<unk>	0
<s>	0
</s>	0
an	-0
er	-1
en	-2
▁d	-3
▁m	-4
ar	-5
at	-6
▁p	-7
ang	-8
ak	-9
in	-10
▁s	-11
as	-12
al	-13
▁k	-14
ah	-15
▁t	-16
em	-17
▁b	-18
am	-19
un	-20
▁di	-21
el	-22
▁men	-23
▁P	-24
ad	-25
kan	-26
tu	-27
▁S	-28
ya	-29
si	-30
▁K	-31
ap	-32
on	-33
▁y	-34
▁yang	-35
eb	-36
il	-37
ga	-38
or	-39
▁B	-40
▁dan	-41
▁M	-42
▁A	-43
es	-44
ik	-45
eng	-46
is	-47
▁ter	-48
ur	-49
ut	-50
▁ber	-51
it	-52
▁l	-53
ing	-54
us	-55
ek	-56
▁D	-57
um	-58
et	-59
asi	-60
akan	-61
ol	-62
▁J	-63
▁meng	-64
▁T	-65
ada	-66
ara	-67
ung	-68
▁I	-69
▁j	-70
▁per	-71
uk	-72
ari	-73
emb	-74
▁2	-75
ab	-76
nya	-77
▁(	-78
▁ke	-79
▁h	-80
ai	-81
im	-82
▁R	-83
om	-84
ul	-85
id	-86
ir	-87
ta	-88
▁in	-89
tuk	-90
▁20	-91
▁un	-92
alam	-93
▁se	-94
▁untuk	-95
ud	-96
itu	-97
ih	-98
▁pen	-99
▁r	-100
engan	-101
ata	-102
▁202	-103
ti	-104
ag	-105
aw	-106
up	-107
▁H	-108
▁dengan	-109
atan	-110
▁mem	-111
angan	-112
eg	-113
▁W	-114
▁-	-115
▁1	-116
▁ini	-117
▁N	-118
▁dari	-119
▁In	-120
adi	-121
esi	-122
▁G	-123
ama	-124
ok	-125
ia	-126
▁itu	-127
",	-128
▁2024	-129
▁C	-130
ro	-131
uh	-132
▁L	-133
▁dalam	-134
▁pada	-135
ant	-136
ed	-137
▁n	-138
ep	-139
▁"	-140
▁mel	-141
and	-142
aga	-143
ian	-144
aya	-145
▁seb	-146
▁U	-147
amp	-148
ukan	-149
ent	-150
▁memb	-151
▁mer	-152
ay	-153
ali	-154
ebut	-155
ri	-156
▁menj	-157
per	-158
eh	-159
▁g	-160
▁ters	-161
idak	-162
▁w	-163
▁meny	-164
ub	-165
▁pem	-166
▁Ind	-167
▁F	-168
eri	-169
aj	-170
ain	-171
▁c	-172
isi	-173
alah	-174
elah	-175
aan	-176
▁Per	-177
uga	-178
▁tidak	-179
ot	-180
wa	-181
angk	-182
end	-183
).	-184
ua	-185
ib	-186
uan	-187
onesi	-188
▁akan	-189
onesia	-190
▁tersebut	-191
▁Indonesia	-192
▁peng	-193
ahan	-194
asa	-195
▁kep	-196
emp	-197
agai	-198
aran	-199
uj	-200
nn	-201
amb	-202
aat	-203
pnn	-204
anj	-205
ota	-206
▁juga	-207
ana	-208
atakan	-209
com	-210
angg	-211
▁E	-212
ati	-213
▁sel	-214
▁WI	-215
▁Pr	-216
▁WIB	-217
▁Sel	-218
tr	-219
usi	-220
▁mend	-221
ahun	-222
▁pro	-223
▁bah	-224
akukan	-225
ami	-226
▁mas	-227
int	-228
orang	-229
gi	-230
ob	-231
anya	-232
any	-233
alu	-234
▁kata	-235
apat	-236
oleh	-237
agi	-238
ra	-239
▁menjadi	-240
arga	-241
cara	-242
akar	-243
▁f	-244
asan	-245
alan	-246
▁An	-247
▁mengatakan	-248
ja	-249
ungan	-250
ter	-251
▁Ke	-252
had	-253
eka	-254
▁saat	-255
▁O	-256
ala	-257
isa	-258
▁bahwa	-259
atu	-260
ika	-261
▁sek	-262
da	-263
▁ad	-264
▁pel	-265
▁ser	-266
▁ak	-267
▁sebagai	-268
ebih	-269
▁oleh	-270
▁telah	-271
ong	-272
ingk	-273
▁ada	-274
▁tahun	-275
ena	-276
ip	-277
itas	-278
apa	-279
os	-280
utu	-281
aman	-282
akarta	-283
yar	-284
▁kar	-285
00	-286
▁kon	-287
ew	-288
▁set	-289
udah	-290
▁bisa	-291
api	-292
▁dil	-293
▁ket	-294
egara	-295
ita	-296
onal	-297
▁ata	-298
AR	-299
lah	-300
ran	-301
▁kem	-302
▁Pol	-303
aru	-304
▁jpnn	-305
ingga	-306
art	-307
▁kepada	-308
▁atau	-309
ingg	-310
▁Y	-311
ind	-312
inya	-313
asil	-314
▁lebih	-315
akat	-316
ow	-317
▁0	-318
aku	-319
▁Pem	-320
▁mereka	-321
▁pert	-322
res	-323
▁menc	-324
ungk	-325
ina	-326
▁pemb	-327
▁Jakarta	-328
gr	-329
elum	-330
urut	-331
esar	-332
▁orang	-333
eber	-334
den	-335
▁satu	-336
▁dis	-337
▁sem	-338
yarakat	-339
▁Men	-340
▁bers	-341
od	-342
aik	-343
osi	-344
▁sudah	-345
anyak	-346
op	-347
empat	-348
awa	-349
▁karena	-350
▁pers	-351
imp	-352
▁Un	-353
▁Is	-354
▁(2	-355
▁dib	-356
▁berk	-357
erint	-358
iri	-359
▁kel	-360
erah	-361
erja	-362
▁adalah	-363
▁(1	-364
▁kes	-365
TA	-366
▁dit	-367
▁3	-368
▁Kota	-369
▁kami	-370
og	-371
▁para	-372
iga	-373
▁berb	-374
▁peny	-375
▁masyarakat	-376
apan	-377
▁an	-378
orm	-379
▁melakukan	-380
ilik	-381
▁Sen	-382
▁Pen	-383
ember	-384
esiden	-385
abu	-386
asih	-387
ban	-388
▁hari	-389
▁pas	-390
▁lain	-391
▁Tim	-392
/1	-393
angs	-394
awan	-395
▁uj	-396
atkan	-397
▁sej	-398
ac	-399
arang	-400
ist	-401
oh	-402
uat	-403
aks	-404
hadap	-405
arkan	-406
ilih	-407
aikan	-408
arus	-409
▁Kem	-410
umat	-411
▁Kam	-412
ini	-413
est	-414
apkan	-415
AK	-416
▁negara	-417
▁Ber	-418
▁terhadap	-419
▁mengg	-420
ej	-421
erikan	-422
ima	-423
omp	-424
▁dik	-425
▁V	-426
▁memper	-427
▁tet	-428
ikan	-429
▁at	-430
▁bagi	-431
▁pr	-432
jadi	-433
ic	-434
▁terb	-435
▁Kab	-436
asional	-437
▁dapat	-438
erintah	-439
▁ujar	-440
▁kor	-441
▁dia	-442
arat	-443
ARTA	-444
AKARTA	-445
upat	-446
umlah	-447
ka	-448
▁secara	-449
uhan	-450
dang	-451
▁Ch	-452
▁Pro	-453
gram	-454
uran	-455
▁hingga	-456
mas	-457
upaten	-458
duk	-459
▁as	-460
▁Selasa	-461
20	-462
▁Rabu	-463
engah	-464
umah	-465
▁JAKARTA	-466
▁v	-467
hir	-468
unj	-469
eberapa	-470
usah	-471
anjut	-472
upakan	-473
▁Senin	-474
ingan	-475
askan	-476
ihak	-477
perti	-478
),	-479
▁Al	-480
ensi	-481
jpnn	-482
▁setelah	-483
ov	-484
▁Sur	-485
▁Dia	-486
▁Kamis	-487
▁merupakan	-488
angat	-489
▁2024.	-490
▁Sem	-491
▁pol	-492
ec	-493
angka	-494
enc	-495
▁dua	-496
usia	-497
▁seperti	-498
▁Kep	-499
antu	-500
▁AS	-501
ayah	-502
▁baru	-503
▁saya	-504
▁keb	-505
ulan	-506
▁Ag	-507
▁Kabupaten	-508
uka	-509
▁Jumat	-510
PP	-511
▁warga	-512
tua	-513
alon	-514
▁masih	-515
ses	-516
▁pun	-517
▁ag	-518
▁harus	-519
▁ek	-520
▁dilakukan	-521
▁beberapa	-522
▁Am	-523
▁Ter	-524
▁serta	-525
aerah	-526
asus	-527
tif	-528
▁memberikan	-529
iliki	-530
ump	-531
alui	-532
▁Mar	-533
era	-534
▁anak	-535
▁pend	-536
amun	-537
angsung	-538
ilan	-539
▁banyak	-540
anc	-541
▁ant	-542
uang	-543
ekan	-544
▁Jawa	-545
engg	-546
ukum	-547
artai	-548
ni	-549
ayan	-550
AN	-551
rael	-552
itik	-553
▁Ar	-554
ilayah	-555
▁Presiden	-556
▁korban	-557
▁lalu	-558
▁dip	-559
▁hanya	-560
▁atas	-561
▁pihak	-562
olo	-563
tor	-564
▁besar	-565
ikasi	-566
tur	-567
▁berh	-568
ons	-569
▁su	-570
▁Kom	-571
di	-572
▁Israel	-573
uah	-574
unan	-575
▁Pil	-576
inan	-577
uar	-578
▁Di	-579
▁dig	-580
▁memiliki	-581
▁Bali	-582
▁rumah	-583
ern	-584
apor	-585
▁bersama	-586
form	-587
ea	-588
inggu	-589
202	-590
agian	-591
tikan	-592
▁Ketua	-593
owo	-594
▁terjadi	-595
af	-596
uruh	-597
▁tim	-598
▁seh	-599
erangan	-600
▁selama	-601
itar	-602
ting	-603
▁baik	-604
▁melalui	-605
▁berl	-606
uc	-607
ev	-608
▁Sab	-609
▁sangat	-610
imb	-611
▁Ap	-612
aksi	-613
unia	-614
embali	-615
ug	-616
ani	-617
ulai	-618
▁ker	-619
▁salah	-620
▁Seb	-621
▁ked	-622
▁Menurut	-623
▁Peng	-624
▁Des	-625
▁kasus	-626
entara	-627
wan	-628
inta	-629
st	-630
man	-631
▁DP	-632
ilai	-633
ei	-634
▁wak	-635
kait	-636
▁wilayah	-637
angkan	-638
▁4	-639
elar	-640
▁sen	-641
ikut	-642
▁Band	-643
iap	-644
▁bert	-645
▁Pas	-646
▁pemerintah	-647
ampaikan	-648
▁5	-649
edia	-650
▁Rp	-651
▁Sabtu	-652
aja	-653
unakan	-654
gaw	-655
▁kita	-656
▁Pel	-657
▁mengh	-658
au	-659
▁mil	-660
▁sama	-661
ahu	-662
unc	-663
▁al	-664
▁terl	-665
▁tetapi	-666
umb	-667
iv	-668
▁Barat	-669
lu	-670
▁Namun	-671
abowo	-672
▁ap	-673
▁Minggu	-674
▁PT	-675
▁Prabowo	-676
▁angg	-677
▁terus	-678
▁sebelum	-679
▁kom	-680
oto	-681
▁dir	-682
▁terkait	-683
▁kembali	-684
ny	-685
isasi	-686
utus	-687
han	-688
adan	-689
utan	-690
▁persen	-691
ihat	-692
▁kek	-693
tri	-694
▁sekitar	-695
kr	-696
uda	-697
enter	-698
tern	-699
▁kec	-700
▁hal	-701
udi	-702
ig	-703
▁meningk	-704
▁hukum	-705
pa	-706
entang	-707
unya	-708
▁seluruh	-709
anto	-710
ungg	-711
onom	-712
▁mendapat	-713
▁agar	-714
udian	-715
▁19	-716
az	-717
▁Ser	-718
▁St	-719
kada	-720
ark	-721
▁berbagai	-722
arah	-723
▁Dir	-724
▁did	-725
▁sep	-726
▁Ad	-727
ij	-728
▁pes	-729
▁Ment	-730
2024	-731
▁tak	-732
▁tiga	-733
idikan	-734
▁terd	-735
atih	-736
inggal	-737
lik	-738
atang	-739
omor	-740
▁daerah	-741
▁Kor	-742
.00	-743
amatan	-744
mi	-745
▁o	-746
▁Pert	-747
abat	-748
sp	-749
▁tan	-750
ju	-751
▁hasil	-752
uli	-753
epan	-754
upaya	-755
uru	-756
▁program	-757
▁menjel	-758
entu	-759
ahkan	-760
▁sebuah	-761
▁Selatan	-762
men	-763
▁lainnya	-764
masuk	-765
egeri	-766
ukung	-767
if	-768
▁KP	-769
ehatan	-770
▁samp	-771
▁10	-772
apai	-773
ubern	-774
iz	-775
ubernur	-776
usahaan	-777
▁calon	-778
emen	-779
▁dunia	-780
▁Menteri	-781
▁menyebut	-782
▁diper	-783
▁Dalam	-784
uari	-785
▁produk	-786
sa	-787
uta	-788
und	-789
etu	-790
▁belum	-791
air	-792
▁Ut	-793
formasi	-794
tas	-795
osial	-796
ologi	-797
".	-798
▁Tr	-799
▁pertama	-800
ersi	-801
▁antara	-802
▁RI	-803
abaya	-804
▁tentang	-805
▁Z	-806
ilu	-807
aris	-808
▁Kepala	-809
anti	-810
▁sedang	-811
▁Agus	-812
▁ses	-813
inggi	-814
/2024	-815
▁Surabaya	-816
ank	-817
utama	-818
▁kerja	-819
ampak	-820
▁penting	-821
ingin	-822
▁menghad	-823
ef	-824
▁res	-825
▁dem	-826
▁kh	-827
mad	-828
▁Hal	-829
▁Bandung	-830
iter	-831
ayanan	-832
abar	-833
elas	-834
okasi	-835
▁membuat	-836
MK	-837
olah	-838
▁semua	-839
idang	-840
ilihan	-841
▁termasuk	-842
▁Mas	-843
nas	-844
▁Ket	-845
ekerja	-846
amanan	-847
▁sejumlah	-848
▁pelaku	-849
▁memas	-850
▁berj	-851
▁Timur	-852
alami	-853
▁berd	-854
▁As	-855
▁Sep	-856
insi	-857
atanya	-858
▁langsung	-859
▁Partai	-860
▁Mer	-861
ril	-862
▁Sek	-863
▁st	-864
araan	-865
▁Th	-866
▁Ini	-867
li	-868
akin	-869
▁China	-870
▁Set	-871
umum	-872
impin	-873
atif	-874
ibat	-875
▁depan	-876
▁Kec	-877
uas	-878
akit	-879
ungkap	-880
▁sejak	-881
▁berp	-882
▁Pilkada	-883
▁man	-884
re	-885
akhir	-886
ual	-887
▁penc	-888
▁Tengah	-889
usus	-890
sia	-891
antan	-892
▁bi	-893
▁DPR	-894
▁kedua	-895
▁anggota	-896
unjuk	-897
esk	-898
▁a	-899
▁terp	-900
▁katanya	-901
tiv	-902
▁Ak	-903
anda	-904
▁7	-905
▁Um	-906
antor	-907
▁2023	-908
▁kali	-909
▁mener	-910
awat	-911
▁bagian	-912
angunan	-913
▁suara	-914
▁waktu	-915
▁Persi	-916
epat	-917
asis	-918
▁seorang	-919
ibu	-920
istr	-921
▁Jok	-922
aka	-923
▁dim	-924
empuan	-925
▁mendukung	-926
▁Pal	-927
▁bulan	-928
enterian	-929
encana	-930
▁politik	-931
▁Ok	-932
▁sehingga	-933
ono	-934
▁pengg	-935
ustr	-936
▁6	-937
aian	-938
gas	-939
ch	-940
uni	-941
asar	-942
erika	-943
▁tempat	-944
akil	-945
▁mengaku	-946
usat	-947
▁15	-948
▁ya	-949
▁Ang	-950
▁serangan	-951
▁menyampaikan	-952
▁akhir	-953
arg	-954
utusan	-955
▁kota	-956
atim	-957
nyata	-958
▁mulai	-959
ont	-960
ekn	-961
lin	-962
▁Kap	-963
▁Selain	-964
awasan	-965
SI	-966
aksan	-967
▁Mal	-968
▁Amerika	-969
▁meningkatkan	-970
▁12	-971
▁saja	-972
▁proses	-973
onomi	-974
▁perusahaan	-975
ompok	-976
▁lagi	-977
▁Polres	-978
ingkat	-979
▁Kar	-980
din	-981
▁[	-982
oba	-983
▁kons	-984
ober	-985
emukan	-986
▁Nov	-987
▁Direk	-988
▁ind	-989
ikat	-990
▁aw	-991
eo	-992
engk	-993
▁ketika	-994
▁bel	-995
DI	-996
PN	-997
alau	-998
▁Pada	-999
▁sosial	-1000
▁menggunakan	-1001
ublik	-1002
ard	-1003
eksi	-1004
▁kamp	-1005
▁seg	-1006
▁sur	-1007
▁malam	-1008
▁juta	-1009
akni	-1010
▁14	-1011
gaj	-1012
▁kesehatan	-1013
ers	-1014
uarga	-1015
usaha	-1016
otor	-1017
-1	-1018
NI	-1019
ukungan	-1020
vinsi	-1021
▁2024,	-1022
▁menjelaskan	-1023
▁Rusia	-1024
idup	-1025
▁16	-1026
egi	-1027
ort	-1028
oal	-1029
eral	-1030
▁tinggi	-1031
▁yakni	-1032
▁media	-1033
▁Umum	-1034
obil	-1035
▁201	-1036
▁Okt	-1037
adir	-1038
▁min	-1039
▁Sh	-1040
▁tetap	-1041
▁pemain	-1042
▁bukan	-1043
antuan	-1044
KP	-1045
▁Mah	-1046
▁Oktober	-1047
▁mengen	-1048
▁kegi	-1049
perasi	-1050
AS	-1051
una	-1052
alkan	-1053
▁kegiatan	-1054
▁keterangan	-1055
▁Man	-1056
▁ingin	-1057
abil	-1058
upun	-1059
▁ma	-1060
arap	-1061
30	-1062
▁Gubernur	-1063
▁diri	-1064
▁Kecamatan	-1065
▁PPP	-1066
tus	-1067
▁lanjut	-1068
▁air	-1069
▁Put	-1070
▁ben	-1071
▁masa	-1072
ukul	-1073
usan	-1074
anjang	-1075
ko	-1076
aling	-1077
angkah	-1078
rat	-1079
aza	-1080
▁tersangka	-1081
▁Kami	-1082
▁berada	-1083
▁upaya	-1084
▁Kementerian	-1085
inal	-1086
ca	-1087
angkap	-1088
▁Unit	-1089
▁mendapatkan	-1090
tar	-1091
▁kemudian	-1092
▁luar	-1093
owi	-1094
▁masuk	-1095
▁sekali	-1096
ukti	-1097
▁sampai	-1098
▁11	-1099
▁November	-1100
ahanan	-1101
▁apa	-1102
▁Jan	-1103
▁sesu	-1104
aporan	-1105
ola	-1106
▁dih	-1107
ula	-1108
angi	-1109
▁presiden	-1110
▁Tahun	-1111
▁put	-1112
▁mencapai	-1113
gab	-1114
▁Juli	-1115
iran	-1116
upsi	-1117
na	-1118
▁13	-1119
▁17	-1120
▁Wakil	-1121
ingkungan	-1122
▁sebelumnya	-1123
oy	-1124
tim	-1125
▁khusus	-1126
▁makan	-1127
▁kur	-1128
ambil	-1129
yat	-1130
▁kond	-1131
▁posi	-1132
▁pern	-1133
▁menunjuk	-1134
le	-1135
ibran	-1136
▁Semarang	-1137
▁en	-1138
akal	-1139
.000	-1140
itmen	-1141
▁Gaza	-1142
▁8	-1143
▁acara	-1144
▁tran	-1145
▁perempuan	-1146
▁uc	-1147
▁dukungan	-1148
▁jelas	-1149
ator	-1150
ogor	-1151
▁Kel	-1152
urkan	-1153
ungkin	-1154
▁komp	-1155
adilan	-1156
aki	-1157
uhi	-1158
▁musi	-1159
▁kawasan	-1160
▁kend	-1161
▁Bogor	-1162
:0	-1163
eda	-1164
enangan	-1165
jata	-1166
▁Sementara	-1167
ilm	-1168
▁Direktur	-1169
ustri	-1170
yah	-1171
▁penyel	-1172
orong	-1173
▁jalan	-1174
▁pasangan	-1175
▁Polda	-1176
▁membantu	-1177
▁18	-1178
▁jadi	-1179
▁Utara	-1180
anye	-1181
▁21	-1182
▁hak	-1183
▁Agustus	-1184
▁nomor	-1185
▁Jalan	-1186
▁Nasional	-1187
▁menyatakan	-1188
▁pukul	-1189
▁Se	-1190
▁pengh	-1191
▁mengalami	-1192
ital	-1193
ambah	-1194
▁Badan	-1195
utur	-1196
▁Juni	-1197
▁Peny	-1198
▁perk	-1199
oc	-1200
▁terakhir	-1201
iversi	-1202
▁intern	-1203
itan	-1204
RI	-1205
▁Foto	-1206
▁Dep	-1207
▁Jadi	-1208
▁menunjukkan	-1209
:1	-1210
▁Hari	-1211
endiri	-1212
tember	-1213
▁Ab	-1214
▁Har	-1215
▁bantuan	-1216
▁memastikan	-1217
uatan	-1218
▁Desa	-1219
/2024).	-1220
ayaan	-1221
KB	-1222
▁September	-1223
▁PPPK	-1224
▁jika	-1225
▁kap	-1226
iar	-1227
▁Desember	-1228
ulang	-1229
▁lokasi	-1230
awah	-1231
resi	-1232
▁ekonomi	-1233
ode	-1234
▁Mei	-1235
▁keluarga	-1236
erj	-1237
omb	-1238
Kami	-1239
ond	-1240
awab	-1241
▁gamb	-1242
angun	-1243
▁meminta	-1244
▁Saya	-1245
ema	-1246
▁ucap	-1247
▁jumlah	-1248
aut	-1249
▁berm	-1250
▁berlangsung	-1251
ateng	-1252
/11	-1253
ebr	-1254
▁din	-1255
▁tengah	-1256
emuan	-1257
▁April	-1258
jen	-1259
erik	-1260
ukai	-1261
▁Pemerintah	-1262
▁Ir	-1263
▁Kal	-1264
▁Kh	-1265
urun	-1266
to	-1267
▁Januari	-1268
▁meninggal	-1269
▁berhasil	-1270
erang	-1271
aju	-1272
ubungan	-1273
faat	-1274
eman	-1275
ey	-1276
ulu	-1277
▁Negeri	-1278
▁si	-1279
▁setiap	-1280
aporkan	-1281
umber	-1282
ahui	-1283
otensi	-1284
▁PDI	-1285
▁tr	-1286
▁str	-1287
▁Ah	-1288
▁awal	-1289
kar	-1290
oor	-1291
erta	-1292
▁memp	-1293
▁United	-1294
▁laga	-1295
▁mana	-1296
sel	-1297
▁maupun	-1298
▁Sub	-1299
/7	-1300
angga	-1301
▁asal	-1302
▁tind	-1303
ungkapkan	-1304
ebab	-1305
edi	-1306
dul	-1307
aim	-1308
isn	-1309
▁rek	-1310
▁Timnas	-1311
▁partai	-1312
isata	-1313
▁empat	-1314
▁ia	-1315
▁ujarnya	-1316
▁Jokowi	-1317
▁polisi	-1318
▁soal	-1319
▁melihat	-1320
urn	-1321
▁Pemb	-1322
irkan	-1323
emu	-1324
/8	-1325
▁tekn	-1326
▁sesuai	-1327
etahui	-1328
▁pihaknya	-1329
▁kl	-1330
▁mobil	-1331
asarkan	-1332
:5	-1333
▁berharap	-1334
▁sebesar	-1335
/5	-1336
▁perb	-1337
KI	-1338
ujan	-1339
ungi	-1340
rasi	-1341
▁Sum	-1342
aih	-1343
▁Universi	-1344
ugaan	-1345
:4	-1346
sek	-1347
▁resmi	-1348
▁pernah	-1349
embangan	-1350
▁menurut	-1351
ewan	-1352
▁memen	-1353
▁pet	-1354
▁kelompok	-1355
▁9	-1356
▁Sat	-1357
▁Liga	-1358
:3	-1359
uangan	-1360
ulkan	-1361
upati	-1362
krain	-1363
▁Komisi	-1364
▁gambar	-1365
▁terk	-1366
ijakan	-1367
kraina	-1368
▁Ham	-1369
▁ungkap	-1370
ura	-1371
▁Pi	-1372
▁kondisi	-1373
▁militer	-1374
/10	-1375
▁sendiri	-1376
▁Trump	-1377
▁bekerja	-1378
▁Maret	-1379
akyat	-1380
▁tangg	-1381
andingan	-1382
▁sk	-1383
anjar	-1384
▁Ked	-1385
▁Ukraina	-1386
nyataan	-1387
/12	-1388
▁kr	-1389
▁utama	-1390
▁Suk	-1391
unt	-1392
ikuti	-1393
▁Mereka	-1394
▁hadir	-1395
▁nasional	-1396
asiswa	-1397
▁ar	-1398
istrik	-1399
▁Muh	-1400
▁Asia	-1401
▁perd	-1402
▁lingkungan	-1403
▁Daerah	-1404
▁informasi	-1405
/9	-1406
▁Pend	-1407
▁laporan	-1408
erb	-1409
ies	-1410
etugas	-1411
▁Para	-1412
upa	-1413
ampung	-1414
istem	-1415
▁perj	-1416
iden	-1417
▁tanpa	-1418
▁X	-1419
▁yaitu	-1420
▁kendaraan	-1421
embaga	-1422
▁adanya	-1423
ewas	-1424
imana	-1425
▁perlu	-1426
/6	-1427
av	-1428
/3	-1429
anak	-1430
▁dek	-1431
▁menjalan	-1432
ukup	-1433
angkat	-1434
▁barang	-1435
▁Provinsi	-1436
egaw	-1437
abor	-1438
org	-1439
▁Dem	-1440
▁KPU	-1441
ateg	-1442
arget	-1443
ejabat	-1444
ade	-1445
▁perm	-1446
▁&	-1447
anding	-1448
lim	-1449
▁Kapol	-1450
▁memperk	-1451
▁menerima	-1452
▁bakal	-1453
▁sebanyak	-1454
/4	-1455
▁Iran	-1456
aranya	-1457
▁Kr	-1458
ampu	-1459
onor	-1460
▁layanan	-1461
alaman	-1462
▁penj	-1463
▁keber	-1464
ergi	-1465
▁Pemilu	-1466
agaimana	-1467
▁22	-1468
usai	-1469
▁par	-1470
eta	-1471
▁Korea	-1472
▁Air	-1473
elit	-1474
▁uang	-1475
▁keamanan	-1476
impinan	-1477
▁dugaan	-1478
alia	-1479
▁mengungkapkan	-1480
adion	-1481
apun	-1482
▁konf	-1483
iaya	-1484
idana	-1485
ez	-1486
vest	-1487
eter	-1488
▁mengenai	-1489
▁Pak	-1490
▁melawan	-1491
▁tuj	-1492
▁TNI	-1493
▁dirinya	-1494
▁paling	-1495
ham	-1496
ANG	-1497
irim	-1498
▁Sul	-1499
▁Kes	-1500
amat	-1501
embang	-1502
▁membawa	-1503
▁Ada	-1504
▁Keb	-1505
aksanakan	-1506
▁sat	-1507
▁Ol	-1508
▁industri	-1509
▁Den	-1510
▁menggelar	-1511
ilang	-1512
▁Anda	-1513
▁Ek	-1514
udara	-1515
▁dok	-1516
▁masalah	-1517
▁kini	-1518
▁umum	-1519
isti	-1520
▁pendidikan	-1521
tik	-1522
-2	-1523
ungsi	-1524
ism	-1525
▁Serikat	-1526
enang	-1527
▁menjaga	-1528
▁Piala	-1529
atihan	-1530
erintahan	-1531
▁Br	-1532
▁kepala	-1533
▁perang	-1534
▁Saat	-1535
umen	-1536
▁mengaj	-1537
gag	-1538
▁sp	-1539
▁muda	-1540
ajar	-1541
▁En	-1542
▁des	-1543
▁menghadapi	-1544
isnis	-1545
▁pl	-1546
idik	-1547
▁bawah	-1548
▁pertandingan	-1549
utuhan	-1550
▁berg	-1551
apres	-1552
▁lima	-1553
▁PS	-1554
▁Sej	-1555
▁Pers	-1556
▁II	-1557
▁Din	-1558
▁Leb	-1559
PB	-1560
▁cukup	-1561
oni	-1562
tum	-1563
apua	-1564
fi	-1565
uaca	-1566
▁nama	-1567
▁Res	-1568
▁And	-1569
▁PB	-1570
▁Ia	-1571
▁Anies	-1572
▁pembangunan	-1573
alnya	-1574
▁Gol	-1575
fr	-1576
▁Mel	-1577
oordin	-1578
▁Pusat	-1579
▁(3	-1580
▁sementara	-1581
▁segera	-1582
▁KPK	-1583
▁23	-1584
▁surat	-1585
atian	-1586
▁langkah	-1587
▁pelangg	-1588
estina	-1589
KN	-1590
▁menyel	-1591
edung	-1592
▁mah	-1593
▁30	-1594
▁kampanye	-1595
▁harga	-1596
antai	-1597
ori	-1598
hi	-1599
▁So	-1600
▁Negara	-1601
uara	-1602
▁urut	-1603
AM	-1604
intas	-1605
▁mungkin	-1606
ret	-1607
:2	-1608
▁diter	-1609
▁senjata	-1610
erjaan	-1611
▁akibat	-1612
ha	-1613
▁sed	-1614
egal	-1615
▁situ	-1616
▁Papua	-1617
▁bukti	-1618
▁Ari	-1619
▁of	-1620
▁negeri	-1621
iau	-1622
▁data	-1623
▁Stadion	-1624
▁Universitas	-1625
▁keh	-1626
▁Kantor	-1627
saan	-1628
angsa	-1629
anan	-1630
ubahan	-1631
▁digelar	-1632
▁memang	-1633
▁pernyataan	-1634
PS	-1635
▁kal	-1636
uku	-1637
▁kebijakan	-1638
gus	-1639
untu	-1640
▁tutur	-1641
▁mampu	-1642
ira	-1643
▁berin	-1644
▁25	-1645
▁Sp	-1646
▁meneg	-1647
▁'	-1648
▁op	-1649
utuh	-1650
▁Kemen	-1651
▁sekolah	-1652
jadian	-1653
▁ken	-1654
elak	-1655
▁Ger	-1656
▁mantan	-1657
busi	-1658
▁Gr	-1659
▁sistem	-1660
▁Setelah	-1661
▁dij	-1662
▁on	-1663
▁internasional	-1664
erd	-1665
anten	-1666
▁kebutuhan	-1667
uju	-1668
▁Bea	-1669
▁Palestina	-1670
ualitas	-1671
sip	-1672
▁kol	-1673
▁tingkat	-1674
▁terj	-1675
▁jam	-1676
▁Ahmad	-1677
okus	-1678
atur	-1679
▁em	-1680
aksa	-1681
agu	-1682
icara	-1683
▁pejabat	-1684
line	-1685
umi	-1686
▁pekan	-1687
▁lama	-1688
war	-1689
▁siap	-1690
▁Keterangan	-1691
empatan	-1692
▁miliar	-1693
eski	-1694
eran	-1695
▁bal	-1696
▁hidup	-1697
etapkan	-1698
▁Polisi	-1699
AB	-1700
ulit	-1701
▁Ac	-1702
▁pemilu	-1703
▁Solo	-1704
▁milik	-1705
argaan	-1706
▁Ganjar	-1707
ideo	-1708
adw	-1709
▁Febr	-1710
▁datang	-1711
▁Cukai	-1712
▁Polri	-1713
▁Jep	-1714
▁bersi	-1715
▁punya	-1716
▁Q	-1717
▁lap	-1718
juangan	-1719
isian	-1720
edan	-1721
▁mendorong	-1722
▁sekaligus	-1723
alur	-1724
ambahkan	-1725
ohon	-1726
arkoba	-1727
pres	-1728
yo	-1729
eal	-1730
▁int	-1731
▁mod	-1732
eriksaan	-1733
▁Wid	-1734
▁Ing	-1735
min	-1736
ebat	-1737
ingkatan	-1738
▁makanan	-1739
andang	-1740
enaga	-1741
▁hujan	-1742
▁akhirnya	-1743
enderal	-1744
▁Il	-1745
unga	-1746
▁Depok	-1747
▁diduga	-1748
▁sakit	-1749
▁bahkan	-1750
ibatkan	-1751
▁publik	-1752
enis	-1753
▁Bank	-1754
▁wakil	-1755
etak	-1756
▁Bupati	-1757
lob	-1758
▁1.	-1759
▁mendatang	-1760
uanya	-1761
▁tanah	-1762
▁24	-1763
ft	-1764
▁Intern	-1765
▁war	-1766
amah	-1767
▁motor	-1768
▁pemerintahan	-1769
engar	-1770
▁pemimpin	-1771
ell	-1772
▁aman	-1773
▁Or	-1774
▁Bas	-1775
▁Hamas	-1776
UR	-1777
▁Februari	-1778
▁el	-1779
▁Meng	-1780
▁Untuk	-1781
oin	-1782
ongan	-1783
▁bern	-1784
▁kont	-1785
arik	-1786
truk	-1787
dukung	-1788
▁listrik	-1789
▁menilai	-1790
baru	-1791
ianto	-1792
▁kejadian	-1793
▁pan	-1794
▁mew	-1795
▁Angg	-1796
arin	-1797
▁ribu	-1798
lobal	-1799
onorer	-1800
▁digunakan	-1801
anggung	-1802
▁El	-1803
▁cara	-1804
▁guru	-1805
ma	-1806
EN	-1807
atat	-1808
ambang	-1809
▁Biden	-1810
▁menegaskan	-1811
▁tert	-1812
▁Persib	-1813
▁ditemukan	-1814
ampil	-1815
auh	-1816
tivitas	-1817
no	-1818
▁PP	-1819
▁ny	-1820
ammad	-1821
▁Gun	-1822
▁menambahkan	-1823
uki	-1824
ert	-1825
▁perl	-1826
▁Nomor	-1827
aborasi	-1828
olusi	-1829
▁pasar	-1830
▁berjalan	-1831
adaan	-1832
amina	-1833
▁beras	-1834
▁menuju	-1835
▁dic	-1836
▁kalau	-1837
enar	-1838
unaan	-1839
erasan	-1840
▁kapal	-1841
enal	-1842
anjir	-1843
uti	-1844
embak	-1845
isial	-1846
ity	-1847
▁teknologi	-1848
▁Jatim	-1849
▁08	-1850
▁Dit	-1851
▁Nus	-1852
fikasi	-1853
▁ibu	-1854
▁ment	-1855
ujud	-1856
▁DKI	-1857
enggara	-1858
▁Jepang	-1859
▁petugas	-1860
egitu	-1861
anisasi	-1862
uri	-1863
▁tewas	-1864
▁Met	-1865
▁peserta	-1866
▁aksi	-1867
▁bisnis	-1868
okrasi	-1869
inc	-1870
ebabkan	-1871
olisian	-1872
▁Dengan	-1873
uasa	-1874
▁bat	-1875
▁Adapun	-1876
▁eks	-1877
▁pil	-1878
▁sempat	-1879
▁Ero	-1880
▁Salah	-1881
▁07	-1882
▁Sebelum	-1883
por	-1884
▁peri	-1885
jo	-1886
erl	-1887
sis	-1888
▁Tan	-1889
erahkan	-1890
▁Banten	-1891
▁pri	-1892
MI	-1893
aji	-1894
▁komitmen	-1895
▁Baru	-1896
▁sebagian	-1897
▁terutama	-1898
▁Wali	-1899
▁pemeriksaan	-1900
▁meraih	-1901
▁kantor	-1902
▁komun	-1903
iah	-1904
otal	-1905
▁terbaik	-1906
▁tahu	-1907
▁Eropa	-1908
alanan	-1909
ipun	-1910
▁sektor	-1911
▁Ram	-1912
arian	-1913
▁Jaya	-1914
▁semakin	-1915
▁periode	-1916
eskipun	-1917
▁Pertamina	-1918
▁diberikan	-1919
▁Jenderal	-1920
▁Kemudian	-1921
adah	-1922
erasi	-1923
krim	-1924
▁Rep	-1925
oro	-1926
isk	-1927
ajaran	-1928
▁Kej	-1929
antara	-1930
▁rasa	-1931
▁perc	-1932
▁musim	-1933
▁Program	-1934
▁Calon	-1935
lam	-1936
▁jatim	-1937
MKM	-1938
▁berinisial	-1939
▁Subianto	-1940
bu	-1941
▁gol	-1942
▁cepat	-1943
▁hubungan	-1944
▁Dinas	-1945
▁potensi	-1946
▁kab	-1947
▁cuaca	-1948
umas	-1949
▁Bal	-1950
abilitas	-1951
lon	-1952
▁Sup	-1953
▁korupsi	-1954
▁teg	-1955
untut	-1956
▁pak	-1957
▁selalu	-1958
ampir	-1959
anjutan	-1960
▁Tak	-1961
▁mengikuti	-1962
/2	-1963
adang	-1964
▁ketiga	-1965
▁membangun	-1966
okal	-1967
▁perubahan	-1968
▁digital	-1969
▁rakyat	-1970
ipil	-1971
▁meningkat	-1972
ubah	-1973
ation	-1974
arakan	-1975
resiasi	-1976
▁disampaikan	-1977
▁tok	-1978
oritas	-1979
▁bertu	-1980
enda	-1981
sama	-1982
▁The	-1983
▁jabar	-1984
▁gr	-1985
anjutkan	-1986
▁27	-1987
olak	-1988
▁09	-1989
ulasi	-1990
▁berusia	-1991
NG	-1992
▁BB	-1993
▁keputusan	-1994
▁Jabar	-1995
eli	-1996
ambut	-1997
▁pemilihan	-1998
asilitas	-1999
▁ef	-2000
▁Jateng	-2001
▁pertemuan	-2002
▁usaha	-2003
▁Mus	-2004
akah	-2005
gris	-2006
/11).	-2007
▁film	-2008
▁tindakan	-2009
ogy	-2010
amin	-2011
/8).	-2012
aftar	-2013
yak	-2014
ky	-2015
▁FC	-2016
▁memberi	-2017
yek	-2018
antas	-2019
▁bentuk	-2020
anggap	-2021
▁Agung	-2022
vestasi	-2023
▁disebut	-2024
ore	-2025
okan	-2026
▁Has	-2027
▁mahasiswa	-2028
▁kesempatan	-2029
ach	-2030
▁kemenangan	-2031
/7).	-2032
UM	-2033
▁PBB	-2034
▁mengel	-2035
▁jar	-2036
▁jauh	-2037
atasan	-2038
▁perjalanan	-2039
▁peningkatan	-2040
ans	-2041
idat	-2042
▁Gibran	-2043
eks	-2044
▁Mad	-2045
▁Tidak	-2046
▁pember	-2047
▁(5	-2048
▁Mo	-2049
▁jenis	-2050
utup	-2051
ajang	-2052
▁nanti	-2053
AT	-2054
▁Si	-2055
ugas	-2056
▁trans	-2057
▁pul	-2058
▁desa	-2059
▁Austr	-2060
umsi	-2061
pasar	-2062
▁terc	-2063
atangan	-2064
tribusi	-2065
Gibran	-2066
elakaan	-2067
▁ikut	-2068
▁Ins	-2069
▁video	-2070
▁terpilih	-2071
▁terbaru	-2072
/10).	-2073
▁dekat	-2074
▁Inggris	-2075
▁Par	-2076
▁posisi	-2077
alahan	-2078
ovasi	-2079
arapkan	-2080
rov	-2081
likasi	-2082
▁Im	-2083
▁enam	-2084
umumkan	-2085
▁membuka	-2086
▁memilih	-2087
▁form	-2088
Saya	-2089
▁bahan	-2090
utuhkan	-2091
▁seusai	-2092
▁mengambil	-2093
▁kuat	-2094
5.	-2095
▁is	-2096
atar	-2097
▁Gar	-2098
▁kurang	-2099
awas	-2100
onel	-2101
▁maka	-2102
▁Dewan	-2103
ayakan	-2104
▁Pl	-2105
▁Ant	-2106
▁kand	-2107
▁kecil	-2108
▁satunya	-2109
▁2022	-2110
vei	-2111
▁Perd	-2112
▁begitu	-2113
▁tinggal	-2114
bes	-2115
enti	-2116
▁Golkar	-2117
ipt	-2118
▁UMKM	-2119
▁udara	-2120
▁Ma	-2121
▁daya	-2122
ajak	-2123
okok	-2124
ulis	-2125
▁Denpasar	-2126
▁Hukum	-2127
▁jawab	-2128
▁menjalani	-2129
uhnya	-2130
sipasi	-2131
erman	-2132
▁tenaga	-2133
▁terlibat	-2134
itra	-2135
▁Komp	-2136
▁Rumah	-2137
▁il	-2138
▁pria	-2139
abatan	-2140
▁berkom	-2141
▁Pemilihan	-2142
ilis	-2143
▁200	-2144
amankan	-2145
alis	-2146
▁merasa	-2147
of	-2148
undang	-2149
▁saksi	-2150
▁New	-2151
ly	-2152
▁Rah	-2153
▁menging	-2154
▁melaporkan	-2155
uf	-2156
▁Sy	-2157
▁kej	-2158
/1).	-2159
▁ger	-2160
ayat	-2161
▁memenuhi	-2162
anta	-2163
▁menit	-2164
▁(4	-2165
abr	-2166
ate	-2167
▁nilai	-2168
irakan	-2169
wak	-2170
/5).	-2171
▁suk	-2172
atusan	-2173
stitu	-2174
▁ungg	-2175
▁pusat	-2176
▁bidang	-2177
▁online	-2178
ansi	-2179
▁dampak	-2180
▁Mil	-2181
istik	-2182
▁berdasarkan	-2183
▁06	-2184
ewat	-2185
▁z	-2186
▁org	-2187
▁poin	-2188
▁PDIP	-2189
▁Menurutnya	-2190
▁i	-2191
▁gen	-2192
▁dr	-2193
▁biasa	-2194
▁penuh	-2195
grasi	-2196
aturan	-2197
▁Warga	-2198
▁Sumat	-2199
▁Kons	-2200
▁ditangkap	-2201
ry	-2202
▁ut	-2203
▁Nur	-2204
tumb	-2205
▁khususnya	-2206
▁pener	-2207
ex	-2208
▁Dari	-2209
inasi	-2210
▁mempert	-2211
uncurkan	-2212
ce	-2213
▁keluar	-2214
one	-2215
▁Bel	-2216
▁ASN	-2217
gabung	-2218
ayar	-2219
▁mau	-2220
▁sumber	-2221
onf	-2222
▁tel	-2223
unuhan	-2224
uman	-2225
▁kontr	-2226
,5	-2227
pol	-2228
entasi	-2229
▁bagaimana	-2230
omo	-2231
▁global	-2232
negara	-2233
▁turun	-2234
▁dibanding	-2235
▁Em	-2236
▁positif	-2237
▁sekarang	-2238
/6).	-2239
ratis	-2240
kot	-2241
▁SE	-2242
▁Gedung	-2243
▁honorer	-2244
▁Sal	-2245
ikit	-2246
isme	-2247
▁Riau	-2248
▁maju	-2249
▁har	-2250
▁Dunia	-2251
..	-2252
fud	-2253
atus	-2254
▁imb	-2255
PK	-2256
iptakan	-2257
▁menang	-2258
aksanaan	-2259
▁tah	-2260
▁banjir	-2261
▁menemukan	-2262
▁Perjuangan	-2263
▁and	-2264
anian	-2265
▁Dr	-2266
uduk	-2267
▁operasi	-2268
▁Dan	-2269
udaya	-2270
▁fasilitas	-2271
ewa	-2272
▁Mak	-2273
masing	-2274
▁Australia	-2275
ho	-2276
▁Pes	-2277
iba	-2278
/9).	-2279
unjung	-2280
▁keras	-2281
elawan	-2282
unjungan	-2283
▁gubernur	-2284
▁ist	-2285
▁penghargaan	-2286
ikian	-2287
▁ditu	-2288
AY	-2289
▁bermain	-2290
▁lembaga	-2291
ahter	-2292
▁Budi	-2293
▁pagi	-2294
▁tambah	-2295
indungan	-2296
▁pekerja	-2297
▁kekerasan	-2298
erensi	-2299
▁unit	-2300
▁Su	-2301
unggu	-2302
▁kompet	-2303
▁Yo	-2304
▁laut	-2305
▁total	-2306
▁antaranya	-2307
▁26	-2308
▁Utama	-2309
/12).	-2310
▁wisata	-2311
ogyakarta	-2312
ris	-2313
iti	-2314
▁setempat	-2315
▁hampir	-2316
amping	-2317
ens	-2318
annya	-2319
▁tepat	-2320
▁Raya	-2321
▁perh	-2322
awaslu	-2323
▁Besar	-2324
▁bali	-2325
PR	-2326
urah	-2327
ungkinan	-2328
Un	-2329
▁pasukan	-2330
MKG	-2331
ahas	-2332
uhkan	-2333
izin	-2334
otel	-2335
tumbuhan	-2336
▁Pelatih	-2337
ARA	-2338
▁engg	-2339
▁dana	-2340
▁lapangan	-2341
▁28	-2342
▁Us	-2343
▁For	-2344
▁masing	-2345
▁naik	-2346
ona	-2347
▁tegas	-2348
odo	-2349
tasi	-2350
/3).	-2351
antikan	-2352
▁Yogyakarta	-2353
▁Ed	-2354
elang	-2355
co	-2356
▁pidana	-2357
▁seri	-2358
adwal	-2359
ass	-2360
▁Bek	-2361
▁UU	-2362
▁Republik	-2363
orn	-2364
▁Dua	-2365
▁menyebabkan	-2366
uncul	-2367
akaran	-2368
▁imp	-2369
▁berita	-2370
▁Sa	-2371
indak	-2372
akatan	-2373
ki	-2374
iman	-2375
pons	-2376
SD	-2377
ubuh	-2378
amu	-2379
▁namun	-2380
▁menjelang	-2381
let	-2382
▁29	-2383
▁eksp	-2384
▁id	-2385
▁mom	-2386
usung	-2387
▁beb	-2388
mal	-2389
atasi	-2390
▁pemilih	-2391
ela	-2392
AYA	-2393
istiwa	-2394
▁sipil	-2395
ekerjaan	-2396
▁Muhammad	-2397
wi	-2398
▁Sekret	-2399
▁sepanjang	-2400
antangan	-2401
▁kil	-2402
▁DPRD	-2403
▁menyebutkan	-2404
endah	-2405
ajib	-2406
▁pelanggaran	-2407
uarkan	-2408
▁disel	-2409
▁memperkuat	-2410
▁energi	-2411
amai	-2412
▁Joko	-2413
jid	-2414
amar	-2415
▁BRI	-2416
▁turut	-2417
▁lintas	-2418
▁menarik	-2419
umpang	-2420
▁angka	-2421
uji	-2422
▁Pul	-2423
▁kan	-2424
▁prak	-2425
▁manusia	-2426
juan	-2427
▁Bar	-2428
▁Nat	-2429
▁jalur	-2430
▁bur	-2431
▁persi	-2432
ash	-2433
▁fokus	-2434
▁lokal	-2435
▁Kan	-2436
te	-2437
erak	-2438
▁mengur	-2439
ine	-2440
/4).	-2441
elapan	-2442
▁berbeda	-2443
AL	-2444
oli	-2445
▁mat	-2446
▁karya	-2447
egawai	-2448
mar	-2449
▁tangan	-2450
▁ik	-2451
▁Gus	-2452
▁(6	-2453
▁ev	-2454
▁tapi	-2455
▁menghadirkan	-2456
ategis	-2457
egah	-2458
▁mudah	-2459
agangan	-2460
▁kualitas	-2461
▁Le	-2462
▁Pa	-2463
▁benar	-2464
▁sisi	-2465
okrat	-2466
entukan	-2467
▁sedikit	-2468
▁bertemu	-2469
▁mencari	-2470
▁Kesehatan	-2471
iun	-2472
▁demikian	-2473
▁tertu	-2474
AI	-2475
▁kemungkinan	-2476
he	-2477
▁Bo	-2478
erita	-2479
▁belak	-2480
ambahan	-2481
▁narkoba	-2482
▁SM	-2483
▁kemarin	-2484
▁Seorang	-2485
utip	-2486
istan	-2487
▁menekan	-2488
▁menciptakan	-2489
▁PSI	-2490
▁Aw	-2491
ust	-2492
▁gag	-2493
▁Anak	-2494
operasi	-2495
▁tujuan	-2496
▁dihad	-2497
▁target	-2498
ral	-2499
lemen	-2500
▁tugas	-2501
▁keterangannya	-2502
NT	-2503
lis	-2504
kl	-2505
▁Penj	-2506
▁demi	-2507
▁mengak	-2508
▁perkara	-2509
▁terdapat	-2510
▁Tang	-2511
▁pengalaman	-2512
usak	-2513
▁jabatan	-2514
▁keuangan	-2515
▁fak	-2516
▁02	-2517
▁akses	-2518
▁muncul	-2519
▁diketahui	-2520
▁seni	-2521
▁sis	-2522
▁Prof	-2523
▁Widodo	-2524
▁manfaat	-2525
▁pelaksanaan	-2526
▁ajang	-2527
▁Sebelumnya	-2528
▁Mul	-2529
ingatan	-2530
▁ob	-2531
▁asing	-2532
▁elek	-2533
▁Anggota	-2534
▁tuturnya	-2535
▁Rak	-2536
▁Luar	-2537
▁Abdul	-2538
▁berat	-2539
▁pembunuhan	-2540
UNG	-2541
erat	-2542
arti	-2543
▁DPP	-2544
▁Berd	-2545
▁Kerja	-2546
▁bicara	-2547
▁pengembangan	-2548
pada	-2549
udik	-2550
ibuan	-2551
▁menteri	-2552
II	-2553
▁isu	-2554
▁ruang	-2555
▁dini	-2556
▁Lebih	-2557
▁peran	-2558
▁kecelakaan	-2559
unuh	-2560
amanya	-2561
▁Kombes	-2562
▁Raf	-2563
ader	-2564
▁04	-2565
inerja	-2566
▁Masyarakat	-2567
▁100	-2568
▁Itu	-2569
tawan	-2570
ediakan	-2571
▁pertumbuhan	-2572
▁Pilpres	-2573
ebar	-2574
ibur	-2575
▁med	-2576
▁Bidang	-2577
▁Malang	-2578
▁Karena	-2579
▁ilegal	-2580
▁ucapnya	-2581
epas	-2582
▁guna	-2583
▁dar	-2584
▁BAN	-2585
▁Sumatera	-2586
egini	-2587
▁Humas	-2588
▁rencana	-2589
▁At	-2590
▁Aceh	-2591
▁luas	-2592
la	-2593
ilip	-2594
uali	-2595
embangkan	-2596
ero	-2597
▁pesawat	-2598
▁putusan	-2599
osok	-2600
entuk	-2601
▁bernama	-2602
▁melaksanakan	-2603
▁mengumumkan	-2604
yan	-2605
entingan	-2606
ila	-2607
ustrasi	-2608
▁diharapkan	-2609
bar	-2610
▁organisasi	-2611
▁Sl	-2612
KS	-2613
was	-2614
▁(20	-2615
▁tiba	-2616
▁Demokrat	-2617
▁Bah	-2618
▁tubuh	-2619
▁panjang	-2620
▁Ker	-2621
▁emas	-2622
ase	-2623
ess	-2624
pen	-2625
ton	-2626
▁Dis	-2627
ortasi	-2628
▁RS	-2629
KBP	-2630
▁SUR	-2631
▁api	-2632
▁Tangerang	-2633
ment	-2634
ational	-2635
▁diperk	-2636
▁pengaw	-2637
▁Re	-2638
abak	-2639
▁Rid	-2640
oordinasi	-2641
ial	-2642
▁Tel	-2643
▁Eri	-2644
enggarakan	-2645
▁ali	-2646
▁melibatkan	-2647
urat	-2648
adakan	-2649
▁BUM	-2650
▁apakah	-2651
▁(18	-2652
▁Bawaslu	-2653
PNN	-2654
agus	-2655
▁aturan	-2656
▁tanggal	-2657
▁penyakit	-2658
isiko	-2659
▁AKBP	-2660
▁31	-2661
▁pangan	-2662
erti	-2663
▁alasan	-2664
ABAYA	-2665
▁SURABAYA	-2666
▁memimpin	-2667
▁kepolisian	-2668
▁Arab	-2669
▁Hasil	-2670
▁makin	-2671
▁Pengadilan	-2672
▁(23	-2673
▁Dip	-2674
▁Gro	-2675
▁kasih	-2676
▁produksi	-2677
ayu	-2678
▁Jo	-2679
encan	-2680
ungai	-2681
▁titik	-2682
jau	-2683
sist	-2684
▁alias	-2685
▁situasi	-2686
▁05	-2687
▁pengel	-2688
▁sering	-2689
ck	-2690
▁01	-2691
anja	-2692
▁Pendidikan	-2693
ayang	-2694
ungutan	-2695
▁Min	-2696
▁samb	-2697
▁tantangan	-2698
▁03	-2699
▁(22	-2700
▁for	-2701
▁Islam	-2702
yu	-2703
etik	-2704
▁Tran	-2705
▁terlihat	-2706
lasi	-2707
andar	-2708
▁alat	-2709
▁peluang	-2710
▁Sekretaris	-2711
kum	-2712
▁Nas	-2713
truktur	-2714
▁bangsa	-2715
▁(19	-2716
▁proyek	-2717
▁Meski	-2718
▁Kapolres	-2719
▁Laut	-2720
▁tril	-2721
▁pengguna	-2722
ail	-2723
▁budaya	-2724
all	-2725
▁sidang	-2726
▁bes	-2727
▁rut	-2728
caman	-2729
▁diterima	-2730
▁personel	-2731
▁kunjungan	-2732
zi	-2733
anjian	-2734
▁Pember	-2735
yanto	-2736
▁pilihan	-2737
▁terbesar	-2738
bul	-2739
lar	-2740
▁lewat	-2741
▁dimulai	-2742
45	-2743
icu	-2744
itasi	-2745
▁Pat	-2746
▁melanjutkan	-2747
▁ped	-2748
▁penda	-2749
▁dibandingkan	-2750
▁dikenal	-2751
▁kepentingan	-2752
akwa	-2753
raga	-2754
esaikan	-2755
▁anggaran	-2756
▁Bat	-2757
▁prof	-2758
tan	-2759
▁(21	-2760
utuskan	-2761
emi	-2762
▁Kalau	-2763
▁pendukung	-2764
▁Kasus	-2765
GP	-2766
ork	-2767
▁Ng	-2768
▁SD	-2769
▁berupa	-2770
▁sana	-2771
▁bencana	-2772
▁akun	-2773
▁Mand	-2774
▁usia	-2775
▁transp	-2776
▁berkomitmen	-2777
adar	-2778
▁(24	-2779
angkaian	-2780
▁enggak	-2781
▁tokoh	-2782
▁berkel	-2783
▁berasal	-2784
▁50	-2785
▁penelit	-2786
etn	-2787
abuhan	-2788
▁badan	-2789
ujudkan	-2790
▁survei	-2791
▁konflik	-2792
▁mengajak	-2793
▁arah	-2794
▁tujuh	-2795
▁ot	-2796
▁bola	-2797
▁aktif	-2798
▁(17	-2799
akuasi	-2800
elis	-2801
▁(30	-2802
▁Ben	-2803
▁Sud	-2804
▁seleksi	-2805
▁triliun	-2806
ejahter	-2807
ns	-2808
qu	-2809
:00	-2810
impi	-2811
▁semb	-2812
▁strategis	-2813
OG	-2814
egiatan	-2815
▁(25	-2816
antaran	-2817
▁pelayanan	-2818
▁Kas	-2819
▁musik	-2820
▁(7	-2821
▁PN	-2822
▁Sam	-2823
th	-2824
anji	-2825
ancis	-2826
entikan	-2827
▁area	-2828
▁Kalim	-2829
rah	-2830
wakilan	-2831
anjutnya	-2832
▁Lampung	-2833
▁konferensi	-2834
andi	-2835
▁lahan	-2836
▁Lap	-2837
urahan	-2838
▁(27	-2839
kamah	-2840
atform	-2841
▁Palembang	-2842
▁(15	-2843
▁sehat	-2844
urangan	-2845
▁jelasnya	-2846
kab	-2847
indra	-2848
▁Sebagai	-2849
alahkan	-2850
▁Jerman	-2851
masi	-2852
▁Sejumlah	-2853
▁investasi	-2854
▁sig	-2855
ektif	-2856
badi	-2857
sor	-2858
ilah	-2859
▁terbuka	-2860
▁dilaksanakan	-2861
▁Oleh	-2862
▁provinsi	-2863
▁dilaporkan	-2864
▁Mem	-2865
pro	-2866
▁Er	-2867
▁DPD	-2868
▁Her	-2869
nif	-2870
▁Bl	-2871
▁optim	-2872
▁tindak	-2873
▁luka	-2874
tagram	-2875
▁babak	-2876
anusi	-2877
▁sang	-2878
gub	-2879
▁Dig	-2880
▁BMKG	-2881
▁AF	-2882
▁penumpang	-2883
▁final	-2884
agam	-2885
faatkan	-2886
▁sah	-2887
▁Korupsi	-2888
onald	-2889
angkapan	-2890
▁(8	-2891
▁Bekasi	-2892
▁penjara	-2893
▁BUMN	-2894
▁Metro	-2895
▁pekerjaan	-2896
sen	-2897
▁(10	-2898
▁gratis	-2899
▁pentingnya	-2900
▁teman	-2901
▁formasi	-2902
▁penggunaan	-2903
olaan	-2904
antung	-2905
▁dianggap	-2906
▁Nusantara	-2907
▁Pasal	-2908
▁(11	-2909
▁(29	-2910
▁pop	-2911
irasi	-2912
asanya	-2913
▁latihan	-2914
▁Hak	-2915
▁art	-2916
▁Riz	-2917
antik	-2918
▁berusaha	-2919
asaran	-2920
olid	-2921
ty	-2922
▁Sing	-2923
▁gel	-2924
▁menurun	-2925
▁Ka	-2926
▁tua	-2927
emui	-2928
erai	-2929
▁aktivitas	-2930
▁ternyata	-2931
urus	-2932
▁Prancis	-2933
▁Mahkamah	-2934
▁Dok	-2935
▁BAND	-2936
▁terdiri	-2937
▁sampah	-2938
erg	-2939
epatan	-2940
▁Co	-2941
asinya	-2942
▁Rek	-2943
indungi	-2944
▁solusi	-2945
ekonom	-2946
▁kinerja	-2947
▁berupaya	-2948
ftaran	-2949
tinggi	-2950
ekonomian	-2951
inj	-2952
mat	-2953
onton	-2954
ewaskan	-2955
▁pendaftaran	-2956
1,	-2957
50	-2958
▁Dik	-2959
▁tampak	-2960
▁menolak	-2961
▁Pram	-2962
ilipina	-2963
▁mengungkap	-2964
uad	-2965
aysia	-2966
▁mata	-2967
-202	-2968
▁(9	-2969
anon	-2970
yarat	-2971
▁2023.	-2972
▁perdana	-2973
▁disi	-2974
▁generasi	-2975
OR	-2976
ayak	-2977
▁bertujuan	-2978
wil	-2979
▁Af	-2980
▁biaya	-2981
▁BP	-2982
▁Bi	-2983
▁Str	-2984
ategi	-2985
▁tampil	-2986
har	-2987
▁(28	-2988
ampingi	-2989
▁menangkap	-2990
amen	-2991
▁ialah	-2992
uth	-2993
▁Net	-2994
▁sini	-2995
anggar	-2996
▁wartawan	-2997
▁1,	-2998
siden	-2999
▁Kalimantan	-3000
▁Pur	-3001
▁Tekn	-3002
▁oper	-3003
ajemen	-3004
▁Filipina	-3005
▁peristiwa	-3006
ampuan	-3007
onsumsi	-3008
▁Sumber	-3009
▁Gerindra	-3010
▁semangat	-3011
▁ditetapkan	-3012
▁penyelidikan	-3013
uma	-3014
awatan	-3015
awarkan	-3016
▁jaringan	-3017
aca	-3018
abes	-3019
fras	-3020
▁sup	-3021
▁kesel	-3022
▁lantaran	-3023
▁Maj	-3024
▁belakang	-3025
▁sulit	-3026
▁aplikasi	-3027
andatangan	-3028
baik	-3029
isah	-3030
itur	-3031
▁(13	-3032
▁Ibu	-3033
▁(26	-3034
▁demokrasi	-3035
onis	-3036
▁kematian	-3037
iket	-3038
ender	-3039
▁2025	-3040
▁Kamp	-3041
▁hakim	-3042
tib	-3043
oran	-3044
▁India	-3045
nifikan	-3046
▁Instagram	-3047
iaga	-3048
▁bus	-3049
▁Ex	-3050
▁asp	-3051
▁perg	-3052
▁pertahanan	-3053
alisi	-3054
▁hukuman	-3055
▁pelatih	-3056
▁Sebanyak	-3057
ebasan	-3058
▁kepem	-3059
▁pimpinan	-3060
PBD	-3061
▁keper	-3062
▁siswa	-3063
▁petani	-3064
▁Ilustrasi	-3065
dy	-3066
PNS	-3067
▁paslon	-3068
ejahteraan	-3069
▁memenangkan	-3070
9.	-3071
▁Ramadan	-3072
▁selatan	-3073
▁Lebanon	-3074
▁ancaman	-3075
arif	-3076
▁(16	-3077
▁leg	-3078
wedan	-3079
jualan	-3080
▁ratusan	-3081
▁meskipun	-3082
▁ed	-3083
DP	-3084
▁Kl	-3085
▁signifikan	-3086
kap	-3087
▁MK	-3088
▁ib	-3089
▁lagu	-3090
irmasi	-3091
▁Putih	-3092
▁siapa	-3093
▁komunitas	-3094
▁Undang	-3095
▁ringan	-3096
▁Malaysia	-3097
▁Az	-3098
▁kelas	-3099
▁inf	-3100
▁Berk	-3101
▁skor	-3102
▁jateng	-3103
oordinator	-3104
▁perhatian	-3105
▁menyediakan	-3106
estiv	-3107
▁terh	-3108
▁Baswedan	-3109
ulus	-3110
▁PKB	-3111
▁dasar	-3112
▁kolaborasi	-3113
atas	-3114
▁HAM	-3115
▁tentu	-3116
antasan	-3117
▁mencegah	-3118
frastruktur	-3119
▁mengetahui	-3120
▁menghadiri	-3121
juk	-3122
red	-3123
erit	-3124
▁menjabat	-3125
anusiaan	-3126
IN	-3127
ogja	-3128
unikasi	-3129
entar	-3130
▁peringatan	-3131
iwa	-3132
▁judi	-3133
▁kenaikan	-3134
▁menjalankan	-3135
uler	-3136
▁Korban	-3137
uy	-3138
tra	-3139
ikap	-3140
▁Sri	-3141
ategori	-3142
▁(14	-3143
▁Sus	-3144
▁Moto	-3145
▁ulang	-3146
tifikasi	-3147
▁dikutip	-3148
▁jajaran	-3149
ord	-3150
▁JPNN	-3151
▁Pasar	-3152
▁BANDUNG	-3153
▁Tenggara	-3154
In	-3155
stem	-3156
▁Car	-3157
inaan	-3158
▁pesan	-3159
ampilan	-3160
estival	-3161
▁Angk	-3162
▁kesep	-3163
▁TPS	-3164
▁Tur	-3165
▁Mantan	-3166
/0	-3167
apatan	-3168
▁Tai	-3169
endara	-3170
▁mengirim	-3171
po	-3172
▁Ali	-3173
▁pat	-3174
wisata	-3175
▁pasti	-3176
enarnya	-3177
ukaan	-3178
▁Serang	-3179
ustru	-3180
intang	-3181
▁olah	-3182
▁dokter	-3183
▁Keuangan	-3184
▁juara	-3185
ack	-3186
▁Dew	-3187
▁gug	-3188
▁Perdana	-3189
tup	-3190
▁mengurangi	-3191
▁membutuhkan	-3192
▁Sed	-3193
▁angk	-3194
▁rapat	-3195
▁perbatasan	-3196
▁non	-3197
adisi	-3198
anksi	-3199
▁inovasi	-3200
▁Gunung	-3201
▁Kegiatan	-3202
lo	-3203
▁Paris	-3204
cak	-3205
▁Pj	-3206
▁(12	-3207
▁Kon	-3208
▁platform	-3209
▁Pilgub	-3210
aha	-3211
▁BBC	-3212
▁Tri	-3213
▁gagal	-3214
▁kekuatan	-3215
▁La	-3216
▁izin	-3217
▁memutuskan	-3218
▁meluncurkan	-3219
▁Suriah	-3220
isan	-3221
▁sil	-3222
▁Fran	-3223
▁Berikut	-3224
▁berkelanjutan	-3225
taf	-3226
▁ANT	-3227
▁terima	-3228
kand	-3229
udal	-3230
anita	-3231
▁MotoGP	-3232
▁Beberapa	-3233
1.	-3234
ora	-3235
▁Mart	-3236
▁Orang	-3237
▁menewaskan	-3238
▁Dar	-3239
▁kemampuan	-3240
TB	-3241
evel	-3242
kumham	-3243
unda	-3244
arusnya	-3245
▁pegawai	-3246
dangan	-3247
iayaan	-3248
▁Internasional	-3249
empa	-3250
iring	-3251
uruan	-3252
▁spesi	-3253
▁KO	-3254
▁Wah	-3255
▁gab	-3256
▁boleh	-3257
ungkan	-3258
▁delapan	-3259
▁vs	-3260
▁rem	-3261
▁2.	-3262
▁Ta	-3263
▁sin	-3264
▁meres	-3265
▁penyidik	-3266
PAS	-3267
impiade	-3268
▁menunggu	-3269
▁Hasto	-3270
▁Pet	-3271
▁hati	-3272
asakan	-3273
▁buah	-3274
▁pos	-3275
▁disk	-3276
▁minggu	-3277
▁konsumen	-3278
▁membahas	-3279
awesi	-3280
intaan	-3281
▁meman	-3282
▁Gel	-3283
▁Pos	-3284
ahatan	-3285
▁bebas	-3286
▁ANTARA	-3287
▁menekankan	-3288
kes	-3289
▁40	-3290
utri	-3291
▁Bad	-3292
▁mengajukan	-3293
arto	-3294
usif	-3295
▁Sebab	-3296
▁momen	-3297
hati	-3298
▁Pihak	-3299
▁siang	-3300
alih	-3301
▁Jika	-3302
idupan	-3303
TT	-3304
indo	-3305
▁tahap	-3306
▁aparat	-3307
los	-3308
▁Vi	-3309
▁Tet	-3310
▁alam	-3311
▁puluhan	-3312
olaborasi	-3313
abum	-3314
▁Bandara	-3315
▁menetapkan	-3316
ukur	-3317
▁Bul	-3318
▁Grup	-3319
▁Sulawesi	-3320
esak	-3321
▁Ridwan	-3322
▁Pembangunan	-3323
zah	-3324
▁terg	-3325
▁Kedua	-3326
erbangan	-3327
ast	-3328
▁maksi	-3329
anganan	-3330
NA	-3331
▁Tol	-3332
engkap	-3333
▁mencoba	-3334
▁Moh	-3335
▁neg	-3336
▁Yang	-3337
▁menik	-3338
adem	-3339
▁mes	-3340
▁kader	-3341
esai	-3342
hawat	-3343
▁jadwal	-3344
▁Wilayah	-3345
▁sejarah	-3346
▁DEN	-3347
antau	-3348
▁Perk	-3349
/2024)	-3350
▁menyi	-3351
uw	-3352
egr	-3353
tudi	-3354
▁menawarkan	-3355
▁kemanusiaan	-3356
ekat	-3357
▁Gen	-3358
▁Kong	-3359
aksaan	-3360
▁ketua	-3361
jauh	-3362
▁der	-3363
arikan	-3364
▁Selama	-3365
PASAR	-3366
▁DENPASAR	-3367
syah	-3368
itkan	-3369
ongk	-3370
▁Fak	-3371
▁IKN	-3372
▁Seti	-3373
abuming	-3374
ji	-3375
▁kew	-3376
▁pribadi	-3377
▁mengakui	-3378
▁mengeluarkan	-3379
▁sa	-3380
agang	-3381
igran	-3382
▁Saudi	-3383
▁Center	-3384
▁justru	-3385
▁harapan	-3386
num	-3387
▁istri	-3388
uturkan	-3389
▁Rakabuming	-3390
▁Berdasarkan	-3391
▁Pang	-3392
▁debat	-3393
▁menuturkan	-3394
ren	-3395
▁reg	-3396
angin	-3397
angani	-3398
▁III	-3399
▁Rakyat	-3400
▁bersih	-3401
▁sukses	-3402
su	-3403
abumi	-3404
ajukan	-3405
ito	-3406
▁Keh	-3407
osisi	-3408
anggapi	-3409
migrasi	-3410
▁Kur	-3411
▁International	-3412
ee	-3413
▁status	-3414
ite	-3415
atuh	-3416
▁sub	-3417
ariwisata	-3418
▁kebakaran	-3419
▁Sim	-3420
▁bay	-3421
alagi	-3422
▁Mend	-3423
▁mengamankan	-3424
oalisi	-3425
▁percaya	-3426
▁mengatasi	-3427
▁hit	-3428
▁sore	-3429
▁Group	-3430
▁bangunan	-3431
▁gabungan	-3432
▁menyambut	-3433
sh	-3434
▁bagus	-3435
▁kandidat	-3436
▁kabupaten	-3437
▁Ken	-3438
▁Berb	-3439
▁dinilai	-3440
▁berkembang	-3441
▁Ric	-3442
anggil	-3443
▁Koordinator	-3444
▁mengembangkan	-3445
▁merek	-3446
▁berper	-3447
esu	-3448
▁ok	-3449
udin	-3450
abila	-3451
ancam	-3452
larasi	-3453
▁agama	-3454
stitusi	-3455
▁risiko	-3456
imbulkan	-3457
▁Perempuan	-3458
fa	-3459
iksa	-3460
ailand	-3461
▁meski	-3462
uddin	-3463
langga	-3464
▁meter	-3465
▁sosok	-3466
▁Thailand	-3467
ue	-3468
lor	-3469
▁Raka	-3470
▁tertinggi	-3471
go	-3472
edar	-3473
iksi	-3474
yadi	-3475
▁tud	-3476
▁bergabung	-3477
▁log	-3478
▁kesejahteraan	-3479
▁kalah	-3480
▁mencatat	-3481
▁Kita	-3482
antinya	-3483
ministr	-3484
▁lakukan	-3485
omend	-3486
▁Idul	-3487
ampi	-3488
▁CPNS	-3489
ikir	-3490
entak	-3491
▁Pekan	-3492
▁perkembangan	-3493
▁Bagi	-3494
anyakan	-3495
▁Airlangga	-3496
aid	-3497
ajah	-3498
iraan	-3499
▁Begini	-3500
ekar	-3501
▁berbicara	-3502
ida	-3503
akup	-3504
▁vir	-3505
isalnya	-3506
▁Politik	-3507
▁Sukabumi	-3508
▁mengingatkan	-3509
osk	-3510
asilkan	-3511
▁mengaw	-3512
apresiasi	-3513
▁pemungutan	-3514
oa	-3515
▁Id	-3516
upuk	-3517
ood	-3518
▁bergerak	-3519
▁menyerang	-3520
cr	-3521
aker	-3522
▁dikel	-3523
▁berlaku	-3524
▁kategori	-3525
omat	-3526
▁Sah	-3527
▁Kend	-3528
▁pengelolaan	-3529
▁Sosial	-3530
apak	-3531
etan	-3532
omendasi	-3533
▁selesai	-3534
▁terdampak	-3535
▁perlindungan	-3536
▁sal	-3537
▁rangka	-3538
▁mewujudkan	-3539
IP	-3540
▁Uni	-3541
ometer	-3542
ten	-3543
▁lah	-3544
▁Forum	-3545
▁ribuan	-3546
▁Pan	-3547
▁bek	-3548
apaian	-3549
▁kabar	-3550
artemen	-3551
unjungi	-3552
▁Taiwan	-3553
▁menyer	-3554
▁diperkirakan	-3555
▁199	-3556
▁anti	-3557
▁merah	-3558
▁sepeda	-3559
AP	-3560
bud	-3561
▁Hend	-3562
EO	-3563
bullah	-3564
ilangan	-3565
▁Pertahanan	-3566
adu	-3567
our	-3568
▁sy	-3569
ance	-3570
torat	-3571
▁Penc	-3572
▁balik	-3573
▁nyata	-3574
▁kehidupan	-3575
▁infrastruktur	-3576
▁Shin	-3577
▁arus	-3578
eor	-3579
airan	-3580
▁pand	-3581
urunan	-3582
▁Sumsel	-3583
▁dibawa	-3584
▁rendah	-3585
▁terdakwa	-3586
▁pelatihan	-3587
▁pengawasan	-3588
isik	-3589
▁profesi	-3590
▁jiwa	-3591
▁truk	-3592
▁sebenarnya	-3593
ano	-3594
abah	-3595
▁Afr	-3596
▁Mat	-3597
hasil	-3598
▁tambahan	-3599
▁Olimpiade	-3600
▁klub	-3601
aluasi	-3602
asitas	-3603
▁Acara	-3604
▁minim	-3605
▁sedangkan	-3606
eja	-3607
▁Hotel	-3608
▁Trans	-3609
▁berbasis	-3610
▁meninggalkan	-3611
etul	-3612
▁Khusus	-3613
▁hilang	-3614
izbullah	-3615
▁Kelurahan	-3616
0.	-3617
embakan	-3618
ifah	-3619
itri	-3620
▁Bir	-3621
▁tumb	-3622
emprov	-3623
▁pemilik	-3624
▁Pasangan	-3625
▁seharusnya	-3626
fik	-3627
/2).	-3628
UU	-3629
alin	-3630
mati	-3631
▁rel	-3632
▁pajak	-3633
▁insiden	-3634
ugi	-3635
▁ah	-3636
▁Tanah	-3637
▁perdagangan	-3638
lem	-3639
mcr	-3640
arjo	-3641
duksi	-3642
▁foto	-3643
UT	-3644
▁pasi	-3645
▁Medan	-3646
awal	-3647
▁Lebaran	-3648
OA	-3649
bon	-3650
▁Pri	-3651
▁kre	-3652
▁rudal	-3653
▁puncak	-3654
ear	-3655
▁Muda	-3656
▁seks	-3657
▁Pemain	-3658
ualifikasi	-3659
ner	-3660
▁sus	-3661
usakan	-3662
▁berpotensi	-3663
▁menyiapkan	-3664
▁Seh	-3665
atuan	-3666
unggal	-3667
▁pilkada	-3668
▁kesepakatan	-3669
▁gelar	-3670
▁putra	-3671
▁minyak	-3672
▁kalangan	-3673
▁pengungsi	-3674
awapres	-3675
▁berakhir	-3676
▁melanggar	-3677
ber	-3678
tes	-3679
egawati	-3680
▁tertulis	-3681
ili	-3682
ainkan	-3683
▁darah	-3684
▁2,	-3685
unci	-3686
▁Award	-3687
▁terlalu	-3688
tain	-3689
esang	-3690
▁daftar	-3691
▁didukung	-3692
▁penduduk	-3693
▁Hizbullah	-3694
▁perawatan	-3695
illah	-3696
▁tiket	-3697
iriman	-3698
▁kulit	-3699
onfirmasi	-3700
▁berdampak	-3701
ER	-3702
araw	-3703
umur	-3704
▁Pelaku	-3705
▁mempering	-3706
9,	-3707
▁Int	-3708
▁ayah	-3709
▁buruk	-3710
▁tradisi	-3711
▁Kemenkumham	-3712
:30	-3713
enag	-3714
▁Dewi	-3715
▁selaku	-3716
adinya	-3717
▁tulis	-3718
ket	-3719
laki	-3720
▁utara	-3721
▁Megawati	-3722
▁Bh	-3723
yono	-3724
▁KOTA	-3725
▁menyelesaikan	-3726
.1	-3727
▁PKS	-3728
ahulu	-3729
etnam	-3730
etapan	-3731
▁memicu	-3732
▁senior	-3733
▁berikut	-3734
▁Ul	-3735
▁Kad	-3736
evisi	-3737
amaian	-3738
▁mitra	-3739
▁Fr	-3740
▁ahli	-3741
▁genc	-3742
ongsor	-3743
▁jangan	-3744
IM	-3745
old	-3746
▁strategi	-3747
-7	-3748
Ini	-3749
uel	-3750
son	-3751
▁Kek	-3752
▁tema	-3753
▁Kaesang	-3754
▁menyerahkan	-3755
ington	-3756
▁paket	-3757
ahankan	-3758
▁Banyak	-3759
▁pembel	-3760
▁Vietnam	-3761
▁Keamanan	-3762
-3	-3763
▁Lalu	-3764
▁syarat	-3765
▁mendesak	-3766
▁Ik	-3767
atatan	-3768
▁menyus	-3769
ice	-3770
▁Ti	-3771
▁Ung	-3772
wenang	-3773
▁Garuda	-3774
▁serius	-3775
▁diselenggarakan	-3776
.0	-3777
assar	-3778
ulauan	-3779
▁ungkapnya	-3780
insip	-3781
ofifah	-3782
idaknya	-3783
▁Bany	-3784
ayaran	-3785
iburan	-3786
▁rutin	-3787
arelawan	-3788
ino	-3789
uny	-3790
▁Kamil	-3791
▁Khofifah	-3792
▁maksimal	-3793
▁Satu	-3794
ombang	-3795
▁sikap	-3796
▁Penjabat	-3797
ish	-3798
ikin	-3799
▁kri	-3800
▁Samp	-3801
cayaan	-3802
▁iklim	-3803
▁sanksi	-3804
▁Operasi	-3805
▁mencetak	-3806
▁tertentu	-3807
▁permintaan	-3808
▁net	-3809
anggu	-3810
▁awak	-3811
▁pelanggan	-3812
▁pengadilan	-3813
▁Ev	-3814
▁visi	-3815
edakan	-3816
▁diikuti	-3817
enggaraan	-3818
▁kejahatan	-3819
▁kompetisi	-3820
abrik	-3821
undur	-3822
▁Menj	-3823
▁2023,	-3824
enalkan	-3825
entitas	-3826
▁saling	-3827
▁penerbangan	-3828
rig	-3829
akti	-3830
empur	-3831
san	-3832
▁kursi	-3833
▁menambah	-3834
▁AKP	-3835
▁Suh	-3836
▁Harris	-3837
Mah	-3838
acam	-3839
▁Sid	-3840
ekanan	-3841
▁AI	-3842
▁Me	-3843
▁gram	-3844
▁Padang	-3845
kom	-3846
anyi	-3847
sekut	-3848
▁Bantu	-3849
▁Pulau	-3850
▁Champi	-3851
▁Pemkot	-3852
▁melindungi	-3853
agub	-3854
egang	-3855
▁Tinggi	-3856
oko	-3857
rut	-3858
▁MPR	-3859
oalan	-3860
▁Film	-3861
▁Seri	-3862
anjung	-3863
▁Ketika	-3864
argetkan	-3865
▁mencakup	-3866
▁mengapresiasi	-3867
alik	-3868
ence	-3869
▁mus	-3870
▁Pran	-3871
▁menimbulkan	-3872
uasaan	-3873
▁Manag	-3874
▁panas	-3875
▁Ekonomi	-3876
asiun	-3877
▁Sleman	-3878
▁mengek	-3879
ASN	-3880
esan	-3881
▁Sil	-3882
abang	-3883
ambat	-3884
benar	-3885
▁City	-3886
▁laki	-3887
▁Senayan	-3888
▁penanganan	-3889
opi	-3890
▁Ro	-3891
▁sabu	-3892
UP	-3893
inet	-3894
ainan	-3895
tabes	-3896
▁unggul	-3897
▁pertanian	-3898
▁perjanjian	-3899
lok	-3900
▁ur	-3901
▁teror	-3902
▁Makassar	-3903
▁Mod	-3904
oroti	-3905
aksana	-3906
▁Lembaga	-3907
▁berf	-3908
▁Roh	-3909
anyaan	-3910
▁Meskipun	-3911
▁penjualan	-3912
omm	-3913
▁Wil	-3914
▁Irjen	-3915
▁dipimpin	-3916
8,	-3917
IS	-3918
Pem	-3919
▁tentara	-3920
▁dihadiri	-3921
▁memanfaatkan	-3922
ahami	-3923
osiasi	-3924
▁penyebab	-3925
pon	-3926
oman	-3927
▁Pertama	-3928
▁berawan	-3929
▁kilometer	-3930
▁kepemimpinan	-3931
ff	-3932
▁Kampung	-3933
▁diambil	-3934
▁Polresta	-3935
jual	-3936
▁putih	-3937
▁terang	-3938
angkalan	-3939
▁gugatan	-3940
▁tambahnya	-3941
ick	-3942
hari	-3943
ontoh	-3944
▁Merah	-3945
▁olahraga	-3946
▁(31	-3947
ugian	-3948
▁Kali	-3949
▁Penyel	-3950
▁tuduhan	-3951
tron	-3952
ajuan	-3953
tivis	-3954
▁Purw	-3955
▁peneg	-3956
▁operasional	-3957
dus	-3958
▁pres	-3959
▁Harga	-3960
ontribusi	-3961
io	-3962
▁perp	-3963
▁mengingat	-3964
indakan	-3965
▁Kemend	-3966
▁Serangan	-3967
ace	-3968
sidi	-3969
▁Wash	-3970
▁bank	-3971
▁diperl	-3972
▁ditahan	-3973
▁Putra	-3974
▁yakin	-3975
▁pencarian	-3976
agn	-3977
oga	-3978
▁Juru	-3979
ubungi	-3980
▁rokok	-3981
ungkinkan	-3982
▁komunikasi	-3983
▁ab	-3984
▁klas	-3985
enagak	-3986
▁Sejak	-3987
hip	-3988
▁im	-3989
▁Sin	-3990
▁VOA	-3991
Mahfud	-3992
kandar	-3993
5,	-3994
▁mey	-3995
▁Marc	-3996
sisten	-3997
▁konser	-3998
ministrasi	-3999
enagakerjaan	-4000
▁Did	-4001
▁Jam	-4002
andera	-4003
▁merilis	-4004
▁memasuki	-4005
▁penelitian	-4006
▁Cor	-4007
▁medis	-4008
)",	-4009
▁Sw	-4010
▁up	-4011
ameran	-4012
ekatan	-4013
▁Motor	-4014
▁Industri	-4015
▁kehilangan	-4016
HK	-4017
.30	-4018
▁Nik	-4019
▁misi	-4020
▁laman	-4021
tabilitas	-4022
▁peringkat	-4023
▁Washington	-4024
antah	-4025
ataan	-4026
▁barat	-4027
▁pengan	-4028
▁Perusahaan	-4029
PU	-4030
▁hi	-4031
akuan	-4032
ancar	-4033
▁Musi	-4034
▁mesin	-4035
hadiran	-4036
▁bupati	-4037
▁parlemen	-4038
▁Informasi	-4039
▁persiapan	-4040
enj	-4041
ony	-4042
rom	-4043
andra	-4044
▁inst	-4045
▁ekspor	-4046
▁Mandiri	-4047
▁angin	-4048
ht	-4049
KPU	-4050
sir	-4051
▁us	-4052
iset	-4053
imbau	-4054
entuan	-4055
▁Melalui	-4056
▁dokumen	-4057
▁putaran	-4058
▁Iskandar	-4059
ON	-4060
▁uji	-4061
tinya	-4062
▁wali	-4063
▁berisi	-4064
▁menjawab	-4065
▁tercatat	-4066
▁mengalahkan	-4067
2,	-4068
alian	-4069
▁mati	-4070
reskrim	-4071
▁selain	-4072
▁menjadikan	-4073
EM	-4074
so	-4075
/4)	-4076
ukl	-4077
land	-4078
▁haji	-4079
▁swas	-4080
▁atlet	-4081
▁Donald	-4082
ARANG	-4083
▁Bang	-4084
▁Pengh	-4085
▁diskusi	-4086
▁biasanya	-4087
▁mengubah	-4088
▁Champions	-4089
▁transaksi	-4090
apol	-4091
uluh	-4092
▁Dav	-4093
▁Pantai	-4094
▁re	-4095
▁nas	-4096
alang	-4097
▁inisi	-4098
▁sembilan	-4099
ella	-4100
ihan	-4101
▁Tae	-4102
▁juru	-4103
▁libur	-4104
▁sehari	-4105
▁minuman	-4106
▁berkontribusi	-4107
Undang	-4108
▁ekstr	-4109
▁gempa	-4110
▁suami	-4111
HO	-4112
ajam	-4113
hiri	-4114
▁Cir	-4115
▁Div	-4116
indari	-4117
▁gedung	-4118
▁anaknya	-4119
.5	-4120
▁On	-4121
jing	-4122
▁Boj	-4123
▁impor	-4124
▁Pemkab	-4125
▁Lingkungan	-4126
/5)	-4127
itr	-4128
▁tol	-4129
▁Hujan	-4130
BK	-4131
ps	-4132
hat	-4133
▁PL	-4134
▁Joh	-4135
▁aku	-4136
umpul	-4137
▁Perm	-4138
▁Persis	-4139
▁Pemprov	-4140
▁menurunkan	-4141
▁penangkapan	-4142
PT	-4143
rab	-4144
ater	-4145
▁mudik	-4146
▁materi	-4147
▁mengusung	-4148
▁60	-4149
▁Aj	-4150
▁tuan	-4151
▁Karaw	-4152
▁dipas	-4153
▁Petugas	-4154
-23	-4155
▁gaj	-4156
/3)	-4157
ron	-4158
sat	-4159
ampilkan	-4160
▁Karawang	-4161
itusi	-4162
▁Hakim	-4163
▁keduanya	-4164
▁kehadiran	-4165
urian	-4166
▁Perh	-4167
▁obat	-4168
▁memungkinkan	-4169
ebaya	-4170
▁ketat	-4171
▁Festival	-4172
▁Kejaksaan	-4173
▁Ho	-4174
▁Ters	-4175
awatir	-4176
iminal	-4177
BS	-4178
▁Sk	-4179
vensi	-4180
▁fisik	-4181
▁apresiasi	-4182
▁Pemberantasan	-4183
▁Arif	-4184
egional	-4185
▁Pengaw	-4186
▁berarti	-4187
▁kepercayaan	-4188
ci	-4189
▁SEM	-4190
istis	-4191
▁Putri	-4192
▁oknum	-4193
itungan	-4194
▁selamat	-4195
▁Kepulauan	-4196
rid	-4197
esti	-4198
intu	-4199
aimin	-4200
yatakan	-4201
▁Soekar	-4202
▁pulang	-4203
▁segala	-4204
▁undang	-4205
▁perwakilan	-4206
orl	-4207
▁Cip	-4208
eorologi	-4209
▁Digital	-4210
ujuk	-4211
▁kapasitas	-4212
awi	-4213
▁Mir	-4214
otika	-4215
enazah	-4216
ohonan	-4217
▁dibuka	-4218
leks	-4219
▁Ros	-4220
arangan	-4221
▁jangka	-4222
▁Pranowo	-4223
▁memulai	-4224
▁menutup	-4225
KA	-4226
by	-4227
ahuan	-4228
ayani	-4229
▁Mahfud	-4230
▁longsor	-4231
▁gencatan	-4232
▁Joe	-4233
▁Kos	-4234
▁Nusa	-4235
adahal	-4236
▁terbukti	-4237
abis	-4238
iling	-4239
▁Hart	-4240
osistem	-4241
▁Madura	-4242
▁Bambang	-4243
▁mengand	-4244
▁persoalan	-4245
▁perekonomian	-4246
sabu	-4247
tian	-4248
▁Konst	-4249
▁Surat	-4250
▁Hingga	-4251
▁pantai	-4252
▁menghentikan	-4253
▁Pria	-4254
▁Polsek	-4255
6.	-4256
ive	-4257
▁ton	-4258
orter	-4259
elasan	-4260
▁Mobil	-4261
▁berta	-4262
roduksi	-4263
sekutif	-4264
▁diamankan	-4265
▁pertanyaan	-4266
ahl	-4267
▁Up	-4268
ando	-4269
agikan	-4270
▁praktik	-4271
▁SEMARANG	-4272
isl	-4273
▁ku	-4274
▁CEO	-4275
▁Afrika	-4276
anggilan	-4277
▁menentukan	-4278
UD	-4279
▁ditemui	-4280
▁memperoleh	-4281
ech	-4282
raf	-4283
akai	-4284
▁fitur	-4285
▁Imigrasi	-4286
RT	-4287
▁Ju	-4288
▁Apa	-4289
truksi	-4290
▁belajar	-4291
▁Persebaya	-4292
▁Yus	-4293
apura	-4294
ensif	-4295
▁sepak	-4296
▁Cil	-4297
▁Sar	-4298
▁pengamanan	-4299
▁No	-4300
▁Bei	-4301
▁Akan	-4302
▁hutan	-4303
▁suatu	-4304
▁$	-4305
ill	-4306
▁War	-4307
▁ins	-4308
▁Sant	-4309
▁kampus	-4310
evakuasi	-4311
▁Go	-4312
laim	-4313
sinya	-4314
▁Terl	-4315
▁faktor	-4316
arkotika	-4317
▁mengunjungi	-4318
...	-4319
sus	-4320
aksud	-4321
▁aset	-4322
▁damai	-4323
▁mengadakan	-4324
▁profesional	-4325
▁met	-4326
RB	-4327
amm	-4328
▁Ip	-4329
udul	-4330
▁Tapi	-4331
igrasi	-4332
uransi	-4333
▁bertajuk	-4334
▁Pelabuhan	-4335
ve	-4336
▁kerap	-4337
▁mengec	-4338
vasi	-4339
▁mul	-4340
ester	-4341
▁putri	-4342
▁berwenang	-4343
23	-4344
▁antar	-4345
▁hewan	-4346
▁kementerian	-4347
6,	-4348
▁Ib	-4349
ukasi	-4350
▁bayi	-4351
embatan	-4352
▁dahulu	-4353
▁ketidak	-4354
▁Surakarta	-4355
▁Kepolisian	-4356
▁Tik	-4357
ebaran	-4358
▁kanan	-4359
▁efektif	-4360
Jadi	-4361
rist	-4362
ahaya	-4363
▁capres	-4364
▁Institu	-4365
▁Tanjung	-4366
▁Angkatan	-4367
▁menghasilkan	-4368
oso	-4369
otan	-4370
▁Bus	-4371
▁mak	-4372
▁band	-4373
▁dibuat	-4374
▁Beijing	-4375
ingkatkan	-4376
▁e	-4377
▁Ge	-4378
luas	-4379
intar	-4380
estasi	-4381
▁berperan	-4382
▁ka	-4383
uklir	-4384
▁timur	-4385
agama	-4386
▁Guru	-4387
▁rusak	-4388
▁darurat	-4389
▁penurunan	-4390
pora	-4391
enting	-4392
spirasi	-4393
▁kereta	-4394
▁Peraturan	-4395
▁Konstitusi	-4396
▁bertanggung	-4397
▁News	-4398
▁Siap	-4399
anyahu	-4400
▁konten	-4401
awancara	-4402
ahmi	-4403
▁Fat	-4404
▁era	-4405
▁kerugian	-4406
▁lanjutnya	-4407
adai	-4408
ania	-4409
elayan	-4410
siapkan	-4411
▁pasien	-4412
▁standar	-4413
▁khawatir	-4414
PD	-4415
bk	-4416
▁ro	-4417
▁Rai	-4418
utaan	-4419
▁membeli	-4420
▁prioritas	-4421
AD	-4422
▁Turki	-4423
▁hitam	-4424
▁mengin	-4425
umpulkan	-4426
4,	-4427
▁Hid	-4428
astik	-4429
gunaan	-4430
▁senang	-4431
▁teknis	-4432
▁the	-4433
▁coba	-4434
▁senilai	-4435
▁Kelompok	-4436
▁kemajuan	-4437
uz	-4438
▁dom	-4439
▁gas	-4440
▁Masjid	-4441
▁2024-202	-4442
▁Netanyahu	-4443
▁diperlukan	-4444
▁Dj	-4445
/11)	-4446
▁batas	-4447
▁menya	-4448
▁beragam	-4449
▁menengah	-4450
andatangani	-4451
PO	-4452
▁mo	-4453
▁Daya	-4454
hamdul	-4455
ungnya	-4456
▁layak	-4457
▁menud	-4458
▁serupa	-4459
▁Layanan	-4460
▁mempertahankan	-4461
/7)	-4462
usn	-4463
▁ul	-4464
anyol	-4465
▁Terb	-4466
▁grup	-4467
▁kesi	-4468
▁Kompol	-4469
▁Pekanbaru	-4470
kus	-4471
orld	-4472
▁pula	-4473
eorang	-4474
eriksa	-4475
▁seksual	-4476
▁menyoroti	-4477
▁pengusaha	-4478
udahan	-4479
▁Teknologi	-4480
▁mengonsumsi	-4481
4.	-4482
/202	-4483
▁Gian	-4484
▁Jasa	-4485
▁kaki	-4486
egahan	-4487
▁klaim	-4488
▁Sekolah	-4489
masalahan	-4490
▁kerusakan	-4491
8.	-4492
iang	-4493
▁Muslim	-4494
▁keadaan	-4495
▁buku	-4496
▁Bakal	-4497
▁Qatar	-4498
▁rangkaian	-4499
▁pendapatan	-4500
▁Andi	-4501
▁Sungai	-4502
▁Pertanian	-4503
▁beroperasi	-4504
PI	-4505
▁lawan	-4506
▁rekan	-4507
uncuran	-4508
engaruhi	-4509
▁kecamatan	-4510
▁membentuk	-4511
▁SAR	-4512
▁Wak	-4513
▁pohon	-4514
rediksi	-4515
▁memahami	-4516
/8)	-4517
▁Tiga	-4518
▁Putin	-4519
engkapi	-4520
▁bahasa	-4521
▁menerapkan	-4522
▁selanjutnya	-4523
▁penyelenggaraan	-4524
/12)	-4525
intah	-4526
▁mundur	-4527
▁pengunjung	-4528
▁Erick	-4529
▁Kasat	-4530
▁didampingi	-4531
▁menanggapi	-4532
2.	-4533
7,	-4534
▁jasa	-4535
udayaan	-4536
▁wanita	-4537
▁bertahan	-4538
▁nantinya	-4539
▁dinyatakan	-4540
▁Cl	-4541
▁dulu	-4542
▁jatuh	-4543
entunya	-4544
▁Spanyol	-4545
▁Pimpinan	-4546
▁Direktorat	-4547
entan	-4548
▁sant	-4549
▁tata	-4550
ifinal	-4551
▁Karya	-4552
▁Kelas	-4553
▁tahanan	-4554
agri	-4555
aruh	-4556
ediaan	-4557
▁Hasan	-4558
▁berubah	-4559
ie	-4560
kota	-4561
emaah	-4562
▁akrab	-4563
▁nyaman	-4564
▁tangga	-4565
▁Bersama	-4566
▁kalinya	-4567
Pol	-4568
adj	-4569
▁Kat	-4570
amkan	-4571
▁zona	-4572
▁karyawan	-4573
▁Be	-4574
▁semuanya	-4575
▁setidaknya	-4576
/6)	-4577
▁Bengk	-4578
urnamen	-4579
▁mendek	-4580
▁tekanan	-4581
▁kekuasaan	-4582
/9)	-4583
▁Tbk	-4584
ertai	-4585
▁Anwar	-4586
▁berkualitas	-4587
▁00	-4588
ound	-4589
ainya	-4590
▁Soal	-4591
vestor	-4592
alisasi	-4593
▁Kaltim	-4594
▁fungsi	-4595
▁peraturan	-4596
za	-4597
iat	-4598
▁Ny	-4599
indah	-4600
▁Makan	-4601
▁dinas	-4602
angkatan	-4603
empatkan	-4604
lih	-4605
▁Agama	-4606
alurkan	-4607
imbangan	-4608
ock	-4609
▁bar	-4610
andan	-4611
▁remaja	-4612
▁nasabah	-4613
▁transportasi	-4614
antren	-4615
angguan	-4616
▁Kapolda	-4617
▁Militer	-4618
tis	-4619
etuju	-4620
▁buat	-4621
▁lengkap	-4622
▁manajemen	-4623
▁kos	-4624
▁Aparat	-4625
▁tanggung	-4626
▁Panc	-4627
▁Perl	-4628
▁Karno	-4629
hawatiran	-4630
▁pengiriman	-4631
▁It	-4632
▁ram	-4633
cepat	-4634
ayoritas	-4635
0,	-4636
sur	-4637
▁Con	-4638
awanan	-4639
▁ekosistem	-4640
aing	-4641
▁Ped	-4642
▁umat	-4643
▁inter	-4644
▁situs	-4645
▁pemuda	-4646
imbangkan	-4647
▁penetapan	-4648
▁dibutuhkan	-4649
arkir	-4650
▁Jalur	-4651
▁warna	-4652
▁mengimbau	-4653
▁to	-4654
▁Gelar	-4655
▁sesuatu	-4656
rak	-4657
▁Da	-4658
itia	-4659
▁ikan	-4660
▁usai	-4661
▁apabila	-4662
▁Yud	-4663
imaan	-4664
orneo	-4665
▁Natal	-4666
▁Sakit	-4667
▁Kediri	-4668
elahiran	-4669
▁prinsip	-4670
lt	-4671
▁DI	-4672
▁Ass	-4673
▁Teg	-4674
▁keny	-4675
hasilan	-4676
ominasi	-4677
▁Keluarga	-4678
▁Singapura	-4679
hamdulillah	-4680
▁permohonan	-4681
bal	-4682
▁lem	-4683
▁Irak	-4684
obatan	-4685
▁Jumlah	-4686
▁Majelis	-4687
▁ekstrem	-4688
KPK	-4689
▁Emas	-4690
▁Borneo	-4691
▁Sekjen	-4692
▁pabrik	-4693
epi	-4694
istri	-4695
▁Ting	-4696
▁Martin	-4697
▁merayakan	-4698
▁perbaikan	-4699
▁rekomendasi	-4700
▁He	-4701
▁kunci	-4702
▁nuklir	-4703
Pers	-4704
▁Dedi	-4705
aritas	-4706
▁persidangan	-4707
▁elektabilitas	-4708
mp	-4709
-20	-4710
EAN	-4711
ektur	-4712
▁Comm	-4713
▁ibadah	-4714
▁Persija	-4715
▁Pasalnya	-4716
▁Setiawan	-4717
▁logistik	-4718
▁NTB	-4719
▁Batu	-4720
▁wajib	-4721
7.	-4722
hu	-4723
▁UN	-4724
▁Kim	-4725
▁Bung	-4726
▁Rapat	-4727
▁World	-4728
ulangan	-4729
▁Meteorologi	-4730
tion	-4731
ikbud	-4732
ogram	-4733
▁dipl	-4734
uktikan	-4735
etika	-4736
▁Perj	-4737
▁bunga	-4738
▁efisi	-4739
▁Kanwil	-4740
▁swasta	-4741
PA	-4742
sed	-4743
amatkan	-4744
▁mengus	-4745
▁berikutnya	-4746
PAN	-4747
kah	-4748
▁Ha	-4749
▁Meny	-4750
▁jurn	-4751
▁Balai	-4752
▁Pengg	-4753
▁Semua	-4754
▁Taman	-4755
▁kontrak	-4756
▁perayaan	-4757
▁identitas	-4758
onj	-4759
yani	-4760
▁HUT	-4761
▁Sir	-4762
itung	-4763
▁melip	-4764
▁lancar	-4765
▁menampilkan	-4766
-19	-4767
▁Situ	-4768
▁gerakan	-4769
▁pemberian	-4770
▁seseorang	-4771
epend	-4772
angkau	-4773
▁lihat	-4774
aksikan	-4775
▁Gianyar	-4776
▁norm	-4777
▁sambil	-4778
▁sungai	-4779
▁aktivis	-4780
▁catatan	-4781
▁berencana	-4782
▁keselamatan	-4783
3,	-4784
CC	-4785
▁ga	-4786
urit	-4787
▁Sya	-4788
▁Data	-4789
▁alami	-4790
ebaskan	-4791
▁menemp	-4792
adwalkan	-4793
▁kelahiran	-4794
identifikasi	-4795
▁Ku	-4796
▁Te	-4797
iana	-4798
andai	-4799
ansir	-4800
udang	-4801
unyai	-4802
▁saran	-4803
▁Seperti	-4804
olar	-4805
▁Mic	-4806
▁BPBD	-4807
▁Memb	-4808
enjata	-4809
▁Cuaca	-4810
▁disertai	-4811
▁Polrestabes	-4812
▁permasalahan	-4813
aria	-4814
▁Org	-4815
▁Kapal	-4816
▁Media	-4817
▁Sebuah	-4818
▁agenda	-4819
tisipasi	-4820
▁perangkat	-4821
▁memperkenalkan	-4822
sal	-4823
epon	-4824
abrak	-4825
▁Dana	-4826
ikahan	-4827
▁bakar	-4828
▁jarak	-4829
inginkan	-4830
▁Departemen	-4831
▁mengakibatkan	-4832
▁Ist	-4833
▁Sudah	-4834
▁Kapten	-4835
awang	-4836
▁Bahkan	-4837
eritakan	-4838
JS	-4839
hal	-4840
▁tun	-4841
agung	-4842
umahan	-4843
▁sejauh	-4844
▁mendaftar	-4845
app	-4846
fisi	-4847
olos	-4848
tusi	-4849
▁Pras	-4850
▁Tetapi	-4851
▁membayar	-4852
▁mempunyai	-4853
▁wisatawan	-4854
ium	-4855
edit	-4856
ancarkan	-4857
▁militan	-4858
▁misalnya	-4859
DO	-4860
▁MD	-4861
▁Nah	-4862
▁rep	-4863
akili	-4864
endak	-4865
▁PSIS	-4866
▁Jogja	-4867
▁minta	-4868
▁model	-4869
▁Mahasiswa	-4870
▁mengakhiri	-4871
▁Penghargaan	-4872
/1)	-4873
ijen	-4874
▁diw	-4875
ganya	-4876
angkut	-4877
untungan	-4878
▁diperiksa	-4879
▁ketentuan	-4880
teman	-4881
▁Imam	-4882
▁Indr	-4883
tronik	-4884
▁tarif	-4885
emar	-4886
▁kot	-4887
onstr	-4888
▁Aksi	-4889
▁Sido	-4890
▁hijau	-4891
▁keberl	-4892
▁menguc	-4893
▁klasemen	-4894
▁berkolaborasi	-4895
LO	-4896
Kem	-4897
amil	-4898
▁Fer	-4899
akini	-4900
▁Hadi	-4901
aminya	-4902
etujui	-4903
tusias	-4904
▁ASEAN	-4905
▁Ratusan	-4906
Ap	-4907
me	-4908
▁kiri	-4909
▁Bantul	-4910
▁Kawasan	-4911
▁diminta	-4912
▁plastik	-4913
lementasi	-4914
▁bersenjata	-4915
▁terjadinya	-4916
fo	-4917
ku	-4918
my	-4919
are	-4920
itis	-4921
opsi	-4922
okowi	-4923
egrasi	-4924
▁Pemuda	-4925
ambangan	-4926
▁Bantuan	-4927
▁Keputusan	-4928
Men	-4929
div	-4930
▁br	-4931
uruk	-4932
▁Maju	-4933
▁sesi	-4934
▁aspek	-4935
▁lahir	-4936
elompok	-4937
▁menangani	-4938
agia	-4939
▁Ayu	-4940
▁Geo	-4941
▁Haji	-4942
▁Usaha	-4943
▁member	-4944
▁dilansir	-4945
▁kilogram	-4946
▁memeriksa	-4947
▁permainan	-4948
lad	-4949
osa	-4950
upan	-4951
▁rup	-4952
ekaan	-4953
▁Bangsa	-4954
▁Lapangan	-4955
▁Tersangka	-4956
▁perdamaian	-4957
▁Dib	-4958
baiki	-4959
SDM	-4960
her	-4961
hana	-4962
ower	-4963
atologi	-4964
▁tunggal	-4965
▁menghindari	-4966
onda	-4967
▁mar	-4968
▁was	-4969
▁tanda	-4970
▁pelajar	-4971
▁gangguan	-4972
▁da	-4973
/10)	-4974
▁Fir	-4975
▁PSS	-4976
aparan	-4977
arisan	-4978
▁desain	-4979
▁koordinasi	-4980
lan	-4981
▁Rus	-4982
▁taw	-4983
fitri	-4984
Jokowi	-4985
▁konsep	-4986
▁jenazah	-4987
▁mengant	-4988
▁mempersiapkan	-4989
bo	-4990
Tok	-4991
ogo	-4992
oblos	-4993
ondok	-4994
▁York	-4995
▁gaji	-4996
▁kontra	-4997
▁modern	-4998
▁Laporan	-4999
▁Komunikasi	-5000
▁University	-5001
▁BBM	-5002
▁Peg	-5003
▁You	-5004
▁Lest	-5005
▁Belanda	-5006
▁tahapan	-5007
▁Pakistan	-5008
▁pembayaran	-5009
NU	-5010
aft	-5011
olog	-5012
▁Kol	-5013
▁tes	-5014
akter	-5015
ektar	-5016
uncak	-5017
▁Open	-5018
bitkan	-5019
fisika	-5020
▁fakta	-5021
▁sandera	-5022
▁menargetkan	-5023
▁MA	-5024
▁adat	-5025
▁Arema	-5026
▁supaya	-5027
▁Kampanye	-5028
▁berjudul	-5029
▁merasakan	-5030
▁sosialisasi	-5031
▁tadi	-5032
ugikan	-5033
ebritas	-5034
untutan	-5035
▁Juanda	-5036
▁internal	-5037
▁berangkat	-5038
▁Ketenagakerjaan	-5039
TV	-5040
▁Mb	-5041
cang	-5042
▁Arya	-5043
▁Sumb	-5044
uruhan	-5045
▁2025.	-5046
▁tumbuh	-5047
▁dibangun	-5048
▁membantah	-5049
▁sukarelawan	-5050
▁SMK	-5051
▁Yas	-5052
▁intel	-5053
▁Secara	-5054
▁menuntut	-5055
▁semifinal	-5056
▁mengirimkan	-5057
▁SI	-5058
▁Dwi	-5059
▁Bisa	-5060
endali	-5061
anegara	-5062
▁beliau	-5063
▁suaminya	-5064
▁pembicara	-5065
▁SK	-5066
▁Brig	-5067
klusif	-5068
olehan	-5069
▁skuad	-5070
▁Ngurah	-5071
▁pariwisata	-5072
▁Ph	-5073
esir	-5074
▁amb	-5075
ijaya	-5076
▁Terp	-5077
▁buka	-5078
angkit	-5079
▁krisis	-5080
▁nelayan	-5081
▁KM	-5082
asia	-5083
osen	-5084
roli	-5085
unjukan	-5086
▁bertugas	-5087
▁sambutan	-5088
eni	-5089
▁Tuj	-5090
▁regulasi	-5091
▁perjuangan	-5092
▁KU	-5093
aleg	-5094
inar	-5095
▁Klim	-5096
▁mengab	-5097
▁timnya	-5098
▁Geofisika	-5099
▁Sis	-5100
ahaman	-5101
satunya	-5102
▁Klimatologi	-5103
▁bir	-5104
angku	-5105
amakan	-5106
irikan	-5107
▁David	-5108
▁drone	-5109
ormatan	-5110
▁merespons	-5111
▁mengenakan	-5112
gasi	-5113
uyur	-5114
▁Tok	-5115
▁tip	-5116
egoro	-5117
▁Sumut	-5118
▁liter	-5119
▁massa	-5120
rata	-5121
▁Hab	-5122
ement	-5123
▁bilang	-5124
▁kontribusi	-5125
jm	-5126
▁Bob	-5127
▁YOG	-5128
▁maj	-5129
tahun	-5130
▁Kond	-5131
Persero	-5132
▁protes	-5133
▁berhenti	-5134
ame	-5135
eco	-5136
▁3,	-5137
▁RUU	-5138
▁YOGY	-5139
▁Pangan	-5140
▁turnamen	-5141
▁memperingatkan	-5142
idato	-5143
▁Mulai	-5144
▁Gelora	-5145
ambarkan	-5146
▁pameran	-5147
▁YOGYAKARTA	-5148
▁kekhawatiran	-5149
TP	-5150
ilmu	-5151
uasai	-5152
ultas	-5153
▁PSSI	-5154
▁Sebut	-5155
▁pintu	-5156
▁tersedia	-5157
▁menyerukan	-5158
asib	-5159
▁May	-5160
ipuan	-5161
▁mengej	-5162
▁sasaran	-5163
iber	-5164
itor	-5165
injau	-5166
▁toko	-5167
▁lulus	-5168
▁sebut	-5169
▁Manusia	-5170
▁tersebar	-5171
▁menganggap	-5172
TS	-5173
▁500	-5174
▁Andika	-5175
▁rumahnya	-5176
BP	-5177
Pil	-5178
ehan	-5179
link	-5180
ormati	-5181
ulitan	-5182
▁Mesir	-5183
▁Jember	-5184
▁netral	-5185
▁dilantik	-5186
ede	-5187
▁Cah	-5188
▁pal	-5189
▁Dewa	-5190
ederal	-5191
▁Istana	-5192
▁Perang	-5193
▁edukasi	-5194
▁keluarganya	-5195
ph	-5196
ega	-5197
▁Cik	-5198
▁Alex	-5199
▁ilmu	-5200
▁Maluku	-5201
▁hektar	-5202
▁hendak	-5203
▁diajukan	-5204
▁Sun	-5205
▁Vir	-5206
dusen	-5207
▁Sidoarjo	-5208
▁menikmati	-5209
An	-5210
:05	-5211
itim	-5212
▁gaw	-5213
▁hotel	-5214
upacara	-5215
▁serentak	-5216
▁pencurian	-5217
3.	-5218
▁Ki	-5219
jana	-5220
▁Mun	-5221
▁Suara	-5222
▁diran	-5223
▁akadem	-5224
▁diberi	-5225
▁pasokan	-5226
▁upacara	-5227
▁perairan	-5228
jek	-5229
mer	-5230
▁Dn	-5231
imis	-5232
▁tra	-5233
asila	-5234
▁Nana	-5235
inginan	-5236
▁Produk	-5237
▁daring	-5238
▁investor	-5239
▁perintah	-5240
▁dirancang	-5241
▁35	-5242
erdekaan	-5243
▁meliputi	-5244
▁memperluas	-5245
▁penyelenggara	-5246
:10	-5247
ajian	-5248
akses	-5249
▁Jangan	-5250
▁Idulfitri	-5251
▁mayoritas	-5252
▁Luth	-5253
andeng	-5254
erahan	-5255
▁kamar	-5256
▁tambang	-5257
▁penyidikan	-5258
▁Op	-5259
sisi	-5260
▁Zul	-5261
asaan	-5262
▁2019	-5263
▁mark	-5264
ukuran	-5265
▁Belum	-5266
▁lebat	-5267
▁viral	-5268
▁diadakan	-5269
▁pendapat	-5270
▁penonton	-5271
▁Menjelang	-5272
▁konsisten	-5273
ba	-5274
par	-5275
▁Ya	-5276
abel	-5277
ahat	-5278
intai	-5279
resik	-5280
▁berc	-5281
▁Indra	-5282
▁pergi	-5283
▁tengg	-5284
unggulan	-5285
▁Av	-5286
embus	-5287
yanmar	-5288
▁Rafah	-5289
iskinan	-5290
▁Li	-5291
alap	-5292
ilir	-5293
▁DIY	-5294
▁Hadir	-5295
▁pokok	-5296
ependen	-5297
umentasi	-5298
▁Langkah	-5299
▁halaman	-5300
▁kampung	-5301
▁mendengar	-5302
▁sebagaimana	-5303
ikel	-5304
aging	-5305
ukses	-5306
▁batu	-5307
▁kuasa	-5308
onegoro	-5309
▁menahan	-5310
▁Diketahui	-5311
▁mengucapkan	-5312
ejak	-5313
▁Mag	-5314
▁Tab	-5315
▁WITA	-5316
▁istr	-5317
▁Lapas	-5318
▁Rizky	-5319
▁Badung	-5320
▁Corpor	-5321
▁migran	-5322
▁melanda	-5323
▁Pengamat	-5324
▁terlebih	-5325
▁mengandung	-5326
mu	-5327
sik	-5328
▁Adi	-5329
▁Fau	-5330
▁PAN	-5331
▁had	-5332
otong	-5333
edaran	-5334
▁Akbar	-5335
▁mengk	-5336
egritas	-5337
▁Bicara	-5338
▁Terkait	-5339
▁istrinya	-5340
▁keberadaan	-5341
▁penganiayaan	-5342
quez	-5343
▁Far	-5344
▁SMA	-5345
Kalau	-5346
ongkok	-5347
▁Capres	-5348
▁Myanmar	-5349
▁menuduh	-5350
embalikan	-5351
▁dijadwalkan	-5352
▁Dim	-5353
Kemen	-5354
▁Reskrim	-5355
▁meyakini	-5356
▁administrasi	-5357
edera	-5358
entum	-5359
uters	-5360
▁Syah	-5361
▁tren	-5362
▁Gresik	-5363
▁berbagi	-5364
▁beserta	-5365
▁Parlemen	-5366
▁antusias	-5367
ahi	-5368
▁NU	-5369
alog	-5370
emudi	-5371
▁maaf	-5372
▁real	-5373
▁rest	-5374
▁lepas	-5375
▁pakar	-5376
rip	-5377
gizi	-5378
ulir	-5379
ector	-5380
▁Paus	-5381
▁studi	-5382
▁Sidang	-5383
▁TikTok	-5384
▁berjuang	-5385
erm	-5386
ink	-5387
ecah	-5388
idur	-5389
iner	-5390
ulian	-5391
▁beredar	-5392
BI	-5393
▁Boy	-5394
▁Cak	-5395
idiki	-5396
▁bumi	-5397
esisir	-5398
▁Kabar	-5399
▁Luthfi	-5400
▁arahan	-5401
▁legisl	-5402
▁tahunan	-5403
▁komentar	-5404
▁kesulitan	-5405
Dem	-5406
ejo	-5407
ohir	-5408
▁KAI	-5409
▁rata	-5410
▁Malam	-5411
egangan	-5412
▁Divisi	-5413
▁tembak	-5414
▁Bencana	-5415
▁respons	-5416
▁mengatur	-5417
▁pernikahan	-5418
reen	-5419
▁Ade	-5420
▁Kun	-5421
imbol	-5422
▁Ketum	-5423
amas	-5424
▁Pam	-5425
▁Pand	-5426
▁bintang	-5427
asilitasi	-5428
Sem	-5429
eled	-5430
▁Afg	-5431
▁Emp	-5432
▁Yah	-5433
▁bersalah	-5434
▁Pancasila	-5435
MS	-5436
eno	-5437
ikro	-5438
usun	-5439
sedur	-5440
hatikan	-5441
▁keterl	-5442
ne	-5443
ean	-5444
▁70	-5445
▁Rud	-5446
▁Sch	-5447
▁mand	-5448
▁Bukan	-5449
angkutan	-5450
aturahmi	-5451
▁menjual	-5452
▁keberlanjutan	-5453
▁bin	-5454
▁susu	-5455
enakan	-5456
ibatan	-5457
-4	-5458
TN	-5459
▁ki	-5460
utra	-5461
▁cerah	-5462
▁Jadwal	-5463
▁narkotika	-5464
▁@	-5465
vey	-5466
▁Ri	-5467
abut	-5468
▁Pus	-5469
▁Rez	-5470
ingat	-5471
▁tamu	-5472
embako	-5473
atalkan	-5474
▁Hidayat	-5475
▁koalisi	-5476
▁keseluruhan	-5477
▁80	-5478
▁SU	-5479
-2024	-5480
ongkar	-5481
▁Karang	-5482
▁keempat	-5483
▁melayani	-5484
60	-5485
:15	-5486
ary	-5487
▁AFF	-5488
▁BOG	-5489
▁Hod	-5490
▁Mapol	-5491
▁Supri	-5492
▁ramah	-5493
▁evaluasi	-5494
▁mengumpulkan	-5495
▁efek	-5496
antang	-5497
▁BOGOR	-5498
▁Jaksa	-5499
▁kartu	-5500
indahan	-5501
▁siaran	-5502
▁inisiatif	-5503
▁Perdagangan	-5504
▁Atas	-5505
▁adil	-5506
▁beli	-5507
ulusan	-5508
▁Honda	-5509
▁puasa	-5510
▁berjanji	-5511
▁konsumsi	-5512
▁gelombang	-5513
.,	-5514
waan	-5515
▁Hanya	-5516
▁Italia	-5517
▁Manager	-5518
▁namanya	-5519
▁saudara	-5520
▁sejalan	-5521
▁Tiongkok	-5522
▁perolehan	-5523
Tub	-5524
pas	-5525
uhu	-5526
ayam	-5527
iansi	-5528
irian	-5529
ayasan	-5530
tengah	-5531
▁Hidup	-5532
▁level	-5533
empuran	-5534
▁jemaah	-5535
▁transparan	-5536
▁Kualifikasi	-5537
ke	-5538
:01	-5539
▁US	-5540
ajat	-5541
edak	-5542
▁kak	-5543
mikan	-5544
roses	-5545
▁Minta	-5546
langkah	-5547
▁Marquez	-5548
▁inflasi	-5549
▁penerimaan	-5550
rs	-5551
se	-5552
:45	-5553
▁ng	-5554
apil	-5555
teng	-5556
forma	-5557
uling	-5558
▁instansi	-5559
▁berlanjut	-5560
▁membagikan	-5561
HP	-5562
KPP	-5563
hak	-5564
utar	-5565
▁Del	-5566
edaan	-5567
▁Hodak	-5568
▁Menko	-5569
▁pasal	-5570
▁mengelola	-5571
oker	-5572
▁Fin	-5573
▁Med	-5574
oskow	-5575
▁Andr	-5576
alisis	-5577
▁besok	-5578
▁dirilis	-5579
hub	-5580
olan	-5581
▁PNS	-5582
▁2026	-5583
▁Prat	-5584
▁Proses	-5585
ayangkan	-5586
▁diusung	-5587
▁lanjutan	-5588
▁tradisional	-5589
dan	-5590
▁32	-5591
▁bl	-5592
▁Rom	-5593
anker	-5594
▁Bulan	-5595
▁Masih	-5596
▁emisi	-5597
atuhkan	-5598
▁YouTub	-5599
KM	-5600
fer	-5601
▁ID	-5602
▁SO	-5603
caya	-5604
▁Sol	-5605
▁Real	-5606
endera	-5607
▁pemad	-5608
▁Banjar	-5609
▁masjid	-5610
▁Pramono	-5611
▁terbatas	-5612
▁mengganggu	-5613
▁dilanjutkan	-5614
▁Perlindungan	-5615
gaja	-5616
ahana	-5617
lanjut	-5618
▁Antara	-5619
▁Moskow	-5620
▁Pidana	-5621
▁dekade	-5622
▁keadilan	-5623
▁Sedangkan	-5624
▁peluncuran	-5625
tual	-5626
▁2021	-5627
▁Lomb	-5628
▁camp	-5629
▁apalagi	-5630
▁dikirim	-5631
▁merusak	-5632
▁pedagang	-5633
▁Pernyataan	-5634
▁BA	-5635
incian	-5636
▁palsu	-5637
▁sebab	-5638
inggung	-5639
▁Yayasan	-5640
▁melarang	-5641
▁berbahaya	-5642
▁melancarkan	-5643
do	-5644
pem	-5645
uter	-5646
▁BKN	-5647
▁Bur	-5648
asnya	-5649
tivasi	-5650
▁berka	-5651
▁jaksa	-5652
▁sepen	-5653
▁gawang	-5654
▁Fakultas	-5655
▁tanggapan	-5656
▁mendatangi	-5657
Al	-5658
DB	-5659
sos	-5660
▁BN	-5661
▁LP	-5662
opir	-5663
▁div	-5664
▁ide	-5665
▁kari	-5666
unggah	-5667
▁Ribuan	-5668
▁Kondisi	-5669
▁oposisi	-5670
▁berkumpul	-5671
▁dipastikan	-5672
▁Selanjutnya	-5673
esa	-5674
uci	-5675
iskusi	-5676
unting	-5677
▁Niaga	-5678
▁Dukung	-5679
▁Puncak	-5680
▁pengurus	-5681
▁disebabkan	-5682
10	-5683
de	-5684
awit	-5685
endra	-5686
ewati	-5687
▁Akibat	-5688
▁telepon	-5689
▁karakter	-5690
artisipasi	-5691
▁Pengembangan	-5692
win	-5693
elan	-5694
sial	-5695
▁liar	-5696
etahuan	-5697
der	-5698
▁KH	-5699
eboh	-5700
elam	-5701
tris	-5702
▁Jar	-5703
atuhi	-5704
urang	-5705
▁Pengawas	-5706
▁Penyanyi	-5707
▁penerima	-5708
Per	-5709
Sel	-5710
▁Sultan	-5711
▁Thohir	-5712
▁perund	-5713
▁tentunya	-5714
▁optimistis	-5715
▁Ky	-5716
▁RT	-5717
erse	-5718
▁mon	-5719
▁pad	-5720
antian	-5721
▁Wayan	-5722
▁duduk	-5723
▁dialami	-5724
25	-5725
gak	-5726
▁SDM	-5727
ermin	-5728
tidak	-5729
▁Jamb	-5730
▁Manajemen	-5731
utkan	-5732
▁Cina	-5733
▁Kari	-5734
▁gula	-5735
▁Satpol	-5736
▁berkat	-5737
▁berkaitan	-5738
▁elektronik	-5739
▁keuntungan	-5740
epak	-5741
unyi	-5742
▁Liv	-5743
▁pola	-5744
erakan	-5745
▁penipuan	-5746
▁Eksekutif	-5747
▁Perhubungan	-5748
ect	-5749
▁Hy	-5750
▁Top	-5751
asana	-5752
▁Pasi	-5753
▁suku	-5754
▁pemas	-5755
▁Kongres	-5756
▁evakuasi	-5757
▁menyusul	-5758
▁prestasi	-5759
dian	-5760
isma	-5761
▁Sistem	-5762
▁Narkoba	-5763
▁sekadar	-5764
▁merugikan	-5765
▁perbuatan	-5766
ago	-5767
mil	-5768
▁Wal	-5769
▁Balik	-5770
▁modal	-5771
▁Padahal	-5772
yarakatan	-5773
▁ST	-5774
ward	-5775
▁Sig	-5776
▁Bert	-5777
▁Biak	-5778
▁kotak	-5779
▁minum	-5780
▁unggulan	-5781
▁mengangkat	-5782
▁penampilan	-5783
▁pengendara	-5784
fat	-5785
use	-5786
ekad	-5787
ariah	-5788
▁kopi	-5789
umuman	-5790
▁pensi	-5791
▁rupiah	-5792
eportasi	-5793
▁Pasukan	-5794
▁ditutup	-5795
anggulangan	-5796
▁keunggulan	-5797
▁Championship	-5798
lat	-5799
nama	-5800
apitu	-5801
▁pikir	-5802
izinkan	-5803
▁Rektor	-5804
▁Satuan	-5805
▁cedera	-5806
▁Honorer	-5807
▁Bengkulu	-5808
▁pemenang	-5809
▁mengancam	-5810
▁peredaran	-5811
▁menggambarkan	-5812
LA	-5813
SR	-5814
age	-5815
aper	-5816
▁top	-5817
adiah	-5818
▁Kini	-5819
▁darat	-5820
uangkan	-5821
▁Survei	-5822
▁Kapolri	-5823
▁awalnya	-5824
▁daripada	-5825
▁diplomat	-5826
▁momentum	-5827
▁kekalahan	-5828
▁kekurangan	-5829
ker	-5830
ebon	-5831
oner	-5832
itisi	-5833
▁gaya	-5834
ebihan	-5835
▁cukai	-5836
▁NasDem	-5837
▁parkir	-5838
hanistan	-5839
istribusi	-5840
▁peneliti	-5841
▁Organisasi	-5842
▁diserahkan	-5843
ATO	-5844
oll	-5845
▁DE	-5846
▁Kus	-5847
▁mir	-5848
▁2022,	-5849
▁Global	-5850
▁Puluhan	-5851
erlakukan	-5852
alahgunaan	-5853
▁Had	-5854
▁Mac	-5855
▁tur	-5856
▁suhu	-5857
imbang	-5858
▁Demak	-5859
▁tajam	-5860
▁wajah	-5861
▁mental	-5862
▁Cirebon	-5863
▁Dukungan	-5864
▁mengawal	-5865
idu	-5866
▁90	-5867
ugat	-5868
▁mur	-5869
onsel	-5870
warna	-5871
atikan	-5872
gacara	-5873
udukan	-5874
▁Ruang	-5875
▁unsur	-5876
▁melaju	-5877
▁kreatif	-5878
▁dimaksud	-5879
▁tuntutan	-5880
antisipasi	-5881
▁memerintah	-5882
▁Afghanistan	-5883
:20	-5884
ery	-5885
▁4,	-5886
▁300	-5887
akkan	-5888
aming	-5889
andia	-5890
uliah	-5891
▁Brasil	-5892
▁menged	-5893
▁Gunawan	-5894
▁kemiskinan	-5895
▁IC	-5896
▁Iq	-5897
▁KA	-5898
▁PLN	-5899
▁Tes	-5900
▁Akhir	-5901
▁Dipta	-5902
▁murah	-5903
▁disapa	-5904
▁tenang	-5905
▁Stasiun	-5906
▁berpartisipasi	-5907
pos	-5908
apus	-5909
endi	-5910
ftar	-5911
▁Rob	-5912
▁Tas	-5913
▁Prak	-5914
▁Star	-5915
bankan	-5916
▁Indah	-5917
jadikan	-5918
▁Tujuan	-5919
▁sarana	-5920
▁menindak	-5921
▁penerapan	-5922
▁pembebasan	-5923
▁sekitarnya	-5924
▁ac	-5925
yang	-5926
▁Ungkap	-5927
▁terkena	-5928
▁Abdullah	-5929
▁Sebagian	-5930
▁terletak	-5931
40	-5932
aba	-5933
vin	-5934
▁CC	-5935
▁Leg	-5936
▁Amin	-5937
▁kenc	-5938
▁simp	-5939
▁Raffi	-5940
▁Studi	-5941
▁jogja	-5942
▁lantas	-5943
▁sekutu	-5944
▁Corporate	-5945
▁Perubahan	-5946
▁bersangkutan	-5947
UI	-5948
pl	-5949
tiba	-5950
▁WNA	-5951
▁nya	-5952
nilai	-5953
▁Aman	-5954
▁kaya	-5955
▁menu	-5956
ersial	-5957
▁Grand	-5958
▁indiv	-5959
▁peman	-5960
▁utang	-5961
residen	-5962
ancurkan	-5963
▁Reuters	-5964
▁didapat	-5965
▁pakaian	-5966
▁suporter	-5967
▁kesalahan	-5968
▁independen	-5969
▁sepenuhnya	-5970
▁dikeluarkan	-5971
esh	-5972
▁es	-5973
▁Dokter	-5974
▁Kanada	-5975
▁hektare	-5976
▁berulang	-5977
▁meninjau	-5978
▁Perwakilan	-5979
▁De	-5980
▁Fad	-5981
▁Ida	-5982
▁hid	-5983
vesti	-5984
▁Bumi	-5985
ristek	-5986
▁pulau	-5987
▁Awards	-5988
▁respon	-5989
▁Kembali	-5990
▁mengapa	-5991
▁sepakat	-5992
▁kandungan	-5993
ES	-5994
KD	-5995
estik	-5996
▁Terd	-5997
▁Kabid	-5998
▁simbol	-5999
▁dimiliki	-6000
MA	-6001
bum	-6002
▁Bud	-6003
▁Eng	-6004
▁Mit	-6005
▁Was	-6006
▁asli	-6007
lantas	-6008
▁2024",	-6009
▁buatan	-6010
▁Pemimpin	-6011
▁bersaing	-6012
▁kesiapan	-6013
:07	-6014
Ind	-6015
▁DW	-6016
umni	-6017
▁Konf	-6018
▁2022.	-6019
▁Patra	-6020
▁Tewas	-6021
▁solid	-6022
▁Satgas	-6023
▁Perjanjian	-6024
▁pencegahan	-6025
izi	-6026
kiri	-6027
ogan	-6028
etail	-6029
turut	-6030
▁Pegi	-6031
▁Upaya	-6032
▁aspirasi	-6033
▁demonstr	-6034
▁mendalam	-6035
▁prosedur	-6036
▁kebebasan	-6037
▁Kebudayaan	-6038
▁menyaksikan	-6039
19	-6040
BT	-6041
:35	-6042
sih	-6043
andy	-6044
▁Pac	-6045
▁del	-6046
alatan	-6047
▁artis	-6048
▁bangga	-6049
▁hiburan	-6050
encanakan	-6051
▁Kebijakan	-6052
ikbudristek	-6053
ver	-6054
▁Muk	-6055
▁sim	-6056
ajurit	-6057
itamin	-6058
itraan	-6059
▁tidur	-6060
▁parpol	-6061
lihatkan	-6062
▁Sehingga	-6063
▁bukanlah	-6064
▁menembak	-6065
▁panggilan	-6066
▁pencapaian	-6067
▁PE	-6068
▁DPC	-6069
▁PSM	-6070
▁red	-6071
▁Siti	-6072
▁kamu	-6073
▁staf	-6074
adaran	-6075
▁Presi	-6076
▁Alasan	-6077
▁Mohammad	-6078
▁mewakili	-6079
▁Dil	-6080
▁Yong	-6081
▁khas	-6082
▁Bapak	-6083
▁berst	-6084
▁garis	-6085
▁normal	-6086
▁terluka	-6087
▁Aparatur	-6088
▁transisi	-6089
▁dikonfirmasi	-6090
-0	-6091
mo	-6092
ais	-6093
▁Ob	-6094
onny	-6095
▁San	-6096
▁Wib	-6097
▁rute	-6098
▁Kristi	-6099
▁imbang	-6100
▁membela	-6101
▁suasana	-6102
▁mengarah	-6103
▁pelantikan	-6104
Muh	-6105
▁(0	-6106
▁Log	-6107
▁doa	-6108
Untuk	-6109
ading	-6110
umpah	-6111
▁Purn	-6112
▁Pakar	-6113
▁Apalagi	-6114
▁belanja	-6115
▁Hubungan	-6116
▁jurnalis	-6117
▁produsen	-6118
▁pembukaan	-6119
▁transformasi	-6120
▁memperlihatkan	-6121
▁penyalahgunaan	-6122
rafi	-6123
▁Pon	-6124
▁web	-6125
▁Rach	-6126
▁Staf	-6127
ilaian	-6128
▁bekas	-6129
▁terbar	-6130
▁Gerakan	-6131
▁memantau	-6132
▁memperbaiki	-6133
ria	-6134
tag	-6135
▁Eks	-6136
▁Mon	-6137
▁kul	-6138
unkan	-6139
isinya	-6140
▁parah	-6141
▁tutup	-6142
▁berpend	-6143
▁penghitungan	-6144
▁Ot	-6145
alas	-6146
amad	-6147
aktif	-6148
alasi	-6149
okerto	-6150
▁dinam	-6151
▁pilih	-6152
▁Fraksi	-6153
▁Wisata	-6154
▁sepuluh	-6155
▁kompetensi	-6156
▁pendekatan	-6157
▁penembakan	-6158
alo	-6159
Kita	-6160
mart	-6161
▁Teh	-6162
▁NATO	-6163
▁PSBS	-6164
▁Super	-6165
▁keter	-6166
ensitas	-6167
▁penutup	-6168
▁miliknya	-6169
▁dihubungi	-6170
▁menandatangani	-6171
FA	-6172
WA	-6173
uto	-6174
van	-6175
▁Cib	-6176
adari	-6177
yukur	-6178
▁Baik	-6179
▁Pagi	-6180
▁RSUD	-6181
engketa	-6182
▁kandang	-6183
▁ramalan	-6184
▁singkat	-6185
▁Ud	-6186
elih	-6187
erus	-6188
▁197	-6189
▁lip	-6190
igasi	-6191
▁Iqbal	-6192
anjangan	-6193
-5	-6194
yal	-6195
ahap	-6196
oper	-6197
▁198	-6198
imbah	-6199
kanan	-6200
▁Hong	-6201
▁rekor	-6202
▁binaan	-6203
▁medali	-6204
▁populer	-6205
▁perbedaan	-6206
▁diprediksi	-6207
▁mengeklaim	-6208
▁serangkaian	-6209
OM	-6210
▁AM	-6211
iness	-6212
▁Raja	-6213
▁Paslon	-6214
▁Seluruh	-6215
▁dijadikan	-6216
▁membuktikan	-6217
▁menyalurkan	-6218
▁Ven	-6219
▁teb	-6220
▁beban	-6221
▁Relawan	-6222
▁kabinet	-6223
▁merujuk	-6224
▁sembako	-6225
▁berwarna	-6226
▁mengungsi	-6227
▁tergabung	-6228
BC	-6229
Ada	-6230
▁Dh	-6231
olik	-6232
wira	-6233
▁Kud	-6234
olahan	-6235
▁sayap	-6236
▁Nikita	-6237
▁cabang	-6238
encanaan	-6239
▁Pejabat	-6240
▁terduga	-6241
▁internet	-6242
▁pembelian	-6243
iss	-6244
jur	-6245
uro	-6246
▁Nug	-6247
ukkan	-6248
▁adik	-6249
▁fase	-6250
▁sapi	-6251
osikan	-6252
▁temuan	-6253
▁Pegawai	-6254
▁subsidi	-6255
▁larangan	-6256
▁peralatan	-6257
eum	-6258
even	-6259
pura	-6260
▁Off	-6261
▁Ria	-6262
▁Pengel	-6263
▁tanaman	-6264
▁imbuhnya	-6265
▁panggung	-6266
fasilitasi	-6267
▁konstitusi	-6268
ool	-6269
▁SMP	-6270
ilaku	-6271
▁2020	-6272
Dengan	-6273
ukiman	-6274
▁menga	-6275
▁persa	-6276
▁mengkl	-6277
▁dijalan	-6278
▁Muhaimin	-6279
▁Bagaimana	-6280
▁pembicaraan	-6281
:50	-6282
bil	-6283
bol	-6284
ico	-6285
▁AH	-6286
▁AL	-6287
▁PK	-6288
▁Dani	-6289
▁Sent	-6290
▁bila	-6291
▁cuma	-6292
ikiran	-6293
▁bermula	-6294
▁menjalin	-6295
bah	-6296
ift	-6297
lien	-6298
ajari	-6299
endam	-6300
▁bent	-6301
▁kanker	-6302
▁Pelayanan	-6303
▁bertambah	-6304
PM	-6305
▁IV	-6306
ster	-6307
▁Sap	-6308
▁ayat	-6309
barang	-6310
urusan	-6311
▁dikab	-6312
panjang	-6313
isasikan	-6314
▁Rencana	-6315
▁kencang	-6316
▁pelabuhan	-6317
▁tenggelam	-6318
▁kenyamanan	-6319
ID	-6320
pel	-6321
▁ch	-6322
omas	-6323
▁Bag	-6324
▁Keber	-6325
▁Pupuk	-6326
▁Barang	-6327
▁asuransi	-6328
▁melewati	-6329
▁memanggil	-6330
▁perguruan	-6331
▁menceritakan	-6332
ler	-6333
abung	-6334
minal	-6335
▁layar	-6336
▁wujud	-6337
▁Banjir	-6338
▁Energi	-6339
▁Praset	-6340
▁Series	-6341
▁wawancara	-6342
▁diterapkan	-6343
▁keberhasilan	-6344
▁keterlibatan	-6345
▁menggantikan	-6346
▁berkoordinasi	-6347
va	-6348
▁FI	-6349
impa	-6350
▁nar	-6351
▁umur	-6352
▁ditud	-6353
▁Listrik	-6354
▁terbakar	-6355
▁Institute	-6356
▁Pelaksana	-6357
▁kecepatan	-6358
▁ketahanan	-6359
▁distribusi	-6360
:02	-6361
▁Sr	-6362
▁bo	-6363
deka	-6364
▁Eko	-6365
omotif	-6366
▁performa	-6367
▁menghormati	-6368
ith	-6369
zani	-6370
▁Sec	-6371
▁Soc	-6372
▁inov	-6373
▁kedi	-6374
eberkan	-6375
lanjuti	-6376
romosikan	-6377
▁individu	-6378
▁kedatangan	-6379
▁Mur	-6380
▁Zoni	-6381
▁roda	-6382
▁saham	-6383
▁daging	-6384
▁hadiah	-6385
▁pengec	-6386
▁dilihat	-6387
▁dipilih	-6388
▁sengaja	-6389
▁domestik	-6390
▁kediaman	-6391
▁menurutnya	-6392
▁pengetahuan	-6393
▁pertempuran	-6394
▁Pemerintahan	-6395
UN	-6396
bi	-6397
rad	-6398
rok	-6399
iker	-6400
▁Hel	-6401
▁otor	-6402
▁Blink	-6403
▁lolos	-6404
▁memer	-6405
anjikan	-6406
▁pindah	-6407
egawaian	-6408
esuaikan	-6409
apitulasi	-6410
▁regional	-6411
▁institusi	-6412
▁sedikitnya	-6413
▁Perekonomian	-6414
rop	-6415
enya	-6416
inci	-6417
▁Riset	-6418
▁Market	-6419
▁Tindak	-6420
▁memben	-6421
▁ditanya	-6422
▁rekaman	-6423
▁Keduanya	-6424
▁partisipasi	-6425
nop	-6426
▁36	-6427
▁45	-6428
▁Jon	-6429
▁def	-6430
allah	-6431
▁1.000	-6432
▁pakai	-6433
▁silam	-6434
vestigasi	-6435
RS	-6436
wal	-6437
info	-6438
sari	-6439
▁Api	-6440
▁Bet	-6441
▁kub	-6442
▁Masa	-6443
▁Sama	-6444
▁pinj	-6445
▁Batam	-6446
▁Siang	-6447
yaratan	-6448
▁kosong	-6449
▁Blinken	-6450
▁bergizi	-6451
arifikasi	-6452
encananya	-6453
▁keinginan	-6454
▁kesadaran	-6455
▁penggemar	-6456
▁penindakan	-6457
taw	-6458
ajer	-6459
▁putr	-6460
▁Gusti	-6461
▁petir	-6462
ambatan	-6463
▁setara	-6464
integrasi	-6465
▁diangkat	-6466
▁pencalon	-6467
▁sampaikan	-6468
▁diluncurkan	-6469
:40	-6470
cel	-6471
▁Bu	-6472
eret	-6473
▁Las	-6474
ontak	-6475
adaian	-6476
▁Allah	-6477
▁Komun	-6478
▁event	-6479
▁pupuk	-6480
▁Lombok	-6481
▁contoh	-6482
▁usulan	-6483
ombongan	-6484
▁jantung	-6485
▁kompleks	-6486
▁setengah	-6487
▁unggahan	-6488
▁prakiraan	-6489
▁ketegangan	-6490
?"	-6491
HR	-6492
Set	-6493
ide	-6494
▁Bin	-6495
▁dew	-6496
atnya	-6497
▁pemer	-6498
▁versi	-6499
alaupun	-6500
▁Madrid	-6501
▁berani	-6502
▁cerita	-6503
▁elemen	-6504
▁majelis	-6505
▁samping	-6506
▁seiring	-6507
▁kondusif	-6508
onya	-6509
uthi	-6510
yong	-6511
awati	-6512
▁Said	-6513
antauan	-6514
inansial	-6515
▁bandara	-6516
▁berdiri	-6517
▁menyimp	-6518
▁Anggaran	-6519
▁Kemenangan	-6520
hy	-6521
vo	-6522
▁TV	-6523
ambu	-6524
▁All	-6525
▁Dek	-6526
▁Gor	-6527
▁Beri	-6528
▁Wong	-6529
faatan	-6530
ianjur	-6531
isaris	-6532
▁detik	-6533
▁Blitar	-6534
▁pengaj	-6535
ternatif	-6536
▁berkata	-6537
AH	-6538
▁Tip	-6539
oskop	-6540
acakan	-6541
ammadi	-6542
▁malah	-6543
iansyah	-6544
▁minimal	-6545
▁dikelola	-6546
▁diumumkan	-6547
▁melarikan	-6548
▁pengadaan	-6549
.3	-6550
GM	-6551
▁Ach	-6552
▁kas	-6553
ening	-6554
▁1445	-6555
▁Kart	-6556
▁Koster	-6557
▁Telkom	-6558
▁kredit	-6559
▁lantai	-6560
▁metode	-6561
▁baterai	-6562
▁jaminan	-6563
▁negatif	-6564
▁terbang	-6565
▁membunuh	-6566
▁mengantisipasi	-6567
17	-6568
200	-6569
▁Ur	-6570
▁Alam	-6571
▁sent	-6572
▁mekan	-6573
▁takut	-6574
otongan	-6575
▁Fransis	-6576
▁ditunjuk	-6577
Kar	-6578
▁fr	-6579
ereb	-6580
ontr	-6581
▁Inf	-6582
▁rah	-6583
egasi	-6584
ustin	-6585
asihat	-6586
▁Arief	-6587
indahkan	-6588
▁Cianjur	-6589
▁intelijen	-6590
▁mempercepat	-6591
▁34	-6592
▁CO	-6593
▁AFP	-6594
▁Pec	-6595
▁Saf	-6596
▁Vol	-6597
entian	-6598
isihan	-6599
utrisi	-6600
▁Found	-6601
▁Bisnis	-6602
▁vitamin	-6603
▁penegakan	-6604
EMB	-6605
ague	-6606
▁Bak	-6607
inter	-6608
▁Bayu	-6609
▁Olah	-6610
▁Kudus	-6611
▁rawan	-6612
▁Houthi	-6613
▁aliran	-6614
▁dewasa	-6615
▁Pengurus	-6616
▁berfokus	-6617
▁bersifat	-6618
▁Pegadaian	-6619
▁berstatus	-6620
▁terungkap	-6621
▁intensitas	-6622
▁mendampingi	-6623
%.	-6624
▁de	-6625
daul	-6626
uskan	-6627
▁Tali	-6628
eskrim	-6629
▁Fauzi	-6630
▁dolar	-6631
▁Setiap	-6632
▁urusan	-6633
▁hadapan	-6634
▁Pihaknya	-6635
/11/2024).	-6636
▁pengakuan	-6637
ife	-6638
omen	-6639
▁Sang	-6640
▁Skuad	-6641
▁Surya	-6642
▁terpaksa	-6643
▁Demokrasi	-6644
▁Kebakaran	-6645
▁bersyukur	-6646
▁dilengkapi	-6647
AF	-6648
▁Made	-6649
▁belah	-6650
▁mayat	-6651
▁pemul	-6652
agamaan	-6653
▁penjaga	-6654
▁penjelasan	-6655
▁AC	-6656
omba	-6657
▁USD	-6658
▁bij	-6659
▁Bojan	-6660
▁memad	-6661
▁tersi	-6662
▁gudang	-6663
▁kritik	-6664
▁Bintang	-6665
▁Pekerja	-6666
▁Penelit	-6667
▁Reserse	-6668
▁teroris	-6669
▁menginginkan	-6670
Pj	-6671
enuhi	-6672
ersih	-6673
ution	-6674
adangan	-6675
▁Ketiga	-6676
ancangan	-6677
▁televisi	-6678
▁Pertemuan	-6679
▁memerintahkan	-6680
▁sh	-6681
adak	-6682
ocok	-6683
uduki	-6684
produk	-6685
umbang	-6686
▁komod	-6687
▁pingg	-6688
▁Koalisi	-6689
▁optimal	-6690
▁patroli	-6691
▁mengusulkan	-6692
EC	-6693
emas	-6694
imia	-6695
eleng	-6696
▁Kasi	-6697
▁suka	-6698
ajiban	-6699
▁Garut	-6700
▁klien	-6701
▁sopir	-6702
abungan	-6703
▁Tenaga	-6704
▁Pelangg	-6705
▁deklarasi	-6706
asyarakatan	-6707
▁berkunjung	-6708
▁stabilitas	-6709
MIN	-6710
▁33	-6711
▁5,	-6712
alif	-6713
ipta	-6714
▁Han	-6715
▁Jak	-6716
▁TKP	-6717
▁Iwan	-6718
▁Otor	-6719
▁lini	-6720
arahan	-6721
▁akbar	-6722
engaruh	-6723
▁menaik	-6724
▁pidato	-6725
▁ponsel	-6726
▁pandangan	-6727
▁diungkapkan	-6728
RC	-6729
als	-6730
ight	-6731
osan	-6732
▁kam	-6733
▁Maul	-6734
▁Park	-6735
▁Perb	-6736
▁Yord	-6737
uwangi	-6738
▁Video	-6739
▁jejak	-6740
▁mengu	-6741
12	-6742
Di	-6743
POK	-6744
lil	-6745
oyo	-6746
▁AD	-6747
▁be	-6748
abet	-6749
isten	-6750
▁Flor	-6751
▁Maka	-6752
▁lemb	-6753
▁Semen	-6754
▁Sipil	-6755
▁berawal	-6756
erifikasi	-6757
▁inovatif	-6758
▁penyelund	-6759
16	-6760
ado	-6761
▁am	-6762
▁kira	-6763
angkis	-6764
ayangk	-6765
ografi	-6766
▁Publik	-6767
▁limbah	-6768
▁depannya	-6769
▁dihadapi	-6770
▁menandai	-6771
abi	-6772
oket	-6773
ubis	-6774
▁Jat	-6775
ander	-6776
iaran	-6777
▁unik	-6778
eksiko	-6779
▁DEPOK	-6780
▁Empat	-6781
▁kuota	-6782
ahirkan	-6783
▁diatur	-6784
▁menikah	-6785
▁menyita	-6786
▁sinergi	-6787
▁angkatan	-6788
▁0,	-6789
▁We	-6790
▁Rev	-6791
▁Zel	-6792
inang	-6793
▁Head	-6794
eteksi	-6795
▁Georg	-6796
▁pesta	-6797
noputri	-6798
ammadiyah	-6799
▁Kapolsek	-6800
▁Kecelakaan	-6801
ss	-6802
SIS	-6803
zal	-6804
asad	-6805
emat	-6806
ular	-6807
▁bet	-6808
▁CCTV	-6809
▁kayu	-6810
▁Lewat	-6811
▁forum	-6812
▁Apakah	-6813
▁dipert	-6814
▁setahun	-6815
▁Soekarno	-6816
▁finansial	-6817
▁legislatif	-6818
▁Kepegawaian	-6819
▁mempromosikan	-6820
▁menghancurkan	-6821
15	-6822
▁Ni	-6823
arep	-6824
▁Day	-6825
▁Nag	-6826
▁Seg	-6827
▁Sut	-6828
▁gun	-6829
▁brand	-6830
▁dosen	-6831
▁Bahlil	-6832
▁dijual	-6833
ungkapan	-6834
▁tampaknya	-6835
▁Banyuwangi	-6836
▁disabilitas	-6837
▁memproduksi	-6838
▁Muhammadiyah	-6839
24	-6840
ondo	-6841
tuju	-6842
antam	-6843
▁jual	-6844
▁Angka	-6845
▁skala	-6846
▁YouTube	-6847
▁mengisi	-6848
▁Pariwisata	-6849
▁Penanggulangan	-6850
enom	-6851
ikor	-6852
▁Buk	-6853
▁bul	-6854
etakan	-6855
▁Jambi	-6856
▁Sigit	-6857
▁Wahyu	-6858
atatkan	-6859
endalian	-6860
▁penegak	-6861
▁Bhayangk	-6862
▁penilaian	-6863
▁menempatkan	-6864
▁persyaratan	-6865
inja	-6866
▁Tar	-6867
▁Hind	-6868
▁Oper	-6869
▁latar	-6870
▁hasilnya	-6871
▁menjamin	-6872
▁menyelamatkan	-6873
▁Tj	-6874
sion	-6875
▁off	-6876
▁Laga	-6877
angkal	-6878
▁Ronald	-6879
▁setuju	-6880
▁menyadari	-6881
adis	-6882
umpa	-6883
▁hel	-6884
▁kok	-6885
aduan	-6886
ental	-6887
▁raya	-6888
▁Habib	-6889
▁Matar	-6890
▁mewah	-6891
ertiban	-6892
ingginya	-6893
▁semacam	-6894
▁kriminal	-6895
▁melintas	-6896
▁kewenangan	-6897
▁kontestasi	-6898
WF	-6899
mur	-6900
pto	-6901
amer	-6902
apar	-6903
▁Por	-6904
▁Rub	-6905
▁Imin	-6906
ecehan	-6907
▁butuh	-6908
▁Dirjen	-6909
▁Persik	-6910
juangkan	-6911
▁Mirzani	-6912
▁Sekitar	-6913
▁Director	-6914
▁Olahraga	-6915
▁jembatan	-6916
▁stunting	-6917
▁pengemudi	-6918
▁meningkatnya	-6919
▁pertimbangan	-6920
cu	-6921
:31	-6922
:33	-6923
▁PU	-6924
▁ge	-6925
hats	-6926
opol	-6927
wono	-6928
▁Bey	-6929
▁Cel	-6930
▁Anas	-6931
▁Tata	-6932
esaian	-6933
▁Fajar	-6934
▁asasi	-6935
▁kapan	-6936
▁Pondok	-6937
▁Harapan	-6938
▁Lestari	-6939
▁pandemi	-6940
▁melainkan	-6941
Seb	-6942
▁Kre	-6943
▁sor	-6944
Tidak	-6945
▁Komite	-6946
▁mengad	-6947
▁menulis	-6948
▁stasiun	-6949
▁Serentak	-6950
▁Investasi	-6951
▁Soekarnoputri	-6952
Pen	-6953
obi	-6954
alak	-6955
▁out	-6956
emuka	-6957
▁Emil	-6958
▁Brand	-6959
▁diman	-6960
ahlawan	-6961
aparkan	-6962
erjakan	-6963
udahkan	-6964
▁Aktris	-6965
▁karbon	-6966
enderung	-6967
▁kekayaan	-6968
▁penguatan	-6969
▁integritas	-6970
▁Ay	-6971
▁Ci	-6972
dent	-6973
mada	-6974
▁Art	-6975
ullah	-6976
▁Sugi	-6977
ahtera	-6978
tainya	-6979
▁Sport	-6980
angsaan	-6981
arganya	-6982
▁santri	-6983
▁saluran	-6984
endalikan	-6985
▁Persatuan	-6986
▁kemudahan	-6987
▁rekapitulasi	-6988
IC	-6989
nah	-6990
▁er	-6991
onen	-6992
▁Bay	-6993
▁PAL	-6994
▁PPN	-6995
▁Wir	-6996
▁gar	-6997
aknya	-6998
▁Intel	-6999
▁janji	-7000
▁Wanita	-7001
ampingan	-7002
▁kemasan	-7003
▁Yordania	-7004
▁mengawasi	-7005
▁alternatif	-7006
▁memperkirakan	-7007
ume	-7008
itya	-7009
▁Cup	-7010
anaan	-7011
▁Istri	-7012
epaskan	-7013
▁Herman	-7014
▁Sumbar	-7015
▁Zelens	-7016
▁dirawat	-7017
▁Asosiasi	-7018
▁Kriminal	-7019
▁bertahun	-7020
▁terkenal	-7021
▁mengundang	-7022
:03	-7023
ike	-7024
▁75	-7025
▁PD	-7026
▁Roy	-7027
▁Berl	-7028
▁main	-7029
▁Diper	-7030
▁timnas	-7031
erminkan	-7032
▁ledakan	-7033
▁merebut	-7034
/7/2024).	-7035
▁pembiayaan	-7036
▁mengevakuasi	-7037
BMKG	-7038
▁App	-7039
▁Ded	-7040
▁Kul	-7041
idasi	-7042
papan	-7043
urasi	-7044
▁Bers	-7045
▁Dhar	-7046
▁Mari	-7047
▁riset	-7048
ampanye	-7049
yaallah	-7050
▁Lintas	-7051
▁kelola	-7052
▁Buleleng	-7053
▁dilarang	-7054
OT	-7055
Sek	-7056
ost	-7057
ras	-7058
ahasan	-7059
evelop	-7060
aliknya	-7061
▁Rahmat	-7062
▁mengkr	-7063
▁Hartarto	-7064
▁komoditas	-7065
BH	-7066
:56	-7067
App	-7068
ams	-7069
▁38	-7070
▁Vs	-7071
anet	-7072
▁Cim	-7073
▁SER	-7074
arung	-7075
itaan	-7076
leksi	-7077
ujung	-7078
▁Stef	-7079
▁sisa	-7080
kesmas	-7081
▁Kadin	-7082
umpulan	-7083
▁berapa	-7084
▁Mataram	-7085
▁sebelah	-7086
▁cenderung	-7087
▁Balikpapan	-7088
andatanganan	-7089
SM	-7090
PBN	-7091
alk	-7092
able	-7093
ingya	-7094
ubung	-7095
▁Hulu	-7096
aluran	-7097
ations	-7098
enggal	-7099
▁skema	-7100
abiskan	-7101
▁Terima	-7102
▁Kabinet	-7103
▁Penting	-7104
▁disambut	-7105
▁bertindak	-7106
-6	-7107
EA	-7108
▁Mor	-7109
▁PNM	-7110
▁Tir	-7111
▁gim	-7112
▁AMIN	-7113
▁kian	-7114
program	-7115
▁Taliban	-7116
▁sengketa	-7117
▁pencalonan	-7118
▁pembentukan	-7119
▁mencerminkan	-7120
les	-7121
▁AP	-7122
▁dak	-7123
apaan	-7124
ihkan	-7125
ompet	-7126
▁ASDP	-7127
▁Lima	-7128
▁Vina	-7129
▁aktor	-7130
▁bahaya	-7131
▁berman	-7132
▁massal	-7133
▁stabil	-7134
▁gerimis	-7135
▁lulusan	-7136
▁pesisir	-7137
▁spesial	-7138
▁pesantren	-7139
▁dikabarkan	-7140
▁kecurangan	-7141
Ar	-7142
sk	-7143
ATEN	-7144
egan	-7145
▁Yun	-7146
▁rob	-7147
aleng	-7148
▁KUHP	-7149
▁Raih	-7150
▁Whats	-7151
▁ganja	-7152
▁imbuh	-7153
▁Bagian	-7154
▁tayang	-7155
▁mineral	-7156
▁literasi	-7157
▁Fransiskus	-7158
▁Purwakarta	-7159
-10	-7160
:17	-7161
▁Lu	-7162
adik	-7163
▁pah	-7164
▁Dian	-7165
Karena	-7166
▁Harus	-7167
▁League	-7168
▁kuliah	-7169
estinasi	-7170
gagalkan	-7171
▁ataupun	-7172
▁bersiap	-7173
▁pilpres	-7174
larasikan	-7175
▁Regional	-7176
hawatirkan	-7177
▁persaingan	-7178
99	-7179
:12	-7180
mah	-7181
oma	-7182
▁km	-7183
jang	-7184
▁Feb	-7185
▁KAB	-7186
▁teh	-7187
utasi	-7188
▁Ilmu	-7189
▁Nama	-7190
▁Ryan	-7191
▁gizi	-7192
▁Bikin	-7193
▁Teguh	-7194
ilangkan	-7195
▁Meksiko	-7196
▁Rohingya	-7197
▁menabrak	-7198
▁dipanggil	-7199
▁pembuatan	-7200
▁terbanyak	-7201
▁kemerdekaan	-7202
yb	-7203
aia	-7204
awe	-7205
▁Moj	-7206
▁Sai	-7207
▁Sor	-7208
ansos	-7209
opter	-7210
▁BPJS	-7211
▁SOLO	-7212
▁Sand	-7213
anggih	-7214
▁Yusuf	-7215
▁Lokasi	-7216
▁analis	-7217
▁jutaan	-7218
▁Katolik	-7219
▁gagasan	-7220
evelopment	-7221
▁Peristiwa	-7222
▁memainkan	-7223
▁memajukan	-7224
▁pengobatan	-7225
▁menyelidiki	-7226
OS	-7227
:09	-7228
▁Os	-7229
ihal	-7230
ling	-7231
▁Lan	-7232
icial	-7233
otaan	-7234
▁Paul	-7235
▁agen	-7236
▁ayam	-7237
▁Halil	-7238
enomena	-7239
▁memakai	-7240
▁pemudik	-7241
iversitas	-7242
tek	-7243
Emil	-7244
▁Bor	-7245
▁Cek	-7246
▁Jab	-7247
▁Wat	-7248
▁Iptu	-7249
olakan	-7250
▁Ammar	-7251
▁Coach	-7252
▁bunuh	-7253
▁Deputi	-7254
untungkan	-7255
▁pemangku	-7256
▁perempat	-7257
▁menentang	-7258
▁pembatasan	-7259
:25	-7260
nai	-7261
▁or	-7262
ikul	-7263
trik	-7264
ujur	-7265
▁Ann	-7266
▁dep	-7267
▁2017	-7268
▁prom	-7269
▁Tugas	-7270
▁Waktu	-7271
alonkan	-7272
edulian	-7273
▁itulah	-7274
▁seluas	-7275
▁berlaga	-7276
▁Jayapura	-7277
▁Zelensky	-7278
▁partainya	-7279
▁pemulihan	-7280
▁Halilintar	-7281
▁kualifikasi	-7282
▁memfasilitasi	-7283
▁150	-7284
padai	-7285
uktur	-7286
▁Mark	-7287
▁Seni	-7288
▁Benny	-7289
▁Juara	-7290
edikasi	-7291
tifikat	-7292
▁penger	-7293
atangkan	-7294
▁kuliner	-7295
▁pensiun	-7296
▁belakangan	-7297
▁dievakuasi	-7298
▁sambungnya	-7299
▁menggandeng	-7300
'.	-7301
AC	-7302
:04	-7303
:37	-7304
dik	-7305
▁AT	-7306
▁Ko	-7307
ilat	-7308
▁Lum	-7309
▁Khan	-7310
ebarkan	-7311
▁Cabang	-7312
▁berkas	-7313
▁derajat	-7314
▁menemui	-7315
▁Kompleks	-7316
▁Pangarep	-7317
▁terdekat	-7318
▁Kristiyanto	-7319
LI	-7320
:59	-7321
rus	-7322
▁37	-7323
rana	-7324
▁Arg	-7325
emium	-7326
risti	-7327
wujud	-7328
▁Reza	-7329
▁medi	-7330
▁habis	-7331
alengka	-7332
▁Daftar	-7333
▁mengguyur	-7334
▁mencatatkan	-7335
oksi	-7336
▁Aku	-7337
▁Fre	-7338
▁KTT	-7339
aring	-7340
enial	-7341
▁Bahr	-7342
▁sela	-7343
usuhan	-7344
▁denda	-7345
▁kisah	-7346
olidasi	-7347
▁Inovasi	-7348
▁Pratama	-7349
▁kendala	-7350
▁perilaku	-7351
▁Bareskrim	-7352
▁pemahaman	-7353
▁pengacara	-7354
▁bermanfaat	-7355
▁mempengaruhi	-7356
:55	-7357
car	-7358
ody	-7359
spor	-7360
▁Let	-7361
▁Tul	-7362
ealth	-7363
inggo	-7364
▁Hani	-7365
▁Mall	-7366
UPATEN	-7367
▁Teuku	-7368
▁Willi	-7369
▁album	-7370
▁dewan	-7371
erlukan	-7372
▁perahu	-7373
▁sebaik	-7374
angkitan	-7375
eledahan	-7376
▁2024/202	-7377
▁KABUPATEN	-7378
▁Alhamdulillah	-7379
.4	-7380
PH	-7381
PL	-7382
nal	-7383
pes	-7384
andu	-7385
apas	-7386
lima	-7387
uban	-7388
▁bas	-7389
▁Kuta	-7390
▁Tech	-7391
▁Andre	-7392
intangi	-7393
Muhaimin	-7394
▁struktur	-7395
▁menguasai	-7396
▁Bhayangkara	-7397
▁mengonfirmasi	-7398
fri	-7399
omod	-7400
ayung	-7401
vitas	-7402
▁Asep	-7403
▁Gede	-7404
▁Mits	-7405
▁Putu	-7406
iarkan	-7407
▁Istim	-7408
▁Total	-7409
▁ganda	-7410
etujuan	-7411
▁Artinya	-7412
▁tawuran	-7413
▁WhatsApp	-7414
▁pengaruh	-7415
▁Reformasi	-7416
▁membatalkan	-7417
▁pertambangan	-7418
:08	-7419
Kor	-7420
inda	-7421
isar	-7422
ogle	-7423
▁Jemb	-7424
aptasi	-7425
▁pemak	-7426
asarnas	-7427
▁karier	-7428
▁bendera	-7429
▁nutrisi	-7430
▁terkini	-7431
▁umumnya	-7432
▁Perumahan	-7433
▁mengklaim	-7434
▁memerlukan	-7435
▁pemberantasan	-7436
BD	-7437
FI	-7438
SP	-7439
gen	-7440
igi	-7441
agar	-7442
▁Amb	-7443
▁Bima	-7444
▁Juta	-7445
▁Irwan	-7446
▁Kuasa	-7447
▁Masuk	-7448
▁Rutan	-7449
▁mikro	-7450
▁motif	-7451
ikopter	-7452
▁Batang	-7453
▁Thomas	-7454
▁Merdeka	-7455
▁pelamar	-7456
▁otomotif	-7457
▁terpisah	-7458
▁diperoleh	-7459
▁pelecehan	-7460
▁reformasi	-7461
▁memudahkan	-7462
pu	-7463
▁XX	-7464
Saat	-7465
essi	-7466
roho	-7467
▁NTT	-7468
▁Ver	-7469
▁anj	-7470
▁cel	-7471
minya	-7472
▁Zain	-7473
▁baku	-7474
▁puas	-7475
daftar	-7476
▁sawit	-7477
erdasan	-7478
▁mandiri	-7479
▁Business	-7480
▁berpikir	-7481
▁pengawas	-7482
▁prajurit	-7483
▁terancam	-7484
▁Pemenangan	-7485
▁dimanfaatkan	-7486
▁implementasi	-7487
TI	-7488
sy	-7489
alti	-7490
itif	-7491
rian	-7492
ture	-7493
umbu	-7494
ubsidi	-7495
▁buruh	-7496
Pilkada	-7497
intasan	-7498
▁Edward	-7499
▁kritis	-7500
enggalek	-7501
▁Distrik	-7502
/1/2024).	-7503
▁Pasuruan	-7504
▁Ternyata	-7505
▁memperhatikan	-7506
BB	-7507
DA	-7508
:34	-7509
:38	-7510
NAS	-7511
Dari	-7512
apur	-7513
meng	-7514
usul	-7515
▁Lee	-7516
onasi	-7517
resif	-7518
▁Manc	-7519
atuhan	-7520
malkan	-7521
▁Commun	-7522
arapidana	-7523
eberangan	-7524
▁Istimewa	-7525
aperadilan	-7526
▁mekanisme	-7527
:32	-7528
TARA	-7529
▁PMI	-7530
▁Uang	-7531
▁vaks	-7532
sekusi	-7533
▁Proyek	-7534
▁Tempat	-7535
▁direktur	-7536
▁tembakan	-7537
▁Kendaraan	-7538
▁ditangani	-7539
▁keagamaan	-7540
▁penutupan	-7541
:06	-7542
abe	-7543
▁PM	-7544
ambo	-7545
arja	-7546
olly	-7547
▁Jer	-7548
▁Kir	-7549
▁Red	-7550
▁kun	-7551
▁say	-7552
▁tuk	-7553
asari	-7554
iskin	-7555
ebunan	-7556
▁Udara	-7557
▁beber	-7558
▁betul	-7559
▁Basuki	-7560
▁konsul	-7561
untaskan	-7562
▁Santoso	-7563
▁banding	-7564
▁efisien	-7565
▁ruangan	-7566
residenan	-7567
▁Jembrana	-7568
▁otoritas	-7569
▁pinjaman	-7570
▁resminya	-7571
▁responden	-7572
▁berpendapat	-7573
▁menghubungi	-7574
▁silaturahmi	-7575
▁universitas	-7576
▁memperingati	-7577
▁Ec	-7578
roni	-7579
▁Biro	-7580
▁Form	-7581
▁psik	-7582
atinya	-7583
▁Inter	-7584
▁Risma	-7585
▁cerai	-7586
▁manis	-7587
▁modus	-7588
▁organ	-7589
▁kurban	-7590
▁memuji	-7591
▁ayahnya	-7592
▁mencuri	-7593
Indonesia	-7594
▁beasiswa	-7595
▁populasi	-7596
▁tepatnya	-7597
▁dirasakan	-7598
▁penahanan	-7599
▁perbankan	-7600
▁mengerahkan	-7601
/2)	-7602
:11	-7603
ich	-7604
esor	-7605
▁Fik	-7606
▁bom	-7607
▁Madi	-7608
▁Ratu	-7609
▁Sore	-7610
ention	-7611
▁caleg	-7612
▁panen	-7613
aftaran	-7614
▁Konser	-7615
▁apapun	-7616
▁enggan	-7617
bolinggo	-7618
▁menderita	-7619
▁pergerakan	-7620
Mer	-7621
▁Iz	-7622
▁Plt	-7623
▁Riv	-7624
▁pus	-7625
jukan	-7626
mawan	-7627
▁Buka	-7628
▁Char	-7629
▁Port	-7630
▁pasc	-7631
ikator	-7632
▁Teluk	-7633
uarakan	-7634
erdayaan	-7635
▁Nugroho	-7636
▁festival	-7637
▁properti	-7638
perusahaan	-7639
▁negaranya	-7640
▁Trenggalek	-7641
▁kepedulian	-7642
▁penambahan	-7643
▁membeberkan	-7644
▁menjatuhkan	-7645
:36	-7646
but	-7647
fan	-7648
▁Gh	-7649
▁Ty	-7650
▁te	-7651
ebak	-7652
▁Abd	-7653
▁BTN	-7654
kapai	-7655
ondon	-7656
▁Conv	-7657
▁Expo	-7658
▁John	-7659
▁Ulama	-7660
arankan	-7661
besaran	-7662
▁Achmad	-7663
▁Google	-7664
▁asuhan	-7665
▁berunt	-7666
▁dialog	-7667
▁disiapkan	-7668
▁kewajiban	-7669
▁rombongan	-7670
▁melahirkan	-7671
-8	-7672
sar	-7673
asif	-7674
▁Gil	-7675
▁Run	-7676
▁est	-7677
▁Ahli	-7678
▁Rudy	-7679
▁Teco	-7680
▁dingin	-7681
▁kedaul	-7682
▁kelima	-7683
▁rentan	-7684
▁Sumatra	-7685
▁Selebritas	-7686
▁kedaulatan	-7687
▁mengembalikan	-7688
Ch	-7689
amso	-7690
▁Cent	-7691
▁Heru	-7692
▁Ward	-7693
▁bang	-7694
ayoran	-7695
▁nyawa	-7696
▁Kamala	-7697
estarian	-7698
▁mengecek	-7699
▁tetangga	-7700
▁efisiensi	-7701
▁dijalankan	-7702
▁disebutkan	-7703
▁Probolinggo	-7704
▁pemberdayaan	-7705
-79	-7706
500	-7707
▁Gu	-7708
anam	-7709
uluk	-7710
▁196	-7711
naker	-7712
unian	-7713
▁alih	-7714
▁Darat	-7715
▁Ferry	-7716
▁Solid	-7717
narkoba	-7718
▁Brigjen	-7719
▁waspada	-7720
▁Terlebih	-7721
▁bertanya	-7722
▁Zelenskyy	-7723
▁demonstrasi	-7724
21	-7725
off	-7726
▁Mu	-7727
port	-7728
▁bib	-7729
linik	-7730
▁kerj	-7731
▁Sudir	-7732
▁Tanpa	-7733
▁kabur	-7734
▁siber	-7735
▁Seusai	-7736
▁markas	-7737
▁tulang	-7738
▁Cahyadi	-7739
▁mengecam	-7740
▁pengamat	-7741
▁menyetujui	-7742
▁pengumuman	-7743
▁Development	-7744
esm	-7745
set	-7746
▁Do	-7747
▁Cap	-7748
▁Jaz	-7749
▁Tra	-7750
▁keg	-7751
▁Elek	-7752
▁Plus	-7753
▁ruas	-7754
▁Franc	-7755
▁match	-7756
atistik	-7757
▁jarang	-7758
enangkan	-7759
▁menduga	-7760
▁Misalnya	-7761
▁membenarkan	-7762
▁menghabiskan	-7763
:53	-7764
LHK	-7765
Pro	-7766
atta	-7767
over	-7768
▁Chi	-7769
▁Jen	-7770
▁WNI	-7771
▁mor	-7772
▁rez	-7773
▁Shop	-7774
▁Tour	-7775
▁cita	-7776
yakini	-7777
▁2024:	-7778
▁bikin	-7779
▁Kampus	-7780
▁Madiun	-7781
▁berhak	-7782
▁sesama	-7783
▁lebaran	-7784
▁aparatur	-7785
▁ditujukan	-7786
▁pembinaan	-7787
▁bergantung	-7788
▁Lo	-7789
ongi	-7790
zuki	-7791
▁EUR	-7792
▁Lah	-7793
▁Luk	-7794
▁Ray	-7795
jawab	-7796
▁2016	-7797
▁kaum	-7798
▁berak	-7799
▁kepad	-7800
▁Dorong	-7801
▁Fatoni	-7802
▁London	-7803
timalkan	-7804
▁relawan	-7805
▁Penyidik	-7806
▁Pekerjaan	-7807
▁dikatakan	-7808
▁penyelesaian	-7809
▁Pemasyarakatan	-7810
isu	-7811
otol	-7812
▁Hij	-7813
▁Kod	-7814
pihak	-7815
▁Duta	-7816
▁Lagi	-7817
▁Ungg	-7818
ehabil	-7819
▁Arena	-7820
▁Green	-7821
▁cocok	-7822
▁emosi	-7823
▁setia	-7824
▁Sandra	-7825
ilateral	-7826
▁dalamnya	-7827
▁tegasnya	-7828
▁jabatannya	-7829
27	-7830
eld	-7831
tok	-7832
ZNAS	-7833
acana	-7834
aribu	-7835
ornia	-7836
otret	-7837
uriga	-7838
▁2018	-7839
▁Ketu	-7840
▁tend	-7841
▁Bobby	-7842
▁padat	-7843
masalah	-7844
▁Harvey	-7845
engarkan	-7846
undurkan	-7847
▁dituduh	-7848
▁sorotan	-7849
▁Mapolres	-7850
▁memegang	-7851
▁tertutup	-7852
▁mengizinkan	-7853
▁penyelundupan	-7854
▁mendeklarasikan	-7855
:48	-7856
hum	-7857
yaw	-7858
PPPK	-7859
avor	-7860
olong	-7861
▁Serv	-7862
▁daun	-7863
▁etik	-7864
▁Aktor	-7865
▁angkat	-7866
▁mengan	-7867
▁pendek	-7868
▁federal	-7869
alifornia	-7870
▁cawapres	-7871
aksimalkan	-7872
▁pendanaan	-7873
▁terangnya	-7874
▁diplomatik	-7875
▁ketertiban	-7876
yl	-7877
:47	-7878
Ter	-7879
▁3.	-7880
▁ex	-7881
▁la	-7882
EMBANG	-7883
entina	-7884
ontalo	-7885
▁Cagub	-7886
▁Ricis	-7887
▁deras	-7888
▁hamil	-7889
▁macam	-7890
▁nasib	-7891
elajari	-7892
▁Kereta	-7893
▁Putusan	-7894
▁kekasih	-7895
▁Pasaribu	-7896
▁Pramella	-7897
/12/2024).	-7898
▁Pesantren	-7899
▁destinasi	-7900
▁komersial	-7901
▁pembahasan	-7902
ipa	-7903
edah	-7904
emik	-7905
epsi	-7906
sesi	-7907
▁CSR	-7908
▁Pop	-7909
▁jer	-7910
jamin	-7911
▁EURO	-7912
▁Noor	-7913
uksesan	-7914
unduran	-7915
▁Gratis	-7916
▁Wibowo	-7917
▁berter	-7918
▁invasi	-7919
▁tempur	-7920
▁liburan	-7921
▁Termasuk	-7922
▁Komunitas	-7923
ehabilitasi	-7924
▁mendirikan	-7925
▁perlawanan	-7926
▁memperjuangkan	-7927
IIAS	-7928
ning	-7929
osis	-7930
▁Jas	-7931
▁Reg	-7932
ative	-7933
okter	-7934
trans	-7935
abetes	-7936
ingkus	-7937
ologis	-7938
▁seder	-7939
▁Budaya	-7940
▁berkuasa	-7941
▁komponen	-7942
▁pembalap	-7943
▁Gorontalo	-7944
▁California	-7945
▁diterbitkan	-7946
14	-7947
US	-7948
mel	-7949
luka	-7950
▁Fac	-7951
▁boc	-7952
▁rum	-7953
adium	-7954
▁land	-7955
gagung	-7956
▁Yasin	-7957
▁Kemenag	-7958
▁Teheran	-7959
/9/2024).	-7960
▁undangan	-7961
▁Mojokerto	-7962
▁PALEMBANG	-7963
▁President	-7964
▁pangkalan	-7965
▁terkemuka	-7966
▁dibebaskan	-7967
▁mencalonkan	-7968
▁pemanfaatan	-7969
oj	-7970
:21	-7971
RWA	-7972
ome	-7973
▁EV	-7974
▁IS	-7975
urna	-7976
▁250	-7977
ariat	-7978
ehold	-7979
▁Kang	-7980
▁PBNU	-7981
▁Sari	-7982
▁Tito	-7983
▁lari	-7984
inting	-7985
▁Karim	-7986
▁Siapa	-7987
▁Tetap	-7988
▁Yaman	-7989
engahan	-7990
epankan	-7991
eringan	-7992
▁Kejati	-7993
▁Menang	-7994
eriahkan	-7995
▁dipakai	-7996
▁memaksa	-7997
▁tersisa	-7998
▁pembelajaran	-7999
BL	-8000
BRI	-8001
Kep	-8002
idi	-8003
▁ES	-8004
Yang	-8005
tiar	-8006
▁Jos	-8007
ampau	-8008
▁Best	-8009
▁kant	-8010
▁otak	-8011
astian	-8012
▁Damai	-8013
▁lipat	-8014
▁pasca	-8015
onologi	-8016
▁banten	-8017
▁peduli	-8018
▁sambung	-8019
▁material	-8020
▁utamanya	-8021
▁kemitraan	-8022
ein	-8023
vok	-8024
▁Ry	-8025
▁Hen	-8026
▁Tom	-8027
▁Won	-8028
▁etn	-8029
▁Menc	-8030
▁Semb	-8031
intasi	-8032
utanan	-8033
▁Ponor	-8034
▁Ruben	-8035
▁pencab	-8036
▁terasa	-8037
cawapres	-8038
ungagung	-8039
▁Maulana	-8040
▁dakwaan	-8041
▁ketingg	-8042
/8/2024).	-8043
/10/2024).	-8044
▁membatasi	-8045
▁terdaftar	-8046
BN	-8047
IK	-8048
:49	-8049
eis	-8050
▁Ba	-8051
ardo	-8052
awar	-8053
▁Col	-8054
▁fin	-8055
Polri	-8056
posal	-8057
▁upah	-8058
Jateng	-8059
ladesh	-8060
uluhan	-8061
▁Denny	-8062
▁Pener	-8063
▁Tangg	-8064
▁Bahrain	-8065
▁stadion	-8066
▁Ponorogo	-8067
▁intensif	-8068
▁mengutip	-8069
▁Komisaris	-8070
▁berlokasi	-8071
▁Pendaftaran	-8072
80	-8073
:14	-8074
▁by	-8075
ekam	-8076
▁Tam	-8077
▁Cara	-8078
▁pred	-8079
amsoet	-8080
ejarah	-8081
▁Bagus	-8082
▁mahal	-8083
▁timah	-8084
▁Wijaya	-8085
▁banget	-8086
▁hangat	-8087
▁konteks	-8088
▁Terminal	-8089
▁ditembak	-8090
▁diyakini	-8091
▁Marketing	-8092
▁berfungsi	-8093
▁memaparkan	-8094
▁meresmikan	-8095
▁terjangkau	-8096
dit	-8097
eku	-8098
▁Tau	-8099
ancur	-8100
edang	-8101
▁21-1	-8102
▁Fais	-8103
▁ISIS	-8104
▁Simp	-8105
▁game	-8106
▁wadah	-8107
akehold	-8108
▁disita	-8109
ersediaan	-8110
▁Penyakit	-8111
▁analisis	-8112
▁banyaknya	-8113
▁Bangladesh	-8114
▁berlebihan	-8115
▁kecerdasan	-8116
▁Tulungagung	-8117
▁tertulisnya	-8118
:13	-8119
bek	-8120
las	-8121
▁Fl	-8122
udit	-8123
▁Bro	-8124
▁Sug	-8125
ition	-8126
▁Laks	-8127
acetan	-8128
anaman	-8129
arinda	-8130
indung	-8131
▁etika	-8132
Setelah	-8133
ambilan	-8134
unungan	-8135
▁Andrew	-8136
▁Bangka	-8137
▁Nyoman	-8138
▁Wapres	-8139
▁artinya	-8140
▁tembakau	-8141
▁penghasil	-8142
ED	-8143
YL	-8144
reh	-8145
▁Jun	-8146
▁tas	-8147
awali	-8148
awagub	-8149
▁ambil	-8150
▁bapak	-8151
akinkan	-8152
ancaran	-8153
ikirkan	-8154
▁Kejari	-8155
▁kontak	-8156
▁Makanan	-8157
▁menimpa	-8158
▁rahasia	-8159
▁simulasi	-8160
▁Bangkalan	-8161
▁bersamaan	-8162
▁Koordinasi	-8163
▁narapidana	-8164
▁pertamanya	-8165
ahe	-8166
▁Xi	-8167
▁co	-8168
▁ho	-8169
adha	-8170
pert	-8171
tice	-8172
▁Das	-8173
▁Val	-8174
▁sir	-8175
umput	-8176
▁Lemb	-8177
▁Tamb	-8178
▁besi	-8179
▁kaca	-8180
▁Banda	-8181
▁Dapat	-8182
▁Debat	-8183
▁Jawab	-8184
▁Pecco	-8185
▁paksa	-8186
▁Kompet	-8187
▁canggih	-8188
▁Benjamin	-8189
▁Samarinda	-8190
▁menaikkan	-8191
▁Dokumentasi	-8192
▁mempertanyakan	-8193
:27	-8194
:52	-8195
Itu	-8196
Peng	-8197
arak	-8198
▁LPG	-8199
▁Luh	-8200
▁Yos	-8201
▁gej	-8202
ahari	-8203
bondo	-8204
ehkan	-8205
▁Pajak	-8206
▁diber	-8207
▁ditaw	-8208
gagalan	-8209
▁detail	-8210
▁kajian	-8211
▁sapaan	-8212
atifikasi	-8213
▁Kuningan	-8214
▁menyebar	-8215
▁pemadaman	-8216
▁mengejutkan	-8217
▁sambutannya	-8218
:22	-8219
Pel	-8220
pam	-8221
▁55	-8222
angd	-8223
enep	-8224
ping	-8225
▁Fah	-8226
▁duka	-8227
eransi	-8228
ubishi	-8229
▁Angel	-8230
▁Apple	-8231
▁Mengg	-8232
▁Semoga	-8233
▁kamera	-8234
evaluasi	-8235
imigrasi	-8236
▁panitia	-8237
▁pendiri	-8238
▁Menengah	-8239
▁Sekarang	-8240
▁mendalami	-8241
▁mengakses	-8242
▁Bojonegoro	-8243
ser	-8244
ario	-8245
apati	-8246
ucing	-8247
▁Ivan	-8248
▁Kata	-8249
▁Susi	-8250
▁Antam	-8251
▁Ramad	-8252
▁pungk	-8253
atorium	-8254
injauan	-8255
▁diraih	-8256
▁capaian	-8257
▁melepas	-8258
▁Berbagai	-8259
▁menempati	-8260
▁Majalengka	-8261
▁penyaluran	-8262
▁rencananya	-8263
▁berkampanye	-8264
▁menerbitkan	-8265
▁pengungkapan	-8266
:16	-8267
:57	-8268
luk	-8269
zil	-8270
▁IN	-8271
▁RK	-8272
▁Gag	-8273
▁PON	-8274
Mereka	-8275
▁Agust	-8276
▁Suami	-8277
oblosan	-8278
▁SERANG	-8279
▁seraya	-8280
ersihkan	-8281
▁Sudjana	-8282
▁Sumenep	-8283
rakirakan	-8284
▁Jembatan	-8285
▁persatuan	-8286
▁Convention	-8287
▁netralitas	-8288
▁Penyelenggara	-8289
:43	-8290
Kej	-8291
dip	-8292
▁Hi	-8293
Pada	-8294
ashi	-8295
enta	-8296
▁pra	-8297
anduk	-8298
▁Dito	-8299
▁suci	-8300
embira	-8301
▁Online	-8302
▁meluas	-8303
▁Mulyadi	-8304
▁Selamat	-8305
▁angkutan	-8306
▁politisi	-8307
▁Kolaborasi	-8308
▁pengangkatan	-8309
▁berkomunikasi	-8310
▁menguntungkan	-8311
:26	-8312
elus	-8313
ovid	-8314
riah	-8315
ulia	-8316
▁Lim	-8317
▁bak	-8318
▁hor	-8319
umrah	-8320
untuk	-8321
waktu	-8322
▁Tepi	-8323
▁asam	-8324
▁Bella	-8325
▁Pesan	-8326
▁Dugaan	-8327
▁Dirinya	-8328
▁Stadium	-8329
▁masukan	-8330
▁Situbondo	-8331
▁pengecekan	-8332
▁pertengahan	-8333
:28	-8334
aro	-8335
ebo	-8336
▁UI	-8337
▁pi	-8338
oter	-8339
▁Alf	-8340
istyo	-8341
itual	-8342
▁Kyiv	-8343
▁Lagu	-8344
▁Yudh	-8345
▁diam	-8346
▁temp	-8347
agnaia	-8348
ilikan	-8349
▁Lebak	-8350
▁cinta	-8351
▁Bandar	-8352
▁Sampai	-8353
▁otomat	-8354
▁Serdang	-8355
▁mempers	-8356
▁penalti	-8357
▁penemuan	-8358
optimalkan	-8359
▁Argentina	-8360
▁kelaparan	-8361
▁melepaskan	-8362
▁penggeledahan	-8363
gn	-8364
▁RW	-8365
Jika	-8366
agen	-8367
ters	-8368
▁1,5	-8369
▁cer	-8370
▁rev	-8371
▁APBN	-8372
adiran	-8373
▁edisi	-8374
▁objek	-8375
▁membah	-8376
▁Bamsoet	-8377
▁Peserta	-8378
▁Tingkat	-8379
▁Gabungan	-8380
▁Kejagung	-8381
▁Personel	-8382
▁Prasetyo	-8383
▁menantang	-8384
▁Kemendagri	-8385
▁Peringatan	-8386
▁Sukarelawan	-8387
18	-8388
Sus	-8389
akui	-8390
rint	-8391
▁TPP	-8392
▁aut	-8393
▁vol	-8394
phone	-8395
yeksi	-8396
▁Insp	-8397
▁visa	-8398
▁Dusun	-8399
▁Moeis	-8400
▁Tegal	-8401
▁diisi	-8402
▁kebun	-8403
▁pilot	-8404
empurna	-8405
mudahan	-8406
▁Aditya	-8407
▁Gereja	-8408
▁Transp	-8409
▁gereja	-8410
▁harian	-8411
▁mengal	-8412
▁delegasi	-8413
▁akademisi	-8414
▁Mitsubishi	-8415
▁bertepatan	-8416
▁dikonsumsi	-8417
▁kelancaran	-8418
▁selebritas	-8419
▁diselesaikan	-8420
▁mengundurkan	-8421
▁praperadilan	-8422
:24	-8423
evan	-8424
sela	-8425
amaha	-8426
inisi	-8427
▁Baim	-8428
▁Berm	-8429
inergi	-8430
▁Water	-8431
▁Daniel	-8432
engkapan	-8433
▁dikenakan	-8434
▁percepatan	-8435
▁pertunjukan	-8436
▁menghilangkan	-8437
JPNN	-8438
awak	-8439
dani	-8440
▁Ons	-8441
▁Mbak	-8442
▁tiap	-8443
angdut	-8444
▁Simak	-8445
▁badai	-8446
▁taktik	-8447
▁ucapan	-8448
▁warung	-8449
rehensif	-8450
▁Bagnaia	-8451
▁Tabanan	-8452
▁bahagia	-8453
▁Otoritas	-8454
▁permukaan	-8455
▁kecantikan	-8456
▁pemenangan	-8457
▁investigasi	-8458
▁keterampilan	-8459
▁ketersediaan	-8460
YD	-8461
:58	-8462
eur	-8463
rul	-8464
yim	-8465
ergy	-8466
▁400	-8467
▁Kub	-8468
▁kode	-8469
▁Sudar	-8470
▁lingk	-8471
ebutkan	-8472
▁Diduga	-8473
▁Yamaha	-8474
▁hunian	-8475
▁Christi	-8476
▁kantong	-8477
▁menjamu	-8478
▁Polandia	-8479
▁berjumlah	-8480
▁mengkritik	-8481
▁persetujuan	-8482
▁dikembangkan	-8483
Is	-8484
UL	-8485
▁#	-8486
ecat	-8487
elat	-8488
ical	-8489
▁Edi	-8490
▁Fed	-8491
▁Ses	-8492
sentif	-8493
▁jasad	-8494
▁kadar	-8495
▁pleno	-8496
▁ramai	-8497
tainment	-8498
▁Panitia	-8499
▁Syariah	-8500
▁berlatih	-8501
▁menembus	-8502
▁melengkapi	-8503
▁menyuarakan	-8504
▁sertifikasi	-8505
▁perpanjangan	-8506
lek	-8507
osp	-8508
own	-8509
gawi	-8510
ambar	-8511
▁elit	-8512
▁Depan	-8513
▁unjuk	-8514
▁Arifin	-8515
▁revisi	-8516
▁Manahan	-8517
▁kendali	-8518
▁mengenal	-8519
▁berterima	-8520
▁penolakan	-8521
▁berkendara	-8522
▁menerangkan	-8523
▁menjanjikan	-8524
35	-8525
BA	-8526
KT	-8527
:51	-8528
akh	-8529
asm	-8530
ild	-8531
oth	-8532
▁6,	-8533
▁but	-8534
▁gem	-8535
argai	-8536
erdas	-8537
ustom	-8538
wanto	-8539
▁Show	-8540
esmian	-8541
irahat	-8542
▁Dapil	-8543
▁Sumar	-8544
▁dapur	-8545
▁halal	-8546
impunan	-8547
▁Dharma	-8548
▁Miliar	-8549
▁bansos	-8550
angguran	-8551
▁Raharja	-8552
▁Sahroni	-8553
▁aliansi	-8554
▁bertema	-8555
▁bioskop	-8556
▁Basarnas	-8557
▁Institut	-8558
▁ditambah	-8559
▁inklusif	-8560
▁memasang	-8561
▁menempuh	-8562
▁mengejar	-8563
▁restoran	-8564
imigrasian	-8565
▁mematikan	-8566
▁pengurangan	-8567
IV	-8568
:54	-8569
IKN	-8570
ica	-8571
sun	-8572
adin	-8573
▁Jus	-8574
▁SPB	-8575
lakan	-8576
▁Life	-8577
▁Pari	-8578
▁erat	-8579
ajakan	-8580
eraian	-8581
vokasi	-8582
▁Covid	-8583
▁Malik	-8584
▁UNRWA	-8585
▁melem	-8586
▁memul	-8587
▁saing	-8588
okteran	-8589
▁sebaga	-8590
▁Masalah	-8591
▁Pasifik	-8592
▁Persita	-8593
▁kontrov	-8594
▁penyimp	-8595
▁promosi	-8596
▁dibentuk	-8597
▁hukumnya	-8598
▁imigrasi	-8599
▁menyasar	-8600
▁jumlahnya	-8601
▁tingginya	-8602
CO	-8603
DS	-8604
tug	-8605
▁Es	-8606
▁Ted	-8607
▁Eman	-8608
aksasa	-8609
▁dikar	-8610
▁segar	-8611
epakati	-8612
▁Begitu	-8613
▁Seleksi	-8614
▁Terbaru	-8615
▁eksekutif	-8616
▁ditentukan	-8617
▁klarifikasi	-8618
DC	-8619
pr	-8620
eet	-8621
iru	-8622
onc	-8623
bang	-8624
edua	-8625
▁DPW	-8626
▁Lab	-8627
▁THR	-8628
Dalam	-8629
engsi	-8630
oakan	-8631
▁Fest	-8632
▁Mach	-8633
ulukan	-8634
▁Ketut	-8635
▁etnis	-8636
▁minat	-8637
▁Sejauh	-8638
▁gunung	-8639
▁kripto	-8640
▁Ginting	-8641
▁Pemilih	-8642
▁insentif	-8643
▁menampung	-8644
▁helikopter	-8645
▁melakukannya	-8646
▁produktivitas	-8647
fak	-8648
▁BM	-8649
▁IM	-8650
mark	-8651
▁Ars	-8652
▁Bos	-8653
▁MAL	-8654
▁Rem	-8655
manto	-8656
▁Anti	-8657
alasan	-8658
landia	-8659
▁Boyol	-8660
▁Final	-8661
▁Nilai	-8662
▁Hasyim	-8663
▁artikel	-8664
▁tangkis	-8665
▁Iduladha	-8666
▁Pelatihan	-8667
▁melintasi	-8668
▁digitalisasi	-8669
-16	-8670
:19	-8671
III	-8672
igh	-8673
ley	-8674
▁Nu	-8675
atal	-8676
imir	-8677
▁Eka	-8678
▁SIM	-8679
jalan	-8680
▁Onsu	-8681
▁suap	-8682
▁voli	-8683
olding	-8684
▁diklaim	-8685
/5/2024).	-8686
▁Akhirnya	-8687
▁bertekad	-8688
▁fenomena	-8689
▁menduduki	-8690
▁Konferensi	-8691
▁komprehensif	-8692
:18	-8693
igur	-8694
▁Bab	-8695
▁Gam	-8696
▁Rac	-8697
▁Sad	-8698
antar	-8699
eroan	-8700
▁Kiai	-8701
▁Wahy	-8702
▁Silva	-8703
▁ibunya	-8704
▁melukai	-8705
▁Lumajang	-8706
▁perasaan	-8707
▁Ditangkap	-8708
▁membebaskan	-8709
▁pengambilan	-8710
:42	-8711
:44	-8712
day	-8713
hon	-8714
ruf	-8715
▁Et	-8716
▁Zh	-8717
egon	-8718
ject	-8719
orsi	-8720
▁Haf	-8721
▁Lem	-8722
ajaan	-8723
artal	-8724
tarik	-8725
ucian	-8726
▁Comp	-8727
▁Siak	-8728
▁biru	-8729
▁port	-8730
ampang	-8731
eaming	-8732
radara	-8733
ugerah	-8734
▁Jalak	-8735
▁Saleh	-8736
▁botol	-8737
▁vonis	-8738
estinya	-8739
▁kenapa	-8740
▁mengut	-8741
aftarkan	-8742
kelompok	-8743
▁merawat	-8744
▁National	-8745
▁bersikap	-8746
▁Solidaritas	-8747
▁mendengarkan	-8748
▁pendampingan	-8749
▁mengedepankan	-8750
-9	-8751
lic	-8752
sit	-8753
▁kg	-8754
auan	-8755
ebas	-8756
▁AHY	-8757
▁deb	-8758
▁jet	-8759
egram	-8760
▁Ayah	-8761
▁Mars	-8762
▁2021.	-8763
▁Tuhan	-8764
▁basis	-8765
▁telak	-8766
turunan	-8767
usnahan	-8768
▁Kepada	-8769
entangan	-8770
▁Logistik	-8771
▁terwujud	-8772
▁Satreskrim	-8773
▁meyakinkan	-8774
▁penyediaan	-8775
▁pendukungnya	-8776
11	-8777
??	-8778
:23	-8779
:39	-8780
:41	-8781
eru	-8782
erly	-8783
mail	-8784
pool	-8785
▁KPP	-8786
▁Lam	-8787
▁Tem	-8788
▁cek	-8789
lokir	-8790
ujian	-8791
▁Ayat	-8792
▁Fair	-8793
▁Kand	-8794
▁Perg	-8795
▁Vlad	-8796
▁opsi	-8797
ampaui	-8798
amerkan	-8799
anaknya	-8800
ayangan	-8801
▁Inform	-8802
▁amanah	-8803
▁kecewa	-8804
▁satuan	-8805
▁padahal	-8806
▁Komandan	-8807
▁kemacetan	-8808
▁ditawarkan	-8809
▁kesuksesan	-8810
▁Administrasi	-8811
▁penandatanganan	-8812
%,	-8813
isit	-8814
sius	-8815
ufak	-8816
▁Assoc	-8817
▁Buruh	-8818
▁tanya	-8819
▁Antoni	-8820
▁membaca	-8821
▁premium	-8822
▁cadangan	-8823
▁diabetes	-8824
▁dinamika	-8825
▁otomatis	-8826
▁penyedia	-8827
▁proposal	-8828
▁didirikan	-8829
▁perumahan	-8830
▁Tingkatkan	-8831
▁pemantauan	-8832
tic	-8833
adel	-8834
azar	-8835
lang	-8836
orge	-8837
▁Pek	-8838
erbang	-8839
▁Dasar	-8840
▁Tessa	-8841
▁hilir	-8842
▁promo	-8843
ufaktur	-8844
▁Health	-8845
▁begini	-8846
▁keterb	-8847
▁Harupat	-8848
▁Hijriah	-8849
▁dibantu	-8850
▁koleksi	-8851
/6/2024).	-8852
▁Boyolali	-8853
▁Hasilnya	-8854
▁Nasution	-8855
▁berisiko	-8856
▁kekeringan	-8857
▁mengunggah	-8858
▁komitmennya	-8859
▁mengendalikan	-8860
70	-8861
AW	-8862
:46	-8863
Sum	-8864
eck	-8865
jan	-8866
▁GI	-8867
▁Mi	-8868
hika	-8869
imob	-8870
ongg	-8871
▁Gat	-8872
▁Duel	-8873
avorit	-8874
enaran	-8875
▁Kurni	-8876
▁Timor	-8877
▁intim	-8878
▁rezim	-8879
▁salat	-8880
▁Satria	-8881
▁Target	-8882
▁volume	-8883
▁Vladimir	-8884
▁stakehold	-8885
▁disediakan	-8886
▁sertifikat	-8887
JK	-8888
KAN	-8889
dam	-8890
oha	-8891
tip	-8892
vel	-8893
▁Wi	-8894
enam	-8895
hard	-8896
▁Bra	-8897
▁Est	-8898
▁KKB	-8899
▁pec	-8900
▁ref	-8901
ormat	-8902
▁Elec	-8903
▁gigi	-8904
▁seng	-8905
▁Astra	-8906
▁Ngawi	-8907
▁Rizal	-8908
arganet	-8909
olehkan	-8910
olongan	-8911
▁Portug	-8912
▁muslim	-8913
▁petern	-8914
eskalasi	-8915
unjangan	-8916
▁Mungkin	-8917
▁Senjata	-8918
▁asuhnya	-8919
▁diakses	-8920
▁Panglima	-8921
▁didorong	-8922
▁maskapai	-8923
▁petahana	-8924
▁Kunjungan	-8925
▁eksklusif	-8926
▁Pengawasan	-8927
anggungjawab	-8928
▁mengantongi	-8929
▁menyinggung	-8930
▁direncanakan	-8931
jb	-8932
lak	-8933
uko	-8934
▁DC	-8935
▁MS	-8936
izen	-8937
▁Gas	-8938
▁tek	-8939
ayasa	-8940
omasi	-8941
▁2015	-8942
▁Nahd	-8943
▁lomba	-8944
▁tunai	-8945
▁umrah	-8946
▁wajar	-8947
ication	-8948
▁BAZNAS	-8949
▁Swedia	-8950
▁bergulir	-8951
▁bertahap	-8952
▁resolusi	-8953
▁disetujui	-8954
▁Foundation	-8955
▁mempelajari	-8956
▁menggagalkan	-8957
▁penyeberangan	-8958
3)	-8959
RE	-8960
▁/	-8961
mem	-8962
▁isi	-8963
asiat	-8964
wansa	-8965
aining	-8966
▁Mabes	-8967
▁Mulia	-8968
alihkan	-8969
esuaian	-8970
▁miskin	-8971
▁Terbaik	-8972
▁berpeng	-8973
▁jawaban	-8974
▁relevan	-8975
eliharaan	-8976
▁Jaringan	-8977
▁motivasi	-8978
▁berkurang	-8979
▁produktif	-8980
▁spesialis	-8981
▁Ditreskrim	-8982
▁Menanggapi	-8983
▁Pembunuhan	-8984
▁Peningkatan	-8985
▁dideportasi	-8986
KU	-8987
RO	-8988
ins	-8989
▁To	-8990
icer	-8991
▁GOR	-8992
▁Rec	-8993
▁sif	-8994
ampur	-8995
entuh	-8996
oreng	-8997
▁APBD	-8998
▁blok	-8999
antoro	-9000
▁Amran	-9001
▁kimia	-9002
▁kiper	-9003
▁perut	-9004
▁seper	-9005
▁Listyo	-9006
▁hancur	-9007
ubungkan	-9008
▁Manfaat	-9009
▁menelan	-9010
▁persnya	-9011
▁dimintai	-9012
▁milenial	-9013
▁terpidana	-9014
▁Management	-9015
▁menyeluruh	-9016
▁Pengelolaan	-9017
▁konsolidasi	-9018
▁Pertandingan	-9019
ikh	-9020
nak	-9021
▁Gl	-9022
bert	-9023
▁Gug	-9024
esuai	-9025
inton	-9026
ology	-9027
ormas	-9028
osari	-9029
▁apel	-9030
▁niat	-9031
esahan	-9032
ungkus	-9033
▁zaman	-9034
hadapan	-9035
omodasi	-9036
yangkan	-9037
ublikasi	-9038
▁bersatu	-9039
angkatkan	-9040
▁Sumedang	-9041
▁kliennya	-9042
▁penyanyi	-9043
▁tertarik	-9044
arganegara	-9045
▁sederhana	-9046
▁membongkar	-9047
▁mendaftarkan	-9048
yn	-9049
iko	-9050
iku	-9051
nur	-9052
▁39	-9053
▁Non	-9054
▁Rad	-9055
▁sih	-9056
▁Naik	-9057
ashion	-9058
▁Inilah	-9059
▁Subang	-9060
▁kelapa	-9061
rioritas	-9062
▁Federal	-9063
▁Tentara	-9064
▁memperb	-9065
▁beragama	-9066
▁berharga	-9067
▁dipenuhi	-9068
▁membakar	-9069
▁pemegang	-9070
▁mendekati	-9071
▁pengganti	-9072
▁bersejarah	-9073
▁sebagainya	-9074
▁wilayahnya	-9075
▁ditingkatkan	-9076
▁membersihkan	-9077
▁terintegrasi	-9078
,4	-9079
pi	-9080
Sat	-9081
▁BI	-9082
▁DJ	-9083
▁PG	-9084
▁Ary	-9085
▁Dom	-9086
▁Ras	-9087
▁Rel	-9088
▁mit	-9089
engku	-9090
erbal	-9091
ering	-9092
ingle	-9093
oyono	-9094
rihat	-9095
▁Perc	-9096
▁Week	-9097
▁dius	-9098
ektual	-9099
▁Ingin	-9100
▁Kulon	-9101
▁Tentu	-9102
▁masif	-9103
▁pecah	-9104
▁taman	-9105
Bawaslu	-9106
endarai	-9107
▁teknik	-9108
▁urutan	-9109
▁Pesawat	-9110
▁keturunan	-9111
▁memasukkan	-9112
▁tersendiri	-9113
▁diberlakukan	-9114
▁membahayakan	-9115
rd	-9116
TPS	-9117
ics	-9118
nav	-9119
rin	-9120
▁Om	-9121
▁Bil	-9122
awaran	-9123
celona	-9124
▁Chief	-9125
▁Indar	-9126
▁Press	-9127
▁kawan	-9128
▁lampu	-9129
▁mirip	-9130
▁paham	-9131
▁virus	-9132
▁Secret	-9133
▁diperb	-9134
▁rantai	-9135
icarakan	-9136
▁Hartono	-9137
▁Kreatif	-9138
▁penulis	-9139
▁Strategi	-9140
▁ditindak	-9141
▁mengusut	-9142
▁sekelompok	-9143
▁keberangkatan	-9144
SK	-9145
iro	-9146
oka	-9147
egat	-9148
luan	-9149
ohol	-9150
▁Ret	-9151
▁lan	-9152
asama	-9153
▁Asal	-9154
▁Heri	-9155
▁Live	-9156
ebutan	-9157
hester	-9158
▁Irish	-9159
▁Sekda	-9160
▁benda	-9161
▁Segera	-9162
▁diakui	-9163
▁menyes	-9164
▁Aliansi	-9165
▁Cilegon	-9166
▁dibahas	-9167
▁maritim	-9168
▁bernomor	-9169
▁keperluan	-9170
▁melampaui	-9171
▁menghapus	-9172
▁kepemilikan	-9173
enz	-9174
jat	-9175
ova	-9176
▁42	-9177
▁Uz	-9178
aget	-9179
▁Cit	-9180
▁Dih	-9181
▁Kak	-9182
▁term	-9183
alenta	-9184
erpool	-9185
▁Atlet	-9186
▁Citra	-9187
▁Perlu	-9188
▁moral	-9189
▁armada	-9190
▁gender	-9191
▁segmen	-9192
sistensi	-9193
▁Stefano	-9194
▁warisan	-9195
▁Kejadian	-9196
▁Komitmen	-9197
▁Penyebab	-9198
▁mendadak	-9199
▁mendarat	-9200
▁menonton	-9201
▁menyebarkan	-9202
▁pemberontak	-9203
36	-9204
dem	-9205
for	-9206
ght	-9207
top	-9208
ange	-9209
muji	-9210
ohan	-9211
▁bjb	-9212
▁Lama	-9213
▁Mich	-9214
▁Samb	-9215
▁ekor	-9216
▁send	-9217
aspora	-9218
▁Ameri	-9219
▁Andri	-9220
▁Rober	-9221
▁Swiss	-9222
▁hebat	-9223
▁berkes	-9224
▁Purnama	-9225
▁satelit	-9226
▁berujung	-9227
▁diunggah	-9228
▁mematuhi	-9229
▁Barcelona	-9230
▁Kehadiran	-9231
▁Parawansa	-9232
▁Yudhoyono	-9233
▁bergengsi	-9234
▁dibintangi	-9235
▁intervensi	-9236
▁membuatnya	-9237
▁memberantas	-9238
eki	-9239
▁PH	-9240
anty	-9241
eing	-9242
ibah	-9243
earch	-9244
emani	-9245
rekan	-9246
▁DKPP	-9247
▁kubu	-9248
urance	-9249
▁Sudan	-9250
▁almar	-9251
▁jumpa	-9252
▁papar	-9253
▁roket	-9254
yakinan	-9255
▁Cimahi	-9256
▁Energy	-9257
▁Social	-9258
▁alumni	-9259
▁General	-9260
▁balasan	-9261
▁dicetak	-9262
▁tumbang	-9263
▁Kemnaker	-9264
▁Birokrasi	-9265
▁pengunjuk	-9266
▁memengaruhi	-9267
▁mengoptimalkan	-9268
PSI	-9269
chi	-9270
omi	-9271
▁My	-9272
▁du	-9273
aras	-9274
shop	-9275
▁Baj	-9276
▁Ren	-9277
▁dif	-9278
kapal	-9279
▁Mift	-9280
▁hand	-9281
ANTARA	-9282
opuler	-9283
otanya	-9284
▁2021,	-9285
▁Anung	-9286
▁Bukit	-9287
▁Idris	-9288
▁Jorge	-9289
▁Seksi	-9290
▁horor	-9291
▁menak	-9292
▁panel	-9293
▁turis	-9294
owongan	-9295
▁Ditjen	-9296
▁Florida	-9297
/4/2024).	-9298
▁2024-2029	-9299
▁Meninggal	-9300
▁penyerang	-9301
▁dihadirkan	-9302
▁berpengaruh	-9303
75	-9304
bas	-9305
▁MU	-9306
atau	-9307
ekos	-9308
▁Hus	-9309
afili	-9310
ammed	-9311
ebihi	-9312
purna	-9313
▁Bern	-9314
▁ekst	-9315
enuhan	-9316
▁Saksi	-9317
▁krusi	-9318
▁musuh	-9319
onjakan	-9320
▁merata	-9321
ativitas	-9322
ayangnya	-9323
▁dilanda	-9324
▁rekening	-9325
▁Liverpool	-9326
▁Sejahtera	-9327
▁Manchester	-9328
▁dihentikan	-9329
▁kebanyakan	-9330
istribusikan	-9331
▁ditandatangani	-9332
EI	-9333
Mel	-9334
▁Mc	-9335
kuit	-9336
▁Ita	-9337
▁Tah	-9338
▁Vic	-9339
▁XXI	-9340
▁vis	-9341
▁Indo	-9342
ancang	-9343
ejuang	-9344
enteng	-9345
lorasi	-9346
obosan	-9347
oharjo	-9348
rutmen	-9349
▁Makin	-9350
▁Techn	-9351
▁Unair	-9352
▁Yahya	-9353
▁butir	-9354
▁rilis	-9355
▁Peduli	-9356
▁Putera	-9357
▁Sukses	-9358
▁Wuling	-9359
▁bareng	-9360
▁kering	-9361
▁ukuran	-9362
▁Georgia	-9363
▁Melihat	-9364
▁berhati	-9365
▁kecuali	-9366
▁seberat	-9367
▁hidupnya	-9368
▁diproduksi	-9369
arganegaraan	-9370
,8	-9371
gan	-9372
cita	-9373
enai	-9374
ukam	-9375
▁End	-9376
▁Nun	-9377
▁Toy	-9378
▁jat	-9379
▁nir	-9380
andri	-9381
▁Aziz	-9382
▁PSIM	-9383
▁muka	-9384
alanya	-9385
iasaan	-9386
▁Terus	-9387
▁absen	-9388
▁papan	-9389
▁ulama	-9390
▁Brimob	-9391
▁Ismail	-9392
▁Miftah	-9393
▁rumput	-9394
▁Officer	-9395
▁dibunuh	-9396
▁jenderal	-9397
▁bilateral	-9398
▁pengaturan	-9399
▁perceraian	-9400
,6	-9401
kos	-9402
ves	-9403
▁Ra	-9404
▁Tw	-9405
adio	-9406
idul	-9407
lian	-9408
▁Mis	-9409
▁Muz	-9410
▁fit	-9411
akoni	-9412
ayati	-9413
bulan	-9414
uaran	-9415
ublic	-9416
▁Ahok	-9417
▁Kris	-9418
▁PUPR	-9419
▁Sams	-9420
▁audi	-9421
▁diad	-9422
▁dian	-9423
▁nasi	-9424
▁resi	-9425
▁seru	-9426
oyokan	-9427
sunami	-9428
▁Cinta	-9429
▁Haris	-9430
▁Hindu	-9431
▁Muara	-9432
▁patut	-9433
▁popul	-9434
alangan	-9435
antiasa	-9436
▁Laskar	-9437
▁batang	-9438
▁dipicu	-9439
▁lansia	-9440
▁matang	-9441
▁narasi	-9442
bekistan	-9443
▁belasan	-9444
▁relatif	-9445
▁Cawapres	-9446
▁hambatan	-9447
▁jalannya	-9448
▁konvensi	-9449
▁putranya	-9450
▁Strategis	-9451
▁pengaduan	-9452
▁senantiasa	-9453
-13	-9454
▁44	-9455
▁48	-9456
▁Sc	-9457
isih	-9458
▁Bed	-9459
▁Duc	-9460
▁Lip	-9461
▁SDN	-9462
overn	-9463
▁Berp	-9464
▁Hall	-9465
▁Kont	-9466
▁Ribu	-9467
▁mens	-9468
ahagia	-9469
angkas	-9470
daerah	-9471
dayaan	-9472
▁1.200	-9473
▁Cipta	-9474
▁Tokyo	-9475
▁figur	-9476
▁murid	-9477
ekuensi	-9478
▁Yahudi	-9479
▁erupsi	-9480
▁menguk	-9481
▁persel	-9482
▁terper	-9483
▁varian	-9484
▁Insiden	-9485
▁Pameran	-9486
▁Pemilik	-9487
▁ditolak	-9488
▁krusial	-9489
▁memakan	-9490
▁perwira	-9491
▁Sudirman	-9492
▁berdarah	-9493
▁negosiasi	-9494
▁politikus	-9495
▁dukungannya	-9496
▁menyarankan	-9497
ge	-9498
BAR	-9499
aly	-9500
imo	-9501
jam	-9502
▁KS	-9503
▁UM	-9504
iger	-9505
irut	-9506
▁Gan	-9507
▁Jay	-9508
▁Luc	-9509
▁Seo	-9510
.000.	-9511
▁Tert	-9512
▁baju	-9513
ancing	-9514
tempat	-9515
▁2020.	-9516
▁Johan	-9517
▁lemak	-9518
▁telur	-9519
hentian	-9520
▁Berkel	-9521
▁Suzuki	-9522
▁rambut	-9523
▁seruan	-9524
▁tuntas	-9525
▁Kristen	-9526
▁kerabat	-9527
▁raksasa	-9528
▁rincian	-9529
▁Portugal	-9530
▁Pengusaha	-9531
aboratorium	-9532
▁Penelitian	-9533
▁Uzbekistan	-9534
▁pengolahan	-9535
▁pergantian	-9536
▁berhubungan	-9537
▁menyenangkan	-9538
▁pengangguran	-9539
CS	-9540
GD	-9541
NL	-9542
evi	-9543
esat	-9544
▁BYD	-9545
▁Hut	-9546
▁Jim	-9547
▁Rat	-9548
klusi	-9549
sihan	-9550
▁lupa	-9551
iteria	-9552
▁Ajang	-9553
▁Gempa	-9554
▁Haiti	-9555
▁Kakan	-9556
▁Nurul	-9557
▁mandi	-9558
▁nikel	-9559
Suswono	-9560
▁Barito	-9561
▁Ikatan	-9562
▁MALANG	-9563
▁Rahman	-9564
▁ditemp	-9565
ayagunaan	-9566
▁melebihi	-9567
▁penuntut	-9568
▁Pencegahan	-9569
▁terbarukan	-9570
▁pencoblosan	-9571
▁perhitungan	-9572
▁menghubungkan	-9573
34	-9574
Pr	-9575
Tim	-9576
mit	-9577
ahar	-9578
ariq	-9579
ency	-9580
itip	-9581
lain	-9582
▁Isu	-9583
▁Jin	-9584
Hamas	-9585
uasan	-9586
umpur	-9587
▁Mary	-9588
▁Musk	-9589
▁Tjah	-9590
ataran	-9591
▁Luhut	-9592
▁Resmi	-9593
▁akunt	-9594
▁pemda	-9595
▁putus	-9596
▁Academ	-9597
▁School	-9598
▁diubah	-9599
▁kertas	-9600
▁alokasi	-9601
▁andalan	-9602
▁Mohammed	-9603
▁Deklarasi	-9604
▁Politikus	-9605
▁ditinggal	-9606
▁kurangnya	-9607
rioritaskan	-9608
▁berhadapan	-9609
▁dihasilkan	-9610
▁tertinggal	-9611
▁memaksimalkan	-9612
Am	-9613
GI	-9614
Dit	-9615
TAN	-9616
afe	-9617
rie	-9618
yeh	-9619
▁IT	-9620
▁KI	-9621
amuk	-9622
egas	-9623
▁Hil	-9624
vokat	-9625
▁Moch	-9626
▁abad	-9627
alihan	-9628
ambung	-9629
entari	-9630
ungguh	-9631
▁Fikri	-9632
▁GIIAS	-9633
▁Suhar	-9634
▁Wahid	-9635
ulaiman	-9636
▁Faisal	-9637
▁Persen	-9638
▁semata	-9639
▁tuanya	-9640
▁Kinerja	-9641
▁Susanto	-9642
▁merangk	-9643
▁dedikasi	-9644
▁matahari	-9645
▁mencabut	-9646
▁terheboh	-9647
▁transfer	-9648
▁kepastian	-9649
▁terorisme	-9650
▁perundingan	-9651
▁menyesuaikan	-9652
:29	-9653
eed	-9654
ric	-9655
.500	-9656
tric	-9657
▁Asy	-9658
▁Dam	-9659
▁Max	-9660
▁Pad	-9661
kasus	-9662
▁Part	-9663
aborsi	-9664
stansi	-9665
uncang	-9666
▁Hilir	-9667
endagri	-9668
▁musisi	-9669
ukseskan	-9670
usnahkan	-9671
▁balapan	-9672
▁favorit	-9673
▁menyapa	-9674
▁perihal	-9675
▁Fauziyah	-9676
▁membalas	-9677
operasikan	-9678
▁bercerita	-9679
▁menyimpan	-9680
▁Diponegoro	-9681
▁didominasi	-9682
▁pembangkit	-9683
▁perencanaan	-9684
▁Pemberdayaan	-9685
▁memperpanjang	-9686
iji	-9687
kif	-9688
sch	-9689
ull	-9690
idar	-9691
▁Jef	-9692
▁KTP	-9693
urnia	-9694
▁Ajak	-9695
▁Fari	-9696
▁Jurn	-9697
▁Prol	-9698
▁Puan	-9699
▁SPBU	-9700
▁kemb	-9701
▁magn	-9702
▁Ambon	-9703
▁mulut	-9704
arungan	-9705
▁Sangat	-9706
▁campur	-9707
indikasi	-9708
utradara	-9709
▁Sustain	-9710
▁pemadam	-9711
▁Asuransi	-9712
▁Sulaiman	-9713
▁berturut	-9714
▁indikasi	-9715
▁2023-2024	-9716
▁Komisioner	-9717
▁manufaktur	-9718
▁mengharapkan	-9719
▁Pendayagunaan	-9720
▁ketenagakerjaan	-9721
90	-9722
EK	-9723
oe	-9724
ene	-9725
vir	-9726
▁BSD	-9727
▁Hub	-9728
▁cab	-9729
hukam	-9730
kifli	-9731
upang	-9732
▁2045	-9733
▁Land	-9734
▁Mass	-9735
▁Sarw	-9736
▁pomp	-9737
ekasan	-9738
▁2020,	-9739
▁Azwar	-9740
▁Belit	-9741
▁Mudik	-9742
▁Optim	-9743
▁Sales	-9744
▁gelap	-9745
▁hoaks	-9746
▁lemah	-9747
amaikan	-9748
itoring	-9749
▁Econom	-9750
▁Kalsel	-9751
▁Nataru	-9752
▁komisi	-9753
▁Mengapa	-9754
▁berikan	-9755
▁keluhan	-9756
awancarai	-9757
▁Cikarang	-9758
▁Research	-9759
▁Telegram	-9760
▁disahkan	-9761
▁terjebak	-9762
▁warganet	-9763
▁Pamekasan	-9764
▁Kebangkitan	-9765
▁ditempatkan	-9766
EL	-9767
Hal	-9768
rum	-9769
▁BK	-9770
▁Dw	-9771
▁UE	-9772
egar	-9773
kret	-9774
onan	-9775
ugur	-9776
anyar	-9777
dalam	-9778
emput	-9779
▁Berh	-9780
▁Bola	-9781
▁Dard	-9782
▁Food	-9783
▁PPDB	-9784
▁Rest	-9785
▁Terc	-9786
▁padi	-9787
ebgram	-9788
kannya	-9789
siplin	-9790
▁Dasco	-9791
▁Kasub	-9792
▁Power	-9793
▁keset	-9794
▁ujian	-9795
abrakan	-9796
ifikasi	-9797
▁Boeing	-9798
▁Kurnia	-9799
▁Memper	-9800
▁jelang	-9801
▁terjun	-9802
ampungan	-9803
▁Komando	-9804
▁gembira	-9805
▁disiplin	-9806
▁tahunnya	-9807
▁Kehutanan	-9808
▁ketinggian	-9809
▁kondisinya	-9810
▁menghargai	-9811
▁menjangkau	-9812
',	-9813
ALI	-9814
oks	-9815
▁Ef	-9816
▁Ub	-9817
irat	-9818
oyok	-9819
▁Asi	-9820
▁BNI	-9821
▁Imp	-9822
▁She	-9823
▁lel	-9824
ebook	-9825
osida	-9826
▁Amir	-9827
▁Arie	-9828
▁kain	-9829
▁medan	-9830
ability	-9831
amunisi	-9832
elaskan	-9833
unyikan	-9834
▁berpel	-9835
▁praktis	-9836
omunikasi	-9837
▁Pastikan	-9838
▁bernilai	-9839
▁tertuang	-9840
▁Kekerasan	-9841
▁kegagalan	-9842
▁Sekretariat	-9843
OTO	-9844
inga	-9845
rama	-9846
▁Rut	-9847
▁TPN	-9848
▁Tap	-9849
ekali	-9850
ekraf	-9851
▁Bina	-9852
▁Nugr	-9853
▁Perp	-9854
▁Suci	-9855
▁insp	-9856
▁spir	-9857
Pemkot	-9858
▁2.000	-9859
▁Malut	-9860
▁Punya	-9861
▁curah	-9862
▁indah	-9863
▁jujur	-9864
▁lebar	-9865
▁sadar	-9866
▁terin	-9867
▁tipis	-9868
kominfo	-9869
orkshop	-9870
▁Beirut	-9871
▁Christ	-9872
▁Dardak	-9873
▁Racing	-9874
▁Perkasa	-9875
▁seputar	-9876
▁tangkap	-9877
▁Mahendra	-9878
▁Zulkifli	-9879
▁bermotor	-9880
▁kebudayaan	-9881
▁menghantam	-9882
▁perkebunan	-9883
,7	-9884
GBK	-9885
hit	-9886
ibr	-9887
mos	-9888
uke	-9889
▁Ep	-9890
atap	-9891
isnu	-9892
▁(1)	-9893
▁BNN	-9894
▁Gal	-9895
▁zat	-9896
rahim	-9897
▁Auto	-9898
▁RIDO	-9899
▁TANG	-9900
alangi	-9901
incang	-9902
▁Kevin	-9903
▁Mitra	-9904
▁Rokan	-9905
▁dires	-9906
▁ideal	-9907
isahkan	-9908
▁Bangun	-9909
▁Rahayu	-9910
▁Sampah	-9911
▁Teknis	-9912
▁Thariq	-9913
▁kucing	-9914
▁single	-9915
imbingan	-9916
▁Manajer	-9917
▁Potensi	-9918
▁dicapai	-9919
▁jalanan	-9920
▁Koperasi	-9921
▁kebaikan	-9922
▁terjatuh	-9923
▁memandang	-9924
▁anggotanya	-9925
▁bersubsidi	-9926
▁penyandang	-9927
▁penyebaran	-9928
implementasi	-9929
▁perundungan	-9930
2)	-9931
37	-9932
38	-9933
oo	-9934
100	-9935
IND	-9936
BARU	-9937
abri	-9938
aint	-9939
argo	-9940
hony	-9941
olil	-9942
rove	-9943
tein	-9944
▁BPK	-9945
▁Bes	-9946
▁sar	-9947
undai	-9948
▁Rudi	-9949
▁kena	-9950
emahan	-9951
▁Meres	-9952
▁Seoul	-9953
▁kayak	-9954
▁legal	-9955
▁tahan	-9956
▁Alumni	-9957
▁Teknik	-9958
▁diajak	-9959
▁dijaga	-9960
▁ekonom	-9961
▁wacana	-9962
▁Finance	-9963
▁Mineral	-9964
ewaspadai	-9965
▁menyusun	-9966
▁temannya	-9967
▁Kemayoran	-9968
▁Pelanggan	-9969
▁Sepanjang	-9970
▁berinovasi	-9971
▁bersinergi	-9972
▁bertanding	-9973
▁mengangkut	-9974
▁verifikasi	-9975
▁menuntaskan	-9976
Ya	-9977
Dis	-9978
oki	-9979
ucu	-9980
▁4.	-9981
▁IP	-9982
igas	-9983
lami	-9984
▁Asm	-9985
▁Dur	-9986
▁Law	-9987
▁PPK	-9988
▁pod	-9989
oyong	-9990
tunya	-9991
▁Berg	-9992
▁Diri	-9993
▁Hati	-9994
▁Pati	-9995
▁hany	-9996
ajikan	-9997
etulan	-9998
▁2019,	-9999
▁Garda	-10000
▁Harun	-10001
▁Senat	-10002
▁Turun	-10003
▁Ulang	-10004
▁bibit	-10005
▁Komnas	-10006
▁Toyota	-10007
▁bawang	-10008
▁menuai	-10009
▁Menaker	-10010
▁Peluang	-10011
▁Indonesi	-10012
▁komandan	-10013
▁memberlakukan	-10014
zy	-10015
nes	-10016
urg	-10017
gian	-10018
▁Bon	-10019
▁bon	-10020
▁nik	-10021
atika	-10022
ernas	-10023
ulans	-10024
▁2014	-10025
▁Awal	-10026
▁Judi	-10027
▁stok	-10028
aliyah	-10029
▁Sehat	-10030
▁Siswa	-10031
▁kakak	-10032
▁Hampir	-10033
▁sepatu	-10034
▁sinyal	-10035
▁tertib	-10036
▁Hyundai	-10037
▁Sampang	-10038
▁memadai	-10039
▁seniman	-10040
▁Hadirkan	-10041
▁Kakanwil	-10042
▁batangan	-10043
▁melantik	-10044
▁dipercaya	-10045
▁keyakinan	-10046
▁pemenuhan	-10047
▁rekrutmen	-10048
▁Penyuluhan	-10049
▁diinginkan	-10050
▁memikirkan	-10051
▁berkomentar	-10052
▁dikarenakan	-10053
Or	-10054
JSL	-10055
The	-10056
dir	-10057
ime	-10058
ise	-10059
kem	-10060
ugu	-10061
▁Na	-10062
BPBD	-10063
eser	-10064
hael	-10065
ista	-10066
site	-10067
ubur	-10068
yana	-10069
▁Edy	-10070
mudah	-10071
orejo	-10072
▁Buah	-10073
▁Suas	-10074
▁yong	-10075
tainer	-10076
ungkam	-10077
▁aborsi	-10078
▁ambang	-10079
▁cerdas	-10080
▁Kendati	-10081
▁Mulyani	-10082
▁amunisi	-10083
▁tawaran	-10084
gabungkan	-10085
▁melakoni	-10086
▁mengeksp	-10087
▁dibagikan	-10088
▁pemainnya	-10089
▁penasihat	-10090
▁konstruksi	-10091
▁permukiman	-10092
HI	-10093
45.	-10094
uty	-10095
wah	-10096
▁65	-10097
▁ri	-10098
anah	-10099
▁2,5	-10100
▁Abu	-10101
▁Mes	-10102
▁Yan	-10103
edian	-10104
▁Terk	-10105
▁akar	-10106
ocoran	-10107
samaan	-10108
▁2025,	-10109
▁Bunga	-10110
▁Kuala	-10111
▁memin	-10112
▁pesat	-10113
▁Jepara	-10114
▁gejala	-10115
▁lambat	-10116
▁market	-10117
afiliasi	-10118
▁divonis	-10119
▁kandung	-10120
▁menyemb	-10121
▁sewaktu	-10122
▁Banyumas	-10123
▁Facebook	-10124
▁Narkotika	-10125
▁Sarwendah	-10126
▁melangkah	-10127
▁pemerasan	-10128
▁Kehormatan	-10129
▁menindaklanjuti	-10130
BM	-10131
Sur	-10132
bia	-10133
▁Fo	-10134
atab	-10135
ison	-10136
udut	-10137
▁Dub	-10138
▁JPU	-10139
▁KIM	-10140
KPSDM	-10141
odong	-10142
vatif	-10143
▁Daop	-10144
▁Nick	-10145
▁Wang	-10146
inding	-10147
junkan	-10148
usukan	-10149
▁Assad	-10150
▁Fakta	-10151
▁Intan	-10152
▁Kartu	-10153
▁Kesep	-10154
▁Salim	-10155
▁rekam	-10156
▁wasit	-10157
angrove	-10158
ektorat	-10159
unggung	-10160
▁Ducati	-10161
erikatan	-10162
omentari	-10163
▁Awalnya	-10164
▁Kalteng	-10165
▁Lakukan	-10166
▁ilmuwan	-10167
▁netizen	-10168
engkapnya	-10169
▁Belitung	-10170
▁Keadilan	-10171
▁mengajar	-10172
▁mengurus	-10173
▁sempurna	-10174
▁keberatan	-10175
▁pengelola	-10176
▁mengandalkan	-10177
EV	-10178
TC	-10179
cok	-10180
has	-10181
iki	-10182
odi	-10183
oke	-10184
tul	-10185
way	-10186
Rano	-10187
hani	-10188
inus	-10189
irin	-10190
unch	-10191
▁Los	-10192
▁ban	-10193
▁pac	-10194
toral	-10195
uasin	-10196
▁Ferd	-10197
▁Greg	-10198
▁Stor	-10199
akapan	-10200
irinya	-10201
kosaan	-10202
▁Enter	-10203
▁Mangg	-10204
▁Ryder	-10205
▁miras	-10206
▁posko	-10207
▁tenda	-10208
andakan	-10209
▁Ilegal	-10210
▁inilah	-10211
▁kuartal	-10212
erdayakan	-10213
▁dijatuhi	-10214
▁terbunuh	-10215
▁kehormatan	-10216
▁pencabulan	-10217
▁tergantung	-10218
▁gratifikasi	-10219
▁stakeholder	-10220
cus	-10221
eny	-10222
que	-10223
▁43	-10224
▁AR	-10225
ahul	-10226
etas	-10227
▁Bol	-10228
▁Cho	-10229
▁SYL	-10230
▁FIFA	-10231
▁Hand	-10232
▁Izin	-10233
▁Kimb	-10234
▁Marg	-10235
▁agak	-10236
▁ciri	-10237
erence	-10238
▁Peran	-10239
▁Perum	-10240
▁Spesi	-10241
▁Virgo	-10242
▁Wisnu	-10243
▁Zakat	-10244
▁pilar	-10245
▁zakat	-10246
gabdian	-10247
▁anjing	-10248
▁sumpah	-10249
▁Proliga	-10250
▁Service	-10251
▁Situasi	-10252
▁bangkit	-10253
▁harinya	-10254
▁sahabat	-10255
▁menjerat	-10256
▁menyerah	-10257
▁intimidasi	-10258
▁kreativitas	-10259
HC	-10260
sin	-10261
ejut	-10262
▁Der	-10263
▁Pag	-10264
▁Tor	-10265
▁cok	-10266
rokan	-10267
▁Demi	-10268
▁FOTO	-10269
▁geng	-10270
▁tump	-10271
asiswi	-10272
enjang	-10273
pacara	-10274
▁Jabod	-10275
▁Sosok	-10276
▁drama	-10277
▁ormas	-10278
asarana	-10279
atabase	-10280
ensinya	-10281
▁Migran	-10282
▁pengin	-10283
ingankan	-10284
undangan	-10285
upayakan	-10286
▁Suasana	-10287
▁inisial	-10288
▁pinggir	-10289
▁ternama	-10290
/3/2024).	-10291
▁Pahlawan	-10292
▁Banyuasin	-10293
▁Kurniawan	-10294
▁gelandang	-10295
▁kebiasaan	-10296
▁disalurkan	-10297
▁mendominasi	-10298
▁mendatangkan	-10299
▁rehabilitasi	-10300
22	-10301
cy	-10302
▁,	-10303
ale	-10304
keu	-10305
rol	-10306
▁GP	-10307
▁VI	-10308
acap	-10309
idan	-10310
memb	-10311
▁Hot	-10312
▁TKN	-10313
▁ret	-10314
▁tri	-10315
antap	-10316
erior	-10317
ombak	-10318
tanda	-10319
▁Ikut	-10320
▁Zaki	-10321
Bangsa	-10322
Selain	-10323
amboja	-10324
unjang	-10325
▁PEKAN	-10326
▁stres	-10327
abeanan	-10328
ubarkan	-10329
▁peluru	-10330
▁semoga	-10331
▁Jombang	-10332
▁Saputra	-10333
▁Sulteng	-10334
▁indekos	-10335
▁lapisan	-10336
▁Aplikasi	-10337
▁operator	-10338
▁PEKANBARU	-10339
▁kelurahan	-10340
▁membacakan	-10341
▁menghambat	-10342
▁penempatan	-10343
▁penyerahan	-10344
▁mengabaikan	-10345
46	-10346
ENG	-10347
usa	-10348
▁58	-10349
▁AFC	-10350
▁Aji	-10351
▁Cer	-10352
▁One	-10353
▁Doha	-10354
▁Jati	-10355
▁Klas	-10356
▁Rian	-10357
▁bara	-10358
ernaan	-10359
ikulum	-10360
sangat	-10361
ukulan	-10362
▁Akmal	-10363
▁Halim	-10364
▁Momen	-10365
▁belas	-10366
▁finis	-10367
▁Dampak	-10368
▁betapa	-10369
▁kaitan	-10370
▁kuning	-10371
▁membaw	-10372
▁sengit	-10373
erebekan	-10374
▁Academy	-10375
▁William	-10376
▁distrik	-10377
▁istilah	-10378
▁pikiran	-10379
▁penataan	-10380
▁spesifik	-10381
▁Alasannya	-10382
▁Supriyani	-10383
▁terdengar	-10384
▁terobosan	-10385
▁pemanggilan	-10386
implementasikan	-10387
xy	-10388
.45	-10389
Dia	-10390
PKS	-10391
uck	-10392
▁BC	-10393
UMKM	-10394
edib	-10395
foto	-10396
obar	-10397
oria	-10398
▁DBD	-10399
aksel	-10400
amana	-10401
entik	-10402
imewa	-10403
▁Atik	-10404
▁Club	-10405
▁Giri	-10406
▁diak	-10407
▁meja	-10408
▁memv	-10409
akunya	-10410
anteng	-10411
ontrol	-10412
partai	-10413
▁Fitri	-10414
▁Timah	-10415
▁batik	-10416
ospital	-10417
▁menges	-10418
▁simpat	-10419
hentikan	-10420
▁Upacara	-10421
▁lonjakan	-10422
▁terdepan	-10423
▁Puskesmas	-10424
▁Rancangan	-10425
▁mendapati	-10426
▁minoritas	-10427
▁pemakaman	-10428
▁penanaman	-10429
▁antisipasi	-10430
▁membiarkan	-10431
▁Sosialisasi	-10432
RIS	-10433
cam	-10434
gia	-10435
med	-10436
▁88	-10437
▁CI	-10438
▁he	-10439
asem	-10440
emuk	-10441
idin	-10442
ulik	-10443
wari	-10444
▁Jul	-10445
▁via	-10446
autan	-10447
latul	-10448
ograf	-10449
▁Adat	-10450
▁Bule	-10451
▁KPPS	-10452
▁Yoon	-10453
▁Kepri	-10454
▁Merak	-10455
▁South	-10456
▁siaga	-10457
▁Jelang	-10458
▁Memang	-10459
▁Solusi	-10460
▁dorong	-10461
▁peramp	-10462
▁Aaliyah	-10463
▁Gerimis	-10464
▁Virgoun	-10465
▁penjual	-10466
▁persegi	-10467
▁sebulan	-10468
▁terjaga	-10469
▁Generasi	-10470
▁Karangan	-10471
▁Kimberly	-10472
▁kebenaran	-10473
▁menyentuh	-10474
▁pembagian	-10475
▁perkiraan	-10476
▁bermasalah	-10477
▁sebaliknya	-10478
Alhamdulillah	-10479
▁pengeroyokan	-10480
▁pernyataannya	-10481
EP	-10482
-12	-10483
-15	-10484
nis	-10485
▁bu	-10486
epis	-10487
jaya	-10488
peng	-10489
▁BSI	-10490
▁Sof	-10491
▁naf	-10492
orkan	-10493
▁Mega	-10494
▁Pres	-10495
▁Sind	-10496
▁harm	-10497
enario	-10498
tibmas	-10499
▁Bulog	-10500
▁Nanti	-10501
▁Paloh	-10502
▁Paula	-10503
▁Progo	-10504
▁Atikoh	-10505
▁diskon	-10506
▁reaksi	-10507
▁Asisten	-10508
▁Menjadi	-10509
▁Pelajar	-10510
▁beraksi	-10511
▁konkret	-10512
▁bersedia	-10513
▁beruntun	-10514
▁dikuasai	-10515
▁tercapai	-10516
▁Apresiasi	-10517
▁kronologi	-10518
▁pelajaran	-10519
▁Pemungutan	-10520
▁kompetitif	-10521
▁mewaspadai	-10522
▁kebersamaan	-10523
osialisasikan	-10524
▁beraktivitas	-10525
ET	-10526
HT	-10527
PJ	-10528
Kom	-10529
▁Rio	-10530
▁mal	-10531
/2023	-10532
amati	-10533
obaan	-10534
ongkr	-10535
tanya	-10536
▁Vice	-10537
▁Yuli	-10538
▁bulu	-10539
agukan	-10540
anggal	-10541
▁Niger	-10542
▁citra	-10543
▁makam	-10544
▁nekat	-10545
▁sudut	-10546
ewenang	-10547
▁Yandri	-10548
embahkan	-10549
▁Anthony	-10550
▁Kamboja	-10551
▁Nugraha	-10552
▁agresif	-10553
▁bandang	-10554
▁beralih	-10555
▁almarhum	-10556
▁eskalasi	-10557
▁kriteria	-10558
▁punggung	-10559
▁Merespons	-10560
▁Prakiraan	-10561
▁bertarung	-10562
▁sejatinya	-10563
▁dikerahkan	-10564
▁Perserikatan	-10565
▁berinvestasi	-10566
▁mengkhawatirkan	-10567
65	-10568
Ak	-10569
-30	-10570
Hari	-10571
itel	-10572
oris	-10573
teri	-10574
▁Inn	-10575
▁bea	-10576
China	-10577
amayu	-10578
ikapi	-10579
▁Jaga	-10580
▁Mada	-10581
▁Peri	-10582
▁Ansor	-10583
▁Milik	-10584
▁Samud	-10585
▁Venez	-10586
▁makna	-10587
▁paruh	-10588
etulnya	-10589
▁Brazil	-10590
▁Tannur	-10591
▁balita	-10592
▁jurnal	-10593
parekraf	-10594
▁Michael	-10595
▁minimum	-10596
onference	-10597
▁Kenaikan	-10598
▁istimewa	-10599
▁Indramayu	-10600
▁birokrasi	-10601
▁diusulkan	-10602
omendasikan	-10603
▁Pendapatan	-10604
▁Pengendalian	-10605
▁Berkelanjutan	-10606
13	-10607
PG	-10608
PBB	-10609
Pas	-10610
TKP	-10611
ful	-10612
ote	-10613
pun	-10614
▁Ow	-10615
arta	-10616
mata	-10617
▁Can	-10618
▁Nis	-10619
▁Sas	-10620
agiri	-10621
ancah	-10622
ensik	-10623
estan	-10624
injal	-10625
uting	-10626
▁Atta	-10627
▁Eddy	-10628
▁Kert	-10629
▁atap	-10630
▁bawa	-10631
aksian	-10632
ikmati	-10633
undaan	-10634
walkot	-10635
▁Badai	-10636
▁Pemda	-10637
▁Ridho	-10638
▁sensi	-10639
▁sumur	-10640
ajibkan	-10641
oksidan	-10642
▁Kendal	-10643
▁mempro	-10644
▁trauma	-10645
adaptasi	-10646
▁Formasi	-10647
▁Mapolda	-10648
▁Pembina	-10649
▁Tunggal	-10650
▁berangg	-10651
▁lingkup	-10652
italisasi	-10653
kriminasi	-10654
▁Ramadhan	-10655
▁hidangan	-10656
▁perlunya	-10657
▁Penetapan	-10658
▁memprediksi	-10659
hut	-10660
▁47	-10661
amis	-10662
▁Dic	-10663
▁Gum	-10664
▁Lew	-10665
▁Nav	-10666
▁abu	-10667
▁kac	-10668
▁mut	-10669
angit	-10670
asang	-10671
eliti	-10672
▁Afif	-10673
▁Bint	-10674
▁Hans	-10675
▁cuti	-10676
▁diek	-10677
▁diga	-10678
▁live	-10679
▁maut	-10680
▁trag	-10681
Pemkab	-10682
erebek	-10683
▁Bangk	-10684
▁Fokus	-10685
▁Human	-10686
▁Polit	-10687
▁Rusli	-10688
▁debut	-10689
▁ketak	-10690
▁sawah	-10691
▁tarik	-10692
▁Dishub	-10693
▁Mayjen	-10694
▁jagung	-10695
▁pengas	-10696
▁seolah	-10697
▁Berawan	-10698
▁Chandra	-10699
▁mengacu	-10700
rihatinan	-10701
▁Magelang	-10702
▁berdasar	-10703
▁berkisar	-10704
▁besarnya	-10705
▁diungkap	-10706
▁mendiang	-10707
▁pengedar	-10708
▁Nahdlatul	-10709
▁Statistik	-10710
▁istirahat	-10711
▁mengarahkan	-10712
▁pemerkosaan	-10713
▁mengomentari	-10714
duc	-10715
ove	-10716
rik	-10717
▁600	-10718
▁800	-10719
▁Kop	-10720
▁WHO	-10721
▁Win	-10722
ERANG	-10723
adjah	-10724
iated	-10725
ortir	-10726
▁Aset	-10727
▁Fuji	-10728
▁Krem	-10729
▁part	-10730
Israel	-10731
anking	-10732
▁Dimas	-10733
▁Hafid	-10734
▁Space	-10735
▁Vadel	-10736
▁Wamen	-10737
▁pulih	-10738
ingkali	-10739
pastian	-10740
▁Gadjah	-10741
▁Justin	-10742
▁Legisl	-10743
▁Menuju	-10744
ontarkan	-10745
▁Diskusi	-10746
resentasi	-10747
▁Keliling	-10748
▁Selandia	-10749
▁TANGERANG	-10750
▁memerangi	-10751
▁potensial	-10752
▁disesuaikan	-10753
▁penghasilan	-10754
▁menginspirasi	-10755
▁AA	-10756
▁PA	-10757
appy	-10758
aten	-10759
ebol	-10760
illa	-10761
▁Cop	-10762
iskal	-10763
▁Brip	-10764
▁Kadi	-10765
▁tand	-10766
lamasi	-10767
usunan	-10768
▁Asasi	-10769
▁Libur	-10770
▁direk	-10771
▁ditur	-10772
▁Petani	-10773
▁Sesuai	-10774
▁indeks	-10775
▁pantas	-10776
▁vaksin	-10777
ahagiaan	-10778
andirian	-10779
▁Latihan	-10780
▁Project	-10781
▁Terpadu	-10782
umbangkan	-10783
▁Hospital	-10784
▁landasan	-10785
▁mengutuk	-10786
▁Alexander	-10787
▁Fasilitas	-10788
▁Indragiri	-10789
▁keindahan	-10790
▁terganggu	-10791
▁dibatalkan	-10792
▁pencernaan	-10793
▁terbarunya	-10794
▁mempermudah	-10795
▁meringankan	-10796
▁penggelapan	-10797
▁pengunduran	-10798
▁penyesuaian	-10799
▁bertentangan	-10800
kh	-10801
ze	-10802
ael	-10803
els	-10804
ety	-10805
mor	-10806
urt	-10807
▁PO	-10808
/3),	-10809
Pert	-10810
abek	-10811
alem	-10812
▁Lub	-10813
arket	-10814
itter	-10815
kawan	-10816
onjak	-10817
▁2030	-10818
▁akal	-10819
iksaan	-10820
▁Cepat	-10821
▁Hutan	-10822
▁Kamar	-10823
▁Kepem	-10824
▁balap	-10825
▁harap	-10826
▁satwa	-10827
▁super	-10828
sekitar	-10829
▁Harian	-10830
▁Lantas	-10831
▁Macron	-10832
▁Shopee	-10833
▁bangun	-10834
▁burung	-10835
▁pembac	-10836
▁Cilacap	-10837
▁Haniyeh	-10838
▁Muhamad	-10839
▁berbuat	-10840
▁dibayar	-10841
▁pembeli	-10842
▁Sandiaga	-10843
▁diundang	-10844
▁keliling	-10845
▁terkesan	-10846
▁pencucian	-10847
▁tunjangan	-10848
▁memberdayakan	-10849
EF	-10850
PDI	-10851
UMI	-10852
ese	-10853
hin	-10854
pan	-10855
▁56	-10856
▁Qu	-10857
Kota	-10858
ikhu	-10859
stil	-10860
▁Cis	-10861
▁ESG	-10862
▁Eff	-10863
▁VNL	-10864
PANRB	-10865
▁Iman	-10866
▁Sara	-10867
ambing	-10868
blakan	-10869
emaran	-10870
enalan	-10871
ulangi	-10872
▁Fitur	-10873
▁Pemad	-10874
▁Tokoh	-10875
▁lapor	-10876
▁ujung	-10877
▁2024/2	-10878
▁Sulsel	-10879
▁kompak	-10880
▁mengob	-10881
▁Syaikhu	-10882
▁Wakapol	-10883
▁dangdut	-10884
▁manajer	-10885
▁membaik	-10886
▁memukul	-10887
▁protein	-10888
▁dipasang	-10889
▁pendahul	-10890
▁Secretary	-10891
▁ketimbang	-10892
▁penderita	-10893
ealisasikan	-10894
▁jajarannya	-10895
▁kebangsaan	-10896
▁terpopuler	-10897
▁Informatika	-10898
▁penyimpanan	-10899
▁penyelamatan	-10900
▁Communication	-10901
bus	-10902
rey	-10903
▁41	-10904
▁Aq	-10905
ajin	-10906
kata	-10907
usir	-10908
▁Lib	-10909
▁run	-10910
alung	-10911
aznas	-10912
rumah	-10913
▁Area	-10914
▁Gall	-10915
▁Jong	-10916
▁Juga	-10917
▁kala	-10918
▁segi	-10919
Semoga	-10920
agakan	-10921
angsel	-10922
eledah	-10923
endang	-10924
ugurra	-10925
▁Leste	-10926
▁Undip	-10927
▁ganti	-10928
embunyi	-10929
esterol	-10930
▁Irawan	-10931
▁pintar	-10932
ingatkan	-10933
▁Cugurra	-10934
▁Massaid	-10935
▁Pesisir	-10936
▁Richard	-10937
▁Senator	-10938
▁menunda	-10939
▁seminar	-10940
andingkan	-10941
▁Kedutaan	-10942
▁Kementan	-10943
▁campuran	-10944
▁putrinya	-10945
▁terkejut	-10946
▁tugasnya	-10947
▁Sukoharjo	-10948
▁pemasaran	-10949
▁peradilan	-10950
▁perseroan	-10951
▁rancangan	-10952
▁toleransi	-10953
▁Pengamanan	-10954
▁antusiasme	-10955
▁berpeluang	-10956
▁didapatkan	-10957
▁diturunkan	-10958
BG	-10959
RA	-10960
wo	-10961
PKB	-10962
cep	-10963
▁Cr	-10964
▁sl	-10965
atin	-10966
show	-10967
▁Blu	-10968
▁Teb	-10969
▁Tex	-10970
▁amp	-10971
antum	-10972
awahi	-10973
ayana	-10974
empar	-10975
▁Slam	-10976
▁tipe	-10977
acunan	-10978
elatan	-10979
ternal	-10980
▁Damas	-10981
▁Kecil	-10982
▁Mahal	-10983
▁iklan	-10984
▁Gading	-10985
▁Minyak	-10986
▁Sorong	-10987
▁formal	-10988
▁lelang	-10989
▁remisi	-10990
▁Siregar	-10991
▁meledak	-10992
▁menanam	-10993
▁ambulans	-10994
▁berpesan	-10995
▁ditandai	-10996
▁mitigasi	-10997
▁terseret	-10998
▁pengajuan	-10999
▁didasarkan	-11000
▁pemusnahan	-11001
▁popularitas	-11002
▁pengendalian	-11003
29	-11004
JO	-11005
Se	-11006
vi	-11007
ANY	-11008
hoa	-11009
rar	-11010
rio	-11011
str	-11012
uno	-11013
▁DK	-11014
ecut	-11015
irik	-11016
▁Cro	-11017
▁Mid	-11018
▁wis	-11019
manen	-11020
embada	-11021
▁Kadek	-11022
▁Kasih	-11023
▁Lihat	-11024
▁Mikro	-11025
▁tebal	-11026
▁topik	-11027
erakkan	-11028
isiatif	-11029
▁Islami	-11030
▁Tengku	-11031
▁pasang	-11032
▁paspor	-11033
▁tunggu	-11034
▁Aktivis	-11035
▁kontrol	-11036
▁pelapor	-11037
▁syariah	-11038
▁santunan	-11039
▁2023/2024	-11040
▁2024/2025	-11041
▁Intelijen	-11042
▁streaming	-11043
▁Associated	-11044
▁Indonesian	-11045
▁pendamping	-11046
▁percakapan	-11047
TM	-11048
ui	-11049
vy	-11050
-17	-11051
arm	-11052
lit	-11053
▁GT	-11054
▁SH	-11055
afia	-11056
arai	-11057
jono	-11058
niat	-11059
ukuh	-11060
yati	-11061
▁Kit	-11062
▁SIG	-11063
▁sul	-11064
ewaan	-11065
uansa	-11066
obokan	-11067
▁Caleg	-11068
▁Kontr	-11069
▁Machm	-11070
▁dimak	-11071
lembaga	-11072
▁Hilang	-11073
▁Pelita	-11074
▁kalian	-11075
▁Menpora	-11076
▁Pacitan	-11077
▁bentrok	-11078
▁melapor	-11079
▁rampung	-11080
▁seminggu	-11081
▁perluasan	-11082
▁tendangan	-11083
▁mengadopsi	-11084
▁peninjauan	-11085
▁Pelanggaran	-11086
▁beradaptasi	-11087
▁menghalangi	-11088
▁menyayangkan	-11089
600	-11090
DIY	-11091
fiq	-11092
▁SP	-11093
arau	-11094
azia	-11095
etus	-11096
room	-11097
▁Jor	-11098
▁Nar	-11099
▁ras	-11100
amaan	-11101
astis	-11102
butor	-11103
impun	-11104
orial	-11105
▁Ardi	-11106
▁Bend	-11107
▁Dini	-11108
▁Fern	-11109
▁pipa	-11110
▁star	-11111
isteri	-11112
▁Bahan	-11113
▁Bakar	-11114
▁Desak	-11115
▁Hamid	-11116
▁Rizki	-11117
▁Senior	-11118
▁center	-11119
▁kancah	-11120
▁tabung	-11121
yongyang	-11122
▁Tipikor	-11123
▁dinamis	-11124
angsungan	-11125
eimbangan	-11126
▁diaspora	-11127
▁potongan	-11128
▁Insurance	-11129
▁apartemen	-11130
▁perkotaan	-11131
▁Setidaknya	-11132
▁pemasangan	-11133
▁pemindahan	-11134
▁pertarungan	-11135
▁berpengalaman	-11136
26	-11137
28	-11138
SC	-11139
kol	-11140
▁PR	-11141
▁Uj	-11142
gres	-11143
spek	-11144
tisi	-11145
uruf	-11146
▁Ref	-11147
▁STY	-11148
▁SUV	-11149
ANYAR	-11150
Sudah	-11151
▁Cons	-11152
▁Laos	-11153
▁Nadi	-11154
▁West	-11155
▁ikon	-11156
iganya	-11157
izinan	-11158
▁Airin	-11159
▁James	-11160
▁Maris	-11161
▁Tiong	-11162
▁elite	-11163
▁marah	-11164
loitasi	-11165
okratis	-11166
▁Bangli	-11167
▁Kredit	-11168
▁Motors	-11169
▁Philip	-11170
▁Unggul	-11171
▁polusi	-11172
▁berlalu	-11173
▁rasanya	-11174
▁tangguh	-11175
▁tsunami	-11176
▁wawasan	-11177
▁Darmawan	-11178
▁Revolusi	-11179
▁menyerap	-11180
▁disiarkan	-11181
▁peresmian	-11182
▁perundang	-11183
▁sebaiknya	-11184
▁Penanganan	-11185
▁Penggunaan	-11186
▁menanyakan	-11187
▁pengungsian	-11188
▁mengevaluasi	-11189
▁mengutamakan	-11190
SA	-11191
-1.	-11192
WNA	-11193
cer	-11194
gma	-11195
▁pu	-11196
/5),	-11197
mana	-11198
osat	-11199
wati	-11200
▁Don	-11201
Namun	-11202
itudo	-11203
uheni	-11204
Korban	-11205
ekalan	-11206
ulikan	-11207
▁Andra	-11208
▁Aulia	-11209
▁Bakti	-11210
▁Selat	-11211
▁Yudha	-11212
▁kurun	-11213
tukaran	-11214
ulainya	-11215
▁Gegara	-11216
▁Paling	-11217
▁Sektor	-11218
▁Taufik	-11219
▁klinik	-11220
ontohkan	-11221
yaratkan	-11222
▁Dokumen	-11223
▁Sirkuit	-11224
▁dihukum	-11225
▁website	-11226
orientasi	-11227
▁Damaskus	-11228
▁Konvensi	-11229
▁berjarak	-11230
▁diproses	-11231
resnarkoba	-11232
▁diperkuat	-11233
▁mendoakan	-11234
▁mengganti	-11235
▁perizinan	-11236
▁diputuskan	-11237
▁kebersihan	-11238
▁memulihkan	-11239
▁transparansi	-11240
LB	-11241
/08	-11242
Mas	-11243
Seh	-11244
VID	-11245
ire	-11246
ott	-11247
rem	-11248
acak	-11249
ante	-11250
sing	-11251
umai	-11252
▁Gon	-11253
▁cap	-11254
▁pep	-11255
/10),	-11256
ister	-11257
onjol	-11258
ungli	-11259
wanya	-11260
▁Yani	-11261
▁time	-11262
ariasi	-11263
elahan	-11264
ihatin	-11265
▁Carol	-11266
▁Mardi	-11267
▁Retno	-11268
▁harta	-11269
▁hibah	-11270
▁smart	-11271
aringan	-11272
bilitas	-11273
gunakan	-11274
▁Pabrik	-11275
▁Sempat	-11276
▁basket	-11277
▁inform	-11278
▁Kremlin	-11279
▁Sahabat	-11280
▁berdaya	-11281
▁gelaran	-11282
▁imbauan	-11283
▁imigran	-11284
▁infeksi	-11285
▁sembari	-11286
▁spanduk	-11287
▁waktunya	-11288
▁berkompet	-11289
▁dampaknya	-11290
▁memblokir	-11291
▁pendataan	-11292
▁realisasi	-11293
▁Karangasem	-11294
▁Peluncuran	-11295
▁menguatkan	-11296
▁seringkali	-11297
▁Pertumbuhan	-11298
▁antioksidan	-11299
▁ditargetkan	-11300
▁memindahkan	-11301
▁selengkapnya	-11302
,3	-11303
78	-11304
voi	-11305
▁Po	-11306
Teco	-11307
anas	-11308
esty	-11309
esus	-11310
tiga	-11311
▁But	-11312
▁Kot	-11313
▁LHK	-11314
▁Ris	-11315
.000,	-11316
ademi	-11317
arbon	-11318
▁hulu	-11319
▁race	-11320
▁spek	-11321
ebatan	-11322
kantor	-11323
otakan	-11324
▁13.00	-11325
▁Musim	-11326
▁Oknum	-11327
▁Paser	-11328
▁Sepak	-11329
▁Tuban	-11330
▁bursa	-11331
▁induk	-11332
▁vokal	-11333
▁yatim	-11334
▁Karnav	-11335
▁Sports	-11336
▁pondok	-11337
akauheni	-11338
andangan	-11339
angkuman	-11340
opolitik	-11341
▁Tambang	-11342
▁dimasuk	-11343
angguhkan	-11344
endudukan	-11345
estarikan	-11346
▁Tionghoa	-11347
▁formulir	-11348
▁simbolis	-11349
▁Pembinaan	-11350
▁Pyongyang	-11351
▁berdiskusi	-11352
▁mengerikan	-11353
▁Pelaksanaan	-11354
▁Kepresidenan	-11355
▁menyukseskan	-11356
,9	-11357
5)	-11358
be	-11359
▁BE	-11360
▁GM	-11361
/7),	-11362
endy	-11363
obat	-11364
work	-11365
▁Taj	-11366
▁Tay	-11367
▁end	-11368
▁jus	-11369
▁tro	-11370
adasi	-11371
ampai	-11372
arnya	-11373
ybrid	-11374
▁Hery	-11375
▁King	-11376
▁Ning	-11377
agaman	-11378
ahlian	-11379
ejaran	-11380
isaran	-11381
▁COVID	-11382
▁Cerah	-11383
▁Hijau	-11384
▁Kebun	-11385
▁Usman	-11386
▁bunyi	-11387
▁pasir	-11388
▁tanam	-11389
alungun	-11390
▁Berita	-11391
▁dibeli	-11392
▁syukur	-11393
incangan	-11394
▁Jaminan	-11395
▁Menteng	-11396
▁pembuat	-11397
▁pencari	-11398
▁polemik	-11399
informasi	-11400
▁Kematian	-11401
▁Lamongan	-11402
▁menangis	-11403
▁setinggi	-11404
▁walaupun	-11405
▁Laksamana	-11406
▁Pilwalkot	-11407
▁pengisian	-11408
▁sutradara	-11409
▁2024-2029.	-11410
▁Temanggung	-11411
▁kesetaraan	-11412
▁tertangkap	-11413
▁pengeluaran	-11414
▁dikembalikan	-11415
FC	-11416
HA	-11417
LU	-11418
SU	-11419
Har	-11420
ath	-11421
das	-11422
juh	-11423
put	-11424
▁Pe	-11425
▁SW	-11426
▁ir	-11427
▁120	-11428
▁Rup	-11429
▁bag	-11430
▁fil	-11431
encer	-11432
epung	-11433
erson	-11434
▁Bawa	-11435
▁Mera	-11436
▁Nurh	-11437
igence	-11438
ondong	-11439
▁Bebas	-11440
▁Chery	-11441
▁Lawan	-11442
▁susah	-11443
▁Bersih	-11444
▁Febian	-11445
▁Kelapa	-11446
▁Remaja	-11447
▁Robert	-11448
▁System	-11449
▁dukung	-11450
▁ginjal	-11451
▁ternak	-11452
▁Masters	-11453
▁Electric	-11454
▁Sebegini	-11455
▁Terpilih	-11456
▁balistik	-11457
▁gambaran	-11458
▁Gelandang	-11459
▁Pengadaan	-11460
▁kontainer	-11461
▁meredakan	-11462
▁Karanganyar	-11463
▁mengantarkan	-11464
▁Penyelenggaraan	-11465
.15	-11466
Dir	-11467
Pal	-11468
bel	-11469
ger	-11470
nan	-11471
uch	-11472
▁51	-11473
arya	-11474
atik	-11475
awai	-11476
olok	-11477
udan	-11478
▁Aip	-11479
▁Hay	-11480
▁Tua	-11481
▁sab	-11482
untuh	-11483
yanti	-11484
▁Bond	-11485
▁Modi	-11486
akiman	-11487
gaskan	-11488
trumen	-11489
▁Didik	-11490
▁Dosen	-11491
▁Games	-11492
▁Salam	-11493
▁balon	-11494
▁bedah	-11495
ekuatan	-11496
entrasi	-11497
▁Enggak	-11498
▁Museum	-11499
▁fiskal	-11500
▁relasi	-11501
elamatan	-11502
▁Denmark	-11503
▁Magetan	-11504
▁berniat	-11505
▁paparan	-11506
▁sepekan	-11507
▁Peneliti	-11508
▁Terakhir	-11509
▁membuang	-11510
▁pungutan	-11511
▁terlepas	-11512
▁Pencarian	-11513
▁inspirasi	-11514
▁kerusuhan	-11515
▁prasarana	-11516
▁terlarang	-11517
▁Kapolresta	-11518
▁Simalungun	-11519
▁berlambang	-11520
▁Kemerdekaan	-11521
▁dipindahkan	-11522
▁penggerebekan	-11523
bun	-11524
get	-11525
ors	-11526
ram	-11527
▁54	-11528
▁KK	-11529
▁RA	-11530
bank	-11531
enue	-11532
igan	-11533
miah	-11534
tung	-11535
ware	-11536
▁Cab	-11537
▁RAN	-11538
▁Raj	-11539
Hatta	-11540
erapa	-11541
iayai	-11542
iliun	-11543
ubang	-11544
▁jaga	-11545
essica	-11546
imanuk	-11547
okwari	-11548
porasi	-11549
▁Halal	-11550
▁Massa	-11551
▁Paket	-11552
▁Praja	-11553
▁Tiket	-11554
▁didik	-11555
asumber	-11556
eluarga	-11557
itahuan	-11558
▁Bilang	-11559
▁Kupang	-11560
▁herbal	-11561
▁kadang	-11562
egradasi	-11563
▁Keempat	-11564
▁Respons	-11565
▁ekstasi	-11566
▁memutus	-11567
▁pandang	-11568
Informasi	-11569
▁Tindakan	-11570
▁berpihak	-11571
▁genosida	-11572
▁kepuasan	-11573
▁menyeber	-11574
▁handphone	-11575
▁ketakutan	-11576
▁Penjelasan	-11577
▁Technology	-11578
▁ditugaskan	-11579
▁konsultasi	-11580
▁Transportasi	-11581
▁ketidakpastian	-11582
.8	-11583
SN	-11584
umo	-11585
atis	-11586
pers	-11587
▁BIN	-11588
▁Fai	-11589
▁ITB	-11590
▁Rum	-11591
▁UKM	-11592
▁lok	-11593
▁peg	-11594
nando	-11595
▁Deli	-11596
▁Maya	-11597
▁Tuan	-11598
▁beri	-11599
▁jahe	-11600
▁madu	-11601
▁prib	-11602
▁test	-11603
adikal	-11604
kandal	-11605
▁2019.	-11606
▁Kisah	-11607
▁Siaga	-11608
▁Smart	-11609
▁Texas	-11610
▁Ujang	-11611
▁bakat	-11612
▁bocah	-11613
▁jajak	-11614
ustrian	-11615
▁Korsel	-11616
▁Lukman	-11617
▁Slamet	-11618
▁Tembak	-11619
▁akurat	-11620
▁goreng	-11621
▁lembar	-11622
▁miliki	-11623
▁Apabila	-11624
▁Pribadi	-11625
▁dilalui	-11626
▁dinding	-11627
▁pesaing	-11628
/2/2024).	-11629
▁kebangga	-11630
▁merekrut	-11631
▁miliaran	-11632
▁permanen	-11633
▁sensitif	-11634
▁wewenang	-11635
▁Ditemukan	-11636
▁Kerobokan	-11637
▁Manokwari	-11638
▁Sudaryono	-11639
▁dinikmati	-11640
▁kepadanya	-11641
▁disepakati	-11642
▁memadamkan	-11643
▁narasumber	-11644
▁Pemeriksaan	-11645
▁menembakkan	-11646
1)	-11647
76	-11648
pot	-11649
▁--	-11650
▁CV	-11651
▁so	-11652
-19.	-11653
/9),	-11654
enek	-11655
imer	-11656
orth	-11657
resh	-11658
▁Bac	-11659
▁Leo	-11660
▁Mew	-11661
▁gro	-11662
araja	-11663
arisb	-11664
ating	-11665
▁Adam	-11666
▁Coll	-11667
▁Maru	-11668
▁Mukt	-11669
▁Pask	-11670
▁Umar	-11671
▁juri	-11672
▁tour	-11673
hoeven	-11674
odalan	-11675
reneur	-11676
▁Lolly	-11677
▁Musik	-11678
awijaya	-11679
endakan	-11680
onisasi	-11681
▁Dadang	-11682
▁Kampar	-11683
▁dimana	-11684
▁hybrid	-11685
▁terbit	-11686
▁Angeles	-11687
▁Darurat	-11688
▁Tangkap	-11689
▁inklusi	-11690
▁memperl	-11691
▁pejuang	-11692
▁berbulan	-11693
▁melonjak	-11694
▁mengalir	-11695
▁rekayasa	-11696
▁skenario	-11697
▁terburuk	-11698
arisbawahi	-11699
▁Karnavian	-11700
▁terbentuk	-11701
ekomunikasi	-11702
▁pembakaran	-11703
▁pengabdian	-11704
▁pungkasnya	-11705
▁simpatisan	-11706
▁mengendarai	-11707
▁mencontohkan	-11708
VP	-11709
Sul	-11710
bag	-11711
dha	-11712
ion	-11713
▁Yu	-11714
Meng	-11715
abad	-11716
araf	-11717
care	-11718
ibuk	-11719
mond	-11720
mpan	-11721
▁GBK	-11722
▁Not	-11723
▁PHK	-11724
▁Som	-11725
▁UGM	-11726
▁Yon	-11727
▁sik	-11728
/12),	-11729
jideh	-11730
▁Mati	-11731
▁alum	-11732
▁Fahmi	-11733
▁Ilham	-11734
▁Panja	-11735
▁Posko	-11736
▁Viral	-11737
▁enter	-11738
▁murni	-11739
▁natur	-11740
▁Firman	-11741
▁Invest	-11742
emukakan	-11743
▁Indosat	-11744
▁Waspada	-11745
▁drastis	-11746
▁Badjideh	-11747
▁Jurnalis	-11748
▁Polhukam	-11749
▁koperasi	-11750
▁memburuk	-11751
▁seberapa	-11752
▁Tujuannya	-11753
▁Verhoeven	-11754
▁posisinya	-11755
▁penyiksaan	-11756
▁seluruhnya	-11757
▁keprihatinan	-11758
▁beranggotakan	-11759
▁diperbolehkan	-11760
0-	-11761
4)	-11762
appe	-11763
erdi	-11764
ring	-11765
soft	-11766
▁Gak	-11767
▁buk	-11768
▁reb	-11769
ahasa	-11770
jikan	-11771
orasi	-11772
organ	-11773
▁Adil	-11774
▁Agam	-11775
▁Aris	-11776
▁Biru	-11777
▁Disi	-11778
▁Mali	-11779
▁Obat	-11780
▁Palu	-11781
▁gitu	-11782
amatis	-11783
opedia	-11784
▁Antar	-11785
▁Prima	-11786
▁pompa	-11787
sekolah	-11788
unculan	-11789
▁Emirat	-11790
▁Sekali	-11791
▁Semeru	-11792
▁Gunungk	-11793
▁Holding	-11794
▁didakwa	-11795
▁diguyur	-11796
▁ditulis	-11797
▁kreator	-11798
▁Mahalini	-11799
▁suaranya	-11800
▁terendam	-11801
▁Penjualan	-11802
▁diizinkan	-11803
▁memeriahkan	-11804
▁perselisihan	-11805
▁memprioritaskan	-11806
,2	-11807
98	-11808
LH	-11809
pe	-11810
BKN	-11811
okh	-11812
sem	-11813
▁Jl	-11814
▁MR	-11815
▁PW	-11816
inic	-11817
madi	-11818
▁Lin	-11819
▁Pep	-11820
▁iri	-11821
opang	-11822
vania	-11823
yawan	-11824
▁Bach	-11825
▁Pura	-11826
▁apik	-11827
▁komb	-11828
▁show	-11829
entase	-11830
rahman	-11831
▁10.00	-11832
▁Dirut	-11833
▁Hendy	-11834
▁Liter	-11835
▁dimin	-11836
Melalui	-11837
alongan	-11838
juaraan	-11839
▁Antony	-11840
▁Austin	-11841
▁series	-11842
ahabatan	-11843
enjangan	-11844
▁Penulis	-11845
▁berkala	-11846
▁kejutan	-11847
▁kemarau	-11848
▁pemohon	-11849
▁tekstil	-11850
▁menarget	-11851
▁petunjuk	-11852
angsungkan	-11853
▁instruksi	-11854
▁dimulainya	-11855
▁fungsional	-11856
▁mendeteksi	-11857
▁menyajikan	-11858
▁menyumbang	-11859
▁peternakan	-11860
▁Gunungkidul	-11861
▁pelestarian	-11862
▁dilakukannya	-11863
▁diwawancarai	-11864
▁keseimbangan	-11865
▁keterbatasan	-11866
▁Infrastruktur	-11867
▁pemberhentian	-11868
Rp	-11869
UK	-11870
can	-11871
dil	-11872
edd	-11873
keb	-11874
lus	-11875
tah	-11876
▁46	-11877
▁98	-11878
aret	-11879
ball	-11880
nsyl	-11881
oyal	-11882
▁Rej	-11883
▁Say	-11884
▁tub	-11885
barui	-11886
empah	-11887
esaan	-11888
▁2000	-11889
▁Main	-11890
▁Rano	-11891
▁Step	-11892
▁duel	-11893
▁food	-11894
▁keri	-11895
Pelaku	-11896
ajinan	-11897
arudin	-11898
encian	-11899
ibraka	-11900
▁Irfan	-11901
▁Marga	-11902
▁Maria	-11903
▁Oscar	-11904
▁Tasik	-11905
▁Teddy	-11906
▁sedih	-11907
ayarkan	-11908
▁Bhakti	-11909
▁Ekspor	-11910
▁Farhan	-11911
▁Indeks	-11912
▁Manado	-11913
▁Mbappe	-11914
▁Miller	-11915
▁Posisi	-11916
▁Syarif	-11917
▁berbel	-11918
▁berkeb	-11919
▁memuat	-11920
▁tersel	-11921
idatonya	-11922
▁Jessica	-11923
▁Perwira	-11924
▁Terbuka	-11925
▁memohon	-11926
nsylvania	-11927
overnance	-11928
▁Walaupun	-11929
▁pahlawan	-11930
▁profesor	-11931
▁rekannya	-11932
▁Kemenpora	-11933
▁Luncurkan	-11934
▁Machmudin	-11935
▁produknya	-11936
ublikasikan	-11937
▁Pekalongan	-11938
▁pemotongan	-11939
▁kebahagiaan	-11940
▁penampungan	-11941
DK	-11942
TU	-11943
uo	-11944
ato	-11945
▁53	-11946
▁SC	-11947
/6),	-11948
ains	-11949
kali	-11950
obel	-11951
odoh	-11952
ogok	-11953
pati	-11954
uhur	-11955
umer	-11956
▁Jet	-11957
▁alk	-11958
▁pay	-11959
LATAN	-11960
aijan	-11961
amaah	-11962
ganda	-11963
yaris	-11964
▁Blok	-11965
▁Eksp	-11966
▁Kopi	-11967
▁Saja	-11968
▁memo	-11969
▁pita	-11970
alinya	-11971
ancial	-11972
minton	-11973
pinang	-11974
▁Korps	-11975
▁Lokal	-11976
▁Maung	-11977
▁Pesta	-11978
▁Plaza	-11979
▁serat	-11980
ecutive	-11981
luencer	-11982
▁Hendra	-11983
▁semula	-11984
endahara	-11985
▁GIANYAR	-11986
▁Ibrahim	-11987
▁Konflik	-11988
▁Merauke	-11989
▁SELATAN	-11990
▁bungkus	-11991
▁Anugerah	-11992
▁akademik	-11993
▁gemilang	-11994
▁penderit	-11995
▁Akibatnya	-11996
▁Pengelola	-11997
▁Tantangan	-11998
▁jangkauan	-11999
▁kebocoran	-12000
▁munculnya	-12001
▁dimasukkan	-12002
▁memamerkan	-12003
▁perhelatan	-12004
▁Pennsylvania	-12005
▁merencanakan	-12006
▁Kesejahteraan	-12007
▁berkesempatan	-12008
95	-12009
-29	-12010
Mem	-12011
kop	-12012
▁Hu	-12013
imen	-12014
▁700	-12015
▁APK	-12016
▁LRT	-12017
▁Nor	-12018
▁Pin	-12019
▁Uno	-12020
▁sum	-12021
▁Adhi	-12022
▁Buku	-12023
▁Tris	-12024
▁liga	-12025
akitan	-12026
eteran	-12027
▁Henry	-12028
▁Iklim	-12029
▁Kodam	-12030
▁bantu	-12031
▁cagub	-12032
▁demam	-12033
▁sibuk	-12034
▁urine	-12035
asangan	-12036
eritahu	-12037
idupkan	-12038
▁Berkat	-12039
▁Soesat	-12040
▁dengar	-12041
▁keenam	-12042
▁seumur	-12043
okasikan	-12044
▁Charles	-12045
▁ditunda	-12046
▁kelamin	-12047
▁menggel	-12048
▁Agustina	-12049
▁dituntut	-12050
▁kedudukan	-12051
▁penawaran	-12052
▁pidatonya	-12053
▁puskesmas	-12054
▁terhitung	-12055
▁disaksikan	-12056
▁terpenting	-12057
▁penyerangan	-12058
▁diperhatikan	-12059
▁diselamatkan	-12060
▁keimigrasian	-12061
▁laboratorium	-12062
▁penghormatan	-12063
Gus	-12064
PSK	-12065
gor	-12066
zes	-12067
-21,	-12068
ific	-12069
onia	-12070
▁Jum	-12071
▁Mim	-12072
▁cac	-12073
janto	-12074
kedua	-12075
murti	-12076
▁Agar	-12077
▁Ipda	-12078
▁PTPN	-12079
▁Seto	-12080
▁Toko	-12081
▁manc	-12082
▁peta	-12083
▁post	-12084
ayanya	-12085
ecahan	-12086
imeter	-12087
▁Bahas	-12088
▁Kadiv	-12089
▁Promo	-12090
▁Sandi	-12091
▁Siber	-12092
▁Sukar	-12093
▁dipad	-12094
▁vital	-12095
ancuran	-12096
restasi	-12097
ustomer	-12098
yawarah	-12099
▁Berlin	-12100
▁Centre	-12101
▁Mandal	-12102
▁Ponpes	-12103
▁Potret	-12104
▁Seribu	-12105
erbaijan	-12106
unculkan	-12107
▁Belanja	-12108
▁Wahyudi	-12109
▁asisten	-12110
▁membuah	-12111
▁sayuran	-12112
▁Produksi	-12113
▁Soesatyo	-12114
▁Wartawan	-12115
▁berjuluk	-12116
▁keahlian	-12117
▁alasannya	-12118
▁kejaksaan	-12119
▁mencoblos	-12120
▁Sebaliknya	-12121
▁disebutnya	-12122
▁geopolitik	-12123
▁kepresidenan	-12124
▁menggabungkan	-12125
▁menggarisbawahi	-12126
qi	-12127
ye	-12128
AMP	-12129
DPR	-12130
GBT	-12131
Sep	-12132
jil	-12133
mir	-12134
▁AW	-12135
▁MI	-12136
▁do	-12137
/8),	-12138
edjo	-12139
ikus	-12140
▁195	-12141
▁Ard	-12142
▁Bit	-12143
▁Gem	-12144
▁IBL	-12145
▁Jud	-12146
▁MUI	-12147
/11),	-12148
emier	-12149
masin	-12150
▁Kusn	-12151
▁Soeh	-12152
▁duta	-12153
▁ketu	-12154
▁ragu	-12155
▁sewa	-12156
ahanya	-12157
ilitas	-12158
▁19.00	-12159
▁Dumai	-12160
▁Lahad	-12161
▁Lebat	-12162
▁ingat	-12163
▁mesti	-12164
▁Itulah	-12165
▁Kenapa	-12166
▁Mahard	-12167
▁mengag	-12168
▁milisi	-12169
▁peraih	-12170
intahkan	-12171
serangan	-12172
▁Gugatan	-12173
▁Mardani	-12174
▁Sejarah	-12175
▁ranking	-12176
▁teratas	-12177
▁terekam	-12178
▁Berdasar	-12179
▁diserang	-12180
▁Pangkalan	-12181
▁berukuran	-12182
▁bisnisnya	-12183
▁keracunan	-12184
▁Kedatangan	-12185
▁menghitung	-12186
▁swasembada	-12187
▁intelektual	-12188
▁konsekuensi	-12189
▁solidaritas	-12190
UA	-12191
ree	-12192
tau	-12193
▁JI	-12194
berg	-12195
desa	-12196
iani	-12197
isir	-12198
misi	-12199
otoh	-12200
ujar	-12201
▁Lut	-12202
▁SUK	-12203
▁Sak	-12204
tokoh	-12205
▁Baca	-12206
▁Enam	-12207
▁Prih	-12208
▁Tern	-12209
▁brut	-12210
▁jeda	-12211
▁nota	-12212
▁sind	-12213
ebalan	-12214
ecatan	-12215
obolan	-12216
▁Deddy	-12217
▁Hewan	-12218
▁Kader	-12219
▁Panas	-12220
▁Ricky	-12221
erdijat	-12222
▁Bareng	-12223
▁Kajian	-12224
▁Marsel	-12225
▁hormat	-12226
▁Bedagai	-12227
▁Munster	-12228
▁Sedikit	-12229
▁Simpang	-12230
▁organik	-12231
anggotaan	-12232
elligence	-12233
▁Michigan	-12234
▁Tercatat	-12235
▁menggali	-12236
▁perannya	-12237
▁tampilan	-12238
▁Berbicara	-12239
▁Moerdijat	-12240
▁berperang	-12241
▁memenangi	-12242
▁Conference	-12243
▁Pegunungan	-12244
▁Pengumuman	-12245
▁dilindungi	-12246
▁legislator	-12247
▁membuahkan	-12248
▁menyangkut	-12249
▁meramaikan	-12250
▁mancanegara	-12251
▁mengupayakan	-12252
▁perbincangan	-12253
1/	-12254
OP	-12255
br	-12256
ng	-12257
-21	-12258
-25	-12259
/20	-12260
TPP	-12261
ape	-12262
kam	-12263
opo	-12264
ruk	-12265
tay	-12266
▁99	-12267
▁KN	-12268
▁KR	-12269
▁PJ	-12270
asir	-12271
esco	-12272
gawa	-12273
▁Ast	-12274
▁Def	-12275
▁Fil	-12276
▁Jej	-12277
▁Mau	-12278
▁Out	-12279
▁lun	-12280
cauan	-12281
lines	-12282
tiban	-12283
▁Asri	-12284
▁Merc	-12285
▁Road	-12286
▁SMAN	-12287
▁Temp	-12288
▁asap	-12289
▁info	-12290
dasmen	-12291
iation	-12292
nalpot	-12293
umbung	-12294
▁Inara	-12295
▁Pintu	-12296
▁Ponti	-12297
▁opini	-12298
elusuri	-12299
▁Tampil	-12300
▁klasik	-12301
▁meriah	-12302
▁penerb	-12303
▁sampel	-12304
▁sprint	-12305
inisiasi	-12306
tributor	-12307
▁Gandeng	-12308
▁Jinping	-12309
▁barisan	-12310
▁besaran	-12311
▁dijerat	-12312
▁gerbang	-12313
▁mediasi	-12314
▁Konsumen	-12315
▁bercerai	-12316
▁database	-12317
▁membesar	-12318
industrian	-12319
▁Indikator	-12320
▁bentrokan	-12321
▁eksternal	-12322
▁hilirisasi	-12323
▁menjunjung	-12324
▁sebetulnya	-12325
▁semestinya	-12326
▁menyalahkan	-12327
▁ditindaklanjuti	-12328
300	-12329
Kab	-12330
Kal	-12331
seb	-12332
taz	-12333
ury	-12334
▁BS	-12335
▁IX	-12336
anai	-12337
apis	-12338
enim	-12339
▁Cat	-12340
▁Van	-12341
▁kru	-12342
Semua	-12343
awasi	-12344
betul	-12345
bukti	-12346
umbar	-12347
▁1945	-12348
▁Djar	-12349
▁Inhu	-12350
▁Meta	-12351
▁Misi	-12352
▁Rini	-12353
▁Visi	-12354
▁biji	-12355
▁cari	-12356
etabek	-12357
imbing	-12358
▁Dekan	-12359
▁Micro	-12360
▁Youth	-12361
▁kaget	-12362
uranmor	-12363
▁Komjen	-12364
▁Kompas	-12365
▁Mentan	-12366
▁Serbia	-12367
▁bandar	-12368
▁ilmiah	-12369
▁poster	-12370
ekacauan	-12371
▁Penajam	-12372
▁Tentang	-12373
▁migrasi	-12374
▁tulisan	-12375
onstruksi	-12376
▁Profesor	-12377
▁dasarnya	-12378
▁Harimurti	-12379
▁Kehakiman	-12380
▁Pontianak	-12381
▁kepatuhan	-12382
▁terhubung	-12383
▁demokratis	-12384
▁kebanggaan	-12385
▁penyusunan	-12386
▁Penangkapan	-12387
▁Perencanaan	-12388
▁diprakirakan	-12389
44	-12390
GB	-12391
tt	-12392
Ins	-12393
Iya	-12394
ady	-12395
bab	-12396
bit	-12397
iho	-12398
ose	-12399
▁95	-12400
Purn	-12401
WANG	-12402
ness	-12403
ukim	-12404
▁Akh	-12405
▁Eur	-12406
▁Lok	-12407
▁Sja	-12408
▁adu	-12409
▁baw	-12410
antis	-12411
embok	-12412
rutan	-12413
▁Alun	-12414
▁Paes	-12415
▁Puji	-12416
▁Truk	-12417
▁Usai	-12418
▁serv	-12419
alsuan	-12420
▁Alban	-12421
▁Mudah	-12422
▁Peneg	-12423
▁koper	-12424
▁siswi	-12425
▁sport	-12426
▁Cerita	-12427
▁Santri	-12428
▁Tamara	-12429
▁mentah	-12430
▁museum	-12431
▁olahan	-12432
▁sekret	-12433
▁visual	-12434
▁Panjang	-12435
▁aksinya	-12436
▁defisit	-12437
▁irigasi	-12438
▁radikal	-12439
▁Terdakwa	-12440
▁tercipta	-12441
▁Executive	-12442
▁Lahadalia	-12443
▁Panjaitan	-12444
▁Pengungsi	-12445
▁Penyerang	-12446
▁indikator	-12447
▁kantornya	-12448
▁menyikapi	-12449
▁penarikan	-12450
▁penundaan	-12451
▁monitoring	-12452
▁pengejaran	-12453
▁Banjarmasin	-12454
▁Operasional	-12455
▁Transformasi	-12456
▁diskriminasi	-12457
,1	-12458
OK	-12459
ts	-12460
-0.	-12461
.55	-12462
KDN	-12463
jol	-12464
low	-12465
nie	-12466
ole	-12467
tin	-12468
udo	-12469
val	-12470
won	-12471
▁om	-12472
▁qu	-12473
/4),	-12474
Foto	-12475
idor	-12476
ongs	-12477
▁DPO	-12478
adjar	-12479
merce	-12480
turan	-12481
▁BALI	-12482
▁Bara	-12483
▁Must	-12484
▁Rafi	-12485
▁Yudi	-12486
padaan	-12487
urigai	-12488
warnai	-12489
▁2018,	-12490
▁Rokok	-12491
▁Sakti	-12492
▁bengk	-12493
▁gajah	-12494
▁galon	-12495
▁huruf	-12496
▁mafia	-12497
▁perek	-12498
▁start	-12499
udaraan	-12500
unching	-12501
▁Bakrie	-12502
▁Kusuma	-12503
▁Markas	-12504
▁Produc	-12505
▁Propam	-12506
▁Sjafri	-12507
commerce	-12508
▁Francis	-12509
▁Penjara	-12510
▁jenjang	-12511
▁melatih	-12512
▁meminim	-12513
▁saatnya	-12514
▁striker	-12515
▁virtual	-12516
▁Malamnya	-12517
▁Mardiono	-12518
▁Nantinya	-12519
▁Platform	-12520
▁Terhadap	-12521
▁mangrove	-12522
▁masuknya	-12523
▁Sayangnya	-12524
▁dibacakan	-12525
▁korporasi	-12526
▁memproses	-12527
▁pelayaran	-12528
▁perebutan	-12529
▁pinggiran	-12530
▁Azerbaijan	-12531
▁dibuktikan	-12532
▁diwujudkan	-12533
▁pembuangan	-12534
▁penertiban	-12535
▁pertukaran	-12536
▁politiknya	-12537
▁kemandirian	-12538
▁kontroversi	-12539
▁pemberitaan	-12540
▁melestarikan	-12541
▁perbuatannya	-12542
▁terinspirasi	-12543
Ke	-12544
NC	-12545
-18	-12546
BPN	-12547
▁76	-12548
PDIP	-12549
ador	-12550
imul	-12551
loud	-12552
pong	-12553
▁Ash	-12554
▁PAS	-12555
▁Qod	-12556
▁Saw	-12557
▁ent	-12558
▁fan	-12559
▁ten	-12560
ankan	-12561
apore	-12562
duser	-12563
▁Ilir	-12564
▁rugi	-12565
atukan	-12566
tingen	-12567
▁Gajah	-12568
▁Ganda	-12569
▁Pakai	-12570
▁Panji	-12571
▁Rekor	-12572
▁Saham	-12573
▁Saran	-12574
▁Tengg	-12575
▁dipul	-12576
▁gerai	-12577
▁Hendri	-12578
▁Lumpur	-12579
▁Rafael	-12580
▁dibagi	-12581
▁ketemu	-12582
▁Bertemu	-12583
▁Catatan	-12584
▁Pelindo	-12585
▁Strateg	-12586
▁Twitter	-12587
▁diawali	-12588
▁memburu	-12589
interaksi	-12590
▁Kemenkes	-12591
▁Tanggung	-12592
▁lintasan	-12593
▁pendidik	-12594
▁semester	-12595
▁terjalin	-12596
▁usahanya	-12597
▁Mandalika	-12598
▁Meningkat	-12599
▁dipandang	-12600
▁ilustrasi	-12601
▁kebencian	-12602
▁menggugat	-12603
▁pelaksana	-12604
▁spiritual	-12605
▁Insyaallah	-12606
▁Perjalanan	-12607
▁diinisiasi	-12608
▁penyisihan	-12609
▁berprestasi	-12610
▁berinteraksi	-12611
▁berkompetisi	-12612
▁ditinggalkan	-12613
BY	-12614
MD	-12615
Si	-12616
ym	-12617
Dan	-12618
ipu	-12619
nus	-12620
▁MH	-12621
▁Za	-12622
enge	-12623
stan	-12624
▁Cal	-12625
▁Cas	-12626
▁Emb	-12627
▁Faj	-12628
▁Tun	-12629
▁peb	-12630
ajaya	-12631
field	-12632
inong	-12633
ropis	-12634
usila	-12635
▁BUMD	-12636
▁Suku	-12637
▁kiai	-12638
▁lega	-12639
▁utuh	-12640
ajatan	-12641
ership	-12642
esanan	-12643
▁Candi	-12644
▁Idzes	-12645
▁bayar	-12646
▁bonus	-12647
/2024),	-12648
▁Mobile	-12649
▁Petrus	-12650
▁Urusan	-12651
▁amanat	-12652
▁halnya	-12653
▁mengas	-12654
▁Nigeria	-12655
▁alkohol	-12656
▁serikat	-12657
ektivitas	-12658
▁Airlines	-12659
▁Prestasi	-12660
▁harganya	-12661
▁prihatin	-12662
▁Kompetisi	-12663
▁Sampaikan	-12664
▁Singapore	-12665
▁dilarikan	-12666
▁penyintas	-12667
▁kepabeanan	-12668
▁pendalaman	-12669
▁pribadinya	-12670
▁Kesepakatan	-12671
▁identifikasi	-12672
▁Perindustrian	-12673
▁memperebutkan	-12674
Ad	-12675
GC	-12676
LN	-12677
-14	-12678
BUM	-12679
act	-12680
hur	-12681
ifa	-12682
pox	-12683
rek	-12684
ror	-12685
▁52	-12686
▁MT	-12687
▁mi	-12688
arag	-12689
ider	-12690
▁Cur	-12691
▁Hit	-12692
▁UNI	-12693
Polda	-12694
adian	-12695
bogan	-12696
indar	-12697
omuko	-12698
onial	-12699
upkan	-12700
▁2011	-12701
▁Apel	-12702
▁dika	-12703
▁inti	-12704
▁kong	-12705
▁laba	-12706
Armuji	-12707
malaya	-12708
mpulan	-12709
rianto	-12710
▁Alami	-12711
▁Anton	-12712
▁Asian	-12713
▁Lippo	-12714
▁Modal	-12715
▁Perak	-12716
▁antre	-12717
▁karet	-12718
▁Kolomb	-12719
▁Pandeg	-12720
▁diolah	-12721
▁kacang	-12722
erikanan	-12723
▁Patroli	-12724
▁Perkuat	-12725
▁angkasa	-12726
▁talenta	-12727
Palestina	-12728
ingkirkan	-12729
waspadaan	-12730
▁Agustiar	-12731
▁Cibinong	-12732
▁Mengenai	-12733
▁Mukomuko	-12734
▁Rakernas	-12735
▁personal	-12736
▁petinggi	-12737
▁predikat	-12738
▁Perikanan	-12739
▁instrumen	-12740
▁kepadatan	-12741
▁kolesterol	-12742
▁militernya	-12743
▁pasukannya	-12744
68	-12745
▁.	-12746
ask	-12747
eel	-12748
sep	-12749
▁64	-12750
▁Gi	-12751
alun	-12752
cius	-12753
ever	-12754
idap	-12755
ikot	-12756
tump	-12757
wara	-12758
▁BPS	-12759
▁Fab	-12760
▁Isa	-12761
▁Kai	-12762
▁PMK	-12763
▁Rap	-12764
▁Tud	-12765
▁UUD	-12766
▁por	-12767
Jabar	-12768
apang	-12769
iktif	-12770
imbun	-12771
orban	-12772
unani	-12773
▁2009	-12774
▁Info	-12775
▁Rasa	-12776
▁Rism	-12777
▁sand	-12778
manuel	-12779
mosfer	-12780
urangi	-12781
▁Asing	-12782
▁Janji	-12783
▁Luluk	-12784
▁Sulut	-12785
▁cabai	-12786
▁gugur	-12787
▁kenal	-12788
▁kotor	-12789
▁menel	-12790
▁menun	-12791
Pemprov	-12792
enovasi	-12793
senjata	-12794
▁Amanat	-12795
▁Baznas	-12796
▁Pengan	-12797
▁Zulhas	-12798
▁dipenj	-12799
▁gegara	-12800
▁konvoi	-12801
▁kredib	-12802
▁langka	-12803
▁system	-12804
▁timbul	-12805
ikdasmen	-12806
yeksikan	-12807
▁Jenazah	-12808
▁Ternate	-12809
▁menguji	-12810
▁seragam	-12811
ekerjakan	-12812
▁Pangeran	-12813
▁terendah	-12814
▁terhenti	-12815
▁dikaitkan	-12816
▁integrasi	-12817
▁kontrakan	-12818
▁mahasiswi	-12819
▁sendirian	-12820
▁vaksinasi	-12821
▁demonstran	-12822
▁Penerbangan	-12823
▁pemeliharaan	-12824
▁pemberitahuan	-12825
▁pemerintahannya	-12826
nu	-12827
DPD	-12828
ake	-12829
akm	-12830
hen	-12831
uap	-12832
▁63	-12833
▁PC	-12834
▁Sm	-12835
▁et	-12836
▁na	-12837
▁th	-12838
alat	-12839
cell	-12840
iano	-12841
osil	-12842
▁UIN	-12843
▁dri	-12844
▁Fred	-12845
▁Genc	-12846
▁Mata	-12847
▁Riza	-12848
▁amal	-12849
▁jend	-12850
ikanan	-12851
▁08.00	-12852
▁Djoko	-12853
▁Madya	-12854
▁Milan	-12855
▁Rohul	-12856
▁kanal	-12857
▁mohon	-12858
▁tekad	-12859
Amerika	-12860
ertakan	-12861
▁10.000	-12862
▁Tangan	-12863
▁berkec	-12864
▁dagang	-12865
▁Berikan	-12866
▁Bobotoh	-12867
▁Kencana	-12868
▁pemasok	-12869
▁rentang	-12870
▁syuting	-12871
▁terbagi	-12872
▁KemenPAN	-12873
▁Kemenhub	-12874
▁bertulis	-12875
▁ekspansi	-12876
▁training	-12877
▁2024-2025	-12878
▁Persiapan	-12879
▁emosional	-12880
▁mengenang	-12881
▁pemikiran	-12882
▁perikanan	-12883
▁berbelanja	-12884
▁mempererat	-12885
▁menegakkan	-12886
▁pencemaran	-12887
▁Keselamatan	-12888
▁kesenjangan	-12889
▁mengedukasi	-12890
6)	-12891
nd	-12892
▁+	-12893
25/	-12894
dis	-12895
ier	-12896
net	-12897
▁KC	-12898
▁mm	-12899
aini	-12900
burg	-12901
coin	-12902
erbu	-12903
kala	-12904
▁Atl	-12905
▁BWF	-12906
▁ITS	-12907
▁Kid	-12908
▁Kro	-12909
▁rai	-12910
antun	-12911
urity	-12912
▁Efek	-12913
▁Gala	-12914
▁Jane	-12915
▁Neta	-12916
▁Terj	-12917
▁mump	-12918
▁tepi	-12919
ecuali	-12920
ondasi	-12921
▁Anind	-12922
▁Event	-12923
▁Memas	-12924
▁Resor	-12925
▁Royal	-12926
▁Sanur	-12927
▁Tahap	-12928
▁Tolak	-12929
▁aduan	-12930
▁rumit	-12931
anyekan	-12932
umuskan	-12933
▁Jemaah	-12934
▁ajaran	-12935
▁alamat	-12936
angguhan	-12937
▁Founder	-12938
▁Profesi	-12939
▁Zakiyah	-12940
▁fashion	-12941
▁Brigadir	-12942
▁Grobogan	-12943
▁Terdapat	-12944
▁berlibur	-12945
▁dihitung	-12946
▁forensik	-12947
▁kerjanya	-12948
▁2019-2024	-12949
▁Gilimanuk	-12950
▁Pemberian	-12951
▁kesaksian	-12952
▁percobaan	-12953
▁prosesnya	-12954
▁berbincang	-12955
▁melemahkan	-12956
▁pengembang	-12957
▁Tasikmalaya	-12958
▁konservatif	-12959
▁perlintasan	-12960
▁perlengkapan	-12961
▁Elektabilitas	-12962
▁mempersembahkan	-12963
93	-12964
/09	-12965
800	-12966
KRI	-12967
Kan	-12968
edy	-12969
ven	-12970
▁57	-12971
▁Ih	-12972
▁Oc	-12973
▁Vo	-12974
ango	-12975
atri	-12976
ekor	-12977
etum	-12978
ford	-12979
reat	-12980
uana	-12981
▁1.0	-12982
▁Baw	-12983
▁ICE	-12984
▁Nab	-12985
▁Uji	-12986
arani	-12987
eperg	-12988
riadi	-12989
tagon	-12990
uncur	-12991
utsal	-12992
▁Berj	-12993
▁Fard	-12994
▁Slav	-12995
ratman	-12996
▁Abbas	-12997
▁Bukti	-12998
▁Erwin	-12999
▁Firda	-13000
▁Gatot	-13001
▁Graha	-13002
▁Kenya	-13003
▁Klaim	-13004
▁Syams	-13005
▁ranah	-13006
anjakan	-13007
▁Aturan	-13008
▁Bawang	-13009
▁Fadjar	-13010
▁Muzani	-13011
▁Protes	-13012
▁Public	-13013
▁Taspen	-13014
▁Victor	-13015
▁bersek	-13016
▁donasi	-13017
▁fleksi	-13018
▁langit	-13019
▁tolong	-13020
Kemudian	-13021
▁Tangsel	-13022
▁berbuka	-13023
▁dipecat	-13024
▁katakan	-13025
▁kembang	-13026
▁golongan	-13027
▁ideologi	-13028
▁kerangka	-13029
▁menutupi	-13030
▁terlapor	-13031
▁warganya	-13032
▁Transaksi	-13033
▁pelaporan	-13034
▁perlakuan	-13035
▁Kedokteran	-13036
▁Pandeglang	-13037
▁menandakan	-13038
▁pengesahan	-13039
▁Perhimpunan	-13040
▁ditunjukkan	-13041
▁optimalisasi	-13042
eu	-13043
Qur	-13044
URA	-13045
ney	-13046
yen	-13047
aidi	-13048
inas	-13049
opor	-13050
ship	-13051
unis	-13052
▁Aur	-13053
▁Jag	-13054
▁Pic	-13055
▁Ulu	-13056
▁Web	-13057
▁bau	-13058
▁pam	-13059
aruan	-13060
edisi	-13061
gresi	-13062
imasi	-13063
inder	-13064
▁Agen	-13065
▁Alat	-13066
▁Arus	-13067
▁CASN	-13068
▁Fauz	-13069
▁Feri	-13070
▁Ogan	-13071
▁Soni	-13072
▁Year	-13073
▁jari	-13074
▁kuda	-13075
▁Belak	-13076
▁Jules	-13077
▁Minum	-13078
▁Persa	-13079
▁Sonny	-13080
▁Watch	-13081
▁benih	-13082
▁sentu	-13083
aksakan	-13084
julukan	-13085
▁Damkar	-13086
▁Desain	-13087
▁Golden	-13088
▁Yunani	-13089
▁adegan	-13090
▁cairan	-13091
▁legend	-13092
embagaan	-13093
▁Austria	-13094
▁Bangkok	-13095
▁Central	-13096
▁Digelar	-13097
▁Jabatan	-13098
▁Kemenko	-13099
▁ditarik	-13100
▁spesies	-13101
engurusan	-13102
▁Kekayaan	-13103
▁Perairan	-13104
▁binatang	-13105
▁komputer	-13106
▁persepsi	-13107
▁Francesco	-13108
▁Satlantas	-13109
▁Supratman	-13110
▁diplomasi	-13111
▁pensiunan	-13112
▁terpenuhi	-13113
▁pegunungan	-13114
▁entertainment	-13115
23/	-13116
con	-13117
wat	-13118
▁XI	-13119
▁af	-13120
▁cm	-13121
▁ko	-13122
iliw	-13123
▁ATM	-13124
▁Gub	-13125
▁Iya	-13126
▁Kaz	-13127
▁PAD	-13128
▁Suf	-13129
▁Wag	-13130
▁nol	-13131
egiat	-13132
olasi	-13133
urney	-13134
ustak	-13135
▁Ball	-13136
▁Bila	-13137
▁Buat	-13138
▁Zona	-13139
▁play	-13140
anting	-13141
paslon	-13142
▁Danau	-13143
▁Gagal	-13144
▁Murah	-13145
▁Tower	-13146
▁keham	-13147
▁patah	-13148
▁sifat	-13149
▁Ciamis	-13150
▁Clinic	-13151
▁Sanksi	-13152
▁Simanj	-13153
▁busana	-13154
▁maksud	-13155
▁mengor	-13156
▁Periode	-13157
▁dipaksa	-13158
▁imbalan	-13159
▁kambing	-13160
▁menaruh	-13161
▁Pengguna	-13162
▁bebernya	-13163
▁dramatis	-13164
▁penguasa	-13165
▁Tangkapan	-13166
▁kedapatan	-13167
▁kehamilan	-13168
▁kelayakan	-13169
▁komposisi	-13170
▁korbannya	-13171
▁menyangka	-13172
▁pengusung	-13173
indikasikan	-13174
▁penculikan	-13175
integrasikan	-13176
▁hubungannya	-13177
AG	-13178
OC	-13179
Ph	-13180
ys	-13181
pad	-13182
▁68	-13183
▁XV	-13184
isau	-13185
▁Kum	-13186
▁Reb	-13187
▁TPI	-13188
▁Ten	-13189
▁luk	-13190
Humas	-13191
ampek	-13192
ilbab	-13193
lying	-13194
oster	-13195
▁Cita	-13196
▁ESDM	-13197
▁Guna	-13198
▁Klok	-13199
▁Klub	-13200
▁Play	-13201
▁Posi	-13202
▁Susu	-13203
Sumsel	-13204
ensasi	-13205
onakan	-13206
▁Kunci	-13207
▁Menlu	-13208
▁Music	-13209
▁kakek	-13210
▁polit	-13211
▁sumut	-13212
▁terit	-13213
Sebagai	-13214
▁Azizah	-13215
▁Candra	-13216
▁Risiko	-13217
▁Temuan	-13218
▁bersel	-13219
▁maksim	-13220
▁nyaris	-13221
▁Jajaran	-13222
▁Premier	-13223
▁disusul	-13224
▁kiriman	-13225
▁kisaran	-13226
▁komando	-13227
▁memasok	-13228
▁menyamb	-13229
▁reguler	-13230
▁terjual	-13231
▁Soeharto	-13232
▁terulang	-13233
▁Ketahanan	-13234
▁terkadang	-13235
istribusian	-13236
▁Pelantikan	-13237
▁Perdamaian	-13238
▁dijatuhkan	-13239
▁bertuliskan	-13240
▁mengalihkan	-13241
▁penderitaan	-13242
▁pertolongan	-13243
▁kunjungannya	-13244
▁menggerakkan	-13245
▁dikhawatirkan	-13246
▁mempertemukan	-13247
96	-13248
JI	-13249
Sh	-13250
rt	-13251
elo	-13252
udy	-13253
yel	-13254
zer	-13255
▁AK	-13256
▁Md	-13257
Berd	-13258
Para	-13259
ardi	-13260
ekap	-13261
etat	-13262
ihad	-13263
imda	-13264
reak	-13265
▁Cre	-13266
▁LBH	-13267
▁Pah	-13268
▁tag	-13269
ahnya	-13270
karya	-13271
risis	-13272
▁Disk	-13273
▁KLHK	-13274
▁MIND	-13275
▁Tiba	-13276
arkasi	-13277
irawan	-13278
melter	-13279
▁2045.	-13280
▁Aipda	-13281
▁Beras	-13282
▁Biasa	-13283
▁Johns	-13284
▁Modus	-13285
▁Simon	-13286
▁donor	-13287
▁panti	-13288
▁sayur	-13289
▁tukar	-13290
artabat	-13291
emangat	-13292
ongkrak	-13293
▁Bahasa	-13294
▁Kontra	-13295
▁Mundur	-13296
▁Qodari	-13297
▁kronis	-13298
angganya	-13299
▁America	-13300
▁Belajar	-13301
▁Khasiat	-13302
▁Menarik	-13303
▁Siapkan	-13304
▁Soreang	-13305
▁pembawa	-13306
▁selaras	-13307
▁Berharap	-13308
▁Biasanya	-13309
▁Kolombia	-13310
▁akrabnya	-13311
▁eksekusi	-13312
▁matchday	-13313
▁menginap	-13314
▁Marselino	-13315
▁Pengacara	-13316
▁kekacauan	-13317
▁perjudian	-13318
▁Hermansyah	-13319
▁persentase	-13320
▁diperpanjang	-13321
anggungjawaban	-13322
SE	-13323
-11	-13324
700	-13325
ego	-13326
fil	-13327
myr	-13328
pek	-13329
rap	-13330
ure	-13331
▁BL	-13332
▁aj	-13333
ATAR	-13334
agan	-13335
aldi	-13336
cast	-13337
eluk	-13338
ijab	-13339
iton	-13340
pemb	-13341
rell	-13342
uela	-13343
▁6,5	-13344
▁Era	-13345
▁MAK	-13346
▁cur	-13347
ampas	-13348
email	-13349
endag	-13350
eriak	-13351
isang	-13352
untak	-13353
viron	-13354
▁Bent	-13355
▁Leon	-13356
abisan	-13357
imanya	-13358
odymyr	-13359
▁Batik	-13360
▁Encep	-13361
▁Innov	-13362
▁Kadis	-13363
▁Ronny	-13364
▁Tirta	-13365
▁Turut	-13366
▁teori	-13367
▁venue	-13368
adinata	-13369
prinsip	-13370
▁Belgia	-13371
▁Hassan	-13372
▁Labuan	-13373
▁Nasdem	-13374
▁Sugeng	-13375
▁Taruna	-13376
▁ambisi	-13377
▁kapten	-13378
▁pegiat	-13379
▁serang	-13380
▁diganti	-13381
▁gunakan	-13382
▁ketujuh	-13383
▁peledak	-13384
inciannya	-13385
ungguhnya	-13386
vironment	-13387
▁Christie	-13388
▁YouTuber	-13389
▁menemani	-13390
▁Membangun	-13391
▁Rangkaian	-13392
▁Venezuela	-13393
▁Volodymyr	-13394
▁berisikan	-13395
▁kelebihan	-13396
▁kenyataan	-13397
▁penggerak	-13398
▁2024/2025.	-13399
▁Partisipasi	-13400
▁Simanjuntak	-13401
▁efektivitas	-13402
▁kediamannya	-13403
▁mengukuhkan	-13404
▁telekomunikasi	-13405
48	-13406
ART	-13407
NTT	-13408
emo	-13409
fum	-13410
ovi	-13411
pul	-13412
▁KL	-13413
plus	-13414
tara	-13415
ukun	-13416
usuk	-13417
▁IDF	-13418
▁Nic	-13419
▁TAS	-13420
▁Yaq	-13421
▁cat	-13422
▁gue	-13423
▁kat	-13424
▁mac	-13425
▁not	-13426
▁rec	-13427
arten	-13428
metik	-13429
ohong	-13430
track	-13431
umpan	-13432
versi	-13433
wulan	-13434
▁Chen	-13435
▁Pani	-13436
▁Umat	-13437
▁laju	-13438
▁teks	-13439
▁usus	-13440
etusan	-13441
ingati	-13442
ivitas	-13443
ontang	-13444
▁Akses	-13445
▁Kanit	-13446
▁mimpi	-13447
Jakarta	-13448
aharini	-13449
elihara	-13450
▁Burhan	-13451
▁Elesti	-13452
▁Nagita	-13453
▁mengis	-13454
erusalem	-13455
▁Kendari	-13456
▁Kolonel	-13457
▁Tahanan	-13458
▁Tinggal	-13459
▁berkali	-13460
▁berkons	-13461
▁pedoman	-13462
▁penjuru	-13463
▁skandal	-13464
/11/2024)	-13465
▁Kualitas	-13466
▁Literasi	-13467
▁diwakili	-13468
▁kalender	-13469
▁kesatuan	-13470
▁tenggara	-13471
▁dimainkan	-13472
▁kedalaman	-13473
▁kemarahan	-13474
▁kurikulum	-13475
▁pendirian	-13476
▁tangkapan	-13477
▁Elestianto	-13478
▁Paskibraka	-13479
▁Jabodetabek	-13480
▁Rismaharini	-13481
▁memunculkan	-13482
JP	-13483
400	-13484
ASA	-13485
PMI	-13486
lub	-13487
mak	-13488
▁67	-13489
▁FK	-13490
▁ec	-13491
dadu	-13492
eksp	-13493
ewek	-13494
kira	-13495
yawa	-13496
▁Agr	-13497
▁Fit	-13498
▁LSM	-13499
▁Nan	-13500
▁Shi	-13501
▁aja	-13502
▁bac	-13503
▁rak	-13504
eaksi	-13505
lotan	-13506
owoso	-13507
raham	-13508
ungut	-13509
yanya	-13510
▁Bajo	-13511
▁Gita	-13512
▁Tani	-13513
▁demo	-13514
▁vila	-13515
Ketika	-13516
lukkan	-13517
pektif	-13518
pemain	-13519
ulator	-13520
ungkas	-13521
▁Laura	-13522
▁Nunuk	-13523
▁Pasti	-13524
▁Sinar	-13525
▁kabel	-13526
▁nyeri	-13527
▁surya	-13528
orehkan	-13529
umenter	-13530
▁Junior	-13531
▁Sambut	-13532
▁angket	-13533
▁berdoa	-13534
▁cantik	-13535
▁fiktif	-13536
▁kaltim	-13537
▁lubang	-13538
▁runner	-13539
▁sayang	-13540
udaranya	-13541
▁Habibur	-13542
▁Penjaga	-13543
▁Rahasia	-13544
▁Serpong	-13545
▁Slavina	-13546
▁Triliun	-13547
▁advokat	-13548
▁berfoto	-13549
▁selisih	-13550
▁sisanya	-13551
▁sungguh	-13552
▁tanggap	-13553
▁Siangnya	-13554
▁berenang	-13555
▁diwarnai	-13556
▁mengerti	-13557
▁pastikan	-13558
▁penghuni	-13559
▁terbalik	-13560
▁terminal	-13561
▁workshop	-13562
organisasi	-13563
▁Paripurna	-13564
▁dipenjara	-13565
▁elektoral	-13566
▁kerajinan	-13567
▁pemalsuan	-13568
▁pemecatan	-13569
▁pendaftar	-13570
▁sejahtera	-13571
▁tujuannya	-13572
▁Sedikitnya	-13573
▁dijelaskan	-13574
▁diresmikan	-13575
▁psikologis	-13576
▁terkendali	-13577
▁dikumpulkan	-13578
▁menyimpulkan	-13579
▁persahabatan	-13580
▁diperkenalkan	-13581
JPU	-13582
esl	-13583
iny	-13584
loy	-13585
nia	-13586
ros	-13587
uit	-13588
ult	-13589
▁61	-13590
▁Nd	-13591
▁fl	-13592
Pasi	-13593
baya	-13594
ebek	-13595
eher	-13596
epot	-13597
ited	-13598
opot	-13599
▁1-0	-13600
▁ABC	-13601
▁ASI	-13602
▁ATR	-13603
▁Pay	-13604
▁Sip	-13605
▁Wam	-13606
Hasil	-13607
eligi	-13608
empit	-13609
incar	-13610
injak	-13611
onsor	-13612
▁Corn	-13613
▁Etik	-13614
▁Kesi	-13615
▁Lead	-13616
▁Rita	-13617
▁Slov	-13618
▁Tend	-13619
▁aneh	-13620
▁awan	-13621
alisir	-13622
artono	-13623
gresif	-13624
ibanya	-13625
isahan	-13626
▁1.500	-13627
▁2018.	-13628
▁Atasi	-13629
▁Hasib	-13630
▁Munas	-13631
▁Sawit	-13632
▁benua	-13633
▁buron	-13634
▁cetak	-13635
▁human	-13636
▁jahat	-13637
▁loyal	-13638
▁tiang	-13639
▁celana	-13640
▁fraksi	-13641
▁impian	-13642
▁runtuh	-13643
▁tukang	-13644
▁Abraham	-13645
▁Jonatan	-13646
▁Makanya	-13647
▁Melawan	-13648
▁caranya	-13649
▁nirawak	-13650
▁pesepak	-13651
▁progres	-13652
▁sebelas	-13653
▁Gregoria	-13654
▁Terutama	-13655
▁memadati	-13656
▁menonjol	-13657
▁tubuhnya	-13658
▁Financial	-13659
▁Inisiatif	-13660
▁Penasihat	-13661
▁Pendukung	-13662
▁menghibur	-13663
▁Penerimaan	-13664
▁kedokteran	-13665
▁konfirmasi	-13666
▁legendaris	-13667
▁pembekalan	-13668
▁terbaiknya	-13669
▁dokumentasi	-13670
▁kewaspadaan	-13671
▁melayangkan	-13672
▁pengumpulan	-13673
▁konvensional	-13674
▁menghidupkan	-13675
▁memprakirakan	-13676
▁mengindikasikan	-13677
ARI	-13678
Bel	-13679
ile	-13680
kon	-13681
via	-13682
▁62	-13683
▁73	-13684
▁KD	-13685
▁Kg	-13686
▁ov	-13687
alil	-13688
andr	-13689
asio	-13690
orot	-13691
▁Dri	-13692
▁Tib	-13693
▁UMK	-13694
▁rac	-13695
enian	-13696
esain	-13697
▁Bayi	-13698
▁Good	-13699
▁Hard	-13700
▁Isti	-13701
▁baja	-13702
▁beda	-13703
▁derm	-13704
▁marg	-13705
▁otot	-13706
angkir	-13707
epasan	-13708
iringi	-13709
ission	-13710
okhman	-13711
otedjo	-13712
proyek	-13713
▁BRICS	-13714
▁Detik	-13715
▁Hanif	-13716
▁Kebon	-13717
▁Matth	-13718
▁Raden	-13719
▁Sikap	-13720
▁Tepat	-13721
▁Tesla	-13722
▁anyar	-13723
▁batal	-13724
▁dipro	-13725
▁email	-13726
▁garam	-13727
▁nggak	-13728
▁sangg	-13729
Program	-13730
aikindo	-13731
anyikan	-13732
okuskan	-13733
rokimia	-13734
wilayah	-13735
▁Angela	-13736
▁Komang	-13737
▁Lingga	-13738
▁Peradi	-13739
▁aktris	-13740
▁berdua	-13741
▁karang	-13742
▁serial	-13743
anggakan	-13744
antungan	-13745
elusuran	-13746
eorangan	-13747
tificial	-13748
▁Andreas	-13749
▁Gallant	-13750
▁Johnson	-13751
▁Tradisi	-13752
▁barunya	-13753
▁batasan	-13754
▁memecah	-13755
▁mumpuni	-13756
▁pembuka	-13757
▁secepat	-13758
▁tandang	-13759
▁Cipayung	-13760
▁Hasibuan	-13761
▁Maharani	-13762
▁Persikab	-13763
▁harapkan	-13764
▁mengabdi	-13765
▁Bengkalis	-13766
▁beruntung	-13767
▁kebetulan	-13768
▁postingan	-13769
▁terbilang	-13770
▁Kompetensi	-13771
▁harapannya	-13772
▁membedakan	-13773
▁menyamakan	-13774
▁perdebatan	-13775
▁perspektif	-13776
▁dimaksudkan	-13777
▁keanggotaan	-13778
▁Ditreskrimum	-13779
▁Ditreskrimsus	-13780
▁Entertainment	-13781
▁kewarganegaraan	-13782
7)	-13783
EB	-13784
ww	-13785
Ang	-13786
Ber	-13787
Kec	-13788
PPK	-13789
ava	-13790
lai	-13791
osh	-13792
rit	-13793
▁49	-13794
▁78	-13795
▁AN	-13796
arut	-13797
bagi	-13798
date	-13799
diam	-13800
digi	-13801
ehic	-13802
▁Deb	-13803
▁Erd	-13804
▁Rod	-13805
▁fot	-13806
▁jel	-13807
▁sec	-13808
ampus	-13809
dinus	-13810
hutla	-13811
ubara	-13812
▁1998	-13813
▁Asta	-13814
▁Fitr	-13815
▁Futu	-13816
▁Jauh	-13817
▁Laki	-13818
▁Mini	-13819
▁Norw	-13820
▁Race	-13821
▁keji	-13822
▁maya	-13823
▁mini	-13824
▁pram	-13825
▁sepi	-13826
ection	-13827
hiasan	-13828
▁16.00	-13829
▁Berat	-13830
▁Hatta	-13831
▁Libya	-13832
▁Wajib	-13833
▁mered	-13834
▁pagar	-13835
▁prima	-13836
oloskan	-13837
▁Cholil	-13838
▁Hadapi	-13839
▁Hanura	-13840
▁Kelima	-13841
▁Permen	-13842
▁Tampak	-13843
▁assist	-13844
▁ibunda	-13845
▁podium	-13846
▁rektor	-13847
▁santai	-13848
▁terapi	-13849
Kegiatan	-13850
erjasama	-13851
▁Akademi	-13852
▁Bergizi	-13853
▁Bioskop	-13854
▁Inflasi	-13855
▁Maarten	-13856
▁Menghad	-13857
▁Ricardo	-13858
▁Seiring	-13859
▁Setiadi	-13860
▁Sorenya	-13861
▁dermaga	-13862
▁jurusan	-13863
▁lawatan	-13864
▁lukisan	-13865
iskusikan	-13866
▁Ferdinan	-13867
▁Ketapang	-13868
▁Pembalap	-13869
▁berpusat	-13870
▁pengikut	-13871
▁seimbang	-13872
pemerintah	-13873
▁Bondowoso	-13874
▁Tertinggi	-13875
▁Yerusalem	-13876
▁bimbingan	-13877
▁kedekatan	-13878
▁mengantar	-13879
▁mobilitas	-13880
▁dimakamkan	-13881
▁menyatukan	-13882
▁tertanggal	-13883
▁Mengonsumsi	-13884
▁kelestarian	-13885
▁kesepahaman	-13886
▁koordinator	-13887
▁naturalisasi	-13888
▁alhamdulillah	-13889
66	-13890
PC	-13891
amo	-13892
pet	-13893
▁CN	-13894
▁JA	-13895
▁PI	-13896
▁Zi	-13897
▁le	-13898
ingi	-13899
ings	-13900
peri	-13901
▁AEO	-13902
▁PKK	-13903
▁Raz	-13904
▁Rif	-13905
▁Viv	-13906
▁nom	-13907
ABUMI	-13908
bahan	-13909
emban	-13910
ikuts	-13911
nyawa	-13912
sport	-13913
▁BNPB	-13914
▁Free	-13915
▁Sals	-13916
▁logo	-13917
utaran	-13918
▁Cahyo	-13919
▁Mayor	-13920
▁Pensi	-13921
▁Rosan	-13922
▁Walau	-13923
▁Yohan	-13924
▁fosil	-13925
▁logam	-13926
▁radio	-13927
▁skill	-13928
abrikan	-13929
aksimal	-13930
allenge	-13931
anyenya	-13932
menerus	-13933
▁Hubner	-13934
▁Madani	-13935
▁Manila	-13936
▁Summit	-13937
▁hitung	-13938
embalian	-13939
▁Erdogan	-13940
▁Maritim	-13941
▁Matthew	-13942
▁Menjaga	-13943
▁Pacific	-13944
▁amankan	-13945
▁asusila	-13946
▁dihapus	-13947
▁menerus	-13948
▁seharga	-13949
▁Reporter	-13950
▁SUKABUMI	-13951
▁atmosfer	-13952
▁hanyalah	-13953
▁menyakit	-13954
▁pengajar	-13955
▁pilihnya	-13956
▁Brawijaya	-13957
▁Rangkuman	-13958
▁kaitannya	-13959
▁kekebalan	-13960
▁mengamati	-13961
▁merangkul	-13962
▁pemukiman	-13963
▁statistik	-13964
Berdasarkan	-13965
▁Investment	-13966
▁berlindung	-13967
▁dikerjakan	-13968
▁insyaallah	-13969
▁konservasi	-13970
▁terlaksana	-13971
▁berakhirnya	-13972
▁ditimbulkan	-13973
▁kepengurusan	-13974
▁kontroversial	-13975
▁diberangkatkan	-13976
Ex	-13977
KK	-13978
XX	-13979
-31	-13980
col	-13981
mau	-13982
▁TI	-13983
agon	-13984
eder	-13985
emud	-13986
etap	-13987
usim	-13988
▁Doa	-13989
▁LSI	-13990
▁Lil	-13991
▁OJK	-13992
▁Ops	-13993
▁Vik	-13994
▁Wis	-13995
▁ikh	-13996
▁rap	-13997
▁tar	-13998
▁val	-13999
impor	-14000
otasi	-14001
▁Care	-14002
▁Gang	-14003
▁Lion	-14004
▁Tugu	-14005
▁Wira	-14006
▁bend	-14007
▁berv	-14008
▁biar	-14009
▁enak	-14010
▁purn	-14011
▁tali	-14012
▁tank	-14013
Jangan	-14014
aksono	-14015
ebrasi	-14016
orisme	-14017
▁2026.	-14018
▁Chris	-14019
▁Impor	-14020
▁Jusuf	-14021
▁Syari	-14022
▁Tegas	-14023
▁Yaqut	-14024
▁Yesus	-14025
▁areal	-14026
▁audit	-14027
▁bijak	-14028
▁gerak	-14029
▁lunak	-14030
▁simak	-14031
ecahkan	-14032
▁Akadem	-14033
▁Klinik	-14034
▁Muncul	-14035
▁agresi	-14036
▁berser	-14037
▁intens	-14038
▁melamb	-14039
ulingkan	-14040
ustakaan	-14041
▁Berbeda	-14042
▁Budiman	-14043
▁Rudenim	-14044
▁autopsi	-14045
▁entitas	-14046
▁jendela	-14047
▁pungkas	-14048
▁Klasemen	-14049
▁berbahan	-14050
▁mengukur	-14051
▁pencipta	-14052
▁sentuhan	-14053
▁Persikabo	-14054
▁Presenter	-14055
▁meringkus	-14056
▁pembacaan	-14057
▁terpantau	-14058
alahgunakan	-14059
▁Penerangan	-14060
▁manfaatnya	-14061
▁mewajibkan	-14062
▁sekretaris	-14063
▁sesungguhnya	-14064
yad	-14065
▁77	-14066
▁HI	-14067
/1),	-14068
bola	-14069
gaya	-14070
trem	-14071
tura	-14072
unta	-14073
▁Ace	-14074
▁Ban	-14075
▁Bib	-14076
▁Hev	-14077
▁PIK	-14078
▁WWF	-14079
▁cle	-14080
idsus	-14081
kandi	-14082
putra	-14083
rizal	-14084
saksi	-14085
tauan	-14086
ussel	-14087
▁Amil	-14088
▁Lain	-14089
▁Suka	-14090
▁blak	-14091
anahan	-14092
antura	-14093
apusan	-14094
ingkan	-14095
ingung	-14096
mahera	-14097
▁5.000	-14098
▁Dinar	-14099
▁Guter	-14100
▁Marsh	-14101
▁Model	-14102
▁Pilih	-14103
▁Sunda	-14104
▁kolam	-14105
▁suaka	-14106
Pasifik	-14107
egaraan	-14108
▁Lawang	-14109
▁Maming	-14110
▁Norweg	-14111
▁Pinang	-14112
▁Subdit	-14113
▁Supian	-14114
▁membel	-14115
▁zonasi	-14116
undupkan	-14117
▁Batakan	-14118
▁Bontang	-14119
▁dikawal	-14120
▁kotanya	-14121
▁kunjung	-14122
▁optimis	-14123
▁separuh	-14124
▁Beasiswa	-14125
▁Guterres	-14126
▁Mendagri	-14127
▁hadirnya	-14128
▁maksimum	-14129
▁nominasi	-14130
▁pantauan	-14131
▁penjabat	-14132
ampanyekan	-14133
▁Ariotedjo	-14134
▁Halmahera	-14135
▁Penumpang	-14136
▁Prioritas	-14137
▁Tokopedia	-14138
▁berbentuk	-14139
▁dibiarkan	-14140
▁kerawanan	-14141
▁kontestan	-14142
▁Elektronik	-14143
▁Harapannya	-14144
▁dibayarkan	-14145
▁pemerataan	-14146
▁sepertinya	-14147
▁ditampilkan	-14148
▁mengesahkan	-14149
▁penghentian	-14150
▁Transmigrasi	-14151
▁membicarakan	-14152
],	-14153
dok	-14154
eth	-14155
inf	-14156
ory	-14157
pag	-14158
▁72	-14159
▁Ga	-14160
▁Wh	-14161
EDAN	-14162
beda	-14163
esta	-14164
fron	-14165
ohib	-14166
osip	-14167
piji	-14168
▁3-0	-14169
▁Anj	-14170
▁Aut	-14171
▁Big	-14172
▁Dij	-14173
▁Gin	-14174
▁Lai	-14175
▁MAN	-14176
▁UEA	-14177
▁kud	-14178
▁sol	-14179
Wakil	-14180
aluan	-14181
antri	-14182
ianya	-14183
ompat	-14184
porsi	-14185
tures	-14186
▁Bund	-14187
▁Desi	-14188
▁PBSI	-14189
▁Prim	-14190
▁Wind	-14191
alakan	-14192
earita	-14193
enanya	-14194
islasi	-14195
▁Japan	-14196
▁Kamal	-14197
▁Khali	-14198
▁MEDAN	-14199
▁acuan	-14200
▁berke	-14201
▁jatah	-14202
▁judul	-14203
▁kesan	-14204
▁ombak	-14205
▁porsi	-14206
▁razia	-14207
▁sabar	-14208
eriusan	-14209
▁Analis	-14210
▁Beliau	-14211
▁Hotman	-14212
▁Jansen	-14213
▁Makmur	-14214
▁Paniai	-14215
▁Susilo	-14216
▁berint	-14217
▁kasasi	-14218
▁Kontrak	-14219
▁Nelayan	-14220
▁Prihadi	-14221
▁berlari	-14222
▁digagas	-14223
▁dihadap	-14224
▁naungan	-14225
▁sarjana	-14226
▁sentral	-14227
truksikan	-14228
▁Carolina	-14229
▁Langsung	-14230
▁bertrans	-14231
▁diduduki	-14232
▁disimpan	-14233
▁perunggu	-14234
▁tudingan	-14235
▁Bakauheni	-14236
▁Hevearita	-14237
▁terlambat	-14238
▁Pengunjung	-14239
▁memotivasi	-14240
▁menunjukan	-14241
▁Perkumpulan	-14242
▁berkekuatan	-14243
▁dimusnahkan	-14244
▁menyambangi	-14245
▁menyembunyikan	-14246
//	-14247
RW	-14248
WI	-14249
KIM	-14250
cle	-14251
kup	-14252
sah	-14253
▁Pu	-14254
▁TB	-14255
akim	-14256
alai	-14257
amed	-14258
duka	-14259
ivia	-14260
onna	-14261
rise	-14262
tive	-14263
udol	-14264
wang	-14265
▁194	-14266
▁DNA	-14267
▁Mos	-14268
▁Sop	-14269
▁Tuk	-14270
▁ala	-14271
▁kue	-14272
angki	-14273
areng	-14274
divis	-14275
ebani	-14276
esmen	-14277
esyen	-14278
ikkan	-14279
isisi	-14280
ivers	-14281
▁Gold	-14282
▁Grab	-14283
▁Hang	-14284
▁Nabi	-14285
▁Pasc	-14286
▁Prom	-14287
▁SMKN	-14288
▁Team	-14289
▁Trid	-14290
▁amat	-14291
▁ojek	-14292
▁pari	-14293
▁rela	-14294
▁roti	-14295
ihakan	-14296
ukunan	-14297
▁Dhani	-14298
▁Imlek	-14299
▁Mayat	-14300
▁Pilar	-14301
▁Pileg	-14302
▁Rakor	-14303
▁heran	-14304
aruskan	-14305
▁Marcos	-14306
▁Mimika	-14307
▁mandat	-14308
▁pengeb	-14309
▁utusan	-14310
selerasi	-14311
▁Longsor	-14312
▁Tunjung	-14313
▁diawasi	-14314
▁dibakar	-14315
▁ketahui	-14316
▁knalpot	-14317
▁merokok	-14318
▁sebatas	-14319
▁terbuat	-14320
▁tragedi	-14321
▁Pentagon	-14322
▁Penuntut	-14323
▁berlayar	-14324
▁mengeluh	-14325
▁mengkaji	-14326
▁menuding	-14327
▁praktisi	-14328
▁Manggarai	-14329
▁Perguruan	-14330
▁Terungkap	-14331
▁bertempat	-14332
▁berteriak	-14333
▁degradasi	-14334
▁demografi	-14335
▁ditempati	-14336
▁kerjasama	-14337
▁Pembebasan	-14338
▁bervariasi	-14339
▁pembalasan	-14340
▁konsistensi	-14341
▁konektivitas	-14342
▁menangguhkan	-14343
endikbudristek	-14344
▁Habiburokhman	-14345
▁Sustainability	-14346
33	-14347
94	-14348
HL	-14349
MC	-14350
ST	-14351
SMK	-14352
bat	-14353
bin	-14354
hua	-14355
kas	-14356
obo	-14357
tak	-14358
uba	-14359
yid	-14360
▁85	-14361
▁DR	-14362
▁HP	-14363
Giri	-14364
apta	-14365
inat	-14366
mund	-14367
siap	-14368
▁Aud	-14369
▁BAR	-14370
▁Boc	-14371
▁HIV	-14372
▁JIS	-14373
▁Kho	-14374
▁Kut	-14375
▁MoU	-14376
▁OPD	-14377
▁SWT	-14378
▁agr	-14379
▁bos	-14380
▁tuh	-14381
encil	-14382
etaan	-14383
otobi	-14384
ukupi	-14385
uwono	-14386
▁Acep	-14387
▁Andy	-14388
▁Dede	-14389
▁Dico	-14390
▁Eduk	-14391
▁Huda	-14392
▁Kara	-14393
▁PHPU	-14394
▁Pray	-14395
▁Sabu	-14396
▁Talk	-14397
▁back	-14398
▁bule	-14399
▁diut	-14400
▁teri	-14401
ansyah	-14402
empurn	-14403
▁3.000	-14404
▁Album	-14405
▁Angin	-14406
▁Arsip	-14407
▁Beach	-14408
▁Black	-14409
▁TPNPB	-14410
▁Times	-14411
▁Tujuh	-14412
▁buaya	-14413
▁iuran	-14414
▁lirik	-14415
▁puluh	-14416
anamkan	-14417
ipulasi	-14418
ungkung	-14419
▁Kapuas	-14420
▁Natuna	-14421
▁Sarana	-14422
▁Travel	-14423
▁berkep	-14424
▁kolega	-14425
▁menumb	-14426
▁outlet	-14427
▁penyer	-14428
▁senada	-14429
anangkan	-14430
onstrasi	-14431
temannya	-14432
▁akunnya	-14433
▁misteri	-14434
▁pelosok	-14435
▁silakan	-14436
▁Kandidat	-14437
▁Pictures	-14438
▁Prajurit	-14439
▁Tentunya	-14440
▁berangin	-14441
▁kerajaan	-14442
▁penggawa	-14443
▁Kemitraan	-14444
▁Klungkung	-14445
▁bersumber	-14446
▁instalasi	-14447
▁kelelahan	-14448
▁konsultan	-14449
▁memerinci	-14450
▁tergolong	-14451
▁Rencananya	-14452
▁dikunjungi	-14453
▁penerbitan	-14454
▁dipengaruhi	-14455
▁kampanyenya	-14456
▁menggeledah	-14457
▁Kepemimpinan	-14458
▁perseorangan	-14459
▁mengoperasikan	-14460
AA	-14461
TO	-14462
Keb	-14463
PPD	-14464
Pak	-14465
itz	-14466
kep	-14467
row	-14468
sai	-14469
ugh	-14470
▁no	-14471
ecil	-14472
inea	-14473
osta	-14474
race	-14475
▁BMW	-14476
▁Cin	-14477
▁Rav	-14478
▁UKT	-14479
▁UPT	-14480
▁VII	-14481
▁dah	-14482
▁dul	-14483
agaan	-14484
ansus	-14485
ogasi	-14486
▁2004	-14487
▁Dahl	-14488
▁JAYA	-14489
▁Long	-14490
▁Tand	-14491
▁Zero	-14492
▁rock	-14493
▁tong	-14494
atalan	-14495
endala	-14496
ibadah	-14497
iratif	-14498
jaitan	-14499
▁Happy	-14500
▁Harry	-14501
▁Konon	-14502
▁Livin	-14503
▁Match	-14504
▁Motif	-14505
▁Nasib	-14506
▁Naval	-14507
▁Pasir	-14508
▁Yakin	-14509
▁begal	-14510
▁insan	-14511
▁puing	-14512
▁rumor	-14513
ulkanik	-14514
▁Beauty	-14515
▁Maduro	-14516
▁Makkah	-14517
▁sinerg	-14518
▁Bastian	-14519
▁Marsudi	-14520
▁Network	-14521
▁Pilihan	-14522
▁Sedunia	-14523
▁Terjadi	-14524
▁bakteri	-14525
▁daratan	-14526
▁menguat	-14527
▁panduan	-14528
endidikan	-14529
ornografi	-14530
▁Bangunan	-14531
▁Economic	-14532
▁Himpunan	-14533
▁Lewotobi	-14534
▁Norwegia	-14535
▁Suherman	-14536
▁menyeret	-14537
▁perlahan	-14538
▁siapapun	-14539
▁Relations	-14540
▁keponakan	-14541
▁pelakunya	-14542
▁perusakan	-14543
▁Optimistis	-14544
▁digantikan	-14545
▁diperbaiki	-14546
▁influencer	-14547
▁penyelamat	-14548
▁mengeluhkan	-14549
▁mengguncang	-14550
▁penduduknya	-14551
▁Keberhasilan	-14552
▁Keimigrasian	-14553
JM	-14554
NTB	-14555
dor	-14556
mus	-14557
nel	-14558
pei	-14559
▁79	-14560
▁Fa	-14561
▁HM	-14562
▁Ne	-14563
▁SL	-14564
▁TC	-14565
ahit	-14566
edes	-14567
elli	-14568
lagu	-14569
nawi	-14570
obol	-14571
olio	-14572
tawa	-14573
ving	-14574
▁3,5	-14575
▁Adh	-14576
▁Arj	-14577
▁Eva	-14578
▁Fri	-14579
▁Gir	-14580
▁Gis	-14581
▁ICC	-14582
▁Inc	-14583
▁Lop	-14584
▁Meh	-14585
▁Rey	-14586
▁one	-14587
▁sun	-14588
bantu	-14589
bukan	-14590
eport	-14591
▁Aula	-14592
▁BPOM	-14593
▁Derm	-14594
▁Gamb	-14595
▁Jojo	-14596
▁Kuat	-14597
▁Meet	-14598
▁Mike	-14599
▁Rena	-14600
▁Risk	-14601
▁Silo	-14602
▁Soet	-14603
AMPUNG	-14604
antono	-14605
ehicle	-14606
tibkan	-14607
utunya	-14608
▁2016.	-14609
▁Babak	-14610
▁Cegah	-14611
▁Lahan	-14612
▁Satya	-14613
▁Yoyok	-14614
▁count	-14615
▁diben	-14616
▁label	-14617
▁nenek	-14618
akmuran	-14619
ampaian	-14620
▁Saiful	-14621
▁dipers	-14622
▁edaran	-14623
▁estate	-14624
▁mencur	-14625
▁mengga	-14626
olahraga	-14627
unjukkan	-14628
▁Bitcoin	-14629
▁Delapan	-14630
▁Lembong	-14631
▁Perkara	-14632
▁disusun	-14633
▁pangkat	-14634
▁rupanya	-14635
▁seluler	-14636
▁terpadu	-14637
▁Tabungan	-14638
▁asosiasi	-14639
▁dorongan	-14640
▁Badminton	-14641
▁Christian	-14642
▁Mengingat	-14643
▁selebgram	-14644
▁substansi	-14645
▁Penembakan	-14646
▁meneruskan	-14647
▁pelarangan	-14648
▁perpecahan	-14649
▁Kertanegara	-14650
▁berpasangan	-14651
▁kelengkapan	-14652
▁menyeberang	-14653
▁penambangan	-14654
▁Kapolrestabes	-14655
▁konstitusional	-14656
.7	-14657
HN	-14658
IB	-14659
19/	-14660
BPS	-14661
acu	-14662
leh	-14663
yai	-14664
▁66	-14665
▁AU	-14666
DKPP	-14667
amal	-14668
anek	-14669
ekuk	-14670
enan	-14671
ices	-14672
imat	-14673
olas	-14674
utut	-14675
▁170	-14676
▁Cic	-14677
▁IIA	-14678
▁Maz	-14679
▁Oil	-14680
▁san	-14681
Calon	-14682
Sumut	-14683
anjuk	-14684
iprah	-14685
oyudo	-14686
sight	-14687
▁Amaz	-14688
▁Hary	-14689
▁Karo	-14690
▁QRIS	-14691
▁RANS	-14692
▁Romo	-14693
▁Suri	-14694
▁Usut	-14695
▁kios	-14696
▁kuno	-14697
▁prob	-14698
▁stor	-14699
Kepala	-14700
asmara	-14701
krindo	-14702
ontasi	-14703
ugasan	-14704
ukukan	-14705
▁Angga	-14706
▁Chair	-14707
▁Dilan	-14708
▁Donny	-14709
▁Jeruk	-14710
▁Mangk	-14711
▁Rivan	-14712
▁Titik	-14713
▁andal	-14714
▁bakti	-14715
antunya	-14716
ersihan	-14717
ilainya	-14718
itimasi	-14719
paganda	-14720
▁Buddha	-14721
▁Carlos	-14722
▁Contoh	-14723
▁Guntur	-14724
▁Wilson	-14725
▁dicari	-14726
▁instan	-14727
▁pelari	-14728
▁raihan	-14729
Sehingga	-14730
emudikan	-14731
epergian	-14732
▁(28/8).	-14733
▁Khalifa	-14734
▁Kroasia	-14735
▁Meranti	-14736
▁Samsung	-14737
▁Suswono	-14738
▁koridor	-14739
▁memasak	-14740
▁siapkan	-14741
▁tanggul	-14742
▁teratur	-14743
hitungkan	-14744
▁Bergerak	-14745
▁Gaikindo	-14746
▁Kekuatan	-14747
▁Produsen	-14748
▁Singgung	-14749
▁blusukan	-14750
▁kasusnya	-14751
▁mediator	-14752
▁pedesaan	-14753
▁produser	-14754
▁terjerat	-14755
▁administr	-14756
▁interaksi	-14757
▁memangkas	-14758
▁mengobati	-14759
▁perhiasan	-14760
▁Perbatasan	-14761
▁Perkebunan	-14762
▁diselidiki	-14763
▁kekasihnya	-14764
▁mengulangi	-14765
▁pengerjaan	-14766
▁Investigasi	-14767
▁berkeliling	-14768
▁menyebutnya	-14769
▁pembersihan	-14770
▁menjadikannya	-14771
EG	-14772
-28	-14773
://	-14774
PEN	-14775
SAR	-14776
eti	-14777
hib	-14778
ray	-14779
▁sc	-14780
▁sw	-14781
ades	-14782
buru	-14783
chen	-14784
fesi	-14785
ipis	-14786
rans	-14787
▁130	-14788
▁Ald	-14789
▁Bap	-14790
▁Ide	-14791
▁Peb	-14792
▁Sit	-14793
▁Tig	-14794
▁Zah	-14795
▁bud	-14796
▁nih	-14797
airud	-14798
ekaar	-14799
owali	-14800
reasi	-14801
tigma	-14802
yasan	-14803
▁Cart	-14804
▁Hana	-14805
▁Hung	-14806
▁Ikan	-14807
▁Syam	-14808
▁TPPO	-14809
▁cair	-14810
▁klip	-14811
alawan	-14812
atangi	-14813
dialog	-14814
elaran	-14815
emasan	-14816
incare	-14817
▁Ahmed	-14818
▁Candy	-14819
▁House	-14820
▁Imran	-14821
▁Induk	-14822
▁North	-14823
▁Paral	-14824
▁Swift	-14825
▁kelak	-14826
▁lelah	-14827
arahkan	-14828
iringan	-14829
▁Guinea	-14830
▁Pernah	-14831
▁Respon	-14832
▁Senada	-14833
▁Sragen	-14834
▁Taipei	-14835
▁Taylor	-14836
▁asupan	-14837
▁baliho	-14838
▁gencar	-14839
▁tergel	-14840
▁Ancaman	-14841
▁Bersatu	-14842
▁Mariska	-14843
▁Perindo	-14844
▁Positif	-14845
▁Putaran	-14846
▁Seminar	-14847
▁Vatikan	-14848
▁banteng	-14849
▁berguna	-14850
▁dominan	-14851
▁lambung	-14852
▁prosesi	-14853
▁pukulan	-14854
▁Freeport	-14855
▁Pemalang	-14856
▁Pemenang	-14857
▁Srikandi	-14858
▁Terancam	-14859
▁berskala	-14860
▁desainer	-14861
▁dibilang	-14862
▁dihimpun	-14863
▁diminati	-14864
▁ditunggu	-14865
▁kolektif	-14866
▁memotong	-14867
▁proporsi	-14868
▁sebabnya	-14869
▁sebutnya	-14870
▁beralasan	-14871
▁beribadah	-14872
▁magnitudo	-14873
▁penentuan	-14874
▁Penyerahan	-14875
▁dilibatkan	-14876
▁pendudukan	-14877
▁membubarkan	-14878
▁mengenalkan	-14879
▁mengagendakan	-14880
.6	-14881
EX	-14882
Mo	-14883
ru	-14884
.50	-14885
KPI	-14886
SDA	-14887
dua	-14888
vat	-14889
yam	-14890
▁74	-14891
▁AG	-14892
KASI	-14893
cons	-14894
eken	-14895
enak	-14896
esia	-14897
ilet	-14898
masa	-14899
orak	-14900
rejo	-14901
roen	-14902
ukus	-14903
▁1.5	-14904
▁160	-14905
▁Mam	-14906
▁Rib	-14907
▁Suw	-14908
arnai	-14909
athan	-14910
capil	-14911
rasah	-14912
tukar	-14913
▁Anji	-14914
▁Gaji	-14915
▁Kubu	-14916
▁PKPU	-14917
▁Praw	-14918
▁asuh	-14919
adaban	-14920
igakan	-14921
isakan	-14922
ubaran	-14923
▁Bursa	-14924
▁Edwin	-14925
▁Yunus	-14926
▁macet	-14927
▁mogok	-14928
▁nikah	-14929
▁semen	-14930
▁waris	-14931
pihakan	-14932
▁Asnawi	-14933
▁BEKASI	-14934
▁Binsar	-14935
▁Densus	-14936
▁Dinkes	-14937
▁Hamzah	-14938
▁Kalbar	-14939
▁Nabila	-14940
▁Safari	-14941
▁Status	-14942
▁berkah	-14943
▁doktor	-14944
▁nafkah	-14945
[...]
