{
  "version": "1.0",
  "truncation": null,
  "padding": null,
  "added_tokens": [
    {
      "id": 0,
      "content": "[UNK]",
      "single_word": false,
      "lstrip": false,
      "rstrip": false,
      "normalized": false,
      "special": true
    },
    {
      "id": 1,
      "content": "[CLS]",
      "single_word": false,
      "lstrip": false,
      "rstrip": false,
      "normalized": false,
      "special": true
    },
    {
      "id": 2,
      "content": "[SEP]",
      "single_word": false,
      "lstrip": false,
      "rstrip": false,
      "normalized": false,
      "special": true
    },
    {
      "id": 3,
      "content": "[PAD]",
      "single_word": false,
      "lstrip": false,
      "rstrip": false,
      "normalized": false,
      "special": true
    },
    {
      "id": 4,
      "content": "[MASK]",
      "single_word": false,
      "lstrip": false,
      "rstrip": false,
      "normalized": false,
      "special": true
    }
  ],
  "normalizer": {
    "type": "Sequence",
    "normalizers": [
      {
        "type": "NFKC"
      },
      {
        "type": "Lowercase"
      }
    ]
  },
  "pre_tokenizer": {
    "type": "Whitespace"
  },
  "post_processor": null,
  "decoder": {
    "type": "WordPiece",
    "prefix": "##",
    "cleanup": true
  },
  "model": {
    "type": "WordPiece",
    "unk_token": "[UNK]",
    "continuing_subword_prefix": "##",
    "max_input_chars_per_word": 100,
    "vocab": {
      "[UNK]": 0,
      "[CLS]": 1,
      "[SEP]": 2,
      "[PAD]": 3,
      "[MASK]": 4,
      "!": 5,
      "\"": 6,
      "#": 7,
      "$": 8,
      "%": 9,
      "&": 10,
      "'": 11,
      "(": 12,
      ")": 13,
      "*": 14,
      "+": 15,
      ",": 16,
      "-": 17,
      ".": 18,
      "/": 19,
      "0": 20,
      "1": 21,
      "2": 22,
      "3": 23,
      "4": 24,
      "5": 25,
      "6": 26,
      "7": 27,
      "8": 28,
      "9": 29,
      ":": 30,
      ";": 31,
      "<": 32,
      "=": 33,
      ">": 34,
      "?": 35,
      "@": 36,
      "[": 37,
      "\\": 38,
      "]": 39,
      "_": 40,
      "`": 41,
      "a": 42,
      "b": 43,
      "c": 44,
      "d": 45,
      "e": 46,
      "f": 47,
      "g": 48,
      "h": 49,
      "i": 50,
      "j": 51,
      "k": 52,
      "l": 53,
      "m": 54,
      "n": 55,
      "o": 56,
      "p": 57,
      "q": 58,
      "r": 59,
      "s": 60,
      "t": 61,
      "u": 62,
      "v": 63,
      "w": 64,
      "x": 65,
      "y": 66,
      "z": 67,
      "£": 68,
      "®": 69,
      "°": 70,
      "±": 71,
      "·": 72,
      "×": 73,
      "à": 74,
      "á": 75,
      "â": 76,
      "ã": 77,
      "ä": 78,
      "ç": 79,
      "è": 80,
      "é": 81,
      "ê": 82,
      "ë": 83,
      "ì": 84,
      "í": 85,
      "ï": 86,
      "ð": 87,
      "ñ": 88,
      "ò": 89,
      "ó": 90,
      "ô": 91,
      "õ": 92,
      "ö": 93,
      "ø": 94,
      "ú": 95,
      "ü": 96,
      "ā": 97,
      "ć": 98,
      "ę": 99,
      "ğ": 100,
      "ı": 101,
      "ķ": 102,
      "ł": 103,
      "ś": 104,
      "ş": 105,
      "š": 106,
      "ơ": 107,
      "ư": 108,
      "̇": 109,
      "α": 110,
      "η": 111,
      "μ": 112,
      "τ": 113,
      "‍": 114,
      "‎": 115,
      "•": 116,
      "′": 117,
      "⁄": 118,
      "⁠": 119,
      "€": 120,
      "−": 121,
      "≥": 122,
      "丽": 123,
      "安": 124,
      "洪": 125,
      "金": 126,
      "陈": 127,
      "🍌": 128,
      "😊": 129,
      "😭": 130,
      "🤲": 131,
      "##h": 132,
      "##u": 133,
      "##d": 134,
      "##l": 135,
      "##o": 136,
      "##r": 137,
      "##i": 138,
      "##b": 139,
      "##c": 140,
      "##a": 141,
      "##n": 142,
      "##e": 143,
      "##m": 144,
      "##t": 145,
      "##g": 146,
      "##k": 147,
      "##ā": 148,
      "##f": 149,
      "##s": 150,
      "##y": 151,
      "##v": 152,
      "##p": 153,
      "##w": 154,
      "##ä": 155,
      "##j": 156,
      "##q": 157,
      "##z": 158,
      "##8": 159,
      "##9": 160,
      "##0": 161,
      "##4": 162,
      "##í": 163,
      "##x": 164,
      "##2": 165,
      "##6": 166,
      "##ü": 167,
      "##5": 168,
      "##3": 169,
      "##1": 170,
      "##á": 171,
      "##_": 172,
      "##è": 173,
      "##7": 174,
      "##±": 175,
      "##?": 176,
      "##′": 177,
      "##)": 178,
      "##,": 179,
      "##ó": 180,
      "##ô": 181,
      "##š": 182,
      "##ć": 183,
      "##é": 184,
      "##'": 185,
      "##ö": 186,
      "##.": 187,
      "##ķ": 188,
      "##ğ": 189,
      "##ú": 190,
      "##ñ": 191,
      "##/": 192,
      "##-": 193,
      "##ã": 194,
      "##\"": 195,
      "##$": 196,
      "##ş": 197,
      "##ı": 198,
      "##̇": 199,
      "##>": 200,
      "##â": 201,
      "##+": 202,
      "##😭": 203,
      "##:": 204,
      "##🤲": 205,
      "##ò": 206,
      "###": 207,
      "##@": 208,
      "##;": 209,
      "##]": 210,
      "##ø": 211,
      "##<": 212,
      "##ë": 213,
      "##ê": 214,
      "##!": 215,
      "##ì": 216,
      "##ç": 217,
      "##金": 218,
      "##丽": 219,
      "##ś": 220,
      "##ę": 221,
      "##τ": 222,
      "##‎": 223,
      "##[": 224,
      "##ư": 225,
      "##ơ": 226,
      "##õ": 227,
      "##*": 228,
      "##ï": 229,
      "##an": 230,
      "##er": 231,
      "##en": 232,
      "##ar": 233,
      "##at": 234,
      "##ang": 235,
      "##ak": 236,
      "##as": 237,
      "##al": 238,
      "##ah": 239,
      "##in": 240,
      "di": 241,
      "##em": 242,
      "##am": 243,
      "men": 244,
      "##el": 245,
      "##kan": 246,
      "##un": 247,
      "##tu": 248,
      "##si": 249,
      "##ya": 250,
      "##ad": 251,
      "ke": 252,
      "se": 253,
      "##on": 254,
      "##ap": 255,
      "yang": 256,
      "##il": 257,
      "##ga": 258,
      "##ta": 259,
      "dan": 260,
      "ber": 261,
      "ter": 262,
      "in": 263,
      "##or": 264,
      "per": 265,
      "##ik": 266,
      "##eng": 267,
      "##ur": 268,
      "##is": 269,
      "##bu": 270,
      "##ing": 271,
      "##us": 272,
      "##asi": 273,
      "##es": 274,
      "##um": 275,
      "meng": 276,
      "##it": 277,
      "##ara": 278,
      "mem": 279,
      "##ung": 280,
      "##ari": 281,
      "un": 282,
      "##uk": 283,
      "##ti": 284,
      "##ol": 285,
      "##om": 286,
      "##ada": 287,
      "##im": 288,
      "20": 289,
      "##id": 290,
      "##akan": 291,
      "##ek": 292,
      "##ul": 293,
      "##ir": 294,
      "##nya": 295,
      "pen": 296,
      "pr": 297,
      "##ai": 298,
      "##tuk": 299,
      "pem": 300,
      "##ba": 301,
      "202": 302,
      "untuk": 303,
      "##alam": 304,
      "##ut": 305,
      "##da": 306,
      "##et": 307,
      "an": 308,
      "##gi": 309,
      "##engan": 310,
      "dengan": 311,
      "ini": 312,
      "##ber": 313,
      "##ih": 314,
      "##atan": 315,
      "sa": 316,
      "##angan": 317,
      "2024": 318,
      "dari": 319,
      "dalam": 320,
      "pada": 321,
      "itu": 322,
      "##ud": 323,
      "##ama": 324,
      "##esi": 325,
      "##wa": 326,
      "##ok": 327,
      "##adi": 328,
      "\",": 329,
      "##se": 330,
      "sel": 331,
      "##eg": 332,
      "mel": 333,
      "mer": 334,
      "##ib": 335,
      "##ata": 336,
      "##up": 337,
      "##ja": 338,
      "##but": 339,
      "ba": 340,
      "##amp": 341,
      "##ter": 342,
      "##uh": 343,
      "##ukan": 344,
      "##ali": 345,
      "ind": 346,
      "##ri": 347,
      "##and": 348,
      "##arta": 349,
      "##eb": 350,
      "kep": 351,
      "peng": 352,
      "kem": 353,
      "##ab": 354,
      "##per": 355,
      "##ant": 356,
      "##ed": 357,
      "pro": 358,
      "meny": 359,
      "##ia": 360,
      "tid": 361,
      "mas": 362,
      "menj": 363,
      "la": 364,
      "ju": 365,
      "tidak": 366,
      "kam": 367,
      "##elah": 368,
      "##alah": 369,
      "##ian": 370,
      "##ra": 371,
      "##isi": 372,
      "##ana": 373,
      "##pat": 374,
      "##sebut": 375,
      "##ua": 376,
      "akan": 377,
      "##baga": 378,
      "##pn": 379,
      "sem": 380,
      "##ot": 381,
      "##onesi": 382,
      "indonesi": 383,
      "indonesia": 384,
      "tersebut": 385,
      "##eh": 386,
      "ser": 387,
      "##ent": 388,
      "##akarta": 389,
      "##aw": 390,
      "##angk": 391,
      "tah": 392,
      "##uan": 393,
      "bah": 394,
      "jpn": 395,
      "jpnn": 396,
      "ak": 397,
      "ko": 398,
      "pol": 399,
      "##bagai": 400,
      "ad": 401,
      "com": 402,
      "pel": 403,
      "bar": 404,
      "##ay": 405,
      "juga": 406,
      "##aran": 407,
      ").": 408,
      "nya": 409,
      "##atakan": 410,
      "as": 411,
      "##ub": 412,
      "sek": 413,
      "jakarta": 414,
      "##abu": 415,
      "wib": 416,
      "##ep": 417,
      "##asa": 418,
      "##ati": 419,
      "##ahan": 420,
      "##anj": 421,
      "##end": 422,
      "ol": 423,
      "kar": 424,
      "mend": 425,
      "kon": 426,
      "##akukan": 427,
      "##tr": 428,
      "tahun": 429,
      "##aan": 430,
      "kata": 431,
      "saat": 432,
      "##any": 433,
      "##alu": 434,
      "##apat": 435,
      "neg": 436,
      "##asan": 437,
      "##int": 438,
      "ada": 439,
      "##ena": 440,
      "sat": 441,
      "##ikan": 442,
      "menjadi": 443,
      "dia": 444,
      "##amb": 445,
      "##arga": 446,
      "or": 447,
      "al": 448,
      "ap": 449,
      "##cara": 450,
      "##alan": 451,
      "leb": 452,
      "##ala": 453,
      "pert": 454,
      "bis": 455,
      "mengatakan": 456,
      "##aj": 457,
      "sebagai": 458,
      "tim": 459,
      "##usi": 460,
      "kom": 461,
      "oleh": 462,
      "kami": 463,
      "sen": 464,
      "##had": 465,
      "##aya": 466,
      "##ungan": 467,
      "pas": 468,
      "##yar": 469,
      "bahwa": 470,
      "##eka": 471,
      "##ika": 472,
      "##anya": 473,
      "is": 474,
      "kota": 475,
      "be": 476,
      "telah": 477,
      "ag": 478,
      "##ingk": 479,
      "mereka": 480,
      "seb": 481,
      "##angg": 482,
      "##ina": 483,
      "kel": 484,
      "bisa": 485,
      "##ip": 486,
      "##tau": 487,
      "bagi": 488,
      "##ka": 489,
      "##ong": 490,
      "##itas": 491,
      "##ita": 492,
      "dil": 493,
      "lebih": 494,
      "orang": 495,
      "##udah": 496,
      "##ran": 497,
      "kor": 498,
      "##os": 499,
      "##ew": 500,
      "##ain": 501,
      "set": 502,
      "##onal": 503,
      "kepada": 504,
      "hari": 505,
      "atau": 506,
      "##ban": 507,
      "##ingga": 508,
      "har": 509,
      "peny": 510,
      "##api": 511,
      "ker": 512,
      "pemer": 513,
      "##ind": 514,
      "para": 515,
      "##asil": 516,
      "##ingg": 517,
      "##gr": 518,
      "##bang": 519,
      "##lah": 520,
      "##aman": 521,
      "ar": 522,
      "##ow": 523,
      "sur": 524,
      "pers": 525,
      "karena": 526,
      "##akat": 527,
      "negara": 528,
      "menc": 529,
      "satu": 530,
      "##aku": 531,
      "pe": 532,
      "ang": 533,
      "si": 534,
      "##og": 535,
      "##tas": 536,
      "##tem": 537,
      "sudah": 538,
      "ja": 539,
      "am": 540,
      "sej": 541,
      "##elum": 542,
      "##den": 543,
      "bers": 544,
      "##esar": 545,
      "##apa": 546,
      "saya": 547,
      "##uj": 548,
      "##yarakat": 549,
      "masyarakat": 550,
      "##utu": 551,
      "##od": 552,
      "##osi": 553,
      "##pr": 554,
      "##anyak": 555,
      "da": 556,
      "berk": 557,
      "jum": 558,
      "ri": 559,
      "adalah": 560,
      "##atkan": 561,
      "##jar": 562,
      "##op": 563,
      "dis": 564,
      "pemerint": 565,
      "##iri": 566,
      "##apan": 567,
      "pil": 568,
      "##inya": 569,
      "anak": 570,
      "melakukan": 571,
      "10": 572,
      "##ilik": 573,
      "lain": 574,
      "presi": 575,
      "setelah": 576,
      "pend": 577,
      "ant": 578,
      "ek": 579,
      "##orm": 580,
      "baru": 581,
      "##asih": 582,
      "tet": 583,
      "##urut": 584,
      "##ob": 585,
      "hal": 586,
      "su": 587,
      "##oh": 588,
      "##erah": 589,
      "member": 590,
      "presiden": 591,
      "##ungk": 592,
      "dir": 593,
      "wak": 594,
      "##aks": 595,
      "dik": 596,
      "##est": 597,
      "##angs": 598,
      "ch": 599,
      "##hadap": 600,
      "mar": 601,
      "tem": 602,
      "##aikan": 603,
      "##imp": 604,
      "ma": 605,
      "terhadap": 606,
      "mengg": 607,
      "um": 608,
      "##ini": 609,
      "dapat": 610,
      "##apkan": 611,
      "memper": 612,
      "st": 613,
      "kec": 614,
      "##arkan": 615,
      "##ov": 616,
      "##ima": 617,
      "dua": 618,
      "secara": 619,
      "hingga": 620,
      "##ni": 621,
      "##dang": 622,
      "rum": 623,
      "ti": 624,
      "ked": 625,
      "##asional": 626,
      "ujar": 627,
      "warga": 628,
      "##jadi": 629,
      "teng": 630,
      "jawa": 631,
      "pemil": 632,
      "kabu": 633,
      "##perti": 634,
      "kas": 635,
      "##paten": 636,
      "kabupaten": 637,
      "##han": 638,
      "ut": 639,
      "##res": 640,
      "beber": 641,
      "pemerintah": 642,
      "menurut": 643,
      "##emp": 644,
      "dit": 645,
      "ketu": 646,
      "##gram": 647,
      "selasa": 648,
      "des": 649,
      "##uti": 650,
      "sep": 651,
      "##mas": 652,
      "rabu": 653,
      "seperti": 654,
      "tr": 655,
      "##awan": 656,
      "pun": 657,
      "##hir": 658,
      "beberapa": 659,
      "##upakan": 660,
      "bali": 661,
      "##ic": 662,
      "rumah": 663,
      "senin": 664,
      "##unj": 665,
      "kemen": 666,
      "besar": 667,
      "ket": 668,
      "##ingan": 669,
      "##ihak": 670,
      "kamis": 671,
      "merupakan": 672,
      "memb": 673,
      "##ensi": 674,
      "##angat": 675,
      "masih": 676,
      "banyak": 677,
      "korban": 678,
      "salah": 679,
      "##anjut": 680,
      "sum": 681,
      "pihak": 682,
      "tan": 683,
      "ban": 684,
      "dep": 685,
      "##askan": 686,
      "##anan": 687,
      "band": 688,
      "harus": 689,
      "12": 690,
      "##enc": 691,
      "re": 692,
      "##di": 693,
      "##wan": 694,
      "membu": 695,
      "wil": 696,
      "jumat": 697,
      "lalu": 698,
      "en": 699,
      "dig": 700,
      "##bat": 701,
      "kh": 702,
      "nam": 703,
      "##alon": 704,
      "daerah": 705,
      "##ihan": 706,
      "##erja": 707,
      "dilakukan": 708,
      "11": 709,
      "serta": 710,
      "ketua": 711,
      "19": 712,
      "seh": 713,
      "memberikan": 714,
      "angg": 715,
      "##eri": 716,
      "##uran": 717,
      "##tur": 718,
      "selama": 719,
      "atas": 720,
      "gr": 721,
      "kasus": 722,
      "##iliki": 723,
      "hanya": 724,
      "##duk": 725,
      "mil": 726,
      "##tif": 727,
      "parta": 728,
      "ku": 729,
      "bersama": 730,
      "jat": 731,
      "##alui": 732,
      "##to": 733,
      "tengah": 734,
      "sebelum": 735,
      "##mi": 736,
      "##angsung": 737,
      "kese": 738,
      "##ses": 739,
      "##olo": 740,
      "melalui": 741,
      "pal": 742,
      "keter": 743,
      "pemb": 744,
      "##arang": 745,
      "##ag": 746,
      "##ayah": 747,
      "berh": 748,
      "##inan": 749,
      "##tri": 750,
      "##ukum": 751,
      "kita": 752,
      "##tor": 753,
      "isra": 754,
      "partai": 755,
      "med": 756,
      "namun": 757,
      "##ilan": 758,
      "baik": 759,
      "##emb": 760,
      "##uruh": 761,
      "israel": 762,
      "tak": 763,
      "##ulan": 764,
      "wilayah": 765,
      "##usia": 766,
      "dem": 767,
      "##itik": 768,
      "program": 769,
      "##angka": 770,
      "##ikasi": 771,
      "##ch": 772,
      "sama": 773,
      "keb": 774,
      "memiliki": 775,
      "kepala": 776,
      "hukum": 777,
      "kap": 778,
      "##usah": 779,
      "##pk": 780,
      "berl": 781,
      "##uar": 782,
      "##unan": 783,
      "##uda": 784,
      "##ota": 785,
      "##ting": 786,
      "##apor": 787,
      "sangat": 788,
      "00": 789,
      "res": 790,
      "terjadi": 791,
      "me": 792,
      "pes": 793,
      "##inggu": 794,
      "menye": 795,
      "bi": 796,
      "##form": 797,
      "##tikan": 798,
      "##owo": 799,
      "##teri": 800,
      "##ember": 801,
      "##inta": 802,
      "gu": 803,
      "dip": 804,
      "##ump": 805,
      "calon": 806,
      "##kait": 807,
      "sab": 808,
      "##era": 809,
      "##baya": 810,
      "antara": 811,
      "jadi": 812,
      "minggu": 813,
      "##itar": 814,
      "par": 815,
      "##ju": 816,
      "kr": 817,
      "barat": 818,
      "mak": 819,
      "mul": 820,
      "em": 821,
      "rp": 822,
      "##unia": 823,
      "man": 824,
      "kek": 825,
      "mah": 826,
      "terl": 827,
      "tent": 828,
      "hasil": 829,
      "so": 830,
      "kes": 831,
      "tetapi": 832,
      "bel": 833,
      "pan": 834,
      "jalan": 835,
      "dunia": 836,
      "samp": 837,
      "kemb": 838,
      "kan": 839,
      "##ilai": 840,
      "ing": 841,
      "menteri": 842,
      "terkait": 843,
      "##elar": 844,
      "selatan": 845,
      "##ki": 846,
      "sekitar": 847,
      "kembali": 848,
      "up": 849,
      "##lu": 850,
      "sabtu": 851,
      "15": 852,
      "pt": 853,
      "##wal": 854,
      "##ukung": 855,
      "terus": 856,
      "##unakan": 857,
      "pern": 858,
      "##orang": 859,
      "pp": 860,
      "ben": 861,
      "kerja": 862,
      "li": 863,
      "th": 864,
      "##uhan": 865,
      "tiga": 866,
      "##man": 867,
      "air": 868,
      "##gas": 869,
      "sura": 870,
      "seluruh": 871,
      "umum": 872,
      "##ec": 873,
      "##bar": 874,
      "inter": 875,
      "##ani": 876,
      "surabaya": 877,
      "produk": 878,
      "##ekerja": 879,
      "persen": 880,
      "sebu": 881,
      "prab": 882,
      "prabowo": 883,
      "meningk": 884,
      "##umlah": 885,
      "mengh": 886,
      "##ac": 887,
      "##uga": 888,
      "did": 889,
      "im": 890,
      "##ihat": 891,
      "terd": 892,
      "##ampaikan": 893,
      "nasional": 894,
      "berbagai": 895,
      "us": 896,
      "sebuah": 897,
      "30": 898,
      "persi": 899,
      "agar": 900,
      "##adan": 901,
      "kemud": 902,
      "kamp": 903,
      "##isasi": 904,
      "##su": 905,
      "menjel": 906,
      "##atang": 907,
      "anggota": 908,
      "pertama": 909,
      "##utus": 910,
      "keterangan": 911,
      "sejumlah": 912,
      "bandung": 913,
      "mendapat": 914,
      "kl": 915,
      "##aksi": 916,
      "seti": 917,
      "berd": 918,
      "##onom": 919,
      "ters": 920,
      "##udi": 921,
      "seorang": 922,
      "sement": 923,
      "sementara": 924,
      "pelaku": 925,
      "##sia": 926,
      "##kada": 927,
      "belum": 928,
      "wakil": 929,
      "pilkada": 930,
      "##ons": 931,
      "kons": 932,
      "16": 933,
      "##por": 934,
      "ia": 935,
      "kedua": 936,
      "##idikan": 937,
      "sedang": 938,
      "##anto": 939,
      "##unc": 940,
      "nom": 941,
      "semua": 942,
      "14": 943,
      "##inggal": 944,
      "din": 945,
      "kali": 946,
      "##uru": 947,
      "mana": 948,
      "suk": 949,
      "kemudian": 950,
      "jab": 951,
      "##ahkan": 952,
      "ung": 953,
      "##tim": 954,
      "put": 955,
      "##anc": 956,
      "ik": 957,
      "##amatan": 958,
      "ins": 959,
      "##ist": 960,
      "##lik": 961,
      "##oto": 962,
      "penc": 963,
      "##sa": 964,
      "##nur": 965,
      "pak": 966,
      "##ko": 967,
      "lok": 968,
      "timur": 969,
      "ok": 970,
      "##gaw": 971,
      "##iv": 972,
      "17": 973,
      "lainnya": 974,
      "eks": 975,
      "13": 976,
      "berb": 977,
      "##yata": 978,
      "sejak": 979,
      "kal": 980,
      "negeri": 981,
      "keseh": 982,
      "mes": 983,
      "rak": 984,
      "##asar": 985,
      "intern": 986,
      "bid": 987,
      "##masuk": 988,
      "##entu": 989,
      "nomor": 990,
      "penting": 991,
      "##uli": 992,
      "##apai": 993,
      "kesehatan": 994,
      "##ui": 995,
      "diper": 996,
      "pl": 997,
      "##inggi": 998,
      "guber": 999,
      "gubernur": 1000,
      "politik": 1001,
      "##usahaan": 1002,
      "tentang": 1003,
      "menyebut": 1004,
      "18": 1005,
      "21": 1006,
      "sis": 1007,
      "unit": 1008,
      "##formasi": 1009,
      "ab": 1010,
      "##nas": 1011,
      "##ea": 1012,
      "##uari": 1013,
      "cuk": 1014,
      "bak": 1015,
      "termasuk": 1016,
      "serangan": 1017,
      "min": 1018,
      "##unya": 1019,
      "polisi": 1020,
      "perusahaan": 1021,
      "##osial": 1022,
      "##ologi": 1023,
      "##utan": 1024,
      "##ij": 1025,
      "ah": 1026,
      "##ca": 1027,
      "##anti": 1028,
      "selain": 1029,
      "jok": 1030,
      "desa": 1031,
      "agus": 1032,
      "menghad": 1033,
      "pus": 1034,
      "\".": 1035,
      "suara": 1036,
      "##araan": 1037,
      "##ula": 1038,
      "bulan": 1039,
      "depan": 1040,
      "terp": 1041,
      "luar": 1042,
      "##fa": 1043,
      "membuat": 1044,
      "##ampak": 1045,
      "##li": 1046,
      "ketika": 1047,
      "kegi": 1048,
      "##za": 1049,
      "sosial": 1050,
      "kegiatan": 1051,
      "pengg": 1052,
      "pemilu": 1053,
      "##pa": 1054,
      "sh": 1055,
      "memas": 1056,
      "buk": 1057,
      "china": 1058,
      "sebelumnya": 1059,
      "yak": 1060,
      "##men": 1061,
      "##mad": 1062,
      "##ft": 1063,
      "2023": 1064,
      "langsung": 1065,
      "hak": 1066,
      "waktu": 1067,
      "sehingga": 1068,
      "mal": 1069,
      "bagian": 1070,
      "kur": 1071,
      "tempat": 1072,
      "##tus": 1073,
      "bert": 1074,
      "komp": 1075,
      "tran": 1076,
      "akhir": 1077,
      "##iter": 1078,
      "23": 1079,
      "mulai": 1080,
      "bantu": 1081,
      "##amanan": 1082,
      "##encana": 1083,
      "sp": 1084,
      "pemain": 1085,
      "memba": 1086,
      "tek": 1087,
      "##und": 1088,
      "##insi": 1089,
      "menja": 1090,
      "##omp": 1091,
      "##na": 1092,
      "direk": 1093,
      "proses": 1094,
      "),": 1095,
      "##impin": 1096,
      "sk": 1097,
      "dpr": 1098,
      "##ibat": 1099,
      "el": 1100,
      "juta": 1101,
      "##atanya": 1102,
      "##bab": 1103,
      "tinggi": 1104,
      "kant": 1105,
      "##eo": 1106,
      "mener": 1107,
      "il": 1108,
      "##kap": 1109,
      "badan": 1110,
      "##atif": 1111,
      "te": 1112,
      "baw": 1113,
      "apa": 1114,
      "dim": 1115,
      "foto": 1116,
      "##antan": 1117,
      "malam": 1118,
      "##ersi": 1119,
      "bat": 1120,
      "##iran": 1121,
      "##pu": 1122,
      "katanya": 1123,
      "##akit": 1124,
      "amer": 1125,
      "mendukung": 1126,
      "dib": 1127,
      "##ev": 1128,
      "ham": 1129,
      "media": 1130,
      "##unjuk": 1131,
      "##tiv": 1132,
      "ger": 1133,
      "##akhir": 1134,
      "lagi": 1135,
      "kecamatan": 1136,
      "##usus": 1137,
      "duk": 1138,
      "seg": 1139,
      "##asis": 1140,
      "peremp": 1141,
      "25": 1142,
      "jika": 1143,
      "22": 1144,
      "perempuan": 1145,
      "bukan": 1146,
      "gol": 1147,
      "mengaku": 1148,
      "##jalan": 1149,
      "##terian": 1150,
      "dar": 1151,
      "kementerian": 1152,
      "khusus": 1153,
      "acara": 1154,
      "kaw": 1155,
      "##uni": 1156,
      "kend": 1157,
      "tersangka": 1158,
      "utama": 1159,
      "had": 1160,
      "er": 1161,
      "str": 1162,
      "id": 1163,
      "amerika": 1164,
      "saja": 1165,
      "lay": 1166,
      "meningkatkan": 1167,
      "berp": 1168,
      "kantor": 1169,
      "menyampaikan": 1170,
      "polres": 1171,
      "masa": 1172,
      "makan": 1173,
      "jel": 1174,
      "upaya": 1175,
      "pasangan": 1176,
      "ekonom": 1177,
      "perk": 1178,
      "utara": 1179,
      "##ono": 1180,
      "rek": 1181,
      "musi": 1182,
      "##yah": 1183,
      "nov": 1184,
      "##aian": 1185,
      "semarang": 1186,
      "##ungg": 1187,
      "201": 1188,
      "##alami": 1189,
      "menga": 1190,
      "pa": 1191,
      "trans": 1192,
      "pusat": 1193,
      "prov": 1194,
      "##enang": 1195,
      "tur": 1196,
      "##utusan": 1197,
      "penyel": 1198,
      "on": 1199,
      "tetap": 1200,
      "##ompok": 1201,
      "##din": 1202,
      "dp": 1203,
      "fil": 1204,
      "apr": 1205,
      "menggunakan": 1206,
      "##awat": 1207,
      "bal": 1208,
      "##sis": 1209,
      "ga": 1210,
      "kond": 1211,
      "and": 1212,
      "tekn": 1213,
      "kala": 1214,
      "##ilih": 1215,
      "##ikat": 1216,
      "##ustr": 1217,
      "pengh": 1218,
      "ingin": 1219,
      "##ublik": 1220,
      "##una": 1221,
      "sul": 1222,
      "##fi": 1223,
      "kawasan": 1224,
      "ekonomi": 1225,
      "den": 1226,
      "op": 1227,
      "24": 1228,
      "br": 1229,
      "mot": 1230,
      "rusia": 1231,
      "diri": 1232,
      "sampai": 1233,
      "##ingkat": 1234,
      "jatim": 1235,
      "masuk": 1236,
      "yakni": 1237,
      "##yat": 1238,
      "ur": 1239,
      "##uarga": 1240,
      "bog": 1241,
      "dukungan": 1242,
      "##bak": 1243,
      "oper": 1244,
      "sub": 1245,
      "##ont": 1246,
      "##eksi": 1247,
      "menjelaskan": 1248,
      "mengen": 1249,
      "provinsi": 1250,
      "##gan": 1251,
      "##idup": 1252,
      "bogor": 1253,
      "bu": 1254,
      "##war": 1255,
      "##ine": 1256,
      "tu": 1257,
      "dok": 1258,
      "pelat": 1259,
      "lingk": 1260,
      "sesu": 1261,
      "maj": 1262,
      "ra": 1263,
      "sekali": 1264,
      "bantuan": 1265,
      "##obil": 1266,
      "okto": 1267,
      "oktober": 1268,
      "ram": 1269,
      "keluarga": 1270,
      "##embang": 1271,
      "pendidikan": 1272,
      "ka": 1273,
      "posi": 1274,
      "jumlah": 1275,
      "lanjut": 1276,
      "##ma": 1277,
      "kelompok": 1278,
      "##eral": 1279,
      "##emen": 1280,
      "##bantu": 1281,
      "##olah": 1282,
      "sebanyak": 1283,
      "ru": 1284,
      "##upun": 1285,
      "##gian": 1286,
      "kalau": 1287,
      "lapor": 1288,
      "mengungk": 1289,
      "uc": 1290,
      "informasi": 1291,
      "mobil": 1292,
      "##engg": 1293,
      "jabar": 1294,
      "##etah": 1295,
      "jan": 1296,
      "ditem": 1297,
      "uk": 1298,
      "##anjang": 1299,
      "berada": 1300,
      "direktur": 1301,
      "##ukul": 1302,
      "tind": 1303,
      "##angkah": 1304,
      "met": 1305,
      "##ve": 1306,
      "lem": 1307,
      "na": 1308,
      "##jabat": 1309,
      "mendapatkan": 1310,
      "##ustri": 1311,
      "##gus": 1312,
      "##inal": 1313,
      "##ola": 1314,
      "##angkap": 1315,
      "##owi": 1316,
      "soal": 1317,
      "sup": 1318,
      "ribu": 1319,
      "pember": 1320,
      "mencapai": 1321,
      "november": 1322,
      "dih": 1323,
      "##okr": 1324,
      "jelas": 1325,
      "##erta": 1326,
      "##la": 1327,
      "tamb": 1328,
      "barang": 1329,
      "awal": 1330,
      "lokasi": 1331,
      "##le": 1332,
      "juli": 1333,
      "nar": 1334,
      "at": 1335,
      "jokowi": 1336,
      "##upsi": 1337,
      "dew": 1338,
      "##eda": 1339,
      "##oy": 1340,
      "##istr": 1341,
      "militer": 1342,
      "setiap": 1343,
      "polda": 1344,
      "menunjuk": 1345,
      "lingkungan": 1346,
      "000": 1347,
      "gib": 1348,
      "gaza": 1349,
      "pemilihan": 1350,
      "##usan": 1351,
      "27": 1352,
      "##ro": 1353,
      "gibran": 1354,
      "jam": 1355,
      "pppk": 1356,
      "##anye": 1357,
      "sal": 1358,
      "keamanan": 1359,
      "##itmen": 1360,
      "lap": 1361,
      "laga": 1362,
      "##aris": 1363,
      "##aha": 1364,
      "terakhir": 1365,
      "undang": 1366,
      "##ungkin": 1367,
      "langkah": 1368,
      "pukul": 1369,
      "empat": 1370,
      "##buh": 1371,
      "##jata": 1372,
      "##adilan": 1373,
      "pembang": 1374,
      "tangg": 1375,
      "##ator": 1376,
      "##ami": 1377,
      "dr": 1378,
      "pekerja": 1379,
      "ken": 1380,
      "membantu": 1381,
      "##utur": 1382,
      "pembangunan": 1383,
      "muda": 1384,
      "tel": 1385,
      "kab": 1386,
      "perm": 1387,
      "##urkan": 1388,
      "univ": 1389,
      "laporan": 1390,
      "juni": 1391,
      "##uhi": 1392,
      "##orong": 1393,
      "ibu": 1394,
      "pi": 1395,
      "industri": 1396,
      "ir": 1397,
      "kej": 1398,
      "kondisi": 1399,
      "berm": 1400,
      "timnas": 1401,
      "##aki": 1402,
      "menyatakan": 1403,
      "mengalami": 1404,
      "agustus": 1405,
      "pener": 1406,
      "layanan": 1407,
      "asal": 1408,
      "hadir": 1409,
      "meninggal": 1410,
      "bakal": 1411,
      "pekan": 1412,
      "mantan": 1413,
      "##ies": 1414,
      "##angi": 1415,
      "pihaknya": 1416,
      "ungkap": 1417,
      "co": 1418,
      "##empat": 1419,
      "send": 1420,
      "##tugas": 1421,
      "gamb": 1422,
      "##ital": 1423,
      "af": 1424,
      "dek": 1425,
      "menunjukkan": 1426,
      "##uas": 1427,
      "memastikan": 1428,
      "ac": 1429,
      "##jen": 1430,
      "internasional": 1431,
      "universi": 1432,
      "data": 1433,
      "harga": 1434,
      "##tember": 1435,
      "tuj": 1436,
      "de": 1437,
      "##arg": 1438,
      "kpu": 1439,
      "september": 1440,
      "melihat": 1441,
      "##ambil": 1442,
      "mei": 1443,
      "##arap": 1444,
      "##ck": 1445,
      "surat": 1446,
      "sesuai": 1447,
      "muh": 1448,
      "desember": 1449,
      "meminta": 1450,
      "kebu": 1451,
      "##anda": 1452,
      "kol": 1453,
      "diber": 1454,
      "##tab": 1455,
      "inv": 1456,
      "berhasil": 1457,
      "berlangsung": 1458,
      "masing": 1459,
      "perd": 1460,
      "int": 1461,
      "ucap": 1462,
      "keti": 1463,
      "april": 1464,
      "resmi": 1465,
      "##alkan": 1466,
      "perang": 1467,
      "##erang": 1468,
      "mod": 1469,
      "konf": 1470,
      "sekolah": 1471,
      "28": 1472,
      "bang": 1473,
      "##estasi": 1474,
      "jateng": 1475,
      "##00": 1476,
      "terb": 1477,
      "for": 1478,
      "januari": 1479,
      "kendaraan": 1480,
      "komisi": 1481,
      "tanpa": 1482,
      "pasar": 1483,
      "29": 1484,
      "##baik": 1485,
      "26": 1486,
      "keh": 1487,
      "##ubungan": 1488,
      "keber": 1489,
      "##ebr": 1490,
      "##otensi": 1491,
      "united": 1492,
      "##nis": 1493,
      "##tik": 1494,
      "korupsi": 1495,
      "berharap": 1496,
      "liga": 1497,
      "pk": 1498,
      "##kr": 1499,
      "bidang": 1500,
      "perlu": 1501,
      "pet": 1502,
      "##yataan": 1503,
      "nama": 1504,
      "maupun": 1505,
      "##ura": 1506,
      "##ate": 1507,
      "terk": 1508,
      "bank": 1509,
      "kini": 1510,
      "kpk": 1511,
      "siap": 1512,
      "uang": 1513,
      "pernah": 1514,
      "##anakan": 1515,
      "of": 1516,
      "pap": 1517,
      "ujarnya": 1518,
      "##isata": 1519,
      "##irkan": 1520,
      "tanah": 1521,
      "kampanye": 1522,
      "##uka": 1523,
      "demokr": 1524,
      "##ulu": 1525,
      "##etahui": 1526,
      "##ce": 1527,
      "gambar": 1528,
      "##ungi": 1529,
      "##oleh": 1530,
      "sebesar": 1531,
      "sendiri": 1532,
      "sid": 1533,
      "##ten": 1534,
      "duga": 1535,
      "sy": 1536,
      "##asarkan": 1537,
      "bekerja": 1538,
      "##iti": 1539,
      "##aporkan": 1540,
      "##ujan": 1541,
      "##aih": 1542,
      "##alitas": 1543,
      "dugaan": 1544,
      "komun": 1545,
      "masalah": 1546,
      "stadi": 1547,
      "ul": 1548,
      "motor": 1549,
      "hujan": 1550,
      "kad": 1551,
      "menamb": 1552,
      "##anjar": 1553,
      "##ilang": 1554,
      "trump": 1555,
      "##upati": 1556,
      "##baru": 1557,
      "##embangan": 1558,
      "maret": 1559,
      "ukra": 1560,
      "bupati": 1561,
      "##asiswa": 1562,
      "##ode": 1563,
      "mus": 1564,
      "##kar": 1565,
      "##ijakan": 1566,
      "ukraina": 1567,
      "aj": 1568,
      "##atur": 1569,
      "akibat": 1570,
      "dirinya": 1571,
      "gen": 1572,
      "##dag": 1573,
      "lima": 1574,
      "guru": 1575,
      "##tan": 1576,
      "kapal": 1577,
      "sed": 1578,
      "##andingan": 1579,
      "ged": 1580,
      "pernyataan": 1581,
      "kebijakan": 1582,
      "##ahanan": 1583,
      "pelangg": 1584,
      "##ili": 1585,
      "mat": 1586,
      "asia": 1587,
      "##bul": 1588,
      "paling": 1589,
      "ps": 1590,
      "adanya": 1591,
      "mo": 1592,
      "##itan": 1593,
      "laut": 1594,
      "pul": 1595,
      "pb": 1596,
      "rakyat": 1597,
      "##aitu": 1598,
      "sol": 1599,
      "the": 1600,
      "sistem": 1601,
      "##jo": 1602,
      "kapol": 1603,
      "sumber": 1604,
      "yaitu": 1605,
      "teg": 1606,
      "mengenai": 1607,
      "##iar": 1608,
      "menjalan": 1609,
      "bahkan": 1610,
      "petugas": 1611,
      "sakit": 1612,
      "memperk": 1613,
      "ya": 1614,
      "##imana": 1615,
      "menerima": 1616,
      "##tisi": 1617,
      "wali": 1618,
      "##ikuti": 1619,
      "melawan": 1620,
      "pid": 1621,
      "tok": 1622,
      "pertandingan": 1623,
      "hidup": 1624,
      "iran": 1625,
      "bl": 1626,
      "aman": 1627,
      "ev": 1628,
      "##ema": 1629,
      "anda": 1630,
      "##engk": 1631,
      "##daft": 1632,
      "korea": 1633,
      "##arget": 1634,
      "hon": 1635,
      "inf": 1636,
      "##ergi": 1637,
      "berdasarkan": 1638,
      "mungkin": 1639,
      "pejabat": 1640,
      "teknologi": 1641,
      "##ps": 1642,
      "##ade": 1643,
      "serikat": 1644,
      "bant": 1645,
      "menjaga": 1646,
      "##ampu": 1647,
      "tni": 1648,
      "segera": 1649,
      "film": 1650,
      "08": 1651,
      "denp": 1652,
      "##iz": 1653,
      "##bangun": 1654,
      "universitas": 1655,
      "solo": 1656,
      "aksi": 1657,
      "perl": 1658,
      "prof": 1659,
      "##tuhan": 1660,
      "##alaman": 1661,
      "##ci": 1662,
      "07": 1663,
      "denpasar": 1664,
      "senjata": 1665,
      "gl": 1666,
      "bukti": 1667,
      "membawa": 1668,
      "##impinan": 1669,
      "cukai": 1670,
      "mengungkapkan": 1671,
      "##bagian": 1672,
      "##iaya": 1673,
      "stadion": 1674,
      "bawah": 1675,
      "##hi": 1676,
      "bum": 1677,
      "ari": 1678,
      "##ewas": 1679,
      "##alia": 1680,
      "menggelar": 1681,
      "menghadapi": 1682,
      "es": 1683,
      "berg": 1684,
      "##isti": 1685,
      "memang": 1686,
      "##saan": 1687,
      "##ig": 1688,
      "##wak": 1689,
      "piala": 1690,
      "31": 1691,
      "bea": 1692,
      "##tul": 1693,
      "##amat": 1694,
      "##yak": 1695,
      "digital": 1696,
      "pelatih": 1697,
      "##ateg": 1698,
      "jal": 1699,
      "##irim": 1700,
      "sar": 1701,
      "po": 1702,
      "##aksanakan": 1703,
      "tingkat": 1704,
      "##atu": 1705,
      "##apun": 1706,
      "cukup": 1707,
      "##tai": 1708,
      "jen": 1709,
      "lembaga": 1710,
      "pemimpin": 1711,
      "##ond": 1712,
      "##umen": 1713,
      "ro": 1714,
      "##ungsi": 1715,
      "dinas": 1716,
      "##oni": 1717,
      "pemerintahan": 1718,
      "##emuan": 1719,
      "miliar": 1720,
      "fak": 1721,
      "##jak": 1722,
      "bek": 1723,
      "##sel": 1724,
      "##ordin": 1725,
      "pd": 1726,
      "operasi": 1727,
      "polri": 1728,
      "lama": 1729,
      "dibu": 1730,
      "anies": 1731,
      "##mk": 1732,
      "depok": 1733,
      "##abor": 1734,
      "publik": 1735,
      "sim": 1736,
      "pad": 1737,
      "##uat": 1738,
      "listr": 1739,
      "papua": 1740,
      "bas": 1741,
      "##apres": 1742,
      "gun": 1743,
      "listrik": 1744,
      "bo": 1745,
      "rep": 1746,
      "kand": 1747,
      "ali": 1748,
      "cua": 1749,
      "cuaca": 1750,
      "##aranya": 1751,
      "berin": 1752,
      "##re": 1753,
      "##gak": 1754,
      "makanan": 1755,
      "digelar": 1756,
      "cara": 1757,
      "pria": 1758,
      "##unga": 1759,
      "##ha": 1760,
      "keputusan": 1761,
      "##aji": 1762,
      "bersi": 1763,
      "##angkat": 1764,
      "pat": 1765,
      "daya": 1766,
      "menyel": 1767,
      "palest": 1768,
      "09": 1769,
      "##titu": 1770,
      "mahasiswa": 1771,
      "ud": 1772,
      "gel": 1773,
      "tewas": 1774,
      "tang": 1775,
      "akhirnya": 1776,
      "keu": 1777,
      "diduga": 1778,
      "usaha": 1779,
      "sebagian": 1780,
      "keuangan": 1781,
      "vid": 1782,
      "angk": 1783,
      "palestina": 1784,
      "war": 1785,
      "punya": 1786,
      "##ajar": 1787,
      "##co": 1788,
      "kebutuhan": 1789,
      "##ham": 1790,
      "milik": 1791,
      "le": 1792,
      "diter": 1793,
      "gedung": 1794,
      "##atian": 1795,
      "##intas": 1796,
      "bisnis": 1797,
      "situ": 1798,
      "##iau": 1799,
      "##ekan": 1800,
      "mampu": 1801,
      "##aksana": 1802,
      "ii": 1803,
      "##anding": 1804,
      "penj": 1805,
      "##jadian": 1806,
      "nilai": 1807,
      "kejadian": 1808,
      "bern": 1809,
      "berup": 1810,
      "benar": 1811,
      "ef": 1812,
      "##ira": 1813,
      "hubungan": 1814,
      "menem": 1815,
      "##ori": 1816,
      "##iksaan": 1817,
      "mendatang": 1818,
      "tutur": 1819,
      "jend": 1820,
      "##ila": 1821,
      "##ubahan": 1822,
      "##angkan": 1823,
      "##edi": 1824,
      "##ogy": 1825,
      "##arik": 1826,
      "meneg": 1827,
      "##uri": 1828,
      "perubahan": 1829,
      "asn": 1830,
      "datang": 1831,
      "jar": 1832,
      "##ret": 1833,
      "##busi": 1834,
      "hamas": 1835,
      "##yo": 1836,
      "pasal": 1837,
      "ahmad": 1838,
      "peserta": 1839,
      "##wi": 1840,
      "##me": 1841,
      "##angsa": 1842,
      "perh": 1843,
      "ketiga": 1844,
      "sam": 1845,
      "##atis": 1846,
      "terbu": 1847,
      "organ": 1848,
      "##uju": 1849,
      "jep": 1850,
      "banten": 1851,
      "##aksa": 1852,
      "ce": 1853,
      "05": 1854,
      "##tasi": 1855,
      "del": 1856,
      "karya": 1857,
      "ed": 1858,
      "satunya": 1859,
      "urut": 1860,
      "dana": 1861,
      "##fikasi": 1862,
      "##caya": 1863,
      "sus": 1864,
      "##oro": 1865,
      "##pl": 1866,
      "##eran": 1867,
      "perju": 1868,
      "##utama": 1869,
      "sekaligus": 1870,
      "##untu": 1871,
      "pertam": 1872,
      "ganjar": 1873,
      "##okus": 1874,
      "mendorong": 1875,
      "##tribusi": 1876,
      "ng": 1877,
      "menuju": 1878,
      "meski": 1879,
      "pertemuan": 1880,
      "komitmen": 1881,
      "bri": 1882,
      "san": 1883,
      "##line": 1884,
      "06": 1885,
      "##argaan": 1886,
      "##empatan": 1887,
      "ditemukan": 1888,
      "gar": 1889,
      "maju": 1890,
      "ta": 1891,
      "jaya": 1892,
      "penghargaan": 1893,
      "nus": 1894,
      "kemenangan": 1895,
      "##idik": 1896,
      "##pres": 1897,
      "baga": 1898,
      "wid": 1899,
      "##umum": 1900,
      "maka": 1901,
      "##enaga": 1902,
      "nas": 1903,
      "##ji": 1904,
      "##isian": 1905,
      "sah": 1906,
      "menging": 1907,
      "##koba": 1908,
      "video": 1909,
      "2025": 1910,
      "##usaha": 1911,
      "tapi": 1912,
      "honor": 1913,
      "perjuangan": 1914,
      "##uc": 1915,
      "##ilitas": 1916,
      "##kot": 1917,
      "pemeriksaan": 1918,
      "##ohon": 1919,
      "terbaik": 1920,
      "beras": 1921,
      "rel": 1922,
      "sektor": 1923,
      "##ingkatan": 1924,
      "##uanya": 1925,
      "terj": 1926,
      "perdana": 1927,
      "febr": 1928,
      "##opa": 1929,
      "##adwal": 1930,
      "##ayan": 1931,
      "eng": 1932,
      "##ore": 1933,
      "##lim": 1934,
      "jenderal": 1935,
      "potensi": 1936,
      "##itra": 1937,
      "200": 1938,
      "##etapkan": 1939,
      "sempat": 1940,
      "rasa": 1941,
      "##ikut": 1942,
      "bp": 1943,
      "form": 1944,
      "##ibatkan": 1945,
      "01": 1946,
      "februari": 1947,
      "##ef": 1948,
      "##etak": 1949,
      "muham": 1950,
      "pengadilan": 1951,
      "peri": 1952,
      "##alis": 1953,
      "bertem": 1954,
      "##hkan": 1955,
      "nat": 1956,
      "menilai": 1957,
      "semak": 1958,
      "tenaga": 1959,
      "jalur": 1960,
      "rah": 1961,
      "cepat": 1962,
      "lapangan": 1963,
      "##no": 1964,
      "pos": 1965,
      "tot": 1966,
      "##unt": 1967,
      "prak": 1968,
      "tert": 1969,
      "glob": 1970,
      "##dul": 1971,
      "pelaksana": 1972,
      "mew": 1973,
      "keker": 1974,
      "##enuhi": 1975,
      "terutama": 1976,
      "digunakan": 1977,
      "musim": 1978,
      "bur": 1979,
      "jer": 1980,
      "saksi": 1981,
      "##ulai": 1982,
      "##ogyakarta": 1983,
      "berjalan": 1984,
      "her": 1985,
      "mad": 1986,
      "bagaimana": 1987,
      "global": 1988,
      "yogyakarta": 1989,
      "##engar": 1990,
      "tindakan": 1991,
      "bangsa": 1992,
      "##tum": 1993,
      "nanti": 1994,
      "biden": 1995,
      "aktiv": 1996,
      "##ongan": 1997,
      "dewan": 1998,
      "##mar": 1999,
      "50": 2000,
      "periode": 2001,
      "02": 2002,
      "pidana": 2003,
      "honorer": 2004,
      "##eta": 2005,
      "menegaskan": 2006,
      "jepang": 2007,
      "tahu": 2008,
      "##eks": 2009,
      "##ampung": 2010,
      "##atat": 2011,
      "menurutnya": 2012,
      "banj": 2013,
      "##km": 2014,
      "##ampil": 2015,
      "menambahkan": 2016,
      "peningkatan": 2017,
      "bb": 2018,
      "tern": 2019,
      "persib": 2020,
      "pagi": 2021,
      "udara": 2022,
      "semakin": 2023,
      "##aborasi": 2024,
      "##usai": 2025,
      "##adaan": 2026,
      "seusai": 2027,
      "membangun": 2028,
      "banjir": 2029,
      "rs": 2030,
      "##oa": 2031,
      "bahan": 2032,
      "pasukan": 2033,
      "sip": 2034,
      "04": 2035,
      "##arin": 2036,
      "##unaan": 2037,
      "##uki": 2038,
      "manusia": 2039,
      "##egal": 2040,
      "menjelang": 2041,
      "dki": 2042,
      "pula": 2043,
      "##babkan": 2044,
      "##ianto": 2045,
      "##gitu": 2046,
      "sil": 2047,
      "pengaw": 2048,
      "##ug": 2049,
      "##isial": 2050,
      "##truk": 2051,
      "rat": 2052,
      "tol": 2053,
      "##urn": 2054,
      "terbaru": 2055,
      "##ujud": 2056,
      "wisata": 2057,
      "adapun": 2058,
      "begitu": 2059,
      "meningkat": 2060,
      "fa": 2061,
      "mis": 2062,
      "ib": 2063,
      "##olisian": 2064,
      "ungg": 2065,
      "pertahanan": 2066,
      "mand": 2067,
      "ny": 2068,
      "raya": 2069,
      "kepolisian": 2070,
      "kont": 2071,
      "jauh": 2072,
      "koordin": 2073,
      "online": 2074,
      "meraih": 2075,
      "sekarang": 2076,
      "to": 2077,
      "lat": 2078,
      "total": 2079,
      "emas": 2080,
      "##ity": 2081,
      "tik": 2082,
      "fasil": 2083,
      "selalu": 2084,
      "bentuk": 2085,
      "ikut": 2086,
      "eropa": 2087,
      "pbb": 2088,
      "ot": 2089,
      "pertamina": 2090,
      "##kip": 2091,
      "##ers": 2092,
      "##gab": 2093,
      "hum": 2094,
      "posisi": 2095,
      "tinggal": 2096,
      "perjalan": 2097,
      "perjalanan": 2098,
      "organisasi": 2099,
      "##arah": 2100,
      "angka": 2101,
      "tujuan": 2102,
      "bus": 2103,
      "03": 2104,
      "meskip": 2105,
      "diberikan": 2106,
      "meskipun": 2107,
      "terpilih": 2108,
      "narkoba": 2109,
      "##arian": 2110,
      "lant": 2111,
      "mengikuti": 2112,
      "lah": 2113,
      "##erasi": 2114,
      "energi": 2115,
      "##faat": 2116,
      "diketahui": 2117,
      "##uatan": 2118,
      "2022": 2119,
      "tiba": 2120,
      "umkm": 2121,
      "bicara": 2122,
      "##ior": 2123,
      "kecil": 2124,
      "ditangkap": 2125,
      "menang": 2126,
      "apar": 2127,
      "subianto": 2128,
      "enam": 2129,
      "berinisial": 2130,
      "##lam": 2131,
      "##iah": 2132,
      "##enal": 2133,
      "art": 2134,
      "##elu": 2135,
      "agung": 2136,
      "##krim": 2137,
      "##utih": 2138,
      "disebut": 2139,
      "bay": 2140,
      "isu": 2141,
      "has": 2142,
      "dampak": 2143,
      "##anggung": 2144,
      "berj": 2145,
      "teman": 2146,
      "##akaan": 2147,
      "hamp": 2148,
      "surve": 2149,
      "ruang": 2150,
      "jenis": 2151,
      "putih": 2152,
      "kurang": 2153,
      "berikut": 2154,
      "kuat": 2155,
      "cer": 2156,
      "terc": 2157,
      "##te": 2158,
      "sig": 2159,
      "pangan": 2160,
      "lew": 2161,
      "##lon": 2162,
      "##jukan": 2163,
      "hakim": 2164,
      "pengembangan": 2165,
      "##anjutan": 2166,
      "fc": 2167,
      "mom": 2168,
      "berusia": 2169,
      "dekat": 2170,
      "lintas": 2171,
      "sipil": 2172,
      "##gu": 2173,
      "disampaikan": 2174,
      "##esiasi": 2175,
      "kesempatan": 2176,
      "proy": 2177,
      "##gris": 2178,
      "dic": 2179,
      "##ulasi": 2180,
      "##erahkan": 2181,
      "yo": 2182,
      "turun": 2183,
      "target": 2184,
      "sidang": 2185,
      "inov": 2186,
      "bes": 2187,
      "memberi": 2188,
      "poin": 2189,
      "api": 2190,
      "##akah": 2191,
      "mau": 2192,
      "##uasa": 2193,
      "new": 2194,
      "rencana": 2195,
      "pelay": 2196,
      "##ation": 2197,
      "fasilitas": 2198,
      "tengg": 2199,
      "biasa": 2200,
      "kekerasan": 2201,
      "memer": 2202,
      "ho": 2203,
      "sin": 2204,
      "turut": 2205,
      "laki": 2206,
      "tugas": 2207,
      "##umsi": 2208,
      "net": 2209,
      "##af": 2210,
      "##ly": 2211,
      "terlibat": 2212,
      "seri": 2213,
      "pdip": 2214,
      "memilih": 2215,
      "##ny": 2216,
      "peran": 2217,
      "##anjutkan": 2218,
      "membuka": 2219,
      "##ulkan": 2220,
      "##inkan": 2221,
      "berkom": 2222,
      "beb": 2223,
      "inggris": 2224,
      "tul": 2225,
      "##ern": 2226,
      "sand": 2227,
      "hampir": 2228,
      "##utup": 2229,
      "penuh": 2230,
      "##sep": 2231,
      "##one": 2232,
      "##ubah": 2233,
      "alasan": 2234,
      "bencana": 2235,
      "kecel": 2236,
      "merasa": 2237,
      "pilpres": 2238,
      "naik": 2239,
      "mengambil": 2240,
      "##arakan": 2241,
      "##batasan": 2242,
      "penel": 2243,
      "##pasi": 2244,
      "pemilih": 2245,
      "kecelakaan": 2246,
      "sw": 2247,
      "pimpinan": 2248,
      "##takan": 2249,
      "pembun": 2250,
      "sabu": 2251,
      "##buhan": 2252,
      "##ard": 2253,
      "##atangan": 2254,
      "apakah": 2255,
      "survei": 2256,
      "menjalani": 2257,
      "##icara": 2258,
      "menit": 2259,
      "golkar": 2260,
      "kelas": 2261,
      "keluar": 2262,
      "##umumkan": 2263,
      "kul": 2264,
      "diba": 2265,
      "40": 2266,
      "may": 2267,
      "nur": 2268,
      "##alahan": 2269,
      "##anggap": 2270,
      "kunj": 2271,
      "berita": 2272,
      "##sed": 2273,
      "jawab": 2274,
      "##inasi": 2275,
      "memenuhi": 2276,
      "pin": 2277,
      "##onel": 2278,
      "bin": 2279,
      "melaporkan": 2280,
      "putra": 2281,
      "positif": 2282,
      "##ajaran": 2283,
      "rid": 2284,
      "##likasi": 2285,
      "mu": 2286,
      "sumat": 2287,
      "##bangan": 2288,
      "##dak": 2289,
      "##enti": 2290,
      "gag": 2291,
      "##ue": 2292,
      "khususnya": 2293,
      "##okok": 2294,
      "pelanggaran": 2295,
      "##daya": 2296,
      "merah": 2297,
      "##amankan": 2298,
      "sepanjang": 2299,
      "elek": 2300,
      "proyek": 2301,
      "hot": 2302,
      "budi": 2303,
      "##sim": 2304,
      "##nam": 2305,
      "keras": 2306,
      "putusan": 2307,
      "##uang": 2308,
      "##cak": 2309,
      "##titusi": 2310,
      "##tuhkan": 2311,
      "##irakan": 2312,
      "pn": 2313,
      "##ilis": 2314,
      "tepat": 2315,
      "dibanding": 2316,
      "was": 2317,
      "bermain": 2318,
      "rapat": 2319,
      "##juan": 2320,
      "##bp": 2321,
      "grup": 2322,
      "ratusan": 2323,
      "paslon": 2324,
      "fokus": 2325,
      "##ry": 2326,
      "##grasi": 2327,
      "austr": 2328,
      "mudah": 2329,
      "##fud": 2330,
      "tegas": 2331,
      "tambah": 2332,
      "anggaran": 2333,
      "jo": 2334,
      "riau": 2335,
      "##olak": 2336,
      "##entasi": 2337,
      "penyelengg": 2338,
      "##egr": 2339,
      "malang": 2340,
      "##angga": 2341,
      "lewat": 2342,
      "ris": 2343,
      "demi": 2344,
      "##uncurkan": 2345,
      "sekret": 2346,
      "akun": 2347,
      "tangan": 2348,
      "##istik": 2349,
      "pand": 2350,
      "hati": 2351,
      "##arapkan": 2352,
      "##jah": 2353,
      "pelayanan": 2354,
      "pembunuhan": 2355,
      "pesawat": 2356,
      "gus": 2357,
      "pembu": 2358,
      "ajang": 2359,
      "lokal": 2360,
      "rud": 2361,
      "sang": 2362,
      "belak": 2363,
      "menemukan": 2364,
      "buda": 2365,
      "pam": 2366,
      "menarik": 2367,
      "perb": 2368,
      "australia": 2369,
      "##ebat": 2370,
      "kontr": 2371,
      "##ikit": 2372,
      "##iman": 2373,
      "agama": 2374,
      "##aturan": 2375,
      "##omo": 2376,
      "penyakit": 2377,
      "sedikit": 2378,
      "pop": 2379,
      "##oli": 2380,
      "##ris": 2381,
      "##amin": 2382,
      "##iptakan": 2383,
      "##akwa": 2384,
      "republik": 2385,
      "manfaat": 2386,
      "dam": 2387,
      "luka": 2388,
      "rus": 2389,
      "kil": 2390,
      "##ona": 2391,
      "budaya": 2392,
      "##anian": 2393,
      "dij": 2394,
      "##aslu": 2395,
      "tindak": 2396,
      "sl": 2397,
      "##gabung": 2398,
      "memp": 2399,
      "muhammad": 2400,
      "leg": 2401,
      "##unggu": 2402,
      "bul": 2403,
      "##turan": 2404,
      "##iksa": 2405,
      "##uduk": 2406,
      "bertemu": 2407,
      "antaranya": 2408,
      "##ikian": 2409,
      "investasi": 2410,
      "##erensi": 2411,
      "##indungan": 2412,
      "fi": 2413,
      "sd": 2414,
      "berbeda": 2415,
      "pelaksanaan": 2416,
      "pj": 2417,
      "##po": 2418,
      "kualitas": 2419,
      "dini": 2420,
      "hend": 2421,
      "tant": 2422,
      "##aim": 2423,
      "##atus": 2424,
      "uu": 2425,
      "pertum": 2426,
      "pendaft": 2427,
      "komb": 2428,
      "berkel": 2429,
      "sisi": 2430,
      "ilegal": 2431,
      "tubuh": 2432,
      "lib": 2433,
      "setempat": 2434,
      "jadwal": 2435,
      "munc": 2436,
      "personel": 2437,
      "terdapat": 2438,
      "perkara": 2439,
      "tokoh": 2440,
      "guna": 2441,
      "akses": 2442,
      "kemarin": 2443,
      "jabatan": 2444,
      "bawaslu": 2445,
      "##urah": 2446,
      "alat": 2447,
      "##mkg": 2448,
      "##fah": 2449,
      "olah": 2450,
      "##ungkinan": 2451,
      "kemungkinan": 2452,
      "juru": 2453,
      "jangan": 2454,
      "ge": 2455,
      "makin": 2456,
      "berat": 2457,
      "asing": 2458,
      "pertumbuhan": 2459,
      "rut": 2460,
      "dprd": 2461,
      "memperkuat": 2462,
      "demikian": 2463,
      "##engah": 2464,
      "menyebabkan": 2465,
      "situasi": 2466,
      "pengalaman": 2467,
      "##odo": 2468,
      "kunjungan": 2469,
      "##ambut": 2470,
      "peristi": 2471,
      "demokrasi": 2472,
      "humas": 2473,
      "muncul": 2474,
      "##pi": 2475,
      "##isan": 2476,
      "manaj": 2477,
      "##akaran": 2478,
      "tangerang": 2479,
      "##ras": 2480,
      "balik": 2481,
      "panjang": 2482,
      "seleksi": 2483,
      "pengel": 2484,
      "kasih": 2485,
      "##amping": 2486,
      "gelar": 2487,
      "##ton": 2488,
      "dokter": 2489,
      "bmkg": 2490,
      "##pons": 2491,
      "pasi": 2492,
      "putri": 2493,
      "pantai": 2494,
      "peluang": 2495,
      "mengur": 2496,
      "ditu": 2497,
      "mencari": 2498,
      "titik": 2499,
      "##akatan": 2500,
      "mahfud": 2501,
      "peristiwa": 2502,
      "aturan": 2503,
      "produksi": 2504,
      "joko": 2505,
      "ex": 2506,
      "mata": 2507,
      "##abr": 2508,
      "anc": 2509,
      "strateg": 2510,
      "vir": 2511,
      "palembang": 2512,
      "pekerjaan": 2513,
      "meman": 2514,
      "der": 2515,
      "kin": 2516,
      "pdi": 2517,
      "##antikan": 2518,
      "fr": 2519,
      "lagu": 2520,
      "##endah": 2521,
      "menyebutkan": 2522,
      "##sir": 2523,
      "dpp": 2524,
      "ternyata": 2525,
      "bir": 2526,
      "vi": 2527,
      "kos": 2528,
      "pegaw": 2529,
      "tantangan": 2530,
      "pegawai": 2531,
      "##orn": 2532,
      "pertanian": 2533,
      "##utip": 2534,
      "mempr": 2535,
      "##umpang": 2536,
      "minum": 2537,
      "penye": 2538,
      "disel": 2539,
      "100": 2540,
      "##erak": 2541,
      "sebab": 2542,
      "bola": 2543,
      "##uji": 2544,
      "##jid": 2545,
      "gab": 2546,
      "pering": 2547,
      "gratis": 2548,
      "menghadirkan": 2549,
      "konferensi": 2550,
      "tra": 2551,
      "35": 2552,
      "pesan": 2553,
      "menciptakan": 2554,
      "puluhan": 2555,
      "mk": 2556,
      "terima": 2557,
      "enggak": 2558,
      "no": 2559,
      "##th": 2560,
      "##go": 2561,
      "dihad": 2562,
      "##usung": 2563,
      "luas": 2564,
      "##rah": 2565,
      "##unjung": 2566,
      "optim": 2567,
      "##ans": 2568,
      "##uf": 2569,
      "final": 2570,
      "menekan": 2571,
      "45": 2572,
      "iz": 2573,
      "log": 2574,
      "##gub": 2575,
      "serang": 2576,
      "##arnya": 2577,
      "strategis": 2578,
      "hotel": 2579,
      "##egah": 2580,
      "##inc": 2581,
      "##tujuan": 2582,
      "tanggal": 2583,
      "siapa": 2584,
      "sehat": 2585,
      "pendaftaran": 2586,
      "mengak": 2587,
      "abdul": 2588,
      "musik": 2589,
      "##omb": 2590,
      "diharapkan": 2591,
      "ji": 2592,
      "##tar": 2593,
      "ay": 2594,
      "he": 2595,
      "sud": 2596,
      "##pir": 2597,
      "sing": 2598,
      "##lemen": 2599,
      "##atasi": 2600,
      "##ass": 2601,
      "##ayakan": 2602,
      "perj": 2603,
      "area": 2604,
      "perse": 2605,
      "harapan": 2606,
      "diperk": 2607,
      "tentu": 2608,
      "aceh": 2609,
      "keterangannya": 2610,
      "sedangkan": 2611,
      "konflik": 2612,
      "bandara": 2613,
      "sekretaris": 2614,
      "##istan": 2615,
      "sumatera": 2616,
      "##bd": 2617,
      "widodo": 2618,
      "##eluarkan": 2619,
      "pengguna": 2620,
      "##enangkan": 2621,
      "##ajak": 2622,
      "inovasi": 2623,
      "ip": 2624,
      "lampung": 2625,
      "siang": 2626,
      "kampung": 2627,
      "perlindungan": 2628,
      "it": 2629,
      "pilihan": 2630,
      "kim": 2631,
      "##kam": 2632,
      "##okasi": 2633,
      "##yan": 2634,
      "##ahas": 2635,
      "##iliun": 2636,
      "komunitas": 2637,
      "tuturnya": 2638,
      "ribuan": 2639,
      "kabar": 2640,
      "jasa": 2641,
      "##entukan": 2642,
      "##antara": 2643,
      "pendukung": 2644,
      "##ky": 2645,
      "kombes": 2646,
      "car": 2647,
      "##perasi": 2648,
      "puncak": 2649,
      "##enter": 2650,
      "solusi": 2651,
      "juara": 2652,
      "kemenk": 2653,
      "kolaborasi": 2654,
      "##sek": 2655,
      "perdag": 2656,
      "komunikasi": 2657,
      "formasi": 2658,
      "perdagangan": 2659,
      "ph": 2660,
      "du": 2661,
      "tri": 2662,
      "##udik": 2663,
      "kinerja": 2664,
      "vs": 2665,
      "##eli": 2666,
      "lahan": 2667,
      "sampah": 2668,
      "bk": 2669,
      "##ase": 2670,
      "##let": 2671,
      "penjara": 2672,
      "efek": 2673,
      "##isiko": 2674,
      "demokrat": 2675,
      "##epas": 2676,
      "eri": 2677,
      "##okan": 2678,
      "##jau": 2679,
      "islam": 2680,
      "ucapnya": 2681,
      "terbuka": 2682,
      "melaksanakan": 2683,
      "haji": 2684,
      "bernama": 2685,
      "mengumumkan": 2686,
      "##eter": 2687,
      "jaringan": 2688,
      "usia": 2689,
      "##ess": 2690,
      "sant": 2691,
      "sering": 2692,
      "disk": 2693,
      "peraturan": 2694,
      "penggunaan": 2695,
      "generasi": 2696,
      "##egini": 2697,
      "##ward": 2698,
      "tujuh": 2699,
      "latihan": 2700,
      "fo": 2701,
      "perg": 2702,
      "##entingan": 2703,
      "##osok": 2704,
      "triliun": 2705,
      "##ustrasi": 2706,
      "##pol": 2707,
      "pulau": 2708,
      "peringatan": 2709,
      "##zi": 2710,
      "##ela": 2711,
      "istri": 2712,
      "mark": 2713,
      "##uhkan": 2714,
      "kebakaran": 2715,
      "semb": 2716,
      "gunung": 2717,
      "terbesar": 2718,
      "sana": 2719,
      "go": 2720,
      "terlihat": 2721,
      "ulang": 2722,
      "memimpin": 2723,
      "ped": 2724,
      "##isme": 2725,
      "dimulai": 2726,
      "tua": 2727,
      "##ahu": 2728,
      "siswa": 2729,
      "hi": 2730,
      "melibatkan": 2731,
      "arab": 2732,
      "non": 2733,
      "penyidik": 2734,
      "amb": 2735,
      "dasar": 2736,
      "ki": 2737,
      "aplikasi": 2738,
      "kapolres": 2739,
      "sunga": 2740,
      "kepentingan": 2741,
      "##pek": 2742,
      "waj": 2743,
      "##urun": 2744,
      "##enggarakan": 2745,
      "sik": 2746,
      "##ational": 2747,
      "plat": 2748,
      "pur": 2749,
      "akbp": 2750,
      "dpd": 2751,
      "psi": 2752,
      "##artawan": 2753,
      "parlemen": 2754,
      "kalim": 2755,
      "alias": 2756,
      "sungai": 2757,
      "##cr": 2758,
      "sore": 2759,
      "suh": 2760,
      "##min": 2761,
      "cat": 2762,
      "perek": 2763,
      "##raga": 2764,
      "pari": 2765,
      "ha": 2766,
      "##adakan": 2767,
      "##andang": 2768,
      "##untut": 2769,
      "berkomitmen": 2770,
      "nik": 2771,
      "por": 2772,
      "penumpang": 2773,
      "dibandingkan": 2774,
      "diterima": 2775,
      "dikenal": 2776,
      "mi": 2777,
      "babak": 2778,
      "arah": 2779,
      "forum": 2780,
      "##unuh": 2781,
      "##ungutan": 2782,
      "aktif": 2783,
      "tps": 2784,
      "capres": 2785,
      "mir": 2786,
      "melanjutkan": 2787,
      "reg": 2788,
      "tampil": 2789,
      "##tabilitas": 2790,
      "petani": 2791,
      "judi": 2792,
      "anti": 2793,
      "ilustrasi": 2794,
      "bekasi": 2795,
      "##all": 2796,
      "kematian": 2797,
      "##tin": 2798,
      "sebut": 2799,
      "pram": 2800,
      "kepem": 2801,
      "##anjian": 2802,
      "kre": 2803,
      "wan": 2804,
      "wartawan": 2805,
      "##ite": 2806,
      "##icu": 2807,
      "gug": 2808,
      "bumn": 2809,
      "tampak": 2810,
      "##itasi": 2811,
      "nusantara": 2812,
      "prib": 2813,
      "##gikan": 2814,
      "##tisipasi": 2815,
      "debat": 2816,
      "##if": 2817,
      "kesep": 2818,
      "pentingnya": 2819,
      "kenaikan": 2820,
      "hukuman": 2821,
      "dilaporkan": 2822,
      "alam": 2823,
      "aktivitas": 2824,
      "disi": 2825,
      "perjanjian": 2826,
      "nt": 2827,
      "mengajak": 2828,
      "##erd": 2829,
      "##esaikan": 2830,
      "pengur": 2831,
      "berasal": 2832,
      "semangat": 2833,
      "##ty": 2834,
      "insi": 2835,
      "kesel": 2836,
      "##utuskan": 2837,
      "berupa": 2838,
      "ancaman": 2839,
      "##ero": 2840,
      "strate": 2841,
      "biaya": 2842,
      "bagus": 2843,
      "##angkaian": 2844,
      "pkb": 2845,
      "imi": 2846,
      "##truktur": 2847,
      "agen": 2848,
      "strategi": 2849,
      "sini": 2850,
      "##ment": 2851,
      "pemuda": 2852,
      "##ayaan": 2853,
      "##akuasi": 2854,
      "##ujudkan": 2855,
      "bint": 2856,
      "##impi": 2857,
      "##ancis": 2858,
      "##emi": 2859,
      "buah": 2860,
      "fes": 2861,
      "gi": 2862,
      "##lar": 2863,
      "ran": 2864,
      "batu": 2865,
      "##ho": 2866,
      "##unda": 2867,
      "penju": 2868,
      "spesi": 2869,
      "momen": 2870,
      "daft": 2871,
      "##embangkan": 2872,
      "##faatkan": 2873,
      "penyelidikan": 2874,
      "menurun": 2875,
      "wah": 2876,
      "gabungan": 2877,
      "jerman": 2878,
      "pup": 2879,
      "sulit": 2880,
      "##anji": 2881,
      "gro": 2882,
      "##dangan": 2883,
      "##kp": 2884,
      "pasti": 2885,
      "lul": 2886,
      "##anja": 2887,
      "##adah": 2888,
      "medan": 2889,
      "jog": 2890,
      "##wakilan": 2891,
      "az": 2892,
      "berkelanjutan": 2893,
      "izin": 2894,
      "ob": 2895,
      "##entikan": 2896,
      "berusaha": 2897,
      "##jahter": 2898,
      "bap": 2899,
      "##urahan": 2900,
      "##bus": 2901,
      "meres": 2902,
      "mahkam": 2903,
      "mahkamah": 2904,
      "sm": 2905,
      "##masi": 2906,
      "platform": 2907,
      "dianggap": 2908,
      "##oran": 2909,
      "insta": 2910,
      "jelasnya": 2911,
      "##anjutnya": 2912,
      "jajaran": 2913,
      "gemp": 2914,
      "##indra": 2915,
      "dilaksanakan": 2916,
      "ahli": 2917,
      "sukses": 2918,
      "kanan": 2919,
      "bad": 2920,
      "tum": 2921,
      "##entuk": 2922,
      "dipr": 2923,
      "##alahkan": 2924,
      "lebaran": 2925,
      "masjid": 2926,
      "gagal": 2927,
      "daftar": 2928,
      "div": 2929,
      "##abuhan": 2930,
      "bersih": 2931,
      "tenggara": 2932,
      "##yanto": 2933,
      "##nif": 2934,
      "instagram": 2935,
      "kekuatan": 2936,
      "##elis": 2937,
      "##imb": 2938,
      "ramadan": 2939,
      "hit": 2940,
      "##dayaan": 2941,
      "##arus": 2942,
      "bebas": 2943,
      "##tal": 2944,
      "perwakilan": 2945,
      "selanjutnya": 2946,
      "##pirasi": 2947,
      "begini": 2948,
      "nu": 2949,
      "##idat": 2950,
      "pajak": 2951,
      "##ork": 2952,
      "##angkapan": 2953,
      "kader": 2954,
      "##onald": 2955,
      "stu": 2956,
      "menolak": 2957,
      "ikn": 2958,
      "dise": 2959,
      "pelatihan": 2960,
      "skor": 2961,
      "##alisasi": 2962,
      "caw": 2963,
      "prancis": 2964,
      "##asanya": 2965,
      "terdiri": 2966,
      "belakang": 2967,
      "##olaan": 2968,
      "##antas": 2969,
      "##indungi": 2970,
      "keduanya": 2971,
      "ai": 2972,
      "pon": 2973,
      "##ambang": 2974,
      "ditetapkan": 2975,
      "berupaya": 2976,
      "pemba": 2977,
      "##ebih": 2978,
      "mitra": 2979,
      "olahraga": 2980,
      "##bk": 2981,
      "##tulis": 2982,
      "pengelolaan": 2983,
      "##ail": 2984,
      "##sor": 2985,
      "keper": 2986,
      "konsumen": 2987,
      "lan": 2988,
      "##antung": 2989,
      "pilgub": 2990,
      "mengungkap": 2991,
      "pengawasan": 2992,
      "lantaran": 2993,
      "sosok": 2994,
      "perbatasan": 2995,
      "##isah": 2996,
      "##juk": 2997,
      "aku": 2998,
      "##tinggi": 2999,
      "kri": 3000,
      "##epatan": 3001,
      "filip": 3002,
      "metro": 3003,
      "##urat": 3004,
      "lakukan": 3005,
      "malay": 3006,
      "kalimantan": 3007,
      "hid": 3008,
      "##ampingi": 3009,
      "center": 3010,
      "##ewaskan": 3011,
      "##onton": 3012,
      "malaysia": 3013,
      "tahap": 3014,
      "##onsumsi": 3015,
      "ayah": 3016,
      "##onomian": 3017,
      "india": 3018,
      "gerindra": 3019,
      "insiden": 3020,
      "filipina": 3021,
      "##uad": 3022,
      "##ewa": 3023,
      "menangkap": 3024,
      "delapan": 3025,
      "32": 3026,
      "hab": 3027,
      "##anon": 3028,
      "##uma": 3029,
      "sejarah": 3030,
      "##kab": 3031,
      "##antik": 3032,
      "pribadi": 3033,
      "##yarat": 3034,
      "perekonomian": 3035,
      "bertujuan": 3036,
      "##iaga": 3037,
      "dokumen": 3038,
      "risiko": 3039,
      "##pan": 3040,
      "memenangkan": 3041,
      "ialah": 3042,
      "##etisi": 3043,
      "##aka": 3044,
      "##alnya": 3045,
      "pelabuhan": 3046,
      "konstitusi": 3047,
      "##sedia": 3048,
      "boleh": 3049,
      "kelurahan": 3050,
      "ringan": 3051,
      "##onf": 3052,
      "mengetahui": 3053,
      "ton": 3054,
      "tud": 3055,
      "menya": 3056,
      "pemungutan": 3057,
      "##uth": 3058,
      "manajemen": 3059,
      "##awarkan": 3060,
      "lebanon": 3061,
      "dikutip": 3062,
      "minta": 3063,
      "terh": 3064,
      "pemilik": 3065,
      "mencegah": 3066,
      "perhatian": 3067,
      "##ampuan": 3068,
      "##anggar": 3069,
      "sri": 3070,
      "top": 3071,
      "menyer": 3072,
      "konser": 3073,
      "##ej": 3074,
      "##andatangan": 3075,
      "##wed": 3076,
      "sta": 3077,
      "penga": 3078,
      "##indak": 3079,
      "mempert": 3080,
      "intel": 3081,
      "mandiri": 3082,
      "keman": 3083,
      "paris": 3084,
      "tes": 3085,
      "##agam": 3086,
      "hadi": 3087,
      "kemampuan": 3088,
      "signif": 3089,
      "tal": 3090,
      "##ender": 3091,
      "bangunan": 3092,
      "signifikan": 3093,
      "##wang": 3094,
      "##ens": 3095,
      "##eman": 3096,
      "tai": 3097,
      "##wil": 3098,
      "infras": 3099,
      "##ming": 3100,
      "hilang": 3101,
      "##ebasan": 3102,
      "menyedi": 3103,
      "menyediakan": 3104,
      "##ex": 3105,
      "kesejahter": 3106,
      "kesejahteraan": 3107,
      "##ilah": 3108,
      "menghadiri": 3109,
      "mengurangi": 3110,
      "menangg": 3111,
      "gerakan": 3112,
      "##tian": 3113,
      "meluncurkan": 3114,
      "kemanusi": 3115,
      "dah": 3116,
      "##irmasi": 3117,
      "##wedan": 3118,
      "pang": 3119,
      "rata": 3120,
      "pemas": 3121,
      "truk": 3122,
      "##ofi": 3123,
      "menjabat": 3124,
      "tip": 3125,
      "##lan": 3126,
      "##ora": 3127,
      "pelanggan": 3128,
      "angkatan": 3129,
      "36": 3130,
      "berbicara": 3131,
      "##kl": 3132,
      "##so": 3133,
      "##isk": 3134,
      "##umham": 3135,
      "baswedan": 3136,
      "kateg": 3137,
      "pemkot": 3138,
      "kemanusiaan": 3139,
      "kategori": 3140,
      "tertinggi": 3141,
      "status": 3142,
      "kandidat": 3143,
      "jogja": 3144,
      "dom": 3145,
      "fran": 3146,
      "kiri": 3147,
      "rev": 3148,
      "sukar": 3149,
      "sank": 3150,
      "##antasan": 3151,
      "kampus": 3152,
      "km": 3153,
      "##tra": 3154,
      "airl": 3155,
      "terdakwa": 3156,
      "minyak": 3157,
      "menjalankan": 3158,
      "koordinator": 3159,
      "##oba": 3160,
      "##uler": 3161,
      "infrastruktur": 3162,
      "tata": 3163,
      "pemberantasan": 3164,
      "kara": 3165,
      "long": 3166,
      "##tival": 3167,
      "et": 3168,
      "suami": 3169,
      "tentara": 3170,
      "teror": 3171,
      "##abumi": 3172,
      "riz": 3173,
      "##tifikasi": 3174,
      "mengirim": 3175,
      "##ampilan": 3176,
      "klub": 3177,
      "##stem": 3178,
      "##isa": 3179,
      "##endara": 3180,
      "profesi": 3181,
      "festival": 3182,
      "kun": 3183,
      "##dy": 3184,
      "seben": 3185,
      "visi": 3186,
      "menunggu": 3187,
      "menewaskan": 3188,
      "##enangan": 3189,
      "selamat": 3190,
      "##onis": 3191,
      "2021": 3192,
      "membutuhkan": 3193,
      "sukabumi": 3194,
      "##tuju": 3195,
      "##apatan": 3196,
      "percaya": 3197,
      "arus": 3198,
      "maksim": 3199,
      "bbc": 3200,
      "sanksi": 3201,
      "justr": 3202,
      "##hadiran": 3203,
      "justru": 3204,
      "cab": 3205,
      "##upa": 3206,
      "dinilai": 3207,
      "sebenarnya": 3208,
      "##lukan": 3209,
      "##gn": 3210,
      "suriah": 3211,
      "##bulkan": 3212,
      "menik": 3213,
      "motog": 3214,
      "tam": 3215,
      "##ver": 3216,
      "senior": 3217,
      "##prov": 3218,
      "iii": 3219,
      "##oritas": 3220,
      "##adisi": 3221,
      "##idupan": 3222,
      "tiket": 3223,
      "motogp": 3224,
      "##bangkan": 3225,
      "bergerak": 3226,
      "penyebab": 3227,
      "kalah": 3228,
      "jiwa": 3229,
      "memutuskan": 3230,
      "##uhnya": 3231,
      "33": 3232,
      "misi": 3233,
      "penangan": 3234,
      "##jaga": 3235,
      "##pns": 3236,
      "##uruan": 3237,
      "ekspor": 3238,
      "majelis": 3239,
      "kesepakatan": 3240,
      "500": 3241,
      "##apr": 3242,
      "mengatasi": 3243,
      "sumsel": 3244,
      "perkembangan": 3245,
      "meter": 3246,
      "anaknya": 3247,
      "##intaan": 3248,
      "##wisata": 3249,
      "##iayaan": 3250,
      "rudal": 3251,
      "group": 3252,
      "pengungsi": 3253,
      "##arif": 3254,
      "membahas": 3255,
      "minim": 3256,
      "mendes": 3257,
      "penanganan": 3258,
      "##ins": 3259,
      "impor": 3260,
      "kompl": 3261,
      "wanita": 3262,
      "cpns": 3263,
      "##45": 3264,
      "kehadiran": 3265,
      "paket": 3266,
      "pik": 3267,
      "##itian": 3268,
      "##adai": 3269,
      "moh": 3270,
      "menetapkan": 3271,
      "terg": 3272,
      "##bau": 3273,
      "mengajukan": 3274,
      "kehidupan": 3275,
      "mon": 3276,
      "##operasi": 3277,
      "international": 3278,
      "damai": 3279,
      "merek": 3280,
      "##bud": 3281,
      "menyambut": 3282,
      "mencoba": 3283,
      "hasto": 3284,
      "genc": 3285,
      "##lo": 3286,
      "uni": 3287,
      "##laim": 3288,
      "bumi": 3289,
      "60": 3290,
      "##andar": 3291,
      "##impiade": 3292,
      "##mat": 3293,
      "##ink": 3294,
      "menekankan": 3295,
      "34": 3296,
      "##pur": 3297,
      "tradisi": 3298,
      "##evel": 3299,
      "##atar": 3300,
      "##awesi": 3301,
      "sulawesi": 3302,
      "penelitian": 3303,
      "ridwan": 3304,
      "kereta": 3305,
      "##har": 3306,
      "lu": 3307,
      "##mu": 3308,
      "perp": 3309,
      "antar": 3310,
      "studi": 3311,
      "##kand": 3312,
      "tema": 3313,
      "menawarkan": 3314,
      "park": 3315,
      "gas": 3316,
      "imigrasi": 3317,
      "gempa": 3318,
      "##asakan": 3319,
      "##butan": 3320,
      "##usif": 3321,
      "seharus": 3322,
      "pks": 3323,
      "diperkirakan": 3324,
      "seharusnya": 3325,
      "det": 3326,
      "atlet": 3327,
      "mewujudkan": 3328,
      "38": 3329,
      "ses": 3330,
      "##engkap": 3331,
      "mengakui": 3332,
      "berawan": 3333,
      "##jaya": 3334,
      "##entar": 3335,
      "sepeda": 3336,
      "berbasis": 3337,
      "jaksa": 3338,
      "iklim": 3339,
      "penjualan": 3340,
      "seles": 3341,
      "admin": 3342,
      "kompetisi": 3343,
      "tab": 3344,
      "##gia": 3345,
      "##ual": 3346,
      "##ral": 3347,
      "##ganya": 3348,
      "##wab": 3349,
      "prot": 3350,
      "klas": 3351,
      "199": 3352,
      "panas": 3353,
      "unggul": 3354,
      "syarat": 3355,
      "darah": 3356,
      "##ailand": 3357,
      "jemb": 3358,
      "thailand": 3359,
      "terdampak": 3360,
      "sikap": 3361,
      "mati": 3362,
      "##alisi": 3363,
      "berpotensi": 3364,
      "tambahan": 3365,
      "penerbangan": 3366,
      "kari": 3367,
      "nyata": 3368,
      "##tup": 3369,
      "bergabung": 3370,
      "fisi": 3371,
      "mudik": 3372,
      "##zah": 3373,
      "rekan": 3374,
      "##ahatan": 3375,
      "mengeluarkan": 3376,
      "saudi": 3377,
      "kejahatan": 3378,
      "rendah": 3379,
      "##hawat": 3380,
      "##ungkan": 3381,
      "menyi": 3382,
      "##aksaan": 3383,
      "fitur": 3384,
      "##gasi": 3385,
      "aset": 3386,
      "pakar": 3387,
      "##bal": 3388,
      "mengamankan": 3389,
      "##uku": 3390,
      "##abuming": 3391,
      "berkembang": 3392,
      "muslim": 3393,
      "##indo": 3394,
      "rakabuming": 3395,
      "idul": 3396,
      "diskusi": 3397,
      "mengembangkan": 3398,
      "##ancam": 3399,
      "menutur": 3400,
      "selesai": 3401,
      "menuturkan": 3402,
      "red": 3403,
      "##ge": 3404,
      "##erita": 3405,
      "##arikan": 3406,
      "penduduk": 3407,
      "berlaku": 3408,
      "##sisten": 3409,
      "##edia": 3410,
      "2019": 3411,
      "permintaan": 3412,
      "##angani": 3413,
      "pencarian": 3414,
      "raka": 3415,
      "##ida": 3416,
      "menyerang": 3417,
      "##awatan": 3418,
      "##num": 3419,
      "penjabat": 3420,
      "kulit": 3421,
      "gugatan": 3422,
      "menengah": 3423,
      "peman": 3424,
      "oknum": 3425,
      "apala": 3426,
      "apalagi": 3427,
      "operasional": 3428,
      "bh": 3429,
      "##itri": 3430,
      "peneg": 3431,
      "pemkab": 3432,
      "cor": 3433,
      "berper": 3434,
      "pec": 3435,
      "padang": 3436,
      "##atikan": 3437,
      "##anggil": 3438,
      "mencatat": 3439,
      "eksek": 3440,
      "libur": 3441,
      "##larasi": 3442,
      "rangka": 3443,
      "apresiasi": 3444,
      "skuad": 3445,
      "dibawa": 3446,
      "##ito": 3447,
      "##abila": 3448,
      "gram": 3449,
      "55": 3450,
      "rokok": 3451,
      "kerus": 3452,
      "##bol": 3453,
      "##iksi": 3454,
      "inisi": 3455,
      "ist": 3456,
      "##adem": 3457,
      "##elola": 3458,
      "perawatan": 3459,
      "##utri": 3460,
      "tas": 3461,
      "tuan": 3462,
      "berakhir": 3463,
      "sas": 3464,
      "saw": 3465,
      "##apaian": 3466,
      "diduk": 3467,
      "##antinya": 3468,
      "persiapan": 3469,
      "didukung": 3470,
      "obat": 3471,
      "taiwan": 3472,
      "airlangga": 3473,
      "uji": 3474,
      "##arjo": 3475,
      "##iraan": 3476,
      "##ampi": 3477,
      "massa": 3478,
      "pariwisata": 3479,
      "roh": 3480,
      "seja": 3481,
      "##entak": 3482,
      "bintang": 3483,
      "menanggapi": 3484,
      "fl": 3485,
      "##omend": 3486,
      "##endali": 3487,
      "##anyakan": 3488,
      "transaksi": 3489,
      "mengingat": 3490,
      "mengingatkan": 3491,
      "misalnya": 3492,
      "kemenkumham": 3493,
      "##omendasi": 3494,
      "pembel": 3495,
      "shin": 3496,
      "##asilkan": 3497,
      "##daftar": 3498,
      "kepemimpinan": 3499,
      "##akup": 3500,
      "##osk": 3501,
      "buruk": 3502,
      "samb": 3503,
      "penangkapan": 3504,
      "melanggar": 3505,
      "terlalu": 3506,
      "diminta": 3507,
      "aparat": 3508,
      "administr": 3509,
      "sir": 3510,
      "##eni": 3511,
      "lawan": 3512,
      "ide": 3513,
      "##ekar": 3514,
      "menyus": 3515,
      "tercatat": 3516,
      "rutin": 3517,
      "tuduhan": 3518,
      "fat": 3519,
      "angin": 3520,
      "off": 3521,
      "##ell": 3522,
      "ca": 3523,
      "hutan": 3524,
      "##by": 3525,
      "##sh": 3526,
      "##bi": 3527,
      "biasanya": 3528,
      "yakin": 3529,
      "pengusaha": 3530,
      "##apresiasi": 3531,
      "award": 3532,
      "hew": 3533,
      "##ulang": 3534,
      "olimpiade": 3535,
      "bany": 3536,
      "pah": 3537,
      "akbar": 3538,
      "##temen": 3539,
      "saling": 3540,
      "garuda": 3541,
      "37": 3542,
      "gor": 3543,
      "##adar": 3544,
      "##urangan": 3545,
      "kalangan": 3546,
      "mesin": 3547,
      "##ukur": 3548,
      "menyiapkan": 3549,
      "hiz": 3550,
      "##ts": 3551,
      "##iring": 3552,
      "##erjaan": 3553,
      "##bullah": 3554,
      "ni": 3555,
      "prod": 3556,
      "koalisi": 3557,
      "tanda": 3558,
      "pengan": 3559,
      "##yadi": 3560,
      "##torat": 3561,
      "##unci": 3562,
      "kursi": 3563,
      "##ee": 3564,
      "##egara": 3565,
      "##aluasi": 3566,
      "amin": 3567,
      "viet": 3568,
      "era": 3569,
      "##dan": 3570,
      "bangk": 3571,
      "iv": 3572,
      "kompet": 3573,
      "meninggalkan": 3574,
      "city": 3575,
      "##ometer": 3576,
      "pemprov": 3577,
      "##assar": 3578,
      "##ast": 3579,
      "##ilangan": 3580,
      "krim": 3581,
      "kejaksaan": 3582,
      "##hing": 3583,
      "##ker": 3584,
      "pengamanan": 3585,
      "ilmu": 3586,
      "##mati": 3587,
      "##asitas": 3588,
      "makassar": 3589,
      "maksimal": 3590,
      "hut": 3591,
      "##atuan": 3592,
      "peringkat": 3593,
      "##ikin": 3594,
      "say": 3595,
      "mempering": 3596,
      "buka": 3597,
      "coba": 3598,
      "menim": 3599,
      "megaw": 3600,
      "berdampak": 3601,
      "teknis": 3602,
      "serius": 3603,
      "hizbullah": 3604,
      "taman": 3605,
      "serentak": 3606,
      "dewi": 3607,
      "##gung": 3608,
      "2020": 3609,
      "##edar": 3610,
      "manag": 3611,
      "##unggal": 3612,
      "mcr": 3613,
      "##udara": 3614,
      "sepak": 3615,
      "awak": 3616,
      "##alifikasi": 3617,
      "indra": 3618,
      "buku": 3619,
      "sejauh": 3620,
      "koordinasi": 3621,
      "hewan": 3622,
      "champi": 3623,
      "##ner": 3624,
      "tertulis": 3625,
      "staf": 3626,
      "gam": 3627,
      "selaku": 3628,
      "melindungi": 3629,
      "##ongk": 3630,
      "##iriman": 3631,
      "##los": 3632,
      "putaran": 3633,
      "menyelesaikan": 3634,
      "kot": 3635,
      "penet": 3636,
      "##ice": 3637,
      "##arti": 3638,
      "pengurus": 3639,
      "cawapres": 3640,
      "comm": 3641,
      "##ambah": 3642,
      "pekanbaru": 3643,
      "faktor": 3644,
      "logistik": 3645,
      "diikuti": 3646,
      "##itkan": 3647,
      "##ainkan": 3648,
      "mendesak": 3649,
      "megawati": 3650,
      "##asta": 3651,
      "memasuki": 3652,
      "ikan": 3653,
      "##der": 3654,
      "memicu": 3655,
      "ekstr": 3656,
      "cip": 3657,
      "mpr": 3658,
      "##tain": 3659,
      "##tir": 3660,
      "##esang": 3661,
      "mag": 3662,
      "sehari": 3663,
      "menambah": 3664,
      "uj": 3665,
      "##resi": 3666,
      "tekan": 3667,
      "purw": 3668,
      "##ren": 3669,
      "##etan": 3670,
      "pendapatan": 3671,
      "materi": 3672,
      "medis": 3673,
      "persis": 3674,
      "kaesang": 3675,
      "##emaja": 3676,
      "fakta": 3677,
      "##ekat": 3678,
      "sembilan": 3679,
      "##de": 3680,
      "mund": 3681,
      "harris": 3682,
      "darurat": 3683,
      "##illah": 3684,
      "##anjung": 3685,
      "##asilan": 3686,
      "kuasa": 3687,
      "tertentu": 3688,
      "vietnam": 3689,
      "perc": 3690,
      "##ombang": 3691,
      "rai": 3692,
      "##amaian": 3693,
      "pertanya": 3694,
      "##anggu": 3695,
      "pertanyaan": 3696,
      "hil": 3697,
      "ditahan": 3698,
      "kabin": 3699,
      "bayi": 3700,
      "pupuk": 3701,
      "##tual": 3702,
      "##bo": 3703,
      "kepula": 3704,
      "kepulauan": 3705,
      "fed": 3706,
      "pac": 3707,
      "menyerahkan": 3708,
      "mencetak": 3709,
      "bunga": 3710,
      "##ayu": 3711,
      "##ahankan": 3712,
      "belajar": 3713,
      "ungkapnya": 3714,
      "praktik": 3715,
      "##ei": 3716,
      "terang": 3717,
      "star": 3718,
      "transpor": 3719,
      "minuman": 3720,
      "diselenggarakan": 3721,
      "do": 3722,
      "mur": 3723,
      "setidak": 3724,
      "##onfirmasi": 3725,
      "karawang": 3726,
      "##abah": 3727,
      "kamil": 3728,
      "kualifikasi": 3729,
      "sleman": 3730,
      "gencatan": 3731,
      "yong": 3732,
      "khofi": 3733,
      "setidaknya": 3734,
      "khofifah": 3735,
      "##elawan": 3736,
      "tanggung": 3737,
      "sukarelawan": 3738,
      "klaim": 3739,
      "##insip": 3740,
      "mengk": 3741,
      "##anyi": 3742,
      "##cayaan": 3743,
      "##nu": 3744,
      "mengapresiasi": 3745,
      "##ediksi": 3746,
      "stasi": 3747,
      "moham": 3748,
      "##ez": 3749,
      "prior": 3750,
      "##udin": 3751,
      "##unjungi": 3752,
      "terlebih": 3753,
      "irjen": 3754,
      "kehilangan": 3755,
      "penyelenggaraan": 3756,
      "bengk": 3757,
      "con": 3758,
      "jurn": 3759,
      "##uy": 3760,
      "persero": 3761,
      "##yakini": 3762,
      "rup": 3763,
      "sap": 3764,
      "pengamat": 3765,
      "##ick": 3766,
      "gian": 3767,
      "voa": 3768,
      "##lasi": 3769,
      "kilometer": 3770,
      "memanfaatkan": 3771,
      "##adinya": 3772,
      "prinsip": 3773,
      "##bagi": 3774,
      "pendek": 3775,
      "menimbulkan": 3776,
      "stasiun": 3777,
      "nantinya": 3778,
      "##ainan": 3779,
      "penetapan": 3780,
      "mengusung": 3781,
      "senayan": 3782,
      "prioritas": 3783,
      "pabr": 3784,
      "##enalkan": 3785,
      "pabrik": 3786,
      "##kti": 3787,
      "bahasa": 3788,
      "akp": 3789,
      "apabila": 3790,
      "kaltim": 3791,
      "invest": 3792,
      "pulang": 3793,
      "dihadiri": 3794,
      "tun": 3795,
      "mencakup": 3796,
      "penyelenggara": 3797,
      "je": 3798,
      "polresta": 3799,
      "buat": 3800,
      "remaja": 3801,
      "##oalan": 3802,
      "mengonsumsi": 3803,
      "persoalan": 3804,
      "longsor": 3805,
      "jangka": 3806,
      "##sos": 3807,
      "##ambat": 3808,
      "dipimpin": 3809,
      "##tivitas": 3810,
      "##tabes": 3811,
      "mencer": 3812,
      "mig": 3813,
      "konten": 3814,
      "dag": 3815,
      "transportasi": 3816,
      "kat": 3817,
      "lihat": 3818,
      "zona": 3819,
      "##egang": 3820,
      "sosialisasi": 3821,
      "champions": 3822,
      "##aker": 3823,
      "kapasitas": 3824,
      "rusak": 3825,
      "##rika": 3826,
      "##sus": 3827,
      "##oman": 3828,
      "akr": 3829,
      "terbukti": 3830,
      "tunggal": 3831,
      "polsek": 3832,
      "dibuka": 3833,
      "legis": 3834,
      "cir": 3835,
      "kunci": 3836,
      "marc": 3837,
      "ketena": 3838,
      "##oroti": 3839,
      "washing": 3840,
      "md": 3841,
      "rob": 3842,
      "komand": 3843,
      "##ence": 3844,
      "menjawab": 3845,
      "rangkaian": 3846,
      "bpbd": 3847,
      "laman": 3848,
      "perum": 3849,
      "pran": 3850,
      "##osiasi": 3851,
      "berkon": 3852,
      "tambahnya": 3853,
      "wi": 3854,
      "##pon": 3855,
      "diambil": 3856,
      "berisi": 3857,
      "merilis": 3858,
      "pengawas": 3859,
      "pohon": 3860,
      "##ey": 3861,
      "berf": 3862,
      "##urunan": 3863,
      "mengubah": 3864,
      "penurunan": 3865,
      "mundur": 3866,
      "washington": 3867,
      "cl": 3868,
      "##oso": 3869,
      "##edakan": 3870,
      "##ubungi": 3871,
      "standar": 3872,
      "##ontoh": 3873,
      "nusa": 3874,
      "##sidi": 3875,
      "##ulis": 3876,
      "regi": 3877,
      "kt": 3878,
      "##gh": 3879,
      "##yono": 3880,
      "##uddin": 3881,
      "##wenang": 3882,
      "##ajuan": 3883,
      "keru": 3884,
      "profesional": 3885,
      "berarti": 3886,
      "pera": 3887,
      "segala": 3888,
      "##uasaan": 3889,
      "##amar": 3890,
      "sebaga": 3891,
      "hitam": 3892,
      "fisik": 3893,
      "yus": 3894,
      "sumut": 3895,
      "aktivis": 3896,
      "kerugian": 3897,
      "hel": 3898,
      "otor": 3899,
      "tahanan": 3900,
      "senang": 3901,
      "kepercayaan": 3902,
      "##akuan": 3903,
      "perint": 3904,
      "##juang": 3905,
      "##son": 3906,
      "##yu": 3907,
      "bakar": 3908,
      "ident": 3909,
      "mengalahkan": 3910,
      "usai": 3911,
      "##entuan": 3912,
      "menurunkan": 3913,
      "nel": 3914,
      "##..": 3915,
      "seksu": 3916,
      "bapak": 3917,
      "##kandar": 3918,
      "ketenagak": 3919,
      "berkontribusi": 3920,
      "donald": 3921,
      "finan": 3922,
      "hib": 3923,
      "teh": 3924,
      "##ahami": 3925,
      "##itung": 3926,
      "pengunjung": 3927,
      "pasien": 3928,
      "ketenagakerjaan": 3929,
      "##iban": 3930,
      "semuanya": 3931,
      "kontrak": 3932,
      "##lom": 3933,
      "pelajar": 3934,
      "ketat": 3935,
      "##ungkinkan": 3936,
      "arif": 3937,
      "joh": 3938,
      "wor": 3939,
      "##ahun": 3940,
      "menjadikan": 3941,
      "umat": 3942,
      "pameran": 3943,
      "taj": 3944,
      "lengkap": 3945,
      "toko": 3946,
      "administrasi": 3947,
      "sor": 3948,
      "wat": 3949,
      "tae": 3950,
      "fungsi": 3951,
      "memulai": 3952,
      "khawat": 3953,
      "rp1": 3954,
      "beragam": 3955,
      "##esan": 3956,
      "iskandar": 3957,
      "dj": 3958,
      "hijau": 3959,
      "39": 3960,
      "kemajuan": 3961,
      "pintu": 3962,
      "seksual": 3963,
      "brand": 3964,
      "##argetkan": 3965,
      "boj": 3966,
      "cil": 3967,
      "##imbau": 3968,
      "adat": 3969,
      "dipas": 3970,
      "catatan": 3971,
      "kabinet": 3972,
      "gad": 3973,
      "##osisi": 3974,
      "solid": 3975,
      "cabang": 3976,
      "alami": 3977,
      "pemberian": 3978,
      "elektr": 3979,
      "##uksi": 3980,
      "polit": 3981,
      "##umpul": 3982,
      "##tansi": 3983,
      "madura": 3984,
      "elektabilitas": 3985,
      "batas": 3986,
      "tangga": 3987,
      "gianyar": 3988,
      "dulu": 3989,
      "kak": 3990,
      "##hiri": 3991,
      "##fik": 3992,
      "##utif": 3993,
      "imbuh": 3994,
      "##ancar": 3995,
      "fer": 3996,
      "nasi": 3997,
      "##jur": 3998,
      "menutup": 3999,
      "super": 4000,
      "##eor": 4001,
      "diamankan": 4002,
      "##indari": 4003,
      "situs": 4004,
      "real": 4005,
      "model": 4006,
      "khawatir": 4007,
      "mor": 4008,
      "tp": 4009,
      "##ahi": 4010,
      "##ino": 4011,
      "suatu": 4012,
      "layak": 4013,
      "riset": 4014,
      "##land": 4015,
      "peg": 4016,
      "##erai": 4017,
      "##urian": 4018,
      "karyawan": 4019,
      "tanjung": 4020,
      "plas": 4021,
      "ditemui": 4022,
      "warna": 4023,
      "aparatur": 4024,
      "ceo": 4025,
      "memungkinkan": 4026,
      "##amaan": 4027,
      "soekar": 4028,
      "upa": 4029,
      "rekomendasi": 4030,
      "48": 4031,
      "sun": 4032,
      "##\",": 4033,
      "keselamatan": 4034,
      "43": 4035,
      "bambang": 4036,
      "kaki": 4037,
      "mik": 4038,
      "##fat": 4039,
      "wajib": 4040,
      "kp": 4041,
      "beliau": 4042,
      "merespons": 4043,
      "dahulu": 4044,
      "44": 4045,
      "dap": 4046,
      "om": 4047,
      "##erat": 4048,
      "beroperasi": 4049,
      "menghentikan": 4050,
      "##ohonan": 4051,
      "joe": 4052,
      "tekanan": 4053,
      "mengand": 4054,
      "##omosi": 4055,
      "cal": 4056,
      "camp": 4057,
      "##ahal": 4058,
      "tulis": 4059,
      "regional": 4060,
      "##bs": 4061,
      "kerusakan": 4062,
      "bilang": 4063,
      "ded": 4064,
      "##vensi": 4065,
      "##tion": 4066,
      "afrika": 4067,
      "intensi": 4068,
      "kriminal": 4069,
      "##eorologi": 4070,
      "menentukan": 4071,
      "##app": 4072,
      "dav": 4073,
      "jatuh": 4074,
      "##istis": 4075,
      "surakarta": 4076,
      "muhaim": 4077,
      "perdamaian": 4078,
      "muhaimin": 4079,
      "##fisi": 4080,
      "senilai": 4081,
      "depar": 4082,
      "relawan": 4083,
      "pranowo": 4084,
      "jena": 4085,
      "sop": 4086,
      "##ld": 4087,
      "##fe": 4088,
      "kerap": 4089,
      "upacara": 4090,
      "jenazah": 4091,
      "tay": 4092,
      "wal": 4093,
      "##undang": 4094,
      "##adu": 4095,
      "sekjen": 4096,
      "seni": 4097,
      "persebaya": 4098,
      "kompleks": 4099,
      "gaji": 4100,
      "rest": 4101,
      "##rid": 4102,
      "norm": 4103,
      "##ebut": 4104,
      "perayaan": 4105,
      "##ester": 4106,
      "desain": 4107,
      "kred": 4108,
      "tambang": 4109,
      "padahal": 4110,
      "efektif": 4111,
      "ntb": 4112,
      "##truksi": 4113,
      "migran": 4114,
      "##osistem": 4115,
      "kapten": 4116,
      "##ampilkan": 4117,
      "protes": 4118,
      "pengiriman": 4119,
      "darat": 4120,
      "liter": 4121,
      "##onik": 4122,
      "##iling": 4123,
      "berta": 4124,
      "ekosistem": 4125,
      "membeli": 4126,
      "##ijing": 4127,
      "nasabah": 4128,
      "news": 4129,
      "berperan": 4130,
      "bend": 4131,
      "hy": 4132,
      "mengec": 4133,
      "mengunjungi": 4134,
      "beijing": 4135,
      "##anggilan": 4136,
      "diny": 4137,
      "integr": 4138,
      "eksekutif": 4139,
      "keadaan": 4140,
      "##apol": 4141,
      "##apura": 4142,
      "##endik": 4143,
      "agenda": 4144,
      "jema": 4145,
      "##syah": 4146,
      "##elasan": 4147,
      "mac": 4148,
      "memperoleh": 4149,
      "##ace": 4150,
      "nyaman": 4151,
      "lp": 4152,
      "##uny": 4153,
      "##uro": 4154,
      "##esti": 4155,
      "taw": 4156,
      "ibadah": 4157,
      "bung": 4158,
      "eduk": 4159,
      "nah": 4160,
      "##akai": 4161,
      "kartu": 4162,
      "institu": 4163,
      "ekstrem": 4164,
      "...": 4165,
      "##que": 4166,
      "##otan": 4167,
      "satuan": 4168,
      "bertanggung": 4169,
      "dibuat": 4170,
      "han": 4171,
      "sya": 4172,
      "kamar": 4173,
      "##evakuasi": 4174,
      "mari": 4175,
      "##oga": 4176,
      "##alin": 4177,
      "berubah": 4178,
      "##itungan": 4179,
      "penyanyi": 4180,
      "narkot": 4181,
      "bertajuk": 4182,
      "pot": 4183,
      "##ahmi": 4184,
      "berwenang": 4185,
      "term": 4186,
      "saudara": 4187,
      "##gres": 4188,
      "bersen": 4189,
      "menghasilkan": 4190,
      "kontra": 4191,
      "narkotika": 4192,
      "##ish": 4193,
      "mengadakan": 4194,
      "##oduksi": 4195,
      "##aksud": 4196,
      "##uransi": 4197,
      "kasat": 4198,
      "diplom": 4199,
      "diperlukan": 4200,
      "qatar": 4201,
      "##ualitas": 4202,
      "##orter": 4203,
      "bertahan": 4204,
      "permohonan": 4205,
      "bersenjata": 4206,
      "nuk": 4207,
      "##akar": 4208,
      "##udul": 4209,
      "klasemen": 4210,
      "far": 4211,
      "perangkat": 4212,
      "##olusi": 4213,
      "awalnya": 4214,
      "berkualitas": 4215,
      "identitas": 4216,
      "berencana": 4217,
      "selebr": 4218,
      "turki": 4219,
      "##raf": 4220,
      "lebat": 4221,
      "kompol": 4222,
      "open": 4223,
      "lahir": 4224,
      "##andatangani": 4225,
      "42": 4226,
      "tadi": 4227,
      "tarif": 4228,
      "memahami": 4229,
      "drone": 4230,
      "41": 4231,
      "cel": 4232,
      "kus": 4233,
      "lar": 4234,
      "diy": 4235,
      "balai": 4236,
      "mempertahankan": 4237,
      "kac": 4238,
      "lo": 4239,
      "yud": 4240,
      "##ahaya": 4241,
      "##esu": 4242,
      "kanwil": 4243,
      "##pora": 4244,
      "purn": 4245,
      "##lir": 4246,
      "didampingi": 4247,
      "persidangan": 4248,
      "kreatif": 4249,
      "##gunaan": 4250,
      "melay": 4251,
      "ros": 4252,
      "80": 4253,
      "sent": 4254,
      "2026": 4255,
      "serupa": 4256,
      "viral": 4257,
      "legisl": 4258,
      "47": 4259,
      "keadilan": 4260,
      "andi": 4261,
      "##anyahu": 4262,
      "dilan": 4263,
      "modern": 4264,
      "netanyahu": 4265,
      "perbaikan": 4266,
      "jas": 4267,
      "tembak": 4268,
      "emil": 4269,
      "fir": 4270,
      "##aruh": 4271,
      "##abat": 4272,
      "menyoroti": 4273,
      "respons": 4274,
      "nelayan": 4275,
      "sese": 4276,
      "berikutnya": 4277,
      "menud": 4278,
      "##siapkan": 4279,
      "pelunc": 4280,
      "konsep": 4281,
      "kekuasaan": 4282,
      "putin": 4283,
      "produs": 4284,
      "nuklir": 4285,
      "dos": 4286,
      "indah": 4287,
      "kediri": 4288,
      "##umpulkan": 4289,
      "diperiksa": 4290,
      "56": 4291,
      "dw": 4292,
      "mun": 4293,
      "mic": 4294,
      "pembicara": 4295,
      "direktorat": 4296,
      "##namen": 4297,
      "hasan": 4298,
      "permas": 4299,
      "adil": 4300,
      "tumbuh": 4301,
      "dinyatakan": 4302,
      "##kes": 4303,
      "alham": 4304,
      "ic": 4305,
      "sambil": 4306,
      "keempat": 4307,
      "##entang": 4308,
      "wisatawan": 4309,
      "smk": 4310,
      "##olaborasi": 4311,
      "##anyol": 4312,
      "##ungkap": 4313,
      "penceg": 4314,
      "spanyol": 4315,
      "sido": 4316,
      "departemen": 4317,
      "ayat": 4318,
      "##rist": 4319,
      "##antah": 4320,
      "lanjutnya": 4321,
      "kapolda": 4322,
      "natal": 4323,
      "swasta": 4324,
      "regulasi": 4325,
      "alhamdul": 4326,
      "vol": 4327,
      "##eja": 4328,
      "kew": 4329,
      "pasca": 4330,
      "beli": 4331,
      "ten": 4332,
      "##ujuk": 4333,
      "panc": 4334,
      "menerapkan": 4335,
      "lapas": 4336,
      "permasalahan": 4337,
      "##buk": 4338,
      "##eskrim": 4339,
      "mengapa": 4340,
      "erick": 4341,
      "world": 4342,
      "cerah": 4343,
      "##lih": 4344,
      "##aing": 4345,
      "pemad": 4346,
      "##upan": 4347,
      "##jakan": 4348,
      "tren": 4349,
      "membentuk": 4350,
      "##cepat": 4351,
      "susu": 4352,
      "artinya": 4353,
      "70": 4354,
      "ting": 4355,
      "##uw": 4356,
      "##ium": 4357,
      "##bon": 4358,
      "##jek": 4359,
      "##gag": 4360,
      "##idasi": 4361,
      "mendek": 4362,
      "imam": 4363,
      "perintah": 4364,
      "bn": 4365,
      "kai": 4366,
      "##teng": 4367,
      "##sur": 4368,
      "aktor": 4369,
      "karang": 4370,
      "##engaruhi": 4371,
      "perairan": 4372,
      "##sen": 4373,
      "##andi": 4374,
      "edukasi": 4375,
      "##va": 4376,
      "merayakan": 4377,
      "plastik": 4378,
      "don": 4379,
      "berkolaborasi": 4380,
      "sesuatu": 4381,
      "efisi": 4382,
      "bikin": 4383,
      "##hip": 4384,
      "ketentuan": 4385,
      "pembay": 4386,
      "pencegahan": 4387,
      "bet": 4388,
      "cik": 4389,
      "tbk": 4390,
      "kesi": 4391,
      "##uluh": 4392,
      "anwar": 4393,
      "alum": 4394,
      "reformasi": 4395,
      "tentunya": 4396,
      "keberl": 4397,
      "akrab": 4398,
      "pembayaran": 4399,
      "semif": 4400,
      "arm": 4401,
      "##engkapi": 4402,
      "krisis": 4403,
      "semifinal": 4404,
      "49": 4405,
      "##vi": 4406,
      "kalinya": 4407,
      "turnamen": 4408,
      "raja": 4409,
      "permainan": 4410,
      "peluncuran": 4411,
      "pangk": 4412,
      "jarak": 4413,
      "bbm": 4414,
      "dilansir": 4415,
      "akadem": 4416,
      "dibutuhkan": 4417,
      "by": 4418,
      "pesi": 4419,
      "wh": 4420,
      "##adang": 4421,
      "##ertai": 4422,
      "aut": 4423,
      "lancar": 4424,
      "##itia": 4425,
      "kopi": 4426,
      "ketum": 4427,
      "meteorologi": 4428,
      "kebudayaan": 4429,
      "lantas": 4430,
      "suas": 4431,
      "singapura": 4432,
      "cak": 4433,
      "##dem": 4434,
      "evaluasi": 4435,
      "detik": 4436,
      "investor": 4437,
      "spor": 4438,
      "bil": 4439,
      "cita": 4440,
      "syah": 4441,
      "##sean": 4442,
      "pembuk": 4443,
      "dukung": 4444,
      "gangg": 4445,
      "jus": 4446,
      "tahapan": 4447,
      "##intar": 4448,
      "penyer": 4449,
      "##indah": 4450,
      "suasana": 4451,
      "gangguan": 4452,
      "asuransi": 4453,
      "suka": 4454,
      "born": 4455,
      "penyidikan": 4456,
      "##awanan": 4457,
      "militan": 4458,
      "bkn": 4459,
      "seseorang": 4460,
      "bob": 4461,
      "menempat": 4462,
      "baz": 4463,
      "##antren": 4464,
      "semoga": 4465,
      "lulus": 4466,
      "##cang": 4467,
      "##tok": 4468,
      "##angkatan": 4469,
      "karno": 4470,
      "sandera": 4471,
      "sdm": 4472,
      "90": 4473,
      "##alurkan": 4474,
      "##idana": 4475,
      "kekhawat": 4476,
      "transi": 4477,
      "pasalnya": 4478,
      "mayoritas": 4479,
      "kekhawatiran": 4480,
      "58": 4481,
      "sc": 4482,
      "##sal": 4483,
      "##entan": 4484,
      "pesantren": 4485,
      "internal": 4486,
      "deklarasi": 4487,
      "inisiatif": 4488,
      "geo": 4489,
      "yas": 4490,
      "syari": 4491,
      "##yani": 4492,
      "mengimbau": 4493,
      "supaya": 4494,
      "jemaah": 4495,
      "kk": 4496,
      "pu": 4497,
      "##asia": 4498,
      "##tern": 4499,
      "persija": 4500,
      "membayar": 4501,
      "irak": 4502,
      "jembatan": 4503,
      "jurnalis": 4504,
      "59": 4505,
      "aspek": 4506,
      "suku": 4507,
      "keberadaan": 4508,
      "kelah": 4509,
      "berbagi": 4510,
      "##ataan": 4511,
      "persatuan": 4512,
      "berkat": 4513,
      "kilo": 4514,
      "borneo": 4515,
      "kelahiran": 4516,
      "52": 4517,
      "dwi": 4518,
      "##imaan": 4519,
      "##ayat": 4520,
      "disertai": 4521,
      "bantul": 4522,
      "ruu": 4523,
      "memperkenalkan": 4524,
      "prestasi": 4525,
      "##baiki": 4526,
      "ayu": 4527,
      "alhamdulillah": 4528,
      "asean": 4529,
      "dedi": 4530,
      "##dagang": 4531,
      "##tujui": 4532,
      "pokok": 4533,
      "##hasilan": 4534,
      "mendaftar": 4535,
      "peneliti": 4536,
      "jm": 4537,
      "lt": 4538,
      "lol": 4539,
      "##ron": 4540,
      "##amkan": 4541,
      "sambung": 4542,
      "75": 4543,
      "col": 4544,
      "##be": 4545,
      "##akkan": 4546,
      "sesi": 4547,
      "berangkat": 4548,
      "hasilnya": 4549,
      "setiawan": 4550,
      "penerimaan": 4551,
      "51": 4552,
      "cek": 4553,
      "lest": 4554,
      "##ear": 4555,
      "inflasi": 4556,
      "lum": 4557,
      "##hana": 4558,
      "##esik": 4559,
      "prakiraan": 4560,
      "muk": 4561,
      "dn": 4562,
      "##aritas": 4563,
      "market": 4564,
      "##amatkan": 4565,
      "##ingin": 4566,
      "mengus": 4567,
      "pernik": 4568,
      "ppp": 4569,
      "polrestabes": 4570,
      "modal": 4571,
      "mengakhiri": 4572,
      "istana": 4573,
      "sasaran": 4574,
      "53": 4575,
      "wis": 4576,
      "##ph": 4577,
      "sela": 4578,
      "sebagaimana": 4579,
      "sidoarjo": 4580,
      "mit": 4581,
      "wna": 4582,
      "menampilkan": 4583,
      "lepas": 4584,
      "##fitri": 4585,
      "##ato": 4586,
      "##alih": 4587,
      "tertu": 4588,
      "##itakan": 4589,
      "penip": 4590,
      "maaf": 4591,
      "2018": 4592,
      "mempunya": 4593,
      "menangani": 4594,
      "indep": 4595,
      "pendapat": 4596,
      "kilogram": 4597,
      "##ulangan": 4598,
      "##embali": 4599,
      "gelombang": 4600,
      "independ": 4601,
      "##waj": 4602,
      "##luas": 4603,
      "transp": 4604,
      "batang": 4605,
      "jember": 4606,
      "##ementasi": 4607,
      "menko": 4608,
      "##urit": 4609,
      "##day": 4610,
      "##epon": 4611,
      "kontribusi": 4612,
      "tahunan": 4613,
      "belanja": 4614,
      "transformasi": 4615,
      "##alik": 4616,
      "konsisten": 4617,
      "mempunyai": 4618,
      "wawan": 4619,
      "satgas": 4620,
      "mengakibatkan": 4621,
      "cc": 4622,
      "##elang": 4623,
      "mengin": 4624,
      "dilantik": 4625,
      "arya": 4626,
      "##ower": 4627,
      "ketidak": 4628,
      "54": 4629,
      "level": 4630,
      "psis": 4631,
      "##adwalkan": 4632,
      "boy": 4633,
      "puasa": 4634,
      "##angkau": 4635,
      "elektronik": 4636,
      "pernikahan": 4637,
      "ci": 4638,
      "yah": 4639,
      "##vin": 4640,
      "dibangun": 4641,
      "##tusi": 4642,
      "pedagang": 4643,
      "##ance": 4644,
      "nasdem": 4645,
      "yay": 4646,
      "penemb": 4647,
      "menghindari": 4648,
      "konsumsi": 4649,
      "penganiayaan": 4650,
      "cag": 4651,
      "##hk": 4652,
      "pasokan": 4653,
      "pag": 4654,
      "tar": 4655,
      "##imat": 4656,
      "melip": 4657,
      "pola": 4658,
      "##dagri": 4659,
      "memeriksa": 4660,
      "##tusias": 4661,
      "xi": 4662,
      "antusias": 4663,
      "##aksikan": 4664,
      "##ancarkan": 4665,
      "##ijen": 4666,
      "##untutan": 4667,
      "46": 4668,
      "tep": 4669,
      "##kus": 4670,
      "menguc": 4671,
      "terjadinya": 4672,
      "##untungan": 4673,
      "yayasan": 4674,
      "uh": 4675,
      "belanda": 4676,
      "##onstr": 4677,
      "aff": 4678,
      "halaman": 4679,
      "murah": 4680,
      "##fer": 4681,
      "peroleh": 4682,
      "otoritas": 4683,
      "57": 4684,
      "bent": 4685,
      "##do": 4686,
      "kud": 4687,
      "sut": 4688,
      "mengant": 4689,
      "##angkut": 4690,
      "adik": 4691,
      "##hanc": 4692,
      "##batas": 4693,
      "berhenti": 4694,
      "300": 4695,
      "rektor": 4696,
      "hek": 4697,
      "land": 4698,
      "main": 4699,
      "york": 4700,
      "tersedia": 4701,
      "pensi": 4702,
      "merasakan": 4703,
      "mempersiapkan": 4704,
      "university": 4705,
      "pss": 4706,
      "buruh": 4707,
      "alih": 4708,
      "tiktok": 4709,
      "optimistis": 4710,
      "fad": 4711,
      "##ekaan": 4712,
      "adi": 4713,
      "all": 4714,
      "martin": 4715,
      "temuan": 4716,
      "namanya": 4717,
      "gresik": 4718,
      "pencurian": 4719,
      "pakistan": 4720,
      "idulfitri": 4721,
      "kotak": 4722,
      "menu": 4723,
      "menuntut": 4724,
      "menargetkan": 4725,
      "divisi": 4726,
      "perform": 4727,
      "pemenangan": 4728,
      "surya": 4729,
      "dewa": 4730,
      "pssi": 4731,
      "##san": 4732,
      "keterl": 4733,
      "ramah": 4734,
      "keluarganya": 4735,
      "dol": 4736,
      "##dian": 4737,
      "##cok": 4738,
      "arema": 4739,
      "respon": 4740,
      "keberhasilan": 4741,
      "sambutan": 4742,
      "fraksi": 4743,
      "menikmati": 4744,
      "sari": 4745,
      "sma": 4746,
      "##usak": 4747,
      "##oblos": 4748,
      "sarana": 4749,
      "corpor": 4750,
      "cinta": 4751,
      "doa": 4752,
      "niaga": 4753,
      "wita": 4754,
      "##rut": 4755,
      "##alang": 4756,
      "prop": 4757,
      "juanda": 4758,
      "##awal": 4759,
      "arahan": 4760,
      "suam": 4761,
      "membantah": 4762,
      "wasp": 4763,
      "parkir": 4764,
      "david": 4765,
      "pond": 4766,
      "##oko": 4767,
      "mendengar": 4768,
      "kongres": 4769,
      "pegi": 4770,
      "pilih": 4771,
      "pembal": 4772,
      "badung": 4773,
      "bila": 4774,
      "bertugas": 4775,
      "penangg": 4776,
      "penind": 4777,
      "penonton": 4778,
      "##andai": 4779,
      "series": 4780,
      "diberi": 4781,
      "berjudul": 4782,
      "hendak": 4783,
      "ky": 4784,
      "mesi": 4785,
      "rom": 4786,
      "##inar": 4787,
      "##tib": 4788,
      "pelantikan": 4789,
      "pembebasan": 4790,
      "klimat": 4791,
      "selebritas": 4792,
      "klimatologi": 4793,
      "##lakukan": 4794,
      "##au": 4795,
      "##ktikan": 4796,
      "##fo": 4797,
      "##js": 4798,
      "pra": 4799,
      "##awang": 4800,
      "##asaan": 4801,
      "komentar": 4802,
      "daring": 4803,
      "mengenakan": 4804,
      "penerima": 4805,
      "besok": 4806,
      "mengirimkan": 4807,
      "kredit": 4808,
      "keberlanjutan": 4809,
      "hektar": 4810,
      "ven": 4811,
      "##kah": 4812,
      "##akter": 4813,
      "##ement": 4814,
      "pergi": 4815,
      "pemenang": 4816,
      "kesul": 4817,
      "rekor": 4818,
      "gelora": 4819,
      "kompetensi": 4820,
      "##fisika": 4821,
      "geofisika": 4822,
      "suaminya": 4823,
      "web": 4824,
      "##bitkan": 4825,
      "##ku": 4826,
      "berjuang": 4827,
      "perund": 4828,
      "##ulian": 4829,
      "istr": 4830,
      "2016": 4831,
      "ngurah": 4832,
      "perumahan": 4833,
      "kaj": 4834,
      "sch": 4835,
      "terse": 4836,
      "penampilan": 4837,
      "##ambangan": 4838,
      "##uruhan": 4839,
      "##klusif": 4840,
      "asi": 4841,
      "##ebaskan": 4842,
      "##ingkatkan": 4843,
      "kedatangan": 4844,
      "intelijen": 4845,
      "##roli": 4846,
      "mena": 4847,
      "sec": 4848,
      "instansi": 4849,
      "jaminan": 4850,
      "cerita": 4851,
      "ras": 4852,
      "##kom": 4853,
      "##iner": 4854,
      "##uters": 4855,
      "ade": 4856,
      "adv": 4857,
      "timnya": 4858,
      "raf": 4859,
      "supri": 4860,
      "##my": 4861,
      "menel": 4862,
      "meru": 4863,
      "##abilitas": 4864,
      "pencapaian": 4865,
      "rupiah": 4866,
      "##unjukan": 4867,
      "gereja": 4868,
      "event": 4869,
      "suhu": 4870,
      "banjar": 4871,
      "rem": 4872,
      "tkp": 4873,
      "##irikan": 4874,
      "melanda": 4875,
      "##jual": 4876,
      "penggel": 4877,
      "youtu": 4878,
      "tamu": 4879,
      "gula": 4880,
      "##nia": 4881,
      "##ahaman": 4882,
      "alex": 4883,
      "##ormatan": 4884,
      "paus": 4885,
      "penerapan": 4886,
      "menyerukan": 4887,
      "mesir": 4888,
      "istrinya": 4889,
      "pengadaan": 4890,
      "##ormati": 4891,
      "saham": 4892,
      "##lad": 4893,
      "##jana": 4894,
      "beri": 4895,
      "##ust": 4896,
      "##ebar": 4897,
      "sejalan": 4898,
      "panitia": 4899,
      "2017": 4900,
      "fakul": 4901,
      "memperingatkan": 4902,
      "tersebar": 4903,
      "bud": 4904,
      "hulu": 4905,
      "tk": 4906,
      "##injau": 4907,
      "sekutu": 4908,
      "persa": 4909,
      "menganggap": 4910,
      "pns": 4911,
      "perolehan": 4912,
      "ver": 4913,
      "zul": 4914,
      "rumahnya": 4915,
      "parpol": 4916,
      "pakai": 4917,
      "mineral": 4918,
      "maluku": 4919,
      "andika": 4920,
      "fakultas": 4921,
      "79": 4922,
      "##ding": 4923,
      "gre": 4924,
      "##eco": 4925,
      "##timewa": 4926,
      "suporter": 4927,
      "gud": 4928,
      "kira": 4929,
      "nana": 4930,
      "out": 4931,
      "##put": 4932,
      "diran": 4933,
      "##emar": 4934,
      "##ony": 4935,
      "partisipasi": 4936,
      "wajah": 4937,
      "##uyur": 4938,
      "penipuan": 4939,
      "dirancang": 4940,
      "cuma": 4941,
      "contoh": 4942,
      "##hub": 4943,
      "menahan": 4944,
      "##ambarkan": 4945,
      "pesta": 4946,
      "penembakan": 4947,
      "cr": 4948,
      "cah": 4949,
      "##par": 4950,
      "pres": 4951,
      "##egoro": 4952,
      "##abil": 4953,
      "palsu": 4954,
      "kekalahan": 4955,
      "permuk": 4956,
      "kesulitan": 4957,
      "luth": 4958,
      "2029": 4959,
      "##trik": 4960,
      "berlanjut": 4961,
      "emisi": 4962,
      "sampaikan": 4963,
      "federal": 4964,
      "ced": 4965,
      "ft": 4966,
      "diajukan": 4967,
      "penyedia": 4968,
      "oposisi": 4969,
      "fau": 4970,
      "dosen": 4971,
      "abu": 4972,
      "run": 4973,
      "diadakan": 4974,
      "asasi": 4975,
      "penjelasan": 4976,
      "artis": 4977,
      "produsen": 4978,
      "day": 4979,
      "##atih": 4980,
      "reskrim": 4981,
      "melayani": 4982,
      "meliputi": 4983,
      "##itim": 4984,
      "##iden": 4985,
      "reuters": 4986,
      "tradisional": 4987,
      "gaya": 4988,
      "my": 4989,
      "##uel": 4990,
      "##uali": 4991,
      "##st": 4992,
      "##onegoro": 4993,
      "##inginan": 4994,
      "##imis": 4995,
      "indo": 4996,
      "kemerd": 4997,
      "semen": 4998,
      "karakter": 4999,
      "##opsi": 5000,
      "memperluas": 5001,
      "ketahanan": 5002,
      "liar": 5003,
      "bangga": 5004,
      "dijadwalkan": 5005,
      "rizky": 5006,
      "mengandung": 5007,
      "##inaan": 5008,
      "dira": 5009,
      "menger": 5010,
      "##itor": 5011,
      "pengendara": 5012,
      "##asila": 5013,
      "ulama": 5014,
      "kemerdekaan": 5015,
      ")\",": 5016,
      "janji": 5017,
      "kaya": 5018,
      "##tn": 5019,
      "##ehan": 5020,
      "menyusul": 5021,
      "pembukaan": 5022,
      "cedera": 5023,
      "kenc": 5024,
      "##hu": 5025,
      "seiring": 5026,
      "dinam": 5027,
      "subsidi": 5028,
      "rafah": 5029,
      "brig": 5030,
      "pondok": 5031,
      "ne": 5032,
      "##andeng": 5033,
      "berbahaya": 5034,
      "urusan": 5035,
      "independen": 5036,
      "cs": 5037,
      "wala": 5038,
      "##zani": 5039,
      "mental": 5040,
      "mengatur": 5041,
      "bersalah": 5042,
      "meyakini": 5043,
      "simbol": 5044,
      "menuduh": 5045,
      "transparan": 5046,
      "myan": 5047,
      "##kaitan": 5048,
      "##uasai": 5049,
      "##ordinasi": 5050,
      "##iskinan": 5051,
      "manager": 5052,
      "pesisir": 5053,
      "myanmar": 5054,
      "tuntutan": 5055,
      "##her": 5056,
      "##sinya": 5057,
      "berc": 5058,
      "##uskan": 5059,
      "premi": 5060,
      "internet": 5061,
      "gerimis": 5062,
      "evakuasi": 5063,
      "sedikitnya": 5064,
      "perguruan": 5065,
      "mengucapkan": 5066,
      "ns": 5067,
      "##dp": 5068,
      "##ill": 5069,
      "##uruk": 5070,
      "kemiskinan": 5071,
      "siaran": 5072,
      "##ogo": 5073,
      "##sist": 5074,
      "tanggapan": 5075,
      "patroli": 5076,
      "##ejut": 5077,
      "caleg": 5078,
      "tom": 5079,
      "keungg": 5080,
      "##umentasi": 5081,
      "undangan": 5082,
      "dilanjutkan": 5083,
      "kandang": 5084,
      "rute": 5085,
      "keunggulan": 5086,
      "garis": 5087,
      "pindah": 5088,
      "aspirasi": 5089,
      "demonstr": 5090,
      "binaan": 5091,
      "##ongkok": 5092,
      "mb": 5093,
      "##edaran": 5094,
      "cap": 5095,
      "##eno": 5096,
      "##alog": 5097,
      "##aju": 5098,
      "##bakar": 5099,
      "sinergi": 5100,
      "santri": 5101,
      "pancasila": 5102,
      "luthfi": 5103,
      "tutup": 5104,
      "##gaja": 5105,
      "beredar": 5106,
      "terbatas": 5107,
      "perbu": 5108,
      "demak": 5109,
      "kebebasan": 5110,
      "kekurangan": 5111,
      "pemberdayaan": 5112,
      "kandungan": 5113,
      "beserta": 5114,
      "peduli": 5115,
      "pembicaraan": 5116,
      "waspada": 5117,
      "cov": 5118,
      "##jang": 5119,
      "##itis": 5120,
      "##gih": 5121,
      "penger": 5122,
      "##epan": 5123,
      "##entum": 5124,
      "unggulan": 5125,
      "berjanji": 5126,
      "##quez": 5127,
      "perbuatan": 5128,
      "duduk": 5129,
      "ganda": 5130,
      "mengelola": 5131,
      "##olog": 5132,
      "prat": 5133,
      "tiongkok": 5134,
      "lanjutan": 5135,
      "telepon": 5136,
      "##idiki": 5137,
      "momentum": 5138,
      "mayat": 5139,
      "nugr": 5140,
      "pendekatan": 5141,
      "transisi": 5142,
      "rb": 5143,
      "mengumpulkan": 5144,
      "##akses": 5145,
      "hadiah": 5146,
      "os": 5147,
      "rt": 5148,
      "diusung": 5149,
      "menemb": 5150,
      "bergi": 5151,
      "bergizi": 5152,
      "ria": 5153,
      "tir": 5154,
      "tenang": 5155,
      "peral": 5156,
      "asli": 5157,
      "distribusi": 5158,
      "distrik": 5159,
      "larangan": 5160,
      "butu": 5161,
      "kisah": 5162,
      "##pen": 5163,
      "penutup": 5164,
      "penjaga": 5165,
      "analis": 5166,
      "##oker": 5167,
      "kamu": 5168,
      "sekadar": 5169,
      "##ohir": 5170,
      "keteg": 5171,
      "dekade": 5172,
      "italia": 5173,
      "jak": 5174,
      "##bn": 5175,
      "##ne": 5176,
      "##emudi": 5177,
      "##ukses": 5178,
      "##integr": 5179,
      "##cial": 5180,
      "keseluruhan": 5181,
      "championship": 5182,
      "lam": 5183,
      "##io": 5184,
      "##air": 5185,
      "##mikan": 5186,
      "##tis": 5187,
      "itulah": 5188,
      "##iansi": 5189,
      "aliansi": 5190,
      "grand": 5191,
      "kesalahan": 5192,
      "psm": 5193,
      "peredaran": 5194,
      "##ulir": 5195,
      "istimewa": 5196,
      "khas": 5197,
      "imbang": 5198,
      "##sedur": 5199,
      "##endikbud": 5200,
      "##madi": 5201,
      "keuntungan": 5202,
      "unsur": 5203,
      "merujuk": 5204,
      "merusak": 5205,
      "dirilis": 5206,
      "##aturahmi": 5207,
      "roy": 5208,
      "we": 5209,
      "##are": 5210,
      "biak": 5211,
      "penindakan": 5212,
      "panggilan": 5213,
      "vit": 5214,
      "##tauan": 5215,
      "##ibatan": 5216,
      "sembak": 5217,
      "##angkutan": 5218,
      "honda": 5219,
      "dipastikan": 5220,
      "sembako": 5221,
      "aw": 5222,
      "seber": 5223,
      "hidayat": 5224,
      "hol": 5225,
      "mosk": 5226,
      "mapol": 5227,
      "##jol": 5228,
      "menindak": 5229,
      "betul": 5230,
      "##ector": 5231,
      "impl": 5232,
      "ec": 5233,
      "gawang": 5234,
      "hod": 5235,
      "luk": 5236,
      "panggung": 5237,
      "mengaw": 5238,
      "##usn": 5239,
      "##ongkar": 5240,
      "sepakat": 5241,
      "parah": 5242,
      "afp": 5243,
      "iq": 5244,
      "##lok": 5245,
      "##tiban": 5246,
      "menjual": 5247,
      "berkumpul": 5248,
      "dikirim": 5249,
      "##timbangkan": 5250,
      "membagikan": 5251,
      "rekaman": 5252,
      "sultan": 5253,
      "versi": 5254,
      "bawa": 5255,
      "##osa": 5256,
      "ric": 5257,
      "mengganggu": 5258,
      "utang": 5259,
      "##ivid": 5260,
      "habib": 5261,
      "corporate": 5262,
      "moskow": 5263,
      "bra": 5264,
      "jor": 5265,
      "terungkap": 5266,
      "melarang": 5267,
      "individ": 5268,
      "marquez": 5269,
      "sepen": 5270,
      "pln": 5271,
      "kesiapan": 5272,
      "das": 5273,
      "terbakar": 5274,
      "prosedur": 5275,
      "setara": 5276,
      "sepuluh": 5277,
      "diplomat": 5278,
      "##indahan": 5279,
      "tanaman": 5280,
      "##evisi": 5281,
      "besaran": 5282,
      "dorong": 5283,
      "##ortasi": 5284,
      "pengakuan": 5285,
      "satpol": 5286,
      "suci": 5287,
      "usulan": 5288,
      "pramono": 5289,
      "##embalikan": 5290,
      "hodak": 5291,
      "berkaitan": 5292,
      "melaju": 5293,
      "bekas": 5294,
      "tajam": 5295,
      "##ie": 5296,
      "##okrasi": 5297,
      "mendatangi": 5298,
      "##purna": 5299,
      "hilir": 5300,
      "hiburan": 5301,
      "bon": 5302,
      "##ukai": 5303,
      "pras": 5304,
      "perbeda": 5305,
      "gudang": 5306,
      "jamb": 5307,
      "kok": 5308,
      "simp": 5309,
      "##tah": 5310,
      "##alisis": 5311,
      "##rt": 5312,
      "##aga": 5313,
      "##arto": 5314,
      "dani": 5315,
      "saf": 5316,
      "rez": 5317,
      "##ect": 5318,
      "tv": 5319,
      "##hatikan": 5320,
      "##dm": 5321,
      "mengangkat": 5322,
      "##andra": 5323,
      "##inggung": 5324,
      "petir": 5325,
      "temb": 5326,
      "kekayaan": 5327,
      "perhubungan": 5328,
      "wawancara": 5329,
      "hor": 5330,
      "sapi": 5331,
      "terbar": 5332,
      "##irian": 5333,
      "##uter": 5334,
      "plt": 5335,
      "buatan": 5336,
      "perbedaan": 5337,
      "bam": 5338,
      "tangk": 5339,
      "##wat": 5340,
      "##enakan": 5341,
      "melancarkan": 5342,
      "##ria": 5343,
      "##incian": 5344,
      "penegakan": 5345,
      "mikro": 5346,
      "cagub": 5347,
      "cina": 5348,
      "##omba": 5349,
      "kanker": 5350,
      "live": 5351,
      "pakaian": 5352,
      "sopir": 5353,
      "normal": 5354,
      "fase": 5355,
      "kayu": 5356,
      "##ary": 5357,
      "##asinya": 5358,
      "berani": 5359,
      "##uling": 5360,
      "kong": 5361,
      "terduga": 5362,
      "found": 5363,
      "pikir": 5364,
      "ledakan": 5365,
      "##oordinasi": 5366,
      "bersaing": 5367,
      "kritik": 5368,
      "kabid": 5369,
      "mewak": 5370,
      "rsud": 5371,
      "disebabkan": 5372,
      "bengkulu": 5373,
      "##erg": 5374,
      "##ebon": 5375,
      "timah": 5376,
      "rad": 5377,
      "tidur": 5378,
      "bandar": 5379,
      "thohir": 5380,
      "##etahuan": 5381,
      "tour": 5382,
      "literasi": 5383,
      "fik": 5384,
      "gem": 5385,
      "singkat": 5386,
      "wayan": 5387,
      "##for": 5388,
      "mengancam": 5389,
      "##tera": 5390,
      "pengumum": 5391,
      "##tris": 5392,
      "sayap": 5393,
      "terletak": 5394,
      "head": 5395,
      "cirebon": 5396,
      "ketegangan": 5397,
      "pengumuman": 5398,
      "##xi": 5399,
      "dialami": 5400,
      "##unikasi": 5401,
      "melew": 5402,
      "aktris": 5403,
      "##ogan": 5404,
      "medali": 5405,
      "merugikan": 5406,
      "##ket": 5407,
      "##atuhkan": 5408,
      "##astian": 5409,
      "##elam": 5410,
      "##sipasi": 5411,
      "pembinaan": 5412,
      "##unggah": 5413,
      "diprediksi": 5414,
      "##tv": 5415,
      "##ominasi": 5416,
      "harian": 5417,
      "##antian": 5418,
      "penghitungan": 5419,
      "kapolri": 5420,
      "hektare": 5421,
      "teco": 5422,
      "berulang": 5423,
      "penilai": 5424,
      "##awi": 5425,
      "asosiasi": 5426,
      "##endra": 5427,
      "mengawal": 5428,
      "ditutup": 5429,
      "av": 5430,
      "feb": 5431,
      "jantung": 5432,
      "sr": 5433,
      "kanada": 5434,
      "keny": 5435,
      "tenggelam": 5436,
      "daging": 5437,
      "john": 5438,
      "##unyi": 5439,
      "##lihatkan": 5440,
      "bom": 5441,
      "ida": 5442,
      "##ien": 5443,
      "menged": 5444,
      "sumbar": 5445,
      "mahal": 5446,
      "baterai": 5447,
      "dpc": 5448,
      "terkena": 5449,
      "##identifikasi": 5450,
      "##lat": 5451,
      "dian": 5452,
      "##ebihan": 5453,
      "##edah": 5454,
      "komite": 5455,
      "mewakili": 5456,
      "##lantas": 5457,
      "##eboh": 5458,
      "penyalah": 5459,
      "##reskrim": 5460,
      "nato": 5461,
      "komandan": 5462,
      "performa": 5463,
      "keterlibatan": 5464,
      "hong": 5465,
      "ppn": 5466,
      "##ial": 5467,
      "##cc": 5468,
      "##taan": 5469,
      "##angku": 5470,
      "pertemp": 5471,
      "##yarakatan": 5472,
      "pertempuran": 5473,
      "hat": 5474,
      "tuk": 5475,
      "##ghan": 5476,
      "##akti": 5477,
      "dita": 5478,
      "anj": 5479,
      "##ambahan": 5480,
      "berst": 5481,
      "terluka": 5482,
      "##antisipasi": 5483,
      "##tivasi": 5484,
      "menyelenggarakan": 5485,
      "##abrak": 5486,
      "penanggulangan": 5487,
      "sepenuhnya": 5488,
      "lemb": 5489,
      "##cah": 5490,
      "##aru": 5491,
      "##sial": 5492,
      "terbang": 5493,
      "kemendikbud": 5494,
      "##otor": 5495,
      "##intahkan": 5496,
      "menggambarkan": 5497,
      "reser": 5498,
      "putr": 5499,
      "brasil": 5500,
      "motif": 5501,
      "beban": 5502,
      "siti": 5503,
      "##ella": 5504,
      "mengek": 5505,
      "##olan": 5506,
      "praj": 5507,
      "pidato": 5508,
      "pengacara": 5509,
      "fre": 5510,
      "##bum": 5511,
      "pemda": 5512,
      "penguatan": 5513,
      "diserahkan": 5514,
      "afghan": 5515,
      "modus": 5516,
      "##izinkan": 5517,
      "markas": 5518,
      "las": 5519,
      "matar": 5520,
      "abdullah": 5521,
      "afghanistan": 5522,
      "badai": 5523,
      "kawan": 5524,
      "pay": 5525,
      "pengec": 5526,
      "##anjuti": 5527,
      "siber": 5528,
      "ditanya": 5529,
      "gunawan": 5530,
      "duta": 5531,
      "butuh": 5532,
      "##okerto": 5533,
      "penyalahgunaan": 5534,
      "euro": 5535,
      "kuli": 5536,
      "pons": 5537,
      "##ach": 5538,
      "##win": 5539,
      "##ano": 5540,
      "##artisipasi": 5541,
      "meninjau": 5542,
      "##unting": 5543,
      "##tail": 5544,
      "memperbaiki": 5545,
      "berpartisipasi": 5546,
      "metode": 5547,
      "populer": 5548,
      "smp": 5549,
      "pangkalan": 5550,
      "fit": 5551,
      "rub": 5552,
      "rawan": 5553,
      "ranc": 5554,
      "##ananya": 5555,
      "##udukan": 5556,
      "mendalam": 5557,
      "disapa": 5558,
      "membela": 5559,
      "teknik": 5560,
      "ass": 5561,
      "beda": 5562,
      "198": 5563,
      "dipta": 5564,
      "##ersial": 5565,
      "paul": 5566,
      "##tabil": 5567,
      "unggahan": 5568,
      "baznas": 5569,
      "raffi": 5570,
      "teb": 5571,
      "##he": 5572,
      "##ean": 5573,
      "##ats": 5574,
      "##atuhi": 5575,
      "layar": 5576,
      "mempertimbangkan": 5577,
      "sekitarnya": 5578,
      "individu": 5579,
      "ts": 5580,
      "##oner": 5581,
      "##bankan": 5582,
      "dimaksud": 5583,
      "patra": 5584,
      "jejak": 5585,
      "alumni": 5586,
      "limb": 5587,
      "ren": 5588,
      "inilah": 5589,
      "perw": 5590,
      "##andia": 5591,
      "bersangkutan": 5592,
      "dikeluarkan": 5593,
      "mengab": 5594,
      "lantai": 5595,
      "pembelian": 5596,
      "ponsel": 5597,
      "jet": 5598,
      "kg": 5599,
      "kasi": 5600,
      "kapan": 5601,
      "malah": 5602,
      "keinginan": 5603,
      "197": 5604,
      "memantau": 5605,
      "##ff": 5606,
      "serv": 5607,
      "serangkaian": 5608,
      "disabilitas": 5609,
      "institusi": 5610,
      "dihubungi": 5611,
      "awards": 5612,
      "hand": 5613,
      "wong": 5614,
      "##allah": 5615,
      "pengemudi": 5616,
      "##ajat": 5617,
      "mekan": 5618,
      "elemen": 5619,
      "roda": 5620,
      "mohammad": 5621,
      "penilaian": 5622,
      "bpk": 5623,
      "gil": 5624,
      "renc": 5625,
      "pengetahuan": 5626,
      "##estik": 5627,
      "sisa": 5628,
      "dimiliki": 5629,
      "domestik": 5630,
      "sawit": 5631,
      "legislatif": 5632,
      "syariah": 5633,
      "kencang": 5634,
      "mengungsi": 5635,
      "kristi": 5636,
      "tech": 5637,
      "##ristek": 5638,
      "bib": 5639,
      "menandatangani": 5640,
      "kebang": 5641,
      "menyaksikan": 5642,
      "kebun": 5643,
      "insya": 5644,
      "batam": 5645,
      "bukanlah": 5646,
      "kosong": 5647,
      "ntt": 5648,
      "tayang": 5649,
      "green": 5650,
      "mataram": 5651,
      "dijadi": 5652,
      "##usun": 5653,
      "##rafi": 5654,
      "##alonan": 5655,
      "pencalonan": 5656,
      "bertambah": 5657,
      "koster": 5658,
      "lolos": 5659,
      "dijadikan": 5660,
      "bs": 5661,
      "bor": 5662,
      "##utar": 5663,
      "album": 5664,
      "app": 5665,
      "kelima": 5666,
      "halal": 5667,
      "takut": 5668,
      "2015": 5669,
      "rach": 5670,
      "blok": 5671,
      "peralatan": 5672,
      "##antang": 5673,
      "pembiayaan": 5674,
      "vitamin": 5675,
      "prajurit": 5676,
      "cian": 5677,
      "ret": 5678,
      "sengk": 5679,
      "##pto": 5680,
      "pertim": 5681,
      "bahaya": 5682,
      "dikonfirmasi": 5683,
      "stunting": 5684,
      "kecepatan": 5685,
      "konsul": 5686,
      "plus": 5687,
      "politikus": 5688,
      "hadapan": 5689,
      "##itraan": 5690,
      "etik": 5691,
      "kir": 5692,
      "sad": 5693,
      "##ilaku": 5694,
      "pengendali": 5695,
      "umur": 5696,
      "kesad": 5697,
      "belakangan": 5698,
      "bendera": 5699,
      "youtube": 5700,
      "covid": 5701,
      "iqbal": 5702,
      "##amen": 5703,
      "berbu": 5704,
      "memperlihatkan": 5705,
      "penyelund": 5706,
      "dokumentasi": 5707,
      "bermula": 5708,
      "seder": 5709,
      "biru": 5710,
      "cianjur": 5711,
      "pertimbangan": 5712,
      "wujud": 5713,
      "##iaman": 5714,
      "##eum": 5715,
      "diam": 5716,
      "##pati": 5717,
      "aliran": 5718,
      "dirjen": 5719,
      "ramalan": 5720,
      "##igh": 5721,
      "minimal": 5722,
      "kenyamanan": 5723,
      "kesadaran": 5724,
      "bos": 5725,
      "##pura": 5726,
      "##aria": 5727,
      "law": 5728,
      "kelola": 5729,
      "eko": 5730,
      "membuktikan": 5731,
      "blitar": 5732,
      "mewah": 5733,
      "kajian": 5734,
      "citra": 5735,
      "waris": 5736,
      "diangkat": 5737,
      "dilihat": 5738,
      "##opol": 5739,
      "kuota": 5740,
      "samping": 5741,
      "psbs": 5742,
      "mengeklaim": 5743,
      "giz": 5744,
      "wa": 5745,
      "##val": 5746,
      "memanggil": 5747,
      "menyalurkan": 5748,
      "komod": 5749,
      "setengah": 5750,
      "menghormati": 5751,
      "berpend": 5752,
      "##warna": 5753,
      "kudus": 5754,
      "sengketa": 5755,
      "jul": 5756,
      "lini": 5757,
      "pm": 5758,
      "rap": 5759,
      "##oc": 5760,
      "terancam": 5761,
      "pemul": 5762,
      "merd": 5763,
      "jual": 5764,
      "##ajah": 5765,
      "beasiswa": 5766,
      "kediaman": 5767,
      "match": 5768,
      "miliknya": 5769,
      "teroris": 5770,
      "jah": 5771,
      "##ikir": 5772,
      "sengaja": 5773,
      "mulia": 5774,
      "berdiri": 5775,
      "televisi": 5776,
      "est": 5777,
      "melewati": 5778,
      "lomb": 5779,
      "##23": 5780,
      "##entif": 5781,
      "menjalin": 5782,
      "allah": 5783,
      "rahasia": 5784,
      "integritas": 5785,
      "##hancurkan": 5786,
      "bunuh": 5787,
      "##das": 5788,
      "##wono": 5789,
      "altern": 5790,
      "setahun": 5791,
      "membunuh": 5792,
      "kurnia": 5793,
      "kuliah": 5794,
      "limbah": 5795,
      "lombok": 5796,
      "fajar": 5797,
      "let": 5798,
      "##lanjuti": 5799,
      "##papan": 5800,
      "##elih": 5801,
      "##unkan": 5802,
      "##urang": 5803,
      "pertambangan": 5804,
      "tulang": 5805,
      "balikpapan": 5806,
      "persaingan": 5807,
      "##iness": 5808,
      "##amakan": 5809,
      "berwarna": 5810,
      "tergabung": 5811,
      "##daul": 5812,
      "##anjangan": 5813,
      "show": 5814,
      "promo": 5815,
      "##ampanye": 5816,
      "pros": 5817,
      "##encanaan": 5818,
      "skala": 5819,
      "investi": 5820,
      "nikita": 5821,
      "spesial": 5822,
      "offic": 5823,
      "kn": 5824,
      "##ery": 5825,
      "##use": 5826,
      "##imi": 5827,
      "kenapa": 5828,
      "diterapkan": 5829,
      "silaturahmi": 5830,
      "cerai": 5831,
      "aud": 5832,
      "gim": 5833,
      "##iaran": 5834,
      "##erakan": 5835,
      "unik": 5836,
      "chi": 5837,
      "cender": 5838,
      "stabilitas": 5839,
      "berawal": 5840,
      "##ikor": 5841,
      "menggantikan": 5842,
      "pembentukan": 5843,
      "2014": 5844,
      "kondusif": 5845,
      "food": 5846,
      "menyad": 5847,
      "berstatus": 5848,
      "merdeka": 5849,
      "cas": 5850,
      "##rat": 5851,
      "##bah": 5852,
      "dijalan": 5853,
      "##ove": 5854,
      "pandangan": 5855,
      "birokrasi": 5856,
      "menikah": 5857,
      "dolar": 5858,
      "pembalap": 5859,
      "rutan": 5860,
      "val": 5861,
      "##hum": 5862,
      "##yukur": 5863,
      "##vo": 5864,
      "##van": 5865,
      "kemitraan": 5866,
      "mendampingi": 5867,
      "diluncurkan": 5868,
      "bersyukur": 5869,
      "##obatan": 5870,
      "##ica": 5871,
      "jayapura": 5872,
      "##omosikan": 5873,
      "tepi": 5874,
      "pensiun": 5875,
      "jon": 5876,
      "##aktif": 5877,
      "jutaan": 5878,
      "teguh": 5879,
      "blink": 5880,
      "madrid": 5881,
      "gagasan": 5882,
      "pnm": 5883,
      "ayam": 5884,
      "menceritakan": 5885,
      "terminal": 5886,
      "##integrasi": 5887,
      "ach": 5888,
      "belah": 5889,
      "##jaman": 5890,
      "##inci": 5891,
      "##endam": 5892,
      "berkoordinasi": 5893,
      "mempercepat": 5894,
      "banding": 5895,
      "thom": 5896,
      "stre": 5897,
      "sayang": 5898,
      "institute": 5899,
      "baku": 5900,
      "fen": 5901,
      "pmi": 5902,
      "##fasil": 5903,
      "ditunjuk": 5904,
      "memben": 5905,
      "skema": 5906,
      "dewasa": 5907,
      "solidaritas": 5908,
      "imbuhnya": 5909,
      "##fasilitasi": 5910,
      "kian": 5911,
      "mr": 5912,
      "mang": 5913,
      "yor": 5914,
      "##ler": 5915,
      "pri": 5916,
      "negatif": 5917,
      "jaga": 5918,
      "daun": 5919,
      "silam": 5920,
      "gusti": 5921,
      "nasib": 5922,
      "ditr": 5923,
      "said": 5924,
      "##ugat": 5925,
      "business": 5926,
      "pandemi": 5927,
      "fin": 5928,
      "made": 5929,
      "berunt": 5930,
      "##arifikasi": 5931,
      "analisis": 5932,
      "properti": 5933,
      "kelapa": 5934,
      "klien": 5935,
      "saluran": 5936,
      "telkom": 5937,
      "inovatif": 5938,
      "optimal": 5939,
      "intensitas": 5940,
      "mut": 5941,
      "zoni": 5942,
      "pengobatan": 5943,
      "persyar": 5944,
      "##encanakan": 5945,
      "dipilih": 5946,
      "kadin": 5947,
      "##ondo": 5948,
      "hout": 5949,
      "duel": 5950,
      "##ght": 5951,
      "implementasi": 5952,
      "basar": 5953,
      "##egaw": 5954,
      "pemudik": 5955,
      "kepegaw": 5956,
      "menyimp": 5957,
      "##anjikan": 5958,
      "##apitul": 5959,
      "jelang": 5960,
      "garut": 5961,
      "##oskop": 5962,
      "kepegawaian": 5963,
      "##apitulasi": 5964,
      "devel": 5965,
      "hun": 5966,
      "pingg": 5967,
      "ug": 5968,
      "##zal": 5969,
      "##info": 5970,
      "##eleng": 5971,
      "komis": 5972,
      "arg": 5973,
      "arena": 5974,
      "##ensif": 5975,
      "berlaga": 5976,
      "rekapitulasi": 5977,
      "kiai": 5978,
      "ganja": 5979,
      "vaks": 5980,
      "##dam": 5981,
      "diab": 5982,
      "mengantisipasi": 5983,
      "penandatangan": 5984,
      "dikelola": 5985,
      "manis": 5986,
      "1445": 5987,
      "jambi": 5988,
      "blinken": 5989,
      "65": 5990,
      "romb": 5991,
      "##mal": 5992,
      "diumumkan": 5993,
      "mengu": 5994,
      "pemak": 5995,
      "sekel": 5996,
      "konvensi": 5997,
      "penggemar": 5998,
      "kehormatan": 5999,
      "gede": 6000,
      "tampaknya": 6001,
      "gizi": 6002,
      "dh": 6003,
      "dijual": 6004,
      "##aparan": 6005,
      "##rain": 6006,
      "##otong": 6007,
      "kron": 6008,
      "##omotif": 6009,
      "lulusan": 6010,
      "banyuw": 6011,
      "cctv": 6012,
      "persyaratan": 6013,
      "banyuwangi": 6014,
      "zakat": 6015,
      "berapa": 6016,
      "##ome": 6017,
      "##adaian": 6018,
      "karbon": 6019,
      "##ungkas": 6020,
      "ppd": 6021,
      "setia": 6022,
      "terpaksa": 6023,
      "andr": 6024,
      "wahyu": 6025,
      "pegadaian": 6026,
      "##esuaikan": 6027,
      "rencananya": 6028,
      "##sy": 6029,
      "keag": 6030,
      "##iskan": 6031,
      "##imo": 6032,
      "dilengkapi": 6033,
      "##asihat": 6034,
      "kemudahan": 6035,
      "meningkatnya": 6036,
      "finansial": 6037,
      "penutupan": 6038,
      "##etul": 6039,
      "##ahirkan": 6040,
      "pelapor": 6041,
      "##ainya": 6042,
      "kurban": 6043,
      "buleleng": 6044,
      "dihadapi": 6045,
      "psik": 6046,
      "fauzi": 6047,
      "menyadari": 6048,
      "houthi": 6049,
      "rombongan": 6050,
      "kuh": 6051,
      "##egasi": 6052,
      "melarikan": 6053,
      "kemasan": 6054,
      "pelamar": 6055,
      "mencuri": 6056,
      "berkata": 6057,
      "berkunjung": 6058,
      "kecurangan": 6059,
      "end": 6060,
      "##faatan": 6061,
      "bayu": 6062,
      "alternatif": 6063,
      "komisaris": 6064,
      "resi": 6065,
      "##rama": 6066,
      "kewaj": 6067,
      "##olik": 6068,
      "bansos": 6069,
      "usd": 6070,
      "geor": 6071,
      "fransis": 6072,
      "##utrisi": 6073,
      "pahl": 6074,
      "purwakarta": 6075,
      "fac": 6076,
      "##aming": 6077,
      "perahu": 6078,
      "baha": 6079,
      "##ambatan": 6080,
      "##oses": 6081,
      "sugi": 6082,
      "coach": 6083,
      "##mart": 6084,
      "kuliner": 6085,
      "manajer": 6086,
      ".,": 6087,
      "raih": 6088,
      "ui": 6089,
      "##atas": 6090,
      "##als": 6091,
      "perilaku": 6092,
      "pembatasan": 6093,
      "apel": 6094,
      "stat": 6095,
      "one": 6096,
      "##entian": 6097,
      "penegak": 6098,
      "stabil": 6099,
      "wni": 6100,
      "##edak": 6101,
      "penyal": 6102,
      "bioskop": 6103,
      "depannya": 6104,
      "bangun": 6105,
      "arief": 6106,
      "bersifat": 6107,
      "biro": 6108,
      "investigasi": 6109,
      "lip": 6110,
      "ty": 6111,
      "##mah": 6112,
      "menghancurkan": 6113,
      "massal": 6114,
      "##isihan": 6115,
      "##obi": 6116,
      "kapolsek": 6117,
      "gelandang": 6118,
      "objek": 6119,
      "##madiyah": 6120,
      "rac": 6121,
      "##ort": 6122,
      "memad": 6123,
      "##enag": 6124,
      "memerintahkan": 6125,
      "berfokus": 6126,
      "dapil": 6127,
      "reserse": 6128,
      "sih": 6129,
      "##cs": 6130,
      "mengisi": 6131,
      "menyita": 6132,
      "bareng": 6133,
      "##indahkan": 6134,
      "trengg": 6135,
      "simak": 6136,
      "latar": 6137,
      "ambil": 6138,
      "##kpp": 6139,
      "konserv": 6140,
      "kewenangan": 6141,
      "menaik": 6142,
      "kewajiban": 6143,
      "setuju": 6144,
      "berkas": 6145,
      "director": 6146,
      "150": 6147,
      "sahabat": 6148,
      "soekarno": 6149,
      "kemendikbudristek": 6150,
      "?\"": 6151,
      "##tek": 6152,
      "dialog": 6153,
      "##elit": 6154,
      "memaj": 6155,
      "##uduki": 6156,
      "pengaruh": 6157,
      "196": 6158,
      "panen": 6159,
      "persik": 6160,
      "struk": 6161,
      "##vey": 6162,
      "menginginkan": 6163,
      "ditud": 6164,
      "pemasyarakatan": 6165,
      "bojan": 6166,
      "lestari": 6167,
      "keagamaan": 6168,
      "400": 6169,
      "##cu": 6170,
      "##nop": 6171,
      "##20": 6172,
      "##ereb": 6173,
      "##alo": 6174,
      "##ahtera": 6175,
      "menandai": 6176,
      "##ebaran": 6177,
      "##ubis": 6178,
      "dilarang": 6179,
      "rec": 6180,
      "##acam": 6181,
      "bertindak": 6182,
      "terbanyak": 6183,
      "terkini": 6184,
      "angkat": 6185,
      "delegasi": 6186,
      "csr": 6187,
      "bara": 6188,
      "cup": 6189,
      "gemb": 6190,
      "iwan": 6191,
      "siaga": 6192,
      "isti": 6193,
      "sejahtera": 6194,
      "flor": 6195,
      "capaian": 6196,
      "ep": 6197,
      "##gaan": 6198,
      "##umas": 6199,
      "##oksi": 6200,
      "hart": 6201,
      "pembah": 6202,
      "##ague": 6203,
      "rahmat": 6204,
      "karier": 6205,
      "water": 6206,
      "mengusulkan": 6207,
      "perwira": 6208,
      "##lil": 6209,
      "penyerang": 6210,
      "pilot": 6211,
      "maul": 6212,
      "bersiap": 6213,
      "memproduksi": 6214,
      "pergerakan": 6215,
      "game": 6216,
      "yordan": 6217,
      "##jat": 6218,
      "diungk": 6219,
      "keja": 6220,
      "mengem": 6221,
      "##erifikasi": 6222,
      "terpisah": 6223,
      "kaum": 6224,
      "posko": 6225,
      "pasifik": 6226,
      "diungkapkan": 6227,
      "##rasi": 6228,
      "##med": 6229,
      "##ser": 6230,
      "##adangan": 6231,
      "menjamin": 6232,
      "kendala": 6233,
      "habis": 6234,
      "struktur": 6235,
      "dingin": 6236,
      "visa": 6237,
      "diatur": 6238,
      "##orasi": 6239,
      "##ander": 6240,
      "bahlil": 6241,
      "ruas": 6242,
      "rancangan": 6243,
      "bot": 6244,
      "##lin": 6245,
      "menan": 6246,
      "perempat": 6247,
      "##istribusi": 6248,
      "mengad": 6249,
      "pendiri": 6250,
      "sug": 6251,
      "imin": 6252,
      "warung": 6253,
      "league": 6254,
      "kontestasi": 6255,
      "mempromosikan": 6256,
      "bhay": 6257,
      "percepatan": 6258,
      "pemulihan": 6259,
      "bahagia": 6260,
      "ata": 6261,
      "dest": 6262,
      "isi": 6263,
      "meksi": 6264,
      "tangkap": 6265,
      "##rana": 6266,
      "penderita": 6267,
      "##oho": 6268,
      "dipanggil": 6269,
      "abd": 6270,
      "menyelamatkan": 6271,
      "revisi": 6272,
      "tawuran": 6273,
      "komoditas": 6274,
      "meksiko": 6275,
      "hind": 6276,
      "mm": 6277,
      "ronald": 6278,
      "##eber": 6279,
      "##panjang": 6280,
      "menulis": 6281,
      "melainkan": 6282,
      "##eportasi": 6283,
      "disambut": 6284,
      "dikab": 6285,
      "##ovasi": 6286,
      "shop": 6287,
      "ktt": 6288,
      "dirawat": 6289,
      "bhayangk": 6290,
      "koperasi": 6291,
      "pelec": 6292,
      "antam": 6293,
      "deputi": 6294,
      "reza": 6295,
      "bawang": 6296,
      "denda": 6297,
      "profes": 6298,
      "muhammadiyah": 6299,
      "macam": 6300,
      "mekanisme": 6301,
      "##noputri": 6302,
      "cib": 6303,
      "cent": 6304,
      "zel": 6305,
      "##dik": 6306,
      "##ening": 6307,
      "##aleng": 6308,
      "##gai": 6309,
      "penambahan": 6310,
      "anas": 6311,
      "melintas": 6312,
      "alun": 6313,
      "keliling": 6314,
      "menghab": 6315,
      "mall": 6316,
      "pemberont": 6317,
      "heal": 6318,
      "dikabarkan": 6319,
      "##bt": 6320,
      "##arep": 6321,
      "inform": 6322,
      "##ukkan": 6323,
      "bey": 6324,
      "tempur": 6325,
      "hamil": 6326,
      "pembuatan": 6327,
      "sport": 6328,
      "demonstrasi": 6329,
      "won": 6330,
      "##enj": 6331,
      "##apus": 6332,
      "##iro": 6333,
      "penahanan": 6334,
      "sigit": 6335,
      "expo": 6336,
      "menempatkan": 6337,
      "pengendalian": 6338,
      "iri": 6339,
      "lari": 6340,
      "ms": 6341,
      "tand": 6342,
      "##naker": 6343,
      "##sion": 6344,
      "2045": 6345,
      "##egaraan": 6346,
      "resolusi": 6347,
      "klin": 6348,
      "andre": 6349,
      "kabur": 6350,
      "pengelola": 6351,
      "tembakau": 6352,
      "mengawasi": 6353,
      "best": 6354,
      "ry": 6355,
      "diman": 6356,
      "##amu": 6357,
      "mengeks": 6358,
      "##ith": 6359,
      "merebut": 6360,
      "##ografi": 6361,
      "puskes": 6362,
      "terkenal": 6363,
      "otak": 6364,
      "dhar": 6365,
      "spr": 6366,
      "wapres": 6367,
      "dievakuasi": 6368,
      "berikan": 6369,
      "mengevakuasi": 6370,
      "penulis": 6371,
      "semacam": 6372,
      "kode": 6373,
      "bersatu": 6374,
      "angkutan": 6375,
      "otomotif": 6376,
      "memajukan": 6377,
      "##ster": 6378,
      "perencanaan": 6379,
      "##esh": 6380,
      "##bag": 6381,
      "pembangk": 6382,
      "kejati": 6383,
      "disebutkan": 6384,
      "mirzani": 6385,
      "politisi": 6386,
      "penyelundupan": 6387,
      "lomba": 6388,
      "way": 6389,
      "work": 6390,
      "##rad": 6391,
      "##alek": 6392,
      "##inja": 6393,
      "perbankan": 6394,
      "sertifikasi": 6395,
      "sebelah": 6396,
      "maritim": 6397,
      "kubu": 6398,
      "moj": 6399,
      "amanah": 6400,
      "deras": 6401,
      "soekarnoputri": 6402,
      "puas": 6403,
      "rd": 6404,
      "##rul": 6405,
      "##cing": 6406,
      "##esaian": 6407,
      "pemangku": 6408,
      "##bert": 6409,
      "enter": 6410,
      "penyelesaian": 6411,
      "liburan": 6412,
      "commun": 6413,
      "marketing": 6414,
      "fenom": 6415,
      "kuhp": 6416,
      "btn": 6417,
      "pub": 6418,
      "ray": 6419,
      "tersi": 6420,
      "kemenag": 6421,
      "pasuruan": 6422,
      "##denan": 6423,
      "whats": 6424,
      "pratama": 6425,
      "cenderung": 6426,
      "pahlawan": 6427,
      "yordania": 6428,
      "pelecehan": 6429,
      "whatsapp": 6430,
      "99": 6431,
      "jati": 6432,
      "tingg": 6433,
      "vina": 6434,
      "##iker": 6435,
      "memakai": 6436,
      "mencat": 6437,
      "##ution": 6438,
      "kemendagri": 6439,
      "kuta": 6440,
      "herman": 6441,
      "##endalikan": 6442,
      "aq": 6443,
      "bj": 6444,
      "iya": 6445,
      "kang": 6446,
      "nutrisi": 6447,
      "seng": 6448,
      "sai": 6449,
      "##rok": 6450,
      "##yangkan": 6451,
      "##art": 6452,
      "sebaik": 6453,
      "mengundang": 6454,
      "##ampingan": 6455,
      "##alif": 6456,
      "##udahkan": 6457,
      "upah": 6458,
      "250": 6459,
      "ramai": 6460,
      "memperkirakan": 6461,
      "populasi": 6462,
      "rano": 6463,
      "##inspirasi": 6464,
      "restoran": 6465,
      "pemadaman": 6466,
      "insyaallah": 6467,
      "##alengka": 6468,
      "cim": 6469,
      "##gon": 6470,
      "menemp": 6471,
      "asdp": 6472,
      "##juangkan": 6473,
      "bertek": 6474,
      "koleksi": 6475,
      "pinjaman": 6476,
      "ayahnya": 6477,
      "##sediaan": 6478,
      "taliban": 6479,
      "zelens": 6480,
      "puskesmas": 6481,
      "hani": 6482,
      "mud": 6483,
      "ppk": 6484,
      "rw": 6485,
      "sara": 6486,
      "tap": 6487,
      "##mo": 6488,
      "##zz": 6489,
      "menggandeng": 6490,
      "##otaan": 6491,
      "multi": 6492,
      "bertahun": 6493,
      "perlawanan": 6494,
      "jembrana": 6495,
      "pemanfaatan": 6496,
      "smart": 6497,
      "tanya": 6498,
      "##inj": 6499,
      "mengel": 6500,
      "##itya": 6501,
      "pemahaman": 6502,
      "menjatuhkan": 6503,
      "asam": 6504,
      "resm": 6505,
      "krist": 6506,
      "kejari": 6507,
      "netr": 6508,
      "##tarto": 6509,
      "rohing": 6510,
      "kakak": 6511,
      "jasad": 6512,
      "penyaluran": 6513,
      "gp": 6514,
      "khan": 6515,
      "##eu": 6516,
      "##30": 6517,
      "##onen": 6518,
      "memainkan": 6519,
      "##ental": 6520,
      "asuhan": 6521,
      "hartarto": 6522,
      "##own": 6523,
      "stef": 6524,
      "kritis": 6525,
      "menghilang": 6526,
      "didik": 6527,
      "##cky": 6528,
      "menyelidiki": 6529,
      "##engaruh": 6530,
      "etika": 6531,
      "kaca": 6532,
      "develop": 6533,
      "600": 6534,
      "ks": 6535,
      "mini": 6536,
      "##dent": 6537,
      "##cel": 6538,
      "menentang": 6539,
      "kedaul": 6540,
      "##ume": 6541,
      "##oket": 6542,
      "##ajang": 6543,
      "sebalik": 6544,
      "menemui": 6545,
      "bpjs": 6546,
      "alasannya": 6547,
      "mencerm": 6548,
      "penandatanganan": 6549,
      "trenggalek": 6550,
      "kedaulatan": 6551,
      "sebaliknya": 6552,
      "800": 6553,
      "lab": 6554,
      "##aduan": 6555,
      "dikatakan": 6556,
      "kekasih": 6557,
      "##tusan": 6558,
      "enggan": 6559,
      "memperingati": 6560,
      "katolik": 6561,
      "komando": 6562,
      "tembakan": 6563,
      "pembahasan": 6564,
      "mencerminkan": 6565,
      "asisten": 6566,
      "fas": 6567,
      "tump": 6568,
      "menun": 6569,
      "##urasi": 6570,
      "mengkr": 6571,
      "kepresi": 6572,
      "##epaskan": 6573,
      "##ajari": 6574,
      "##inggo": 6575,
      "##hani": 6576,
      "##umpulan": 6577,
      "##tikel": 6578,
      "derajat": 6579,
      "sorotan": 6580,
      "walaupun": 6581,
      "rohingya": 6582,
      "kepresidenan": 6583,
      "ryan": 6584,
      "##ejar": 6585,
      "##vitas": 6586,
      "indeks": 6587,
      "keped": 6588,
      "mask": 6589,
      "bareskrim": 6590,
      "sekda": 6591,
      "membat": 6592,
      "kontak": 6593,
      "efisiensi": 6594,
      "reh": 6595,
      "yun": 6596,
      "##wf": 6597,
      "berman": 6598,
      "##aia": 6599,
      "melahirkan": 6600,
      "##edahan": 6601,
      "nyawa": 6602,
      "##itaan": 6603,
      "ammar": 6604,
      "umrah": 6605,
      "lipat": 6606,
      "mengajar": 6607,
      "salat": 6608,
      "lee": 6609,
      "kiper": 6610,
      "fransiskus": 6611,
      "kejagung": 6612,
      "tingginya": 6613,
      "gan": 6614,
      "giri": 6615,
      "ratu": 6616,
      "son": 6617,
      "##cakan": 6618,
      "##mur": 6619,
      "menguasai": 6620,
      "tetangga": 6621,
      "ditambah": 6622,
      "ref": 6623,
      "padat": 6624,
      "samarin": 6625,
      "##hawatirkan": 6626,
      "sapaan": 6627,
      "yusuf": 6628,
      "yasin": 6629,
      "daniel": 6630,
      "ataupun": 6631,
      "destinasi": 6632,
      "netralitas": 6633,
      "samarinda": 6634,
      "rk": 6635,
      "sind": 6636,
      "xxi": 6637,
      "##nar": 6638,
      "##yal": 6639,
      "##aper": 6640,
      "##orsi": 6641,
      "##ular": 6642,
      "penemuan": 6643,
      "jawaban": 6644,
      "willi": 6645,
      "ekspl": 6646,
      "komponen": 6647,
      "cocok": 6648,
      "info": 6649,
      "simulasi": 6650,
      "gej": 6651,
      "cawa": 6652,
      "dkpp": 6653,
      "madi": 6654,
      "memfasilitasi": 6655,
      "penuntut": 6656,
      "##anaan": 6657,
      "pastikan": 6658,
      "pendanaan": 6659,
      "imp": 6660,
      "berdasar": 6661,
      "ahy": 6662,
      "tepatnya": 6663,
      "##akwaan": 6664,
      "development": 6665,
      "luh": 6666,
      "##hl": 6667,
      "##uman": 6668,
      "unjuk": 6669,
      "seluas": 6670,
      "##opter": 6671,
      "life": 6672,
      "she": 6673,
      "ujung": 6674,
      "dituduh": 6675,
      "bima": 6676,
      "dk": 6677,
      "putu": 6678,
      "##anggih": 6679,
      "##ado": 6680,
      "pengangkatan": 6681,
      "apapun": 6682,
      "partainya": 6683,
      "temannya": 6684,
      "iptu": 6685,
      "gigi": 6686,
      "pembelajaran": 6687,
      "##gagalkan": 6688,
      "##ejutkan": 6689,
      "praset": 6690,
      "fenomena": 6691,
      "ning": 6692,
      "power": 6693,
      "rentan": 6694,
      "##aptasi": 6695,
      "##ilintar": 6696,
      "memudahkan": 6697,
      "agresi": 6698,
      "##ujung": 6699,
      "halilintar": 6700,
      "mengguyur": 6701,
      "ditangani": 6702,
      "banyaknya": 6703,
      "##alonkan": 6704,
      "##ture": 6705,
      "##tifikat": 6706,
      "thr": 6707,
      "##untungkan": 6708,
      "mempengaruhi": 6709,
      "disiapkan": 6710,
      "zelensky": 6711,
      "76": 6712,
      "berse": 6713,
      "und": 6714,
      "##uban": 6715,
      "komersial": 6716,
      "kris": 6717,
      "benny": 6718,
      "ikatan": 6719,
      "ruangan": 6720,
      "ditembak": 6721,
      "teluk": 6722,
      "irwan": 6723,
      "akademisi": 6724,
      "responden": 6725,
      "mojokerto": 6726,
      "besi": 6727,
      "##rus": 6728,
      "prima": 6729,
      "promosi": 6730,
      "##utra": 6731,
      "probol": 6732,
      "arsi": 6733,
      "terdekat": 6734,
      "batik": 6735,
      "duka": 6736,
      "mengenal": 6737,
      "pangarep": 6738,
      "sesama": 6739,
      "mits": 6740,
      "kristiyanto": 6741,
      "bhayangkara": 6742,
      "madiun": 6743,
      "fan": 6744,
      "hij": 6745,
      "pip": 6746,
      "paksa": 6747,
      "##mawan": 6748,
      "##ahap": 6749,
      "diing": 6750,
      "mengutip": 6751,
      "mengonfirmasi": 6752,
      "penasihat": 6753,
      "##ihal": 6754,
      "##ody": 6755,
      "fair": 6756,
      "risma": 6757,
      "sambungnya": 6758,
      "mencatatkan": 6759,
      "kepedulian": 6760,
      "probolinggo": 6761,
      "asep": 6762,
      "pep": 6763,
      "wir": 6764,
      "yan": 6765,
      "##nai": 6766,
      "##gen": 6767,
      "##aro": 6768,
      "##aktur": 6769,
      "##olakan": 6770,
      "##olidasi": 6771,
      "##etakan": 6772,
      "##ando": 6773,
      "##obos": 6774,
      "belasan": 6775,
      "teuku": 6776,
      "invasi": 6777,
      "premium": 6778,
      "bermanfaat": 6779,
      "rilis": 6780,
      "vonis": 6781,
      "##kal": 6782,
      "##arat": 6783,
      "##emat": 6784,
      "menabrak": 6785,
      "pertunjukan": 6786,
      "memperhatikan": 6787,
      "medi": 6788,
      "emosi": 6789,
      "edisi": 6790,
      "memerlukan": 6791,
      "port": 6792,
      "##enial": 6793,
      "efisien": 6794,
      "penggeledahan": 6795,
      "thomas": 6796,
      "membatalkan": 6797,
      "vis": 6798,
      "who": 6799,
      "yam": 6800,
      "##arahan": 6801,
      "##alti": 6802,
      "##sihan": 6803,
      "##etik": 6804,
      "menghubungi": 6805,
      "klarifikasi": 6806,
      "pleno": 6807,
      "pbnu": 6808,
      "suswono": 6809,
      "kimia": 6810,
      "kripto": 6811,
      "ciri": 6812,
      "jarang": 6813,
      "##ling": 6814,
      "##sk": 6815,
      "##antau": 6816,
      "##ateral": 6817,
      "##alas": 6818,
      "##ams": 6819,
      "##aparkan": 6820,
      "mengejutkan": 6821,
      "masukan": 6822,
      "menderita": 6823,
      "kebangk": 6824,
      "atm": 6825,
      "spesialis": 6826,
      "'.": 6827,
      "jpu": 6828,
      "kup": 6829,
      "##zil": 6830,
      "memuji": 6831,
      "##omod": 6832,
      "##arankan": 6833,
      "kecerd": 6834,
      "membeber": 6835,
      "umumnya": 6836,
      "ucapan": 6837,
      "banget": 6838,
      "musuh": 6839,
      "##ondon": 6840,
      "sams": 6841,
      "material": 6842,
      "mengklaim": 6843,
      "warisan": 6844,
      "basarnas": 6845,
      "geng": 6846,
      "hebat": 6847,
      "list": 6848,
      "za": 6849,
      "zain": 6850,
      "##hy": 6851,
      "##pb": 6852,
      "berpr": 6853,
      "##ikopter": 6854,
      "mengembalikan": 6855,
      "##ogle": 6856,
      "kecewa": 6857,
      "rp2": 6858,
      "diperoleh": 6859,
      "kandung": 6860,
      "edward": 6861,
      "helikopter": 6862,
      "ferry": 6863,
      "dimanfaatkan": 6864,
      "bungk": 6865,
      "jun": 6866,
      "nor": 6867,
      "voli": 6868,
      "##urusan": 6869,
      "##iss": 6870,
      "##andu": 6871,
      "##intangi": 6872,
      "banda": 6873,
      "menyetujui": 6874,
      "benda": 6875,
      "berpikir": 6876,
      "digitalisasi": 6877,
      "sumatra": 6878,
      "google": 6879,
      "goront": 6880,
      "intensif": 6881,
      "armada": 6882,
      "kecerdasan": 6883,
      "canggih": 6884,
      "london": 6885,
      "wasi": 6886,
      "##adak": 6887,
      "praper": 6888,
      "##egan": 6889,
      "##ubung": 6890,
      "menduga": 6891,
      "##intasan": 6892,
      "apbn": 6893,
      "ketertiban": 6894,
      "andri": 6895,
      "narap": 6896,
      "gorontalo": 6897,
      "##dn": 6898,
      "##ias": 6899,
      "##zen": 6900,
      "##orogo": 6901,
      "##umber": 6902,
      "mengerahkan": 6903,
      "pengungk": 6904,
      "##antam": 6905,
      "pilar": 6906,
      "netral": 6907,
      "pemadam": 6908,
      "praperadilan": 6909,
      "narapidana": 6910,
      "pengungkapan": 6911,
      "dakwaan": 6912,
      "hos": 6913,
      "wac": 6914,
      "##yn": 6915,
      "##inda": 6916,
      "##etes": 6917,
      "##berangan": 6918,
      "artikel": 6919,
      "persel": 6920,
      "mart": 6921,
      "produktivitas": 6922,
      "basuki": 6923,
      "situb": 6924,
      "terjangkau": 6925,
      "human": 6926,
      "persetujuan": 6927,
      "santoso": 6928,
      "berpendapat": 6929,
      "98": 6930,
      "u1": 6931,
      "##ks": 6932,
      "##buan": 6933,
      "##ebunan": 6934,
      "kompr": 6935,
      "berhak": 6936,
      "bertanya": 6937,
      "perkebunan": 6938,
      "##itif": 6939,
      "##ungagung": 6940,
      "tulungagung": 6941,
      "ponorogo": 6942,
      "##larasikan": 6943,
      "##sistensi": 6944,
      "achmad": 6945,
      "situbondo": 6946,
      "88": 6947,
      "kag": 6948,
      "##lian": 6949,
      "##iarkan": 6950,
      "##enep": 6951,
      "kamala": 6952,
      "##osal": 6953,
      "harm": 6954,
      "##taskan": 6955,
      "amp": 6956,
      "berkuasa": 6957,
      "dirasakan": 6958,
      "sumed": 6959,
      "bukit": 6960,
      "erupsi": 6961,
      "detail": 6962,
      "museum": 6963,
      "tertinggal": 6964,
      "heru": 6965,
      "wijaya": 6966,
      "tertutup": 6967,
      "brigjen": 6968,
      "nugroho": 6969,
      "pek": 6970,
      "race": 6971,
      "tw": 6972,
      "##ining": 6973,
      "keg": 6974,
      "berag": 6975,
      "##isar": 6976,
      "press": 6977,
      "pemuk": 6978,
      "sertifikat": 6979,
      "sumenep": 6980,
      "##diakan": 6981,
      "bersamaan": 6982,
      "elec": 6983,
      "##ley": 6984,
      "def": 6985,
      "rudy": 6986,
      "mengecam": 6987,
      "resminya": 6988,
      "dusun": 6989,
      "gat": 6990,
      "hay": 6991,
      "masi": 6992,
      "nir": 6993,
      "##lima": 6994,
      "memegang": 6995,
      "##ikator": 6996,
      "opsi": 6997,
      "jumlahnya": 6998,
      "disita": 6999,
      "pecco": 7000,
      "membeberkan": 7001,
      "dri": 7002,
      "##arja": 7003,
      "menimp": 7004,
      "##ise": 7005,
      "memec": 7006,
      "ormas": 7007,
      "dipakai": 7008,
      "bergantung": 7009,
      "ward": 7010,
      "kontrov": 7011,
      "diplomatik": 7012,
      "sekelompok": 7013,
      "maskapai": 7014,
      "68": 7015,
      "##les": 7016,
      "##fan": 7017,
      "##jan": 7018,
      "terasa": 7019,
      "mengidentifikasi": 7020,
      "social": 7021,
      "system": 7022,
      "dibayar": 7023,
      "##ention": 7024,
      "terorisme": 7025,
      "perpanjangan": 7026,
      "campur": 7027,
      "dijalankan": 7028,
      "gal": 7029,
      "##roni": 7030,
      "##zuki": 7031,
      "diyakini": 7032,
      "mengund": 7033,
      "##ukuran": 7034,
      "berkampanye": 7035,
      "##estarian": 7036,
      "tiap": 7037,
      "milenial": 7038,
      "berlebihan": 7039,
      "kesukses": 7040,
      "panel": 7041,
      "petern": 7042,
      "bangkalan": 7043,
      "mengecek": 7044,
      "cahyadi": 7045,
      "kesuksesan": 7046,
      "audi": 7047,
      "bangka": 7048,
      "cok": 7049,
      "qu": 7050,
      "##wati": 7051,
      "##ene": 7052,
      "##ongi": 7053,
      "master": 7054,
      "negaranya": 7055,
      "bakti": 7056,
      "dibebaskan": 7057,
      "karim": 7058,
      "dapur": 7059,
      "penyerahan": 7060,
      "statistik": 7061,
      "zelenskyy": 7062,
      "kebangkitan": 7063,
      "wacana": 7064,
      "gegara": 7065,
      "mab": 7066,
      "pom": 7067,
      "rag": 7068,
      "tingkatkan": 7069,
      "##vor": 7070,
      "##ze": 7071,
      "##erkan": 7072,
      "##aton": 7073,
      "pemegang": 7074,
      "##ebak": 7075,
      "pengund": 7076,
      "miras": 7077,
      "franc": 7078,
      "menembak": 7079,
      "membenarkan": 7080,
      "78": 7081,
      "fest": 7082,
      "radi": 7083,
      "wadah": 7084,
      "##vel": 7085,
      "terdaftar": 7086,
      "penolakan": 7087,
      "meluas": 7088,
      "kamera": 7089,
      "serdang": 7090,
      "##ations": 7091,
      "mendirikan": 7092,
      "kelaparan": 7093,
      "ars": 7094,
      "memperjuangkan": 7095,
      "##uarakan": 7096,
      "insentif": 7097,
      "kendali": 7098,
      "majalengka": 7099,
      "sustain": 7100,
      "garda": 7101,
      "tujuannya": 7102,
      "sandra": 7103,
      "ditujukan": 7104,
      "ivan": 7105,
      "tangkis": 7106,
      "pengecekan": 7107,
      "menghabiskan": 7108,
      "hangat": 7109,
      "hanc": 7110,
      "ngaw": 7111,
      "memaksa": 7112,
      "##ayak": 7113,
      "time": 7114,
      "keterampilan": 7115,
      "otom": 7116,
      "pengurangan": 7117,
      "fatoni": 7118,
      "bm": 7119,
      "cu": 7120,
      "##kin": 7121,
      "berak": 7122,
      "inklusif": 7123,
      "harvey": 7124,
      "char": 7125,
      "mach": 7126,
      "kebanyakan": 7127,
      "konsolidasi": 7128,
      "ajak": 7129,
      "##daftarkan": 7130,
      "bule": 7131,
      "kkb": 7132,
      "ditreskrim": 7133,
      "diabetes": 7134,
      "profesor": 7135,
      "tersisa": 7136,
      "bertekad": 7137,
      "67": 7138,
      "lampu": 7139,
      "nan": 7140,
      "pintar": 7141,
      "##tinya": 7142,
      "##elajari": 7143,
      "mengan": 7144,
      "mengizinkan": 7145,
      "kart": 7146,
      "##presi": 7147,
      "##jarah": 7148,
      "chr": 7149,
      "mars": 7150,
      "ditjen": 7151,
      "berlokasi": 7152,
      "kantong": 7153,
      "tegasnya": 7154,
      "jabatannya": 7155,
      "lansia": 7156,
      "bobby": 7157,
      "menimpa": 7158,
      "calif": 7159,
      "ita": 7160,
      "tunj": 7161,
      "zaman": 7162,
      "##atuhan": 7163,
      "##emuka": 7164,
      "##elat": 7165,
      "berter": 7166,
      "##oma": 7167,
      "penalti": 7168,
      "dikonsumsi": 7169,
      "membatasi": 7170,
      "minat": 7171,
      "terkemuka": 7172,
      "##ornia": 7173,
      "meresmikan": 7174,
      "tabanan": 7175,
      "pecah": 7176,
      "conv": 7177,
      "mendeklarasikan": 7178,
      "mapolres": 7179,
      "pembangkit": 7180,
      "hen": 7181,
      "dibat": 7182,
      "##amanya": 7183,
      "##aribu": 7184,
      "##tiar": 7185,
      "indikator": 7186,
      "seruan": 7187,
      "pasaribu": 7188,
      "president": 7189,
      "suap": 7190,
      "stak": 7191,
      "manuf": 7192,
      "pengganti": 7193,
      "##oyo": 7194,
      "dinamika": 7195,
      "rezim": 7196,
      "california": 7197,
      "gajah": 7198,
      "laks": 7199,
      "##sari": 7200,
      "##enya": 7201,
      "##inting": 7202,
      "satreskrim": 7203,
      "mencalonkan": 7204,
      "##osis": 7205,
      "kecantikan": 7206,
      "##ack": 7207,
      "kadang": 7208,
      "moe": 7209,
      "nyoman": 7210,
      "noor": 7211,
      "pramella": 7212,
      "panglima": 7213,
      "teheran": 7214,
      "##abilitasi": 7215,
      "ricis": 7216,
      "cadangan": 7217,
      "isis": 7218,
      "putus": 7219,
      "petah": 7220,
      "##enta": 7221,
      "##way": 7222,
      "pengamb": 7223,
      "seminar": 7224,
      "##entina": 7225,
      "bahrain": 7226,
      "wibowo": 7227,
      "kerj": 7228,
      "hadirkan": 7229,
      "kadar": 7230,
      "diterbitkan": 7231,
      "konteks": 7232,
      "rido": 7233,
      "cipta": 7234,
      "health": 7235,
      "dharma": 7236,
      "petahana": 7237,
      "dong": 7238,
      "hp": 7239,
      "jud": 7240,
      "wajar": 7241,
      "##oter": 7242,
      "##ated": 7243,
      "##esm": 7244,
      "##ingkus": 7245,
      "jumpa": 7246,
      "##ich": 7247,
      "taktik": 7248,
      "##evan": 7249,
      "dpw": 7250,
      "giias": 7251,
      "bojonegoro": 7252,
      "hunian": 7253,
      "gh": 7254,
      "ls": 7255,
      "mbak": 7256,
      "tend": 7257,
      "tito": 7258,
      "yaman": 7259,
      "##bas": 7260,
      "##engarkan": 7261,
      "##esa": 7262,
      "##tice": 7263,
      "melepas": 7264,
      "kemnaker": 7265,
      "intervensi": 7266,
      "stadium": 7267,
      "nataru": 7268,
      "pemantauan": 7269,
      "ruben": 7270,
      "rian": 7271,
      "tunggu": 7272,
      "##inang": 7273,
      "##engahan": 7274,
      "unr": 7275,
      "saing": 7276,
      "menyebar": 7277,
      "##ehol": 7278,
      "##epak": 7279,
      "##intasi": 7280,
      "sty": 7281,
      "segar": 7282,
      "##ition": 7283,
      "kekeringan": 7284,
      "harapannya": 7285,
      "etnis": 7286,
      "kuningan": 7287,
      "berfungsi": 7288,
      "##epankan": 7289,
      "menaikkan": 7290,
      "klinik": 7291,
      "beragama": 7292,
      "not": 7293,
      "##bek": 7294,
      "##arahkan": 7295,
      "##elas": 7296,
      "##ihkan": 7297,
      "bab": 7298,
      "satelit": 7299,
      "utamanya": 7300,
      "terpadu": 7301,
      "denny": 7302,
      "raz": 7303,
      "afri": 7304,
      "##plin": 7305,
      "##iskusi": 7306,
      "volume": 7307,
      "tkn": 7308,
      "mengundurkan": 7309,
      "ngawi": 7310,
      "aa": 7311,
      "lon": 7312,
      "maya": 7313,
      "##eret": 7314,
      "memaparkan": 7315,
      "##idi": 7316,
      "##utanan": 7317,
      "baca": 7318,
      "##ebo": 7319,
      "lebak": 7320,
      "angel": 7321,
      "turis": 7322,
      "narasi": 7323,
      "motivasi": 7324,
      "amanat": 7325,
      "disiplin": 7326,
      "mempertanyakan": 7327,
      "auto": 7328,
      "maulana": 7329,
      "jin": 7330,
      "lang": 7331,
      "sn": 7332,
      "salam": 7333,
      "wamen": 7334,
      "sepat": 7335,
      "##ibur": 7336,
      "seru": 7337,
      "aditya": 7338,
      "penyul": 7339,
      "penyimp": 7340,
      "kering": 7341,
      "kedu": 7342,
      "banglad": 7343,
      "road": 7344,
      "fais": 7345,
      "penyeberangan": 7346,
      "kuning": 7347,
      "terangnya": 7348,
      "lumajang": 7349,
      "kronologi": 7350,
      "andrew": 7351,
      "unrwa": 7352,
      "bangladesh": 7353,
      "95": 7354,
      "national": 7355,
      "pod": 7356,
      "ted": 7357,
      "##ater": 7358,
      "menantang": 7359,
      "inc": 7360,
      "##ampa": 7361,
      "##ebarkan": 7362,
      "menjamu": 7363,
      "asy": 7364,
      "kedok": 7365,
      "ketersediaan": 7366,
      "bermotor": 7367,
      "pasir": 7368,
      "tumbang": 7369,
      "##soet": 7370,
      "lpg": 7371,
      "bamsoet": 7372,
      "iman": 7373,
      "pura": 7374,
      "perasaan": 7375,
      "##itah": 7376,
      "merawat": 7377,
      "kepad": 7378,
      "kemac": 7379,
      "comp": 7380,
      "abad": 7381,
      "terpidana": 7382,
      "transfer": 7383,
      "ramad": 7384,
      "rambut": 7385,
      "phil": 7386,
      "tertulisnya": 7387,
      "ktp": 7388,
      "menempati": 7389,
      "proposal": 7390,
      "hatta": 7391,
      "ditaw": 7392,
      "stakehol": 7393,
      "kemacetan": 7394,
      "bol": 7395,
      "padi": 7396,
      "diisi": 7397,
      "almar": 7398,
      "apbd": 7399,
      "##port": 7400,
      "syl": 7401,
      "lead": 7402,
      "pegun": 7403,
      "boyol": 7404,
      "apple": 7405,
      "rehabilitasi": 7406,
      "pengambilan": 7407,
      "almarhum": 7408,
      "awan": 7409,
      "cari": 7410,
      "fah": 7411,
      "pati": 7412,
      "rangk": 7413,
      "susi": 7414,
      "tpn": 7415,
      "##ath": 7416,
      "##eld": 7417,
      "##sihkan": 7418,
      "melem": 7419,
      "induk": 7420,
      "##optim": 7421,
      "kecuali": 7422,
      "bella": 7423,
      "benj": 7424,
      "erat": 7425,
      "pegunungan": 7426,
      "basis": 7427,
      "##angd": 7428,
      "memul": 7429,
      "mematikan": 7430,
      "##imbang": 7431,
      "##eku": 7432,
      "##egon": 7433,
      "seraya": 7434,
      "##enting": 7435,
      "kelanc": 7436,
      "siak": 7437,
      "berkendara": 7438,
      "energ": 7439,
      "eman": 7440,
      "dideportasi": 7441,
      "##aksim": 7442,
      "play": 7443,
      "komisioner": 7444,
      "menembus": 7445,
      "diselesaikan": 7446,
      "wasit": 7447,
      "convention": 7448,
      "benjamin": 7449,
      "kelancaran": 7450,
      "roket": 7451,
      "##padai": 7452,
      "##adha": 7453,
      "inti": 7454,
      "intim": 7455,
      "mengakses": 7456,
      "menguntungkan": 7457,
      "##bawa": 7458,
      "antisipasi": 7459,
      "pengangg": 7460,
      "mendalami": 7461,
      "pertengahan": 7462,
      "sifat": 7463,
      "dito": 7464,
      "raker": 7465,
      "bertepatan": 7466,
      "membaca": 7467,
      "menerbitkan": 7468,
      "musisi": 7469,
      "##eransi": 7470,
      "pertamanya": 7471,
      "sawah": 7472,
      "institut": 7473,
      "##gagalan": 7474,
      "sambutannya": 7475,
      "kebangsaan": 7476,
      "cawagub": 7477,
      "kena": 7478,
      "lump": 7479,
      "year": 7480,
      "##jikan": 7481,
      "##arai": 7482,
      "##omi": 7483,
      "##age": 7484,
      "produktif": 7485,
      "bursa": 7486,
      "virus": 7487,
      "mirip": 7488,
      "pupr": 7489,
      "##ubishi": 7490,
      "pemberontak": 7491,
      "prasetyo": 7492,
      "hancur": 7493,
      "kedutaan": 7494,
      "##aksimalkan": 7495,
      "73": 7496,
      "77": 7497,
      "mc": 7498,
      "pis": 7499,
      "pungkas": 7500,
      "sula": 7501,
      "##bia": 7502,
      "seksi": 7503,
      "dilanda": 7504,
      "diraih": 7505,
      "malik": 7506,
      "##atifikasi": 7507,
      "##atorium": 7508,
      "ibunya": 7509,
      "berkomunikasi": 7510,
      "nurul": 7511,
      "tunai": 7512,
      "permukaan": 7513,
      "service": 7514,
      "argentina": 7515,
      "##injauan": 7516,
      "menghilangkan": 7517,
      "berterima": 7518,
      "66": 7519,
      "dc": 7520,
      "nab": 7521,
      "tuhan": 7522,
      "##sar": 7523,
      "##yang": 7524,
      "##ping": 7525,
      "mengal": 7526,
      "mulyadi": 7527,
      "telak": 7528,
      "academ": 7529,
      "matah": 7530,
      "relevan": 7531,
      "sudjana": 7532,
      "management": 7533,
      "permukiman": 7534,
      "week": 7535,
      "bibit": 7536,
      "63": 7537,
      "fig": 7538,
      "ganti": 7539,
      "kip": 7540,
      "##ril": 7541,
      "##arung": 7542,
      "##umur": 7543,
      "melepaskan": 7544,
      "##ative": 7545,
      "dishub": 7546,
      "##psdm": 7547,
      "kepemil": 7548,
      "kyiv": 7549,
      "perundingan": 7550,
      "penyediaan": 7551,
      "botol": 7552,
      "mudahan": 7553,
      "mitsubishi": 7554,
      "##kalasi": 7555,
      "boyolali": 7556,
      "matahari": 7557,
      "eka": 7558,
      "harta": 7559,
      "ira": 7560,
      "##kos": 7561,
      "##wujud": 7562,
      "##akirakan": 7563,
      "##ahul": 7564,
      "ketim": 7565,
      "perikan": 7566,
      "mengejar": 7567,
      "penan": 7568,
      "mera": 7569,
      "pengas": 7570,
      "tahan": 7571,
      "alf": 7572,
      "rich": 7573,
      "pendampingan": 7574,
      "kucing": 7575,
      "berharga": 7576,
      "siswi": 7577,
      "drama": 7578,
      "##yakinan": 7579,
      "edy": 7580,
      "sudar": 7581,
      "##tainment": 7582,
      "otomatis": 7583,
      "perikanan": 7584,
      "edi": 7585,
      "ih": 7586,
      "lim": 7587,
      "priv": 7588,
      "baju": 7589,
      "bagn": 7590,
      "menjanjikan": 7591,
      "maut": 7592,
      "kuar": 7593,
      "berlatih": 7594,
      "eksklusif": 7595,
      "absen": 7596,
      "##even": 7597,
      "telur": 7598,
      "buron": 7599,
      "##tein": 7600,
      "muara": 7601,
      "##oblosan": 7602,
      "terbarukan": 7603,
      "##imigrasi": 7604,
      "bagnaia": 7605,
      "64": 7606,
      "kw": 7607,
      "mind": 7608,
      "##ario": 7609,
      "melengkapi": 7610,
      "baim": 7611,
      "menyasar": 7612,
      "sempurna": 7613,
      "alokasi": 7614,
      "##oss": 7615,
      "##oha": 7616,
      "saleh": 7617,
      "##itigasi": 7618,
      "yudh": 7619,
      "bjb": 7620,
      "bersejarah": 7621,
      "christi": 7622,
      "ara": 7623,
      "gender": 7624,
      "rincian": 7625,
      "##of": 7626,
      "##rb": 7627,
      "diaku": 7628,
      "##olahan": 7629,
      "kepastian": 7630,
      "pengolahan": 7631,
      "polandia": 7632,
      "general": 7633,
      "bertema": 7634,
      "##ansyah": 7635,
      "divonis": 7636,
      "revolusi": 7637,
      "paham": 7638,
      "sumedang": 7639,
      "moeis": 7640,
      "penanaman": 7641,
      "sadar": 7642,
      "##mp": 7643,
      "##fli": 7644,
      "##pah": 7645,
      "mens": 7646,
      "##ektif": 7647,
      "##teran": 7648,
      "menyuarakan": 7649,
      "##ehkan": 7650,
      "##ehensif": 7651,
      "karangan": 7652,
      "dikenakan": 7653,
      "memasang": 7654,
      "subang": 7655,
      "miskin": 7656,
      "rizal": 7657,
      "assad": 7658,
      "penyuluhan": 7659,
      "##optimalkan": 7660,
      "##angdut": 7661,
      "hip": 7662,
      "##dani": 7663,
      "##ock": 7664,
      "##isinya": 7665,
      "bac": 7666,
      "dikar": 7667,
      "part": 7668,
      "raharja": 7669,
      "hoaks": 7670,
      "single": 7671,
      "tuntas": 7672,
      "##phone": 7673,
      "ppdb": 7674,
      "menempuh": 7675,
      "##narkoba": 7676,
      "hijri": 7677,
      "yamaha": 7678,
      "komprehensif": 7679,
      "gov": 7680,
      "papan": 7681,
      "raks": 7682,
      "varian": 7683,
      "##cus": 7684,
      "##gran": 7685,
      "diaw": 7686,
      "##apati": 7687,
      "asso": 7688,
      "dikembangkan": 7689,
      "membebaskan": 7690,
      "liver": 7691,
      "didorong": 7692,
      "##engkapan": 7693,
      "berjumlah": 7694,
      "pergantian": 7695,
      "niat": 7696,
      "mengkritik": 7697,
      "700": 7698,
      "fitri": 7699,
      "kum": 7700,
      "tangkapan": 7701,
      "##hika": 7702,
      "##nol": 7703,
      "##yim": 7704,
      "terwujud": 7705,
      "perut": 7706,
      "dalamnya": 7707,
      "kepr": 7708,
      "pengaturan": 7709,
      "seniman": 7710,
      "##indung": 7711,
      "##ico": 7712,
      "reaksi": 7713,
      "manahan": 7714,
      "segmen": 7715,
      "andalan": 7716,
      "modi": 7717,
      "patut": 7718,
      "favor": 7719,
      "iduladha": 7720,
      "masif": 7721,
      "deb": 7722,
      "van": 7723,
      "##brid": 7724,
      "##ealisasi": 7725,
      "##asari": 7726,
      "keimigrasi": 7727,
      "melintasi": 7728,
      "indikasi": 7729,
      "senator": 7730,
      "marg": 7731,
      "persita": 7732,
      "menerangkan": 7733,
      "tegal": 7734,
      "basket": 7735,
      "bersikap": 7736,
      "sahroni": 7737,
      "kurangnya": 7738,
      "##ardo": 7739,
      "##rahat": 7740,
      "disetujui": 7741,
      "ujian": 7742,
      "arifin": 7743,
      "cilegon": 7744,
      "sederhana": 7745,
      "keimigrasian": 7746,
      "can": 7747,
      "tb": 7748,
      "##ool": 7749,
      "dias": 7750,
      "menampung": 7751,
      "permen": 7752,
      "peresm": 7753,
      "mengut": 7754,
      "pemelih": 7755,
      "##rian": 7756,
      "##abri": 7757,
      "astra": 7758,
      "##trol": 7759,
      "diklaim": 7760,
      "##impunan": 7761,
      "mega": 7762,
      "terlepas": 7763,
      "berdarah": 7764,
      "dipert": 7765,
      "##yakinkan": 7766,
      "cerdas": 7767,
      "mendekati": 7768,
      "peresmian": 7769,
      "bulu": 7770,
      "gt": 7771,
      "gak": 7772,
      "hub": 7773,
      "nota": 7774,
      "##hat": 7775,
      "##mer": 7776,
      "##fri": 7777,
      "##eraian": 7778,
      "mengarah": 7779,
      "##irman": 7780,
      "melukai": 7781,
      "##oth": 7782,
      "pasang": 7783,
      "mempers": 7784,
      "sumpah": 7785,
      "rekrut": 7786,
      "mandi": 7787,
      "kedokteran": 7788,
      "raksasa": 7789,
      "cur": 7790,
      "dev": 7791,
      "ginting": 7792,
      "horm": 7793,
      "haf": 7794,
      "matang": 7795,
      "natur": 7796,
      "##50": 7797,
      "##oria": 7798,
      "peramp": 7799,
      "penataan": 7800,
      "satria": 7801,
      "max": 7802,
      "ditentukan": 7803,
      "ketut": 7804,
      "didirikan": 7805,
      "silva": 7806,
      "hasyim": 7807,
      "perceraian": 7808,
      "murid": 7809,
      "tenda": 7810,
      "mengedepankan": 7811,
      "gembira": 7812,
      "pengangguran": 7813,
      "kain": 7814,
      "nak": 7815,
      "uz": 7816,
      "##wo": 7817,
      "##ject": 7818,
      "##emik": 7819,
      "berisiko": 7820,
      "tertib": 7821,
      "pengaduan": 7822,
      "##ubsidi": 7823,
      "menduduki": 7824,
      "mendadak": 7825,
      "agak": 7826,
      "antoni": 7827,
      "kehutanan": 7828,
      "aji": 7829,
      "gelap": 7830,
      "tipikor": 7831,
      "perseroan": 7832,
      "menindaklanjuti": 7833,
      "figur": 7834,
      "diakui": 7835,
      "associ": 7836,
      "buti": 7837,
      "cuc": 7838,
      "curah": 7839,
      "kb": 7840,
      "nekat": 7841,
      "rit": 7842,
      "ruk": 7843,
      "ue": 7844,
      "wira": 7845,
      "##barkan": 7846,
      "##eon": 7847,
      "##mara": 7848,
      "##was": 7849,
      "kegagalan": 7850,
      "terintegrasi": 7851,
      "unair": 7852,
      "##tic": 7853,
      "merak": 7854,
      "##argai": 7855,
      "makam": 7856,
      "elite": 7857,
      "kondisinya": 7858,
      "keberangkatan": 7859,
      "##ugerah": 7860,
      "##landia": 7861,
      "gejala": 7862,
      "mabes": 7863,
      "energy": 7864,
      "dra": 7865,
      "vok": 7866,
      "dius": 7867,
      "##tug": 7868,
      "seo": 7869,
      "##andy": 7870,
      "mendengarkan": 7871,
      "kertas": 7872,
      "sumar": 7873,
      "onsu": 7874,
      "urutan": 7875,
      "telegr": 7876,
      "bergulir": 7877,
      "sinyal": 7878,
      "mempelajari": 7879,
      "pemasaran": 7880,
      "bnn": 7881,
      "mengantongi": 7882,
      "horor": 7883,
      "kuartal": 7884,
      "kub": 7885,
      "wang": 7886,
      "##lang": 7887,
      "##nes": 7888,
      "##ike": 7889,
      "##umbang": 7890,
      "##ekatan": 7891,
      "pemusn": 7892,
      "##jaitan": 7893,
      "pengin": 7894,
      "lebar": 7895,
      "timor": 7896,
      "penyandang": 7897,
      "direncanakan": 7898,
      "rumput": 7899,
      "bertahap": 7900,
      "dibintangi": 7901,
      "penyelamatan": 7902,
      "sales": 7903,
      "eskalasi": 7904,
      "jalak": 7905,
      "ambon": 7906,
      "rantai": 7907,
      "mcr1": 7908,
      "##esuaian": 7909,
      "entertainment": 7910,
      "jk": 7911,
      "muka": 7912,
      "sti": 7913,
      "yoy": 7914,
      "##runan": 7915,
      "##cap": 7916,
      "##imir": 7917,
      "##upat": 7918,
      "##trans": 7919,
      "penyebaran": 7920,
      "##estinya": 7921,
      "menggel": 7922,
      "meyakinkan": 7923,
      "ruf": 7924,
      "naf": 7925,
      "kulon": 7926,
      "popul": 7927,
      "istilah": 7928,
      "dagang": 7929,
      "##ologis": 7930,
      "streaming": 7931,
      "kepemilikan": 7932,
      "favorit": 7933,
      "61": 7934,
      "lupa": 7935,
      "nd": 7936,
      "vlad": 7937,
      "zat": 7938,
      "##lic": 7939,
      "##ning": 7940,
      "dibantu": 7941,
      "mengendalikan": 7942,
      "menggagalkan": 7943,
      "##ampang": 7944,
      "project": 7945,
      "##angkal": 7946,
      "negosiasi": 7947,
      "dipenuhi": 7948,
      "tersend": 7949,
      "dibahas": 7950,
      "kendati": 7951,
      "wargan": 7952,
      "rahman": 7953,
      "pendukungnya": 7954,
      "hybrid": 7955,
      "hijriah": 7956,
      "bimb": 7957,
      "ika": 7958,
      "los": 7959,
      "labor": 7960,
      "yu": 7961,
      "##dh": 7962,
      "perihal": 7963,
      "menyes": 7964,
      "menyinggung": 7965,
      "##awar": 7966,
      "akar": 7967,
      "karna": 7968,
      "isma": 7969,
      "membersihkan": 7970,
      "ditingkatkan": 7971,
      "keturunan": 7972,
      "dibunuh": 7973,
      "komitmennya": 7974,
      "tertarik": 7975,
      "nikel": 7976,
      "aziz": 7977,
      "tipe": 7978,
      "rekannya": 7979,
      "legislator": 7980,
      "perundungan": 7981,
      "menelan": 7982,
      "anjing": 7983,
      "##ampaui": 7984,
      "ditawarkan": 7985,
      "telegram": 7986,
      "pemusnahan": 7987,
      "hambatan": 7988,
      "##erjakan": 7989,
      "mengunggah": 7990,
      "##eteksi": 7991,
      "merata": 7992,
      "peluru": 7993,
      "seks": 7994,
      "membah": 7995,
      "membakar": 7996,
      "membongkar": 7997,
      "hukumnya": 7998,
      "manch": 7999,
      "south": 8000,
      "pencoblosan": 8001,
      "ukuran": 8002,
      "diskon": 8003,
      "dimintai": 8004,
      "mcr2": 8005,
      "econom": 8006,
      "cimahi": 8007,
      "atr": 8008,
      "lambat": 8009,
      "via": 8010,
      "##fia": 8011,
      "##pe": 8012,
      "##pes": 8013,
      "seper": 8014,
      "melon": 8015,
      "pengunjuk": 8016,
      "jujur": 8017,
      "asuhnya": 8018,
      "keluhan": 8019,
      "harupat": 8020,
      "peta": 8021,
      "##ujian": 8022,
      "stok": 8023,
      "kemenpan": 8024,
      "rekening": 8025,
      "balasan": 8026,
      "balapan": 8027,
      "lemak": 8028,
      "nasution": 8029,
      "##pool": 8030,
      "penjual": 8031,
      "intelek": 8032,
      "tessa": 8033,
      "##endarai": 8034,
      "ugm": 8035,
      "manufaktur": 8036,
      "vladimir": 8037,
      "heri": 8038,
      "kayak": 8039,
      "vic": 8040,
      "##bh": 8041,
      "##kum": 8042,
      "##qu": 8043,
      "##ariat": 8044,
      "##olong": 8045,
      "##imob": 8046,
      "##ullah": 8047,
      "barcel": 8048,
      "menca": 8049,
      "memberantas": 8050,
      "ditolak": 8051,
      "konstruksi": 8052,
      "dibentuk": 8053,
      "doktor": 8054,
      "##hion": 8055,
      "perhitungan": 8056,
      "swedia": 8057,
      "trag": 8058,
      "disediakan": 8059,
      "bilateral": 8060,
      "kliennya": 8061,
      "listyo": 8062,
      "sepatu": 8063,
      "butir": 8064,
      "bina": 8065,
      "cuti": 8066,
      "gum": 8067,
      "##manto": 8068,
      "##wanto": 8069,
      "##inisi": 8070,
      "diakses": 8071,
      "menak": 8072,
      "berujung": 8073,
      "##engsi": 8074,
      "kepend": 8075,
      "##awak": 8076,
      "bersin": 8077,
      "praktis": 8078,
      "sdn": 8079,
      "monitor": 8080,
      "moral": 8081,
      "##ustom": 8082,
      "foundation": 8083,
      "warganet": 8084,
      "membahayakan": 8085,
      "intelektual": 8086,
      "barcelona": 8087,
      "bond": 8088,
      "jeb": 8089,
      "keyakinan": 8090,
      "##ikirkan": 8091,
      "##ubungkan": 8092,
      "mendarat": 8093,
      "makna": 8094,
      "aborsi": 8095,
      "memasukkan": 8096,
      "gerbang": 8097,
      "post": 8098,
      "portug": 8099,
      "commer": 8100,
      "##kuit": 8101,
      "chief": 8102,
      "##omodasi": 8103,
      "perselisihan": 8104,
      "tunjangan": 8105,
      "balon": 8106,
      "ow": 8107,
      "##dit": 8108,
      "##vestasi": 8109,
      "##enaran": 8110,
      "##enuhan": 8111,
      "##ark": 8112,
      "menonton": 8113,
      "##asiat": 8114,
      "##itori": 8115,
      "mematuhi": 8116,
      "pembagian": 8117,
      "bag": 8118,
      "indar": 8119,
      "##ayasa": 8120,
      "amran": 8121,
      "berkurang": 8122,
      "ekor": 8123,
      "ketinggi": 8124,
      "##wansa": 8125,
      "spe": 8126,
      "berpeng": 8127,
      "##olehkan": 8128,
      "##ucian": 8129,
      "training": 8130,
      "phk": 8131,
      "nahd": 8132,
      "secret": 8133,
      "jorge": 8134,
      "pemakaman": 8135,
      "pemeliharaan": 8136,
      "manchester": 8137,
      "ketinggian": 8138,
      "bedah": 8139,
      "mp": 8140,
      "sak": 8141,
      "som": 8142,
      "tm": 8143,
      "melampaui": 8144,
      "##alaya": 8145,
      "kelem": 8146,
      "kerabat": 8147,
      "persnya": 8148,
      "##odi": 8149,
      "sumur": 8150,
      "striker": 8151,
      "2011": 8152,
      "dihentikan": 8153,
      "esg": 8154,
      "bergengsi": 8155,
      "##waktu": 8156,
      "menyeluruh": 8157,
      "##wijaya": 8158,
      "tipis": 8159,
      "bangkit": 8160,
      "purnama": 8161,
      "jahe": 8162,
      "officer": 8163,
      "liverpool": 8164,
      "##luan": 8165,
      "##bit": 8166,
      "##nah": 8167,
      "##ering": 8168,
      "mendaftarkan": 8169,
      "persep": 8170,
      "##esahan": 8171,
      "penempatan": 8172,
      "pengedar": 8173,
      "kementan": 8174,
      "berke": 8175,
      "hall": 8176,
      "##ication": 8177,
      "kalsel": 8178,
      "ahok": 8179,
      "rekam": 8180,
      "sulteng": 8181,
      "rokan": 8182,
      "keperluan": 8183,
      "taspen": 8184,
      "coll": 8185,
      "##alihkan": 8186,
      "##dayakan": 8187,
      "hartono": 8188,
      "sprint": 8189,
      "fashion": 8190,
      "##ekuensi": 8191,
      "96": 8192,
      "conf": 8193,
      "custom": 8194,
      "wuling": 8195,
      "##ves": 8196,
      "##adel": 8197,
      "##ulia": 8198,
      "##angkatkan": 8199,
      "komnas": 8200,
      "harap": 8201,
      "siapkan": 8202,
      "##oharjo": 8203,
      "ditandatangani": 8204,
      "membalas": 8205,
      "pembina": 8206,
      "##tribut": 8207,
      "kebaikan": 8208,
      "putera": 8209,
      "makanya": 8210,
      "operator": 8211,
      "lemah": 8212,
      "dihadirkan": 8213,
      "##shop": 8214,
      "yahudi": 8215,
      "au": 8216,
      "gon": 8217,
      "lel": 8218,
      "ori": 8219,
      "##car": 8220,
      "##koh": 8221,
      "##jad": 8222,
      "terobos": 8223,
      "inn": 8224,
      "barisan": 8225,
      "chandra": 8226,
      "##eriahkan": 8227,
      "transmi": 8228,
      "penghasilan": 8229,
      "##oyono": 8230,
      "diberlakukan": 8231,
      "terjun": 8232,
      "##anggungja": 8233,
      "sekretariat": 8234,
      "johan": 8235,
      "tawaran": 8236,
      "mengusut": 8237,
      "##lokir": 8238,
      "menyimpan": 8239,
      "tersendiri": 8240,
      "%.": 8241,
      "fk": 8242,
      "hus": 8243,
      "lelang": 8244,
      "##bung": 8245,
      "##zan": 8246,
      "##ines": 8247,
      "##elan": 8248,
      "##unisi": 8249,
      "berhad": 8250,
      "##urra": 8251,
      "menyebarkan": 8252,
      "pertar": 8253,
      "ambang": 8254,
      "##tric": 8255,
      "pesat": 8256,
      "dipicu": 8257,
      "menerus": 8258,
      "##ganegaraan": 8259,
      "sudan": 8260,
      "talenta": 8261,
      "bercerita": 8262,
      "stakeholder": 8263,
      "dbd": 8264,
      "hany": 8265,
      "mohon": 8266,
      "##zes": 8267,
      "##ange": 8268,
      "##amerkan": 8269,
      "##olongan": 8270,
      "##omor": 8271,
      "amunisi": 8272,
      "ditindak": 8273,
      "tani": 8274,
      "tanam": 8275,
      "kebi": 8276,
      "paruh": 8277,
      "mulut": 8278,
      "##evaluasi": 8279,
      "ong": 8280,
      "irish": 8281,
      "bernomor": 8282,
      "toleransi": 8283,
      "hindu": 8284,
      "intimidasi": 8285,
      "bni": 8286,
      "kid": 8287,
      "nob": 8288,
      "##bur": 8289,
      "##tura": 8290,
      "perak": 8291,
      "cho": 8292,
      "##icarakan": 8293,
      "besarnya": 8294,
      "khasiat": 8295,
      "demo": 8296,
      "jalanan": 8297,
      "spbu": 8298,
      "batal": 8299,
      "##mark": 8300,
      "swiss": 8301,
      "menyapa": 8302,
      "kpps": 8303,
      "dedikasi": 8304,
      "stefano": 8305,
      "69": 8306,
      "blu": 8307,
      "ig": 8308,
      "rudi": 8309,
      "##iang": 8310,
      "##asama": 8311,
      "diunggah": 8312,
      "##apas": 8313,
      "##iko": 8314,
      "memengaruhi": 8315,
      "##ekos": 8316,
      "prim": 8317,
      "pemenuhan": 8318,
      "merangk": 8319,
      "##inton": 8320,
      "##ambung": 8321,
      "parawansa": 8322,
      "dikem": 8323,
      "##urance": 8324,
      "diponegoro": 8325,
      "didominasi": 8326,
      "##entuh": 8327,
      "idris": 8328,
      "berpengaruh": 8329,
      "perkiraan": 8330,
      "wahy": 8331,
      "zulki": 8332,
      "vaksin": 8333,
      "florida": 8334,
      "undip": 8335,
      "yudhoyono": 8336,
      "##kohol": 8337,
      "62": 8338,
      "ron": 8339,
      "tj": 8340,
      "toy": 8341,
      "tuanya": 8342,
      "u23": 8343,
      "##alp": 8344,
      "##ikul": 8345,
      "mengoptimalkan": 8346,
      "pred": 8347,
      "anung": 8348,
      "melebih": 8349,
      "##antar": 8350,
      "##ajam": 8351,
      "balita": 8352,
      "big": 8353,
      "krusi": 8354,
      "rp3": 8355,
      "kompak": 8356,
      "brimob": 8357,
      "tokyo": 8358,
      "dicetak": 8359,
      "sinar": 8360,
      "mift": 8361,
      "terheboh": 8362,
      "yahya": 8363,
      "school": 8364,
      "georgia": 8365,
      "bersinergi": 8366,
      "terobosan": 8367,
      "doha": 8368,
      "fe": 8369,
      "kakan": 8370,
      "mg": 8371,
      "verifikasi": 8372,
      "yat": 8373,
      "##dir": 8374,
      "##vian": 8375,
      "sewaktu": 8376,
      "bayar": 8377,
      "menyenangkan": 8378,
      "polemik": 8379,
      "##owongan": 8380,
      "berkes": 8381,
      "marak": 8382,
      "jalannya": 8383,
      "kalteng": 8384,
      "hadapi": 8385,
      "patri": 8386,
      "angkasa": 8387,
      "relatif": 8388,
      "madu": 8389,
      "tercip": 8390,
      "diproduksi": 8391,
      "ponpes": 8392,
      "cikarang": 8393,
      "byd": 8394,
      "founder": 8395,
      "kristen": 8396,
      "lonjakan": 8397,
      "diaspora": 8398,
      "berhadapan": 8399,
      "krusial": 8400,
      "ss": 8401,
      "tor": 8402,
      "##ball": 8403,
      "##akoni": 8404,
      "memaksimalkan": 8405,
      "##ekasan": 8406,
      "kepri": 8407,
      "astr": 8408,
      "kera": 8409,
      "ary": 8410,
      "ambul": 8411,
      "melakukannya": 8412,
      "mary": 8413,
      "marah": 8414,
      "membuatnya": 8415,
      "atta": 8416,
      "kejutan": 8417,
      "musk": 8418,
      "bocah": 8419,
      "burung": 8420,
      "pamekasan": 8421,
      "sudirman": 8422,
      "paripurna": 8423,
      "kreati": 8424,
      "obatan": 8425,
      "1998": 8426,
      "fikri": 8427,
      "uzbek": 8428,
      "ismail": 8429,
      "melebihi": 8430,
      "cre": 8431,
      "rasanya": 8432,
      "sungg": 8433,
      "win": 8434,
      "##asem": 8435,
      "berdaya": 8436,
      "menguk": 8437,
      "##uto": 8438,
      "memperpanjang": 8439,
      "kalian": 8440,
      "dipercaya": 8441,
      "malut": 8442,
      "atap": 8443,
      "debut": 8444,
      "hidupnya": 8445,
      "terjebak": 8446,
      "wahid": 8447,
      "sirkuit": 8448,
      "potret": 8449,
      "neti": 8450,
      "seberat": 8451,
      "tsun": 8452,
      "julukan": 8453,
      "rekrutmen": 8454,
      "kreativitas": 8455,
      "uzbekistan": 8456,
      "cit": 8457,
      "dub": 8458,
      "jes": 8459,
      "ml": 8460,
      "mitigasi": 8461,
      "psim": 8462,
      "udin": 8463,
      "##huk": 8464,
      "##kri": 8465,
      "diad": 8466,
      "dimas": 8467,
      "beraksi": 8468,
      "##wawan": 8469,
      "senat": 8470,
      "pejuang": 8471,
      "memperb": 8472,
      "kuala": 8473,
      "kriter": 8474,
      "menghubungkan": 8475,
      "shi": 8476,
      "seribu": 8477,
      "berkomentar": 8478,
      "banyumas": 8479,
      "laskar": 8480,
      "luhut": 8481,
      "##wawancara": 8482,
      "kriteria": 8483,
      "duc": 8484,
      "nun": 8485,
      "puan": 8486,
      "##rak": 8487,
      "##jian": 8488,
      "##amuk": 8489,
      "terper": 8490,
      "memakan": 8491,
      "penamp": 8492,
      "pengab": 8493,
      "##okat": 8494,
      "##jaan": 8495,
      "kepatuhan": 8496,
      "barito": 8497,
      "senanti": 8498,
      "agr": 8499,
      "##osari": 8500,
      "jagung": 8501,
      "bersubsidi": 8502,
      "suv": 8503,
      "##ahagi": 8504,
      "syukur": 8505,
      "logam": 8506,
      "suhar": 8507,
      "topik": 8508,
      "club": 8509,
      "finance": 8510,
      "puing": 8511,
      "putranya": 8512,
      "kebiasaan": 8513,
      "netizen": 8514,
      "tsunami": 8515,
      "senantiasa": 8516,
      "gm": 8517,
      "gunakan": 8518,
      "palu": 8519,
      "pantas": 8520,
      "utusan": 8521,
      "##oo": 8522,
      "berad": 8523,
      "##esco": 8524,
      "pemanggilan": 8525,
      "antr": 8526,
      "indekos": 8527,
      "menyarankan": 8528,
      "akad": 8529,
      "satwa": 8530,
      "amir": 8531,
      "suzuki": 8532,
      "realisasi": 8533,
      "gratifikasi": 8534,
      "berhati": 8535,
      "berhubungan": 8536,
      "resear": 8537,
      "dukungannya": 8538,
      "moch": 8539,
      "pengeroy": 8540,
      "research": 8541,
      "bsi": 8542,
      "dal": 8543,
      "dangdut": 8544,
      "fari": 8545,
      "fri": 8546,
      "jl": 8547,
      "mam": 8548,
      "mid": 8549,
      "nis": 8550,
      "waw": 8551,
      "##kop": 8552,
      "perincian": 8553,
      "##ikal": 8554,
      "##ariq": 8555,
      "anyar": 8556,
      "menyerah": 8557,
      "##abulan": 8558,
      "##opuler": 8559,
      "disahkan": 8560,
      "anth": 8561,
      "diguyur": 8562,
      "##intai": 8563,
      "inspek": 8564,
      "inspirasi": 8565,
      "pencucian": 8566,
      "pencabulan": 8567,
      "plan": 8568,
      "stres": 8569,
      "mobile": 8570,
      "terbunuh": 8571,
      "bernilai": 8572,
      "jeruk": 8573,
      "bulog": 8574,
      "santunan": 8575,
      "##klusi": 8576,
      "mohammed": 8577,
      "seoul": 8578,
      "laboratorium": 8579,
      "mencabut": 8580,
      "portugal": 8581,
      "afi": 8582,
      "bps": 8583,
      "cop": 8584,
      "jombang": 8585,
      "lil": 8586,
      "nick": 8587,
      "##wari": 8588,
      "##enam": 8589,
      "##aring": 8590,
      "pendaya": 8591,
      "##bauan": 8592,
      "rio": 8593,
      "##turut": 8594,
      "sampang": 8595,
      "menghapus": 8596,
      "bertanding": 8597,
      "dpo": 8598,
      "##lav": 8599,
      "tangguh": 8600,
      "apartemen": 8601,
      "haiti": 8602,
      "tergantung": 8603,
      "potongan": 8604,
      "menuai": 8605,
      "advokat": 8606,
      "finis": 8607,
      "lumpur": 8608,
      "govern": 8609,
      "pendayagunaan": 8610,
      "lin": 8611,
      "lhk": 8612,
      "rol": 8613,
      "##rin": 8614,
      "##king": 8615,
      "##ving": 8616,
      "##enda": 8617,
      "diubah": 8618,
      "menaker": 8619,
      "##anduk": 8620,
      "##andri": 8621,
      "menyesuaikan": 8622,
      "semata": 8623,
      "##entangan": 8624,
      "senada": 8625,
      "aris": 8626,
      "instruksi": 8627,
      "diperb": 8628,
      "rekayasa": 8629,
      "dihasilkan": 8630,
      "atik": 8631,
      "keberatan": 8632,
      "berinovasi": 8633,
      "susanto": 8634,
      "minimum": 8635,
      "hibah": 8636,
      "##wajib": 8637,
      "simpang": 8638,
      "racing": 8639,
      "jari": 8640,
      "kis": 8641,
      "##we": 8642,
      "##jk": 8643,
      "##atuh": 8644,
      "##alangi": 8645,
      "proli": 8646,
      "pelajaran": 8647,
      "assist": 8648,
      "diajak": 8649,
      "kesatuan": 8650,
      "belas": 8651,
      "menghargai": 8652,
      "##fiq": 8653,
      "arie": 8654,
      "rock": 8655,
      "terjatuh": 8656,
      "house": 8657,
      "derma": 8658,
      "sentral": 8659,
      "betapa": 8660,
      "remisi": 8661,
      "faisal": 8662,
      "dikarenakan": 8663,
      "ducati": 8664,
      "pengeroyokan": 8665,
      "nip": 8666,
      "py": 8667,
      "tarik": 8668,
      "##rar": 8669,
      "##sih": 8670,
      "##usul": 8671,
      "menjangkau": 8672,
      "pemerasan": 8673,
      "##ohan": 8674,
      "seputar": 8675,
      "manc": 8676,
      "mengharapkan": 8677,
      "berpelu": 8678,
      "perkasa": 8679,
      "mengacu": 8680,
      "perluasan": 8681,
      "itb": 8682,
      "pikiran": 8683,
      "bsd": 8684,
      "beruntun": 8685,
      "fauziyah": 8686,
      "yatim": 8687,
      "##wawancarai": 8688,
      "berpeluang": 8689,
      "cetak": 8690,
      "dind": 8691,
      "jef": 8692,
      "##hentian": 8693,
      "##ii": 8694,
      "##wah": 8695,
      "##iku": 8696,
      "##urt": 8697,
      "memandang": 8698,
      "peninjauan": 8699,
      "seleb": 8700,
      "##anty": 8701,
      "##patkan": 8702,
      "konkr": 8703,
      "penyesuaian": 8704,
      "tris": 8705,
      "##ical": 8706,
      "kuda": 8707,
      "krem": 8708,
      "##acap": 8709,
      "ditempatkan": 8710,
      "pemberhentian": 8711,
      "intan": 8712,
      "##iger": 8713,
      "silakan": 8714,
      "pemasangan": 8715,
      "tabungan": 8716,
      "ideal": 8717,
      "sayangnya": 8718,
      "sengit": 8719,
      "kaget": 8720,
      "sulaiman": 8721,
      "74": 8722,
      "bpn": 8723,
      "hu": 8724,
      "hang": 8725,
      "his": 8726,
      "jajak": 8727,
      "mui": 8728,
      "remp": 8729,
      "##oper": 8730,
      "##nl": 8731,
      "##pd": 8732,
      "##ory": 8733,
      "peraih": 8734,
      "##oka": 8735,
      "##abe": 8736,
      "mendominasi": 8737,
      "haris": 8738,
      "##emput": 8739,
      "##ency": 8740,
      "meja": 8741,
      "sebulan": 8742,
      "sulsel": 8743,
      "pernyataannya": 8744,
      "simpat": 8745,
      "eff": 8746,
      "jepara": 8747,
      "dampaknya": 8748,
      "azwar": 8749,
      "##oritaskan": 8750,
      "##operasikan": 8751,
      "antusiasme": 8752,
      "dasco": 8753,
      "##istribusikan": 8754,
      "pertarungan": 8755,
      "sungguh": 8756,
      "##hukam": 8757,
      "legal": 8758,
      "wew": 8759,
      "##eing": 8760,
      "##tt": 8761,
      "##ading": 8762,
      "kevin": 8763,
      "beralih": 8764,
      "inklusi": 8765,
      "mengom": 8766,
      "##itip": 8767,
      "unt": 8768,
      "melangkah": 8769,
      "melantik": 8770,
      "##jab": 8771,
      "indrama": 8772,
      "##entari": 8773,
      "beir": 8774,
      "dikerahkan": 8775,
      "sabar": 8776,
      "panti": 8777,
      "##uncang": 8778,
      "spanduk": 8779,
      "##uasin": 8780,
      "boeing": 8781,
      "rahayu": 8782,
      "dicapai": 8783,
      "trauma": 8784,
      "terganggu": 8785,
      "inisial": 8786,
      "lukman": 8787,
      "menuntaskan": 8788,
      "langit": 8789,
      "zulkifli": 8790,
      "kakanwil": 8791,
      "selebgram": 8792,
      "indramayu": 8793,
      "89": 8794,
      "dengar": 8795,
      "gang": 8796,
      "get": 8797,
      "gala": 8798,
      "nadi": 8799,
      "pung": 8800,
      "pungg": 8801,
      "tat": 8802,
      "##pt": 8803,
      "##erik": 8804,
      "##amil": 8805,
      "berturut": 8806,
      "##ekraf": 8807,
      "anugerah": 8808,
      "##rioritaskan": 8809,
      "penyus": 8810,
      "thariq": 8811,
      "bertarung": 8812,
      "kendal": 8813,
      "otonom": 8814,
      "travel": 8815,
      "pengajuan": 8816,
      "menyusun": 8817,
      "banyuasin": 8818,
      "ilmuwan": 8819,
      "tertuang": 8820,
      "##ukseskan": 8821,
      "##usnahkan": 8822,
      "pengunduran": 8823,
      "cy": 8824,
      "jay": 8825,
      "mangg": 8826,
      "sorong": 8827,
      "tari": 8828,
      "yani": 8829,
      "##lor": 8830,
      "##bai": 8831,
      "bermas": 8832,
      "pertolongan": 8833,
      "harun": 8834,
      "##osida": 8835,
      "mahendra": 8836,
      "menghantam": 8837,
      "kalender": 8838,
      "dardak": 8839,
      "dpt": 8840,
      "##hael": 8841,
      "edaran": 8842,
      "ternak": 8843,
      "imigran": 8844,
      "sutrad": 8845,
      "workshop": 8846,
      "beirut": 8847,
      "bermasalah": 8848,
      "sutradara": 8849,
      "cons": 8850,
      "dur": 8851,
      "jim": 8852,
      "juri": 8853,
      "vet": 8854,
      "##mit": 8855,
      "##giri": 8856,
      "##atinya": 8857,
      "mengangkut": 8858,
      "##olil": 8859,
      "##ekam": 8860,
      "pemindahan": 8861,
      "kemay": 8862,
      "paspor": 8863,
      "sejatinya": 8864,
      "bandang": 8865,
      "kebenaran": 8866,
      "belitung": 8867,
      "pantauan": 8868,
      "terdepan": 8869,
      "pla": 8870,
      "##eve": 8871,
      "lapisan": 8872,
      "kenyataan": 8873,
      "count": 8874,
      "genosida": 8875,
      "lega": 8876,
      "bentrok": 8877,
      "seberapa": 8878,
      "pinggir": 8879,
      "electric": 8880,
      "toyota": 8881,
      "kemayoran": 8882,
      "iden": 8883,
      "kadi": 8884,
      "mewas": 8885,
      "##lementasi": 8886,
      "##oe": 8887,
      "##yeh": 8888,
      "dijaga": 8889,
      "##sius": 8890,
      "memadai": 8891,
      "##imbangan": 8892,
      "##egar": 8893,
      "merc": 8894,
      "bau": 8895,
      "##rie": 8896,
      "mendo": 8897,
      "mendiang": 8898,
      "pendamping": 8899,
      "wilayahnya": 8900,
      "iklan": 8901,
      "##osialisasi": 8902,
      "membaw": 8903,
      "##undai": 8904,
      "sarw": 8905,
      "gelaran": 8906,
      "kemenkes": 8907,
      "kerusuhan": 8908,
      "indragiri": 8909,
      "mengandalkan": 8910,
      "hyundai": 8911,
      "holding": 8912,
      "free": 8913,
      "ragu": 8914,
      "radio": 8915,
      "##ebook": 8916,
      "miftah": 8917,
      "mewaspadai": 8918,
      "ice": 8919,
      "nag": 8920,
      "pic": 8921,
      "vo": 8922,
      "vokasi": 8923,
      "##rol": 8924,
      "##samaan": 8925,
      "##inga": 8926,
      "##amaikan": 8927,
      "beral": 8928,
      "##irat": 8929,
      "protein": 8930,
      "##awaran": 8931,
      "##apatkan": 8932,
      "apk": 8933,
      "daop": 8934,
      "diskrim": 8935,
      "memberlakukan": 8936,
      "kebetul": 8937,
      "imbauan": 8938,
      "terseret": 8939,
      "sukoharjo": 8940,
      "berpesan": 8941,
      "2012": 8942,
      "kebersihan": 8943,
      "kebersamaan": 8944,
      "boc": 8945,
      "potensial": 8946,
      "2009": 8947,
      "dijatuhi": 8948,
      "hendra": 8949,
      "sudut": 8950,
      "magelang": 8951,
      "cilacap": 8952,
      "##unyikan": 8953,
      "popularitas": 8954,
      "kebetulan": 8955,
      "bit": 8956,
      "gbk": 8957,
      "line": 8958,
      "##xy": 8959,
      "##elanja": 8960,
      "##adir": 8961,
      "memin": 8962,
      "memikirkan": 8963,
      "##ominfo": 8964,
      "2030": 8965,
      "melakoni": 8966,
      "pengisian": 8967,
      "##endi": 8968,
      "##kaca": 8969,
      "##indikasi": 8970,
      "##implementasi": 8971,
      "desak": 8972,
      "terdengar": 8973,
      "insan": 8974,
      "batangan": 8975,
      "terbit": 8976,
      "motors": 8977,
      "ibunda": 8978,
      "dibagikan": 8979,
      "mengurus": 8980,
      "##rahim": 8981,
      "facebook": 8982,
      "konservasi": 8983,
      "diinginkan": 8984,
      "monitoring": 8985,
      "kerajaan": 8986,
      "ambulans": 8987,
      "sarwendah": 8988,
      "72": 8989,
      "dl": 8990,
      "jong": 8991,
      "rans": 8992,
      "test": 8993,
      "tjs": 8994,
      "yuli": 8995,
      "##has": 8996,
      "##ega": 8997,
      "##yana": 8998,
      "dif": 8999,
      "seolah": 9000,
      "##ord": 9001,
      "peradilan": 9002,
      "periz": 9003,
      "##ikiran": 9004,
      "##oks": 9005,
      "back": 9006,
      "kembang": 9007,
      "##otanya": 9008,
      "serat": 9009,
      "##ost": 9010,
      "harganya": 9011,
      "ardi": 9012,
      "personal": 9013,
      "ste": 9014,
      "anggotanya": 9015,
      "greg": 9016,
      "pembeli": 9017,
      "mulyani": 9018,
      "##aksian": 9019,
      "instr": 9020,
      "balap": 9021,
      "kaitan": 9022,
      "afc": 9023,
      "##iliasi": 9024,
      "##orejo": 9025,
      "ternama": 9026,
      "yoon": 9027,
      "fifa": 9028,
      "virgo": 9029,
      "bkpsdm": 9030,
      "goreng": 9031,
      "jurnal": 9032,
      "##ebutkan": 9033,
      "landasan": 9034,
      "praja": 9035,
      "penggelapan": 9036,
      "peternakan": 9037,
      "proliga": 9038,
      "tjsl": 9039,
      "gra": 9040,
      "mimpi": 9041,
      "zaki": 9042,
      "##base": 9043,
      "prac": 9044,
      "selat": 9045,
      "bahas": 9046,
      "amal": 9047,
      "christ": 9048,
      "bio": 9049,
      "kesaksian": 9050,
      "terpopuler": 9051,
      "tex": 9052,
      "intinya": 9053,
      "tercapai": 9054,
      "kontrol": 9055,
      "spesifik": 9056,
      "##tainer": 9057,
      "mengkhawatirkan": 9058,
      "akademik": 9059,
      "leste": 9060,
      "mengerikan": 9061,
      "85": 9062,
      "cic": 9063,
      "fuji": 9064,
      "ferd": 9065,
      "mant": 9066,
      "##rove": 9067,
      "keju": 9068,
      "##ility": 9069,
      "##ison": 9070,
      "##uty": 9071,
      "##etika": 9072,
      "##etaraan": 9073,
      "##egas": 9074,
      "##artabat": 9075,
      "berkah": 9076,
      "step": 9077,
      "##ching": 9078,
      "mahasis": 9079,
      "ingat": 9080,
      "##buhkan": 9081,
      "mou": 9082,
      "pulih": 9083,
      "berinvestasi": 9084,
      "tolong": 9085,
      "memerangi": 9086,
      "hidangan": 9087,
      "tabung": 9088,
      "wisnu": 9089,
      "mangrove": 9090,
      "ketimbang": 9091,
      "bimbingan": 9092,
      "dermaga": 9093,
      "punggung": 9094,
      "mahasiswi": 9095,
      "',": 9096,
      "dat": 9097,
      "feri": 9098,
      "kah": 9099,
      "king": 9100,
      "lun": 9101,
      "##vir": 9102,
      "##enario": 9103,
      "##eser": 9104,
      "prasar": 9105,
      "##awati": 9106,
      "polusi": 9107,
      "adu": 9108,
[...]
