<unk>	0
<s>	0
</s>	0
an	-0
▁a	-1
▁m	-2
▁d	-3
▁an	-4
▁k	-5
er	-6
▁i	-7
▁s	-8
▁n	-9
▁p	-10
en	-11
▁t	-12
▁,	-13
▁b	-14
ar	-15
▁u	-16
la	-17
▁.	-18
▁r	-19
at	-20
ang	-21
▁di	-22
as	-23
ak	-24
▁P	-25
▁e	-26
▁o	-27
ya	-28
▁me	-29
▁se	-30
▁S	-31
▁men	-32
tu	-33
▁K	-34
ah	-35
▁2	-36
▁l	-37
in	-38
al	-39
▁ke	-40
▁h	-41
▁y	-42
si	-43
ga	-44
▁in	-45
▁j	-46
ad	-47
ta	-48
▁yang	-49
▁B	-50
▁A	-51
▁M	-52
▁dan	-53
▁kan	-54
▁0	-55
▁pe	-56
▁un	-57
un	-58
▁-	-59
am	-60
▁ter	-61
▁la	-62
▁D	-63
▁ber	-64
▁nya	-65
eng	-66
▁g	-67
▁T	-68
▁J	-69
▁1	-70
ik	-71
▁"	-72
▁I	-73
▁ng	-74
uk	-75
▁c	-76
▁er	-77
il	-78
▁(	-79
▁)	-80
ap	-81
▁te	-82
▁R	-83
ut	-84
ala	-85
▁ak	-86
▁ti	-87
▁4	-88
ari	-89
ur	-90
▁ar	-91
▁ang	-92
us	-93
on	-94
um	-95
▁meng	-96
ara	-97
or	-98
ada	-99
▁w	-100
it	-101
is	-102
▁per	-103
es	-104
tuk	-105
ih	-106
▁mb	-107
ing	-108
ma	-109
▁untuk	-110
▁Ke	-111
▁pada	-112
▁ba	-113
ir	-114
▁H	-115
ti	-116
da	-117
ab	-118
▁en	-119
om	-120
mb	-121
▁N	-122
alam	-123
▁ah	-124
▁al	-125
▁deng	-126
▁W	-127
▁ini	-128
▁itu	-129
▁ne	-130
▁G	-131
▁ol	-132
mp	-133
▁/	-134
▁dari	-135
el	-136
▁C	-137
lah	-138
▁Se	-139
▁L	-140
▁is	-141
▁mas	-142
▁ap	-143
▁nt	-144
▁In	-145
▁pen	-146
ata	-147
▁si	-148
gi	-149
▁U	-150
▁dalam	-151
ek	-152
▁ngk	-153
▁or	-154
wa	-155
▁nj	-156
▁at	-157
sia	-158
▁nd	-159
▁3	-160
ul	-161
ai	-162
ri	-163
▁ta	-164
ia	-165
asi	-166
ung	-167
▁f	-168
▁mp	-169
aya	-170
▁as	-171
adi	-172
▁us	-173
uh	-174
do	-175
▁ko	-176
▁mem	-177
▁ung	-178
ud	-179
dak	-180
▁Pe	-181
▁seb	-182
▁ju	-183
eb	-184
▁F	-185
▁5	-186
▁ad	-187
▁ur	-188
ali	-189
▁ing	-190
▁tidak	-191
ukan	-192
eri	-193
▁sa	-194
▁uk	-195
te	-196
ro	-197
up	-198
ra	-199
ana	-200
gai	-201
▁telah	-202
ua	-203
▁:	-204
▁meny	-205
▁tah	-206
▁il	-207
▁Indo	-208
▁it	-209
▁tak	-210
▁sebut	-211
▁ri	-212
▁E	-213
▁na	-214
▁nesia	-215
▁akan	-216
▁re	-217
▁ik	-218
▁on	-219
lu	-220
ja	-221
▁kata	-222
▁Me	-223
▁ant	-224
▁asi	-225
▁bagai	-226
▁ro	-227
▁ek	-228
▁em	-229
sa	-230
▁menga	-231
▁peng	-232
▁um	-233
▁9	-234
nn	-235
▁jp	-236
▁jpnn	-237
▁v	-238
eh	-239
▁juga	-240
im	-241
▁id	-242
▁com	-243
▁WI	-244
ter	-245
▁ela	-246
re	-247
▁bah	-248
ok	-249
▁WIB	-250
▁atu	-251
▁takan	-252
▁7	-253
ama	-254
gar	-255
▁6	-256
▁mend	-257
▁had	-258
to	-259
▁orang	-260
▁el	-261
ami	-262
▁kar	-263
▁kukan	-264
▁Ko	-265
▁O	-266
▁8	-267
▁har	-268
abu	-269
▁pem	-270
isi	-271
▁mu	-272
▁njadi	-273
▁li	-274
▁ada	-275
ingg	-276
▁rak	-277
▁Per	-278
▁tu	-279
eka	-280
▁tahun	-281
▁am	-282
▁saat	-283
▁ab	-284
▁amp	-285
▁bahwa	-286
▁aw	-287
▁any	-288
▁ata	-289
ka	-290
▁nc	-291
▁mela	-292
ebih	-293
▁oleh	-294
▁int	-295
▁po	-296
▁st	-297
▁ngg	-298
▁ereka	-299
se	-300
▁bis	-301
▁bel	-302
jar	-303
▁ra	-304
▁nur	-305
▁lalu	-306
id	-307
et	-308
▁ion	-309
me	-310
▁ka	-311
▁lebih	-312
▁Y	-313
ub	-314
▁bisa	-315
▁ngkat	-316
▁sama	-317
ila	-318
▁le	-319
▁atau	-320
▁ok	-321
▁bar	-322
akar	-323
udah	-324
arga	-325
▁eg	-326
ita	-327
▁itas	-328
▁hadap	-329
▁ngkap	-330
▁ku	-331
▁hingg	-332
tap	-333
▁ional	-334
▁Jakar	-335
▁mil	-336
nya	-337
▁ed	-338
▁dap	-339
AR	-340
▁rb	-341
ju	-342
gu	-343
▁han	-344
esar	-345
▁rakat	-346
asa	-347
asil	-348
▁ul	-349
▁Ma	-350
ol	-351
▁min	-352
▁apa	-353
▁Di	-354
▁ib	-355
aha	-356
▁pro	-357
▁rup	-358
▁de	-359
▁dia	-360
▁up	-361
▁cara	-362
▁intah	-363
▁anyak	-364
▁ala	-365
▁sudah	-366
▁ud	-367
▁An	-368
▁belum	-369
▁kare	-370
kan	-371
tama	-372
▁amb	-373
ku	-374
▁bu	-375
▁ub	-376
▁gr	-377
▁baru	-378
▁hari	-379
▁eng	-380
▁ian	-381
▁sid	-382
▁ser	-383
▁ut	-384
▁negar	-385
ran	-386
alah	-387
▁mene	-388
▁masya	-389
mi	-390
▁menj	-391
▁adal	-392
▁Kota	-393
▁eb	-394
ati	-395
▁besar	-396
▁para	-397
and	-398
▁kami	-399
▁lu	-400
ika	-401
▁ker	-402
▁mpat	-403
TA	-404
alan	-405
▁Pen	-406
▁man	-407
▁dip	-408
jak	-409
▁dapat	-410
▁peny	-411
tai	-412
▁be	-413
▁siden	-414
hir	-415
uka	-416
▁lo	-417
▁memb	-418
▁gun	-419
▁menc	-420
▁pun	-421
▁ma	-422
▁jadi	-423
▁es	-424
wan	-425
awa	-426
▁meni	-427
▁bagi	-428
▁lama	-429
▁tetap	-430
▁lang	-431
▁ukung	-432
▁serta	-433
▁mberi	-434
▁mo	-435
▁ay	-436
▁nteri	-437
▁pat	-438
▁V	-439
▁dila	-440
▁kom	-441
▁ac	-442
▁pemer	-443
men	-444
▁pend	-445
▁anak	-446
▁AS	-447
▁tur	-448
▁hasil	-449
▁ampai	-450
▁Sen	-451
▁lat	-452
▁ya	-453
▁imp	-454
▁im	-455
▁ujar	-456
▁pa	-457
▁beb	-458
pa	-459
▁anj	-460
▁KAR	-461
▁mber	-462
▁ga	-463
▁KARTA	-464
▁Kam	-465
▁kon	-466
▁perti	-467
ve	-468
▁ungan	-469
▁umlah	-470
▁ban	-471
ko	-472
▁baik	-473
iki	-474
▁tan	-475
▁JA	-476
▁nurut	-477
▁et	-478
▁da	-479
▁angan	-480
▁paten	-481
▁elasa	-482
▁nom	-483
ha	-484
▁kas	-485
▁and	-486
▁rban	-487
▁Rabu	-488
ke	-489
▁harus	-490
▁Dia	-491
umah	-492
▁dis	-493
erah	-494
▁mbang	-495
▁akhir	-496
▁gram	-497
▁Senin	-498
▁usaha	-499
▁ep	-500
ihak	-501
▁pemb	-502
▁agi	-503
▁Kamis	-504
▁dua	-505
▁rupak	-506
▁apat	-507
▁ic	-508
go	-509
▁lit	-510
▁Sa	-511
▁DP	-512
ni	-513
▁menye	-514
ses	-515
▁masuk	-516
res	-517
▁Ber	-518
ji	-519
▁Pre	-520
▁warga	-521
ina	-522
▁wak	-523
arat	-524
▁Kabu	-525
▁nas	-526
▁kel	-527
▁beber	-528
▁Jum	-529
▁Jumat	-530
▁Ka	-531
▁antar	-532
▁Pro	-533
▁masih	-534
▁mak	-535
▁lur	-536
▁lan	-537
▁ir	-538
▁ind	-539
▁aerah	-540
gus	-541
▁osi	-542
▁yan	-543
tua	-544
aga	-545
▁saya	-546
▁erang	-547
tr	-548
▁Ba	-549
▁pihak	-550
▁iliki	-551
▁tr	-552
▁Tim	-553
▁nggal	-554
▁artai	-555
▁ny	-556
▁lalui	-557
▁nu	-558
ba	-559
▁atas	-560
amp	-561
▁ntara	-562
▁langs	-563
▁so	-564
▁mena	-565
▁ari	-566
▁salah	-567
▁rs	-568
▁Jawa	-569
man	-570
▁op	-571
▁Bali	-572
▁laku	-573
▁jalan	-574
▁sra	-575
ukum	-576
▁hanya	-577
amun	-578
ilay	-579
tor	-580
▁srael	-581
▁La	-582
▁rumah	-583
▁pala	-584
▁mel	-585
PK	-586
▁masi	-587
▁mengu	-588
▁ntang	-589
▁su	-590
hat	-591
▁ja	-592
▁ha	-593
▁tim	-594
▁Ch	-595
▁angat	-596
▁inggu	-597
bat	-598
▁ag	-599
▁Pr	-600
▁Ketua	-601
ep	-602
asar	-603
▁res	-604
▁gel	-605
lai	-606
▁kait	-607
▁z	-608
▁menu	-609
▁hal	-610
sk	-611
▁mbali	-612
▁impin	-613
▁Ta	-614
▁kali	-615
▁kerja	-616
▁no	-617
▁hadir	-618
▁uara	-619
▁but	-620
▁agian	-621
▁ia	-622
▁mana	-623
▁gi	-624
▁olisi	-625
▁wo	-626
▁ten	-627
lik	-628
▁luruh	-629
▁kasus	-630
▁buah	-631
▁kita	-632
▁Te	-633
▁isi	-634
tik	-635
▁unia	-636
▁kit	-637
▁atang	-638
gas	-639
▁lih	-640
▁Pil	-641
▁to	-642
▁rang	-643
▁wilay	-644
▁pu	-645
▁bantu	-646
▁rja	-647
ea	-648
▁ni	-649
▁Ter	-650
▁enang	-651
dua	-652
▁Kami	-653
han	-654
▁ger	-655
▁PP	-656
▁nila	-657
▁alon	-658
▁Rp	-659
▁kitar	-660
▁latan	-661
▁nting	-662
▁ikut	-663
▁Peng	-664
itas	-665
▁ki	-666
▁ip	-667
▁dang	-668
▁nilai	-669
ini	-670
▁utu	-671
▁sehat	-672
▁Sab	-673
▁'	-674
▁Sabtu	-675
▁bi	-676
▁ks	-677
▁idik	-678
▁rima	-679
▁lain	-680
▁Des	-681
▁angun	-682
▁Namun	-683
▁PT	-684
ong	-685
▁mulai	-686
▁Un	-687
▁por	-688
▁mper	-689
▁menge	-690
dia	-691
▁Bo	-692
▁ho	-693
▁luar	-694
abo	-695
▁Barat	-696
▁pre	-697
st	-698
▁hukum	-699
▁uang	-700
▁gunak	-701
▁Sur	-702
▁Keme	-703
▁dite	-704
▁rtama	-705
▁Prabo	-706
▁terus	-707
▁pela	-708
mber	-709
na	-710
▁emp	-711
▁kem	-712
▁Pem	-713
▁rsen	-714
▁angka	-715
▁ngga	-716
li	-717
▁uc	-718
▁gelar	-719
ed	-720
iri	-721
▁yak	-722
▁sem	-723
▁lihat	-724
▁af	-725
▁mbu	-726
▁tif	-727
▁agar	-728
▁jab	-729
▁kr	-730
tem	-731
▁tiga	-732
▁nyata	-733
▁isasi	-734
udi	-735
▁iri	-736
▁ara	-737
▁nding	-738
▁air	-739
▁pan	-740
▁ibu	-741
▁was	-742
▁Ini	-743
de	-744
▁upaya	-745
▁arang	-746
▁Le	-747
▁om	-748
di	-749
▁tika	-750
▁memp	-751
▁Am	-752
▁Re	-753
▁Ga	-754
▁ema	-755
▁inf	-756
ani	-757
▁nf	-758
▁minta	-759
▁kec	-760
▁idang	-761
▁ncana	-762
▁keter	-763
▁kese	-764
▁kep	-765
▁semua	-766
▁ru	-767
amb	-768
▁litik	-769
▁Mar	-770
▁mbuat	-771
▁Dalam	-772
wat	-773
pan	-774
▁asang	-775
▁tahu	-776
▁bul	-777
▁rn	-778
▁innya	-779
▁ters	-780
▁cam	-781
▁unc	-782
▁anjut	-783
▁kedua	-784
▁utama	-785
▁Z	-786
▁harga	-787
ank	-788
▁nomi	-789
▁ngah	-790
uli	-791
uber	-792
▁RI	-793
tar	-794
wi	-795
bu	-796
▁kota	-797
mad	-798
tur	-799
▁ran	-800
▁tingg	-801
▁ong	-802
las	-803
▁Ra	-804
▁roses	-805
▁ner	-806
▁depan	-807
▁nang	-808
▁milih	-809
▁dib	-810
▁ersi	-811
▁ati	-812
AN	-813
▁pas	-814
▁Band	-815
▁ahkan	-816
▁osial	-817
▁guna	-818
▁omp	-819
aku	-820
▁anc	-821
▁Ha	-822
▁elain	-823
▁anggo	-824
▁emil	-825
▁sej	-826
▁giat	-827
hi	-828
ki	-829
▁abaya	-830
▁lagi	-831
▁Kom	-832
▁kons	-833
▁Agus	-834
▁rik	-835
▁ikasi	-836
▁rod	-837
tri	-838
▁bulan	-839
▁harap	-840
▁je	-841
rans	-842
▁sp	-843
▁pak	-844
▁Saya	-845
▁roduk	-846
▁olo	-847
▁emilu	-848
▁bat	-849
▁yanan	-850
▁Pilka	-851
▁lah	-852
▁China	-853
▁ingin	-854
▁No	-855
▁apai	-856
▁waktu	-857
▁aksi	-858
▁keb	-859
▁lawan	-860
▁mempe	-861
▁Al	-862
▁asal	-863
▁manan	-864
▁ksana	-865
oto	-866
▁tugas	-867
▁emain	-868
▁Pada	-869
▁ina	-870
▁njuk	-871
▁lin	-872
▁if	-873
▁diri	-874
▁Dir	-875
▁umum	-876
▁rd	-877
▁str	-878
▁acara	-879
ca	-880
nas	-881
▁gas	-882
adan	-883
mpu	-884
▁rat	-885
▁ndak	-886
▁sak	-887
▁DPR	-888
▁engah	-889
▁dise	-890
▁Nas	-891
▁sejak	-892
za	-893
▁rasa	-894
▁tang	-895
anti	-896
▁gen	-897
▁ingat	-898
if	-899
▁antan	-900
▁camat	-901
▁Ku	-902
MK	-903
▁ndiri	-904
▁oko	-905
▁okasi	-906
▁Ameri	-907
▁10	-908
▁Ru	-909
▁alami	-910
▁uarga	-911
▁ken	-912
▁rap	-913
▁mer	-914
▁hub	-915
▁nama	-916
▁for	-917
▁awal	-918
▁penga	-919
▁akti	-920
▁rempu	-921
▁puk	-922
▁olda	-923
▁jen	-924
▁?	-925
▁vin	-926
▁war	-927
▁ns	-928
▁pene	-929
▁hi	-930
▁erada	-931
▁Sum	-932
▁De	-933
▁nar	-934
▁siap	-935
▁pil	-936
▁mar	-937
▁hak	-938
▁Li	-939
▁par	-940
▁ublik	-941
▁Kar	-942
▁antor	-943
▁ukti	-944
▁usat	-945
▁aj	-946
▁Ok	-947
▁wasan	-948
no	-949
ent	-950
▁perta	-951
▁saja	-952
▁[	-953
▁sk	-954
▁empat	-955
▁olres	-956
▁und	-957
▁wan	-958
▁menya	-959
▁malam	-960
▁]	-961
▁KP	-962
▁Ap	-963
▁ompok	-964
▁eko	-965
uj	-966
▁ndara	-967
▁Direk	-968
▁elask	-969
▁ilih	-970
▁ucap	-971
▁jabat	-972
▁mi	-973
▁eks	-974
▁hid	-975
▁lap	-976
▁dasar	-977
▁media	-978
▁sis	-979
▁eti	-980
▁erita	-981
▁ani	-982
▁juta	-983
▁diper	-984
▁uh	-985
▁ana	-986
uru	-987
▁dil	-988
atim	-989
▁Rusia	-990
▁Men	-991
▁wakil	-992
▁Hal	-993
▁hen	-994
▁tor	-995
▁ngaku	-996
▁masa	-997
▁mukan	-998
▁Um	-999
▁Jadi	-1000
san	-1001
▁rio	-1002
▁vinsi	-1003
▁rg	-1004
▁Ti	-1005
▁aftar	-1006
▁iksa	-1007
▁Pemer	-1008
▁du	-1009
▁resmi	-1010
▁Ci	-1011
▁yakni	-1012
le	-1013
▁bukan	-1014
bil	-1015
▁rus	-1016
tus	-1017
▁inter	-1018
▁Okto	-1019
▁aling	-1020
▁ntu	-1021
▁Oktob	-1022
▁PD	-1023
▁ent	-1024
▁Be	-1025
▁lek	-1026
▁njung	-1027
▁soal	-1028
▁ev	-1029
▁icara	-1030
▁neg	-1031
he	-1032
▁ambar	-1033
▁aya	-1034
alau	-1035
▁Agust	-1036
▁ben	-1037
▁panj	-1038
▁dike	-1039
▁Umum	-1040
▁PB	-1041
▁rek	-1042
▁rin	-1043
▁Guber	-1044
▁ambil	-1045
▁sar	-1046
▁astik	-1047
▁Sem	-1048
▁trans	-1049
ale	-1050
po	-1051
▁ngkah	-1052
▁do	-1053
▁arah	-1054
lo	-1055
▁Pol	-1056
▁ampak	-1057
▁PS	-1058
▁Tah	-1059
▁les	-1060
▁ling	-1061
ver	-1062
▁ef	-1063
▁Juli	-1064
▁rt	-1065
▁ec	-1066
▁Nove	-1067
▁kemud	-1068
was	-1069
▁Wak	-1070
▁Wakil	-1071
▁ndisi	-1072
▁jelas	-1073
▁Pale	-1074
▁logi	-1075
▁Tahun	-1076
▁lapor	-1077
▁hanan	-1078
▁sek	-1079
uni	-1080
▁egara	-1081
▁Mu	-1082
▁lam	-1083
▁Tr	-1084
▁nomor	-1085
oko	-1086
▁laga	-1087
▁os	-1088
▁poran	-1089
▁imb	-1090
▁kibat	-1091
▁kanan	-1092
▁nggap	-1093
▁okowi	-1094
NI	-1095
▁masal	-1096
▁ustri	-1097
▁milik	-1098
▁Semar	-1099
▁Kap	-1100
▁sitas	-1101
▁tek	-1102
▁ig	-1103
▁milit	-1104
▁Sep	-1105
▁Gaza	-1106
▁leng	-1107
▁entuk	-1108
▁anye	-1109
▁egi	-1110
▁Seme	-1111
▁Yo	-1112
nis	-1113
▁istem	-1114
▁penye	-1115
▁Pa	-1116
▁itmen	-1117
▁njukk	-1118
▁PPPK	-1119
▁uga	-1120
aat	-1121
▁njata	-1122
▁jam	-1123
▁kepe	-1124
gor	-1125
▁Pas	-1126
▁nfaat	-1127
▁mpung	-1128
▁Perta	-1129
▁ngkin	-1130
▁sing	-1131
▁keras	-1132
▁gung	-1133
▁hidup	-1134
▁pukul	-1135
▁Foto	-1136
▁benar	-1137
▁Bogor	-1138
▁sur	-1139
▁KPU	-1140
▁ist	-1141
ampu	-1142
▁mampu	-1143
▁bak	-1144
▁Ut	-1145
▁Peny	-1146
▁imnas	-1147
▁akar	-1148
▁Badan	-1149
▁juang	-1150
▁Utara	-1151
▁dita	-1152
▁tiap	-1153
▁Sta	-1154
▁wa	-1155
▁orong	-1156
▁Jalan	-1157
▁ot	-1158
▁erah	-1159
▁nal	-1160
▁rupsi	-1161
▁kamp	-1162
▁kad	-1163
PN	-1164
▁makin	-1165
▁Desa	-1166
▁ili	-1167
▁Juni	-1168
▁suai	-1169
▁tensi	-1170
▁pena	-1171
▁musi	-1172
▁lima	-1173
▁ren	-1174
▁Jan	-1175
▁20	-1176
▁did	-1177
▁lingk	-1178
▁Septe	-1179
▁kolah	-1180
▁PDI	-1181
▁jika	-1182
▁ula	-1183
▁batas	-1184
▁dak	-1185
▁Dese	-1186
▁naik	-1187
▁Mei	-1188
▁ember	-1189
abar	-1190
▁peni	-1191
▁ribu	-1192
▁usia	-1193
▁nda	-1194
▁nit	-1195
▁latih	-1196
▁njaga	-1197
▁Muh	-1198
▁penge	-1199
▁aku	-1200
▁aup	-1201
▁nggar	-1202
▁nusia	-1203
▁ateng	-1204
▁ukai	-1205
RI	-1206
▁Janu	-1207
▁Po	-1208
▁kuat	-1209
▁oper	-1210
▁rsi	-1211
ng	-1212
▁X	-1213
ho	-1214
▁egeri	-1215
▁tahui	-1216
▁umber	-1217
▁gu	-1218
▁mobil	-1219
▁nited	-1220
▁emb	-1221
ril	-1222
▁otor	-1223
▁cep	-1224
▁Hari	-1225
▁iz	-1226
▁infor	-1227
ump	-1228
▁inte	-1229
▁rk	-1230
▁aupun	-1231
▁ins	-1232
▁April	-1233
KB	-1234
▁dam	-1235
▁kap	-1236
▁bijak	-1237
▁Seb	-1238
▁put	-1239
▁rah	-1240
▁laman	-1241
▁rnah	-1242
▁penc	-1243
▁strik	-1244
▁KPK	-1245
▁yai	-1246
▁Ada	-1247
▁isata	-1248
▁Si	-1249
▁tentu	-1250
▁he	-1251
▁lengg	-1252
▁kini	-1253
▁komp	-1254
▁inasi	-1255
▁Muha	-1256
▁jar	-1257
▁perlu	-1258
▁alam	-1259
▁buka	-1260
▁mang	-1261
▁mbawa	-1262
▁ji	-1263
▁ulang	-1264
▁Tu	-1265
▁intas	-1266
lin	-1267
▁eni	-1268
▁ej	-1269
▁lamat	-1270
▁aka	-1271
▁urang	-1272
▁omisi	-1273
▁ons	-1274
▁duga	-1275
▁ugaan	-1276
▁ritas	-1277
gr	-1278
NG	-1279
▁Liga	-1280
▁cepat	-1281
▁inisi	-1282
rai	-1283
▁hus	-1284
▁siswa	-1285
▁Trump	-1286
▁rikat	-1287
▁upati	-1288
▁Uk	-1289
▁ral	-1290
▁Kem	-1291
▁Asia	-1292
▁Maret	-1293
▁Ukrai	-1294
▁12	-1295
▁tuju	-1296
▁bo	-1297
▁rinya	-1298
▁husus	-1299
▁main	-1300
tuh	-1301
▁bal	-1302
mo	-1303
▁Kor	-1304
▁son	-1305
▁ring	-1306
▁aga	-1307
▁niver	-1308
▁Para	-1309
leh	-1310
▁alang	-1311
▁butuh	-1312
▁Pend	-1313
▁Ro	-1314
▁lok	-1315
▁osisi	-1316
▁ikuti	-1317
▁Saat	-1318
▁mbaga	-1319
▁awab	-1320
▁Ang	-1321
▁ama	-1322
▁Har	-1323
▁udara	-1324
dik	-1325
ip	-1326
▁danya	-1327
▁ris	-1328
▁dilan	-1329
▁vid	-1330
▁tanpa	-1331
ot	-1332
▁punya	-1333
▁tat	-1334
▁kea	-1335
▁enai	-1336
▁stasi	-1337
▁end	-1338
atu	-1339
▁Jo	-1340
▁yaitu	-1341
▁&	-1342
wah	-1343
▁terd	-1344
▁Korea	-1345
buh	-1346
▁gera	-1347
▁ndang	-1348
▁mema	-1349
▁olri	-1350
▁iliar	-1351
▁Iran	-1352
▁Sek	-1353
▁jauh	-1354
▁mpil	-1355
▁anjar	-1356
▁Fa	-1357
▁Ar	-1358
▁nanti	-1359
▁of	-1360
▁Pra	-1361
▁uda	-1362
▁biasa	-1363
▁antas	-1364
▁ektor	-1365
▁beri	-1366
▁omb	-1367
era	-1368
▁bakal	-1369
▁ua	-1370
▁daya	-1371
▁des	-1372
▁guru	-1373
▁sen	-1374
▁Mas	-1375
▁bawah	-1376
▁naga	-1377
▁TNI	-1378
▁idana	-1379
▁uat	-1380
▁ob	-1381
▁apal	-1382
▁iv	-1383
▁karta	-1384
▁dion	-1385
▁ila	-1386
▁git	-1387
▁ria	-1388
▁alia	-1389
▁angsa	-1390
mu	-1391
▁pol	-1392
▁Anda	-1393
▁luas	-1394
▁Ind	-1395
▁iala	-1396
▁tahan	-1397
KP	-1398
▁II	-1399
▁cuk	-1400
gis	-1401
▁Co	-1402
eo	-1403
▁elang	-1404
KI	-1405
▁muda	-1406
▁seme	-1407
▁kenal	-1408
▁gital	-1409
▁ino	-1410
▁ncari	-1411
▁ola	-1412
▁Wa	-1413
▁irim	-1414
▁dek	-1415
aris	-1416
ord	-1417
▁ebab	-1418
▁ono	-1419
▁Ani	-1420
▁annya	-1421
▁aring	-1422
▁15	-1423
▁cukup	-1424
▁ngka	-1425
▁Ban	-1426
▁lesai	-1427
▁uku	-1428
▁mbak	-1429
▁aji	-1430
▁tamb	-1431
▁elo	-1432
▁Q	-1433
▁aru	-1434
▁anti	-1435
▁adi	-1436
▁tul	-1437
▁san	-1438
▁akit	-1439
▁data	-1440
▁antai	-1441
▁olu	-1442
▁Untuk	-1443
▁Air	-1444
▁30	-1445
▁kir	-1446
▁surat	-1447
▁isnis	-1448
▁isa	-1449
▁Anies	-1450
▁nam	-1451
▁jak	-1452
▁apres	-1453
▁putus	-1454
orm	-1455
▁ambut	-1456
▁gerak	-1457
▁jah	-1458
tup	-1459
ikan	-1460
▁kh	-1461
▁uaca	-1462
▁mpang	-1463
▁tihan	-1464
▁ita	-1465
▁jan	-1466
▁roy	-1467
▁ham	-1468
▁ron	-1469
▁Ah	-1470
▁Ia	-1471
▁uji	-1472
▁lajar	-1473
▁pang	-1474
▁Ab	-1475
▁asa	-1476
▁uru	-1477
▁raih	-1478
▁Keter	-1479
▁dik	-1480
▁berb	-1481
▁mmad	-1482
▁Inter	-1483
▁arat	-1484
▁mbuka	-1485
▁Deng	-1486
▁awas	-1487
▁komun	-1488
▁pekan	-1489
▁Lu	-1490
▁duk	-1491
▁agang	-1492
jo	-1493
▁rget	-1494
▁stina	-1495
▁ASN	-1496
▁Bea	-1497
▁tiv	-1498
▁etiga	-1499
▁Feb	-1500
▁maha	-1501
▁edung	-1502
▁Pap	-1503
▁Papua	-1504
▁kla	-1505
▁neger	-1506
utk	-1507
▁NT	-1508
▁Pu	-1509
▁TP	-1510
▁rub	-1511
▁maju	-1512
▁inan	-1513
▁kut	-1514
▁rubah	-1515
▁dar	-1516
▁usai	-1517
▁gask	-1518
▁tutur	-1519
▁AB	-1520
▁ejad	-1521
▁ilang	-1522
ru	-1523
▁inve	-1524
▁lind	-1525
▁tap	-1526
▁As	-1527
▁Pemb	-1528
▁beda	-1529
▁sip	-1530
▁Ahmad	-1531
▁agai	-1532
▁Ham	-1533
▁bur	-1534
▁Ac	-1535
▁ianto	-1536
▁fi	-1537
▁sta	-1538
▁henti	-1539
▁tanya	-1540
▁Da	-1541
▁Hamas	-1542
▁lanju	-1543
▁ton	-1544
▁enuh	-1545
▁ende	-1546
▁dekat	-1547
▁huj	-1548
▁isti	-1549
▁Pak	-1550
▁mbah	-1551
▁libat	-1552
▁ras	-1553
▁raga	-1554
▁peran	-1555
▁ibusi	-1556
▁olusi	-1557
▁anten	-1558
du	-1559
▁anto	-1560
▁api	-1561
▁ket	-1562
▁io	-1563
▁udaya	-1564
▁sik	-1565
▁Bu	-1566
▁mod	-1567
ura	-1568
▁rif	-1569
▁unuh	-1570
▁rtem	-1571
▁Sul	-1572
▁etak	-1573
▁ligus	-1574
▁nuju	-1575
▁ncang	-1576
▁tri	-1577
mal	-1578
▁abat	-1579
▁rdana	-1580
▁nor	-1581
▁urut	-1582
▁saksi	-1583
hon	-1584
▁Su	-1585
▁hit	-1586
▁ajak	-1587
▁seka	-1588
▁desa	-1589
▁rtemu	-1590
▁adw	-1591
▁Din	-1592
▁hujan	-1593
▁penu	-1594
▁ali	-1595
▁utra	-1596
▁siasi	-1597
ons	-1598
▁ido	-1599
▁Dep	-1600
▁ge	-1601
▁sakit	-1602
▁anya	-1603
▁tus	-1604
▁Meng	-1605
▁kand	-1606
▁pasar	-1607
▁adwal	-1608
▁yo	-1609
▁lasan	-1610
▁pres	-1611
▁visi	-1612
▁alat	-1613
▁enuhi	-1614
▁tas	-1615
▁Ri	-1616
▁erk	-1617
▁penuh	-1618
KN	-1619
▁Mes	-1620
▁cat	-1621
▁ulu	-1622
▁Depok	-1623
▁Wi	-1624
▁turun	-1625
▁16	-1626
▁Meski	-1627
▁rusak	-1628
▁apang	-1629
▁duksi	-1630
▁emo	-1631
▁fil	-1632
▁yakin	-1633
tim	-1634
▁Den	-1635
▁tanah	-1636
▁Bid	-1637
▁arta	-1638
▁olah	-1639
▁alu	-1640
▁Mal	-1641
▁Jatim	-1642
▁Febru	-1643
▁anjir	-1644
▁alur	-1645
au	-1646
▁utus	-1647
▁orasi	-1648
▁sit	-1649
▁aris	-1650
▁demo	-1651
▁kual	-1652
▁Ca	-1653
▁tekno	-1654
▁11	-1655
▁sana	-1656
▁uhan	-1657
▁Tidak	-1658
▁ancam	-1659
▁berke	-1660
▁engg	-1661
▁Kali	-1662
▁rc	-1663
usa	-1664
▁atur	-1665
▁kum	-1666
▁enam	-1667
▁aksa	-1668
▁lak	-1669
▁wat	-1670
▁epang	-1671
▁The	-1672
▁namb	-1673
▁fasil	-1674
▁Biden	-1675
▁ungsi	-1676
▁edi	-1677
▁rku	-1678
▁tep	-1679
▁bol	-1680
▁kalau	-1681
▁pel	-1682
▁uri	-1683
▁Ria	-1684
▁nju	-1685
▁riode	-1686
▁sisi	-1687
▁ersib	-1688
▁norer	-1689
▁mit	-1690
▁Bank	-1691
▁urah	-1692
▁berd	-1693
yah	-1694
▁14	-1695
▁mina	-1696
▁mat	-1697
▁q	-1698
omor	-1699
▁Nomor	-1700
▁aman	-1701
▁musim	-1702
▁Wali	-1703
▁Kemud	-1704
▁oe	-1705
▁iar	-1706
▁Ne	-1707
▁UMK	-1708
▁Salah	-1709
▁oto	-1710
▁terp	-1711
▁jat	-1712
▁lemen	-1713
▁ncur	-1714
▁dapun	-1715
▁uj	-1716
▁ai	-1717
▁DKI	-1718
▁egitu	-1719
▁tewas	-1720
▁sat	-1721
▁diba	-1722
▁ropa	-1723
▁Cal	-1724
▁amar	-1725
▁ener	-1726
▁pula	-1727
▁nurun	-1728
ski	-1729
▁akses	-1730
▁aktiv	-1731
gal	-1732
▁meski	-1733
▁elola	-1734
▁krasi	-1735
AM	-1736
▁toko	-1737
▁egah	-1738
▁Ag	-1739
▁pul	-1740
▁anta	-1741
rak	-1742
▁fin	-1743
▁mudah	-1744
▁trasi	-1745
▁tusan	-1746
▁org	-1747
▁ungi	-1748
YA	-1749
▁nik	-1750
▁sete	-1751
okus	-1752
▁fokus	-1753
▁terb	-1754
▁raky	-1755
▁bahan	-1756
▁pilih	-1757
▁atan	-1758
▁leksi	-1759
▁narko	-1760
▁utuh	-1761
▁royek	-1762
rim	-1763
▁Jabar	-1764
▁gol	-1765
▁PBB	-1766
▁co	-1767
▁meter	-1768
ant	-1769
ch	-1770
▁SD	-1771
▁art	-1772
▁mis	-1773
▁ebar	-1774
▁utih	-1775
▁alani	-1776
▁rut	-1777
▁jenis	-1778
▁elalu	-1779
▁Gi	-1780
▁Is	-1781
ustr	-1782
▁est	-1783
▁usul	-1784
▁Inst	-1785
sip	-1786
▁ganti	-1787
▁25	-1788
▁sul	-1789
▁film	-1790
▁kema	-1791
▁luka	-1792
▁mata	-1793
▁tiba	-1794
▁Dari	-1795
▁Hi	-1796
▁Jaya	-1797
▁inat	-1798
▁uduk	-1799
▁angga	-1800
▁Calon	-1801
▁13	-1802
▁Dinas	-1803
▁tot	-1804
▁anggu	-1805
▁Nusa	-1806
▁Pela	-1807
▁jatim	-1808
▁UMKM	-1809
▁Ya	-1810
▁kha	-1811
▁nat	-1812
▁video	-1813
▁turut	-1814
▁port	-1815
▁netap	-1816
▁Suma	-1817
▁BB	-1818
▁jal	-1819
SI	-1820
▁lep	-1821
▁laut	-1822
▁ngat	-1823
▁Inf	-1824
▁Und	-1825
▁Apa	-1826
▁nggul	-1827
▁njutk	-1828
▁epe	-1829
▁andar	-1830
▁18	-1831
▁24	-1832
▁Ger	-1833
▁udi	-1834
▁berat	-1835
▁urve	-1836
▁tnya	-1837
▁Ju	-1838
ujud	-1839
▁asuk	-1840
▁tulis	-1841
▁wujud	-1842
▁ca	-1843
▁tepat	-1844
tif	-1845
▁rkuat	-1846
▁urat	-1847
▁uncur	-1848
▁og	-1849
▁jabar	-1850
▁olk	-1851
▁temu	-1852
▁Penga	-1853
▁emas	-1854
▁organ	-1855
▁pakat	-1856
▁mau	-1857
lon	-1858
▁17	-1859
▁kat	-1860
▁awang	-1861
yar	-1862
▁bab	-1863
▁lewat	-1864
▁pla	-1865
▁ff	-1866
▁tik	-1867
▁final	-1868
▁lidik	-1869
▁rcaya	-1870
▁abil	-1871
▁eno	-1872
▁iap	-1873
▁maka	-1874
▁rem	-1875
▁unung	-1876
UM	-1877
▁sep	-1878
▁utri	-1879
▁resta	-1880
▁tahap	-1881
▁FC	-1882
▁amank	-1883
▁tisip	-1884
▁ril	-1885
▁ersih	-1886
▁alah	-1887
▁ibran	-1888
▁rtu	-1889
▁kola	-1890
▁PDIP	-1891
▁janji	-1892
▁Agung	-1893
▁ira	-1894
▁liti	-1895
▁ping	-1896
▁Ing	-1897
▁sos	-1898
▁kecil	-1899
▁ditu	-1900
▁dic	-1901
▁Inggr	-1902
▁St	-1903
▁Kalau	-1904
▁Austr	-1905
▁Suka	-1906
▁ubah	-1907
▁Pasal	-1908
▁tes	-1909
▁narik	-1910
▁SI	-1911
▁kasih	-1912
▁tasi	-1913
▁hati	-1914
▁pesan	-1915
▁atal	-1916
▁ate	-1917
▁rh	-1918
▁umumk	-1919
▁udah	-1920
▁teman	-1921
▁dana	-1922
▁adang	-1923
▁obat	-1924
▁mengg	-1925
▁ntung	-1926
▁angi	-1927
▁okter	-1928
▁rawat	-1929
▁bas	-1930
▁luang	-1931
▁urvei	-1932
ny	-1933
▁Budi	-1934
▁mpro	-1935
▁olkar	-1936
▁ile	-1937
▁Warga	-1938
▁dij	-1939
▁izin	-1940
▁SE	-1941
▁Gib	-1942
▁New	-1943
▁tab	-1944
▁Gibr	-1945
▁Kare	-1946
▁emu	-1947
▁atif	-1948
▁Dewan	-1949
▁ekan	-1950
▁ruang	-1951
▁sulit	-1952
▁kolab	-1953
▁go	-1954
▁ry	-1955
▁glo	-1956
▁Rumah	-1957
▁lepas	-1958
▁Denpa	-1959
▁sitif	-1960
▁kuasa	-1961
▁watir	-1962
▁Hukum	-1963
▁njual	-1964
▁pakah	-1965
▁Perse	-1966
▁mati	-1967
▁Yu	-1968
MA	-1969
▁ilm	-1970
▁nah	-1971
▁indah	-1972
em	-1973
▁ukses	-1974
▁ngani	-1975
▁isu	-1976
▁inov	-1977
▁aktif	-1978
umas	-1979
▁To	-1980
▁apre	-1981
wai	-1982
▁tum	-1983
▁onlin	-1984
▁atat	-1985
▁laki	-1986
▁ologi	-1987
▁rhati	-1988
▁Na	-1989
▁all	-1990
▁pra	-1991
▁nco	-1992
fe	-1993
▁poin	-1994
▁khus	-1995
▁Sh	-1996
▁eta	-1997
▁aslon	-1998
▁Abd	-1999
▁bahas	-2000
▁utuhk	-2001
▁BP	-2002
▁rw	-2003
▁Tak	-2004
▁enc	-2005
▁Af	-2006
▁nggil	-2007
▁yarat	-2008
▁ngan	-2009
▁Rep	-2010
▁sema	-2011
tak	-2012
▁menit	-2013
▁usnya	-2014
▁Sup	-2015
▁uncul	-2016
lam	-2017
▁BRI	-2018
▁pi	-2019
▁skrim	-2020
▁ulasi	-2021
▁puluh	-2022
▁sekar	-2023
▁ident	-2024
▁rensi	-2025
▁27	-2026
▁glob	-2027
▁uasa	-2028
▁av	-2029
▁ex	-2030
▁lib	-2031
▁Itu	-2032
▁jang	-2033
▁tegas	-2034
▁gab	-2035
▁lahir	-2036
▁rsiap	-2037
▁spons	-2038
▁nggu	-2039
▁agama	-2040
▁akang	-2041
▁kalah	-2042
▁sawat	-2043
▁engar	-2044
▁ituas	-2045
▁unit	-2046
cu	-2047
▁stra	-2048
▁bun	-2049
▁isme	-2050
▁Ho	-2051
▁Riau	-2052
▁roleh	-2053
▁berta	-2054
▁dikit	-2055
▁total	-2056
▁Kas	-2057
▁Has	-2058
▁uktur	-2059
▁Utama	-2060
▁bayar	-2061
▁RS	-2062
▁iptak	-2063
MI	-2064
▁Ng	-2065
▁uami	-2066
▁makan	-2067
▁SAR	-2068
▁kumen	-2069
▁ens	-2070
▁krat	-2071
▁mung	-2072
▁ram	-2073
▁adar	-2074
▁mpir	-2075
▁dipe	-2076
▁umen	-2077
▁PN	-2078
▁pagi	-2079
▁Ki	-2080
▁Besar	-2081
▁atuan	-2082
▁guber	-2083
▁Uni	-2084
▁erman	-2085
▁19	-2086
▁UU	-2087
▁Yog	-2088
▁22	-2089
▁Yogya	-2090
▁mungk	-2091
▁Tri	-2092
▁bin	-2093
▁pasti	-2094
▁emiki	-2095
▁damai	-2096
▁bali	-2097
▁urus	-2098
▁tua	-2099
▁marin	-2100
▁rkara	-2101
▁taris	-2102
▁PK	-2103
▁BA	-2104
▁inc	-2105
▁atasi	-2106
▁pasuk	-2107
▁gagal	-2108
▁Kel	-2109
▁Sat	-2110
▁upa	-2111
▁ntar	-2112
▁Raya	-2113
▁Dua	-2114
▁rib	-2115
▁suh	-2116
▁ayang	-2117
▁catat	-2118
▁energ	-2119
▁sonel	-2120
▁waslu	-2121
▁etu	-2122
▁rapan	-2123
▁iaya	-2124
▁inta	-2125
▁ebabk	-2126
▁rilis	-2127
▁gawai	-2128
▁BMK	-2129
▁sel	-2130
▁rtumb	-2131
▁BMKG	-2132
▁tra	-2133
▁asar	-2134
▁ity	-2135
▁DPRD	-2136
▁rugi	-2137
▁23	-2138
▁eh	-2139
▁sy	-2140
▁ine	-2141
▁Kemen	-2142
▁bebas	-2143
▁ch	-2144
▁tubuh	-2145
▁ow	-2146
▁mom	-2147
▁21	-2148
▁50	-2149
▁asing	-2150
▁sabu	-2151
▁Ak	-2152
▁njara	-2153
▁rbang	-2154
▁usung	-2155
▁antau	-2156
▁ahf	-2157
▁rba	-2158
▁ndah	-2159
lak	-2160
▁iah	-2161
▁elek	-2162
▁oc	-2163
▁Eri	-2164
▁Anak	-2165
▁duli	-2166
▁anger	-2167
▁namun	-2168
▁Anggo	-2169
▁sor	-2170
▁istri	-2171
▁ksi	-2172
▁erai	-2173
▁Sekre	-2174
▁balik	-2175
▁Mana	-2176
▁Joko	-2177
▁ahfud	-2178
▁Dr	-2179
▁sw	-2180
▁istiw	-2181
▁Ram	-2182
▁rela	-2183
▁az	-2184
▁ky	-2185
▁tera	-2186
▁Islam	-2187
▁sipil	-2188
▁jalur	-2189
▁od	-2190
▁Kedua	-2191
▁ibat	-2192
▁lokal	-2193
NP	-2194
▁momen	-2195
▁ngkut	-2196
▁turan	-2197
▁ratis	-2198
▁apar	-2199
▁luark	-2200
▁fe	-2201
▁DPP	-2202
▁Sej	-2203
▁bus	-2204
▁ibatk	-2205
▁UR	-2206
▁isah	-2207
▁ster	-2208
▁Humas	-2209
▁luk	-2210
▁ump	-2211
▁mitra	-2212
ANG	-2213
▁rtani	-2214
▁erat	-2215
▁tatus	-2216
▁kil	-2217
▁Masya	-2218
▁ebut	-2219
▁landa	-2220
▁Gr	-2221
▁lar	-2222
▁tani	-2223
▁nolak	-2224
ly	-2225
▁rti	-2226
ori	-2227
▁uncak	-2228
▁sal	-2229
▁usi	-2230
▁demi	-2231
▁edar	-2232
▁kontr	-2233
▁ato	-2234
▁etro	-2235
▁tapi	-2236
▁ratur	-2237
▁Il	-2238
▁bum	-2239
so	-2240
▁au	-2241
▁Dis	-2242
yo	-2243
▁bers	-2244
gat	-2245
▁ntik	-2246
▁BUM	-2247
▁mbel	-2248
▁nflik	-2249
▁bang	-2250
▁memer	-2251
▁tegis	-2252
▁pik	-2253
▁dini	-2254
▁Abdul	-2255
▁iapk	-2256
▁lub	-2257
▁ajang	-2258
▁erahk	-2259
▁nerja	-2260
▁lor	-2261
▁untu	-2262
▁rand	-2263
▁Bantu	-2264
▁alih	-2265
▁ward	-2266
▁nk	-2267
▁mere	-2268
▁alank	-2269
▁ajar	-2270
▁MA	-2271
▁dangk	-2272
▁ual	-2273
▁ampah	-2274
▁Ad	-2275
▁MK	-2276
▁Hasil	-2277
▁aki	-2278
▁kilo	-2279
▁mpak	-2280
▁Lebih	-2281
▁lil	-2282
▁idodo	-2283
▁jaran	-2284
▁ungut	-2285
▁ment	-2286
▁egini	-2287
▁undur	-2288
▁Nu	-2289
▁kecel	-2290
▁ium	-2291
▁baran	-2292
▁elekt	-2293
▁iswa	-2294
▁perke	-2295
▁ebas	-2296
▁Pj	-2297
▁ano	-2298
▁akaan	-2299
▁amu	-2300
▁raya	-2301
▁buat	-2302
▁Luar	-2303
▁jarah	-2304
▁saing	-2305
▁leg	-2306
juh	-2307
▁26	-2308
▁tujuh	-2309
▁isiko	-2310
▁titik	-2311
per	-2312
▁non	-2313
▁ediak	-2314
▁ombes	-2315
▁suatu	-2316
▁tokoh	-2317
▁28	-2318
▁ahaya	-2319
▁los	-2320
▁Do	-2321
▁ont	-2322
▁Kita	-2323
▁lahan	-2324
▁AF	-2325
▁nto	-2326
▁ileg	-2327
▁pir	-2328
▁jaksa	-2329
▁mbeli	-2330
▁rj	-2331
▁ena	-2332
▁rata	-2333
▁liun	-2334
▁Aceh	-2335
▁Laut	-2336
▁naw	-2337
▁sig	-2338
▁agu	-2339
▁akun	-2340
▁alif	-2341
▁kirak	-2342
▁Dan	-2343
▁bawa	-2344
▁Ja	-2345
▁Eko	-2346
▁Bang	-2347
▁Pasar	-2348
▁erkel	-2349
▁pop	-2350
▁sus	-2351
▁warna	-2352
▁kai	-2353
▁antu	-2354
▁Ramad	-2355
▁jatuh	-2356
▁sif	-2357
▁badan	-2358
▁pulau	-2359
▁Ed	-2360
▁istan	-2361
▁hing	-2362
ARA	-2363
▁dakwa	-2364
▁ahan	-2365
▁inst	-2366
▁ansi	-2367
▁tf	-2368
▁Pena	-2369
▁awan	-2370
ulu	-2371
▁atar	-2372
▁gener	-2373
KBP	-2374
▁oro	-2375
▁memba	-2376
▁eo	-2377
▁ey	-2378
▁hu	-2379
▁awe	-2380
▁uz	-2381
▁isten	-2382
▁enter	-2383
▁ngin	-2384
▁ribad	-2385
AYA	-2386
▁ill	-2387
▁fisi	-2388
▁foto	-2389
▁minum	-2390
▁JPN	-2391
▁bia	-2392
▁ien	-2393
▁amin	-2394
▁horm	-2395
▁erd	-2396
▁adil	-2397
▁ncar	-2398
▁grasi	-2399
▁ungai	-2400
▁ort	-2401
▁AKBP	-2402
▁anda	-2403
▁orot	-2404
▁emuda	-2405
▁dakan	-2406
▁erek	-2407
▁%	-2408
▁oo	-2409
▁DPD	-2410
▁JPNN	-2411
▁misi	-2412
▁orum	-2413
▁alias	-2414
▁etuju	-2415
▁rbaik	-2416
▁29	-2417
▁hakim	-2418
▁mud	-2419
▁adat	-2420
▁ABAYA	-2421
▁kaian	-2422
▁lir	-2423
▁Arab	-2424
▁mpul	-2425
▁sang	-2426
kam	-2427
▁sah	-2428
▁tis	-2429
▁ans	-2430
▁TPS	-2431
▁wati	-2432
▁Kasus	-2433
NA	-2434
utan	-2435
▁der	-2436
▁ou	-2437
▁nergi	-2438
▁akui	-2439
▁ensi	-2440
▁krit	-2441
▁Keb	-2442
▁ejak	-2443
▁tion	-2444
▁agr	-2445
▁aktor	-2446
▁emati	-2447
▁Ibu	-2448
▁iaga	-2449
▁simal	-2450
▁ez	-2451
▁adaan	-2452
▁adu	-2453
▁artaw	-2454
▁tar	-2455
▁unan	-2456
▁koord	-2457
▁nutup	-2458
▁iti	-2459
▁kau	-2460
▁kabar	-2461
▁arc	-2462
▁Oleh	-2463
▁rid	-2464
▁BUMN	-2465
▁uran	-2466
▁ols	-2467
▁are	-2468
▁judi	-2469
▁Trans	-2470
▁boleh	-2471
▁kri	-2472
▁labuh	-2473
▁sedia	-2474
jid	-2475
▁Jika	-2476
▁ngha	-2477
▁rjen	-2478
▁ingan	-2479
▁ikan	-2480
▁deb	-2481
▁nton	-2482
▁utusk	-2483
▁ank	-2484
▁area	-2485
▁berse	-2486
▁musik	-2487
jib	-2488
▁ver	-2489
▁ation	-2490
▁elah	-2491
▁ase	-2492
▁wajib	-2493
▁dy	-2494
▁esak	-2495
▁asjid	-2496
ono	-2497
▁bila	-2498
▁ekat	-2499
▁basis	-2500
▁PKB	-2501
▁ayu	-2502
▁rof	-2503
▁tutup	-2504
▁edia	-2505
▁nak	-2506
▁gugat	-2507
▁ov	-2508
▁nen	-2509
▁lay	-2510
▁lus	-2511
▁Koord	-2512
lim	-2513
▁ategi	-2514
▁bon	-2515
▁Yang	-2516
▁lagu	-2517
▁iny	-2518
▁sari	-2519
▁langg	-2520
II	-2521
▁Sing	-2522
▁lis	-2523
▁keme	-2524
▁ayak	-2525
▁ilg	-2526
▁bank	-2527
▁efek	-2528
▁NTARA	-2529
▁nerap	-2530
▁popul	-2531
▁AP	-2532
▁kam	-2533
▁kre	-2534
▁konfe	-2535
▁libur	-2536
▁IKN	-2537
▁una	-2538
▁audi	-2539
▁edak	-2540
▁ndali	-2541
▁rangi	-2542
▁mah	-2543
▁ck	-2544
▁tema	-2545
▁llah	-2546
▁ator	-2547
▁kapa	-2548
▁olsek	-2549
▁nawar	-2550
▁tform	-2551
▁;	-2552
▁iro	-2553
▁our	-2554
▁siapa	-2555
▁Lo	-2556
▁tl	-2557
▁ahkam	-2558
▁nalis	-2559
▁uter	-2560
▁lim	-2561
▁ult	-2562
▁iden	-2563
▁suka	-2564
▁wali	-2565
▁debat	-2566
▁jahte	-2567
▁pri	-2568
▁lurah	-2569
▁ega	-2570
▁aplik	-2571
▁Kalim	-2572
▁kelas	-2573
▁Br	-2574
▁jo	-2575
▁Fil	-2576
▁pengu	-2577
▁reg	-2578
▁sini	-2579
▁anah	-2580
▁babak	-2581
▁karya	-2582
▁isk	-2583
▁elas	-2584
▁Ni	-2585
▁th	-2586
▁agram	-2587
▁AI	-2588
OG	-2589
▁nikah	-2590
▁berp	-2591
▁iyah	-2592
▁entar	-2593
▁kala	-2594
▁penj	-2595
▁ekasi	-2596
▁rapat	-2597
▁pr	-2598
▁iet	-2599
▁ukur	-2600
▁evaku	-2601
▁umi	-2602
▁indra	-2603
▁minal	-2604
din	-2605
▁guh	-2606
▁peri	-2607
▁ncuri	-2608
▁Or	-2609
▁ullah	-2610
▁RANG	-2611
▁terj	-2612
▁31	-2613
▁Penj	-2614
▁biaya	-2615
▁ransi	-2616
▁tud	-2617
ranc	-2618
▁pand	-2619
▁Pranc	-2620
▁ern	-2621
▁tren	-2622
▁uf	-2623
▁lanta	-2624
▁memu	-2625
▁rofes	-2626
▁Ex	-2627
▁amat	-2628
▁net	-2629
▁kup	-2630
▁Beb	-2631
▁eny	-2632
▁Nur	-2633
▁berte	-2634
▁ilgub	-2635
▁ndra	-2636
▁mping	-2637
▁mudik	-2638
DU	-2639
▁arga	-2640
▁bera	-2641
▁dela	-2642
▁kutip	-2643
zi	-2644
▁PAN	-2645
▁kur	-2646
▁olid	-2647
▁ame	-2648
▁darah	-2649
▁Mak	-2650
▁etik	-2651
▁HAM	-2652
▁inyak	-2653
▁ahy	-2654
▁eral	-2655
▁Beber	-2656
▁Filip	-2657
bo	-2658
▁Kep	-2659
▁Maha	-2660
▁arti	-2661
▁edan	-2662
▁kaya	-2663
▁India	-2664
▁pingi	-2665
▁ie	-2666
▁ork	-2667
▁tand	-2668
▁ereko	-2669
▁KA	-2670
▁uta	-2671
▁keta	-2672
▁buruk	-2673
▁mui	-2674
▁Ilus	-2675
▁nghi	-2676
▁aysia	-2677
▁titus	-2678
▁ito	-2679
▁Mega	-2680
▁mpur	-2681
▁egori	-2682
▁nggah	-2683
▁diu	-2684
▁enda	-2685
▁stik	-2686
▁ustr	-2687
▁AR	-2688
▁ard	-2689
▁aket	-2690
▁unggu	-2691
▁akta	-2692
▁abu	-2693
▁dim	-2694
▁delap	-2695
▁etisi	-2696
▁mal	-2697
▁ntut	-2698
▁onal	-2699
▁reta	-2700
▁ialah	-2701
▁putar	-2702
▁ona	-2703
▁ampus	-2704
▁cah	-2705
▁jemen	-2706
▁banon	-2707
▁jukan	-2708
▁jaya	-2709
▁ndar	-2710
▁uatan	-2711
ade	-2712
▁nv	-2713
▁Rah	-2714
▁kena	-2715
▁ld	-2716
▁aik	-2717
▁ohon	-2718
▁fikan	-2719
▁Pri	-2720
▁kabu	-2721
▁hil	-2722
▁inato	-2723
▁ANG	-2724
▁Orang	-2725
▁sikap	-2726
▁Sl	-2727
▁asw	-2728
▁umb	-2729
▁anji	-2730
▁genc	-2731
▁rastr	-2732
▁rok	-2733
▁kade	-2734
PR	-2735
▁PBD	-2736
▁tib	-2737
▁100	-2738
▁ore	-2739
▁aju	-2740
▁jahat	-2741
▁raan	-2742
▁trad	-2743
kot	-2744
▁oni	-2745
▁And	-2746
▁erl	-2747
▁ury	-2748
▁aja	-2749
▁ayor	-2750
▁idat	-2751
▁okan	-2752
AT	-2753
▁Kea	-2754
▁aswed	-2755
▁Ir	-2756
▁Vi	-2757
▁signi	-2758
ck	-2759
▁berl	-2760
▁engk	-2761
▁ikl	-2762
▁ogja	-2763
▁rius	-2764
GP	-2765
▁Go	-2766
▁ntah	-2767
▁sial	-2768
▁ahulu	-2769
▁mohon	-2770
▁skor	-2771
▁Fes	-2772
▁sih	-2773
▁arus	-2774
▁Indra	-2775
▁emkot	-2776
▁KO	-2777
▁Airl	-2778
▁ekst	-2779
▁Hen	-2780
▁plo	-2781
▁iskus	-2782
▁jel	-2783
▁riah	-2784
▁ender	-2785
▁erv	-2786
▁Nat	-2787
▁Ali	-2788
▁Gro	-2789
▁anita	-2790
▁anksi	-2791
▁Sri	-2792
▁dur	-2793
▁awak	-2794
▁hutan	-2795
▁aes	-2796
▁ako	-2797
▁tival	-2798
▁psi	-2799
▁itur	-2800
▁nkum	-2801
▁ss	-2802
DUNG	-2803
▁wal	-2804
▁diti	-2805
▁ions	-2806
▁NDUNG	-2807
▁sh	-2808
▁kiri	-2809
▁unj	-2810
▁atuh	-2811
▁minim	-2812
▁las	-2813
▁uth	-2814
▁kank	-2815
▁ntuk	-2816
▁ragam	-2817
▁emi	-2818
▁Prof	-2819
▁newas	-2820
sel	-2821
▁ahli	-2822
▁baya	-2823
▁ilat	-2824
▁tlet	-2825
▁iring	-2826
▁40	-2827
▁ade	-2828
▁Pram	-2829
▁usun	-2830
▁uriah	-2831
▁1,	-2832
▁BBC	-2833
▁ojo	-2834
▁Tetap	-2835
▁ustru	-2836
▁Gus	-2837
▁ene	-2838
▁her	-2839
▁Paris	-2840
▁kah	-2841
▁ancar	-2842
▁ekspo	-2843
▁perd	-2844
▁enior	-2845
▁tele	-2846
▁ketua	-2847
▁taw	-2848
ine	-2849
▁rud	-2850
▁rbit	-2851
▁tir	-2852
▁Afri	-2853
▁jelis	-2854
▁keber	-2855
▁ktik	-2856
▁bakar	-2857
▁kuad	-2858
▁otoGP	-2859
▁erak	-2860
▁AL	-2861
▁oba	-2862
▁yanto	-2863
▁wil	-2864
▁Pene	-2865
▁Ins	-2866
▁Pihak	-2867
▁fif	-2868
▁muka	-2869
▁kader	-2870
▁tabil	-2871
▁PSI	-2872
▁aky	-2873
▁ayat	-2874
▁mbil	-2875
▁pema	-2876
▁siang	-2877
▁Az	-2878
▁assa	-2879
▁lul	-2880
▁indo	-2881
▁ning	-2882
▁ngkit	-2883
▁parat	-2884
▁CPN	-2885
▁set	-2886
▁rtimb	-2887
▁Pi	-2888
▁esa	-2889
▁migr	-2890
▁pikir	-2891
▁Kan	-2892
▁duh	-2893
▁bagus	-2894
▁vs	-2895
▁CPNS	-2896
▁empa	-2897
▁ehari	-2898
▁uddin	-2899
▁era	-2900
▁Oper	-2901
▁Hasto	-2902
▁klaim	-2903
▁ncoba	-2904
bar	-2905
▁ial	-2906
▁roni	-2907
▁PKS	-2908
▁asih	-2909
▁reng	-2910
▁piade	-2911
▁Riz	-2912
▁SDM	-2913
▁vir	-2914
▁nden	-2915
▁Sebab	-2916
▁redik	-2917
▁III	-2918
▁Sya	-2919
▁ima	-2920
▁eman	-2921
▁epeda	-2922
▁kl	-2923
▁ongso	-2924
▁umsel	-2925
▁truk	-2926
▁idwan	-2927
▁nti	-2928
▁Wilay	-2929
▁awesi	-2930
▁oha	-2931
▁tam	-2932
▁jiwa	-2933
▁terl	-2934
▁utara	-2935
▁02	-2936
▁hip	-2937
▁jur	-2938
▁Grup	-2939
▁ntrak	-2940
▁inci	-2941
▁igasi	-2942
▁ih	-2943
▁esi	-2944
▁arak	-2945
▁Komun	-2946
gab	-2947
▁01	-2948
▁ht	-2949
▁bumi	-2950
▁mbul	-2951
▁tudi	-2952
▁alisi	-2953
▁imbau	-2954
▁lulus	-2955
▁Bel	-2956
▁pek	-2957
▁ekor	-2958
▁genda	-2959
lar	-2960
▁aham	-2961
▁nutur	-2962
▁ew	-2963
▁Kho	-2964
▁Bagi	-2965
▁sore	-2966
▁mir	-2967
▁sosok	-2968
▁$	-2969
▁Rak	-2970
▁micu	-2971
▁ain	-2972
▁old	-2973
▁optim	-2974
NPA	-2975
hail	-2976
▁pab	-2977
▁Komp	-2978
▁ariw	-2979
▁lans	-2980
▁ondo	-2981
▁Thail	-2982
▁SM	-2983
▁yu	-2984
▁pos	-2985
▁akyat	-2986
▁uslim	-2987
▁bes	-2988
▁epar	-2989
▁Group	-2990
▁ergab	-2991
▁num	-2992
▁ingga	-2993
▁amai	-2994
▁apak	-2995
▁pajak	-2996
▁Bei	-2997
▁ENPA	-2998
▁ord	-2999
▁anyi	-3000
▁ayah	-3001
▁rmal	-3002
▁uming	-3003
▁lum	-3004
▁esan	-3005
▁Rakab	-3006
ge	-3007
▁Res	-3008
▁sup	-3009
▁bud	-3010
▁knis	-3011
▁agung	-3012
▁impor	-3013
▁PL	-3014
▁Bah	-3015
▁udin	-3016
▁ahasa	-3017
▁konte	-3018
▁merah	-3019
▁rdeka	-3020
▁rokok	-3021
▁Adi	-3022
▁abar	-3023
▁anu	-3024
▁emk	-3025
▁adam	-3026
▁ers	-3027
▁uci	-3028
▁hamp	-3029
▁emkab	-3030
▁US	-3031
▁ese	-3032
▁jual	-3033
▁mbulk	-3034
▁eklar	-3035
▁ero	-3036
▁nci	-3037
▁taan	-3038
▁ce	-3039
▁rung	-3040
▁peras	-3041
▁rakir	-3042
▁amil	-3043
▁Infor	-3044
▁berku	-3045
▁pakai	-3046
▁angin	-3047
▁ontra	-3048
▁panas	-3049
▁ajah	-3050
▁ander	-3051
▁nahan	-3052
▁terke	-3053
▁qu	-3054
▁ngkar	-3055
▁esu	-3056
▁rum	-3057
▁esin	-3058
▁iang	-3059
▁ft	-3060
▁minis	-3061
▁temen	-3062
▁iwan	-3063
▁umur	-3064
ne	-3065
▁erm	-3066
▁otel	-3067
▁berpo	-3068
▁eal	-3069
▁sti	-3070
▁eleb	-3071
▁yono	-3072
▁iga	-3073
▁uluh	-3074
▁x	-3075
▁Ari	-3076
▁rit	-3077
▁rom	-3078
▁andi	-3079
▁sum	-3080
▁sepak	-3081
▁rkir	-3082
▁ei	-3083
▁ajuk	-3084
▁pesi	-3085
▁For	-3086
▁ome	-3087
▁taf	-3088
▁akai	-3089
▁ayar	-3090
▁Penge	-3091
▁logis	-3092
▁Raf	-3093
▁otif	-3094
▁hat	-3095
▁ice	-3096
▁nis	-3097
▁mc	-3098
▁eli	-3099
▁kal	-3100
▁mbuh	-3101
▁asuki	-3102
▁Was	-3103
▁ked	-3104
▁krea	-3105
▁alnya	-3106
▁baca	-3107
▁mengh	-3108
▁rm	-3109
▁ingk	-3110
▁SIS	-3111
▁ped	-3112
▁Angk	-3113
▁Kal	-3114
▁ele	-3115
▁gan	-3116
▁rto	-3117
▁ursi	-3118
▁dr	-3119
▁iq	-3120
▁onto	-3121
▁real	-3122
▁lun	-3123
▁uas	-3124
▁arma	-3125
▁Andr	-3126
▁umsi	-3127
▁eto	-3128
▁kin	-3129
▁nsum	-3130
▁Penye	-3131
▁igran	-3132
▁saran	-3133
▁ail	-3134
▁log	-3135
▁mus	-3136
▁kbar	-3137
▁!	-3138
▁nten	-3139
▁pilka	-3140
▁sud	-3141
▁ndari	-3142
▁wi	-3143
▁ick	-3144
▁alap	-3145
▁arjo	-3146
▁inkan	-3147
▁eja	-3148
▁bint	-3149
▁torat	-3150
EO	-3151
▁menda	-3152
▁andal	-3153
▁ink	-3154
▁vel	-3155
▁akal	-3156
▁mprov	-3157
▁dul	-3158
▁eri	-3159
▁Shin	-3160
▁itri	-3161
▁Sus	-3162
▁ergi	-3163
▁renta	-3164
▁ire	-3165
▁hend	-3166
▁maja	-3167
▁zb	-3168
▁Set	-3169
▁juk	-3170
▁Muda	-3171
▁tuduh	-3172
▁Fer	-3173
▁mbar	-3174
▁ntan	-3175
▁ier	-3176
▁ike	-3177
▁ogo	-3178
▁by	-3179
▁Tol	-3180
▁Sura	-3181
▁ayi	-3182
▁gur	-3183
▁ood	-3184
▁lon	-3185
▁tre	-3186
▁unga	-3187
▁So	-3188
▁cu	-3189
▁cek	-3190
▁lti	-3191
▁robo	-3192
▁ewi	-3193
▁njau	-3194
▁utan	-3195
▁negak	-3196
▁PA	-3197
▁bung	-3198
▁uw	-3199
▁yawan	-3200
▁You	-3201
▁eku	-3202
▁emua	-3203
▁gang	-3204
▁kul	-3205
▁AT	-3206
▁ruda	-3207
▁yah	-3208
▁gizi	-3209
▁ahnya	-3210
▁inggi	-3211
▁TV	-3212
▁ura	-3213
▁epat	-3214
▁osko	-3215
▁pp	-3216
▁pid	-3217
▁anja	-3218
▁rahk	-3219
▁03	-3220
▁aks	-3221
▁Harr	-3222
▁ltim	-3223
▁mpa	-3224
▁brak	-3225
▁lola	-3226
▁mengo	-3227
▁angk	-3228
▁semi	-3229
▁urna	-3230
▁egala	-3231
▁KOTA	-3232
▁reko	-3233
▁uruh	-3234
▁LP	-3235
▁lad	-3236
▁rko	-3237
▁yat	-3238
▁yani	-3239
▁ell	-3240
▁ies	-3241
▁egang	-3242
▁DI	-3243
▁kes	-3244
▁enny	-3245
▁akas	-3246
▁ndri	-3247
▁Tap	-3248
▁edit	-3249
▁ntak	-3250
▁rupa	-3251
▁menca	-3252
▁meran	-3253
▁relaw	-3254
▁PU	-3255
▁ska	-3256
▁gub	-3257
▁lly	-3258
▁SP	-3259
▁atra	-3260
▁dih	-3261
▁ect	-3262
▁berj	-3263
▁ilit	-3264
▁teng	-3265
▁ental	-3266
▁nsums	-3267
▁Mem	-3268
▁ersis	-3269
▁zah	-3270
▁ulau	-3271
▁inaan	-3272
▁nap	-3273
▁iak	-3274
▁Sena	-3275
▁ance	-3276
▁laim	-3277
▁ndai	-3278
▁Kri	-3279
▁anan	-3280
▁siun	-3281
▁erisi	-3282
▁2,	-3283
▁tom	-3284
▁sla	-3285
▁atik	-3286
▁juru	-3287
▁raja	-3288
▁gikan	-3289
▁Ist	-3290
▁ary	-3291
▁uma	-3292
▁tanda	-3293
▁akr	-3294
▁lai	-3295
▁rne	-3296
▁Kamp	-3297
▁prin	-3298
▁sidi	-3299
▁awa	-3300
▁uhu	-3301
▁tin	-3302
▁Kec	-3303
▁gra	-3304
▁mor	-3305
▁kasi	-3306
▁alahk	-3307
▁efi	-3308
▁mosi	-3309
▁rama	-3310
▁onald	-3311
▁sim	-3312
▁kepem	-3313
▁AKP	-3314
▁ear	-3315
▁mbo	-3316
▁lasi	-3317
▁05	-3318
▁aran	-3319
▁hami	-3320
▁hkan	-3321
▁beras	-3322
▁rekam	-3323
▁semen	-3324
▁eber	-3325
▁ndik	-3326
▁dinas	-3327
▁iawan	-3328
▁lf	-3329
▁enak	-3330
▁obil	-3331
▁jau	-3332
▁berw	-3333
▁rusan	-3334
▁aus	-3335
▁gar	-3336
▁one	-3337
▁emah	-3338
▁untut	-3339
▁aset	-3340
▁ipta	-3341
▁tara	-3342
▁ach	-3343
▁apas	-3344
▁itus	-3345
KA	-3346
▁jati	-3347
▁Ge	-3348
▁Idu	-3349
▁Hend	-3350
▁aria	-3351
▁long	-3352
▁ive	-3353
▁nov	-3354
▁oli	-3355
▁tong	-3356
▁bunuh	-3357
▁aca	-3358
▁Pers	-3359
▁fo	-3360
▁nuk	-3361
▁ampu	-3362
▁samb	-3363
▁ujuk	-3364
▁nga	-3365
▁run	-3366
▁the	-3367
▁Kh	-3368
▁lm	-3369
▁asta	-3370
▁arian	-3371
▁06	-3372
▁eksi	-3373
▁itra	-3374
▁sual	-3375
▁Persi	-3376
▁ich	-3377
▁IP	-3378
▁RU	-3379
▁uti	-3380
▁adir	-3381
▁stor	-3382
▁ct	-3383
▁age	-3384
▁ori	-3385
▁kor	-3386
▁kus	-3387
▁rig	-3388
▁SK	-3389
▁dro	-3390
▁aian	-3391
▁land	-3392
▁kalan	-3393
▁leks	-3394
▁ujan	-3395
▁gant	-3396
▁dura	-3397
▁spir	-3398
▁hib	-3399
▁iper	-3400
▁kok	-3401
▁ler	-3402
▁mun	-3403
▁ania	-3404
▁apan	-3405
▁emak	-3406
▁okok	-3407
▁rist	-3408
▁unjuk	-3409
▁muan	-3410
▁hab	-3411
▁ish	-3412
▁ius	-3413
▁lt	-3414
▁Pang	-3415
▁aruh	-3416
▁imin	-3417
▁jian	-3418
▁layan	-3419
▁iau	-3420
▁fer	-3421
▁tel	-3422
▁utin	-3423
▁jer	-3424
▁akim	-3425
▁iset	-3426
▁has	-3427
▁RB	-3428
▁enal	-3429
▁naman	-3430
▁ibad	-3431
▁fisik	-3432
▁60	-3433
▁alin	-3434
▁iput	-3435
▁tuan	-3436
▁ayaan	-3437
▁ID	-3438
▁pon	-3439
▁imat	-3440
▁resi	-3441
▁ulan	-3442
▁perte	-3443
▁rkoba	-3444
MB	-3445
▁Her	-3446
▁Menj	-3447
▁rnia	-3448
▁lukan	-3449
▁mula	-3450
▁uksi	-3451
▁edu	-3452
▁merek	-3453
▁tol	-3454
▁alis	-3455
▁diam	-3456
▁nan	-3457
▁tch	-3458
▁kara	-3459
▁sent	-3460
▁eten	-3461
HK	-3462
▁CEO	-3463
▁Chi	-3464
▁ure	-3465
▁abah	-3466
▁rlin	-3467
▁line	-3468
▁oal	-3469
▁bing	-3470
▁hadi	-3471
▁BK	-3472
▁uka	-3473
▁bong	-3474
▁Du	-3475
▁Mad	-3476
▁dal	-3477
▁use	-3478
▁amen	-3479
▁uni	-3480
▁asil	-3481
▁pengg	-3482
▁rea	-3483
▁jing	-3484
▁kete	-3485
▁lla	-3486
▁teo	-3487
▁tun	-3488
▁gad	-3489
▁bere	-3490
▁itut	-3491
▁onser	-3492
▁04	-3493
▁07	-3494
▁MPR	-3495
▁SEMA	-3496
▁seng	-3497
yu	-3498
▁NTB	-3499
AS	-3500
▁jaga	-3501
▁perse	-3502
ese	-3503
▁Mo	-3504
▁rip	-3505
▁08	-3506
▁ark	-3507
▁enya	-3508
▁jasa	-3509
▁pora	-3510
PO	-3511
▁KU	-3512
▁my	-3513
▁awi	-3514
▁kim	-3515
▁Sc	-3516
▁berju	-3517
▁Joe	-3518
▁cur	-3519
▁hana	-3520
▁ue	-3521
▁del	-3522
▁mbe	-3523
IP	-3524
▁IC	-3525
▁IT	-3526
▁bai	-3527
▁eru	-3528
▁tadi	-3529
▁tata	-3530
▁tifik	-3531
▁HU	-3532
▁rki	-3533
▁ntro	-3534
▁ndung	-3535
▁Bad	-3536
▁Siap	-3537
▁ekno	-3538
▁mog	-3539
▁uhi	-3540
▁emisi	-3541
IN	-3542
▁adap	-3543
▁kapan	-3544
▁bid	-3545
▁berk	-3546
▁ndata	-3547
▁Mul	-3548
▁ital	-3549
▁sela	-3550
▁rdi	-3551
▁IN	-3552
▁Wid	-3553
▁nyi	-3554
▁rasi	-3555
▁arung	-3556
▁Ser	-3557
▁info	-3558
▁rawan	-3559
▁09	-3560
▁kop	-3561
▁opi	-3562
▁rac	-3563
▁emar	-3564
▁embat	-3565
▁elar	-3566
▁sca	-3567
▁anal	-3568
▁KT	-3569
▁DIY	-3570
▁Kl	-3571
▁akat	-3572
▁lung	-3573
▁ulia	-3574
▁Cha	-3575
▁ack	-3576
▁bert	-3577
▁sien	-3578
▁umat	-3579
▁een	-3580
▁nggi	-3581
▁seni	-3582
▁SU	-3583
▁ikin	-3584
▁umpul	-3585
▁ruh	-3586
▁sad	-3587
▁sma	-3588
▁dire	-3589
▁ee	-3590
▁waw	-3591
▁ifik	-3592
▁esain	-3593
▁pal	-3594
▁elit	-3595
▁Dit	-3596
▁cap	-3597
▁doa	-3598
▁Kete	-3599
▁iaran	-3600
ind	-3601
▁AH	-3602
▁keu	-3603
▁beru	-3604
▁Je	-3605
▁raj	-3606
▁pany	-3607
UD	-3608
▁SMK	-3609
▁sna	-3610
▁sasi	-3611
▁cc	-3612
▁iany	-3613
▁dig	-3614
▁ean	-3615
▁ven	-3616
▁adai	-3617
▁andan	-3618
▁impan	-3619
▁ongan	-3620
▁PPP	-3621
▁dir	-3622
▁asia	-3623
▁apura	-3624
▁Pos	-3625
▁jad	-3626
▁Tang	-3627
▁eksp	-3628
▁seti	-3629
apa	-3630
▁pah	-3631
▁onis	-3632
▁rtai	-3633
▁tinya	-3634
▁imi	-3635
▁ros	-3636
▁sub	-3637
▁arno	-3638
▁gama	-3639
▁lora	-3640
▁nfir	-3641
▁oh	-3642
▁rie	-3643
▁uah	-3644
▁rukan	-3645
ON	-3646
▁Wah	-3647
▁ait	-3648
▁ane	-3649
▁erc	-3650
▁ida	-3651
▁terta	-3652
▁Str	-3653
HP	-3654
▁puas	-3655
▁spada	-3656
▁rol	-3657
▁El	-3658
▁iko	-3659
▁egas	-3660
▁artin	-3661
▁sok	-3662
▁ahar	-3663
▁rain	-3664
▁forma	-3665
eku	-3666
▁MD	-3667
▁ly	-3668
▁sir	-3669
▁ewa	-3670
▁ond	-3671
▁istik	-3672
▁kseku	-3673
▁pis	-3674
▁tut	-3675
▁pung	-3676
▁uto	-3677
▁meme	-3678
▁Ris	-3679
▁erb	-3680
▁Maka	-3681
▁iam	-3682
▁ide	-3683
▁inda	-3684
▁mbela	-3685
▁epi	-3686
▁Mena	-3687
▁dima	-3688
EN	-3689
▁arya	-3690
▁gres	-3691
▁mpah	-3692
▁rgan	-3693
▁antik	-3694
▁sil	-3695
▁dira	-3696
▁nstr	-3697
▁Gen	-3698
▁gri	-3699
▁pit	-3700
▁tain	-3701
▁erkat	-3702
▁itung	-3703
▁UN	-3704
▁ite	-3705
▁lik	-3706
▁Andi	-3707
▁Unit	-3708
▁iber	-3709
▁ihat	-3710
▁iran	-3711
▁tama	-3712
▁aan	-3713
▁kew	-3714
▁kro	-3715
▁ndy	-3716
▁rul	-3717
▁alas	-3718
▁awah	-3719
▁rsit	-3720
▁mam	-3721
▁yam	-3722
▁Hadi	-3723
▁ambu	-3724
▁pemu	-3725
▁star	-3726
▁rge	-3727
▁sut	-3728
▁Pl	-3729
▁Hid	-3730
▁red	-3731
▁gula	-3732
▁Penc	-3733
▁ndas	-3734
▁ngkas	-3735
▁Za	-3736
▁anas	-3737
▁enko	-3738
▁ging	-3739
▁sc	-3740
▁Pan	-3741
▁ayan	-3742
▁ntri	-3743
▁RUU	-3744
▁luh	-3745
▁mele	-3746
▁tral	-3747
▁ndera	-3748
RT	-3749
▁aro	-3750
▁suk	-3751
▁Hu	-3752
▁Unive	-3753
▁It	-3754
▁NU	-3755
▁ast	-3756
▁gal	-3757
▁hir	-3758
▁agia	-3759
▁amah	-3760
▁erdas	-3761
▁ika	-3762
▁uan	-3763
▁ewas	-3764
▁ideo	-3765
▁asu	-3766
▁kta	-3767
▁jung	-3768
▁He	-3769
▁ug	-3770
▁EAN	-3771
▁SMA	-3772
▁tta	-3773
▁inal	-3774
▁ater	-3775
▁lakuk	-3776
▁Gu	-3777
▁pot	-3778
▁arik	-3779
▁diko	-3780
▁onda	-3781
▁teru	-3782
BS	-3783
DO	-3784
▁onf	-3785
▁rep	-3786
▁riy	-3787
▁kira	-3788
▁ence	-3789
▁rema	-3790
▁teks	-3791
▁teror	-3792
▁WNA	-3793
▁ding	-3794
▁enar	-3795
▁ea	-3796
▁kru	-3797
▁urn	-3798
▁atis	-3799
▁mpun	-3800
▁ntas	-3801
▁eam	-3802
▁lut	-3803
▁alan	-3804
▁egal	-3805
▁bek	-3806
▁isis	-3807
▁lest	-3808
▁esuai	-3809
▁AM	-3810
▁gelo	-3811
▁sias	-3812
▁ikat	-3813
▁saha	-3814
▁IS	-3815
▁HUT	-3816
▁tya	-3817
▁satu	-3818
▁susu	-3819
▁ibuan	-3820
aru	-3821
▁bersa	-3822
▁KM	-3823
▁dj	-3824
▁Mau	-3825
▁Min	-3826
▁rad	-3827
▁ikir	-3828
▁ulai	-3829
▁angku	-3830
▁oma	-3831
▁dara	-3832
▁dium	-3833
▁erapa	-3834
▁ST	-3835
▁ilo	-3836
▁eter	-3837
▁CS	-3838
▁Fak	-3839
▁dok	-3840
▁pet	-3841
▁arto	-3842
▁eras	-3843
▁turn	-3844
▁indak	-3845
▁lekt	-3846
▁Dj	-3847
▁rya	-3848
▁sli	-3849
▁sesi	-3850
▁edera	-3851
▁ede	-3852
▁asin	-3853
▁king	-3854
▁eland	-3855
▁Kese	-3856
▁hmad	-3857
▁umah	-3858
▁cet	-3859
▁med	-3860
▁nada	-3861
▁AC	-3862
▁iun	-3863
▁nggel	-3864
▁pus	-3865
▁elum	-3866
▁manya	-3867
▁RT	-3868
▁dup	-3869
▁liter	-3870
JS	-3871
▁PSS	-3872
▁rkan	-3873
▁cok	-3874
▁gul	-3875
▁rman	-3876
▁ndeng	-3877
▁produ	-3878
▁eret	-3879
▁erma	-3880
▁KAI	-3881
▁35	-3882
▁oho	-3883
▁PSSI	-3884
▁lumn	-3885
▁mbat	-3886
UP	-3887
▁acu	-3888
▁Bany	-3889
▁anis	-3890
▁ukan	-3891
▁ost	-3892
▁lari	-3893
▁raksi	-3894
▁@	-3895
▁iru	-3896
▁led	-3897
▁meno	-3898
▁paya	-3899
▁Man	-3900
▁Tae	-3901
▁ret	-3902
▁yur	-3903
▁arana	-3904
▁polit	-3905
▁OR	-3906
▁Tel	-3907
▁lom	-3908
▁band	-3909
OA	-3910
▁ambat	-3911
▁engge	-3912
▁itusi	-3913
▁hap	-3914
▁sua	-3915
▁kter	-3916
▁pons	-3917
▁rate	-3918
▁rtis	-3919
▁Tok	-3920
▁andu	-3921
▁itia	-3922
▁jari	-3923
▁enggu	-3924
▁ams	-3925
▁ead	-3926
▁roli	-3927
▁distr	-3928
▁80	-3929
▁HO	-3930
▁timal	-3931
▁Dewa	-3932
▁puan	-3933
▁tris	-3934
▁rlind	-3935
▁DE	-3936
▁rgo	-3937
▁val	-3938
▁nduk	-3939
▁za	-3940
▁aim	-3941
▁bil	-3942
▁lob	-3943
▁liar	-3944
▁reka	-3945
▁ulus	-3946
▁ndika	-3947
▁yangk	-3948
▁ota	-3949
▁oyo	-3950
▁alau	-3951
▁iana	-3952
▁menik	-3953
▁oda	-3954
▁mewa	-3955
▁ahu	-3956
▁ibi	-3957
▁lem	-3958
▁mad	-3959
▁ebak	-3960
▁elun	-3961
▁gaya	-3962
▁pura	-3963
▁PNS	-3964
▁Bl	-3965
▁TKP	-3966
▁orp	-3967
▁alal	-3968
▁YOG	-3969
▁idu	-3970
▁omm	-3971
▁jm	-3972
▁ute	-3973
▁khir	-3974
▁YOGYA	-3975
▁ateri	-3976
▁arg	-3977
▁imo	-3978
▁thi	-3979
▁Mend	-3980
▁alim	-3981
▁nald	-3982
▁uro	-3983
▁asan	-3984
▁entu	-3985
▁70	-3986
▁Fi	-3987
▁SO	-3988
▁odo	-3989
▁van	-3990
▁Dn	-3991
▁ij	-3992
▁top	-3993
▁ktor	-3994
▁mda	-3995
▁agen	-3996
▁njam	-3997
▁ermin	-3998
mba	-3999
▁rv	-4000
▁nut	-4001
▁oll	-4002
▁deral	-4003
▁AN	-4004
▁Bi	-4005
▁sm	-4006
▁va	-4007
▁Ayu	-4008
▁Mis	-4009
▁enu	-4010
▁curi	-4011
▁embu	-4012
▁din	-4013
▁arap	-4014
▁imis	-4015
▁emudi	-4016
▁BT	-4017
▁Mus	-4018
▁eco	-4019
▁epo	-4020
▁ugi	-4021
▁rakt	-4022
▁spor	-4023
▁paran	-4024
▁IM	-4025
▁uli	-4026
▁inar	-4027
▁ukul	-4028
▁urit	-4029
LO	-4030
▁WITA	-4031
▁onor	-4032
▁uel	-4033
▁itar	-4034
▁oran	-4035
▁ae	-4036
▁fl	-4037
▁kab	-4038
▁amal	-4039
▁lini	-4040
▁AD	-4041
▁dipa	-4042
▁sine	-4043
▁jamin	-4044
▁kinan	-4045
▁anju	-4046
▁ians	-4047
▁adik	-4048
▁CC	-4049
▁KI	-4050
▁uju	-4051
▁vasi	-4052
▁CO	-4053
▁ll	-4054
▁asila	-4055
▁eban	-4056
▁BI	-4057
▁enj	-4058
▁stri	-4059
▁dah	-4060
▁inis	-4061
▁eda	-4062
▁oor	-4063
▁tro	-4064
▁ekas	-4065
▁fung	-4066
▁tari	-4067
▁ngaja	-4068
▁Sy	-4069
▁nes	-4070
▁dera	-4071
▁via	-4072
▁yap	-4073
▁iasa	-4074
▁ujuan	-4075
AP	-4076
▁rest	-4077
▁nggak	-4078
▁ash	-4079
▁sto	-4080
▁seri	-4081
▁hn	-4082
▁nve	-4083
▁ule	-4084
▁etah	-4085
▁kond	-4086
▁ombo	-4087
▁fungs	-4088
▁tt	-4089
▁BKN	-4090
▁rpo	-4091
▁alik	-4092
▁ambah	-4093
▁dud	-4094
▁nag	-4095
▁unt	-4096
▁Perd	-4097
RO	-4098
▁iy	-4099
▁erke	-4100
▁ndam	-4101
▁skus	-4102
▁200	-4103
▁AFF	-4104
▁idup	-4105
▁ming	-4106
▁KS	-4107
▁PE	-4108
▁gn	-4109
▁rai	-4110
▁oris	-4111
▁PLN	-4112
▁KH	-4113
▁BOG	-4114
▁Dwi	-4115
▁ndo	-4116
▁dali	-4117
▁ekal	-4118
▁erto	-4119
ena	-4120
▁oy	-4121
▁gam	-4122
▁nekan	-4123
▁penda	-4124
▁AFP	-4125
▁rab	-4126
▁rahan	-4127
▁Dh	-4128
▁VOA	-4129
▁asp	-4130
▁leh	-4131
▁integ	-4132
▁fa	-4133
▁BBM	-4134
▁Far	-4135
▁Han	-4136
▁aih	-4137
▁elen	-4138
▁pera	-4139
▁ago	-4140
▁fan	-4141
▁mbina	-4142
▁rtasi	-4143
▁NI	-4144
▁odus	-4145
▁etahu	-4146
▁Ek	-4147
▁Sim	-4148
▁duduk	-4149
▁caya	-4150
▁aid	-4151
▁babk	-4152
▁ewan	-4153
▁uali	-4154
▁get	-4155
▁lig	-4156
▁ted	-4157
▁risti	-4158
▁sosia	-4159
▁ado	-4160
▁aut	-4161
▁pl	-4162
▁orm	-4163
▁sho	-4164
▁ssa	-4165
▁enti	-4166
▁ntai	-4167
▁3,	-4168
▁NAT	-4169
▁ass	-4170
▁diku	-4171
▁hani	-4172
▁jadik	-4173
▁500	-4174
▁PSM	-4175
▁wah	-4176
▁terti	-4177
▁BS	-4178
▁hr	-4179
▁nder	-4180
▁etika	-4181
▁ngkal	-4182
▁fak	-4183
▁BM	-4184
▁Kha	-4185
▁aul	-4186
▁RSUD	-4187
▁IV	-4188
▁Tb	-4189
▁Did	-4190
▁dem	-4191
▁oso	-4192
▁berma	-4193
▁prose	-4194
▁hm	-4195
▁lv	-4196
▁ahat	-4197
▁dina	-4198
▁ahana	-4199
▁ision	-4200
▁nai	-4201
▁Cu	-4202
▁Dem	-4203
▁dus	-4204
▁rma	-4205
NU	-4206
▁DW	-4207
▁ES	-4208
▁uha	-4209
▁Fo	-4210
▁MU	-4211
▁Ph	-4212
▁rta	-4213
▁ghan	-4214
▁sebab	-4215
▁Kim	-4216
▁out	-4217
▁uki	-4218
▁kanto	-4219
▁32	-4220
▁mani	-4221
▁pele	-4222
▁pertu	-4223
▁ph	-4224
▁Com	-4225
▁DPC	-4226
▁raf	-4227
▁sung	-4228
▁ndala	-4229
▁Up	-4230
▁Tbk	-4231
▁erp	-4232
▁kian	-4233
▁ngar	-4234
▁over	-4235
▁lobal	-4236
▁putra	-4237
▁Kab	-4238
▁mul	-4239
▁ranc	-4240
▁ting	-4241
▁San	-4242
▁Sha	-4243
▁igi	-4244
su	-4245
▁kp	-4246
▁lot	-4247
▁egar	-4248
▁rsatu	-4249
wo	-4250
▁ffi	-4251
▁igit	-4252
▁apor	-4253
▁rial	-4254
▁Ade	-4255
▁PPN	-4256
▁aktu	-4257
▁arna	-4258
▁etiap	-4259
▁oco	-4260
▁ree	-4261
▁keke	-4262
▁mara	-4263
▁rkas	-4264
▁NATO	-4265
▁siko	-4266
▁tangg	-4267
PP	-4268
▁Bar	-4269
▁ansa	-4270
▁erpo	-4271
▁+	-4272
▁hol	-4273
BN	-4274
▁FI	-4275
▁nh	-4276
▁nz	-4277
▁den	-4278
▁nny	-4279
▁akin	-4280
▁unik	-4281
▁how	-4282
▁spek	-4283
▁syah	-4284
▁BPK	-4285
▁gia	-4286
▁mate	-4287
▁ncurk	-4288
▁AMI	-4289
▁fes	-4290
▁adj	-4291
▁ami	-4292
▁adin	-4293
▁mari	-4294
▁ale	-4295
▁ukkan	-4296
▁bad	-4297
▁dau	-4298
▁hin	-4299
▁iji	-4300
▁kuk	-4301
▁mur	-4302
▁adis	-4303
▁niat	-4304
▁NTT	-4305
▁rr	-4306
▁tunt	-4307
▁ambi	-4308
▁duan	-4309
▁Seti	-4310
▁moti	-4311
▁Gol	-4312
▁nol	-4313
▁imak	-4314
▁ening	-4315
▁ilaku	-4316
PS	-4317
▁ceh	-4318
▁duka	-4319
▁ps	-4320
▁tip	-4321
▁dasi	-4322
▁isan	-4323
▁legal	-4324
▁nakan	-4325
▁teria	-4326
▁terse	-4327
▁Eks	-4328
▁fic	-4329
▁rno	-4330
▁sam	-4331
▁evel	-4332
▁wasa	-4333
PU	-4334
lat	-4335
▁cor	-4336
▁Sant	-4337
▁pira	-4338
▁kuran	-4339
▁hy	-4340
▁rel	-4341
▁stin	-4342
▁luncu	-4343
WA	-4344
▁Im	-4345
▁km	-4346
▁ui	-4347
▁usti	-4348
▁mon	-4349
▁PSBS	-4350
▁kis	-4351
▁Info	-4352
▁elem	-4353
▁nand	-4354
▁nasi	-4355
▁erima	-4356
▁Garu	-4357
▁mala	-4358
▁risi	-4359
▁terna	-4360
▁erti	-4361
▁lapa	-4362
▁nia	-4363
▁rim	-4364
▁usif	-4365
▁Sp	-4366
▁iman	-4367
▁uhnya	-4368
▁36	-4369
▁ejar	-4370
▁ukar	-4371
▁matik	-4372
▁mbung	-4373
▁Ida	-4374
▁nus	-4375
▁rwa	-4376
▁yar	-4377
▁erse	-4378
KPP	-4379
gaw	-4380
▁90	-4381
▁Ky	-4382
▁Bas	-4383
▁gir	-4384
▁ereb	-4385
▁nangk	-4386
▁Mel	-4387
▁edik	-4388
ty	-4389
▁TH	-4390
▁ein	-4391
▁mpe	-4392
▁nce	-4393
▁vok	-4394
▁ngis	-4395
▁seli	-4396
▁vita	-4397
▁45	-4398
▁Kej	-4399
▁rdo	-4400
▁ric	-4401
▁Inte	-4402
▁ikap	-4403
▁1.	-4404
▁PR	-4405
▁XX	-4406
▁ci	-4407
▁aun	-4408
▁gemb	-4409
FA	-4410
▁PNM	-4411
▁Sah	-4412
▁fit	-4413
▁GB	-4414
▁OP	-4415
▁UI	-4416
▁UK	-4417
▁cip	-4418
▁fri	-4419
▁AMIN	-4420
▁isar	-4421
▁ompo	-4422
▁putri	-4423
▁Pus	-4424
▁adak	-4425
▁situ	-4426
▁indu	-4427
▁ncob	-4428
▁UP	-4429
▁Dip	-4430
▁Jak	-4431
▁ann	-4432
▁enge	-4433
▁diber	-4434
▁ael	-4435
▁kang	-4436
▁Angka	-4437
▁abung	-4438
▁PMI	-4439
▁PPD	-4440
▁ess	-4441
▁oka	-4442
▁enta	-4443
▁enand	-4444
▁okal	-4445
▁umpa	-4446
▁elaka	-4447
▁abo	-4448
▁hel	-4449
▁hop	-4450
▁Mari	-4451
▁asok	-4452
▁ement	-4453
ie	-4454
▁edis	-4455
▁nega	-4456
▁yadi	-4457
▁ampir	-4458
▁oin	-4459
▁esti	-4460
▁Hak	-4461
▁can	-4462
▁say	-4463
▁ader	-4464
▁ales	-4465
▁lili	-4466
▁mes	-4467
▁engka	-4468
▁arl	-4469
▁ngi	-4470
▁otal	-4471
▁GP	-4472
▁IB	-4473
▁MI	-4474
▁dri	-4475
▁udy	-4476
▁ramp	-4477
▁masan	-4478
▁PM	-4479
▁Jam	-4480
▁ebo	-4481
▁aker	-4482
▁elat	-4483
▁tria	-4484
▁valu	-4485
▁ahter	-4486
▁berpe	-4487
▁lomba	-4488
▁ekam	-4489
▁haya	-4490
OR	-4491
▁Bul	-4492
▁ath	-4493
▁omen	-4494
▁TK	-4495
▁USD	-4496
▁aba	-4497
▁gat	-4498
▁lab	-4499
▁ando	-4500
▁ewat	-4501
▁enaga	-4502
▁34	-4503
▁AZ	-4504
▁sr	-4505
▁atah	-4506
▁ruan	-4507
▁sion	-4508
▁inv	-4509
▁ubu	-4510
▁respo	-4511
▁ms	-4512
▁SMP	-4513
▁elu	-4514
▁gak	-4515
▁obo	-4516
▁oman	-4517
▁alkan	-4518
▁Tra	-4519
▁gis	-4520
▁let	-4521
▁anga	-4522
▁nsyah	-4523
▁CSR	-4524
▁abe	-4525
▁him	-4526
▁inya	-4527
▁puti	-4528
▁trik	-4529
▁anggi	-4530
▁det	-4531
▁ple	-4532
▁lias	-4533
▁edang	-4534
▁motor	-4535
EMB	-4536
▁ias	-4537
▁kak	-4538
▁sin	-4539
▁ust	-4540
▁ante	-4541
▁keti	-4542
▁lamb	-4543
▁sita	-4544
est	-4545
▁agam	-4546
▁raha	-4547
▁ode	-4548
▁pere	-4549
▁ty	-4550
▁cak	-4551
▁che	-4552
▁nim	-4553
▁ipil	-4554
▁iras	-4555
▁mika	-4556
▁eus	-4557
▁tal	-4558
▁sida	-4559
▁May	-4560
▁tok	-4561
▁Beri	-4562
▁ksik	-4563
▁4,	-4564
▁koh	-4565
▁til	-4566
▁ecam	-4567
▁osok	-4568
POK	-4569
▁KL	-4570
▁Api	-4571
▁kna	-4572
▁nja	-4573
▁rmo	-4574
▁ugas	-4575
▁DEPOK	-4576
▁lihan	-4577
th	-4578
▁bd	-4579
▁vi	-4580
▁ony	-4581
▁seg	-4582
▁nggo	-4583
▁ora	-4584
▁prov	-4585
▁Semen	-4586
▁arkan	-4587
▁pegaw	-4588
AI	-4589
▁ose	-4590
▁rni	-4591
▁tic	-4592
▁ikel	-4593
▁isip	-4594
▁manu	-4595
▁onstr	-4596
BP	-4597
MS	-4598
▁Au	-4599
▁bra	-4600
▁buk	-4601
▁dat	-4602
▁shi	-4603
▁perc	-4604
▁eleng	-4605
▁nek	-4606
▁rev	-4607
▁mran	-4608
▁presi	-4609
▁yal	-4610
▁etap	-4611
▁ipe	-4612
▁ansy	-4613
▁keha	-4614
▁ngko	-4615
▁rint	-4616
▁EV	-4617
▁erna	-4618
▁irin	-4619
▁ampil	-4620
▁bersi	-4621
▁endah	-4622
▁setia	-4623
▁uruan	-4624
▁75	-4625
▁uy	-4626
▁dor	-4627
▁ungk	-4628
DA	-4629
▁Ip	-4630
▁300	-4631
▁cal	-4632
▁ahal	-4633
▁nemp	-4634
▁rana	-4635
▁rsel	-4636
▁Cak	-4637
▁etn	-4638
▁mpu	-4639
▁KUHP	-4640
▁tikan	-4641
co	-4642
▁sia	-4643
▁pemba	-4644
▁piras	-4645
IS	-4646
▁RW	-4647
▁oi	-4648
▁Top	-4649
▁kot	-4650
▁sha	-4651
▁utar	-4652
▁nif	-4653
▁Sil	-4654
▁ebu	-4655
▁tertu	-4656
▁ipi	-4657
▁lmu	-4658
▁amer	-4659
▁bara	-4660
▁emat	-4661
▁isal	-4662
▁ngun	-4663
▁maham	-4664
▁ake	-4665
▁gim	-4666
▁rop	-4667
▁ngel	-4668
▁mengi	-4669
GM	-4670
▁araw	-4671
▁iapa	-4672
▁33	-4673
▁Vs	-4674
▁Nov	-4675
▁asc	-4676
▁mpo	-4677
▁odi	-4678
▁osa	-4679
▁rsa	-4680
▁uba	-4681
▁yaa	-4682
▁BPJS	-4683
▁arda	-4684
▁arte	-4685
▁ulik	-4686
▁uman	-4687
▁1-	-4688
▁jun	-4689
▁nad	-4690
▁neka	-4691
OM	-4692
▁38	-4693
▁cha	-4694
▁obj	-4695
▁spa	-4696
▁istr	-4697
▁nel	-4698
▁saw	-4699
▁adah	-4700
▁Ric	-4701
▁hon	-4702
▁kek	-4703
▁cana	-4704
▁WNI	-4705
▁epan	-4706
▁mark	-4707
▁suki	-4708
▁arget	-4709
▁BC	-4710
▁MS	-4711
▁Bak	-4712
▁kti	-4713
▁2.	-4714
▁AHY	-4715
▁SOLO	-4716
▁mnas	-4717
▁anaan	-4718
▁arasi	-4719
▁emang	-4720
AL	-4721
ere	-4722
omo	-4723
▁sA	-4724
▁gon	-4725
▁lev	-4726
▁mew	-4727
▁DKPP	-4728
▁fesi	-4729
▁jutk	-4730
▁stem	-4731
RWA	-4732
▁bet	-4733
▁div	-4734
▁moto	-4735
▁Va	-4736
▁aum	-4737
▁mada	-4738
▁nget	-4739
▁uruk	-4740
▁utip	-4741
BU	-4742
▁ER	-4743
▁Xi	-4744
▁ye	-4745
▁onv	-4746
▁agus	-4747
▁nant	-4748
▁rl	-4749
▁Ked	-4750
▁abi	-4751
▁lia	-4752
▁ilan	-4753
▁itan	-4754
▁ndek	-4755
▁ngku	-4756
▁nter	-4757
▁berge	-4758
▁PPK	-4759
▁pte	-4760
▁ATEN	-4761
▁Cent	-4762
▁apur	-4763
▁erdi	-4764
▁ilik	-4765
▁otak	-4766
▁aspad	-4767
▁katan	-4768
▁onfir	-4769
▁anpa	-4770
▁eder	-4771
▁ntal	-4772
▁peru	-4773
▁radi	-4774
▁rong	-4775
▁umbu	-4776
Di	-4777
WF	-4778
▁EU	-4779
▁ulk	-4780
▁ABUP	-4781
▁rent	-4782
▁ubar	-4783
▁ataan	-4784
▁endam	-4785
▁erluk	-4786
▁omo	-4787
▁PBNU	-4788
▁bowo	-4789
▁nata	-4790
▁engga	-4791
EC	-4792
▁(1	-4793
▁Rai	-4794
▁aia	-4795
▁chi	-4796
▁hli	-4797
▁vent	-4798
▁erasa	-4799
ED	-4800
▁OA	-4801
▁KTT	-4802
▁mos	-4803
▁nyar	-4804
▁uler	-4805
▁langk	-4806
▁njang	-4807
▁rangk	-4808
▁Bri	-4809
▁Net	-4810
▁dom	-4811
▁Jemb	-4812
▁olab	-4813
▁arena	-4814
▁cipta	-4815
ce	-4816
▁fli	-4817
▁tub	-4818
▁aram	-4819
▁sport	-4820
▁Fe	-4821
▁PG	-4822
▁BNP	-4823
▁als	-4824
▁car	-4825
▁con	-4826
▁sun	-4827
▁aula	-4828
▁awat	-4829
NAS	-4830
▁UE	-4831
▁Dar	-4832
▁APBN	-4833
▁hang	-4834
▁amera	-4835
ES	-4836
▁pes	-4837
▁yas	-4838
▁ilai	-4839
▁ndon	-4840
▁nsia	-4841
▁pembe	-4842
ER	-4843
▁mia	-4844
▁ruk	-4845
▁anat	-4846
▁boli	-4847
▁cari	-4848
▁erko	-4849
▁ongk	-4850
▁entif	-4851
fi	-4852
▁ys	-4853
▁dag	-4854
▁berm	-4855
▁diga	-4856
▁ogis	-4857
▁rena	-4858
hum	-4859
▁auh	-4860
▁ashi	-4861
▁krim	-4862
▁versi	-4863
py	-4864
▁vo	-4865
▁ulkan	-4866
▁RK	-4867
▁dm	-4868
▁oa	-4869
▁Tan	-4870
▁ica	-4871
▁rov	-4872
▁ssi	-4873
▁aban	-4874
▁gh	-4875
▁isw	-4876
▁kol	-4877
▁ksa	-4878
▁pam	-4879
▁wed	-4880
▁diun	-4881
▁Peran	-4882
▁anyar	-4883
▁Er	-4884
▁MP	-4885
▁len	-4886
▁oet	-4887
▁stu	-4888
▁iver	-4889
▁part	-4890
▁mpeti	-4891
▁lip	-4892
▁kont	-4893
▁eusai	-4894
▁SA	-4895
▁Lin	-4896
▁tuk	-4897
▁abes	-4898
▁giri	-4899
▁ibur	-4900
▁iter	-4901
CC	-4902
▁Kr	-4903
▁Sun	-4904
▁pay	-4905
▁ardi	-4906
▁udar	-4907
▁KN	-4908
▁Pet	-4909
▁lli	-4910
▁pec	-4911
▁ume	-4912
▁Berb	-4913
▁adem	-4914
▁taru	-4915
▁karan	-4916
▁temba	-4917
▁ange	-4918
▁ehat	-4919
▁nyal	-4920
▁terc	-4921
▁terg	-4922
▁BN	-4923
▁bau	-4924
▁ses	-4925
▁teh	-4926
▁anag	-4927
▁lana	-4928
▁nara	-4929
▁AZNAS	-4930
▁DB	-4931
▁dh	-4932
▁GII	-4933
▁Lem	-4934
▁jaw	-4935
▁Mand	-4936
▁ebat	-4937
▁ntre	-4938
▁usah	-4939
▁Komis	-4940
▁DJ	-4941
line	-4942
▁Dam	-4943
▁mob	-4944
▁EURO	-4945
▁enep	-4946
▁nian	-4947
▁romo	-4948
▁Id	-4949
▁kg	-4950
▁THR	-4951
▁oga	-4952
▁erup	-4953
▁eser	-4954
TU	-4955
▁LA	-4956
▁Op	-4957
▁DPW	-4958
▁dit	-4959
▁kaw	-4960
▁mna	-4961
▁anus	-4962
▁GIIAS	-4963
▁EN	-4964
▁KB	-4965
▁ask	-4966
▁vis	-4967
▁acar	-4968
▁erbi	-4969
▁keru	-4970
▁ALEMB	-4971
▁aniel	-4972
▁antun	-4973
▁nline	-4974
▁5,	-4975
▁mm	-4976
▁Lam	-4977
▁arj	-4978
▁Jati	-4979
▁elan	-4980
▁nung	-4981
▁ompa	-4982
▁sand	-4983
▁sila	-4984
▁uling	-4985
▁bs	-4986
▁Day	-4987
▁keh	-4988
▁ngo	-4989
▁jawab	-4990
▁manah	-4991
▁3-	-4992
▁we	-4993
▁iat	-4994
▁ror	-4995
▁tle	-4996
▁upp	-4997
▁jala	-4998
▁spes	-4999
BT	-5000
▁anyu	-5001
▁unda	-5002
MP	-5003
▁GI	-5004
▁ve	-5005
▁icu	-5006
▁mpi	-5007
▁pac	-5008
▁Fest	-5009
▁endi	-5010
▁rans	-5011
▁UNRWA	-5012
▁asaan	-5013
▁IK	-5014
▁KK	-5015
▁UT	-5016
▁Us	-5017
▁LPG	-5018
▁asit	-5019
▁erem	-5020
▁yasa	-5021
▁Banda	-5022
▁arhum	-5023
▁nentu	-5024
ber	-5025
▁37	-5026
▁55	-5027
▁bom	-5028
▁klu	-5029
▁maj	-5030
▁eram	-5031
▁alian	-5032
▁nanda	-5033
FI	-5034
▁ksp	-5035
▁erbu	-5036
▁ermu	-5037
▁ngge	-5038
▁rtang	-5039
▁DC	-5040
▁TPN	-5041
▁UNG	-5042
▁afi	-5043
▁dha	-5044
▁ove	-5045
▁umas	-5046
▁Polit	-5047
▁Produ	-5048
▁nvest	-5049
OT	-5050
▁ere	-5051
▁oot	-5052
▁ugu	-5053
▁lega	-5054
▁ngsi	-5055
▁penya	-5056
▁At	-5057
▁dio	-5058
▁inj	-5059
▁kos	-5060
▁sed	-5061
▁swa	-5062
▁PUPR	-5063
▁ahap	-5064
▁asak	-5065
▁ntis	-5066
▁promo	-5067
LI	-5068
▁CI	-5069
▁Bey	-5070
▁Cup	-5071
▁ars	-5072
▁eka	-5073
▁uil	-5074
▁esmi	-5075
▁ktiv	-5076
▁Kapol	-5077
▁RA	-5078
▁150	-5079
▁TKN	-5080
▁agn	-5081
▁eat	-5082
▁erut	-5083
▁seks	-5084
▁demik	-5085
▁labor	-5086
LA	-5087
▁Sua	-5088
▁ahe	-5089
▁arm	-5090
▁nir	-5091
▁Pema	-5092
▁ekar	-5093
▁limp	-5094
▁semp	-5095
RC	-5096
▁#	-5097
▁BKP	-5098
▁BTN	-5099
▁dut	-5100
▁hok	-5101
▁tag	-5102
▁eria	-5103
▁erlu	-5104
▁unak	-5105
▁laras	-5106
OS	-5107
▁250	-5108
▁muk	-5109
▁agak	-5110
▁inum	-5111
▁pati	-5112
▁plik	-5113
▁rian	-5114
▁sanya	-5115
HO	-5116
▁aci	-5117
▁wis	-5118
▁able	-5119
▁erce	-5120
▁eruk	-5121
▁nerg	-5122
▁omin	-5123
▁osis	-5124
▁urun	-5125
▁prote	-5126
▁SY	-5127
▁Bus	-5128
▁Mun	-5129
▁iya	-5130
▁nsu	-5131
▁lusi	-5132
▁rtas	-5133
▁sisw	-5134
▁time	-5135
▁timi	-5136
▁ering	-5137
▁pengh	-5138
YD	-5139
▁sap	-5140
▁tha	-5141
▁Mela	-5142
▁esar	-5143
▁omba	-5144
▁nator	-5145
▁2-	-5146
▁sd	-5147
▁day	-5148
▁obi	-5149
▁raw	-5150
▁RIDO	-5151
▁perp	-5152
▁unya	-5153
▁oj	-5154
▁Cit	-5155
▁Jab	-5156
▁ekr	-5157
▁ors	-5158
▁usa	-5159
▁PPDB	-5160
▁adan	-5161
▁capai	-5162
▁tm	-5163
▁yol	-5164
▁gali	-5165
▁onfe	-5166
▁orit	-5167
▁sman	-5168
▁rsita	-5169
og	-5170
▁LS	-5171
▁att	-5172
▁yim	-5173
▁ahas	-5174
▁beli	-5175
▁seru	-5176
▁AK	-5177
▁br	-5178
▁lk	-5179
▁eki	-5180
▁erhi	-5181
▁erus	-5182
▁rnama	-5183
▁ao	-5184
▁yl	-5185
▁Jur	-5186
▁KKB	-5187
▁Lee	-5188
▁Plt	-5189
▁XXI	-5190
▁cia	-5191
▁gni	-5192
▁huk	-5193
▁ikr	-5194
▁azar	-5195
▁erol	-5196
▁ront	-5197
▁siat	-5198
▁Polri	-5199
▁FK	-5200
▁dz	-5201
▁Ben	-5202
▁aif	-5203
▁akh	-5204
▁eas	-5205
▁gus	-5206
▁ior	-5207
▁badi	-5208
▁mbon	-5209
▁peme	-5210
▁ebera	-5211
▁ormas	-5212
▁6,	-5213
▁err	-5214
▁inti	-5215
▁awati	-5216
▁ahm	-5217
▁met	-5218
▁tem	-5219
▁enis	-5220
▁timb	-5221
▁mutus	-5222
20	-5223
ID	-5224
ei	-5225
ira	-5226
▁bit	-5227
▁ajib	-5228
▁redi	-5229
▁shop	-5230
▁temp	-5231
▁udan	-5232
▁umpu	-5233
▁meras	-5234
▁eu	-5235
▁WHO	-5236
▁gend	-5237
▁aitan	-5238
▁ifika	-5239
▁ace	-5240
▁ald	-5241
▁fik	-5242
▁iza	-5243
▁nua	-5244
▁ock	-5245
▁tna	-5246
▁angs	-5247
▁upat	-5248
▁ihara	-5249
pe	-5250
▁Gun	-5251
▁SIM	-5252
▁Seo	-5253
▁iska	-5254
▁ndat	-5255
▁nind	-5256
▁SB	-5257
▁MAL	-5258
▁SYL	-5259
▁eor	-5260
▁owo	-5261
▁usk	-5262
DC	-5263
DN	-5264
RIS	-5265
▁41	-5266
▁Kad	-5267
▁aza	-5268
▁bir	-5269
▁opo	-5270
▁hara	-5271
▁ibut	-5272
▁nerj	-5273
▁patu	-5274
▁tekn	-5275
▁luhan	-5276
▁aret	-5277
▁sten	-5278
▁kapal	-5279
TI	-5280
va	-5281
▁Tur	-5282
▁eek	-5283
▁ism	-5284
▁uai	-5285
▁esal	-5286
▁mart	-5287
▁upak	-5288
▁aikan	-5289
▁DK	-5290
▁Aku	-5291
▁UGM	-5292
▁gah	-5293
▁ull	-5294
▁Sema	-5295
▁haru	-5296
▁memas	-5297
jb	-5298
▁Cek	-5299
▁aat	-5300
▁ape	-5301
▁avi	-5302
▁erj	-5303
▁jet	-5304
▁lko	-5305
▁orb	-5306
▁Peru	-5307
▁arko	-5308
▁form	-5309
▁kret	-5310
▁muni	-5311
▁rini	-5312
▁Pengu	-5313
▁alita	-5314
▁araan	-5315
▁rmati	-5316
▁PON	-5317
▁atl	-5318
▁ndi	-5319
▁oel	-5320
▁mest	-5321
▁teri	-5322
▁aiman	-5323
▁melih	-5324
TT	-5325
▁PH	-5326
▁ESG	-5327
▁cer	-5328
▁ray	-5329
▁akwa	-5330
▁kung	-5331
▁tumb	-5332
▁encar	-5333
DI	-5334
▁GOR	-5335
▁PHK	-5336
▁khu	-5337
▁kasa	-5338
▁tori	-5339
▁udik	-5340
▁eluru	-5341
23	-5342
LB	-5343
eni	-5344
▁fid	-5345
▁ifa	-5346
▁nge	-5347
▁hool	-5348
▁njal	-5349
▁RP	-5350
▁igh	-5351
▁kun	-5352
▁zin	-5353
▁erta	-5354
▁ibuk	-5355
▁peti	-5356
▁sebe	-5357
▁Mc	-5358
▁Pon	-5359
▁tuh	-5360
▁atak	-5361
▁illa	-5362
▁okus	-5363
▁tung	-5364
▁walk	-5365
▁warg	-5366
▁memak	-5367
▁AA	-5368
▁SDN	-5369
▁bjb	-5370
▁naf	-5371
▁ukun	-5372
▁IA	-5373
▁SPBU	-5374
▁atin	-5375
▁samp	-5376
▁usik	-5377
▁ektif	-5378
▁menuh	-5379
one	-5380
▁jid	-5381
▁zat	-5382
▁arum	-5383
▁arun	-5384
▁buru	-5385
▁gara	-5386
▁reat	-5387
▁rkira	-5388
TS	-5389
ona	-5390
▁inn	-5391
▁KPPS	-5392
▁abor	-5393
▁eran	-5394
▁BYD	-5395
▁Edi	-5396
▁Emi	-5397
▁Jay	-5398
▁ert	-5399
▁sai	-5400
▁emik	-5401
▁este	-5402
▁raks	-5403
▁tmen	-5404
▁pener	-5405
LU	-5406
▁HI	-5407
▁War	-5408
▁amd	-5409
▁riw	-5410
▁entr	-5411
▁perw	-5412
▁uing	-5413
▁penyi	-5414
▁smail	-5415
▁tribu	-5416
▁untun	-5417
JK	-5418
ARU	-5419
KAN	-5420
▁ITB	-5421
▁LHK	-5422
▁VII	-5423
▁gil	-5424
▁Febr	-5425
▁Mere	-5426
▁andr	-5427
▁syar	-5428
▁uala	-5429
▁yana	-5430
▁etapa	-5431
▁jutan	-5432
DP	-5433
▁39	-5434
▁SIG	-5435
▁Tek	-5436
▁Tru	-5437
▁ged	-5438
▁PSIM	-5439
▁egan	-5440
▁enat	-5441
▁iasi	-5442
▁adapi	-5443
▁rakan	-5444
▁44	-5445
▁kj	-5446
▁nn	-5447
▁DPO	-5448
▁edo	-5449
▁Kedu	-5450
▁erja	-5451
▁hamm	-5452
▁ilak	-5453
▁lita	-5454
▁okyo	-5455
EM	-5456
▁_	-5457
▁ipa	-5458
▁oti	-5459
▁sse	-5460
▁enyu	-5461
▁atkan	-5462
▁seper	-5463
▁bk	-5464
▁400	-5465
▁Ray	-5466
▁jut	-5467
▁law	-5468
▁yen	-5469
▁atim	-5470
▁impi	-5471
▁itif	-5472
▁43	-5473
▁JI	-5474
▁1,5	-5475
▁Mon	-5476
▁wit	-5477
▁adio	-5478
▁ilip	-5479
▁ntra	-5480
▁sist	-5481
▁tres	-5482
▁ngnya	-5483
RA	-5484
▁All	-5485
▁BSD	-5486
▁Keba	-5487
▁akse	-5488
▁asti	-5489
▁enci	-5490
▁taran	-5491
io	-5492
▁may	-5493
▁olt	-5494
▁berg	-5495
▁hulu	-5496
▁mbun	-5497
▁mini	-5498
▁rhat	-5499
▁nolog	-5500
▁GT	-5501
▁Art	-5502
▁KTP	-5503
▁els	-5504
▁erw	-5505
▁jin	-5506
▁Tekn	-5507
▁cang	-5508
▁dmin	-5509
▁ente	-5510
▁runa	-5511
▁ubuh	-5512
▁natur	-5513
▁ngung	-5514
AW	-5515
SA	-5516
▁rp	-5517
▁laya	-5518
▁suma	-5519
▁wang	-5520
▁uhkan	-5521
▁65	-5522
▁DA	-5523
▁lb	-5524
▁BAN	-5525
▁BPN	-5526
▁Gre	-5527
▁Jat	-5528
▁Rek	-5529
▁iba	-5530
▁pin	-5531
▁TANG	-5532
▁endo	-5533
▁klim	-5534
fa	-5535
▁KE	-5536
▁VI	-5537
▁Par	-5538
▁bag	-5539
▁nte	-5540
▁manat	-5541
▁unkan	-5542
ze	-5543
TAN	-5544
▁42	-5545
▁48	-5546
▁Run	-5547
▁ggo	-5548
▁asem	-5549
▁inde	-5550
▁rdak	-5551
▁ajuan	-5552
▁isian	-5553
os	-5554
▁LB	-5555
▁Isu	-5556
▁ego	-5557
▁evi	-5558
▁rar	-5559
▁sya	-5560
▁yer	-5561
▁ebutk	-5562
▁erson	-5563
EI	-5564
▁KD	-5565
▁(1)	-5566
▁FOT	-5567
▁Suk	-5568
▁atr	-5569
▁hai	-5570
▁ole	-5571
▁asik	-5572
▁iket	-5573
▁mbia	-5574
▁meru	-5575
▁adirk	-5576
▁daran	-5577
▁PI	-5578
▁iw	-5579
▁Eka	-5580
▁ebi	-5581
▁fek	-5582
▁oke	-5583
▁ahir	-5584
▁empu	-5585
▁stat	-5586
▁persa	-5587
SK	-5588
wn	-5589
▁ds	-5590
▁gl	-5591
▁sn	-5592
▁Rid	-5593
▁SUV	-5594
▁hor	-5595
▁mut	-5596
▁nko	-5597
▁riku	-5598
▁semb	-5599
▁lapan	-5600
▁nyala	-5601
GD	-5602
ic	-5603
▁SC	-5604
▁khi	-5605
▁yaw	-5606
▁FOTO	-5607
▁iner	-5608
▁ntor	-5609
▁peta	-5610
UN	-5611
▁SH	-5612
▁ls	-5613
▁Kat	-5614
▁OJK	-5615
▁TJS	-5616
▁afa	-5617
▁cit	-5618
▁hri	-5619
▁ova	-5620
▁rag	-5621
▁FIFA	-5622
▁ande	-5623
▁awar	-5624
▁icky	-5625
▁perma	-5626
▁rikan	-5627
▁sb	-5628
▁DPT	-5629
▁MUI	-5630
▁ntho	-5631
▁saan	-5632
▁yawa	-5633
▁ndasi	-5634
▁MB	-5635
▁PW	-5636
▁yn	-5637
▁AFC	-5638
▁Wal	-5639
▁nta	-5640
▁ovi	-5641
▁TJSL	-5642
▁arin	-5643
▁hind	-5644
lor	-5645
yan	-5646
▁BSI	-5647
▁Jer	-5648
▁PHP	-5649
▁hut	-5650
▁iwa	-5651
▁Part	-5652
▁ngal	-5653
▁raka	-5654
▁erper	-5655
▁iklan	-5656
ard	-5657
▁TC	-5658
▁iss	-5659
▁kid	-5660
▁rau	-5661
▁dung	-5662
▁ecil	-5663
▁lian	-5664
▁mpok	-5665
▁tunj	-5666
▁ugat	-5667
▁TB	-5668
▁Ker	-5669
▁PMK	-5670
▁arr	-5671
▁blo	-5672
▁ekt	-5673
▁esk	-5674
▁lid	-5675
▁own	-5676
▁erba	-5677
▁eluar	-5678
AD	-5679
PB	-5680
▁0,	-5681
▁OK	-5682
▁rbo	-5683
▁BARU	-5684
▁alla	-5685
▁aras	-5686
▁elaj	-5687
▁emen	-5688
▁iara	-5689
▁ikon	-5690
▁ista	-5691
▁ptim	-5692
▁PEKAN	-5693
▁bangk	-5694
olo	-5695
▁kw	-5696
▁BNI	-5697
▁Bek	-5698
▁ukt	-5699
▁engu	-5700
▁perl	-5701
ry	-5702
▁51	-5703
▁md	-5704
▁BPS	-5705
▁Hot	-5706
▁ahl	-5707
▁ble	-5708
▁gai	-5709
▁tia	-5710
▁won	-5711
▁PHPU	-5712
▁Yoon	-5713
▁taka	-5714
▁entas	-5715
NL	-5716
▁Ib	-5717
▁PJ	-5718
▁his	-5719
▁ldi	-5720
▁off	-5721
▁ote	-5722
▁ktif	-5723
▁nyak	-5724
HI	-5725
mpi	-5726
▁AG	-5727
▁MR	-5728
▁STY	-5729
▁mai	-5730
▁rse	-5731
▁ste	-5732
▁digu	-5733
▁mudi	-5734
▁ncah	-5735
▁ntin	-5736
▁okoh	-5737
▁skal	-5738
▁onfer	-5739
▁tasan	-5740
▁Os	-5741
▁tc	-5742
▁zu	-5743
▁Shi	-5744
▁bea	-5745
▁eso	-5746
▁hoa	-5747
▁Berd	-5748
▁Pere	-5749
▁enah	-5750
▁inus	-5751
▁lite	-5752
▁endal	-5753
oro	-5754
▁58	-5755
▁88	-5756
▁SS	-5757
kusi	-5758
▁Abu	-5759
▁hay	-5760
▁ski	-5761
▁usli	-5762
▁annur	-5763
▁kutan	-5764
▁lakan	-5765
▁nyamb	-5766
▁sidan	-5767
▁skusi	-5768
gh	-5769
▁7,	-5770
▁ix	-5771
▁Los	-5772
▁arf	-5773
▁fia	-5774
▁rob	-5775
▁coba	-5776
▁dlat	-5777
▁erhe	-5778
▁tron	-5779
▁mimpi	-5780
▁AW	-5781
▁das	-5782
▁Apri	-5783
▁emon	-5784
▁erum	-5785
▁sumb	-5786
▁ukup	-5787
▁entan	-5788
PD	-5789
TP	-5790
ee	-5791
uke	-5792
▁47	-5793
▁DM	-5794
▁XI	-5795
▁Tom	-5796
▁aha	-5797
▁auf	-5798
▁imu	-5799
▁kib	-5800
▁KLHK	-5801
▁gori	-5802
▁pent	-5803
▁TANGE	-5804
her	-5805
▁CV	-5806
▁ts	-5807
▁APK	-5808
▁VNL	-5809
▁jus	-5810
▁pad	-5811
▁uet	-5812
▁Terb	-5813
▁abup	-5814
▁bulk	-5815
▁epak	-5816
▁nova	-5817
▁suda	-5818
▁cetak	-5819
▁watan	-5820
▁AU	-5821
▁KC	-5822
▁LI	-5823
▁bap	-5824
▁dili	-5825
▁emam	-5826
▁etan	-5827
▁etno	-5828
▁udit	-5829
▁ulat	-5830
▁enamb	-5831
▁nyama	-5832
▁perca	-5833
▁retar	-5834
▁IR	-5835
▁IDF	-5836
▁lel	-5837
▁oes	-5838
▁Pera	-5839
▁appy	-5840
▁ncam	-5841
▁room	-5842
▁Sam	-5843
▁elv	-5844
▁idi	-5845
▁Bawa	-5846
▁Kema	-5847
▁Peri	-5848
▁amba	-5849
▁gala	-5850
▁ines	-5851
▁iron	-5852
▁mand	-5853
▁mpan	-5854
▁usim	-5855
HC	-5856
▁MH	-5857
▁TN	-5858
▁Jen	-5859
▁OPD	-5860
▁Wil	-5861
▁erh	-5862
▁ngl	-5863
▁nhu	-5864
▁BNPB	-5865
▁abak	-5866
▁agal	-5867
▁ebol	-5868
▁igas	-5869
▁show	-5870
▁usak	-5871
▁znas	-5872
▁yaran	-5873
EA	-5874
▁IX	-5875
▁MT	-5876
▁On	-5877
▁UM	-5878
▁aso	-5879
▁Menu	-5880
▁nior	-5881
▁erlin	-5882
▁semba	-5883
UMI	-5884
▁52	-5885
▁PC	-5886
▁ART	-5887
▁MoU	-5888
▁iki	-5889
▁hnya	-5890
▁pert	-5891
▁ayung	-5892
JO	-5893
▁Cl	-5894
▁Sr	-5895
▁dd	-5896
▁dra	-5897
▁dun	-5898
▁iku	-5899
▁iso	-5900
▁pta	-5901
▁Sept	-5902
▁kawa	-5903
▁nisi	-5904
▁tura	-5905
▁uren	-5906
▁afari	-5907
▁berko	-5908
▁egiat	-5909
▁itasi	-5910
▁juara	-5911
▁DL	-5912
▁dw	-5913
▁yd	-5914
▁Rio	-5915
▁YAR	-5916
▁alk	-5917
▁bri	-5918
▁ecu	-5919
▁ilu	-5920
▁kst	-5921
▁ves	-5922
▁Baka	-5923
▁Mart	-5924
▁anit	-5925
▁dian	-5926
▁ntun	-5927
▁ston	-5928
▁Selat	-5929
▁emula	-5930
▁entur	-5931
▁lusur	-5932
EP	-5933
▁KR	-5934
▁COV	-5935
▁aur	-5936
▁dli	-5937
▁uit	-5938
▁BUMD	-5939
▁gita	-5940
▁izal	-5941
▁entik	-5942
▁lokas	-5943
▁mende	-5944
▁terla	-5945
EF	-5946
▁(2	-5947
▁56	-5948
▁amo	-5949
▁fis	-5950
▁hul	-5951
▁kno	-5952
▁rot	-5953
▁toh	-5954
▁amad	-5955
▁egra	-5956
▁COVID	-5957
▁andat	-5958
▁kuman	-5959
▁pusat	-5960
▁uheni	-5961
HT	-5962
▁Em	-5963
▁UKM	-5964
▁cas	-5965
▁die	-5966
▁fir	-5967
▁hre	-5968
▁nde	-5969
▁INDO	-5970
▁elap	-5971
▁idak	-5972
▁mbal	-5973
▁raham	-5974
▁ze	-5975
▁iva	-5976
▁ool	-5977
▁pda	-5978
▁rli	-5979
▁rna	-5980
▁usu	-5981
▁azia	-5982
▁galk	-5983
▁uron	-5984
▁eting	-5985
▁kspor	-5986
CO	-5987
yb	-5988
▁mr	-5989
▁2,5	-5990
▁JPU	-5991
▁KIM	-5992
▁WWF	-5993
▁Seri	-5994
▁ilah	-5995
▁nump	-5996
▁opot	-5997
▁lengk	-5998
▁SW	-5999
▁Edy	-6000
▁arn	-6001
▁dya	-6002
▁hun	-6003
▁nsy	-6004
▁ofi	-6005
▁uis	-6006
▁PTPN	-6007
▁Seni	-6008
▁arki	-6009
▁ngus	-6010
▁onan	-6011
▁stan	-6012
BI	-6013
PI	-6014
▁NK	-6015
▁fu	-6016
▁ATR	-6017
▁LBH	-6018
▁gin	-6019
▁gum	-6020
▁ngs	-6021
▁tiw	-6022
▁vat	-6023
▁web	-6024
▁rita	-6025
▁wata	-6026
qu	-6027
▁NG	-6028
▁TA	-6029
▁LSI	-6030
▁eme	-6031
▁kra	-6032
▁uko	-6033
▁Fran	-6034
▁TPPO	-6035
▁etis	-6036
▁gawa	-6037
▁hina	-6038
▁itis	-6039
▁kses	-6040
▁opul	-6041
▁side	-6042
▁urir	-6043
▁ancan	-6044
▁encer	-6045
▁lustr	-6046
▁naras	-6047
▁rauke	-6048
▁ualan	-6049
▁bl	-6050
▁gk	-6051
▁Dig	-6052
▁PAD	-6053
▁Peg	-6054
▁ete	-6055
▁hyb	-6056
▁lif	-6057
▁uty	-6058
▁Abdu	-6059
▁adia	-6060
▁aten	-6061
▁onta	-6062
▁onte	-6063
▁sian	-6064
▁ekali	-6065
▁mengk	-6066
sit	-6067
▁Ara	-6068
▁sme	-6069
▁gitu	-6070
▁mete	-6071
▁uncu	-6072
▁embah	-6073
▁mbera	-6074
▁naung	-6075
▁pengi	-6076
▁46	-6077
▁54	-6078
▁HP	-6079
▁mz	-6080
▁IKA	-6081
▁Rum	-6082
▁nsa	-6083
▁rso	-6084
▁esel	-6085
▁ilis	-6086
▁medi	-6087
▁mode	-6088
▁rsip	-6089
▁uaya	-6090
▁ubli	-6091
▁imbul	-6092
▁kidul	-6093
▁muncu	-6094
17	-6095
VP	-6096
▁53	-6097
▁98	-6098
▁cr	-6099
▁Kon	-6100
▁Max	-6101
▁One	-6102
▁Tem	-6103
▁asl	-6104
▁dai	-6105
▁awai	-6106
▁eror	-6107
▁gist	-6108
▁ihad	-6109
▁njar	-6110
▁senj	-6111
▁apkan	-6112
▁bappe	-6113
FC	-6114
▁GM	-6115
▁LG	-6116
▁fr	-6117
▁Ded	-6118
▁IND	-6119
▁MIN	-6120
▁OPM	-6121
▁tyo	-6122
▁esla	-6123
▁nani	-6124
▁Setia	-6125
▁empur	-6126
▁eraih	-6127
▁temuk	-6128
▁Jl	-6129
▁TS	-6130
▁FGD	-6131
▁IBL	-6132
▁Mic	-6133
▁GIAN	-6134
▁lemb	-6135
▁riti	-6136
▁riya	-6137
▁LATAN	-6138
▁BD	-6139
▁FH	-6140
▁Aji	-6141
▁Ita	-6142
▁UPT	-6143
▁WBP	-6144
▁gem	-6145
▁onn	-6146
▁pok	-6147
▁SMAN	-6148
▁irma	-6149
▁ival	-6150
▁mera	-6151
▁nyer	-6152
▁sukan	-6153
RE	-6154
ky	-6155
ney	-6156
▁yi	-6157
▁SPK	-6158
▁SUK	-6159
▁Spa	-6160
▁apt	-6161
▁cle	-6162
▁uin	-6163
▁abin	-6164
▁acun	-6165
▁auan	-6166
▁ekre	-6167
▁iant	-6168
▁ulit	-6169
▁asark	-6170
▁emuka	-6171
▁erbai	-6172
▁membu	-6173
▁teran	-6174
BA	-6175
GI	-6176
AMP	-6177
▁57	-6178
▁XV	-6179
▁kt	-6180
▁600	-6181
▁Cap	-6182
▁DBD	-6183
▁nie	-6184
▁udd	-6185
▁loud	-6186
▁ayana	-6187
▁masin	-6188
▁rbaru	-6189
▁IG	-6190
▁KW	-6191
▁RO	-6192
▁zo	-6193
▁ICC	-6194
▁SUG	-6195
▁cob	-6196
▁eet	-6197
▁fat	-6198
▁iew	-6199
▁mid	-6200
▁riz	-6201
▁alak	-6202
▁dent	-6203
▁etty	-6204
▁irta	-6205
▁ujud	-6206
▁salin	-6207
▁stian	-6208
▁terpa	-6209
bi	-6210
▁Zo	-6211
▁Gas	-6212
▁Moh	-6213
▁Out	-6214
▁alm	-6215
▁fun	-6216
▁jud	-6217
▁orn	-6218
▁rih	-6219
▁atuk	-6220
▁bino	-6221
▁enim	-6222
▁esep	-6223
▁lint	-6224
▁tawa	-6225
▁aliho	-6226
▁amata	-6227
ye	-6228
ate	-6229
▁OS	-6230
▁cm	-6231
▁Kur	-6232
▁Pur	-6233
▁nje	-6234
▁anca	-6235
▁apol	-6236
▁erku	-6237
▁alika	-6238
▁apork	-6239
▁erind	-6240
▁feren	-6241
▁ntian	-6242
ton	-6243
▁0-	-6244
▁73	-6245
▁76	-6246
▁PO	-6247
▁800	-6248
▁ALI	-6249
▁Ary	-6250
▁ITS	-6251
▁Mil	-6252
▁ign	-6253
▁nio	-6254
▁MIND	-6255
▁amis	-6256
▁ikma	-6257
▁itel	-6258
▁laka	-6259
▁ogra	-6260
▁park	-6261
▁rapi	-6262
▁buran	-6263
▁emuan	-6264
▁menci	-6265
by	-6266
xy	-6267
▁63	-6268
▁95	-6269
▁EA	-6270
▁BIN	-6271
▁OTT	-6272
▁PSN	-6273
▁PSU	-6274
▁XII	-6275
▁peg	-6276
▁rug	-6277
▁uny	-6278
▁atri	-6279
▁enas	-6280
▁ooth	-6281
▁tali	-6282
▁jajar	-6283
▁ormat	-6284
▁posit	-6285
▁uskan	-6286
▁JK	-6287
▁ACL	-6288
▁Ace	-6289
▁Kun	-6290
▁UIN	-6291
▁gap	-6292
▁ise	-6293
▁upi	-6294
▁yun	-6295
▁KDRT	-6296
▁Medi	-6297
▁arif	-6298
▁asir	-6299
▁dibe	-6300
▁dzes	-6301
▁itik	-6302
▁olil	-6303
▁onel	-6304
▁resh	-6305
▁orban	-6306
ps	-6307
▁49	-6308
▁EM	-6309
▁FA	-6310
▁ATM	-6311
▁Red	-6312
▁eer	-6313
▁elp	-6314
▁qua	-6315
▁tup	-6316
▁BRIN	-6317
▁engo	-6318
▁ippo	-6319
▁irda	-6320
▁sina	-6321
▁term	-6322
▁umba	-6323
▁berbi	-6324
▁mpaik	-6325
PA	-6326
▁BL	-6327
▁ASA	-6328
▁BWF	-6329
▁LPK	-6330
▁PKK	-6331
▁lle	-6332
▁ngh	-6333
▁nul	-6334
▁yid	-6335
▁BPOM	-6336
▁bark	-6337
▁gini	-6338
▁heck	-6339
▁komu	-6340
▁lami	-6341
▁nari	-6342
▁ansen	-6343
▁ernat	-6344
▁HS	-6345
▁MM	-6346
▁ON	-6347
▁Ul	-6348
▁iP	-6349
▁ANS	-6350
▁eju	-6351
▁lav	-6352
▁slo	-6353
▁way	-6354
▁asis	-6355
▁mpor	-6356
▁ndir	-6357
▁nita	-6358
▁dunia	-6359
▁61	-6360
▁HM	-6361
▁NA	-6362
▁TM	-6363
▁lp	-6364
▁alo	-6365
▁nne	-6366
▁TPPU	-6367
▁hala	-6368
▁isik	-6369
▁kluk	-6370
▁lani	-6371
▁nisa	-6372
▁ntel	-6373
▁pion	-6374
▁emban	-6375
▁urhan	-6376
UR	-6377
▁DR	-6378
▁Ant	-6379
▁SDG	-6380
▁ais	-6381
▁eel	-6382
▁ija	-6383
▁nna	-6384
▁oid	-6385
▁Pant	-6386
▁anny	-6387
▁peed	-6388
▁usta	-6389
▁abila	-6390
▁aspen	-6391
▁elana	-6392
▁likas	-6393
BC	-6394
HA	-6395
zy	-6396
▁TI	-6397
▁ax	-6398
▁120	-6399
▁LRT	-6400
▁gua	-6401
▁jik	-6402
▁nin	-6403
▁ipda	-6404
▁orea	-6405
▁swar	-6406
▁unta	-6407
ire	-6408
zul	-6409
▁64	-6410
▁TPI	-6411
▁UUD	-6412
▁Yan	-6413
▁rde	-6414
▁tto	-6415
▁BPIP	-6416
▁Bela	-6417
▁alai	-6418
▁ella	-6419
▁gela	-6420
▁emari	-6421
▁isang	-6422
ET	-6423
dy	-6424
ff	-6425
qi	-6426
▁68	-6427
▁SR	-6428
▁Tua	-6429
▁tru	-6430
▁ankan	-6431
▁limut	-6432
▁menyi	-6433
US	-6434
▁AJ	-6435
▁Kg	-6436
▁Md	-6437
▁RE	-6438
▁SN	-6439
▁PDB	-6440
▁SBY	-6441
▁UKT	-6442
▁loy	-6443
▁ogi	-6444
▁owa	-6445
▁pim	-6446
▁disa	-6447
▁kura	-6448
▁melt	-6449
▁yber	-6450
▁LHKPN	-6451
▁TPNPB	-6452
▁arfum	-6453
▁endes	-6454
▁klama	-6455
ore	-6456
▁Con	-6457
▁Dok	-6458
▁ICE	-6459
▁Sin	-6460
▁dja	-6461
▁ico	-6462
▁nop	-6463
▁PBSI	-6464
▁gari	-6465
▁lank	-6466
▁ncan	-6467
▁neur	-6468
▁ngki	-6469
▁olak	-6470
▁unah	-6471
od	-6472
▁99	-6473
▁Ud	-6474
▁hk	-6475
▁ABK	-6476
▁AEO	-6477
▁ASP	-6478
▁ASS	-6479
▁Uji	-6480
▁elt	-6481
▁tau	-6482
▁AMAN	-6483
▁buan	-6484
▁mutu	-6485
▁orth	-6486
▁poli	-6487
▁sign	-6488
▁usus	-6489
▁ansus	-6490
▁kandi	-6491
▁napas	-6492
▁vitas	-6493
DK	-6494
▁72	-6495
▁IO	-6496
▁rf	-6497
▁PAS	-6498
▁Sub	-6499
▁eir	-6500
▁hum	-6501
▁iur	-6502
▁kaa	-6503
▁sau	-6504
▁alil	-6505
▁arut	-6506
▁ehan	-6507
▁ndal	-6508
▁rato	-6509
▁enewa	-6510
▁engat	-6511
▁erusa	-6512
▁munit	-6513
▁ngkai	-6514
▁opera	-6515
▁BNN	-6516
▁EKA	-6517
▁ehi	-6518
▁lau	-6519
▁onc	-6520
▁LGBT	-6521
▁arsa	-6522
▁ertu	-6523
▁ibya	-6524
▁imda	-6525
▁klat	-6526
▁kuti	-6527
▁membe	-6528
▁ntegr	-6529
▁ratus	-6530
▁tukan	-6531
IC	-6532
▁4-	-6533
▁8,	-6534
▁HR	-6535
▁Sut	-6536
▁hom	-6537
▁nso	-6538
▁sib	-6539
▁udo	-6540
▁umh	-6541
▁urk	-6542
▁asah	-6543
▁date	-6544
▁epem	-6545
▁erte	-6546
▁konf	-6547
▁nomo	-6548
▁rant	-6549
▁seku	-6550
▁umin	-6551
▁ahera	-6552
▁ngund	-6553
▁polis	-6554
je	-6555
▁85	-6556
▁GS	-6557
▁Gy	-6558
▁Ye	-6559
▁1-0	-6560
▁700	-6561
▁elc	-6562
▁fol	-6563
▁mic	-6564
▁oly	-6565
▁ook	-6566
▁sei	-6567
▁adab	-6568
▁digi	-6569
▁imun	-6570
▁inga	-6571
▁njat	-6572
▁sege	-6573
▁udio	-6574
▁Pemba	-6575
▁isial	-6576
okh	-6577
▁66	-6578
▁67	-6579
▁CN	-6580
▁Fu	-6581
▁OD	-6582
▁lg	-6583
▁enk	-6584
▁jem	-6585
▁LPSK	-6586
▁Sumb	-6587
▁cher	-6588
▁emba	-6589
▁esen	-6590
▁imba	-6591
▁jaja	-6592
▁olok	-6593
▁ross	-6594
▁eraga	-6595
▁mperl	-6596
▁pelat	-6597
▁suran	-6598
hew	-6599
lan	-6600
yok	-6601
▁59	-6602
▁wu	-6603
▁LSM	-6604
▁MED	-6605
▁Okt	-6606
▁PPA	-6607
▁aly	-6608
▁cel	-6609
▁erg	-6610
▁mot	-6611
▁pag	-6612
▁QRIS	-6613
▁ahma	-6614
▁ajan	-6615
▁ddin	-6616
▁gasi	-6617
▁mpuh	-6618
▁niai	-6619
▁olan	-6620
▁riot	-6621
▁rote	-6622
▁ujuh	-6623
▁upan	-6624
▁yari	-6625
▁ABUMI	-6626
▁aksim	-6627
▁olina	-6628
▁tthew	-6629
▁urokh	-6630
FP	-6631
▁62	-6632
▁Ai	-6633
▁RM	-6634
▁SL	-6635
▁HIV	-6636
▁arb	-6637
▁etw	-6638
▁rgi	-6639
▁tig	-6640
▁ubi	-6641
▁BNPT	-6642
▁PPDS	-6643
▁SMKN	-6644
▁egit	-6645
▁enna	-6646
▁kepo	-6647
▁nggr	-6648
▁aknya	-6649
▁ibawa	-6650
",	-6651
JM	-6652
▁RD	-6653
▁bb	-6654
▁gg	-6655
▁Bin	-6656
▁JCC	-6657
▁enn	-6658
▁enz	-6659
▁kto	-6660
▁lfi	-6661
▁low	-6662
▁nji	-6663
▁uno	-6664
▁yed	-6665
▁egia	-6666
▁ivis	-6667
▁kebu	-6668
▁lean	-6669
▁akkan	-6670
▁ebani	-6671
▁iuran	-6672
▁klukk	-6673
JP	-6674
hu	-6675
▁MG	-6676
▁Doa	-6677
▁Era	-6678
▁KIP	-6679
▁Say	-6680
▁don	-6681
▁ith	-6682
▁nic	-6683
▁wet	-6684
▁NKRI	-6685
▁bola	-6686
▁bran	-6687
▁iati	-6688
▁inja	-6689
▁lant	-6690
▁rick	-6691
▁yudo	-6692
▁MEDAN	-6693
▁amaah	-6694
▁perin	-6695
▁resid	-6696
▁salam	-6697
▁urkan	-6698
iko	-6699
▁--	-6700
▁IH	-6701
▁Ik	-6702
▁Wo	-6703
▁gy	-6704
▁uo	-6705
▁SWT	-6706
▁Teh	-6707
▁URA	-6708
▁egu	-6709
▁ges	-6710
▁gre	-6711
▁irk	-6712
▁leb	-6713
▁lec	-6714
▁nab	-6715
▁nih	-6716
▁ory	-6717
▁rjo	-6718
▁uja	-6719
▁yad	-6720
▁yro	-6721
▁agan	-6722
▁astr	-6723
▁elia	-6724
▁eril	-6725
▁renc	-6726
▁Yoyok	-6727
▁engec	-6728
▁pendi	-6729
▁tuhan	-6730
▁umpan	-6731
EL	-6732
OP	-6733
PT	-6734
▁Ow	-6735
▁dc	-6736
▁kn	-6737
▁ASI	-6738
▁Ahm	-6739
▁ays	-6740
▁dji	-6741
▁hot	-6742
▁ryp	-6743
▁usn	-6744
▁hany	-6745
▁ingo	-6746
▁moda	-6747
▁obol	-6748
▁roto	-6749
▁sudi	-6750
▁jakan	-6751
▁manda	-6752
EK	-6753
▁CF	-6754
▁CP	-6755
▁iu	-6756
▁3-0	-6757
▁AKA	-6758
▁ARA	-6759
▁BMW	-6760
▁IIA	-6761
▁ING	-6762
▁Leo	-6763
▁Roy	-6764
▁Uno	-6765
▁gej	-6766
▁gro	-6767
▁irl	-6768
▁nem	-6769
▁nil	-6770
▁sas	-6771
▁LAMP	-6772
▁PGRI	-6773
▁erit	-6774
▁inim	-6775
▁nger	-6776
▁nore	-6777
▁uduh	-6778
▁yata	-6779
▁aylor	-6780
▁erant	-6781
▁ertan	-6782
▁folio	-6783
▁ransp	-6784
▁FS	-6785
▁Ji	-6786
▁np	-6787
▁oz	-6788
▁6,5	-6789
▁ENG	-6790
▁apu	-6791
▁hah	-6792
▁kip	-6793
▁lya	-6794
▁nsi	-6795
▁uar	-6796
▁bent	-6797
▁egis	-6798
▁hama	-6799
▁ihak	-6800
▁kada	-6801
▁mpar	-6802
▁ndes	-6803
▁rdan	-6804
▁smat	-6805
▁tami	-6806
▁tter	-6807
▁curan	-6808
▁esona	-6809
▁insar	-6810
▁manto	-6811
CA	-6812
EV	-6813
for	-6814
▁ITE	-6815
▁PPS	-6816
▁ebr	-6817
▁gue	-6818
▁izi	-6819
▁opa	-6820
▁rro	-6821
▁var	-6822
▁viv	-6823
▁KBRI	-6824
▁Sera	-6825
▁boat	-6826
▁erdu	-6827
▁eres	-6828
▁etar	-6829
▁roen	-6830
▁sala	-6831
▁tega	-6832
▁ware	-6833
▁atnya	-6834
▁garan	-6835
▁uinea	-6836
▁79	-6837
▁GR	-6838
▁RC	-6839
▁Baw	-6840
▁HMI	-6841
▁PPI	-6842
▁RAN	-6843
▁SKB	-6844
▁bos	-6845
▁ept	-6846
▁htt	-6847
▁hua	-6848
▁ikm	-6849
▁jok	-6850
▁kia	-6851
▁wen	-6852
▁ARAT	-6853
▁BPKP	-6854
▁Dina	-6855
▁ahwa	-6856
▁arel	-6857
▁emer	-6858
▁isen	-6859
▁omis	-6860
▁shar	-6861
▁uana	-6862
▁ubis	-6863
▁undu	-6864
▁wait	-6865
▁adiri	-6866
▁airud	-6867
▁iarah	-6868
LN	-6869
UL	-6870
▁(3	-6871
▁77	-6872
▁FP	-6873
▁MC	-6874
▁Bat	-6875
▁lic	-6876
▁rke	-6877
▁taz	-6878
▁tho	-6879
▁upu	-6880
▁budi	-6881
▁elai	-6882
▁enga	-6883
▁epul	-6884
▁gusu	-6885
▁mzah	-6886
▁ncol	-6887
▁tike	-6888
▁ubur	-6889
▁ASPEN	-6890
▁EKASI	-6891
▁alisa	-6892
▁anusi	-6893
DS	-6894
ey	-6895
get	-6896
▁78	-6897
▁81	-6898
▁MO	-6899
▁Sk	-6900
▁GBT	-6901
▁ICJ	-6902
▁IDI	-6903
▁SKD	-6904
▁UMP	-6905
▁Yos	-6906
▁aby	-6907
▁cil	-6908
▁ege	-6909
▁iqu	-6910
▁jib	-6911
▁omi	-6912
▁urs	-6913
▁RSUP	-6914
▁aguy	-6915
▁atsu	-6916
▁burg	-6917
▁ihan	-6918
▁nika	-6919
▁nsar	-6920
▁utut	-6921
▁sinya	-6922
▁terha	-6923
▁GBK	-6924
▁PKP	-6925
▁TPA	-6926
▁ahi	-6927
▁ece	-6928
▁iPh	-6929
▁Rama	-6930
▁afet	-6931
▁icke	-6932
▁kedu	-6933
▁kome	-6934
▁rame	-6935
▁rina	-6936
▁lanet	-6937
▁mulyo	-6938
edy	-6939
mas	-6940
uri	-6941
▁71	-6942
▁ABC	-6943
▁KRL	-6944
▁ees	-6945
▁oat	-6946
▁uad	-6947
▁ampa	-6948
▁anka	-6949
▁back	-6950
▁elam	-6951
▁elih	-6952
▁empe	-6953
▁esta	-6954
▁hila	-6955
▁ndia	-6956
▁obot	-6957
▁reda	-6958
▁spon	-6959
▁budur	-6960
▁dikin	-6961
▁emasa	-6962
▁https	-6963
▁menei	-6964
▁mpany	-6965
▁perda	-6966
▁smawa	-6967
YU	-6968
▁4.	-6969
▁NN	-6970
▁aa	-6971
▁(2)	-6972
▁AYA	-6973
▁BCL	-6974
▁MAT	-6975
▁OEC	-6976
▁Oli	-6977
▁anw	-6978
▁ejo	-6979
▁epu	-6980
▁haj	-6981
▁wai	-6982
▁Kara	-6983
▁keba	-6984
▁nual	-6985
▁rdhi	-6986
▁udal	-6987
▁wara	-6988
▁encat	-6989
▁ngatk	-6990
▁pakan	-6991
▁rosot	-6992
▁sumsi	-6993
GC	-6994
ARI	-6995
▁3.	-6996
▁87	-6997
▁DS	-6998
▁MN	-6999
▁IPB	-7000
▁Lia	-7001
▁TAN	-7002
▁ayc	-7003
▁ayo	-7004
▁bor	-7005
▁bub	-7006
▁igu	-7007
▁ilk	-7008
▁rju	-7009
▁ABRI	-7010
▁AEON	-7011
▁ARAM	-7012
▁anie	-7013
▁datu	-7014
▁eila	-7015
▁gate	-7016
▁isma	-7017
▁itam	-7018
▁iung	-7019
▁ness	-7020
▁rati	-7021
▁rend	-7022
▁sank	-7023
▁akzul	-7024
▁egask	-7025
▁mener	-7026
▁perba	-7027
▁69	-7028
▁94	-7029
▁mg	-7030
▁Bos	-7031
▁NES	-7032
▁PUU	-7033
▁Ste	-7034
▁TPP	-7035
▁ipp	-7036
▁nse	-7037
▁ops	-7038
▁ube	-7039
▁ARAW	-7040
▁OECD	-7041
▁akni	-7042
▁dham	-7043
▁dige	-7044
▁harg	-7045
▁luan	-7046
▁ncer	-7047
▁wira	-7048
▁bilit	-7049
▁ensin	-7050
▁erkar	-7051
▁imana	-7052
▁nitas	-7053
▁sebel	-7054
MM	-7055
ley	-7056
sir	-7057
▁IF	-7058
▁RPP	-7059
▁eon	-7060
▁huf	-7061
▁keg	-7062
▁pia	-7063
▁yuk	-7064
▁IPMI	-7065
▁PTUN	-7066
▁VIII	-7067
▁emuk	-7068
▁gand	-7069
▁goya	-7070
▁inas	-7071
▁less	-7072
▁memi	-7073
▁nsya	-7074
▁onet	-7075
▁rown	-7076
▁rter	-7077
▁tana	-7078
▁udol	-7079
▁anone	-7080
▁desak	-7081
▁humas	-7082
▁intan	-7083
▁mence	-7084
▁shida	-7085
CH	-7086
rah	-7087
ras	-7088
▁82	-7089
▁NE	-7090
▁hl	-7091
▁DNA	-7092
▁Eva	-7093
▁Gra	-7094
▁KEK	-7095
▁LKP	-7096
▁aft	-7097
▁bih	-7098
▁gja	-7099
▁ird	-7100
▁nav	-7101
▁oru	-7102
▁row	-7103
▁ubl	-7104
▁Koru	-7105
▁SDGs	-7106
▁XVII	-7107
▁XXII	-7108
▁else	-7109
▁ijak	-7110
▁imul	-7111
▁irto	-7112
▁kebi	-7113
▁lanc	-7114
▁loka	-7115
▁ourt	-7116
▁rien	-7117
▁rime	-7118
▁sumo	-7119
▁ufmi	-7120
▁berba	-7121
▁ensus	-7122
▁mendo	-7123
▁nopol	-7124
HS	-7125
RS	-7126
yi	-7127
TAM	-7128
▁74	-7129
▁9,	-7130
▁DU	-7131
▁zi	-7132
▁COP	-7133
▁PIK	-7134
▁big	-7135
▁bup	-7136
▁eck	-7137
▁eva	-7138
▁tai	-7139
▁Perm	-7140
▁Tahu	-7141
▁abel	-7142
▁mann	-7143
▁ngke	-7144
▁once	-7145
▁riel	-7146
▁yaif	-7147
▁afety	-7148
▁aleri	-7149
▁caman	-7150
▁janto	-7151
▁using	-7152
CE	-7153
▁We	-7154
▁BPD	-7155
▁Hyb	-7156
▁IIB	-7157
▁Jon	-7158
▁KRI	-7159
▁iel	-7160
▁ipr	-7161
▁Moch	-7162
▁akir	-7163
▁arir	-7164
▁diha	-7165
▁ekti	-7166
▁erli	-7167
▁irby	-7168
▁olly	-7169
▁alaxy	-7170
▁ampun	-7171
▁embut	-7172
▁stika	-7173
hy	-7174
sy	-7175
lem	-7176
▁GA	-7177
▁Jr	-7178
▁BPA	-7179
▁MAK	-7180
▁MAN	-7181
▁Yon	-7182
▁aer	-7183
▁aud	-7184
▁ild	-7185
▁kue	-7186
▁lal	-7187
▁mum	-7188
▁oir	-7189
▁oup	-7190
▁AMDK	-7191
▁amit	-7192
▁elhi	-7193
▁elly	-7194
▁eron	-7195
▁iduk	-7196
▁ndil	-7197
▁ngec	-7198
▁ordi	-7199
▁osta	-7200
▁andai	-7201
▁elsea	-7202
▁ganis	-7203
CI	-7204
pp	-7205
ato	-7206
unj	-7207
▁96	-7208
▁My	-7209
▁Pd	-7210
▁ox	-7211
▁BTS	-7212
▁HTS	-7213
▁Isa	-7214
▁PAT	-7215
▁PLT	-7216
▁TKD	-7217
▁app	-7218
▁hej	-7219
▁ous	-7220
▁akaf	-7221
▁arid	-7222
▁eren	-7223
▁hono	-7224
▁iani	-7225
▁iram	-7226
▁keli	-7227
▁melu	-7228
▁mith	-7229
▁stol	-7230
▁anese	-7231
▁arman	-7232
▁bidan	-7233
▁board	-7234
▁ektur	-7235
▁smine	-7236
oh	-7237
▁NP	-7238
▁WA	-7239
▁2,3	-7240
▁Lim	-7241
▁Ses	-7242
▁aje	-7243
▁efe	-7244
▁eve	-7245
▁lte	-7246
▁nud	-7247
▁sol	-7248
▁zon	-7249
▁KPAI	-7250
▁TARA	-7251
▁UEFA	-7252
▁dika	-7253
▁ibus	-7254
▁irah	-7255
▁mund	-7256
▁stay	-7257
▁ukuh	-7258
▁wari	-7259
▁undar	-7260
Ya	-7261
rey	-7262
tek	-7263
win	-7264
▁dk	-7265
▁160	-7266
▁AMB	-7267
▁IMF	-7268
▁SEA	-7269
▁Xia	-7270
▁fon	-7271
▁gih	-7272
▁gor	-7273
▁ipu	-7274
▁kei	-7275
▁oss	-7276
▁urb	-7277
▁vil	-7278
▁yek	-7279
▁Nata	-7280
▁alem	-7281
▁alny	-7282
▁anoi	-7283
▁embo	-7284
▁idah	-7285
▁mily	-7286
▁ngsu	-7287
▁onas	-7288
▁rlih	-7289
▁rrah	-7290
▁ruar	-7291
▁sert	-7292
▁ural	-7293
▁enunj	-7294
▁guran	-7295
▁korup	-7296
▁rissa	-7297
▁yakan	-7298
▁ydney	-7299
cy	-7300
▁CG	-7301
▁DO	-7302
▁LC	-7303
▁MW	-7304
▁NS	-7305
▁Ze	-7306
▁kW	-7307
▁3,5	-7308
▁BKD	-7309
▁Oil	-7310
▁PSK	-7311
▁nun	-7312
▁rte	-7313
▁BNNP	-7314
▁asya	-7315
▁bama	-7316
▁djir	-7317
▁ezes	-7318
▁olon	-7319
▁onsi	-7320
▁rook	-7321
▁rwan	-7322
▁sada	-7323
▁tent	-7324
▁ugia	-7325
▁anras	-7326
▁ompet	-7327
▁rasio	-7328
▁swara	-7329
▁tokol	-7330
TC	-7331
▁*	-7332
▁uq	-7333
▁yg	-7334
▁1,7	-7335
▁170	-7336
▁Ama	-7337
▁BON	-7338
▁Big	-7339
▁Las	-7340
▁PSG	-7341
▁SOP	-7342
▁SUM	-7343
▁YAP	-7344
▁deo	-7345
▁eep	-7346
▁sec	-7347
▁JEMB	-7348
▁Kala	-7349
▁PAUD	-7350
▁afar	-7351
▁apuk	-7352
▁avis	-7353
▁bata	-7354
▁eger	-7355
▁gana	-7356
▁impo	-7357
▁iris	-7358
▁keja	-7359
▁lati	-7360
▁mpik	-7361
▁ndus	-7362
▁ootb	-7363
▁pemi	-7364
▁rani	-7365
▁shim	-7366
▁tone	-7367
▁annel	-7368
▁chain	-7369
▁hanty	-7370
▁..	-7371
▁89	-7372
▁ML	-7373
▁SF	-7374
▁BKS	-7375
▁CSI	-7376
▁PTS	-7377
▁TMS	-7378
▁Tes	-7379
▁Ulu	-7380
▁ahr	-7381
▁ikh	-7382
▁itr	-7383
▁ivi	-7384
▁lta	-7385
▁mri	-7386
▁rce	-7387
▁rmu	-7388
▁sab	-7389
▁uck	-7390
▁zan	-7391
▁Ketu	-7392
▁ahit	-7393
▁apua	-7394
▁caks	-7395
▁enoa	-7396
▁epal	-7397
▁epas	-7398
▁ettu	-7399
▁ezat	-7400
▁hris	-7401
▁lman	-7402
▁mili	-7403
▁rida	-7404
▁sran	-7405
▁ambir	-7406
▁honor	-7407
▁kular	-7408
▁lipat	-7409
▁ntens	-7410
▁ramat	-7411
▁trate	-7412
BO	-7413
EB	-7414
▁Ol	-7415
▁TT	-7416
▁VR	-7417
▁...	-7418
▁110	-7419
▁BCA	-7420
▁DAS	-7421
▁Lai	-7422
▁Law	-7423
▁PDT	-7424
▁TPU	-7425
▁dad	-7426
▁esm	-7427
▁kma	-7428
▁uca	-7429
▁yoy	-7430
▁alti	-7431
▁atut	-7432
▁bant	-7433
▁bela	-7434
▁dimu	-7435
▁lahi	-7436
▁osip	-7437
▁prak	-7438
▁riwi	-7439
▁tisi	-7440
▁isman	-7441
▁manik	-7442
CK	-7443
JB	-7444
NK	-7445
HCR	-7446
edi	-7447
hou	-7448
pen	-7449
zer	-7450
▁92	-7451
▁ME	-7452
▁UB	-7453
▁cy	-7454
▁130	-7455
▁3-1	-7456
▁BKI	-7457
▁FBI	-7458
▁Fun	-7459
▁KNP	-7460
▁PIS	-7461
▁SAM	-7462
▁ava	-7463
▁bre	-7464
▁cul	-7465
▁fas	-7466
▁hoi	-7467
▁iks	-7468
▁sko	-7469
▁yon	-7470
▁APAN	-7471
▁GBLA	-7472
▁PDAM	-7473
▁abri	-7474
▁ebes	-7475
▁gner	-7476
▁lisi	-7477
▁mumk	-7478
▁rmas	-7479
▁wita	-7480
▁UNHCR	-7481
▁airul	-7482
▁angsu	-7483
▁dimul	-7484
▁entah	-7485
▁mempr	-7486
▁tatan	-7487
OK	-7488
▁91	-7489
▁NC	-7490
▁UC	-7491
▁Yi	-7492
▁112	-7493
▁Gub	-7494
▁KKP	-7495
▁MLB	-7496
▁OKU	-7497
▁TAR	-7498
▁UEA	-7499
▁bro	-7500
▁kui	-7501
▁new	-7502
▁pur	-7503
▁unk	-7504
▁uya	-7505
▁KNPI	-7506
▁PMII	-7507
▁PWNU	-7508
▁edot	-7509
▁gnes	-7510
▁isum	-7511
▁loyd	-7512
▁ther	-7513
▁uram	-7514
▁utup	-7515
▁Kecam	-7516
▁bertu	-7517
▁eline	-7518
▁engan	-7519
▁ilita	-7520
▁karsa	-7521
▁laksa	-7522
BB	-7523
KS	-7524
SIP	-7525
har	-7526
ubl	-7527
▁AQ	-7528
▁SJ	-7529
▁YA	-7530
▁fw	-7531
▁350	-7532
▁ANT	-7533
▁Aep	-7534
▁doo	-7535
▁gne	-7536
▁itt	-7537
▁oer	-7538
▁thy	-7539
▁Gube	-7540
▁KSAL	-7541
▁PLTU	-7542
▁elok	-7543
▁isak	-7544
▁lame	-7545
▁mbau	-7546
▁saki	-7547
▁uisi	-7548
▁usup	-7549
▁ALIKP	-7550
▁ASSAR	-7551
▁Bante	-7552
▁antin	-7553
▁dupan	-7554
▁enung	-7555
▁rasak	-7556
▁tamin	-7557
UU	-7558
cle	-7559
▁GW	-7560
▁JU	-7561
▁yr	-7562
▁DLH	-7563
▁bok	-7564
▁ext	-7565
▁iod	-7566
▁ush	-7567
▁uso	-7568
▁Indr	-7569
▁arit	-7570
▁arot	-7571
▁arri	-7572
▁atok	-7573
▁berh	-7574
▁cean	-7575
▁edas	-7576
▁esid	-7577
▁esli	-7578
▁fina	-7579
▁gkut	-7580
▁hite	-7581
▁nalk	-7582
▁oord	-7583
▁pant	-7584
▁rawa	-7585
▁sebu	-7586
▁inner	-7587
▁siaga	-7588
▁ualit	-7589
MD	-7590
ci	-7591
▁5-	-7592
▁84	-7593
▁BG	-7594
▁BO	-7595
▁EG	-7596
▁OT	-7597
▁Ob	-7598
▁TR	-7599
▁eX	-7600
▁CAT	-7601
▁PPG	-7602
▁RSF	-7603
▁irm	-7604
▁nke	-7605
▁ody	-7606
▁rog	-7607
▁sio	-7608
▁vas	-7609
▁yik	-7610
▁alju	-7611
▁ekni	-7612
▁erad	-7613
▁irst	-7614
▁ited	-7615
▁ivre	-7616
▁kram	-7617
▁lopp	-7618
▁tens	-7619
▁tore	-7620
▁trip	-7621
▁dinya	-7622
▁ewask	-7623
▁inder	-7624
▁istra	-7625
▁lemba	-7626
▁ngkun	-7627
▁ntika	-7628
▁ricuh	-7629
▁ringa	-7630
▁yaman	-7631
BE	-7632
UI	-7633
vi	-7634
far	-7635
urt	-7636
▁EP	-7637
▁JD	-7638
▁JP	-7639
▁hw	-7640
▁Aan	-7641
▁BPP	-7642
▁BSK	-7643
▁IDS	-7644
▁alt	-7645
▁eth	-7646
▁map	-7647
▁taq	-7648
▁von	-7649
▁Kris	-7650
▁LPKR	-7651
▁MURI	-7652
▁SIER	-7653
▁arul	-7654
▁elot	-7655
▁gust	-7656
▁lawi	-7657
▁nirl	-7658
▁oney	-7659
▁ontr	-7660
▁ratu	-7661
▁rmon	-7662
▁shir	-7663
▁tind	-7664
▁ungu	-7665
▁usin	-7666
▁dekah	-7667
▁etter	-7668
▁ippon	-7669
▁itkan	-7670
▁luhur	-7671
▁lumas	-7672
▁mania	-7673
▁midah	-7674
▁ramik	-7675
▁tahil	-7676
▁terte	-7677
hur	-7678
ler	-7679
una	-7680
▁$1	-7681
▁KY	-7682
▁QR	-7683
▁1-1	-7684
▁ASR	-7685
▁Bis	-7686
▁Mer	-7687
▁Van	-7688
▁ewe	-7689
▁gau	-7690
▁gna	-7691
▁ily	-7692
▁ime	-7693
▁kse	-7694
▁osy	-7695
▁SMPN	-7696
▁abad	-7697
▁acat	-7698
▁beth	-7699
▁deni	-7700
▁elaw	-7701
▁ello	-7702
▁enye	-7703
▁erge	-7704
▁erim	-7705
▁eung	-7706
▁lock	-7707
▁logo	-7708
▁mura	-7709
▁nteg	-7710
▁oget	-7711
▁olis	-7712
▁olog	-7713
▁sain	-7714
▁udia	-7715
▁ulli	-7716
▁urga	-7717
▁zhou	-7718
▁Perda	-7719
▁andas	-7720
▁erbit	-7721
▁ivers	-7722
▁negas	-7723
▁nsume	-7724
▁persi	-7725
▁retas	-7726
▁uqman	-7727
▁usaka	-7728
bor	-7729
▁83	-7730
▁Cr	-7731
▁LL	-7732
▁Mr	-7733
▁PV	-7734
▁ww	-7735
▁Duk	-7736
▁NIC	-7737
▁PGN	-7738
▁UMS	-7739
▁UNS	-7740
▁hie	-7741
▁rch	-7742
▁uss	-7743
▁KSAD	-7744
▁TKDN	-7745
▁asto	-7746
▁buyb	-7747
▁dona	-7748
▁mban	-7749
▁olar	-7750
▁pare	-7751
▁BSKDN	-7752
▁NESCO	-7753
▁Presi	-7754
▁anuli	-7755
▁bonat	-7756
▁iakan	-7757
▁inaga	-7758
▁kriti	-7759
▁tilas	-7760
CG	-7761
VE	-7762
gen	-7763
▁Eu	-7764
▁Km	-7765
▁aq	-7766
▁hp	-7767
▁ux	-7768
▁140	-7769
▁Car	-7770
▁Mpo	-7771
▁PTN	-7772
▁Sel	-7773
▁VIP	-7774
▁ady	-7775
▁aen	-7776
▁bac	-7777
▁bka	-7778
▁enp	-7779
▁flu	-7780
▁het	-7781
▁icy	-7782
▁kej	-7783
▁oki	-7784
▁win	-7785
▁Bata	-7786
▁KCNA	-7787
▁KONI	-7788
▁Pemu	-7789
▁RUPS	-7790
▁ages	-7791
▁aldo	-7792
▁alma	-7793
▁avar	-7794
▁blem	-7795
▁dlor	-7796
▁erny	-7797
▁idul	-7798
▁ilos	-7799
▁inho	-7800
▁itte	-7801
▁kepa	-7802
▁kila	-7803
▁lanj	-7804
▁ones	-7805
▁saka	-7806
▁usum	-7807
▁FISIP	-7808
▁Merek	-7809
▁airah	-7810
▁break	-7811
▁elind	-7812
▁likar	-7813
▁nnedy	-7814
▁selam	-7815
▁sendi	-7816
▁ulliv	-7817
LP	-7818
umi	-7819
▁93	-7820
▁GJ	-7821
▁HB	-7822
▁JS	-7823
▁Of	-7824
▁Th	-7825
▁1,3	-7826
▁Ana	-7827
▁IRI	-7828
▁Sol	-7829
▁buh	-7830
▁iwi	-7831
▁mbi	-7832
▁uwa	-7833
▁PTFI	-7834
▁ager	-7835
▁atun	-7836
▁ball	-7837
▁care	-7838
▁eker	-7839
▁esia	-7840
▁ggot	-7841
▁hali	-7842
▁ibar	-7843
▁mdan	-7844
▁napi	-7845
▁pont	-7846
▁tant	-7847
▁tern	-7848
▁aidah	-7849
▁ancis	-7850
▁bitat	-7851
▁elati	-7852
▁imtek	-7853
▁melar	-7854
▁ploso	-7855
▁raton	-7856
HN	-7857
vo	-7858
KBN	-7859
ike	-7860
ret	-7861
▁GK	-7862
▁KJ	-7863
▁Wh	-7864
▁lj	-7865
▁125	-7866
▁DWP	-7867
▁Eco	-7868
▁ICW	-7869
▁PAM	-7870
▁Pdt	-7871
▁SER	-7872
▁WIT	-7873
▁ayy	-7874
▁bru	-7875
▁jon	-7876
▁lag	-7877
▁oth	-7878
▁otu	-7879
▁rca	-7880
▁Satu	-7881
▁UPTD	-7882
▁XIII	-7883
▁abun	-7884
▁akul	-7885
▁bina	-7886
▁eera	-7887
▁eluk	-7888
▁enni	-7889
▁inah	-7890
▁isol	-7891
▁iste	-7892
▁iyan	-7893
▁lent	-7894
▁ller	-7895
▁mank	-7896
▁neri	-7897
▁rino	-7898
▁ryan	-7899
▁spar	-7900
▁ulas	-7901
▁NICEF	-7902
▁allas	-7903
▁arkiv	-7904
▁endor	-7905
▁imoen	-7906
▁ising	-7907
▁konom	-7908
19	-7909
GJ	-7910
LS	-7911
be	-7912
td	-7913
▁é	-7914
aki	-7915
ome	-7916
▁CB	-7917
▁Ce	-7918
▁HG	-7919
▁HK	-7920
▁LD	-7921
▁RF	-7922
▁WT	-7923
▁0,5	-7924
▁2-0	-7925
▁Aga	-7926
▁Gan	-7927
▁Ijo	-7928
▁Jem	-7929
▁MKD	-7930
▁MRT	-7931
▁TER	-7932
▁Ton	-7933
▁Xin	-7934
▁akw	-7935
▁dkk	-7936
▁eif	-7937
▁laj	-7938
▁mka	-7939
▁ndr	-7940
▁ude	-7941
▁www	-7942
▁yok	-7943
▁BALI	-7944
▁Link	-7945
▁Subi	-7946
▁acik	-7947
▁anna	-7948
▁arie	-7949
▁baum	-7950
▁boks	-7951
▁boro	-7952
▁drus	-7953
▁isel	-7954
▁keca	-7955
▁kpol	-7956
▁layu	-7957
▁naan	-7958
▁nack	-7959
▁nali	-7960
▁onia	-7961
▁orem	-7962
▁thio	-7963
▁tima	-7964
▁uhur	-7965
▁yiah	-7966
▁ynch	-7967
▁BKKBN	-7968
▁anuar	-7969
▁erdam	-7970
▁iklon	-7971
▁irana	-7972
▁smita	-7973
▁untik	-7974
▁upply	-7975
DH	-7976
EH	-7977
UA	-7978
ix	-7979
zo	-7980
ito	-7981
▁86	-7982
▁Fr	-7983
▁LE	-7984
▁Oh	-7985
▁1,2	-7986
▁1-2	-7987
▁180	-7988
▁450	-7989
▁900	-7990
▁AWK	-7991
▁BEM	-7992
▁DAR	-7993
▁Plh	-7994
▁UIP	-7995
▁dhi	-7996
▁eke	-7997
▁ery	-7998
▁gio	-7999
▁mba	-8000
▁ois	-8001
▁sie	-8002
▁GJAW	-8003
▁Nasi	-8004
▁PLTS	-8005
▁SPKT	-8006
▁elvy	-8007
▁enez	-8008
▁ette	-8009
▁fsir	-8010
▁gnar	-8011
▁imam	-8012
▁ncap	-8013
▁owan	-8014
▁romi	-8015
▁rtaw	-8016
▁snia	-8017
▁sron	-8018
▁ulin	-8019
▁anter	-8020
▁asser	-8021
▁brina	-8022
▁kenai	-8023
▁ranta	-8024
▁sekto	-8025
BK	-8026
are	-8027
▁0.	-8028
▁CE	-8029
▁ET	-8030
▁JM	-8031
▁MY	-8032
▁OL	-8033
▁WO	-8034
▁2-1	-8035
▁APP	-8036
▁Boy	-8037
▁DAX	-8038
▁Fed	-8039
▁GRO	-8040
▁JIE	-8041
▁KPR	-8042
▁Kia	-8043
▁Mia	-8044
▁NIK	-8045
▁Nah	-8046
▁Non	-8047
▁PDN	-8048
▁PIN	-8049
▁PKL	-8050
▁aal	-8051
▁amm	-8052
▁aqu	-8053
▁iaz	-8054
▁idd	-8055
▁lew	-8056
▁obs	-8057
▁rou	-8058
▁yor	-8059
▁ARIS	-8060
▁LKPI	-8061
▁ODGJ	-8062
▁dakw	-8063
▁damp	-8064
▁emur	-8065
▁enen	-8066
▁erly	-8067
▁erni	-8068
▁esse	-8069
▁idea	-8070
▁into	-8071
▁kuan	-8072
▁naut	-8073
▁ncak	-8074
▁rona	-8075
▁shel	-8076
▁unei	-8077
▁usur	-8078
▁abire	-8079
▁ahaan	-8080
▁elsen	-8081
▁melan	-8082
▁nggun	-8083
▁usumo	-8084
▁warta	-8085
16	-8086
GA	-8087
SS	-8088
▁ü	-8089
FIL	-8090
▁AV	-8091
▁DT	-8092
▁FN	-8093
▁RN	-8094
▁2-3	-8095
▁Dae	-8096
▁Eky	-8097
▁Jas	-8098
▁KTM	-8099
▁MAS	-8100
▁NIP	-8101
▁SAW	-8102
▁SDA	-8103
▁Umi	-8104
▁box	-8105
▁hio	-8106
▁irt	-8107
▁itb	-8108
▁jiw	-8109
▁laf	-8110
▁mac	-8111
▁ohi	-8112
▁pom	-8113
▁skr	-8114
▁uam	-8115
▁PTDH	-8116
▁alid	-8117
▁anam	-8118
▁awaw	-8119
▁bias	-8120
▁elak	-8121
▁elik	-8122
▁garo	-8123
▁itah	-8124
▁kapi	-8125
▁kend	-8126
▁lust	-8127
▁nnya	-8128
▁trid	-8129
▁utya	-8130
▁vaku	-8131
▁warn	-8132
▁ynth	-8133
▁Kanto	-8134
▁NIFIL	-8135
▁arkam	-8136
▁arsip	-8137
▁chine	-8138
▁eraka	-8139
▁erupa	-8140
▁iaman	-8141
▁panta	-8142
▁risma	-8143
AU	-8144
les	-8145
▁(5	-8146
▁HA	-8147
▁RR	-8148
▁VP	-8149
▁nl	-8150
▁nr	-8151
▁CHT	-8152
▁CNN	-8153
▁Cut	-8154
▁IAP	-8155
▁Lap	-8156
▁NBA	-8157
▁Taj	-8158
▁UFC	-8159
▁Way	-8160
▁eee	-8161
▁iff	-8162
▁msi	-8163
▁omw	-8164
▁smi	-8165
▁wee	-8166
▁DLHK	-8167
▁INDA	-8168
▁IRGC	-8169
▁PSMS	-8170
▁Peme	-8171
▁aing	-8172
▁aper	-8173
▁aren	-8174
▁ento	-8175
▁iatu	-8176
▁ibia	-8177
▁ikah	-8178
▁illi	-8179
▁just	-8180
▁milu	-8181
▁nimb	-8182
▁rdir	-8183
▁uatu	-8184
▁waru	-8185
▁dinat	-8186
▁erser	-8187
▁gerus	-8188
▁ierre	-8189
▁menja	-8190
▁olten	-8191
▁oumas	-8192
▁perat	-8193
▁prakt	-8194
▁undry	-8195
nu	-8196
yn	-8197
MAK	-8198
jan	-8199
urg	-8200
ust	-8201
▁GO	-8202
▁Nm	-8203
▁tz	-8204
▁DKJ	-8205
▁Ika	-8206
▁Jus	-8207
▁OSO	-8208
▁PJU	-8209
▁RSU	-8210
▁aar	-8211
▁cik	-8212
▁duo	-8213
▁erf	-8214
▁fac	-8215
▁kho	-8216
▁lme	-8217
▁not	-8218
▁obl	-8219
▁Moon	-8220
▁akao	-8221
▁atih	-8222
▁ebur	-8223
▁emis	-8224
▁enan	-8225
▁heng	-8226
▁holz	-8227
▁ijat	-8228
▁lisa	-8229
▁list	-8230
▁ndur	-8231
▁nego	-8232
▁ruma	-8233
▁solu	-8234
▁tuli	-8235
▁ubuk	-8236
▁aenal	-8237
▁ahari	-8238
▁colas	-8239
▁ecret	-8240
▁ersus	-8241
▁imble	-8242
▁mangg	-8243
▁marga	-8244
▁selek	-8245
▁udrey	-8246
JA	-8247
PM	-8248
UB	-8249
KPD	-8250
▁(4	-8251
▁CR	-8252
▁FW	-8253
▁MF	-8254
▁Oj	-8255
▁WF	-8256
▁WS	-8257
▁yc	-8258
▁yp	-8259
▁50%	-8260
▁ISO	-8261
▁NOA	-8262
▁UPN	-8263
▁cin	-8264
▁llo	-8265
▁ndu	-8266
▁nea	-8267
▁sch	-8268
▁ATAM	-8269
▁GRES	-8270
▁Yeol	-8271
▁aeda	-8272
▁anty	-8273
▁batu	-8274
▁east	-8275
▁elis	-8276
▁enia	-8277
▁gnet	-8278
▁hena	-8279
▁ingi	-8280
▁ipin	-8281
▁isio	-8282
▁kong	-8283
▁misa	-8284
▁nday	-8285
▁obor	-8286
▁oeto	-8287
▁ofia	-8288
▁pulu	-8289
▁rabo	-8290
▁race	-8291
▁road	-8292
▁sara	-8293
▁skin	-8294
▁tudy	-8295
▁ulut	-8296
▁usir	-8297
▁LGBTQ	-8298
▁SAMAR	-8299
▁adian	-8300
▁bubur	-8301
▁endek	-8302
▁enkum	-8303
▁galan	-8304
▁gkung	-8305
▁iband	-8306
▁nagih	-8307
▁opher	-8308
▁plika	-8309
▁timah	-8310
gy	-8311
zu	-8312
KIN	-8313
hol	-8314
▁CM	-8315
▁ED	-8316
▁TL	-8317
▁rz	-8318
▁20%	-8319
▁240	-8320
▁BAC	-8321
▁BKC	-8322
▁JIS	-8323
▁KPI	-8324
▁KWK	-8325
▁LED	-8326
▁Liu	-8327
▁Ltd	-8328
▁MAD	-8329
▁Ode	-8330
▁PKI	-8331
▁PKN	-8332
▁PPU	-8333
▁Pat	-8334
▁YoY	-8335
▁aht	-8336
▁eed	-8337
▁hdi	-8338
▁loh	-8339
▁nzo	-8340
▁rua	-8341
▁ubj	-8342
▁uff	-8343
▁unn	-8344
▁ANYU	-8345
▁ARJO	-8346
▁BKPM	-8347
▁Isra	-8348
▁SIDO	-8349
▁SMRC	-8350
▁Solo	-8351
▁ahra	-8352
▁alar	-8353
▁alus	-8354
▁angu	-8355
▁asur	-8356
▁atul	-8357
▁disi	-8358
▁eira	-8359
▁embi	-8360
▁hohi	-8361
▁jawa	-8362
▁kuid	-8363
▁kurs	-8364
▁labu	-8365
▁naya	-8366
▁njab	-8367
▁paka	-8368
▁plat	-8369
▁riil	-8370
▁risa	-8371
▁sobo	-8372
▁tras	-8373
▁urov	-8374
▁wich	-8375
▁andur	-8376
▁apitu	-8377
▁dinah	-8378
▁hinta	-8379
▁ingka	-8380
▁ismil	-8381
▁mbern	-8382
▁mpera	-8383
▁pelan	-8384
▁perso	-8385
▁rgant	-8386
▁umham	-8387
▁unita	-8388
▁uyung	-8389
RP	-8390
VA	-8391
uw	-8392
we	-8393
oki	-8394
usu	-8395
▁OC	-8396
▁155	-8397
▁AHM	-8398
▁BAP	-8399
▁BEI	-8400
▁Hum	-8401
▁IUP	-8402
▁Jun	-8403
▁KKN	-8404
▁KSP	-8405
▁KUA	-8406
▁McC	-8407
▁RAP	-8408
▁SSC	-8409
▁ett	-8410
▁far	-8411
▁ktr	-8412
▁mst	-8413
▁nay	-8414
▁ope	-8415
▁vit	-8416
▁yel	-8417
▁BPKH	-8418
▁Ment	-8419
▁Moto	-8420
▁Thai	-8421
▁Zoom	-8422
▁aitu	-8423
▁asut	-8424
▁ejat	-8425
▁elbo	-8426
▁eldi	-8427
▁hort	-8428
▁ilia	-8429
▁irat	-8430
▁look	-8431
▁luyo	-8432
▁mass	-8433
▁onic	-8434
▁opan	-8435
▁opes	-8436
▁otul	-8437
▁pete	-8438
▁pita	-8439
▁toar	-8440
▁trib	-8441
▁ugar	-8442
▁yato	-8443
▁Ganja	-8444
▁barga	-8445
▁eling	-8446
▁engin	-8447
▁ineas	-8448
▁ofyan	-8449
▁sumah	-8450
▁ubung	-8451
SN	-8452
bol	-8453
und	-8454
unt	-8455
ure	-8456
▁(7	-8457
▁CH	-8458
▁IW	-8459
▁JF	-8460
▁mn	-8461
▁1,4	-8462
▁DJP	-8463
▁IMI	-8464
▁Iya	-8465
▁Lig	-8466
▁Mos	-8467
▁PAC	-8468
▁SME	-8469
▁TOP	-8470
▁TPG	-8471
▁anp	-8472
▁eha	-8473
▁eid	-8474
▁eji	-8475
▁hmo	-8476
▁max	-8477
▁yno	-8478
▁zal	-8479
▁Pres	-8480
▁Prov	-8481
▁RUMI	-8482
▁SPBE	-8483
▁abot	-8484
▁afis	-8485
▁ardo	-8486
▁edes	-8487
▁endr	-8488
▁enol	-8489
▁haka	-8490
▁hima	-8491
▁hira	-8492
▁ilal	-8493
▁inak	-8494
▁mron	-8495
▁nhil	-8496
▁orte	-8497
▁orto	-8498
▁pide	-8499
▁srat	-8500
▁subs	-8501
▁syik	-8502
▁trak	-8503
▁tsus	-8504
▁unas	-8505
▁utro	-8506
▁BKSDA	-8507
▁DEMAK	-8508
▁amban	-8509
▁ebang	-8510
▁emaha	-8511
▁erasi	-8512
▁milia	-8513
▁nstru	-8514
▁paham	-8515
▁pukat	-8516
▁riang	-8517
-7	-8518
all	-8519
ora	-8520
▁(6	-8521
▁DD	-8522
▁DN	-8523
▁FT	-8524
▁HN	-8525
▁LM	-8526
▁OM	-8527
▁Om	-8528
▁UA	-8529
▁zz	-8530
▁1,1	-8531
▁60%	-8532
▁80%	-8533
▁DBH	-8534
▁Dew	-8535
▁Jet	-8536
▁Oki	-8537
▁Ono	-8538
▁Pun	-8539
▁exy	-8540
▁hij	-8541
▁lwi	-8542
▁mpl	-8543
▁BPPD	-8544
▁IIMS	-8545
▁IPDN	-8546
▁MMEA	-8547
▁PPPA	-8548
▁aily	-8549
▁apuh	-8550
▁ehid	-8551
▁elif	-8552
▁enja	-8553
▁ever	-8554
▁giur	-8555
▁gong	-8556
▁iong	-8557
▁irza	-8558
▁itab	-8559
▁itek	-8560
▁itha	-8561
▁koro	-8562
▁lkan	-8563
▁luit	-8564
▁lwan	-8565
▁madu	-8566
▁ndim	-8567
▁nies	-8568
▁nimo	-8569
▁nyan	-8570
▁otte	-8571
▁peda	-8572
▁perb	-8573
▁pong	-8574
▁rsan	-8575
▁tina	-8576
▁tomo	-8577
▁uddi	-8578
▁wasi	-8579
▁INDRA	-8580
▁SPKLU	-8581
▁adget	-8582
▁batan	-8583
▁bernu	-8584
▁digma	-8585
▁eneng	-8586
▁esota	-8587
▁illem	-8588
▁ittee	-8589
▁lokan	-8590
▁mbala	-8591
▁nafsu	-8592
▁nakal	-8593
▁nakes	-8594
▁radis	-8595
▁rapto	-8596
▁shire	-8597
▁umfor	-8598
▁uring	-8599
TR	-8600
of	-8601
▁=	-8602
OGO	-8603
los	-8604
omi	-8605
▁Es	-8606
▁TE	-8607
▁UL	-8608
▁VV	-8609
▁Vo	-8610
MKSI	-8611
▁CVC	-8612
▁DPN	-8613
▁Duo	-8614
▁ITA	-8615
▁MNC	-8616
▁Sei	-8617
▁UPI	-8618
▁azi	-8619
▁eaf	-8620
▁eis	-8621
▁iem	-8622
▁kuh	-8623
▁moh	-8624
▁ncu	-8625
▁oek	-8626
▁oik	-8627
▁ott	-8628
▁reb	-8629
▁ref	-8630
▁uay	-8631
▁yud	-8632
▁AQUA	-8633
▁abit	-8634
▁akum	-8635
▁ancy	-8636
▁bada	-8637
▁elin	-8638
▁epit	-8639
▁flix	-8640
▁gemp	-8641
▁ifah	-8642
▁ismo	-8643
▁ixon	-8644
▁kere	-8645
▁loso	-8646
▁mlan	-8647
▁nadi	-8648
▁ncat	-8649
▁ngad	-8650
▁rase	-8651
▁slam	-8652
▁snya	-8653
▁sono	-8654
▁tolo	-8655
▁ukka	-8656
▁MMKSI	-8657
▁Penda	-8658
▁agoan	-8659
▁ambun	-8660
▁arlah	-8661
▁berbe	-8662
▁dirin	-8663
▁nyusu	-8664
▁rimea	-8665
JT	-8666
wu	-8667
eno	-8668
ked	-8669
▁5%	-8670
▁AY	-8671
▁FM	-8672
▁FX	-8673
▁IL	-8674
▁LU	-8675
▁SG	-8676
▁4,5	-8677
▁Aba	-8678
▁FEB	-8679
▁HPP	-8680
▁KED	-8681
▁LIB	-8682
▁MBG	-8683
▁MTQ	-8684
▁McD	-8685
▁Obj	-8686
▁VAR	-8687
▁Wei	-8688
▁col	-8689
▁dju	-8690
▁dug	-8691
▁ewu	-8692
▁haz	-8693
▁inu	-8694
▁jai	-8695
▁mma	-8696
▁niv	-8697
▁oky	-8698
▁she	-8699
▁urv	-8700
▁yle	-8701
▁alhi	-8702
▁aluk	-8703
▁anet	-8704
▁anre	-8705
▁dliy	-8706
▁emin	-8707
▁goen	-8708
▁ilmy	-8709
▁ipas	-8710
▁itme	-8711
▁lose	-8712
▁ompl	-8713
▁rbun	-8714
▁reku	-8715
▁rose	-8716
▁sena	-8717
▁smin	-8718
▁tira	-8719
▁ubik	-8720
▁uras	-8721
▁wing	-8722
▁PURWA	-8723
▁Pelat	-8724
▁endak	-8725
▁engam	-8726
▁engaw	-8727
▁ganda	-8728
▁perka	-8729
▁ripda	-8730
▁shiba	-8731
▁taqin	-8732
▁torus	-8733
▁undan	-8734
CM	-8735
ac	-8736
LAK	-8737
ech	-8738
sis	-8739
▁FO	-8740
▁GG	-8741
▁bt	-8742
▁lh	-8743
▁1-3	-8744
▁10,	-8745
▁360	-8746
▁GCG	-8747
▁JAR	-8748
▁Jul	-8749
▁KIA	-8750
▁KMP	-8751
▁Mao	-8752
▁PEN	-8753
▁TMI	-8754
▁auk	-8755
▁bip	-8756
▁ift	-8757
▁jas	-8758
▁kaf	-8759
▁kte	-8760
▁och	-8761
▁ogy	-8762
▁qsa	-8763
▁quo	-8764
▁BAIC	-8765
▁Kalt	-8766
▁PLTN	-8767
▁VVIP	-8768
▁akes	-8769
▁alit	-8770
▁amur	-8771
▁asek	-8772
▁atmo	-8773
▁doko	-8774
▁doro	-8775
▁ebel	-8776
▁iksi	-8777
▁ikul	-8778
▁leix	-8779
▁muju	-8780
▁nber	-8781
▁ngen	-8782
▁olik	-8783
▁ondi	-8784
▁oret	-8785
▁oyke	-8786
▁reak	-8787
▁rwah	-8788
▁ulsa	-8789
▁akule	-8790
▁aulay	-8791
▁edana	-8792
▁hanie	-8793
▁iliun	-8794
▁inist	-8795
▁inmas	-8796
▁intim	-8797
▁mount	-8798
▁nghad	-8799
▁nihil	-8800
▁semak	-8801
▁tarum	-8802
▁ultur	-8803
AK	-8804
KM	-8805
ide	-8806
ild	-8807
int	-8808
▁5.	-8809
▁97	-8810
▁CT	-8811
▁Qi	-8812
▁RH	-8813
▁XL	-8814
▁YS	-8815
▁kk	-8816
▁pt	-8817
▁(3)	-8818
▁30%	-8819
▁BLI	-8820
▁DBL	-8821
▁ISS	-8822
▁KUR	-8823
▁Nia	-8824
▁PET	-8825
▁PPh	-8826
▁PUS	-8827
▁RPH	-8828
▁SAF	-8829
▁STI	-8830
▁TDC	-8831
▁XPO	-8832
▁akt	-8833
▁dao	-8834
▁exi	-8835
▁mie	-8836
▁ngu	-8837
▁now	-8838
▁oon	-8839
▁oos	-8840
▁pih	-8841
▁rsu	-8842
▁sri	-8843
▁tet	-8844
▁yte	-8845
▁ACEH	-8846
▁Angg	-8847
▁DJKA	-8848
▁IAEA	-8849
▁UIKA	-8850
▁agat	-8851
▁agir	-8852
▁asha	-8853
▁bsah	-8854
▁eppy	-8855
▁erpe	-8856
▁ider	-8857
▁idha	-8858
▁iger	-8859
▁isya	-8860
▁ixed	-8861
▁nich	-8862
▁nola	-8863
▁obel	-8864
▁orer	-8865
▁rine	-8866
▁slim	-8867
▁sode	-8868
▁udes	-8869
▁uktu	-8870
▁unat	-8871
▁vide	-8872
▁ANGKA	-8873
▁adewa	-8874
▁antet	-8875
▁azair	-8876
▁buhan	-8877
▁ebrak	-8878
▁eller	-8879
▁erawa	-8880
▁factu	-8881
▁iguna	-8882
▁ktato	-8883
▁manul	-8884
▁naker	-8885
▁netra	-8886
▁sedan	-8887
▁terja	-8888
GO	-8889
MN	-8890
nd	-8891
ov	-8892
JPH	-8893
hia	-8894
ner	-8895
zec	-8896
▁Dz	-8897
▁JC	-8898
▁WN	-8899
▁114	-8900
▁135	-8901
▁70%	-8902
▁BBP	-8903
▁BLK	-8904
▁BPR	-8905
▁BUL	-8906
▁Bay	-8907
▁Bom	-8908
▁CPO	-8909
▁Hub	-8910
▁INA	-8911
▁IPW	-8912
▁PAL	-8913
▁PDR	-8914
▁SLB	-8915
▁SPA	-8916
▁Sai	-8917
▁Sud	-8918
▁dly	-8919
▁hou	-8920
▁iOS	-8921
▁ibe	-8922
▁joe	-8923
▁oby	-8924
▁oom	-8925
▁pka	-8926
▁qil	-8927
▁rey	-8928
▁spe	-8929
▁AIDS	-8930
▁NUSA	-8931
▁ajut	-8932
▁ayne	-8933
▁colo	-8934
▁deau	-8935
▁elki	-8936
▁engh	-8937
▁food	-8938
▁gaul	-8939
▁isto	-8940
▁lear	-8941
▁mpit	-8942
▁ober	-8943
▁oiko	-8944
▁oria	-8945
▁otan	-8946
▁pote	-8947
▁publ	-8948
▁stia	-8949
▁suar	-8950
▁suru	-8951
▁udhi	-8952
▁ular	-8953
▁utte	-8954
▁BPJPH	-8955
▁abang	-8956
▁andum	-8957
▁arina	-8958
▁budak	-8959
▁diter	-8960
▁elaku	-8961
▁emara	-8962
▁erdon	-8963
▁ezzec	-8964
▁iddle	-8965
▁kukuh	-8966
▁natal	-8967
▁ramil	-8968
▁sekal	-8969
▁ubhol	-8970
▁ubjek	-8971
1,	-8972
BM	-8973
OC	-8974
▁°	-8975
ame	-8976
chi	-8977
lis	-8978
▁BR	-8979
▁Hj	-8980
▁UD	-8981
▁UW	-8982
▁Ur	-8983
▁YI	-8984
▁1,8	-8985
▁115	-8986
▁12%	-8987
▁12,	-8988
▁40%	-8989
▁5,2	-8990
▁750	-8991
▁AHU	-8992
▁AKI	-8993
▁BPT	-8994
▁Bio	-8995
▁Ega	-8996
▁Isi	-8997
▁Mac	-8998
▁Mat	-8999
▁SKK	-9000
▁WFP	-9001
▁bed	-9002
▁esp	-9003
▁hza	-9004
▁isè	-9005
▁lud	-9006
▁omz	-9007
▁rda	-9008
▁sni	-9009
▁som	-9010
▁tad	-9011
▁ugo	-9012
▁wij	-9013
▁yod	-9014
▁BSSN	-9015
▁DUNG	-9016
▁HLAK	-9017
▁LPDP	-9018
▁MAKI	-9019
▁PKPU	-9020
▁TMII	-9021
▁aquf	-9022
▁dore	-9023
▁ebam	-9024
▁ecar	-9025
▁elvi	-9026
▁etra	-9027
▁gnec	-9028
▁irup	-9029
▁jaib	-9030
▁laah	-9031
▁mane	-9032
▁oeld	-9033
▁ries	-9034
▁rits	-9035
▁rsih	-9036
▁surv	-9037
▁tiek	-9038
▁town	-9039
▁ucun	-9040
▁udak	-9041
▁ulap	-9042
▁umta	-9043
▁uria	-9044
▁usar	-9045
▁wani	-9046
▁Karen	-9047
▁agasi	-9048
▁araka	-9049
▁argon	-9050
▁artis	-9051
▁emurr	-9052
▁holar	-9053
▁konek	-9054
▁nakho	-9055
▁ontak	-9056
▁parta	-9057
▁ttery	-9058
EE	-9059
FF	-9060
VO	-9061
VS	-9062
ii	-9063
rt	-9064
MBG	-9065
ano	-9066
ite	-9067
wei	-9068
▁BW	-9069
▁HD	-9070
▁LH	-9071
▁YP	-9072
▁bh	-9073
▁cs	-9074
▁102	-9075
▁103	-9076
▁6,9	-9077
▁ARI	-9078
▁Buk	-9079
▁CFD	-9080
▁ESQ	-9081
▁FIF	-9082
▁FWD	-9083
▁Gak	-9084
▁IBH	-9085
▁Ong	-9086
▁Son	-9087
▁WTP	-9088
▁ahn	-9089
▁hur	-9090
▁itn	-9091
▁jaj	-9092
▁kWh	-9093
▁mro	-9094
▁naz	-9095
▁rra	-9096
▁urq	-9097
▁zak	-9098
▁BULE	-9099
▁LENG	-9100
▁Last	-9101
▁Sebe	-9102
▁UIPM	-9103
▁airs	-9104
▁aluw	-9105
▁angg	-9106
▁azda	-9107
▁cung	-9108
▁elay	-9109
▁elur	-9110
▁eris	-9111
▁esut	-9112
▁gamb	-9113
▁gnat	-9114
▁ilei	-9115
▁irga	-9116
▁lara	-9117
▁lodo	-9118
▁maya	-9119
▁mitr	-9120
▁ough	-9121
▁ovie	-9122
▁peka	-9123
▁rger	-9124
▁rias	-9125
▁ritz	-9126
▁rium	-9127
▁rnas	-9128
▁roki	-9129
▁ruah	-9130
▁stal	-9131
▁stis	-9132
▁tapa	-9133
▁trit	-9134
▁tten	-9135
▁tyas	-9136
▁uput	-9137
▁utur	-9138
▁waty	-9139
▁yomo	-9140
▁INANG	-9141
▁PUSAT	-9142
▁alung	-9143
▁aufal	-9144
▁briel	-9145
▁eneca	-9146
▁ermai	-9147
▁menta	-9148
▁nadah	-9149
▁nanas	-9150
▁ncini	-9151
▁ortel	-9152
▁pessy	-9153
▁rowth	-9154
▁rwana	-9155
▁selir	-9156
▁shima	-9157
▁tabol	-9158
▁tersa	-9159
▁udong	-9160
▁yanti	-9161
SE	-9162
op	-9163
vy	-9164
bot	-9165
ess	-9166
▁JL	-9167
▁JN	-9168
▁Wu	-9169
▁113	-9170
▁20,	-9171
▁3-2	-9172
▁5,5	-9173
▁CBP	-9174
▁Fan	-9175
▁GAM	-9176
▁IKM	-9177
▁IOC	-9178
▁IPM	-9179
▁JUR	-9180
▁KPM	-9181
▁MGM	-9182
▁Mah	-9183
▁Ops	-9184
▁REU	-9185
▁SAI	-9186
▁SNI	-9187
▁SPI	-9188
▁TPT	-9189
▁UII	-9190
▁USS	-9191
▁cho	-9192
▁ely	-9193
▁gno	-9194
▁job	-9195
▁kav	-9196
▁loc	-9197
▁nri	-9198
▁uly	-9199
▁CIAN	-9200
▁FHUI	-9201
▁FKUB	-9202
▁KCIC	-9203
▁LDII	-9204
▁NOAH	-9205
▁TERS	-9206
▁ajal	-9207
▁bies	-9208
▁buta	-9209
▁dala	-9210
▁echo	-9211
▁emut	-9212
▁etop	-9213
▁gina	-9214
▁goda	-9215
▁hrir	-9216
▁iban	-9217
▁idan	-9218
▁irai	-9219
▁iton	-9220
▁labo	-9221
▁link	-9222
▁loch	-9223
▁ndan	-9224
▁ndom	-9225
▁ngon	-9226
▁ntim	-9227
▁oard	-9228
▁olat	-9229
▁phia	-9230
▁rcia	-9231
▁rdju	-9232
▁ried	-9233
▁ruth	-9234
▁shot	-9235
▁stur	-9236
▁tuka	-9237
▁ubak	-9238
▁upon	-9239
▁wana	-9240
▁yany	-9241
▁yomi	-9242
▁zola	-9243
▁PVMBG	-9244
▁Pembe	-9245
▁apper	-9246
▁dakim	-9247
▁ebres	-9248
▁enari	-9249
▁halie	-9250
▁hilal	-9251
▁irama	-9252
▁isney	-9253
▁iting	-9254
▁kibar	-9255
▁lilin	-9256
▁oppen	-9257
▁orgol	-9258
▁rthur	-9259
▁solok	-9260
▁tasia	-9261
▁ursus	-9262
).	-9263
-8	-9264
AC	-9265
BD	-9266
LH	-9267
ct	-9268
SIS	-9269
ban	-9270
bin	-9271
ily	-9272
kes	-9273
use	-9274
▁MV	-9275
▁ZA	-9276
▁cl	-9277
▁02,	-9278
▁10%	-9279
▁3,2	-9280
▁ACC	-9281
▁ADA	-9282
▁AJI	-9283
▁EVP	-9284
▁FKS	-9285
▁Flu	-9286
▁HAN	-9287
▁IAS	-9288
▁IMA	-9289
▁IOH	-9290
▁Keu	-9291
▁Off	-9292
▁PTI	-9293
▁SCU	-9294
▁SPS	-9295
▁SRU	-9296
▁TAP	-9297
▁TBC	-9298
▁Zon	-9299
▁aib	-9300
▁dol	-9301
▁eil	-9302
▁eun	-9303
▁heu	-9304
▁iaw	-9305
▁lma	-9306
▁nnu	-9307
▁rav	-9308
▁rew	-9309
▁tih	-9310
▁tma	-9311
▁utt	-9312
▁ARCI	-9313
▁HULU	-9314
▁Meet	-9315
▁PNBP	-9316
▁PPLN	-9317
▁PPRT	-9318
▁TNBT	-9319
▁abut	-9320
▁aslu	-9321
▁atty	-9322
▁atua	-9323
▁bana	-9324
▁bita	-9325
▁blet	-9326
▁ejan	-9327
▁elli	-9328
▁gaet	-9329
▁hent	-9330
▁hoal	-9331
▁ined	-9332
▁irun	-9333
▁lare	-9334
▁lona	-9335
▁mbuk	-9336
▁obes	-9337
▁okky	-9338
▁oles	-9339
▁rito	-9340
▁rmen	-9341
▁rsai	-9342
▁rson	-9343
▁rtam	-9344
▁rten	-9345
▁uhid	-9346
▁usma	-9347
▁yteD	-9348
▁yung	-9349
▁alela	-9350
▁anrem	-9351
▁ayyip	-9352
▁dilah	-9353
▁ekank	-9354
▁ensen	-9355
▁goyah	-9356
▁indai	-9357
▁kobar	-9358
▁licot	-9359
▁mpong	-9360
▁oirul	-9361
▁oline	-9362
▁ombol	-9363
▁patan	-9364
▁rasto	-9365
▁ronco	-9366
▁sther	-9367
▁suara	-9368
▁urunk	-9369
▁usana	-9370
▁ville	-9371
%.	-9372
VI	-9373
YO	-9374
ev	-9375
ig	-9376
ALI	-9377
TUL	-9378
ino	-9379
▁6.	-9380
▁NZ	-9381
▁RJ	-9382
▁ml	-9383
▁tv	-9384
▁01,	-9385
▁105	-9386
▁BBN	-9387
▁CIS	-9388
▁DKP	-9389
▁GAN	-9390
▁GRC	-9391
▁IVF	-9392
▁KJM	-9393
▁MAR	-9394
▁PUI	-9395
▁RDP	-9396
▁SVP	-9397
▁Sed	-9398
▁Sit	-9399
▁TBS	-9400
▁etr	-9401
▁ids	-9402
▁iek	-9403
▁lba	-9404
▁maf	-9405
▁mne	-9406
▁mta	-9407
▁oem	-9408
▁tew	-9409
▁yaf	-9410
▁yna	-9411
▁yri	-9412
▁IMUR	-9413
▁KJRI	-9414
▁LPEI	-9415
▁PSHT	-9416
▁RPJM	-9417
▁amma	-9418
▁artu	-9419
▁asio	-9420
▁asul	-9421
▁deco	-9422
▁ebti	-9423
▁ergu	-9424
▁ermo	-9425
▁ewis	-9426
▁habi	-9427
▁hane	-9428
▁idie	-9429
▁inha	-9430
▁ipar	-9431
▁isku	-9432
▁issa	-9433
▁jukk	-9434
▁kesu	-9435
▁koso	-9436
▁lade	-9437
▁mali	-9438
▁meri	-9439
▁mine	-9440
▁mpet	-9441
▁nere	-9442
▁nser	-9443
▁olas	-9444
▁pedi	-9445
▁rhas	-9446
▁seba	-9447
▁titu	-9448
▁tuti	-9449
▁uadi	-9450
▁ubun	-9451
▁uild	-9452
▁ukus	-9453
▁ANTUL	-9454
▁arfur	-9455
▁diser	-9456
▁duate	-9457
▁enden	-9458
▁etung	-9459
▁gangk	-9460
▁incin	-9461
▁kamla	-9462
▁kanak	-9463
▁khiri	-9464
▁mente	-9465
▁murah	-9466
▁ripik	-9467
▁rista	-9468
▁semia	-9469
▁songo	-9470
▁tahik	-9471
▁tapea	-9472
▁uawei	-9473
▁urant	-9474
▁ynote	-9475
99	-9476
Rp	-9477
UK	-9478
my	-9479
LOW	-9480
cut	-9481
der	-9482
ith	-9483
raf	-9484
uti	-9485
▁Aj	-9486
▁FR	-9487
▁JT	-9488
▁LO	-9489
▁Pc	-9490
▁YL	-9491
▁hd	-9492
▁sl	-9493
LBHI	-9494
▁0-2	-9495
▁03,	-9496
▁2,9	-9497
▁API	-9498
▁BBW	-9499
▁Fox	-9500
▁Gde	-9501
▁HAR	-9502
▁KUH	-9503
▁MAX	-9504
▁NEP	-9505
▁Pep	-9506
▁Pop	-9507
▁RPJ	-9508
▁TSM	-9509
▁TUL	-9510
▁UKI	-9511
▁Via	-9512
▁cta	-9513
▁eog	-9514
▁gay	-9515
▁heo	-9516
▁jum	-9517
▁kja	-9518
▁lda	-9519
▁ldo	-9520
▁oul	-9521
▁paj	-9522
▁ruz	-9523
▁usl	-9524
▁ASIN	-9525
▁AZIS	-9526
▁BMMN	-9527
▁GLOW	-9528
▁LKPP	-9529
▁Lola	-9530
▁PATK	-9531
▁PTSL	-9532
▁Prod	-9533
▁SITU	-9534
▁Seba	-9535
▁TPST	-9536
▁abab	-9537
▁aber	-9538
▁alad	-9539
▁alya	-9540
▁anks	-9541
▁bike	-9542
▁cant	-9543
▁dale	-9544
▁dane	-9545
▁edib	-9546
▁ekik	-9547
▁fere	-9548
▁fidz	-9549
▁hare	-9550
▁ieng	-9551
▁ifat	-9552
▁ikar	-9553
▁iyas	-9554
▁jaks	-9555
▁ketu	-9556
▁kole	-9557
▁kuak	-9558
▁last	-9559
▁load	-9560
▁luts	-9561
▁madi	-9562
▁neng	-9563
▁ngap	-9564
▁obok	-9565
▁olit	-9566
▁oong	-9567
▁razy	-9568
▁rise	-9569
▁riuh	-9570
▁rrow	-9571
▁ryst	-9572
▁tabe	-9573
▁ukas	-9574
▁ukis	-9575
▁umuh	-9576
▁umus	-9577
▁unni	-9578
▁vers	-9579
▁yama	-9580
▁YLBHI	-9581
▁ailul	-9582
▁binsa	-9583
▁burgh	-9584
▁eblos	-9585
▁embuk	-9586
▁emeri	-9587
▁erbuk	-9588
▁gamus	-9589
▁gasah	-9590
▁layat	-9591
▁maluk	-9592
▁mblas	-9593
▁naati	-9594
▁nerba	-9595
▁ragih	-9596
▁rmain	-9597
▁tawan	-9598
▁tikai	-9599
▁urqon	-9600
▁vanza	-9601
-2	-9602
GE	-9603
▁ö	-9604
bal	-9605
wis	-9606
▁$5	-9607
▁1%	-9608
▁1:	-9609
▁EC	-9610
▁EX	-9611
▁FG	-9612
▁NM	-9613
▁TO	-9614
▁Zu	-9615
▁dl	-9616
▁eC	-9617
▁kf	-9618
▁106	-9619
▁2,4	-9620
▁2-2	-9621
▁5,3	-9622
▁737	-9623
▁ABG	-9624
▁BLT	-9625
▁CDC	-9626
▁Edo	-9627
▁HET	-9628
▁IAF	-9629
▁IAN	-9630
▁KUP	-9631
▁Kak	-9632
▁MBZ	-9633
▁MSI	-9634
▁PTK	-9635
▁RMI	-9636
▁aed	-9637
▁bay	-9638
▁dum	-9639
▁eca	-9640
▁evy	-9641
▁got	-9642
▁hem	-9643
▁iez	-9644
▁jay	-9645
▁jol	-9646
▁kwa	-9647
▁liq	-9648
▁lyn	-9649
▁oep	-9650
▁oil	-9651
▁osh	-9652
▁tte	-9653
▁urt	-9654
▁wes	-9655
▁ASAN	-9656
▁KJMU	-9657
▁PCNU	-9658
▁PHRI	-9659
▁RPMK	-9660
▁anni	-9661
▁cela	-9662
▁cine	-9663
▁daan	-9664
▁down	-9665
▁ease	-9666
▁ecet	-9667
▁eper	-9668
▁epok	-9669
▁indi	-9670
▁isha	-9671
▁lema	-9672
▁lena	-9673
▁meli	-9674
▁midi	-9675
▁nale	-9676
▁ocky	-9677
▁oost	-9678
▁oten	-9679
▁puty	-9680
▁rami	-9681
▁rich	-9682
▁rust	-9683
▁saac	-9684
▁sili	-9685
▁snur	-9686
▁staz	-9687
▁tech	-9688
▁teur	-9689
▁trek	-9690
▁ulka	-9691
▁unar	-9692
▁yekh	-9693
▁BONDO	-9694
▁Bidan	-9695
▁KUHAP	-9696
▁antah	-9697
▁antal	-9698
▁arkus	-9699
▁child	-9700
▁cijan	-9701
▁digit	-9702
▁enalk	-9703
▁enger	-9704
▁enyak	-9705
▁enyam	-9706
▁ezbol	-9707
▁iyasu	-9708
▁iyung	-9709
▁kfurt	-9710
▁leret	-9711
▁mafma	-9712
▁ngang	-9713
▁nnual	-9714
▁olipa	-9715
▁rogol	-9716
▁rusah	-9717
▁smana	-9718
▁syana	-9719
▁udari	-9720
▁wagen	-9721
GB	-9722
KD	-9723
PG	-9724
eu	-9725
▁ó	-9726
UMA	-9727
▁$6	-9728
▁EL	-9729
▁ND	-9730
▁TJ	-9731
▁ym	-9732
▁1,6	-9733
▁2,2	-9734
▁2,6	-9735
▁2,7	-9736
▁270	-9737
▁3,1	-9738
▁4-1	-9739
▁AFI	-9740
▁AFT	-9741
▁ATA	-9742
▁BBL	-9743
▁BOS	-9744
▁BPI	-9745
▁EST	-9746
▁IGD	-9747
▁JKN	-9748
▁MMI	-9749
▁MMS	-9750
▁MPP	-9751
▁MPV	-9752
▁NZE	-9753
▁PUB	-9754
▁PWI	-9755
▁Sid	-9756
▁TPK	-9757
▁cum	-9758
▁daf	-9759
▁diy	-9760
▁eik	-9761
▁eiz	-9762
▁fah	-9763
▁hko	-9764
▁lju	-9765
▁mdi	-9766
▁pho	-9767
▁raz	-9768
▁uns	-9769
▁ANAN	-9770
▁BATU	-9771
▁FHNK	-9772
▁LPKA	-9773
▁RANA	-9774
▁adad	-9775
▁akso	-9776
▁allo	-9777
▁azak	-9778
▁calo	-9779
▁cita	-9780
▁curk	-9781
▁dayu	-9782
▁dean	-9783
▁dong	-9784
▁door	-9785
▁esat	-9786
▁geta	-9787
▁heel	-9788
▁idar	-9789
▁ille	-9790
▁imax	-9791
▁inul	-9792
▁iptu	-9793
▁iraj	-9794
▁ison	-9795
▁item	-9796
▁ksin	-9797
▁lahk	-9798
▁ltik	-9799
▁matu	-9800
▁mono	-9801
▁mpal	-9802
▁nife	-9803
▁obar	-9804
▁oeng	-9805
▁papa	-9806
▁ride	-9807
▁rlan	-9808
▁suna	-9809
▁tela	-9810
▁ungs	-9811
▁urin	-9812
▁waii	-9813
▁wala	-9814
▁AIKIN	-9815
▁AMBON	-9816
▁BANDA	-9817
▁BBPVP	-9818
▁BPKAD	-9819
▁PMKRI	-9820
▁TNBTS	-9821
▁anare	-9822
▁antum	-9823
▁arwin	-9824
▁aukus	-9825
▁berga	-9826
▁cycle	-9827
▁dalah	-9828
▁emicu	-9829
▁eptis	-9830
▁hania	-9831
▁ifter	-9832
▁	-9833
a	-9834
n	-9835
e	-9836
i	-9837
r	-9838
t	-9839
u	-9840
k	-9841
m	-9842
s	-9843
d	-9844
g	-9845
l	-9846
p	-9847
o	-9848
b	-9849
h	-9850
y	-9851
,	-9852
.	-9853
j	-9854
P	-9855
S	-9856
K	-9857
A	-9858
2	-9859
c	-9860
B	-9861
w	-9862
I	-9863
M	-9864
0	-9865
D	-9866
T	-9867
-	-9868
R	-9869
1	-9870
J	-9871
f	-9872
"	-9873
N	-9874
)	-9875
(	-9876
4	-9877
G	-9878
H	-9879
U	-9880
v	-9881
C	-9882
W	-9883
L	-9884
/	-9885
3	-9886
5	-9887
F	-9888
E	-9889
O	-9890
9	-9891
:	-9892
7	-9893
6	-9894
8	-9895
z	-9896
Y	-9897
V	-9898
'	-9899
Z	-9900
x	-9901
X	-9902
?	-9903
[	-9904
]	-9905
q	-9906
Q	-9907
&	-9908
%	-9909
;	-9910
$	-9911
!	-9912
@	-9913
+	-9914
#	-9915
_	-9916
é	-9917
*	-9918
á	-9919
ü	-9920
ö	-9921
è	-9922
°	-9923
=	-9924
í	-9925
ñ	-9926
ó	-9927
•	-9928
±	-9929
€	-9930
£	-9931
ú	-9932
ä	-9933
®	-9934
â	-9935
ı	-9936
>	-9937
`	-9938
ã	-9939
′	-9940
ć	-9941
×	-9942
ê	-9943
ï	-9944
\	-9945
Ó	-9946
à	-9947
ô	-9948
⁠	-9949
Ç	-9950
Ü	-9951
ç	-9952
ì	-9953
ş	-9954
⁄	-9955
😭	-9956
<	-9957
·	-9958
ø	-9959
μ	-9960
−	-9961
Á	-9962
Ä	-9963
Ö	-9964
ë	-9965
ā	-9966
ğ	-9967
š	-9968
Â	-9969
É	-9970
ð	-9971
ò	-9972
õ	-9973
Ā	-9974
ę	-9975
İ	-9976
ķ	-9977
Ł	-9978
ł	-9979
ś	-9980
ơ	-9981
ư	-9982
́	-9983
Α	-9984
Η	-9985
Τ	-9986
α	-9987
‍	-9988
≥	-9989
丽	-9990
安	-9991
洪	-9992
金	-9993
陈	-9994
🍌	-9995
😊	-9996
