[UNK]	0
[CLS]	1
[SEP]	2
[PAD]	3
[MASK]	4
!	5
"	6
#	7
$	8
%	9
&	10
'	11
(	12
)	13
*	14
+	15
,	16
-	17
.	18
/	19
0	20
1	21
2	22
3	23
4	24
5	25
6	26
7	27
8	28
9	29
:	30
;	31
<	32
=	33
>	34
?	35
@	36
[	37
\	38
]	39
_	40
`	41
a	42
b	43
c	44
d	45
e	46
f	47
g	48
h	49
i	50
j	51
k	52
l	53
m	54
n	55
o	56
p	57
q	58
r	59
s	60
t	61
u	62
v	63
w	64
x	65
y	66
z	67
£	68
®	69
°	70
±	71
·	72
×	73
à	74
á	75
â	76
ã	77
ä	78
ç	79
è	80
é	81
ê	82
ë	83
ì	84
í	85
ï	86
ð	87
ñ	88
ò	89
ó	90
ô	91
õ	92
ö	93
ø	94
ú	95
ü	96
ā	97
ć	98
ę	99
ğ	100
ı	101
ķ	102
ł	103
ś	104
ş	105
š	106
ơ	107
ư	108
̇	109
α	110
η	111
μ	112
τ	113
‍	114
‎	115
•	116
′	117
⁄	118
⁠	119
€	120
−	121
≥	122
丽	123
安	124
洪	125
金	126
陈	127
🍌	128
😊	129
😭	130
🤲	131
##o	132
##g	133
##a	134
##b	135
##p	136
##m	137
##d	138
##n	139
##t	140
##w	141
##e	142
##r	143
##l	144
##i	145
##u	146
##-	147
##/	148
##c	149
##k	150
##f	151
##s	152
##h	153
##y	154
##z	155
##j	156
##v	157
##q	158
##\	159
##4	160
##2	161
##x	162
##ñ	163
##5	164
##1	165
##à	166
##9	167
##8	168
##3	169
##7	170
##0	171
##é	172
##ö	173
##⁠	174
##6	175
##ú	176
##_	177
##)	178
##,	179
##>	180
##?	181
##"	182
##!	183
##ó	184
##ş	185
##í	186
##è	187
##.	188
##ä	189
##]	190
##á	191
###	192
##ô	193
##ğ	194
##ì	195
##ü	196
##+	197
##ë	198
##[	199
##;	200
##š	201
##ï	202
##ø	203
##ı	204
##‎	205
##金	206
##丽	207
##*	208
##ê	209
##ś	210
##ę	211
##'	212
##±	213
##=	214
##ã	215
##:	216
##@	217
##€	218
##â	219
##ć	220
##′	221
##ķ	222
##ç	223
##õ	224
##$	225
##ư	226
##ơ	227
##<	228
##ā	229
##🤲	230
##τ	231
##😭	232
##ł	233
##ò	234
##(	235
##̇	236
##an	237
##er	238
##en	239
##ar	240
##at	241
##ang	242
##ak	243
##as	244
##al	245
##ah	246
##in	247
di	248
##em	249
##am	250
men	251
##el	252
##kan	253
##un	254
##tu	255
##si	256
##ya	257
##ad	258
ke	259
se	260
##on	261
##ap	262
yang	263
##il	264
##ga	265
##ta	266
dan	267
ber	268
ter	269
in	270
##or	271
per	272
##ik	273
##eng	274
##is	275
##ur	276
##bu	277
##ing	278
##us	279
##es	280
##asi	281
##um	282
meng	283
##it	284
##ara	285
mem	286
##ung	287
##ari	288
##nya	289
un	290
##uk	291
##ti	292
##ol	293
##om	294
##ada	295
##im	296
20	297
##id	298
##akan	299
##ek	300
##ul	301
##ir	302
pen	303
pr	304
##ai	305
##tuk	306
pem	307
##ba	308
202	309
untuk	310
##alam	311
##ut	312
##et	313
##da	314
##gi	315
##engan	316
dengan	317
an	318
##ber	319
ini	320
##ih	321
##atan	322
sa	323
##angan	324
2024	325
dari	326
dalam	327
##ud	328
itu	329
pada	330
##esi	331
##ama	332
##ok	333
##adi	334
##wa	335
##se	336
sel	337
",	338
##eg	339
mel	340
mer	341
##ib	342
##ata	343
##up	344
##ja	345
##but	346
##amp	347
##ter	348
ba	349
##uh	350
##ukan	351
##ali	352
ind	353
##ri	354
##and	355
##arta	356
##eb	357
##per	358
peng	359
##ab	360
kep	361
kem	362
##ant	363
##ed	364
meny	365
##ia	366
pro	367
tid	368
mas	369
menj	370
ju	371
tidak	372
la	373
kam	374
##alah	375
##ian	376
##elah	377
##ra	378
##isi	379
##ana	380
##pat	381
##sebut	382
##ua	383
##baga	384
akan	385
).	386
##ot	387
##pn	388
sem	389
##onesi	390
indonesi	391
##eh	392
tersebut	393
indonesia	394
ser	395
##ent	396
##aw	397
##angk	398
##akarta	399
tah	400
##uan	401
bah	402
jpn	403
jpnn	404
ak	405
##ota	406
pol	407
##bagai	408
ad	409
com	410
pel	411
##ay	412
##aran	413
bar	414
juga	415
##atakan	416
##ub	417
sek	418
jakarta	419
##abu	420
as	421
##ep	422
wib	423
##ahan	424
##ati	425
##asa	426
##anj	427
##end	428
mend	429
kar	430
ol	431
##akukan	432
##tr	433
kon	434
##aan	435
tahun	436
##anya	437
##any	438
kata	439
saat	440
##alu	441
##int	442
##apat	443
##ikan	444
neg	445
##ena	446
sat	447
ada	448
##amb	449
menjadi	450
dia	451
##arga	452
##cara	453
or	454
ap	455
##asan	456
##alan	457
leb	458
##ala	459
al	460
pert	461
bis	462
mengatakan	463
##aj	464
sebagai	465
tim	466
##usi	467
oleh	468
kom	469
##had	470
kami	471
##ungan	472
sen	473
pas	474
##aya	475
##yar	476
bahwa	477
##ika	478
##eka	479
kota	480
telah	481
##os	482
be	483
##ingk	484
is	485
ag	486
##angg	487
mereka	488
seb	489
##ina	490
kel	491
##ip	492
bisa	493
dil	494
##ong	495
##tau	496
##itas	497
##ita	498
##ka	499
lebih	500
##udah	501
orang	502
bagi	503
##ran	504
kor	505
##ain	506
##ew	507
##onal	508
set	509
kepada	510
atau	511
##ban	512
hari	513
##ingga	514
##ind	515
peny	516
##api	517
##lah	518
ker	519
har	520
##inya	521
##og	522
pemer	523
##asil	524
para	525
##aman	526
##bang	527
##ingg	528
##ow	529
sur	530
pers	531
menc	532
##akat	533
karena	534
negara	535
ar	536
satu	537
##aku	538
##gr	539
##od	540
##tem	541
ang	542
##tas	543
sudah	544
pe	545
bers	546
sej	547
si	548
##elum	549
##den	550
##esar	551
##apa	552
ja	553
##op	554
am	555
##uj	556
saya	557
##pr	558
##yarakat	559
masyarakat	560
##utu	561
##osi	562
berk	563
##anyak	564
dis	565
jum	566
da	567
##atkan	568
adalah	569
##jar	570
pemerint	571
ri	572
##apan	573
##iri	574
melakukan	575
pil	576
anak	577
##ob	578
##ilik	579
presi	580
lain	581
10	582
setelah	583
##orm	584
##asih	585
pend	586
dir	587
##oh	588
tet	589
##urut	590
dik	591
baru	592
##erah	593
ant	594
ek	595
hal	596
member	597
##ungk	598
su	599
presiden	600
##aks	601
##est	602
wak	603
##angs	604
##hadap	605
##imp	606
##aikan	607
mar	608
mengg	609
##ini	610
tem	611
terhadap	612
ch	613
##ov	614
##apkan	615
##arkan	616
memper	617
um	618
kec	619
ma	620
dua	621
dapat	622
##ima	623
secara	624
st	625
##ni	626
hingga	627
##dang	628
ked	629
##asional	630
rum	631
##jadi	632
ujar	633
warga	634
dit	635
teng	636
ti	637
kabu	638
pemil	639
kas	640
##perti	641
##han	642
##paten	643
jawa	644
kabupaten	645
##res	646
##emp	647
beber	648
pemerintah	649
menurut	650
ketu	651
ut	652
##mas	653
selasa	654
sep	655
##awan	656
rabu	657
des	658
##uti	659
##ic	660
seperti	661
tr	662
##hir	663
beberapa	664
##upakan	665
##unj	666
senin	667
bali	668
rumah	669
##ingan	670
pun	671
kemen	672
memb	673
besar	674
ket	675
##ihak	676
kamis	677
merupakan	678
),	679
##angat	680
##gram	681
masih	682
##ensi	683
banyak	684
##di	685
korban	686
##anjut	687
##askan	688
salah	689
##anan	690
sum	691
pihak	692
dep	693
harus	694
ban	695
##enc	696
band	697
tan	698
12	699
membu	700
dig	701
##wan	702
wil	703
jumat	704
lalu	705
##bat	706
nam	707
##alon	708
daerah	709
kh	710
##ihan	711
dilakukan	712
##erja	713
serta	714
11	715
##uran	716
ketua	717
##tur	718
re	719
seh	720
memberikan	721
##tif	722
angg	723
19	724
##eri	725
kasus	726
en	727
##iliki	728
atas	729
hanya	730
jat	731
selama	732
parta	733
mil	734
##duk	735
gr	736
bersama	737
##mi	738
##alui	739
sebelum	740
kese	741
##angsung	742
tengah	743
##to	744
##ag	745
##ses	746
keter	747
pemb	748
##olo	749
melalui	750
pal	751
##arang	752
##inan	753
berh	754
##ayah	755
##ch	756
##tri	757
##emb	758
##ukum	759
##tor	760
isra	761
##ilan	762
partai	763
kita	764
##uar	765
namun	766
##uruh	767
israel	768
baik	769
med	770
dip	771
##ulan	772
##itik	773
wilayah	774
##usia	775
tak	776
program	777
dem	778
##uda	779
keb	780
##pk	781
##angka	782
##ikasi	783
berl	784
memiliki	785
##usah	786
kap	787
sama	788
kepala	789
hukum	790
##unan	791
##ting	792
##apor	793
sangat	794
00	795
terjadi	796
##form	797
pes	798
##inggu	799
res	800
##tikan	801
ku	802
menye	803
##owo	804
##ember	805
##ump	806
##teri	807
##inta	808
##kait	809
##baya	810
calon	811
sab	812
gu	813
##era	814
bi	815
minggu	816
##itar	817
antara	818
##ju	819
jadi	820
par	821
barat	822
mak	823
kek	824
terl	825
##unia	826
kr	827
mul	828
rp	829
kes	830
mah	831
em	832
tent	833
hasil	834
tetapi	835
me	836
jalan	837
so	838
dunia	839
kemb	840
samp	841
bel	842
man	843
pan	844
##ilai	845
terkait	846
menteri	847
##ki	848
##elar	849
did	850
selatan	851
sekitar	852
##lu	853
kembali	854
##man	855
sabtu	856
##ec	857
##wal	858
##orang	859
up	860
##ukung	861
##unakan	862
pern	863
terus	864
pt	865
##iv	866
##uhan	867
15	868
##ani	869
##gas	870
tiga	871
kerja	872
##bar	873
air	874
seluruh	875
umum	876
ben	877
sura	878
pp	879
th	880
surabaya	881
inter	882
sebu	883
persen	884
produk	885
##ac	886
prab	887
##ekerja	888
prabowo	889
mengh	890
##umlah	891
meningk	892
ing	893
##uga	894
terd	895
##isasi	896
##ampaikan	897
##ihat	898
##adan	899
sebuah	900
berbagai	901
nasional	902
persi	903
##su	904
agar	905
kemud	906
kamp	907
menjel	908
##utus	909
##atang	910
keterangan	911
anggota	912
sejumlah	913
berd	914
bandung	915
30	916
im	917
pertama	918
mendapat	919
ters	920
##ons	921
##aksi	922
##anto	923
##onom	924
seti	925
kl	926
seorang	927
sement	928
##udi	929
sementara	930
##anc	931
us	932
##kada	933
pelaku	934
belum	935
wakil	936
pilkada	937
##sia	938
##ahkan	939
##unya	940
##por	941
##tim	942
##ist	943
kedua	944
##idikan	945
sedang	946
kons	947
16	948
##unc	949
din	950
##inggal	951
semua	952
nom	953
kemudian	954
jab	955
##uru	956
##amatan	957
##lik	958
14	959
##sa	960
suk	961
penc	962
##ko	963
ins	964
diper	965
mana	966
##nur	967
ia	968
kali	969
berb	970
##oto	971
pak	972
timur	973
##gaw	974
put	975
lok	976
ik	977
kal	978
ok	979
lainnya	980
ung	981
17	982
##yata	983
sejak	984
##asar	985
keseh	986
intern	987
mes	988
negeri	989
##masuk	990
13	991
##entu	992
rak	993
bid	994
nomor	995
##uli	996
penting	997
kesehatan	998
21	999
##inggi	1000
##apai	1001
eks	1002
##ui	1003
guber	1004
li	1005
gubernur	1006
##usahaan	1007
politik	1008
menyebut	1009
##nas	1010
tentang	1011
##ea	1012
unit	1013
##uari	1014
pl	1015
sis	1016
termasuk	1017
cuk	1018
##formasi	1019
serangan	1020
18	1021
##ij	1022
polisi	1023
perusahaan	1024
bak	1025
##utan	1026
##osial	1027
##ologi	1028
##anti	1029
min	1030
ab	1031
selain	1032
".	1033
terp	1034
jok	1035
agus	1036
pus	1037
##araan	1038
menghad	1039
desa	1040
suara	1041
##ula	1042
##fa	1043
##omp	1044
pengg	1045
bulan	1046
##za	1047
##men	1048
luar	1049
##ampak	1050
kegi	1051
##li	1052
membuat	1053
bert	1054
ketika	1055
depan	1056
kegiatan	1057
memas	1058
sosial	1059
##mad	1060
ah	1061
sebelumnya	1062
yak	1063
##ft	1064
pemilu	1065
buk	1066
china	1067
2023	1068
langsung	1069
sehingga	1070
##tus	1071
dim	1072
hak	1073
dib	1074
waktu	1075
sp	1076
##iter	1077
tempat	1078
mal	1079
bagian	1080
##und	1081
kur	1082
akhir	1083
##amanan	1084
komp	1085
memba	1086
##encana	1087
##ca	1088
23	1089
mulai	1090
pemain	1091
bantu	1092
sh	1093
tran	1094
##atanya	1095
direk	1096
menja	1097
##insi	1098
##ev	1099
proses	1100
tek	1101
##impin	1102
dpr	1103
##bab	1104
##ibat	1105
kant	1106
tinggi	1107
juta	1108
mener	1109
##na	1110
##atif	1111
sk	1112
##kap	1113
badan	1114
##iran	1115
##ersi	1116
##eo	1117
##antan	1118
##pa	1119
baw	1120
##pu	1121
malam	1122
katanya	1123
##akit	1124
bat	1125
apa	1126
amer	1127
mendukung	1128
il	1129
##unjuk	1130
##tiv	1131
##akhir	1132
el	1133
foto	1134
lagi	1135
berp	1136
##usus	1137
kecamatan	1138
media	1139
ham	1140
##epat	1141
seg	1142
##asis	1143
duk	1144
22	1145
peremp	1146
ger	1147
##jalan	1148
jika	1149
perempuan	1150
##terian	1151
bukan	1152
mengaku	1153
25	1154
khusus	1155
kend	1156
kaw	1157
kementerian	1158
##uni	1159
dar	1160
gol	1161
acara	1162
##ono	1163
tersangka	1164
utama	1165
amerika	1166
saja	1167
had	1168
meningkatkan	1169
kantor	1170
menyampaikan	1171
polres	1172
lay	1173
str	1174
perk	1175
upaya	1176
##ungg	1177
pasangan	1178
##yah	1179
ekonom	1180
utara	1181
jel	1182
201	1183
##aian	1184
masa	1185
id	1186
musi	1187
semarang	1188
makan	1189
nov	1190
##alami	1191
menga	1192
rek	1193
##enang	1194
penyel	1195
pusat	1196
##utusan	1197
prov	1198
##sis	1199
tetap	1200
##ompok	1201
trans	1202
tur	1203
##awat	1204
menggunakan	1205
##din	1206
pengh	1207
apr	1208
##ilih	1209
dp	1210
kond	1211
fil	1212
pa	1213
##ustr	1214
and	1215
##ikat	1216
tekn	1217
##fi	1218
ko	1219
kala	1220
bal	1221
##ublik	1222
ingin	1223
br	1224
kawasan	1225
##una	1226
mot	1227
sul	1228
ga	1229
rusia	1230
jatim	1231
##ingkat	1232
##yat	1233
masuk	1234
##ont	1235
yakni	1236
sampai	1237
ekonomi	1238
den	1239
diri	1240
24	1241
##war	1242
##bak	1243
##uarga	1244
bog	1245
dukungan	1246
menjelaskan	1247
op	1248
mengen	1249
##eksi	1250
##idup	1251
##ine	1252
er	1253
provinsi	1254
##uang	1255
bogor	1256
sub	1257
oper	1258
pelat	1259
##gan	1260
sesu	1261
##obil	1262
lingk	1263
##tober	1264
sekali	1265
maj	1266
##embang	1267
oktober	1268
bantuan	1269
keluarga	1270
dok	1271
##emen	1272
pendidikan	1273
jumlah	1274
##bagi	1275
posi	1276
ram	1277
tu	1278
##eral	1279
##engg	1280
kelompok	1281
##upun	1282
lanjut	1283
##olah	1284
##bantu	1285
sebanyak	1286
ditem	1287
ur	1288
mengungk	1289
##etah	1290
lapor	1291
kalau	1292
kan	1293
jabar	1294
dih	1295
##anjang	1296
mobil	1297
berada	1298
uc	1299
##ukul	1300
jan	1301
direktur	1302
##angkah	1303
tind	1304
##ma	1305
##inal	1306
##jabat	1307
mendapatkan	1308
##gus	1309
informasi	1310
##ustri	1311
##angkap	1312
##uas	1313
met	1314
soal	1315
uk	1316
##owi	1317
##la	1318
##annya	1319
lem	1320
##ola	1321
sup	1322
pember	1323
##okr	1324
november	1325
on	1326
ribu	1327
bu	1328
##le	1329
mencapai	1330
##oy	1331
##erta	1332
jelas	1333
tamb	1334
lokasi	1335
ka	1336
ra	1337
juli	1338
##arap	1339
awal	1340
##eda	1341
##ekan	1342
barang	1343
jokowi	1344
##istr	1345
dew	1346
##upsi	1347
setiap	1348
menunjuk	1349
polda	1350
lingkungan	1351
militer	1352
000	1353
gib	1354
gaza	1355
pemilihan	1356
##aris	1357
gibran	1358
##ami	1359
pppk	1360
berm	1361
##itmen	1362
keamanan	1363
##ator	1364
27	1365
##usan	1366
terakhir	1367
##buh	1368
##ungkin	1369
laga	1370
##urkan	1371
undang	1372
sal	1373
##ro	1374
perm	1375
langkah	1376
##aha	1377
pembang	1378
lap	1379
##adilan	1380
empat	1381
ken	1382
pembangunan	1383
##utur	1384
kej	1385
membantu	1386
univ	1387
##orong	1388
kab	1389
tangg	1390
##jata	1391
##uhi	1392
pekerja	1393
juni	1394
pukul	1395
kondisi	1396
dr	1397
##aki	1398
timnas	1399
jam	1400
muda	1401
ibu	1402
industri	1403
##ies	1404
menyatakan	1405
at	1406
agustus	1407
na	1408
pener	1409
##anye	1410
layanan	1411
##erang	1412
mengalami	1413
meninggal	1414
mantan	1415
##empat	1416
pekan	1417
bakal	1418
tel	1419
pihaknya	1420
send	1421
asal	1422
hadir	1423
ir	1424
##tugas	1425
##ital	1426
ungkap	1427
##arg	1428
##ode	1429
laporan	1430
pi	1431
gamb	1432
##00	1433
menunjukkan	1434
memastikan	1435
af	1436
dek	1437
universi	1438
internasional	1439
##jen	1440
##tember	1441
##ck	1442
kpu	1443
tuj	1444
##ambil	1445
september	1446
##tab	1447
harga	1448
diber	1449
keti	1450
melihat	1451
##anda	1452
muh	1453
##ve	1454
nar	1455
desember	1456
ac	1457
surat	1458
meminta	1459
##alkan	1460
kebu	1461
sesuai	1462
mei	1463
data	1464
kol	1465
berhasil	1466
perd	1467
masing	1468
berlangsung	1469
inv	1470
##angi	1471
terb	1472
ucap	1473
april	1474
int	1475
co	1476
resmi	1477
##kr	1478
jateng	1479
perang	1480
##baik	1481
januari	1482
keh	1483
konf	1484
keber	1485
komisi	1486
##ebr	1487
kendaraan	1488
sekolah	1489
##estasi	1490
tanpa	1491
##nis	1492
terk	1493
##ubungan	1494
pasar	1495
29	1496
28	1497
united	1498
26	1499
berharap	1500
##otensi	1501
for	1502
liga	1503
##tik	1504
perlu	1505
korupsi	1506
##anakan	1507
##ura	1508
##irkan	1509
maupun	1510
pet	1511
bidang	1512
siap	1513
pk	1514
pap	1515
kpk	1516
pernah	1517
bang	1518
kini	1519
mod	1520
nama	1521
ujarnya	1522
##oleh	1523
##isata	1524
##uka	1525
tanah	1526
bank	1527
##ate	1528
demokr	1529
kampanye	1530
gambar	1531
uang	1532
##ten	1533
##alitas	1534
sebesar	1535
##etahui	1536
duga	1537
##iti	1538
##asarkan	1539
sid	1540
##aih	1541
##aporkan	1542
sendiri	1543
bekerja	1544
##ungi	1545
##ulu	1546
##ujan	1547
dugaan	1548
of	1549
##kar	1550
##baru	1551
sy	1552
komun	1553
stadi	1554
motor	1555
##bul	1556
kad	1557
masalah	1558
menamb	1559
hujan	1560
##ilang	1561
trump	1562
##embangan	1563
##dag	1564
##anjar	1565
bup	1566
sed	1567
ukra	1568
maret	1569
##atur	1570
##ijakan	1571
bupati	1572
##tan	1573
ukraina	1574
de	1575
dirinya	1576
mus	1577
akibat	1578
##ili	1579
##andingan	1580
kapal	1581
pernyata	1582
kebijakan	1583
##asiswa	1584
lima	1585
aj	1586
pelangg	1587
ged	1588
adanya	1589
mat	1590
paling	1591
guru	1592
##aitu	1593
asia	1594
ps	1595
laut	1596
rakyat	1597
sol	1598
##jo	1599
gen	1600
kapol	1601
pb	1602
sumber	1603
##ahanan	1604
##iar	1605
pul	1606
yaitu	1607
sistem	1608
memperk	1609
menjalan	1610
mengenai	1611
petugas	1612
teg	1613
sakit	1614
##imana	1615
##engk	1616
bahkan	1617
##tisi	1618
melawan	1619
##ps	1620
the	1621
pertandingan	1622
hidup	1623
##ikuti	1624
##itan	1625
tok	1626
iran	1627
menerima	1628
##daft	1629
##uangan	1630
##ema	1631
korea	1632
##arget	1633
##iz	1634
wali	1635
hon	1636
berdasarkan	1637
pejabat	1638
pid	1639
mungkin	1640
serikat	1641
##ade	1642
bant	1643
##ergi	1644
berg	1645
perl	1646
mo	1647
bl	1648
inf	1649
teknologi	1650
##ig	1651
anda	1652
tni	1653
film	1654
denp	1655
##bangun	1656
menjaga	1657
universitas	1658
##aranya	1659
segera	1660
##tuhan	1661
##ampu	1662
08	1663
##hi	1664
##bagian	1665
##ci	1666
denpasar	1667
07	1668
##alia	1669
aman	1670
prof	1671
ul	1672
mengungkapkan	1673
pernyataan	1674
membawa	1675
##impinan	1676
solo	1677
cukai	1678
senjata	1679
gl	1680
##apun	1681
##ewas	1682
##isti	1683
##iaya	1684
ev	1685
31	1686
stadion	1687
##sel	1688
aksi	1689
##yak	1690
bukti	1691
##tul	1692
menggelar	1693
##ateg	1694
##wak	1695
##saan	1696
##amat	1697
menghadapi	1698
piala	1699
##ond	1700
jal	1701
memang	1702
pelatih	1703
bum	1704
##irim	1705
ari	1706
bawah	1707
##aksanakan	1708
##atu	1709
bea	1710
digital	1711
sar	1712
cukup	1713
jen	1714
pemimpin	1715
tingkat	1716
##umen	1717
lembaga	1718
##ungsi	1719
##emuan	1720
##jak	1721
##tai	1722
dinas	1723
##oni	1724
pad	1725
##mk	1726
##re	1727
dibu	1728
##ordin	1729
miliar	1730
pemerintahan	1731
fak	1732
##abor	1733
bek	1734
polri	1735
##alaman	1736
anies	1737
depok	1738
##uat	1739
pd	1740
publik	1741
bas	1742
lama	1743
listr	1744
##apres	1745
papua	1746
##ha	1747
listrik	1748
berin	1749
rep	1750
cua	1751
bersi	1752
kand	1753
po	1754
cuaca	1755
##co	1756
sim	1757
##gak	1758
digelar	1759
operasi	1760
gun	1761
keputusan	1762
##ham	1763
##angkat	1764
##unga	1765
menyel	1766
diter	1767
palest	1768
makanan	1769
cara	1770
pat	1771
pria	1772
tewas	1773
09	1774
ali	1775
##titu	1776
diduga	1777
akhirnya	1778
vid	1779
keuangan	1780
##ajar	1781
sebagian	1782
palestina	1783
##aji	1784
usaha	1785
punya	1786
bern	1787
##anding	1788
##atian	1789
##intas	1790
gedung	1791
milik	1792
kebutuhan	1793
angk	1794
mahasiswa	1795
##angga	1796
##angkan	1797
##iau	1798
bisnis	1799
##aksana	1800
berup	1801
penj	1802
mampu	1803
daya	1804
##edi	1805
nilai	1806
situ	1807
kejadi	1808
##uri	1809
benar	1810
menem	1811
bo	1812
ro	1813
##ila	1814
##iksaan	1815
war	1816
##ori	1817
##ira	1818
hubungan	1819
##arik	1820
##ogy	1821
ii	1822
tutur	1823
mendatang	1824
##ubahan	1825
meneg	1826
jend	1827
perubahan	1828
##ret	1829
ef	1830
jar	1831
gel	1832
asn	1833
datang	1834
hamas	1835
perh	1836
##yo	1837
##ce	1838
pasal	1839
ahmad	1840
kejadian	1841
##me	1842
##tribu	1843
es	1844
ud	1845
ya	1846
sam	1847
##atis	1848
##oro	1849
terbu	1850
ketiga	1851
jep	1852
##uju	1853
banten	1854
05	1855
peserta	1856
satunya	1857
##wi	1858
##angsa	1859
##aksa	1860
##tasi	1861
##eran	1862
pertam	1863
##ef	1864
organ	1865
##utama	1866
del	1867
##untu	1868
##pres	1869
sekaligus	1870
urut	1871
##eks	1872
##okus	1873
##line	1874
##uc	1875
##caya	1876
ganjar	1877
mendorong	1878
06	1879
perju	1880
##pl	1881
meski	1882
##idik	1883
menuju	1884
sus	1885
pertemuan	1886
komitmen	1887
##fikasi	1888
##empatan	1889
##ji	1890
ditemukan	1891
le	1892
##argaan	1893
##tribusi	1894
##ers	1895
##umum	1896
penghargaan	1897
kemenangan	1898
baga	1899
karya	1900
menging	1901
gar	1902
wid	1903
##isian	1904
##kot	1905
dana	1906
nus	1907
##alis	1908
maju	1909
##koba	1910
##ilitas	1911
bri	1912
##ayan	1913
honor	1914
##ohon	1915
beras	1916
2025	1917
perjuangan	1918
##enaga	1919
maka	1920
##ikut	1921
pemeriksaan	1922
##usaha	1923
nas	1924
tapi	1925
terbaik	1926
terj	1927
##ingkatan	1928
video	1929
##opa	1930
##lim	1931
##ore	1932
febr	1933
##uanya	1934
ed	1935
##adwal	1936
sektor	1937
sah	1938
jenderal	1939
perdana	1940
##unt	1941
##etapkan	1942
sempat	1943
200	1944
##ibatkan	1945
tert	1946
##tum	1947
potensi	1948
##etak	1949
##hkan	1950
februari	1951
muham	1952
##mar	1953
##itra	1954
pengadilan	1955
bertem	1956
rel	1957
##akin	1958
bp	1959
san	1960
peri	1961
##no	1962
##obal	1963
jalur	1964
nat	1965
menilai	1966
##ongan	1967
##dul	1968
lapangan	1969
form	1970
mew	1971
01	1972
##ug	1973
##eta	1974
prak	1975
eng	1976
tot	1977
keker	1978
terutama	1979
##engar	1980
cepat	1981
pelaksana	1982
digunakan	1983
##enuhi	1984
##ogyakarta	1985
mad	1986
tenaga	1987
berjalan	1988
musim	1989
yogyakarta	1990
##km	1991
tindakan	1992
rah	1993
global	1994
pos	1995
##ulai	1996
biden	1997
jer	1998
##urn	1999
bagaimana	2000
saksi	2001
her	2002
aktiv	2003
##ampung	2004
honorer	2005
menegaskan	2006
jaya	2007
jepang	2008
02	2009
periode	2010
dewan	2011
##atat	2012
menurutnya	2013
bangsa	2014
rasa	2015
##ampil	2016
menambahkan	2017
##ianto	2018
peningkatan	2019
persib	2020
banj	2021
##arin	2022
##ity	2023
sip	2024
semakin	2025
tern	2026
##aborasi	2027
nanti	2028
##usai	2029
##oa	2030
seusai	2031
tahu	2032
pasukan	2033
udara	2034
membangun	2035
bb	2036
##unaan	2037
pagi	2038
adapun	2039
##egal	2040
##truk	2041
##uki	2042
pengaw	2043
bur	2044
menjelang	2045
##babkan	2046
##isial	2047
dki	2048
##gitu	2049
banjir	2050
dic	2051
manusia	2052
bahan	2053
04	2054
##ujud	2055
terbaru	2056
begitu	2057
pidana	2058
rat	2059
meningkat	2060
pula	2061
ib	2062
kepol	2063
sil	2064
mis	2065
sekarang	2066
kepolisian	2067
mand	2068
meraih	2069
wisata	2070
50	2071
lat	2072
##adaan	2073
koordin	2074
jauh	2075
ungg	2076
online	2077
selalu	2078
te	2079
##kip	2080
##gab	2081
eropa	2082
pbb	2083
pertamina	2084
total	2085
fasil	2086
terc	2087
emas	2088
perjalan	2089
kont	2090
ikut	2091
##arah	2092
pertahanan	2093
hum	2094
rs	2095
tol	2096
diberikan	2097
03	2098
berj	2099
raya	2100
tujuan	2101
meskip	2102
meskipun	2103
ta	2104
terpilih	2105
ny	2106
posisi	2107
##te	2108
2022	2109
##uatan	2110
##erasi	2111
ot	2112
##faat	2113
bentuk	2114
##krim	2115
##anggung	2116
##iah	2117
diketahui	2118
##elak	2119
fa	2120
tiba	2121
mengikuti	2122
ditangkap	2123
##lam	2124
##enal	2125
##ior	2126
apar	2127
subianto	2128
berinisial	2129
lant	2130
kecil	2131
umkm	2132
tik	2133
enam	2134
##uasa	2135
##ly	2136
disebut	2137
energi	2138
has	2139
narkoba	2140
menang	2141
##utih	2142
bicara	2143
bus	2144
organisasi	2145
dampak	2146
##arian	2147
bay	2148
angka	2149
hamp	2150
ruang	2151
jenis	2152
agung	2153
berikut	2154
##lon	2155
##jukan	2156
art	2157
##gu	2158
isu	2159
kurang	2160
putih	2161
sig	2162
pengembangan	2163
tinggal	2164
berusia	2165
disampaikan	2166
##erahkan	2167
surve	2168
kuat	2169
mom	2170
sipil	2171
bes	2172
pangan	2173
##anjutan	2174
##esiasi	2175
hakim	2176
cer	2177
##ation	2178
##gris	2179
kesempatan	2180
##akah	2181
lew	2182
turun	2183
dekat	2184
##ny	2185
##uf	2186
##inkan	2187
##af	2188
##ulasi	2189
perjalanan	2190
tengg	2191
##ard	2192
inov	2193
lintas	2194
proy	2195
poin	2196
pelay	2197
memberi	2198
fasilitas	2199
fc	2200
rencana	2201
mengel	2202
##ulkan	2203
kekerasan	2204
##ern	2205
target	2206
##sep	2207
new	2208
##ahnya	2209
##one	2210
##arakan	2211
pdip	2212
biasa	2213
sidang	2214
ng	2215
memilih	2216
terlibat	2217
berkom	2218
tugas	2219
##anjutkan	2220
turut	2221
laki	2222
inggris	2223
##dak	2224
mau	2225
hampir	2226
penuh	2227
##utup	2228
beb	2229
membuka	2230
sin	2231
##takan	2232
tul	2233
seri	2234
pilpres	2235
##umsi	2236
bencana	2237
mengambil	2238
merasa	2239
penel	2240
##batasan	2241
net	2242
api	2243
naik	2244
sw	2245
##anggap	2246
##elakaan	2247
##buhan	2248
alasan	2249
pemilih	2250
##atangan	2251
pembun	2252
##cak	2253
##pasi	2254
##sed	2255
sabu	2256
kecelakaan	2257
##ubah	2258
golkar	2259
sand	2260
##icara	2261
keluar	2262
apakah	2263
pimpinan	2264
##asikan	2265
##umumkan	2266
menit	2267
##daya	2268
##onel	2269
kelas	2270
may	2271
nur	2272
yo	2273
menjalani	2274
kunj	2275
##bangan	2276
##ue	2277
memenuhi	2278
melaporkan	2279
positif	2280
sumat	2281
##enti	2282
kul	2283
berita	2284
rid	2285
##ajaran	2286
gag	2287
##sim	2288
pengel	2289
##okok	2290
##amin	2291
khususnya	2292
pelanggaran	2293
##likasi	2294
##arnya	2295
##amankan	2296
##nam	2297
sepanjang	2298
proyek	2299
elek	2300
ho	2301
survei	2302
hot	2303
pin	2304
##ilis	2305
##iman	2306
##ry	2307
merah	2308
##irakan	2309
##tuhkan	2310
##bp	2311
40	2312
dij	2313
tepat	2314
keras	2315
bin	2316
##alahan	2317
dibanding	2318
putusan	2319
##istik	2320
##juan	2321
##titusi	2322
bermain	2323
was	2324
##fud	2325
jawab	2326
##egr	2327
ratusan	2328
tang	2329
austr	2330
pn	2331
rapat	2332
fokus	2333
paslon	2334
grup	2335
budi	2336
putra	2337
##grasi	2338
##olak	2339
##ugi	2340
riau	2341
penyelengg	2342
anggaran	2343
tegas	2344
mudah	2345
##uncurkan	2346
to	2347
##jah	2348
sekret	2349
perb	2350
pembu	2351
akun	2352
lewat	2353
##arapkan	2354
malang	2355
pembunuhan	2356
##ris	2357
demi	2358
pelayanan	2359
rud	2360
pesawat	2361
ris	2362
##oli	2363
peran	2364
memer	2365
pand	2366
##aturan	2367
menemukan	2368
gus	2369
tangan	2370
ajang	2371
lokal	2372
buda	2373
memp	2374
##omo	2375
##ikit	2376
australia	2377
penyakit	2378
sedikit	2379
menarik	2380
##ebat	2381
diba	2382
##ona	2383
##iptakan	2384
##anian	2385
##ans	2386
belak	2387
hati	2388
##gabung	2389
manfaat	2390
##uduk	2391
pam	2392
##akwa	2393
pop	2394
##aslu	2395
republik	2396
muhammad	2397
kil	2398
sl	2399
##po	2400
##ton	2401
agama	2402
tindak	2403
luka	2404
##atus	2405
##ikian	2406
##inasi	2407
kontr	2408
##indungan	2409
##erensi	2410
dam	2411
leg	2412
bertemu	2413
berbeda	2414
bul	2415
sang	2416
##unggu	2417
kualitas	2418
##aim	2419
pertum	2420
##iksa	2421
antaranya	2422
budaya	2423
jo	2424
tant	2425
##fah	2426
##turan	2427
hend	2428
berkel	2429
pendaft	2430
setempat	2431
komb	2432
ilegal	2433
pj	2434
##ras	2435
tubuh	2436
investasi	2437
munc	2438
lib	2439
terdapat	2440
tokoh	2441
rus	2442
personel	2443
kemarin	2444
teman	2445
jadwal	2446
##ungkinan	2447
bawaslu	2448
##mkg	2449
dini	2450
##urah	2451
kemungkinan	2452
jabatan	2453
##amping	2454
akses	2455
makin	2456
juru	2457
pertumbuhan	2458
rut	2459
alat	2460
dprd	2461
memperkuat	2462
sd	2463
disel	2464
jangan	2465
uu	2466
##odo	2467
demikian	2468
olah	2469
##ambut	2470
asing	2471
menyebabkan	2472
perkara	2473
kunjungan	2474
berat	2475
##engah	2476
situasi	2477
sisi	2478
humas	2479
##th	2480
manaj	2481
peristi	2482
##akaran	2483
muncul	2484
tangerang	2485
strateg	2486
##akatan	2487
##antikan	2488
ditu	2489
##isan	2490
dokter	2491
demokrasi	2492
mempr	2493
bmkg	2494
fi	2495
mengur	2496
pasi	2497
peluang	2498
guna	2499
mahfud	2500
pelaksanaan	2501
gelar	2502
##pons	2503
titik	2504
##sir	2505
meman	2506
##abr	2507
joko	2508
##ej	2509
palembang	2510
pantai	2511
##orn	2512
anc	2513
menyebutkan	2514
kin	2515
seleksi	2516
mencari	2517
balik	2518
aturan	2519
fr	2520
panjang	2521
##uarkan	2522
ternyata	2523
kasih	2524
##erak	2525
peristiwa	2526
pdi	2527
tantangan	2528
##utip	2529
dpp	2530
pertanian	2531
putri	2532
##jid	2533
##inc	2534
##umpang	2535
vir	2536
##uji	2537
kos	2538
sebab	2539
##yan	2540
##alnya	2541
lagu	2542
bir	2543
##unjung	2544
menghadirkan	2545
gratis	2546
##rah	2547
mengak	2548
##antara	2549
menciptakan	2550
produksi	2551
konferensi	2552
ex	2553
puluhan	2554
##usung	2555
pering	2556
##gawai	2557
##omb	2558
gab	2559
##tar	2560
pegawai	2561
100	2562
##gub	2563
bola	2564
sud	2565
##ass	2566
dihad	2567
enggak	2568
menekan	2569
mata	2570
##pir	2571
##ayakan	2572
##tujuan	2573
optim	2574
hotel	2575
perj	2576
serang	2577
diperk	2578
strategis	2579
minum	2580
terima	2581
der	2582
final	2583
abdul	2584
pendaftaran	2585
##kam	2586
mk	2587
##bd	2588
diharapkan	2589
35	2590
pengalaman	2591
siapa	2592
luas	2593
musik	2594
##okan	2595
##egah	2596
##istan	2597
log	2598
sing	2599
tra	2600
vi	2601
keterangannya	2602
##entukan	2603
perse	2604
aceh	2605
45	2606
##lemen	2607
area	2608
sedangkan	2609
bandara	2610
sekretaris	2611
sehat	2612
konflik	2613
sumatera	2614
harapan	2615
##enangkan	2616
##eter	2617
penye	2618
pengguna	2619
##ky	2620
##kp	2621
##ajak	2622
widodo	2623
lampung	2624
##isme	2625
perlindungan	2626
##let	2627
##endah	2628
##sek	2629
##ahas	2630
pilihan	2631
ip	2632
siang	2633
kemenk	2634
tuturnya	2635
tanggal	2636
komunitas	2637
##iliun	2638
pesan	2639
##pol	2640
pekerjaan	2641
inovasi	2642
##atasi	2643
kombes	2644
tentu	2645
##enter	2646
ribuan	2647
##ase	2648
##if	2649
##ela	2650
perdag	2651
##udik	2652
puncak	2653
kampung	2654
perdagangan	2655
ay	2656
pendukung	2657
kolaborasi	2658
juara	2659
##uhkan	2660
iz	2661
kim	2662
vs	2663
demokrat	2664
lahan	2665
ucapnya	2666
car	2667
melaksanakan	2668
sampah	2669
kabar	2670
komunikasi	2671
formasi	2672
##ess	2673
mengumumkan	2674
bernama	2675
efek	2676
perg	2677
##epas	2678
jasa	2679
##ward	2680
jaringan	2681
islam	2682
solusi	2683
##ment	2684
##isiko	2685
kinerja	2686
sant	2687
peraturan	2688
penggunaan	2689
##egini	2690
terbuka	2691
##go	2692
##jau	2693
latihan	2694
sering	2695
##osok	2696
ph	2697
##entingan	2698
tujuh	2699
eri	2700
disk	2701
peringatan	2702
##pada	2703
triliun	2704
##ustrasi	2705
##cr	2706
haji	2707
usia	2708
terbesar	2709
##zi	2710
kebakaran	2711
##ahu	2712
##eli	2713
semb	2714
terlihat	2715
pulau	2716
memimpin	2717
dimulai	2718
du	2719
penjara	2720
##pek	2721
##min	2722
melibatkan	2723
mark	2724
ji	2725
##ational	2726
istri	2727
penyidik	2728
arab	2729
generasi	2730
##untut	2731
##andang	2732
kapolres	2733
dasar	2734
ped	2735
##urun	2736
kepentingan	2737
kalim	2738
##enggarakan	2739
sunga	2740
suh	2741
##all	2742
##adakan	2743
perek	2744
plat	2745
dpd	2746
tua	2747
waj	2748
##artawan	2749
akbp	2750
sik	2751
aplikasi	2752
non	2753
parlemen	2754
amb	2755
gunung	2756
lah	2757
##raga	2758
alias	2759
sore	2760
disi	2761
berkomitmen	2762
sungai	2763
pari	2764
dibandingkan	2765
psi	2766
he	2767
dikenal	2768
##tin	2769
##yanto	2770
babak	2771
siswa	2772
##unuh	2773
##ungutan	2774
forum	2775
##ty	2776
penumpang	2777
tps	2778
melanjutkan	2779
cat	2780
capres	2781
##tabilitas	2782
diterima	2783
mir	2784
bk	2785
pur	2786
ulang	2787
sana	2788
tampil	2789
##oper	2790
##ho	2791
tri	2792
bekasi	2793
nik	2794
kepem	2795
ilustrasi	2796
kematian	2797
aktif	2798
pram	2799
petani	2800
sebut	2801
##anjian	2802
fo	2803
##erd	2804
nusantara	2805
judi	2806
kesep	2807
tampak	2808
wartawan	2809
##icu	2810
reg	2811
##itasi	2812
##ite	2813
prib	2814
gug	2815
pentingnya	2816
kenaikan	2817
por	2818
div	2819
dilaporkan	2820
dipr	2821
bumn	2822
it	2823
perjanjian	2824
##esaikan	2825
mengajak	2826
##tisipasi	2827
aktivitas	2828
pengur	2829
kesel	2830
##utuskan	2831
berasal	2832
arah	2833
##ens	2834
berupa	2835
semangat	2836
##truktur	2837
mu	2838
##ero	2839
ancaman	2840
debat	2841
insi	2842
##okasi	2843
alam	2844
kre	2845
##angkaian	2846
bagus	2847
biaya	2848
no	2849
##entuk	2850
##ancis	2851
##ujudkan	2852
##lar	2853
hi	2854
##embangkan	2855
fes	2856
##akuasi	2857
pemuda	2858
pkb	2859
bint	2860
##usnya	2861
imi	2862
##impi	2863
##emi	2864
penju	2865
daft	2866
##faatkan	2867
penyelidikan	2868
menurun	2869
jerman	2870
strate	2871
momen	2872
##entikan	2873
spesi	2874
meres	2875
##anji	2876
##jahter	2877
gabungan	2878
##anja	2879
##unda	2880
jog	2881
pup	2882
##asanya	2883
wah	2884
az	2885
go	2886
hukuman	2887
##wakilan	2888
##indra	2889
berkelanjutan	2890
lul	2891
berusaha	2892
##urahan	2893
##bus	2894
##ayaan	2895
##anjutnya	2896
medan	2897
strategi	2898
izin	2899
bap	2900
##dangan	2901
mahkam	2902
jelasnya	2903
mahkamah	2904
##ement	2905
agen	2906
sulit	2907
dianggap	2908
dise	2909
##imb	2910
pasti	2911
dilaksanakan	2912
nt	2913
##oran	2914
sm	2915
##masi	2916
##alahkan	2917
insta	2918
platform	2919
gro	2920
##adah	2921
##antas	2922
ki	2923
jajaran	2924
sini	2925
##idat	2926
bad	2927
##elis	2928
masjid	2929
##abuhan	2930
##nif	2931
tenggara	2932
kanan	2933
ob	2934
##ork	2935
lebaran	2936
batu	2937
ramadan	2938
instagram	2939
gemp	2940
sukses	2941
begini	2942
perwakilan	2943
selanjutnya	2944
##dayaan	2945
wan	2946
##alisasi	2947
##bk	2948
##angkapan	2949
##onald	2950
bersih	2951
##ail	2952
##ambang	2953
kekuatan	2954
pajak	2955
menolak	2956
ahli	2957
kader	2958
caw	2959
ikn	2960
bebas	2961
##olaan	2962
prancis	2963
##ebih	2964
pelatihan	2965
keper	2966
terdiri	2967
keduanya	2968
##tulis	2969
skor	2970
daftar	2971
stu	2972
gagal	2973
gi	2974
ditetapkan	2975
##pirasi	2976
berupaya	2977
pemba	2978
pengelolaan	2979
hit	2980
##har	2981
konsumen	2982
belakang	2983
pilgub	2984
pengawasan	2985
olahraga	2986
sosok	2987
perbatasan	2988
##antung	2989
ge	2990
ha	2991
##urat	2992
lantaran	2993
tum	2994
##onf	2995
32	2996
##tal	2997
anti	2998
mengungkap	2999
##epatan	3000
filip	3001
##indungi	3002
##kab	3003
##sor	3004
##juk	3005
##onomian	3006
buah	3007
kalimantan	3008
##ex	3009
center	3010
##ewaskan	3011
malay	3012
##onton	3013
lakukan	3014
##antik	3015
mitra	3016
pon	3017
##ewa	3018
##uad	3019
##anon	3020
hid	3021
ran	3022
##pan	3023
##eman	3024
tahap	3025
##tinggi	3026
gerindra	3027
metro	3028
mi	3029
filipina	3030
malaysia	3031
##mu	3032
menangkap	3033
delapan	3034
##wil	3035
bertujuan	3036
##uth	3037
pribadi	3038
india	3039
##yarat	3040
sejarah	3041
perekonomian	3042
insiden	3043
memenangkan	3044
menyer	3045
##ampingi	3046
ialah	3047
kri	3048
##etisi	3049
pelabuhan	3050
hab	3051
tud	3052
##ilah	3053
##isk	3054
kelurahan	3055
mempert	3056
ayah	3057
boleh	3058
##wang	3059
##sedia	3060
manajemen	3061
##kl	3062
pemungutan	3063
##ampuan	3064
##iaga	3065
lebanon	3066
dikutip	3067
##isah	3068
##indak	3069
perhatian	3070
nu	3071
##ming	3072
pemilik	3073
##awarkan	3074
##anggar	3075
##onsumsi	3076
minta	3077
##wed	3078
menya	3079
##uma	3080
penga	3081
risiko	3082
##asinya	3083
##ender	3084
##aka	3085
##andatangan	3086
dokumen	3087
keman	3088
konser	3089
##agam	3090
##lan	3091
infras	3092
ringan	3093
aku	3094
paris	3095
konstitusi	3096
##45	3097
##jaya	3098
signif	3099
signifikan	3100
sri	3101
##",	3102
mencegah	3103
mengetahui	3104
##uhnya	3105
intel	3106
##isa	3107
##ebasan	3108
bangunan	3109
mandiri	3110
##so	3111
menyedi	3112
menyediakan	3113
##lo	3114
##jahteraan	3115
kemampuan	3116
kesejahteraan	3117
sukar	3118
##indo	3119
hilang	3120
##wedan	3121
pemas	3122
meluncurkan	3123
menghadiri	3124
##ins	3125
##ora	3126
mengurangi	3127
tai	3128
##umham	3129
top	3130
menjabat	3131
kemanusi	3132
gerakan	3133
nya	3134
##ofi	3135
##irmasi	3136
truk	3137
baswedan	3138
##dy	3139
pemkot	3140
status	3141
berbicara	3142
sta	3143
tal	3144
kandidat	3145
angkatan	3146
jogja	3147
33	3148
terh	3149
##tian	3150
##antasan	3151
airl	3152
menjalankan	3153
kemanusiaan	3154
fran	3155
lan	3156
koordinator	3157
##abumi	3158
kiri	3159
kateg	3160
menangg	3161
##apr	3162
##tifikasi	3163
minyak	3164
tes	3165
##uler	3166
seben	3167
##prov	3168
terdakwa	3169
infrastruktur	3170
36	3171
##onis	3172
##tival	3173
pemberantasan	3174
dah	3175
dom	3176
##stem	3177
##enangan	3178
mengirim	3179
tentara	3180
rata	3181
tertinggi	3182
sank	3183
tip	3184
##ganya	3185
2021	3186
##ampilan	3187
klub	3188
##wab	3189
##oba	3190
##mat	3191
menewaskan	3192
##apatan	3193
##bulkan	3194
kategori	3195
##oritas	3196
##endara	3197
##bangkan	3198
festival	3199
merek	3200
membutuhkan	3201
sukabumi	3202
bbc	3203
hadi	3204
justr	3205
##lukan	3206
##hadiran	3207
sebenarnya	3208
justru	3209
##tuju	3210
suriah	3211
maksim	3212
dinilai	3213
selamat	3214
kara	3215
menik	3216
riz	3217
motog	3218
##jaga	3219
arus	3220
profesi	3221
##wisata	3222
##ast	3223
terg	3224
senior	3225
pelanggan	3226
menunggu	3227
##adisi	3228
suami	3229
motogp	3230
ai	3231
perp	3232
memutuskan	3233
bergerak	3234
penyebab	3235
##upa	3236
##pns	3237
anaknya	3238
teror	3239
##uruan	3240
##bud	3241
iii	3242
cab	3243
kalah	3244
##arif	3245
penangan	3246
mendes	3247
kesepakatan	3248
visi	3249
sumsel	3250
perkembangan	3251
majelis	3252
tiket	3253
ses	3254
sanksi	3255
long	3256
pang	3257
tam	3258
kampus	3259
km	3260
percaya	3261
pengungsi	3262
##itian	3263
membahas	3264
##ink	3265
##bau	3266
kehadiran	3267
kompl	3268
##laim	3269
rev	3270
##iayaan	3271
wanita	3272
moh	3273
menetapkan	3274
paket	3275
mengajukan	3276
cpns	3277
##edia	3278
kehidup	3279
rudal	3280
tata	3281
##atar	3282
kun	3283
##ungkan	3284
menyambut	3285
international	3286
group	3287
##kand	3288
hasto	3289
500	3290
genc	3291
pik	3292
##andar	3293
##impiade	3294
##tup	3295
minim	3296
menekankan	3297
##evel	3298
sulaw	3299
ridwan	3300
jiwa	3301
sulawesi	3302
penelitian	3303
##gn	3304
##pur	3305
##asakan	3306
mencoba	3307
##intaan	3308
meter	3309
misi	3310
##ida	3311
sehar	3312
ekspor	3313
menawarkan	3314
damai	3315
tradisi	3316
##usif	3317
kereta	3318
diperkirakan	3319
seharusnya	3320
##ts	3321
mengatasi	3322
34	3323
##entar	3324
mewujudkan	3325
atlet	3326
penanganan	3327
berawan	3328
##etik	3329
berbasis	3330
199	3331
berper	3332
seles	3333
pks	3334
imigrasi	3335
jaksa	3336
liv	3337
##uku	3338
penjualan	3339
gempa	3340
jemb	3341
##sh	3342
##engkap	3343
iklim	3344
mengakui	3345
mon	3346
##ral	3347
admin	3348
##ailand	3349
sepeda	3350
thailand	3351
terdampak	3352
syarat	3353
##alisi	3354
impor	3355
klas	3356
unggul	3357
bergabung	3358
rp1	3359
berpotensi	3360
##ual	3361
##aksaan	3362
kompetisi	3363
tambahan	3364
penerbangan	3365
sikap	3366
##hawat	3367
mengeluarkan	3368
studi	3369
saudi	3370
rekan	3371
kejah	3372
kehidupan	3373
mudik	3374
##arikan	3375
panas	3376
fitur	3377
kejahatan	3378
mengamankan	3379
##ito	3380
tema	3381
bumi	3382
38	3383
fisi	3384
uni	3385
##abuming	3386
##sisten	3387
nyata	3388
tab	3389
##ell	3390
##ulang	3391
aset	3392
berkembang	3393
rakabuming	3394
2019	3395
mengembangkan	3396
##awatan	3397
##ancam	3398
pakar	3399
##uturkan	3400
55	3401
kari	3402
##bal	3403
menuturkan	3404
##atikan	3405
muslim	3406
penduduk	3407
idul	3408
##arjo	3409
##egara	3410
menyi	3411
prot	3412
selesai	3413
60	3414
gas	3415
red	3416
##erita	3417
##itri	3418
menyerang	3419
ton	3420
##num	3421
penjabat	3422
##gia	3423
park	3424
pencarian	3425
gugatan	3426
##gasi	3427
##ord	3428
##utri	3429
apala	3430
oknum	3431
kulit	3432
menengah	3433
peman	3434
apalagi	3435
peneg	3436
darah	3437
diskusi	3438
##adem	3439
##bi	3440
##yadi	3441
pemkab	3442
##zah	3443
##anggil	3444
permintaan	3445
et	3446
mencatat	3447
raka	3448
skuad	3449
##abila	3450
eksek	3451
libur	3452
##bol	3453
padang	3454
bh	3455
##ge	3456
kerus	3457
dikel	3458
lu	3459
##adar	3460
pembel	3461
operasional	3462
##iksi	3463
##angani	3464
berlaku	3465
rokok	3466
##antinya	3467
##osk	3468
antar	3469
##dukung	3470
berakhir	3471
perc	3472
##omend	3473
rangka	3474
seja	3475
##ampi	3476
apresiasi	3477
didukung	3478
perawatan	3479
sir	3480
##ker	3481
##anyakan	3482
persiapan	3483
airlangga	3484
##iraan	3485
inisi	3486
saw	3487
##entak	3488
mengingatkan	3489
kemenkumham	3490
pariwisata	3491
taiwan	3492
##by	3493
##eni	3494
fl	3495
##ekar	3496
##alikan	3497
##asilkan	3498
mati	3499
mengingat	3500
misalnya	3501
##apresiasi	3502
##akup	3503
dibawa	3504
kepemimpinan	3505
kop	3506
penangkapan	3507
pec	3508
obat	3509
samb	3510
##hing	3511
menyus	3512
terlalu	3513
shin	3514
administr	3515
##ee	3516
##ukur	3517
diminta	3518
tercatat	3519
tuduhan	3520
pengan	3521
roh	3522
melanggar	3523
rutin	3524
bintang	3525
##daftar	3526
buruk	3527
tuan	3528
prod	3529
biasanya	3530
aparat	3531
37	3532
massa	3533
gram	3534
fat	3535
hew	3536
##ometer	3537
##udin	3538
olimpiade	3539
bany	3540
##ren	3541
##urangan	3542
##temen	3543
##apaian	3544
saling	3545
award	3546
cor	3547
hiz	3548
##iring	3549
transaksi	3550
meninggalkan	3551
##bullah	3552
garuda	3553
##gung	3554
##ilangan	3555
akbar	3556
##ongk	3557
menyiapkan	3558
kalangan	3559
bangk	3560
uji	3561
##torat	3562
menanggapi	3563
hutan	3564
##tra	3565
pengusaha	3566
mesin	3567
angin	3568
kot	3569
viet	3570
pah	3571
pemprov	3572
##airan	3573
mengk	3574
yakin	3575
hut	3576
2020	3577
mempering	3578
kejaksaan	3579
##assar	3580
##atuan	3581
menim	3582
##aluasi	3583
kursi	3584
kompet	3585
##asitas	3586
##tir	3587
pengamanan	3588
manag	3589
koalisi	3590
##ebut	3591
makassar	3592
megaw	3593
##ikin	3594
##itkan	3595
##erjaan	3596
berdampak	3597
hizbullah	3598
##arti	3599
serentak	3600
teknis	3601
tas	3602
say	3603
##uddin	3604
##los	3605
ilmu	3606
mcr	3607
##ekat	3608
##edar	3609
ist	3610
sejauh	3611
##illah	3612
sepak	3613
serius	3614
##mati	3615
amin	3616
ide	3617
tertulis	3618
peringkat	3619
champi	3620
hewan	3621
##alifikasi	3622
lawan	3623
##unggal	3624
city	3625
##bo	3626
##etan	3627
maksimal	3628
rendah	3629
tp	3630
##tain	3631
##udara	3632
selaku	3633
tanda	3634
menyelesaikan	3635
staf	3636
##asta	3637
putaran	3638
##ez	3639
penet	3640
##ice	3641
buka	3642
buku	3643
dewi	3644
pekanbaru	3645
cawapres	3646
gam	3647
faktor	3648
awak	3649
sebaga	3650
##ainkan	3651
megawati	3652
##unci	3653
tambah	3654
logistik	3655
mendesak	3656
indra	3657
memasuki	3658
diikuti	3659
##esang	3660
purw	3661
##ei	3662
memicu	3663
mag	3664
##iriman	3665
gor	3666
mpr	3667
##ner	3668
pengurus	3669
taman	3670
##resi	3671
sehari	3672
pendapatan	3673
kaesang	3674
##ey	3675
##anjung	3676
krim	3677
tekan	3678
##yono	3679
##adinya	3680
harris	3681
persis	3682
ekstr	3683
menambah	3684
iv	3685
comm	3686
fakta	3687
tertentu	3688
cip	3689
##amaian	3690
melindungi	3691
##emaja	3692
vietnam	3693
##ombang	3694
pertanya	3695
darurat	3696
sembilan	3697
menyerahkan	3698
ditahan	3699
kabin	3700
mund	3701
##nu	3702
kepula	3703
uj	3704
diselenggarakan	3705
pupuk	3706
kepulauan	3707
fed	3708
mur	3709
mencetak	3710
##elawan	3711
##ram	3712
##ahankan	3713
kuasa	3714
ungkapnya	3715
##daknya	3716
minuman	3717
##ayu	3718
transpor	3719
##onfirmasi	3720
coba	3721
koordinasi	3722
kamil	3723
medis	3724
belajar	3725
off	3726
karawang	3727
era	3728
kat	3729
khofi	3730
bayi	3731
sleman	3732
gencatan	3733
khofifah	3734
setidaknya	3735
sukarelawan	3736
##insip	3737
materi	3738
moham	3739
bunga	3740
hil	3741
persero	3742
stasi	3743
terang	3744
mengapresiasi	3745
##anggu	3746
terlebih	3747
kehilangan	3748
praktik	3749
jurn	3750
##son	3751
##ick	3752
bengk	3753
sap	3754
##lasi	3755
##land	3756
##kti	3757
##unjungi	3758
penyelenggaraan	3759
##aker	3760
##tual	3761
akp	3762
klaim	3763
rup	3764
pengamat	3765
irjen	3766
memanfaatkan	3767
voa	3768
##old	3769
prinsip	3770
##ediksi	3771
star	3772
##operasi	3773
menimbulkan	3774
stasiun	3775
gian	3776
##enalkan	3777
prior	3778
berkon	3779
kualifikasi	3780
##yakini	3781
kilometer	3782
penetapan	3783
..	3784
nantinya	3785
rai	3786
mengusung	3787
senayan	3788
pabr	3789
##tivitas	3790
pabrik	3791
##anyi	3792
apabila	3793
kaltim	3794
dihadiri	3795
mencer	3796
mencakup	3797
##ence	3798
polresta	3799
cir	3800
##gh	3801
##sinya	3802
pran	3803
##egang	3804
perso	3805
##tabes	3806
berf	3807
invest	3808
prioritas	3809
con	3810
##pon	3811
##sos	3812
pendek	3813
dipimpin	3814
persoalan	3815
##uy	3816
##sus	3817
##abah	3818
##oso	3819
tanggung	3820
champions	3821
yong	3822
##rika	3823
##ambat	3824
pac	3825
##oman	3826
##ainan	3827
##asilan	3828
longsor	3829
pulang	3830
##cayaan	3831
penyelenggara	3832
remaja	3833
##ambah	3834
lihat	3835
sas	3836
tun	3837
konten	3838
kapasitas	3839
##oroti	3840
terbukti	3841
transportasi	3842
mig	3843
perum	3844
ketena	3845
legis	3846
jangka	3847
##entasi	3848
polsek	3849
zona	3850
diambil	3851
##edakan	3852
menjawab	3853
pertanyaan	3854
rangkaian	3855
##amar	3856
komand	3857
bpbd	3858
washing	3859
##ahun	3860
##ino	3861
##ulis	3862
penur	3863
bahasa	3864
marc	3865
pengawas	3866
berisi	3867
merilis	3868
penurunan	3869
pohon	3870
sosialisasi	3871
tambahnya	3872
washington	3873
mengonsumsi	3874
##ontoh	3875
mundur	3876
laman	3877
ru	3878
##wenang	3879
##itung	3880
##andi	3881
akr	3882
dibuka	3883
hel	3884
##ajuan	3885
rob	3886
tunggal	3887
dag	3888
aktivis	3889
berarti	3890
##esan	3891
##intah	3892
buat	3893
kerugi	3894
##juang	3895
fisik	3896
##sidi	3897
tahanan	3898
sumut	3899
regi	3900
segala	3901
otor	3902
yus	3903
##ubungi	3904
senang	3905
dipas	3906
ident	3907
##ungkinkan	3908
menurunkan	3909
hitam	3910
profesional	3911
mengalahkan	3912
ketenagak	3913
joh	3914
##kandar	3915
berkontribusi	3916
kerugian	3917
##lom	3918
pengunjung	3919
pasien	3920
bapak	3921
##fik	3922
##app	3923
##osisi	3924
cil	3925
md	3926
nel	3927
semuanya	3928
usai	3929
ketenagakerjaan	3930
menjadikan	3931
)",	3932
43	3933
donald	3934
##akuan	3935
##ahi	3936
##sual	3937
nusa	3938
pameran	3939
41	3940
##yu	3941
mengubah	3942
boj	3943
finan	3944
##ania	3945
##uksi	3946
pelajar	3947
ketat	3948
##ahami	3949
beragam	3950
iskandar	3951
standar	3952
teh	3953
##imbau	3954
khawat	3955
##entuan	3956
bakar	3957
##argetkan	3958
arif	3959
rusak	3960
sor	3961
tae	3962
dj	3963
taj	3964
umat	3965
administrasi	3966
cl	3967
peg	3968
##erat	3969
kabinet	3970
je	3971
##syah	3972
catatan	3973
hib	3974
kp	3975
kemajuan	3976
pemberian	3977
toko	3978
##uasaan	3979
kepercayaan	3980
##adu	3981
adat	3982
batas	3983
elektabilitas	3984
cabang	3985
gianyar	3986
kt	3987
lengkap	3988
brand	3989
elektr	3990
hijau	3991
##utif	3992
madura	3993
menutup	3994
##indari	3995
39	3996
ikan	3997
kunci	3998
##eor	3999
##fat	4000
##hiri	4001
##ver	4002
real	4003
imbuh	4004
do	4005
gad	4006
diamankan	4007
situs	4008
##osiasi	4009
suatu	4010
##umpul	4011
##tansi	4012
pintu	4013
dap	4014
fer	4015
kak	4016
tangga	4017
##ahal	4018
memulai	4019
seksual	4020
layak	4021
fungsi	4022
mor	4023
##urian	4024
memungkinkan	4025
soekar	4026
karyawan	4027
dulu	4028
##bs	4029
solid	4030
aparatur	4031
riset	4032
rekomend	4033
kontrak	4034
42	4035
lanc	4036
##rid	4037
##jur	4038
##erai	4039
model	4040
keselamatan	4041
khawatir	4042
mengand	4043
polit	4044
ditemui	4045
merespons	4046
ceo	4047
##undang	4048
##amaan	4049
alami	4050
menghentikan	4051
wajib	4052
tanjung	4053
wor	4054
##fisi	4055
beliau	4056
upa	4057
##ish	4058
bambang	4059
wat	4060
##ld	4061
##apol	4062
##omosi	4063
dav	4064
tulis	4065
##uny	4066
berta	4067
##iban	4068
##istis	4069
regional	4070
afrika	4071
##aimin	4072
joe	4073
kerusakan	4074
tekanan	4075
menentukan	4076
##iling	4077
surakarta	4078
intensi	4079
dahulu	4080
ded	4081
kaki	4082
term	4083
##ester	4084
##endik	4085
muhaimin	4086
##eorologi	4087
cal	4088
mik	4089
##vensi	4090
senilai	4091
depar	4092
perdamaian	4093
pranowo	4094
44	4095
48	4096
jena	4097
nasi	4098
sop	4099
##alik	4100
##esti	4101
plas	4102
##ohonan	4103
##onik	4104
##raf	4105
upacara	4106
##apura	4107
jatuh	4108
##ampilkan	4109
beroperasi	4110
sekjen	4111
kerap	4112
padahal	4113
warna	4114
##osistem	4115
kred	4116
relawan	4117
ntb	4118
bend	4119
kapten	4120
persebaya	4121
efektif	4122
kompleks	4123
##alin	4124
mengec	4125
##alian	4126
super	4127
rekomendasi	4128
tay	4129
perayaan	4130
beij	4131
diny	4132
sambut	4133
##akar	4134
bersen	4135
ekosistem	4136
memperoleh	4137
integr	4138
berperan	4139
eksekutif	4140
beijing	4141
bung	4142
##que	4143
##elasan	4144
##otan	4145
##anggilan	4146
camp	4147
lp	4148
##oga	4149
##fe	4150
desain	4151
migran	4152
bilang	4153
liter	4154
seni	4155
##oduksi	4156
pot	4157
##cc	4158
darat	4159
##truksi	4160
hy	4161
jema	4162
mengunjungi	4163
nyaman	4164
ekstrem	4165
taw	4166
pengiriman	4167
institu	4168
bertanggung	4169
dibuat	4170
satuan	4171
47	4172
sya	4173
##akai	4174
##itungan	4175
berku	4176
##evakuasi	4177
kriminal	4178
bertajuk	4179
purn	4180
berwenang	4181
mengadakan	4182
menghasilkan	4183
narkot	4184
news	4185
##ahmi	4186
keadaan	4187
kartu	4188
penyanyi	4189
##aksud	4190
kasat	4191
##pora	4192
narkotika	4193
nah	4194
##orter	4195
##uro	4196
##uransi	4197
diperlukan	4198
tambang	4199
lar	4200
qatar	4201
sun	4202
##udul	4203
diplom	4204
bertahan	4205
protes	4206
56	4207
eduk	4208
ni	4209
rest	4210
klasemen	4211
51	4212
##air	4213
perangkat	4214
##entang	4215
##gres	4216
nuk	4217
##kes	4218
berubah	4219
mac	4220
awalnya	4221
ibadah	4222
identitas	4223
berkualitas	4224
dw	4225
norm	4226
berencana	4227
selebr	4228
agenda	4229
...	4230
jenazah	4231
melay	4232
lebat	4233
membeli	4234
kompol	4235
turki	4236
##uw	4237
open	4238
kanwil	4239
kontra	4240
diy	4241
##olusi	4242
mempertahankan	4243
yud	4244
##esu	4245
kamar	4246
ros	4247
##lir	4248
didampingi	4249
nasabah	4250
kac	4251
tadi	4252
permas	4253
##ace	4254
drone	4255
legisl	4256
tarif	4257
##ku	4258
permohonan	4259
##gunaan	4260
2026	4261
saudara	4262
serupa	4263
dilan	4264
persidangan	4265
lanjutnya	4266
kreatif	4267
cah	4268
sec	4269
##anyahu	4270
##ungkap	4271
netanyahu	4272
perbaikan	4273
wi	4274
keadilan	4275
sese	4276
##siapkan	4277
memahami	4278
##adai	4279
##abat	4280
menyoroti	4281
gaji	4282
##rist	4283
kediri	4284
emil	4285
berikutnya	4286
viral	4287
52	4288
##umpulkan	4289
balai	4290
lahir	4291
bersenjata	4292
cel	4293
##jakan	4294
menud	4295
pelunc	4296
putin	4297
direktorat	4298
nelayan	4299
nuklir	4300
far	4301
panc	4302
##namen	4303
jas	4304
##sen	4305
tembak	4306
pembicara	4307
produs	4308
dinyatakan	4309
hasan	4310
##bon	4311
##hip	4312
##uluh	4313
alham	4314
##andatangani	4315
dos	4316
mari	4317
mic	4318
sambil	4319
##teng	4320
keempat	4321
##olaborasi	4322
##idana	4323
konsep	4324
penceg	4325
diperiksa	4326
modern	4327
wisatawan	4328
fir	4329
mun	4330
smk	4331
##yani	4332
kew	4333
##eskrim	4334
adil	4335
##anyol	4336
kus	4337
##lih	4338
spanyol	4339
kapolda	4340
departemen	4341
alhamdul	4342
##sur	4343
##gag	4344
andi	4345
##upan	4346
##eja	4347
membentuk	4348
menerapkan	4349
natal	4350
##hat	4351
mengapa	4352
lapas	4353
erick	4354
cerah	4355
##aing	4356
##uskan	4357
sido	4358
pemad	4359
##ujuk	4360
kalinya	4361
artinya	4362
##adang	4363
respons	4364
##engaruhi	4365
swasta	4366
om	4367
##ium	4368
perairan	4369
aktor	4370
mendek	4371
vol	4372
##aruh	4373
##buk	4374
##engkapi	4375
49	4376
##ill	4377
merayakan	4378
imam	4379
tumbuh	4380
bn	4381
##dem	4382
##jek	4383
kesi	4384
berkolaborasi	4385
ketidak	4386
keberl	4387
ayat	4388
cik	4389
sent	4390
tbk	4391
semif	4392
sesuatu	4393
pembay	4394
akrab	4395
pencegahan	4396
bet	4397
pangk	4398
tentunya	4399
regulasi	4400
pembayaran	4401
pesi	4402
##antah	4403
##ogram	4404
semifinal	4405
don	4406
##be	4407
akadem	4408
58	4409
av	4410
##amkan	4411
anwar	4412
alum	4413
turnamen	4414
world	4415
dilansir	4416
peluncuran	4417
##tion	4418
dibutuhkan	4419
jarak	4420
##itia	4421
indah	4422
bbm	4423
singapura	4424
krisis	4425
70	4426
##tern	4427
##ertai	4428
plastik	4429
edukasi	4430
##akkan	4431
##ayat	4432
reformasi	4433
meteorologi	4434
investor	4435
permasalahan	4436
53	4437
gangg	4438
##ph	4439
##tok	4440
arm	4441
kebudayaan	4442
lulus	4443
##alurkan	4444
##angkatan	4445
karang	4446
penyer	4447
ketentuan	4448
80	4449
##antren	4450
ketum	4451
permainan	4452
susu	4453
gangguan	4454
##sal	4455
detik	4456
yas	4457
menempat	4458
tahapan	4459
penyidikan	4460
seseorang	4461
born	4462
##va	4463
##indah	4464
efisi	4465
dukung	4466
ting	4467
##ungnya	4468
baz	4469
semoga	4470
karno	4471
kekhawat	4472
pasalnya	4473
pembuk	4474
bkn	4475
59	4476
##idasi	4477
##awanan	4478
berbah	4479
deklar	4480
mayoritas	4481
kekhawatiran	4482
han	4483
jus	4484
##asana	4485
##asia	4486
mengimbau	4487
##day	4488
pesantren	4489
penerim	4490
lancar	4491
bikin	4492
kai	4493
##intar	4494
militan	4495
membayar	4496
transi	4497
cak	4498
##sean	4499
persija	4500
##port	4501
supaya	4502
inisiatif	4503
aut	4504
tren	4505
jembatan	4506
jurnalis	4507
bob	4508
kelah	4509
##ii	4510
##cang	4511
perintah	4512
mengin	4513
aspek	4514
irak	4515
##dagang	4516
54	4517
##ron	4518
berbagi	4519
##entan	4520
persatuan	4521
kekuasaan	4522
borneo	4523
kelahiran	4524
##ear	4525
disertai	4526
suasana	4527
bantul	4528
syari	4529
memperkenalkan	4530
ten	4531
ruu	4532
alhamdulillah	4533
asean	4534
##alih	4535
asuransi	4536
internal	4537
lantas	4538
sdm	4539
kopi	4540
dedi	4541
lol	4542
pokok	4543
##aritas	4544
berkat	4545
46	4546
by	4547
jm	4548
##aga	4549
##esik	4550
##ingin	4551
hasilnya	4552
setiawan	4553
penerimaan	4554
lum	4555
lest	4556
suku	4557
57	4558
wal	4559
peneliti	4560
jemaah	4561
##ff	4562
mendaftar	4563
sesi	4564
berangkat	4565
mengus	4566
2018	4567
prakiraan	4568
mit	4569
##alang	4570
##ulangan	4571
beli	4572
##usak	4573
prestasi	4574
##ataan	4575
polrestabes	4576
lt	4577
##hana	4578
##amatkan	4579
tertu	4580
##itakan	4581
##waj	4582
pernik	4583
inflasi	4584
evaluasi	4585
cita	4586
##fitri	4587
menampilkan	4588
##luas	4589
##baiki	4590
market	4591
istana	4592
sebagaimana	4593
sidoarjo	4594
75	4595
kk	4596
wna	4597
raja	4598
sandera	4599
##elang	4600
penip	4601
indep	4602
mempunya	4603
mengakhiri	4604
sasaran	4605
geo	4606
transp	4607
kilogram	4608
independ	4609
##kah	4610
##urit	4611
##ower	4612
##hk	4613
##epon	4614
##ogo	4615
maaf	4616
mengakibatkan	4617
jember	4618
muk	4619
wis	4620
pendapat	4621
dn	4622
##imat	4623
##tujui	4624
mempunyai	4625
90	4626
pag	4627
psis	4628
kontribusi	4629
##hanc	4630
pidat	4631
ayu	4632
deklarasi	4633
yay	4634
##fo	4635
satgas	4636
##angkau	4637
##ance	4638
##adwalkan	4639
##san	4640
menko	4641
##tusi	4642
dilantik	4643
ppp	4644
##aksikan	4645
gelombang	4646
pernikahan	4647
cag	4648
dibangun	4649
##awal	4650
modal	4651
nasdem	4652
batang	4653
dwi	4654
##hasilan	4655
menguc	4656
pedagang	4657
terjadinya	4658
lepas	4659
##dian	4660
melip	4661
konsisten	4662
penganiayaan	4663
cek	4664
##oc	4665
##ct	4666
##kus	4667
menangani	4668
##olog	4669
##angkut	4670
pasokan	4671
##ijen	4672
##dagri	4673
##untungan	4674
level	4675
puasa	4676
mengant	4677
antusi	4678
arya	4679
menghindari	4680
elektronik	4681
bent	4682
##st	4683
penemb	4684
belanda	4685
##onstr	4686
aff	4687
yayasan	4688
##aminya	4689
belanja	4690
antusias	4691
kud	4692
sut	4693
peroleh	4694
##oko	4695
tahunan	4696
namanya	4697
otoritas	4698
sela	4699
##andai	4700
konsumsi	4701
memeriksa	4702
divisi	4703
pu	4704
sc	4705
##kom	4706
##batas	4707
transformasi	4708
hek	4709
york	4710
merasakan	4711
##awang	4712
mempersiapkan	4713
tiktok	4714
tep	4715
##inar	4716
terse	4717
##tib	4718
pensi	4719
gresik	4720
keterl	4721
university	4722
optimistis	4723
buruh	4724
boy	4725
fad	4726
##au	4727
##lakukan	4728
perform	4729
##ekaan	4730
martin	4731
pakistan	4732
rektor	4733
menuntut	4734
menargetkan	4735
tersedia	4736
prop	4737
timnya	4738
pssi	4739
idulfitri	4740
##are	4741
pemenangan	4742
adik	4743
##ambangan	4744
##ancarkan	4745
pencurian	4746
pss	4747
dol	4748
##iner	4749
perund	4750
##ulian	4751
arema	4752
suaminya	4753
keberadaan	4754
keluarganya	4755
murah	4756
##pi	4757
##der	4758
##fer	4759
pembal	4760
berhenti	4761
membagi	4762
kotak	4763
juanda	4764
all	4765
##oblos	4766
respon	4767
##ondok	4768
berjudul	4769
kaj	4770
uh	4771
##bitkan	4772
##rut	4773
##abilitas	4774
corpor	4775
##fisika	4776
david	4777
mesi	4778
berc	4779
pegi	4780
badung	4781
wita	4782
bertugas	4783
penangg	4784
penonton	4785
temuan	4786
dewa	4787
main	4788
rom	4789
##ktikan	4790
##js	4791
penind	4792
mendengar	4793
kongres	4794
pembebasan	4795
300	4796
klimat	4797
##untutan	4798
##ugikan	4799
hendak	4800
fraksi	4801
selebritas	4802
hektar	4803
klimatologi	4804
##my	4805
##akter	4806
kesul	4807
daring	4808
mengenakan	4809
sarana	4810
besok	4811
mengirimkan	4812
79	4813
sma	4814
##ebaskan	4815
kredit	4816
geofisika	4817
berjuang	4818
pemenang	4819
pelantikan	4820
##ingkatkan	4821
istr	4822
arahan	4823
2016	4824
ramah	4825
ngurah	4826
perumahan	4827
doa	4828
web	4829
wawan	4830
series	4831
alih	4832
##klusif	4833
yah	4834
##ust	4835
kedatangan	4836
membantah	4837
rekor	4838
diberi	4839
niaga	4840
ven	4841
##roli	4842
menel	4843
komentar	4844
##unjukan	4845
ky	4846
##uters	4847
rumahnya	4848
bila	4849
col	4850
##io	4851
adv	4852
penggel	4853
2017	4854
supri	4855
jaminan	4856
cerita	4857
intelijen	4858
menikmati	4859
rupiah	4860
keberlanjutan	4861
ca	4862
tar	4863
##jana	4864
dira	4865
##ony	4866
##irikan	4867
penampilan	4868
##epan	4869
youtu	4870
waspada	4871
tkp	4872
##ahaman	4873
pergi	4874
##abil	4875
##ormatan	4876
gelora	4877
mesir	4878
##put	4879
##hub	4880
##egoro	4881
##ebar	4882
alex	4883
penerapan	4884
menyerukan	4885
memperingatkan	4886
tk	4887
##uruhan	4888
paus	4889
istrinya	4890
##lad	4891
pengadaan	4892
##trik	4893
##eco	4894
instansi	4895
penerima	4896
saham	4897
tersebar	4898
banjar	4899
sch	4900
persa	4901
sejalan	4902
panitia	4903
maluku	4904
suhu	4905
##dp	4906
diran	4907
mena	4908
menganggap	4909
ade	4910
##ambarkan	4911
pilih	4912
fakul	4913
pns	4914
tamu	4915
perolehan	4916
zul	4917
##emar	4918
##iden	4919
melanda	4920
##jual	4921
parpol	4922
andika	4923
parkir	4924
kompetensi	4925
hulu	4926
gereja	4927
##uyur	4928
##injau	4929
sekutu	4930
mineral	4931
event	4932
penipuan	4933
dirancang	4934
fakultas	4935
cinta	4936
rem	4937
##do	4938
##atik	4939
##atih	4940
menahan	4941
##itor	4942
diajukan	4943
bud	4944
##nia	4945
##tn	4946
##een	4947
2029	4948
##ormati	4949
##timewa	4950
pencapaian	4951
federal	4952
syah	4953
##madi	4954
##ehan	4955
adi	4956
suporter	4957
permuk	4958
keberhasilan	4959
fau	4960
cuma	4961
gud	4962
##onegoro	4963
##itim	4964
##ainya	4965
surya	4966
memperluas	4967
berlanjut	4968
pakai	4969
dosen	4970
luth	4971
diadakan	4972
penyedia	4973
produsen	4974
penembakan	4975
day	4976
gula	4977
ras	4978
##cok	4979
raf	4980
penjelasan	4981
meliputi	4982
kesulitan	4983
##her	4984
##inginan	4985
reuters	4986
partisipasi	4987
emisi	4988
tradisional	4989
melayani	4990
nana	4991
##inaan	4992
##imis	4993
##asila	4994
##opsi	4995
palsu	4996
dijadwalkan	4997
mengandung	4998
kenc	4999
##uel	5000
##zani	5001
penger	5002
sampaikan	5003
brig	5004
##erdekaan	5005
ced	5006
menger	5007
pembukaan	5008
asasi	5009
karakter	5010
pesta	5011
reskrim	5012
oposisi	5013
ulama	5014
menyusul	5015
##lok	5016
##hu	5017
seiring	5018
##uruk	5019
##andeng	5020
pengendara	5021
kemerdekaan	5022
semen	5023
dinam	5024
koper	5025
rafah	5026
##ongkok	5027
ft	5028
pondok	5029
wala	5030
##par	5031
##dan	5032
##tis	5033
bersalah	5034
simbol	5035
artis	5036
rizky	5037
transparan	5038
mengucapkan	5039
contoh	5040
myan	5041
perbu	5042
mengatur	5043
pola	5044
##intahkan	5045
ketahanan	5046
meyakini	5047
##iskinan	5048
pesisir	5049
myanmar	5050
janji	5051
##wat	5052
beri	5053
gerimis	5054
sedikitnya	5055
independen	5056
abu	5057
bil	5058
cr	5059
keungg	5060
kemiskinan	5061
##akses	5062
tanggapan	5063
bangga	5064
evakuasi	5065
perguruan	5066
menuduh	5067
berbahaya	5068
halaman	5069
out	5070
##jang	5071
##20	5072
menu	5073
dilanjutkan	5074
siaran	5075
##kaitan	5076
##sist	5077
##ejut	5078
caleg	5079
keunggulan	5080
tom	5081
ver	5082
##bn	5083
##ne	5084
##alog	5085
##itis	5086
##ukses	5087
internet	5088
liar	5089
patroli	5090
binaan	5091
manager	5092
gaya	5093
##edaran	5094
##asaan	5095
##aju	5096
##evisi	5097
##quez	5098
cs	5099
##uasai	5100
beserta	5101
pancasila	5102
##gaja	5103
terbatas	5104
premi	5105
kebebasan	5106
##entum	5107
kandungan	5108
##ary	5109
##oker	5110
demak	5111
demonstr	5112
pemberdayaan	5113
berjanji	5114
my	5115
tutup	5116
##eno	5117
bergi	5118
pres	5119
tiongkok	5120
kekalahan	5121
unggulan	5122
momentum	5123
mayat	5124
pendekatan	5125
luthfi	5126
perbuatan	5127
mengumpulkan	5128
undangan	5129
##gih	5130
##integr	5131
kekurangan	5132
nugr	5133
##pen	5134
##mikan	5135
##23	5136
##arto	5137
diusung	5138
menemb	5139
suka	5140
##idiki	5141
bergizi	5142
garis	5143
beredar	5144
peral	5145
##ulir	5146
distrik	5147
##ohir	5148
transisi	5149
cedera	5150
butu	5151
cap	5152
cov	5153
ec	5154
kira	5155
lam	5156
land	5157
##erg	5158
penutup	5159
asli	5160
aspirasi	5161
##osa	5162
keteg	5163
##ector	5164
##bakar	5165
lo	5166
##he	5167
seber	5168
##usn	5169
sekadar	5170
grand	5171
urusan	5172
psm	5173
##cial	5174
championship	5175
pembicaraan	5176
itulah	5177
sinergi	5178
peduli	5179
##endikbud	5180
mapol	5181
tenang	5182
peredaran	5183
alian	5184
##sedur	5185
rute	5186
santri	5187
italia	5188
larangan	5189
jak	5190
kaya	5191
merujuk	5192
kamu	5193
##angkutan	5194
dirilis	5195
##aturahmi	5196
run	5197
keuntungan	5198
##tauan	5199
penjaga	5200
merusak	5201
##ibatan	5202
khas	5203
biak	5204
##okrasi	5205
penindakan	5206
duduk	5207
ganda	5208
ns	5209
vit	5210
##jol	5211
unsur	5212
sembak	5213
telepon	5214
mengelola	5215
dipastikan	5216
aliansi	5217
hod	5218
honda	5219
kandang	5220
hidayat	5221
sembako	5222
mosk	5223
panggilan	5224
##dm	5225
##ananya	5226
##emudi	5227
menindak	5228
analis	5229
betul	5230
istimewa	5231
##ongkar	5232
lanjutan	5233
dekade	5234
tuntutan	5235
mengaw	5236
##tiban	5237
dikirim	5238
##ivid	5239
afp	5240
hadiah	5241
gawang	5242
simp	5243
##rt	5244
##indahan	5245
sepakat	5246
rekaman	5247
membagikan	5248
roy	5249
##ie	5250
##uter	5251
berkumpul	5252
ric	5253
mengganggu	5254
sepen	5255
moskow	5256
.,	5257
rb	5258
terungkap	5259
melarang	5260
marquez	5261
sultan	5262
subsidi	5263
ditutup	5264
keseluruhan	5265
kesiapan	5266
iq	5267
luk	5268
panggung	5269
##irian	5270
individ	5271
##timbangkan	5272
pln	5273
corporate	5274
##ortasi	5275
setara	5276
utang	5277
habib	5278
dian	5279
pengakuan	5280
menjual	5281
berko	5282
rez	5283
##embalikan	5284
besaran	5285
pramono	5286
hodak	5287
ci	5288
mental	5289
berkaitan	5290
##uling	5291
prosedur	5292
sepuluh	5293
dorong	5294
##enakan	5295
pras	5296
##alisis	5297
##andra	5298
perbeda	5299
das	5300
##hatikan	5301
##vin	5302
melaju	5303
distribusi	5304
usulan	5305
bekas	5306
terbar	5307
terbakar	5308
satpol	5309
temb	5310
putr	5311
jamb	5312
##ket	5313
dani	5314
mengangkat	5315
kesalahan	5316
perhubungan	5317
bra	5318
##tah	5319
melancarkan	5320
##awi	5321
parah	5322
plt	5323
wajah	5324
hilir	5325
hiburan	5326
tir	5327
versi	5328
##inggung	5329
tanaman	5330
impl	5331
mendatangi	5332
##incian	5333
penegakan	5334
tajam	5335
cagub	5336
gudang	5337
##lantas	5338
dita	5339
##unikasi	5340
##omba	5341
##endra	5342
pakaian	5343
buatan	5344
mewak	5345
##purna	5346
hor	5347
kisah	5348
dialami	5349
kong	5350
imbang	5351
cina	5352
fase	5353
##lat	5354
##cs	5355
petir	5356
terduga	5357
kabid	5358
rsud	5359
found	5360
disebabkan	5361
bengkulu	5362
sopir	5363
rt	5364
sr	5365
##win	5366
##ella	5367
daripada	5368
melew	5369
##ebon	5370
##ogan	5371
bersaing	5372
kanker	5373
bam	5374
fik	5375
sapi	5376
##de	5377
menged	5378
suci	5379
thohir	5380
##etahuan	5381
asi	5382
os	5383
pindah	5384
wayan	5385
mengancam	5386
##ukai	5387
pengumum	5388
##tris	5389
terletak	5390
keny	5391
cirebon	5392
ketegangan	5393
##bah	5394
##ien	5395
##atuhkan	5396
##elam	5397
##olan	5398
merugikan	5399
aktris	5400
timah	5401
literasi	5402
aw	5403
berani	5404
pembinaan	5405
##antian	5406
diprediksi	5407
pikir	5408
perbedaan	5409
tangk	5410
##ial	5411
##akti	5412
sayap	5413
##reskrim	5414
medali	5415
penghitungan	5416
kapolri	5417
hektare	5418
ledakan	5419
rad	5420
teco	5421
##sial	5422
##umentasi	5423
mengek	5424
penilai	5425
anj	5426
mengawal	5427
##identifikasi	5428
feb	5429
##cepat	5430
##unting	5431
##sipasi	5432
tidur	5433
bandar	5434
berpar	5435
kanada	5436
head	5437
##unyi	5438
##lihatkan	5439
##taan	5440
##bum	5441
saf	5442
##angku	5443
sumbar	5444
##unggah	5445
dpc	5446
tenggelam	5447
tour	5448
bon	5449
##aram	5450
##astian	5451
berulang	5452
##ria	5453
##eboh	5454
##ebihan	5455
##otor	5456
##ambahan	5457
berst	5458
john	5459
we	5460
##ano	5461
pra	5462
prat	5463
##yarakatan	5464
penyalah	5465
kritik	5466
nato	5467
keterlibatan	5468
kok	5469
##ghan	5470
##sk	5471
##allah	5472
bawa	5473
##edah	5474
asosiasi	5475
pertemp	5476
diserahkan	5477
terluka	5478
berpartisipasi	5479
pertempuran	5480
jantung	5481
lemb	5482
ria	5483
pengec	5484
kemendikbud	5485
brasil	5486
terkena	5487
menyelenggarakan	5488
ditud	5489
daging	5490
performa	5491
penanggulangan	5492
sepenuhnya	5493
pengumuman	5494
##ach	5495
praj	5496
##tera	5497
komite	5498
##opol	5499
menggambarkan	5500
reser	5501
##izinkan	5502
gem	5503
hat	5504
kayu	5505
ne	5506
siti	5507
sekitarnya	5508
##ordinasi	5509
live	5510
mewakili	5511
ppn	5512
penguatan	5513
kekayaan	5514
##antisipasi	5515
afghan	5516
##okerto	5517
pons	5518
ditanya	5519
mahal	5520
##tivasi	5521
abdullah	5522
markas	5523
afghanistan	5524
ida	5525
tv	5526
ass	5527
dimaksud	5528
gunawan	5529
##abrak	5530
penyalahgunaan	5531
hong	5532
ranc	5533
singkat	5534
pemda	5535
##udukan	5536
pengacara	5537
normal	5538
pangkalan	5539
badai	5540
kuli	5541
##50	5542
terbang	5543
mendalam	5544
siber	5545
dikeluarkan	5546
kawan	5547
las	5548
meninjau	5549
##aria	5550
##andia	5551
##bankan	5552
disapa	5553
dipta	5554
smp	5555
komandan	5556
baznas	5557
raffi	5558
butuh	5559
individu	5560
limb	5561
##oner	5562
inilah	5563
perw	5564
mempertimbangkan	5565
198	5566
baterai	5567
mengab	5568
metode	5569
##tabil	5570
motif	5571
beban	5572
pidato	5573
sad	5574
##ominasi	5575
bersangkutan	5576
197	5577
didapat	5578
paul	5579
rub	5580
kebang	5581
membela	5582
unggahan	5583
pembelian	5584
awards	5585
ponsel	5586
bpk	5587
##ean	5588
##30	5589
keinginan	5590
serv	5591
mekan	5592
##ersial	5593
jejak	5594
##atuhi	5595
##amen	5596
##tail	5597
serangkaian	5598
##ect	5599
dimiliki	5600
dihubungi	5601
patra	5602
duta	5603
mohammad	5604
jor	5605
teb	5606
##usun	5607
harian	5608
disabilitas	5609
##estik	5610
teknik	5611
memantau	5612
##ristek	5613
bib	5614
euro	5615
fre	5616
##ajat	5617
dikonfirmasi	5618
bukanlah	5619
legislatif	5620
renc	5621
##wono	5622
berbu	5623
mengungsi	5624
menyaksikan	5625
memperbaiki	5626
kristi	5627
populer	5628
domestik	5629
kapan	5630
pay	5631
ret	5632
xi	5633
pengend	5634
##antang	5635
##jadikan	5636
insya	5637
batam	5638
mataram	5639
ntt	5640
lantai	5641
kencang	5642
bom	5643
hand	5644
sengk	5645
##ery	5646
ditr	5647
layar	5648
##anjuti	5649
pasc	5650
beda	5651
pencalon	5652
koster	5653
kosong	5654
jul	5655
jet	5656
malah	5657
##pura	5658
dijadikan	5659
##urang	5660
album	5661
##warna	5662
rach	5663
sawit	5664
lolos	5665
peralatan	5666
cian	5667
pengemudi	5668
politikus	5669
sisa	5670
elemen	5671
2015	5672
mikro	5673
tayang	5674
syariah	5675
vitamin	5676
prajurit	5677
gil	5678
##pto	5679
##iaman	5680
##utar	5681
pengetahuan	5682
stunting	5683
kebun	5684
kesad	5685
institusi	5686
berpend	5687
tuk	5688
##eum	5689
##rat	5690
pertim	5691
umur	5692
kecepatan	5693
penyelund	5694
seder	5695
roda	5696
alumni	5697
covid	5698
rawan	5699
diam	5700
##aper	5701
##imi	5702
kelima	5703
memperlihatkan	5704
green	5705
##itraan	5706
wawancara	5707
cianjur	5708
##aktif	5709
##ikir	5710
pemul	5711
##ica	5712
ramalan	5713
bermula	5714
youtube	5715
iqbal	5716
kenyamanan	5717
penilaian	5718
kesadaran	5719
##ler	5720
##uali	5721
##asnya	5722
##amakan	5723
##unkan	5724
##rafi	5725
dirjen	5726
membuktikan	5727
dokumentasi	5728
blitar	5729
kajian	5730
pertimbangan	5731
kasi	5732
diangkat	5733
menandatangani	5734
app	5735
aliran	5736
dilihat	5737
pembiayaan	5738
takut	5739
miliknya	5740
mengeklaim	5741
kg	5742
wujud	5743
##das	5744
##erakan	5745
inform	5746
memanggil	5747
menyalurkan	5748
beasiswa	5749
psbs	5750
##igh	5751
kudus	5752
ic	5753
##als	5754
merd	5755
komod	5756
teroris	5757
bendera	5758
##hancurkan	5759
bos	5760
ts	5761
wong	5762
terancam	5763
pros	5764
halal	5765
kediaman	5766
rp2	5767
televisi	5768
belakangan	5769
giz	5770
lomb	5771
waris	5772
tergabung	5773
menjalin	5774
plus	5775
bunuh	5776
fit	5777
##papan	5778
##zal	5779
##entif	5780
berwarna	5781
##anjangan	5782
altern	5783
berdiri	5784
balikpapan	5785
integritas	5786
lombok	5787
fajar	5788
kir	5789
##hum	5790
jual	5791
pertambangan	5792
sengaja	5793
setahun	5794
membunuh	5795
dipilih	5796
minimal	5797
cas	5798
ren	5799
##fasil	5800
##iness	5801
##olik	5802
##daul	5803
kelola	5804
kuota	5805
konsul	5806
match	5807
biru	5808
persaingan	5809
implement	5810
sengketa	5811
xx	5812
##val	5813
dijalan	5814
pri	5815
bahaya	5816
hadapan	5817
tulang	5818
nikita	5819
imbuhnya	5820
etik	5821
lini	5822
##iaran	5823
##amanya	5824
##elih	5825
##ilaku	5826
##use	5827
##ajah	5828
diterapkan	5829
boc	5830
##omosikan	5831
limbah	5832
##fasilitasi	5833
##sy	5834
##enya	5835
##aru	5836
##ikor	5837
##obatan	5838
eko	5839
menghormati	5840
##encanaan	5841
2014	5842
kenapa	5843
mewah	5844
spesial	5845
cender	5846
bersy	5847
menggantikan	5848
pembentukan	5849
menyad	5850
##ctv	5851
berstatus	5852
kn	5853
stabilitas	5854
##atas	5855
berawal	5856
allah	5857
show	5858
kondusif	5859
pembalap	5860
kuliah	5861
jah	5862
rutan	5863
##mal	5864
unik	5865
diluncurkan	5866
memben	5867
investi	5868
jayapura	5869
menceritakan	5870
dolar	5871
berkoordinasi	5872
melewati	5873
merdeka	5874
bersyukur	5875
##endam	5876
blok	5877
blink	5878
rahasia	5879
gagasan	5880
pandangan	5881
birokrasi	5882
##oskop	5883
terminal	5884
pensiun	5885
ach	5886
##jaman	5887
promo	5888
law	5889
arg	5890
mempercepat	5891
##ensif	5892
jutaan	5893
madrid	5894
silaturahmi	5895
pnm	5896
citra	5897
gim	5898
jon	5899
##art	5900
##eleng	5901
said	5902
kemitraan	5903
ditunjuk	5904
mulia	5905
samping	5906
thom	5907
kurnia	5908
aud	5909
##aknya	5910
negatif	5911
##oses	5912
##ugat	5913
institute	5914
mb	5915
##lin	5916
persyar	5917
##encanakan	5918
teguh	5919
menikah	5920
tepi	5921
klien	5922
dewasa	5923
intensitas	5924
zoni	5925
##lanjuti	5926
##vo	5927
berunt	5928
pengobatan	5929
kelapa	5930
##apitul	5931
andr	5932
saluran	5933
telkom	5934
modus	5935
kadin	5936
garut	5937
inovatif	5938
hout	5939
solidaritas	5940
nasib	5941
basar	5942
##eam	5943
##egaw	5944
##rama	5945
##inci	5946
diab	5947
##aparan	5948
pemudik	5949
kepegaw	5950
menyimp	5951
##pati	5952
sekel	5953
##anjikan	5954
silam	5955
cerai	5956
##apitulasi	5957
kepegawaian	5958
?"	5959
devel	5960
##info	5961
##iskan	5962
##imo	5963
pemak	5964
komis	5965
daun	5966
est	5967
business	5968
gusti	5969
duel	5970
fen	5971
kian	5972
mr	5973
mut	5974
##tek	5975
##eber	5976
mengu	5977
kron	5978
skala	5979
rekapitulasi	5980
blinken	5981
pingg	5982
##nop	5983
diumumkan	5984
##arifikasi	5985
penandatangan	5986
properti	5987
##rain	5988
##otong	5989
chi	5990
berlaga	5991
1445	5992
penggemar	5993
jelang	5994
kehormatan	5995
##kpp	5996
ayam	5997
tampaknya	5998
kiai	5999
banyuw	6000
belah	6001
baku	6002
hun	6003
kuh	6004
pmi	6005
romb	6006
##mah	6007
konvensi	6008
##obi	6009
skema	6010
##omotif	6011
optimal	6012
##esuaikan	6013
persyaratan	6014
banyuwangi	6015
cctv	6016
let	6017
pm	6018
keag	6019
mengantisipasi	6020
##adaian	6021
mendampingi	6022
stat	6023
def	6024
##ondo	6025
##mart	6026
psik	6027
pegadaian	6028
jambi	6029
rencananya	6030
gizi	6031
##ort	6032
##gian	6033
##ambatan	6034
dilengkapi	6035
berkata	6036
##asihat	6037
ppd	6038
kemudahan	6039
terpaksa	6040
meningkatnya	6041
ganja	6042
val	6043
##etul	6044
##sari	6045
##amu	6046
##onya	6047
melarikan	6048
arena	6049
##ove	6050
pandemi	6051
food	6052
dikelola	6053
finansial	6054
penutupan	6055
fac	6056
##ling	6057
pelapor	6058
mencuri	6059
berkunjung	6060
kecurangan	6061
usd	6062
##faatan	6063
pahl	6064
alternatif	6065
komisaris	6066
raih	6067
zakat	6068
##enj	6069
kewaj	6070
kemasan	6071
pelamar	6072
bansos	6073
bersifat	6074
tech	6075
geor	6076
fransis	6077
purwakarta	6078
houthi	6079
made	6080
resi	6081
##ser	6082
##ahirkan	6083
berapa	6084
##ander	6085
setengah	6086
banding	6087
buleleng	6088
manajer	6089
sayang	6090
fauzi	6091
##cu	6092
##alo	6093
##inis	6094
perahu	6095
pembatasan	6096
analisis	6097
karbon	6098
##ungkapkan	6099
bayu	6100
##entian	6101
##madiyah	6102
##panjang	6103
dijual	6104
##elit	6105
##indahkan	6106
penyal	6107
trengg	6108
bioskop	6109
manis	6110
coach	6111
lulusan	6112
berfokus	6113
rombongan	6114
wir	6115
wni	6116
##ster	6117
menghancurkan	6118
memad	6119
##isihan	6120
##enag	6121
kapolsek	6122
arief	6123
menginginkan	6124
kuliner	6125
##utrisi	6126
##bt	6127
##nar	6128
##ebaran	6129
hart	6130
196	6131
kurban	6132
memerintahkan	6133
penegak	6134
dapil	6135
%.	6136
ug	6137
indo	6138
menyita	6139
massal	6140
sug	6141
sugi	6142
##vey	6143
objek	6144
menaik	6145
kemendikbudristek	6146
reserse	6147
pencalonan	6148
##med	6149
##wati	6150
##rad	6151
##ereb	6152
##ukkan	6153
##egasi	6154
director	6155
##acam	6156
persik	6157
abd	6158
offic	6159
kewenangan	6160
menyadari	6161
mud	6162
what	6163
##dik	6164
##umas	6165
mengad	6166
memaj	6167
baha	6168
##ubis	6169
##ague	6170
konserv	6171
pemasyarakatan	6172
flor	6173
##ght	6174
bojan	6175
lestari	6176
csr	6177
cib	6178
mang	6179
##lil	6180
diungkapkan	6181
##orasi	6182
mengisi	6183
apel	6184
dilarang	6185
rec	6186
end	6187
pembah	6188
150	6189
bertindak	6190
simak	6191
sahabat	6192
latar	6193
biro	6194
mengusulkan	6195
keagamaan	6196
cup	6197
vaks	6198
##atnya	6199
menandai	6200
setuju	6201
##istribusi	6202
mengem	6203
##ome	6204
##oksi	6205
bareng	6206
jaga	6207
terbanyak	6208
terkini	6209
gede	6210
stabil	6211
##ening	6212
dialog	6213
##gai	6214
##uduki	6215
400	6216
iwan	6217
rac	6218
yord	6219
diatur	6220
mengeks	6221
isti	6222
penyerang	6223
bersiap	6224
pergerakan	6225
implementasi	6226
##rasi	6227
dikab	6228
maul	6229
pasifik	6230
perwira	6231
investigasi	6232
dest	6233
##tinya	6234
##adangan	6235
##esh	6236
##bag	6237
kaum	6238
mempromosikan	6239
water	6240
meksi	6241
ruas	6242
keja	6243
##edak	6244
menjamin	6245
bahlil	6246
berkas	6247
##erifikasi	6248
terpisah	6249
bertambah	6250
depannya	6251
posko	6252
ambil	6253
soekarno	6254
dh	6255
siaga	6256
##rana	6257
diman	6258
perilaku	6259
##utra	6260
##eportasi	6261
pasca	6262
##ografi	6263
sejah	6264
##oho	6265
struk	6266
bangun	6267
rahmat	6268
dihadapi	6269
wahyu	6270
karier	6271
bhay	6272
percepatan	6273
pemulihan	6274
ata	6275
zel	6276
##mo	6277
##naker	6278
##rul	6279
##aleng	6280
perempat	6281
##ovasi	6282
dipanggil	6283
menyelamatkan	6284
kontestasi	6285
memproduksi	6286
habis	6287
meksiko	6288
tand	6289
tangkap	6290
##eu	6291
##eteksi	6292
melintas	6293
melainkan	6294
menghab	6295
muhammadiyah	6296
tawuran	6297
dirawat	6298
rancangan	6299
komoditas	6300
##noputri	6301
bhayangk	6302
ronald	6303
won	6304
menan	6305
menulis	6306
pelec	6307
disambut	6308
antam	6309
delegasi	6310
game	6311
koperasi	6312
65	6313
hind	6314
berpr	6315
penambahan	6316
pilot	6317
pemberont	6318
moj	6319
dikabarkan	6320
capaian	6321
ep	6322
##hy	6323
##arep	6324
alun	6325
bey	6326
kendala	6327
profes	6328
angkat	6329
league	6330
pembuatan	6331
macam	6332
menempatkan	6333
bs	6334
bot	6335
dingin	6336
iri	6337
##inja	6338
##ith	6339
deputi	6340
imin	6341
mall	6342
hamil	6343
gelandang	6344
sigit	6345
ktt	6346
tingg	6347
visa	6348
2045	6349
##egaraan	6350
penderita	6351
250	6352
##engaruh	6353
struktur	6354
##alek	6355
##inj	6356
##sion	6357
merebut	6358
pengaruh	6359
semacam	6360
puskes	6361
terkenal	6362
cent	6363
fas	6364
spr	6365
dievakuasi	6366
tersi	6367
##iker	6368
penulis	6369
keliling	6370
andre	6371
kejati	6372
otomotif	6373
mengawasi	6374
pengendalian	6375
memajukan	6376
cim	6377
##rok	6378
mengevakuasi	6379
##ental	6380
tempur	6381
pembangk	6382
resolusi	6383
##juangkan	6384
krist	6385
penyeles	6386
kabur	6387
warung	6388
disebutkan	6389
mirzani	6390
tembakau	6391
demonstrasi	6392
penyelundupan	6393
wapres	6394
##gon	6395
berman	6396
perbankan	6397
anas	6398
sebelah	6399
pendiri	6400
enter	6401
bertek	6402
bertahun	6403
shop	6404
bawang	6405
denda	6406
commun	6407
soekarnoputri	6408
politisi	6409
mekanisme	6410
kuhp	6411
whats	6412
sejahtera	6413
##cakan	6414
##zz	6415
##jat	6416
perencanaan	6417
mengundang	6418
mencat	6419
maritim	6420
panen	6421
angkutan	6422
fenom	6423
penyelesaian	6424
btn	6425
lip	6426
##cing	6427
##yangkan	6428
sebaik	6429
mengkr	6430
##ular	6431
mask	6432
pasuruan	6433
pengelola	6434
marketing	6435
insyaallah	6436
cenderung	6437
pahlawan	6438
yordania	6439
pelecehan	6440
whatsapp	6441
aq	6442
kode	6443
puas	6444
##dent	6445
menemp	6446
##endalikan	6447
kemendagri	6448
reza	6449
resm	6450
setia	6451
liburan	6452
bj	6453
dhar	6454
gemb	6455
lomba	6456
##onen	6457
##itya	6458
##ampingan	6459
##udahkan	6460
##hani	6461
##ution	6462
memperkirakan	6463
heal	6464
pemadaman	6465
pratama	6466
##alengka	6467
best	6468
tap	6469
##arat	6470
memakai	6471
##bert	6472
kemenag	6473
##epaskan	6474
##ajang	6475
ref	6476
menghilang	6477
##cky	6478
herman	6479
pinjaman	6480
rano	6481
taliban	6482
##residen	6483
zelens	6484
puskesmas	6485
mam	6486
ppk	6487
ray	6488
vina	6489
##minkan	6490
##cel	6491
##vitas	6492
berikan	6493
pemangku	6494
##alif	6495
asdp	6496
bersatu	6497
menggandeng	6498
kuta	6499
one	6500
kejari	6501
##inspirasi	6502
jembrana	6503
pemanfaatan	6504
gej	6505
sih	6506
dibagi	6507
##ado	6508
##aduan	6509
##apus	6510
##uman	6511
menjatuhkan	6512
kubu	6513
otak	6514
##tarto	6515
ayahnya	6516
##sediaan	6517
rohing	6518
jasad	6519
pek	6520
smart	6521
##gen	6522
##pb	6523
##mawan	6524
##ejar	6525
##hl	6526
menun	6527
##urasi	6528
##aia	6529
pemahaman	6530
##oket	6531
asam	6532
hartarto	6533
stef	6534
amanah	6535
populasi	6536
mencerminkan	6537
##aliknya	6538
develop	6539
penyaluran	6540
bahagia	6541
##abut	6542
menentang	6543
memainkan	6544
penahanan	6545
##etakan	6546
asuhan	6547
sebaliknya	6548
##umpulan	6549
netr	6550
alasannya	6551
penandatanganan	6552
trenggalek	6553
##of	6554
##dn	6555
kedaul	6556
##ume	6557
keped	6558
kepresiden	6559
##edahan	6560
##ations	6561
##inggo	6562
##own	6563
dikatakan	6564
kekasih	6565
kritis	6566
##tikel	6567
perlawanan	6568
bpjs	6569
katolik	6570
restoran	6571
pembahasan	6572
kedaulatan	6573
asisten	6574
rw	6575
rap	6576
##gaan	6577
berse	6578
##ujung	6579
umumnya	6580
ramai	6581
derajat	6582
memperingati	6583
komando	6584
walaupun	6585
rohingya	6586
madi	6587
yun	6588
##wf	6589
##iss	6590
##idi	6591
##way	6592
bareskrim	6593
sorotan	6594
tembakan	6595
kejagung	6596
lari	6597
nutrisi	6598
tump	6599
work	6600
##ks	6601
memfasilitasi	6602
##iro	6603
##ando	6604
ammar	6605
mengajar	6606
menyelidiki	6607
kiper	6608
fransiskus	6609
ataupun	6610
tingginya	6611
99	6612
bor	6613
sari	6614
sind	6615
sport	6616
##les	6617
##isinya	6618
seluas	6619
indeks	6620
sekda	6621
pendana	6622
ditambah	6623
samarin	6624
expo	6625
##hawatirkan	6626
sapaan	6627
yusuf	6628
destinasi	6629
netralitas	6630
samarinda	6631
800	6632
bara	6633
##vi	6634
##ahap	6635
##otaan	6636
jawaban	6637
banyaknya	6638
partainya	6639
##tusan	6640
ditembak	6641
koleksi	6642
revisi	6643
daniel	6644
kewajiban	6645
dkpp	6646
kang	6647
pub	6648
ryan	6649
penemuan	6650
##itaan	6651
halil	6652
temannya	6653
berdasar	6654
ahy	6655
menemui	6656
tepatnya	6657
nyawa	6658
etika	6659
yasin	6660
development	6661
sai	6662
##yal	6663
menguasai	6664
##uban	6665
##ajari	6666
pastikan	6667
##ody	6668
##opter	6669
imp	6670
komponen	6671
enggan	6672
iptu	6673
##ejutkan	6674
600	6675
dk	6676
hani	6677
khan	6678
tanya	6679
##mur	6680
##rus	6681
##ias	6682
##anggih	6683
diing	6684
##olakan	6685
##ihal	6686
melahirkan	6687
pengangkatan	6688
sertifikasi	6689
apapun	6690
upah	6691
terdekat	6692
salat	6693
##untungkan	6694
pembelajaran	6695
##gagalkan	6696
dituduh	6697
fenomena	6698
halilintar	6699
lab	6700
mm	6701
ty	6702
##orsi	6703
memudahkan	6704
tetangga	6705
mengguyur	6706
umrah	6707
##alonkan	6708
##ture	6709
rp3	6710
cocok	6711
disiapkan	6712
sambungnya	6713
kaca	6714
bermanfaat	6715
zelensky	6716
kup	6717
putu	6718
##nai	6719
##asari	6720
##esa	6721
##asif	6722
penuntut	6723
##ubung	6724
##tifikat	6725
benny	6726
akademisi	6727
responden	6728
praset	6729
mojokerto	6730
luh	6731
pip	6732
yam	6733
##yang	6734
probol	6735
membat	6736
willi	6737
didik	6738
thr	6739
ikatan	6740
simulasi	6741
lee	6742
mempengaruhi	6743
pangarep	6744
cawa	6745
kristiyanto	6746
bhayangkara	6747
mencatatkan	6748
madiun	6749
61	6750
76	6751
gp	6752
hij	6753
isi	6754
iya	6755
pep	6756
ruangan	6757
ui	6758
mengutip	6759
bag	6760
##ley	6761
irwan	6762
mits	6763
kepedulian	6764
probolinggo	6765
'.	6766
73	6767
asep	6768
bima	6769
kod	6770
sara	6771
##lian	6772
##arahan	6773
##aktur	6774
keg	6775
penasihat	6776
##obos	6777
belasan	6778
teuku	6779
##akwaan	6780
premium	6781
pendanaan	6782
besi	6783
rd	6784
ratu	6785
rilis	6786
rentan	6787
##kal	6788
menabrak	6789
memperhatikan	6790
ditangani	6791
duka	6792
teluk	6793
edisi	6794
memerlukan	6795
##enial	6796
basarnas	6797
membatalkan	6798
##zil	6799
##ateral	6800
##ining	6801
##inda	6802
##sihan	6803
##buan	6804
unjuk	6805
##omod	6806
komersial	6807
agresi	6808
kecerd	6809
membeber	6810
kebangk	6811
pbnu	6812
suswono	6813
fair	6814
sesama	6815
efisiensi	6816
penggeledahan	6817
thomas	6818
jarang	6819
mini	6820
vonis	6821
who	6822
##antau	6823
##alti	6824
##aparkan	6825
mengejutkan	6826
negaranya	6827
pleno	6828
batik	6829
berpikir	6830
spesialis	6831
mengklaim	6832
78	6833
u1	6834
##yn	6835
##inik	6836
##aptasi	6837
##umber	6838
mengonfirmasi	6839
praper	6840
pengungk	6841
##arankan	6842
menderita	6843
pertunjukan	6844
banda	6845
diperoleh	6846
##ondon	6847
sams	6848
risma	6849
deras	6850
power	6851
zain	6852
##ze	6853
##zen	6854
##ikopter	6855
mengembalikan	6856
memuji	6857
und	6858
##ogle	6859
arsi	6860
she	6861
banget	6862
edward	6863
kontak	6864
kripto	6865
helikopter	6866
ferry	6867
efisien	6868
dimanfaatkan	6869
jun	6870
jpu	6871
##mp	6872
##jan	6873
##adak	6874
sumatra	6875
google	6876
goront	6877
kecerdasan	6878
hos	6879
london	6880
narap	6881
berag	6882
##isar	6883
##etes	6884
##intasan	6885
apbn	6886
ketertiban	6887
lipat	6888
berpendapat	6889
gorontalo	6890
canggih	6891
rk	6892
ry	6893
wasi	6894
##iarkan	6895
##elas	6896
##orogo	6897
mengerahkan	6898
##berangan	6899
dalamnya	6900
##antam	6901
##taskan	6902
kecewa	6903
emosi	6904
ucapan	6905
padat	6906
situb	6907
pemadam	6908
praperadilan	6909
pengungkapan	6910
narapidana	6911
88	6912
gat	6913
paksa	6914
voli	6915
wac	6916
##roni	6917
##lima	6918
berak	6919
##urusan	6920
##egan	6921
menduga	6922
kerj	6923
persel	6924
menghubungi	6925
perkeb	6926
andri	6927
##itif	6928
basuki	6929
terjangkau	6930
persetujuan	6931
##larasikan	6932
gigi	6933
resminya	6934
hebat	6935
promosi	6936
pemuk	6937
##andu	6938
dirasakan	6939
utamanya	6940
sumed	6941
berhak	6942
medi	6943
bertanya	6944
bukit	6945
##ungagung	6946
tulungagung	6947
santoso	6948
ponorogo	6949
achmad	6950
kepresidenan	6951
situbondo	6952
perkebunan	6953
kag	6954
seng	6955
##enep	6956
diin	6957
artikel	6958
##diakan	6959
kris	6960
produktivitas	6961
museum	6962
tertinggal	6963
##ansyah	6964
port	6965
tertutup	6966
membeberkan	6967
##arja	6968
kamala	6969
##intangi	6970
pilar	6971
sumenep	6972
bersamaan	6973
konsol	6974
elec	6975
digitalisasi	6976
rudy	6977
mengecam	6978
brigjen	6979
dusun	6980
kay	6981
nir	6982
##ongi	6983
##ise	6984
##ampanye	6985
kepad	6986
##osal	6987
amp	6988
char	6989
##ikator	6990
erupsi	6991
jumlahnya	6992
atm	6993
netral	6994
disita	6995
pecco	6996
intensif	6997
##sistensi	6998
nugroho	6999
ms	7000
menimp	7001
mengund	7002
memec	7003
ars	7004
berkuasa	7005
mengenal	7006
bergantung	7007
heru	7008
human	7009
kontrov	7010
material	7011
diplomatik	7012
dijalankan	7013
sekelompok	7014
maskapai	7015
98	7016
radi	7017
reh	7018
##dani	7019
berter	7020
terasa	7021
memegang	7022
##ukuran	7023
##ullah	7024
pengund	7025
ormas	7026
kompr	7027
##ention	7028
dibayar	7029
franc	7030
perpanjangan	7031
warisan	7032
audi	7033
ciri	7034
dakwaan	7035
##wo	7036
##zuki	7037
##erkan	7038
##inang	7039
mengan	7040
##enting	7041
kart	7042
milenial	7043
berlebihan	7044
menyetujui	7045
kesukses	7046
social	7047
petern	7048
bangkalan	7049
mengecek	7050
mab	7051
way	7052
##emat	7053
##elat	7054
mengidentifikasi	7055
masukan	7056
alf	7057
berkampanye	7058
dibebaskan	7059
detail	7060
kimia	7061
penyerahan	7062
membenarkan	7063
zelenskyy	7064
gegara	7065
tingkatkan	7066
##kin	7067
##vel	7068
##alas	7069
pemegang	7070
##ibur	7071
##ebak	7072
tiap	7073
dipakai	7074
opsi	7075
ditujukan	7076
miras	7077
dapur	7078
cahyadi	7079
armada	7080
menghabiskan	7081
geng	7082
giri	7083
list	7084
ngaw	7085
rag	7086
##vor	7087
##aro	7088
##ater	7089
penolakan	7090
master	7091
serdang	7092
mendirikan	7093
kelaparan	7094
harm	7095
memperjuangkan	7096
##uarakan	7097
benda	7098
life	7099
majalengka	7100
##oyo	7101
##daftarkan	7102
sustain	7103
garda	7104
tujuannya	7105
pengecekan	7106
ditreskrim	7107
statistik	7108
kebangkitan	7109
hay	7110
##ated	7111
diyakini	7112
mengizinkan	7113
memul	7114
press	7115
meluas	7116
##jarah	7117
president	7118
mach	7119
energ	7120
panel	7121
musuh	7122
tegasnya	7123
jabatannya	7124
terorisme	7125
karim	7126
conv	7127
67	7128
bungk	7129
bangka	7130
##oter	7131
inklusif	7132
memaksa	7133
sertifikat	7134
harvey	7135
##ich	7136
kebanyakan	7137
insentif	7138
system	7139
otom	7140
sandra	7141
bule	7142
pengurangan	7143
fatoni	7144
sambutan	7145
kkb	7146
profesor	7147
tersisa	7148
cok	7149
gal	7150
jud	7151
laks	7152
##car	7153
##atuhan	7154
dibat	7155
terdaftar	7156
##aribu	7157
##oma	7158
##ihkan	7159
lansia	7160
tabanan	7161
mendeklarasikan	7162
bobby	7163
mapolres	7164
##narkoba	7165
bertekad	7166
68	7167
calif	7168
tend	7169
##emuka	7170
##engarkan	7171
bab	7172
##presi	7173
##estarian	7174
chr	7175
ditjen	7176
keterampilan	7177
berlokasi	7178
terkemuka	7179
##ornia	7180
meresmikan	7181
ivan	7182
wacana	7183
gh	7184
ks	7185
spor	7186
tunj	7187
##enta	7188
##esm	7189
indikator	7190
kamera	7191
seruan	7192
##inting	7193
satreskrim	7194
pasaribu	7195
membatasi	7196
pengganti	7197
diterbitkan	7198
terangnya	7199
rezim	7200
diabetes	7201
california	7202
petah	7203
vis	7204
wadah	7205
##bek	7206
mengar	7207
##tiar	7208
pengamb	7209
##entina	7210
mencalonkan	7211
##osis	7212
kecantikan	7213
kantong	7214
nyoman	7215
pramella	7216
teheran	7217
kakak	7218
campur	7219
ricis	7220
77	7221
hangat	7222
isis	7223
putus	7224
##ark	7225
dias	7226
penalti	7227
##ebo	7228
bahrain	7229
wibowo	7230
hadirkan	7231
kadang	7232
info	7233
panglima	7234
##abilitasi	7235
kesuksesan	7236
petahana	7237
cadangan	7238
nor	7239
race	7240
yaman	7241
##fan	7242
##eret	7243
##elajari	7244
unr	7245
##imbang	7246
##ebarkan	7247
##ative	7248
##ingkus	7249
##optim	7250
dikonsumsi	7251
manuf	7252
##ack	7253
ekspl	7254
dpw	7255
noor	7256
giias	7257
bojonegoro	7258
##ologis	7259
menembak	7260
hunian	7261
gajah	7262
tito	7263
##ath	7264
##onny	7265
prima	7266
kemnaker	7267
seminar	7268
##epak	7269
jumpa	7270
mart	7271
stak	7272
klarifikasi	7273
rambut	7274
stadium	7275
ajak	7276
konteks	7277
rido	7278
##iskusi	7279
kuningan	7280
pemantauan	7281
sambung	7282
ruben	7283
fan	7284
lampu	7285
mbak	7286
not	7287
##ril	7288
##ams	7289
mens	7290
##engahan	7291
melepas	7292
##ehold	7293
taktik	7294
invasi	7295
nataru	7296
kekeringan	7297
##epankan	7298
dinamika	7299
menaikkan	7300
beragama	7301
64	7302
pintar	7303
wajar	7304
##itah	7305
saing	7306
melem	7307
##intasi	7308
satelit	7309
penyul	7310
klinik	7311
terpadu	7312
denny	7313
pertamanya	7314
ibunya	7315
harapannya	7316
berfungsi	7317
tangkis	7318
pembangkit	7319
mengundurkan	7320
ngawi	7321
63	7322
dri	7323
hanc	7324
##mer	7325
##sihkan	7326
##adha	7327
memaparkan	7328
##utanan	7329
##ubsidi	7330
lebak	7331
suap	7332
mars	7333
kedok	7334
##evan	7335
moe	7336
mempertanyakan	7337
tkn	7338
andrew	7339
maulana	7340
pod	7341
zaman	7342
##ning	7343
##eld	7344
##arai	7345
##omi	7346
##ampa	7347
penyimp	7348
sty	7349
afri	7350
banglad	7351
penyeberangan	7352
lumajang	7353
konsolidasi	7354
unrwa	7355
bangladesh	7356
fah	7357
hen	7358
##wanya	7359
##sar	7360
menantang	7361
##isal	7362
menyebar	7363
aditya	7364
angel	7365
kedu	7366
bermotor	7367
##soet	7368
etnis	7369
tertulisnya	7370
wijaya	7371
volume	7372
##integrasi	7373
ditaw	7374
bamsoet	7375
menimpa	7376
66	7377
bm	7378
maya	7379
wamen	7380
##pp	7381
diaw	7382
##olong	7383
merawat	7384
kemac	7385
comp	7386
almar	7387
ketersediaan	7388
minat	7389
terpidana	7390
ramad	7391
##tein	7392
pasir	7393
##padai	7394
diisi	7395
##unungan	7396
seper	7397
sepat	7398
##eku	7399
menjamu	7400
asy	7401
apbd	7402
##indung	7403
benj	7404
segar	7405
##ition	7406
##plin	7407
tumbang	7408
ktp	7409
lpg	7410
menempati	7411
boyol	7412
apple	7413
pengambilan	7414
kemacetan	7415
almarhum	7416
national	7417
padi	7418
pungk	7419
rangk	7420
##cus	7421
##kos	7422
##anaman	7423
##ene	7424
##tice	7425
pengangg	7426
siak	7427
##aksim	7428
bakti	7429
turis	7430
syl	7431
phil	7432
sambutannya	7433
hatta	7434
kronologi	7435
basis	7436
lel	7437
qu	7438
tpn	7439
##ping	7440
##jikan	7441
##arung	7442
##ahul	7443
mengal	7444
mengakses	7445
mematikan	7446
##olahan	7447
seraya	7448
##trans	7449
kelanc	7450
kecuali	7451
dideportasi	7452
kendali	7453
raz	7454
kadar	7455
menembus	7456
diselesaikan	7457
pegunungan	7458
proposal	7459
convention	7460
benjamin	7461
kelancaran	7462
lon	7463
roket	7464
susi	7465
sula	7466
tunggu	7467
##bia	7468
##angd	7469
##ahari	7470
menguntungkan	7471
##bawa	7472
##ehkan	7473
mendalami	7474
pertengahan	7475
kering	7476
berkendara	7477
bertepatan	7478
menerbitkan	7479
##atifikasi	7480
musisi	7481
komisioner	7482
berkomunikasi	7483
yudh	7484
##gagalan	7485
kebangsaan	7486
health	7487
##aksimalkan	7488
lump	7489
nab	7490
wa	7491
##egon	7492
mera	7493
bac	7494
diraih	7495
##age	7496
bella	7497
##eransi	7498
##tainment	7499
institut	7500
mudahan	7501
##ubishi	7502
kedutaan	7503
pis	7504
rian	7505
sn	7506
##rb	7507
##andy	7508
dilanda	7509
##oha	7510
dito	7511
raker	7512
malik	7513
##atorium	7514
road	7515
mirip	7516
cipta	7517
##injauan	7518
menghilangkan	7519
wasit	7520
stakehold	7521
81	7522
##hika	7523
##akirakan	7524
diaku	7525
ketim	7526
##ektif	7527
melepaskan	7528
sifat	7529
dikar	7530
dipert	7531
amanat	7532
lead	7533
sudjana	7534
pupr	7535
management	7536
##oblosan	7537
permukaan	7538
permukiman	7539
service	7540
bibit	7541
argentina	7542
berterima	7543
fig	7544
kuar	7545
lim	7546
tat	7547
ted	7548
##umur	7549
pengas	7550
time	7551
marg	7552
mulyadi	7553
eman	7554
nurul	7555
kepemil	7556
sawah	7557
perundingan	7558
kyiv	7559
week	7560
##imigrasi	7561
boyolali	7562
ls	7563
tuhan	7564
year	7565
perikan	7566
mengejar	7567
induk	7568
seksi	7569
pendampingan	7570
menggel	7571
multi	7572
academ	7573
##yakinan	7574
bursa	7575
##ardo	7576
kuning	7577
tunai	7578
pemberontak	7579
cawagub	7580
mitsubishi	7581
##kalasi	7582
perikanan	7583
tw	7584
##wujud	7585
##elan	7586
prim	7587
bagn	7588
##rian	7589
menjanjikan	7590
dishub	7591
berlatih	7592
eksklusif	7593
##even	7594
telak	7595
buron	7596
ujung	7597
penyediaan	7598
terbarukan	7599
botol	7600
prasetyo	7601
##optimalkan	7602
bagnaia	7603
deb	7604
hol	7605
yan	7606
##was	7607
##van	7608
##qu	7609
##apati	7610
baim	7611
menyasar	7612
##oth	7613
##oss	7614
dikenakan	7615
max	7616
maut	7617
abad	7618
dibentuk	7619
##evaluasi	7620
saleh	7621
narasi	7622
matahari	7623
##psdm	7624
relevan	7625
sudar	7626
otomatis	7627
christi	7628
71	7629
raks	7630
rincian	7631
##umbang	7632
penanaman	7633
priv	7634
antisipasi	7635
melengkapi	7636
##teran	7637
baca	7638
pengolahan	7639
polandia	7640
kucing	7641
produktif	7642
bertema	7643
divonis	7644
revolusi	7645
mengkritik	7646
bjb	7647
sumedang	7648
moeis	7649
jin	7650
salam	7651
##wanto	7652
menyuarakan	7653
##ehensif	7654
rich	7655
dikembangkan	7656
##ico	7657
stream	7658
subang	7659
##itigasi	7660
##engkapan	7661
bersejarah	7662
yamaha	7663
cari	7664
kip	7665
mind	7666
pomp	7667
sadar	7668
##brid	7669
##manto	7670
intim	7671
##ike	7672
##riah	7673
asso	7674
diklaim	7675
mempers	7676
besarnya	7677
berharga	7678
memasang	7679
membaca	7680
motivasi	7681
edy	7682
berjumlah	7683
single	7684
disiplin	7685
muara	7686
##phone	7687
assad	7688
ppdb	7689
menempuh	7690
dharma	7691
penyuluhan	7692
hancur	7693
72	7694
aa	7695
edi	7696
gov	7697
lang	7698
##ealisasi	7699
##for	7700
##fli	7701
##yim	7702
##ering	7703
perut	7704
##ario	7705
karangan	7706
membebaskan	7707
hukumnya	7708
didorong	7709
absen	7710
transfer	7711
erat	7712
virus	7713
pergantian	7714
iduladha	7715
tuntas	7716
700	7717
gt	7718
gender	7719
kw	7720
kena	7721
papan	7722
tangkapan	7723
##gran	7724
inti	7725
permen	7726
##wawan	7727
pengaturan	7728
##awati	7729
berke	7730
##yakinkan	7731
ward	7732
hoaks	7733
paham	7734
komprehensif	7735
##angdut	7736
95	7737
cit	7738
hip	7739
##ool	7740
##wah	7741
##erjakan	7742
##emik	7743
##tug	7744
keimigrasi	7745
terwujud	7746
##abri	7747
tahan	7748
senator	7749
seniman	7750
manahan	7751
persita	7752
play	7753
menerangkan	7754
drama	7755
basket	7756
bersikap	7757
patut	7758
sahroni	7759
raharja	7760
cerdas	7761
ujian	7762
arifin	7763
##wawancara	7764
##bas	7765
##nes	7766
menampung	7767
peramp	7768
peresm	7769
mengut	7770
##uko	7771
##irman	7772
pemelih	7773
melintasi	7774
baju	7775
kepastian	7776
sempurna	7777
seru	7778
##trol	7779
##argai	7780
##impunan	7781
terlepas	7782
intervensi	7783
berdarah	7784
siswi	7785
telur	7786
general	7787
miskin	7788
keimigrasian	7789
peresmian	7790
cuc	7791
eka	7792
fest	7793
##bh	7794
##dh	7795
##lang	7796
##fri	7797
##eraian	7798
melakukannya	7799
ditentukan	7800
sumar	7801
pendukungnya	7802
cilegon	7803
kedokteran	7804
62	7805
fitri	7806
ginting	7807
jati	7808
masif	7809
vok	7810
##barkan	7811
##rak	7812
##oria	7813
melukai	7814
##awar	7815
ketut	7816
didirikan	7817
hasyim	7818
murid	7819
mengedepankan	7820
pengangguran	7821
raksasa	7822
74	7823
haf	7824
##pes	7825
##vian	7826
berisiko	7827
mengarah	7828
unair	7829
merak	7830
pengaduan	7831
kepend	7832
mendengarkan	7833
segmen	7834
kehutanan	7835
tegal	7836
popul	7837
##rahat	7838
tipikor	7839
perceraian	7840
perseroan	7841
associ	7842
buti	7843
ganti	7844
ih	7845
kub	7846
nan	7847
nekat	7848
varian	7849
##kum	7850
kegagalan	7851
menduduki	7852
mendadak	7853
##osari	7854
##odi	7855
##ormat	7856
reaksi	7857
kondisinya	7858
wahy	7859
##landia	7860
tenda	7861
xxi	7862
gak	7863
matang	7864
pura	7865
ruf	7866
dius	7867
terintegrasi	7868
perasaan	7869
##iku	7870
##imir	7871
##ekatan	7872
penataan	7873
kertas	7874
meyakinkan	7875
andalan	7876
onsu	7877
keberangkatan	7878
bergulir	7879
wargan	7880
##wijaya	7881
favor	7882
kurangnya	7883
pemasaran	7884
##olding	7885
##esuaian	7886
bnn	7887
mengantongi	7888
horor	7889
gembira	7890
mabes	7891
pati	7892
dibantu	7893
##sih	7894
##tic	7895
pemusn	7896
##jaitan	7897
##ampang	7898
timor	7899
penyandang	7900
direncanakan	7901
makam	7902
bertahap	7903
penyelamatan	7904
telegr	7905
##ugerah	7906
silva	7907
##pool	7908
mcr1	7909
entertainment	7910
rehabilitasi	7911
energy	7912
96	7913
cur	7914
kain	7915
nota	7916
yoy	7917
##yana	7918
seo	7919
##upat	7920
menyes	7921
##estinya	7922
tersend	7923
elite	7924
berpeng	7925
modi	7926
jalak	7927
disetujui	7928
rizal	7929
kepemilikan	7930
vlad	7931
##mara	7932
##runan	7933
##ject	7934
dif	7935
diakses	7936
tertib	7937
mengendalikan	7938
menggagalkan	7939
satria	7940
alokasi	7941
penyebaran	7942
##oharjo	7943
antoni	7944
rumput	7945
membah	7946
sump	7947
dibahas	7948
kendati	7949
sales	7950
naf	7951
komitmennya	7952
ambon	7953
rantai	7954
hybrid	7955
hijriah	7956
ditawarkan	7957
figur	7958
kuartal	7959
dev	7960
ita	7961
labor	7962
nak	7963
zat	7964
##bur	7965
##dit	7966
##ech	7967
##inergi	7968
perihal	7969
##ikirkan	7970
astra	7971
membersihkan	7972
ditingkatkan	7973
manch	7974
dibunuh	7975
##waktu	7976
gelap	7977
tertarik	7978
mandi	7979
disediakan	7980
rekannya	7981
legislator	7982
sederhana	7983
##ampaui	7984
diakui	7985
pemusnahan	7986
%,	7987
bimb	7988
ira	7989
rit	7990
uz	7991
za	7992
##pe	7993
##dam	7994
##lic	7995
##fia	7996
kepr	7997
##awak	7998
seks	7999
agak	8000
##ujian	8001
berkurang	8002
keturunan	8003
membongkar	8004
dipenuhi	8005
south	8006
rekrut	8007
mempelajari	8008
diskon	8009
nikel	8010
intelek	8011
liver	8012
dimintai	8013
mcr2	8014
mendekati	8015
perundungan	8016
econom	8017
anjing	8018
cimahi	8019
telegram	8020
atr	8021
curah	8022
hub	8023
hambatan	8024
kis	8025
ue	8026
##ock	8027
##bit	8028
##ines	8029
dimas	8030
##iko	8031
indikasi	8032
pengunjuk	8033
menyinggung	8034
keluhan	8035
harupat	8036
kemenpan	8037
berpel	8038
rekening	8039
balasan	8040
urutan	8041
ukuran	8042
##ucian	8043
nasution	8044
tessa	8045
tipe	8046
kliennya	8047
ugm	8048
streaming	8049
vladimir	8050
harta	8051
lupa	8052
##king	8053
##enaran	8054
menak	8055
##ariat	8056
##imob	8057
##angkal	8058
barcel	8059
asuhnya	8060
negosiasi	8061
ditolak	8062
pencoblosan	8063
lemak	8064
debut	8065
##hion	8066
perhitungan	8067
sinyal	8068
swedia	8069
kulon	8070
trag	8071
##dayakan	8072
bilateral	8073
foundation	8074
gan	8075
gum	8076
kum	8077
natur	8078
##adel	8079
berujung	8080
##olongan	8081
jujur	8082
##alaya	8083
agr	8084
memberantas	8085
wilayahnya	8086
part	8087
dibintangi	8088
portug	8089
penjual	8090
aziz	8091
##ustom	8092
menelan	8093
gejala	8094
butir	8095
warganet	8096
membahayakan	8097
barcelona	8098
bol	8099
mc	8100
muka	8101
tb	8102
##vestasi	8103
mengunggah	8104
melon	8105
pengin	8106
##antar	8107
##ubungkan	8108
mendarat	8109
pasang	8110
##ication	8111
memasukkan	8112
##lav	8113
##olehkan	8114
praktis	8115
##anggungja	8116
sdn	8117
##shop	8118
##kuit	8119
chief	8120
perselisihan	8121
tunjangan	8122
manufaktur	8123
jeb	8124
van	8125
##jad	8126
menonton	8127
mendaftarkan	8128
##omor	8129
amran	8130
ditindak	8131
##wansa	8132
balapan	8133
##oyono	8134
diberlakukan	8135
terkend	8136
menyeluruh	8137
post	8138
nahd	8139
auto	8140
##alihkan	8141
putranya	8142
pemakaman	8143
pemeliharaan	8144
manchester	8145
69	8146
balon	8147
##nah	8148
##enuhan	8149
##emas	8150
##amerkan	8151
##apas	8152
terper	8153
inn	8154
persep	8155
##engsi	8156
project	8157
##ayasa	8158
astr	8159
##inton	8160
##ajam	8161
isma	8162
persnya	8163
ekor	8164
ketinggi	8165
##eriahkan	8166
mahasis	8167
kalsel	8168
##entuh	8169
gerbang	8170
striker	8171
2011	8172
doktor	8173
dihentikan	8174
bergengsi	8175
esg	8176
training	8177
purnama	8178
secret	8179
##lokir	8180
listyo	8181
liverpool	8182
ara	8183
bond	8184
cuti	8185
conf	8186
som	8187
toy	8188
##ball	8189
##luan	8190
##atinya	8191
##esahan	8192
##ology	8193
penempatan	8194
melampaui	8195
##antoro	8196
##angkatkan	8197
##endi	8198
berkes	8199
membakar	8200
aborsi	8201
rekam	8202
sulteng	8203
rokan	8204
diproduksi	8205
keperluan	8206
taspen	8207
dagang	8208
coll	8209
menindaklanjuti	8210
jorge	8211
sprint	8212
##omodasi	8213
sepatu	8214
custom	8215
dc	8216
iman	8217
wuling	8218
##iang	8219
inc	8220
##urra	8221
##itori	8222
pengedar	8223
menyebarkan	8224
karna	8225
pertar	8226
komnas	8227
kerabat	8228
stok	8229
##tribut	8230
konstruksi	8231
spe	8232
makanya	8233
operator	8234
dihadirkan	8235
sebagainya	8236
moral	8237
yahudi	8238
fashion	8239
favorit	8240
heri	8241
jk	8242
kb	8243
sak	8244
vic	8245
##koh	8246
##asama	8247
##ild	8248
berhad	8249
terobos	8250
##ikul	8251
mematuhi	8252
pembagian	8253
barisan	8254
kelem	8255
siapkan	8256
pembina	8257
kebaikan	8258
ahok	8259
berpengaruh	8260
phk	8261
tipis	8262
##endarai	8263
pecah	8264
tawaran	8265
mengusut	8266
jahe	8267
hartono	8268
officer	8269
tersendiri	8270
bulu	8271
wang	8272
##lement	8273
##zes	8274
##jian	8275
##alp	8276
diad	8277
keyakinan	8278
##ulia	8279
##oka	8280
merata	8281
indar	8282
kementan	8283
amun	8284
chandra	8285
##icarakan	8286
sumur	8287
##migrasi	8288
dipicu	8289
kebi	8290
menerus	8291
##ganegaraan	8292
aji	8293
patri	8294
bernomor	8295
eskalasi	8296
sekretariat	8297
bercerita	8298
hus	8299
ig	8300
##pt	8301
perak	8302
melebih	8303
peta	8304
paruh	8305
jalannya	8306
kendal	8307
irish	8308
terjun	8309
swiss	8310
commer	8311
undip	8312
ketinggian	8313
dbd	8314
hany	8315
los	8316
nob	8317
u23	8318
##bung	8319
##kop	8320
##ves	8321
berad	8322
mengoptimalkan	8323
pred	8324
merangk	8325
khasi	8326
##turut	8327
mulut	8328
putera	8329
spbu	8330
rahman	8331
monitor	8332
kpps	8333
zulki	8334
stefano	8335
sumpah	8336
89	8337
can	8338
dong	8339
kakan	8340
ow	8341
tj	8342
via	8343
##rin	8344
##aring	8345
##tura	8346
bermas	8347
memengaruhi	8348
peluru	8349
parawansa	8350
ditinggal	8351
ditandatangani	8352
diponegoro	8353
didominasi	8354
membuatnya	8355
perkiraan	8356
idris	8357
dicetak	8358
sudan	8359
johan	8360
hindu	8361
yudhoyono	8362
##kohol	8363
dra	8364
jay	8365
##we	8366
##kri	8367
##enda	8368
##idul	8369
##ekos	8370
pemenuhan	8371
##uto	8372
anung	8373
##anty	8374
lebar	8375
bersinergi	8376
hall	8377
memperb	8378
##urance	8379
krusi	8380
hidupnya	8381
tokyo	8382
##orejo	8383
##mark	8384
mift	8385
menyapa	8386
terheboh	8387
bangkit	8388
byd	8389
yahya	8390
florida	8391
intelektual	8392
amunisi	8393
doha	8394
lambat	8395
nun	8396
rasanya	8397
sungg	8398
##tanya	8399
diunggah	8400
##amuk	8401
sewaktu	8402
##entangan	8403
##owongan	8404
##opuler	8405
ambul	8406
berhati	8407
kalteng	8408
brimob	8409
tercip	8410
ponpes	8411
dedikasi	8412
cikarang	8413
seberat	8414
georgia	8415
diaspora	8416
berhadapan	8417
cu	8418
lelang	8419
mohon	8420
##wari	8421
##asem	8422
##ikal	8423
menguk	8424
memaksimalkan	8425
##ekasan	8426
pengab	8427
##andri	8428
kepri	8429
menyenangkan	8430
##ativitas	8431
balita	8432
jalanan	8433
malut	8434
kejutan	8435
angkasa	8436
relatif	8437
pamekasan	8438
sudirman	8439
1998	8440
fikri	8441
neti	8442
bocah	8443
lonjakan	8444
uzbek	8445
melebihi	8446
91	8447
bina	8448
bni	8449
bps	8450
cre	8451
hp	8452
mid	8453
##jk	8454
##esco	8455
memperpanjang	8456
tris	8457
membalas	8458
berhubungan	8459
big	8460
diperb	8461
dipercaya	8462
kalian	8463
##ahagi	8464
kandung	8465
terjebak	8466
burung	8467
paripurna	8468
sirkuit	8469
school	8470
laskar	8471
julukan	8472
ismail	8473
terobosan	8474
uzbekistan	8475
87	8476
blu	8477
bedah	8478
gon	8479
jes	8480
psim	8481
sti	8482
##huk	8483
##yen	8484
##atim	8485
##akoni	8486
##unami	8487
##ory	8488
memakan	8489
##okat	8490
##otanya	8491
polemik	8492
pejuang	8493
marah	8494
cho	8495
kriter	8496
menghubungkan	8497
##oyokan	8498
sinar	8499
seribu	8500
kreativitas	8501
banyumas	8502
founder	8503
luhut	8504
rekrutmen	8505
krusial	8506
##aja	8507
##pd	8508
beraksi	8509
penamp	8510
kepatuhan	8511
akar	8512
barito	8513
senanti	8514
jagung	8515
tanam	8516
makna	8517
mega	8518
manc	8519
pencabu	8520
dukungannya	8521
moch	8522
berkomentar	8523
obatan	8524
talenta	8525
puing	8526
stakeholder	8527
netizen	8528
senantiasa	8529
82	8530
dub	8531
duc	8532
finis	8533
rudi	8534
verifikasi	8535
waw	8536
##tt	8537
##enam	8538
##ange	8539
pemanggilan	8540
bayar	8541
indekos	8542
menyarankan	8543
semata	8544
senat	8545
mencabut	8546
bersubsidi	8547
suv	8548
suzuki	8549
##ical	8550
resear	8551
batal	8552
hadapi	8553
ditempat	8554
atta	8555
wahid	8556
club	8557
potret	8558
menyimpan	8559
vaksin	8560
kristen	8561
##ekuensi	8562
research	8563
bsi	8564
cop	8565
fari	8566
tm	8567
##eon	8568
##atuh	8569
##ading	8570
perincian	8571
##ariq	8572
##jab	8573
##anduk	8574
ambang	8575
disahkan	8576
anth	8577
diguyur	8578
inspek	8579
terbunuh	8580
musk	8581
bernilai	8582
bulog	8583
logam	8584
suhar	8585
mohammed	8586
seoul	8587
laboratorium	8588
portugal	8589
jombang	8590
pantas	8591
tuanya	8592
wh	8593
##dir	8594
##nl	8595
##rar	8596
pendaya	8597
##bauan	8598
##rioritas	8599
satwa	8600
##ohan	8601
gratifikasi	8602
##intai	8603
pencucian	8604
bertanding	8605
dpo	8606
atap	8607
apartemen	8608
haiti	8609
##klusi	8610
tergantung	8611
finance	8612
menuai	8613
tsunami	8614
govern	8615
kriteria	8616
pencabulan	8617
pendayagunaan	8618
84	8619
fri	8620
jl	8621
mangg	8622
##giri	8623
##lor	8624
menaker	8625
berdaya	8626
berturut	8627
##urus	8628
menyesuaikan	8629
##isiasi	8630
diajak	8631
senada	8632
##ency	8633
kuala	8634
sampang	8635
menghargai	8636
kompak	8637
stres	8638
##fiq	8639
dihasilkan	8640
berinovasi	8641
susanto	8642
minimum	8643
potongan	8644
##wajib	8645
lumpur	8646
khasiat	8647
##rioritaskan	8648
dangdut	8649
mitigasi	8650
ori	8651
tarik	8652
##uaran	8653
diubah	8654
##adir	8655
##ison	8656
antr	8657
menyerah	8658
akad	8659
pelajaran	8660
harap	8661
harinya	8662
mary	8663
kesatuan	8664
##osialisasi	8665
perkasa	8666
penghasilan	8667
syukur	8668
##iger	8669
faisal	8670
advokat	8671
pengeroyokan	8672
bsd	8673
dikarenakan	8674
kebiasaan	8675
ducati	8676
85	8677
mg	8678
puan	8679
rol	8680
utusan	8681
yatim	8682
##oo	8683
##mit	8684
##ily	8685
##gawa	8686
##usul	8687
mengom	8688
##etika	8689
menjangkau	8690
##ambung	8691
pemerasan	8692
amir	8693
seputar	8694
mengharapkan	8695
tangguh	8696
perluasan	8697
pernyataannya	8698
simpat	8699
eff	8700
##operasikan	8701
##ukseskan	8702
##usnahkan	8703
beruntun	8704
fauziyah	8705
##istribusikan	8706
racing	8707
ditempatkan	8708
dind	8709
fk	8710
gm	8711
jef	8712
kadi	8713
ml	8714
nip	8715
nick	8716
py	8717
palu	8718
remp	8719
##eing	8720
##hentian	8721
##vir	8722
##alanya	8723
beral	8724
##urt	8725
peninjauan	8726
##bay	8727
seleb	8728
##egas	8729
##rie	8730
assist	8731
tahunnya	8732
beir	8733
penyus	8734
penyesuaian	8735
dires	8736
anggotanya	8737
rp4	8738
##acap	8739
menghapus	8740
##uncang	8741
inspirasi	8742
mobile	8743
pemberhentian	8744
terjatuh	8745
jeruk	8746
tabungan	8747
remisi	8748
simpang	8749
sayangnya	8750
kaget	8751
electri	8752
sulaiman	8753
berpeluang	8754
94	8755
bpn	8756
det	8757
pic	8758
##erik	8759
##alangi	8760
##elanja	8761
memandang	8762
##entari	8763
mendominasi	8764
konkr	8765
##ching	8766
belas	8767
sebulan	8768
keberatan	8769
arie	8770
jepara	8771
dampaknya	8772
santunan	8773
itb	8774
azwar	8775
pemasangan	8776
pikiran	8777
##ebutkan	8778
niat	8779
betapa	8780
antusiasme	8781
intimidasi	8782
pertarungan	8783
##hukam	8784
dat	8785
jajak	8786
lhk	8787
pungg	8788
wew	8789
##bl	8790
##eal	8791
##rol	8792
dijaga	8793
##amaikan	8794
kevin	8795
inklusi	8796
##imbangan	8797
proli	8798
melangkah	8799
melantik	8800
indrama	8801
##abe	8802
##osida	8803
dikerahkan	8804
##ova	8805
##emput	8806
pesat	8807
krem	8808
menghantam	8809
spanduk	8810
##uasin	8811
boeing	8812
derma	8813
topik	8814
hibah	8815
sentral	8816
lukman	8817
dasco	8818
techn	8819
menuntaskan	8820
pengunduran	8821
##wawancarai	8822
zulkifli	8823
kakanwil	8824
selebgram	8825
indramayu	8826
dur	8827
mui	8828
sorong	8829
##bai	8830
##cap	8831
dieks	8832
beralih	8833
peraih	8834
mengangkut	8835
##itip	8836
##ekraf	8837
##irat	8838
##indikasi	8839
ary	8840
thariq	8841
bertarung	8842
sulsel	8843
atik	8844
sarw	8845
dicapai	8846
pengajuan	8847
menyusun	8848
banyuasin	8849
ilmuwan	8850
##unyikan	8851
tertuang	8852
##ebook	8853
beirut	8854
cons	8855
his	8856
jim	8857
##base	8858
##cy	8859
##ale	8860
##sius	8861
##oks	8862
haris	8863
rio	8864
mahendra	8865
instruksi	8866
kalender	8867
plan	8868
pemainnya	8869
##eve	8870
batangan	8871
dardak	8872
mengacu	8873
madu	8874
ideal	8875
sutrad	8876
dibagikan	8877
workshop	8878
sengit	8879
bermasalah	8880
sungguh	8881
nis	8882
nag	8883
##yeh	8884
##xy	8885
diga	8886
##ekam	8887
pemindahan	8888
##egar	8889
kemay	8890
apk	8891
pertolongan	8892
paspor	8893
##kaca	8894
harun	8895
sejatinya	8896
bandang	8897
kebenaran	8898
rp5	8899
belitung	8900
panti	8901
pantauan	8902
dpt	8903
kenyata	8904
kebers	8905
##iliasi	8906
genosida	8907
rock	8908
edaran	8909
rahayu	8910
silakan	8911
otonom	8912
trauma	8913
travel	8914
seberapa	8915
pinggir	8916
diinginkan	8917
toyota	8918
kemayoran	8919
afi	8920
cetak	8921
haj	8922
mewas	8923
##work	8924
##rop	8925
##has	8926
##inga	8927
##olil	8928
2030	8929
##awaran	8930
mendiang	8931
aris	8932
##implement	8933
terpopuler	8934
##undai	8935
2012	8936
##buhkan	8937
lapisan	8938
intan	8939
count	8940
##rahim	8941
kemenkes	8942
spesifik	8943
istilah	8944
indragiri	8945
mengandalkan	8946
hyundai	8947
bentrok	8948
electric	8949
mewaspadai	8950
',	8951
holding	8952
##mudah	8953
##24	8954
memikirkan	8955
anugerah	8956
##able	8957
mendo	8958
harganya	8959
daop	8960
pendamping	8961
memberlakukan	8962
tani	8963
kebetul	8964
meja	8965
terseret	8966
sukoharjo	8967
malamnya	8968
berpesan	8969
kebersihan	8970
2009	8971
dijatuhi	8972
sudut	8973
imigran	8974
kerusuhan	8975
inisial	8976
cilacap	8977
popularitas	8978
miftah	8979
sutradara	8980
kebetulan	8981
dengar	8982
rans	8983
##oe	8984
##ikiran	8985
memin	8986
memadai	8987
unt	8988
##berg	8989
##egat	8990
melakoni	8991
##aliyah	8992
##ost	8993
keraja	8994
demo	8995
terdengar	8996
imbauan	8997
motors	8998
potensial	8999
magelang	9000
facebook	9001
konservasi	9002
ambulans	9003
sarwendah	9004
gunakan	9005
gbk	9006
jong	9007
ss	9008
tjs	9009
vet	9010
##tunya	9011
diak	9012
seolah	9013
##orkan	9014
peradilan	9015
periz	9016
##isahkan	9017
org	9018
realisasi	9019
greg	9020
mulyani	9021
menghambat	9022
instr	9023
terbit	9024
##hael	9025
gelaran	9026
ternama	9027
ibunda	9028
virgo	9029
bkpsdm	9030
##tainer	9031
jurnal	9032
penggelapan	9033
peternakan	9034
83	9035
86	9036
pung	9037
vokasi	9038
##rove	9039
##ikh	9040
##eser	9041
##iru	9042
prac	9043
##uty	9044
##utasi	9045
anyar	9046
selat	9047
pengisian	9048
waktunya	9049
kesaksi	9050
terdepan	9051
insan	9052
##enangi	9053
intinya	9054
mendatangkan	9055
toleransi	9056
yoon	9057
fifa	9058
mengurus	9059
mengkhawatirkan	9060
leste	9061
proliga	9062
kebersamaan	9063
kerajaan	9064
tjsl	9065
dal	9066
ferd	9067
juri	9068
legal	9069
nadi	9070
tor	9071
wira	9072
##eet	9073
##zak	9074
##??	9075
##arm	9076
##illa	9077
##ility	9078
menges	9079
memerang	9080
##idah	9081
##etaraan	9082
##artabat	9083
protein	9084
menjerat	9085
polusi	9086
##osh	9087
pemerkos	9088
disalurkan	9089
christ	9090
rekayasa	9091
balap	9092
afc	9093
berinvestasi	9094
##gabungkan	9095
kontrol	9096
hendra	9097
hidangan	9098
terganggu	9099
armuji	9100
mengerikan	9101
landasan	9102
putrinya	9103
mangrove	9104
bimbingan	9105
monitoring	9106
dermaga	9107
##implementasikan	9108
dl	9109
get	9110
hang	9111
##bilitas	9112
##dc	9113
menpora	9114
##site	9115
perus	9116
##ominfo	9117
##ull	9118
penjar	9119
##andakan	9120
##odong	9121
step	9122
sabar	9123
iklan	9124
pla	9125
minoritas	9126
penggereb	9127
formulir	9128
tercapai	9129
akademik	9130
wisnu	9131
mengabaikan	9132
ryder	9133
ketimbang	9134
langit	9135
melonjak	9136
konkret	9137
pemerkosaan	9138
gara	9139
mant	9140
raj	9141
win	9142
##bun	9143
##eat	9144
##sp	9145
##hs	9146
keju	9147
bersedia	9148
kembang	9149
bahas	9150
##ayangkan	9151
paser	9152
desak	9153
##coba	9154
samud	9155
tolak	9156
ridho	9157
binatang	9158
sebaiknya	9159
diusulkan	9160
pengabdian	9161
memerangi	9162
au	9163
cic	9164
iden	9165
kd	9166
kuda	9167
ojk	9168
qur	9169
tangs	9170
##las	9171
##cl	9172
##ke	9173
##akunya	9174
prasar	9175
menyentuh	9176
seminggu	9177
mendapati	9178
##icial	9179
membiarkan	9180
pembeli	9181
bertentangan	9182
dibek	9183
membacakan	9184
sken	9185
lemah	9186
database	9187
terkejut	9188
##bulan	9189
pulih	9190
menangis	9191
pengeluaran	9192
kompetitif	9193
praja	9194
kurniawan	9195
kayak	9196
radio	9197
mahasiswi	9198
mengomentari	9199
perizinan	9200
virgoun	9201
tangsel	9202
prasarana	9203
93	9204
cont	9205
happ	9206
susah	9207
vice	9208
zaki	9209
ditur	9210
diungkap	9211
terjaga	9212
##uke	9213
pemec	9214
##berly	9215
##upayakan	9216
kepabe	9217
progo	9218
##unjang	9219
##chi	9220
##walkot	9221
rakor	9222
dimak	9223
kurikul	9224
membaik	9225
ilham	9226
dihukum	9227
akibatnya	9228
mou	9229
poster	9230
herbal	9231
kimberly	9232
saputra	9233
bobot	9234
supriyani	9235
gemilang	9236
william	9237
dibatalkan	9238
academy	9239
hafid	9240
kepabeanan	9241
aaliyah	9242
fuji	9243
hm	9244
loy	9245
yuli	9246
##pel	9247
##cep	9248
##vis	9249
##erence	9250
##amana	9251
##uno	9252
##orangan	9253
##usukan	9254
kambo	9255
akmal	9256
sensi	9257
berkah	9258
diskrim	9259
dipec	9260
pencari	9261
pencern	9262
perkotaan	9263
transmigrasi	9264
##rokan	9265
tugasnya	9266
persegi	9267
pengungsian	9268
tabung	9269
munas	9270
ketidakp	9271
estate	9272
menanam	9273
public	9274
pipa	9275
agresif	9276
ramadhan	9277
penggerebekan	9278
pencernaan	9279
dum	9280
feri	9281
gala	9282
ginj	9283
pmk	9284
rampung	9285
test	9286
##pital	9287
##nan	9288
##atika	9289
##alung	9290
diwar	9291
##amilan	9292
##yawar	9293
keindahan	9294
##ustin	9295
##esat	9296
menginspirasi	9297
##omunikasi	9298
##ide	9299
##irin	9300
##isih	9301
serat	9302
dikuasai	9303
halim	9304
##ingankan	9305
kebahagi	9306
paula	9307
terkesan	9308
phpu	9309
kreator	9310
cawe	9311
michael	9312
berbuat	9313
beraktivitas	9314
ragu	9315
sports	9316
pompa	9317
punggung	9318
kurikulum	9319
kamboja	9320
kebahagiaan	9321
fisk	9322
nen	9323
niger	9324
pg	9325
yu	9326
##get	9327
##ys	9328
##erus	9329
##kannya	9330
sewa	9331
mengob	9332
##ulik	9333
##oke	9334
kemas	9335
pask	9336
##ograf	9337
##aksel	9338
ketah	9339
1945	9340
##eck	9341
penerangan	9342
sedih	9343
perlunya	9344
sembari	9345
brazil	9346
##latul	9347
mengarahkan	9348
##erikatan	9349
bakat	9350
ice	9351
##uasan	9352
##jam	9353
##erj	9354
perman	9355
percak	9356
perundang	9357
##ire	9358
prev	9359
semester	9360
perserikatan	9361
wakapol	9362
dituntut	9363
ketak	9364
paloh	9365
insurance	9366
lingkup	9367
tertangkap	9368
ternak	9369
tolong	9370
tauf	9371
legend	9372
memprediksi	9373
ideologi	9374
fungsional	9375
##tibmas	9376
website	9377
venez	9378
hilirisasi	9379
istirahat	9380
kupang	9381
hospital	9382
penyimpanan	9383
atikoh	9384
percakapan	9385
900	9386
bing	9387
kanc	9388
nep	9389
pc	9390
pungutan	9391
rend	9392
tuban	9393
vo	9394
west	9395
yandri	9396
##gar	9397
##ega	9398
##ful	9399
##yum	9400
##asp	9401
##amati	9402
tertim	9403
##ism	9404
##idin	9405
ansor	9406
laba	9407
pendahul	9408
mempermudah	9409
miliaran	9410
##embahkan	9411
param	9412
ekstasi	9413
simalung	9414
eddy	9415
tex	9416
mayjen	9417
pembuat	9418
antioksi	9419
games	9420
gading	9421
bentrokan	9422
nugraha	9423
mapolda	9424
kontroversi	9425
tendangan	9426
anthony	9427
##osialisasikan	9428
skenario	9429
diturunkan	9430
simalungun	9431
but	9432
cac	9433
lun	9434
lub	9435
mada	9436
##junkan	9437
##atukan	9438
##ahab	9439
diundang	9440
menunda	9441
berangg	9442
melapor	9443
meringankan	9444
##ibr	9445
kemand	9446
indonesian	9447
polhukam	9448
kontainer	9449
sebetul	9450
memberdayakan	9451
##estan	9452
macr	9453
kemenpora	9454
tannur	9455
pesaing	9456
pesepak	9457
kesetaraan	9458
manado	9459
abadi	9460
spek	9461
opini	9462
##eksikan	9463
ukm	9464
penertiban	9465
blak	9466
##likasikan	9467
##busan	9468
goreng	9469
diplomat	9470
walau	9471
presenter	9472
lembar	9473
mengutuk	9474
ginjal	9475
ketakutan	9476
antioksidan	9477
sebetulnya	9478
bit	9479
clo	9480
gall	9481
ika	9482
mt	9483
nil	9484
nol	9485
vari	9486
##asumber	9487
##isol	9488
penunda	9489
##back	9490
##eth	9491
selandia	9492
akal	9493
berkisar	9494
pilwalkot	9495
120	9496
manok	9497
2013	9498
##italisasi	9499
amankan	9500
pedoman	9501
pacitan	9502
##ability	9503
##parekraf	9504
transparansi	9505
##ight	9506
menguatkan	9507
pelaporan	9508
nahdlatul	9509
conference	9510
wawasan	9511
cm	9512
hans	9513
ix	9514
mimpi	9515
saran	9516
vadel	9517
vnl	9518
##sn	9519
##eru	9520
disim	9521
menum	9522
mentan	9523
##ikm	9524
memukul	9525
pemot	9526
bau	9527
seringk	9528
agam	9529
korsel	9530
disesuaikan	9531
ditargetkan	9532
##ensik	9533
195	9534
berlalu	9535
resor	9536
panda	9537
##ihatinan	9538
shi	9539
gerai	9540
buy	9541
salim	9542
narasumber	9543
forensik	9544
brip	9545
2004	9546
muhamad	9547
swas	9548
rusli	9549
##omendasikan	9550
kacang	9551
taruna	9552
alexander	9553
terbarunya	9554
karanganyar	9555
keprihatinan	9556
##wajibkan	9557
technology	9558
kesaksian	9559
manokwari	9560
aula	9561
huru	9562
slam	9563
tampilan	9564
tower	9565
##sch	9566
##tuh	9567
ketem	9568
aneka	9569
menyik	9570
prodi	9571
saatnya	9572
sebegini	9573
temanggung	9574
kedel	9575
ingat	9576
klhk	9577
##ontarkan	9578
gambaran	9579
infeksi	9580
sarjana	9581
danau	9582
sandiaga	9583
sayuran	9584
gadjah	9585
campuran	9586
justin	9587
dinamis	9588
free	9589
informatika	9590
##erebek	9591
mengadopsi	9592
ketidakpastian	9593
macron	9594
penundaan	9595
seringkali	9596
--	9597
cv	9598
cug	9599
fund	9600
jari	9601
king	9602
zero	9603
##top	9604
##sin	9605
menk	9606
##iki	9607
##irik	9608
##uting	9609
selengkap	9610
menyukseskan	9611
amat	9612
amal	9613
pendataan	9614
terlarang	9615
dinik	9616
golf	9617
ranking	9618
##pansi	9619
dipasang	9620
##esterol	9621
karangasem	9622
##ocoran	9623
lamongan	9624
tebal	9625
konsultasi	9626
communication	9627
arsip	9628
rakernas	9629
associated	9630
cle	9631
galon	9632
lin	9633
mali	9634
mangk	9635
miliki	9636
tari	9637
tag	9638
vital	9639
##otivasi	9640
##asang	9641
menpan	9642
berni	9643
memv	9644
prihat	9645
pemohon	9646
##ety	9647
##upi	9648
back	9649
semula	9650
pelita	9651
pelestarian	9652
asri	9653
korpor	9654
setinggi	9655
pileg	9656
tembus	9657
##ics	9658
tank	9659
demam	9660
makmur	9661
##iji	9662
denmark	9663
kafe	9664
blakan	9665
influ	9666
lega	9667
relasi	9668
##lamasi	9669
jajarannya	9670
##astis	9671
murni	9672
haniyeh	9673
richard	9674
mengutamakan	9675
secretary	9676
commerce	9677
penyusunan	9678
happy	9679
bunyi	9680
cy	9681
caranya	9682
##oi	9683
##ger	9684
##dk	9685
##enalan	9686
disep	9687
##emaran	9688
keenam	9689
##ikhu	9690
##ulangi	9691
isl	9692
korps	9693
194	9694
didasarkan	9695
menghalangi	9696
idf	9697
andra	9698
petinggi	9699
paparan	9700
banteng	9701
angket	9702
deli	9703
virtual	9704
diperkuat	9705
diproses	9706
migrasi	9707
rizki	9708
syaikhu	9709
##stil	9710
didapatkan	9711
beruntung	9712
berpengalaman	9713
beradaptasi	9714
kemandirian	9715
ning	9716
##jono	9717
diar	9718
segi	9719
##usa	9720
##edy	9721
laos	9722
adu	9723
sebelas	9724
##ongh	9725
diserang	9726
dikembalikan	9727
ditandai	9728
sepekan	9729
kebocoran	9730
biji	9731
penggerak	9732
dimana	9733
kolesterol	9734
bangli	9735
ibl	9736
house	9737
damas	9738
menyayangkan	9739
massaid	9740
febri	9741
shopee	9742
irawan	9743
kremlin	9744
practice	9745
fiskal	9746
cugurra	9747
jama	9748
luc	9749
maksud	9750
od	9751
zh	9752
##wahi	9753
##janto	9754
##anegara	9755
##elatan	9756
##adin	9757
berjar	9758
memunc	9759
meriah	9760
kerac	9761
##obokan	9762
kemenhub	9763
dipantau	9764
kru	9765
sisanya	9766
agust	9767
kurun	9768
tekstil	9769
opd	9770
posisinya	9771
pelayaran	9772
pandang	9773
siregar	9774
yudha	9775
bnpb	9776
pagar	9777
jeff	9778
permanen	9779
selengkapnya	9780
keracunan	9781
aip	9782
awan	9783
jis	9784
mp	9785
tong	9786
##gaskan	9787
##gma	9788
##pun	9789
##antum	9790
##inf	9791
##itter	9792
penajam	9793
kepuasan	9794
##usir	9795
##ongyang	9796
##ogen	9797
##inggalan	9798
ardi	9799
berkomp	9800
mengganti	9801
tengku	9802
##embada	9803
dimin	9804
dibeli	9805
petunjuk	9806
kadek	9807
esdm	9808
##erakkan	9809
good	9810
talk	9811
##show	9812
avi	9813
kerjasama	9814
philip	9815
simpatisan	9816
pyongyang	9817
dumai	9818
kancah	9819
menyikapi	9820
fern	9821
hu	9822
lsi	9823
naj	9824
##rik	9825
##hut	9826
##yanti	9827
##akati	9828
inhu	9829
pertuk	9830
mengevaluasi	9831
##arau	9832
memutus	9833
##ekusi	9834
penawaran	9835
##edian	9836
##uansa	9837
penyiksaan	9838
personal	9839
produknya	9840
james	9841
perhelatan	9842
jerse	9843
sandi	9844
##imanuk	9845
hendi	9846
##ternal	9847
penyerangan	9848
memulihkan	9849
machm	9850
fg	9851
pw	9852
rugi	9853
skand	9854
zon	9855
##sing	9856
##yati	9857
##arya	9858
##alongan	9859
keangg	9860
terendam	9861
meledak	9862
##osat	9863
dirut	9864
##angsungan	9865
##impun	9866
##masin	9867
pembek	9868
##embunyikan	9869
diputuskan	9870
airin	9871
imb	9872
konsekuensi	9873
berpihak	9874
darmawan	9875
2010	9876
bumd	9877
munculnya	9878
disiarkan	9879
menyerap	9880
responsi	9881
banjarmasin	9882
konservatif	9883
pekalongan	9884
impian	9885
laksamana	9886
##tributor	9887
mendoakan	9888
pemotongan	9889
swasembada	9890
berjarak	9891
aulia	9892
buru	9893
dekan	9894
gra	9895
kc	9896
link	9897
uin	9898
wag	9899
##oitasi	9900
##ped	9901
##hari	9902
##hentikan	9903
##ven	9904
##iny	9905
menanyakan	9906
meredakan	9907
##andera	9908
apik	9909
ala	9910
maris	9911
temukan	9912
mafia	9913
ditunda	9914
memblokir	9915
keseimbangan	9916
##terior	9917
kadis	9918
pembuangan	9919
optimalisasi	9920
logo	9921
carol	9922
produc	9923
bendungan	9924
integrasi	9925
michi	9926
mengalir	9927
huruf	9928
berniat	9929
damaskus	9930
neta	9931
##tika	9932
##wakan	9933
menteng	9934
##tudo	9935
memindahkan	9936
##ulikan	9937
prediksi	9938
##alamannya	9939
##etas	9940
##uheni	9941
lautan	9942
asap	9943
##yaratkan	9944
##anggal	9945
disusul	9946
tiongh	9947
memburuk	9948
membuang	9949
pembakaran	9950
##embunyi	9951
dipindahkan	9952
restu	9953
meta	9954
didakwa	9955
kampar	9956
berdiskusi	9957
ekspansi	9958
baka	9959
dicuri	9960
tulisan	9961
damkar	9962
magetan	9963
jangkauan	9964
##ontohkan	9965
retno	9966
gilimanuk	9967
berprestasi	9968
taufik	9969
disepakati	9970
pertukaran	9971
desi	9972
leo	9973
##bing	9974
##zan	9975
##araja	9976
##ulainya	9977
##ric	9978
semestinya	9979
mendik	9980
mardi	9981
meet	9982
sampel	9983
seluruhnya	9984
usman	9985
golongan	9986
balistik	9987
##ware	9988
junior	9989
telek	9990
irfan	9991
terbentuk	9992
##cokan	9993
2008	9994
geopol	9995
terhitung	9996
pegiat	9997
simbolis	9998
irigasi	9999
##ealisasikan	10000
wewenang	10001
pungli	10002
tionghoa	10003
aja	10004
gang	10005
home	10006
k2	10007
luncurkan	10008
mog	10009
nih	10010
pita	10011
puji	10012
yani	10013
##nando	10014
##aras	10015
##arini	10016
diw	10017
dimasuk	10018
diwawancarai	10019
##elter	10020
##adasi	10021
##onisasi	10022
teri	10023
##ors	10024
perannya	10025
##usuri	10026
indosat	10027
##ebatan	10028
##ote	10029
##otakan	10030
asrama	10031
##ambar	10032
##ongkr	10033
##estarikan	10034
chat	10035
chery	10036
keterbatasan	10037
dimulainya	10038
tekad	10039
ilmi	10040
##room	10041
hery	10042
perbinc	10043
kesepahaman	10044
pontian	10045
##voi	10046
rangkuman	10047
jessi	10048
identifikasi	10049
bakauheni	10050
geopolitik	10051
pontianak	10052
gandeng	10053
ll	10054
##care	10055
menarget	10056
terekam	10057
penarikan	10058
kemarau	10059
laz	10060
##elahan	10061
##awai	10062
karen	10063
karet	10064
##esty	10065
##agaman	10066
menyeber	10067
gue	10068
paru	10069
kurir	10070
direksi	10071
pemberitaan	10072
industrial	10073
terburuk	10074
mandal	10075
kapolresta	10076
hidr	10077
diplomasi	10078
mengantarkan	10079
bercerai	10080
handphone	10081
masters	10082
angeles	10083
sudaryono	10084
akademi	10085
dinding	10086
sensitif	10087
dipecat	10088
prihatin	10089
perbincangan	10090
):	10091
97	10092
jeda	10093
langka	10094
lrt	10095
nd	10096
nyar	10097
rasi	10098
ruk	10099
wwf	10100
##nik	10101
##uz	10102
##ahlian	10103
diizinkan	10104
##umi	10105
##idar	10106
##gita	10107
akurat	10108
kelebihan	10109
dilalui	10110
berkala	10111
suaranya	10112
##utive	10113
rp7	10114
emirat	10115
benih	10116
masuknya	10117
drastis	10118
##tanegara	10119
defisi	10120
organik	10121
##jiang	10122
widya	10123
nurh	10124
merekrut	10125
kakek	10126
menembakkan	10127
febian	10128
bonus	10129
kodam	10130
predikat	10131
texas	10132
fin	10133
len	10134
lis	10135
mim	10136
marga	10137
tali	10138
##gunakan	10139
##mor	10140
##wu	10141
##lv	10142
##lit	10143
##aruan	10144
##angin	10145
##akiman	10146
##amai	10147
kewar	10148
keahlian	10149
percoba	10150
memohon	10151
memeriahkan	10152
2000	10153
##eki	10154
##oki	10155
bagas	10156
satlantas	10157
komedian	10158
beta	10159
dilindungi	10160
##ago	10161
berlambang	10162
bela	10163
ptpn	10164
komputer	10165
##ustrian	10166
ketiganya	10167
reli	10168
ditugaskan	10169
gugur	10170
gitu	10171
cabai	10172
pensiunan	10173
demonstran	10174
safari	10175
bedagai	10176
kadiv	10177
slamet	10178
percobaan	10179
austin	10180
eur	10181
kirim	10182
lil	10183
lbh	10184
##pong	10185
##set	10186
##ukakan	10187
merc	10188
##ampur	10189
##entasikan	10190
##entrasi	10191
asma	10192
mencoblos	10193
disdik	10194
##over	10195
ste	10196
kedudukan	10197
milisi	10198
berlin	10199
biar	10200
menghitung	10201
tersel	10202
spiri	10203
perkuat	10204
penghormatan	10205
kans	10206
pemberitah	10207
reporter	10208
kosm	10209
migas	10210
sentra	10211
tirta	10212
bambu	10213
memadamkan	10214
razia	10215
instrumen	10216
dinikmati	10217
jessica	10218
defisit	10219
pemberitahuan	10220
hormat	10221
p1	10222
##garan	10223
##rum	10224
##juh	10225
##jaran	10226
##ankan	10227
##arudin	10228
ditulis	10229
seumur	10230
berbulan	10231
terinspirasi	10232
perti	10233
##umo	10234
##omuko	10235
##udan	10236
##andangan	10237
konvoi	10238
kelamin	10239
penyiaran	10240
kerangka	10241
kerobokan	10242
##empar	10243
trop	10244
dipad	10245
dipul	10246
menghar	10247
pencemaran	10248
terpenting	10249
##lig	10250
subs	10251
urine	10252
kenal	10253
tanggap	10254
ultra	10255
##iayai	10256
##erson	10257
##egradasi	10258
memprioritaskan	10259
diselamatkan	10260
exec	10261
care	10262
nikah	10263
reguler	10264
tppo	10265
ujang	10266
mukomuko	10267
vaksinasi	10268
kepadanya	10269
pungkasnya	10270
kependudukan	10271
diperbolehkan	10272
penampungan	10273
skandal	10274
bendah	10275
candi	10276
dadang	10277
fun	10278
fot	10279
fahmi	10280
gy	10281
oc	10282
pit	10283
tendik	10284
##puh	10285
##arki	10286
##ash	10287
teratas	10288
mengendarai	10289
##ukasi	10290
penn	10291
##bawahi	10292
##okh	10293
bach	10294
adam	10295
adegan	10296
##endakan	10297
mendeteksi	10298
mencontohkan	10299
##odalan	10300
pendidik	10301
menggaris	10302
menggugat	10303
umar	10304
rumor	10305
membek	10306
sulut	10307
kanal	10308
rafa	10309
demokratis	10310
misteri	10311
busana	10312
hendy	10313
sebabnya	10314
##hoeven	10315
pemasok	10316
rohul	10317
firman	10318
lolly	10319
advokasi	10320
karnavian	10321
mancanegara	10322
diskriminasi	10323
beranggotakan	10324
korporasi	10325
telekomunikasi	10326
camat	10327
napi	10328
##lak	10329
##fc	10330
##sesi	10331
mendagri	10332
mentah	10333
##ure	10334
mengor	10335
pemikiran	10336
##okasikan	10337
merencanakan	10338
pengesahan	10339
##edd	10340
menyumbang	10341
proper	10342
semeru	10343
sibuk	10344
maung	10345
ketujuh	10346
kemenko	10347
##ancing	10348
kompas	10349
gerak	10350
kehakiman	10351
terkadang	10352
syuting	10353
moer	10354
ever	10355
gunungk	10356
patah	10357
praktisi	10358
##jideh	10359
dasarnya	10360
badjideh	10361
verhoeven	10362
tukang	10363
mediasi	10364
sustainability	10365
visual	10366
merauke	10367
twitter	10368
tragedi	10369
kejuaraan	10370
kewarganegaraan	10371
kid	10372
wit	10373
##aton	10374
##alem	10375
##elo	10376
memuat	10377
baja	10378
##iana	10379
##enteng	10380
kela	10381
persent	10382
##opedia	10383
##obogan	10384
menggali	10385
##encer	10386
grobogan	10387
##chen	10388
rp6	10389
##unculan	10390
ball	10391
hadirnya	10392
##amatis	10393
youth	10394
dijerat	10395
pembawa	10396
##talasi	10397
menyajikan	10398
intellig	10399
1999	10400
eksekusi	10401
tasikm	10402
farhan	10403
maria	10404
bazar	10405
lukisan	10406
mahalini	10407
centre	10408
teddy	10409
berkesempatan	10410
plaza	10411
nenek	10412
gunungkidul	10413
tasikmalaya	10414
bwf	10415
lintasan	10416
##mond	10417
##vy	10418
##elaskan	10419
##itahu	10420
memenangi	10421
##uluk	10422
melatih	10423
##abel	10424
##iag	10425
aksinya	10426
pelakunya	10427
olahan	10428
alamat	10429
sentim	10430
persahab	10431
disaksikan	10432
antony	10433
##inic	10434
dilakukannya	10435
takj	10436
kebenc	10437
kue	10438
paral	10439
kesenj	10440
upt	10441
##barui	10442
diperhatikan	10443
mengag	10444
dramatis	10445
tegaskan	10446
pdt	10447
ternate	10448
ambisi	10449
wahana	10450
penyebabnya	10451
bhakti	10452
##appe	10453
oscar	10454
berbuka	10455
mbappe	10456
ditreskrimum	10457
bungkus	10458
persepsi	10459
ketemu	10460
ilmiah	10461
persahabatan	10462
kesenjangan	10463
bund	10464
lps	10465
raw	10466
sakti	10467
##gs	10468
##minton	10469
##kol	10470
##hur	10471
ditim	10472
dica	10473
##amata	10474
##ontrol	10475
##esaan	10476
menggabungkan	10477
memamerkan	10478
uno	10479
meramaikan	10480
pengembang	10481
menyangkut	10482
laju	10483
aduan	10484
pelindo	10485
##ajinan	10486
kerajinan	10487
korbannya	10488
miller	10489
kesen	10490
inspir	10491
prosesnya	10492
kendari	10493
opm	10494
kades	10495
ajaran	10496
ott	10497
serial	10498
##rahman	10499
##ensinya	10500
azer	10501
gadis	10502
donasi	10503
pidatonya	10504
konsultan	10505
##sylv	10506
tercipta	10507
rempah	10508
##baijan	10509
##ibraka	10510
agustina	10511
machmudin	10512
pennsylv	10513
menggarisbawahi	10514
kebencian	10515
pennsylvania	10516
cabu	10517
gir	10518
ojol	10519
sman	10520
uud	10521
yes	10522
yos	10523
##rc	10524
##zy	10525
##qi	10526
##amis	10527
menon	10528
##usat	10529
penguasa	10530
##edjo	10531
penyintas	10532
##odoh	10533
##temukan	10534
diser	10535
dinkes	10536
instalasi	10537
eksternal	10538
kantornya	10539
jane	10540
tanggul	10541
bisnisnya	10542
2006	10543
ibrahim	10544
teori	10545
badminton	10546
berperang	10547
klasik	10548
##ebutan	10549
kusn	10550
propam	10551
pinggiran	10552
charles	10553
wahyudi	10554
governance	10555
penjaringan	10556
fgd	10557
dimasukkan	10558
mandalika	10559
nyaris	10560
bendahara	10561
azerbaijan	10562
bim	10563
capai	10564
cantik	10565
fh	10566
line	10567
mump	10568
over	10569
spk	10570
vila	10571
wbp	10572
##dha	10573
##net	10574
##vp	10575
periksa	10576
perebutan	10577
##usuran	10578
adhi	10579
##ayung	10580
konon	10581
komjen	10582
ricky	10583
##obat	10584
tetapkan	10585
mardani	10586
baiknya	10587
soeh	10588
soesat	10589
benua	10590
menghidup	10591
ikuti	10592
mesti	10593
ong	10594
perlintasan	10595
##cius	10596
formal	10597
nyeri	10598
##afiliasi	10599
ipda	10600
diprakirakan	10601
deddy	10602
donor	10603
wisuda	10604
fiktif	10605
lawatan	10606
atmos	10607
notaris	10608
henry	10609
paskibraka	10610
influencer	10611
executive	10612
cn	10613
heboh	10614
kick	10615
lg	10616
lut	10617
mutu	10618
oh	10619
pakan	10620
sangg	10621
udin	10622
##won	10623
##ros	10624
##lek	10625
##com	10626
##hit	10627
aneh	10628
##iho	10629
kepeng	10630
menyalahkan	10631
kambing	10632
##ublikasikan	10633
ash	10634
dilarikan	10635
seto	10636
##opang	10637
store	10638
kedekatan	10639
membesar	10640
medsos	10641
ilir	10642
golden	10643
erwin	10644
kabel	10645
pkpu	10646
2007	10647
berjuluk	10648
disebutnya	10649
##abrakan	10650
hitung	10651
pangeran	10652
pacif	10653
kredib	10654
venue	10655
zulhas	10656
kebanggaan	10657
##murti	10658
ditreskrimsus	10659
diawali	10660
ditindaklanjuti	10661
customer	10662
otonomi	10663
veteran	10664
##yawarah	10665
soesatyo	10666
dul	10667
futur	10668
kiriman	10669
ogan	10670
sit	10671
ulu	10672
##ady	10673
berukuran	10674
terendah	10675
##bup	10676
##umer	10677
mengupayakan	10678
pengumpulan	10679
menjunjung	10680
##uaya	10681
##ahanya	10682
marsel	10683
kasusnya	10684
##angsungkan	10685
mahard	10686
perkumpulan	10687
music	10688
##arganya	10689
intens	10690
perlakuan	10691
jenjang	10692
garam	10693
network	10694
dijelaskan	10695
siangnya	10696
lahad	10697
spesies	10698
robot	10699
##hancuran	10700
premier	10701
audit	10702
u17	10703
dataran	10704
michigan	10705
kelautan	10706
92	10707
bed	10708
eli	10709
gb	10710
high	10711
kuk	10712
katakan	10713
meg	10714
tuh	10715
##ble	10716
##mn	10717
##fil	10718
##yawan	10719
terapi	10720
perind	10721
memori	10722
prih	10723
##ebalan	10724
pengej	10725
progr	10726
seragam	10727
alkohol	10728
penyisihan	10729
##opo	10730
amn	10731
##obolan	10732
pendalaman	10733
##dijat	10734
membuahkan	10735
penculikan	10736
komposisi	10737
penyelamat	10738
papar	10739
roti	10740
##incang	10741
##pektif	10742
terhubung	10743
bengkel	10744
raihan	10745
financial	10746
munster	10747
kusuma	10748
sugbk	10749
kepadatan	10750
jinping	10751
bobotoh	10752
lubang	10753
keanggotaan	10754
moerdijat	10755
intelligence	10756
pengejaran	10757
lak	10758
panji	10759
rini	10760
sja	10761
utuh	10762
##oda	10763
##pad	10764
##til	10765
##wara	10766
##etus	10767
##ruk	10768
##arbon	10769
menlu	10770
##taz	10771
inara	10772
##ikindo	10773
##bulu	10774
##itanya	10775
anim	10776
##udian	10777
melestarikan	10778
serbia	10779
polio	10780
kargo	10781
konting	10782
timbul	10783
bersel	10784
sejen	10785
amil	10786
dikem	10787
tempo	10788
##nie	10789
memburu	10790
ent	10791
##toral	10792
berlibur	10793
bijak	10794
kloter	10795
diperpanjang	10796
politiknya	10797
penghentian	10798
gaikindo	10799
##cking	10800
##tabek	10801
musyawarah	10802
robert	10803
pandeg	10804
kontrakan	10805
start	10806
perbuatannya	10807
##dasmen	10808
wayang	10809
sepertinya	10810
##alpot	10811
pemecatan	10812
perindustrian	10813
curan	10814
djar	10815
flu	10816
iup	10817
icc	10818
tjah	10819
tabrakan	10820
##aut	10821
##bel	10822
##low	10823
##uah	10824
##ank	10825
##inus	10826
kekaca	10827
menguji	10828
##arita	10829
selaras	10830
akh	10831
harimurti	10832
anton	10833
umk	10834
stand	10835
rumit	10836
kasub	10837
terlapor	10838
usahanya	10839
160	10840
##ontang	10841
atasi	10842
sendi	10843
perlengkapan	10844
bumbu	10845
pemerintahannya	10846
hendri	10847
memproses	10848
its	10849
tamara	10850
federasi	10851
cahaya	10852
asian	10853
tyas	10854
diinisiasi	10855
meminim	10856
diwujudkan	10857
persentase	10858
curanmor	10859
kekacauan	10860
cairan	10861
deng	10862
waf	10863
yudi	10864
##du	10865
##tp	10866
##uch	10867
##anai	10868
##inong	10869
dikait	10870
##ador	10871
sea	10872
##tag	10873
berjen	10874
terulang	10875
mengenang	10876
##gihan	10877
##angkas	10878
alban	10879
mempererat	10880
##nitudo	10881
tiang	10882
dipaksa	10883
##apore	10884
panjaitan	10885
##onstruksi	10886
##evi	10887
paes	10888
baliho	10889
laporkan	10890
##odetabek	10891
forkop	10892
profil	10893
dibuktikan	10894
madya	10895
ruden	10896
exc	10897
singapore	10898
pemantau	10899
watch	10900
tebing	10901
tukar	10902
##alsuan	10903
casn	10904
cibinong	10905
pembekalan	10906
lahadalia	10907
bongkar	10908
faj	10909
kit	10910
kaka	10911
lit	10912
mh	10913
psu	10914
qod	10915
warganya	10916
xii	10917
yunan	10918
##lus	10919
##kov	10920
##fak	10921
##aten	10922
##unching	10923
##ikot	10924
##ister	10925
##ese	10926
##idor	10927
saud	10928
##udaraan	10929
##teraksi	10930
menyangka	10931
##ott	10932
##ayar	10933
sekur	10934
sekut	10935
isa	10936
riv	10937
diringkus	10938
##resh	10939
dipandang	10940
bij	10941
bakrie	10942
tambak	10943
acl	10944
perdebatan	10945
petrus	10946
psn	10947
berinteraksi	10948
patung	10949
terjalin	10950
team	10951
nggak	10952
dibacakan	10953
terhenti	10954
airlines	10955
##ship	10956
tpi	10957
clinic	10958
desainer	10959
royong	10960
official	10961
mengekspl	10962
emosional	10963
pemukiman	10964
francis	10965
lsm	10966
inspektur	10967
afif	10968
diwarnai	10969
nigeria	10970
berkompetisi	10971
mardiono	10972
rafael	10973
sjafri	10974
dikaitkan	10975
fut	10976
gis	10977
jil	10978
peb	10979
sia	10980
tc	10981
zah	10982
##zar	10983
##arangan	10984
##ating	10985
diolah	10986
penas	10987
##upkan	10988
pengamatan	10989
kemarahan	10990
menyem	10991
##isir	10992
##otes	10993
##awe	10994
##ubur	10995
kelayakan	10996
##ongs	10997
jag	10998
dikhawatirkan	10999
memperebutkan	11000
didatang	11001
berbelanja	11002
130	11003
abc	11004
skill	11005
idzes	11006
konfirmasi	11007
##iarah	11008
##alisme	11009
pasukannya	11010
##pox	11011
bangkok	11012
kewasp	11013
runner	11014
ricardo	11015
ciamis	11016
matchday	11017
central	11018
arsitek	11019
melemahkan	11020
speed	11021
ditinggalkan	11022
pandeglang	11023
rudenim	11024
sekutunya	11025
kewaspadaan	11026
begal	11027
buaya	11028
fab	11029
gran	11030
nic	11031
oil	11032
vulkan	11033
##oj	11034
##psi	11035
##rutan	11036
##hasil	11037
##yanya	11038
##alihan	11039
##apis	11040
##enge	11041
pemalsuan	11042
labuan	11043
##epi	11044
koridor	11045
##indar	11046
antikor	11047
halnya	11048
suaka	11049
magn	11050
ditarik	11051
sof	11052
instan	11053
agustiar	11054
urban	11055
militernya	11056
kolonel	11057
kolomb	11058
block	11059
perhimpunan	11060
kontestan	11061
pribadinya	11062
bapp	11063
##astra	11064
fleksi	11065
sayur	11066
celsius	11067
produser	11068
ombak	11069
brigadir	11070
kerjanya	11071
terkendali	11072
postingan	11073
kdrt	11074
pacific	11075
antikorupsi	11076
aur	11077
buntut	11078
cry	11079
gand	11080
jh	11081
runtu	11082
rentang	11083
sci	11084
sunda	11085
uea	11086
var	11087
##nus	11088
##tamar	11089
##eur	11090
##uara	11091
##kh	11092
##aly	11093
##alinya	11094
diwak	11095
##onim	11096
##apang	11097
terjual	11098
teritori	11099
peranan	11100
##esanan	11101
##imul	11102
##imia	11103
selisih	11104
bajo	11105
pelari	11106
##ingkirkan	11107
haram	11108
perspektif	11109
bersek	11110
berkali	11111
enak	11112
kronis	11113
ingatkan	11114
usus	11115
spa	11116
##field	11117
brin	11118
terbalik	11119
kehamilan	11120
komunis	11121
bpom	11122
sanur	11123
bully	11124
perjudian	11125
luluk	11126
##imbing	11127
pengajar	11128
mengedukasi	11129
penderitaan	11130
naturalisasi	11131
victor	11132
hajatan	11133
kontingen	11134
cegah	11135
fe	11136
fal	11137
fam	11138
swi	11139
sby	11140
##ror	11141
##caan	11142
##zh	11143
##ving	11144
kesim	11145
terbagi	11146
peradi	11147
##itannya	11148
##ider	11149
##idap	11150
prok	11151
anind	11152
##butan	11153
##iansyah	11154
##intang	11155
##usila	11156
pendirian	11157
chris	11158
kedapatan	11159
ditan	11160
##manuel	11161
berbincang	11162
ikh	11163
teks	11164
tugu	11165
sendirian	11166
masalahnya	11167
sedunia	11168
##coin	11169
booth	11170
menegakkan	11171
bertempat	11172
journ	11173
ranah	11174
djoko	11175
outlet	11176
royal	11177
prosesi	11178
konvensional	11179
judol	11180
atmosfer	11181
bontang	11182
corn	11183
cair	11184
fard	11185
jurusan	11186
kencana	11187
leh	11188
mol	11189
pisa	11190
##luk	11191
##sil	11192
peledak	11193
apri	11194
##opor	11195
##osil	11196
berkec	11197
riza	11198
chall	11199
milan	11200
kampany	11201
nominasi	11202
jabodetabek	11203
spons	11204
kawal	11205
penghuni	11206
kanit	11207
dihitung	11208
keji	11209
##tabrak	11210
ace	11211
kolam	11212
pkk	11213
hubungannya	11214
##ership	11215
kunjungannya	11216
pembacaan	11217
rp10	11218
tppu	11219
bengkalis	11220
startup	11221
menutupi	11222
menginap	11223
label	11224
pengasuh	11225
kisaran	11226
partner	11227
innov	11228
cloud	11229
imbalan	11230
entitas	11231
yunani	11232
runtuh	11233
kesimp	11234
civ	11235
catat	11236
candra	11237
gul	11238
hasi	11239
map	11240
mpox	11241
slav	11242
##bc	11243
##yit	11244
##).	11245
##informasi	11246
kean	11247
berga	11248
berenang	11249
##urity	11250
##umuskan	11251
##ekerjakan	11252
prom	11253
##antun	11254
kamtibmas	11255
##arani	11256
ases	11257
asusila	11258
konsistensi	11259
pertanggungja	11260
pemerataan	11261
areal	11262
kasasi	11263
diganti	11264
envir	11265
graha	11266
dipenj	11267
kesan	11268
terpenuhi	11269
batasan	11270
gold	11271
mobilitas	11272
terkec	11273
syarif	11274
##ondasi	11275
##ariksa	11276
jendela	11277
tau	11278
rupanya	11279
persaudaraan	11280
baginya	11281
sustainable	11282
podium	11283
mempersembahkan	11284
ritel	11285
zakiyah	11286
dipenjara	11287
austri	11288
dak	11289
fly	11290
nga	11291
paman	11292
rab	11293
rod	11294
sonny	11295
##bin	11296
##akm	11297
menandakan	11298
##sional	11299
seek	11300
##onakan	11301
##tagon	11302
bertulis	11303
##arag	11304
##ektivitas	11305
##waban	11306
pengeb	11307
pengikut	11308
keponakan	11309
##edon	11310
menyamb	11311
serpong	11312
pelarangan	11313
##anjakan	11314
##ujar	11315
pendistribusi	11316
menggerakkan	11317
palangka	11318
email	11319
soft	11320
pansus	11321
##acak	11322
imun	11323
eksped	11324
abk	11325
abbas	11326
suprat	11327
kenya	11328
syn	11329
##iliw	11330
blusukan	11331
repres	11332
santai	11333
silo	11334
pinang	11335
pembuka	11336
panduan	11337
kemenkominfo	11338
efektivitas	11339
muzani	11340
azhar	11341
studio	11342
starl	11343
firda	11344
benteng	11345
fadjar	11346
##integrasikan	11347
dianiaya	11348
prospek	11349
jahat	11350
ditunjukkan	11351
andreas	11352
gatot	11353
francesco	11354
kenyataan	11355
aipda	11356
tropis	11357
forkopim	11358
futsal	11359
pertanggungjawaban	11360
austria	11361
fai	11362
fosil	11363
gitar	11364
jr	11365
muf	11366
oki	11367
viv	11368
wom	11369
##ront	11370
##cast	11371
##kala	11372
##zer	11373
##amad	11374
menaruh	11375
##ilit	11376
berka	11377
##isnis	11378
##utkan	11379
##etat	11380
##udo	11381
meri	11382
##ampek	11383
pengusung	11384
progres	11385
##bagaan	11386
serahkan	11387
asmara	11388
##endang	11389
harapkan	11390
artif	11391
berser	11392
antariksa	11393
##aksakan	11394
mempertemukan	11395
125	11396
khal	11397
jatah	11398
kro	11399
pencip	11400
acc	11401
syams	11402
pbsi	11403
penjuru	11404
terjerat	11405
bpip	11406
hassan	11407
pembunuh	11408
elektoral	11409
exper	11410
vii	11411
kreasi	11412
investment	11413
celana	11414
cikampek	11415
jules	11416
refl	11417
mcr25	11418
spiritual	11419
mumpuni	11420
soeharto	11421
kesimpulan	11422
supratman	11423
cem	11424
durasi	11425
hs	11426
iuran	11427
judul	11428
julian	11429
puk	11430
ster	11431
soni	11432
uday	11433
##via	11434
##aldi	11435
seimbang	11436
menguat	11437
mengalihkan	11438
##olos	11439
kembangkan	11440
##antis	11441
aksel	11442
asta	11443
kerawanan	11444
bebernya	11445
112	11446
belgia	11447
klok	11448
usut	11449
pencinta	11450
oku	11451
memasok	11452
america	11453
ukt	11454
##oyeksikan	11455
##argo	11456
diberangkatkan	11457
gener	11458
perlahan	11459
simanj	11460
menemani	11461
otot	11462
kunjung	11463
dijatuhkan	11464
diperkenalkan	11465
triw	11466
kios	11467
tudingan	11468
berakhirnya	11469
mengawali	11470
psikologis	11471
cokelat	11472
vokal	11473
diresmikan	11474
##indikasikan	11475
dimakamkan	11476
legendaris	11477
fw	11478
gay	11479
hik	11480
hiv	11481
lirik	11482
nad	11483
ov	11484
ojek	11485
valu	11486
##bitan	11487
##rap	11488
##cal	11489
##kasi	11490
##),	11491
##erman	11492
##kantor	11493
pelosok	11494
mendistribusikan	11495
sentuhan	11496
ama	11497
presisi	11498
chen	11499
sepi	11500
trade	11501
membungk	11502
digel	11503
seharga	11504
taksi	11505
resep	11506
parf	11507
kekebalan	11508
berdoa	11509
lokasinya	11510
##tive	11511
bro	11512
permus	11513
##andingkan	11514
rela	11515
madani	11516
track	11517
sesungg	11518
kuno	11519
magnitudo	11520
macet	11521
secepat	11522
hanura	11523
budiman	11524
mengerti	11525
brawijaya	11526
pascap	11527
sugeng	11528
tpnpb	11529
pisang	11530
azizah	11531
bondow	11532
lhkpn	11533
kolombia	11534
seekor	11535
bertuliskan	11536
pendistribusian	11537
ekspedisi	11538
curi	11539
gita	11540
hr	11541
k3	11542
kia	11543
les	11544
panggil	11545
sq	11546
titip	11547
##wali	11548
##rem	11549
##emangat	11550
##amal	11551
##eluk	11552
##unis	11553
##adj	11554
sesa	11555
bere	11556
perunggu	11557
##ury	11558
##irawan	11559
pemicu	11560
##angganya	11561
jaz	11562
berkek	11563
berkarya	11564
##jaring	11565
diteg	11566
encep	11567
kitab	11568
berdua	11569
iming	11570
dinar	11571
berbahan	11572
dibakar	11573
spec	11574
berpas	11575
ramd	11576
banking	11577
##rey	11578
simon	11579
angkot	11580
leon	11581
burhan	11582
mandat	11583
yoga	11584
rismah	11585
soreang	11586
smelter	11587
1990	11588
mcr3	11589
security	11590
akrabnya	11591
youtuber	11592
dorongan	11593
asih	11594
mengabdi	11595
kediamannya	11596
hermansyah	11597
nirawak	11598
merangkul	11599
mengukuhkan	11600
menonjol	11601
menghidupkan	11602
marselino	11603
qodari	11604
bondowoso	11605
cis	11606
degradasi	11607
full	11608
lai	11609
lingga	11610
lob	11611
pangkat	11612
ronny	11613
tandang	11614
with	11615
xin	11616
##bb	11617
##dadu	11618
##uela	11619
##ardi	11620
##onment	11621
mengamati	11622
##omet	11623
sains	11624
pengemb	11625
penggawa	11626
senam	11627
kelelahan	11628
angela	11629
jago	11630
distributor	11631
##ohong	11632
separuh	11633
ketapang	11634
deportasi	11635
pembaruan	11636
berlari	11637
menghibur	11638
dimainkan	11639
batuk	11640
support	11641
nav	11642
kolektif	11643
solar	11644
beauty	11645
yaq	11646
##untak	11647
mayor	11648
manfaatnya	11649
##ensasi	11650
berfoto	11651
berisikan	11652
volody	11653
##myr	11654
contohnya	11655
mutasi	11656
memecah	11657
christie	11658
perusakan	11659
venezuela	11660
jamaah	11661
memunculkan	11662
diminati	11663
zonasi	11664
takjil	11665
kepengurusan	11666
simanjuntak	11667
sesungguhnya	11668
volodymyr	11669
cew	11670
fbi	11671
gw	11672
gin	11673
mawar	11674
ring	11675
rita	11676
singgung	11677
tara	11678
tpa	11679
yerus	11680
##ben	11681
##rell	11682
##enan	11683
##akaan	11684
menara	11685
##esif	11686
pengujian	11687
laura	11688
serdadu	11689
barunya	11690
asuh	11691
oliv	11692
konektivitas	11693
bagikan	11694
mencur	11695
ard	11696
arti	11697
pebulu	11698
stan	11699
summit	11700
khali	11701
kebon	11702
kapuas	11703
manila	11704
pani	11705
##ancang	11706
terpantau	11707
space	11708
sho	11709
elp	11710
elesti	11711
nagita	11712
##tabel	11713
##nisa	11714
siapapun	11715
puluh	11716
dinasti	11717
pdb	11718
brics	11719
silat	11720
survey	11721
you	11722
slov	11723
pendaftar	11724
tubuhnya	11725
optimis	11726
sorenya	11727
melayangkan	11728
alumnus	11729
autopsi	11730
habibur	11731
payung	11732
payudara	11733
mediator	11734
cucu	11735
untung	11736
najib	11737
diwakili	11738
environment	11739
parfum	11740
rismaharini	11741
elestianto	11742
if	11743
rm	11744
##bir	11745
##negara	11746
##tel	11747
##cong	11748
##arten	11749
bertrans	11750
##orot	11751
mengas	11752
##ulator	11753
penentuan	11754
prase	11755
##adian	11756
merokok	11757
##ampas	11758
menyakit	11759
menyatukan	11760
pelep	11761
satya	11762
pendudukan	11763
dikumpulkan	11764
dikawal	11765
membel	11766
harusnya	11767
terlambat	11768
persikab	11769
170	11770
liber	11771
sultra	11772
atl	11773
penerbitan	11774
black	11775
memprakirakan	11776
##raham	11777
duet	11778
pedesaan	11779
perpec	11780
potong	11781
jusuf	11782
muktamar	11783
pembalasan	11784
radikal	11785
knalpot	11786
menyimpulkan	11787
memadati	11788
hipmi	11789
nafkah	11790
nunuk	11791
organi	11792
excell	11793
slavina	11794
sesaat	11795
berkekuatan	11796
cewek	11797
yerusalem	11798
heran	11799
lambung	11800
mama	11801
rent	11802
tabrak	11803
wind	11804
##lukkan	11805
##cer	11806
##zo	11807
##aret	11808
menanti	11809
##ilasi	11810
berangin	11811
##isahan	11812
mengukur	11813
mengindikasikan	11814
penja	11815
mered	11816
##alisir	11817
##riadi	11818
##editasi	11819
menyamakan	11820
launching	11821
adap	11822
komang	11823
##bank	11824
ritual	11825
dikerjakan	11826
##ungkas	11827
temu	11828
kedalaman	11829
membedakan	11830
embar	11831
soet	11832
ustaz	11833
abraham	11834
rekonstruksi	11835
balas	11836
subdit	11837
##ganda	11838
cool	11839
letusan	11840
terbaiknya	11841
2003	11842
natuna	11843
proyeksi	11844
##incar	11845
perseorangan	11846
porsi	11847
komplotan	11848
kotanya	11849
mengkaji	11850
mengantar	11851
johnson	11852
dimaksudkan	11853
jonatan	11854
psikologi	11855
kontroversial	11856
nabi	11857
gakkum	11858
cuci	11859
gregoria	11860
mantap	11861
bitcoin	11862
gallant	11863
hasibuan	11864
udayana	11865
bereaksi	11866
perpecahan	11867
cin	11868
cul	11869
dendam	11870
gur	11871
kob	11872
kumpul	11873
pew	11874
pabri	11875
qris	11876
veh	11877
wo	11878
wam	11879
yohan	11880
zi	11881
##peksi	11882
##ls	11883
##str	11884
ditum	11885
berdi	11886
##orehkan	11887
##ussel	11888
##ukus	11889
pemula	11890
##jawab	11891
##antungan	11892
lawang	11893
##otedjo	11894
##anyikan	11895
##osta	11896
##anggakan	11897
kelengkapan	11898
halmah	11899
chan	11900
cholil	11901
maarten	11902
separ	11903
membicarakan	11904
terlaksana	11905
maharani	11906
sound	11907
##formasikan	11908
berpusat	11909
turunan	11910
andal	11911
erd	11912
pembersihan	11913
acuan	11914
terbilang	11915
matth	11916
##onial	11917
##okuskan	11918
2002	11919
##fuddin	11920
kombinasi	11921
libya	11922
srikan	11923
tesla	11924
cipayung	11925
tanjungp	11926
raden	11927
##rokimia	11928
community	11929
perampokan	11930
kelembagaan	11931
ferdinan	11932
lunak	11933
mogok	11934
religi	11935
##okhman	11936
lgbt	11937
forkopimda	11938
artificial	11939
halmahera	11940
cla	11941
dud	11942
down	11943
japan	11944
kj	11945
p2	11946
rh	11947
reb	11948
yi	11949
##kota	11950
##foli	11951
##hati	11952
##ye	11953
##vasi	11954
##erahan	11955
dico	11956
##kanya	11957
berduk	11958
berteri	11959
perhi	11960
peraga	11961
##esta	11962
##tip	11963
pembat	11964
##utaran	11965
melamb	11966
meringkus	11967
pengus	11968
serah	11969
##ubara	11970
asa	11971
karo	11972
karhut	11973
pastinya	11974
kelestarian	11975
penyitaan	11976
jazz	11977
daur	11978
chang	11979
memperl	11980
tru	11981
##digi	11982
kho	11983
retail	11984
demografi	11985
berlindung	11986
pesanan	11987
diddy	11988
upd	11989
setiadi	11990
dimusnahkan	11991
dibiarkan	11992
permodalan	11993
kenangan	11994
tokopedia	11995
point	11996
tertanggal	11997
bpd	11998
lewot	11999
sinerg	12000
young	12001
dokumenter	12002
revitalisasi	12003
rosan	12004
pilihnya	12005
bocor	12006
harmonis	12007
north	12008
##iskusikan	12009
diawasi	12010
hubner	12011
kosmetik	12012
lpsk	12013
udinus	12014
pisau	12015
persikabo	12016
vehic	12017
berteriak	12018
perhiasan	12019
karhutla	12020
dna	12021
guar	12022
gig	12023
hemat	12024
lelah	12025
lurah	12026
paku	12027
rint	12028
tawarkan	12029
vik	12030
wad	12031
##banya	12032
##tam	12033
##ring	12034
##lai	12035
##kita	12036
##tawa	12037
interior	12038
mengga	12039
mengintegrasikan	12040
##nyawa	12041
##ulit	12042
##eder	12043
##iano	12044
adh	12045
##ayanya	12046
##ongg	12047
check	12048
ditampilkan	12049
trading	12050
110	12051
keterbuk	12052
berlayar	12053
bio	12054
dides	12055
interaksi	12056
setibanya	12057
usul	12058
diperbaiki	12059
berbentuk	12060
lif	12061
lion	12062
hadiri	12063
penghubung	12064
lemon	12065
supian	12066
kaitannya	12067
sals	12068
petrokimia	12069
sidak	12070
beach	12071
saras	12072
faktanya	12073
relations	12074
bayam	12075
mengeluh	12076
penelusuran	12077
dominan	12078
pemanasan	12079
##iringi	12080
cahyo	12081
micr	12082
lippo	12083
pungkas	12084
vokalis	12085
hanyalah	12086
manggarai	12087
mengesahkan	12088
ditimbulkan	12089
kesenian	12090
leher	12091
sponsor	12092
asesmen	12093
triwulan	12094
paniai	12095
pabrikan	12096
erdogan	12097
matthew	12098
keterbukaan	12099
dina	12100
gotong	12101
limp	12102
pala	12103
sra	12104
u20	12105
wall	12106
##our	12107
##ous	12108
##uap	12109
##hone	12110
##vari	12111
##alawan	12112
##inas	12113
##inah	12114
dihadap	12115
##untuk	12116
##asifikasi	12117
pemalang	12118
##ampany	12119
##rio	12120
##edikasi	12121
menyembunyikan	12122
kamal	12123
##alahgunakan	12124
semalam	12125
kominfo	12126
seno	12127
##inder	12128
keruk	12129
##ogasi	12130
##owali	12131
dikunjungi	12132
##aksono	12133
maraknya	12134
mengguncang	12135
ditamb	12136
depresi	12137
kesed	12138
mewajibkan	12139
imlek	12140
usung	12141
bidan	12142
dibilang	12143
daratan	12144
metr	12145
build	12146
ketid	12147
terbuat	12148
##ugh	12149
hotman	12150
ground	12151
menyeret	12152
smkn	12153
kewira	12154
bnpt	12155
##ustakaan	12156
##ulingkan	12157
ppds	12158
maming	12159
ampuh	12160
economic	12161
antrean	12162
mengobati	12163
disimpan	12164
##adinata	12165
meeting	12166
##ongkrak	12167
yesus	12168
kampanyenya	12169
menyambangi	12170
pengembalian	12171
yaqut	12172
pelepasan	12173
batakan	12174
call	12175
ds	12176
dhani	12177
guter	12178
himpunan	12179
jcc	12180
nug	12181
puri	12182
sina	12183
sita	12184
sastra	12185
##bility	12186
##zon	12187
##anahan	12188
##arsa	12189
dies	12190
ment	12191
menunjukan	12192
##apusan	12193
terowongan	12194
##ission	12195
mengis	12196
memotivasi	12197
##waan	12198
##ebek	12199
##ianya	12200
polwan	12201
satres	12202
kerum	12203
##ungkung	12204
ump	12205
##umpah	12206
diduduki	12207
ppa	12208
klip	12209
klungkung	12210
wakilnya	12211
kalbar	12212
##undupkan	12213
batubara	12214
novel	12215
penghapusan	12216
diberhentikan	12217
coun	12218
syam	12219
ular	12220
##ondong	12221
ariotedjo	12222
dicari	12223
dicek	12224
tega	12225
slogan	12226
hendrar	12227
duo	12228
ambruk	12229
menangguhkan	12230
merekomendasikan	12231
maksimum	12232
gencar	12233
fitnah	12234
residi	12235
liputan	12236
aqua	12237
norwe	12238
##athon	12239
menggeledah	12240
buronan	12241
jebol	12242
blue	12243
digagas	12244
bingung	12245
mimika	12246
dipulangkan	12247
substansi	12248
bullying	12249
challenge	12250
pukulan	12251
srikandi	12252
##ampanyekan	12253
kewirausahaan	12254
guterres	12255
],	12256
boro	12257
caf	12258
geg	12259
heve	12260
muj	12261
nkri	12262
nuansa	12263
porn	12264
ririn	12265
son	12266
wond	12267
##oom	12268
##foto	12269
##yam	12270
##aruddin	12271
##atm	12272
##aluan	12273
diant	12274
##tures	12275
##apar	12276
bervari	12277
##ungut	12278
##ekap	12279
##berto	12280
##ihad	12281
saint	12282
seluler	12283
##perin	12284
propor	12285
##isisi	12286
##otek	12287
##entik	12288
pelantun	12289
pelalawan	12290
senya	12291
bersumber	12292
amar	12293
berkep	12294
rif	12295
pendaki	12296
marsh	12297
trid	12298
rejang	12299
entr	12300
##cha	12301
pantura	12302
bakteri	12303
kompensasi	12304
ditempati	12305
jansen	12306
kaus	12307
naga	12308
naungan	12309
kolega	12310
keberanian	12311
naskah	12312
mewar	12313
engine	12314
swt	12315
jojo	12316
tergolong	12317
rohil	12318
legislasi	12319
marcos	12320
menuding	12321
propag	12322
pengerahan	12323
##abutan	12324
dibayarkan	12325
hayati	12326
susilo	12327
margin	12328
christian	12329
agraria	12330
ketahui	12331
islami	12332
carolina	12333
dicabut	12334
prihadi	12335
refleksi	12336
akselerasi	12337
berpasangan	12338
elpiji	12339
habiburokhman	12340
tanjungpinang	12341
sragen	12342
hevearita	12343
bodong	12344
huda	12345
lowongan	12346
nap	12347
og	12348
pok	12349
rib	12350
tin	12351
tunjung	12352
yon	12353
##baran	12354
##md	12355
##yid	12356
##var	12357
##inea	12358
diut	12359
bereks	12360
##uss	12361
penambangan	12362
pentagon	12363
##ihakan	12364
selang	12365
merch	12366
pengerjaan	12367
masakan	12368
semp	12369
asupan	12370
pertanahan	12371
sebatas	12372
dilibatkan	12373
harima	12374
suri	12375
berskala	12376
##osip	12377
suf	12378
ditunggu	12379
grab	12380
dipengaruhi	12381
takluk	12382
makkah	12383
keseri	12384
##ection	12385
usk	12386
diben	12387
andy	12388
##istrasi	12389
penerus	12390
glow	12391
##etaan	12392
pinjol	12393
akunnya	12394
gusta	12395
perpustakaan	12396
mcr23	12397
morowali	12398
buddha	12399
1973	12400
record	12401
kekasihnya	12402
yoyok	12403
nobar	12404
pictures	12405
menyeberang	12406
rasio	12407
progresif	12408
kerukunan	12409
residivis	12410
pornografi	12411
bervariasi	12412
buang	12413
fol	12414
htt	12415
iia	12416
idi	12417
jaj	12418
kah	12419
nonton	12420
pab	12421
rena	12422
romo	12423
ulah	12424
##gin	12425
##mund	12426
##nel	12427
##hel	12428
##yet	12429
##inat	12430
##emo	12431
##ame	12432
##onna	12433
berib	12434
mengoperasikan	12435
mengimplementasikan	12436
memotong	12437
##ukupi	12438
##imanya	12439
##irit	12440
pray	12441
sajikan	12442
##ebani	12443
proaktif	12444
aksesi	12445
adri	12446
asr	12447
##anjuk	12448
lebong	12449
times	12450
kelak	12451
##ipulasi	12452
dilepas	12453
harry	12454
mencintai	12455
rivan	12456
marak	12457
chic	12458
##ovi	12459
memperd	12460
##ench	12461
##encil	12462
digantikan	12463
klaten	12464
konsesi	12465
street	12466
mengenalkan	12467
bermartabat	12468
salurkan	12469
naval	12470
acep	12471
ajakan	12472
bastian	12473
guntur	12474
mengeluhkan	12475
memerinci	12476
kontras	12477
memanas	12478
iphone	12479
porto	12480
fesyen	12481
statusnya	12482
tergel	12483
penduduknya	12484
doel	12485
dede	12486
kompolnas	12487
transit	12488
lumbung	12489
tangki	12490
lembong	12491
saiful	12492
junta	12493
eksplorasi	12494
bmw	12495
quick	12496
pgri	12497
future	12498
swift	12499
lewotobi	12500
ketidaks	12501
cf	12502
meh	12503
muatan	12504
##nk	12505
##tun	12506
##ford	12507
##ango	12508
##emahan	12509
perda	12510
memangkas	12511
uns	12512
unic	12513
##ompat	12514
pemetaan	12515
##tron	12516
keram	12517
bersembunyi	12518
berkari	12519
disusun	12520
wakaf	12521
marin	12522
chair	12523
umpan	12524
meneruskan	12525
densus	12526
mustah	12527
maduro	12528
kontes	12529
nyamuk	12530
cermat	12531
nganjuk	12532
pandjaitan	12533
berkeliling	12534
diselidiki	12535
singaraja	12536
kapolrestabes	12537
suherman	12538
kepergian	12539
konstitusional	12540
livin	12541
helm	12542
otorita	12543
taylor	12544
tembok	12545
kokoh	12546
paulus	12547
tapera	12548
sindikat	12549
marsudi	12550
vulkanik	12551
crypto	12552
##oloskan	12553
pembatalan	12554
norwegia	12555
candy	12556
ear	12557
lop	12558
rer	12559
rot	12560
toh	12561
tumpang	12562
vatikan	12563
xv	12564
##pei	12565
##uver	12566
##cle	12567
##ski	12568
##hib	12569
##anangkan	12570
##atap	12571
dialihkan	12572
perindo	12573
mengulangi	12574
unpad	12575
##irinya	12576
penug	12577
penunjukan	12578
praw	12579
pemesanan	12580
##etron	12581
meranti	12582
##ampaian	12583
adopsi	12584
pelopor	12585
beper	12586
keliru	12587
kertanegara	12588
hary	12589
arj	12590
pilwak	12591
tetangganya	12592
##empurn	12593
sangatlah	12594
parade	12595
sour	12596
panik	12597
imran	12598
##ancar	12599
konsel	12600
konsentrasi	12601
pencuri	12602
menyebutnya	12603
memasak	12604
sky	12605
urg	12606
kolabor	12607
eva	12608
reputasi	12609
##plus	12610
edwin	12611
perjalanannya	12612
deretan	12613
350	12614
carlos	12615
siklus	12616
hilangnya	12617
kunyit	12618
purwokerto	12619
menjadikannya	12620
mike	12621
##truksikan	12622
sentil	12623
kudeta	12624
roma	12625
##putra	12626
tourism	12627
samsung	12628
audio	12629
##anggungjawab	12630
beralasan	12631
pendahuluan	12632
cyber	12633
jilbab	12634
##akmuran	12635
berduka	12636
update	12637
vehicle	12638
propaganda	12639
eco	12640
g20	12641
hana	12642
meka	12643
rawat	12644
titi	12645
##ience	12646
##kukan	12647
##kular	12648
##sl	12649
##hid	12650
##versi	12651
##alakan	12652
##alangan	12653
menep	12654
##yad	12655
##ape	12656
##ilet	12657
teratur	12658
##umah	12659
##olas	12660
##ime	12661
prasta	12662
##udikan	12663
indom	12664
##antono	12665
##iance	12666
##otisme	12667
##eport	12668
##endy	12669
mendongkrak	12670
alas	12671
person	12672
angga	12673
##utut	12674
berkons	12675
##ohi	12676
dapatkan	12677
ditel	12678
membubarkan	12679
will	12680
wilson	12681
entah	12682
jatuhnya	12683
keterg	12684
guinea	12685
socc	12686
##act	12687
terpencil	12688
ahmed	12689
maling	12690
musibah	12691
penghasil	12692
bril	12693
##olahraga	12694
keberagaman	12695
##tikul	12696
motornya	12697
deal	12698
sistematis	12699
berguna	12700
susulan	12701
widi	12702
madras	12703
toba	12704
bulanan	12705
memprotes	12706
hitungan	12707
revi	12708
##boat	12709
##ghts	12710
celcius	12711
donny	12712
adiknya	12713
renovasi	12714
##hlak	12715
karimun	12716
coklit	12717
sifatnya	12718
kbri	12719
tertimpa	12720
karenanya	12721
ballroom	12722
##hitungkan	12723
women	12724
##rontasi	12725
kroasia	12726
khalifa	12727
harimau	12728
penugasan	12729
bepergian	12730
:/	12731
ais	12732
abang	12733
cabor	12734
hung	12735
lor	12736
malu	12737
rind	12738
##gor	12739
##pam	12740
##ness	12741
##roduksi	12742
##zation	12743
##xi	12744
##emasan	12745
menular	12746
teras	12747
##ingat	12748
mengins	12749
mengusir	12750
mengincar	12751
anji	12752
##esia	12753
##uhur	12754
pengalihan	12755
##anting	12756
bahu	12757
sekian	12758
asmat	12759
aroma	12760
##opot	12761
amanda	12762
berkeb	12763
##obol	12764
##impor	12765
chip	12766
##ovo	12767
##ices	12768
kekec	12769
persenjata	12770
##acu	12771
oksi	12772
dimyati	12773
shang	12774
segalanya	12775
dihimpun	12776
rawa	12777
##krindo	12778
##rejo	12779
format	12780
front	12781
suharto	12782
perekrutan	12783
##tinus	12784
sebutnya	12785
meresahkan	12786
taipei	12787
tayangan	12788
farmasi	12789
750	12790
##itimasi	12791
bpkp	12792
freeport	12793
kodim	12794
peternak	12795
menumbuhkan	12796
mariska	12797
mengagendakan	12798
anindya	12799
beribadah	12800
mekaar	12801
://	12802
aeon	12803
cro	12804
kutu	12805
mangku	12806
nabila	12807
nations	12808
singk	12809
tongk	12810
##puk	12811
##pihakan	12812
##ru	12813
##60	12814
diidentifikasi	12815
menet	12816
menorehkan	12817
##elli	12818
##ile	12819
##tay	12820
##engat	12821
##isakan	12822
##adaban	12823
pemandangan	12824
selepas	12825
merapat	12826
##abung	12827
menyukai	12828
menyisakan	12829
masiku	12830
##abul	12831
orde	12832
agency	12833
penyuluh	12834
##ogiri	12835
persemb	12836
arhan	12837
jack	12838
disem	12839
disukai	12840
dikendalikan	12841
anggap	12842
##toy	12843
krl	12844
umumkan	12845
##uncur	12846
tempatnya	12847
hamzah	12848
brid	12849
##oyong	12850
##roen	12851
laptop	12852
kenegaraan	12853
##igakan	12854
basah	12855
asnawi	12856
teater	12857
rsup	12858
binsar	12859
merekam	12860
elektrik	12861
dikirimkan	12862
ditres	12863
gilbert	12864
informal	12865
##elihara	12866
menunaikan	12867
yunus	12868
hanif	12869
kartika	12870
podcast	12871
##burg	12872
menaklukkan	12873
##capil	12874
kedelapan	12875
inspiratif	12876
mencurigakan	12877
ditambahkan	12878
mewarnai	12879
ketergantungan	12880
madrasah	12881
!"	12882
bapan	12883
bill	12884
deteksi	12885
gres	12886
mn	12887
nahas	12888
oec	12889
puj	12890
tn	12891
tomo	12892
##gy	12893
##bola	12894
##maya	12895
##wana	12896
##cons	12897
##yon	12898
diimbau	12899
dioperasikan	12900
##taian	12901
##orak	12902
##orestasi	12903
mengol	12904
##itisi	12905
##ukaan	12906
pref	12907
##tukar	12908
##utik	12909
pengarahan	12910
##antunya	12911
##edes	12912
laur	12913
pasutri	12914
kelul	12915
kelanjutan	12916
surut	12917
cha	12918
##icy	12919
trofi	12920
##agakan	12921
palm	12922
kembalinya	12923
tersen	12924
##istol	12925
140	12926
dipersiapkan	12927
pakta	12928
ekstra	12929
terpengaruh	12930
skd	12931
nova	12932
sule	12933
buahan	12934
pekerjaannya	12935
nawa	12936
telinga	12937
bersil	12938
gunary	12939
patuh	12940
jaro	12941
susunan	12942
sanusi	12943
natalia	12944
formula	12945
jerawat	12946
##oney	12947
##ential	12948
##namakan	12949
toilet	12950
pembubaran	12951
akuntabel	12952
ipul	12953
##hou	12954
pramuka	12955
bintara	12956
spesifikasi	12957
pembaca	12958
menyerbu	12959
bangku	12960
purnomo	12961
kasatreskrim	12962
berbahasa	12963
menelusuri	12964
##integritas	12965
capital	12966
icj	12967
##atasnamakan	12968
george	12969
yunidar	12970
tumpukan	12971
arsenal	12972
drive	12973
afriansyah	12974
citroen	12975
histor	12976
jurnalistik	12977
diarahkan	12978
firdaus	12979
membungkam	12980
separatis	12981
##folio	12982
mengisyaratkan	12983
##anggungjawabkan	12984
kekecewa	12985
bapanas	12986
gunaryanti	12987
fp	12988
gub	12989
him	12990
jung	12991
lpk	12992
love	12993
wujudkan	12994
walik	12995
##mawati	12996
##log	12997
##uaskan	12998
##sasi	12999
##sman	13000
##arket	13001
##athan	13002
##inisi	13003
menhan	13004
##elaran	13005
kebay	13006
##ille	13007
berintegritas	13008
##isnya	13009
##ings	13010
##umbangkan	13011
mengungg	13012
203	13013
##ekarag	13014
##aib	13015
meletus	13016
##ters	13017
##pers	13018
kemang	13019
asp	13020
##epul	13021
oly	13022
alvin	13023
timika	13024
isinya	13025
iswar	13026
korup	13027
penyampaian	13028
hard	13029
##tasinya	13030
kecaman	13031
membiayai	13032
khamen	13033
pansel	13034
thre	13035
sukam	13036
okta	13037
terpasang	13038
skb	13039
skinc	13040
berpidat	13041
stru	13042
brut	13043
kebugaran	13044
kolom	13045
genangan	13046
bekal	13047
vide	13048
2005	13049
tulus	13050
sandar	13051
trail	13052
carten	13053
##haru	13054
minimarket	13055
1997	13056
##ishida	13057
##akarya	13058
dedie	13059
schol	13060
habibie	13061
memadukan	13062
dibatasi	13063
talkshow	13064
taufiq	13065
berdialog	13066
##ekaragaman	13067
skincare	13068
berpidato	13069
beg	13070
cp	13071
cam	13072
dm	13073
domp	13074
munt	13075
nm	13076
rc	13077
sira	13078
vance	13079
##tak	13080
##10	13081
dial	13082
menump	13083
##apta	13084
##apung	13085
dante	13086
perpres	13087
##umbu	13088
##itikan	13089
memesan	13090
2028	13091
##sea	13092
melinda	13093
merancang	13094
pengangkut	13095
probl	13096
poltra	13097
##ayati	13098
pertal	13099
##opi	13100
state	13101
anggapan	13102
keseb	13103
pembela	13104
berlian	13105
##jualan	13106
mahm	13107
pencat	13108
pencabutan	13109
kalori	13110
plh	13111
pusp	13112
membawakan	13113
##ever	13114
elly	13115
brussel	13116
dihindari	13117
##ertaan	13118
atma	13119
diberitakan	13120
pelanggar	13121
solok	13122
sahur	13123
dicampur	13124
misa	13125
hasina	13126
akuntabilitas	13127
##ampingkan	13128
dahs	13129
##budur	13130
##reneur	13131
##uyuban	13132
##osoft	13133
roboh	13134
jean	13135
lou	13136
bawaan	13137
giliran	13138
residen	13139
istiq	13140
struktural	13141
zainal	13142
kartini	13143
mcr19	13144
uefa	13145
trisakti	13146
stigma	13147
stephan	13148
dibekali	13149
##ografis	13150
paralimpiade	13151
keanekaragaman	13152
burhanuddin	13153
sinergitas	13154
microsoft	13155
##untukkan	13156
borobudur	13157
diantaranya	13158
keseriusan	13159
https	13160
pilwakot	13161
walikota	13162
kebayoran	13163
khamenei	13164
cartenz	13165
bem	13166
bata	13167
bcl	13168
juna	13169
mode	13170
pom	13171
rama	13172
tob	13173
tuntut	13174
vas	13175
wic	13176
xia	13177
zay	13178
##py	13179
##fp	13180
diuji	13181
menkom	13182
mentrans	13183
sean	13184
bertum	13185
berjaga	13186
##uratan	13187
##esha	13188
##umulasi	13189
mengikat	13190
mengatasnamakan	13191
memihak	13192
##ungka	13193
##idang	13194
##ekah	13195
prad	13196
pemban	13197
2027	13198
ansar	13199
melontarkan	13200
##ibar	13201
industr	13202
pengalamannya	13203
kemeja	13204
sembar	13205
asabri	13206
konawe	13207
komarudin	13208
##opia	13209
manual	13210
panrb	13211
didalami	13212
klasifikasi	13213
kesehatannya	13214
elon	13215
hamid	13216
mengabulkan	13217
deni	13218
lingkaran	13219
pemberi	13220
keberpihakan	13221
ajukan	13222
##ize	13223
dibuang	13224
##press	13225
bp2	13226
santa	13227
miss	13228
bayaran	13229
besutan	13230
kemenkeu	13231
bks	13232
regulator	13233
luis	13234
aviv	13235
paguyuban	13236
services	13237
dijalani	13238
priok	13239
racun	13240
tandasnya	13241
hindia	13242
eksploitasi	13243
melemah	13244
debit	13245
terpercaya	13246
mengukir	13247
nicke	13248
planet	13249
samudra	13250
asmawa	13251
lutfi	13252
tyasmara	13253
berkabut	13254
gresini	13255
kelulusan	13256
struick	13257
poltracking	13258
##ungkawa	13259
pembantaian	13260
sembarangan	13261
asistensi	13262
bki	13263
cut	13264
cakup	13265
eth	13266
fur	13267
fondasi	13268
gri	13269
ij	13270
jej	13271
lh	13272
langg	13273
muti	13274
muri	13275
nengah	13276
pujian	13277
zam	13278
##tle	13279
##12	13280
##inasan	13281
menangkan	13282
terukur	13283
##tics	13284
##ektorat	13285
penentu	13286
##ribu	13287
menjemput	13288
semasa	13289
serba	13290
serukan	13291
##anjat	13292
penyisi	13293
kerag	13294
arel	13295
bersuara	13296
bersemangat	13297
bersumpah	13298
##prise	13299
dikur	13300
marathon	13301
charg	13302
kedinasan	13303
septian	13304
sepertiga	13305
kemendag	13306
digerebek	13307
kuil	13308
kesal	13309
berdurasi	13310
inspeksi	13311
180	13312
terpec	13313
spi	13314
spot	13315
elit	13316
penyelidik	13317
ramli	13318
meninggalnya	13319
teladan	13320
aprilia	13321
penjah	13322
box	13323
tertunda	13324
##etakkan	13325
##uguhkan	13326
hash	13327
##nyana	13328
sandy	13329
legenda	13330
pilihannya	13331
puncaknya	13332
kalimat	13333
tips	13334
##gnosis	13335
studies	13336
yusril	13337
pembuktian	13338
menginjak	13339
anjlok	13340
jonathan	13341
estetika	13342
ronaldo	13343
mengajarkan	13344
dkk	13345
perinciannya	13346
##akselerasi	13347
design	13348
mahardhika	13349
starlink	13350
faizal	13351
adaptif	13352
bersilaturahmi	13353
dahsyat	13354
]",	13355
bai	13356
dada	13357
gbt	13358
morn	13359
mainan	13360
nasa	13361
napas	13362
well	13363
zhe	13364
##gc	13365
##gukan	13366
##cam	13367
##ces	13368
##sono	13369
##jem	13370
##jeran	13371
##aratan	13372
##asn	13373
dimen	13374
menamp	13375
##ader	13376
kehancuran	13377
##ontor	13378
##tabar	13379
berjualan	13380
perfil	13381
mengkl	13382
mengontrol	13383
##ited	13384
memuaskan	13385
##ole	13386
prud	13387
##ihin	13388
##ege	13389
meraj	13390
merealisasikan	13391
pengenalan	13392
menyul	13393
##uay	13394
##ayangan	13395
##epung	13396
komedi	13397
##ongr	13398
setyo	13399
arn	13400
ardian	13401
pendeta	13402
subuh	13403
marth	13404
maz	13405
kedung	13406
ditanggung	13407
sumargo	13408
daerahnya	13409
krama	13410
bensin	13411
pps	13412
tham	13413
interaktif	13414
dipers	13415
##life	13416
spirit	13417
ill	13418
berpisah	13419
subdir	13420
operation	13421
majalah	13422
ucapkan	13423
dewas	13424
dewata	13425
kenjeran	13426
sarung	13427
keputusannya	13428
lear	13429
##ersal	13430
tebu	13431
menitip	13432
your	13433
ipb	13434
##mentasi	13435
realistis	13436
syaif	13437
rossa	13438
justice	13439
##food	13440
##diana	13441
puu	13442
##tibkan	13443
colum	13444
diragukan	13445
saraf	13446
##wood	13447
ghuf	13448
perampasan	13449
curhat	13450
antonio	13451
terkendala	13452
hanyut	13453
civitas	13454
siloam	13455
metropol	13456
kerumunan	13457
menepis	13458
oecd	13459
tersenyum	13460
brutal	13461
kesebelasan	13462
penyisiran	13463
keraguan	13464
subdirektorat	13465
g7	13466
hom	13467
hag	13468
jurang	13469
lal	13470
lutut	13471
mw	13472
nina	13473
nex	13474
night	13475
pki	13476
santi	13477
soroti	13478
##dal	13479
##con	13480
diet	13481
danone	13482
dandan	13483
berumur	13484
terak	13485
peret	13486
memusnahkan	13487
pemaparan	13488
##atani	13489
##wait	13490
melimp	13491
##jaja	13492
penguasaan	13493
adhy	13494
##ending	13495
mendasar	13496
mendanai	13497
##tro	13498
##try	13499
##usim	13500
memberatkan	13501
maruli	13502
##pertim	13503
membanggakan	13504
dipublikasikan	13505
resort	13506
kekel	13507
ptun	13508
##istra	13509
diperuntukkan	13510
siska	13511
abs	13512
shah	13513
ditemani	13514
laporannya	13515
##oyok	13516
drum	13517
jamkrindo	13518
melihatnya	13519
mathi	13520
##igasi	13521
sarat	13522
##reasi	13523
##play	13524
nasral	13525
2001	13526
nathan	13527
fasilitasi	13528
sdgs	13529
viii	13530
poros	13531
##jahterakan	13532
strategic	13533
pangdam	13534
pecinta	13535
pacar	13536
identitasnya	13537
penyerapan	13538
parpolnya	13539
bibir	13540
deforestasi	13541
pemberontakan	13542
epis	13543
smartphone	13544
stefan	13545
sheikh	13546
memecahkan	13547
audiensi	13548
company	13549
meraup	13550
wardana	13551
astrid	13552
kelemahan	13553
preventif	13554
clean	13555
tonggak	13556
berjenis	13557
##ohibul	13558
hungaria	13559
persenjataan	13560
perfilman	13561
nasrallah	13562
dinan	13563
hutama	13564
henti	13565
iib	13566
job	13567
jihad	13568
kenang	13569
lans	13570
lkp	13571
mov	13572
ragam	13573
tatan	13574
usi	13575
ye	13576
yuni	13577
##mm	13578
##kon	13579
##hun	13580
##yas	13581
##atsu	13582
##aking	13583
diiringi	13584
dipertim	13585
menunjang	13586
##untuhan	13587
##tui	13588
bersep	13589
initi	13590
perawat	13591
peruri	13592
menghadap	13593
anonim	13594
merumuskan	13595
##anduan	13596
menyala	13597
menyangkal	13598
menyingkirkan	13599
serem	13600
pelindung	13601
##trak	13602
sensor	13603
mencuat	13604
dikr	13605
stiker	13606
utomo	13607
endang	13608
keser	13609
nasionalis	13610
berbakat	13611
ikon	13612
penggantian	13613
sha	13614
turbo	13615
diterjunkan	13616
boikot	13617
##aminasi	13618
mempekerjakan	13619
slank	13620
from	13621
sebutan	13622
##itex	13623
hijab	13624
badak	13625
klaster	13626
kotor	13627
tpp	13628
magang	13629
doub	13630
dedy	13631
mengerjakan	13632
karakteristik	13633
billy	13634
1965	13635
pemukim	13636
alfian	13637
galeri	13638
leader	13639
tatap	13640
kependidikan	13641
mcr12	13642
somalia	13643
memperburuk	13644
dubai	13645
nepotisme	13646
mendikdasmen	13647
amnesty	13648
innovation	13649
ginanjar	13650
sufmi	13651
##oviet	13652
##tikultura	13653
ghufron	13654
peretasan	13655
aid	13656
bt	13657
draf	13658
fantas	13659
hir	13660
hop	13661
kuan	13662
lemp	13663
lubis	13664
mampang	13665
p3	13666
rinci	13667
sj	13668
soviet	13669
tib	13670
tarian	13671
ubaya	13672
##off	13673
##br	13674
##mine	13675
##99	13676
##alukan	13677
##unanya	13678
##tuti	13679
kearif	13680
##ingi	13681
##ingkan	13682
##esl	13683
mengidap	13684
##iting	13685
##tia	13686
##idsus	13687
melekat	13688
##alip	13689
##intis	13690
korut	13691
discus	13692
riwa	13693
pendak	13694
diken	13695
suw	13696
chel	13697
story	13698
rumi	13699
ditekan	13700
trim	13701
##wanda	13702
190	13703
kutai	13704
rpp	13705
soci	13706
pertamax	13707
perusahaannya	13708
bertandang	13709
pasangannya	13710
dihuni	13711
rafi	13712
salem	13713
jambu	13714
action	13715
konfrontasi	13716
memperkaya	13717
udah	13718
england	13719
tiko	13720
targetkan	13721
ngob	13722
younis	13723
josep	13724
pedro	13725
ambyar	13726
terguling	13727
monyet	13728
kompeten	13729
ciputra	13730
##ilingi	13731
macan	13732
normalisasi	13733
keberlangsungan	13734
pokoknya	13735
penangguhan	13736
jaket	13737
prostitusi	13738
##hlas	13739
pengundian	13740
penyimpangan	13741
berkeadilan	13742
kuburan	13743
farid	13744
farida	13745
orientasi	13746
product	13747
teritorial	13748
terkecuali	13749
meredam	13750
embarkasi	13751
tridatu	13752
kolaboratif	13753
review	13754
sirait	13755
pertalite	13756
morning	13757
dipertimbangkan	13758
kearifan	13759
].	13760
aan	13761
aura	13762
bpa	13763
cc	13764
cand	13765
fra	13766
horm	13767
huang	13768
hengk	13769
jur	13770
jaw	13771
jera	13772
junc	13773
jaksel	13774
kunc	13775
kishida	13776
lud	13777
renang	13778
s2	13779
tunjuk	13780
wabah	13781
##bor	13782
##mir	13783
##dis	13784
##hil	13785
##akna	13786
kejar	13787
berikat	13788
##eseran	13789
mengolah	13790
##ukuhan	13791
melangsungkan	13792
##ebes	13793
kemakmuran	13794
projo	13795
masker	13796
lav	13797
semi	13798
adaptasi	13799
sekedar	13800
sate	13801
##ajakan	13802
mencukupi	13803
petual	13804
berselang	13805
pendatang	13806
pendaratan	13807
dikemas	13808
punah	13809
kemenparekraf	13810
willy	13811
jalani	13812
##econ	13813
upayanya	13814
pencairan	13815
terputus	13816
penggugat	13817
penggunanya	13818
kurdi	13819
menerjunkan	13820
layang	13821
idham	13822
paud	13823
kanak	13824
universal	13825
terkuat	13826
ajudan	13827
delhi	13828
sanitasi	13829
tercantum	13830
disampaikannya	13831
sinwar	13832
mengakomodasi	13833
trip	13834
foot	13835
giat	13836
tony	13837
purwanto	13838
norma	13839
dosa	13840
tertua	13841
mukti	13842
webinar	13843
sritex	13844
1980	13845
sederet	13846
kirby	13847
cash	13848
mengemban	13849
mengemukakan	13850
##ofesi	13851
galaxy	13852
betawi	13853
mengharuskan	13854
dengue	13855
bersekolah	13856
excellence	13857
senyawa	13858
berkarier	13859
menginstruksikan	13860
bp2mi	13861
aep	13862
cond	13863
fu	13864
fs	13865
gantung	13866
hd	13867
jamp	13868
ly	13869
oce	13870
ruko	13871
s1	13872
vr	13873
##tara	13874
##ranya	13875
##enia	13876
didi	13877
diapresiasi	13878
berpu	13879
pena	13880
menyepak	13881
sera	13882
##ente	13883
##angkaan	13884
##abuk	13885
pasaman	13886
haru	13887
pemeriksa	13888
amdk	13889
setelahnya	13890
dikasih	13891
tempuh	13892
stop	13893
partisi	13894
menghukum	13895
buktinya	13896
membawanya	13897
sher	13898
shel	13899
bruno	13900
dihapus	13901
atensi	13902
court	13903
reproduksi	13904
situasinya	13905
esensi	13906
samapta	13907
ibnu	13908
virgin	13909
fatal	13910
offline	13911
door	13912
kakinya	13913
sunar	13914
beton	13915
hanoi	13916
hortikultura	13917
safety	13918
kritikus	13919
menaiki	13920
dipertahankan	13921
wakapolres	13922
responsibility	13923
##ongsong	13924
aurel	13925
portofolio	13926
jeje	13927
usianya	13928
ayo	13929
bts	13930
cengk	13931
copa	13932
cadang	13933
fem	13934
fint	13935
hts	13936
lamp	13937
nada	13938
pistol	13939
ronal	13940
yuk	13941
##bm	13942
##bad	13943
##lakuan	13944
##fur	13945
##fest	13946
##zu	13947
##akus	13948
##asm	13949
diatasi	13950
menip	13951
##yai	13952
##apasan	13953
peru	13954
peradaban	13955
##asium	13956
##itz	13957
untar	13958
penik	13959
pemulangan	13960
meloloskan	13961
indri	13962
##antina	13963
menju	13964
##isili	13965
polik	13966
pelindungan	13967
mendiskusikan	13968
sensasi	13969
##ingkuh	13970
##anggang	13971
##ipa	13972
##ogn	13973
sier	13974
##ops	13975
##pro	13976
##obatkan	13977
1000	13978
membebani	13979
seharian	13980
dipegang	13981
##udaan	13982
parl	13983
emmanuel	13984
##kie	13985
nominal	13986
kalapas	13987
americ	13988
geram	13989
rambu	13990
dihormati	13991
pemberlakuan	13992
irlandia	13993
pieter	13994
mandarin	13995
sinis	13996
pamungkas	13997
hendro	13998
exhib	13999
##assus	14000
optimisme	14001
450	14002
much	14003
sukarela	14004
sesak	14005
pecahan	14006
purworejo	14007
mohamed	14008
raisi	14009
akreditasi	14010
politisasi	14011
yasonna	14012
tkd	14013
sadikin	14014
jordi	14015
privat	14016
nadia	14017
##erjanya	14018
##snal	14019
fundam	14020
octa	14021
fabio	14022
fardhana	14023
lobster	14024
atlantik	14025
cooling	14026
dihadapkan	14027
uskup	14028
source	14029
mengungguli	14030
problem	14031
penjahat	14032
zhejiang	14033
syaiful	14034
metropolitan	14035
discussion	14036
riwayat	14037
menyepakati	14038
fintech	14039
cum	14040
catur	14041
daih	14042
hama	14043
martabat	14044
ramp	14045
rand	14046
tamp	14047
tog	14048
tewaskan	14049
tora	14050
wow	14051
wei	14052
yg	14053
yl	14054
##nd	14055
##iasa	14056
##jok	14057
##ermin	14058
digi	14059
meneri	14060
mensos	14061
menatap	14062
##sik	14063
berbatasan	14064
terafiliasi	14065
anom	14066
##okol	14067
melupakan	14068
merinci	14069
##jazah	14070
##ayani	14071
##ambo	14072
ald	14073
koment	14074
pasaran	14075
##ingkir	14076
##ingkuhan	14077
agat	14078
dilayangkan	14079
chico	14080
ketupat	14081
sumadi	14082
summar	14083
khair	14084
ketert	14085
##embapan	14086
medical	14087
dipotong	14088
imbas	14089
ikhlas	14090
ungk	14091
pusing	14092
dibicarakan	14093
direkrut	14094
batak	14095
bukannya	14096
novi	14097
andil	14098
suplemen	14099
ath	14100
afirmasi	14101
terbiasa	14102
peter	14103
bantah	14104
##ordinasikan	14105
patria	14106
dicatat	14107
diculik	14108
dicanangkan	14109
latin	14110
taat	14111
islamic	14112
kepemudaan	14113
lanka	14114
360	14115
perpisahan	14116
fisip	14117
doakan	14118
kkn	14119
##hering	14120
letjen	14121
psikolog	14122
sugianto	14123
flores	14124
pepaya	14125
gathering	14126
visum	14127
asyik	14128
menyesalkan	14129
diadili	14130
county	14131
hangus	14132
briptu	14133
menkumham	14134
hidromet	14135
arsitektur	14136
salsha	14137
memperdalam	14138
ditresnarkoba	14139
cakupan	14140
##ribusi	14141
chelsea	14142
daihatsu	14143
summarecon	14144
god	14145
hj	14146
lisa	14147
ladang	14148
lobi	14149
mont	14150
nino	14151
pantar	14152
piag	14153
stim	14154
zak	14155
##pri	14156
##wita	14157
##ryo	14158
##kara	14159
##far	14160
##sak	14161
##40	14162
diimplementasikan	14163
##aminan	14164
##onan	14165
dance	14166
terealisasi	14167
terumbu	14168
##ikkan	14169
mengakselerasi	14170
##ulah	14171
penunjang	14172
pemus	14173
ann	14174
melan	14175
melacak	14176
##pera	14177
menyosialisasikan	14178
semin	14179
##anjak	14180
##anjurkan	14181
kongo	14182
##anyar	14183
kelembapan	14184
hariyanto	14185
##gro	14186
##ujur	14187
berkap	14188
##obo	14189
maruar	14190
maroko	14191
kecanduan	14192
ditangg	14193
kasar	14194
beberkan	14195
desk	14196
trib	14197
kemensos	14198
digambarkan	14199
digugat	14200
rebusan	14201
palang	14202
##tora	14203
didistribusikan	14204
imf	14205
usah	14206
puting	14207
ekspresi	14208
aboe	14209
menjaj	14210
berpindah	14211
jelajah	14212
baleg	14213
branding	14214
bromo	14215
ernando	14216
subsi	14217
dihelat	14218
permata	14219
jamu	14220
##tabilan	14221
coff	14222
##ukau	14223
sydn	14224
memperketat	14225
moda	14226
jenewa	14227
basri	14228
kandungnya	14229
tewasnya	14230
ess	14231
tertahan	14232
otto	14233
##afkan	14234
slot	14235
bkd	14236
muba	14237
wahono	14238
kepemimpinannya	14239
kopassus	14240
##losan	14241
##board	14242
office	14243
klaimnya	14244
prinsipnya	14245
hasanuddin	14246
hantu	14247
##hkian	14248
fadel	14249
fadil	14250
kariernya	14251
menanamkan	14252
arsjad	14253
##arkir	14254
modifikasi	14255
dubes	14256
samudera	14257
jeffry	14258
jersei	14259
jersey	14260
teriak	14261
pertiwi	14262
albanese	14263
mengeksplorasi	14264
penasaran	14265
representasi	14266
experience	14267
value	14268
nugini	14269
navalny	14270
unicef	14271
mengoleksi	14272
dimenangkan	14273
tatanan	14274
fantastis	14275
jampidsus	14276
pantarlih	14277
sydney	14278
fresh	14279
ift	14280
jatan	14281
lm	14282
mabuk	14283
puc	14284
pawai	14285
rasional	14286
wr	14287
##ose	14288
##ging	14289
##dad	14290
##tono	14291
##lal	14292
##xon	14293
digagalkan	14294
dievaluasi	14295
menhub	14296
seas	14297
##onsi	14298
##apainya	14299
##ilu	14300
berba	14301
berolahraga	14302
terti	14303
tertawa	14304
##enguk	14305
memetakan	14306
untag	14307
##idaya	14308
prin	14309
anna	14310
meluncur	14311
##ampir	14312
sembuh	14313
apotek	14314
diler	14315
kert	14316
pezes	14317
##opoli	14318
pilbup	14319
eky	14320
memberangkatkan	14321
marco	14322
##emparkan	14323
##chain	14324
##embiraan	14325
medium	14326
kebobolan	14327
menyewa	14328
terusan	14329
kalla	14330
135	14331
memasarkan	14332
dimensi	14333
spac	14334
##unduran	14335
inginkan	14336
##ontak	14337
opsnal	14338
error	14339
metal	14340
bermakna	14341
##ahaja	14342
kejam	14343
irman	14344
muhadj	14345
acosta	14346
paparnya	14347
##tens	14348
genre	14349
teguran	14350
berganti	14351
bergantian	14352
perlomba	14353
diciptakan	14354
ceria	14355
tangannya	14356
perpaduan	14357
komplek	14358
minimnya	14359
monas	14360
pembelaan	14361
circu	14362
perumda	14363
akademis	14364
lumayan	14365
beliung	14366
fadli	14367
venna	14368
syahrul	14369
daycare	14370
semenanjung	14371
cross	14372
sadis	14373
rachim	14374
##injam	14375
kegembiraan	14376
memecat	14377
bungkam	14378
bnnp	14379
effendi	14380
finlandia	14381
sekuritas	14382
family	14383
berseragam	14384
permusuhan	14385
rentetan	14386
berekspresi	14387
##ussalam	14388
chicago	14389
mahmud	14390
terpecah	14391
double	14392
sinisuka	14393
hidrometeorologi	14394
pemusatan	14395
berkapasitas	14396
maruarar	14397
pezeshkian	14398
muhadjir	14399
perlombaan	14400
b1	14401
dec	14402
dudi	14403
eps	14404
east	14405
geb	14406
ler	14407
lia	14408
lurus	14409
mia	14410
mestinya	14411
pimpin	14412
rasakan	14413
sund	14414
tungg	14415
uganda	14416
##otif	14417
##bet	14418
##pus	14419
##wih	14420
##uck	14421
##adeni	14422
##iliter	14423
terangan	14424
terikat	14425
##ukir	14426
##ette	14427
##egaran	14428
baito	14429
pengukuran	14430
##abar	14431
kemunduran	14432
##epreneur	14433
##anggalan	14434
sebentar	14435
dilancarkan	14436
pemeran	14437
menggerebek	14438
kedamaian	14439
ditlantas	14440
dipamerkan	14441
kesukaan	14442
mahy	14443
manusi	14444
##siagaan	14445
kalib	14446
kawah	14447
sulung	14448
kaitan	14449
##roid	14450
petang	14451
petasan	14452
psg	14453
psk	14454
jalin	14455
ratna	14456
tikus	14457
legitimasi	14458
kasihan	14459
pergeseran	14460
study	14461
geologi	14462
terhormat	14463
terhindar	14464
##budsman	14465
atletik	14466
lucky	14467
administratif	14468
starter	14469
davis	14470
ombudsman	14471
##herine	14472
telkomsel	14473
letkol	14474
##ihalal	14475
menganalisis	14476
haye	14477
mapolrestabes	14478
driver	14479
##force	14480
wardoyo	14481
mochamad	14482
consul	14483
rukun	14484
property	14485
bergaya	14486
rodri	14487
pengeboman	14488
overs	14489
jazuli	14490
arjuna	14491
urgensi	14492
coffee	14493
jatanras	14494
core	14495
ciliw	14496
dy	14497
faksi	14498
gangs	14499
kpr	14500
wel	14501
wetan	14502
##mb	14503
##eid	14504
##eira	14505
##zhou	14506
##atna	14507
##inn	14508
berori	14509
ink	14510
memeluk	14511
##ulyo	14512
baby	14513
##abi	14514
##antasi	14515
lag	14516
##isik	14517
##angkis	14518
akui	14519
policy	14520
pertambahan	14521
##ajikan	14522
senyum	14523
##ewakan	14524
penyumbang	14525
harv	14526
dirugikan	14527
chef	14528
umi	14529
kecender	14530
ketinggalan	14531
sumbawa	14532
membukukan	14533
anggur	14534
mulus	14535
rp8	14536
bening	14537
benturan	14538
this	14539
##acita	14540
dinobatkan	14541
rakh	14542
##eau	14543
kursk	14544
##akitan	14545
golan	14546
brong	14547
lanjutkan	14548
kairo	14549
kazak	14550
bermaksud	14551
lapak	14552
kejanggalan	14553
atang	14554
perdata	14555
kendaraannya	14556
syur	14557
##journ	14558
ultim	14559
board	14560
fach	14561
nurdin	14562
rider	14563
dijanjikan	14564
joel	14565
carbon	14566
pedalaman	14567
smith	14568
haz	14569
1996	14570
lubuk	14571
##esankan	14572
syaf	14573
selebrasi	14574
cekcok	14575
##ologinya	14576
rasyid	14577
rashid	14578
dituding	14579
xxii	14580
indoor	14581
mengkritisi	14582
tms	14583
beralkohol	14584
nadiem	14585
wirausaha	14586
nilainya	14587
##antumkan	14588
cabup	14589
sejenak	14590
kasubdit	14591
granat	14592
blockchain	14593
promotor	14594
dakwah	14595
ditump	14596
berkepanjangan	14597
sempit	14598
gustavo	14599
dealer	14600
olymp	14601
industry	14602
##ontorkan	14603
lanskap	14604
keseruan	14605
ciliwung	14606
bangs	14607
bca	14608
bord	14609
cend	14610
cos	14611
dja	14612
hamb	14613
jd	14614
lid	14615
laka	14616
que	14617
ron	14618
rujuk	14619
toni	14620
vinc	14621
##mon	14622
##lis	14623
##uba	14624
##zulan	14625
##ert	14626
##enerasi	14627
##sium	14628
keta	14629
berebut	14630
terharu	14631
##urrahman	14632
##usinya	14633
unh	14634
unif	14635
undian	14636
##olid	14637
preman	14638
##ego	14639
melompat	14640
meladeni	14641
indr	14642
menyanyikan	14643
sekar	14644
kard	14645
alves	14646
##osting	14647
beat	14648
keresahan	14649
peop	14650
marzuki	14651
temui	14652
membangk	14653
sumbangan	14654
193	14655
##agan	14656
##agukan	14657
diputar	14658
kapabilitas	14659
resnarkoba	14660
mulya	14661
ther	14662
berdekatan	14663
imag	14664
imbau	14665
diperintahkan	14666
ikonik	14667
ekspek	14668
light	14669
##liasi	14670
bruto	14671
bermunculan	14672
sale	14673
ford	14674
aries	14675
pdam	14676
##market	14677
ancol	14678
ambass	14679
pengurusan	14680
geografis	14681
pengajian	14682
france	14683
dahlan	14684
living	14685
rp15	14686
rp100	14687
bhre	14688
percontoh	14689
sirekap	14690
pahit	14691
ciro	14692
volley	14693
cagar	14694
lamanya	14695
hatinya	14696
rachel	14697
pemakzulan	14698
mengeksekusi	14699
wonosari	14700
mengarungi	14701
sumarno	14702
penginapan	14703
college	14704
nobel	14705
owner	14706
##hstan	14707
loyal	14708
rendahnya	14709
spekulasi	14710
kejiwaan	14711
praseti	14712
xvii	14713
istiqlal	14714
mengklarifikasi	14715
thamrin	14716
##onsiliasi	14717
berorientasi	14718
kecenderungan	14719
kazakhstan	14720
percontohan	14721
bunda	14722
cangk	14723
dort	14724
graf	14725
gosip	14726
ijo	14727
kres	14728
kental	14729
lamb	14730
megah	14731
qa	14732
rayakan	14733
tis	14734
ubud	14735
wing	14736
##gers	14737
##lina	14738
##uit	14739
##cue	14740
##kas	14741
##husus	14742
##zania	14743
##11	14744
##erna	14745
##enap	14746
##arit	14747
##aster	14748
diangkut	14749
##amah	14750
menter	14751
menantikan	14752
##els	14753
##tua	14754
berbang	14755
berunjuk	14756
berawak	14757
terapkan	14758
##asiakan	14759
##ule	14760
##irah	14761
meragukan	14762
##entasan	14763
akta	14764
akumulasi	14765
##anjiri	14766
mendekat	14767
karyanya	14768
aldi	14769
alhasil	14770
sentul	14771
pasok	14772
paskah	14773
##rani	14774
korlantas	14775
##eward	14776
disinggung	14777
disinformasi	14778
rival	14779
reform	14780
##erie	14781
pemblok	14782
pesona	14783
resah	14784
kuba	14785
jadikan	14786
terlupakan	14787
soep	14788
manapun	14789
manfaatkan	14790
terdeteksi	14791
berdem	14792
tersingkir	14793
##time	14794
##istek	14795
abah	14796
hadimul	14797
brebes	14798
##max	14799
##inaldi	14800
lembut	14801
##oyd	14802
rafiq	14803
kenn	14804
pier	14805
terburu	14806
debu	14807
bergegas	14808
sarapan	14809
kandas	14810
susmanto	14811
kemenangannya	14812
relokasi	14813
rahmad	14814
kunjungi	14815
muz	14816
conn	14817
modernisasi	14818
kesiap	14819
keterlambatan	14820
championships	14821
knpi	14822
auditori	14823
mutlak	14824
lettu	14825
##enjot	14826
menempel	14827
gejolak	14828
ampel	14829
##ematika	14830
belasungkawa	14831
jimmy	14832
tertimbun	14833
aviation	14834
cnn	14835
gbla	14836
djarum	14837
steril	14838
environmental	14839
khoir	14840
proporsional	14841
mehr	14842
prawira	14843
pencatatan	14844
menampik	14845
petualangan	14846
parlindungan	14847
gangster	14848
unhcr	14849
ambassador	14850
dortmund	14851
auditorium	14852
cec	14853
dt	14854
dalih	14855
gap	14856
hk	14857
nuran	14858
ox	14859
pud	14860
paj	14861
quran	14862
tpu	14863
vers	14864
wen	14865
wol	14866
yog	14867
yulian	14868
zoom	14869
##boh	14870
##dim	14871
##ng	14872
##wandi	14873
##ifa	14874
##zat	14875
diand	14876
diwas	14877
##apak	14878
##ileri	14879
##taq	14880
bertab	14881
##ored	14882
memisahkan	14883
memancing	14884
memaksakan	14885
memelihara	14886
##iduk	14887
##idrasi	14888
##ultasi	14889
penuk	14890
penul	14891
pre	14892
anis	14893
saji	14894
dalami	14895
selam	14896
pengukuhan	14897
menyet	14898
menyandera	14899
juan	14900
jubir	14901
akomodasi	14902
akhlak	14903
##ambungan	14904
pass	14905
kelangsungan	14906
##rans	14907
disajikan	14908
106	14909
memberitahu	14910
kecam	14911
steven	14912
desakan	14913
membina	14914
sehubungan	14915
##uare	14916
mulanya	14917
rpj	14918
didasari	14919
##ecehkan	14920
155	14921
benoa	14922
terserang	14923
konspirasi	14924
abdi	14925
ahu	14926
dibantah	14927
menerobos	14928
rekonsiliasi	14929
transform	14930
paint	14931
android	14932
sekalipun	14933
##oyang	14934
raga	14935
terakhirnya	14936
jamil	14937
forest	14938
musala	14939
pool	14940
bernegara	14941
educ	14942
bertempur	14943
jerry	14944
artileri	14945
serie	14946
memerintah	14947
bulat	14948
##expo	14949
menyertakan	14950
karib	14951
redaktur	14952
fatah	14953
profesionalisme	14954
kpud	14955
wisman	14956
paginya	14957
##aktifkan	14958
pmii	14959
mengadili	14960
menantu	14961
##ways	14962
samsat	14963
##imbangi	14964
nakes	14965
tragis	14966
inspektorat	14967
pendahulunya	14968
pwnu	14969
wagner	14970
meminimalisir	14971
wafat	14972
science	14973
journal	14974
limpo	14975
building	14976
mutiara	14977
football	14978
circuit	14979
##journey	14980
pemblokiran	14981
hadimuljono	14982
diandalkan	14983
diwaspadai	14984
cg	14985
dalang	14986
dosis	14987
gani	14988
hmi	14989
ksal	14990
mrt	14991
plu	14992
roman	14993
sf	14994
sint	14995
tup	14996
town	14997
##pangan	14998
##misi	14999
##dr	15000
##wai	15001
##liv	15002
##lish	15003
##hai	15004
##yl	15005
##yakan	15006
##46	15007
##arnas	15008
menparekraf	15009
##onc	15010
beringin	15011
bertukar	15012
terba	15013
terbangun	15014
inap	15015
injourney	15016
##orban	15017
##ista	15018
##usuk	15019
mengesankan	15020
##oly	15021
##ollah	15022
##oleransi	15023
##imah	15024
##imuti	15025
##ulin	15026
penida	15027
saingan	15028
melamar	15029
##ebur	15030
menyed	15031
##iaan	15032
juang	15033
tidaklah	15034
semak	15035
serai	15036
##awahan	15037
##abuli	15038
karantina	15039
oli	15040
##osofi	15041
orangnya	15042
##owan	15043
amand	15044
105	15045
diker	15046
dikendarai	15047
chap	15048
kecuri	15049
trust	15050
##encarkan	15051
##change	15052
dipahami	15053
rescue	15054
bias	15055
pantau	15056
berdatangan	15057
messi	15058
pltu	15059
dimeriahkan	15060
bawean	15061
segel	15062
dukuh	15063
filep	15064
andhika	15065
240	15066
lemhan	15067
gambir	15068
co2	15069
terkalahkan	15070
bashar	15071
bernopol	15072
tercermin	15073
##lame	15074
yosep	15075
damar	15076
rusun	15077
mengurai	15078
gabung	15079
duit	15080
lahar	15081
bkk	15082
purna	15083
focus	15084
gugat	15085
gowa	15086
gempur	15087
kadernya	15088
mie	15089
habit	15090
karir	15091
muslimat	15092
hutch	15093
lawannya	15094
identik	15095
kontraktor	15096
ekstremis	15097
larut	15098
##ronne	15099
alliance	15100
corporation	15101
kylian	15102
pengendali	15103
penyelundup	15104
mengekspor	15105
tyronne	15106
pemukulan	15107
babel	15108
creative	15109
nisya	15110
diakibatkan	15111
kemasyarakatan	15112
nepal	15113
kedelai	15114
memverifikasi	15115
mengorbankan	15116
kredibilitas	15117
francisco	15118
special	15119
reruntuhan	15120
rindu	15121
menetap	15122
dompet	15123
xiaomi	15124
columbia	15125
tibet	15126
pendakian	15127
ngobrol	15128
juncto	15129
virginia	15130
fundamental	15131
overstay	15132
membangkitkan	15133
baks	15134
fung	15135
fast	15136
hai	15137
ite	15138
ign	15139
ijazah	15140
joy	15141
led	15142
lina	15143
mekar	15144
pir	15145
pant	15146
rina	15147
radar	15148
rwanda	15149
sni	15150
sco	15151
uba	15152
von	15153
ww	15154
wulan	15155
wimb	15156
##gb	15157
##tod	15158
##kapi	15159
##ziarah	15160
##..	15161
##arganegaraan	15162
##aruratan	15163
##inasikan	15164
mendag	15165
berwisata	15166
terindikasi	15167
tertabrak	15168
ina	15169
mengira	15170
memacu	15171
unesco	15172
##idrat	15173
penis	15174
pemutusan	15175
##utang	15176
##okong	15177
baj	15178
##alie	15179
kemah	15180
menyeg	15181
masak	15182
polos	15183
ast	15184
kardi	15185
##asannya	15186
##oster	15187
dilontarkan	15188
##induto	15189
penyem	15190
disarankan	15191
disandera	15192
pendengar	15193
dirusak	15194
antis	15195
##angsaan	15196
menggemb	15197
chand	15198
##ovic	15199
memperbarui	15200
kedaruratan	15201
treat	15202
##tural	15203
partn	15204
mula	15205
rp9	15206
##aksimal	15207
serangannya	15208
##under	15209
provok	15210
##ontong	15211
erwan	15212
subr	15213
urat	15214
kabag	15215
bermuatan	15216
must	15217
##jojo	15218
ariel	15219
hermawan	15220
##truktif	15221
##lywood	15222
targetnya	15223
nurbaya	15224
perbandingan	15225
##essy	15226
##operatif	15227
kematiannya	15228
pramusim	15229
mual	15230
insight	15231
tumbuhan	15232
##uador	15233
kemampuannya	15234
frank	15235
perpajakan	15236
protokol	15237
luq	15238
managing	15239
walk	15240
meneliti	15241
##ebohkan	15242
mengabarkan	15243
jorji	15244
retribusi	15245
##daulat	15246
basarah	15247
wonogiri	15248
iriana	15249
enterprise	15250
raymond	15251
seperempat	15252
difokuskan	15253
persepi	15254
patriot	15255
dlh	15256
preval	15257
fernando	15258
lisensi	15259
dulunya	15260
saudaranya	15261
ditanam	15262
square	15263
organization	15264
channel	15265
records	15266
soccer	15267
prudential	15268
ocean	15269
ekspektasi	15270
ebt	15271
ges	15272
jia	15273
lindungi	15274
nia	15275
oored	15276
shan	15277
tadinya	15278
yen	15279
##gm	15280
##bot	15281
##bre	15282
##red	15283
##cg	15284
##kat	15285
##hin	15286
##jati	15287
##arak	15288
##akaian	15289
diana	15290
menari	15291
##uning	15292
##ads	15293
seakan	15294
berbar	15295
##isma	15296
##urai	15297
unesa	15298
pembantu	15299
selamatkan	15300
melempar	15301
merep	15302
##upuk	15303
kemunculan	15304
##ede	15305
menyuruh	15306
menyandang	15307
##iawan	15308
tidaknya	15309
##alahannya	15310
##raja	15311
semangka	15312
semaksimal	15313
##awirawan	15314
##angkakan	15315
##angkali	15316
akut	15317
##epare	15318
##atiga	15319
karboh	15320
oranye	15321
##alau	15322
komering	15323
senpi	15324
##indas	15325
keric	15326
persawahan	15327
petisi	15328
ekuador	15329
##inium	15330
terhadapnya	15331
##overy	15332
tig	15333
kabul	15334
menyejahterakan	15335
parepare	15336
mako	15337
ppg	15338
klop	15339
abi	15340
pusaka	15341
##eva	15342
menerjang	15343
berpakaian	15344
segenap	15345
golput	15346
provokasi	15347
filosofi	15348
kooperatif	15349
subi	15350
majikan	15351
##laba	15352
rail	15353
jamal	15354
##kronisasi	15355
jens	15356
jennif	15357
jaring	15358
samuel	15359
susun	15360
widy	15361
berjalannya	15362
hero	15363
rsf	15364
nyepi	15365
##tech	15366
bayangkan	15367
tenggat	15368
dijangkau	15369
##pose	15370
berkelas	15371
bintan	15372
disebar	15373
obor	15374
pembacokan	15375
monumen	15376
pahala	15377
helmy	15378
kpai	15379
layaknya	15380
kriminalisasi	15381
celurit	15382
michel	15383
avtur	15384
menginformasikan	15385
walz	15386
mitranya	15387
sutris	15388
syahputra	15389
peralihan	15390
diabaikan	15391
sugiarto	15392
berproses	15393
berprofesi	15394
tumpah	15395
sheila	15396
perselingkuhan	15397
nirlaba	15398
nabire	15399
primer	15400
privasi	15401
atraksi	15402
ganesha	15403
ganinduto	15404
ketahuan	15405
huistra	15406
tjahjanto	15407
pebisnis	15408
didatangkan	15409
ramdor	15410
bastianini	15411
brilian	15412
dialokasikan	15413
arnold	15414
menitipkan	15415
society	15416
salemba	15417
ludes	15418
american	15419
spacex	15420
people	15421
volleyball	15422
kesiapsiagaan	15423
ooredoo	15424
karbohidrat	15425
kericuhan	15426
jennifer	15427
bsk	15428
coh	15429
deh	15430
duter	15431
gambut	15432
hok	15433
jodoh	15434
kilang	15435
kkp	15436
kogo	15437
low	15438
pv	15439
qo	15440
qi	15441
santo	15442
vape	15443
##bong	15444
##ns	15445
##ipat	15446
##uci	15447
##ualian	15448
##kel	15449
dialam	15450
##emit	15451
##emari	15452
menopang	15453
keikut	15454
berobat	15455
##ikon	15456
mengulang	15457
##olok	15458
##imen	15459
##eknik	15460
pematang	15461
##dax	15462
dengannya	15463
ana	15464
##sein	15465
##ibarkan	15466
##andro	15467
pengar	15468
kemarit	15469
menyalakan	15470
menyumbangkan	15471
##raj	15472
pelih	15473
pelip	15474
koneksi	15475
##ambanan	15476
alm	15477
istan	15478
istora	15479
kelangkaan	15480
setya	15481
keren	15482
bersaksi	15483
rights	15484
dirmanto	15485
##ohongan	15486
mao	15487
sepihak	15488
sepasang	15489
deposi	15490
kembar	15491
ppu	15492
klinis	15493
ikrar	15494
kalsium	15495
##asarjana	15496
##ompi	15497
bertenaga	15498
haknya	15499
segan	15500
perempuannya	15501
bre	15502
##ganisir	15503
lingkar	15504
buwono	15505
salman	15506
atom	15507
teliti	15508
asalnya	15509
pojok	15510
esp	15511
bagaiman	15512
natas	15513
pelaksanaannya	15514
dicegah	15515
taul	15516
sinetron	15517
rust	15518
divre	15519
##harto	15520
pemiliknya	15521
luwu	15522
sambungan	15523
fath	15524
mundurnya	15525
bojong	15526
class	15527
politeknik	15528
purnawirawan	15529
mendekatkan	15530
menginter	15531
walhi	15532
wisma	15533
division	15534
fauzan	15535
berkoalisi	15536
srdk	15537
pengecualian	15538
pascasarjana	15539
indodax	15540
saif	15541
u16	15542
memulangkan	15543
lelaki	15544
mengalokasikan	15545
ketimpangan	15546
menyesal	15547
devisa	15548
tjahaja	15549
##kripsi	15550
nippon	15551
nissan	15552
kenyataannya	15553
##isolasi	15554
mangkun	15555
ardianto	15556
mercedes	15557
dikemudikan	15558
penciptaan	15559
secepatnya	15560
navigasi	15561
slovenia	15562
cafe	15563
islamiyah	15564
aksesibilitas	15565
tergeletak	15566
lpkr	15567
hashim	15568
berpuasa	15569
piagam	15570
mehrtens	15571
kecurigaan	15572
duterte	15573
kogoya	15574
kemaritiman	15575
.)	15576
b2	15577
boks	15578
celah	15579
dod	15580
fus	15581
lengan	15582
lot	15583
money	15584
ruj	15585
singg	15586
tod	15587
uran	15588
ubah	15589
vip	15590
yab	15591
ze	15592
##nologi	15593
##etum	15594
##rakan	15595
##rudin	15596
##yangi	15597
##inambungan	15598
menag	15599
##ele	15600
##elia	15601
##adat	15602
##onitor	15603
terbawa	15604
perkantor	15605
##isak	15606
memat	15607
memanjakan	15608
memukau	15609
under	15610
##omong	15611
prabu	15612
##ampar	15613
##antap	15614
##edri	15615
menyempat	15616
menyalahgunakan	15617
##ots	15618
##entil	15619
##ayahan	15620
##aransi	15621
asas	15622
##endong	15623
##ambahnya	15624
orasi	15625
komdigi	15626
##osot	15627
island	15628
##ongko	15629
setan	15630
disuruh	15631
disorot	15632
riya	15633
dikabul	15634
eksistensi	15635
kecemasan	15636
ditonton	15637
tanker	15638
tanzania	15639
115	15640
berlebih	15641
emission	15642
panama	15643
beny	15644
pph	15645
kla	15646
diperluas	15647
agustinus	15648
##menya	15649
bertolak	15650
bertambahnya	15651
membayangkan	15652
shal	15653
hamidah	15654
bram	15655
brun	15656
erik	15657
sekalian	15658
mobilisasi	15659
buahnya	15660
raisa	15661
diberitahu	15662
muhd	15663
##erankan	15664
lezat	15665
tertekan	15666
pengawalan	15667
naiknya	15668
perbelanja	15669
pamer	15670
kilat	15671
##incing	15672
##wardhana	15673
jiexpo	15674
purbal	15675
diproyeksikan	15676
hiper	15677
smpn	15678
obser	15679
ponc	15680
hidung	15681
pemasukan	15682
lanal	15683
domba	15684
karaoke	15685
kehadirannya	15686
pikap	15687
1995	15688
##uality	15689
sirih	15690
commit	15691
cilincing	15692
gadang	15693
jemaat	15694
kacamata	15695
pangkalp	15696
menginisiasi	15697
banjarnegara	15698
hidayatullah	15699
rezeki	15700
dash	15701
tirtoy	15702
safri	15703
1989	15704
icon	15705
belahan	15706
objektif	15707
williams	15708
peparnas	15709
samsul	15710
menganiaya	15711
wamenaker	15712
terwujudnya	15713
difabel	15714
diadopsi	15715
terciptanya	15716
maryland	15717
mengesampingkan	15718
zhang	15719
lloyd	15720
gymn	15721
sentimen	15722
sentimeter	15723
kusnadi	15724
kredibel	15725
akhmad	15726
bijaksana	15727
imunisasi	15728
curiga	15729
keramik	15730
berkebangsaan	15731
kekecewaan	15732
brussels	15733
learning	15734
initiative	15735
hormon	15736
exhibition	15737
manusiawi	15738
luqman	15739
keikuts	15740
istanbul	15741
perkantoran	15742
menyempatkan	15743
perbelanjaan	15744
purbalingga	15745
pangkalpinang	15746
gymnasium	15747
basi	15748
body	15749
ceng	15750
esel	15751
egian	15752
fay	15753
gali	15754
hobi	15755
kiki	15756
loc	15757
mangga	15758
nev	15759
pgn	15760
rasis	15761
tingkatan	15762
udang	15763
wenang	15764
yur	15765
##oordinasikan	15766
##aafkan	15767
##ney	15768
##eti	15769
##iasi	15770
##yanyi	15771
##yandu	15772
##anisasi	15773
##ato	15774
##akia	15775
##asti	15776
##ahit	15777
menanggung	15778
##sier	15779
kewil	15780
sewenang	15781
perorangan	15782
##usk	15783
memalukan	15784
##uluki	15785
penari	15786
pemotor	15787
##bagus	15788
merosot	15789
##riel	15790
##aban	15791
##abisan	15792
maskot	15793
jualan	15794
##awinan	15795
##angkalan	15796
poly	15797
##abuh	15798
##abudi	15799
karung	15800
koni	15801
isyarat	15802
##ipi	15803
dilepaskan	15804
surplus	15805
mencegat	15806
102	15807
dikon	15808
dikec	15809
menggarap	15810
che	15811
steve	15812
ditun	15813
rey	15814
manuver	15815
pernapasan	15816
menghemat	15817
berdampingan	15818
terstruktur	15819
jabod	15820
diperbarui	15821
berbunyi	15822
pakis	15823
perkawinan	15824
idsur	15825
transpl	15826
salatiga	15827
padam	15828
##reen	15829
dibubarkan	15830
fakfak	15831
penjaminan	15832
garden	15833
bpj	15834
rahim	15835
posyandu	15836
faz	15837
bayern	15838
dekatnya	15839
putusannya	15840
risk	15841
catherine	15842
purba	15843
registrasi	15844
diversi	15845
bapenda	15846
sulitnya	15847
akuisisi	15848
topan	15849
talent	15850
terhambat	15851
ketidakadilan	15852
pagelaran	15853
tkdn	15854
seberang	15855
cibu	15856
berpenduduk	15857
luhur	15858
737	15859
kagum	15860
ksad	15861
mengutarakan	15862
mlb	15863
rajin	15864
loyalitas	15865
buyback	15866
responsif	15867
everton	15868
bimtek	15869
##arbonat	15870
standard	15871
fleksibel	15872
tarawih	15873
##edikasikan	15874
sinaga	15875
entrepreneur	15876
mustahil	15877
oksigen	15878
historis	15879
trailer	15880
polikarbonat	15881
tribun	15882
lereng	15883
penukaran	15884
hutchison	15885
prevalensi	15886
bskdn	15887
srdkn	15888
eselon	15889
egianus	15890
kewilayahan	15891
idsurvey	15892
aba	15893
bik	15894
coblos	15895
daw	15896
durian	15897
gila	15898
kik	15899
katar	15900
loh	15901
num	15902
omar	15903
ping	15904
rim	15905
rapor	15906
rond	15907
sunan	15908
tit	15909
tarakan	15910
wina	15911
##ocokan	15912
##pos	15913
##mono	15914
##less	15915
##zona	15916
##jakarta	15917
##21	15918
##akata	15919
diti	15920
##emehkan	15921
key	15922
keun	15923
##ikaian	15924
mengat	15925
mengons	15926
mengwi	15927
##iton	15928
memutar	15929
##ukuhkan	15930
##imer	15931
penuntutan	15932
pembul	15933
##etis	15934
##okum	15935
##okoh	15936
meluap	15937
merampas	15938
##jaw	15939
bagh	15940
kepmen	15941
keppres	15942
##other	15943
##angkung	15944
adrian	15945
mendeportasi	15946
##tras	15947
satrio	15948
pertikaian	15949
komika	15950
penyu	15951
keri	15952
arch	15953
##odus	15954
##tasari	15955
bersah	15956
presidi	15957
dikukuhkan	15958
maringa	15959
kasta	15960
membantunya	15961
grade	15962
##agen	15963
##trikan	15964
resmikan	15965
kuantan	15966
##umpuhkan	15967
kesamaan	15968
sampo	15969
ptn	15970
impresi	15971
sukawi	15972
terpapar	15973
penggalangan	15974
sham	15975
[...]
