[UNK]	0
[CLS]	1
[SEP]	2
[PAD]	3
[MASK]	4
!	5
"	6
#	7
$	8
%	9
&	10
'	11
(	12
)	13
*	14
+	15
,	16
-	17
.	18
/	19
0	20
1	21
2	22
3	23
4	24
5	25
6	26
7	27
8	28
9	29
:	30
;	31
<	32
=	33
>	34
?	35
@	36
[	37
\	38
]	39
_	40
`	41
a	42
b	43
c	44
d	45
e	46
f	47
g	48
h	49
i	50
j	51
k	52
l	53
m	54
n	55
o	56
p	57
q	58
r	59
s	60
t	61
u	62
v	63
w	64
x	65
y	66
z	67
£	68
®	69
°	70
±	71
·	72
×	73
à	74
á	75
â	76
ã	77
ä	78
ç	79
è	80
é	81
ê	82
ë	83
ì	84
í	85
ï	86
ð	87
ñ	88
ò	89
ó	90
ô	91
õ	92
ö	93
ø	94
ú	95
ü	96
ā	97
ć	98
ę	99
ğ	100
ı	101
ķ	102
ł	103
ś	104
ş	105
š	106
ơ	107
ư	108
́	109
̇	110
α	111
η	112
μ	113
τ	114
‍	115
‎	116
•	117
′	118
⁄	119
⁠	120
€	121
−	122
≥	123
丽	124
安	125
洪	126
金	127
陈	128
🍌	129
😊	130
😭	131
🤲	132
##c	133
##a	134
##h	135
##l	136
##i	137
##s	138
##n	139
##e	140
##k	141
##r	142
##o	143
##t	144
##g	145
##d	146
##f	147
##u	148
##m	149
##6	150
##y	151
##p	152
##b	153
##?	154
##j	155
##v	156
##z	157
##w	158
##q	159
##5	160
##3	161
##2	162
##9	163
##7	164
##0	165
##x	166
##4	167
##.	168
##8	169
##é	170
##1	171
##ä	172
##í	173
##â	174
##è	175
##ç	176
##õ	177
##ü	178
##ú	179
##ö	180
##,	181
##á	182
##ï	183
##"	184
##τ	185
##+	186
##)	187
##ø	188
##ı	189
##ş	190
##′	191
##ñ	192
##-	193
##‎	194
##ơ	195
##ó	196
##🤲	197
##ô	198
##ś	199
##ę	200
##̇	201
##*	202
##ã	203
##金	204
##丽	205
##š	206
##:	207
##±	208
##ê	209
##@	210
##'	211
##/	212
##ë	213
##ì	214
##ć	215
##an	216
an	217
##er	218
##en	219
##ar	220
##at	221
di	222
##ang	223
##as	224
##al	225
##ak	226
##ah	227
se	228
me	229
ke	230
##am	231
men	232
##ya	233
##tu	234
in	235
##in	236
##si	237
pe	238
##ad	239
##ga	240
yang	241
##ta	242
dan	243
un	244
kan	245
##un	246
ter	247
ber	248
nya	249
##il	250
##ik	251
ng	252
##eng	253
##uk	254
er	255
##ap	256
te	257
ti	258
per	259
##ut	260
ko	261
ak	262
ar	263
ang	264
##ur	265
##ari	266
##ai	267
##us	268
al	269
##um	270
meng	271
##ara	272
##ada	273
en	274
##is	275
ba	276
##or	277
##tuk	278
##es	279
##on	280
pada	281
mb	282
untuk	283
##ti	284
##la	285
##ing	286
##ih	287
sa	288
ini	289
am	290
ad	291
pen	292
##it	293
ah	294
deng	295
mem	296
ol	297
la	298
ne	299
pr	300
itu	301
##alam	302
##ir	303
ap	304
##el	305
dari	306
si	307
is	308
##ab	309
dalam	310
as	311
mas	312
nt	313
##ul	314
##ama	315
ta	316
nd	317
##ata	318
##gi	319
or	320
##lah	321
##ek	322
ngk	323
at	324
nj	325
##sia	326
em	327
##ud	328
ind	329
##asi	330
##wa	331
##om	332
##ung	333
mp	334
el	335
le	336
ri	337
##ri	338
pem	339
us	340
##adi	341
##uh	342
seb	343
um	344
ung	345
ju	346
kar	347
re	348
##dak	349
##ib	350
uk	351
ur	352
tidak	353
ing	354
kam	355
tah	356
il	357
##ali	358
##up	359
##ukan	360
peng	361
##aya	362
##te	363
##eri	364
##ana	365
tak	366
it	367
na	368
ik	369
##gai	370
indo	371
##ua	372
be	373
telah	374
meny	375
ro	376
id	377
sebut	378
##pn	379
nesia	380
akan	381
on	382
ek	383
ja	384
##ja	385
im	386
ant	387
kata	388
asi	389
##ia	390
##ra	391
bagai	392
jpn	393
jpnn	394
ma	395
menga	396
po	397
##ber	398
ag	399
juga	400
com	401
bah	402
int	403
##eh	404
har	405
li	406
ab	407
##ma	408
##asa	409
mend	410
##ok	411
dia	412
ut	413
wib	414
atu	415
takan	416
orang	417
##da	418
tahun	419
st	420
bar	421
pro	422
ada	423
tu	424
had	425
saat	426
kukan	427
de	428
##to	429
##isi	430
ngg	431
njadi	432
rak	433
ok	434
ban	435
ra	436
##ingg	437
##abu	438
##alu	439
ku	440
oleh	441
kami	442
##eka	443
aw	444
amp	445
ul	446
any	447
bahwa	448
kota	449
ata	450
ka	451
tr	452
nc	453
sem	454
mela	455
bel	456
nur	457
##ala	458
##se	459
leb	460
lebih	461
kem	462
ereka	463
bis	464
##ka	465
##jar	466
jak	467
lalu	468
ion	469
##id	470
neg	471
##ati	472
tim	473
bisa	474
eg	475
ngkat	476
sama	477
lu	478
ed	479
##et	480
kom	481
gr	482
hari	483
ud	484
atau	485
##sa	486
apa	487
bu	488
om	489
##udah	490
##ita	491
jadi	492
peny	493
para	494
pre	495
war	496
ir	497
##bu	498
bes	499
##ter	500
kare	501
mu	502
rb	503
itas	504
pemer	505
hadap	506
ngkap	507
hingg	508
min	509
han	510
up	511
mil	512
##tap	513
jakar	514
ional	515
##nya	516
has	517
##ju	518
dap	519
##gu	520
pa	521
besar	522
masya	523
rakat	524
rup	525
sen	526
##aha	527
ac	528
ser	529
cara	530
intah	531
##aku	532
anyak	533
pend	534
sudah	535
nas	536
saya	537
menj	538
belum	539
baru	540
##kan	541
man	542
##pe	543
jal	544
sid	545
ian	546
eng	547
##ba	548
negar	549
ha	550
lo	551
karta	552
##alah	553
mene	554
ay	555
no	556
adal	557
ker	558
##pu	559
wak	560
amb	561
##ika	562
ub	563
nam	564
mpat	565
tetap	566
bagi	567
da	568
ru	569
pas	570
anak	571
mo	572
##jak	573
dapat	574
es	575
hasil	576
##tai	577
and	578
siden	579
bo	580
gun	581
##pa	582
nom	583
##uka	584
pun	585
ga	586
kel	587
menc	588
##wan	589
meni	590
tan	591
lama	592
lang	593
ukung	594
eb	595
serta	596
hal	597
kas	598
mberi	599
jalan	600
pil	601
pat	602
pemb	603
nteri	604
dila	605
ia	606
##ni	607
dis	608
ch	609
su	610
tur	611
dua	612
lat	613
warga	614
rum	615
ampai	616
rt	617
dip	618
imp	619
ujar	620
kon	621
to	622
anj	623
mber	624
##hir	625
memb	626
nu	627
##ve	628
perti	629
salah	630
ungan	631
umlah	632
ic	633
##ila	634
kabu	635
##iki	636
et	637
baik	638
beber	639
nurut	640
mak	641
angan	642
mar	643
gu	644
##pat	645
paten	646
elasa	647
pu	648
rban	649
sur	650
rabu	651
so	652
rs	653
harus	654
bali	655
op	656
##ke	657
rumah	658
##erah	659
mbang	660
akhir	661
gram	662
senin	663
lan	664
pih	665
usaha	666
pihak	667
ntara	668
##im	669
kali	670
agi	671
kamis	672
rupak	673
apat	674
kai	675
ny	676
des	677
dp	678
menye	679
##ses	680
masuk	681
af	682
ho	683
ari	684
##re	685
pan	686
##ina	687
##ha	688
##go	689
jum	690
mena	691
jumat	692
##ko	693
antar	694
yan	695
hu	696
masih	697
mana	698
lur	699
ketu	700
aerah	701
ger	702
osi	703
bi	704
ketua	705
erang	706
umum	707
kita	708
air	709
ked	710
res	711
iliki	712
kasus	713
ni	714
mel	715
bantu	716
nggal	717
artai	718
lalui	719
atas	720
jab	721
huk	722
jawa	723
langs	724
rang	725
laku	726
sra	727
keter	728
hukum	729
pela	730
hanya	731
lah	732
##tr	733
wila	734
namun	735
wilay	736
##tor	737
srael	738
gi	739
pala	740
masi	741
dep	742
##men	743
mengu	744
rp	745
ntang	746
##hat	747
##ji	748
luar	749
##ki	750
ib	751
mul	752
##pk	753
perta	754
angat	755
inggu	756
##amat	757
wakil	758
ham	759
menu	760
inf	761
lit	762
gel	763
keme	764
alam	765
##uat	766
kait	767
kr	768
ip	769
wo	770
mbali	771
impin	772
kerja	773
but	774
hadir	775
uara	776
agian	777
ins	778
pak	779
ibu	780
isi	781
ten	782
olisi	783
##lik	784
##tus	785
##na	786
luruh	787
buah	788
##di	789
##tik	790
atang	791
kit	792
unia	793
##mi	794
lih	795
ks	796
pp	797
##gas	798
utama	799
rja	800
##nas	801
##tif	802
enang	803
kedua	804
ran	805
latan	806
was	807
uh	808
nil	809
ep	810
alon	811
##res	812
kitar	813
nting	814
ikut	815
sab	816
angka	817
##itas	818
##aga	819
dang	820
##ini	821
nilai	822
##ask	823
sehat	824
anggo	825
kap	826
ani	827
sabtu	828
sej	829
idik	830
ya	831
rima	832
lain	833
##ong	834
angun	835
pt	836
mulai	837
pol	838
yo	839
kec	840
por	841
sek	842
mper	843
menge	844
##abo	845
abaya	846
ara	847
barat	848
uang	849
gunak	850
dite	851
rtama	852
uc	853
prabo	854
penga	855
rem	856
fo	857
terus	858
inter	859
rsen	860
ngga	861
kese	862
gelar	863
yak	864
lihat	865
##iri	866
iri	867
tif	868
agar	869
sp	870
##tem	871
seme	872
tiga	873
##udi	874
nyata	875
isasi	876
und	877
nding	878
##ed	879
bul	880
upaya	881
wa	882
arang	883
##ibat	884
pilka	885
##uda	886
bad	887
tika	888
band	889
ela	890
nf	891
jan	892
hi	893
ist	894
ema	895
minta	896
kemud	897
idang	898
##ani	899
ncana	900
sta	901
nomor	902
semua	903
tahu	904
##ro	905
litik	906
mbuat	907
##ol	908
eks	909
##wat	910
ters	911
rn	912
asang	913
unc	914
tang	915
innya	916
par	917
eko	918
desa	919
##li	920
##de	921
##lu	922
anjut	923
agus	924
rk	925
for	926
##wi	927
harga	928
sk	929
nomi	930
ong	931
ngah	932
str	933
sum	934
dir	935
guber	936
##uli	937
sar	938
pene	939
##mad	940
##tar	941
sep	942
##tur	943
##dia	944
tingg	945
rd	946
roses	947
ner	948
depan	949
nang	950
ersi	951
milih	952
gen	953
ob	954
ahkan	955
anc	956
osial	957
guna	958
do	959
elain	960
emil	961
giat	962
lagi	963
th	964
kons	965
keb	966
bat	967
rik	968
rod	969
ikasi	970
lin	971
hen	972
jati	973
kala	974
##ans	975
harap	976
bulan	977
trans	978
siap	979
sis	980
olo	981
roduk	982
co	983
emilu	984
yanan	985
china	986
##ca	987
kh	988
ingin	989
if	990
foto	991
omp	992
aksi	993
apai	994
waktu	995
ina	996
mempe	997
lawan	998
ce	999
dib	1000
asal	1001
manan	1002
##man	1003
ksana	1004
tugas	1005
emain	1006
mer	1007
##tuh	1008
ci	1009
njuk	1010
ki	1011
lap	1012
diri	1013
mes	1014
bak	1015
ria	1016
rat	1017
acara	1018
badan	1019
hid	1020
sak	1021
hak	1022
ndak	1023
jel	1024
engah	1025
dpr	1026
dise	1027
sejak	1028
sing	1029
uar	1030
lam	1031
rasa	1032
##za	1033
##anti	1034
aj	1035
du	1036
ingat	1037
antan	1038
10	1039
camat	1040
pena	1041
ndiri	1042
oko	1043
ali	1044
jen	1045
rap	1046
okasi	1047
ameri	1048
ken	1049
hub	1050
alami	1051
uarga	1052
nama	1053
awal	1054
os	1055
ns	1056
##lo	1057
jika	1058
puk	1059
rempu	1060
mi	1061
olda	1062
vin	1063
penye	1064
pra	1065
pal	1066
das	1067
utara	1068
erada	1069
ev	1070
nar	1071
ublik	1072
antor	1073
ukti	1074
usat	1075
fe	1076
wan	1077
wasan	1078
saja	1079
empat	1080
olres	1081
sat	1082
##no	1083
menya	1084
malam	1085
ben	1086
ompok	1087
ndara	1088
sul	1089
direk	1090
rio	1091
elask	1092
oper	1093
rah	1094
kamp	1095
ilih	1096
meski	1097
ana	1098
fi	1099
jabat	1100
ucap	1101
lak	1102
dasar	1103
mam	1104
eti	1105
penge	1106
media	1107
erita	1108
juta	1109
rusia	1110
diper	1111
dil	1112
rek	1113
jatim	1114
##uru	1115
ca	1116
tor	1117
infor	1118
sh	1119
ngaku	1120
masa	1121
mukan	1122
aman	1123
rg	1124
komp	1125
##le	1126
jo	1127
vinsi	1128
ust	1129
aftar	1130
##do	1131
iksa	1132
##mb	1133
bog	1134
resmi	1135
yakni	1136
jam	1137
##gr	1138
bukan	1139
rus	1140
okto	1141
aling	1142
ntu	1143
ent	1144
oktob	1145
lek	1146
njung	1147
soal	1148
kea	1149
anda	1150
icara	1151
pb	1152
ambar	1153
kalau	1154
agust	1155
panj	1156
ec	1157
dike	1158
rin	1159
ambil	1160
astik	1161
tri	1162
san	1163
tek	1164
jabar	1165
ngkah	1166
les	1167
arah	1168
ef	1169
he	1170
did	1171
ampak	1172
ling	1173
##ver	1174
##amb	1175
jun	1176
##rea	1177
juli	1178
nove	1179
ndisi	1180
penc	1181
ati	1182
jelas	1183
pale	1184
logi	1185
lapor	1186
hanan	1187
egara	1188
laga	1189
##oko	1190
ren	1191
poran	1192
##was	1193
kibat	1194
##po	1195
kanan	1196
leng	1197
nggap	1198
okowi	1199
masal	1200
semar	1201
ustri	1202
milik	1203
sitas	1204
kad	1205
milit	1206
asia	1207
gaza	1208
ot	1209
egi	1210
entuk	1211
anye	1212
##nis	1213
maha	1214
istem	1215
adi	1216
itmen	1217
pppk	1218
njukk	1219
uga	1220
pasar	1221
##aat	1222
njata	1223
kepe	1224
muda	1225
kl	1226
nfaat	1227
mpung	1228
inte	1229
ngkin	1230
mal	1231
keras	1232
ris	1233
gung	1234
hidup	1235
pukul	1236
benar	1237
bogor	1238
kpu	1239
aku	1240
mampu	1241
ram	1242
dam	1243
akar	1244
nat	1245
imnas	1246
komun	1247
##han	1248
juang	1249
mob	1250
dita	1251
tiap	1252
iran	1253
nal	1254
utus	1255
ai	1256
orong	1257
erah	1258
rupsi	1259
las	1260
makin	1261
fil	1262
juni	1263
fa	1264
ili	1265
20	1266
musi	1267
suai	1268
tensi	1269
lima	1270
rai	1271
lingk	1272
dak	1273
bank	1274
septe	1275
pdi	1276
kolah	1277
inst	1278
batas	1279
dese	1280
##gus	1281
ji	1282
wali	1283
naik	1284
mei	1285
laut	1286
pang	1287
muh	1288
tap	1289
kep	1290
ember	1291
peni	1292
ribu	1293
usia	1294
latih	1295
njaga	1296
aup	1297
ps	1298
nit	1299
nggar	1300
nusia	1301
rsi	1302
ateng	1303
iv	1304
ukai	1305
##ng	1306
mba	1307
janu	1308
kuat	1309
yai	1310
egeri	1311
tahui	1312
umber	1313
dem	1314
iz	1315
mobil	1316
nited	1317
##ril	1318
otor	1319
beri	1320
##ump	1321
wi	1322
aupun	1323
##jan	1324
april	1325
bijak	1326
put	1327
jar	1328
laman	1329
rnah	1330
strik	1331
kpk	1332
ge	1333
isata	1334
##ent	1335
tentu	1336
lengg	1337
kini	1338
aka	1339
jaya	1340
inasi	1341
muha	1342
perlu	1343
mang	1344
eni	1345
buka	1346
##hi	1347
mbawa	1348
aya	1349
intas	1350
ulang	1351
ons	1352
lamat	1353
ej	1354
##lin	1355
urang	1356
liga	1357
suka	1358
omisi	1359
duga	1360
dik	1361
ugaan	1362
ritas	1363
sy	1364
pk	1365
maret	1366
raya	1367
cepat	1368
12	1369
##rai	1370
inisi	1371
bal	1372
hus	1373
son	1374
siswa	1375
trump	1376
ral	1377
upati	1378
rikat	1379
ukrai	1380
az	1381
tuju	1382
rinya	1383
husus	1384
main	1385
ex	1386
the	1387
ring	1388
bum	1389
lok	1390
niver	1391
go	1392
of	1393
alang	1394
butuh	1395
##leh	1396
osisi	1397
##ip	1398
ikuti	1399
mbaga	1400
awab	1401
bid	1402
##dik	1403
udara	1404
baw	1405
vid	1406
danya	1407
dilan	1408
tanpa	1409
ig	1410
tat	1411
end	1412
punya	1413
##ot	1414
akti	1415
tem	1416
enai	1417
sim	1418
stasi	1419
##buh	1420
yaitu	1421
korea	1422
bang	1423
terd	1424
olri	1425
ua	1426
ndang	1427
gera	1428
mema	1429
iliar	1430
uat	1431
anjar	1432
dar	1433
jauh	1434
mpil	1435
berb	1436
nanti	1437
agung	1438
biasa	1439
antas	1440
ektor	1441
guru	1442
uti	1443
pi	1444
bakal	1445
daya	1446
dinas	1447
bawah	1448
tni	1449
naga	1450
idana	1451
git	1452
apal	1453
dion	1454
br	1455
alia	1456
angsa	1457
luas	1458
iala	1459
api	1460
cuk	1461
tahan	1462
##gis	1463
ono	1464
elang	1465
dek	1466
kal	1467
##eo	1468
kenal	1469
ino	1470
gital	1471
pekan	1472
ncari	1473
asa	1474
sema	1475
isa	1476
sup	1477
irim	1478
bea	1479
##aris	1480
15	1481
den	1482
uji	1483
peran	1484
ebab	1485
aus	1486
roy	1487
##jo	1488
annya	1489
aring	1490
##ord	1491
tul	1492
yu	1493
ita	1494
##usi	1495
ngka	1496
cukup	1497
##tup	1498
aru	1499
anti	1500
lesai	1501
elo	1502
mbak	1503
uku	1504
kir	1505
tamb	1506
dr	1507
arat	1508
30	1509
##bah	1510
imb	1511
data	1512
gas	1513
akit	1514
##mk	1515
kri	1516
antai	1517
surat	1518
isnis	1519
depok	1520
are	1521
ron	1522
anies	1523
omb	1524
apres	1525
putus	1526
##orm	1527
ambut	1528
gerak	1529
jah	1530
duk	1531
##ikan	1532
aji	1533
pap	1534
uaca	1535
mpang	1536
tihan	1537
mis	1538
koord	1539
lajar	1540
uru	1541
feb	1542
##ran	1543
maka	1544
raih	1545
mmad	1546
ola	1547
asn	1548
mbuka	1549
awas	1550
rm	1551
mau	1552
io	1553
papua	1554
perse	1555
agang	1556
stina	1557
rget	1558
tiv	1559
etiga	1560
edung	1561
gol	1562
oh	1563
eri	1564
neger	1565
##utk	1566
maju	1567
inan	1568
##ru	1569
ii	1570
sip	1571
kut	1572
ton	1573
nus	1574
rubah	1575
nda	1576
usai	1577
gask	1578
tutur	1579
cal	1580
ejad	1581
kha	1582
angk	1583
ilang	1584
agai	1585
##era	1586
inve	1587
lind	1588
bur	1589
beda	1590
ahmad	1591
ianto	1592
henti	1593
tanya	1594
art	1595
lanju	1596
hamas	1597
penj	1598
emb	1599
ras	1600
erk	1601
enuh	1602
ende	1603
dekat	1604
isti	1605
anten	1606
uni	1607
mbah	1608
libat	1609
ibusi	1610
olusi	1611
pel	1612
ket	1613
rep	1614
indra	1615
anto	1616
sik	1617
cat	1618
udaya	1619
##ura	1620
edi	1621
mod	1622
tp	1623
je	1624
ulu	1625
pri	1626
rif	1627
ele	1628
unuh	1629
rtem	1630
jat	1631
unit	1632
berd	1633
etak	1634
yar	1635
ligus	1636
sus	1637
mat	1638
kab	1639
nor	1640
pres	1641
oe	1642
nuju	1643
ncang	1644
abat	1645
rdana	1646
urut	1647
saksi	1648
hit	1649
seka	1650
ajak	1651
adw	1652
rc	1653
rtemu	1654
##ons	1655
hujan	1656
penu	1657
utra	1658
siasi	1659
aris	1660
sakit	1661
tus	1662
anya	1663
kand	1664
ido	1665
##me	1666
adwal	1667
alat	1668
lasan	1669
visi	1670
bas	1671
fas	1672
##lau	1673
enuhi	1674
16	1675
penuh	1676
sd	1677
turun	1678
tas	1679
terb	1680
rusak	1681
##tim	1682
apang	1683
duksi	1684
emo	1685
yakin	1686
tanah	1687
arta	1688
olah	1689
alu	1690
engg	1691
11	1692
anjir	1693
febru	1694
wat	1695
alur	1696
orasi	1697
kual	1698
demo	1699
##gya	1700
tekno	1701
uhan	1702
sana	1703
yogya	1704
kum	1705
berke	1706
ancam	1707
atur	1708
pl	1709
pes	1710
enam	1711
kema	1712
aksa	1713
##ch	1714
suma	1715
epang	1716
namb	1717
fasil	1718
biden	1719
mit	1720
ungsi	1721
14	1722
sisi	1723
uri	1724
ersib	1725
nju	1726
riode	1727
norer	1728
urah	1729
mina	1730
rw	1731
psi	1732
musim	1733
iar	1734
umk	1735
nik	1736
oto	1737
alan	1738
terp	1739
kat	1740
lemen	1741
wu	1742
ncur	1743
dapun	1744
bb	1745
dki	1746
tewas	1747
egitu	1748
diba	1749
amar	1750
ropa	1751
ener	1752
nurun	1753
akses	1754
aktiv	1755
##gal	1756
##jud	1757
sete	1758
fin	1759
toko	1760
##atu	1761
krasi	1762
elola	1763
pul	1764
egah	1765
anta	1766
bri	1767
fok	1768
mudah	1769
ama	1770
trasi	1771
tusan	1772
all	1773
ungi	1774
fokus	1775
atan	1776
pilih	1777
bahan	1778
raky	1779
ky	1780
leksi	1781
narko	1782
utuh	1783
royek	1784
est	1785
nusa	1786
pbb	1787
meter	1788
25	1789
org	1790
rut	1791
alani	1792
ebar	1793
utih	1794
##sip	1795
jenis	1796
elalu	1797
usul	1798
ganti	1799
mata	1800
film	1801
luka	1802
tiba	1803
13	1804
tot	1805
calon	1806
inat	1807
angga	1808
uduk	1809
au	1810
ff	1811
anggu	1812
set	1813
umkm	1814
bab	1815
isu	1816
video	1817
turut	1818
tra	1819
port	1820
netap	1821
18	1822
epe	1823
lep	1824
24	1825
##pul	1826
og	1827
iap	1828
ngat	1829
udi	1830
nggul	1831
njutk	1832
andar	1833
berat	1834
sel	1835
urve	1836
tnya	1837
gan	1838
asuk	1839
tulis	1840
wujud	1841
tes	1842
tepat	1843
17	1844
rkuat	1845
urat	1846
abd	1847
uncur	1848
temu	1849
tik	1850
olk	1851
emas	1852
pakat	1853
budi	1854
organ	1855
del	1856
hut	1857
vi	1858
##aim	1859
awang	1860
##lon	1861
lewat	1862
final	1863
lidik	1864
ira	1865
new	1866
eno	1867
rcaya	1868
abil	1869
bin	1870
fc	1871
alah	1872
unung	1873
sos	1874
rh	1875
resta	1876
tasi	1877
tahap	1878
utri	1879
tisip	1880
amank	1881
ril	1882
ersih	1883
ibran	1884
rtu	1885
##ami	1886
janji	1887
pdip	1888
kola	1889
liti	1890
ping	1891
pla	1892
kecil	1893
ditu	1894
ry	1895
ade	1896
dic	1897
inggr	1898
austr	1899
hati	1900
ubah	1901
pasal	1902
narik	1903
ate	1904
ekan	1905
kasih	1906
nah	1907
her	1908
ile	1909
pesan	1910
dana	1911
atal	1912
ayu	1913
umumk	1914
teman	1915
udah	1916
glo	1917
bus	1918
hum	1919
adang	1920
obat	1921
mengg	1922
ntung	1923
angi	1924
okter	1925
rawat	1926
gib	1927
luang	1928
urvei	1929
##ny	1930
mpro	1931
olkar	1932
izin	1933
dij	1934
ndung	1935
gibr	1936
atif	1937
dewan	1938
ruang	1939
bk	1940
##fe	1941
sulit	1942
tab	1943
kolab	1944
lepas	1945
denpa	1946
sitif	1947
kuasa	1948
watir	1949
pakah	1950
njual	1951
ilm	1952
mati	1953
indah	1954
nol	1955
ukses	1956
amin	1957
av	1958
iy	1959
tum	1960
ala	1961
ngani	1962
aktif	1963
bay	1964
inov	1965
apre	1966
sah	1967
tua	1968
##cu	1969
onlin	1970
laki	1971
atat	1972
ologi	1973
rhati	1974
lib	1975
nco	1976
poin	1977
khus	1978
eta	1979
aslon	1980
bahas	1981
od	1982
utuhk	1983
skri	1984
enc	1985
ngan	1986
hend	1987
nggil	1988
yarat	1989
##tak	1990
menit	1991
##bp	1992
usnya	1993
sw	1994
uncul	1995
ow	1996
27	1997
erai	1998
bun	1999
skrim	2000
ulasi	2001
riau	2002
sekar	2003
puluh	2004
ident	2005
rensi	2006
glob	2007
pn	2008
uasa	2009
pos	2010
agama	2011
jang	2012
mere	2013
fer	2014
gab	2015
berk	2016
tegas	2017
lahir	2018
spons	2019
rsiap	2020
nggu	2021
kalah	2022
akang	2023
sawat	2024
engar	2025
ituas	2026
stra	2027
los	2028
isme	2029
##and	2030
ens	2031
bp	2032
roleh	2033
berta	2034
dikit	2035
total	2036
ph	2037
uktur	2038
bayar	2039
iptak	2040
uami	2041
makan	2042
kumen	2043
mung	2044
krat	2045
19	2046
adar	2047
mpir	2048
dipe	2049
umen	2050
pagi	2051
atuan	2052
pasti	2053
22	2054
inc	2055
erman	2056
beb	2057
mungk	2058
sig	2059
emiki	2060
damai	2061
eh	2062
urus	2063
humas	2064
gaw	2065
taris	2066
##lam	2067
marin	2068
rkara	2069
oc	2070
upa	2071
etu	2072
ual	2073
nk	2074
atasi	2075
pasuk	2076
gagal	2077
ntar	2078
rib	2079
andi	2080
mom	2081
suh	2082
ayang	2083
tol	2084
sonel	2085
catat	2086
energ	2087
waslu	2088
##juk	2089
sor	2090
rapan	2091
pj	2092
23	2093
bmk	2094
uu	2095
50	2096
ine	2097
inta	2098
ebabk	2099
rilis	2100
gawai	2101
bmkg	2102
iaya	2103
asar	2104
rtumb	2105
kemen	2106
ity	2107
perd	2108
dprd	2109
21	2110
rugi	2111
bawa	2112
tubuh	2113
bebas	2114
pik	2115
lim	2116
asing	2117
sabu	2118
rba	2119
njara	2120
ahf	2121
usung	2122
rbang	2123
antau	2124
ndah	2125
iah	2126
elek	2127
duli	2128
fes	2129
joko	2130
anger	2131
ksi	2132
kil	2133
istri	2134
##juh	2135
sekre	2136
balik	2137
ahfud	2138
istiw	2139
sal	2140
tera	2141
rela	2142
islam	2143
sipil	2144
jalur	2145
luk	2146
apar	2147
ibat	2148
lokal	2149
ngkut	2150
turan	2151
momen	2152
net	2153
rid	2154
ratis	2155
sc	2156
luark	2157
ibatk	2158
isah	2159
tani	2160
ster	2161
dpp	2162
mitra	2163
dj	2164
##ly	2165
erat	2166
rtani	2167
tatus	2168
lar	2169
rti	2170
ebut	2171
landa	2172
nolak	2173
ahy	2174
sebab	2175
ment	2176
##ori	2177
etro	2178
uncak	2179
ato	2180
usi	2181
demi	2182
edar	2183
##gat	2184
kontr	2185
tapi	2186
lor	2187
ratur	2188
ase	2189
non	2190
bers	2191
ntik	2192
mbel	2193
aki	2194
nflik	2195
memer	2196
tegis	2197
mus	2198
dini	2199
abdul	2200
mk	2201
erd	2202
lub	2203
iapk	2204
ans	2205
nerja	2206
ajang	2207
erahk	2208
untu	2209
alih	2210
ward	2211
rand	2212
##yo	2213
alank	2214
rj	2215
##so	2216
pengu	2217
ajar	2218
dangk	2219
ampah	2220
sm	2221
aceh	2222
lil	2223
leg	2224
ano	2225
mpak	2226
kilo	2227
ungut	2228
jaran	2229
idodo	2230
ium	2231
egini	2232
undur	2233
kecel	2234
iswa	2235
baran	2236
elekt	2237
perke	2238
kete	2239
ebas	2240
akaan	2241
amu	2242
26	2243
28	2244
raf	2245
buat	2246
lus	2247
saing	2248
jarah	2249
antu	2250
tujuh	2251
titik	2252
isiko	2253
suatu	2254
ombes	2255
ediak	2256
fisi	2257
tokoh	2258
ahaya	2259
ena	2260
ont	2261
lahan	2262
nto	2263
ileg	2264
pir	2265
##ulu	2266
jaksa	2267
ey	2268
mbeli	2269
cu	2270
vs	2271
liun	2272
rata	2273
naw	2274
hadi	2275
akun	2276
agu	2277
alif	2278
sl	2279
kirak	2280
tf	2281
oro	2282
erkel	2283
warna	2284
ramad	2285
jatuh	2286
tar	2287
sif	2288
awan	2289
pulau	2290
eo	2291
mad	2292
tel	2293
istan	2294
peri	2295
ene	2296
ahan	2297
hing	2298
dakwa	2299
idu	2300
kim	2301
abu	2302
uz	2303
ansi	2304
atar	2305
kur	2306
arc	2307
gener	2308
memba	2309
ill	2310
awe	2311
mui	2312
oo	2313
isten	2314
ungai	2315
ngin	2316
enter	2317
bon	2318
minum	2319
ribad	2320
horm	2321
ien	2322
mud	2323
adil	2324
ort	2325
ncar	2326
grasi	2327
akbp	2328
orot	2329
emuda	2330
dakan	2331
erek	2332
misi	2333
arab	2334
dpd	2335
29	2336
orum	2337
alias	2338
etuju	2339
rbaik	2340
lir	2341
hakim	2342
adat	2343
uran	2344
kaian	2345
sang	2346
tis	2347
mpul	2348
der	2349
adu	2350
tps	2351
##kam	2352
agr	2353
##kp	2354
ore	2355
ou	2356
erm	2357
kau	2358
wati	2359
gus	2360
iti	2361
jur	2362
ensi	2363
pema	2364
utu	2365
nergi	2366
tl	2367
akui	2368
ekasi	2369
ejak	2370
iaga	2371
ean	2372
tion	2373
ez	2374
aktor	2375
emati	2376
simal	2377
emi	2378
adaan	2379
artaw	2380
unan	2381
raga	2382
nutup	2383
mun	2384
kabar	2385
ck	2386
bumn	2387
moh	2388
ols	2389
ov	2390
judi	2391
ingan	2392
mah	2393
boleh	2394
gar	2395
lay	2396
labuh	2397
fif	2398
sedia	2399
deb	2400
mc	2401
##jid	2402
ngha	2403
rjen	2404
##ono	2405
ikan	2406
ss	2407
ank	2408
nton	2409
utusk	2410
area	2411
kb	2412
ver	2413
dy	2414
berse	2415
musik	2416
ie	2417
##jib	2418
umi	2419
rag	2420
ation	2421
elah	2422
tha	2423
uf	2424
wajib	2425
asjid	2426
nja	2427
esak	2428
bila	2429
wal	2430
nak	2431
ekat	2432
basis	2433
rof	2434
edia	2435
tutup	2436
pkb	2437
gugat	2438
nen	2439
our	2440
isk	2441
lis	2442
una	2443
lagu	2444
ategi	2445
sari	2446
za	2447
sma	2448
iny	2449
ikn	2450
gro	2451
langg	2452
lm	2453
ayak	2454
nerap	2455
efek	2456
audi	2457
ih	2458
popul	2459
pon	2460
konfe	2461
libur	2462
dim	2463
edak	2464
ndali	2465
rangi	2466
llah	2467
krit	2468
tema	2469
ator	2470
kapa	2471
olsek	2472
nawar	2473
tform	2474
siapa	2475
kp	2476
ahkam	2477
ult	2478
sya	2479
##bo	2480
nalis	2481
wil	2482
uter	2483
iden	2484
reg	2485
kup	2486
jahte	2487
debat	2488
lurah	2489
aplik	2490
kla	2491
kelas	2492
kalim	2493
anah	2494
sini	2495
eny	2496
iro	2497
cc	2498
elas	2499
karya	2500
babak	2501
agram	2502
##anc	2503
nikah	2504
entar	2505
iyah	2506
rapat	2507
iet	2508
ukur	2509
evaku	2510
minal	2511
guh	2512
ncuri	2513
31	2514
ullah	2515
terj	2516
ern	2517
ld	2518
tud	2519
semen	2520
biaya	2521
ransi	2522
##zi	2523
pranc	2524
##din	2525
tren	2526
lanta	2527
memu	2528
pand	2529
rofes	2530
amat	2531
ame	2532
##gub	2533
berte	2534
ilgub	2535
ndra	2536
mping	2537
riz	2538
mudik	2539
##ade	2540
bera	2541
arga	2542
kutip	2543
olid	2544
india	2545
aik	2546
hil	2547
##ck	2548
darah	2549
eral	2550
etik	2551
##ine	2552
inyak	2553
wah	2554
filip	2555
arti	2556
edan	2557
kaya	2558
ilus	2559
pingi	2560
uta	2561
ork	2562
ard	2563
ereko	2564
keta	2565
ito	2566
stik	2567
aysia	2568
buruk	2569
nghi	2570
titus	2571
nov	2572
mega	2573
mpur	2574
enda	2575
ustr	2576
nggah	2577
egori	2578
andr	2579
by	2580
diu	2581
aket	2582
unggu	2583
akta	2584
tand	2585
etisi	2586
delap	2587
nv	2588
ona	2589
cek	2590
ialah	2591
sri	2592
reta	2593
onal	2594
ntut	2595
info	2596
putar	2597
cah	2598
ampus	2599
jemen	2600
jukan	2601
banon	2602
okan	2603
ndar	2604
engk	2605
uatan	2606
ht	2607
kena	2608
ohon	2609
ums	2610
imba	2611
fikan	2612
aja	2613
trad	2614
inato	2615
asw	2616
km	2617
seti	2618
oni	2619
sikap	2620
anji	2621
rok	2622
genc	2623
rastr	2624
tib	2625
kade	2626
pbd	2627
100	2628
aju	2629
jahat	2630
raan	2631
dur	2632
fak	2633
##ho	2634
ikl	2635
sih	2636
erl	2637
sial	2638
ury	2639
##kot	2640
idat	2641
ayor	2642
berl	2643
aswed	2644
signi	2645
ew	2646
nan	2647
rius	2648
ogja	2649
plo	2650
ntah	2651
ahulu	2652
arus	2653
ida	2654
mohon	2655
skor	2656
emkot	2657
##gp	2658
airl	2659
ekst	2660
iskus	2661
riah	2662
ender	2663
aes	2664
erv	2665
lum	2666
anita	2667
ice	2668
anksi	2669
awak	2670
hutan	2671
40	2672
ako	2673
tival	2674
eber	2675
itur	2676
nkum	2677
nti	2678
diti	2679
ions	2680
chi	2681
kiri	2682
##rak	2683
ilat	2684
ntuk	2685
atuh	2686
minim	2687
kank	2688
uth	2689
prof	2690
ragam	2691
ahli	2692
newas	2693
baya	2694
iring	2695
tlet	2696
ojo	2697
pus	2698
pram	2699
usun	2700
uriah	2701
bbc	2702
ustru	2703
kah	2704
paris	2705
esa	2706
ancar	2707
rud	2708
ekspo	2709
enior	2710
tele	2711
taw	2712
duh	2713
era	2714
oba	2715
sil	2716
rbit	2717
afri	2718
keber	2719
tir	2720
jelis	2721
otogp	2722
ktik	2723
ue	2724
##ge	2725
aky	2726
bakar	2727
kuad	2728
erak	2729
##pns	2730
ima	2731
yanto	2732
assa	2733
muka	2734
bei	2735
kader	2736
tabil	2737
lul	2738
mbil	2739
siang	2740
ayat	2741
##lar	2742
pek	2743
ning	2744
ngkit	2745
hasto	2746
parat	2747
ial	2748
cha	2749
migr	2750
rtimb	2751
esi	2752
pikir	2753
ft	2754
tam	2755
bagus	2756
cpns	2757
empa	2758
klaim	2759
ehari	2760
usl	2761
uddin	2762
sti	2763
kho	2764
sdm	2765
ncoba	2766
tom	2767
eman	2768
roni	2769
reng	2770
asih	2771
pks	2772
piade	2773
run	2774
ers	2775
vir	2776
nden	2777
redik	2778
old	2779
iii	2780
epeda	2781
ongso	2782
umsel	2783
idwan	2784
truk	2785
hip	2786
grup	2787
awesi	2788
mir	2789
oha	2790
jiwa	2791
terl	2792
ura	2793
02	2794
bumi	2795
inci	2796
ntrak	2797
eli	2798
igasi	2799
##gab	2800
arak	2801
lulus	2802
01	2803
tudi	2804
alisi	2805
mbul	2806
sore	2807
imbau	2808
ain	2809
ekor	2810
genda	2811
bud	2812
aham	2813
nutur	2814
pab	2815
ere	2816
sosok	2817
group	2818
dit	2819
micu	2820
ingga	2821
optim	2822
suk	2823
lans	2824
ariw	2825
thail	2826
akyat	2827
uslim	2828
ergab	2829
apak	2830
epar	2831
num	2832
amai	2833
enpa	2834
pajak	2835
jer	2836
ondo	2837
ei	2838
ord	2839
anyi	2840
uming	2841
ayah	2842
rmal	2843
ero	2844
rakab	2845
esan	2846
ary	2847
uci	2848
iga	2849
lai	2850
knis	2851
lp	2852
arjo	2853
abar	2854
impor	2855
aga	2856
merah	2857
ahasa	2858
emk	2859
udin	2860
konte	2861
rdeka	2862
rokok	2863
one	2864
ese	2865
nis	2866
adam	2867
sud	2868
emkab	2869
qu	2870
jual	2871
hamp	2872
mbulk	2873
eklar	2874
iq	2875
md	2876
nci	2877
taan	2878
rung	2879
peras	2880
rakir	2881
rom	2882
amil	2883
pakai	2884
berku	2885
angin	2886
panas	2887
ontra	2888
iang	2889
igr	2890
terke	2891
ander	2892
ajah	2893
nahan	2894
cam	2895
ngkar	2896
log	2897
esu	2898
esin	2899
eal	2900
temen	2901
minis	2902
iwan	2903
umur	2904
ug	2905
berpo	2906
otel	2907
ila	2908
tok	2909
uas	2910
yono	2911
eleb	2912
lun	2913
taf	2914
uluh	2915
top	2916
sam	2917
hat	2918
kin	2919
pet	2920
sura	2921
sepak	2922
ome	2923
rkir	2924
pesi	2925
memp	2926
ajuk	2927
akai	2928
logis	2929
ayar	2930
otif	2931
uw	2932
ped	2933
baca	2934
mbuh	2935
lem	2936
ingk	2937
shin	2938
asuki	2939
krea	2940
alnya	2941
arma	2942
mengh	2943
ail	2944
eto	2945
tv	2946
prod	2947
gub	2948
rama	2949
rto	2950
unga	2951
ursi	2952
real	2953
onto	2954
gra	2955
umsi	2956
saran	2957
nsum	2958
igran	2959
dul	2960
nten	2961
kbar	2962
alap	2963
ndari	2964
eja	2965
ike	2966
inkan	2967
ick	2968
you	2969
ink	2970
bint	2971
ntan	2972
mpa	2973
torat	2974
menda	2975
lola	2976
ayi	2977
andal	2978
vel	2979
ergi	2980
akal	2981
oli	2982
mprov	2983
ier	2984
itri	2985
juk	2986
zb	2987
renta	2988
bl	2989
maja	2990
lon	2991
mbar	2992
tre	2993
tuduh	2994
va	2995
ogo	2996
tara	2997
gur	2998
my	2999
ood	3000
lti	3001
kul	3002
pid	3003
robo	3004
utan	3005
ewi	3006
negak	3007
sena	3008
njau	3009
bung	3010
yah	3011
yawan	3012
aks	3013
inggi	3014
gang	3015
emua	3016
eku	3017
kes	3018
ruda	3019
ire	3020
lad	3021
ahnya	3022
gizi	3023
epat	3024
osko	3025
anja	3026
rahk	3027
03	3028
ltim	3029
harr	3030
anu	3031
ies	3032
anan	3033
ell	3034
brak	3035
lt	3036
vo	3037
mengo	3038
urna	3039
semi	3040
egala	3041
produ	3042
iak	3043
persi	3044
uruh	3045
reko	3046
cap	3047
rko	3048
yat	3049
yani	3050
raja	3051
egang	3052
ersis	3053
enny	3054
apan	3055
ska	3056
teng	3057
seni	3058
polit	3059
tin	3060
din	3061
akas	3062
ndri	3063
nap	3064
edit	3065
ntak	3066
rupa	3067
menca	3068
meran	3069
relaw	3070
kara	3071
dih	3072
lly	3073
mari	3074
atra	3075
zah	3076
berj	3077
emp	3078
ilit	3079
ental	3080
ect	3081
nsums	3082
sua	3083
dh	3084
ulau	3085
ale	3086
inaan	3087
mor	3088
ndai	3089
ance	3090
laim	3091
ct	3092
dig	3093
prin	3094
ach	3095
awa	3096
lf	3097
sla	3098
erisi	3099
siun	3100
dal	3101
ee	3102
atik	3103
uma	3104
rne	3105
gikan	3106
juru	3107
aca	3108
akr	3109
aran	3110
tanda	3111
sidi	3112
mbo	3113
uhu	3114
ear	3115
sub	3116
sha	3117
merek	3118
kt	3119
kasi	3120
##ne	3121
ampu	3122
efi	3123
alahk	3124
mosi	3125
bai	3126
lasi	3127
akp	3128
onald	3129
ika	3130
kepem	3131
hkan	3132
hami	3133
05	3134
beras	3135
rekam	3136
enak	3137
ndik	3138
iawan	3139
pers	3140
jau	3141
obil	3142
berw	3143
apas	3144
rusan	3145
ori	3146
emah	3147
untut	3148
aset	3149
ipta	3150
ive	3151
itus	3152
long	3153
##ce	3154
berp	3155
aria	3156
age	3157
kok	3158
bek	3159
tong	3160
bunuh	3161
nuk	3162
doa	3163
ujuk	3164
eksi	3165
arian	3166
samb	3167
asta	3168
06	3169
kus	3170
ich	3171
rit	3172
itra	3173
sual	3174
rig	3175
adir	3176
ide	3177
stor	3178
60	3179
dro	3180
aian	3181
kalan	3182
hib	3183
ujan	3184
ish	3185
leks	3186
spir	3187
gant	3188
ae	3189
dura	3190
ms	3191
red	3192
iper	3193
land	3194
ius	3195
ler	3196
ania	3197
unjuk	3198
akim	3199
emak	3200
okok	3201
muan	3202
rist	3203
hab	3204
aruh	3205
sut	3206
imin	3207
iau	3208
jian	3209
layan	3210
iset	3211
utin	3212
joe	3213
kor	3214
ui	3215
alis	3216
ure	3217
enal	3218
naman	3219
ibad	3220
resi	3221
fisik	3222
ea	3223
alin	3224
tuan	3225
iput	3226
ayaan	3227
uka	3228
imat	3229
perte	3230
rea	3231
ulan	3232
rkoba	3233
bs	3234
edu	3235
lukan	3236
nga	3237
rnia	3238
uksi	3239
ite	3240
tun	3241
pd	3242
diam	3243
gad	3244
tch	3245
sent	3246
eten	3247
line	3248
wid	3249
use	3250
abah	3251
ceo	3252
rlin	3253
asil	3254
bing	3255
bong	3256
oal	3257
adap	3258
teo	3259
amen	3260
##uri	3261
pengg	3262
awi	3263
jing	3264
lla	3265
mpr	3266
pis	3267
diy	3268
rip	3269
07	3270
bere	3271
ark	3272
itut	3273
onser	3274
04	3275
tb	3276
ric	3277
jaga	3278
seng	3279
pora	3280
cak	3281
ntb	3282
mula	3283
08	3284
dok	3285
hana	3286
jasa	3287
kop	3288
mbe	3289
dire	3290
eru	3291
aan	3292
sad	3293
keu	3294
berju	3295
yam	3296
nyi	3297
tata	3298
tadi	3299
tifik	3300
mog	3301
ntro	3302
rki	3303
ekno	3304
med	3305
emisi	3306
hm	3307
gres	3308
uhi	3309
kapan	3310
rasi	3311
ndata	3312
pemu	3313
rdi	3314
ital	3315
opi	3316
arung	3317
rgan	3318
sca	3319
rawan	3320
09	3321
##bi	3322
emar	3323
embat	3324
anal	3325
elar	3326
ongan	3327
imi	3328
lung	3329
een	3330
akat	3331
ulia	3332
ack	3333
gal	3334
bert	3335
sien	3336
umat	3337
nggi	3338
umpul	3339
ikin	3340
ruh	3341
ros	3342
enya	3343
elit	3344
pula	3345
waw	3346
ifik	3347
esain	3348
tk	3349
iaran	3350
sela	3351
##ind	3352
ond	3353
beru	3354
jad	3355
sna	3356
raj	3357
pany	3358
satu	3359
kk	3360
sir	3361
sasi	3362
smk	3363
ven	3364
gri	3365
seri	3366
adai	3367
iany	3368
andan	3369
gama	3370
impan	3371
iko	3372
apura	3373
lik	3374
pah	3375
##apa	3376
pera	3377
eksp	3378
rtai	3379
uah	3380
arno	3381
rie	3382
onis	3383
tinya	3384
sr	3385
inda	3386
nfir	3387
lora	3388
rukan	3389
ane	3390
terta	3391
xi	3392
puas	3393
spada	3394
ly	3395
rol	3396
rain	3397
luh	3398
sok	3399
artin	3400
ahar	3401
forma	3402
cs	3403
ewa	3404
##eku	3405
pit	3406
tut	3407
##th	3408
alas	3409
istik	3410
kseku	3411
pung	3412
we	3413
epi	3414
meme	3415
uto	3416
iam	3417
mon	3418
mbela	3419
jung	3420
nes	3421
dima	3422
arya	3423
mpah	3424
antik	3425
ait	3426
ihat	3427
kta	3428
dira	3429
nstr	3430
erkat	3431
itung	3432
tain	3433
dw	3434
iber	3435
oa	3436
tama	3437
rac	3438
ambu	3439
kro	3440
rul	3441
kew	3442
asp	3443
ndy	3444
awah	3445
kru	3446
rge	3447
rsit	3448
star	3449
anas	3450
riy	3451
ast	3452
ndas	3453
ngkas	3454
enko	3455
led	3456
umb	3457
ging	3458
uan	3459
ntri	3460
asin	3461
tral	3462
ayan	3463
gula	3464
ndera	3465
ruu	3466
mele	3467
ilo	3468
may	3469
hir	3470
pot	3471
unive	3472
van	3473
mbu	3474
amah	3475
agia	3476
erdas	3477
sun	3478
ideo	3479
jm	3480
tta	3481
erp	3482
ass	3483
asu	3484
inal	3485
aro	3486
ater	3487
lakuk	3488
dn	3489
diko	3490
teru	3491
arik	3492
onda	3493
hr	3494
out	3495
wna	3496
enar	3497
onf	3498
ppp	3499
kira	3500
ence	3501
lut	3502
teror	3503
teks	3504
bn	3505
iun	3506
rad	3507
ding	3508
egal	3509
wita	3510
urn	3511
eam	3512
oma	3513
ntas	3514
atis	3515
mpun	3516
ikat	3517
isis	3518
tya	3519
gelo	3520
lest	3521
esuai	3522
sias	3523
ede	3524
susu	3525
saha	3526
ams	3527
eco	3528
rema	3529
ibuan	3530
bersa	3531
ikir	3532
ulai	3533
aff	3534
imo	3535
angku	3536
dara	3537
king	3538
lom	3539
yap	3540
dium	3541
erapa	3542
eter	3543
eras	3544
##mp	3545
arto	3546
indak	3547
turn	3548
cok	3549
gul	3550
ll	3551
ahu	3552
lekt	3553
cet	3554
hmad	3555
sli	3556
sesi	3557
edera	3558
rya	3559
eland	3560
tae	3561
umah	3562
nada	3563
35	3564
rman	3565
nggel	3566
alik	3567
elum	3568
manya	3569
pss	3570
dup	3571
asan	3572
liter	3573
hap	3574
ij	3575
rkan	3576
day	3577
fl	3578
ndeng	3579
iru	3580
acu	3581
eret	3582
oho	3583
dina	3584
ost	3585
paya	3586
mbat	3587
bany	3588
pssi	3589
lumn	3590
gam	3591
anis	3592
ukan	3593
lari	3594
raksi	3595
bt	3596
meno	3597
dewa	3598
yur	3599
arana	3600
ota	3601
far	3602
##pi	3603
itusi	3604
ambat	3605
engge	3606
bil	3607
kter	3608
pons	3609
rtis	3610
ibi	3611
rate	3612
80	3613
hn	3614
jari	3615
enggu	3616
andu	3617
itia	3618
ead	3619
roli	3620
distr	3621
aim	3622
oda	3623
##js	3624
tris	3625
timal	3626
alim	3627
lig	3628
ulus	3629
puan	3630
rlind	3631
rgo	3632
peru	3633
nduk	3634
egas	3635
reka	3636
yangk	3637
ndika	3638
liar	3639
lob	3640
oyo	3641
alau	3642
iana	3643
ula	3644
menik	3645
aid	3646
rv	3647
mewa	3648
pere	3649
pura	3650
##nu	3651
elun	3652
ret	3653
omm	3654
ebak	3655
tkp	3656
pns	3657
alal	3658
70	3659
via	3660
arg	3661
orp	3662
agen	3663
thi	3664
khir	3665
ute	3666
ateri	3667
nald	3668
ewas	3669
gaya	3670
mda	3671
entu	3672
penda	3673
uro	3674
rr	3675
ktor	3676
hy	3677
erma	3678
oll	3679
njam	3680
ermin	3681
fan	3682
nut	3683
uli	3684
deral	3685
gn	3686
curi	3687
enu	3688
embu	3689
nsy	3690
arap	3691
emudi	3692
imis	3693
spor	3694
inar	3695
oran	3696
oso	3697
oj	3698
ugi	3699
rakt	3700
epo	3701
paran	3702
ukul	3703
urit	3704
itar	3705
dipa	3706
amal	3707
onor	3708
uel	3709
lini	3710
uju	3711
kanto	3712
bd	3713
sine	3714
jamin	3715
kinan	3716
anju	3717
adik	3718
ash	3719
ians	3720
bkn	3721
spa	3722
vasi	3723
eda	3724
asila	3725
odo	3726
eban	3727
enj	3728
stri	3729
bol	3730
dah	3731
oor	3732
tari	3733
inis	3734
ekas	3735
rest	3736
fung	3737
nh	3738
##bs	3739
##ena	3740
rpo	3741
ngaja	3742
dera	3743
iasa	3744
oy	3745
ujuan	3746
nggak	3747
##bn	3748
etah	3749
dwi	3750
nve	3751
unt	3752
ule	3753
kond	3754
ombo	3755
fungs	3756
ted	3757
ump	3758
nag	3759
ambah	3760
afp	3761
dud	3762
rab	3763
say	3764
idup	3765
erke	3766
ndam	3767
uki	3768
skus	3769
setia	3770
ming	3771
ye	3772
200	3773
voa	3774
dl	3775
##fi	3776
pln	3777
oris	3778
dali	3779
kn	3780
nai	3781
sin	3782
leh	3783
tt	3784
erto	3785
ndo	3786
ekal	3787
abup	3788
dm	3789
##aka	3790
nekan	3791
aut	3792
part	3793
rahan	3794
bbm	3795
integ	3796
aih	3797
elen	3798
mbina	3799
rtasi	3800
ffi	3801
get	3802
nasi	3803
ago	3804
odus	3805
etahu	3806
##co	3807
ami	3808
duduk	3809
caya	3810
mr	3811
aul	3812
ewan	3813
uali	3814
orm	3815
babk	3816
lv	3817
nz	3818
ssa	3819
hani	3820
sosia	3821
risti	3822
ntai	3823
nato	3824
32	3825
enti	3826
tm	3827
uda	3828
diku	3829
jadik	3830
terti	3831
aten	3832
psm	3833
500	3834
kej	3835
nder	3836
ngkal	3837
ray	3838
etika	3839
rsud	3840
rma	3841
berma	3842
eka	3843
prose	3844
cit	3845
##wo	3846
ahat	3847
ahana	3848
ision	3849
dus	3850
##hk	3851
shi	3852
tbk	3853
pemba	3854
##su	3855
ghan	3856
pele	3857
pertu	3858
tro	3859
mani	3860
ambi	3861
nia	3862
over	3863
ppn	3864
sung	3865
uha	3866
ndala	3867
dpc	3868
how	3869
ting	3870
ngar	3871
tip	3872
kian	3873
putra	3874
lobal	3875
igi	3876
ree	3877
lot	3878
apor	3879
ranc	3880
egar	3881
rsatu	3882
oco	3883
bm	3884
mand	3885
igit	3886
con	3887
aktu	3888
rial	3889
gia	3890
sit	3891
arna	3892
etiap	3893
can	3894
hin	3895
mara	3896
##ps	3897
keke	3898
rkas	3899
tekn	3900
cor	3901
ls	3902
rel	3903
##ii	3904
adin	3905
stin	3906
tangg	3907
siko	3908
ansa	3909
erpo	3910
dau	3911
akin	3912
unik	3913
nny	3914
sb	3915
sho	3916
##gaw	3917
spek	3918
syah	3919
mate	3920
kuk	3921
ncurk	3922
bpk	3923
mur	3924
adj	3925
situ	3926
sant	3927
kuh	3928
nim	3929
til	3930
ado	3931
adis	3932
ukkan	3933
iji	3934
niat	3935
jut	3936
ntt	3937
emu	3938
araw	3939
kw	3940
duan	3941
tunt	3942
fit	3943
ess	3944
rta	3945
ilaku	3946
moti	3947
ening	3948
imak	3949
ceh	3950
duka	3951
aba	3952
fic	3953
dasi	3954
kg	3955
teria	3956
terse	3957
legal	3958
nakan	3959
ode	3960
wasa	3961
kek	3962
sto	3963
presi	3964
rno	3965
evel	3966
isan	3967
pira	3968
kuran	3969
erti	3970
rim	3971
iman	3972
luncu	3973
kis	3974
usti	3975
garu	3976
psbs	3977
plt	3978
gak	3979
nand	3980
oka	3981
erima	3982
elem	3983
45	3984
tal	3985
terna	3986
risi	3987
36	3988
##ty	3989
lapa	3990
gir	3991
rwa	3992
usif	3993
90	3994
fri	3995
kak	3996
mpo	3997
nce	3998
uhnya	3999
ejar	4000
erse	4001
mbung	4002
lab	4003
ukar	4004
prov	4005
matik	4006
aun	4007
mm	4008
ahm	4009
engka	4010
ein	4011
ias	4012
mala	4013
vok	4014
nega	4015
mart	4016
nangk	4017
ereb	4018
vita	4019
teh	4020
aram	4021
mpe	4022
edik	4023
ruan	4024
nif	4025
cip	4026
seli	4027
ngis	4028
rdo	4029
kun	4030
ann	4031
ikap	4032
xx	4033
gemb	4034
ael	4035
pnm	4036
gis	4037
nata	4038
isar	4039
ompo	4040
putri	4041
buk	4042
adak	4043
indu	4044
ncob	4045
hel	4046
diber	4047
ngi	4048
enta	4049
saw	4050
abe	4051
enge	4052
car	4053
kang	4054
ses	4055
abung	4056
hop	4057
jemb	4058
pmi	4059
enand	4060
app	4061
abo	4062
arl	4063
ath	4064
elaka	4065
umpa	4066
okal	4067
asok	4068
ement	4069
ace	4070
solo	4071
yadi	4072
ampir	4073
edis	4074
ipe	4075
oin	4076
esti	4077
ppd	4078
dri	4079
ales	4080
ader	4081
lili	4082
gb	4083
lia	4084
ebo	4085
elat	4086
udy	4087
otal	4088
masan	4089
34	4090
gat	4091
rana	4092
valu	4093
berpe	4094
aker	4095
ahter	4096
obj	4097
tria	4098
ramp	4099
lomba	4100
lb	4101
ty	4102
ekam	4103
him	4104
usd	4105
ewat	4106
haya	4107
enaga	4108
moto	4109
ando	4110
obo	4111
nad	4112
ubu	4113
##rt	4114
sion	4115
atah	4116
mos	4117
che	4118
gim	4119
oi	4120
pm	4121
ple	4122
inv	4123
hol	4124
respo	4125
##he	4126
erc	4127
erus	4128
alkan	4129
##est	4130
elu	4131
oman	4132
smp	4133
sman	4134
anga	4135
puti	4136
##kpp	4137
nsyah	4138
pam	4139
inya	4140
anggi	4141
ora	4142
det	4143
trik	4144
csr	4145
ante	4146
lias	4147
edang	4148
motor	4149
dc	4150
mia	4151
keti	4152
sita	4153
let	4154
raha	4155
uy	4156
ony	4157
agam	4158
iras	4159
lamb	4160
tc	4161
tic	4162
koh	4163
mika	4164
ipil	4165
eus	4166
sida	4167
asc	4168
kna	4169
ys	4170
erb	4171
ksik	4172
gor	4173
rev	4174
osok	4175
ecam	4176
ugas	4177
lihan	4178
rmo	4179
bra	4180
rl	4181
nggo	4182
ipi	4183
ix	4184
rni	4185
seg	4186
pegaw	4187
ake	4188
arkan	4189
dor	4190
ose	4191
nek	4192
ikel	4193
omen	4194
manu	4195
isip	4196
onstr	4197
dat	4198
etap	4199
gp	4200
perc	4201
atr	4202
eleng	4203
rint	4204
75	4205
mran	4206
yal	4207
sia	4208
ungk	4209
keha	4210
ngko	4211
ansy	4212
bersi	4213
erna	4214
rop	4215
abi	4216
ampil	4217
irin	4218
endah	4219
uruan	4220
aia	4221
amer	4222
ahal	4223
mpu	4224
iapa	4225
nemp	4226
rsel	4227
300	4228
ega	4229
ebu	4230
stem	4231
tikan	4232
pembe	4233
etn	4234
kuhp	4235
piras	4236
rsa	4237
kot	4238
maj	4239
utar	4240
yaa	4241
dk	4242
gh	4243
tru	4244
uba	4245
tertu	4246
bara	4247
ngun	4248
isal	4249
emat	4250
maham	4251
lmu	4252
33	4253
38	4254
ngel	4255
mengi	4256
odi	4257
pad	4258
sn	4259
istr	4260
aum	4261
mew	4262
arte	4263
##omo	4264
uman	4265
ulik	4266
bpjs	4267
arda	4268
neka	4269
gon	4270
osa	4271
wni	4272
##wf	4273
nel	4274
eu	4275
hon	4276
kti	4277
adah	4278
anyu	4279
mark	4280
aa	4281
cana	4282
eran	4283
##uro	4284
ksp	4285
tuk	4286
itan	4287
epan	4288
suki	4289
arget	4290
iba	4291
##pb	4292
dkpp	4293
mnas	4294
pte	4295
div	4296
kol	4297
arasi	4298
emang	4299
lev	4300
pac	4301
anaan	4302
jutk	4303
kj	4304
fesi	4305
db	4306
mada	4307
als	4308
ashi	4309
ds	4310
ksa	4311
ts	4312
nget	4313
uruk	4314
otak	4315
utip	4316
cent	4317
yl	4318
onv	4319
jaw	4320
nant	4321
giri	4322
##pp	4323
berge	4324
nter	4325
ndek	4326
ngku	4327
ilan	4328
eder	4329
hli	4330
anpa	4331
erdi	4332
apur	4333
ilik	4334
ica	4335
rent	4336
katan	4337
aspad	4338
onfir	4339
bom	4340
dom	4341
radi	4342
rong	4343
ntal	4344
umbu	4345
pay	4346
ulk	4347
ataan	4348
ubar	4349
endam	4350
erluk	4351
bj	4352
cari	4353
u2	4354
amd	4355
gre	4356
omo	4357
engga	4358
bowo	4359
pbnu	4360
vent	4361
##fa	4362
erasa	4363
langk	4364
afi	4365
kedu	4366
njang	4367
uler	4368
nyar	4369
rangk	4370
ktt	4371
ppk	4372
arena	4373
bau	4374
tub	4375
olab	4376
sport	4377
cipta	4378
fli	4379
lk	4380
met	4381
ukt	4382
banda	4383
apbn	4384
aula	4385
ssi	4386
sai	4387
sed	4388
peme	4389
awat	4390
hang	4391
keba	4392
amera	4393
isw	4394
rov	4395
nsia	4396
yas	4397
ndon	4398
ilai	4399
spes	4400
ruk	4401
stu	4402
anat	4403
erko	4404
entif	4405
aban	4406
dag	4407
boli	4408
ongk	4409
rena	4410
krim	4411
iya	4412
ogis	4413
diga	4414
berm	4415
idi	4416
auh	4417
##hum	4418
anus	4419
versi	4420
len	4421
ulkan	4422
icu	4423
dz	4424
lli	4425
##ias	4426
##st	4427
diun	4428
law	4429
abes	4430
anyar	4431
hot	4432
iver	4433
oet	4434
tle	4435
pec	4436
sumb	4437
adem	4438
fest	4439
mpeti	4440
swa	4441
kont	4442
eusai	4443
wed	4444
##cc	4445
lee	4446
iter	4447
ibur	4448
taru	4449
ardi	4450
ism	4451
udar	4452
ao	4453
peg	4454
unj	4455
ange	4456
ask	4457
ume	4458
karan	4459
temba	4460
ehat	4461
euro	4462
jet	4463
terc	4464
terg	4465
nyal	4466
lana	4467
nara	4468
ebat	4469
thr	4470
anag	4471
aznas	4472
mna	4473
ve	4474
kos	4475
ntre	4476
usah	4477
komis	4478
55	4479
muk	4480
ste	4481
medi	4482
ngo	4483
erbi	4484
kaw	4485
nian	4486
enep	4487
romo	4488
pup	4489
erup	4490
eser	4491
##line	4492
vis	4493
aci	4494
dpw	4495
giias	4496
fu	4497
nline	4498
arj	4499
elan	4500
usa	4501
eki	4502
acar	4503
keru	4504
aniel	4505
antun	4506
alemb	4507
cr	4508
iat	4509
nung	4510
sila	4511
zo	4512
uling	4513
ompa	4514
jala	4515
sap	4516
keh	4517
eram	4518
ars	4519
manah	4520
jawab	4521
ror	4522
arm	4523
rans	4524
ml	4525
unr	4526
unda	4527
adan	4528
itb	4529
37	4530
cup	4531
nn	4532
wit	4533
endi	4534
asaan	4535
unrwa	4536
cia	4537
oga	4538
yasa	4539
yim	4540
arhum	4541
asit	4542
nentu	4543
erem	4544
lpg	4545
klu	4546
u1	4547
ze	4548
dio	4549
ahe	4550
bey	4551
upp	4552
alian	4553
nanda	4554
dha	4555
hok	4556
oot	4557
erbu	4558
ape	4559
mpi	4560
ngge	4561
rtang	4562
ermu	4563
ove	4564
tpn	4565
inj	4566
umas	4567
raw	4568
nvest	4569
fk	4570
pin	4571
ugu	4572
ngsi	4573
penya	4574
lega	4575
sebe	4576
gni	4577
pati	4578
uil	4579
wis	4580
ahap	4581
promo	4582
ntis	4583
kapol	4584
ktiv	4585
pupr	4586
erut	4587
agn	4588
esmi	4589
eat	4590
tag	4591
bet	4592
seks	4593
demik	4594
150	4595
tkn	4596
labor	4597
cl	4598
gah	4599
nir	4600
seo	4601
eria	4602
asak	4603
ekar	4604
semp	4605
dut	4606
unak	4607
erlu	4608
yol	4609
mic	4610
sand	4611
laras	4612
btn	4613
pur	4614
plik	4615
inum	4616
inti	4617
erce	4618
rian	4619
agak	4620
esar	4621
sanya	4622
250	4623
fik	4624
##os	4625
eruk	4626
urun	4627
able	4628
prote	4629
omin	4630
osis	4631
nerg	4632
obi	4633
bkp	4634
bjb	4635
bit	4636
ering	4637
pengh	4638
ikr	4639
timi	4640
time	4641
lusi	4642
rtas	4643
sisw	4644
nsu	4645
lg	4646
perp	4647
iska	4648
rido	4649
jay	4650
omba	4651
nator	4652
unya	4653
ppdb	4654
eas	4655
fr	4656
who	4657
ekr	4658
polri	4659
limp	4660
capai	4661
gali	4662
erol	4663
ors	4664
orit	4665
onfe	4666
rsita	4667
nge	4668
erhi	4669
ahas	4670
att	4671
beli	4672
seru	4673
hp	4674
akh	4675
rnama	4676
azar	4677
ior	4678
pg	4679
siat	4680
aif	4681
ront	4682
kkb	4683
xxi	4684
badi	4685
mbon	4686
usk	4687
ebera	4688
samp	4689
ormas	4690
gl	4691
hulu	4692
err	4693
##uran	4694
enis	4695
olu	4696
awati	4697
ajib	4698
##ira	4699
timb	4700
mutus	4701
avi	4702
shop	4703
41	4704
ipa	4705
tna	4706
umpu	4707
redi	4708
udan	4709
yoy	4710
meras	4711
temp	4712
iza	4713
mg	4714
zat	4715
ndat	4716
gend	4717
ifika	4718
aitan	4719
bir	4720
nua	4721
tuh	4722
angs	4723
ald	4724
atl	4725
upat	4726
patu	4727
form	4728
ock	4729
ihara	4730
aat	4731
eor	4732
nind	4733
owo	4734
hyb	4735
eek	4736
gk	4737
gil	4738
uai	4739
syl	4740
gy	4741
hara	4742
ibut	4743
nerj	4744
ifa	4745
luhan	4746
iw	4747
jin	4748
aret	4749
max	4750
sten	4751
opo	4752
kapal	4753
ugm	4754
aikan	4755
cer	4756
jus	4757
zin	4758
lian	4759
upak	4760
esal	4761
evi	4762
memas	4763
iss	4764
naf	4765
haru	4766
ull	4767
kung	4768
lko	4769
rini	4770
erj	4771
arko	4772
alita	4773
orb	4774
kret	4775
araan	4776
rmati	4777
sdn	4778
muni	4779
ovi	4780
dung	4781
oel	4782
teri	4783
ole	4784
ndi	4785
esg	4786
melih	4787
mest	4788
aiman	4789
bap	4790
fid	4791
uj	4792
wang	4793
peti	4794
uno	4795
akwa	4796
inde	4797
tumb	4798
encar	4799
phk	4800
kasa	4801
tung	4802
eluru	4803
udik	4804
bos	4805
khu	4806
tori	4807
aspen	4808
##eni	4809
njal	4810
hool	4811
mt	4812
erta	4813
mini	4814
ibuk	4815
igh	4816
arun	4817
memak	4818
illa	4819
okus	4820
warg	4821
off	4822
walk	4823
fun	4824
kib	4825
inn	4826
##one	4827
atin	4828
ukun	4829
39	4830
dd	4831
jid	4832
ldi	4833
menuh	4834
ektif	4835
spbu	4836
rku	4837
usik	4838
buru	4839
gara	4840
ert	4841
arum	4842
##ona	4843
reat	4844
rob	4845
abor	4846
kpps	4847
rkira	4848
sse	4849
yana	4850
tep	4851
iso	4852
okyo	4853
##log	4854
byd	4855
bc	4856
kd	4857
tmen	4858
perw	4859
pener	4860
atak	4861
emik	4862
raks	4863
este	4864
lhk	4865
uing	4866
entr	4867
els	4868
riw	4869
asik	4870
penyi	4871
tribu	4872
untun	4873
smail	4874
oti	4875
tn	4876
uala	4877
yen	4878
##dn	4879
syar	4880
febr	4881
jutan	4882
etapa	4883
gt	4884
iasi	4885
jl	4886
yi	4887
zu	4888
##ze	4889
enat	4890
rakan	4891
egan	4892
psim	4893
adapi	4894
44	4895
hai	4896
erja	4897
ilak	4898
lita	4899
tres	4900
dpo	4901
hamm	4902
43	4903
yn	4904
##bt	4905
tia	4906
nte	4907
atkan	4908
impi	4909
seper	4910
atim	4911
enyu	4912
65	4913
aq	4914
ged	4915
itif	4916
mim	4917
pc	4918
sist	4919
400	4920
##gh	4921
berg	4922
ngnya	4923
akse	4924
ente	4925
olt	4926
ntra	4927
adio	4928
ilip	4929
42	4930
kia	4931
wai	4932
asti	4933
oke	4934
enci	4935
taran	4936
mai	4937
rhat	4938
##pd	4939
mbun	4940
rau	4941
nolog	4942
suv	4943
bsd	4944
cang	4945
ngung	4946
erw	4947
arr	4948
laya	4949
ubuh	4950
natur	4951
pusat	4952
runa	4953
ktp	4954
dmin	4955
bela	4956
ego	4957
uhkan	4958
klim	4959
u23	4960
bpn	4961
rar	4962
yer	4963
ande	4964
asem	4965
48	4966
fek	4967
hk	4968
nko	4969
unkan	4970
bag	4971
manat	4972
ggo	4973
rdak	4974
sme	4975
endo	4976
pant	4977
isian	4978
ajuan	4979
hor	4980
##wn	4981
ebi	4982
ebutk	4983
afa	4984
ova	4985
erson	4986
bnn	4987
nta	4988
inus	4989
mbia	4990
iket	4991
semb	4992
hay	4993
meru	4994
daran	4995
bps	4996
adirk	4997
mut	4998
peta	4999
