<unk>	0
<s>	0
</s>	0
an	-0
▁a	-1
▁m	-2
▁d	-3
▁an	-4
▁k	-5
er	-6
▁i	-7
▁s	-8
▁n	-9
▁p	-10
en	-11
▁t	-12
▁,	-13
▁b	-14
ar	-15
▁u	-16
la	-17
▁.	-18
▁r	-19
at	-20
ang	-21
▁di	-22
as	-23
ak	-24
▁P	-25
▁e	-26
▁o	-27
ya	-28
▁me	-29
▁se	-30
▁S	-31
▁men	-32
tu	-33
▁K	-34
ah	-35
▁2	-36
▁l	-37
in	-38
al	-39
▁ke	-40
▁h	-41
▁y	-42
si	-43
ga	-44
▁in	-45
▁j	-46
ad	-47
ta	-48
▁yang	-49
▁B	-50
▁A	-51
▁M	-52
▁dan	-53
▁kan	-54
▁0	-55
▁pe	-56
▁un	-57
un	-58
▁-	-59
am	-60
▁ter	-61
▁la	-62
▁D	-63
▁ber	-64
▁nya	-65
eng	-66
▁g	-67
▁T	-68
▁J	-69
▁1	-70
ik	-71
▁"	-72
▁I	-73
▁ng	-74
uk	-75
▁c	-76
▁er	-77
il	-78
▁(	-79
▁)	-80
ap	-81
▁te	-82
▁R	-83
ut	-84
ala	-85
▁ak	-86
▁ti	-87
▁4	-88
ari	-89
ur	-90
▁ar	-91
▁ang	-92
us	-93
on	-94
um	-95
▁meng	-96
ara	-97
or	-98
ada	-99
▁w	-100
it	-101
is	-102
▁per	-103
es	-104
tuk	-105
ih	-106
▁mb	-107
ing	-108
ma	-109
▁untuk	-110
▁Ke	-111
▁pada	-112
▁ba	-113
ir	-114
▁H	-115
ti	-116
da	-117
ab	-118
▁en	-119
om	-120
mb	-121
▁N	-122
alam	-123
▁ah	-124
▁al	-125
▁deng	-126
▁W	-127
▁ini	-128
▁itu	-129
▁ne	-130
▁G	-131
▁ol	-132
mp	-133
▁/	-134
▁dari	-135
el	-136
▁C	-137
lah	-138
▁Se	-139
▁L	-140
▁is	-141
▁mas	-142
▁ap	-143
▁nt	-144
▁In	-145
▁pen	-146
ata	-147
▁si	-148
gi	-149
▁U	-150
▁dalam	-151
ek	-152
▁ngk	-153
▁or	-154
wa	-155
▁nj	-156
▁at	-157
sia	-158
▁nd	-159
▁3	-160
ul	-161
ai	-162
ri	-163
▁ta	-164
ia	-165
asi	-166
ung	-167
▁f	-168
▁mp	-169
aya	-170
▁as	-171
adi	-172
▁us	-173
uh	-174
do	-175
▁ko	-176
▁mem	-177
▁ung	-178
ud	-179
dak	-180
▁Pe	-181
▁seb	-182
▁ju	-183
eb	-184
▁F	-185
▁5	-186
▁ad	-187
▁ur	-188
ali	-189
▁ing	-190
▁tidak	-191
ukan	-192
eri	-193
▁sa	-194
▁uk	-195
te	-196
ro	-197
up	-198
ra	-199
ana	-200
gai	-201
▁telah	-202
ua	-203
▁:	-204
▁meny	-205
▁tah	-206
▁il	-207
▁Indo	-208
▁it	-209
▁tak	-210
▁sebut	-211
▁ri	-212
▁E	-213
▁na	-214
▁nesia	-215
▁akan	-216
▁re	-217
▁ik	-218
▁on	-219
lu	-220
ja	-221
▁kata	-222
▁Me	-223
▁ant	-224
▁asi	-225
▁bagai	-226
▁ro	-227
▁ek	-228
▁em	-229
sa	-230
▁menga	-231
▁peng	-232
▁um	-233
▁9	-234
nn	-235
▁jp	-236
▁jpnn	-237
▁v	-238
eh	-239
▁juga	-240
im	-241
▁id	-242
▁com	-243
▁WI	-244
ter	-245
▁ela	-246
re	-247
▁bah	-248
ok	-249
▁WIB	-250
▁atu	-251
▁takan	-252
▁7	-253
ama	-254
gar	-255
▁6	-256
▁mend	-257
▁had	-258
to	-259
▁orang	-260
▁el	-261
ami	-262
▁kar	-263
▁kukan	-264
▁Ko	-265
▁O	-266
▁8	-267
▁har	-268
abu	-269
▁pem	-270
isi	-271
▁mu	-272
▁njadi	-273
▁li	-274
▁ada	-275
ingg	-276
▁rak	-277
▁Per	-278
▁tu	-279
eka	-280
▁tahun	-281
▁am	-282
▁saat	-283
▁ab	-284
▁amp	-285
▁bahwa	-286
▁aw	-287
▁any	-288
▁ata	-289
ka	-290
▁nc	-291
▁mela	-292
ebih	-293
▁oleh	-294
▁int	-295
▁po	-296
▁st	-297
▁ngg	-298
▁ereka	-299
se	-300
▁bis	-301
▁bel	-302
jar	-303
▁ra	-304
▁nur	-305
▁lalu	-306
id	-307
et	-308
▁ion	-309
me	-310
▁ka	-311
▁lebih	-312
▁Y	-313
ub	-314
▁bisa	-315
▁ngkat	-316
▁sama	-317
ila	-318
▁le	-319
▁atau	-320
▁ok	-321
▁bar	-322
akar	-323
udah	-324
arga	-325
▁eg	-326
ita	-327
▁itas	-328
▁hadap	-329
▁ngkap	-330
▁ku	-331
▁hingg	-332
tap	-333
▁ional	-334
▁Jakar	-335
▁mil	-336
nya	-337
▁ed	-338
▁dap	-339
AR	-340
▁rb	-341
ju	-342
gu	-343
▁han	-344
esar	-345
▁rakat	-346
asa	-347
asil	-348
▁ul	-349
▁Ma	-350
ol	-351
▁min	-352
▁apa	-353
▁Di	-354
▁ib	-355
aha	-356
▁pro	-357
▁rup	-358
▁de	-359
▁dia	-360
▁up	-361
▁cara	-362
▁intah	-363
▁anyak	-364
▁ala	-365
▁sudah	-366
▁ud	-367
▁An	-368
▁belum	-369
▁kare	-370
kan	-371
tama	-372
▁amb	-373
ku	-374
▁bu	-375
▁ub	-376
▁gr	-377
▁baru	-378
▁hari	-379
▁eng	-380
▁ian	-381
▁sid	-382
▁ser	-383
▁ut	-384
▁negar	-385
ran	-386
alah	-387
▁mene	-388
▁masya	-389
mi	-390
▁menj	-391
▁adal	-392
▁Kota	-393
▁eb	-394
ati	-395
▁besar	-396
▁para	-397
and	-398
▁kami	-399
▁lu	-400
ika	-401
▁ker	-402
▁mpat	-403
TA	-404
alan	-405
▁Pen	-406
▁man	-407
▁dip	-408
jak	-409
▁dapat	-410
▁peny	-411
tai	-412
▁be	-413
▁siden	-414
hir	-415
uka	-416
▁lo	-417
▁memb	-418
▁gun	-419
▁menc	-420
▁pun	-421
▁ma	-422
▁jadi	-423
▁es	-424
wan	-425
awa	-426
▁meni	-427
▁bagi	-428
▁lama	-429
▁tetap	-430
▁lang	-431
▁ukung	-432
▁serta	-433
▁mberi	-434
▁mo	-435
▁ay	-436
▁nteri	-437
▁pat	-438
▁V	-439
▁dila	-440
▁kom	-441
▁ac	-442
▁pemer	-443
men	-444
▁pend	-445
▁anak	-446
▁AS	-447
▁tur	-448
▁hasil	-449
▁ampai	-450
▁Sen	-451
▁lat	-452
▁ya	-453
▁imp	-454
▁im	-455
▁ujar	-456
▁pa	-457
▁beb	-458
pa	-459
▁anj	-460
▁KAR	-461
▁mber	-462
▁ga	-463
▁KARTA	-464
▁Kam	-465
▁kon	-466
▁perti	-467
ve	-468
▁ungan	-469
▁umlah	-470
▁ban	-471
ko	-472
▁baik	-473
iki	-474
▁tan	-475
▁JA	-476
▁nurut	-477
▁et	-478
▁da	-479
▁angan	-480
▁paten	-481
▁elasa	-482
▁nom	-483
ha	-484
▁kas	-485
▁and	-486
▁rban	-487
▁Rabu	-488
ke	-489
▁harus	-490
▁Dia	-491
umah	-492
▁dis	-493
erah	-494
▁mbang	-495
▁akhir	-496
▁gram	-497
▁Senin	-498
▁usaha	-499
▁ep	-500
ihak	-501
▁pemb	-502
▁agi	-503
▁Kamis	-504
▁dua	-505
▁rupak	-506
▁apat	-507
▁ic	-508
go	-509
▁lit	-510
▁Sa	-511
▁DP	-512
ni	-513
▁menye	-514
ses	-515
▁masuk	-516
res	-517
▁Ber	-518
ji	-519
▁Pre	-520
▁warga	-521
ina	-522
▁wak	-523
arat	-524
▁Kabu	-525
▁nas	-526
▁kel	-527
▁beber	-528
▁Jum	-529
▁Jumat	-530
▁Ka	-531
▁antar	-532
▁Pro	-533
▁masih	-534
▁mak	-535
▁lur	-536
▁lan	-537
▁ir	-538
▁ind	-539
▁aerah	-540
gus	-541
▁osi	-542
▁yan	-543
tua	-544
aga	-545
▁saya	-546
▁erang	-547
tr	-548
▁Ba	-549
▁pihak	-550
▁iliki	-551
▁tr	-552
▁Tim	-553
▁nggal	-554
▁artai	-555
▁ny	-556
▁lalui	-557
▁nu	-558
ba	-559
▁atas	-560
amp	-561
▁ntara	-562
▁langs	-563
▁so	-564
▁mena	-565
▁ari	-566
▁salah	-567
▁rs	-568
▁Jawa	-569
man	-570
▁op	-571
▁Bali	-572
▁laku	-573
▁jalan	-574
▁sra	-575
ukum	-576
▁hanya	-577
amun	-578
ilay	-579
tor	-580
▁srael	-581
▁La	-582
▁rumah	-583
▁pala	-584
▁mel	-585
PK	-586
▁masi	-587
▁mengu	-588
▁ntang	-589
▁su	-590
hat	-591
▁ja	-592
▁ha	-593
▁tim	-594
▁Ch	-595
▁angat	-596
▁inggu	-597
bat	-598
▁ag	-599
▁Pr	-600
▁Ketua	-601
ep	-602
asar	-603
▁res	-604
▁gel	-605
lai	-606
▁kait	-607
▁z	-608
▁menu	-609
▁hal	-610
sk	-611
▁mbali	-612
▁impin	-613
▁Ta	-614
▁kali	-615
▁kerja	-616
▁no	-617
▁hadir	-618
▁uara	-619
▁but	-620
▁agian	-621
▁ia	-622
▁mana	-623
▁gi	-624
▁olisi	-625
▁wo	-626
▁ten	-627
lik	-628
▁luruh	-629
▁kasus	-630
▁buah	-631
▁kita	-632
▁Te	-633
▁isi	-634
tik	-635
▁unia	-636
▁kit	-637
▁atang	-638
gas	-639
▁lih	-640
▁Pil	-641
▁to	-642
▁rang	-643
▁wilay	-644
▁pu	-645
▁bantu	-646
▁rja	-647
ea	-648
▁ni	-649
▁Ter	-650
▁enang	-651
dua	-652
▁Kami	-653
han	-654
▁ger	-655
▁PP	-656
▁nila	-657
▁alon	-658
▁Rp	-659
▁kitar	-660
▁latan	-661
▁nting	-662
▁ikut	-663
▁Peng	-664
itas	-665
▁ki	-666
▁ip	-667
▁dang	-668
▁nilai	-669
ini	-670
▁utu	-671
▁sehat	-672
▁Sab	-673
▁'	-674
▁Sabtu	-675
▁bi	-676
▁ks	-677
▁idik	-678
▁rima	-679
▁lain	-680
▁Des	-681
▁angun	-682
▁Namun	-683
▁PT	-684
ong	-685
▁mulai	-686
▁Un	-687
▁por	-688
▁mper	-689
▁menge	-690
dia	-691
▁Bo	-692
▁ho	-693
▁luar	-694
abo	-695
▁Barat	-696
▁pre	-697
st	-698
▁hukum	-699
▁uang	-700
▁gunak	-701
▁Sur	-702
▁Keme	-703
▁dite	-704
▁rtama	-705
▁Prabo	-706
▁terus	-707
▁pela	-708
mber	-709
na	-710
▁emp	-711
▁kem	-712
▁Pem	-713
▁rsen	-714
▁angka	-715
▁ngga	-716
li	-717
▁uc	-718
▁gelar	-719
ed	-720
iri	-721
▁yak	-722
▁sem	-723
▁lihat	-724
▁af	-725
▁mbu	-726
▁tif	-727
▁agar	-728
▁jab	-729
▁kr	-730
tem	-731
▁tiga	-732
▁nyata	-733
▁isasi	-734
udi	-735
▁iri	-736
▁ara	-737
▁nding	-738
▁air	-739
▁pan	-740
▁ibu	-741
▁was	-742
▁Ini	-743
de	-744
▁upaya	-745
▁arang	-746
▁Le	-747
▁om	-748
di	-749
▁tika	-750
▁memp	-751
▁Am	-752
▁Re	-753
▁Ga	-754
▁ema	-755
▁inf	-756
ani	-757
▁nf	-758
▁minta	-759
▁kec	-760
▁idang	-761
▁ncana	-762
▁keter	-763
▁kese	-764
▁kep	-765
▁semua	-766
▁ru	-767
amb	-768
▁litik	-769
▁Mar	-770
▁mbuat	-771
▁Dalam	-772
wat	-773
pan	-774
▁asang	-775
▁tahu	-776
▁bul	-777
▁rn	-778
▁innya	-779
▁ters	-780
▁cam	-781
▁unc	-782
▁anjut	-783
▁kedua	-784
▁utama	-785
▁Z	-786
▁harga	-787
ank	-788
▁nomi	-789
▁ngah	-790
uli	-791
uber	-792
▁RI	-793
tar	-794
wi	-795
bu	-796
▁kota	-797
mad	-798
tur	-799
▁ran	-800
▁tingg	-801
▁ong	-802
las	-803
▁Ra	-804
▁roses	-805
▁ner	-806
▁depan	-807
▁nang	-808
▁milih	-809
▁dib	-810
▁ersi	-811
▁ati	-812
AN	-813
▁pas	-814
▁Band	-815
▁ahkan	-816
▁osial	-817
▁guna	-818
▁omp	-819
aku	-820
▁anc	-821
▁Ha	-822
▁elain	-823
▁anggo	-824
▁emil	-825
▁sej	-826
▁giat	-827
hi	-828
ki	-829
▁abaya	-830
▁lagi	-831
▁Kom	-832
▁kons	-833
▁Agus	-834
▁rik	-835
▁ikasi	-836
▁rod	-837
tri	-838
▁bulan	-839
▁harap	-840
▁je	-841
rans	-842
▁sp	-843
▁pak	-844
▁Saya	-845
▁roduk	-846
▁olo	-847
▁emilu	-848
▁bat	-849
▁yanan	-850
▁Pilka	-851
▁lah	-852
▁China	-853
▁ingin	-854
▁No	-855
▁apai	-856
▁waktu	-857
▁aksi	-858
▁keb	-859
▁lawan	-860
▁mempe	-861
▁Al	-862
▁asal	-863
▁manan	-864
▁ksana	-865
oto	-866
▁tugas	-867
▁emain	-868
▁Pada	-869
▁ina	-870
▁njuk	-871
▁lin	-872
▁if	-873
▁diri	-874
▁Dir	-875
▁umum	-876
▁rd	-877
▁str	-878
▁acara	-879
ca	-880
nas	-881
▁gas	-882
adan	-883
mpu	-884
▁rat	-885
▁ndak	-886
▁sak	-887
▁DPR	-888
▁engah	-889
▁dise	-890
▁Nas	-891
▁sejak	-892
za	-893
▁rasa	-894
▁tang	-895
anti	-896
▁gen	-897
▁ingat	-898
if	-899
▁antan	-900
▁camat	-901
▁Ku	-902
MK	-903
▁ndiri	-904
▁oko	-905
▁okasi	-906
▁Ameri	-907
▁10	-908
▁Ru	-909
▁alami	-910
▁uarga	-911
▁ken	-912
▁rap	-913
▁mer	-914
▁hub	-915
▁nama	-916
▁for	-917
▁awal	-918
▁penga	-919
▁akti	-920
▁rempu	-921
▁puk	-922
▁olda	-923
▁jen	-924
▁?	-925
▁vin	-926
▁war	-927
▁ns	-928
▁pene	-929
▁hi	-930
▁erada	-931
▁Sum	-932
▁De	-933
▁nar	-934
▁siap	-935
▁pil	-936
▁mar	-937
▁hak	-938
▁Li	-939
▁par	-940
▁ublik	-941
▁Kar	-942
▁antor	-943
▁ukti	-944
▁usat	-945
▁aj	-946
▁Ok	-947
▁wasan	-948
no	-949
ent	-950
▁perta	-951
▁saja	-952
▁[	-953
▁sk	-954
▁empat	-955
▁olres	-956
▁und	-957
▁wan	-958
▁menya	-959
▁malam	-960
▁]	-961
▁KP	-962
▁Ap	-963
▁ompok	-964
▁eko	-965
uj	-966
▁ndara	-967
▁Direk	-968
▁elask	-969
▁ilih	-970
▁ucap	-971
▁jabat	-972
▁mi	-973
▁eks	-974
▁hid	-975
▁lap	-976
▁dasar	-977
▁media	-978
▁sis	-979
▁eti	-980
▁erita	-981
▁ani	-982
▁juta	-983
▁diper	-984
▁uh	-985
▁ana	-986
uru	-987
▁dil	-988
atim	-989
▁Rusia	-990
▁Men	-991
▁wakil	-992
▁Hal	-993
▁hen	-994
▁tor	-995
▁ngaku	-996
▁masa	-997
▁mukan	-998
▁Um	-999
▁Jadi	-1000
san	-1001
▁rio	-1002
▁vinsi	-1003
▁rg	-1004
▁Ti	-1005
▁aftar	-1006
▁iksa	-1007
▁Pemer	-1008
▁du	-1009
▁resmi	-1010
▁Ci	-1011
▁yakni	-1012
le	-1013
▁bukan	-1014
bil	-1015
▁rus	-1016
tus	-1017
▁inter	-1018
▁Okto	-1019
▁aling	-1020
▁ntu	-1021
▁Oktob	-1022
▁PD	-1023
▁ent	-1024
▁Be	-1025
▁lek	-1026
▁njung	-1027
▁soal	-1028
▁ev	-1029
▁icara	-1030
▁neg	-1031
he	-1032
▁ambar	-1033
▁aya	-1034
alau	-1035
▁Agust	-1036
▁ben	-1037
▁panj	-1038
▁dike	-1039
▁Umum	-1040
▁PB	-1041
▁rek	-1042
▁rin	-1043
▁Guber	-1044
▁ambil	-1045
▁sar	-1046
▁astik	-1047
▁Sem	-1048
▁trans	-1049
ale	-1050
po	-1051
▁ngkah	-1052
▁do	-1053
▁arah	-1054
lo	-1055
▁Pol	-1056
▁ampak	-1057
▁PS	-1058
▁Tah	-1059
▁les	-1060
▁ling	-1061
ver	-1062
▁ef	-1063
▁Juli	-1064
▁rt	-1065
▁ec	-1066
▁Nove	-1067
▁kemud	-1068
was	-1069
▁Wak	-1070
▁Wakil	-1071
▁ndisi	-1072
▁jelas	-1073
▁Pale	-1074
▁logi	-1075
▁Tahun	-1076
▁lapor	-1077
▁hanan	-1078
▁sek	-1079
uni	-1080
▁egara	-1081
▁Mu	-1082
▁lam	-1083
▁Tr	-1084
▁nomor	-1085
oko	-1086
▁laga	-1087
▁os	-1088
▁poran	-1089
▁imb	-1090
▁kibat	-1091
▁kanan	-1092
▁nggap	-1093
▁okowi	-1094
NI	-1095
▁masal	-1096
▁ustri	-1097
▁milik	-1098
▁Semar	-1099
▁Kap	-1100
▁sitas	-1101
▁tek	-1102
▁ig	-1103
▁milit	-1104
▁Sep	-1105
▁Gaza	-1106
▁leng	-1107
▁entuk	-1108
▁anye	-1109
▁egi	-1110
▁Seme	-1111
▁Yo	-1112
nis	-1113
▁istem	-1114
▁penye	-1115
▁Pa	-1116
▁itmen	-1117
▁njukk	-1118
▁PPPK	-1119
▁uga	-1120
aat	-1121
▁njata	-1122
▁jam	-1123
▁kepe	-1124
gor	-1125
▁Pas	-1126
▁nfaat	-1127
▁mpung	-1128
▁Perta	-1129
▁ngkin	-1130
▁sing	-1131
▁keras	-1132
▁gung	-1133
▁hidup	-1134
▁pukul	-1135
▁Foto	-1136
▁benar	-1137
▁Bogor	-1138
▁sur	-1139
▁KPU	-1140
▁ist	-1141
ampu	-1142
▁mampu	-1143
▁bak	-1144
▁Ut	-1145
▁Peny	-1146
▁imnas	-1147
▁akar	-1148
▁Badan	-1149
▁juang	-1150
▁Utara	-1151
▁dita	-1152
▁tiap	-1153
▁Sta	-1154
▁wa	-1155
▁orong	-1156
▁Jalan	-1157
▁ot	-1158
▁erah	-1159
▁nal	-1160
▁rupsi	-1161
▁kamp	-1162
▁kad	-1163
PN	-1164
▁makin	-1165
▁Desa	-1166
▁ili	-1167
▁Juni	-1168
▁suai	-1169
▁tensi	-1170
▁pena	-1171
▁musi	-1172
▁lima	-1173
▁ren	-1174
▁Jan	-1175
▁20	-1176
▁did	-1177
▁lingk	-1178
▁Septe	-1179
▁kolah	-1180
▁PDI	-1181
▁jika	-1182
▁ula	-1183
▁batas	-1184
▁dak	-1185
▁Dese	-1186
▁naik	-1187
▁Mei	-1188
▁ember	-1189
abar	-1190
▁peni	-1191
▁ribu	-1192
▁usia	-1193
▁nda	-1194
▁nit	-1195
▁latih	-1196
▁njaga	-1197
▁Muh	-1198
▁penge	-1199
▁aku	-1200
▁aup	-1201
▁nggar	-1202
▁nusia	-1203
▁ateng	-1204
▁ukai	-1205
RI	-1206
▁Janu	-1207
▁Po	-1208
▁kuat	-1209
▁oper	-1210
▁rsi	-1211
ng	-1212
▁X	-1213
ho	-1214
▁egeri	-1215
▁tahui	-1216
▁umber	-1217
▁gu	-1218
▁mobil	-1219
▁nited	-1220
▁emb	-1221
ril	-1222
▁otor	-1223
▁cep	-1224
▁Hari	-1225
▁iz	-1226
▁infor	-1227
ump	-1228
▁inte	-1229
▁rk	-1230
▁aupun	-1231
▁ins	-1232
▁April	-1233
KB	-1234
▁dam	-1235
▁kap	-1236
▁bijak	-1237
▁Seb	-1238
▁put	-1239
▁rah	-1240
▁laman	-1241
▁rnah	-1242
▁penc	-1243
▁strik	-1244
▁KPK	-1245
▁yai	-1246
▁Ada	-1247
▁isata	-1248
▁Si	-1249
▁tentu	-1250
▁he	-1251
▁lengg	-1252
▁kini	-1253
▁komp	-1254
▁inasi	-1255
▁Muha	-1256
▁jar	-1257
▁perlu	-1258
▁alam	-1259
▁buka	-1260
▁mang	-1261
▁mbawa	-1262
▁ji	-1263
▁ulang	-1264
▁Tu	-1265
▁intas	-1266
lin	-1267
▁eni	-1268
▁ej	-1269
▁lamat	-1270
▁aka	-1271
▁urang	-1272
▁omisi	-1273
▁ons	-1274
▁duga	-1275
▁ugaan	-1276
▁ritas	-1277
gr	-1278
NG	-1279
▁Liga	-1280
▁cepat	-1281
▁inisi	-1282
rai	-1283
▁hus	-1284
▁siswa	-1285
▁Trump	-1286
▁rikat	-1287
▁upati	-1288
▁Uk	-1289
▁ral	-1290
▁Kem	-1291
▁Asia	-1292
▁Maret	-1293
▁Ukrai	-1294
▁12	-1295
▁tuju	-1296
▁bo	-1297
▁rinya	-1298
▁husus	-1299
▁main	-1300
tuh	-1301
▁bal	-1302
mo	-1303
▁Kor	-1304
▁son	-1305
▁ring	-1306
▁aga	-1307
▁niver	-1308
▁Para	-1309
leh	-1310
▁alang	-1311
▁butuh	-1312
▁Pend	-1313
▁Ro	-1314
▁lok	-1315
▁osisi	-1316
▁ikuti	-1317
▁Saat	-1318
▁mbaga	-1319
▁awab	-1320
▁Ang	-1321
▁ama	-1322
▁Har	-1323
▁udara	-1324
dik	-1325
ip	-1326
▁danya	-1327
▁ris	-1328
▁dilan	-1329
▁vid	-1330
▁tanpa	-1331
ot	-1332
▁punya	-1333
▁tat	-1334
▁kea	-1335
▁enai	-1336
▁stasi	-1337
▁end	-1338
atu	-1339
▁Jo	-1340
▁yaitu	-1341
▁&	-1342
wah	-1343
▁terd	-1344
▁Korea	-1345
buh	-1346
▁gera	-1347
▁ndang	-1348
▁mema	-1349
▁olri	-1350
▁iliar	-1351
▁Iran	-1352
▁Sek	-1353
▁jauh	-1354
▁mpil	-1355
▁anjar	-1356
▁Fa	-1357
▁Ar	-1358
▁nanti	-1359
▁of	-1360
▁Pra	-1361
▁uda	-1362
▁biasa	-1363
▁antas	-1364
▁ektor	-1365
▁beri	-1366
▁omb	-1367
era	-1368
▁bakal	-1369
▁ua	-1370
▁daya	-1371
▁des	-1372
▁guru	-1373
▁sen	-1374
▁Mas	-1375
▁bawah	-1376
▁naga	-1377
▁TNI	-1378
▁idana	-1379
▁uat	-1380
▁ob	-1381
▁apal	-1382
▁iv	-1383
▁karta	-1384
▁dion	-1385
▁ila	-1386
▁git	-1387
▁ria	-1388
▁alia	-1389
▁angsa	-1390
mu	-1391
▁pol	-1392
▁Anda	-1393
▁luas	-1394
▁Ind	-1395
▁iala	-1396
▁tahan	-1397
KP	-1398
▁II	-1399
▁cuk	-1400
gis	-1401
▁Co	-1402
eo	-1403
▁elang	-1404
KI	-1405
▁muda	-1406
▁seme	-1407
▁kenal	-1408
▁gital	-1409
▁ino	-1410
▁ncari	-1411
▁ola	-1412
▁Wa	-1413
▁irim	-1414
▁dek	-1415
aris	-1416
ord	-1417
▁ebab	-1418
▁ono	-1419
▁Ani	-1420
▁annya	-1421
▁aring	-1422
▁15	-1423
▁cukup	-1424
▁ngka	-1425
▁Ban	-1426
▁lesai	-1427
▁uku	-1428
▁mbak	-1429
▁aji	-1430
▁tamb	-1431
▁elo	-1432
▁Q	-1433
▁aru	-1434
▁anti	-1435
▁adi	-1436
▁tul	-1437
▁san	-1438
▁akit	-1439
▁data	-1440
▁antai	-1441
▁olu	-1442
▁Untuk	-1443
▁Air	-1444
▁30	-1445
▁kir	-1446
▁surat	-1447
▁isnis	-1448
▁isa	-1449
▁Anies	-1450
▁nam	-1451
▁jak	-1452
▁apres	-1453
▁putus	-1454
orm	-1455
▁ambut	-1456
▁gerak	-1457
▁jah	-1458
tup	-1459
ikan	-1460
▁kh	-1461
▁uaca	-1462
▁mpang	-1463
▁tihan	-1464
▁ita	-1465
▁jan	-1466
▁roy	-1467
▁ham	-1468
▁ron	-1469
▁Ah	-1470
▁Ia	-1471
▁uji	-1472
▁lajar	-1473
▁pang	-1474
▁Ab	-1475
▁asa	-1476
▁uru	-1477
▁raih	-1478
▁Keter	-1479
▁dik	-1480
▁berb	-1481
▁mmad	-1482
▁Inter	-1483
▁arat	-1484
▁mbuka	-1485
▁Deng	-1486
▁awas	-1487
▁komun	-1488
▁pekan	-1489
▁Lu	-1490
▁duk	-1491
▁agang	-1492
jo	-1493
▁rget	-1494
▁stina	-1495
▁ASN	-1496
▁Bea	-1497
▁tiv	-1498
▁etiga	-1499
▁Feb	-1500
▁maha	-1501
▁edung	-1502
▁Pap	-1503
▁Papua	-1504
▁kla	-1505
▁neger	-1506
utk	-1507
▁NT	-1508
▁Pu	-1509
▁TP	-1510
▁rub	-1511
▁maju	-1512
▁inan	-1513
▁kut	-1514
▁rubah	-1515
▁dar	-1516
▁usai	-1517
▁gask	-1518
▁tutur	-1519
▁AB	-1520
▁ejad	-1521
▁ilang	-1522
ru	-1523
▁inve	-1524
▁lind	-1525
▁tap	-1526
▁As	-1527
▁Pemb	-1528
▁beda	-1529
▁sip	-1530
▁Ahmad	-1531
▁agai	-1532
▁Ham	-1533
▁bur	-1534
▁Ac	-1535
▁ianto	-1536
▁fi	-1537
▁sta	-1538
▁henti	-1539
▁tanya	-1540
▁Da	-1541
▁Hamas	-1542
▁lanju	-1543
▁ton	-1544
▁enuh	-1545
▁ende	-1546
▁dekat	-1547
▁huj	-1548
▁isti	-1549
▁Pak	-1550
▁mbah	-1551
▁libat	-1552
▁ras	-1553
▁raga	-1554
▁peran	-1555
▁ibusi	-1556
▁olusi	-1557
▁anten	-1558
du	-1559
▁anto	-1560
▁api	-1561
▁ket	-1562
▁io	-1563
▁udaya	-1564
▁sik	-1565
▁Bu	-1566
▁mod	-1567
ura	-1568
▁rif	-1569
▁unuh	-1570
▁rtem	-1571
▁Sul	-1572
▁etak	-1573
▁ligus	-1574
▁nuju	-1575
▁ncang	-1576
▁tri	-1577
mal	-1578
▁abat	-1579
▁rdana	-1580
▁nor	-1581
▁urut	-1582
▁saksi	-1583
hon	-1584
▁Su	-1585
▁hit	-1586
▁ajak	-1587
▁seka	-1588
▁desa	-1589
▁rtemu	-1590
▁adw	-1591
▁Din	-1592
▁hujan	-1593
▁penu	-1594
▁ali	-1595
▁utra	-1596
▁siasi	-1597
ons	-1598
▁ido	-1599
▁Dep	-1600
▁ge	-1601
▁sakit	-1602
▁anya	-1603
▁tus	-1604
▁Meng	-1605
▁kand	-1606
▁pasar	-1607
▁adwal	-1608
▁yo	-1609
▁lasan	-1610
▁pres	-1611
▁visi	-1612
▁alat	-1613
▁enuhi	-1614
▁tas	-1615
▁Ri	-1616
▁erk	-1617
▁penuh	-1618
KN	-1619
▁Mes	-1620
▁cat	-1621
▁ulu	-1622
▁Depok	-1623
▁Wi	-1624
▁turun	-1625
▁16	-1626
▁Meski	-1627
▁rusak	-1628
▁apang	-1629
▁duksi	-1630
▁emo	-1631
▁fil	-1632
▁yakin	-1633
tim	-1634
▁Den	-1635
▁tanah	-1636
▁Bid	-1637
▁arta	-1638
▁olah	-1639
▁alu	-1640
▁Mal	-1641
▁Jatim	-1642
▁Febru	-1643
▁anjir	-1644
▁alur	-1645
au	-1646
▁utus	-1647
▁orasi	-1648
▁sit	-1649
▁aris	-1650
▁demo	-1651
▁kual	-1652
▁Ca	-1653
▁tekno	-1654
▁11	-1655
▁sana	-1656
▁uhan	-1657
▁Tidak	-1658
▁ancam	-1659
▁berke	-1660
▁engg	-1661
▁Kali	-1662
▁rc	-1663
usa	-1664
▁atur	-1665
▁kum	-1666
▁enam	-1667
▁aksa	-1668
▁lak	-1669
▁wat	-1670
▁epang	-1671
▁The	-1672
▁namb	-1673
▁fasil	-1674
▁Biden	-1675
▁ungsi	-1676
▁edi	-1677
▁rku	-1678
▁tep	-1679
▁bol	-1680
▁kalau	-1681
▁pel	-1682
▁uri	-1683
▁Ria	-1684
▁nju	-1685
▁riode	-1686
▁sisi	-1687
▁ersib	-1688
▁norer	-1689
▁mit	-1690
▁Bank	-1691
▁urah	-1692
▁berd	-1693
yah	-1694
▁14	-1695
▁mina	-1696
▁mat	-1697
▁q	-1698
omor	-1699
▁Nomor	-1700
▁aman	-1701
▁musim	-1702
▁Wali	-1703
▁Kemud	-1704
▁oe	-1705
▁iar	-1706
▁Ne	-1707
▁UMK	-1708
▁Salah	-1709
▁oto	-1710
▁terp	-1711
▁jat	-1712
▁lemen	-1713
▁ncur	-1714
▁dapun	-1715
▁uj	-1716
▁ai	-1717
▁DKI	-1718
▁egitu	-1719
▁tewas	-1720
▁sat	-1721
▁diba	-1722
▁ropa	-1723
▁Cal	-1724
▁amar	-1725
▁ener	-1726
▁pula	-1727
▁nurun	-1728
ski	-1729
▁akses	-1730
▁aktiv	-1731
gal	-1732
▁meski	-1733
▁elola	-1734
▁krasi	-1735
AM	-1736
▁toko	-1737
▁egah	-1738
▁Ag	-1739
▁pul	-1740
▁anta	-1741
rak	-1742
▁fin	-1743
▁mudah	-1744
▁trasi	-1745
▁tusan	-1746
▁org	-1747
▁ungi	-1748
YA	-1749
▁nik	-1750
▁sete	-1751
okus	-1752
▁fokus	-1753
▁terb	-1754
▁raky	-1755
▁bahan	-1756
▁pilih	-1757
▁atan	-1758
▁leksi	-1759
▁narko	-1760
▁utuh	-1761
▁royek	-1762
rim	-1763
▁Jabar	-1764
▁gol	-1765
▁PBB	-1766
▁co	-1767
▁meter	-1768
ant	-1769
ch	-1770
▁SD	-1771
▁art	-1772
▁mis	-1773
▁ebar	-1774
▁utih	-1775
▁alani	-1776
▁rut	-1777
▁jenis	-1778
▁elalu	-1779
▁Gi	-1780
▁Is	-1781
ustr	-1782
▁est	-1783
▁usul	-1784
▁Inst	-1785
sip	-1786
▁ganti	-1787
▁25	-1788
▁sul	-1789
▁film	-1790
▁kema	-1791
▁luka	-1792
▁mata	-1793
▁tiba	-1794
▁Dari	-1795
▁Hi	-1796
▁Jaya	-1797
▁inat	-1798
▁uduk	-1799
▁angga	-1800
▁Calon	-1801
▁13	-1802
▁Dinas	-1803
▁tot	-1804
▁anggu	-1805
▁Nusa	-1806
▁Pela	-1807
▁jatim	-1808
▁UMKM	-1809
▁Ya	-1810
▁kha	-1811
▁nat	-1812
▁video	-1813
▁turut	-1814
▁port	-1815
▁netap	-1816
▁Suma	-1817
▁BB	-1818
▁jal	-1819
SI	-1820
▁lep	-1821
▁laut	-1822
▁ngat	-1823
▁Inf	-1824
▁Und	-1825
▁Apa	-1826
▁nggul	-1827
▁njutk	-1828
▁epe	-1829
▁andar	-1830
▁18	-1831
▁24	-1832
▁Ger	-1833
▁udi	-1834
▁berat	-1835
▁urve	-1836
▁tnya	-1837
▁Ju	-1838
ujud	-1839
▁asuk	-1840
▁tulis	-1841
▁wujud	-1842
▁ca	-1843
▁tepat	-1844
tif	-1845
▁rkuat	-1846
▁urat	-1847
▁uncur	-1848
▁og	-1849
▁jabar	-1850
▁olk	-1851
▁temu	-1852
▁Penga	-1853
▁emas	-1854
▁organ	-1855
▁pakat	-1856
▁mau	-1857
lon	-1858
▁17	-1859
▁kat	-1860
▁awang	-1861
yar	-1862
▁bab	-1863
▁lewat	-1864
▁pla	-1865
▁ff	-1866
▁tik	-1867
▁final	-1868
▁lidik	-1869
▁rcaya	-1870
▁abil	-1871
▁eno	-1872
▁iap	-1873
▁maka	-1874
▁rem	-1875
▁unung	-1876
UM	-1877
▁sep	-1878
▁utri	-1879
▁resta	-1880
▁tahap	-1881
▁FC	-1882
▁amank	-1883
▁tisip	-1884
▁ril	-1885
▁ersih	-1886
▁alah	-1887
▁ibran	-1888
▁rtu	-1889
▁kola	-1890
▁PDIP	-1891
▁janji	-1892
▁Agung	-1893
▁ira	-1894
▁liti	-1895
▁ping	-1896
▁Ing	-1897
▁sos	-1898
▁kecil	-1899
▁ditu	-1900
▁dic	-1901
▁Inggr	-1902
▁St	-1903
▁Kalau	-1904
▁Austr	-1905
▁Suka	-1906
▁ubah	-1907
▁Pasal	-1908
▁tes	-1909
▁narik	-1910
▁SI	-1911
▁kasih	-1912
▁tasi	-1913
▁hati	-1914
▁pesan	-1915
▁atal	-1916
▁ate	-1917
▁rh	-1918
▁umumk	-1919
▁udah	-1920
▁teman	-1921
▁dana	-1922
▁adang	-1923
▁obat	-1924
▁mengg	-1925
▁ntung	-1926
▁angi	-1927
▁okter	-1928
▁rawat	-1929
▁bas	-1930
▁luang	-1931
▁urvei	-1932
ny	-1933
▁Budi	-1934
▁mpro	-1935
▁olkar	-1936
▁ile	-1937
▁Warga	-1938
▁dij	-1939
▁izin	-1940
▁SE	-1941
▁Gib	-1942
▁New	-1943
▁tab	-1944
▁Gibr	-1945
▁Kare	-1946
▁emu	-1947
▁atif	-1948
▁Dewan	-1949
▁ekan	-1950
▁ruang	-1951
▁sulit	-1952
▁kolab	-1953
▁go	-1954
▁ry	-1955
▁glo	-1956
▁Rumah	-1957
▁lepas	-1958
▁Denpa	-1959
▁sitif	-1960
▁kuasa	-1961
▁watir	-1962
▁Hukum	-1963
▁njual	-1964
▁pakah	-1965
▁Perse	-1966
▁mati	-1967
▁Yu	-1968
MA	-1969
▁ilm	-1970
▁nah	-1971
▁indah	-1972
em	-1973
▁ukses	-1974
▁ngani	-1975
▁isu	-1976
▁inov	-1977
▁aktif	-1978
umas	-1979
▁To	-1980
▁apre	-1981
wai	-1982
▁tum	-1983
▁onlin	-1984
▁atat	-1985
▁laki	-1986
▁ologi	-1987
▁rhati	-1988
▁Na	-1989
▁all	-1990
▁pra	-1991
▁nco	-1992
fe	-1993
▁poin	-1994
▁khus	-1995
▁Sh	-1996
▁eta	-1997
▁aslon	-1998
▁Abd	-1999
▁bahas	-2000
▁utuhk	-2001
▁BP	-2002
▁rw	-2003
▁Tak	-2004
▁enc	-2005
▁Af	-2006
▁nggil	-2007
▁yarat	-2008
▁ngan	-2009
▁Rep	-2010
▁sema	-2011
tak	-2012
▁menit	-2013
▁usnya	-2014
▁Sup	-2015
▁uncul	-2016
lam	-2017
▁BRI	-2018
▁pi	-2019
▁skrim	-2020
▁ulasi	-2021
▁puluh	-2022
▁sekar	-2023
▁ident	-2024
▁rensi	-2025
▁27	-2026
▁glob	-2027
▁uasa	-2028
▁av	-2029
▁ex	-2030
▁lib	-2031
▁Itu	-2032
▁jang	-2033
▁tegas	-2034
▁gab	-2035
▁lahir	-2036
▁rsiap	-2037
▁spons	-2038
▁nggu	-2039
▁agama	-2040
▁akang	-2041
▁kalah	-2042
▁sawat	-2043
▁engar	-2044
▁ituas	-2045
▁unit	-2046
cu	-2047
▁stra	-2048
▁bun	-2049
▁isme	-2050
▁Ho	-2051
▁Riau	-2052
▁roleh	-2053
▁berta	-2054
▁dikit	-2055
▁total	-2056
▁Kas	-2057
▁Has	-2058
▁uktur	-2059
▁Utama	-2060
▁bayar	-2061
▁RS	-2062
▁iptak	-2063
MI	-2064
▁Ng	-2065
▁uami	-2066
▁makan	-2067
▁SAR	-2068
▁kumen	-2069
▁ens	-2070
▁krat	-2071
▁mung	-2072
▁ram	-2073
▁adar	-2074
▁mpir	-2075
▁dipe	-2076
▁umen	-2077
▁PN	-2078
▁pagi	-2079
▁Ki	-2080
▁Besar	-2081
▁atuan	-2082
▁guber	-2083
▁Uni	-2084
▁erman	-2085
▁19	-2086
▁UU	-2087
▁Yog	-2088
▁22	-2089
▁Yogya	-2090
▁mungk	-2091
▁Tri	-2092
▁bin	-2093
▁pasti	-2094
▁emiki	-2095
▁damai	-2096
▁bali	-2097
▁urus	-2098
▁tua	-2099
▁marin	-2100
▁rkara	-2101
▁taris	-2102
▁PK	-2103
▁BA	-2104
▁inc	-2105
▁atasi	-2106
▁pasuk	-2107
▁gagal	-2108
▁Kel	-2109
▁Sat	-2110
▁upa	-2111
▁ntar	-2112
▁Raya	-2113
▁Dua	-2114
▁rib	-2115
▁suh	-2116
▁ayang	-2117
▁catat	-2118
▁energ	-2119
▁sonel	-2120
▁waslu	-2121
▁etu	-2122
▁rapan	-2123
▁iaya	-2124
▁inta	-2125
▁ebabk	-2126
▁rilis	-2127
▁gawai	-2128
▁BMK	-2129
▁sel	-2130
▁rtumb	-2131
▁BMKG	-2132
▁tra	-2133
▁asar	-2134
▁ity	-2135
▁DPRD	-2136
▁rugi	-2137
▁23	-2138
▁eh	-2139
▁sy	-2140
▁ine	-2141
▁Kemen	-2142
▁bebas	-2143
▁ch	-2144
▁tubuh	-2145
▁ow	-2146
▁mom	-2147
▁21	-2148
▁50	-2149
▁asing	-2150
▁sabu	-2151
▁Ak	-2152
▁njara	-2153
▁rbang	-2154
▁usung	-2155
▁antau	-2156
▁ahf	-2157
▁rba	-2158
▁ndah	-2159
lak	-2160
▁iah	-2161
▁elek	-2162
▁oc	-2163
▁Eri	-2164
▁Anak	-2165
▁duli	-2166
▁anger	-2167
▁namun	-2168
▁Anggo	-2169
▁sor	-2170
▁istri	-2171
▁ksi	-2172
▁erai	-2173
▁Sekre	-2174
▁balik	-2175
▁Mana	-2176
▁Joko	-2177
▁ahfud	-2178
▁Dr	-2179
▁sw	-2180
▁istiw	-2181
▁Ram	-2182
▁rela	-2183
▁az	-2184
▁ky	-2185
▁tera	-2186
▁Islam	-2187
▁sipil	-2188
▁jalur	-2189
▁od	-2190
▁Kedua	-2191
▁ibat	-2192
▁lokal	-2193
NP	-2194
▁momen	-2195
▁ngkut	-2196
▁turan	-2197
▁ratis	-2198
▁apar	-2199
▁luark	-2200
▁fe	-2201
▁DPP	-2202
▁Sej	-2203
▁bus	-2204
▁ibatk	-2205
▁UR	-2206
▁isah	-2207
▁ster	-2208
▁Humas	-2209
▁luk	-2210
▁ump	-2211
▁mitra	-2212
ANG	-2213
▁rtani	-2214
▁erat	-2215
▁tatus	-2216
▁kil	-2217
▁Masya	-2218
▁ebut	-2219
▁landa	-2220
▁Gr	-2221
▁lar	-2222
▁tani	-2223
▁nolak	-2224
ly	-2225
▁rti	-2226
ori	-2227
▁uncak	-2228
▁sal	-2229
▁usi	-2230
▁demi	-2231
▁edar	-2232
▁kontr	-2233
▁ato	-2234
▁etro	-2235
▁tapi	-2236
▁ratur	-2237
▁Il	-2238
▁bum	-2239
so	-2240
▁au	-2241
▁Dis	-2242
yo	-2243
▁bers	-2244
gat	-2245
▁ntik	-2246
▁BUM	-2247
▁mbel	-2248
▁nflik	-2249
▁bang	-2250
▁memer	-2251
▁tegis	-2252
▁pik	-2253
▁dini	-2254
▁Abdul	-2255
▁iapk	-2256
▁lub	-2257
▁ajang	-2258
▁erahk	-2259
▁nerja	-2260
▁lor	-2261
▁untu	-2262
▁rand	-2263
▁Bantu	-2264
▁alih	-2265
▁ward	-2266
▁nk	-2267
▁mere	-2268
▁alank	-2269
▁ajar	-2270
▁MA	-2271
▁dangk	-2272
▁ual	-2273
▁ampah	-2274
▁Ad	-2275
▁MK	-2276
▁Hasil	-2277
▁aki	-2278
▁kilo	-2279
▁mpak	-2280
▁Lebih	-2281
▁lil	-2282
▁idodo	-2283
▁jaran	-2284
▁ungut	-2285
▁ment	-2286
▁egini	-2287
▁undur	-2288
▁Nu	-2289
▁kecel	-2290
▁ium	-2291
▁baran	-2292
▁elekt	-2293
▁iswa	-2294
▁perke	-2295
▁ebas	-2296
▁Pj	-2297
▁ano	-2298
▁akaan	-2299
▁amu	-2300
▁raya	-2301
▁buat	-2302
▁Luar	-2303
▁jarah	-2304
▁saing	-2305
▁leg	-2306
juh	-2307
▁26	-2308
▁tujuh	-2309
▁isiko	-2310
▁titik	-2311
per	-2312
▁non	-2313
▁ediak	-2314
▁ombes	-2315
▁suatu	-2316
▁tokoh	-2317
▁28	-2318
▁ahaya	-2319
▁los	-2320
▁Do	-2321
▁ont	-2322
▁Kita	-2323
▁lahan	-2324
▁AF	-2325
▁nto	-2326
▁ileg	-2327
▁pir	-2328
▁jaksa	-2329
▁mbeli	-2330
▁rj	-2331
▁ena	-2332
▁rata	-2333
▁liun	-2334
▁Aceh	-2335
▁Laut	-2336
▁naw	-2337
▁sig	-2338
▁agu	-2339
▁akun	-2340
▁alif	-2341
▁kirak	-2342
▁Dan	-2343
▁bawa	-2344
▁Ja	-2345
▁Eko	-2346
▁Bang	-2347
▁Pasar	-2348
▁erkel	-2349
▁pop	-2350
▁sus	-2351
▁warna	-2352
▁kai	-2353
▁antu	-2354
▁Ramad	-2355
▁jatuh	-2356
▁sif	-2357
▁badan	-2358
▁pulau	-2359
▁Ed	-2360
▁istan	-2361
▁hing	-2362
ARA	-2363
▁dakwa	-2364
▁ahan	-2365
▁inst	-2366
▁ansi	-2367
▁tf	-2368
▁Pena	-2369
▁awan	-2370
ulu	-2371
▁atar	-2372
▁gener	-2373
KBP	-2374
▁oro	-2375
▁memba	-2376
▁eo	-2377
▁ey	-2378
▁hu	-2379
▁awe	-2380
▁uz	-2381
▁isten	-2382
▁enter	-2383
▁ngin	-2384
▁ribad	-2385
AYA	-2386
▁ill	-2387
▁fisi	-2388
▁foto	-2389
▁minum	-2390
▁JPN	-2391
▁bia	-2392
▁ien	-2393
▁amin	-2394
▁horm	-2395
▁erd	-2396
▁adil	-2397
▁ncar	-2398
▁grasi	-2399
▁ungai	-2400
▁ort	-2401
▁AKBP	-2402
▁anda	-2403
▁orot	-2404
▁emuda	-2405
▁dakan	-2406
▁erek	-2407
▁%	-2408
▁oo	-2409
▁DPD	-2410
▁JPNN	-2411
▁misi	-2412
▁orum	-2413
▁alias	-2414
▁etuju	-2415
▁rbaik	-2416
▁29	-2417
▁hakim	-2418
▁mud	-2419
▁adat	-2420
▁ABAYA	-2421
▁kaian	-2422
▁lir	-2423
▁Arab	-2424
▁mpul	-2425
▁sang	-2426
kam	-2427
▁sah	-2428
▁tis	-2429
▁ans	-2430
▁TPS	-2431
▁wati	-2432
▁Kasus	-2433
NA	-2434
utan	-2435
▁der	-2436
▁ou	-2437
▁nergi	-2438
▁akui	-2439
▁ensi	-2440
▁krit	-2441
▁Keb	-2442
▁ejak	-2443
▁tion	-2444
▁agr	-2445
▁aktor	-2446
▁emati	-2447
▁Ibu	-2448
▁iaga	-2449
▁simal	-2450
▁ez	-2451
▁adaan	-2452
▁adu	-2453
▁artaw	-2454
▁tar	-2455
▁unan	-2456
▁koord	-2457
▁nutup	-2458
▁iti	-2459
▁kau	-2460
▁kabar	-2461
▁arc	-2462
▁Oleh	-2463
▁rid	-2464
▁BUMN	-2465
▁uran	-2466
▁ols	-2467
▁are	-2468
▁judi	-2469
▁Trans	-2470
▁boleh	-2471
▁kri	-2472
▁labuh	-2473
▁sedia	-2474
jid	-2475
▁Jika	-2476
▁ngha	-2477
▁rjen	-2478
▁ingan	-2479
▁ikan	-2480
▁deb	-2481
▁nton	-2482
▁utusk	-2483
▁ank	-2484
▁area	-2485
▁berse	-2486
▁musik	-2487
jib	-2488
▁ver	-2489
▁ation	-2490
▁elah	-2491
▁ase	-2492
▁wajib	-2493
▁dy	-2494
▁esak	-2495
▁asjid	-2496
ono	-2497
▁bila	-2498
▁ekat	-2499
▁basis	-2500
▁PKB	-2501
▁ayu	-2502
▁rof	-2503
▁tutup	-2504
▁edia	-2505
▁nak	-2506
▁gugat	-2507
▁ov	-2508
▁nen	-2509
▁lay	-2510
▁lus	-2511
▁Koord	-2512
lim	-2513
▁ategi	-2514
▁bon	-2515
▁Yang	-2516
▁lagu	-2517
▁iny	-2518
▁sari	-2519
▁langg	-2520
II	-2521
▁Sing	-2522
▁lis	-2523
▁keme	-2524
▁ayak	-2525
▁ilg	-2526
▁bank	-2527
▁efek	-2528
▁NTARA	-2529
▁nerap	-2530
▁popul	-2531
▁AP	-2532
▁kam	-2533
▁kre	-2534
▁konfe	-2535
▁libur	-2536
▁IKN	-2537
▁una	-2538
▁audi	-2539
▁edak	-2540
▁ndali	-2541
▁rangi	-2542
▁mah	-2543
▁ck	-2544
▁tema	-2545
▁llah	-2546
▁ator	-2547
▁kapa	-2548
▁olsek	-2549
▁nawar	-2550
▁tform	-2551
▁;	-2552
▁iro	-2553
▁our	-2554
▁siapa	-2555
▁Lo	-2556
▁tl	-2557
▁ahkam	-2558
▁nalis	-2559
▁uter	-2560
▁lim	-2561
▁ult	-2562
▁iden	-2563
▁suka	-2564
▁wali	-2565
▁debat	-2566
▁jahte	-2567
▁pri	-2568
▁lurah	-2569
▁ega	-2570
▁aplik	-2571
▁Kalim	-2572
▁kelas	-2573
▁Br	-2574
▁jo	-2575
▁Fil	-2576
▁pengu	-2577
▁reg	-2578
▁sini	-2579
▁anah	-2580
▁babak	-2581
▁karya	-2582
▁isk	-2583
▁elas	-2584
▁Ni	-2585
▁th	-2586
▁agram	-2587
▁AI	-2588
OG	-2589
▁nikah	-2590
▁berp	-2591
▁iyah	-2592
▁entar	-2593
▁kala	-2594
▁penj	-2595
▁ekasi	-2596
▁rapat	-2597
▁pr	-2598
▁iet	-2599
▁ukur	-2600
▁evaku	-2601
▁umi	-2602
▁indra	-2603
▁minal	-2604
din	-2605
▁guh	-2606
▁peri	-2607
▁ncuri	-2608
▁Or	-2609
▁ullah	-2610
▁RANG	-2611
▁terj	-2612
▁31	-2613
▁Penj	-2614
▁biaya	-2615
▁ransi	-2616
▁tud	-2617
ranc	-2618
▁pand	-2619
▁Pranc	-2620
▁ern	-2621
▁tren	-2622
▁uf	-2623
▁lanta	-2624
▁memu	-2625
▁rofes	-2626
▁Ex	-2627
▁amat	-2628
▁net	-2629
▁kup	-2630
▁Beb	-2631
▁eny	-2632
▁Nur	-2633
▁berte	-2634
▁ilgub	-2635
▁ndra	-2636
▁mping	-2637
▁mudik	-2638
DU	-2639
▁arga	-2640
▁bera	-2641
▁dela	-2642
▁kutip	-2643
zi	-2644
▁PAN	-2645
▁kur	-2646
▁olid	-2647
▁ame	-2648
▁darah	-2649
▁Mak	-2650
▁etik	-2651
▁HAM	-2652
▁inyak	-2653
▁ahy	-2654
▁eral	-2655
▁Beber	-2656
▁Filip	-2657
bo	-2658
▁Kep	-2659
▁Maha	-2660
▁arti	-2661
▁edan	-2662
▁kaya	-2663
▁India	-2664
▁pingi	-2665
▁ie	-2666
▁ork	-2667
▁tand	-2668
▁ereko	-2669
▁KA	-2670
▁uta	-2671
▁keta	-2672
▁buruk	-2673
▁mui	-2674
▁Ilus	-2675
▁nghi	-2676
▁aysia	-2677
▁titus	-2678
▁ito	-2679
▁Mega	-2680
▁mpur	-2681
▁egori	-2682
▁nggah	-2683
▁diu	-2684
▁enda	-2685
▁stik	-2686
▁ustr	-2687
▁AR	-2688
▁ard	-2689
▁aket	-2690
▁unggu	-2691
▁akta	-2692
▁abu	-2693
▁dim	-2694
▁delap	-2695
▁etisi	-2696
▁mal	-2697
▁ntut	-2698
▁onal	-2699
▁reta	-2700
▁ialah	-2701
▁putar	-2702
▁ona	-2703
▁ampus	-2704
▁cah	-2705
▁jemen	-2706
▁banon	-2707
▁jukan	-2708
▁jaya	-2709
▁ndar	-2710
▁uatan	-2711
ade	-2712
▁nv	-2713
▁Rah	-2714
▁kena	-2715
▁ld	-2716
▁aik	-2717
▁ohon	-2718
▁fikan	-2719
▁Pri	-2720
▁kabu	-2721
▁hil	-2722
▁inato	-2723
▁ANG	-2724
▁Orang	-2725
▁sikap	-2726
▁Sl	-2727
▁asw	-2728
▁umb	-2729
▁anji	-2730
▁genc	-2731
▁rastr	-2732
▁rok	-2733
▁kade	-2734
PR	-2735
▁PBD	-2736
▁tib	-2737
▁100	-2738
▁ore	-2739
▁aju	-2740
▁jahat	-2741
▁raan	-2742
▁trad	-2743
kot	-2744
▁oni	-2745
▁And	-2746
▁erl	-2747
▁ury	-2748
▁aja	-2749
▁ayor	-2750
▁idat	-2751
▁okan	-2752
AT	-2753
▁Kea	-2754
▁aswed	-2755
▁Ir	-2756
▁Vi	-2757
▁signi	-2758
ck	-2759
▁berl	-2760
▁engk	-2761
▁ikl	-2762
▁ogja	-2763
▁rius	-2764
GP	-2765
▁Go	-2766
▁ntah	-2767
▁sial	-2768
▁ahulu	-2769
▁mohon	-2770
▁skor	-2771
▁Fes	-2772
▁sih	-2773
▁arus	-2774
▁Indra	-2775
▁emkot	-2776
▁KO	-2777
▁Airl	-2778
▁ekst	-2779
▁Hen	-2780
▁plo	-2781
▁iskus	-2782
▁jel	-2783
▁riah	-2784
▁ender	-2785
▁erv	-2786
▁Nat	-2787
▁Ali	-2788
▁Gro	-2789
▁anita	-2790
▁anksi	-2791
▁Sri	-2792
▁dur	-2793
▁awak	-2794
▁hutan	-2795
▁aes	-2796
▁ako	-2797
▁tival	-2798
▁psi	-2799
▁itur	-2800
▁nkum	-2801
▁ss	-2802
DUNG	-2803
▁wal	-2804
▁diti	-2805
▁ions	-2806
▁NDUNG	-2807
▁sh	-2808
▁kiri	-2809
▁unj	-2810
▁atuh	-2811
▁minim	-2812
▁las	-2813
▁uth	-2814
▁kank	-2815
▁ntuk	-2816
▁ragam	-2817
▁emi	-2818
▁Prof	-2819
▁newas	-2820
sel	-2821
▁ahli	-2822
▁baya	-2823
▁ilat	-2824
▁tlet	-2825
▁iring	-2826
▁40	-2827
▁ade	-2828
▁Pram	-2829
▁usun	-2830
▁uriah	-2831
▁1,	-2832
▁BBC	-2833
▁ojo	-2834
▁Tetap	-2835
▁ustru	-2836
▁Gus	-2837
▁ene	-2838
▁her	-2839
▁Paris	-2840
▁kah	-2841
▁ancar	-2842
▁ekspo	-2843
▁perd	-2844
▁enior	-2845
▁tele	-2846
▁ketua	-2847
▁taw	-2848
ine	-2849
▁rud	-2850
▁rbit	-2851
▁tir	-2852
▁Afri	-2853
▁jelis	-2854
▁keber	-2855
▁ktik	-2856
▁bakar	-2857
▁kuad	-2858
▁otoGP	-2859
▁erak	-2860
▁AL	-2861
▁oba	-2862
▁yanto	-2863
▁wil	-2864
▁Pene	-2865
▁Ins	-2866
▁Pihak	-2867
▁fif	-2868
▁muka	-2869
▁kader	-2870
▁tabil	-2871
▁PSI	-2872
▁aky	-2873
▁ayat	-2874
▁mbil	-2875
▁pema	-2876
▁siang	-2877
▁Az	-2878
▁assa	-2879
▁lul	-2880
▁indo	-2881
▁ning	-2882
▁ngkit	-2883
▁parat	-2884
▁CPN	-2885
▁set	-2886
▁rtimb	-2887
▁Pi	-2888
▁esa	-2889
▁migr	-2890
▁pikir	-2891
▁Kan	-2892
▁duh	-2893
▁bagus	-2894
▁vs	-2895
▁CPNS	-2896
▁empa	-2897
▁ehari	-2898
▁uddin	-2899
▁era	-2900
▁Oper	-2901
▁Hasto	-2902
▁klaim	-2903
▁ncoba	-2904
bar	-2905
▁ial	-2906
▁roni	-2907
▁PKS	-2908
▁asih	-2909
▁reng	-2910
▁piade	-2911
▁Riz	-2912
▁SDM	-2913
▁vir	-2914
▁nden	-2915
▁Sebab	-2916
▁redik	-2917
▁III	-2918
▁Sya	-2919
▁ima	-2920
▁eman	-2921
▁epeda	-2922
▁kl	-2923
▁ongso	-2924
▁umsel	-2925
▁truk	-2926
▁idwan	-2927
▁nti	-2928
▁Wilay	-2929
▁awesi	-2930
▁oha	-2931
▁tam	-2932
▁jiwa	-2933
▁terl	-2934
▁utara	-2935
▁02	-2936
▁hip	-2937
▁jur	-2938
▁Grup	-2939
▁ntrak	-2940
▁inci	-2941
▁igasi	-2942
▁ih	-2943
▁esi	-2944
▁arak	-2945
▁Komun	-2946
gab	-2947
▁01	-2948
▁ht	-2949
▁bumi	-2950
▁mbul	-2951
▁tudi	-2952
▁alisi	-2953
▁imbau	-2954
▁lulus	-2955
▁Bel	-2956
▁pek	-2957
▁ekor	-2958
▁genda	-2959
lar	-2960
▁aham	-2961
▁nutur	-2962
▁ew	-2963
▁Kho	-2964
▁Bagi	-2965
▁sore	-2966
▁mir	-2967
▁sosok	-2968
▁$	-2969
▁Rak	-2970
▁micu	-2971
▁ain	-2972
▁old	-2973
▁optim	-2974
NPA	-2975
hail	-2976
▁pab	-2977
▁Komp	-2978
▁ariw	-2979
▁lans	-2980
▁ondo	-2981
▁Thail	-2982
▁SM	-2983
▁yu	-2984
▁pos	-2985
▁akyat	-2986
▁uslim	-2987
▁bes	-2988
▁epar	-2989
▁Group	-2990
▁ergab	-2991
▁num	-2992
▁ingga	-2993
▁amai	-2994
▁apak	-2995
▁pajak	-2996
▁Bei	-2997
▁ENPA	-2998
▁ord	-2999
▁anyi	-3000
▁ayah	-3001
▁rmal	-3002
▁uming	-3003
▁lum	-3004
▁esan	-3005
▁Rakab	-3006
ge	-3007
▁Res	-3008
▁sup	-3009
▁bud	-3010
▁knis	-3011
▁agung	-3012
▁impor	-3013
▁PL	-3014
▁Bah	-3015
▁udin	-3016
▁ahasa	-3017
▁konte	-3018
▁merah	-3019
▁rdeka	-3020
▁rokok	-3021
▁Adi	-3022
▁abar	-3023
▁anu	-3024
▁emk	-3025
▁adam	-3026
▁ers	-3027
▁uci	-3028
▁hamp	-3029
▁emkab	-3030
▁US	-3031
▁ese	-3032
▁jual	-3033
▁mbulk	-3034
▁eklar	-3035
▁ero	-3036
▁nci	-3037
▁taan	-3038
▁ce	-3039
▁rung	-3040
▁peras	-3041
▁rakir	-3042
▁amil	-3043
▁Infor	-3044
▁berku	-3045
▁pakai	-3046
▁angin	-3047
▁ontra	-3048
▁panas	-3049
▁ajah	-3050
▁ander	-3051
▁nahan	-3052
▁terke	-3053
▁qu	-3054
▁ngkar	-3055
▁esu	-3056
▁rum	-3057
▁esin	-3058
▁iang	-3059
▁ft	-3060
▁minis	-3061
▁temen	-3062
▁iwan	-3063
▁umur	-3064
ne	-3065
▁erm	-3066
▁otel	-3067
▁berpo	-3068
▁eal	-3069
▁sti	-3070
▁eleb	-3071
▁yono	-3072
▁iga	-3073
▁uluh	-3074
▁x	-3075
▁Ari	-3076
▁rit	-3077
▁rom	-3078
▁andi	-3079
▁sum	-3080
▁sepak	-3081
▁rkir	-3082
▁ei	-3083
▁ajuk	-3084
▁pesi	-3085
▁For	-3086
▁ome	-3087
▁taf	-3088
▁akai	-3089
▁ayar	-3090
▁Penge	-3091
▁logis	-3092
▁Raf	-3093
▁otif	-3094
▁hat	-3095
▁ice	-3096
▁nis	-3097
▁mc	-3098
▁eli	-3099
▁kal	-3100
▁mbuh	-3101
▁asuki	-3102
▁Was	-3103
▁ked	-3104
▁krea	-3105
▁alnya	-3106
▁baca	-3107
▁mengh	-3108
▁rm	-3109
▁ingk	-3110
▁SIS	-3111
▁ped	-3112
▁Angk	-3113
▁Kal	-3114
▁ele	-3115
▁gan	-3116
▁rto	-3117
▁ursi	-3118
▁dr	-3119
▁iq	-3120
▁onto	-3121
▁real	-3122
▁lun	-3123
▁uas	-3124
▁arma	-3125
▁Andr	-3126
▁umsi	-3127
▁eto	-3128
▁kin	-3129
▁nsum	-3130
▁Penye	-3131
▁igran	-3132
▁saran	-3133
▁ail	-3134
▁log	-3135
▁mus	-3136
▁kbar	-3137
▁!	-3138
▁nten	-3139
▁pilka	-3140
▁sud	-3141
▁ndari	-3142
▁wi	-3143
▁ick	-3144
▁alap	-3145
▁arjo	-3146
▁inkan	-3147
▁eja	-3148
▁bint	-3149
▁torat	-3150
EO	-3151
▁menda	-3152
▁andal	-3153
▁ink	-3154
▁vel	-3155
▁akal	-3156
▁mprov	-3157
▁dul	-3158
▁eri	-3159
▁Shin	-3160
▁itri	-3161
▁Sus	-3162
▁ergi	-3163
▁renta	-3164
▁ire	-3165
▁hend	-3166
▁maja	-3167
▁zb	-3168
▁Set	-3169
▁juk	-3170
▁Muda	-3171
▁tuduh	-3172
▁Fer	-3173
▁mbar	-3174
▁ntan	-3175
▁ier	-3176
▁ike	-3177
▁ogo	-3178
▁by	-3179
▁Tol	-3180
▁Sura	-3181
▁ayi	-3182
▁gur	-3183
▁ood	-3184
▁lon	-3185
▁tre	-3186
▁unga	-3187
▁So	-3188
▁cu	-3189
▁cek	-3190
▁lti	-3191
▁robo	-3192
▁ewi	-3193
▁njau	-3194
▁utan	-3195
▁negak	-3196
▁PA	-3197
▁bung	-3198
▁uw	-3199
▁yawan	-3200
▁You	-3201
▁eku	-3202
▁emua	-3203
▁gang	-3204
▁kul	-3205
▁AT	-3206
▁ruda	-3207
▁yah	-3208
▁gizi	-3209
▁ahnya	-3210
▁inggi	-3211
▁TV	-3212
▁ura	-3213
▁epat	-3214
▁osko	-3215
▁pp	-3216
▁pid	-3217
▁anja	-3218
▁rahk	-3219
▁03	-3220
▁aks	-3221
▁Harr	-3222
▁ltim	-3223
▁mpa	-3224
▁brak	-3225
▁lola	-3226
▁mengo	-3227
▁angk	-3228
▁semi	-3229
▁urna	-3230
▁egala	-3231
▁KOTA	-3232
▁reko	-3233
▁uruh	-3234
▁LP	-3235
▁lad	-3236
▁rko	-3237
▁yat	-3238
▁yani	-3239
▁ell	-3240
▁ies	-3241
▁egang	-3242
▁DI	-3243
▁kes	-3244
▁enny	-3245
▁akas	-3246
▁ndri	-3247
▁Tap	-3248
▁edit	-3249
▁ntak	-3250
▁rupa	-3251
▁menca	-3252
▁meran	-3253
▁relaw	-3254
▁PU	-3255
▁ska	-3256
▁gub	-3257
▁lly	-3258
▁SP	-3259
▁atra	-3260
▁dih	-3261
▁ect	-3262
▁berj	-3263
▁ilit	-3264
▁teng	-3265
▁ental	-3266
▁nsums	-3267
▁Mem	-3268
▁ersis	-3269
▁zah	-3270
▁ulau	-3271
▁inaan	-3272
▁nap	-3273
▁iak	-3274
▁Sena	-3275
▁ance	-3276
▁laim	-3277
▁ndai	-3278
▁Kri	-3279
▁anan	-3280
▁siun	-3281
▁erisi	-3282
▁2,	-3283
▁tom	-3284
▁sla	-3285
▁atik	-3286
▁juru	-3287
▁raja	-3288
▁gikan	-3289
▁Ist	-3290
▁ary	-3291
▁uma	-3292
▁tanda	-3293
▁akr	-3294
▁lai	-3295
▁rne	-3296
▁Kamp	-3297
▁prin	-3298
▁sidi	-3299
▁awa	-3300
▁uhu	-3301
▁tin	-3302
▁Kec	-3303
▁gra	-3304
▁mor	-3305
▁kasi	-3306
▁alahk	-3307
▁efi	-3308
▁mosi	-3309
▁rama	-3310
▁onald	-3311
▁sim	-3312
▁kepem	-3313
▁AKP	-3314
▁ear	-3315
▁mbo	-3316
▁lasi	-3317
▁05	-3318
▁aran	-3319
▁hami	-3320
▁hkan	-3321
▁beras	-3322
▁rekam	-3323
▁semen	-3324
▁eber	-3325
▁ndik	-3326
▁dinas	-3327
▁iawan	-3328
▁lf	-3329
▁enak	-3330
▁obil	-3331
▁jau	-3332
▁berw	-3333
▁rusan	-3334
▁aus	-3335
▁gar	-3336
▁one	-3337
▁emah	-3338
▁untut	-3339
▁aset	-3340
▁ipta	-3341
▁tara	-3342
▁ach	-3343
▁apas	-3344
▁itus	-3345
KA	-3346
▁jati	-3347
▁Ge	-3348
▁Idu	-3349
▁Hend	-3350
▁aria	-3351
▁long	-3352
▁ive	-3353
▁nov	-3354
▁oli	-3355
▁tong	-3356
▁bunuh	-3357
▁aca	-3358
▁Pers	-3359
▁fo	-3360
▁nuk	-3361
▁ampu	-3362
▁samb	-3363
▁ujuk	-3364
▁nga	-3365
▁run	-3366
▁the	-3367
▁Kh	-3368
▁lm	-3369
▁asta	-3370
▁arian	-3371
▁06	-3372
▁eksi	-3373
▁itra	-3374
▁sual	-3375
▁Persi	-3376
▁ich	-3377
▁IP	-3378
▁RU	-3379
▁uti	-3380
▁adir	-3381
▁stor	-3382
▁ct	-3383
▁age	-3384
▁ori	-3385
▁kor	-3386
▁kus	-3387
▁rig	-3388
▁SK	-3389
▁dro	-3390
▁aian	-3391
▁land	-3392
▁kalan	-3393
▁leks	-3394
▁ujan	-3395
▁gant	-3396
▁dura	-3397
▁spir	-3398
▁hib	-3399
▁iper	-3400
▁kok	-3401
▁ler	-3402
▁mun	-3403
▁ania	-3404
▁apan	-3405
▁emak	-3406
▁okok	-3407
▁rist	-3408
▁unjuk	-3409
▁muan	-3410
▁hab	-3411
▁ish	-3412
▁ius	-3413
▁lt	-3414
▁Pang	-3415
▁aruh	-3416
▁imin	-3417
▁jian	-3418
▁layan	-3419
▁iau	-3420
▁fer	-3421
▁tel	-3422
▁utin	-3423
▁jer	-3424
▁akim	-3425
▁iset	-3426
▁has	-3427
▁RB	-3428
▁enal	-3429
▁naman	-3430
▁ibad	-3431
▁fisik	-3432
▁60	-3433
▁alin	-3434
▁iput	-3435
▁tuan	-3436
▁ayaan	-3437
▁ID	-3438
▁pon	-3439
▁imat	-3440
▁resi	-3441
▁ulan	-3442
▁perte	-3443
▁rkoba	-3444
MB	-3445
▁Her	-3446
▁Menj	-3447
▁rnia	-3448
▁lukan	-3449
▁mula	-3450
▁uksi	-3451
▁edu	-3452
▁merek	-3453
▁tol	-3454
▁alis	-3455
▁diam	-3456
▁nan	-3457
▁tch	-3458
▁kara	-3459
▁sent	-3460
▁eten	-3461
HK	-3462
▁CEO	-3463
▁Chi	-3464
▁ure	-3465
▁abah	-3466
▁rlin	-3467
▁line	-3468
▁oal	-3469
▁bing	-3470
▁hadi	-3471
▁BK	-3472
▁uka	-3473
▁bong	-3474
▁Du	-3475
▁Mad	-3476
▁dal	-3477
▁use	-3478
▁amen	-3479
▁uni	-3480
▁asil	-3481
▁pengg	-3482
▁rea	-3483
▁jing	-3484
▁kete	-3485
▁lla	-3486
▁teo	-3487
▁tun	-3488
▁gad	-3489
▁bere	-3490
▁itut	-3491
▁onser	-3492
▁04	-3493
▁07	-3494
▁MPR	-3495
▁SEMA	-3496
▁seng	-3497
yu	-3498
▁NTB	-3499
AS	-3500
▁jaga	-3501
▁perse	-3502
ese	-3503
▁Mo	-3504
▁rip	-3505
▁08	-3506
▁ark	-3507
▁enya	-3508
▁jasa	-3509
▁pora	-3510
PO	-3511
▁KU	-3512
▁my	-3513
▁awi	-3514
▁kim	-3515
▁Sc	-3516
▁berju	-3517
▁Joe	-3518
▁cur	-3519
▁hana	-3520
▁ue	-3521
▁del	-3522
▁mbe	-3523
IP	-3524
▁IC	-3525
▁IT	-3526
▁bai	-3527
▁eru	-3528
▁tadi	-3529
▁tata	-3530
▁tifik	-3531
▁HU	-3532
▁rki	-3533
▁ntro	-3534
▁ndung	-3535
▁Bad	-3536
▁Siap	-3537
▁ekno	-3538
▁mog	-3539
▁uhi	-3540
▁emisi	-3541
IN	-3542
▁adap	-3543
▁kapan	-3544
▁bid	-3545
▁berk	-3546
▁ndata	-3547
▁Mul	-3548
▁ital	-3549
▁sela	-3550
▁rdi	-3551
▁IN	-3552
▁Wid	-3553
▁nyi	-3554
▁rasi	-3555
▁arung	-3556
▁Ser	-3557
▁info	-3558
▁rawan	-3559
▁09	-3560
▁kop	-3561
▁opi	-3562
▁rac	-3563
▁emar	-3564
▁embat	-3565
▁elar	-3566
▁sca	-3567
▁anal	-3568
▁KT	-3569
▁DIY	-3570
▁Kl	-3571
▁akat	-3572
▁lung	-3573
▁ulia	-3574
▁Cha	-3575
▁ack	-3576
▁bert	-3577
▁sien	-3578
▁umat	-3579
▁een	-3580
▁nggi	-3581
▁seni	-3582
▁SU	-3583
▁ikin	-3584
▁umpul	-3585
▁ruh	-3586
▁sad	-3587
▁sma	-3588
▁dire	-3589
▁ee	-3590
▁waw	-3591
▁ifik	-3592
▁esain	-3593
▁pal	-3594
▁elit	-3595
▁Dit	-3596
▁cap	-3597
▁doa	-3598
▁Kete	-3599
▁iaran	-3600
ind	-3601
▁AH	-3602
▁keu	-3603
▁beru	-3604
▁Je	-3605
▁raj	-3606
▁pany	-3607
UD	-3608
▁SMK	-3609
▁sna	-3610
▁sasi	-3611
▁cc	-3612
▁iany	-3613
▁dig	-3614
▁ean	-3615
▁ven	-3616
▁adai	-3617
▁andan	-3618
▁impan	-3619
▁ongan	-3620
▁PPP	-3621
▁dir	-3622
▁asia	-3623
▁apura	-3624
▁Pos	-3625
▁jad	-3626
▁Tang	-3627
▁eksp	-3628
▁seti	-3629
apa	-3630
▁pah	-3631
▁onis	-3632
▁rtai	-3633
▁tinya	-3634
▁imi	-3635
▁ros	-3636
▁sub	-3637
▁arno	-3638
▁gama	-3639
▁lora	-3640
▁nfir	-3641
▁oh	-3642
▁rie	-3643
▁uah	-3644
▁rukan	-3645
ON	-3646
▁Wah	-3647
▁ait	-3648
▁ane	-3649
▁erc	-3650
▁ida	-3651
▁terta	-3652
▁Str	-3653
HP	-3654
▁puas	-3655
▁spada	-3656
▁rol	-3657
▁El	-3658
▁iko	-3659
▁egas	-3660
▁artin	-3661
▁sok	-3662
▁ahar	-3663
▁rain	-3664
▁forma	-3665
eku	-3666
▁MD	-3667
▁ly	-3668
▁sir	-3669
▁ewa	-3670
▁ond	-3671
▁istik	-3672
▁kseku	-3673
▁pis	-3674
▁tut	-3675
▁pung	-3676
▁uto	-3677
▁meme	-3678
▁Ris	-3679
▁erb	-3680
▁Maka	-3681
▁iam	-3682
▁ide	-3683
▁inda	-3684
▁mbela	-3685
▁epi	-3686
▁Mena	-3687
▁dima	-3688
EN	-3689
▁arya	-3690
▁gres	-3691
▁mpah	-3692
▁rgan	-3693
▁antik	-3694
▁sil	-3695
▁dira	-3696
▁nstr	-3697
▁Gen	-3698
▁gri	-3699
▁pit	-3700
▁tain	-3701
▁erkat	-3702
▁itung	-3703
▁UN	-3704
▁ite	-3705
▁lik	-3706
▁Andi	-3707
▁Unit	-3708
▁iber	-3709
▁ihat	-3710
▁iran	-3711
▁tama	-3712
▁aan	-3713
▁kew	-3714
▁kro	-3715
▁ndy	-3716
▁rul	-3717
▁alas	-3718
▁awah	-3719
▁rsit	-3720
▁mam	-3721
▁yam	-3722
▁Hadi	-3723
▁ambu	-3724
▁pemu	-3725
▁star	-3726
▁rge	-3727
▁sut	-3728
▁Pl	-3729
▁Hid	-3730
▁red	-3731
▁gula	-3732
▁Penc	-3733
▁ndas	-3734
▁ngkas	-3735
▁Za	-3736
▁anas	-3737
▁enko	-3738
▁ging	-3739
▁sc	-3740
▁Pan	-3741
▁ayan	-3742
▁ntri	-3743
▁RUU	-3744
▁luh	-3745
▁mele	-3746
▁tral	-3747
▁ndera	-3748
RT	-3749
▁aro	-3750
▁suk	-3751
▁Hu	-3752
▁Unive	-3753
▁It	-3754
▁NU	-3755
▁ast	-3756
▁gal	-3757
▁hir	-3758
▁agia	-3759
▁amah	-3760
▁erdas	-3761
▁ika	-3762
▁uan	-3763
▁ewas	-3764
▁ideo	-3765
▁asu	-3766
▁kta	-3767
▁jung	-3768
▁He	-3769
▁ug	-3770
▁EAN	-3771
▁SMA	-3772
▁tta	-3773
▁inal	-3774
▁ater	-3775
▁lakuk	-3776
▁Gu	-3777
▁pot	-3778
▁arik	-3779
▁diko	-3780
▁onda	-3781
▁teru	-3782
BS	-3783
DO	-3784
▁onf	-3785
▁rep	-3786
▁riy	-3787
▁kira	-3788
▁ence	-3789
▁rema	-3790
▁teks	-3791
▁teror	-3792
▁WNA	-3793
▁ding	-3794
▁enar	-3795
▁ea	-3796
▁kru	-3797
▁urn	-3798
▁atis	-3799
▁mpun	-3800
▁ntas	-3801
▁eam	-3802
▁lut	-3803
▁alan	-3804
▁egal	-3805
▁bek	-3806
▁isis	-3807
▁lest	-3808
▁esuai	-3809
▁AM	-3810
▁gelo	-3811
▁sias	-3812
▁ikat	-3813
▁saha	-3814
▁IS	-3815
▁HUT	-3816
▁tya	-3817
▁satu	-3818
▁susu	-3819
▁ibuan	-3820
aru	-3821
▁bersa	-3822
▁KM	-3823
▁dj	-3824
▁Mau	-3825
▁Min	-3826
▁rad	-3827
▁ikir	-3828
▁ulai	-3829
▁angku	-3830
▁oma	-3831
▁dara	-3832
▁dium	-3833
▁erapa	-3834
▁ST	-3835
▁ilo	-3836
▁eter	-3837
▁CS	-3838
▁Fak	-3839
▁dok	-3840
▁pet	-3841
▁arto	-3842
▁eras	-3843
▁turn	-3844
▁indak	-3845
▁lekt	-3846
▁Dj	-3847
▁rya	-3848
▁sli	-3849
▁sesi	-3850
▁edera	-3851
▁ede	-3852
▁asin	-3853
▁king	-3854
▁eland	-3855
▁Kese	-3856
▁hmad	-3857
▁umah	-3858
▁cet	-3859
▁med	-3860
▁nada	-3861
▁AC	-3862
▁iun	-3863
▁nggel	-3864
▁pus	-3865
▁elum	-3866
▁manya	-3867
▁RT	-3868
▁dup	-3869
▁liter	-3870
JS	-3871
▁PSS	-3872
▁rkan	-3873
▁cok	-3874
▁gul	-3875
▁rman	-3876
▁ndeng	-3877
▁produ	-3878
▁eret	-3879
▁erma	-3880
▁KAI	-3881
▁35	-3882
▁oho	-3883
▁PSSI	-3884
▁lumn	-3885
▁mbat	-3886
UP	-3887
▁acu	-3888
▁Bany	-3889
▁anis	-3890
▁ukan	-3891
▁ost	-3892
▁lari	-3893
▁raksi	-3894
▁@	-3895
▁iru	-3896
▁led	-3897
▁meno	-3898
▁paya	-3899
▁Man	-3900
▁Tae	-3901
▁ret	-3902
▁yur	-3903
▁arana	-3904
▁polit	-3905
▁OR	-3906
▁Tel	-3907
▁lom	-3908
▁band	-3909
OA	-3910
▁ambat	-3911
▁engge	-3912
▁itusi	-3913
▁hap	-3914
▁sua	-3915
▁kter	-3916
▁pons	-3917
▁rate	-3918
▁rtis	-3919
▁Tok	-3920
▁andu	-3921
▁itia	-3922
▁jari	-3923
▁enggu	-3924
▁ams	-3925
▁ead	-3926
▁roli	-3927
▁distr	-3928
▁80	-3929
▁HO	-3930
▁timal	-3931
▁Dewa	-3932
▁puan	-3933
▁tris	-3934
▁rlind	-3935
▁DE	-3936
▁rgo	-3937
▁val	-3938
▁nduk	-3939
▁za	-3940
▁aim	-3941
▁bil	-3942
▁lob	-3943
▁liar	-3944
▁reka	-3945
▁ulus	-3946
▁ndika	-3947
▁yangk	-3948
▁ota	-3949
▁oyo	-3950
▁alau	-3951
▁iana	-3952
▁menik	-3953
▁oda	-3954
▁mewa	-3955
▁ahu	-3956
▁ibi	-3957
▁lem	-3958
▁mad	-3959
▁ebak	-3960
▁elun	-3961
▁gaya	-3962
▁pura	-3963
▁PNS	-3964
▁Bl	-3965
▁TKP	-3966
▁orp	-3967
▁alal	-3968
▁YOG	-3969
▁idu	-3970
▁omm	-3971
▁jm	-3972
▁ute	-3973
▁khir	-3974
▁YOGYA	-3975
▁ateri	-3976
▁arg	-3977
▁imo	-3978
▁thi	-3979
▁Mend	-3980
▁alim	-3981
▁nald	-3982
▁uro	-3983
▁asan	-3984
▁entu	-3985
▁70	-3986
▁Fi	-3987
▁SO	-3988
▁odo	-3989
▁van	-3990
▁Dn	-3991
▁ij	-3992
▁top	-3993
▁ktor	-3994
▁mda	-3995
▁agen	-3996
▁njam	-3997
▁ermin	-3998
mba	-3999
▁rv	-4000
▁nut	-4001
▁oll	-4002
▁deral	-4003
▁AN	-4004
▁Bi	-4005
▁sm	-4006
▁va	-4007
▁Ayu	-4008
▁Mis	-4009
▁enu	-4010
▁curi	-4011
▁embu	-4012
▁din	-4013
▁arap	-4014
▁imis	-4015
▁emudi	-4016
▁BT	-4017
▁Mus	-4018
▁eco	-4019
▁epo	-4020
▁ugi	-4021
▁rakt	-4022
▁spor	-4023
▁paran	-4024
▁IM	-4025
▁uli	-4026
▁inar	-4027
▁ukul	-4028
▁urit	-4029
LO	-4030
▁WITA	-4031
▁onor	-4032
▁uel	-4033
▁itar	-4034
▁oran	-4035
▁ae	-4036
▁fl	-4037
▁kab	-4038
▁amal	-4039
▁lini	-4040
▁AD	-4041
▁dipa	-4042
▁sine	-4043
▁jamin	-4044
▁kinan	-4045
▁anju	-4046
▁ians	-4047
▁adik	-4048
▁CC	-4049
▁KI	-4050
▁uju	-4051
▁vasi	-4052
▁CO	-4053
▁ll	-4054
▁asila	-4055
▁eban	-4056
▁BI	-4057
▁enj	-4058
▁stri	-4059
▁dah	-4060
▁inis	-4061
▁eda	-4062
▁oor	-4063
▁tro	-4064
▁ekas	-4065
▁fung	-4066
▁tari	-4067
▁ngaja	-4068
▁Sy	-4069
▁nes	-4070
▁dera	-4071
▁via	-4072
▁yap	-4073
▁iasa	-4074
▁ujuan	-4075
AP	-4076
▁rest	-4077
▁nggak	-4078
▁ash	-4079
▁sto	-4080
▁seri	-4081
▁hn	-4082
▁nve	-4083
▁ule	-4084
▁etah	-4085
▁kond	-4086
▁ombo	-4087
▁fungs	-4088
▁tt	-4089
▁BKN	-4090
▁rpo	-4091
▁alik	-4092
▁ambah	-4093
▁dud	-4094
▁nag	-4095
▁unt	-4096
▁Perd	-4097
RO	-4098
▁iy	-4099
▁erke	-4100
▁ndam	-4101
▁skus	-4102
▁200	-4103
▁AFF	-4104
▁idup	-4105
▁ming	-4106
▁KS	-4107
▁PE	-4108
▁gn	-4109
▁rai	-4110
▁oris	-4111
▁PLN	-4112
▁KH	-4113
▁BOG	-4114
▁Dwi	-4115
▁ndo	-4116
▁dali	-4117
▁ekal	-4118
▁erto	-4119
ena	-4120
▁oy	-4121
▁gam	-4122
▁nekan	-4123
▁penda	-4124
▁AFP	-4125
▁rab	-4126
▁rahan	-4127
▁Dh	-4128
▁VOA	-4129
▁asp	-4130
▁leh	-4131
▁integ	-4132
▁fa	-4133
▁BBM	-4134
▁Far	-4135
▁Han	-4136
▁aih	-4137
▁elen	-4138
▁pera	-4139
▁ago	-4140
▁fan	-4141
▁mbina	-4142
▁rtasi	-4143
▁NI	-4144
▁odus	-4145
▁etahu	-4146
▁Ek	-4147
▁Sim	-4148
▁duduk	-4149
▁caya	-4150
▁aid	-4151
▁babk	-4152
▁ewan	-4153
▁uali	-4154
▁get	-4155
▁lig	-4156
▁ted	-4157
▁risti	-4158
▁sosia	-4159
▁ado	-4160
▁aut	-4161
▁pl	-4162
▁orm	-4163
▁sho	-4164
▁ssa	-4165
▁enti	-4166
▁ntai	-4167
▁3,	-4168
▁NAT	-4169
▁ass	-4170
▁diku	-4171
▁hani	-4172
▁jadik	-4173
▁500	-4174
▁PSM	-4175
▁wah	-4176
▁terti	-4177
▁BS	-4178
▁hr	-4179
▁nder	-4180
▁etika	-4181
▁ngkal	-4182
▁fak	-4183
▁BM	-4184
▁Kha	-4185
▁aul	-4186
▁RSUD	-4187
▁IV	-4188
▁Tb	-4189
▁Did	-4190
▁dem	-4191
▁oso	-4192
▁berma	-4193
▁prose	-4194
▁hm	-4195
▁lv	-4196
▁ahat	-4197
▁dina	-4198
▁ahana	-4199
▁ision	-4200
▁nai	-4201
▁Cu	-4202
▁Dem	-4203
▁dus	-4204
▁rma	-4205
NU	-4206
▁DW	-4207
▁ES	-4208
▁uha	-4209
▁Fo	-4210
▁MU	-4211
▁Ph	-4212
▁rta	-4213
▁ghan	-4214
▁sebab	-4215
▁Kim	-4216
▁out	-4217
▁uki	-4218
▁kanto	-4219
▁32	-4220
▁mani	-4221
▁pele	-4222
▁pertu	-4223
▁ph	-4224
▁Com	-4225
▁DPC	-4226
▁raf	-4227
▁sung	-4228
▁ndala	-4229
▁Up	-4230
▁Tbk	-4231
▁erp	-4232
▁kian	-4233
▁ngar	-4234
▁over	-4235
▁lobal	-4236
▁putra	-4237
▁Kab	-4238
▁mul	-4239
▁ranc	-4240
▁ting	-4241
▁San	-4242
▁Sha	-4243
▁igi	-4244
su	-4245
▁kp	-4246
▁lot	-4247
▁egar	-4248
▁rsatu	-4249
wo	-4250
▁ffi	-4251
▁igit	-4252
▁apor	-4253
▁rial	-4254
▁Ade	-4255
▁PPN	-4256
▁aktu	-4257
▁arna	-4258
▁etiap	-4259
▁oco	-4260
▁ree	-4261
▁keke	-4262
▁mara	-4263
▁rkas	-4264
▁NATO	-4265
▁siko	-4266
▁tangg	-4267
PP	-4268
▁Bar	-4269
▁ansa	-4270
▁erpo	-4271
▁+	-4272
▁hol	-4273
BN	-4274
▁FI	-4275
▁nh	-4276
▁nz	-4277
▁den	-4278
▁nny	-4279
▁akin	-4280
▁unik	-4281
▁how	-4282
▁spek	-4283
▁syah	-4284
▁BPK	-4285
▁gia	-4286
▁mate	-4287
▁ncurk	-4288
▁AMI	-4289
▁fes	-4290
▁adj	-4291
▁ami	-4292
▁adin	-4293
▁mari	-4294
▁ale	-4295
▁ukkan	-4296
▁bad	-4297
▁dau	-4298
▁hin	-4299
▁iji	-4300
▁kuk	-4301
▁mur	-4302
▁adis	-4303
▁niat	-4304
▁NTT	-4305
▁rr	-4306
▁tunt	-4307
▁ambi	-4308
▁duan	-4309
▁Seti	-4310
▁moti	-4311
▁Gol	-4312
▁nol	-4313
▁imak	-4314
▁ening	-4315
▁ilaku	-4316
PS	-4317
▁ceh	-4318
▁duka	-4319
▁ps	-4320
▁tip	-4321
▁dasi	-4322
▁isan	-4323
▁legal	-4324
▁nakan	-4325
▁teria	-4326
▁terse	-4327
▁Eks	-4328
▁fic	-4329
▁rno	-4330
▁sam	-4331
▁evel	-4332
▁wasa	-4333
PU	-4334
lat	-4335
▁cor	-4336
▁Sant	-4337
▁pira	-4338
▁kuran	-4339
▁hy	-4340
▁rel	-4341
▁stin	-4342
▁luncu	-4343
WA	-4344
▁Im	-4345
▁km	-4346
▁ui	-4347
▁usti	-4348
▁mon	-4349
▁PSBS	-4350
▁kis	-4351
▁Info	-4352
▁elem	-4353
▁nand	-4354
▁nasi	-4355
▁erima	-4356
▁Garu	-4357
▁mala	-4358
▁risi	-4359
▁terna	-4360
▁erti	-4361
▁lapa	-4362
▁nia	-4363
▁rim	-4364
▁usif	-4365
▁Sp	-4366
▁iman	-4367
▁uhnya	-4368
▁36	-4369
▁ejar	-4370
▁ukar	-4371
▁matik	-4372
▁mbung	-4373
▁Ida	-4374
▁nus	-4375
▁rwa	-4376
▁yar	-4377
▁erse	-4378
KPP	-4379
gaw	-4380
▁90	-4381
▁Ky	-4382
▁Bas	-4383
▁gir	-4384
▁ereb	-4385
▁nangk	-4386
▁Mel	-4387
▁edik	-4388
ty	-4389
▁TH	-4390
▁ein	-4391
▁mpe	-4392
▁nce	-4393
▁vok	-4394
▁ngis	-4395
▁seli	-4396
▁vita	-4397
▁45	-4398
▁Kej	-4399
▁rdo	-4400
▁ric	-4401
▁Inte	-4402
▁ikap	-4403
▁1.	-4404
▁PR	-4405
▁XX	-4406
▁ci	-4407
▁aun	-4408
▁gemb	-4409
FA	-4410
▁PNM	-4411
▁Sah	-4412
▁fit	-4413
▁GB	-4414
▁OP	-4415
▁UI	-4416
▁UK	-4417
▁cip	-4418
▁fri	-4419
▁AMIN	-4420
▁isar	-4421
▁ompo	-4422
▁putri	-4423
▁Pus	-4424
▁adak	-4425
▁situ	-4426
▁indu	-4427
▁ncob	-4428
▁UP	-4429
▁Dip	-4430
▁Jak	-4431
▁ann	-4432
▁enge	-4433
▁diber	-4434
▁ael	-4435
▁kang	-4436
▁Angka	-4437
▁abung	-4438
▁PMI	-4439
▁PPD	-4440
▁ess	-4441
▁oka	-4442
▁enta	-4443
▁enand	-4444
▁okal	-4445
▁umpa	-4446
▁elaka	-4447
▁abo	-4448
▁hel	-4449
▁hop	-4450
▁Mari	-4451
▁asok	-4452
▁ement	-4453
ie	-4454
▁edis	-4455
▁nega	-4456
▁yadi	-4457
▁ampir	-4458
▁oin	-4459
▁esti	-4460
▁Hak	-4461
▁can	-4462
▁say	-4463
▁ader	-4464
▁ales	-4465
▁lili	-4466
▁mes	-4467
▁engka	-4468
▁arl	-4469
▁ngi	-4470
▁otal	-4471
▁GP	-4472
▁IB	-4473
▁MI	-4474
▁dri	-4475
▁udy	-4476
▁ramp	-4477
▁masan	-4478
▁PM	-4479
▁Jam	-4480
▁ebo	-4481
▁aker	-4482
▁elat	-4483
▁tria	-4484
▁valu	-4485
▁ahter	-4486
▁berpe	-4487
▁lomba	-4488
▁ekam	-4489
▁haya	-4490
OR	-4491
▁Bul	-4492
▁ath	-4493
▁omen	-4494
▁TK	-4495
▁USD	-4496
▁aba	-4497
▁gat	-4498
▁lab	-4499
▁ando	-4500
▁ewat	-4501
▁enaga	-4502
▁34	-4503
▁AZ	-4504
▁sr	-4505
▁atah	-4506
▁ruan	-4507
▁sion	-4508
▁inv	-4509
▁ubu	-4510
▁respo	-4511
▁ms	-4512
▁SMP	-4513
▁elu	-4514
▁gak	-4515
▁obo	-4516
▁oman	-4517
▁alkan	-4518
▁Tra	-4519
▁gis	-4520
▁let	-4521
▁anga	-4522
▁nsyah	-4523
▁CSR	-4524
▁abe	-4525
▁him	-4526
▁inya	-4527
▁puti	-4528
▁trik	-4529
▁anggi	-4530
▁det	-4531
▁ple	-4532
▁lias	-4533
▁edang	-4534
▁motor	-4535
EMB	-4536
▁ias	-4537
▁kak	-4538
▁sin	-4539
▁ust	-4540
▁ante	-4541
▁keti	-4542
▁lamb	-4543
▁sita	-4544
est	-4545
▁agam	-4546
▁raha	-4547
▁ode	-4548
▁pere	-4549
▁ty	-4550
▁cak	-4551
▁che	-4552
▁nim	-4553
▁ipil	-4554
▁iras	-4555
▁mika	-4556
▁eus	-4557
▁tal	-4558
▁sida	-4559
▁May	-4560
▁tok	-4561
▁Beri	-4562
▁ksik	-4563
▁4,	-4564
▁koh	-4565
▁til	-4566
▁ecam	-4567
▁osok	-4568
POK	-4569
▁KL	-4570
▁Api	-4571
▁kna	-4572
▁nja	-4573
▁rmo	-4574
▁ugas	-4575
▁DEPOK	-4576
▁lihan	-4577
th	-4578
▁bd	-4579
▁vi	-4580
▁ony	-4581
▁seg	-4582
▁nggo	-4583
▁ora	-4584
▁prov	-4585
▁Semen	-4586
▁arkan	-4587
▁pegaw	-4588
AI	-4589
▁ose	-4590
▁rni	-4591
▁tic	-4592
▁ikel	-4593
▁isip	-4594
▁manu	-4595
▁onstr	-4596
BP	-4597
MS	-4598
▁Au	-4599
▁bra	-4600
▁buk	-4601
▁dat	-4602
▁shi	-4603
▁perc	-4604
▁eleng	-4605
▁nek	-4606
▁rev	-4607
▁mran	-4608
▁presi	-4609
▁yal	-4610
▁etap	-4611
▁ipe	-4612
▁ansy	-4613
▁keha	-4614
▁ngko	-4615
▁rint	-4616
▁EV	-4617
▁erna	-4618
▁irin	-4619
▁ampil	-4620
▁bersi	-4621
▁endah	-4622
▁setia	-4623
▁uruan	-4624
▁75	-4625
▁uy	-4626
▁dor	-4627
▁ungk	-4628
DA	-4629
▁Ip	-4630
▁300	-4631
▁cal	-4632
▁ahal	-4633
▁nemp	-4634
▁rana	-4635
▁rsel	-4636
▁Cak	-4637
▁etn	-4638
▁mpu	-4639
▁KUHP	-4640
▁tikan	-4641
co	-4642
▁sia	-4643
▁pemba	-4644
▁piras	-4645
IS	-4646
▁RW	-4647
▁oi	-4648
▁Top	-4649
▁kot	-4650
▁sha	-4651
▁utar	-4652
▁nif	-4653
▁Sil	-4654
▁ebu	-4655
▁tertu	-4656
▁ipi	-4657
▁lmu	-4658
▁amer	-4659
▁bara	-4660
▁emat	-4661
▁isal	-4662
▁ngun	-4663
▁maham	-4664
▁ake	-4665
▁gim	-4666
▁rop	-4667
▁ngel	-4668
▁mengi	-4669
GM	-4670
▁araw	-4671
▁iapa	-4672
▁33	-4673
▁Vs	-4674
▁Nov	-4675
▁asc	-4676
▁mpo	-4677
▁odi	-4678
▁osa	-4679
▁rsa	-4680
▁uba	-4681
▁yaa	-4682
▁BPJS	-4683
▁arda	-4684
▁arte	-4685
▁ulik	-4686
▁uman	-4687
▁1-	-4688
▁jun	-4689
▁nad	-4690
▁neka	-4691
OM	-4692
▁38	-4693
▁cha	-4694
▁obj	-4695
▁spa	-4696
▁istr	-4697
▁nel	-4698
▁saw	-4699
▁adah	-4700
▁Ric	-4701
▁hon	-4702
▁kek	-4703
▁cana	-4704
▁WNI	-4705
▁epan	-4706
▁mark	-4707
▁suki	-4708
▁arget	-4709
▁BC	-4710
▁MS	-4711
▁Bak	-4712
▁kti	-4713
▁2.	-4714
▁AHY	-4715
▁SOLO	-4716
▁mnas	-4717
▁anaan	-4718
▁arasi	-4719
▁emang	-4720
AL	-4721
ere	-4722
omo	-4723
▁sA	-4724
▁gon	-4725
▁lev	-4726
▁mew	-4727
▁DKPP	-4728
▁fesi	-4729
▁jutk	-4730
▁stem	-4731
RWA	-4732
▁bet	-4733
▁div	-4734
▁moto	-4735
▁Va	-4736
▁aum	-4737
▁mada	-4738
▁nget	-4739
▁uruk	-4740
▁utip	-4741
BU	-4742
▁ER	-4743
▁Xi	-4744
▁ye	-4745
▁onv	-4746
▁agus	-4747
▁nant	-4748
▁rl	-4749
▁Ked	-4750
▁abi	-4751
▁lia	-4752
▁ilan	-4753
▁itan	-4754
▁ndek	-4755
▁ngku	-4756
▁nter	-4757
▁berge	-4758
▁PPK	-4759
▁pte	-4760
▁ATEN	-4761
▁Cent	-4762
▁apur	-4763
▁erdi	-4764
▁ilik	-4765
▁otak	-4766
▁aspad	-4767
▁katan	-4768
▁onfir	-4769
▁anpa	-4770
▁eder	-4771
▁ntal	-4772
▁peru	-4773
▁radi	-4774
▁rong	-4775
▁umbu	-4776
Di	-4777
WF	-4778
▁EU	-4779
▁ulk	-4780
▁ABUP	-4781
▁rent	-4782
▁ubar	-4783
▁ataan	-4784
▁endam	-4785
▁erluk	-4786
▁omo	-4787
▁PBNU	-4788
▁bowo	-4789
▁nata	-4790
▁engga	-4791
EC	-4792
▁(1	-4793
▁Rai	-4794
▁aia	-4795
▁chi	-4796
▁hli	-4797
▁vent	-4798
▁erasa	-4799
ED	-4800
▁OA	-4801
▁KTT	-4802
▁mos	-4803
▁nyar	-4804
▁uler	-4805
▁langk	-4806
▁njang	-4807
▁rangk	-4808
▁Bri	-4809
▁Net	-4810
▁dom	-4811
▁Jemb	-4812
▁olab	-4813
▁arena	-4814
▁cipta	-4815
ce	-4816
▁fli	-4817
▁tub	-4818
▁aram	-4819
▁sport	-4820
▁Fe	-4821
▁PG	-4822
▁BNP	-4823
▁als	-4824
▁car	-4825
▁con	-4826
▁sun	-4827
▁aula	-4828
▁awat	-4829
NAS	-4830
▁UE	-4831
▁Dar	-4832
▁	-4833
a	-4834
n	-4835
e	-4836
i	-4837
r	-4838
t	-4839
u	-4840
k	-4841
m	-4842
s	-4843
d	-4844
g	-4845
l	-4846
p	-4847
o	-4848
b	-4849
h	-4850
y	-4851
,	-4852
.	-4853
j	-4854
P	-4855
S	-4856
K	-4857
A	-4858
2	-4859
c	-4860
B	-4861
w	-4862
I	-4863
M	-4864
0	-4865
D	-4866
T	-4867
-	-4868
R	-4869
1	-4870
J	-4871
f	-4872
"	-4873
N	-4874
)	-4875
(	-4876
4	-4877
G	-4878
H	-4879
U	-4880
v	-4881
C	-4882
W	-4883
L	-4884
/	-4885
3	-4886
5	-4887
F	-4888
E	-4889
O	-4890
9	-4891
:	-4892
7	-4893
6	-4894
8	-4895
z	-4896
Y	-4897
V	-4898
'	-4899
Z	-4900
x	-4901
X	-4902
?	-4903
[	-4904
]	-4905
q	-4906
Q	-4907
&	-4908
%	-4909
;	-4910
$	-4911
!	-4912
@	-4913
+	-4914
#	-4915
_	-4916
é	-4917
*	-4918
á	-4919
ü	-4920
ö	-4921
è	-4922
°	-4923
=	-4924
í	-4925
ñ	-4926
ó	-4927
•	-4928
±	-4929
€	-4930
£	-4931
ú	-4932
ä	-4933
®	-4934
â	-4935
ı	-4936
>	-4937
`	-4938
ã	-4939
′	-4940
ć	-4941
×	-4942
ê	-4943
ï	-4944
\	-4945
Ó	-4946
à	-4947
ô	-4948
⁠	-4949
Ç	-4950
Ü	-4951
ç	-4952
ì	-4953
ş	-4954
⁄	-4955
😭	-4956
<	-4957
·	-4958
ø	-4959
μ	-4960
−	-4961
Á	-4962
Ä	-4963
Ö	-4964
ë	-4965
ā	-4966
ğ	-4967
š	-4968
Â	-4969
É	-4970
ð	-4971
ò	-4972
õ	-4973
Ā	-4974
ę	-4975
İ	-4976
ķ	-4977
Ł	-4978
ł	-4979
ś	-4980
ơ	-4981
ư	-4982
́	-4983
Α	-4984
Η	-4985
Τ	-4986
α	-4987
‍	-4988
≥	-4989
丽	-4990
安	-4991
洪	-4992
金	-4993
陈	-4994
🍌	-4995
😊	-4996
