<unk>	0
<s>	0
</s>	0
an	-0
▁a	-1
▁m	-2
▁d	-3
▁an	-4
▁k	-5
er	-6
▁i	-7
▁s	-8
▁n	-9
▁p	-10
en	-11
▁t	-12
▁,	-13
▁b	-14
ar	-15
▁u	-16
la	-17
▁.	-18
▁r	-19
at	-20
ang	-21
▁di	-22
as	-23
ak	-24
▁P	-25
▁e	-26
▁o	-27
ya	-28
▁me	-29
▁se	-30
▁S	-31
▁men	-32
tu	-33
▁K	-34
ah	-35
▁2	-36
▁l	-37
in	-38
al	-39
▁ke	-40
▁h	-41
▁y	-42
si	-43
ga	-44
▁in	-45
▁j	-46
ad	-47
ta	-48
▁yang	-49
▁B	-50
▁A	-51
▁M	-52
▁dan	-53
▁kan	-54
▁0	-55
▁pe	-56
▁un	-57
un	-58
▁-	-59
am	-60
▁ter	-61
▁la	-62
▁D	-63
▁ber	-64
▁nya	-65
eng	-66
▁g	-67
▁T	-68
▁J	-69
▁1	-70
ik	-71
▁"	-72
▁I	-73
▁ng	-74
uk	-75
▁c	-76
▁er	-77
il	-78
▁(	-79
▁)	-80
ap	-81
▁te	-82
▁R	-83
ut	-84
ala	-85
▁ak	-86
▁ti	-87
▁4	-88
ari	-89
ur	-90
▁ar	-91
▁ang	-92
us	-93
on	-94
um	-95
▁meng	-96
ara	-97
or	-98
ada	-99
▁w	-100
it	-101
is	-102
▁per	-103
es	-104
tuk	-105
ih	-106
▁mb	-107
ing	-108
ma	-109
▁untuk	-110
▁Ke	-111
▁pada	-112
▁ba	-113
ir	-114
▁H	-115
ti	-116
da	-117
ab	-118
▁en	-119
om	-120
mb	-121
▁N	-122
alam	-123
▁ah	-124
▁al	-125
▁deng	-126
▁W	-127
▁ini	-128
▁itu	-129
▁ne	-130
▁G	-131
▁ol	-132
mp	-133
▁/	-134
▁dari	-135
el	-136
▁C	-137
lah	-138
▁Se	-139
▁L	-140
▁is	-141
▁mas	-142
▁ap	-143
▁nt	-144
▁In	-145
▁pen	-146
ata	-147
▁si	-148
gi	-149
▁U	-150
▁dalam	-151
ek	-152
▁ngk	-153
▁or	-154
wa	-155
▁nj	-156
▁at	-157
sia	-158
▁nd	-159
▁3	-160
ul	-161
ai	-162
ri	-163
▁ta	-164
ia	-165
asi	-166
ung	-167
▁f	-168
▁mp	-169
aya	-170
▁as	-171
adi	-172
▁us	-173
uh	-174
do	-175
▁ko	-176
▁mem	-177
▁ung	-178
ud	-179
dak	-180
▁Pe	-181
▁seb	-182
▁ju	-183
eb	-184
▁F	-185
▁5	-186
▁ad	-187
▁ur	-188
ali	-189
▁ing	-190
▁tidak	-191
ukan	-192
eri	-193
▁sa	-194
▁uk	-195
te	-196
ro	-197
up	-198
ra	-199
ana	-200
gai	-201
▁telah	-202
ua	-203
▁:	-204
▁meny	-205
▁tah	-206
▁il	-207
▁Indo	-208
▁it	-209
▁tak	-210
▁sebut	-211
▁ri	-212
▁E	-213
▁na	-214
▁nesia	-215
▁akan	-216
▁re	-217
▁ik	-218
▁on	-219
lu	-220
ja	-221
▁kata	-222
▁Me	-223
▁ant	-224
▁asi	-225
▁bagai	-226
▁ro	-227
▁ek	-228
▁em	-229
sa	-230
▁menga	-231
▁peng	-232
▁um	-233
▁9	-234
nn	-235
▁jp	-236
▁jpnn	-237
▁v	-238
eh	-239
▁juga	-240
im	-241
▁id	-242
▁com	-243
▁WI	-244
ter	-245
▁ela	-246
re	-247
▁bah	-248
ok	-249
▁WIB	-250
▁atu	-251
▁takan	-252
▁7	-253
ama	-254
gar	-255
▁6	-256
▁mend	-257
▁had	-258
to	-259
▁orang	-260
▁el	-261
ami	-262
▁kar	-263
▁kukan	-264
▁Ko	-265
▁O	-266
▁8	-267
▁har	-268
abu	-269
▁pem	-270
isi	-271
▁mu	-272
▁njadi	-273
▁li	-274
▁ada	-275
ingg	-276
▁rak	-277
▁Per	-278
▁tu	-279
eka	-280
▁tahun	-281
▁am	-282
▁saat	-283
▁ab	-284
▁amp	-285
▁bahwa	-286
▁aw	-287
▁any	-288
▁ata	-289
ka	-290
▁nc	-291
▁mela	-292
ebih	-293
▁oleh	-294
▁int	-295
▁po	-296
▁st	-297
▁ngg	-298
▁ereka	-299
se	-300
▁bis	-301
▁bel	-302
jar	-303
▁ra	-304
▁nur	-305
▁lalu	-306
id	-307
et	-308
▁ion	-309
me	-310
▁ka	-311
▁lebih	-312
▁Y	-313
ub	-314
▁bisa	-315
▁ngkat	-316
▁sama	-317
ila	-318
▁le	-319
▁atau	-320
▁ok	-321
▁bar	-322
akar	-323
udah	-324
arga	-325
▁eg	-326
ita	-327
▁itas	-328
▁hadap	-329
▁ngkap	-330
▁ku	-331
▁hingg	-332
tap	-333
▁ional	-334
▁Jakar	-335
▁mil	-336
nya	-337
▁ed	-338
▁dap	-339
AR	-340
▁rb	-341
ju	-342
gu	-343
▁han	-344
esar	-345
▁rakat	-346
asa	-347
asil	-348
▁ul	-349
▁Ma	-350
ol	-351
▁min	-352
▁apa	-353
▁Di	-354
▁ib	-355
aha	-356
▁pro	-357
▁rup	-358
▁de	-359
▁dia	-360
▁up	-361
▁cara	-362
▁intah	-363
▁anyak	-364
▁ala	-365
▁sudah	-366
▁ud	-367
▁An	-368
▁belum	-369
▁kare	-370
kan	-371
tama	-372
▁amb	-373
ku	-374
▁bu	-375
▁ub	-376
▁gr	-377
▁baru	-378
▁hari	-379
▁eng	-380
▁ian	-381
▁sid	-382
▁ser	-383
▁ut	-384
▁negar	-385
ran	-386
alah	-387
▁mene	-388
▁masya	-389
mi	-390
▁menj	-391
▁adal	-392
▁Kota	-393
▁eb	-394
ati	-395
▁besar	-396
▁para	-397
and	-398
▁kami	-399
▁lu	-400
ika	-401
▁ker	-402
▁mpat	-403
TA	-404
alan	-405
▁Pen	-406
▁man	-407
▁dip	-408
jak	-409
▁dapat	-410
▁peny	-411
tai	-412
▁be	-413
▁siden	-414
hir	-415
uka	-416
▁lo	-417
▁memb	-418
▁gun	-419
▁menc	-420
▁pun	-421
▁ma	-422
▁jadi	-423
▁es	-424
wan	-425
awa	-426
▁meni	-427
▁bagi	-428
▁lama	-429
▁tetap	-430
▁lang	-431
▁ukung	-432
▁serta	-433
▁mberi	-434
▁mo	-435
▁ay	-436
▁nteri	-437
▁pat	-438
▁V	-439
▁dila	-440
▁kom	-441
▁ac	-442
▁pemer	-443
men	-444
▁pend	-445
▁anak	-446
▁AS	-447
▁tur	-448
▁hasil	-449
▁ampai	-450
▁Sen	-451
▁lat	-452
▁ya	-453
▁imp	-454
▁im	-455
▁ujar	-456
▁pa	-457
▁beb	-458
pa	-459
▁anj	-460
▁KAR	-461
▁mber	-462
▁ga	-463
▁KARTA	-464
▁Kam	-465
▁kon	-466
▁perti	-467
ve	-468
▁ungan	-469
▁umlah	-470
▁ban	-471
ko	-472
▁baik	-473
iki	-474
▁tan	-475
▁JA	-476
▁nurut	-477
▁et	-478
▁da	-479
▁angan	-480
▁paten	-481
▁elasa	-482
▁nom	-483
ha	-484
▁kas	-485
▁and	-486
▁rban	-487
▁Rabu	-488
ke	-489
▁harus	-490
▁Dia	-491
umah	-492
▁dis	-493
erah	-494
▁mbang	-495
▁akhir	-496
▁gram	-497
▁Senin	-498
▁usaha	-499
▁ep	-500
ihak	-501
▁pemb	-502
▁agi	-503
▁Kamis	-504
▁dua	-505
▁rupak	-506
▁apat	-507
▁ic	-508
go	-509
▁lit	-510
▁Sa	-511
▁DP	-512
ni	-513
▁menye	-514
ses	-515
▁masuk	-516
res	-517
▁Ber	-518
ji	-519
▁Pre	-520
▁warga	-521
ina	-522
▁wak	-523
arat	-524
▁Kabu	-525
▁nas	-526
▁kel	-527
▁beber	-528
▁Jum	-529
▁Jumat	-530
▁Ka	-531
▁antar	-532
▁Pro	-533
▁masih	-534
▁mak	-535
▁lur	-536
▁lan	-537
▁ir	-538
▁ind	-539
▁aerah	-540
gus	-541
▁osi	-542
▁yan	-543
tua	-544
aga	-545
▁saya	-546
▁erang	-547
tr	-548
▁Ba	-549
▁pihak	-550
▁iliki	-551
▁tr	-552
▁Tim	-553
▁nggal	-554
▁artai	-555
▁ny	-556
▁lalui	-557
▁nu	-558
ba	-559
▁atas	-560
amp	-561
▁ntara	-562
▁langs	-563
▁so	-564
▁mena	-565
▁ari	-566
▁salah	-567
▁rs	-568
▁Jawa	-569
man	-570
▁op	-571
▁Bali	-572
▁laku	-573
▁jalan	-574
▁sra	-575
ukum	-576
▁hanya	-577
amun	-578
ilay	-579
tor	-580
▁srael	-581
▁La	-582
▁rumah	-583
▁pala	-584
▁mel	-585
PK	-586
▁masi	-587
▁mengu	-588
▁ntang	-589
▁su	-590
hat	-591
▁ja	-592
▁ha	-593
▁tim	-594
▁Ch	-595
▁angat	-596
▁inggu	-597
bat	-598
▁ag	-599
▁Pr	-600
▁Ketua	-601
ep	-602
asar	-603
▁res	-604
▁gel	-605
lai	-606
▁kait	-607
▁z	-608
▁menu	-609
▁hal	-610
sk	-611
▁mbali	-612
▁impin	-613
▁Ta	-614
▁kali	-615
▁kerja	-616
▁no	-617
▁hadir	-618
▁uara	-619
▁but	-620
▁agian	-621
▁ia	-622
▁mana	-623
▁gi	-624
▁olisi	-625
▁wo	-626
▁ten	-627
lik	-628
▁luruh	-629
▁kasus	-630
▁buah	-631
▁kita	-632
▁Te	-633
▁isi	-634
tik	-635
▁unia	-636
▁kit	-637
▁atang	-638
gas	-639
▁lih	-640
▁Pil	-641
▁to	-642
▁rang	-643
▁wilay	-644
▁pu	-645
▁bantu	-646
▁rja	-647
ea	-648
▁ni	-649
▁Ter	-650
▁enang	-651
dua	-652
▁Kami	-653
han	-654
▁ger	-655
▁PP	-656
▁nila	-657
▁alon	-658
▁Rp	-659
▁kitar	-660
▁latan	-661
▁nting	-662
▁ikut	-663
▁Peng	-664
itas	-665
▁ki	-666
▁ip	-667
▁dang	-668
▁nilai	-669
ini	-670
▁utu	-671
▁sehat	-672
▁Sab	-673
▁'	-674
▁Sabtu	-675
▁bi	-676
▁ks	-677
▁idik	-678
▁rima	-679
▁lain	-680
▁Des	-681
▁angun	-682
▁Namun	-683
▁PT	-684
ong	-685
▁mulai	-686
▁Un	-687
▁por	-688
▁mper	-689
▁menge	-690
dia	-691
▁Bo	-692
▁ho	-693
▁luar	-694
abo	-695
▁Barat	-696
▁pre	-697
st	-698
▁hukum	-699
▁uang	-700
▁gunak	-701
▁Sur	-702
▁Keme	-703
▁dite	-704
▁rtama	-705
▁Prabo	-706
▁terus	-707
▁pela	-708
mber	-709
na	-710
▁emp	-711
▁kem	-712
▁Pem	-713
▁rsen	-714
▁angka	-715
▁ngga	-716
li	-717
▁uc	-718
▁gelar	-719
ed	-720
iri	-721
▁yak	-722
▁sem	-723
▁lihat	-724
▁af	-725
▁mbu	-726
▁tif	-727
▁agar	-728
▁jab	-729
▁kr	-730
tem	-731
▁tiga	-732
▁nyata	-733
▁isasi	-734
udi	-735
▁iri	-736
▁ara	-737
▁nding	-738
▁air	-739
▁pan	-740
▁ibu	-741
▁was	-742
▁Ini	-743
de	-744
▁upaya	-745
▁arang	-746
▁Le	-747
▁om	-748
di	-749
▁tika	-750
▁memp	-751
▁Am	-752
▁Re	-753
▁Ga	-754
▁ema	-755
▁inf	-756
ani	-757
▁nf	-758
▁minta	-759
▁kec	-760
▁idang	-761
▁ncana	-762
▁keter	-763
▁kese	-764
▁kep	-765
▁semua	-766
▁ru	-767
amb	-768
▁litik	-769
▁Mar	-770
▁mbuat	-771
▁Dalam	-772
wat	-773
pan	-774
▁asang	-775
▁tahu	-776
▁bul	-777
▁rn	-778
▁innya	-779
▁ters	-780
▁cam	-781
▁unc	-782
▁anjut	-783
▁kedua	-784
▁utama	-785
▁Z	-786
▁harga	-787
ank	-788
▁nomi	-789
▁ngah	-790
uli	-791
uber	-792
▁RI	-793
tar	-794
wi	-795
bu	-796
▁kota	-797
mad	-798
tur	-799
▁ran	-800
▁tingg	-801
▁ong	-802
las	-803
▁Ra	-804
▁roses	-805
▁ner	-806
▁depan	-807
▁nang	-808
▁milih	-809
▁dib	-810
▁ersi	-811
▁ati	-812
AN	-813
▁pas	-814
▁Band	-815
▁ahkan	-816
▁osial	-817
▁guna	-818
▁omp	-819
aku	-820
▁anc	-821
▁Ha	-822
▁elain	-823
▁anggo	-824
▁emil	-825
▁sej	-826
▁giat	-827
hi	-828
ki	-829
▁abaya	-830
▁lagi	-831
▁Kom	-832
▁kons	-833
▁Agus	-834
▁rik	-835
▁ikasi	-836
▁rod	-837
tri	-838
▁bulan	-839
▁harap	-840
▁je	-841
rans	-842
▁sp	-843
▁pak	-844
▁Saya	-845
▁roduk	-846
▁olo	-847
▁emilu	-848
▁bat	-849
▁yanan	-850
▁Pilka	-851
▁lah	-852
▁China	-853
▁ingin	-854
▁No	-855
▁apai	-856
▁waktu	-857
▁aksi	-858
▁keb	-859
▁lawan	-860
▁mempe	-861
▁Al	-862
▁asal	-863
▁manan	-864
▁ksana	-865
oto	-866
▁tugas	-867
▁emain	-868
▁Pada	-869
▁ina	-870
▁njuk	-871
▁lin	-872
▁if	-873
▁diri	-874
▁Dir	-875
▁umum	-876
▁rd	-877
▁str	-878
▁acara	-879
ca	-880
nas	-881
▁gas	-882
adan	-883
mpu	-884
▁rat	-885
▁ndak	-886
▁sak	-887
▁DPR	-888
▁engah	-889
▁dise	-890
▁Nas	-891
▁sejak	-892
za	-893
▁rasa	-894
▁tang	-895
anti	-896
▁gen	-897
▁ingat	-898
if	-899
▁antan	-900
▁camat	-901
▁Ku	-902
MK	-903
▁ndiri	-904
▁oko	-905
▁okasi	-906
▁Ameri	-907
▁10	-908
▁Ru	-909
▁alami	-910
▁uarga	-911
▁ken	-912
▁rap	-913
▁mer	-914
▁hub	-915
▁nama	-916
▁for	-917
▁awal	-918
▁penga	-919
▁akti	-920
▁rempu	-921
▁puk	-922
▁olda	-923
▁jen	-924
▁?	-925
▁vin	-926
▁war	-927
▁ns	-928
▁pene	-929
▁hi	-930
▁erada	-931
▁Sum	-932
▁De	-933
▁nar	-934
▁siap	-935
▁pil	-936
▁mar	-937
▁hak	-938
▁Li	-939
▁par	-940
▁ublik	-941
▁Kar	-942
▁antor	-943
▁ukti	-944
▁usat	-945
▁aj	-946
▁Ok	-947
▁wasan	-948
no	-949
ent	-950
▁perta	-951
▁saja	-952
▁[	-953
▁sk	-954
▁empat	-955
▁olres	-956
▁und	-957
▁wan	-958
▁menya	-959
▁malam	-960
▁]	-961
▁KP	-962
▁Ap	-963
▁ompok	-964
▁eko	-965
uj	-966
▁ndara	-967
▁Direk	-968
▁elask	-969
▁ilih	-970
▁ucap	-971
▁jabat	-972
▁mi	-973
▁eks	-974
▁hid	-975
▁lap	-976
▁dasar	-977
▁media	-978
▁sis	-979
▁eti	-980
▁erita	-981
▁ani	-982
▁juta	-983
▁diper	-984
▁uh	-985
▁ana	-986
uru	-987
▁dil	-988
atim	-989
▁Rusia	-990
▁Men	-991
▁wakil	-992
▁Hal	-993
▁hen	-994
▁tor	-995
▁ngaku	-996
▁masa	-997
▁mukan	-998
▁Um	-999
▁Jadi	-1000
san	-1001
▁rio	-1002
▁vinsi	-1003
▁rg	-1004
▁Ti	-1005
▁aftar	-1006
▁iksa	-1007
▁Pemer	-1008
▁du	-1009
▁resmi	-1010
▁Ci	-1011
▁yakni	-1012
le	-1013
▁bukan	-1014
bil	-1015
▁rus	-1016
tus	-1017
▁inter	-1018
▁Okto	-1019
▁aling	-1020
▁ntu	-1021
▁Oktob	-1022
▁PD	-1023
▁ent	-1024
▁Be	-1025
▁lek	-1026
▁njung	-1027
▁soal	-1028
▁ev	-1029
▁icara	-1030
▁neg	-1031
he	-1032
▁ambar	-1033
▁aya	-1034
alau	-1035
▁Agust	-1036
▁ben	-1037
▁panj	-1038
▁dike	-1039
▁Umum	-1040
▁PB	-1041
▁rek	-1042
▁rin	-1043
▁Guber	-1044
▁ambil	-1045
▁sar	-1046
▁astik	-1047
▁Sem	-1048
▁trans	-1049
ale	-1050
po	-1051
▁ngkah	-1052
▁do	-1053
▁arah	-1054
lo	-1055
▁Pol	-1056
▁ampak	-1057
▁PS	-1058
▁Tah	-1059
▁les	-1060
▁ling	-1061
ver	-1062
▁ef	-1063
▁Juli	-1064
▁rt	-1065
▁ec	-1066
▁Nove	-1067
▁kemud	-1068
was	-1069
▁Wak	-1070
▁Wakil	-1071
▁ndisi	-1072
▁jelas	-1073
▁Pale	-1074
▁logi	-1075
▁Tahun	-1076
▁lapor	-1077
▁hanan	-1078
▁sek	-1079
uni	-1080
▁egara	-1081
▁Mu	-1082
▁lam	-1083
▁Tr	-1084
▁nomor	-1085
oko	-1086
▁laga	-1087
▁os	-1088
▁poran	-1089
▁imb	-1090
▁kibat	-1091
▁kanan	-1092
▁nggap	-1093
▁okowi	-1094
NI	-1095
▁masal	-1096
▁ustri	-1097
▁milik	-1098
▁Semar	-1099
▁Kap	-1100
▁sitas	-1101
▁tek	-1102
▁ig	-1103
▁milit	-1104
▁Sep	-1105
▁Gaza	-1106
▁leng	-1107
▁entuk	-1108
▁anye	-1109
▁egi	-1110
▁Seme	-1111
▁Yo	-1112
nis	-1113
▁istem	-1114
▁penye	-1115
▁Pa	-1116
▁itmen	-1117
▁njukk	-1118
▁PPPK	-1119
▁uga	-1120
aat	-1121
▁njata	-1122
▁jam	-1123
▁kepe	-1124
gor	-1125
▁Pas	-1126
▁nfaat	-1127
▁mpung	-1128
▁Perta	-1129
▁ngkin	-1130
▁sing	-1131
▁keras	-1132
▁gung	-1133
▁hidup	-1134
▁pukul	-1135
▁Foto	-1136
▁benar	-1137
▁Bogor	-1138
▁sur	-1139
▁KPU	-1140
▁ist	-1141
ampu	-1142
▁mampu	-1143
▁bak	-1144
▁Ut	-1145
▁Peny	-1146
▁imnas	-1147
▁akar	-1148
▁Badan	-1149
▁juang	-1150
▁Utara	-1151
▁dita	-1152
▁tiap	-1153
▁Sta	-1154
▁wa	-1155
▁orong	-1156
▁Jalan	-1157
▁ot	-1158
▁erah	-1159
▁nal	-1160
▁rupsi	-1161
▁kamp	-1162
▁kad	-1163
PN	-1164
▁makin	-1165
▁Desa	-1166
▁ili	-1167
▁Juni	-1168
▁suai	-1169
▁tensi	-1170
▁pena	-1171
▁musi	-1172
▁lima	-1173
▁ren	-1174
▁Jan	-1175
▁20	-1176
▁did	-1177
▁lingk	-1178
▁Septe	-1179
▁kolah	-1180
▁PDI	-1181
▁jika	-1182
▁ula	-1183
▁batas	-1184
▁dak	-1185
▁Dese	-1186
▁naik	-1187
▁Mei	-1188
▁ember	-1189
abar	-1190
▁peni	-1191
▁ribu	-1192
▁usia	-1193
▁nda	-1194
▁nit	-1195
▁latih	-1196
▁njaga	-1197
▁Muh	-1198
▁penge	-1199
▁aku	-1200
▁aup	-1201
▁nggar	-1202
▁nusia	-1203
▁ateng	-1204
▁ukai	-1205
RI	-1206
▁Janu	-1207
▁Po	-1208
▁kuat	-1209
▁oper	-1210
▁rsi	-1211
ng	-1212
▁X	-1213
ho	-1214
▁egeri	-1215
▁tahui	-1216
▁umber	-1217
▁gu	-1218
▁mobil	-1219
▁nited	-1220
▁emb	-1221
ril	-1222
▁otor	-1223
▁cep	-1224
▁Hari	-1225
▁iz	-1226
▁infor	-1227
ump	-1228
▁inte	-1229
▁rk	-1230
▁aupun	-1231
▁ins	-1232
▁April	-1233
KB	-1234
▁dam	-1235
▁kap	-1236
▁bijak	-1237
▁Seb	-1238
▁put	-1239
▁rah	-1240
▁laman	-1241
▁rnah	-1242
▁penc	-1243
▁strik	-1244
▁KPK	-1245
▁yai	-1246
▁Ada	-1247
▁isata	-1248
▁Si	-1249
▁tentu	-1250
▁he	-1251
▁lengg	-1252
▁kini	-1253
▁komp	-1254
▁inasi	-1255
▁Muha	-1256
▁jar	-1257
▁perlu	-1258
▁alam	-1259
▁buka	-1260
▁mang	-1261
▁mbawa	-1262
▁ji	-1263
▁ulang	-1264
▁Tu	-1265
▁intas	-1266
lin	-1267
▁eni	-1268
▁ej	-1269
▁lamat	-1270
▁aka	-1271
▁urang	-1272
▁omisi	-1273
▁ons	-1274
▁duga	-1275
▁ugaan	-1276
▁ritas	-1277
gr	-1278
NG	-1279
▁Liga	-1280
▁cepat	-1281
▁inisi	-1282
rai	-1283
▁hus	-1284
▁siswa	-1285
▁Trump	-1286
▁rikat	-1287
▁upati	-1288
▁Uk	-1289
▁ral	-1290
▁Kem	-1291
▁Asia	-1292
▁Maret	-1293
▁Ukrai	-1294
▁12	-1295
▁tuju	-1296
▁bo	-1297
▁rinya	-1298
▁husus	-1299
▁main	-1300
tuh	-1301
▁bal	-1302
mo	-1303
▁Kor	-1304
▁son	-1305
▁ring	-1306
▁aga	-1307
▁niver	-1308
▁Para	-1309
leh	-1310
▁alang	-1311
▁butuh	-1312
▁Pend	-1313
▁Ro	-1314
▁lok	-1315
▁osisi	-1316
▁ikuti	-1317
▁Saat	-1318
▁mbaga	-1319
▁awab	-1320
▁Ang	-1321
▁ama	-1322
▁Har	-1323
▁udara	-1324
dik	-1325
ip	-1326
▁danya	-1327
▁ris	-1328
▁dilan	-1329
▁vid	-1330
▁tanpa	-1331
ot	-1332
▁punya	-1333
▁tat	-1334
▁kea	-1335
▁enai	-1336
▁stasi	-1337
▁end	-1338
atu	-1339
▁Jo	-1340
▁yaitu	-1341
▁&	-1342
wah	-1343
▁terd	-1344
▁Korea	-1345
buh	-1346
▁gera	-1347
▁ndang	-1348
▁mema	-1349
▁olri	-1350
▁iliar	-1351
▁Iran	-1352
▁Sek	-1353
▁jauh	-1354
▁mpil	-1355
▁anjar	-1356
▁Fa	-1357
▁Ar	-1358
▁nanti	-1359
▁of	-1360
▁Pra	-1361
▁uda	-1362
▁biasa	-1363
▁antas	-1364
▁ektor	-1365
▁beri	-1366
▁omb	-1367
era	-1368
▁bakal	-1369
▁ua	-1370
▁daya	-1371
▁des	-1372
▁guru	-1373
▁sen	-1374
▁Mas	-1375
▁bawah	-1376
▁naga	-1377
▁TNI	-1378
▁idana	-1379
▁uat	-1380
▁ob	-1381
▁apal	-1382
▁iv	-1383
▁karta	-1384
▁dion	-1385
▁ila	-1386
▁git	-1387
▁ria	-1388
▁alia	-1389
▁angsa	-1390
mu	-1391
▁pol	-1392
▁Anda	-1393
▁luas	-1394
▁Ind	-1395
▁iala	-1396
▁tahan	-1397
KP	-1398
▁II	-1399
▁cuk	-1400
gis	-1401
▁Co	-1402
eo	-1403
▁elang	-1404
KI	-1405
▁muda	-1406
▁seme	-1407
▁kenal	-1408
▁gital	-1409
▁ino	-1410
▁ncari	-1411
▁ola	-1412
▁Wa	-1413
▁irim	-1414
▁dek	-1415
aris	-1416
ord	-1417
▁ebab	-1418
▁ono	-1419
▁Ani	-1420
▁annya	-1421
▁aring	-1422
▁15	-1423
▁cukup	-1424
▁ngka	-1425
▁Ban	-1426
▁lesai	-1427
▁uku	-1428
▁mbak	-1429
▁aji	-1430
▁tamb	-1431
▁elo	-1432
▁Q	-1433
▁aru	-1434
▁anti	-1435
▁adi	-1436
▁tul	-1437
▁san	-1438
▁akit	-1439
▁data	-1440
▁antai	-1441
▁olu	-1442
▁Untuk	-1443
▁Air	-1444
▁30	-1445
▁kir	-1446
▁surat	-1447
▁isnis	-1448
▁isa	-1449
▁Anies	-1450
▁nam	-1451
▁jak	-1452
▁apres	-1453
▁putus	-1454
orm	-1455
▁ambut	-1456
▁gerak	-1457
▁jah	-1458
tup	-1459
ikan	-1460
▁kh	-1461
▁uaca	-1462
▁mpang	-1463
▁tihan	-1464
▁ita	-1465
▁jan	-1466
▁roy	-1467
▁ham	-1468
▁ron	-1469
▁Ah	-1470
▁Ia	-1471
▁uji	-1472
▁lajar	-1473
▁pang	-1474
▁Ab	-1475
▁asa	-1476
▁uru	-1477
▁raih	-1478
▁Keter	-1479
▁dik	-1480
▁berb	-1481
▁mmad	-1482
▁Inter	-1483
▁arat	-1484
▁mbuka	-1485
▁Deng	-1486
▁awas	-1487
▁komun	-1488
▁pekan	-1489
▁Lu	-1490
▁duk	-1491
▁agang	-1492
jo	-1493
▁rget	-1494
▁stina	-1495
▁ASN	-1496
▁Bea	-1497
▁tiv	-1498
▁etiga	-1499
▁Feb	-1500
▁maha	-1501
▁edung	-1502
▁Pap	-1503
▁Papua	-1504
▁kla	-1505
▁neger	-1506
utk	-1507
▁NT	-1508
▁Pu	-1509
▁TP	-1510
▁rub	-1511
▁maju	-1512
▁inan	-1513
▁kut	-1514
▁rubah	-1515
▁dar	-1516
▁usai	-1517
▁gask	-1518
▁tutur	-1519
▁AB	-1520
▁ejad	-1521
▁ilang	-1522
ru	-1523
▁inve	-1524
▁lind	-1525
▁tap	-1526
▁As	-1527
▁Pemb	-1528
▁beda	-1529
▁sip	-1530
▁Ahmad	-1531
▁agai	-1532
▁Ham	-1533
▁bur	-1534
▁Ac	-1535
▁ianto	-1536
▁fi	-1537
▁sta	-1538
▁henti	-1539
▁tanya	-1540
▁Da	-1541
▁Hamas	-1542
▁lanju	-1543
▁ton	-1544
▁enuh	-1545
▁ende	-1546
▁dekat	-1547
▁huj	-1548
▁isti	-1549
▁Pak	-1550
▁mbah	-1551
▁libat	-1552
▁ras	-1553
▁raga	-1554
▁peran	-1555
▁ibusi	-1556
▁olusi	-1557
▁anten	-1558
du	-1559
▁anto	-1560
▁api	-1561
▁ket	-1562
▁io	-1563
▁udaya	-1564
▁sik	-1565
▁Bu	-1566
▁mod	-1567
ura	-1568
▁rif	-1569
▁unuh	-1570
▁rtem	-1571
▁Sul	-1572
▁etak	-1573
▁ligus	-1574
▁nuju	-1575
▁ncang	-1576
▁tri	-1577
mal	-1578
▁abat	-1579
▁rdana	-1580
▁nor	-1581
▁urut	-1582
▁saksi	-1583
hon	-1584
▁Su	-1585
▁hit	-1586
▁ajak	-1587
▁seka	-1588
▁desa	-1589
▁rtemu	-1590
▁adw	-1591
▁Din	-1592
▁hujan	-1593
▁penu	-1594
▁ali	-1595
▁utra	-1596
▁siasi	-1597
ons	-1598
▁ido	-1599
▁Dep	-1600
▁ge	-1601
▁sakit	-1602
▁anya	-1603
▁tus	-1604
▁Meng	-1605
▁kand	-1606
▁pasar	-1607
▁adwal	-1608
▁yo	-1609
▁lasan	-1610
▁pres	-1611
▁visi	-1612
▁alat	-1613
▁enuhi	-1614
▁tas	-1615
▁Ri	-1616
▁erk	-1617
▁penuh	-1618
KN	-1619
▁Mes	-1620
▁cat	-1621
▁ulu	-1622
▁Depok	-1623
▁Wi	-1624
▁turun	-1625
▁16	-1626
▁Meski	-1627
▁rusak	-1628
▁apang	-1629
▁duksi	-1630
▁emo	-1631
▁fil	-1632
▁yakin	-1633
tim	-1634
▁Den	-1635
▁tanah	-1636
▁Bid	-1637
▁arta	-1638
▁olah	-1639
▁alu	-1640
▁Mal	-1641
▁Jatim	-1642
▁Febru	-1643
▁anjir	-1644
▁alur	-1645
au	-1646
▁utus	-1647
▁orasi	-1648
▁sit	-1649
▁aris	-1650
▁demo	-1651
▁kual	-1652
▁Ca	-1653
▁tekno	-1654
▁11	-1655
▁sana	-1656
▁uhan	-1657
▁Tidak	-1658
▁ancam	-1659
▁berke	-1660
▁engg	-1661
▁Kali	-1662
▁rc	-1663
usa	-1664
▁atur	-1665
▁kum	-1666
▁enam	-1667
▁aksa	-1668
▁lak	-1669
▁wat	-1670
▁epang	-1671
▁The	-1672
▁namb	-1673
▁fasil	-1674
▁Biden	-1675
▁ungsi	-1676
▁edi	-1677
▁rku	-1678
▁tep	-1679
▁bol	-1680
▁kalau	-1681
▁pel	-1682
▁uri	-1683
▁Ria	-1684
▁nju	-1685
▁riode	-1686
▁sisi	-1687
▁ersib	-1688
▁norer	-1689
▁mit	-1690
▁Bank	-1691
▁urah	-1692
▁berd	-1693
yah	-1694
▁14	-1695
▁mina	-1696
▁mat	-1697
▁q	-1698
omor	-1699
▁Nomor	-1700
▁aman	-1701
▁musim	-1702
▁Wali	-1703
▁Kemud	-1704
▁oe	-1705
▁iar	-1706
▁Ne	-1707
▁UMK	-1708
▁Salah	-1709
▁oto	-1710
▁terp	-1711
▁jat	-1712
▁lemen	-1713
▁ncur	-1714
▁dapun	-1715
▁uj	-1716
▁ai	-1717
▁DKI	-1718
▁egitu	-1719
▁tewas	-1720
▁sat	-1721
▁diba	-1722
▁ropa	-1723
▁Cal	-1724
▁amar	-1725
▁ener	-1726
▁pula	-1727
▁nurun	-1728
ski	-1729
▁akses	-1730
▁aktiv	-1731
gal	-1732
▁meski	-1733
▁elola	-1734
▁krasi	-1735
AM	-1736
▁toko	-1737
▁egah	-1738
▁Ag	-1739
▁pul	-1740
▁anta	-1741
rak	-1742
▁fin	-1743
▁mudah	-1744
▁trasi	-1745
▁tusan	-1746
▁org	-1747
▁ungi	-1748
YA	-1749
▁nik	-1750
▁sete	-1751
okus	-1752
▁fokus	-1753
▁terb	-1754
▁raky	-1755
▁bahan	-1756
▁pilih	-1757
▁atan	-1758
▁leksi	-1759
▁narko	-1760
▁utuh	-1761
▁royek	-1762
rim	-1763
▁Jabar	-1764
▁gol	-1765
▁PBB	-1766
▁co	-1767
▁meter	-1768
ant	-1769
ch	-1770
▁SD	-1771
▁art	-1772
▁mis	-1773
▁ebar	-1774
▁utih	-1775
▁alani	-1776
▁rut	-1777
▁jenis	-1778
▁elalu	-1779
▁Gi	-1780
▁Is	-1781
ustr	-1782
▁est	-1783
▁usul	-1784
▁Inst	-1785
sip	-1786
▁ganti	-1787
▁25	-1788
▁sul	-1789
▁film	-1790
▁kema	-1791
▁luka	-1792
▁mata	-1793
▁tiba	-1794
▁Dari	-1795
▁Hi	-1796
▁Jaya	-1797
▁inat	-1798
▁uduk	-1799
▁angga	-1800
▁Calon	-1801
▁13	-1802
▁Dinas	-1803
▁tot	-1804
▁anggu	-1805
▁Nusa	-1806
▁Pela	-1807
▁jatim	-1808
▁UMKM	-1809
▁Ya	-1810
▁kha	-1811
▁nat	-1812
▁video	-1813
▁turut	-1814
▁port	-1815
▁netap	-1816
▁Suma	-1817
▁BB	-1818
▁jal	-1819
SI	-1820
▁lep	-1821
▁laut	-1822
▁ngat	-1823
▁Inf	-1824
▁Und	-1825
▁Apa	-1826
▁nggul	-1827
▁njutk	-1828
▁epe	-1829
▁andar	-1830
▁18	-1831
▁24	-1832
▁Ger	-1833
▁udi	-1834
▁berat	-1835
▁urve	-1836
▁tnya	-1837
▁Ju	-1838
ujud	-1839
▁asuk	-1840
▁tulis	-1841
▁wujud	-1842
▁ca	-1843
▁tepat	-1844
tif	-1845
▁rkuat	-1846
▁urat	-1847
▁uncur	-1848
▁og	-1849
▁jabar	-1850
▁olk	-1851
▁temu	-1852
▁Penga	-1853
▁emas	-1854
▁organ	-1855
▁pakat	-1856
▁mau	-1857
lon	-1858
▁17	-1859
▁kat	-1860
▁awang	-1861
yar	-1862
▁bab	-1863
▁lewat	-1864
▁pla	-1865
▁ff	-1866
▁tik	-1867
▁final	-1868
▁lidik	-1869
▁rcaya	-1870
▁abil	-1871
▁eno	-1872
▁iap	-1873
▁maka	-1874
▁rem	-1875
▁unung	-1876
UM	-1877
▁sep	-1878
▁utri	-1879
▁resta	-1880
▁tahap	-1881
▁FC	-1882
▁amank	-1883
▁tisip	-1884
▁ril	-1885
▁ersih	-1886
▁alah	-1887
▁ibran	-1888
▁rtu	-1889
▁kola	-1890
▁PDIP	-1891
▁janji	-1892
▁Agung	-1893
▁ira	-1894
▁liti	-1895
▁ping	-1896
▁Ing	-1897
▁sos	-1898
▁kecil	-1899
▁ditu	-1900
▁dic	-1901
▁Inggr	-1902
▁St	-1903
▁Kalau	-1904
▁Austr	-1905
▁Suka	-1906
▁ubah	-1907
▁Pasal	-1908
▁tes	-1909
▁narik	-1910
▁SI	-1911
▁kasih	-1912
▁tasi	-1913
▁hati	-1914
▁pesan	-1915
▁atal	-1916
▁ate	-1917
▁rh	-1918
▁umumk	-1919
▁udah	-1920
▁teman	-1921
▁dana	-1922
▁adang	-1923
▁obat	-1924
▁mengg	-1925
▁ntung	-1926
▁angi	-1927
▁okter	-1928
▁rawat	-1929
▁bas	-1930
▁luang	-1931
▁urvei	-1932
ny	-1933
▁Budi	-1934
▁mpro	-1935
▁olkar	-1936
▁ile	-1937
▁Warga	-1938
▁dij	-1939
▁izin	-1940
▁SE	-1941
▁Gib	-1942
▁New	-1943
▁tab	-1944
▁Gibr	-1945
▁Kare	-1946
▁emu	-1947
▁atif	-1948
▁Dewan	-1949
▁ekan	-1950
▁ruang	-1951
▁sulit	-1952
▁kolab	-1953
▁go	-1954
▁ry	-1955
▁glo	-1956
▁Rumah	-1957
▁lepas	-1958
▁Denpa	-1959
▁sitif	-1960
▁kuasa	-1961
▁watir	-1962
▁Hukum	-1963
▁njual	-1964
▁pakah	-1965
▁Perse	-1966
▁mati	-1967
▁Yu	-1968
MA	-1969
▁ilm	-1970
▁nah	-1971
▁indah	-1972
em	-1973
▁ukses	-1974
▁ngani	-1975
▁isu	-1976
▁inov	-1977
▁aktif	-1978
umas	-1979
▁To	-1980
▁apre	-1981
wai	-1982
▁tum	-1983
▁onlin	-1984
▁atat	-1985
▁laki	-1986
▁ologi	-1987
▁rhati	-1988
▁Na	-1989
▁all	-1990
▁pra	-1991
▁nco	-1992
fe	-1993
▁poin	-1994
▁khus	-1995
▁Sh	-1996
▁eta	-1997
▁aslon	-1998
▁Abd	-1999
▁bahas	-2000
▁utuhk	-2001
▁BP	-2002
▁rw	-2003
▁Tak	-2004
▁enc	-2005
▁Af	-2006
▁nggil	-2007
▁yarat	-2008
▁ngan	-2009
▁Rep	-2010
▁sema	-2011
tak	-2012
▁menit	-2013
▁usnya	-2014
▁Sup	-2015
▁uncul	-2016
lam	-2017
▁BRI	-2018
▁pi	-2019
▁skrim	-2020
▁ulasi	-2021
▁puluh	-2022
▁sekar	-2023
▁ident	-2024
▁rensi	-2025
▁27	-2026
▁glob	-2027
▁uasa	-2028
▁av	-2029
▁ex	-2030
▁lib	-2031
▁Itu	-2032
▁jang	-2033
▁tegas	-2034
▁gab	-2035
▁lahir	-2036
▁rsiap	-2037
▁spons	-2038
▁nggu	-2039
▁agama	-2040
▁akang	-2041
▁kalah	-2042
▁sawat	-2043
▁engar	-2044
▁ituas	-2045
▁unit	-2046
cu	-2047
▁stra	-2048
▁bun	-2049
▁isme	-2050
▁Ho	-2051
▁Riau	-2052
▁roleh	-2053
▁berta	-2054
▁dikit	-2055
▁total	-2056
▁Kas	-2057
▁Has	-2058
▁uktur	-2059
▁Utama	-2060
▁bayar	-2061
▁RS	-2062
▁iptak	-2063
MI	-2064
▁Ng	-2065
▁uami	-2066
▁makan	-2067
▁SAR	-2068
▁kumen	-2069
▁ens	-2070
▁krat	-2071
▁mung	-2072
▁ram	-2073
▁adar	-2074
▁mpir	-2075
▁dipe	-2076
▁umen	-2077
▁PN	-2078
▁pagi	-2079
▁Ki	-2080
▁Besar	-2081
▁atuan	-2082
▁guber	-2083
▁Uni	-2084
▁erman	-2085
▁19	-2086
▁UU	-2087
▁Yog	-2088
▁22	-2089
▁Yogya	-2090
▁mungk	-2091
▁Tri	-2092
▁bin	-2093
▁pasti	-2094
▁emiki	-2095
▁damai	-2096
▁bali	-2097
▁urus	-2098
▁tua	-2099
▁marin	-2100
▁rkara	-2101
▁taris	-2102
▁PK	-2103
▁BA	-2104
▁inc	-2105
▁atasi	-2106
▁pasuk	-2107
▁gagal	-2108
▁Kel	-2109
▁Sat	-2110
▁upa	-2111
▁ntar	-2112
▁Raya	-2113
▁Dua	-2114
▁rib	-2115
▁suh	-2116
▁ayang	-2117
▁catat	-2118
▁energ	-2119
▁sonel	-2120
▁waslu	-2121
▁etu	-2122
▁rapan	-2123
▁iaya	-2124
▁inta	-2125
▁ebabk	-2126
▁rilis	-2127
▁gawai	-2128
▁BMK	-2129
▁sel	-2130
▁rtumb	-2131
▁BMKG	-2132
▁tra	-2133
▁asar	-2134
▁ity	-2135
▁DPRD	-2136
▁rugi	-2137
▁23	-2138
▁eh	-2139
▁sy	-2140
▁ine	-2141
▁Kemen	-2142
▁bebas	-2143
▁ch	-2144
▁tubuh	-2145
▁ow	-2146
▁mom	-2147
▁21	-2148
▁50	-2149
▁asing	-2150
▁sabu	-2151
▁Ak	-2152
▁njara	-2153
▁rbang	-2154
▁usung	-2155
▁antau	-2156
▁ahf	-2157
▁rba	-2158
▁ndah	-2159
lak	-2160
▁iah	-2161
▁elek	-2162
▁oc	-2163
▁Eri	-2164
▁Anak	-2165
▁duli	-2166
▁anger	-2167
▁namun	-2168
▁Anggo	-2169
▁sor	-2170
▁istri	-2171
▁ksi	-2172
▁erai	-2173
▁Sekre	-2174
▁balik	-2175
▁Mana	-2176
▁Joko	-2177
▁ahfud	-2178
▁Dr	-2179
▁sw	-2180
▁istiw	-2181
▁Ram	-2182
▁rela	-2183
▁az	-2184
▁ky	-2185
▁tera	-2186
▁Islam	-2187
▁sipil	-2188
▁jalur	-2189
▁od	-2190
▁Kedua	-2191
▁ibat	-2192
▁lokal	-2193
NP	-2194
▁momen	-2195
▁ngkut	-2196
▁turan	-2197
▁ratis	-2198
▁apar	-2199
▁luark	-2200
▁fe	-2201
▁DPP	-2202
▁Sej	-2203
▁bus	-2204
▁ibatk	-2205
▁UR	-2206
▁isah	-2207
▁ster	-2208
▁Humas	-2209
▁luk	-2210
▁ump	-2211
▁mitra	-2212
ANG	-2213
▁rtani	-2214
▁erat	-2215
▁tatus	-2216
▁kil	-2217
▁Masya	-2218
▁ebut	-2219
▁landa	-2220
▁Gr	-2221
▁lar	-2222
▁tani	-2223
▁nolak	-2224
ly	-2225
▁rti	-2226
ori	-2227
▁uncak	-2228
▁sal	-2229
▁usi	-2230
▁demi	-2231
▁edar	-2232
▁kontr	-2233
▁ato	-2234
▁etro	-2235
▁tapi	-2236
▁ratur	-2237
▁Il	-2238
▁bum	-2239
so	-2240
▁au	-2241
▁Dis	-2242
yo	-2243
▁bers	-2244
gat	-2245
▁ntik	-2246
▁BUM	-2247
▁mbel	-2248
▁nflik	-2249
▁bang	-2250
▁memer	-2251
▁tegis	-2252
▁pik	-2253
▁dini	-2254
▁Abdul	-2255
▁iapk	-2256
▁lub	-2257
▁ajang	-2258
▁erahk	-2259
▁nerja	-2260
▁lor	-2261
▁untu	-2262
▁rand	-2263
▁Bantu	-2264
▁alih	-2265
▁ward	-2266
▁nk	-2267
▁mere	-2268
▁alank	-2269
▁ajar	-2270
▁MA	-2271
▁dangk	-2272
▁ual	-2273
▁ampah	-2274
▁Ad	-2275
▁MK	-2276
▁Hasil	-2277
▁aki	-2278
▁kilo	-2279
▁mpak	-2280
▁Lebih	-2281
▁lil	-2282
▁idodo	-2283
▁jaran	-2284
▁ungut	-2285
▁ment	-2286
▁egini	-2287
▁undur	-2288
▁Nu	-2289
▁kecel	-2290
▁ium	-2291
▁baran	-2292
▁elekt	-2293
▁iswa	-2294
▁perke	-2295
▁ebas	-2296
▁Pj	-2297
▁ano	-2298
▁akaan	-2299
▁amu	-2300
▁raya	-2301
▁buat	-2302
▁Luar	-2303
▁jarah	-2304
▁saing	-2305
▁leg	-2306
juh	-2307
▁26	-2308
▁tujuh	-2309
▁isiko	-2310
▁titik	-2311
per	-2312
▁non	-2313
▁ediak	-2314
▁ombes	-2315
▁suatu	-2316
▁tokoh	-2317
▁28	-2318
▁ahaya	-2319
▁los	-2320
▁Do	-2321
▁ont	-2322
▁Kita	-2323
▁lahan	-2324
▁AF	-2325
▁nto	-2326
▁ileg	-2327
▁pir	-2328
▁jaksa	-2329
▁mbeli	-2330
▁rj	-2331
▁ena	-2332
▁rata	-2333
▁liun	-2334
▁Aceh	-2335
▁Laut	-2336
▁naw	-2337
▁sig	-2338
▁agu	-2339
▁akun	-2340
▁alif	-2341
▁kirak	-2342
▁Dan	-2343
▁bawa	-2344
▁Ja	-2345
▁Eko	-2346
▁Bang	-2347
▁Pasar	-2348
▁erkel	-2349
▁pop	-2350
▁sus	-2351
▁warna	-2352
▁kai	-2353
▁antu	-2354
▁Ramad	-2355
▁jatuh	-2356
▁sif	-2357
▁badan	-2358
▁pulau	-2359
▁Ed	-2360
▁istan	-2361
▁hing	-2362
ARA	-2363
▁dakwa	-2364
▁ahan	-2365
▁inst	-2366
▁ansi	-2367
▁tf	-2368
▁Pena	-2369
▁awan	-2370
ulu	-2371
▁atar	-2372
▁gener	-2373
KBP	-2374
▁oro	-2375
▁memba	-2376
▁eo	-2377
▁ey	-2378
▁hu	-2379
▁awe	-2380
▁uz	-2381
▁isten	-2382
▁enter	-2383
▁ngin	-2384
▁ribad	-2385
AYA	-2386
▁ill	-2387
▁fisi	-2388
▁foto	-2389
▁minum	-2390
▁JPN	-2391
▁bia	-2392
▁ien	-2393
▁amin	-2394
▁horm	-2395
▁erd	-2396
▁adil	-2397
▁ncar	-2398
▁grasi	-2399
▁ungai	-2400
▁ort	-2401
▁AKBP	-2402
▁anda	-2403
▁orot	-2404
▁emuda	-2405
▁dakan	-2406
▁erek	-2407
▁%	-2408
▁oo	-2409
▁DPD	-2410
▁JPNN	-2411
▁misi	-2412
▁orum	-2413
▁alias	-2414
▁etuju	-2415
▁rbaik	-2416
▁29	-2417
▁hakim	-2418
▁mud	-2419
▁adat	-2420
▁ABAYA	-2421
▁kaian	-2422
▁lir	-2423
▁Arab	-2424
▁mpul	-2425
▁sang	-2426
kam	-2427
▁sah	-2428
▁tis	-2429
▁ans	-2430
▁TPS	-2431
▁wati	-2432
▁Kasus	-2433
NA	-2434
utan	-2435
▁der	-2436
▁ou	-2437
▁nergi	-2438
▁akui	-2439
▁ensi	-2440
▁krit	-2441
▁Keb	-2442
▁ejak	-2443
▁tion	-2444
▁agr	-2445
▁aktor	-2446
▁emati	-2447
▁Ibu	-2448
▁iaga	-2449
▁simal	-2450
▁ez	-2451
▁adaan	-2452
▁adu	-2453
▁artaw	-2454
▁tar	-2455
▁unan	-2456
▁koord	-2457
▁nutup	-2458
▁iti	-2459
▁kau	-2460
▁kabar	-2461
▁arc	-2462
▁Oleh	-2463
▁rid	-2464
▁BUMN	-2465
▁uran	-2466
▁ols	-2467
▁are	-2468
▁judi	-2469
▁Trans	-2470
▁boleh	-2471
▁kri	-2472
▁labuh	-2473
▁sedia	-2474
jid	-2475
▁Jika	-2476
▁ngha	-2477
▁rjen	-2478
▁ingan	-2479
▁ikan	-2480
▁deb	-2481
▁nton	-2482
▁utusk	-2483
▁ank	-2484
▁area	-2485
▁berse	-2486
▁musik	-2487
jib	-2488
▁ver	-2489
▁ation	-2490
▁elah	-2491
▁ase	-2492
▁wajib	-2493
▁dy	-2494
▁esak	-2495
▁asjid	-2496
ono	-2497
▁bila	-2498
▁ekat	-2499
▁basis	-2500
▁PKB	-2501
▁ayu	-2502
▁rof	-2503
▁tutup	-2504
▁edia	-2505
▁nak	-2506
▁gugat	-2507
▁ov	-2508
▁nen	-2509
▁lay	-2510
▁lus	-2511
▁Koord	-2512
lim	-2513
▁ategi	-2514
▁bon	-2515
▁Yang	-2516
▁lagu	-2517
▁iny	-2518
▁sari	-2519
▁langg	-2520
II	-2521
▁Sing	-2522
▁lis	-2523
▁keme	-2524
▁ayak	-2525
▁ilg	-2526
▁bank	-2527
▁efek	-2528
▁NTARA	-2529
▁nerap	-2530
▁popul	-2531
▁AP	-2532
▁kam	-2533
▁kre	-2534
▁konfe	-2535
▁libur	-2536
▁IKN	-2537
▁una	-2538
▁audi	-2539
▁edak	-2540
▁ndali	-2541
▁rangi	-2542
▁mah	-2543
▁ck	-2544
▁tema	-2545
▁llah	-2546
▁ator	-2547
▁kapa	-2548
▁olsek	-2549
▁nawar	-2550
▁tform	-2551
▁;	-2552
▁iro	-2553
▁our	-2554
▁siapa	-2555
▁Lo	-2556
▁tl	-2557
▁ahkam	-2558
▁nalis	-2559
▁uter	-2560
▁lim	-2561
▁ult	-2562
▁iden	-2563
▁suka	-2564
▁wali	-2565
▁debat	-2566
▁jahte	-2567
▁pri	-2568
▁lurah	-2569
▁ega	-2570
▁aplik	-2571
▁Kalim	-2572
▁kelas	-2573
▁Br	-2574
▁jo	-2575
▁Fil	-2576
▁pengu	-2577
▁reg	-2578
▁sini	-2579
▁anah	-2580
▁babak	-2581
▁karya	-2582
▁isk	-2583
▁elas	-2584
▁Ni	-2585
▁th	-2586
▁agram	-2587
▁AI	-2588
OG	-2589
▁nikah	-2590
▁berp	-2591
▁iyah	-2592
▁entar	-2593
▁kala	-2594
▁penj	-2595
▁ekasi	-2596
▁rapat	-2597
▁pr	-2598
▁iet	-2599
▁ukur	-2600
▁evaku	-2601
▁umi	-2602
▁indra	-2603
▁minal	-2604
din	-2605
▁guh	-2606
▁peri	-2607
▁ncuri	-2608
▁Or	-2609
▁ullah	-2610
▁RANG	-2611
▁terj	-2612
▁31	-2613
▁Penj	-2614
▁biaya	-2615
▁ransi	-2616
▁tud	-2617
ranc	-2618
▁pand	-2619
▁Pranc	-2620
▁ern	-2621
▁tren	-2622
▁uf	-2623
▁lanta	-2624
▁memu	-2625
▁rofes	-2626
▁Ex	-2627
▁amat	-2628
▁net	-2629
▁kup	-2630
▁Beb	-2631
▁eny	-2632
▁Nur	-2633
▁berte	-2634
▁ilgub	-2635
▁ndra	-2636
▁mping	-2637
▁mudik	-2638
DU	-2639
▁arga	-2640
▁bera	-2641
▁dela	-2642
▁kutip	-2643
zi	-2644
▁PAN	-2645
▁kur	-2646
▁olid	-2647
▁ame	-2648
▁darah	-2649
▁Mak	-2650
▁etik	-2651
▁HAM	-2652
▁inyak	-2653
▁ahy	-2654
▁eral	-2655
▁Beber	-2656
▁Filip	-2657
bo	-2658
▁Kep	-2659
▁Maha	-2660
▁arti	-2661
▁edan	-2662
▁kaya	-2663
▁India	-2664
▁pingi	-2665
▁ie	-2666
▁ork	-2667
▁tand	-2668
▁ereko	-2669
▁KA	-2670
▁uta	-2671
▁keta	-2672
▁buruk	-2673
▁mui	-2674
▁Ilus	-2675
▁nghi	-2676
▁aysia	-2677
▁titus	-2678
▁ito	-2679
▁Mega	-2680
▁mpur	-2681
▁egori	-2682
▁nggah	-2683
▁diu	-2684
▁enda	-2685
▁stik	-2686
▁ustr	-2687
▁AR	-2688
▁ard	-2689
▁aket	-2690
▁unggu	-2691
▁akta	-2692
▁abu	-2693
▁dim	-2694
▁delap	-2695
▁etisi	-2696
▁mal	-2697
▁ntut	-2698
▁onal	-2699
▁reta	-2700
▁ialah	-2701
▁putar	-2702
▁ona	-2703
▁ampus	-2704
▁cah	-2705
▁jemen	-2706
▁banon	-2707
▁jukan	-2708
▁jaya	-2709
▁ndar	-2710
▁uatan	-2711
ade	-2712
▁nv	-2713
▁Rah	-2714
▁kena	-2715
▁ld	-2716
▁aik	-2717
▁ohon	-2718
▁fikan	-2719
▁Pri	-2720
▁kabu	-2721
▁hil	-2722
▁inato	-2723
▁ANG	-2724
▁Orang	-2725
▁sikap	-2726
▁Sl	-2727
▁asw	-2728
▁umb	-2729
▁anji	-2730
▁genc	-2731
▁rastr	-2732
▁rok	-2733
▁kade	-2734
PR	-2735
▁PBD	-2736
▁tib	-2737
▁100	-2738
▁ore	-2739
▁aju	-2740
▁jahat	-2741
▁raan	-2742
▁trad	-2743
kot	-2744
▁oni	-2745
▁And	-2746
▁erl	-2747
▁ury	-2748
▁aja	-2749
▁ayor	-2750
▁idat	-2751
▁okan	-2752
AT	-2753
▁Kea	-2754
▁aswed	-2755
▁Ir	-2756
▁Vi	-2757
▁signi	-2758
ck	-2759
▁berl	-2760
▁engk	-2761
▁ikl	-2762
▁ogja	-2763
▁rius	-2764
GP	-2765
▁Go	-2766
▁ntah	-2767
▁sial	-2768
▁ahulu	-2769
▁mohon	-2770
▁skor	-2771
▁Fes	-2772
▁sih	-2773
▁arus	-2774
▁Indra	-2775
▁emkot	-2776
▁KO	-2777
▁Airl	-2778
▁ekst	-2779
▁Hen	-2780
▁plo	-2781
▁iskus	-2782
▁jel	-2783
▁riah	-2784
▁ender	-2785
▁erv	-2786
▁Nat	-2787
▁Ali	-2788
▁Gro	-2789
▁anita	-2790
▁anksi	-2791
▁Sri	-2792
▁dur	-2793
▁awak	-2794
▁hutan	-2795
▁aes	-2796
▁ako	-2797
▁tival	-2798
▁psi	-2799
▁itur	-2800
▁nkum	-2801
▁ss	-2802
DUNG	-2803
▁wal	-2804
▁diti	-2805
▁ions	-2806
▁NDUNG	-2807
▁sh	-2808
▁kiri	-2809
▁unj	-2810
▁atuh	-2811
▁minim	-2812
▁las	-2813
▁uth	-2814
▁kank	-2815
▁ntuk	-2816
▁ragam	-2817
▁emi	-2818
▁Prof	-2819
▁newas	-2820
sel	-2821
▁ahli	-2822
▁baya	-2823
▁ilat	-2824
▁tlet	-2825
▁iring	-2826
▁40	-2827
▁ade	-2828
▁Pram	-2829
▁usun	-2830
▁uriah	-2831
▁1,	-2832
▁BBC	-2833
▁ojo	-2834
▁Tetap	-2835
▁ustru	-2836
▁Gus	-2837
▁ene	-2838
▁her	-2839
▁Paris	-2840
▁kah	-2841
▁ancar	-2842
▁ekspo	-2843
▁perd	-2844
▁enior	-2845
▁tele	-2846
▁ketua	-2847
▁taw	-2848
ine	-2849
▁rud	-2850
▁rbit	-2851
▁tir	-2852
▁Afri	-2853
▁jelis	-2854
▁keber	-2855
▁ktik	-2856
▁bakar	-2857
▁kuad	-2858
▁otoGP	-2859
▁erak	-2860
▁AL	-2861
▁oba	-2862
▁yanto	-2863
▁wil	-2864
▁Pene	-2865
▁Ins	-2866
▁Pihak	-2867
▁fif	-2868
▁muka	-2869
▁kader	-2870
▁tabil	-2871
▁PSI	-2872
▁aky	-2873
▁ayat	-2874
▁mbil	-2875
▁pema	-2876
▁siang	-2877
▁Az	-2878
▁assa	-2879
▁lul	-2880
▁indo	-2881
▁ning	-2882
▁ngkit	-2883
▁parat	-2884
▁CPN	-2885
▁set	-2886
▁rtimb	-2887
▁Pi	-2888
▁esa	-2889
▁migr	-2890
▁pikir	-2891
▁Kan	-2892
▁duh	-2893
▁bagus	-2894
▁vs	-2895
▁CPNS	-2896
▁empa	-2897
▁ehari	-2898
▁uddin	-2899
▁era	-2900
▁Oper	-2901
▁Hasto	-2902
▁klaim	-2903
▁ncoba	-2904
bar	-2905
▁ial	-2906
▁roni	-2907
▁PKS	-2908
▁asih	-2909
▁reng	-2910
▁piade	-2911
▁Riz	-2912
▁SDM	-2913
▁vir	-2914
▁nden	-2915
▁Sebab	-2916
▁redik	-2917
▁III	-2918
▁Sya	-2919
▁ima	-2920
▁eman	-2921
▁epeda	-2922
▁kl	-2923
▁ongso	-2924
▁umsel	-2925
▁truk	-2926
▁idwan	-2927
▁nti	-2928
▁Wilay	-2929
▁awesi	-2930
▁oha	-2931
▁tam	-2932
▁jiwa	-2933
▁terl	-2934
▁utara	-2935
▁02	-2936
▁hip	-2937
▁jur	-2938
▁Grup	-2939
▁ntrak	-2940
▁inci	-2941
▁igasi	-2942
▁ih	-2943
▁esi	-2944
▁arak	-2945
▁Komun	-2946
gab	-2947
▁01	-2948
▁ht	-2949
▁bumi	-2950
▁mbul	-2951
▁tudi	-2952
▁alisi	-2953
▁imbau	-2954
▁lulus	-2955
▁Bel	-2956
▁pek	-2957
▁ekor	-2958
▁genda	-2959
lar	-2960
▁aham	-2961
▁nutur	-2962
▁ew	-2963
▁Kho	-2964
▁Bagi	-2965
▁sore	-2966
▁mir	-2967
▁sosok	-2968
▁$	-2969
▁Rak	-2970
▁micu	-2971
▁ain	-2972
▁old	-2973
▁optim	-2974
NPA	-2975
hail	-2976
▁pab	-2977
▁Komp	-2978
▁ariw	-2979
▁lans	-2980
▁ondo	-2981
▁Thail	-2982
▁SM	-2983
▁yu	-2984
▁pos	-2985
▁akyat	-2986
▁uslim	-2987
▁bes	-2988
▁epar	-2989
▁Group	-2990
▁ergab	-2991
▁num	-2992
▁ingga	-2993
▁amai	-2994
▁apak	-2995
▁pajak	-2996
▁Bei	-2997
▁ENPA	-2998
▁ord	-2999
▁anyi	-3000
▁ayah	-3001
▁rmal	-3002
▁uming	-3003
▁lum	-3004
▁esan	-3005
▁Rakab	-3006
ge	-3007
▁Res	-3008
▁sup	-3009
▁bud	-3010
▁knis	-3011
▁agung	-3012
▁impor	-3013
▁PL	-3014
▁Bah	-3015
▁udin	-3016
▁ahasa	-3017
▁konte	-3018
▁merah	-3019
▁rdeka	-3020
▁rokok	-3021
▁Adi	-3022
▁abar	-3023
▁anu	-3024
▁emk	-3025
▁adam	-3026
▁ers	-3027
▁uci	-3028
▁hamp	-3029
▁emkab	-3030
▁US	-3031
▁ese	-3032
▁jual	-3033
▁mbulk	-3034
▁eklar	-3035
▁ero	-3036
▁nci	-3037
▁taan	-3038
▁ce	-3039
▁rung	-3040
▁peras	-3041
▁rakir	-3042
▁amil	-3043
▁Infor	-3044
▁berku	-3045
▁pakai	-3046
▁angin	-3047
▁ontra	-3048
▁panas	-3049
▁ajah	-3050
▁ander	-3051
▁nahan	-3052
▁terke	-3053
▁qu	-3054
▁ngkar	-3055
▁esu	-3056
▁rum	-3057
▁esin	-3058
▁iang	-3059
▁ft	-3060
▁minis	-3061
▁temen	-3062
▁iwan	-3063
▁umur	-3064
ne	-3065
▁erm	-3066
▁otel	-3067
▁berpo	-3068
▁eal	-3069
▁sti	-3070
▁eleb	-3071
▁yono	-3072
▁iga	-3073
▁uluh	-3074
▁x	-3075
▁Ari	-3076
▁rit	-3077
▁rom	-3078
▁andi	-3079
▁sum	-3080
▁sepak	-3081
▁rkir	-3082
▁ei	-3083
▁ajuk	-3084
▁pesi	-3085
▁For	-3086
▁ome	-3087
▁taf	-3088
▁akai	-3089
▁ayar	-3090
▁Penge	-3091
▁logis	-3092
▁Raf	-3093
▁otif	-3094
▁hat	-3095
▁ice	-3096
▁nis	-3097
▁mc	-3098
▁eli	-3099
▁kal	-3100
▁mbuh	-3101
▁asuki	-3102
▁Was	-3103
▁ked	-3104
▁krea	-3105
▁alnya	-3106
▁baca	-3107
▁mengh	-3108
▁rm	-3109
▁ingk	-3110
▁SIS	-3111
▁ped	-3112
▁Angk	-3113
▁Kal	-3114
▁ele	-3115
▁gan	-3116
▁rto	-3117
▁ursi	-3118
▁dr	-3119
▁iq	-3120
▁onto	-3121
▁real	-3122
▁lun	-3123
▁uas	-3124
▁arma	-3125
▁Andr	-3126
▁umsi	-3127
▁eto	-3128
▁kin	-3129
▁nsum	-3130
▁Penye	-3131
▁igran	-3132
▁saran	-3133
▁ail	-3134
▁log	-3135
▁mus	-3136
▁kbar	-3137
▁!	-3138
▁nten	-3139
▁pilka	-3140
▁sud	-3141
▁ndari	-3142
▁wi	-3143
▁ick	-3144
▁alap	-3145
▁arjo	-3146
▁inkan	-3147
▁eja	-3148
▁bint	-3149
▁torat	-3150
EO	-3151
▁menda	-3152
▁andal	-3153
▁ink	-3154
▁vel	-3155
▁akal	-3156
▁mprov	-3157
▁dul	-3158
▁eri	-3159
▁Shin	-3160
▁itri	-3161
▁Sus	-3162
▁ergi	-3163
▁renta	-3164
▁ire	-3165
▁hend	-3166
▁maja	-3167
▁zb	-3168
▁Set	-3169
▁juk	-3170
▁Muda	-3171
▁tuduh	-3172
▁Fer	-3173
▁mbar	-3174
▁ntan	-3175
▁ier	-3176
▁ike	-3177
▁ogo	-3178
▁by	-3179
▁Tol	-3180
▁Sura	-3181
▁ayi	-3182
▁gur	-3183
▁ood	-3184
▁lon	-3185
▁tre	-3186
▁unga	-3187
▁So	-3188
▁cu	-3189
▁cek	-3190
▁lti	-3191
▁robo	-3192
▁ewi	-3193
▁njau	-3194
▁utan	-3195
▁negak	-3196
▁PA	-3197
▁bung	-3198
▁uw	-3199
▁yawan	-3200
▁You	-3201
▁eku	-3202
▁emua	-3203
▁gang	-3204
▁kul	-3205
▁AT	-3206
▁ruda	-3207
▁yah	-3208
▁gizi	-3209
▁ahnya	-3210
▁inggi	-3211
▁TV	-3212
▁ura	-3213
▁epat	-3214
▁osko	-3215
▁pp	-3216
▁pid	-3217
▁anja	-3218
▁rahk	-3219
▁03	-3220
▁aks	-3221
▁Harr	-3222
▁ltim	-3223
▁mpa	-3224
▁brak	-3225
▁lola	-3226
▁mengo	-3227
▁angk	-3228
▁semi	-3229
▁urna	-3230
▁egala	-3231
▁KOTA	-3232
▁reko	-3233
▁uruh	-3234
▁LP	-3235
▁lad	-3236
▁rko	-3237
▁yat	-3238
▁yani	-3239
▁ell	-3240
▁ies	-3241
▁egang	-3242
▁DI	-3243
▁kes	-3244
▁enny	-3245
▁akas	-3246
▁ndri	-3247
▁Tap	-3248
▁edit	-3249
▁ntak	-3250
▁rupa	-3251
▁menca	-3252
▁meran	-3253
▁relaw	-3254
▁PU	-3255
▁ska	-3256
▁gub	-3257
▁lly	-3258
▁SP	-3259
▁atra	-3260
▁dih	-3261
▁ect	-3262
▁berj	-3263
▁ilit	-3264
▁teng	-3265
▁ental	-3266
▁nsums	-3267
▁Mem	-3268
▁ersis	-3269
▁zah	-3270
▁ulau	-3271
▁inaan	-3272
▁nap	-3273
▁iak	-3274
▁Sena	-3275
▁ance	-3276
▁laim	-3277
▁ndai	-3278
▁Kri	-3279
▁anan	-3280
▁siun	-3281
▁erisi	-3282
▁2,	-3283
▁tom	-3284
▁sla	-3285
▁atik	-3286
▁juru	-3287
▁raja	-3288
▁gikan	-3289
▁Ist	-3290
▁ary	-3291
▁uma	-3292
▁tanda	-3293
▁akr	-3294
▁lai	-3295
▁rne	-3296
▁Kamp	-3297
▁prin	-3298
▁sidi	-3299
▁awa	-3300
▁uhu	-3301
▁tin	-3302
▁Kec	-3303
▁gra	-3304
▁mor	-3305
▁kasi	-3306
▁alahk	-3307
▁efi	-3308
▁mosi	-3309
▁rama	-3310
▁onald	-3311
▁sim	-3312
▁kepem	-3313
▁AKP	-3314
▁ear	-3315
▁mbo	-3316
▁lasi	-3317
▁05	-3318
▁aran	-3319
▁hami	-3320
▁hkan	-3321
▁beras	-3322
▁rekam	-3323
▁semen	-3324
▁eber	-3325
▁ndik	-3326
▁dinas	-3327
▁iawan	-3328
▁lf	-3329
▁enak	-3330
▁obil	-3331
▁jau	-3332
▁berw	-3333
▁rusan	-3334
▁aus	-3335
▁gar	-3336
▁one	-3337
▁emah	-3338
▁untut	-3339
▁aset	-3340
▁ipta	-3341
▁tara	-3342
▁ach	-3343
▁apas	-3344
▁itus	-3345
KA	-3346
▁jati	-3347
▁Ge	-3348
▁Idu	-3349
▁Hend	-3350
▁aria	-3351
▁long	-3352
▁ive	-3353
▁nov	-3354
▁oli	-3355
▁tong	-3356
▁bunuh	-3357
▁aca	-3358
▁Pers	-3359
▁fo	-3360
▁nuk	-3361
▁ampu	-3362
▁samb	-3363
▁ujuk	-3364
▁nga	-3365
▁run	-3366
▁the	-3367
▁Kh	-3368
▁lm	-3369
▁asta	-3370
▁arian	-3371
▁06	-3372
▁eksi	-3373
▁itra	-3374
▁sual	-3375
▁Persi	-3376
▁ich	-3377
▁IP	-3378
▁RU	-3379
▁uti	-3380
▁adir	-3381
▁stor	-3382
▁ct	-3383
▁age	-3384
▁ori	-3385
▁kor	-3386
▁kus	-3387
▁rig	-3388
▁SK	-3389
▁dro	-3390
▁aian	-3391
▁land	-3392
▁kalan	-3393
▁leks	-3394
▁ujan	-3395
▁gant	-3396
▁dura	-3397
▁spir	-3398
▁hib	-3399
▁iper	-3400
▁kok	-3401
▁ler	-3402
▁mun	-3403
▁ania	-3404
▁apan	-3405
▁emak	-3406
▁okok	-3407
▁rist	-3408
▁unjuk	-3409
▁muan	-3410
▁hab	-3411
▁ish	-3412
▁ius	-3413
▁lt	-3414
▁Pang	-3415
▁aruh	-3416
▁imin	-3417
▁jian	-3418
▁layan	-3419
▁iau	-3420
▁fer	-3421
▁tel	-3422
▁utin	-3423
▁jer	-3424
▁akim	-3425
▁iset	-3426
▁has	-3427
▁RB	-3428
▁enal	-3429
▁naman	-3430
▁ibad	-3431
▁fisik	-3432
▁60	-3433
▁alin	-3434
▁iput	-3435
▁tuan	-3436
▁ayaan	-3437
▁ID	-3438
▁pon	-3439
▁imat	-3440
▁resi	-3441
▁ulan	-3442
▁perte	-3443
▁rkoba	-3444
MB	-3445
▁Her	-3446
▁Menj	-3447
▁rnia	-3448
▁lukan	-3449
▁mula	-3450
▁uksi	-3451
▁edu	-3452
▁merek	-3453
▁tol	-3454
▁alis	-3455
▁diam	-3456
▁nan	-3457
▁tch	-3458
▁kara	-3459
▁sent	-3460
▁eten	-3461
HK	-3462
▁CEO	-3463
▁Chi	-3464
▁ure	-3465
▁abah	-3466
▁rlin	-3467
▁line	-3468
▁oal	-3469
▁bing	-3470
▁hadi	-3471
▁BK	-3472
▁uka	-3473
▁bong	-3474
▁Du	-3475
▁Mad	-3476
▁dal	-3477
▁use	-3478
▁amen	-3479
▁uni	-3480
▁asil	-3481
▁pengg	-3482
▁rea	-3483
▁jing	-3484
▁kete	-3485
▁lla	-3486
▁teo	-3487
▁tun	-3488
▁gad	-3489
▁bere	-3490
▁itut	-3491
▁onser	-3492
▁04	-3493
▁07	-3494
▁MPR	-3495
▁SEMA	-3496
▁seng	-3497
yu	-3498
▁NTB	-3499
AS	-3500
▁jaga	-3501
▁perse	-3502
ese	-3503
▁Mo	-3504
▁rip	-3505
▁08	-3506
▁ark	-3507
▁enya	-3508
▁jasa	-3509
▁pora	-3510
PO	-3511
▁KU	-3512
▁my	-3513
▁awi	-3514
▁kim	-3515
▁Sc	-3516
▁berju	-3517
▁Joe	-3518
▁cur	-3519
▁hana	-3520
▁ue	-3521
▁del	-3522
▁mbe	-3523
IP	-3524
▁IC	-3525
▁IT	-3526
▁bai	-3527
▁eru	-3528
▁tadi	-3529
▁tata	-3530
▁tifik	-3531
▁HU	-3532
▁rki	-3533
▁ntro	-3534
▁ndung	-3535
▁Bad	-3536
▁Siap	-3537
▁ekno	-3538
▁mog	-3539
▁uhi	-3540
▁emisi	-3541
IN	-3542
▁adap	-3543
▁kapan	-3544
▁bid	-3545
▁berk	-3546
▁ndata	-3547
▁Mul	-3548
▁ital	-3549
▁sela	-3550
▁rdi	-3551
▁IN	-3552
▁Wid	-3553
▁nyi	-3554
▁rasi	-3555
▁arung	-3556
▁Ser	-3557
▁info	-3558
▁rawan	-3559
▁09	-3560
▁kop	-3561
▁opi	-3562
▁rac	-3563
▁emar	-3564
▁embat	-3565
▁elar	-3566
▁sca	-3567
▁anal	-3568
▁KT	-3569
▁DIY	-3570
▁Kl	-3571
▁akat	-3572
▁lung	-3573
▁ulia	-3574
▁Cha	-3575
▁ack	-3576
▁bert	-3577
▁sien	-3578
▁umat	-3579
▁een	-3580
▁nggi	-3581
▁seni	-3582
▁SU	-3583
▁ikin	-3584
▁umpul	-3585
▁ruh	-3586
▁sad	-3587
▁sma	-3588
▁dire	-3589
▁ee	-3590
▁waw	-3591
▁ifik	-3592
▁esain	-3593
▁pal	-3594
▁elit	-3595
▁Dit	-3596
▁cap	-3597
▁doa	-3598
▁Kete	-3599
▁iaran	-3600
ind	-3601
▁AH	-3602
▁keu	-3603
▁beru	-3604
▁Je	-3605
▁raj	-3606
▁pany	-3607
UD	-3608
▁SMK	-3609
▁sna	-3610
▁sasi	-3611
▁cc	-3612
▁iany	-3613
▁dig	-3614
▁ean	-3615
▁ven	-3616
▁adai	-3617
▁andan	-3618
▁impan	-3619
▁ongan	-3620
▁PPP	-3621
▁dir	-3622
▁asia	-3623
▁apura	-3624
▁Pos	-3625
▁jad	-3626
▁Tang	-3627
▁eksp	-3628
▁seti	-3629
apa	-3630
▁pah	-3631
▁onis	-3632
▁rtai	-3633
▁tinya	-3634
▁imi	-3635
▁ros	-3636
▁sub	-3637
▁arno	-3638
▁gama	-3639
▁lora	-3640
▁nfir	-3641
▁oh	-3642
▁rie	-3643
▁uah	-3644
▁rukan	-3645
ON	-3646
▁Wah	-3647
▁ait	-3648
▁ane	-3649
▁erc	-3650
▁ida	-3651
▁terta	-3652
▁Str	-3653
HP	-3654
▁puas	-3655
▁spada	-3656
▁rol	-3657
▁El	-3658
▁iko	-3659
▁egas	-3660
▁artin	-3661
▁sok	-3662
▁ahar	-3663
▁rain	-3664
▁forma	-3665
eku	-3666
▁MD	-3667
▁ly	-3668
▁sir	-3669
▁ewa	-3670
▁ond	-3671
▁istik	-3672
▁kseku	-3673
▁pis	-3674
▁tut	-3675
▁pung	-3676
▁uto	-3677
▁meme	-3678
▁Ris	-3679
▁erb	-3680
▁Maka	-3681
▁iam	-3682
▁ide	-3683
▁inda	-3684
▁mbela	-3685
▁epi	-3686
▁Mena	-3687
▁dima	-3688
EN	-3689
▁arya	-3690
▁gres	-3691
▁mpah	-3692
▁rgan	-3693
▁antik	-3694
▁sil	-3695
▁dira	-3696
▁nstr	-3697
▁Gen	-3698
▁gri	-3699
▁pit	-3700
▁tain	-3701
▁erkat	-3702
▁itung	-3703
▁UN	-3704
▁ite	-3705
▁lik	-3706
▁Andi	-3707
▁Unit	-3708
▁iber	-3709
▁ihat	-3710
▁iran	-3711
▁tama	-3712
▁aan	-3713
▁kew	-3714
▁kro	-3715
▁ndy	-3716
▁rul	-3717
▁alas	-3718
▁awah	-3719
▁rsit	-3720
▁mam	-3721
▁yam	-3722
▁Hadi	-3723
▁ambu	-3724
▁pemu	-3725
▁star	-3726
▁rge	-3727
▁sut	-3728
▁Pl	-3729
▁Hid	-3730
▁red	-3731
▁gula	-3732
▁Penc	-3733
▁ndas	-3734
▁ngkas	-3735
▁Za	-3736
▁anas	-3737
▁enko	-3738
▁ging	-3739
▁sc	-3740
▁Pan	-3741
▁ayan	-3742
▁ntri	-3743
▁RUU	-3744
▁luh	-3745
▁mele	-3746
▁tral	-3747
▁ndera	-3748
RT	-3749
▁aro	-3750
▁suk	-3751
▁Hu	-3752
▁Unive	-3753
▁It	-3754
▁NU	-3755
▁ast	-3756
▁gal	-3757
▁hir	-3758
▁agia	-3759
▁amah	-3760
▁erdas	-3761
▁ika	-3762
▁uan	-3763
▁ewas	-3764
▁ideo	-3765
▁asu	-3766
▁kta	-3767
▁jung	-3768
▁He	-3769
▁ug	-3770
▁EAN	-3771
▁SMA	-3772
▁tta	-3773
▁inal	-3774
▁ater	-3775
▁lakuk	-3776
▁Gu	-3777
▁pot	-3778
▁arik	-3779
▁diko	-3780
▁onda	-3781
▁teru	-3782
BS	-3783
DO	-3784
▁onf	-3785
▁rep	-3786
▁riy	-3787
▁kira	-3788
▁ence	-3789
▁rema	-3790
▁teks	-3791
▁teror	-3792
▁WNA	-3793
▁ding	-3794
▁enar	-3795
▁ea	-3796
▁kru	-3797
▁urn	-3798
▁atis	-3799
▁mpun	-3800
▁ntas	-3801
▁eam	-3802
▁lut	-3803
▁alan	-3804
▁egal	-3805
▁bek	-3806
▁isis	-3807
▁lest	-3808
▁esuai	-3809
▁AM	-3810
▁gelo	-3811
▁sias	-3812
▁ikat	-3813
▁saha	-3814
▁IS	-3815
▁HUT	-3816
▁tya	-3817
▁satu	-3818
▁susu	-3819
▁ibuan	-3820
aru	-3821
▁bersa	-3822
▁KM	-3823
▁dj	-3824
▁Mau	-3825
▁Min	-3826
▁rad	-3827
▁ikir	-3828
▁ulai	-3829
▁angku	-3830
▁oma	-3831
▁dara	-3832
▁dium	-3833
▁erapa	-3834
▁ST	-3835
▁ilo	-3836
▁eter	-3837
▁CS	-3838
▁Fak	-3839
▁dok	-3840
▁pet	-3841
▁arto	-3842
▁eras	-3843
▁turn	-3844
▁indak	-3845
▁lekt	-3846
▁Dj	-3847
▁rya	-3848
▁sli	-3849
▁sesi	-3850
▁edera	-3851
▁ede	-3852
▁asin	-3853
▁king	-3854
▁eland	-3855
▁Kese	-3856
▁hmad	-3857
▁umah	-3858
▁cet	-3859
▁med	-3860
▁nada	-3861
▁AC	-3862
▁iun	-3863
▁nggel	-3864
▁pus	-3865
▁elum	-3866
▁manya	-3867
▁RT	-3868
▁dup	-3869
▁liter	-3870
JS	-3871
▁PSS	-3872
▁rkan	-3873
▁cok	-3874
▁gul	-3875
▁rman	-3876
▁ndeng	-3877
▁produ	-3878
▁eret	-3879
▁erma	-3880
▁KAI	-3881
▁35	-3882
▁oho	-3883
▁PSSI	-3884
▁lumn	-3885
▁mbat	-3886
UP	-3887
▁acu	-3888
▁Bany	-3889
▁anis	-3890
▁ukan	-3891
▁ost	-3892
▁lari	-3893
▁raksi	-3894
▁@	-3895
▁iru	-3896
▁led	-3897
▁meno	-3898
▁paya	-3899
▁Man	-3900
▁Tae	-3901
▁ret	-3902
▁yur	-3903
▁arana	-3904
▁polit	-3905
▁OR	-3906
▁Tel	-3907
▁lom	-3908
▁band	-3909
OA	-3910
▁ambat	-3911
▁engge	-3912
▁itusi	-3913
▁hap	-3914
▁sua	-3915
▁kter	-3916
▁pons	-3917
▁rate	-3918
▁rtis	-3919
▁Tok	-3920
▁andu	-3921
▁itia	-3922
▁jari	-3923
▁enggu	-3924
▁ams	-3925
▁ead	-3926
▁roli	-3927
▁distr	-3928
▁80	-3929
▁HO	-3930
▁timal	-3931
▁Dewa	-3932
▁puan	-3933
▁tris	-3934
▁rlind	-3935
▁DE	-3936
▁rgo	-3937
▁val	-3938
▁nduk	-3939
▁za	-3940
▁aim	-3941
▁bil	-3942
▁lob	-3943
▁liar	-3944
▁reka	-3945
▁ulus	-3946
▁ndika	-3947
▁yangk	-3948
▁ota	-3949
▁oyo	-3950
▁alau	-3951
▁iana	-3952
▁menik	-3953
▁oda	-3954
▁mewa	-3955
▁ahu	-3956
▁ibi	-3957
▁lem	-3958
▁mad	-3959
▁ebak	-3960
▁elun	-3961
▁gaya	-3962
▁pura	-3963
▁PNS	-3964
▁Bl	-3965
▁TKP	-3966
▁orp	-3967
▁alal	-3968
▁YOG	-3969
▁idu	-3970
▁omm	-3971
▁jm	-3972
▁ute	-3973
▁khir	-3974
▁YOGYA	-3975
▁ateri	-3976
▁arg	-3977
▁imo	-3978
▁thi	-3979
▁Mend	-3980
▁alim	-3981
▁nald	-3982
▁uro	-3983
▁asan	-3984
▁entu	-3985
▁70	-3986
▁Fi	-3987
▁SO	-3988
▁odo	-3989
▁van	-3990
▁Dn	-3991
▁ij	-3992
▁top	-3993
▁ktor	-3994
▁mda	-3995
▁agen	-3996
▁njam	-3997
▁ermin	-3998
mba	-3999
▁rv	-4000
▁nut	-4001
▁oll	-4002
▁deral	-4003
▁AN	-4004
▁Bi	-4005
▁sm	-4006
▁va	-4007
▁Ayu	-4008
▁Mis	-4009
▁enu	-4010
▁curi	-4011
▁embu	-4012
▁din	-4013
▁arap	-4014
▁imis	-4015
▁emudi	-4016
▁BT	-4017
▁Mus	-4018
▁eco	-4019
▁epo	-4020
▁ugi	-4021
▁rakt	-4022
▁spor	-4023
▁paran	-4024
▁IM	-4025
▁uli	-4026
▁inar	-4027
▁ukul	-4028
▁urit	-4029
LO	-4030
▁WITA	-4031
▁onor	-4032
▁uel	-4033
▁itar	-4034
▁oran	-4035
▁ae	-4036
▁fl	-4037
▁kab	-4038
▁amal	-4039
▁lini	-4040
▁AD	-4041
▁dipa	-4042
▁sine	-4043
▁jamin	-4044
▁kinan	-4045
▁anju	-4046
▁ians	-4047
▁adik	-4048
▁CC	-4049
▁KI	-4050
▁uju	-4051
▁vasi	-4052
▁CO	-4053
▁ll	-4054
▁asila	-4055
▁eban	-4056
▁BI	-4057
▁enj	-4058
▁stri	-4059
▁dah	-4060
▁inis	-4061
▁eda	-4062
▁oor	-4063
▁tro	-4064
▁ekas	-4065
▁fung	-4066
▁tari	-4067
▁ngaja	-4068
▁Sy	-4069
▁nes	-4070
▁dera	-4071
▁via	-4072
▁yap	-4073
▁iasa	-4074
▁ujuan	-4075
AP	-4076
▁rest	-4077
▁nggak	-4078
▁ash	-4079
▁sto	-4080
▁seri	-4081
▁hn	-4082
▁nve	-4083
▁ule	-4084
▁etah	-4085
▁kond	-4086
▁ombo	-4087
▁fungs	-4088
▁tt	-4089
▁BKN	-4090
▁rpo	-4091
▁alik	-4092
▁ambah	-4093
▁dud	-4094
▁nag	-4095
▁unt	-4096
▁Perd	-4097
RO	-4098
▁iy	-4099
▁erke	-4100
▁ndam	-4101
▁skus	-4102
▁200	-4103
▁AFF	-4104
▁idup	-4105
▁ming	-4106
▁KS	-4107
▁PE	-4108
▁gn	-4109
▁rai	-4110
▁oris	-4111
▁PLN	-4112
▁KH	-4113
▁BOG	-4114
▁Dwi	-4115
▁ndo	-4116
▁dali	-4117
▁ekal	-4118
▁erto	-4119
ena	-4120
▁oy	-4121
▁gam	-4122
▁nekan	-4123
▁penda	-4124
▁AFP	-4125
▁rab	-4126
▁rahan	-4127
▁Dh	-4128
▁VOA	-4129
▁asp	-4130
▁leh	-4131
▁integ	-4132
▁fa	-4133
▁BBM	-4134
▁Far	-4135
▁Han	-4136
▁aih	-4137
▁elen	-4138
▁pera	-4139
▁ago	-4140
▁fan	-4141
▁mbina	-4142
▁rtasi	-4143
▁NI	-4144
▁odus	-4145
▁etahu	-4146
▁Ek	-4147
▁Sim	-4148
▁duduk	-4149
▁caya	-4150
▁aid	-4151
▁babk	-4152
▁ewan	-4153
▁uali	-4154
▁get	-4155
▁lig	-4156
▁ted	-4157
▁risti	-4158
▁sosia	-4159
▁ado	-4160
▁aut	-4161
▁pl	-4162
▁orm	-4163
▁sho	-4164
▁ssa	-4165
▁enti	-4166
▁ntai	-4167
▁3,	-4168
▁NAT	-4169
▁ass	-4170
▁diku	-4171
▁hani	-4172
▁jadik	-4173
▁500	-4174
▁PSM	-4175
▁wah	-4176
▁terti	-4177
▁BS	-4178
▁hr	-4179
▁nder	-4180
▁etika	-4181
▁ngkal	-4182
▁fak	-4183
▁BM	-4184
▁Kha	-4185
▁aul	-4186
▁RSUD	-4187
▁IV	-4188
▁Tb	-4189
▁Did	-4190
▁dem	-4191
▁oso	-4192
▁berma	-4193
▁prose	-4194
▁hm	-4195
▁lv	-4196
▁ahat	-4197
▁dina	-4198
▁ahana	-4199
▁ision	-4200
▁nai	-4201
▁Cu	-4202
▁Dem	-4203
▁dus	-4204
▁rma	-4205
NU	-4206
▁DW	-4207
▁ES	-4208
▁uha	-4209
▁Fo	-4210
▁MU	-4211
▁Ph	-4212
▁rta	-4213
▁ghan	-4214
▁sebab	-4215
▁Kim	-4216
▁out	-4217
▁uki	-4218
▁kanto	-4219
▁32	-4220
▁mani	-4221
▁pele	-4222
▁pertu	-4223
▁ph	-4224
▁Com	-4225
▁DPC	-4226
▁raf	-4227
▁sung	-4228
▁ndala	-4229
▁Up	-4230
▁Tbk	-4231
▁erp	-4232
▁kian	-4233
▁ngar	-4234
▁over	-4235
▁lobal	-4236
▁putra	-4237
▁Kab	-4238
▁mul	-4239
▁ranc	-4240
▁ting	-4241
▁San	-4242
▁Sha	-4243
▁igi	-4244
su	-4245
▁kp	-4246
▁lot	-4247
▁egar	-4248
▁rsatu	-4249
wo	-4250
▁ffi	-4251
▁igit	-4252
▁apor	-4253
▁rial	-4254
▁Ade	-4255
▁PPN	-4256
▁aktu	-4257
▁arna	-4258
▁etiap	-4259
▁oco	-4260
▁ree	-4261
▁keke	-4262
▁mara	-4263
▁rkas	-4264
▁NATO	-4265
▁siko	-4266
▁tangg	-4267
PP	-4268
▁Bar	-4269
▁ansa	-4270
▁erpo	-4271
▁+	-4272
▁hol	-4273
BN	-4274
▁FI	-4275
▁nh	-4276
▁nz	-4277
▁den	-4278
▁nny	-4279
▁akin	-4280
▁unik	-4281
▁how	-4282
▁spek	-4283
▁syah	-4284
▁BPK	-4285
▁gia	-4286
▁mate	-4287
▁ncurk	-4288
▁AMI	-4289
▁fes	-4290
▁adj	-4291
▁ami	-4292
▁adin	-4293
▁mari	-4294
▁ale	-4295
▁ukkan	-4296
▁bad	-4297
▁dau	-4298
▁hin	-4299
▁iji	-4300
▁kuk	-4301
▁mur	-4302
▁adis	-4303
▁niat	-4304
▁NTT	-4305
▁rr	-4306
▁tunt	-4307
▁ambi	-4308
▁duan	-4309
▁Seti	-4310
▁moti	-4311
▁Gol	-4312
▁nol	-4313
▁imak	-4314
▁ening	-4315
▁ilaku	-4316
PS	-4317
▁ceh	-4318
▁duka	-4319
▁ps	-4320
▁tip	-4321
▁dasi	-4322
▁isan	-4323
▁legal	-4324
▁nakan	-4325
▁teria	-4326
▁terse	-4327
▁Eks	-4328
▁fic	-4329
▁rno	-4330
▁sam	-4331
▁evel	-4332
▁wasa	-4333
PU	-4334
lat	-4335
▁cor	-4336
▁Sant	-4337
▁pira	-4338
▁kuran	-4339
▁hy	-4340
▁rel	-4341
▁stin	-4342
▁luncu	-4343
WA	-4344
▁Im	-4345
▁km	-4346
▁ui	-4347
▁usti	-4348
▁mon	-4349
▁PSBS	-4350
▁kis	-4351
▁Info	-4352
▁elem	-4353
▁nand	-4354
▁nasi	-4355
▁erima	-4356
▁Garu	-4357
▁mala	-4358
▁risi	-4359
▁terna	-4360
▁erti	-4361
▁lapa	-4362
▁nia	-4363
▁rim	-4364
▁usif	-4365
▁Sp	-4366
▁iman	-4367
▁uhnya	-4368
▁36	-4369
▁ejar	-4370
▁ukar	-4371
▁matik	-4372
▁mbung	-4373
▁Ida	-4374
▁nus	-4375
▁rwa	-4376
▁yar	-4377
▁erse	-4378
KPP	-4379
gaw	-4380
▁90	-4381
▁Ky	-4382
▁Bas	-4383
▁gir	-4384
▁ereb	-4385
▁nangk	-4386
▁Mel	-4387
▁edik	-4388
ty	-4389
▁TH	-4390
▁ein	-4391
▁mpe	-4392
▁nce	-4393
▁vok	-4394
▁ngis	-4395
▁seli	-4396
▁vita	-4397
▁45	-4398
▁Kej	-4399
▁rdo	-4400
▁ric	-4401
▁Inte	-4402
▁ikap	-4403
▁1.	-4404
▁PR	-4405
▁XX	-4406
▁ci	-4407
▁aun	-4408
▁gemb	-4409
FA	-4410
▁PNM	-4411
▁Sah	-4412
▁fit	-4413
▁GB	-4414
▁OP	-4415
▁UI	-4416
▁UK	-4417
▁cip	-4418
▁fri	-4419
▁AMIN	-4420
▁isar	-4421
▁ompo	-4422
▁putri	-4423
▁Pus	-4424
▁adak	-4425
▁situ	-4426
▁indu	-4427
▁ncob	-4428
▁UP	-4429
▁Dip	-4430
▁Jak	-4431
▁ann	-4432
▁enge	-4433
▁diber	-4434
▁ael	-4435
▁kang	-4436
▁Angka	-4437
▁abung	-4438
▁PMI	-4439
▁PPD	-4440
▁ess	-4441
▁oka	-4442
▁enta	-4443
▁enand	-4444
▁okal	-4445
▁umpa	-4446
▁elaka	-4447
▁abo	-4448
▁hel	-4449
▁hop	-4450
▁Mari	-4451
▁asok	-4452
▁ement	-4453
ie	-4454
▁edis	-4455
▁nega	-4456
▁yadi	-4457
▁ampir	-4458
▁oin	-4459
▁esti	-4460
▁Hak	-4461
▁can	-4462
▁say	-4463
▁ader	-4464
▁ales	-4465
▁lili	-4466
▁mes	-4467
▁engka	-4468
▁arl	-4469
▁ngi	-4470
▁otal	-4471
▁GP	-4472
▁IB	-4473
▁MI	-4474
▁dri	-4475
▁udy	-4476
▁ramp	-4477
▁masan	-4478
▁PM	-4479
▁Jam	-4480
▁ebo	-4481
▁aker	-4482
▁elat	-4483
▁tria	-4484
▁valu	-4485
▁ahter	-4486
▁berpe	-4487
▁lomba	-4488
▁ekam	-4489
▁haya	-4490
OR	-4491
▁Bul	-4492
▁ath	-4493
▁omen	-4494
▁TK	-4495
▁USD	-4496
▁aba	-4497
▁gat	-4498
▁lab	-4499
▁ando	-4500
▁ewat	-4501
▁enaga	-4502
▁34	-4503
▁AZ	-4504
▁sr	-4505
▁atah	-4506
▁ruan	-4507
▁sion	-4508
▁inv	-4509
▁ubu	-4510
▁respo	-4511
▁ms	-4512
▁SMP	-4513
▁elu	-4514
▁gak	-4515
▁obo	-4516
▁oman	-4517
▁alkan	-4518
▁Tra	-4519
▁gis	-4520
▁let	-4521
▁anga	-4522
▁nsyah	-4523
▁CSR	-4524
▁abe	-4525
▁him	-4526
▁inya	-4527
▁puti	-4528
▁trik	-4529
▁anggi	-4530
▁det	-4531
▁ple	-4532
▁lias	-4533
▁edang	-4534
▁motor	-4535
EMB	-4536
▁ias	-4537
▁kak	-4538
▁sin	-4539
▁ust	-4540
▁ante	-4541
▁keti	-4542
▁lamb	-4543
▁sita	-4544
est	-4545
▁agam	-4546
▁raha	-4547
▁ode	-4548
▁pere	-4549
▁ty	-4550
▁cak	-4551
▁che	-4552
▁nim	-4553
▁ipil	-4554
▁iras	-4555
▁mika	-4556
▁eus	-4557
▁tal	-4558
▁sida	-4559
▁May	-4560
▁tok	-4561
▁Beri	-4562
▁ksik	-4563
▁4,	-4564
▁koh	-4565
▁til	-4566
▁ecam	-4567
▁osok	-4568
POK	-4569
▁KL	-4570
▁Api	-4571
▁kna	-4572
▁nja	-4573
▁rmo	-4574
▁ugas	-4575
▁DEPOK	-4576
▁lihan	-4577
th	-4578
▁bd	-4579
▁vi	-4580
▁ony	-4581
▁seg	-4582
▁nggo	-4583
▁ora	-4584
▁prov	-4585
▁Semen	-4586
▁arkan	-4587
▁pegaw	-4588
AI	-4589
▁ose	-4590
▁rni	-4591
▁tic	-4592
▁ikel	-4593
▁isip	-4594
▁manu	-4595
▁onstr	-4596
BP	-4597
MS	-4598
▁Au	-4599
▁bra	-4600
▁buk	-4601
▁dat	-4602
▁shi	-4603
▁perc	-4604
▁eleng	-4605
▁nek	-4606
▁rev	-4607
▁mran	-4608
▁presi	-4609
▁yal	-4610
▁etap	-4611
▁ipe	-4612
▁ansy	-4613
▁keha	-4614
▁ngko	-4615
▁rint	-4616
▁EV	-4617
▁erna	-4618
▁irin	-4619
▁ampil	-4620
▁bersi	-4621
▁endah	-4622
▁setia	-4623
▁uruan	-4624
▁75	-4625
▁uy	-4626
▁dor	-4627
▁ungk	-4628
DA	-4629
▁Ip	-4630
▁300	-4631
▁cal	-4632
▁ahal	-4633
▁nemp	-4634
▁rana	-4635
▁rsel	-4636
▁Cak	-4637
▁etn	-4638
▁mpu	-4639
▁KUHP	-4640
▁tikan	-4641
co	-4642
▁sia	-4643
▁pemba	-4644
▁piras	-4645
IS	-4646
▁RW	-4647
▁oi	-4648
▁Top	-4649
▁kot	-4650
▁sha	-4651
▁utar	-4652
▁nif	-4653
▁Sil	-4654
▁ebu	-4655
▁tertu	-4656
▁ipi	-4657
▁lmu	-4658
▁amer	-4659
▁bara	-4660
▁emat	-4661
▁isal	-4662
▁ngun	-4663
▁maham	-4664
▁ake	-4665
▁gim	-4666
▁rop	-4667
▁ngel	-4668
▁mengi	-4669
GM	-4670
▁araw	-4671
▁iapa	-4672
▁33	-4673
▁Vs	-4674
▁Nov	-4675
▁asc	-4676
▁mpo	-4677
▁odi	-4678
▁osa	-4679
▁rsa	-4680
▁uba	-4681
▁yaa	-4682
▁BPJS	-4683
▁arda	-4684
▁arte	-4685
▁ulik	-4686
▁uman	-4687
▁1-	-4688
▁jun	-4689
▁nad	-4690
▁neka	-4691
OM	-4692
▁38	-4693
▁cha	-4694
▁obj	-4695
▁spa	-4696
▁istr	-4697
▁nel	-4698
▁saw	-4699
▁adah	-4700
▁Ric	-4701
▁hon	-4702
▁kek	-4703
▁cana	-4704
▁WNI	-4705
▁epan	-4706
▁mark	-4707
▁suki	-4708
▁arget	-4709
▁BC	-4710
▁MS	-4711
▁Bak	-4712
▁kti	-4713
▁2.	-4714
▁AHY	-4715
▁SOLO	-4716
▁mnas	-4717
▁anaan	-4718
▁arasi	-4719
▁emang	-4720
AL	-4721
ere	-4722
omo	-4723
▁sA	-4724
▁gon	-4725
▁lev	-4726
▁mew	-4727
▁DKPP	-4728
▁fesi	-4729
▁jutk	-4730
▁stem	-4731
RWA	-4732
▁bet	-4733
▁div	-4734
▁moto	-4735
▁Va	-4736
▁aum	-4737
▁mada	-4738
▁nget	-4739
▁uruk	-4740
▁utip	-4741
BU	-4742
▁ER	-4743
▁Xi	-4744
▁ye	-4745
▁onv	-4746
▁agus	-4747
▁nant	-4748
▁rl	-4749
▁Ked	-4750
▁abi	-4751
▁lia	-4752
▁ilan	-4753
▁itan	-4754
▁ndek	-4755
▁ngku	-4756
▁nter	-4757
▁berge	-4758
▁PPK	-4759
▁pte	-4760
▁ATEN	-4761
▁Cent	-4762
▁apur	-4763
▁erdi	-4764
▁ilik	-4765
▁otak	-4766
▁aspad	-4767
▁katan	-4768
▁onfir	-4769
▁anpa	-4770
▁eder	-4771
▁ntal	-4772
▁peru	-4773
▁radi	-4774
▁rong	-4775
▁umbu	-4776
Di	-4777
WF	-4778
▁EU	-4779
▁ulk	-4780
▁ABUP	-4781
▁rent	-4782
▁ubar	-4783
▁ataan	-4784
▁endam	-4785
▁erluk	-4786
▁omo	-4787
▁PBNU	-4788
▁bowo	-4789
▁nata	-4790
▁engga	-4791
EC	-4792
▁(1	-4793
▁Rai	-4794
▁aia	-4795
▁chi	-4796
▁hli	-4797
▁vent	-4798
▁erasa	-4799
ED	-4800
▁OA	-4801
▁KTT	-4802
▁mos	-4803
▁nyar	-4804
▁uler	-4805
▁langk	-4806
▁njang	-4807
▁rangk	-4808
▁Bri	-4809
▁Net	-4810
▁dom	-4811
▁Jemb	-4812
▁olab	-4813
▁arena	-4814
▁cipta	-4815
ce	-4816
▁fli	-4817
▁tub	-4818
▁aram	-4819
▁sport	-4820
▁Fe	-4821
▁PG	-4822
▁BNP	-4823
▁als	-4824
▁car	-4825
▁con	-4826
▁sun	-4827
▁aula	-4828
▁awat	-4829
NAS	-4830
▁UE	-4831
▁Dar	-4832
▁APBN	-4833
▁hang	-4834
▁amera	-4835
ES	-4836
▁pes	-4837
▁yas	-4838
▁ilai	-4839
▁ndon	-4840
▁nsia	-4841
▁pembe	-4842
ER	-4843
▁mia	-4844
▁ruk	-4845
▁anat	-4846
▁boli	-4847
▁cari	-4848
▁erko	-4849
▁ongk	-4850
▁entif	-4851
fi	-4852
▁ys	-4853
▁dag	-4854
▁berm	-4855
▁diga	-4856
▁ogis	-4857
▁rena	-4858
hum	-4859
▁auh	-4860
▁ashi	-4861
▁krim	-4862
▁versi	-4863
py	-4864
▁vo	-4865
▁ulkan	-4866
▁RK	-4867
▁dm	-4868
▁oa	-4869
▁Tan	-4870
▁ica	-4871
▁rov	-4872
▁ssi	-4873
▁aban	-4874
▁gh	-4875
▁isw	-4876
▁kol	-4877
▁ksa	-4878
▁pam	-4879
▁wed	-4880
▁diun	-4881
▁Peran	-4882
▁anyar	-4883
▁Er	-4884
▁MP	-4885
▁len	-4886
▁oet	-4887
▁stu	-4888
▁iver	-4889
▁part	-4890
▁mpeti	-4891
▁lip	-4892
▁kont	-4893
▁eusai	-4894
▁SA	-4895
▁Lin	-4896
▁tuk	-4897
▁abes	-4898
▁giri	-4899
▁ibur	-4900
▁iter	-4901
CC	-4902
▁Kr	-4903
▁Sun	-4904
▁pay	-4905
▁ardi	-4906
▁udar	-4907
▁KN	-4908
▁Pet	-4909
▁lli	-4910
▁pec	-4911
▁ume	-4912
▁Berb	-4913
▁adem	-4914
▁taru	-4915
▁karan	-4916
▁temba	-4917
▁ange	-4918
▁ehat	-4919
▁nyal	-4920
▁terc	-4921
▁terg	-4922
▁BN	-4923
▁bau	-4924
▁ses	-4925
▁teh	-4926
▁anag	-4927
▁lana	-4928
▁nara	-4929
▁AZNAS	-4930
▁DB	-4931
▁dh	-4932
▁GII	-4933
▁Lem	-4934
▁jaw	-4935
▁Mand	-4936
▁ebat	-4937
▁ntre	-4938
▁usah	-4939
▁Komis	-4940
▁DJ	-4941
line	-4942
▁Dam	-4943
▁mob	-4944
▁EURO	-4945
▁enep	-4946
▁nian	-4947
▁romo	-4948
▁Id	-4949
▁kg	-4950
▁THR	-4951
▁oga	-4952
▁erup	-4953
▁eser	-4954
TU	-4955
▁LA	-4956
▁Op	-4957
▁DPW	-4958
▁dit	-4959
▁kaw	-4960
▁mna	-4961
▁anus	-4962
▁GIIAS	-4963
▁EN	-4964
▁KB	-4965
▁ask	-4966
▁vis	-4967
▁acar	-4968
▁erbi	-4969
▁keru	-4970
▁ALEMB	-4971
▁aniel	-4972
▁antun	-4973
▁nline	-4974
▁5,	-4975
▁mm	-4976
▁Lam	-4977
▁arj	-4978
▁Jati	-4979
▁elan	-4980
▁nung	-4981
▁ompa	-4982
▁sand	-4983
▁sila	-4984
▁uling	-4985
▁bs	-4986
▁Day	-4987
▁keh	-4988
▁ngo	-4989
▁jawab	-4990
▁manah	-4991
▁3-	-4992
▁we	-4993
▁iat	-4994
▁ror	-4995
▁tle	-4996
▁upp	-4997
▁jala	-4998
▁spes	-4999
BT	-5000
▁anyu	-5001
▁unda	-5002
MP	-5003
▁GI	-5004
▁ve	-5005
▁icu	-5006
▁mpi	-5007
▁pac	-5008
▁Fest	-5009
▁endi	-5010
▁rans	-5011
▁UNRWA	-5012
▁asaan	-5013
▁IK	-5014
▁KK	-5015
▁UT	-5016
▁Us	-5017
▁LPG	-5018
▁asit	-5019
▁erem	-5020
▁yasa	-5021
▁Banda	-5022
▁arhum	-5023
▁nentu	-5024
ber	-5025
▁37	-5026
▁55	-5027
▁bom	-5028
▁klu	-5029
▁maj	-5030
▁eram	-5031
▁alian	-5032
▁nanda	-5033
FI	-5034
▁ksp	-5035
▁erbu	-5036
▁ermu	-5037
▁ngge	-5038
▁rtang	-5039
▁DC	-5040
▁TPN	-5041
▁UNG	-5042
▁afi	-5043
▁dha	-5044
▁ove	-5045
▁umas	-5046
▁Polit	-5047
▁Produ	-5048
▁nvest	-5049
OT	-5050
▁ere	-5051
▁oot	-5052
▁ugu	-5053
▁lega	-5054
▁ngsi	-5055
▁penya	-5056
▁At	-5057
▁dio	-5058
▁inj	-5059
▁kos	-5060
▁sed	-5061
▁swa	-5062
▁PUPR	-5063
▁ahap	-5064
▁asak	-5065
▁ntis	-5066
▁promo	-5067
LI	-5068
▁CI	-5069
▁Bey	-5070
▁Cup	-5071
▁ars	-5072
▁eka	-5073
▁uil	-5074
▁esmi	-5075
▁ktiv	-5076
▁Kapol	-5077
▁RA	-5078
▁150	-5079
▁TKN	-5080
▁agn	-5081
▁eat	-5082
▁erut	-5083
▁seks	-5084
▁demik	-5085
▁labor	-5086
LA	-5087
▁Sua	-5088
▁ahe	-5089
▁arm	-5090
▁nir	-5091
▁Pema	-5092
▁ekar	-5093
▁limp	-5094
▁semp	-5095
RC	-5096
▁#	-5097
▁BKP	-5098
▁BTN	-5099
▁dut	-5100
▁hok	-5101
▁tag	-5102
▁eria	-5103
▁erlu	-5104
▁unak	-5105
▁laras	-5106
OS	-5107
▁250	-5108
▁muk	-5109
▁agak	-5110
▁inum	-5111
▁pati	-5112
▁plik	-5113
▁rian	-5114
▁sanya	-5115
HO	-5116
▁aci	-5117
▁wis	-5118
▁able	-5119
▁erce	-5120
▁eruk	-5121
▁nerg	-5122
▁omin	-5123
▁osis	-5124
▁urun	-5125
▁prote	-5126
▁SY	-5127
▁Bus	-5128
▁Mun	-5129
▁iya	-5130
▁nsu	-5131
▁lusi	-5132
▁rtas	-5133
▁sisw	-5134
▁time	-5135
▁timi	-5136
▁ering	-5137
▁pengh	-5138
YD	-5139
▁sap	-5140
▁tha	-5141
▁Mela	-5142
▁esar	-5143
▁omba	-5144
▁nator	-5145
▁2-	-5146
▁sd	-5147
▁day	-5148
▁obi	-5149
▁raw	-5150
▁RIDO	-5151
▁perp	-5152
▁unya	-5153
▁oj	-5154
▁Cit	-5155
▁Jab	-5156
▁ekr	-5157
▁ors	-5158
▁usa	-5159
▁PPDB	-5160
▁adan	-5161
▁capai	-5162
▁tm	-5163
▁yol	-5164
▁gali	-5165
▁onfe	-5166
▁orit	-5167
▁sman	-5168
▁rsita	-5169
og	-5170
▁LS	-5171
▁att	-5172
▁yim	-5173
▁ahas	-5174
▁beli	-5175
▁seru	-5176
▁AK	-5177
▁br	-5178
▁lk	-5179
▁eki	-5180
▁erhi	-5181
▁erus	-5182
▁rnama	-5183
▁ao	-5184
▁yl	-5185
▁Jur	-5186
▁KKB	-5187
▁Lee	-5188
▁Plt	-5189
▁XXI	-5190
▁cia	-5191
▁gni	-5192
▁huk	-5193
▁ikr	-5194
▁azar	-5195
▁erol	-5196
▁ront	-5197
▁siat	-5198
▁Polri	-5199
▁FK	-5200
▁dz	-5201
▁Ben	-5202
▁aif	-5203
▁akh	-5204
▁eas	-5205
▁gus	-5206
▁ior	-5207
▁badi	-5208
▁mbon	-5209
▁peme	-5210
▁ebera	-5211
▁ormas	-5212
▁6,	-5213
▁err	-5214
▁inti	-5215
▁awati	-5216
▁ahm	-5217
▁met	-5218
▁tem	-5219
▁enis	-5220
▁timb	-5221
▁mutus	-5222
20	-5223
ID	-5224
ei	-5225
ira	-5226
▁bit	-5227
▁ajib	-5228
▁redi	-5229
▁shop	-5230
▁temp	-5231
▁udan	-5232
▁umpu	-5233
▁meras	-5234
▁eu	-5235
▁WHO	-5236
▁gend	-5237
▁aitan	-5238
▁ifika	-5239
▁ace	-5240
▁ald	-5241
▁fik	-5242
▁iza	-5243
▁nua	-5244
▁ock	-5245
▁tna	-5246
▁angs	-5247
▁upat	-5248
▁ihara	-5249
pe	-5250
▁Gun	-5251
▁SIM	-5252
▁Seo	-5253
▁iska	-5254
▁ndat	-5255
▁nind	-5256
▁SB	-5257
▁MAL	-5258
▁SYL	-5259
▁eor	-5260
▁owo	-5261
▁usk	-5262
DC	-5263
DN	-5264
RIS	-5265
▁41	-5266
▁Kad	-5267
▁aza	-5268
▁bir	-5269
▁opo	-5270
▁hara	-5271
▁ibut	-5272
▁nerj	-5273
▁patu	-5274
▁tekn	-5275
▁luhan	-5276
▁aret	-5277
▁sten	-5278
▁kapal	-5279
TI	-5280
va	-5281
▁Tur	-5282
▁eek	-5283
▁ism	-5284
▁uai	-5285
▁esal	-5286
▁mart	-5287
▁upak	-5288
▁aikan	-5289
▁DK	-5290
▁Aku	-5291
▁UGM	-5292
▁gah	-5293
▁ull	-5294
▁Sema	-5295
▁haru	-5296
▁memas	-5297
jb	-5298
▁Cek	-5299
▁aat	-5300
▁ape	-5301
▁avi	-5302
▁erj	-5303
▁jet	-5304
▁lko	-5305
▁orb	-5306
▁Peru	-5307
▁arko	-5308
▁form	-5309
▁kret	-5310
▁muni	-5311
▁rini	-5312
▁Pengu	-5313
▁alita	-5314
▁araan	-5315
▁rmati	-5316
▁PON	-5317
▁atl	-5318
▁ndi	-5319
▁oel	-5320
▁mest	-5321
▁teri	-5322
▁aiman	-5323
▁melih	-5324
TT	-5325
▁PH	-5326
▁ESG	-5327
▁cer	-5328
▁ray	-5329
▁akwa	-5330
▁kung	-5331
▁tumb	-5332
▁encar	-5333
DI	-5334
▁GOR	-5335
▁PHK	-5336
▁khu	-5337
▁kasa	-5338
▁tori	-5339
▁udik	-5340
▁eluru	-5341
23	-5342
LB	-5343
eni	-5344
▁fid	-5345
▁ifa	-5346
▁nge	-5347
▁hool	-5348
▁njal	-5349
▁RP	-5350
▁igh	-5351
▁kun	-5352
▁zin	-5353
▁erta	-5354
▁ibuk	-5355
▁peti	-5356
▁sebe	-5357
▁Mc	-5358
▁Pon	-5359
▁tuh	-5360
▁atak	-5361
▁illa	-5362
▁okus	-5363
▁tung	-5364
▁walk	-5365
▁warg	-5366
▁memak	-5367
▁AA	-5368
▁SDN	-5369
▁bjb	-5370
▁naf	-5371
▁ukun	-5372
▁IA	-5373
▁SPBU	-5374
▁atin	-5375
▁samp	-5376
▁usik	-5377
▁ektif	-5378
▁menuh	-5379
one	-5380
▁jid	-5381
▁zat	-5382
▁arum	-5383
▁arun	-5384
▁buru	-5385
▁gara	-5386
▁reat	-5387
▁rkira	-5388
TS	-5389
ona	-5390
▁inn	-5391
▁KPPS	-5392
▁abor	-5393
▁eran	-5394
▁BYD	-5395
▁Edi	-5396
▁Emi	-5397
▁Jay	-5398
▁ert	-5399
▁sai	-5400
▁emik	-5401
▁este	-5402
▁raks	-5403
▁tmen	-5404
▁pener	-5405
LU	-5406
▁HI	-5407
▁War	-5408
▁amd	-5409
▁riw	-5410
▁entr	-5411
▁perw	-5412
▁uing	-5413
▁penyi	-5414
▁smail	-5415
▁tribu	-5416
▁untun	-5417
JK	-5418
ARU	-5419
KAN	-5420
▁ITB	-5421
▁LHK	-5422
▁VII	-5423
▁gil	-5424
▁Febr	-5425
▁Mere	-5426
▁andr	-5427
▁syar	-5428
▁uala	-5429
▁yana	-5430
▁etapa	-5431
▁jutan	-5432
DP	-5433
▁39	-5434
▁SIG	-5435
▁Tek	-5436
▁Tru	-5437
▁ged	-5438
▁PSIM	-5439
▁egan	-5440
▁enat	-5441
▁iasi	-5442
▁adapi	-5443
▁rakan	-5444
▁44	-5445
▁kj	-5446
▁nn	-5447
▁DPO	-5448
▁edo	-5449
▁Kedu	-5450
▁erja	-5451
▁hamm	-5452
▁ilak	-5453
▁lita	-5454
▁okyo	-5455
EM	-5456
▁_	-5457
▁ipa	-5458
▁oti	-5459
▁sse	-5460
▁enyu	-5461
▁atkan	-5462
▁seper	-5463
▁bk	-5464
▁400	-5465
▁Ray	-5466
▁jut	-5467
▁law	-5468
▁yen	-5469
▁atim	-5470
▁impi	-5471
▁itif	-5472
▁43	-5473
▁JI	-5474
▁1,5	-5475
▁Mon	-5476
▁wit	-5477
▁adio	-5478
▁ilip	-5479
▁ntra	-5480
▁sist	-5481
▁tres	-5482
▁ngnya	-5483
RA	-5484
▁All	-5485
▁BSD	-5486
▁Keba	-5487
▁akse	-5488
▁asti	-5489
▁enci	-5490
▁taran	-5491
io	-5492
▁may	-5493
▁olt	-5494
▁berg	-5495
▁hulu	-5496
▁mbun	-5497
▁mini	-5498
▁rhat	-5499
▁nolog	-5500
▁GT	-5501
▁Art	-5502
▁KTP	-5503
▁els	-5504
▁erw	-5505
▁jin	-5506
▁Tekn	-5507
▁cang	-5508
▁dmin	-5509
▁ente	-5510
▁runa	-5511
▁ubuh	-5512
▁natur	-5513
▁ngung	-5514
AW	-5515
SA	-5516
▁rp	-5517
▁laya	-5518
▁suma	-5519
▁wang	-5520
▁uhkan	-5521
▁65	-5522
▁DA	-5523
▁lb	-5524
▁BAN	-5525
▁BPN	-5526
▁Gre	-5527
▁Jat	-5528
▁Rek	-5529
▁iba	-5530
▁pin	-5531
▁TANG	-5532
▁endo	-5533
▁klim	-5534
fa	-5535
▁KE	-5536
▁VI	-5537
▁Par	-5538
▁bag	-5539
▁nte	-5540
▁manat	-5541
▁unkan	-5542
ze	-5543
TAN	-5544
▁42	-5545
▁48	-5546
▁Run	-5547
▁ggo	-5548
▁asem	-5549
▁inde	-5550
▁rdak	-5551
▁ajuan	-5552
▁isian	-5553
os	-5554
▁LB	-5555
▁Isu	-5556
▁ego	-5557
▁evi	-5558
▁rar	-5559
▁sya	-5560
▁yer	-5561
▁ebutk	-5562
▁erson	-5563
EI	-5564
▁KD	-5565
▁(1)	-5566
▁FOT	-5567
▁Suk	-5568
▁atr	-5569
▁hai	-5570
▁ole	-5571
▁asik	-5572
▁iket	-5573
▁mbia	-5574
▁meru	-5575
▁adirk	-5576
▁daran	-5577
▁PI	-5578
▁iw	-5579
▁Eka	-5580
▁ebi	-5581
▁fek	-5582
▁oke	-5583
▁ahir	-5584
▁empu	-5585
▁stat	-5586
▁persa	-5587
SK	-5588
wn	-5589
▁ds	-5590
▁gl	-5591
▁sn	-5592
▁Rid	-5593
▁SUV	-5594
▁hor	-5595
▁mut	-5596
▁nko	-5597
▁riku	-5598
▁semb	-5599
▁lapan	-5600
▁nyala	-5601
GD	-5602
ic	-5603
▁SC	-5604
▁khi	-5605
▁yaw	-5606
▁FOTO	-5607
▁iner	-5608
▁ntor	-5609
▁peta	-5610
UN	-5611
▁SH	-5612
▁ls	-5613
▁Kat	-5614
▁OJK	-5615
▁TJS	-5616
▁afa	-5617
▁cit	-5618
▁hri	-5619
▁ova	-5620
▁rag	-5621
▁FIFA	-5622
▁ande	-5623
▁awar	-5624
▁icky	-5625
▁perma	-5626
▁rikan	-5627
▁sb	-5628
▁DPT	-5629
▁MUI	-5630
▁ntho	-5631
▁saan	-5632
▁yawa	-5633
▁ndasi	-5634
▁MB	-5635
▁PW	-5636
▁yn	-5637
▁AFC	-5638
▁Wal	-5639
▁nta	-5640
▁ovi	-5641
▁TJSL	-5642
▁arin	-5643
▁hind	-5644
lor	-5645
yan	-5646
▁BSI	-5647
▁Jer	-5648
▁PHP	-5649
▁hut	-5650
▁iwa	-5651
▁Part	-5652
▁ngal	-5653
▁raka	-5654
▁erper	-5655
▁iklan	-5656
ard	-5657
▁TC	-5658
▁iss	-5659
▁kid	-5660
▁rau	-5661
▁dung	-5662
▁ecil	-5663
▁lian	-5664
▁mpok	-5665
▁tunj	-5666
▁ugat	-5667
▁TB	-5668
▁Ker	-5669
▁PMK	-5670
▁arr	-5671
▁blo	-5672
▁ekt	-5673
▁esk	-5674
▁lid	-5675
▁own	-5676
▁erba	-5677
▁eluar	-5678
AD	-5679
PB	-5680
▁0,	-5681
▁OK	-5682
▁rbo	-5683
▁BARU	-5684
▁alla	-5685
▁aras	-5686
▁elaj	-5687
▁emen	-5688
▁iara	-5689
▁ikon	-5690
▁ista	-5691
▁ptim	-5692
▁PEKAN	-5693
▁bangk	-5694
olo	-5695
▁kw	-5696
▁BNI	-5697
▁Bek	-5698
▁ukt	-5699
▁engu	-5700
▁perl	-5701
ry	-5702
▁51	-5703
▁md	-5704
▁BPS	-5705
▁Hot	-5706
▁ahl	-5707
▁ble	-5708
▁gai	-5709
▁tia	-5710
▁won	-5711
▁PHPU	-5712
▁Yoon	-5713
▁taka	-5714
▁entas	-5715
NL	-5716
▁Ib	-5717
▁PJ	-5718
▁his	-5719
▁ldi	-5720
▁off	-5721
▁ote	-5722
▁ktif	-5723
▁nyak	-5724
HI	-5725
mpi	-5726
▁AG	-5727
▁MR	-5728
▁STY	-5729
▁mai	-5730
▁rse	-5731
▁ste	-5732
▁digu	-5733
▁mudi	-5734
▁ncah	-5735
▁ntin	-5736
▁okoh	-5737
▁skal	-5738
▁onfer	-5739
▁tasan	-5740
▁Os	-5741
▁tc	-5742
▁zu	-5743
▁Shi	-5744
▁bea	-5745
▁eso	-5746
▁hoa	-5747
▁Berd	-5748
▁Pere	-5749
▁enah	-5750
▁inus	-5751
▁lite	-5752
▁endal	-5753
oro	-5754
▁58	-5755
▁88	-5756
▁SS	-5757
kusi	-5758
▁Abu	-5759
▁hay	-5760
▁ski	-5761
▁usli	-5762
▁annur	-5763
▁kutan	-5764
▁lakan	-5765
▁nyamb	-5766
▁sidan	-5767
▁skusi	-5768
gh	-5769
▁7,	-5770
▁ix	-5771
▁Los	-5772
▁arf	-5773
▁fia	-5774
▁rob	-5775
▁coba	-5776
▁dlat	-5777
▁erhe	-5778
▁tron	-5779
▁mimpi	-5780
▁AW	-5781
▁das	-5782
▁Apri	-5783
▁emon	-5784
▁erum	-5785
▁sumb	-5786
▁ukup	-5787
▁entan	-5788
PD	-5789
TP	-5790
ee	-5791
uke	-5792
▁47	-5793
▁DM	-5794
▁XI	-5795
▁Tom	-5796
▁aha	-5797
▁auf	-5798
▁imu	-5799
▁kib	-5800
▁KLHK	-5801
▁gori	-5802
▁pent	-5803
▁TANGE	-5804
her	-5805
▁CV	-5806
▁ts	-5807
▁APK	-5808
▁VNL	-5809
▁jus	-5810
▁pad	-5811
▁uet	-5812
▁Terb	-5813
▁abup	-5814
▁bulk	-5815
▁epak	-5816
▁nova	-5817
▁suda	-5818
▁cetak	-5819
▁watan	-5820
▁AU	-5821
▁KC	-5822
▁LI	-5823
▁bap	-5824
▁dili	-5825
▁emam	-5826
▁etan	-5827
▁etno	-5828
▁udit	-5829
▁ulat	-5830
▁enamb	-5831
▁nyama	-5832
▁perca	-5833
▁retar	-5834
▁IR	-5835
▁IDF	-5836
▁lel	-5837
▁oes	-5838
▁Pera	-5839
▁appy	-5840
▁ncam	-5841
▁room	-5842
▁Sam	-5843
▁elv	-5844
▁idi	-5845
▁Bawa	-5846
▁Kema	-5847
▁Peri	-5848
▁amba	-5849
▁gala	-5850
▁ines	-5851
▁iron	-5852
▁mand	-5853
▁mpan	-5854
▁usim	-5855
HC	-5856
▁MH	-5857
▁TN	-5858
▁Jen	-5859
▁OPD	-5860
▁Wil	-5861
▁erh	-5862
▁ngl	-5863
▁nhu	-5864
▁BNPB	-5865
▁abak	-5866
▁agal	-5867
▁ebol	-5868
▁igas	-5869
▁show	-5870
▁usak	-5871
▁znas	-5872
▁yaran	-5873
EA	-5874
▁IX	-5875
▁MT	-5876
▁On	-5877
▁UM	-5878
▁aso	-5879
▁Menu	-5880
▁nior	-5881
▁erlin	-5882
▁semba	-5883
UMI	-5884
▁52	-5885
▁PC	-5886
▁ART	-5887
▁MoU	-5888
▁iki	-5889
▁hnya	-5890
▁pert	-5891
▁ayung	-5892
JO	-5893
▁Cl	-5894
▁Sr	-5895
▁dd	-5896
▁dra	-5897
▁dun	-5898
▁iku	-5899
▁iso	-5900
▁pta	-5901
▁Sept	-5902
▁kawa	-5903
▁nisi	-5904
▁tura	-5905
▁uren	-5906
▁afari	-5907
▁berko	-5908
▁egiat	-5909
▁itasi	-5910
▁juara	-5911
▁DL	-5912
▁dw	-5913
▁yd	-5914
▁Rio	-5915
▁YAR	-5916
▁alk	-5917
▁bri	-5918
▁ecu	-5919
▁ilu	-5920
▁kst	-5921
▁ves	-5922
▁Baka	-5923
▁Mart	-5924
▁anit	-5925
▁dian	-5926
▁ntun	-5927
▁ston	-5928
▁Selat	-5929
▁emula	-5930
▁entur	-5931
▁lusur	-5932
EP	-5933
▁KR	-5934
▁COV	-5935
▁aur	-5936
▁dli	-5937
▁uit	-5938
▁BUMD	-5939
▁gita	-5940
▁izal	-5941
▁entik	-5942
▁lokas	-5943
▁mende	-5944
▁terla	-5945
EF	-5946
▁(2	-5947
▁56	-5948
▁amo	-5949
▁fis	-5950
▁hul	-5951
▁kno	-5952
▁rot	-5953
▁toh	-5954
▁amad	-5955
▁egra	-5956
▁COVID	-5957
▁andat	-5958
▁kuman	-5959
▁pusat	-5960
▁uheni	-5961
HT	-5962
▁Em	-5963
▁UKM	-5964
▁cas	-5965
▁die	-5966
▁fir	-5967
▁hre	-5968
▁nde	-5969
▁INDO	-5970
▁elap	-5971
▁idak	-5972
▁mbal	-5973
▁raham	-5974
▁ze	-5975
▁iva	-5976
▁ool	-5977
▁pda	-5978
▁rli	-5979
▁rna	-5980
▁usu	-5981
▁azia	-5982
▁galk	-5983
▁uron	-5984
▁eting	-5985
▁kspor	-5986
CO	-5987
yb	-5988
▁mr	-5989
▁2,5	-5990
▁JPU	-5991
▁KIM	-5992
▁WWF	-5993
▁Seri	-5994
▁ilah	-5995
▁nump	-5996
▁opot	-5997
▁lengk	-5998
▁SW	-5999
▁Edy	-6000
▁arn	-6001
▁dya	-6002
▁hun	-6003
▁nsy	-6004
▁ofi	-6005
▁uis	-6006
▁PTPN	-6007
▁Seni	-6008
▁arki	-6009
▁ngus	-6010
▁onan	-6011
▁stan	-6012
BI	-6013
PI	-6014
▁NK	-6015
▁fu	-6016
▁ATR	-6017
▁LBH	-6018
▁gin	-6019
▁gum	-6020
▁ngs	-6021
▁tiw	-6022
▁vat	-6023
▁web	-6024
▁rita	-6025
▁wata	-6026
qu	-6027
▁NG	-6028
▁TA	-6029
▁LSI	-6030
▁eme	-6031
▁kra	-6032
▁uko	-6033
▁Fran	-6034
▁TPPO	-6035
▁etis	-6036
▁gawa	-6037
▁hina	-6038
▁itis	-6039
▁kses	-6040
▁opul	-6041
▁side	-6042
▁urir	-6043
▁ancan	-6044
▁encer	-6045
▁lustr	-6046
▁naras	-6047
▁rauke	-6048
▁ualan	-6049
▁bl	-6050
▁gk	-6051
▁Dig	-6052
▁PAD	-6053
▁Peg	-6054
▁ete	-6055
▁hyb	-6056
▁lif	-6057
▁uty	-6058
▁Abdu	-6059
▁adia	-6060
▁aten	-6061
▁onta	-6062
▁onte	-6063
▁sian	-6064
▁ekali	-6065
▁mengk	-6066
sit	-6067
▁Ara	-6068
▁sme	-6069
▁gitu	-6070
▁mete	-6071
▁uncu	-6072
▁embah	-6073
▁mbera	-6074
▁naung	-6075
▁pengi	-6076
▁46	-6077
▁54	-6078
▁HP	-6079
▁mz	-6080
▁IKA	-6081
▁Rum	-6082
▁nsa	-6083
▁rso	-6084
▁esel	-6085
▁ilis	-6086
▁medi	-6087
▁mode	-6088
▁rsip	-6089
▁uaya	-6090
▁ubli	-6091
▁imbul	-6092
▁kidul	-6093
▁muncu	-6094
17	-6095
VP	-6096
▁53	-6097
▁98	-6098
▁cr	-6099
▁Kon	-6100
▁Max	-6101
▁One	-6102
▁Tem	-6103
▁asl	-6104
▁dai	-6105
▁awai	-6106
▁eror	-6107
▁gist	-6108
▁ihad	-6109
▁njar	-6110
▁senj	-6111
▁apkan	-6112
▁bappe	-6113
FC	-6114
▁GM	-6115
▁LG	-6116
▁fr	-6117
▁Ded	-6118
▁IND	-6119
▁MIN	-6120
▁OPM	-6121
▁tyo	-6122
▁esla	-6123
▁nani	-6124
▁Setia	-6125
▁empur	-6126
▁eraih	-6127
▁temuk	-6128
▁Jl	-6129
▁TS	-6130
▁FGD	-6131
▁IBL	-6132
▁Mic	-6133
▁GIAN	-6134
▁lemb	-6135
▁riti	-6136
▁riya	-6137
▁LATAN	-6138
▁BD	-6139
▁FH	-6140
▁Aji	-6141
▁Ita	-6142
▁UPT	-6143
▁WBP	-6144
▁gem	-6145
▁onn	-6146
▁pok	-6147
▁SMAN	-6148
▁irma	-6149
▁ival	-6150
▁mera	-6151
▁nyer	-6152
▁sukan	-6153
RE	-6154
ky	-6155
ney	-6156
▁yi	-6157
▁SPK	-6158
▁SUK	-6159
▁Spa	-6160
▁apt	-6161
▁cle	-6162
▁uin	-6163
▁abin	-6164
▁acun	-6165
▁auan	-6166
▁ekre	-6167
▁iant	-6168
▁ulit	-6169
▁asark	-6170
▁emuka	-6171
▁erbai	-6172
▁membu	-6173
▁teran	-6174
BA	-6175
GI	-6176
AMP	-6177
▁57	-6178
▁XV	-6179
▁kt	-6180
▁600	-6181
▁Cap	-6182
▁DBD	-6183
▁nie	-6184
▁udd	-6185
▁loud	-6186
▁ayana	-6187
▁masin	-6188
▁rbaru	-6189
▁IG	-6190
▁KW	-6191
▁RO	-6192
▁zo	-6193
▁ICC	-6194
▁SUG	-6195
▁cob	-6196
▁eet	-6197
▁fat	-6198
▁iew	-6199
▁mid	-6200
▁riz	-6201
▁alak	-6202
▁dent	-6203
▁etty	-6204
▁irta	-6205
▁ujud	-6206
▁salin	-6207
▁stian	-6208
▁terpa	-6209
bi	-6210
▁Zo	-6211
▁Gas	-6212
▁Moh	-6213
▁Out	-6214
▁alm	-6215
▁fun	-6216
▁jud	-6217
▁orn	-6218
▁rih	-6219
▁atuk	-6220
▁bino	-6221
▁enim	-6222
▁esep	-6223
▁lint	-6224
▁tawa	-6225
▁aliho	-6226
▁amata	-6227
ye	-6228
ate	-6229
▁OS	-6230
▁cm	-6231
▁Kur	-6232
▁Pur	-6233
▁nje	-6234
▁anca	-6235
▁apol	-6236
▁erku	-6237
▁alika	-6238
▁apork	-6239
▁erind	-6240
▁feren	-6241
▁ntian	-6242
ton	-6243
▁0-	-6244
▁73	-6245
▁76	-6246
▁PO	-6247
▁800	-6248
▁ALI	-6249
▁Ary	-6250
▁ITS	-6251
▁Mil	-6252
▁ign	-6253
▁nio	-6254
▁MIND	-6255
▁amis	-6256
▁ikma	-6257
▁itel	-6258
▁laka	-6259
▁ogra	-6260
▁park	-6261
▁rapi	-6262
▁buran	-6263
▁emuan	-6264
▁menci	-6265
by	-6266
xy	-6267
▁63	-6268
▁95	-6269
▁EA	-6270
▁BIN	-6271
▁OTT	-6272
▁PSN	-6273
▁PSU	-6274
▁XII	-6275
▁peg	-6276
▁rug	-6277
▁uny	-6278
▁atri	-6279
▁enas	-6280
▁ooth	-6281
▁tali	-6282
▁jajar	-6283
▁ormat	-6284
▁posit	-6285
▁uskan	-6286
▁JK	-6287
▁ACL	-6288
▁Ace	-6289
▁Kun	-6290
▁UIN	-6291
▁gap	-6292
▁ise	-6293
▁upi	-6294
▁yun	-6295
▁KDRT	-6296
▁Medi	-6297
▁arif	-6298
▁asir	-6299
▁dibe	-6300
▁dzes	-6301
▁itik	-6302
▁olil	-6303
▁onel	-6304
▁resh	-6305
▁orban	-6306
ps	-6307
▁49	-6308
▁EM	-6309
▁FA	-6310
▁ATM	-6311
▁Red	-6312
▁eer	-6313
▁elp	-6314
▁qua	-6315
▁tup	-6316
▁BRIN	-6317
▁engo	-6318
▁ippo	-6319
▁irda	-6320
▁sina	-6321
▁term	-6322
▁umba	-6323
▁berbi	-6324
▁mpaik	-6325
PA	-6326
▁BL	-6327
▁ASA	-6328
▁BWF	-6329
▁LPK	-6330
▁PKK	-6331
▁lle	-6332
▁ngh	-6333
▁nul	-6334
▁yid	-6335
▁BPOM	-6336
▁bark	-6337
▁gini	-6338
▁heck	-6339
▁komu	-6340
▁lami	-6341
▁nari	-6342
▁ansen	-6343
▁ernat	-6344
▁HS	-6345
▁MM	-6346
▁ON	-6347
▁Ul	-6348
▁iP	-6349
▁ANS	-6350
▁eju	-6351
▁lav	-6352
▁slo	-6353
▁way	-6354
▁asis	-6355
▁mpor	-6356
▁ndir	-6357
▁nita	-6358
▁dunia	-6359
▁61	-6360
▁HM	-6361
▁NA	-6362
▁TM	-6363
▁lp	-6364
▁alo	-6365
▁nne	-6366
▁TPPU	-6367
▁hala	-6368
▁isik	-6369
▁kluk	-6370
▁lani	-6371
▁nisa	-6372
▁ntel	-6373
▁pion	-6374
▁emban	-6375
▁urhan	-6376
UR	-6377
▁DR	-6378
▁Ant	-6379
▁SDG	-6380
▁ais	-6381
▁eel	-6382
▁ija	-6383
▁nna	-6384
▁oid	-6385
▁Pant	-6386
▁anny	-6387
▁peed	-6388
▁usta	-6389
▁abila	-6390
▁aspen	-6391
▁elana	-6392
▁likas	-6393
BC	-6394
HA	-6395
zy	-6396
▁TI	-6397
▁ax	-6398
▁120	-6399
▁LRT	-6400
▁gua	-6401
▁jik	-6402
▁nin	-6403
▁ipda	-6404
▁orea	-6405
▁swar	-6406
▁unta	-6407
ire	-6408
zul	-6409
▁64	-6410
▁TPI	-6411
▁UUD	-6412
▁Yan	-6413
▁rde	-6414
▁tto	-6415
▁BPIP	-6416
▁Bela	-6417
▁alai	-6418
▁ella	-6419
▁gela	-6420
▁emari	-6421
▁isang	-6422
ET	-6423
dy	-6424
ff	-6425
qi	-6426
▁68	-6427
▁SR	-6428
▁Tua	-6429
▁tru	-6430
▁ankan	-6431
▁limut	-6432
▁menyi	-6433
US	-6434
▁AJ	-6435
▁Kg	-6436
▁Md	-6437
▁RE	-6438
▁SN	-6439
▁PDB	-6440
▁SBY	-6441
▁UKT	-6442
▁loy	-6443
▁ogi	-6444
▁owa	-6445
▁pim	-6446
▁disa	-6447
▁kura	-6448
▁melt	-6449
▁yber	-6450
▁LHKPN	-6451
▁TPNPB	-6452
▁arfum	-6453
▁endes	-6454
▁klama	-6455
ore	-6456
▁Con	-6457
▁Dok	-6458
▁ICE	-6459
▁Sin	-6460
▁dja	-6461
▁ico	-6462
▁nop	-6463
▁PBSI	-6464
▁gari	-6465
▁lank	-6466
▁ncan	-6467
▁neur	-6468
▁ngki	-6469
▁olak	-6470
▁unah	-6471
od	-6472
▁99	-6473
▁Ud	-6474
▁hk	-6475
▁ABK	-6476
▁AEO	-6477
▁ASP	-6478
▁ASS	-6479
▁Uji	-6480
▁elt	-6481
▁tau	-6482
▁AMAN	-6483
▁buan	-6484
▁mutu	-6485
▁orth	-6486
▁poli	-6487
▁sign	-6488
▁usus	-6489
▁ansus	-6490
▁kandi	-6491
▁napas	-6492
▁vitas	-6493
DK	-6494
▁72	-6495
▁IO	-6496
▁rf	-6497
▁PAS	-6498
▁Sub	-6499
▁eir	-6500
▁hum	-6501
▁iur	-6502
▁kaa	-6503
▁sau	-6504
▁alil	-6505
▁arut	-6506
▁ehan	-6507
▁ndal	-6508
▁rato	-6509
▁enewa	-6510
▁engat	-6511
▁erusa	-6512
▁munit	-6513
▁ngkai	-6514
▁opera	-6515
▁BNN	-6516
▁EKA	-6517
▁ehi	-6518
▁lau	-6519
▁onc	-6520
▁LGBT	-6521
▁arsa	-6522
▁ertu	-6523
▁ibya	-6524
▁imda	-6525
▁klat	-6526
▁kuti	-6527
▁membe	-6528
▁ntegr	-6529
▁ratus	-6530
▁tukan	-6531
IC	-6532
▁4-	-6533
▁8,	-6534
▁HR	-6535
▁Sut	-6536
▁hom	-6537
▁nso	-6538
▁sib	-6539
▁udo	-6540
▁umh	-6541
▁urk	-6542
▁asah	-6543
▁date	-6544
▁epem	-6545
▁erte	-6546
▁konf	-6547
▁nomo	-6548
▁rant	-6549
▁seku	-6550
▁umin	-6551
▁ahera	-6552
▁ngund	-6553
▁polis	-6554
je	-6555
▁85	-6556
▁GS	-6557
▁Gy	-6558
▁Ye	-6559
▁1-0	-6560
▁700	-6561
▁elc	-6562
▁fol	-6563
▁mic	-6564
▁oly	-6565
▁ook	-6566
▁sei	-6567
▁adab	-6568
▁digi	-6569
▁imun	-6570
▁inga	-6571
▁njat	-6572
▁sege	-6573
▁udio	-6574
▁Pemba	-6575
▁isial	-6576
okh	-6577
▁66	-6578
▁67	-6579
▁CN	-6580
▁Fu	-6581
▁OD	-6582
▁lg	-6583
▁enk	-6584
▁jem	-6585
▁LPSK	-6586
▁Sumb	-6587
▁cher	-6588
▁emba	-6589
▁esen	-6590
▁imba	-6591
▁jaja	-6592
▁olok	-6593
▁ross	-6594
▁eraga	-6595
▁mperl	-6596
▁pelat	-6597
▁suran	-6598
hew	-6599
lan	-6600
yok	-6601
▁59	-6602
▁wu	-6603
▁LSM	-6604
▁MED	-6605
▁Okt	-6606
▁PPA	-6607
▁aly	-6608
▁cel	-6609
▁erg	-6610
▁mot	-6611
▁pag	-6612
▁QRIS	-6613
▁ahma	-6614
▁ajan	-6615
▁ddin	-6616
▁gasi	-6617
▁mpuh	-6618
▁niai	-6619
▁olan	-6620
▁riot	-6621
▁rote	-6622
▁ujuh	-6623
▁upan	-6624
▁yari	-6625
▁ABUMI	-6626
▁aksim	-6627
▁olina	-6628
▁tthew	-6629
▁urokh	-6630
FP	-6631
▁62	-6632
▁Ai	-6633
▁RM	-6634
▁SL	-6635
▁HIV	-6636
▁arb	-6637
▁etw	-6638
▁rgi	-6639
▁tig	-6640
▁ubi	-6641
▁BNPT	-6642
▁PPDS	-6643
▁SMKN	-6644
▁egit	-6645
▁enna	-6646
▁kepo	-6647
▁nggr	-6648
▁aknya	-6649
▁ibawa	-6650
",	-6651
JM	-6652
▁RD	-6653
▁bb	-6654
▁gg	-6655
▁Bin	-6656
▁JCC	-6657
▁enn	-6658
▁enz	-6659
▁kto	-6660
▁lfi	-6661
▁low	-6662
▁nji	-6663
▁uno	-6664
▁yed	-6665
▁egia	-6666
▁ivis	-6667
▁kebu	-6668
▁lean	-6669
▁akkan	-6670
▁ebani	-6671
▁iuran	-6672
▁klukk	-6673
JP	-6674
hu	-6675
▁MG	-6676
▁Doa	-6677
▁Era	-6678
▁KIP	-6679
▁Say	-6680
▁don	-6681
▁ith	-6682
▁nic	-6683
▁wet	-6684
▁NKRI	-6685
▁bola	-6686
▁bran	-6687
▁iati	-6688
▁inja	-6689
▁lant	-6690
▁rick	-6691
▁yudo	-6692
▁MEDAN	-6693
▁amaah	-6694
▁perin	-6695
▁resid	-6696
▁salam	-6697
▁urkan	-6698
iko	-6699
▁--	-6700
▁IH	-6701
▁Ik	-6702
▁Wo	-6703
▁gy	-6704
▁uo	-6705
▁SWT	-6706
▁Teh	-6707
▁URA	-6708
▁egu	-6709
▁ges	-6710
▁gre	-6711
▁irk	-6712
▁leb	-6713
▁lec	-6714
▁nab	-6715
▁nih	-6716
▁ory	-6717
▁rjo	-6718
▁uja	-6719
▁yad	-6720
▁yro	-6721
▁agan	-6722
▁astr	-6723
▁elia	-6724
▁eril	-6725
▁renc	-6726
▁Yoyok	-6727
▁engec	-6728
▁pendi	-6729
▁tuhan	-6730
▁umpan	-6731
EL	-6732
OP	-6733
PT	-6734
▁Ow	-6735
▁dc	-6736
▁kn	-6737
▁ASI	-6738
▁Ahm	-6739
▁ays	-6740
▁dji	-6741
▁hot	-6742
▁ryp	-6743
▁usn	-6744
▁hany	-6745
▁ingo	-6746
▁moda	-6747
▁obol	-6748
▁roto	-6749
▁sudi	-6750
▁jakan	-6751
▁manda	-6752
EK	-6753
▁CF	-6754
▁CP	-6755
▁iu	-6756
▁3-0	-6757
▁AKA	-6758
▁ARA	-6759
▁BMW	-6760
▁IIA	-6761
▁ING	-6762
▁Leo	-6763
▁Roy	-6764
▁Uno	-6765
▁gej	-6766
▁gro	-6767
▁irl	-6768
▁nem	-6769
▁nil	-6770
▁sas	-6771
▁LAMP	-6772
▁PGRI	-6773
▁erit	-6774
▁inim	-6775
▁nger	-6776
▁nore	-6777
▁uduh	-6778
▁yata	-6779
▁aylor	-6780
▁erant	-6781
▁ertan	-6782
▁folio	-6783
▁ransp	-6784
▁FS	-6785
▁Ji	-6786
▁np	-6787
▁oz	-6788
▁6,5	-6789
▁ENG	-6790
▁apu	-6791
▁hah	-6792
▁kip	-6793
▁lya	-6794
▁nsi	-6795
▁uar	-6796
▁bent	-6797
▁egis	-6798
▁hama	-6799
▁ihak	-6800
▁kada	-6801
▁mpar	-6802
▁ndes	-6803
▁rdan	-6804
▁smat	-6805
▁tami	-6806
▁tter	-6807
▁curan	-6808
▁esona	-6809
▁insar	-6810
▁manto	-6811
CA	-6812
EV	-6813
for	-6814
▁ITE	-6815
▁PPS	-6816
▁ebr	-6817
▁gue	-6818
▁izi	-6819
▁opa	-6820
▁rro	-6821
▁var	-6822
▁viv	-6823
▁KBRI	-6824
▁Sera	-6825
▁boat	-6826
▁erdu	-6827
▁eres	-6828
▁etar	-6829
▁roen	-6830
▁sala	-6831
▁tega	-6832
▁ware	-6833
▁atnya	-6834
▁garan	-6835
▁uinea	-6836
▁79	-6837
▁GR	-6838
▁RC	-6839
▁Baw	-6840
▁HMI	-6841
▁PPI	-6842
▁RAN	-6843
▁SKB	-6844
▁bos	-6845
▁ept	-6846
▁htt	-6847
▁hua	-6848
▁ikm	-6849
▁jok	-6850
▁kia	-6851
▁wen	-6852
▁ARAT	-6853
▁BPKP	-6854
▁Dina	-6855
▁ahwa	-6856
▁arel	-6857
▁emer	-6858
▁isen	-6859
▁omis	-6860
▁shar	-6861
▁uana	-6862
▁ubis	-6863
▁undu	-6864
▁wait	-6865
▁adiri	-6866
▁airud	-6867
▁iarah	-6868
LN	-6869
UL	-6870
▁(3	-6871
▁77	-6872
▁FP	-6873
▁MC	-6874
▁Bat	-6875
▁lic	-6876
▁rke	-6877
▁taz	-6878
▁tho	-6879
▁upu	-6880
▁budi	-6881
▁elai	-6882
▁enga	-6883
▁epul	-6884
▁gusu	-6885
▁mzah	-6886
▁ncol	-6887
▁tike	-6888
▁ubur	-6889
▁ASPEN	-6890
▁EKASI	-6891
▁alisa	-6892
▁anusi	-6893
DS	-6894
ey	-6895
get	-6896
▁78	-6897
▁81	-6898
▁MO	-6899
▁Sk	-6900
▁GBT	-6901
▁ICJ	-6902
▁IDI	-6903
▁SKD	-6904
▁UMP	-6905
▁Yos	-6906
▁aby	-6907
▁cil	-6908
▁ege	-6909
▁iqu	-6910
▁jib	-6911
▁omi	-6912
▁urs	-6913
▁RSUP	-6914
▁aguy	-6915
▁atsu	-6916
▁burg	-6917
▁ihan	-6918
▁nika	-6919
▁nsar	-6920
▁utut	-6921
▁sinya	-6922
▁terha	-6923
▁GBK	-6924
▁PKP	-6925
▁TPA	-6926
▁ahi	-6927
▁ece	-6928
▁iPh	-6929
▁Rama	-6930
▁afet	-6931
▁icke	-6932
▁kedu	-6933
▁kome	-6934
▁rame	-6935
▁rina	-6936
▁lanet	-6937
▁mulyo	-6938
edy	-6939
mas	-6940
uri	-6941
▁71	-6942
▁ABC	-6943
▁KRL	-6944
▁ees	-6945
▁oat	-6946
▁uad	-6947
▁ampa	-6948
▁anka	-6949
▁back	-6950
▁elam	-6951
▁elih	-6952
▁empe	-6953
▁esta	-6954
▁hila	-6955
▁ndia	-6956
▁obot	-6957
▁reda	-6958
▁spon	-6959
▁budur	-6960
▁dikin	-6961
▁emasa	-6962
▁https	-6963
▁menei	-6964
▁mpany	-6965
▁perda	-6966
▁smawa	-6967
YU	-6968
▁4.	-6969
▁NN	-6970
▁aa	-6971
▁(2)	-6972
▁AYA	-6973
▁BCL	-6974
▁MAT	-6975
▁OEC	-6976
▁Oli	-6977
▁anw	-6978
▁ejo	-6979
▁epu	-6980
▁haj	-6981
▁wai	-6982
▁Kara	-6983
▁keba	-6984
▁nual	-6985
▁rdhi	-6986
▁udal	-6987
▁wara	-6988
▁encat	-6989
▁ngatk	-6990
▁pakan	-6991
▁rosot	-6992
▁sumsi	-6993
GC	-6994
ARI	-6995
▁3.	-6996
▁87	-6997
▁DS	-6998
▁MN	-6999
▁IPB	-7000
▁Lia	-7001
▁TAN	-7002
▁ayc	-7003
▁ayo	-7004
▁bor	-7005
▁bub	-7006
▁igu	-7007
▁ilk	-7008
▁rju	-7009
▁ABRI	-7010
▁AEON	-7011
▁ARAM	-7012
▁anie	-7013
▁datu	-7014
▁eila	-7015
▁gate	-7016
▁isma	-7017
▁itam	-7018
▁iung	-7019
▁ness	-7020
▁rati	-7021
▁rend	-7022
▁sank	-7023
▁akzul	-7024
▁egask	-7025
▁mener	-7026
▁perba	-7027
▁69	-7028
▁94	-7029
▁mg	-7030
▁Bos	-7031
▁NES	-7032
▁PUU	-7033
▁Ste	-7034
▁TPP	-7035
▁ipp	-7036
▁nse	-7037
▁ops	-7038
▁ube	-7039
▁ARAW	-7040
▁OECD	-7041
▁akni	-7042
▁dham	-7043
▁dige	-7044
▁harg	-7045
▁luan	-7046
▁ncer	-7047
▁wira	-7048
▁bilit	-7049
▁ensin	-7050
▁erkar	-7051
▁imana	-7052
▁nitas	-7053
▁sebel	-7054
MM	-7055
ley	-7056
sir	-7057
▁IF	-7058
▁RPP	-7059
▁eon	-7060
▁huf	-7061
▁keg	-7062
▁pia	-7063
▁yuk	-7064
▁IPMI	-7065
▁PTUN	-7066
▁VIII	-7067
▁emuk	-7068
▁gand	-7069
▁goya	-7070
▁inas	-7071
▁less	-7072
▁memi	-7073
▁nsya	-7074
▁onet	-7075
▁rown	-7076
▁rter	-7077
▁tana	-7078
▁udol	-7079
▁anone	-7080
▁desak	-7081
▁humas	-7082
▁intan	-7083
▁mence	-7084
▁shida	-7085
CH	-7086
rah	-7087
ras	-7088
▁82	-7089
▁NE	-7090
▁hl	-7091
▁DNA	-7092
▁Eva	-7093
▁Gra	-7094
▁KEK	-7095
▁LKP	-7096
▁aft	-7097
▁bih	-7098
▁gja	-7099
▁ird	-7100
▁nav	-7101
▁oru	-7102
▁row	-7103
▁ubl	-7104
▁Koru	-7105
▁SDGs	-7106
▁XVII	-7107
▁XXII	-7108
▁else	-7109
▁ijak	-7110
▁imul	-7111
▁irto	-7112
▁kebi	-7113
▁lanc	-7114
▁loka	-7115
▁ourt	-7116
▁rien	-7117
▁rime	-7118
▁sumo	-7119
▁ufmi	-7120
▁berba	-7121
▁ensus	-7122
▁mendo	-7123
▁nopol	-7124
HS	-7125
RS	-7126
yi	-7127
TAM	-7128
▁74	-7129
▁9,	-7130
▁DU	-7131
▁zi	-7132
▁COP	-7133
▁PIK	-7134
▁big	-7135
▁bup	-7136
▁eck	-7137
▁eva	-7138
▁tai	-7139
▁Perm	-7140
▁Tahu	-7141
▁abel	-7142
▁mann	-7143
▁ngke	-7144
▁once	-7145
▁riel	-7146
▁yaif	-7147
▁afety	-7148
▁aleri	-7149
▁caman	-7150
▁janto	-7151
▁using	-7152
CE	-7153
▁We	-7154
▁BPD	-7155
▁Hyb	-7156
▁IIB	-7157
▁Jon	-7158
▁KRI	-7159
▁iel	-7160
▁ipr	-7161
▁Moch	-7162
▁akir	-7163
▁arir	-7164
▁diha	-7165
▁ekti	-7166
▁erli	-7167
▁irby	-7168
▁olly	-7169
▁alaxy	-7170
▁ampun	-7171
▁embut	-7172
▁stika	-7173
hy	-7174
sy	-7175
lem	-7176
▁GA	-7177
▁Jr	-7178
▁BPA	-7179
▁MAK	-7180
▁MAN	-7181
▁Yon	-7182
▁aer	-7183
▁aud	-7184
▁ild	-7185
▁kue	-7186
▁lal	-7187
▁mum	-7188
▁oir	-7189
▁oup	-7190
▁AMDK	-7191
▁amit	-7192
▁elhi	-7193
▁elly	-7194
▁eron	-7195
▁iduk	-7196
▁ndil	-7197
▁ngec	-7198
▁ordi	-7199
▁osta	-7200
▁andai	-7201
▁elsea	-7202
▁ganis	-7203
CI	-7204
pp	-7205
ato	-7206
unj	-7207
▁96	-7208
▁My	-7209
▁Pd	-7210
▁ox	-7211
▁BTS	-7212
▁HTS	-7213
▁Isa	-7214
▁PAT	-7215
▁PLT	-7216
▁TKD	-7217
▁app	-7218
▁hej	-7219
▁ous	-7220
▁akaf	-7221
▁arid	-7222
▁eren	-7223
▁hono	-7224
▁iani	-7225
▁iram	-7226
▁keli	-7227
▁melu	-7228
▁mith	-7229
▁stol	-7230
▁anese	-7231
▁arman	-7232
▁bidan	-7233
▁board	-7234
▁ektur	-7235
▁smine	-7236
oh	-7237
▁NP	-7238
▁WA	-7239
▁2,3	-7240
▁Lim	-7241
▁Ses	-7242
▁aje	-7243
▁efe	-7244
▁eve	-7245
▁lte	-7246
▁nud	-7247
▁sol	-7248
▁zon	-7249
▁KPAI	-7250
▁TARA	-7251
▁UEFA	-7252
▁dika	-7253
▁ibus	-7254
▁irah	-7255
▁mund	-7256
▁stay	-7257
▁ukuh	-7258
▁wari	-7259
▁undar	-7260
Ya	-7261
rey	-7262
tek	-7263
win	-7264
▁dk	-7265
▁160	-7266
▁AMB	-7267
▁IMF	-7268
▁SEA	-7269
▁Xia	-7270
▁fon	-7271
▁gih	-7272
▁gor	-7273
▁ipu	-7274
▁kei	-7275
▁oss	-7276
▁urb	-7277
▁vil	-7278
▁yek	-7279
▁Nata	-7280
▁alem	-7281
▁alny	-7282
▁anoi	-7283
▁embo	-7284
▁idah	-7285
▁mily	-7286
▁ngsu	-7287
▁onas	-7288
▁rlih	-7289
▁rrah	-7290
▁ruar	-7291
▁sert	-7292
▁ural	-7293
▁enunj	-7294
▁guran	-7295
▁korup	-7296
▁rissa	-7297
▁yakan	-7298
▁ydney	-7299
cy	-7300
▁CG	-7301
▁DO	-7302
▁LC	-7303
▁MW	-7304
▁NS	-7305
▁Ze	-7306
▁kW	-7307
▁3,5	-7308
▁BKD	-7309
▁Oil	-7310
▁PSK	-7311
▁nun	-7312
▁rte	-7313
▁BNNP	-7314
▁asya	-7315
▁bama	-7316
▁djir	-7317
▁ezes	-7318
▁olon	-7319
▁onsi	-7320
▁rook	-7321
▁rwan	-7322
▁sada	-7323
▁tent	-7324
▁ugia	-7325
▁anras	-7326
▁ompet	-7327
▁rasio	-7328
▁swara	-7329
▁tokol	-7330
TC	-7331
▁*	-7332
▁uq	-7333
▁yg	-7334
▁1,7	-7335
▁170	-7336
▁Ama	-7337
▁BON	-7338
▁Big	-7339
▁Las	-7340
▁PSG	-7341
▁SOP	-7342
▁SUM	-7343
▁YAP	-7344
▁deo	-7345
▁eep	-7346
▁sec	-7347
▁JEMB	-7348
▁Kala	-7349
▁PAUD	-7350
▁afar	-7351
▁apuk	-7352
▁avis	-7353
▁bata	-7354
▁eger	-7355
▁gana	-7356
▁impo	-7357
▁iris	-7358
▁keja	-7359
▁lati	-7360
▁mpik	-7361
▁ndus	-7362
▁ootb	-7363
▁pemi	-7364
▁rani	-7365
▁shim	-7366
▁tone	-7367
▁annel	-7368
▁chain	-7369
▁hanty	-7370
▁..	-7371
▁89	-7372
▁ML	-7373
▁SF	-7374
▁BKS	-7375
▁CSI	-7376
▁PTS	-7377
▁TMS	-7378
▁Tes	-7379
▁Ulu	-7380
▁ahr	-7381
▁ikh	-7382
▁itr	-7383
▁ivi	-7384
▁lta	-7385
▁mri	-7386
▁rce	-7387
▁rmu	-7388
▁sab	-7389
▁uck	-7390
▁zan	-7391
▁Ketu	-7392
▁ahit	-7393
▁apua	-7394
▁caks	-7395
▁enoa	-7396
▁epal	-7397
▁epas	-7398
▁ettu	-7399
▁ezat	-7400
▁hris	-7401
▁lman	-7402
▁mili	-7403
▁rida	-7404
▁sran	-7405
▁ambir	-7406
▁honor	-7407
▁kular	-7408
▁lipat	-7409
▁ntens	-7410
▁ramat	-7411
▁trate	-7412
BO	-7413
EB	-7414
▁Ol	-7415
▁TT	-7416
▁VR	-7417
▁...	-7418
▁110	-7419
▁BCA	-7420
▁DAS	-7421
▁Lai	-7422
▁Law	-7423
▁PDT	-7424
▁TPU	-7425
▁dad	-7426
▁esm	-7427
▁kma	-7428
▁uca	-7429
▁yoy	-7430
▁alti	-7431
▁atut	-7432
▁bant	-7433
▁bela	-7434
▁dimu	-7435
▁lahi	-7436
▁osip	-7437
▁prak	-7438
▁riwi	-7439
▁tisi	-7440
▁isman	-7441
▁manik	-7442
CK	-7443
JB	-7444
NK	-7445
HCR	-7446
edi	-7447
hou	-7448
pen	-7449
zer	-7450
▁92	-7451
▁ME	-7452
▁UB	-7453
▁cy	-7454
▁130	-7455
▁3-1	-7456
▁BKI	-7457
▁FBI	-7458
▁Fun	-7459
▁KNP	-7460
▁PIS	-7461
▁SAM	-7462
▁ava	-7463
▁bre	-7464
▁cul	-7465
▁fas	-7466
▁hoi	-7467
▁iks	-7468
▁sko	-7469
▁yon	-7470
▁APAN	-7471
▁GBLA	-7472
▁PDAM	-7473
▁abri	-7474
▁ebes	-7475
▁gner	-7476
▁lisi	-7477
▁mumk	-7478
▁rmas	-7479
▁wita	-7480
▁UNHCR	-7481
▁airul	-7482
▁angsu	-7483
▁dimul	-7484
▁entah	-7485
▁mempr	-7486
▁tatan	-7487
OK	-7488
▁91	-7489
▁NC	-7490
▁UC	-7491
▁Yi	-7492
▁112	-7493
▁Gub	-7494
▁KKP	-7495
▁MLB	-7496
▁OKU	-7497
▁TAR	-7498
▁UEA	-7499
▁bro	-7500
▁kui	-7501
▁new	-7502
▁pur	-7503
▁unk	-7504
▁uya	-7505
▁KNPI	-7506
▁PMII	-7507
▁PWNU	-7508
▁edot	-7509
▁gnes	-7510
▁isum	-7511
▁loyd	-7512
▁ther	-7513
▁uram	-7514
▁utup	-7515
▁Kecam	-7516
▁bertu	-7517
▁eline	-7518
▁engan	-7519
▁ilita	-7520
▁karsa	-7521
▁laksa	-7522
BB	-7523
KS	-7524
SIP	-7525
har	-7526
ubl	-7527
▁AQ	-7528
▁SJ	-7529
▁YA	-7530
▁fw	-7531
▁350	-7532
▁ANT	-7533
▁Aep	-7534
▁doo	-7535
▁gne	-7536
▁itt	-7537
▁oer	-7538
▁thy	-7539
▁Gube	-7540
▁KSAL	-7541
▁PLTU	-7542
▁elok	-7543
▁isak	-7544
▁lame	-7545
▁mbau	-7546
▁saki	-7547
▁uisi	-7548
▁usup	-7549
▁ALIKP	-7550
▁ASSAR	-7551
▁Bante	-7552
▁antin	-7553
▁dupan	-7554
▁enung	-7555
▁rasak	-7556
▁tamin	-7557
UU	-7558
cle	-7559
▁GW	-7560
▁JU	-7561
▁yr	-7562
▁DLH	-7563
▁bok	-7564
▁ext	-7565
▁iod	-7566
▁ush	-7567
▁uso	-7568
▁Indr	-7569
▁arit	-7570
▁arot	-7571
▁arri	-7572
▁atok	-7573
▁berh	-7574
▁cean	-7575
▁edas	-7576
▁esid	-7577
▁esli	-7578
▁fina	-7579
▁gkut	-7580
▁hite	-7581
▁nalk	-7582
▁oord	-7583
▁pant	-7584
▁rawa	-7585
▁sebu	-7586
▁inner	-7587
▁siaga	-7588
▁ualit	-7589
MD	-7590
ci	-7591
▁5-	-7592
▁84	-7593
▁BG	-7594
▁BO	-7595
▁EG	-7596
▁OT	-7597
▁Ob	-7598
▁TR	-7599
▁eX	-7600
▁CAT	-7601
▁PPG	-7602
▁RSF	-7603
▁irm	-7604
▁nke	-7605
▁ody	-7606
▁rog	-7607
▁sio	-7608
▁vas	-7609
▁yik	-7610
▁alju	-7611
▁ekni	-7612
▁erad	-7613
▁irst	-7614
▁ited	-7615
▁ivre	-7616
▁kram	-7617
▁lopp	-7618
▁tens	-7619
▁tore	-7620
▁trip	-7621
▁dinya	-7622
▁ewask	-7623
▁inder	-7624
▁istra	-7625
▁lemba	-7626
▁ngkun	-7627
▁ntika	-7628
▁ricuh	-7629
▁ringa	-7630
▁yaman	-7631
BE	-7632
UI	-7633
vi	-7634
far	-7635
urt	-7636
▁EP	-7637
▁JD	-7638
▁JP	-7639
▁hw	-7640
▁Aan	-7641
▁BPP	-7642
▁BSK	-7643
▁IDS	-7644
▁alt	-7645
▁eth	-7646
▁map	-7647
▁taq	-7648
▁von	-7649
▁Kris	-7650
▁LPKR	-7651
▁MURI	-7652
▁SIER	-7653
▁arul	-7654
▁elot	-7655
▁gust	-7656
▁lawi	-7657
▁nirl	-7658
▁oney	-7659
▁ontr	-7660
▁ratu	-7661
▁rmon	-7662
▁shir	-7663
▁tind	-7664
▁ungu	-7665
▁usin	-7666
▁dekah	-7667
▁etter	-7668
▁ippon	-7669
▁itkan	-7670
▁luhur	-7671
▁lumas	-7672
▁mania	-7673
▁midah	-7674
▁ramik	-7675
▁tahil	-7676
▁terte	-7677
hur	-7678
ler	-7679
una	-7680
▁$1	-7681
▁KY	-7682
▁QR	-7683
▁1-1	-7684
▁ASR	-7685
▁Bis	-7686
▁Mer	-7687
▁Van	-7688
▁ewe	-7689
▁gau	-7690
▁gna	-7691
▁ily	-7692
▁ime	-7693
▁kse	-7694
▁osy	-7695
▁SMPN	-7696
▁abad	-7697
▁acat	-7698
▁beth	-7699
▁deni	-7700
▁elaw	-7701
▁ello	-7702
▁enye	-7703
▁erge	-7704
▁erim	-7705
▁eung	-7706
▁lock	-7707
▁logo	-7708
▁mura	-7709
▁nteg	-7710
▁oget	-7711
▁olis	-7712
▁olog	-7713
▁sain	-7714
▁udia	-7715
▁ulli	-7716
▁urga	-7717
▁zhou	-7718
▁Perda	-7719
▁andas	-7720
▁erbit	-7721
▁ivers	-7722
▁negas	-7723
▁nsume	-7724
▁persi	-7725
▁retas	-7726
▁uqman	-7727
▁usaka	-7728
bor	-7729
▁83	-7730
▁Cr	-7731
▁LL	-7732
▁Mr	-7733
▁PV	-7734
▁ww	-7735
▁Duk	-7736
▁NIC	-7737
▁PGN	-7738
▁UMS	-7739
▁UNS	-7740
▁hie	-7741
▁rch	-7742
▁uss	-7743
▁KSAD	-7744
▁TKDN	-7745
▁asto	-7746
▁buyb	-7747
▁dona	-7748
▁mban	-7749
▁olar	-7750
▁pare	-7751
▁BSKDN	-7752
▁NESCO	-7753
▁Presi	-7754
▁anuli	-7755
▁bonat	-7756
▁iakan	-7757
▁inaga	-7758
▁kriti	-7759
▁tilas	-7760
CG	-7761
VE	-7762
gen	-7763
▁Eu	-7764
▁Km	-7765
▁aq	-7766
▁hp	-7767
▁ux	-7768
▁140	-7769
▁Car	-7770
▁Mpo	-7771
▁PTN	-7772
▁Sel	-7773
▁VIP	-7774
▁ady	-7775
▁aen	-7776
▁bac	-7777
▁bka	-7778
▁enp	-7779
▁flu	-7780
▁het	-7781
▁icy	-7782
▁kej	-7783
▁oki	-7784
▁win	-7785
▁Bata	-7786
▁KCNA	-7787
▁KONI	-7788
▁Pemu	-7789
▁RUPS	-7790
▁ages	-7791
▁aldo	-7792
▁alma	-7793
▁avar	-7794
▁blem	-7795
▁dlor	-7796
▁erny	-7797
▁idul	-7798
▁ilos	-7799
▁inho	-7800
▁itte	-7801
▁kepa	-7802
▁kila	-7803
▁lanj	-7804
▁ones	-7805
▁saka	-7806
▁usum	-7807
▁FISIP	-7808
▁Merek	-7809
▁airah	-7810
▁break	-7811
▁elind	-7812
▁likar	-7813
▁nnedy	-7814
▁selam	-7815
▁sendi	-7816
▁ulliv	-7817
LP	-7818
umi	-7819
▁93	-7820
▁GJ	-7821
▁HB	-7822
▁JS	-7823
▁Of	-7824
▁Th	-7825
▁1,3	-7826
▁Ana	-7827
▁IRI	-7828
▁Sol	-7829
▁buh	-7830
▁iwi	-7831
▁mbi	-7832
▁uwa	-7833
▁PTFI	-7834
▁ager	-7835
▁atun	-7836
▁ball	-7837
▁care	-7838
▁eker	-7839
▁esia	-7840
▁ggot	-7841
▁hali	-7842
▁ibar	-7843
▁mdan	-7844
▁napi	-7845
▁pont	-7846
▁tant	-7847
▁tern	-7848
▁aidah	-7849
▁ancis	-7850
▁bitat	-7851
▁elati	-7852
▁imtek	-7853
▁melar	-7854
▁ploso	-7855
▁raton	-7856
HN	-7857
vo	-7858
KBN	-7859
ike	-7860
ret	-7861
▁GK	-7862
▁KJ	-7863
▁Wh	-7864
▁lj	-7865
▁125	-7866
▁DWP	-7867
▁Eco	-7868
▁ICW	-7869
▁PAM	-7870
▁Pdt	-7871
▁SER	-7872
▁WIT	-7873
▁ayy	-7874
▁bru	-7875
▁jon	-7876
▁lag	-7877
▁oth	-7878
▁otu	-7879
▁rca	-7880
▁Satu	-7881
▁UPTD	-7882
▁XIII	-7883
▁abun	-7884
▁akul	-7885
▁bina	-7886
▁eera	-7887
▁eluk	-7888
▁enni	-7889
▁inah	-7890
▁isol	-7891
▁iste	-7892
▁iyan	-7893
▁lent	-7894
▁ller	-7895
▁mank	-7896
▁neri	-7897
▁rino	-7898
▁ryan	-7899
▁spar	-7900
▁ulas	-7901
▁NICEF	-7902
▁allas	-7903
▁arkiv	-7904
▁endor	-7905
▁imoen	-7906
▁ising	-7907
▁konom	-7908
19	-7909
GJ	-7910
LS	-7911
be	-7912
td	-7913
▁é	-7914
aki	-7915
ome	-7916
▁CB	-7917
▁Ce	-7918
▁HG	-7919
▁HK	-7920
▁LD	-7921
▁RF	-7922
▁WT	-7923
▁0,5	-7924
▁2-0	-7925
▁Aga	-7926
▁Gan	-7927
▁Ijo	-7928
▁Jem	-7929
▁MKD	-7930
▁MRT	-7931
▁TER	-7932
▁Ton	-7933
▁Xin	-7934
▁akw	-7935
▁dkk	-7936
▁eif	-7937
▁laj	-7938
▁mka	-7939
▁ndr	-7940
▁ude	-7941
▁www	-7942
▁yok	-7943
▁BALI	-7944
▁Link	-7945
▁Subi	-7946
▁acik	-7947
▁anna	-7948
▁arie	-7949
▁baum	-7950
▁boks	-7951
▁boro	-7952
▁drus	-7953
▁isel	-7954
▁keca	-7955
▁kpol	-7956
▁layu	-7957
▁naan	-7958
▁nack	-7959
▁nali	-7960
▁onia	-7961
▁orem	-7962
▁thio	-7963
▁tima	-7964
▁uhur	-7965
▁yiah	-7966
▁ynch	-7967
▁BKKBN	-7968
▁anuar	-7969
▁erdam	-7970
▁iklon	-7971
▁irana	-7972
▁smita	-7973
▁untik	-7974
▁upply	-7975
DH	-7976
EH	-7977
UA	-7978
ix	-7979
zo	-7980
ito	-7981
▁86	-7982
▁Fr	-7983
▁LE	-7984
▁Oh	-7985
▁1,2	-7986
▁1-2	-7987
▁180	-7988
▁450	-7989
▁900	-7990
▁AWK	-7991
▁BEM	-7992
▁DAR	-7993
▁Plh	-7994
▁UIP	-7995
▁dhi	-7996
▁eke	-7997
▁ery	-7998
▁gio	-7999
▁mba	-8000
▁ois	-8001
▁sie	-8002
▁GJAW	-8003
▁Nasi	-8004
▁PLTS	-8005
▁SPKT	-8006
▁elvy	-8007
▁enez	-8008
▁ette	-8009
▁fsir	-8010
▁gnar	-8011
▁imam	-8012
▁ncap	-8013
▁owan	-8014
▁romi	-8015
▁rtaw	-8016
▁snia	-8017
▁sron	-8018
▁ulin	-8019
▁anter	-8020
▁asser	-8021
▁brina	-8022
▁kenai	-8023
▁ranta	-8024
▁sekto	-8025
BK	-8026
are	-8027
▁0.	-8028
▁CE	-8029
▁ET	-8030
▁JM	-8031
▁MY	-8032
▁OL	-8033
▁WO	-8034
▁2-1	-8035
▁APP	-8036
▁Boy	-8037
▁DAX	-8038
▁Fed	-8039
▁GRO	-8040
▁JIE	-8041
▁KPR	-8042
▁Kia	-8043
▁Mia	-8044
▁NIK	-8045
▁Nah	-8046
▁Non	-8047
▁PDN	-8048
▁PIN	-8049
▁PKL	-8050
▁aal	-8051
▁amm	-8052
▁aqu	-8053
▁iaz	-8054
▁idd	-8055
▁lew	-8056
▁obs	-8057
▁rou	-8058
▁yor	-8059
▁ARIS	-8060
▁LKPI	-8061
▁ODGJ	-8062
▁dakw	-8063
▁damp	-8064
▁emur	-8065
▁enen	-8066
▁erly	-8067
▁erni	-8068
▁esse	-8069
▁idea	-8070
▁into	-8071
▁kuan	-8072
▁naut	-8073
▁ncak	-8074
▁rona	-8075
▁shel	-8076
▁unei	-8077
▁usur	-8078
▁abire	-8079
▁ahaan	-8080
▁elsen	-8081
▁melan	-8082
▁nggun	-8083
▁usumo	-8084
▁warta	-8085
16	-8086
GA	-8087
SS	-8088
▁ü	-8089
FIL	-8090
▁AV	-8091
▁DT	-8092
▁FN	-8093
▁RN	-8094
▁2-3	-8095
▁Dae	-8096
▁Eky	-8097
▁Jas	-8098
▁KTM	-8099
▁MAS	-8100
▁NIP	-8101
▁SAW	-8102
▁SDA	-8103
▁Umi	-8104
▁box	-8105
▁hio	-8106
▁irt	-8107
▁itb	-8108
▁jiw	-8109
▁laf	-8110
▁mac	-8111
▁ohi	-8112
▁pom	-8113
▁skr	-8114
▁uam	-8115
▁PTDH	-8116
▁alid	-8117
▁anam	-8118
▁awaw	-8119
▁bias	-8120
▁elak	-8121
▁elik	-8122
▁garo	-8123
▁itah	-8124
▁kapi	-8125
▁kend	-8126
▁lust	-8127
▁nnya	-8128
▁trid	-8129
▁utya	-8130
▁vaku	-8131
▁warn	-8132
▁ynth	-8133
▁Kanto	-8134
▁NIFIL	-8135
▁arkam	-8136
▁arsip	-8137
▁chine	-8138
▁eraka	-8139
▁erupa	-8140
▁iaman	-8141
▁panta	-8142
▁risma	-8143
AU	-8144
les	-8145
▁(5	-8146
▁HA	-8147
▁RR	-8148
▁VP	-8149
▁nl	-8150
▁nr	-8151
▁CHT	-8152
▁CNN	-8153
▁Cut	-8154
▁IAP	-8155
▁Lap	-8156
▁NBA	-8157
▁Taj	-8158
▁UFC	-8159
▁Way	-8160
▁eee	-8161
▁iff	-8162
▁msi	-8163
▁omw	-8164
▁smi	-8165
▁wee	-8166
▁DLHK	-8167
▁INDA	-8168
▁IRGC	-8169
▁PSMS	-8170
▁Peme	-8171
▁aing	-8172
▁aper	-8173
▁aren	-8174
▁ento	-8175
▁iatu	-8176
▁ibia	-8177
▁ikah	-8178
▁illi	-8179
▁just	-8180
▁milu	-8181
▁nimb	-8182
▁rdir	-8183
▁uatu	-8184
▁waru	-8185
▁dinat	-8186
▁erser	-8187
▁gerus	-8188
▁ierre	-8189
▁menja	-8190
▁olten	-8191
▁oumas	-8192
▁perat	-8193
▁prakt	-8194
▁undry	-8195
nu	-8196
yn	-8197
MAK	-8198
jan	-8199
urg	-8200
ust	-8201
▁GO	-8202
▁Nm	-8203
▁tz	-8204
▁DKJ	-8205
▁Ika	-8206
▁Jus	-8207
▁OSO	-8208
▁PJU	-8209
▁RSU	-8210
▁aar	-8211
▁cik	-8212
▁duo	-8213
▁erf	-8214
▁fac	-8215
▁kho	-8216
▁lme	-8217
▁not	-8218
▁obl	-8219
▁Moon	-8220
▁akao	-8221
▁atih	-8222
▁ebur	-8223
▁emis	-8224
▁enan	-8225
▁heng	-8226
▁holz	-8227
▁ijat	-8228
▁lisa	-8229
▁list	-8230
▁ndur	-8231
▁nego	-8232
▁ruma	-8233
▁solu	-8234
▁tuli	-8235
▁ubuk	-8236
▁aenal	-8237
▁ahari	-8238
▁colas	-8239
▁ecret	-8240
▁ersus	-8241
▁imble	-8242
▁mangg	-8243
▁marga	-8244
▁selek	-8245
▁udrey	-8246
JA	-8247
PM	-8248
UB	-8249
KPD	-8250
▁(4	-8251
▁CR	-8252
▁FW	-8253
▁MF	-8254
▁Oj	-8255
▁WF	-8256
▁WS	-8257
▁yc	-8258
▁yp	-8259
▁50%	-8260
▁ISO	-8261
▁NOA	-8262
▁UPN	-8263
▁cin	-8264
▁llo	-8265
▁ndu	-8266
▁nea	-8267
▁sch	-8268
▁ATAM	-8269
▁GRES	-8270
▁Yeol	-8271
▁aeda	-8272
▁anty	-8273
▁batu	-8274
▁east	-8275
▁elis	-8276
▁enia	-8277
▁gnet	-8278
▁hena	-8279
▁ingi	-8280
▁ipin	-8281
▁isio	-8282
▁kong	-8283
▁misa	-8284
▁nday	-8285
▁obor	-8286
▁oeto	-8287
▁ofia	-8288
▁pulu	-8289
▁rabo	-8290
▁race	-8291
▁road	-8292
▁sara	-8293
▁skin	-8294
▁tudy	-8295
▁ulut	-8296
▁usir	-8297
▁LGBTQ	-8298
▁SAMAR	-8299
▁adian	-8300
▁bubur	-8301
▁endek	-8302
▁enkum	-8303
▁galan	-8304
▁gkung	-8305
▁iband	-8306
▁nagih	-8307
▁opher	-8308
▁plika	-8309
▁timah	-8310
gy	-8311
zu	-8312
KIN	-8313
hol	-8314
▁CM	-8315
▁ED	-8316
▁TL	-8317
▁rz	-8318
▁20%	-8319
▁240	-8320
▁BAC	-8321
▁BKC	-8322
▁JIS	-8323
▁KPI	-8324
▁KWK	-8325
▁LED	-8326
▁Liu	-8327
▁Ltd	-8328
▁MAD	-8329
▁Ode	-8330
▁PKI	-8331
▁PKN	-8332
▁PPU	-8333
▁Pat	-8334
▁YoY	-8335
▁aht	-8336
▁eed	-8337
▁hdi	-8338
▁loh	-8339
▁nzo	-8340
▁rua	-8341
▁ubj	-8342
▁uff	-8343
▁unn	-8344
▁ANYU	-8345
▁ARJO	-8346
▁BKPM	-8347
▁Isra	-8348
▁SIDO	-8349
▁SMRC	-8350
▁Solo	-8351
▁ahra	-8352
▁alar	-8353
▁alus	-8354
▁angu	-8355
▁asur	-8356
▁atul	-8357
▁disi	-8358
▁eira	-8359
▁embi	-8360
▁hohi	-8361
▁jawa	-8362
▁kuid	-8363
▁kurs	-8364
▁labu	-8365
▁naya	-8366
▁njab	-8367
▁paka	-8368
▁plat	-8369
▁riil	-8370
▁risa	-8371
▁sobo	-8372
▁tras	-8373
▁urov	-8374
▁wich	-8375
▁andur	-8376
▁apitu	-8377
▁dinah	-8378
▁hinta	-8379
▁ingka	-8380
▁ismil	-8381
▁mbern	-8382
▁mpera	-8383
▁pelan	-8384
▁perso	-8385
▁rgant	-8386
▁umham	-8387
▁unita	-8388
▁uyung	-8389
RP	-8390
VA	-8391
uw	-8392
we	-8393
oki	-8394
usu	-8395
▁OC	-8396
▁155	-8397
▁AHM	-8398
▁BAP	-8399
▁BEI	-8400
▁Hum	-8401
▁IUP	-8402
▁Jun	-8403
▁KKN	-8404
▁KSP	-8405
▁KUA	-8406
▁McC	-8407
▁RAP	-8408
▁SSC	-8409
▁ett	-8410
▁far	-8411
▁ktr	-8412
▁mst	-8413
▁nay	-8414
▁ope	-8415
▁vit	-8416
▁yel	-8417
▁BPKH	-8418
▁Ment	-8419
▁Moto	-8420
▁Thai	-8421
▁Zoom	-8422
▁aitu	-8423
▁asut	-8424
▁ejat	-8425
▁elbo	-8426
▁eldi	-8427
▁hort	-8428
▁ilia	-8429
▁irat	-8430
▁look	-8431
▁luyo	-8432
▁mass	-8433
▁onic	-8434
▁opan	-8435
▁opes	-8436
▁otul	-8437
▁pete	-8438
▁pita	-8439
▁toar	-8440
▁trib	-8441
▁ugar	-8442
▁yato	-8443
▁Ganja	-8444
▁barga	-8445
▁eling	-8446
▁engin	-8447
▁ineas	-8448
▁ofyan	-8449
▁sumah	-8450
▁ubung	-8451
SN	-8452
bol	-8453
und	-8454
unt	-8455
ure	-8456
▁(7	-8457
▁CH	-8458
▁IW	-8459
▁JF	-8460
▁mn	-8461
▁1,4	-8462
▁DJP	-8463
▁IMI	-8464
▁Iya	-8465
▁Lig	-8466
▁Mos	-8467
▁PAC	-8468
▁SME	-8469
▁TOP	-8470
▁TPG	-8471
▁anp	-8472
▁eha	-8473
▁eid	-8474
▁eji	-8475
▁hmo	-8476
▁max	-8477
▁yno	-8478
▁zal	-8479
▁Pres	-8480
▁Prov	-8481
▁RUMI	-8482
▁SPBE	-8483
▁abot	-8484
▁afis	-8485
▁ardo	-8486
▁edes	-8487
▁endr	-8488
▁enol	-8489
▁haka	-8490
▁hima	-8491
▁hira	-8492
▁ilal	-8493
▁inak	-8494
▁mron	-8495
▁nhil	-8496
▁orte	-8497
▁orto	-8498
▁pide	-8499
▁srat	-8500
▁subs	-8501
▁syik	-8502
▁trak	-8503
▁tsus	-8504
▁unas	-8505
▁utro	-8506
▁BKSDA	-8507
▁DEMAK	-8508
▁amban	-8509
▁ebang	-8510
▁emaha	-8511
▁erasi	-8512
▁milia	-8513
▁nstru	-8514
▁paham	-8515
▁pukat	-8516
▁riang	-8517
-7	-8518
all	-8519
ora	-8520
▁(6	-8521
▁DD	-8522
▁DN	-8523
▁FT	-8524
▁HN	-8525
▁LM	-8526
▁OM	-8527
▁Om	-8528
▁UA	-8529
▁zz	-8530
▁1,1	-8531
▁60%	-8532
▁80%	-8533
▁DBH	-8534
▁Dew	-8535
▁Jet	-8536
▁Oki	-8537
▁Ono	-8538
▁Pun	-8539
▁exy	-8540
▁hij	-8541
▁lwi	-8542
▁mpl	-8543
▁BPPD	-8544
▁IIMS	-8545
▁IPDN	-8546
▁MMEA	-8547
▁PPPA	-8548
▁aily	-8549
▁apuh	-8550
▁ehid	-8551
▁elif	-8552
▁enja	-8553
▁ever	-8554
▁giur	-8555
▁gong	-8556
▁iong	-8557
▁irza	-8558
▁itab	-8559
▁itek	-8560
▁itha	-8561
▁koro	-8562
▁lkan	-8563
▁luit	-8564
▁lwan	-8565
▁madu	-8566
▁ndim	-8567
▁nies	-8568
▁nimo	-8569
▁nyan	-8570
▁otte	-8571
▁peda	-8572
▁perb	-8573
▁pong	-8574
▁rsan	-8575
▁tina	-8576
▁tomo	-8577
▁uddi	-8578
▁wasi	-8579
▁INDRA	-8580
▁SPKLU	-8581
▁adget	-8582
▁batan	-8583
▁bernu	-8584
▁digma	-8585
▁eneng	-8586
▁esota	-8587
▁illem	-8588
▁ittee	-8589
▁lokan	-8590
▁mbala	-8591
▁nafsu	-8592
▁nakal	-8593
▁nakes	-8594
▁radis	-8595
▁rapto	-8596
▁shire	-8597
▁umfor	-8598
▁uring	-8599
TR	-8600
of	-8601
▁=	-8602
OGO	-8603
los	-8604
omi	-8605
▁Es	-8606
▁TE	-8607
▁UL	-8608
▁VV	-8609
▁Vo	-8610
MKSI	-8611
▁CVC	-8612
▁DPN	-8613
▁Duo	-8614
▁ITA	-8615
▁MNC	-8616
▁Sei	-8617
▁UPI	-8618
▁azi	-8619
▁eaf	-8620
▁eis	-8621
▁iem	-8622
▁kuh	-8623
▁moh	-8624
▁ncu	-8625
▁oek	-8626
▁oik	-8627
▁ott	-8628
▁reb	-8629
▁ref	-8630
▁uay	-8631
▁yud	-8632
▁AQUA	-8633
▁abit	-8634
▁akum	-8635
▁ancy	-8636
▁bada	-8637
▁elin	-8638
▁epit	-8639
▁flix	-8640
▁gemp	-8641
▁ifah	-8642
▁ismo	-8643
▁ixon	-8644
▁kere	-8645
▁loso	-8646
▁mlan	-8647
▁nadi	-8648
▁ncat	-8649
▁ngad	-8650
▁rase	-8651
▁slam	-8652
▁snya	-8653
▁sono	-8654
▁tolo	-8655
▁ukka	-8656
▁MMKSI	-8657
▁Penda	-8658
▁agoan	-8659
▁ambun	-8660
▁arlah	-8661
▁berbe	-8662
▁dirin	-8663
▁nyusu	-8664
▁rimea	-8665
JT	-8666
wu	-8667
eno	-8668
ked	-8669
▁5%	-8670
▁AY	-8671
▁FM	-8672
▁FX	-8673
▁IL	-8674
▁LU	-8675
▁SG	-8676
▁4,5	-8677
▁Aba	-8678
▁FEB	-8679
▁HPP	-8680
▁KED	-8681
▁LIB	-8682
▁MBG	-8683
▁MTQ	-8684
▁McD	-8685
▁Obj	-8686
▁VAR	-8687
▁Wei	-8688
▁col	-8689
▁dju	-8690
▁dug	-8691
▁ewu	-8692
▁haz	-8693
▁inu	-8694
▁jai	-8695
▁mma	-8696
▁niv	-8697
▁oky	-8698
▁she	-8699
▁urv	-8700
▁yle	-8701
▁alhi	-8702
▁aluk	-8703
▁anet	-8704
▁anre	-8705
▁dliy	-8706
▁emin	-8707
▁goen	-8708
▁ilmy	-8709
▁ipas	-8710
▁itme	-8711
▁lose	-8712
▁ompl	-8713
▁rbun	-8714
▁reku	-8715
▁rose	-8716
▁sena	-8717
▁smin	-8718
▁tira	-8719
▁ubik	-8720
▁uras	-8721
▁wing	-8722
▁PURWA	-8723
▁Pelat	-8724
▁endak	-8725
▁engam	-8726
▁engaw	-8727
▁ganda	-8728
▁perka	-8729
▁ripda	-8730
▁shiba	-8731
▁taqin	-8732
▁torus	-8733
▁undan	-8734
CM	-8735
ac	-8736
LAK	-8737
ech	-8738
sis	-8739
▁FO	-8740
▁GG	-8741
▁bt	-8742
▁lh	-8743
▁1-3	-8744
▁10,	-8745
▁360	-8746
▁GCG	-8747
▁JAR	-8748
▁Jul	-8749
▁KIA	-8750
▁KMP	-8751
▁Mao	-8752
▁PEN	-8753
▁TMI	-8754
▁auk	-8755
▁bip	-8756
▁ift	-8757
▁jas	-8758
▁kaf	-8759
▁kte	-8760
▁och	-8761
▁ogy	-8762
▁qsa	-8763
▁quo	-8764
▁BAIC	-8765
▁Kalt	-8766
▁PLTN	-8767
▁VVIP	-8768
▁akes	-8769
▁alit	-8770
▁amur	-8771
▁asek	-8772
▁atmo	-8773
▁doko	-8774
▁doro	-8775
▁ebel	-8776
▁iksi	-8777
▁ikul	-8778
▁leix	-8779
▁muju	-8780
▁nber	-8781
▁ngen	-8782
▁olik	-8783
▁ondi	-8784
▁oret	-8785
▁oyke	-8786
▁reak	-8787
▁rwah	-8788
▁ulsa	-8789
▁akule	-8790
▁aulay	-8791
▁edana	-8792
▁hanie	-8793
▁iliun	-8794
▁inist	-8795
▁inmas	-8796
▁intim	-8797
▁mount	-8798
▁nghad	-8799
▁nihil	-8800
▁semak	-8801
▁tarum	-8802
▁ultur	-8803
AK	-8804
KM	-8805
ide	-8806
ild	-8807
int	-8808
▁5.	-8809
▁97	-8810
▁CT	-8811
▁Qi	-8812
▁RH	-8813
▁XL	-8814
▁YS	-8815
▁kk	-8816
▁pt	-8817
▁(3)	-8818
▁30%	-8819
▁BLI	-8820
▁DBL	-8821
▁ISS	-8822
▁KUR	-8823
▁Nia	-8824
▁PET	-8825
▁PPh	-8826
▁PUS	-8827
▁RPH	-8828
▁SAF	-8829
▁STI	-8830
▁TDC	-8831
▁XPO	-8832
▁akt	-8833
▁dao	-8834
▁exi	-8835
▁mie	-8836
▁ngu	-8837
▁now	-8838
▁oon	-8839
▁oos	-8840
▁pih	-8841
▁rsu	-8842
▁sri	-8843
▁tet	-8844
▁yte	-8845
▁ACEH	-8846
▁Angg	-8847
▁DJKA	-8848
▁IAEA	-8849
▁UIKA	-8850
▁agat	-8851
▁agir	-8852
▁asha	-8853
▁bsah	-8854
▁eppy	-8855
▁erpe	-8856
▁ider	-8857
▁idha	-8858
▁iger	-8859
▁isya	-8860
▁ixed	-8861
▁nich	-8862
▁nola	-8863
▁obel	-8864
▁orer	-8865
▁rine	-8866
▁slim	-8867
▁sode	-8868
▁udes	-8869
▁uktu	-8870
▁unat	-8871
▁vide	-8872
▁ANGKA	-8873
▁adewa	-8874
▁antet	-8875
▁azair	-8876
▁buhan	-8877
▁ebrak	-8878
▁eller	-8879
▁erawa	-8880
▁factu	-8881
▁iguna	-8882
▁ktato	-8883
▁manul	-8884
▁naker	-8885
▁netra	-8886
▁sedan	-8887
▁terja	-8888
GO	-8889
MN	-8890
nd	-8891
ov	-8892
JPH	-8893
hia	-8894
ner	-8895
zec	-8896
▁Dz	-8897
▁JC	-8898
▁WN	-8899
▁114	-8900
▁135	-8901
▁70%	-8902
▁BBP	-8903
▁BLK	-8904
▁BPR	-8905
▁BUL	-8906
▁Bay	-8907
▁Bom	-8908
▁CPO	-8909
▁Hub	-8910
▁INA	-8911
▁IPW	-8912
▁PAL	-8913
▁PDR	-8914
▁SLB	-8915
▁SPA	-8916
▁Sai	-8917
▁Sud	-8918
▁dly	-8919
▁hou	-8920
▁iOS	-8921
▁ibe	-8922
▁joe	-8923
▁oby	-8924
▁oom	-8925
▁pka	-8926
▁qil	-8927
▁rey	-8928
▁spe	-8929
▁AIDS	-8930
▁NUSA	-8931
▁ajut	-8932
▁ayne	-8933
▁colo	-8934
▁deau	-8935
▁elki	-8936
▁engh	-8937
▁food	-8938
▁gaul	-8939
▁isto	-8940
▁lear	-8941
▁mpit	-8942
▁ober	-8943
▁oiko	-8944
▁oria	-8945
▁otan	-8946
▁pote	-8947
▁publ	-8948
▁stia	-8949
▁suar	-8950
▁suru	-8951
▁udhi	-8952
▁ular	-8953
▁utte	-8954
▁BPJPH	-8955
▁abang	-8956
▁andum	-8957
▁arina	-8958
▁budak	-8959
▁diter	-8960
▁elaku	-8961
▁emara	-8962
▁erdon	-8963
▁ezzec	-8964
▁iddle	-8965
▁kukuh	-8966
▁natal	-8967
▁ramil	-8968
▁sekal	-8969
▁ubhol	-8970
▁ubjek	-8971
1,	-8972
BM	-8973
OC	-8974
▁°	-8975
ame	-8976
chi	-8977
lis	-8978
▁BR	-8979
▁Hj	-8980
▁UD	-8981
▁UW	-8982
▁Ur	-8983
▁YI	-8984
▁1,8	-8985
▁115	-8986
▁12%	-8987
▁12,	-8988
▁40%	-8989
▁5,2	-8990
▁750	-8991
▁AHU	-8992
▁AKI	-8993
▁BPT	-8994
▁Bio	-8995
▁Ega	-8996
▁Isi	-8997
▁Mac	-8998
▁Mat	-8999
▁SKK	-9000
▁WFP	-9001
▁bed	-9002
▁esp	-9003
▁hza	-9004
▁isè	-9005
▁lud	-9006
▁omz	-9007
▁rda	-9008
▁sni	-9009
▁som	-9010
▁tad	-9011
▁ugo	-9012
▁wij	-9013
▁yod	-9014
▁BSSN	-9015
▁DUNG	-9016
▁HLAK	-9017
▁LPDP	-9018
▁MAKI	-9019
▁PKPU	-9020
▁TMII	-9021
▁aquf	-9022
▁dore	-9023
▁ebam	-9024
▁ecar	-9025
▁elvi	-9026
▁etra	-9027
▁gnec	-9028
▁irup	-9029
▁jaib	-9030
▁laah	-9031
▁mane	-9032
▁oeld	-9033
▁ries	-9034
▁rits	-9035
▁rsih	-9036
▁surv	-9037
▁tiek	-9038
▁town	-9039
▁ucun	-9040
▁udak	-9041
▁ulap	-9042
▁umta	-9043
▁uria	-9044
▁usar	-9045
▁wani	-9046
▁Karen	-9047
▁agasi	-9048
▁araka	-9049
▁argon	-9050
▁artis	-9051
▁emurr	-9052
▁holar	-9053
▁konek	-9054
▁nakho	-9055
▁ontak	-9056
▁parta	-9057
▁ttery	-9058
EE	-9059
FF	-9060
VO	-9061
VS	-9062
ii	-9063
rt	-9064
MBG	-9065
ano	-9066
ite	-9067
wei	-9068
▁BW	-9069
▁HD	-9070
▁LH	-9071
▁YP	-9072
▁bh	-9073
▁cs	-9074
▁102	-9075
▁103	-9076
▁6,9	-9077
▁ARI	-9078
▁Buk	-9079
▁CFD	-9080
▁ESQ	-9081
▁FIF	-9082
▁FWD	-9083
▁Gak	-9084
▁IBH	-9085
▁Ong	-9086
▁Son	-9087
▁WTP	-9088
▁ahn	-9089
▁hur	-9090
▁itn	-9091
▁jaj	-9092
▁kWh	-9093
▁mro	-9094
▁naz	-9095
▁rra	-9096
▁urq	-9097
▁zak	-9098
▁BULE	-9099
▁LENG	-9100
▁Last	-9101
▁Sebe	-9102
▁UIPM	-9103
▁airs	-9104
▁aluw	-9105
▁angg	-9106
▁azda	-9107
▁cung	-9108
▁elay	-9109
▁elur	-9110
▁eris	-9111
▁esut	-9112
▁gamb	-9113
▁gnat	-9114
▁ilei	-9115
▁irga	-9116
▁lara	-9117
▁lodo	-9118
▁maya	-9119
▁mitr	-9120
▁ough	-9121
▁ovie	-9122
▁peka	-9123
▁rger	-9124
▁rias	-9125
▁ritz	-9126
▁rium	-9127
▁rnas	-9128
▁roki	-9129
▁ruah	-9130
▁stal	-9131
▁stis	-9132
▁tapa	-9133
▁trit	-9134
▁tten	-9135
▁tyas	-9136
▁uput	-9137
▁utur	-9138
▁waty	-9139
▁yomo	-9140
▁INANG	-9141
▁PUSAT	-9142
▁alung	-9143
▁aufal	-9144
▁briel	-9145
▁eneca	-9146
▁ermai	-9147
▁menta	-9148
▁nadah	-9149
▁nanas	-9150
▁ncini	-9151
▁ortel	-9152
▁pessy	-9153
▁rowth	-9154
▁rwana	-9155
▁selir	-9156
▁shima	-9157
▁tabol	-9158
▁tersa	-9159
▁udong	-9160
▁yanti	-9161
SE	-9162
op	-9163
vy	-9164
bot	-9165
ess	-9166
▁JL	-9167
▁JN	-9168
▁Wu	-9169
▁113	-9170
▁20,	-9171
▁3-2	-9172
▁5,5	-9173
▁CBP	-9174
▁Fan	-9175
▁GAM	-9176
▁IKM	-9177
▁IOC	-9178
▁IPM	-9179
▁JUR	-9180
▁KPM	-9181
▁MGM	-9182
▁Mah	-9183
▁Ops	-9184
▁REU	-9185
▁SAI	-9186
▁SNI	-9187
▁SPI	-9188
▁TPT	-9189
▁UII	-9190
▁USS	-9191
▁cho	-9192
▁ely	-9193
▁gno	-9194
▁job	-9195
▁kav	-9196
▁loc	-9197
▁nri	-9198
▁uly	-9199
▁CIAN	-9200
▁FHUI	-9201
▁FKUB	-9202
▁KCIC	-9203
▁LDII	-9204
▁NOAH	-9205
▁TERS	-9206
▁ajal	-9207
▁bies	-9208
▁buta	-9209
▁dala	-9210
▁echo	-9211
▁emut	-9212
▁etop	-9213
▁gina	-9214
▁goda	-9215
▁hrir	-9216
▁iban	-9217
▁idan	-9218
▁irai	-9219
▁iton	-9220
▁labo	-9221
▁link	-9222
▁loch	-9223
▁ndan	-9224
▁ndom	-9225
▁ngon	-9226
▁ntim	-9227
▁oard	-9228
▁olat	-9229
▁phia	-9230
▁rcia	-9231
▁rdju	-9232
▁ried	-9233
▁ruth	-9234
▁shot	-9235
▁stur	-9236
▁tuka	-9237
▁ubak	-9238
▁upon	-9239
▁wana	-9240
▁yany	-9241
▁yomi	-9242
▁zola	-9243
▁PVMBG	-9244
▁Pembe	-9245
▁apper	-9246
▁dakim	-9247
▁ebres	-9248
▁enari	-9249
▁halie	-9250
▁hilal	-9251
▁irama	-9252
▁isney	-9253
▁iting	-9254
▁kibar	-9255
▁lilin	-9256
▁oppen	-9257
▁orgol	-9258
▁rthur	-9259
▁solok	-9260
▁tasia	-9261
▁ursus	-9262
).	-9263
-8	-9264
AC	-9265
BD	-9266
LH	-9267
ct	-9268
SIS	-9269
ban	-9270
bin	-9271
ily	-9272
kes	-9273
use	-9274
▁MV	-9275
▁ZA	-9276
▁cl	-9277
▁02,	-9278
▁10%	-9279
▁3,2	-9280
▁ACC	-9281
▁ADA	-9282
▁AJI	-9283
▁EVP	-9284
▁FKS	-9285
▁Flu	-9286
▁HAN	-9287
▁IAS	-9288
▁IMA	-9289
▁IOH	-9290
▁Keu	-9291
▁Off	-9292
▁PTI	-9293
▁SCU	-9294
▁SPS	-9295
▁SRU	-9296
▁TAP	-9297
▁TBC	-9298
▁Zon	-9299
▁aib	-9300
▁dol	-9301
▁eil	-9302
▁eun	-9303
▁heu	-9304
▁iaw	-9305
▁lma	-9306
▁nnu	-9307
▁rav	-9308
▁rew	-9309
▁tih	-9310
▁tma	-9311
▁utt	-9312
▁ARCI	-9313
▁HULU	-9314
▁Meet	-9315
▁PNBP	-9316
▁PPLN	-9317
▁PPRT	-9318
▁TNBT	-9319
▁abut	-9320
▁aslu	-9321
▁atty	-9322
▁atua	-9323
▁bana	-9324
▁bita	-9325
▁blet	-9326
▁ejan	-9327
▁elli	-9328
▁gaet	-9329
▁hent	-9330
▁hoal	-9331
▁ined	-9332
▁irun	-9333
▁lare	-9334
▁lona	-9335
▁mbuk	-9336
▁obes	-9337
▁okky	-9338
▁oles	-9339
▁rito	-9340
▁rmen	-9341
▁rsai	-9342
▁rson	-9343
▁rtam	-9344
▁rten	-9345
▁uhid	-9346
▁usma	-9347
▁yteD	-9348
▁yung	-9349
▁alela	-9350
▁anrem	-9351
▁ayyip	-9352
▁dilah	-9353
▁ekank	-9354
▁ensen	-9355
▁goyah	-9356
▁indai	-9357
▁kobar	-9358
▁licot	-9359
▁mpong	-9360
▁oirul	-9361
▁oline	-9362
▁ombol	-9363
▁patan	-9364
▁rasto	-9365
▁ronco	-9366
▁sther	-9367
▁suara	-9368
▁urunk	-9369
▁usana	-9370
▁ville	-9371
%.	-9372
VI	-9373
YO	-9374
ev	-9375
ig	-9376
ALI	-9377
TUL	-9378
ino	-9379
▁6.	-9380
▁NZ	-9381
▁RJ	-9382
▁ml	-9383
▁tv	-9384
▁01,	-9385
▁105	-9386
▁BBN	-9387
▁CIS	-9388
▁DKP	-9389
▁GAN	-9390
▁GRC	-9391
▁IVF	-9392
▁KJM	-9393
▁MAR	-9394
▁PUI	-9395
▁RDP	-9396
▁SVP	-9397
▁Sed	-9398
▁Sit	-9399
▁TBS	-9400
▁etr	-9401
▁ids	-9402
▁iek	-9403
▁lba	-9404
▁maf	-9405
▁mne	-9406
▁mta	-9407
▁oem	-9408
▁tew	-9409
▁yaf	-9410
▁yna	-9411
▁yri	-9412
▁IMUR	-9413
▁KJRI	-9414
▁LPEI	-9415
▁PSHT	-9416
▁RPJM	-9417
▁amma	-9418
▁artu	-9419
▁asio	-9420
▁asul	-9421
▁deco	-9422
▁ebti	-9423
▁ergu	-9424
▁ermo	-9425
▁ewis	-9426
▁habi	-9427
▁hane	-9428
▁idie	-9429
▁inha	-9430
▁ipar	-9431
▁isku	-9432
▁issa	-9433
▁jukk	-9434
▁kesu	-9435
▁koso	-9436
▁lade	-9437
▁mali	-9438
▁meri	-9439
▁mine	-9440
▁mpet	-9441
▁nere	-9442
▁nser	-9443
▁olas	-9444
▁pedi	-9445
▁rhas	-9446
▁seba	-9447
▁titu	-9448
▁tuti	-9449
▁uadi	-9450
▁ubun	-9451
▁uild	-9452
▁ukus	-9453
▁ANTUL	-9454
▁arfur	-9455
▁diser	-9456
▁duate	-9457
▁enden	-9458
▁etung	-9459
▁gangk	-9460
▁incin	-9461
▁kamla	-9462
▁kanak	-9463
▁khiri	-9464
▁mente	-9465
▁murah	-9466
▁ripik	-9467
▁rista	-9468
▁semia	-9469
▁songo	-9470
▁tahik	-9471
▁tapea	-9472
▁uawei	-9473
▁urant	-9474
▁ynote	-9475
99	-9476
Rp	-9477
UK	-9478
my	-9479
LOW	-9480
cut	-9481
der	-9482
ith	-9483
raf	-9484
uti	-9485
▁Aj	-9486
▁FR	-9487
▁JT	-9488
▁LO	-9489
▁Pc	-9490
▁YL	-9491
▁hd	-9492
▁sl	-9493
LBHI	-9494
▁0-2	-9495
▁03,	-9496
▁2,9	-9497
▁API	-9498
▁BBW	-9499
▁Fox	-9500
▁Gde	-9501
▁HAR	-9502
▁KUH	-9503
▁MAX	-9504
▁NEP	-9505
▁Pep	-9506
▁Pop	-9507
▁RPJ	-9508
▁TSM	-9509
▁TUL	-9510
▁UKI	-9511
▁Via	-9512
▁cta	-9513
▁eog	-9514
▁gay	-9515
▁heo	-9516
▁jum	-9517
▁kja	-9518
▁lda	-9519
▁ldo	-9520
▁oul	-9521
▁paj	-9522
▁ruz	-9523
▁usl	-9524
▁ASIN	-9525
▁AZIS	-9526
▁BMMN	-9527
▁GLOW	-9528
▁LKPP	-9529
▁Lola	-9530
▁PATK	-9531
▁PTSL	-9532
▁Prod	-9533
▁SITU	-9534
▁Seba	-9535
▁TPST	-9536
▁abab	-9537
▁aber	-9538
▁alad	-9539
▁alya	-9540
▁anks	-9541
▁bike	-9542
▁cant	-9543
▁dale	-9544
▁dane	-9545
▁edib	-9546
▁ekik	-9547
▁fere	-9548
▁fidz	-9549
▁hare	-9550
▁ieng	-9551
▁ifat	-9552
▁ikar	-9553
▁iyas	-9554
▁jaks	-9555
▁ketu	-9556
▁kole	-9557
▁kuak	-9558
▁last	-9559
▁load	-9560
▁luts	-9561
▁madi	-9562
▁neng	-9563
▁ngap	-9564
▁obok	-9565
▁olit	-9566
▁oong	-9567
▁razy	-9568
▁rise	-9569
▁riuh	-9570
▁rrow	-9571
▁ryst	-9572
▁tabe	-9573
▁ukas	-9574
▁ukis	-9575
▁umuh	-9576
▁umus	-9577
▁unni	-9578
▁vers	-9579
▁yama	-9580
▁YLBHI	-9581
▁ailul	-9582
▁binsa	-9583
▁burgh	-9584
▁eblos	-9585
▁embuk	-9586
▁emeri	-9587
▁erbuk	-9588
▁gamus	-9589
▁gasah	-9590
▁layat	-9591
▁maluk	-9592
▁mblas	-9593
▁naati	-9594
▁nerba	-9595
▁ragih	-9596
▁rmain	-9597
▁tawan	-9598
▁tikai	-9599
▁urqon	-9600
▁vanza	-9601
-2	-9602
GE	-9603
▁ö	-9604
bal	-9605
wis	-9606
▁$5	-9607
▁1%	-9608
▁1:	-9609
▁EC	-9610
▁EX	-9611
▁FG	-9612
▁NM	-9613
▁TO	-9614
▁Zu	-9615
▁dl	-9616
▁eC	-9617
▁kf	-9618
▁106	-9619
▁2,4	-9620
▁2-2	-9621
▁5,3	-9622
▁737	-9623
▁ABG	-9624
▁BLT	-9625
▁CDC	-9626
▁Edo	-9627
▁HET	-9628
▁IAF	-9629
▁IAN	-9630
▁KUP	-9631
▁Kak	-9632
▁MBZ	-9633
▁MSI	-9634
▁PTK	-9635
▁RMI	-9636
▁aed	-9637
▁bay	-9638
▁dum	-9639
▁eca	-9640
▁evy	-9641
▁got	-9642
▁hem	-9643
▁iez	-9644
▁jay	-9645
▁jol	-9646
▁kwa	-9647
▁liq	-9648
▁lyn	-9649
▁oep	-9650
▁oil	-9651
▁osh	-9652
▁tte	-9653
▁urt	-9654
▁wes	-9655
▁ASAN	-9656
▁KJMU	-9657
▁PCNU	-9658
▁PHRI	-9659
▁RPMK	-9660
▁anni	-9661
▁cela	-9662
▁cine	-9663
▁daan	-9664
▁down	-9665
▁ease	-9666
▁ecet	-9667
▁eper	-9668
▁epok	-9669
▁indi	-9670
▁isha	-9671
▁lema	-9672
▁lena	-9673
▁meli	-9674
▁midi	-9675
▁nale	-9676
▁ocky	-9677
▁oost	-9678
▁oten	-9679
▁puty	-9680
▁rami	-9681
▁rich	-9682
▁rust	-9683
▁saac	-9684
▁sili	-9685
▁snur	-9686
▁staz	-9687
▁tech	-9688
▁teur	-9689
▁trek	-9690
▁ulka	-9691
▁unar	-9692
▁yekh	-9693
▁BONDO	-9694
▁Bidan	-9695
▁KUHAP	-9696
▁antah	-9697
▁antal	-9698
▁arkus	-9699
▁child	-9700
▁cijan	-9701
▁digit	-9702
▁enalk	-9703
▁enger	-9704
▁enyak	-9705
▁enyam	-9706
▁ezbol	-9707
▁iyasu	-9708
▁iyung	-9709
▁kfurt	-9710
▁leret	-9711
▁mafma	-9712
▁ngang	-9713
▁nnual	-9714
▁olipa	-9715
▁rogol	-9716
▁rusah	-9717
▁smana	-9718
▁syana	-9719
▁udari	-9720
▁wagen	-9721
GB	-9722
KD	-9723
PG	-9724
eu	-9725
▁ó	-9726
UMA	-9727
▁$6	-9728
▁EL	-9729
▁ND	-9730
▁TJ	-9731
▁ym	-9732
▁1,6	-9733
▁2,2	-9734
▁2,6	-9735
▁2,7	-9736
▁270	-9737
▁3,1	-9738
▁4-1	-9739
▁AFI	-9740
▁AFT	-9741
▁ATA	-9742
▁BBL	-9743
▁BOS	-9744
▁BPI	-9745
▁EST	-9746
▁IGD	-9747
▁JKN	-9748
▁MMI	-9749
▁MMS	-9750
▁MPP	-9751
▁MPV	-9752
▁NZE	-9753
▁PUB	-9754
▁PWI	-9755
▁Sid	-9756
▁TPK	-9757
▁cum	-9758
▁daf	-9759
▁diy	-9760
▁eik	-9761
▁eiz	-9762
▁fah	-9763
▁hko	-9764
▁lju	-9765
▁mdi	-9766
▁pho	-9767
▁raz	-9768
▁uns	-9769
▁ANAN	-9770
▁BATU	-9771
▁FHNK	-9772
▁LPKA	-9773
▁RANA	-9774
▁adad	-9775
▁akso	-9776
▁allo	-9777
▁azak	-9778
▁calo	-9779
▁cita	-9780
▁curk	-9781
▁dayu	-9782
▁dean	-9783
▁dong	-9784
▁door	-9785
▁esat	-9786
▁geta	-9787
▁heel	-9788
▁idar	-9789
▁ille	-9790
▁imax	-9791
▁inul	-9792
▁iptu	-9793
▁iraj	-9794
▁ison	-9795
▁item	-9796
▁ksin	-9797
▁lahk	-9798
▁ltik	-9799
▁matu	-9800
▁mono	-9801
▁mpal	-9802
▁nife	-9803
▁obar	-9804
▁oeng	-9805
▁papa	-9806
▁ride	-9807
▁rlan	-9808
▁suna	-9809
▁tela	-9810
▁ungs	-9811
▁urin	-9812
▁waii	-9813
▁wala	-9814
▁AIKIN	-9815
▁AMBON	-9816
▁BANDA	-9817
▁BBPVP	-9818
▁BPKAD	-9819
▁PMKRI	-9820
▁TNBTS	-9821
▁anare	-9822
▁antum	-9823
▁arwin	-9824
▁aukus	-9825
▁berga	-9826
▁cycle	-9827
▁dalah	-9828
▁emicu	-9829
▁eptis	-9830
▁hania	-9831
▁ifter	-9832
▁innor	-9833
▁lunas	-9834
▁mburg	-9835
▁metri	-9836
▁mosir	-9837
▁nadya	-9838
▁rekat	-9839
▁rinah	-9840
▁ritno	-9841
▁ucker	-9842
▁umpuh	-9843
▁uplai	-9844
2,	-9845
2.	-9846
AA	-9847
SP	-9848
LBI	-9849
TON	-9850
doi	-9851
gah	-9852
ren	-9853
yai	-9854
▁$2	-9855
▁$3	-9856
▁(9	-9857
▁00	-9858
▁DH	-9859
▁Io	-9860
▁JE	-9861
▁LN	-9862
▁LX	-9863
▁TU	-9864
▁tn	-9865
▁0-1	-9866
▁02.	-9867
▁15,	-9868
▁340	-9869
▁AGK	-9870
▁AMK	-9871
▁Bob	-9872
▁FFI	-9873
▁Fly	-9874
▁GRI	-9875
▁HGU	-9876
▁ILI	-9877
▁IRT	-9878
▁ISI	-9879
▁Kai	-9880
▁LPS	-9881
▁Nol	-9882
▁Nya	-9883
▁OKI	-9884
▁PEL	-9885
▁PRT	-9886
▁RAT	-9887
▁Sky	-9888
▁TPD	-9889
▁UMB	-9890
▁aic	-9891
▁anf	-9892
▁apo	-9893
▁arv	-9894
▁axi	-9895
▁bio	-9896
▁cut	-9897
▁ddi	-9898
▁ebe	-9899
▁fni	-9900
▁hea	-9901
▁hif	-9902
▁hoc	-9903
▁hro	-9904
▁ifi	-9905
▁ify	-9906
▁igr	-9907
▁iho	-9908
▁iky	-9909
▁ipl	-9910
▁itz	-9911
▁jua	-9912
▁mok	-9913
▁nfi	-9914
▁nni	-9915
▁rmi	-9916
▁ske	-9917
▁uky	-9918
▁ums	-9919
▁APEC	-9920
▁Jend	-9921
▁PKPA	-9922
▁RSHS	-9923
▁STIP	-9924
▁TMMD	-9925
▁alsa	-9926
▁amul	-9927
▁apus	-9928
▁arra	-9929
▁arty	-9930
▁bfor	-9931
▁dbor	-9932
▁dwan	-9933
▁emui	-9934
▁enek	-9935
▁gede	-9936
▁iata	-9937
▁igai	-9938
▁ized	-9939
▁kuni	-9940
▁legi	-9941
▁lpha	-9942
▁mral	-9943
▁netw	-9944
▁odoh	-9945
▁ogok	-9946
▁olet	-9947
▁opet	-9948
▁oths	-9949
▁peak	-9950
▁rkat	-9951
▁rodu	-9952
▁shak	-9953
▁sher	-9954
▁sons	-9955
▁ssim	-9956
▁tono	-9957
▁ttah	-9958
▁uber	-9959
▁utis	-9960
▁uyen	-9961
▁yman	-9962
▁aktik	-9963
▁andir	-9964
▁anner	-9965
▁arwis	-9966
▁ebuah	-9967
▁genre	-9968
▁hayne	-9969
▁humer	-9970
▁ilman	-9971
▁ilmar	-9972
▁indad	-9973
▁lukis	-9974
▁mbent	-9975
▁mbles	-9976
▁oling	-9977
▁onder	-9978
▁onete	-9979
▁rahar	-9980
▁siman	-9981
▁stuti	-9982
▁ttack	-9983
▁ukaan	-9984
-1	-9985
HD	-9986
Ny	-9987
AMA	-9988
DUS	-9989
ble	-9990
jev	-9991
lov	-9992
oni	-9993
reg	-9994
▁Hp	-9995
▁MZ	-9996
▁nm	-9997
▁1,9	-9998
▁149	-9999
▁190	-10000
▁2,1	-10001
▁23,	-10002
▁260	-10003
▁351	-10004
▁4,4	-10005
▁4,7	-10006
▁APD	-10007
▁ASB	-10008
▁DMI	-10009
▁Gim	-10010
▁IoT	-10011
▁JCH	-10012
▁Ken	-10013
▁OMB	-10014
▁PBI	-10015
▁PKT	-10016
▁RRT	-10017
▁RSJ	-10018
▁Sea	-10019
▁Sis	-10020
▁TAB	-10021
▁Tuk	-10022
▁USG	-10023
▁Zoo	-10024
▁aNy	-10025
▁bdi	-10026
▁eak	-10027
▁faz	-10028
▁fie	-10029
▁haw	-10030
▁hny	-10031
▁iad	-10032
▁jim	-10033
▁kka	-10034
▁lvy	-10035
▁mim	-10036
▁qui	-10037
▁tsu	-10038
▁uiz	-10039
▁BPDP	-10040
▁DPKP	-10041
▁DPMP	-10042
▁ILIR	-10043
▁IMOS	-10044
▁KERT	-10045
▁NADO	-10046
▁NETA	-10047
▁RCTI	-10048
▁RIAU	-10049
▁SCBD	-10050
▁SERD	-10051
▁STNK	-10052
▁UDUS	-10053
▁UNGA	-10054
▁aeni	-10055
▁aika	-10056
▁alie	-10057
▁alsh	-10058
▁azzi	-10059
▁eena	-10060
▁egaw	-10061
▁enza	-10062
▁erik	-10063
▁esis	-10064
▁gapa	-10065
▁hipo	-10066
▁ihom	-10067
▁ilin	-10068
▁imen	-10069
▁itts	-10070
▁itun	-10071
▁jono	-10072
▁kati	-10073
▁khot	-10074
▁kusi	-10075
▁lomb	-10076
▁mira	-10077
▁msil	-10078
▁nese	-10079
▁ngok	-10080
▁nsur	-10081
▁okom	-10082
▁pali	-10083
▁pred	-10084
▁rion	-10085
▁rmat	-10086
▁rogo	-10087
▁rope	-10088
▁shal	-10089
▁ugup	-10090
▁unto	-10091
▁upus	-10092
▁usan	-10093
▁vian	-10094
▁watu	-10095
▁PINTU	-10096
▁RPJPD	-10097
▁abora	-10098
▁affar	-10099
▁angki	-10100
▁disku	-10101
▁dzily	-10102
▁empek	-10103
▁endir	-10104
▁erjee	-10105
▁gosip	-10106
▁iblat	-10107
▁iquid	-10108
▁irdha	-10109
▁ledge	-10110
▁liame	-10111
▁loyee	-10112
▁mpiun	-10113
▁nseng	-10114
▁nungg	-10115
▁onton	-10116
▁rapen	-10117
▁roper	-10118
▁rsang	-10119
▁rupuk	-10120
▁siana	-10121
▁sojev	-10122
▁thium	-10123
▁udget	-10124
▁umere	-10125
CT	-10126
Co	-10127
HR	-10128
JI	-10129
RW	-10130
ach	-10131
ane	-10132
ett	-10133
fur	-10134
met	-10135
▁2%	-10136
▁3%	-10137
▁9.	-10138
▁CL	-10139
▁FL	-10140
▁GN	-10141
▁JH	-10142
▁Kw	-10143
▁NL	-10144
▁RL	-10145
▁Xu	-10146
▁lz	-10147
▁tw	-10148
▁uv	-10149
▁104	-10150
▁108	-10151
▁2.0	-10152
▁4,3	-10153
▁7,5	-10154
▁ABS	-10155
▁APM	-10156
▁Adu	-10157
▁AfD	-10158
▁App	-10159
▁CFX	-10160
▁DPK	-10161
▁FAA	-10162
▁Ide	-10163
▁Jin	-10164
▁Job	-10165
▁KEP	-10166
▁KIR	-10167
▁KKR	-10168
▁KNK	-10169
▁Luh	-10170
▁ONG	-10171
▁PIP	-10172
▁Rob	-10173
▁TIM	-10174
▁TSP	-10175
▁WFH	-10176
▁XIV	-10177
▁aff	-10178
▁asy	-10179
▁bot	-10180
▁dny	-10181
▁eba	-10182
▁fee	-10183
▁gge	-10184
▁iag	-10185
▁jor	-10186
▁lho	-10187
▁oed	-10188
▁olf	-10189
▁pti	-10190
▁rdu	-10191
▁roz	-10192
▁rri	-10193
▁tie	-10194
▁ukm	-10195
▁une	-10196
▁yes	-10197
▁zmi	-10198
▁AMBI	-10199
▁ANGK	-10200
▁Adap	-10201
▁BLUD	-10202
▁DDAP	-10203
▁Dire	-10204
▁ENGK	-10205
▁Hama	-10206
▁LiaN	-10207
▁OKSI	-10208
▁PBHI	-10209
▁PDNS	-10210
▁PEKA	-10211
▁SPPD	-10212
▁affa	-10213
▁afik	-10214
▁akut	-10215
▁alet	-10216
▁anon	-10217
▁antz	-10218
▁aska	-10219
▁aval	-10220
▁avel	-10221
▁chel	-10222
▁dawa	-10223
▁diny	-10224
▁doza	-10225
▁ebor	-10226
▁elni	-10227
▁enjo	-10228
▁enon	-10229
▁erda	-10230
▁esaw	-10231
▁etha	-10232
▁fakt	-10233
▁fran	-10234
▁gani	-10235
▁insi	-10236
▁irty	-10237
▁kebe	-10238
▁ksan	-10239
▁kson	-10240
▁liga	-10241
▁loom	-10242
▁lulu	-10243
▁more	-10244
▁nato	-10245
▁ngsa	-10246
▁njol	-10247
▁odot	-10248
▁oger	-10249
▁oker	-10250
▁ollo	-10251
▁oopy	-10252
▁osia	-10253
▁osit	-10254
▁osmo	-10255
▁otre	-10256
▁oyan	-10257
▁oyce	-10258
▁rada	-10259
▁rane	-10260
▁reas	-10261
▁riak	-10262
▁rior	-10263
▁risd	-10264
▁rmin	-10265
▁skri	-10266
▁sruh	-10267
▁tril	-10268
▁ttar	-10269
▁udap	-10270
▁udut	-10271
▁ueno	-10272
▁yore	-10273
▁yoso	-10274
▁KERTO	-10275
▁RUPST	-10276
▁agreg	-10277
▁airun	-10278
▁almCo	-10279
▁andak	-10280
▁anida	-10281
▁arius	-10282
▁arren	-10283
▁bandi	-10284
▁embay	-10285
▁engen	-10286
▁epubl	-10287
▁erger	-10288
▁eroni	-10289
▁garak	-10290
▁ianna	-10291
▁idola	-10292
▁ilina	-10293
▁ilton	-10294
▁impit	-10295
▁impos	-10296
▁ircle	-10297
▁itera	-10298
▁karna	-10299
▁laska	-10300
▁later	-10301
▁latur	-10302
▁leppo	-10303
▁mukti	-10304
▁nackV	-10305
▁ntini	-10306
▁ontok	-10307
▁pahit	-10308
▁rucut	-10309
▁tafet	-10310
▁there	-10311
▁tmiko	-10312
▁ubato	-10313
▁usada	-10314
▁utung	-10315
-4	-10316
FL	-10317
TM	-10318
AMI	-10319
KOM	-10320
hei	-10321
ile	-10322
lop	-10323
ond	-10324
uen	-10325
way	-10326
▁Ds	-10327
▁EB	-10328
▁EI	-10329
▁IJ	-10330
▁zr	-10331
UMAJ	-10332
▁121	-10333
▁19,	-10334
▁21,	-10335
▁271	-10336
▁338	-10337
▁4,9	-10338
▁650	-10339
▁AIA	-10340
▁AMS	-10341
▁AUG	-10342
▁BMN	-10343
▁COO	-10344
▁Cik	-10345
▁FOR	-10346
▁GAC	-10347
▁HNW	-10348
▁ILO	-10349
▁Ina	-10350
▁JBB	-10351
▁KAL	-10352
▁KAP	-10353
▁LNG	-10354
▁MAM	-10355
▁MBS	-10356
▁MRI	-10357
▁Neo	-10358
▁PAI	-10359
▁PJR	-10360
▁SUB	-10361
▁UNY	-10362
▁WCK	-10363
▁aet	-10364
▁ats	-10365
▁elf	-10366
▁euf	-10367
▁fra	-10368
▁iov	-10369
▁kky	-10370
▁mto	-10371
▁muh	-10372
▁nig	-10373
▁nza	-10374
▁olp	-10375
▁rga	-10376
▁twa	-10377
▁wir	-10378
▁yep	-10379
▁zra	-10380
▁AJAM	-10381
▁ASER	-10382
▁BPKN	-10383
▁CPMI	-10384
▁DOHA	-10385
▁ENGG	-10386
▁GMNI	-10387
▁PASU	-10388
▁PPAT	-10389
▁PPIH	-10390
▁PUBG	-10391
▁RUAN	-10392
▁SMAK	-10393
▁SUME	-10394
▁TCOM	-10395
▁airi	-10396
▁alaf	-10397
▁apid	-10398
▁ardj	-10399
▁atti	-10400
▁bsyi	-10401
▁char	-10402
▁dist	-10403
▁elir	-10404
▁epot	-10405
▁etas	-10406
▁hots	-10407
▁icuh	-10408
▁idin	-10409
▁ihar	-10410
▁ijar	-10411
▁ilek	-10412
▁ipmi	-10413
▁irik	-10414
▁izen	-10415
▁kart	-10416
▁klah	-10417
▁klan	-10418
▁klum	-10419
▁lash	-10420
▁late	-10421
▁liat	-10422
▁lkam	-10423
▁lome	-10424
▁mbua	-10425
▁nark	-10426
▁ntit	-10427
▁olot	-10428
▁onge	-10429
▁raca	-10430
▁ramo	-10431
▁rdji	-10432
▁rish	-10433
▁sega	-10434
▁uard	-10435
▁wijk	-10436
▁ydro	-10437
▁yikh	-10438
▁ANTEN	-10439
▁INDEF	-10440
▁LUMAJ	-10441
▁akter	-10442
▁ambia	-10443
▁anati	-10444
▁ansah	-10445
▁ansas	-10446
▁azing	-10447
▁eikal	-10448
▁empol	-10449
▁entak	-10450
▁entol	-10451
▁injai	-10452
▁kilas	-10453
▁kusum	-10454
▁kutat	-10455
▁lanca	-10456
▁likem	-10457
▁llery	-10458
▁menan	-10459
▁odena	-10460
▁okkes	-10461
▁olver	-10462
▁orbes	-10463
▁oussa	-10464
▁putro	-10465
▁reuen	-10466
▁ridge	-10467
▁roach	-10468
▁sumay	-10469
▁tania	-10470
▁ulkas	-10471
▁under	-10472
▁uspen	-10473
▁yungo	-10474
cs	-10475
oy	-10476
dar	-10477
ene	-10478
key	-10479
set	-10480
zyn	-10481
▁CA	-10482
▁CD	-10483
▁VK	-10484
▁ii	-10485
▁mt	-10486
▁zh	-10487
▁133	-10488
▁134	-10489
▁169	-10490
▁31,	-10491
▁4.0	-10492
▁90%	-10493
▁ABM	-10494
▁ASC	-10495
▁Ady	-10496
▁BIS	-10497
▁BJB	-10498
▁BKB	-10499
▁CAP	-10500
▁CIL	-10501
▁Cat	-10502
▁Dur	-10503
▁Epy	-10504
▁GAI	-10505
▁GPS	-10506
▁Gue	-10507
▁Hun	-10508
▁IHC	-10509
▁Ira	-10510
▁KWP	-10511
▁Kau	-10512
▁Kru	-10513
▁LEM	-10514
▁MMA	-10515
▁MPM	-10516
▁MSG	-10517
▁MSS	-10518
▁Maj	-10519
▁Mie	-10520
▁NIB	-10521
▁Old	-10522
▁PBV	-10523
▁PHE	-10524
▁PKH	-10525
▁SAN	-10526
▁TMC	-10527
▁Tzu	-10528
▁WTO	-10529
▁Zas	-10530
▁Zhi	-10531
▁aas	-10532
▁act	-10533
▁bda	-10534
▁deh	-10535
▁djo	-10536
▁edy	-10537
▁egr	-10538
▁env	-10539
▁esy	-10540
▁eut	-10541
▁hef	-10542
▁hud	-10543
▁hui	-10544
▁ilw	-10545
▁ksu	-10546
▁mix	-10547
▁nsp	-10548
▁oku	-10549
▁oum	-10550
▁rji	-10551
▁rpa	-10552
▁sea	-10553
▁sno	-10554
▁tno	-10555
▁uap	-10556
▁uqi	-10557
▁wad	-10558
▁ype	-10559
▁zim	-10560
▁AHMI	-10561
▁AKAP	-10562
▁ALAN	-10563
▁ALEK	-10564
▁BPVP	-10565
▁CIMB	-10566
▁DJBC	-10567
▁HMID	-10568
▁ISPA	-10569
▁KIPP	-10570
▁KKMB	-10571
▁KPPU	-10572
▁LPCK	-10573
▁Mahk	-10574
▁NGAW	-10575
▁OKAN	-10576
▁PDTT	-10577
▁SEVA	-10578
▁SKPD	-10579
▁aeng	-10580
▁agos	-10581
▁agul	-10582
▁ahid	-10583
▁akab	-10584
▁ally	-10585
▁anil	-10586
▁assi	-10587
▁atum	-10588
▁azza	-10589
▁basa	-10590
▁basi	-10591
▁cked	-10592
▁cken	-10593
▁ekon	-10594
▁epet	-10595
▁epto	-10596
▁erif	-10597
▁esih	-10598
▁gluk	-10599
▁heet	-10600
▁hine	-10601
▁holm	-10602
▁huck	-10603
▁iada	-10604
▁ilid	-10605
▁ilwa	-10606
▁ipan	-10607
▁jamb	-10608
▁keng	-10609
▁khar	-10610
▁ladi	-10611
▁leta	-10612
▁lina	-10613
▁lmas	-10614
▁ltah	-10615
▁mbom	-10616
▁menk	-10617
▁niya	-10618
▁nriq	-10619
▁nyam	-10620
▁oana	-10621
▁oblo	-10622
▁okim	-10623
▁olia	-10624
▁onek	-10625
▁onst	-10626
▁orat	-10627
▁ouch	-10628
▁perg	-10629
▁reho	-10630
▁rink	-10631
▁rono	-10632
▁tiar	-10633
▁tlas	-10634
▁tory	-10635
▁ttal	-10636
▁ukuk	-10637
▁uoEV	-10638
▁upas	-10639
▁urip	-10640
▁veen	-10641
▁OROGO	-10642
▁Panta	-10643
▁alama	-10644
▁aleka	-10645
▁anafi	-10646
▁annon	-10647
▁arbor	-10648
▁arton	-10649
▁asnya	-10650
▁ating	-10651
▁dalas	-10652
▁ennis	-10653
▁erint	-10654
▁erome	-10655
▁eyond	-10656
▁iduan	-10657
▁ilter	-10658
▁lzhei	-10659
▁maret	-10660
▁matum	-10661
▁meron	-10662
▁mplop	-10663
▁nanya	-10664
▁ncoro	-10665
▁orita	-10666
▁parti	-10667
▁ratya	-10668
▁resia	-10669
▁ringk	-10670
▁rouri	-10671
▁sanak	-10672
▁smani	-10673
▁udono	-10674
▁umpal	-10675
▁uzman	-10676
▁waini	-10677
-3	-10678
1.	-10679
OL	-10680
ST	-10681
UT	-10682
pi	-10683
án	-10684
▁•	-10685
DUK	-10686
ake	-10687
dir	-10688
ful	-10689
ger	-10690
gur	-10691
kin	-10692
ree	-10693
tip	-10694
war	-10695
▁(8	-10696
▁EK	-10697
▁FY	-10698
▁GH	-10699
▁JB	-10700
▁JW	-10701
▁LK	-10702
▁MJ	-10703
▁MX	-10704
▁Mi	-10705
▁NY	-10706
▁Od	-10707
▁Uu	-10708
▁VA	-10709
▁iñ	-10710
▁vy	-10711
ARUT	-10712
▁101	-10713
▁107	-10714
▁117	-10715
▁13,	-10716
▁132	-10717
▁142	-10718
▁210	-10719
▁3,8	-10720
▁32,	-10721
▁ADI	-10722
▁Amy	-10723
▁BJP	-10724
▁Bab	-10725
▁CCS	-10726
▁COD	-10727
▁DKM	-10728
▁DPU	-10729
▁DTW	-10730
▁EBT	-10731
▁EPA	-10732
▁GAH	-10733
▁GIS	-10734
▁GSP	-10735
▁Goa	-10736
▁IHT	-10737
▁IKI	-10738
▁KPP	-10739
▁Kok	-10740
▁Met	-10741
▁PNG	-10742
▁PTT	-10743
▁Pee	-10744
▁PhD	-10745
▁Pjs	-10746
▁SBN	-10747
▁SMI	-10748
▁SWA	-10749
▁Suc	-10750
▁Suu	-10751
▁Tia	-10752
▁UID	-10753
▁UTA	-10754
▁asn	-10755
▁aye	-10756
▁cra	-10757
▁dab	-10758
▁dry	-10759
▁eby	-10760
▁hao	-10761
▁hne	-10762
▁ihi	-10763
▁jug	-10764
▁kik	-10765
▁kso	-10766
▁lux	-10767
▁oah	-10768
▁ppo	-10769
▁riv	-10770
▁rly	-10771
▁tio	-10772
▁wyn	-10773
▁yaz	-10774
▁zza	-10775
▁BOYO	-10776
▁GIRI	-10777
▁LALI	-10778
▁NTAM	-10779
▁PSKC	-10780
▁Plrt	-10781
▁RAJA	-10782
▁STIN	-10783
▁Spes	-10784
▁TBRC	-10785
▁TPDI	-10786
▁Zola	-10787
▁adas	-10788
▁adya	-10789
▁albe	-10790
▁aler	-10791
▁anch	-10792
▁anne	-10793
▁apek	-10794
▁apot	-10795
▁aung	-10796
▁azis	-10797
▁eley	-10798
▁ench	-10799
▁eneg	-10800
▁enit	-10801
▁erpa	-10802
▁erun	-10803
▁esai	-10804
▁essa	-10805
▁firi	-10806
▁hock	-10807
▁hrur	-10808
▁iane	-10809
▁idih	-10810
▁idji	-10811
▁ilul	-10812
▁imaj	-10813
▁imal	-10814
▁imic	-10815
▁imus	-10816
▁ingg	-10817
▁kmil	-10818
▁kuas	-10819
▁kuli	-10820
▁kuza	-10821
▁lair	-10822
▁mall	-10823
▁mpau	-10824
▁omar	-10825
▁oron	-10826
▁ouin	-10827
▁ouri	-10828
▁ovem	-10829
▁pack	-10830
▁rbie	-10831
▁rejo	-10832
▁rief	-10833
▁rsya	-10834
▁sehi	-10835
▁ship	-10836
▁sito	-10837
▁ssur	-10838
▁steo	-10839
▁terh	-10840
▁trop	-10841
▁turi	-10842
▁ukee	-10843
▁ushu	-10844
▁vest	-10845
▁ving	-10846
▁ycko	-10847
▁GARUT	-10848
▁OMBOK	-10849
▁PBVSI	-10850
▁PELNI	-10851
▁SUMED	-10852
▁UNGAG	-10853
▁ackup	-10854
▁aedar	-10855
▁alina	-10856
▁alius	-10857
▁anaje	-10858
▁anley	-10859
▁araga	-10860
▁asbor	-10861
▁asino	-10862
▁auran	-10863
▁aving	-10864
▁awipa	-10865
▁bukit	-10866
▁dison	-10867
▁elabu	-10868
▁embel	-10869
▁emena	-10870
▁ensit	-10871
▁ersia	-10872
▁firma	-10873
▁ganas	-10874
▁ghurt	-10875
▁golak	-10876
▁iapan	-10877
▁imbim	-10878
▁imula	-10879
▁inois	-10880
▁kilau	-10881
▁klumi	-10882
▁kopol	-10883
▁litas	-10884
▁matir	-10885
▁megah	-10886
▁mulat	-10887
▁mulya	-10888
▁ngana	-10889
▁ngger	-10890
▁nrang	-10891
▁peech	-10892
▁penan	-10893
▁rigan	-10894
▁romat	-10895
▁smaya	-10896
▁stine	-10897
▁tmoko	-10898
▁trict	-10899
▁umrah	-10900
▁undak	-10901
▁woong	-10902
-9	-10903
3,	-10904
AH	-10905
CS	-10906
JN	-10907
Ke	-10908
ay	-10909
ob	-10910
xe	-10911
AND	-10912
IPC	-10913
NGP	-10914
PPI	-10915
cha	-10916
den	-10917
ier	-10918
ink	-10919
ise	-10920
lit	-10921
tol	-10922
▁CW	-10923
▁HH	-10924
▁IU	-10925
▁JO	-10926
▁UV	-10927
▁fé	-10928
▁mf	-10929
ATAR	-10930
▁0-3	-10931
▁127	-10932
▁230	-10933
▁24,	-10934
▁27,	-10935
▁280	-10936
▁3-4	-10937
▁ABI	-10938
▁ABU	-10939
▁Ayo	-10940
▁BFI	-10941
▁BIM	-10942
▁BRT	-10943
▁CGV	-10944
▁CHP	-10945
▁DLU	-10946
▁DOB	-10947
▁DPS	-10948
▁DUA	-10949
▁Eye	-10950
▁IKP	-10951
▁IOM	-10952
▁IPS	-10953
▁KKI	-10954
▁LAZ	-10955
▁LIK	-10956
▁LRE	-10957
▁Lab	-10958
▁MRP	-10959
▁Our	-10960
▁PCX	-10961
▁PKM	-10962
▁Pew	-10963
▁REI	-10964
▁RRI	-10965
▁SKM	-10966
▁SMB	-10967
▁SPM	-10968
▁TKA	-10969
▁TKI	-10970
▁TPL	-10971
▁TVS	-10972
▁Tip	-10973
▁ULU	-10974
▁USB	-10975
▁UWM	-10976
▁Zec	-10977
▁ahb	-10978
▁avy	-10979
▁boy	-10980
▁cab	-10981
▁ech	-10982
▁fiz	-10983
▁hae	-10984
▁ige	-10985
▁kay	-10986
▁lry	-10987
▁nha	-10988
▁ntr	-10989
▁oud	-10990
▁ppy	-10991
▁roc	-10992
▁rpm	-10993
▁tvO	-10994
▁uby	-10995
▁uts	-10996
▁xon	-10997
▁yus	-10998
▁DARI	-10999
▁EGON	-11000
▁FIFG	-11001
▁KNKT	-11002
▁MICE	-11003
▁MIPC	-11004
▁ROUP	-11005
▁RSCM	-11006
▁SPSL	-11007
▁Sete	-11008
▁Zaen	-11009
▁acka	-11010
▁apto	-11011
▁asic	-11012
▁bhik	-11013
▁bird	-11014
▁boyo	-11015
▁dawu	-11016
▁deal	-11017
▁edor	-11018
▁ejit	-11019
▁elod	-11020
▁elor	-11021
▁emok	-11022
▁enom	-11023
▁erap	-11024
▁espo	-11025
▁gema	-11026
▁gika	-11027
▁glas	-11028
▁gnos	-11029
▁hase	-11030
▁hedi	-11031
▁hukr	-11032
▁iady	-11033
▁ilas	-11034
▁ilon	-11035
▁inna	-11036
▁itul	-11037
▁jime	-11038
▁keda	-11039
▁khta	-11040
▁knai	-11041
▁kowi	-11042
▁lick	-11043
▁loga	-11044
▁mple	-11045
▁nawa	-11046
▁nopo	-11047
▁nyia	-11048
▁oder	-11049
▁ombe	-11050
▁otin	-11051
▁outt	-11052
▁pest	-11053
▁rach	-11054
▁rade	-11055
▁rind	-11056
▁roid	-11057
▁rris	-11058
▁sani	-11059
▁seig	-11060
▁ssis	-11061
▁topo	-11062
▁trol	-11063
▁tumo	-11064
▁uate	-11065
▁ubug	-11066
▁umio	-11067
▁upit	-11068
▁utik	-11069
▁yafi	-11070
▁JUNGP	-11071
▁LEMAN	-11072
▁LPDUK	-11073
▁QATAR	-11074
▁Suria	-11075
▁ainya	-11076
▁atbot	-11077
▁atmod	-11078
▁berik	-11079
▁broto	-11080
▁doolo	-11081
▁elman	-11082
▁eriod	-11083
▁ersen	-11084
▁ettha	-11085
▁gunan	-11086
▁hneid	-11087
▁hudan	-11088
▁inago	-11089
▁indhu	-11090
▁insen	-11091
▁itudo	-11092
▁jakar	-11093
▁lanie	-11094
▁lavio	-11095
▁lavon	-11096
▁mpuan	-11097
▁ndaan	-11098
▁nemia	-11099
▁ofian	-11100
▁other	-11101
▁oyong	-11102
▁patut	-11103
▁ranca	-11104
▁rbasi	-11105
▁rikil	-11106
▁rizon	-11107
▁rusia	-11108
▁sakan	-11109
▁sched	-11110
▁udori	-11111
▁ulaga	-11112
KO	-11113
oe	-11114
JAL	-11115
eth	-11116
gra	-11117
ill	-11118
lot	-11119
sik	-11120
ume	-11121
ven	-11122
▁",	-11123
▁AO	-11124
▁Ae	-11125
▁DF	-11126
▁EF	-11127
▁EW	-11128
▁FF	-11129
▁HL	-11130
▁JJ	-11131
▁JR	-11132
▁YG	-11133
▁pj	-11134
ANGI	-11135
humi	-11136
▁144	-11137
▁156	-11138
▁157	-11139
▁2,8	-11140
▁2-4	-11141
▁202	-11142
▁3,6	-11143
▁4,8	-11144
▁4-5	-11145
▁5,1	-11146
▁5-6	-11147
▁5.0	-11148
▁550	-11149
▁8,5	-11150
▁ADB	-11151
▁BAB	-11152
▁BIG	-11153
▁Bal	-11154
▁DAL	-11155
▁Don	-11156
▁Eki	-11157
▁GKP	-11158
▁ICS	-11159
▁ICT	-11160
▁ICU	-11161
▁IUN	-11162
▁Jia	-11163
▁Jim	-11164
▁Kue	-11165
▁LLD	-11166
▁LPD	-11167
▁Lho	-11168
▁MAP	-11169
▁MEN	-11170
▁Map	-11171
▁Nih	-11172
▁POM	-11173
▁Pay	-11174
▁RAM	-11175
▁RTH	-11176
▁SJH	-11177
▁TEM	-11178
▁USA	-11179
▁WON	-11180
▁Wan	-11181
▁Wow	-11182
▁Zum	-11183
▁akk	-11184
▁baz	-11185
▁beg	-11186
▁erz	-11187
▁fti	-11188
▁hav	-11189
▁hiu	-11190
▁ied	-11191
▁ikw	-11192
▁inp	-11193
▁lga	-11194
▁lvi	-11195
▁nch	-11196
▁nst	-11197
▁okh	-11198
▁pps	-11199
▁smo	-11200
▁tax	-11201
▁ubs	-11202
▁uke	-11203
▁wor	-11204
▁wzi	-11205
▁you	-11206
▁ALHI	-11207
▁BPTD	-11208
▁CATL	-11209
▁CSIS	-11210
▁GAIK	-11211
▁IKTI	-11212
▁IRNA	-11213
▁JARM	-11214
▁LIKE	-11215
▁MAGE	-11216
▁PLBN	-11217
▁PLTA	-11218
▁SAMP	-11219
▁SORO	-11220
▁SUKO	-11221
▁UPNV	-11222
▁afal	-11223
▁anar	-11224
▁anci	-11225
▁anua	-11226
▁arez	-11227
▁arge	-11228
▁aser	-11229
▁atel	-11230
▁atil	-11231
▁bage	-11232
▁brat	-11233
▁colm	-11234
▁dici	-11235
▁dono	-11236
▁dter	-11237
▁enik	-11238
▁enur	-11239
▁erha	-11240
▁erih	-11241
▁godo	-11242
▁hawa	-11243
▁huma	-11244
▁ibit	-11245
▁iles	-11246
▁inix	-11247
▁inka	-11248
▁irad	-11249
▁ishi	-11250
▁izar	-11251
▁izka	-11252
▁kzul	-11253
▁llan	-11254
▁lone	-11255
▁losi	-11256
▁loyo	-11257
▁mman	-11258
▁nasa	-11259
▁ndul	-11260
▁oedi	-11261
▁oedy	-11262
▁ofob	-11263
▁olor	-11264
▁ompi	-11265
▁ongr	-11266
▁onna	-11267
▁puro	-11268
▁rayu	-11269
▁rchi	-11270
▁rfie	-11271
▁roch	-11272
▁rsha	-11273
▁sell	-11274
▁shan	-11275
▁sona	-11276
▁song	-11277
▁stop	-11278
▁thir	-11279
▁ubel	-11280
▁uite	-11281
▁ukik	-11282
▁umla	-11283
▁usei	-11284
▁waid	-11285
▁HARJO	-11286
▁ONGAN	-11287
▁PPATK	-11288
▁WANGI	-11289
▁abyan	-11290
▁acker	-11291
▁adoma	-11292
▁alsaf	-11293
▁ambur	-11294
▁andek	-11295
▁antos	-11296
▁arbol	-11297
▁argas	-11298
▁azaar	-11299
▁bhumi	-11300
▁caraz	-11301
▁caust	-11302
▁chuse	-11303
▁eeren	-11304
▁emaju	-11305
▁endap	-11306
▁erken	-11307
▁estor	-11308
▁halat	-11309
▁ldren	-11310
▁lissa	-11311
▁lusin	-11312
▁marah	-11313
▁mbire	-11314
▁nafas	-11315
▁ntern	-11316
▁ntuah	-11317
▁ofwan	-11318
▁oment	-11319
▁ourse	-11320
▁rasan	-11321
▁risto	-11322
▁risud	-11323
▁rizal	-11324
▁rlina	-11325
▁ronto	-11326
▁rough	-11327
▁sbane	-11328
▁seger	-11329
▁selat	-11330
▁siapk	-11331
▁thius	-11332
▁urrah	-11333
FT	-11334
SF	-11335
SG	-11336
ss	-11337
RIA	-11338
UDR	-11339
das	-11340
dog	-11341
sky	-11342
son	-11343
uth	-11344
▁8.	-11345
▁HT	-11346
▁Ny	-11347
▁Xa	-11348
▁hz	-11349
▁ln	-11350
▁nb	-11351
▁qi	-11352
▁111	-11353
▁116	-11354
▁119	-11355
▁123	-11356
▁141	-11357
▁16,	-11358
▁171	-11359
▁175	-11360
▁220	-11361
▁225	-11362
▁249	-11363
▁26,	-11364
▁4,2	-11365
▁AKD	-11366
▁ANC	-11367
▁BMI	-11368
▁Cen	-11369
▁Cho	-11370
▁Dea	-11371
▁ESS	-11372
▁Efa	-11373
▁Egy	-11374
▁FPI	-11375
▁Fit	-11376
▁Haz	-11377
▁IAI	-11378
▁IDE	-11379
▁ION	-11380
▁IPK	-11381
▁IPP	-11382
▁JCB	-11383
▁JIP	-11384
▁KBP	-11385
▁KBS	-11386
▁KLM	-11387
▁KOR	-11388
▁LDP	-11389
▁LPP	-11390
▁Lan	-11391
▁McG	-11392
▁Mom	-11393
▁NDC	-11394
▁NIS	-11395
▁NRI	-11396
▁OTK	-11397
▁PDP	-11398
▁PHR	-11399
▁PNI	-11400
▁RID	-11401
▁Rel	-11402
▁Roe	-11403
▁Ron	-11404
▁SAP	-11405
▁SRC	-11406
▁TIP	-11407
▁Ted	-11408
▁UAS	-11409
▁WOW	-11410
▁XVI	-11411
▁YPA	-11412
▁Yuk	-11413
▁bdo	-11414
▁eci	-11415
▁ekl	-11416
▁flo	-11417
▁gho	-11418
▁hwa	-11419
▁ibr	-11420
▁leo	-11421
▁lex	-11422
▁lfe	-11423
▁oun	-11424
▁pst	-11425
▁pub	-11426
▁raa	-11427
▁rry	-11428
▁sef	-11429
▁vol	-11430
▁wer	-11431
▁yla	-11432
▁zam	-11433
▁ADAN	-11434
▁AKAH	-11435
▁ALOG	-11436
▁ASHI	-11437
▁EUDR	-11438
▁GRIB	-11439
▁IMAL	-11440
▁IMIP	-11441
▁INKA	-11442
▁Jaka	-11443
▁KRIS	-11444
▁SURA	-11445
▁Seju	-11446
▁TALO	-11447
▁abet	-11448
▁acau	-11449
▁adui	-11450
▁agor	-11451
▁agra	-11452
▁alom	-11453
▁asim	-11454
▁asiv	-11455
▁asum	-11456
▁ates	-11457
▁aton	-11458
▁banj	-11459
▁base	-11460
▁belo	-11461
▁beti	-11462
▁biru	-11463
▁bock	-11464
▁boel	-11465
▁buni	-11466
▁cash	-11467
▁dewi	-11468
▁dien	-11469
▁djie	-11470
▁dulF	-11471
▁eaty	-11472
▁eler	-11473
▁emai	-11474
▁erde	-11475
▁erth	-11476
▁esit	-11477
▁evri	-11478
▁ezer	-11479
▁fied	-11480
▁fles	-11481
▁ftar	-11482
▁gacy	-11483
▁gati	-11484
▁geri	-11485
▁grid	-11486
▁guay	-11487
▁hart	-11488
▁hile	-11489
▁hili	-11490
▁hino	-11491
▁hita	-11492
▁hito	-11493
▁ible	-11494
▁idow	-11495
▁iken	-11496
▁ikri	-11497
▁isil	-11498
▁itta	-11499
▁izza	-11500
▁jeli	-11501
▁jeon	-11502
▁kari	-11503
▁kelo	-11504
▁koma	-11505
▁lien	-11506
▁llaz	-11507
▁mami	-11508
▁mian	-11509
▁moot	-11510
▁mpek	-11511
▁niti	-11512
▁nner	-11513
▁nopi	-11514
▁olin	-11515
▁omas	-11516
▁ozak	-11517
▁perj	-11518
▁plas	-11519
▁poks	-11520
▁prod	-11521
▁racy	-11522
▁rups	-11523
▁siba	-11524
▁sima	-11525
▁sink	-11526
▁skop	-11527
▁sura	-11528
▁teen	-11529
▁thal	-11530
▁topa	-11531
▁tton	-11532
▁ulur	-11533
▁urka	-11534
▁ushi	-11535
▁weet	-11536
▁zoom	-11537
▁ENGKA	-11538
▁GORON	-11539
▁MAJAL	-11540
▁PGRIS	-11541
▁RAPBN	-11542
▁XVIII	-11543
▁agrak	-11544
▁ampan	-11545
▁ampub	-11546
▁aning	-11547
▁avier	-11548
▁bentu	-11549
▁cants	-11550
▁dukun	-11551
▁egawa	-11552
▁ergen	-11553
▁erjal	-11554
▁ersan	-11555
▁erung	-11556
▁hanna	-11557
▁iadab	-11558
▁isbat	-11559
▁jaten	-11560
▁lande	-11561
▁libli	-11562
▁listr	-11563
▁mater	-11564
▁mdani	-11565
▁minto	-11566
▁mulih	-11567
▁nggan	-11568
▁oepar	-11569
▁onkey	-11570
▁oraya	-11571
▁ourne	-11572
▁pping	-11573
▁rahim	-11574
▁ranat	-11575
▁rliah	-11576
▁rocus	-11577
▁rogoh	-11578
▁roket	-11579
▁thout	-11580
▁ubasi	-11581
▁utton	-11582
KL	-11583
WP	-11584
pt	-11585
ui	-11586
PUA	-11587
gie	-11588
jah	-11589
nik	-11590
qis	-11591
tun	-11592
uan	-11593
wij	-11594
▁BH	-11595
▁Cs	-11596
▁EJ	-11597
▁IQ	-11598
▁Kn	-11599
▁LT	-11600
▁RZ	-11601
▁VW	-11602
▁YK	-11603
▁122	-11604
▁128	-11605
▁147	-11606
▁152	-11607
▁158	-11608
▁165	-11609
▁168	-11610
▁18,	-11611
▁184	-11612
▁188	-11613
▁196	-11614
▁2).	-11615
▁28,	-11616
▁29,	-11617
▁315	-11618
▁38,	-11619
▁ABD	-11620
▁AMA	-11621
▁BAW	-11622
▁BEV	-11623
▁BMA	-11624
▁Bau	-11625
▁CIA	-11626
▁Can	-11627
▁Evi	-11628
▁Hai	-11629
▁IDN	-11630
▁IDX	-11631
▁IGN	-11632
▁IMM	-11633
▁KLa	-11634
▁Key	-11635
▁Les	-11636
▁MJO	-11637
▁MTI	-11638
▁McK	-11639
▁ORI	-11640
▁Oka	-11641
▁Oxy	-11642
▁PAW	-11643
▁PEP	-11644
▁PPn	-11645
▁REC	-11646
▁RSI	-11647
▁SEN	-11648
▁Sao	-11649
▁TEI	-11650
▁Tin	-11651
▁UKK	-11652
▁UKO	-11653
▁WOM	-11654
▁Zat	-11655
▁add	-11656
▁aek	-11657
▁cef	-11658
▁dep	-11659
▁eur	-11660
▁ggi	-11661
▁ghi	-11662
▁giv	-11663
▁haf	-11664
▁imm	-11665
▁lup	-11666
▁neo	-11667
▁oop	-11668
▁osp	-11669
▁oxa	-11670
▁oya	-11671
▁pli	-11672
▁ugr	-11673
▁unu	-11674
▁wel	-11675
▁ydi	-11676
▁ynn	-11677
▁zul	-11678
▁ALIQ	-11679
▁ANTV	-11680
▁AZEC	-11681
▁DIGI	-11682
▁EMLI	-11683
▁FIBA	-11684
▁JUNI	-11685
▁MAYU	-11686
▁MOJO	-11687
▁PEVS	-11688
▁PONT	-11689
▁SIAK	-11690
▁SPHP	-11691
▁WARI	-11692
▁ache	-11693
▁ador	-11694
▁aish	-11695
▁aluh	-11696
▁amto	-11697
▁ario	-11698
▁arse	-11699
▁awin	-11700
▁cess	-11701
▁cipt	-11702
▁doni	-11703
▁driq	-11704
▁edup	-11705
▁egap	-11706
▁ejer	-11707
▁elma	-11708
▁enir	-11709
▁ensy	-11710
▁enuk	-11711
▁eong	-11712
▁eput	-11713
▁erca	-11714
▁erio	-11715
▁erom	-11716
▁esek	-11717
▁etri	-11718
▁exus	-11719
▁fter	-11720
▁gito	-11721
▁hell	-11722
▁henz	-11723
▁hiev	-11724
▁hiya	-11725
▁hoot	-11726
▁host	-11727
▁hudo	-11728
▁iano	-11729
▁ibas	-11730
▁icka	-11731
▁ield	-11732
▁ihoe	-11733
▁ijik	-11734
▁ikuk	-11735
▁ilda	-11736
▁itro	-11737
▁itti	-11738
▁kate	-11739
▁loss	-11740
▁mdal	-11741
▁milk	-11742
▁ndis	-11743
▁ngih	-11744
▁ngur	-11745
▁nier	-11746
▁nmas	-11747
▁omez	-11748
▁pect	-11749
▁quad	-11750
▁rast	-11751
▁rbot	-11752
▁rdin	-11753
▁rdon	-11754
▁reet	-11755
▁rili	-11756
▁role	-11757
▁rome	-11758
▁rowd	-11759
▁ruck	-11760
▁sawa	-11761
▁sean	-11762
▁seno	-11763
▁tany	-11764
▁tiak	-11765
▁trah	-11766
▁trok	-11767
▁uong	-11768
▁urad	-11769
▁ween	-11770
▁wung	-11771
▁yoko	-11772
▁yper	-11773
▁zali	-11774
▁zman	-11775
▁ANGAN	-11776
▁KSPSI	-11777
▁MUKOM	-11778
▁NGTON	-11779
▁UNGUN	-11780
▁aikin	-11781
▁aitih	-11782
▁alaba	-11783
▁alkon	-11784
▁almer	-11785
▁anang	-11786
▁angor	-11787
▁anjil	-11788
▁anung	-11789
▁arter	-11790
▁cracy	-11791
▁deres	-11792
▁ecker	-11793
▁empas	-11794
▁essee	-11795
▁eszyn	-11796
▁hanti	-11797
▁iling	-11798
▁imoni	-11799
▁itler	-11800
▁kulin	-11801
▁lesti	-11802
▁logad	-11803
▁malia	-11804
▁mbore	-11805
▁mirul	-11806
▁mundo	-11807
▁nisia	-11808
▁nshar	-11809
▁oyang	-11810
▁pulan	-11811
▁racik	-11812
▁rammy	-11813
▁rjiyo	-11814
▁siant	-11815
▁tereo	-11816
▁totip	-11817
▁tutik	-11818
▁ubhan	-11819
▁udere	-11820
▁utter	-11821
▁young	-11822
▁yudhi	-11823
),	-11824
FK	-11825
SR	-11826
Te	-11827
fu	-11828
ow	-11829
ía	-11830
▁€	-11831
POM	-11832
TUI	-11833
UDI	-11834
gak	-11835
hic	-11836
isa	-11837
mar	-11838
not	-11839
rit	-11840
sem	-11841
▁BF	-11842
▁En	-11843
▁OI	-11844
▁SQ	-11845
▁TW	-11846
▁WC	-11847
▁WG	-11848
▁YM	-11849
▁pn	-11850
▁yt	-11851
fibi	-11852
▁0,3	-11853
▁0-0	-11854
▁109	-11855
▁11,	-11856
▁12.	-11857
▁137	-11858
▁145	-11859
▁148	-11860
▁17,	-11861
▁22,	-11862
▁30,	-11863
▁310	-11864
▁363	-11865
▁4,1	-11866
▁4,6	-11867
▁4-6	-11868
▁414	-11869
▁42,	-11870
▁5,7	-11871
▁ABH	-11872
▁APH	-11873
▁AVC	-11874
▁Abi	-11875
▁BKO	-11876
▁BUS	-11877
▁Box	-11878
▁Bro	-11879
▁DAK	-11880
▁ETF	-11881
▁End	-11882
▁FDA	-11883
▁FKI	-11884
▁GMT	-11885
▁Goh	-11886
▁HIG	-11887
▁HSC	-11888
▁IFA	-11889
▁INI	-11890
▁JDI	-11891
▁KRA	-11892
▁KTB	-11893
▁Kei	-11894
▁LAM	-11895
▁LKS	-11896
▁MBA	-11897
▁MDR	-11898
▁MHU	-11899
▁Mid	-11900
▁NAI	-11901
▁NPK	-11902
▁OAP	-11903
▁PLB	-11904
▁PPT	-11905
▁PTM	-11906
▁RES	-11907
▁Ryo	-11908
▁SBP	-11909
▁TDA	-11910
▁TPR	-11911
▁TTP	-11912
▁Tai	-11913
▁UHC	-11914
▁ULN	-11915
▁UMR	-11916
▁YAK	-11917
▁Zii	-11918
▁aph	-11919
▁auw	-11920
▁eum	-11921
▁glu	-11922
▁hee	-11923
▁hev	-11924
▁igo	-11925
▁jui	-11926
▁liv	-11927
▁lka	-11928
▁neh	-11929
▁nth	-11930
▁nty	-11931
▁rdy	-11932
▁rha	-11933
▁rka	-11934
▁rru	-11935
▁sic	-11936
▁tos	-11937
▁uer	-11938
▁uez	-11939
▁ugh	-11940
▁uoh	-11941
▁wid	-11942
▁zar	-11943
▁zel	-11944
▁FGHN	-11945
▁FTUI	-11946
▁GIGI	-11947
▁ICON	-11948
▁JICT	-11949
▁KPTS	-11950
▁KSAP	-11951
▁KSOP	-11952
▁KUTA	-11953
▁LANG	-11954
▁Loan	-11955
▁MPRS	-11956
▁Mode	-11957
▁PAFI	-11958
▁RTLH	-11959
▁SANF	-11960
▁SILO	-11961
▁STEM	-11962
▁YIMM	-11963
▁YLKI	-11964
▁abal	-11965
▁abay	-11966
▁abus	-11967
▁acio	-11968
▁adma	-11969
▁aeto	-11970
▁ahak	-11971
▁aila	-11972
▁akah	-11973
▁aled	-11974
▁alut	-11975
▁amie	-11976
▁arfa	-11977
▁arwo	-11978
▁atno	-11979
▁avai	-11980
▁ayen	-11981
▁book	-11982
▁buck	-11983
▁chin	-11984
▁chol	-11985
▁dadi	-11986
▁daru	-11987
▁ddle	-11988
▁dipr	-11989
▁dlib	-11990
▁dorf	-11991
▁eand	-11992
▁ecut	-11993
▁ekap	-11994
▁emaj	-11995
▁enin	-11996
▁epik	-11997
▁esik	-11998
▁gnis	-11999
▁gojo	-12000
▁hoon	-12001
▁iPad	-12002
▁ibiz	-12003
▁idam	-12004
▁iddy	-12005
▁ikal	-12006
▁ikam	-12007
▁ikis	-12008
▁ilsa	-12009
▁imbo	-12010
▁inny	-12011
▁ione	-12012
▁irna	-12013
▁itty	-12014
▁kaan	-12015
▁kopi	-12016
▁krip	-12017
▁lano	-12018
▁leep	-12019
▁lfia	-12020
▁loon	-12021
▁loor	-12022
▁luhu	-12023
▁lvin	-12024
▁maki	-12025
▁manj	-12026
▁many	-12027
▁mroh	-12028
▁ngil	-12029
▁ntok	-12030
▁oali	-12031
▁ogie	-12032
▁oldp	-12033
▁olei	-12034
▁olus	-12035
▁onga	-12036
▁opol	-12037
▁orre	-12038
▁ravo	-12039
▁rica	-12040
▁rice	-12041
▁ridi	-12042
▁risw	-12043
▁rrod	-12044
▁rsus	-12045
▁shin	-12046
▁slih	-12047
▁sour	-12048
▁ssen	-12049
▁sshi	-12050
▁stac	-12051
▁sume	-12052
▁taff	-12053
▁tarn	-12054
▁teka	-12055
▁tena	-12056
▁tero	-12057
▁teta	-12058
▁thur	-12059
▁tino	-12060
▁tiup	-12061
▁tuah	-12062
▁unti	-12063
▁urag	-12064
▁urij	-12065
▁yuli	-12066
▁ATANG	-12067
▁PAPUA	-12068
▁RPJMN	-12069
▁aikat	-12070
▁akula	-12071
▁anjen	-12072
▁arden	-12073
▁arong	-12074
▁assar	-12075
▁ausal	-12076
▁barak	-12077
▁bargo	-12078
▁benda	-12079
▁bodas	-12080
▁brata	-12081
▁denas	-12082
▁eking	-12083
▁elter	-12084
▁elvia	-12085
▁encur	-12086
▁endat	-12087
▁engal	-12088
▁epper	-12089
▁erban	-12090
▁erlan	-12091
▁estin	-12092
▁hanas	-12093
▁hitna	-12094
▁iland	-12095
▁indar	-12096
▁ippoL	-12097
▁kelar	-12098
▁leans	-12099
▁leung	-12100
▁liech	-12101
▁lunto	-12102
▁manga	-12103
▁mbodo	-12104
▁mfibi	-12105
▁migra	-12106
▁morim	-12107
▁nango	-12108
▁ngihe	-12109
▁onore	-12110
▁onsum	-12111
▁plier	-12112
▁ponik	-12113
▁rakah	-12114
▁ratin	-12115
▁riaki	-12116
▁ricia	-12117
▁riger	-12118
▁risai	-12119
▁riyah	-12120
▁rkhan	-12121
▁rumit	-12122
▁stiga	-12123
▁stock	-12124
▁theid	-12125
▁ulgar	-12126
▁undul	-12127
▁urent	-12128
▁watch	-12129
10	-12130
70	-12131
DJ	-12132
La	-12133
Si	-12134
TH	-12135
ál	-12136
▁£	-12137
ALA	-12138
BBM	-12139
BTI	-12140
aks	-12141
day	-12142
gan	-12143
nie	-12144
wid	-12145
zes	-12146
▁7%	-12147
▁AX	-12148
▁NH	-12149
▁OG	-12150
▁WP	-12151
▁fd	-12152
ghur	-12153
resh	-12154
▁(4)	-12155
▁03.	-12156
▁124	-12157
▁131	-12158
▁193	-12159
▁204	-12160
▁25,	-12161
▁3,3	-12162
▁3,4	-12163
▁34,	-12164
▁36,	-12165
▁365	-12166
▁7,6	-12167
▁ACI	-12168
▁AMP	-12169
▁APS	-12170
▁APT	-12171
▁ATI	-12172
▁AUK	-12173
▁Bud	-12174
▁DRH	-12175
▁Duh	-12176
▁Esa	-12177
▁FAK	-12178
▁FIA	-12179
▁FSB	-12180
▁GBN	-12181
▁GTK	-12182
▁HUM	-12183
▁How	-12184
▁ICA	-12185
▁IMC	-12186
▁IPA	-12187
▁IPI	-12188
▁IPO	-12189
▁Ibn	-12190
▁Jaw	-12191
▁Jaz	-12192
▁KDS	-12193
▁Kes	-12194
▁LPI	-12195
▁Lit	-12196
▁Low	-12197
▁MEG	-12198
▁MRS	-12199
▁Moz	-12200
▁NET	-12201
▁NRE	-12202
▁OTA	-12203
▁PIC	-12204
▁PLA	-12205
▁PWF	-12206
▁RDW	-12207
▁Rea	-12208
▁SAD	-12209
▁SET	-12210
▁SGM	-12211
▁SKF	-12212
▁TEL	-12213
▁TMP	-12214
▁UMJ	-12215
▁UPZ	-12216
▁Uya	-12217
▁WBK	-12218
▁YGK	-12219
▁aDi	-12220
▁alv	-12221
▁arp	-12222
▁bla	-12223
▁ddy	-12224
▁dho	-12225
▁dow	-12226
▁eul	-12227
▁ful	-12228
▁gie	-12229
▁gos	-12230
▁heb	-12231
▁hek	-12232
▁hes	-12233
▁hoe	-12234
▁isy	-12235
▁kob	-12236
▁kow	-12237
▁lix	-12238
▁liy	-12239
▁lmi	-12240
▁noh	-12241
▁oar	-12242
▁oph	-12243
▁rax	-12244
▁rez	-12245
▁rhi	-12246
▁udu	-12247
▁udz	-12248
▁umo	-12249
▁uzz	-12250
▁yre	-12251
▁ABMM	-12252
▁AMKI	-12253
▁ASIK	-12254
▁BBWS	-12255
▁BISA	-12256
▁BLBI	-12257
▁BMAD	-12258
▁BPTJ	-12259
▁CILA	-12260
▁CIRE	-12261
▁DAUN	-12262
▁DJKI	-12263
▁HSSE	-12264
▁ICMI	-12265
▁INUS	-12266
▁IPEF	-12267
▁JOMB	-12268
▁KONA	-12269
▁KSAU	-12270
▁LIVE	-12271
▁LUNI	-12272
▁MAJT	-12273
▁MBKM	-12274
▁MINI	-12275
▁MSIG	-12276
▁NIKI	-12277
▁OPEC	-12278
▁PDRB	-12279
▁PDRI	-12280
▁SNBP	-12281
▁SNBT	-12282
▁STIE	-12283
▁UBAN	-12284
▁UCLA	-12285
▁ablo	-12286
▁acah	-12287
▁ahin	-12288
▁aira	-12289
▁amas	-12290
▁andy	-12291
▁ango	-12292
▁anoe	-12293
▁anul	-12294
▁arih	-12295
▁atio	-12296
▁bian	-12297
▁buar	-12298
▁bume	-12299
▁buri	-12300
▁bury	-12301
▁duta	-12302
▁edev	-12303
▁eidy	-12304
▁eiga	-12305
▁elup	-12306
▁emdi	-12307
▁enne	-12308
▁essy	-12309
▁etua	-12310
▁fest	-12311
▁ford	-12312
▁ggak	-12313
▁goes	-12314
▁gore	-12315
▁gris	-12316
▁gund	-12317
▁head	-12318
▁hoho	-12319
▁hora	-12320
▁hore	-12321
▁hraf	-12322
▁huff	-12323
▁ibub	-12324
▁ihha	-12325
▁ilad	-12326
▁ilfe	-12327
▁inir	-12328
▁izan	-12329
▁jeng	-12330
▁joki	-12331
▁juna	-12332
▁khuw	-12333
▁kraj	-12334
▁kron	-12335
▁laud	-12336
▁laus	-12337
▁lect	-12338
▁lipi	-12339
▁lues	-12340
▁maan	-12341
▁mbes	-12342
▁meal	-12343
▁mino	-12344
▁miro	-12345
▁nalu	-12346
▁namu	-12347
▁ngag	-12348
▁nnah	-12349
▁ntip	-12350
▁nyah	-12351
▁nyap	-12352
▁oche	-12353
▁oegi	-12354
▁olaa	-12355
▁olla	-12356
▁ootc	-12357
▁pass	-12358
▁quid	-12359
▁rail	-12360
▁ranj	-12361
▁rbut	-12362
▁reme	-12363
▁riff	-12364
▁roth	-12365
▁rtho	-12366
▁rvel	-12367
▁saba	-12368
▁sdam	-12369
▁seju	-12370
▁siri	-12371
▁skan	-12372
▁srif	-12373
▁stag	-12374
▁suji	-12375
▁swin	-12376
▁taya	-12377
▁then	-12378
▁thes	-12379
▁tida	-12380
▁tour	-12381
▁uand	-12382
▁ubin	-12383
▁uilt	-12384
▁uire	-12385
▁umbo	-12386
▁undi	-12387
▁unes	-12388
▁urup	-12389
▁urva	-12390
▁usna	-12391
▁uttg	-12392
▁vili	-12393
▁wand	-12394
▁weig	-12395
▁ydog	-12396
▁yria	-12397
▁yson	-12398
▁élam	-12399
▁ABUAN	-12400
▁BBNKB	-12401
▁MMSGI	-12402
▁PEBTI	-12403
▁alitt	-12404
▁ansat	-12405
▁apora	-12406
▁arber	-12407
▁berla	-12408
▁biano	-12409
▁butan	-12410
▁ceuti	-12411
▁dihad	-12412
▁enbin	-12413
▁enjar	-12414
▁enses	-12415
▁epala	-12416
▁ergai	-12417
▁eslaw	-12418
▁ezone	-12419
▁hagen	-12420
▁hiera	-12421
▁hresh	-12422
▁ihadi	-12423
▁ihite	-12424
▁imena	-12425
▁incah	-12426
▁inier	-12427
▁input	-12428
▁inson	-12429
▁irobi	-12430
▁ismis	-12431
▁itter	-12432
▁iving	-12433
▁jambe	-12434
▁juice	-12435
▁leton	-12436
▁mayam	-12437
▁medis	-12438
▁merta	-12439
▁ndaya	-12440
▁nonoh	-12441
▁proof	-12442
▁publi	-12443
▁puter	-12444
▁ranch	-12445
▁rizka	-12446
▁rotai	-12447
▁shall	-12448
▁sibau	-12449
▁stige	-12450
▁taker	-12451
▁think	-12452
▁torsi	-12453
▁track	-12454
▁ugrah	-12455
▁ulian	-12456
▁uluak	-12457
▁uzier	-12458
▁yghur	-12459
18	-12460
3.	-12461
EX	-12462
Ia	-12463
SD	-12464
TY	-12465
ys	-12466
BOL	-12467
COF	-12468
DOL	-12469
aba	-12470
jat	-12471
lic	-12472
ole	-12473
ram	-12474
sos	-12475
zig	-12476
▁8%	-12477
▁Aa	-12478
▁BJ	-12479
▁BU	-12480
▁EH	-12481
▁FB	-12482
▁Ic	-12483
▁LQ	-12484
▁NO	-12485
▁OJ	-12486
▁OW	-12487
▁Qu	-12488
▁SV	-12489
▁Tj	-12490
▁WR	-12491
▁pk	-12492
KPPI	-12493
▁(7)	-12494
▁0,1	-12495
▁1",	-12496
▁15%	-12497
▁162	-12498
▁167	-12499
▁172	-12500
▁181	-12501
▁187	-12502
▁241	-12503
▁25%	-12504
▁263	-12505
▁274	-12506
▁330	-12507
▁48,	-12508
▁5,8	-12509
▁6-7	-12510
▁6-8	-12511
▁911	-12512
▁AHI	-12513
▁Ala	-12514
▁Asa	-12515
▁BCO	-12516
▁BTT	-12517
▁COM	-12518
▁DTP	-12519
▁Dek	-12520
▁ERA	-12521
▁Ema	-12522
▁FTV	-12523
▁FYP	-12524
▁GMP	-12525
▁GNI	-12526
▁GSN	-12527
▁GWM	-12528
▁HPL	-12529
▁HRW	-12530
▁HSS	-12531
▁IAK	-12532
▁JAN	-12533
▁KSB	-12534
▁KSK	-12535
▁KTA	-12536
▁Kyi	-12537
▁LCT	-12538
▁LIG	-12539
▁Lie	-12540
▁Liz	-12541
▁OMP	-12542
▁PGE	-12543
▁PKD	-12544
▁PKW	-12545
▁Rey	-12546
▁SMS	-12547
▁SPT	-12548
▁See	-12549
▁Soe	-12550
▁THE	-12551
▁THM	-12552
▁TII	-12553
▁TLE	-12554
▁VPN	-12555
▁WTF	-12556
▁YIA	-12557
▁Zul	-12558
▁afe	-12559
▁aww	-12560
▁bsy	-12561
▁dae	-12562
▁dmi	-12563
▁dog	-12564
▁eap	-12565
▁heh	-12566
▁hsa	-12567
▁hyd	-12568
▁its	-12569
▁iwo	-12570
▁ktu	-12571
▁lee	-12572
▁mph	-12573
▁msa	-12574
▁nno	-12575
▁nym	-12576
▁odz	-12577
▁oen	-12578
▁oof	-12579
▁opy	-12580
▁osé	-12581
▁ouf	-12582
▁pcs	-12583
▁rbi	-12584
▁reo	-12585
▁siv	-12586
▁tae	-12587
▁wap	-12588
▁ysi	-12589
▁zil	-12590
▁AGAI	-12591
▁BBRI	-12592
▁ERHA	-12593
▁GKOK	-12594
▁GSEL	-12595
▁IWIP	-12596
▁JIEP	-12597
▁JULO	-12598
▁KITA	-12599
▁LPPM	-12600
▁LPSI	-12601
▁Nega	-12602
▁ODOL	-12603
▁PPID	-12604
▁WBBM	-12605
▁acha	-12606
▁acky	-12607
▁ades	-12608
▁adur	-12609
▁aetz	-12610
▁aidi	-12611
▁ajul	-12612
▁akem	-12613
▁akua	-12614
▁akus	-12615
▁aldy	-12616
▁alot	-12617
▁anaa	-12618
▁anok	-12619
▁anza	-12620
▁argi	-12621
▁arla	-12622
▁arro	-12623
▁arsi	-12624
▁asaw	-12625
▁atir	-12626
▁auka	-12627
▁aura	-12628
▁auru	-12629
▁awac	-12630
▁balo	-12631
▁bide	-12632
▁bout	-12633
▁buyu	-12634
▁dafi	-12635
▁desi	-12636
▁eath	-12637
▁eine	-12638
▁eino	-12639
▁eith	-12640
▁elho	-12641
▁elim	-12642
▁emul	-12643
▁enus	-12644
▁enyi	-12645
▁etai	-12646
▁goki	-12647
▁gola	-12648
▁graf	-12649
▁haim	-12650
▁heat	-12651
▁hier	-12652
▁hift	-12653
▁hild	-12654
▁idil	-12655
▁idya	-12656
▁igni	-12657
▁ilya	-12658
▁imas	-12659
▁irip	-12660
▁isia	-12661
▁iyat	-12662
▁kuda	-12663
▁lace	-12664
▁lack	-12665
▁limo	-12666
▁luch	-12667
▁lwin	-12668
▁mien	-12669
▁mint	-12670
▁moro	-12671
▁mpin	-12672
▁nalo	-12673
▁ncip	-12674
▁ndhi	-12675
▁nfor	-12676
▁nghu	-12677
▁ntur	-12678
▁odok	-12679
▁offs	-12680
▁ofik	-12681
▁olos	-12682
▁ouza	-12683
▁pran	-12684
▁pter	-12685
▁rooy	-12686
▁rosh	-12687
▁rota	-12688
▁shah	-12689
▁srin	-12690
▁taji	-12691
▁tere	-12692
▁tick	-12693
▁trec	-12694
▁uill	-12695
▁uket	-12696
▁ukse	-12697
▁uppe	-12698
▁urau	-12699
▁urch	-12700
▁utho	-12701
▁witz	-12702
▁yrik	-12703
▁FKPPI	-12704
▁GROBO	-12705
▁INGGO	-12706
▁ROBOL	-12707
▁SUCOF	-12708
▁aking	-12709
▁arate	-12710
▁armen	-12711
▁arwij	-12712
▁chlis	-12713
▁dipta	-12714
▁elaya	-12715
▁elina	-12716
▁elldy	-12717
▁emooh	-12718
▁emper	-12719
▁enyan	-12720
▁erakh	-12721
▁erena	-12722
▁ergio	-12723
▁erzog	-12724
▁estiv	-12725
▁eston	-12726
▁ghout	-12727
▁haria	-12728
▁harjo	-12729
▁iagno	-12730
▁iasan	-12731
▁icket	-12732
▁ierra	-12733
▁imber	-12734
▁intip	-12735
▁intro	-12736
▁ipzig	-12737
▁ispan	-12738
▁istel	-12739
▁janur	-12740
▁lakat	-12741
▁lumat	-12742
▁mpion	-12743
▁mriel	-12744
▁mtama	-12745
▁nafik	-12746
▁ncoln	-12747
▁ndail	-12748
▁ngada	-12749
▁nitro	-12750
▁okies	-12751
▁ondet	-12752
▁oraes	-12753
▁osmos	-12754
▁phosa	-12755
▁porta	-12756
▁ramew	-12757
▁randa	-12758
▁renzo	-12759
▁riple	-12760
▁rling	-12761
▁rmand	-12762
▁royom	-12763
▁rozen	-12764
▁sakih	-12765
▁sandi	-12766
▁shing	-12767
▁skins	-12768
▁tegor	-12769
▁ubway	-12770
▁umpun	-12771
▁unnel	-12772
▁uzzer	-12773
▁weyan	-12774
+3	-12775
-5	-12776
15	-12777
GR	-12778
ME	-12779
MO	-12780
ZI	-12781
dt	-12782
ft	-12783
ts	-12784
uf	-12785
wf	-12786
▁±	-12787
KAT	-12788
ase	-12789
bon	-12790
ero	-12791
gau	-12792
ham	-12793
hem	-12794
let	-12795
lux	-12796
pro	-12797
umy	-12798
zio	-12799
▁$8	-12800
▁4%	-12801
▁7.	-12802
▁FD	-12803
▁FE	-12804
▁HW	-12805
▁TF	-12806
▁UH	-12807
▁VF	-12808
▁VS	-12809
▁YU	-12810
▁dn	-12811
▁hf	-12812
▁oA	-12813
▁xy	-12814
▁0,9	-12815
▁136	-12816
▁138	-12817
▁15.	-12818
▁163	-12819
▁2",	-12820
▁226	-12821
▁251	-12822
▁308	-12823
▁368	-12824
▁370	-12825
▁44,	-12826
▁50,	-12827
▁850	-12828
▁98,	-12829
▁AIC	-12830
▁BBK	-12831
▁BHS	-12832
▁BPH	-12833
▁CBS	-12834
▁CEP	-12835
▁CIM	-12836
▁DCT	-12837
▁DNC	-12838
▁Dik	-12839
▁Dow	-12840
▁EGO	-12841
▁GDP	-12842
▁Gor	-12843
▁Gua	-12844
▁Guo	-12845
▁IBC	-12846
▁IDM	-12847
▁IFG	-12848
▁IPC	-12849
▁Ima	-12850
▁KAN	-12851
▁KMI	-12852
▁LIN	-12853
▁LMS	-12854
▁Lok	-12855
▁MCK	-12856
▁MIT	-12857
▁MLN	-12858
▁MVP	-12859
▁Moo	-12860
▁NBC	-12861
▁NDX	-12862
▁Not	-12863
▁ODH	-12864
▁OKS	-12865
▁PKE	-12866
▁PMO	-12867
▁PPJ	-12868
▁PSO	-12869
▁RBT	-12870
▁SAT	-12871
▁SBT	-12872
▁SEL	-12873
▁SKW	-12874
▁STA	-12875
▁STM	-12876
▁THN	-12877
▁THP	-12878
▁Tuh	-12879
▁UMY	-12880
▁ZEE	-12881
▁Zen	-12882
▁abl	-12883
▁awn	-12884
▁ayk	-12885
▁bkn	-12886
▁bwe	-12887
▁bwf	-12888
▁diq	-12889
▁dos	-12890
▁eau	-12891
▁eig	-12892
▁enh	-12893
▁gae	-12894
▁ghe	-12895
▁guw	-12896
▁gym	-12897
▁hob	-12898
▁ieq	-12899
▁iha	-12900
▁isp	-12901
▁joa	-12902
▁lac	-12903
▁laz	-12904
▁lsa	-12905
▁lza	-12906
▁maz	-12907
▁mik	-12908
▁mko	-12909
▁mla	-12910
▁mya	-12911
▁nye	-12912
▁ots	-12913
▁rfa	-12914
▁rfi	-12915
▁rhs	-12916
▁rle	-12917
▁roh	-12918
▁tay	-12919
▁tit	-12920
▁uak	-12921
▁uhe	-12922
▁wam	-12923
▁ANGG	-12924
▁AWAN	-12925
▁DELI	-12926
▁ICRC	-12927
▁IKAL	-12928
▁ISDA	-12929
▁ISKA	-12930
▁JPPI	-12931
▁Juma	-12932
▁KADI	-12933
▁KKIN	-12934
▁KPPB	-12935
▁LSPR	-12936
▁Laok	-12937
▁MARS	-12938
▁NATE	-12939
▁PALU	-12940
▁PPHN	-12941
▁SAID	-12942
▁SEVP	-12943
▁TPKS	-12944
▁TVRI	-12945
▁abha	-12946
▁acle	-12947
▁afia	-12948
▁agic	-12949
▁ajwa	-12950
▁algo	-12951
▁arly	-12952
▁arso	-12953
▁asif	-12954
▁asri	-12955
▁ayam	-12956
▁balt	-12957
▁baur	-12958
▁bero	-12959
▁biot	-12960
▁dada	-12961
▁dhil	-12962
▁duri	-12963
▁dzik	-12964
▁edjo	-12965
▁elza	-12966
▁enzi	-12967
▁erin	-12968
▁erra	-12969
▁ersa	-12970
▁eseh	-12971
▁fiet	-12972
▁foni	-12973
▁haji	-12974
▁hann	-12975
▁haul	-12976
▁hika	-12977
▁hlet	-12978
▁iels	-12979
▁iluk	-12980
▁imao	-12981
▁inau	-12982
▁inil	-12983
▁ired	-12984
▁irit	-12985
▁iroj	-12986
▁kban	-12987
▁klas	-12988
▁kors	-12989
▁lada	-12990
▁laji	-12991
▁lass	-12992
▁leba	-12993
▁lied	-12994
▁llon	-12995
▁lmer	-12996
▁mont	-12997
▁mpuk	-12998
▁ndin	-12999
▁nyai	-13000
▁odor	-13001
▁oged	-13002
▁oket	-13003
▁olek	-13004
▁olic	-13005
▁oloy	-13006
▁omet	-13007
▁onev	-13008
▁oras	-13009
▁orun	-13010
▁pari	-13011
▁poll	-13012
▁pper	-13013
▁pria	-13014
▁raba	-13015
▁radl	-13016
▁raff	-13017
▁rape	-13018
▁rdik	-13019
▁rige	-13020
▁rjin	-13021
▁ropo	-13022
▁roud	-13023
▁rove	-13024
▁rray	-13025
▁rsul	-13026
▁ruak	-13027
▁saks	-13028
▁sbat	-13029
▁siar	-13030
▁sipa	-13031
▁smar	-13032
▁snan	-13033
▁stom	-13034
▁titi	-13035
▁tomi	-13036
▁ukin	-13037
▁ulaw	-13038
▁ulen	-13039
▁umph	-13040
▁unca	-13041
▁undy	-13042
▁urea	-13043
▁urel	-13044
▁usuk	-13045
▁utji	-13046
▁vana	-13047
▁wart	-13048
▁wito	-13049
▁writ	-13050
▁yidi	-13051
▁zzat	-13052
▁BBPOM	-13053
▁DPUPR	-13054
▁PEKAL	-13055
▁RPJMD	-13056
▁achet	-13057
▁aging	-13058
▁aheel	-13059
▁aikal	-13060
▁ailey	-13061
▁akral	-13062
▁aleng	-13063
▁ambuh	-13064
▁anden	-13065
▁andit	-13066
▁anget	-13067
▁annah	-13068
▁anton	-13069
▁anusa	-13070
▁ariej	-13071
▁ature	-13072
▁awatr	-13073
▁belia	-13074
▁beure	-13075
▁condo	-13076
▁darus	-13077
▁eidoi	-13078
▁ekoki	-13079
▁eleid	-13080
▁elpon	-13081
▁enerb	-13082
▁ength	-13083
▁entot	-13084
▁ernia	-13085
▁getah	-13086
▁grafi	-13087
▁grand	-13088
▁gress	-13089
▁hzhia	-13090
▁ikwik	-13091
▁ilqis	-13092
▁imila	-13093
▁ismik	-13094
▁isuke	-13095
▁isyal	-13096
▁kitab	-13097
▁laney	-13098
▁lanka	-13099
▁ledoi	-13100
▁luman	-13101
▁madya	-13102
▁matan	-13103
▁mbeng	-13104
▁mbudi	-13105
▁meton	-13106
▁miten	-13107
▁moral	-13108
▁mperi	-13109
▁mpton	-13110
▁namon	-13111
▁ndouw	-13112
▁nnida	-13113
▁ocker	-13114
▁ofiah	-13115
▁oklit	-13116
▁ophia	-13117
▁orata	-13118
▁ordin	-13119
▁patuh	-13120
▁perit	-13121
▁print	-13122
▁profe	-13123
▁raini	-13124
▁regat	-13125
▁resno	-13126
▁reund	-13127
▁rinkl	-13128
▁risye	-13129
▁rosur	-13130
▁saida	-13131
▁santr	-13132
▁simen	-13133
▁simis	-13134
▁smoro	-13135
▁sraya	-13136
▁surve	-13137
▁tadio	-13138
▁thuan	-13139
▁truck	-13140
▁ubble	-13141
▁uites	-13142
▁ulung	-13143
▁ussel	-13144
▁ussen	-13145
▁uthor	-13146
▁watil	-13147
▁yafar	-13148
▁zrumy	-13149
+4	-13150
21	-13151
40	-13152
7,	-13153
DE	-13154
IT	-13155
JR	-13156
LD	-13157
LL	-13158
MC	-13159
PE	-13160
PL	-13161
SW	-13162
TN	-13163
TO	-13164
ZA	-13165
af	-13166
▁®	-13167
HAM	-13168
LOS	-13169
OMO	-13170
ORR	-13171
SAK	-13172
chu	-13173
enb	-13174
enz	-13175
iro	-13176
min	-13177
rus	-13178
ted	-13179
uda	-13180
vit	-13181
zah	-13182
▁#1	-13183
▁AE	-13184
▁DG	-13185
▁EO	-13186
▁Gh	-13187
▁HC	-13188
▁Ie	-13189
▁KF	-13190
▁RV	-13191
▁UF	-13192
▁Ui	-13193
▁WJ	-13194
▁WK	-13195
▁Wn	-13196
▁XY	-13197
▁tp	-13198
▁yb	-13199
▁ür	-13200
oney	-13201
▁$10	-13202
▁(20	-13203
▁(25	-13204
▁0,4	-13205
▁118	-13206
▁129	-13207
▁14,	-13208
▁143	-13209
▁146	-13210
▁151	-13211
▁153	-13212
▁154	-13213
▁191	-13214
▁199	-13215
▁212	-13216
▁22.	-13217
▁320	-13218
▁329	-13219
▁35,	-13220
▁359	-13221
▁378	-13222
▁430	-13223
▁6,2	-13224
▁7,1	-13225
▁7,8	-13226
▁760	-13227
▁Akt	-13228
▁Aya	-13229
▁Ayi	-13230
▁BBI	-13231
▁BED	-13232
▁BLA	-13233
▁BTC	-13234
▁CIK	-13235
▁CNG	-13236
▁CON	-13237
▁CRV	-13238
▁DAN	-13239
▁DJS	-13240
▁DPA	-13241
▁Dog	-13242
▁EBO	-13243
▁Egi	-13244
▁FAO	-13245
▁FKP	-13246
▁FTA	-13247
▁GBI	-13248
▁GKR	-13249
▁GPI	-13250
▁GPM	-13251
▁God	-13252
▁HKI	-13253
▁Hag	-13254
▁IDC	-13255
▁IGA	-13256
▁IST	-13257
▁Ian	-13258
▁Ike	-13259
▁JAW	-13260
▁JKS	-13261
▁JLM	-13262
▁JLS	-13263
▁KBM	-13264
▁KBO	-13265
▁KCP	-13266
▁KDI	-13267
▁KLT	-13268
▁KSU	-13269
▁KTR	-13270
▁Kaf	-13271
▁LAN	-13272
▁LBI	-13273
▁LCR	-13274
▁LSN	-13275
▁Leg	-13276
▁Lor	-13277
▁MFP	-13278
▁NCS	-13279
▁NDA	-13280
▁NHK	-13281
▁Nil	-13282
▁Noi	-13283
▁OMC	-13284
▁OSN	-13285
▁PCC	-13286
▁PHI	-13287
▁PSP	-13288
▁Pam	-13289
▁RBS	-13290
▁RPO	-13291
▁RSA	-13292
▁SAB	-13293
▁SBS	-13294
▁SBU	-13295
▁SCO	-13296
▁SEO	-13297
▁SKT	-13298
▁SPF	-13299
▁SPN	-13300
▁TGB	-13301
▁THL	-13302
▁TMD	-13303
▁TRS	-13304
▁Tax	-13305
▁UBH	-13306
▁UBP	-13307
▁USU	-13308
▁Uun	-13309
▁WFO	-13310
▁WRP	-13311
▁Web	-13312
▁Yov	-13313
▁adr	-13314
▁baw	-13315
▁buy	-13316
▁diw	-13317
▁dni	-13318
▁dod	-13319
▁ekh	-13320
▁eld	-13321
▁eok	-13322
▁fla	-13323
▁gaw	-13324
▁gig	-13325
▁gok	-13326
▁haq	-13327
▁hed	-13328
▁hik	-13329
▁hlo	-13330
▁huw	-13331
▁ijj	-13332
▁ijk	-13333
▁ijo	-13334
▁ilf	-13335
▁inF	-13336
▁iry	-13337
▁iño	-13338
▁jit	-13339
▁juh	-13340
▁key	-13341
▁laa	-13342
▁lha	-13343
▁lua	-13344
▁mek	-13345
▁nac	-13346
▁nly	-13347
▁ouw	-13348
▁ruy	-13349
▁see	-13350
▁sro	-13351
▁ubt	-13352
▁uib	-13353
▁ymp	-13354
▁zer	-13355
▁AION	-13356
▁AISI	-13357
▁AMMI	-13358
▁ARRC	-13359
▁BIMP	-13360
▁BNDC	-13361
▁Baru	-13362
▁CORE	-13363
▁DUDI	-13364
▁EAGA	-13365
▁ESIS	-13366
▁FOLU	-13367
▁FSGI	-13368
▁GISB	-13369
▁GPAA	-13370
▁HKPD	-13371
▁Huma	-13372
▁Lake	-13373
▁Mack	-13374
▁NOAA	-13375
▁NPWP	-13376
▁OJON	-13377
▁PARI	-13378
▁PHEV	-13379
▁PLTB	-13380
▁PPNS	-13381
▁PTIQ	-13382
▁SAFE	-13383
▁Saud	-13384
▁TPID	-13385
▁UMSK	-13386
▁UMSP	-13387
▁abul	-13388
▁adha	-13389
▁aeed	-13390
▁agon	-13391
▁ahte	-13392
▁aird	-13393
▁ajeg	-13394
▁akpo	-13395
▁anur	-13396
▁aode	-13397
▁apet	-13398
▁arad	-13399
▁aral	-13400
▁aree	-13401
▁arey	-13402
▁argo	-13403
▁arol	-13404
▁arth	-13405
▁arud	-13406
▁ayap	-13407
▁bati	-13408
▁bile	-13409
▁bour	-13410
▁bram	-13411
▁butr	-13412
▁dasa	-13413
▁dewo	-13414
▁dzir	-13415
▁edri	-13416
▁egak	-13417
▁eice	-13418
▁ekom	-13419
▁elet	-13420
▁elut	-13421
▁emic	-13422
▁emit	-13423
▁endy	-13424
▁ense	-13425
▁eone	-13426
▁erco	-13427
▁erep	-13428
▁erez	-13429
▁eset	-13430
▁ewon	-13431
▁fira	-13432
▁fuel	-13433
▁gail	-13434
▁gami	-13435
▁gard	-13436
▁gawe	-13437
▁geng	-13438
▁gnez	-13439
▁gogo	-13440
▁hech	-13441
▁heon	-13442
▁hoco	-13443
▁hoen	-13444
▁hood	-13445
▁hram	-13446
▁ibil	-13447
▁iera	-13448
▁ifai	-13449
▁iori	-13450
▁ious	-13451
▁iray	-13452
▁juya	-13453
▁karu	-13454
▁kidi	-13455
▁kkan	-13456
▁klit	-13457
▁koar	-13458
▁kouw	-13459
▁kype	-13460
▁leun	-13461
▁llux	-13462
▁lopo	-13463
▁lowa	-13464
▁luck	-13465
▁mahu	-13466
▁mash	-13467
▁mery	-13468
▁ndau	-13469
▁near	-13470
▁neko	-13471
▁nick	-13472
▁nike	-13473
▁nora	-13474
▁nzál	-13475
▁odom	-13476
▁oedj	-13477
▁ogya	-13478
▁okha	-13479
▁ompu	-13480
▁onni	-13481
▁onth	-13482
▁ophi	-13483
▁orak	-13484
▁pean	-13485
▁perk	-13486
▁pike	-13487
▁pink	-13488
▁pool	-13489
▁ppor	-13490
▁ppre	-13491
▁prud	-13492
▁ragh	-13493
▁raig	-13494
▁rauj	-13495
▁rbin	-13496
▁rdjo	-13497
▁redo	-13498
▁renb	-13499
▁reth	-13500
▁rphy	-13501
▁rrut	-13502
▁rtia	-13503
▁ruce	-13504
▁ruly	-13505
▁seko	-13506
▁sibu	-13507
▁sson	-13508
▁tach	-13509
▁tage	-13510
▁tiya	-13511
▁trap	-13512
▁trat	-13513
▁trie	-13514
▁ubit	-13515
▁udlo	-13516
▁uldo	-13517
▁ulfi	-13518
▁ulye	-13519
▁ulyo	-13520
▁unra	-13521
▁upta	-13522
▁urie	-13523
▁urns	-13524
▁urri	-13525
▁utia	-13526
▁wafa	-13527
▁wist	-13528
▁yhur	-13529
▁yogo	-13530
▁yrgy	-13531
▁zaki	-13532
▁AUKUS	-13533
▁Dukun	-13534
▁EGORO	-13535
▁KORMI	-13536
▁KUALA	-13537
▁NCLOS	-13538
▁PANDI	-13539
▁TPPAS	-13540
▁WONOS	-13541
▁abuan	-13542
▁afadi	-13543
▁agina	-13544
▁ahara	-13545
▁alahi	-13546
▁aliri	-13547
▁almon	-13548
▁annis	-13549
▁arium	-13550
▁arner	-13551
▁aroki	-13552
▁athum	-13553
▁aufan	-13554
▁aurus	-13555
▁azada	-13556
▁bahar	-13557
▁bairi	-13558
▁baung	-13559
▁ceanX	-13560
▁daraw	-13561
▁dhiah	-13562
▁dosis	-13563
▁ekraf	-13564
▁ellar	-13565
▁eltje	-13566
▁endon	-13567
▁entor	-13568
▁enver	-13569
▁eremp	-13570
▁gahan	-13571
▁garet	-13572
▁gembo	-13573
▁getol	-13574
▁hakes	-13575
▁hanom	-13576
▁hebre	-13577
▁hohib	-13578
▁ianty	-13579
▁ildan	-13580
▁ileen	-13581
▁ilika	-13582
▁iming	-13583
▁inden	-13584
▁inger	-13585
▁iniar	-13586
▁inten	-13587
▁irine	-13588
▁kapar	-13589
▁kejad	-13590
▁kopin	-13591
▁lavor	-13592
▁linda	-13593
▁losed	-13594
▁lukat	-13595
▁mandi	-13596
▁manta	-13597
▁mijah	-13598
▁mouth	-13599
▁mpias	-13600
▁murth	-13601
▁naruk	-13602
▁ndong	-13603
▁nggas	-13604
▁ngkan	-13605
▁nsong	-13606
▁ocket	-13607
▁oksik	-13608
▁ontek	-13609
▁orila	-13610
▁pakad	-13611
▁peare	-13612
▁rabia	-13613
▁rango	-13614
▁rasuk	-13615
▁razia	-13616
▁rchit	-13617
▁risau	-13618
▁risbi	-13619
▁rizzy	-13620
▁samin	-13621
▁satwa	-13622
▁sinki	-13623
▁srenb	-13624
▁story	-13625
▁takim	-13626
▁tinus	-13627
▁ublin	-13628
▁uksit	-13629
▁ulfur	-13630
▁umbai	-13631
▁undut	-13632
▁uppli	-13633
▁ussia	-13634
▁utnik	-13635
▁worth	-13636
▁yesus	-13637
+1	-13638
DB	-13639
IV	-13640
JC	-13641
JE	-13642
NS	-13643
ae	-13644
cl	-13645
yp	-13646
ATS	-13647
LIM	-13648
ODC	-13649
OSO	-13650
PPA	-13651
PUR	-13652
aig	-13653
aka	-13654
bia	-13655
cho	-13656
djo	-13657
fre	-13658
idi	-13659
lap	-13660
oli	-13661
qui	-13662
rap	-13663
rat	-13664
tas	-13665
tum	-13666
ula	-13667
wen	-13668
yen	-13669
▁BE	-13670
▁CU	-13671
▁Ij	-13672
▁LR	-13673
▁NR	-13674
▁NW	-13675
▁PY	-13676
▁YB	-13677
▁YD	-13678
▁YR	-13679
▁YZ	-13680
▁ZS	-13681
▁eR	-13682
▁eV	-13683
▁eq	-13684
▁iL	-13685
▁iQ	-13686
▁py	-13687
▁$60	-13688
▁(18	-13689
▁13%	-13690
▁13.	-13691
▁139	-13692
▁14.	-13693
▁17.	-13694
▁174	-13695
▁177	-13696
▁205	-13697
▁214	-13698
▁221	-13699
▁267	-13700
▁279	-13701
▁290	-13702
▁3,7	-13703
▁3.0	-13704
▁312	-13705
▁32%	-13706
▁322	-13707
▁337	-13708
▁362	-13709
▁37,	-13710
▁4-2	-13711
▁40,	-13712
▁411	-13713
▁6,4	-13714
▁60,	-13715
▁7,2	-13716
▁7,7	-13717
▁7-8	-13718
▁75%	-13719
▁8,1	-13720
▁8,4	-13721
▁99%	-13722
▁AAL	-13723
▁ALL	-13724
▁ALS	-13725
▁AMG	-13726
▁ANA	-13727
▁ASG	-13728
▁Act	-13729
▁BIA	-13730
▁BMH	-13731
▁BTB	-13732
▁BUR	-13733
▁Bor	-13734
▁Bui	-13735
▁CAI	-13736
▁CAR	-13737
▁CRM	-13738
▁Cub	-13739
▁DHL	-13740
▁DOS	-13741
▁DSD	-13742
▁ECH	-13743
▁EDC	-13744
▁ELI	-13745
▁ENS	-13746
▁GPA	-13747
▁GRK	-13748
▁HAP	-13749
▁HIN	-13750
▁HMS	-13751
▁Hoc	-13752
▁Hyo	-13753
▁IMB	-13754
▁IPL	-13755
▁Ile	-13756
▁Jie	-13757
▁KAJ	-13758
▁Kos	-13759
▁LDL	-13760
▁LEB	-13761
▁Loh	-13762
▁MDB	-13763
▁MOU	-13764
▁MPL	-13765
▁MSC	-13766
▁NEC	-13767
▁NPL	-13768
▁NYU	-13769
▁Nyi	-13770
▁OCA	-13771
▁OND	-13772
▁OSS	-13773
▁PAP	-13774
▁PCU	-13775
▁PFA	-13776
▁PGI	-13777
▁PII	-13778
▁PRO	-13779
▁PSC	-13780
▁RDN	-13781
▁REJ	-13782
▁REM	-13783
▁RIA	-13784
▁RSB	-13785
▁Ryu	-13786
▁SEC	-13787
▁SHM	-13788
▁SIL	-13789
▁SIP	-13790
▁SOS	-13791
▁SRI	-13792
▁SSK	-13793
▁Sir	-13794
▁TAM	-13795
▁TAS	-13796
▁TIK	-13797
▁TPB	-13798
▁Tas	-13799
▁Ten	-13800
▁UAJ	-13801
▁ULP	-13802
▁UNU	-13803
▁XXX	-13804
▁Yeo	-13805
▁Zia	-13806
▁aab	-13807
▁ahw	-13808
▁anh	-13809
▁anv	-13810
▁anz	-13811
▁bps	-13812
▁dhu	-13813
▁dii	-13814
▁eav	-13815
▁efa	-13816
▁fez	-13817
▁fly	-13818
▁geb	-13819
▁gow	-13820
▁iev	-13821
▁ivo	-13822
▁jdi	-13823
▁kov	-13824
▁kud	-13825
▁lgo	-13826
▁lja	-13827
▁lmo	-13828
▁lpa	-13829
▁nef	-13830
▁nho	-13831
▁niq	-13832
▁oan	-13833
▁obb	-13834
▁ouk	-13835
▁owe	-13836
▁rsy	-13837
▁rui	-13838
▁sdi	-13839
▁tov	-13840
▁tti	-13841
▁uek	-13842
▁ufe	-13843
▁urg	-13844
▁ycl	-13845
▁yuh	-13846
▁ALAH	-13847
▁ALIM	-13848
▁ALIS	-13849
▁AMEK	-13850
▁APJI	-13851
▁ARAN	-13852
▁BAJO	-13853
▁BEIJ	-13854
▁BMPP	-13855
▁BMTH	-13856
▁BPKB	-13857
▁CISA	-13858
▁DPTP	-13859
▁ESPN	-13860
▁IFAD	-13861
▁INIT	-13862
▁IPCC	-13863
▁IPPI	-13864
▁JICA	-13865
▁LIKI	-13866
▁MEMI	-13867
▁ODHA	-13868
▁OLRI	-13869
▁PLTP	-13870
▁SPDP	-13871
▁SPSI	-13872
▁TANJ	-13873
▁ULBI	-13874
▁abas	-13875
▁abon	-13876
▁abtu	-13877
▁acir	-13878
▁agel	-13879
▁ahia	-13880
▁ahua	-13881
▁ajai	-13882
▁ajoe	-13883
▁alda	-13884
▁amet	-13885
▁amya	-13886
▁anip	-13887
▁anri	-13888
▁aolo	-13889
▁apen	-13890
▁arai	-13891
▁arbi	-13892
▁aruk	-13893
▁aseh	-13894
▁atia	-13895
▁axus	-13896
▁azir	-13897
▁bach	-13898
▁baib	-13899
▁bait	-13900
▁bema	-13901
▁beng	-13902
▁biri	-13903
▁biro	-13904
▁bubu	-13905
▁bust	-13906
▁cahe	-13907
▁chok	-13908
▁ckhy	-13909
▁cola	-13910
▁dani	-13911
▁ddam	-13912
▁dlan	-13913
▁dlin	-13914
▁dora	-13915
▁drah	-13916
▁drie	-13917
▁eddy	-13918
▁edek	-13919
▁egov	-13920
▁elac	-13921
▁elip	-13922
▁elky	-13923
▁emih	-13924
▁enth	-13925
▁epro	-13926
▁etch	-13927
▁etos	-13928
▁eyno	-13929
▁ezar	-13930
▁ezos	-13931
▁ezza	-13932
▁fake	-13933
▁feed	-13934
▁fone	-13935
▁fume	-13936
▁gaib	-13937
▁gasd	-13938
▁gila	-13939
▁hate	-13940
▁haun	-13941
▁hink	-13942
▁hwan	-13943
▁idol	-13944
▁iena	-13945
▁ifqi	-13946
▁ihir	-13947
▁ijin	-13948
▁ilmi	-13949
▁imah	-13950
▁indy	-13951
▁inun	-13952
▁iora	-13953
▁iqui	-13954
▁irus	-13955
▁ispa	-13956
▁itch	-13957
▁jant	-13958
▁jene	-13959
▁jima	-13960
▁kamb	-13961
▁kemb	-13962
▁klok	-13963
▁kmas	-13964
▁kore	-13965
▁ksir	-13966
▁kstr	-13967
▁kupa	-13968
▁ladk	-13969
▁laps	-13970
▁lera	-13971
▁lium	-13972
▁lmon	-13973
▁masy	-13974
▁mbay	-13975
▁mong	-13976
▁mori	-13977
▁nati	-13978
▁nest	-13979
▁nett	-13980
▁ngem	-13981
▁nhar	-13982
▁nino	-13983
▁niup	-13984
▁nrek	-13985
▁oboa	-13986
▁oema	-13987
▁oore	-13988
▁osen	-13989
▁oshe	-13990
▁osir	-13991
▁otar	-13992
▁outo	-13993
▁ovTe	-13994
▁pama	-13995
▁peke	-13996
▁pern	-13997
▁pnot	-13998
▁ppen	-13999
▁qdir	-14000
▁rack	-14001
▁rauf	-14002
▁riat	-14003
▁rift	-14004
▁rigi	-14005
▁riri	-14006
▁rnai	-14007
▁rnes	-14008
▁roit	-14009
▁rusa	-14010
▁ruze	-14011
▁siwa	-14012
▁smul	-14013
▁smus	-14014
▁snod	-14015
▁sody	-14016
▁tbot	-14017
▁teer	-14018
▁thia	-14019
▁tiva	-14020
▁toro	-14021
▁ubio	-14022
▁ucha	-14023
▁ukoj	-14024
▁ulev	-14025
▁umay	-14026
▁umis	-14027
▁unch	-14028
▁uono	-14029
▁uriz	-14030
▁urma	-14031
▁wadi	-14032
▁wama	-14033
▁weep	-14034
▁woro	-14035
▁xonM	-14036
▁yach	-14037
▁yake	-14038
▁yand	-14039
▁yara	-14040
▁ypef	-14041
▁yrus	-14042
▁zzio	-14043
▁ANTAN	-14044
▁ATRIA	-14045
▁BRIDS	-14046
▁EBONG	-14047
▁ERSIS	-14048
▁Opera	-14049
▁UINSA	-14050
▁UNODC	-14051
▁aarul	-14052
▁aeron	-14053
▁agher	-14054
▁airil	-14055
▁alase	-14056
▁alila	-14057
▁ambey	-14058
▁andon	-14059
▁antir	-14060
▁arawa	-14061
▁ariah	-14062
▁artha	-14063
▁askes	-14064
▁askya	-14065
▁assem	-14066
▁avana	-14067
▁aykal	-14068
▁aytun	-14069
▁babil	-14070
▁bessy	-14071
▁boisa	-14072
▁bolik	-14073
▁bound	-14074
▁bruri	-14075
▁chool	-14076
▁demio	-14077
▁driko	-14078
▁eball	-14079
▁eluxe	-14080
▁empuk	-14081
▁enaka	-14082
▁endum	-14083
▁engag	-14084
▁enjoy	-14085
▁enmas	-14086
▁erine	-14087
▁eulis	-14088
▁flase	-14089
▁harma	-14090
▁hrust	-14091
▁iasat	-14092
▁idrap	-14093
▁imbas	-14094
▁imura	-14095
▁inked	-14096
▁iyant	-14097
▁kalar	-14098
▁konse	-14099
▁laide	-14100
▁laran	-14101
▁leuny	-14102
▁liana	-14103
▁lilea	-14104
▁liman	-14105
▁ludak	-14106
▁lupas	-14107
▁matic	-14108
▁mbara	-14109
▁mikro	-14110
▁mioro	-14111
▁mpers	-14112
▁nabul	-14113
▁napch	-14114
▁nessa	-14115
▁nezes	-14116
▁notes	-14117
▁nsula	-14118
▁ntahe	-14119
▁ntiri	-14120
▁nyana	-14121
▁ooney	-14122
▁ooter	-14123
▁orton	-14124
▁osmet	-14125
▁pardi	-14126
▁pasan	-14127
▁pende	-14128
▁peser	-14129
▁progo	-14130
▁pugur	-14131
▁rachi	-14132
▁rbani	-14133
▁riana	-14134
▁rimin	-14135
▁rinus	-14136
▁risia	-14137
▁rmidi	-14138
▁roker	-14139
▁rtini	-14140
▁sodjo	-14141
▁table	-14142
▁tamfe	-14143
▁tandi	-14144
▁tober	-14145
▁tolih	-14146
▁traig	-14147
▁trust	-14148
▁uffer	-14149
▁umbon	-14150
▁umbuh	-14151
▁undza	-14152
▁urban	-14153
▁urung	-14154
▁usnul	-14155
▁wadar	-14156
▁weran	-14157
▁winto	-14158
▁yrgyz	-14159
6,	-14160
BL	-14161
CN	-14162
GL	-14163
QA	-14164
TE	-14165
We	-14166
YS	-14167
ec	-14168
uc	-14169
xt	-14170
yl	-14171
INF	-14172
MAX	-14173
NUK	-14174
ORA	-14175
RTI	-14176
URU	-14177
adc	-14178
bas	-14179
can	-14180
fat	-14181
fia	-14182
hor	-14183
ial	-14184
mis	-14185
nia	-14186
pot	-14187
rau	-14188
ris	-14189
roh	-14190
tic	-14191
ury	-14192
yev	-14193
▁2)	-14194
▁2:	-14195
▁Ay	-14196
▁CX	-14197
▁DX	-14198
▁Dk	-14199
▁EE	-14200
▁EY	-14201
▁GE	-14202
▁OB	-14203
▁Oz	-14204
▁Sd	-14205
▁VC	-14206
▁VT	-14207
▁ZX	-14208
▁eF	-14209
▁lw	-14210
▁yz	-14211
ided	-14212
▁(12	-14213
▁11%	-14214
▁126	-14215
▁159	-14216
▁173	-14217
▁185	-14218
▁213	-14219
▁217	-14220
▁222	-14221
▁236	-14222
▁238	-14223
▁239	-14224
▁245	-14225
▁256	-14226
▁266	-14227
▁3,9	-14228
▁41,	-14229
▁43,	-14230
▁45,	-14231
▁7,3	-14232
▁89,	-14233
▁ADF	-14234
▁ADM	-14235
▁AHN	-14236
▁AII	-14237
▁AIR	-14238
▁AKS	-14239
▁ARU	-14240
▁Ais	-14241
▁Ano	-14242
▁Awi	-14243
▁BCI	-14244
▁BID	-14245
▁BKH	-14246
▁BLU	-14247
▁BTP	-14248
▁CKB	-14249
▁CKD	-14250
▁COG	-14251
▁CPI	-14252
▁CPJ	-14253
▁Che	-14254
▁Cok	-14255
▁DAP	-14256
▁DIM	-14257
▁DPM	-14258
▁DRX	-14259
▁Dul	-14260
▁Eng	-14261
▁Eni	-14262
▁FAR	-14263
▁FSP	-14264
▁GDC	-14265
▁GKA	-14266
▁GTV	-14267
▁GWK	-14268
▁HEV	-14269
▁HPN	-14270
▁IBI	-14271
▁ICP	-14272
▁ILC	-14273
▁IMO	-14274
▁IPE	-14275
▁IPR	-14276
▁Iin	-14277
▁Iko	-14278
▁JER	-14279
▁JFX	-14280
▁JTV	-14281
▁KFC	-14282
▁KIN	-14283
▁KPH	-14284
▁KRT	-14285
▁LAY	-14286
▁LOM	-14287
▁Lex	-14288
▁MBR	-14289
▁MIS	-14290
▁MPW	-14291
▁MRA	-14292
▁MRO	-14293
▁McM	-14294
▁Mir	-14295
▁Mow	-14296
▁NAS	-14297
▁NEW	-14298
▁NLE	-14299
▁NOC	-14300
▁OMS	-14301
▁OVO	-14302
▁PBG	-14303
▁PBK	-14304
▁PDF	-14305
▁PKU	-14306
▁PMA	-14307
▁PMD	-14308
▁PMP	-14309
▁PRJ	-14310
▁PSR	-14311
▁RDF	-14312
▁RHU	-14313
▁RKP	-14314
▁ROP	-14315
▁ROW	-14316
▁RSD	-14317
▁SAC	-14318
▁SAL	-14319
▁SGN	-14320
▁SRO	-14321
▁SSB	-14322
▁SSW	-14323
▁Sal	-14324
▁Sex	-14325
▁Six	-14326
▁Sos	-14327
▁TRI	-14328
▁TSG	-14329
▁Tea	-14330
▁Try	-14331
▁UCO	-14332
▁UNA	-14333
▁UNJ	-14334
▁VIT	-14335
▁VTP	-14336
▁WOC	-14337
▁Win	-14338
▁Xav	-14339
▁Yeh	-14340
▁Yul	-14341
▁ZIS	-14342
▁Zoe	-14343
▁acy	-14344
▁aei	-14345
▁aep	-14346
▁afp	-14347
▁aig	-14348
▁apy	-14349
▁azz	-14350
▁bib	-14351
▁biu	-14352
▁cen	-14353
▁cio	-14354
▁def	-14355
▁eef	-14356
▁eev	-14357
▁eit	-14358
▁eup	-14359
▁evr	-14360
▁gli	-14361
▁hia	-14362
▁idw	-14363
▁idz	-14364
▁ifq	-14365
▁iut	-14366
▁jed	-14367
▁lea	-14368
▁lug	-14369
▁nhe	-14370
▁oas	-14371
▁occ	-14372
▁oft	-14373
▁onz	-14374
▁osk	-14375
▁ppu	-14376
▁riq	-14377
▁rty	-14378
▁ryo	-14379
▁rzn	-14380
▁tug	-14381
▁ubk	-14382
▁ufi	-14383
▁weh	-14384
▁wik	-14385
▁yto	-14386
▁zas	-14387
▁zma	-14388
▁ürk	-14389
▁AKAN	-14390
▁BKPP	-14391
▁BNNK	-14392
▁BNSP	-14393
▁CCUS	-14394
▁CITY	-14395
▁CLTN	-14396
▁DPTb	-14397
▁EKAD	-14398
▁GURU	-14399
▁HKTI	-14400
▁IDAK	-14401
▁INTU	-14402
▁ISCC	-14403
▁JORR	-14404
▁KAMI	-14405
▁Land	-14406
▁MKGR	-14407
▁Metr	-14408
▁NPHD	-14409
▁NTAN	-14410
▁OCHA	-14411
▁PASI	-14412
▁PBPD	-14413
▁PPAS	-14414
▁PPKG	-14415
▁PTMA	-14416
▁RDPU	-14417
▁RKPD	-14418
▁RSKO	-14419
▁SBMI	-14420
▁SESS	-14421
▁SKSG	-14422
▁SPIN	-14423
▁TNUK	-14424
▁VKTR	-14425
▁Yeon	-14426
▁abol	-14427
▁abub	-14428
▁acas	-14429
▁acid	-14430
▁aden	-14431
▁adri	-14432
▁aged	-14433
▁agne	-14434
▁ahum	-14435
▁airy	-14436
▁ajik	-14437
▁ajir	-14438
▁akub	-14439
▁alba	-14440
▁aleh	-14441
▁alga	-14442
▁alle	-14443
▁alum	-14444
▁amoj	-14445
▁apah	-14446
▁aqsa	-14447
▁ared	-14448
▁arip	-14449
▁asat	-14450
▁asda	-14451
▁atma	-14452
▁ausa	-14453
▁avas	-14454
▁ayla	-14455
▁ayus	-14456
▁blik	-14457
▁bond	-14458
▁boom	-14459
▁brow	-14460
▁buse	-14461
▁bute	-14462
▁cata	-14463
▁chen	-14464
▁chiz	-14465
▁cing	-14466
▁city	-14467
▁cker	-14468
▁coco	-14469
▁dago	-14470
▁deko	-14471
▁dial	-14472
▁disk	-14473
▁dith	-14474
▁djia	-14475
▁dlul	-14476
▁dnig	-14477
▁dres	-14478
▁eduk	-14479
▁eing	-14480
▁ekek	-14481
▁ekua	-14482
▁elco	-14483
▁elta	-14484
▁erka	-14485
▁erla	-14486
▁erzi	-14487
▁esty	-14488
▁etda	-14489
▁etta	-14490
▁evie	-14491
▁exfe	-14492
▁eyes	-14493
▁gadi	-14494
▁game	-14495
▁gets	-14496
▁gija	-14497
▁grah	-14498
▁grap	-14499
▁gria	-14500
▁hill	-14501
▁hist	-14502
▁hloe	-14503
▁holy	-14504
▁homp	-14505
▁houn	-14506
▁ibak	-14507
▁icie	-14508
▁icik	-14509
▁iday	-14510
▁ihen	-14511
▁iker	-14512
▁ikho	-14513
▁ilex	-14514
▁imca	-14515
▁iola	-14516
▁iona	-14517
▁ipah	-14518
▁ipik	-14519
▁ipur	-14520
▁issu	-14521
▁iten	-14522
▁izer	-14523
▁jipt	-14524
▁joko	-14525
▁kals	-14526
▁kdir	-14527
▁keas	-14528
▁kesa	-14529
▁kimi	-14530
▁kito	-14531
▁koda	-14532
▁kolo	-14533
▁kula	-14534
▁kund	-14535
▁kuri	-14536
▁kwan	-14537
▁lali	-14538
▁lata	-14539
▁lein	-14540
▁leum	-14541
▁licy	-14542
▁life	-14543
▁litb	-14544
▁lmaz	-14545
▁loki	-14546
▁mans	-14547
▁mary	-14548
▁mdam	-14549
▁mile	-14550
▁mrud	-14551
▁mult	-14552
▁mzet	-14553
▁naas	-14554
▁nano	-14555
▁ncet	-14556
▁ncir	-14557
▁nemb	-14558
▁neta	-14559
▁neto	-14560
▁nfra	-14561
▁nite	-14562
▁nkir	-14563
▁nong	-14564
▁oadc	-14565
▁obbi	-14566
▁ofir	-14567
▁okum	-14568
▁omad	-14569
▁oody	-14570
▁ooke	-14571
▁opak	-14572
▁orek	-14573
▁orin	-14574
▁orop	-14575
▁otis	-14576
▁oudy	-14577
▁ozer	-14578
▁palo	-14579
▁pata	-14580
▁penh	-14581
▁pers	-14582
▁pill	-14583
▁psis	-14584
▁quip	-14585
▁riga	-14586
▁rika	-14587
▁risp	-14588
▁rock	-14589
▁roik	-14590
▁rois	-14591
▁roos	-14592
▁roya	-14593
▁rros	-14594
▁rrot	-14595
▁rumi	-14596
▁sant	-14597
▁sdya	-14598
▁seth	-14599
▁sier	-14600
▁sley	-14601
▁soed	-14602
▁sper	-14603
▁spia	-14604
▁tadz	-14605
▁tawi	-14606
▁tegi	-14607
▁thar	-14608
▁thew	-14609
▁tief	-14610
▁ubau	-14611
▁ubes	-14612
▁uche	-14613
▁uchi	-14614
▁udhy	-14615
▁ufey	-14616
▁uicy	-14617
▁uido	-14618
▁ukha	-14619
▁ully	-14620
▁umor	-14621
▁usam	-14622
▁utes	-14623
▁uwet	-14624
▁uyut	-14625
▁uzon	-14626
▁verd	-14627
▁wena	-14628
▁wiek	-14629
▁yati	-14630
▁ymco	-14631
▁yodo	-14632
▁zhin	-14633
▁zone	-14634
▁AGAMA	-14635
▁AICIS	-14636
▁ASGAS	-14637
▁CIKAR	-14638
▁EGARA	-14639
▁IGINF	-14640
▁Mahfu	-14641
▁ONDON	-14642
▁Polda	-14643
▁TPAKD	-14644
▁UMPUR	-14645
▁UNAMA	-14646
▁XXIII	-14647
▁ablon	-14648
▁ackat	-14649
▁adena	-14650
▁adine	-14651
▁adolu	-14652
▁aerul	-14653
▁ahaga	-14654
▁ajing	-14655
▁aktub	-14656
▁amara	-14657
▁ampau	-14658
▁amtas	-14659
▁anana	-14660
▁anilo	-14661
▁aroma	-14662
▁arsum	-14663
▁artun	-14664
▁arves	-14665
▁aslem	-14666
▁asrah	-14667
▁assil	-14668
▁asten	-14669
▁asung	-14670
▁atung	-14671
▁balin	-14672
▁bekel	-14673
▁bloid	-14674
▁bolga	-14675
▁buana	-14676
▁bumen	-14677
▁crati	-14678
▁dahan	-14679
▁daton	-14680
▁dhika	-14681
▁diqah	-14682
▁eathe	-14683
▁eback	-14684
▁egera	-14685
▁einze	-14686
▁ekang	-14687
▁eklik	-14688
▁elael	-14689
▁elber	-14690
▁engon	-14691
▁enzel	-14692
▁eriff	-14693
▁ermon	-14694
▁ersit	-14695
▁erthi	-14696
▁ertip	-14697
▁essel	-14698
▁estra	-14699
▁etipo	-14700
▁gilan	-14701
▁giyai	-14702
▁gonzi	-14703
▁hulam	-14704
▁ianus	-14705
▁ikdar	-14706
▁iklin	-14707
▁ilana	-14708
▁ilani	-14709
▁ilent	-14710
▁inaho	-14711
▁ingar	-14712
▁iradj	-14713
▁ireng	-14714
▁isuri	-14715
▁itang	-14716
▁iwang	-14717
▁johan	-14718
▁ktana	-14719
▁kuras	-14720
▁ladia	-14721
▁lapak	-14722
▁mangu	-14723
▁marmo	-14724
▁nalin	-14725
▁ngelo	-14726
▁nyang	-14727
▁odore	-14728
▁oloan	-14729
▁omnia	-14730
▁oopak	-14731
▁opian	-14732
▁opyan	-14733
▁paksa	-14734
▁paung	-14735
▁pense	-14736
▁perki	-14737
▁prano	-14738
▁racas	-14739
▁rajut	-14740
▁raman	-14741
▁ratly	-14742
▁rcher	-14743
▁renic	-14744
▁rewer	-14745
▁rfiah	-14746
▁rgina	-14747
▁rilla	-14748
▁riyan	-14749
▁rmani	-14750
▁rolit	-14751
▁rozny	-14752
▁rtoum	-14753
▁sbial	-14754
▁siber	-14755
▁sowan	-14756
▁sowid	-14757
▁udson	-14758
▁unang	-14759
▁undah	-14760
▁undel	-14761
▁unker	-14762
▁usiah	-14763
▁yafak	-14764
▁yahar	-14765
▁yamah	-14766
▁zofre	-14767
DF	-14768
In	-14769
JF	-14770
Mi	-14771
NT	-14772
OD	-14773
OI	-14774
Oh	-14775
RB	-14776
RM	-14777
SU	-14778
eg	-14779
gn	-14780
ém	-14781
én	-14782
▁á	-14783
ATI	-14784
DAW	-14785
JAR	-14786
MIN	-14787
NET	-14788
NIQ	-14789
REV	-14790
RWO	-14791
TAR	-14792
arv	-14793
dod	-14794
eke	-14795
eld	-14796
ell	-14797
esh	-14798
fei	-14799
lee	-14800
lyn	-14801
neg	-14802
red	-14803
rol	-14804
sil	-14805
tui	-14806
vez	-14807
yat	-14808
yin	-14809
▁-1	-14810
▁9%	-14811
▁By	-14812
▁DV	-14813
▁GC	-14814
▁GL	-14815
▁HE	-14816
▁IY	-14817
▁Iz	-14818
▁LF	-14819
▁Mb	-14820
▁NF	-14821
▁NV	-14822
▁OH	-14823
▁RY	-14824
▁Tk	-14825
▁WE	-14826
▁WH	-14827
▁WW	-14828
▁YY	-14829
▁ZI	-14830
▁gb	-14831
▁gd	-14832
▁gs	-14833
▁kV	-14834
▁kb	-14835
▁mh	-14836
▁mk	-14837
▁pH	-14838
▁xf	-14839
▁yf	-14840
▁zl	-14841
kins	-14842
ukur	-14843
ziah	-14844
▁$20	-14845
▁(10	-14846
▁(23	-14847
▁(32	-14848
▁(8)	-14849
▁(9)	-14850
▁161	-14851
▁179	-14852
▁18.	-14853
▁182	-14854
▁19.	-14855
▁194	-14856
▁203	-14857
▁208	-14858
▁211	-14859
▁216	-14860
▁22%	-14861
▁224	-14862
▁305	-14863
▁309	-14864
▁311	-14865
▁35%	-14866
▁379	-14867
▁380	-14868
▁4%.	-14869
▁432	-14870
▁440	-14871
▁489	-14872
▁5-7	-14873
▁51,	-14874
▁52,	-14875
▁6,3	-14876
▁9,6	-14877
▁AAJ	-14878
▁ALG	-14879
▁AND	-14880
▁ARS	-14881
▁Ahn	-14882
▁Aja	-14883
▁Aly	-14884
▁BAH	-14885
▁BAT	-14886
▁BBQ	-14887
▁BKA	-14888
▁BKT	-14889
▁BRK	-14890
▁BSN	-14891
▁Bou	-14892
▁Bru	-14893
▁CBU	-14894
▁CFC	-14895
▁CGS	-14896
▁CPU	-14897
▁CSW	-14898
▁DBS	-14899
▁DIA	-14900
▁DRM	-14901
▁Der	-14902
▁Els	-14903
▁FIK	-14904
▁FIN	-14905
▁Fra	-14906
▁GMK	-14907
▁Gar	-14908
▁Guy	-14909
▁HJE	-14910
▁HLF	-14911
▁HPK	-14912
▁HSA	-14913
▁Haq	-14914
▁Hee	-14915
▁IAM	-14916
▁IHK	-14917
▁IIS	-14918
▁IOS	-14919
▁IPU	-14920
▁ITC	-14921
▁Iip	-14922
▁Iis	-14923
▁Inc	-14924
▁JHL	-14925
▁JNE	-14926
▁JRP	-14927
▁JTT	-14928
▁KDM	-14929
▁KKJ	-14930
▁KLH	-14931
▁KMT	-14932
▁KPJ	-14933
▁KSO	-14934
▁KWI	-14935
▁LCS	-14936
▁LHP	-14937
▁LMK	-14938
▁LOS	-14939
▁LOW	-14940
▁MAI	-14941
▁MDI	-14942
▁MLS	-14943
▁MOS	-14944
▁MPI	-14945
▁MSK	-14946
▁MSN	-14947
▁MSP	-14948
▁McF	-14949
▁McL	-14950
▁Mix	-14951
▁Moe	-14952
▁Mud	-14953
▁NFA	-14954
▁NIU	-14955
▁NPC	-14956
▁NYC	-14957
▁OLX	-14958
▁PDS	-14959
▁PID	-14960
▁PIM	-14961
▁PKC	-14962
▁PLO	-14963
▁POL	-14964
▁PSE	-14965
▁PTV	-14966
▁PUM	-14967
▁Paz	-14968
▁RAB	-14969
▁RBB	-14970
▁RIO	-14971
▁RSM	-14972
▁RSP	-14973
▁Ren	-14974
▁SEB	-14975
▁SEK	-14976
▁SEV	-14977
▁SKI	-14978
▁SKP	-14979
▁SNP	-14980
▁Sad	-14981
▁Sas	-14982
▁Shu	-14983
▁Spe	-14984
▁TGC	-14985
▁THA	-14986
▁THT	-14987
▁TKM	-14988
▁TKS	-14989
▁Tee	-14990
▁UAV	-14991
▁UNW	-14992
▁UPJ	-14993
▁USM	-14994
▁Uap	-14995
▁Vox	-14996
▁WAS	-14997
▁WCP	-14998
▁WMO	-14999
▁Yew	-15000
▁Yok	-15001
▁aco	-15002
▁amh	-15003
▁aty	-15004
▁auv	-15005
▁awk	-15006
▁awo	-15007
▁axw	-15008
▁bow	-15009
▁ced	-15010
▁cro	-15011
▁dax	-15012
▁dov	-15013
▁dpa	-15014
▁duw	-15015
▁euk	-15016
▁eux	-15017
▁eza	-15018
▁gaz	-15019
▁giz	-15020
▁goy	-15021
▁hey	-15022
▁hiz	-15023
▁hni	-15024
▁hoh	-15025
▁hos	-15026
▁hya	-15027
▁ife	-15028
▁ikn	-15029
▁ios	-15030
▁kao	-15031
▁kki	-15032
▁kub	-15033
▁lop	-15034
▁lui	-15035
▁mzi	-15036
▁nli	-15037
▁nok	-15038
▁nos	-15039
▁oak	-15040
▁oew	-15041
▁oms	-15042
▁pai	-15043
▁rei	-15044
▁rsh	-15045
▁rth	-15046
▁sbo	-15047
▁sle	-15048
▁ssc	-15049
▁toc	-15050
▁uch	-15051
▁udh	-15052
▁ufa	-15053
▁uge	-15054
▁uic	-15055
▁ulo	-15056
▁wab	-15057
▁yeh	-15058
▁yin	-15059
▁yya	-15060
▁zad	-15061
▁zgi	-15062
▁zka	-15063
▁zri	-15064
▁zzy	-15065
▁ADIN	-15066
▁ANUK	-15067
▁APAC	-15068
▁APIK	-15069
▁APPI	-15070
▁ARVE	-15071
▁BANI	-15072
▁BBWI	-15073
▁BICC	-15074
▁BNPP	-15075
▁BPHN	-15076
▁BPKD	-15077
▁Bebe	-15078
▁CARI	-15079
▁EDAW	-15080
▁EIRO	-15081
▁FKIP	-15082
▁HINT	-15083
▁IAIN	-15084
▁IAPA	-15085
▁IFSR	-15086
▁IKMD	-15087
▁INTI	-15088
▁IUCN	-15089
▁JARB	-15090
▁KAUP	-15091
▁KOPI	-15092
▁KORP	-15093
▁KPLP	-15094
▁KUAN	-15095
▁LKPJ	-15096
▁LPEM	-15097
▁Lian	-15098
▁MAAM	-15099
▁MAMM	-15100
▁NESA	-15101
▁NICH	-15102
▁OTTE	-15103
▁PANG	-15104
▁PHDI	-15105
▁PLUS	-15106
▁PPRI	-15107
▁PSPS	-15108
▁Patt	-15109
▁QNET	-15110
▁RIVE	-15111
▁SKMA	-15112
▁SPAM	-15113
▁Side	-15114
▁TREV	-15115
▁UNDP	-15116
▁UTAI	-15117
▁UiTM	-15118
▁YPTA	-15119
▁adez	-15120
▁adji	-15121
▁adze	-15122
▁ahun	-15123
▁alay	-15124
▁alee	-15125
▁alib	-15126
▁amir	-15127
▁amon	-15128
▁anma	-15129
▁anun	-15130
▁arek	-15131
▁arji	-15132
▁arli	-15133
▁aroe	-15134
▁artz	-15135
▁atmi	-15136
▁atom	-15137
▁atus	-15138
▁aumb	-15139
▁avil	-15140
▁avor	-15141
▁avos	-15142
▁ayon	-15143
▁baba	-15144
▁bagu	-15145
▁bala	-15146
▁bapa	-15147
▁bida	-15148
▁bith	-15149
▁bull	-15150
▁catu	-15151
▁chet	-15152
▁cles	-15153
▁dati	-15154
▁dato	-15155
▁dhli	-15156
▁dhoc	-15157
▁diah	-15158
▁dine	-15159
▁dzka	-15160
▁ebuk	-15161
▁eese	-15162
▁egei	-15163
▁egok	-15164
▁eibo	-15165
▁eien	-15166
▁eixe	-15167
▁elda	-15168
▁elsa	-15169
▁elyn	-15170
▁enra	-15171
▁ereo	-15172
▁ergo	-15173
▁eson	-15174
▁esya	-15175
▁etti	-15176
▁etto	-15177
▁etup	-15178
▁evra	-15179
▁fika	-15180
▁foam	-15181
▁fren	-15182
▁gent	-15183
▁geru	-15184
▁gman	-15185
▁goro	-15186
▁haen	-15187
▁haha	-15188
▁hail	-15189
▁hant	-15190
▁hawk	-15191
▁hdum	-15192
▁herl	-15193
▁hiri	-15194
▁hiwa	-15195
▁hoir	-15196
▁holi	-15197
▁hori	-15198
▁hren	-15199
▁ibba	-15200
▁icar	-15201
▁idap	-15202
▁idas	-15203
▁iddo	-15204
▁idum	-15205
▁ifan	-15206
▁ijme	-15207
▁ikte	-15208
▁ilab	-15209
▁ilay	-15210
▁imau	-15211
▁inch	-15212
▁inee	-15213
▁ingu	-15214
▁init	-15215
▁inky	-15216
▁iogo	-15217
▁ipha	-15218
▁isph	-15219
▁itor	-15220
▁itsu	-15221
▁jito	-15222
▁kama	-15223
▁kana	-15224
▁koci	-15225
▁kord	-15226
▁kori	-15227
▁lfon	-15228
▁lika	-15229
▁lips	-15230
▁llin	-15231
▁loat	-15232
▁loma	-15233
▁lpon	-15234
▁luay	-15235
▁luyu	-15236
▁lvon	-15237
▁mail	-15238
▁mbai	-15239
▁mdas	-15240
▁mick	-15241
▁mida	-15242
▁mita	-15243
▁miwa	-15244
▁mpus	-15245
▁mrus	-15246
▁mzam	-15247
▁ncal	-15248
▁neda	-15249
▁neum	-15250
▁niac	-15251
▁njas	-15252
▁nkar	-15253
▁ntha	-15254
▁ntir	-15255
▁ntyo	-15256
▁nzar	-15257
▁ochi	-15258
▁oden	-15259
▁oela	-15260
▁oemi	-15261
▁ogav	-15262
▁ogen	-15263
▁oise	-15264
▁olba	-15265
▁olen	-15266
▁omah	-15267
▁omol	-15268
▁omun	-15269
▁onjo	-15270
▁onze	-15271
▁oots	-15272
▁opus	-15273
▁oren	-15274
▁orta	-15275
▁osco	-15276
▁otol	-15277
▁otta	-15278
▁outh	-15279
▁ozem	-15280
▁paet	-15281
▁pear	-15282
▁ptik	-15283
▁quar	-15284
▁rake	-15285
▁rauk	-15286
▁rave	-15287
▁rdim	-15288
▁reig	-15289
▁ress	-15290
▁rfak	-15291
▁roof	-15292
▁rper	-15293
▁sali	-15294
▁sche	-15295
▁sera	-15296
▁shul	-15297
▁simo	-15298
▁sior	-15299
▁sjid	-15300
▁snah	-15301
▁spol	-15302
▁stok	-15303
▁swan	-15304
▁swas	-15305
▁tank	-15306
▁tast	-15307
▁teak	-15308
▁tham	-15309
▁than	-15310
▁tias	-15311
▁tier	-15312
▁tock	-15313
▁trin	-15314
▁ttis	-15315
▁ucky	-15316
▁uest	-15317
▁ukau	-15318
▁umpi	-15319
▁unet	-15320
▁upol	-15321
▁urta	-15322
▁urur	-15323
▁usch	-15324
▁usen	-15325
▁usiy	-15326
▁usly	-15327
▁ussi	-15328
▁uton	-15329
▁vani	-15330
▁vera	-15331
▁wash	-15332
▁wesi	-15333
▁wila	-15334
▁wiro	-15335
▁wiya	-15336
▁yala	-15337
▁yans	-15338
▁yase	-15339
▁ying	-15340
▁ylah	-15341
▁yong	-15342
▁zrah	-15343
▁ABIRE	-15344
▁ATIQA	-15345
▁GILIM	-15346
▁IONIQ	-15347
▁Korup	-15348
▁Leaks	-15349
▁PLAND	-15350
▁PURWO	-15351
▁Widod	-15352
▁abfor	-15353
▁abhar	-15354
▁abies	-15355
▁ablas	-15356
▁abumi	-15357
▁afand	-15358
▁afsir	-15359
▁aison	-15360
▁akata	-15361
▁akuan	-15362
▁aliya	-15363
▁alter	-15364
▁amira	-15365
▁amrus	-15366
▁andhi	-15367
▁andle	-15368
▁anjer	-15369
▁annes	-15370
▁antae	-15371
▁anvas	-15372
▁arage	-15373
▁arbiy	-15374
▁arkup	-15375
▁astel	-15376
▁bados	-15377
▁belle	-15378
▁benua	-15379
▁brand	-15380
▁canth	-15381
▁chell	-15382
▁cided	-15383
▁dacan	-15384
▁dalgo	-15385
▁danar	-15386
▁darma	-15387
▁dayan	-15388
▁donan	-15389
▁ebana	-15390
▁ebron	-15391
▁eglov	-15392
▁empuy	-15393
▁enera	-15394
▁ennai	-15395
▁entum	-15396
▁ercah	-15397
▁ernas	-15398
▁ersky	-15399
▁ertum	-15400
▁esias	-15401
▁esset	-15402
▁etang	-15403
▁evina	-15404
▁filah	-15405
▁foria	-15406
▁galih	-15407
▁gelut	-15408
▁glise	-15409
▁gulat	-15410
▁halla	-15411
▁hamma	-15412
▁hanta	-15413
▁hilir	-15414
▁hukul	-15415
▁ickar	-15416
▁idera	-15417
▁ieran	-15418
▁igmen	-15419
▁ihram	-15420
▁ilege	-15421
▁iller	-15422
▁illon	-15423
▁impah	-15424
▁inode	-15425
▁irdad	-15426
▁ironi	-15427
▁irrah	-15428
▁irton	-15429
▁isher	-15430
▁isode	-15431
▁issis	-15432
▁issue	-15433
▁itude	-15434
▁iukur	-15435
▁kaaki	-15436
▁karat	-15437
▁kikis	-15438
▁komen	-15439
▁kutik	-15440
▁kziah	-15441
▁lamil	-15442
▁lecut	-15443
▁liabu	-15444
▁lobin	-15445
▁lving	-15446
▁milla	-15447
▁mitha	-15448
▁mizah	-15449
▁mlasi	-15450
▁msari	-15451
▁naifi	-15452
▁negie	-15453
▁negro	-15454
▁ntari	-15455
▁nthon	-15456
▁ntong	-15457
▁omogi	-15458
▁onfli	-15459
▁ophie	-15460
▁opkin	-15461
▁orgum	-15462
▁polar	-15463
▁pprec	-15464
▁rahin	-15465
▁rakti	-15466
▁ramas	-15467
▁ranko	-15468
▁ranti	-15469
▁ranty	-15470
▁rawak	-15471
▁resan	-15472
▁resso	-15473
▁riton	-15474
▁rlife	-15475
▁rnata	-15476
▁rosir	-15477
▁rsino	-15478
▁ruman	-15479
▁samad	-15480
▁scarv	-15481
▁scher	-15482
▁sible	-15483
▁sourc	-15484
▁stiwa	-15485
▁stori	-15486
▁tachi	-15487
▁tahae	-15488
▁taver	-15489
▁testa	-15490
▁tfest	-15491
▁thing	-15492
▁tipid	-15493
▁traDC	-15494
▁trika	-15495
▁tring	-15496
▁ttama	-15497
▁tungg	-15498
▁ubmis	-15499
▁ugder	-15500
▁ulfat	-15501
▁umper	-15502
▁unday	-15503
▁uping	-15504
▁ureau	-15505
▁urora	-15506
▁uvall	-15507
▁wando	-15508
▁wates	-15509
▁weyai	-15510
▁wiksa	-15511
▁wiran	-15512
▁yahid	-15513
▁yrian	-15514
+2	-15515
/3	-15516
24	-15517
CF	-15518
DM	-15519
FM	-15520
GS	-15521
Ho	-15522
JU	-15523
LK	-15524
OO	-15525
QC	-15526
SH	-15527
TD	-15528
TL	-15529
WJ	-15530
aw	-15531
cc	-15532
dj	-15533
iv	-15534
js	-15535
nc	-15536
qa	-15537
rd	-15538
xi	-15539
ão	-15540
ín	-15541
▁>	-15542
▁`	-15543
BTV	-15544
DIA	-15545
ING	-15546
IPI	-15547
KAI	-15548
MAT	-15549
RPP	-15550
ahi	-15551
eko	-15552
fie	-15553
fir	-15554
fiz	-15555
hya	-15556
ife	-15557
jad	-15558
mat	-15559
mus	-15560
new	-15561
nyo	-15562
rin	-15563
sey	-15564
ulo	-15565
uma	-15566
uno	-15567
urd	-15568
zan	-15569
▁$7	-15570
▁0%	-15571
▁1)	-15572
▁6%	-15573
▁BY	-15574
▁CK	-15575
▁Dl	-15576
▁GD	-15577
▁GU	-15578
▁Hz	-15579
▁IE	-15580
▁IZ	-15581
▁Pn	-15582
▁UG	-15583
▁VM	-15584
▁bp	-15585
▁eB	-15586
▁eL	-15587
▁hb	-15588
▁iX	-15589
▁qo	-15590
UMAI	-15591
onso	-15592
▁$50	-15593
▁(15	-15594
▁(17	-15595
▁(19	-15596
▁(5)	-15597
▁(50	-15598
▁0,2	-15599
▁0-4	-15600
▁01.	-15601
▁043	-15602
▁1-5	-15603
▁10.	-15604
▁178	-15605
▁183	-15606
▁192	-15607
▁198	-15608
▁201	-15609
▁206	-15610
▁253	-15611
▁262	-15612
▁275	-15613
▁276	-15614
▁282	-15615
▁3-5	-15616
▁301	-15617
▁303	-15618
▁318	-15619
▁324	-15620
▁335	-15621
▁354	-15622
▁372	-15623
▁4-0	-15624
▁410	-15625
▁445	-15626
▁480	-15627
▁5,6	-15628
▁5,9	-15629
▁5-1	-15630
▁508	-15631
▁51%	-15632
▁520	-15633
▁527	-15634
▁570	-15635
▁59,	-15636
▁660	-15637
▁685	-15638
▁720	-15639
▁85%	-15640
▁AIS	-15641
▁AMH	-15642
▁ASF	-15643
▁AST	-15644
▁ATL	-15645
▁Aam	-15646
▁Aid	-15647
▁Aky	-15648
▁Ami	-15649
▁Aon	-15650
▁BEL	-15651
▁BGN	-15652
▁BHC	-15653
▁BKK	-15654
▁BOT	-15655
▁BSB	-15656
▁BWI	-15657
▁Bae	-15658
▁Buy	-15659
▁CKL	-15660
▁CKM	-15661
▁CPP	-15662
▁DAM	-15663
▁DAU	-15664
▁DEI	-15665
▁DIK	-15666
▁DRC	-15667
▁Dex	-15668
▁EMT	-15669
▁ETH	-15670
▁EXi	-15671
▁Eep	-15672
▁Elf	-15673
▁Eli	-15674
▁Ero	-15675
▁Eun	-15676
▁FKM	-15677
▁FRI	-15678
▁GCC	-15679
▁GON	-15680
▁GPU	-15681
▁GTA	-15682
▁Gay	-15683
▁Gum	-15684
▁HAS	-15685
▁HDC	-15686
▁HMJ	-15687
▁HRC	-15688
▁IBA	-15689
▁IDU	-15690
▁IKU	-15691
▁INS	-15692
▁IOT	-15693
▁IRS	-15694
▁Isr	-15695
▁JFK	-15696
▁JMF	-15697
▁JVS	-15698
▁Jae	-15699
▁KAD	-15700
▁KIC	-15701
▁KLB	-15702
▁KLX	-15703
▁KRB	-15704
▁Kav	-15705
▁LAS	-15706
▁LNK	-15707
▁LPM	-15708
▁Lip	-15709
▁MCP	-15710
▁MJM	-15711
▁MOT	-15712
▁MTF	-15713
▁MTs	-15714
▁MYD	-15715
▁NAP	-15716
▁NBS	-15717
▁NFT	-15718
▁NHC	-15719
▁NSA	-15720
▁Now	-15721
▁OAS	-15722
▁OCS	-15723
▁OPC	-15724
▁OTP	-15725
▁OTR	-15726
▁Oke	-15727
▁Ous	-15728
▁PEF	-15729
▁PGS	-15730
▁Pai	-15731
▁Phu	-15732
▁RAF	-15733
▁RAW	-15734
▁RJB	-15735
▁RPM	-15736
▁RSV	-15737
▁RUN	-15738
▁RYD	-15739
▁SAG	-15740
▁SAS	-15741
▁SBI	-15742
▁SCI	-15743
▁SDF	-15744
▁SDI	-15745
▁SEM	-15746
▁SGI	-15747
▁SHP	-15748
▁SOC	-15749
▁SPP	-15750
▁STF	-15751
▁STR	-15752
▁STV	-15753
▁SUN	-15754
▁Suv	-15755
▁TAA	-15756
▁TBM	-15757
▁TPM	-15758
▁TTS	-15759
▁Tal	-15760
▁Tao	-15761
▁Tuo	-15762
▁ULM	-15763
▁UPP	-15764
▁Uut	-15765
▁VAI	-15766
▁VoA	-15767
▁Vol	-15768
▁Von	-15769
▁WRT	-15770
▁XYZ	-15771
▁Yek	-15772
▁Yun	-15773
▁aol	-15774
▁ayL	-15775
▁aze	-15776
▁baf	-15777
▁cky	-15778
▁dav	-15779
▁diz	-15780
▁doe	-15781
▁eaw	-15782
▁eim	-15783
▁enr	-15784
▁esh	-15785
▁gla	-15786
▁gma	-15787
▁hod	-15788
▁hta	-15789
▁huo	-15790
▁hyt	-15791
▁iab	-15792
▁ilt	-15793
▁irc	-15794
▁isn	-15795
▁kba	-15796
▁lfa	-15797
▁liz	-15798
▁lty	-15799
▁mho	-15800
▁nip	-15801
▁nro	-15802
▁nyo	-15803
▁nyu	-15804
▁oca	-15805
▁oji	-15806
▁oks	-15807
▁onk	-15808
▁opp	-15809
▁oza	-15810
▁rir	-15811
▁rme	-15812
▁sco	-15813
▁sot	-15814
▁sst	-15815
▁tda	-15816
▁tth	-15817
▁uen	-15818
▁unw	-15819
▁uol	-15820
▁uon	-15821
▁usp	-15822
▁uxi	-15823
▁vad	-15824
▁wih	-15825
▁yeb	-15826
▁zis	-15827
▁AKSI	-15828
▁AMLO	-15829
▁AMPI	-15830
▁APHR	-15831
▁ARPG	-15832
▁BIMS	-15833
▁BPJN	-15834
▁Bisa	-15835
▁CNBC	-15836
▁CPEC	-15837
▁ELAL	-15838
▁ELIT	-15839
▁ERAN	-15840
▁GOWA	-15841
▁HMSI	-15842
▁HURI	-15843
▁ICBM	-15844
▁IPPP	-15845
▁JDIH	-15846
▁KAMP	-15847
▁KILA	-15848
▁KOVO	-15849
▁Kwan	-15850
▁LKPD	-15851
▁LPMM	-15852
▁MAND	-15853
▁MENA	-15854
▁MORO	-15855
▁MPLS	-15856
▁MacA	-15857
▁NAIR	-15858
▁OATS	-15859
▁OCBC	-15860
▁ONWJ	-15861
▁OPPO	-15862
▁PDGI	-15863
▁PGTC	-15864
▁PHBS	-15865
▁PISA	-15866
▁PKWT	-15867
▁PPJT	-15868
▁PSBI	-15869
▁PSLB	-15870
▁SBDJ	-15871
▁SIAL	-15872
▁SIHT	-15873
▁SLTA	-15874
▁Seas	-15875
▁Succ	-15876
▁Suns	-15877
▁TANI	-15878
▁ULOG	-15879
▁VBTV	-15880
▁WALI	-15881
▁acet	-15882
▁achi	-15883
▁acht	-15884
▁agad	-15885
▁agok	-15886
▁agut	-15887
▁agyo	-15888
▁ahce	-15889
▁ahel	-15890
▁ahru	-15891
▁ahul	-15892
▁akis	-15893
▁alag	-15894
▁aldj	-15895
▁alip	-15896
▁alve	-15897
▁amoy	-15898
▁anai	-15899
▁anic	-15900
▁apes	-15901
▁aqwa	-15902
▁ariy	-15903
▁arka	-15904
▁armi	-15905
▁armo	-15906
▁aroh	-15907
▁arpu	-15908
▁asay	-15909
▁ashy	-15910
▁asma	-15911
▁asra	-15912
▁aste	-15913
▁atha	-15914
▁atup	-15915
▁auli	-15916
▁awny	-15917
▁awur	-15918
▁ayun	-15919
▁aziz	-15920
▁beat	-15921
▁bhar	-15922
▁blat	-15923
▁bley	-15924
▁boga	-15925
▁bott	-15926
▁bvit	-15927
▁byte	-15928
▁chia	-15929
▁chuk	-15930
▁cole	-15931
▁corn	-15932
▁cout	-15933
▁djar	-15934
▁dlov	-15935
▁doya	-15936
▁dzam	-15937
▁eani	-15938
▁eaux	-15939
▁edhe	-15940
▁eget	-15941
▁eina	-15942
▁ekop	-15943
▁ekvy	-15944
▁eleg	-15945
▁elig	-15946
▁elle	-15947
▁enco	-15948
▁erri	-15949
▁etec	-15950
▁etel	-15951
▁etok	-15952
▁fati	-15953
▁gees	-15954
▁glik	-15955
▁gnas	-15956
▁gnon	-15957
▁goel	-15958
▁golo	-15959
▁gril	-15960
▁haba	-15961
▁hack	-15962
▁hanh	-15963
▁here	-15964
▁hfud	-15965
▁hien	-15966
▁hini	-15967
▁hley	-15968
▁hlon	-15969
▁hong	-15970
▁iQOO	-15971
▁ibom	-15972
▁ibum	-15973
▁icil	-15974
▁ides	-15975
▁igra	-15976
▁illo	-15977
▁ilma	-15978
▁imer	-15979
▁imik	-15980
▁immi	-15981
▁iniy	-15982
▁inur	-15983
▁iodi	-15984
▁ipet	-15985
▁ipih	-15986
▁ipol	-15987
▁ipon	-15988
▁irja	-15989
▁irot	-15990
▁isna	-15991
▁isse	-15992
▁ivai	-15993
▁izqi	-15994
▁jaer	-15995
▁jaka	-15996
▁jaki	-15997
▁jiah	-15998
▁kale	-15999
▁khri	-16000
▁kieb	-16001
▁kien	-16002
▁klik	-16003
▁klin	-16004
▁koco	-16005
▁kraf	-16006
▁kroa	-16007
▁lato	-16008
▁leet	-16009
▁leth	-16010
▁libo	-16011
▁lise	-16012
▁liur	-16013
▁losa	-16014
▁lowb	-16015
▁made	-16016
▁maru	-16017
▁mato	-16018
▁mbit	-16019
▁mbus	-16020
▁mish	-16021
▁molo	-16022
▁mote	-16023
▁mrow	-16024
▁muzi	-16025
▁naji	-16026
▁nana	-16027
▁ncel	-16028
▁ncen	-16029
▁ncin	-16030
▁ncou	-16031
▁ndap	-16032
▁ndji	-16033
▁ndua	-16034
▁nent	-16035
▁next	-16036
▁nodo	-16037
▁noop	-16038
▁npol	-16039
▁ntow	-16040
▁ntya	-16041
▁nusa	-16042
▁obak	-16043
▁obek	-16044
▁obon	-16045
▁odry	-16046
▁ofur	-16047
▁ogor	-16048
▁oice	-16049
▁oner	-16050
▁onne	-16051
▁onut	-16052
▁oppy	-16053
▁orok	-16054
▁osef	-16055
▁oton	-16056
▁otto	-16057
▁oven	-16058
▁paja	-16059
▁pauw	-16060
▁phop	-16061
▁piro	-16062
▁plah	-16063
▁plit	-16064
▁ppho	-16065
▁quat	-16066
▁rabu	-16067
▁rapy	-16068
▁razi	-16069
▁rber	-16070
▁rbil	-16071
▁rens	-16072
▁ript	-16073
▁riyo	-16074
▁rmuh	-16075
▁roon	-16076
▁rosa	-16077
▁rott	-16078
▁rsma	-16079
▁rush	-16080
▁rvin	-16081
▁saik	-16082
▁saqi	-16083
▁sbun	-16084
▁sdin	-16085
▁shaq	-16086
▁shii	-16087
▁sipp	-16088
▁slah	-16089
▁slan	-16090
▁smet	-16091
▁step	-16092
▁stru	-16093
▁swad	-16094
▁syir	-16095
▁tamo	-16096
▁tato	-16097
▁tban	-16098
▁tein	-16099
▁thai	-16100
▁tipe	-16101
▁tius	-16102
▁tlot	-16103
▁tope	-16104
▁tors	-16105
▁tran	-16106
▁trix	-16107
▁tual	-16108
▁ubko	-16109
▁ufth	-16110
▁uken	-16111
▁ulsi	-16112
▁umit	-16113
▁unez	-16114
▁upee	-16115
▁usuh	-16116
▁uver	-16117
▁uyon	-16118
▁vant	-16119
▁wami	-16120
▁xfam	-16121
▁yatt	-16122
▁ygro	-16123
▁ymen	-16124
▁yoto	-16125
▁zawa	-16126
▁zlem	-16127
▁ALIKA	-16128
▁Babel	-16129
▁COGAT	-16130
▁DUMAI	-16131
▁ENGDU	-16132
▁GKALP	-16133
▁INGAP	-16134
▁KPPBC	-16135
▁KPPPA	-16136
▁MSNBC	-16137
▁PUSAK	-16138
▁RSPAD	-16139
▁SNPMB	-16140
▁SPTJM	-16141
▁THAAD	-16142
▁TKRPP	-16143
▁UNWRA	-16144
▁acuni	-16145
▁afing	-16146
▁aguar	-16147
▁akara	-16148
▁akeup	-16149
▁altim	-16150
▁aluga	-16151
▁amang	-16152
▁amida	-16153
▁amsia	-16154
▁andoi	-16155
▁andul	-16156
▁aneet	-16157
▁ansip	-16158
▁antul	-16159
▁arada	-16160
▁araje	-16161
▁arapk	-16162
▁arfas	-16163
▁arita	-16164
▁arlem	-16165
▁armon	-16166
▁arrel	-16167
▁arsam	-16168
▁arury	-16169
▁ashir	-16170
▁assin	-16171
▁aster	-16172
▁astry	-16173
▁aucho	-16174
▁auhar	-16175
▁ayeuh	-16176
▁ayyan	-16177
▁bakti	-16178
▁bayev	-16179
▁being	-16180
▁bella	-16181
▁berry	-16182
▁binta	-16183
▁birin	-16184
▁birru	-16185
▁borgh	-16186
▁bourg	-16187
▁bsurd	-16188
▁buleu	-16189
▁carle	-16190
▁charm	-16191
▁check	-16192
▁cious	-16193
▁didas	-16194
▁dress	-16195
▁early	-16196
▁eatre	-16197
▁ebenz	-16198
▁ejoyo	-16199
▁ellow	-16200
▁eluka	-16201
▁elvin	-16202
▁emale	-16203
▁enahi	-16204
▁endar	-16205
▁endut	-16206
▁enemu	-16207
▁enset	-16208
▁enthu	-16209
▁ephon	-16210
▁eprai	-16211
▁eptik	-16212
▁erdik	-16213
▁erify	-16214
▁erona	-16215
▁eslav	-16216
▁ethel	-16217
▁eymar	-16218
▁folia	-16219
▁gamen	-16220
▁ganza	-16221
▁gbone	-16222
▁gello	-16223
▁gento	-16224
▁hanis	-16225
▁hofur	-16226
▁iamat	-16227
▁iamin	-16228
▁ikara	-16229
▁immel	-16230
▁intui	-16231
▁intya	-16232
▁irder	-16233
▁isade	-16234
▁isyam	-16235
▁itoma	-16236
▁iunus	-16237
▁ivali	-16238
▁ivere	-16239
▁iwara	-16240
▁kalik	-16241
▁khara	-16242
▁kikat	-16243
▁kinah	-16244
▁kogab	-16245
▁lasar	-16246
▁lavut	-16247
▁lipur	-16248
▁loroh	-16249
▁lther	-16250
▁malan	-16251
▁malil	-16252
▁mbada	-16253
▁meini	-16254
▁minot	-16255
▁mitsu	-16256
▁money	-16257
▁monia	-16258
▁mosin	-16259
▁mudji	-16260
▁nalar	-16261
▁nalog	-16262
▁nalur	-16263
▁nasir	-16264
▁navia	-16265
▁nazar	-16266
▁ndawa	-16267
▁ndler	-16268
▁nheal	-16269
▁niqab	-16270
▁nners	-16271
▁nneth	-16272
▁nrung	-16273
▁nteng	-16274
▁obahi	-16275
▁ogger	-16276
▁okgak	-16277
▁oleon	-16278
▁olich	-16279
▁ondol	-16280
▁opong	-16281
▁ottom	-16282
▁pagau	-16283
▁penad	-16284
▁pikal	-16285
▁pines	-16286
▁pplic	-16287
▁racun	-16288
▁raksa	-16289
▁rante	-16290
▁raujo	-16291
▁rawut	-16292
▁rdoba	-16293
▁remai	-16294
▁resen	-16295
▁ricio	-16296
▁ridie	-16297
▁riend	-16298
▁rimah	-16299
▁rinda	-16300
▁riott	-16301
▁rland	-16302
▁romah	-16303
▁rrima	-16304
▁rsela	-16305
▁rteri	-16306
▁silah	-16307
▁smito	-16308
▁sound	-16309
▁spoll	-16310
▁stand	-16311
▁sting	-16312
▁struk	-16313
▁sulap	-16314
▁swadi	-16315
▁sword	-16316
▁taman	-16317
▁taqwa	-16318
▁tazam	-16319
▁thica	-16320
▁tonga	-16321
▁train	-16322
▁ubair	-16323
▁ucuti	-16324
▁ugeot	-16325
▁umble	-16326
▁unton	-16327
▁untur	-16328
▁urich	-16329
▁urnit	-16330
▁usail	-16331
▁utsar	-16332
▁waite	-16333
▁wansa	-16334
▁wonii	-16335
▁yafii	-16336
▁yanza	-16337
▁zulul	-16338
.,	-16339
/5	-16340
12	-16341
2)	-16342
35	-16343
4,	-16344
5,	-16345
DT	-16346
Dr	-16347
El	-16348
MT	-16349
MY	-16350
PC	-16351
QR	-16352
Qi	-16353
RL	-16354
Ri	-16355
TB	-16356
UH	-16357
kg	-16358
kh	-16359
oa	-16360
oo	-16361
ou	-16362
tt	-16363
ug	-16364
uy	-16365
éa	-16366
ée	-16367
▁ñ	-16368
ACT	-16369
ATF	-16370
CON	-16371
DAH	-16372
EAC	-16373
EMU	-16374
ENT	-16375
EST	-16376
JOP	-16377
MAC	-16378
MBI	-16379
ONG	-16380
ORK	-16381
PKB	-16382
PKP	-16383
PUL	-16384
RIK	-16385
ben	-16386
cke	-16387
dat	-16388
ele	-16389
etr	-16390
fit	-16391
gle	-16392
gom	-16393
hel	-16394
ili	-16395
kar	-16396
kov	-16397
lio	-16398
ont	-16399
ony	-16400
orn	-16401
que	-16402
rac	-16403
ros	-16404
ruk	-16405
sen	-16406
sie	-16407
suf	-16408
uba	-16409
ulk	-16410
vik	-16411
yod	-16412
▁#2	-16413
▁$4	-16414
▁'2	-16415
▁EQ	-16416
▁FU	-16417
▁HF	-16418
▁HV	-16419
▁KG	-16420
▁LV	-16421
▁Má	-16422
▁RG	-16423
▁WL	-16424
▁XR	-16425
▁Xe	-16426
▁YF	-16427
▁YH	-16428
▁ZR	-16429
▁Zi	-16430
▁eM	-16431
▁gw	-16432
▁iB	-16433
▁iH	-16434
▁iS	-16435
▁ić	-16436
▁rq	-16437
▁sz	-16438
▁tk	-16439
▁wn	-16440
▁án	-16441
▁óp	-16442
EBOT	-16443
tera	-16444
émon	-16445
▁(14	-16446
▁(16	-16447
▁(30	-16448
▁003	-16449
▁04,	-16450
▁05,	-16451
▁08,	-16452
▁16%	-16453
▁207	-16454
▁228	-16455
▁233	-16456
▁235	-16457
▁243	-16458
▁248	-16459
▁25.	-16460
▁258	-16461
▁273	-16462
▁277	-16463
▁28%	-16464
▁285	-16465
▁293	-16466
▁298	-16467
▁304	-16468
▁321	-16469
▁33,	-16470
▁333	-16471
▁346	-16472
▁352	-16473
▁38.	-16474
▁381	-16475
▁39,	-16476
▁399	-16477
▁406	-16478
▁416	-16479
▁434	-16480
▁435	-16481
▁451	-16482
▁453	-16483
▁46,	-16484
▁47,	-16485
▁470	-16486
▁49,	-16487
▁490	-16488
▁493	-16489
▁5%.	-16490
▁5,4	-16491
▁5-8	-16492
▁514	-16493
▁524	-16494
▁560	-16495
▁580	-16496
▁6,8	-16497
▁6.6	-16498
▁634	-16499
▁65%	-16500
▁680	-16501
▁698	-16502
▁7,4	-16503
▁72,	-16504
▁751	-16505
▁770	-16506
▁9,7	-16507
▁9,8	-16508
▁950	-16509
▁AAA	-16510
▁AAF	-16511
▁AAN	-16512
▁ABe	-16513
▁ACA	-16514
▁ACE	-16515
▁AET	-16516
▁AFJ	-16517
▁AIP	-16518
▁APQ	-16519
▁ARN	-16520
▁AUM	-16521
▁AWA	-16522
▁AWS	-16523
▁BAF	-16524
▁BAL	-16525
▁BDH	-16526
▁BET	-16527
▁BMX	-16528
▁BNC	-16529
▁CAL	-16530
▁CBD	-16531
▁CBL	-16532
▁CEL	-16533
▁CGB	-16534
▁CGT	-16535
▁CNI	-16536
▁CPD	-16537
▁DAD	-16538
▁DJI	-16539
▁DRL	-16540
▁DSA	-16541
▁DST	-16542
▁Del	-16543
▁FAN	-16544
▁FAS	-16545
▁FDI	-16546
▁FFA	-16547
▁FFF	-16548
▁FIG	-16549
▁FNF	-16550
▁FOK	-16551
▁FTI	-16552
▁Fat	-16553
▁GBU	-16554
▁GEL	-16555
▁GGL	-16556
▁GKI	-16557
▁GPR	-16558
▁GPT	-16559
▁GSI	-16560
▁GSX	-16561
▁Gym	-16562
▁HAI	-16563
▁HDL	-16564
▁HGB	-16565
▁HGN	-16566
▁Hay	-16567
▁Hua	-16568
▁Hue	-16569
▁IEA	-16570
▁IER	-16571
▁IES	-16572
▁IKD	-16573
▁ILA	-16574
▁IMP	-16575
▁IMX	-16576
▁INF	-16577
▁IOP	-16578
▁IRC	-16579
▁ISP	-16580
▁Ice	-16581
▁Iga	-16582
▁Iti	-16583
▁JBT	-16584
▁JEP	-16585
▁JFC	-16586
▁JPO	-16587
▁JSA	-16588
▁KEN	-16589
▁KLJ	-16590
▁KPC	-16591
▁KSM	-16592
▁KUB	-16593
▁KUD	-16594
▁LAT	-16595
▁Lay	-16596
▁Log	-16597
▁Luk	-16598
▁Luz	-16599
▁MBU	-16600
▁MCC	-16601
▁MES	-16602
▁MHE	-16603
▁MIF	-16604
▁MKI	-16605
▁MLA	-16606
▁MMC	-16607
▁MMP	-16608
▁MPS	-16609
▁MTA	-16610
▁MWA	-16611
▁McE	-16612
▁Mok	-16613
▁NHS	-16614
▁NIM	-16615
▁NKE	-16616
▁NTP	-16617
▁NUS	-16618
▁Nam	-16619
▁OKP	-16620
▁OPT	-16621
▁Ogi	-16622
▁Ony	-16623
▁Opa	-16624
▁Ora	-16625
▁PER	-16626
▁PIA	-16627
▁PMJ	-16628
▁PMT	-16629
▁PPM	-16630
▁PWM	-16631
▁REP	-16632
▁RFK	-16633
▁RIB	-16634
▁RMA	-16635
▁RQi	-16636
▁RRC	-16637
▁RSO	-16638
▁RSS	-16639
▁Ran	-16640
▁Rem	-16641
▁SBC	-16642
▁SIC	-16643
▁SMM	-16644
▁SSI	-16645
▁SUS	-16646
▁Sdn	-16647
▁Slo	-16648
▁TEK	-16649
▁TIJ	-16650
▁TJM	-16651
▁TRC	-16652
▁TTL	-16653
▁Tho	-16654
▁ToT	-16655
▁Two	-16656
▁UBS	-16657
▁UFO	-16658
▁UGD	-16659
▁UKP	-16660
▁UPA	-16661
▁USK	-16662
▁Umm	-16663
▁VLL	-16664
▁VoB	-16665
▁Wes	-16666
▁Woo	-16667
▁XTC	-16668
▁XXV	-16669
▁YSK	-16670
▁YZR	-16671
▁Yol	-16672
▁Zin	-16673
▁aah	-16674
▁abs	-16675
▁aqi	-16676
▁arx	-16677
▁ave	-16678
▁axy	-16679
▁ayt	-16680
▁biy	-16681
▁cne	-16682
▁cot	-16683
▁cqu	-16684
▁daq	-16685
▁daw	-16686
▁drg	-16687
▁due	-16688
▁dvo	-16689
▁dwi	-16690
▁dyo	-16691
▁eVX	-16692
▁eac	-16693
▁eah	-16694
▁edD	-16695
▁ekp	-16696
▁eya	-16697
▁fal	-16698
▁fav	-16699
▁fro	-16700
▁guy	-16701
▁gya	-16702
▁hau	-16703
▁hew	-16704
▁hog	-16705
▁hru	-16706
▁idh	-16707
▁iju	-16708
▁ilh	-16709
▁ipo	-16710
▁jiv	-16711
▁kWp	-16712
▁kih	-16713
▁kjo	-16714
▁kpj	-16715
▁kpu	-16716
▁kyt	-16717
▁lef	-16718
▁loo	-16719
▁lqi	-16720
▁lsu	-16721
▁mra	-16722
▁mru	-16723
▁nca	-16724
▁nix	-16725
▁ohu	-16726
▁oif	-16727
▁oja	-16728
▁orf	-16729
▁oyu	-16730
▁pko	-16731
▁ppa	-16732
▁reh	-16733
▁rre	-16734
▁rve	-16735
▁rys	-16736
▁sgo	-16737
▁siu	-16738
▁sop	-16739
▁tob	-16740
▁twn	-16741
▁ubo	-16742
▁uev	-16743
▁vri	-16744
▁wig	-16745
▁wiy	-16746
▁wol	-16747
▁yib	-16748
▁ynd	-16749
▁ürt	-16750
▁ACMS	-16751
▁AGEN	-16752
▁AKIM	-16753
▁AKPI	-16754
▁AMER	-16755
▁AMPG	-16756
▁APVI	-16757
▁ARCE	-16758
▁ARFI	-16759
▁ASIV	-16760
▁ATES	-16761
▁AUAN	-16762
▁AUTP	-16763
▁BAIS	-16764
▁BASF	-16765
▁CIAM	-16766
▁CNGR	-16767
▁COTA	-16768
▁Calo	-16769
▁DJSN	-16770
▁DPLK	-16771
▁DTKS	-16772
▁ENSO	-16773
▁EPUL	-16774
▁ERMA	-16775
▁FMCG	-16776
▁FORM	-16777
▁HBKN	-16778
▁HEAC	-16779
▁IAPF	-16780
▁ICJR	-16781
▁IISF	-16782
▁IKAD	-16783
▁IKRW	-16784
▁IPIP	-16785
▁IPSI	-16786
▁ISRA	-16787
▁ISSF	-16788
▁ITAS	-16789
▁ITSS	-16790
▁KBLB	-16791
▁KKPD	-16792
▁KLAT	-16793
▁LIGH	-16794
▁LIOS	-16795
▁LLDi	-16796
▁LONA	-16797
▁Life	-16798
▁MDMB	-16799
▁MHDI	-16800
▁MILO	-16801
▁MODA	-16802
▁MOVE	-16803
▁Moen	-16804
▁OASE	-16805
▁OLDA	-16806
▁PITI	-16807
▁PNRE	-16808
▁PTPS	-16809
▁PTSP	-16810
▁RIMP	-16811
▁ROGO	-16812
▁ROIS	-16813
▁RTRW	-16814
▁SATU	-16815
▁SKCK	-16816
▁SMAP	-16817
▁SOGO	-16818
▁Soro	-16819
▁TAPD	-16820
▁VAIA	-16821
▁WIUP	-16822
▁WJIS	-16823
▁YKMI	-16824
▁YORK	-16825
▁Yuen	-16826
▁abuk	-16827
▁acho	-16828
▁achs	-16829
▁adeh	-16830
▁aduk	-16831
▁aeri	-16832
▁afie	-16833
▁afsu	-16834
▁aido	-16835
▁aisi	-16836
▁ajek	-16837
▁akel	-16838
▁aken	-16839
▁alaq	-16840
▁alog	-16841
▁amel	-16842
▁amiy	-16843
▁anac	-16844
▁anuk	-16845
▁apeh	-16846
▁apos	-16847
[...]
