<unk>	0
<s>	0
</s>	0
▁.	-3.64746
▁к	-3.73066
▁,	-3.97017
▁б	-4.11412
н	-4.28767
▁м	-4.41395
▁т	-4.432
▁-	-4.48581
▁"	-4.5624
р	-4.56675
▁ж	-4.59678
▁н	-4.66419
л	-4.66788
т	-4.77771
а	-4.80761
к	-4.88721
▁да	-4.93524
▁с	-5.03663
▁ган	-5.04728
п	-5.07787
▁д	-5.12773
▁а	-5.1362
и	-5.22377
▁ы	-5.24871
▁К	-5.26557
▁га	-5.41029
▁А	-5.46411
▁менен	-5.46603
▁Б	-5.4777
▁и	-5.50063
▁2	-5.55169
▁о	-5.5715
▁жана	-5.59256
е	-5.59859
▁дын	-5.61604
▁1	-5.63371
▁М	-5.68377
▁нын	-5.68528
д	-5.71444
▁0	-5.74049
▁ар	-5.75098
▁ия	-5.8118
▁бир	-5.81224
о	-5.83469
ы	-5.84827
▁у	-5.85284
▁ал	-5.85606
ш	-5.87185
й	-5.8906
▁э	-5.92348
▁лар	-5.93248
▁кан	-5.95195
▁ко	-5.96112
▁тар	-5.96706
▁Т	-5.9824
г	-5.98243
м	-6.01443
▁ды	-6.01945
▁ч	-6.03488
▁ында	-6.03805
▁С	-6.04887
▁ып	-6.05433
▁нда	-6.08278
▁деп	-6.08806
▁л	-6.11762
▁п	-6.12399
▁ын	-6.12458
▁гы	-6.12536
▁жат	-6.1496
▁уу	-6.15192
з	-6.17018
▁О	-6.17864
▁лык	-6.18832
▁ат	-6.20375
▁эле	-6.25915
ыргы	-6.26085
▁ка	-6.26829
▁сы	-6.26923
▁ай	-6.29488
▁на	-6.3102
▁дин	-6.31116
▁зстан	-6.3238
▁Ж	-6.32793
▁р	-6.3476
▁дан	-6.35065
у	-6.40041
▁ара	-6.40051
▁оюнча	-6.40617
▁кет	-6.41174
▁ге	-6.41218
▁маал	-6.43487
▁ына	-6.43933
▁дар	-6.47099
▁Ал	-6.47286
▁олгон	-6.47931
▁й	-6.48908
▁ү	-6.50255
▁ов	-6.53116
▁үү	-6.53527
▁бай	-6.54391
▁үчүн	-6.55122
▁бул	-6.55208
▁иште	-6.58282
▁бар	-6.59378
▁баш	-6.60194
гы	-6.60673
▁та	-6.61186
▁тик	-6.61647
▁кара	-6.62712
илди	-6.62786
▁туу	-6.62827
▁өлкө	-6.62854
амле	-6.63159
▁тур	-6.63825
▁луу	-6.63867
▁ымат	-6.64
▁тин	-6.64496
▁арды	-6.64616
▁стан	-6.65271
▁бери	-6.65405
▁9	-6.66213
▁ты	-6.66457
▁адам	-6.66826
▁туура	-6.67281
▁Бу	-6.67572
▁алды	-6.69507
▁е	-6.70986
▁деген	-6.71506
▁нин	-6.72032
инис	-6.7213
▁3	-6.72819
▁гөн	-6.7288
▁И	-6.73583
▁ген	-6.74566
▁Бир	-6.74671
▁өз	-6.74865
да	-6.75931
▁тер	-6.75966
▁анда	-6.76241
▁Э	-6.76297
▁де	-6.77293
▁алган	-6.77505
ок	-6.77675
ып	-6.77801
га	-6.79101
▁жок	-6.7953
▁айты	-6.79971
▁болуп	-6.8016
▁кы	-6.80654
▁ык	-6.80868
▁кал	-6.80998
▁русия	-6.82727
▁лер	-6.83339
ызма	-6.83712
▁бер	-6.84074
▁чейин	-6.85462
▁агы	-6.85789
▁ком	-6.87454
▁:	-6.87714
▁дун	-6.8806
▁5	-6.88458
▁гө	-6.88519
▁эмес	-6.9132
▁керек	-6.9199
▁Д	-6.9232
нд	-6.92835
▁ыйзам	-6.92999
▁дент	-6.93108
▁кыл	-6.93666
▁П	-6.95031
▁нун	-6.95425
▁кийин	-6.96866
▁алып	-6.97077
с	-6.97093
▁ке	-6.98062
▁иш	-6.99517
▁жатат	-6.99695
▁башка	-7.00451
ч	-7.00793
▁ин	-7.01182
▁ди	-7.01187
▁4	-7.01502
▁през	-7.01744
▁ары	-7.0232
▁дү	-7.02441
▁(	-7.0309
▁белги	-7.03099
▁го	-7.03142
▁)	-7.04878
▁ку	-7.05118
ц	-7.05357
▁үп	-7.05546
▁бек	-7.06032
▁унда	-7.06373
▁айт	-7.07362
▁нүн	-7.07799
▁жылы	-7.08172
б	-7.08655
▁ндө	-7.08903
▁си	-7.09969
▁кө	-7.10445
▁эки	-7.1071
▁ф	-7.10934
▁көп	-7.12976
▁ун	-7.13326
▁учур	-7.13395
▁8	-7.13593
▁ти	-7.13646
▁7	-7.14119
абыл	-7.1508
▁не	-7.1535
▁те	-7.15817
раи	-7.16501
▁лөр	-7.1659
арды	-7.16598
▁эл	-7.16715
▁инде	-7.17119
▁6	-7.17129
▁асы	-7.18011
▁ук	-7.18697
▁шайл	-7.18808
ар	-7.18965
▁тан	-7.20064
▁рди	-7.20524
▁ны	-7.21398
▁дө	-7.21537
▁ланыш	-7.21787
▁	-7.22017
▁анын	-7.22785
▁ыргыз	-7.23804
▁У	-7.24032
атар	-7.2469
▁сү	-7.24703
▁?	-7.2473
▁ду	-7.26197
▁каршы	-7.26397
елге	-7.26509
▁з	-7.26791
▁ишкек	-7.26826
▁жолу	-7.27383
▁киши	-7.27664
енин	-7.27702
▁ө	-7.28075
▁тын	-7.28185
▁аселе	-7.30744
▁миң	-7.31373
▁ата	-7.31825
▁үй	-7.32074
▁ап	-7.32802
▁ден	-7.3362
лык	-7.34454
▁сын	-7.34909
▁ор	-7.35382
▁лери	-7.35792
▁алуу	-7.36126
▁ну	-7.36486
▁г	-7.36621
▁чыга	-7.37168
▁ик	-7.37727
▁Ук	-7.37916
▁облус	-7.38768
▁чыг	-7.39069
▁ла	-7.39225
▁он	-7.39417
▁бири	-7.39546
▁төр	-7.39849
▁уп	-7.39991
уу	-7.41211
егиз	-7.41251
▁про	-7.4164
▁ш	-7.41831
▁са	-7.42207
▁ийлик	-7.42584
▁орбор	-7.42673
▁дер	-7.42728
▁Ө	-7.42862
▁өкмөт	-7.43586
зыр	-7.43947
▁ынын	-7.44251
▁дөн	-7.45124
▁мурда	-7.45138
олдо	-7.45333
▁ич	-7.45592
▁үмкүн	-7.456
▁Н	-7.4596
▁ушу	-7.46088
▁болду	-7.46219
олбо	-7.46332
атыш	-7.46707
орго	-7.47625
▁жаңы	-7.47634
▁ер	-7.47666
▁же	-7.47782
▁лүү	-7.47849
▁Р	-7.49849
анын	-7.50104
▁аске	-7.50598
▁ой	-7.50837
▁ошо	-7.50901
▁ип	-7.51226
ал	-7.51664
ын	-7.52025
▁талап	-7.52195
▁чу	-7.522
▁оо	-7.52369
▁Ч	-7.52435
▁экен	-7.52548
▁сал	-7.52828
▁өө	-7.53318
▁райо	-7.53441
▁рда	-7.53552
▁ызмат	-7.53615
▁нде	-7.5448
▁кабар	-7.54562
▁ги	-7.54841
өрсө	-7.55338
▁Ш	-7.55451
етке	-7.55602
▁алын	-7.55686
▁сына	-7.56664
▁ууга	-7.56781
ча	-7.56959
▁айып	-7.57228
▁болот	-7.57422
▁ууда	-7.58251
акыр	-7.58796
▁инин	-7.588
▁эми	-7.58811
▁түш	-7.59055
▁ни	-7.59748
▁ң	-7.59959
▁тагы	-7.60074
▁чек	-7.60218
▁ээ	-7.60219
▁шаары	-7.60439
▁аны	-7.60449
түү	-7.60499
▁көр	-7.60857
▁тык	-7.61027
▁лары	-7.61457
▁дик	-7.6203
арма	-7.62195
▁күн	-7.62475
рус	-7.62552
▁тарт	-7.62638
▁Каза	-7.62972
▁дүн	-7.62988
▁ет	-7.63251
▁сыз	-7.63443
▁чыкк	-7.64348
▁ооп	-7.64695
▁уна	-7.64773
туу	-7.6518
▁етек	-7.65654
▁ан	-7.65671
▁ула	-7.66022
▁жылд	-7.661
▁ь	-7.66188
▁өт	-7.66361
▁биз	-7.66409
арыя	-7.66599
рлиг	-7.67229
▁Жап	-7.67398
▁ак	-7.67412
▁сөз	-7.67805
▁күч	-7.67811
▁аймак	-7.68137
▁өткө	-7.68322
▁үндү	-7.68397
▁түр	-7.68529
▁жыл	-7.68573
▁ок	-7.6875
▁гана	-7.68805
▁үч	-7.68855
▁башта	-7.68881
▁айы	-7.68921
▁окуя	-7.6951
▁жаш	-7.6968
▁аты	-7.70002
▁тарап	-7.70235
▁тө	-7.71764
▁жүр	-7.721
▁ент	-7.72536
▁огуш	-7.73121
▁оору	-7.73182
▁өрү	-7.73265
▁Ошо	-7.73434
▁деди	-7.73442
илли	-7.73739
ө	-7.73932
▁парт	-7.73937
▁кер	-7.74133
▁кол	-7.74214
▁рген	-7.74432
▁болсо	-7.74502
ку	-7.74812
ия	-7.75202
рези	-7.75293
уга	-7.76281
▁шаар	-7.76443
▁айла	-7.76581
ка	-7.76668
▁Аны	-7.76852
▁укук	-7.76983
▁сом	-7.76997
▁каза	-7.77035
▁дай	-7.77625
▁ашта	-7.77768
окто	-7.77926
▁тү	-7.7797
▁су	-7.78296
▁аары	-7.78643
▁чысы	-7.78801
▁түү	-7.7886
▁акча	-7.7896
опс	-7.79021
▁түз	-7.7937
▁ине	-7.79529
▁кен	-7.79557
айра	-7.80509
▁В	-7.80786
▁Жого	-7.80889
▁йт	-7.81158
кы	-7.81164
▁жаса	-7.81185
▁Х	-7.81412
▁үн	-7.81461
▁жер	-7.81671
▁ашы	-7.8169
▁чечим	-7.81991
▁жылды	-7.81999
▁акта	-7.82029
▁путат	-7.8231
виру	-7.82431
айры	-7.83004
ко	-7.83232
▁лган	-7.83397
▁инч	-7.83551
▁ардам	-7.8365
▁унун	-7.8407
▁арак	-7.84248
▁ынан	-7.84622
▁лук	-7.84641
▁жол	-7.84703
▁баев	-7.84878
ат	-7.85016
анд	-7.85332
▁пания	-7.85763
▁лан	-7.86114
оно	-7.86128
ерди	-7.86138
▁аба	-7.86149
▁кел	-7.86325
орон	-7.86328
▁Анда	-7.86744
▁Г	-7.86757
елиш	-7.87099
я	-7.87816
▁сот	-7.87879
▁өл	-7.88498
▁лор	-7.88581
өө	-7.88688
▁арма	-7.88826
алпы	-7.88885
▁дары	-7.8924
▁дүйнө	-7.89461
▁сунуш	-7.89606
▁абыз	-7.90089
▁я	-7.90108
▁мент	-7.90188
▁Азат	-7.90524
▁ылай	-7.90525
▁ту	-7.90539
▁ция	-7.90658
▁ышат	-7.90761
▁лоо	-7.9098
▁орун	-7.91363
өгү	-7.91381
▁алдар	-7.92064
▁ре	-7.92716
чү	-7.92738
▁ага	-7.92864
▁лүк	-7.9304
▁аяси	-7.9319
▁беков	-7.9338
де	-7.93383
▁атта	-7.93404
▁мика	-7.9347
▁до	-7.94781
▁чара	-7.94923
▁анык	-7.95004
▁өзгө	-7.95221
▁Кытай	-7.95329
▁кур	-7.95384
▁кү	-7.95407
▁лист	-7.95755
▁көз	-7.95876
▁Ф	-7.95893
▁им	-7.96058
▁алар	-7.96503
▁айма	-7.96672
▁орто	-7.96789
▁үнө	-7.97102
▁илди	-7.97134
▁өткөн	-7.97246
▁Кеңеш	-7.97545
▁албай	-7.97599
▁арасы	-7.97638
▁уздук	-7.97724
▁гон	-7.97838
▁ри	-7.97939
▁айтты	-7.98149
▁ян	-7.98166
▁эч	-7.98338
▁кана	-7.98589
▁жакшы	-7.98678
▁сиз	-7.98914
▁ылмыш	-7.99187
▁суу	-7.99219
▁ышы	-7.99438
▁нү	-7.99541
▁өзү	-8.00025
,	-8.00272
арат	-8.00341
▁авто	-8.00469
дө	-8.00489
▁денти	-8.00733
▁ады	-8.01126
▁жакы	-8.01155
▁элек	-8.01486
▁ганда	-8.01828
▁үргү	-8.0204
▁три	-8.02168
▁жөнү	-8.02192
▁парл	-8.02292
▁Евро	-8.02308
▁үйлө	-8.02348
▁дык	-8.02555
▁бы	-8.02842
▁атка	-8.0287
▁изди	-8.02906
▁Ко	-8.03243
▁кели	-8.03298
▁ткер	-8.03386
▁аркы	-8.03833
▁дук	-8.03972
▁тун	-8.04282
▁аш	-8.04909
.	-8.04992
▁акыр	-8.0515
нын	-8.05307
▁ерүү	-8.05572
▁көн	-8.05586
▁нө	-8.05684
▁түн	-8.05851
▁се	-8.05871
▁дей	-8.05892
▁жаз	-8.06039
▁ыйын	-8.06091
▁ев	-8.06545
▁аз	-8.06676
▁ким	-8.06884
▁каны	-8.06936
▁дон	-8.0694
▁чоң	-8.07086
еле	-8.07088
▁туру	-8.07247
▁лады	-8.07292
▁кам	-8.07338
▁жети	-8.07407
▁соң	-8.07455
▁Улут	-8.07795
ктяб	-8.07836
▁ча	-8.08354
▁чыгы	-8.08529
▁келет	-8.08552
рым	-8.08777
▁тал	-8.09206
▁элди	-8.09291
▁ина	-8.09515
▁экс	-8.10306
▁тыр	-8.10468
▁эк	-8.10691
▁Биз	-8.10806
▁кеңеш	-8.11269
▁дол	-8.11322
▁оом	-8.11578
▁аял	-8.11788
үнө	-8.11813
▁журн	-8.11969
▁илик	-8.12797
▁кат	-8.12868
бек	-8.12935
▁үнү	-8.12936
▁иши	-8.13083
▁күнү	-8.13149
▁ышты	-8.13279
▁бей	-8.13378
▁үл	-8.134
▁эсеп	-8.13474
▁чылык	-8.13892
▁бил	-8.14046
▁ала	-8.14216
▁АКШ	-8.14579
▁тиги	-8.14612
▁жара	-8.14705
▁жого	-8.14872
▁дор	-8.14907
▁ки	-8.14957
▁ымд	-8.15041
▁өр	-8.15047
▁порт	-8.15266
▁жазы	-8.15848
▁теги	-8.15857
▁бү	-8.16189
▁укта	-8.16253
▁үүгө	-8.16273
▁Ош	-8.16324
▁ылды	-8.16403
▁эске	-8.16535
▁турат	-8.16747
▁калды	-8.16853
▁чы	-8.16891
үү	-8.17005
▁дүү	-8.1767
▁Сады	-8.17776
▁иси	-8.17882
▁уучу	-8.1802
▁чет	-8.1817
▁өтөр	-8.18209
▁чүлү	-8.1828
▁кый	-8.18323
▁арты	-8.18332
аган	-8.18706
ече	-8.18744
▁Өзбе	-8.19064
▁топ	-8.19197
айда	-8.19506
▁Ала	-8.19764
▁алиев	-8.19798
▁ым	-8.2027
▁эң	-8.20463
үт	-8.20519
▁ей	-8.20637
мне	-8.20641
▁рдаал	-8.20693
▁ийли	-8.20908
ынын	-8.21002
үчө	-8.21017
рел	-8.21087
▁бала	-8.2116
▁Ай	-8.21367
▁мө	-8.2142
▁Мен	-8.21471
▁лаган	-8.21551
йыл	-8.21671
▁өтө	-8.21705
▁үүдө	-8.21814
гүн	-8.22081
раж	-8.22141
▁иссия	-8.22425
чки	-8.22491
▁отур	-8.22617
▁абал	-8.22766
▁түшү	-8.2307
▁шарт	-8.23249
акта	-8.23363
▁екем	-8.23438
▁арын	-8.23622
▁тен	-8.23623
▁үш	-8.23678
▁ркин	-8.24135
▁Тажи	-8.24167
▁ерги	-8.24378
▁быз	-8.24589
▁атал	-8.24611
▁йын	-8.24728
▁үр	-8.24746
▁нган	-8.24987
▁тери	-8.25067
▁жерде	-8.25147
▁ыкты	-8.25306
▁Кө	-8.25493
▁өкүл	-8.2562
▁титу	-8.26096
▁айыл	-8.26262
▁кою	-8.26713
▁пр	-8.26737
▁соци	-8.26738
раке	-8.26855
▁март	-8.26894
▁саны	-8.26944
▁пикир	-8.27241
▁ергөө	-8.27572
▁аган	-8.27681
▁очу	-8.27802
▁аксат	-8.27806
▁тр	-8.27859
▁тары	-8.2808
▁үрөш	-8.28353
▁жаша	-8.28638
акто	-8.28952
вар	-8.29138
дук	-8.29159
зөм	-8.29378
▁акы	-8.29562
еш	-8.29745
▁маан	-8.29751
▁ачык	-8.29822
▁боло	-8.30387
▁аясат	-8.30474
▁өтү	-8.30485
тур	-8.30787
▁кыз	-8.31046
▁алты	-8.31103
▁улут	-8.31109
▁орга	-8.31648
▁шек	-8.31681
▁расм	-8.31765
▁азы	-8.31934
өраг	-8.32182
▁ууну	-8.32571
▁аттар	-8.33063
▁гү	-8.33477
тив	-8.33536
та	-8.3357
▁ишке	-8.34694
▁шум	-8.34972
ма	-8.35013
▁үркия	-8.3513
▁жумуш	-8.35665
▁оор	-8.35683
▁илиц	-8.35717
▁ния	-8.36125
өлө	-8.36182
▁дем	-8.36468
▁аса	-8.36566
үн	-8.3661
▁болчу	-8.36688
го	-8.36822
▁таш	-8.37171
▁тор	-8.37185
▁диги	-8.37214
▁ектеп	-8.37343
▁ыгы	-8.3773
▁меди	-8.37947
▁тук	-8.38148
▁лды	-8.38519
▁чеч	-8.38648
ара	-8.38831
▁ада	-8.38894
▁ири	-8.39148
▁Азия	-8.39163
▁оку	-8.39523
▁му	-8.39688
▁бүлө	-8.39836
▁берди	-8.4017
▁айга	-8.40391
▁еп	-8.40533
▁лгон	-8.40569
лика	-8.40578
▁кор	-8.40861
ф	-8.40865
▁убак	-8.41356
▁тил	-8.41369
ургу	-8.41486
▁инен	-8.41711
асма	-8.42113
▁за	-8.4236
▁өс	-8.42369
▁тааны	-8.42404
▁ылган	-8.42433
вгус	-8.42532
ды	-8.42637
▁грам	-8.42757
▁лект	-8.43134
▁сура	-8.43356
▁май	-8.43691
▁кайт	-8.44127
▁айда	-8.44188
▁тта	-8.44218
▁келе	-8.44461
▁лог	-8.44465
▁ист	-8.44539
▁рру	-8.44544
▁мат	-8.44928
▁Эл	-8.45117
▁алыш	-8.45292
▁нояб	-8.45383
▁УКМК	-8.45524
үндө	-8.45849
▁акц	-8.45866
▁добу	-8.45913
▁ел	-8.45964
ган	-8.46114
асы	-8.46406
▁пай	-8.46442
▁жылга	-8.46487
пц	-8.46574
▁аев	-8.46765
▁суроо	-8.46781
▁жаран	-8.46806
▁сана	-8.46874
▁жак	-8.46903
▁айын	-8.46943
▁лиде	-8.47157
▁илер	-8.47251
▁аткен	-8.47649
▁озг	-8.47884
алам	-8.48254
өбү	-8.48387
▁макул	-8.48541
▁илим	-8.48732
окум	-8.49306
▁теле	-8.49325
▁толу	-8.49411
якт	-8.49738
▁дуу	-8.49878
▁ылты	-8.4988
▁төрү	-8.49892
▁ишен	-8.49975
▁тоо	-8.50068
00	-8.50248
▁омду	-8.50264
▁салуу	-8.50271
▁кир	-8.50567
▁рүү	-8.50587
лушу	-8.50673
▁сында	-8.50698
▁коюл	-8.51016
екаб	-8.51144
▁юш	-8.51184
▁амиле	-8.51476
▁соту	-8.51869
▁саат	-8.51934
▁ылда	-8.51954
бөй	-8.51979
▁жөнө	-8.52101
рат	-8.52148
үл	-8.5221
емь	-8.52574
ге	-8.52793
рда	-8.5282
▁түзү	-8.53187
▁банк	-8.53317
▁Абд	-8.5336
▁ерен	-8.53485
▁чогу	-8.53609
▁ру	-8.53609
▁нды	-8.53668
▁өк	-8.53787
▁салы	-8.54199
огу	-8.54241
атта	-8.54658
▁Абад	-8.54859
▁абуул	-8.54974
▁суна	-8.55106
▁уз	-8.55136
▁кылы	-8.55232
▁ыкка	-8.55275
▁ишин	-8.55309
▁кеч	-8.55821
▁гөчө	-8.55821
▁өөнөт	-8.55898
▁чү	-8.56193
▁арыз	-8.56274
▁Путин	-8.56372
▁ыбыз	-8.56398
▁тышк	-8.56506
ышкы	-8.56507
аала	-8.56633
▁тынч	-8.56789
▁Л	-8.568
▁армак	-8.56904
▁видео	-8.56971
▁олбо	-8.56993
▁мен	-8.5713
▁Би	-8.57311
▁уула	-8.5733
▁ишка	-8.57331
▁уулу	-8.57549
▁атчы	-8.57717
▁ана	-8.58083
▁пайд	-8.58092
▁тарых	-8.58392
▁бере	-8.58457
▁Ошон	-8.5857
унун	-8.58797
▁ашуу	-8.58817
еше	-8.58876
▁дейт	-8.58926
▁кинчи	-8.59197
лам	-8.59298
▁июл	-8.59361
йло	-8.59402
▁аген	-8.59461
▁ска	-8.59504
ентя	-8.59761
илим	-8.59882
▁кети	-8.59959
▁алдуу	-8.59992
e	-8.60263
▁нерсе	-8.60267
▁себеп	-8.60308
▁ирги	-8.60334
▁айым	-8.6039
▁илген	-8.60574
▁зүн	-8.6059
▁так	-8.60605
▁камак	-8.60866
▁ыш	-8.60976
▁Ну	-8.61106
▁ылмы	-8.61162
▁бөлү	-8.61167
▁ация	-8.6125
▁Ак	-8.61296
урда	-8.61424
▁чилик	-8.61622
айын	-8.61633
▁окуу	-8.61676
▁аттык	-8.61839
▁одо	-8.62019
▁Ү	-8.62334
▁тажи	-8.62426
нкү	-8.62434
▁ант	-8.62598
▁шта	-8.62801
▁укугу	-8.63034
▁йгон	-8.63081
▁даяр	-8.63119
▁уч	-8.63448
▁ого	-8.63451
▁мун	-8.63652
▁чыкты	-8.6368
▁алма	-8.63901
▁оң	-8.63935
▁теген	-8.63936
▁өкүлү	-8.63966
▁еле	-8.6408
▁ро	-8.64155
▁арган	-8.64201
ерг	-8.64618
▁сыны	-8.65149
▁үшү	-8.65155
▁зарыл	-8.65283
ең	-8.65336
▁жүрү	-8.65442
▁илдет	-8.65626
▁Де	-8.65893
▁ааси	-8.66156
▁инс	-8.66192
▁унаа	-8.66706
▁нен	-8.66952
▁мал	-8.67006
▁аман	-8.67028
▁кайс	-8.67042
▁сун	-8.67091
▁бошо	-8.67107
▁чылар	-8.67517
▁З	-8.67897
▁ав	-8.67899
▁ани	-8.68011
ирги	-8.68133
нтке	-8.6817
▁урал	-8.68293
▁алда	-8.68358
▁арга	-8.68452
▁алык	-8.68518
алык	-8.68667
▁улан	-8.68697
▁ам	-8.69069
▁өндү	-8.69172
▁по	-8.69181
▁улуш	-8.69192
▁келди	-8.69394
▁ишкер	-8.69425
▁нт	-8.69603
▁гөнү	-8.69703
▁бу	-8.69875
▁уюм	-8.69947
▁уюму	-8.70155
▁жеке	-8.70283
▁кезде	-8.70425
▁улу	-8.70769
▁кызык	-8.70998
▁нуу	-8.71087
▁кири	-8.71163
▁нов	-8.71321
▁итети	-8.71363
▁арт	-8.71655
▁деги	-8.71752
▁ц	-8.71757
▁жаза	-8.7197
▁ээн	-8.72309
▁ачыл	-8.7237
▁аң	-8.7242
▁аяс	-8.72458
▁жыйын	-8.72623
▁перт	-8.72738
▁отту	-8.72816
▁нттар	-8.72952
▁айылы	-8.72961
араб	-8.73021
▁кап	-8.7308
▁че	-8.73126
▁леди	-8.73328
▁ради	-8.73536
▁оолу	-8.73605
стем	-8.73668
▁үлү	-8.73719
▁өнүк	-8.73746
▁план	-8.73858
▁сүн	-8.73891
▁иев	-8.74024
▁рату	-8.74356
▁исал	-8.74451
▁ебеби	-8.74465
▁ылуу	-8.74482
ине	-8.74788
таш	-8.74826
▁ур	-8.74827
▁рип	-8.7492
▁ндар	-8.75044
▁сту	-8.75067
▁алат	-8.75414
▁Оо	-8.75648
▁текш	-8.75903
▁осква	-8.75906
▁соода	-8.7591
▁уюмд	-8.76386
▁үүнү	-8.76765
▁мир	-8.76867
▁ерин	-8.7692
▁эмге	-8.76982
▁берет	-8.76983
▁кош	-8.7699
▁ач	-8.77019
▁нөн	-8.77061
▁ыр	-8.77094
КШны	-8.77137
ут	-8.77156
▁леп	-8.77533
▁барат	-8.77673
▁үүлөр	-8.77711
▁Жал	-8.77753
ерге	-8.7788
▁фи	-8.78267
▁дөр	-8.7832
▁жашоо	-8.78484
▁сызд	-8.78496
▁рма	-8.78516
▁ма	-8.78701
▁калк	-8.78781
▁көң	-8.79098
▁эне	-8.79175
▁ая	-8.7948
▁Ушу	-8.7956
▁па	-8.79657
▁көм	-8.7971
▁еген	-8.79776
▁өлүгү	-8.79952
▁тыюу	-8.80089
▁үйү	-8.80113
▁агдай	-8.80306
▁со	-8.80379
▁дыр	-8.80519
▁Кар	-8.80586
▁наар	-8.80612
▁Ата	-8.80648
▁зы	-8.80682
ү	-8.80709
▁лөрү	-8.80749
▁кон	-8.80847
▁бас	-8.80903
▁саты	-8.81063
▁кач	-8.81099
▁опер	-8.81123
мери	-8.81209
▁ака	-8.81468
▁мо	-8.81545
▁тизме	-8.81642
▁күчө	-8.81836
▁деш	-8.82065
▁кала	-8.8217
ңгэ	-8.82475
▁жет	-8.82668
▁!	-8.82712
▁Эм	-8.82725
▁сырт	-8.83063
▁имов	-8.83136
▁багыт	-8.83187
▁мия	-8.8319
▁лик	-8.83643
ке	-8.83691
▁Си	-8.83739
▁изд	-8.83803
анча	-8.83877
▁чал	-8.84283
▁кетти	-8.84365
▁сүрөт	-8.84416
▁ышкан	-8.84457
▁жары	-8.84494
▁вак	-8.84614
▁урук	-8.84723
▁ети	-8.84778
▁ошон	-8.84831
▁рун	-8.84904
ция	-8.84954
раил	-8.85008
▁ман	-8.85059
▁сө	-8.85191
ул	-8.85299
▁алкуу	-8.8545
▁ул	-8.85484
▁ыйыны	-8.85665
▁кама	-8.8571
▁в	-8.85863
▁х	-8.85974
▁окто	-8.86007
▁олдо	-8.86045
▁жабы	-8.86144
зилд	-8.8634
▁узу	-8.86382
▁10	-8.86662
отор	-8.86779
▁кең	-8.86886
▁ушуу	-8.86974
▁дөй	-8.86982
▁мигр	-8.86997
▁истр	-8.8707
▁иц	-8.87089
▁%	-8.87331
▁жазды	-8.87611
▁спор	-8.87809
▁;	-8.87922
▁ад	-8.87991
▁дыгы	-8.88118
t	-8.88121
▁Ысык	-8.88135
▁ерлер	-8.88149
оочу	-8.88175
▁орду	-8.88192
▁өмүр	-8.8865
▁Конс	-8.88669
▁Влад	-8.88683
▁адис	-8.88847
▁кунуч	-8.88851
▁муну	-8.89058
▁илиги	-8.8918
▁рмал	-8.89231
▁сотто	-8.89241
үп	-8.8936
▁ылыш	-8.90309
▁ура	-8.9034
ап	-8.90376
▁үштү	-8.9041
▁ишмер	-8.90514
▁Нар	-8.90568
▁ейт	-8.90687
▁каб	-8.90726
▁бүз	-8.9073
▁уш	-8.90827
▁лай	-8.90868
илде	-8.90902
▁шкан	-8.90916
▁ем	-8.90969
▁болуу	-8.9125
▁сез	-8.91319
▁тобу	-8.91358
▁мек	-8.91679
▁бой	-8.91688
мия	-8.91963
▁анти	-8.91977
▁унан	-8.9204
▁Жо	-8.9208
▁нада	-8.92183
мөн	-8.92288
▁сайт	-8.9239
▁факт	-8.92402
▁айры	-8.9252
▁огору	-8.92552
▁тий	-8.92791
▁апка	-8.92838
▁өлүм	-8.92985
▁азар	-8.93064
▁үрүү	-8.93132
▁ирим	-8.93348
▁Иран	-8.93365
▁нага	-8.93416
ээ	-8.93527
ыкты	-8.94278
евр	-8.94541
▁шты	-8.9468
▁трлер	-8.94742
ару	-8.94767
▁чект	-8.9484
оскв	-8.94888
▁бейт	-8.94958
▁өнү	-8.95011
▁түл	-8.95192
▁Атам	-8.95208
▁саб	-8.95223
▁адми	-8.95266
са	-8.95407
ибер	-8.95465
ем	-8.95502
▁гач	-8.95543
▁каев	-8.95595
▁жерге	-8.95662
▁Чү	-8.95686
▁чулар	-8.96191
▁өлтү	-8.96286
▁ийги	-8.96335
▁бакыт	-8.96335
▁суз	-8.96341
ума	-8.96592
▁син	-8.966
▁ион	-8.96631
▁доо	-8.96688
▁Е	-8.96736
▁аяк	-8.96809
▁каг	-8.96868
▁абалы	-8.97017
стан	-8.97026
▁абда	-8.9705
чу	-8.97208
▁пайы	-8.97226
▁ый	-8.97409
▁урма	-8.97498
үйнө	-8.97502
▁өрт	-8.97504
▁пи	-8.97601
▁нча	-8.97663
айта	-8.97943
▁улган	-8.981
пу	-8.98104
ж	-8.9812
юнда	-8.98359
▁имди	-8.98582
▁екте	-8.98839
бай	-8.9898
▁оюн	-8.99238
гер	-8.99471
▁оппо	-8.99591
▁ова	-8.99712
▁сапар	-8.99907
▁көч	-9.00146
▁каруу	-9.00182
▁акын	-9.00257
▁кетип	-9.00376
▁зылык	-9.00407
▁алыс	-9.00586
▁азык	-9.00667
▁Башк	-9.0067
▁илк	-9.007
▁чылы	-9.00711
▁алиб	-9.00754
▁ский	-9.00996
▁караш	-9.01202
▁изг	-9.01431
▁ви	-9.01592
▁матов	-9.01642
▁ейта	-9.01654
▁кта	-9.01799
▁аль	-9.01803
▁муру	-9.0224
▁тир	-9.02442
өлүм	-9.02585
▁ра	-9.02771
▁иби	-9.02829
▁форма	-9.02978
▁ыг	-9.03054
▁таг	-9.03262
▁таж	-9.03436
▁өнөк	-9.03442
етки	-9.03452
▁шев	-9.0384
▁асыл	-9.03849
▁лап	-9.03883
▁ыл	-9.03906
▁улта	-9.04156
▁алтын	-9.04221
▁үнчү	-9.04244
▁леген	-9.04422
▁ыктар	-9.0449
апшы	-9.04536
▁Аз	-9.0465
▁аяг	-9.04719
▁өттү	-9.04763
▁ама	-9.04825
▁жай	-9.04917
▁нет	-9.05041
деги	-9.05305
▁итинг	-9.05525
▁ум	-9.05641
чө	-9.05658
▁ажыр	-9.05665
▁жан	-9.05685
аржы	-9.05973
▁ол	-9.06157
▁елти	-9.06175
▁кыска	-9.06251
үлү	-9.06347
▁езек	-9.06374
▁Маа	-9.06377
инин	-9.06475
▁ору	-9.06645
ярд	-9.06667
▁үм	-9.06691
▁сокку	-9.06775
▁азай	-9.06922
▁ланды	-9.06939
▁елген	-9.07172
▁асын	-9.0758
▁ен	-9.07593
олиц	-9.07625
▁Рес	-9.07731
▁юджет	-9.0776
▁тыйж	-9.07854
▁үгү	-9.07914
▁олу	-9.08052
▁или	-9.08146
▁ели	-9.08166
▁Муну	-9.08222
▁жум	-9.08245
▁келин	-9.0826
▁учак	-9.08467
▁басым	-9.08912
▁буз	-9.09015
▁млрд	-9.09103
▁ков	-9.09169
▁уза	-9.09288
▁апта	-9.09336
▁имар	-9.09356
нкц	-9.09413
▁пей	-9.09724
▁Ю	-9.09776
▁апа	-9.09911
тари	-9.09993
▁ий	-9.10113
▁калы	-9.1017
өрдү	-9.10266
▁көрүп	-9.10282
▁азуу	-9.10293
▁ндор	-9.10345
▁алдын	-9.10353
▁Ы	-9.10595
▁кени	-9.10698
ен	-9.10787
▁ард	-9.1083
▁чулу	-9.10985
▁Баш	-9.11059
▁бет	-9.11082
▁ткери	-9.11404
▁20	-9.115
▁зомб	-9.11633
▁аният	-9.11669
асми	-9.11732
▁лүгү	-9.11819
▁режи	-9.11906
▁ың	-9.11914
▁ондо	-9.12051
▁Батыш	-9.12153
▁Гер	-9.12155
▁Бү	-9.12195
▁мед	-9.12202
▁ызы	-9.12202
▁күй	-9.12428
▁эрте	-9.12459
▁панд	-9.12565
▁тапт	-9.12699
▁обо	-9.12739
▁рган	-9.12784
▁аян	-9.12929
▁олог	-9.12936
▁пе	-9.12974
▁талаш	-9.13111
▁гу	-9.13137
▁бол	-9.13423
▁еки	-9.13437
▁көчө	-9.13438
▁лиги	-9.13685
▁дире	-9.13717
▁ттер	-9.13725
▁туш	-9.13749
▁ганы	-9.13938
▁кез	-9.14009
нвес	-9.14075
▁гени	-9.14147
▁ыгын	-9.1419
▁байт	-9.14378
▁комм	-9.14386
▁уру	-9.144
▁рсит	-9.14502
шул	-9.14532
▁баа	-9.14682
▁геме	-9.14706
▁митет	-9.14761
▁мае	-9.14799
▁газ	-9.14809
▁нд	-9.14907
▁тте	-9.14949
▁рамп	-9.1499
▁сек	-9.14992
▁жеңил	-9.15004
▁тез	-9.15036
аза	-9.15062
▁раке	-9.15079
▁өш	-9.15202
▁эреже	-9.15214
▁аштар	-9.15304
опто	-9.15322
▁скер	-9.15502
▁кыйын	-9.15518
▁сак	-9.15526
▁тору	-9.15576
▁сөзү	-9.15808
▁еги	-9.15896
▁аза	-9.15937
▁акция	-9.16063
▁жаг	-9.16154
▁дөрү	-9.164
урул	-9.1648
▁уулар	-9.16535
▁их	-9.1654
▁сый	-9.16544
▁китеп	-9.16731
▁инет	-9.1696
▁Киев	-9.17024
▁олдоо	-9.17136
▁ыч	-9.17291
▁До	-9.17542
ерде	-9.17704
▁инф	-9.17887
▁арба	-9.1793
▁товар	-9.17996
▁респ	-9.18023
▁игра	-9.18055
▁сүйлө	-9.18123
▁декси	-9.18123
▁кулов	-9.18136
▁унив	-9.18258
▁ткөн	-9.18475
▁ишти	-9.18607
▁езгил	-9.1864
▁үк	-9.18782
▁рин	-9.18809
▁ерек	-9.18922
▁Брит	-9.19169
5	-9.19217
▁урам	-9.19313
▁огу	-9.19399
▁Эки	-9.19523
▁анды	-9.19637
▁ойн	-9.19642
▁анат	-9.19697
▁трлик	-9.19757
▁укту	-9.19781
▁умтөр	-9.19836
▁метр	-9.19881
ID	-9.20044
▁ырас	-9.20086
▁икке	-9.20198
▁дым	-9.2025
мө	-9.20261
▁пас	-9.20298
▁аки	-9.20341
▁ебиз	-9.2045
▁ыктан	-9.20546
▁ит	-9.20584
▁дээр	-9.20898
▁баасы	-9.20924
▁июн	-9.20953
▁урс	-9.2149
▁зыян	-9.21559
▁улар	-9.21701
▁ттан	-9.2185
кмөт	-9.22028
▁туп	-9.22077
▁аг	-9.22077
▁базар	-9.2232
▁анд	-9.22429
▁дини	-9.22449
▁кеп	-9.22492
▁сөзд	-9.2256
▁вирус	-9.22602
аңы	-9.2272
▁рт	-9.22873
ай	-9.22906
▁Ар	-9.23283
▁үбү	-9.23425
▁чын	-9.23572
каг	-9.2394
▁мби	-9.24059
▁здар	-9.24074
▁тул	-9.24145
▁рь	-9.24156
▁уба	-9.24218
▁Газ	-9.2424
▁элч	-9.24252
▁түк	-9.24305
▁Талас	-9.24313
▁то	-9.2436
▁аар	-9.24381
▁бөл	-9.24381
▁30	-9.24472
олуш	-9.24477
▁ове	-9.2462
▁ашты	-9.2464
▁об	-9.24708
▁өрсө	-9.24758
▁Кийи	-9.24835
оо	-9.24901
▁мак	-9.24931
▁што	-9.24932
▁оз	-9.24943
▁ония	-9.2532
шө	-9.25436
▁бөй	-9.25532
▁тут	-9.25681
▁куруу	-9.25733
▁асыз	-9.25801
▁узду	-9.25854
▁бур	-9.26135
▁эсеби	-9.26427
▁сынд	-9.26569
▁койду	-9.26586
▁ло	-9.26673
▁абы	-9.26741
▁кесип	-9.26752
▁зүү	-9.26803
▁мад	-9.26912
▁етте	-9.26919
▁ст	-9.26983
▁гүл	-9.27089
▁жең	-9.27142
▁өзүн	-9.27192
▁жайы	-9.27274
▁ах	-9.27404
лекс	-9.2741
▁COV	-9.27716
▁өмүрү	-9.27738
▁иде	-9.27851
▁күнд	-9.27855
атер	-9.27857
▁атты	-9.28088
▁анал	-9.28176
▁танд	-9.28269
▁сат	-9.28376
▁таб	-9.28535
онс	-9.28563
▁эли	-9.28641
▁турум	-9.28702
▁Ана	-9.28794
▁лыгы	-9.28932
▁гынд	-9.28984
▁окш	-9.29026
▁муз	-9.29095
▁лду	-9.29216
▁ырсык	-9.29519
▁зор	-9.29607
▁узуу	-9.29739
▁деми	-9.29787
▁шы	-9.29815
i	-9.29827
▁эт	-9.30016
▁инг	-9.30019
▁No	-9.3003
▁евр	-9.30114
▁Ис	-9.30124
▁зи	-9.30153
аш	-9.30298
ң	-9.30432
▁калат	-9.30536
▁айден	-9.30618
▁циясы	-9.30625
▁жүз	-9.30766
▁олду	-9.30811
▁атра	-9.31126
▁көнү	-9.31269
▁башч	-9.31295
▁сунда	-9.31336
▁шен	-9.31395
▁бө	-9.31422
ев	-9.31535
▁орно	-9.31644
▁шунд	-9.31675
етте	-9.31808
▁ңыз	-9.31883
▁изнес	-9.31946
▁лмаз	-9.32032
▁ирет	-9.32035
▁ашиев	-9.32117
▁кадам	-9.32124
▁нтин	-9.32162
мпи	-9.32513
▁пу	-9.32521
▁ектөө	-9.32635
▁галим	-9.32817
▁иялар	-9.32931
▁ийи	-9.33108
▁еке	-9.33142
▁кий	-9.33143
▁курч	-9.33163
▁штар	-9.33356
▁мас	-9.33371
ШК	-9.33525
▁өөсү	-9.33569
s	-9.33573
▁Сүрөт	-9.33654
▁ус	-9.33722
елти	-9.33988
▁арал	-9.34037
▁түзүү	-9.3408
▁рке	-9.34433
▁кылды	-9.34621
▁пул	-9.34623
▁үлк	-9.34652
▁алы	-9.34704
▁баса	-9.34942
▁ож	-9.34951
▁үстү	-9.35059
▁ышын	-9.35098
▁уусу	-9.35452
▁кем	-9.35452
▁баян	-9.35502
▁убада	-9.35525
▁ша	-9.35856
изди	-9.35868
▁ндия	-9.35997
▁айтыш	-9.36015
▁колу	-9.36181
▁нг	-9.36214
▁ынч	-9.36346
▁терин	-9.36374
▁өң	-9.36399
▁ек	-9.36524
▁бою	-9.3663
▁изм	-9.36782
▁ыры	-9.36794
▁күбө	-9.36819
▁етика	-9.36903
▁кийи	-9.37063
▁енко	-9.37137
өлөм	-9.37313
▁ондон	-9.37314
▁чыл	-9.3773
▁рыл	-9.37749
▁ериш	-9.37795
▁тая	-9.37923
▁лы	-9.37979
▁тап	-9.38
▁ми	-9.38038
▁мин	-9.38178
▁100	-9.38289
▁кой	-9.38302
▁үнүш	-9.38318
▁айжан	-9.3833
ранс	-9.38469
▁арна	-9.38538
▁жүзү	-9.38695
▁ою	-9.38698
▁куучу	-9.38879
▁анк	-9.38895
▁15	-9.39062
▁рил	-9.39103
▁иза	-9.39218
▁ткүч	-9.39354
ер	-9.39489
▁үүсү	-9.39519
▁ымбат	-9.39698
a	-9.39792
өздө	-9.39904
▁узак	-9.40089
▁Но	-9.40123
▁үзөт	-9.40191
▁амат	-9.4024
▁чык	-9.40469
▁жери	-9.40503
▁ши	-9.40552
це	-9.41038
▁Мад	-9.41094
▁чо	-9.41354
▁нду	-9.41372
▁жолдо	-9.41389
▁даш	-9.41402
▁ира	-9.41479
▁үйлөр	-9.41517
алд	-9.41546
▁амсы	-9.41553
▁тасма	-9.41703
▁аңжал	-9.41727
▁өкү	-9.41846
▁тирүү	-9.41873
▁Рос	-9.41916
▁жиг	-9.41937
▁ред	-9.41947
▁луп	-9.42007
▁орлор	-9.42156
▁ачан	-9.42252
▁Чек	-9.42389
▁зат	-9.42524
▁бара	-9.42546
▁ую	-9.4257
▁лди	-9.42705
▁Сот	-9.42832
▁олдор	-9.42993
▁Зел	-9.4307
▁жашы	-9.4309
▁талд	-9.43175
▁кызы	-9.43197
▁эс	-9.43356
▁она	-9.43369
▁ери	-9.43413
▁еңиш	-9.43468
▁аб	-9.4362
▁ерде	-9.43662
▁во	-9.43738
ИМ	-9.43763
▁тура	-9.43797
▁арай	-9.44007
ипло	-9.4405
▁таң	-9.44058
▁олго	-9.44211
биз	-9.44226
▁куро	-9.44267
▁рды	-9.44279
▁түрү	-9.44292
▁дро	-9.44316
амак	-9.44357
▁йм	-9.4442
▁сте	-9.44715
▁лимп	-9.44861
▁+	-9.44955
▁аан	-9.44958
▁еткен	-9.45166
▁аппар	-9.45306
▁аткан	-9.45311
▁Бек	-9.45393
шу	-9.45448
▁студ	-9.45557
▁Бы	-9.45618
инде	-9.45668
▁тай	-9.45709
▁нууда	-9.45795
▁Камч	-9.45799
▁дам	-9.458
▁таан	-9.45986
▁гун	-9.46031
▁иреше	-9.46066
▁I	-9.46069
▁ааты	-9.46345
▁ток	-9.46429
▁өнөр	-9.4644
С	-9.46483
▁таган	-9.46679
ейс	-9.46715
ажы	-9.46822
▁чө	-9.46864
▁Сир	-9.46869
х	-9.46905
▁рес	-9.46919
▁урна	-9.47181
▁өрүн	-9.47267
▁акиев	-9.47309
▁атаал	-9.47452
▁ени	-9.47731
анас	-9.47779
▁еди	-9.47848
▁экөө	-9.47951
▁ль	-9.47964
▁из	-9.47991
▁арх	-9.48006
▁ленг	-9.48022
▁там	-9.48208
▁еми	-9.48219
▁ере	-9.4827
▁ыптыр	-9.48325
▁акты	-9.48421
▁ысы	-9.48601
▁сия	-9.48756
▁тив	-9.48914
▁лей	-9.48937
▁ир	-9.48959
ерб	-9.48965
▁орго	-9.49205
▁зама	-9.49346
▁үнүч	-9.49349
▁оюнд	-9.49462
▁атыш	-9.49531
▁урмуш	-9.49595
▁пир	-9.49701
▁кли	-9.49709
▁тиция	-9.49759
▁була	-9.4981
▁ерс	-9.4985
▁ашине	-9.49866
▁лла	-9.49877
▁кароо	-9.49909
▁ис	-9.50005
▁алаа	-9.50056
▁ндо	-9.50088
▁нул	-9.50098
ттик	-9.5011
▁огул	-9.50276
▁интер	-9.50502
▁тыгы	-9.50548
▁шо	-9.50567
▁рия	-9.50592
▁ыйга	-9.50658
▁рек	-9.50826
▁лукт	-9.50847
▁коро	-9.50953
▁эрки	-9.50973
▁Теми	-9.50995
▁темир	-9.51033
▁едер	-9.51036
▁гра	-9.51071
▁милге	-9.51135
ында	-9.51196
▁өйгөй	-9.51328
▁тонна	-9.51339
▁апшы	-9.51349
▁но	-9.51357
▁айлык	-9.51418
▁Шайл	-9.51457
▁мэр	-9.51483
▁үмү	-9.51512
▁тасы	-9.51608
▁тара	-9.51688
▁ыкч	-9.52046
▁колог	-9.52079
▁мок	-9.52232
▁ейш	-9.52234
▁Фран	-9.52265
▁жоо	-9.52452
▁ван	-9.52555
▁оци	-9.5259
▁ади	-9.52723
▁өлү	-9.52765
▁арыш	-9.52792
▁Ле	-9.52882
▁пө	-9.52952
▁абаг	-9.53144
▁чаг	-9.53302
▁рө	-9.53371
мүр	-9.53374
▁енс	-9.53385
▁шонд	-9.5357
▁жетти	-9.53658
▁өөлөр	-9.53672
▁зия	-9.53707
▁ңар	-9.53777
▁зм	-9.5395
▁айта	-9.53994
он	-9.53995
▁ооке	-9.54088
дья	-9.5412
▁демия	-9.54129
▁тти	-9.54233
▁үрү	-9.5425
▁ле	-9.54274
▁ех	-9.54391
▁ыс	-9.54437
▁умш	-9.54516
▁ыңг	-9.54555
▁чукул	-9.54572
▁сан	-9.54593
кар	-9.54594
ерро	-9.54701
▁сурак	-9.54736
▁хам	-9.54983
▁алт	-9.55155
▁Ц	-9.5521
▁ескин	-9.5532
лугу	-9.55453
ыркы	-9.55587
▁шар	-9.55645
▁оптор	-9.55678
▁сс	-9.55844
тө	-9.55918
▁ктор	-9.55925
▁жар	-9.55945
▁чөйрө	-9.55989
▁сөөгү	-9.56142
▁11	-9.56198
▁тали	-9.56345
▁тон	-9.56381
▁ино	-9.56424
ткөн	-9.56472
▁леш	-9.56512
▁чечи	-9.56655
▁зит	-9.56667
▁Ком	-9.56815
▁өп	-9.56829
▁вал	-9.56864
▁аа	-9.56946
мат	-9.5698
▁оюз	-9.57073
▁жас	-9.57074
▁риш	-9.57137
▁ыздоо	-9.5715
ңку	-9.57189
▁акал	-9.57272
кше	-9.57401
▁смо	-9.57454
▁атын	-9.57473
▁енчи	-9.57487
▁рем	-9.57598
▁лаш	-9.57614
▁буйр	-9.57623
▁виц	-9.57815
Р	-9.57865
▁олку	-9.57902
▁олот	-9.57933
▁убан	-9.5796
▁өтөт	-9.58126
▁ста	-9.58192
ё	-9.58218
▁гресс	-9.58246
▁иңде	-9.58307
▁енин	-9.58333
▁өгөт	-9.58453
▁ю	-9.58561
▁үндө	-9.58568
▁аммит	-9.58577
▁пал	-9.58609
▁бак	-9.58658
▁унт	-9.58659
▁ыраа	-9.58759
ирге	-9.59028
▁шу	-9.5906
▁арг	-9.59163
▁рыйба	-9.59242
▁еме	-9.59422
▁арыл	-9.59449
▁орма	-9.59533
▁50	-9.5956
▁12	-9.59598
▁эсе	-9.59689
▁тарта	-9.59709
▁ыкма	-9.59785
еген	-9.59803
▁утбо	-9.59822
агы	-9.59839
▁нти	-9.59891
▁карыз	-9.59916
▁ика	-9.60022
▁аат	-9.60112
▁ъект	-9.60138
▁Гү	-9.60165
▁фр	-9.60188
▁ас	-9.60229
▁ризис	-9.60249
▁аэ	-9.60281
ытай	-9.60317
до	-9.60364
▁Коре	-9.604
▁сыя	-9.60491
▁пози	-9.60524
▁/	-9.607
▁ения	-9.60714
▁ерге	-9.60736
▁оль	-9.60757
▁чыр	-9.6076
▁Му	-9.60975
орду	-9.61041
▁олжо	-9.61049
▁адв	-9.61089
▁лет	-9.61126
▁еңи	-9.61155
УУну	-9.6121
▁ажы	-9.61298
▁фонд	-9.61347
маты	-9.61354
▁анан	-9.61447
▁кын	-9.61509
▁ью	-9.61531
▁ткан	-9.61571
▁чыкпа	-9.61614
▁начар	-9.61739
▁оңдо	-9.61742
▁төгө	-9.61776
▁Башка	-9.61861
▁аж	-9.61926
▁ыма	-9.62006
▁ене	-9.62244
▁мер	-9.62402
▁чили	-9.62881
лкө	-9.62933
▁ыйы	-9.62961
▁екет	-9.62985
▁вод	-9.6306
атто	-9.63065
▁үрөт	-9.63281
▁зал	-9.63416
▁жүк	-9.63465
▁ыймыл	-9.63467
▁тов	-9.63557
▁мөн	-9.63557
▁тере	-9.63638
▁атор	-9.64168
▁ме	-9.64192
▁ный	-9.64219
▁ыны	-9.64238
▁лө	-9.64251
▁Ми	-9.64289
▁шке	-9.64324
▁рдо	-9.64557
▁түштү	-9.65
▁олту	-9.6509
ирүү	-9.65131
▁жаны	-9.65136
гөн	-9.65166
▁иштүү	-9.65217
▁үлгөн	-9.65236
▁өтп	-9.65296
▁сел	-9.65308
▁убат	-9.65336
ыкка	-9.65486
ртка	-9.65518
▁уккан	-9.65562
o	-9.65727
▁ци	-9.65965
▁гум	-9.66019
▁мей	-9.66036
▁нтер	-9.66044
үнгө	-9.66071
▁иясы	-9.66172
▁туруу	-9.66189
▁уур	-9.66255
▁далил	-9.66278
0%	-9.66289
пай	-9.66323
▁ону	-9.66336
▁ion	-9.66393
▁ката	-9.6673
▁Жакы	-9.66768
▁нуш	-9.6693
▁арка	-9.66938
▁ари	-9.67122
акка	-9.67125
ехни	-9.67329
▁уулук	-9.67441
▁оро	-9.67443
▁стат	-9.67448
▁Я	-9.67475
▁ңиз	-9.67483
▁На	-9.67494
дүү	-9.67653
▁агым	-9.6772
▁тили	-9.67736
▁раак	-9.67803
▁Исла	-9.67969
▁инте	-9.67995
▁нуп	-9.68302
▁атр	-9.68412
▁алым	-9.68426
▁ырт	-9.68429
▁күчү	-9.68434
ооро	-9.68444
▁өм	-9.68503
▁ехн	-9.68606
▁анча	-9.68763
▁пор	-9.68775
▁есс	-9.68811
▁сам	-9.69075
▁рүүдө	-9.69291
▁абд	-9.69296
▁абуу	-9.69312
▁түй	-9.69317
▁агын	-9.69333
▁арда	-9.69389
▁иден	-9.69567
u	-9.69674
▁лугу	-9.69696
▁пара	-9.69844
▁ашкан	-9.69934
▁үтү	-9.70036
▁уну	-9.70095
▁ли	-9.70105
▁ры	-9.7011
▁ынга	-9.70226
▁уб	-9.70248
▁арам	-9.70423
▁тация	-9.70547
▁нттер	-9.70553
▁фонду	-9.70598
▁утка	-9.70714
▁инче	-9.70824
▁ами	-9.71009
▁ос	-9.71052
▁жам	-9.71097
▁ыйл	-9.71097
▁жуг	-9.71112
▁үрүшү	-9.71169
▁арлык	-9.71175
сы	-9.7125
▁баева	-9.71257
▁ттар	-9.71503
▁ил	-9.71543
▁рол	-9.71566
▁жүрүш	-9.71595
▁сепе	-9.71618
▁ыздар	-9.71642
▁улма	-9.71743
▁тем	-9.71748
▁үлг	-9.71858
екем	-9.72092
▁адан	-9.72324
▁ууг	-9.72369
▁үз	-9.72434
амс	-9.72444
▁улду	-9.72523
▁ск	-9.72573
▁ург	-9.72647
▁өчү	-9.72731
▁Өз	-9.72792
▁каз	-9.72863
▁они	-9.72888
▁рты	-9.73055
▁кага	-9.73073
▁ави	-9.7317
▁үрө	-9.73519
▁кул	-9.73545
▁ализ	-9.73562
▁ранд	-9.73624
▁еск	-9.7367
▁лгөн	-9.73713
▁арку	-9.73798
▁мени	-9.73882
▁оочу	-9.73893
кинч	-9.73921
▁екция	-9.74268
▁аттоо	-9.74283
▁стра	-9.74469
АТО	-9.74481
өргө	-9.74661
▁алан	-9.74728
▁олд	-9.74742
▁руз	-9.74928
▁ута	-9.75018
▁дөө	-9.75081
▁артип	-9.75356
▁ника	-9.75452
▁s	-9.75498
▁мол	-9.75616
▁кула	-9.75708
▁кун	-9.75806
▁кация	-9.76111
▁аку	-9.76274
▁раф	-9.76365
▁андаш	-9.76417
▁анов	-9.76502
▁рат	-9.76524
▁тос	-9.76731
▁пс	-9.76783
ско	-9.76852
▁атуу	-9.76857
▁нф	-9.76915
▁өбүз	-9.7692
▁14	-9.76921
▁окт	-9.77049
▁салды	-9.7713
асс	-9.77228
ас	-9.77278
▁аап	-9.77338
▁шуу	-9.7735
▁сен	-9.77496
▁чыны	-9.77532
▁елги	-9.77532
▁гинд	-9.77551
▁ноо	-9.77554
▁мын	-9.77693
▁алил	-9.77728
▁апты	-9.77835
▁ото	-9.77841
▁алабы	-9.77911
▁аша	-9.77975
▁Кур	-9.78044
▁араш	-9.78074
▁арык	-9.78225
▁Ру	-9.78569
▁лышы	-9.78636
▁тыл	-9.78783
▁ткен	-9.78794
▁ог	-9.78795
▁сың	-9.78881
▁утуу	-9.7894
▁акан	-9.79083
▁ортт	-9.79231
▁вока	-9.79257
▁раб	-9.79295
▁жөн	-9.79658
в	-9.79703
▁ау	-9.79846
гөчө	-9.80078
▁урул	-9.80165
▁эксп	-9.80171
▁нго	-9.80257
▁ник	-9.80266
▁дашуу	-9.80332
▁аалым	-9.80529
▁оло	-9.80576
▁иг	-9.80577
▁лун	-9.80664
есе	-9.80666
▁дис	-9.80761
▁тийиш	-9.80771
▁амы	-9.81054
▁андат	-9.81109
▁бес	-9.81202
▁али	-9.81233
▁мб	-9.81244
▁реги	-9.81422
▁йма	-9.81444
▁умуш	-9.81691
эри	-9.81742
▁лты	-9.8175
▁ерв	-9.81901
▁ерди	-9.81956
▁өтүү	-9.81987
▁артуу	-9.81999
▁ерт	-9.82039
▁арыя	-9.82142
▁ачуу	-9.822
▁мду	-9.82211
▁еш	-9.82382
▁үст	-9.824
▁исти	-9.82456
дуу	-9.82538
▁арбы	-9.82565
▁лю	-9.82684
▁сттер	-9.82726
▁овду	-9.82883
▁мдөө	-9.82926
▁өч	-9.83064
▁шат	-9.83077
▁ести	-9.8308
▁мне	-9.83095
ууну	-9.83304
▁тас	-9.83393
▁карт	-9.83539
▁йлөр	-9.83566
▁рас	-9.83623
▁иал	-9.837
▁ырма	-9.83814
▁орд	-9.8398
гач	-9.84163
▁уран	-9.84211
▁үйө	-9.84225
▁лин	-9.84232
▁урга	-9.84234
ага	-9.84281
▁рей	-9.84291
▁грант	-9.84295
▁рыгер	-9.84437
▁ыды	-9.84501
▁руг	-9.84587
▁ез	-9.84632
▁оптуу	-9.84664
▁Лу	-9.84677
▁лөө	-9.84745
ого	-9.84787
▁азасы	-9.84849
▁илет	-9.85017
ам	-9.85152
▁угу	-9.85327
▁оолор	-9.85509
▁нск	-9.85701
▁рлер	-9.85739
▁13	-9.85779
▁иж	-9.85782
▁ттери	-9.85961
▁ендер	-9.86015
ерен	-9.86064
▁Ток	-9.86082
кмө	-9.86247
▁удай	-9.86261
▁яр	-9.86494
АМА	-9.86777
▁За	-9.86969
▁мака	-9.87102
хан	-9.87265
▁тей	-9.87302
▁арад	-9.87324
▁рга	-9.87341
▁теш	-9.87435
▁Мам	-9.87472
елүү	-9.87609
▁гыла	-9.87651
▁ндү	-9.87662
▁виз	-9.8767
▁Түрк	-9.87774
▁меке	-9.87982
▁сум	-9.88147
еми	-9.88177
▁Й	-9.88215
▁уту	-9.88321
▁ед	-9.88362
▁ияны	-9.88364
▁кес	-9.88427
▁лле	-9.88671
▁сим	-9.88674
▁шү	-9.89022
▁арта	-9.89217
▁көй	-9.89272
▁дум	-9.89371
▁пол	-9.8941
▁диа	-9.89486
▁Ас	-9.8949
▁рег	-9.89593
▁поли	-9.89622
▁ылдар	-9.89623
▁рман	-9.8965
▁40	-9.89666
▁ест	-9.89686
нция	-9.89771
▁Анд	-9.89894
▁боо	-9.89913
▁Тоо	-9.89935
▁рын	-9.90007
чы	-9.90074
▁1,	-9.90127
▁зан	-9.90193
▁егизи	-9.90204
▁агыт	-9.90327
▁екени	-9.90365
▁абык	-9.90837
▁ашк	-9.90847
▁иң	-9.90878
▁25	-9.91007
▁ашыл	-9.9104
хник	-9.91056
▁ве	-9.91146
r	-9.91233
▁шун	-9.91366
▁аров	-9.91465
▁окум	-9.91587
▁чеги	-9.91642
▁урт	-9.9174
▁Же	-9.91744
▁артыш	-9.91744
▁икте	-9.91832
өйгө	-9.91884
нгө	-9.92051
▁каш	-9.92108
▁16	-9.92124
▁ичи	-9.92232
▁анган	-9.92269
▁мел	-9.92377
▁бат	-9.9248
▁өг	-9.92503
"	-9.9255
▁ликт	-9.92645
▁нц	-9.92649
ынд	-9.92852
▁фе	-9.93012
▁жин	-9.93042
▁ски	-9.93086
▁екке	-9.93124
▁юму	-9.93247
▁армоо	-9.93298
▁юри	-9.93568
▁фил	-9.93763
▁ынган	-9.93844
▁оп	-9.93886
▁аткы	-9.93904
mag	-9.94054
▁ирин	-9.94069
▁тург	-9.94352
p	-9.94435
▁ирд	-9.9456
▁Иш	-9.94619
▁18	-9.94631
▁спи	-9.94704
▁пү	-9.94715
▁етки	-9.94728
▁Ти	-9.94736
▁рист	-9.94778
▁ылы	-9.94802
▁рду	-9.94837
▁маз	-9.9484
уучу	-9.94877
▁вар	-9.95075
▁үмд	-9.95123
алга	-9.95144
▁ртуу	-9.9516
▁виру	-9.95214
▁Жан	-9.95238
▁мет	-9.95305
▁бия	-9.95362
▁тады	-9.95555
▁апар	-9.95607
▁мыр	-9.95636
▁мон	-9.95647
▁уста	-9.95695
▁үлдү	-9.9578
▁эпи	-9.95971
▁көзү	-9.96051
▁Али	-9.96055
▁руу	-9.96112
▁атыр	-9.9633
▁рам	-9.96336
▁чак	-9.96359
▁кооп	-9.96362
▁Ли	-9.96679
▁корк	-9.96825
▁ац	-9.96909
▁издөө	-9.97026
▁Ад	-9.97105
▁ресс	-9.97231
▁ерро	-9.97233
▁рий	-9.97267
▁эм	-9.97518
▁гыс	-9.97585
ым	-9.97822
▁пера	-9.98041
▁ют	-9.98303
▁баг	-9.9833
▁мды	-9.98362
▁терг	-9.98363
▁лиц	-9.98556
▁үтүн	-9.98571
ктү	-9.98586
▁икти	-9.98608
▁маши	-9.98686
▁нстр	-9.98711
▁эси	-9.98739
▁эг	-9.98795
▁оңо	-9.98837
▁геси	-9.98895
▁стук	-9.98909
▁екен	-9.99186
▁хан	-9.99214
ов	-9.99224
1	-9.9928
▁сар	-9.99282
▁улат	-9.99341
▁ария	-9.99363
▁ля	-9.99426
▁тым	-9.99495
▁рак	-9.99553
урам	-9.99585
▁тег	-9.99589
n	-9.99622
▁алам	-10.0001
▁сүй	-10.0001
▁ешет	-10.0005
▁але	-10.001
▁ктар	-10.0017
▁лу	-10.0018
▁дос	-10.002
орку	-10.0025
▁акт	-10.003
▁айра	-10.0044
▁Ую	-10.0061
э	-10.007
▁КМ	-10.0073
▁лекс	-10.0086
▁мдө	-10.0092
▁лам	-10.01
▁күчт	-10.0101
▁гер	-10.0102
▁Бо	-10.0112
гыз	-10.0123
▁нер	-10.0146
▁арат	-10.0155
▁асты	-10.0159
▁өбө	-10.0164
▁үң	-10.0168
▁тип	-10.0174
▁аралы	-10.0174
▁атар	-10.0191
▁лаг	-10.0203
▁дим	-10.0206
▁йыл	-10.0207
▁көрдү	-10.021
▁ылкы	-10.0257
▁өндө	-10.0262
▁араба	-10.0271
▁ыгым	-10.0288
▁Ре	-10.0306
▁ера	-10.0318
▁мылы	-10.0327
кө	-10.0348
▁үзү	-10.0353
▁уң	-10.0356
▁азал	-10.0373
▁ече	-10.0379
▁ришти	-10.0415
▁ерал	-10.0417
▁шка	-10.0434
▁неси	-10.0448
▁как	-10.0449
▁руучу	-10.0452
▁ыка	-10.0456
өрүн	-10.0462
▁ё	-10.0465
▁лег	-10.0477
▁нат	-10.0481
▁күл	-10.0481
▁дугу	-10.0485
▁өлгөн	-10.0494
ю	-10.0509
▁утту	-10.0511
▁исте	-10.0513
суз	-10.0516
▁өөнү	-10.0528
▁бра	-10.0531
▁ег	-10.0536
▁мине	-10.0541
▁атат	-10.0552
▁зү	-10.0563
▁аск	-10.057
▁дыры	-10.0586
▁тема	-10.0598
▁17	-10.0624
y	-10.0624
▁здө	-10.0639
▁ивд	-10.0672
▁шан	-10.0691
▁анг	-10.0697
▁дүгү	-10.0697
▁рым	-10.0699
▁ңг	-10.0704
ККУ	-10.0715
▁°	-10.0715
илер	-10.0724
▁дери	-10.0725
ман	-10.0728
▁ирге	-10.0732
▁ишет	-10.0758
▁башы	-10.076
▁нип	-10.0767
▁илин	-10.0779
▁хе	-10.0787
▁мү	-10.0838
▁шып	-10.0839
▁амб	-10.0843
▁алба	-10.0844
▁стик	-10.0857
▁рис	-10.0857
▁БУУ	-10.0859
▁ания	-10.0866
ва	-10.0869
▁еге	-10.0881
▁тори	-10.0884
▁нген	-10.0888
▁онду	-10.0894
▁мил	-10.0907
▁кире	-10.0915
▁рч	-10.0915
▁ттү	-10.0921
ына	-10.0922
▁сыр	-10.0924
▁Фи	-10.093
▁Ок	-10.0932
▁cap	-10.0933
▁асма	-10.094
▁кило	-10.0944
▁Евр	-10.0977
▁кук	-10.0981
▁S	-10.0998
жо	-10.1008
ах	-10.101
К	-10.1017
▁ңү	-10.1027
буз	-10.103
▁ва	-10.105
▁ГЭС	-10.1062
тү	-10.1065
▁арыг	-10.1066
▁ыйка	-10.1079
▁йбыз	-10.1081
▁кас	-10.1082
▁логи	-10.1082
▁спе	-10.1083
▁арк	-10.1083
▁Каб	-10.109
юу	-10.109
▁ысым	-10.1109
си	-10.1115
зия	-10.1125
▁той	-10.1133
▁айд	-10.1133
▁Су	-10.1137
алуу	-10.1141
▁усу	-10.116
▁чөл	-10.1199
▁C	-10.1238
▁наны	-10.1248
▁кри	-10.1253
ызды	-10.1255
ыймы	-10.1264
бия	-10.1277
▁дус	-10.1306
дин	-10.1313
▁ойго	-10.1313
▁Мак	-10.1314
▁Эң	-10.1314
▁сма	-10.1314
▁оту	-10.1322
▁сто	-10.134
▁елек	-10.1341
▁акыт	-10.1347
▁роз	-10.1354
▁гул	-10.1359
▁рв	-10.1359
▁алка	-10.1387
▁беге	-10.1399
▁зе	-10.1401
амб	-10.1416
▁ерег	-10.1416
▁ирзи	-10.1422
▁арлар	-10.1464
▁ыган	-10.1466
▁оли	-10.1466
▁ини	-10.1477
▁еси	-10.1478
▁60	-10.1482
ян	-10.149
▁үктө	-10.1495
▁ес	-10.1496
ансы	-10.1507
d	-10.1512
▁лия	-10.1518
▁наб	-10.1521
▁нек	-10.1534
▁оодо	-10.155
▁Аба	-10.1552
▁бан	-10.1563
▁тыны	-10.1569
иң	-10.1578
▁осу	-10.1587
▁гин	-10.16
▁аф	-10.1617
▁нче	-10.1618
▁нал	-10.163
▁елбе	-10.1638
▁адим	-10.1644
▁Пар	-10.1655
▁бад	-10.1655
▁ыруун	-10.1696
▁ылышы	-10.1702
▁имп	-10.1723
▁пост	-10.1724
▁аков	-10.1742
▁ита	-10.1742
▁ешке	-10.1759
яб	-10.1777
▁ом	-10.178
▁етер	-10.1793
▁ейи	-10.1797
▁ечит	-10.1799
иц	-10.1823
▁лыг	-10.1829
▁үсү	-10.1837
▁ума	-10.1855
▁улда	-10.1857
гө	-10.1859
▁рик	-10.1887
▁гына	-10.1888
▁куб	-10.1901
▁абыр	-10.1915
ырсы	-10.1923
А	-10.1925
▁орт	-10.1928
▁тту	-10.1936
▁чил	-10.1937
▁аңг	-10.1969
▁ынчы	-10.197
2	-10.1977
ашта	-10.1979
▁ачы	-10.1986
▁ызды	-10.2008
▁ора	-10.2013
▁өлүк	-10.2022
▁Z	-10.2038
үүгө	-10.205
▁лиев	-10.2061
▁ЕАЭБ	-10.208
▁T	-10.2089
▁илек	-10.2097
▁коло	-10.2098
▁A	-10.2125
▁жүрг	-10.2136
▁енде	-10.2136
▁еч	-10.2137
▁Сай	-10.2142
▁ив	-10.216
▁од	-10.2161
▁етин	-10.2182
иси	-10.2185
▁ут	-10.2202
кан	-10.2222
▁Ант	-10.2249
▁ье	-10.2251
▁тка	-10.2253
▁ити	-10.2255
▁өн	-10.2279
▁нка	-10.229
▁өлө	-10.2293
▁ец	-10.2295
▁ССС	-10.2297
▁карм	-10.2308
▁мар	-10.2328
▁риг	-10.2336
▁менти	-10.2353
▁иги	-10.2354
▁сым	-10.2356
▁урду	-10.2358
▁тол	-10.2358
▁кус	-10.2368
▁юн	-10.2378
▁амал	-10.2397
▁шыл	-10.2403
▁пов	-10.2404
▁ерб	-10.2407
▁дыруу	-10.2488
▁ачк	-10.2508
▁19	-10.2528
▁ахм	-10.2538
▁нар	-10.2548
▁рита	-10.2552
▁абар	-10.2556
▁айды	-10.256
▁рте	-10.2562
▁инц	-10.2564
▁ынды	-10.2574
▁аста	-10.2587
▁ико	-10.2598
▁чи	-10.2614
▁өгө	-10.2616
▁зо	-10.2617
▁Жу	-10.2625
▁алгы	-10.2629
▁раган	-10.263
▁фор	-10.2633
▁өлөм	-10.2669
▁нба	-10.2683
▁лиз	-10.2692
▁енди	-10.2723
▁рет	-10.2743
▁тябрь	-10.2747
▁бакт	-10.2791
▁оно	-10.2814
▁улов	-10.2818
▁кла	-10.2818
▁ңд	-10.282
▁баал	-10.2847
ь	-10.2863
▁оч	-10.2881
▁ттүү	-10.2886
▁инди	-10.2889
▁ылат	-10.289
▁Ким	-10.2916
▁Кан	-10.2923
▁кты	-10.2944
▁үлөт	-10.295
▁рон	-10.295
▁ичин	-10.2959
▁24	-10.2989
▁дил	-10.3005
▁абат	-10.3015
▁атак	-10.3023
▁ылт	-10.3031
▁ерн	-10.3035
▁ауд	-10.3038
лору	-10.3051
▁ио	-10.3051
▁лат	-10.3058
▁аала	-10.3069
▁үрт	-10.3093
▁лоб	-10.3104
▁ава	-10.3115
▁кыла	-10.312
▁оф	-10.3124
▁уча	-10.3131
▁ета	-10.3139
▁кинд	-10.3161
▁гону	-10.3183
ыз	-10.3188
▁зиз	-10.3188
▁күр	-10.319
унда	-10.3195
▁арм	-10.3197
ис	-10.3206
▁ушкан	-10.3214
▁оюл	-10.3221
▁пре	-10.3225
▁рге	-10.3253
бө	-10.3254
▁рс	-10.3254
▁берб	-10.3259
▁кере	-10.3264
▁ырга	-10.3266
▁база	-10.3266
▁аңд	-10.327
аты	-10.3278
▁кка	-10.328
▁Го	-10.3334
▁онг	-10.3337
▁мба	-10.334
▁ордо	-10.3369
▁уган	-10.3394
▁70	-10.3395
▁опа	-10.3396
▁вс	-10.3438
атчы	-10.3443
▁ылык	-10.3447
▁ылын	-10.3449
▁ель	-10.3463
▁урасы	-10.3464
▁Сар	-10.3472
▁22	-10.3475
чил	-10.3479
ров	-10.3531
▁ясы	-10.355
▁уул	-10.3566
▁ати	-10.3576
▁улд	-10.358
баев	-10.3627
арыл	-10.3638
▁80	-10.3639
екте	-10.364
▁кар	-10.3654
▁үшкөн	-10.3664
▁өрага	-10.3667
▁арман	-10.3669
▁жатты	-10.3678
▁таз	-10.368
лып	-10.3683
▁ебе	-10.3686
▁сла	-10.3689
▁суп	-10.3704
▁хи	-10.3709
▁егиз	-10.3743
▁льт	-10.3746
▁рто	-10.3755
▁чүлөр	-10.3758
▁ейм	-10.3762
▁акс	-10.3772
Ko	-10.3779
▁ыд	-10.3786
ut	-10.3795
▁анар	-10.382
▁бөйт	-10.3822
▁урда	-10.3832
▁Жол	-10.3835
▁нста	-10.3842
▁еби	-10.3883
ууга	-10.3897
▁мит	-10.3898
▁көрү	-10.3912
k	-10.3926
▁Сам	-10.3933
▁уд	-10.3933
▁рчу	-10.3953
▁ров	-10.3954
▁үрдү	-10.3955
▁рап	-10.3957
▁дир	-10.3972
▁оби	-10.3978
▁реп	-10.398
▁ндер	-10.4024
▁це	-10.4026
▁жаң	-10.4027
рим	-10.4041
▁үйөө	-10.4044
▁поз	-10.4045
▁лкө	-10.4054
▁рим	-10.4056
▁инт	-10.4056
▁тунд	-10.4076
▁2,	-10.4082
▁Эр	-10.4121
▁тект	-10.4122
▁ымдар	-10.4176
▁анде	-10.4204
▁елет	-10.4248
▁лаб	-10.4249
▁Тала	-10.4252
▁меле	-10.4277
▁зим	-10.4293
▁зун	-10.4296
▁зак	-10.4298
▁унд	-10.43
▁Ге	-10.4302
▁табы	-10.4338
▁чат	-10.4341
▁тро	-10.4346
лар	-10.4348
ышы	-10.4359
▁еде	-10.4372
▁арызы	-10.4373
▁урас	-10.4382
▁уруш	-10.4385
▁сер	-10.4394
теш	-10.4427
▁шту	-10.4435
▁21	-10.4447
20	-10.4462
▁өзд	-10.4465
▁уг	-10.4467
▁инал	-10.4475
▁ЖЭБ	-10.449
▁Ви	-10.4491
▁мге	-10.4492
үүнү	-10.4524
A	-10.4525
Ш	-10.4528
▁кыры	-10.453
▁тика	-10.4546
рөө	-10.455
▁өгү	-10.4575
▁шил	-10.4584
өмү	-10.4594
ерки	-10.4633
▁лип	-10.4637
▁арь	-10.4643
▁кту	-10.4677
▁лис	-10.4681
▁езд	-10.4683
▁Кон	-10.4691
▁ним	-10.4695
▁гиз	-10.4716
▁ыкта	-10.4717
▁сти	-10.472
▁лдер	-10.473
▁ирди	-10.4767
▁вет	-10.4781
▁ерил	-10.479
▁лууда	-10.4795
▁ште	-10.4796
▁мор	-10.4804
▁енция	-10.4812
ылмы	-10.4813
▁ттык	-10.4817
▁ашын	-10.4819
▁уга	-10.4823
▁лим	-10.4828
▁убу	-10.4831
▁реа	-10.4834
▁тиш	-10.4843
▁ерр	-10.4849
▁Че	-10.4858
▁ыша	-10.4861
▁каба	-10.4878
▁рах	-10.489
▁били	-10.4896
▁күрө	-10.4897
▁чул	-10.4901
▁нь	-10.4906
▁аштык	-10.4937
тер	-10.4939
▁улга	-10.4947
▁лым	-10.4966
▁йле	-10.4966
▁27	-10.4981
▁мис	-10.4986
▁аби	-10.4989
▁F	-10.499
▁өктө	-10.5007
▁лав	-10.502
айла	-10.5025
▁ынты	-10.5036
▁фт	-10.5057
▁ырд	-10.506
▁илдик	-10.5067
▁маг	-10.5069
нанс	-10.5076
▁рид	-10.5115
▁манк	-10.5115
▁мур	-10.5123
▁жагы	-10.5153
▁беке	-10.518
▁ипло	-10.5195
▁өөдө	-10.5207
▁ева	-10.5215
уя	-10.5219
▁стиц	-10.5236
▁ушту	-10.5238
▁имдер	-10.524
▁кыр	-10.5255
▁ача	-10.5256
I	-10.5284
кала	-10.5288
▁үт	-10.5292
▁вер	-10.5295
▁манов	-10.5313
b	-10.5334
▁сей	-10.5349
ви	-10.5355
▁рит	-10.536
▁згө	-10.5366
6	-10.5373
▁орук	-10.5383
У	-10.5388
▁жайын	-10.5389
%	-10.5393
▁пта	-10.5405
▁дур	-10.5407
▁нис	-10.5407
▁билд	-10.541
▁шон	-10.5412
▁енг	-10.5414
▁аде	-10.542
▁Тү	-10.5427
▁сай	-10.5444
▁олг	-10.546
▁одекс	-10.5482
▁23	-10.5492
50	-10.5494
▁талат	-10.5497
P	-10.5502
▁лов	-10.5514
оң	-10.5535
▁теби	-10.5537
▁35	-10.5539
▁Re	-10.554
▁етет	-10.5568
▁вто	-10.557
ше	-10.5575
▁фон	-10.5586
▁олуг	-10.559
▁нап	-10.5613
во	-10.5631
▁иева	-10.5632
▁улушу	-10.5642
бо	-10.5677
▁лиш	-10.5677
▁орон	-10.5684
▁лот	-10.5695
▁гүн	-10.5695
▁пте	-10.5726
▁тим	-10.5733
▁аада	-10.5771
▁йг	-10.5788
▁анс	-10.5789
мин	-10.5793
▁ng	-10.5795
▁kg	-10.5805
▁енен	-10.5809
▁тист	-10.5809
▁емо	-10.5815
▁рул	-10.5825
▁атив	-10.5829
▁янс	-10.5844
▁ква	-10.5911
▁90	-10.5914
▁кады	-10.5942
▁тыгын	-10.5948
▁гиле	-10.5949
▁ракт	-10.5969
▁уку	-10.5986
▁тты	-10.5994
▁ха	-10.6035
▁жашта	-10.6042
▁отчет	-10.6047
▁үрк	-10.6058
▁оба	-10.6062
▁арс	-10.6064
үм	-10.6072
▁арлы	-10.61
▁йда	-10.6106
▁рде	-10.6114
▁ышт	-10.6134
▁V	-10.6135
▁алд	-10.6138
▁кеси	-10.6156
▁кчы	-10.6158
▁боор	-10.616
▁этно	-10.6172
ль	-10.6174
▁тышуу	-10.6205
▁ато	-10.6217
▁ука	-10.6221
▁калд	-10.6222
▁a	-10.6258
l	-10.6268
▁ыйна	-10.6272
▁очул	-10.6287
▁нбек	-10.6299
▁сон	-10.6316
▁G	-10.6328
▁атке	-10.635
О	-10.6352
▁кин	-10.6362
▁онуу	-10.6382
▁араб	-10.6384
▁йд	-10.64
▁гем	-10.6402
▁ыбы	-10.6415
▁маш	-10.6426
илет	-10.6434
▁вич	-10.6436
▁26	-10.6439
▁слав	-10.644
▁иреш	-10.6448
▁ранс	-10.6452
▁алга	-10.6454
▁омд	-10.6456
▁угуш	-10.6462
▁тек	-10.6491
уба	-10.6505
▁ныш	-10.6557
▁ице	-10.6563
▁око	-10.6571
▁лд	-10.6575
▁йла	-10.6582
▁здын	-10.6588
▁B	-10.6598
▁кей	-10.6611
▁екст	-10.6619
▁тпө	-10.6628
▁ппо	-10.6642
ne	-10.6649
▁рмасы	-10.6651
▁сып	-10.6656
▁расы	-10.6662
▁чки	-10.6707
▁150	-10.672
3	-10.6726
▁ткү	-10.6732
▁лгө	-10.6742
үндү	-10.6745
▁умт	-10.6766
▁28	-10.6767
▁нам	-10.6773
өз	-10.6776
▁луг	-10.678
▁тала	-10.678
▁еж	-10.6803
▁абай	-10.6808
▁зу	-10.6818
▁хм	-10.6829
▁мда	-10.6831
▁Фин	-10.6868
▁йс	-10.6878
▁автор	-10.6897
ra	-10.6915
▁рез	-10.6922
ашы	-10.6948
4	-10.6957
▁коо	-10.696
▁мди	-10.6965
▁ыно	-10.6977
▁аржы	-10.6982
▁ИМ	-10.6991
m	-10.6996
▁парк	-10.7001
▁наа	-10.7005
▁еб	-10.7008
аж	-10.7019
▁ео	-10.702
▁шама	-10.703
▁иктер	-10.7044
өгө	-10.705
an	-10.7087
▁аам	-10.7088
▁лас	-10.7089
▁иди	-10.7095
ылга	-10.7099
вм	-10.7104
▁иф	-10.7111
▁зин	-10.7112
тын	-10.7113
▁ерм	-10.7126
▁рки	-10.7127
▁стор	-10.713
▁Co	-10.7131
▁шаш	-10.7135
▁гис	-10.7136
▁төт	-10.714
▁олиц	-10.7169
▁осо	-10.717
▁гыр	-10.7194
▁Токт	-10.7194
▁ыргы	-10.7202
▁йин	-10.7204
▁тит	-10.7206
▁рлары	-10.7216
▁рлар	-10.7252
▁пат	-10.7253
ктор	-10.7258
▁ылба	-10.7258
▁үзө	-10.7282
▁кад	-10.7285
▁бий	-10.7285
▁ект	-10.7298
▁аалар	-10.7308
▁бош	-10.7316
▁пин	-10.7321
▁шти	-10.7332
▁ража	-10.7341
▁акто	-10.7347
▁рево	-10.7358
▁ртка	-10.7372
▁лда	-10.7376
▁кеме	-10.7378
▁шери	-10.7402
▁пне	-10.7404
жа	-10.7408
▁үчө	-10.7408
▁елиш	-10.7421
юшту	-10.7422
▁тама	-10.7423
▁дың	-10.7453
▁аил	-10.7456
▁жый	-10.7462
▁O	-10.7465
▁аныш	-10.7468
▁тайт	-10.7469
▁чан	-10.747
ӊ	-10.7474
▁рама	-10.7497
▁c	-10.7506
▁атам	-10.7515
▁ургу	-10.752
▁жыйы	-10.7529
▁жыр	-10.7532
▁айг	-10.7533
▁өңү	-10.7544
▁өбү	-10.7544
▁Ла	-10.7568
▁хо	-10.7577
▁Алма	-10.7577
▁H	-10.7579
▁Бак	-10.7587
▁33	-10.7618
▁Шар	-10.7625
▁айса	-10.7626
▁арш	-10.7628
▁аяна	-10.7632
▁тири	-10.7641
▁лиг	-10.7647
▁3,	-10.7647
▁барды	-10.7653
▁тайы	-10.7667
60	-10.7671
▁айпа	-10.7682
▁ең	-10.7691
▁акул	-10.7699
▁пер	-10.7705
▁ешти	-10.7711
▁пет	-10.7712
▁үд	-10.7715
боор	-10.7717
▁ырка	-10.7722
▁уштуу	-10.7727
▁уя	-10.7735
▁дикт	-10.7754
▁кесе	-10.776
▁нгөн	-10.7767
▁мам	-10.7768
алда	-10.7771
▁ялы	-10.7773
▁кыс	-10.778
▁ураг	-10.7783
▁Мур	-10.7798
▁мчу	-10.7803
▁шташ	-10.7815
▁ялда	-10.7829
▁плат	-10.7855
▁менд	-10.7864
▁Наз	-10.7887
▁акка	-10.7887
оё	-10.7888
эл	-10.7914
▁арб	-10.7926
▁род	-10.7929
ация	-10.793
ина	-10.7932
E	-10.7934
▁Th	-10.7937
5%	-10.7938
▁P	-10.7959
▁гүү	-10.796
▁рсу	-10.7975
▁куру	-10.7979
▁Ку	-10.7996
▁лен	-10.801
▁36	-10.8013
▁мини	-10.8014
▁енб	-10.8029
▁амба	-10.8043
ысы	-10.8057
П	-10.8058
▁45	-10.8063
▁жал	-10.8063
▁Wa	-10.8065
▁екси	-10.8069
еси	-10.8088
ха	-10.8104
▁акшы	-10.8117
▁арти	-10.8124
▁ашин	-10.8125
▁ашат	-10.8127
алыш	-10.8136
▁ченем	-10.8138
щ	-10.8149
▁алп	-10.8158
▁кунд	-10.8161
▁оне	-10.8162
▁аке	-10.8163
▁Ния	-10.8173
▁e	-10.8177
▁орк	-10.8178
▁кча	-10.8182
▁урса	-10.8218
▁чур	-10.8232
▁анас	-10.8245
▁МК	-10.8248
▁лыш	-10.8256
▁юу	-10.8263
Вт	-10.827
тан	-10.8299
▁инд	-10.83
▁уй	-10.8317
▁мов	-10.8332
луб	-10.8342
▁чир	-10.8367
Л	-10.8375
▁рад	-10.8377
оомч	-10.8401
▁рк	-10.8402
▁N	-10.8415
▁Оту	-10.8436
▁Чы	-10.8437
▁ers	-10.8461
▁лын	-10.848
▁илде	-10.8484
▁жуму	-10.8489
▁рай	-10.8495
▁форм	-10.8501
▁зона	-10.8502
S	-10.853
▁актоо	-10.8538
▁бло	-10.8544
▁K	-10.8559
ааси	-10.8573
▁ят	-10.8575
▁лга	-10.8582
▁онт	-10.859
▁32	-10.8604
▁раш	-10.8623
▁оону	-10.8624
▁тран	-10.8627
▁мпа	-10.8628
▁ека	-10.8638
▁ерке	-10.8642
▁йдө	-10.8652
үнчү	-10.8662
▁шер	-10.8677
▁ном	-10.8688
▁айл	-10.8696
уту	-10.8697
▁пч	-10.8706
▁M	-10.8735
▁эшик	-10.8739
▁көрүш	-10.8742
В	-10.8774
▁амир	-10.8794
▁араз	-10.8805
▁блус	-10.8819
▁ээр	-10.8822
▁ерли	-10.8833
▁аси	-10.8834
▁пут	-10.8856
▁аак	-10.8864
▁аст	-10.8875
▁оюнч	-10.8877
▁дия	-10.8891
▁рамы	-10.8892
▁имде	-10.8906
▁ууд	-10.8908
▁тинг	-10.8913
▁ьер	-10.8927
40	-10.8939
▁48	-10.8948
f	-10.8952
▁юл	-10.8957
се	-10.896
▁есе	-10.8971
осо	-10.8985
▁шай	-10.9005
▁пыс	-10.9011
10	-10.9022
▁бал	-10.9026
▁акси	-10.9041
▁лү	-10.9054
C	-10.9056
енем	-10.9071
▁бюро	-10.9104
би	-10.9105
▁уса	-10.912
▁кырк	-10.9121
)	-10.9139
еке	-10.9147
▁ске	-10.9154
▁арч	-10.9165
оза	-10.9181
▁тма	-10.9187
ху	-10.9189
▁нте	-10.9195
▁балы	-10.9209
▁зар	-10.923
▁X	-10.9231
▁йлы	-10.9237
сан	-10.9269
▁зод	-10.9272
▁Литв	-10.9273
▁75	-10.9287
▁бел	-10.9329
▁лге	-10.9334
▁түрүү	-10.9352
▁жаб	-10.9376
▁Акы	-10.9378
▁рг	-10.939
▁ирде	-10.9398
▁таба	-10.9404
▁Кал	-10.9411
▁уму	-10.9414
▁ерд	-10.9421
▁амак	-10.9431
R	-10.9436
дик	-10.9442
N	-10.9459
c	-10.948
▁пто	-10.9489
7	-10.9495
▁ыймы	-10.9496
▁йна	-10.9496
▁ажи	-10.9517
▁номи	-10.9529
мго	-10.9531
▁алаш	-10.9537
▁акти	-10.9543
▁амил	-10.9547
▁еков	-10.9575
тык	-10.9582
▁44	-10.9606
▁рилди	-10.961
▁бри	-10.9618
▁29	-10.9621
▁ранц	-10.9622
▁орис	-10.9637
▁рст	-10.9638
▁пад	-10.9647
▁лм	-10.9678
▁андар	-10.9691
▁лдо	-10.9692
▁үмдөр	-10.9696
▁чуу	-10.97
кү	-10.9712
▁кезе	-10.9717
▁ыпты	-10.9723
▁иви	-10.9747
▁пла	-10.9771
төр	-10.9781
O	-10.9785
▁n	-10.9788
▁талы	-10.98
8	-10.9809
▁еф	-10.9823
▁гай	-10.9823
▁ерг	-10.9827
арла	-10.9844
▁мик	-10.986
▁гине	-10.9861
▁вид	-10.9869
▁мөк	-10.99
▁верс	-10.9916
▁бойт	-10.9922
емби	-10.9923
▁айкы	-10.9934
▁al	-10.9944
▁кил	-10.9984
▁өнө	-10.9987
▁ышкы	-11.0013
▁отто	-11.0019
▁арчы	-11.0022
▁ексу	-11.0028
▁емби	-11.0041
алды	-11.0049
▁Бай	-11.0055
▁фа	-11.0066
▁ому	-11.0072
▁31	-11.0083
▁34	-11.009
▁рса	-11.01
▁учуру	-11.0122
▁кура	-11.0124
сыз	-11.0136
▁Кыл	-11.0136
▁Тур	-11.0148
▁елди	-11.0148
▁зд	-11.015
айд	-11.0152
пани	-11.0159
▁ох	-11.0162
ве	-11.0166
Д	-11.0177
▁анду	-11.0203
▁раз	-11.021
▁улук	-11.022
▁урч	-11.0233
ея	-11.024
▁ром	-11.0265
▁рбе	-11.0273
▁нүгү	-11.0292
▁етр	-11.0307
▁елг	-11.0323
▁тра	-11.0334
▁ыла	-11.0339
▁лими	-11.0342
▁раа	-11.0344
▁алим	-11.0353
▁аши	-11.0357
▁мдар	-11.0365
пос	-11.0369
▁шал	-11.0369
▁[	-11.0389
▁атайы	-11.0393
же	-11.0395
▁ктер	-11.0398
▁рал	-11.0404
▁ья	-11.041
▁зө	-11.0441
▁омо	-11.0442
▁on	-11.0454
T	-11.0458
усу	-11.0462
▁t	-11.0472
▁ост	-11.0481
▁Те	-11.0481
▁рюс	-11.0487
И	-11.0499
▁фин	-11.05
▁сси	-11.0516
▁Не	-11.0523
▁ашка	-11.0523
▁йли	-11.0532
▁ите	-11.0544
▁мыш	-11.0547
▁ух	-11.0555
70	-11.0579
▁ату	-11.0586
▁ена	-11.0608
▁боз	-11.0614
▁рлор	-11.0624
▁мада	-11.063
Т	-11.0635
▁сумма	-11.0637
▁был	-11.0641
▁апо	-11.0656
▁рина	-11.067
▁]	-11.0677
▁ете	-11.0682
▁лес	-11.0691
▁обс	-11.0693
▁ире	-11.0696
▁Ри	-11.0702
▁ажа	-11.0706
▁ипо	-11.0719
▁News	-11.0726
▁енже	-11.0727
▁дио	-11.0729
▁ыгер	-11.0773
орма	-11.0774
▁КСДП	-11.0775
▁анты	-11.0782
▁чүү	-11.0792
▁ног	-11.0801
▁игин	-11.0834
▁рева	-11.0884
▁рчи	-11.0894
буш	-11.0902
▁асп	-11.0904
▁ыя	-11.0904
Н	-11.0928
▁нелер	-11.0948
▁4,	-11.0972
▁екчи	-11.0979
▁ыз	-11.0983
▁елүү	-11.099
▁38	-11.0992
-	-11.1004
ус	-11.1016
▁элчи	-11.1017
▁йч	-11.1025
ve	-11.1025
▁рази	-11.1032
▁тац	-11.104
▁илг	-11.1041
▁Бей	-11.1052
▁кай	-11.1071
▁уда	-11.1079
▁кра	-11.1079
▁идер	-11.1126
▁нж	-11.1132
▁үлдө	-11.1143
рь	-11.1157
▁норм	-11.1163
▁түг	-11.1163
▁сха	-11.1175
at	-11.118
▁алыгы	-11.1181
▁етп	-11.1185
▁ид	-11.1185
▁бог	-11.1187
▁каал	-11.1193
▁рлан	-11.12
▁тес	-11.1203
▁торду	-11.1205
er	-11.1225
▁кери	-11.1264
▁Time	-11.1279
▁амга	-11.1279
▁ыштар	-11.1288
M	-11.129
▁аңга	-11.1292
▁айка	-11.1302
▁Дин	-11.132
епте	-11.1336
▁рына	-11.1361
инов	-11.1366
▁тиг	-11.1368
▁апы	-11.1375
▁айке	-11.1381
▁Inte	-11.1383
▁тети	-11.139
▁үйүн	-11.1391
▁лли	-11.1401
▁соц	-11.1431
Э	-11.1431
▁көл	-11.1435
▁ние	-11.1437
кер	-11.1444
▁отс	-11.1458
▁ше	-11.147
йне	-11.1497
▁st	-11.151
▁уду	-11.1524
▁41	-11.1525
▁асса	-11.1529
▁урд	-11.1531
▁цен	-11.1531
▁абзел	-11.1541
▁рд	-11.1546
▁урун	-11.1557
▁эри	-11.1567
▁Мо	-11.1587
▁рж	-11.1588
▁кадр	-11.1592
▁айлоо	-11.1599
▁импе	-11.1606
енди	-11.1607
▁лоодо	-11.1614
▁яны	-11.162
▁E	-11.1631
▁анц	-11.1633
▁елис	-11.1633
▁талды	-11.1634
▁ярд	-11.164
▁енти	-11.1645
▁лашы	-11.1669
Б	-11.1672
▁37	-11.1705
▁ылга	-11.1711
▁Айр	-11.1717
▁шө	-11.1744
▁аид	-11.1749
▁ыра	-11.1751
▁55	-11.1755
▁rna	-11.1761
▁моо	-11.1771
▁лдар	-11.1792
▁поэ	-11.1815
▁эж	-11.1817
сса	-11.1831
▁уроо	-11.1835
▁Сал	-11.1845
лбай	-11.1851
ёт	-11.1873
нов	-11.1874
▁ктө	-11.1878
ою	-11.1887
ран	-11.19
▁рча	-11.1913
▁АЭС	-11.1919
▁ксы	-11.1922
▁ышта	-11.1946
▁өй	-11.1947
▁нди	-11.1948
▁Шам	-11.1948
▁сала	-11.198
▁лде	-11.199
▁уши	-11.1994
▁чем	-11.201
▁үзгө	-11.201
▁муш	-11.2022
▁ШКУ	-11.203
▁осун	-11.203
▁оосу	-11.203
▁узд	-11.205
▁рдин	-11.2058
▁рен	-11.206
▁раил	-11.206
▁оц	-11.2063
пте	-11.2069
▁ерти	-11.2078
▁мбе	-11.2085
▁зди	-11.2104
▁ида	-11.2106
▁чаб	-11.2108
▁иет	-11.2125
▁угат	-11.213
▁циа	-11.2132
▁Роз	-11.2139
▁ензи	-11.2143
▁засы	-11.2151
▁нч	-11.2161
лас	-11.2161
Эл	-11.2179
▁тага	-11.2187
▁аха	-11.2192
▁гноз	-11.2198
үчтө	-11.2202
▁ерим	-11.2207
▁илге	-11.2231
▁65	-11.2264
▁емин	-11.2266
▁ылым	-11.2284
асыл	-11.2284
▁ырч	-11.2286
▁алоо	-11.2314
▁нес	-11.2342
▁роф	-11.2343
Ак	-11.2345
▁фу	-11.2359
▁шууда	-11.2364
▁алли	-11.2366
тег	-11.2375
▁лбо	-11.2391
▁яд	-11.2394
▁тет	-11.2397
▁кте	-11.2399
▁амас	-11.2437
▁адах	-11.245
хна	-11.2451
▁эст	-11.2473
▁ерни	-11.2491
▁поте	-11.2499
▁енд	-11.2499
z	-11.2522
▁ишкен	-11.2524
со	-11.2525
▁урба	-11.2542
▁үлө	-11.2575
▁ыда	-11.2585
:	-11.2595
▁птыр	-11.2603
уюр	-11.2606
▁анч	-11.2617
h	-11.2625
орло	-11.2631
▁g	-11.2633
▁39	-11.264
▁гонд	-11.2659
▁250	-11.2683
жи	-11.2689
▁Ri	-11.2696
ght	-11.2722
▁BBC	-11.2722
▁ордук	-11.2728
▁43	-11.2729
▁омп	-11.2751
▁йыр	-11.2758
▁асс	-11.2761
▁шет	-11.2769
▁итет	-11.2775
x	-11.2781
▁IT	-11.2783
▁47	-11.2832
▁мене	-11.2837
▁квота	-11.2842
лбей	-11.2848
▁тот	-11.285
▁ако	-11.2856
рлик	-11.2858
▁йб	-11.2867
▁каты	-11.2903
▁нвес	-11.2914
▁ваг	-11.292
▁угун	-11.2932
▁жек	-11.2948
▁евди	-11.2957
▁You	-11.2964
эн	-11.2966
▁мист	-11.2971
▁ыба	-11.2974
▁ори	-11.2975
алиб	-11.2978
▁лушу	-11.3032
▁ижар	-11.3066
рлер	-11.3068
▁нве	-11.3076
▁мдү	-11.308
▁арий	-11.3081
▁пар	-11.3085
ИЧ	-11.3087
▁гре	-11.3093
▁ыска	-11.3095
▁тада	-11.3119
▁тпа	-11.312
▁нас	-11.3121
ri	-11.3127
ѳ	-11.3141
үйө	-11.3157
СР	-11.3176
▁нсу	-11.3191
▁карг	-11.3198
▁кич	-11.3213
▁Топ	-11.3257
▁D	-11.3258
▁иге	-11.3261
▁мүн	-11.3272
▁̆	-11.3274
▁мбаев	-11.328
▁ирс	-11.3297
▁енат	-11.3311
▁илб	-11.3329
оло	-11.3333
▁енген	-11.3341
▁ело	-11.3354
▁апса	-11.3354
▁шот	-11.3361
▁аптар	-11.3367
▁либ	-11.3381
доо	-11.3399
▁елин	-11.3401
D	-11.3406
▁иль	-11.3413
▁нот	-11.3422
▁42	-11.343
▁изи	-11.3435
▁ЦАХА	-11.3465
▁еши	-11.3468
▁рмо	-11.347
▁луусу	-11.3473
▁йза	-11.3487
пус	-11.3498
▁орб	-11.3504
▁епте	-11.3519
▁етал	-11.3524
▁сул	-11.3547
▁Коро	-11.3572
лов	-11.3582
▁нөк	-11.3587
▁аршы	-11.3607
▁берд	-11.3607
▁ерч	-11.361
▁рав	-11.3619
тагы	-11.365
L	-11.3653
▁шык	-11.3662
▁рага	-11.367
▁лиф	-11.3674
▁ерма	-11.368
▁ымда	-11.3681
▁нчи	-11.3697
▁Кир	-11.3711
B	-11.3718
▁ттө	-11.3725
▁рдун	-11.3728
аны	-11.3728
▁келд	-11.3736
▁өкмө	-11.3757
v	-11.3764
g	-11.3772
▁уша	-11.3778
▁берг	-11.3802
бу	-11.3806
▁мани	-11.3808
▁o	-11.3838
▁Каз	-11.3854
▁эти	-11.386
▁олл	-11.3868
▁ДСС	-11.3868
▁нике	-11.387
▁марк	-11.3871
исс	-11.3886
▁елде	-11.3902
▁аррис	-11.3927
▁ca	-11.3942
▁патр	-11.3948
▁гус	-11.3958
▁гүз	-11.3965
▁олун	-11.3969
▁күлд	-11.3971
▁сок	-11.3977
▁елд	-11.3978
▁Хи	-11.3999
▁ѳ	-11.4001
▁тозо	-11.4006
▁чей	-11.4007
▁ела	-11.4026
▁згөр	-11.4036
▁увер	-11.4062
▁үг	-11.4067
▁маны	-11.4074
▁me	-11.4091
▁рш	-11.4097
▁отч	-11.4099
F	-11.4104
▁Fac	-11.413
▁тчы	-11.4147
жен	-11.4147
▁Сан	-11.4162
▁егин	-11.4166
▁нанс	-11.417
▁өөлө	-11.4173
▁ахма	-11.418
▁лак	-11.4184
Ф	-11.4191
▁елим	-11.4193
ll	-11.4197
▁ысын	-11.4236
▁Хан	-11.4251
▁артта	-11.4251
▁ейб	-11.4256
▁ондор	-11.4267
▁Hum	-11.4268
▁er	-11.427
▁улг	-11.4271
▁изол	-11.4272
▁урни	-11.4282
▁етик	-11.4287
▁айна	-11.4293
▁Рад	-11.4299
▁абр	-11.4311
▁опту	-11.4323
▁gram	-11.4338
tch	-11.4341
▁57	-11.4348
75	-11.4354
▁зг	-11.437
▁болу	-11.4393
vid	-11.4413
▁54	-11.4432
▁уль	-11.4439
ох	-11.4442
▁арла	-11.4504
▁Кли	-11.4509
▁ибер	-11.4517
▁ылд	-11.452
▁аме	-11.4528
▁уял	-11.4532
▁нна	-11.4539
▁сман	-11.4543
;	-11.4544
▁өдө	-11.4555
▁ыял	-11.4555
▁ици	-11.456
▁ечи	-11.4576
▁лору	-11.4587
▁нөт	-11.459
үч	-11.4597
▁ике	-11.4598
▁үрд	-11.4605
ымба	-11.4607
▁етро	-11.4609
мбу	-11.4615
▁үлүк	-11.4617
▁62	-11.4617
▁63	-11.4632
▁U	-11.4636
▁ило	-11.4639
▁мара	-11.4641
la	-11.4641
тура	-11.4644
▁лама	-11.4649
▁чен	-11.4658
▁эши	-11.4658
▁алыг	-11.4677
▁айни	-11.468
▁амг	-11.4684
▁ржав	-11.4696
▁пти	-11.4723
▁6,	-11.4724
▁ыты	-11.4729
▁ях	-11.4738
▁онун	-11.4744
▁ирич	-11.4746
▁стр	-11.4762
rk	-11.4765
▁зилд	-11.4772
▁нса	-11.4775
яз	-11.478
ват	-11.4787
▁айыны	-11.4798
▁ойду	-11.4845
▁ентте	-11.4855
▁асе	-11.4856
▁рава	-11.4863
▁азап	-11.4871
▁анаг	-11.4873
▁лайы	-11.4881
▁кто	-11.4882
ети	-11.4887
▁екс	-11.49
▁нова	-11.4906
▁бю	-11.491
▁k	-11.4911
▁ресе	-11.4925
▁лчи	-11.4927
▁лова	-11.4928
▁болг	-11.493
▁алг	-11.4935
▁ега	-11.4939
▁ттөр	-11.4942
▁ндыгы	-11.4954
омду	-11.4955
▁опто	-11.4964
▁рине	-11.4968
▁отор	-11.5
▁том	-11.5009
МК	-11.5039
▁өмө	-11.5051
▁58	-11.506
▁пахта	-11.5066
▁ошто	-11.5066
▁i	-11.5072
хо	-11.5077
▁анжа	-11.5079
re	-11.5081
▁рба	-11.5083
▁КТРК	-11.5084
▁амен	-11.5089
▁уни	-11.5108
▁койг	-11.5109
иза	-11.5141
▁Li	-11.5144
▁ано	-11.5144
▁ӊ	-11.5157
▁ыст	-11.5158
▁лхо	-11.5165
▁алас	-11.5171
▁сеп	-11.5173
▁5,	-11.5181
▁лья	-11.5184
оди	-11.5184
▁85	-11.5186
▁Раз	-11.5192
▁йүн	-11.5194
▁урах	-11.5196
▁ерме	-11.5201
▁гил	-11.5206
▁лад	-11.5208
▁Tube	-11.5218
▁­	-11.5218
▁сап	-11.5222
▁w	-11.5227
▁аасы	-11.524
▁Кам	-11.5257
▁кис	-11.527
йру	-11.5293
▁52	-11.5313
▁ымб	-11.5323
▁рада	-11.5361
▁ФСБ	-11.5372
▁аимов	-11.5373
▁ньян	-11.5374
▁нист	-11.5381
▁тиз	-11.5381
▁ЖАМ	-11.539
▁жазд	-11.5395
w	-11.544
▁өөнө	-11.5448
▁R	-11.5473
▁шко	-11.5477
▁итте	-11.548
▁гр	-11.5483
▁Ту	-11.5484
▁непр	-11.5505
лөрү	-11.5514
▁здөр	-11.5519
▁L	-11.5532
▁улжа	-11.5533
▁Am	-11.5536
▁изин	-11.5547
▁49	-11.5549
▁иро	-11.5555
▁як	-11.5555
▁ласы	-11.5569
▁рго	-11.557
▁68	-11.5571
Е	-11.5573
▁лига	-11.559
▁риб	-11.5595
▁блема	-11.5609
▁кова	-11.561
▁түгү	-11.5611
▁шин	-11.5631
атви	-11.5635
уля	-11.5635
▁53	-11.5647
▁дж	-11.5648
▁TV	-11.5689
▁зыя	-11.5691
▁еттик	-11.5705
▁теб	-11.5713
▁ааныш	-11.5717
тай	-11.5724
▁рх	-11.5726
▁чийки	-11.5769
▁зинф	-11.5775
▁зде	-11.578
лист	-11.578
тоо	-11.5785
▁стин	-11.5802
▁180	-11.5804
▁аво	-11.5806
8%	-11.5832
-3	-11.5836
▁узи	-11.5838
ана	-11.5838
▁зил	-11.5855
▁росс	-11.5855
▁ран	-11.5856
▁61	-11.5857
▁7,	-11.5891
М	-11.5894
▁ааны	-11.59
▁Кол	-11.5901
▁or	-11.5921
Ж	-11.5925
U	-11.5925
өйрө	-11.5932
▁шахт	-11.5933
▁l	-11.5934
▁77	-11.5983
▁дог	-11.5985
▁оңу	-11.6001
▁тыш	-11.6014
▁алиф	-11.6032
▁рел	-11.6052
▁опо	-11.6078
▁амаг	-11.6096
▁чаба	-11.6107
▁ьян	-11.6113
▁аим	-11.6115
6%	-11.6128
▁ауди	-11.6134
▁орде	-11.6142
▁аева	-11.6143
▁ерик	-11.6146
80	-11.615
▁book	-11.6182
90	-11.6184
▁улпу	-11.619
диги	-11.6201
▁тех	-11.6209
12	-11.6217
▁уюш	-11.6218
▁ппа	-11.6228
▁46	-11.623
▁ашал	-11.624
37	-11.6261
▁роо	-11.6287
▁йне	-11.6291
МУ	-11.6293
▁Ma	-11.6295
▁Шир	-11.63
▁чег	-11.6311
▁рыз	-11.6314
▁алет	-11.6321
▁Гу	-11.6345
▁орту	-11.6347
▁Лю	-11.6369
▁урб	-11.6374
▁укка	-11.6379
▁иру	-11.6397
47	-11.6401
▁вир	-11.6401
▁рот	-11.6416
W	-11.643
le	-11.6435
27	-11.6446
тема	-11.6456
▁рылды	-11.6462
▁лго	-11.6471
▁наты	-11.6482
▁ирус	-11.6485
▁рме	-11.6499
▁суб	-11.6499
Ө	-11.6518
25	-11.6538
▁мана	-11.654
4%	-11.6562
▁ренд	-11.657
▁тый	-11.6591
ty	-11.6594
▁пайг	-11.6595
ИС	-11.6609
▁дашты	-11.6616
▁олла	-11.6627
▁рсе	-11.663
▁59	-11.6636
▁абир	-11.6649
аки	-11.6655
▁шей	-11.6657
▁фер	-11.6668
▁ахар	-11.6675
▁73	-11.668
-4	-11.6692
▁h	-11.67
▁анхай	-11.6702
▁ртты	-11.6705
▁лдор	-11.6737
▁130	-11.6738
▁li	-11.6758
▁опк	-11.6767
li	-11.6769
▁ербе	-11.677
енчи	-11.6785
▁гд	-11.679
▁литр	-11.6804
ряд	-11.6809
30	-11.6813
▁лон	-11.6826
▁аё	-11.683
▁дири	-11.6836
▁алал	-11.6837
елбе	-11.6844
▁72	-11.6864
▁руп	-11.6866
▁аалы	-11.6874
▁Жар	-11.6881
▁kz	-11.6881
▁екц	-11.6884
▁rov	-11.6886
▁ахри	-11.6888
▁et	-11.6902
▁ариф	-11.6903
акты	-11.6916
▁New	-11.6971
9	-11.6972
Y	-11.6972
▁AFP	-11.6972
▁аброй	-11.6972
RW	-11.6973
-5	-11.6974
▁алч	-11.6978
мчы	-11.698
▁вд	-11.6984
тон	-11.6991
14	-11.6998
▁ооч	-11.7007
Ч	-11.7009
ck	-11.7011
▁итан	-11.7018
▁малы	-11.7019
▁йыпт	-11.7019
▁абын	-11.7022
15	-11.7053
▁үлөр	-11.7055
▁LI	-11.7064
18	-11.7066
▁56	-11.7109
урму	-11.7111
▁ули	-11.7119
лери	-11.712
▁оме	-11.7149
▁това	-11.7152
▁nce	-11.7157
ура	-11.7164
▁нгө	-11.7168
▁мдери	-11.7191
▁W	-11.7225
▁лбай	-11.7247
▁Air	-11.725
▁ЖК	-11.7261
▁орой	-11.7283
▁m	-11.7286
окс	-11.7316
ЭР	-11.732
▁кым	-11.7322
G	-11.7337
▁67	-11.734
▁Yo	-11.7344
▁Sp	-11.7346
пич	-11.7359
▁Так	-11.7377
▁удан	-11.7381
▁ариат	-11.7391
▁аци	-11.7404
▁ТАСС	-11.744
▁us	-11.744
▁дсме	-11.744
▁ЕБ	-11.7442
▁76	-11.7473
кция	-11.7488
emi	-11.749
▁II	-11.7515
ТР	-11.7521
▁иле	-11.7526
▁ойг	-11.7527
7%	-11.7544
32	-11.7548
▁Уч	-11.7555
▁урпа	-11.7561
▁зб	-11.7563
▁51	-11.7578
▁Зама	-11.7579
▁Ka	-11.76
?	-11.7626
▁яга	-11.7633
▁вро	-11.7638
▁илег	-11.7658
▁шир	-11.7659
▁тою	-11.7659
▁убара	-11.7663
▁мүр	-11.7666
▁оста	-11.7674
on	-11.7695
▁ТИМ	-11.7697
▁аама	-11.7698
▁алян	-11.7705
▁ьев	-11.7705
▁эро	-11.7739
▁шын	-11.774
▁ороон	-11.7741
▁умен	-11.7747
nd	-11.7748
▁лабы	-11.7771
▁ланд	-11.7775
▁тели	-11.7785
▁ирек	-11.7788
▁жог	-11.7798
▁40%	-11.7808
ник	-11.7812
ест	-11.7825
▁шел	-11.7825
▁лит	-11.7826
▁шха	-11.7838
▁нуэл	-11.7852
▁умг	-11.7858
▁рка	-11.786
▁рома	-11.7883
▁авло	-11.7909
▁чка	-11.7921
▁упер	-11.7929
Г	-11.793
▁пикет	-11.793
▁авел	-11.7939
▁вгус	-11.7941
▁69	-11.7946
▁ухта	-11.7949
▁20%	-11.7963
▁инге	-11.8002
▁ышка	-11.8021
▁риле	-11.803
ья	-11.8077
▁став	-11.8081
▁De	-11.8095
▁эрк	-11.8107
▁Пара	-11.8109
▁линг	-11.8114
▁ссё	-11.814
2%	-11.8155
VE	-11.816
олго	-11.8182
▁5%	-11.8187
ех	-11.8193
▁есси	-11.8193
▁Tel	-11.8204
мос	-11.8207
▁Бор	-11.8219
ov	-11.8224
▁Ло	-11.8228
▁номе	-11.8228
▁Getty	-11.8236
▁шраф	-11.8236
▁ящ	-11.8246
▁эко	-11.8248
▁64	-11.8267
▁жем	-11.828
Ал	-11.8289
▁улы	-11.8294
▁гали	-11.8313
цов	-11.8313
тес	-11.832
▁84	-11.8324
▁Kloop	-11.834
хаз	-11.8356
▁йылд	-11.8356
▁рабы	-11.8359
▁шпа	-11.8361
▁78	-11.8375
▁аска	-11.8381
бир	-11.8389
17	-11.8402
65	-11.8409
▁зам	-11.8413
көр	-11.8429
▁юз	-11.8433
▁71	-11.8434
▁асфа	-11.8446
▁Wh	-11.8446
▁амдар	-11.8449
▁еңе	-11.8456
▁рү	-11.8458
▁сени	-11.8485
▁евер	-11.8498
КО	-11.8523
21	-11.8526
K	-11.8544
ЕФ	-11.8544
▁Сен	-11.8551
'	-11.8552
▁Pres	-11.8552
▁алкак	-11.8555
бас	-11.8558
▁ибе	-11.8573
ье	-11.8581
▁армо	-11.8584
▁Пан	-11.8595
▁олит	-11.8614
▁Гор	-11.8618
▁янд	-11.8633
▁айку	-11.865
NN	-11.8659
29	-11.8667
38	-11.8692
▁өсү	-11.8695
▁эск	-11.8701
▁ирке	-11.8702
▁чөп	-11.8704
жер	-11.8704
ech	-11.8707
▁ed	-11.871
▁уулд	-11.8727
:0	-11.8768
1%	-11.8783
▁лаур	-11.8784
▁рант	-11.8795
▁лөт	-11.8803
▁ива	-11.8808
▁шени	-11.8809
ью	-11.8811
▁дады	-11.882
▁ураб	-11.8824
▁акет	-11.8827
▁Рим	-11.8849
31	-11.8869
▁амза	-11.8882
▁шиев	-11.8889
26	-11.8895
▁тылды	-11.8902
лары	-11.8905
▁гри	-11.8917
▁үктөр	-11.8921
тёр	-11.8931
▁акса	-11.8943
▁үс	-11.8945
▁ырг	-11.8945
убли	-11.8957
▁Te	-11.8958
▁зав	-11.8967
ИИБ	-11.8984
▁өлгө	-11.8985
lo	-11.8989
▁Bio	-11.8989
▁нолог	-11.8989
▁күсү	-11.899
▁вело	-11.8991
▁ымын	-11.9012
▁ози	-11.9021
▁чагы	-11.9036
эй	-11.9037
▁киле	-11.9038
▁очо	-11.9043
ic	-11.9044
61	-11.9081
▁ороз	-11.9097
▁чай	-11.9102
▁аксы	-11.9106
▁95	-11.9118
▁амду	-11.9132
▁ырах	-11.9134
45	-11.9135
46	-11.9138
▁d	-11.9145
16	-11.916
овду	-11.9166
▁ушта	-11.9168
▁VI	-11.9175
лер	-11.9176
▁рейс	-11.9181
▁вист	-11.9181
▁To	-11.9199
▁туб	-11.9202
шкөн	-11.9205
-9	-11.9211
▁ӨКМ	-11.9221
il	-11.9226
▁Рас	-11.924
▁еат	-11.9266
▁еба	-11.9269
36	-11.9269
▁учу	-11.9304
35	-11.9316
ik	-11.9324
▁ru	-11.9333
▁Пол	-11.9334
▁Pf	-11.9339
▁опур	-11.9339
▁атер	-11.9347
пед	-11.9348
▁яч	-11.9349
▁шпе	-11.9353
▁асул	-11.9355
▁ейтер	-11.9366
ель	-11.938
▁имм	-11.938
▁ези	-11.9396
▁нота	-11.945
▁афи	-11.9451
▁үзг	-11.9453
▁емеси	-11.9455
▁Ze	-11.9457
9%	-11.9461
▁гасы	-11.9468
ch	-11.947
13	-11.9492
▁зер	-11.9499
▁обер	-11.95
▁чеб	-11.9516
▁Хо	-11.9521
▁ялд	-11.9555
▁рту	-11.9565
▁нефт	-11.9566
▁шыб	-11.9567
▁Ль	-11.9574
19	-11.9575
▁нети	-11.9579
vi	-11.9609
▁ымы	-11.9609
▁мато	-11.9621
▁Үй	-11.9629
▁74	-11.9659
▁Рай	-11.9669
ДК	-11.9684
ly	-11.9694
▁арид	-11.9734
kt	-11.9739
▁эте	-11.9746
▁de	-11.9762
▁шоо	-11.9785
ro	-11.9791
▁sApp	-11.9803
▁айбыз	-11.9804
-8	-11.9806
▁вест	-11.9806
▁этти	-11.9814
▁ниве	-11.9818
их	-11.9829
▁еӊ	-11.9846
▁олс	-11.9846
▁ному	-11.9855
▁Ного	-11.9883
ух	-11.989
▁иңд	-11.9909
▁расс	-11.991
▁вис	-11.9911
▁83	-11.9929
шав	-11.9932
▁утта	-11.9963
▁арпа	-11.997
▁паке	-11.9973
ула	-11.9977
az	-11.998
▁Дүй	-11.9989
▁ялар	-12.0002
▁87	-12.0017
ЕС	-12.002
07	-12.0022
ткен	-12.0025
▁ктары	-12.0027
КМ	-12.0037
▁J	-12.004
ъ	-12.0049
▁ашар	-12.0058
▁улло	-12.0074
▁сүрө	-12.0095
▁емасы	-12.0096
09	-12.0112
▁com	-12.0174
II	-12.0194
▁нүкт	-12.0203
гиле	-12.0208
ta	-12.0212
аль	-12.0248
54	-12.0253
in	-12.0255
▁орке	-12.0263
▁полк	-12.0264
V	-12.0277
64	-12.0292
▁үмдө	-12.0298
▁артты	-12.0308
mi	-12.0312
▁имму	-12.0321
▁усту	-12.0345
▁енес	-12.0361
▁нци	-12.0371
▁рта	-12.0375
63	-12.0378
▁шим	-12.0397
▁66	-12.0399
бер	-12.0402
НК	-12.041
▁86	-12.0423
▁фавит	-12.0429
▁врем	-12.0429
▁сфан	-12.0432
▁лдөр	-12.0442
77	-12.0442
al	-12.0443
▁мите	-12.0457
▁арим	-12.0468
▁икс	-12.0471
▁штү	-12.0471
▁8,	-12.0496
▁ыза	-12.0509
▁мурд	-12.0515
▁йды	-12.0532
me	-12.0553
▁шиши	-12.0561
51	-12.0589
▁мора	-12.0591
ахма	-12.0622
вах	-12.0627
▁хак	-12.063
24	-12.0634
▁веб	-12.0638
28	-12.0647
▁налы	-12.0659
11	-12.0677
ha	-12.069
▁Next	-12.069
▁ырба	-12.0693
▁ство	-12.0699
55	-12.0716
▁ухар	-12.0724
▁өргө	-12.0726
▁лман	-12.0729
▁Кас	-12.075
▁вра	-12.0761
▁шөт	-12.077
▁ызда	-12.0773
86	-12.0776
ce	-12.0778
▁пуля	-12.0785
▁79	-12.0789
74	-12.0805
▁Пас	-12.0805
▁5-	-12.0807
▁рсла	-12.0828
06	-12.083
72	-12.0855
▁дже	-12.0878
өлү	-12.088
34	-12.0886
мент	-12.0892
▁юп	-12.09
▁Ch	-12.0923
▁шине	-12.0927
▁икит	-12.0948
▁Di	-12.0957
▁Goo	-12.0959
▁циви	-12.0962
▁Le	-12.0962
▁етме	-12.0969
▁сист	-12.0974
76	-12.0978
рет	-12.1009
▁81	-12.1031
▁ТВ	-12.1046
08	-12.1077
▁Astr	-12.108
▁in	-12.1082
верс	-12.109
▁үздү	-12.1096
▁уро	-12.1096
▁лтүр	-12.1097
▁тизм	-12.111
▁Jo	-12.1117
▁вед	-12.1127
▁nt	-12.115
▁соо	-12.1184
▁шоу	-12.1186
▁ептер	-12.1193
▁КР	-12.1194
H	-12.1194
▁ze	-12.1197
ia	-12.1219
▁чоро	-12.1226
▁Cen	-12.1234
▁gle	-12.1235
ИД	-12.1243
▁лдү	-12.1243
▁шаки	-12.1251
▁nd	-12.1258
▁тоодо	-12.1264
95	-12.1265
▁зоок	-12.1265
АЭ	-12.1288
▁зоо	-12.1295
▁82	-12.1296
люс	-12.1303
be	-12.1322
▁луш	-12.1333
▁чик	-12.1339
85	-12.1363
81	-12.1375
▁cia	-12.1376
:1	-12.1376
▁Бел	-12.1377
83	-12.1379
▁nik	-12.1385
▁осто	-12.1428
зиз	-12.1428
92	-12.1458
▁неги	-12.146
sh	-12.1466
▁тог	-12.1467
23	-12.1488
▁z	-12.1512
▁йү	-12.1517
ГАТ	-12.1518
▁dia	-12.1519
▁исси	-12.1521
67	-12.1523
42	-12.1529
▁При	-12.153
52	-12.1548
▁шире	-12.1564
ni	-12.1568
▁йлар	-12.1579
▁үнгө	-12.1604
▁табыз	-12.1642
▁Bo	-12.1649
▁орос	-12.1659
▁елоси	-12.1664
▁улин	-12.1667
ct	-12.1677
03	-12.1701
▁Том	-12.1704
▁мдер	-12.1706
▁үзүү	-12.171
рав	-12.1747
▁Pa	-12.1775
▁раж	-12.1781
04	-12.18
CCR	-12.181
▁Ass	-12.181
▁Blo	-12.181
▁енне	-12.1823
IMA	-12.1829
КК	-12.1846
▁шыка	-12.1856
▁роман	-12.1885
44	-12.1887
КС	-12.1908
ma	-12.1933
▁ийке	-12.1935
ФА	-12.194
▁Post	-12.1959
shi	-12.196
▁ur	-12.1967
▁пило	-12.1967
▁өшү	-12.1984
▁Мэ	-12.1996
▁нейт	-12.1997
▁ИД	-12.2006
▁Ула	-12.2045
▁ху	-12.2054
▁Cha	-12.2056
IX	-12.2058
оха	-12.207
ритм	-12.2087
▁ro	-12.2096
▁Str	-12.2112
▁дзю	-12.2112
▁ri	-12.2135
▁Шад	-12.2166
▁зду	-12.2174
эч	-12.2184
▁y	-12.2194
da	-12.2201
op	-12.2201
оору	-12.2206
▁Inst	-12.221
68	-12.2221
▁Ba	-12.2236
▁Пре	-12.2242
▁te	-12.2247
▁ежи	-12.226
▁Media	-12.2265
▁екаб	-12.2293
типе	-12.23
ga	-12.2303
▁атто	-12.2316
▁уэ	-12.2316
▁98	-12.235
▁чоку	-12.2355
▁яба	-12.2392
62	-12.2405
▁увейт	-12.2421
ki	-12.2422
39	-12.2439
▁лбей	-12.2441
▁So	-12.2466
▁мино	-12.2471
43	-12.2479
▁эпо	-12.2549
48	-12.2559
▁аалим	-12.258
▁Шү	-12.2584
▁себ	-12.2594
▁илүү	-12.2637
▁уэл	-12.264
▁na	-12.2642
▁леге	-12.2651
22	-12.2655
ИЗО	-12.2741
ho	-12.2742
▁La	-12.2743
▁Заха	-12.2745
▁омас	-12.2749
▁прав	-12.2775
▁97	-12.2782
56	-12.2787
▁Ca	-12.2816
▁пред	-12.2819
▁куну	-12.282
97	-12.2843
▁Пир	-12.2856
▁Кад	-12.2877
▁93	-12.2887
Z	-12.2898
#	-12.3241
З	-12.3644
J	-12.376
!	-12.4508
j	-12.5747
X	-12.6276
Х	-12.7157
і	-12.7958
&	-12.8816
Ү	-12.9424
Ы	-13.008
Ц	-13.0781
Q	-13.0782
қ	-13.0789
ı	-13.1944
ɵ	-13.2796
Ю	-13.3719
\	-13.3726
Ѳ	-13.3726
І	-13.5308
_	-13.5896
q	-13.6514
@	-13.6521
0	-13.7535
°	-13.7895
ş	-13.7902
−	-13.7902
ü	-13.7902
+	-13.9498
ә	-14.0414
Я	-14.1407
`	-14.1414
ғ	-14.2525
ا	-14.3775
·	-14.3775
/	-14.516
é	-14.5204
=	-14.5204
️	-14.5204
ç	-14.5204
ə	-14.687
¬	-14.687
ұ	-14.687
•	-14.687
▪	-14.687
Ң	-14.887
ö	-14.887
ğ	-14.887
ل	-15.137
©	-15.137
́	-15.137
á	-15.4704
Ь	-15.4704
ق	-15.4704
⁄	-15.4704
→	-15.4704
昆	-15.4704
ҳ	-15.4704
Ö	-15.9704
â	-15.9704
í	-15.9704
ï	-15.9704
љ	-15.9704
Ұ	-15.9704
ҷ	-15.9704
ӏ	-15.9704
و	-15.9704
ُ	-15.9704
―	-15.9704
⁣	-15.9704
●	-15.9704
鬲	-16.9684
韓	-16.9685
鄄	-16.9686
堅	-16.9687
ح	-16.9688
Ә	-16.9689
Ç	-16.969
ʙ	-16.9691
Ü	-16.9692
⠀	-16.9693
İ	-16.9694
Щ	-16.9695
Ɵ	-16.9696
Ş	-16.9697
$	-16.9697
*	-16.9697
]	-16.9697
Қ	-16.9698
Ё	-16.9699
­	-16.97
̆	-16.9701
[	-16.9702
Й	-16.9703
ظ	-16.9704
ع	-16.9704
ن	-16.9704
{	-16.9704
}	-16.9704
£	-16.9704
§	-16.9704
Ñ	-16.9704
ß	-16.9704
ã	-16.9704
ä	-16.9704
è	-16.9704
ñ	-16.9704
ā	-16.9704
ą	-16.9704
Ŋ	-16.9704
Š	-16.9704
ū	-16.9704
ƚ	-16.9704
Ƣ	-16.9704
ƣ	-16.9704
ʼ	-16.9704
̧	-16.9704
Ђ	-16.9704
Ъ	-16.9704
ђ	-16.9704
ї	-16.9704
ћ	-16.9704
ў	-16.9704
һ	-16.9704
خ	-16.9704
د	-16.9704
ر	-16.9704
ز	-16.9704
ص	-16.9704
ط	-16.9704
غ	-16.9704
ك	-16.9704
م	-16.9704
ه	-16.9704
ي	-16.9704
ِ	-16.9704
‒	-16.9704
⁠	-16.9704
回	-16.9704
族	-16.9704
(	-16.9704
ӯ	-16.9704
