<unk>	0
<s>	0
</s>	0
▁.	-3.64134
▁к	-3.7315
▁,	-3.96405
▁б	-4.10987
н	-4.33122
▁м	-4.40513
▁т	-4.42
▁-	-4.47968
▁"	-4.55627
▁ж	-4.59181
р	-4.6538
▁н	-4.65648
л	-4.7322
т	-4.80988
а	-4.84336
к	-4.91145
▁да	-4.94948
▁с	-5.0286
▁ган	-5.03577
▁а	-5.06493
▁д	-5.10447
п	-5.13204
▁ы	-5.24815
▁га	-5.40421
и	-5.41574
▁Б	-5.43792
▁К	-5.44391
▁А	-5.44979
▁менен	-5.4599
ы	-5.49705
▁и	-5.50183
▁2	-5.5489
▁жана	-5.58641
▁о	-5.60386
▁дын	-5.60981
▁1	-5.63814
▁М	-5.67916
▁нын	-5.67972
е	-5.69338
▁ар	-5.71806
▁0	-5.73456
д	-5.753
▁бир	-5.8043
▁ия	-5.80792
▁ал	-5.84624
▁у	-5.85063
▁э	-5.90018
▁лар	-5.90144
о	-5.90997
▁тар	-5.95218
▁кан	-5.95239
й	-5.96468
▁ко	-5.97859
▁Т	-5.98069
ш	-5.98718
▁ды	-6.01923
▁ч	-6.0298
г	-6.03287
▁ында	-6.03369
▁ып	-6.04764
▁С	-6.04827
м	-6.06669
▁нда	-6.07933
▁деп	-6.0817
▁п	-6.1028
▁ын	-6.11112
▁гы	-6.12885
▁жат	-6.14311
▁уу	-6.14818
▁л	-6.16985
▁О	-6.17851
▁лык	-6.18173
▁ат	-6.20034
▁ка	-6.25273
▁эле	-6.25305
з	-6.25564
▁сы	-6.25618
▁Ж	-6.26685
▁дин	-6.27511
▁ай	-6.28893
▁на	-6.30852
▁зстан	-6.31767
▁р	-6.32127
▁дан	-6.34042
▁кет	-6.36424
▁ара	-6.37534
▁оюнча	-6.40003
▁ге	-6.40876
▁маал	-6.42875
▁ына	-6.43384
▁Ал	-6.43986
▁дар	-6.45329
▁олгон	-6.47314
▁ү	-6.5093
▁й	-6.5111
у	-6.5112
▁үү	-6.52975
▁ов	-6.53153
▁бай	-6.53856
▁үчүн	-6.54515
▁бул	-6.54708
▁иште	-6.57683
▁бар	-6.59818
▁та	-6.60845
▁тик	-6.61033
▁өлкө	-6.62241
▁кара	-6.62267
илди	-6.62348
амле	-6.62544
▁тур	-6.6297
▁туу	-6.63245
▁луу	-6.63258
▁ымат	-6.63386
▁тин	-6.63912
▁арды	-6.64498
▁стан	-6.6465
▁бери	-6.65308
▁ты	-6.65333
▁адам	-6.66209
▁туура	-6.66666
▁9	-6.66768
▁баш	-6.6722
ып	-6.67703
▁алды	-6.69003
гы	-6.70486
▁деген	-6.70899
▁е	-6.71119
▁нин	-6.71377
инис	-6.71527
▁гөн	-6.72068
▁3	-6.72481
▁ген	-6.73895
▁Бир	-6.74044
▁өз	-6.74339
▁И	-6.74816
▁тер	-6.75047
▁Э	-6.75846
▁анда	-6.76212
▁алган	-6.76897
ок	-6.777
▁де	-6.78333
▁жок	-6.78911
▁Бу	-6.78982
▁болуп	-6.79546
▁ык	-6.79774
▁кал	-6.80035
▁лер	-6.80297
ыргы	-6.81401
▁айты	-6.81471
▁русия	-6.82114
▁бер	-6.82927
ызма	-6.83071
▁кы	-6.83982
▁чейин	-6.8485
да	-6.85535
▁ком	-6.85923
▁агы	-6.86026
▁:	-6.87101
га	-6.87234
▁дун	-6.87392
▁	-6.87819
▁5	-6.87937
▁гө	-6.88788
▁кыл	-6.89606
▁эмес	-6.90707
▁керек	-6.91377
▁ыйзам	-6.92386
▁дент	-6.92577
▁Д	-6.93011
▁нун	-6.9551
▁кийин	-6.96246
▁алып	-6.96536
нд	-6.97672
▁ке	-6.98021
▁П	-6.98396
▁жатат	-6.9909
▁иш	-6.99184
▁ин	-6.9952
▁башка	-6.99919
с	-7.00231
▁ди	-7.00467
▁4	-7.0147
▁белги	-7.02486
▁дү	-7.02852
▁го	-7.03026
▁(	-7.03098
▁)	-7.04265
▁айт	-7.04348
▁ары	-7.04506
▁үп	-7.04862
▁ку	-7.05519
▁бек	-7.05537
▁унда	-7.05753
▁през	-7.06318
▁нүн	-7.07152
▁жылы	-7.07634
▁ндө	-7.08289
▁си	-7.09549
▁эки	-7.10085
▁Кырг	-7.10277
▁кө	-7.10292
ц	-7.10528
ч	-7.11055
▁ф	-7.11278
▁көп	-7.1232
▁ти	-7.12619
▁учур	-7.12796
▁8	-7.1305
▁ун	-7.13246
абыл	-7.13415
▁7	-7.1353
▁те	-7.15283
раи	-7.15912
▁лөр	-7.1594
▁не	-7.15981
▁эл	-7.1599
▁инде	-7.16511
▁6	-7.16806
▁асы	-7.17696
▁шайл	-7.1809
▁ук	-7.1839
▁тан	-7.19727
▁рди	-7.20036
ар	-7.2075
▁дө	-7.21167
▁ланыш	-7.21177
▁анын	-7.22314
б	-7.22364
▁ыргыз	-7.2319
▁ны	-7.23373
▁?	-7.24118
▁У	-7.24944
атар	-7.25507
▁каршы	-7.25784
елге	-7.25929
▁ду	-7.25941
▁ишкек	-7.26207
▁чыг	-7.2622
арды	-7.264
▁жолу	-7.26762
▁тын	-7.26878
▁з	-7.26973
▁киши	-7.27067
ын	-7.27381
▁сү	-7.27726
енин	-7.27814
▁ө	-7.28923
▁аселе	-7.30132
▁миң	-7.30761
▁сын	-7.31088
▁үй	-7.31386
▁ап	-7.31824
лык	-7.32433
▁ата	-7.32805
▁ден	-7.32874
▁лери	-7.35049
▁алуу	-7.35531
▁ор	-7.35824
▁ну	-7.36073
▁г	-7.36372
▁он	-7.36762
▁Ук	-7.37286
▁облус	-7.38155
▁бири	-7.38491
▁ла	-7.38579
уу	-7.38696
▁төр	-7.39126
▁уп	-7.39321
▁ик	-7.39348
егиз	-7.40563
зыр	-7.4066
▁чыга	-7.40822
▁ш	-7.40887
▁про	-7.41399
▁ийлик	-7.41963
▁дер	-7.4201
▁орбор	-7.42061
▁Ө	-7.42267
▁са	-7.42501
▁өкмөт	-7.42972
▁ынын	-7.4387
▁дөн	-7.44431
▁мурда	-7.44527
олдо	-7.44624
▁үмкүн	-7.44987
▁ич	-7.45174
олбо	-7.45547
▁болду	-7.45606
▁ушу	-7.45939
атыш	-7.46296
орго	-7.4698
▁жаңы	-7.47028
▁же	-7.47406
▁лүү	-7.47453
▁Н	-7.47899
▁сал	-7.49458
▁ер	-7.4984
▁ип	-7.50393
▁ой	-7.5089
▁Р	-7.51318
▁талап	-7.5158
▁ошо	-7.51608
▁экен	-7.51935
ал	-7.5197
▁өө	-7.52771
▁райо	-7.52827
▁рда	-7.52943
▁чу	-7.52953
▁ызмат	-7.53003
▁Ч	-7.53565
▁кабар	-7.53948
▁нде	-7.54471
өрсө	-7.54666
ча	-7.54852
▁ги	-7.55137
▁алын	-7.5522
▁ууга	-7.56422
етке	-7.56521
▁сына	-7.56611
▁айып	-7.56628
▁болот	-7.56796
▁оо	-7.57544
▁ууда	-7.57674
▁түш	-7.57936
акыр	-7.58113
▁инин	-7.58176
▁эми	-7.58202
анын	-7.58261
▁чек	-7.59628
▁ээ	-7.59797
▁тагы	-7.59845
▁шаары	-7.59943
▁аны	-7.60374
▁көр	-7.61192
▁ни	-7.61314
▁дик	-7.61364
▁Ш	-7.61617
▁күн	-7.61871
▁тарт	-7.61973
арма	-7.62125
▁дүн	-7.62229
▁Каза	-7.62337
түү	-7.6258
▁сыз	-7.62786
▁ет	-7.63258
▁чыкк	-7.63791
▁ооп	-7.63997
▁лары	-7.64017
туу	-7.64403
▁уна	-7.64533
рези	-7.64586
рус	-7.64619
▁өт	-7.6471
▁тык	-7.64939
▁жылд	-7.65234
▁биз	-7.65356
▁ь	-7.65603
▁етек	-7.65626
арыя	-7.65778
рлиг	-7.66615
▁ң	-7.66736
▁ула	-7.67138
▁сөз	-7.67156
▁күч	-7.67187
▁ак	-7.67297
▁аймак	-7.6751
▁өткө	-7.67782
▁түр	-7.67783
▁үндү	-7.67792
▁гана	-7.6792
▁ок	-7.68036
▁жыл	-7.68083
▁башта	-7.68244
▁окуя	-7.68895
▁жаш	-7.68904
▁ан	-7.68905
▁үч	-7.69523
▁тарап	-7.69623
▁айы	-7.69817
▁жүр	-7.70243
уга	-7.70588
▁ент	-7.71897
▁огуш	-7.725
▁оору	-7.72561
▁өрү	-7.72757
▁деди	-7.72851
▁тө	-7.72895
▁кол	-7.73006
илли	-7.73188
▁парт	-7.73321
▁аты	-7.73483
▁кер	-7.73537
ия	-7.73547
ө	-7.73715
▁рген	-7.73813
▁болсо	-7.73889
нын	-7.74143
▁шаар	-7.75742
▁Ошо	-7.75886
▁укук	-7.76365
▁сом	-7.76374
▁каза	-7.7646
▁айла	-7.76889
▁дай	-7.77044
окто	-7.77168
▁ашта	-7.7726
▁аары	-7.78063
▁чысы	-7.78186
▁акча	-7.78353
▁кен	-7.78453
▁түү	-7.78468
▁су	-7.78599
▁түз	-7.78699
▁ине	-7.78965
▁үн	-7.79632
▁Жого	-7.80269
▁жаса	-7.80636
▁йт	-7.80832
▁жер	-7.81059
▁чечим	-7.81376
▁жылды	-7.81558
▁акта	-7.81627
▁ашы	-7.8167
▁путат	-7.81701
виру	-7.81869
▁тү	-7.81932
▁В	-7.81946
ат	-7.8273
▁лган	-7.82783
▁ардам	-7.83031
▁лук	-7.83183
▁унун	-7.83458
▁ынан	-7.83775
▁жол	-7.84095
▁баев	-7.84294
опс	-7.84342
ка	-7.84438
▁пания	-7.85151
▁Х	-7.85274
елиш	-7.85617
оно	-7.85652
ку	-7.86063
▁аба	-7.8615
ко	-7.86171
▁Анда	-7.8622
▁кел	-7.86229
▁өл	-7.86849
▁Аны	-7.87386
орон	-7.87728
▁сот	-7.8787
▁лор	-7.87909
▁арма	-7.88406
алпы	-7.88634
анд	-7.88639
▁дүйнө	-7.88854
▁сунуш	-7.88997
өө	-7.89079
▁Жап	-7.89458
▁абыз	-7.89467
▁мент	-7.89677
▁ылай	-7.89909
▁Азат	-7.89912
▁ция	-7.9006
▁лоо	-7.9013
▁ышат	-7.90148
▁лан	-7.90673
өгү	-7.90737
▁дары	-7.90862
▁орун	-7.91382
▁алдар	-7.91399
▁Г	-7.91478
▁ага	-7.91971
▁ту	-7.92321
▁лүк	-7.92418
скер	-7.92719
▁беков	-7.92767
▁мика	-7.92854
▁атта	-7.93019
ерди	-7.93145
айры	-7.93176
▁кур	-7.9363
чү	-7.94041
▁чара	-7.94318
▁аяси	-7.9433
▁анык	-7.94361
▁өзгө	-7.94607
▁Кытай	-7.94697
▁до	-7.95066
▁лист	-7.95144
▁ре	-7.95511
▁алар	-7.95749
▁көз	-7.96015
▁айма	-7.96065
▁кү	-7.96169
▁орто	-7.96258
де	-7.96372
▁өткөн	-7.9653
▁үнө	-7.96571
▁илди	-7.96771
▁Кеңеш	-7.96932
▁албай	-7.96995
▁арасы	-7.97004
▁гон	-7.97056
▁уздук	-7.97108
▁я	-7.97159
▁айтты	-7.97539
▁эч	-7.9767
▁ян	-7.97877
▁жакшы	-7.98065
▁сиз	-7.98252
▁ылмыш	-7.98555
▁суу	-7.98641
▁кана	-7.98706
▁ышы	-7.99045
▁Ф	-7.99376
▁өзү	-7.99537
▁им	-7.99603
▁денти	-7.99837
▁авто	-7.99963
▁элек	-8.00771
▁ады	-8.00975
▁ганда	-8.01038
дө	-8.0138
▁үргү	-8.01443
▁три	-8.01445
▁нү	-8.01529
▁жөнү	-8.01581
▁Евро	-8.01693
▁парл	-8.01742
▁үйлө	-8.01836
▁Ко	-8.02106
▁дык	-8.02194
▁изди	-8.02297
▁жакы	-8.02361
айра	-8.02651
▁аш	-8.0284
▁ткер	-8.0288
▁дук	-8.03361
▁тун	-8.03759
▁ри	-8.04004
▁атка	-8.04006
▁кели	-8.04213
арат	-8.04385
▁акыр	-8.0453
я	-8.04646
▁көн	-8.0477
▁ерүү	-8.04966
▁се	-8.05107
.	-8.05107
▁дей	-8.05206
▁жаз	-8.05249
▁нө	-8.05289
▁ыйын	-8.05332
▁кам	-8.05672
▁аркы	-8.05835
▁түн	-8.05959
▁дон	-8.06228
▁ким	-8.06253
▁ев	-8.06419
▁чоң	-8.06472
▁арак	-8.06678
▁лады	-8.06702
▁Улут	-8.07182
ктяб	-8.07364
ул	-8.07418
▁ки	-8.0751
▁туру	-8.07526
▁соң	-8.07699
▁каны	-8.07756
,	-8.07872
▁келет	-8.07923
▁жети	-8.08161
▁элди	-8.0885
еле	-8.08903
▁ина	-8.09171
▁аз	-8.09392
▁ча	-8.09619
▁экс	-8.09738
▁Биз	-8.09886
▁эк	-8.10398
▁кеңеш	-8.10656
▁кат	-8.10822
▁оом	-8.10943
▁тал	-8.11104
▁аял	-8.1119
▁бы	-8.11245
▁журн	-8.11363
рым	-8.11372
▁үл	-8.1141
үү	-8.11529
бек	-8.11827
үнө	-8.12046
▁тыр	-8.12156
▁илик	-8.12171
▁иши	-8.12245
▁күнү	-8.12563
▁ышты	-8.12681
▁үнү	-8.12738
▁эсеп	-8.12853
▁чылык	-8.13272
▁бил	-8.13333
▁АКШ	-8.13958
▁тиги	-8.14001
ды	-8.14033
▁жого	-8.14199
▁бей	-8.14203
▁ымд	-8.14299
▁жара	-8.14306
▁порт	-8.15018
▁теги	-8.15235
▁Ош	-8.15475
▁үүгө	-8.15666
▁дор	-8.15679
▁ылды	-8.15807
▁укта	-8.15862
▁турат	-8.16129
инчи	-8.16221
▁өр	-8.16226
▁калды	-8.16274
▁чет	-8.16751
▁жазы	-8.17048
▁Сады	-8.17167
▁дүү	-8.17182
▁иси	-8.17221
▁уучу	-8.17414
▁өтөр	-8.17499
▁кый	-8.17564
▁чүлү	-8.17666
айда	-8.18058
ече	-8.18246
▁ала	-8.18382
▁Өзбе	-8.18486
раке	-8.188
▁топ	-8.18859
▁алиев	-8.19185
▁чы	-8.19199
үт	-8.1933
▁ым	-8.19498
▁эң	-8.19823
мне	-8.19905
▁рдаал	-8.20083
дук	-8.20128
▁ийли	-8.20311
үчө	-8.20346
рел	-8.20522
▁Ай	-8.2057
▁Мен	-8.20859
йыл	-8.209
▁лаган	-8.20917
▁бала	-8.20981
▁мө	-8.21069
▁үүдө	-8.21198
▁өтө	-8.21225
▁бү	-8.21539
▁дол	-8.21665
аган	-8.21724
чки	-8.2174
▁иссия	-8.21811
▁абал	-8.21889
▁отур	-8.21963
▁шарт	-8.22599
▁тен	-8.22785
▁екем	-8.23021
▁түшү	-8.23347
▁быз	-8.23372
▁ркин	-8.23488
▁Тажи	-8.2356
▁арты	-8.23701
▁арын	-8.23753
▁үш	-8.23792
▁ерги	-8.23807
акта	-8.23903
▁атал	-8.23968
▁йын	-8.24253
раж	-8.24296
▁нган	-8.24447
▁жерде	-8.24536
▁Кө	-8.24666
▁ыкты	-8.24856
▁өкүл	-8.24979
▁кою	-8.25092
▁тери	-8.25173
▁тр	-8.25234
▁айыл	-8.25434
▁титу	-8.25491
кы	-8.25538
▁пр	-8.25849
▁ей	-8.25867
▁үр	-8.25918
▁соци	-8.26121
▁март	-8.2627
▁саны	-8.2637
▁пикир	-8.26628
▁ергөө	-8.26959
▁аган	-8.27102
▁чыгы	-8.27151
▁аксат	-8.27192
▁очу	-8.27237
ынын	-8.27261
▁үрөш	-8.27733
▁жаша	-8.28051
акто	-8.28264
вар	-8.28503
▁аске	-8.28579
зөм	-8.28766
▁ачык	-8.29193
▁маан	-8.29236
тур	-8.29338
гүн	-8.29441
еш	-8.29722
▁боло	-8.29766
▁аясат	-8.29865
▁кыз	-8.30301
▁улут	-8.30443
▁акы	-8.30664
▁алты	-8.30691
▁шек	-8.31056
өраг	-8.31527
▁өтү	-8.31769
▁орга	-8.31884
▁ууну	-8.32146
▁аттар	-8.32296
▁гү	-8.33066
тив	-8.34044
үн	-8.34268
▁ишке	-8.34325
▁шум	-8.34355
▁тары	-8.34411
▁үркия	-8.34518
▁кайт	-8.34676
▁жумуш	-8.3505
▁илиц	-8.35101
▁ния	-8.35538
▁оор	-8.35543
▁дем	-8.35768
▁болчу	-8.36074
▁расм	-8.36191
▁таш	-8.36273
▁диги	-8.36606
▁тор	-8.36652
▁ектеп	-8.36709
▁меди	-8.37201
▁тук	-8.37428
▁ыгы	-8.37574
го	-8.37593
▁чеч	-8.37623
▁лды	-8.3813
▁азы	-8.38392
▁Ала	-8.38409
өлө	-8.38485
▁Азия	-8.38553
▁оку	-8.38809
▁кор	-8.3882
▁бүлө	-8.39223
ара	-8.39252
▁эске	-8.39257
▁берди	-8.39266
▁айга	-8.39695
▁лгон	-8.39953
▁му	-8.40214
ургу	-8.40528
▁убак	-8.40728
▁тил	-8.40848
▁инен	-8.4096
▁ири	-8.41024
асма	-8.41327
▁ылган	-8.41816
▁еп	-8.41832
▁тааны	-8.41845
▁өс	-8.41876
вгус	-8.41882
▁грам	-8.42136
▁лект	-8.42525
ган	-8.42746
▁сура	-8.4276
▁лог	-8.43079
▁жак	-8.43141
▁ада	-8.43237
▁алыш	-8.43511
▁келе	-8.43629
▁май	-8.43796
▁рру	-8.43928
▁ист	-8.44096
▁мат	-8.44107
▁айда	-8.44243
▁нояб	-8.44771
▁УКМК	-8.44911
үндө	-8.45086
▁Эл	-8.4516
▁акц	-8.45243
▁добу	-8.4531
▁за	-8.45647
пц	-8.45734
▁жылга	-8.45858
▁жаран	-8.46101
▁аса	-8.46125
▁аев	-8.46139
▁суроо	-8.46168
ге	-8.46221
▁сана	-8.46376
▁лиде	-8.46543
▁тта	-8.46624
▁пай	-8.46677
▁аткен	-8.47025
▁илер	-8.47072
▁озг	-8.47408
алам	-8.47698
өбү	-8.47715
▁кир	-8.47864
▁макул	-8.47939
якт	-8.48018
▁илим	-8.48252
окум	-8.4865
▁теле	-8.48676
▁толу	-8.48796
▁ылты	-8.49302
▁айын	-8.49318
▁дуу	-8.49348
▁тышк	-8.49363
▁ишен	-8.49389
▁омду	-8.49612
ма	-8.4965
▁салуу	-8.49672
▁төрү	-8.49841
00	-8.49864
▁рүү	-8.50026
▁сында	-8.50073
▁коюл	-8.50325
▁тоо	-8.50418
екаб	-8.50814
▁юш	-8.50836
▁амиле	-8.50859
▁Ошон	-8.51097
▁соту	-8.51231
рат	-8.51292
бөй	-8.51299
▁саат	-8.51331
▁жөнө	-8.51488
▁ылда	-8.51638
▁даяр	-8.51809
емь	-8.51956
рда	-8.51968
▁банк	-8.52691
▁Абд	-8.52747
лика	-8.52784
▁түзү	-8.52785
▁ерен	-8.52973
▁чогу	-8.53
▁уз	-8.53092
▁өк	-8.53314
огу	-8.53643
лам	-8.54077
▁Абад	-8.54244
▁абуул	-8.54337
▁ишин	-8.54516
▁ыкка	-8.54704
▁суна	-8.54783
лушу	-8.55064
▁кеч	-8.55189
▁гөчө	-8.55224
▁өөнөт	-8.55284
▁арыз	-8.55418
▁нды	-8.55472
▁ел	-8.55548
▁Би	-8.55594
▁Путин	-8.55759
▁ыбыз	-8.55781
атта	-8.56078
▁тынч	-8.56147
▁армак	-8.56247
▁видео	-8.56361
▁олбо	-8.56635
▁пайд	-8.56645
▁чү	-8.56813
▁мен	-8.56859
▁уулу	-8.56954
▁уула	-8.56999
▁атчы	-8.57119
▁ишка	-8.57217
үл	-8.57468
▁бере	-8.57678
еше	-8.57707
▁тарых	-8.57845
унун	-8.57908
▁ашуу	-8.58211
йло	-8.58217
▁дейт	-8.58268
аала	-8.58364
▁Л	-8.58401
агы	-8.58694
▁ана	-8.58714
▁июл	-8.58748
▁аген	-8.58913
▁ыш	-8.58997
ентя	-8.59081
илим	-8.59124
▁алдуу	-8.59368
▁нерсе	-8.59654
▁себеп	-8.59697
▁айым	-8.59736
▁ирги	-8.59783
▁илген	-8.59956
▁Ак	-8.60001
▁зүн	-8.60034
▁камак	-8.60187
урда	-8.60311
ке	-8.60424
▁ылмы	-8.60593
▁ация	-8.60617
▁бөлү	-8.60907
▁Ну	-8.60937
▁чилик	-8.61002
▁окуу	-8.61051
▁аттык	-8.61213
▁так	-8.61214
үп	-8.61339
▁ска	-8.61628
▁Ү	-8.61837
▁тажи	-8.61846
▁укугу	-8.62422
асы	-8.62479
▁йгон	-8.6248
ышкы	-8.62765
▁уч	-8.62806
▁чыкты	-8.63068
▁шта	-8.63128
▁кинчи	-8.63284
▁өкүлү	-8.6336
▁теген	-8.63395
▁одо	-8.63427
▁арган	-8.63573
нкү	-8.63859
▁ант	-8.64023
▁салы	-8.64319
ерг	-8.64535
▁ру	-8.64646
▁зарыл	-8.6467
▁еле	-8.64675
▁ого	-8.64781
▁Де	-8.64882
▁илдет	-8.65009
▁аман	-8.65256
▁ааси	-8.65561
▁инс	-8.6563
▁нен	-8.65952
▁унаа	-8.66001
▁кайс	-8.66354
▁бошо	-8.66491
▁үшү	-8.6666
▁чылар	-8.66926
▁оң	-8.66989
ең	-8.67033
▁мал	-8.67305
ирги	-8.67449
▁урал	-8.67608
▁сун	-8.67822
▁арга	-8.67829
▁улан	-8.67845
▁аяс	-8.68083
▁жүрү	-8.68172
▁алык	-8.68174
нтке	-8.68231
▁алда	-8.68374
▁кош	-8.68496
▁улуш	-8.68547
▁өндү	-8.68563
▁ишкер	-8.68669
▁келди	-8.68794
▁уюм	-8.69375
▁уюму	-8.69527
▁жеке	-8.69689
▁кезде	-8.69812
таш	-8.69879
▁бу	-8.69966
▁гөнү	-8.70006
▁ани	-8.70123
▁кызык	-8.70377
▁арт	-8.70605
▁нов	-8.70735
▁итети	-8.70743
▁деги	-8.71184
▁нт	-8.71256
▁жаза	-8.71306
▁ээн	-8.71437
▁ачыл	-8.71726
▁нуу	-8.71763
араб	-8.7185
▁жыйын	-8.72003
▁по	-8.72063
▁перт	-8.72112
▁отту	-8.7224
▁нттар	-8.7234
алык	-8.72401
▁айылы	-8.72572
▁ая	-8.72601
▁сүн	-8.7264
▁че	-8.72645
▁кири	-8.7272
▁леди	-8.72724
▁З	-8.72747
▁план	-8.72808
▁ради	-8.72918
▁ндар	-8.72923
▁ач	-8.72933
▁өнүк	-8.73119
▁иев	-8.73391
▁ц	-8.73634
▁оолу	-8.73674
▁ебеби	-8.73852
▁исал	-8.73853
▁ылуу	-8.7387
▁рату	-8.73894
▁рип	-8.74162
▁улу	-8.74456
▁алат	-8.74745
▁Оо	-8.74754
КШны	-8.75152
▁үлү	-8.75252
▁осква	-8.75294
▁соода	-8.75297
▁Кар	-8.75333
▁ма	-8.75343
та	-8.7547
▁ав	-8.75701
▁уюмд	-8.75743
▁кап	-8.75887
▁ыр	-8.75902
▁аң	-8.76106
▁үүнү	-8.76166
▁ерин	-8.76204
▁берет	-8.76338
▁эмге	-8.7637
▁нөн	-8.76401
▁текш	-8.76561
▁барат	-8.76712
▁леп	-8.7687
▁үүлөр	-8.77102
▁кон	-8.77157
▁дөр	-8.77177
▁сызд	-8.77846
▁жашоо	-8.77864
▁калк	-8.78054
▁дыр	-8.78066
▁фи	-8.78189
▁Жал	-8.78287
▁сту	-8.78332
▁ам	-8.78463
▁көң	-8.78469
▁эне	-8.78665
▁көм	-8.78714
▁со	-8.79076
▁Ушу	-8.79089
▁еген	-8.79179
▁өлүгү	-8.79347
▁ошон	-8.7935
▁мир	-8.79403
▁рма	-8.79414
▁тыюу	-8.79466
▁үйү	-8.79603
▁агдай	-8.79695
▁бас	-8.79854
▁Ата	-8.79875
▁мун	-8.80066
▁лөрү	-8.80297
▁кач	-8.80303
мери	-8.80495
▁опер	-8.80533
▁тизме	-8.81028
ут	-8.81121
▁деш	-8.81156
▁күчө	-8.81192
▁жет	-8.81327
▁Си	-8.81709
стан	-8.81795
ңгэ	-8.81828
▁!	-8.821
ерге	-8.82417
▁сырт	-8.82441
▁имов	-8.82522
▁багыт	-8.82589
▁мия	-8.82673
▁мо	-8.83006
стем	-8.83364
▁кала	-8.83419
▁изд	-8.83658
▁кетти	-8.83741
▁сүрөт	-8.83802
▁ышкан	-8.83842
▁вак	-8.83961
▁урук	-8.83983
раил	-8.84001
▁жары	-8.84056
▁чал	-8.84233
▁саты	-8.8469
ф	-8.847
▁сө	-8.84735
▁алкуу	-8.84837
▁рун	-8.84985
▁ака	-8.84986
▁ети	-8.85015
▁кама	-8.85122
▁наар	-8.8516
▁ро	-8.85245
▁ыйыны	-8.85359
▁окто	-8.85532
▁лик	-8.85543
зилд	-8.85664
ине	-8.85739
▁олдо	-8.85842
анча	-8.85946
▁Эм	-8.85985
▁кең	-8.86138
▁ур	-8.86143
▁дөй	-8.86242
▁ушуу	-8.86297
ү	-8.8635
▁мигр	-8.86383
▁иц	-8.86702
▁%	-8.86718
▁жазды	-8.87029
отор	-8.87175
▁спор	-8.87215
▁дыгы	-8.87227
▁истр	-8.87306
▁;	-8.87308
▁зы	-8.87383
оочу	-8.87417
▁Ысык	-8.87525
▁ерлер	-8.87531
▁узу	-8.87563
▁айры	-8.87609
▁ман	-8.87619
▁орду	-8.87708
▁Конс	-8.87983
▁өмүр	-8.8805
▁Влад	-8.88071
▁адис	-8.88235
▁кунуч	-8.88238
▁кылы	-8.88354
▁рмал	-8.88511
▁уш	-8.88562
▁илиги	-8.88568
▁ад	-8.88595
▁сотто	-8.88628
▁муну	-8.88846
▁10	-8.89172
▁ылыш	-8.89533
▁үштү	-8.89796
▁ишмер	-8.89902
▁ура	-8.89932
▁Нар	-8.89944
▁лай	-8.90033
▁шкан	-8.90282
▁бүз	-8.90387
илде	-8.90611
▁болуу	-8.90638
▁тобу	-8.90745
ция	-8.9081
▁Жо	-8.90974
▁мек	-8.91001
мия	-8.91193
▁бой	-8.91199
▁унан	-8.912
▁факт	-8.9127
▁нада	-8.91476
▁каб	-8.91527
мөн	-8.91653
▁па	-8.91655
▁сайт	-8.91769
▁огору	-8.91938
e	-8.91957
▁ейт	-8.9234
▁азар	-8.92387
▁өлүм	-8.92408
▁анти	-8.92496
▁үрүү	-8.9253
▁нага	-8.92647
▁ирим	-8.92709
▁апка	-8.92745
▁Иран	-8.92751
▁тий	-8.92848
▁алма	-8.93396
ап	-8.93444
ээ	-8.93488
евр	-8.93679
▁ору	-8.93796
▁түл	-8.93829
▁Башк	-8.93937
▁трлер	-8.94075
▁шты	-8.94129
▁ем	-8.94176
▁бейт	-8.94259
оскв	-8.94266
▁сыны	-8.94383
▁өнү	-8.94419
▁чект	-8.94431
▁х	-8.94447
▁Атам	-8.94631
▁адми	-8.94646
▁гач	-8.94652
ыкты	-8.94732
▁жерге	-8.94952
▁каев	-8.94956
▁доо	-8.95092
▁кети	-8.95232
▁чулар	-8.95592
▁өлтү	-8.95673
▁суз	-8.95716
▁ийги	-8.95722
▁бакыт	-8.95733
бай	-8.95751
▁каг	-8.95788
▁Чү	-8.9585
ару	-8.95896
▁ион	-8.95953
▁син	-8.9665
▁абалы	-8.96698
ума	-8.96747
▁өрт	-8.96756
▁урма	-8.96809
юнда	-8.96811
▁ул	-8.96814
▁кайр	-8.96852
үйнө	-8.96871
▁абда	-8.97141
▁пайы	-8.97144
▁нча	-8.97151
▁улган	-8.97471
▁имди	-8.98026
▁сез	-8.98446
▁екте	-8.98623
▁оюн	-8.98704
▁ова	-8.98731
▁акын	-8.98966
▁оппо	-8.9932
▁кетип	-8.99378
▁көч	-8.99455
▁каруу	-8.9957
▁сапар	-8.99621
▁зылык	-8.99792
▁алыс	-8.99978
▁азык	-9.00055
▁ыг	-9.00101
чу	-9.00115
▁чылы	-9.00206
▁караш	-9.00225
▁алиб	-9.00235
▁ский	-9.00382
пу	-9.00501
▁тир	-9.00629
▁пи	-9.0097
▁матов	-9.01028
▁ейта	-9.01084
▁Е	-9.01151
асми	-9.01151
гер	-9.01163
өлүм	-9.01426
айын	-9.01611
▁муру	-9.01627
▁аль	-9.01875
▁ый	-9.01991
▁аяг	-9.02116
▁таг	-9.02351
▁форма	-9.02361
▁изг	-9.02513
етки	-9.02684
▁кени	-9.02718
▁асыл	-9.02723
▁өнөк	-9.02827
▁илк	-9.02921
▁ыл	-9.02954
▁таж	-9.0301
▁шев	-9.03217
▁Аз	-9.03383
▁кта	-9.03451
▁алтын	-9.03477
▁улта	-9.03628
▁үнчү	-9.03643
▁жай	-9.03779
▁леген	-9.03814
▁ыктар	-9.0385
апшы	-9.03879
▁ви	-9.03943
▁өттү	-9.04147
ем	-9.04183
▁нет	-9.04266
деги	-9.04505
▁итинг	-9.04912
▁ажыр	-9.04994
инин	-9.05164
аржы	-9.05539
▁елти	-9.05603
▁кыска	-9.05639
▁езек	-9.05766
▁Маа	-9.05906
үлү	-9.05979
чө	-9.0598
▁жан	-9.05982
олиц	-9.06006
▁сокку	-9.06161
▁азай	-9.06289
▁ланды	-9.06375
▁елген	-9.06563
▁жум	-9.06583
▁асын	-9.067
▁лап	-9.06884
▁үм	-9.07033
▁Рес	-9.07116
▁юджет	-9.07147
▁тыйж	-9.0722
▁инч	-9.07233
▁үгү	-9.07241
▁келин	-9.07358
▁олу	-9.07625
▁учак	-9.07849
▁ард	-9.0787
▁в	-9.08293
▁басым	-9.08307
▁ков	-9.08401
▁Муну	-9.08478
▁млрд	-9.08489
▁буз	-9.08495
▁уза	-9.08659
нкц	-9.0866
▁апта	-9.08829
▁алдын	-9.08937
▁пей	-9.09095
▁ама	-9.09111
▁Ю	-9.09164
тари	-9.09295
▁ндор	-9.09535
өрдү	-9.09666
▁көрүп	-9.09674
▁азуу	-9.09687
▁или	-9.09968
▁чулу	-9.10373
▁бет	-9.10432
▁ткери	-9.10508
▁ра	-9.10745
▁зомб	-9.11022
▁калы	-9.11024
▁аният	-9.11046
▁ий	-9.11215
▁нд	-9.11234
▁лүгү	-9.11249
▁режи	-9.11297
▁күй	-9.1159
▁ондо	-9.11636
▁Батыш	-9.11649
▁ызы	-9.11703
▁эрте	-9.11845
▁мед	-9.1187
ан	-9.11904
▁пас	-9.11996
▁рган	-9.12178
▁олог	-9.12316
▁талаш	-9.12487
▁апа	-9.12521
▁имар	-9.12559
▁панд	-9.12594
▁бол	-9.1276
▁көчө	-9.12824
▁лиги	-9.13056
▁ттер	-9.13087
▁туш	-9.13189
▁кез	-9.13213
▁дире	-9.13321
▁байт	-9.1341
▁гу	-9.13434
▁газ	-9.1345
▁ың	-9.13657
▁ол	-9.13684
▁өш	-9.13809
▁обо	-9.1389
▁рсит	-9.13896
▁мае	-9.1413
▁баа	-9.14146
▁митет	-9.14146
▁аштар	-9.14292
▁рамп	-9.14354
▁анд	-9.14371
▁тте	-9.14394
▁жеңил	-9.14394
▁геме	-9.1444
айта	-9.14482
▁сек	-9.14522
▁жаг	-9.1455
опто	-9.14589
▁эреже	-9.14602
▁тез	-9.14699
▁20	-9.14707
▁иби	-9.14707
▁Ы	-9.14717
нвес	-9.14754
▁гени	-9.14806
▁уру	-9.14872
▁ум	-9.14931
▁тору	-9.14938
▁кыйын	-9.14972
▁сак	-9.15058
▁ели	-9.15096
▁раке	-9.15233
▁аяк	-9.15328
▁сөзү	-9.15374
▁скер	-9.15378
▁акция	-9.1545
▁сый	-9.15567
▁аян	-9.15664
▁уулар	-9.15796
▁пе	-9.16021
▁аза	-9.16053
ерде	-9.16071
▁китеп	-9.1612
▁их	-9.1624
▁Киев	-9.16414
▁дөрү	-9.16456
▁олдоо	-9.16491
ен	-9.16521
▁ыч	-9.16534
аза	-9.16704
▁ыгын	-9.1717
▁инф	-9.17205
▁инет	-9.17239
▁арба	-9.17342
▁респ	-9.17358
▁товар	-9.17382
▁игра	-9.17441
t	-9.17445
▁сүйлө	-9.1751
▁декси	-9.17511
▁еки	-9.17512
▁кулов	-9.17518
▁унив	-9.17596
▁үк	-9.17657
▁Баш	-9.17677
▁ткөн	-9.17938
▁ишти	-9.17985
▁езгил	-9.18031
▁ерек	-9.18262
▁ен	-9.18541
▁Бү	-9.18609
▁ойн	-9.18676
▁урам	-9.18716
ай	-9.18966
▁Эки	-9.19002
▁анат	-9.19028
▁еги	-9.1907
мө	-9.19107
▁Ар	-9.19123
▁трлик	-9.19131
▁Брит	-9.19168
▁метр	-9.19218
▁умтөр	-9.19223
▁огу	-9.19238
▁До	-9.19403
▁ырас	-9.19471
урул	-9.19493
▁икке	-9.19634
▁ебиз	-9.19844
▁дым	-9.1989
▁анды	-9.19892
▁ыктан	-9.19915
5	-9.20052
ID	-9.20197
▁дээр	-9.20285
▁баасы	-9.20307
▁урс	-9.20331
▁улар	-9.2036
▁укту	-9.20634
▁рин	-9.208
▁башк	-9.209
▁зыян	-9.20936
▁ттан	-9.21076
▁сат	-9.21167
▁туп	-9.21259
▁кеп	-9.2131
кмөт	-9.21335
▁июн	-9.2142
▁базар	-9.21675
▁аки	-9.21893
▁сөзд	-9.21901
▁вирус	-9.21987
▁Гер	-9.22816
▁үбү	-9.22825
▁то	-9.22908
аңы	-9.23121
▁мби	-9.23278
▁Газ	-9.23397
▁комм	-9.23458
▁здар	-9.23461
▁түк	-9.23465
▁бөл	-9.23618
▁рь	-9.23618
▁элч	-9.23665
▁Талас	-9.23703
олуш	-9.23851
▁ашты	-9.24069
▁Кийи	-9.24224
▁што	-9.24319
апар	-9.24444
▁өрсө	-9.24467
▁мак	-9.24632
▁ония	-9.24716
ж	-9.2476
шул	-9.24785
▁тут	-9.24938
▁бөй	-9.25042
▁асыз	-9.25049
▁куруу	-9.25133
▁өзүн	-9.25188
ярд	-9.25232
▁чын	-9.2525
▁узду	-9.25256
▁башч	-9.25281
шө	-9.25314
▁ове	-9.25415
▁ст	-9.25661
каг	-9.25713
▁эсеби	-9.25813
▁тул	-9.25963
▁койду	-9.25973
▁30	-9.2606
▁сынд	-9.26112
▁бур	-9.26126
▁кесип	-9.26129
▁аг	-9.26158
▁мад	-9.26209
▁зүү	-9.26224
▁гүл	-9.2627
▁уба	-9.26334
▁етте	-9.26361
▁жең	-9.26461
▁оз	-9.26509
▁рт	-9.26836
▁об	-9.26897
▁ит	-9.26921
▁Ис	-9.27029
▁күнд	-9.27089
▁COV	-9.27103
▁өмүрү	-9.27132
▁жабы	-9.27198
▁эли	-9.27306
▁иде	-9.27364
▁анал	-9.27485
▁таб	-9.27567
▁лду	-9.27682
атер	-9.27721
▁жайы	-9.27856
▁турум	-9.28059
▁атты	-9.28106
▁танд	-9.28203
▁окш	-9.28222
▁муз	-9.28518
▁лыгы	-9.28597
▁Ана	-9.28829
▁ырсык	-9.28906
▁зор	-9.28946
онс	-9.28996
▁узуу	-9.29107
▁евр	-9.29247
▁инг	-9.29366
лекс	-9.29434
▁No	-9.29494
▁деми	-9.29742
▁калат	-9.29944
▁айден	-9.30004
▁циясы	-9.30014
▁олду	-9.303
▁жүз	-9.30439
▁атра	-9.30604
биз	-9.30754
▁сунда	-9.30766
▁шунд	-9.30984
▁орно	-9.31027
▁көнү	-9.31097
етте	-9.31104
▁ло	-9.3116
▁мас	-9.31206
▁ңыз	-9.3127
▁нтин	-9.31291
▁шен	-9.31298
▁изнес	-9.31333
▁ирет	-9.31385
▁лмаз	-9.31419
▁ож	-9.31501
▁ашиев	-9.31504
▁кадам	-9.3151
▁бө	-9.31583
мпи	-9.32006
▁ектөө	-9.32024
▁еке	-9.32135
▁галим	-9.32203
▁гынд	-9.32244
▁иялар	-9.32406
▁пу	-9.32465
▁курч	-9.32519
▁штар	-9.3252
▁ийи	-9.3256
▁абы	-9.32617
ШК	-9.32712
▁өөсү	-9.32956
▁эт	-9.33038
▁Сүрөт	-9.33041
елти	-9.33152
▁түзүү	-9.33499
кар	-9.33791
▁рке	-9.3401
▁үлк	-9.34028
▁кылды	-9.34125
▁зи	-9.34361
▁баса	-9.34417
▁ою	-9.34437
▁үстү	-9.34449
иш	-9.34465
▁ышын	-9.34738
▁убада	-9.34896
▁уусу	-9.34902
▁айтыш	-9.34928
▁ми	-9.34995
▁кий	-9.35048
▁пул	-9.35094
аш	-9.35349
▁ндия	-9.35383
▁терин	-9.35475
▁колу	-9.35498
▁өң	-9.35745
▁нг	-9.35907
оо	-9.3591
ий	-9.35989
▁бою	-9.36007
▁баян	-9.36163
▁күбө	-9.36207
▁изм	-9.36223
▁етика	-9.36283
▁кийи	-9.36425
▁аар	-9.36505
▁енко	-9.36517
▁даш	-9.36605
▁ондон	-9.36617
▁кем	-9.36828
▁кой	-9.36868
инде	-9.37057
▁ериш	-9.37221
өлөм	-9.37524
▁үнүш	-9.37581
▁100	-9.3767
▁тап	-9.37677
▁айжан	-9.37733
▁арна	-9.37902
ранс	-9.37971
▁жүзү	-9.38103
▁рил	-9.3821
ер	-9.38241
▁куучу	-9.38277
изди	-9.38709
▁ткүч	-9.38738
▁үүсү	-9.38907
өздө	-9.39052
▁ымбат	-9.39086
▁рыл	-9.39295
▁жери	-9.39448
▁узак	-9.39463
▁иза	-9.39473
▁алы	-9.39495
▁амат	-9.3954
▁үзөт	-9.39571
▁чыл	-9.3981
▁Но	-9.40194
▁15	-9.40319
▁Мад	-9.40478
▁үйлөр	-9.40499
▁жолдо	-9.40819
▁чык	-9.40946
▁анк	-9.40992
▁амсы	-9.41032
▁шы	-9.41085
▁өкү	-9.41097
▁аңжал	-9.41114
▁тасма	-9.41125
▁ред	-9.41137
са	-9.41252
▁жиг	-9.41278
▁Рос	-9.41303
▁ира	-9.41336
▁тирүү	-9.41343
це	-9.41365
▁луп	-9.41367
▁орлор	-9.41538
▁ачан	-9.41595
▁Зел	-9.4162
▁ах	-9.41642
▁Чек	-9.41751
▁зат	-9.41789
▁бара	-9.41809
▁ую	-9.41875
▁ыры	-9.41915
▁чо	-9.42036
▁олдор	-9.42194
▁талд	-9.4226
▁Сот	-9.42282
▁мин	-9.42584
▁ери	-9.42785
▁еңиш	-9.42829
▁йм	-9.42851
▁кызы	-9.4303
▁лди	-9.43104
▁ерде	-9.4313
▁жашы	-9.43231
▁эс	-9.43241
▁ынч	-9.43279
▁арай	-9.43304
ИМ	-9.43347
ипло	-9.43371
▁саб	-9.43445
▁из	-9.43472
▁таң	-9.43502
▁ус	-9.43543
шу	-9.43631
▁олго	-9.43671
▁куро	-9.43675
▁дро	-9.43688
▁түрү	-9.43699
▁тура	-9.43784
▁дам	-9.4384
▁тай	-9.43931
▁таан	-9.44145
▁аткан	-9.44261
▁тапт	-9.44331
▁лимп	-9.44413
▁еткен	-9.44557
▁аппар	-9.44688
▁Бек	-9.44768
▁Камч	-9.45047
▁нууда	-9.45157
▁студ	-9.45244
▁иреше	-9.4544
▁аан	-9.4547
▁аб	-9.45526
▁нду	-9.45745
▁өрүн	-9.45795
▁өнөр	-9.45806
амак	-9.45816
▁ааты	-9.45827
▁коро	-9.45863
▁таган	-9.45899
▁Сир	-9.46056
▁+	-9.46131
▁ек	-9.46252
ажы	-9.46269
ында	-9.46389
еген	-9.46543
▁урна	-9.46563
▁рды	-9.4657
▁лы	-9.46625
▁акиев	-9.46695
ейс	-9.46771
▁атаал	-9.46845
▁ени	-9.46949
анас	-9.47098
▁ши	-9.47129
▁ток	-9.47172
▁тара	-9.47193
▁во	-9.47273
▁экөө	-9.47334
▁гун	-9.47511
▁ыптыр	-9.47693
▁ленг	-9.47848
▁сте	-9.47878
▁там	-9.47913
▁акты	-9.48064
▁ысы	-9.48214
▁сия	-9.4822
ерб	-9.4833
▁еди	-9.48535
▁оюнд	-9.48635
ттик	-9.48684
▁үнүч	-9.487
▁зама	-9.48716
▁пир	-9.4879
▁кли	-9.48797
▁урмуш	-9.48988
▁тиция	-9.49129
▁алаа	-9.49158
▁орго	-9.49229
▁ашине	-9.49236
▁атыш	-9.49245
▁кароо	-9.49294
▁чө	-9.49337
▁огул	-9.49569
▁тыгы	-9.49746
▁интер	-9.49802
▁мэр	-9.49853
ңку	-9.49888
▁лей	-9.49959
▁рия	-9.49981
▁ыйга	-9.50023
▁арх	-9.50074
▁лла	-9.50301
▁эрки	-9.50377
▁Теми	-9.50381
▁едер	-9.50383
▁темир	-9.50418
▁милге	-9.50522
▁тасы	-9.50662
▁ван	-9.50678
▁өйгөй	-9.50715
▁тонна	-9.50725
▁айлык	-9.50901
▁үмү	-9.50928
▁апшы	-9.51199
▁мок	-9.51345
▁ейш	-9.51413
▁Шайл	-9.51439
▁колог	-9.51459
▁рек	-9.51533
▁була	-9.51546
▁нул	-9.51628
▁Фран	-9.51651
ев	-9.51684
▁арыш	-9.51927
▁оци	-9.52002
▁абаг	-9.52239
▁Ле	-9.52295
▁пө	-9.52432
▁чаг	-9.52456
мүр	-9.52725
▁шонд	-9.52867
▁ерс	-9.52899
▁рө	-9.52951
▁жетти	-9.53041
▁өөлөр	-9.53043
▁зия	-9.53121
▁ңар	-9.53195
▁жоо	-9.53216
▁енс	-9.53223
▁зм	-9.53274
кше	-9.5329
ерро	-9.53364
▁ката	-9.53406
дья	-9.53456
▁демия	-9.5351
▁ооке	-9.53755
▁рес	-9.53772
▁ыкч	-9.53818
▁ыңг	-9.53876
▁чукул	-9.53975
▁сурак	-9.5407
▁ади	-9.54232
▁Бы	-9.5425
▁хам	-9.54344
▁ыс	-9.54367
▁кооп	-9.54459
▁ескин	-9.54706
▁оптор	-9.55051
▁ех	-9.55321
▁тали	-9.55328
▁чөйрө	-9.55377
▁ере	-9.55435
▁тти	-9.55435
▁сөөгү	-9.55529
мат	-9.55635
▁тив	-9.55637
лугу	-9.55671
▁тон	-9.55679
▁өп	-9.5568
▁ль	-9.55692
▁леш	-9.55755
▁ктор	-9.55778
▁айта	-9.55796
ткөн	-9.55802
▁ино	-9.55811
▁еми	-9.55857
▁жас	-9.55888
▁ис	-9.55893
▁зит	-9.56012
▁Ком	-9.56144
ынд	-9.56226
алд	-9.56372
▁ир	-9.56373
▁лукт	-9.56411
▁оюз	-9.56455
▁вал	-9.56467
▁алт	-9.56495
▁ыздоо	-9.56538
▁лаш	-9.56566
▁смо	-9.56818
▁енчи	-9.56892
▁ме	-9.56907
▁буйр	-9.57039
▁она	-9.5714
▁рем	-9.57146
▁убан	-9.57188
▁олку	-9.57285
▁олот	-9.57296
▁өтөт	-9.57407
▁виц	-9.57465
▁чечи	-9.57473
▁гресс	-9.57633
▁умш	-9.57647
▁иңде	-9.5769
тө	-9.57699
▁унт	-9.57728
▁өгөт	-9.57825
▁арыл	-9.57834
▁аммит	-9.57977
▁үрү	-9.58023
▁ыраа	-9.58097
▁үндө	-9.58142
▁пал	-9.58162
▁енин	-9.58212
▁ганы	-9.58234
▁11	-9.58344
ыркы	-9.58546
▁өлү	-9.58618
▁рыйба	-9.58632
▁тарта	-9.5871
▁фр	-9.58753
▁риш	-9.58799
▁орма	-9.58937
▁эсе	-9.59051
▁ыкма	-9.5913
▁гра	-9.59218
▁утбо	-9.59232
▁карыз	-9.59317
▁аэ	-9.59491
▁Гү	-9.59497
▁ъект	-9.59526
▁чыр	-9.59622
▁ризис	-9.59636
▁Коре	-9.59729
ытай	-9.59756
▁пози	-9.59759
▁бак	-9.59762
▁аат	-9.59907
▁сыя	-9.59937
ирүү	-9.5999
▁/	-9.60088
▁ения	-9.60089
▁ерге	-9.60249
орду	-9.60313
▁олжо	-9.60432
УУну	-9.60506
▁еңи	-9.60542
▁сан	-9.6062
▁анан	-9.6068
маты	-9.60726
▁фонд	-9.60744
▁адв	-9.60869
▁ью	-9.60888
▁атын	-9.60913
▁ткан	-9.60948
▁чыкпа	-9.61
▁ажы	-9.61005
▁50	-9.61033
▁начар	-9.61125
▁оңдо	-9.61145
▁ика	-9.6118
▁Башка	-9.61245
▁шо	-9.61261
▁ыма	-9.61332
▁төгө	-9.61356
ибер	-9.61397
▁лет	-9.61525
▁12	-9.61745
▁ста	-9.61832
лкө	-9.62122
▁арг	-9.62155
▁чили	-9.62244
▁екет	-9.62389
▁тере	-9.62414
▁вод	-9.62419
▁Му	-9.62486
▁үрөт	-9.62654
▁уур	-9.62782
▁аж	-9.62827
▁ыймыл	-9.62833
▁жүк	-9.62896
▁ыйы	-9.62963
▁тов	-9.62996
гөн	-9.63006
атто	-9.6303
▁мөн	-9.63098
ыкка	-9.63138
▁I	-9.6326
▁ный	-9.63304
▁мер	-9.6337
▁ас	-9.63547
▁атор	-9.63617
▁лө	-9.6375
ртка	-9.63805
▁аа	-9.63853
▁акал	-9.63859
▁Ми	-9.63882
▁рдо	-9.63981
▁зал	-9.64061
▁шке	-9.64071
▁түштү	-9.64382
▁өтп	-9.64467
▁иштүү	-9.64536
▁жаны	-9.64582
▁сел	-9.64601
▁убат	-9.64644
▁үлгөн	-9.64657
▁шу	-9.6466
0%	-9.64734
▁олту	-9.64758
▁жибе	-9.64846
▁уккан	-9.64951
үнгө	-9.65246
▁нтер	-9.65339
▁мей	-9.65391
▁гум	-9.65406
▁туруу	-9.65561
▁ша	-9.65593
▁далил	-9.65669
▁ion	-9.65779
▁жар	-9.66001
▁ону	-9.66022
▁Жакы	-9.66155
▁иясы	-9.66172
▁нуш	-9.66292
ехни	-9.66369
▁но	-9.66403
▁стат	-9.66764
▁уулук	-9.66776
▁ңиз	-9.66867
▁агым	-9.66917
▁тили	-9.66959
▁раак	-9.67184
▁нуп	-9.67249
▁инте	-9.6746
▁абд	-9.67462
▁На	-9.67552
▁ндо	-9.67599
▁алым	-9.67766
акка	-9.67929
ооро	-9.67961
▁күчү	-9.68022
▁инче	-9.68069
▁ск	-9.68151
▁ехн	-9.68232
▁анча	-9.6825
▁Исла	-9.68505
▁пор	-9.68519
▁ырт	-9.68534
▁түй	-9.68536
▁рүүдө	-9.68676
▁абуу	-9.6878
▁иден	-9.68823
▁пара	-9.68917
▁агын	-9.68942
▁өм	-9.69039
▁лугу	-9.69147
▁оль	-9.69206
▁ашкан	-9.69272
▁сам	-9.69381
▁ынга	-9.69402
▁үтү	-9.6949
▁сс	-9.69801
ди	-9.69852
▁тация	-9.69931
▁арам	-9.69934
▁фонду	-9.69969
▁нттер	-9.70012
▁утка	-9.70097
▁арка	-9.70142
▁ыйл	-9.70202
▁ле	-9.70235
екем	-9.70291
▁рол	-9.70385
▁ттар	-9.70445
▁жам	-9.70448
▁баева	-9.70485
▁жуг	-9.70491
▁үрүшү	-9.70556
▁ци	-9.70768
▁тем	-9.70808
▁арлык	-9.7082
▁жүрүш	-9.7085
▁үз	-9.70856
▁сепе	-9.70992
▁ыздар	-9.71025
ирге	-9.71048
дүү	-9.71088
▁улма	-9.71118
▁ууг	-9.71212
пай	-9.71277
▁ург	-9.71352
лып	-9.7137
▁они	-9.71442
▁еме	-9.71556
▁адан	-9.7165
▁ыны	-9.71659
▁каз	-9.71786
▁Өз	-9.71843
▁улду	-9.7191
▁кага	-9.71955
▁өчү	-9.72151
▁алан	-9.7239
▁кын	-9.72456
кинч	-9.72513
▁үрө	-9.72547
▁исте	-9.72708
▁ализ	-9.72874
▁арку	-9.72991
▁үлг	-9.73026
▁есс	-9.73042
▁лгөн	-9.7306
С	-9.73067
▁атр	-9.73072
▁арда	-9.73167
▁шар	-9.73347
▁мени	-9.73401
▁оочу	-9.73407
▁екция	-9.73651
▁аттоо	-9.73669
АТО	-9.73872
өргө	-9.74029
▁стра	-9.74074
▁олд	-9.74077
▁еск	-9.74094
▁кун	-9.74107
ала	-9.74248
▁руз	-9.74274
▁дөө	-9.74567
▁ли	-9.74621
сы	-9.74673
▁ника	-9.74786
▁ене	-9.74859
▁артип	-9.74865
▁кула	-9.74931
▁андаш	-9.75065
до	-9.75458
▁кация	-9.75504
▁уну	-9.75543
▁ог	-9.75714
Р	-9.75776
▁анов	-9.75894
▁шуу	-9.76075
▁тос	-9.76154
▁өбүз	-9.763
▁ноо	-9.76497
нция	-9.76576
▁салды	-9.76605
▁атуу	-9.76635
▁аап	-9.76675
▁пс	-9.76736
▁араш	-9.76827
▁ю	-9.76906
▁елги	-9.76971
▁арык	-9.77052
ына	-9.771
▁алил	-9.77139
он	-9.77181
▁апты	-9.77238
▁алабы	-9.77317
▁чыны	-9.77378
▁Кур	-9.77476
▁ави	-9.77563
аба	-9.77622
▁мол	-9.78008
▁аку	-9.78039
▁аша	-9.7805
▁Ру	-9.78109
▁сен	-9.78176
▁сың	-9.78184
▁ткен	-9.78208
▁лышы	-9.78231
гөчө	-9.78294
▁утуу	-9.783
▁акан	-9.7836
▁иг	-9.78443
▁ос	-9.78782
амс	-9.78795
▁14	-9.788
▁арал	-9.78966
▁ото	-9.78994
▁уб	-9.79018
▁вока	-9.79025
▁ник	-9.79305
▁эксп	-9.79376
▁жөн	-9.79386
▁урул	-9.79506
▁нго	-9.79585
▁андат	-9.79689
▁дашуу	-9.79724
▁тыл	-9.79838
▁ами	-9.79839
▁ута	-9.79907
▁аалым	-9.79914
▁тийиш	-9.80184
ё	-9.80195
▁бес	-9.8068
▁реги	-9.80715
▁Я	-9.80784
▁дис	-9.80797
▁ортт	-9.8082
▁оло	-9.80899
▁йма	-9.81047
▁умуш	-9.81065
▁өтүү	-9.81363
▁өч	-9.81431
▁исти	-9.81467
▁артуу	-9.81499
▁ачуу	-9.81609
▁оро	-9.81618
▁раф	-9.81653
▁ерв	-9.81674
▁үст	-9.81773
ң	-9.81911
ууну	-9.81919
▁арыя	-9.81979
▁арбы	-9.82007
▁шат	-9.82107
▁Ц	-9.82129
▁ерди	-9.82174
▁сттер	-9.82188
▁мдөө	-9.82315
▁тас	-9.82337
▁ести	-9.82353
▁ранд	-9.82419
▁ерт	-9.8248
эри	-9.82579
▁мне	-9.8262
гач	-9.82738
▁карт	-9.82919
▁йлөр	-9.82993
▁ари	-9.83139
▁лты	-9.83182
▁ырма	-9.83214
▁лин	-9.83318
▁уран	-9.83401
▁овду	-9.83435
▁мб	-9.83542
▁нф	-9.83603
▁үйө	-9.83657
▁грант	-9.83775
▁рыгер	-9.83819
▁руг	-9.83821
a	-9.83882
▁лөө	-9.84002
▁оптуу	-9.84044
▁иал	-9.84126
▁раб	-9.84206
▁азасы	-9.84214
▁урга	-9.84334
▁илет	-9.84427
▁нти	-9.84731
▁яр	-9.84754
▁угу	-9.84779
▁оолор	-9.84888
▁ыды	-9.84897
анда	-9.8496
▁орд	-9.851
▁рман	-9.85173
▁ттери	-9.85208
▁рлер	-9.85222
▁ендер	-9.85332
▁рей	-9.85337
▁нск	-9.85382
▁Ток	-9.85469
▁удай	-9.85757
▁ил	-9.85774
▁сайы	-9.85812
АМА	-9.86053
▁лю	-9.86061
▁теш	-9.86072
▁Лу	-9.86174
еми	-9.86293
▁иж	-9.86349
▁тей	-9.86367
▁рга	-9.86449
▁мака	-9.86459
▁рат	-9.86571
▁кул	-9.86769
▁арад	-9.8683
▁Мам	-9.86855
▁13	-9.86859
кмө	-9.86897
▁гыла	-9.87
▁ндү	-9.8716
▁Түрк	-9.87187
ерен	-9.87438
▁сум	-9.87566
▁меке	-9.87573
хник	-9.87583
гыз	-9.8799
▁лле	-9.88026
▁Анд	-9.88066
▁көй	-9.88258
▁кес	-9.8828
дуу	-9.88398
▁диа	-9.88469
▁ылдар	-9.88601
▁боо	-9.88612
▁рты	-9.88635
▁шү	-9.88682
▁дум	-9.88727
елүү	-9.88841
▁ашк	-9.88875
▁рег	-9.8894
▁ез	-9.89053
ага	-9.89074
▁агыт	-9.89115
▁арта	-9.89145
▁Тоо	-9.89205
▁зан	-9.8924
▁амы	-9.8929
▁1,	-9.89326
▁уту	-9.89358
▁пол	-9.89386
▁егизи	-9.89524
▁екени	-9.89662
▁гинд	-9.89669
▁ашыл	-9.89788
аян	-9.89804
▁ияны	-9.8981
▁40	-9.8992
▁абык	-9.90049
▁каш	-9.90055
▁иң	-9.90074
▁ед	-9.90164
▁Ас	-9.90275
▁ичи	-9.90621
▁25	-9.90635
▁поли	-9.90806
▁артыш	-9.90838
▁аров	-9.9085
▁сим	-9.9094
▁чеги	-9.91018
▁окум	-9.91185
өйгө	-9.91248
▁икте	-9.91316
маш	-9.91348
нгө	-9.91409
▁өг	-9.91566
▁анган	-9.91825
▁ликт	-9.91907
▁рын	-9.92249
▁ски	-9.92334
▁мел	-9.92389
▁жин	-9.92389
▁екке	-9.92522
есе	-9.92637
▁юму	-9.92646
▁армоо	-9.9268
▁али	-9.92742
▁аткы	-9.92755
▁урт	-9.92816
▁юри	-9.92965
▁За	-9.93009
▁Али	-9.9301
▁ирин	-9.93065
▁Иш	-9.93065
▁фил	-9.93095
mag	-9.93217
▁ынган	-9.93244
▁бат	-9.93326
▁16	-9.93767
▁еш	-9.93911
▁спи	-9.9395
▁ирд	-9.94006
уучу	-9.94116
▁рист	-9.94173
▁маз	-9.94183
▁етки	-9.94254
▁атыр	-9.94341
▁үмд	-9.94477
▁ртуу	-9.94587
▁нц	-9.94619
▁тург	-9.94674
▁рас	-9.94683
▁бия	-9.94858
▁18	-9.94945
▁апар	-9.95001
▁мет	-9.95079
▁виру	-9.95088
▁рий	-9.9511
▁ест	-9.95116
▁үлдү	-9.95168
▁тады	-9.95219
▁Жан	-9.95258
▁мыр	-9.95289
▁эпи	-9.95315
▁көзү	-9.95471
▁уста	-9.95497
▁ве	-9.9585
▁мын	-9.95868
▁Ад	-9.9599
▁шун	-9.96062
ас	-9.96086
ктү	-9.96219
▁Й	-9.96313
▁издөө	-9.96412
▁корк	-9.96537
▁ресс	-9.96618
лар	-9.96659
▁ац	-9.96678
▁ерро	-9.96789
кта	-9.96843
өрүн	-9.96871
алга	-9.9716
▁гыс	-9.97292
▁пера	-9.97301
▁мду	-9.97399
▁окт	-9.97401
▁ют	-9.97422
дин	-9.97435
▁пү	-9.97473
▁вар	-9.97632
▁эг	-9.97705
▁үтүн	-9.97857
▁эси	-9.97865
▁терг	-9.9803
▁маши	-9.98044
▁стук	-9.98089
▁оңо	-9.98113
▁нстр	-9.98155
▁виз	-9.98206
▁рам	-9.98218
▁геси	-9.98224
▁улат	-9.98326
i	-9.98343
▁хан	-9.98403
▁икти	-9.98488
▁екен	-9.98538
▁тым	-9.98556
▁ег	-9.98595
▁чак	-9.98776
▁ля	-9.98838
орку	-9.98845
▁тег	-9.98845
▁эм	-9.98864
▁ария	-9.98877
▁сүй	-9.98926
урам	-9.98945
▁ктар	-9.98981
▁фе	-9.99006
▁лас	-9.9905
▁s	-9.99259
буз	-9.99341
▁баг	-9.9942
▁лам	-9.99427
▁ешет	-9.99435
▁руу	-9.99465
▁дос	-9.99665
▁алам	-9.99748
▁күчт	-9.99842
▁оп	-9.99873
▁айра	-10
▁мдө	-10.0017
▁але	-10.0035
▁тип	-10.0038
▁лекс	-10.0039
▁КМ	-10.0057
▁гер	-10.0063
▁нер	-10.0078
▁Ую	-10.0084
▁асты	-10.01
▁аралы	-10.0103
▁өбө	-10.0104
▁ивд	-10.0112
▁сар	-10.0117
абыр	-10.0121
▁дим	-10.0121
▁лаг	-10.0121
▁лун	-10.013
▁лу	-10.0134
▁көрдү	-10.0139
▁атар	-10.0161
▁ылкы	-10.019
▁өндө	-10.0201
▁ыгым	-10.022
▁йыл	-10.0229
▁араба	-10.0256
▁мылы	-10.0267
▁дини	-10.0277
▁акт	-10.028
▁арат	-10.0294
▁күл	-10.0304
▁рак	-10.0314
▁Бо	-10.0322
ов	-10.0327
▁үң	-10.0332
▁ерал	-10.035
▁үзү	-10.0351
▁ришти	-10.0355
▁неси	-10.0377
▁шка	-10.0388
▁руучу	-10.0392
▁ыка	-10.0411
"	-10.0412
▁лег	-10.0412
▁мине	-10.0423
▁дугу	-10.0426
▁өлгөн	-10.0431
▁аск	-10.0446
▁сыр	-10.0452
▁нат	-10.0455
▁атат	-10.0458
суз	-10.0466
▁өөнү	-10.0467
▁утту	-10.0467
▁рч	-10.0492
▁лиц	-10.0522
▁тема	-10.0529
▁дери	-10.0543
▁мон	-10.0564
▁здө	-10.0566
▁дыры	-10.0582
▁зү	-10.0593
▁как	-10.0598
▁ңг	-10.0622
▁нип	-10.0632
▁уң	-10.0645
▁°	-10.0654
ККУ	-10.0657
▁рым	-10.066
▁17	-10.0674
▁дүгү	-10.0678
ым	-10.068
▁ирге	-10.0682
▁илин	-10.0685
▁ишет	-10.0704
ыш	-10.0722
иң	-10.0732
▁хе	-10.0739
▁рис	-10.0747
▁Ок	-10.0754
илер	-10.0757
▁тори	-10.078
▁алка	-10.0788
▁бра	-10.0791
▁стик	-10.0792
▁алба	-10.0794
▁БУУ	-10.0798
зия	-10.08
▁шан	-10.0805
▁ания	-10.0805
▁нген	-10.0828
▁кире	-10.084
▁ттү	-10.0841
унда	-10.0867
▁кук	-10.0873
▁cap	-10.0881
▁кило	-10.0889
▁азал	-10.0906
▁асма	-10.091
▁Евр	-10.0924
▁Же	-10.093
▁еге	-10.0962
▁ңү	-10.0967
▁арыг	-10.0968
▁амб	-10.0979
▁ера	-10.0985
▁ё	-10.099
▁ГЭС	-10.1001
бия	-10.1016
▁спе	-10.1017
▁йбыз	-10.102
▁Ли	-10.1021
▁ыйка	-10.1022
▁Каб	-10.1026
▁ысым	-10.1045
▁кас	-10.1053
▁ече	-10.1071
▁анг	-10.1085
▁гин	-10.1087
▁той	-10.1091
▁наны	-10.1114
▁чөл	-10.1115
алуу	-10.1158
▁айд	-10.1164
чы	-10.1191
ыймы	-10.1205
▁онду	-10.1215
▁сма	-10.1222
▁мү	-10.1228
▁ау	-10.1234
▁Эң	-10.1244
▁Мак	-10.1249
▁дус	-10.1251
▁ойго	-10.1251
▁акыт	-10.1254
▁роз	-10.1261
▁елек	-10.127
кан	-10.1295
s	-10.1303
▁гул	-10.1318
▁рв	-10.1332
▁ирзи	-10.1362
▁ры	-10.1377
▁ерег	-10.1397
▁нек	-10.1413
▁логи	-10.1413
▁кри	-10.1419
▁арлар	-10.1423
ыл	-10.1432
▁ыган	-10.1433
▁наб	-10.1435
▁лия	-10.1439
▁куб	-10.1441
▁карм	-10.1441
▁үктө	-10.1443
▁имп	-10.1455
▁сто	-10.1472
▁Аба	-10.1491
▁60	-10.1531
▁осу	-10.1535
кө	-10.1551
▁бад	-10.1558
▁оодо	-10.1563
▁нче	-10.1571
ызды	-10.1577
▁адим	-10.158
иси	-10.1592
ашта	-10.1615
▁Пар	-10.1616
▁тая	-10.1633
▁ыруун	-10.1635
▁ейи	-10.1643
▁ита	-10.1658
▁башы	-10.1659
▁еси	-10.1661
▁пост	-10.1662
▁шып	-10.1676
▁аков	-10.168
▁лыг	-10.1688
▁ылышы	-10.169
▁ешке	-10.1704
▁арк	-10.1723
▁етер	-10.1731
▁ечит	-10.1736
▁оту	-10.1772
▁рик	-10.1774
▁үсү	-10.1775
▁чил	-10.1777
ам	-10.1779
▁улда	-10.1792
амб	-10.18
ууга	-10.1803
▁ума	-10.181
▁абыр	-10.182
▁оли	-10.1848
ырсы	-10.1858
үүгө	-10.1945
▁өлүк	-10.1947
▁гына	-10.1954
▁Ант	-10.1954
тыл	-10.1986
▁коло	-10.1993
▁лиев	-10.2
▁мил	-10.2005
▁ынчы	-10.2011
▁ЕАЭБ	-10.2018
▁орт	-10.2019
▁ызды	-10.2033
▁илек	-10.2034
▁жүрг	-10.2063
▁етин	-10.2081
▁енде	-10.2084
▁ора	-10.2084
▁Сай	-10.2089
▁тту	-10.214
▁өн	-10.2177
▁ье	-10.2192
▁менти	-10.2193
▁нка	-10.2196
▁елбе	-10.222
▁ец	-10.222
▁сым	-10.2252
▁бан	-10.2252
▁еч	-10.2254
▁ити	-10.2256
▁нал	-10.2257
▁ССС	-10.2261
▁өлө	-10.2273
▁иги	-10.2282
▁тол	-10.2286
▁кус	-10.2295
▁урду	-10.2297
▁шыл	-10.231
▁бакт	-10.2311
▁Ре	-10.2335
▁тыны	-10.2338
▁ерб	-10.2338
▁пов	-10.234
▁амал	-10.2352
▁абар	-10.2386
▁ахм	-10.2387
▁усу	-10.2398
▁дыруу	-10.2428
▁ико	-10.2449
▁Фи	-10.2485
▁баал	-10.2551
▁раган	-10.2562
▁фор	-10.2572
▁өгө	-10.2573
▁ттүү	-10.2575
▁Жу	-10.2577
▁ынды	-10.2586
▁өлөм	-10.26
▁19	-10.2616
▁лиз	-10.262
▁рита	-10.2629
▁енди	-10.2662
▁мар	-10.2683
▁тябрь	-10.2686
▁рте	-10.2697
▁улов	-10.2752
▁Z	-10.2752
юу	-10.2754
▁рет	-10.2762
▁зе	-10.2792
▁дил	-10.2801
▁ичин	-10.2811
▁ылат	-10.2819
яб	-10.2826
▁нар	-10.2827
▁оно	-10.2828
▁зо	-10.2833
тү	-10.2843
▁Ким	-10.2848
▁нба	-10.286
гө	-10.2875
в	-10.2887
▁үлөт	-10.2887
▁атак	-10.2904
▁абат	-10.2917
лору	-10.2922
▁ылт	-10.2927
▁ңд	-10.2928
▁инди	-10.2937
▁лат	-10.294
▁Кан	-10.2957
▁ауд	-10.297
1	-10.2994
▁үрт	-10.2997
▁уул	-10.3011
жо	-10.3014
▁кыла	-10.3063
▁уча	-10.3066
▁күр	-10.307
▁зиз	-10.3103
▁гону	-10.3107
▁24	-10.3108
▁ини	-10.3114
▁оф	-10.3118
▁ут	-10.3134
▁кинд	-10.314
▁кере	-10.3153
▁ачы	-10.3153
▁оюл	-10.3155
▁ушкан	-10.3156
асс	-10.3168
▁чи	-10.3172
ско	-10.318
бө	-10.3184
▁аала	-10.3193
▁аңд	-10.3197
▁база	-10.3205
▁ырга	-10.3208
▁рге	-10.3219
▁берб	-10.323
▁од	-10.3246
▁риг	-10.3259
▁оог	-10.3278
▁Ти	-10.3284
▁ио	-10.3297
▁лоб	-10.3301
▁ордо	-10.3304
▁арм	-10.3307
ыз	-10.3315
▁опа	-10.3318
▁пре	-10.3321
▁мба	-10.3327
▁рон	-10.3329
▁уган	-10.3334
▁оч	-10.3339
▁мды	-10.334
▁аңг	-10.3341
▁кты	-10.335
екте	-10.3353
ил	-10.3363
▁ылык	-10.338
олл	-10.34
▁таз	-10.3404
▁ес	-10.3407
атчы	-10.3407
▁ив	-10.3408
▁урасы	-10.3412
▁вс	-10.3428
▁ачк	-10.3446
▁кла	-10.3449
ого	-10.3453
▁ылын	-10.3475
▁арман	-10.3478
▁улд	-10.3493
▁T	-10.3493
баев	-10.3529
▁70	-10.3533
апта	-10.3545
▁онг	-10.3557
ман	-10.3561
▁ыд	-10.3571
хан	-10.3574
▁ета	-10.3575
▁суп	-10.3581
▁өрага	-10.3606
х	-10.3607
▁дир	-10.3608
▁22	-10.3608
▁үшкөн	-10.361
▁ейм	-10.3613
▁хи	-10.3616
▁жатты	-10.3623
▁льт	-10.3662
▁ати	-10.3663
▁80	-10.3693
▁рто	-10.3694
▁чүлөр	-10.3696
▁Сар	-10.3702
▁анар	-10.3715
▁Жол	-10.3745
▁рим	-10.3749
▁бөйт	-10.3752
чил	-10.3766
теш	-10.3766
▁ндер	-10.3779
▁егиз	-10.3804
▁урда	-10.3815
▁мит	-10.3819
▁еби	-10.382
ров	-10.3835
▁рап	-10.3867
▁Сам	-10.3867
▁оби	-10.3874
Ko	-10.3881
▁рчу	-10.3887
▁беге	-10.3888
▁үрдү	-10.3894
▁инт	-10.3934
▁тка	-10.3966
▁жаң	-10.3975
▁үйөө	-10.3983
рим	-10.399
▁2,	-10.399
▁лкө	-10.3999
▁поз	-10.4008
▁тунд	-10.4061
▁Су	-10.4061
▁ров	-10.4072
▁юн	-10.4076
2	-10.411
▁ава	-10.4115
▁ымдар	-10.4123
▁чат	-10.4124
▁тект	-10.4147
▁ва	-10.4149
арыл	-10.4149
ансы	-10.4152
▁лаб	-10.4153
▁Ге	-10.4163
▁елет	-10.4167
▁анде	-10.4168
▁унд	-10.4171
▁уг	-10.4191
▁зак	-10.4197
▁меле	-10.4199
ту	-10.4204
▁алс	-10.4215
▁ебе	-10.4219
▁зун	-10.4221
▁це	-10.4222
▁зим	-10.4224
▁сла	-10.4249
▁айды	-10.4257
▁Тала	-10.4266
▁тро	-10.4272
уна	-10.4277
▁алгы	-10.4286
▁урас	-10.4309
▁уруш	-10.4309
▁еде	-10.432
▁инал	-10.4351
▁ом	-10.4356
аты	-10.4363
▁өзд	-10.4364
▁көрү	-10.4392
20	-10.4396
▁арызы	-10.4403
иц	-10.4404
▁тика	-10.4407
▁кар	-10.4408
▁ЖЭБ	-10.4429
▁рс	-10.4445
рөө	-10.4454
▁кка	-10.4472
▁Кон	-10.4487
үүнү	-10.4487
▁рду	-10.4498
▁табы	-10.4501
▁кыры	-10.4539
ut	-10.4548
▁арь	-10.4555
▁Ви	-10.4558
▁өгү	-10.4572
дын	-10.4577
▁мге	-10.4585
▁реп	-10.46
кала	-10.4604
▁лис	-10.4611
▁гиз	-10.4619
ерки	-10.4631
▁ним	-10.4643
▁сти	-10.4654
▁лдер	-10.4662
▁21	-10.4665
▁от	-10.4668
▁езд	-10.468
▁лууда	-10.4687
▁билд	-10.4687
▁ирди	-10.4693
▁лип	-10.4698
▁реа	-10.4704
▁ерил	-10.4715
▁мор	-10.4721
▁мис	-10.4723
▁фт	-10.474
▁ттык	-10.4748
ылмы	-10.4752
▁енция	-10.4755
▁ыкта	-10.4757
▁били	-10.4787
▁ыша	-10.4789
▁лим	-10.4803
▁Эр	-10.4825
айла	-10.4833
▁күрө	-10.4836
▁рах	-10.4841
▁ясы	-10.4846
▁чул	-10.4855
▁аштык	-10.4869
▁ныш	-10.4881
▁улга	-10.4885
▁лым	-10.4888
▁йле	-10.4902
▁ңк	-10.4904
▁C	-10.4909
▁ылы	-10.491
▁вет	-10.4921
▁Че	-10.4934
▁ель	-10.4945
▁өктө	-10.4945
▁дур	-10.4967
▁илдик	-10.4979
▁ынты	-10.4986
▁үт	-10.4996
аж	-10.5001
▁шил	-10.501
▁акс	-10.5023
▁27	-10.5029
нанс	-10.5032
▁беке	-10.5033
▁жайын	-10.5063
▁маш	-10.5063
▁мур	-10.5073
▁рит	-10.5099
▁ева	-10.5118
▁манк	-10.5118
▁өөдө	-10.5144
▁ерр	-10.5168
▁имдер	-10.5172
▁стиц	-10.5174
▁ашын	-10.5174
▁ушту	-10.5181
▁ипло	-10.5186
▁нь	-10.52
▁ерн	-10.5204
▁рид	-10.523
▁манов	-10.5252
▁сей	-10.5255
▁Го	-10.5256
▁лав	-10.526
▁аф	-10.5263
▁нап	-10.5269
▁нис	-10.5301
▁шон	-10.5313
▁блик	-10.5317
▁пта	-10.5317
▁олуг	-10.5334
▁нста	-10.535
▁маг	-10.5363
▁аде	-10.5375
▁каба	-10.5376
▁олг	-10.5384
өмү	-10.54
▁орук	-10.5416
▁одекс	-10.5424
50	-10.5429
Ш	-10.5442
▁талат	-10.5442
▁35	-10.5451
▁теби	-10.5469
▁кту	-10.5498
▁етет	-10.5505
▁фон	-10.5521
▁шту	-10.5537
▁уга	-10.5541
▁вто	-10.5541
▁тиш	-10.5542
▁улушу	-10.5547
▁иева	-10.5556
▁кыр	-10.5563
тын	-10.5563
▁вер	-10.5565
▁гүн	-10.5625
▁сай	-10.5629
▁тим	-10.5635
▁23	-10.5642
▁орон	-10.5649
▁енен	-10.5688
▁үрк	-10.5703
▁згө	-10.571
▁kg	-10.5744
▁емо	-10.5748
▁лот	-10.5762
▁тист	-10.578
▁ште	-10.5782
▁янс	-10.5792
▁рул	-10.5796
▁атив	-10.5799
▁ырд	-10.5805
оң	-10.5819
▁лд	-10.585
▁енг	-10.5862
▁тыгын	-10.5864
▁гиле	-10.5887
▁аада	-10.5894
▁ракт	-10.591
▁сер	-10.5921
▁алд	-10.596
▁90	-10.5965
▁жашта	-10.597
▁кады	-10.5973
▁йг	-10.5974
▁оба	-10.5987
▁отчет	-10.5987
▁ача	-10.6002
▁калд	-10.6048
▁арлы	-10.6055
▁кеси	-10.6055
▁гыр	-10.6061
▁ышт	-10.6085
▁этно	-10.6124
▁тышуу	-10.6143
▁лиш	-10.6152
▁очул	-10.6153
▁аби	-10.6156
▁боор	-10.6158
▁кчы	-10.6183
▁сон	-10.6187
ян	-10.6187
▁жагы	-10.6204
▁ыйна	-10.621
o	-10.6252
▁нбек	-10.6255
▁гем	-10.6263
▁лов	-10.6299
▁омд	-10.6301
▁онуу	-10.6329
акч	-10.6341
▁пте	-10.6349
▁араб	-10.6351
▁вич	-10.6369
▁слав	-10.6371
▁иреш	-10.6383
▁угуш	-10.6405
▁атке	-10.6408
▁ранс	-10.6411
▁анс	-10.6415
▁кей	-10.6419
▁26	-10.6435
▁алга	-10.6454
▁уд	-10.6474
▁ице	-10.6476
алыш	-10.6477
оё	-10.6477
▁ука	-10.6497
▁ква	-10.65
▁оск	-10.6512
▁око	-10.654
▁здын	-10.6541
▁убу	-10.6552
▁екст	-10.6556
▁тпө	-10.6567
ше	-10.6577
▁йла	-10.6586
▁тты	-10.6587
▁рмасы	-10.659
▁сып	-10.6608
илет	-10.662
▁тама	-10.6621
▁гын	-10.6627
уя	-10.6648
▁расы	-10.6649
▁умт	-10.6655
▁150	-10.6658
▁нам	-10.6677
үндү	-10.668
▁барды	-10.6681
▁лгө	-10.6684
▁автор	-10.6687
▁тайы	-10.6702
▁чки	-10.6706
▁луг	-10.671
▁ато	-10.6712
үм	-10.6714
▁ткү	-10.6726
мин	-10.6726
▁абай	-10.6739
▁уку	-10.6742
▁хм	-10.6745
▁ыно	-10.6754
▁Фин	-10.6757
▁кыс	-10.6768
▁кин	-10.677
өз	-10.6812
▁ект	-10.6817
си	-10.6864
▁коо	-10.6866
ылга	-10.693
▁парк	-10.6931
▁аам	-10.6934
▁аржы	-10.6953
▁иктер	-10.6959
▁төт	-10.696
өгө	-10.6983
▁ыбы	-10.6983
▁ерм	-10.6996
▁ИМ	-10.6999
▁тек	-10.7005
▁тит	-10.7006
▁шаш	-10.702
▁ng	-10.7053
▁шама	-10.7061
▁стор	-10.7088
▁рки	-10.7093
▁ыргы	-10.7097
▁осо	-10.7097
▁тала	-10.7112
▁28	-10.7125
▁йин	-10.713
юшту	-10.7132
▁олиц	-10.7137
▁аныш	-10.7155
▁рлары	-10.7167
▁Re	-10.7175
3	-10.7178
▁арс	-10.7186
▁еб	-10.7188
▁рлар	-10.7204
үгү	-10.7204
▁Ку	-10.7221
▁үзө	-10.7224
▁аалар	-10.7232
▁арш	-10.7234
▁бош	-10.7246
▁ража	-10.7276
▁йд	-10.7277
▁Токт	-10.7281
ация	-10.7283
▁шти	-10.7285
▁йс	-10.729
▁пат	-10.729
▁рево	-10.7296
▁кеме	-10.7315
▁шери	-10.7334
▁ртка	-10.7343
▁акто	-10.7356
▁дың	-10.7361
▁Бак	-10.7391
▁лда	-10.7396
▁жый	-10.7398
▁тайт	-10.7399
▁иф	-10.7413
үз	-10.7413
▁кад	-10.742
▁чан	-10.7421
▁үчө	-10.7425
▁рама	-10.7427
▁атам	-10.7427
6	-10.7437
▁ео	-10.745
▁наа	-10.7457
▁үд	-10.747
К	-10.7479
▁елиш	-10.7483
▁өңү	-10.7489
▁жыйы	-10.749
▁зу	-10.7492
▁Алма	-10.7504
▁жыр	-10.7518
▁аил	-10.7532
▁ургу	-10.7532
▁өбү	-10.7543
▁кесе	-10.7554
▁аяна	-10.7559
уба	-10.7563
▁3,	-10.7573
▁гис	-10.7575
p	-10.7577
60	-10.7605
▁лиг	-10.7611
▁уя	-10.762
▁33	-10.7624
боор	-10.7629
▁пет	-10.7629
тан	-10.7631
▁айпа	-10.7634
▁ешти	-10.7658
▁акул	-10.7663
▁уштуу	-10.7665
ктор	-10.7669
▁ырка	-10.7669
▁ураг	-10.7691
▁мчу	-10.7705
▁анас	-10.7709
тер	-10.771
▁мам	-10.7712
▁нгөн	-10.7715
ми	-10.7718
▁ялы	-10.772
▁шташ	-10.7724
▁рез	-10.774
вм	-10.7749
5%	-10.7779
▁плат	-10.778
▁менд	-10.779
▁Шар	-10.7802
▁куру	-10.7808
▁тири	-10.7832
▁мини	-10.7841
▁ялда	-10.7844
▁акка	-10.7852
▁пне	-10.7863
▁арб	-10.7873
▁кча	-10.7879
▁Мур	-10.7889
▁айл	-10.789
▁рсу	-10.7905
▁дикт	-10.7914
▁S	-10.7919
▁36	-10.7919
▁гүү	-10.792
▁пин	-10.794
▁енб	-10.7953
▁екси	-10.8002
▁Th	-10.8005
▁Тү	-10.8012
▁нанс	-10.8025
▁ашин	-10.8041
▁45	-10.8044
тип	-10.8053
▁акшы	-10.8057
▁кунд	-10.8063
▁ашат	-10.8065
▁Наз	-10.8069
▁айса	-10.8077
▁ченем	-10.808
▁лен	-10.8085
уни	-10.8093
▁мди	-10.8101
▁чур	-10.8107
ышы	-10.8126
ард	-10.8137
▁род	-10.814
▁арти	-10.815
▁МК	-10.8156
▁лыш	-10.8158
▁ылба	-10.8184
кү	-10.819
▁юу	-10.8192
▁орк	-10.8213
▁зин	-10.8219
▁рад	-10.8226
▁мов	-10.8256
▁кырк	-10.8263
▁амба	-10.8266
луб	-10.8271
▁чир	-10.8276
Вт	-10.8309
▁лга	-10.8325
еси	-10.8326
оомч	-10.833
▁Ния	-10.8356
▁бий	-10.836
▁ers	-10.8399
▁инц	-10.8404
▁ланг	-10.8425
▁жуму	-10.8427
▁форм	-10.844
▁зона	-10.8443
▁урса	-10.8449
▁тран	-10.8458
▁актоо	-10.8473
▁бло	-10.8481
▁ээр	-10.8489
▁илде	-10.8491
▁лын	-10.851
▁мпа	-10.8551
▁пч	-10.8561
▁ека	-10.8561
▁оону	-10.8562
▁ном	-10.8566
үнчү	-10.8577
▁йдө	-10.858
ааси	-10.8582
▁иди	-10.8598
▁шер	-10.8613
▁ең	-10.8614
ел	-10.8619
▁айг	-10.8622
▁ерке	-10.863
▁32	-10.8642
▁көрүш	-10.8673
▁раш	-10.8673
▁амир	-10.8674
▁эшик	-10.8676
дик	-10.8719
▁араз	-10.8736
▁пер	-10.874
▁ят	-10.8743
▁блус	-10.8762
▁ерли	-10.8768
▁аак	-10.8778
▁пыс	-10.8784
▁тинг	-10.8792
▁андар	-10.8799
▁оюнч	-10.8813
▁юл	-10.8815
▁имде	-10.8851
▁ьер	-10.8852
▁дия	-10.8858
▁рамы	-10.8863
▁ууд	-10.8872
дан	-10.8873
▁48	-10.8916
▁алп	-10.8944
▁мда	-10.8952
▁акси	-10.8953
10	-10.8958
енем	-10.8964
▁жал	-10.8968
▁аста	-10.8969
▁еж	-10.8975
▁оне	-10.8985
▁тма	-10.8988
▁рде	-10.9013
▁арч	-10.902
▁рк	-10.9031
▁бюро	-10.9054
▁F	-10.9056
осо	-10.9063
▁зар	-10.9099
y	-10.9132
уту	-10.9153
▁гай	-10.9168
▁хо	-10.9186
▁йлы	-10.9189
▁балы	-10.9191
▁Литв	-10.9211
k	-10.9212
▁рг	-10.923
▁аке	-10.9233
▁рай	-10.9254
▁75	-10.9288
▁жаб	-10.9295
▁түрүү	-10.9305
алда	-10.9318
▁ерд	-10.932
▁инд	-10.9321
▁лге	-10.9323
▁ирде	-10.9325
▁Кал	-10.934
▁амак	-10.9353
▁зод	-10.9367
мго	-10.937
▁алаш	-10.9385
оза	-10.9418
▁йна	-10.9424
4	-10.9427
▁номи	-10.9455
▁ыймы	-10.9456
▁ске	-10.9458
▁онт	-10.9462
▁лдо	-10.948
▁Wa	-10.949
40	-10.9495
арла	-10.9499
▁еков	-10.9513
ысы	-10.9527
▁амил	-10.9532
▁пто	-10.9538
тык	-10.9552
▁ранц	-10.9561
▁рилди	-10.9569
▁пад	-10.9572
▁орис	-10.9579
▁бел	-10.958
▁иви	-10.9618
▁Чы	-10.963
▁үмдөр	-10.9631
▁кезе	-10.9633
▁чуу	-10.9635
▁44	-10.9636
еке	-10.9677
▁ыпты	-10.9686
▁бал	-10.9713
▁ерг	-10.9733
▁айкы	-10.974
▁еф	-10.974
▁мик	-10.9755
▁таба	-10.9768
▁пут	-10.9769
▁гине	-10.9789
▁есе	-10.9796
▁мөк	-10.9802
▁ажи	-10.9803
▁акти	-10.9817
▁верс	-10.9828
▁аси	-10.9831
▁уса	-10.9834
▁бойт	-10.9839
емби	-10.9858
ашы	-10.986
▁29	-10.9865
▁Оту	-10.9883
▁al	-10.9897
▁ха	-10.991
8	-10.9912
▁өнө	-10.9938
▁ексу	-10.9967
▁отто	-10.9968
▁емби	-10.9982
▁учуру	-10.9993
▁ышкы	-10.9993
▁арчы	-10.9997
d	-11.002
▁Бай	-11.0033
сыз	-11.0034
▁кура	-11.0058
▁лм	-11.0067
▁уму	-11.007
төр	-11.008
▁ому	-11.0082
▁улук	-11.0089
▁елди	-11.009
▁Тур	-11.0096
▁31	-11.0103
Л	-11.014
▁урч	-11.015
▁талы	-11.0209
▁Кыл	-11.0216
▁Co	-11.0229
▁раа	-11.0234
▁мдар	-11.0244
▁алим	-11.0257
▁лими	-11.0264
▁нте	-11.0274
▁шай	-11.0289
▁фин	-11.0289
▁раз	-11.0289
▁елг	-11.0301
an	-11.0302
▁зд	-11.0314
▁нүгү	-11.0325
▁[	-11.0328
пани	-11.034
▁ья	-11.0342
▁атайы	-11.0346
▁сси	-11.035
▁V	-11.0353
орма	-11.0369
▁омо	-11.0387
▁зө	-11.0396
У	-11.0417
лбай	-11.0425
▁фа	-11.0434
▁on	-11.0448
▁лү	-11.049
▁йли	-11.0499
▁апо	-11.0521
7	-11.0525
▁ату	-11.0527
дон	-11.0535
▁34	-11.0543
▁дио	-11.0543
айд	-11.0567
▁кил	-11.0577
▁сумма	-11.0577
▁рина	-11.0584
)	-11.0606
▁]	-11.0616
▁рал	-11.0618
▁ете	-11.0632
▁обс	-11.0633
▁ром	-11.0662
▁мада	-11.0664
▁News	-11.0665
▁ена	-11.0666
▁енже	-11.0668
▁ног	-11.0669
▁Коро	-11.0694
▁ыгер	-11.0697
ne	-11.0701
▁рлор	-11.0705
эл	-11.0711
▁КСДП	-11.0714
▁вид	-11.076
▁игин	-11.0792
▁рчи	-11.081
▁көл	-11.0813
▁чүү	-11.0813
ея	-11.0815
▁уда	-11.0816
▁дел	-11.0851
▁йч	-11.0857
▁рева	-11.0858
▁нелер	-11.0884
▁4,	-11.0896
▁элчи	-11.0897
▁тес	-11.0916
▁мыш	-11.0923
▁екчи	-11.0928
▁c	-11.093
▁тац	-11.0936
▁анты	-11.0943
▁елүү	-11.0945
▁рази	-11.096
▁кери	-11.0968
▁илг	-11.0982
ылыш	-11.0986
▁Бей	-11.0987
▁идер	-11.0994
▁етп	-11.1006
▁түг	-11.1027
▁H	-11.1074
ах	-11.108
▁үлдө	-11.1082
▁ох	-11.1088
▁Мо	-11.109
▁каал	-11.1109
▁алыгы	-11.1117
▁торду	-11.1145
70	-11.1152
▁ид	-11.1163
▁рлан	-11.1168
▁бог	-11.1174
ху	-11.1176
▁аңга	-11.1188
▁амга	-11.1197
▁Time	-11.1217
▁етр	-11.1218
▁ыштар	-11.1219
алды	-11.122
▁тиг	-11.1222
▁рд	-11.123
▁үйүн	-11.1248
▁Дин	-11.1254
▁Акы	-11.1257
▁рст	-11.1273
▁айка	-11.1276
инов	-11.1296
▁енти	-11.1308
▁боз	-11.1315
▁Inte	-11.1322
▁йда	-11.1343
▁был	-11.1353
▁ашка	-11.1367
лбей	-11.1368
▁тра	-11.1372
▁соц	-11.1374
ина	-11.1379
▁Не	-11.1381
▁урун	-11.1383
кер	-11.1394
▁Айр	-11.1408
▁бри	-11.1437
▁урд	-11.1438
▁айке	-11.1444
▁цен	-11.1447
▁тети	-11.1449
▁рдин	-11.1454
▁асса	-11.1456
▁асп	-11.1456
▁моо	-11.1467
▁нж	-11.1468
▁аид	-11.1469
▁нч	-11.1475
▁абзел	-11.1479
▁пла	-11.1497
▁эри	-11.15
▁кадр	-11.1504
▁норм	-11.1505
▁йк	-11.152
▁38	-11.153
▁айлоо	-11.1537
▁импе	-11.1542
▁41	-11.1546
▁рына	-11.1546
▁лоодо	-11.155
▁рбе	-11.1562
▁елис	-11.1566
уш	-11.1568
▁ярд	-11.1586
▁эж	-11.1606
нци	-11.1655
▁талды	-11.1658
▁лашы	-11.1667
▁ылга	-11.1669
▁ела	-11.167
▁55	-11.1676
▁Ла	-11.168
сар	-11.1691
▁лдар	-11.1709
▁rna	-11.1728
n	-11.1728
▁шө	-11.174
▁ыз	-11.1746
▁поэ	-11.1751
ис	-11.1761
▁уроо	-11.1769
нов	-11.1771
▁өй	-11.1772
▁ост	-11.1796
▁ктер	-11.1812
▁37	-11.1813
▁Сал	-11.1818
▁уши	-11.1856
▁АЭС	-11.186
▁рча	-11.1862
▁ышта	-11.1882
▁ипо	-11.1885
▁чаб	-11.1895
▁яны	-11.1898
▁лде	-11.191
ёт	-11.1924
▁ксы	-11.1941
▁кра	-11.1946
▁үзгө	-11.1961
▁ШКУ	-11.1969
▁ерти	-11.1969
▁оосу	-11.1978
▁Роз	-11.1981
▁тага	-11.1982
▁узд	-11.1983
▁оц	-11.2
тег	-11.2024
▁угат	-11.2045
тун	-11.2051
▁иет	-11.2052
Эл	-11.2065
▁раил	-11.207
▁зди	-11.2073
ою	-11.2073
▁ензи	-11.2083
▁осун	-11.2083
арга	-11.2098
▁мбе	-11.2103
▁a	-11.211
▁емин	-11.2115
Ак	-11.2124
▁ние	-11.2125
▁засы	-11.2126
▁анц	-11.2133
▁гноз	-11.2138
▁ерим	-11.2145
▁аши	-11.2149
▁Те	-11.2161
▁илге	-11.2176
▁ылым	-11.2184
▁алоо	-11.2202
рь	-11.2204
▁65	-11.2206
ме	-11.2208
▁G	-11.2215
▁A	-11.2217
▁сала	-11.2237
▁ктө	-11.2241
▁кай	-11.2257
▁тет	-11.2258
▁роф	-11.2268
хна	-11.2292
▁шууда	-11.2299
▁алас	-11.23
▁ида	-11.2301
▁ишкен	-11.2302
▁аст	-11.2306
▁енд	-11.2311
▁алли	-11.2313
▁шал	-11.2333
епте	-11.2334
▁амас	-11.2366
▁ерни	-11.2374
▁адах	-11.2375
▁чем	-11.2376
үчтө	-11.2403
ети	-11.2405
%	-11.241
▁поте	-11.2437
▁муш	-11.2449
▁гонд	-11.2456
орло	-11.246
▁лли	-11.2461
▁эст	-11.2475
▁урба	-11.2492
ва	-11.2507
усу	-11.2537
▁птыр	-11.2544
▁үлө	-11.2554
▁нес	-11.2561
▁39	-11.2578
▁рж	-11.2618
▁250	-11.2621
буш	-11.2622
▁уй	-11.2628
▁омп	-11.2638
пте	-11.2643
▁ордук	-11.2656
лас	-11.2658
▁BBC	-11.266
▁шет	-11.269
▁итет	-11.2693
▁ппо	-11.2695
-	-11.2698
▁анду	-11.2706
▁ваг	-11.2706
▁йыр	-11.2708
▁мене	-11.2745
▁рса	-11.275
▁ух	-11.2761
P	-11.2761
▁IT	-11.2762
▁O	-11.2775
▁квота	-11.2784
тор	-11.2792
▁ако	-11.2843
▁жек	-11.2857
▁47	-11.2864
▁циа	-11.2881
▁43	-11.2882
енди	-11.2891
ези	-11.2902
▁You	-11.2905
▁нвес	-11.2913
▁ите	-11.2914
▁угун	-11.2916
▁сха	-11.2921
▁ире	-11.2941
▁тада	-11.2949
▁ыба	-11.2957
ra	-11.2968
▁нас	-11.2972
▁мист	-11.2978
▁мдү	-11.2992
▁тпа	-11.3024
ИЧ	-11.3025
▁X	-11.3026
▁лушу	-11.3044
▁ыска	-11.3047
СР	-11.3056
▁фу	-11.3062
▁евди	-11.3067
▁ори	-11.3077
▁тот	-11.3089
поз	-11.3108
▁ажа	-11.3132
▁бары	-11.3157
▁елин	-11.3167
тагы	-11.317
▁нве	-11.3185
ь	-11.321
▁аптар	-11.321
▁̆	-11.3213
▁ыла	-11.3217
▁мбаев	-11.3222
▁нсу	-11.3225
▁шот	-11.3234
▁мүн	-11.324
▁арий	-11.3241
▁енат	-11.3243
▁нот	-11.3263
▁кич	-11.3268
▁иль	-11.3282
▁каты	-11.3291
▁гре	-11.3296
▁апса	-11.3297
▁енген	-11.3298
▁либ	-11.3309
үйө	-11.3311
же	-11.3312
сан	-11.3315
ерма	-11.3324
▁үг	-11.3345
▁ижар	-11.3347
▁еши	-11.3351
▁иге	-11.3359
▁изи	-11.3364
сса	-11.3401
▁ЦАХА	-11.3404
▁рдун	-11.3405
▁лбо	-11.3409
▁луусу	-11.3416
▁йза	-11.3426
▁етал	-11.3445
▁ыда	-11.3459
▁42	-11.3474
▁ырч	-11.3475
▁Ri	-11.3487
▁епте	-11.349
u	-11.351
▁берд	-11.3514
▁шык	-11.3529
▁лес	-11.3545
▁ымда	-11.3556
кыл	-11.3557
▁берг	-11.3579
▁аршы	-11.358
▁ерма	-11.3611
▁сок	-11.3611
▁рага	-11.3623
▁ттө	-11.3651
▁кте	-11.3662
▁келд	-11.3662
▁нчи	-11.3672
▁мани	-11.3676
▁ше	-11.3682
▁өкмө	-11.3697
▁асс	-11.3733
▁Топ	-11.3734
▁рш	-11.3741
▁Каз	-11.3773
▁ДСС	-11.381
▁елде	-11.3823
йне	-11.3826
▁нике	-11.3834
ви	-11.3835
дай	-11.3854
▁аррис	-11.3874
▁елд	-11.3875
▁гүз	-11.3881
▁күлд	-11.3886
▁ях	-11.39
▁гус	-11.3915
▁лиф	-11.3919
▁згөр	-11.3931
▁ирс	-11.3951
▁уду	-11.3974
▁егин	-11.3979
▁увер	-11.4002
▁ерч	-11.4004
▁анч	-11.4019
▁Хи	-11.4023
▁пар	-11.4042
▁эти	-11.406
ур	-11.4085
▁Fac	-11.4085
▁ондор	-11.4103
ста	-11.4106
▁елим	-11.4112
▁өөлө	-11.4114
уюр	-11.4134
▁тчы	-11.415
▁улг	-11.416
пус	-11.4167
▁маны	-11.4176
алиб	-11.4187
▁етик	-11.419
▁чей	-11.4201
▁ысын	-11.4209
▁артта	-11.4213
▁урни	-11.422
▁Рад	-11.4223
▁лак	-11.4238
▁илб	-11.4245
▁Hum	-11.4247
▁айна	-11.4257
▁опту	-11.4268
▁gram	-11.4277
75	-11.4278
пос	-11.428
ght	-11.4283
исс	-11.4292
▁ылд	-11.4303
▁Хан	-11.4306
▁ейб	-11.433
се	-11.4335
▁ахма	-11.4335
▁алг	-11.4364
▁57	-11.4377
▁ca	-11.44
▁сман	-11.4402
▁Сан	-11.442
▁патр	-11.4433
▁ош	-11.4436
▁нөт	-11.444
▁Кли	-11.4441
▁олун	-11.4447
▁ыял	-11.445
▁ибер	-11.4451
▁уял	-11.4461
өн	-11.4465
▁өдө	-11.4487
▁марк	-11.4492
▁үрд	-11.45
▁лору	-11.4502
▁үлүк	-11.4502
▁отч	-11.4519
▁54	-11.4527
▁болу	-11.4531
▁уни	-11.4539
▁абр	-11.4541
ымба	-11.4542
үч	-11.4542
▁ечи	-11.4545
▁уша	-11.4546
▁сул	-11.4572
▁амг	-11.4573
▁Шам	-11.4586
▁дес	-11.4587
▁эши	-11.4588
▁алыг	-11.4588
▁айни	-11.4591
▁етро	-11.4605
тура	-11.4613
▁бага	-11.4625
▁онун	-11.4628
▁ржав	-11.4635
▁6,	-11.4645
▁ике	-11.4655
▁изол	-11.4656
▁ирич	-11.4668
▁пти	-11.4676
А	-11.472
▁анаг	-11.4724
▁ега	-11.4746
лери	-11.4747
▁азап	-11.476
▁арла	-11.4765
▁бю	-11.4766
▁63	-11.4779
▁ойду	-11.4783
▁отс	-11.4784
▁зилд	-11.4789
▁ентте	-11.4792
▁гил	-11.4794
▁ресе	-11.4801
▁нова	-11.4811
▁асе	-11.4814
▁ици	-11.4816
▁рава	-11.4834
▁нна	-11.4841
▁лова	-11.4846
▁сап	-11.4849
▁ило	-11.4849
▁екс	-11.4851
▁орб	-11.4852
▁ндыгы	-11.4853
ль	-11.4853
омду	-11.4864
▁лчи	-11.4869
▁карг	-11.487
▁ттөр	-11.4871
r	-11.4877
▁рине	-11.4879
▁болг	-11.489
▁62	-11.489
▁олуш	-11.4896
жен	-11.4925
▁том	-11.4934
асыл	-11.4944
▁лама	-11.4965
:	-11.4968
▁айыны	-11.4982
▁опто	-11.4982
▁пахта	-11.5005
▁ошто	-11.5006
▁лайы	-11.5006
▁рмо	-11.5009
▁отор	-11.5017
▁КТРК	-11.5019
▁урах	-11.502
▁өмө	-11.5025
▁амен	-11.5028
▁аме	-11.5078
▁койг	-11.5089
▁лхо	-11.5092
▁5,	-11.5095
▁85	-11.5125
▁Раз	-11.5127
▁ано	-11.5135
▁аасы	-11.5141
▁анжа	-11.5144
э	-11.5144
▁Кам	-11.515
▁тиз	-11.5156
▁­	-11.5156
▁Tube	-11.5156
▁58	-11.5162
▁рх	-11.5168
▁ерме	-11.5182
▁йүн	-11.5202
ӊ	-11.5237
▁ымб	-11.5261
▁фер	-11.5262
▁ыты	-11.5279
vid	-11.5286
▁жазд	-11.5303
▁мара	-11.531
▁ФСБ	-11.5311
▁аимов	-11.5311
МК	-11.5316
▁ыст	-11.5335
▁ньян	-11.5345
тоо	-11.5362
оку	-11.5373
▁нист	-11.5383
▁өөнө	-11.5389
▁шин	-11.5403
▁нса	-11.5405
дун	-11.5409
▁талг	-11.541
▁шко	-11.541
▁нөк	-11.541
мбу	-11.5428
▁үлөр	-11.5433
▁непр	-11.5435
at	-11.5447
▁кова	-11.5452
▁амаг	-11.546
▁лига	-11.547
▁кто	-11.5473
рлик	-11.5474
▁ЖАМ	-11.5475
▁изин	-11.5475
▁улжа	-11.5475
би	-11.5486
арал	-11.5498
▁49	-11.5503
▁лья	-11.5506
▁рго	-11.5507
▁рада	-11.5518
▁Am	-11.5546
▁блема	-11.5547
▁ӊ	-11.5554
▁ласы	-11.5568
▁теб	-11.5577
▁лад	-11.5585
▁узи	-11.5592
▁иро	-11.5605
▁53	-11.5607
▁ыя	-11.5617
▁здөр	-11.562
▁зыя	-11.5627
▁ыра	-11.563
▁TV	-11.5633
▁аво	-11.5637
▁68	-11.5649
▁ааныш	-11.5656
▁еттик	-11.5662
er	-11.5689
▁зил	-11.5707
▁чийки	-11.5709
▁зинф	-11.5711
▁сүр	-11.5719
атви	-11.5721
▁риб	-11.5723
▁зде	-11.5734
ум	-11.5736
▁180	-11.5742
▁олл	-11.5742
▁стин	-11.5753
▁йб	-11.5767
-3	-11.5772
▁росс	-11.58
z	-11.5802
▁52	-11.581
▁7,	-11.5811
▁стр	-11.5814
▁яд	-11.5819
өйрө	-11.5821
ци	-11.5822
тай	-11.5837
▁61	-11.5842
кат	-11.5883
лан	-11.5915
йру	-11.5927
▁түгү	-11.5935
▁апы	-11.5953
▁ааны	-11.5962
▁шахт	-11.5964
▁оңу	-11.5971
▁сеп	-11.5975
▁алиф	-11.5989
tch	-11.6001
▁st	-11.6007
▁K	-11.6016
▁77	-11.602
▁роо	-11.6021
▁аева	-11.6028
доо	-11.603
▁ьян	-11.6033
▁аим	-11.6037
▁ауди	-11.6041
▁уюш	-11.6044
▁Кол	-11.6055
▁ерик	-11.6067
12	-11.608
80	-11.6086
▁дог	-11.6106
▁тех	-11.6109
аны	-11.611
▁улпу	-11.6115
90	-11.612
▁book	-11.6121
диги	-11.6136
▁Ил	-11.6138
▁нди	-11.6164
▁коз	-11.6166
37	-11.6169
▁рот	-11.6171
тема	-11.6175
▁ппа	-11.6191
▁дж	-11.6194
▁рыз	-11.6197
▁B	-11.6208
rk	-11.621
МУ	-11.6222
▁ирус	-11.6223
ран	-11.6236
▁чег	-11.6238
▁зг	-11.6243
▁алет	-11.6245
▁йне	-11.6248
▁балд	-11.6248
▁Шир	-11.625
▁тый	-11.6255
▁укка	-11.6307
▁опо	-11.6313
47	-11.632
▁вир	-11.6344
▁орту	-11.6356
27	-11.6359
4%	-11.6359
▁кис	-11.6366
▁46	-11.6371
▁лго	-11.6377
▁мана	-11.6382
▁суб	-11.6387
▁рба	-11.6389
▁рылды	-11.6419
▁чаба	-11.642
25	-11.643
R	-11.6436
▁ренд	-11.6444
▁ирле	-11.6446
▁наты	-11.6453
▁пайг	-11.65
▁абир	-11.6528
▁орде	-11.6532
▁дашты	-11.6556
уля	-11.658
▁руп	-11.658
▁лон	-11.6592
▁ашал	-11.6592
▁Ту	-11.6607
▁Кир	-11.6608
▁опк	-11.6609
-4	-11.6641
▁ртты	-11.6645
▁анхай	-11.6649
▁лдор	-11.6662
▁алч	-11.6674
▁130	-11.6676
▁59	-11.6676
еже	-11.6684
▁гд	-11.6697
▁аё	-11.6707
▁ербе	-11.6712
▁агыл	-11.6724
кай	-11.6726
Э	-11.6731
▁литр	-11.6733
ИС	-11.6747
30	-11.675
▁er	-11.6756
▁n	-11.6772
▁олла	-11.6788
вка	-11.6799
▁73	-11.68
▁екц	-11.6806
енчи	-11.6815
▁kz	-11.682
▁rov	-11.6821
▁аалы	-11.6823
▁ахри	-11.6826
▁дири	-11.6826
▁абын	-11.685
▁ариф	-11.6852
6%	-11.686
▁ооч	-11.6863
14	-11.6877
бо	-11.6886
▁New	-11.6911
▁AFP	-11.6911
▁аброй	-11.6911
▁гр	-11.6911
▁даха	-11.6915
-5	-11.6938
15	-11.6959
лөрү	-11.697
▁аха	-11.6972
▁итан	-11.6975
A	-11.6989
чи	-11.6999
аль	-11.6999
▁чен	-11.7008
▁ран	-11.7009
RW	-11.7011
▁ахар	-11.7012
юсс	-11.7028
▁шарк	-11.7037
▁56	-11.7044
▁шей	-11.7048
бу	-11.7054
▁вд	-11.7065
▁кым	-11.707
▁итте	-11.707
▁това	-11.7089
кция	-11.7092
▁nce	-11.7095
▁иру	-11.71
▁йыпт	-11.7105
ve	-11.7107
▁нгө	-11.7116
▁мдери	-11.7124
▁72	-11.7152
▁ияда	-11.7155
ура	-11.7165
▁куп	-11.717
▁лбай	-11.7185
▁орой	-11.7186
▁Air	-11.7189
▁эко	-11.7202
ой	-11.723
ЭР	-11.7249
▁малы	-11.7265
▁ланд	-11.7267
ус	-11.7274
үң	-11.7281
▁тыш	-11.7294
ох	-11.7314
ват	-11.7317
I	-11.7329
▁67	-11.7332
▁ариат	-11.7335
▁рен	-11.7343
▁аци	-11.7358
▁Так	-11.7373
▁ойг	-11.7374
▁ТАСС	-11.7378
▁ЕБ	-11.7379
▁дсме	-11.738
▁тыры	-11.7381
▁ови	-11.7385
▁Жар	-11.7385
▁рюс	-11.7392
▁удан	-11.7395
emi	-11.7403
▁зб	-11.7409
окс	-11.7433
▁Уч	-11.7477
▁урпа	-11.7502
оди	-11.7517
▁Зама	-11.7525
▁яга	-11.7533
▁над	-11.7534
ty	-11.7534
▁ьев	-11.7542
▁76	-11.7546
?	-11.7558
▁убара	-11.7599
▁тою	-11.7601
▁мүр	-11.7602
▁51	-11.7605
▁лит	-11.7609
▁ТИМ	-11.7637
ПЧ	-11.7647
▁алян	-11.7664
мчы	-11.7667
▁уль	-11.7668
▁e	-11.7671
N	-11.7678
▁ороон	-11.7688
▁ирек	-11.7704
▁жог	-11.7728
▁шха	-11.7729
▁оста	-11.7732
оло	-11.7741
▁тели	-11.7744
▁оме	-11.7745
▁40%	-11.7746
тта	-11.7758
▁рел	-11.7761
▁лабы	-11.7771
▁эро	-11.7787
▁шын	-11.7792
▁авло	-11.7799
аң	-11.7802
▁илег	-11.7813
▁адаг	-11.7814
▁рома	-11.7851
▁иле	-11.7854
елбе	-11.7856
▁асал	-11.7859
9	-11.7862
▁пикет	-11.7869
иза	-11.7871
Ал	-11.7873
▁көлө	-11.7881
▁аама	-11.7883
▁упер	-11.7884
▁вт	-11.7885
▁ухта	-11.7885
▁авел	-11.7891
▁69	-11.7895
▁20%	-11.7901
▁тозо	-11.7905
ll	-11.7912
▁Ka	-11.7914
▁наш	-11.7929
▁us	-11.7952
▁Tel	-11.7954
▁инге	-11.7955
▁дайы	-11.7956
▁нуэл	-11.7959
▁ышка	-11.7962
▁P	-11.797
▁став	-11.7995
пич	-11.801
▁жем	-11.8018
▁Пара	-11.8038
ряд	-11.8052
олго	-11.8053
▁Бор	-11.8057
▁линг	-11.8057
▁рка	-11.8057
▁алал	-11.8061
▁вгус	-11.8065
▁ссё	-11.8101
▁ЖК	-11.8102
▁эрк	-11.8114
▁5%	-11.8127
▁йылд	-11.814
▁ело	-11.8145
▁умг	-11.8165
▁як	-11.8173
▁Getty	-11.8175
▁LI	-11.8175
▁шраф	-11.8177
▁гали	-11.8181
2%	-11.8186
▁Yo	-11.8233
рды	-11.825
▁умен	-11.8257
▁Kloop	-11.8279
VE	-11.8279
▁есси	-11.8279
▁номе	-11.8283
▁D	-11.8289
17	-11.8311
бир	-11.8323
▁юз	-11.8324
▁N	-11.8333
21	-11.8335
▁сени	-11.8346
▁шпа	-11.8354
▁аска	-11.8369
▁еңе	-11.8374
▁Wh	-11.8384
▁64	-11.8387
▁асфа	-11.8388
▁84	-11.8406
▁рабы	-11.8414
▁Гор	-11.8431
▁амдар	-11.8431
▁рме	-11.8437
▁78	-11.8441
ech	-11.8444
▁янд	-11.8447
▁евер	-11.8448
▁кине	-11.8475
О	-11.8478
аки	-11.8485
▁улы	-11.849
'	-11.8491
▁Сен	-11.8493
▁71	-11.8497
▁акет	-11.8499
▁et	-11.85
▁II	-11.8506
▁олит	-11.8515
▁Pres	-11.8519
КО	-11.8529
▁алкак	-11.8532
▁армо	-11.8543
▁ящ	-11.8548
▁ива	-11.855
▁ибе	-11.8558
▁шир	-11.857
18	-11.8577
▁чөп	-11.8579
цов	-11.8586
▁чка	-11.8588
▁эск	-11.8599
ич	-11.8613
▁шени	-11.8623
7%	-11.863
▁уулд	-11.864
▁урб	-11.8646
▁ирке	-11.8655
бас	-11.8674
▁Ша	-11.8675
▁айку	-11.8683
▁касы	-11.8697
▁лөт	-11.8713
▁рант	-11.8714
▁Пан	-11.872
▁лаур	-11.8734
▁рз	-11.8736
▁Рим	-11.8745
▁укт	-11.8755
26	-11.8765
Ж	-11.8783
▁ураб	-11.8787
▁акса	-11.8801
▁үктөр	-11.8802
шкөн	-11.8806
1%	-11.8816
▁ози	-11.882
▁ырг	-11.8821
▁шиев	-11.8826
▁амза	-11.8827
NN	-11.8827
▁йып	-11.8837
▁тылды	-11.8849
▁риле	-11.8879
▁пан	-11.8894
▁L	-11.8898
▁рү	-11.8904
▁Рас	-11.8911
▁киле	-11.8911
▁нолог	-11.8928
▁күсү	-11.8929
▁вело	-11.8929
▁өлгө	-11.893
32	-11.8932
▁VI	-11.8959
▁очо	-11.8961
46	-11.8988
▁Со	-11.8993
▁ороз	-11.9002
▁амду	-11.9019
ЕФ	-11.9025
C	-11.9025
▁үчү	-11.9029
лов	-11.9032
мос	-11.9036
45	-11.9043
▁95	-11.9052
▁туб	-11.9057
▁үс	-11.9065
▁ырах	-11.9067
8%	-11.9073
овду	-11.9091
хаз	-11.9104
ех	-11.9117
▁вист	-11.9119
▁аксы	-11.9122
▁ed	-11.9131
36	-11.9132
▁ушта	-11.9133
▁Li	-11.9136
-9	-11.9148
▁ӨКМ	-11.9159
тёр	-11.9161
▁t	-11.9173
▁рейс	-11.9181
▁учу	-11.9185
▁шел	-11.9198
▁ези	-11.9223
▁ымын	-11.9223
▁Ри	-11.9223
▁зам	-11.9234
▁ики	-11.9239
▁еба	-11.9262
ист	-11.9265
▁опур	-11.9278
▁ялд	-11.9285
▁орг	-11.9286
▁шпе	-11.9289
▁асул	-11.9324
▁i	-11.9334
ck	-11.9336
▁чай	-11.934
▁чеб	-11.9353
▁ейтер	-11.9354
▁нети	-11.9374
▁үзг	-11.9375
▁ынд	-11.9382
урму	-11.9387
▁емеси	-11.9392
▁нота	-11.9412
13	-11.9418
Д	-11.9423
▁өсү	-11.9432
g	-11.9437
▁Bio	-11.9456
▁Pf	-11.946
▁Ze	-11.9467
▁еат	-11.9478
▁бине	-11.9484
19	-11.9499
▁Үй	-11.9501
▁Пе	-11.9505
▁Ль	-11.9506
▁мато	-11.9508
▁нефт	-11.9511
▁R	-11.9525
▁Хо	-11.9551
▁арид	-11.9578
▁онд	-11.9581
▁эте	-11.9605
▁расс	-11.9609
ДК	-11.9622
▁Рай	-11.9624
▁зер	-11.9634
▁шоо	-11.9643
▁атпа	-11.965
▁зык	-11.9655
▁ялар	-11.9667
▁me	-11.9685
нит	-11.9687
▁чагы	-11.9688
▁манд	-11.9694
▁дады	-11.9706
▁sApp	-11.9742
▁айбыз	-11.9742
▁ниве	-11.9747
-8	-11.9752
▁этти	-11.9755
убли	-11.9769
тес	-11.9769
II	-11.9781
арых	-11.9787
▁атас	-11.9806
▁Ного	-11.9806
▁g	-11.9823
▁гран	-11.9841
▁иңд	-11.9844
▁ному	-11.9856
▁вис	-11.9857
акты	-11.9868
шав	-11.9888
▁74	-11.9891
лер	-11.9894
▁гөй	-11.9899
▁арпа	-11.9902
▁атер	-11.9922
▁ял	-11.9931
ТР	-11.9931
▁Дүй	-11.9949
▁роп	-11.9961
▁ашар	-11.9988
▁гасы	-12.0008
▁емасы	-12.0026
▁зав	-12.0034
▁сүрө	-12.0043
▁ru	-12.0046
▁87	-12.0061
▁ктары	-12.0072
▁утта	-12.008
▁кого	-12.0094
▁M	-12.0116
▁com	-12.0118
35	-12.0124
П	-12.0136
гиле	-12.0139
▁улло	-12.0148
оха	-12.0159
▁рта	-12.017
▁нүкт	-12.0176
▁полк	-12.0187
▁83	-12.0196
16	-12.0199
ЕС	-12.0203
КМ	-12.0211
али	-12.0226
ткен	-12.0228
▁енес	-12.0234
▁үмдө	-12.0247
▁артты	-12.0251
x	-12.0254
▁имму	-12.029
▁рту	-12.0302
63	-12.0307
▁обер	-12.0316
хо	-12.0323
▁66	-12.0334
ник	-12.0335
▁емир	-12.0337
▁усту	-12.034
77	-12.035
▁икс	-12.0358
▁арим	-12.0361
▁фавит	-12.0368
▁врем	-12.0368
▁эпо	-12.0376
▁мите	-12.0402
▁тре	-12.0402
▁штү	-12.0403
▁8,	-12.0404
11	-12.0404
▁U	-12.0407
▁келб	-12.0411
НК	-12.0417
31	-12.0431
▁сфан	-12.0437
▁ѳ	-12.0442
▁мурд	-12.0451
лист	-12.0464
▁Кас	-12.0472
06	-12.0485
▁нци	-12.0487
жер	-12.0489
▁шиши	-12.0513
яз	-12.054
▁мора	-12.0542
▁Ха	-12.0547
▁шим	-12.0548
▁веб	-12.0563
▁яч	-12.057
kt	-12.057
пед	-12.057
Б	-12.0573
теп	-12.0589
▁кпа	-12.0595
▁Ста	-12.0599
▁араг	-12.0612
▁De	-12.0614
86	-12.0621
▁86	-12.0621
▁ухар	-12.0625
▁лман	-12.0627
▁Next	-12.0629
▁ырба	-12.0634
▁ство	-12.0634
Ө	-12.0638
74	-12.0658
▁юп	-12.0678
▁лку	-12.069
▁налы	-12.0692
▁шөт	-12.07
▁Пас	-12.0713
▁вра	-12.0713
▁пуля	-12.0714
көр	-12.0736
▁өргө	-12.0745
▁5-	-12.0745
9%	-12.0747
▁79	-12.0751
▁соо	-12.0756
▁ызда	-12.0767
▁көрг	-12.0781
▁Astr	-12.0787
▁КР	-12.0791
▁рсла	-12.0814
лары	-12.082
▁арыб	-12.084
▁шине	-12.0843
la	-12.0849
▁z	-12.0852
▁хак	-12.0861
▁тууд	-12.0865
▁ули	-12.0882
ИИБ	-12.0884
07	-12.0884
▁циви	-12.0899
▁li	-12.09
өлү	-12.0912
▁ТВ	-12.0925
ri	-12.0934
▁етме	-12.0951
▁чук	-12.0953
▁Goo	-12.0971
▁Sp	-12.098
▁раг	-12.1
▁сист	-12.1
▁дже	-12.1007
▁өрг	-12.1019
▁үздү	-12.1034
мара	-12.1035
▁лтүр	-12.1036
▁рав	-12.104
▁Кап	-12.1042
ана	-12.1049
▁тизм	-12.105
▁икит	-12.1058
▁вед	-12.1067
бар	-12.1069
▁рест	-12.108
▁шоу	-12.1085
мент	-12.1086
▁Кең	-12.1093
▁o	-12.1094
81	-12.1099
▁ептер	-12.1108
мо	-12.1112
▁айя	-12.1137
▁авт	-12.1138
▁өнд	-12.114
▁илл	-12.1141
үлк	-12.1149
вах	-12.1163
▁туз	-12.1163
▁Ло	-12.1165
▁уро	-12.1166
95	-12.1171
▁gle	-12.1173
▁чоро	-12.1176
▁зоок	-12.1179
▁лдү	-12.1185
▁осто	-12.1197
▁шаки	-12.1197
▁тоодо	-12.1211
ИД	-12.1216
▁олс	-12.1222
▁имм	-12.1246
85	-12.1247
▁ная	-12.1292
83	-12.1299
▁E	-12.13
▁луш	-12.1307
92	-12.1315
▁рсе	-12.1321
▁nik	-12.1325
42	-12.1353
▁шыр	-12.1375
▁анга	-12.1379
▁тог	-12.1391
ент	-12.1397
23	-12.1402
61	-12.142
со	-12.1427
67	-12.1431
▁ырым	-12.1438
▁81	-12.1451
ГАТ	-12.1457
▁dia	-12.1457
▁исси	-12.146
ФА	-12.1462
тин	-12.1482
▁шире	-12.1488
▁cia	-12.152
▁йлар	-12.1527
▁улин	-12.1531
▁ирик	-12.1565
▁табыз	-12.1569
▁орос	-12.1588
▁Бел	-12.1593
▁елоси	-12.1606
▁w	-12.1623
▁неги	-12.1623
▁тиви	-12.1634
29	-12.1638
▁Том	-12.1639
▁мдер	-12.1645
▁йү	-12.1646
▁алик	-12.1649
▁үзүү	-12.1659
▁паке	-12.1662
▁Пол	-12.1684
44	-12.171
S	-12.1711
▁Cen	-12.1727
▁Ass	-12.1749
▁Blo	-12.1749
CCR	-12.175
l	-12.1757
▁енне	-12.1759
▁82	-12.1772
c	-12.178
оору	-12.1789
▁афа	-12.1795
анды	-12.1797
▁Фил	-12.1808
▁роман	-12.181
▁шыка	-12.1817
▁Cha	-12.1834
▁ази	-12.186
▁нку	-12.1877
▁ийке	-12.1891
▁Тал	-12.1892
▁Post	-12.1898
▁пило	-12.1922
▁ИД	-12.1927
▁нейт	-12.1931
▁өшү	-12.1933
▁or	-12.1941
▁ско	-12.195
▁гри	-12.1971
▁вро	-12.1971
:0	-12.1978
В	-12.1988
▁Ула	-12.1989
ритм	-12.2004
▁алак	-12.2005
▁Inst	-12.2024
▁дерг	-12.2028
▁дзю	-12.205
эч	-12.2053
▁ежи	-12.2054
▁9,	-12.2082
▁руш	-12.2094
▁зду	-12.2105
ахма	-12.2132
04	-12.2134
▁атай	-12.2148
68	-12.2158
▁емен	-12.2168
m	-12.2169
▁Шад	-12.2177
▁Пре	-12.2184
▁Гу	-12.2192
▁Media	-12.2204
▁мина	-12.2208
▁илд	-12.2233
▁елев	-12.2237
▁капа	-12.2239
▁лка	-12.224
▁нег	-12.2257
ете	-12.2259
▁мира	-12.2281
ая	-12.2284
▁ымы	-12.2286
IMA	-12.23
тон	-12.2311
че	-12.2313
:1	-12.2335
инг	-12.2347
типе	-12.2349
▁яба	-12.2351
▁ху	-12.2356
лик	-12.2356
39	-12.2359
▁чоку	-12.2359
▁увейт	-12.236
АЭ	-12.2363
▁мино	-12.2378
▁уси	-12.2379
рет	-12.2381
▁При	-12.2387
43	-12.2401
;	-12.2417
кти	-12.2424
▁еру	-12.2433
ири	-12.2443
▁атто	-12.2446
▁ури	-12.2447
38	-12.2449
▁98	-12.2457
▁Фр	-12.2461
верс	-12.2468
Н	-12.2472
48	-12.249
▁екаб	-12.2504
▁Тали	-12.251
▁аалим	-12.2519
▁оос	-12.2534
екс	-12.2541
56	-12.2556
▁Шү	-12.2565
▁рден	-12.2566
▁леге	-12.2568
▁басы	-12.2574
▁шаа	-12.2579
рхан	-12.2585
▁илүү	-12.2587
▁орке	-12.2591
▁налд	-12.2601
09	-12.2616
▁кары	-12.2646
▁быш	-12.2661
41	-12.2666
▁монт	-12.267
ИЗО	-12.268
▁омас	-12.2686
▁йдан	-12.2687
▁үнгө	-12.269
▁оңд	-12.2692
▁обу	-12.2692
▁прав	-12.2697
▁ырак	-12.2726
аке	-12.2727
▁куну	-12.2742
▁сант	-12.2754
▁пред	-12.2758
▁Пир	-12.2762
▁Jo	-12.2767
▁лдөр	-12.2775
▁елес	-12.2781
▁Str	-12.2783
ель	-12.2784
▁зад	-12.2796
▁раса	-12.2819
▁шор	-12.2841
▁ur	-12.2844
▁mber	-12.2844
▁КГБ	-12.2844
▁*	-12.2844
▁дюсер	-12.2844
▁Tra	-12.2844
▁ЖЧК	-12.2845
▁na	-12.2855
▁уэл	-12.2869
▁Заха	-12.2871
▁ахим	-12.2878
72	-12.2879
▁Кад	-12.2887
▁айби	-12.29
▁дасы	-12.2907
▁умд	-12.2913
шак	-12.2914
▁лба	-12.2914
▁гру	-12.2917
▁усун	-12.2917
ok	-12.2924
ch	-12.2926
▁97	-12.2931
08	-12.2943
▁үшүн	-12.297
▁жазг	-12.299
▁k	-12.2994
▁нтон	-12.2997
▁93	-12.3
▁РИА	-12.3015
мме	-12.3017
▁ыяс	-12.3041
▁йра	-12.3066
▁анбе	-12.3067
▁утб	-12.3077
бер	-12.3081
51	-12.3101
▁раж	-12.3102
28	-12.3113
тко	-12.3126
▁rnal	-12.3135
▁шыб	-12.3147
▁орош	-12.3151
98	-12.3156
▁суну	-12.3157
ly	-12.3175
ik	-12.3177
#	-12.318
▁GMT	-12.318
▁KG	-12.3181
тиги	-12.3195
▁ЖО	-12.3199
87	-12.3202
рут	-12.3217
жа	-12.3218
ттер	-12.3225
▁нфо	-12.3229
▁чий	-12.3237
▁юнд	-12.327
▁Ma	-12.3278
Ф	-12.3297
▁сса	-12.3321
илов	-12.3324
▁рсал	-12.3328
▁обя	-12.3342
▁афи	-12.3357
▁ралы	-12.338
78	-12.3382
▁ызг	-12.3389
▁шве	-12.3397
▁Ич	-12.34
71	-12.3406
88	-12.3411
эр	-12.3411
уз	-12.3424
▁230	-12.3428
lo	-12.3447
w	-12.347
▁имо	-12.3477
▁неге	-12.3482
арба	-12.349
▁аппа	-12.3508
▁дору	-12.3509
58	-12.3509
▁аңги	-12.3511
▁абс	-12.3513
▁тиц	-12.3521
▁ЛГБТ	-12.3528
▁КЭД	-12.353
▁Эль	-12.355
▁88	-12.356
▁d	-12.3562
▁h	-12.3588
▁СУ	-12.3593
▁Кип	-12.36
▁лг	-12.3614
ю	-12.3625
▁риз	-12.3626
▁ниг	-12.3647
99	-12.366
▁ктү	-12.3665
▁шага	-12.3677
le	-12.3677
▁орло	-12.3678
▁алб	-12.3685
лин	-12.3687
▁сери	-12.3692
shi	-12.3693
▁ёв	-12.3719
▁Fre	-12.3723
▁Гла	-12.373
▁7%	-12.3753
▁шамы	-12.3763
IV	-12.3765
65	-12.3781
▁алта	-12.3806
▁улум	-12.3808
▁ише	-12.3818
▁акк	-12.3824
▁етон	-12.3855
03	-12.3856
▁ых	-12.3884
▁ечү	-12.3885
57	-12.389
▁Бах	-12.3895
▁Grou	-12.3901
▁зоо	-12.3904
D	-12.3908
▁нси	-12.3909
▁нбе	-12.3926
f	-12.3936
▁ирзо	-12.3945
▁Pa	-12.3958
су	-12.3979
22	-12.3984
▁ягы	-12.3988
▁елит	-12.3989
G	-12.4009
▁рян	-12.4021
▁иб	-12.4021
▁емб	-12.4029
▁CO	-12.4033
▁под	-12.4035
▁лика	-12.4041
▁юм	-12.4041
▁Ын	-12.4044
▁Le	-12.4046
▁йды	-12.4049
79	-12.4061
▁зып	-12.4067
▁бейп	-12.407
йпа	-12.4076
▁1/	-12.4078
жан	-12.4079
▁ница	-12.4088
▁ксен	-12.4092
КС	-12.4097
▁оол	-12.4109
▁Шым	-12.4134
▁рец	-12.4142
▁вита	-12.4154
▁Түл	-12.4161
чка	-12.4184
▁емп	-12.4187
▁амды	-12.4187
йку	-12.4196
ОН	-12.4205
▁ясын	-12.423
▁оми	-12.4239
▁агыла	-12.424
69	-12.4246
-2	-12.4248
▁при	-12.4259
▁ахре	-12.4268
▁Кри	-12.4273
▁ооло	-12.4299
▁ядр	-12.4319
IX	-12.4321
▁ксф	-12.4325
үшү	-12.4328
▁рахм	-12.4361
▁Чо	-12.4366
▁Мэ	-12.4376
▁етео	-12.4381
▁орни	-12.4382
▁Ири	-12.4384
▁VII	-12.4403
▁рац	-12.4416
h	-12.4419
▁аалд	-12.4439
▁Ху	-12.444
!	-12.4441
▁амши	-12.4459
▁өшкө	-12.4466
▁лыжа	-12.447
▁ойку	-12.4473
▁Ред	-12.4484
▁Зил	-12.449
пост	-12.4491
▁ирээ	-12.4492
▁себ	-12.45
02	-12.4501
▁So	-12.4515
▁ексе	-12.4529
▁есин	-12.4534
93	-12.4535
эн	-12.455
▁ерна	-12.4555
▁ргү	-12.4556
▁амин	-12.4559
▁утт	-12.4608
▁визи	-12.4614
ИА	-12.4621
az	-12.4626
▁uz	-12.465
▁ЭТТ	-12.4651
ула	-12.4656
▁Sino	-12.4663
▁Боо	-12.4665
▁пами	-12.4666
▁ыгыны	-12.4676
▁AX	-12.4683
▁алих	-12.4686
▁өрдү	-12.4686
-7	-12.4709
▁крам	-12.4716
екч	-12.4719
▁яй	-12.4724
▁атма	-12.4732
52	-12.4742
ov	-12.4744
▁вад	-12.475
ушту	-12.4753
рлер	-12.4764
▁Дү	-12.4766
▁елб	-12.4768
▁чик	-12.4774
зиз	-12.4775
▁йде	-12.478
▁алаба	-12.4782
▁line	-12.4782
▁синд	-12.4792
▁Ян	-12.4803
▁Эрк	-12.4816
▁ешт	-12.4818
▁дизе	-12.482
▁Лев	-12.4833
▁миз	-12.4841
▁олк	-12.4852
▁Гроз	-12.4855
▁елуж	-12.4859
▁ъе	-12.4865
▁Шот	-12.4892
▁чок	-12.4901
▁92	-12.4908
▁айдо	-12.4916
▁раун	-12.493
64	-12.496
▁иман	-12.4988
▁паг	-12.4995
СУ	-12.5008
▁рти	-12.5013
▁шап	-12.5015
▁сло	-12.5037
▁еште	-12.5043
▁tter	-12.5054
ӨБ	-12.5055
▁USA	-12.5055
ce	-12.5063
▁Тө	-12.5067
▁епки	-12.5075
▁ийри	-12.5075
▁има	-12.5081
▁чийи	-12.5141
▁ze	-12.5171
24	-12.5174
nd	-12.5189
▁ыян	-12.5196
▁мум	-12.5203
▁тозок	-12.5208
▁2%	-12.5222
b	-12.524
ход	-12.5241
▁екч	-12.5253
▁афар	-12.526
ых	-12.5262
▁Hous	-12.5263
▁news	-12.5263
▁OV	-12.5264
▁net	-12.5265
▁яг	-12.5267
▁уржу	-12.5269
▁ШИИБ	-12.527
БК	-12.5274
ЭК	-12.5279
ес	-12.5281
уза	-12.5282
▁ксп	-12.5283
49	-12.5288
sh	-12.5292
Ош	-12.5299
▁нем	-12.53
▁lin	-12.5303
▁абор	-12.5322
▁алады	-12.533
езги	-12.5339
▁сая	-12.534
пел	-12.5342
▁апыр	-12.5347
▁ижан	-12.535
▁квор	-12.5364
▁Gu	-12.5365
▁Кум	-12.5366
▁аяр	-12.5385
▁ызд	-12.5394
▁илле	-12.5437
▁Eur	-12.546
эң	-12.5464
▁осте	-12.547
▁MAT	-12.5475
жах	-12.5476
▁ard	-12.5484
▁cial	-12.5486
▁амаз	-12.5487
▁To	-12.5491
▁инве	-12.5494
▁чабуу	-12.5501
▁ыза	-12.551
▁ану	-12.5516
ани	-12.5518
▁арья	-12.5532
иши	-12.5535
▁91	-12.5558
ТРК	-12.5562
▁анна	-12.5566
▁еӊ	-12.558
▁La	-12.5581
▁рб	-12.5618
▁чех	-12.5631
▁опе	-12.5641
73	-12.5641
үнү	-12.5643
▁тах	-12.5646
94	-12.5652
▁лий	-12.5653
▁ерце	-12.5662
▁туар	-12.5672
J	-12.5678
▁етод	-12.5679
▁лапт	-12.5688
▁World	-12.5693
▁нышты	-12.5696
▁dom	-12.5699
▁ржан	-12.5724
▁ауле	-12.5733
▁аяны	-12.5734
▁УУ	-12.5735
89	-12.5739
▁уло	-12.574
▁кран	-12.5741
▁Гри	-12.5756
▁4%	-12.5761
▁чтек	-12.5773
▁енев	-12.5789
▁енер	-12.5833
▁адри	-12.5857
үр	-12.587
▁икар	-12.5872
▁епке	-12.5872
▁мпо	-12.5875
▁огот	-12.588
76	-12.5883
55	-12.5886
ори	-12.5887
▁рок	-12.5889
▁Гар	-12.589
▁RK	-12.5915
РТ	-12.5933
▁СП	-12.5946
▁емел	-12.5962
▁анте	-12.5969
▁ибир	-12.5971
▁амда	-12.5972
84	-12.5997
ive	-12.6003
▁утат	-12.6003
▁ерно	-12.6015
▁арпы	-12.6018
▁Гарр	-12.6019
▁онна	-12.6024
▁of	-12.6026
▁нора	-12.6046
▁едро	-12.6047
▁омик	-12.605
▁арзы	-12.6055
▁ойро	-12.6058
жи	-12.6065
▁арса	-12.6068
▁ni	-12.6069
▁АК	-12.6071
▁хун	-12.6078
▁1%	-12.6083
▁зуу	-12.6095
▁ерез	-12.611
▁алпа	-12.6121
82	-12.6137
▁ейте	-12.6138
▁еля	-12.6147
▁чоӊ	-12.6154
▁йжан	-12.6162
▁ыркы	-12.6171
▁аӊы	-12.6186
▁Голо	-12.6188
▁аут	-12.6191
▁ar	-12.6192
▁нид	-12.6208
▁te	-12.622
▁ирен	-12.6227
li	-12.623
▁рави	-12.6234
▁рум	-12.6235
▁Ro	-12.624
▁Te	-12.6292
▁ткө	-12.6293
▁рөө	-12.6297
▁чач	-12.6308
▁ариб	-12.6328
▁Ba	-12.6339
▁ФИ	-12.6345
▁орда	-12.635
▁стер	-12.6366
ЦР	-12.6373
97	-12.6393
▁ирза	-12.6399
▁лица	-12.6413
▁отив	-12.6438
▁ейда	-12.6442
нев	-12.6452
▁неме	-12.6456
▁авай	-12.6457
▁Ch	-12.6464
эль	-12.647
▁ольк	-12.6485
▁ыйра	-12.6493
▁руд	-12.6496
▁кабы	-12.6499
льз	-12.6538
▁апчы	-12.6552
▁ими	-12.6574
34	-12.6594
▁ирг	-12.6603
BC	-12.6623
▁ЖАК	-12.6624
▁усей	-12.6627
62	-12.6634
▁кци	-12.6639
▁89	-12.6643
▁XX	-12.6644
үй	-12.6648
▁вести	-12.6657
▁трац	-12.6661
▁окм	-12.6664
▁уэ	-12.6668
53	-12.6671
▁чаң	-12.6674
▁Люк	-12.6678
▁Сток	-12.6685
▁96	-12.6688
op	-12.6698
▁Там	-12.6713
AR	-12.6727
чек	-12.6728
▁фен	-12.6749
▁пло	-12.6754
М	-12.6754
▁ыяз	-12.6781
урпа	-12.6796
▁вест	-12.6815
▁Опу	-12.682
▁баз	-12.6826
▁ti	-12.6826
▁есте	-12.6836
▁рух	-12.6839
риг	-12.6846
ейх	-12.6853
▁Asia	-12.6857
ЕК	-12.6857
▁ырда	-12.6858
▁ессе	-12.6884
▁тиби	-12.6895
▁рю	-12.6912
66	-12.6919
▁шыпы	-12.6925
▁риф	-12.6942
▁суф	-12.6956
улло	-12.6974
▁йду	-12.701
▁ссан	-12.7012
ki	-12.7012
▁АС	-12.7017
▁жей	-12.7027
▁юнч	-12.703
▁рига	-12.7032
▁ытт	-12.7044
▁етх	-12.7045
▁раба	-12.7089
СО	-12.7094
пот	-12.7101
▁ува	-12.711
▁XXI	-12.7112
▁венг	-12.7112
▁бид	-12.7113
▁лесн	-12.7113
▁ow	-12.7113
91	-12.7115
▁авля	-12.7117
▁лбей	-12.7123
54	-12.7126
▁ахра	-12.7138
▁ечер	-12.7146
▁omi	-12.7148
▁Шер	-12.715
▁тпе	-12.7161
щ	-12.7163
▁лсу	-12.7169
▁ваз	-12.7179
▁Tw	-12.7193
cial	-12.7203
▁ейс	-12.7222
юк	-12.7246
ожо	-12.7331
ww	-12.7363
▁ФЕТ	-12.7363
▁ийч	-12.7373
▁омб	-12.7383
▁Нэ	-12.7383
▁$	-12.7387
▁ссо	-12.7397
▁Люд	-12.7402
▁шам	-12.7408
▁РИ	-12.741
▁Шев	-12.7411
▁нью	-12.743
▁155	-12.7434
▁нор	-12.7445
▁Цо	-12.7454
АП	-12.7466
▁амар	-12.7474
▁лдө	-12.7488
лах	-12.7488
сын	-12.749
▁Нова	-12.7496
▁Mo	-12.7497
▁нүк	-12.7514
▁арис	-12.7525
▁азга	-12.7534
▁үрг	-12.7564
рид	-12.7575
▁аӊ	-12.7579
▁sia	-12.7581
▁ҮРК	-12.7627
▁org	-12.7627
▁НАС	-12.7627
▁пьес	-12.763
▁nt	-12.7641
шыр	-12.7642
▁Чын	-12.765
▁поль	-12.7658
уусу	-12.7694
▁рку	-12.7696
▁6%	-12.7702
СК	-12.7732
▁олч	-12.7745
▁оӊ	-12.776
▁саг	-12.7765
▁ажар	-12.7767
▁асте	-12.7776
жаб	-12.778
▁рно	-12.7792
▁Фе	-12.7828
ссе	-12.7849
▁Уил	-12.7849
▁Ато	-12.7854
▁иним	-12.7882
▁lli	-12.7898
▁ХХ	-12.79
▁For	-12.7912
59	-12.7915
▁Люб	-12.7925
▁ташты	-12.7927
▁гнос	-12.7931
▁Лаг	-12.7934
▁ной	-12.7944
▁Шри	-12.7949
▁94	-12.7958
▁Таң	-12.7969
▁екин	-12.7975
рис	-12.798
▁ям	-12.7987
▁афта	-12.7998
▁che	-12.8001
▁Ве	-12.8011
mi	-12.8013
▁Ё	-12.8016
▁шаң	-12.8017
▁нюс	-12.8017
во	-12.8023
▁ахт	-12.8033
▁аус	-12.8039
▁умшу	-12.8039
▁көзд	-12.8047
ьев	-12.8048
▁врор	-12.8071
▁олис	-12.8101
ina	-12.8109
▁Чж	-12.8126
▁Fin	-12.8127
:3	-12.8145
M	-12.8156
▁жид	-12.8172
▁Glo	-12.8175
▁Прот	-12.8175
▁bal	-12.8176
▁App	-12.8176
▁ress	-12.8176
▁нтген	-12.8178
▁el	-12.8183
▁...	-12.8185
▁SW	-12.8187
▁плюс	-12.8201
▁уард	-12.8201
▁нтти	-12.8209
▁in	-12.8213
укс	-12.825
▁өмү	-12.8251
▁кырд	-12.8251
▁риан	-12.8252
▁Пам	-12.8254
▁ыйк	-12.8259
▁Star	-12.8278
▁орку	-12.8285
▁икро	-12.829
▁Ник	-12.8297
▁Ra	-12.8302
▁аге	-12.8311
лиф	-12.8311
▁ot	-12.832
▁99	-12.8327
▁шагы	-12.8338
▁ИВ	-12.8347
▁лб	-12.8348
al	-12.8374
▁йке	-12.8388
хак	-12.8394
▁атри	-12.8404
▁нази	-12.8413
▁ыңы	-12.844
▁тууда	-12.8447
бол	-12.845
ңкы	-12.845
:2	-12.8452
▁Таж	-12.8455
▁рсен	-12.8458
тто	-12.8459
FT	-12.846
▁Pro	-12.846
▁хост	-12.8464
pen	-12.8471
үк	-12.8477
MS	-12.848
▁ейпи	-12.8489
▁айж	-12.8502
▁Ги	-12.8504
▁виде	-12.8505
▁робот	-12.8505
рон	-12.8511
▁роб	-12.8511
▁үргө	-12.8535
▁септ	-12.8549
▁XVII	-12.8554
▁ивер	-12.8557
▁раве	-12.8568
▁оси	-12.8576
▁шым	-12.8582
▁йге	-12.8582
луж	-12.8596
▁такт	-12.8599
▁ma	-12.8616
вье	-12.8658
люс	-12.8661
▁пед	-12.8684
▁Ою	-12.8696
таб	-12.8704
▁мпе	-12.8712
мен	-12.8727
▁итт	-12.8738
▁Рев	-12.8743
▁ное	-12.8745
&	-12.8754
▁Eco	-12.8754
▁Пост	-12.8755
▁ИДП	-12.8757
▁harm	-12.8759
▁екист	-12.876
▁уф	-12.8763
▁Чав	-12.8763
▁рлиги	-12.8765
▁ral	-12.8779
▁Pol	-12.8781
▁Da	-12.8785
▁бли	-12.8796
▁ольф	-12.8799
▁RT	-12.88
▁ver	-12.8802
▁134	-12.8803
ески	-12.8816
RI	-12.8818
TA	-12.882
▁личк	-12.8826
▁риго	-12.8826
▁ито	-12.8827
▁Коо	-12.8835
декс	-12.8842
▁Bell	-12.8846
▁Dai	-12.8847
▁шайы	-12.8858
▁ноя	-12.8864
▁W	-12.8871
▁re	-12.8884
▁тоод	-12.8903
▁езни	-12.8905
▁Сом	-12.8914
лав	-12.8918
▁чыла	-12.8928
▁териш	-12.8928
▁рзы	-12.8954
▁RE	-12.896
рыг	-12.8968
тери	-12.8972
иса	-12.8985
▁спо	-12.8989
▁Bo	-12.899
эй	-12.8996
▁Ca	-12.9002
▁AI	-12.901
их	-12.9034
▁ba	-12.9043
▁арки	-12.9045
ери	-12.9059
▁sch	-12.9064
▁оод	-12.9066
▁пкини	-12.9067
▁рэп	-12.9074
▁юмда	-12.908
▁чене	-12.9084
▁ss	-12.9085
▁y	-12.9097
▁154	-12.9107
▁едор	-12.9125
ro	-12.9133
▁no	-12.9139
▁енеш	-12.9151
▁ылчы	-12.9152
ge	-12.9177
▁чин	-12.9218
ух	-12.9219
▁аким	-12.9222
▁Фу	-12.9261
▁олов	-12.9264
рав	-12.9267
КП	-12.927
ве	-12.9329
▁Do	-12.9347
жал	-12.935
▁Q	-12.936
▁CP	-12.9372
БР	-12.9372
▁епт	-12.9376
РУ	-12.9377
▁stan	-12.9395
▁ОВ	-12.9399
▁ne	-12.9417
▁улпа	-12.9424
▁арви	-12.943
▁үрүш	-12.9445
▁8%	-12.9452
▁улка	-12.9453
▁уря	-12.9456
ив	-12.9456
▁Di	-12.9457
▁Ta	-12.946
тро	-12.946
▁Al	-12.9462
▁хор	-12.9463
▁Ru	-12.9468
пыс	-12.9472
old	-12.9498
▁Шиф	-12.9499
▁аяш	-12.9505
▁Шор	-12.9506
▁гипе	-12.9511
▁шаг	-12.9529
▁гори	-12.9534
▁Ев	-12.9545
▁кава	-12.9549
▁рене	-12.9582
ёв	-12.9585
▁леу	-12.9589
▁йдо	-12.9595
▁инне	-12.9621
▁Пай	-12.9622
ял	-12.9628
▁Гол	-12.963
MA	-12.964
▁nd	-12.9654
▁gen	-12.9659
▁цин	-12.9661
fe	-12.9677
▁ырам	-12.9681
Эң	-12.9681
▁ахс	-12.9692
уф	-12.9693
▁Тыва	-12.9693
▁тышты	-12.9694
▁2"	-12.9697
АЗ	-12.9698
▁Пла	-12.9706
▁есна	-12.9708
▁Euro	-12.9717
КК	-12.9729
оль	-12.9752
▁164	-12.9754
▁di	-12.9756
вен	-12.9772
▁вай	-12.9774
▁nge	-12.9787
▁чүл	-12.9795
▁лыб	-12.98
▁гарм	-12.9813
▁сфа	-12.9816
▁КП	-12.9848
▁бую	-12.985
▁күб	-12.9854
33	-12.9864
▁хаб	-12.9872
жар	-12.9875
еф	-12.9886
pa	-12.9888
▁nsp	-12.9895
▁дека	-12.9903
▁рле	-12.9906
▁v	-12.9924
▁ro	-12.9944
▁йлө	-12.9958
улу	-12.9962
▁авид	-12.9982
▁ахта	-12.9986
ябр	-13.0002
▁ссе	-13.0002
Х	-13.001
▁rgy	-13.0032
▁анки	-13.0037
▁зелт	-13.0038
▁ht	-13.0042
▁Мила	-13.0043
ухг	-13.0046
2,	-13.0047
▁рущ	-13.0047
▁елли	-13.006
▁Лиз	-13.0069
▁льва	-13.0071
▁176	-13.0085
▁үчтө	-13.0085
ест	-13.0089
▁Mode	-13.0089
▁124	-13.009
үрү	-13.0091
хат	-13.01
▁138	-13.0107
▁унни	-13.0109
▁Min	-13.0113
▁сф	-13.0121
ir	-13.0121
▁de	-13.0122
▁Mon	-13.0123
▁Spa	-13.0124
▁ny	-13.013
▁Wi	-13.013
▁цев	-13.0139
▁нст	-13.0139
▁лео	-13.0166
иӊ	-13.0174
▁эзи	-13.0202
▁опт	-13.022
▁ууч	-13.0228
▁атц	-13.0229
▁рпа	-13.0243
фу	-13.0244
▁ңда	-13.025
▁ооро	-13.0253
▁окс	-13.026
▁репе	-13.0277
W	-13.0278
▁renc	-13.0281
▁Моск	-13.0284
▁ңу	-13.0285
▁акма	-13.0287
▁Gol	-13.0287
Z	-13.0295
96	-13.03
▁хал	-13.032
▁Ja	-13.0335
КБ	-13.034
▁ment	-13.0372
лей	-13.0372
tp	-13.0374
▁хра	-13.0375
ья	-13.0379
▁рсон	-13.0386
▁анжы	-13.0399
▁Net	-13.0404
▁олто	-13.0408
▁Be	-13.041
▁гэ	-13.0414
ma	-13.0416
▁Пен	-13.0421
▁чус	-13.0431
ya	-13.0457
▁абур	-13.046
▁асра	-13.0462
▁165	-13.0464
▁рафи	-13.0469
▁mat	-13.047
▁брид	-13.0475
▁чакт	-13.0482
ини	-13.0485
нест	-13.049
чыл	-13.0496
▁шаке	-13.0502
▁арик	-13.0509
▁очи	-13.0511
▁рби	-13.0514
▁трав	-13.0537
▁ерап	-13.0554
етти	-13.0585
ёр	-13.0596
лсо	-13.0597
▁ерсе	-13.0614
in	-13.0618
▁унг	-13.063
▁AP	-13.064
▁куул	-13.0663
ябрь	-13.0682
лтав	-13.069
ха	-13.07
▁итко	-13.0708
учи	-13.0714
▁аңта	-13.0719
▁пант	-13.0732
▁смет	-13.0738
▁Цин	-13.0743
▁плен	-13.0743
▁цирк	-13.0749
▁to	-13.0754
КВ	-13.0754
▁She	-13.0762
▁le	-13.0764
▁Ше	-13.0768
▁Stor	-13.0768
▁рой	-13.077
▁шарап	-13.0787
▁наама	-13.0789
▁скв	-13.0793
▁Meta	-13.0816
▁J	-13.084
▁амыр	-13.0844
▁18%	-13.0848
Е	-13.0853
АИ	-13.0854
МС	-13.0874
▁шур	-13.0886
▁убо	-13.0902
▁sa	-13.0914
▁реж	-13.0925
de	-13.0928
▁унук	-13.0929
▁енц	-13.0932
▁чөй	-13.0933
▁аржа	-13.096
дор	-13.0964
▁Рак	-13.098
осто	-13.0986
▁тышы	-13.0988
▁ссет	-13.099
▁ылг	-13.1005
бой	-13.1014
▁ылый	-13.1029
▁йша	-13.1029
▁вок	-13.103
▁Гал	-13.1046
▁Виз	-13.1048
ga	-13.1065
▁ырк	-13.1075
▁Тек	-13.1097
▁етти	-13.1097
▁эние	-13.1103
▁so	-13.1138
ью	-13.1143
▁101	-13.1145
▁пля	-13.1147
▁илаш	-13.1151
▁вайд	-13.1165
▁шик	-13.1165
Т	-13.1188
▁иске	-13.1196
▁акеш	-13.1201
me	-13.1203
▁иля	-13.1214
▁Рич	-13.1223
▁айме	-13.1239
▁аңка	-13.1241
▁бого	-13.1251
ЕА	-13.1255
▁астр	-13.1262
▁замб	-13.1267
▁ваха	-13.1272
бе	-13.1284
F	-13.1298
▁отте	-13.1304
▁Оң	-13.1326
▁етри	-13.1339
ийме	-13.1349
ели	-13.1356
▁Гам	-13.1358
отч	-13.1383
▁Ээ	-13.1393
▁Mi	-13.1419
ави	-13.1421
зак	-13.1423
▁пута	-13.1443
ИК	-13.1456
ТВ	-13.147
▁Цзян	-13.1483
▁ирмем	-13.1483
▁EPA	-13.1485
рам	-13.1488
▁квад	-13.1493
▁зио	-13.1493
▁ляск	-13.1497
▁Uni	-13.1505
▁елпи	-13.1507
▁урша	-13.1523
▁ельф	-13.1527
▁пере	-13.1539
ная	-13.1541
▁Sun	-13.1544
▁Зоо	-13.1551
ek	-13.1554
▁ЕР	-13.1562
▁аксу	-13.1563
▁tu	-13.1564
▁ренс	-13.1564
▁елле	-13.1564
▁ахир	-13.1567
▁Ex	-13.1577
cie	-13.1578
▁Sha	-13.1583
▁рыг	-13.1597
▁Түр	-13.1626
▁Лю	-13.1638
▁рылд	-13.1656
mo	-13.1657
▁Wat	-13.1657
▁ухра	-13.1658
▁лед	-13.1678
▁орм	-13.1684
▁Ins	-13.1684
▁Хам	-13.1707
▁йж	-13.1718
▁вр	-13.1732
иль	-13.174
▁рукт	-13.1741
▁Шамш	-13.1759
иф	-13.1783
▁аңгы	-13.1807
▁Лай	-13.1814
▁men	-13.1838
Ү	-13.1839
АГ	-13.1851
▁йса	-13.1857
▁шыба	-13.1864
ство	-13.187
авло	-13.187
▁стал	-13.1872
стер	-13.1881
▁Sky	-13.1883
▁Pri	-13.1883
▁der	-13.1887
ама	-13.189
▁штеп	-13.1892
▁Nat	-13.1894
▁юнх	-13.1896
▁онте	-13.1897
▁IAL	-13.1904
▁урму	-13.1908
жы	-13.191
хва	-13.1915
мер	-13.1942
▁зинг	-13.1949
▁слан	-13.195
▁Ky	-13.1952
▁ейро	-13.1984
▁fac	-13.1986
▁шах	-13.1991
ТА	-13.1991
▁еңг	-13.2007
▁ke	-13.2011
▁Ga	-13.2012
▁рако	-13.2013
X	-13.2024
▁куль	-13.2027
▁алем	-13.2029
▁алаф	-13.2031
▁оля	-13.2032
▁ельс	-13.205
▁ta	-13.2052
вин	-13.2059
▁20,	-13.2065
▁удур	-13.2071
рих	-13.2078
om	-13.2087
▁йдана	-13.2098
▁лове	-13.2125
▁рбо	-13.2133
tri	-13.2137
▁ешк	-13.2145
▁атру	-13.2148
▁tic	-13.2153
▁XVI	-13.2163
▁адд	-13.2179
▁nda	-13.2194
▁va	-13.2194
▁елиз	-13.2201
▁кулд	-13.2224
▁усан	-13.2232
▁ашир	-13.2244
▁нөкт	-13.2266
01	-13.2269
▁Com	-13.2278
▁шак	-13.2281
▁гөч	-13.2291
▁ay	-13.2301
▁эвэн	-13.2305
▁архад	-13.231
нес	-13.2318
стра	-13.2327
▁Se	-13.234
▁ыйпы	-13.2341
▁мото	-13.236
▁амша	-13.2363
роз	-13.2371
▁162	-13.2372
▁ght	-13.2376
угу	-13.238
▁пик	-13.2389
фор	-13.239
▁Ana	-13.2391
▁si	-13.2391
▁риво	-13.2409
Ар	-13.2415
▁IS	-13.2416
▁an	-13.242
▁Поло	-13.2422
рах	-13.2423
▁ёр	-13.2426
▁рмен	-13.2428
▁лбейт	-13.244
▁арян	-13.2451
▁Шах	-13.2493
▁льс	-13.2511
▁Ast	-13.2529
отту	-13.2533
▁угал	-13.2551
СФ	-13.2571
▁умса	-13.2572
il	-13.2573
АК	-13.2592
▁илла	-13.2595
З	-13.2602
▁Ti	-13.2608
▁рена	-13.2611
▁Пак	-13.2611
▁алид	-13.262
ван	-13.2621
▁енге	-13.2624
nz	-13.2625
ta	-13.2633
▁XI	-13.264
вок	-13.2644
▁аяке	-13.2647
▁айлы	-13.2671
▁дпол	-13.2672
▁арсе	-13.2673
▁UF	-13.2677
▁акч	-13.2691
і	-13.2692
аби	-13.2696
акет	-13.2706
▁янь	-13.2724
▁Hu	-13.2732
▁бос	-13.2734
▁умч	-13.2746
▁афур	-13.2749
▁Лах	-13.2754
ийке	-13.2755
▁одол	-13.2766
▁ly	-13.2769
▁иос	-13.2772
сал	-13.2772
▁аляр	-13.2796
▁аргун	-13.2809
атри	-13.2812
za	-13.2814
елки	-13.2815
▁Well	-13.2821
▁рму	-13.2826
▁айза	-13.2836
▁анче	-13.2843
▁елов	-13.2851
K	-13.2865
▁осе	-13.2868
▁рини	-13.2884
▁йго	-13.2884
▁11,	-13.2885
▁гыны	-13.2889
▁үнх	-13.2903
▁ырчы	-13.291
▁удс	-13.2936
▁удук	-13.2936
▁оду	-13.295
▁аня	-13.2957
оля	-13.2958
▁пане	-13.2969
▁роне	-13.2974
▁Фиц	-13.298
▁йбы	-13.2989
ное	-13.3002
▁айша	-13.3012
▁обол	-13.3018
▁лева	-13.3021
▁агер	-13.3068
ru	-13.3072
И	-13.3099
кус	-13.3123
▁үшкө	-13.3126
оял	-13.3138
▁отка	-13.3143
▁упул	-13.3146
nc	-13.315
▁ерчи	-13.3152
▁r	-13.3156
▁ерри	-13.3167
▁Уш	-13.3168
▁IP	-13.3175
раб	-13.318
▁ГУЛ	-13.3189
▁ЛДП	-13.3192
▁hen	-13.3193
▁улку	-13.3195
▁диет	-13.3201
▁шейх	-13.3203
рагм	-13.321
▁Qaz	-13.3218
▁ce	-13.3222
SF	-13.3235
▁афиз	-13.3243
Өз	-13.3244
чур	-13.3251
бат	-13.3259
▁риж	-13.3261
▁ребр	-13.3264
▁архан	-13.3276
▁Доло	-13.3277
▁vi	-13.3279
▁Cli	-13.3281
▁бакы	-13.329
▁сток	-13.3302
▁енни	-13.3303
ia	-13.3311
▁Хат	-13.3318
▁cha	-13.3326
▁олт	-13.3333
Г	-13.3338
оро	-13.3344
▁еӊе	-13.3349
ei	-13.3352
▁ороп	-13.3352
▁u	-13.3355
▁Либ	-13.3356
▁заар	-13.3357
ейро	-13.337
▁сть	-13.3371
▁азу	-13.3388
▁ктон	-13.3396
▁In	-13.34
di	-13.3412
▁Дэ	-13.3419
▁ka	-13.342
бак	-13.3424
▁ылма	-13.3434
руд	-13.345
иет	-13.3466
▁Bi	-13.3481
вой	-13.3493
▁рууда	-13.3512
ьян	-13.3512
▁лиха	-13.3516
▁расн	-13.3525
жаш	-13.3527
▁екти	-13.3542
▁алх	-13.3562
▁анба	-13.3569
▁ерон	-13.3578
▁абиу	-13.3623
▁атте	-13.3627
▁визу	-13.3633
▁анса	-13.3639
▁онде	-13.3641
СП	-13.3654
ПК	-13.366
j	-13.3661
\	-13.3665
▁OFFI	-13.3665
▁TASS	-13.3665
▁TB	-13.3665
▁Шамс	-13.3667
▁эльс	-13.3668
▁этью	-13.367
оси	-13.3679
▁асха	-13.3684
ав	-13.3699
▁октя	-13.3709
▁аври	-13.3713
▁эво	-13.3717
▁win	-13.3731
▁стю	-13.3731
абы	-13.3732
▁159	-13.3734
▁йба	-13.3736
▁енч	-13.3745
▁ухи	-13.3754
зер	-13.3761
um	-13.3773
ён	-13.3773
▁чики	-13.3785
▁үлгө	-13.3788
▁151	-13.3788
ияз	-13.3796
B	-13.3798
▁акас	-13.3799
▁161	-13.3801
▁атом	-13.3802
▁Ve	-13.3814
▁олив	-13.3821
▁есла	-13.3823
▁9%	-13.3825
▁вди	-13.385
▁Рик	-13.3859
▁айба	-13.3868
▁чоло	-13.387
хти	-13.3881
дөрү	-13.389
▁Dip	-13.3891
▁сог	-13.3893
▁Под	-13.3899
иё	-13.3911
▁ord	-13.3925
ПО	-13.3935
нос	-13.3949
kh	-13.3952
O	-13.3968
▁миф	-13.3971
▁Гул	-13.3979
▁ейла	-13.3987
▁Яр	-13.3995
▁ДН	-13.4008
▁рели	-13.4008
▁милд	-13.4012
▁ахал	-13.4013
▁алаб	-13.4016
ad	-13.4021
▁Гола	-13.4033
▁мили	-13.4035
▁1)	-13.4039
▁l	-13.4049
▁ленд	-13.4051
▁genc	-13.4087
▁Гур	-13.409
ТС	-13.4104
▁илал	-13.4111
▁Нов	-13.4116
▁зис	-13.4132
▁Рез	-13.4148
on	-13.415
▁Na	-13.4155
ойго	-13.4163
▁Ltd	-13.4165
▁Offi	-13.4165
▁ssia	-13.4165
ВК	-13.4166
be	-13.4166
▁гард	-13.4167
ФК	-13.4168
▁пицц	-13.417
HR	-13.4171
▁Отче	-13.4175
ОК	-13.4183
▁ауре	-13.4184
▁усе	-13.4184
▁ge	-13.4189
▁рмон	-13.419
▁ншаа	-13.4195
▁шиит	-13.42
▁ницк	-13.4215
▁симе	-13.4218
исло	-13.4226
▁Spi	-13.4237
▁Йоа	-13.4245
▁плац	-13.4246
▁medi	-13.4247
▁КЕ	-13.426
▁Ku	-13.4265
Ч	-13.4271
▁Гай	-13.4277
▁252	-13.4277
юр	-13.4308
▁ent	-13.4311
▁лбе	-13.4318
▁НД	-13.433
ube	-13.4334
▁лец	-13.4355
▁12,	-13.4364
▁лив	-13.4372
▁ришт	-13.4376
▁Гил	-13.4379
▁lo	-13.44
▁ылаң	-13.4411
▁маңк	-13.4413
▁юр	-13.4418
▁атви	-13.4424
КА	-13.4428
ASA	-13.4432
аси	-13.4441
ың	-13.4442
VI	-13.4448
▁Ne	-13.4458
▁One	-13.4468
дзо	-13.4481
gi	-13.4481
▁скоп	-13.4482
ct	-13.4485
da	-13.4506
сь	-13.4512
▁амса	-13.4541
▁гро	-13.4546
▁жур	-13.4552
▁алах	-13.4553
▁екир	-13.4555
▁дрис	-13.4585
▁шари	-13.4588
▁Мун	-13.4589
▁bi	-13.4595
▁лту	-13.4615
хту	-13.4618
▁rdia	-13.4627
cy	-13.4634
илиц	-13.4637
воз	-13.4641
ово	-13.4648
▁чыпк	-13.4671
ург	-13.4672
▁Che	-13.4673
CA	-13.4677
▁робо	-13.4677
▁NASA	-13.4691
▁grap	-13.4691
▁Bay	-13.4692
▁лжир	-13.4692
▁son	-13.4692
▁Ѳ	-13.4692
КЧ	-13.4693
▁by	-13.4694
▁vis	-13.4697
лис	-13.4698
▁am	-13.4701
▁лом	-13.4704
▁1"	-13.4713
▁UN	-13.4714
▁ыяк	-13.4722
▁шеде	-13.4728
▁ыбыр	-13.4728
▁Ёл	-13.4738
▁улик	-13.4741
ca	-13.4742
▁авлат	-13.4746
▁Элит	-13.475
▁Tes	-13.475
УА	-13.4752
▁Cor	-13.4759
ива	-13.4768
▁ai	-13.477
▁Цу	-13.4777
▁197	-13.4779
ть	-13.4783
▁Гана	-13.4787
▁арио	-13.4801
юм	-13.4805
ft	-13.4807
▁акуш	-13.4807
▁хаза	-13.4821
▁1:0	-13.4822
▁шиле	-13.483
▁Is	-13.4831
▁ейне	-13.4833
▁Gen	-13.4837
▁уйк	-13.4858
▁the	-13.4865
▁Tur	-13.4882
▁иппе	-13.4883
сана	-13.489
▁роби	-13.4905
▁моло	-13.491
▁ачу	-13.4925
хе	-13.4939
эм	-13.4972
РО	-13.4987
▁ki	-13.4991
ейте	-13.5012
▁урж	-13.5016
мис	-13.5023
▁El	-13.5045
иги	-13.5045
▁лыны	-13.506
ппе	-13.5065
▁қ	-13.5087
▁LB	-13.5087
ba	-13.5092
▁Ган	-13.5101
▁пасс	-13.5112
▁амбо	-13.5119
▁ъ	-13.5129
▁Po	-13.5131
▁амыш	-13.5133
▁овла	-13.5149
ино	-13.5153
фи	-13.5153
▁Рам	-13.5168
▁(1	-13.518
▁рох	-13.5182
NA	-13.5183
иля	-13.5191
V	-13.5192
3,	-13.5199
▁Нед	-13.5208
▁удр	-13.5213
ости	-13.5219
▁Зия	-13.5222
одо	-13.5222
Ю	-13.5224
▁аас	-13.5232
▁илбе	-13.5232
Q	-13.5233
SA	-13.5236
▁Fox	-13.5247
▁CBS	-13.5247
▁яопи	-13.5247
ЗИ	-13.5247
▁Вотс	-13.5248
▁Sy	-13.525
▁ауэр	-13.5258
▁РФ	-13.5259
▁нья	-13.526
▁рщи	-13.5276
▁емсе	-13.5278
▁мида	-13.5298
▁етаф	-13.5303
▁m	-13.5305
дыр	-13.5311
▁ыяма	-13.5313
▁Shah	-13.5333
▁166	-13.5339
▁Сад	-13.5342
▁нцев	-13.5351
▁nk	-13.5352
▁se	-13.5357
▁енеб	-13.5364
▁БА	-13.537
▁tor	-13.5373
▁икме	-13.5373
▁209	-13.5392
зги	-13.5399
алат	-13.5443
▁амс	-13.545
ём	-13.5476
▁уйка	-13.5478
▁урен	-13.5499
жур	-13.5516
or	-13.5524
▁авир	-13.553
▁үмк	-13.5537
▁инду	-13.5544
▁rt	-13.5551
▁егм	-13.5554
▁орпо	-13.5567
▁He	-13.5611
▁амид	-13.5622
▁яб	-13.5631
OS	-13.5646
▁фит	-13.5654
▁nes	-13.5661
▁рих	-13.5661
▁ызал	-13.5666
кес	-13.5706
бур	-13.5708
▁убл	-13.5731
оӊ	-13.5759
▁4.	-13.576
olu	-13.5775
▁Vi	-13.5775
ha	-13.5776
ТД	-13.578
▁роц	-13.5787
▁ажо	-13.5795
▁ңур	-13.5798
иво	-13.582
ИВ	-13.5828
▁Қ	-13.5835
_	-13.5835
▁BY	-13.5835
▁GT	-13.5835
▁Этно	-13.5838
▁Йоха	-13.584
▁аит	-13.584
хам	-13.5849
▁for	-13.5852
▁алха	-13.5853
▁um	-13.587
▁варт	-13.5883
вет	-13.5883
▁урку	-13.5886
▁хс	-13.5901
▁вахт	-13.592
▁Merc	-13.5925
▁tal	-13.5928
йнур	-13.5928
фер	-13.5937
▁рохи	-13.5939
▁Mu	-13.594
▁Vis	-13.5954
▁уэй	-13.5955
риф	-13.5958
▁жиб	-13.5959
▁умит	-13.5963
айте	-13.5965
▁дхан	-13.5973
▁нтек	-13.5973
▁228	-13.5983
▁Zo	-13.5983
▁ld	-13.5985
▁ri	-13.5987
▁Sa	-13.5994
▁нгер	-13.5994
КТ	-13.5996
бри	-13.6014
dent	-13.6019
ВС	-13.6022
ѳ	-13.6029
▁яз	-13.603
▁BM	-13.6031
▁ua	-13.6073
▁Sta	-13.6074
брио	-13.6079
▁30,	-13.6081
▁ахда	-13.6081
▁урби	-13.6111
▁гейт	-13.6116
▁Ab	-13.6116
na	-13.6125
▁зоот	-13.6128
▁Хара	-13.6129
▁умур	-13.614
▁ллин	-13.6142
▁карж	-13.6154
▁исса	-13.6162
▁нави	-13.6164
▁ахаб	-13.6171
wi	-13.6172
▁бах	-13.6178
▁Res	-13.6195
▁ебет	-13.6202
▁есел	-13.6248
▁era	-13.6251
▁Lo	-13.6255
▁ra	-13.6256
▁жооп	-13.6276
▁ужу	-13.6279
▁орби	-13.6288
▁ci	-13.629
▁IN	-13.6294
▁ороб	-13.6304
▁едо	-13.6313
▁Уот	-13.6316
▁ахи	-13.6332
▁ns	-13.6336
сун	-13.6344
ъ	-13.635
▁пис	-13.6354
▁уска	-13.6357
▁gi	-13.636
куб	-13.6385
хро	-13.6394
hot	-13.6405
ЭУ	-13.6412
▁үнд	-13.6421
ъект	-13.6447
Ph	-13.6448
@	-13.646
▁Дзю	-13.6461
▁рээзи	-13.6462
▁ерещ	-13.6462
▁en	-13.6472
▁илиум	-13.6473
▁глав	-13.6478
▁ылжы	-13.6482
▁ахан	-13.6486
▁плю	-13.649
▁тоян	-13.6509
▁аджи	-13.651
▁ber	-13.6518
таң	-13.6524
▁ye	-13.6526
▁ямс	-13.6533
▁ИИБ	-13.6538
▁ST	-13.6541
▁өлүг	-13.6555
бло	-13.6561
▁Шум	-13.6562
▁айдер	-13.6571
хи	-13.6576
▁at	-13.6585
▁co	-13.6593
▁ерф	-13.6595
▁хунд	-13.6596
▁азир	-13.6599
▁улян	-13.6605
▁зюм	-13.6607
▁3.	-13.6608
сть	-13.6612
PT	-13.6618
▁Lea	-13.6623
▁Цзе	-13.6624
▁129	-13.6628
ni	-13.6628
▁КН	-13.663
▁эйл	-13.6633
▁пика	-13.6638
лет	-13.6638
nk	-13.6639
4,	-13.6642
▁асри	-13.6647
▁14,	-13.6649
▁q	-13.6661
▁асиб	-13.6661
бби	-13.6678
▁агд	-13.6718
рос	-13.6726
ai	-13.6735
▁Зем	-13.6741
▁дь	-13.6742
▁аппе	-13.6745
▁арри	-13.6755
мон	-13.6759
▁лока	-13.6761
▁ырм	-13.6766
▁Кей	-13.677
▁ваза	-13.6772
▁имит	-13.6774
▁илло	-13.6778
▁XII	-13.6795
▁лүүдө	-13.6798
траф	-13.6808
берт	-13.681
▁sta	-13.681
▁имир	-13.6822
▁олле	-13.6843
▁Y	-13.6843
▁анж	-13.6844
▁des	-13.688
▁еко	-13.6883
▁Дю	-13.6886
▁бозо	-13.6887
▁енем	-13.6887
▁cu	-13.6913
уду	-13.6926
▁ффа	-13.6948
el	-13.6958
▁зза	-13.6963
▁зир	-13.6964
▁ульм	-13.6971
▁Lu	-13.6977
▁рзу	-13.6991
▁кво	-13.6993
▁Bil	-13.7001
оомд	-13.7003
FA	-13.7003
▁ha	-13.7003
▁SA	-13.7025
SW	-13.7027
▁улиа	-13.7029
ex	-13.7041
▁Нев	-13.706
▁lle	-13.7068
▁изел	-13.707
▁стте	-13.7071
AFA	-13.7078
лум	-13.7085
▁осно	-13.7097
ub	-13.71
жу	-13.7101
ье	-13.7102
▁амми	-13.7102
лес	-13.711
ɵ	-13.7113
▁Поэ	-13.7127
▁Der	-13.7128
▁шеги	-13.7136
▁арев	-13.7137
▁азха	-13.7139
▁вят	-13.7153
▁шови	-13.7153
▁453	-13.7157
▁УКК	-13.7169
▁епсе	-13.7178
▁rs	-13.7178
▁372	-13.7182
▁аити	-13.7187
▁бахи	-13.719
▁САГ	-13.7192
▁лек	-13.7199
▁Pe	-13.721
▁уңга	-13.7213
ho	-13.722
▁Ho	-13.7223
▁йни	-13.7226
▁Шаш	-13.7232
reen	-13.7235
▁арпи	-13.7237
▁ov	-13.7246
▁202	-13.7248
▁bli	-13.7253
▁rie	-13.7255
▁иллю	-13.7257
▁эйт	-13.727
▁гло	-13.7285
▁rdi	-13.7296
раф	-13.7306
▁340	-13.7326
▁екре	-13.733
уши	-13.7347
▁231	-13.7351
▁рро	-13.7357
▁елик	-13.7361
▁епти	-13.7368
▁еӊи	-13.737
▁стро	-13.7379
▁рилет	-13.7384
▁рафат	-13.7384
▁bo	-13.739
бей	-13.7391
▁СА	-13.7393
▁Рид	-13.7402
мус	-13.7406
▁Comm	-13.7416
вор	-13.7419
▁Fu	-13.7431
▁ron	-13.7438
RA	-13.7452
EM	-13.746
▁ak	-13.7481
ариф	-13.7484
▁ck	-13.7505
▁унгу	-13.7506
сур	-13.7516
▁елч	-13.7533
▁ируз	-13.7534
тель	-13.7565
ават	-13.7567
▁Ben	-13.7584
МА	-13.7611
нхай	-13.7613
йза	-13.7616
бор	-13.7618
▁ерки	-13.7649
▁зас	-13.7656
1,	-13.7674
▁ЖККК	-13.7686
eta	-13.7686
▁вле	-13.7694
рек	-13.7697
▁Si	-13.7704
▁ya	-13.7719
▁чуку	-13.7725
▁елио	-13.7727
ТБ	-13.773
пей	-13.7736
ркин	-13.7744
ань	-13.7755
СС	-13.7756
фел	-13.7759
▁ылак	-13.7761
ймо	-13.7773
каб	-13.7798
0	-13.7822
▁порту	-13.7823
▁Ya	-13.7834
−	-13.7841
▁ЭЭФ	-13.7842
▁Uz	-13.7842
▁шыңг	-13.7843
▁рэке	-13.7843
күр	-13.7843
▁bus	-13.7845
▁хья	-13.7845
▁ариа	-13.7847
▁Габр	-13.7848
▁rat	-13.7848
▁нсор	-13.7849
▁TUT	-13.7851
▁Зина	-13.7865
▁Art	-13.7873
▁nder	-13.788
▁ариел	-13.7884
▁ort	-13.7887
▁465	-13.7888
▁шлем	-13.7889
▁ЭКС	-13.7889
рино	-13.789
ER	-13.7892
▁урше	-13.7897
▁ME	-13.7899
▁улли	-13.7901
▁Пин	-13.7905
▁Ni	-13.7906
▁амсу	-13.7906
▁Qua	-13.7915
▁133	-13.7935
▁гипо	-13.7939
▁вент	-13.7939
▁ммун	-13.7944
▁РК	-13.7944
FC	-13.7945
▁аюм	-13.795
спо	-13.7953
▁ань	-13.7968
id	-13.7972
▁езге	-13.7973
▁Цел	-13.7973
зот	-13.7977
Не	-13.7987
▁райб	-13.7988
▁Tod	-13.8001
▁Галл	-13.8006
▁риде	-13.8033
▁анни	-13.8042
▁раги	-13.8042
авил	-13.8043
▁ev	-13.8058
▁рпе	-13.8061
▁аксо	-13.8061
▁этри	-13.8062
▁Er	-13.8079
▁кост	-13.808
▁Au	-13.8085
▁nta	-13.8086
мур	-13.8116
▁Ki	-13.8117
▁Bu	-13.8125
▁рла	-13.8131
▁ct	-13.8139
▁черк	-13.8142
▁Низ	-13.8151
▁Du	-13.8156
▁үңг	-13.816
▁Ha	-13.8169
▁la	-13.8173
▁иса	-13.8175
▁Заке	-13.8175
▁шело	-13.8178
ic	-13.8178
art	-13.8179
▁Ён	-13.8202
▁улт	-13.8226
▁AT	-13.8245
tal	-13.8247
▁CC	-13.8251
▁Fou	-13.8253
▁ec	-13.8256
▁off	-13.8291
▁Гала	-13.8323
▁рейе	-13.8332
▁min	-13.835
▁ch	-13.8378
▁Xi	-13.8394
укту	-13.8395
▁рси	-13.8406
▁улла	-13.8408
лич	-13.8414
▁шли	-13.8422
евер	-13.843
смо	-13.8437
юш	-13.845
▁елор	-13.8459
жас	-13.8475
вод	-13.8485
▁анаф	-13.8487
▁тело	-13.8498
▁ыраң	-13.85
▁+7	-13.8503
▁айха	-13.8506
▁охи	-13.8507
▁Mic	-13.8523
T	-13.8531
ебю	-13.8537
▁дозе	-13.8539
▁лази	-13.855
▁төм	-13.8554
▁штег	-13.8558
▁оров	-13.8571
юро	-13.8581
PS	-13.8589
▁we	-13.8591
▁ндит	-13.8596
nt	-13.8597
gu	-13.8597
WW	-13.861
▁wei	-13.8611
Ыр	-13.8611
ПУ	-13.8611
▁Ox	-13.8611
PN	-13.8612
▁ork	-13.8612
▁nse	-13.8612
▁Кэрр	-13.8612
▁Рэт	-13.8615
▁рдео	-13.8616
▁man	-13.8616
▁авлю	-13.8616
▁рочи	-13.8626
▁бриж	-13.8629
▁уджа	-13.8634
▁Толу	-13.8635
▁Fest	-13.8646
▁Лэ	-13.8649
YT	-13.8649
фля	-13.865
▁илша	-13.8652
▁нжи	-13.8654
°	-13.8658
▁риум	-13.8659
▁Go	-13.866
▁ыраг	-13.8667
FE	-13.8672
▁поми	-13.8677
▁лахо	-13.8681
▁убин	-13.8681
▁ырье	-13.8684
GM	-13.8686
тти	-13.8687
vi	-13.8687
▁Гон	-13.8697
▁елж	-13.8697
▁енж	-13.8705
▁ейха	-13.871
re	-13.8718
▁Пала	-13.8722
▁Ганд	-13.8726
▁мбра	-13.8731
▁льф	-13.8731
▁191	-13.874
хот	-13.8741
▁Жов	-13.8754
▁470	-13.8757
▁Age	-13.8765
▁озен	-13.8791
▁лави	-13.8793
▁vo	-13.8798
▁рамо	-13.8801
▁Cap	-13.8804
▁авле	-13.881
▁Поз	-13.8812
dy	-13.8816
▁Яп	-13.884
▁амер	-13.8841
чей	-13.8857
am	-13.8865
▁Обо	-13.8867
▁плов	-13.8867
фир	-13.8877
▁бег	-13.8881
▁Лас	-13.8891
▁ирса	-13.8894
▁Род	-13.8896
▁КТР	-13.89
▁27%	-13.8918
леге	-13.8921
L	-13.8925
Y	-13.8931
▁реб	-13.8938
юн	-13.8958
ity	-13.8961
▁Hon	-13.8966
▁Ara	-13.8967
▁gn	-13.8972
лица	-13.8974
▁ейсе	-13.8978
▁Fi	-13.9009
▁un	-13.901
▁усто	-13.9012
▁урь	-13.9018
▁ымса	-13.9034
сим	-13.9045
иев	-13.9072
▁mp	-13.9086
st	-13.9119
▁дряд	-13.9123
▁шоко	-13.9124
▁рбан	-13.9138
▁пинг	-13.914
▁Ar	-13.9143
ev	-13.9151
▁az	-13.9162
▁уля	-13.9166
▁илат	-13.9171
тик	-13.9194
▁Wil	-13.9207
▁Гад	-13.9229
▁вз	-13.9242
▁ости	-13.9243
ka	-13.9248
▁ырыш	-13.9262
вер	-13.9264
▁lea	-13.9265
▁елог	-13.9268
ent	-13.9269
fa	-13.9273
▁абу	-13.9276
GA	-13.9289
▁МС	-13.9292
ют	-13.9299
▁ll	-13.931
▁моде	-13.9351
▁езе	-13.9374
▁Je	-13.9377
▁хат	-13.9405
вещ	-13.9413
оид	-13.9417
ъе	-13.9417
▁нтье	-13.9418
АР	-13.9421
BN	-13.9428
BU	-13.9429
No	-13.9433
Аю	-13.9443
▁***	-13.9444
▁IRNA	-13.9444
▁dar	-13.9444
▁ncy	-13.9444
▁Bla	-13.9444
▁озеф	-13.9447
▁ншот	-13.945
▁pe	-13.9452
▁арва	-13.9456
▁гѳ	-13.9458
▁ic	-13.9462
▁ыӊг	-13.9463
▁Ali	-13.9467
▁Чуй	-13.9468
▁Supe	-13.948
▁ухро	-13.9487
▁Лоз	-13.9498
▁енри	-13.9502
▁лбин	-13.9505
▁юник	-13.9519
sa	-13.9527
▁ААК	-13.9534
▁pa	-13.9539
▁28,	-13.9544
▁196	-13.9545
▁себе	-13.9546
▁юре	-13.9546
▁вилл	-13.9549
орд	-13.9555
▁спан	-13.9559
▁DW	-13.956
▁ржин	-13.9562
▁дымак	-13.9563
▁Риз	-13.9593
▁арту	-13.9595
▁Az	-13.9596
▁ауто	-13.9597
▁песс	-13.9601
▁ыяб	-13.9609
▁CD	-13.9609
▁абот	-13.9614
▁Mas	-13.9617
▁Af	-13.9628
▁203	-13.9647
▁хэ	-13.965
▁заво	-13.9654
▁одер	-13.9662
AL	-13.9667
▁208	-13.967
цев	-13.9671
▁вас	-13.9675
▁убли	-13.9681
▁тэн	-13.9685
▁Cov	-13.9685
▁умга	-13.9686
7,	-13.9687
▁ыйша	-13.9691
▁vid	-13.9696
harm	-13.9707
▁ерун	-13.9715
▁sap	-13.9718
▁удди	-13.9718
▁енчу	-13.9718
▁чыкт	-13.9734
▁аксе	-13.9763
▁Вес	-13.9783
▁ve	-13.9785
▁orm	-13.9794
ево	-13.9798
▁b	-13.9799
▁почт	-13.9802
вани	-13.9805
▁орес	-13.9822
ИБ	-13.9828
▁rb	-13.9832
▁орец	-13.9838
▁Шамб	-13.984
ущ	-13.9854
рамо	-13.9855
▁мпер	-13.9859
▁яс	-13.9864
ep	-13.9866
рас	-13.9869
▁аспа	-13.988
▁авла	-13.9882
рох	-13.9905
▁Шей	-13.9907
▁олб	-13.9909
▁шири	-13.991
▁йно	-13.9931
хин	-13.9947
te	-13.9968
▁трас	-13.998
▁da	-13.998
▁еров	-13.9992
▁Тем	-13.9995
▁ol	-14.0011
▁руж	-14.0014
▁BT	-14.0016
▁gu	-14.0018
▁ерте	-14.0022
do	-14.0034
▁ырс	-14.0053
хэ	-14.0058
▁урти	-14.006
RL	-14.0079
men	-14.0109
▁Рон	-14.0128
ak	-14.013
▁mi	-14.0131
▁ымыр	-14.0133
▁Шап	-14.0153
эк	-14.0154
6,	-14.0157
EI	-14.017
▁аңс	-14.0174
учер	-14.0216
▁ga	-14.0217
▁алис	-14.0231
щи	-14.0234
▁ыйкы	-14.0251
▁равд	-14.0281
gy	-14.0287
▁CA	-14.0289
bo	-14.029
▁тель	-14.0298
▁олло	-14.0307
▁Man	-14.0322
осно	-14.0342
Don	-14.0345
▁Мин	-14.0345
▁ica	-14.0351
рор	-14.0352
▁SOTA	-14.0353
▁vel	-14.0353
▁Vac	-14.0353
▁Box	-14.0353
▁Mc	-14.0353
▁NEXT	-14.0353
▁Wo	-14.0354
▁cal	-14.0354
▁it	-14.0354
▁By	-14.0356
si	-14.0356
SE	-14.0357
sA	-14.0357
▁илшо	-14.0361
энс	-14.0363
рюк	-14.0364
▁rli	-14.0369
▁bb	-14.037
▁лещ	-14.0371
рцог	-14.0371
▁амзи	-14.0371
▁Шеф	-14.0375
▁адид	-14.0376
▁риен	-14.0384
▁руэл	-14.0389
▁мици	-14.04
ow	-14.04
▁риэл	-14.0402
▁зели	-14.0402
SIP	-14.0406
▁MH	-14.0407
▁Vol	-14.0413
▁ham	-14.0416
▁локд	-14.0422
▁урки	-14.0425
тах	-14.0426
▁sus	-14.0432
▁нгуш	-14.0434
▁КИ	-14.0434
▁ибра	-14.0436
▁418	-14.0439
▁хау	-14.0439
Ц	-14.0443
▁урне	-14.0448
▁Блэ	-14.0448
▁асси	-14.0452
▁Цай	-14.0454
няз	-14.0456
▁shi	-14.0475
▁уале	-14.0476
▁Gov	-14.0477
▁j	-14.0483
▁tut	-14.0485
▁екиди	-14.0492
▁ъл	-14.0506
▁ine	-14.052
▁шаган	-14.0521
▁сив	-14.0524
▁fa	-14.0525
▁ссур	-14.0539
▁ясн	-14.0544
льмо	-14.0549
▁Rio	-14.0553
▁раны	-14.0556
▁сент	-14.0558
EC	-14.0568
▁ромб	-14.0571
▁роно	-14.0572
▁бая	-14.0575
▁верт	-14.0588
RT	-14.0592
▁рфо	-14.062
ld	-14.0622
▁Sch	-14.0626
▁Meg	-14.0627
▁50,	-14.063
▁унжу	-14.063
▁Почт	-14.0636
▁руст	-14.0655
▁елто	-14.0661
пол	-14.0677
▁oo	-14.0689
▁Son	-14.0691
лос	-14.0691
▁Bus	-14.0706
улла	-14.0709
▁тхо	-14.071
▁ринг	-14.0727
▁Лаз	-14.0746
▁rin	-14.0752
▁амча	-14.0755
▁соф	-14.0765
▁Ale	-14.0767
▁Ai	-14.0776
▁lt	-14.0777
▁аргу	-14.0777
▁улха	-14.0785
▁ахай	-14.0816
▁рый	-14.0819
▁Рот	-14.0826
▁Кире	-14.0832
▁Зах	-14.0865
EN	-14.0867
▁Fa	-14.0875
PA	-14.0878
дь	-14.089
▁гомо	-14.0902
he	-14.0902
▁ЕАЭ	-14.0904
▁Ph	-14.0911
юст	-14.0916
▁ko	-14.0926
▁Зам	-14.0932
▁AR	-14.0948
▁bil	-14.0952
▁атиб	-14.0971
грам	-14.0977
бэй	-14.0982
▁do	-14.102
▁lia	-14.1028
▁We	-14.1055
▁za	-14.1057
▁екул	-14.1061
▁Inde	-14.1084
▁Чак	-14.1085
▁урбо	-14.1098
▁JI	-14.1106
fi	-14.111
▁Gran	-14.1135
ast	-14.1146
вел	-14.1148
▁PA	-14.1157
AN	-14.1161
▁DA	-14.117
wa	-14.1171
▁ерзо	-14.1177
▁FI	-14.1182
▁өсүн	-14.1183
▁Rep	-14.1186
▁айзе	-14.1189
▁mon	-14.1191
ДБ	-14.1199
фон	-14.1218
▁хай	-14.122
▁аниб	-14.1239
ГИ	-14.1248
▁Su	-14.1248
▁Hy	-14.1314
VA	-14.1337
КӨ	-14.1338
▁шиш	-14.1341
РФ	-14.1348
ящ	-14.1352
ЦА	-14.1353
`	-14.1353
▁Цзэ	-14.1353
▁UZ	-14.1353
▁AQ	-14.1353
▁Max	-14.1353
bdo	-14.1354
▁фур	-14.1355
▁Mari	-14.1355
▁баппе	-14.1356
▁GI	-14.1356
▁PI	-14.1358
▁ky	-14.136
▁энь	-14.1362
▁Act	-14.1363
▁нъю	-14.1364
▁gra	-14.1365
▁IM	-14.1367
▁SE	-14.1368
rd	-14.1368
▁ухум	-14.1371
▁пани	-14.1381
▁Воз	-14.1383
▁роэл	-14.1386
▁Зим	-14.1389
:6	-14.139
▁илме	-14.139
▁тчер	-14.1394
▁ульф	-14.1397
▁Риг	-14.1402
▁пуль	-14.1405
куя	-14.1407
▁ню	-14.1408
▁Гви	-14.1414
▁ищ	-14.1417
▁буй	-14.1418
▁Sams	-14.1425
▁IX	-14.1427
▁RU	-14.1428
▁ртү	-14.1428
▁атве	-14.1429
▁улбу	-14.1435
▁Ним	-14.1437
▁злов	-14.1438
▁алван	-14.1439
▁пьев	-14.144
▁sp	-14.144
ADA	-14.1443
ТУ	-14.145
ром	-14.1453
ur	-14.1454
▁Фаз	-14.1455
▁елло	-14.1461
▁Org	-14.1467
ci	-14.1468
▁русс	-14.1474
▁KF	-14.1476
▁ѳз	-14.1486
ишке	-14.1492
▁be	-14.1493
▁Bren	-14.1493
▁иуда	-14.1496
▁нсар	-14.1497
▁екзо	-14.1501
▁Lab	-14.1502
▁олет	-14.1506
rt	-14.1508
▁папи	-14.1509
▁mo	-14.1519
▁апаң	-14.1523
▁Люс	-14.153
▁Хака	-14.1532
▁Эши	-14.1536
▁Por	-14.1544
улжа	-14.1555
▁hi	-14.156
▁ваш	-14.156
▁Gra	-14.1578
зит	-14.1586
▁Cam	-14.159
▁чиде	-14.1595
▁Fro	-14.1599
▁Joh	-14.1602
Ой	-14.1607
▁рифу	-14.1609
рита	-14.1614
▁ормо	-14.1619
▁Ji	-14.1633
em	-14.1653
▁NA	-14.1679
▁рагм	-14.1695
▁ычыл	-14.1695
▁абиб	-14.1703
▁216	-14.1707
фан	-14.1708
▁ja	-14.1718
▁Хэ	-14.1723
▁NE	-14.1746
▁лах	-14.1757
▁лесс	-14.176
▁елье	-14.1773
▁фада	-14.1775
▁орбо	-14.1783
▁лүш	-14.1809
▁люк	-14.1815
уль	-14.1837
▁Кес	-14.1843
BA	-14.1851
▁Va	-14.1855
▁Yon	-14.1865
▁улен	-14.19
our	-14.1904
▁nu	-14.1926
тыр	-14.1927
ry	-14.1946
▁елон	-14.1951
▁щ	-14.1954
▁Лом	-14.1966
лют	-14.1979
U	-14.1981
▁абха	-14.1986
ене	-14.199
▁бийл	-14.1992
▁рмин	-14.1996
▁плас	-14.2008
▁шанс	-14.201
льф	-14.2023
▁ris	-14.2039
▁летт	-14.2061
зав	-14.2066
▁ER	-14.2075
▁мпус	-14.2079
▁рсел	-14.2088
чык	-14.2121
джер	-14.2131
bek	-14.2132
▁ашим	-14.2134
жев	-14.2134
лом	-14.2137
еги	-14.2163
▁lic	-14.218
▁Уф	-14.2204
▁рэ	-14.2233
рой	-14.2238
IM	-14.2239
АБ	-14.2242
▁умба	-14.2245
тос	-14.2262
eri	-14.2295
рей	-14.2295
▁Im	-14.23
▁чуба	-14.2307
▁Pre	-14.2328
mir	-14.2349
ото	-14.235
▁ac	-14.2354
IT	-14.237
se	-14.2372
зам	-14.2382
лю	-14.2386
▁th	-14.2393
▁убер	-14.241
▁HO	-14.2411
ЭС	-14.2422
▁мсте	-14.2427
▁ND	-14.2429
▁Бло	-14.2438
stan	-14.2451
▁ври	-14.2455
WO	-14.2456
▁tv	-14.2457
▁ktar	-14.2464
▁rvice	-14.2464
▁моле	-14.2464
▁Sport	-14.2464
AV	-14.2464
▁ауэлл	-14.2464
▁UNA	-14.2464
▁hap	-14.2464
▁Jaz	-14.2464
▁эниэ	-14.2465
▁Ницц	-14.2466
▁ә	-14.2466
▁цзян	-14.2469
▁way	-14.2469
кеси	-14.2471
▁Гё	-14.2474
▁Пэт	-14.2475
▁чжэн	-14.2477
▁West	-14.2478
ВИ	-14.2487
▁Грэ	-14.249
оли	-14.2497
▁AFA	-14.2498
▁зина	-14.2498
▁ерээ	-14.2503
▁отел	-14.2507
став	-14.2507
▁754	-14.2508
▁пиво	-14.2516
▁айфа	-14.2522
БТ	-14.2531
▁мыкт	-14.2532
ИН	-14.2532
▁ыйба	-14.2537
ухра	-14.254
ауэр	-14.255
▁ндѳ	-14.2551
▁КГ	-14.2558
ерри	-14.256
▁59%	-14.2562
▁34,	-14.2566
▁эвен	-14.2573
▁per	-14.2575
▁Geo	-14.2577
▁хро	-14.2584
изи	-14.2584
ah	-14.2589
▁Лип	-14.259
▁rd	-14.2591
▁азум	-14.2595
▁воло	-14.2596
erc	-14.2597
▁307	-14.2598
ed	-14.2601
▁ПА	-14.2602
▁КТ	-14.2603
▁отк	-14.2608
▁Цз	-14.2608
▁риги	-14.2615
▁MI	-14.2617
бел	-14.2618
эт	-14.2621
▁монд	-14.2622
▁ечке	-14.2625
▁Цян	-14.2629
▁атиф	-14.263
▁Яу	-14.2633
▁es	-14.2634
▁Нах	-14.2636
нвэ	-14.2638
▁p	-14.2647
рчи	-14.2649
▁нтел	-14.2654
▁RM	-14.2658
▁итро	-14.2659
▁Позн	-14.2664
▁енка	-14.2665
▁зон	-14.2667
▁Medi	-14.2673
▁Ню	-14.2677
▁21,	-14.2677
▁удул	-14.268
▁182	-14.2683
ax	-14.2688
▁ul	-14.269
▁изам	-14.2702
▁мех	-14.2706
INE	-14.2722
▁ащ	-14.2725
▁CHE	-14.2727
▁Шек	-14.2732
▁Иде	-14.2733
▁San	-14.2737
▁222	-14.2743
▁исма	-14.2745
дзе	-14.2756
▁дзин	-14.276
▁инжи	-14.2764
▁уден	-14.277
▁ось	-14.2777
▁ейф	-14.2801
сто	-14.2801
▁229	-14.2804
▁nde	-14.2811
▁Aki	-14.2814
▁имон	-14.2818
▁sha	-14.282
us	-14.2828
▁окси	-14.2845
екет	-14.2849
▁анжи	-14.2858
▁лпек	-14.2864
бра	-14.2869
▁вете	-14.2869
▁хара	-14.287
▁вами	-14.2873
ваз	-14.2875
▁аниф	-14.2883
лаф	-14.2886
Ай	-14.2887
▁Шаг	-14.29
▁нгел	-14.2902
▁sh	-14.2909
▁хва	-14.291
вис	-14.2915
▁Гард	-14.2921
▁ерем	-14.2935
IN	-14.2939
▁рос	-14.2951
▁Cre	-14.2953
",	-14.2953
▁нрав	-14.297
zi	-14.2986
лус	-14.2989
▁Rea	-14.299
en	-14.3003
▁LE	-14.301
▁Фон	-14.3036
▁мэ	-14.3043
▁чапа	-14.3053
ыям	-14.31
вра	-14.3107
▁ифте	-14.3108
лох	-14.3117
эз	-14.3124
▁хна	-14.3133
▁бэй	-14.3149
▁ерсо	-14.3156
▁Луг	-14.3178
▁ороо	-14.3188
aq	-14.3189
▁папа	-14.3202
▁Топо	-14.3204
▁Me	-14.3205
▁онет	-14.3216
▁Гун	-14.3227
кипе	-14.323
ue	-14.3235
DA	-14.324
▁йод	-14.3256
орт	-14.3272
ПА	-14.3275
бод	-14.3275
bi	-14.3279
▁Sho	-14.329
ошон	-14.3312
▁мушт	-14.3323
▁Ak	-14.3332
ффе	-14.334
▁приц	-14.3351
▁льц	-14.3354
up	-14.3359
▁Йү	-14.3361
▁зра	-14.3371
▁AN	-14.3386
тчер	-14.3391
▁рцог	-14.3395
▁Sc	-14.3454
▁румк	-14.3462
▁рдем	-14.3462
▁TI	-14.3488
▁удда	-14.3495
▁буут	-14.3497
▁рива	-14.3514
▁йф	-14.3516
сва	-14.353
LS	-14.3552
vo	-14.3557
▁рев	-14.356
▁Кумт	-14.3564
зел	-14.3584
▁En	-14.3591
▁hu	-14.3595
▁tel	-14.3598
▁TO	-14.3603
СЕ	-14.3607
▁люч	-14.3612
▁Med	-14.3623
бли	-14.3626
ti	-14.3626
зоп	-14.3628
ou	-14.3632
ски	-14.3637
▁Уол	-14.3641
вал	-14.3643
▁мпул	-14.3648
ON	-14.3669
ГА	-14.3691
YA	-14.3696
І	-14.37
қ	-14.37
БУ	-14.3702
ЭА	-14.3705
▁inf	-14.3714
·	-14.3714
▁LEDKO	-14.3714
▁ГЕР	-14.3714
▁ИМХ	-14.3715
▁асти	-14.3715
ЕН	-14.3715
▁rge	-14.3718
▁Red	-14.3722
▁үрѳ	-14.3722
▁глю	-14.3723
▁Цвет	-14.3723
▁Кеки	-14.3725
▁І	-14.3728
▁үүлө	-14.373
▁Кисе	-14.3733
▁воль	-14.3733
▁джи	-14.3733
▁ry	-14.3737
▁ɵ	-14.3741
▁Mus	-14.3741
▁Шаф	-14.3743
ава	-14.3745
▁вели	-14.3751
▁Тава	-14.3754
▁плит	-14.3759
ряв	-14.3759
▁олеу	-14.376
▁Рек	-14.3761
▁Пике	-14.3762
ОП	-14.3762
▁урэл	-14.3764
▁бэйи	-14.3767
ОО	-14.3768
▁res	-14.377
▁pres	-14.3771
▁тих	-14.3776
▁FT	-14.3779
▁Йозе	-14.3779
▁ЖЕ	-14.3786
▁МТ	-14.3787
▁Hen	-14.3788
▁Зор	-14.379
▁гнат	-14.3791
▁амол	-14.3793
▁int	-14.3796
▁Dra	-14.3796
▁домо	-14.3799
▁38,	-14.3806
КУ	-14.3807
▁Доол	-14.3818
▁732	-14.382
▁AS	-14.3825
▁улхак	-14.3828
▁435	-14.3839
▁Шим	-14.3842
▁звен	-14.3843
▁sti	-14.3844
▁МЕ	-14.3847
фули	-14.3849
▁Кит	-14.3851
▁анби	-14.3851
▁ken	-14.3853
est	-14.3856
3;	-14.3863
▁фулл	-14.3869
▁родо	-14.3874
▁As	-14.3888
▁убен	-14.3892
▁Cons	-14.3894
▁агом	-14.3895
зац	-14.3903
▁ытма	-14.391
▁(4	-14.3916
▁Mar	-14.3918
▁рэн	-14.3926
▁иёр	-14.3928
▁ампе	-14.3933
E	-14.3942
▁вост	-14.3945
КР	-14.3948
мун	-14.3956
жего	-14.396
▁ать	-14.3966
▁Pu	-14.3969
▁Eti	-14.3975
▁рех	-14.398
▁удь	-14.398
▁end	-14.3985
▁stic	-14.3989
▁Har	-14.4001
ингв	-14.4002
▁Умр	-14.401
ET	-14.4015
▁US	-14.4027
▁Ac	-14.404
▁виф	-14.4041
жик	-14.4046
▁ехри	-14.4056
фат	-14.4079
чег	-14.4087
TV	-14.4092
▁po	-14.4104
▁адж	-14.4107
▁гно	-14.4108
▁ушер	-14.4122
▁Br	-14.4151
▁nti	-14.4157
▁лич	-14.4159
▁ксто	-14.4161
▁НЕ	-14.4176
4;	-14.4191
▁рош	-14.4192
▁Лати	-14.4194
▁уйда	-14.4194
иба	-14.4195
os	-14.4205
▁уйб	-14.4212
▁Part	-14.4214
▁llu	-14.4219
ыяз	-14.4228
роф	-14.423
▁риев	-14.4233
▁ассе	-14.4238
лот	-14.424
IA	-14.4248
EX	-14.4249
▁SU	-14.4261
▁PR	-14.4262
▁одмо	-14.4317
хаб	-14.4317
▁амим	-14.4332
инь	-14.4341
▁здо	-14.4369
▁Del	-14.4379
ews	-14.4381
AZ	-14.4382
ажуд	-14.4392
▁рыц	-14.4397
АД	-14.4408
▁пачк	-14.4424
обо	-14.4428
▁уци	-14.4471
▁зуур	-14.4472
▁Пот	-14.4481
ляц	-14.4484
▁ерпи	-14.4486
▁Bre	-14.4487
pu	-14.4489
▁шамп	-14.4524
▁реве	-14.454
▁еня	-14.4564
боз	-14.4574
▁омс	-14.4583
вай	-14.4593
ap	-14.4596
co	-14.4598
▁ржи	-14.4603
▁ебел	-14.4606
IL	-14.4611
ору	-14.4615
ебе	-14.4619
▁нье	-14.4626
ran	-14.4628
▁Ste	-14.4629
жник	-14.4632
ı	-14.4635
▁Hel	-14.4643
▁едик	-14.4661
туп	-14.4677
▁Fo	-14.4677
ДП	-14.4701
жай	-14.4724
1"	-14.4734
▁is	-14.4734
афар	-14.4738
▁Дик	-14.475
▁ex	-14.475
▁дух	-14.4751
v	-14.4772
▁уфи	-14.4803
▁амя	-14.4806
nf	-14.4813
▁лев	-14.4823
▁Шук	-14.4834
▁обур	-14.485
▁ежд	-14.485
va	-14.4857
▁Fe	-14.4863
умма	-14.4867
ВО	-14.4868
ивхт	-14.4878
рез	-14.4905
▁улф	-14.4906
▁wa	-14.4911
вро	-14.4913
▁ушка	-14.4921
ter	-14.4923
▁уфа	-14.493
ar	-14.4933
▁сунд	-14.4951
ard	-14.4981
▁f	-14.4983
▁уст	-14.4988
rni	-14.499
ss	-14.5
▁урик	-14.5003
▁урх	-14.5008
▁Vo	-14.5055
▁Ad	-14.507
▁шю	-14.508
▁МИ	-14.5081
▁mpi	-14.5082
▁MS	-14.5082
▁ерх	-14.5085
ГУ	-14.5085
/	-14.5093
ТИ	-14.51
▁Ev	-14.51
▁CAS	-14.5103
▁ir	-14.5113
▁AL	-14.5117
▁пкин	-14.5118
Ив	-14.512
pe	-14.5122
▁Ju	-14.5128
ОМ	-14.5129
BS	-14.5135
ilm	-14.5142
=	-14.5142
️	-14.5142
▁DDo	-14.5142
▁ырьё	-14.5142
▁time	-14.5143
▁mch	-14.5143
▁Boz	-14.5143
▁bar	-14.5143
▁sity	-14.5144
▁sni	-14.5144
▁эцян	-14.5144
▁Лутф	-14.5146
▁Рож	-14.5148
▁грэ	-14.5149
▁уэрт	-14.5152
▁sar	-14.5155
▁аухи	-14.5157
▁AZ	-14.5159
▁слим	-14.5159
▁авзо	-14.516
ТК	-14.5162
▁шаңы	-14.5166
▁осфор	-14.5169
▁gro	-14.5169
▁Cru	-14.5169
▁нефр	-14.5171
▁sy	-14.5175
▁ncia	-14.5175
▁ria	-14.5179
▁Фоз	-14.518
▁ензо	-14.5185
эс	-14.5188
▁валь	-14.5188
▁At	-14.5191
▁533	-14.5198
▁грив	-14.5203
▁РТР	-14.5207
▁иэт	-14.5207
▁(9	-14.5209
▁енош	-14.5212
Иш	-14.5217
▁ухай	-14.5217
▁3:	-14.5218
▁оджа	-14.5218
льва	-14.5219
▁велл	-14.5223
▁Ысы	-14.5224
▁6;	-14.5225
iga	-14.5226
▁шафт	-14.5227
▁ирми	-14.523
▁lik	-14.5234
▁ерзи	-14.5245
▁СДП	-14.5248
▁хли	-14.5248
▁Ind	-14.5251
▁Avi	-14.5253
▁632	-14.5264
▁чини	-14.5264
▁езги	-14.5266
жам	-14.5302
▁аңыр	-14.5308
▁алля	-14.5324
MK	-14.5324
PR	-14.533
▁ffi	-14.5339
▁Mat	-14.5343
▁уфу	-14.5345
▁лэр	-14.5355
өч	-14.536
▁ксон	-14.5365
▁ньяк	-14.5366
гус	-14.5407
▁Hab	-14.5416
▁Ala	-14.5419
урха	-14.5436
▁елки	-14.5437
Sh	-14.5439
рамз	-14.5448
AT	-14.5449
▁ржо	-14.545
▁lar	-14.5457
▁уаре	-14.5466
LA	-14.5475
▁шуба	-14.5475
▁han	-14.5483
▁хсо	-14.5484
▁ахара	-14.55
sti	-14.55
▁0:0	-14.5502
▁рова	-14.5507
ood	-14.5511
АО	-14.5518
▁1:1	-14.5525
▁айсо	-14.5537
▁хач	-14.5557
ICE	-14.5561
▁Em	-14.5569
▁Нази	-14.5571
▁МБ	-14.5578
▁KA	-14.559
▁ѳл	-14.5594
▁мах	-14.5608
ухар	-14.5621
▁ницы	-14.563
▁ark	-14.5639
▁нёв	-14.5643
▁авха	-14.5646
▁елла	-14.5647
UP	-14.5656
▁Hi	-14.5658
▁Пей	-14.5671
▁айжа	-14.5671
▁хот	-14.5677
▁Ea	-14.5679
▁met	-14.5688
LR	-14.5694
2;	-14.5703
▁тава	-14.5705
▁ност	-14.5713
▁Hor	-14.5714
▁Wal	-14.5717
▁икбо	-14.5741
▁адия	-14.5742
▁ошт	-14.5754
IS	-14.5757
▁анза	-14.5759
жей	-14.5764
▁пист	-14.5765
▁отов	-14.5775
▁Пик	-14.5777
бах	-14.5807
ьес	-14.5816
▁цов	-14.5818
▁tz	-14.5827
tt	-14.5832
▁ET	-14.584
ein	-14.5842
▁есер	-14.587
▁рпед	-14.5874
▁ород	-14.5877
▁Яз	-14.5889
РК	-14.5889
▁ЕЭ	-14.5892
▁ожер	-14.5898
ud	-14.5902
АН	-14.5903
жин	-14.5914
ыбы	-14.5917
▁кВ	-14.5922
▁Тою	-14.5935
▁само	-14.5936
▁шой	-14.5942
▁брах	-14.5949
▁шыпа	-14.595
▁IC	-14.5966
стро	-14.5989
▁Зау	-14.6002
▁орв	-14.6004
▁КЖ	-14.6009
апка	-14.6029
▁эль	-14.6045
▁отче	-14.6063
▁Ele	-14.6069
▁Фре	-14.6076
▁киф	-14.6081
мё	-14.6083
еӊ	-14.6084
▁акф	-14.6088
▁1-	-14.609
▁del	-14.6098
тье	-14.6102
▁улуг	-14.6102
rda	-14.6108
▁GM	-14.6109
sy	-14.6116
▁яти	-14.6158
▁Ge	-14.616
энд	-14.6182
аха	-14.6199
▁Fr	-14.6232
▁Бюр	-14.6232
▁Мос	-14.6239
▁ажиб	-14.6248
▁wi	-14.6249
рафи	-14.625
▁Pi	-14.6267
▁иммо	-14.6307
▁азво	-14.6309
▁ler	-14.6332
▁Mah	-14.6388
▁ПС	-14.639
ДС	-14.6393
жно	-14.64
no	-14.6405
uro	-14.6407
▁sse	-14.6436
MM	-14.6438
RO	-14.6439
▁je	-14.644
▁СК	-14.6441
▁райм	-14.6447
▁nte	-14.6473
▁тоти	-14.6478
▁All	-14.6482
▁Ору	-14.6487
▁ёрн	-14.6491
ОР	-14.6498
ффор	-14.6509
▁Arm	-14.651
▁Wel	-14.6549
сфа	-14.655
del	-14.6556
жет	-14.6571
ѳз	-14.6576
▁IL	-14.6586
лащ	-14.6588
орпо	-14.6588
▁няз	-14.6591
▁ovi	-14.6605
▁аадат	-14.6608
▁Et	-14.6615
▁IA	-14.6636
OR	-14.6637
ş	-14.6639
ng	-14.664
▁Qu	-14.6648
ѳр	-14.6654
▁рэд	-14.6658
▁CH	-14.6663
сир	-14.6677
вле	-14.6706
▁kt	-14.6708
▁олта	-14.6712
ифф	-14.6719
бос	-14.6729
▁Пис	-14.6736
▁роти	-14.6739
ms	-14.6744
▁SI	-14.6752
▁имур	-14.6771
▁ИР	-14.6775
DF	-14.6783
▁ı	-14.6783
▁Nu	-14.6784
▁LL	-14.6789
+1	-14.6792
▁юд	-14.6794
+	-14.6796
▁OF	-14.6797
8;	-14.6798
ДР	-14.6798
ПГ	-14.6799
энх	-14.6803
утю	-14.6804
овщ	-14.6809
¬	-14.6809
•	-14.6809
▪	-14.6809
▁gies	-14.6809
▁pro	-14.6809
▁lev	-14.6809
▁Haw	-14.6809
▁RUS	-14.6809
▁Petr	-14.6809
▁zon	-14.6809
▁day	-14.6809
▁Law	-14.6809
▁оуэн	-14.681
▁her	-14.681
▁Oce	-14.681
▁лэш	-14.681
▁eva	-14.6811
▁Play	-14.6811
▁езос	-14.6813
▁нцзя	-14.6814
▁mes	-14.6816
▁TY	-14.6817
▁тоңот	-14.6818
рево	-14.6821
▁Book	-14.6822
▁ndu	-14.6822
▁Нинь	-14.6823
▁Wei	-14.6823
▁RO	-14.6824
▁КОВ	-14.6825
▁Ham	-14.6828
▁99,	-14.6831
▁шриф	-14.6831
▁rne	-14.6833
▁пазо	-14.6836
▁вание	-14.6837
▁Роб	-14.6842
▁рауз	-14.6842
▁Conc	-14.6842
▁иври	-14.6843
▁lla	-14.6843
▁йцев	-14.6846
▁Shu	-14.6847
▁lut	-14.6848
▁Ser	-14.6852
▁Лив	-14.6856
▁анци	-14.6858
▁Disc	-14.686
мѳ	-14.6863
▁аммо	-14.6863
▁аляв	-14.6865
▁ниё	-14.6865
▁ебри	-14.6873
▁рлен	-14.6879
▁нзор	-14.688
▁чтем	-14.6881
▁ерхи	-14.6882
▁уфе	-14.6883
▁рцо	-14.6888
ver	-14.6898
ens	-14.6901
▁ирчи	-14.6904
▁ntic	-14.6905
H	-14.691
AW	-14.6913
▁Die	-14.6915
▁щи	-14.6916
▁енз	-14.6926
▁Цю	-14.6926
▁агир	-14.6926
▁(6	-14.693
▁ms	-14.6933
▁зеки	-14.6935
KG	-14.6941
▁52,	-14.6944
ельс	-14.6946
ецк	-14.6951
▁зве	-14.6955
▁лобо	-14.6962
▁одж	-14.6966
▁Ваз	-14.6966
US	-14.6968
▁SM	-14.6978
▁ребе	-14.6982
ars	-14.6983
▁ув	-14.6987
▁Tre	-14.6996
▁Рико	-14.7004
▁елос	-14.7011
▁ea	-14.7012
▁ычуа	-14.7015
▁ащи	-14.7018
▁tan	-14.702
▁WP	-14.7026
▁дво	-14.7029
▁fi	-14.704
▁едут	-14.7042
▁эйк	-14.7043
▁ихти	-14.7047
rry	-14.7051
▁ирө	-14.7052
▁Za	-14.7053
OV	-14.7063
шоу	-14.7064
▁ЖИ	-14.7082
▁УЕ	-14.7087
▁ереб	-14.7088
▁Пом	-14.7093
▁ЖКК	-14.7102
▁евит	-14.7107
▁Hol	-14.711
▁рэг	-14.7112
ong	-14.7117
TD	-14.7119
▁руб	-14.7121
схе	-14.7134
▁Отч	-14.7137
OM	-14.7145
ерме	-14.7147
Ми	-14.7156
ДИ	-14.7167
lc	-14.7169
▁вази	-14.7173
▁мбро	-14.7176
AS	-14.7185
▁ехти	-14.7189
▁фест	-14.7191
▁Поп	-14.7194
хло	-14.72
▁WT	-14.7206
▁ust	-14.7214
▁омер	-14.7216
▁СС	-14.7232
▁ийме	-14.7234
▁(3	-14.7235
эст	-14.7236
▁янж	-14.7238
▁Лам	-14.7241
▁иуд	-14.7241
▁Цен	-14.7245
ийки	-14.7262
▁ИА	-14.7274
8,	-14.7283
▁Ter	-14.7286
дум	-14.7297
▁uc	-14.7299
▁Гас	-14.7313
▁ep	-14.7316
▁ner	-14.7318
▁реф	-14.7325
▁шапа	-14.7329
▁Lib	-14.7347
УР	-14.7351
▁Рив	-14.7367
▁хака	-14.7378
▁ечки	-14.7382
▁ndi	-14.7389
▁илю	-14.7389
▁Чжо	-14.74
▁br	-14.7411
▁нная	-14.7411
▁nom	-14.7414
▁Гила	-14.7415
хай	-14.7422
▁укян	-14.7437
▁ансе	-14.744
▁Ром	-14.7461
▁Хиз	-14.7463
▁go	-14.7465
мбри	-14.7466
▁SO	-14.748
▁орег	-14.7496
сф	-14.7502
▁пени	-14.752
▁ren	-14.7527
ФП	-14.7549
▁леха	-14.7577
▁етче	-14.7584
rp	-14.7591
ува	-14.7593
▁фф	-14.7596
▁шаңг	-14.7599
▁липс	-14.7607
фит	-14.7633
▁ориц	-14.7637
▁Zh	-14.7638
▁Wr	-14.7648
▁pl	-14.7655
▁ey	-14.7659
▁AC	-14.7662
▁олча	-14.7667
▁ицил	-14.7668
▁Опур	-14.7673
▁Саз	-14.7677
▁Mad	-14.768
▁Шиш	-14.7683
спи	-14.7695
▁Tea	-14.7707
pt	-14.7711
AC	-14.7734
ps	-14.7753
▁маку	-14.7757
▁rbe	-14.7762
▁амыз	-14.7772
▁Тед	-14.7783
▁ухг	-14.7832
▁rg	-14.7863
▁Коли	-14.7872
▁рост	-14.7876
lt	-14.7903
▁рож	-14.7904
▁уңка	-14.7909
▁ТУ	-14.795
рес	-14.7951
зод	-14.7995
ахта	-14.7996
ht	-14.8004
▁Шарм	-14.8028
▁рмос	-14.8035
▁БАА	-14.8073
▁Cou	-14.8081
omp	-14.8087
бил	-14.8106
▁ираз	-14.811
▁илов	-14.8111
▁Ver	-14.8113
▁ырса	-14.8144
ol	-14.8162
сё	-14.818
▁ашие	-14.8182
▁bl	-14.8191
СТ	-14.8213
▁Шэ	-14.8217
lem	-14.822
oy	-14.8234
▁Reg	-14.8273
▁икун	-14.8275
▁абри	-14.8275
ice	-14.8277
▁Tu	-14.8288
▁tes	-14.8292
ndu	-14.8298
lle	-14.8316
фос	-14.8344
▁Gre	-14.8347
▁HA	-14.8357
▁eti	-14.836
▁неве	-14.8395
ББ	-14.8438
▁жева	-14.8443
эдли	-14.8445
▁Chi	-14.8449
▁Диз	-14.8454
▁Dis	-14.8456
Ch	-14.8458
▁NO	-14.846
▁ell	-14.8465
▁Sea	-14.8486
▁Met	-14.849
▁Mer	-14.8505
гуш	-14.8511
▁mba	-14.8536
▁sit	-14.8559
▁tm	-14.8567
▁Sto	-14.8568
ахар	-14.8573
▁NT	-14.8585
гѳ	-14.8586
▁юб	-14.8587
▁ѳѳ	-14.86
▁нелл	-14.8605
▁An	-14.8611
▁Sm	-14.8629
гис	-14.8638
▁CS	-14.8646
▁YD	-14.8651
▁HR	-14.868
▁Qa	-14.868
юме	-14.8692
▁ижне	-14.8698
▁евил	-14.8699
▁x	-14.8708
▁bor	-14.8712
▁ллю	-14.8716
ash	-14.8719
ЛА	-14.8722
▁энди	-14.8726
lus	-14.8741
ke	-14.8744
▁Bur	-14.875
соф	-14.878
одж	-14.8782
IRF	-14.8785
АДА	-14.8788
▁коом	-14.8791
▁ноко	-14.8802
орбо	-14.8804
ГД	-14.8808
▁Pla	-14.8809
ö	-14.8809
▁НИАН	-14.8809
▁ѳргѳ	-14.8809
▁ѳткѳ	-14.8809
▁Paper	-14.8809
▁POL	-14.8809
▁Emb	-14.8809
▁VOA	-14.8809
▁Aren	-14.8809
▁nfo	-14.8809
▁hel	-14.8809
▁UND	-14.8809
ew	-14.8809
▁kyz	-14.8809
loop	-14.8809
▁info	-14.8809
▁Ukr	-14.881
▁stry	-14.881
▁агда	-14.881
▁SER	-14.881
▁Цзю	-14.881
▁ызаа	-14.881
▁ics	-14.881
▁Clu	-14.881
▁ФАТ	-14.881
▁Цева	-14.8811
▁ndy	-14.8811
▁Engi	-14.8811
▁tty	-14.8811
▁que	-14.8811
▁ç	-14.8814
▁ѳгѳ	-14.8814
▁Ёң	-14.8814
▁qui	-14.8814
▁Fer	-14.8814
▁BP	-14.8815
▁Kl	-14.8816
▁rus	-14.8817
▁FM	-14.8819
port	-14.882
есла	-14.8824
▁КУУ	-14.8824
ЭП	-14.8827
сква	-14.883
▁rni	-14.8834
▁Гиё	-14.8834
▁Вите	-14.8836
▁Порт	-14.8836
▁jin	-14.8839
▁Sn	-14.8842
CK	-14.8842
Гц	-14.8849
▁Шаве	-14.8852
▁Зей	-14.8852
▁асру	-14.8854
▁маң	-14.8855
лён	-14.8856
юб	-14.8861
▁АУ	-14.8862
▁обро	-14.8862
▁аңшы	-14.8863
▁ирму	-14.8864
▁урши	-14.8868
▁люст	-14.8874
▁ппен	-14.8877
▁ѳзү	-14.8877
зис	-14.888
▁Цир	-14.8881
хау	-14.8882
▁рица	-14.8893
▁23;	-14.8898
▁рщ	-14.8912
амза	-14.892
▁фели	-14.892
▁етто	-14.8921
▁вши	-14.8922
▁нвэн	-14.8925
-1	-14.8929
pp	-14.8938
ышат	-14.8939
▁Ke	-14.8941
oc	-14.895
▁шеф	-14.8953
▁ee	-14.8962
▁аньс	-14.8969
▁pi	-14.8969
▁hon	-14.8975
▁Бри	-14.8975
▁Inf	-14.8976
▁треб	-14.8978
▁404	-14.8978
▁29,	-14.898
▁уху	-14.8992
▁Яв	-14.8994
▁БАР	-14.8996
рба	-14.8996
▁идая	-14.9
▁шаф	-14.9008
▁con	-14.9008
▁аффе	-14.9011
▁PO	-14.9014
▁hom	-14.9015
▁рэй	-14.9016
▁Лиф	-14.9017
ММ	-14.9018
нѳ	-14.9024
▁елчи	-14.9025
▁авлу	-14.9025
▁CAM	-14.9026
▁Bel	-14.9027
▁ОМ	-14.904
ini	-14.9041
▁унь	-14.9044
▁518	-14.905
▁hol	-14.9058
▁Ode	-14.9061
▁енсу	-14.9063
▁риль	-14.9066
▁едиз	-14.907
▁рици	-14.9071
▁еть	-14.9072
▁log	-14.9073
9;	-14.9074
▁уфер	-14.9074
Бу	-14.9077
▁mu	-14.9088
▁gem	-14.9095
ями	-14.9098
▁1:2	-14.9116
TS	-14.9126
▁вих	-14.9134
▁Тум	-14.9143
▁Гарм	-14.9146
▁rom	-14.9151
род	-14.9153
ьез	-14.9155
▁tti	-14.9183
▁lk	-14.9184
▁Sil	-14.9188
hi	-14.9199
▁ТАР	-14.9205
▁акша	-14.9206
▁арино	-14.9219
▁(5	-14.922
▁Doc	-14.922
▁9:	-14.9222
▁AB	-14.9224
▁IDE	-14.9233
▁ГР	-14.9249
▁ЖА	-14.925
ньо	-14.9252
▁Чад	-14.9255
▁ANO	-14.9268
▁этме	-14.9271
▁rea	-14.9279
▁улж	-14.9295
дѳ	-14.9303
▁ѳй	-14.9304
ky	-14.9305
▁рэв	-14.9305
омто	-14.9307
man	-14.9314
▁илав	-14.9321
eb	-14.9323
▁озор	-14.9324
▁стве	-14.9324
▁атьк	-14.9334
▁вей	-14.9339
▁лево	-14.9347
▁bun	-14.9348
UC	-14.936
Ат	-14.936
▁кром	-14.9362
▁лото	-14.9366
▁енно	-14.9386
▁граж	-14.9394
нха	-14.9396
УК	-14.9398
▁КЭК	-14.9405
▁dem	-14.9407
▁инж	-14.9415
▁Дис	-14.9418
▁KI	-14.9425
▁Ира	-14.9431
▁эйн	-14.9433
▁льяз	-14.9434
▁ульт	-14.9436
АМ	-14.9453
ab	-14.9464
▁пафо	-14.9468
ИЯ	-14.9473
▁Уни	-14.9473
▁CE	-14.9481
▁ern	-14.9501
5;	-14.9504
▁ap	-14.9513
▁DE	-14.9532
▁rn	-14.9536
▁шем	-14.9553
▁сиӊ	-14.9585
▁аред	-14.9591
▁Il	-14.9592
гил	-14.9594
▁ливе	-14.9608
▁ѳр	-14.9636
▁Tür	-14.9645
▁ive	-14.9645
▁Зна	-14.9649
▁nze	-14.966
▁ртю	-14.9664
▁шиф	-14.9675
lf	-14.9686
▁Kat	-14.9697
uu	-14.9708
et	-14.9712
▁(2	-14.9713
▁JA	-14.9713
жуво	-14.9714
▁тья	-14.9731
q	-14.9733
▁BC	-14.9744
▁меню	-14.9758
▁Ae	-14.9784
▁Цар	-14.9792
▁енци	-14.9795
▁рюк	-14.98
▁асип	-14.9801
нзя	-14.9818
CT	-14.9842
▁отос	-14.9866
▁аваз	-14.9882
▁AD	-14.9896
▁рлис	-14.9904
▁гист	-14.9918
▁Bion	-14.992
▁вя	-14.992
▁WE	-14.9947
▁Пит	-14.9949
sc	-14.9954
▁декс	-14.9963
OO	-14.9972
юд	-14.9978
▁SADA	-14.9982
▁Ken	-15.0001
олит	-15.002
▁IR	-15.0055
▁TA	-15.0058
▁oi	-15.0062
by	-15.0067
лих	-15.0085
▁МВ	-15.0091
ui	-15.0091
▁і	-15.0106
ЧК	-15.0125
ie	-15.0145
▁енаш	-15.0148
ot	-15.0156
▁("	-15.0156
▁рло	-15.0163
ИГИ	-15.017
▁MA	-15.0172
▁умке	-15.02
▁dell	-15.0206
▁ахты	-15.0215
▁Yu	-15.0256
вази	-15.0257
ko	-15.0258
БИ	-15.0259
▁ийг	-15.0299
ü	-15.0304
▁MB	-15.0323
▁УС	-15.0328
▁Чон	-15.0329
▁иӊ	-15.0343
DAT	-15.0348
ox	-15.0353
0;	-15.0363
▁прив	-15.0391
▁яки	-15.0414
▁чейи	-15.0434
▁IF	-15.0439
th	-15.0439
AK	-15.0468
▁утц	-15.0482
▁чоту	-15.0498
Я	-15.0505
▁rm	-15.0507
разе	-15.0507
дня	-15.051
▁чача	-15.0524
CC	-15.0527
▁идж	-15.0541
▁раты	-15.0545
олто	-15.0576
▁атму	-15.0595
▁Хак	-15.0608
▁Ыш	-15.061
НИ	-15.061
▁рё	-15.062
▁орри	-15.0635
oz	-15.0653
▁СО	-15.0663
▁Stra	-15.068
▁офи	-15.0707
▁ML	-15.0709
▁BI	-15.0732
▁воз	-15.0734
uss	-15.0746
рсбо	-15.0764
ИКА	-15.0777
▁Sam	-15.0822
▁On	-15.083
▁Bul	-15.0841
bd	-15.0855
▁TN	-15.0869
ийри	-15.0869
▁med	-15.0893
▁tt	-15.09
▁инав	-15.091
ja	-15.0914
▁edi	-15.0935
sk	-15.0936
▁алав	-15.0955
▁fas	-15.098
▁Доо	-15.0984
▁AG	-15.0998
НА	-15.0999
ВА	-15.1004
▁Tou	-15.1005
▁нх	-15.1047
▁nj	-15.1049
▁Id	-15.1067
▁юэл	-15.1073
▁Cope	-15.1076
ТО	-15.1079
РИ	-15.108
▁Cu	-15.1091
▁несс	-15.1107
руж	-15.1126
▁улх	-15.1131
as	-15.117
ленг	-15.117
ye	-15.1177
▁str	-15.1178
хра	-15.1188
УБ	-15.1207
▁Гост	-15.1213
ИЗ	-15.1215
▁War	-15.1234
ima	-15.1241
▁елод	-15.1252
lly	-15.1254
▁орх	-15.1257
▁рыйб	-15.1258
рэн	-15.1263
▁BA	-15.1277
▁Con	-15.1285
▁СВ	-15.1289
ə	-15.1292
▁ik	-15.1296
ЛДП	-15.1296
ТП	-15.13
tel	-15.13
In	-15.1301
САГ	-15.1301
ащ	-15.1302
Pu	-15.1302
lea	-15.1305
BO	-15.1308
BR	-15.1308
dd	-15.1309
©	-15.1309
́	-15.1309
▁world	-15.1309
▁Гюго	-15.1309
▁ѳзгѳ	-15.1309
▁PTI	-15.1309
mbo	-15.1309
▁KOI	-15.1309
NAM	-15.1309
▁Qata	-15.1309
▁yev	-15.1309
▁Web	-15.1309
▁Mobi	-15.1309
▁ЦАРИ	-15.1309
▁ГУ	-15.1309
ЭТ	-15.1309
▁Link	-15.1309
▁GET	-15.1309
▁Info	-15.1309
▁KL	-15.1309
▁Vill	-15.1309
▁gma	-15.131
▁TAN	-15.131
▁tov	-15.131
▁SK	-15.131
▁tte	-15.1311
▁(2)	-15.1311
fy	-15.1311
▁deo	-15.1311
▁ğ	-15.1311
▁Ң	-15.1311
▁SH	-15.1312
▁oli	-15.1312
▁Civi	-15.1312
▁Pra	-15.1313
▁dan	-15.1313
▁role	-15.1314
ГЕ	-15.1314
ГЫ	-15.1314
▁Up	-15.1314
▁Spo	-15.1315
▁Bit	-15.1316
▁IW	-15.1317
▁tock	-15.132
▁трящ	-15.1321
▁Pass	-15.1322
KP	-15.1322
▁Шол	-15.1322
▁Arch	-15.1323
▁Out	-15.1324
▁Цех	-15.1325
mv	-15.1327
▁Pan	-15.1329
▁fy	-15.1329
▁Hist	-15.133
▁НЦ	-15.1331
хир	-15.1333
▁озду	-15.1336
▁my	-15.1339
▁ДАТ	-15.134
▁ыжыг	-15.1343
▁Cho	-15.1344
DB	-15.1345
▁ежак	-15.1347
▁удой	-15.1349
▁энкс	-15.135
елос	-15.1351
▁Nexi	-15.1351
▁ngs	-15.1353
▁юсу	-15.1355
▁ЛГ	-15.1356
▁nga	-15.1361
▁Тозо	-15.1361
▁Чурк	-15.1364
▁жахо	-15.1365
▁Dary	-15.1369
▁нищ	-15.1375
пор	-15.1376
▁Shi	-15.1376
▁езур	-15.1376
▁art	-15.138
USA	-15.138
эли	-15.1381
▁Зеб	-15.1384
CHA	-15.1386
▁Нави	-15.1386
тая	-15.1389
▁еща	-15.1394
▁елфи	-15.1397
▁Ant	-15.1398
▁ежур	-15.1399
▁Kor	-15.1407
▁as	-15.141
вита	-15.1412
анхэ	-15.1413
ope	-15.1415
люз	-15.1417
▁GA	-15.1421
▁якон	-15.1425
▁mpir	-15.143
▁цзин	-15.1435
▁Bot	-15.1435
▁ощи	-15.1436
cı	-15.1437
▁Яң	-15.1444
▁урей	-15.1453
▁ПМ	-15.1457
▁tra	-15.146
mp	-15.146
▁mov	-15.1462
▁lus	-15.1465
▁леви	-15.1465
▁7-	-15.1467
▁wer	-15.147
▁Kay	-15.1472
▁Or	-15.1475
▁Рая	-15.1481
▁Тың	-15.1485
▁ju	-15.1489
▁ифти	-15.1492
ДМ	-15.1498
фин	-15.1499
OTO	-15.1505
▁7:	-15.151
▁ронх	-15.1511
AM	-15.1512
▁ser	-15.1513
уси	-15.1519
ень	-15.1526
▁аунт	-15.1527
▁нафт	-15.153
▁ицот	-15.1534
▁ӊг	-15.1541
un	-15.1547
▁хром	-15.1554
▁ЖККБ	-15.156
▁рэнд	-15.1571
▁nji	-15.1576
▁зире	-15.1585
сси	-15.1598
▁ирья	-15.1602
▁ИП	-15.1603
▁Jum	-15.1607
lk	-15.1615
WS	-15.1623
ѳлѳ	-15.1625
▁bab	-15.1631
▁ыйны	-15.1633
▁nne	-15.1634
UPE	-15.1639
▁lu	-15.1639
▁Fir	-15.1644
PO	-15.1661
▁3-	-15.1664
▁Dr	-15.1665
▁лохо	-15.1668
▁5:	-15.1676
▁yo	-15.1677
▁Ag	-15.1685
▁ахин	-15.1692
▁шмо	-15.1692
ОС	-15.1693
▁общ	-15.1698
rch	-15.1702
брид	-15.1705
▁ins	-15.1712
met	-15.1722
нуэл	-15.1728
▁ACE	-15.174
▁BU	-15.1748
ӊг	-15.175
▁Par	-15.1752
▁pol	-15.1759
▁Шаб	-15.1761
ESS	-15.1777
▁Ger	-15.178
мь	-15.1782
▁Уэл	-15.1804
▁zin	-15.181
Эр	-15.1815
▁Des	-15.1817
▁Kib	-15.1838
аңс	-15.1838
EV	-15.1846
▁УЛ	-15.186
куль	-15.1864
▁цю	-15.1865
▁fo	-15.1872
▁итиг	-15.1884
▁ros	-15.1892
▁фрид	-15.1898
▁лха	-15.1906
дье	-15.1935
▁Mos	-15.1935
БЖ	-15.1949
ff	-15.1953
▁грес	-15.1959
▁roma	-15.196
▁stri	-15.1963
▁осет	-15.1975
▁Рит	-15.1978
ших	-15.1985
орг	-15.1992
▁Taz	-15.1996
рози	-15.2002
▁лово	-15.2006
▁ЕС	-15.2006
▁елха	-15.2007
▁mbe	-15.2017
▁раль	-15.2032
▁мост	-15.2037
уру	-15.2043
▁юрт	-15.2054
мба	-15.2067
▁IRC	-15.2067
▁IFE	-15.2075
Ел	-15.2085
▁заң	-15.2097
▁tec	-15.2125
ую	-15.2128
СА	-15.2129
Жо	-15.213
ому	-15.2134
▁ыябы	-15.2137
▁рфа	-15.2142
▁rma	-15.2156
▁he	-15.2162
▁su	-15.2167
ъяс	-15.2171
фур	-15.2174
▁rf	-15.2176
Аз	-15.2177
▁ерье	-15.2196
▁ФС	-15.221
слав	-15.2213
▁ТЭ	-15.2214
▁раши	-15.2217
▁Дост	-15.2219
лпек	-15.2226
▁TE	-15.2228
ost	-15.2232
▁sco	-15.2241
▁инх	-15.2249
НТ	-15.2251
Эй	-15.2262
▁уэн	-15.2275
ляд	-15.2276
▁ауф	-15.2282
PI	-15.2288
▁илиг	-15.2324
очто	-15.2324
▁шех	-15.2326
▁Chil	-15.234
VP	-15.2347
▁шии	-15.2348
▁мфи	-15.2352
▁tar	-15.2374
йра	-15.2376
▁Ari	-15.2392
pi	-15.2398
▁ембо	-15.2401
▁Cr	-15.2409
▁Сог	-15.2414
▁gha	-15.2417
▁лиоз	-15.2422
ür	-15.2425
▁винг	-15.243
▁назир	-15.2436
▁od	-15.2443
ine	-15.245
▁vac	-15.2451
▁ТИ	-15.2456
▁Нога	-15.2459
цци	-15.2475
саф	-15.2482
▁инкс	-15.2505
▁ньо	-15.2534
▁шури	-15.2539
▁вадж	-15.2568
▁уйв	-15.2569
▁шиха	-15.2577
▁Cit	-15.2589
▁Хел	-15.2589
▁dai	-15.2599
▁ейх	-15.2602
▁окос	-15.2607
▁дүйн	-15.2633
▁Tab	-15.2652
▁AM	-15.2669
NS	-15.2685
EA	-15.2689
▁Гуп	-15.2715
суну	-15.2736
ear	-15.2741
▁bur	-15.2743
▁Хаз	-15.2762
OW	-15.2768
▁глас	-15.2772
ili	-15.2789
▁lib	-15.2807
▁Pea	-15.2811
▁tur	-15.2816
оци	-15.2817
▁ящи	-15.2823
▁ind	-15.2843
▁шеми	-15.2862
▁PE	-15.2882
▁икло	-15.2892
SP	-15.2893
▁ризо	-15.2905
хим	-15.2906
▁My	-15.2908
▁афис	-15.2959
▁урян	-15.2971
▁Bal	-15.2985
НБ	-15.3021
po	-15.3022
▁mpo	-15.3022
▁адру	-15.3029
sf	-15.3031
▁Чий	-15.3046
▁OR	-15.3054
▁Shar	-15.3072
▁мих	-15.3083
▁норе	-15.3083
▁Moo	-15.3112
▁Zon	-15.3125
VII	-15.3144
▁алхи	-15.316
▁афак	-15.3168
▁sc	-15.318
▁люб	-15.3181
▁хоп	-15.3184
▁нвен	-15.3217
▁Zi	-15.3232
▁Gri	-15.3234
▁Tor	-15.3234
1-	-15.3239
▁ho	-15.3244
▁FE	-15.3271
▁све	-15.3276
▁ссен	-15.3276
SC	-15.3282
▁жэн	-15.3283
▁Нис	-15.3304
6;	-15.3313
su	-15.3323
▁bu	-15.3342
▁DO	-15.3343
ОТ	-15.3348
▁nv	-15.3353
▁Hur	-15.3363
▁Хаб	-15.3365
▁rr	-15.3379
йфе	-15.338
▁nz	-15.3411
ST	-15.3439
ИР	-15.3473
▁речу	-15.3477
▁rl	-15.3477
▁EA	-15.3483
▁May	-15.3485
▁усра	-15.3487
ies	-15.3502
▁qa	-15.3512
▁hou	-15.3524
▁уха	-15.3538
lb	-15.3544
▁Ul	-15.3548
өктө	-15.3548
try	-15.356
bn	-15.3576
▁охб	-15.3586
вей	-15.3595
▁tou	-15.362
▁Ur	-15.3625
▁ѳт	-15.3626
▁Sou	-15.3641
▁ari	-15.3679
үндѳ	-15.368
it	-15.3712
▁Ap	-15.3719
▁Bl	-15.3727
▁атту	-15.3734
7;	-15.3747
РА	-15.3752
▁IB	-15.3753
arm	-15.3756
IK	-15.3761
▁ейби	-15.3774
ТТ	-15.3784
▁CI	-15.3785
▁Лот	-15.3787
RD	-15.3787
АУ	-15.3796
▁LIN	-15.3822
▁ерво	-15.3826
AA	-15.3843
▁rda	-15.3852
▁елян	-15.3873
юл	-15.3907
оту	-15.3908
ul	-15.3908
ime	-15.3921
▁CN	-15.3928
▁атх	-15.393
ргун	-15.394
▁ku	-15.3971
▁разе	-15.3972
ова	-15.3977
yo	-15.4014
▁Sca	-15.4028
ris	-15.4038
▁mas	-15.4043
EK	-15.4054
▁Un	-15.4057
ral	-15.4059
dle	-15.4088
▁kar	-15.4095
▁Car	-15.4098
nh	-15.4114
▁ssa	-15.4132
▁mb	-15.4136
▁рибо	-15.4156
акц	-15.4161
▁Ye	-15.4162
sta	-15.4197
rf	-15.4204
ИЛ	-15.4218
яшко	-15.4244
▁nco	-15.4262
ip	-15.4269
▁раис	-15.4274
▁BN	-15.4284
▁Ori	-15.4289
▁Peo	-15.4294
▁вся	-15.4295
▁4-	-15.4296
▁Jas	-15.4321
go	-15.4333
tock	-15.4334
чѳ	-15.4341
▁Швар	-15.4345
▁SC	-15.4347
RM	-15.4357
▁RFI	-15.4396
ляр	-15.4412
вота	-15.4444
▁Йоз	-15.4466
▁pre	-15.4477
нье	-15.449
▁Av	-15.4497
▁ert	-15.45
▁пх	-15.452
▁pri	-15.4523
Ы	-15.4525
▁md	-15.4527
ady	-15.4529
МЕ	-15.4533
▁ФМ	-15.4541
МП	-15.4558
▁Bea	-15.456
ауэ	-15.4564
▁IJ	-15.4587
▁ства	-15.4592
▁ейв	-15.4597
стю	-15.46
OL	-15.4618
ency	-15.4622
iv	-15.4624
é	-15.4625
soo	-15.4626
ا	-15.4627
BI	-15.4627
TY	-15.4628
ju	-15.4629
ѳѳ	-15.4629
For	-15.4629
▁Gro	-15.4629
НЕ	-15.463
ЖАК	-15.463
FM	-15.4631
SO	-15.4631
pl	-15.4635
Au	-15.4635
KA	-15.4637
hr	-15.4638
NEX	-15.4641
УЛ	-15.4641
ku	-15.4642
Ь	-15.4642
ЙД	-15.4642
ق	-15.4642
⁄	-15.4642
→	-15.4642
▁BOOK	-15.4642
▁WWF	-15.4642
▁html	-15.4642
▁ться	-15.4642
▁rnews	-15.4642
▁farm	-15.4642
▁ncil	-15.4642
▁rary	-15.4642
▁MAX	-15.4642
▁lı	-15.4642
▁lber	-15.4642
▁McK	-15.4642
▁Wire	-15.4643
▁Adri	-15.4643
▁EU	-15.4643
▁maj	-15.4643
▁MED	-15.4643
▁HBO	-15.4643
▁TOL	-15.4643
▁Opt	-15.4643
▁XXX	-15.4643
▁ству	-15.4643
▁Epi	-15.4643
▁(4)	-15.4643
▁GIS	-15.4643
▁Osi	-15.4643
▁STR	-15.4643
▁Win	-15.4643
▁Wind	-15.4643
▁NK	-15.4643
▁AFC	-15.4643
EW	-15.4643
▁MMA	-15.4643
▁Vent	-15.4644
▁Stu	-15.4644
▁UNC	-15.4644
▁Cost	-15.4644
▁MD	-15.4644
▁Swi	-15.4644
▁LG	-15.4644
▁Edu	-15.4645
▁СТАН	-15.4645
▁Pal	-15.4645
▁энсис	-15.4645
▁Mind	-15.4645
▁Osh	-15.4645
▁SOC	-15.4646
ряшк	-15.4646
▁ل	-15.4646
▁DU	-15.4646
▁top	-15.4646
▁XV	-15.4647
▁sis	-15.4647
▁бярь	-15.4647
▁ИЗМ	-15.4647
▁tai	-15.4648
▁GC	-15.4648
▁кьяв	-15.4648
▁уэро	-15.4649
▁Oya	-15.4649
▁лужн	-15.4649
IU	-15.465
▁AU	-15.4651
llu	-15.4651
▁SN	-15.4652
▁kit	-15.4653
▁PTV	-15.4654
UL	-15.4654
▁ا	-15.4658
▁lii	-15.4658
КТР	-15.4659
▁юррей	-15.4661
▁смс	-15.4661
FR	-15.4662
ТН	-15.4662
PP	-15.4663
▁рдэн	-15.4665
▁ТЫН	-15.4666
▁ышья	-15.4669
▁Зени	-15.4671
▁ele	-15.4673
▁Глен	-15.4673
▁tvi	-15.4673
▁Sing	-15.4674
▁улва	-15.4675
лкѳ	-15.4676
▁рджи	-15.468
▁şa	-15.4681
RE	-15.4681
▁ирхо	-15.4683
▁TUR	-15.4683
ЖК	-15.4686
▁енха	-15.4687
ЭО	-15.4689
▁Понт	-15.4689
▁румэ	-15.4692
ЛС	-15.4692
▁акГ	-15.4694
КЕ	-15.4697
▁утоп	-15.4698
▁уфра	-15.4699
▁глев	-15.4702
▁Nur	-15.4702
▁eni	-15.4706
▁Ойро	-15.4707
МЮ	-15.4709
▁sub	-15.4711
▁ұр	-15.4711
ГК	-15.4712
УО	-15.4715
▁Ahm	-15.4715
LE	-15.4717
▁деңг	-15.4721
▁Day	-15.4721
▁dy	-15.4724
▁sup	-15.4724
▁19;	-15.4729
igh	-15.4733
▁ЦК	-15.4734
▁Got	-15.4737
үнѳ	-15.474
▁илищ	-15.4753
▁амшы	-15.4754
▁Kill	-15.4755
▁Kr	-15.4757
▁Цит	-15.4763
▁prim	-15.4763
▁инью	-15.4764
▁дсен	-15.4766
▁шугн	-15.4768
▁SID	-15.4771
▁рски	-15.4776
▁вах	-15.4776
тью	-15.4788
▁CER	-15.4791
▁rve	-15.4795
▁Even	-15.4796
▁ғ	-15.4797
▁Лэм	-15.4797
AMC	-15.4798
▁Sidd	-15.4799
▁Hyp	-15.4804
▁13;	-15.4807
▁ердю	-15.481
▁Галло	-15.4817
▁osp	-15.4822
▁mit	-15.4844
▁ксац	-15.4854
▁псте	-15.4859
НО	-15.486
ОВА	-15.4861
▁ger	-15.4865
ADE	-15.4872
es	-15.4896
▁лимф	-15.4897
▁зули	-15.4909
▁Рю	-15.4917
▁СДС	-15.492
▁ТТ	-15.4926
Үй	-15.4927
mon	-15.4932
xa	-15.4938
▁rit	-15.4943
▁васи	-15.4947
▁Шукр	-15.4953
жый	-15.4955
▁роиц	-15.4966
▁мхо	-15.497
юз	-15.4972
▁6:	-15.4973
ыйза	-15.4977
oe	-15.4979
▁Sal	-15.4981
▁Set	-15.4986
▁Smit	-15.4988
АШ	-15.4994
ELL	-15.4994
▁ЕК	-15.4994
▁ауфф	-15.5008
ın	-15.5013
▁Orie	-15.5014
▁флер	-15.5017
▁чокч	-15.5018
▁СМ	-15.502
КИ	-15.5022
▁nsk	-15.5025
▁ИН	-15.5038
UE	-15.5054
ДА	-15.5058
пье	-15.5059
rif	-15.506
FL	-15.5065
вэн	-15.5066
▁lit	-15.507
▁Hop	-15.5072
NT	-15.5078
ьх	-15.5078
▁ще	-15.5081
▁ree	-15.5083
▁Трам	-15.5083
▁Гро	-15.5096
▁04	-15.5099
▁Mich	-15.5119
▁брос	-15.512
▁om	-15.5121
▁эйв	-15.5128
лоб	-15.5136
▁rbi	-15.5166
▁руси	-15.5169
▁Ente	-15.5177
▁Цем	-15.5179
▁CT	-15.5183
şt	-15.5183
▁охит	-15.5185
▁стви	-15.5187
▁vit	-15.5191
HF	-15.5198
▁Insa	-15.522
▁айнур	-15.522
▁пелл	-15.5224
лгѳ	-15.5227
юп	-15.5239
▁Шии	-15.5247
▁АЕ	-15.5264
ахаб	-15.5272
▁ws	-15.5275
▁8-	-15.5279
▁Цаг	-15.5293
▁лищ	-15.5296
▁инь	-15.5299
▁евед	-15.5301
han	-15.5303
▁кѳз	-15.5304
▁хъ	-15.531
▁Daw	-15.5311
▁рюш	-15.5327
▁Ros	-15.5329
▁ожем	-15.5347
sia	-15.5352
▁Od	-15.5353
дпол	-15.5361
▁soo	-15.5371
лег	-15.5377
▁Saf	-15.5399
▁рзин	-15.5399
▁ds	-15.54
SL	-15.5406
TE	-15.5417
▁(7	-15.5423
rbi	-15.5426
SU	-15.5427
etty	-15.5428
СМ	-15.5431
▁sov	-15.5435
MP	-15.5446
udi	-15.5454
hl	-15.5455
▁винт	-15.5457
▁EC	-15.5459
ail	-15.5469
▁NL	-15.547
▁Гид	-15.5495
ях	-15.5514
▁анье	-15.5532
▁Дид	-15.5535
▁мань	-15.5542
▁Лог	-15.5571
nob	-15.5574
CO	-15.5575
CI	-15.5576
▁перв	-15.5577
▁чайз	-15.5581
▁прем	-15.5607
▁io	-15.561
▁ижра	-15.5624
▁илах	-15.5648
▁усте	-15.5666
▁авви	-15.5694
NP	-15.5705
▁Bak	-15.5721
▁sto	-15.5727
▁Dri	-15.5742
ЖИ	-15.5749
эни	-15.5758
▁эйш	-15.5762
▁Foo	-15.5784
▁Sot	-15.5793
▁yn	-15.5803
▁рбит	-15.5819
▁скоб	-15.582
▁Fun	-15.5836
iol	-15.5837
▁MER	-15.5858
жид	-15.586
ЛО	-15.5862
▁Han	-15.5863
▁пах	-15.5872
AB	-15.5881
Оо	-15.5919
убин	-15.594
▁rec	-15.5948
▁иляр	-15.5949
▁ЛК	-15.5957
▁ЭЛ	-15.5959
▁идие	-15.6021
▁воза	-15.6045
▁рвин	-15.6056
Ab	-15.6094
чаң	-15.6107
ост	-15.6136
▁sma	-15.6146
▁Hea	-15.6154
edi	-15.6155
зор	-15.6177
▁Suda	-15.6193
spo	-15.62
9:	-15.6253
есси	-15.6256
▁Липц	-15.6264
▁gin	-15.6276
AF	-15.6306
▁Хао	-15.6317
▁елф	-15.632
слей	-15.636
▁КӨ	-15.6406
▁шымы	-15.6425
лиаф	-15.6426
▁sen	-15.6431
▁KE	-15.6476
▁Her	-15.6487
ite	-15.65
▁гово	-15.6502
ЭЧ	-15.651
▁CAF	-15.6531
лье	-15.6534
▁лех	-15.6553
▁fro	-15.6557
▁воро	-15.656
▁ущ	-15.6574
▁XXVI	-15.6588
атра	-15.6601
▁Pola	-15.6605
▁Вад	-15.6611
rs	-15.6613
мей	-15.6663
ресс	-15.6687
анье	-15.6739
OSA	-15.6739
▁пци	-15.6766
▁Ля	-15.6773
▁алич	-15.6842
RR	-15.6852
▁орфи	-15.6866
▁зеро	-15.6868
▁Пенн	-15.6875
bu	-15.6876
▁роду	-15.6877
are	-15.6886
сте	-15.6956
▁OM	-15.6987
▁Tal	-15.6994
▁Sh	-15.7008
▁одх	-15.711
▁ew	-15.7125
▁бово	-15.7127
сел	-15.7149
FP	-15.7149
▁Sev	-15.7149
TO	-15.7153
▁du	-15.7171
▁ek	-15.719
▁cti	-15.7195
▁tw	-15.72
▁Шкр	-15.7207
▁DI	-15.7217
▁Tol	-15.7218
▁Of	-15.7237
WA	-15.726
стин	-15.7264
RY	-15.7271
▁таху	-15.7285
озво	-15.7295
▁il	-15.73
RC	-15.7307
ДАМ	-15.7326
▁люз	-15.735
▁rgi	-15.7383
тоб	-15.7384
цио	-15.7397
▁lor	-15.7418
▁CEP	-15.7443
▁Bat	-15.7453
▁Эпп	-15.747
▁lim	-15.7489
gro	-15.751
АС	-15.7527
▁Sud	-15.753
▁рочк	-15.7532
eti	-15.7566
SS	-15.7582
▁ерхо	-15.7707
▁Ado	-15.7707
MZ	-15.776
▁Дюк	-15.7767
▁+3	-15.7771
ѳй	-15.7777
my	-15.7825
▁denc	-15.7836
▁au	-15.7867
▁gse	-15.7911
ЫН	-15.7961
▁loo	-15.7985
янь	-15.7988
▁af	-15.801
▁анха	-15.802
▁Rig	-15.8025
ess	-15.8052
▁тоя	-15.8058
▁квин	-15.8077
▁ссон	-15.8082
▁ue	-15.8085
▁mc	-15.8114
CE	-15.8123
▁уэлл	-15.8132
тюр	-15.8143
дъю	-15.8143
БА	-15.8158
▁нейр	-15.8199
ПС	-15.8261
▁Mai	-15.8269
fo	-15.8336
уще	-15.8351
▁ЕА	-15.8358
hu	-15.8384
▁2-	-15.8402
▁осса	-15.8405
▁din	-15.844
rm	-15.8451
▁елоп	-15.8458
▁cin	-15.8467
▁Sar	-15.8484
▁TS	-15.8485
od	-15.8487
MC	-15.8516
ber	-15.8558
▁Don	-15.8559
▁Om	-15.8561
sn	-15.858
ҮН	-15.8582
ЖБ	-15.8586
▁Дав	-15.8598
▁Tec	-15.86
▁SS	-15.8654
fm	-15.8679
▁ляй	-15.8698
▁рив	-15.8705
EF	-15.8753
ливу	-15.8769
▁ажид	-15.8785
▁Pul	-15.88
att	-15.8808
Ок	-15.8838
▁урц	-15.8882
ЦИ	-15.8905
ls	-15.8912
▁FA	-15.8923
▁DR	-15.8931
▁PRE	-15.8933
▁LO	-15.8982
▁Пинк	-15.8982
▁Jam	-15.9007
▁ѳтѳ	-15.9014
▁инха	-15.9018
▁HU	-15.9051
ғ	-15.908
▁$1	-15.9087
▁HP	-15.9093
▁афф	-15.9094
OC	-15.9104
▁TR	-15.9133
фик	-15.9146
ФБ	-15.9152
▁lis	-15.9176
ç	-15.9628
ә	-15.9629
Ѳ	-15.9629
Ö	-15.9642
â	-15.9642
í	-15.9642
ï	-15.9642
љ	-15.9642
Ұ	-15.9642
ҷ	-15.9642
ӏ	-15.9642
و	-15.9642
ُ	-15.9642
―	-15.9642
⁣	-15.9642
●	-15.9642
á	-16.9484
ҳ	-16.9569
ұ	-16.9627
ل	-16.9628
ğ	-16.9629
Ң	-16.9629
$	-16.963
*	-16.963
]	-16.963
ū	-16.9642
ƣ	-16.9642
{	-16.9642
}	-16.9642
£	-16.9642
§	-16.9642
Ñ	-16.9642
ß	-16.9642
ã	-16.9642
ä	-16.9642
è	-16.9642
ñ	-16.9642
ā	-16.9642
ą	-16.9642
Ŋ	-16.9642
Š	-16.9642
ƚ	-16.9642
Ƣ	-16.9642
ʼ	-16.9642
̧	-16.9642
Ђ	-16.9642
Ъ	-16.9642
ђ	-16.9642
ї	-16.9642
ћ	-16.9642
ў	-16.9642
һ	-16.9642
خ	-16.9642
د	-16.9642
ر	-16.9642
ز	-16.9642
ص	-16.9642
ط	-16.9642
ظ	-16.9642
ع	-16.9642
غ	-16.9642
ك	-16.9642
م	-16.9642
ن	-16.9642
ه	-16.9642
ي	-16.9642
ِ	-16.9642
‒	-16.9642
⁠	-16.9642
回	-16.9642
族	-16.9642
昆	-16.9642
ӯ	-16.9642
鬲	-18.1779
韓	-18.178
鄄	-18.1781
堅	-18.1782
ح	-18.1783
Ә	-18.1784
Ç	-18.1785
ʙ	-18.1786
Ü	-18.1787
⠀	-18.1788
İ	-18.1789
Щ	-18.179
Ɵ	-18.1791
Ş	-18.1792
Қ	-18.1793
Ё	-18.1794
­	-18.1795
̆	-18.1796
[	-18.1797
Й	-18.1798
(	-18.1799
