{
  "version": "1.0",
  "truncation": null,
  "padding": null,
  "added_tokens": [
    {
      "id": 0,
      "content": "[UNK]",
      "single_word": false,
      "lstrip": false,
      "rstrip": false,
      "normalized": false,
      "special": true
    },
    {
      "id": 1,
      "content": "[CLS]",
      "single_word": false,
      "lstrip": false,
      "rstrip": false,
      "normalized": false,
      "special": true
    },
    {
      "id": 2,
      "content": "[SEP]",
      "single_word": false,
      "lstrip": false,
      "rstrip": false,
      "normalized": false,
      "special": true
    },
    {
      "id": 3,
      "content": "[PAD]",
      "single_word": false,
      "lstrip": false,
      "rstrip": false,
      "normalized": false,
      "special": true
    },
    {
      "id": 4,
      "content": "[MASK]",
      "single_word": false,
      "lstrip": false,
      "rstrip": false,
      "normalized": false,
      "special": true
    }
  ],
  "normalizer": {
    "type": "Sequence",
    "normalizers": [
      {
        "type": "NFKC"
      },
      {
        "type": "Lowercase"
      }
    ]
  },
  "pre_tokenizer": {
    "type": "Whitespace"
  },
  "post_processor": null,
  "decoder": {
    "type": "WordPiece",
    "prefix": "##",
    "cleanup": true
  },
  "model": {
    "type": "WordPiece",
    "unk_token": "[UNK]",
    "continuing_subword_prefix": "##",
    "max_input_chars_per_word": 100,
    "vocab": {
      "[UNK]": 0,
      "[CLS]": 1,
      "[SEP]": 2,
      "[PAD]": 3,
      "[MASK]": 4,
      "!": 5,
      "\"": 6,
      "#": 7,
      "$": 8,
      "%": 9,
      "&": 10,
      "'": 11,
      "(": 12,
      ")": 13,
      "*": 14,
      "+": 15,
      ",": 16,
      "-": 17,
      ".": 18,
      "/": 19,
      "0": 20,
      "1": 21,
      "2": 22,
      "3": 23,
      "4": 24,
      "5": 25,
      "6": 26,
      "7": 27,
      "8": 28,
      "9": 29,
      ":": 30,
      ";": 31,
      "=": 32,
      "?": 33,
      "@": 34,
      "[": 35,
      "\\": 36,
      "]": 37,
      "_": 38,
      "`": 39,
      "a": 40,
      "b": 41,
      "c": 42,
      "d": 43,
      "e": 44,
      "f": 45,
      "g": 46,
      "h": 47,
      "i": 48,
      "j": 49,
      "k": 50,
      "l": 51,
      "m": 52,
      "n": 53,
      "o": 54,
      "p": 55,
      "q": 56,
      "r": 57,
      "s": 58,
      "t": 59,
      "u": 60,
      "v": 61,
      "w": 62,
      "x": 63,
      "y": 64,
      "z": 65,
      "{": 66,
      "}": 67,
      "£": 68,
      "§": 69,
      "©": 70,
      "¬": 71,
      "­": 72,
      "°": 73,
      "·": 74,
      "ß": 75,
      "á": 76,
      "â": 77,
      "ã": 78,
      "ä": 79,
      "ç": 80,
      "è": 81,
      "é": 82,
      "í": 83,
      "ï": 84,
      "ñ": 85,
      "ö": 86,
      "ü": 87,
      "ā": 88,
      "ą": 89,
      "ğ": 90,
      "ı": 91,
      "ŋ": 92,
      "ş": 93,
      "š": 94,
      "ū": 95,
      "ƚ": 96,
      "ƣ": 97,
      "ə": 98,
      "ɵ": 99,
      "ʙ": 100,
      "ʼ": 101,
      "́": 102,
      "̇": 103,
      "̧": 104,
      "а": 105,
      "б": 106,
      "в": 107,
      "г": 108,
      "д": 109,
      "е": 110,
      "ж": 111,
      "з": 112,
      "и": 113,
      "й": 114,
      "к": 115,
      "л": 116,
      "м": 117,
      "н": 118,
      "о": 119,
      "п": 120,
      "р": 121,
      "с": 122,
      "т": 123,
      "у": 124,
      "ф": 125,
      "х": 126,
      "ц": 127,
      "ч": 128,
      "ш": 129,
      "щ": 130,
      "ъ": 131,
      "ы": 132,
      "ь": 133,
      "э": 134,
      "ю": 135,
      "я": 136,
      "ё": 137,
      "ђ": 138,
      "і": 139,
      "ї": 140,
      "љ": 141,
      "ћ": 142,
      "ў": 143,
      "ѳ": 144,
      "ғ": 145,
      "қ": 146,
      "ң": 147,
      "ү": 148,
      "ұ": 149,
      "ҳ": 150,
      "ҷ": 151,
      "һ": 152,
      "ӊ": 153,
      "ӏ": 154,
      "ә": 155,
      "ө": 156,
      "ӯ": 157,
      "ا": 158,
      "ح": 159,
      "خ": 160,
      "د": 161,
      "ر": 162,
      "ز": 163,
      "ص": 164,
      "ط": 165,
      "ظ": 166,
      "ع": 167,
      "غ": 168,
      "ق": 169,
      "ك": 170,
      "ل": 171,
      "م": 172,
      "ن": 173,
      "ه": 174,
      "و": 175,
      "ي": 176,
      "ُ": 177,
      "ِ": 178,
      "‎": 179,
      "‒": 180,
      "―": 181,
      "•": 182,
      "⁄": 183,
      "⁠": 184,
      "⁣": 185,
      "→": 186,
      "−": 187,
      "▪": 188,
      "●": 189,
      "⠀": 190,
      "回": 191,
      "堅": 192,
      "族": 193,
      "昆": 194,
      "鄄": 195,
      "韓": 196,
      "鬲": 197,
      "": 198,
      "️": 199,
      "##е": 200,
      "##р": 201,
      "##к": 202,
      "##т": 203,
      "##л": 204,
      "##г": 205,
      "##н": 206,
      "##о": 207,
      "##ю": 208,
      "##а": 209,
      "##п": 210,
      "##у": 211,
      "##б": 212,
      "##з": 213,
      "##м": 214,
      "##ы": 215,
      "##и": 216,
      "##с": 217,
      "##в": 218,
      "##э": 219,
      "##ш": 220,
      "##х": 221,
      "##д": 222,
      "##ф": 223,
      "##o": 224,
      "##l": 225,
      "##s": 226,
      "##k": 227,
      "##i": 228,
      "##e": 229,
      "##r": 230,
      "##a": 231,
      "##d": 232,
      "##ц": 233,
      "##я": 234,
      "##ү": 235,
      "##ө": 236,
      "##й": 237,
      "##ч": 238,
      "##n": 239,
      "##p": 240,
      "##h": 241,
      "##m": 242,
      "##ң": 243,
      "##v": 244,
      "##ь": 245,
      "##ж": 246,
      "##ӊ": 247,
      "##8": 248,
      "##u": 249,
      "##f": 250,
      "##b": 251,
      "##2": 252,
      "##t": 253,
      "##c": 254,
      "##ё": 255,
      "##6": 256,
      "##9": 257,
      "##0": 258,
      "##5": 259,
      "##.": 260,
      "##3": 261,
      "##4": 262,
      "##7": 263,
      "##1": 264,
      "##щ": 265,
      "##‎": 266,
      "##q": 267,
      "##қ": 268,
      "##w": 269,
      "##g": 270,
      "##y": 271,
      "##і": 272,
      "##z": 273,
      "##ѳ": 274,
      "##x": 275,
      "##ҳ": 276,
      "##ъ": 277,
      "##-": 278,
      "##ұ": 279,
      "##é": 280,
      "##ş": 281,
      "##j": 282,
      "##ў": 283,
      "##,": 284,
      "##ђ": 285,
      "##!": 286,
      "##­": 287,
      "##;": 288,
      "##_": 289,
      "##ә": 290,
      "##ɵ": 291,
      "##ӏ": 292,
      "##ғ": 293,
      "##]": 294,
      "##ʙ": 295,
      "##ğ": 296,
      "##̇": 297,
      "##[": 298,
      "##&": 299,
      "##ı": 300,
      "##)": 301,
      "##\"": 302,
      "##⁣": 303,
      "##ç": 304,
      "##á": 305,
      "##è": 306,
      "##:": 307,
      "##ћ": 308,
      "##*": 309,
      "##ß": 310,
      "##ã": 311,
      "##ƚ": 312,
      "##ə": 313,
      "##/": 314,
      "##ą": 315,
      "##ū": 316,
      "##韓": 317,
      "##ا": 318,
      "##ه": 319,
      "##ر": 320,
      "##?": 321,
      "##}": 322,
      "##昆": 323,
      "##族": 324,
      "##+": 325,
      "##́": 326,
      "##ü": 327,
      "##ö": 328,
      "##ӯ": 329,
      "##ҷ": 330,
      "##$": 331,
      "##ñ": 332,
      "##ï": 333,
      "###": 334,
      "##ل": 335,
      "##ن": 336,
      "##ك": 337,
      "##ح": 338,
      "##ä": 339,
      "##â": 340,
      "##ع": 341,
      "##ص": 342,
      "##ي": 343,
      "##ط": 344,
      "##ق": 345,
      "##í": 346,
      "##ƣ": 347,
      "##(": 348,
      "##ā": 349,
      "##©": 350,
      "##љ": 351,
      "##ُ": 352,
      "##و": 353,
      "##ِ": 354,
      "##ز": 355,
      "##ї": 356,
      "##ʼ": 357,
      "##م": 358,
      "##د": 359,
      "##ан": 360,
      "##ар": 361,
      "##ын": 362,
      "##ен": 363,
      "##ал": 364,
      "##ин": 365,
      "##ат": 366,
      "##ер": 367,
      "##да": 368,
      "##уу": 369,
      "##ол": 370,
      "##кт": 371,
      "##ыл": 372,
      "##ай": 373,
      "##үн": 374,
      "##ган": 375,
      "##ир": 376,
      "##ун": 377,
      "ал": 378,
      "##ды": 379,
      "##гы": 380,
      "##ор": 381,
      "##он": 382,
      "##ур": 383,
      "##ет": 384,
      "##ст": 385,
      "##ия": 386,
      "##ек": 387,
      "##ил": 388,
      "##шт": 389,
      "##га": 390,
      "##ел": 391,
      "##ам": 392,
      "##ул": 393,
      "##ыр": 394,
      "##ык": 395,
      "ба": 396,
      "жа": 397,
      "##өр": 398,
      "ай": 399,
      "##ып": 400,
      "##оо": 401,
      "##ик": 402,
      "бол": 403,
      "##өн": 404,
      "де": 405,
      "##үү": 406,
      "##шк": 407,
      "##ак": 408,
      "##ана": 409,
      "##тт": 410,
      "##дын": 411,
      "бир": 412,
      "мен": 413,
      "##ген": 414,
      "##ди": 415,
      "##ас": 416,
      "##ыз": 417,
      "##де": 418,
      "##ары": 419,
      "##ында": 420,
      "ар": 421,
      "кар": 422,
      "##үр": 423,
      "менен": 424,
      "##из": 425,
      "да": 426,
      "##ап": 427,
      "эл": 428,
      "ко": 429,
      "##ук": 430,
      "##дар": 431,
      "##ий": 432,
      "ан": 433,
      "##аб": 434,
      "жана": 435,
      "##ок": 436,
      "##атт": 437,
      "##ым": 438,
      "бер": 439,
      "##тк": 440,
      "кө": 441,
      "##ов": 442,
      "##дө": 443,
      "##стан": 444,
      "##дан": 445,
      "эк": 446,
      "##ес": 447,
      "##ог": 448,
      "##им": 449,
      "##ый": 450,
      "жат": 451,
      "##ей": 452,
      "кыр": 453,
      "##ус": 454,
      "ор": 455,
      "ма": 456,
      "кел": 457,
      "##ча": 458,
      "##ция": 459,
      "жыл": 460,
      "бул": 461,
      "##кан": 462,
      "##уп": 463,
      "##үл": 464,
      "##гыз": 465,
      "деп": 466,
      "##ына": 467,
      "##ра": 468,
      "кыргыз": 469,
      "##өл": 470,
      "өз": 471,
      "та": 472,
      "##ист": 473,
      "##ма": 474,
      "тур": 475,
      "##ип": 476,
      "##ыш": 477,
      "##ев": 478,
      "со": 479,
      "##ду": 480,
      "бар": 481,
      "##ез": 482,
      "эм": 483,
      "##ку": 484,
      "тар": 485,
      "##ект": 486,
      "пр": 487,
      "кыз": 488,
      "##гө": 489,
      "##ги": 490,
      "ак": 491,
      "бо": 492,
      "##ден": 493,
      "##ынын": 494,
      "##ем": 495,
      "##алган": 496,
      "ка": 497,
      "##етт": 498,
      "бил": 499,
      "##юн": 500,
      "##дык": 501,
      "##дин": 502,
      "##гон": 503,
      "ат": 504,
      "аз": 505,
      "##аган": 506,
      "##ск": 507,
      "жар": 508,
      "##лан": 509,
      "##дагы": 510,
      "##үз": 511,
      "##ли": 512,
      "чы": 513,
      "үч": 514,
      "са": 515,
      "##ге": 516,
      "##лар": 517,
      "##үп": 518,
      "##дам": 519,
      "##ба": 520,
      "##өт": 521,
      "кыл": 522,
      "эле": 523,
      "##ка": 524,
      "##ит": 525,
      "##сы": 526,
      "кат": 527,
      "##еп": 528,
      "өл": 529,
      "##иш": 530,
      "кыргызстан": 531,
      "айт": 532,
      "##уш": 533,
      "маал": 534,
      "ош": 535,
      "##бек": 536,
      "##гөн": 537,
      "кор": 538,
      "ишт": 539,
      "##алык": 540,
      "##дир": 541,
      "##алуу": 542,
      "##ери": 543,
      "боюн": 544,
      "мам": 545,
      "боюнча": 546,
      "##ум": 547,
      "20": 548,
      "##уз": 549,
      "кызм": 550,
      "то": 551,
      "маалым": 552,
      "кай": 553,
      "##нын": 554,
      "билдир": 555,
      "орус": 556,
      "##инин": 557,
      "болгон": 558,
      "туу": 559,
      "кал": 560,
      "тал": 561,
      "##дай": 562,
      "үчүн": 563,
      "##үй": 564,
      "көр": 565,
      "##инде": 566,
      "кол": 567,
      "жол": 568,
      "иш": 569,
      "жаткан": 570,
      "##еч": 571,
      "##ең": 572,
      "алар": 573,
      "##үм": 574,
      "##иден": 575,
      "##от": 576,
      "башк": 577,
      "##до": 578,
      "өлк": 579,
      "##лек": 580,
      "##ыкт": 581,
      "биз": 582,
      "каб": 583,
      "ком": 584,
      "##инист": 585,
      "кан": 586,
      "бай": 587,
      "##ышт": 588,
      "##шы": 589,
      "##езиден": 590,
      "адам": 591,
      "кур": 592,
      "мамлек": 593,
      "президен": 594,
      "жет": 595,
      "##го": 596,
      "##гил": 597,
      "##дук": 598,
      "##үк": 599,
      "##ут": 600,
      "күн": 601,
      "##ег": 602,
      "ук": 603,
      "жер": 604,
      "ми": 605,
      "##инистр": 606,
      "##ине": 607,
      "өк": 608,
      "##үш": 609,
      "деген": 610,
      "орусия": 611,
      "жүр": 612,
      "кий": 613,
      "##үч": 614,
      "##ом": 615,
      "министр": 616,
      "баш": 617,
      "бел": 618,
      "экен": 619,
      "коо": 620,
      "анын": 621,
      "##лер": 622,
      "##аар": 623,
      "##ылган": 624,
      "кызмат": 625,
      "##чу": 626,
      "кер": 627,
      "##еш": 628,
      "##дун": 629,
      "уч": 630,
      "жок": 631,
      "дагы": 632,
      "##лык": 633,
      "##бай": 634,
      "жаз": 635,
      "кет": 636,
      "болуп": 637,
      "ул": 638,
      "сал": 639,
      "##ейин": 640,
      "##шкан": 641,
      "##чи": 642,
      "##өө": 643,
      "##дер": 644,
      "##унун": 645,
      "кийин": 646,
      "чейин": 647,
      "##кы": 648,
      "ин": 649,
      "##ууга": 650,
      "туур": 651,
      "каз": 652,
      "жак": 653,
      "тууралуу": 654,
      "##ынан": 655,
      "##чы": 656,
      "мамлекетт": 657,
      "бирок": 658,
      "аб": 659,
      "##ктар": 660,
      "турган": 661,
      "##үг": 662,
      "##зам": 663,
      "##алар": 664,
      "пар": 665,
      "##асы": 666,
      "мый": 667,
      "мыйзам": 668,
      "##үндө": 669,
      "би": 670,
      "кир": 671,
      "эмес": 672,
      "бал": 673,
      "##дик": 674,
      "бий": 675,
      "учур": 676,
      "##унда": 677,
      "##бл": 678,
      "##чыл": 679,
      "кам": 680,
      "шаар": 681,
      "##еб": 682,
      "##уун": 683,
      "бас": 684,
      "жатат": 685,
      "##дү": 686,
      "өтк": 687,
      "##уна": 688,
      "##аны": 689,
      "мур": 690,
      "өт": 691,
      "керек": 692,
      "##кен": 693,
      "эки": 694,
      "чыг": 695,
      "башт": 696,
      "##анын": 697,
      "маалымат": 698,
      "##дон": 699,
      "##бо": 700,
      "мил": 701,
      "көп": 702,
      "##та": 703,
      "шай": 704,
      "##дыр": 705,
      "президент": 706,
      "##кта": 707,
      "жай": 708,
      "түр": 709,
      "алып": 710,
      "үй": 711,
      "##чул": 712,
      "##яс": 713,
      "жылы": 714,
      "##үнө": 715,
      "эр": 716,
      "жог": 717,
      "##уг": 718,
      "уш": 719,
      "ую": 720,
      "\",": 721,
      "ич": 722,
      "##ээ": 723,
      "мас": 724,
      "##ке": 725,
      "##аттар": 726,
      "##лоо": 727,
      "##ент": 728,
      "##дөр": 729,
      "алган": 730,
      "белгил": 731,
      "##скер": 732,
      "азыр": 733,
      "##бр": 734,
      "##ав": 735,
      "##сыз": 736,
      "##ору": 737,
      "кең": 738,
      "##ки": 739,
      "кы": 740,
      "##өм": 741,
      "##кер": 742,
      "ая": 743,
      "##ябр": 744,
      "##ман": 745,
      "##ады": 746,
      "көз": 747,
      "түз": 748,
      "укра": 749,
      "украин": 750,
      "##ага": 751,
      "##тер": 752,
      "жаң": 753,
      "саяс": 754,
      "ав": 755,
      "##аз": 756,
      "күч": 757,
      "миң": 758,
      "байлан": 759,
      "бу": 760,
      "##дары": 761,
      "дол": 762,
      "##ушт": 763,
      "чеч": 764,
      "сө": 765,
      "ошон": 766,
      "##үнүн": 767,
      "##ран": 768,
      "##өлөр": 769,
      "##ылуу": 770,
      "киш": 771,
      "##иция": 772,
      "жаш": 773,
      "келген": 774,
      "сөз": 775,
      "айма": 776,
      "өлкө": 777,
      "жал": 778,
      "##аш": 779,
      "##уст": 780,
      "бишк": 781,
      "аш": 782,
      "##өй": 783,
      "тарт": 784,
      "тер": 785,
      "оку": 786,
      "ты": 787,
      "өн": 788,
      "мамлекеттик": 789,
      "чыгар": 790,
      "##егиз": 791,
      "##еле": 792,
      "бор": 793,
      "жары": 794,
      "төр": 795,
      "жаран": 796,
      "өкм": 797,
      "##дардын": 798,
      "башка": 799,
      "жөн": 800,
      "##икт": 801,
      "##гү": 802,
      "##чил": 803,
      "билдирди": 804,
      "ок": 805,
      "##си": 806,
      "мак": 807,
      "##иев": 808,
      "экенин": 809,
      "жый": 810,
      "##утт": 811,
      "##ындагы": 812,
      "кара": 813,
      "обл": 814,
      "ошол": 815,
      "чыгы": 816,
      "бөл": 817,
      "каршы": 818,
      "##ян": 819,
      "##инчи": 820,
      "эми": 821,
      "чык": 822,
      "##ты": 823,
      "жоо": 824,
      "##ос": 825,
      "##ив": 826,
      "көрс": 827,
      "шайлоо": 828,
      "##үүгө": 829,
      "кош": 830,
      "##төр": 831,
      "май": 832,
      "##күн": 833,
      "эс": 834,
      "түш": 835,
      "##дуу": 836,
      "##айын": 837,
      "##баев": 838,
      "бери": 839,
      "оор": 840,
      "жогор": 841,
      "##доо": 842,
      "рай": 843,
      "ап": 844,
      "##ткан": 845,
      "##оп": 846,
      "борб": 847,
      "иштер": 848,
      "чек": 849,
      "жап": 850,
      "##ктан": 851,
      "##аттык": 852,
      "негиз": 853,
      "##сынын": 854,
      "же": 855,
      "кандай": 856,
      "дүй": 857,
      "дар": 858,
      "казак": 859,
      "##иянын": 860,
      "кон": 861,
      "мүм": 862,
      "кооп": 863,
      "##ликт": 864,
      "мүмкүн": 865,
      "чак": 866,
      "19": 867,
      "сур": 868,
      "коом": 869,
      "##алы": 870,
      "##суз": 871,
      "##икалык": 872,
      "##ууда": 873,
      "##со": 874,
      "карм": 875,
      "калган": 876,
      "##лик": 877,
      "##өш": 878,
      "##об": 879,
      "жаңы": 880,
      "аскер": 881,
      "байланышт": 882,
      "токт": 883,
      "##са": 884,
      "##аров": 885,
      "болот": 886,
      "202": 887,
      "болду": 888,
      "аны": 889,
      "аба": 890,
      "мар": 891,
      "##еси": 892,
      "##агы": 893,
      "кый": 894,
      "##арын": 895,
      "талап": 896,
      "кылм": 897,
      "##елер": 898,
      "ач": 899,
      "район": 900,
      "##ейт": 901,
      "##алдык": 902,
      "##гын": 903,
      "уюм": 904,
      "жогорку": 905,
      "кабар": 906,
      "##гында": 907,
      "ишк": 908,
      "##дөн": 909,
      "##гер": 910,
      "##лам": 911,
      "##алды": 912,
      "##ация": 913,
      "алардын": 914,
      "##00": 915,
      "буга": 916,
      "депут": 917,
      "201": 918,
      "##еген": 919,
      "борбор": 920,
      "##инен": 921,
      "##ада": 922,
      "таж": 923,
      "ре": 924,
      "##еди": 925,
      "арак": 926,
      "из": 927,
      "гана": 928,
      "##ис": 929,
      "жыйын": 930,
      "##алып": 931,
      "чакыр": 932,
      "##кты": 933,
      "##чү": 934,
      "чар": 935,
      "бат": 936,
      "##тай": 937,
      "тап": 938,
      "дүйн": 939,
      "алын": 940,
      "улутт": 941,
      "##аты": 942,
      "##үт": 943,
      "##иб": 944,
      "##өнүн": 945,
      "##дүн": 946,
      "##иялык": 947,
      "сот": 948,
      "от": 949,
      "айып": 950,
      "##дор": 951,
      "тил": 952,
      "чыккан": 953,
      "кабыл": 954,
      "##ябрда": 955,
      "ага": 956,
      "жум": 957,
      "сүй": 958,
      "топ": 959,
      "катт": 960,
      "##лай": 961,
      "мында": 962,
      "##лөр": 963,
      "##уну": 964,
      "##гиз": 965,
      "жарыя": 966,
      "##сп": 967,
      "ст": 968,
      "сан": 969,
      "кою": 970,
      "жооп": 971,
      "байланыштуу": 972,
      "масел": 973,
      "жатканын": 974,
      "##лиги": 975,
      "коопсуз": 976,
      "##өтт": 977,
      "айтып": 978,
      "##ышы": 979,
      "киши": 980,
      "жас": 981,
      "##ентт": 982,
      "га": 983,
      "катары": 984,
      "##уул": 985,
      "айыл": 986,
      "##ардын": 987,
      "кыргызстандын": 988,
      "ев": 989,
      "учурда": 990,
      "##дүү": 991,
      "дем": 992,
      "##оз": 993,
      "комп": 994,
      "алдын": 995,
      "##чүл": 996,
      "##үнү": 997,
      "тарап": 998,
      "##ания": 999,
      "аралык": 1000,
      "мындай": 1001,
      "сог": 1002,
      "акш": 1003,
      "корг": 1004,
      "парт": 1005,
      "мек": 1006,
      "##ци": 1007,
      "атк": 1008,
      "өкүл": 1009,
      "ушул": 1010,
      "өткөр": 1011,
      "##рам": 1012,
      "казакстан": 1013,
      "##тты": 1014,
      "чет": 1015,
      "##йт": 1016,
      "##рым": 1017,
      "пай": 1018,
      "##чө": 1019,
      "##ешт": 1020,
      "түрк": 1021,
      "деди": 1022,
      "##епт": 1023,
      "ил": 1024,
      "берген": 1025,
      "##арды": 1026,
      "##асын": 1027,
      "тол": 1028,
      "##ышкан": 1029,
      "милли": 1030,
      "дин": 1031,
      "уку": 1032,
      "сом": 1033,
      "##сү": 1034,
      "жур": 1035,
      "берил": 1036,
      "##ууну": 1037,
      "кой": 1038,
      "тажик": 1039,
      "ад": 1040,
      "өткөн": 1041,
      "долбо": 1042,
      "мо": 1043,
      "окуя": 1044,
      "сакт": 1045,
      "##ылып": 1046,
      "көб": 1047,
      "коргоо": 1048,
      "облус": 1049,
      "кытай": 1050,
      "мурдагы": 1051,
      "##иг": 1052,
      "орусиянын": 1053,
      "кеткен": 1054,
      "##айт": 1055,
      "кайра": 1056,
      "эн": 1057,
      "##..": 1058,
      "кез": 1059,
      "кайр": 1060,
      "##чысы": 1061,
      "чо": 1062,
      "##укт": 1063,
      "улуттук": 1064,
      "эрк": 1065,
      "жапаров": 1066,
      "сун": 1067,
      "##ени": 1068,
      "болсо": 1069,
      "тү": 1070,
      "сүйл": 1071,
      "##үкт": 1072,
      "чечим": 1073,
      "президентт": 1074,
      "##асм": 1075,
      "##ла": 1076,
      "жакын": 1077,
      "##онав": 1078,
      "өкмөт": 1079,
      "##уб": 1080,
      "##сия": 1081,
      "##үгүн": 1082,
      "ур": 1083,
      "##дарды": 1084,
      "##оном": 1085,
      "кыргызстанда": 1086,
      "коронав": 1087,
      "коронавир": 1088,
      "ой": 1089,
      "##дой": 1090,
      "##еги": 1091,
      "соң": 1092,
      "##ест": 1093,
      "караган": 1094,
      "жетек": 1095,
      "жардам": 1096,
      "парлам": 1097,
      "эч": 1098,
      "##нал": 1099,
      "##гына": 1100,
      "##быз": 1101,
      "биринчи": 1102,
      "көрсөт": 1103,
      "##ика": 1104,
      "...": 1105,
      "##гун": 1106,
      "билдирген": 1107,
      "##үлгөн": 1108,
      "авт": 1109,
      "##яр": 1110,
      "жылдын": 1111,
      "##үүдө": 1112,
      "тышк": 1113,
      "##пы": 1114,
      "##тыр": 1115,
      "бишкект": 1116,
      "сат": 1117,
      "##беков": 1118,
      "уба": 1119,
      "жаб": 1120,
      "##ышат": 1121,
      "орт": 1122,
      "##дүр": 1123,
      "жашт": 1124,
      "айрым": 1125,
      "айткан": 1126,
      "өзбек": 1127,
      "келиш": 1128,
      "##асында": 1129,
      "партия": 1130,
      "##огон": 1131,
      "евр": 1132,
      "эконом": 1133,
      "##лиг": 1134,
      "жалпы": 1135,
      "алуу": 1136,
      "##иде": 1137,
      "ылай": 1138,
      "##ушу": 1139,
      "журнал": 1140,
      "андан": 1141,
      "чоң": 1142,
      "жолу": 1143,
      "##се": 1144,
      "сотт": 1145,
      "бири": 1146,
      "шар": 1147,
      "окт": 1148,
      "##туу": 1149,
      "жүрг": 1150,
      "##абыз": 1151,
      "алды": 1152,
      "орун": 1153,
      "кызматт": 1154,
      "суу": 1155,
      "акт": 1156,
      "##кү": 1157,
      "аял": 1158,
      "##мө": 1159,
      "бек": 1160,
      "албай": 1161,
      "##асмий": 1162,
      "##мер": 1163,
      "киргиз": 1164,
      "анда": 1165,
      "10": 1166,
      "##улган": 1167,
      "##ылды": 1168,
      "себ": 1169,
      "журналист": 1170,
      "өлкөлөр": 1171,
      "колдон": 1172,
      "өзү": 1173,
      "саясий": 1174,
      "ара": 1175,
      "##орт": 1176,
      "улам": 1177,
      "расмий": 1178,
      "##иги": 1179,
      "ылайык": 1180,
      "талк": 1181,
      "ата": 1182,
      "##гөр": 1183,
      "кызматкер": 1184,
      "башкар": 1185,
      "бийлик": 1186,
      "дан": 1187,
      "оп": 1188,
      "таб": 1189,
      "өзгөр": 1190,
      "айтты": 1191,
      "##тар": 1192,
      "мын": 1193,
      "долбоор": 1194,
      "түн": 1195,
      "отур": 1196,
      "##ышты": 1197,
      "##ата": 1198,
      "аныкт": 1199,
      "тын": 1200,
      "чыгып": 1201,
      "##ри": 1202,
      "##чулар": 1203,
      "##олог": 1204,
      "##ети": 1205,
      "кес": 1206,
      "кылмыш": 1207,
      "##лери": 1208,
      "эмн": 1209,
      "##дөрү": 1210,
      "түшүн": 1211,
      "ичинде": 1212,
      "сы": 1213,
      "##оого": 1214,
      "жүргүз": 1215,
      "##атты": 1216,
      "арк": 1217,
      "эң": 1218,
      "миллион": 1219,
      "ун": 1220,
      "берүү": 1221,
      "коопсуздук": 1222,
      "бишкек": 1223,
      "саясат": 1224,
      "ким": 1225,
      "жан": 1226,
      "##мия": 1227,
      "буз": 1228,
      "каза": 1229,
      "компания": 1230,
      "биздин": 1231,
      "##дөө": 1232,
      "таш": 1233,
      "күр": 1234,
      "##дей": 1235,
      "ошондой": 1236,
      "келет": 1237,
      "караганда": 1238,
      "караж": 1239,
      "башкы": 1240,
      "##мүр": 1241,
      "##тын": 1242,
      "##сын": 1243,
      "кеңеш": 1244,
      "кеңешт": 1245,
      "те": 1246,
      "он": 1247,
      "##иктүү": 1248,
      "болбо": 1249,
      "президенти": 1250,
      "калды": 1251,
      "дары": 1252,
      "##изм": 1253,
      "##дарга": 1254,
      "катар": 1255,
      "##үүнү": 1256,
      "##уучу": 1257,
      "атайын": 1258,
      "##ече": 1259,
      "ээ": 1260,
      "жөнүндө": 1261,
      "##шкен": 1262,
      "ли": 1263,
      "##сүн": 1264,
      "эмне": 1265,
      "элек": 1266,
      "жең": 1267,
      "##шка": 1268,
      "##өөн": 1269,
      "##үүлөр": 1270,
      "15": 1271,
      "акыр": 1272,
      "##су": 1273,
      "даяр": 1274,
      "дүйнө": 1275,
      "коронавирус": 1276,
      "соци": 1277,
      "көл": 1278,
      "тарма": 1279,
      "доллар": 1280,
      "##ундагы": 1281,
      "аркылуу": 1282,
      "турат": 1283,
      "##тта": 1284,
      "моск": 1285,
      "сын": 1286,
      "##рел": 1287,
      "##сат": 1288,
      "ра": 1289,
      "меди": 1290,
      "##ктуу": 1291,
      "деле": 1292,
      "москв": 1293,
      "##аткан": 1294,
      "мл": 1295,
      "ын": 1296,
      "##цин": 1297,
      "мамлекет": 1298,
      "##тан": 1299,
      "##ыгы": 1300,
      "мындан": 1301,
      "##гиликтүү": 1302,
      "өзбекстан": 1303,
      "##акка": 1304,
      "аткар": 1305,
      "келип": 1306,
      "рес": 1307,
      "##өтк": 1308,
      "ти": 1309,
      "өлкөдө": 1310,
      "##ой": 1311,
      "##алиев": 1312,
      "улан": 1313,
      "сүр": 1314,
      "катыш": 1315,
      "##өгөн": 1316,
      "тергө": 1317,
      "жылдан": 1318,
      "##үгү": 1319,
      "апрел": 1320,
      "мүч": 1321,
      "нече": 1322,
      "##инг": 1323,
      "көтөр": 1324,
      "##ылык": 1325,
      "жакшы": 1326,
      "им": 1327,
      "##ко": 1328,
      "кырда": 1329,
      "миг": 1330,
      "садыр": 1331,
      "төл": 1332,
      "эркин": 1333,
      "##ланган": 1334,
      "комит": 1335,
      "таан": 1336,
      "##вар": 1337,
      "нын": 1338,
      "жерде": 1339,
      "пик": 1340,
      "абал": 1341,
      "ички": 1342,
      "##сиз": 1343,
      "тек": 1344,
      "чект": 1345,
      "##ңг": 1346,
      "сыр": 1347,
      "бүгүн": 1348,
      "азаттык": 1349,
      "өлкөнүн": 1350,
      "##ыйыл": 1351,
      "мекем": 1352,
      "##өлүк": 1353,
      "бардык": 1354,
      "эксп": 1355,
      "##мат": 1356,
      "##оол": 1357,
      "иштеп": 1358,
      "кылып": 1359,
      "чог": 1360,
      "берип": 1361,
      "ушун": 1362,
      "быйыл": 1363,
      "##убл": 1364,
      "пол": 1365,
      "##ердин": 1366,
      "социалдык": 1367,
      "кылган": 1368,
      "кр": 1369,
      "кем": 1370,
      "##өп": 1371,
      "##илген": 1372,
      "турганын": 1373,
      "жергиликтүү": 1374,
      "тий": 1375,
      "күнү": 1376,
      "оо": 1377,
      "пикир": 1378,
      "##стит": 1379,
      "бийликт": 1380,
      "орган": 1381,
      "беш": 1382,
      "##лор": 1383,
      "##бей": 1384,
      "тергөө": 1385,
      "өзгө": 1386,
      "сап": 1387,
      "жарыял": 1388,
      "иликт": 1389,
      "жүргөн": 1390,
      "##етти": 1391,
      "сүйлөш": 1392,
      "##сун": 1393,
      "11": 1394,
      "эсепт": 1395,
      "айыпт": 1396,
      "курул": 1397,
      "уул": 1398,
      "##аман": 1399,
      "##ерди": 1400,
      "тажикстан": 1401,
      "##өк": 1402,
      "ян": 1403,
      "маан": 1404,
      "төрага": 1405,
      "комис": 1406,
      "парламентт": 1407,
      "мект": 1408,
      "##асына": 1409,
      "##өмөл": 1410,
      "##шыр": 1411,
      "30": 1412,
      "##алан": 1413,
      "##юл": 1414,
      "##ишт": 1415,
      "кызматы": 1416,
      "##ерин": 1417,
      "аракет": 1418,
      "алынган": 1419,
      "##шты": 1420,
      "көзөмөл": 1421,
      "жек": 1422,
      "##ыкты": 1423,
      "12": 1424,
      "док": 1425,
      "##окур": 1426,
      "туура": 1427,
      "##оон": 1428,
      "##тир": 1429,
      "##ова": 1430,
      "иши": 1431,
      "европ": 1432,
      "курал": 1433,
      "##тор": 1434,
      "##ктагы": 1435,
      "кач": 1436,
      "министрлиги": 1437,
      "##мк": 1438,
      "министри": 1439,
      "ачык": 1440,
      "акча": 1441,
      "су": 1442,
      "элект": 1443,
      "прокур": 1444,
      "ден": 1445,
      "аталган": 1446,
      "но": 1447,
      "өмүр": 1448,
      "келишим": 1449,
      "төрт": 1450,
      "бан": 1451,
      "соңку": 1452,
      "##пай": 1453,
      "баары": 1454,
      "дек": 1455,
      "азыркы": 1456,
      "кеч": 1457,
      "##алат": 1458,
      "коз": 1459,
      "докум": 1460,
      "на": 1461,
      "берди": 1462,
      "ишке": 1463,
      "ас": 1464,
      "алма": 1465,
      "##ерг": 1466,
      "##ларды": 1467,
      "июн": 1468,
      "акыркы": 1469,
      "бүл": 1470,
      "ала": 1471,
      "жолуг": 1472,
      "эскер": 1473,
      "##дүк": 1474,
      "январ": 1475,
      "##штур": 1476,
      "билим": 1477,
      "дал": 1478,
      "сп": 1479,
      "##аев": 1480,
      "##сына": 1481,
      "##түү": 1482,
      "өзгөчө": 1483,
      "##шкөн": 1484,
      "арыз": 1485,
      "актив": 1486,
      "оорук": 1487,
      "милиция": 1488,
      "ди": 1489,
      "карата": 1490,
      "##руп": 1491,
      "кырдаал": 1492,
      "болчу": 1493,
      "мурда": 1494,
      "доб": 1495,
      "##густ": 1496,
      "респ": 1497,
      "август": 1498,
      "багы": 1499,
      "##циялык": 1500,
      "башчысы": 1501,
      "кошум": 1502,
      "так": 1503,
      "ыр": 1504,
      "тары": 1505,
      "жаг": 1506,
      "##огу": 1507,
      "аймактар": 1508,
      "мат": 1509,
      "кеңештин": 1510,
      "##асынын": 1511,
      "салам": 1512,
      "эгер": 1513,
      "##пи": 1514,
      "##ымында": 1515,
      "##чылык": 1516,
      "ге": 1517,
      "сунушт": 1518,
      "нур": 1519,
      "өкмөтт": 1520,
      "сактоо": 1521,
      "тем": 1522,
      "министрлиг": 1523,
      "республ": 1524,
      "укук": 1525,
      "##атур": 1526,
      "##уунун": 1527,
      "уюштур": 1528,
      "##ерс": 1529,
      "##абр": 1530,
      "жатышат": 1531,
      "##дуктан": 1532,
      "ыс": 1533,
      "басма": 1534,
      "##ед": 1535,
      "ишен": 1536,
      "саны": 1537,
      "айтымында": 1538,
      "үн": 1539,
      "экинчи": 1540,
      "тышкы": 1541,
      "сент": 1542,
      "##дикт": 1543,
      "ол": 1544,
      "кен": 1545,
      "ис": 1546,
      "чаб": 1547,
      "өтө": 1548,
      "облуст": 1549,
      "##екс": 1550,
      "##деги": 1551,
      "жаштагы": 1552,
      "баштаган": 1553,
      "бүт": 1554,
      "ооган": 1555,
      "макул": 1556,
      "##ама": 1557,
      "наар": 1558,
      "##рал": 1559,
      "азия": 1560,
      "##анда": 1561,
      "##гыл": 1562,
      "##етинин": 1563,
      "салуу": 1564,
      "наараз": 1565,
      "укмк": 1566,
      "кабарл": 1567,
      "жылга": 1568,
      "##бүз": 1569,
      "маалыматтар": 1570,
      "##ьер": 1571,
      "корруп": 1572,
      "##ылат": 1573,
      "арасында": 1574,
      "200": 1575,
      "жо": 1576,
      "##рат": 1577,
      "тынч": 1578,
      "токтот": 1579,
      "белгилүү": 1580,
      "баткен": 1581,
      "ушундай": 1582,
      "кармалган": 1583,
      "тарых": 1584,
      "жүз": 1585,
      "##ны": 1586,
      "##чиси": 1587,
      "камсыз": 1588,
      "декабр": 1589,
      "##ттар": 1590,
      "14": 1591,
      "келтир": 1592,
      "окуу": 1593,
      "коомдук": 1594,
      "##эр": 1595,
      "алга": 1596,
      "##юу": 1597,
      "өтүп": 1598,
      "ку": 1599,
      "до": 1600,
      "адамдар": 1601,
      "18": 1602,
      "каран": 1603,
      "аскердик": 1604,
      "өр": 1605,
      "виде": 1606,
      "мамил": 1607,
      "электр": 1608,
      "антк": 1609,
      "газ": 1610,
      "көбөй": 1611,
      "##ктын": 1612,
      "##асир": 1613,
      "аж": 1614,
      "жээ": 1615,
      "прем": 1616,
      "##хн": 1617,
      "шаарында": 1618,
      "милд": 1619,
      "13": 1620,
      "##атта": 1621,
      "зар": 1622,
      "күчтөр": 1623,
      "коюл": 1624,
      "маселе": 1625,
      "##дим": 1626,
      "эт": 1627,
      "ча": 1628,
      "был": 1629,
      "украина": 1630,
      "абад": 1631,
      "шт": 1632,
      "күрөш": 1633,
      "берен": 1634,
      "бр": 1635,
      "##ерлер": 1636,
      "##есин": 1637,
      "сист": 1638,
      "акция": 1639,
      "##угу": 1640,
      "баз": 1641,
      "экономикалык": 1642,
      "кл": 1643,
      "##диг": 1644,
      "былтыр": 1645,
      "жара": 1646,
      "чын": 1647,
      "##үшү": 1648,
      "16": 1649,
      "жайга": 1650,
      "бош": 1651,
      "айында": 1652,
      "талапкер": 1653,
      "##утин": 1654,
      "##еби": 1655,
      "##олгон": 1656,
      "##рация": 1657,
      "##штыр": 1658,
      "путин": 1659,
      "##өкт": 1660,
      "таасир": 1661,
      "мөөн": 1662,
      "июл": 1663,
      "тапшыр": 1664,
      "премьер": 1665,
      "17": 1666,
      "аген": 1667,
      "мис": 1668,
      "октябрда": 1669,
      "##тка": 1670,
      "украинанын": 1671,
      "сыя": 1672,
      "мигран": 1673,
      "жетекчил": 1674,
      "##енин": 1675,
      "барып": 1676,
      "карап": 1677,
      "куб": 1678,
      "уз": 1679,
      "##аларды": 1680,
      "ортос": 1681,
      "##озиция": 1682,
      "толук": 1683,
      "дейт": 1684,
      "комиссия": 1685,
      "##үлүп": 1686,
      "##гу": 1687,
      "аракетт": 1688,
      "тиеш": 1689,
      "25": 1690,
      "оюн": 1691,
      "##овдун": 1692,
      "корк": 1693,
      "мыйзамсыз": 1694,
      "##арт": 1695,
      "түшт": 1696,
      "алгач": 1697,
      "жүрүп": 1698,
      "##анд": 1699,
      "бур": 1700,
      "депутат": 1701,
      "нат": 1702,
      "##дарын": 1703,
      "##шер": 1704,
      "там": 1705,
      "фев": 1706,
      "ашык": 1707,
      "сыяктуу": 1708,
      "тартып": 1709,
      "алб": 1710,
      "чабуул": 1711,
      "тургун": 1712,
      "##иши": 1713,
      "болушу": 1714,
      "илим": 1715,
      "феврал": 1716,
      "арал": 1717,
      "быз": 1718,
      "дай": 1719,
      "соо": 1720,
      "арт": 1721,
      "жатканы": 1722,
      "##чылар": 1723,
      "ток": 1724,
      "койгон": 1725,
      "##дап": 1726,
      "райондук": 1727,
      "жеке": 1728,
      "түнкү": 1729,
      "анткени": 1730,
      "иран": 1731,
      "##тик": 1732,
      "техн": 1733,
      "иштеген": 1734,
      "си": 1735,
      "про": 1736,
      "ойл": 1737,
      "түшүндүр": 1738,
      "алдында": 1739,
      "##унан": 1740,
      "бала": 1741,
      "тең": 1742,
      "барган": 1743,
      "басары": 1744,
      "төрагасы": 1745,
      "##үрүү": 1746,
      "коомчул": 1747,
      "эск": 1748,
      "##кир": 1749,
      "президенттин": 1750,
      "текшер": 1751,
      "караб": 1752,
      "агентт": 1753,
      "добуш": 1754,
      "президенттик": 1755,
      "кул": 1756,
      "##алары": 1757,
      "##ыт": 1758,
      "кайсы": 1759,
      "муну": 1760,
      "болгонун": 1761,
      "##лардын": 1762,
      "сатып": 1763,
      "согуш": 1764,
      "млн": 1765,
      "өндүр": 1766,
      "##оолор": 1767,
      "бей": 1768,
      "айтылган": 1769,
      "вир": 1770,
      "##ортт": 1771,
      "саб": 1772,
      "козг": 1773,
      "чыкты": 1774,
      "топт": 1775,
      "жарандык": 1776,
      "оорукана": 1777,
      "сый": 1778,
      "майда": 1779,
      "жыйынты": 1780,
      "күнд": 1781,
      "го": 1782,
      "план": 1783,
      "күндүз": 1784,
      "активист": 1785,
      "медицин": 1786,
      "##дыктар": 1787,
      "өзүн": 1788,
      "шаардык": 1789,
      "экспер": 1790,
      "билдирүү": 1791,
      "ади": 1792,
      "##догон": 1793,
      "бийлиги": 1794,
      "салын": 1795,
      "сиз": 1796,
      "кайт": 1797,
      "жумуш": 1798,
      "энерг": 1799,
      "му": 1800,
      "колдоо": 1801,
      "##бу": 1802,
      "оң": 1803,
      "##ынча": 1804,
      "көч": 1805,
      "##усу": 1806,
      "##тин": 1807,
      "##лары": 1808,
      "##раил": 1809,
      "көрсөтк": 1810,
      "##улуп": 1811,
      "##демия": 1812,
      "##ланды": 1813,
      "##ияда": 1814,
      "##ститу": 1815,
      "##за": 1816,
      "##дөгү": 1817,
      "эмг": 1818,
      "пан": 1819,
      "алтын": 1820,
      "мүчө": 1821,
      "соода": 1822,
      "##тип": 1823,
      "израил": 1824,
      "максат": 1825,
      "коррупция": 1826,
      "өзүнүн": 1827,
      "24": 1828,
      "##дери": 1829,
      "интер": 1830,
      "прокуратур": 1831,
      "европа": 1832,
      "кап": 1833,
      "ашуун": 1834,
      "талкуу": 1835,
      "ыра": 1836,
      "##игин": 1837,
      "аларды": 1838,
      "ды": 1839,
      "##бул": 1840,
      "##ерге": 1841,
      "##ишкен": 1842,
      "саат": 1843,
      "конститу": 1844,
      "атам": 1845,
      "журналисттер": 1846,
      "мартта": 1847,
      "министрлигинин": 1848,
      "мадан": 1849,
      "##ыктар": 1850,
      "күт": 1851,
      "мектеп": 1852,
      "жолугуш": 1853,
      "##чал": 1854,
      "тышкары": 1855,
      "күй": 1856,
      "##бы": 1857,
      "мүмкүнчүл": 1858,
      "кызматкерлер": 1859,
      "өкүлү": 1860,
      "анан": 1861,
      "негизги": 1862,
      "берет": 1863,
      "башталган": 1864,
      "дун": 1865,
      "маалыматына": 1866,
      "##ктылуу": 1867,
      "##жан": 1868,
      "ысык": 1869,
      "комм": 1870,
      "##жы": 1871,
      "##ограм": 1872,
      "керект": 1873,
      "акшнын": 1874,
      "жу": 1875,
      "лар": 1876,
      "такт": 1877,
      "көң": 1878,
      "келди": 1879,
      "берилген": 1880,
      "##дарынын": 1881,
      "ир": 1882,
      "сай": 1883,
      "ошондуктан": 1884,
      "бишкекте": 1885,
      "тизм": 1886,
      "уб": 1887,
      "октябр": 1888,
      "москва": 1889,
      "##өрү": 1890,
      "##акт": 1891,
      "маш": 1892,
      "жазган": 1893,
      "түнкүсүн": 1894,
      "элдик": 1895,
      "##тко": 1896,
      "##ардык": 1897,
      "жеткир": 1898,
      "##аль": 1899,
      "көңүл": 1900,
      "##кын": 1901,
      "полиция": 1902,
      "жарым": 1903,
      "фон": 1904,
      "жээн": 1905,
      "ов": 1906,
      "изил": 1907,
      "саламаттык": 1908,
      "##стр": 1909,
      "##ттү": 1910,
      "экени": 1911,
      "2020": 1912,
      "##мыл": 1913,
      "##дарына": 1914,
      "дарыгер": 1915,
      "жагдай": 1916,
      "ноябрда": 1917,
      "белгиледи": 1918,
      "тыюу": 1919,
      "дон": 1920,
      "авто": 1921,
      "деңг": 1922,
      "##кери": 1923,
      "мун": 1924,
      "мекен": 1925,
      "августта": 1926,
      "##кул": 1927,
      "дүйнөлүк": 1928,
      "деңгээ": 1929,
      "өкүлдөрү": 1930,
      "##ордук": 1931,
      "жалал": 1932,
      "ооганстан": 1933,
      "сок": 1934,
      "##мак": 1935,
      "дын": 1936,
      "##үнөн": 1937,
      "маалымда": 1938,
      "документт": 1939,
      "100": 1940,
      "кылмышт": 1941,
      "##ич": 1942,
      "##елүү": 1943,
      "систем": 1944,
      "бөлүм": 1945,
      "жазды": 1946,
      "атт": 1947,
      "кийинки": 1948,
      "##ушка": 1949,
      "##етте": 1950,
      "апрелде": 1951,
      "зарыл": 1952,
      "кыймыл": 1953,
      "согушт": 1954,
      "##сынан": 1955,
      "алты": 1956,
      "фин": 1957,
      "кезде": 1958,
      "убактылуу": 1959,
      "##иц": 1960,
      "##гынын": 1961,
      "опер": 1962,
      "амер": 1963,
      "##од": 1964,
      "##аттары": 1965,
      "тез": 1966,
      "##дөй": 1967,
      "ишин": 1968,
      "##егинде": 1969,
      "кыргызстанга": 1970,
      "ири": 1971,
      "кит": 1972,
      "өнүкт": 1973,
      "жабыр": 1974,
      "##диги": 1975,
      "бере": 1976,
      "##тон": 1977,
      "пайда": 1978,
      "сүрөтт": 1979,
      "дайын": 1980,
      "тан": 1981,
      "азырынча": 1982,
      "##еж": 1983,
      "иликтөө": 1984,
      "опп": 1985,
      "байк": 1986,
      "22": 1987,
      "жетекчиси": 1988,
      "##ыктын": 1989,
      "канча": 1990,
      "шект": 1991,
      "реф": 1992,
      "сентябрда": 1993,
      "##орм": 1994,
      "тел": 1995,
      "жатабыз": 1996,
      "учурунда": 1997,
      "темир": 1998,
      "##ала": 1999,
      "жылдары": 2000,
      "код": 2001,
      "##дыгы": 2002,
      "июнда": 2003,
      "##ият": 2004,
      "пайд": 2005,
      "котор": 2006,
      "салган": 2007,
      "алууга": 2008,
      "кум": 2009,
      "сул": 2010,
      "сез": 2011,
      "демок": 2012,
      "декабрда": 2013,
      "кайтар": 2014,
      "январда": 2015,
      "##даш": 2016,
      "бошот": 2017,
      "болгону": 2018,
      "башкарм": 2019,
      "башында": 2020,
      "##имов": 2021,
      "урук": 2022,
      "сам": 2023,
      "алат": 2024,
      "вла": 2025,
      "##кция": 2026,
      "##ээр": 2027,
      "жоопкер": 2028,
      "##кат": 2029,
      "##уулар": 2030,
      "элдин": 2031,
      "ду": 2032,
      "кү": 2033,
      "катышкан": 2034,
      "коркуну": 2035,
      "өлүм": 2036,
      "уулу": 2037,
      "##кин": 2038,
      "##аса": 2039,
      "бейт": 2040,
      "кетти": 2041,
      "мөөнөт": 2042,
      "кирген": 2043,
      "адм": 2044,
      "депутаттар": 2045,
      "##тык": 2046,
      "иштери": 2047,
      "кыргызстандык": 2048,
      "ый": 2049,
      "брит": 2050,
      "бю": 2051,
      "##дж": 2052,
      "ташт": 2053,
      "##мо": 2054,
      "белги": 2055,
      "##етр": 2056,
      "##илүү": 2057,
      "##ганы": 2058,
      "##укка": 2059,
      "##аттын": 2060,
      "##гөй": 2061,
      "ишмер": 2062,
      "тараб": 2063,
      "бүлө": 2064,
      "23": 2065,
      "басып": 2066,
      "##сүндө": 2067,
      "калы": 2068,
      "алка": 2069,
      "облусунун": 2070,
      "жазылган": 2071,
      "##ология": 2072,
      "2021": 2073,
      "себеп": 2074,
      "себеби": 2075,
      "##анас": 2076,
      "##үшт": 2077,
      "##ара": 2078,
      "гер": 2079,
      "##ттер": 2080,
      "##дум": 2081,
      "кала": 2082,
      "ий": 2083,
      "тай": 2084,
      "үст": 2085,
      "##димир": 2086,
      "##хан": 2087,
      "акыл": 2088,
      "катуу": 2089,
      "акч": 2090,
      "##емб": 2091,
      "түшкөн": 2092,
      "кызык": 2093,
      "талиб": 2094,
      "кайрылуу": 2095,
      "убак": 2096,
      "украинага": 2097,
      "владимир": 2098,
      "келин": 2099,
      "укукт": 2100,
      "ажыр": 2101,
      "жоопкерчил": 2102,
      "шайл": 2103,
      "облусунда": 2104,
      "белар": 2105,
      "28": 2106,
      "чүй": 2107,
      "2022": 2108,
      "маанилүү": 2109,
      "көй": 2110,
      "балдар": 2111,
      "жаза": 2112,
      "##рес": 2113,
      "армия": 2114,
      "co": 2115,
      "маселелер": 2116,
      "##ограмм": 2117,
      "21": 2118,
      "кызматынын": 2119,
      "кээ": 2120,
      "абдан": 2121,
      "көпчүл": 2122,
      "белгилен": 2123,
      "##кө": 2124,
      "##на": 2125,
      "##етин": 2126,
      "маалыматка": 2127,
      "жашоо": 2128,
      "##бол": 2129,
      "миңден": 2130,
      "жээнбеков": 2131,
      "кыск": 2132,
      "реж": 2133,
      "шайлоого": 2134,
      "аскерлер": 2135,
      "жиб": 2136,
      "##тур": 2137,
      "келе": 2138,
      "кошумчал": 2139,
      "бирим": 2140,
      "эрт": 2141,
      "ради": 2142,
      "курман": 2143,
      "имар": 2144,
      "27": 2145,
      "##ганын": 2146,
      "\",-": 2147,
      "ту": 2148,
      "##түр": 2149,
      "каал": 2150,
      "##ологиялык": 2151,
      "кыргызстандагы": 2152,
      "кама": 2153,
      "##деген": 2154,
      "оппозиция": 2155,
      "башкармалы": 2156,
      "тала": 2157,
      "##баган": 2158,
      "##ого": 2159,
      "сунуш": 2160,
      "азаттыкка": 2161,
      "бү": 2162,
      "бейтап": 2163,
      "адист": 2164,
      "##индеги": 2165,
      "кетип": 2166,
      "пандемия": 2167,
      "ары": 2168,
      "чейинки": 2169,
      "##оону": 2170,
      "июлда": 2171,
      "менин": 2172,
      "казакстандын": 2173,
      "ык": 2174,
      "дарыл": 2175,
      "оору": 2176,
      "калып": 2177,
      "негизинде": 2178,
      "жарат": 2179,
      "адамдын": 2180,
      "##мон": 2181,
      "##итардык": 2182,
      "мит": 2183,
      "жети": 2184,
      "атамбаев": 2185,
      "##бөй": 2186,
      "сотко": 2187,
      "тран": 2188,
      "##че": 2189,
      "алкагында": 2190,
      "тоол": 2191,
      "инв": 2192,
      "уруксат": 2193,
      "##арий": 2194,
      "мурун": 2195,
      "##др": 2196,
      "##елген": 2197,
      "деңгээл": 2198,
      "адв": 2199,
      "көйгөй": 2200,
      "бизге": 2201,
      "илд": 2202,
      "##ард": 2203,
      "##тке": 2204,
      "интерн": 2205,
      "окуялар": 2206,
      "тиешелүү": 2207,
      "адвок": 2208,
      "##дердин": 2209,
      "пайыз": 2210,
      "26": 2211,
      "гр": 2212,
      "##фон": 2213,
      "50": 2214,
      "министрлер": 2215,
      "##аттуу": 2216,
      "өнөкт": 2217,
      "##ишти": 2218,
      "теле": 2219,
      "алгачкы": 2220,
      "рак": 2221,
      "инвест": 2222,
      "терр": 2223,
      "##ти": 2224,
      "##бейт": 2225,
      "орусияда": 2226,
      "дө": 2227,
      "##ах": 2228,
      "##мөн": 2229,
      "баштады": 2230,
      "өкмөттүн": 2231,
      "199": 2232,
      "нер": 2233,
      "дир": 2234,
      "макс": 2235,
      "төм": 2236,
      "орто": 2237,
      "эске": 2238,
      "төмөн": 2239,
      "ыкт": 2240,
      "##сул": 2241,
      "кызматта": 2242,
      "айтылат": 2243,
      "февралда": 2244,
      "##орун": 2245,
      "орусиялык": 2246,
      "тоо": 2247,
      "##өшт": 2248,
      "вак": 2249,
      "жерлер": 2250,
      "колдо": 2251,
      "ашыр": 2252,
      "кабарлады": 2253,
      "медициналык": 2254,
      "##аларын": 2255,
      "катышуу": 2256,
      "##vi": 2257,
      "сайын": 2258,
      "көрүн": 2259,
      "зом": 2260,
      "катчысы": 2261,
      "жеңил": 2262,
      "түркия": 2263,
      "мисалы": 2264,
      "муз": 2265,
      "камакка": 2266,
      "видео": 2267,
      "##үүчү": 2268,
      "##ымал": 2269,
      "жайгашкан": 2270,
      "##далган": 2271,
      "басым": 2272,
      "пайдалан": 2273,
      "зомбул": 2274,
      "өттү": 2275,
      "шек": 2276,
      "##есине": 2277,
      "жарыялаган": 2278,
      "##онун": 2279,
      "об": 2280,
      "гы": 2281,
      "##аттан": 2282,
      "жатып": 2283,
      "борбордук": 2284,
      "кеп": 2285,
      "кызматкерлери": 2286,
      "чыгыш": 2287,
      "бюдж": 2288,
      "##син": 2289,
      "##ыйж": 2290,
      "жашаган": 2291,
      "натыйж": 2292,
      "нерсе": 2293,
      "##өнү": 2294,
      "уюмунун": 2295,
      "көрүп": 2296,
      "уча": 2297,
      "жерге": 2298,
      "басыл": 2299,
      "операция": 2300,
      "бет": 2301,
      "инф": 2302,
      "демил": 2303,
      "аларга": 2304,
      "##чүлөр": 2305,
      "нааразылык": 2306,
      "##рд": 2307,
      "##рон": 2308,
      "ордун": 2309,
      "млрд": 2310,
      "коркунуч": 2311,
      "туш": 2312,
      "##абы": 2313,
      "эмгек": 2314,
      "мэр": 2315,
      "##газ": 2316,
      "митинг": 2317,
      "вакцин": 2318,
      "##иверс": 2319,
      "##орлор": 2320,
      "автоуна": 2321,
      "эреж": 2322,
      "базар": 2323,
      "зы": 2324,
      "четке": 2325,
      "арас": 2326,
      "өзгөрт": 2327,
      "демократ": 2328,
      "##сак": 2329,
      "кабин": 2330,
      "салып": 2331,
      "милдетт": 2332,
      "соту": 2333,
      "##иштүү": 2334,
      "күндө": 2335,
      "##дөгөн": 2336,
      "##ский": 2337,
      "белгисиз": 2338,
      "##суна": 2339,
      "2019": 2340,
      "эг": 2341,
      "##ош": 2342,
      "каражат": 2343,
      "лидер": 2344,
      "тир": 2345,
      "айл": 2346,
      "ишкана": 2347,
      "герман": 2348,
      "##ентарий": 2349,
      "арада": 2350,
      "депутаты": 2351,
      "чогул": 2352,
      "тарабынан": 2353,
      "универс": 2354,
      "сар": 2355,
      "катталган": 2356,
      "##лом": 2357,
      "кыйын": 2358,
      "элчил": 2359,
      "##өөлөр": 2360,
      "өткөрүп": 2361,
      "бак": 2362,
      "##актар": 2363,
      "республик": 2364,
      "комментарий": 2365,
      "парламент": 2366,
      "ачыл": 2367,
      "гүл": 2368,
      "өс": 2369,
      "аймагында": 2370,
      "баштап": 2371,
      "##ыштыр": 2372,
      "дээр": 2373,
      "##ья": 2374,
      "бы": 2375,
      "мунун": 2376,
      "арм": 2377,
      "тов": 2378,
      "трам": 2379,
      "жакт": 2380,
      "абд": 2381,
      "дип": 2382,
      "сүйлөшүүлөр": 2383,
      "ракет": 2384,
      "санкция": 2385,
      "мин": 2386,
      "чыга": 2387,
      "спорт": 2388,
      "түштүк": 2389,
      "диплом": 2390,
      "шарт": 2391,
      "##ону": 2392,
      "трамп": 2393,
      "мез": 2394,
      "дээрлик": 2395,
      "тууган": 2396,
      "улуу": 2397,
      "мезгил": 2398,
      "салык": 2399,
      "##аг": 2400,
      "башчы": 2401,
      "тармактар": 2402,
      "университ": 2403,
      "тери": 2404,
      "##сүз": 2405,
      "##алим": 2406,
      "тапкан": 2407,
      "директ": 2408,
      "жөнөт": 2409,
      "куу": 2410,
      "жактан": 2411,
      "коопсузду": 2412,
      "##алдуу": 2413,
      "жогору": 2414,
      "##алап": 2415,
      "парламенттик": 2416,
      "тон": 2417,
      "бишкектин": 2418,
      "киев": 2419,
      "##оонун": 2420,
      "миллиард": 2421,
      "##өрүн": 2422,
      "##vid": 2423,
      "кас": 2424,
      "##ылыш": 2425,
      "сында": 2426,
      "##алардын": 2427,
      "##өгө": 2428,
      "жазып": 2429,
      "аг": 2430,
      "##чулардын": 2431,
      "##деп": 2432,
      "жума": 2433,
      "чакырды": 2434,
      "кым": 2435,
      "##беген": 2436,
      "бирик": 2437,
      "бийлиг": 2438,
      "бл": 2439,
      "##еттин": 2440,
      "29": 2441,
      "кодекс": 2442,
      "соттун": 2443,
      "матери": 2444,
      "##сө": 2445,
      "кадам": 2446,
      "ичинен": 2447,
      "жыйынында": 2448,
      "##орду": 2449,
      "кесип": 2450,
      "##бө": 2451,
      "батыш": 2452,
      "##шу": 2453,
      "сыртк": 2454,
      "тажикстандын": 2455,
      "таг": 2456,
      "тург": 2457,
      "##арга": 2458,
      "куралдуу": 2459,
      "орусияга": 2460,
      "чыгарып": 2461,
      "##илер": 2462,
      "кытайдын": 2463,
      "жакында": 2464,
      "каранды": 2465,
      "жибер": 2466,
      "түрдө": 2467,
      "ислам": 2468,
      "сөө": 2469,
      "##ыгын": 2470,
      "##арым": 2471,
      "үл": 2472,
      "бой": 2473,
      "өнүг": 2474,
      "##үлдү": 2475,
      "кирип": 2476,
      "суроо": 2477,
      "##дерди": 2478,
      "түзүлгөн": 2479,
      "##ирим": 2480,
      "көбү": 2481,
      "кызматтан": 2482,
      "##емен": 2483,
      "кумтөр": 2484,
      "диний": 2485,
      "##on": 2486,
      "өнүктүрүү": 2487,
      "андай": 2488,
      "covid": 2489,
      "ны": 2490,
      "##ина": 2491,
      "бишкектеги": 2492,
      "түндүк": 2493,
      "##устун": 2494,
      "барак": 2495,
      "калтыр": 2496,
      "##пөй": 2497,
      "##ост": 2498,
      "##елен": 2499,
      "аян": 2500,
      "далил": 2501,
      "лидери": 2502,
      "##догу": 2503,
      "укугу": 2504,
      "ыраст": 2505,
      "##үүнүн": 2506,
      "баарын": 2507,
      "боло": 2508,
      "доо": 2509,
      "алы": 2510,
      "курулуш": 2511,
      "##шемб": 2512,
      "коюлган": 2513,
      "эп": 2514,
      "тилк": 2515,
      "##елери": 2516,
      "банк": 2517,
      "өтүн": 2518,
      "азатт": 2519,
      "тоб": 2520,
      "фран": 2521,
      "таң": 2522,
      "программ": 2523,
      "##бур": 2524,
      "билдирип": 2525,
      "бизде": 2526,
      "кармап": 2527,
      "кыйн": 2528,
      "учурлар": 2529,
      "##айым": 2530,
      "кошумчалады": 2531,
      "зыян": 2532,
      "кантип": 2533,
      "##ылганын": 2534,
      "курам": 2535,
      "телефон": 2536,
      "нарын": 2537,
      "фей": 2538,
      "бүгүнкү": 2539,
      "кошумча": 2540,
      "баян": 2541,
      "##есинин": 2542,
      "##дия": 2543,
      "шаарынын": 2544,
      "сту": 2545,
      "каражаттар": 2546,
      "##чулары": 2547,
      "##гүл": 2548,
      "тоолуу": 2549,
      "факт": 2550,
      "дарыгерлер": 2551,
      "маселеси": 2552,
      "ортосундагы": 2553,
      "##ланып": 2554,
      "нар": 2555,
      "##ерен": 2556,
      "##ебиз": 2557,
      "жетиш": 2558,
      "жолдо": 2559,
      "##укту": 2560,
      "мамиле": 2561,
      "вирус": 2562,
      "акы": 2563,
      "өлтүр": 2564,
      "наз": 2565,
      "##сунда": 2566,
      "радиос": 2567,
      "##сүнө": 2568,
      "##er": 2569,
      "сир": 2570,
      "иштет": 2571,
      "мүчөлөр": 2572,
      "турукт": 2573,
      "окш": 2574,
      "басылм": 2575,
      "##ид": 2576,
      "чыгарган": 2577,
      "no": 2578,
      "мүл": 2579,
      "кайрадан": 2580,
      "##алууда": 2581,
      "бийликтин": 2582,
      "##ларга": 2583,
      "##бү": 2584,
      "кымб": 2585,
      "##атор": 2586,
      "бажы": 2587,
      "чың": 2588,
      "сер": 2589,
      "туруп": 2590,
      "көргөн": 2591,
      "инстит": 2592,
      "40": 2593,
      "##биз": 2594,
      "##атив": 2595,
      "кылуу": 2596,
      "##арынын": 2597,
      "калат": 2598,
      "##пар": 2599,
      "сегиз": 2600,
      "мир": 2601,
      "##ея": 2602,
      "китеп": 2603,
      "тө": 2604,
      "алекс": 2605,
      "облустук": 2606,
      "жасаган": 2607,
      "жабырк": 2608,
      "коюп": 2609,
      "экономик": 2610,
      "##штир": 2611,
      "азаттыктын": 2612,
      "ни": 2613,
      "кызы": 2614,
      "##егер": 2615,
      "байден": 2616,
      "көпт": 2617,
      "эгемен": 2618,
      "мамлекеттин": 2619,
      "районунун": 2620,
      "баракч": 2621,
      "райондор": 2622,
      "##дыруу": 2623,
      "мал": 2624,
      "мамлекеттер": 2625,
      "алмаз": 2626,
      "мына": 2627,
      "##уктур": 2628,
      "болбойт": 2629,
      "сов": 2630,
      "акын": 2631,
      "##ибиз": 2632,
      "##дыгын": 2633,
      "орн": 2634,
      "аттуу": 2635,
      "##чалык": 2636,
      "мага": 2637,
      "бизн": 2638,
      "матра": 2639,
      "##орон": 2640,
      "өлкөдөгү": 2641,
      "жарыяланган": 2642,
      "ташиев": 2643,
      "##исттик": 2644,
      "белгилеп": 2645,
      "муг": 2646,
      "каттоо": 2647,
      "макулдаш": 2648,
      "чем": 2649,
      "жашыр": 2650,
      "товар": 2651,
      "айдоо": 2652,
      "метр": 2653,
      "башкаруу": 2654,
      "мугалим": 2655,
      "##ктык": 2656,
      "ишеним": 2657,
      "нун": 2658,
      "күндөрү": 2659,
      "ишкерлер": 2660,
      "##алоо": 2661,
      "уг": 2662,
      "султан": 2663,
      "тин": 2664,
      "үм": 2665,
      "үйлөр": 2666,
      "кырсы": 2667,
      "албетте": 2668,
      "көчө": 2669,
      "бөлүн": 2670,
      "чыр": 2671,
      "чара": 2672,
      "студен": 2673,
      "өч": 2674,
      "бшк": 2675,
      "31": 2676,
      "аск": 2677,
      "жарыялады": 2678,
      "админист": 2679,
      "##илет": 2680,
      "партиясынын": 2681,
      "апта": 2682,
      "ыктымал": 2683,
      "ирет": 2684,
      "чемпи": 2685,
      "адамдардын": 2686,
      "жалпысынан": 2687,
      "коронавируска": 2688,
      "##орма": 2689,
      "болгондор": 2690,
      "##лап": 2691,
      "##аң": 2692,
      "карж": 2693,
      "көлөм": 2694,
      "жылдар": 2695,
      "маалыматты": 2696,
      "##өөгө": 2697,
      "кадыр": 2698,
      "өкмөтү": 2699,
      "##дыктан": 2700,
      "кеңешинин": 2701,
      "канал": 2702,
      "долбоору": 2703,
      "режим": 2704,
      "##еге": 2705,
      "администрация": 2706,
      "бийликке": 2707,
      "ада": 2708,
      "##бия": 2709,
      "таян": 2710,
      "##чусу": 2711,
      "##ңиз": 2712,
      "шаарындагы": 2713,
      "сырткары": 2714,
      "өзбекстандын": 2715,
      "максатында": 2716,
      "##илип": 2717,
      "абалы": 2718,
      "аныкталган": 2719,
      "жам": 2720,
      "##едер": 2721,
      "##йр": 2722,
      "##олд": 2723,
      "кызматкери": 2724,
      "##гындагы": 2725,
      "##мок": 2726,
      "конституция": 2727,
      "##улат": 2728,
      "дүйш": 2729,
      "кылды": 2730,
      "аль": 2731,
      "##елип": 2732,
      "айынан": 2733,
      "карабай": 2734,
      "##акция": 2735,
      "мигранттар": 2736,
      "азер": 2737,
      "териштир": 2738,
      "энергет": 2739,
      "бут": 2740,
      "жарак": 2741,
      "токто": 2742,
      "зелен": 2743,
      "айтканда": 2744,
      "азербай": 2745,
      "##анов": 2746,
      "кишинин": 2747,
      "кана": 2748,
      "жуг": 2749,
      "##матов": 2750,
      "беренеси": 2751,
      "мыкты": 2752,
      "тапта": 2753,
      "багытт": 2754,
      "изилдөө": 2755,
      "ла": 2756,
      "алыш": 2757,
      "мед": 2758,
      "##штуу": 2759,
      "##еттик": 2760,
      "##дигин": 2761,
      "миңдей": 2762,
      "##жол": 2763,
      "турм": 2764,
      "##ыктан": 2765,
      "украинадагы": 2766,
      "сайт": 2767,
      "##луу": 2768,
      "##дөп": 2769,
      "коргон": 2770,
      "камчы": 2771,
      "көрсөткүч": 2772,
      "түшүп": 2773,
      "жакта": 2774,
      "##ma": 2775,
      "аякт": 2776,
      "манас": 2777,
      "ортосунда": 2778,
      "мүчөсү": 2779,
      "ишкер": 2780,
      "ишкан": 2781,
      "болуш": 2782,
      "##тти": 2783,
      "качан": 2784,
      "##атр": 2785,
      "жокко": 2786,
      "жылдагы": 2787,
      "эксперт": 2788,
      "##пей": 2789,
      "өзүнө": 2790,
      "##зия": 2791,
      "март": 2792,
      "телек": 2793,
      "чечими": 2794,
      "зеленский": 2795,
      "укуктар": 2796,
      "жаңж": 2797,
      "алганын": 2798,
      "аялдар": 2799,
      "кызыкчыл": 2800,
      "уур": 2801,
      "##укта": 2802,
      "тог": 2803,
      "эст": 2804,
      "##атып": 2805,
      "алм": 2806,
      "##ыла": 2807,
      "соорон": 2808,
      "түзгөн": 2809,
      "##сында": 2810,
      "##улду": 2811,
      "стан": 2812,
      "ката": 2813,
      "##ттан": 2814,
      "улант": 2815,
      "кызыл": 2816,
      "##дүүл": 2817,
      "козголгон": 2818,
      "салынган": 2819,
      "тегер": 2820,
      "түркмөн": 2821,
      "согушка": 2822,
      "коң": 2823,
      "##туп": 2824,
      "##уусу": 2825,
      "##аларга": 2826,
      "трансп": 2827,
      "##байт": 2828,
      "кодексинин": 2829,
      "##етке": 2830,
      "сүрөттүн": 2831,
      "бара": 2832,
      "бараткан": 2833,
      "уюму": 2834,
      "отурган": 2835,
      "##өйр": 2836,
      "аппар": 2837,
      "тартылган": 2838,
      "##иси": 2839,
      "##цион": 2840,
      "азербайжан": 2841,
      "бериш": 2842,
      "байланыш": 2843,
      "карантин": 2844,
      "мүнө": 2845,
      "ишти": 2846,
      "бою": 2847,
      "калк": 2848,
      "2023": 2849,
      "бөлүгү": 2850,
      "##елерди": 2851,
      "##ице": 2852,
      "мел": 2853,
      "үз": 2854,
      "берүүгө": 2855,
      "##игине": 2856,
      "##олду": 2857,
      "карма": 2858,
      "үчүнчү": 2859,
      "иим": 2860,
      "уюмдар": 2861,
      "##есинде": 2862,
      "##ева": 2863,
      "жеткен": 2864,
      "маалымдады": 2865,
      "кесеп": 2866,
      "вице": 2867,
      "ген": 2868,
      "чук": 2869,
      "тарткан": 2870,
      "жетект": 2871,
      "уна": 2872,
      "белгилеген": 2873,
      "калганын": 2874,
      "мус": 2875,
      "келеч": 2876,
      "албайт": 2877,
      "түл": 2878,
      "##көм": 2879,
      "##ад": 2880,
      "киреш": 2881,
      "##олуп": 2882,
      "комитетинин": 2883,
      "бийликти": 2884,
      "кабарлаган": 2885,
      "олим": 2886,
      "##юз": 2887,
      "##ектен": 2888,
      "жайлар": 2889,
      "жарандар": 2890,
      "ошент": 2891,
      "##уман": 2892,
      "саясатчы": 2893,
      "##асп": 2894,
      "өлкөгө": 2895,
      "шайлоодо": 2896,
      "кызматташт": 2897,
      "##өрдү": 2898,
      "эсеб": 2899,
      "энергия": 2900,
      "фейс": 2901,
      "##алышы": 2902,
      "##ини": 2903,
      "курч": 2904,
      "кармалып": 2905,
      "сокку": 2906,
      "##өөл": 2907,
      "##атын": 2908,
      "кезект": 2909,
      "болбой": 2910,
      "маданият": 2911,
      "материал": 2912,
      "экс": 2913,
      "суроолор": 2914,
      "##анды": 2915,
      "##обирим": 2916,
      "евробирим": 2917,
      "##оочу": 2918,
      "жараны": 2919,
      "көпчүлүк": 2920,
      "болорун": 2921,
      "аты": 2922,
      "##аниянын": 2923,
      "көк": 2924,
      "тынчтык": 2925,
      "проц": 2926,
      "##ti": 2927,
      "##илди": 2928,
      "казакстанда": 2929,
      "##уучулар": 2930,
      "кабылган": 2931,
      "мигрантт": 2932,
      "убакыт": 2933,
      "бирг": 2934,
      "##ушту": 2935,
      "маалда": 2936,
      "жылды": 2937,
      "рос": 2938,
      "##тал": 2939,
      "бирин": 2940,
      "стат": 2941,
      "инвестиция": 2942,
      "парламенттин": 2943,
      "аст": 2944,
      "##истан": 2945,
      "##есс": 2946,
      "чукул": 2947,
      "сапар": 2948,
      "элге": 2949,
      "жүрүш": 2950,
      "ыйг": 2951,
      "өкүм": 2952,
      "##мит": 2953,
      "##иф": 2954,
      "##оло": 2955,
      "прокуратура": 2956,
      "кабинетинин": 2957,
      "пак": 2958,
      "конституциялык": 2959,
      "##екция": 2960,
      "жабыркаган": 2961,
      "корея": 2962,
      "сомго": 2963,
      "убада": 2964,
      "демилг": 2965,
      "деги": 2966,
      "жылда": 2967,
      "талас": 2968,
      "чогуу": 2969,
      "белгиленген": 2970,
      "команда": 2971,
      "буйр": 2972,
      "аэр": 2973,
      "өнөр": 2974,
      "буу": 2975,
      "түй": 2976,
      "жараат": 2977,
      "ордуна": 2978,
      "соттук": 2979,
      "мектепт": 2980,
      "таза": 2981,
      "койду": 2982,
      "ына": 2983,
      "60": 2984,
      "жаман": 2985,
      "##ью": 2986,
      "долбоорун": 2987,
      "##сиянын": 2988,
      "тартип": 2989,
      "октябрь": 2990,
      "айтылып": 2991,
      "ошондо": 2992,
      "кайрылган": 2993,
      "сүрөт": 2994,
      "карш": 2995,
      "турак": 2996,
      "сен": 2997,
      "##иза": 2998,
      "салыштыр": 2999,
      "##ков": 3000,
      "эгерде": 3001,
      "жасап": 3002,
      "пен": 3003,
      "ойн": 3004,
      "мекеменин": 3005,
      "фр": 3006,
      "тогуз": 3007,
      "##сек": 3008,
      "суд": 3009,
      "##арына": 3010,
      "##атыр": 3011,
      "заман": 3012,
      "айта": 3013,
      "мени": 3014,
      "тарта": 3015,
      "өтөт": 3016,
      "топтор": 3017,
      "телекан": 3018,
      "##ушкан": 3019,
      "##хам": 3020,
      "тилек": 3021,
      "##андын": 3022,
      "сентябр": 3023,
      "карыз": 3024,
      "күчөт": 3025,
      "##өткө": 3026,
      "күм": 3027,
      "##даган": 3028,
      "бекем": 3029,
      "туруктуу": 3030,
      "мыйзамга": 3031,
      "##гынан": 3032,
      "##ант": 3033,
      "##үндөгү": 3034,
      "2018": 3035,
      "акылбек": 3036,
      "тен": 3037,
      "##үлөт": 3038,
      "кыргызстандыктар": 3039,
      "жерден": 3040,
      "##угун": 3041,
      "борбору": 3042,
      "кескин": 3043,
      "жаңжал": 3044,
      "##ема": 3045,
      "##ияга": 3046,
      "##аламан": 3047,
      "корго": 3048,
      "сомдон": 3049,
      "аракети": 3050,
      "мон": 3051,
      "жашап": 3052,
      "##шти": 3053,
      "алынып": 3054,
      "маселени": 3055,
      "жетти": 3056,
      "жылдык": 3057,
      "өкүлдөр": 3058,
      "талкуул": 3059,
      "эсептейт": 3060,
      "##гып": 3061,
      "жалгыз": 3062,
      "##мин": 3063,
      "##аков": 3064,
      "араб": 3065,
      "экөө": 3066,
      "##өөк": 3067,
      "керектигин": 3068,
      "барат": 3069,
      "аман": 3070,
      "ме": 3071,
      "ооруканага": 3072,
      "башаламан": 3073,
      "иштерин": 3074,
      "директору": 3075,
      "отурум": 3076,
      "финан": 3077,
      "жакка": 3078,
      "нерс": 3079,
      "насы": 3080,
      "##уулук": 3081,
      "америкалык": 3082,
      "фут": 3083,
      "сум": 3084,
      "##ми": 3085,
      "экономика": 3086,
      "бөгө": 3087,
      "билдиргендей": 3088,
      "жыйынтыгы": 3089,
      "чарба": 3090,
      "жүк": 3091,
      "киргизилген": 3092,
      "ондогон": 3093,
      "башкармалыгынын": 3094,
      "##ъект": 3095,
      "тараткан": 3096,
      "күйөө": 3097,
      "гө": 3098,
      "документ": 3099,
      "тамак": 3100,
      "чөйр": 3101,
      "80": 3102,
      "зав": 3103,
      "##иктер": 3104,
      "##рый": 3105,
      "түркиянын": 3106,
      "мекемелер": 3107,
      "жолдор": 3108,
      "штаб": 3109,
      "##ордун": 3110,
      "##аша": 3111,
      "маж": 3112,
      "тажрый": 3113,
      "алынды": 3114,
      "##ларын": 3115,
      "каттам": 3116,
      "активисттер": 3117,
      "ке": 3118,
      "##амат": 3119,
      "ша": 3120,
      "##чар": 3121,
      "жаштар": 3122,
      "түрмө": 3123,
      "федер": 3124,
      "күнөөл": 3125,
      "сөздөр": 3126,
      "бириккен": 3127,
      "көптөгөн": 3128,
      "дей": 3129,
      "көрсөткөн": 3130,
      "футбол": 3131,
      "көмүр": 3132,
      "##ылышы": 3133,
      "анал": 3134,
      "##баева": 3135,
      "70": 3136,
      "арга": 3137,
      "маалыматта": 3138,
      "туул": 3139,
      "жарандары": 3140,
      "судья": 3141,
      "турганы": 3142,
      "##ткөн": 3143,
      "акый": 3144,
      "чакырым": 3145,
      "ноябр": 3146,
      "кин": 3147,
      "##бөл": 3148,
      "таап": 3149,
      "айтылды": 3150,
      "алмазбек": 3151,
      "манд": 3152,
      "таз": 3153,
      "чемпион": 3154,
      "балдардын": 3155,
      "жаан": 3156,
      "бизди": 3157,
      "жапаровдун": 3158,
      "матраимов": 3159,
      "500": 3160,
      "##исттер": 3161,
      "токтом": 3162,
      "армен": 3163,
      "ээл": 3164,
      "калыб": 3165,
      "##эб": 3166,
      "##раф": 3167,
      "тобу": 3168,
      "аябай": 3169,
      "##уд": 3170,
      "миңдеген": 3171,
      "коррупцияга": 3172,
      "##ири": 3173,
      "баасы": 3174,
      "эртең": 3175,
      "##шке": 3176,
      "кошт": 3177,
      "жасалган": 3178,
      "талаш": 3179,
      "жасал": 3180,
      "клас": 3181,
      "мектептер": 3182,
      "##анып": 3183,
      "кеминде": 3184,
      "агенттиги": 3185,
      "жүрөт": 3186,
      "шайлоонун": 3187,
      "зал": 3188,
      "арасындагы": 3189,
      "##ный": 3190,
      "азык": 3191,
      "буунун": 3192,
      "##аганын": 3193,
      "мер": 3194,
      "атындагы": 3195,
      "түнү": 3196,
      "күнгө": 3197,
      "адистер": 3198,
      "калыбына": 3199,
      "чал": 3200,
      "беларус": 3201,
      "##анган": 3202,
      "##жин": 3203,
      "каралган": 3204,
      "жапон": 3205,
      "##па": 3206,
      "тааны": 3207,
      "кайтып": 3208,
      "бирге": 3209,
      "дароо": 3210,
      "груз": 3211,
      "институт": 3212,
      "олимпи": 3213,
      "##es": 3214,
      "соол": 3215,
      "түзөт": 3216,
      "айда": 3217,
      "##уттуу": 3218,
      "демек": 3219,
      "британия": 3220,
      "##салык": 3221,
      "##уккан": 3222,
      "ишине": 3223,
      "начар": 3224,
      "шам": 3225,
      "##дырып": 3226,
      "шектүү": 3227,
      "кайрылып": 3228,
      "укуктары": 3229,
      "жем": 3230,
      "болбосо": 3231,
      "##ышка": 3232,
      "азай": 3233,
      "криз": 3234,
      "тийгиз": 3235,
      "жагынан": 3236,
      "сел": 3237,
      "адамга": 3238,
      "##штыруу": 3239,
      "караба": 3240,
      "башынан": 3241,
      "крем": 3242,
      "өзүм": 3243,
      "кабарланды": 3244,
      "тараптуу": 3245,
      "медиа": 3246,
      "...-": 3247,
      "кызматташ": 3248,
      "##игинин": 3249,
      "кемп": 3250,
      "баа": 3251,
      "##кум": 3252,
      "кагыл": 3253,
      "чектөө": 3254,
      "гуман": 3255,
      "тут": 3256,
      "аткаруу": 3257,
      "миграция": 3258,
      "камсыздоо": 3259,
      "мүмкүнчүлүк": 3260,
      "пакистан": 3261,
      "##пер": 3262,
      "##ткен": 3263,
      "чыгым": 3264,
      "коюу": 3265,
      "көрсөтүп": 3266,
      "мекеме": 3267,
      "түп": 3268,
      "##ңыз": 3269,
      "кармалды": 3270,
      "жүргүзүп": 3271,
      "камчыбек": 3272,
      "насыя": 3273,
      "бирөө": 3274,
      "тоск": 3275,
      "##икке": 3276,
      "##аак": 3277,
      "улуттар": 3278,
      "комитети": 3279,
      "мей": 3280,
      "ник": 3281,
      "ыбыз": 3282,
      "алганы": 3283,
      "куугун": 3284,
      "союз": 3285,
      "нааразы": 3286,
      "35": 3287,
      "чыгаруу": 3288,
      "франция": 3289,
      "республикалык": 3290,
      "күндөн": 3291,
      "##аттарды": 3292,
      "жумш": 3293,
      "нав": 3294,
      "ошт": 3295,
      "сооронбай": 3296,
      "билдирүүдө": 3297,
      "инин": 3298,
      "эсеп": 3299,
      "өтүнүч": 3300,
      "берүүнү": 3301,
      "министринин": 3302,
      "2017": 3303,
      "##те": 3304,
      "кремл": 3305,
      "укугун": 3306,
      "компаниясы": 3307,
      "аэроп": 3308,
      "кемпир": 3309,
      "пасп": 3310,
      "түзүп": 3311,
      "олуттуу": 3312,
      "ака": 3313,
      "тиешеси": 3314,
      "мунай": 3315,
      "алматы": 3316,
      "##атында": 3317,
      "кайрыл": 3318,
      "##уктун": 3319,
      "##ашкан": 3320,
      "аскерлери": 3321,
      "300": 3322,
      "сыз": 3323,
      "комитет": 3324,
      "##үштү": 3325,
      "бизнес": 3326,
      "катышты": 3327,
      "көбүр": 3328,
      "өлкөлөрдүн": 3329,
      "мүнөз": 3330,
      "эмнеге": 3331,
      "##ро": 3332,
      "куруу": 3333,
      "башкача": 3334,
      "лук": 3335,
      "чу": 3336,
      "чаралар": 3337,
      "жолугушуу": 3338,
      "куугунт": 3339,
      "мыйзамдуу": 3340,
      "колдонуу": 3341,
      "хан": 3342,
      "##ектер": 3343,
      "илимий": 3344,
      "тес": 3345,
      "айдан": 3346,
      "шартт": 3347,
      "өзгөртүү": 3348,
      "күчтөрү": 3349,
      "шаарлар": 3350,
      "өлкөдөн": 3351,
      "бүз": 3352,
      "##евдин": 3353,
      "жатканда": 3354,
      "түзүү": 3355,
      "ажырат": 3356,
      "##мек": 3357,
      "өткөрүү": 3358,
      "табылган": 3359,
      "##сс": 3360,
      "коё": 3361,
      "булактар": 3362,
      "уюмдун": 3363,
      "атаанда": 3364,
      "көмө": 3365,
      "иде": 3366,
      "лык": 3367,
      "##сер": 3368,
      "##ондук": 3369,
      "өздөр": 3370,
      "позиция": 3371,
      "##сам": 3372,
      "##стыкт": 3373,
      "мамлекетке": 3374,
      "тагдыр": 3375,
      "тоскоол": 3376,
      "үйр": 3377,
      "текшерүү": 3378,
      "##бан": 3379,
      "##оро": 3380,
      "жогот": 3381,
      "партиянын": 3382,
      "укмкнын": 3383,
      "тик": 3384,
      "##мушт": 3385,
      "атып": 3386,
      "жакындары": 3387,
      "театр": 3388,
      "90": 3389,
      "##есе": 3390,
      "аймактык": 3391,
      "кеткенин": 3392,
      "чач": 3393,
      "##атка": 3394,
      "ошондон": 3395,
      "акаев": 3396,
      "маркум": 3397,
      "мукта": 3398,
      "сына": 3399,
      "күз": 3400,
      "##ырт": 3401,
      "##шен": 3402,
      "муктаж": 3403,
      "##бар": 3404,
      "жоокер": 3405,
      "көрсөтүлгөн": 3406,
      "карандысыз": 3407,
      "пикирин": 3408,
      "террор": 3409,
      "##ойт": 3410,
      "соз": 3411,
      "берилди": 3412,
      "канчалык": 3413,
      "дегенде": 3414,
      "караштуу": 3415,
      "киргизүү": 3416,
      "катышып": 3417,
      "дайым": 3418,
      "##tion": 3419,
      "##дешт": 3420,
      "арн": 3421,
      "сактап": 3422,
      "##дур": 3423,
      "айга": 3424,
      "ави": 3425,
      "окуп": 3426,
      "страт": 3427,
      "объект": 3428,
      "##улман": 3429,
      "толугу": 3430,
      "лардын": 3431,
      "юр": 3432,
      "майрам": 3433,
      "2010": 3434,
      "мүчөлөрү": 3435,
      "мусулман": 3436,
      "\".": 3437,
      "кылым": 3438,
      "түшүр": 3439,
      "укуктук": 3440,
      "айлан": 3441,
      "##сыздан": 3442,
      "маселесин": 3443,
      "гуманитардык": 3444,
      "ум": 3445,
      "##бет": 3446,
      "##ша": 3447,
      "##лайн": 3448,
      "ошентип": 3449,
      "##яны": 3450,
      "облусундагы": 3451,
      "##өөнү": 3452,
      "сынга": 3453,
      "##бөгөн": 3454,
      "##масы": 3455,
      "##алай": 3456,
      "##еттер": 3457,
      "тартуу": 3458,
      "маалыматтарды": 3459,
      "органдары": 3460,
      "ваш": 3461,
      "##акты": 3462,
      "##богон": 3463,
      "колдогон": 3464,
      "жалган": 3465,
      "салды": 3466,
      "стратег": 3467,
      "кил": 3468,
      "рах": 3469,
      "дипломат": 3470,
      "##изация": 3471,
      "айр": 3472,
      "##еттен": 3473,
      "##ыктуу": 3474,
      "издөө": 3475,
      "айлык": 3476,
      "чыгуу": 3477,
      "дүйшөм": 3478,
      "билген": 3479,
      "дрон": 3480,
      "сак": 3481,
      "тараптан": 3482,
      "##ингтон": 3483,
      "аймактарда": 3484,
      "ооз": 3485,
      "деңиз": 3486,
      "телеканал": 3487,
      "##устан": 3488,
      "өтпөй": 3489,
      "каражаттары": 3490,
      "миңге": 3491,
      "##өттү": 3492,
      "сүйлөшүү": 3493,
      "вашингтон": 3494,
      "ым": 3495,
      "##al": 3496,
      "##абай": 3497,
      "корку": 3498,
      "адамды": 3499,
      "жаңыл": 3500,
      "##сих": 3501,
      "негизинен": 3502,
      "айылында": 3503,
      "техникалык": 3504,
      "##чам": 3505,
      "##иясы": 3506,
      "бербей": 3507,
      "сана": 3508,
      "##гым": 3509,
      "мөөнөтү": 3510,
      "##шембиде": 3511,
      "көбүрөөк": 3512,
      "арх": 3513,
      "тр": 3514,
      "##ыс": 3515,
      "болжол": 3516,
      "маалыматы": 3517,
      "аң": 3518,
      "##чынын": 3519,
      "баки": 3520,
      "жакшыр": 3521,
      "партиясы": 3522,
      "түрдүү": 3523,
      "бойдон": 3524,
      "каржыл": 3525,
      "акыйкат": 3526,
      "наваль": 3527,
      "камалган": 3528,
      "чечимин": 3529,
      "болууда": 3530,
      "фил": 3531,
      "талапкерлер": 3532,
      "##ула": 3533,
      "##in": 3534,
      "##en": 3535,
      "чыгарма": 3536,
      "долбоорлор": 3537,
      "##кулов": 3538,
      "##ырып": 3539,
      "кийим": 3540,
      "##мун": 3541,
      "##ышына": 3542,
      "онлайн": 3543,
      "жокт": 3544,
      "##ста": 3545,
      "маегинде": 3546,
      "жетекчи": 3547,
      "арз": 3548,
      "аким": 3549,
      "бую": 3550,
      "өзүнчө": 3551,
      "армиясы": 3552,
      "псих": 3553,
      "өң": 3554,
      "орусиядагы": 3555,
      "чектөөлөр": 3556,
      "дост": 3557,
      "ыкчам": 3558,
      "тургуну": 3559,
      "##рад": 3560,
      "кызматка": 3561,
      "##дерге": 3562,
      "бөгөт": 3563,
      "##ура": 3564,
      "жыйында": 3565,
      "##өөнүн": 3566,
      "жакынкы": 3567,
      "түркмөнстан": 3568,
      "талибан": 3569,
      "##кап": 3570,
      "##ылууда": 3571,
      "машин": 3572,
      "террордук": 3573,
      "тас": 3574,
      "өзүбүз": 3575,
      "анк": 3576,
      "кандайдыр": 3577,
      "штаттар": 3578,
      "сыйл": 3579,
      "таянып": 3580,
      "вал": 3581,
      "кошо": 3582,
      "2016": 3583,
      "убагында": 3584,
      "тийиштүү": 3585,
      "тарыхый": 3586,
      "окумушт": 3587,
      "апрель": 3588,
      "кылмыштуу": 3589,
      "болмок": 3590,
      "кылат": 3591,
      "##чылары": 3592,
      "келгенин": 3593,
      "оорукан": 3594,
      "демократиялык": 3595,
      "##чиден": 3596,
      "##ңк": 3597,
      "районунда": 3598,
      "орнот": 3599,
      "навальный": 3600,
      "түшүндүрмө": 3601,
      "тонна": 3602,
      "##ме": 3603,
      "##ap": 3604,
      "милдетин": 3605,
      "алышкан": 3606,
      "##ээк": 3607,
      "кыс": 3608,
      "кошмо": 3609,
      "##үктү": 3610,
      "жуктур": 3611,
      "ларды": 3612,
      "##лук": 3613,
      "иштей": 3614,
      "энергетика": 3615,
      "статист": 3616,
      "##дет": 3617,
      "качып": 3618,
      "жиги": 3619,
      "токаев": 3620,
      "республикасынын": 3621,
      "##итт": 3622,
      "болгондуктан": 3623,
      "салым": 3624,
      "сөөгү": 3625,
      "фор": 3626,
      "тастыкт": 3627,
      "менч": 3628,
      "айыр": 3629,
      "##дигине": 3630,
      "касым": 3631,
      "үгү": 3632,
      "##сан": 3633,
      "атат": 3634,
      "атыш": 3635,
      "айтууда": 3636,
      "этн": 3637,
      "аргасыз": 3638,
      "\")": 3639,
      "ам": 3640,
      "гект": 3641,
      "жүй": 3642,
      "жаны": 3643,
      "##штары": 3644,
      "калса": 3645,
      "абакта": 3646,
      "өртт": 3647,
      "мыр": 3648,
      "тат": 3649,
      "маалында": 3650,
      "массалык": 3651,
      "негизде": 3652,
      "конц": 3653,
      "##лав": 3654,
      "##сүнүн": 3655,
      "##айы": 3656,
      "##кор": 3657,
      "##гыр": 3658,
      "ушу": 3659,
      "блог": 3660,
      "пул": 3661,
      "мыйзамдын": 3662,
      "көрсөтүү": 3663,
      "##бой": 3664,
      "аф": 3665,
      "##енко": 3666,
      "адамдарды": 3667,
      "берилет": 3668,
      "нин": 3669,
      "коңшу": 3670,
      "фракция": 3671,
      "##ари": 3672,
      "баалуу": 3673,
      "кагаз": 3674,
      "##обил": 3675,
      "эпиде": 3676,
      "назар": 3677,
      "(\"": 3678,
      "экстр": 3679,
      "жараткан": 3680,
      "кетет": 3681,
      "эркинен": 3682,
      "##ктары": 3683,
      "өрт": 3684,
      "жасалма": 3685,
      "ос": 3686,
      "кабарланган": 3687,
      "чакырган": 3688,
      "убакы": 3689,
      "деңгээлде": 3690,
      "калуу": 3691,
      "##атынын": 3692,
      "өнүгүү": 3693,
      "##окт": 3694,
      "ресур": 3695,
      "проф": 3696,
      "жүрө": 3697,
      "алдынча": 3698,
      "тийиш": 3699,
      "зомбулук": 3700,
      "##ыч": 3701,
      "талдоо": 3702,
      "көтөрүп": 3703,
      "автор": 3704,
      "гез": 3705,
      "коргоочу": 3706,
      "анализ": 3707,
      "кич": 3708,
      "##өлгөн": 3709,
      "баракчасына": 3710,
      "үмүт": 3711,
      "нан": 3712,
      "карак": 3713,
      "мыйзамды": 3714,
      "тарапта": 3715,
      "ойлой": 3716,
      "##ель": 3717,
      "айтыш": 3718,
      "министрлик": 3719,
      "жайы": 3720,
      "аткыл": 3721,
      "себепт": 3722,
      "мажбур": 3723,
      "башы": 3724,
      "тарбия": 3725,
      "учак": 3726,
      "##баевдин": 3727,
      "аракеттер": 3728,
      "##ерендум": 3729,
      "бары": 3730,
      "##цен": 3731,
      "##алда": 3732,
      "##үктөр": 3733,
      "),": 3734,
      "балдары": 3735,
      "ошону": 3736,
      "төрагасынын": 3737,
      "##ативдик": 3738,
      "элди": 3739,
      "жарандардын": 3740,
      "референдум": 3741,
      "кооптуу": 3742,
      "чакан": 3743,
      "фонд": 3744,
      "айтк": 3745,
      "аймакта": 3746,
      "июнь": 3747,
      "сезим": 3748,
      "форм": 3749,
      "билбей": 3750,
      "төлөм": 3751,
      "тынчсыздан": 3752,
      "өнөктөшт": 3753,
      "экстрем": 3754,
      "ну": 3755,
      "кылын": 3756,
      "салма": 3757,
      "башталды": 3758,
      "компаниясынын": 3759,
      "колдоп": 3760,
      "33": 3761,
      "эш": 3762,
      "үр": 3763,
      "##an": 3764,
      "орусиядан": 3765,
      "жапырт": 3766,
      "аягына": 3767,
      "түзүм": 3768,
      "балк": 3769,
      "чыгат": 3770,
      "кудай": 3771,
      "сол": 3772,
      "тун": 3773,
      "##ентке": 3774,
      "жокп": 3775,
      "алмаш": 3776,
      "ирандын": 3777,
      "жугуз": 3778,
      "тос": 3779,
      "эскертти": 3780,
      "фейсбу": 3781,
      "келат": 3782,
      "терең": 3783,
      "сек": 3784,
      "жараша": 3785,
      "маалымдаган": 3786,
      "өздөрү": 3787,
      "олимпиада": 3788,
      "хам": 3789,
      "##ңар": 3790,
      "##амир": 3791,
      "дүйшөмбү": 3792,
      "күчтүү": 3793,
      "кырдаалдар": 3794,
      "атасы": 3795,
      "тутк": 3796,
      "##ех": 3797,
      "кызматтар": 3798,
      "рез": 3799,
      "көргө": 3800,
      "республика": 3801,
      "улут": 3802,
      "калганы": 3803,
      "жандан": 3804,
      "фондун": 3805,
      "тест": 3806,
      "жөнгө": 3807,
      "2015": 3808,
      "кароо": 3809,
      "кут": 3810,
      "##амин": 3811,
      "бузуу": 3812,
      "ер": 3813,
      "коммер": 3814,
      "кыйла": 3815,
      "багыт": 3816,
      "##артам": 3817,
      "кеңири": 3818,
      "жабык": 3819,
      "аныкталды": 3820,
      "##агн": 3821,
      "##пайт": 3822,
      "##ерн": 3823,
      "##үгүнө": 3824,
      "келгенде": 3825,
      "өмүрүн": 3826,
      "александ": 3827,
      "ташк": 3828,
      "##тация": 3829,
      "##малуу": 3830,
      "таандык": 3831,
      "чогулган": 3832,
      "рол": 3833,
      "##омол": 3834,
      "кыя": 3835,
      "эсе": 3836,
      "коргонуу": 3837,
      "##ткар": 3838,
      "туулган": 3839,
      "пал": 3840,
      "##тр": 3841,
      "##ылт": 3842,
      "##тту": 3843,
      "ине": 3844,
      "транспорт": 3845,
      "келаткан": 3846,
      "##хм": 3847,
      "##гандар": 3848,
      "##асыз": 3849,
      "көрө": 3850,
      "жама": 3851,
      "бийик": 3852,
      "конф": 3853,
      "кетир": 3854,
      "макам": 3855,
      "толк": 3856,
      "дүйнөдө": 3857,
      "курултай": 3858,
      "##mag": 3859,
      "imag": 3860,
      "бээ": 3861,
      "##иж": 3862,
      "энелер": 3863,
      "аймактарында": 3864,
      "газа": 3865,
      "түлүк": 3866,
      "балким": 3867,
      "бирине": 3868,
      "##ешет": 3869,
      "комитеттин": 3870,
      "министрликт": 3871,
      "төлөп": 3872,
      "ыл": 3873,
      "камт": 3874,
      "32": 3875,
      "##буз": 3876,
      "максаты": 3877,
      "св": 3878,
      "##еев": 3879,
      "чакырып": 3880,
      "облустарынын": 3881,
      "система": 3882,
      "станция": 3883,
      "александр": 3884,
      "кетүү": 3885,
      "аймагына": 3886,
      "эне": 3887,
      "эксперттер": 3888,
      "көйгөйлөр": 3889,
      "районундагы": 3890,
      "куткар": 3891,
      "маданий": 3892,
      "бөлүмүнүн": 3893,
      "аянт": 3894,
      "жумушчу": 3895,
      "израилдин": 3896,
      "дер": 3897,
      "жыйынт": 3898,
      "топтун": 3899,
      "реформ": 3900,
      "укуктарын": 3901,
      "дү": 3902,
      "##гуу": 3903,
      "өлкөлүк": 3904,
      "окр": 3905,
      "оорул": 3906,
      "электрондук": 3907,
      "күтүп": 3908,
      "кыска": 3909,
      "багытталган": 3910,
      "болбогон": 3911,
      "интернет": 3912,
      "өлч": 3913,
      "тартиб": 3914,
      "##үүлөрдү": 3915,
      "токтотуу": 3916,
      "кишиге": 3917,
      "көбүн": 3918,
      "чагыл": 3919,
      "аралаш": 3920,
      "жел": 3921,
      "##тым": 3922,
      "##олю": 3923,
      "##аларда": 3924,
      "пикирлер": 3925,
      "пл": 3926,
      "##ну": 3927,
      "айынын": 3928,
      "технология": 3929,
      "алак": 3930,
      "кетүүгө": 3931,
      "##дикке": 3932,
      "прокурор": 3933,
      "медицина": 3934,
      "камакта": 3935,
      "##жо": 3936,
      "кыргызстандан": 3937,
      "##ктыяр": 3938,
      "чалгын": 3939,
      "кызматына": 3940,
      "долларга": 3941,
      "##үшкөн": 3942,
      "өзөкт": 3943,
      "##икти": 3944,
      "көргөз": 3945,
      "эмдөө": 3946,
      "чыгарм": 3947,
      "##рессия": 3948,
      "кымбат": 3949,
      "департам": 3950,
      "кармалганын": 3951,
      "серг": 3952,
      "##ыгына": 3953,
      "жарык": 3954,
      "жүргүзгөн": 3955,
      "каалаган": 3956,
      "тасм": 3957,
      "сурап": 3958,
      "##убуз": 3959,
      "администр": 3960,
      "салыштырмалуу": 3961,
      "##лу": 3962,
      "өлгөн": 3963,
      "батир": 3964,
      "##иядагы": 3965,
      "жубай": 3966,
      "жи": 3967,
      "##ашты": 3968,
      "кетиш": 3969,
      "сотунун": 3970,
      "сүйлө": 3971,
      "паспорт": 3972,
      "менчик": 3973,
      "36": 3974,
      "##кана": 3975,
      "##икация": 3976,
      "жетиштүү": 3977,
      "качкын": 3978,
      "вакцина": 3979,
      "дөн": 3980,
      "ман": 3981,
      "ыктыяр": 3982,
      "ңыз": 3983,
      "##ник": 3984,
      "каралып": 3985,
      "бүтүн": 3986,
      "ыйгарым": 3987,
      "##ткон": 3988,
      "бекит": 3989,
      "отуруп": 3990,
      "молд": 3991,
      "##фт": 3992,
      "коммун": 3993,
      "кездеги": 3994,
      "өсп": 3995,
      "##шат": 3996,
      "демон": 3997,
      "клим": 3998,
      "хар": 3999,
      "борборунун": 4000,
      "айрымдары": 4001,
      "көрүнүш": 4002,
      "##ец": 4003,
      "##улуш": 4004,
      "иштейт": 4005,
      "калышы": 4006,
      "кырдаалды": 4007,
      "чөл": 4008,
      "бирдикт": 4009,
      "той": 4010,
      "таасирин": 4011,
      "бетт": 4012,
      "дүк": 4013,
      "мобил": 4014,
      "##чилик": 4015,
      "##ска": 4016,
      "жеңиш": 4017,
      "москвада": 4018,
      "тасма": 4019,
      "демонст": 4020,
      "болоб": 4021,
      "барды": 4022,
      "##аганы": 4023,
      "алганда": 4024,
      "чен": 4025,
      "жатканына": 4026,
      "##доган": 4027,
      "жүзүндө": 4028,
      "жыйынтыгында": 4029,
      "эрдоган": 4030,
      "коронавирустун": 4031,
      "аялдардын": 4032,
      "путиндин": 4033,
      "инфекция": 4034,
      "наб": 4035,
      "ант": 4036,
      "прот": 4037,
      "аптада": 4038,
      "00": 4039,
      "лөр": 4040,
      "##пон": 4041,
      "жумушт": 4042,
      "мирз": 4043,
      "аткан": 4044,
      "дардын": 4045,
      "дүйнөдөгү": 4046,
      "сиң": 4047,
      "байкоо": 4048,
      "кысым": 4049,
      "суз": 4050,
      "##ut": 4051,
      "консул": 4052,
      "##лов": 4053,
      "##дарында": 4054,
      "абалда": 4055,
      "билдирүүсүндө": 4056,
      "үгүт": 4057,
      "##зин": 4058,
      "уланып": 4059,
      "45": 4060,
      "вен": 4061,
      "жүкт": 4062,
      "жаап": 4063,
      "каржы": 4064,
      "тармактарда": 4065,
      "көлөмү": 4066,
      "##шкон": 4067,
      "машы": 4068,
      "инд": 4069,
      "өлчөм": 4070,
      "кв": 4071,
      "не": 4072,
      "инт": 4073,
      "түзүл": 4074,
      "узак": 4075,
      "##далды": 4076,
      "##үшүнө": 4077,
      "баса": 4078,
      "чыгарды": 4079,
      "макал": 4080,
      "##бас": 4081,
      "##егин": 4082,
      "##елерин": 4083,
      "маселен": 4084,
      "тургундар": 4085,
      "чөйрө": 4086,
      "чалдык": 4087,
      "ороз": 4088,
      "колго": 4089,
      "өзөктүк": 4090,
      "сей": 4091,
      "##дат": 4092,
      "##улов": 4093,
      "тагы": 4094,
      "айтышты": 4095,
      "айыптап": 4096,
      "ашты": 4097,
      "чол": 4098,
      "##зат": 4099,
      "2014": 4100,
      "автоунаа": 4101,
      "өчүр": 4102,
      "кишини": 4103,
      "##чилер": 4104,
      "эв": 4105,
      "маалыматтарга": 4106,
      "процес": 4107,
      "башаламандык": 4108,
      "административдик": 4109,
      "сып": 4110,
      "##дырган": 4111,
      "реп": 4112,
      "үйдө": 4113,
      "кайтарып": 4114,
      "саммит": 4115,
      "илдет": 4116,
      "гэ": 4117,
      "палат": 4118,
      "##алаган": 4119,
      "деш": 4120,
      "элем": 4121,
      "кадр": 4122,
      "бакы": 4123,
      "көрүү": 4124,
      "убакта": 4125,
      "компаниялар": 4126,
      "катаал": 4127,
      "бардыгы": 4128,
      "төг": 4129,
      "##ейл": 4130,
      "реда": 4131,
      "саясатчылар": 4132,
      "январь": 4133,
      "териштирүү": 4134,
      "тим": 4135,
      "##дору": 4136,
      "алектен": 4137,
      "күнөө": 4138,
      "украинада": 4139,
      "комиссиянын": 4140,
      "өмүрү": 4141,
      "ашкан": 4142,
      "алууну": 4143,
      "тарат": 4144,
      "##ктарды": 4145,
      "##диктин": 4146,
      "лагер": 4147,
      "финансы": 4148,
      "##үрүм": 4149,
      "билдиришти": 4150,
      "абанын": 4151,
      "кечээ": 4152,
      "өспүрүм": 4153,
      "чалдыккан": 4154,
      "жон": 4155,
      "##атбек": 4156,
      "##раз": 4157,
      "##усту": 4158,
      "аткамин": 4159,
      "сотто": 4160,
      "##пайбы": 4161,
      "лукаш": 4162,
      "гектар": 4163,
      "рын": 4164,
      "факты": 4165,
      "артка": 4166,
      "ачылган": 4167,
      "дүйнөнүн": 4168,
      "партиялар": 4169,
      "иб": 4170,
      "карабастан": 4171,
      "как": 4172,
      "##at": 4173,
      "карай": 4174,
      "катталды": 4175,
      "өткөргөн": 4176,
      "уюштуруу": 4177,
      "кызматташтык": 4178,
      "фейсбуктагы": 4179,
      "курган": 4180,
      "жарыяланды": 4181,
      "ысым": 4182,
      "өнүктүр": 4183,
      "милдеттүү": 4184,
      "арналган": 4185,
      "дос": 4186,
      "##ar": 4187,
      "##ылар": 4188,
      "сөзсүз": 4189,
      "эски": 4190,
      "каршылык": 4191,
      "завод": 4192,
      "бирдиктүү": 4193,
      "тор": 4194,
      "комплек": 4195,
      "парламентте": 4196,
      "университетинин": 4197,
      "##би": 4198,
      "##манов": 4199,
      "бүлөлүк": 4200,
      "##али": 4201,
      "##шкө": 4202,
      "тилекке": 4203,
      "сергей": 4204,
      "cap": 4205,
      "##ити": 4206,
      "коррупциялык": 4207,
      "син": 4208,
      "суракка": 4209,
      "мисал": 4210,
      "дайындалган": 4211,
      "таштап": 4212,
      "мурунку": 4213,
      "тажрыйб": 4214,
      "департамент": 4215,
      "##кту": 4216,
      "##ышын": 4217,
      "азайт": 4218,
      "##үгүр": 4219,
      "ойлон": 4220,
      "музык": 4221,
      "музей": 4222,
      "жаракат": 4223,
      "баласы": 4224,
      "балдарды": 4225,
      "байланышкан": 4226,
      "милдеттен": 4227,
      "туткун": 4228,
      "өзүң": 4229,
      "крим": 4230,
      "коопсуздугун": 4231,
      "айым": 4232,
      "жатышкан": 4233,
      "ошого": 4234,
      "кийлиги": 4235,
      "имп": 4236,
      "##кон": 4237,
      "##аж": 4238,
      "##ыкча": 4239,
      "кандуу": 4240,
      "келишет": 4241,
      "поль": 4242,
      "сутк": 4243,
      "мэ": 4244,
      "кишилер": 4245,
      "негизи": 4246,
      "аныктоо": 4247,
      "милициянын": 4248,
      "күбө": 4249,
      "алыс": 4250,
      "##чо": 4251,
      "##улла": 4252,
      "##ушат": 4253,
      "жетекчилери": 4254,
      "##ттын": 4255,
      "##ышып": 4256,
      "тескери": 4257,
      "##кыр": 4258,
      "##еме": 4259,
      "экспортт": 4260,
      "акчаны": 4261,
      "##шкер": 4262,
      "көрүүгө": 4263,
      "##угуна": 4264,
      "чыгарылган": 4265,
      "айрыкча": 4266,
      "image": 4267,
      "чөлкөм": 4268,
      "моюн": 4269,
      "москванын": 4270,
      "федерация": 4271,
      "caption": 4272,
      "алышы": 4273,
      "кооптон": 4274,
      "кызматтын": 4275,
      "киргизген": 4276,
      "талкууга": 4277,
      "табылды": 4278,
      "жетекчилиги": 4279,
      "##газиев": 4280,
      "##олюция": 4281,
      "##олор": 4282,
      "берб": 4283,
      "чыгышты": 4284,
      "чараларды": 4285,
      "набыт": 4286,
      "400": 4287,
      "##арип": 4288,
      "дый": 4289,
      "##еттүү": 4290,
      "бөлүп": 4291,
      "крым": 4292,
      "##сык": 4293,
      "жылкы": 4294,
      "198": 4295,
      "теке": 4296,
      "коомчулукта": 4297,
      "реформа": 4298,
      "райондорунда": 4299,
      "пост": 4300,
      "сары": 4301,
      "иштеш": 4302,
      "көрүнү": 4303,
      "издеп": 4304,
      "саналат": 4305,
      "##естин": 4306,
      "автоб": 4307,
      "аткаруучу": 4308,
      "ne": 4309,
      "чечил": 4310,
      "тапты": 4311,
      "облустар": 4312,
      "атамбаевдин": 4313,
      "чолпон": 4314,
      "дыйкан": 4315,
      "шартта": 4316,
      "жараян": 4317,
      "артык": 4318,
      "коомчулук": 4319,
      "мүмкүнчүлүгү": 4320,
      "##альд": 4321,
      "камагына": 4322,
      "калктын": 4323,
      "үйүнө": 4324,
      "2024": 4325,
      "уюмдардын": 4326,
      "дипломатиялык": 4327,
      "ойлойм": 4328,
      "итал": 4329,
      "көн": 4330,
      "##лору": 4331,
      "##далып": 4332,
      "америк": 4333,
      "үлгү": 4334,
      "аскар": 4335,
      "##тө": 4336,
      "айлар": 4337,
      "биринде": 4338,
      "көм": 4339,
      "райым": 4340,
      "бакыт": 4341,
      "нам": 4342,
      "аягында": 4343,
      "аймактагы": 4344,
      "шаары": 4345,
      "жк": 4346,
      "али": 4347,
      "##ели": 4348,
      "терс": 4349,
      "кылмышка": 4350,
      "облусу": 4351,
      "көбөйгөн": 4352,
      "ки": 4353,
      "порт": 4354,
      "колдонуп": 4355,
      "алексей": 4356,
      "күнөөлүү": 4357,
      "уй": 4358,
      "шв": 4359,
      "кишил": 4360,
      "стам": 4361,
      "автордук": 4362,
      "өлкөлөрү": 4363,
      "жатам": 4364,
      "атап": 4365,
      "лидерлер": 4366,
      "бээжин": 4367,
      "##ограф": 4368,
      "ынан": 4369,
      "комиссиясынын": 4370,
      "тобунун": 4371,
      "##олоң": 4372,
      "дүкөн": 4373,
      "ибра": 4374,
      "рубл": 4375,
      "өндүрүш": 4376,
      "##шан": 4377,
      "##ыкта": 4378,
      "адилет": 4379,
      "##бекова": 4380,
      "атал": 4381,
      "саясаты": 4382,
      "жоопко": 4383,
      "арадагы": 4384,
      "темпер": 4385,
      "германия": 4386,
      "болгондордун": 4387,
      "учуп": 4388,
      "##иктин": 4389,
      "талапт": 4390,
      "кечинде": 4391,
      "температур": 4392,
      "жуу": 4393,
      "уу": 4394,
      "ачып": 4395,
      "жүздөгөн": 4396,
      "келтирген": 4397,
      "күрөшүү": 4398,
      "34": 4399,
      "##синин": 4400,
      "алабыз": 4401,
      "анг": 4402,
      "сүйлөп": 4403,
      "клин": 4404,
      "таасири": 4405,
      "адвокат": 4406,
      "россия": 4407,
      "жери": 4408,
      "##ыктарды": 4409,
      "тараптар": 4410,
      "##бург": 4411,
      "округ": 4412,
      "##көн": 4413,
      "##мөт": 4414,
      "толтур": 4415,
      "сүйлөшүп": 4416,
      "ырааз": 4417,
      "санарип": 4418,
      "соттолгон": 4419,
      "по": 4420,
      "танда": 4421,
      "##ида": 4422,
      "##ыны": 4423,
      "өзбекстанда": 4424,
      "ресурст": 4425,
      "мирзи": 4426,
      "ооруканада": 4427,
      "айыпта": 4428,
      "акшда": 4429,
      "бейшен": 4430,
      "тандоо": 4431,
      "келсе": 4432,
      "алмаштыр": 4433,
      "адаб": 4434,
      "келтирүү": 4435,
      "стратегиялык": 4436,
      "##чулук": 4437,
      "##иктир": 4438,
      "кезек": 4439,
      "төлөн": 4440,
      "күчтөрүнүн": 4441,
      "биргел": 4442,
      "##гүн": 4443,
      "##ылап": 4444,
      "жазуу": 4445,
      "түркияда": 4446,
      "өмүрбек": 4447,
      "кышт": 4448,
      "муун": 4449,
      "мамлекеттердин": 4450,
      "башталгандан": 4451,
      "ишмердүүл": 4452,
      "дор": 4453,
      "өск": 4454,
      "коомдун": 4455,
      "мигранттардын": 4456,
      "##чер": 4457,
      "карама": 4458,
      "кете": 4459,
      "учурдагы": 4460,
      "депутаттык": 4461,
      "министрлигине": 4462,
      "ыңг": 4463,
      "мадум": 4464,
      "кагып": 4465,
      "алдындагы": 4466,
      "тургундары": 4467,
      "жашыруун": 4468,
      "академия": 4469,
      "мадумаров": 4470,
      "ом": 4471,
      "##стын": 4472,
      "быйылкы": 4473,
      "чыныгы": 4474,
      "башкармалыгы": 4475,
      "?\"": 4476,
      "ачкан": 4477,
      "адил": 4478,
      "өлкөлөрдө": 4479,
      "телег": 4480,
      "##шемби": 4481,
      "рей": 4482,
      "ут": 4483,
      "президентке": 4484,
      "шаардын": 4485,
      "майдан": 4486,
      "меч": 4487,
      "келбейт": 4488,
      "аймагындагы": 4489,
      "жыйынтык": 4490,
      "жашка": 4491,
      "батышт": 4492,
      "тв": 4493,
      "##ха": 4494,
      "пара": 4495,
      "ээси": 4496,
      "эркиндиги": 4497,
      "журналисттерге": 4498,
      "шак": 4499,
      "##тен": 4500,
      "үйдүн": 4501,
      "##өкөй": 4502,
      "дональд": 4503,
      "кыскар": 4504,
      "айланас": 4505,
      "жетектеген": 4506,
      "град": 4507,
      "мор": 4508,
      "баск": 4509,
      "келбей": 4510,
      "турду": 4511,
      "айылынын": 4512,
      "кеткени": 4513,
      "күрөшт": 4514,
      "осмон": 4515,
      "кырсык": 4516,
      "еа": 4517,
      "жом": 4518,
      "##шту": 4519,
      "дастан": 4520,
      "айтуу": 4521,
      "##аныч": 4522,
      "өкмөтүнүн": 4523,
      "өлүмү": 4524,
      "отч": 4525,
      "органдар": 4526,
      "доор": 4527,
      "##үнчү": 4528,
      "кос": 4529,
      "маң": 4530,
      "пров": 4531,
      "жөнөкөй": 4532,
      "жарыялап": 4533,
      "айтат": 4534,
      "адамдан": 4535,
      "жазык": 4536,
      "шаарына": 4537,
      "кеңс": 4538,
      "катталып": 4539,
      "сапары": 4540,
      "айыпталып": 4541,
      "банктар": 4542,
      "кымбатт": 4543,
      "in": 4544,
      "##деш": 4545,
      "камер": 4546,
      "санитардык": 4547,
      "##аланган": 4548,
      "асан": 4549,
      "##ешкен": 4550,
      "сактагы": 4551,
      "журт": 4552,
      "коргоочулар": 4553,
      "адвокаты": 4554,
      "кезекте": 4555,
      "форум": 4556,
      "жүйө": 4557,
      "болобу": 4558,
      "жуккан": 4559,
      "тыр": 4560,
      "##ашы": 4561,
      "азиядагы": 4562,
      "салууга": 4563,
      "стамбул": 4564,
      "!\"": 4565,
      "жакыр": 4566,
      "өкмөттүк": 4567,
      "келатат": 4568,
      "хамас": 4569,
      "ыңгай": 4570,
      "прин": 4571,
      "коронавирустан": 4572,
      "ынтым": 4573,
      "окшойт": 4574,
      "ру": 4575,
      "алышат": 4576,
      "кыргыздар": 4577,
      "мыйзамда": 4578,
      "байланышы": 4579,
      "жүргүзүү": 4580,
      "эскерт": 4581,
      "мүлкт": 4582,
      "зап": 4583,
      "ооруп": 4584,
      "москвага": 4585,
      "арасынан": 4586,
      "кийлигиш": 4587,
      "дык": 4588,
      "##елди": 4589,
      "чыгууга": 4590,
      "шайланган": 4591,
      "өсүп": 4592,
      "##иттер": 4593,
      "алса": 4594,
      "берсе": 4595,
      "градус": 4596,
      "еаэб": 4597,
      "делген": 4598,
      "жүгүр": 4599,
      "##исти": 4600,
      "карапайым": 4601,
      "аяктаган": 4602,
      "бакиев": 4603,
      "телеграм": 4604,
      "##макка": 4605,
      "##үккө": 4606,
      "окуяс": 4607,
      "##елешкен": 4608,
      "саналып": 4609,
      "тараптын": 4610,
      "журналисттердин": 4611,
      "ста": 4612,
      "шер": 4613,
      "##тып": 4614,
      "иштеб": 4615,
      "кошул": 4616,
      "ийгил": 4617,
      "демилге": 4618,
      "сыпатт": 4619,
      "гл": 4620,
      "чат": 4621,
      "##эн": 4622,
      "##стин": 4623,
      "кылууга": 4624,
      "берилип": 4625,
      "нааразыл": 4626,
      "чам": 4627,
      "баланын": 4628,
      "келиши": 4629,
      "көзөмөлдөө": 4630,
      "ачыкка": 4631,
      "оңой": 4632,
      "бийлигинин": 4633,
      "дөгү": 4634,
      "биргелешкен": 4635,
      "элчиси": 4636,
      "булар": 4637,
      "атаган": 4638,
      "кетиши": 4639,
      "күчөп": 4640,
      "реги": 4641,
      "алдына": 4642,
      "37": 4643,
      "тейл": 4644,
      "##оодо": 4645,
      "капт": 4646,
      "турмуш": 4647,
      "зорду": 4648,
      "ссс": 4649,
      "##ылбай": 4650,
      "##ындап": 4651,
      "бишкекке": 4652,
      "албаган": 4653,
      "канааттан": 4654,
      "проток": 4655,
      "мирзиё": 4656,
      "ссср": 4657,
      "##дүм": 4658,
      "келишкен": 4659,
      "сырттан": 4660,
      "жыйынтыкт": 4661,
      "алышты": 4662,
      "жерди": 4663,
      "##ебин": 4664,
      "көрсөтмө": 4665,
      "##елет": 4666,
      "жанында": 4667,
      "150": 4668,
      "органдарынын": 4669,
      "капит": 4670,
      "көпчүлүгү": 4671,
      "доом": 4672,
      "кары": 4673,
      "##уусун": 4674,
      "жетпей": 4675,
      "иштерди": 4676,
      "түштү": 4677,
      "##дем": 4678,
      "аралы": 4679,
      "##имче": 4680,
      "айтышкан": 4681,
      "жашыл": 4682,
      "жарандарды": 4683,
      "энеси": 4684,
      "##ыгып": 4685,
      "ракета": 4686,
      "кезектеги": 4687,
      "##үтт": 4688,
      "##унду": 4689,
      "андыктан": 4690,
      "талибдер": 4691,
      "принц": 4692,
      "##ra": 4693,
      "кирет": 4694,
      "мой": 4695,
      "күмөн": 4696,
      "нов": 4697,
      "##гар": 4698,
      "##паган": 4699,
      "##гация": 4700,
      "бериши": 4701,
      "бож": 4702,
      "иштин": 4703,
      "чыкпай": 4704,
      "болбосун": 4705,
      "келишимге": 4706,
      "кепил": 4707,
      "38": 4708,
      "##ңкы": 4709,
      "##ияз": 4710,
      "жетишкен": 4711,
      "чыгышкан": 4712,
      "алдыга": 4713,
      "эрте": 4714,
      "рус": 4715,
      "##ля": 4716,
      "козго": 4717,
      "британ": 4718,
      "британиянын": 4719,
      "валю": 4720,
      "мырза": 4721,
      "лер": 4722,
      "##ван": 4723,
      "##унов": 4724,
      "алам": 4725,
      "лицен": 4726,
      "тактап": 4727,
      "америка": 4728,
      "беткап": 4729,
      "жугузуп": 4730,
      "мэри": 4731,
      "зордукт": 4732,
      "комиссиясы": 4733,
      "мухам": 4734,
      "сындап": 4735,
      "чачын": 4736,
      "кайрылды": 4737,
      "вагн": 4738,
      "ган": 4739,
      "лаб": 4740,
      "абалды": 4741,
      "аракеттен": 4742,
      "маселелерди": 4743,
      "түйүн": 4744,
      "пра": 4745,
      "##абек": 4746,
      "окуяга": 4747,
      "аракетин": 4748,
      "такыр": 4749,
      "ыкм": 4750,
      "басымдуу": 4751,
      "туугандары": 4752,
      "ою": 4753,
      "юри": 4754,
      "баб": 4755,
      "айланып": 4756,
      "булагы": 4757,
      "##дигинин": 4758,
      "күб": 4759,
      "себептер": 4760,
      "демократия": 4761,
      "аэропорт": 4762,
      "сүз": 4763,
      "##гак": 4764,
      "##үлүүдө": 4765,
      "##үгүндө": 4766,
      "талаптар": 4767,
      "саналган": 4768,
      "өрөөн": 4769,
      "жетекчилер": 4770,
      "фонду": 4771,
      "системасы": 4772,
      "басылмасы": 4773,
      "дайыма": 4774,
      "юридик": 4775,
      "жетип": 4776,
      "укуктуу": 4777,
      "##аланып": 4778,
      "токой": 4779,
      "ырастады": 4780,
      "эсебинде": 4781,
      "75": 4782,
      "##or": 4783,
      "көзү": 4784,
      "багытта": 4785,
      "фер": 4786,
      "чагы": 4787,
      "##гуна": 4788,
      "##чунун": 4789,
      "##атына": 4790,
      "алым": 4791,
      "##чылыгы": 4792,
      "уюшкан": 4793,
      "ташып": 4794,
      "ыраазы": 4795,
      "эф": 4796,
      "кадим": 4797,
      "жолун": 4798,
      "банктын": 4799,
      "согушту": 4800,
      "кесипт": 4801,
      "адамдарга": 4802,
      "##чылардын": 4803,
      "##өшү": 4804,
      "кеңеште": 4805,
      "пайдалануу": 4806,
      "жиберген": 4807,
      "советтик": 4808,
      "##бап": 4809,
      "дарды": 4810,
      "керектүү": 4811,
      "машине": 4812,
      "калаа": 4813,
      "голд": 4814,
      "теги": 4815,
      "тата": 4816,
      "келүү": 4817,
      "тараган": 4818,
      "кыздын": 4819,
      "кийинчер": 4820,
      "отурат": 4821,
      "##гыла": 4822,
      "тегерегинде": 4823,
      "кино": 4824,
      "кг": 4825,
      "пун": 4826,
      "##наз": 4827,
      "##ырган": 4828,
      "эмил": 4829,
      "коло": 4830,
      "##дөрдүн": 4831,
      "##ивдүү": 4832,
      "кагылыш": 4833,
      "регион": 4834,
      "ия": 4835,
      "карт": 4836,
      "мыйзамдар": 4837,
      "токтоп": 4838,
      "кеңеши": 4839,
      "кубаныч": 4840,
      "оппозициялык": 4841,
      "сим": 4842,
      "айланган": 4843,
      "балдарга": 4844,
      "беришти": 4845,
      "мадания": 4846,
      "мекенине": 4847,
      "ишканасынын": 4848,
      "чыңгыз": 4849,
      "атын": 4850,
      "миллиондон": 4851,
      "техник": 4852,
      "бийлигин": 4853,
      "болгондо": 4854,
      "##ешип": 4855,
      "абагында": 4856,
      "жумду": 4857,
      "эскертүү": 4858,
      "професс": 4859,
      "райымбек": 4860,
      "кабул": 4861,
      "##дерин": 4862,
      "жыйынтыгын": 4863,
      "радиосуна": 4864,
      "чечимди": 4865,
      "алынганын": 4866,
      "менимче": 4867,
      "ооганстандын": 4868,
      "палестин": 4869,
      "##пт": 4870,
      "маалыматында": 4871,
      "өлкөлөргө": 4872,
      "спик": 4873,
      "москвадагы": 4874,
      "##ло": 4875,
      "жыйынга": 4876,
      "активдүү": 4877,
      "акциялар": 4878,
      "коммерциялык": 4879,
      "божомол": 4880,
      "жор": 4881,
      "тый": 4882,
      "##данып": 4883,
      "көркөм": 4884,
      "көчүр": 4885,
      "кээде": 4886,
      "биримдиги": 4887,
      "угуп": 4888,
      "келечект": 4889,
      "##кал": 4890,
      "##ира": 4891,
      "баатыр": 4892,
      "ашып": 4893,
      "##доого": 4894,
      "ачуу": 4895,
      "колдонгон": 4896,
      "долбоорунун": 4897,
      "сыртка": 4898,
      "мол": 4899,
      "өст": 4900,
      "##oo": 4901,
      "жарл": 4902,
      "алдыңкы": 4903,
      "тит": 4904,
      "##аку": 4905,
      "кыла": 4906,
      "кызматынан": 4907,
      "бергенин": 4908,
      "тизме": 4909,
      "кадимки": 4910,
      "44": 4911,
      "##жар": 4912,
      "##илов": 4913,
      "##ашат": 4914,
      "окуган": 4915,
      "##икте": 4916,
      "компаниянын": 4917,
      "жарадар": 4918,
      "лидерлери": 4919,
      "германиянын": 4920,
      "жактоо": 4921,
      "генер": 4922,
      "кызматын": 4923,
      "беришкен": 4924,
      "суунун": 4925,
      "ура": 4926,
      "##чан": 4927,
      "##ch": 4928,
      "##онов": 4929,
      "баарына": 4930,
      "маалымдоо": 4931,
      "кире": 4932,
      "##өйт": 4933,
      "майып": 4934,
      "сатуу": 4935,
      "жолугуп": 4936,
      "лицензия": 4937,
      "##ят": 4938,
      "##данын": 4939,
      "келбеген": 4940,
      "колу": 4941,
      "дегенди": 4942,
      "алгандар": 4943,
      "##синче": 4944,
      "эваку": 4945,
      "кылууда": 4946,
      "бөлүнгөн": 4947,
      "киреше": 4948,
      "##өгү": 4949,
      "сауд": 4950,
      "билдирүүлөр": 4951,
      "жолку": 4952,
      "күчүнө": 4953,
      "уланууда": 4954,
      "илимдер": 4955,
      "кыял": 4956,
      "тескерисинче": 4957,
      "агым": 4958,
      "айтылууда": 4959,
      "индия": 4960,
      "саламатты": 4961,
      "көбөйүп": 4962,
      "эпидеми": 4963,
      "оз": 4964,
      "##ва": 4965,
      "##st": 4966,
      "туруу": 4967,
      "##чүсү": 4968,
      "албайбыз": 4969,
      "##орттук": 4970,
      "жетишсиз": 4971,
      "акыйкатчы": 4972,
      "##кай": 4973,
      "##мед": 4974,
      "маз": 4975,
      "жылына": 4976,
      "таратып": 4977,
      "кайда": 4978,
      "сурак": 4979,
      "эскерткен": 4980,
      "жы": 4981,
      "##ko": 4982,
      "сунуштаган": 4983,
      "ооганстандагы": 4984,
      "провин": 4985,
      "эж": 4986,
      "десе": 4987,
      "талабы": 4988,
      "эвакуация": 4989,
      "лог": 4990,
      "сх": 4991,
      "бирдей": 4992,
      "жолду": 4993,
      "өлкөнү": 4994,
      "баштайт": 4995,
      "казакстанга": 4996,
      "радиосунун": 4997,
      "уран": 4998,
      "анча": 4999
    }
  }
}