[UNK]	0
[CLS]	1
[SEP]	2
[PAD]	3
[MASK]	4
!	5
"	6
#	7
$	8
%	9
&	10
'	11
(	12
)	13
*	14
+	15
,	16
-	17
.	18
/	19
0	20
1	21
2	22
3	23
4	24
5	25
6	26
7	27
8	28
9	29
:	30
;	31
=	32
?	33
@	34
[	35
\	36
]	37
_	38
`	39
a	40
b	41
c	42
d	43
e	44
f	45
g	46
h	47
i	48
j	49
k	50
l	51
m	52
n	53
o	54
p	55
q	56
r	57
s	58
t	59
u	60
v	61
w	62
x	63
y	64
z	65
{	66
}	67
£	68
§	69
©	70
¬	71
­	72
°	73
·	74
ß	75
á	76
â	77
ã	78
ä	79
ç	80
è	81
é	82
í	83
ï	84
ñ	85
ö	86
ü	87
ā	88
ą	89
ğ	90
ı	91
ŋ	92
ş	93
š	94
ū	95
ƚ	96
ƣ	97
ə	98
ɵ	99
ʙ	100
ʼ	101
́	102
̇	103
̧	104
а	105
б	106
в	107
г	108
д	109
е	110
ж	111
з	112
и	113
й	114
к	115
л	116
м	117
н	118
о	119
п	120
р	121
с	122
т	123
у	124
ф	125
х	126
ц	127
ч	128
ш	129
щ	130
ъ	131
ы	132
ь	133
э	134
ю	135
я	136
ё	137
ђ	138
і	139
ї	140
љ	141
ћ	142
ў	143
ѳ	144
ғ	145
қ	146
ң	147
ү	148
ұ	149
ҳ	150
ҷ	151
һ	152
ӊ	153
ӏ	154
ә	155
ө	156
ӯ	157
ا	158
ح	159
خ	160
د	161
ر	162
ز	163
ص	164
ط	165
ظ	166
ع	167
غ	168
ق	169
ك	170
ل	171
م	172
ن	173
ه	174
و	175
ي	176
ُ	177
ِ	178
‎	179
‒	180
―	181
•	182
⁄	183
⁠	184
⁣	185
→	186
−	187
▪	188
●	189
⠀	190
回	191
堅	192
族	193
昆	194
鄄	195
韓	196
鬲	197
	198
️	199
##о	200
##н	201
##т	202
##р	203
##ч	204
##а	205
##л	206
##г	207
##ы	208
##д	209
##х	210
##у	211
##м	212
##з	213
##и	214
##п	215
##е	216
##в	217
##ф	218
##к	219
##с	220
##й	221
##ж	222
##б	223
##ү	224
##ө	225
##a	226
##t	227
##i	228
##b	229
##ш	230
##ь	231
##ң	232
##я	233
##8	234
##3	235
##ц	236
##5	237
##c	238
##g	239
##n	240
##o	241
##l	242
##e	243
##x	244
##0	245
##7	246
##2	247
##ю	248
##1	249
##v	250
##r	251
##s	252
##p	253
##9	254
##h	255
##э	256
##6	257
##4	258
##ҷ	259
##d	260
##u	261
##ё	262
##k	263
##y	264
##ӊ	265
##q	266
##щ	267
##ş	268
##m	269
##j	270
##ъ	271
##f	272
##z	273
##w	274
##ѳ	275
##ұ	276
##і	277
##ӏ	278
##ل	279
##ن	280
##ك	281
##ا	282
##ح	283
##,	284
##.	285
##-	286
##_	287
##韓	288
##"	289
##­	290
##ه	291
##ر	292
##[	293
##)	294
##:	295
##ғ	296
##+	297
##?	298
##ә	299
##⁣	300
##ä	301
##é	302
##қ	303
##á	304
##ı	305
##ñ	306
##!	307
##ö	308
##̇	309
##ў	310
##́	311
##ɵ	312
##ü	313
##*	314
##族	315
##ğ	316
##ß	317
##;	318
##ə	319
##/	320
##ç	321
##]	322
##ą	323
##ū	324
##ћ	325
##$	326
##ï	327
##昆	328
##&	329
##ҳ	330
##‎	331
##(	332
##í	333
##è	334
##ʙ	335
##ђ	336
##ӯ	337
##م	338
##د	339
##ї	340
##%	341
##ã	342
##=	343
##}	344
###	345
##ʼ	346
##ā	347
##©	348
##ƚ	349
##⠀	350
##ع	351
##ص	352
##ي	353
##љ	354
##ُ	355
##و	356
##ِ	357
##ز	358
##â	359
##ƣ	360
##ط	361
##ق	362
##ан	363
##ар	364
##ын	365
##ен	366
##ал	367
##ин	368
##да	369
##ат	370
##ер	371
##уу	372
##кт	373
##ол	374
##ыл	375
##үн	376
##ай	377
##ган	378
##ун	379
##ир	380
ал	381
##ды	382
##гы	383
##ор	384
##он	385
##ур	386
##ст	387
##ет	388
##ия	389
##ек	390
##ил	391
##га	392
##шт	393
##ел	394
##ам	395
##ул	396
##ыр	397
##ык	398
##ас	399
##ак	400
##өр	401
ай	402
##ып	403
##ди	404
##оо	405
##өн	406
бол	407
##үү	408
##шк	409
де	410
##тт	411
ба	412
##дын	413
бир	414
мен	415
жа	416
##ген	417
##ик	418
##де	419
##ана	420
##дар	421
##ыз	422
##ында	423
ар	424
кар	425
##үр	426
менен	427
##из	428
##ап	429
эл	430
##ым	431
ко	432
##аб	433
##ий	434
##ук	435
##дан	436
жана	437
##ок	438
ан	439
##тк	440
##ов	441
##атт	442
бер	443
##ары	444
##дө	445
кө	446
##стан	447
да	448
эк	449
##ес	450
##им	451
##ог	452
##ый	453
жат	454
##ей	455
кыр	456
##ус	457
ор	458
##ция	459
кел	460
##ча	461
ма	462
жыл	463
бул	464
##кан	465
##үл	466
##уп	467
##ына	468
##гыз	469
деп	470
##ра	471
##өл	472
кыргыз	473
өз	474
##ист	475
##ев	476
##ип	477
##ма	478
##ду	479
тур	480
та	481
##ыш	482
со	483
##дин	484
##ынын	485
бар	486
##ден	487
##гө	488
##ект	489
##ез	490
эм	491
##дагы	492
##ку	493
пр	494
кыз	495
##ем	496
ак	497
бо	498
##ги	499
жар	500
##етт	501
##алган	502
тар	503
бил	504
##юн	505
##дык	506
##гон	507
##аган	508
##лан	509
##ге	510
аз	511
ка	512
##ск	513
##лар	514
ат	515
##ли	516
##үз	517
чы	518
үч	519
##ба	520
##үп	521
са	522
##дам	523
##өт	524
##ка	525
кыл	526
эле	527
##ит	528
##еп	529
кат	530
##иш	531
##сы	532
өл	533
кыргызстан	534
айт	535
##бек	536
маал	537
##уш	538
ош	539
##гөн	540
кор	541
##алык	542
ишт	543
##алуу	544
##дир	545
##ум	546
боюн	547
##инин	548
##ери	549
боюнча	550
мам	551
##нын	552
20	553
##уз	554
кызм	555
##дай	556
маалым	557
кай	558
то	559
билдир	560
орус	561
болгон	562
кал	563
тал	564
##инде	565
туу	566
үчүн	567
##үй	568
көр	569
кол	570
##үм	571
##ең	572
жол	573
##до	574
##еч	575
жаткан	576
##от	577
##иден	578
иш	579
##ыкт	580
башк	581
өлк	582
алар	583
##го	584
##лек	585
##ышт	586
каб	587
##инист	588
ком	589
##езиден	590
##дун	591
адам	592
кур	593
мамлек	594
президен	595
жет	596
##гил	597
##шы	598
##дук	599
кан	600
бай	601
##ут	602
##ег	603
##үк	604
күн	605
жер	606
ук	607
##ине	608
##инистр	609
ми	610
биз	611
##ом	612
өк	613
деген	614
##үш	615
орусия	616
жүр	617
##үч	618
кий	619
министр	620
##лер	621
##шкан	622
бел	623
экен	624
коо	625
##аар	626
баш	627
##ылган	628
##бай	629
##ынан	630
кызмат	631
##лык	632
##чу	633
кер	634
##еш	635
уч	636
жок	637
##дер	638
##унун	639
жаз	640
кет	641
##алар	642
болуп	643
анын	644
сал	645
##ейин	646
ул	647
##чи	648
##ууга	649
##өө	650
кийин	651
чейин	652
##ктар	653
##анын	654
туур	655
жак	656
каз	657
##асы	658
тууралуу	659
##чы	660
##кы	661
##үндө	662
мамлекетт	663
бирок	664
аб	665
##дү	666
##зам	667
##чыл	668
турган	669
##ыйзам	670
##аны	671
пар	672
мыйзам	673
##унда	674
##дик	675
эмес	676
кир	677
##дон	678
бал	679
##уун	680
##еб	681
бий	682
учур	683
бас	684
##бл	685
##ишк	686
##уна	687
кам	688
##гү	689
шаар	690
",	691
жатат	692
өтк	693
##кен	694
башт	695
керек	696
мур	697
чыг	698
эки	699
##чул	700
##дыр	701
маалымат	702
##бо	703
өт	704
мил	705
көп	706
##кта	707
шай	708
##үнө	709
жай	710
дагы	711
президент	712
##яс	713
үй	714
##та	715
түр	716
алып	717
жылы	718
эр	719
##ке	720
жог	721
##дөр	722
##уг	723
уш	724
##сыз	725
ин	726
##аттар	727
##ээ	728
ую	729
##ага	730
мас	731
##лоо	732
##тер	733
##өм	734
ич	735
##ав	736
белгил	737
##скер	738
азыр	739
##бр	740
кең	741
алган	742
##кер	743
##ман	744
кы	745
##ору	746
ая	747
##ябр	748
##үнүн	749
##ады	750
көз	751
түз	752
укра	753
украин	754
##ент	755
жаң	756
##аз	757
саяс	758
##ушт	759
күч	760
ав	761
миң	762
байлан	763
##дардын	764
дол	765
##ки	766
чеч	767
##өлөр	768
ошон	769
##аш	770
сө	771
##иев	772
##дары	773
бу	774
##ран	775
##ындагы	776
##ылуу	777
##уст	778
киш	779
жаш	780
##иция	781
сөз	782
келген	783
айма	784
жал	785
өлкө	786
бишк	787
тарт	788
##икт	789
чыгар	790
оку	791
мамлекеттик	792
##егиз	793
##өй	794
бор	795
өн	796
##чил	797
жаран	798
өкм	799
##еле	800
аш	801
##си	802
жөн	803
билдирди	804
башка	805
##үг	806
##утт	807
ок	808
жый	809
экенин	810
төр	811
мак	812
обл	813
##баев	814
##ктан	815
##ос	816
ошол	817
бөл	818
чыгы	819
##үүгө	820
кара	821
каршы	822
##ян	823
##ты	824
ты	825
##инчи	826
чык	827
##ууда	828
##төр	829
эми	830
жоо	831
##ив	832
##айын	833
##дуу	834
шайлоо	835
көрс	836
##күн	837
кош	838
##оп	839
##дөн	840
эс	841
##иянын	842
оор	843
жогор	844
түш	845
##ткан	846
##доо	847
тер	848
май	849
рай	850
борб	851
ап	852
жап	853
##алы	854
негиз	855
иштер	856
##суз	857
чек	858
##аттык	859
##ликт	860
##инен	861
дүй	862
кандай	863
##об	864
##акыр	865
##икалык	866
же	867
мүм	868
##агы	869
казак	870
кооп	871
мүмкүн	872
19	873
коом	874
сур	875
кон	876
##лик	877
карм	878
калган	879
бери	880
##өш	881
##аров	882
байланышт	883
##елер	884
##сынын	885
##арын	886
##со	887
аскер	888
токт	889
##ация	890
202	891
болду	892
болот	893
##ейт	894
жаңы	895
##ада	896
##иб	897
кый	898
##гында	899
##алдык	900
мар	901
кылм	902
талап	903
##алды	904
аба	905
ач	906
район	907
##гын	908
##гер	909
уюм	910
жогорку	911
кабар	912
##лам	913
##00	914
##еси	915
##быз	916
##дор	917
жары	918
201	919
##ис	920
алардын	921
##еген	922
буга	923
##дүн	924
депут	925
аны	926
таж	927
##еди	928
борбор	929
##алып	930
арак	931
ре	932
##са	933
##чү	934
##кты	935
жыйын	936
##лөр	937
гана	938
##иялык	939
чакыр	940
##өнүн	941
чар	942
##тай	943
бат	944
из	945
улутт	946
тап	947
дүйн	948
алын	949
##уул	950
##чулар	951
##үт	952
жас	953
##тур	954
жум	955
сот	956
айып	957
##ентт	958
чыккан	959
##аты	960
кабыл	961
##уну	962
сүй	963
тил	964
катт	965
мында	966
##чүл	967
##сп	968
##гиз	969
топ	970
##өтт	971
жарыя	972
масел	973
кою	974
##лай	975
байланыштуу	976
жооп	977
сан	978
##лиги	979
жатканын	980
##дүү	981
коопсуз	982
айтып	983
катары	984
киши	985
кыргызстандын	986
айыл	987
##оз	988
##тар	989
##үнү	990
учурда	991
дем	992
ишк	993
ага	994
##ания	995
алдын	996
тарап	997
##айт	998
мындай	999
сог	1000
акш	1001
корг	1002
аралык	1003
комп	1004
##йт	1005
##ци	1006
##асын	1007
парт	1008
ст	1009
өкүл	1010
өткөр	1011
##ешт	1012
ушул	1013
атк	1014
##ябрда	1015
##рам	1016
##тты	1017
##сү	1018
мек	1019
казакстан	1020
##ышы	1021
##епт	1022
##дарды	1023
##..	1024
чет	1025
##рым	1026
##чө	1027
##уб	1028
##ышкан	1029
түрк	1030
##ууну	1031
берген	1032
##укт	1033
деди	1034
милли	1035
уку	1036
ев	1037
##асында	1038
сом	1039
берил	1040
пай	1041
кой	1042
жур	1043
тол	1044
тажик	1045
##иг	1046
##ылып	1047
өткөн	1048
долбо	1049
сакт	1050
окуя	1051
көб	1052
мо	1053
коргоо	1054
ил	1055
кытай	1056
облус	1057
орусиянын	1058
##үкт	1059
мурдагы	1060
кеткен	1061
##оң	1062
кез	1063
президентт	1064
кайр	1065
эрк	1066
эн	1067
##беков	1068
##чысы	1069
кайра	1070
жапаров	1071
улуттук	1072
##ени	1073
болсо	1074
сүйл	1075
##асм	1076
чечим	1077
##ла	1078
##онав	1079
өкмөт	1080
##дой	1081
##ест	1082
жакын	1083
##сия	1084
##үүдө	1085
##оном	1086
кыргызстанда	1087
коронав	1088
коронавир	1089
...	1090
##тыр	1091
тү	1092
##екте	1093
караган	1094
жетек	1095
соң	1096
##нал	1097
##абыз	1098
жардам	1099
##гына	1100
парлам	1101
эч	1102
ур	1103
ой	1104
сун	1105
дар	1106
көрсөт	1107
##гун	1108
##ышат	1109
##үлгөн	1110
биринчи	1111
билдирген	1112
##пы	1113
##дүр	1114
##яр	1115
жылдын	1116
авт	1117
тышк	1118
жаб	1119
уба	1120
сат	1121
жашт	1122
орт	1123
##иде	1124
айрым	1125
айткан	1126
##үгүн	1127
##лиг	1128
өзбек	1129
##огон	1130
ад	1131
келиш	1132
евр	1133
партия	1134
эконом	1135
ылай	1136
жалпы	1137
журнал	1138
сотт	1139
чоң	1140
шар	1141
##туу	1142
жолу	1143
андан	1144
алуу	1145
жүрг	1146
окт	1147
бири	1148
кызматт	1149
##кү	1150
аял	1151
##се	1152
##ика	1153
##ылды	1154
##асмий	1155
##мер	1156
##мө	1157
киргиз	1158
##ушу	1159
суу	1160
орун	1161
##дарга	1162
##улган	1163
себ	1164
алды	1165
акт	1166
өлкөлөр	1167
колдон	1168
журналист	1169
башкар	1170
10	1171
саясий	1172
анда	1173
##гөр	1174
улам	1175
талк	1176
өзү	1177
расмий	1178
албай	1179
кызматкер	1180
ылайык	1181
##дей	1182
##олог	1183
бийлик	1184
ара	1185
өзгөр	1186
отур	1187
кес	1188
таб	1189
оп	1190
ата	1191
##орт	1192
айтты	1193
долбоор	1194
##лери	1195
##ышты	1196
аныкт	1197
##үүлөр	1198
##оого	1199
чыгып	1200
##ата	1201
##дөрү	1202
кылмыш	1203
эмн	1204
##тын	1205
түн	1206
ичинде	1207
##ттар	1208
арк	1209
##анда	1210
##атты	1211
жүргүз	1212
##ети	1213
эң	1214
түшүн	1215
##иги	1216
##сын	1217
миллион	1218
##сүн	1219
бек	1220
бишкек	1221
##ри	1222
коопсуздук	1223
##ундагы	1224
##мия	1225
ким	1226
саясат	1227
каза	1228
берүү	1229
##дөө	1230
##ече	1231
күр	1232
ошондой	1233
мын	1234
келет	1235
караж	1236
караганда	1237
башкы	1238
катар	1239
##су	1240
##мүр	1241
##изм	1242
кеңешт	1243
компания	1244
кеңеш	1245
болбо	1246
калды	1247
президенти	1248
биздин	1249
жан	1250
##тан	1251
атайын	1252
жөнүндө	1253
##шка	1254
##өөн	1255
##үүнү	1256
##тта	1257
жең	1258
таш	1259
элек	1260
##иктүү	1261
эмне	1262
акыр	1263
15	1264
ээ	1265
даяр	1266
##уучу	1267
##асынын	1268
коронавирус	1269
соци	1270
те	1271
дүйнө	1272
##аткан	1273
көл	1274
доллар	1275
тарма	1276
##ердин	1277
аркылуу	1278
##алиев	1279
##акка	1280
##ктуу	1281
##сат	1282
моск	1283
##рел	1284
турат	1285
##сиз	1286
ли	1287
аткар	1288
меди	1289
москв	1290
деле	1291
он	1292
##цин	1293
мл	1294
##ова	1295
##өтк	1296
##ланган	1297
мындан	1298
мамлекет	1299
өзбекстан	1300
келип	1301
дары	1302
##ой	1303
##оол	1304
##деги	1305
##өгөн	1306
##асына	1307
өлкөдө	1308
рес	1309
##вар	1310
жылдан	1311
тергө	1312
катыш	1313
сүр	1314
апрел	1315
##инг	1316
ра	1317
мүч	1318
көтөр	1319
тын	1320
##гиликтүү	1321
кырда	1322
нече	1323
##сун	1324
садыр	1325
##бүз	1326
##лор	1327
миг	1328
эркин	1329
##овдун	1330
таан	1331
улан	1332
комит	1333
##оон	1334
##алан	1335
жакшы	1336
##ишт	1337
төл	1338
абал	1339
пик	1340
##ңг	1341
ички	1342
##ко	1343
##мат	1344
бүгүн	1345
##ыйыл	1346
##өлүк	1347
тек	1348
өлкөнүн	1349
мекем	1350
бардык	1351
азаттык	1352
сыр	1353
##ерди	1354
эксп	1355
##ерин	1356
##илген	1357
ушун	1358
чог	1359
берип	1360
кылып	1361
иштеп	1362
быйыл	1363
ун	1364
##убл	1365
##өп	1366
социалдык	1367
буз	1368
им	1369
пол	1370
##ылык	1371
кылган	1372
##тор	1373
тий	1374
11	1375
кем	1376
бийликт	1377
турганын	1378
кр	1379
чект	1380
##стит	1381
пикир	1382
жарыял	1383
күнү	1384
##етти	1385
орган	1386
бишкекте	1387
оо	1388
тергөө	1389
жүргөн	1390
иликт	1391
эсепт	1392
сүйлөш	1393
##шыр	1394
сап	1395
##уунун	1396
өзгө	1397
##бей	1398
парламентт	1399
беш	1400
тажикстан	1401
курул	1402
маан	1403
##ашт	1404
##өмөл	1405
##арды	1406
##ардын	1407
##юл	1408
комис	1409
уул	1410
##ларды	1411
төрага	1412
жергиликтүү	1413
мект	1414
##ыкты	1415
##ктагы	1416
аракет	1417
ян	1418
кызматы	1419
көзөмөл	1420
алынган	1421
жек	1422
30	1423
##тир	1424
12	1425
##гыл	1426
##окур	1427
док	1428
##алат	1429
##өк	1430
европ	1431
кач	1432
##мк	1433
##ыгы	1434
министрлиги	1435
сын	1436
курал	1437
бак	1438
туура	1439
##үгү	1440
министри	1441
айыпт	1442
##аев	1443
##штур	1444
прокур	1445
##енин	1446
аталган	1447
өмүр	1448
келишим	1449
жерде	1450
ачык	1451
дек	1452
кеч	1453
иши	1454
акча	1455
##ны	1456
##дикт	1457
төрт	1458
январ	1459
соңку	1460
но	1461
##дүк	1462
баары	1463
##ерг	1464
коз	1465
мурда	1466
докум	1467
азыркы	1468
##пай	1469
ас	1470
июн	1471
эскер	1472
алма	1473
бүл	1474
##аман	1475
акыркы	1476
##пи	1477
жолуг	1478
бан	1479
ишке	1480
берди	1481
##шкөн	1482
ти	1483
##ымында	1484
билим	1485
##циялык	1486
дал	1487
арыз	1488
оорук	1489
милиция	1490
сы	1491
элект	1492
##руп	1493
карата	1494
актив	1495
өзгөчө	1496
доб	1497
респ	1498
##густ	1499
кырдаал	1500
август	1501
болчу	1502
кошум	1503
багы	1504
##түү	1505
жаг	1506
сп	1507
сунушт	1508
башчысы	1509
##ерс	1510
аймактар	1511
эгер	1512
кеңештин	1513
салам	1514
би	1515
##дуктан	1516
өкмөтт	1517
ала	1518
сактоо	1519
тем	1520
##бы	1521
нур	1522
##огу	1523
министрлиг	1524
уюштур	1525
республ	1526
##атур	1527
укук	1528
##абр	1529
жатышат	1530
##чылык	1531
ыр	1532
##ктын	1533
ишен	1534
ыс	1535
мат	1536
айтымында	1537
саны	1538
##ед	1539
##етинин	1540
тышкы	1541
басма	1542
экинчи	1543
сент	1544
облуст	1545
##сына	1546
##ылат	1547
чаб	1548
##лардын	1549
##рал	1550
баштаган	1551
ис	1552
ооган	1553
жаштагы	1554
макул	1555
##екс	1556
##еги	1557
наар	1558
наараз	1559
жылга	1560
азия	1561
салуу	1562
өтө	1563
кабарл	1564
укмк	1565
бүт	1566
##рат	1567
маалыматтар	1568
дин	1569
корруп	1570
##диг	1571
##ама	1572
арасында	1573
##ыт	1574
##ерлер	1575
токтот	1576
##аларды	1577
жо	1578
баткен	1579
тынч	1580
ушундай	1581
белгилүү	1582
##унан	1583
тары	1584
ол	1585
кармалган	1586
200	1587
тарых	1588
жүз	1589
##чиси	1590
##ьер	1591
14	1592
камсыз	1593
декабр	1594
##эр	1595
##адагы	1596
келтир	1597
окуу	1598
коомдук	1599
##дим	1600
18	1601
каран	1602
##өкт	1603
адамдар	1604
аскердик	1605
алга	1606
##есин	1607
виде	1608
су	1609
мамил	1610
антк	1611
милд	1612
көбөй	1613
##юу	1614
13	1615
жээ	1616
өтүп	1617
##асир	1618
прем	1619
аж	1620
шаарында	1621
##хн	1622
күчтөр	1623
коюл	1624
электр	1625
был	1626
газ	1627
берен	1628
##дарын	1629
ку	1630
эт	1631
зар	1632
бр	1633
##еби	1634
күрөш	1635
16	1636
маселе	1637
абад	1638
акция	1639
##олгон	1640
былтыр	1641
сист	1642
экономикалык	1643
##тка	1644
17	1645
кл	1646
талапкер	1647
баз	1648
##баган	1649
айында	1650
##утин	1651
чын	1652
жайга	1653
##рация	1654
бош	1655
таасир	1656
путин	1657
шт	1658
өр	1659
жара	1660
мөөн	1661
июл	1662
тапшыр	1663
украинанын	1664
мис	1665
аген	1666
жетекчил	1667
премьер	1668
сыя	1669
куб	1670
мигран	1671
карап	1672
##арт	1673
барып	1674
ортос	1675
##озиция	1676
##үлүп	1677
так	1678
##үшү	1679
аракетт	1680
комиссия	1681
25	1682
##гу	1683
уз	1684
дейт	1685
толук	1686
кен	1687
тиеш	1688
корк	1689
##тик	1690
мыйзамсыз	1691
алгач	1692
ча	1693
##др	1694
жүрүп	1695
нат	1696
бур	1697
түшт	1698
##бу	1699
##ишкен	1700
##тин	1701
депутат	1702
фев	1703
##үнөн	1704
сыяктуу	1705
##шер	1706
тартып	1707
##ерге	1708
арал	1709
ашык	1710
тургун	1711
##оолор	1712
оюн	1713
##дыктар	1714
феврал	1715
##чылар	1716
##дөгү	1717
чабуул	1718
илим	1719
##акт	1720
##ортт	1721
##ияда	1722
жатканы	1723
болушу	1724
соо	1725
##дап	1726
койгон	1727
ток	1728
караб	1729
райондук	1730
алдында	1731
түнкү	1732
түшүндүр	1733
анткени	1734
там	1735
иран	1736
жеке	1737
иштеген	1738
эск	1739
тең	1740
барган	1741
октябрда	1742
##штыр	1743
##угу	1744
коомчул	1745
ойл	1746
##иши	1747
президенттин	1748
##тык	1749
агентт	1750
про	1751
текшер	1752
басары	1753
төрагасы	1754
техн	1755
##үрүү	1756
добуш	1757
президенттик	1758
болгонун	1759
топт	1760
жетк	1761
кайсы	1762
млн	1763
##алары	1764
муну	1765
сатып	1766
козг	1767
##ост	1768
айтылган	1769
согуш	1770
чыкты	1771
саб	1772
вир	1773
жарандык	1774
##жан	1775
##ланды	1776
бала	1777
октябр	1778
##лары	1779
жыйынты	1780
##дарынын	1781
сый	1782
##дүз	1783
өндүр	1784
күндүз	1785
##ыктар	1786
көч	1787
бей	1788
салын	1789
медицин	1790
##ич	1791
активист	1792
##дери	1793
энерг	1794
##догон	1795
##шты	1796
бийлиги	1797
шаардык	1798
экспер	1799
ади	1800
##улуп	1801
билдирүү	1802
жумуш	1803
##уулар	1804
колдоо	1805
##кын	1806
көрсөтк	1807
##раил	1808
му	1809
##сынан	1810
##демия	1811
##тип	1812
##айым	1813
##ститу	1814
оң	1815
24	1816
##бул	1817
эмг	1818
кул	1819
ишкан	1820
план	1821
##ынча	1822
пан	1823
##атта	1824
израил	1825
##усу	1826
коррупция	1827
интер	1828
прокуратур	1829
##кул	1830
ашуун	1831
алтын	1832
##чал	1833
##дөй	1834
максат	1835
өзүнүн	1836
кап	1837
мүчө	1838
##индеги	1839
##ыктын	1840
##дыгы	1841
соода	1842
майда	1843
конститу	1844
журналисттер	1845
##игин	1846
##биз	1847
министрлигинин	1848
керект	1849
ыра	1850
##гынын	1851
атам	1852
жолугуш	1853
мадан	1854
кайт	1855
саат	1856
##мак	1857
күт	1858
тышкары	1859
мүмкүнчүл	1860
күй	1861
##дарына	1862
##ограм	1863
башталган	1864
берет	1865
сай	1866
такт	1867
өкүлү	1868
##ктылуу	1869
мектеп	1870
##аль	1871
анан	1872
маалыматына	1873
негизги	1874
комм	1875
кызматкерлер	1876
##ардык	1877
кайтар	1878
ысык	1879
акшнын	1880
аларды	1881
##тко	1882
көң	1883
берилген	1884
ошондуктан	1885
тизм	1886
өзүн	1887
жазган	1888
түнкүсүн	1889
элдик	1890
келди	1891
жеткир	1892
маш	1893
##ттуу	1894
көңүл	1895
полиция	1896
жээн	1897
##бак	1898
##жы	1899
##стр	1900
ир	1901
##ордук	1902
изил	1903
саламаттык	1904
мекен	1905
2020	1906
дарыгер	1907
жу	1908
##мыл	1909
экени	1910
жагдай	1911
фон	1912
тел	1913
белгиледи	1914
##ңгээ	1915
байк	1916
##аттын	1917
деңгээ	1918
дүйнөлүк	1919
документт	1920
##өрү	1921
ооганстан	1922
жалал	1923
өкүлдөрү	1924
##кери	1925
##ттү	1926
согушт	1927
##догу	1928
##за	1929
##орм	1930
маалымда	1931
систем	1932
тыюу	1933
##елүү	1934
сок	1935
си	1936
##дердин	1937
кылмышт	1938
жарым	1939
бөлүм	1940
##тон	1941
22	1942
##иц	1943
мартта	1944
кыймыл	1945
зарыл	1946
##ушка	1947
кийинки	1948
кезде	1949
жазды	1950
убактылуу	1951
100	1952
алты	1953
амер	1954
фин	1955
тез	1956
##диги	1957
##еж	1958
кыргызстанга	1959
сүрөтт	1960
##аттары	1961
жабыр	1962
кит	1963
##етте	1964
августта	1965
##хан	1966
өнүкт	1967
опер	1968
ада	1969
",-	1970
мигранттар	1971
азырынча	1972
##ганын	1973
ишин	1974
опп	1975
шект	1976
##аса	1977
##укка	1978
##сүндө	1979
жетекчиси	1980
##ектин	1981
иликтөө	1982
на	1983
реф	1984
пайд	1985
балдар	1986
##дж	1987
жатабыз	1988
учурунда	1989
дайын	1990
код	1991
жылдары	1992
##ээр	1993
пайда	1994
##үшт	1995
темир	1996
сиз	1997
башкарм	1998
салган	1999
апрелде	2000
айлан	2001
ири	2002
##онун	2003
демок	2004
сез	2005
бошот	2006
##кат	2007
бере	2008
алууга	2009
котор	2010
канча	2011
авто	2012
сул	2013
мун	2014
башында	2015
##ганы	2016
кум	2017
##ала	2018
##кция	2019
болгону	2020
ноябрда	2021
вла	2022
##дум	2023
жоопкер	2024
элдин	2025
коркуну	2026
урук	2027
катышкан	2028
өлүм	2029
##алардын	2030
мөөнөт	2031
##кө	2032
##кин	2033
депутаттар	2034
адм	2035
талкуу	2036
оорукана	2037
кетти	2038
ташт	2039
23	2040
##ларга	2041
европа	2042
уулу	2043
бейт	2044
##имов	2045
##түр	2046
##ият	2047
кирген	2048
брит	2049
сам	2050
##гөй	2051
кыргызстандык	2052
21	2053
бю	2054
##илүү	2055
##ого	2056
##етр	2057
иштери	2058
##даш	2059
алка	2060
тараб	2061
алат	2062
ишмер	2063
басып	2064
ый	2065
калы	2066
облусунун	2067
##деген	2068
##ограмм	2069
##оону	2070
кү	2071
##ологиялык	2072
жазылган	2073
белги	2074
2021	2075
себеп	2076
##емб	2077
от	2078
##егинде	2079
шайл	2080
##гар	2081
акыл	2082
##ология	2083
акч	2084
үст	2085
арт	2086
бүлө	2087
##димир	2088
жиб	2089
себеби	2090
##бол	2091
укукт	2092
талиб	2093
украинага	2094
жоопкерчил	2095
28	2096
убак	2097
##етин	2098
ажыр	2099
владимир	2100
кызык	2101
##ттер	2102
облусунда	2103
чүй	2104
катуу	2105
белар	2106
2022	2107
маанилүү	2108
гер	2109
түшкөн	2110
##тке	2111
##рес	2112
келин	2113
ден	2114
көй	2115
маселелер	2116
##суна	2117
армия	2118
##ov	2119
белгилен	2120
кызматынын	2121
кээ	2122
абдан	2123
көпчүл	2124
кайрылуу	2125
##на	2126
##аларын	2127
маалыматка	2128
##ибиз	2129
июнда	2130
27	2131
жашоо	2132
кошумчал	2133
сентябрда	2134
жээнбеков	2135
миңден	2136
шайлоого	2137
бирим	2138
кала	2139
кыск	2140
##абы	2141
эрт	2142
##бөй	2143
##арга	2144
январда	2145
аскерлер	2146
реж	2147
##чүлөр	2148
##че	2149
декабрда	2150
курман	2151
дарыл	2152
ради	2153
имар	2154
каал	2155
жарат	2156
кыргызстандагы	2157
ий	2158
башкармалы	2159
оппозиция	2160
кама	2161
##бейт	2162
азаттыкка	2163
бейтап	2164
адист	2165
##асындагы	2166
##елген	2167
##уучулар	2168
##ара	2169
алб	2170
кетип	2171
пандемия	2172
казакстандын	2173
##итардык	2174
жаза	2175
##син	2176
негизинде	2177
орто	2178
чейинки	2179
менин	2180
сунуш	2181
келе	2182
калып	2183
##арий	2184
адамдын	2185
атамбаев	2186
##ияга	2187
мит	2188
үн	2189
сотко	2190
##мон	2191
##ишти	2192
ман	2193
##орлор	2194
алкагында	2195
деңгээл	2196
министрлер	2197
инв	2198
##далган	2199
мурун	2200
адв	2201
уруксат	2202
26	2203
көйгөй	2204
оору	2205
##ах	2206
интерн	2207
##ский	2208
##орун	2209
ык	2210
адвок	2211
москва	2212
тиешелүү	2213
пайыз	2214
өнөкт	2215
##мо	2216
илд	2217
199	2218
тран	2219
##өшт	2220
##аттан	2221
гр	2222
##ард	2223
тоол	2224
орусияда	2225
инвест	2226
##оонун	2227
алгачкы	2228
##мөн	2229
макс	2230
##сул	2231
##сак	2232
жети	2233
өкмөттүн	2234
баштады	2235
##дыктан	2236
терр	2237
##фон	2238
##бү	2239
рак	2240
төм	2241
##ттан	2242
төмөн	2243
##сүз	2244
##ыштыр	2245
вак	2246
айтылат	2247
колдо	2248
##есине	2249
пайдалан	2250
көрүн	2251
медициналык	2252
##ымал	2253
жерлер	2254
##үүчү	2255
кабарлады	2256
жеңил	2257
эске	2258
зом	2259
камакка	2260
##id	2261
жайгашкан	2262
мисалы	2263
нер	2264
сайын	2265
ашыр	2266
ыкт	2267
муз	2268
орусиялык	2269
##рон	2270
катчысы	2271
зомбул	2272
жарыялаган	2273
басым	2274
тай	2275
шек	2276
##газ	2277
##үүнүн	2278
##өөлөр	2279
##деп	2280
кызматкерлери	2281
борбордук	2282
дир	2283
об	2284
жатып	2285
бюдж	2286
##ыйж	2287
жашаган	2288
натыйж	2289
50	2290
##ебиз	2291
##өнү	2292
уюмунун	2293
өттү	2294
демил	2295
кеп	2296
басыл	2297
украина	2298
бизге	2299
июлда	2300
көрүп	2301
жерге	2302
##актар	2303
инф	2304
операция	2305
##рд	2306
коркунуч	2307
мэр	2308
чыгыш	2309
өзгөрт	2310
млрд	2311
уча	2312
##ти	2313
##дөгөн	2314
##дерди	2315
нааразылык	2316
митинг	2317
вакцин	2318
##еттин	2319
##иверс	2320
автоуна	2321
эреж	2322
четке	2323
республик	2324
эмгек	2325
милдетт	2326
нерсе	2327
ордун	2328
зы	2329
кабин	2330
##иштүү	2331
ары	2332
салып	2333
жакт	2334
соту	2335
бет	2336
демократ	2337
белгисиз	2338
##ңыз	2339
2019	2340
##алап	2341
##алдуу	2342
##ентарий	2343
чогул	2344
##ылыш	2345
##арынын	2346
күндө	2347
туш	2348
аларга	2349
арада	2350
герман	2351
депутаты	2352
тарабынан	2353
##гем	2354
каражат	2355
##лом	2356
элчил	2357
катталган	2358
сар	2359
универс	2360
##од	2361
жөнөт	2362
өткөрүп	2363
лидер	2364
##ыгын	2365
##on	2366
комментарий	2367
видео	2368
##гүл	2369
аймагында	2370
баштап	2371
теле	2372
тан	2373
дээр	2374
##ья	2375
арм	2376
абд	2377
ачыл	2378
##байт	2379
өс	2380
трам	2381
дип	2382
сүйлөшүүлөр	2383
мунун	2384
ракет	2385
тов	2386
санкция	2387
парламент	2388
##шкен	2389
дон	2390
##өгө	2391
##аг	2392
диплом	2393
##ош	2394
##беген	2395
трамп	2396
мез	2397
##өрүн	2398
кыйын	2399
коопсузду	2400
дээрлик	2401
тармактар	2402
тууган	2403
университ	2404
мезгил	2405
тапкан	2406
##алим	2407
директ	2408
##ңиз	2409
түштүк	2410
жактан	2411
до	2412
шарт	2413
февралда	2414
башчы	2415
куу	2416
тоо	2417
29	2418
бишкектин	2419
парламенттик	2420
спорт	2421
жибер	2422
##есинин	2423
cov	2424
киев	2425
##уусу	2426
жазып	2427
салык	2428
миллиард	2429
##бө	2430
бирик	2431
##дыгын	2432
жакында	2433
кас	2434
кадам	2435
##ону	2436
бийлиг	2437
##ылганын	2438
ичинен	2439
##сүнө	2440
##елен	2441
жогору	2442
чакырды	2443
соттун	2444
чыга	2445
жыйынында	2446
гүл	2447
кесип	2448
##сунда	2449
таг	2450
кым	2451
##устун	2452
сыртк	2453
тажикстандын	2454
кодекс	2455
бл	2456
орусияга	2457
чыгарып	2458
куралдуу	2459
##ирим	2460
кытайдын	2461
##пөй	2462
түрдө	2463
барак	2464
матери	2465
ту	2466
##сө	2467
окуялар	2468
каранды	2469
##илер	2470
##аларга	2471
ислам	2472
тон	2473
##үлдү	2474
батыш	2475
бү	2476
сөө	2477
программ	2478
түзүлгөн	2479
тург	2480
кызматтан	2481
кумтөр	2482
суроо	2483
диний	2484
тир	2485
кирип	2486
##елери	2487
бишкектеги	2488
көбү	2489
covid	2490
калтыр	2491
жума	2492
##аттуу	2493
өнүктүрүү	2494
ыраст	2495
далил	2496
эп	2497
##er	2498
тилк	2499
боло	2500
азатт	2501
##шемб	2502
түндүк	2503
лидери	2504
аян	2505
коюлган	2506
баарын	2507
##алууда	2508
тоб	2509
өтүн	2510
##бур	2511
укугу	2512
курам	2513
андай	2514
фран	2515
өнүг	2516
нар	2517
банк	2518
##орду	2519
бой	2520
билдирип	2521
кармап	2522
таң	2523
кошумчалады	2524
кантип	2525
кыйн	2526
зыян	2527
нарын	2528
фей	2529
курулуш	2530
##шу	2531
бүгүнкү	2532
жетиш	2533
улуу	2534
учурлар	2535
шаарынын	2536
өлтүр	2537
базар	2538
##еге	2539
##ыс	2540
баян	2541
каражаттар	2542
сту	2543
дарыгерлер	2544
тоолуу	2545
##лап	2546
факт	2547
иштет	2548
маселеси	2549
ортосундагы	2550
##ерен	2551
##штир	2552
мүчөлөр	2553
##исттик	2554
##уктур	2555
экономик	2556
##атив	2557
сир	2558
##итт	2559
##ектен	2560
жолдо	2561
радиос	2562
акы	2563
турукт	2564
басылм	2565
кошумча	2566
окш	2567
##ина	2568
чыгарган	2569
кайрадан	2570
##укту	2571
мүл	2572
бийликтин	2573
кымб	2574
вирус	2575
тери	2576
##дордун	2577
телефон	2578
чың	2579
түркия	2580
доо	2581
бажы	2582
инстит	2583
жашыр	2584
no	2585
сер	2586
үл	2587
калат	2588
көргөн	2589
баракч	2590
сегиз	2591
##пар	2592
алекс	2593
жабырк	2594
азаттыктын	2595
##чулары	2596
##чулардын	2597
облустук	2598
##егер	2599
көпт	2600
жасаган	2601
наз	2602
бизде	2603
##өг	2604
##дүүл	2605
китеп	2606
кылуу	2607
эгем	2608
аг	2609
коюп	2610
мир	2611
байден	2612
эгемен	2613
##өөгө	2614
мамлекеттин	2615
районунун	2616
болбойт	2617
макулдаш	2618
сында	2619
алмаз	2620
##орон	2621
##асынан	2622
акын	2623
##ея	2624
карж	2625
тала	2626
##ид	2627
жам	2628
##чалык	2629
орн	2630
##аң	2631
матра	2632
сов	2633
туруп	2634
мамлекеттер	2635
##дигин	2636
жарыяланган	2637
ташиев	2638
өлкөдөгү	2639
муг	2640
чем	2641
белгилеп	2642
бизн	2643
40	2644
##ктык	2645
мал	2646
айдоо	2647
мына	2648
##атор	2649
мугалим	2650
31	2651
##илет	2652
##гындагы	2653
ишеним	2654
кызы	2655
ишкерлер	2656
товар	2657
аттуу	2658
##жол	2659
мага	2660
оорукан	2661
метр	2662
##илип	2663
##оочу	2664
##сында	2665
##улат	2666
каттоо	2667
күндөрү	2668
үйлөр	2669
албетте	2670
райондор	2671
##дия	2672
##етке	2673
кырсы	2674
студен	2675
##буз	2676
бшк	2677
##мок	2678
жарыялады	2679
##луу	2680
бөлүн	2681
##өөл	2682
чыр	2683
##уудан	2684
көчө	2685
кызматташт	2686
чемпи	2687
партиясынын	2688
жалпысынан	2689
коронавируска	2690
ыктымал	2691
##гынан	2692
##циянын	2693
аск	2694
телек	2695
админист	2696
көлөм	2697
адамдардын	2698
мамиле	2699
өч	2700
канал	2701
өкмөтү	2702
##елип	2703
кеңешинин	2704
##чусу	2705
чара	2706
мин	2707
маалыматты	2708
сентябр	2709
режим	2710
ди	2711
таян	2712
долбоору	2713
бийликке	2714
апта	2715
сырткары	2716
шаарындагы	2717
аныкталган	2718
максатында	2719
##едер	2720
##йр	2721
кадыр	2722
өзбекстандын	2723
##ma	2724
администрация	2725
##еттик	2726
абалы	2727
дүйш	2728
азер	2729
##дөп	2730
карабай	2731
кызматкери	2732
башкаруу	2733
териштир	2734
бут	2735
##бан	2736
энергет	2737
азербай	2738
жуг	2739
зелен	2740
##укта	2741
##олд	2742
кишинин	2743
айтканда	2744
айынан	2745
аль	2746
жылдар	2747
##бия	2748
##ашкан	2749
жылдагы	2750
##алда	2751
кылды	2752
миңдей	2753
уг	2754
жарак	2755
украинадагы	2756
эст	2757
болуш	2758
турм	2759
изилдөө	2760
карашт	2761
##мин	2762
тапта	2763
көрсөткүч	2764
алм	2765
##есинде	2766
ортосунда	2767
коргон	2768
аякт	2769
ирет	2770
##улду	2771
кызыкчыл	2772
токто	2773
жокко	2774
мүчөсү	2775
үм	2776
багытт	2777
султан	2778
ишкер	2779
укуктар	2780
мед	2781
сайт	2782
камчы	2783
##матов	2784
##атр	2785
зеленский	2786
манас	2787
мыкты	2788
түшүп	2789
жакта	2790
жаңж	2791
чечими	2792
##арына	2793
##үндөгү	2794
качан	2795
тог	2796
өзүнө	2797
уур	2798
аялдар	2799
талкуул	2800
эксперт	2801
##туп	2802
соорон	2803
түзгөн	2804
##акция	2805
##уман	2806
##цион	2807
барат	2808
салынган	2809
##пей	2810
тегер	2811
##орма	2812
коң	2813
козголгон	2814
бараткан	2815
түркмөн	2816
##ад	2817
кызыл	2818
алыш	2819
##елерди	2820
отурган	2821
##олду	2822
улант	2823
кодексинин	2824
беренеси	2825
сүрөттүн	2826
алганын	2827
кана	2828
мүнө	2829
тартылган	2830
##өйр	2831
##олуп	2832
март	2833
2023	2834
##көм	2835
калк	2836
##ларын	2837
азербайжан	2838
согушка	2839
##ушкан	2840
жетект	2841
##баева	2842
уюму	2843
аппар	2844
карантин	2845
##юз	2846
##ti	2847
бериш	2848
иим	2849
берүүгө	2850
бою	2851
тарат	2852
уюмдар	2853
ноябр	2854
жеткен	2855
кесеп	2856
маалымдады	2857
мел	2858
тарткан	2859
виц	2860
##аниянын	2861
белгилеген	2862
байланыш	2863
түл	2864
үчүнчү	2865
бөлүгү	2866
трансп	2867
ката	2868
киреш	2869
##илди	2870
карма	2871
жарандар	2872
бийликти	2873
мус	2874
калганын	2875
кабарлаган	2876
вице	2877
чук	2878
эсеб	2879
олим	2880
##ини	2881
##асп	2882
комитетинин	2883
##зия	2884
бара	2885
ошент	2886
өлкөгө	2887
шайлоодо	2888
##ушту	2889
саясатчы	2890
фейс	2891
".	2892
кармалып	2893
##тал	2894
##обирим	2895
евробирим	2896
курч	2897
##иф	2898
болбой	2899
үз	2900
жылды	2901
суроолор	2902
катышуу	2903
карш	2904
болорун	2905
##игине	2906
тынчтык	2907
бирин	2908
проц	2909
бирг	2910
##истан	2911
өнөр	2912
казакстанда	2913
кабылган	2914
көк	2915
сокку	2916
##алоо	2917
жараны	2918
салыштыр	2919
демилг	2920
##ков	2921
##сек	2922
##андын	2923
көпчүлүк	2924
##иси	2925
күчөт	2926
##ларда	2927
маалда	2928
ишти	2929
##үктөр	2930
инвестиция	2931
##сиянын	2932
экс	2933
стат	2934
рос	2935
жылда	2936
энергия	2937
чукул	2938
парламенттин	2939
элге	2940
өкүм	2941
##ева	2942
түй	2943
кабинетинин	2944
ын	2945
маданият	2946
жабыркаган	2947
ни	2948
пак	2949
жүрүш	2950
сомго	2951
##үлөт	2952
конституциялык	2953
белгиленген	2954
буйр	2955
аэр	2956
##есс	2957
албайт	2958
убакыт	2959
чогуу	2960
ыйгар	2961
буу	2962
талас	2963
соттук	2964
сапар	2965
ордуна	2966
##мит	2967
корея	2968
##дерге	2969
аст	2970
##исттер	2971
аты	2972
##дыруу	2973
мектепт	2974
долбоорун	2975
тартип	2976
октябрь	2977
##ью	2978
айтылып	2979
ошондо	2980
кайрылган	2981
кезекте	2982
турак	2983
команда	2984
ойн	2985
жасап	2986
эгерде	2987
##атыр	2988
##хам	2989
суд	2990
жараат	2991
телекан	2992
тогуз	2993
мекеменин	2994
фр	2995
нерс	2996
##алышы	2997
койду	2998
кайрыл	2999
##өткө	3000
топтор	3001
материал	3002
карыз	3003
##баевдин	3004
таз	3005
убада	3006
прокуратура	3007
пен	3008
##ңар	3009
##шти	3010
борбору	3011
2018	3012
сүрөт	3013
сен	3014
өтөт	3015
бекем	3016
айда	3017
##тти	3018
##угун	3019
туруктуу	3020
күм	3021
кыргызстандыктар	3022
##аламан	3023
мыйзамга	3024
кескин	3025
жерден	3026
араб	3027
жашап	3028
акылбек	3029
##дөрүнүн	3030
сомдон	3031
маселени	3032
##гып	3033
эсептейт	3034
жетти	3035
жалгыз	3036
керектигин	3037
ген	3038
корго	3039
##анды	3040
алынып	3041
##уктун	3042
уна	3043
башаламан	3044
ооруканага	3045
##амат	3046
стан	3047
##ордун	3048
##өөк	3049
тилек	3050
отурум	3051
финан	3052
директору	3053
экөө	3054
мон	3055
фут	3056
тарта	3057
бөгө	3058
жылдык	3059
аман	3060
мекемелер	3061
башкармалыгынын	3062
("	3063
сум	3064
билдиргендей	3065
жакка	3066
киргизилген	3067
насы	3068
тараткан	3069
иштерин	3070
##аков	3071
аракети	3072
##уд	3073
мени	3074
ондогон	3075
жыйынтыгы	3076
чөйр	3077
##рый	3078
күнөөл	3079
##ашып	3080
##бөл	3081
түркиянын	3082
##чар	3083
маж	3084
таза	3085
америкалык	3086
60	3087
штаб	3088
тажрый	3089
активисттер	3090
жаман	3091
азай	3092
алынды	3093
күйөө	3094
айта	3095
##сан	3096
зав	3097
бириккен	3098
көптөгөн	3099
футбол	3100
каттам	3101
кошт	3102
жасал	3103
көрсөткөн	3104
чал	3105
жүк	3106
жарандары	3107
чак	3108
анал	3109
түрмө	3110
##дуул	3111
чакырым	3112
судья	3113
федер	3114
көмүр	3115
акый	3116
сөздөр	3117
жаштар	3118
чемпион	3119
##ный	3120
##би	3121
таап	3122
маалыматта	3123
турганы	3124
##дур	3125
##иза	3126
##ткөн	3127
тамак	3128
##es	3129
##ъект	3130
##раф	3131
?"	3132
айтылды	3133
токтом	3134
чарба	3135
жапаровдун	3136
документ	3137
##ема	3138
балдардын	3139
калыб	3140
армен	3141
матраимов	3142
жасалган	3143
##ланып	3144
##ыктан	3145
ээл	3146
##ири	3147
баасы	3148
миңдеген	3149
коррупцияга	3150
ажырат	3151
жаан	3152
##дырып	3153
##иктер	3154
эртең	3155
##аак	3156
##аганын	3157
кеминде	3158
алмазбек	3159
")	3160
клас	3161
конституция	3162
##икке	3163
аябай	3164
##убуз	3165
...-	3166
жүрөт	3167
шайлоонун	3168
##атын	3169
##екция	3170
арасындагы	3171
##уккан	3172
тобу	3173
буунун	3174
туул	3175
##аттарды	3176
экономика	3177
##атында	3178
##сам	3179
##асыз	3180
арга	3181
түзөт	3182
##жин	3183
түнү	3184
күнгө	3185
каралган	3186
##евдин	3187
азык	3188
мектептер	3189
жаңыл	3190
крем	3191
##ышка	3192
тааны	3193
##ларында	3194
британия	3195
олимпи	3196
##мек	3197
##эб	3198
жапон	3199
калыбына	3200
манда	3201
бирге	3202
кайтып	3203
##салык	3204
соол	3205
агенттиги	3206
адамга	3207
груз	3208
мер	3209
дароо	3210
атындагы	3211
беларус	3212
80	3213
жем	3214
кайрылып	3215
##уулук	3216
начар	3217
укуктары	3218
##ойт	3219
##даган	3220
##изация	3221
шам	3222
##ашты	3223
адистер	3224
##лы	3225
##мун	3226
тийгиз	3227
жагынан	3228
караба	3229
кин	3230
##уттуу	3231
демек	3232
башынан	3233
##аша	3234
##кум	3235
шектүү	3236
ша	3237
##игинин	3238
кабарланды	3239
институт	3240
##пер	3241
##овду	3242
болбосо	3243
криз	3244
70	3245
##пир	3246
чектөө	3247
камсыздоо	3248
өзүм	3249
кагыл	3250
көрсөтүп	3251
пакистан	3252
тут	3253
##ткен	3254
жолдор	3255
чыгым	3256
),	3257
ме	3258
сел	3259
тоск	3260
жүргүзүп	3261
миграция	3262
кармалды	3263
тараптуу	3264
##in	3265
мүмкүнчүлүк	3266
##үштү	3267
500	3268
гуман	3269
ишине	3270
келеч	3271
комитети	3272
куугун	3273
ошт	3274
##пайт	3275
республикалык	3276
камчыбек	3277
күндөн	3278
жумш	3279
мекеме	3280
аэроп	3281
##сс	3282
союз	3283
билдирүүдө	3284
министринин	3285
##сыздан	3286
2017	3287
коюу	3288
нааразы	3289
өтүнүч	3290
сооронбай	3291
##бөгөн	3292
##ектер	3293
насыя	3294
нав	3295
##те	3296
алганы	3297
кремл	3298
##чынын	3299
##сүнүн	3300
##алыш	3301
##ырт	3302
берүүнү	3303
эсеп	3304
укугун	3305
аскерлери	3306
улуттар	3307
көбүр	3308
түзүп	3309
мүнөз	3310
түп	3311
мей	3312
кемпир	3313
зал	3314
ник	3315
пасп	3316
##атка	3317
##аларда	3318
өлкөлөрдүн	3319
алматы	3320
##ондук	3321
эмнеге	3322
мунай	3323
##гандар	3324
тиешеси	3325
куугунт	3326
##дешт	3327
##бар	3328
башкача	3329
компаниясы	3330
олуттуу	3331
илимий	3332
##еттен	3333
табылган	3334
бирөө	3335
##лердин	3336
булактар	3337
ака	3338
жатканда	3339
өлкөдөн	3340
чыгаруу	3341
##tion	3342
35	3343
##ант	3344
##абай	3345
түшүр	3346
күчтөрү	3347
##окт	3348
##мушт	3349
коё	3350
үйр	3351
атаанда	3352
тес	3353
##стыкт	3354
##ырып	3355
##дүг	3356
түзүү	3357
уюмдун	3358
##па	3359
бизнес	3360
мамлекетке	3361
чач	3362
тагдыр	3363
тоскоол	3364
##шен	3365
айдан	3366
баа	3367
көмө	3368
куруу	3369
өткөрүү	3370
партиянын	3371
аткаруу	3372
укмкнын	3373
##сер	3374
жогот	3375
өзгөртүү	3376
##еттер	3377
асан	3378
##өөнүн	3379
аймактык	3380
ошондон	3381
##ылууда	3382
кеткенин	3383
##al	3384
##гым	3385
акаев	3386
маркум	3387
мукта	3388
арн	3389
күз	3390
жакшыр	3391
комитет	3392
муктаж	3393
ла	3394
позиция	3395
жоокер	3396
көрсөтүлгөн	3397
тараптар	3398
карандысыз	3399
каржыл	3400
айл	3401
соз	3402
театр	3403
##акты	3404
##ттын	3405
катышты	3406
чаралар	3407
берилди	3408
##иядагы	3409
катышып	3410
пикирин	3411
300	3412
канчалык	3413
караштуу	3414
##дет	3415
##алай	3416
текшерүү	3417
жаңжал	3418
##устан	3419
##улман	3420
окуп	3421
2010	3422
сактап	3423
##яны	3424
мүчөлөрү	3425
##бет	3426
##богон	3427
мусулман	3428
дайым	3429
майрам	3430
толугу	3431
кызматташ	3432
киргизүү	3433
юр	3434
дегенде	3435
страт	3436
##өөнү	3437
алмаштыр	3438
машин	3439
укуктук	3440
террор	3441
маселесин	3442
гуманитардык	3443
##en	3444
##оро	3445
айр	3446
##лайн	3447
ошентип	3448
тр	3449
##уусун	3450
##аттардын	3451
##ыла	3452
кылым	3453
облусундагы	3454
ваш	3455
колдогон	3456
медиа	3457
органдары	3458
дипломат	3459
##масы	3460
##ңк	3461
маалыматтарды	3462
дүйшөм	3463
жалган	3464
иде	3465
айылында	3466
##чылары	3467
жокт	3468
болжол	3469
издөө	3470
##ингтон	3471
стратег	3472
сана	3473
тараптан	3474
маалыматы	3475
дрон	3476
##чам	3477
##ылышы	3478
деңиз	3479
билген	3480
миңге	3481
каражаттары	3482
ооз	3483
ави	3484
сынга	3485
вашингтон	3486
кил	3487
##сих	3488
негизинен	3489
сүйлөшүү	3490
бербей	3491
корку	3492
аймактарда	3493
##ышууда	3494
рах	3495
көбүрөөк	3496
айга	3497
арх	3498
объект	3499
90	3500
адамды	3501
бую	3502
камалган	3503
бойдон	3504
наваль	3505
салды	3506
бакиев	3507
##ыктуу	3508
түрдүү	3509
чечимин	3510
долбоорлор	3511
телеканал	3512
жуктур	3513
болууда	3514
талаш	3515
кийим	3516
өтпөй	3517
партиясы	3518
##чиден	3519
##ыч	3520
аким	3521
жакындары	3522
арз	3523
##өттү	3524
онлайн	3525
##атынын	3526
2016	3527
армиясы	3528
дост	3529
мөөнөтү	3530
псих	3531
##кап	3532
##ель	3533
айлык	3534
чектөөлөр	3535
өзүнчө	3536
дарылан	3537
ыкчам	3538
кызматка	3539
акыйкат	3540
маегинде	3541
##рад	3542
орусиядагы	3543
##шембиде	3544
зам	3545
өң	3546
жакынкы	3547
техникалык	3548
түркмөнстан	3549
##ap	3550
жыйында	3551
тургуну	3552
анк	3553
кандайдыр	3554
таянып	3555
тарыхый	3556
террордук	3557
окумушт	3558
апрель	3559
тийиштүү	3560
болмок	3561
убагында	3562
талибан	3563
##орл	3564
##есе	3565
кылат	3566
жетекчи	3567
кич	3568
чыгарма	3569
орнот	3570
навальный	3571
##ми	3572
##an	3573
##ентке	3574
##гыр	3575
районунда	3576
##айы	3577
##овго	3578
келат	3579
кыс	3580
келгенин	3581
заман	3582
карак	3583
кылмыштуу	3584
тонна	3585
вал	3586
##ээк	3587
##дигине	3588
өртт	3589
убакы	3590
демократиялык	3591
статист	3592
өзүбүз	3593
тас	3594
##иясы	3595
милдетин	3596
фил	3597
качып	3598
##гул	3599
атып	3600
токаев	3601
республикасынын	3602
айыр	3603
кошмо	3604
##өлгөн	3605
болгондуктан	3606
аткыл	3607
тастыкт	3608
чыгуу	3609
колдонуу	3610
салым	3611
тартуу	3612
бөгөт	3613
түшүндүрмө	3614
гект	3615
жүй	3616
жаны	3617
иштей	3618
абакта	3619
##лав	3620
үгү	3621
талаптар	3622
этн	3623
аргасыз	3624
маалында	3625
массалык	3626
кошо	3627
касым	3628
сөөгү	3629
негизде	3630
##үүлөрдү	3631
калса	3632
алы	3633
айтууда	3634
конц	3635
##ативдик	3636
##тып	3637
мыйзамдын	3638
##обил	3639
берилет	3640
адамдарды	3641
эпиде	3642
жиги	3643
жараткан	3644
кагаз	3645
кетет	3646
##бой	3647
эркинен	3648
блог	3649
бары	3650
баалуу	3651
##ышып	3652
тат	3653
хан	3654
##цен	3655
алышкан	3656
кабарланган	3657
алмаш	3658
тынчсыздан	3659
тарапта	3660
аракеттер	3661
фор	3662
көтөрүп	3663
проф	3664
сол	3665
пул	3666
##өбүз	3667
экстр	3668
жайы	3669
аф	3670
##ктары	3671
ойлой	3672
жолугушуу	3673
калуу	3674
мыр	3675
форм	3676
алдынча	3677
баракчасына	3678
себепт	3679
##кулов	3680
мажбур	3681
менч	3682
мыйзамды	3683
тийиш	3684
##ерендум	3685
анализ	3686
гез	3687
ос	3688
##ех	3689
талдоо	3690
учак	3691
балк	3692
назар	3693
энергетика	3694
##дөрүн	3695
жарандардын	3696
төрагасынын	3697
өрт	3698
референдум	3699
салма	3700
аймакта	3701
көрсөтүү	3702
ресур	3703
өнүгүү	3704
экстрем	3705
##см	3706
##дарында	3707
атат	3708
башталды	3709
ушу	3710
июнь	3711
өнөктөшт	3712
элди	3713
аягына	3714
чакырган	3715
коргоочу	3716
чакан	3717
төлөм	3718
сезим	3719
колдоп	3720
33	3721
##ро	3722
билбей	3723
кылын	3724
орусиядан	3725
министрлик	3726
ошону	3727
жапырт	3728
кооптуу	3729
аң	3730
ум	3731
жокп	3732
чыгат	3733
кудай	3734
фонд	3735
жугуз	3736
ант	3737
ирандын	3738
фейсбу	3739
тарбия	3740
түзүм	3741
үмүт	3742
сек	3743
терең	3744
тутк	3745
2015	3746
деңгээлде	3747
эш	3748
эскертти	3749
маалымдаган	3750
сак	3751
##дикке	3752
реформ	3753
##енко	3754
айтк	3755
компаниясынын	3756
жасалма	3757
өздөрү	3758
##бекова	3759
коңшу	3760
жандан	3761
##ткар	3762
калганы	3763
зомбулук	3764
жараша	3765
##бызды	3766
жыйынт	3767
##үктү	3768
фондун	3769
дүйшөмбү	3770
министрликт	3771
хам	3772
алексан	3773
##тым	3774
##ларынын	3775
##ерн	3776
жөнгө	3777
##малуу	3778
##өгү	3779
##гөз	3780
кырдаалдар	3781
##артам	3782
##ари	3783
ташк	3784
күчтүү	3785
өмүрүн	3786
##агн	3787
кут	3788
тест	3789
алак	3790
олимпиада	3791
##ша	3792
##амин	3793
багыт	3794
албаган	3795
##гөнүн	3796
аныкталды	3797
кароо	3798
##ска	3799
кеңири	3800
кыйла	3801
32	3802
жама	3803
чогулган	3804
келгенде	3805
жабык	3806
коммер	3807
##тация	3808
кыя	3809
##иж	3810
рез	3811
##хм	3812
келаткан	3813
атасы	3814
##омол	3815
##ешет	3816
ам	3817
таандык	3818
туулган	3819
бээ	3820
кетир	3821
конф	3822
рол	3823
##еев	3824
##шат	3825
чыгарм	3826
макам	3827
дүйнөдө	3828
курултай	3829
аймактарында	3830
##mag	3831
##ста	3832
энелер	3833
балким	3834
imag	3835
##үшкөн	3836
бирине	3837
##ларына	3838
улут	3839
толк	3840
фракция	3841
атыш	3842
төлөп	3843
жел	3844
бизди	3845
##ктарды	3846
##иктин	3847
комитеттин	3848
көйгөйлөр	3849
пал	3850
##ме	3851
##алаган	3852
чакырып	3853
куткар	3854
##икация	3855
облустарынын	3856
израилдин	3857
александр	3858
св	3859
##ура	3860
аймагына	3861
оорул	3862
аянт	3863
укуктарын	3864
##далды	3865
##улуш	3866
##чылардын	3867
эсе	3868
бөлүмүнүн	3869
максаты	3870
өлч	3871
эксперттер	3872
маданий	3873
бузуу	3874
багытталган	3875
болбогон	3876
тартиб	3877
чагыл	3878
топтун	3879
камт	3880
окр	3881
кишиге	3882
##диктин	3883
азайт	3884
кетүү	3885
бийик	3886
камакта	3887
транспорт	3888
##олю	3889
өлкөлүк	3890
районундагы	3891
күтүп	3892
түлүк	3893
молд	3894
##далып	3895
болгондор	3896
айынын	3897
кыргызстандан	3898
кетүүгө	3899
көбүн	3900
долларга	3901
##ылт	3902
инд	3903
интернет	3904
кызматына	3905
кетиш	3906
электрондук	3907
өзөкт	3908
##ктардын	3909
##ктыяр	3910
##ыкка	3911
республика	3912
каалаган	3913
##ец	3914
жумушчу	3915
##рессия	3916
көргөз	3917
технология	3918
пл	3919
##ткон	3920
##елерин	3921
батир	3922
администр	3923
##тту	3924
салыштырмалуу	3925
серг	3926
##ну	3927
##укаш	3928
сурап	3929
конт	3930
коргонуу	3931
##лу	3932
сотунун	3933
жубай	3934
макал	3935
бүтүн	3936
##тен	3937
каралып	3938
жетиштүү	3939
демон	3940
сүйлө	3941
бекит	3942
кармалганын	3943
үр	3944
департам	3945
эмдөө	3946
отуруп	3947
ыйгарым	3948
ыктыяр	3949
токтотуу	3950
система	3951
тасм	3952
##үшүнө	3953
тен	3954
качкын	3955
чалгын	3956
өсп	3957
борборунун	3958
кездеги	3959
клим	3960
бирдикт	3961
барды	3962
##ушат	3963
иштейт	3964
таасирин	3965
хар	3966
##олор	3967
чөл	3968
түзүл	3969
жумушт	3970
тажрыйб	3971
демонст	3972
паспорт	3973
##үң	3974
болоб	3975
00	3976
чо	3977
##ar	3978
##ut	3979
кырдаалды	3980
жыйынтыгында	3981
коммун	3982
мирз	3983
бетт	3984
##шкон	3985
##ымды	3986
##доган	3987
жатканына	3988
москвада	3989
абалда	3990
жүзүндө	3991
көрүнүш	3992
##егин	3993
эрдоган	3994
коронавирустун	3995
аялдардын	3996
жеңиш	3997
путиндин	3998
##зин	3999
прот	4000
алганда	4001
аптада	4002
##пон	4003
айрымдары	4004
байкоо	4005
наб	4006
##жо	4007
билдирүүсүндө	4008
##дөрдүн	4009
консул	4010
мобил	4011
дүйнөдөгү	4012
прокурор	4013
45	4014
##фт	4015
жаап	4016
машы	4017
калышы	4018
суран	4019
36	4020
кв	4021
##адан	4022
##кыр	4023
пикирлер	4024
тармактарда	4025
сыйл	4026
палат	4027
кыска	4028
өлчөм	4029
вен	4030
чалдык	4031
##стын	4032
көлөмү	4033
тасма	4034
##ейл	4035
##икти	4036
чыгарды	4037
2014	4038
##пайбы	4039
##ашы	4040
##синин	4041
узак	4042
маселен	4043
процес	4044
менчик	4045
чол	4046
##at	4047
##раз	4048
жүргүзгөн	4049
уланып	4050
үгүт	4051
ороз	4052
той	4053
кымбат	4054
өзөктүк	4055
элем	4056
колго	4057
кишини	4058
тургундар	4059
кызматтар	4060
айыптап	4061
ге	4062
чен	4063
эв	4064
тос	4065
маалыматтарга	4066
административдик	4067
##шке	4068
башы	4069
мыйзамдуу	4070
кайтарып	4071
реп	4072
##ыктарды	4073
майдан	4074
реда	4075
##аж	4076
##усту	4077
##кон	4078
көрүү	4079
үйдө	4080
экспортт	4081
өчүр	4082
чөйрө	4083
гэ	4084
алектен	4085
карай	4086
айтышты	4087
украинада	4088
январь	4089
##дарда	4090
убакта	4091
медицина	4092
башаламандык	4093
сына	4094
##лов	4095
##үрүм	4096
кадр	4097
билдиришти	4098
аткамин	4099
саясатчылар	4100
кечээ	4101
өнүктүр	4102
өспүрүм	4103
чалдыккан	4104
сей	4105
##чунун	4106
алууну	4107
##улла	4108
шарттар	4109
комиссиянын	4110
лукаш	4111
бардыгы	4112
абанын	4113
##чилер	4114
##үгүр	4115
ачылган	4116
##естин	4117
##угуна	4118
дүйнөнүн	4119
эне	4120
сутк	4121
карабастан	4122
катталды	4123
вакцина	4124
финансы	4125
фейсбуктагы	4126
##али	4127
##шкө	4128
жарыяланды	4129
арналган	4130
гектар	4131
тим	4132
факты	4133
сөзсүз	4134
териштирүү	4135
кысым	4136
бирдиктүү	4137
##ник	4138
##чк	4139
университетинин	4140
198	4141
саммит	4142
жүкт	4143
##атбек	4144
сотто	4145
бүлөлүк	4146
cap	4147
##дору	4148
##еттүү	4149
курган	4150
дайындалган	4151
сергей	4152
төг	4153
##ограф	4154
парламентте	4155
коррупциялык	4156
ойлон	4157
таштап	4158
илдет	4159
милдеттен	4160
тилекке	4161
иб	4162
суракка	4163
моюн	4164
америк	4165
милдеттүү	4166
артка	4167
жатышкан	4168
мисал	4169
байланышкан	4170
музык	4171
дүк	4172
кийлиги	4173
баласы	4174
комплек	4175
завод	4176
как	4177
##кту	4178
ошого	4179
инт	4180
имп	4181
ысым	4182
музей	4183
лагер	4184
##ыкча	4185
келишет	4186
аныктоо	4187
жетекчилери	4188
туткун	4189
дос	4190
##ованын	4191
толтур	4192
крим	4193
милициянын	4194
##бас	4195
чыгарылган	4196
каржы	4197
талкууга	4198
##чо	4199
##дүм	4200
##ели	4201
күнөө	4202
бейтаптар	4203
франция	4204
!"	4205
##аганы	4206
коман	4207
чыгышты	4208
негизи	4209
өмүрү	4210
##газиев	4211
коопсуздугун	4212
тескери	4213
айрыкча	4214
image	4215
го	4216
мэ	4217
кишилер	4218
москванын	4219
чөлкөм	4220
caption	4221
##зат	4222
көрүнү	4223
балдарды	4224
##дырган	4225
чараларды	4226
кызматтын	4227
киргизген	4228
табылды	4229
поль	4230
жетекчилиги	4231
##арип	4232
##өнүп	4233
биринде	4234
##ышына	4235
##дерин	4236
кошул	4237
кооптон	4238
набыт	4239
##шет	4240
кишил	4241
бөлүп	4242
##доого	4243
аткан	4244
дый	4245
көрүүгө	4246
облустар	4247
акчаны	4248
крым	4249
##өрдү	4250
##чилик	4251
фактыл	4252
райондорунда	4253
саналат	4254
өзүң	4255
коомчулукта	4256
каршылык	4257
##ңуз	4258
аягында	4259
атамбаевдин	4260
дыйкан	4261
##иядан	4262
##ити	4263
издеп	4264
күбө	4265
ойлойм	4266
чолпон	4267
##дардан	4268
калктын	4269
чечил	4270
##үгүнө	4271
уюмдардын	4272
федерация	4273
дипломатиялык	4274
итал	4275
артык	4276
берб	4277
иштеш	4278
кандуу	4279
жараян	4280
эски	4281
мурунку	4282
##гин	4283
##шан	4284
райым	4285
2024	4286
##альд	4287
жи	4288
сып	4289
ыл	4290
алыс	4291
##аланган	4292
шаары	4293
##олоң	4294
##стин	4295
жарык	4296
саясаты	4297
колдонуп	4298
үйүнө	4299
кылмышка	4300
комиссиясынын	4301
камагына	4302
алексей	4303
рубл	4304
шв	4305
##шкер	4306
айыпта	4307
стам	4308
автордук	4309
бакыт	4310
күрөшүү	4311
бээжин	4312
кышт	4313
тик	4314
жатам	4315
##иктир	4316
облусу	4317
автоб	4318
өлкөлөрү	4319
тобунун	4320
аскар	4321
жк	4322
көрө	4323
##чулук	4324
терс	4325
тапты	4326
автоунаа	4327
нам	4328
шартта	4329
темпер	4330
коомчулук	4331
катаал	4332
департамент	4333
пост	4334
көм	4335
атап	4336
аймактагы	4337
мүмкүнчүлүгү	4338
жаракат	4339
жылкы	4340
болгондордун	4341
##ашат	4342
жоопко	4343
##or	4344
учуп	4345
кечинде	4346
ибра	4347
температур	4348
жуу	4349
танда	4350
##шту	4351
ачып	4352
сүйлөп	4353
автор	4354
арадагы	4355
жүздөгөн	4356
келтирген	4357
дүкөн	4358
##ыкта	4359
теке	4360
ырааз	4361
инфекция	4362
##бург	4363
кымбатт	4364
жери	4365
уй	4366
##исти	4367
батышт	4368
аткаруучу	4369
34	4370
400	4371
по	4372
сары	4373
##иё	4374
сүйлөшүп	4375
эскерт	4376
россия	4377
станция	4378
##ылап	4379
санарип	4380
өткөргөн	4381
адилет	4382
соттолгон	4383
үлгү	4384
округ	4385
алышы	4386
өзбекстанда	4387
порт	4388
анг	4389
күнөөлүү	4390
жон	4391
акшда	4392
бейшен	4393
машыг	4394
муун	4395
##эн	4396
##алдын	4397
алабыз	4398
##штары	4399
##елди	4400
##огул	4401
мамлекеттердин	4402
ооруканада	4403
маз	4404
өндүрүш	4405
ишмердүүл	4406
биргел	4407
түркияда	4408
коргоочулар	4409
келтирүү	4410
күчтөрүнүн	4411
адвокат	4412
айым	4413
##ттык	4414
балдары	4415
адил	4416
күрөшт	4417
таасири	4418
##ида	4419
министрлигине	4420
башталгандан	4421
өск	4422
##ван	4423
##оодо	4424
##ттары	4425
президентке	4426
##үккө	4427
коомдун	4428
кезек	4429
партиялар	4430
клин	4431
тургундары	4432
стратегиялык	4433
ашты	4434
келсе	4435
кагып	4436
учурдагы	4437
##аланып	4438
уюштуруу	4439
нааразыл	4440
мигранттардын	4441
кыскар	4442
кызматташтык	4443
жыйынтыкт	4444
ыңг	4445
##ыны	4446
мадум	4447
кеңс	4448
мадумаров	4449
##чер	4450
ачкан	4451
чыныгы	4452
##олюция	4453
шаардын	4454
өлкөлөрдө	4455
быйылкы	4456
телег	4457
адаб	4458
ресурст	4459
жашыруун	4460
##мөт	4461
##ани	4462
##елет	4463
жашка	4464
келбейт	4465
аймагындагы	4466
жом	4467
дастан	4468
депутаттык	4469
өмүрбек	4470
штаттар	4471
меч	4472
карама	4473
##аныч	4474
журналисттерге	4475
рын	4476
##еме	4477
##өкөй	4478
дональд	4479
жетектеген	4480
еа	4481
##ттагы	4482
##дем	4483
айылынын	4484
эркиндиги	4485
башкармалыгы	4486
##баш	4487
адамдан	4488
жайгаштыр	4489
академия	4490
осмон	4491
келбей	4492
өлгөн	4493
алдындагы	4494
өкмөтүнүн	4495
отч	4496
зорду	4497
катталып	4498
##үктүн	4499
жүргүзүү	4500
реформа	4501
тв	4502
пров	4503
жөнөкөй	4504
ээси	4505
жарыялап	4506
рей	4507
##ира	4508
##ырган	4509
маң	4510
сактагы	4511
айтат	4512
шаарына	4513
айыпталып	4514
өлүмү	4515
ne	4516
##оф	4517
##макка	4518
##иров	4519
болобу	4520
##инц	4521
иштеб	4522
үйдүн	4523
##алиева	4524
мүлкт	4525
ыңгай	4526
жуккан	4527
жүгүр	4528
шак	4529
##көн	4530
##үнчү	4531
карт	4532
жазык	4533
##манов	4534
санитардык	4535
кеткени	4536
өкмөттүк	4537
салууга	4538
стамбул	4539
жакыр	4540
жанында	4541
сапары	4542
азиядагы	4543
доор	4544
ынтым	4545
келатат	4546
град	4547
мор	4548
##гуна	4549
##үтт	4550
мыйзамда	4551
коронавирустан	4552
окшойт	4553
доом	4554
зап	4555
##иясынын	4556
##елешкен	4557
##ха	4558
##бап	4559
кырс	4560
баланын	4561
москвага	4562
##чылыкка	4563
капт	4564
арасынан	4565
турду	4566
чыгууга	4567
шайланган	4568
өсүп	4569
жүйө	4570
хамас	4571
сыпатт	4572
берсе	4573
кете	4574
ооруп	4575
еаэб	4576
ашкан	4577
##дым	4578
##гам	4579
окуяс	4580
карапайым	4581
аяктаган	4582
кийлигиш	4583
телеграм	4584
##ияны	4585
##ктарга	4586
саналып	4587
тараптын	4588
берилип	4589
журналисттердин	4590
ийгил	4591
форум	4592
##наз	4593
баса	4594
##ациялык	4595
кылууга	4596
камер	4597
алдына	4598
оңой	4599
##чан	4600
##паган	4601
##гандардын	4602
##ындап	4603
элчиси	4604
##дигинин	4605
адвокаты	4606
бийлигинин	4607
градус	4608
тейл	4609
чам	4610
реги	4611
көзөмөлдөө	4612
биргелешкен	4613
гл	4614
ом	4615
##ебин	4616
күчөп	4617
ачыкка	4618
##эл	4619
өкүлдөр	4620
##ыгып	4621
мадания	4622
##сср	4623
ссср	4624
##абек	4625
бишкекке	4626
турмуш	4627
мирзиё	4628
проток	4629
байланышы	4630
сырттан	4631
##ля	4632
##үбүз	4633
булар	4634
жетпей	4635
жыйынтык	4636
канааттан	4637
зордукт	4638
делген	4639
тө	4640
органдарынын	4641
капит	4642
##пейт	4643
келиши	4644
ут	4645
алам	4646
алышат	4647
##имче	4648
айтышкан	4649
##агым	4650
журт	4651
##шемби	4652
кезектеги	4653
принц	4654
жарандарды	4655
ишкана	4656
болбосун	4657
150	4658
көпчүлүгү	4659
ста	4660
##иттер	4661
##ra	4662
али	4663
##деш	4664
аралы	4665
атаган	4666
жерди	4667
кетиши	4668
кепил	4669
##ло	4670
бож	4671
кирет	4672
чыгышкан	4673
келишимге	4674
аракеттен	4675
##жар	4676
##ңкы	4677
##үлүүдө	4678
чыкпай	4679
алдыга	4680
британиянын	4681
күб	4682
жашыл	4683
иштерди	4684
шер	4685
##кал	4686
##айбыз	4687
андыктан	4688
лицен	4689
аракетин	4690
беткап	4691
жугузуп	4692
маселелерди	4693
валю	4694
":	4695
дай	4696
##атына	4697
талапкерлер	4698
көчүр	4699
сындап	4700
күмөн	4701
вагн	4702
рус	4703
##ияз	4704
бериши	4705
булагы	4706
мой	4707
себептер	4708
тандоо	4709
пра	4710
такыр	4711
юри	4712
алса	4713
энеси	4714
чачын	4715
окуяга	4716
тактап	4717
талибдер	4718
ыкм	4719
лидерлер	4720
адамдарга	4721
жетип	4722
саналган	4723
британ	4724
басылмасы	4725
мэри	4726
регион	4727
нов	4728
##унду	4729
алым	4730
абалды	4731
кайрылды	4732
козго	4733
токой	4734
айланып	4735
демилге	4736
ырастады	4737
эсебинде	4738
аэропорт	4739
дайыма	4740
көрсөтмө	4741
##гыла	4742
өрөөн	4743
палестин	4744
37	4745
иштин	4746
жолун	4747
жазуу	4748
комиссиясы	4749
мухам	4750
системасы	4751
##данып	4752
талашт	4753
уюшкан	4754
укуктуу	4755
кесипт	4756
##ылбай	4757
кадим	4758
##ивдүү	4759
жор	4760
эф	4761
##имовдун	4762
согушту	4763
америка	4764
жиберген	4765
жы	4766
##кана	4767
##ыктардын	4768
эрте	4769
түйүн	4770
ыраазы	4771
тата	4772
чат	4773
тараган	4774
##ешип	4775
кийинчер	4776
отурат	4777
түштү	4778
техник	4779
керектүү	4780
советтик	4781
##сон	4782
##ch	4783
##данын	4784
эмил	4785
германия	4786
голд	4787
фер	4788
алышты	4789
кыздын	4790
миллиондон	4791
оппозициялык	4792
ру	4793
кыргыздар	4794
абагында	4795
ишканасынын	4796
чыңгыз	4797
професс	4798
сим	4799
##мыр	4800
##st	4801
токтоп	4802
жетекчилер	4803
кубаныч	4804
фонду	4805
кг	4806
пун	4807
болгондо	4808
кабул	4809
жумду	4810
кеңеште	4811
бийлигин	4812
дел	4813
пара	4814
балдарга	4815
мекенине	4816
жактоо	4817
суунун	4818
##oo	4819
айланган	4820
##дүкт	4821
органдар	4822
##орттук	4823
ооганстандын	4824
ду	4825
ки	4826
менимче	4827
беришти	4828
чечимди	4829
##сүндөгү	4830
75	4831
тор	4832
##оль	4833
маалыматында	4834
өлкөлөргө	4835
кеңеши	4836
москвадагы	4837
спик	4838
38	4839
дей	4840
жыйынга	4841
алынганын	4842
банктын	4843
жыйынтыгын	4844
коммерциялык	4845
майып	4846
колдонгон	4847
кээде	4848
радиосуна	4849
тит	4850
##аку	4851
жетишкен	4852
сыртка	4853
өст	4854
##ыгына	4855
баатыр	4856
көркөм	4857
кызматын	4858
долбоорунун	4859
райымбек	4860
##тим	4861
##гак	4862
кызматынан	4863
чарб	4864
бергенин	4865
##улганын	4866
германиянын	4867
божомол	4868
кадимки	4869
келүү	4870
##чүсү	4871
жарадар	4872
лидерлери	4873
##ят	4874
келбеген	4875
жолугуп	4876
машине	4877
эваку	4878
баарына	4879
##диктен	4880
генер	4881
ою	4882
айтуу	4883
алдыңкы	4884
төлөн	4885
эскертүү	4886
биримдиги	4887
##синче	4888
пайдалануу	4889
бүтк	4890
мырза	4891
##еде	4892
##кай	4893
##оло	4894
бирдей	4895
билдирүүлөр	4896
##чылыгы	4897
##өйт	4898
газа	4899
##бөйт	4900
баар	4901
дегенди	4902
көбөйүп	4903
##дуулук	4904
##пт	4905
##есинен	4906
кайда	4907
уланууда	4908
саламатты	4909
октябрдагы	4910
жетишсиз	4911
студентт	4912
тескерисинче	4913
тый	4914
атын	4915
кылууда	4916
айтылууда	4917
##доп	4918
күчүнө	4919
көбөйт	4920
эпидеми	4921
тама	4922
##мөлөр	4923
##мед	4924
##ганда	4925
##гация	4926
жылына	4927
##рах	4928
##деринин	4929
##үлгөнүн	4930
##алиевдин	4931
эскерткен	4932
таратып	4933
маалымдоо	4934
албайбыз	4935
сунуштаган	4936
ооганстандагы	4937
провин	4938
эж	4939
##алга	4940
компаниянын	4941
изилдө	4942
ракета	4943
угуп	4944
кары	4945
сауд	4946
##дикалык	4947
баштайт	4948
казакстанга	4949
министрликтин	4950
син	4951
жолду	4952
жолку	4953
##омп	4954
чыкканын	4955
кыймылынын	4956
радиосунун	4957
лаб	4958
цен	4959
колу	4960
өлкөнү	4961
эмеспи	4962
алгандар	4963
ачуу	4964
активдүү	4965
зарылды	4966
июль	4967
кагылыш	4968
мейман	4969
протокол	4970
эвакуация	4971
(+	4972
көн	4973
баал	4974
коло	4975
колуна	4976
кеңейт	4977
окуяны	4978
бөлүгүн	4979
##ештир	4980
багытта	4981
мөөнөтүн	4982
).	4983
ном	4984
уран	4985
фар	4986
куруп	4987
##сүнөн	4988
кырдаалга	4989
акыйкатчы	4990
44	4991
сх	4992
үйүндө	4993
радик	4994
маанай	4995
токтотуп	4996
дуб	4997
##ed	4998
бом	4999
