{
  "version": "1.0",
  "truncation": null,
  "padding": null,
  "added_tokens": [
    {
      "id": 0,
      "content": "[UNK]",
      "single_word": false,
      "lstrip": false,
      "rstrip": false,
      "normalized": false,
      "special": true
    },
    {
      "id": 1,
      "content": "[CLS]",
      "single_word": false,
      "lstrip": false,
      "rstrip": false,
      "normalized": false,
      "special": true
    },
    {
      "id": 2,
      "content": "[SEP]",
      "single_word": false,
      "lstrip": false,
      "rstrip": false,
      "normalized": false,
      "special": true
    },
    {
      "id": 3,
      "content": "[PAD]",
      "single_word": false,
      "lstrip": false,
      "rstrip": false,
      "normalized": false,
      "special": true
    },
    {
      "id": 4,
      "content": "[MASK]",
      "single_word": false,
      "lstrip": false,
      "rstrip": false,
      "normalized": false,
      "special": true
    }
  ],
  "normalizer": {
    "type": "Sequence",
    "normalizers": [
      {
        "type": "NFKC"
      },
      {
        "type": "Lowercase"
      }
    ]
  },
  "pre_tokenizer": {
    "type": "Whitespace"
  },
  "post_processor": null,
  "decoder": {
    "type": "WordPiece",
    "prefix": "##",
    "cleanup": true
  },
  "model": {
    "type": "WordPiece",
    "unk_token": "[UNK]",
    "continuing_subword_prefix": "##",
    "max_input_chars_per_word": 100,
    "vocab": {
      "[UNK]": 0,
      "[CLS]": 1,
      "[SEP]": 2,
      "[PAD]": 3,
      "[MASK]": 4,
      "!": 5,
      "\"": 6,
      "#": 7,
      "$": 8,
      "%": 9,
      "&": 10,
      "'": 11,
      "(": 12,
      ")": 13,
      "*": 14,
      "+": 15,
      ",": 16,
      "-": 17,
      ".": 18,
      "/": 19,
      "0": 20,
      "1": 21,
      "2": 22,
      "3": 23,
      "4": 24,
      "5": 25,
      "6": 26,
      "7": 27,
      "8": 28,
      "9": 29,
      ":": 30,
      ";": 31,
      "=": 32,
      "?": 33,
      "@": 34,
      "[": 35,
      "\\": 36,
      "]": 37,
      "_": 38,
      "`": 39,
      "a": 40,
      "b": 41,
      "c": 42,
      "d": 43,
      "e": 44,
      "f": 45,
      "g": 46,
      "h": 47,
      "i": 48,
      "j": 49,
      "k": 50,
      "l": 51,
      "m": 52,
      "n": 53,
      "o": 54,
      "p": 55,
      "q": 56,
      "r": 57,
      "s": 58,
      "t": 59,
      "u": 60,
      "v": 61,
      "w": 62,
      "x": 63,
      "y": 64,
      "z": 65,
      "{": 66,
      "}": 67,
      "£": 68,
      "§": 69,
      "©": 70,
      "¬": 71,
      "­": 72,
      "°": 73,
      "·": 74,
      "ß": 75,
      "á": 76,
      "â": 77,
      "ã": 78,
      "ä": 79,
      "ç": 80,
      "è": 81,
      "é": 82,
      "í": 83,
      "ï": 84,
      "ñ": 85,
      "ö": 86,
      "ü": 87,
      "ā": 88,
      "ą": 89,
      "ğ": 90,
      "ı": 91,
      "ŋ": 92,
      "ş": 93,
      "š": 94,
      "ū": 95,
      "ƚ": 96,
      "ƣ": 97,
      "ə": 98,
      "ɵ": 99,
      "ʙ": 100,
      "ʼ": 101,
      "́": 102,
      "̆": 103,
      "̇": 104,
      "̧": 105,
      "а": 106,
      "б": 107,
      "в": 108,
      "г": 109,
      "д": 110,
      "е": 111,
      "ж": 112,
      "з": 113,
      "и": 114,
      "й": 115,
      "к": 116,
      "л": 117,
      "м": 118,
      "н": 119,
      "о": 120,
      "п": 121,
      "р": 122,
      "с": 123,
      "т": 124,
      "у": 125,
      "ф": 126,
      "х": 127,
      "ц": 128,
      "ч": 129,
      "ш": 130,
      "щ": 131,
      "ъ": 132,
      "ы": 133,
      "ь": 134,
      "э": 135,
      "ю": 136,
      "я": 137,
      "ё": 138,
      "ђ": 139,
      "і": 140,
      "ї": 141,
      "љ": 142,
      "ћ": 143,
      "ў": 144,
      "ѳ": 145,
      "ғ": 146,
      "қ": 147,
      "ң": 148,
      "ү": 149,
      "ұ": 150,
      "ҳ": 151,
      "ҷ": 152,
      "һ": 153,
      "ӊ": 154,
      "ӏ": 155,
      "ә": 156,
      "ө": 157,
      "ӯ": 158,
      "ا": 159,
      "ح": 160,
      "خ": 161,
      "د": 162,
      "ر": 163,
      "ز": 164,
      "ص": 165,
      "ط": 166,
      "ظ": 167,
      "ع": 168,
      "غ": 169,
      "ق": 170,
      "ك": 171,
      "ل": 172,
      "م": 173,
      "ن": 174,
      "ه": 175,
      "و": 176,
      "ي": 177,
      "ُ": 178,
      "ِ": 179,
      "‎": 180,
      "‒": 181,
      "―": 182,
      "•": 183,
      "⁄": 184,
      "⁠": 185,
      "⁣": 186,
      "→": 187,
      "−": 188,
      "▪": 189,
      "●": 190,
      "⠀": 191,
      "回": 192,
      "堅": 193,
      "族": 194,
      "昆": 195,
      "鄄": 196,
      "韓": 197,
      "鬲": 198,
      "": 199,
      "️": 200,
      "##а": 201,
      "##д": 202,
      "##ы": 203,
      "##м": 204,
      "##п": 205,
      "##и": 206,
      "##с": 207,
      "##ю": 208,
      "##р": 209,
      "##е": 210,
      "##н": 211,
      "##ж": 212,
      "##к": 213,
      "##ч": 214,
      "##э": 215,
      "##ө": 216,
      "##ү": 217,
      "##в": 218,
      "##i": 219,
      "##у": 220,
      "##б": 221,
      "##т": 222,
      "##л": 223,
      "##х": 224,
      "##г": 225,
      "##ш": 226,
      "##a": 227,
      "##u": 228,
      "##l": 229,
      "##о": 230,
      "##й": 231,
      "##ѳ": 232,
      "##m": 233,
      "##r": 234,
      "##k": 235,
      "##s": 236,
      "##e": 237,
      "##t": 238,
      "##p": 239,
      "##n": 240,
      "##b": 241,
      "##c": 242,
      "##ё": 243,
      "##o": 244,
      "##z": 245,
      "##6": 246,
      "##5": 247,
      "##0": 248,
      "##y": 249,
      "##1": 250,
      "##з": 251,
      "##ф": 252,
      "##9": 253,
      "##ц": 254,
      "##я": 255,
      "##h": 256,
      "##d": 257,
      "##x": 258,
      "##2": 259,
      "##f": 260,
      "##7": 261,
      "##4": 262,
      "##g": 263,
      "##3": 264,
      "##ӊ": 265,
      "##ь": 266,
      "##ъ": 267,
      "##v": 268,
      "##w": 269,
      "##j": 270,
      "##8": 271,
      "##ң": 272,
      "##і": 273,
      "##ɵ": 274,
      "##q": 275,
      "##ü": 276,
      "##.": 277,
      "##ғ": 278,
      "##қ": 279,
      "##é": 280,
      "##щ": 281,
      "##ə": 282,
      "##ҳ": 283,
      "##,": 284,
      "##̇": 285,
      "##ن": 286,
      "##ك": 287,
      "##ا": 288,
      "##ح": 289,
      "##ū": 290,
      "##ә": 291,
      "##ı": 292,
      "##љ": 293,
      "##ş": 294,
      "##©": 295,
      "##)": 296,
      "##ä": 297,
      "##ö": 298,
      "##ç": 299,
      "##ñ": 300,
      "##â": 301,
      "##á": 302,
      "##*": 303,
      "##ط": 304,
      "##ل": 305,
      "##ق": 306,
      "##:": 307,
      "##\"": 308,
      "##ā": 309,
      "##ã": 310,
      "##ß": 311,
      "##í": 312,
      "##ћ": 313,
      "##ą": 314,
      "##族": 315,
      "##-": 316,
      "##ع": 317,
      "##ص": 318,
      "##ي": 319,
      "##ï": 320,
      "##/": 321,
      "##م": 322,
      "##د": 323,
      "##!": 324,
      "##;": 325,
      "##$": 326,
      "##ұ": 327,
      "##ه": 328,
      "##ر": 329,
      "##ҷ": 330,
      "##ʼ": 331,
      "##韓": 332,
      "##ğ": 333,
      "##昆": 334,
      "##]": 335,
      "##ђ": 336,
      "##ƣ": 337,
      "##ў": 338,
      "##ан": 339,
      "##ар": 340,
      "##ен": 341,
      "##ын": 342,
      "##ер": 343,
      "##да": 344,
      "##ат": 345,
      "ал": 346,
      "##ин": 347,
      "ар": 348,
      "##ал": 349,
      "##уу": 350,
      "##ыл": 351,
      "ай": 352,
      "##ай": 353,
      "ко": 354,
      "##ык": 355,
      "ке": 356,
      "##ир": 357,
      "##ек": 358,
      "ын": 359,
      "ган": 360,
      "##үн": 361,
      "да": 362,
      "##ур": 363,
      "##ак": 364,
      "##ол": 365,
      "##ун": 366,
      "##гы": 367,
      "де": 368,
      "ан": 369,
      "##ыр": 370,
      "ат": 371,
      "ка": 372,
      "##ле": 373,
      "##ик": 374,
      "##ул": 375,
      "##аш": 376,
      "##өр": 377,
      "##ия": 378,
      "##он": 379,
      "мен": 380,
      "##ор": 381,
      "##ил": 382,
      "##ди": 383,
      "##ам": 384,
      "бир": 385,
      "##ды": 386,
      "##өн": 387,
      "тар": 388,
      "иш": 389,
      "ин": 390,
      "га": 391,
      "##кт": 392,
      "##ана": 393,
      "##ма": 394,
      "менен": 395,
      "##лг": 396,
      "та": 397,
      "##ра": 398,
      "##ып": 399,
      "##ыз": 400,
      "##ст": 401,
      "##ган": 402,
      "жана": 403,
      "ор": 404,
      "дын": 405,
      "бол": 406,
      "кар": 407,
      "кан": 408,
      "##га": 409,
      "уу": 410,
      "##үү": 411,
      "##де": 412,
      "лар": 413,
      "нын": 414,
      "##ка": 415,
      "кө": 416,
      "##ук": 417,
      "##ыш": 418,
      "ия": 419,
      "##ок": 420,
      "##ет": 421,
      "баш": 422,
      "ак": 423,
      "ун": 424,
      "жат": 425,
      "##ча": 426,
      "##ли": 427,
      "ер": 428,
      "тү": 429,
      "бер": 430,
      "##из": 431,
      "жа": 432,
      "##та": 433,
      "ки": 434,
      "ас": 435,
      "ма": 436,
      "бул": 437,
      "##ус": 438,
      "туу": 439,
      "ды": 440,
      "аз": 441,
      "аб": 442,
      "##лд": 443,
      "кет": 444,
      "айт": 445,
      "ып": 446,
      "##ген": 447,
      "өт": 448,
      "тур": 449,
      "жыл": 450,
      "на": 451,
      "##те": 452,
      "өл": 453,
      "өз": 454,
      "##ас": 455,
      "ул": 456,
      "##уш": 457,
      "ук": 458,
      "эк": 459,
      "деп": 460,
      "те": 461,
      "пр": 462,
      "##оо": 463,
      "үү": 464,
      "нда": 465,
      "чы": 466,
      "ст": 467,
      "##дө": 468,
      "кал": 469,
      "дар": 470,
      "эм": 471,
      "кы": 472,
      "##юн": 473,
      "##мат": 474,
      "кыр": 475,
      "гы": 476,
      "ында": 477,
      "##йин": 478,
      "аш": 479,
      "лык": 480,
      "үн": 481,
      "ыл": 482,
      "со": 483,
      "сы": 484,
      "##ев": 485,
      "че": 486,
      "##уп": 487,
      "ден": 488,
      "##стан": 489,
      "##ап": 490,
      "##үр": 491,
      "үч": 492,
      "дин": 493,
      "тер": 494,
      "лер": 495,
      "ый": 496,
      "кат": 497,
      "кыргы": 498,
      "эле": 499,
      "ти": 500,
      "оюн": 501,
      "##ке": 502,
      "##ес": 503,
      "бил": 504,
      "дан": 505,
      "сын": 506,
      "##өт": 507,
      "зстан": 508,
      "##дам": 509,
      "бе": 510,
      "ов": 511,
      "ге": 512,
      "##ты": 513,
      "маал": 514,
      "##ги": 515,
      "##ары": 516,
      "ур": 517,
      "не": 518,
      "бар": 519,
      "ара": 520,
      "оюнча": 521,
      "##ог": 522,
      "ош": 523,
      "олг": 524,
      "ты": 525,
      "ая": 526,
      "ет": 527,
      "##ис": 528,
      "##оп": 529,
      "ба": 530,
      "үр": 531,
      "бай": 532,
      "##то": 533,
      "ына": 534,
      "кыз": 535,
      "##ут": 536,
      "##ов": 537,
      "ок": 538,
      "##зи": 539,
      "пре": 540,
      "тр": 541,
      "олгон": 542,
      "эл": 543,
      "ыш": 544,
      "кү": 545,
      "##им": 546,
      "##кер": 547,
      "кер": 548,
      "##кө": 549,
      "ык": 550,
      "ыр": 551,
      "ен": 552,
      "үчүн": 553,
      "өк": 554,
      "##үл": 555,
      "кор": 556,
      "тал": 557,
      "мам": 558,
      "ир": 559,
      "өлкө": 560,
      "он": 561,
      "бек": 562,
      "##ти": 563,
      "дү": 564,
      "тин": 565,
      "гөн": 566,
      "тик": 567,
      "ап": 568,
      "луу": 569,
      "мин": 570,
      "##ду": 571,
      "кай": 572,
      "кыл": 573,
      "үй": 574,
      "ген": 575,
      "билди": 576,
      "##го": 577,
      "ла": 578,
      "мамле": 579,
      "##чу": 580,
      "көр": 581,
      "##ым": 582,
      "прези": 583,
      "ымат": 584,
      "иште": 585,
      "каб": 586,
      "##ло": 587,
      "ди": 588,
      "сал": 589,
      "анда": 590,
      "адам": 591,
      "ав": 592,
      "туура": 593,
      "стан": 594,
      "лан": 595,
      "##лик": 596,
      "ком": 597,
      "ам": 598,
      "ий": 599,
      "нин": 600,
      "деген": 601,
      "##гү": 602,
      "минис": 603,
      "жол": 604,
      "гө": 605,
      "##шы": 606,
      "##си": 607,
      "##сы": 608,
      "ол": 609,
      "кен": 610,
      "##ум": 611,
      "дө": 612,
      "алд": 613,
      "ми": 614,
      "уш": 615,
      "из": 616,
      "алган": 617,
      "жок": 618,
      "агы": 619,
      "анын": 620,
      "уч": 621,
      "болуп": 622,
      "са": 623,
      "төр": 624,
      "чыг": 625,
      "##гө": 626,
      "оо": 627,
      "жак": 628,
      "рус": 629,
      "ард": 630,
      "русия": 631,
      "уз": 632,
      "нун": 633,
      "##еш": 634,
      "тын": 635,
      "күн": 636,
      "кара": 637,
      "кызма": 638,
      "чейин": 639,
      "өр": 640,
      "##дан": 641,
      "дун": 642,
      "ша": 643,
      "##еп": 644,
      "##анд": 645,
      "##ге": 646,
      "кийин": 647,
      "ли": 648,
      "си": 649,
      "лөр": 650,
      "бирок": 651,
      "эмес": 652,
      "керек": 653,
      "каз": 654,
      "##кы": 655,
      "##зам": 656,
      "ыйзам": 657,
      "дент": 658,
      "жаш": 659,
      "башка": 660,
      "##кан": 661,
      "##арт": 662,
      "бери": 663,
      "нд": 664,
      "алып": 665,
      "ку": 666,
      "##гиз": 667,
      "ич": 668,
      "##бо": 669,
      "дагы": 670,
      "жер": 671,
      "##ла": 672,
      "атт": 673,
      "ары": 674,
      "жаз": 675,
      "эки": 676,
      "ре": 677,
      "жатат": 678,
      "##лги": 679,
      "##үк": 680,
      "ндө": 681,
      "##ара": 682,
      "сө": 683,
      "ой": 684,
      "##үп": 685,
      "##мак": 686,
      "##ба": 687,
      "бу": 688,
      "белги": 689,
      "##ки": 690,
      "им": 691,
      "өтк": 692,
      "тт": 693,
      "көп": 694,
      "сун": 695,
      "үп": 696,
      "кур": 697,
      "го": 698,
      "ыз": 699,
      "ата": 700,
      "##от": 701,
      "биз": 702,
      "унда": 703,
      "мур": 704,
      "шай": 705,
      "ри": 706,
      "нүн": 707,
      "ил": 708,
      "то": 709,
      "түш": 710,
      "үм": 711,
      "жылы": 712,
      "сү": 713,
      "эс": 714,
      "чык": 715,
      "ев": 716,
      "кел": 717,
      "се": 718,
      "учур": 719,
      "өн": 720,
      "акт": 721,
      "же": 722,
      "ог": 723,
      "рда": 724,
      "алды": 725,
      "##чө": 726,
      "сот": 727,
      "об": 728,
      "азыр": 729,
      "кең": 730,
      "##ция": 731,
      "ач": 732,
      "##гыз": 733,
      "ду": 734,
      "тан": 735,
      "ны": 736,
      "##лө": 737,
      "##кек": 738,
      "##раи": 739,
      "украи": 740,
      "дер": 741,
      "инде": 742,
      "##дук": 743,
      "##ши": 744,
      "##ала": 745,
      "катар": 746,
      "көз": 747,
      "өө": 748,
      "ра": 749,
      "##лиг": 750,
      "нт": 751,
      "ланыш": 752,
      "##лге": 753,
      "шайло": 754,
      "##ору": 755,
      "##асы": 756,
      "рди": 757,
      "ым": 758,
      "##чи": 759,
      "ыргыз": 760,
      "чек": 761,
      "жүр": 762,
      "##до": 763,
      "арак": 764,
      "##лык": 765,
      "##ми": 766,
      "өкм": 767,
      "тө": 768,
      "дол": 769,
      "кели": 770,
      "жог": 771,
      "каршы": 772,
      "түз": 773,
      "ишкек": 774,
      "келге": 775,
      "##уг": 776,
      "жаң": 777,
      "чеч": 778,
      "киши": 779,
      "ей": 780,
      "или": 781,
      "өкмөт": 782,
      "күч": 783,
      "ээ": 784,
      "до": 785,
      "сөз": 786,
      "##еле": 787,
      "мил": 788,
      "мурда": 789,
      "ис": 790,
      "оку": 791,
      "чыл": 792,
      "##ме": 793,
      "аселе": 794,
      "##лдо": 795,
      "миң": 796,
      "##ика": 797,
      "бү": 798,
      "жаңы": 799,
      "кир": 800,
      "##ку": 801,
      "андай": 802,
      "жет": 803,
      "кенин": 804,
      "##на": 805,
      "уп": 806,
      "##иш": 807,
      "ую": 808,
      "кеңеш": 809,
      "сыз": 810,
      "бө": 811,
      "##лус": 812,
      "алуу": 813,
      "от": 814,
      "ип": 815,
      "кол": 816,
      "эми": 817,
      "жары": 818,
      "жар": 819,
      "##аны": 820,
      "облус": 821,
      "ни": 822,
      "үл": 823,
      "түр": 824,
      "ист": 825,
      "үш": 826,
      "пай": 827,
      "алар": 828,
      "бо": 829,
      "пут": 830,
      "ошол": 831,
      "орб": 832,
      "чыгар": 833,
      "ну": 834,
      "уул": 835,
      "##бек": 836,
      "##яб": 837,
      "ийлик": 838,
      "ме": 839,
      "##ект": 840,
      "казак": 841,
      "орбор": 842,
      "дөн": 843,
      "ынын": 844,
      "##ко": 845,
      "жөн": 846,
      "##кен": 847,
      "уна": 848,
      "бас": 849,
      "нде": 850,
      "үмк": 851,
      "чак": 852,
      "үмкүн": 853,
      "арт": 854,
      "жогор": 855,
      "колдо": 856,
      "болду": 857,
      "су": 858,
      "жал": 859,
      "лүү": 860,
      "таж": 861,
      "кабыл": 862,
      "уб": 863,
      "рай": 864,
      "ле": 865,
      "тык": 866,
      "улут": 867,
      "оп": 868,
      "##чы": 869,
      "иялык": 870,
      "али": 871,
      "ошон": 872,
      "аранд": 873,
      "##ый": 874,
      "аны": 875,
      "аскер": 876,
      "##ына": 877,
      "##тыр": 878,
      "##сө": 879,
      "талап": 880,
      "##өө": 881,
      "экен": 882,
      "ел": 883,
      "асы": 884,
      "ага": 885,
      "негиз": 886,
      "ардын": 887,
      "корго": 888,
      "ызмат": 889,
      "ги": 890,
      "ад": 891,
      "##би": 892,
      "кабар": 893,
      "буга": 894,
      "келе": 895,
      "бири": 896,
      "аба": 897,
      "араке": 898,
      "канын": 899,
      "уюм": 900,
      "көрсө": 901,
      "##не": 902,
      "лери": 903,
      "жап": 904,
      "кон": 905,
      "ылм": 906,
      "##уну": 907,
      "айып": 908,
      "алын": 909,
      "пан": 910,
      "болот": 911,
      "катыш": 912,
      "гана": 913,
      "ект": 914,
      "ыкт": 915,
      "##чү": 916,
      "окт": 917,
      "чакыр": 918,
      "инин": 919,
      "дүй": 920,
      "дей": 921,
      "тарт": 922,
      "сур": 923,
      "орус": 924,
      "тагы": 925,
      "##сат": 926,
      "чу": 927,
      "##нө": 928,
      "шаары": 929,
      "дүн": 930,
      "дүйнө": 931,
      "##со": 932,
      "##үз": 933,
      "айтыл": 934,
      "улутт": 935,
      "үнд": 936,
      "дик": 937,
      "карма": 938,
      "чыкка": 939,
      "##алы": 940,
      "ооп": 941,
      "жас": 942,
      "райо": 943,
      "жарыя": 944,
      "кою": 945,
      "##бай": 946,
      "ошонд": 947,
      "ви": 948,
      "трлиг": 949,
      "аймак": 950,
      "ууда": 951,
      "евр": 952,
      "айтып": 953,
      "дай": 954,
      "кам": 955,
      "икт": 956,
      "кооп": 957,
      "лор": 958,
      "ция": 959,
      "ыйын": 960,
      "башта": 961,
      "ала": 962,
      "окуя": 963,
      "про": 964,
      "ындай": 965,
      "түү": 966,
      "тарап": 967,
      "айр": 968,
      "##дер": 969,
      "ит": 970,
      "##айы": 971,
      "баев": 972,
      "но": 973,
      "сак": 974,
      "##иру": 975,
      "##дин": 976,
      "мат": 977,
      "##ел": 978,
      "өткөр": 979,
      "ент": 980,
      "ушул": 981,
      "токт": 982,
      "огуш": 983,
      "парт": 984,
      "бей": 985,
      "##ск": 986,
      "деди": 987,
      "оору": 988,
      "айл": 989,
      "ек": 990,
      "ткер": 991,
      "тажик": 992,
      "рген": 993,
      "болсо": 994,
      "##че": 995,
      "##тай": 996,
      "##ине": 997,
      "кый": 998,
      "коопс": 999,
      "мак": 1000,
      "сом": 1001,
      "милли": 1002,
      "ум": 1003,
      "##тар": 1004,
      "##гон": 1005,
      "суу": 1006,
      "айыл": 1007,
      "шаар": 1008,
      "тыш": 1009,
      "токто": 1010,
      "рас": 1011,
      "өткөн": 1012,
      "чо": 1013,
      "##орт": 1014,
      "кытай": 1015,
      "пар": 1016,
      "келиш": 1017,
      "көн": 1018,
      "кетке": 1019,
      "##кар": 1020,
      "алдык": 1021,
      "чысы": 1022,
      "май": 1023,
      "акча": 1024,
      "укт": 1025,
      "ынан": 1026,
      "ларды": 1027,
      "жапар": 1028,
      "чет": 1029,
      "жолу": 1030,
      "йт": 1031,
      "##маг": 1032,
      "##ци": 1033,
      "кайра": 1034,
      "##ыг": 1035,
      "көб": 1036,
      "ик": 1037,
      "жылд": 1038,
      "ине": 1039,
      "гон": 1040,
      "жылды": 1041,
      "чечим": 1042,
      "корон": 1043,
      "гр": 1044,
      "нер": 1045,
      "жакын": 1046,
      "чыгы": 1047,
      "долбо": 1048,
      "кайр": 1049,
      "путат": 1050,
      "бөл": 1051,
      "ылд": 1052,
      "авиру": 1053,
      "өрү": 1054,
      "##аг": 1055,
      "аары": 1056,
      "ардык": 1057,
      "кайры": 1058,
      "лган": 1059,
      "топ": 1060,
      "##екч": 1061,
      "ууга": 1062,
      "ардам": 1063,
      "##унд": 1064,
      "унун": 1065,
      "етекч": 1066,
      "адамд": 1067,
      "##үм": 1068,
      "му": 1069,
      "эр": 1070,
      "дем": 1071,
      "инчи": 1072,
      "пания": 1073,
      "##ынд": 1074,
      "лары": 1075,
      "лоо": 1076,
      "##лер": 1077,
      "ант": 1078,
      "олд": 1079,
      "лук": 1080,
      "өм": 1081,
      "##пы": 1082,
      "арк": 1083,
      "өзбек": 1084,
      "##аб": 1085,
      "дык": 1086,
      "эч": 1087,
      "айрым": 1088,
      "ян": 1089,
      "ту": 1090,
      "сиз": 1091,
      "жалпы": 1092,
      "аг": 1093,
      "сунуш": 1094,
      "азат": 1095,
      "абыз": 1096,
      "арды": 1097,
      "##лөр": 1098,
      "мент": 1099,
      "ышат": 1100,
      "кт": 1101,
      "тары": 1102,
      "укук": 1103,
      "дон": 1104,
      "алдар": 1105,
      "##үш": 1106,
      "ылайы": 1107,
      "азатт": 1108,
      "##гил": 1109,
      "ут": 1110,
      "андан": 1111,
      "ро": 1112,
      "##сий": 1113,
      "аясий": 1114,
      "экс": 1115,
      "##ем": 1116,
      "беков": 1117,
      "мика": 1118,
      "анык": 1119,
      "сына": 1120,
      "түн": 1121,
      "##ян": 1122,
      "таш": 1123,
      "ндагы": 1124,
      "оң": 1125,
      "##ри": 1126,
      "##ив": 1127,
      "ом": 1128,
      "чара": 1129,
      "тарды": 1130,
      "расми": 1131,
      "еке": 1132,
      "лист": 1133,
      "##лган": 1134,
      "лүк": 1135,
      "ким": 1136,
      "рес": 1137,
      "орто": 1138,
      "би": 1139,
      "##ип": 1140,
      "арасы": 1141,
      "албай": 1142,
      "сынын": 1143,
      "уздук": 1144,
      "берил": 1145,
      "арм": 1146,
      "айтты": 1147,
      "өзү": 1148,
      "жакшы": 1149,
      "##гөр": 1150,
      "иктүү": 1151,
      "ылмыш": 1152,
      "##ше": 1153,
      "денти": 1154,
      "элек": 1155,
      "ганда": 1156,
      "мо": 1157,
      "улам": 1158,
      "тил": 1159,
      "тун": 1160,
      "парла": 1161,
      "##анк": 1162,
      "##дыр": 1163,
      "дүү": 1164,
      "аң": 1165,
      "авто": 1166,
      "три": 1167,
      "соң": 1168,
      "үргү": 1169,
      "жум": 1170,
      "өзгөр": 1171,
      "еб": 1172,
      "чил": 1173,
      "чоң": 1174,
      "чыгып": 1175,
      "аныкт": 1176,
      "акыр": 1177,
      "үйлө": 1178,
      "##рд": 1179,
      "тап": 1180,
      "үргүз": 1181,
      "аты": 1182,
      "нө": 1183,
      "эң": 1184,
      "ышы": 1185,
      "ерүү": 1186,
      "##ети": 1187,
      "үрк": 1188,
      "жөнү": 1189,
      "каза": 1190,
      "тыр": 1191,
      "мү": 1192,
      "чүл": 1193,
      "издин": 1194,
      "айы": 1195,
      "##оно": 1196,
      "нү": 1197,
      "кош": 1198,
      "башкы": 1199,
      "##за": 1200,
      "сай": 1201,
      "##ери": 1202,
      "нуу": 1203,
      "эконо": 1204,
      "лады": 1205,
      "дор": 1206,
      "оз": 1207,
      "араж": 1208,
      "чү": 1209,
      "оом": 1210,
      "дек": 1211,
      "келет": 1212,
      "үрө": 1213,
      "тоо": 1214,
      "үйлөш": 1215,
      "##өй": 1216,
      "ез": 1217,
      "октяб": 1218,
      "өмүр": 1219,
      "быз": 1220,
      "##пи": 1221,
      "##үнө": 1222,
      "долл": 1223,
      "##гу": 1224,
      "кана": 1225,
      "жур": 1226,
      "ина": 1227,
      "##гүн": 1228,
      "##се": 1229,
      "##лген": 1230,
      "рк": 1231,
      "журна": 1232,
      "илд": 1233,
      "##угу": 1234,
      "акш": 1235,
      "илик": 1236,
      "күнү": 1237,
      "##су": 1238,
      "тор": 1239,
      "эсеп": 1240,
      "ашт": 1241,
      "##дар": 1242,
      "чылык": 1243,
      "ру": 1244,
      "##ент": 1245,
      "кез": 1246,
      "аркыл": 1247,
      "мун": 1248,
      "дая": 1249,
      "##кү": 1250,
      "##но": 1251,
      "##тур": 1252,
      "по": 1253,
      "азия": 1254,
      "##сия": 1255,
      "аж": 1256,
      "ганын": 1257,
      "порт": 1258,
      "иши": 1259,
      "тит": 1260,
      "ындан": 1261,
      "##тап": 1262,
      "##скв": 1263,
      "##00": 1264,
      "теги": 1265,
      "##өм": 1266,
      "айыпт": 1267,
      "үүгө": 1268,
      "ча": 1269,
      "турат": 1270,
      "пайда": 1271,
      "мл": 1272,
      "калды": 1273,
      "өтөр": 1274,
      "оор": 1275,
      "дөр": 1276,
      "нан": 1277,
      "ыс": 1278,
      "##ей": 1279,
      "келип": 1280,
      "тен": 1281,
      "уучу": 1282,
      "орун": 1283,
      "мө": 1284,
      "нече": 1285,
      "иси": 1286,
      "алиев": 1287,
      "рт": 1288,
      "дук": 1289,
      "үнө": 1290,
      "##тү": 1291,
      "эмне": 1292,
      "атал": 1293,
      "рдаал": 1294,
      "чул": 1295,
      "аймаг": 1296,
      "бала": 1297,
      "ыг": 1298,
      "лаган": 1299,
      "таб": 1300,
      "үүдө": 1301,
      "ички": 1302,
      "абал": 1303,
      "өтө": 1304,
      "ийлиг": 1305,
      "садыр": 1306,
      "за": 1307,
      "отур": 1308,
      "шарт": 1309,
      "иссия": 1310,
      "пик": 1311,
      "рүү": 1312,
      "ыгы": 1313,
      "бак": 1314,
      "деле": 1315,
      "мүчө": 1316,
      "екеме": 1317,
      "бүгүн": 1318,
      "ркин": 1319,
      "аткар": 1320,
      "нган": 1321,
      "##еше": 1322,
      "берип": 1323,
      "кылып": 1324,
      "бый": 1325,
      "быйыл": 1326,
      "жерде": 1327,
      "иштеп": 1328,
      "аган": 1329,
      "йын": 1330,
      "өнү": 1331,
      "жи": 1332,
      "##дү": 1333,
      "тери": 1334,
      "элд": 1335,
      "ергил": 1336,
      "аштал": 1337,
      "ния": 1338,
      "##рел": 1339,
      "апрел": 1340,
      "соци": 1341,
      "март": 1342,
      "саны": 1343,
      "еп": 1344,
      "орган": 1345,
      "пикир": 1346,
      "абуу": 1347,
      "ыйынт": 1348,
      "ергө": 1349,
      "ергөө": 1350,
      "##еби": 1351,
      "сүр": 1352,
      "аксат": 1353,
      "ами": 1354,
      "дыр": 1355,
      "үрөш": 1356,
      "##ани": 1357,
      "очу": 1358,
      "акы": 1359,
      "илдир": 1360,
      "сат": 1361,
      "сакто": 1362,
      "##бу": 1363,
      "сыя": 1364,
      "тол": 1365,
      "##тор": 1366,
      "кин": 1367,
      "ачык": 1368,
      "##вар": 1369,
      "аясат": 1370,
      "ада": 1371,
      "##гөн": 1372,
      "көзөм": 1373,
      "өөн": 1374,
      "так": 1375,
      "##ушу": 1376,
      "##тер": 1377,
      "аттар": 1378,
      "ади": 1379,
      "ымд": 1380,
      "төраг": 1381,
      "рм": 1382,
      "##гра": 1383,
      "##үгү": 1384,
      "үз": 1385,
      "##ден": 1386,
      "дөгү": 1387,
      "##ро": 1388,
      "##быз": 1389,
      "беш": 1390,
      "шум": 1391,
      "##уун": 1392,
      "##ээ": 1393,
      "үркия": 1394,
      "иликт": 1395,
      "кул": 1396,
      "боло": 1397,
      "жумуш": 1398,
      "илиц": 1399,
      "гү": 1400,
      "##ит": 1401,
      "пол": 1402,
      "меди": 1403,
      "лог": 1404,
      "тук": 1405,
      "пер": 1406,
      "тир": 1407,
      "болчу": 1408,
      "сүрөт": 1409,
      "дары": 1410,
      "конс": 1411,
      "ектеп": 1412,
      "зы": 1413,
      "берди": 1414,
      "##акт": 1415,
      "арма": 1416,
      "ишке": 1417,
      "##пу": 1418,
      "өкүл": 1419,
      "бүл": 1420,
      "жай": 1421,
      "гер": 1422,
      "алы": 1423,
      "тургу": 1424,
      "европ": 1425,
      "мал": 1426,
      "##гин": 1427,
      "инен": 1428,
      "ем": 1429,
      "сүн": 1430,
      "шумча": 1431,
      "карат": 1432,
      "жаб": 1433,
      "ады": 1434,
      "бүлө": 1435,
      "оол": 1436,
      "өс": 1437,
      "##ңг": 1438,
      "##део": 1439,
      "лгон": 1440,
      "салам": 1441,
      "рат": 1442,
      "##мк": 1443,
      "арыз": 1444,
      "арын": 1445,
      "##са": 1446,
      "төрт": 1447,
      "##лика": 1448,
      "январ": 1449,
      "##гус": 1450,
      "блика": 1451,
      "респу": 1452,
      "##жы": 1453,
      "мек": 1454,
      "июн": 1455,
      "аев": 1456,
      "тааны": 1457,
      "ылган": 1458,
      "басма": 1459,
      "##юл": 1460,
      "алыш": 1461,
      "уктан": 1462,
      "авгус": 1463,
      "грам": 1464,
      "өкү": 1465,
      "төлө": 1466,
      "айтым": 1467,
      "там": 1468,
      "ышты": 1469,
      "син": 1470,
      "лект": 1471,
      "тышкы": 1472,
      "сура": 1473,
      "рр": 1474,
      "##упц": 1475,
      "алт": 1476,
      "жолуг": 1477,
      "тек": 1478,
      "ррупц": 1479,
      "гын": 1480,
      "жаран": 1481,
      "##буш": 1482,
      "добуш": 1483,
      "актив": 1484,
      "нояб": 1485,
      "укмк": 1486,
      "тем": 1487,
      "##дай": 1488,
      "ири": 1489,
      "акц": 1490,
      "пл": 1491,
      "эсепт": 1492,
      "жылга": 1493,
      "доо": 1494,
      "сан": 1495,
      "##рат": 1496,
      "суроо": 1497,
      "майда": 1498,
      "маани": 1499,
      "лидер": 1500,
      "аткен": 1501,
      "теле": 1502,
      "өкүлд": 1503,
      "дуу": 1504,
      "сыр": 1505,
      "док": 1506,
      "көбү": 1507,
      "макул": 1508,
      "##ом": 1509,
      "##огу": 1510,
      "озго": 1511,
      "еле": 1512,
      "жу": 1513,
      "жый": 1514,
      "бүт": 1515,
      "докум": 1516,
      "айлан": 1517,
      "каны": 1518,
      "түзүл": 1519,
      "сында": 1520,
      "олушу": 1521,
      "коюл": 1522,
      "ишен": 1523,
      "наара": 1524,
      "омдук": 1525,
      "салуу": 1526,
      "толук": 1527,
      "канча": 1528,
      "жең": 1529,
      "юш": 1530,
      "абд": 1531,
      "баган": 1532,
      "##ене": 1533,
      "чүлүк": 1534,
      "декаб": 1535,
      "түл": 1536,
      "юштур": 1537,
      "амиле": 1538,
      "соту": 1539,
      "лектр": 1540,
      "саат": 1541,
      "бет": 1542,
      "ах": 1543,
      "көбөй": 1544,
      "нанын": 1545,
      "нар": 1546,
      "##мь": 1547,
      "өтүп": 1548,
      "кой": 1549,
      "зар": 1550,
      "көл": 1551,
      "кайта": 1552,
      "анд": 1553,
      "банк": 1554,
      "жетиш": 1555,
      "##шо": 1556,
      "##тип": 1557,
      "ерене": 1558,
      "##илд": 1559,
      "лерди": 1560,
      "ылтыр": 1561,
      "рам": 1562,
      "даярд": 1563,
      "абад": 1564,
      "зүн": 1565,
      "асар": 1566,
      "абуул": 1567,
      "истем": 1568,
      "кий": 1569,
      "##юу": 1570,
      "бр": 1571,
      "армак": 1572,
      "талк": 1573,
      "жарат": 1574,
      "гөчө": 1575,
      "өөнөт": 1576,
      "карал": 1577,
      "ишкан": 1578,
      "ууну": 1579,
      "фи": 1580,
      "путин": 1581,
      "ыбыз": 1582,
      "нур": 1583,
      "тынч": 1584,
      "па": 1585,
      "лик": 1586,
      "тий": 1587,
      "##по": 1588,
      "калык": 1589,
      "олбо": 1590,
      "видео": 1591,
      "дейт": 1592,
      "билим": 1593,
      "ыра": 1594,
      "өнд": 1595,
      "ортос": 1596,
      "атчы": 1597,
      "бере": 1598,
      "жаша": 1599,
      "себ": 1600,
      "тарых": 1601,
      "жазыл": 1602,
      "барып": 1603,
      "иев": 1604,
      "үүчү": 1605,
      "чог": 1606,
      "##дет": 1607,
      "ура": 1608,
      "##гент": 1609,
      "айг": 1610,
      "сент": 1611,
      "кинчи": 1612,
      "камак": 1613,
      "##сү": 1614,
      "июл": 1615,
      "аттал": 1616,
      "сп": 1617,
      "үнкү": 1618,
      "айым": 1619,
      "жек": 1620,
      "агент": 1621,
      "экени": 1622,
      "сентя": 1623,
      "лды": 1624,
      "алдуу": 1625,
      "сыякт": 1626,
      "бы": 1627,
      "муну": 1628,
      "айлар": 1629,
      "карап": 1630,
      "мир": 1631,
      "нерсе": 1632,
      "тарда": 1633,
      "себеп": 1634,
      "жүрүп": 1635,
      "артыл": 1636,
      "кеч": 1637,
      "илген": 1638,
      "иргиз": 1639,
      "нен": 1640,
      "##тет": 1641,
      "ация": 1642,
      "ыкка": 1643,
      "ндар": 1644,
      "лу": 1645,
      "нов": 1646,
      "окуу": 1647,
      "чилик": 1648,
      "аттык": 1649,
      "ылмы": 1650,
      "##оку": 1651,
      "премь": 1652,
      "ана": 1653,
      "##це": 1654,
      "күт": 1655,
      "аас": 1656,
      "##үнү": 1657,
      "тай": 1658,
      "үндүр": 1659,
      "арган": 1660,
      "##жа": 1661,
      "көм": 1662,
      "ндук": 1663,
      "тиги": 1664,
      "укугу": 1665,
      "йгон": 1666,
      "ылдан": 1667,
      "теген": 1668,
      "чыкты": 1669,
      "тов": 1670,
      "ушунд": 1671,
      "ман": 1672,
      "өкүлү": 1673,
      "нерг": 1674,
      "жүз": 1675,
      "уулу": 1676,
      "унаа": 1677,
      "тарат": 1678,
      "мад": 1679,
      "ого": 1680,
      "аки": 1681,
      "ло": 1682,
      "бат": 1683,
      "тиеше": 1684,
      "зарыл": 1685,
      "улан": 1686,
      "ылыш": 1687,
      "ойло": 1688,
      "ашуун": 1689,
      "илдет": 1690,
      "жаса": 1691,
      "ең": 1692,
      "##па": 1693,
      "фор": 1694,
      "шта": 1695,
      "түшүн": 1696,
      "үнүн": 1697,
      "алык": 1698,
      "аат": 1699,
      "болбо": 1700,
      "соңку": 1701,
      "эскер": 1702,
      "аасир": 1703,
      "тта": 1704,
      "##лар": 1705,
      "##ари": 1706,
      "##екс": 1707,
      "тташ": 1708,
      "кайсы": 1709,
      "млн": 1710,
      "жан": 1711,
      "гүл": 1712,
      "ски": 1713,
      "урал": 1714,
      "чылар": 1715,
      "##иц": 1716,
      "алк": 1717,
      "үнү": 1718,
      "текше": 1719,
      "уун": 1720,
      "##нын": 1721,
      "ишкер": 1722,
      "ээн": 1723,
      "кирги": 1724,
      "еш": 1725,
      "##уна": 1726,
      "иб": 1727,
      "сатып": 1728,
      "улуш": 1729,
      "ынча": 1730,
      "үндүз": 1731,
      "жума": 1732,
      "келди": 1733,
      "үшү": 1734,
      "жаза": 1735,
      "сынан": 1736,
      "##гек": 1737,
      "тең": 1738,
      "жеке": 1739,
      "олбой": 1740,
      "арга": 1741,
      "кезде": 1742,
      "грамм": 1743,
      "тиз": 1744,
      "шт": 1745,
      "кызык": 1746,
      "10": 1747,
      "антке": 1748,
      "айгаш": 1749,
      "төрү": 1750,
      "итети": 1751,
      "##дон": 1752,
      "титу": 1753,
      "урм": 1754,
      "соо": 1755,
      "деги": 1756,
      "лд": 1757,
      "ради": 1758,
      "ачыл": 1759,
      "##бө": 1760,
      "бериш": 1761,
      "##уз": 1762,
      "##тан": 1763,
      "отт": 1764,
      "жыйын": 1765,
      "даш": 1766,
      "айылы": 1767,
      "уюму": 1768,
      "перт": 1769,
      "өндүр": 1770,
      "канда": 1771,
      "аяс": 1772,
      "нттар": 1773,
      "алат": 1774,
      "титуц": 1775,
      "леди": 1776,
      "ратур": 1777,
      "жасал": 1778,
      "калк": 1779,
      "барат": 1780,
      "тышк": 1781,
      "зүнүн": 1782,
      "рип": 1783,
      "мд": 1784,
      "ыкты": 1785,
      "инс": 1786,
      "рак": 1787,
      "ияга": 1788,
      "нөн": 1789,
      "уула": 1790,
      "ылуу": 1791,
      "ебеби": 1792,
      "суна": 1793,
      "эг": 1794,
      "##же": 1795,
      "ели": 1796,
      "анан": 1797,
      "шаард": 1798,
      "нды": 1799,
      "оскв": 1800,
      "ес": 1801,
      "осква": 1802,
      "соода": 1803,
      "берет": 1804,
      "кш": 1805,
      "ошо": 1806,
      "аялд": 1807,
      "дир": 1808,
      "ооган": 1809,
      "кшнын": 1810,
      "фр": 1811,
      "эт": 1812,
      "убакт": 1813,
      "леп": 1814,
      "медиц": 1815,
      "ашык": 1816,
      "фон": 1817,
      "атам": 1818,
      "үүлөр": 1819,
      "уба": 1820,
      "сызд": 1821,
      "диги": 1822,
      "##ера": 1823,
      "эне": 1824,
      "##ңүл": 1825,
      "жашоо": 1826,
      "##мин": 1827,
      "уюмд": 1828,
      "деш": 1829,
      "##бы": 1830,
      "кап": 1831,
      "еген": 1832,
      "ания": 1833,
      "ток": 1834,
      "##мө": 1835,
      "мия": 1836,
      "бой": 1837,
      "кач": 1838,
      "зра": 1839,
      "өлүгү": 1840,
      "тыюу": 1841,
      "зраил": 1842,
      "рун": 1843,
      "салын": 1844,
      "сүй": 1845,
      "агдай": 1846,
      "көңүл": 1847,
      "тас": 1848,
      "проку": 1849,
      "багы": 1850,
      "үйү": 1851,
      "аштап": 1852,
      "мет": 1853,
      "##кта": 1854,
      "догу": 1855,
      "жалал": 1856,
      "опера": 1857,
      "тизме": 1858,
      "##ыт": 1859,
      "тынын": 1860,
      "илер": 1861,
      "темир": 1862,
      "брда": 1863,
      "дал": 1864,
      "амери": 1865,
      "июнда": 1866,
      "деңг": 1867,
      "илим": 1868,
      "бөлүм": 1869,
      "##мер": 1870,
      "абак": 1871,
      "деңгэ": 1872,
      "табыл": 1873,
      "тон": 1874,
      "аял": 1875,
      "сырт": 1876,
      "кала": 1877,
      "жөнөт": 1878,
      "имов": 1879,
      "багыт": 1880,
      "жарым": 1881,
      "кетти": 1882,
      "вак": 1883,
      "айда": 1884,
      "ышкан": 1885,
      "чал": 1886,
      "дарды": 1887,
      "##көн": 1888,
      "иц": 1889,
      "рин": 1890,
      "ыйыны": 1891,
      "кама": 1892,
      "үүнү": 1893,
      "түп": 1894,
      "урук": 1895,
      "кайт": 1896,
      "куну": 1897,
      "алкуу": 1898,
      "дөй": 1899,
      "во": 1900,
      "ишин": 1901,
      "алты": 1902,
      "ерин": 1903,
      "ушуу": 1904,
      "изилд": 1905,
      "ларын": 1906,
      "үст": 1907,
      "##ий": 1908,
      "ократ": 1909,
      "котор": 1910,
      "мигра": 1911,
      "чын": 1912,
      "унан": 1913,
      "ула": 1914,
      "дүк": 1915,
      "алда": 1916,
      "төн": 1917,
      "жазды": 1918,
      "алм": 1919,
      "##жо": 1920,
      "ерлер": 1921,
      "ысык": 1922,
      "кетиш": 1923,
      "лай": 1924,
      "аа": 1925,
      "##анс": 1926,
      "сап": 1927,
      "вла": 1928,
      "кунуч": 1929,
      "адис": 1930,
      "актал": 1931,
      "рмалы": 1932,
      "илиги": 1933,
      "сотто": 1934,
      "сок": 1935,
      "кем": 1936,
      "өнүкт": 1937,
      "элдик": 1938,
      "влади": 1939,
      "милде": 1940,
      "ег": 1941,
      "каг": 1942,
      "бүз": 1943,
      "газ": 1944,
      "ою": 1945,
      "нада": 1946,
      "ишмер": 1947,
      "сту": 1948,
      "##бүз": 1949,
      "асып": 1950,
      "өнө": 1951,
      "алмаш": 1952,
      "кыс": 1953,
      "##поз": 1954,
      "чур": 1955,
      "мэ": 1956,
      "ех": 1957,
      "##бер": 1958,
      "болуу": 1959,
      "нага": 1960,
      "полиц": 1961,
      "лы": 1962,
      "ибиз": 1963,
      "нал": 1964,
      "логия": 1965,
      "##инг": 1966,
      "##мөн": 1967,
      "истра": 1968,
      "иран": 1969,
      "тараб": 1970,
      "ууган": 1971,
      "өрт": 1972,
      "##түр": 1973,
      "гач": 1974,
      "түрк": 1975,
      "огору": 1976,
      "армия": 1977,
      "алка": 1978,
      "өлүм": 1979,
      "ирим": 1980,
      "урукс": 1981,
      "үрүү": 1982,
      "азар": 1983,
      "бейт": 1984,
      "эмгек": 1985,
      "##ару": 1986,
      "жо": 1987,
      "ска": 1988,
      "##евр": 1989,
      "февр": 1990,
      "нат": 1991,
      "алкаг": 1992,
      "елару": 1993,
      "жабыр": 1994,
      "ос": 1995,
      "жерге": 1996,
      "ова": 1997,
      "трлер": 1998,
      "co": 1999,
      "лөрү": 2000,
      "нча": 2001,
      "ейт": 2002,
      "москв": 2003,
      "лып": 2004,
      "каев": 2005,
      "суз": 2006,
      "аар": 2007,
      "ков": 2008,
      "админ": 2009,
      "ион": 2010,
      "ака": 2011,
      "##лам": 2012,
      "чүй": 2013,
      "##уучу": 2014,
      "чулар": 2015,
      "шкан": 2016,
      "алдын": 2017,
      "бакыт": 2018,
      "жибер": 2019,
      "уг": 2020,
      "абалы": 2021,
      "мас": 2022,
      "депут": 2023,
      "июлда": 2024,
      "айынд": 2025,
      "абдан": 2026,
      "өлтүр": 2027,
      "өш": 2028,
      "ылды": 2029,
      "бөй": 2030,
      "тарга": 2031,
      "катуу": 2032,
      "пи": 2033,
      "чө": 2034,
      "тый": 2035,
      "улган": 2036,
      "армаг": 2037,
      "апкан": 2038,
      "радио": 2039,
      "асыл": 2040,
      "үлг": 2041,
      "15": 2042,
      "караш": 2043,
      "ль": 2044,
      "ейтап": 2045,
      "умт": 2046,
      "уунун": 2047,
      "иң": 2048,
      "сс": 2049,
      "спорт": 2050,
      "20": 2051,
      "хам": 2052,
      "санал": 2053,
      "лим": 2054,
      "шек": 2055,
      "азык": 2056,
      "кетип": 2057,
      "гөнүн": 2058,
      "тобу": 2059,
      "көч": 2060,
      "нет": 2061,
      "сапар": 2062,
      "гачкы": 2063,
      "ушу": 2064,
      "атамб": 2065,
      "##йгө": 2066,
      "каруу": 2067,
      "зыл": 2068,
      "лап": 2069,
      "зылык": 2070,
      "аль": 2071,
      "элдин": 2072,
      "алыс": 2073,
      "##теп": 2074,
      "ский": 2075,
      "оло": 2076,
      "күй": 2077,
      "таг": 2078,
      "имара": 2079,
      "үлүп": 2080,
      "шев": 2081,
      "алтын": 2082,
      "ама": 2083,
      "матов": 2084,
      "саба": 2085,
      "шект": 2086,
      "чылыг": 2087,
      "ыкча": 2088,
      "бри": 2089,
      "изге": 2090,
      "лерин": 2091,
      "пайыз": 2092,
      "##дж": 2093,
      "исалы": 2094,
      "форма": 2095,
      "жетки": 2096,
      "өг": 2097,
      "гин": 2098,
      "байт": 2099,
      "сине": 2100,
      "өнөкт": 2101,
      "##ни": 2102,
      "сүз": 2103,
      "кеси": 2104,
      "гем": 2105,
      "үнчү": 2106,
      "леген": 2107,
      "ыктар": 2108,
      "илке": 2109,
      "келин": 2110,
      "аман": 2111,
      "тапшы": 2112,
      "мед": 2113,
      "өттү": 2114,
      "елт": 2115,
      "ултан": 2116,
      "ажыр": 2117,
      "##вес": 2118,
      "кээ": 2119,
      "итинг": 2120,
      "сайын": 2121,
      "##дын": 2122,
      "оппоз": 2123,
      "каржы": 2124,
      "сотко": 2125,
      "кыска": 2126,
      "тарын": 2127,
      "елтир": 2128,
      "жети": 2129,
      "езек": 2130,
      "жаг": 2131,
      "азай": 2132,
      "чурда": 2133,
      "курул": 2134,
      "сокку": 2135,
      "ланды": 2136,
      "ттуу": 2137,
      "нып": 2138,
      "ере": 2139,
      "##мо": 2140,
      "елген": 2141,
      "төмөн": 2142,
      "ндеги": 2143,
      "одо": 2144,
      "терди": 2145,
      "##джет": 2146,
      "юджет": 2147,
      "рма": 2148,
      "тыйжа": 2149,
      "##vi": 2150,
      "ив": 2151,
      "учак": 2152,
      "чогул": 2153,
      "йм": 2154,
      "буз": 2155,
      "чект": 2156,
      "пе": 2157,
      "##түк": 2158,
      "үштүк": 2159,
      "басым": 2160,
      "пей": 2161,
      "орду": 2162,
      "млрд": 2163,
      "кеп": 2164,
      "уд": 2165,
      "үк": 2166,
      "риш": 2167,
      "ндор": 2168,
      "аян": 2169,
      "мурун": 2170,
      "актан": 2171,
      "ткери": 2172,
      "батыш": 2173,
      "көрүп": 2174,
      "азуу": 2175,
      "уза": 2176,
      "##еси": 2177,
      "нтари": 2178,
      "четке": 2179,
      "эске": 2180,
      "30": 2181,
      "ск": 2182,
      "тигин": 2183,
      "күндө": 2184,
      "акынд": 2185,
      "башчы": 2186,
      "реж": 2187,
      "нарын": 2188,
      "аштар": 2189,
      "зом": 2190,
      "чулук": 2191,
      "аният": 2192,
      "асылм": 2193,
      "ларда": 2194,
      "сый": 2195,
      "ың": 2196,
      "панде": 2197,
      "рган": 2198,
      "арада": 2199,
      "зомбу": 2200,
      "рып": 2201,
      "мунун": 2202,
      "тут": 2203,
      "туш": 2204,
      "ашыр": 2205,
      "тез": 2206,
      "апта": 2207,
      "эрте": 2208,
      "нг": 2209,
      "сек": 2210,
      "комме": 2211,
      "вир": 2212,
      "гал": 2213,
      "олог": 2214,
      "актап": 2215,
      "ажыра": 2216,
      "ттер": 2217,
      "талаш": 2218,
      "иримд": 2219,
      "ыч": 2220,
      "айына": 2221,
      "көчө": 2222,
      "##инч": 2223,
      "кетүү": 2224,
      "дирек": 2225,
      "мае": 2226,
      "рси": 2227,
      "инвес": 2228,
      "баа": 2229,
      "адыр": 2230,
      "санк": 2231,
      "##рл": 2232,
      "ондо": 2233,
      "ткү": 2234,
      "уулар": 2235,
      "рил": 2236,
      "генин": 2237,
      "митет": 2238,
      "рамп": 2239,
      "санкц": 2240,
      "орт": 2241,
      "дым": 2242,
      "топто": 2243,
      "эгер": 2244,
      "үгү": 2245,
      "тул": 2246,
      "жеңил": 2247,
      "аал": 2248,
      "таза": 2249,
      "киев": 2250,
      "рсите": 2251,
      "##еже": 2252,
      "улант": 2253,
      "скер": 2254,
      "эреже": 2255,
      "инети": 2256,
      "кыйын": 2257,
      "лануу": 2258,
      "штаб": 2259,
      "##ама": 2260,
      "акция": 2261,
      "герма": 2262,
      "келат": 2263,
      "вакц": 2264,
      "их": 2265,
      "обо": 2266,
      "##дөө": 2267,
      "өнүг": 2268,
      "ест": 2269,
      "китеп": 2270,
      "ети": 2271,
      "олдоо": 2272,
      "терге": 2273,
      "үндүк": 2274,
      "кийи": 2275,
      "бал": 2276,
      "ракет": 2277,
      "11": 2278,
      "өң": 2279,
      "кта": 2280,
      "##лы": 2281,
      "нунда": 2282,
      "бирөө": 2283,
      "каала": 2284,
      "турук": 2285,
      "аяг": 2286,
      "еки": 2287,
      "инф": 2288,
      "аши": 2289,
      "товар": 2290,
      "##vid": 2291,
      "анат": 2292,
      "##иве": 2293,
      "өөчү": 2294,
      "иал": 2295,
      "декси": 2296,
      "кулов": 2297,
      "сүйлө": 2298,
      "униве": 2299,
      "ткөн": 2300,
      "баз": 2301,
      "кс": 2302,
      "ишти": 2303,
      "түрдө": 2304,
      "езгил": 2305,
      "тору": 2306,
      "ттан": 2307,
      "игра": 2308,
      "урам": 2309,
      "туп": 2310,
      "арба": 2311,
      "метр": 2312,
      "брита": 2313,
      "12": 2314,
      "трлик": 2315,
      "жазып": 2316,
      "ыктын": 2317,
      "умтөр": 2318,
      "шон": 2319,
      "ыктан": 2320,
      "дат": 2321,
      "ебиз": 2322,
      "антип": 2323,
      "##мы": 2324,
      "түк": 2325,
      "алтыр": 2326,
      "дээ": 2327,
      "анит": 2328,
      "баасы": 2329,
      "ау": 2330,
      "рдук": 2331,
      "сөзд": 2332,
      "##жан": 2333,
      "зыян": 2334,
      "евро": 2335,
      "covid": 2336,
      "пу": 2337,
      "бошо": 2338,
      "базар": 2339,
      "кирип": 2340,
      "ери": 2341,
      "аякта": 2342,
      "лен": 2343,
      "иштей": 2344,
      "стун": 2345,
      "вирус": 2346,
      "дээрл": 2347,
      "болуш": 2348,
      "сынд": 2349,
      "##сыз": 2350,
      "рь": 2351,
      "баала": 2352,
      "бур": 2353,
      "орунд": 2354,
      "екен": 2355,
      "здар": 2356,
      "асыз": 2357,
      "овет": 2358,
      "элч": 2359,
      "катта": 2360,
      "мби": 2361,
      "талас": 2362,
      "армап": 2363,
      "коюш": 2364,
      "шайла": 2365,
      "даяр": 2366,
      "no": 2367,
      "ург": 2368,
      "##гын": 2369,
      "ония": 2370,
      "дам": 2371,
      "күнөө": 2372,
      "көлө": 2373,
      "матер": 2374,
      "што": 2375,
      "куруу": 2376,
      "оолуу": 2377,
      "жам": 2378,
      "туруш": 2379,
      "күчөт": 2380,
      "чем": 2381,
      "станд": 2382,
      "бош": 2383,
      "ырт": 2384,
      "аракч": 2385,
      "беген": 2386,
      "өч": 2387,
      "эсеби": 2388,
      "анал": 2389,
      "зүү": 2390,
      "узду": 2391,
      "титут": 2392,
      "койду": 2393,
      "кесип": 2394,
      "күнд": 2395,
      "сам": 2396,
      "ыраст": 2397,
      "рыл": 2398,
      "гу": 2399,
      "олдо": 2400,
      "улар": 2401,
      "ланып": 2402,
      "алекс": 2403,
      "##ту": 2404,
      "аянт": 2405,
      "пул": 2406,
      "окшо": 2407,
      "лукка": 2408,
      "өмүрү": 2409,
      "турум": 2410,
      "кошул": 2411,
      "инг": 2412,
      "сайты": 2413,
      "жоо": 2414,
      "ырс": 2415,
      "улд": 2416,
      "муз": 2417,
      "ымб": 2418,
      "зор": 2419,
      "ус": 2420,
      "калат": 2421,
      "эли": 2422,
      "ари": 2423,
      "мүнө": 2424,
      "##ста": 2425,
      "телеф": 2426,
      "илди": 2427,
      "##лор": 2428,
      "диний": 2429,
      "узуу": 2430,
      "ырсык": 2431,
      "рос": 2432,
      "кын": 2433,
      "коюп": 2434,
      "лүгү": 2435,
      "тамак": 2436,
      "атра": 2437,
      "айден": 2438,
      "канал": 2439,
      "циясы": 2440,
      "ишени": 2441,
      "гемен": 2442,
      "сунда": 2443,
      "##маз": 2444,
      "нунун": 2445,
      "##нес": 2446,
      "атыл": 2447,
      "нтин": 2448,
      "өзүн": 2449,
      "аза": 2450,
      "уктур": 2451,
      "ңыз": 2452,
      "ирет": 2453,
      "изнес": 2454,
      "лмаз": 2455,
      "кадам": 2456,
      "орно": 2457,
      "үлк": 2458,
      "ашиев": 2459,
      "терин": 2460,
      "урс": 2461,
      "байка": 2462,
      "##анц": 2463,
      "туруп": 2464,
      "айтыш": 2465,
      "оро": 2466,
      "ектөө": 2467,
      "ыгын": 2468,
      "иялар": 2469,
      "курч": 2470,
      "галим": 2471,
      "зел": 2472,
      "рын": 2473,
      "сана": 2474,
      "имди": 2475,
      "келти": 2476,
      "##йр": 2477,
      "изд": 2478,
      "аттуу": 2479,
      "өөк": 2480,
      "дарыг": 2481,
      "бш": 2482,
      "бөлүн": 2483,
      "бетте": 2484,
      "етте": 2485,
      "маш": 2486,
      "мок": 2487,
      "түзүү": 2488,
      "сакта": 2489,
      "сеп": 2490,
      "тали": 2491,
      "кылды": 2492,
      "##сб": 2493,
      "жолдо": 2494,
      "калаа": 2495,
      "зи": 2496,
      "бшк": 2497,
      "шы": 2498,
      "планд": 2499,
      "оттун": 2500,
      "үт": 2501,
      "кли": 2502,
      "бизди": 2503,
      "играц": 2504,
      "лиги": 2505,
      "гында": 2506,
      "убада": 2507,
      "##ва": 2508,
      "баян": 2509,
      "ондон": 2510,
      "урман": 2511,
      "еск": 2512,
      "үстү": 2513,
      "уур": 2514,
      "##on": 2515,
      "көздө": 2516,
      "ндия": 2517,
      "лаш": 2518,
      "сыртк": 2519,
      "мана": 2520,
      "фак": 2521,
      "танд": 2522,
      "факты": 2523,
      "етика": 2524,
      "транс": 2525,
      "мэри": 2526,
      "көлөм": 2527,
      "аан": 2528,
      "күбө": 2529,
      "##пө": 2530,
      "енко": 2531,
      "режим": 2532,
      "астан": 2533,
      "##үг": 2534,
      "таян": 2535,
      "үнүш": 2536,
      "100": 2537,
      "##пар": 2538,
      "үйлөр": 2539,
      "ред": 2540,
      "баса": 2541,
      "куучу": 2542,
      "##жал": 2543,
      "ериш": 2544,
      "бара": 2545,
      "##шө": 2546,
      "##тик": 2547,
      "үйшө": 2548,
      "арай": 2549,
      "бою": 2550,
      "амат": 2551,
      "ван": 2552,
      "айжан": 2553,
      "тасма": 2554,
      "арала": 2555,
      "булак": 2556,
      "тапта": 2557,
      "шар": 2558,
      "уздуг": 2559,
      "узак": 2560,
      "бирге": 2561,
      "ткүч": 2562,
      "чемпи": 2563,
      "аткан": 2564,
      "ымбат": 2565,
      "зат": 2566,
      "зама": 2567,
      "жакта": 2568,
      "өөсү": 2569,
      "чук": 2570,
      "##ья": 2571,
      "үзөт": 2572,
      "нул": 2573,
      "##лет": 2574,
      "амсыз": 2575,
      "ийи": 2576,
      "ылдыр": 2577,
      "аэ": 2578,
      "айко": 2579,
      "таң": 2580,
      "ызыл": 2581,
      "пас": 2582,
      "ира": 2583,
      "##сөт": 2584,
      "иза": 2585,
      "өрсөт": 2586,
      "студе": 2587,
      "зелен": 2588,
      "комп": 2589,
      "егиз": 2590,
      "жокко": 2591,
      "тирүү": 2592,
      "талд": 2593,
      "##түү": 2594,
      "сөзү": 2595,
      "арх": 2596,
      "олдор": 2597,
      "пир": 2598,
      "ору": 2599,
      "улуу": 2600,
      "дөрү": 2601,
      "##доо": 2602,
      "луп": 2603,
      "сир": 2604,
      "калы": 2605,
      "аңжал": 2606,
      "таган": 2607,
      "ачан": 2608,
      "түшүп": 2609,
      "орлор": 2610,
      "жиг": 2611,
      "арна": 2612,
      "атр": 2613,
      "газа": 2614,
      "14": 2615,
      "50": 2616,
      "кызы": 2617,
      "айылд": 2618,
      "##туу": 2619,
      "еңиш": 2620,
      "дип": 2621,
      "иг": 2622,
      "13": 2623,
      "дыгы": 2624,
      "план": 2625,
      "дро": 2626,
      "дипло": 2627,
      "жара": 2628,
      "түрү": 2629,
      "изм": 2630,
      "сия": 2631,
      "етект": 2632,
      "лас": 2633,
      "арг": 2634,
      "өзүнө": 2635,
      "сирия": 2636,
      "##дик": 2637,
      "иим": 2638,
      "еткен": 2639,
      "аппар": 2640,
      "олу": 2641,
      "курор": 2642,
      "чүлүг": 2643,
      "олго": 2644,
      "нууда": 2645,
      "рек": 2646,
      "үбүз": 2647,
      "мб": 2648,
      "шент": 2649,
      "иреше": 2650,
      "ааты": 2651,
      "ылбек": 2652,
      "камчы": 2653,
      "##йру": 2654,
      "доочу": 2655,
      "өнөр": 2656,
      "оок": 2657,
      "имдиг": 2658,
      "штуу": 2659,
      "ылып": 2660,
      "жабыл": 2661,
      "ленге": 2662,
      "сте": 2663,
      "орд": 2664,
      "алаа": 2665,
      "дигин": 2666,
      "тыл": 2667,
      "атаал": 2668,
      "жарал": 2669,
      "медиа": 2670,
      "атыш": 2671,
      "акиев": 2672,
      "ерр": 2673,
      "екит": 2674,
      "##шу": 2675,
      "арыл": 2676,
      "жылда": 2677,
      "экөө": 2678,
      "тив": 2679,
      "лыш": 2680,
      "мык": 2681,
      "ыптыр": 2682,
      "сез": 2683,
      "араат": 2684,
      "евроб": 2685,
      "жогот": 2686,
      "жүзү": 2687,
      "менин": 2688,
      "лей": 2689,
      "ыштыр": 2690,
      "апат": 2691,
      "сар": 2692,
      "##гар": 2693,
      "иштет": 2694,
      "фей": 2695,
      "шты": 2696,
      "түрмө": 2697,
      "оңшу": 2698,
      "фейсб": 2699,
      "рө": 2700,
      "огул": 2701,
      "үнүч": 2702,
      "ысы": 2703,
      "манас": 2704,
      "мын": 2705,
      "сен": 2706,
      "муни": 2707,
      "ейше": 2708,
      "рия": 2709,
      "арыш": 2710,
      "унт": 2711,
      "интер": 2712,
      "тиция": 2713,
      "тыгы": 2714,
      "урмуш": 2715,
      "ашине": 2716,
      "иалд": 2717,
      "нбай": 2718,
      "айлык": 2719,
      "коно": 2720,
      "кароо": 2721,
      "од": 2722,
      "урамы": 2723,
      "##ma": 2724,
      "өп": 2725,
      "өйгө": 2726,
      "ылдык": 2727,
      "баянд": 2728,
      "##ерб": 2729,
      "ндөгү": 2730,
      "едер": 2731,
      "азерб": 2732,
      "синин": 2733,
      "терро": 2734,
      "шо": 2735,
      "лла": 2736,
      "каган": 2737,
      "жайыл": 2738,
      "кес": 2739,
      "ыйгар": 2740,
      "милге": 2741,
      "зия": 2742,
      "риз": 2743,
      "сөө": 2744,
      "тонна": 2745,
      "өйгөй": 2746,
      "тасы": 2747,
      "ве": 2748,
      "ник": 2749,
      "##шыр": 2750,
      "проце": 2751,
      "сомго": 2752,
      "гинде": 2753,
      "мыкты": 2754,
      "25": 2755,
      "колог": 2756,
      "оттук": 2757,
      "абаг": 2758,
      "оци": 2759,
      "чаг": 2760,
      "сурак": 2761,
      "маалы": 2762,
      "аманд": 2763,
      "огуз": 2764,
      "шондо": 2765,
      "чөй": 2766,
      "ерс": 2767,
      "сттик": 2768,
      "апшыр": 2769,
      "тарта": 2770,
      "ңар": 2771,
      "өкүм": 2772,
      "чогуу": 2773,
      "утб": 2774,
      "герде": 2775,
      "анк": 2776,
      "төрө": 2777,
      "ойно": 2778,
      "өөлөр": 2779,
      "бошот": 2780,
      "ино": 2781,
      "жетти": 2782,
      "ардыг": 2783,
      "еди": 2784,
      "зм": 2785,
      "өкт": 2786,
      "##оро": 2787,
      "элде": 2788,
      "демия": 2789,
      "дерди": 2790,
      "гынын": 2791,
      "16": 2792,
      "тех": 2793,
      "жери": 2794,
      "франц": 2795,
      "##чик": 2796,
      "жасап": 2797,
      "коюу": 2798,
      "удья": 2799,
      "ыңг": 2800,
      "бирик": 2801,
      "алиба": 2802,
      "чукул": 2803,
      "ика": 2804,
      "ста": 2805,
      "ыт": 2806,
      "өтөт": 2807,
      "##мит": 2808,
      "пал": 2809,
      "ци": 2810,
      "айма": 2811,
      "жолун": 2812,
      "вице": 2813,
      "вал": 2814,
      "бекем": 2815,
      "ескин": 2816,
      "леш": 2817,
      "смо": 2818,
      "узуп": 2819,
      "зит": 2820,
      "оптор": 2821,
      "ерден": 2822,
      "чыр": 2823,
      "чыгыш": 2824,
      "датта": 2825,
      "оли": 2826,
      "##рө": 2827,
      "##ея": 2828,
      "чөйрө": 2829,
      "ият": 2830,
      "буйру": 2831,
      "сөөгү": 2832,
      "абы": 2833,
      "енин": 2834,
      "жашап": 2835,
      "убан": 2836,
      "алгыз": 2837,
      "айдан": 2838,
      "оомчу": 2839,
      "##есс": 2840,
      "бажы": 2841,
      "кун": 2842,
      "рем": 2843,
      "нстан": 2844,
      "сел": 2845,
      "оюз": 2846,
      "камс": 2847,
      "18": 2848,
      "мени": 2849,
      "ыздоо": 2850,
      "кл": 2851,
      "нция": 2852,
      "ерект": 2853,
      "тере": 2854,
      "рый": 2855,
      "кыркы": 2856,
      "үнөн": 2857,
      "олот": 2858,
      "оюнд": 2859,
      "мөн": 2860,
      "төө": 2861,
      "егия": 2862,
      "пози": 2863,
      "өгөт": 2864,
      "оч": 2865,
      "атка": 2866,
      "гресс": 2867,
      "ркек": 2868,
      "уку": 2869,
      "жакка": 2870,
      "тара": 2871,
      "аммит": 2872,
      "едера": 2873,
      "чыга": 2874,
      "өрүн": 2875,
      "жүк": 2876,
      "сум": 2877,
      "турак": 2878,
      "олку": 2879,
      "лимпи": 2880,
      "##вок": 2881,
      "айта": 2882,
      "төгөн": 2883,
      "рыйба": 2884,
      "гум": 2885,
      "##иг": 2886,
      "тууга": 2887,
      "сегиз": 2888,
      "ароо": 2889,
      "башал": 2890,
      "баруу": 2891,
      "##ого": 2892,
      "иңде": 2893,
      "ийгиз": 2894,
      "лөрдү": 2895,
      "гра": 2896,
      "лет": 2897,
      "тып": 2898,
      "олтур": 2899,
      "эсе": 2900,
      "##чар": 2901,
      "карыз": 2902,
      "ислам": 2903,
      "утбол": 2904,
      "бөлүш": 2905,
      "ъект": 2906,
      "енчик": 2907,
      "корея": 2908,
      "ризис": 2909,
      "эрки": 2910,
      "жанд": 2911,
      "ыкма": 2912,
      "оль": 2913,
      "ткан": 2914,
      "ани": 2915,
      "ения": 2916,
      "ыраа": 2917,
      "аст": 2918,
      "лмат": 2919,
      "асына": 2920,
      "өтпө": 2921,
      "мбиде": 2922,
      "лматы": 2923,
      "олжо": 2924,
      "ный": 2925,
      "ктор": 2926,
      "огулт": 2927,
      "таап": 2928,
      "үнчө": 2929,
      "аттам": 2930,
      "убак": 2931,
      "фонд": 2932,
      "ью": 2933,
      "##му": 2934,
      "үмү": 2935,
      "чыкпа": 2936,
      "начар": 2937,
      "чечүү": 2938,
      "оңдо": 2939,
      "ран": 2940,
      "адвок": 2941,
      "оокер": 2942,
      "лыгы": 2943,
      "ласс": 2944,
      "кил": 2945,
      "нуп": 2946,
      "##дүү": 2947,
      "калыб": 2948,
      "кр": 2949,
      "кете": 2950,
      "ыгыш": 2951,
      "оолу": 2952,
      "##эб": 2953,
      "мага": 2954,
      "үрөт": 2955,
      "оңку": 2956,
      "акты": 2957,
      "еми": 2958,
      "вод": 2959,
      "ажы": 2960,
      "лю": 2961,
      "арам": 2962,
      "ыйм": 2963,
      "##пе": 2964,
      "катто": 2965,
      "ыймыл": 2966,
      "кеми": 2967,
      "узул": 2968,
      "мер": 2969,
      "енс": 2970,
      "чилиг": 2971,
      "алса": 2972,
      "ишине": 2973,
      "атор": 2974,
      "агым": 2975,
      "күнгө": 2976,
      "умш": 2977,
      "17": 2978,
      "убат": 2979,
      "туруу": 2980,
      "гүн": 2981,
      "иж": 2982,
      "орма": 2983,
      "иштүү": 2984,
      "лө": 2985,
      "ыма": 2986,
      "ашыг": 2987,
      "андат": 2988,
      "##үшү": 2989,
      "күр": 2990,
      "мар": 2991,
      "түштү": 2992,
      "иккен": 2993,
      "туул": 2994,
      "ээк": 2995,
      "уулук": 2996,
      "үлгөн": 2997,
      "уккан": 2998,
      "нтер": 2999,
      "згө": 3000,
      "лыг": 3001,
      "унай": 3002,
      "##иза": 3003,
      "укта": 3004,
      "мей": 3005,
      "пара": 3006,
      "алга": 3007,
      "салык": 3008,
      "кириш": 3009,
      "көнүн": 3010,
      "нуш": 3011,
      "түй": 3012,
      "баева": 3013,
      "##тт": 3014,
      "далил": 3015,
      "ion": 3016,
      "пс": 3017,
      "стат": 3018,
      "күчт": 3019,
      "атып": 3020,
      "руз": 3021,
      "рл": 3022,
      "рдо": 3023,
      "арык": 3024,
      "ca": 3025,
      "тте": 3026,
      "адан": 3027,
      "илери": 3028,
      "шунд": 3029,
      "ңиз": 3030,
      "октом": 3031,
      "арлык": 3032,
      "ынга": 3033,
      "уусу": 3034,
      "жаны": 3035,
      "пор": 3036,
      "ганы": 3037,
      "раак": 3038,
      "техни": 3039,
      "үлд": 3040,
      "дыгын": 3041,
      "алым": 3042,
      "таан": 3043,
      "они": 3044,
      "чечил": 3045,
      "анча": 3046,
      "чынд": 3047,
      "арат": 3048,
      "ыны": 3049,
      "ларга": 3050,
      "одон": 3051,
      "рол": 3052,
      "анция": 3053,
      "инче": 3054,
      "сооро": 3055,
      "инте": 3056,
      "лду": 3057,
      "ууг": 3058,
      "еме": 3059,
      "ланга": 3060,
      "рүүдө": 3061,
      "мол": 3062,
      "тат": 3063,
      "түлү": 3064,
      "араш": 3065,
      "ашкан": 3066,
      "октот": 3067,
      "гран": 3068,
      "ехно": 3069,
      "40": 3070,
      "тация": 3071,
      "убай": 3072,
      "үркмө": 3073,
      "атуу": 3074,
      "ышына": 3075,
      "рей": 3076,
      "скар": 3077,
      "дөө": 3078,
      "фонду": 3079,
      "оско": 3080,
      "орг": 3081,
      "нттер": 3082,
      "фер": 3083,
      "жүрүш": 3084,
      "андаш": 3085,
      "жуг": 3086,
      "үрүшү": 3087,
      "ндон": 3088,
      "еңиз": 3089,
      "как": 3090,
      "экинч": 3091,
      "тыкта": 3092,
      "утка": 3093,
      "мы": 3094,
      "арку": 3095,
      "ыздар": 3096,
      "сепет": 3097,
      "иде": 3098,
      "андыр": 3099,
      "улма": 3100,
      "акын": 3101,
      "ийги": 3102,
      "үтү": 3103,
      "##бей": 3104,
      "атты": 3105,
      "гыл": 3106,
      "згөчө": 3107,
      "убуз": 3108,
      "лгөн": 3109,
      "нф": 3110,
      "сүндө": 3111,
      "күчө": 3112,
      "илими": 3113,
      "район": 3114,
      "скерт": 3115,
      "штар": 3116,
      "изде": 3117,
      "улду": 3118,
      "ши": 3119,
      "олугу": 3120,
      "оочу": 3121,
      "аласы": 3122,
      "иян": 3123,
      "оога": 3124,
      "сези": 3125,
      "ожо": 3126,
      "шуу": 3127,
      "позиц": 3128,
      "ника": 3129,
      "дөгөн": 3130,
      "еги": 3131,
      "кмат": 3132,
      "аттоо": 3133,
      "екция": 3134,
      "кула": 3135,
      "аап": 3136,
      "зо": 3137,
      "ноо": 3138,
      "арлам": 3139,
      "кация": 3140,
      "яр": 3141,
      "акан": 3142,
      "артип": 3143,
      "нато": 3144,
      "ализ": 3145,
      "ерт": 3146,
      "диа": 3147,
      "чыгуу": 3148,
      "асын": 3149,
      "ави": 3150,
      "агытт": 3151,
      "ед": 3152,
      "раф": 3153,
      "ектеш": 3154,
      "анов": 3155,
      "кени": 3156,
      "утуу": 3157,
      "нго": 3158,
      "каш": 3159,
      "аша": 3160,
      "тос": 3161,
      "айга": 3162,
      "салды": 3163,
      "өбүз": 3164,
      "зал": 3165,
      "лам": 3166,
      "##иси": 3167,
      "илип": 3168,
      "үүсү": 3169,
      "нден": 3170,
      "жатыш": 3171,
      "онат": 3172,
      "ктуу": 3173,
      "км": 3174,
      "айыр": 3175,
      "өлүп": 3176,
      "гөнү": 3177,
      "теш": 3178,
      "күл": 3179,
      "аттан": 3180,
      "ерге": 3181,
      "алабы": 3182,
      "иби": 3183,
      "пт": 3184,
      "хан": 3185,
      "абду": 3186,
      "укукт": 3187,
      "пасы": 3188,
      "урул": 3189,
      "ене": 3190,
      "еев": 3191,
      "иден": 3192,
      "үкт": 3193,
      "акала": 3194,
      "елип": 3195,
      "сың": 3196,
      "рманд": 3197,
      "ткен": 3198,
      "нц": 3199,
      "кага": 3200,
      "келүү": 3201,
      "артуу": 3202,
      "екше": 3203,
      "тти": 3204,
      "оого": 3205,
      "асым": 3206,
      "боо": 3207,
      "вок": 3208,
      "фил": 3209,
      "лт": 3210,
      "##at": 3211,
      "терде": 3212,
      "урна": 3213,
      "талга": 3214,
      "апты": 3215,
      "жарак": 3216,
      "##ge": 3217,
      "дашуу": 3218,
      "бизде": 3219,
      "ооз": 3220,
      "аалым": 3221,
      "рыг": 3222,
      "шат": 3223,
      "ашты": 3224,
      "бия": 3225,
      "десе": 3226,
      "тийиш": 3227,
      "але": 3228,
      "арыя": 3229,
      "реги": 3230,
      "өтүү": 3231,
      "окту": 3232,
      "бес": 3233,
      "сүнө": 3234,
      "умуш": 3235,
      "луна": 3236,
      "тала": 3237,
      "исти": 3238,
      "мне": 3239,
      "ачуу": 3240,
      "ыды": 3241,
      "арына": 3242,
      "дап": 3243,
      "лат": 3244,
      "ото": 3245,
      "ерв": 3246,
      "оргоо": 3247,
      "##пай": 3248,
      "сттер": 3249,
      "ести": 3250,
      "гек": 3251,
      "мдөө": 3252,
      "карт": 3253,
      "ута": 3254,
      "ортто": 3255,
      "лөө": 3256,
      "ткар": 3257,
      "тей": 3258,
      "лын": 3259,
      "арбы": 3260,
      "аку": 3261,
      "дарын": 3262,
      "дукт": 3263,
      "мон": 3264,
      "ттар": 3265,
      "йлөр": 3266,
      "атар": 3267,
      "ферен": 3268,
      "сла": 3269,
      "ашыл": 3270,
      "үйө": 3271,
      "руг": 3272,
      "ыка": 3273,
      "күчү": 3274,
      "апа": 3275,
      "рга": 3276,
      "айтуу": 3277,
      "мака": 3278,
      "грант": 3279,
      "страт": 3280,
      "вокат": 3281,
      "рыгер": 3282,
      "зан": 3283,
      "оптуу": 3284,
      "азасы": 3285,
      "жөнө": 3286,
      "ттери": 3287,
      "илет": 3288,
      "көй": 3289,
      "корку": 3290,
      "ендер": 3291,
      "сим": 3292,
      "оолор": 3293,
      "рлер": 3294,
      "айын": 3295,
      "ылдар": 3296,
      "дум": 3297,
      "уран": 3298,
      "дис": 3299,
      "удай": 3300,
      "руу": 3301,
      "йыл": 3302,
      "ож": 3303,
      "кас": 3304,
      "амб": 3305,
      "атыр": 3306,
      "ыйы": 3307,
      "жашыр": 3308,
      "ичи": 3309,
      "ркинд": 3310,
      "чыны": 3311,
      "еч": 3312,
      "нба": 3313,
      "арта": 3314,
      "арты": 3315,
      "ац": 3316,
      "раб": 3317,
      "агына": 3318,
      "мекен": 3319,
      "гыла": 3320,
      "сул": 3321,
      "хамас": 3322,
      "##ну": 3323,
      "хн": 3324,
      "кирүү": 3325,
      "рс": 3326,
      "19": 3327,
      "аф": 3328,
      "өлг": 3329,
      "алиб": 3330,
      "хника": 3331,
      "еврал": 3332,
      "фе": 3333,
      "келеч": 3334,
      "өнгө": 3335,
      "##ra": 3336,
      "ичине": 3337,
      "рий": 3338,
      "ыбек": 3339,
      "рег": 3340,
      "абык": 3341,
      "ону": 3342,
      "еа": 3343,
      "екени": 3344,
      "егизи": 3345,
      "спи": 3346,
      "кети": 3347,
      "жин": 3348,
      "##хан": 3349,
      "окум": 3350,
      "артыш": 3351,
      "алышы": 3352,
      "##лү": 3353,
      "аров": 3354,
      "арым": 3355,
      "урт": 3356,
      "ныш": 3357,
      "улат": 3358,
      "андуу": 3359,
      "ынган": 3360,
      "улаг": 3361,
      "тип": 3362,
      "лөрдө": 3363,
      "лин": 3364,
      "атат": 3365,
      "мел": 3366,
      "чеги": 3367,
      "ондук": 3368,
      "таанд": 3369,
      "анган": 3370,
      "шу": 3371,
      "##бе": 3372,
      "аткы": 3373,
      "анып": 3374,
      "көргө": 3375,
      "демил": 3376,
      "ория": 3377,
      "маз": 3378,
      "ашк": 3379,
      "олдук": 3380,
      "бл": 3381,
      "апар": 3382,
      "ля": 3383,
      "төрүн": 3384,
      "факт": 3385,
      "көйгө": 3386,
      "юму": 3387,
      "гыс": 3388,
      "ырма": 3389,
      "екке": 3390,
      "армоо": 3391,
      "ртуу": 3392,
      "60": 3393,
      "ima": 3394,
      "##стр": 3395,
      "тег": 3396,
      "адани": 3397,
      "коро": 3398,
      "гул": 3399,
      "юри": 3400,
      "курам": 3401,
      "тоочу": 3402,
      "image": 3403,
      "мыл": 3404,
      "уудан": 3405,
      "арака": 3406,
      "дүүлү": 3407,
      "уруу": 3408,
      "лаг": 3409,
      "рист": 3410,
      "виру": 3411,
      "элди": 3412,
      "лиц": 3413,
      "мыр": 3414,
      "тады": 3415,
      "улуп": 3416,
      "ирд": 3417,
      "ыд": 3418,
      "виза": 3419,
      "аяк": 3420,
      "ымды": 3421,
      "үлдү": 3422,
      "ne": 3423,
      "иринч": 3424,
      "көрө": 3425,
      "көзү": 3426,
      "эпи": 3427,
      "ария": 3428,
      "атасы": 3429,
      "тури": 3430,
      "көрдү": 3431,
      "малуу": 3432,
      "мэр": 3433,
      "ияны": 3434,
      "луг": 3435,
      "ивдүү": 3436,
      "ынып": 3437,
      "ануу": 3438,
      "дим": 3439,
      "стук": 3440,
      "үтүн": 3441,
      "гун": 3442,
      "шү": 3443,
      "издөө": 3444,
      "төгү": 3445,
      "олдон": 3446,
      "лле": 3447,
      "уң": 3448,
      "ңкы": 3449,
      "лукта": 3450,
      "тайын": 3451,
      "ктар": 3452,
      "ресс": 3453,
      "синде": 3454,
      "ера": 3455,
      "кук": 3456,
      "нск": 3457,
      "ют": 3458,
      "22": 3459,
      "24": 3460,
      "эси": 3461,
      "той": 3462,
      "тогу": 3463,
      "егер": 3464,
      "кад": 3465,
      "көрүн": 3466,
      "оңо": 3467,
      "атта": 3468,
      "шкер": 3469,
      "геси": 3470,
      "нстр": 3471,
      "алам": 3472,
      "абия": 3473,
      "лтын": 3474,
      "200": 3475,
      "демо": 3476,
      "нек": 3477,
      "корк": 3478,
      "дос": 3479,
      "ешет": 3480,
      "рды": 3481,
      "улу": 3482,
      "кч": 3483,
      "эксп": 3484,
      "лекс": 3485,
      "үң": 3486,
      "онал": 3487,
      "нип": 3488,
      "нүп": 3489,
      "##ман": 3490,
      "шам": 3491,
      "аралы": 3492,
      "пө": 3493,
      "үмд": 3494,
      "улак": 3495,
      "лорду": 3496,
      "ва": 3497,
      "мба": 3498,
      "ыгым": 3499,
      "буу": 3500,
      "тууну": 3501,
      "гыр": 3502,
      "өбө": 3503,
      "олду": 3504,
      "еррор": 3505,
      "80": 3506,
      "араба": 3507,
      "баг": 3508,
      "такта": 3509,
      "кынд": 3510,
      "##en": 3511,
      "ерал": 3512,
      "ылкы": 3513,
      "өктү": 3514,
      "көө": 3515,
      "еске": 3516,
      "мине": 3517,
      "сиң": 3518,
      "чилер": 3519,
      "ио": 3520,
      "деми": 3521,
      "тург": 3522,
      "жого": 3523,
      "бызды": 3524,
      "мылы": 3525,
      "айге": 3526,
      "вер": 3527,
      "лег": 3528,
      "юн": 3529,
      "атын": 3530,
      "ерн": 3531,
      "колун": 3532,
      "алгач": 3533,
      "ңг": 3534,
      "ришти": 3535,
      "руучу": 3536,
      "тема": 3537,
      "илин": 3538,
      "##er": 3539,
      "өтүн": 3540,
      "дыры": 3541,
      "өлгөн": 3542,
      "шып": 3543,
      "##pt": 3544,
      "үндө": 3545,
      "гэ": 3546,
      "айра": 3547,
      "дыкка": 3548,
      "бра": 3549,
      "##суз": 3550,
      "пүр": 3551,
      "караб": 3552,
      "арыг": 3553,
      "колу": 3554,
      "опсуз": 3555,
      "шан": 3556,
      "кире": 3557,
      "нансы": 3558,
      "уну": 3559,
      "ттен": 3560,
      "21": 3561,
      "рым": 3562,
      "сып": 3563,
      "тинин": 3564,
      "тори": 3565,
      "хе": 3566,
      "рис": 3567,
      "рика": 3568,
      "терг": 3569,
      "етк": 3570,
      "аск": 3571,
      "алары": 3572,
      "дүгү": 3573,
      "өчүр": 3574,
      "шка": 3575,
      "өрө": 3576,
      "маши": 3577,
      "дил": 3578,
      "елг": 3579,
      "сма": 3580,
      "ишет": 3581,
      "70": 3582,
      "нууга": 3583,
      "ирге": 3584,
      "пон": 3585,
      "ттү": 3586,
      "ташта": 3587,
      "елег": 3588,
      "фин": 3589,
      "акыт": 3590,
      "лышы": 3591,
      "еткир": 3592,
      "рев": 3593,
      "кило": 3594,
      "лү": 3595,
      "##ви": 3596,
      "тыкты": 3597,
      "асма": 3598,
      "нь": 3599,
      "чен": 3600,
      "артка": 3601,
      "##es": 3602,
      "анг": 3603,
      "capt": 3604,
      "был": 3605,
      "##ср": 3606,
      "кыла": 3607,
      "алба": 3608,
      "елек": 3609,
      "##бү": 3610,
      "жүрө": 3611,
      "чөл": 3612,
      "гэс": 3613,
      "бан": 3614,
      "сым": 3615,
      "ыйка": 3616,
      "ачып": 3617,
      "ысым": 3618,
      "рында": 3619,
      "йбыз": 3620,
      "пост": 3621,
      "штыр": 3622,
      "шуна": 3623,
      "бирин": 3624,
      "аштыр": 3625,
      "имп": 3626,
      "дус": 3627,
      "нка": 3628,
      "ыган": 3629,
      "наб": 3630,
      "урма": 3631,
      "кри": 3632,
      "рим": 3633,
      "лия": 3634,
      "нүү": 3635,
      "чи": 3636,
      "алап": 3637,
      "амы": 3638,
      "елбей": 3639,
      "сайт": 3640,
      "нген": 3641,
      "ати": 3642,
      "лерге": 3643,
      "жы": 3644,
      "кыймы": 3645,
      "рв": 3646,
      "тика": 3647,
      "ттүү": 3648,
      "хи": 3649,
      "ыйлы": 3650,
      "аңг": 3651,
      "ора": 3652,
      "##лга": 3653,
      "рд": 3654,
      "перат": 3655,
      "алан": 3656,
      "үлүш": 3657,
      "ңү": 3658,
      "маан": 3659,
      "тамб": 3660,
      "ереги": 3661,
      "арлар": 3662,
      "ылдыг": 3663,
      "пы": 3664,
      "аи": 3665,
      "здө": 3666,
      "ирзи": 3667,
      "лоого": 3668,
      "айла": 3669,
      "исал": 3670,
      "мис": 3671,
      "инд": 3672,
      "дерге": 3673,
      "спе": 3674,
      "27": 3675,
      "35": 3676,
      "ечи": 3677,
      "уа": 3678,
      "атак": 3679,
      "ылышы": 3680,
      "есс": 3681,
      "үктө": 3682,
      "##ia": 3683,
      "азала": 3684,
      "нап": 3685,
      "23": 3686,
      "мына": 3687,
      "нче": 3688,
      "коло": 3689,
      "көпчү": 3690,
      "гүндө": 3691,
      "ече": 3692,
      "абыр": 3693,
      "сунун": 3694,
      "ачка": 3695,
      "адим": 3696,
      "лугу": 3697,
      "рон": 3698,
      "токо": 3699,
      "26": 3700,
      "неси": 3701,
      "уруп": 3702,
      "ыруун": 3703,
      "үйдө": 3704,
      "ико": 3705,
      "шип": 3706,
      "салыш": 3707,
      "аков": 3708,
      "##теш": 3709,
      "жк": 3710,
      "осу": 3711,
      "атына": 3712,
      "500": 3713,
      "нор": 3714,
      "инт": 3715,
      "етер": 3716,
      "луучу": 3717,
      "ечит": 3718,
      "рет": 3719,
      "алма": 3720,
      "менти": 3721,
      "айд": 3722,
      "умушт": 3723,
      "еси": 3724,
      "ката": 3725,
      "жүрг": 3726,
      "өлүк": 3727,
      "мдүү": 3728,
      "шун": 3729,
      "ганд": 3730,
      "күм": 3731,
      "кылы": 3732,
      "чам": 3733,
      "абар": 3734,
      "кырсы": 3735,
      "пат": 3736,
      "отч": 3737,
      "##ябр": 3738,
      "##сын": 3739,
      "налык": 3740,
      "үсү": 3741,
      "ашып": 3742,
      "ец": 3743,
      "ырып": 3744,
      "тим": 3745,
      "лиев": 3746,
      "кус": 3747,
      "шыл": 3748,
      "абат": 3749,
      "илек": 3750,
      "еаэб": 3751,
      "ита": 3752,
      "иясы": 3753,
      "екет": 3754,
      "улда": 3755,
      "арман": 3756,
      "90": 3757,
      "лов": 3758,
      "##кту": 3759,
      "ойн": 3760,
      "икке": 3761,
      "иргел": 3762,
      "тым": 3763,
      "лукту": 3764,
      "ид": 3765,
      "үдө": 3766,
      "ешкен": 3767,
      "лиз": 3768,
      "башы": 3769,
      "акыры": 3770,
      "кция": 3771,
      "кв": 3772,
      "ерб": 3773,
      "вич": 3774,
      "адагы": 3775,
      "ссср": 3776,
      "ирзиё": 3777,
      "лга": 3778,
      "уча": 3779,
      "арад": 3780,
      "пов": 3781,
      "арка": 3782,
      "ылык": 3783,
      "ндер": 3784,
      "түүгө": 3785,
      "иги": 3786,
      "наа": 3787,
      "ынч": 3788,
      "ынды": 3789,
      "етип": 3790,
      "үрт": 3791,
      "куя": 3792,
      "сунан": 3793,
      "раган": 3794,
      "лорго": 3795,
      "оно": 3796,
      "иктин": 3797,
      "ыгып": 3798,
      "дыруу": 3799,
      "чат": 3800,
      "алп": 3801,
      "өлөм": 3802,
      "арш": 3803,
      "жете": 3804,
      "арызд": 3805,
      "урат": 3806,
      "зе": 3807,
      "мор": 3808,
      "асты": 3809,
      "дика": 3810,
      "йым": 3811,
      "арда": 3812,
      "дур": 3813,
      "##in": 3814,
      "рте": 3815,
      "тили": 3816,
      "ета": 3817,
      "оюу": 3818,
      "нтип": 3819,
      "өлө": 3820,
      "өзд": 3821,
      "анада": 3822,
      "гуна": 3823,
      "жон": 3824,
      "тябр": 3825,
      "коо": 3826,
      "тябрь": 3827,
      "in": 3828,
      "оф": 3829,
      "ылт": 3830,
      "уру": 3831,
      "мит": 3832,
      "муна": 3833,
      "st": 3834,
      "##ула": 3835,
      "улов": 3836,
      "ахм": 3837,
      "лбо": 3838,
      "ылат": 3839,
      "куба": 3840,
      "риг": 3841,
      "нис": 3842,
      "суп": 3843,
      "база": 3844,
      "кере": 3845,
      "ыздын": 3846,
      "кг": 3847,
      "енди": 3848,
      "28": 3849,
      "инци": 3850,
      "аттын": 3851,
      "ндөй": 3852,
      "рыла": 3853,
      "идео": 3854,
      "үлөт": 3855,
      "еним": 3856,
      "лдык": 3857,
      "зак": 3858,
      "оюл": 3859,
      "##ха": 3860,
      "барды": 3861,
      "ылына": 3862,
      "ритан": 3863,
      "ити": 3864,
      "##ве": 3865,
      "лит": 3866,
      "вс": 3867,
      "нкт": 3868,
      "рмат": 3869,
      "нуучу": 3870,
      "ауд": 3871,
      "нчө": 3872,
      "уган": 3873,
      "тынан": 3874,
      "артык": 3875,
      "геле": 3876,
      "гөндө": 3877,
      "ыртка": 3878,
      "ини": 3879,
      "бад": 3880,
      "аңд": 3881,
      "уя": 3882,
      "ерек": 3883,
      "узга": 3884,
      "ух": 3885,
      "алилд": 3886,
      "окат": 3887,
      "роз": 3888,
      "аала": 3889,
      "ирөө": 3890,
      "лоб": 3891,
      "ушкан": 3892,
      "коопт": 3893,
      "ыя": 3894,
      "алай": 3895,
      "урду": 3896,
      "реп": 3897,
      "шүү": 3898,
      "ашы": 3899,
      "катчы": 3900,
      "рах": 3901,
      "иса": 3902,
      "лдик": 3903,
      "зин": 3904,
      "рге": 3905,
      "урн": 3906,
      "кка": 3907,
      "нти": 3908,
      "##oo": 3909,
      "кыш": 3910,
      "##сүн": 3911,
      "утт": 3912,
      "##ut": 3913,
      "ордо": 3914,
      "едиа": 3915,
      "лынын": 3916,
      "усу": 3917,
      "өрүл": 3918,
      "ель": 3919,
      "урасы": 3920,
      "өра": 3921,
      "ато": 3922,
      "угуп": 3923,
      "стана": 3924,
      "сер": 3925,
      "рап": 3926,
      "фт": 3927,
      "опа": 3928,
      "ердик": 3929,
      "бөйт": 3930,
      "амал": 3931,
      "льт": 3932,
      "мдун": 3933,
      "кла": 3934,
      "жатты": 3935,
      "овду": 3936,
      "дөп": 3937,
      "үшкөн": 3938,
      "өрага": 3939,
      "##ху": 3940,
      "реа": 3941,
      "ртыл": 3942,
      "йман": 3943,
      "er": 3944,
      "рто": 3945,
      "елет": 3946,
      "ырга": 3947,
      "чүлөр": 3948,
      "мында": 3949,
      "##ko": 3950,
      "кылыш": 3951,
      "бакт": 3952,
      "елги": 3953,
      "кти": 3954,
      "урда": 3955,
      "ышын": 3956,
      "онго": 3957,
      "дугу": 3958,
      "штары": 3959,
      "таты": 3960,
      "45": 3961,
      "ров": 3962,
      "рчу": 3963,
      "##юс": 3964,
      "гай": 3965,
      "мгек": 3966,
      "це": 3967,
      "карыл": 3968,
      "иктен": 3969,
      "ентяб": 3970,
      "рбек": 3971,
      "уста": 3972,
      "ье": 3973,
      "бю": 3974,
      "ним": 3975,
      "үрдү": 3976,
      "үйөө": 3977,
      "гени": 3978,
      "ава": 3979,
      "тту": 3980,
      "өөнү": 3981,
      "вка": 3982,
      "##he": 3983,
      "үнүп": 3984,
      "алдан": 3985,
      "тро": 3986,
      "имдик": 3987,
      "поз": 3988,
      "kg": 3989,
      "re": 3990,
      "ндан": 3991,
      "кташ": 3992,
      "зим": 3993,
      "рация": 3994,
      "ымдар": 3995,
      "лаб": 3996,
      "агып": 3997,
      "ева": 3998,
      "ейи": 3999,
      "уюш": 4000,
      "көнү": 4001,
      "иров": 4002,
      "шунда": 4003,
      "илдик": 4004,
      "300": 4005,
      "мдө": 4006,
      "ндай": 4007,
      "калд": 4008,
      "дарга": 4009,
      "овго": 4010,
      "жашы": 4011,
      "утуп": 4012,
      "арызы": 4013,
      "zko": 4014,
      "зун": 4015,
      "үшүнө": 4016,
      "нду": 4017,
      "фа": 4018,
      "екети": 4019,
      "лууда": 4020,
      "төрдү": 4021,
      "ардар": 4022,
      "жайын": 4023,
      "te": 4024,
      "уруш": 4025,
      "өгө": 4026,
      "акс": 4027,
      "гиз": 4028,
      "аса": 4029,
      "ыры": 4030,
      "лдуу": 4031,
      "пч": 4032,
      "тунд": 4033,
      "андар": 4034,
      "акай": 4035,
      "ыша": 4036,
      "лип": 4037,
      "урас": 4038,
      "36": 4039,
      "кча": 4040,
      "ыно": 4041,
      "ерм": 4042,
      "берки": 4043,
      "еде": 4044,
      "##ou": 4045,
      "арь": 4046,
      "тилин": 4047,
      "жэб": 4048,
      "скө": 4049,
      "отун": 4050,
      "33": 4051,
      "вет": 4052,
      "аде": 4053,
      "уй": 4054,
      "инал": 4055,
      "пөй": 4056,
      "ука": 4057,
      "дайын": 4058,
      "жкку": 4059,
      "анде": 4060,
      "рит": 4061,
      "ранда": 4062,
      "тет": 4063,
      "байла": 4064,
      "лис": 4065,
      "анти": 4066,
      "онд": 4067,
      "лдер": 4068,
      "шил": 4069,
      "ттык": 4070,
      "аштык": 4071,
      "ылбай": 4072,
      "ртүү": 4073,
      "лкө": 4074,
      "нам": 4075,
      "сон": 4076,
      "инанс": 4077,
      "ирди": 4078,
      "рчы": 4079,
      "ейм": 4080,
      "екте": 4081,
      "вари": 4082,
      "енция": 4083,
      "еби": 4084,
      "сто": 4085,
      "кылмы": 4086,
      "оби": 4087,
      "дөрүн": 4088,
      "уттук": 4089,
      "ккан": 4090,
      "ашына": 4091,
      "уулан": 4092,
      "күрө": 4093,
      "32": 4094,
      "рдын": 4095,
      "алия": 4096,
      "тект": 4097,
      "##ce": 4098,
      "акал": 4099,
      "рид": 4100,
      "тапт": 4101,
      "new": 4102,
      "йка": 4103,
      "ндүр": 4104,
      "кты": 4105,
      "лым": 4106,
      "тиш": 4107,
      "каба": 4108,
      "сей": 4109,
      "өктө": 4110,
      "норма": 4111,
      "ясы": 4112,
      "аард": 4113,
      "орук": 4114,
      "йле": 4115,
      "кчил": 4116,
      "##ону": 4117,
      "наз": 4118,
      "сти": 4119,
      "үрүл": 4120,
      "өөдө": 4121,
      "ликт": 4122,
      "иева": 4123,
      "көмү": 4124,
      "иясын": 4125,
      "баал": 4126,
      "имдер": 4127,
      "ипло": 4128,
      "аам": 4129,
      "нбек": 4130,
      "кей": 4131,
      "ынчы": 4132,
      "ti": 4133,
      "зү": 4134,
      "айдын": 4135,
      "орон": 4136,
      "стиц": 4137,
      "ушту": 4138,
      "ебе": 4139,
      "мк": 4140,
      "аланы": 4141,
      "атив": 4142,
      "нышы": 4143,
      "улушу": 4144,
      "манов": 4145,
      "лди": 4146,
      "абыл": 4147,
      "енде": 4148,
      "лыгын": 4149,
      "талат": 4150,
      "лав": 4151,
      "кыйк": 4152,
      "мда": 4153,
      "берб": 4154,
      "етин": 4155,
      "илиш": 4156,
      "манк": 4157,
      "енен": 4158,
      "зд": 4159,
      "ост": 4160,
      "улга": 4161,
      "чаб": 4162,
      "автор": 4163,
      "куб": 4164,
      "одекс": 4165,
      "отчет": 4166,
      "ктеш": 4167,
      "##or": 4168,
      "теби": 4169,
      "тыгын": 4170,
      "етет": 4171,
      "крим": 4172,
      "жд": 4173,
      "мды": 4174,
      "рен": 4175,
      "төт": 4176,
      "чан": 4177,
      "өгү": 4178,
      "үүсүн": 4179,
      "стика": 4180,
      "беке": 4181,
      "раз": 4182,
      "75": 4183,
      "кут": 4184,
      "рул": 4185,
      "акта": 4186,
      "шону": 4187,
      "елгил": 4188,
      "ате": 4189,
      "ойго": 4190,
      "##al": 4191,
      "##сун": 4192,
      "үндөр": 4193,
      "этно": 4194,
      "уст": 4195,
      "кады": 4196,
      "оодо": 4197,
      "социа": 4198,
      "емо": 4199,
      "гам": 4200,
      "ткы": 4201,
      "ха": 4202,
      "ууп": 4203,
      "ериле": 4204,
      "птө": 4205,
      "ква": 4206,
      "капи": 4207,
      "тист": 4208,
      "ндын": 4209,
      "табы": 4210,
      "оба": 4211,
      "коё": 4212,
      "жашта": 4213,
      "сөзүн": 4214,
      "нс": 4215,
      "огу": 4216,
      "ышт": 4217,
      "ном": 4218,
      "кчы": 4219,
      "ят": 4220,
      "ялд": 4221,
      "танды": 4222,
      "гиле": 4223,
      "айк": 4224,
      "били": 4225,
      "аныб": 4226,
      "гор": 4227,
      "нес": 4228,
      "үд": 4229,
      "омдо": 4230,
      "аатта": 4231,
      "##le": 4232,
      "тка": 4233,
      "арб": 4234,
      "аркы": 4235,
      "абай": 4236,
      "ектүү": 4237,
      "29": 4238,
      "рч": 4239,
      "ште": 4240,
      "өнүк": 4241,
      "no1": 4242,
      "31": 4243,
      "34": 4244,
      "йг": 4245,
      "тра": 4246,
      "##ch": 4247,
      "арс": 4248,
      "туру": 4249,
      "кысы": 4250,
      "овд": 4251,
      "##нев": 4252,
      "арлы": 4253,
      "янс": 4254,
      "ууд": 4255,
      "онуу": 4256,
      "бий": 4257,
      "режи": 4258,
      "өктөш": 4259,
      "ека": 4260,
      "ума": 4261,
      "кармо": 4262,
      "мелер": 4263,
      "тышуу": 4264,
      "ице": 4265,
      "лдин": 4266,
      "мп": 4267,
      "##ина": 4268,
      "ирүү": 4269,
      "бут": 4270,
      "##оз": 4271,
      "алил": 4272,
      "орк": 4273,
      "око": 4274,
      "чекте": 4275,
      "ео": 4276,
      "##st": 4277,
      "урак": 4278,
      "ынты": 4279,
      "өндө": 4280,
      "макта": 4281,
      "йн": 4282,
      "ракт": 4283,
      "##ar": 4284,
      "анс": 4285,
      "лыкка": 4286,
      "бел": 4287,
      "li": 4288,
      "зч": 4289,
      "пнев": 4290,
      "өзгө": 4291,
      "парк": 4292,
      "пневм": 4293,
      "48": 4294,
      "ое": 4295,
      "року": 4296,
      "чиси": 4297,
      "урган": 4298,
      "ранс": 4299,
      "шаш": 4300,
      "аныш": 4301,
      "иреш": 4302,
      "поли": 4303,
      "мдын": 4304,
      "рево": 4305,
      "рдин": 4306,
      "уусун": 4307,
      "ени": 4308,
      "ндү": 4309,
      "аада": 4310,
      "сыйл": 4311,
      "ордун": 4312,
      "44": 4313,
      "уга": 4314,
      "ыргы": 4315,
      "рал": 4316,
      "шер": 4317,
      "алмак": 4318,
      "логи": 4319,
      "зиз": 4320,
      "здын": 4321,
      "енг": 4322,
      "ндык": 4323,
      "екст": 4324,
      "йд": 4325,
      "эмге": 4326,
      "оциал": 4327,
      "нч": 4328,
      "пин": 4329,
      "шир": 4330,
      "яна": 4331,
      "дилет": 4332,
      "тыны": 4333,
      "агын": 4334,
      "рмасы": 4335,
      "150": 4336,
      "былга": 4337,
      "иф": 4338,
      "хм": 4339,
      "гиси": 4340,
      "наны": 4341,
      "сыл": 4342,
      "чки": 4343,
      "арап": 4344,
      "айык": 4345,
      "түндү": 4346,
      "лугун": 4347,
      "йс": 4348,
      "38": 4349,
      "ng": 4350,
      "гуу": 4351,
      "иктер": 4352,
      "лгө": 4353,
      "рде": 4354,
      "үштү": 4355,
      "кту": 4356,
      "нбаев": 4357,
      "аягы": 4358,
      "лда": 4359,
      "дери": 4360,
      "майы": 4361,
      "стор": 4362,
      "дерин": 4363,
      "боор": 4364,
      "лот": 4365,
      "аржы": 4366,
      "ойдо": 4367,
      "ектор": 4368,
      "55": 4369,
      "ймак": 4370,
      "стө": 4371,
      "кым": 4372,
      "нуна": 4373,
      "кинд": 4374,
      "рман": 4375,
      "65": 4376,
      "тырып": 4377,
      "слав": 4378,
      "овдун": 4379,
      "пет": 4380,
      "айсы": 4381,
      "өрүнө": 4382,
      "лөрүн": 4383,
      "рад": 4384,
      "роза": 4385,
      "кмш": 4386,
      "лкөдө": 4387,
      "al": 4388,
      "йин": 4389,
      "тайт": 4390,
      "аалар": 4391,
      "олиц": 4392,
      "700": 4393,
      "мчу": 4394,
      "нак": 4395,
      "эн": 4396,
      "үчө": 4397,
      "онг": 4398,
      "алиц": 4399,
      "рлары": 4400,
      "лм": 4401,
      "аяна": 4402,
      "гонун": 4403,
      "дорду": 4404,
      "ктив": 4405,
      "осо": 4406,
      "рлар": 4407,
      "атке": 4408,
      "башын": 4409,
      "онт": 4410,
      "олору": 4411,
      "акто": 4412,
      "эш": 4413,
      "ңд": 4414,
      "тинг": 4415,
      "шамал": 4416,
      "аил": 4417,
      "гына": 4418,
      "ырд": 4419,
      "мдуу": 4420,
      "гол": 4421,
      "##фа": 4422,
      "##она": 4423,
      "дың": 4424,
      "оода": 4425,
      "ража": 4426,
      "өрүш": 4427,
      "нияз": 4428,
      "үзө": 4429,
      "37": 4430,
      "жыр": 4431,
      "лдук": 4432,
      "хо": 4433,
      "ше": 4434,
      "айс": 4435,
      "рама": 4436,
      "дия": 4437,
      "мди": 4438,
      "нгөн": 4439,
      "менд": 4440,
      "унд": 4441,
      "лүп": 4442,
      "нвар": 4443,
      "##хта": 4444,
      "атпай": 4445,
      "тура": 4446,
      "угуш": 4447,
      "урнал": 4448,
      "өбү": 4449,
      "арч": 4450,
      "кеме": 4451,
      "акул": 4452,
      "ыгына": 4453,
      "ессия": 4454,
      "ете": 4455,
      "ыйла": 4456,
      "сыны": 4457,
      "шташ": 4458,
      "нж": 4459,
      "гар": 4460,
      "##уб": 4461,
      "андал": 4462,
      "отург": 4463,
      "плат": 4464,
      "очула": 4465,
      "арал": 4466,
      "коом": 4467,
      "лигин": 4468,
      "чакта": 4469,
      "агыл": 4470,
      "жыйы": 4471,
      "лбоор": 4472,
      "the": 4473,
      "уштуу": 4474,
      "кунд": 4475,
      "дахан": 4476,
      "акка": 4477,
      "араз": 4478,
      "машы": 4479,
      "уюшту": 4480,
      "дс": 4481,
      "ув": 4482,
      "ырка": 4483,
      "41": 4484,
      "ры": 4485,
      "рки": 4486,
      "даган": 4487,
      "ыйна": 4488,
      "пад": 4489,
      "сузд": 4490,
      "тма": 4491,
      "ашат": 4492,
      "отуз": 4493,
      "гүү": 4494,
      "##аси": 4495,
      "лерде": 4496,
      "налда": 4497,
      "жайы": 4498,
      "чий": 4499,
      "кенем": 4500,
      "лиг": 4501,
      "400": 4502,
      "аак": 4503,
      "##ах": 4504,
      "түүнү": 4505,
      "оорон": 4506,
      "шарше": 4507,
      "үмдү": 4508,
      "верд": 4509,
      "иплом": 4510,
      "мов": 4511,
      "анар": 4512,
      "эмд": 4513,
      "енб": 4514,
      "рг": 4515,
      "##эл": 4516,
      "ашин": 4517,
      "лини": 4518,
      "түшү": 4519,
      "екси": 4520,
      "род": 4521,
      "бло": 4522,
      "жөө": 4523,
      "расы": 4524,
      "чир": 4525,
      "шери": 4526,
      "акшы": 4527,
      "салма": 4528,
      "ызы": 4529,
      "ктан": 4530,
      "ченем": 4531,
      "42": 4532,
      "me": 4533,
      "мик": 4534,
      "ганга": 4535,
      "араб": 4536,
      "тыя": 4537,
      "rn": 4538,
      "юу": 4539,
      "айпа": 4540,
      "прел": 4541,
      "сизд": 4542,
      "өндөр": 4543,
      "масы": 4544,
      "ликте": 4545,
      "раш": 4546,
      "улугу": 4547,
      "мекте": 4548,
      "згөн": 4549,
      "чуу": 4550,
      "үрүм": 4551,
      "рилди": 4552,
      "уура": 4553,
      "йдө": 4554,
      "чүн": 4555,
      "үгө": 4556,
      "инди": 4557,
      "тыруу": 4558,
      "урсу": 4559,
      "генде": 4560,
      "арых": 4561,
      "жуму": 4562,
      "ураг": 4563,
      "клуб": 4564,
      "коомч": 4565,
      "чүнчү": 4566,
      "шен": 4567,
      "үбү": 4568,
      "амир": 4569,
      "ers": 4570,
      "рез": 4571,
      "актоо": 4572,
      "ургак": 4573,
      "бюро": 4574,
      "айсал": 4575,
      "зона": 4576,
      "лк": 4577,
      "мпа": 4578,
      "ске": 4579,
      "чин": 4580,
      "##ve": 4581,
      "айн": 4582,
      "ылда": 4583,
      "форм": 4584,
      "рдүү": 4585,
      "тааси": 4586,
      "news": 4587,
      "идин": 4588,
      "йла": 4589,
      "оне": 4590,
      "ринде": 4591,
      "грац": 4592,
      "43": 4593,
      "айтар": 4594,
      "тран": 4595,
      "мдөр": 4596,
      "ялдар": 4597,
      "эшик": 4598,
      "##во": 4599,
      "аби": 4600,
      "окко": 4601,
      "көрүш": 4602,
      "еже": 4603,
      "ьер": 4604,
      "кырыл": 4605,
      "мөк": 4606,
      "сиял": 4607,
      "лл": 4608,
      "пп": 4609,
      "рке": 4610,
      "##зо": 4611,
      "укту": 4612,
      "аим": 4613,
      "ппоз": 4614,
      "рамы": 4615,
      "39": 4616,
      "47": 4617,
      "кмөн": 4618,
      "лак": 4619,
      "ктөр": 4620,
      "вар": 4621,
      "гүнө": 4622,
      "##re": 4623,
      "алаш": 4624,
      "ерг": 4625,
      "ерли": 4626,
      "оюнч": 4627,
      "билд": 4628,
      "етүү": 4629,
      "амак": 4630,
      "идея": 4631,
      "ача": 4632,
      "уда": 4633,
      "анды": 4634,
      "етине": 4635,
      "имде": 4636,
      "ешти": 4637,
      "угу": 4638,
      "тында": 4639,
      "өңү": 4640,
      "лүгүн": 4641,
      "reut": 4642,
      "бун": 4643,
      "таба": 4644,
      "көк": 4645,
      "көрү": 4646,
      "кесеп": 4647,
      "мдук": 4648,
      "нз": 4649,
      "ыбы": 4650,
      "өшө": 4651,
      "муш": 4652,
      "нко": 4653,
      "##te": 4654,
      "калыш": 4655,
      "ектен": 4656,
      "ектел": 4657,
      "тпө": 4658,
      "лыкты": 4659,
      "олуг": 4660,
      "лея": 4661,
      "иңи": 4662,
      "on": 4663,
      "йк": 4664,
      "мду": 4665,
      "акси": 4666,
      "ипот": 4667,
      "аркат": 4668,
      "vi": 4669,
      "мт": 4670,
      "птер": 4671,
      "ялы": 4672,
      "ату": 4673,
      "ырыл": 4674,
      "амил": 4675,
      "үлөр": 4676,
      "икте": 4677,
      "эрк": 4678,
      "дио": 4679,
      "түрүү": 4680,
      "бойт": 4681,
      "блус": 4682,
      "йдар": 4683,
      "кпай": 4684,
      "тты": 4685,
      "босо": 4686,
      "литва": 4687,
      "меси": 4688,
      "алг": 4689,
      "##ура": 4690,
      "жагы": 4691,
      "өлү": 4692,
      "арага": 4693,
      "етр": 4694,
      "етпе": 4695,
      "олуп": 4696,
      "учуру": 4697,
      "актар": 4698,
      "омго": 4699,
      "зу": 4700,
      "йлы": 4701,
      "арти": 4702,
      "ирде": 4703,
      "еф": 4704,
      "нте": 4705,
      "шык": 4706,
      "улук": 4707,
      "урд": 4708,
      "ний": 4709,
      "юл": 4710,
      "##дп": 4711,
      "анас": 4712,
      "апо": 4713,
      "ремь": 4714,
      "ктагы": 4715,
      "ариу": 4716,
      "85": 4717,
      "гил": 4718,
      "шем": 4719,
      "өчү": 4720,
      "айкы": 4721,
      "үрөө": 4722,
      "кура": 4723,
      "ида": 4724,
      "ыймы": 4725,
      "еков": 4726,
      "рп": 4727,
      "шуун": 4728,
      "ерине": 4729,
      "обс": 4730,
      "кезе": 4731,
      "адио": 4732,
      "иви": 4733,
      "йна": 4734,
      "ранц": 4735,
      "штур": 4736,
      "ыда": 4737,
      "##юр": 4738,
      "боз": 4739,
      "аарын": 4740,
      "үмдөр": 4741,
      "пыс": 4742,
      "раа": 4743,
      "##ёр": 4744,
      "орис": 4745,
      "чыкк": 4746,
      "агасы": 4747,
      "no2": 4748,
      "йып": 4749,
      "арл": 4750,
      "ыпты": 4751,
      "еттүү": 4752,
      "кери": 4753,
      "езде": 4754,
      "дини": 4755,
      "араң": 4756,
      "ранды": 4757,
      "лгач": 4758,
      "кко": 4759,
      "кое": 4760,
      "аке": 4761,
      "ышкы": 4762,
      "енип": 4763,
      "уши": 4764,
      "куу": 4765,
      "уса": 4766,
      "ачар": 4767,
      "упай": 4768,
      "шемби": 4769,
      "гно": 4770,
      "кб": 4771,
      "ох": 4772,
      "берг": 4773,
      "стик": 4774,
      "үйүн": 4775,
      "ром": 4776,
      "ажи": 4777,
      "устар": 4778,
      "54": 4779,
      "үбө": 4780,
      "##li": 4781,
      "тага": 4782,
      "тиг": 4783,
      "жазы": 4784,
      "ипте": 4785,
      "дүң": 4786,
      "емби": 4787,
      "елди": 4788,
      "уман": 4789,
      "тирил": 4790,
      "иле": 4791,
      "йч": 4792,
      "отто": 4793,
      "ыктал": 4794,
      "кадр": 4795,
      "гынд": 4796,
      "кырк": 4797,
      "талы": 4798,
      "балы": 4799,
      "рсу": 4800,
      "##bc": 4801,
      "арчы": 4802,
      "ынб": 4803,
      "анкт": 4804,
      "тац": 4805,
      "ако": 4806,
      "ерд": 4807,
      "диц": 4808,
      "өрбө": 4809,
      "ээр": 4810,
      "ексу": 4811,
      "зүндө": 4812,
      "оюп": 4813,
      "tu": 4814,
      "мара": 4815,
      "оц": 4816,
      "пак": 4817,
      "сси": 4818,
      "##an": 4819,
      "##mi": 4820,
      "ишкен": 4821,
      "рав": 4822,
      "бөгө": 4823,
      "лоочу": 4824,
      "рина": 4825,
      "циал": 4826,
      "ri": 4827,
      "чүү": 4828,
      "урч": 4829,
      "ыгер": 4830,
      "сумма": 4831,
      "мпани": 4832,
      "есе": 4833,
      "рста": 4834,
      "ынд": 4835,
      "атайы": 4836,
      "ыкчы": 4837,
      "акти": 4838,
      "тыкка": 4839,
      "ондой": 4840,
      "ья": 4841,
      "унуш": 4842,
      "гынан": 4843,
      "62": 4844,
      "идер": 4845,
      "мыш": 4846,
      "ног": 4847,
      "рик": 4848,
      "рба": 4849,
      "рюс": 4850,
      "түг": 4851,
      "геме": 4852,
      "мини": 4853,
      "ктүү": 4854,
      "рлору": 4855,
      "атег": 4856,
      "тайы": 4857,
      "нты": 4858,
      "рш": 4859,
      "шот": 4860,
      "ro": 4861,
      "вто": 4862,
      "ена": 4863,
      "акту": 4864,
      "айрыл": 4865,
      "үзүл": 4866,
      "моо": 4867,
      "нк": 4868,
      "элге": 4869,
      "атура": 4870,
      "өтүш": 4871,
      "элчи": 4872,
      "уту": 4873,
      "торду": 4874,
      "мтө": 4875,
      "600": 4876,
      "вге": 4877,
      "мга": 4878,
      "ранд": 4879,
      "фу": 4880,
      "часы": 4881,
      "өй": 4882,
      "тарма": 4883,
      "урун": 4884,
      "том": 4885,
      "tim": 4886,
      "58": 4887,
      "рж": 4888,
      "рчи": 4889,
      "таз": 4890,
      "енже": 4891,
      "басыл": 4892,
      "артия": 4893,
      "омо": 4894,
      "ксдп": 4895,
      "57": 4896,
      "63": 4897,
      "лине": 4898,
      "шуп": 4899,
      "ндаш": 4900,
      "вид": 4901,
      "ыгыл": 4902,
      "меке": 4903,
      "септе": 4904,
      "күчтө": 4905,
      "мүн": 4906,
      "ртка": 4907,
      "верси": 4908,
      "68": 4909,
      "илг": 4910,
      "кра": 4911,
      "ксы": 4912,
      "лес": 4913,
      "пто": 4914,
      "чус": 4915,
      "##фи": 4916,
      "нелер": 4917,
      "елүү": 4918,
      "яны": 4919,
      "52": 4920,
      "сх": 4921,
      "цен": 4922,
      "##эр": 4923,
      "окку": 4924,
      "кайд": 4925,
      "коман": 4926,
      "рази": 4927,
      "кирге": 4928,
      "мсыз": 4929,
      "эпо": 4930,
      "алим": 4931,
      "дес": 4932,
      "анты": 4933,
      "кант": 4934,
      "берд": 4935,
      "лиши": 4936,
      "поэ": 4937,
      "рча": 4938,
      "##ri": 4939,
      "##зел": 4940,
      "калем": 4941,
      "алыгы": 4942,
      "46": 4943,
      "49": 4944,
      "53": 4945,
      "сары": 4946,
      "##ре": 4947,
      "##be": 4948,
      "орго": 4949,
      "үрүп": 4950,
      "амга": 4951,
      "налар": 4952,
      "мм": 4953,
      "##зин": 4954,
      "айке": 4955,
      "асык": 4956,
      "ыштар": 4957,
      "дуг": 4958,
      "бог": 4959,
      "гине": 4960,
      "рү": 4961,
      "ял": 4962,
      "мада": 4963,
      "тес": 4964,
      "ндо": 4965,
      "екчи": 4966,
      "жанын": 4967,
      "туту": 4968,
      "чинов": 4969,
      "рюсс": 4970,
      "зө": 4971,
      "инара": 4972,
      "енти": 4973,
      "талды": 4974,
      "елиш": 4975,
      "игине": 4976,
      "лышын": 4977,
      "реван": 4978,
      "кум": 4979,
      "рыш": 4980,
      "ызма": 4981,
      "отста": 4982,
      "лими": 4983,
      "120": 4984,
      "inte": 4985,
      "51": 4986,
      "fa": 4987,
      "gra": 4988,
      "зил": 4989,
      "өчө": 4990,
      "соц": 4991,
      "терн": 4992,
      "сала": 4993,
      "оорло": 4994,
      "үзүп": 4995,
      "77": 4996,
      "йли": 4997,
      "лана": 4998,
      "пция": 4999,
      "азак": 5000,
      "сага": 5001,
      "өрсө": 5002,
      "лгону": 5003,
      "нова": 5004,
      "ардаг": 5005,
      "пта": 5006,
      "пот": 5007,
      "үрмө": 5008,
      "кенди": 5009,
      "ктын": 5010,
      "ахна": 5011,
      "лашы": 5012,
      "шө": 5013,
      "ерч": 5014,
      "абзел": 5015,
      "исте": 5016,
      "рати": 5017,
      "чусу": 5018,
      "рхан": 5019,
      "яд": 5020,
      "узд": 5021,
      "айлоо": 5022,
      "лоодо": 5023,
      "езд": 5024,
      "sa": 5025,
      "истан": 5026,
      "лара": 5027,
      "лоону": 5028,
      "елис": 5029,
      "күйө": 5030,
      "лкала": 5031,
      "hu": 5032,
      "калар": 5033,
      "енд": 5034,
      "ойгон": 5035,
      "ымда": 5036,
      "спор": 5037,
      "квт": 5038,
      "нве": 5039,
      "ңде": 5040,
      "##иб": 5041,
      "##эн": 5042,
      "нас": 5043,
      "рунда": 5044,
      "it": 5045,
      "##рк": 5046,
      "ордук": 5047,
      "##тел": 5048,
      "уроо": 5049,
      "ттын": 5050,
      "штын": 5051,
      "нот": 5052,
      "##рис": 5053,
      "##ёт": 5054,
      "тада": 5055,
      "ышта": 5056,
      "абалд": 5057,
      "шарке": 5058,
      "аэс": 5059,
      "лөп": 5060,
      "ai": 5061,
      "куп": 5062,
      "шей": 5063,
      "эст": 5064,
      "инст": 5065,
      "уни": 5066,
      "азы": 5067,
      "над": 5068,
      "угат": 5069,
      "ургун": 5070,
      "лүкт": 5071,
      "бин": 5072,
      "зди": 5073,
      "нста": 5074,
      "шку": 5075,
      "ярд": 5076,
      "алгы": 5077,
      "times": 5078,
      "56": 5079,
      "иет": 5080,
      "лса": 5081,
      "тк": 5082,
      "##ид": 5083,
      "ори": 5084,
      "ерим": 5085,
      "асса": 5086,
      "үрб": 5087,
      "live": 5088,
      "гат": 5089,
      "иан": 5090,
      "кц": 5091,
      "нга": 5092,
      "рз": 5093,
      "алоо": 5094,
      "ерти": 5095,
      "дарда": 5096,
      "либ": 5097,
      "импе": 5098,
      "ело": 5099,
      "санд": 5100,
      "айка": 5101,
      "трат": 5102,
      "емин": 5103,
      "амбар": 5104,
      "мча": 5105,
      "мдер": 5106,
      "асп": 5107,
      "тел": 5108,
      "ылым": 5109,
      "##кел": 5110,
      "ачы": 5111,
      "дикти": 5112,
      "ижара": 5113,
      "гноз": 5114,
      "or": 5115,
      "ылга": 5116,
      "##сан": 5117,
      "көт": 5118,
      "стык": 5119,
      "ензин": 5120,
      "екку": 5121,
      "эри": 5122,
      "мбе": 5123,
      "идерл": 5124,
      "ch": 5125,
      "иге": 5126,
      "илге": 5127,
      "лли": 5128,
      "нөт": 5129,
      "##et": 5130,
      "каал": 5131,
      "ови": 5132,
      "оодон": 5133,
      "ндуу": 5134,
      "ндун": 5135,
      "екс": 5136,
      "рүүчү": 5137,
      "доого": 5138,
      "шууда": 5139,
      "лүктү": 5140,
      "67": 5141,
      "наш": 5142,
      "ердин": 5143,
      "аарла": 5144,
      "амас": 5145,
      "кво": 5146,
      "схак": 5147,
      "дж": 5148,
      "лген": 5149,
      "мене": 5150,
      "ырч": 5151,
      "аптар": 5152,
      "роф": 5153,
      "адах": 5154,
      "птал": 5155,
      "потен": 5156,
      "вр": 5157,
      "анц": 5158,
      "рези": 5159,
      "анали": 5160,
      "вард": 5161,
      "bbc": 5162,
      "лг": 5163,
      "оюнда": 5164,
      "олук": 5165,
      "##шиг": 5166,
      "жалд": 5167,
      "номи": 5168,
      "утту": 5169,
      "едиц": 5170,
      "73": 5171,
      "збек": 5172,
      "оону": 5173,
      "птыр": 5174,
      "##ht": 5175,
      "болор": 5176,
      "апел": 5177,
      "анына": 5178,
      "оосу": 5179,
      "буюр": 5180,
      "окто": 5181,
      "250": 5182,
      "еж": 5183,
      "улг": 5184,
      "шет": 5185,
      "үлө": 5186,
      "##ty": 5187,
      "дети": 5188,
      "анч": 5189,
      "канд": 5190,
      "дарыл": 5191,
      "ышып": 5192,
      "куру": 5193,
      "обуш": 5194,
      "доза": 5195,
      "ликке": 5196,
      "квота": 5197,
      "йыр": 5198,
      "үг": 5199,
      "келд": 5200,
      "ашкар": 5201,
      "каты": 5202,
      "итет": 5203,
      "тисти": 5204,
      "61": 5205,
      "егин": 5206,
      "ики": 5207,
      "тбек": 5208,
      "үүн": 5209,
      "##sa": 5210,
      "алли": 5211,
      "коз": 5212,
      "унду": 5213,
      "мист": 5214,
      "ымдуу": 5215,
      "зоди": 5216,
      "үүнүн": 5217,
      "59": 5218,
      "you": 5219,
      "ике": 5220,
      "рлик": 5221,
      "##ша": 5222,
      "айо": 5223,
      "тымы": 5224,
      "етал": 5225,
      "елин": 5226,
      "омп": 5227,
      "72": 5228,
      "тпа": 5229,
      "алл": 5230,
      "арий": 5231,
      "анари": 5232,
      "ыкыр": 5233,
      "жерин": 5234,
      "өөнүн": 5235,
      "рса": 5236,
      "##loo": 5237,
      "##fi": 5238,
      "ганды": 5239,
      "кич": 5240,
      "маг": 5241,
      "урб": 5242,
      "лөргө": 5243,
      "мбаев": 5244,
      "##ent": 5245,
      "to": 5246,
      "лдо": 5247,
      "мөт": 5248,
      "ыба": 5249,
      "эж": 5250,
      "күлд": 5251,
      "ирлер": 5252,
      "десса": 5253,
      "bi": 5254,
      "яху": 5255,
      "эко": 5256,
      "ашуу": 5257,
      "ттө": 5258,
      "ктер": 5259,
      "талиб": 5260,
      "дугун": 5261,
      "мдү": 5262,
      "кис": 5263,
      "енат": 5264,
      "ента": 5265,
      "сүт": 5266,
      "айры": 5267,
      "ртып": 5268,
      "жагын": 5269,
      "мисс": 5270,
      "76": 5271,
      "ar": 5272,
      "раге": 5273,
      "64": 5274,
      "лты": 5275,
      "най": 5276,
      "шти": 5277,
      "##el": 5278,
      "арынд": 5279,
      "ниет": 5280,
      "ондор": 5281,
      "ега": 5282,
      "зүм": 5283,
      "итеп": 5284,
      "птеш": 5285,
      "чта": 5286,
      "##ере": 5287,
      "гым": 5288,
      "енген": 5289,
      "андык": 5290,
      "гүз": 5291,
      "елд": 5292,
      "изи": 5293,
      "##хоз": 5294,
      "асс": 5295,
      "етик": 5296,
      "она": 5297,
      "ндин": 5298,
      "елери": 5299,
      "ташы": 5300,
      "армал": 5301,
      "pr": 5302,
      "лдар": 5303,
      "цах": 5304,
      "##пр": 5305,
      "ырл": 5306,
      "луусу": 5307,
      "ыкта": 5308,
      "нөк": 5309,
      "резид": 5310,
      "цахал": 5311,
      "sp": 5312,
      "жеп": 5313,
      "йза": 5314,
      "крат": 5315,
      "аршы": 5316,
      "атов": 5317,
      "rnat": 5318,
      "tube": 5319,
      "мани": 5320,
      "нна": 5321,
      "айдоо": 5322,
      "##оля": 5323,
      "чей": 5324,
      "апса": 5325,
      "изди": 5326,
      "рага": 5327,
      "ka": 5328,
      "маны": 5329,
      "тчы": 5330,
      "стон": 5331,
      "ыла": 5332,
      "ыккан": 5333,
      "жөнүн": 5334,
      "андын": 5335,
      "жою": 5336,
      "71": 5337,
      "95": 5338,
      "зын": 5339,
      "мн": 5340,
      "шкен": 5341,
      "##ld": 5342,
      "жард": 5343,
      "гону": 5344,
      "ептел": 5345,
      "лимп": 5346,
      "800": 5347,
      "згөр": 5348,
      "йб": 5349,
      "сф": 5350,
      "узи": 5351,
      "##мен": 5352,
      "алал": 5353,
      "дел": 5354,
      "үрд": 5355,
      "өкмө": 5356,
      "рдун": 5357,
      "ii": 5358,
      "ае": 5359,
      "ела": 5360,
      "чкы": 5361,
      "абр": 5362,
      "рел": 5363,
      "парат": 5364,
      "штаг": 5365,
      "налга": 5366,
      "урсан": 5367,
      "##man": 5368,
      "нике": 5369,
      "пате": 5370,
      "78": 5371,
      "гус": 5372,
      "лчу": 5373,
      "##лан": 5374,
      "аррис": 5375,
      "уль": 5376,
      "улары": 5377,
      "онун": 5378,
      "дссу": 5379,
      "эпос": 5380,
      "po": 5381,
      "даг": 5382,
      "стү": 5383,
      "ылба": 5384,
      "рея": 5385,
      "өткү": 5386,
      "раилд": 5387,
      "айыт": 5388,
      "ыска": 5389,
      "текте": 5390,
      "ni": 5391,
      "нчи": 5392,
      "оон": 5393,
      "##ta": 5394,
      "ано": 5395,
      "индер": 5396,
      "ирс": 5397,
      "иль": 5398,
      "кинди": 5399,
      "үлдө": 5400,
      "66": 5401,
      "зала": 5402,
      "уду": 5403,
      "шин": 5404,
      "шак": 5405,
      "лад": 5406,
      "сады": 5407,
      "курма": 5408,
      "өөлө": 5409,
      "дөрдү": 5410,
      "адат": 5411,
      "ерди": 5412,
      "азап": 5413,
      "теп": 5414,
      "илб": 5415,
      "рада": 5416,
      "артта": 5417,
      "елим": 5418,
      "ериал": 5419,
      "цион": 5420,
      "айыны": 5421,
      "отчёт": 5422,
      "рлор": 5423,
      "сман": 5424,
      "##ght": 5425,
      "азып": 5426,
      "элин": 5427,
      "ире": 5428,
      "ейб": 5429,
      "уулун": 5430,
      "увере": 5431,
      "мма": 5432,
      "алч": 5433,
      "ырын": 5434,
      "амг": 5435,
      "отор": 5436,
      "опту": 5437,
      "дикт": 5438,
      "уму": 5439,
      "аева": 5440,
      "gram": 5441,
      "human": 5442,
      "69": 5443,
      "84": 5444,
      "wat": 5445,
      "зам": 5446,
      "ици": 5447,
      "ирус": 5448,
      "лиш": 5449,
      "жазд": 5450,
      "тоб": 5451,
      "чынын": 5452,
      "лдаш": 5453,
      "right": 5454,
      "af": 5455,
      "чогу": 5456,
      "шын": 5457,
      "алыг": 5458,
      "код": 5459,
      "азыл": 5460,
      "ындап": 5461,
      "изоля": 5462,
      "лдын": 5463,
      "ыял": 5464,
      "ваг": 5465,
      "гд": 5466,
      "лайы": 5467,
      "айни": 5468,
      "етро": 5469,
      "амын": 5470,
      "шайке": 5471,
      "оомду": 5472,
      "үзү": 5473,
      "ибер": 5474,
      "ынчыл": 5475,
      "урнир": 5476,
      "97": 5477,
      "кине": 5478,
      "мүр": 5479,
      "мдан": 5480,
      "##хай": 5481,
      "индин": 5482,
      "ияда": 5483,
      "лига": 5484,
      "имм": 5485,
      "ттөр": 5486,
      "жем": 5487,
      "пайг": 5488,
      "грек": 5489,
      "оман": 5490,
      "ресе": 5491,
      "тоого": 5492,
      "кова": 5493,
      "куту": 5494,
      "кымба": 5495,
      "тобун": 5496,
      "ие": 5497,
      "йи": 5498,
      "йүн": 5499,
      "кте": 5500,
      "мдин": 5501,
      "нди": 5502,
      "ржа": 5503,
      "чар": 5504,
      "тинде": 5505,
      "пайы": 5506,
      "ирич": 5507,
      "пахта": 5508,
      "ндыгы": 5509,
      "үлөрү": 5510,
      "watch": 5511,
      "as": 5512,
      "бор": 5513,
      "втор": 5514,
      "зилд": 5515,
      "иеше": 5516,
      "чт": 5517,
      "шк": 5518,
      "##pp": 5519,
      "ыму": 5520,
      "манб": 5521,
      "le": 5522,
      "ma": 5523,
      "үрү": 5524,
      "ланд": 5525,
      "күчүн": 5526,
      "икти": 5527,
      "ентте": 5528,
      "илдер": 5529,
      "раван": 5530,
      "000": 5531,
      "лон": 5532,
      "шала": 5533,
      "эшиг": 5534,
      "арып": 5535,
      "кечи": 5536,
      "берге": 5537,
      "нел": 5538,
      "амен": 5539,
      "олуна": 5540,
      "ойду": 5541,
      "ктө": 5542,
      "малды": 5543,
      "лова": 5544,
      "ржава": 5545,
      "tv": 5546,
      "ласы": 5547,
      "уэ": 5548,
      "теб": 5549,
      "стр": 5550,
      "беге": 5551,
      "##ook": 5552,
      "абылд": 5553,
      "рпус": 5554,
      "87": 5555,
      "ru": 5556,
      "ода": 5557,
      "эй": 5558,
      "айды": 5559,
      "өлүү": 5560,
      "аме": 5561,
      "опто": 5562,
      "ктрк": 5563,
      "ртыш": 5564,
      "студ": 5565,
      "ионат": 5566,
      "рлан": 5567,
      "здөр": 5568,
      "am": 5569,
      "зиза": 5570,
      "рб": 5571,
      "укум": 5572,
      "кыры": 5573,
      "барак": 5574,
      "ошто": 5575,
      "онуп": 5576,
      "отко": 5577,
      "тунда": 5578,
      "ламан": 5579,
      "##ess": 5580,
      "79": 5581,
      "аанд": 5582,
      "лушу": 5583,
      "оё": 5584,
      "хак": 5585,
      "шко": 5586,
      "болг": 5587,
      "иянын": 5588,
      "аси": 5589,
      "олл": 5590,
      "тоз": 5591,
      "алдыг": 5592,
      "елде": 5593,
      "омбу": 5594,
      "брь": 5595,
      "манд": 5596,
      "нса": 5597,
      "ыст": 5598,
      "ңк": 5599,
      "өд": 5600,
      "уук": 5601,
      "ттик": 5602,
      "тажи": 5603,
      "ктур": 5604,
      "пера": 5605,
      "үктү": 5606,
      "уял": 5607,
      "чийки": 5608,
      "74": 5609,
      "бле": 5610,
      "фсб": 5611,
      "енден": 5612,
      "изин": 5613,
      "риб": 5614,
      "озг": 5615,
      "айдал": 5616,
      "аало": 5617,
      "ньян": 5618,
      "аимов": 5619,
      "book": 5620,
      "lin": 5621,
      "нвес": 5622,
      "роо": 5623,
      "руп": 5624,
      "рго": 5625,
      "рбай": 5626,
      "анаг": 5627,
      "тууд": 5628,
      "өткө": 5629,
      "үчүл": 5630,
      "аво": 5631,
      "түзө": 5632,
      "омун": 5633,
      "мүт": 5634,
      "аразы": 5635,
      "face": 5636,
      "sh": 5637,
      "зги": 5638,
      "кто": 5639,
      "лжо": 5640,
      "пти": 5641,
      "үгүн": 5642,
      "өкө": 5643,
      "##тк": 5644,
      "карг": 5645,
      "##ета": 5646,
      "ерик": 5647,
      "ылыт": 5648,
      "адаш": 5649,
      "өөнө": 5650,
      "##рой": 5651,
      "ратор": 5652,
      "чата": 5653,
      "өдөн": 5654,
      "go": 5655,
      "ааны": 5656,
      "бды": 5657,
      "иди": 5658,
      "оги": 5659,
      "рх": 5660,
      "тот": 5661,
      "түгү": 5662,
      "урса": 5663,
      "еттик": 5664,
      "иро": 5665,
      "илли": 5666,
      "рмо": 5667,
      "егизг": 5668,
      "патри": 5669,
      "ардак": 5670,
      "розо": 5671,
      "блема": 5672,
      "меле": 5673,
      "##la": 5674,
      "ынт": 5675,
      "ерде": 5676,
      "стин": 5677,
      "нинг": 5678,
      "бизге": 5679,
      "нүгү": 5680,
      "ысын": 5681,
      "зыя": 5682,
      "малар": 5683,
      "ахр": 5684,
      "ааныш": 5685,
      "кия": 5686,
      "лдет": 5687,
      "як": 5688,
      "##ца": 5689,
      "кани": 5690,
      "асе": 5691,
      "артып": 5692,
      "180": 5693,
      "латви": 5694,
      "зинф": 5695,
      "de": 5696,
      "йык": 5697,
      "ьян": 5698,
      "өйр": 5699,
      "##ют": 5700,
      "##ник": 5701,
      "##яд": 5702,
      "##dia": 5703,
      "алет": 5704,
      "инж": 5705,
      "асал": 5706,
      "com": 5707,
      "өйрө": 5708,
      "86": 5709,
      "ило": 5710,
      "нсу": 5711,
      "##еф": 5712,
      "чег": 5713,
      "араг": 5714,
      "ойг": 5715,
      "риал": 5716,
      "истр": 5717,
      "нуэл": 5718,
      "наты": 5719,
      "110": 5720,
      "лго": 5721,
      "лхоз": 5722,
      "мдар": 5723,
      "##тр": 5724,
      "тари": 5725,
      "магы": 5726,
      "опк": 5727,
      "жамк": 5728,
      "лөш": 5729,
      "82": 5730,
      "рыз": 5731,
      "ңдо": 5732,
      "##sh": 5733,
      "касы": 5734,
      "##раф": 5735,
      "укка": 5736,
      "стра": 5737,
      "чечи": 5738,
      "ттары": 5739,
      "илде": 5740,
      "нист": 5741,
      "суб": 5742,
      "##пич": 5743,
      "ауди": 5744,
      "81": 5745,
      "ога": 5746,
      "болу": 5747,
      "улжа": 5748,
      "өөгө": 5749,
      "койг": 5750,
      "ренд": 5751,
      "аё": 5752,
      "абир": 5753,
      "астык": 5754,
      "ыты": 5755,
      "оту": 5756,
      "убу": 5757,
      "алист": 5758,
      "нкция": 5759,
      "лчи": 5760,
      "малы": 5761,
      "##ран": 5762,
      "етке": 5763,
      "ооч": 5764,
      "түнү": 5765,
      "рылды": 5766,
      "тог": 5767,
      "дады": 5768,
      "гент": 5769,
      "гөй": 5770,
      "сип": 5771,
      "кири": 5772,
      "гонд": 5773,
      "лдор": 5774,
      "ачылы": 5775,
      "осуна": 5776,
      "балд": 5777,
      "air": 5778,
      "et": 5779,
      "kz": 5780,
      "na": 5781,
      "бине": 5782,
      "##лас": 5783,
      "даа": 5784,
      "авл": 5785,
      "дашты": 5786,
      "рунун": 5787,
      "рбаев": 5788,
      "83": 5789,
      "зас": 5790,
      "анхай": 5791,
      "менчи": 5792,
      "ишим": 5793,
      "бербе": 5794,
      "сов": 5795,
      "онов": 5796,
      "ндик": 5797,
      "янд": 5798,
      "ртты": 5799,
      "тама": 5800,
      "това": 5801,
      "ерина": 5802,
      "130": 5803,
      "латын": 5804,
      "us": 5805,
      "нык": 5806,
      "нгө": 5807,
      "##ват": 5808,
      "##ne": 5809,
      "еркен": 5810,
      "иру": 5811,
      "лаа": 5812,
      "амчы": 5813,
      "шахта": 5814,
      "келбе": 5815,
      "екц": 5816,
      "нияда": 5817,
      "орту": 5818,
      "зб": 5819,
      "зым": 5820,
      "кк": 5821,
      "лбай": 5822,
      "пла": 5823,
      "##ct": 5824,
      "ерма": 5825,
      "урба": 5826,
      "урлар": 5827,
      "амба": 5828,
      "евдин": 5829,
      "өмө": 5830,
      "льв": 5831,
      "литр": 5832,
      "рүүнү": 5833,
      "of": 5834,
      "so": 5835,
      "аалы": 5836,
      "нүш": 5837,
      "рэ": 5838,
      "яга": 5839,
      "##нов": 5840,
      "##rw": 5841,
      "аре": 5842,
      "арла": 5843,
      "дак": 5844,
      "аброй": 5845,
      "еринб": 5846,
      "амагы": 5847,
      "скери": 5848,
      "орой": 5849,
      "аида": 5850,
      "пчр": 5851,
      "rov": 5852,
      "afp": 5853,
      "инжен": 5854,
      "ci": 5855,
      "амаг": 5856,
      "аци": 5857,
      "тети": 5858,
      "удан": 5859,
      "##ав": 5860,
      "##ряд": 5861,
      "##уд": 5862,
      "##ro": 5863,
      "дад": 5864,
      "ушак": 5865,
      "шах": 5866,
      "актер": 5867,
      "рынан": 5868,
      "лбек": 5869,
      "чай": 5870,
      "үс": 5871,
      "##lo": 5872,
      "##лем": 5873,
      "ашал": 5874,
      "урга": 5875,
      "ырды": 5876,
      "муру": 5877,
      "экспо": 5878,
      "үзгө": 5879,
      "уят": 5880,
      "мдери": 5881,
      "ьянма": 5882,
      "88": 5883,
      "98": 5884,
      "nce": 5885,
      "луш": 5886,
      "ско": 5887,
      "##жар": 5888,
      "айз": 5889,
      "##ами": 5890,
      "ерген": 5891,
      "еркел": 5892,
      "етт": 5893,
      "пикет": 5894,
      "ахар": 5895,
      "гали": 5896,
      "no3": 5897,
      "ерниз": 5898,
      "бюрос": 5899,
      "get": 5900,
      "nd": 5901,
      "бок": 5902,
      "дог": 5903,
      "йло": 5904,
      "үндү": 5905,
      "нүг": 5906,
      "бакты": 5907,
      "ариат": 5908,
      "постс": 5909,
      "900": 5910,
      "бдан": 5911,
      "гия": 5912,
      "лб": 5913,
      "линг": 5914,
      "рык": 5915,
      "ьев": 5916,
      "эти": 5917,
      "##мал": 5918,
      "##ck": 5919,
      "иний": 5920,
      "урп": 5921,
      "апур": 5922,
      "имсан": 5923,
      "убара": 5924,
      "умент": 5925,
      "дири": 5926,
      "тасс": 5927,
      "ктап": 5928,
      "нөө": 5929,
      "руна": 5930,
      "алян": 5931,
      "##али": 5932,
      "бада": 5933,
      "өрүнү": 5934,
      "илл": 5935,
      "агынд": 5936,
      "балды": 5937,
      "kloo": 5938,
      "вт": 5939,
      "ее": 5940,
      "иа": 5941,
      "рн": 5942,
      "ху": 5943,
      "ындар": 5944,
      "улы": 5945,
      "ылты": 5946,
      "оппо": 5947,
      "урап": 5948,
      "жүзүн": 5949,
      "ариф": 5950,
      "ренб": 5951,
      "дсмен": 5952,
      "kloop": 5953,
      "йл": 5954,
      "см": 5955,
      "##pa": 5956,
      "ербе": 5957,
      "ирип": 5958,
      "ажа": 5959,
      "чөп": 5960,
      "скат": 5961,
      "ороон": 5962,
      "temi": 5963,
      "ширш": 5964,
      "хакер": 5965,
      "getty": 5966,
      "ast": 5967,
      "di": 5968,
      "xi": 5969,
      "жмк": 5970,
      "лтай": 5971,
      "оста": 5972,
      "сол": 5973,
      "ули": 5974,
      "чок": 5975,
      "инч": 5976,
      "акк": 5977,
      "акыл": 5978,
      "тели": 5979,
      "ирия": 5980,
      "илк": 5981,
      "эск": 5982,
      "ээрл": 5983,
      "упер": 5984,
      "рома": 5985,
      "чагы": 5986,
      "есип": 5987,
      "айкуш": 5988,
      "--": 5989,
      "da": 5990,
      "ed": 5991,
      "шор": 5992,
      "шке": 5993,
      "шел": 5994,
      "алас": 5995,
      "инге": 5996,
      "ней": 5997,
      "ийне": 5998,
      "аха": 5999,
      "лбой": 6000,
      "tele": 6001,
      "уйку": 6002,
      "шкана": 6003,
      "ta": 6004,
      "дмин": 6005,
      "зоо": 6006,
      "лөт": 6007,
      "##юдо": 6008,
      "##еро": 6009,
      "алак": 6010,
      "айна": 6011,
      "лабы": 6012,
      "умг": 6013,
      "##ууну": 6014,
      "елиши": 6015,
      "аид": 6016,
      "ухтар": 6017,
      "паки": 6018,
      "99": 6019,
      "дн": 6020,
      "зык": 6021,
      "рка": 6022,
      "роп": 6023,
      "тпай": 6024,
      "уйру": 6025,
      "шха": 6026,
      "улп": 6027,
      "ышка": 6028,
      "апка": 6029,
      "боору": 6030,
      "итан": 6031,
      "эро": 6032,
      "аңга": 6033,
      "алкак": 6034,
      "мдары": 6035,
      "no4": 6036,
      "140": 6037,
      "сени": 6038,
      "нүгүү": 6039,
      "93": 6040,
      "an": 6041,
      "cn": 6042,
      "do": 6043,
      "su": 6044,
      "дз": 6045,
      "пил": 6046,
      "юз": 6047,
      "ящ": 6048,
      "##se": 6049,
      "##ье": 6050,
      "ало": 6051,
      "анасы": 6052,
      "бах": 6053,
      "ырг": 6054,
      "комис": 6055,
      "илбей": 6056,
      "алиф": 6057,
      "иттер": 6058,
      "мдик": 6059,
      "лья": 6060,
      "ссёр": 6061,
      "ивер": 6062,
      "ткөнү": 6063,
      "марке": 6064,
      "92": 6065,
      "wh": 6066,
      "бары": 6067,
      "еге": 6068,
      "лир": 6069,
      "нку": 6070,
      "эв": 6071,
      "кот": 6072,
      "азды": 6073,
      "ашын": 6074,
      "ашоо": 6075,
      "импич": 6076,
      "үлү": 6077,
      "гондо": 6078,
      "оңу": 6079,
      "нанс": 6080,
      "пиа": 6081,
      "сср": 6082,
      "ива": 6083,
      "анкц": 6084,
      "үктөр": 6085,
      "ллеж": 6086,
      "##хаз": 6087,
      "hrw": 6088,
      "еат": 6089,
      "ема": 6090,
      "лев": 6091,
      "мум": 6092,
      "нсы": 6093,
      "нети": 6094,
      "шал": 6095,
      "шкөн": 6096,
      "шраф": 6097,
      "##жи": 6098,
      "ованы": 6099,
      "авел": 6100,
      "амдар": 6101,
      "ндр": 6102,
      "үмүн": 6103,
      "вив": 6104,
      "номер": 6105,
      "армо": 6106,
      "лой": 6107,
      "шту": 6108,
      "лдоо": 6109,
      "лена": 6110,
      "вест": 6111,
      "##ial": 6112,
      "##ork": 6113,
      "засын": 6114,
      "york": 6115,
      "рбей": 6116,
      "ялык": 6117,
      "##ны": 6118,
      "##бир": 6119,
      "##фт": 6120,
      "##цов": 6121,
      "##ерт": 6122,
      "анн": 6123,
      "гап": 6124,
      "ордер": 6125,
      "азган": 6126,
      "нег": 6127,
      "риле": 6128,
      "отряд": 6129,
      "өтөрү": 6130,
      "тайда": 6131,
      "мүл": 6132,
      "нол": 6133,
      "омат": 6134,
      "ози": 6135,
      "тм": 6136,
      "чала": 6137,
      "шым": 6138,
      "##урт": 6139,
      "оргон": 6140,
      "опо": 6141,
      "мато": 6142,
      "дыкат": 6143,
      "ктал": 6144,
      "аңыл": 6145,
      "отуру": 6146,
      "ванын": 6147,
      "разы": 6148,
      "боорд": 6149,
      "эркин": 6150,
      "what": 6151,
      "мүлк": 6152,
      "оу": 6153,
      "оме": 6154,
      "рта": 6155,
      "тээ": 6156,
      "уф": 6157,
      "атай": 6158,
      "аска": 6159,
      "ашка": 6160,
      "овар": 6161,
      "ырым": 6162,
      "лаур": 6163,
      "лант": 6164,
      "үлүк": 6165,
      "паж": 6166,
      "афах": 6167,
      "nex": 6168,
      "рдык": 6169,
      "ba": 6170,
      "xx": 6171,
      "зер": 6172,
      "пра": 6173,
      "алб": 6174,
      "турму": 6175,
      "элект": 6176,
      "талып": 6177,
      "ирик": 6178,
      "сибир": 6179,
      "ураб": 6180,
      "ибир": 6181,
      "угуна": 6182,
      "тылды": 6183,
      "став": 6184,
      "шиев": 6185,
      "sapp": 6186,
      "press": 6187,
      "cnn": 6188,
      "hi": 6189,
      "zer": 6190,
      "нге": 6191,
      "пен": 6192,
      "рына": 6193,
      "##кур": 6194,
      "##бли": 6195,
      "##зан": 6196,
      "##wi": 6197,
      "##ерг": 6198,
      "ише": 6199,
      "акса": 6200,
      "килем": 6201,
      "дара": 6202,
      "изме": 6203,
      "пайду": 6204,
      "дайы": 6205,
      "умше": 6206,
      "туб": 6207,
      "ибе": 6208,
      "штир": 6209,
      "риса": 6210,
      "sty": 6211,
      "энерг": 6212,
      "нолог": 6213,
      "wa": 6214,
      "виз": 6215,
      "ного": 6216,
      "уан": 6217,
      "фган": 6218,
      "шим": 6219,
      "яче": 6220,
      "##ич": 6221,
      "##de": 6222,
      "аруу": 6223,
      "абын": 6224,
      "мина": 6225,
      "көрг": 6226,
      "авт": 6227,
      "ушун": 6228,
      "вист": 6229,
      "ому": 6230,
      "тыры": 6231,
      "емпи": 6232,
      "ырас": 6233,
      "өлгө": 6234,
      "гунда": 6235,
      "аңгак": 6236,
      "шеним": 6237,
      "94": 6238,
      "има": 6239,
      "рме": 6240,
      "тп": 6241,
      "ыюу": 6242,
      "атте": 6243,
      "эль": 6244,
      "үзг": 6245,
      "еңе": 6246,
      "аажы": 6247,
      "рымда": 6248,
      "нисеф": 6249,
      "amne": 6250,
      "96": 6251,
      "91": 6252,
      "mo": 6253,
      "быш": 6254,
      "ыб": 6255,
      "##оло": 6256,
      "үнгөн": 6257,
      "##кем": 6258,
      "нем": 6259,
      "тре": 6260,
      "апы": 6261,
      "авло": 6262,
      "ейр": 6263,
      "ейтер": 6264,
      "агат": 6265,
      "рткан": 6266,
      "емир": 6267,
      "плак": 6268,
      "ешт": 6269,
      "очо": 6270,
      "eu": 6271,
      "pfi": 6272,
      "рот": 6273,
      "ыж": 6274,
      "##il": 6275,
      "ууч": 6276,
      "##кес": 6277,
      "ттин": 6278,
      "дерг": 6279,
      "аркын": 6280,
      "туз": 6281,
      "емеси": 6282,
      "арыны": 6283,
      "рунт": 6284,
      "вело": 6285,
      "идент": 6286,
      "тетин": 6287,
      "чабал": 6288,
      "media": 6289,
      "илег": 6290,
      "mat": 6291,
      "засы": 6292,
      "ңа": 6293,
      "##юк": 6294,
      "айне": 6295,
      "ургу": 6296,
      "ызык": 6297,
      "шайл": 6298,
      "уктун": 6299,
      "ыңа": 6300,
      "күлү": 6301,
      "згөрт": 6302,
      "бхаз": 6303,
      "вгу": 6304,
      "гим": 6305,
      "кпа": 6306,
      "рууну": 6307,
      "учу": 6308,
      "чка": 6309,
      "шыр": 6310,
      "ямин": 6311,
      "алына": 6312,
      "атер": 6313,
      "ууш": 6314,
      "асфа": 6315,
      "ыплас": 6316,
      "насы": 6317,
      "ашар": 6318,
      "ирек": 6319,
      "ттоо": 6320,
      "өнт": 6321,
      "нткен": 6322,
      "полк": 6323,
      "иңд": 6324,
      "##ene": 6325,
      "350": 6326,
      "ткөр": 6327,
      "вгуст": 6328,
      "аӊ": 6329,
      "вис": 6330,
      "еӊ": 6331,
      "нөр": 6332,
      "##од": 6333,
      "##kt": 6334,
      "##op": 6335,
      "айбыз": 6336,
      "оре": 6337,
      "асир": 6338,
      "ная": 6339,
      "күсү": 6340,
      "лифи": 6341,
      "имдин": 6342,
      "актёр": 6343,
      "нит": 6344,
      "ндей": 6345,
      "икс": 6346,
      "ктары": 6347,
      "өсү": 6348,
      "осни": 6349,
      "угун": 6350,
      "публи": 6351,
      "оонун": 6352,
      "ахрир": 6353,
      "la": 6354,
      "##дк": 6355,
      "##ру": 6356,
      "##нак": 6357,
      "##вт": 6358,
      "##rp": 6359,
      "арпа": 6360,
      "##еке": 6361,
      "капа": 6362,
      "көг": 6363,
      "асул": 6364,
      "азал": 6365,
      "ыйыл": 6366,
      "амду": 6367,
      "өрг": 6368,
      "оберт": 6369,
      "ымын": 6370,
      "ахман": 6371,
      "угар": 6372,
      "аянд": 6373,
      "ооке": 6374,
      "аршав": 6375,
      "tech": 6376,
      "шыкт": 6377,
      "nik": 6378,
      "львов": 6379,
      "еттен": 6380,
      "авлод": 6381,
      "sc": 6382,
      "лги": 6383,
      "шпе": 6384,
      "##вит": 6385,
      "гант": 6386,
      "абу": 6387,
      "улло": 6388,
      "уро": 6389,
      "етки": 6390,
      "доха": 6391,
      "дүйш": 6392,
      "нүкт": 6393,
      "ылдый": 6394,
      "##мос": 6395,
      "бокс": 6396,
      "емасы": 6397,
      "ногой": 6398,
      "ейрут": 6399,
      "ези": 6400,
      "лку": 6401,
      "мс": 6402,
      "нци": 6403,
      "пами": 6404,
      "рине": 6405,
      "цз": 6406,
      "ьет": 6407,
      "юп": 6408,
      "##эк": 6409,
      "##cc": 6410,
      "анга": 6411,
      "ардан": 6412,
      "жазуу": 6413,
      "рест": 6414,
      "риа": 6415,
      "ниве": 6416,
      "уулд": 6417,
      "моди": 6418,
      "сүрө": 6419,
      "мира": 6420,
      "есине": 6421,
      "чурка": 6422,
      "клан": 6423,
      "ылыкт": 6424,
      "ртем": 6425,
      "этнос": 6426,
      "номур": 6427,
      "мдиги": 6428,
      "аттес": 6429,
      "dia": 6430,
      "mb": 6431,
      "si": 6432,
      "вд": 6433,
      "йү": 6434,
      "чик": 6435,
      "шоо": 6436,
      "##уж": 6437,
      "##ят": 6438,
      "арим": 6439,
      "ынак": 6440,
      "инк": 6441,
      "окур": 6442,
      "уштар": 6443,
      "саб": 6444,
      "арыб": 6445,
      "реже": 6446,
      "тоют": 6447,
      "үмдө": 6448,
      "артты": 6449,
      "рганы": 6450,
      "160": 6451,
      "astra": 6452,
      "лгиле": 6453,
      "un": 6454,
      "zene": 6455,
      "рок": 6456,
      "рдик": 6457,
      "##us": 6458,
      "анду": 6459,
      "аным": 6460,
      "стал": 6461,
      "кызд": 6462,
      "лууну": 6463,
      "амзан": 6464,
      "мурд": 6465,
      "тоң": 6466,
      "өндү": 6467,
      "раж": 6468,
      "нота": 6469,
      "ктяб": 6470,
      "##емя": 6471,
      "емен": 6472,
      "лдөр": 6473,
      "этти": 6474,
      "шоу": 6475,
      "веб": 6476,
      "фавит": 6477,
      "нски": 6478,
      "иммун": 6479,
      "next": 6480,
      "зып": 6481,
      "лман": 6482,
      "ома": 6483,
      "ппа": 6484,
      "рсе": 6485,
      "тс": 6486,
      "цив": 6487,
      "шөт": 6488,
      "шпай": 6489,
      "##яз": 6490,
      "аркар": 6491,
      "иннов": 6492,
      "үчт": 6493,
      "түшкө": 6494,
      "адина": 6495,
      "##рид": 6496,
      "ечим": 6497,
      "net": 6498,
      "##ina": 6499,
      "время": 6500,
      "сфана": 6501,
      "ккм": 6502,
      "89": 6503,
      "аасы": 6504,
      "вра": 6505,
      "шап": 6506,
      "##so": 6507,
      "неп": 6508,
      "лорун": 6509,
      "ентке": 6510,
      "гру": 6511,
      "түнө": 6512,
      "зав": 6513,
      "жабд": 6514,
      "пуля": 6515,
      "пакет": 6516,
      "урпак": 6517,
      "uz": 6518,
      "өгөн": 6519,
      "алик": 6520,
      "ство": 6521,
      "ырба": 6522,
      "талг": 6523,
      "генц": 6524,
      "ызда": 6525,
      "опурт": 6526,
      "утун": 6527,
      "баки": 6528,
      "толго": 6529,
      "урах": 6530,
      "есси": 6531,
      "узаху": 6532,
      "олитк": 6533,
      "##пед": 6534,
      "дзюдо": 6535,
      "goo": 6536,
      "nc": 6537,
      "гла": 6538,
      "шине": 6539,
      "юм": 6540,
      "##кин": 6541,
      "##хар": 6542,
      "чеб": 6543,
      "дина": 6544,
      "ыйыт": 6545,
      "ирил": 6546,
      "сист": 6547,
      "ымал": 6548,
      "сомдо": 6549,
      "рота": 6550,
      "ептер": 6551,
      "үзгөн": 6552,
      "##mar": 6553,
      "bo": 6554,
      "gle": 6555,
      "естан": 6556,
      "йлар": 6557,
      "лтүр": 6558,
      "мран": 6559,
      "руш": 6560,
      "рты": 6561,
      "тв": 6562,
      "штү": 6563,
      "##жу": 6564,
      "##чк": 6565,
      "##ti": 6566,
      "алта": 6567,
      "оркес": 6568,
      "акета": 6569,
      "##ева": 6570,
      "тота": 6571,
      "рабы": 6572,
      "бода": 6573,
      "конст": 6574,
      "под": 6575,
      "үздү": 6576,
      "тизм": 6577,
      "тиви": 6578,
      "алымд": 6579,
      "татт": 6580,
      "мора": 6581,
      "рахма": 6582,
      "амира": 6583,
      "иверс": 6584,
      "en": 6585,
      "is": 6586,
      "дра": 6587,
      "кэ": 6588,
      "кэр": 6589,
      "лору": 6590,
      "лика": 6591,
      "лдү": 6592,
      "##дл": 6593,
      "тиц": 6594,
      "шаг": 6595,
      "төп": 6596,
      "тоодо": 6597,
      "үздө": 6598,
      "елеч": 6599,
      "осун": 6600,
      "рслан": 6601,
      "атема": 6602,
      "неско": 6603,
      "улпук": 6604,
      "cent": 6605,
      "вде": 6606,
      "мдо": 6607,
      "налы": 6608,
      "рук": 6609,
      "чоро": 6610,
      "ңир": 6611,
      "стар": 6612,
      "пред": 6613,
      "олк": 6614,
      "уша": 6615,
      "ымы": 6616,
      "исин": 6617,
      "көндө": 6618,
      "антин": 6619,
      "озу": 6620,
      "аасын": 6621,
      "арид": 6622,
      "очул": 6623,
      "рланд": 6624,
      "зоок": 6625,
      "крит": 6626,
      "несин": 6627,
      "mi": 6628,
      "гис": 6629,
      "кку": 6630,
      "нүк": 6631,
      "тана": 6632,
      "цин": 6633,
      "чоку": 6634,
      "##ad": 6635,
      "дашы": 6636,
      "сток": 6637,
      "ури": 6638,
      "урус": 6639,
      "амара": 6640,
      "оос": 6641,
      "өргө": 6642,
      "келб": 6643,
      "өөсүн": 6644,
      "исси": 6645,
      "үшүн": 6646,
      "утта": 6647,
      "тилк": 6648,
      "табыз": 6649,
      "бакта": 6650,
      "тири": 6651,
      "сант": 6652,
      "льга": 6653,
      "bion": 6654,
      "агатэ": 6655,
      "вай": 6656,
      "гыз": 6657,
      "кке": 6658,
      "лге": 6659,
      "сса": 6660,
      "тке": 6661,
      "шпа": 6662,
      "##чак": 6663,
      "кого": 6664,
      "##ила": 6665,
      "апит": 6666,
      "амала": 6667,
      "шаа": 6668,
      "ойт": 6669,
      "имо": 6670,
      "жел": 6671,
      "жей": 6672,
      "умун": 6673,
      "туде": 6674,
      "роман": 6675,
      "үзүү": 6676,
      "елеви": 6677,
      "орос": 6678,
      "рант": 6679,
      "марк": 6680,
      "рейс": 6681,
      "лавян": 6682,
      "елоси": 6683,
      "тпөй": 6684,
      "зде": 6685,
      "мөө": 6686,
      "уси": 6687,
      "шиш": 6688,
      "шүнө": 6689,
      "##хо": 6690,
      "##me": 6691,
      "##ga": 6692,
      "айчы": 6693,
      "орит": 6694,
      "башт": 6695,
      "чех": 6696,
      "элтр": 6697,
      "олла": 6698,
      "тына": 6699,
      "жазг": 6700,
      "чака": 6701,
      "ктү": 6702,
      "елеф": 6703,
      "көлү": 6704,
      "орозо": 6705,
      "175": 6706,
      "зодл": 6707,
      "##all": 6708,
      "sput": 6709,
      "kakt": 6710,
      "post": 6711,
      "пилот": 6712,
      "ha": 6713,
      "вен": 6714,
      "зүп": 6715,
      "идө": 6716,
      "йта": 6717,
      "лүм": 6718,
      "мвт": 6719,
      "пү": 6720,
      "тия": 6721,
      "алина": 6722,
      "анжар": 6723,
      "када": 6724,
      "орват": 6725,
      "еру": 6726,
      "непр": 6727,
      "аяр": 6728,
      "еверо": 6729,
      "##яни": 6730,
      "ринен": 6731,
      "өшү": 6732,
      "стема": 6733,
      "вада": 6734,
      "юнча": 6735,
      "inst": 6736,
      "ермет": 6737,
      "ондун": 6738,
      "осту": 6739,
      "asso": 6740,
      "циви": 6741,
      "gm": 6742,
      "зду": 6743,
      "икар": 6744,
      "рден": 6745,
      "усе": 6746,
      "##da": 6747,
      "##ата": 6748,
      "##ино": 6749,
      "индик": 6750,
      "стип": 6751,
      "ылай": 6752,
      "араби": 6753,
      "нид": 6754,
      "уюмда": 6755,
      "октон": 6756,
      "раса": 6757,
      "рту": 6758,
      "ахат": 6759,
      "аалда": 6760,
      "170": 6761,
      "екаб": 6762,
      "ciat": 6763,
      "днк": 6764,
      "оритм": 6765,
      "стипе": 6766,
      "occ": 6767,
      "ra": 6768,
      "tra": 6769,
      "жө": 6770,
      "йр": 6771,
      "мала": 6772,
      "ртур": 6773,
      "шүг": 6774,
      "яй": 6775,
      "##ой": 6776,
      "айя": 6777,
      "орда": 6778,
      "ерип": 6779,
      "ериси": 6780,
      "улин": 6781,
      "при": 6782,
      "тиле": 6783,
      "ето": 6784,
      "ырак": 6785,
      "шад": 6786,
      "актын": 6787,
      "умкар": 6788,
      "антта": 6789,
      "ураху": 6790,
      "зияда": 6791,
      "рууга": 6792,
      "ельта": 6793,
      "анышы": 6794,
      "occrp": 6795,
      "дюс": 6796,
      "йдан": 6797,
      "лбей": 6798,
      "рум": 6799,
      "яба": 6800,
      "##вд": 6801,
      "##бр": 6802,
      "дасы": 6803,
      "атто": 6804,
      "гасы": 6805,
      "карга": 6806,
      "ерл": 6807,
      "ерни": 6808,
      "етме": 6809,
      "баэ": 6810,
      "күз": 6811,
      "ырда": 6812,
      "сипед": 6813,
      "ачкы": 6814,
      "төш": 6815,
      "леге": 6816,
      "##ейт": 6817,
      "аталь": 6818,
      "cov": 6819,
      "росс": 6820,
      "тылып": 6821,
      "монт": 6822,
      "йылд": 6823,
      "гуля": 6824,
      "260": 6825,
      "вето": 6826,
      "tik": 6827,
      "йнер": 6828,
      "увейт": 6829,
      "шериг": 6830,
      "лира": 6831,
      "himar": 6832,
      "бж": 6833,
      "еба": 6834,
      "лка": 6835,
      "пте": 6836,
      "айб": 6837,
      "##дит": 6838,
      "ирб": 6839,
      "илүү": 6840,
      "тани": 6841,
      "гри": 6842,
      "плюс": 6843,
      "огот": 6844,
      "аалим": 6845,
      "веде": 6846,
      "шуусу": 6847,
      "йылда": 6848,
      "рсула": 6849,
      "##erg": 6850,
      "ллион": 6851,
      "үлүкт": 6852,
      "врач": 6853,
      "аара": 6854,
      "аиси": 6855,
      "елге": 6856,
      "ои": 6857,
      "эте": 6858,
      "ям": 6859,
      "айм": 6860,
      "ког": 6861,
      "берүү": 6862,
      "неф": 6863,
      "амин": 6864,
      "ичин": 6865,
      "рига": 6866,
      "номин": 6867,
      "умд": 6868,
      "аштан": 6869,
      "зад": 6870,
      "450": 6871,
      "ралд": 6872,
      "iii": 6873,
      "bloo": 6874,
      "gu": 6875,
      "бс": 6876,
      "ейин": 6877,
      "еши": 6878,
      "оти": 6879,
      "айби": 6880,
      "анжа": 6881,
      "унган": 6882,
      "абас": 6883,
      "укса": 6884,
      "онду": 6885,
      "апык": 6886,
      "евди": 6887,
      "актык": 6888,
      "захар": 6889,
      "кагыл": 6890,
      "лина": 6891,
      "кгб": 6892,
      "шейх": 6893,
      "cha": 6894,
      "урбан": 6895,
      "tok": 6896,
      "шахма": 6897,
      "непро": 6898,
      "дюсер": 6899,
      "gr": 6900,
      "pa": 6901,
      "аге": 6902,
      "бб": 6903,
      "диз": 6904,
      "ечү": 6905,
      "йра": 6906,
      "ыкер": 6907,
      "##нал": 6908,
      "##они": 6909,
      "аксы": 6910,
      "унг": 6911,
      "сох": 6912,
      "неге": 6913,
      "дист": 6914,
      "сотту": 6915,
      "обяни": 6916,
      "нтон": 6917,
      "мег": 6918,
      "расс": 6919,
      "ктери": 6920,
      "ковду": 6921,
      "no5": 6922,
      "игнал": 6923,
      "штей": 6924,
      "rnal": 6925,
      "vii": 6926,
      "шаки": 6927,
      "mberg": 6928,
      "яйен": 6929,
      "jou": 6930,
      "ss": 6931,
      "se": 6932,
      "xvi": 6933,
      "еше": 6934,
      "зуу": 6935,
      "здер": 6936,
      "кдк": 6937,
      "нчү": 6938,
      "рлык": 6939,
      "уар": 6940,
      "фен": 6941,
      "ягы": 6942,
      "өгүн": 6943,
      "##пер": 6944,
      "##ie": 6945,
      "айыш": 6946,
      "ердар": 6947,
      "магын": 6948,
      "абс": 6949,
      "улум": 6950,
      "енес": 6951,
      "узу": 6952,
      "экспе": 6953,
      "оңд": 6954,
      "озеп": 6955,
      "акшны": 6956,
      "чач": 6957,
      "рмия": 6958,
      "ырах": 6959,
      "еңил": 6960,
      "ешик": 6961,
      "ракта": 6962,
      "тылат": 6963,
      "ыяс": 6964,
      "ктиги": 6965,
      "##oup": 6966,
      "аамай": 6967,
      "йыпт": 6968,
      "ежи": 6969,
      "перац": 6970,
      "gmt": 6971,
      "аун": 6972,
      "аут": 6973,
      "бык": 6974,
      "ккө": 6975,
      "лсо": 6976,
      "мбу": 6977,
      "пек": 6978,
      "рду": 6979,
      "удин": 6980,
      "##кат": 6981,
      "##эй": 6982,
      "##бт": 6983,
      "##ot": 6984,
      "ылары": 6985,
      "мино": 6986,
      "изг": 6987,
      "өнүн": 6988,
      "вита": 6989,
      "аңги": 6990,
      "##вах": 6991,
      "килов": 6992,
      "аратк": 6993,
      "мола": 6994,
      "нфо": 6995,
      "рийне": 6996,
      "230": 6997,
      "тишт": 6998,
      "акед": 6999,
      "уэла": 7000,
      "йлана": 7001,
      "омас": 7002,
      "che": 7003,
      "el": 7004,
      "sin": 7005,
      "дүр": 7006,
      "жчк": 7007,
      "зуп": 7008,
      "нус": 7009,
      "ралы": 7010,
      "тко": 7011,
      "яг": 7012,
      "##др": 7013,
      "##кс": 7014,
      "##id": 7015,
      "##ter": 7016,
      "арис": 7017,
      "анбе": 7018,
      "ишу": 7019,
      "тая": 7020,
      "кипр": 7021,
      "аппа": 7022,
      "шага": 7023,
      "ттук": 7024,
      "ние": 7025,
      "115": 7026,
      "ыгыны": 7027,
      "кчан": 7028,
      "stre": 7029,
      "ngt": 7030,
      "insta": 7031,
      "здөө": 7032,
      "кнын": 7033,
      "ппо": 7034,
      "сло": 7035,
      "шари": 7036,
      "ых": 7037,
      "##зы": 7038,
      "орло": 7039,
      "наг": 7040,
      "эмки": 7041,
      "тие": 7042,
      "ийкем": 7043,
      "рец": 7044,
      "келер": 7045,
      "асыя": 7046,
      "уюмун": 7047,
      "епт": 7048,
      "лыс": 7049,
      "росси": 7050,
      "ранын": 7051,
      "едел": 7052,
      "усту": 7053,
      "##arm": 7054,
      "##ree": 7055,
      "лгбт": 7056,
      "сфара": 7057,
      "идиш": 7058,
      "##shi": 7059,
      "ak": 7060,
      "бен": 7061,
      "еали": 7062,
      "кса": 7063,
      "нси": 7064,
      "нбе": 7065,
      "эже": 7066,
      "ёв": 7067,
      "##рам": 7068,
      "##ос": 7069,
      "инай": 7070,
      "ерия": 7071,
      "тууда": 7072,
      "өзөм": 7073,
      "стер": 7074,
      "окм": 7075,
      "олат": 7076,
      "ойку": 7077,
      "жаңыл": 7078,
      "раси": 7079,
      "сизо": 7080,
      "тилд": 7081,
      "нөл": 7082,
      "жайла": 7083,
      "этин": 7084,
      "жож": 7085,
      "усуб": 7086,
      "агыла": 7087,
      "амиля": 7088,
      "нейт": 7089,
      "глаз": 7090,
      "group": 7091,
      "еалии": 7092,
      "ax": 7093,
      "for": 7094,
      "free": 7095,
      "id": 7096,
      "жыш": 7097,
      "йде": 7098,
      "йне": 7099,
      "лж": 7100,
      "мч": 7101,
      "миз": 7102,
      "рку": 7103,
      "##ад": 7104,
      "##ms": 7105,
      "##ei": 7106,
      "##цак": 7107,
      "##яр": 7108,
      "##ена": 7109,
      "айон": 7110,
      "##үнд": 7111,
      "##ори": 7112,
      "иштер": 7113,
      "уум": 7114,
      "ияд": 7115,
      "ыпчак": 7116,
      "ылан": 7117,
      "ове": 7118,
      "неги": 7119,
      "тыг": 7120,
      "енне": 7121,
      "лаф": 7122,
      "обол": 7123,
      "ница": 7124,
      "екин": 7125,
      "рой": 7126,
      "робо": 7127,
      "ратып": 7128,
      "ксен": 7129,
      "125": 7130,
      "137": 7131,
      "марат": 7132,
      "уңкур": 7133,
      "220": 7134,
      "шамы": 7135,
      "абылг": 7136,
      "gold": 7137,
      "washi": 7138,
      "hou": 7139,
      "ja": 7140,
      "жик": 7141,
      "лүшү": 7142,
      "оми": 7143,
      "пц": 7144,
      "пь": 7145,
      "фтан": 7146,
      "алкар": 7147,
      "ару": 7148,
      "кесе": 7149,
      "андит": 7150,
      "атпа": 7151,
      "##кти": 7152,
      "акуп": 7153,
      "жаат": 7154,
      "калга": 7155,
      "денд": 7156,
      "ыйк": 7157,
      "олс": 7158,
      "саг": 7159,
      "иман": 7160,
      "боб": 7161,
      "алаба": 7162,
      "расын": 7163,
      "чоӊ": 7164,
      "ажаб": 7165,
      "ртык": 7166,
      "##рос": 7167,
      "полис": 7168,
      "ооло": 7169,
      "ахре": 7170,
      "анага": 7171,
      "манын": 7172,
      "амаза": 7173,
      "рилге": 7174,
      "118": 7175,
      "псула": 7176,
      "квор": 7177,
      "удап": 7178,
      "кбар": 7179,
      "өйү": 7180,
      "чарба": 7181,
      "ынтык": 7182,
      "xix": 7183,
      "визит": 7184,
      "gen": 7185,
      "wor": 7186,
      "wall": 7187,
      "бли": 7188,
      "вро": 7189,
      "ите": 7190,
      "ила": 7191,
      "пап": 7192,
      "ргү": 7193,
      "шок": 7194,
      "ңе": 7195,
      "##na": 7196,
      "##ft": 7197,
      "##ww": 7198,
      "анкер": 7199,
      "атма": 7200,
      "тах": 7201,
      "орни": 7202,
      "##ово": 7203,
      "ирке": 7204,
      "ирээ": 7205,
      "амши": 7206,
      "оллар": 7207,
      "елб": 7208,
      "маты": 7209,
      "бейп": 7210,
      "макка": 7211,
      "емб": 7212,
      "оюш": 7213,
      "өшкө": 7214,
      "лапт": 7215,
      "аяны": 7216,
      "орош": 7217,
      "шыбы": 7218,
      "мушту": 7219,
      "аудит": 7220,
      "offi": 7221,
      "min": 7222,
      "дже": 7223,
      "иана": 7224,
      "кпо": 7225,
      "лба": 7226,
      "тч": 7227,
      "чүр": 7228,
      "##юм": 7229,
      "##cy": 7230,
      "аран": 7231,
      "атмос": 7232,
      "орм": 7233,
      "##ето": 7234,
      "ерман": 7235,
      "абыш": 7236,
      "абит": 7237,
      "ыйр": 7238,
      "гей": 7239,
      "керт": 7240,
      "ирзо": 7241,
      "лаз": 7242,
      "лий": 7243,
      "убси": 7244,
      "топч": 7245,
      "туар": 7246,
      "утат": 7247,
      "руд": 7248,
      "үзүнд": 7249,
      "синд": 7250,
      "манды": 7251,
      "лыжа": 7252,
      "машин": 7253,
      "кран": 7254,
      "үлдөр": 7255,
      "трав": 7256,
      "накай": 7257,
      "нжер": 7258,
      "андыг": 7259,
      "йыпта": 7260,
      "тозок": 7261,
      "асалг": 7262,
      "ьево": 7263,
      "шымк": 7264,
      "ббас": 7265,
      "кпост": 7266,
      "ns": 7267,
      "rk": 7268,
      "еул": 7269,
      "куш": 7270,
      "оце": 7271,
      "паг": 7272,
      "хун": 7273,
      "ъе": 7274,
      "ывах": 7275,
      "##ss": 7276,
      "##ca": 7277,
      "##дат": 7278,
      "арса": 7279,
      "атцак": 7280,
      "уло": 7281,
      "кали": 7282,
      "етон": 7283,
      "байд": 7284,
      "ийр": 7285,
      "кенде": 7286,
      "сая": 7287,
      "шаң": 7288,
      "ызг": 7289,
      "риши": 7290,
      "көзд": 7291,
      "екч": 7292,
      "адаг": 7293,
      "луата": 7294,
      "арига": 7295,
      "азая": 7296,
      "емел": 7297,
      "енед": 7298,
      "ваз": 7299,
      "ядр": 7300,
      "gov": 7301,
      "дизел": 7302,
      "world": 7303,
      "iv": 7304,
      "rt": 7305,
      "tter": 7306,
      "usa": 7307,
      "wi": 7308,
      "аама": 7309,
      "быр": 7310,
      "ийин": 7311,
      "ным": 7312,
      "рян": 7313,
      "хсан": 7314,
      "чкан": 7315,
      "ыян": 7316,
      "##ka": 7317,
      "##зги": 7318,
      "атас": 7319,
      "гас": 7320,
      "ылы": 7321,
      "ырк": 7322,
      "ирин": 7323,
      "апыр": 7324,
      "учич": 7325,
      "күнө": 7326,
      "имиш": 7327,
      "риф": 7328,
      "желе": 7329,
      "алады": 7330,
      "ээнб": 7331,
      "ксф": 7332,
      "крам": 7333,
      "750": 7334,
      "жыра": 7335,
      "ard": 7336,
      "страц": 7337,
      "ga": 7338,
      "ho": 7339,
      "twi": 7340,
      "зай": 7341,
      "зыр": 7342,
      "лч": 7343,
      "мери": 7344,
      "мпо": 7345,
      "##рт": 7346,
      "атан": 7347,
      "инет": 7348,
      "түт": 7349,
      "тео": 7350,
      "енси": 7351,
      "амды": 7352,
      "мите": 7353,
      "ими": 7354,
      "ейте": 7355,
      "мезги": 7356,
      "елен": 7357,
      "ыйынд": 7358,
      "ктору": 7359,
      "торун": 7360,
      "такт": 7361,
      "емп": 7362,
      "ахти": 7363,
      "койго": 7364,
      "##жах": 7365,
      "мания": 7366,
      "өпчү": 7367,
      "шииб": 7368,
      "ативд": 7369,
      "рянск": 7370,
      "by": 7371,
      "cial": 7372,
      "ovid": 7373,
      "зур": 7374,
      "ижан": 7375,
      "йо": 7376,
      "йма": 7377,
      "лдө": 7378,
      "тум": 7379,
      "##si": 7380,
      "##fa": 7381,
      "##fe": 7382,
      "##ью": 7383,
      "алпы": 7384,
      "айду": 7385,
      "##улу": 7386,
      "акып": 7387,
      "улун": 7388,
      "терр": 7389,
      "араза": 7390,
      "реб": 7391,
      "имге": 7392,
      "нүнө": 7393,
      "рави": 7394,
      "елбе": 7395,
      "лганы": 7396,
      "епки": 7397,
      "ттагы": 7398,
      "cop": 7399,
      "no6": 7400,
      "позит": 7401,
      "чабуу": 7402,
      "тозот": 7403,
      "no47": 7404,
      "ерниг": 7405,
      "еннед": 7406,
      "house": 7407,
      "ирээт": 7408,
      "fina": 7409,
      "гуз": 7410,
      "кси": 7411,
      "кци": 7412,
      "мст": 7413,
      "нта": 7414,
      "ржан": 7415,
      "ссо": 7416,
      "шри": 7417,
      "шму": 7418,
      "эни": 7419,
      "яс": 7420,
      "##өб": 7421,
      "##лин": 7422,
      "##lu": 7423,
      "##ya": 7424,
      "ану": 7425,
      "иналы": 7426,
      "ерно": 7427,
      "даро": 7428,
      "гел": 7429,
      "тыва": 7430,
      "аяз": 7431,
      "үрг": 7432,
      "онна": 7433,
      "апт": 7434,
      "миним": 7435,
      "ниг": 7436,
      "опе": 7437,
      "грин": 7438,
      "чаң": 7439,
      "пага": 7440,
      "уралд": 7441,
      "ксп": 7442,
      "нышты": 7443,
      "лица": 7444,
      "шире": 7445,
      "ялары": 7446,
      "чтеке": 7447,
      "ийрим": 7448,
      "ip": 7449,
      "йды": 7450,
      "йдын": 7451,
      "ясын": 7452,
      "ёр": 7453,
      "##ek": 7454,
      "ерк": 7455,
      "асср": 7456,
      "азиз": 7457,
      "уржу": 7458,
      "ыркы": 7459,
      "ирг": 7460,
      "аптуу": 7461,
      "ызд": 7462,
      "рииб": 7463,
      "раба": 7464,
      "опум": 7465,
      "ахим": 7466,
      "чөлөр": 7467,
      "педо": 7468,
      "пейи": 7469,
      "спид": 7470,
      "650": 7471,
      "поэма": 7472,
      "лбайт": 7473,
      "dom": 7474,
      "matы": 7475,
      "отив": 7476,
      "\",": 7477,
      "аур": 7478,
      "дда": 7479,
      "игин": 7480,
      "йжан": 7481,
      "лде": 7482,
      "нэ": 7483,
      "пло": 7484,
      "рли": 7485,
      "шары": 7486,
      "##рон": 7487,
      "##лов": 7488,
      "ках": 7489,
      "##ора": 7490,
      "таа": 7491,
      "##сто": 7492,
      "кары": 7493,
      "жатта": 7494,
      "ерги": 7495,
      "ермин": 7496,
      "териш": 7497,
      "неме": 7498,
      "авай": 7499,
      "лиф": 7500,
      "ейит": 7501,
      "алих": 7502,
      "гроз": 7503,
      "бид": 7504,
      "##ээл": 7505,
      "ахма": 7506,
      "тынчт": 7507,
      "айгак": 7508,
      "аалд": 7509,
      "аргам": 7510,
      "ольк": 7511,
      "рсал": 7512,
      "амила": 7513,
      "икит": 7514,
      "сталь": 7515,
      "ki": 7516,
      "басы": 7517,
      "далы": 7518,
      "оле": 7519,
      "сери": 7520,
      "эӊ": 7521,
      "##яж": 7522,
      "арв": 7523,
      "аркан": 7524,
      "арья": 7525,
      "айыз": 7526,
      "болго": 7527,
      "ерил": 7528,
      "ерце": 7529,
      "жаа": 7530,
      "үчү": 7531,
      "##еса": 7532,
      "енева": 7533,
      "тикт": 7534,
      "ндыр": 7535,
      "ыза": 7536,
      "рац": 7537,
      "ниц": 7538,
      "ниги": 7539,
      "##яби": 7540,
      "оопту": 7541,
      "итлер": 7542,
      "ной": 7543,
      "тышка": 7544,
      "утман": 7545,
      "105": 7546,
      "102": 7547,
      "кыны": 7548,
      "арход": 7549,
      "одол": 7550,
      "касын": 7551,
      "ечер": 7552,
      "190": 7553,
      "афа": 7554,
      "рдеги": 7555,
      "kaz": 7556,
      "шишик": 7557,
      "пцр": 7558,
      "ерцег": 7559,
      "mon": 7560,
      "op": 7561,
      "omi": 7562,
      "sia": 7563,
      "дору": 7564,
      "един": 7565,
      "мде": 7566,
      "фо": 7567,
      "шур": 7568,
      "ылг": 7569,
      "якта": 7570,
      "##ii": 7571,
      "##di": 7572,
      "алх": 7573,
      "анак": 7574,
      "##лей": 7575,
      "ормал": 7576,
      "аборт": 7577,
      "укул": 7578,
      "үнөө": 7579,
      "бага": 7580,
      "амда": 7581,
      "изел": 7582,
      "өрд": 7583,
      "ттор": 7584,
      "ымкат": 7585,
      "чыла": 7586,
      "елуж": 7587,
      "дейре": 7588,
      "ргени": 7589,
      "утрк": 7590,
      "омик": 7591,
      "тоод": 7592,
      "исича": 7593,
      "епке": 7594,
      "урага": 7595,
      "ургат": 7596,
      "ариб": 7597,
      "ухара": 7598,
      "ургаб": 7599,
      "эвф": 7600,
      "вести": 7601,
      "ncial": 7602,
      "кэдр": 7603,
      "здуг": 7604,
      "усей": 7605,
      "usaid": 7606,
      "ny": 7607,
      "ow": 7608,
      "va": 7609,
      "ver": 7610,
      "гл": 7611,
      "йгө": 7612,
      "шчу": 7613,
      "ялар": 7614,
      "өңүл": 7615,
      "##нат": 7616,
      "##ba": 7617,
      "##ён": 7618,
      "##цо": 7619,
      "алу": 7620,
      "арас": 7621,
      "анта": 7622,
      "канды": 7623,
      "ази": 7624,
      "тиби": 7625,
      "##ови": 7626,
      "сабо": 7627,
      "жакы": 7628,
      "лич": 7629,
      "ндекс": 7630,
      "отан": 7631,
      "басар": 7632,
      "пант": 7633,
      "майер": 7634,
      "##риг": 7635,
      "рттер": 7636,
      "елес": 7637,
      "фифа": 7638,
      "ациял": 7639,
      "ессе": 7640,
      "114": 7641,
      "олид": 7642,
      "бляз": 7643,
      "ирзие": 7644,
      "360": 7645,
      "трац": 7646,
      "fact": 7647,
      "asia": 7648,
      "eura": 7649,
      "стокг": 7650,
      "етоди": 7651,
      "зурпа": 7652,
      "өрдүн": 7653,
      "bal": 7654,
      "ky": 7655,
      "ren": 7656,
      "лти": 7657,
      "мми": 7658,
      "пкин": 7659,
      "рар": 7660,
      "ртип": 7661,
      "хх": 7662,
      "эп": 7663,
      "##co": 7664,
      "##ьз": 7665,
      "котт": 7666,
      "##ург": 7667,
      "абына": 7668,
      "окр": 7669,
      "ышык": 7670,
      "лах": 7671,
      "ийиш": 7672,
      "ызды": 7673,
      "рдак": 7674,
      "радан": 7675,
      "нтр": 7676,
      "артын": 7677,
      "ектер": 7678,
      "итар": 7679,
      "агари": 7680,
      "роб": 7681,
      "ликти": 7682,
      "ашид": 7683,
      "дата": 7684,
      "реку": 7685,
      "змир": 7686,
      "терео": 7687,
      "крет": 7688,
      "cat": 7689,
      "афар": 7690,
      "240": 7691,
      "риман": 7692,
      "star": 7693,
      "урдур": 7694,
      "арльз": 7695,
      "лесни": 7696,
      "org": 7697,
      "pro": 7698,
      "ндиги": 7699,
      "венг": 7700,
      "check": 7701,
      "bel": 7702,
      "der": 7703,
      "nt": 7704,
      "ph": 7705,
      "rg": 7706,
      "www": 7707,
      "втан": 7708,
      "дсу": 7709,
      "ито": 7710,
      "йду": 7711,
      "йтап": 7712,
      "лн": 7713,
      "оке": 7714,
      "рф": 7715,
      "ңда": 7716,
      "##цк": 7717,
      "арко": 7718,
      "##ули": 7719,
      "берт": 7720,
      "кетин": 7721,
      "прид": 7722,
      "калуу": 7723,
      "барг": 7724,
      "енера": 7725,
      "ирза": 7726,
      "онс": 7727,
      "оод": 7728,
      "упян": 7729,
      "нодар": 7730,
      "өмөн": 7731,
      "ктоо": 7732,
      "руху": 7733,
      "епа": 7734,
      "пав": 7735,
      "лос": 7736,
      "лоте": 7737,
      "штин": 7738,
      "лдун": 7739,
      "этт": 7740,
      "155": 7741,
      "усун": 7742,
      "архат": 7743,
      "клас": 7744,
      "фина": 7745,
      "one": 7746,
      "850": 7747,
      "ропо": 7748,
      "xxi": 7749,
      "нефте": 7750,
      "аксыт": 7751,
      "bu": 7752,
      "glo": 7753,
      "жим": 7754,
      "зник": 7755,
      "йге": 7756,
      "лсе": 7757,
      "лсу": 7758,
      "оӊ": 7759,
      "рдан": 7760,
      "рно": 7761,
      "цой": 7762,
      "шве": 7763,
      "өсө": 7764,
      "##ез": 7765,
      "##как": 7766,
      "##чык": 7767,
      "##za": 7768,
      "##анж": 7769,
      "арин": 7770,
      "арик": 7771,
      "айж": 7772,
      "орку": 7773,
      "уугу": 7774,
      "айти": 7775,
      "нац": 7776,
      "ырмал": 7777,
      "иркел": 7778,
      "беки": 7779,
      "олт": 7780,
      "атаң": 7781,
      "иллер": 7782,
      "өөгү": 7783,
      "адрид": 7784,
      "ное": 7785,
      "сайп": 7786,
      "оруна": 7787,
      "полит": 7788,
      "106": 7789,
      "103": 7790,
      "вока": 7791,
      "ивд": 7792,
      "элиза": 7793,
      "145": 7794,
      "люкс": 7795,
      "ролев": 7796,
      "ңгээл": 7797,
      "шыпы": 7798,
      "210": 7799,
      "280": 7800,
      "нсул": 7801,
      "гарри": 7802,
      "рикс": 7803,
      "нвест": 7804,
      "мумин": 7805,
      "ыбын": 7806,
      "аӊы": 7807,
      "..": 7808,
      "ap": 7809,
      "gi": 7810,
      "harm": 7811,
      "nge": 7812,
      "swi": 7813,
      "аус": 7814,
      "аста": 7815,
      "дул": 7816,
      "тпе": 7817,
      "фит": 7818,
      "хал": 7819,
      "хон": 7820,
      "чап": 7821,
      "ыга": 7822,
      "##ki": 7823,
      "##ёв": 7824,
      "алс": 7825,
      "аро": 7826,
      "айло": 7827,
      "кета": 7828,
      "##сте": 7829,
      "оран": 7830,
      "кари": 7831,
      "айты": 7832,
      "укур": 7833,
      "стен": 7834,
      "кырд": 7835,
      "ыйым": 7836,
      "##иса": 7837,
      "суну": 7838,
      "еляби": 7839,
      "матка": 7840,
      "уктар": 7841,
      "йтыл": 7842,
      "ташты": 7843,
      "үрксо": 7844,
      "ажай": 7845,
      "оорд": 7846,
      "ссанж": 7847,
      "11и": 7848,
      "ытт": 7849,
      "270": 7850,
      "осток": 7851,
      "##вой": 7852,
      "илеп": 7853,
      "рукс": 7854,
      "gua": 7855,
      "пьеса": 7856,
      "зыркы": 7857,
      "app": 7858,
      "ex": 7859,
      "lli": 7860,
      "аани": 7861,
      "бама": 7862,
      "йлык": 7863,
      "кн": 7864,
      "ктай": 7865,
      "лок": 7866,
      "нх": 7867,
      "низ": 7868,
      "сара": 7869,
      "фето": 7870,
      "хор": 7871,
      "чып": 7872,
      "шик": 7873,
      "ңу": 7874,
      "##жон": 7875,
      "##кай": 7876,
      "##fc": 7877,
      "##va": 7878,
      "арпы": 7879,
      "кава": 7880,
      "ишп": 7881,
      "аким": 7882,
      "наса": 7883,
      "укан": 7884,
      "прот": 7885,
      "ырама": 7886,
      "апчы": 7887,
      "андаг": 7888,
      "олч": 7889,
      "ндөр": 7890,
      "ойрон": 7891,
      "риж": 7892,
      "нтген": 7893,
      "ейс": 7894,
      "райс": 7895,
      "виде": 7896,
      "йтыш": 7897,
      "өмү": 7898,
      "ктр": 7899,
      "ктун": 7900,
      "чав": 7901,
      "жид": 7902,
      "поль": 7903,
      "синки": 7904,
      "107": 7905,
      "тасын": 7906,
      "льян": 7907,
      "шекер": 7908,
      "шевч": 7909,
      "112": 7910,
      "рылып": 7911,
      "шард": 7912,
      "135": 7913,
      "лейте": 7914,
      "юнд": 7915,
      "норм": 7916,
      "ерчил": 7917,
      "авлян": 7918,
      "цзян": 7919,
      "уумп": 7920,
      "...": 7921,
      "fi": 7922,
      "ko": 7923,
      "qu": 7924,
      "ress": 7925,
      "ure": 7926,
      "бого": 7927,
      "вин": 7928,
      "вот": 7929,
      "гир": 7930,
      "здан": 7931,
      "йке": 7932,
      "рүм": 7933,
      "сык": 7934,
      "сми": 7935,
      "спо": 7936,
      "чон": 7937,
      "эз": 7938,
      "##pi": 7939,
      "##do": 7940,
      "арки": 7941,
      "##ыра": 7942,
      "орден": 7943,
      "акч": 7944,
      "унук": 7945,
      "ергек": 7946,
      "през": 7947,
      "енеш": 7948,
      "гөч": 7949,
      "өрдө": 7950,
      "имент": 7951,
      "риан": 7952,
      "огор": 7953,
      "опт": 7954,
      "икро": 7955,
      "аркак": 7956,
      "ктин": 7957,
      "оорун": 7958,
      "ысына": 7959,
      "грамо": 7960,
      "ахса": 7961,
      "угушу": 7962,
      "амаз": 7963,
      "ивл": 7964,
      "арыла": 7965,
      "рөөн": 7966,
      "ораса": 7967,
      "erra": 7968,
      "назик": 7969,
      "гарм": 7970,
      "врора": 7971,
      "link": 7972,
      "line": 7973,
      "зооп": 7974,
      "ибирь": 7975,
      "мчек": 7976,
      "робот": 7977,
      "афаэл": 7978,
      "ec": 7979,
      "ral": 7980,
      "sk": 7981,
      "аю": 7982,
      "ауна": 7983,
      "бд": 7984,
      "бук": 7985,
      "гур": 7986,
      "кп": 7987,
      "мго": 7988,
      "мпе": 7989,
      "оябр": 7990,
      "рти": 7991,
      "уле": 7992,
      "хар": 7993,
      "хат": 7994,
      "юр": 7995,
      "ңку": 7996,
      "##иа": 7997,
      "##сс": 7998,
      "##хаб": 7999,
      "##ly": 8000,
      "##rk": 8001,
      "алуж": 8002,
      "арина": 8003,
      "арнак": 8004,
      "тад": 8005,
      "тиши": 8006,
      "урхан": 8007,
      "етху": 8008,
      "үрүш": 8009,
      "күб": 8010,
      "ирриг": 8011,
      "онуш": 8012,
      "генд": 8013,
      "станц": 8014,
      "олун": 8015,
      "нтро": 8016,
      "ейми": 8017,
      "суф": 8018,
      "матты": 8019,
      "макты": 8020,
      "икир": 8021,
      "дона": 8022,
      "рох": 8023,
      "рүүгө": 8024,
      "емси": 8025,
      "109": 8026,
      "педи": 8027,
      "екист": 8028,
      "134": 8029,
      "ольф": 8030,
      "люд": 8031,
      "едрос": 8032,
      "афтар": 8033,
      "юндар": 8034,
      "идп": 8035,
      "энб": 8036,
      "голов": 8037,
      "аллон": 8038,
      "лони": 8039,
      "lines": 8040,
      "ахрам": 8041,
      "рызд": 8042,
      "ургап": 8043,
      "лушун": 8044,
      "уучул": 8045,
      "рлиги": 8046,
      "личко": 8047,
      "swift": 8048,
      "cp": 8049,
      "ht": 8050,
      "lt": 8051,
      "rs": 8052,
      "wel": 8053,
      "гуп": 8054,
      "ечик": 8055,
      "йты": 8056,
      "йдо": 8057,
      "нук": 8058,
      "рмак": 8059,
      "удук": 8060,
      "фап": 8061,
      "хаб": 8062,
      "храм": 8063,
      "цир": 8064,
      "##кк": 8065,
      "##гм": 8066,
      "##як": 8067,
      "иним": 8068,
      "ерме": 8069,
      "ово": 8070,
      "##име": 8071,
      "енск": 8072,
      "рио": 8073,
      "тоор": 8074,
      "раил": 8075,
      "истер": 8076,
      "уттуу": 8077,
      "аганы": 8078,
      "толу": 8079,
      "герим": 8080,
      "нура": 8081,
      "батта": 8082,
      "еште": 8083,
      "лдары": 8084,
      "елито": 8085,
      "15и": 8086,
      "154": 8087,
      "аниил": 8088,
      "ньюс": 8089,
      "550": 8090,
      "етеор": 8091,
      "ексен": 8092,
      "poli": 8093,
      "лбас": 8094,
      "аннер": 8095,
      "euro": 8096,
      "шагыл": 8097,
      "sinop": 8098,
      "лчил": 8099,
      "игини": 8100,
      "open": 8101,
      "пкини": 8102,
      "fra": 8103,
      "pe": 8104,
      "qa": 8105,
      "tut": 8106,
      "vo": 8107,
      "ачу": 8108,
      "жен": 8109,
      "зг": 8110,
      "зир": 8111,
      "лс": 8112,
      "нст": 8113,
      "рст": 8114,
      "рүп": 8115,
      "##нит": 8116,
      "##фу": 8117,
      "аркти": 8118,
      "айдар": 8119,
      "ынг": 8120,
      "##уля": 8121,
      "ерна": 8122,
      "була": 8123,
      "ыпар": 8124,
      "улпу": 8125,
      "урят": 8126,
      "окс": 8127,
      "енго": 8128,
      "кабы": 8129,
      "олсо": 8130,
      "бух": 8131,
      "имми": 8132,
      "тою": 8133,
      "мила": 8134,
      "упик": 8135,
      "алага": 8136,
      "итте": 8137,
      "итти": 8138,
      "екир": 8139,
      "йткан": 8140,
      "ктук": 8141,
      "дека": 8142,
      "ооро": 8143,
      "нганд": 8144,
      "аганд": 8145,
      "тайды": 8146,
      "108": 8147,
      "раке": 8148,
      "con": 8149,
      "акап": 8150,
      "гинек": 8151,
      "ортту": 8152,
      "13ү": 8153,
      "ректи": 8154,
      "кески": 8155,
      "олиси": 8156,
      "любо": 8157,
      "авид": 8158,
      "едор": 8159,
      "эпид": 8160,
      "митен": 8161,
      "stan": 8162,
      "330": 8163,
      "гност": 8164,
      "рзы": 8165,
      "ештин": 8166,
      "едина": 8167,
      "belli": 8168,
      "apple": 8169,
      "ata": 8170,
      "fo": 8171,
      "ks": 8172,
      "lo": 8173,
      "pri": 8174,
      "rdia": 8175,
      "вор": 8176,
      "гаш": 8177,
      "дд": 8178,
      "жрт": 8179,
      "йга": 8180,
      "лкан": 8181,
      "лом": 8182,
      "оси": 8183,
      "рск": 8184,
      "тто": 8185,
      "уж": 8186,
      "уот": 8187,
      "ужах": 8188,
      "чер": 8189,
      "яп": 8190,
      "##аз": 8191,
      "##рет": 8192,
      "##ед": 8193,
      "##эт": 8194,
      "##ace": 8195,
      "##зе": 8196,
      "##зар": 8197,
      "##ял": 8198,
      "алем": 8199,
      "аргы": 8200,
      "аткер": 8201,
      "##кас": 8202,
      "абиш": 8203,
      "улкан": 8204,
      "##уше": 8205,
      "нефт": 8206,
      "тың": 8207,
      "аяша": 8208,
      "үргө": 8209,
      "байл": 8210,
      "оош": 8211,
      "лифт": 8212,
      "рича": 8213,
      "обин": 8214,
      "ачин": 8215,
      "райы": 8216,
      "адд": 8217,
      "тышты": 8218,
      "ажеп": 8219,
      "текш": 8220,
      "елеси": 8221,
      "ахмат": 8222,
      "брам": 8223,
      "налд": 8224,
      "нгер": 8225,
      "164": 8226,
      "шифа": 8227,
      "шууга": 8228,
      "##enz": 8229,
      "патру": 8230,
      "аркап": 8231,
      "гори": 8232,
      "голо": 8233,
      "420": 8234,
      "chat": 8235,
      "икита": 8236,
      "удум": 8237,
      "мүрү": 8238,
      "dail": 8239,
      "and": 8240,
      "прав": 8241,
      "уард": 8242,
      "чавуш": 8243,
      "econ": 8244,
      "daily": 8245,
      "at": 8246,
      "bka": 8247,
      "hen": 8248,
      "ir": 8249,
      "nat": 8250,
      "son": 8251,
      "ufc": 8252,
      "we": 8253,
      "win": 8254,
      "ya": 8255,
      "аиса": 8256,
      "биш": 8257,
      "вол": 8258,
      "йлө": 8259,
      "лке": 8260,
      "лама": 8261,
      "нев": 8262,
      "нно": 8263,
      "реш": 8264,
      "рна": 8265,
      "рбе": 8266,
      "ссе": 8267,
      "слан": 8268,
      "тму": 8269,
      "өӊ": 8270,
      "##ры": 8271,
      "##нер": 8272,
      "##бри": 8273,
      "##tp": 8274,
      "дас": 8275,
      "анки": 8276,
      "унк": 8277,
      "азил": 8278,
      "сог": 8279,
      "ыйнак": 8280,
      "овхоз": 8281,
      "тыб": 8282,
      "ланын": 8283,
      "амыр": 8284,
      "олта": 8285,
      "миӊ": 8286,
      "рита": 8287,
      "нтти": 8288,
      "ейда": 8289,
      "уулда": 8290,
      "ноя": 8291,
      "нөкт": 8292,
      "рущ": 8293,
      "емцов": 8294,
      "ыраха": 8295,
      "манке": 8296,
      "есна": 8297,
      "нали": 8298,
      "124": 8299,
      "усуна": 8300,
      "14ү": 8301,
      "146": 8302,
      "138": 8303,
      "163": 8304,
      "176": 8305,
      "##est": 8306,
      "275": 8307,
      "ухар": 8308,
      "гаруу": 8309,
      "шыкак": 8310,
      "куул": 8311,
      "sche": 8312,
      "вайде": 8313,
      "когол": 8314,
      "ржант": 8315,
      "rgy": 8316,
      "дуло": 8317,
      "ермез": 8318,
      "бухг": 8319,
      "rdian": 8320,
      "ce": 8321,
      "cms": 8322,
      "ge": 8323,
      "ment": 8324,
      "sar": 8325,
      "ааб": 8326,
      "зма": 8327,
      "йдай": 8328,
      "нюс": 8329,
      "пис": 8330,
      "ргы": 8331,
      "рле": 8332,
      "рне": 8333,
      "рула": 8334,
      "уми": 8335,
      "хоз": 8336,
      "цев": 8337,
      "ыдай": 8338,
      "ңо": 8339,
      "##эм": 8340,
      "##ван": 8341,
      "##ll": 8342,
      "##mo": 8343,
      "##ru": 8344,
      "##ha": 8345,
      "##gi": 8346,
      "##енж": 8347,
      "арке": 8348,
      "##ири": 8349,
      "инка": 8350,
      "көң": 8351,
      "акеш": 8352,
      "жатк": 8353,
      "ерро": 8354,
      "аске": 8355,
      "абур": 8356,
      "улпар": 8357,
      "уркан": 8358,
      "аят": 8359,
      "##опи": 8360,
      "амар": 8361,
      "ийч": 8362,
      "олов": 8363,
      "милан": 8364,
      "үшүп": 8365,
      "суд": 8366,
      "опол": 8367,
      "итко": 8368,
      "тышы": 8369,
      "ташка": 8370,
      "моск": 8371,
      "аңгы": 8372,
      "адал": 8373,
      "ахта": 8374,
      "олбос": 8375,
      "новду": 8376,
      "алкон": 8377,
      "104": 8378,
      "ракон": 8379,
      "эттк": 8380,
      "рини": 8381,
      "оюм": 8382,
      "льев": 8383,
      "ыңыр": 8384,
      "117": 8385,
      "рылд": 8386,
      "165": 8387,
      "ытта": 8388,
      "лешмо": 8389,
      "лобби": 8390,
      "тетти": 8391,
      "гард": 8392,
      "чийи": 8393,
      "айкем": 8394,
      "новая": 8395,
      "рбк": 8396,
      "ркад": 8397,
      "sun": 8398,
      "mode": 8399,
      "uni": 8400,
      "гриф": 8401,
      "mini": 8402,
      "ыйрак": 8403,
      "лазиз": 8404,
      "nspa": 8405,
      "rency": 8406,
      "sky": 8407,
      "http": 8408,
      "рнест": 8409,
      "%,": 8410,
      "az": 8411,
      "mer": 8412,
      "mar": 8413,
      "ot": 8414,
      "ve": 8415,
      "бап": 8416,
      "бро": 8417,
      "дп": 8418,
      "дов": 8419,
      "золо": 8420,
      "йго": 8421,
      "күү": 8422,
      "лкөн": 8423,
      "пк": 8424,
      "пка": 8425,
      "тб": 8426,
      "ябр": 8427,
      "##ска": 8428,
      "##um": 8429,
      "алкан": 8430,
      "арев": 8431,
      "дасын": 8432,
      "аниме": 8433,
      "тарм": 8434,
      "инве": 8435,
      "гасын": 8436,
      "акен": 8437,
      "##лиф": 8438,
      "наама": 8439,
      "ылый": 8440,
      "урл": 8441,
      "урш": 8442,
      "етан": 8443,
      "енц": 8444,
      "онент": 8445,
      "##чуг": 8446,
      "амс": 8447,
      "олто": 8448,
      "рагы": 8449,
      "радар": 8450,
      "рабыз": 8451,
      "үшө": 8452,
      "елли": 8453,
      "конф": 8454,
      "антер": 8455,
      "янт": 8456,
      "ктык": 8457,
      "оңур": 8458,
      "езник": 8459,
      "этек": 8460,
      "##жоу": 8461,
      "альма": 8462,
      "111": 8463,
      "113": 8464,
      "аучи": 8465,
      "пута": 8466,
      "no7": 8467,
      "усул": 8468,
      "шарап": 8469,
      "136": 8470,
      "ведо": 8471,
      "ремя": 8472,
      "ремон": 8473,
      "тканы": 8474,
      "рафик": 8475,
      "пысы": 8476,
      "sta": 8477,
      "stor": 8478,
      "ыязы": 8479,
      "ышаа": 8480,
      "андем": 8481,
      "остер": 8482,
      "бийке": 8483,
      "гарни": 8484,
      "rna": 8485,
      "no27": 8486,
      "ялда": 8487,
      "space": 8488,
      "sha": 8489,
      "правд": 8490,
      "оииб": 8491,
      "анаке": 8492,
      "изель": 8493,
      "усейн": 8494,
      "cpj": 8495,
      "йтым": 8496,
      "цирк": 8497,
      "нефть": 8498,
      "ябрь": 8499,
      "ay": 8500,
      "bus": 8501,
      "men": 8502,
      "man": 8503,
      "tb": 8504,
      "еду": 8505,
      "елик": 8506,
      "лгы": 8507,
      "лэр": 8508,
      "нв": 8509,
      "ота": 8510,
      "рүн": 8511,
      "рби": 8512,
      "рене": 8513,
      "уал": 8514,
      "шл": 8515,
      "штеп": 8516,
      "алпу": 8517,
      "арж": 8518,
      "айип": 8519,
      "андер": 8520,
      "анжы": 8521,
      "инне": 8522,
      "##дел": 8523,
      "акар": 8524,
      "акет": 8525,
      "унак": 8526,
      "ерат": 8527,
      "жаал": 8528,
      "айте": 8529,
      "укар": 8530,
      "тест": 8531,
      "сты": 8532,
      "стын": 8533,
      "беп": 8534,
      "урут": 8535,
      "ырган": 8536,
      "ирме": 8537,
      "амд": 8538,
      "реза": 8539,
      "курт": 8540,
      "илаш": 8541,
      "тозо": 8542,
      "евер": 8543,
      "огуу": 8544,
      "ачк": 8545,
      "өөл": 8546,
      "раве": 8547,
      "досто": 8548,
      "лео": 8549,
      "расса": 8550,
      "пард": 8551,
      "агер": 8552,
      "илдөө": 8553,
      "мөл": 8554,
      "абали": 8555,
      "епил": 8556,
      "ешк": 8557,
      "101": 8558,
      "угал": 8559,
      "ришт": 8560,
      "скв": 8561,
      "122": 8562,
      "усан": 8563,
      "ороз": 8564,
      "ттеж": 8565,
      "птоо": 8566,
      "вага": 8567,
      "урукт": 8568,
      "осто": 8569,
      "рена": 8570,
      "айкал": 8571,
      "чийме": 8572,
      "meta": 8573,
      "резе": 8574,
      "нкул": 8575,
      "нквд": 8576,
      "зила": 8577,
      "шында": 8578,
      "тозог": 8579,
      "deut": 8580,
      "нуэль": 8581,
      "алпыс": 8582,
      "олтав": 8583,
      "epa": 8584,
      "he": 8585,
      "ku": 8586,
      "mu": 8587,
      "вк": 8588,
      "жип": 8589,
      "зек": 8590,
      "зүл": 8591,
      "йж": 8592,
      "йги": 8593,
      "йкы": 8594,
      "мг": 8595,
      "нн": 8596,
      "нушу": 8597,
      "плей": 8598,
      "рпа": 8599,
      "рекс": 8600,
      "шүп": 8601,
      "##пыл": 8602,
      "##лу": 8603,
      "##ry": 8604,
      "алама": 8605,
      "##ака": 8606,
      "анте": 8607,
      "анян": 8608,
      "атч": 8609,
      "ороп": 8610,
      "акаш": 8611,
      "ерсе": 8612,
      "асап": 8613,
      "маң": 8614,
      "мадан": 8615,
      "азу": 8616,
      "ашир": 8617,
      "етх": 8618,
      "етра": 8619,
      "анынд": 8620,
      "иче": 8621,
      "актай": 8622,
      "иске": 8623,
      "жалат": 8624,
      "итт": 8625,
      "бейпи": 8626,
      "янь": 8627,
      "роце": 8628,
      "##нос": 8629,
      "поч": 8630,
      "бакы": 8631,
      "ахир": 8632,
      "ахри": 8633,
      "паст": 8634,
      "ибн": 8635,
      "елиз": 8636,
      "алмай": 8637,
      "шевик": 8638,
      "үккө": 8639,
      "балын": 8640,
      "аулет": 8641,
      "тивен": 8642,
      "аниел": 8643,
      "егич": 8644,
      "едия": 8645,
      "арыял": 8646,
      "отоци": 8647,
      "рсен": 8648,
      "19у": 8649,
      "225": 8650,
      "ерали": 8651,
      "215": 8652,
      "ронд": 8653,
      "тимул": 8654,
      "shad": 8655,
      "юмдар": 8656,
      "абсол": 8657,
      "akh": 8658,
      "ltd": 8659,
      "ирмем": 8660,
      "ad": 8661,
      "ial": 8662,
      "sy": 8663,
      "глиф": 8664,
      "еко": 8665,
      "еэк": 8666,
      "зон": 8667,
      "зинг": 8668,
      "йе": 8669,
      "ктеп": 8670,
      "лек": 8671,
      "лдан": 8672,
      "мээ": 8673,
      "нья": 8674,
      "оог": 8675,
      "очи": 8676,
      "осе": 8677,
      "пия": 8678,
      "пиц": 8679,
      "рбо": 8680,
      "ткө": 8681,
      "тса": 8682,
      "уиа": 8683,
      "фф": 8684,
      "хот": 8685,
      "чжоу": 8686,
      "ңж": 8687,
      "ңүл": 8688,
      "##ль": 8689,
      "##bs": 8690,
      "арз": 8691,
      "атва": 8692,
      "инц": 8693,
      "акер": 8694,
      "асми": 8695,
      "азын": 8696,
      "аяке": 8697,
      "енч": 8698,
      "онте": 8699,
      "тини": 8700,
      "апал": 8701,
      "гене": 8702,
      "ардин": 8703,
      "лив": 8704,
      "куро": 8705,
      "обу": 8706,
      "раун": 8707,
      "раунд": 8708,
      "чеке": 8709,
      "исла": 8710,
      "упу": 8711,
      "упул": 8712,
      "чакт": 8713,
      "артин": 8714,
      "елпи": 8715,
      "умч": 8716,
      "парз": 8717,
      "рукт": 8718,
      "куль": 8719,
      "перс": 8720,
      "малга": 8721,
      "пляж": 8722,
      "урму": 8723,
      "брид": 8724,
      "есте": 8725,
      "шыб": 8726,
      "144": 8727,
      "132": 8728,
      "сард": 8729,
      "177": 8730,
      "ожент": 8731,
      "193": 8732,
      "ляска": 8733,
      "вад": 8734,
      "юнх": 8735,
      "ыганы": 8736,
      "insi": 8737,
      "ste": 8738,
      "ренс": 8739,
      "йдана": 8740,
      "ппак": 8741,
      "turk": 8742,
      "равма": 8743,
      "льван": 8744,
      "ахаба": 8745,
      "зоот": 8746,
      "еӊеш": 8747,
      "scie": 8748,
      "ксено": 8749,
      "iph": 8750,
      "павло": 8751,
      "халат": 8752,
      "welle": 8753,
      "уотч": 8754,
      "едуза": 8755,
      "5g": 8756,
      "ght": 8757,
      "ly": 8758,
      "tor": 8759,
      "гыш": 8760,
      "екер": 8761,
      "зиц": 8762,
      "зулу": 8763,
      "йса": 8764,
      "лург": 8765,
      "пуш": 8766,
      "уде": 8767,
      "убо": 8768,
      "##пк": 8769,
      "##кал": 8770,
      "##бат": 8771,
      "##шан": 8772,
      "##bi": 8773,
      "##фе": 8774,
      "арго": 8775,
      "арян": 8776,
      "арзы": 8777,
      "айбер": 8778,
      "##ола": 8779,
      "ань": 8780,
      "анил": 8781,
      "анна": 8782,
      "##сти": 8783,
      "орци": 8784,
      "аксу": 8785,
      "аксү": 8786,
      "еркас": 8787,
      "маи": 8788,
      "улк": 8789,
      "даре": 8790,
      "гео": 8791,
      "нецов": 8792,
      "аярд": 8793,
      "ырмак": 8794,
      "енчи": 8795,
      "енеси": 8796,
      "ирена": 8797,
      "онде": 8798,
      "кукт": 8799,
      "евин": 8800,
      "рдаг": 8801,
      "нтке": 8802,
      "ейро": 8803,
      "убнов": 8804,
      "алифа": 8805,
      "камо": 8806,
      "ентин": 8807,
      "айлы": 8808,
      "гро": 8809,
      "респ": 8810,
      "биле": 8811,
      "мото": 8812,
      "ажар": 8813,
      "толе": 8814,
      "кулд": 8815,
      "ратуу": 8816,
      "ахту": 8817,
      "еңи": 8818,
      "аадан": 8819,
      "ехни": 8820,
      "гинд": 8821,
      "ерез": 8822,
      "116": 8823,
      "127": 8824,
      "дамд": 8825,
      "зелт": 8826,
      "зион": 8827,
      "архан": 8828,
      "архад": 8829,
      "атру": 8830,
      "162": 8831,
      "астры": 8832,
      "195": 8833,
      "афи": 8834,
      "ерапе": 8835,
      "нора": 8836,
      "ухрат": 8837,
      "ельс": 8838,
      "остон": 8839,
      "чабан": 8840,
      "лмаш": 8841,
      "хосте": 8842,
      "##вод": 8843,
      "лакта": 8844,
      "no26": 8845,
      "no21": 8846,
      "ульмо": 8847,
      "шаке": 8848,
      "замб": 8849,
      "эвэн": 8850,
      "лдөрү": 8851,
      "үчтөр": 8852,
      "лбейт": 8853,
      "мство": 8854,
      "лифат": 8855,
      "вотса": 8856,
      "дпол": 8857,
      "уршаб": 8858,
      "storm": 8859,
      "du": 8860,
      "era": 8861,
      "ic": 8862,
      "ll": 8863,
      "nu": 8864,
      "qr": 8865,
      "tes": 8866,
      "tal": 8867,
      "бэ": 8868,
      "бүр": 8869,
      "двок": 8870,
      "дэн": 8871,
      "еит": 8872,
      "жык": 8873,
      "йбы": 8874,
      "йша": 8875,
      "лден": 8876,
      "мжон": 8877,
      "оде": 8878,
      "оинг": 8879,
      "рц": 8880,
      "рщ": 8881,
      "рюдо": 8882,
      "уила": 8883,
      "яб": 8884,
      "яз": 8885,
      "##вей": 8886,
      "##ip": 8887,
      "##po": 8888,
      "##per": 8889,
      "##bo": 8890,
      "алпа": 8891,
      "айме": 8892,
      "айфу": 8893,
      "анж": 8894,
      "атык": 8895,
      "тау": 8896,
      "еро": 8897,
      "берен": 8898,
      "мао": 8899,
      "абари": 8900,
      "кетте": 8901,
      "өлөр": 8902,
      "сть": 8903,
      "ашта": 8904,
      "үнх": 8905,
      "сой": 8906,
      "даны": 8907,
      "ырм": 8908,
      "енге": 8909,
      "амис": 8910,
      "миф": 8911,
      "атташ": 8912,
      "илу": 8913,
      "сеит": 8914,
      "истон": 8915,
      "үшк": 8916,
      "убл": 8917,
      "леу": 8918,
      "алаб": 8919,
      "айран": 8920,
      "##рио": 8921,
      "ебин": 8922,
      "адап": 8923,
      "рмон": 8924,
      "ахи": 8925,
      "ешке": 8926,
      "влад": 8927,
      "лапта": 8928,
      "тула": 8929,
      "no8": 8930,
      "148": 8931,
      "аргун": 8932,
      "185": 8933,
      "сумка": 8934,
      "астар": 8935,
      "рантт": 8936,
      "casa": 8937,
      "моло": 8938,
      "афур": 8939,
      "шуар": 8940,
      "ераси": 8941,
      "иос": 8942,
      "рдөн": 8943,
      "роне": 8944,
      "өздөр": 8945,
      "320": 8946,
      "квад": 8947,
      "голла": 8948,
      "##элл": 8949,
      "vis": 8950,
      "560": 8951,
      "рэпер": 8952,
      "льяс": 8953,
      "ешип": 8954,
      "арант": 8955,
      "нхва": 8956,
      "тбол": 8957,
      "be": 8958,
      "ber": 8959,
      "gel": 8960,
      "lb": 8961,
      "pat": 8962,
      "th": 8963,
      "вила": 8964,
      "влов": 8965,
      "доп": 8966,
      "жыт": 8967,
      "зен": 8968,
      "йнө": 8969,
      "лп": 8970,
      "нчы": 8971,
      "нша": 8972,
      "поп": 8973,
      "рю": 8974,
      "рдө": 8975,
      "рко": 8976,
      "фбр": 8977,
      "чоло": 8978,
      "ычы": 8979,
      "өб": 8980,
      "##кет": 8981,
      "##тон": 8982,
      "##хам": 8983,
      "##фо": 8984,
      "##ини": 8985,
      "арип": 8986,
      "арсе": 8987,
      "##лес": 8988,
      "ордай": 8989,
      "акро": 8990,
      "ерөб": 8991,
      "ыпт": 8992,
      "улик": 8993,
      "кыя": 8994,
      "ылма": 8995,
      "ыйыр": 8996,
      "араа": 8997,
      "етиш": 8998,
      "баб": 8999,
      "##зио": 9000,
      "тина": 9001,
      "салд": 9002,
      "олдат": 9003,
      "узаг": 9004,
      "оймо": 9005,
      "ымынд": 9006,
      "ейп": 9007,
      "мили": 9008,
      "милиц": 9009,
      "##ная": 9010,
      "упара": 9011,
      "отте": 9012,
      "үшкө": 9013,
      "боюн": 9014,
      "екти": 9015,
      "ноза": 9016,
      "расн": 9017,
      "омб": 9018,
      "##ное": 9019,
      "кино": 9020,
      "адага": 9021,
      "емиз": 9022,
      "рата": 9023,
      "брон": 9024,
      "луя": 9025,
      "акас": 9026,
      "лимит": 9027,
      "ереза": 9028,
      "удс": 9029,
      "нгар": 9030,
      "естер": 9031,
      "123": 9032,
      "ленд": 9033,
      "жооп": 9034,
      "зелки": 9035,
      "142": 9036,
      "143": 9037,
      "167": 9038,
      "18и": 9039,
      "шиши": 9040,
      "ярда": 9041,
      "лтон": 9042,
      "слави": 9043,
      "рууда": 9044,
      "198": 9045,
      "афиз": 9046,
      "бланк": 9047,
      "гулаг": 9048,
      "242": 9049,
      "верс": 9050,
      "орадо": 9051,
      "261": 9052,
      "лове": 9053,
      "зема": 9054,
      "ригор": 9055,
      "кутер": 9056,
      "ралык": 9057,
      "ллект": 9058,
      "##зод": 9059,
      "лакап": 9060,
      "time": 9061,
      "china": 9062,
      "анчес": 9063,
      "кинем": 9064,
      "чтөр": 9065,
      "lea": 9066,
      "max": 9067,
      "айзак": 9068,
      "смс": 9069,
      "лева": 9070,
      "прагм": 9071,
      "визу": 9072,
      "xvii": 9073,
      "хунта": 9074,
      "эттн": 9075,
      "пияз": 9076,
      "patri": 9077,
      "au": 9078,
      "ara": 9079,
      "des": 9080,
      "ev": 9081,
      "gre": 9082,
      "hon": 9083,
      "lu": 9084,
      "nbc": 9085,
      "res": 9086,
      "варт": 9087,
      "дэр": 9088,
      "ешиг": 9089,
      "жун": 9090,
      "лэ": 9091,
      "мус": 9092,
      "ню": 9093,
      "ня": 9094,
      "пинг": 9095,
      "ппар": 9096,
      "рог": 9097,
      "сян": 9098,
      "сдик": 9099,
      "току": 9100,
      "фти": 9101,
      "чүк": 9102,
      "эво": 9103,
      "ѳз": 9104,
      "##сар": 9105,
      "##сел": 9106,
      "##рал": 9107,
      "##ня": 9108,
      "##жаш": 9109,
      "##чер": 9110,
      "##хи": 9111,
      "##йт": 9112,
      "##plo": 9113,
      "##ni": 9114,
      "аля": 9115,
      "алча": 9116,
      "арн": 9117,
      "айан": 9118,
      "даб": 9119,
      "анка": 9120,
      "ишви": 9121,
      "унар": 9122,
      "ерри": 9123,
      "асыр": 9124,
      "асра": 9125,
      "азари": 9126,
      "улла": 9127,
      "кыт": 9128,
      "ылчык": 9129,
      "тиб": 9130,
      "етри": 9131,
      "##ова": 9132,
      "окоп": 9133,
      "күп": 9134,
      "ырык": 9135,
      "иренж": 9136,
      "тино": 9137,
      "апжаш": 9138,
      "каби": 9139,
      "диум": 9140,
      "##бод": 9141,
      "арыт": 9142,
      "рели": 9143,
      "ызак": 9144,
      "атабы": 9145,
      "илал": 9146,
      "чыкт": 9147,
      "жез": 9148,
      "таны": 9149,
      "төм": 9150,
      "сөздө": 9151,
      "##меч": 9152,
      "лецк": 9153,
      "елл": 9154,
      "еля": 9155,
      "гипер": 9156,
      "##цит": 9157,
      "рош": 9158,
      "дорун": 9159,
      "ыгуу": 9160,
      "заар": 9161,
      "заара": 9162,
      "рүүлө": 9163,
      "епе": 9164,
      "адак": 9165,
      "рму": 9166,
      "рмен": 9167,
      "полот": 9168,
      "зард": 9169,
      "мирно": 9170,
      "этью": 9171,
      "егени": 9172,
      "аялин": 9173,
      "чаль": 9174,
      "чурко": 9175,
      "пион": 9176,
      "үлгө": 9177,
      "156": 9178,
      "151": 9179,
      "159": 9180,
      "207": 9181,
      "удур": 9182,
      "128": 9183,
      "дээр": 9184,
      "манап": 9185,
      "147": 9186,
      "131": 9187,
      "аргар": 9188,
      "25и": 9189,
      "161": 9190,
      "оливи": 9191,
      "асте": 9192,
      "крис": 9193,
      "умшук": 9194,
      "шиит": 9195,
      "симе": 9196,
      "ечил": 9197,
      "норар": 9198,
      "аркаб": 9199,
      "inc": 9200,
      "inf": 9201,
      "заказ": 9202,
      "зина": 9203,
      "рулга": 9204,
      "шерик": 9205,
      "рашан": 9206,
      "айнак": 9207,
      "абиу": 9208,
      "ллек": 9209,
      "зуй": 9210,
      "оргос": 9211,
      "ткус": 9212,
      "ырчын": 9213,
      "ылаң": 9214,
      "defe": 9215,
      "tass": 9216,
      "лири": 9217,
      "лжир": 9218,
      "offic": 9219,
      "ирзох": 9220,
      "ылыгы": 9221,
      "rgyz": 9222,
      "иткои": 9223,
      "сдикц": 9224,
      "ea": 9225,
      "ech": 9226,
      "g7": 9227,
      "ty": 9228,
      "wei": 9229,
      "аул": 9230,
      "вдик": 9231,
      "гк": 9232,
      "дрис": 9233,
      "жов": 9234,
      "жани": 9235,
      "зис": 9236,
      "лтан": 9237,
      "отел": 9238,
      "пес": 9239,
      "пала": 9240,
      "рөө": 9241,
      "св": 9242,
      "скан": 9243,
      "сама": 9244,
      "сэр": 9245,
      "тсе": 9246,
      "тве": 9247,
      "фул": 9248,
      "хир": 9249,
      "чты": 9250,
      "шук": 9251,
      "ён": 9252,
      "##рин": 9253,
      "##вк": 9254,
      "##гѳ": 9255,
      "##фер": 9256,
      "##дак": 9257,
      "алер": 9258,
      "алала": 9259,
      "арли": 9260,
      "арто": 9261,
      "айдай": 9262,
      "анап": 9263,
      "анто": 9264,
      "атм": 9265,
      "иния": 9266,
      "кано": 9267,
      "уут": 9268,
      "асха": 9269,
      "мая": 9270,
      "укен": 9271,
      "ашала": 9272,
      "үчтү": 9273,
      "ыйча": 9274,
      "урж": 9275,
      "ураны": 9276,
      "байб": 9277,
      "кылд": 9278,
      "амыш": 9279,
      "миг": 9280,
      "мида": 9281,
      "шае": 9282,
      "лихан": 9283,
      "жазга": 9284,
      "рих": 9285,
      "ривой": 9286,
      "долон": 9287,
      "ейман": 9288,
      "убок": 9289,
      "сака": 9290,
      "саки": 9291,
      "парас": 9292,
      "туй": 9293,
      "утан": 9294,
      "##иво": 9295,
      "аңс": 9296,
      "аңта": 9297,
      "ебет": 9298,
      "портр": 9299,
      "порту": 9300,
      "заде": 9301,
      "куля": 9302,
      "ириге": 9303,
      "докс": 9304,
      "фиоп": 9305,
      "фицо": 9306,
      "штан": 9307,
      "лдпр": 9308,
      "ринг": 9309,
      "ерини": 9310,
      "лайн": 9311,
      "ская": 9312,
      "152": 9313,
      "126": 9314,
      "ауле": 9315,
      "пасс": 9316,
      "игери": 9317,
      "ордур": 9318,
      "шох": 9319,
      "252": 9320,
      "188": 9321,
      "града": 9322,
      "178": 9323,
      "рлов": 9324,
      "емей": 9325,
      "рейсу": 9326,
      "шиле": 9327,
      "алех": 9328,
      "199": 9329,
      "247": 9330,
      "дуран": 9331,
      "ухрид": 9332,
      "ыяк": 9333,
      "осте": 9334,
      "##ort": 9335,
      "хазар": 9336,
      "430": 9337,
      "шыка": 9338,
      "no29": 9339,
      "ромж": 9340,
      "уэз": 9341,
      "плац": 9342,
      "no31": 9343,
      "diplo": 9344,
      "##ные": 9345,
      "усеи": 9346,
      "ырака": 9347,
      "ssia": 9348,
      "оболь": 9349,
      "gence": 9350,
      "ребре": 9351,
      "швед": 9352,
      "fox": 9353,
      "бридд": 9354,
      "зуйпа": 9355,
      "твеа": 9356,
      "ama": 9357,
      "cli": 9358,
      "dar": 9359,
      "gent": 9360,
      "kt": 9361,
      "аит": 9362,
      "вел": 9363,
      "дхан": 9364,
      "зөт": 9365,
      "йжар": 9366,
      "лсын": 9367,
      "нгент": 9368,
      "оул": 9369,
      "пке": 9370,
      "роно": 9371,
      "рээ": 9372,
      "ркти": 9373,
      "текч": 9374,
      "уц": 9375,
      "уанд": 9376,
      "цук": 9377,
      "чжи": 9378,
      "чвк": 9379,
      "швей": 9380,
      "юлган": 9381,
      "өлд": 9382,
      "##пак": 9383,
      "##воз": 9384,
      "##ir": 9385,
      "##бар": 9386,
      "##rt": 9387,
      "##ём": 9388,
      "##dy": 9389,
      "аляр": 9390,
      "алори": 9391,
      "##але": 9392,
      "айша": 9393,
      "анр": 9394,
      "анам": 9395,
      "атри": 9396,
      "атви": 9397,
      "аткак": 9398,
      "##рах": 9399,
      "орп": 9400,
      "болат": 9401,
      "көчү": 9402,
      "акф": 9403,
      "акем": 9404,
      "кими": 9405,
      "нави": 9406,
      "өзө": 9407,
      "укр": 9408,
      "укай": 9409,
      "укинг": 9410,
      "экб": 9411,
      "тезио": 9412,
      "гыд": 9413,
      "ыйып": 9414,
      "ыйпыл": 9415,
      "##есе": 9416,
      "овла": 9417,
      "нед": 9418,
      "бард": 9419,
      "араан": 9420,
      "ошт": 9421,
      "керди": 9422,
      "ено": 9423,
      "енни": 9424,
      "ирект": 9425,
      "апан": 9426,
      "аптан": 9427,
      "аври": 9428,
      "ланг": 9429,
      "изги": 9430,
      "өрүп": 9431,
      "шаб": 9432,
      "ттун": 9433,
      "сунд": 9434,
      "евге": 9435,
      "##мид": 9436,
      "түзү": 9437,
      "ейне": 9438,
      "##наз": 9439,
      "алид": 9440,
      "елдет": 9441,
      "алах": 9442,
      "матум": 9443,
      "умса": 9444,
      "инема": 9445,
      "гонду": 9446,
      "гре": 9447,
      "аркал": 9448,
      "агд": 9449,
      "роби": 9450,
      "ебеп": 9451,
      "жибе": 9452,
      "перей": 9453,
      "ахан": 9454,
      "нарко": 9455,
      "урад": 9456,
      "лоял": 9457,
      "если": 9458,
      "удрет": 9459,
      "секе": 9460,
      "балда": 9461,
      "119": 9462,
      "121": 9463,
      "рьев": 9464,
      "вед": 9465,
      "олит": 9466,
      "аниэл": 9467,
      "астер": 9468,
      "ажыя": 9469,
      "зода": 9470,
      "енеж": 9471,
      "атыра": 9472,
      "ечел": 9473,
      "197": 9474,
      "227": 9475,
      "ернак": 9476,
      "индзо": 9477,
      "алпак": 9478,
      "sti": 9479,
      "##oom": 9480,
      "ендей": 9481,
      "мдаг": 9482,
      "устун": 9483,
      "нчыл": 9484,
      "пини": 9485,
      "386": 9486,
      "голе": 9487,
      "370": 9488,
      "етео": 9489,
      "чийил": 9490,
      "схат": 9491,
      "460": 9492,
      "grap": 9493,
      "кисло": 9494,
      "spie": 9495,
      "shenz": 9496,
      "аёо": 9497,
      "nasa": 9498,
      "авлат": 9499,
      "авлов": 9500,
      "asta": 9501,
      "нейро": 9502,
      "bay": 9503,
      "ыбыра": 9504,
      "чикир": 9505,
      "boei": 9506,
      "ent": 9507,
      "xviii": 9508,
      "gaz": 9509,
      "лахш": 9510,
      "rsf": 9511,
      "маңке": 9512,
      "cus": 9513,
      "cbs": 9514,
      "dent": 9515,
      "iri": 9516,
      "nk": 9517,
      "ov": 9518,
      "аөб": 9519,
      "бъ": 9520,
      "вик": 9521,
      "вил": 9522,
      "вас": 9523,
      "вгус": 9524,
      "гс": 9525,
      "дана": 9526,
      "ефа": 9527,
      "еид": 9528,
      "зий": 9529,
      "йлик": 9530,
      "кф": 9531,
      "кму": 9532,
      "лту": 9533,
      "лбе": 9534,
      "леке": 9535,
      "нил": 9536,
      "оан": 9537,
      "оуз": 9538,
      "пери": 9539,
      "ркан": 9540,
      "рент": 9541,
      "рро": 9542,
      "слам": 9543,
      "тэн": 9544,
      "хэ": 9545,
      "чж": 9546,
      "ыяб": 9547,
      "ёл": 9548,
      "ңур": 9549,
      "##май": 9550,
      "##ний": 9551,
      "##чп": 9552,
      "##вин": 9553,
      "##mp": 9554,
      "##ps": 9555,
      "##bu": 9556,
      "##щи": 9557,
      "алес": 9558,
      "аржа": 9559,
      "айса": 9560,
      "кая": 9561,
      "##ике": 9562,
      "инат": 9563,
      "инду": 9564,
      "орин": 9565,
      "иядан": 9566,
      "акуше": 9567,
      "ерц": 9568,
      "ермер": 9569,
      "##уси": 9570,
      "або": 9571,
      "өлүн": 9572,
      "өлүг": 9573,
      "улпи": 9574,
      "үүс": 9575,
      "үнк": 9576,
      "үнт": 9577,
      "лерг": 9578,
      "аяп": 9579,
      "етти": 9580,
      "баст": 9581,
      "тру": 9582,
      "ыкалы": 9583,
      "талыш": 9584,
      "иреп": 9585,
      "диг": 9586,
      "амшан": 9587,
      "ола": 9588,
      "олб": 9589,
      "буй": 9590,
      "ызала": 9591,
      "шайта": 9592,
      "илла": 9593,
      "ачыр": 9594,
      "дух": 9595,
      "ныг": 9596,
      "раг": 9597,
      "нтек": 9598,
      "ейн": 9599,
      "ейли": 9600,
      "ейла": 9601,
      "ейпи": 9602,
      "##куб": 9603,
      "отка": 9604,
      "ниге": 9605,
      "артог": 9606,
      "лүүдө": 9607,
      "ледар": 9608,
      "опур": 9609,
      "алима": 9610,
      "елу": 9611,
      "елле": 9612,
      "абагы": 9613,
      "##ней": 9614,
      "пане": 9615,
      "чучуг": 9616,
      "камал": 9617,
      "умен": 9618,
      "топоз": 9619,
      "##яно": 9620,
      "руа": 9621,
      "атали": 9622,
      "жиа": 9623,
      "адича": 9624,
      "ахди": 9625,
      "ахали": 9626,
      "паста": 9627,
      "спер": 9628,
      "отту": 9629,
      "елитр": 9630,
      "воз": 9631,
      "алдак": 9632,
      "ната": 9633,
      "209": 9634,
      "ксана": 9635,
      "ауэр": 9636,
      "бура": 9637,
      "улдар": 9638,
      "элит": 9639,
      "арио": 9640,
      "251": 9641,
      "166": 9642,
      "172": 9643,
      "алгап": 9644,
      "моль": 9645,
      "афк": 9646,
      "жини": 9647,
      "ютте": 9648,
      "212": 9649,
      "тории": 9650,
      "232": 9651,
      "238": 9652,
      "морг": 9653,
      "281": 9654,
      "всп": 9655,
      "клав": 9656,
      "аксып": 9657,
      "365": 9658,
      "аамы": 9659,
      "tico": 9660,
      "290": 9661,
      "ширел": 9662,
      "шеде": 9663,
      "уват": 9664,
      "mega": 9665,
      "437": 9666,
      "гили": 9667,
      "илеге": 9668,
      "520": 9669,
      "айкел": 9670,
      "gran": 9671,
      "джет": 9672,
      "етрос": 9673,
      "ское": 9674,
      "смет": 9675,
      "днр": 9676,
      "пена": 9677,
      "эльс": 9678,
      "mot": 9679,
      "диная": 9680,
      "sino": 9681,
      "папа": 9682,
      "иркей": 9683,
      "wiki": 9684,
      "елени": 9685,
      "exp": 9686,
      "осиф": 9687,
      "воле": 9688,
      "stem": 9689,
      "tesla": 9690,
      "ллекц": 9691,
      "гкчп": 9692,
      "зийпа": 9693,
      ".,": 9694,
      "04": 9695,
      "age": 9696,
      "bm": 9697,
      "bri": 9698,
      "bek": 9699,
      "cc": 9700,
      "hy": 9701,
      "pi": 9702,
      "par": 9703,
      "ron": 9704,
      "ua": 9705,
      "um": 9706,
      "za": 9707,
      "zoom": 9708,
      "вя": 9709,
      "дю": 9710,
      "дь": 9711,
      "едо": 9712,
      "еңг": 9713,
      "жү": 9714,
      "жүн": 9715,
      "зеп": 9716,
      "ккен": 9717,
      "кро": 9718,
      "лта": 9719,
      "мги": 9720,
      "мки": 9721,
      "уил": 9722,
      "уис": 9723,
      "фан": 9724,
      "цназ": 9725,
      "чүп": 9726,
      "яхта": 9727,
      "##мыр": 9728,
      "##уа": 9729,
      "##хон": 9730,
      "##шак": 9731,
      "##зер": 9732,
      "##фср": 9733,
      "##цы": 9734,
      "алый": 9735,
      "ализа": 9736,
      "арп": 9737,
      "арди": 9738,
      "айбай": 9739,
      "коп": 9740,
      "део": 9741,
      "анес": 9742,
      "анба": 9743,
      "атус": 9744,
      "атти": 9745,
      "##иля": 9746,
      "инаг": 9747,
      "тав": 9748,
      "орген": 9749,
      "оруну": 9750,
      "ордин": 9751,
      "##око": 9752,
      "акый": 9753,
      "уннит": 9754,
      "кие": 9755,
      "асим": 9756,
      "азхаб": 9757,
      "абч": 9758,
      "айтка": 9759,
      "уляб": 9760,
      "чың": 9761,
      "стуу": 9762,
      "уре": 9763,
      "урен": 9764,
      "барч": 9765,
      "##опа": 9766,
      "багын": 9767,
      "ырат": 9768,
      "енн": 9769,
      "енем": 9770,
      "тине": 9771,
      "олон": 9772,
      "ндпк": 9773,
      "ттал": 9774,
      "шайыр": 9775,
      "семит": 9776,
      "раво": 9777,
      "чеки": 9778,
      "ейк": 9779,
      "артер": 9780,
      "елово": 9781,
      "лора": 9782,
      "итир": 9783,
      "ексе": 9784,
      "умм": 9785,
      "топо": 9786,
      "рода": 9787,
      "ресло": 9788,
      "аңы": 9789,
      "ажо": 9790,
      "ысак": 9791,
      "йынан": 9792,
      "жиб": 9793,
      "кулда": 9794,
      "гүс": 9795,
      "алыб": 9796,
      "плена": 9797,
      "ахдат": 9798,
      "ештер": 9799,
      "елио": 9800,
      "егм": 9801,
      "лыб": 9802,
      "158": 9803,
      "ссета": 9804,
      "ивуд": 9805,
      "тулло": 9806,
      "зиё": 9807,
      "чуку": 9808,
      "мбрио": 9809,
      "стаф": 9810,
      "смос": 9811,
      "189": 9812,
      "187": 9813,
      "183": 9814,
      "летт": 9815,
      "умшак": 9816,
      "арата": 9817,
      "ашага": 9818,
      "лтд": 9819,
      "рсала": 9820,
      "рсона": 9821,
      "рсфср": 9822,
      "228": 9823,
      "217": 9824,
      "идор": 9825,
      "репер": 9826,
      "ельф": 9827,
      "цех": 9828,
      "аваи": 9829,
      "337": 9830,
      "нсан": 9831,
      "446": 9832,
      "visa": 9833,
      "юлда": 9834,
      "640": 9835,
      "найте": 9836,
      "йбар": 9837,
      "илбар": 9838,
      "лигас": 9839,
      "lex": 9840,
      "compa": 9841,
      "ресто": 9842,
      "гейт": 9843,
      "ауре": 9844,
      "арвиз": 9845,
      "ницки": 9846,
      "чыпка": 9847,
      "рижёр": 9848,
      "хотан": 9849,
      "удец": 9850,
      "lbma": 9851,
      "дхано": 9852,
      "цукер": 9853,
      "зеппе": 9854,
      "мгиче": 9855,
      "00": 9856,
      "abc": 9857,
      "act": 9858,
      "bli": 9859,
      "cu": 9860,
      "ck": 9861,
      "eta": 9862,
      "fu": 9863,
      "gt": 9864,
      "il": 9865,
      "аули": 9866,
      "вз": 9867,
      "вей": 9868,
      "гак": 9869,
      "гама": 9870,
      "дэ": 9871,
      "дала": 9872,
      "диза": 9873,
      "едик": 9874,
      "еоро": 9875,
      "жээ": 9876,
      "зап": 9877,
      "ииб": 9878,
      "йни": 9879,
      "меш": 9880,
      "мынд": 9881,
      "нни": 9882,
      "оди": 9883,
      "оса": 9884,
      "пту": 9885,
      "сил": 9886,
      "сес": 9887,
      "хим": 9888,
      "хунд": 9889,
      "цру": 9890,
      "чене": 9891,
      "ыск": 9892,
      "юмен": 9893,
      "яопи": 9894,
      "үу": 9895,
      "өдө": 9896,
      "##аа": 9897,
      "##дс": 9898,
      "##руд": 9899,
      "##бк": 9900,
      "##хат": 9901,
      "##ѳр": 9902,
      "##ӊг": 9903,
      "##ьс": 9904,
      "арри": 9905,
      "айли": 9906,
      "айдер": 9907,
      "айпак": 9908,
      "кос": 9909,
      "кост": 9910,
      "анб": 9911,
      "анбек": 9912,
      "антеп": 9913,
      "каи": 9914,
      "ишара": 9915,
      "унде": 9916,
      "ерке": 9917,
      "ерони": 9918,
      "ких": 9919,
      "азга": 9920,
      "ыпта": 9921,
      "улт": 9922,
      "улян": 9923,
      "стуг": 9924,
      "калет": 9925,
      "ылк": 9926,
      "терд": 9927,
      "оввоз": 9928,
      "урби": 9929,
      "нео": 9930,
      "үрүн": 9931,
      "преф": 9932,
      "трей": 9933,
      "өкс": 9934,
      "ирма": 9935,
      "лаус": 9936,
      "амкай": 9937,
      "оллес": 9938,
      "узук": 9939,
      "имир": 9940,
      "имаш": 9941,
      "имит": 9942,
      "годо": 9943,
      "мурат": 9944,
      "рилет": 9945,
      "дерс": 9946,
      "ымчык": 9947,
      "ейдар": 9948,
      "илиум": 9949,
      "кирд": 9950,
      "иста": 9951,
      "арту": 9952,
      "лед": 9953,
      "алича": 9954,
      "виа": 9955,
      "умия": 9956,
      "майор": 9957,
      "янни": 9958,
      "##рих": 9959,
      "ебап": 9960,
      "атың": 9961,
      "канас": 9962,
      "рух": 9963,
      "ртём": 9964,
      "атало": 9965,
      "аевди": 9966,
      "плюр": 9967,
      "спис": 9968,
      "баты": 9969,
      "фран": 9970,
      "капар": 9971,
      "егенд": 9972,
      "лыбы": 9973,
      "пист": 9974,
      "153": 9975,
      "205": 9976,
      "201": 9977,
      "олос": 9978,
      "ерещ": 9979,
      "кспо": 9980,
      "129": 9981,
      "пуле": 9982,
      "no9": 9983,
      "ариа": 9984,
      "ороб": 9985,
      "##ваз": 9986,
      "139": 9987,
      "##ороз": 9988,
      "169": 9989,
      "168": 9990,
      "циа": 9991,
      "люге": 9992,
      "174": 9993,
      "рлери": 9994,
      "192": 9995,
      "алибр": 9996,
      "ллел": 9997,
      "ваза": 9998,
      "вахта": 9999
    }
  }
}