<unk>	0
<s>	0
</s>	0
▁к	-0
ан	-1
ар	-2
▁б	-3
ын	-4
ал	-5
▁ж	-6
да	-7
ен	-8
ат	-9
ин	-10
▁т	-11
ер	-12
▁м	-13
ай	-14
уу	-15
▁с	-16
ол	-17
кт	-18
ыл	-19
▁э	-20
ган	-21
үн	-22
▁д	-23
ор	-24
ир	-25
ун	-26
▁а	-27
ды	-28
гы	-29
ур	-30
он	-31
ил	-32
ет	-33
ия	-34
ст	-35
▁ч	-36
ек	-37
▁А	-38
га	-39
ул	-40
▁ө	-41
шт	-42
ыр	-43
▁ал	-44
ел	-45
ам	-46
▁Б	-47
▁К	-48
ык	-49
▁"	-50
ак	-51
өр	-52
ас	-53
ып	-54
оо	-55
ик	-56
▁ай	-57
өн	-58
▁,	-59
▁бол	-60
▁и	-61
үү	-62
шк	-63
▁де	-64
▁о	-65
ары	-66
дын	-67
тт	-68
ген	-69
ап	-70
ди	-71
де	-72
▁п	-73
▁ба	-74
ук	-75
▁мен	-76
ында	-77
ыз	-78
▁да	-79
ана	-80
үр	-81
▁менен	-82
из	-83
аб	-84
▁М	-85
дар	-86
▁н	-87
ий	-88
▁жана	-89
▁кар	-90
▁бир	-91
ок	-92
▁жа	-93
ым	-94
атт	-95
▁эл	-96
▁ар	-97
▁у	-98
▁ко	-99
кан	-100
ов	-101
▁бер	-102
дө	-103
стан	-104
дан	-105
ый	-106
ес	-107
▁ү	-108
ог	-109
▁жат	-110
ей	-111
▁О	-112
▁кө	-113
▁Ж	-114
им	-115
ус	-116
▁2	-117
ча	-118
▁Т	-119
▁1	-120
ция	-121
▁эк	-122
▁С	-123
▁кел	-124
лар	-125
уп	-126
үл	-127
гыз	-128
өл	-129
ына	-130
ра	-131
аны	-132
▁ш	-133
ыргыз	-134
▁ма	-135
▁деп	-136
ев	-137
ма	-138
ист	-139
ип	-140
ге	-141
тк	-142
ре	-143
ду	-144
▁тур	-145
гө	-146
ги	-147
▁-	-148
▁бар	-149
ынын	-150
ыш	-151
ден	-152
▁тар	-153
алган	-154
▁бо	-155
етт	-156
ект	-157
ка	-158
юн	-159
▁кыз	-160
гон	-161
дин	-162
дык	-163
▁ат	-164
ли	-165
▁бил	-166
▁айт	-167
ба	-168
▁өз	-169
▁со	-170
▁эм	-171
дагы	-172
үз	-173
аз	-174
нын	-175
ск	-176
▁У	-177
үп	-178
▁жар	-179
дам	-180
▁эле	-181
өт	-182
▁үч	-183
▁чы	-184
аган	-185
ку	-186
ит	-187
еп	-188
ем	-189
сы	-190
иш	-191
▁Ал	-192
▁Кыргыз	-193
уш	-194
анын	-195
айл	-196
▁кат	-197
гөн	-198
бек	-199
▁та	-200
▁кыл	-201
▁өл	-202
▁ишт	-203
алык	-204
▁ор	-205
дир	-206
алуу	-207
зи	-208
ери	-209
▁боюн	-210
алым	-211
▁боюнча	-212
ум	-213
▁р	-214
▁бул	-215
инин	-216
уз	-217
мат	-218
▁Э	-219
▁билдир	-220
▁Кыргызстан	-221
▁20	-222
▁.	-223
▁болгон	-224
▁туу	-225
▁жыл	-226
дай	-227
үй	-228
от	-229
▁үчүн	-230
инде	-231
го	-232
▁кай	-233
▁маалым	-234
жыл	-235
▁көр	-236
▁кор	-237
▁кал	-238
▁И	-239
▁жаткан	-240
ең	-241
еч	-242
шы	-243
үм	-244
▁са	-245
до	-246
▁кол	-247
лек	-248
▁то	-249
▁иш	-250
инист	-251
▁жол	-252
рези	-253
▁мам	-254
резиден	-255
▁өлк	-256
ут	-257
гил	-258
ктар	-259
дук	-260
ине	-261
▁каб	-262
үк	-263
▁Ор	-264
ег	-265
▁адам	-266
▁ком	-267
ерл	-268
инистр	-269
▁жет	-270
ом	-271
▁тал	-272
үш	-273
▁Бул	-274
▁күн	-275
үч	-276
усия	-277
аар	-278
▁деген	-279
ады	-280
▁башк	-281
▁жүр	-282
▁ак	-283
▁Д	-284
▁экен	-285
▁Бир	-286
▁П	-287
ылган	-288
чу	-289
еш	-290
лык	-291
▁кан	-292
дун	-293
чи	-294
▁кызмат	-295
▁кур	-296
бай	-297
▁жок	-298
▁кер	-299
▁кет	-300
▁болуп	-301
▁мамлек	-302
▁кий	-303
аш	-304
зам	-305
▁өк	-306
▁баш	-307
ейин	-308
▁дагы	-309
ооп	-310
өө	-311
▁Орусия	-312
▁ми	-313
чы	-314
▁чейин	-315
унун	-316
та	-317
▁Н	-318
ынан	-319
кы	-320
шкан	-321
ууга	-322
лан	-323
▁туур	-324
▁президен	-325
үндө	-326
▁жер	-327
асы	-328
▁тууралуу	-329
▁Ош	-330
уг	-331
▁ф	-332
▁уч	-333
▁аз	-334
▁бел	-335
▁Ан	-336
үг	-337
ав	-338
▁жаз	-339
алар	-340
уна	-341
▁турган	-342
арт	-343
ыйзам	-344
дер	-345
▁эмес	-346
▁кийин	-347
ян	-348
дик	-349
унда	-350
бл	-351
▁кир	-352
чыл	-353
ишк	-354
▁ул	-355
▁жак	-356
▁3	-357
▁бас	-358
кен	-359
дү	-360
▁жатат	-361
▁ка	-362
ез	-363
еб	-364
ыкт	-365
ерлер	-366
▁керек	-367
дон	-368
▁өт	-369
▁чыг	-370
икт	-371
▁башт	-372
бо	-373
▁Ө	-374
▁мыйзам	-375
үнө	-376
▁(	-377
▁шаар	-378
▁сал	-379
▁министр	-380
агы	-381
ки	-382
▁алып	-383
чул	-384
яс	-385
▁алар	-386
▁бий	-387
уун	-388
▁биз	-389
▁мамлекетт	-390
▁Р	-391
▁өтк	-392
▁учур	-393
▁ан	-394
бр	-395
▁мил	-396
аттар	-397
▁маалымат	-398
ээ	-399
ке	-400
укт	-401
ент	-402
▁көп	-403
дөр	-404
▁үй	-405
▁алган	-406
сыз	-407
▁эки	-408
ору	-409
ага	-410
▁бал	-411
▁кам	-412
өм	-413
▁ук	-414
▁байл	-415
өз	-416
▁белгил	-417
ро	-418
ман	-419
ябр	-420
▁аны	-421
▁анын	-422
уул	-423
▁л	-424
раин	-425
тер	-426
▁тарт	-427
▁шайл	-428
▁жай	-429
дары	-430
аж	-431
▁з	-432
жылы	-433
▁Г	-434
▁көз	-435
үнүн	-436
▁Ч	-437
▁мур	-438
▁в	-439
▁күч	-440
▁байланы	-441
▁миң	-442
▁ош	-443
▁түз	-444
ушт	-445
ял	-446
арл	-447
▁ую	-448
иши	-449
ышт	-450
▁ич	-451
▁кыргыз	-452
..	-453
өлөр	-454
ис	-455
ылуу	-456
▁мас	-457
▁дол	-458
уст	-459
▁чеч	-460
өй	-461
▁келген	-462
▁Аз	-463
еле	-464
егиз	-465
▁Бирок	-466
инчи	-467
▁чыгар	-468
▁Бишк	-469
▁айма	-470
▁сөз	-471
▁ин	-472
дардын	-473
гү	-474
▁саяс	-475
▁президент	-476
ран	-477
▁жары	-478
чил	-479
▁Ук	-480
▁билдирди	-481
утт	-482
ындагы	-483
▁жаш	-484
▁экенин	-485
▁өн	-486
ыт	-487
ыйын	-488
▁жаң	-489
▁оку	-490
иев	-491
▁Ш	-492
▁өлкө	-493
алы	-494
▁жөн	-495
▁ок	-496
▁жаран	-497
то	-498
ив	-499
▁обл	-500
төр	-501
ты	-502
оом	-503
үүгө	-504
▁каршы	-505
күн	-506
мө	-507
▁чык	-508
▁Украин	-509
▁аб	-510
▁төр	-511
▁башка	-512
▁аш	-513
скер	-514
▁уш	-515
огор	-516
баев	-517
▁бөл	-518
▁көрс	-519
доо	-520
▁түш	-521
орб	-522
▁ты	-523
00	-524
▁5	-525
▁тер	-526
со	-527
▁4	-528
▁ил	-529
▁иштер	-530
уга	-531
аттык	-532
иянын	-533
акыр	-534
са	-535
ууда	-536
суз	-537
үмкүн	-538
▁оор	-539
икалык	-540
азак	-541
▁Алар	-542
өш	-543
▁мүмкүн	-544
▁байланышт	-545
▁эс	-546
▁же	-547
ктан	-548
▁чыгы	-549
▁кандай	-550
аров	-551
▁бери	-552
си	-553
▁шайлоо	-554
▁болду	-555
▁ре	-556
еси	-557
елер	-558
▁карм	-559
▁мак	-560
айон	-561
гын	-562
▁га	-563
алдык	-564
ейт	-565
▁мамлекеттик	-566
ада	-567
▁калган	-568
сынын	-569
алды	-570
дуу	-571
огорку	-572
▁202	-573
гында	-574
лик	-575
йт	-576
дөн	-577
еген	-578
▁кош	-579
▁сур	-580
▁негиз	-581
▁район	-582
▁ган	-583
▁талап	-584
ация	-585
▁коом	-586
орбор	-587
инен	-588
▁В	-589
ыркы	-590
аза	-591
иция	-592
▁болот	-593
▁Е	-594
▁гана	-595
▁201	-596
арын	-597
▁түр	-598
алып	-599
чү	-600
▁эми	-601
▁чек	-602
акт	-603
▁ач	-604
өнүн	-605
▁чакыр	-606
еди	-607
сп	-608
▁кооп	-609
оң	-610
үйн	-611
0-	-612
иялык	-613
▁алын	-614
▁министрли	-615
айын	-616
▁тап	-617
үт	-618
дыр	-619
▁бийли	-620
▁эр	-621
дүн	-622
тур	-623
▁ав	-624
дор	-625
▁пр	-626
ябрда	-627
▁киши	-628
▁дар	-629
▁чыккан	-630
окт	-631
▁жас	-632
иг	-633
үнү	-634
▁арак	-635
лөр	-636
▁кабыл	-637
гиз	-638
уну	-639
ара	-640
▁Жап	-641
▁айып	-642
▁жыйын	-643
▁жаңы	-644
▁байланыштуу	-645
▁жатканын	-646
▁кою	-647
▁катт	-648
▁сакт	-649
▁Биз	-650
▁токт	-651
▁айтып	-652
ентт	-653
▁катары	-654
об	-655
▁жооп	-656
ындай	-657
айт	-658
▁Кыргызстандын	-659
ци	-660
чулар	-661
дүү	-662
▁уюм	-663
▁топ	-664
",	-665
чүл	-666
ания	-667
▁19	-668
▁жал	-669
▁аралык	-670
иб	-671
▁Казак	-672
▁6	-673
▁депут	-674
КШ	-675
▁сүй	-676
мөт	-677
▁кылм	-678
▁7	-679
ондо	-680
▁алдын	-681
▁тарап	-682
▁Өз	-683
▁Ак	-684
чө	-685
асын	-686
▁АКШ	-687
▁кең	-688
ыс	-689
▁өткөр	-690
рам	-691
▁ишк	-692
ешт	-693
епт	-694
тар	-695
рым	-696
▁берген	-697
тты	-698
▁Ф	-699
▁өкүл	-700
▁кыр	-701
▁кызм	-702
гоо	-703
▁парт	-704
▁сот	-705
сү	-706
ууну	-707
▁масел	-708
▁берил	-709
▁милли	-710
▁сом	-711
ени	-712
ашт	-713
▁пай	-714
▁кызматк	-715
ылып	-716
▁айыл	-717
▁комп	-718
уттук	-719
▁кый	-720
аты	-721
▁кеткен	-722
▁сан	-723
▁облус	-724
▁Л	-725
чысы	-726
▁ыл	-727
кин	-728
▁Жапаров	-729
▁атк	-730
▁жум	-731
▁Орусиянын	-732
▁тол	-733
▁тил	-734
▁болсо	-735
үкт	-736
▁Казакстан	-737
▁айткан	-738
асм	-739
асында	-740
▁ур	-741
▁көб	-742
онав	-743
уб	-744
▁Жогорку	-745
сия	-746
▁сун	-747
үгүн	-748
▁сог	-749
еги	-750
▁чечим	-751
дарды	-752
оном	-753
ышы	-754
▁долбо	-755
арлам	-756
онавир	-757
▁Анын	-758
▁сүйл	-759
▁:	-760
не	-761
▁Кыргызстанда	-762
▁коопсуз	-763
▁Ай	-764
▁ошол	-765
▁кайра	-766
▁кайр	-767
яр	-768
▁кез	-769
▁кой	-770
үүдө	-771
ика	-772
▁дин	-773
▁жетек	-774
сун	-775
гына	-776
▁деди	-777
быз	-778
▁Х	-779
▁көрсөт	-780
нал	-781
▁караган	-782
▁билдирген	-783
үлгөн	-784
▁Ул	-785
▁жардам	-786
▁чет	-787
▁ой	-788
1-	-789
ыгы	-790
▁Ев	-791
беков	-792
▁Бишкект	-793
▁окуя	-794
▁8	-795
ытай	-796
дүр	-797
Аз	-798
▁кон	-799
▁г	-800
ышат	-801
иде	-802
▁дүйн	-803
үрк	-804
▁",	-805
адыр	-806
тан	-807
ест	-808
ушу	-809
▁ылай	-810
урнал	-811
шкы	-812
▁алуу	-813
тор	-814
▁коргоо	-815
ылды	-816
▁жакын	-817
▁мурдагы	-818
се	-819
▁жашт	-820
▁партия	-821
гер	-822
ети	-823
▁ыр	-824
абыз	-825
мар	-826
шка	-827
ла	-828
▁жолу	-829
огон	-830
▁Ар	-831
▁жүрг	-832
тыр	-833
кү	-834
▁уба	-835
ой	-836
▁өткөн	-837
▁эч	-838
▁жаб	-839
▁ап	-840
асмий	-841
▁албай	-842
орт	-843
▁киргиз	-844
▁кызматт	-845
улган	-846
су	-847
оого	-848
урналист	-849
▁бай	-850
▁сат	-851
▁учурда	-852
▁Кең	-853
▁өлкөлөр	-854
▁аскер	-855
▁ары	-856
▁Аб	-857
▁колдон	-858
▁өкмөт	-859
▁9	-860
▁ылайык	-861
▁Бат	-862
гөр	-863
кта	-864
▁бири	-865
▁алды	-866
▁азыр	-867
алда	-868
▁Кытай	-869
роп	-870
▁айтты	-871
▁ара	-872
екем	-873
кты	-874
олог	-875
▁өзгөр	-876
▁отур	-877
▁улам	-878
▁башкар	-879
иги	-880
тын	-881
өп	-882
▁парлам	-883
ондой	-884
▁орун	-885
ерди	-886
▁дем	-887
2-	-888
туу	-889
▁чыгып	-890
▁ге	-891
▁аба	-892
▁тү	-893
▁Ба	-894
дөрү	-895
▁акт	-896
рем	-897
▁из	-898
ата	-899
▁соң	-900
▁ушул	-901
▁коронавир	-902
▁президентт	-903
▁талк	-904
▁ичинде	-905
▁дан	-906
гун	-907
но	-908
▁Мен	-909
▁аныкт	-910
▁Түрк	-911
▁түшүн	-912
▁жүргүз	-913
▁аял	-914
кер	-915
▁берүү	-916
▁келиш	-917
▁май	-918
ышкан	-919
▁арк	-920
▁таб	-921
▁бирок	-922
▁кес	-923
▁сотт	-924
мия	-925
▁Мам	-926
▁долбоор	-927
ларды	-928
▁чоң	-929
тта	-930
▁дай	-931
атты	-932
▁алардын	-933
дөө	-934
▁келет	-935
анда	-936
▁Мо	-937
дей	-938
ышты	-939
▁караганда	-940
▁буз	-941
угу	-942
уучу	-943
...	-944
ттар	-945
▁ли	-946
дек	-947
сат	-948
▁Ат	-949
▁жалп	-950
иктүү	-951
▁караж	-952
▁З	-953
▁ага	-954
ири	-955
▁өзү	-956
▁калды	-957
ону	-958
▁компания	-959
дарга	-960
изм	-961
▁Бишкек	-962
▁мындай	-963
үүнү	-964
▁саясий	-965
▁ы	-966
▁каза	-967
ече	-968
▁жөнүндө	-969
▁жарыял	-970
сүн	-971
▁элек	-972
өөн	-973
▁журналист	-974
▁миллион	-975
үүлөр	-976
▁чар	-977
мүр	-978
▁оп	-979
өк	-980
алиев	-981
▁орто	-982
▁даяр	-983
▁ээ	-984
ындан	-985
▁айрым	-986
5-	-987
▁бийлик	-988
▁Эл	-989
▁тарма	-990
▁аркылуу	-991
▁болбо	-992
рел	-993
▁президенти	-994
▁сы	-995
ыкты	-996
▁ая	-997
▁ад	-998
аткан	-999
скв	-1000
▁борбор	-1001
акка	-1002
▁турат	-1003
▁деле	-1004
цин	-1005
8-	-1006
▁мл	-1007
▁эконом	-1008
ко	-1009
бекстан	-1010
гиликтүү	-1011
▁күр	-1012
ердин	-1013
▁Ма	-1014
▁саясат	-1015
▁кабар	-1016
▁Москв	-1017
▁тын	-1018
▁Эм	-1019
▁орус	-1020
▁катар	-1021
ос	-1022
▁келип	-1023
мер	-1024
өгөн	-1025
үгү	-1026
▁эң	-1027
ант	-1028
▁те	-1029
▁суу	-1030
▁сын	-1031
▁нече	-1032
▁мүч	-1033
▁Буга	-1034
▁расмий	-1035
▁биринчи	-1036
асына	-1037
▁көтөр	-1038
ерин	-1039
олор	-1040
▁Садыр	-1041
4-	-1042
▁он	-1043
асынын	-1044
инг	-1045
ерлери	-1046
▁аткар	-1047
▁нын	-1048
▁ст	-1049
сиз	-1050
▁катыш	-1051
▁Таж	-1052
▁жерде	-1053
▁ким	-1054
▁себ	-1055
3-	-1056
өлүк	-1057
жылдын	-1058
ыйыл	-1059
сын	-1060
▁кырда	-1061
вар	-1062
▁кылып	-1063
▁берип	-1064
▁чект	-1065
▁доллар	-1066
илген	-1067
убл	-1068
циалдык	-1069
▁иштеп	-1070
▁Кор	-1071
циялык	-1072
▁жакшы	-1073
▁дары	-1074
▁комит	-1075
Азаттык	-1076
▁кылган	-1077
▁турганын	-1078
бей	-1079
стит	-1080
▁коопсуздук	-1081
▁түн	-1082
етти	-1083
анды	-1084
гөө	-1085
өтк	-1086
▁Тажик	-1087
▁Өзбекстан	-1088
▁орган	-1089
▁күнү	-1090
▁жүргөн	-1091
▁кылмыш	-1092
шыр	-1093
▁жең	-1094
▁тий	-1095
ишт	-1096
▁буга	-1097
дөгү	-1098
▁чог	-1099
7-	-1100
МК	-1101
юл	-1102
ланган	-1103
▁эсепт	-1104
өмөл	-1105
аң	-1106
лор	-1107
▁Кар	-1108
▁төл	-1109
▁маан	-1110
▁)	-1111
▁атайын	-1112
▁алынган	-1113
▁ти	-1114
▁төрага	-1115
▁Кеңешт	-1116
ова	-1117
окур	-1118
▁эмне	-1119
ңг	-1120
▁жалпы	-1121
▁миг	-1122
▁кызматы	-1123
▁айыпт	-1124
▁көзөмөл	-1125
▁министрлиги	-1126
▁дүйнө	-1127
▁сүйлөш	-1128
▁иши	-1129
▁мамлекет	-1130
▁пик	-1131
▁сыр	-1132
▁өлкөнүн	-1133
онун	-1134
гинин	-1135
6-	-1136
▁бардык	-1137
▁Улуттук	-1138
алат	-1139
енин	-1140
▁кабарл	-1141
тир	-1142
өтт	-1143
▁Ошол	-1144
▁коронавирус	-1145
▁туура	-1146
пай	-1147
окум	-1148
ерг	-1149
▁Жал	-1150
▁аракет	-1151
ала	-1152
ылык	-1153
огу	-1154
еке	-1155
▁Тажикстан	-1156
аг	-1157
▁комис	-1158
▁иликт	-1159
▁Со	-1160
▁ишке	-1161
▁меди	-1162
лардын	-1163
▁курул	-1164
штур	-1165
дүк	-1166
▁Президен	-1167
шкөн	-1168
екш	-1169
▁берди	-1170
▁Борбор	-1171
алан	-1172
есп	-1173
түү	-1174
гөчө	-1175
еттик	-1176
▁акча	-1177
▁ң	-1178
руп	-1179
▁мект	-1180
мөтт	-1181
ктуу	-1182
▁кеңеш	-1183
▁болчу	-1184
густ	-1185
▁эксп	-1186
9-	-1187
▁ачык	-1188
▁башчысы	-1189
оп	-1190
▁эскер	-1191
▁коз	-1192
май	-1193
▁Уш	-1194
▁бийликт	-1195
рат	-1196
▁келишим	-1197
▁Ы	-1198
▁жан	-1199
▁Европ	-1200
▁карата	-1201
▁беш	-1202
▁багы	-1203
чылар	-1204
чылык	-1205
пи	-1206
▁Алардын	-1207
ымында	-1208
▁элект	-1209
▁кач	-1210
лер	-1211
январ	-1212
▁кы	-1213
▁жаг	-1214
▁сактоо	-1215
▁социалдык	-1216
ерс	-1217
абр	-1218
еспубл	-1219
▁сунушт	-1220
▁прокур	-1221
▁Азыр	-1222
министр	-1223
бүл	-1224
▁аймактар	-1225
▁жатышат	-1226
ах	-1227
дуктан	-1228
▁кошум	-1229
▁арыз	-1230
▁саны	-1231
▁абал	-1232
ед	-1233
▁10	-1234
▁ден	-1235
▁айтымында	-1236
атур	-1237
▁оорук	-1238
▁басма	-1239
▁жаштагы	-1240
дикт	-1241
▁баштаган	-1242
олгон	-1243
▁ди	-1244
▁курал	-1245
▁Эк	-1246
▁доб	-1247
▁баары	-1248
етинин	-1249
▁салуу	-1250
▁парламентт	-1251
аараз	-1252
КМК	-1253
▁уюштур	-1254
▁жог	-1255
ылат	-1256
▁сап	-1257
үшт	-1258
▁уул	-1259
бүз	-1260
▁киш	-1261
▁пикир	-1262
▁эн	-1263
▁жергиликтүү	-1264
▁чаб	-1265
ундай	-1266
▁актив	-1267
▁токтот	-1268
ри	-1269
деги	-1270
▁бан	-1271
▁эркин	-1272
арых	-1273
▁биздин	-1274
▁төрт	-1275
▁тергөө	-1276
▁ун	-1277
▁өтө	-1278
чиси	-1279
ьер	-1280
▁докум	-1281
▁кырдаал	-1282
▁камсыз	-1283
ны	-1284
▁Нур	-1285
▁облуст	-1286
ози	-1287
▁наараз	-1288
▁макул	-1289
▁маалыматтар	-1290
▁аск	-1291
▁200	-1292
ыктар	-1293
▁Азия	-1294
▁өтүп	-1295
▁Ин	-1296
▁мурда	-1297
▁арасында	-1298
▁Баткен	-1299
▁келтир	-1300
ылм	-1301
▁жолуг	-1302
▁белгилүү	-1303
▁мамил	-1304
▁көбөй	-1305
▁шаарында	-1306
тка	-1307
▁министри	-1308
дим	-1309
сына	-1310
мен	-1311
бад	-1312
▁мекем	-1313
▁Кеңештин	-1314
▁ишен	-1315
▁коюл	-1316
▁күчтөр	-1317
▁кеч	-1318
▁дал	-1319
▁Анда	-1320
есин	-1321
▁жүз	-1322
евр	-1323
үшү	-1324
▁милд	-1325
хн	-1326
▁адамдар	-1327
Абад	-1328
▁кармалган	-1329
▁Мамлек	-1330
гач	-1331
▁айында	-1332
▁жайга	-1333
еби	-1334
утин	-1335
рация	-1336
өкт	-1337
▁күрөш	-1338
ама	-1339
аттуу	-1340
ундагы	-1341
▁Кон	-1342
▁окуу	-1343
▁сист	-1344
▁Эр	-1345
▁таас	-1346
▁бош	-1347
▁Украина	-1348
▁аскердик	-1349
алам	-1350
юу	-1351
▁тапшыр	-1352
▁Ошон	-1353
▁маселе	-1354
апрел	-1355
▁Украинанын	-1356
▁ата	-1357
▁мөөн	-1358
ремьер	-1359
▁жылдан	-1360
аларды	-1361
▁сүр	-1362
аль	-1363
▁кыргызстан	-1364
кө	-1365
▁су	-1366
▁сыя	-1367
▁барып	-1368
оз	-1369
гин	-1370
▁таж	-1371
▁авто	-1372
▁милиция	-1373
▁өкмөтт	-1374
үлүп	-1375
▁Путин	-1376
▁жетекчил	-1377
арды	-1378
▁сп	-1379
▁билим	-1380
▁өр	-1381
ганын	-1382
▁на	-1383
▁бек	-1384
▁аген	-1385
▁тарых	-1386
овдун	-1387
бул	-1388
▁эт	-1389
▁аталган	-1390
▁акция	-1391
▁карап	-1392
▁жүрүп	-1393
▁толук	-1394
▁андан	-1395
дарын	-1396
сык	-1397
▁тынч	-1398
▁ра	-1399
▁сыяктуу	-1400
ганы	-1401
▁бүт	-1402
▁тартып	-1403
▁болушу	-1404
▁таан	-1405
▁ашык	-1406
▁зар	-1407
▁Андан	-1408
▁быз	-1409
ткени	-1410
▁корк	-1411
▁коомдук	-1412
▁Оо	-1413
▁кем	-1414
▁виде	-1415
▁жатканы	-1416
сунда	-1417
▁Ү	-1418
ардык	-1419
▁койгон	-1420
сан	-1421
▁15	-1422
ынча	-1423
ишкен	-1424
▁Ага	-1425
▁чабуул	-1426
▁кайт	-1427
штыр	-1428
▁алдында	-1429
тык	-1430
үрүү	-1431
▁иштеген	-1432
▁так	-1433
▁басары	-1434
▁комиссия	-1435
тик	-1436
ранттар	-1437
▁Кур	-1438
▁электр	-1439
▁башкы	-1440
▁түшүндүр	-1441
▁го	-1442
▁Бел	-1443
екшер	-1444
▁ойл	-1445
▁корруп	-1446
▁оюн	-1447
▁тиеш	-1448
ктын	-1449
алары	-1450
октябрда	-1451
▁төрагасы	-1452
▁лид	-1453
▁жарыя	-1454
▁болгонун	-1455
▁Из	-1456
▁пол	-1457
▁соңку	-1458
дап	-1459
▁быйыл	-1460
▁шар	-1461
ортт	-1462
▁лар	-1463
▁түнкү	-1464
▁млн	-1465
▁C	-1466
▁укук	-1467
ерге	-1468
унан	-1469
▁жара	-1470
▁Тал	-1471
▁райондук	-1472
▁агентт	-1473
▁сатып	-1474
▁Са	-1475
үнөн	-1476
▁айтылган	-1477
▁мыйзамсыз	-1478
▁чыкты	-1479
▁экинчи	-1480
ош	-1481
дүз	-1482
кат	-1483
ээн	-1484
▁өлкөдө	-1485
▁уз	-1486
▁текшер	-1487
кын	-1488
▁ички	-1489
▁бу	-1490
▁тургун	-1491
ерт	-1492
догон	-1493
ланды	-1494
▁жетк	-1495
▁салын	-1496
▁ушундай	-1497
▁про	-1498
▁бийлиги	-1499
ияда	-1500
▁өзгөчө	-1501
атта	-1502
▁х	-1503
▁тең	-1504
ылтыр	-1505
июн	-1506
▁өмүр	-1507
▁колдоо	-1508
▁билдирүү	-1509
улуп	-1510
▁там	-1511
▁эск	-1512
▁улуттук	-1513
раил	-1514
август	-1515
▁Мындан	-1516
▁Бай	-1517
▁добуш	-1518
▁аракетт	-1519
▁жыйынты	-1520
-1	-1521
демия	-1522
▁акыркы	-1523
▁илим	-1524
▁коомчул	-1525
▁техн	-1526
▁көрсөтк	-1527
ститу	-1528
аев	-1529
усу	-1530
▁өндүр	-1531
▁Мар	-1532
▁жылга	-1533
оода	-1534
▁ала	-1535
▁козг	-1536
▁тоб	-1537
▁ашуун	-1538
бир	-1539
▁мүчө	-1540
▁жеке	-1541
▁Министр	-1542
▁Мур	-1543
▁азыркы	-1544
▁аж	-1545
▁дейт	-1546
ерен	-1547
▁тышк	-1548
▁укукт	-1549
▁Иран	-1550
▁баз	-1551
шты	-1552
▁ды	-1553
декабр	-1554
▁оң	-1555
▁12	-1556
игин	-1557
▁министрлигинин	-1558
▁тышкары	-1559
▁бүгүн	-1560
▁Ошондой	-1561
емир	-1562
бы	-1563
тип	-1564
▁алгач	-1565
▁өкүлү	-1566
▁1-	-1567
▁кл	-1568
▁берет	-1569
▁күт	-1570
▁башталган	-1571
▁маалыматына	-1572
▁тан	-1573
др	-1574
ограм	-1575
чал	-1576
▁Ооган	-1577
▁Европа	-1578
▁АКШнын	-1579
▁бур	-1580
ктылуу	-1581
▁мүмкүнчүл	-1582
дарынын	-1583
▁Бишкекте	-1584
▁такт	-1585
▁ишкан	-1586
▁өзүнүн	-1587
▁анда	-1588
▁кызматкерлер	-1589
▁берилген	-1590
ңүл	-1591
▁дун	-1592
тко	-1593
екен	-1594
▁ыра	-1595
▁Эгер	-1596
▁жумуш	-1597
▁кайсы	-1598
▁күндүз	-1599
▁керект	-1600
▁таш	-1601
уунун	-1602
жан	-1603
озиция	-1604
▁ошондой	-1605
өрү	-1606
▁шаардык	-1607
▁согуш	-1608
бак	-1609
▁таасир	-1610
мак	-1611
ост	-1612
ттү	-1613
▁Москва	-1614
сент	-1615
▁экени	-1616
▁жеткир	-1617
▁Президент	-1618
▁Бак	-1619
▁тааны	-1620
▁УКМК	-1621
мыл	-1622
уулар	-1623
дарына	-1624
▁11	-1625
▁түнкүсүн	-1626
▁көч	-1627
▁бала	-1628
▁көңүл	-1629
▁активист	-1630
▁белгиледи	-1631
▁вир	-1632
▁Мындай	-1633
▁деңг	-1634
▁прокуратур	-1635
▁деңгээ	-1636
▁кен	-1637
▁президенттик	-1638
аттары	-1639
▁өкүлдөрү	-1640
▁тизм	-1641
ептер	-1642
▁соода	-1643
▁Жалал	-1644
▁маалымда	-1645
▁дын	-1646
▁жагдай	-1647
▁сый	-1648
мартта	-1649
етте	-1650
елүү	-1651
▁келди	-1652
иц	-1653
рит	-1654
▁тыюу	-1655
▁жазды	-1656
кул	-1657
▁барган	-1658
тон	-1659
атка	-1660
▁30	-1661
айым	-1662
▁негизги	-1663
▁систем	-1664
▁Жээн	-1665
▁ов	-1666
сак	-1667
▁Израил	-1668
▁Ооганстан	-1669
ардын	-1670
▁кайтар	-1671
▁медицин	-1672
деп	-1673
▁Кыргызстанга	-1674
▁экономикалык	-1675
▁100	-1676
егинде	-1677
чар	-1678
▁кезде	-1679
▁бөлүм	-1680
▁Анткени	-1681
дөй	-1682
▁ишин	-1683
абай	-1684
ылыш	-1685
▁улан	-1686
▁бере	-1687
фор	-1688
▁оо	-1689
юм	-1690
июл	-1691
▁пайда	-1692
▁зарыл	-1693
▁жарым	-1694
▁жетекчиси	-1695
▁комм	-1696
▁арал	-1697
ыктын	-1698
▁өзүн	-1699
майда	-1700
ушка	-1701
▁күй	-1702
▁жазган	-1703
▁жатабыз	-1704
дыктар	-1705
▁дайын	-1706
▁энерг	-1707
ият	-1708
▁кыймыл	-1709
▁шт	-1710
▁фон	-1711
▁пайд	-1712
▁алууга	-1713
▁салган	-1714
ткөн	-1715
▁жолугуш	-1716
▁2020-	-1717
▁учурунда	-1718
гынын	-1719
▁алма	-1720
имов	-1721
▁бошот	-1722
▁ир	-1723
▁алат	-1724
дж	-1725
елен	-1726
кция	-1727
терн	-1728
ээр	-1729
▁өнүкт	-1730
▁жогорку	-1731
▁изил	-1732
январда	-1733
▁Вла	-1734
▁ири	-1735
▁башкарм	-1736
▁Мамлекеттик	-1737
аттын	-1738
▁саб	-1739
▁котор	-1740
нун	-1741
▁чын	-1742
▁N	-1743
▁кетти	-1744
▁ади	-1745
▁Ысык	-1746
▁кирген	-1747
лам	-1748
ология	-1749
Көл	-1750
▁урук	-1751
▁иштери	-1752
▁коркуну	-1753
илүү	-1754
▁опер	-1755
▁журналисттер	-1756
гөй	-1757
▁жоопкер	-1758
▁уулу	-1759
▁максат	-1760
▁колдо	-1761
ич	-1762
аса	-1763
ттер	-1764
укка	-1765
ноябрда	-1766
▁Ошондуктан	-1767
дыгы	-1768
▁мөөнөт	-1769
эн	-1770
эр	-1771
августта	-1772
сүндө	-1773
▁жарандык	-1774
▁алка	-1775
оол	-1776
▁согушт	-1777
▁облусунун	-1778
▁тараб	-1779
▁жазылган	-1780
етин	-1781
▁Башкы	-1782
оолор	-1783
▁өлүм	-1784
▁басып	-1785
▁тышкы	-1786
дум	-1787
июнда	-1788
апрелде	-1789
▁белги	-1790
димир	-1791
▁канча	-1792
рес	-1793
гине	-1794
од	-1795
индеги	-1796
▁убактылуу	-1797
на	-1798
▁документт	-1799
▁украин	-1800
▁Владимир	-1801
▁Украинага	-1802
рд	-1803
▁түшкөн	-1804
▁Атам	-1805
▁факт	-1806
▁кылмышт	-1807
▁полиция	-1808
▁облусунда	-1809
диги	-1810
▁кит	-1811
деген	-1812
▁берен	-1813
▁айлан	-1814
▁жабыр	-1815
▁алты	-1816
▁Биринчи	-1817
▁мигранттар	-1818
бол	-1819
▁аларды	-1820
▁мун	-1821
▁депутат	-1822
▁маселелер	-1823
▁ажыр	-1824
ограмм	-1825
▁кү	-1826
бүлө	-1827
▁кызматынын	-1828
▁маанилүү	-1829
▁кызык	-1830
▁кийинки	-1831
▁оорукана	-1832
▁кап	-1833
▁бейт	-1834
▁уу	-1835
▁жоопкерчил	-1836
▁Чүй	-1837
елген	-1838
▁ын	-1839
▁белгилен	-1840
▁убак	-1841
▁шект	-1842
▁жый	-1843
▁премьер	-1844
▁?	-1845
▁салам	-1846
▁коррупция	-1847
даш	-1848
▁Уч	-1849
декабрда	-1850
▁ий	-1851
өнү	-1852
▁көй	-1853
▁кодек	-1854
▁ол	-1855
алдуу	-1856
▁шарт	-1857
хан	-1858
▁миңден	-1859
▁үст	-1860
▁Жээнбеков	-1861
▁башкармалы	-1862
▁келе	-1863
▁топт	-1864
▁катуу	-1865
▁иликтөө	-1866
▁саат	-1867
▁армия	-1868
ологиялык	-1869
▁кошумчал	-1870
мон	-1871
▁жоо	-1872
▁Кыргызстандагы	-1873
▁кала	-1874
емб	-1875
түр	-1876
▁Кам	-1877
▁2021-	-1878
▁Конститу	-1879
▁I	-1880
▁орусия	-1881
▁байк	-1882
▁жиб	-1883
Азаттыкка	-1884
▁сок	-1885
андемия	-1886
▁болгону	-1887
▁чейинки	-1888
угун	-1889
▁Дүйн	-1890
▁президенттин	-1891
▁Казакстандын	-1892
алап	-1893
▁план	-1894
▁кайрылуу	-1895
▁акч	-1896
▁сунуш	-1897
сентябрда	-1898
▁негизинде	-1899
баган	-1900
▁опп	-1901
▁калып	-1902
рор	-1903
▁кетип	-1904
итардык	-1905
▁башында	-1906
бөй	-1907
▁эрк	-1908
▁талапкер	-1909
▁бю	-1910
▁элдик	-1911
лары	-1912
орун	-1913
че	-1914
ябрь	-1915
▁элдин	-1916
▁13	-1917
арий	-1918
▁алкагында	-1919
▁аскерлер	-1920
▁деңгээл	-1921
▁Бал	-1922
▁имар	-1923
оону	-1924
етр	-1925
▁Атамбаев	-1926
ард	-1927
▁депутаттар	-1928
▁арт	-1929
ктагы	-1930
тке	-1931
▁окуялар	-1932
вок	-1933
акет	-1934
жы	-1935
▁куб	-1936
▁абдан	-1937
▁14	-1938
▁ку	-1939
▁ради	-1940
▁уруксат	-1941
ократ	-1942
дердин	-1943
▁2022-	-1944
▁бат	-1945
вест	-1946
рон	-1947
▁пайыз	-1948
▁мындан	-1949
▁жашоо	-1950
уучулар	-1951
▁сез	-1952
▁көйгөй	-1953
биз	-1954
▁Ушул	-1955
мо	-1956
аларын	-1957
▁көл	-1958
бейт	-1959
ишти	-1960
▁мадан	-1961
▁маш	-1962
▁ташт	-1963
▁Орусияда	-1964
,5	-1965
сө	-1966
ума	-1967
герлер	-1968
▁баштады	-1969
▁шайлоого	-1970
▁ый	-1971
▁өнөкт	-1972
▁ыкт	-1973
февр	-1974
▁Гер	-1975
▁адамдын	-1976
▁199	-1977
▁нер	-1978
сул	-1979
▁Учур	-1980
▁ык	-1981
өмөн	-1982
суна	-1983
▁айтылат	-1984
ымал	-1985
өшт	-1986
синин	-1987
▁бейтап	-1988
▁катышкан	-1989
▁каал	-1990
▁талкуу	-1991
үүчү	-1992
ти	-1993
▁дарыл	-1994
▁кыргызстандык	-1995
▁кабарлады	-1996
▁Эми	-1997
▁гы	-1998
▁сотко	-1999
▁сайын	-2000
андык	-2001
июлда	-2002
уктар	-2003
▁Маалым	-2004
омбул	-2005
▁Түркия	-2006
▁тез	-2007
▁өттү	-2008
есине	-2009
▁катчысы	-2010
▁жарат	-2011
▁жарыялаган	-2012
атый	-2013
▁көрүн	-2014
дет	-2015
мөн	-2016
▁алтын	-2017
стр	-2018
▁кызматкерлери	-2019
ого	-2020
▁18	-2021
атыйж	-2022
▁нерсе	-2023
▁Өк	-2024
▁жатып	-2025
▁кул	-2026
▁Таш	-2027
▁төмөн	-2028
ина	-2029
акч	-2030
▁Кан	-2031
гек	-2032
▁камакка	-2033
▁жашаган	-2034
реж	-2035
чүлөр	-2036
▁видео	-2037
▁эске	-2038
▁дир	-2039
▁көрүп	-2040
УУ	-2041
▁ашыр	-2042
▁млрд	-2043
▁мурун	-2044
▁жылдын	-2045
абы	-2046
▁мат	-2047
▁басым	-2048
итинг	-2049
асындагы	-2050
▁ордун	-2051
▁балдар	-2052
алим	-2053
акцин	-2054
иверс	-2055
▁көпчүл	-2056
▁им	-2057
▁Брит	-2058
▁жайгашкан	-2059
▁теле	-2060
догу	-2061
арым	-2062
▁Ис	-2063
▁Аны	-2064
▁туш	-2065
▁Учурда	-2066
▁жап	-2067
еттин	-2068
▁Кара	-2069
▁четке	-2070
▁фор	-2071
▁Ст	-2072
▁жеңил	-2073
VI	-2074
▁кр	-2075
амм	-2076
▁салып	-2077
▁тиешелүү	-2078
атор	-2079
▁өзгөрт	-2080
син	-2081
орон	-2082
▁уча	-2083
иштүү	-2084
ский	-2085
▁коркунуч	-2086
үйш	-2087
▁муну	-2088
лоо	-2089
▁Ток	-2090
ттан	-2091
▁Белар	-2092
ентарий	-2093
▁алгачкы	-2094
далган	-2095
▁арада	-2096
ашы	-2097
▁шек	-2098
▁тарабынан	-2099
▁от	-2100
▁Мат	-2101
▁зы	-2102
▁пайдалан	-2103
▁соту	-2104
▁оору	-2105
▁операция	-2106
▁50	-2107
▁өткөрүп	-2108
▁бү	-2109
▁катталган	-2110
еспублик	-2111
өөлөр	-2112
▁күндө	-2113
актар	-2114
▁белгисиз	-2115
▁аймагында	-2116
▁Мак	-2117
▁комментарий	-2118
ыла	-2119
▁түшт	-2120
ирүү	-2121
▁чогул	-2122
ари	-2123
Кыргыз	-2124
▁автоуна	-2125
▁милдетт	-2126
▁ачыл	-2127
▁инвест	-2128
▁демил	-2129
▁кабин	-2130
ИМ	-2131
▁ду	-2132
ээрлик	-2133
ипл	-2134
▁депутаты	-2135
▁нааразылык	-2136
▁Абд	-2137
▁азырынча	-2138
▁Тур	-2139
өгө	-2140
▁ту	-2141
рамп	-2142
▁Бол	-2143
▁казак	-2144
▁Трамп	-2145
өг	-2146
▁16	-2147
шкен	-2148
езгил	-2149
те	-2150
▁эреж	-2151
▁башчы	-2152
▁тармактар	-2153
иверсит	-2154
▁турукт	-2155
фон	-2156
▁Ич	-2157
ыгын	-2158
өрүн	-2159
▁реж	-2160
сүз	-2161
ья	-2162
уулук	-2163
▁до	-2164
▁дө	-2165
▁жөнөт	-2166
▁об	-2167
▁сиз	-2168
▁жактан	-2169
▁жерге	-2170
▁Герман	-2171
▁2019-	-2172
арга	-2173
▁Бүгүн	-2174
▁жерлер	-2175
▁вакцин	-2176
▁коопсузду	-2177
▁4-	-2178
уусу	-2179
▁Бишкектин	-2180
шу	-2181
▁бы	-2182
▁тапкан	-2183
▁2-	-2184
▁кыйын	-2185
▁Кыз	-2186
алардын	-2187
▁Киев	-2188
▁тов	-2189
▁тажик	-2190
▁бюдж	-2191
▁жазып	-2192
▁миллиард	-2193
▁10-	-2194
оонун	-2195
-19	-2196
▁каз	-2197
▁директ	-2198
▁чыга	-2199
▁чакырды	-2200
беген	-2201
▁тери	-2202
▁Жак	-2203
▁террор	-2204
▁7-	-2205
▁ичинен	-2206
▁пандемия	-2207
▁жыйынында	-2208
▁ракет	-2209
▁өс	-2210
on	-2211
▁Тажикстандын	-2212
бур	-2213
▁муз	-2214
устун	-2215
▁сында	-2216
▁баштап	-2217
▁Ю	-2218
▁Би	-2219
▁чыгарып	-2220
▁Орусияга	-2221
▁17	-2222
февралда	-2223
▁инф	-2224
▁жибер	-2225
▁каранды	-2226
умтөр	-2227
▁автор	-2228
▁түрдө	-2229
▁каражат	-2230
дерди	-2231
▁сүйлөшүүлөр	-2232
▁5-	-2233
▁мезгил	-2234
үлдү	-2235
▁санкция	-2236
▁университ	-2237
уд	-2238
▁калы	-2239
▁тург	-2240
▁түрк	-2241
▁былтыр	-2242
▁Кытайдын	-2243
▁Баш	-2244
▁Мис	-2245
пар	-2246
дөгөн	-2247
▁Ички	-2248
▁тууган	-2249
елек	-2250
▁жакт	-2251
илер	-2252
▁таг	-2253
▁боло	-2254
▁сыртк	-2255
▁медициналык	-2256
емп	-2257
▁кым	-2258
▁кирип	-2259
▁Бишкектеги	-2260
ид	-2261
▁ортосун	-2262
▁түзүлгөн	-2263
▁митинг	-2264
пөй	-2265
▁калтыр	-2266
▁Жол	-2267
▁орусиялык	-2268
ийин	-2269
Би	-2270
▁3-	-2271
▁лидери	-2272
▁ыраст	-2273
▁ны	-2274
үүнүн	-2275
▁",-	-2276
▁адист	-2277
▁карашт	-2278
▁аян	-2279
▁тилк	-2280
▁дээрлик	-2281
елери	-2282
бү	-2283
▁укугу	-2284
▁кызматтан	-2285
▁Жаң	-2286
▁бет	-2287
▁Министрлер	-2288
аман	-2289
▁Кылм	-2290
▁аякт	-2291
▁матери	-2292
▁25	-2293
▁үл	-2294
▁кеп	-2295
▁Токт	-2296
▁тран	-2297
▁өтүн	-2298
мок	-2299
▁жо	-2300
▁бой	-2301
Азатт	-2302
▁куу	-2303
алында	-2304
▁билдирип	-2305
▁Өл	-2306
▁элчил	-2307
▁CO	-2308
арынын	-2309
▁учурлар	-2310
▁спорт	-2311
▁кармап	-2312
▁коюлган	-2313
▁кошумчалады	-2314
▁себеп	-2315
ылганын	-2316
▁дипл	-2317
▁суроо	-2318
▁программ	-2319
есинин	-2320
▁далил	-2321
▁шаарынын	-2322
▁газ	-2323
▁макс	-2324
▁каражаттар	-2325
бө	-2326
▁тон	-2327
чулары	-2328
▁тарткан	-2329
▁Эки	-2330
маз	-2331
▁мар	-2332
▁адвок	-2333
▁Биздин	-2334
ух	-2335
азар	-2336
укту	-2337
▁жылы	-2338
▁зыян	-2339
ебиз	-2340
керлер	-2341
▁Салам	-2342
▁маселеси	-2343
▁ортосундагы	-2344
▁көбү	-2345
▁9-	-2346
▁Та	-2347
▁курам	-2348
▁сөө	-2349
аттан	-2350
▁Кийин	-2351
er	-2352
▁кесип	-2353
▁жети	-2354
сүнө	-2355
▁жетиш	-2356
▁өнүктүрүү	-2357
▁мүчөлөр	-2358
▁T	-2359
▁Бек	-2360
▁окш	-2361
▁Мисалы	-2362
VID	-2363
▁ас	-2364
▁Алек	-2365
▁иштет	-2366
▁мамиле	-2367
алууда	-2368
▁чыгарган	-2369
▁6-	-2370
▁Нарын	-2371
▁өлтүр	-2372
▁кантип	-2373
▁өнүг	-2374
▁кары	-2375
▁БУУ	-2376
атив	-2377
▁20-	-2378
ева	-2379
▁калат	-2380
▁баарын	-2381
ышк	-2382
ашты	-2383
▁туруп	-2384
Ата	-2385
▁15-	-2386
▁диний	-2387
▁жайлар	-2388
▁кылуу	-2389
▁көргөн	-2390
▁Ол	-2391
уктур	-2392
▁жогору	-2393
▁Сул	-2394
▁кээ	-2395
▁талкуул	-2396
▁Ком	-2397
▁коюп	-2398
▁парламенттик	-2399
гүл	-2400
ейс	-2401
▁таң	-2402
▁жасаган	-2403
▁кошумча	-2404
▁кайрадан	-2405
▁өкмөттүн	-2406
Азаттыктын	-2407
егер	-2408
▁ада	-2409
айн	-2410
оочу	-2411
▁бизге	-2412
▁Байден	-2413
ШК	-2414
гемен	-2415
▁баракч	-2416
▁парламент	-2417
▁районунун	-2418
▁бей	-2419
▁райондор	-2420
ктык	-2421
ылбек	-2422
▁болбойт	-2423
▁No	-2424
уден	-2425
ысынан	-2426
ея	-2427
дыруу	-2428
▁аг	-2429
▁Ты	-2430
▁кымб	-2431
дия	-2432
▁COVID	-2433
▁...	-2434
чалык	-2435
▁Алмаз	-2436
▁Быйыл	-2437
▁аттуу	-2438
емпи	-2439
▁Айт	-2440
▁кыс	-2441
▁инстит	-2442
исттик	-2443
▁Матра	-2444
▁банк	-2445
▁Ташиев	-2446
▁адм	-2447
▁басылм	-2448
▁Евро	-2449
угалим	-2450
▁натыйж	-2451
▁Анан	-2452
▁Мир	-2453
▁кадам	-2454
▁белгилеп	-2455
▁экономик	-2456
▁курулуш	-2457
▁күндөрү	-2458
▁Сүр	-2459
▁фин	-2460
▁жарыяланган	-2461
дыгын	-2462
▁нун	-2463
▁баян	-2464
елип	-2465
илет	-2466
жылдан	-2467
▁мекен	-2468
▁8-	-2469
ырм	-2470
бетте	-2471
▁аларга	-2472
▁мис	-2473
▁кызы	-2474
▁демократ	-2475
үштүк	-2476
▁уг	-2477
ырып	-2478
▁жарыялады	-2479
▁жылдары	-2480
▁мамлекеттер	-2481
илип	-2482
▁партиясынын	-2483
орду	-2484
▁ирет	-2485
▁!	-2486
оль	-2487
▁болгондор	-2488
▁Жер	-2489
▁бөлүн	-2490
тти	-2491
улат	-2492
өөгө	-2493
▁Жар	-2494
орлор	-2495
еге	-2496
▁өкмөтү	-2497
▁админист	-2498
▁бийликтин	-2499
▁мэр	-2500
▁окт	-2501
▁Дон	-2502
▁соттун	-2503
▁долбоору	-2504
иясы	-2505
▁көлөм	-2506
▁ыктымал	-2507
чусу	-2508
▁сырткары	-2509
▁шаарындагы	-2510
анас	-2511
▁тин	-2512
▁максатында	-2513
▁Өзбекстандын	-2514
Си	-2515
▁аныкталган	-2516
▁мүл	-2517
▁макулдаш	-2518
▁зомбул	-2519
▁кызматкери	-2520
▁таян	-2521
▁каттоо	-2522
▁Дем	-2523
▁режим	-2524
ткен	-2525
▁кылды	-2526
бия	-2527
▁Жаңы	-2528
▁администрация	-2529
▁11-	-2530
▁Бий	-2531
▁вирус	-2532
▁үйлөр	-2533
▁айынан	-2534
едер	-2535
▁Мас	-2536
матов	-2537
акция	-2538
▁Уюм	-2539
▁улант	-2540
олд	-2541
▁Тышкы	-2542
ербай	-2543
▁карабай	-2544
▁айтканда	-2545
▁өч	-2546
▁адамдардын	-2547
▁облустук	-2548
жол	-2549
▁сай	-2550
▁Айрым	-2551
▁Зелен	-2552
▁башкаруу	-2553
ликт	-2554
▁Сир	-2555
дыктан	-2556
▁товар	-2557
астан	-2558
▁апта	-2559
▁мамлекеттин	-2560
асп	-2561
▁чемпи	-2562
арак	-2563
▁мектеп	-2564
▁миңдей	-2565
▁дүйнөлүк	-2566
▁Украинадагы	-2567
атр	-2568
ттин	-2569
▁кишинин	-2570
▁A	-2571
▁абалы	-2572
акта	-2573
▁Сүрөтт	-2574
▁ю	-2575
▁мүчөсү	-2576
▁оорукан	-2577
▁ортосунда	-2578
▁тапта	-2579
▁түшүп	-2580
▁студен	-2581
▁теришт	-2582
гу	-2583
▁эмгек	-2584
пей	-2585
▁Себ	-2586
▁жакта	-2587
▁жокко	-2588
▁ишеним	-2589
▁каржыл	-2590
▁кырсы	-2591
▁көрсөткүч	-2592
чулардын	-2593
▁Конституция	-2594
▁чечими	-2595
▁Зеленский	-2596
ңиз	-2597
▁каг	-2598
▁укуктар	-2599
▁жуг	-2600
▁ээл	-2601
анган	-2602
▁алганын	-2603
айы	-2604
өөл	-2605
▁айдоо	-2606
▁болуш	-2607
▁мугалим	-2608
йр	-2609
▁көпт	-2610
▁метр	-2611
▁40	-2612
▁ишкерлер	-2613
ини	-2614
▁катышуу	-2615
▁телефон	-2616
▁алыш	-2617
▁Соорон	-2618
▁түзгөн	-2619
▁Тер	-2620
▁багытт	-2621
▁бийликке	-2622
уман	-2623
улду	-2624
▁Кош	-2625
▁салык	-2626
▁кызыкчыл	-2627
дүүл	-2628
ушту	-2629
▁салынган	-2630
20	-2631
туп	-2632
антин	-2633
гындагы	-2634
аларга	-2635
бөл	-2636
байт	-2637
▁Борбордук	-2638
өйр	-2639
▁Ав	-2640
маты	-2641
▁Себеби	-2642
▁отурган	-2643
▁бараткан	-2644
▁кызматташт	-2645
▁эп	-2646
▁козголгон	-2647
олду	-2648
ферен	-2649
▁сайт	-2650
▁өзүнө	-2651
▁тартылган	-2652
▁Саламаттык	-2653
▁кодексинин	-2654
▁көчө	-2655
цион	-2656
алоо	-2657
▁оппозиция	-2658
көм	-2659
▁акын	-2660
▁эксперт	-2661
▁өлкөдөгү	-2662
▁рефор	-2663
ице	-2664
таж	-2665
елерди	-2666
▁берүүгө	-2667
▁уюмдар	-2668
есинде	-2669
▁маалымдады	-2670
▁Сүрөттүн	-2671
▁жетект	-2672
▁белгилеген	-2673
ылт	-2674
▁албайт	-2675
▁жеткен	-2676
▁маалыматты	-2677
олуп	-2678
▁аппар	-2679
▁жабырка	-2680
▁зам	-2681
өрдү	-2682
▁Кай	-2683
тин	-2684
▁24-	-2685
▁кабарлаган	-2686
▁кесеп	-2687
▁үн	-2688
▁байланыш	-2689
▁куралдуу	-2690
игине	-2691
аниянын	-2692
▁Экинчи	-2693
ыктан	-2694
мушт	-2695
укул	-2696
▁келин	-2697
шти	-2698
▁пл	-2699
илди	-2700
ейш	-2701
▁карма	-2702
▁дарыгерлер	-2703
акты	-2704
▁25-	-2705
▁комитетинин	-2706
алышы	-2707
▁эсеб	-2708
▁мүнө	-2709
▁бою	-2710
ербайжан	-2711
▁киреш	-2712
бирим	-2713
▁Кеңеш	-2714
▁калганын	-2715
ейсб	-2716
▁30-	-2717
за	-2718
суздук	-2719
ияга	-2720
▁чыр	-2721
▁ката	-2722
▁жараны	-2723
▁кармалып	-2724
▁Евробирим	-2725
▁Ка	-2726
▁18-	-2727
▁жаңж	-2728
▁качан	-2729
▁болорун	-2730
ti	-2731
▁Фран	-2732
▁курч	-2733
▁тарат	-2734
▁өлкөгө	-2735
▁Ад	-2736
▁Камчы	-2737
▁акы	-2738
▁Казакстанда	-2739
▁Чек	-2740
▁сокку	-2741
▁болбой	-2742
▁кабылган	-2743
андын	-2744
▁телек	-2745
▁уюмунун	-2746
истан	-2747
▁маалда	-2748
бар	-2749
раз	-2750
ларга	-2751
▁Мыйзам	-2752
▁Республик	-2753
▁кыйн	-2754
аша	-2755
▁согушка	-2756
▁суроолор	-2757
тай	-2758
▁тай	-2759
▁стан	-2760
▁кеңешинин	-2761
▁ке	-2762
▁сегиз	-2763
▁кезект	-2764
▁Коронавир	-2765
▁калк	-2766
дөп	-2767
▁бут	-2768
ибиз	-2769
▁24	-2770
▁жүрүш	-2771
▁республ	-2772
алдар	-2773
ью	-2774
▁ыйг	-2775
▁шайлоодо	-2776
▁сомго	-2777
огуз	-2778
▁жарандар	-2779
▁Шайл	-2780
ma	-2781
▁Гүл	-2782
▁демилг	-2783
юз	-2784
▁үз	-2785
▁ына	-2786
▁жума	-2787
▁койду	-2788
сек	-2789
имди	-2790
▁28-	-2791
▁эмге	-2792
▁долбоорун	-2793
▁ишти	-2794
сиянын	-2795
▁белгиленген	-2796
ашкан	-2797
иккен	-2798
▁Талас	-2799
▁ордуна	-2800
▁убакыт	-2801
▁2023-	-2802
▁изилдөө	-2803
али	-2804
өөк	-2805
▁кыск	-2806
▁жылда	-2807
▁команда	-2808
уттар	-2809
▁токто	-2810
▁кабинетинин	-2811
ков	-2812
▁үм	-2813
▁убада	-2814
▁Кылмыш	-2815
▁бөлүгү	-2816
▁жасап	-2817
▁чогуу	-2818
иси	-2819
алай	-2820
▁17-	-2821
▁барат	-2822
▁Көп	-2823
исттер	-2824
▁ыс	-2825
атыр	-2826
▁айтылып	-2827
▁саламаттык	-2828
▁аялдар	-2829
иза	-2830
▁уна	-2831
▁өтөт	-2832
▁тарта	-2833
▁топтор	-2834
▁кайрылган	-2835
▁курман	-2836
▁жакында	-2837
▁0	-2838
гып	-2839
үлөт	-2840
▁бериш	-2841
▁чукул	-2842
▁күчөт	-2843
▁S	-2844
▁мыкты	-2845
▁Ку	-2846
ылышы	-2847
▁Мунун	-2848
үндүк	-2849
▁Амер	-2850
▁өкүм	-2851
▁борб	-2852
үндөгү	-2853
▁жолдо	-2854
▁Акылбек	-2855
мин	-2856
▁бекем	-2857
ема	-2858
▁интерн	-2859
▁борбору	-2860
▁жараат	-2861
▁сомдон	-2862
ад	-2863
▁эгемен	-2864
▁жашап	-2865
▁айда	-2866
▁алынып	-2867
▁Өткөн	-2868
асс	-2869
гынан	-2870
▁бирг	-2871
▁жетти	-2872
▁жерден	-2873
▁салышт	-2874
▁эсептейт	-2875
▁Ас	-2876
▁эрт	-2877
▁корго	-2878
▁Ил	-2879
▁кескин	-2880
▁керектигин	-2881
евдин	-2882
▁буйр	-2883
▁Расмий	-2884
▁БШК	-2885
▁андай	-2886
тал	-2887
▁аң	-2888
▁дек	-2889
еттер	-2890
▁жылдык	-2891
▁Ко	-2892
▁14-	-2893
▁Аск	-2894
▁Батыш	-2895
▁иштерин	-2896
▁директору	-2897
▁вице	-2898
икке	-2899
сында	-2900
газ	-2901
▁гө	-2902
▁нерс	-2903
▁Өмүр	-2904
▁жакка	-2905
▁коомчулукт	-2906
▁проц	-2907
гандар	-2908
кар	-2909
▁телекан	-2910
Тал	-2911
нес	-2912
▁аты	-2913
▁уюму	-2914
▁элге	-2915
▁Азыркы	-2916
▁билдиргендей	-2917
▁карантин	-2918
▁Кооп	-2919
дөрүнүн	-2920
▁башкармалыгынын	-2921
...1	-2922
ъект	-2923
▁амер	-2924
▁тараткан	-2925
▁12-	-2926
▁деги	-2927
▁Гр	-2928
▁киргизилген	-2929
▁ишмер	-2930
рый	-2931
▁дей	-2932
▁Дүйш	-2933
▁турак	-2934
▁Түштүк	-2935
▁Түркиянын	-2936
мун	-2937
ашып	-2938
▁Май	-2939
▁;	-2940
ылар	-2941
▁16-	-2942
▁Соң	-2943
▁туруктуу	-2944
▁алынды	-2945
ларын	-2946
▁карыз	-2947
▁би	-2948
▁Темир	-2949
▁анан	-2950
асынан	-2951
▁23-	-2952
иктер	-2953
▁бл	-2954
▁темир	-2955
есс	-2956
утбол	-2957
▁башалам	-2958
▁көрсөткөн	-2959
▁инвестиция	-2960
баева	-2961
▁жашыр	-2962
▁Азербайжан	-2963
▁базар	-2964
▁сүрөт	-2965
▁маселени	-2966
раф	-2967
алга	-2968
▁бөгө	-2969
▁радиос	-2970
▁аракети	-2971
▁мекемелер	-2972
▁ооруканага	-2973
▁Мекем	-2974
▁отурум	-2975
▁күм	-2976
берен	-2977
▁турганы	-2978
▁ишм	-2979
▁тоо	-2980
▁2018-	-2981
▁каттам	-2982
▁коронавируска	-2983
иң	-2984
▁таап	-2985
▁апрел	-2986
▁айтылды	-2987
▁Алмазбек	-2988
▁Тил	-2989
▁авт	-2990
тажик	-2991
▁келеч	-2992
▁күнөөл	-2993
ембиде	-2994
оро	-2995
▁22-	-2996
екция	-2997
▁жарандары	-2998
▁Жапаровдун	-2999
▁Жум	-3000
▁айта	-3001
▁Корея	-3002
▁Матраимов	-3003
▁жыйынтыгы	-3004
кап	-3005
▁чакырым	-3006
▁Дүйнөлүк	-3007
▁маалыматка	-3008
етке	-3009
уттуу	-3010
▁Кас	-3011
▁жасалган	-3012
▁бара	-3013
▁калыб	-3014
▁19-	-3015
▁арга	-3016
▁Акыркы	-3017
▁ни	-3018
▁эст	-3019
▁кошт	-3020
▁таза	-3021
▁туул	-3022
▁жүрөт	-3023
▁бак	-3024
▁ген	-3025
▁ошон	-3026
▁тажрый	-3027
▁тартип	-3028
▁арасындагы	-3029
ный	-3030
▁Сан	-3031
▁коң	-3032
▁ажырат	-3033
▁сөздөр	-3034
▁БУУнун	-3035
▁жолдор	-3036
▁саясатчы	-3037
▁тобу	-3038
▁чыгыш	-3039
▁агенттиги	-3040
▁атындагы	-3041
масы	-3042
▁мага	-3043
АТ	-3044
кум	-3045
▁стат	-3046
▁Армен	-3047
▁Иш	-3048
▁чара	-3049
▁аэ	-3050
▁Деп	-3051
▁мин	-3052
▁калыбына	-3053
▁500	-3054
▁тир	-3055
▁өнөр	-3056
▁каралган	-3057
▁прокуратура	-3058
дешт	-3059
▁насы	-3060
бет	-3061
▁мектепт	-3062
ЭБ	-3063
импи	-3064
▁Ака	-3065
▁Ошент	-3066
▁Соңку	-3067
екке	-3068
▁менин	-3069
▁коргон	-3070
▁ондогон	-3071
жин	-3072
кери	-3073
▁тут	-3074
▁баасы	-3075
уккан	-3076
▁жаан	-3077
▁ишине	-3078
▁чарба	-3079
омат	-3080
▁Былтыр	-3081
анып	-3082
аттарды	-3083
▁кайрылып	-3084
ттик	-3085
▁түзөт	-3086
▁кайтып	-3087
▁жагынан	-3088
акан	-3089
▁азай	-3090
▁бажы	-3091
▁штаб	-3092
▁адамга	-3093
▁тийгиз	-3094
▁Британия	-3095
ырт	-3096
ттуу	-3097
▁бирге	-3098
▁укуктары	-3099
ура	-3100
▁соттук	-3101
▁мыйзамга	-3102
▁тараптуу	-3103
▁кабарланды	-3104
оюн	-3105
дырып	-3106
▁жылдар	-3107
▁27-	-3108
түл	-3109
▁жүк	-3110
▁чемпион	-3111
АС	-3112
▁60	-3113
акистан	-3114
▁көпчүлүк	-3115
▁камсыздоо	-3116
▁22	-3117
▁манда	-3118
▁жалгыз	-3119
кор	-3120
▁көрсөтүп	-3121
дигин	-3122
етика	-3123
▁жүргүзүп	-3124
▁кармалды	-3125
es	-3126
in	-3127
▁айл	-3128
▁суд	-3129
▁ыбыз	-3130
▁сум	-3131
▁Жалп	-3132
▁алганы	-3133
▁Куб	-3134
▁тогуз	-3135
ша	-3136
▁Али	-3137
ланып	-3138
ордун	-3139
▁тоск	-3140
▁чыгаруу	-3141
▁мүмкүнчүлүк	-3142
үштү	-3143
▁экс	-3144
▁кеминде	-3145
▁комитети	-3146
▁активисттер	-3147
ех	-3148
▁21	-3149
▁Маалыматка	-3150
игинин	-3151
▁Коопсуздук	-3152
сам	-3153
ализ	-3154
атын	-3155
▁күнгө	-3156
▁чектөө	-3157
▁Франция	-3158
▁Сооронбай	-3159
▁баа	-3160
▁зав	-3161
▁түрмө	-3162
ремл	-3163
▁карш	-3164
есе	-3165
дери	-3166
▁Муну	-3167
▁машы	-3168
▁тамак	-3169
▁башынан	-3170
▁институт	-3171
даган	-3172
▁компаниясы	-3173
УКМК	-3174
▁доо	-3175
▁сыйл	-3176
▁Өлкө	-3177
▁аябай	-3178
▁күндөн	-3179
▁өтүнүч	-3180
▁түзүп	-3181
▁берүүнү	-3182
▁миңдеген	-3183
▁инин	-3184
▁Депут	-3185
▁Алматы	-3186
▁бийликти	-3187
▁Шт	-3188
▁Мил	-3189
атында	-3190
▁дароо	-3191
▁тиешеси	-3192
▁аскерлери	-3193
▁чыгым	-3194
▁сүрөтт	-3195
▁өлкөлөрдүн	-3196
ерв	-3197
ээк	-3198
▁13-	-3199
▁Ошт	-3200
▁аткан	-3201
▁куруу	-3202
гунт	-3203
нот	-3204
▁ишкер	-3205
▁аткаруу	-3206
анд	-3207
▁сыз	-3208
Талиб	-3209
алдын	-3210
▁кара	-3211
▁көбүр	-3212
жылдагы	-3213
▁Өкмөт	-3214
▁трансп	-3215
ель	-3216
▁криз	-3217
▁самм	-3218
▁шаарлар	-3219
▁Камчыбек	-3220
▁түзүү	-3221
▁жатканда	-3222
▁мектептер	-3223
луу	-3224
▁бүз	-3225
ыны	-3226
устан	-3227
▁күчтөрү	-3228
▁Нав	-3229
▁лык	-3230
▁жогор	-3231
▁табылган	-3232
елин	-3233
стыкт	-3234
лиги	-3235
▁парламенттин	-3236
▁УКМКнын	-3237
▁тынчтык	-3238
▁булактар	-3239
▁коё	-3240
▁нааразы	-3241
▁Бириккен	-3242
▁экөө	-3243
▁жылды	-3244
▁министринин	-3245
▁көмө	-3246
▁Албетте	-3247
▁кеткенин	-3248
слам	-3249
▁документ	-3250
▁өзгөртүү	-3251
▁үйр	-3252
▁Кремл	-3253
▁Өзгөчө	-3254
▁тоскоол	-3255
мек	-3256
▁атып	-3257
▁үчүнчү	-3258
енз	-3259
уктаж	-3260
▁жаза	-3261
▁кайрыл	-3262
▁экспер	-3263
▁куугунт	-3264
▁өлкөдөн	-3265
аак	-3266
▁илд	-3267
▁позиция	-3268
▁шайлоонун	-3269
▁карандысыз	-3270
сыздан	-3271
▁күйөө	-3272
▁саясатчылар	-3273
алма	-3274
▁көмүр	-3275
▁мүнөз	-3276
▁Асан	-3277
убай	-3278
▁26-	-3279
▁берилди	-3280
▁ИИМ	-3281
▁кеңешт	-3282
▁дегенде	-3283
▁караштуу	-3284
▁киргизүү	-3285
▁21-	-3286
▁катышып	-3287
АТО	-3288
▁соз	-3289
▁жогот	-3290
▁олуттуу	-3291
▁өткөрүү	-3292
▁көптөгөн	-3293
усул	-3294
▁арн	-3295
▁сактап	-3296
▁көрсөтүлгөн	-3297
ме	-3298
ылууда	-3299
▁муктаж	-3300
▁ым	-3301
tion	-3302
▁жумш	-3303
▁2017-	-3304
усулман	-3305
▁лардын	-3306
▁мүчөлөрү	-3307
▁23	-3308
лайн	-3309
еттен	-3310
▁пасп	-3311
▁түшүр	-3312
▁колдонуу	-3313
▁сент	-3314
▁маселесин	-3315
уманитардык	-3316
өөнү	-3317
▁29-	-3318
бөгөн	-3319
▁эгер	-3320
арына	-3321
▁азык	-3322
▁облусундагы	-3323
▁Я	-3324
ясий	-3325
▁НАТО	-3326
▁энергия	-3327
▁Бил	-3328
▁окуп	-3329
▁Эконом	-3330
▁органдары	-3331
бан	-3332
ратег	-3333
▁Парлам	-3334
▁балдардын	-3335
▁иде	-3336
▁салды	-3337
▁сынга	-3338
▁тен	-3339
▁толугу	-3340
ca	-3341
Ал	-3342
▁80	-3343
▁кин	-3344
▁чың	-3345
▁колдогон	-3346
▁билдирүүдө	-3347
▁мамлекетке	-3348
▁Каб	-3349
▁соол	-3350
▁аэроп	-3351
чам	-3352
▁Ваш	-3353
▁маж	-3354
▁жаштар	-3355
▁Түркмөн	-3356
▁Коронавирус	-3357
▁маалыматтарды	-3358
▁Рос	-3359
▁ака	-3360
▁Адам	-3361
▁илимий	-3362
▁объект	-3363
олуу	-3364
▁300	-3365
▁Сот	-3366
▁комитет	-3367
▁тараптан	-3368
Бир	-3369
елег	-3370
▁жарак	-3371
▁футбол	-3372
▁февр	-3373
▁жалпысынан	-3374
▁дон	-3375
▁шектүү	-3376
▁атаанда	-3377
▁каражаттары	-3378
иф	-3379
▁70	-3380
ашуу	-3381
▁мед	-3382
▁уур	-3383
▁миңге	-3384
сих	-3385
яны	-3386
▁Вашинг	-3387
▁Түндүк	-3388
▁тагдыр	-3389
▁айылында	-3390
дур	-3391
▁ча	-3392
▁Султан	-3393
▁бербей	-3394
ткан	-3395
улуш	-3396
үнчү	-3397
▁алмаштыр	-3398
▁америкалык	-3399
▁маалыматы	-3400
чынын	-3401
▁дайым	-3402
▁жакшыр	-3403
▁партиясы	-3404
алыш	-3405
енко	-3406
ыйкат	-3407
▁өтпөй	-3408
▁Наваль	-3409
▁Үч	-3410
өттү	-3411
дерге	-3412
▁көбүрөөк	-3413
▁миграция	-3414
▁Ц	-3415
▁27	-3416
ондук	-3417
▁насыя	-3418
▁болууда	-3419
▁чечимин	-3420
арк	-3421
буз	-3422
▁сына	-3423
▁2010-	-3424
▁айга	-3425
▁судья	-3426
▁бойдон	-3427
▁пикирин	-3428
▁токтом	-3429
en	-3430
агыл	-3431
▁мунай	-3432
▁тартуу	-3433
ыктуу	-3434
▁чөйр	-3435
▁чыгуу	-3436
аттардын	-3437
▁маегинде	-3438
▁текшерүү	-3439
▁Жаз	-3440
▁жокт	-3441
▁ооган	-3442
▁армиясы	-3443
▁жолугушуу	-3444
асыз	-3445
▁түнү	-3446
▁тургуну	-3447
▁Орусиядагы	-3448
рад	-3449
▁26	-3450
өөнүн	-3451
▁Башка	-3452
чилик	-3453
▁кама	-3454
ектер	-3455
▁театр	-3456
▁долбоорлор	-3457
▁Төр	-3458
▁таз	-3459
емпир	-3460
▁айдан	-3461
▁мөөнөтү	-3462
▁Пакистан	-3463
▁корку	-3464
▁Бакиев	-3465
▁Аталган	-3466
▁канчалык	-3467
▁чал	-3468
▁өзбек	-3469
▁билген	-3470
▁сүйлөшүү	-3471
▁35	-3472
▁өң	-3473
▁июн	-3474
▁таянып	-3475
▁жакындары	-3476
▁аймактарда	-3477
▁сар	-3478
▁адамды	-3479
▁түрдүү	-3480
▁камалган	-3481
▁кил	-3482
▁турм	-3483
▁август	-3484
▁болмок	-3485
үң	-3486
▁но	-3487
чылары	-3488
▁айлык	-3489
▁кылат	-3490
▁келгенин	-3491
▁март	-3492
▁Кадыр	-3493
▁бизнес	-3494
▁Навальный	-3495
▁районунда	-3496
▁тонна	-3497
жылдары	-3498
КУ	-3499
▁китеп	-3500
▁орнот	-3501
▁Коргоо	-3502
▁жетекчи	-3503
▁Үй	-3504
▁Орус	-3505
▁кошо	-3506
▁милдетин	-3507
ьян	-3508
▁2016-	-3509
▁кызматка	-3510
үктү	-3511
▁ларды	-3512
▁жуктур	-3513
ушк	-3514
▁ев	-3515
деди	-3516
▁ооз	-3517
▁Жан	-3518
▁Токаев	-3519
▁мей	-3520
▁тик	-3521
аганын	-3522
октябр	-3523
▁чектөөлөр	-3524
al	-3525
бой	-3526
кулов	-3527
▁болгондуктан	-3528
▁ави	-3529
ңыз	-3530
богон	-3531
▁бөгөт	-3532
▁түшүндүрмө	-3533
лав	-3534
▁Негиз	-3535
▁издөө	-3536
▁кийим	-3537
▁R	-3538
▁мени	-3539
▁айтууда	-3540
▁тастыкт	-3541
ула	-3542
▁калса	-3543
▁укугун	-3544
АМ	-3545
▁түп	-3546
▁Касым	-3547
▁Курман	-3548
▁күз	-3549
▁бирөө	-3550
▁маалында	-3551
ерн	-3552
сынан	-3553
сүнүн	-3554
▁машин	-3555
▁себеби	-3556
гым	-3557
гыр	-3558
арында	-3559
▁илдет	-3560
▁жүй	-3561
▁кана	-3562
▁Эгерде	-3563
▁тоолуу	-3564
Суу	-3565
▁тала	-3566
▁иштей	-3567
▁аргасыз	-3568
▁көрсөтүү	-3569
ити	-3570
▁экст	-3571
▁качып	-3572
▁келат	-3573
▁эртең	-3574
▁чу	-3575
изация	-3576
▁бизди	-3577
▁берилет	-3578
▁рес	-3579
ракция	-3580
▁коррупцияга	-3581
өгү	-3582
обил	-3583
▁("	-3584
ышка	-3585
▁Кошмо	-3586
▁кетет	-3587
▁эркинен	-3588
ЭС	-3589
▁катышты	-3590
▁деңгээлде	-3591
▁кабарланган	-3592
▁менч	-3593
▁өзүм	-3594
▁калуу	-3595
улов	-3596
▁дипломат	-3597
▁партиянын	-3598
▁Эн	-3599
баевдин	-3600
ейсбукт	-3601
▁алдынча	-3602
▁стратег	-3603
▁тийиш	-3604
▁көтөрүп	-3605
▁адамдарды	-3606
▁Жо	-3607
өлгөн	-3608
▁талаптар	-3609
▁Улуу	-3610
▁атыш	-3611
▁талапкерлер	-3612
an	-3613
▁Сиз	-3614
▁гектар	-3615
СС	-3616
ким	-3617
▁аткыл	-3618
▁ресур	-3619
▁онлайн	-3620
▁баракчасына	-3621
▁Чыгы	-3622
атынын	-3623
▁ойлой	-3624
▁Улуттар	-3625
▁бүгүнкү	-3626
сен	-3627
▁себепт	-3628
▁болбосо	-3629
▁28	-3630
▁дрон	-3631
▁маалыматта	-3632
ырган	-3633
үктөр	-3634
▁убакы	-3635
ферендум	-3636
▁фракция	-3637
▁B	-3638
ативдик	-3639
▁төрагасынын	-3640
па	-3641
▁имп	-3642
▁сел	-3643
▁коргоочу	-3644
АМАС	-3645
▁орт	-3646
▁ХАМАС	-3647
▁сөөгү	-3648
▁Мына	-3649
▁мажбур	-3650
▁тарапта	-3651
▁аймактык	-3652
анов	-3653
оодо	-3654
▁акыр	-3655
▁үндө	-3656
▁талаш	-3657
ңк	-3658
▁пул	-3659
▁кылын	-3660
▁колдоп	-3661
▁башталды	-3662
▁компаниясынын	-3663
амир	-3664
▁Орусиядан	-3665
▁кандайдыр	-3666
▁Түркмөнстан	-3667
▁Республикасынын	-3668
▁Фин	-3669
▁түзүм	-3670
▁болжол	-3671
▁өзүнчө	-3672
▁укуктук	-3673
▁Вашингтон	-3674
ткар	-3675
▁жаман	-3676
▁кагаз	-3677
▁чыгат	-3678
▁тынчсыздан	-3679
▁деңиз	-3680
▁жугуз	-3681
▁баалуу	-3682
▁Ирандын	-3683
▁тийиштүү	-3684
▁G	-3685
рист	-3686
өмбү	-3687
▁бизде	-3688
▁Кумтөр	-3689
▁Мурдагы	-3690
▁чакырган	-3691
▁эскертти	-3692
▁мел	-3693
угуна	-3694
▁салма	-3695
▁негизде	-3696
▁тараптар	-3697
▁өнөктөшт	-3698
асст	-3699
▁жараша	-3700
асма	-3701
▁Рах	-3702
▁үгү	-3703
ентке	-3704
▁маалымдаган	-3705
▁нин	-3706
▁Бейш	-3707
амин	-3708
импиада	-3709
▁гуманитардык	-3710
▁псих	-3711
▁салым	-3712
▁аягына	-3713
▁майрам	-3714
▁материал	-3715
▁кырдаалдар	-3716
▁Журналист	-3717
▁кызматкер	-3718
емби	-3719
▁атат	-3720
▁Интерн	-3721
▁кылмыштуу	-3722
▁тос	-3723
ктары	-3724
▁Менин	-3725
президен	-3726
▁Сам	-3727
▁өртт	-3728
▁терең	-3729
▁мусулман	-3730
▁техникалык	-3731
▁сек	-3732
▁жандан	-3733
▁Алексан	-3734
▁ну	-3735
▁жөнгө	-3736
жылга	-3737
▁эмгект	-3738
гөз	-3739
аларда	-3740
▁Жапон	-3741
ну	-3742
▁ине	-3743
артам	-3744
▁Коом	-3745
▁кооптуу	-3746
сей	-3747
▁Сар	-3748
▁аныкталды	-3749
▁террордук	-3750
пайт	-3751
үгүнө	-3752
▁бузуу	-3753
▁кылым	-3754
▁өзүбүз	-3755
▁өмүрүн	-3756
еж	-3757
тация	-3758
▁Назар	-3759
▁чыгарма	-3760
▁убагында	-3761
▁жокп	-3762
Кумтөр	-3763
▁алмаш	-3764
▁ыкчам	-3765
▁таандык	-3766
▁ц	-3767
анс	-3768
лап	-3769
▁90	-3770
▁Чы	-3771
ттын	-3772
ыруу	-3773
▁эсе	-3774
▁бары	-3775
▁конц	-3776
▁айтыш	-3777
зак	-3778
▁багыт	-3779
ушкан	-3780
▁жаңыл	-3781
ойт	-3782
дөрүн	-3783
▁Дагы	-3784
▁мал	-3785
▁жараткан	-3786
▁Ос	-3787
▁фондун	-3788
▁Ошентип	-3789
▁келгенде	-3790
ge	-3791
▁жиги	-3792
▁Дүйнө	-3793
▁кыйла	-3794
▁талиб	-3795
▁кеңири	-3796
тым	-3797
▁Ап	-3798
▁нан	-3799
▁Газа	-3800
▁тарыхый	-3801
▁келаткан	-3802
▁аймактарында	-3803
ешет	-3804
ектен	-3805
▁макам	-3806
▁өздөрү	-3807
тту	-3808
▁Кол	-3809
жаза	-3810
▁Ima	-3811
▁жем	-3812
▁камт	-3813
▁тутк	-3814
түлүк	-3815
▁учак	-3816
▁караб	-3817
▁январ	-3818
▁билбей	-3819
▁жарандардын	-3820
урт	-3821
▁арх	-3822
▁түй	-3823
иядагы	-3824
▁төлөп	-3825
ырмалуу	-3826
▁мыйзамды	-3827
атов	-3828
▁фил	-3829
▁Араб	-3830
▁анализ	-3831
▁күчтүү	-3832
▁Александр	-3833
▁облустарынын	-3834
омол	-3835
▁пен	-3836
▁кетүү	-3837
▁аймагына	-3838
ми	-3839
▁өрт	-3840
малар	-3841
▁аянт	-3842
▁көрө	-3843
▁районундагы	-3844
▁Пр	-3845
▁акыл	-3846
▁жасалма	-3847
▁туулган	-3848
▁чакырып	-3849
▁Израилдин	-3850
гуу	-3851
▁ша	-3852
▁мыйзамдын	-3853
▁укуктарын	-3854
▁2015-	-3855
▁төлөм	-3856
▁абакта	-3857
▁өлкөлүк	-3858
▁багытталган	-3859
чын	-3860
▁элди	-3861
Талибан	-3862
▁Оку	-3863
▁күтүп	-3864
үүлөрдү	-3865
▁тартиб	-3866
▁Беларус	-3867
▁максаты	-3868
▁токтотуу	-3869
▁көйгөйлөр	-3870
▁Груз	-3871
▁кишиге	-3872
▁аймакта	-3873
би	-3874
олю	-3875
▁коргонуу	-3876
ван	-3877
▁ток	-3878
үшкөн	-3879
▁Ошондо	-3880
▁айынын	-3881
▁бөлүмүнүн	-3882
дикке	-3883
▁чагыл	-3884
▁кетүүгө	-3885
▁Тергөө	-3886
ңар	-3887
▁чакан	-3888
▁Кыргызстандан	-3889
▁окр	-3890
▁долларга	-3891
▁кызматына	-3892
▁Чын	-3893
▁33	-3894
▁зор	-3895
▁эсеп	-3896
рессия	-3897
▁кечир	-3898
▁тарбия	-3899
▁адистер	-3900
▁станция	-3901
▁жабыркаган	-3902
▁референдум	-3903
▁Бээ	-3904
▁Ким	-3905
▁кармалганын	-3906
ник	-3907
▁Кал	-3908
▁Тай	-3909
ыгына	-3910
▁Атайын	-3911
▁жүргүзгөн	-3912
▁Президенттин	-3913
▁ме	-3914
аныш	-3915
убуз	-3916
укаш	-3917
▁алы	-3918
▁тес	-3919
▁өлч	-3920
▁жабык	-3921
▁сурап	-3922
▁өнүгүү	-3923
▁сак	-3924
▁Мух	-3925
▁калганы	-3926
үтүн	-3927
▁блог	-3928
▁сотунун	-3929
иров	-3930
икация	-3931
▁эмнеге	-3932
▁статист	-3933
▁республикалык	-3934
▁Ата	-3935
▁ңыз	-3936
▁аким	-3937
▁каралып	-3938
▁дөн	-3939
▁баал	-3940
▁сов	-3941
▁отуруп	-3942
▁жетиштүү	-3943
арип	-3944
ткон	-3945
Манас	-3946
▁Сотт	-3947
▁Эмне	-3948
▁P	-3949
чилер	-3950
▁Болот	-3951
▁кездеги	-3952
▁беренеси	-3953
▁негизинен	-3954
шке	-3955
▁Кат	-3956
▁зал	-3957
▁кароо	-3958
рык	-3959
стандык	-3960
▁көрүнүш	-3961
▁каалаган	-3962
▁борборунун	-3963
▁Жергиликтүү	-3964
хм	-3965
▁бекит	-3966
▁жалган	-3967
▁иштейт	-3968
▁калышы	-3969
▁алышкан	-3970
▁департам	-3971
▁31-	-3972
▁таасирин	-3973
икти	-3974
▁проф	-3975
▁Кемпир	-3976
▁салыштырмалуу	-3977
онст	-3978
ивдүү	-3979
▁Шайлоо	-3980
▁ыйгарым	-3981
▁Москвада	-3982
елди	-3983
▁алыс	-3984
▁фонд	-3985
▁барды	-3986
▁болоб	-3987
▁алганда	-3988
▁технология	-3989
Биз	-3990
доган	-3991
▁жүзүндө	-3992
▁жатканына	-3993
кон	-3994
▁Бор	-3995
ктарды	-3996
▁сүйлө	-3997
ышканын	-3998
▁жапырт	-3999
▁Эрдоган	-4000
далды	-4001
өктүк	-4002
▁Шаар	-4003
▁Демек	-4004
▁аптада	-4005
▁топтун	-4006
жар	-4007
үлө	-4008
▁лөр	-4009
атбек	-4010
▁жарык	-4011
▁менчик	-4012
үнчө	-4013
▁коюу	-4014
▁кетиш	-4015
▁дардын	-4016
министри	-4017
▁система	-4018
▁комитеттин	-4019
ейл	-4020
▁1,	-4021
▁арз	-4022
▁абалда	-4023
▁Бүгүнкү	-4024
▁билдирүүсүндө	-4025
▁M	-4026
▁капт	-4027
▁уланып	-4028
▁окумушт	-4029
үшүнө	-4030
▁жаап	-4031
▁канал	-4032
▁тегер	-4033
▁маданият	-4034
▁тармактарда	-4035
эл	-4036
дой	-4037
▁жүкт	-4038
жо	-4039
ансы	-4040
▁өлгөн	-4041
▁Путиндин	-4042
▁Жыл	-4043
▁атасы	-4044
ыч	-4045
маны	-4046
▁коңшу	-4047
▁чыгарды	-4048
▁тун	-4049
▁кыска	-4050
▁кырдаалды	-4051
▁F	-4052
мам	-4053
еттүү	-4054
▁алба	-4055
▁тасм	-4056
елерин	-4057
▁Бизде	-4058
▁уюмдун	-4059
▁балдары	-4060
▁Хар	-4061
▁алак	-4062
▁көргөз	-4063
▁чалдык	-4064
▁органдар	-4065
фт	-4066
▁дарыгер	-4067
▁жумушчу	-4068
▁жыйында	-4069
ели	-4070
▁кымбат	-4071
▁көлөмү	-4072
▁айтышты	-4073
▁айыптап	-4074
▁ишмерди	-4075
▁Конституциялык	-4076
зат	-4077
пон	-4078
чет	-4079
▁кишини	-4080
▁прокурор	-4081
стер	-4082
премьер	-4083
министративдик	-4084
▁чалгын	-4085
▁кызматтар	-4086
▁Жам	-4087
▁ыкты	-4088
▁2014-	-4089
▁оорул	-4090
▁өлчөм	-4091
▁кайтарып	-4092
мб	-4093
келин	-4094
▁заман	-4095
▁алектен	-4096
лери	-4097
▁мон	-4098
▁батир	-4099
▁эмдөө	-4100
▁жумушт	-4101
▁убакта	-4102
▁паспорт	-4103
▁деш	-4104
манов	-4105
▁ынан	-4106
▁элем	-4107
▁өчүр	-4108
▁Бийлик	-4109
▁талдоо	-4110
▁болбогон	-4111
Ак	-4112
үрүм	-4113
дырган	-4114
ter	-4115
ресс	-4116
▁Украинада	-4117
▁аракеттер	-4118
едерация	-4119
▁Серг	-4120
спүрүм	-4121
▁чалдыккан	-4122
▁билдиришти	-4123
усту	-4124
▁сып	-4125
пайбы	-4126
▁Лукаш	-4127
▁ыктыяр	-4128
диктүү	-4129
▁экономика	-4130
▁электрондук	-4131
▁инт	-4132
▁темп	-4133
▁карабастан	-4134
▁компаниялар	-4135
▁Ра	-4136
дору	-4137
▁дер	-4138
▁толк	-4139
▁инфекция	-4140
▁катталды	-4141
▁өткөргөн	-4142
ейсбуктагы	-4143
азы	-4144
гар	-4145
кай	-4146
▁),	-4147
▁конт	-4148
▁радио	-4149
▁алууну	-4150
▁ачылган	-4151
▁өнүктүр	-4152
▁арналган	-4153
Кыргызстан	-4154
▁жарыяланды	-4155
алю	-4156
▁кич	-4157
диктин	-4158
эк	-4159
▁рез	-4160
▁төг	-4161
▁Караб	-4162
▁кетир	-4163
ец	-4164
чо	-4165
▁Жең	-4166
▁Сай	-4167
▁сиң	-4168
▁Укук	-4169
бра	-4170
еев	-4171
шкө	-4172
оолуу	-4173
▁узарт	-4174
▁Сергей	-4175
▁мигран	-4176
бу	-4177
▁ca	-4178
▁Чол	-4179
▁июл	-4180
▁рын	-4181
▁ашты	-4182
▁Акаев	-4183
▁башаламандык	-4184
ККУ	-4185
▁Кул	-4186
▁лиц	-4187
▁бетт	-4188
▁пара	-4189
▁таштап	-4190
▁Ушундай	-4191
▁шарттар	-4192
▁мыйзамдуу	-4193
▁дайындалган	-4194
үгүр	-4195
▁Газ	-4196
▁Карак	-4197
▁азайт	-4198
▁медиа	-4199
ктардын	-4200
▁бериши	-4201
▁териштирүү	-4202
өткө	-4203
▁артка	-4204
▁милдеттен	-4205
шат	-4206
▁дүк	-4207
▁колго	-4208
▁маданий	-4209
▁автоунаа	-4210
▁чогулган	-4211
▁Мекеменин	-4212
▁тургундар	-4213
▁университетинин	-4214
▁36	-4215
абыт	-4216
▁Ала	-4217
▁Молд	-4218
▁үгүт	-4219
▁көрүү	-4220
бүлөлүк	-4221
▁келишет	-4222
▁тажрыйб	-4223
дем	-4224
лов	-4225
тун	-4226
зиев	-4227
ушат	-4228
▁Ада	-4229
▁мобил	-4230
▁Милиция	-4231
▁жетекчилери	-4232
▁32	-4233
...-	-4234
улла	-4235
ption	-4236
штары	-4237
▁экстрем	-4238
▁Сов	-4239
▁чөл	-4240
▁камакта	-4241
▁кийлиги	-4242
▁өзөктүк	-4243
▁коопсуздугун	-4244
рыкча	-4245
▁Image	-4246
▁Ислам	-4247
▁курган	-4248
▁куткар	-4249
▁комплек	-4250
▁көрүүгө	-4251
▁чыгарылган	-4252
▁чөйрө	-4253
▁caption	-4254
▁вакцина	-4255
▁Москванын	-4256
Таш	-4257
шан	-4258
олюция	-4259
▁алышы	-4260
▁өмүрү	-4261
▁баласы	-4262
▁суракка	-4263
▁киргизген	-4264
▁партиялар	-4265
▁жетекчилиги	-4266
жай	-4267
кту	-4268
▁чо	-4269
олоң	-4270
▁Окт	-4271
▁улут	-4272
▁үмүт	-4273
▁ойлон	-4274
▁чыгышты	-4275
▁тест	-4276
▁аткамин	-4277
▁45	-4278
далып	-4279
▁күбө	-4280
▁моюн	-4281
▁реда	-4282
▁медицина	-4283
▁департамент	-4284
их	-4285
кара	-4286
анада	-4287
▁палат	-4288
▁райондорунда	-4289
▁Эң	-4290
чулук	-4291
▁издеп	-4292
▁иштеш	-4293
▁түзүл	-4294
▁Тоолуу	-4295
▁саналат	-4296
▁аткаруучу	-4297
ыйкан	-4298
▁тапты	-4299
▁процес	-4300
▁Депутат	-4301
▁кызматтын	-4302
альд	-4303
▁декабр	-4304
▁консул	-4305
▁шартта	-4306
▁камагына	-4307
▁маркум	-4308
▁ойлойм	-4309
▁Мамлекет	-4310
▁уюмдардын	-4311
▁198	-4312
▁сутк	-4313
▁ысым	-4314
▁чечил	-4315
▁Чолпон	-4316
▁коррупциялык	-4317
▁Вен	-4318
▁айлар	-4319
▁көрүнү	-4320
▁биринде	-4321
▁демонст	-4322
▁кооптон	-4323
тып	-4324
▁шаары	-4325
▁Ник	-4326
▁облусу	-4327
ани	-4328
▁бөлүп	-4329
▁туткун	-4330
▁Алексей	-4331
▁кишилер	-4332
▁колдонуп	-4333
ar	-4334
▁Аф	-4335
егин	-4336
лору	-4337
өнүп	-4338
▁кишил	-4339
▁күнөө	-4340
▁териштир	-4341
▁өлкөлөрү	-4342
▁Атамбаевдин	-4343
ткө	-4344
алест	-4345
масын	-4346
▁берб	-4347
▁үлгү	-4348
▁Аскар	-4349
▁жатам	-4350
▁карай	-4351
▁көбөйгөн	-4352
▁Стам	-4353
▁набыт	-4354
▁тобунун	-4355
▁комиссиясынын	-4356
лин	-4357
ограф	-4358
ератур	-4359
аст	-4360
▁тр	-4361
▁прот	-4362
бекова	-4363
▁милдеттүү	-4364
▁байланышкан	-4365
or	-4366
▁үйүнө	-4367
▁арадагы	-4368
▁саясаты	-4369
▁Германия	-4370
▁болгондордун	-4371
▁Кызыл	-4372
▁Бээжин	-4373
▁автордук	-4374
▁мүмкүнчүлүгү	-4375
паган	-4376
▁айым	-4377
▁баса	-4378
▁Райым	-4379
▁жаракат	-4380
▁күрөшүү	-4381
ырма	-4382
▁кадр	-4383
▁союз	-4384
▁алабыз	-4385
▁байкоо	-4386
▁жараян	-4387
▁жоопко	-4388
▁сүйлөп	-4389
▁келтирген	-4390
▁ачып	-4391
▁терс	-4392
ССР	-4393
бург	-4394
▁толтур	-4395
▁Мирзи	-4396
▁башкача	-4397
▁табылды	-4398
▁күнөөлүү	-4399
▁курултай	-4400
▁Өзбекстанда	-4401
▁Дин	-4402
▁Сур	-4403
▁Жакын	-4404
▁аныктоо	-4405
▁таасири	-4406
гыл	-4407
тен	-4408
▁ла	-4409
▁Сал	-4410
▁көк	-4411
▁үнө	-4412
▁Ибра	-4413
▁автоб	-4414
▁округ	-4415
▁танда	-4416
▁Бейшен	-4417
▁ресурст	-4418
▁лидерлер	-4419
▁кызматташтык	-4420
▁Пол	-4421
орттук	-4422
▁сөзсүз	-4423
")	-4424
еме	-4425
▁жери	-4426
▁келтирүү	-4427
▁Ороз	-4428
▁Поль	-4429
▁мекеме	-4430
▁W	-4431
ида	-4432
чер	-4433
ылап	-4434
▁клим	-4435
▁ойно	-4436
▁Билим	-4437
▁коммер	-4438
▁кымбатт	-4439
▁Өмүрбек	-4440
▁Түркияда	-4441
▁зомбулук	-4442
▁температур	-4443
▁жуу	-4444
▁реп	-4445
▁учуп	-4446
▁аяктаган	-4447
▁сүйлөшүп	-4448
▁ишмердүүл	-4449
▁коомчулук	-4450
▁коргоочулар	-4451
▁башталгандан	-4452
ашат	-4453
▁узак	-4454
▁Бакыт	-4455
▁Евраз	-4456
▁Уюмунун	-4457
▁өспүрүм	-4458
▁келсе	-4459
▁кысым	-4460
▁биргел	-4461
▁аялдардын	-4462
▁министрлигине	-4463
...2	-4464
▁аст	-4465
▁Ташк	-4466
▁Мадум	-4467
▁Мадумаров	-4468
▁алдындагы	-4469
▁тургундары	-4470
▁завод	-4471
▁кагып	-4472
▁факты	-4473
▁акчаны	-4474
▁кете	-4475
▁рубл	-4476
▁ачкан	-4477
▁эпиде	-4478
▁өлкөлөрдө	-4479
▁үйдө	-4480
▁диплом	-4481
▁күчтөрүнүн	-4482
at	-4483
иктин	-4484
▁катаал	-4485
▁келбейт	-4486
▁аймагындагы	-4487
деш	-4488
▁Аман	-4489
▁жашка	-4490
▁кандуу	-4491
▁аягында	-4492
▁бейтаптар	-4493
▁31	-4494
▁масс	-4495
▁чаралар	-4496
▁H	-4497
кыр	-4498
өкөй	-4499
▁сапар	-4500
▁чөлкөм	-4501
▁Дональд	-4502
▁эркиндиги	-4503
▁мамлекеттердин	-4504
рек	-4505
үккө	-4506
▁400	-4507
▁ээси	-4508
▁келиши	-4509
▁кеткени	-4510
▁айылынын	-4511
▁жетектеген	-4512
▁жубай	-4513
беренеси	-4514
▁дүйнөдө	-4515
▁башкармалыгы	-4516
олу	-4517
▁муун	-4518
▁айтуу	-4519
▁өлүмү	-4520
▁Маселен	-4521
▁соттолгон	-4522
▁29	-4523
▁жээ	-4524
▁пост	-4525
▁кетиши	-4526
▁тандоо	-4527
▁Ошондон	-4528
▁кечинде	-4529
▁каршылык	-4530
▁уюштуруу	-4531
КМ	-4532
мир	-4533
▁нач	-4534
▁келбей	-4535
▁жарыялап	-4536
▁Кээ	-4537
▁Осмон	-4538
▁айтат	-4539
▁адамдан	-4540
▁шаарына	-4541
▁катталып	-4542
▁Парламентт	-4543
▁как	-4544
▁бирим	-4545
аланган	-4546
▁калктын	-4547
өбүз	-4548
▁Кой	-4549
ешкен	-4550
ылбай	-4551
▁град	-4552
▁жүйө	-4553
▁болобу	-4554
▁сактагы	-4555
▁дүйнөдөгү	-4556
▁комиссиянын	-4557
▁демократиялык	-4558
▁жуккан	-4559
▁салууга	-4560
▁Азиядагы	-4561
▁аймактагы	-4562
көн	-4563
агым	-4564
▁кеңс	-4565
актагы	-4566
▁келатат	-4567
▁окшойт	-4568
▁Стамбул	-4569
▁бардыгы	-4570
▁өкмөтүнүн	-4571
ыкта	-4572
▁Көл	-4573
▁жам	-4574
▁көм	-4575
▁Кудай	-4576
▁алышат	-4577
▁эскерт	-4578
▁кезекте	-4579
▁жүргүзүү	-4580
▁байланышы	-4581
▁ГЭС	-4582
▁Комп	-4583
▁Улан	-4584
▁оппози	-4585
▁сыпатт	-4586
▁Москвага	-4587
агн	-4588
▁эш	-4589
▁мыр	-4590
елеграм	-4591
▁сапары	-4592
▁коомдун	-4593
▁коронавирустун	-4594
АЭБ	-4595
▁дык	-4596
▁алса	-4597
▁Олимпиада	-4598
бап	-4599
▁ги	-4600
аныч	-4601
▁тат	-4602
▁ыңг	-4603
▁музык	-4604
▁градус	-4605
▁делген	-4606
▁качкын	-4607
▁күрөшт	-4608
▁кагылыш	-4609
▁балдарды	-4610
▁талкууга	-4611
ви	-4612
▁Айыл	-4613
▁Теке	-4614
▁дүкөн	-4615
▁жүгүр	-4616
▁музей	-4617
▁мүлкт	-4618
▁окуяс	-4619
▁тасма	-4620
елешкен	-4621
▁саналып	-4622
▁тараптын	-4623
ста	-4624
шкон	-4625
макка	-4626
энелер	-4627
▁берсе	-4628
▁кошул	-4629
▁кийлигиш	-4630
унду	-4631
ердик	-4632
▁Крым	-4633
▁улуу	-4634
▁берилип	-4635
▁кылууга	-4636
▁Азырынча	-4637
▁маалыматтарга	-4638
▁Меди	-4639
▁жама	-4640
азаров	-4641
▁атаган	-4642
▁бийлигинин	-4643
▁ооруканада	-4644
▁по	-4645
▁дөгү	-4646
▁пров	-4647
▁мунун	-4648
▁айыпталып	-4649
▁ум	-4650
▁Нар	-4651
▁июнь	-4652
▁өсүп	-4653
▁иштеб	-4654
▁күчөп	-4655
▁алдына	-4656
▁элчиси	-4657
▁арасынан	-4658
▁жайгаштыр	-4659
ажы	-4660
▁дост	-4661
▁жаңжал	-4662
▁жыйынт	-4663
▁34	-4664
▁Кы	-4665
▁ут	-4666
▁тек	-4667
ындап	-4668
ордукт	-4669
▁Мирзиё	-4670
▁албаган	-4671
▁мурунку	-4672
▁чыгууга	-4673
▁Бишкекке	-4674
▁парламентте	-4675
ra	-4676
дүм	-4677
▁Аш	-4678
елет	-4679
▁СССР	-4680
▁сотто	-4681
▁тааныш	-4682
▁жыйынтык	-4683
▁жүздөгөн	-4684
▁телеканал	-4685
▁депутаттык	-4686
Тоо	-4687
үтт	-4688
ебин	-4689
стин	-4690
▁мына	-4691
▁эски	-4692
▁алышты	-4693
▁Өкмөтт	-4694
▁көзөмөлдөө	-4695
▁энергетика	-4696
як	-4697
ыгып	-4698
▁мын	-4699
▁доор	-4700
▁оңой	-4701
▁дүйнөнүн	-4702
▁органдарынын	-4703
шту	-4704
эри	-4705
▁Кө	-4706
апар	-4707
▁2024-	-4708
▁түштү	-4709
дарында	-4710
▁ачыкка	-4711
▁иштерди	-4712
▁нааразыл	-4713
имче	-4714
циал	-4715
▁Саяс	-4716
оратор	-4717
▁АКШда	-4718
▁аралы	-4719
▁Россия	-4720
▁академия	-4721
▁дипломатиялык	-4722
гол	-4723
▁Жыйын	-4724
▁топто	-4725
▁кыскарт	-4726
▁адвокаты	-4727
▁көрсөтмө	-4728
▁аракеттен	-4729
▁Сог	-4730
▁меч	-4731
▁атап	-4732
▁крим	-4733
▁тейл	-4734
▁кирет	-4735
▁Св	-4736
▁Күн	-4737
▁чам	-4738
гация	-4739
дерин	-4740
▁клин	-4741
▁прин	-4742
ктарга	-4743
▁чыкпай	-4744
▁болбосун	-4745
ияз	-4746
чан	-4747
ңкы	-4748
▁Сер	-4749
▁Абды	-4750
▁Итал	-4751
дөрдүн	-4752
▁Мекен	-4753
▁бирдиктүү	-4754
исс	-4755
▁Шв	-4756
▁Чың	-4757
▁козго	-4758
▁айрымдары	-4759
▁Британиянын	-4760
тө	-4761
▁жетпей	-4762
▁жугузуп	-4763
▁журналисттерге	-4764
▁сындап	-4765
айк	-4766
▁не	-4767
▁кайрылды	-4768
▁L	-4769
▁ийгил	-4770
▁тараган	-4771
▁маселелерди	-4772
▁Сы	-4773
абек	-4774
▁Шар	-4775
▁нор	-4776
дуулук	-4777
▁Алтын	-4778
▁октябрь	-4779
рий	-4780
ытайл	-4781
▁үйдүн	-4782
▁ракета	-4783
▁айланып	-4784
▁себептер	-4785
▁Көк	-4786
ридик	-4787
үгүндө	-4788
үлүүдө	-4789
▁саналган	-4790
▁учурдагы	-4791
▁басылмасы	-4792
▁системасы	-4793
▁шайланган	-4794
гак	-4795
ттык	-4796
▁Акт	-4797
▁сүз	-4798
▁сана	-4799
▁тагы	-4800
аланып	-4801
саясий	-4802
▁ашкан	-4803
▁жетип	-4804
▁укуктуу	-4805
▁ырастады	-4806
▁Социалдык	-4807
▁Ур	-4808
▁кв	-4809
▁тө	-4810
алиева	-4811
▁ооруп	-4812
▁түйүн	-4813
▁булагы	-4814
▁багытта	-4815
▁жанында	-4816
Эр	-4817
▁той	-4818
чунун	-4819
чылыгы	-4820
▁жарандарды	-4821
▁Ир	-4822
▁адаб	-4823
▁чыныгы	-4824
▁эсебинде	-4825
▁стратегиялык	-4826
▁жолун	-4827
▁коомчулукта	-4828
ят	-4829
өшү	-4830
▁Оп	-4831
газиев	-4832
▁ыраазы	-4833
▁аэропорт	-4834
▁жиберген	-4835
▁массалык	-4836
▁адамдарга	-4837
▁дарды	-4838
▁күмөн	-4839
иясынын	-4840
▁алдыга	-4841
▁проток	-4842
оло	-4843
▁лер	-4844
▁чен	-4845
▁келүү	-4846
▁өрөөн	-4847
▁отурат	-4848
▁Октябрь	-4849
▁бож	-4850
▁Эмил	-4851
▁комиссиясы	-4852
вак	-4853
▁начарл	-4854
▁борбордук	-4855
▁уй	-4856
▁кут	-4857
атына	-4858
▁ачуу	-4859
алаган	-4860
▁жакыр	-4861
▁Чыңгыз	-4862
▁абалды	-4863
▁карама	-4864
▁беришти	-4865
▁айланган	-4866
▁ишканасынын	-4867
чылыктар	-4868
▁кезектеги	-4869
▁миллиондон	-4870
▁министрликт	-4871
ешип	-4872
ысын	-4873
▁ашк	-4874
данын	-4875
аныбек	-4876
▁жумду	-4877
▁камер	-4878
▁кепил	-4879
▁ташып	-4880
▁Батышт	-4881
етикалык	-4882
▁абагында	-4883
▁пайдалануу	-4884
▁Кабул	-4885
▁каржы	-4886
▁токтоп	-4887
▁анткени	-4888
▁өндүрүш	-4889
▁Дүйшөмбү	-4890
▁Райымбек	-4891
▁бийлигин	-4892
▁радиосуна	-4893
▁жыйынтыгын	-4894
▁сунуштаган	-4895
▁алынганын	-4896
▁санитардык	-4897
ото	-4898
түз	-4899
▁Мин	-4900
▁мой	-4901
▁Окуя	-4902
▁макал	-4903
алестин	-4904
▁техник	-4905
▁жашыруун	-4906
▁тегерегинде	-4907
▁Ооганстандын	-4908
уң	-4909
▁тата	-4910
рупция	-4911
▁Тегер	-4912
▁өлкөлөргө	-4913
▁Москвадагы	-4914
▁маалыматында	-4915
▁маз	-4916
▁мет	-4917
▁артык	-4918
▁бирик	-4919
▁экспортт	-4920
▁өкмөттүк	-4921
▁".	-4922
▁75	-4923
орго	-4924
данып	-4925
деринин	-4926
елл	-4927
▁сен	-4928
доого	-4929
▁Исак	-4930
▁көчүр	-4931
▁айтышкан	-4932
▁конститу	-4933
▁колдонгон	-4934
▁республик	-4935
▁долбоорунун	-4936
▁мигранттардын	-4937
дейт	-4938
▁ант	-4939
▁лиценз	-4940
▁карапайым	-4941
▁гез	-4942
▁өст	-4943
димки	-4944
▁маал	-4945
▁такыр	-4946
▁коммун	-4947
▁бергенин	-4948
▁керектүү	-4949
илов	-4950
ыктары	-4951
▁туруу	-4952
▁лидерлери	-4953
▁Германиянын	-4954
▁президентке	-4955
олдо	-4956
▁кыла	-4957
▁интернет	-4958
▁кызматын	-4959
▁чыгышкан	-4960
кал	-4961
өйт	-4962
баса	-4963
ваку	-4964
ябрга	-4965
▁ашып	-4966
▁угуп	-4967
▁жерди	-4968
▁апрель	-4969
▁жолугуп	-4970
▁кыргыздар	-4971
икте	-4972
▁150	-4973
синче	-4974
ттары	-4975
▁дайыма	-4976
▁дегенди	-4977
▁сырттан	-4978
▁алгандар	-4979
▁келбеген	-4980
▁жайы	-4981
▁Мадан	-4982
▁Эркин	-4983
▁иштин	-4984
▁кылууда	-4985
▁мадания	-4986
▁жетишкен	-4987
▁жетекчилер	-4988
▁кызматынан	-4989
▁журналисттердин	-4990
унов	-4991
▁Кел	-4992
▁пун	-4993
▁бирин	-4994
▁жолку	-4995
▁ислам	-4996
▁күчүнө	-4997
керисинче	-4998
▁активдүү	-4999
▁уланууда	-5000
▁билдирүүлөр	-5001
Ор	-5002
мур	-5003
▁37	-5004
яция	-5005
лыктар	-5006
▁көбөйүп	-5007
▁айтылууда	-5008
▁маалымдоо	-5009
чүсү	-5010
▁лаб	-5011
▁жазуу	-5012
ыйкатчы	-5013
▁окуган	-5014
▁божомол	-5015
▁албайбыз	-5016
▁жетишсиз	-5017
▁келишимге	-5018
ло	-5019
▁фонду	-5020
▁кесипт	-5021
▁таратып	-5022
▁эскерткен	-5023
▁туугандары	-5024
▁эксперттер	-5025
oo	-5026
▁Дары	-5027
▁реги	-5028
▁мыйзамда	-5029
▁мыйзамдар	-5030
▁жыйынтыгында	-5031
▁Ооганстандагы	-5032
30	-5033
Эл	-5034
▁Шам	-5035
▁ста	-5036
▁кире	-5037
вакуация	-5038
▁милициянын	-5039
st	-5040
▁Голд	-5041
▁болуу	-5042
▁бирдей	-5043
▁Тилекке	-5044
▁баштайт	-5045
▁акциялар	-5046
▁бөлүнгөн	-5047
▁мекенине	-5048
▁эскертүү	-5049
▁көпчүлүгү	-5050
▁радиосунун	-5051
▁Казакстанга	-5052
инция	-5053
олорду	-5054
ытайлык	-5055
▁баланын	-5056
▁зордукт	-5057
▁аракетин	-5058
▁канааттан	-5059
▁кыймылынын	-5060
Ар	-5061
Бул	-5062
рах	-5063
дуул	-5064
огул	-5065
▁сер	-5066
▁валю	-5067
▁Саясат	-5068
▁окуяга	-5069
▁эмеспи	-5070
▁мөөнөтүн	-5071
▁чыкканын	-5072
юр	-5073
▁теги	-5074
▁Мурда	-5075
▁чечимди	-5076
▁транспорт	-5077
▁38	-5078
иктир	-5079
чачын	-5080
▁эрте	-5081
▁куруп	-5082
▁маанай	-5083
ch	-5084
гал	-5085
▁(+	-5086
▁тыр	-5087
▁жөнөкөй	-5088
▁болгондо	-5089
▁токтотуп	-5090
сине	-5091
▁Аба	-5092
▁көн	-5093
▁порт	-5094
▁түрү	-5095
черээк	-5096
▁беткап	-5097
▁уюштурган	-5098
▁биргелешкен	-5099
ецк	-5100
уфт	-5101
▁Сен	-5102
айбыз	-5103
▁бөлүгүн	-5104
▁зарылды	-5105
жа	-5106
сон	-5107
▁киреше	-5108
▁машине	-5109
▁Кеңеште	-5110
▁44	-5111
▁эф	-5112
▁700	-5113
өрдүн	-5114
▁лары	-5115
▁Индия	-5116
▁бийик	-5117
▁калаа	-5118
▁колуна	-5119
гор	-5120
тим	-5121
ултан	-5122
▁десе	-5123
▁пайызга	-5124
еде	-5125
пейт	-5126
▁жел	-5127
▁Ошто	-5128
▁кезек	-5129
▁сураган	-5130
президент	-5131
▁келишкен	-5132
▁килограмм	-5133
бас	-5134
▁Бр	-5135
өкмөт	-5136
▁агым	-5137
сүндөгү	-5138
▁атынан	-5139
▁жарадар	-5140
▁жердеги	-5141
▁Жарандык	-5142
▁Кр	-5143
▁Жон	-5144
▁Кер	-5145
▁Иман	-5146
▁сыртка	-5147
▁беребиз	-5148
▁болууга	-5149
▁делегация	-5150
:00	-5151
▁1,5	-5152
▁тит	-5153
▁Жалпы	-5154
▁чечүү	-5155
▁ишкана	-5156
▁калдым	-5157
▁жогорул	-5158
▁шаардын	-5159
▁балдарга	-5160
▁провинция	-5161
▁маселелери	-5162
ичи	-5163
▁Ne	-5164
ешке	-5165
▁Кен	-5166
▁ушун	-5167
▁билет	-5168
ттердин	-5169
▁саммит	-5170
▁демилге	-5171
▁температурасы	-5172
Ko	-5173
жаң	-5174
шев	-5175
▁-1	-5176
▁сх	-5177
▁ном	-5178
▁орно	-5179
▁өтүү	-5180
▁сезим	-5181
▁форум	-5182
▁талабы	-5183
▁үйүндө	-5184
ридикалык	-5185
ске	-5186
▁Бу	-5187
гүлт	-5188
▁Аял	-5189
▁атын	-5190
▁кино	-5191
▁дыктан	-5192
▁Армения	-5193
▁армиясынын	-5194
мит	-5195
штык	-5196
▁Аст	-5197
уктун	-5198
▁көзү	-5199
▁ташы	-5200
▁айырм	-5201
▁кадыр	-5202
▁кайда	-5203
▁кеңейт	-5204
▁көркөм	-5205
▁талашт	-5206
▁түштүк	-5207
▁жооптуу	-5208
▁саламатт	-5209
▁айыпталган	-5210
▁тоскоолдук	-5211
▁D	-5212
ариж	-5213
▁арм	-5214
гинен	-5215
▁араны	-5216
▁Негизи	-5217
▁үзгүлт	-5218
▁өлкөнү	-5219
▁Биримди	-5220
▁эвакуация	-5221
гиле	-5222
уста	-5223
▁эне	-5224
айлуу	-5225
▁маани	-5226
▁бүткөн	-5227
▁январь	-5228
▁түзүлүп	-5229
▁кырдаалга	-5230
гам	-5231
▁Сауд	-5232
▁башы	-5233
▁өзүң	-5234
▁Париж	-5235
маларды	-5236
улганын	-5237
▁банктын	-5238
▁кылмышка	-5239
▁демократия	-5240
лоб	-5241
▁Бар	-5242
▁мойн	-5243
▁Аскер	-5244
▁професс	-5245
▁беришкен	-5246
▁сүйлөгөн	-5247
ed	-5248
зин	-5249
▁Рус	-5250
▁Чоң	-5251
▁Эксп	-5252
▁анча	-5253
▁чарб	-5254
▁сабак	-5255
үлгөнүн	-5256
▁Нурлан	-5257
▁мейман	-5258
▁окуяны	-5259
▁чыгары	-5260
▁реформа	-5261
▁тилинде	-5262
▁жүрүшүндө	-5263
▁мекеменин	-5264
▁колдонууга	-5265
ou	-5266
гр	-5267
▁тем	-5268
▁шам	-5269
▁доом	-5270
▁Жазык	-5271
▁радик	-5272
гандардын	-5273
▁токтолду	-5274
тери	-5275
▁жете	-5276
▁иштен	-5277
▁Аларды	-5278
▁жардамы	-5279
▁айыптаган	-5280
▁Ок	-5281
▁Кеч	-5282
▁коло	-5283
▁Жеңиш	-5284
▁масшт	-5285
▁тийген	-5286
▁кадимки	-5287
▁депутаттары	-5288
▁Абыл	-5289
▁мырза	-5290
чылыкка	-5291
▁түндүк	-5292
▁даярдык	-5293
▁48	-5294
▁атады	-5295
▁начар	-5296
▁сатуу	-5297
▁кыздын	-5298
▁алдыңкы	-5299
▁көтөргөн	-5300
▁коронавирустан	-5301
куч	-5302
▁аль	-5303
▁гүл	-5304
атору	-5305
үктүн	-5306
▁жолго	-5307
▁кытай	-5308
▁Америк	-5309
▁Дастан	-5310
▁абадан	-5311
▁майдан	-5312
▁конституциялык	-5313
гай	-5314
гем	-5315
екте	-5316
▁Бан	-5317
▁Жума	-5318
имовдун	-5319
▁дыйкан	-5320
▁турмуш	-5321
▁соңунда	-5322
▁Маданият	-5323
▁жаатында	-5324
ov	-5325
еши	-5326
серв	-5327
▁кум	-5328
мөткө	-5329
уусун	-5330
дөрүнө	-5331
▁кириш	-5332
▁өңдүү	-5333
▁көрсөттү	-5334
ва	-5335
пт	-5336
ZKo	-5337
▁мерт	-5338
▁Андай	-5339
▁Чыгыш	-5340
▁кармоо	-5341
▁Жакында	-5342
▁көтөрүлүп	-5343
кл	-5344
▁Оор	-5345
▁жарл	-5346
▁Докум	-5347
▁алууда	-5348
▁Штаттар	-5349
▁суткада	-5350
▁кабарлагандай	-5351
▁Сүй	-5352
▁Кытайга	-5353
мал	-5354
аммед	-5355
▁ЕАЭБ	-5356
▁балл	-5357
Султан	-5358
▁кырсык	-5359
▁көбөйт	-5360
▁суунун	-5361
▁жеринен	-5362
▁алгандан	-5363
▁мезгилде	-5364
▁кызматташ	-5365
▁жарандарга	-5366
оосу	-5367
▁Жус	-5368
▁маң	-5369
ылтыркы	-5370
▁жактоо	-5371
▁изилдө	-5372
▁коюлду	-5373
▁бергени	-5374
▁Жалпысынан	-5375
▁Баб	-5376
▁унут	-5377
▁алдык	-5378
▁жылына	-5379
▁кеңеши	-5380
▁кыймылы	-5381
▁согушта	-5382
▁согушту	-5383
▁иштерине	-5384
▁китептер	-5385
же	-5386
▁55	-5387
▁Нияз	-5388
▁генер	-5389
▁Руслан	-5390
▁баалуул	-5391
▁тармагында	-5392
▁Евробиримдик	-5393
сал	-5394
дама	-5395
▁сөзү	-5396
▁Сыдык	-5397
▁ташуучу	-5398
▁чогулуп	-5399
▁эмгектен	-5400
▁документтер	-5401
▁K	-5402
арх	-5403
▁буюм	-5404
диктер	-5405
▁майып	-5406
уберн	-5407
▁Марат	-5408
▁аткарып	-5409
▁коомчулуктун	-5410
▁оппозициялык	-5411
▁нам	-5412
▁шил	-5413
ышына	-5414
▁кызуу	-5415
▁бирикм	-5416
▁кубатт	-5417
▁үстүнө	-5418
▁көбөйдү	-5419
▁өзгөрүүлөр	-5420
доп	-5421
▁Си	-5422
▁Лив	-5423
гинде	-5424
▁дешет	-5425
▁күнүнө	-5426
▁Бер	-5427
▁нар	-5428
▁санын	-5429
төн	-5430
окел	-5431
олук	-5432
мөлөр	-5433
▁жаны	-5434
▁камп	-5435
▁кошуп	-5436
▁Кытайдан	-5437
▁жеңилдет	-5438
елеп	-5439
оран	-5440
▁Ади	-5441
▁Дол	-5442
▁Нов	-5443
▁күб	-5444
▁өск	-5445
▁тапт	-5446
▁БШКнын	-5447
▁алынат	-5448
▁көздөп	-5449
▁турабыз	-5450
▁берки	-5451
ациялык	-5452
▁бузган	-5453
▁дарылан	-5454
▁эркинди	-5455
▁түшүндүрдү	-5456
▁агенттигинин	-5457
ье	-5458
▁жатса	-5459
▁ээлеп	-5460
▁жашайт	-5461
▁жакынкы	-5462
▁келгени	-5463
▁кылышты	-5464
▁каттоого	-5465
▁Шер	-5466
▁инсан	-5467
▁учкуч	-5468
▁ашыруу	-5469
▁калдык	-5470
юс	-5471
үшүн	-5472
▁193	-5473
▁мэри	-5474
▁ошого	-5475
▁Андыктан	-5476
миологиялык	-5477
дил	-5478
нек	-5479
▁кг	-5480
▁Суз	-5481
▁буу	-5482
▁тык	-5483
өткөн	-5484
▁төлөн	-5485
▁орунда	-5486
▁кеңештин	-5487
▁текшерип	-5488
▁аралыгында	-5489
▁үр	-5490
улук	-5491
▁Кыр	-5492
▁Шин	-5493
▁кыял	-5494
▁капит	-5495
▁көрүнүшт	-5496
▁токтотууга	-5497
▁беле	-5498
▁каар	-5499
дордун	-5500
▁Айбек	-5501
▁жокпу	-5502
▁Америка	-5503
▁Евразия	-5504
▁Текебаев	-5505
▁басымдуу	-5506
▁облустарында	-5507
поз	-5508
ектүү	-5509
▁форм	-5510
▁тилин	-5511
▁турду	-5512
▁баарына	-5513
▁берүүдө	-5514
▁жумушка	-5515
▁Трамптын	-5516
став	-5517
матова	-5518
султан	-5519
▁татаал	-5520
▁өкүлчүл	-5521
▁мамлекети	-5522
ебер	-5523
▁лог	-5524
▁сим	-5525
замат	-5526
ондон	-5527
▁жыйн	-5528
▁албетте	-5529
▁артында	-5530
▁Токтогул	-5531
▁бейөкмөт	-5532
▁көздөгөн	-5533
▁лаборатор	-5534
Жом	-5535
кана	-5536
▁пар	-5537
▁четт	-5538
Жомарт	-5539
делген	-5540
▁аймак	-5541
▁сумма	-5542
▁төлөө	-5543
▁окуясы	-5544
▁түшүнүк	-5545
ту	-5546
или	-5547
▁эмн	-5548
анышы	-5549
▁Мамыт	-5550
▁апасы	-5551
▁төмөндө	-5552
▁Телеграм	-5553
▁белгилейт	-5554
▁чараларды	-5555
▁жоопкерчилик	-5556
el	-5557
ьт	-5558
▁дуу	-5559
▁сол	-5560
бүлөсү	-5561
▁Рахмон	-5562
▁зордук	-5563
▁жаратып	-5564
▁кабылып	-5565
▁негиздөө	-5566
▁пайдаланып	-5567
дөм	-5568
пик	-5569
сем	-5570
стык	-5571
ышта	-5572
ттагы	-5573
▁Исма	-5574
▁алам	-5575
▁вари	-5576
▁десек	-5577
▁иштөө	-5578
▁титир	-5579
▁тобокел	-5580
▁юридикалык	-5581
▁Тажикстанда	-5582
et	-5583
",-	-5584
▁Инд	-5585
▁ачы	-5586
▁виз	-5587
▁Дмит	-5588
▁күчү	-5589
▁бакча	-5590
▁жасады	-5591
▁турганда	-5592
▁Өкмөттүн	-5593
▁натыйжалуу	-5594
▁рек	-5595
егине	-5596
▁Австр	-5597
▁көпүр	-5598
▁пункт	-5599
ассалык	-5600
▁быйылкы	-5601
▁айыптады	-5602
▁кытайлык	-5603
▁президентинин	-5604
гүн	-5605
▁65	-5606
▁Көр	-5607
▁эли	-5608
▁этн	-5609
▁утуп	-5610
есинен	-5611
▁уккан	-5612
▁регион	-5613
▁кризист	-5614
▁мойнуна	-5615
▁жыйынтыкт	-5616
▁жарандыгын	-5617
▁республика	-5618
▁тың	-5619
▁Алым	-5620
эконом	-5621
▁байге	-5622
▁Калган	-5623
▁тартты	-5624
структур	-5625
▁өкмөткө	-5626
▁катарында	-5627
▁компаниянын	-5628
▁Ти	-5629
арымта	-5630
▁көмөк	-5631
▁советтик	-5632
▁жогорулат	-5633
чак	-5634
▁Су	-5635
▁600	-5636
дүгүн	-5637
улушу	-5638
▁окшош	-5639
▁принц	-5640
▁абалга	-5641
▁арадан	-5642
келиндер	-5643
▁өткөрүүгө	-5644
▁Эч	-5645
▁жашы	-5646
▁сурак	-5647
▁башына	-5648
▁добушт	-5649
▁мөөнөткө	-5650
▁сунуштады	-5651
▁өздөрүнүн	-5652
▁аракеттери	-5653
▁Өзбекстанга	-5654
▁Ноо	-5655
▁курама	-5656
▁саткан	-5657
▁санарип	-5658
▁тушунда	-5659
▁мектепке	-5660
экономикалык	-5661
өдү	-5662
овду	-5663
▁ойн	-5664
естив	-5665
▁Дания	-5666
▁бызды	-5667
▁кызыл	-5668
үгүндөгү	-5669
▁иштелип	-5670
▁өлүмүнө	-5671
истикалык	-5672
▁парламентке	-5673
▁өлкөлөрүнүн	-5674
кеч	-5675
абар	-5676
▁чыл	-5677
▁клуб	-5678
▁бузуп	-5679
▁Шинжаң	-5680
▁бербейт	-5681
▁күйөөсү	-5682
▁башкарган	-5683
▁билдиришкен	-5684
дош	-5685
скө	-5686
▁шилт	-5687
стиция	-5688
▁көчүп	-5689
▁Балким	-5690
▁губерн	-5691
▁ишинин	-5692
▁Менимче	-5693
▁Мирзиёев	-5694
▁федерация	-5695
▁Жээнбековдун	-5696
▁X	-5697
пиз	-5698
сок	-5699
▁карт	-5700
▁ыйгар	-5701
▁аралаш	-5702
▁карман	-5703
▁Жакынкы	-5704
▁реакция	-5705
▁Беларустун	-5706
▁айылындагы	-5707
▁прокуратуранын	-5708
фа	-5709
▁2,	-5710
▁жик	-5711
▁ңиз	-5712
▁Өлк	-5713
▁аман	-5714
▁Алгач	-5715
▁Никол	-5716
▁Талант	-5717
▁бөлүнүп	-5718
▁шайлоодон	-5719
▁энергиясын	-5720
өң	-5721
гери	-5722
▁197	-5723
▁Кап	-5724
▁Саб	-5725
▁Тала	-5726
▁корп	-5727
▁орду	-5728
етинен	-5729
▁пенсия	-5730
▁тактап	-5731
▁көтөрүл	-5732
▁мелдешт	-5733
▁башталып	-5734
▁деңгээли	-5735
▁демилгеси	-5736
▁Бейшеналиев	-5737
▁In	-5738
ицип	-5739
▁Миг	-5740
▁адил	-5741
уттукт	-5742
циялоо	-5743
▁2012-	-5744
▁жабдуу	-5745
▁эмесмин	-5746
▁башталат	-5747
▁кармаган	-5748
нев	-5749
▁Рав	-5750
▁арб	-5751
форма	-5752
▁үйгө	-5753
▁чочул	-5754
▁эсептей	-5755
▁үстүнөн	-5756
▁эсебинен	-5757
▁экендигин	-5758
▁келтирилген	-5759
Сай	-5760
▁(1	-5761
▁Ыр	-5762
▁дү	-5763
▁Шак	-5764
Ислам	-5765
▁Жети	-5766
▁докт	-5767
шкөнүн	-5768
▁айдын	-5769
▁жатты	-5770
▁арызын	-5771
▁абактан	-5772
▁масштаб	-5773
▁таратты	-5774
▁турушат	-5775
гул	-5776
▁Ер	-5777
Вагн	-5778
игер	-5779
▁догу	-5780
▁Базар	-5781
▁Бирим	-5782
▁жылуу	-5783
▁мисал	-5784
▁эстел	-5785
▁Лондон	-5786
▁Кубаныч	-5787
▁талибдер	-5788
▁шайлоону	-5789
▁көтөрүлгөн	-5790
▁кайрылуусунда	-5791
рав	-5792
ска	-5793
▁Ленин	-5794
▁тарды	-5795
▁чагым	-5796
ограмма	-5797
▁Максат	-5798
▁каккан	-5799
▁кереги	-5800
▁кылабыз	-5801
▁каржылык	-5802
▁кошулган	-5803
▁Экономика	-5804
аа	-5805
▁).	-5806
▁ип	-5807
▁Мон	-5808
▁ман	-5809
▁фир	-5810
ерлик	-5811
▁жигит	-5812
▁караш	-5813
▁көздө	-5814
▁ашыкча	-5815
▁көздөй	-5816
▁акчасын	-5817
▁чечимине	-5818
▁статистика	-5819
▁тармагындагы	-5820
Бүтүн	-5821
дараак	-5822
▁жетет	-5823
▁коргоп	-5824
▁тартууга	-5825
▁Й	-5826
▁39	-5827
емет	-5828
▁чоо	-5829
Мекен	-5830
▁Бизге	-5831
▁ошону	-5832
▁пайызы	-5833
▁принцип	-5834
▁лицензия	-5835
▁Курманбек	-5836
▁коомчулукка	-5837
▁Азербайжандын	-5838
кыз	-5839
...+	-5840
атып	-5841
▁Дал	-5842
▁Мел	-5843
▁Эмгек	-5844
▁күтүү	-5845
▁тыйын	-5846
▁жоокер	-5847
ференция	-5848
▁Дмитрий	-5849
▁таанылган	-5850
▁тааныштыр	-5851
?"	-5852
▁Жаш	-5853
▁мүлк	-5854
▁арзан	-5855
▁түздү	-5856
▁Азамат	-5857
▁берерин	-5858
▁куттукт	-5859
▁жеткирүү	-5860
▁себептен	-5861
▁коммерциялык	-5862
бат	-5863
ягы	-5864
▁Мед	-5865
актуу	-5866
раттар	-5867
▁инфра	-5868
▁көчөлөр	-5869
▁Баткенде	-5870
▁окуучулар	-5871
▁сүйлөшүүлөрдү	-5872
гуна	-5873
▁Чеч	-5874
▁жеңип	-5875
▁кирди	-5876
▁өтүнүчү	-5877
▁протокол	-5878
▁саясатын	-5879
▁депутаттардын	-5880
зо	-5881
итор	-5882
▁ова	-5883
▁ачка	-5884
▁жекш	-5885
▁барбы	-5886
▁чыгышы	-5887
▁автоном	-5888
▁жазуучу	-5889
▁жыйынга	-5890
▁экспорт	-5891
▁белгиленди	-5892
▁агенттигине	-5893
▁жерг	-5894
▁Жусуп	-5895
▁Ошону	-5896
▁арала	-5897
ансылык	-5898
▁бирине	-5899
▁болушун	-5900
▁фондунун	-5901
▁жеткирилген	-5902
▁аткаминерлер	-5903
▁47	-5904
соци	-5905
▁Афр	-5906
▁дыгы	-5907
▁корут	-5908
▁сөзүн	-5909
▁Аларга	-5910
▁каттоодон	-5911
▁натыйжасында	-5912
▁фракциясынын	-5913
▁жы	-5914
үскө	-5915
ерсон	-5916
▁Адвок	-5917
▁Замир	-5918
▁билип	-5919
▁койсо	-5920
▁кылыш	-5921
▁ойлоп	-5922
▁ошондо	-5923
▁сунушу	-5924
▁айрыкча	-5925
▁айыптар	-5926
▁бириктир	-5927
▁кылышкан	-5928
▁таптакыр	-5929
▁уюштуруп	-5930
kg	-5931
оза	-5932
▁дуб	-5933
▁мечи	-5934
▁күндүк	-5935
▁элинин	-5936
лобалдык	-5937
▁салууну	-5938
▁долларды	-5939
▁ичиндеги	-5940
▁ишканасы	-5941
▁Экинчиден	-5942
▁инфраструктур	-5943
▁Сары	-5944
▁Харь	-5945
елердин	-5946
▁биринин	-5947
▁жалпыга	-5948
▁төмөнкү	-5949
▁башкалар	-5950
▁кетишкен	-5951
▁мамилеси	-5952
дым	-5953
омп	-5954
▁бри	-5955
▁нүн	-5956
▁атам	-5957
▁жанын	-5958
▁ИИМдин	-5959
▁Таалай	-5960
▁туризм	-5961
▁Республ	-5962
▁сайтына	-5963
▁тагдыры	-5964
▁жатпайбы	-5965
▁салмакта	-5966
▁коркунучу	-5967
▁Бажы	-5968
▁Шарш	-5969
▁жоюл	-5970
▁колл	-5971
шканын	-5972
▁токой	-5973
▁абакка	-5974
социация	-5975
едералдык	-5976
▁сүйлөшкөн	-5977
▁студенттер	-5978
▁3,	-5979
▁Он	-5980
ишин	-5981
Эркин	-5982
▁баратат	-5983
▁барымта	-5984
▁бекемдөө	-5985
▁системасын	-5986
".	-5987
▁Өн	-5988
башы	-5989
үүсү	-5990
айман	-5991
албай	-5992
▁жайл	-5993
▁мушт	-5994
▁Бакты	-5995
▁бүтүр	-5996
▁интер	-5997
▁Натыйж	-5998
▁жубайы	-5999
▁күндүн	-6000
▁согушк	-6001
▁мөөнөтт	-6002
▁тарапка	-6003
▁чыкканы	-6004
▁киргизип	-6005
▁коргоого	-6006
▁райондордо	-6007
▁партиялардын	-6008
▁41	-6009
▁Нью	-6010
▁баң	-6011
үгүнүн	-6012
▁күмүш	-6013
бүлөлөр	-6014
▁кыскар	-6015
▁окутуу	-6016
▁сурады	-6017
▁Назарбаев	-6018
▁айыпталуу	-6019
▁кызматташуу	-6020
▁Лей	-6021
▁июль	-6022
▁Сапар	-6023
▁эркек	-6024
▁радиосу	-6025
▁төрайым	-6026
▁жолуккан	-6027
▁жагдайлар	-6028
гап	-6029
▁43	-6030
▁душ	-6031
▁унаа	-6032
▁тосуп	-6033
▁буйрук	-6034
▁жикчил	-6035
▁Өлкөнүн	-6036
▁дайынсыз	-6037
▁жуктуруп	-6038
нам	-6039
▁Хан	-6040
▁сырт	-6041
▁тама	-6042
▁бөлмө	-6043
▁эмест	-6044
▁түшүнү	-6045
▁уюшкан	-6046
▁бошотулган	-6047
▁министрлик	-6048
▁түшүндүрүү	-6049
бөйт	-6050
▁Иса	-6051
▁коо	-6052
үмдүк	-6053
▁Акмат	-6054
▁айына	-6055
▁жайында	-6056
▁Ооганстанда	-6057
":	-6058
▁42	-6059
▁Да	-6060
ырды	-6061
▁Орто	-6062
▁жолду	-6063
▁класст	-6064
▁түздөн	-6065
▁иликтеп	-6066
▁калганда	-6067
▁жарандарын	-6068
▁мобилизация	-6069
кр	-6070
▁85	-6071
аганы	-6072
амжыл	-6073
▁Бардык	-6074
▁Киевге	-6075
▁муницип	-6076
▁кармоочу	-6077
▁айтышууда	-6078
▁бийликтен	-6079
▁Евробиримдиктин	-6080
ио	-6081
бер	-6082
ейд	-6083
игип	-6084
▁При	-6085
▁сей	-6086
макчы	-6087
зомбул	-6088
▁дарга	-6089
▁лидер	-6090
▁Кандай	-6091
▁банктар	-6092
▁нерсени	-6093
▁козголуп	-6094
▁башчылары	-6095
ткү	-6096
алса	-6097
▁түйш	-6098
▁Абдрах	-6099
▁кемчил	-6100
▁чегинде	-6101
▁курулушу	-6102
▁согуштун	-6103
▁долбоорду	-6104
▁экологиялык	-6105
▁Экономикалык	-6106
ce	-6107
▁E	-6108
үмдү	-6109
▁Кый	-6110
абайт	-6111
иктен	-6112
▁үнүн	-6113
▁Мекеме	-6114
▁сындаган	-6115
▁Коррупция	-6116
▁жөнүндөгү	-6117
▁кабарчысы	-6118
▁милицияга	-6119
▁тапшырган	-6120
▁Армениянын	-6121
▁документтерди	-6122
гур	-6123
▁чү	-6124
▁Пен	-6125
▁быш	-6126
▁жөө	-6127
жарак	-6128
▁Төрт	-6129
▁түпт	-6130
▁Салык	-6131
▁тамыр	-6132
▁юрист	-6133
рациялык	-6134
▁абагына	-6135
▁аймакка	-6136
▁колунда	-6137
▁күчөгөн	-6138
▁көбүнчө	-6139
▁Куралдуу	-6140
▁жүргөнүн	-6141
сүнөн	-6142
▁наам	-6143
▁коюшту	-6144
▁көмөкт	-6145
▁миссия	-6146
▁Каракол	-6147
▁себебин	-6148
▁митингге	-6149
▁негизсиз	-6150
▁чыгарууга	-6151
▁инвесторлор	-6152
▁кызматкерлерине	-6153
▁өп	-6154
▁умт	-6155
▁баев	-6156
▁жаайт	-6157
▁үйрөн	-6158
ортация	-6159
▁албайм	-6160
▁октябр	-6161
▁тактоо	-6162
▁түрлөр	-6163
атындагы	-6164
▁элчилиги	-6165
▁тизмесине	-6166
▁изилдөөлөр	-6167
▁санкциялар	-6168
he	-6169
▁ЖЭБ	-6170
▁сект	-6171
▁сөзүнө	-6172
▁Коомдук	-6173
▁сотунда	-6174
▁Кремлдин	-6175
▁жаралган	-6176
▁заманбап	-6177
▁тажрыйба	-6178
▁ийгиликтүү	-6179
▁экспертиза	-6180
▁органдарына	-6181
екей	-6182
▁кей	-6183
кадыр	-6184
▁адис	-6185
▁баруу	-6186
▁баяндам	-6187
▁башчылар	-6188
▁ишенимдүү	-6189
ира	-6190
лис	-6191
ынч	-6192
арда	-6193
▁сил	-6194
▁кичи	-6195
ыларын	-6196
▁жашыл	-6197
▁Равшан	-6198
▁баасын	-6199
▁жыйыны	-6200
▁Кытайда	-6201
▁бошотуу	-6202
▁буларды	-6203
▁кезинде	-6204
▁келерин	-6205
▁чакыруу	-6206
▁өткөрмө	-6207
▁катарына	-6208
▁аскерлерин	-6209
пин	-6210
унд	-6211
▁лы	-6212
▁укт	-6213
ликтин	-6214
▁жашта	-6215
▁калыс	-6216
▁кетсе	-6217
▁балбан	-6218
▁бөлүшт	-6219
▁кесепети	-6220
▁командасы	-6221
▁эсептелет	-6222
▁мөөнөтүнөн	-6223
ir	-6224
ДП	-6225
▁Ушун	-6226
ышканы	-6227
▁2005-	-6228
▁какты	-6229
апрелге	-6230
▁Фейсбуктагы	-6231
ia	-6232
енк	-6233
пак	-6234
▁гран	-6235
▁талаб	-6236
▁үйдөн	-6237
▁абалын	-6238
▁ачылды	-6239
▁Азиянын	-6240
▁Харьков	-6241
дыктардын	-6242
▁Мухаммед	-6243
▁баарыбыз	-6244
▁былтыркы	-6245
▁киргизилди	-6246
▁й	-6247
уди	-6248
▁хан	-6249
▁виза	-6250
▁заво	-6251
▁башкарып	-6252
▁Казакстандагы	-6253
бал	-6254
▁Сок	-6255
▁тор	-6256
ентер	-6257
урман	-6258
▁брит	-6259
ыктарды	-6260
▁шаарда	-6261
▁окуядан	-6262
▁жерлерде	-6263
▁жылуулук	-6264
▁Натыйжада	-6265
▁бийлигине	-6266
▁борборлор	-6267
▁жылдыгына	-6268
▁Европадагы	-6269
ейн	-6270
сим	-6271
▁кыян	-6272
▁өзгө	-6273
▁өнүк	-6274
▁армян	-6275
▁майда	-6276
▁баланы	-6277
▁чыгарм	-6278
▁жетектеп	-6279
▁депортация	-6280
чык	-6281
ыск	-6282
март	-6283
▁чир	-6284
иядан	-6285
ордин	-6286
пеген	-6287
спорт	-6288
устар	-6289
▁тили	-6290
невмон	-6291
▁Минск	-6292
▁согуштук	-6293
▁түшүнүкт	-6294
▁кызматкерлердин	-6295
.)	-6296
жыр	-6297
кий	-6298
▁оф	-6299
▁Көз	-6300
тууга	-6301
▁Абанын	-6302
▁атабыз	-6303
▁тарыхы	-6304
▁шилтеме	-6305
▁куугунтук	-6306
боо	-6307
ишке	-6308
▁Азиз	-6309
▁кечээ	-6310
▁ларга	-6311
▁уулунун	-6312
▁төрөлгөн	-6313
▁Ян	-6314
умун	-6315
▁Мих	-6316
▁Уба	-6317
▁ойдо	-6318
Центер	-6319
▁Баары	-6320
▁Бекеш	-6321
▁участ	-6322
▁ылдам	-6323
▁айыгып	-6324
▁билдирет	-6325
▁пикиринде	-6326
▁ассоциация	-6327
▁шаарларында	-6328
бара	-6329
▁боз	-6330
▁рев	-6331
▁сың	-6332
▁ура	-6333
▁боор	-6334
▁уруп	-6335
▁чечип	-6336
суалдык	-6337
▁берене	-6338
▁кошкон	-6339
▁чындык	-6340
▁кирүүгө	-6341
▁курууга	-6342
▁Түркияга	-6343
▁сакталып	-6344
▁чыккандар	-6345
кем	-6346
▁Лу	-6347
инов	-6348
өлөк	-6349
▁чач	-6350
▁жоюу	-6351
▁коман	-6352
▁орточо	-6353
▁адвокат	-6354
▁жарылуу	-6355
▁макулда	-6356
▁суроого	-6357
▁жоктугун	-6358
▁кызматтык	-6359
иль	-6360
дром	-6361
дукт	-6362
окус	-6363
чара	-6364
▁194	-6365
▁Беш	-6366
▁Чет	-6367
▁Мект	-6368
▁этно	-6369
▁тирүү	-6370
▁аймагы	-6371
▁айыпто	-6372
▁качкан	-6373
▁чектеш	-6374
▁даярдап	-6375
▁кечирим	-6376
▁окуяларды	-6377
▁полициясы	-6378
▁Матраимовдун	-6379
▁тескерисинче	-6380
үшөт	-6381
▁Тар	-6382
▁ЖККУ	-6383
▁конф	-6384
▁механ	-6385
▁бутага	-6386
▁пикирде	-6387
▁экенине	-6388
▁созулган	-6389
▁келгенден	-6390
▁күчтөрдүн	-6391
▁чыккандан	-6392
▁казакстандык	-6393
▁Сөз	-6394
▁каф	-6395
▁жүрө	-6396
▁Элдик	-6397
▁колон	-6398
▁интерв	-6399
▁тармагы	-6400
▁V	-6401
▁54	-6402
естр	-6403
сион	-6404
ткүл	-6405
бирине	-6406
ылганы	-6407
▁кагыл	-6408
▁даттан	-6409
▁өтүүгө	-6410
▁февраль	-6411
▁башчынын	-6412
▁аймагынан	-6413
▁айдоочулар	-6414
▁баштаганын	-6415
▁башчысынын	-6416
▁жатышканын	-6417
▁коопсуздугу	-6418
ади	-6419
▁лан	-6420
▁майн	-6421
▁Исаков	-6422
▁Тегеран	-6423
▁Пандемия	-6424
▁сактагыч	-6425
▁чаралары	-6426
▁доллардан	-6427
▁программасы	-6428
▁администрациясы	-6429
Сиге	-6430
алог	-6431
ашин	-6432
корл	-6433
дөрдү	-6434
аттагы	-6435
диктен	-6436
▁лагер	-6437
▁ырайы	-6438
▁кыздар	-6439
▁дүйнөгө	-6440
▁мүнөздө	-6441
▁бузуулар	-6442
▁суроолоруна	-6443
▁Азим	-6444
▁Жекш	-6445
▁арда	-6446
етинде	-6447
▁катчы	-6448
▁кирүү	-6449
▁өтүшү	-6450
▁жүрүшү	-6451
▁пикири	-6452
▁Өлкөдө	-6453
▁жазылып	-6454
▁кетишти	-6455
▁колдоого	-6456
▁шаарынан	-6457
▁миллионго	-6458
▁макулдашуу	-6459
▁муниципалдык	-6460
▁прокуратурасы	-6461
eu	-6462
▁49	-6463
▁Ира	-6464
▁Наз	-6465
▁Суу	-6466
▁дүр	-6467
дорду	-6468
сунан	-6469
чүлүк	-6470
▁атал	-6471
▁чыкп	-6472
▁Долбо	-6473
▁жалаң	-6474
▁кээде	-6475
▁коомдо	-6476
▁күйүүчү	-6477
▁балдарын	-6478
▁курулган	-6479
▁көрбөгөн	-6480
▁облусуна	-6481
▁Лукашенко	-6482
▁ишканалар	-6483
▁шайлоочулардын	-6484
Мен	-6485
▁коюш	-6486
▁өзгөч	-6487
▁кошуна	-6488
▁адабият	-6489
▁ташыган	-6490
▁мекендешт	-6491
▁чыгармачыл	-6492
мад	-6493
▁-2	-6494
▁Төл	-6495
ыштар	-6496
штыруу	-6497
▁чакты	-6498
▁түркмөн	-6499
▁Биримдиги	-6500
юп	-6501
аков	-6502
ипов	-6503
▁ЖМК	-6504
▁Ишк	-6505
▁илин	-6506
жылдар	-6507
▁2013-	-6508
▁Талиб	-6509
▁жайкын	-6510
▁жаратты	-6511
▁колунан	-6512
▁мигрант	-6513
▁ошондон	-6514
▁сайтында	-6515
▁тапшырды	-6516
▁Акыйкатчы	-6517
▁борборунда	-6518
▁түшүндүрмөсү	-6519
ета	-6520
▁КМ	-6521
абил	-6522
етер	-6523
▁New	-6524
▁пат	-6525
▁чап	-6526
линкен	-6527
орттун	-6528
▁кимге	-6529
▁менчи	-6530
▁улутт	-6531
▁болору	-6532
▁коюлуп	-6533
▁окууда	-6534
▁соккул	-6535
▁Юстиция	-6536
▁өткөрүлүп	-6537
▁жолугушууда	-6538
▁аскерлеринин	-6539
янын	-6540
▁апт	-6541
▁дик	-6542
▁ушу	-6543
откон	-6544
өзбек	-6545
▁Венгр	-6546
▁аткез	-6547
▁болсун	-6548
▁тардын	-6549
▁Блинкен	-6550
▁Полиция	-6551
▁баштапкы	-6552
▁киргизил	-6553
▁палестин	-6554
▁Нурсултан	-6555
▁жоокерлер	-6556
▁алгандардын	-6557
▁башаламанды	-6558
▁жоопкерчилиги	-6559
юк	-6560
бил	-6561
гыла	-6562
дайт	-6563
▁Реж	-6564
▁пан	-6565
▁Жаза	-6566
▁Ооба	-6567
алиция	-6568
▁сууга	-6569
▁Башкача	-6570
▁келишти	-6571
▁көмүскө	-6572
▁турууга	-6573
▁баяндама	-6574
▁кабаттуу	-6575
▁тизмесин	-6576
▁эркиндигин	-6577
лу	-6578
аил	-6579
пул	-6580
▁Үс	-6581
▁Жет	-6582
▁Зап	-6583
▁Шав	-6584
▁ашы	-6585
дыкты	-6586
▁бакч	-6587
ктарын	-6588
▁кенен	-6589
▁кенин	-6590
▁балким	-6591
▁блогер	-6592
▁толкун	-6593
▁тургай	-6594
▁алмашуу	-6595
▁иштебей	-6596
▁өкмөттү	-6597
▁бийликте	-6598
▁акциялары	-6599
▁иликтөөлөр	-6600
шар	-6601
▁4,	-6602
екти	-6603
ракт	-6604
бетов	-6605
икасы	-6606
ортко	-6607
▁Союз	-6608
▁асман	-6609
▁тизме	-6610
▁үстөм	-6611
▁жарлык	-6612
▁иштерге	-6613
▁өткөрдү	-6614
▁дегендей	-6615
▁кайтаруу	-6616
▁чагылдыр	-6617
▁өрөөнүндө	-6618
▁экстремисттик	-6619
Өз	-6620
кыч	-6621
▁кос	-6622
▁тум	-6623
▁колу	-6624
алышын	-6625
▁башын	-6626
▁салыш	-6627
▁үмүтт	-6628
▁жаткыр	-6629
▁түрткү	-6630
▁артынан	-6631
▁жайылыш	-6632
▁калышты	-6633
▁талаштуу	-6634
▁экология	-6635
уучулардын	-6636
▁айларында	-6637
▁өкүлдөрүнүн	-6638
▁институтунун	-6639
ТР	-6640
▁сү	-6641
нексия	-6642
▁гезит	-6643
▁эреже	-6644
▁Белгил	-6645
▁конушт	-6646
▁талапт	-6647
▁Кеңешке	-6648
▁Финансы	-6649
▁айланды	-6650
▁аялдарга	-6651
▁кеңешчиси	-6652
баш	-6653
▁мор	-6654
ектин	-6655
▁2000	-6656
▁Улук	-6657
▁жакш	-6658
▁муфт	-6659
▁тонн	-6660
▁өкүн	-6661
актары	-6662
инекей	-6663
▁2011-	-6664
▁дараж	-6665
▁четтет	-6666
▁мектепте	-6667
▁камтылган	-6668
▁Журналисттер	-6669
...-1	-6670
жайын	-6671
лигин	-6672
▁Канат	-6673
▁Сузак	-6674
▁Энерг	-6675
▁ынтым	-6676
▁Асанов	-6677
▁Лейлек	-6678
▁Херсон	-6679
▁реестр	-6680
▁акцияга	-6681
▁беришет	-6682
▁катышат	-6683
▁көрүнүп	-6684
▁кабинети	-6685
▁Кубанычбек	-6686
▁Франциянын	-6687
▁жүргүзүлүп	-6688
▁өнүктүрүүгө	-6689
▁оппозициячыл	-6690
▁демонстранттар	-6691
▁департаментинин	-6692
▁Y	-6693
ита	-6694
▁46	-6695
▁ыз	-6696
▁ник	-6697
етине	-6698
▁жүрдү	-6699
▁сомду	-6700
▁Анткен	-6701
▁кишиден	-6702
▁штабдын	-6703
▁өзгөчөл	-6704
▁Кореянын	-6705
▁берүүнүн	-6706
▁сактоого	-6707
▁дайындалды	-6708
ерд	-6709
ров	-6710
сти	-6711
еция	-6712
тарт	-6713
▁192	-6714
▁195	-6715
▁нем	-6716
ессия	-6717
майга	-6718
▁алда	-6719
▁суна	-6720
дармек	-6721
▁ортом	-6722
▁аларын	-6723
▁айтышат	-6724
▁жактагы	-6725
▁камалды	-6726
▁кызматта	-6727
▁болгондон	-6728
▁байланышта	-6729
▁тарапташтары	-6730
во	-6731
сең	-6732
▁00	-6733
асак	-6734
▁Ден	-6735
▁Айма	-6736
ттарын	-6737
угунан	-6738
▁Борон	-6739
▁Мирлан	-6740
▁кардар	-6741
▁Абдулла	-6742
▁жайларда	-6743
▁Европанын	-6744
▁окуяларга	-6745
▁ошондуктан	-6746
▁баалуулуктар	-6747
олл	-6748
ешти	-6749
ишет	-6750
гожин	-6751
▁спик	-6752
▁ынын	-6753
итация	-6754
▁кызды	-6755
▁Иранда	-6756
▁арасын	-6757
▁аныктап	-6758
▁жылдагы	-6759
▁коюшкан	-6760
▁аймактын	-6761
▁редакция	-6762
▁жазгандай	-6763
▁миллиондогон	-6764
it	-6765
▁мө	-6766
остук	-6767
энеси	-6768
▁чыкса	-6769
ларация	-6770
▁Адахан	-6771
▁баатыр	-6772
▁жокмун	-6773
▁жокпуз	-6774
▁мисалы	-6775
▁окуучу	-6776
▁жазасын	-6777
▁сунушун	-6778
▁Президенттик	-6779
тони	-6780
▁196	-6781
▁Чех	-6782
▁Конг	-6783
▁Мага	-6784
▁ауди	-6785
▁дене	-6786
▁эфир	-6787
еттери	-6788
▁медал	-6789
▁баңгиз	-6790
▁радикал	-6791
▁калыптан	-6792
ократиялык	-6793
▁программа	-6794
▁Министрлик	-6795
▁материалдык	-6796
▁энергетикалык	-6797
ыйт	-6798
▁58	-6799
дугу	-6800
▁Сыр	-6801
бызды	-6802
▁маян	-6803
▁Манас	-6804
▁арызы	-6805
чаралар	-6806
▁жайылт	-6807
▁кездеш	-6808
▁режисс	-6809
▁астында	-6810
▁жолунун	-6811
▁келүүдө	-6812
▁барганда	-6813
▁өткөндөн	-6814
Кор	-6815
рим	-6816
сел	-6817
орож	-6818
▁мүн	-6819
▁рол	-6820
▁араб	-6821
▁коңш	-6822
▁батыш	-6823
▁ээлеген	-6824
октябрдагы	-6825
▁туристтер	-6826
▁айланасындагы	-6827
ёр	-6828
▁O	-6829
чун	-6830
▁Гон	-6831
▁аялы	-6832
▁плат	-6833
▁авиак	-6834
баганын	-6835
▁жеринде	-6836
▁стандар	-6837
▁кесиптешт	-6838
▁финансылык	-6839
▁жүргүзүлгөн	-6840
▁санкцияларды	-6841
om	-6842
▁Мари	-6843
▁1990-	-6844
▁Сайма	-6845
▁кенем	-6846
▁Анкара	-6847
▁Шавкат	-6848
▁вариан	-6849
▁жардыр	-6850
▁кетсек	-6851
▁кризис	-6852
▁Жапония	-6853
▁НАТОнун	-6854
▁даярдоо	-6855
▁күчүндө	-6856
▁салынат	-6857
▁түшүнүп	-6858
▁өндүрүү	-6859
▁пикирлер	-6860
▁Жапаровго	-6861
▁тармагына	-6862
▁жарандарына	-6863
гысы	-6864
▁анк	-6865
▁пре	-6866
үндөй	-6867
▁корг	-6868
▁тема	-6869
▁китепт	-6870
▁таануу	-6871
▁чарасы	-6872
чүлөрдүн	-6873
▁Орусияны	-6874
▁Пригожин	-6875
▁аннексия	-6876
▁тагылган	-6877
▁ракеталык	-6878
▁берилгенин	-6879
▁долбооруна	-6880
▁колдонулган	-6881
▁мүмкүнчүлүкт	-6882
идин	-6883
реди	-6884
▁Вир	-6885
▁тук	-6886
ликти	-6887
▁каст	-6888
▁Мамытов	-6889
▁салынды	-6890
▁шартында	-6891
▁институту	-6892
▁репрессия	-6893
▁зомбулукка	-6894
▁пандемиясы	-6895
▁үзгүлтүккө	-6896
тте	-6897
дарм	-6898
▁120	-6899
▁Жаб	-6900
▁күл	-6901
▁чат	-6902
дикти	-6903
▁төлө	-6904
▁Сверд	-6905
▁иштетүү	-6906
▁Советтер	-6907
▁директор	-6908
▁кесилген	-6909
▁коалиция	-6910
▁аракеттерин	-6911
▁уюштурулган	-6912
▁жоопкерчиликти	-6913
рч	-6914
глис	-6915
▁жор	-6916
▁Польш	-6917
▁мандат	-6918
▁Ушундан	-6919
▁генерал	-6920
▁студент	-6921
▁тизмеге	-6922
▁тартылып	-6923
▁аралашкан	-6924
▁тарыхында	-6925
ург	-6926
▁жагы	-6927
▁каршыл	-6928
▁тоолор	-6929
▁жемкорл	-6930
▁тааныган	-6931
▁ыңгайлуу	-6932
▁күтүлүүдө	-6933
▁эгемендик	-6934
▁зарылдыгын	-6935
▁!"	-6936
▁57	-6937
тыгы	-6938
▁Эрт	-6939
▁Тран	-6940
▁инде	-6941
ашинян	-6942
▁азайып	-6943
▁валюта	-6944
▁душман	-6945
▁машыкт	-6946
чылардын	-6947
▁автобус	-6948
▁улантып	-6949
▁калтырды	-6950
▁кызыкдар	-6951
▁нерселер	-6952
▁глобалдык	-6953
▁көзөмөлдө	-6954
▁мандаттуу	-6955
аф	-6956
еки	-6957
▁До	-6958
жылкы	-6959
пикир	-6960
▁тагын	-6961
▁Саясий	-6962
▁жүргүн	-6963
▁Запорож	-6964
▁аралыкта	-6965
гуз	-6966
▁2,5	-6967
▁зон	-6968
имдик	-6969
▁келб	-6970
▁утур	-6971
гөөнүн	-6972
▁Кечээ	-6973
▁Тилек	-6974
▁дешти	-6975
▁төраг	-6976
▁чалып	-6977
▁үйрөт	-6978
▁өскөн	-6979
▁сыйлык	-6980
▁фактыл	-6981
▁Пашинян	-6982
▁айтканы	-6983
▁пневмон	-6984
▁кыргызча	-6985
▁чогултуп	-6986
▁эсептелген	-6987
▁шайлоочулар	-6988
итект	-6989
▁Андр	-6990
▁Булар	-6991
▁калкы	-6992
▁ойлор	-6993
▁сарпт	-6994
▁абанын	-6995
Центерра	-6996
▁Көлбаев	-6997
▁координ	-6998
▁чемпиону	-6999
▁келгендер	-7000
▁мектептин	-7001
▁уюштурууга	-7002
▁өлкөлөрдөн	-7003
Ин	-7004
▁800	-7005
▁Бур	-7006
▁КМШ	-7007
▁айы	-7008
▁кое	-7009
ектак	-7010
▁кайн	-7011
уулары	-7012
▁арага	-7013
▁отчет	-7014
▁планы	-7015
керлери	-7016
▁колдой	-7017
▁сүйлөшт	-7018
▁сөзүндө	-7019
▁Лукашенк	-7020
▁Бакиевдин	-7021
▁калтырган	-7022
гыш	-7023
лет	-7024
▁Жай	-7025
акунов	-7026
▁бекер	-7027
▁ларын	-7028
▁сыноо	-7029
аттарын	-7030
▁Михаил	-7031
▁адилет	-7032
▁жумган	-7033
▁жеңишке	-7034
▁реалдуу	-7035
▁чарасын	-7036
▁Свердлов	-7037
▁Ташкентт	-7038
▁келтирип	-7039
▁жанындагы	-7040
▁институтт	-7041
▁милдеттендир	-7042
▁инвестициялык	-7043
ИИМ	-7044
▁мү	-7045
айыр	-7046
стөн	-7047
▁Жоо	-7048
▁Кем	-7049
▁Мал	-7050
▁дүң	-7051
▁үйү	-7052
▁үнү	-7053
ендер	-7054
виттер	-7055
данган	-7056
▁архив	-7057
▁даана	-7058
▁турса	-7059
дегенде	-7060
▁Астана	-7061
▁айылда	-7062
▁бериле	-7063
▁жөндөм	-7064
▁кримин	-7065
▁толукт	-7066
▁убакты	-7067
▁курулуп	-7068
▁жолдорун	-7069
▁кесиптик	-7070
▁сентябрь	-7071
▁аныкталып	-7072
▁көтөрүлдү	-7073
▁биргеликте	-7074
▁маселесине	-7075
▁Кыргызстанды	-7076
▁Коронавируска	-7077
ig	-7078
абад	-7079
ахта	-7080
часы	-7081
▁Коч	-7082
▁аза	-7083
▁син	-7084
▁чур	-7085
арбек	-7086
▁түнд	-7087
ктарда	-7088
▁салгыл	-7089
▁тартыш	-7090
▁фестив	-7091
▁аппарат	-7092
▁техника	-7093
▁агрессия	-7094
▁кылганын	-7095
▁төрайымы	-7096
▁белгилери	-7097
▁жакшыртуу	-7098
▁топтордун	-7099
цар	-7100
▁Кир	-7101
ээрим	-7102
▁Тыны	-7103
▁суук	-7104
▁өтөп	-7105
▁сынын	-7106
▁бирден	-7107
▁каарман	-7108
▁согуштан	-7109
▁Абылгазиев	-7110
▁Биринчиден	-7111
▁көрсөтүүгө	-7112
Тез	-7113
дат	-7114
ория	-7115
ханов	-7116
▁Парт	-7117
▁Цзин	-7118
▁тура	-7119
▁жатыш	-7120
▁жүрүм	-7121
▁овдун	-7122
▁Өзгөн	-7123
▁Донецк	-7124
▁комисс	-7125
▁иликтен	-7126
▁машыгуу	-7127
▁түзүүгө	-7128
▁Сириянын	-7129
▁аткарган	-7130
▁керектөө	-7131
▁тапшырып	-7132
▁шаардагы	-7133
▁айтылгандай	-7134
▁прокуратурага	-7135
▁талапкерлигин	-7136
айм	-7137
екс	-7138
иан	-7139
▁Ус	-7140
▁лаг	-7141
ерине	-7142
▁анык	-7143
▁отуз	-7144
▁алсак	-7145
▁демек	-7146
▁ченем	-7147
иктерди	-7148
▁катыша	-7149
▁тандап	-7150
▁жашында	-7151
▁спортчу	-7152
▁финалда	-7153
▁чыңалуу	-7154
▁өзгөрүү	-7155
▁эркектер	-7156
▁аныктаган	-7157
▁болбогонун	-7158
▁көзөмөлдөп	-7159
▁талапкерлердин	-7160
▁Ti	-7161
▁Жун	-7162
▁абр	-7163
▁Тарых	-7164
▁адабия	-7165
▁көчөгө	-7166
▁мүлктү	-7167
▁Темиров	-7168
▁Улукбек	-7169
▁жайылып	-7170
▁адамдары	-7171
▁бардыгын	-7172
▁кепилдик	-7173
▁колдоосу	-7174
▁талдоочу	-7175
▁дарыланып	-7176
▁келишимди	-7177
▁белгилегендей	-7178
Вт	-7179
гый	-7180
руз	-7181
▁52	-7182
▁Бас	-7183
уктан	-7184
▁рубль	-7185
▁табуу	-7186
▁түшөт	-7187
▁Эгемен	-7188
▁буудай	-7189
▁кимдер	-7190
▁тилдүү	-7191
▁шаарын	-7192
▁сатылып	-7193
▁сурамжыл	-7194
▁таанымал	-7195
▁декларация	-7196
▁жаатындагы	-7197
▁суроолорго	-7198
▁кызыкчылыгы	-7199
▁Кыргызстандык	-7200
адык	-7201
актын	-7202
устук	-7203
▁балам	-7204
▁уюмга	-7205
▁алдыда	-7206
▁андагы	-7207
▁диалог	-7208
▁жыйынын	-7209
▁тизмеси	-7210
▁койгонун	-7211
▁механизм	-7212
▁долларлык	-7213
Фейсбуктагы	-7214
▁кошумчалаган	-7215
зел	-7216
▁Бей	-7217
▁фран	-7218
▁ыктым	-7219
▁британ	-7220
▁ырайым	-7221
▁которгон	-7222
▁Украинаны	-7223
▁мыйзамдарды	-7224
▁коопсуздукту	-7225
▁/	-7226
асул	-7227
аптар	-7228
уштуу	-7229
▁Тынч	-7230
▁элчи	-7231
▁жигер	-7232
▁самми	-7233
ыктарын	-7234
▁Прокур	-7235
▁тейлөө	-7236
▁Каныбек	-7237
▁чечүүгө	-7238
▁Беларуста	-7239
▁аймактарга	-7240
▁мигранттарды	-7241
▁министрликтин	-7242
▁Же	-7243
дарда	-7244
измге	-7245
▁Аксы	-7246
▁ижар	-7247
▁сайты	-7248
▁Болгон	-7249
▁Маркум	-7250
▁жаатта	-7251
▁сомдук	-7252
▁чыгара	-7253
▁өздөрүн	-7254
▁жөнөткөн	-7255
▁татыктуу	-7256
▁өткөрүүнү	-7257
▁жарандарынын	-7258
▁жетекчисинин	-7259
▁негиздөөчүсү	-7260
хам	-7261
олот	-7262
▁ңар	-7263
шканы	-7264
▁маек	-7265
▁үчөө	-7266
▁оңдоп	-7267
▁жайына	-7268
▁саатка	-7269
етербург	-7270
▁барууга	-7271
▁жашоого	-7272
▁кайткан	-7273
▁калууда	-7274
▁Конституциянын	-7275
дак	-7276
шер	-7277
▁68	-7278
ынып	-7279
▁үйл	-7280
дөрдө	-7281
ейцар	-7282
идеги	-7283
▁пады	-7284
▁Үсөн	-7285
▁2009-	-7286
▁арбын	-7287
▁бүтүн	-7288
дыктарды	-7289
▁камалып	-7290
▁көмөктөш	-7291
▁талкууланып	-7292
чук	-7293
▁56	-7294
▁62	-7295
ымды	-7296
сунун	-7297
▁идея	-7298
абеков	-7299
▁Иликт	-7300
▁ушуну	-7301
▁Андрей	-7302
▁Нурбек	-7303
▁курчуп	-7304
▁болушту	-7305
▁кошулуп	-7306
▁объектил	-7307
▁профессор	-7308
▁биргелешип	-7309
▁77	-7310
ульт	-7311
▁Исп	-7312
▁дөй	-7313
манын	-7314
▁тары	-7315
ерттер	-7316
▁күйүп	-7317
▁терге	-7318
▁Макрон	-7319
▁Турсун	-7320
▁Үчүнчү	-7321
▁өткөнүн	-7322
▁сөздөрдү	-7323
▁борбордун	-7324
▁борборуна	-7325
▁революция	-7326
▁которулган	-7327
▁жакындарына	-7328
▁сунушталган	-7329
▁көзөмөлдөгөн	-7330
ol	-7331
re	-7332
Йор	-7333
лүк	-7334
пой	-7335
жара	-7336
▁Опп	-7337
▁мер	-7338
▁Бала	-7339
▁күрө	-7340
▁төңк	-7341
▁Зулуш	-7342
▁белар	-7343
▁жумур	-7344
▁жүрөк	-7345
▁ошонун	-7346
▁сотуна	-7347
▁өзүндө	-7348
▁козгогон	-7349
▁пайдалуу	-7350
▁жаткандар	-7351
▁кеткенден	-7352
▁резолюция	-7353
▁Дарыгерлер	-7354
▁кабылганын	-7355
▁материалдар	-7356
5,	-7357
гип	-7358
рис	-7359
ters	-7360
адан	-7361
отек	-7362
▁Син	-7363
▁буюр	-7364
euters	-7365
▁Балык	-7366
▁билин	-7367
▁айлана	-7368
▁жумада	-7369
▁жүргөнү	-7370
▁тополоң	-7371
▁Айтматов	-7372
▁эскертип	-7373
▁булактарына	-7374
▁деңгээлдеги	-7375
▁Навальныйдын	-7376
ни	-7377
▁51	-7378
▁Сп	-7379
▁эж	-7380
арат	-7381
ылай	-7382
▁Мэр	-7383
▁өлт	-7384
лаган	-7385
ыркай	-7386
▁өнүм	-7387
▁арасына	-7388
▁берүүдөн	-7389
▁коркутуп	-7390
▁көзөмөлгө	-7391
көө	-7392
нов	-7393
игый	-7394
▁алк	-7395
▁чий	-7396
▁косм	-7397
ештирүү	-7398
▁академ	-7399
▁англис	-7400
▁ачылып	-7401
▁редакт	-7402
▁жыйырма	-7403
▁сентябр	-7404
▁аймагынын	-7405
▁экспертиз	-7406
▁мугалимдер	-7407
▁каражаттарынын	-7408
na	-7409
ыкка	-7410
▁чул	-7411
▁кепт	-7412
▁кышт	-7413
▁таба	-7414
▁бүтүп	-7415
▁артист	-7416
▁калбай	-7417
▁топтоп	-7418
▁кенемте	-7419
▁тууганы	-7420
▁түзүлдү	-7421
▁каражатты	-7422
▁тургандай	-7423
▁чыгарылып	-7424
▁кызыкчылыгын	-7425
▁мигранттарга	-7426
202	-7427
улуу	-7428
▁дор	-7429
айкын	-7430
▁Донб	-7431
▁сокк	-7432
▁Режеп	-7433
▁учуру	-7434
▁Данияр	-7435
▁акысыз	-7436
▁дуушар	-7437
▁метрге	-7438
▁ноябрь	-7439
▁азайтуу	-7440
▁иштөөгө	-7441
▁кыдырып	-7442
▁түрмөдө	-7443
▁жарандын	-7444
▁жумуштан	-7445
▁моралдык	-7446
▁мындайча	-7447
▁Байдендин	-7448
▁мекемесинин	-7449
▁кызматташтыкты	-7450
ток	-7451
▁нү	-7452
...3	-7453
алин	-7454
идор	-7455
ңгүл	-7456
▁Каз	-7457
▁жеп	-7458
▁тет	-7459
▁тиг	-7460
▁Махм	-7461
▁уурд	-7462
▁фрон	-7463
арынан	-7464
▁бөлүш	-7465
▁олтур	-7466
▁салат	-7467
▁турчу	-7468
▁эсеби	-7469
▁Жолдош	-7470
▁Кийинки	-7471
▁кабылды	-7472
▁күбөлөр	-7473
▁мааниси	-7474
▁вирустун	-7475
▁чектелген	-7476
▁өзбекстан	-7477
▁жөнөтүлгөн	-7478
▁украиналык	-7479
▁Пакистандын	-7480
▁жыйынтыгына	-7481
▁коронавирусту	-7482
▁кыйынчылыктар	-7483
ота	-7484
алит	-7485
▁Лит	-7486
▁фун	-7487
▁мазм	-7488
ттерге	-7489
▁жылкы	-7490
▁Польша	-7491
▁коюуга	-7492
▁биримди	-7493
▁интервью	-7494
▁тапшырма	-7495
▁эрежелер	-7496
▁саламатты	-7497
▁Энергетика	-7498
▁дарыгерлердин	-7499
▁ою	-7500
алына	-7501
▁азап	-7502
▁2008-	-7503
▁Токто	-7504
▁байка	-7505
▁жасоо	-7506
ативдүү	-7507
аттарга	-7508
аштыруу	-7509
▁Оштогу	-7510
▁анклав	-7511
▁барбай	-7512
▁кылышы	-7513
▁көпүрө	-7514
▁режими	-7515
октябрга	-7516
▁кылмышк	-7517
▁жоголгон	-7518
▁каптаган	-7519
▁маселеге	-7520
▁тамактан	-7521
▁Сириядагы	-7522
▁окумуштуу	-7523
▁суроосуна	-7524
▁коркунучтуу	-7525
id	-7526
чк	-7527
бойт	-7528
ушта	-7529
▁Кыл	-7530
▁драм	-7531
▁көрдү	-7532
▁дарыяс	-7533
▁курамы	-7534
▁көчмөн	-7535
▁чечкен	-7536
▁дайында	-7537
▁жаныбар	-7538
▁өлтүрүү	-7539
▁курамына	-7540
▁Запорожье	-7541
▁Орусиялык	-7542
▁багытында	-7543
▁этникалык	-7544
▁долбоордун	-7545
▁министрлер	-7546
▁өлтүрүлгөн	-7547
мөк	-7548
уму	-7549
▁53	-7550
өлүп	-7551
▁дос	-7552
▁поп	-7553
▁рейт	-7554
▁тыян	-7555
▁Айсул	-7556
▁десем	-7557
▁шарты	-7558
▁жазага	-7559
▁окууга	-7560
▁Бекешев	-7561
▁чечимге	-7562
▁учкучсуз	-7563
▁бюджеттен	-7564
▁чараларын	-7565
▁конференция	-7566
зы	-7567
▁Ре	-7568
ектр	-7569
жайы	-7570
▁Обл	-7571
▁жоб	-7572
▁куур	-7573
абаган	-7574
▁АКШга	-7575
▁Айдар	-7576
▁Апрел	-7577
▁жөлөк	-7578
▁турам	-7579
назаров	-7580
▁имарат	-7581
▁каралат	-7582
▁күрөшүп	-7583
▁спектак	-7584
▁фактысы	-7585
▁камсыздан	-7586
▁чыгарууну	-7587
▁алмаштыруу	-7588
▁жүргүзүүгө	-7589
▁маалымдалды	-7590
эки	-7591
▁..	-7592
▁63	-7593
▁Аж	-7594
атуу	-7595
стон	-7596
үшкө	-7597
▁теп	-7598
▁Өзү	-7599
пөгөн	-7600
ынган	-7601
▁кетп	-7602
▁ойло	-7603
▁акими	-7604
▁аттан	-7605
▁бузду	-7606
▁ойноп	-7607
▁тигил	-7608
дыгында	-7609
▁жактыр	-7610
▁көчөдө	-7611
▁Австрал	-7612
▁билебиз	-7613
▁Парламент	-7614
▁Таалайбек	-7615
▁таасирдүү	-7616
▁билдирүүсү	-7617
▁долбоорлорду	-7618
орд	-7619
бест	-7620
▁рат	-7621
▁төк	-7622
▁фер	-7623
▁Алды	-7624
▁Гүлн	-7625
▁өлүп	-7626
▁Актив	-7627
▁айлам	-7628
▁банкы	-7629
▁тыгыз	-7630
▁Исмаил	-7631
▁баалап	-7632
▁мейкин	-7633
▁салтан	-7634
▁тилект	-7635
▁каржылоо	-7636
▁начарлап	-7637
▁эместигин	-7638
▁башталганын	-7639
▁Мун	-7640
▁кыш	-7641
уштук	-7642
▁жооб	-7643
▁уруш	-7644
▁чечм	-7645
орация	-7646
▁Алиев	-7647
▁чатыр	-7648
албаган	-7649
▁Кочкор	-7650
▁Сыдыков	-7651
▁акчанын	-7652
▁колдоду	-7653
▁оорунун	-7654
▁Батыштын	-7655
▁бузулган	-7656
▁жабылган	-7657
▁кичинекей	-7658
▁экономикасы	-7659
▁көрсөткүчтөр	-7660
▁°	-7661
дес	-7662
лай	-7663
ңуз	-7664
▁Ро	-7665
▁мо	-7666
диев	-7667
угуш	-7668
▁Тат	-7669
▁жек	-7670
боого	-7671
генин	-7672
терди	-7673
▁интег	-7674
▁толуп	-7675
▁Кремль	-7676
▁автору	-7677
▁моюнга	-7678
▁ортодо	-7679
▁Адистер	-7680
▁Жолугуш	-7681
▁Ташкент	-7682
▁айыптоо	-7683
▁түрүндө	-7684
▁өнүккөн	-7685
▁кыйноого	-7686
▁көрсөтөт	-7687
▁мурдагыдай	-7688
▁кыргыздардын	-7689
▁маалымдалган	-7690
us	-7691
▁е	-7692
▁Ах	-7693
▁Но	-7694
гөнү	-7695
омали	-7696
самбл	-7697
▁Баар	-7698
▁Рыск	-7699
▁рейд	-7700
▁схем	-7701
▁шери	-7702
▁Комис	-7703
▁акысы	-7704
▁аянты	-7705
▁атышат	-7706
▁жайдын	-7707
▁орунга	-7708
▁турушу	-7709
▁АКШдагы	-7710
▁окуянын	-7711
▁Маалымат	-7712
▁кыйналып	-7713
▁тармагын	-7714
▁кыргыздын	-7715
▁аныкталганын	-7716
БШК	-7717
там	-7718
езим	-7719
конг	-7720
▁Кож	-7721
▁Там	-7722
▁ңуз	-7723
ерсия	-7724
▁Карм	-7725
▁Эсен	-7726
▁дүйш	-7727
баганы	-7728
▁Кайсы	-7729
▁сутка	-7730
▁тайма	-7731
▁Махмуд	-7732
▁Швеция	-7733
▁күткөн	-7734
алиевдин	-7735
▁Боронов	-7736
▁акыйкат	-7737
▁жатышты	-7738
▁изилдеп	-7739
▁сайттар	-7740
▁Европага	-7741
▁көргөзмө	-7742
▁шектүүлөр	-7743
▁ажыратылган	-7744
▁айланасында	-7745
▁кесепетинен	-7746
▁негизделген	-7747
▁авторитардык	-7748
▁психологиялык	-7749
алл	-7750
ром	-7751
▁дүн	-7752
▁хим	-7753
▁Бийик	-7754
▁жайда	-7755
▁талан	-7756
алышына	-7757
▁ипотек	-7758
▁кайтыш	-7759
▁машина	-7760
▁төңкөр	-7761
▁Швейцар	-7762
▁билбейм	-7763
▁эскерүү	-7764
▁бюджетке	-7765
▁калыптыр	-7766
▁шектелип	-7767
▁ачкачылык	-7768
▁ыктымалды	-7769
▁аймактарды	-7770
▁белгилешет	-7771
▁органдардын	-7772
▁журналисттик	-7773
▁саламаттыкты	-7774
▁президенттикке	-7775
ука	-7776
шып	-7777
▁67	-7778
ишим	-7779
ордон	-7780
▁симв	-7781
▁ыргы	-7782
уулугу	-7783
▁сереп	-7784
▁Чыгышт	-7785
▁коомго	-7786
▁ижарага	-7787
▁Кубатбек	-7788
▁жүгүртүү	-7789
▁кезексиз	-7790
▁таануучу	-7791
▁келечекте	-7792
▁жергесинде	-7793
▁өзгөртүүлөрдү	-7794
мба	-7795
сыл	-7796
вили	-7797
идео	-7798
ович	-7799
▁191	-7800
▁ТИМ	-7801
▁теб	-7802
ганск	-7803
иллер	-7804
▁иште	-7805
▁кура	-7806
Вагнер	-7807
▁оңдоо	-7808
▁таңкы	-7809
марттан	-7810
▁Мариуп	-7811
▁кошуун	-7812
▁сөөгүн	-7813
▁Аскаров	-7814
▁Премьер	-7815
▁жасалып	-7816
▁сатууга	-7817
▁видеолор	-7818
▁жардыруу	-7819
▁кезегинде	-7820
▁Тажикстанга	-7821
▁макулдашууга	-7822
▁На	-7823
Башы	-7824
▁Бөл	-7825
▁Пав	-7826
▁гео	-7827
▁ого	-7828
▁шаш	-7829
ыккан	-7830
▁Башк	-7831
▁агай	-7832
▁евро	-7833
▁ичип	-7834
▁нарк	-7835
▁узун	-7836
▁упай	-7837
▁автом	-7838
▁далай	-7839
▁рыног	-7840
уулукту	-7841
▁Байсал	-7842
▁атышуу	-7843
▁жылдыр	-7844
▁Айсулуу	-7845
▁дегендер	-7846
▁жугуштуу	-7847
▁фактылар	-7848
▁жаратылыш	-7849
Ош	-7850
ing	-7851
стүү	-7852
▁бос	-7853
▁куп	-7854
▁Абдул	-7855
▁Мында	-7856
▁Сирия	-7857
▁азгыр	-7858
▁санап	-7859
▁болсок	-7860
▁отургуз	-7861
▁тартиби	-7862
▁районуна	-7863
▁бөлүмүндө	-7864
▁шайлоолор	-7865
▁эркиндикке	-7866
▁окумуштуулар	-7867
Кыз	-7868
лян	-7869
▁Ел	-7870
игит	-7871
өргө	-7872
▁Мах	-7873
аштар	-7874
▁жабуу	-7875
▁сөөкт	-7876
▁Соттун	-7877
▁аяктап	-7878
▁жолдун	-7879
▁өтүүдө	-7880
есиндеги	-7881
▁жабылып	-7882
▁кылганы	-7883
▁финансы	-7884
▁үстүндө	-7885
▁өзгөрүп	-7886
▁бөлүмүнө	-7887
▁өзүбүздүн	-7888
▁позициясын	-7889
▁түшүндүргөн	-7890
▁коопсуздугуна	-7891
пол	-7892
▁Бү	-7893
▁250	-7894
▁кас	-7895
▁ысык	-7896
▁Борис	-7897
▁күбөл	-7898
▁пикирл	-7899
▁өнүгүп	-7900
▁титирөө	-7901
▁абалынан	-7902
▁жабырлан	-7903
▁көбөйтүү	-7904
▁тактаган	-7905
▁мейманкан	-7906
▁токтоткон	-7907
▁тоскоолду	-7908
▁ырастаган	-7909
▁энергиясы	-7910
▁киргизилип	-7911
▁талкууланды	-7912
▁орусиялыктар	-7913
бин	-7914
иле	-7915
цуз	-7916
▁66	-7917
босо	-7918
ылма	-7919
абуул	-7920
мартка	-7921
▁ашкер	-7922
▁козут	-7923
ерлердин	-7924
▁айтууга	-7925
▁баалады	-7926
▁бузулуп	-7927
▁вирусту	-7928
▁милдети	-7929
▁алдыдагы	-7930
▁дүйшөмбү	-7931
▁мекемеси	-7932
▁Кийинчерээк	-7933
▁эркиндигине	-7934
BC	-7935
жарт	-7936
▁Анг	-7937
динов	-7938
▁Алим	-7939
▁аркы	-7940
▁ашат	-7941
ыштыгы	-7942
▁комен	-7943
▁намаз	-7944
иторинг	-7945
ишкенин	-7946
циналык	-7947
▁Канада	-7948
▁карашы	-7949
▁сессия	-7950
▁чогулт	-7951
жартылай	-7952
▁жүрүшөт	-7953
▁калкынын	-7954
▁жарыяланып	-7955
▁жерлеринде	-7956
▁жоопкерчиликке	-7957
6,	-7958
le	-7959
▁ру	-7960
уура	-7961
▁Мус	-7962
▁Мыр	-7963
▁Рам	-7964
▁мээ	-7965
омдук	-7966
▁бетер	-7967
▁мунап	-7968
▁тилке	-7969
▁топко	-7970
▁форма	-7971
▁айылына	-7972
▁илимпоз	-7973
▁оорудан	-7974
▁жигердүү	-7975
▁келечеги	-7976
▁таштанды	-7977
▁туруштук	-7978
▁өзгөртүп	-7979
▁маселелерин	-7980
▁миграциялык	-7981
▁демонстрация	-7982
▁76	-7983
дүгү	-7984
ибер	-7985
оман	-7986
▁Дар	-7987
▁беки	-7988
▁билем	-7989
▁келер	-7990
▁манас	-7991
▁уйгур	-7992
▁Гонконг	-7993
▁аралашып	-7994
▁бирөөлөр	-7995
▁келишими	-7996
▁колдонул	-7997
▁түшкөнүн	-7998
▁камактагы	-7999
▁Түркиядагы	-8000
▁губернатору	-8001
▁өзгөртүүлөр	-8002
▁компаниялардын	-8003
цен	-8004
▁95	-8005
пест	-8006
ская	-8007
ылса	-8008
▁Вал	-8009
▁лук	-8010
▁суз	-8011
▁ээн	-8012
үркүр	-8013
▁Ишен	-8014
▁шылт	-8015
▁Сегиз	-8016
▁европ	-8017
▁тариф	-8018
▁ташуу	-8019
▁Африка	-8020
▁акчасы	-8021
▁жакыны	-8022
▁дарылоо	-8023
▁көрсөтө	-8024
▁окурман	-8025
▁түрмөгө	-8026
▁жардамга	-8027
▁сунуштап	-8028
▁токтогон	-8029
▁Транспорт	-8030
▁адилеттүү	-8031
▁кыянаттык	-8032
▁милициясы	-8033
▁баратканын	-8034
▁түшүндүрүп	-8035
▁тургундардын	-8036
▁жыр	-8037
▁Атыр	-8038
▁Отун	-8039
▁класс	-8040
ланууда	-8041
▁Уюмдун	-8042
▁Эмомали	-8043
▁байыркы	-8044
▁которуу	-8045
▁күнүмдүк	-8046
▁тажрыйбасы	-8047
▁эрежелерин	-8048
тү	-8049
ейк	-8050
ино	-8051
▁73	-8052
есиз	-8053
▁Абай	-8054
▁Илим	-8055
дукция	-8056
▁акыры	-8057
▁байма	-8058
▁кечки	-8059
▁немис	-8060
гиндеги	-8061
▁жердин	-8062
▁карайт	-8063
▁кабатыр	-8064
▁коридор	-8065
▁атышууну	-8066
▁илимдеринин	-8067
▁Конституцияга	-8068
▁Республикалык	-8069
ори	-8070
▁84	-8071
ияны	-8072
▁Кос	-8073
интип	-8074
июлга	-8075
▁Эмир	-8076
▁Медиа	-8077
▁Санкт	-8078
▁машыг	-8079
▁попул	-8080
▁совет	-8081
▁коркуп	-8082
▁этност	-8083
▁буйругу	-8084
▁которуп	-8085
▁өнөктөш	-8086
▁козголоң	-8087
▁коркутуу	-8088
▁кырдаалда	-8089
▁топтолгон	-8090
▁учурларда	-8091
▁жумушчулар	-8092
▁кармалганы	-8093
▁келишимдин	-8094
▁аскерлердин	-8095
▁маалыматтык	-8096
▁партиясынан	-8097
▁үлгүсүндөгү	-8098
▁Казакстандан	-8099
▁нааразылыгын	-8100
Чоң	-8101
штар	-8102
үгүл	-8103
▁мик	-8104
▁Берл	-8105
▁Викт	-8106
▁бурм	-8107
▁ролу	-8108
▁филь	-8109
▁Медет	-8110
▁алдым	-8111
▁тыгын	-8112
▁тыным	-8113
▁аскери	-8114
▁Reuters	-8115
▁көлөмүн	-8116
▁табигый	-8117
▁ымыркай	-8118
▁бүтүндөй	-8119
▁күчтөрүн	-8120
▁чыкканда	-8121
▁соолугуна	-8122
▁Штаттардын	-8123
▁бекитилген	-8124
▁карантинге	-8125
▁куугунтукт	-8126
▁аракеттерди	-8127
▁тынчсыздануусун	-8128
ub	-8129
дел	-8130
▁64	-8131
укта	-8132
▁The	-8133
▁Иск	-8134
▁атт	-8135
▁деб	-8136
▁төш	-8137
ишкек	-8138
казак	-8139
▁Брюс	-8140
▁бизне	-8141
▁терди	-8142
▁тийип	-8143
аларына	-8144
▁Балдар	-8145
▁Ноокат	-8146
▁аялдын	-8147
▁баскыч	-8148
▁жаштан	-8149
▁кимдир	-8150
▁майнап	-8151
▁Айрыкча	-8152
▁импортт	-8153
Петербург	-8154
▁артиллер	-8155
▁атаандаш	-8156
▁болушкан	-8157
▁саясатка	-8158
▁чыгарылды	-8159
▁тилкесинде	-8160
▁чакырылган	-8161
▁Назарбаевдин	-8162
▁компаниясына	-8163
ty	-8164
жаб	-8165
жаш	-8166
▁59	-8167
▁сүт	-8168
енция	-8169
▁Бект	-8170
▁Акжол	-8171
▁ашыгы	-8172
▁чалды	-8173
▁бойлуу	-8174
▁чечкин	-8175
▁Ошентсе	-8176
▁аэропортт	-8177
▁мамлекетте	-8178
▁милдеттенм	-8179
▁тармактарга	-8180
▁академиясынын	-8181
СДП	-8182
өнт	-8183
▁61	-8184
▁ыңк	-8185
рузин	-8186
үлүшү	-8187
▁атай	-8188
▁жобо	-8189
▁офиц	-8190
▁конуш	-8191
▁уланта	-8192
августка	-8193
▁болбошу	-8194
▁күчөтүү	-8195
▁турмушт	-8196
▁чакырык	-8197
▁жайларга	-8198
▁сунуштар	-8199
▁товарлар	-8200
▁турмушка	-8201
▁курамында	-8202
▁сентябрда	-8203
▁Федералдык	-8204
ci	-8205
▁U	-8206
▁[	-8207
иков	-8208
ктап	-8209
ктер	-8210
▁Сол	-8211
▁апа	-8212
Көлдө	-8213
июнга	-8214
▁1000	-8215
▁Сулай	-8216
▁көбүн	-8217
▁сынак	-8218
▁сөздү	-8219
▁толгон	-8220
▁Башында	-8221
▁табылып	-8222
▁ажыратуу	-8223
▁бөлүштүр	-8224
▁жагдайды	-8225
▁өлкөлөрүндө	-8226
езд	-8227
берг	-8228
▁Жог	-8229
▁Таб	-8230
▁айр	-8231
▁отч	-8232
▁суг	-8233
▁чөп	-8234
айком	-8235
ометр	-8236
▁авар	-8237
▁азем	-8238
▁алчу	-8239
сторан	-8240
▁альян	-8241
▁табыш	-8242
▁ээлик	-8243
▁команд	-8244
▁эгерде	-8245
▁Адвокат	-8246
▁балалуу	-8247
▁жеткирип	-8248
▁жүргөндө	-8249
▁төртүнчү	-8250
▁экендиги	-8251
▁Документт	-8252
▁Маалыматта	-8253
▁алектенген	-8254
▁документти	-8255
▁спортчулар	-8256
▁ыраазычылык	-8257
▁элчилигинин	-8258
▁журналисттин	-8259
Кл	-8260
▁Кл	-8261
▁Фр	-8262
▁оч	-8263
нтым	-8264
пиде	-8265
финг	-8266
▁Жок	-8267
▁Нас	-8268
▁даң	-8269
ирген	-8270
спект	-8271
төбөл	-8272
▁көрү	-8273
▁проп	-8274
Орусия	-8275
ейсбук	-8276
▁1991-	-8277
▁Январ	-8278
▁калың	-8279
▁катег	-8280
▁небер	-8281
▁козгоп	-8282
▁үйүнүн	-8283
▁акциясы	-8284
▁бүтүрүү	-8285
▁жерлерди	-8286
▁Жапаровду	-8287
▁деңгээлге	-8288
▁талкуулап	-8289
▁өлтүрүүгө	-8290
▁ресурстары	-8291
▁чакырыктар	-8292
▁ишкерлердин	-8293
▁экономиканы	-8294
БУУ	-8295
куп	-8296
орв	-8297
өзү	-8298
ырап	-8299
олдин	-8300
▁Жоро	-8301
ибизди	-8302
▁Евген	-8303
▁көчкү	-8304
▁кимдин	-8305
▁обсерв	-8306
▁резерв	-8307
▁сапаты	-8308
▁Конгрес	-8309
▁айдоочу	-8310
▁заводун	-8311
▁үйлөрдүн	-8312
▁берилерин	-8313
▁продукция	-8314
▁Германияда	-8315
▁Сулайманов	-8316
пы	-8317
ху	-8318
▁97	-8319
ышын	-8320
▁Гор	-8321
▁Егип	-8322
▁ыкма	-8323
▁үйдү	-8324
▁жасай	-8325
станция	-8326
▁НАТОго	-8327
▁компью	-8328
▁планын	-8329
▁Зулушев	-8330
▁бергиле	-8331
▁кетишин	-8332
▁Алтынбек	-8333
▁Европада	-8334
▁билбеген	-8335
▁мамилени	-8336
▁бөлүгүндө	-8337
▁катышууга	-8338
▁катышууда	-8339
▁электигин	-8340
▁мүмкүнчүлүгүн	-8341
имп	-8342
поо	-8343
▁өй	-8344
▁Аль	-8345
▁Пес	-8346
дугун	-8347
▁шейш	-8348
баштык	-8349
▁Согуш	-8350
▁конкр	-8351
▁кулап	-8352
▁бөлүмү	-8353
▁версия	-8354
▁клиник	-8355
▁ниетин	-8356
матовдун	-8357
▁беларус	-8358
▁түзүүнү	-8359
▁Бактыбек	-8360
▁алынганы	-8361
▁чечимдер	-8362
▁ишкананын	-8363
▁басылмалар	-8364
▁кылмыштарга	-8365
▁каражаттарын	-8366
ht	-8367
яд	-8368
сты	-8369
ылда	-8370
▁Жый	-8371
▁Түр	-8372
▁мек	-8373
▁оюм	-8374
басын	-8375
өрман	-8376
иктери	-8377
▁берем	-8378
▁берчү	-8379
▁оорус	-8380
▁өкүмү	-8381
▁өлкөл	-8382
ууларга	-8383
▁айырма	-8384
▁жерине	-8385
▁көрдүк	-8386
▁беттешт	-8387
▁салынып	-8388
▁архитект	-8389
Ул	-8390
цид	-8391
▁Миң	-8392
▁суб	-8393
▁News	-8394
Бишкек	-8395
ционер	-8396
▁2000-	-8397
▁Тайып	-8398
▁алсыз	-8399
▁булар	-8400
▁номур	-8401
▁силер	-8402
алыктар	-8403
маматов	-8404
▁Сариев	-8405
▁жүзөгө	-8406
▁күрөшү	-8407
▁тинтүү	-8408
▁өткөнү	-8409
▁койгону	-8410
▁күтүүсүз	-8411
▁киргенден	-8412
▁чамасында	-8413
▁кишилердин	-8414
▁кийинчерээк	-8415
каз	-8416
▁6,	-8417
▁69	-8418
онов	-8419
▁Ара	-8420
▁зап	-8421
▁марш	-8422
▁ымды	-8423
▁өстү	-8424
▁бүтүм	-8425
▁дедим	-8426
▁кайды	-8427
▁маект	-8428
▁чарчы	-8429
▁элине	-8430
▁Мамбет	-8431
▁Балыкчы	-8432
▁бөлүштү	-8433
▁мэриясы	-8434
▁тазалоо	-8435
▁абактагы	-8436
▁кызыктуу	-8437
▁Ташиевдин	-8438
▁чабуулдар	-8439
▁эсептешет	-8440
беренесинин	-8441
▁жетекчилик	-8442
▁корпорация	-8443
▁көрсөткүчү	-8444
▁мониторинг	-8445
▁товарларды	-8446
▁курмандыктар	-8447
▁кызматкерлерин	-8448
2,	-8449
ео	-8450
она	-8451
ткыч	-8452
чиев	-8453
▁доз	-8454
калый	-8455
▁Кант	-8456
▁терг	-8457
▁Токио	-8458
▁кылса	-8459
ерлерди	-8460
▁жатабы	-8461
▁журнал	-8462
▁ойлогон	-8463
▁коомунун	-8464
▁тармакта	-8465
▁Алымкадыр	-8466
▁өндүрүлгөн	-8467
▁жолугушуусу	-8468
▁Ооганстандан	-8469
зе	-8470
Кам	-8471
▁5,	-8472
▁Эш	-8473
▁дук	-8474
Клооп	-8475
заков	-8476
ляция	-8477
▁Аида	-8478
▁Кылыч	-8479
▁микро	-8480
фикация	-8481
▁катмар	-8482
▁маңзат	-8483
▁орунду	-8484
ификация	-8485
▁атылган	-8486
▁көтөрдү	-8487
▁ооруган	-8488
▁судьясы	-8489
▁бербеген	-8490
▁жарлыкка	-8491
▁тартипте	-8492
▁жаткандай	-8493
▁талаптарды	-8494
▁токтотулган	-8495
▁катышуучулары	-8496
цтар	-8497
▁жою	-8498
ттери	-8499
▁коёт	-8500
▁дарыя	-8501
▁иниси	-8502
▁эсеге	-8503
ноябрга	-8504
▁жарымы	-8505
▁маарак	-8506
▁чыккын	-8507
▁Жаныбек	-8508
▁жаранды	-8509
▁сүрөттөр	-8510
▁доллардын	-8511
Ай	-8512
▁")	-8513
айып	-8514
▁Күй	-8515
▁тиз	-8516
▁ңүз	-8517
разил	-8518
▁Бахм	-8519
▁Ерев	-8520
еттеги	-8521
шайком	-8522
▁арасы	-8523
▁сууну	-8524
▁Жонсон	-8525
▁чындап	-8526
декабрга	-8527
▁жаратат	-8528
▁келүүгө	-8529
▁күнөөсү	-8530
▁коргогон	-8531
▁аппараттын	-8532
▁пландалган	-8533
▁камсыздандыруу	-8534
ера	-8535
дөшт	-8536
енти	-8537
орус	-8538
чөйр	-8539
▁Tim	-8540
▁Лав	-8541
▁артт	-8542
▁жүрүү	-8543
▁түтүн	-8544
▁учкан	-8545
▁Максим	-8546
▁өздөшт	-8547
▁жазылат	-8548
▁жолукту	-8549
▁иштетип	-8550
▁көтөрүү	-8551
▁ларынын	-8552
▁соолугу	-8553
▁өлтүрүп	-8554
▁иретинде	-8555
▁Россиянын	-8556
▁жайлардын	-8557
▁такталган	-8558
▁интеграция	-8559
▁колдонулуп	-8560
▁мезгилинде	-8561
▁миллиондой	-8562
▁катышуучулар	-8563
түп	-8564
өлү	-8565
▁Сат	-8566
▁лин	-8567
▁чег	-8568
алпак	-8569
отоло	-8570
укаев	-8571
▁Мария	-8572
▁Чечен	-8573
▁көрөт	-8574
▁Молдок	-8575
▁балага	-8576
▁бүткүл	-8577
▁сомдун	-8578
▁алынышы	-8579
▁брифинг	-8580
▁учактар	-8581
▁жайларды	-8582
▁жаштардын	-8583
▁журналисти	-8584
▁конкреттүү	-8585
▁масштабдуу	-8586
▁Парламенттин	-8587
ау	-8588
өбө	-8589
▁Бо	-8590
ланат	-8591
ялары	-8592
▁тайп	-8593
ыгынын	-8594
▁агасы	-8595
▁айдап	-8596
▁чинов	-8597
ристтер	-8598
▁Адилет	-8599
▁Күндүз	-8600
▁Тургун	-8601
▁болдук	-8602
▁доомат	-8603
▁израил	-8604
▁Болгону	-8605
▁Луганск	-8606
▁ХАМАСтын	-8607
▁башташты	-8608
▁тынымсыз	-8609
▁бюджеттин	-8610
▁партиялык	-8611
▁Мигранттар	-8612
▁ишмердигин	-8613
▁отурумунда	-8614
▁полициянын	-8615
▁мүчөлөрүнүн	-8616
▁Биримдигинин	-8617
▁пайдаланууга	-8618
▁өзбекстандык	-8619
▁я	-8620
ена	-8621
күл	-8622
көй	-8623
▁79	-8624
окко	-8625
▁сам	-8626
▁шыл	-8627
▁айтк	-8628
▁өпкө	-8629
дүүлүк	-8630
▁1992-	-8631
▁алдам	-8632
▁бомба	-8633
▁чакта	-8634
▁Гүлнара	-8635
▁алардан	-8636
▁ноябрда	-8637
▁Байсалов	-8638
▁Израилге	-8639
▁Интернет	-8640
▁адистери	-8641
▁айтканын	-8642
▁жагдайда	-8643
▁уюмдарга	-8644
ографиялык	-8645
▁айткандай	-8646
▁акциясына	-8647
▁иштеринин	-8648
▁кыймылсыз	-8649
▁мамилелер	-8650
▁Баткендеги	-8651
▁баштаганда	-8652
▁ишкерлерге	-8653
▁киргизүүнү	-8654
▁жаткандыктан	-8655
▁мекемелердин	-8656
▁программасынын	-8657
ңер	-8658
▁7,	-8659
имде	-8660
▁Тол	-8661
үктөн	-8662
▁айды	-8663
▁сала	-8664
Абадда	-8665
▁транс	-8666
▁үчтөн	-8667
еттерин	-8668
ография	-8669
▁Дүйшөн	-8670
▁жалдан	-8671
▁кургак	-8672
▁отстав	-8673
▁соттор	-8674
▁орнотуу	-8675
▁талабын	-8676
▁төгүндө	-8677
▁эмеспиз	-8678
▁Акаевдин	-8679
▁Убактылуу	-8680
▁Федерация	-8681
▁кыздардын	-8682
▁Түркмөнстандын	-8683
il	-8684
пө	-8685
201	-8686
бөө	-8687
хак	-8688
шуу	-8689
матт	-8690
стаг	-8691
стын	-8692
▁Бах	-8693
▁Күч	-8694
▁Топ	-8695
▁каж	-8696
абаев	-8697
арова	-8698
ашына	-8699
гулов	-8700
депут	-8701
▁гези	-8702
▁Мамат	-8703
▁абзел	-8704
▁жагым	-8705
▁тынчт	-8706
▁чегин	-8707
▁бербөө	-8708
▁кайрым	-8709
▁келдим	-8710
▁реформ	-8711
▁жоготуп	-8712
▁көздөйт	-8713
▁процесс	-8714
▁сындады	-8715
▁сабактар	-8716
▁убакыттан	-8717
▁өлкөлөрүнө	-8718
▁милициясынын	-8719
▁72	-8720
асык	-8721
итет	-8722
лара	-8723
▁зат	-8724
▁фак	-8725
епция	-8726
▁Март	-8727
▁Эдил	-8728
▁кооз	-8729
ератив	-8730
▁ансыз	-8731
▁иммун	-8732
▁калем	-8733
▁камап	-8734
▁мурас	-8735
▁төлөй	-8736
▁ушуга	-8737
▁Бөлтүр	-8738
▁ачууга	-8739
▁көптөн	-8740
▁көрбөй	-8741
▁Шаардык	-8742
▁аскерге	-8743
▁пландап	-8744
▁ашырууга	-8745
▁биротоло	-8746
▁жылдардан	-8747
▁келишпест	-8748
▁Бекназаров	-8749
▁өнөктөштөр	-8750
▁укуктарынын	-8751
чат	-8752
мент	-8753
▁Айн	-8754
▁Кав	-8755
▁Мер	-8756
▁Рыс	-8757
сезим	-8758
чалай	-8759
ылдыз	-8760
▁бомб	-8761
▁журт	-8762
▁Молдо	-8763
▁өстүр	-8764
Твиттер	-8765
▁Азияда	-8766
▁айламп	-8767
▁жолдон	-8768
▁ишенип	-8769
▁берүүчү	-8770
▁декабрь	-8771
▁көңүлүн	-8772
▁макамын	-8773
▁Газадагы	-8774
▁багыттар	-8775
▁далилдер	-8776
▁корутунд	-8777
▁өтүнүчүн	-8778
▁Боршайком	-8779
▁Кеңештеги	-8780
▁коррупцияны	-8781
▁документтери	-8782
▁документтерин	-8783
-2	-8784
▁ь	-8785
даг	-8786
▁78	-8787
▁Ум	-8788
опол	-8789
▁дым	-8790
бөлгө	-8791
▁Алай	-8792
▁ыйык	-8793
▁буруп	-8794
▁фильм	-8795
▁кайдан	-8796
▁колдуу	-8797
▁көрдүм	-8798
▁минтип	-8799
▁учурга	-8800
▁өбөлгө	-8801
▁Канатбек	-8802
▁кастыкты	-8803
▁октябрда	-8804
▁убактысы	-8805
▁өкмөттөр	-8806
▁Грузиянын	-8807
▁аткарууга	-8808
▁барымтага	-8809
▁бошотууну	-8810
▁жолугушту	-8811
▁демилгесин	-8812
▁жогорулатуу	-8813
▁мамлекеттен	-8814
▁палатасынын	-8815
▁жоопкерчилигине	-8816
7,	-8817
as	-8818
фф	-8819
гим	-8820
сад	-8821
хоз	-8822
▁Кут	-8823
бирин	-8824
▁чөнт	-8825
▁Катар	-8826
▁ноябр	-8827
▁ураан	-8828
▁Динара	-8829
▁Энтони	-8830
▁акцион	-8831
▁мүнөтт	-8832
▁сырткы	-8833
▁шаарга	-8834
▁Иликтөө	-8835
▁Путинге	-8836
▁жолдомо	-8837
▁ойногон	-8838
▁авиакомп	-8839
▁беренелер	-8840
▁климаттын	-8841
▁реестрине	-8842
▁тийгизген	-8843
▁Американын	-8844
▁эрежелерди	-8845
▁тажикстандык	-8846
▁экономиканын	-8847
▁каражаттарына	-8848
эй	-8849
анат	-8850
▁поэ	-8851
Кабар	-8852
иясын	-8853
▁Саты	-8854
▁Фото	-8855
асыңар	-8856
▁багып	-8857
▁дарын	-8858
▁чекит	-8859
▁сектор	-8860
▁аймагын	-8861
▁аяктады	-8862
▁жазышты	-8863
▁кеңсеси	-8864
▁дарегине	-8865
▁эпидемия	-8866
▁болушунча	-8867
▁Британияда	-8868
▁көзөмөлүндө	-8869
▁талкууланган	-8870
▁парламенттеги	-8871
▁журналисттерди	-8872
тоо	-8873
▁Эс	-8874
▁ичи	-8875
аркан	-8876
идерл	-8877
раагы	-8878
▁Баку	-8879
▁Мени	-8880
▁араң	-8881
▁уран	-8882
дамжай	-8883
үлөрүн	-8884
▁Совет	-8885
▁багын	-8886
▁карга	-8887
▁элден	-8888
оосунда	-8889
▁босого	-8890
▁дайынд	-8891
▁жолугу	-8892
▁казына	-8893
диктерди	-8894
▁Осмонов	-8895
▁атактуу	-8896
▁жолдору	-8897
▁күзүндө	-8898
▁эсептеп	-8899
апрелдеги	-8900
▁Кадамжай	-8901
▁киргизди	-8902
▁тапшыруу	-8903
▁шайланып	-8904
▁экинчиси	-8905
▁эркиндик	-8906
▁катышуусу	-8907
▁улантууда	-8908
▁белгиленет	-8909
▁телеканалы	-8910
▁лаборатория	-8911
▁чектөөлөрдү	-8912
▁чыгышындагы	-8913
1,	-8914
▁s	-8915
огол	-8916
усст	-8917
▁Коң	-8918
▁ист	-8919
▁чай	-8920
аспор	-8921
дикте	-8922
▁Алам	-8923
▁диаг	-8924
▁жору	-8925
▁унун	-8926
еринин	-8927
▁алдыр	-8928
▁дыгын	-8929
▁жапон	-8930
▁импер	-8931
▁ишенем	-8932
▁күркүр	-8933
Биримдик	-8934
▁Испания	-8935
▁айыппул	-8936
▁августта	-8937
▁козголду	-8938
▁командир	-8939
▁тилектешт	-8940
▁талаптарын	-8941
▁аракеттерге	-8942
▁мамлекеттерге	-8943
жем	-8944
ред	-8945
чуу	-8946
амед	-8947
ерго	-8948
▁Фер	-8949
▁лор	-8950
▁мем	-8951
▁Оору	-8952
▁Төрө	-8953
▁сарай	-8954
▁текст	-8955
▁туруш	-8956
▁Молдов	-8957
▁Песков	-8958
▁Шакиев	-8959
▁кыйноо	-8960
▁макамы	-8961
▁уланат	-8962
▁эсепке	-8963
▁кетүүнү	-8964
▁кирешеси	-8965
▁кылымдын	-8966
▁кылынган	-8967
▁төңкөрүш	-8968
▁шарттары	-8969
▁өнөктөшү	-8970
▁бошотууга	-8971
▁имараттар	-8972
▁сексуалдык	-8973
▁сунушталды	-8974
▁саламаттыгы	-8975
▁башчыларынын	-8976
▁коммуникация	-8977
▁технологиялар	-8978
Аль	-8979
гыч	-8980
▁си	-8981
▁Про	-8982
дөргө	-8983
ордой	-8984
▁баам	-8985
▁инен	-8986
▁опуз	-8987
нтымак	-8988
чарага	-8989
чүлөрү	-8990
▁басаң	-8991
▁схема	-8992
▁айтпай	-8993
▁айтыла	-8994
▁баскан	-8995
▁диагно	-8996
▁таппай	-8997
▁атомдук	-8998
▁жасоого	-8999
▁келерки	-9000
▁сапарга	-9001
▁ырастап	-9002
▁адегенде	-9003
▁аянтында	-9004
▁жетишпей	-9005
▁илдеттен	-9006
▁сатылган	-9007
▁спектакл	-9008
▁таанышып	-9009
▁токтотту	-9010
▁Курманкул	-9011
▁багыттагы	-9012
▁олимпиада	-9013
▁паспортун	-9014
▁беренелери	-9015
▁даярдалган	-9016
▁жекшембиде	-9017
▁мамлекетти	-9018
:0	-9019
Ала	-9020
теп	-9021
ңгу	-9022
▁пе	-9023
асың	-9024
өлүү	-9025
▁тра	-9026
▁түт	-9027
атура	-9028
ирург	-9029
▁Асел	-9030
▁КСДП	-9031
▁күчт	-9032
ттерди	-9033
▁Times	-9034
▁Курск	-9035
▁айтса	-9036
стаграм	-9037
▁беттеш	-9038
▁күчөдү	-9039
▁мүлкүн	-9040
▁уурдап	-9041
бековдун	-9042
▁жүрүүдө	-9043
▁ишендир	-9044
▁кадамга	-9045
▁салттуу	-9046
▁суммасы	-9047
▁үйлөрдү	-9048
▁өлкөбүз	-9049
▁барганын	-9050
▁жүргүнчү	-9051
▁курулушт	-9052
▁лагерлер	-9053
▁оорукананын	-9054
▁товарлардын	-9055
иск	-9056
осо	-9057
гада	-9058
елик	-9059
елим	-9060
▁Ман	-9061
▁обо	-9062
▁пот	-9063
▁соо	-9064
езбол	-9065
синде	-9066
чыгыш	-9067
▁Кары	-9068
▁жыны	-9069
▁жүзү	-9070
▁убад	-9071
▁Мелис	-9072
▁Соода	-9073
▁Элдин	-9074
▁казын	-9075
▁ысымы	-9076
▁үлүшү	-9077
Республ	-9078
▁Адатта	-9079
▁тердин	-9080
▁эмгеги	-9081
▁үндөдү	-9082
▁Брюссел	-9083
▁жарлыгы	-9084
▁илдетке	-9085
▁платфор	-9086
▁салышты	-9087
▁факульт	-9088
▁чынында	-9089
▁Донбасст	-9090
▁жатышкан	-9091
▁калаанын	-9092
▁калтырып	-9093
▁февралда	-9094
Республика	-9095
▁Мурдараак	-9096
▁партиясын	-9097
▁шаарларда	-9098
▁башкарууга	-9099
▁жогорудагы	-9100
▁токтотууну	-9101
▁талибдердин	-9102
▁Мухаммедкалый	-9103
▁материалдарды	-9104
▁чемпионатында	-9105
▁жоопкерчилигин	-9106
ТРК	-9107
бий	-9108
▁71	-9109
▁Ли	-9110
үдүн	-9111
▁000	-9112
болот	-9113
дерде	-9114
икага	-9115
ойгон	-9116
▁кыйра	-9117
▁уткан	-9118
▁энеси	-9119
чылыгын	-9120
▁Жылдыз	-9121
▁Лавров	-9122
▁сапатын	-9123
▁жазасына	-9124
▁каражаты	-9125
▁тартипти	-9126
▁өлтүргөн	-9127
▁бошотулду	-9128
▁документке	-9129
▁телефондон	-9130
▁мектептерде	-9131
▁74	-9132
енов	-9133
лана	-9134
▁Июн	-9135
аштыр	-9136
кулова	-9137
▁Ошого	-9138
▁жетүү	-9139
▁кеңей	-9140
▁Италия	-9141
▁айтсак	-9142
▁алынса	-9143
▁бышыкт	-9144
▁кайсыл	-9145
▁СССРдин	-9146
▁Таласта	-9147
▁аткылоо	-9148
▁баласын	-9149
▁жаабайт	-9150
▁жабылды	-9151
▁келишин	-9152
▁менчикт	-9153
▁француз	-9154
▁борборун	-9155
▁мобилдик	-9156
▁Түркиядан	-9157
▁чечкиндүү	-9158
▁шарттарды	-9159
▁аскерлерди	-9160
▁башкаларга	-9161
▁депутаттын	-9162
дро	-9163
кей	-9164
▁Им	-9165
жөнү	-9166
умду	-9167
▁Жор	-9168
ензин	-9169
▁арты	-9170
▁одон	-9171
ылышын	-9172
▁Абдир	-9173
▁орток	-9174
▁тиреш	-9175
▁уулан	-9176
▁учагы	-9177
▁Монгол	-9178
▁Ошонун	-9179
▁Финлян	-9180
▁тилине	-9181
▁эркект	-9182
▁Бабанов	-9183
▁диаспор	-9184
▁жөнөтүп	-9185
▁котормо	-9186
чараларды	-9187
▁берилбей	-9188
▁жалданма	-9189
▁ишмерлер	-9190
▁комендан	-9191
▁Кармалган	-9192
▁иликтеген	-9193
▁кримтөбөл	-9194
▁сакталган	-9195
▁тапшырмасы	-9196
▁Коррупцияга	-9197
▁адвокаттары	-9198
▁программасын	-9199
3,	-9200
ak	-9201
▁Те	-9202
өгүн	-9203
▁Хам	-9204
▁түб	-9205
▁үлг	-9206
арлар	-9207
▁Руст	-9208
▁сцен	-9209
уулган	-9210
▁Исхак	-9211
▁алабы	-9212
▁жазат	-9213
▁кийип	-9214
▁такси	-9215
▁келдик	-9216
▁өчүрүү	-9217
▁алуунун	-9218
▁кырсыгы	-9219
▁моюнуна	-9220
▁стацион	-9221
▁тилкеси	-9222
▁билимдүү	-9223
▁иштердин	-9224
▁киришкен	-9225
▁эсептейм	-9226
▁өкмөтүнө	-9227
▁Бишкектен	-9228
▁оюндарына	-9229
▁чалгындоо	-9230
▁өлкөлүктөр	-9231
▁жүргүнчүлөр	-9232
▁ратификация	-9233
▁эмгектенген	-9234
▁авиакомпания	-9235
▁Министрликтин	-9236
is	-9237
Ре	-9238
окс	-9239
▁-3	-9240
▁8,	-9241
▁Ам	-9242
▁чи	-9243
▁Өр	-9244
Кара	-9245
ттым	-9246
▁Экс	-9247
▁кВт	-9248
▁ӨКМ	-9249
▁Асад	-9250
Дордой	-9251
▁Кайра	-9252
▁Элмир	-9253
▁агент	-9254
▁ичине	-9255
▁коюшу	-9256
▁оккуп	-9257
январга	-9258
▁Арстан	-9259
▁Жогору	-9260
▁акысын	-9261
▁импорт	-9262
▁кызыкт	-9263
▁түшүнө	-9264
▁уюмуна	-9265
▁ээлери	-9266
▁кабарчы	-9267
▁толтура	-9268
▁ушинтип	-9269
▁Индиянын	-9270
▁аялдарды	-9271
▁кеңешине	-9272
▁куткаруу	-9273
▁тилкелер	-9274
▁учурлары	-9275
▁өзгөргөн	-9276
▁европалык	-9277
▁окуялардан	-9278
▁көрбөгөндөй	-9279
▁ыктыярчылар	-9280
▁каражаттарды	-9281
тр	-9282
▁98	-9283
талап	-9284
▁Калы	-9285
Хезбол	-9286
жерлер	-9287
▁ашпай	-9288
▁бүттү	-9289
▁кулак	-9290
▁одоно	-9291
ологдор	-9292
шембиде	-9293
▁Виктор	-9294
▁баскын	-9295
▁өзүнөн	-9296
▁Евгений	-9297
▁Сокулук	-9298
▁жатасыз	-9299
▁жаңыдан	-9300
▁жиберип	-9301
▁чыгарат	-9302
▁ылайыкт	-9303
▁Аламүдүн	-9304
▁Батукаев	-9305
▁алмашкан	-9306
▁салышкан	-9307
▁тартууну	-9308
▁чагымчыл	-9309
▁коштолгон	-9310
▁туристтик	-9311
▁нерселерди	-9312
▁обсервация	-9313
▁чечимдерди	-9314
▁өнөктөштөрү	-9315
▁Лукашенконун	-9316
▁мамлекеттери	-9317
кур	-9318
сов	-9319
хен	-9320
чап	-9321
орух	-9322
▁Нет	-9323
▁иск	-9324
актап	-9325
жигит	-9326
▁окуй	-9327
▁акыны	-9328
▁потен	-9329
▁сыңар	-9330
Мекеним	-9331
▁Бразил	-9332
▁Эмнеге	-9333
▁аткара	-9334
▁болдум	-9335
▁тургуз	-9336
Массалык	-9337
▁Эмилбек	-9338
▁айылдык	-9339
▁жеңүүчү	-9340
▁искусст	-9341
▁кароого	-9342
▁рейтинг	-9343
▁төлөгөн	-9344
▁чыгууда	-9345
▁жактаган	-9346
▁керектиги	-9347
▁сайтындагы	-9348
гасы	-9349
▁жур	-9350
октор	-9351
▁кырк	-9352
▁Клара	-9353
▁жагын	-9354
▁Апрель	-9355
▁Нидерл	-9356
▁ашууну	-9357
▁соттон	-9358
▁Келишим	-9359
▁Киевдин	-9360
▁арзанда	-9361
▁барганы	-9362
▁дегенге	-9363
▁кеңешме	-9364
▁резиден	-9365
▁арачылар	-9366
▁баңгизат	-9367
▁жазышкан	-9368
▁келтирди	-9369
▁байкалган	-9370
▁мамилесин	-9371
▁маркумдун	-9372
▁жардамчысы	-9373
▁парламенти	-9374
▁билдирүүсүн	-9375
▁канааттандыр	-9376
Ав	-9377
ace	-9378
Бал	-9379
оси	-9380
ирип	-9381
▁180	-9382
▁Уул	-9383
▁жыг	-9384
демок	-9385
ирээк	-9386
▁Кана	-9387
▁алек	-9388
tional	-9389
▁Жабыр	-9390
▁дубан	-9391
тыгында	-9392
▁Мээрим	-9393
▁алуучу	-9394
▁жүгүрт	-9395
▁катышы	-9396
▁лөрдүн	-9397
▁орусча	-9398
▁пайдал	-9399
▁соккус	-9400
▁термин	-9401
▁авторлор	-9402
▁жеткенин	-9403
▁жыйынына	-9404
▁спорттук	-9405
▁Иманалиев	-9406
▁ишмердиги	-9407
▁мажбурлап	-9408
▁редактору	-9409
▁көбөйгөнүн	-9410
▁талкуулады	-9411
▁өткөрүлгөн	-9412
▁Жыйынтыгында	-9413
▁Демократиялык	-9414
▁c	-9415
man	-9416
гыс	-9417
▁аша	-9418
▁чок	-9419
▁ыкм	-9420
▁Каза	-9421
▁Кулу	-9422
▁Сүйл	-9423
▁Мурат	-9424
▁Оорук	-9425
▁балык	-9426
▁илгер	-9427
▁кылдат	-9428
▁мектеб	-9429
▁теракт	-9430
▁Каримов	-9431
▁азыраак	-9432
▁артисти	-9433
▁билбейт	-9434
▁дрондор	-9435
▁жазында	-9436
▁сааттан	-9437
▁экөөбүз	-9438
▁инфляция	-9439
▁көрүстөн	-9440
▁максатта	-9441
▁пропаган	-9442
▁чындыкка	-9443
▁Казакбаев	-9444
▁баштаганы	-9445
▁майыптыгы	-9446
▁ракеталар	-9447
▁көзөмөлүнө	-9448
▁талкаланган	-9449
мыр	-9450
ыра	-9451
▁87	-9452
анек	-9453
орум	-9454
▁3,5	-9455
▁80%	-9456
▁BBC	-9457
▁АЭС	-9458
▁Дос	-9459
▁Кач	-9460
▁нус	-9461
▁физ	-9462
Синин	-9463
бөлөң	-9464
▁акту	-9465
▁леги	-9466
▁ович	-9467
▁өтчү	-9468
иканын	-9469
ыштагы	-9470
▁Орхан	-9471
▁Сагын	-9472
▁жеген	-9473
▁корот	-9474
▁кызым	-9475
▁ошент	-9476
▁терез	-9477
▁үлгүр	-9478
▁Митинг	-9479
▁барышы	-9480
▁коңшул	-9481
▁социал	-9482
▁үйүнөн	-9483
▁өрттөн	-9484
▁Компани	-9485
▁Тиханов	-9486
▁абалына	-9487
▁аймакты	-9488
▁видеого	-9489
▁доллары	-9490
▁жиберди	-9491
▁мунапыс	-9492
▁оюндары	-9493
▁жерлерге	-9494
▁жогоруда	-9495
▁убакытта	-9496
▁эмдөөдөн	-9497
▁Америкалык	-9498
▁Атамбаевди	-9499
▁байланышып	-9500
gra	-9501
енд	-9502
▁IT	-9503
ight	-9504
адах	-9505
▁Кит	-9506
▁Мом	-9507
▁Муз	-9508
▁кож	-9509
▁Жеке	-9510
▁кайг	-9511
▁окут	-9512
▁серт	-9513
▁ачыкт	-9514
иликтүү	-9515
▁илдети	-9516
ократтар	-9517
▁мыйзамы	-9518
▁өлчөмдө	-9519
▁себептүү	-9520
▁суранган	-9521
▁тергөөчү	-9522
▁Чеченстан	-9523
▁долбоорго	-9524
▁кагылышуу	-9525
▁кишилерди	-9526
▁концепция	-9527
▁маданияты	-9528
▁мурдараак	-9529
▁жылдардагы	-9530
▁кабарлашты	-9531
▁клиникалык	-9532
▁өзгөртүүгө	-9533
▁ишмердигине	-9534
▁мусулмандар	-9535
▁Парламенттик	-9536
▁ишканалардын	-9537
▁Өзбекстандан	-9538
▁мамлекеттерде	-9539
кам	-9540
мет	-9541
▁0,	-9542
▁Ом	-9543
умын	-9544
▁900	-9545
▁Доб	-9546
▁али	-9547
доону	-9548
ноябр	-9549
▁Роза	-9550
▁агып	-9551
▁калп	-9552
▁сыйм	-9553
▁үнөм	-9554
▁Жунуш	-9555
▁баарл	-9556
▁жайыл	-9557
▁мүнөт	-9558
▁акчага	-9559
▁жанына	-9560
▁кармаш	-9561
▁коллег	-9562
▁коюшат	-9563
▁ооруну	-9564
▁сезген	-9565
▁шаарды	-9566
▁калаасы	-9567
▁кыларын	-9568
сентябрга	-9569
▁Көпчүлүк	-9570
▁чогултуу	-9571
▁Оппозиция	-9572
▁деңгээлин	-9573
▁кооператив	-9574
▁кызматтары	-9575
▁кырдаалдан	-9576
▁мыйзамдуул	-9577
▁кызыкчылыгына	-9578
▁саясатчылардын	-9579
Озо	-9580
вид	-9581
енс	-9582
эне	-9583
▁Ун	-9584
пром	-9585
▁Ушу	-9586
▁чүл	-9587
артуу	-9588
илдөө	-9589
▁Мекс	-9590
▁кени	-9591
▁парк	-9592
▁өлдү	-9593
Түндүк	-9594
цтарма	-9595
▁Inter	-9596
▁Нетан	-9597
▁айдың	-9598
▁драма	-9599
▁турук	-9600
▁Өзбек	-9601
▁билими	-9602
▁көрүүнү	-9603
▁кайдыгер	-9604
▁ресторан	-9605
▁түрмөдөн	-9606
▁өндүргөн	-9607
▁окуялардын	-9608
▁жаткандардын	-9609
▁башаламандыкка	-9610
▁маалымдагандай	-9611
loo	-9612
Газ	-9613
муш	-9614
скы	-9615
▁Бл	-9616
▁50%	-9617
▁Хас	-9618
атсыз	-9619
▁дале	-9620
▁2006-	-9621
▁Көрсө	-9622
▁адиси	-9623
▁капчы	-9624
▁күзөт	-9625
▁тарга	-9626
▁адабий	-9627
▁алыскы	-9628
▁оорусу	-9629
▁сиздин	-9630
▁тобуна	-9631
▁акчалай	-9632
▁алганга	-9633
▁күтүлүп	-9634
▁оорулар	-9635
▁турарын	-9636
▁үмүттөн	-9637
▁Саймаити	-9638
▁бирөөнүн	-9639
▁дайындоо	-9640
▁далилден	-9641
▁жетпеген	-9642
▁тапканын	-9643
▁көчмөндөр	-9644
▁тергөөнүн	-9645
демократтар	-9646
▁дооматтарды	-9647
▁системасына	-9648
em	-9649
ИЧ	-9650
▁J	-9651
лүү	-9652
▁Ую	-9653
Арча	-9654
үңүз	-9655
▁Пан	-9656
▁Раз	-9657
▁Тим	-9658
▁Шир	-9659
▁Одес	-9660
▁амал	-9661
▁этап	-9662
▁Ворух	-9663
▁барса	-9664
▁келчү	-9665
▁кызын	-9666
▁стади	-9667
дүүлүгү	-9668
▁Кайрат	-9669
▁бензин	-9670
▁калкты	-9671
▁рекорд	-9672
▁тездет	-9673
▁турбай	-9674
▁Болбосо	-9675
▁Марипов	-9676
▁арыздан	-9677
▁кылууну	-9678
▁урулган	-9679
итациялоо	-9680
▁келиндин	-9681
▁кесипкөй	-9682
▁учураган	-9683
▁Москвадан	-9684
▁даярданып	-9685
▁иликтөөчү	-9686
▁каралууда	-9687
▁качкындар	-9688
▁айтуусунда	-9689
▁көйгөйлөрдү	-9690
▁президенттери	-9691
АЛ	-9692
фия	-9693
▁Үр	-9694
зада	-9695
отту	-9696
▁Тен	-9697
▁луу	-9698
▁мүр	-9699
▁сая	-9700
▁уят	-9701
струк	-9702
▁кыйр	-9703
Көлдүн	-9704
ттарды	-9705
▁2007-	-9706
▁Анкар	-9707
▁Ушуну	-9708
▁жайкы	-9709
▁жерин	-9710
▁колун	-9711
▁ролун	-9712
▁тыкыр	-9713
▁шамал	-9714
яциялык	-9715
▁Алишер	-9716
▁адатта	-9717
▁айылга	-9718
▁дегени	-9719
▁маанис	-9720
▁шерикт	-9721
▁эмнени	-9722
▁Газанын	-9723
▁нерсеге	-9724
▁ойлонуп	-9725
▁атайылап	-9726
▁белгилеш	-9727
▁	-9728
а	-9729
н	-9730
к	-9731
р	-9732
т	-9733
ы	-9734
е	-9735
и	-9736
л	-9737
д	-9738
у	-9739
о	-9740
г	-9741
м	-9742
б	-9743
с	-9744
ү	-9745
ө	-9746
ш	-9747
п	-9748
й	-9749
ж	-9750
з	-9751
ч	-9752
.	-9753
,	-9754
э	-9755
я	-9756
-	-9757
в	-9758
"	-9759
А	-9760
К	-9761
Б	-9762
ң	-9763
1	-9764
ю	-9765
М	-9766
0	-9767
2	-9768
ц	-9769
С	-9770
Т	-9771
О	-9772
Ж	-9773
У	-9774
ф	-9775
Э	-9776
3	-9777
5	-9778
х	-9779
И	-9780
ь	-9781
9	-9782
4	-9783
Д	-9784
П	-9785
Ш	-9786
7	-9787
6	-9788
8	-9789
Н	-9790
:	-9791
Р	-9792
Ө	-9793
)	-9794
(	-9795
Ч	-9796
Г	-9797
?	-9798
e	-9799
В	-9800
a	-9801
Е	-9802
o	-9803
Ф	-9804
Л	-9805
Х	-9806
i	-9807
t	-9808
n	-9809
r	-9810
%	-9811
I	-9812
З	-9813
s	-9814
Ы	-9815
C	-9816
l	-9817
c	-9818
m	-9819
Ү	-9820
A	-9821
u	-9822
N	-9823
g	-9824
T	-9825
ё	-9826
V	-9827
D	-9828
!	-9829
;	-9830
O	-9831
h	-9832
p	-9833
k	-9834
S	-9835
d	-9836
Ю	-9837
R	-9838
B	-9839
P	-9840
Ц	-9841
M	-9842
y	-9843
F	-9844
K	-9845
+	-9846
ъ	-9847
/	-9848
G	-9849
b	-9850
E	-9851
v	-9852
W	-9853
Я	-9854
w	-9855
L	-9856
H	-9857
Й	-9858
z	-9859
Z	-9860
X	-9861
ӊ	-9862
°	-9863
f	-9864
U	-9865
Y	-9866
щ	-9867
ѳ	-9868
x	-9869
J	-9870
[	-9871
]	-9872
­	-9873
Q	-9874
*	-9875
'	-9876
j	-9877
Ё	-9878
#	-9879
q	-9880
$	-9881
і	-9882
&	-9883
қ	-9884
ı	-9885
ɵ	-9886
\	-9887
Ѳ	-9888
І	-9889
_	-9890
Қ	-9891
@	-9892
ü	-9893
Ş	-9894
ş	-9895
Ɵ	-9896
Щ	-9897
−	-9898
ә	-9899
`	-9900
ғ	-9901
·	-9902
ا	-9903
=	-9904
ç	-9905
é	-9906
İ	-9907
⠀	-9908
️	-9909
¬	-9910
ə	-9911
ұ	-9912
•	-9913
▪	-9914
ö	-9915
ğ	-9916
Ң	-9917
©	-9918
́	-9919
ل	-9920
Ü	-9921
á	-9922
ʙ	-9923
Ь	-9924
ҳ	-9925
ق	-9926
⁄	-9927
→	-9928
昆	-9929
Ç	-9930
Ö	-9931
â	-9932
í	-9933
ï	-9934
љ	-9935
Ұ	-9936
ҷ	-9937
ӏ	-9938
Ә	-9939
ح	-9940
و	-9941
ُ	-9942
―	-9943
⁣	-9944
●	-9945
堅	-9946
鄄	-9947
韓	-9948
鬲	-9949
{	-9950
}	-9951
£	-9952
§	-9953
Ñ	-9954
ß	-9955
ã	-9956
ä	-9957
è	-9958
ñ	-9959
ā	-9960
ą	-9961
Ŋ	-9962
Š	-9963
ū	-9964
ƚ	-9965
Ƣ	-9966
ƣ	-9967
ʼ	-9968
̧	-9969
Ђ	-9970
Ъ	-9971
ђ	-9972
ї	-9973
ћ	-9974
ў	-9975
һ	-9976
ӯ	-9977
خ	-9978
د	-9979
ر	-9980
ز	-9981
ص	-9982
ط	-9983
ظ	-9984
ع	-9985
غ	-9986
ك	-9987
م	-9988
ن	-9989
ه	-9990
ي	-9991
ِ	-9992
‒	-9993
⁠	-9994
回	-9995
族	-9996
