{
  "version": "1.0",
  "truncation": null,
  "padding": null,
  "added_tokens": [
    {
      "id": 0,
      "content": "[UNK]",
      "single_word": false,
      "lstrip": false,
      "rstrip": false,
      "normalized": false,
      "special": true
    },
    {
      "id": 1,
      "content": "[CLS]",
      "single_word": false,
      "lstrip": false,
      "rstrip": false,
      "normalized": false,
      "special": true
    },
    {
      "id": 2,
      "content": "[SEP]",
      "single_word": false,
      "lstrip": false,
      "rstrip": false,
      "normalized": false,
      "special": true
    },
    {
      "id": 3,
      "content": "[PAD]",
      "single_word": false,
      "lstrip": false,
      "rstrip": false,
      "normalized": false,
      "special": true
    },
    {
      "id": 4,
      "content": "[MASK]",
      "single_word": false,
      "lstrip": false,
      "rstrip": false,
      "normalized": false,
      "special": true
    }
  ],
  "normalizer": {
    "type": "Sequence",
    "normalizers": [
      {
        "type": "NFKC"
      },
      {
        "type": "Lowercase"
      }
    ]
  },
  "pre_tokenizer": {
    "type": "Whitespace"
  },
  "post_processor": null,
  "decoder": {
    "type": "WordPiece",
    "prefix": "##",
    "cleanup": true
  },
  "model": {
    "type": "WordPiece",
    "unk_token": "[UNK]",
    "continuing_subword_prefix": "##",
    "max_input_chars_per_word": 100,
    "vocab": {
      "[UNK]": 0,
      "[CLS]": 1,
      "[SEP]": 2,
      "[PAD]": 3,
      "[MASK]": 4,
      "!": 5,
      "\"": 6,
      "#": 7,
      "$": 8,
      "%": 9,
      "&": 10,
      "'": 11,
      "(": 12,
      ")": 13,
      "*": 14,
      "+": 15,
      ",": 16,
      "-": 17,
      ".": 18,
      "/": 19,
      "0": 20,
      "1": 21,
      "2": 22,
      "3": 23,
      "4": 24,
      "5": 25,
      "6": 26,
      "7": 27,
      "8": 28,
      "9": 29,
      ":": 30,
      ";": 31,
      "=": 32,
      "?": 33,
      "@": 34,
      "[": 35,
      "\\": 36,
      "]": 37,
      "_": 38,
      "`": 39,
      "a": 40,
      "b": 41,
      "c": 42,
      "d": 43,
      "e": 44,
      "f": 45,
      "g": 46,
      "h": 47,
      "i": 48,
      "j": 49,
      "k": 50,
      "l": 51,
      "m": 52,
      "n": 53,
      "o": 54,
      "p": 55,
      "q": 56,
      "r": 57,
      "s": 58,
      "t": 59,
      "u": 60,
      "v": 61,
      "w": 62,
      "x": 63,
      "y": 64,
      "z": 65,
      "{": 66,
      "}": 67,
      "£": 68,
      "§": 69,
      "©": 70,
      "¬": 71,
      "­": 72,
      "°": 73,
      "·": 74,
      "ß": 75,
      "á": 76,
      "â": 77,
      "ã": 78,
      "ä": 79,
      "ç": 80,
      "è": 81,
      "é": 82,
      "í": 83,
      "ï": 84,
      "ñ": 85,
      "ö": 86,
      "ü": 87,
      "ā": 88,
      "ą": 89,
      "ğ": 90,
      "ı": 91,
      "ŋ": 92,
      "ş": 93,
      "š": 94,
      "ū": 95,
      "ƚ": 96,
      "ƣ": 97,
      "ə": 98,
      "ɵ": 99,
      "ʙ": 100,
      "ʼ": 101,
      "́": 102,
      "̇": 103,
      "̧": 104,
      "а": 105,
      "б": 106,
      "в": 107,
      "г": 108,
      "д": 109,
      "е": 110,
      "ж": 111,
      "з": 112,
      "и": 113,
      "й": 114,
      "к": 115,
      "л": 116,
      "м": 117,
      "н": 118,
      "о": 119,
      "п": 120,
      "р": 121,
      "с": 122,
      "т": 123,
      "у": 124,
      "ф": 125,
      "х": 126,
      "ц": 127,
      "ч": 128,
      "ш": 129,
      "щ": 130,
      "ъ": 131,
      "ы": 132,
      "ь": 133,
      "э": 134,
      "ю": 135,
      "я": 136,
      "ё": 137,
      "ђ": 138,
      "і": 139,
      "ї": 140,
      "љ": 141,
      "ћ": 142,
      "ў": 143,
      "ѳ": 144,
      "ғ": 145,
      "қ": 146,
      "ң": 147,
      "ү": 148,
      "ұ": 149,
      "ҳ": 150,
      "ҷ": 151,
      "һ": 152,
      "ӊ": 153,
      "ӏ": 154,
      "ә": 155,
      "ө": 156,
      "ӯ": 157,
      "ا": 158,
      "ح": 159,
      "خ": 160,
      "د": 161,
      "ر": 162,
      "ز": 163,
      "ص": 164,
      "ط": 165,
      "ظ": 166,
      "ع": 167,
      "غ": 168,
      "ق": 169,
      "ك": 170,
      "ل": 171,
      "م": 172,
      "ن": 173,
      "ه": 174,
      "و": 175,
      "ي": 176,
      "ُ": 177,
      "ِ": 178,
      "‎": 179,
      "‒": 180,
      "―": 181,
      "•": 182,
      "⁄": 183,
      "⁠": 184,
      "⁣": 185,
      "→": 186,
      "−": 187,
      "▪": 188,
      "●": 189,
      "⠀": 190,
      "回": 191,
      "堅": 192,
      "族": 193,
      "昆": 194,
      "鄄": 195,
      "韓": 196,
      "鬲": 197,
      "": 198,
      "️": 199,
      "##ы": 200,
      "##з": 201,
      "##г": 202,
      "##н": 203,
      "##к": 204,
      "##и": 205,
      "##м": 206,
      "##а": 207,
      "##д": 208,
      "##т": 209,
      "##п": 210,
      "##я": 211,
      "##с": 212,
      "##р": 213,
      "##б": 214,
      "##ш": 215,
      "##л": 216,
      "##у": 217,
      "##е": 218,
      "##о": 219,
      "##в": 220,
      "##ө": 221,
      "##ү": 222,
      "##ь": 223,
      "##й": 224,
      "##ц": 225,
      "##ж": 226,
      "##o": 227,
      "##e": 228,
      "##t": 229,
      "##r": 230,
      "##y": 231,
      "##ф": 232,
      "##v": 233,
      "##s": 234,
      "##i": 235,
      "##ч": 236,
      "##э": 237,
      "##ң": 238,
      "##9": 239,
      "##5": 240,
      "##.": 241,
      "##2": 242,
      "##0": 243,
      "##ю": 244,
      "##ѳ": 245,
      "##a": 246,
      "##l": 247,
      "##h": 248,
      "##6": 249,
      "##ӊ": 250,
      "##8": 251,
      "##х": 252,
      "##b": 253,
      "##4": 254,
      "##u": 255,
      "##g": 256,
      "##ё": 257,
      "##n": 258,
      "##f": 259,
      "##7": 260,
      "##3": 261,
      "##p": 262,
      "##c": 263,
      "##1": 264,
      "##d": 265,
      "##w": 266,
      "##‎": 267,
      "##)": 268,
      "##m": 269,
      "##k": 270,
      "##j": 271,
      "##q": 272,
      "##x": 273,
      "##ъ": 274,
      "##қ": 275,
      "##ғ": 276,
      "##z": 277,
      "##щ": 278,
      "##_": 279,
      "##ä": 280,
      "##ұ": 281,
      "##,": 282,
      "##[": 283,
      "##-": 284,
      "##ə": 285,
      "##\"": 286,
      "##ü": 287,
      "##і": 288,
      "##/": 289,
      "##ğ": 290,
      "##ә": 291,
      "##韓": 292,
      "##昆": 293,
      "##ö": 294,
      "##ı": 295,
      "##é": 296,
      "##í": 297,
      "##⠀": 298,
      "##ӏ": 299,
      "##̇": 300,
      "##ç": 301,
      "##;": 302,
      "##ў": 303,
      "##*": 304,
      "##ӯ": 305,
      "##ҷ": 306,
      "##ح": 307,
      "##م": 308,
      "##د": 309,
      "##+": 310,
      "##ş": 311,
      "##%": 312,
      "##?": 313,
      "##ل": 314,
      "##ن": 315,
      "##ك": 316,
      "##ا": 317,
      "##ñ": 318,
      "##:": 319,
      "##!": 320,
      "##ɵ": 321,
      "##ه": 322,
      "##ر": 323,
      "##}": 324,
      "##族": 325,
      "##́": 326,
      "##ї": 327,
      "##]": 328,
      "##(": 329,
      "##á": 330,
      "##ï": 331,
      "##&": 332,
      "##ћ": 333,
      "##ƣ": 334,
      "##ʼ": 335,
      "##è": 336,
      "###": 337,
      "##ع": 338,
      "##ص": 339,
      "##ي": 340,
      "##$": 341,
      "##љ": 342,
      "##ß": 343,
      "##ُ": 344,
      "##و": 345,
      "##ِ": 346,
      "##ز": 347,
      "##ā": 348,
      "##â": 349,
      "##ҳ": 350,
      "##ط": 351,
      "##ق": 352,
      "##⁣": 353,
      "##ã": 354,
      "##ą": 355,
      "##ū": 356,
      "##©": 357,
      "##­": 358,
      "##ђ": 359,
      "##=": 360,
      "##ʙ": 361,
      "##ƚ": 362,
      "##ан": 363,
      "##ар": 364,
      "##ын": 365,
      "##ен": 366,
      "##ал": 367,
      "##ин": 368,
      "##да": 369,
      "##ат": 370,
      "##ер": 371,
      "##уу": 372,
      "##кт": 373,
      "##ол": 374,
      "##ыл": 375,
      "##үн": 376,
      "##ай": 377,
      "##ган": 378,
      "##ун": 379,
      "##ир": 380,
      "ал": 381,
      "##ды": 382,
      "##гы": 383,
      "##ор": 384,
      "##он": 385,
      "##ур": 386,
      "##ст": 387,
      "##ет": 388,
      "##ия": 389,
      "##ек": 390,
      "##ил": 391,
      "##га": 392,
      "##шт": 393,
      "##ел": 394,
      "##ам": 395,
      "##ул": 396,
      "##ыр": 397,
      "##ык": 398,
      "##ас": 399,
      "##ак": 400,
      "##өр": 401,
      "ай": 402,
      "##ып": 403,
      "##ди": 404,
      "##оо": 405,
      "##өн": 406,
      "бол": 407,
      "##үү": 408,
      "##шк": 409,
      "де": 410,
      "##тт": 411,
      "ба": 412,
      "##дын": 413,
      "бир": 414,
      "мен": 415,
      "жа": 416,
      "##ген": 417,
      "##ик": 418,
      "##де": 419,
      "##ана": 420,
      "##дар": 421,
      "##ыз": 422,
      "##ында": 423,
      "ар": 424,
      "кар": 425,
      "##үр": 426,
      "менен": 427,
      "##из": 428,
      "##ап": 429,
      "эл": 430,
      "##ым": 431,
      "ко": 432,
      "##аб": 433,
      "##ий": 434,
      "##ук": 435,
      "##дан": 436,
      "жана": 437,
      "##ок": 438,
      "ан": 439,
      "##тк": 440,
      "##ов": 441,
      "##атт": 442,
      "бер": 443,
      "##ары": 444,
      "##дө": 445,
      "кө": 446,
      "##стан": 447,
      "да": 448,
      "эк": 449,
      "##ес": 450,
      "##им": 451,
      "##ог": 452,
      "##ый": 453,
      "жат": 454,
      "##ей": 455,
      "кыр": 456,
      "##ус": 457,
      "ор": 458,
      "##ция": 459,
      "кел": 460,
      "##ча": 461,
      "ма": 462,
      "жыл": 463,
      "бул": 464,
      "##кан": 465,
      "##үл": 466,
      "##уп": 467,
      "##ына": 468,
      "##гыз": 469,
      "деп": 470,
      "##ра": 471,
      "##өл": 472,
      "кыргыз": 473,
      "өз": 474,
      "##ист": 475,
      "##ев": 476,
      "##ип": 477,
      "##ма": 478,
      "##ду": 479,
      "тур": 480,
      "та": 481,
      "##ыш": 482,
      "со": 483,
      "##дин": 484,
      "##ынын": 485,
      "бар": 486,
      "##ден": 487,
      "##гө": 488,
      "##ект": 489,
      "##ез": 490,
      "эм": 491,
      "##дагы": 492,
      "##ку": 493,
      "пр": 494,
      "кыз": 495,
      "##ем": 496,
      "ак": 497,
      "бо": 498,
      "##ги": 499,
      "жар": 500,
      "##етт": 501,
      "##алган": 502,
      "тар": 503,
      "бил": 504,
      "##юн": 505,
      "##дык": 506,
      "##гон": 507,
      "##аган": 508,
      "##лан": 509,
      "##ге": 510,
      "аз": 511,
      "ка": 512,
      "##ск": 513,
      "##лар": 514,
      "ат": 515,
      "##ли": 516,
      "##үз": 517,
      "чы": 518,
      "үч": 519,
      "##ба": 520,
      "##үп": 521,
      "са": 522,
      "##дам": 523,
      "##өт": 524,
      "##ка": 525,
      "кыл": 526,
      "эле": 527,
      "##ит": 528,
      "##еп": 529,
      "кат": 530,
      "##иш": 531,
      "##сы": 532,
      "өл": 533,
      "кыргызстан": 534,
      "айт": 535,
      "##бек": 536,
      "маал": 537,
      "##уш": 538,
      "ош": 539,
      "##гөн": 540,
      "кор": 541,
      "##алык": 542,
      "ишт": 543,
      "##алуу": 544,
      "##дир": 545,
      "##ум": 546,
      "боюн": 547,
      "##инин": 548,
      "##ери": 549,
      "боюнча": 550,
      "мам": 551,
      "##нын": 552,
      "20": 553,
      "##уз": 554,
      "кызм": 555,
      "##дай": 556,
      "маалым": 557,
      "кай": 558,
      "то": 559,
      "билдир": 560,
      "орус": 561,
      "болгон": 562,
      "кал": 563,
      "тал": 564,
      "##инде": 565,
      "туу": 566,
      "үчүн": 567,
      "##үй": 568,
      "көр": 569,
      "кол": 570,
      "##үм": 571,
      "##ең": 572,
      "жол": 573,
      "##до": 574,
      "##еч": 575,
      "жаткан": 576,
      "##от": 577,
      "##иден": 578,
      "иш": 579,
      "##ыкт": 580,
      "башк": 581,
      "өлк": 582,
      "алар": 583,
      "##го": 584,
      "##лек": 585,
      "##ышт": 586,
      "каб": 587,
      "##инист": 588,
      "ком": 589,
      "##езиден": 590,
      "##дун": 591,
      "адам": 592,
      "кур": 593,
      "мамлек": 594,
      "президен": 595,
      "жет": 596,
      "##гил": 597,
      "##шы": 598,
      "##дук": 599,
      "кан": 600,
      "бай": 601,
      "##ут": 602,
      "##ег": 603,
      "##үк": 604,
      "күн": 605,
      "жер": 606,
      "ук": 607,
      "##ине": 608,
      "##инистр": 609,
      "ми": 610,
      "биз": 611,
      "##ом": 612,
      "өк": 613,
      "деген": 614,
      "##үш": 615,
      "орусия": 616,
      "жүр": 617,
      "##үч": 618,
      "кий": 619,
      "министр": 620,
      "##лер": 621,
      "##шкан": 622,
      "бел": 623,
      "экен": 624,
      "коо": 625,
      "##аар": 626,
      "баш": 627,
      "##ылган": 628,
      "##бай": 629,
      "##ынан": 630,
      "кызмат": 631,
      "##лык": 632,
      "##чу": 633,
      "кер": 634,
      "##еш": 635,
      "уч": 636,
      "жок": 637,
      "##дер": 638,
      "##унун": 639,
      "жаз": 640,
      "кет": 641,
      "##алар": 642,
      "болуп": 643,
      "анын": 644,
      "сал": 645,
      "##ейин": 646,
      "ул": 647,
      "##чи": 648,
      "##ууга": 649,
      "##өө": 650,
      "кийин": 651,
      "чейин": 652,
      "##ктар": 653,
      "##анын": 654,
      "туур": 655,
      "жак": 656,
      "каз": 657,
      "##асы": 658,
      "тууралуу": 659,
      "##чы": 660,
      "##кы": 661,
      "##үндө": 662,
      "мамлекетт": 663,
      "бирок": 664,
      "аб": 665,
      "##дү": 666,
      "##зам": 667,
      "##чыл": 668,
      "турган": 669,
      "##ыйзам": 670,
      "##аны": 671,
      "пар": 672,
      "мыйзам": 673,
      "##унда": 674,
      "##дик": 675,
      "эмес": 676,
      "кир": 677,
      "##дон": 678,
      "бал": 679,
      "##уун": 680,
      "##еб": 681,
      "бий": 682,
      "учур": 683,
      "бас": 684,
      "##бл": 685,
      "##ишк": 686,
      "##уна": 687,
      "кам": 688,
      "##гү": 689,
      "шаар": 690,
      "\",": 691,
      "жатат": 692,
      "өтк": 693,
      "##кен": 694,
      "башт": 695,
      "керек": 696,
      "мур": 697,
      "чыг": 698,
      "эки": 699,
      "##чул": 700,
      "##дыр": 701,
      "маалымат": 702,
      "##бо": 703,
      "өт": 704,
      "мил": 705,
      "көп": 706,
      "##кта": 707,
      "шай": 708,
      "##үнө": 709,
      "жай": 710,
      "дагы": 711,
      "президент": 712,
      "##яс": 713,
      "үй": 714,
      "##та": 715,
      "түр": 716,
      "алып": 717,
      "жылы": 718,
      "эр": 719,
      "##ке": 720,
      "жог": 721,
      "##дөр": 722,
      "##уг": 723,
      "уш": 724,
      "##сыз": 725,
      "ин": 726,
      "##аттар": 727,
      "##ээ": 728,
      "ую": 729,
      "##ага": 730,
      "мас": 731,
      "##лоо": 732,
      "##тер": 733,
      "##өм": 734,
      "ич": 735,
      "##ав": 736,
      "белгил": 737,
      "##скер": 738,
      "азыр": 739,
      "##бр": 740,
      "кең": 741,
      "алган": 742,
      "##кер": 743,
      "##ман": 744,
      "кы": 745,
      "##ору": 746,
      "ая": 747,
      "##ябр": 748,
      "##үнүн": 749,
      "##ады": 750,
      "көз": 751,
      "түз": 752,
      "укра": 753,
      "украин": 754,
      "##ент": 755,
      "жаң": 756,
      "##аз": 757,
      "саяс": 758,
      "##ушт": 759,
      "күч": 760,
      "ав": 761,
      "миң": 762,
      "байлан": 763,
      "##дардын": 764,
      "дол": 765,
      "##ки": 766,
      "чеч": 767,
      "##өлөр": 768,
      "ошон": 769,
      "##аш": 770,
      "сө": 771,
      "##иев": 772,
      "##дары": 773,
      "бу": 774,
      "##ран": 775,
      "##ындагы": 776,
      "##ылуу": 777,
      "##уст": 778,
      "киш": 779,
      "жаш": 780,
      "##иция": 781,
      "сөз": 782,
      "келген": 783,
      "айма": 784,
      "жал": 785,
      "өлкө": 786,
      "бишк": 787,
      "тарт": 788,
      "##икт": 789,
      "чыгар": 790,
      "оку": 791,
      "мамлекеттик": 792,
      "##егиз": 793,
      "##өй": 794,
      "бор": 795,
      "өн": 796,
      "##чил": 797,
      "жаран": 798,
      "өкм": 799,
      "##еле": 800,
      "аш": 801,
      "##си": 802,
      "жөн": 803,
      "билдирди": 804,
      "башка": 805,
      "##үг": 806,
      "##утт": 807,
      "ок": 808,
      "жый": 809,
      "экенин": 810,
      "төр": 811,
      "мак": 812,
      "обл": 813,
      "##баев": 814,
      "##ктан": 815,
      "##ос": 816,
      "ошол": 817,
      "бөл": 818,
      "чыгы": 819,
      "##үүгө": 820,
      "кара": 821,
      "каршы": 822,
      "##ян": 823,
      "##ты": 824,
      "ты": 825,
      "##инчи": 826,
      "чык": 827,
      "##ууда": 828,
      "##төр": 829,
      "эми": 830,
      "жоо": 831,
      "##ив": 832,
      "##айын": 833,
      "##дуу": 834,
      "шайлоо": 835,
      "көрс": 836,
      "##күн": 837,
      "кош": 838,
      "##оп": 839,
      "##дөн": 840,
      "эс": 841,
      "##иянын": 842,
      "оор": 843,
      "жогор": 844,
      "түш": 845,
      "##ткан": 846,
      "##доо": 847,
      "тер": 848,
      "май": 849,
      "рай": 850,
      "борб": 851,
      "ап": 852,
      "жап": 853,
      "##алы": 854,
      "негиз": 855,
      "иштер": 856,
      "##суз": 857,
      "чек": 858,
      "##аттык": 859,
      "##ликт": 860,
      "##инен": 861,
      "дүй": 862,
      "кандай": 863,
      "##об": 864,
      "##акыр": 865,
      "##икалык": 866,
      "же": 867,
      "мүм": 868,
      "##агы": 869,
      "казак": 870,
      "кооп": 871,
      "мүмкүн": 872,
      "19": 873,
      "коом": 874,
      "сур": 875,
      "кон": 876,
      "##лик": 877,
      "карм": 878,
      "калган": 879,
      "бери": 880,
      "##өш": 881,
      "##аров": 882,
      "байланышт": 883,
      "##елер": 884,
      "##сынын": 885,
      "##арын": 886,
      "##со": 887,
      "аскер": 888,
      "токт": 889,
      "##ация": 890,
      "202": 891,
      "болду": 892,
      "болот": 893,
      "##ейт": 894,
      "жаңы": 895,
      "##ада": 896,
      "##иб": 897,
      "кый": 898,
      "##гында": 899,
      "##алдык": 900,
      "мар": 901,
      "кылм": 902,
      "талап": 903,
      "##алды": 904,
      "аба": 905,
      "ач": 906,
      "район": 907,
      "##гын": 908,
      "##гер": 909,
      "уюм": 910,
      "жогорку": 911,
      "кабар": 912,
      "##лам": 913,
      "##00": 914,
      "##еси": 915,
      "##быз": 916,
      "##дор": 917,
      "жары": 918,
      "201": 919,
      "##ис": 920,
      "алардын": 921,
      "##еген": 922,
      "буга": 923,
      "##дүн": 924,
      "депут": 925,
      "аны": 926,
      "таж": 927,
      "##еди": 928,
      "борбор": 929,
      "##алып": 930,
      "арак": 931,
      "ре": 932,
      "##са": 933,
      "##чү": 934,
      "##кты": 935,
      "жыйын": 936,
      "##лөр": 937,
      "гана": 938,
      "##иялык": 939,
      "чакыр": 940,
      "##өнүн": 941,
      "чар": 942,
      "##тай": 943,
      "бат": 944,
      "из": 945,
      "улутт": 946,
      "тап": 947,
      "дүйн": 948,
      "алын": 949,
      "##уул": 950,
      "##чулар": 951,
      "##үт": 952,
      "жас": 953,
      "##тур": 954,
      "жум": 955,
      "сот": 956,
      "айып": 957,
      "##ентт": 958,
      "чыккан": 959,
      "##аты": 960,
      "кабыл": 961,
      "##уну": 962,
      "сүй": 963,
      "тил": 964,
      "катт": 965,
      "мында": 966,
      "##чүл": 967,
      "##сп": 968,
      "##гиз": 969,
      "топ": 970,
      "##өтт": 971,
      "жарыя": 972,
      "масел": 973,
      "кою": 974,
      "##лай": 975,
      "байланыштуу": 976,
      "жооп": 977,
      "сан": 978,
      "##лиги": 979,
      "жатканын": 980,
      "##дүү": 981,
      "коопсуз": 982,
      "айтып": 983,
      "катары": 984,
      "киши": 985,
      "кыргызстандын": 986,
      "айыл": 987,
      "##оз": 988,
      "##тар": 989,
      "##үнү": 990,
      "учурда": 991,
      "дем": 992,
      "ишк": 993,
      "ага": 994,
      "##ания": 995,
      "алдын": 996,
      "тарап": 997,
      "##айт": 998,
      "мындай": 999,
      "сог": 1000,
      "акш": 1001,
      "корг": 1002,
      "аралык": 1003,
      "комп": 1004,
      "##йт": 1005,
      "##ци": 1006,
      "##асын": 1007,
      "парт": 1008,
      "ст": 1009,
      "өкүл": 1010,
      "өткөр": 1011,
      "##ешт": 1012,
      "ушул": 1013,
      "атк": 1014,
      "##ябрда": 1015,
      "##рам": 1016,
      "##тты": 1017,
      "##сү": 1018,
      "мек": 1019,
      "казакстан": 1020,
      "##ышы": 1021,
      "##епт": 1022,
      "##дарды": 1023,
      "##..": 1024,
      "чет": 1025,
      "##рым": 1026,
      "##чө": 1027,
      "##уб": 1028,
      "##ышкан": 1029,
      "түрк": 1030,
      "##ууну": 1031,
      "берген": 1032,
      "##укт": 1033,
      "деди": 1034,
      "милли": 1035,
      "уку": 1036,
      "ев": 1037,
      "##асында": 1038,
      "сом": 1039,
      "берил": 1040,
      "пай": 1041,
      "кой": 1042,
      "жур": 1043,
      "тол": 1044,
      "тажик": 1045,
      "##иг": 1046,
      "##ылып": 1047,
      "өткөн": 1048,
      "долбо": 1049,
      "сакт": 1050,
      "окуя": 1051,
      "көб": 1052,
      "мо": 1053,
      "коргоо": 1054,
      "ил": 1055,
      "кытай": 1056,
      "облус": 1057,
      "орусиянын": 1058,
      "##үкт": 1059,
      "мурдагы": 1060,
      "кеткен": 1061,
      "##оң": 1062,
      "кез": 1063,
      "президентт": 1064,
      "кайр": 1065,
      "эрк": 1066,
      "эн": 1067,
      "##беков": 1068,
      "##чысы": 1069,
      "кайра": 1070,
      "жапаров": 1071,
      "улуттук": 1072,
      "##ени": 1073,
      "болсо": 1074,
      "сүйл": 1075,
      "##асм": 1076,
      "чечим": 1077,
      "##ла": 1078,
      "##онав": 1079,
      "өкмөт": 1080,
      "##дой": 1081,
      "##ест": 1082,
      "жакын": 1083,
      "##сия": 1084,
      "##үүдө": 1085,
      "##оном": 1086,
      "кыргызстанда": 1087,
      "коронав": 1088,
      "коронавир": 1089,
      "...": 1090,
      "##тыр": 1091,
      "тү": 1092,
      "##екте": 1093,
      "караган": 1094,
      "жетек": 1095,
      "соң": 1096,
      "##нал": 1097,
      "##абыз": 1098,
      "жардам": 1099,
      "##гына": 1100,
      "парлам": 1101,
      "эч": 1102,
      "ур": 1103,
      "ой": 1104,
      "сун": 1105,
      "дар": 1106,
      "көрсөт": 1107,
      "##гун": 1108,
      "##ышат": 1109,
      "##үлгөн": 1110,
      "биринчи": 1111,
      "билдирген": 1112,
      "##пы": 1113,
      "##дүр": 1114,
      "##яр": 1115,
      "жылдын": 1116,
      "авт": 1117,
      "тышк": 1118,
      "жаб": 1119,
      "уба": 1120,
      "сат": 1121,
      "жашт": 1122,
      "орт": 1123,
      "##иде": 1124,
      "айрым": 1125,
      "айткан": 1126,
      "##үгүн": 1127,
      "##лиг": 1128,
      "өзбек": 1129,
      "##огон": 1130,
      "ад": 1131,
      "келиш": 1132,
      "евр": 1133,
      "партия": 1134,
      "эконом": 1135,
      "ылай": 1136,
      "жалпы": 1137,
      "журнал": 1138,
      "сотт": 1139,
      "чоң": 1140,
      "шар": 1141,
      "##туу": 1142,
      "жолу": 1143,
      "андан": 1144,
      "алуу": 1145,
      "жүрг": 1146,
      "окт": 1147,
      "бири": 1148,
      "кызматт": 1149,
      "##кү": 1150,
      "аял": 1151,
      "##се": 1152,
      "##ика": 1153,
      "##ылды": 1154,
      "##асмий": 1155,
      "##мер": 1156,
      "##мө": 1157,
      "киргиз": 1158,
      "##ушу": 1159,
      "суу": 1160,
      "орун": 1161,
      "##дарга": 1162,
      "##улган": 1163,
      "себ": 1164,
      "алды": 1165,
      "акт": 1166,
      "өлкөлөр": 1167,
      "колдон": 1168,
      "журналист": 1169,
      "башкар": 1170,
      "10": 1171,
      "саясий": 1172,
      "анда": 1173,
      "##гөр": 1174,
      "улам": 1175,
      "талк": 1176,
      "өзү": 1177,
      "расмий": 1178,
      "албай": 1179,
      "кызматкер": 1180,
      "ылайык": 1181,
      "##дей": 1182,
      "##олог": 1183,
      "бийлик": 1184,
      "ара": 1185,
      "өзгөр": 1186,
      "отур": 1187,
      "кес": 1188,
      "таб": 1189,
      "оп": 1190,
      "ата": 1191,
      "##орт": 1192,
      "айтты": 1193,
      "долбоор": 1194,
      "##лери": 1195,
      "##ышты": 1196,
      "аныкт": 1197,
      "##үүлөр": 1198,
      "##оого": 1199,
      "чыгып": 1200,
      "##ата": 1201,
      "##дөрү": 1202,
      "кылмыш": 1203,
      "эмн": 1204,
      "##тын": 1205,
      "түн": 1206,
      "ичинде": 1207,
      "##ттар": 1208,
      "арк": 1209,
      "##анда": 1210,
      "##атты": 1211,
      "жүргүз": 1212,
      "##ети": 1213,
      "эң": 1214,
      "түшүн": 1215,
      "##иги": 1216,
      "##сын": 1217,
      "миллион": 1218,
      "##сүн": 1219,
      "бек": 1220,
      "бишкек": 1221,
      "##ри": 1222,
      "коопсуздук": 1223,
      "##ундагы": 1224,
      "##мия": 1225,
      "ким": 1226,
      "саясат": 1227,
      "каза": 1228,
      "берүү": 1229,
      "##дөө": 1230,
      "##ече": 1231,
      "күр": 1232,
      "ошондой": 1233,
      "мын": 1234,
      "келет": 1235,
      "караж": 1236,
      "караганда": 1237,
      "башкы": 1238,
      "катар": 1239,
      "##су": 1240,
      "##мүр": 1241,
      "##изм": 1242,
      "кеңешт": 1243,
      "компания": 1244,
      "кеңеш": 1245,
      "болбо": 1246,
      "калды": 1247,
      "президенти": 1248,
      "биздин": 1249,
      "жан": 1250,
      "##тан": 1251,
      "атайын": 1252,
      "жөнүндө": 1253,
      "##шка": 1254,
      "##өөн": 1255,
      "##үүнү": 1256,
      "##тта": 1257,
      "жең": 1258,
      "таш": 1259,
      "элек": 1260,
      "##иктүү": 1261,
      "эмне": 1262,
      "акыр": 1263,
      "15": 1264,
      "ээ": 1265,
      "даяр": 1266,
      "##уучу": 1267,
      "##асынын": 1268,
      "коронавирус": 1269,
      "соци": 1270,
      "те": 1271,
      "дүйнө": 1272,
      "##аткан": 1273,
      "көл": 1274,
      "доллар": 1275,
      "тарма": 1276,
      "##ердин": 1277,
      "аркылуу": 1278,
      "##алиев": 1279,
      "##акка": 1280,
      "##ктуу": 1281,
      "##сат": 1282,
      "моск": 1283,
      "##рел": 1284,
      "турат": 1285,
      "##сиз": 1286,
      "ли": 1287,
      "аткар": 1288,
      "меди": 1289,
      "москв": 1290,
      "деле": 1291,
      "он": 1292,
      "##цин": 1293,
      "мл": 1294,
      "##ова": 1295,
      "##өтк": 1296,
      "##ланган": 1297,
      "мындан": 1298,
      "мамлекет": 1299,
      "өзбекстан": 1300,
      "келип": 1301,
      "дары": 1302,
      "##ой": 1303,
      "##оол": 1304,
      "##деги": 1305,
      "##өгөн": 1306,
      "##асына": 1307,
      "өлкөдө": 1308,
      "рес": 1309,
      "##вар": 1310,
      "жылдан": 1311,
      "тергө": 1312,
      "катыш": 1313,
      "сүр": 1314,
      "апрел": 1315,
      "##инг": 1316,
      "ра": 1317,
      "мүч": 1318,
      "көтөр": 1319,
      "тын": 1320,
      "##гиликтүү": 1321,
      "кырда": 1322,
      "нече": 1323,
      "##сун": 1324,
      "садыр": 1325,
      "##бүз": 1326,
      "##лор": 1327,
      "миг": 1328,
      "эркин": 1329,
      "##овдун": 1330,
      "таан": 1331,
      "улан": 1332,
      "комит": 1333,
      "##оон": 1334,
      "##алан": 1335,
      "жакшы": 1336,
      "##ишт": 1337,
      "төл": 1338,
      "абал": 1339,
      "пик": 1340,
      "##ңг": 1341,
      "ички": 1342,
      "##ко": 1343,
      "##мат": 1344,
      "бүгүн": 1345,
      "##ыйыл": 1346,
      "##өлүк": 1347,
      "тек": 1348,
      "өлкөнүн": 1349,
      "мекем": 1350,
      "бардык": 1351,
      "азаттык": 1352,
      "сыр": 1353,
      "##ерди": 1354,
      "эксп": 1355,
      "##ерин": 1356,
      "##илген": 1357,
      "ушун": 1358,
      "чог": 1359,
      "берип": 1360,
      "кылып": 1361,
      "иштеп": 1362,
      "быйыл": 1363,
      "ун": 1364,
      "##убл": 1365,
      "##өп": 1366,
      "социалдык": 1367,
      "буз": 1368,
      "им": 1369,
      "пол": 1370,
      "##ылык": 1371,
      "кылган": 1372,
      "##тор": 1373,
      "тий": 1374,
      "11": 1375,
      "кем": 1376,
      "бийликт": 1377,
      "турганын": 1378,
      "кр": 1379,
      "чект": 1380,
      "##стит": 1381,
      "пикир": 1382,
      "жарыял": 1383,
      "күнү": 1384,
      "##етти": 1385,
      "орган": 1386,
      "бишкекте": 1387,
      "оо": 1388,
      "тергөө": 1389,
      "жүргөн": 1390,
      "иликт": 1391,
      "эсепт": 1392,
      "сүйлөш": 1393,
      "##шыр": 1394,
      "сап": 1395,
      "##уунун": 1396,
      "өзгө": 1397,
      "##бей": 1398,
      "парламентт": 1399,
      "беш": 1400,
      "тажикстан": 1401,
      "курул": 1402,
      "маан": 1403,
      "##ашт": 1404,
      "##өмөл": 1405,
      "##арды": 1406,
      "##ардын": 1407,
      "##юл": 1408,
      "комис": 1409,
      "уул": 1410,
      "##ларды": 1411,
      "төрага": 1412,
      "жергиликтүү": 1413,
      "мект": 1414,
      "##ыкты": 1415,
      "##ктагы": 1416,
      "аракет": 1417,
      "ян": 1418,
      "кызматы": 1419,
      "көзөмөл": 1420,
      "алынган": 1421,
      "жек": 1422,
      "30": 1423,
      "##тир": 1424,
      "12": 1425,
      "##гыл": 1426,
      "##окур": 1427,
      "док": 1428,
      "##алат": 1429,
      "##өк": 1430,
      "европ": 1431,
      "кач": 1432,
      "##мк": 1433,
      "##ыгы": 1434,
      "министрлиги": 1435,
      "сын": 1436,
      "курал": 1437,
      "бак": 1438,
      "туура": 1439,
      "##үгү": 1440,
      "министри": 1441,
      "айыпт": 1442,
      "##аев": 1443,
      "##штур": 1444,
      "прокур": 1445,
      "##енин": 1446,
      "аталган": 1447,
      "өмүр": 1448,
      "келишим": 1449,
      "жерде": 1450,
      "ачык": 1451,
      "дек": 1452,
      "кеч": 1453,
      "иши": 1454,
      "акча": 1455,
      "##ны": 1456,
      "##дикт": 1457,
      "төрт": 1458,
      "январ": 1459,
      "соңку": 1460,
      "но": 1461,
      "##дүк": 1462,
      "баары": 1463,
      "##ерг": 1464,
      "коз": 1465,
      "мурда": 1466,
      "докум": 1467,
      "азыркы": 1468,
      "##пай": 1469,
      "ас": 1470,
      "июн": 1471,
      "эскер": 1472,
      "алма": 1473,
      "бүл": 1474,
      "##аман": 1475,
      "акыркы": 1476,
      "##пи": 1477,
      "жолуг": 1478,
      "бан": 1479,
      "ишке": 1480,
      "берди": 1481,
      "##шкөн": 1482,
      "ти": 1483,
      "##ымында": 1484,
      "билим": 1485,
      "##циялык": 1486,
      "дал": 1487,
      "арыз": 1488,
      "оорук": 1489,
      "милиция": 1490,
      "сы": 1491,
      "элект": 1492,
      "##руп": 1493,
      "карата": 1494,
      "актив": 1495,
      "өзгөчө": 1496,
      "доб": 1497,
      "респ": 1498,
      "##густ": 1499,
      "кырдаал": 1500,
      "август": 1501,
      "болчу": 1502,
      "кошум": 1503,
      "багы": 1504,
      "##түү": 1505,
      "жаг": 1506,
      "сп": 1507,
      "сунушт": 1508,
      "башчысы": 1509,
      "##ерс": 1510,
      "аймактар": 1511,
      "эгер": 1512,
      "кеңештин": 1513,
      "салам": 1514,
      "би": 1515,
      "##дуктан": 1516,
      "өкмөтт": 1517,
      "ала": 1518,
      "сактоо": 1519,
      "тем": 1520,
      "##бы": 1521,
      "нур": 1522,
      "##огу": 1523,
      "министрлиг": 1524,
      "уюштур": 1525,
      "республ": 1526,
      "##атур": 1527,
      "укук": 1528,
      "##абр": 1529,
      "жатышат": 1530,
      "##чылык": 1531,
      "ыр": 1532,
      "##ктын": 1533,
      "ишен": 1534,
      "ыс": 1535,
      "мат": 1536,
      "айтымында": 1537,
      "саны": 1538,
      "##ед": 1539,
      "##етинин": 1540,
      "тышкы": 1541,
      "басма": 1542,
      "экинчи": 1543,
      "сент": 1544,
      "облуст": 1545,
      "##сына": 1546,
      "##ылат": 1547,
      "чаб": 1548,
      "##лардын": 1549,
      "##рал": 1550,
      "баштаган": 1551,
      "ис": 1552,
      "ооган": 1553,
      "жаштагы": 1554,
      "макул": 1555,
      "##екс": 1556,
      "##еги": 1557,
      "наар": 1558,
      "наараз": 1559,
      "жылга": 1560,
      "азия": 1561,
      "салуу": 1562,
      "өтө": 1563,
      "кабарл": 1564,
      "укмк": 1565,
      "бүт": 1566,
      "##рат": 1567,
      "маалыматтар": 1568,
      "дин": 1569,
      "корруп": 1570,
      "##диг": 1571,
      "##ама": 1572,
      "арасында": 1573,
      "##ыт": 1574,
      "##ерлер": 1575,
      "токтот": 1576,
      "##аларды": 1577,
      "жо": 1578,
      "баткен": 1579,
      "тынч": 1580,
      "ушундай": 1581,
      "белгилүү": 1582,
      "##унан": 1583,
      "тары": 1584,
      "ол": 1585,
      "кармалган": 1586,
      "200": 1587,
      "тарых": 1588,
      "жүз": 1589,
      "##чиси": 1590,
      "##ьер": 1591,
      "14": 1592,
      "камсыз": 1593,
      "декабр": 1594,
      "##эр": 1595,
      "##адагы": 1596,
      "келтир": 1597,
      "окуу": 1598,
      "коомдук": 1599,
      "##дим": 1600,
      "18": 1601,
      "каран": 1602,
      "##өкт": 1603,
      "адамдар": 1604,
      "аскердик": 1605,
      "алга": 1606,
      "##есин": 1607,
      "виде": 1608,
      "су": 1609,
      "мамил": 1610,
      "антк": 1611,
      "милд": 1612,
      "көбөй": 1613,
      "##юу": 1614,
      "13": 1615,
      "жээ": 1616,
      "өтүп": 1617,
      "##асир": 1618,
      "прем": 1619,
      "аж": 1620,
      "шаарында": 1621,
      "##хн": 1622,
      "күчтөр": 1623,
      "коюл": 1624,
      "электр": 1625,
      "был": 1626,
      "газ": 1627,
      "берен": 1628,
      "##дарын": 1629,
      "ку": 1630,
      "эт": 1631,
      "зар": 1632,
      "бр": 1633,
      "##еби": 1634,
      "күрөш": 1635,
      "16": 1636,
      "маселе": 1637,
      "абад": 1638,
      "акция": 1639,
      "##олгон": 1640,
      "былтыр": 1641,
      "сист": 1642,
      "экономикалык": 1643,
      "##тка": 1644,
      "17": 1645,
      "кл": 1646,
      "талапкер": 1647,
      "баз": 1648,
      "##баган": 1649,
      "айында": 1650,
      "##утин": 1651,
      "чын": 1652,
      "жайга": 1653,
      "##рация": 1654,
      "бош": 1655,
      "таасир": 1656,
      "путин": 1657,
      "шт": 1658,
      "өр": 1659,
      "жара": 1660,
      "мөөн": 1661,
      "июл": 1662,
      "тапшыр": 1663,
      "украинанын": 1664,
      "мис": 1665,
      "аген": 1666,
      "жетекчил": 1667,
      "премьер": 1668,
      "сыя": 1669,
      "куб": 1670,
      "мигран": 1671,
      "карап": 1672,
      "##арт": 1673,
      "барып": 1674,
      "ортос": 1675,
      "##озиция": 1676,
      "##үлүп": 1677,
      "так": 1678,
      "##үшү": 1679,
      "аракетт": 1680,
      "комиссия": 1681,
      "25": 1682,
      "##гу": 1683,
      "уз": 1684,
      "дейт": 1685,
      "толук": 1686,
      "кен": 1687,
      "тиеш": 1688,
      "корк": 1689,
      "##тик": 1690,
      "мыйзамсыз": 1691,
      "алгач": 1692,
      "ча": 1693,
      "##др": 1694,
      "жүрүп": 1695,
      "нат": 1696,
      "бур": 1697,
      "түшт": 1698,
      "##бу": 1699,
      "##ишкен": 1700,
      "##тин": 1701,
      "депутат": 1702,
      "фев": 1703,
      "##үнөн": 1704,
      "сыяктуу": 1705,
      "##шер": 1706,
      "тартып": 1707,
      "##ерге": 1708,
      "арал": 1709,
      "ашык": 1710,
      "тургун": 1711,
      "##оолор": 1712,
      "оюн": 1713,
      "##дыктар": 1714,
      "феврал": 1715,
      "##чылар": 1716,
      "##дөгү": 1717,
      "чабуул": 1718,
      "илим": 1719,
      "##акт": 1720,
      "##ортт": 1721,
      "##ияда": 1722,
      "жатканы": 1723,
      "болушу": 1724,
      "соо": 1725,
      "##дап": 1726,
      "койгон": 1727,
      "ток": 1728,
      "караб": 1729,
      "райондук": 1730,
      "алдында": 1731,
      "түнкү": 1732,
      "түшүндүр": 1733,
      "анткени": 1734,
      "там": 1735,
      "иран": 1736,
      "жеке": 1737,
      "иштеген": 1738,
      "эск": 1739,
      "тең": 1740,
      "барган": 1741,
      "октябрда": 1742,
      "##штыр": 1743,
      "##угу": 1744,
      "коомчул": 1745,
      "ойл": 1746,
      "##иши": 1747,
      "президенттин": 1748,
      "##тык": 1749,
      "агентт": 1750,
      "про": 1751,
      "текшер": 1752,
      "басары": 1753,
      "төрагасы": 1754,
      "техн": 1755,
      "##үрүү": 1756,
      "добуш": 1757,
      "президенттик": 1758,
      "болгонун": 1759,
      "топт": 1760,
      "жетк": 1761,
      "кайсы": 1762,
      "млн": 1763,
      "##алары": 1764,
      "муну": 1765,
      "сатып": 1766,
      "козг": 1767,
      "##ост": 1768,
      "айтылган": 1769,
      "согуш": 1770,
      "чыкты": 1771,
      "саб": 1772,
      "вир": 1773,
      "жарандык": 1774,
      "##жан": 1775,
      "##ланды": 1776,
      "бала": 1777,
      "октябр": 1778,
      "##лары": 1779,
      "жыйынты": 1780,
      "##дарынын": 1781,
      "сый": 1782,
      "##дүз": 1783,
      "өндүр": 1784,
      "күндүз": 1785,
      "##ыктар": 1786,
      "көч": 1787,
      "бей": 1788,
      "салын": 1789,
      "медицин": 1790,
      "##ич": 1791,
      "активист": 1792,
      "##дери": 1793,
      "энерг": 1794,
      "##догон": 1795,
      "##шты": 1796,
      "бийлиги": 1797,
      "шаардык": 1798,
      "экспер": 1799,
      "ади": 1800,
      "##улуп": 1801,
      "билдирүү": 1802,
      "жумуш": 1803,
      "##уулар": 1804,
      "колдоо": 1805,
      "##кын": 1806,
      "көрсөтк": 1807,
      "##раил": 1808,
      "му": 1809,
      "##сынан": 1810,
      "##демия": 1811,
      "##тип": 1812,
      "##айым": 1813,
      "##ститу": 1814,
      "оң": 1815,
      "24": 1816,
      "##бул": 1817,
      "эмг": 1818,
      "кул": 1819,
      "ишкан": 1820,
      "план": 1821,
      "##ынча": 1822,
      "пан": 1823,
      "##атта": 1824,
      "израил": 1825,
      "##усу": 1826,
      "коррупция": 1827,
      "интер": 1828,
      "прокуратур": 1829,
      "##кул": 1830,
      "ашуун": 1831,
      "алтын": 1832,
      "##чал": 1833,
      "##дөй": 1834,
      "максат": 1835,
      "өзүнүн": 1836,
      "кап": 1837,
      "мүчө": 1838,
      "##индеги": 1839,
      "##ыктын": 1840,
      "##дыгы": 1841,
      "соода": 1842,
      "майда": 1843,
      "конститу": 1844,
      "журналисттер": 1845,
      "##игин": 1846,
      "##биз": 1847,
      "министрлигинин": 1848,
      "керект": 1849,
      "ыра": 1850,
      "##гынын": 1851,
      "атам": 1852,
      "жолугуш": 1853,
      "мадан": 1854,
      "кайт": 1855,
      "саат": 1856,
      "##мак": 1857,
      "күт": 1858,
      "тышкары": 1859,
      "мүмкүнчүл": 1860,
      "күй": 1861,
      "##дарына": 1862,
      "##ограм": 1863,
      "башталган": 1864,
      "берет": 1865,
      "сай": 1866,
      "такт": 1867,
      "өкүлү": 1868,
      "##ктылуу": 1869,
      "мектеп": 1870,
      "##аль": 1871,
      "анан": 1872,
      "маалыматына": 1873,
      "негизги": 1874,
      "комм": 1875,
      "кызматкерлер": 1876,
      "##ардык": 1877,
      "кайтар": 1878,
      "ысык": 1879,
      "акшнын": 1880,
      "аларды": 1881,
      "##тко": 1882,
      "көң": 1883,
      "берилген": 1884,
      "ошондуктан": 1885,
      "тизм": 1886,
      "өзүн": 1887,
      "жазган": 1888,
      "түнкүсүн": 1889,
      "элдик": 1890,
      "келди": 1891,
      "жеткир": 1892,
      "маш": 1893,
      "##ттуу": 1894,
      "көңүл": 1895,
      "полиция": 1896,
      "жээн": 1897,
      "##бак": 1898,
      "##жы": 1899,
      "##стр": 1900,
      "ир": 1901,
      "##ордук": 1902,
      "изил": 1903,
      "саламаттык": 1904,
      "мекен": 1905,
      "2020": 1906,
      "дарыгер": 1907,
      "жу": 1908,
      "##мыл": 1909,
      "экени": 1910,
      "жагдай": 1911,
      "фон": 1912,
      "тел": 1913,
      "белгиледи": 1914,
      "##ңгээ": 1915,
      "байк": 1916,
      "##аттын": 1917,
      "деңгээ": 1918,
      "дүйнөлүк": 1919,
      "документт": 1920,
      "##өрү": 1921,
      "ооганстан": 1922,
      "жалал": 1923,
      "өкүлдөрү": 1924,
      "##кери": 1925,
      "##ттү": 1926,
      "согушт": 1927,
      "##за": 1928,
      "##догу": 1929,
      "##орм": 1930,
      "маалымда": 1931,
      "систем": 1932,
      "тыюу": 1933,
      "##елүү": 1934,
      "сок": 1935,
      "си": 1936,
      "##дердин": 1937,
      "кылмышт": 1938,
      "жарым": 1939,
      "бөлүм": 1940,
      "##тон": 1941,
      "22": 1942,
      "##иц": 1943,
      "мартта": 1944,
      "кыймыл": 1945,
      "зарыл": 1946,
      "##ушка": 1947,
      "кийинки": 1948,
      "кезде": 1949,
      "жазды": 1950,
      "убактылуу": 1951,
      "100": 1952,
      "алты": 1953,
      "амер": 1954,
      "фин": 1955,
      "тез": 1956,
      "##диги": 1957,
      "##еж": 1958,
      "кыргызстанга": 1959,
      "сүрөтт": 1960,
      "##аттары": 1961,
      "жабыр": 1962,
      "кит": 1963,
      "##етте": 1964,
      "августта": 1965,
      "##хан": 1966,
      "өнүкт": 1967,
      "опер": 1968,
      "ада": 1969,
      "\",-": 1970,
      "мигранттар": 1971,
      "азырынча": 1972,
      "##ганын": 1973,
      "ишин": 1974,
      "опп": 1975,
      "шект": 1976,
      "##аса": 1977,
      "##укка": 1978,
      "##сүндө": 1979,
      "жетекчиси": 1980,
      "##ектин": 1981,
      "иликтөө": 1982,
      "на": 1983,
      "реф": 1984,
      "пайд": 1985,
      "балдар": 1986,
      "##дж": 1987,
      "жатабыз": 1988,
      "учурунда": 1989,
      "дайын": 1990,
      "код": 1991,
      "жылдары": 1992,
      "##ээр": 1993,
      "пайда": 1994,
      "##үшт": 1995,
      "темир": 1996,
      "сиз": 1997,
      "башкарм": 1998,
      "салган": 1999,
      "апрелде": 2000,
      "айлан": 2001,
      "ири": 2002,
      "##онун": 2003,
      "демок": 2004,
      "сез": 2005,
      "бошот": 2006,
      "##кат": 2007,
      "бере": 2008,
      "алууга": 2009,
      "котор": 2010,
      "канча": 2011,
      "авто": 2012,
      "сул": 2013,
      "мун": 2014,
      "башында": 2015,
      "##ганы": 2016,
      "кум": 2017,
      "##ала": 2018,
      "##кция": 2019,
      "болгону": 2020,
      "ноябрда": 2021,
      "вла": 2022,
      "##дум": 2023,
      "жоопкер": 2024,
      "элдин": 2025,
      "коркуну": 2026,
      "урук": 2027,
      "катышкан": 2028,
      "өлүм": 2029,
      "##алардын": 2030,
      "мөөнөт": 2031,
      "##кө": 2032,
      "##кин": 2033,
      "депутаттар": 2034,
      "адм": 2035,
      "талкуу": 2036,
      "оорукана": 2037,
      "кетти": 2038,
      "ташт": 2039,
      "23": 2040,
      "##ларга": 2041,
      "европа": 2042,
      "уулу": 2043,
      "бейт": 2044,
      "##имов": 2045,
      "##түр": 2046,
      "##ият": 2047,
      "кирген": 2048,
      "брит": 2049,
      "сам": 2050,
      "##гөй": 2051,
      "кыргызстандык": 2052,
      "21": 2053,
      "бю": 2054,
      "##илүү": 2055,
      "##ого": 2056,
      "##етр": 2057,
      "иштери": 2058,
      "##даш": 2059,
      "алка": 2060,
      "тараб": 2061,
      "алат": 2062,
      "ишмер": 2063,
      "басып": 2064,
      "ый": 2065,
      "калы": 2066,
      "облусунун": 2067,
      "##деген": 2068,
      "##ограмм": 2069,
      "##оону": 2070,
      "кү": 2071,
      "##ологиялык": 2072,
      "жазылган": 2073,
      "белги": 2074,
      "2021": 2075,
      "себеп": 2076,
      "##емб": 2077,
      "от": 2078,
      "##егинде": 2079,
      "шайл": 2080,
      "##гар": 2081,
      "акыл": 2082,
      "##ология": 2083,
      "акч": 2084,
      "үст": 2085,
      "арт": 2086,
      "бүлө": 2087,
      "##димир": 2088,
      "жиб": 2089,
      "себеби": 2090,
      "##бол": 2091,
      "укукт": 2092,
      "талиб": 2093,
      "украинага": 2094,
      "жоопкерчил": 2095,
      "28": 2096,
      "убак": 2097,
      "##етин": 2098,
      "ажыр": 2099,
      "владимир": 2100,
      "кызык": 2101,
      "##ттер": 2102,
      "облусунда": 2103,
      "чүй": 2104,
      "катуу": 2105,
      "белар": 2106,
      "2022": 2107,
      "маанилүү": 2108,
      "гер": 2109,
      "түшкөн": 2110,
      "##тке": 2111,
      "##рес": 2112,
      "келин": 2113,
      "ден": 2114,
      "көй": 2115,
      "маселелер": 2116,
      "##суна": 2117,
      "армия": 2118,
      "##ov": 2119,
      "белгилен": 2120,
      "кызматынын": 2121,
      "кээ": 2122,
      "абдан": 2123,
      "көпчүл": 2124,
      "кайрылуу": 2125,
      "##на": 2126,
      "##аларын": 2127,
      "маалыматка": 2128,
      "##ибиз": 2129,
      "июнда": 2130,
      "27": 2131,
      "жашоо": 2132,
      "кошумчал": 2133,
      "сентябрда": 2134,
      "жээнбеков": 2135,
      "миңден": 2136,
      "шайлоого": 2137,
      "бирим": 2138,
      "кала": 2139,
      "кыск": 2140,
      "##абы": 2141,
      "эрт": 2142,
      "##бөй": 2143,
      "##арга": 2144,
      "январда": 2145,
      "аскерлер": 2146,
      "реж": 2147,
      "##чүлөр": 2148,
      "##че": 2149,
      "декабрда": 2150,
      "курман": 2151,
      "дарыл": 2152,
      "ради": 2153,
      "имар": 2154,
      "каал": 2155,
      "жарат": 2156,
      "кыргызстандагы": 2157,
      "ий": 2158,
      "башкармалы": 2159,
      "оппозиция": 2160,
      "кама": 2161,
      "##бейт": 2162,
      "азаттыкка": 2163,
      "бейтап": 2164,
      "адист": 2165,
      "##асындагы": 2166,
      "##елген": 2167,
      "##уучулар": 2168,
      "##ара": 2169,
      "алб": 2170,
      "кетип": 2171,
      "пандемия": 2172,
      "казакстандын": 2173,
      "##итардык": 2174,
      "жаза": 2175,
      "##син": 2176,
      "негизинде": 2177,
      "орто": 2178,
      "чейинки": 2179,
      "менин": 2180,
      "сунуш": 2181,
      "келе": 2182,
      "калып": 2183,
      "##арий": 2184,
      "адамдын": 2185,
      "атамбаев": 2186,
      "##ияга": 2187,
      "мит": 2188,
      "үн": 2189,
      "сотко": 2190,
      "##мон": 2191,
      "##ишти": 2192,
      "ман": 2193,
      "##орлор": 2194,
      "алкагында": 2195,
      "деңгээл": 2196,
      "министрлер": 2197,
      "инв": 2198,
      "##далган": 2199,
      "мурун": 2200,
      "адв": 2201,
      "уруксат": 2202,
      "26": 2203,
      "көйгөй": 2204,
      "оору": 2205,
      "##ах": 2206,
      "интерн": 2207,
      "##ский": 2208,
      "##орун": 2209,
      "ык": 2210,
      "адвок": 2211,
      "москва": 2212,
      "тиешелүү": 2213,
      "пайыз": 2214,
      "өнөкт": 2215,
      "##мо": 2216,
      "илд": 2217,
      "199": 2218,
      "тран": 2219,
      "##өшт": 2220,
      "##аттан": 2221,
      "гр": 2222,
      "##ард": 2223,
      "тоол": 2224,
      "орусияда": 2225,
      "инвест": 2226,
      "##оонун": 2227,
      "алгачкы": 2228,
      "##мөн": 2229,
      "макс": 2230,
      "##сул": 2231,
      "##сак": 2232,
      "жети": 2233,
      "өкмөттүн": 2234,
      "баштады": 2235,
      "##дыктан": 2236,
      "терр": 2237,
      "##бү": 2238,
      "##фон": 2239,
      "рак": 2240,
      "төм": 2241,
      "##ттан": 2242,
      "төмөн": 2243,
      "##сүз": 2244,
      "##ыштыр": 2245,
      "вак": 2246,
      "айтылат": 2247,
      "колдо": 2248,
      "##есине": 2249,
      "пайдалан": 2250,
      "көрүн": 2251,
      "медициналык": 2252,
      "##ымал": 2253,
      "жерлер": 2254,
      "##үүчү": 2255,
      "кабарлады": 2256,
      "жеңил": 2257,
      "эске": 2258,
      "зом": 2259,
      "камакка": 2260,
      "##id": 2261,
      "жайгашкан": 2262,
      "мисалы": 2263,
      "нер": 2264,
      "сайын": 2265,
      "ашыр": 2266,
      "ыкт": 2267,
      "муз": 2268,
      "орусиялык": 2269,
      "##рон": 2270,
      "катчысы": 2271,
      "зомбул": 2272,
      "жарыялаган": 2273,
      "басым": 2274,
      "тай": 2275,
      "шек": 2276,
      "##газ": 2277,
      "##үүнүн": 2278,
      "##өөлөр": 2279,
      "##деп": 2280,
      "кызматкерлери": 2281,
      "борбордук": 2282,
      "дир": 2283,
      "об": 2284,
      "жатып": 2285,
      "бюдж": 2286,
      "##ыйж": 2287,
      "жашаган": 2288,
      "натыйж": 2289,
      "50": 2290,
      "##ебиз": 2291,
      "##өнү": 2292,
      "уюмунун": 2293,
      "өттү": 2294,
      "демил": 2295,
      "кеп": 2296,
      "басыл": 2297,
      "украина": 2298,
      "бизге": 2299,
      "июлда": 2300,
      "көрүп": 2301,
      "жерге": 2302,
      "##актар": 2303,
      "инф": 2304,
      "операция": 2305,
      "##рд": 2306,
      "коркунуч": 2307,
      "мэр": 2308,
      "чыгыш": 2309,
      "өзгөрт": 2310,
      "млрд": 2311,
      "уча": 2312,
      "##ти": 2313,
      "##дөгөн": 2314,
      "##дерди": 2315,
      "нааразылык": 2316,
      "митинг": 2317,
      "вакцин": 2318,
      "##еттин": 2319,
      "##иверс": 2320,
      "автоуна": 2321,
      "эреж": 2322,
      "четке": 2323,
      "республик": 2324,
      "эмгек": 2325,
      "милдетт": 2326,
      "нерсе": 2327,
      "ордун": 2328,
      "зы": 2329,
      "кабин": 2330,
      "##иштүү": 2331,
      "ары": 2332,
      "салып": 2333,
      "жакт": 2334,
      "соту": 2335,
      "бет": 2336,
      "демократ": 2337,
      "белгисиз": 2338,
      "##ңыз": 2339,
      "2019": 2340,
      "##алап": 2341,
      "##алдуу": 2342,
      "##ентарий": 2343,
      "чогул": 2344,
      "##ылыш": 2345,
      "##арынын": 2346,
      "күндө": 2347,
      "туш": 2348,
      "аларга": 2349,
      "арада": 2350,
      "герман": 2351,
      "депутаты": 2352,
      "тарабынан": 2353,
      "##гем": 2354,
      "каражат": 2355,
      "##лом": 2356,
      "элчил": 2357,
      "катталган": 2358,
      "сар": 2359,
      "универс": 2360,
      "##од": 2361,
      "жөнөт": 2362,
      "өткөрүп": 2363,
      "лидер": 2364,
      "##ыгын": 2365,
      "##on": 2366,
      "комментарий": 2367,
      "видео": 2368,
      "##гүл": 2369,
      "аймагында": 2370,
      "баштап": 2371,
      "теле": 2372,
      "тан": 2373,
      "дээр": 2374,
      "##ья": 2375,
      "арм": 2376,
      "абд": 2377,
      "ачыл": 2378,
      "##байт": 2379,
      "өс": 2380,
      "трам": 2381,
      "дип": 2382,
      "сүйлөшүүлөр": 2383,
      "мунун": 2384,
      "ракет": 2385,
      "тов": 2386,
      "санкция": 2387,
      "парламент": 2388,
      "##шкен": 2389,
      "дон": 2390,
      "##өгө": 2391,
      "##аг": 2392,
      "диплом": 2393,
      "##ош": 2394,
      "##беген": 2395,
      "трамп": 2396,
      "мез": 2397,
      "##өрүн": 2398,
      "кыйын": 2399,
      "коопсузду": 2400,
      "дээрлик": 2401,
      "тармактар": 2402,
      "тууган": 2403,
      "университ": 2404,
      "мезгил": 2405,
      "тапкан": 2406,
      "##алим": 2407,
      "директ": 2408,
      "##ңиз": 2409,
      "түштүк": 2410,
      "жактан": 2411,
      "до": 2412,
      "шарт": 2413,
      "февралда": 2414,
      "башчы": 2415,
      "куу": 2416,
      "тоо": 2417,
      "29": 2418,
      "бишкектин": 2419,
      "парламенттик": 2420,
      "спорт": 2421,
      "жибер": 2422,
      "##есинин": 2423,
      "cov": 2424,
      "киев": 2425,
      "##уусу": 2426,
      "жазып": 2427,
      "салык": 2428,
      "миллиард": 2429,
      "##бө": 2430,
      "бирик": 2431,
      "##дыгын": 2432,
      "жакында": 2433,
      "кас": 2434,
      "кадам": 2435,
      "##ону": 2436,
      "бийлиг": 2437,
      "##ылганын": 2438,
      "ичинен": 2439,
      "##сүнө": 2440,
      "##елен": 2441,
      "жогору": 2442,
      "чакырды": 2443,
      "соттун": 2444,
      "чыга": 2445,
      "жыйынында": 2446,
      "гүл": 2447,
      "кесип": 2448,
      "##сунда": 2449,
      "таг": 2450,
      "кым": 2451,
      "##устун": 2452,
      "сыртк": 2453,
      "тажикстандын": 2454,
      "кодекс": 2455,
      "бл": 2456,
      "орусияга": 2457,
      "чыгарып": 2458,
      "куралдуу": 2459,
      "##ирим": 2460,
      "кытайдын": 2461,
      "##пөй": 2462,
      "түрдө": 2463,
      "барак": 2464,
      "матери": 2465,
      "ту": 2466,
      "##сө": 2467,
      "окуялар": 2468,
      "каранды": 2469,
      "##илер": 2470,
      "##аларга": 2471,
      "ислам": 2472,
      "тон": 2473,
      "##үлдү": 2474,
      "батыш": 2475,
      "бү": 2476,
      "сөө": 2477,
      "программ": 2478,
      "түзүлгөн": 2479,
      "тург": 2480,
      "кызматтан": 2481,
      "кумтөр": 2482,
      "суроо": 2483,
      "диний": 2484,
      "тир": 2485,
      "кирип": 2486,
      "##елери": 2487,
      "бишкектеги": 2488,
      "көбү": 2489,
      "covid": 2490,
      "калтыр": 2491,
      "жума": 2492,
      "##аттуу": 2493,
      "өнүктүрүү": 2494,
      "ыраст": 2495,
      "далил": 2496,
      "эп": 2497,
      "##er": 2498,
      "тилк": 2499,
      "боло": 2500,
      "азатт": 2501,
      "##шемб": 2502,
      "түндүк": 2503,
      "лидери": 2504,
      "аян": 2505,
      "коюлган": 2506,
      "баарын": 2507,
      "##алууда": 2508,
      "тоб": 2509,
      "өтүн": 2510,
      "##бур": 2511,
      "укугу": 2512,
      "курам": 2513,
      "андай": 2514,
      "фран": 2515,
      "өнүг": 2516,
      "нар": 2517,
      "банк": 2518,
      "##орду": 2519,
      "бой": 2520,
      "билдирип": 2521,
      "кармап": 2522,
      "таң": 2523,
      "кошумчалады": 2524,
      "кантип": 2525,
      "кыйн": 2526,
      "зыян": 2527,
      "нарын": 2528,
      "фей": 2529,
      "курулуш": 2530,
      "##шу": 2531,
      "бүгүнкү": 2532,
      "жетиш": 2533,
      "улуу": 2534,
      "учурлар": 2535,
      "шаарынын": 2536,
      "өлтүр": 2537,
      "базар": 2538,
      "##еге": 2539,
      "##ыс": 2540,
      "баян": 2541,
      "каражаттар": 2542,
      "сту": 2543,
      "дарыгерлер": 2544,
      "тоолуу": 2545,
      "##лап": 2546,
      "факт": 2547,
      "иштет": 2548,
      "маселеси": 2549,
      "ортосундагы": 2550,
      "##ерен": 2551,
      "##штир": 2552,
      "мүчөлөр": 2553,
      "##исттик": 2554,
      "##уктур": 2555,
      "экономик": 2556,
      "##атив": 2557,
      "сир": 2558,
      "##итт": 2559,
      "##ектен": 2560,
      "жолдо": 2561,
      "радиос": 2562,
      "акы": 2563,
      "турукт": 2564,
      "басылм": 2565,
      "кошумча": 2566,
      "окш": 2567,
      "##ина": 2568,
      "чыгарган": 2569,
      "кайрадан": 2570,
      "##укту": 2571,
      "мүл": 2572,
      "бийликтин": 2573,
      "кымб": 2574,
      "вирус": 2575,
      "тери": 2576,
      "##дордун": 2577,
      "телефон": 2578,
      "чың": 2579,
      "түркия": 2580,
      "доо": 2581,
      "бажы": 2582,
      "инстит": 2583,
      "жашыр": 2584,
      "no": 2585,
      "сер": 2586,
      "үл": 2587,
      "калат": 2588,
      "көргөн": 2589,
      "баракч": 2590,
      "сегиз": 2591,
      "##пар": 2592,
      "алекс": 2593,
      "жабырк": 2594,
      "азаттыктын": 2595,
      "##чулары": 2596,
      "##чулардын": 2597,
      "облустук": 2598,
      "##егер": 2599,
      "көпт": 2600,
      "жасаган": 2601,
      "наз": 2602,
      "бизде": 2603,
      "##өг": 2604,
      "##дүүл": 2605,
      "китеп": 2606,
      "кылуу": 2607,
      "эгем": 2608,
      "аг": 2609,
      "коюп": 2610,
      "мир": 2611,
      "байден": 2612,
      "эгемен": 2613,
      "##өөгө": 2614,
      "мамлекеттин": 2615,
      "районунун": 2616,
      "болбойт": 2617,
      "макулдаш": 2618,
      "сында": 2619,
      "алмаз": 2620,
      "##орон": 2621,
      "##асынан": 2622,
      "акын": 2623,
      "##ея": 2624,
      "карж": 2625,
      "тала": 2626,
      "##ид": 2627,
      "жам": 2628,
      "##чалык": 2629,
      "орн": 2630,
      "##аң": 2631,
      "матра": 2632,
      "сов": 2633,
      "туруп": 2634,
      "мамлекеттер": 2635,
      "##дигин": 2636,
      "жарыяланган": 2637,
      "ташиев": 2638,
      "өлкөдөгү": 2639,
      "муг": 2640,
      "чем": 2641,
      "белгилеп": 2642,
      "бизн": 2643,
      "40": 2644,
      "##ктык": 2645,
      "мал": 2646,
      "айдоо": 2647,
      "мына": 2648,
      "##атор": 2649,
      "мугалим": 2650,
      "31": 2651,
      "##илет": 2652,
      "##гындагы": 2653,
      "ишеним": 2654,
      "кызы": 2655,
      "ишкерлер": 2656,
      "товар": 2657,
      "аттуу": 2658,
      "##жол": 2659,
      "мага": 2660,
      "оорукан": 2661,
      "метр": 2662,
      "##илип": 2663,
      "##оочу": 2664,
      "##сында": 2665,
      "##улат": 2666,
      "каттоо": 2667,
      "күндөрү": 2668,
      "үйлөр": 2669,
      "албетте": 2670,
      "райондор": 2671,
      "##дия": 2672,
      "##етке": 2673,
      "кырсы": 2674,
      "студен": 2675,
      "##буз": 2676,
      "бшк": 2677,
      "##мок": 2678,
      "жарыялады": 2679,
      "##луу": 2680,
      "бөлүн": 2681,
      "##өөл": 2682,
      "чыр": 2683,
      "##уудан": 2684,
      "көчө": 2685,
      "кызматташт": 2686,
      "чемпи": 2687,
      "партиясынын": 2688,
      "жалпысынан": 2689,
      "коронавируска": 2690,
      "ыктымал": 2691,
      "##гынан": 2692,
      "##циянын": 2693,
      "аск": 2694,
      "телек": 2695,
      "админист": 2696,
      "көлөм": 2697,
      "адамдардын": 2698,
      "мамиле": 2699,
      "өч": 2700,
      "канал": 2701,
      "өкмөтү": 2702,
      "##елип": 2703,
      "кеңешинин": 2704,
      "##чусу": 2705,
      "чара": 2706,
      "мин": 2707,
      "маалыматты": 2708,
      "сентябр": 2709,
      "режим": 2710,
      "ди": 2711,
      "таян": 2712,
      "долбоору": 2713,
      "бийликке": 2714,
      "апта": 2715,
      "сырткары": 2716,
      "шаарындагы": 2717,
      "аныкталган": 2718,
      "максатында": 2719,
      "##едер": 2720,
      "##йр": 2721,
      "кадыр": 2722,
      "өзбекстандын": 2723,
      "##ma": 2724,
      "администрация": 2725,
      "##еттик": 2726,
      "абалы": 2727,
      "дүйш": 2728,
      "азер": 2729,
      "##дөп": 2730,
      "карабай": 2731,
      "кызматкери": 2732,
      "башкаруу": 2733,
      "териштир": 2734,
      "бут": 2735,
      "##бан": 2736,
      "энергет": 2737,
      "азербай": 2738,
      "жуг": 2739,
      "зелен": 2740,
      "##укта": 2741,
      "##олд": 2742,
      "кишинин": 2743,
      "айтканда": 2744,
      "айынан": 2745,
      "аль": 2746,
      "жылдар": 2747,
      "##бия": 2748,
      "##ашкан": 2749,
      "жылдагы": 2750,
      "##алда": 2751,
      "кылды": 2752,
      "миңдей": 2753,
      "уг": 2754,
      "жарак": 2755,
      "украинадагы": 2756,
      "эст": 2757,
      "болуш": 2758,
      "турм": 2759,
      "изилдөө": 2760,
      "карашт": 2761,
      "##мин": 2762,
      "тапта": 2763,
      "көрсөткүч": 2764,
      "алм": 2765,
      "##есинде": 2766,
      "ортосунда": 2767,
      "коргон": 2768,
      "аякт": 2769,
      "ирет": 2770,
      "##улду": 2771,
      "кызыкчыл": 2772,
      "токто": 2773,
      "жокко": 2774,
      "мүчөсү": 2775,
      "үм": 2776,
      "багытт": 2777,
      "султан": 2778,
      "ишкер": 2779,
      "укуктар": 2780,
      "мед": 2781,
      "сайт": 2782,
      "камчы": 2783,
      "##матов": 2784,
      "##атр": 2785,
      "зеленский": 2786,
      "манас": 2787,
      "мыкты": 2788,
      "түшүп": 2789,
      "жакта": 2790,
      "жаңж": 2791,
      "чечими": 2792,
      "##арына": 2793,
      "##үндөгү": 2794,
      "качан": 2795,
      "тог": 2796,
      "өзүнө": 2797,
      "уур": 2798,
      "аялдар": 2799,
      "талкуул": 2800,
      "эксперт": 2801,
      "##туп": 2802,
      "соорон": 2803,
      "түзгөн": 2804,
      "##акция": 2805,
      "##уман": 2806,
      "##цион": 2807,
      "барат": 2808,
      "салынган": 2809,
      "##пей": 2810,
      "тегер": 2811,
      "##орма": 2812,
      "коң": 2813,
      "козголгон": 2814,
      "бараткан": 2815,
      "түркмөн": 2816,
      "##ад": 2817,
      "кызыл": 2818,
      "алыш": 2819,
      "##елерди": 2820,
      "отурган": 2821,
      "##олду": 2822,
      "улант": 2823,
      "кодексинин": 2824,
      "беренеси": 2825,
      "сүрөттүн": 2826,
      "алганын": 2827,
      "кана": 2828,
      "мүнө": 2829,
      "тартылган": 2830,
      "##өйр": 2831,
      "##олуп": 2832,
      "март": 2833,
      "2023": 2834,
      "##көм": 2835,
      "калк": 2836,
      "##ларын": 2837,
      "азербайжан": 2838,
      "согушка": 2839,
      "##ушкан": 2840,
      "жетект": 2841,
      "##баева": 2842,
      "уюму": 2843,
      "аппар": 2844,
      "карантин": 2845,
      "##юз": 2846,
      "##ti": 2847,
      "бериш": 2848,
      "иим": 2849,
      "берүүгө": 2850,
      "бою": 2851,
      "тарат": 2852,
      "уюмдар": 2853,
      "ноябр": 2854,
      "жеткен": 2855,
      "кесеп": 2856,
      "маалымдады": 2857,
      "мел": 2858,
      "тарткан": 2859,
      "виц": 2860,
      "##аниянын": 2861,
      "белгилеген": 2862,
      "байланыш": 2863,
      "түл": 2864,
      "үчүнчү": 2865,
      "бөлүгү": 2866,
      "трансп": 2867,
      "ката": 2868,
      "киреш": 2869,
      "##илди": 2870,
      "карма": 2871,
      "жарандар": 2872,
      "бийликти": 2873,
      "мус": 2874,
      "калганын": 2875,
      "кабарлаган": 2876,
      "вице": 2877,
      "чук": 2878,
      "эсеб": 2879,
      "олим": 2880,
      "##ини": 2881,
      "##асп": 2882,
      "комитетинин": 2883,
      "##зия": 2884,
      "бара": 2885,
      "ошент": 2886,
      "өлкөгө": 2887,
      "шайлоодо": 2888,
      "##ушту": 2889,
      "саясатчы": 2890,
      "фейс": 2891,
      "\".": 2892,
      "кармалып": 2893,
      "##тал": 2894,
      "##обирим": 2895,
      "евробирим": 2896,
      "курч": 2897,
      "##иф": 2898,
      "болбой": 2899,
      "үз": 2900,
      "жылды": 2901,
      "суроолор": 2902,
      "катышуу": 2903,
      "карш": 2904,
      "болорун": 2905,
      "##игине": 2906,
      "тынчтык": 2907,
      "бирин": 2908,
      "проц": 2909,
      "бирг": 2910,
      "##истан": 2911,
      "өнөр": 2912,
      "казакстанда": 2913,
      "кабылган": 2914,
      "көк": 2915,
      "сокку": 2916,
      "##алоо": 2917,
      "жараны": 2918,
      "салыштыр": 2919,
      "демилг": 2920,
      "##ков": 2921,
      "##сек": 2922,
      "##андын": 2923,
      "көпчүлүк": 2924,
      "##иси": 2925,
      "күчөт": 2926,
      "##ларда": 2927,
      "маалда": 2928,
      "ишти": 2929,
      "##үктөр": 2930,
      "инвестиция": 2931,
      "##сиянын": 2932,
      "экс": 2933,
      "стат": 2934,
      "рос": 2935,
      "жылда": 2936,
      "энергия": 2937,
      "чукул": 2938,
      "парламенттин": 2939,
      "элге": 2940,
      "өкүм": 2941,
      "##ева": 2942,
      "түй": 2943,
      "кабинетинин": 2944,
      "ын": 2945,
      "маданият": 2946,
      "жабыркаган": 2947,
      "ни": 2948,
      "пак": 2949,
      "жүрүш": 2950,
      "сомго": 2951,
      "##үлөт": 2952,
      "конституциялык": 2953,
      "белгиленген": 2954,
      "буйр": 2955,
      "аэр": 2956,
      "##есс": 2957,
      "албайт": 2958,
      "убакыт": 2959,
      "чогуу": 2960,
      "ыйгар": 2961,
      "буу": 2962,
      "талас": 2963,
      "соттук": 2964,
      "сапар": 2965,
      "ордуна": 2966,
      "##мит": 2967,
      "корея": 2968,
      "##дерге": 2969,
      "аст": 2970,
      "##исттер": 2971,
      "аты": 2972,
      "##дыруу": 2973,
      "мектепт": 2974,
      "долбоорун": 2975,
      "тартип": 2976,
      "октябрь": 2977,
      "##ью": 2978,
      "айтылып": 2979,
      "ошондо": 2980,
      "кайрылган": 2981,
      "кезекте": 2982,
      "турак": 2983,
      "команда": 2984,
      "ойн": 2985,
      "жасап": 2986,
      "эгерде": 2987,
      "##атыр": 2988,
      "##хам": 2989,
      "суд": 2990,
      "жараат": 2991,
      "телекан": 2992,
      "тогуз": 2993,
      "мекеменин": 2994,
      "фр": 2995,
      "нерс": 2996,
      "##алышы": 2997,
      "койду": 2998,
      "кайрыл": 2999,
      "##өткө": 3000,
      "топтор": 3001,
      "материал": 3002,
      "карыз": 3003,
      "##баевдин": 3004,
      "таз": 3005,
      "убада": 3006,
      "прокуратура": 3007,
      "пен": 3008,
      "##ңар": 3009,
      "##шти": 3010,
      "борбору": 3011,
      "2018": 3012,
      "сүрөт": 3013,
      "сен": 3014,
      "өтөт": 3015,
      "бекем": 3016,
      "айда": 3017,
      "##тти": 3018,
      "##угун": 3019,
      "туруктуу": 3020,
      "күм": 3021,
      "кыргызстандыктар": 3022,
      "##аламан": 3023,
      "мыйзамга": 3024,
      "кескин": 3025,
      "жерден": 3026,
      "араб": 3027,
      "жашап": 3028,
      "акылбек": 3029,
      "##дөрүнүн": 3030,
      "сомдон": 3031,
      "маселени": 3032,
      "##гып": 3033,
      "эсептейт": 3034,
      "жетти": 3035,
      "жалгыз": 3036,
      "керектигин": 3037,
      "ген": 3038,
      "корго": 3039,
      "##анды": 3040,
      "алынып": 3041,
      "##уктун": 3042,
      "уна": 3043,
      "башаламан": 3044,
      "ооруканага": 3045,
      "##амат": 3046,
      "стан": 3047,
      "##ордун": 3048,
      "##өөк": 3049,
      "тилек": 3050,
      "отурум": 3051,
      "финан": 3052,
      "директору": 3053,
      "экөө": 3054,
      "мон": 3055,
      "фут": 3056,
      "тарта": 3057,
      "бөгө": 3058,
      "жылдык": 3059,
      "аман": 3060,
      "мекемелер": 3061,
      "башкармалыгынын": 3062,
      "(\"": 3063,
      "сум": 3064,
      "билдиргендей": 3065,
      "жакка": 3066,
      "киргизилген": 3067,
      "насы": 3068,
      "тараткан": 3069,
      "иштерин": 3070,
      "##аков": 3071,
      "аракети": 3072,
      "##уд": 3073,
      "мени": 3074,
      "ондогон": 3075,
      "жыйынтыгы": 3076,
      "чөйр": 3077,
      "##рый": 3078,
      "күнөөл": 3079,
      "##ашып": 3080,
      "##бөл": 3081,
      "түркиянын": 3082,
      "##чар": 3083,
      "маж": 3084,
      "таза": 3085,
      "америкалык": 3086,
      "60": 3087,
      "штаб": 3088,
      "тажрый": 3089,
      "активисттер": 3090,
      "жаман": 3091,
      "азай": 3092,
      "алынды": 3093,
      "күйөө": 3094,
      "айта": 3095,
      "##сан": 3096,
      "зав": 3097,
      "бириккен": 3098,
      "көптөгөн": 3099,
      "футбол": 3100,
      "каттам": 3101,
      "кошт": 3102,
      "жасал": 3103,
      "көрсөткөн": 3104,
      "чал": 3105,
      "жүк": 3106,
      "жарандары": 3107,
      "чак": 3108,
      "анал": 3109,
      "түрмө": 3110,
      "##дуул": 3111,
      "чакырым": 3112,
      "судья": 3113,
      "федер": 3114,
      "көмүр": 3115,
      "акый": 3116,
      "сөздөр": 3117,
      "жаштар": 3118,
      "чемпион": 3119,
      "##ный": 3120,
      "##би": 3121,
      "таап": 3122,
      "маалыматта": 3123,
      "турганы": 3124,
      "##дур": 3125,
      "##иза": 3126,
      "##ткөн": 3127,
      "тамак": 3128,
      "##es": 3129,
      "##ъект": 3130,
      "##раф": 3131,
      "?\"": 3132,
      "айтылды": 3133,
      "токтом": 3134,
      "чарба": 3135,
      "жапаровдун": 3136,
      "документ": 3137,
      "##ема": 3138,
      "балдардын": 3139,
      "калыб": 3140,
      "армен": 3141,
      "матраимов": 3142,
      "жасалган": 3143,
      "##ланып": 3144,
      "##ыктан": 3145,
      "ээл": 3146,
      "##ири": 3147,
      "баасы": 3148,
      "миңдеген": 3149,
      "коррупцияга": 3150,
      "ажырат": 3151,
      "жаан": 3152,
      "##дырып": 3153,
      "##иктер": 3154,
      "эртең": 3155,
      "##аак": 3156,
      "##аганын": 3157,
      "кеминде": 3158,
      "алмазбек": 3159,
      "\")": 3160,
      "клас": 3161,
      "конституция": 3162,
      "##икке": 3163,
      "аябай": 3164,
      "##убуз": 3165,
      "...-": 3166,
      "жүрөт": 3167,
      "шайлоонун": 3168,
      "##атын": 3169,
      "##екция": 3170,
      "арасындагы": 3171,
      "##уккан": 3172,
      "тобу": 3173,
      "буунун": 3174,
      "туул": 3175,
      "##аттарды": 3176,
      "экономика": 3177,
      "##атында": 3178,
      "##сам": 3179,
      "##асыз": 3180,
      "арга": 3181,
      "түзөт": 3182,
      "##жин": 3183,
      "түнү": 3184,
      "күнгө": 3185,
      "каралган": 3186,
      "##евдин": 3187,
      "азык": 3188,
      "мектептер": 3189,
      "жаңыл": 3190,
      "крем": 3191,
      "##ышка": 3192,
      "тааны": 3193,
      "##ларында": 3194,
      "британия": 3195,
      "олимпи": 3196,
      "##мек": 3197,
      "##эб": 3198,
      "жапон": 3199,
      "калыбына": 3200,
      "манда": 3201,
      "бирге": 3202,
      "кайтып": 3203,
      "##салык": 3204,
      "соол": 3205,
      "агенттиги": 3206,
      "адамга": 3207,
      "груз": 3208,
      "мер": 3209,
      "дароо": 3210,
      "атындагы": 3211,
      "беларус": 3212,
      "80": 3213,
      "жем": 3214,
      "кайрылып": 3215,
      "##уулук": 3216,
      "начар": 3217,
      "укуктары": 3218,
      "##ойт": 3219,
      "##даган": 3220,
      "##изация": 3221,
      "шам": 3222,
      "##ашты": 3223,
      "адистер": 3224,
      "##мун": 3225,
      "##лы": 3226,
      "тийгиз": 3227,
      "жагынан": 3228,
      "караба": 3229,
      "кин": 3230,
      "##уттуу": 3231,
      "демек": 3232,
      "башынан": 3233,
      "##аша": 3234,
      "##кум": 3235,
      "шектүү": 3236,
      "ша": 3237,
      "##игинин": 3238,
      "кабарланды": 3239,
      "институт": 3240,
      "##пер": 3241,
      "##овду": 3242,
      "болбосо": 3243,
      "криз": 3244,
      "70": 3245,
      "##пир": 3246,
      "чектөө": 3247,
      "камсыздоо": 3248,
      "өзүм": 3249,
      "кагыл": 3250,
      "көрсөтүп": 3251,
      "пакистан": 3252,
      "тут": 3253,
      "##ткен": 3254,
      "жолдор": 3255,
      "чыгым": 3256,
      "),": 3257,
      "ме": 3258,
      "сел": 3259,
      "тоск": 3260,
      "жүргүзүп": 3261,
      "миграция": 3262,
      "кармалды": 3263,
      "тараптуу": 3264,
      "##in": 3265,
      "мүмкүнчүлүк": 3266,
      "##үштү": 3267,
      "500": 3268,
      "гуман": 3269,
      "ишине": 3270,
      "келеч": 3271,
      "комитети": 3272,
      "куугун": 3273,
      "ошт": 3274,
      "##пайт": 3275,
      "республикалык": 3276,
      "камчыбек": 3277,
      "күндөн": 3278,
      "жумш": 3279,
      "мекеме": 3280,
      "аэроп": 3281,
      "##сс": 3282,
      "союз": 3283,
      "билдирүүдө": 3284,
      "министринин": 3285,
      "##сыздан": 3286,
      "2017": 3287,
      "коюу": 3288,
      "нааразы": 3289,
      "өтүнүч": 3290,
      "сооронбай": 3291,
      "##бөгөн": 3292,
      "##ектер": 3293,
      "насыя": 3294,
      "нав": 3295,
      "##те": 3296,
      "алганы": 3297,
      "кремл": 3298,
      "##сүнүн": 3299,
      "##чынын": 3300,
      "##алыш": 3301,
      "##ырт": 3302,
      "берүүнү": 3303,
      "эсеп": 3304,
      "укугун": 3305,
      "аскерлери": 3306,
      "улуттар": 3307,
      "көбүр": 3308,
      "түзүп": 3309,
      "мүнөз": 3310,
      "түп": 3311,
      "мей": 3312,
      "кемпир": 3313,
      "зал": 3314,
      "ник": 3315,
      "пасп": 3316,
      "##атка": 3317,
      "##аларда": 3318,
      "өлкөлөрдүн": 3319,
      "алматы": 3320,
      "##ондук": 3321,
      "эмнеге": 3322,
      "мунай": 3323,
      "##гандар": 3324,
      "тиешеси": 3325,
      "куугунт": 3326,
      "##дешт": 3327,
      "##бар": 3328,
      "башкача": 3329,
      "компаниясы": 3330,
      "олуттуу": 3331,
      "илимий": 3332,
      "##еттен": 3333,
      "табылган": 3334,
      "бирөө": 3335,
      "##лердин": 3336,
      "булактар": 3337,
      "ака": 3338,
      "жатканда": 3339,
      "өлкөдөн": 3340,
      "чыгаруу": 3341,
      "##tion": 3342,
      "35": 3343,
      "##ант": 3344,
      "##абай": 3345,
      "түшүр": 3346,
      "күчтөрү": 3347,
      "##мушт": 3348,
      "##окт": 3349,
      "коё": 3350,
      "үйр": 3351,
      "атаанда": 3352,
      "тес": 3353,
      "##стыкт": 3354,
      "##ырып": 3355,
      "##дүг": 3356,
      "түзүү": 3357,
      "уюмдун": 3358,
      "##па": 3359,
      "бизнес": 3360,
      "мамлекетке": 3361,
      "чач": 3362,
      "тагдыр": 3363,
      "тоскоол": 3364,
      "##шен": 3365,
      "айдан": 3366,
      "баа": 3367,
      "көмө": 3368,
      "куруу": 3369,
      "өткөрүү": 3370,
      "партиянын": 3371,
      "аткаруу": 3372,
      "укмкнын": 3373,
      "##сер": 3374,
      "жогот": 3375,
      "өзгөртүү": 3376,
      "##еттер": 3377,
      "асан": 3378,
      "##өөнүн": 3379,
      "аймактык": 3380,
      "ошондон": 3381,
      "##ылууда": 3382,
      "кеткенин": 3383,
      "##al": 3384,
      "##гым": 3385,
      "акаев": 3386,
      "маркум": 3387,
      "мукта": 3388,
      "арн": 3389,
      "күз": 3390,
      "жакшыр": 3391,
      "комитет": 3392,
      "муктаж": 3393,
      "ла": 3394,
      "позиция": 3395,
      "жоокер": 3396,
      "көрсөтүлгөн": 3397,
      "тараптар": 3398,
      "карандысыз": 3399,
      "каржыл": 3400,
      "айл": 3401,
      "соз": 3402,
      "театр": 3403,
      "##акты": 3404,
      "##ттын": 3405,
      "катышты": 3406,
      "чаралар": 3407,
      "берилди": 3408,
      "##иядагы": 3409,
      "катышып": 3410,
      "пикирин": 3411,
      "300": 3412,
      "канчалык": 3413,
      "караштуу": 3414,
      "##дет": 3415,
      "##алай": 3416,
      "текшерүү": 3417,
      "жаңжал": 3418,
      "##устан": 3419,
      "##улман": 3420,
      "окуп": 3421,
      "2010": 3422,
      "сактап": 3423,
      "##яны": 3424,
      "мүчөлөрү": 3425,
      "##бет": 3426,
      "##богон": 3427,
      "мусулман": 3428,
      "дайым": 3429,
      "майрам": 3430,
      "толугу": 3431,
      "кызматташ": 3432,
      "киргизүү": 3433,
      "юр": 3434,
      "дегенде": 3435,
      "страт": 3436,
      "##өөнү": 3437,
      "алмаштыр": 3438,
      "машин": 3439,
      "укуктук": 3440,
      "террор": 3441,
      "маселесин": 3442,
      "гуманитардык": 3443,
      "##en": 3444,
      "##оро": 3445,
      "айр": 3446,
      "##лайн": 3447,
      "ошентип": 3448,
      "тр": 3449,
      "##уусун": 3450,
      "##аттардын": 3451,
      "##ыла": 3452,
      "кылым": 3453,
      "облусундагы": 3454,
      "ваш": 3455,
      "колдогон": 3456,
      "медиа": 3457,
      "органдары": 3458,
      "дипломат": 3459,
      "##масы": 3460,
      "##ңк": 3461,
      "маалыматтарды": 3462,
      "дүйшөм": 3463,
      "жалган": 3464,
      "иде": 3465,
      "айылында": 3466,
      "##чылары": 3467,
      "жокт": 3468,
      "болжол": 3469,
      "издөө": 3470,
      "##ингтон": 3471,
      "стратег": 3472,
      "сана": 3473,
      "тараптан": 3474,
      "маалыматы": 3475,
      "дрон": 3476,
      "##чам": 3477,
      "##ылышы": 3478,
      "деңиз": 3479,
      "билген": 3480,
      "миңге": 3481,
      "каражаттары": 3482,
      "ооз": 3483,
      "ави": 3484,
      "сынга": 3485,
      "вашингтон": 3486,
      "кил": 3487,
      "##сих": 3488,
      "негизинен": 3489,
      "сүйлөшүү": 3490,
      "бербей": 3491,
      "корку": 3492,
      "аймактарда": 3493,
      "##ышууда": 3494,
      "рах": 3495,
      "көбүрөөк": 3496,
      "айга": 3497,
      "арх": 3498,
      "объект": 3499,
      "90": 3500,
      "адамды": 3501,
      "бую": 3502,
      "камалган": 3503,
      "бойдон": 3504,
      "наваль": 3505,
      "салды": 3506,
      "бакиев": 3507,
      "##ыктуу": 3508,
      "түрдүү": 3509,
      "чечимин": 3510,
      "долбоорлор": 3511,
      "телеканал": 3512,
      "жуктур": 3513,
      "болууда": 3514,
      "талаш": 3515,
      "кийим": 3516,
      "өтпөй": 3517,
      "партиясы": 3518,
      "##ыч": 3519,
      "##чиден": 3520,
      "аким": 3521,
      "жакындары": 3522,
      "арз": 3523,
      "##өттү": 3524,
      "онлайн": 3525,
      "##атынын": 3526,
      "2016": 3527,
      "армиясы": 3528,
      "дост": 3529,
      "мөөнөтү": 3530,
      "псих": 3531,
      "##кап": 3532,
      "##ель": 3533,
      "айлык": 3534,
      "чектөөлөр": 3535,
      "өзүнчө": 3536,
      "дарылан": 3537,
      "ыкчам": 3538,
      "кызматка": 3539,
      "акыйкат": 3540,
      "маегинде": 3541,
      "##рад": 3542,
      "орусиядагы": 3543,
      "##шембиде": 3544,
      "зам": 3545,
      "өң": 3546,
      "жакынкы": 3547,
      "техникалык": 3548,
      "түркмөнстан": 3549,
      "##ap": 3550,
      "жыйында": 3551,
      "тургуну": 3552,
      "анк": 3553,
      "кандайдыр": 3554,
      "таянып": 3555,
      "тарыхый": 3556,
      "террордук": 3557,
      "окумушт": 3558,
      "апрель": 3559,
      "тийиштүү": 3560,
      "болмок": 3561,
      "убагында": 3562,
      "талибан": 3563,
      "##орл": 3564,
      "##есе": 3565,
      "кылат": 3566,
      "жетекчи": 3567,
      "кич": 3568,
      "чыгарма": 3569,
      "орнот": 3570,
      "навальный": 3571,
      "##ми": 3572,
      "##an": 3573,
      "##ентке": 3574,
      "##гыр": 3575,
      "районунда": 3576,
      "##айы": 3577,
      "##овго": 3578,
      "келат": 3579,
      "кыс": 3580,
      "келгенин": 3581,
      "заман": 3582,
      "карак": 3583,
      "кылмыштуу": 3584,
      "тонна": 3585,
      "вал": 3586,
      "##ээк": 3587,
      "##дигине": 3588,
      "өртт": 3589,
      "убакы": 3590,
      "демократиялык": 3591,
      "статист": 3592,
      "өзүбүз": 3593,
      "тас": 3594,
      "##иясы": 3595,
      "милдетин": 3596,
      "фил": 3597,
      "качып": 3598,
      "##гул": 3599,
      "атып": 3600,
      "токаев": 3601,
      "республикасынын": 3602,
      "айыр": 3603,
      "кошмо": 3604,
      "##өлгөн": 3605,
      "болгондуктан": 3606,
      "аткыл": 3607,
      "тастыкт": 3608,
      "чыгуу": 3609,
      "колдонуу": 3610,
      "салым": 3611,
      "тартуу": 3612,
      "бөгөт": 3613,
      "түшүндүрмө": 3614,
      "гект": 3615,
      "жүй": 3616,
      "жаны": 3617,
      "иштей": 3618,
      "абакта": 3619,
      "##лав": 3620,
      "үгү": 3621,
      "талаптар": 3622,
      "этн": 3623,
      "аргасыз": 3624,
      "маалында": 3625,
      "массалык": 3626,
      "кошо": 3627,
      "касым": 3628,
      "сөөгү": 3629,
      "негизде": 3630,
      "##үүлөрдү": 3631,
      "калса": 3632,
      "алы": 3633,
      "айтууда": 3634,
      "конц": 3635,
      "##ативдик": 3636,
      "##тып": 3637,
      "мыйзамдын": 3638,
      "##обил": 3639,
      "берилет": 3640,
      "адамдарды": 3641,
      "эпиде": 3642,
      "жиги": 3643,
      "жараткан": 3644,
      "кагаз": 3645,
      "кетет": 3646,
      "##бой": 3647,
      "эркинен": 3648,
      "блог": 3649,
      "бары": 3650,
      "баалуу": 3651,
      "##ышып": 3652,
      "тат": 3653,
      "хан": 3654,
      "##цен": 3655,
      "алышкан": 3656,
      "кабарланган": 3657,
      "алмаш": 3658,
      "тынчсыздан": 3659,
      "тарапта": 3660,
      "аракеттер": 3661,
      "фор": 3662,
      "көтөрүп": 3663,
      "проф": 3664,
      "сол": 3665,
      "пул": 3666,
      "##өбүз": 3667,
      "экстр": 3668,
      "жайы": 3669,
      "аф": 3670,
      "##ктары": 3671,
      "ойлой": 3672,
      "жолугушуу": 3673,
      "калуу": 3674,
      "мыр": 3675,
      "форм": 3676,
      "алдынча": 3677,
      "баракчасына": 3678,
      "себепт": 3679,
      "##кулов": 3680,
      "мажбур": 3681,
      "менч": 3682,
      "мыйзамды": 3683,
      "тийиш": 3684,
      "##ерендум": 3685,
      "анализ": 3686,
      "гез": 3687,
      "ос": 3688,
      "##ех": 3689,
      "талдоо": 3690,
      "учак": 3691,
      "балк": 3692,
      "назар": 3693,
      "энергетика": 3694,
      "##дөрүн": 3695,
      "жарандардын": 3696,
      "төрагасынын": 3697,
      "өрт": 3698,
      "референдум": 3699,
      "салма": 3700,
      "аймакта": 3701,
      "көрсөтүү": 3702,
      "ресур": 3703,
      "өнүгүү": 3704,
      "экстрем": 3705,
      "##см": 3706,
      "##дарында": 3707,
      "атат": 3708,
      "башталды": 3709,
      "ушу": 3710,
      "июнь": 3711,
      "өнөктөшт": 3712,
      "элди": 3713,
      "аягына": 3714,
      "чакырган": 3715,
      "коргоочу": 3716,
      "чакан": 3717,
      "төлөм": 3718,
      "сезим": 3719,
      "колдоп": 3720,
      "33": 3721,
      "##ро": 3722,
      "билбей": 3723,
      "кылын": 3724,
      "орусиядан": 3725,
      "министрлик": 3726,
      "ошону": 3727,
      "жапырт": 3728,
      "кооптуу": 3729,
      "аң": 3730,
      "ум": 3731,
      "жокп": 3732,
      "чыгат": 3733,
      "кудай": 3734,
      "фонд": 3735,
      "жугуз": 3736,
      "ант": 3737,
      "ирандын": 3738,
      "фейсбу": 3739,
      "тарбия": 3740,
      "түзүм": 3741,
      "үмүт": 3742,
      "сек": 3743,
      "терең": 3744,
      "тутк": 3745,
      "2015": 3746,
      "деңгээлде": 3747,
      "эш": 3748,
      "эскертти": 3749,
      "маалымдаган": 3750,
      "сак": 3751,
      "##дикке": 3752,
      "реформ": 3753,
      "##енко": 3754,
      "айтк": 3755,
      "компаниясынын": 3756,
      "жасалма": 3757,
      "өздөрү": 3758,
      "##бекова": 3759,
      "коңшу": 3760,
      "жандан": 3761,
      "##ткар": 3762,
      "калганы": 3763,
      "зомбулук": 3764,
      "жараша": 3765,
      "##бызды": 3766,
      "жыйынт": 3767,
      "##үктү": 3768,
      "фондун": 3769,
      "дүйшөмбү": 3770,
      "министрликт": 3771,
      "хам": 3772,
      "алексан": 3773,
      "##тым": 3774,
      "##ларынын": 3775,
      "##ерн": 3776,
      "жөнгө": 3777,
      "##малуу": 3778,
      "##өгү": 3779,
      "##гөз": 3780,
      "кырдаалдар": 3781,
      "##артам": 3782,
      "##ари": 3783,
      "ташк": 3784,
      "күчтүү": 3785,
      "өмүрүн": 3786,
      "##агн": 3787,
      "кут": 3788,
      "тест": 3789,
      "алак": 3790,
      "олимпиада": 3791,
      "##ша": 3792,
      "##амин": 3793,
      "багыт": 3794,
      "албаган": 3795,
      "##гөнүн": 3796,
      "аныкталды": 3797,
      "кароо": 3798,
      "##ска": 3799,
      "кеңири": 3800,
      "кыйла": 3801,
      "32": 3802,
      "жама": 3803,
      "чогулган": 3804,
      "келгенде": 3805,
      "жабык": 3806,
      "коммер": 3807,
      "##тация": 3808,
      "кыя": 3809,
      "##иж": 3810,
      "рез": 3811,
      "##хм": 3812,
      "келаткан": 3813,
      "атасы": 3814,
      "##омол": 3815,
      "##ешет": 3816,
      "ам": 3817,
      "таандык": 3818,
      "туулган": 3819,
      "бээ": 3820,
      "кетир": 3821,
      "конф": 3822,
      "рол": 3823,
      "##шат": 3824,
      "##еев": 3825,
      "чыгарм": 3826,
      "макам": 3827,
      "дүйнөдө": 3828,
      "курултай": 3829,
      "аймактарында": 3830,
      "##mag": 3831,
      "##ста": 3832,
      "энелер": 3833,
      "балким": 3834,
      "imag": 3835,
      "##үшкөн": 3836,
      "бирине": 3837,
      "##ларына": 3838,
      "улут": 3839,
      "толк": 3840,
      "фракция": 3841,
      "атыш": 3842,
      "төлөп": 3843,
      "жел": 3844,
      "бизди": 3845,
      "##ктарды": 3846,
      "##иктин": 3847,
      "комитеттин": 3848,
      "көйгөйлөр": 3849,
      "пал": 3850,
      "##ме": 3851,
      "##алаган": 3852,
      "чакырып": 3853,
      "куткар": 3854,
      "##икация": 3855,
      "облустарынын": 3856,
      "израилдин": 3857,
      "александр": 3858,
      "св": 3859,
      "##ура": 3860,
      "аймагына": 3861,
      "оорул": 3862,
      "аянт": 3863,
      "укуктарын": 3864,
      "##далды": 3865,
      "##улуш": 3866,
      "##чылардын": 3867,
      "эсе": 3868,
      "бөлүмүнүн": 3869,
      "максаты": 3870,
      "өлч": 3871,
      "эксперттер": 3872,
      "маданий": 3873,
      "бузуу": 3874,
      "багытталган": 3875,
      "болбогон": 3876,
      "тартиб": 3877,
      "чагыл": 3878,
      "топтун": 3879,
      "камт": 3880,
      "окр": 3881,
      "кишиге": 3882,
      "##диктин": 3883,
      "азайт": 3884,
      "кетүү": 3885,
      "бийик": 3886,
      "камакта": 3887,
      "транспорт": 3888,
      "##олю": 3889,
      "өлкөлүк": 3890,
      "районундагы": 3891,
      "күтүп": 3892,
      "түлүк": 3893,
      "молд": 3894,
      "##далып": 3895,
      "болгондор": 3896,
      "айынын": 3897,
      "кыргызстандан": 3898,
      "кетүүгө": 3899,
      "көбүн": 3900,
      "долларга": 3901,
      "##ылт": 3902,
      "инд": 3903,
      "интернет": 3904,
      "кызматына": 3905,
      "кетиш": 3906,
      "электрондук": 3907,
      "өзөкт": 3908,
      "##ктардын": 3909,
      "##ктыяр": 3910,
      "##ыкка": 3911,
      "республика": 3912,
      "каалаган": 3913,
      "##ец": 3914,
      "жумушчу": 3915,
      "##рессия": 3916,
      "көргөз": 3917,
      "технология": 3918,
      "пл": 3919,
      "##ткон": 3920,
      "##елерин": 3921,
      "батир": 3922,
      "администр": 3923,
      "##тту": 3924,
      "салыштырмалуу": 3925,
      "серг": 3926,
      "##ну": 3927,
      "##укаш": 3928,
      "сурап": 3929,
      "конт": 3930,
      "коргонуу": 3931,
      "##лу": 3932,
      "сотунун": 3933,
      "жубай": 3934,
      "макал": 3935,
      "бүтүн": 3936,
      "##тен": 3937,
      "каралып": 3938,
      "жетиштүү": 3939,
      "демон": 3940,
      "сүйлө": 3941,
      "бекит": 3942,
      "кармалганын": 3943,
      "үр": 3944,
      "департам": 3945,
      "эмдөө": 3946,
      "отуруп": 3947,
      "ыйгарым": 3948,
      "ыктыяр": 3949,
      "токтотуу": 3950,
      "система": 3951,
      "тасм": 3952,
      "##үшүнө": 3953,
      "тен": 3954,
      "качкын": 3955,
      "чалгын": 3956,
      "өсп": 3957,
      "борборунун": 3958,
      "кездеги": 3959,
      "клим": 3960,
      "бирдикт": 3961,
      "барды": 3962,
      "##ушат": 3963,
      "иштейт": 3964,
      "таасирин": 3965,
      "хар": 3966,
      "##олор": 3967,
      "чөл": 3968,
      "түзүл": 3969,
      "жумушт": 3970,
      "тажрыйб": 3971,
      "демонст": 3972,
      "паспорт": 3973,
      "##үң": 3974,
      "болоб": 3975,
      "00": 3976,
      "чо": 3977,
      "##ar": 3978,
      "##ut": 3979,
      "кырдаалды": 3980,
      "жыйынтыгында": 3981,
      "коммун": 3982,
      "мирз": 3983,
      "бетт": 3984,
      "##шкон": 3985,
      "##ымды": 3986,
      "##доган": 3987,
      "жатканына": 3988,
      "москвада": 3989,
      "абалда": 3990,
      "жүзүндө": 3991,
      "көрүнүш": 3992,
      "##егин": 3993,
      "эрдоган": 3994,
      "коронавирустун": 3995,
      "аялдардын": 3996,
      "жеңиш": 3997,
      "путиндин": 3998,
      "##зин": 3999,
      "прот": 4000,
      "алганда": 4001,
      "аптада": 4002,
      "##пон": 4003,
      "айрымдары": 4004,
      "байкоо": 4005,
      "наб": 4006,
      "##жо": 4007,
      "билдирүүсүндө": 4008,
      "##дөрдүн": 4009,
      "консул": 4010,
      "мобил": 4011,
      "дүйнөдөгү": 4012,
      "прокурор": 4013,
      "45": 4014,
      "##фт": 4015,
      "жаап": 4016,
      "машы": 4017,
      "калышы": 4018,
      "суран": 4019,
      "36": 4020,
      "кв": 4021,
      "##кыр": 4022,
      "##адан": 4023,
      "пикирлер": 4024,
      "тармактарда": 4025,
      "сыйл": 4026,
      "палат": 4027,
      "кыска": 4028,
      "өлчөм": 4029,
      "вен": 4030,
      "чалдык": 4031,
      "##стын": 4032,
      "көлөмү": 4033,
      "тасма": 4034,
      "##ейл": 4035,
      "##икти": 4036,
      "чыгарды": 4037,
      "2014": 4038,
      "##пайбы": 4039,
      "##ашы": 4040,
      "##синин": 4041,
      "узак": 4042,
      "маселен": 4043,
      "процес": 4044,
      "менчик": 4045,
      "чол": 4046,
      "##at": 4047,
      "##раз": 4048,
      "жүргүзгөн": 4049,
      "уланып": 4050,
      "үгүт": 4051,
      "ороз": 4052,
      "той": 4053,
      "кымбат": 4054,
      "өзөктүк": 4055,
      "элем": 4056,
      "колго": 4057,
      "кишини": 4058,
      "тургундар": 4059,
      "кызматтар": 4060,
      "айыптап": 4061,
      "ге": 4062,
      "чен": 4063,
      "эв": 4064,
      "тос": 4065,
      "маалыматтарга": 4066,
      "административдик": 4067,
      "##шке": 4068,
      "башы": 4069,
      "мыйзамдуу": 4070,
      "кайтарып": 4071,
      "реп": 4072,
      "##ыктарды": 4073,
      "майдан": 4074,
      "реда": 4075,
      "##аж": 4076,
      "##усту": 4077,
      "##кон": 4078,
      "көрүү": 4079,
      "үйдө": 4080,
      "экспортт": 4081,
      "өчүр": 4082,
      "чөйрө": 4083,
      "гэ": 4084,
      "алектен": 4085,
      "карай": 4086,
      "айтышты": 4087,
      "украинада": 4088,
      "январь": 4089,
      "##дарда": 4090,
      "убакта": 4091,
      "медицина": 4092,
      "башаламандык": 4093,
      "сына": 4094,
      "##лов": 4095,
      "##үрүм": 4096,
      "кадр": 4097,
      "билдиришти": 4098,
      "аткамин": 4099,
      "саясатчылар": 4100,
      "кечээ": 4101,
      "өнүктүр": 4102,
      "өспүрүм": 4103,
      "чалдыккан": 4104,
      "сей": 4105,
      "##чунун": 4106,
      "алууну": 4107,
      "##улла": 4108,
      "шарттар": 4109,
      "комиссиянын": 4110,
      "лукаш": 4111,
      "бардыгы": 4112,
      "абанын": 4113,
      "##чилер": 4114,
      "##үгүр": 4115,
      "ачылган": 4116,
      "##естин": 4117,
      "##угуна": 4118,
      "дүйнөнүн": 4119,
      "эне": 4120,
      "сутк": 4121,
      "карабастан": 4122,
      "катталды": 4123,
      "вакцина": 4124,
      "финансы": 4125,
      "фейсбуктагы": 4126,
      "##али": 4127,
      "##шкө": 4128,
      "жарыяланды": 4129,
      "арналган": 4130,
      "гектар": 4131,
      "тим": 4132,
      "факты": 4133,
      "сөзсүз": 4134,
      "териштирүү": 4135,
      "кысым": 4136,
      "бирдиктүү": 4137,
      "##ник": 4138,
      "##чк": 4139,
      "университетинин": 4140,
      "198": 4141,
      "саммит": 4142,
      "жүкт": 4143,
      "##атбек": 4144,
      "сотто": 4145,
      "бүлөлүк": 4146,
      "cap": 4147,
      "##дору": 4148,
      "##еттүү": 4149,
      "курган": 4150,
      "дайындалган": 4151,
      "сергей": 4152,
      "төг": 4153,
      "##ограф": 4154,
      "парламентте": 4155,
      "коррупциялык": 4156,
      "ойлон": 4157,
      "таштап": 4158,
      "илдет": 4159,
      "милдеттен": 4160,
      "тилекке": 4161,
      "иб": 4162,
      "суракка": 4163,
      "моюн": 4164,
      "америк": 4165,
      "милдеттүү": 4166,
      "артка": 4167,
      "жатышкан": 4168,
      "мисал": 4169,
      "байланышкан": 4170,
      "музык": 4171,
      "дүк": 4172,
      "кийлиги": 4173,
      "баласы": 4174,
      "комплек": 4175,
      "завод": 4176,
      "как": 4177,
      "##кту": 4178,
      "ошого": 4179,
      "инт": 4180,
      "имп": 4181,
      "ысым": 4182,
      "музей": 4183,
      "лагер": 4184,
      "##ыкча": 4185,
      "келишет": 4186,
      "аныктоо": 4187,
      "жетекчилери": 4188,
      "туткун": 4189,
      "дос": 4190,
      "##ованын": 4191,
      "толтур": 4192,
      "крим": 4193,
      "милициянын": 4194,
      "##бас": 4195,
      "чыгарылган": 4196,
      "каржы": 4197,
      "талкууга": 4198,
      "##дүм": 4199,
      "##чо": 4200,
      "##ели": 4201,
      "күнөө": 4202,
      "бейтаптар": 4203,
      "франция": 4204,
      "!\"": 4205,
      "##аганы": 4206,
      "коман": 4207,
      "чыгышты": 4208,
      "негизи": 4209,
      "өмүрү": 4210,
      "##газиев": 4211,
      "коопсуздугун": 4212,
      "тескери": 4213,
      "айрыкча": 4214,
      "image": 4215,
      "го": 4216,
      "мэ": 4217,
      "кишилер": 4218,
      "москванын": 4219,
      "чөлкөм": 4220,
      "caption": 4221,
      "##зат": 4222,
      "көрүнү": 4223,
      "балдарды": 4224,
      "##дырган": 4225,
      "чараларды": 4226,
      "кызматтын": 4227,
      "киргизген": 4228,
      "табылды": 4229,
      "поль": 4230,
      "жетекчилиги": 4231,
      "##арип": 4232,
      "##өнүп": 4233,
      "биринде": 4234,
      "##ышына": 4235,
      "##дерин": 4236,
      "кошул": 4237,
      "кооптон": 4238,
      "набыт": 4239,
      "##шет": 4240,
      "кишил": 4241,
      "бөлүп": 4242,
      "##доого": 4243,
      "аткан": 4244,
      "дый": 4245,
      "көрүүгө": 4246,
      "облустар": 4247,
      "акчаны": 4248,
      "крым": 4249,
      "##өрдү": 4250,
      "##чилик": 4251,
      "фактыл": 4252,
      "райондорунда": 4253,
      "саналат": 4254,
      "өзүң": 4255,
      "коомчулукта": 4256,
      "каршылык": 4257,
      "##ңуз": 4258,
      "аягында": 4259,
      "атамбаевдин": 4260,
      "дыйкан": 4261,
      "##иядан": 4262,
      "##ити": 4263,
      "издеп": 4264,
      "күбө": 4265,
      "ойлойм": 4266,
      "чолпон": 4267,
      "##дардан": 4268,
      "калктын": 4269,
      "чечил": 4270,
      "##үгүнө": 4271,
      "уюмдардын": 4272,
      "федерация": 4273,
      "дипломатиялык": 4274,
      "итал": 4275,
      "артык": 4276,
      "берб": 4277,
      "иштеш": 4278,
      "кандуу": 4279,
      "жараян": 4280,
      "эски": 4281,
      "мурунку": 4282,
      "##гин": 4283,
      "##шан": 4284,
      "райым": 4285,
      "2024": 4286,
      "##альд": 4287,
      "жи": 4288,
      "сып": 4289,
      "ыл": 4290,
      "алыс": 4291,
      "##аланган": 4292,
      "шаары": 4293,
      "##олоң": 4294,
      "##стин": 4295,
      "жарык": 4296,
      "саясаты": 4297,
      "колдонуп": 4298,
      "үйүнө": 4299,
      "кылмышка": 4300,
      "комиссиясынын": 4301,
      "камагына": 4302,
      "алексей": 4303,
      "рубл": 4304,
      "шв": 4305,
      "##шкер": 4306,
      "айыпта": 4307,
      "стам": 4308,
      "автордук": 4309,
      "бакыт": 4310,
      "күрөшүү": 4311,
      "бээжин": 4312,
      "кышт": 4313,
      "тик": 4314,
      "жатам": 4315,
      "##иктир": 4316,
      "облусу": 4317,
      "автоб": 4318,
      "өлкөлөрү": 4319,
      "тобунун": 4320,
      "аскар": 4321,
      "жк": 4322,
      "көрө": 4323,
      "##чулук": 4324,
      "терс": 4325,
      "тапты": 4326,
      "автоунаа": 4327,
      "нам": 4328,
      "шартта": 4329,
      "темпер": 4330,
      "коомчулук": 4331,
      "катаал": 4332,
      "департамент": 4333,
      "пост": 4334,
      "көм": 4335,
      "атап": 4336,
      "аймактагы": 4337,
      "мүмкүнчүлүгү": 4338,
      "жаракат": 4339,
      "жылкы": 4340,
      "болгондордун": 4341,
      "##ашат": 4342,
      "жоопко": 4343,
      "##or": 4344,
      "учуп": 4345,
      "кечинде": 4346,
      "ибра": 4347,
      "температур": 4348,
      "жуу": 4349,
      "танда": 4350,
      "##шту": 4351,
      "ачып": 4352,
      "сүйлөп": 4353,
      "автор": 4354,
      "арадагы": 4355,
      "жүздөгөн": 4356,
      "келтирген": 4357,
      "дүкөн": 4358,
      "##ыкта": 4359,
      "теке": 4360,
      "ырааз": 4361,
      "инфекция": 4362,
      "##бург": 4363,
      "кымбатт": 4364,
      "жери": 4365,
      "уй": 4366,
      "##исти": 4367,
      "батышт": 4368,
      "аткаруучу": 4369,
      "34": 4370,
      "400": 4371,
      "по": 4372,
      "сары": 4373,
      "##иё": 4374,
      "сүйлөшүп": 4375,
      "эскерт": 4376,
      "россия": 4377,
      "станция": 4378,
      "##ылап": 4379,
      "санарип": 4380,
      "өткөргөн": 4381,
      "адилет": 4382,
      "соттолгон": 4383,
      "үлгү": 4384,
      "округ": 4385,
      "алышы": 4386,
      "өзбекстанда": 4387,
      "порт": 4388,
      "анг": 4389,
      "күнөөлүү": 4390,
      "жон": 4391,
      "акшда": 4392,
      "бейшен": 4393,
      "машыг": 4394,
      "муун": 4395,
      "##эн": 4396,
      "##алдын": 4397,
      "алабыз": 4398,
      "##штары": 4399,
      "##елди": 4400,
      "##огул": 4401,
      "мамлекеттердин": 4402,
      "ооруканада": 4403,
      "маз": 4404,
      "өндүрүш": 4405,
      "ишмердүүл": 4406,
      "биргел": 4407,
      "түркияда": 4408,
      "коргоочулар": 4409,
      "келтирүү": 4410,
      "күчтөрүнүн": 4411,
      "адвокат": 4412,
      "айым": 4413,
      "##ттык": 4414,
      "балдары": 4415,
      "адил": 4416,
      "күрөшт": 4417,
      "таасири": 4418,
      "##ида": 4419,
      "министрлигине": 4420,
      "башталгандан": 4421,
      "өск": 4422,
      "##ван": 4423,
      "##оодо": 4424,
      "##ттары": 4425,
      "президентке": 4426,
      "##үккө": 4427,
      "коомдун": 4428,
      "кезек": 4429,
      "партиялар": 4430,
      "клин": 4431,
      "тургундары": 4432,
      "стратегиялык": 4433,
      "ашты": 4434,
      "келсе": 4435,
      "кагып": 4436,
      "учурдагы": 4437,
      "##аланып": 4438,
      "уюштуруу": 4439,
      "нааразыл": 4440,
      "мигранттардын": 4441,
      "кыскар": 4442,
      "кызматташтык": 4443,
      "жыйынтыкт": 4444,
      "ыңг": 4445,
      "##ыны": 4446,
      "мадум": 4447,
      "кеңс": 4448,
      "мадумаров": 4449,
      "##чер": 4450,
      "ачкан": 4451,
      "чыныгы": 4452,
      "##олюция": 4453,
      "шаардын": 4454,
      "өлкөлөрдө": 4455,
      "быйылкы": 4456,
      "телег": 4457,
      "адаб": 4458,
      "ресурст": 4459,
      "жашыруун": 4460,
      "##мөт": 4461,
      "##ани": 4462,
      "##елет": 4463,
      "жашка": 4464,
      "келбейт": 4465,
      "аймагындагы": 4466,
      "жом": 4467,
      "дастан": 4468,
      "депутаттык": 4469,
      "өмүрбек": 4470,
      "штаттар": 4471,
      "меч": 4472,
      "карама": 4473,
      "##аныч": 4474,
      "журналисттерге": 4475,
      "рын": 4476,
      "##еме": 4477,
      "##өкөй": 4478,
      "дональд": 4479,
      "жетектеген": 4480,
      "еа": 4481,
      "##ттагы": 4482,
      "##дем": 4483,
      "айылынын": 4484,
      "эркиндиги": 4485,
      "башкармалыгы": 4486,
      "##баш": 4487,
      "адамдан": 4488,
      "жайгаштыр": 4489,
      "академия": 4490,
      "осмон": 4491,
      "келбей": 4492,
      "өлгөн": 4493,
      "алдындагы": 4494,
      "өкмөтүнүн": 4495,
      "отч": 4496,
      "зорду": 4497,
      "катталып": 4498,
      "##үктүн": 4499,
      "жүргүзүү": 4500,
      "реформа": 4501,
      "тв": 4502,
      "пров": 4503,
      "жөнөкөй": 4504,
      "ээси": 4505,
      "жарыялап": 4506,
      "рей": 4507,
      "##ира": 4508,
      "##ырган": 4509,
      "маң": 4510,
      "сактагы": 4511,
      "айтат": 4512,
      "шаарына": 4513,
      "айыпталып": 4514,
      "өлүмү": 4515,
      "ne": 4516,
      "##макка": 4517,
      "##оф": 4518,
      "##иров": 4519,
      "болобу": 4520,
      "##инц": 4521,
      "иштеб": 4522,
      "үйдүн": 4523,
      "##алиева": 4524,
      "мүлкт": 4525,
      "ыңгай": 4526,
      "жуккан": 4527,
      "жүгүр": 4528,
      "шак": 4529,
      "##көн": 4530,
      "##үнчү": 4531,
      "карт": 4532,
      "жазык": 4533,
      "##манов": 4534,
      "санитардык": 4535,
      "кеткени": 4536,
      "өкмөттүк": 4537,
      "салууга": 4538,
      "стамбул": 4539,
      "жакыр": 4540,
      "жанында": 4541,
      "сапары": 4542,
      "азиядагы": 4543,
      "доор": 4544,
      "ынтым": 4545,
      "келатат": 4546,
      "град": 4547,
      "мор": 4548,
      "##гуна": 4549,
      "##үтт": 4550,
      "мыйзамда": 4551,
      "коронавирустан": 4552,
      "окшойт": 4553,
      "доом": 4554,
      "зап": 4555,
      "##иясынын": 4556,
      "##елешкен": 4557,
      "##бап": 4558,
      "##ха": 4559,
      "кырс": 4560,
      "баланын": 4561,
      "москвага": 4562,
      "##чылыкка": 4563,
      "капт": 4564,
      "арасынан": 4565,
      "турду": 4566,
      "чыгууга": 4567,
      "шайланган": 4568,
      "өсүп": 4569,
      "жүйө": 4570,
      "хамас": 4571,
      "сыпатт": 4572,
      "берсе": 4573,
      "кете": 4574,
      "ооруп": 4575,
      "еаэб": 4576,
      "ашкан": 4577,
      "##дым": 4578,
      "##гам": 4579,
      "окуяс": 4580,
      "карапайым": 4581,
      "аяктаган": 4582,
      "кийлигиш": 4583,
      "телеграм": 4584,
      "##ияны": 4585,
      "##ктарга": 4586,
      "саналып": 4587,
      "тараптын": 4588,
      "берилип": 4589,
      "журналисттердин": 4590,
      "ийгил": 4591,
      "форум": 4592,
      "##наз": 4593,
      "баса": 4594,
      "##ациялык": 4595,
      "кылууга": 4596,
      "камер": 4597,
      "алдына": 4598,
      "оңой": 4599,
      "##паган": 4600,
      "##чан": 4601,
      "##гандардын": 4602,
      "##ындап": 4603,
      "элчиси": 4604,
      "##дигинин": 4605,
      "адвокаты": 4606,
      "бийлигинин": 4607,
      "градус": 4608,
      "тейл": 4609,
      "чам": 4610,
      "реги": 4611,
      "көзөмөлдөө": 4612,
      "биргелешкен": 4613,
      "гл": 4614,
      "ом": 4615,
      "##ебин": 4616,
      "күчөп": 4617,
      "ачыкка": 4618,
      "##эл": 4619,
      "өкүлдөр": 4620,
      "##ыгып": 4621,
      "мадания": 4622,
      "##сср": 4623,
      "ссср": 4624,
      "##абек": 4625,
      "бишкекке": 4626,
      "турмуш": 4627,
      "мирзиё": 4628,
      "проток": 4629,
      "байланышы": 4630,
      "сырттан": 4631,
      "##ля": 4632,
      "##үбүз": 4633,
      "булар": 4634,
      "жетпей": 4635,
      "жыйынтык": 4636,
      "канааттан": 4637,
      "зордукт": 4638,
      "делген": 4639,
      "тө": 4640,
      "органдарынын": 4641,
      "капит": 4642,
      "##пейт": 4643,
      "келиши": 4644,
      "ут": 4645,
      "алам": 4646,
      "алышат": 4647,
      "##имче": 4648,
      "айтышкан": 4649,
      "##агым": 4650,
      "журт": 4651,
      "##шемби": 4652,
      "кезектеги": 4653,
      "принц": 4654,
      "жарандарды": 4655,
      "ишкана": 4656,
      "болбосун": 4657,
      "150": 4658,
      "көпчүлүгү": 4659,
      "ста": 4660,
      "##иттер": 4661,
      "##ra": 4662,
      "али": 4663,
      "##деш": 4664,
      "аралы": 4665,
      "атаган": 4666,
      "жерди": 4667,
      "кетиши": 4668,
      "кепил": 4669,
      "##ло": 4670,
      "бож": 4671,
      "кирет": 4672,
      "чыгышкан": 4673,
      "келишимге": 4674,
      "аракеттен": 4675,
      "##жар": 4676,
      "##ңкы": 4677,
      "##үлүүдө": 4678,
      "чыкпай": 4679,
      "алдыга": 4680,
      "британиянын": 4681,
      "күб": 4682,
      "жашыл": 4683,
      "иштерди": 4684,
      "шер": 4685,
      "##кал": 4686,
      "##айбыз": 4687,
      "андыктан": 4688,
      "лицен": 4689,
      "аракетин": 4690,
      "беткап": 4691,
      "жугузуп": 4692,
      "маселелерди": 4693,
      "валю": 4694,
      "\":": 4695,
      "дай": 4696,
      "##атына": 4697,
      "талапкерлер": 4698,
      "көчүр": 4699,
      "сындап": 4700,
      "күмөн": 4701,
      "вагн": 4702,
      "рус": 4703,
      "##ияз": 4704,
      "бериши": 4705,
      "булагы": 4706,
      "мой": 4707,
      "себептер": 4708,
      "тандоо": 4709,
      "пра": 4710,
      "такыр": 4711,
      "юри": 4712,
      "алса": 4713,
      "энеси": 4714,
      "чачын": 4715,
      "окуяга": 4716,
      "тактап": 4717,
      "талибдер": 4718,
      "ыкм": 4719,
      "лидерлер": 4720,
      "адамдарга": 4721,
      "жетип": 4722,
      "саналган": 4723,
      "британ": 4724,
      "басылмасы": 4725,
      "мэри": 4726,
      "регион": 4727,
      "нов": 4728,
      "##унду": 4729,
      "алым": 4730,
      "абалды": 4731,
      "кайрылды": 4732,
      "козго": 4733,
      "токой": 4734,
      "айланып": 4735,
      "демилге": 4736,
      "ырастады": 4737,
      "эсебинде": 4738,
      "аэропорт": 4739,
      "дайыма": 4740,
      "көрсөтмө": 4741,
      "##гыла": 4742,
      "өрөөн": 4743,
      "палестин": 4744,
      "37": 4745,
      "иштин": 4746,
      "жолун": 4747,
      "жазуу": 4748,
      "комиссиясы": 4749,
      "мухам": 4750,
      "системасы": 4751,
      "##данып": 4752,
      "талашт": 4753,
      "уюшкан": 4754,
      "укуктуу": 4755,
      "кесипт": 4756,
      "##ылбай": 4757,
      "кадим": 4758,
      "##ивдүү": 4759,
      "жор": 4760,
      "эф": 4761,
      "##имовдун": 4762,
      "согушту": 4763,
      "америка": 4764,
      "жиберген": 4765,
      "жы": 4766,
      "##кана": 4767,
      "##ыктардын": 4768,
      "эрте": 4769,
      "түйүн": 4770,
      "ыраазы": 4771,
      "тата": 4772,
      "чат": 4773,
      "тараган": 4774,
      "##ешип": 4775,
      "кийинчер": 4776,
      "отурат": 4777,
      "түштү": 4778,
      "техник": 4779,
      "керектүү": 4780,
      "советтик": 4781,
      "##сон": 4782,
      "##ch": 4783,
      "##данын": 4784,
      "эмил": 4785,
      "германия": 4786,
      "голд": 4787,
      "фер": 4788,
      "алышты": 4789,
      "кыздын": 4790,
      "миллиондон": 4791,
      "оппозициялык": 4792,
      "ру": 4793,
      "кыргыздар": 4794,
      "абагында": 4795,
      "ишканасынын": 4796,
      "чыңгыз": 4797,
      "професс": 4798,
      "сим": 4799,
      "##мыр": 4800,
      "##st": 4801,
      "токтоп": 4802,
      "жетекчилер": 4803,
      "кубаныч": 4804,
      "фонду": 4805,
      "кг": 4806,
      "пун": 4807,
      "болгондо": 4808,
      "кабул": 4809,
      "жумду": 4810,
      "кеңеште": 4811,
      "бийлигин": 4812,
      "дел": 4813,
      "пара": 4814,
      "балдарга": 4815,
      "мекенине": 4816,
      "жактоо": 4817,
      "суунун": 4818,
      "##oo": 4819,
      "айланган": 4820,
      "##дүкт": 4821,
      "органдар": 4822,
      "##орттук": 4823,
      "ооганстандын": 4824,
      "ду": 4825,
      "ки": 4826,
      "менимче": 4827,
      "беришти": 4828,
      "чечимди": 4829,
      "##сүндөгү": 4830,
      "75": 4831,
      "тор": 4832,
      "##оль": 4833,
      "маалыматында": 4834,
      "өлкөлөргө": 4835,
      "кеңеши": 4836,
      "москвадагы": 4837,
      "спик": 4838,
      "38": 4839,
      "дей": 4840,
      "жыйынга": 4841,
      "алынганын": 4842,
      "банктын": 4843,
      "жыйынтыгын": 4844,
      "коммерциялык": 4845,
      "майып": 4846,
      "колдонгон": 4847,
      "кээде": 4848,
      "радиосуна": 4849,
      "тит": 4850,
      "##аку": 4851,
      "жетишкен": 4852,
      "сыртка": 4853,
      "өст": 4854,
      "##ыгына": 4855,
      "баатыр": 4856,
      "көркөм": 4857,
      "кызматын": 4858,
      "долбоорунун": 4859,
      "райымбек": 4860,
      "##тим": 4861,
      "##гак": 4862,
      "кызматынан": 4863,
      "чарб": 4864,
      "бергенин": 4865,
      "##улганын": 4866,
      "германиянын": 4867,
      "божомол": 4868,
      "кадимки": 4869,
      "келүү": 4870,
      "##чүсү": 4871,
      "жарадар": 4872,
      "лидерлери": 4873,
      "##ят": 4874,
      "келбеген": 4875,
      "жолугуп": 4876,
      "машине": 4877,
      "эваку": 4878,
      "баарына": 4879,
      "##диктен": 4880,
      "генер": 4881,
      "ою": 4882,
      "айтуу": 4883,
      "алдыңкы": 4884,
      "төлөн": 4885,
      "эскертүү": 4886,
      "биримдиги": 4887,
      "##синче": 4888,
      "пайдалануу": 4889,
      "бүтк": 4890,
      "мырза": 4891,
      "##кай": 4892,
      "##еде": 4893,
      "##оло": 4894,
      "бирдей": 4895,
      "билдирүүлөр": 4896,
      "##чылыгы": 4897,
      "##өйт": 4898,
      "газа": 4899,
      "##бөйт": 4900,
      "баар": 4901,
      "дегенди": 4902,
      "көбөйүп": 4903,
      "##дуулук": 4904,
      "##пт": 4905,
      "##есинен": 4906,
      "кайда": 4907,
      "уланууда": 4908,
      "саламатты": 4909,
      "октябрдагы": 4910,
      "жетишсиз": 4911,
      "студентт": 4912,
      "тескерисинче": 4913,
      "тый": 4914,
      "атын": 4915,
      "кылууда": 4916,
      "айтылууда": 4917,
      "##доп": 4918,
      "күчүнө": 4919,
      "көбөйт": 4920,
      "эпидеми": 4921,
      "тама": 4922,
      "##мөлөр": 4923,
      "##мед": 4924,
      "##ганда": 4925,
      "##гация": 4926,
      "жылына": 4927,
      "##рах": 4928,
      "##деринин": 4929,
      "##үлгөнүн": 4930,
      "##алиевдин": 4931,
      "эскерткен": 4932,
      "таратып": 4933,
      "маалымдоо": 4934,
      "албайбыз": 4935,
      "сунуштаган": 4936,
      "ооганстандагы": 4937,
      "провин": 4938,
      "эж": 4939,
      "##алга": 4940,
      "компаниянын": 4941,
      "изилдө": 4942,
      "ракета": 4943,
      "угуп": 4944,
      "кары": 4945,
      "сауд": 4946,
      "##дикалык": 4947,
      "баштайт": 4948,
      "казакстанга": 4949,
      "министрликтин": 4950,
      "син": 4951,
      "жолду": 4952,
      "жолку": 4953,
      "##омп": 4954,
      "чыкканын": 4955,
      "кыймылынын": 4956,
      "радиосунун": 4957,
      "лаб": 4958,
      "цен": 4959,
      "колу": 4960,
      "өлкөнү": 4961,
      "эмеспи": 4962,
      "алгандар": 4963,
      "ачуу": 4964,
      "активдүү": 4965,
      "зарылды": 4966,
      "июль": 4967,
      "кагылыш": 4968,
      "мейман": 4969,
      "протокол": 4970,
      "эвакуация": 4971,
      "(+": 4972,
      "көн": 4973,
      "баал": 4974,
      "коло": 4975,
      "колуна": 4976,
      "кеңейт": 4977,
      "окуяны": 4978,
      "бөлүгүн": 4979,
      "##ештир": 4980,
      "багытта": 4981,
      "мөөнөтүн": 4982,
      ").": 4983,
      "ном": 4984,
      "уран": 4985,
      "фар": 4986,
      "куруп": 4987,
      "##сүнөн": 4988,
      "кырдаалга": 4989,
      "акыйкатчы": 4990,
      "44": 4991,
      "сх": 4992,
      "үйүндө": 4993,
      "радик": 4994,
      "маанай": 4995,
      "токтотуп": 4996,
      "дуб": 4997,
      "##ed": 4998,
      "бом": 4999,
      "ошонун": 5000,
      "соңунда": 5001,
      "кийинчерээк": 5002,
      "агым": 5003,
      "##ko": 5004,
      "бириктир": 5005,
      "көзү": 5006,
      "жооптуу": 5007,
      "кытайлык": 5008,
      "жалпыга": 5009,
      "айыпталган": 5010,
      "килограмм": 5011,
      "мойн": 5012,
      "##ранттар": 5013,
      "жогорул": 5014,
      "апасы": 5015,
      "компаниялар": 5016,
      "га": 5017,
      "иман": 5018,
      "орунда": 5019,
      "келишкен": 5020,
      "муфт": 5021,
      "пайызга": 5022,
      "жолго": 5023,
      "көтөрүл": 5024,
      "киреше": 5025,
      "лицензия": 5026,
      "чата": 5027,
      "##гай": 5028,
      "##як": 5029,
      "бакты": 5030,
      "байыр": 5031,
      "түрү": 5032,
      "сурак": 5033,
      "бейөк": 5034,
      "документтер": 5035,
      "ошто": 5036,
      "in": 5037,
      "нем": 5038,
      "##аст": 5039,
      "##ешке": 5040,
      "##el": 5041,
      "кошкон": 5042,
      "анча": 5043,
      "беребиз": 5044,
      "туруу": 5045,
      "жердеги": 5046,
      "##икте": 5047,
      "аракеттери": 5048,
      "болууга": 5049,
      "##гүлт": 5050,
      "бейөкмөт": 5051,
      "мээ": 5052,
      "шей": 5053,
      "##албаган": 5054,
      "##маил": 5055,
      "талант": 5056,
      "##дорду": 5057,
      "маселелери": 5058,
      "армиясынын": 5059,
      "км": 5060,
      "лив": 5061,
      "нияз": 5062,
      "сил": 5063,
      "абадан": 5064,
      "калдым": 5065,
      "##лыктар": 5066,
      "десе": 5067,
      "иштен": 5068,
      "талабы": 5069,
      "##ыктыр": 5070,
      "юридикалык": 5071,
      "атынан": 5072,
      "күнүнө": 5073,
      "бөлүг": 5074,
      "коомчулуктун": 5075,
      "беларуст": 5076,
      "лабор": 5077,
      "##гор": 5078,
      "боз": 5079,
      "билет": 5080,
      "ташып": 5081,
      "жеңилдет": 5082,
      "##кар": 5083,
      "париж": 5084,
      "масшт": 5085,
      "чечүү": 5086,
      "окуган": 5087,
      "токтогул": 5088,
      "нурлан": 5089,
      "сабак": 5090,
      "үзгүлт": 5091,
      "тоскоолдук": 5092,
      "температурасы": 5093,
      "55": 5094,
      "оз": 5095,
      "рек": 5096,
      "##төн": 5097,
      "араны": 5098,
      "кыла": 5099,
      "учку": 5100,
      "түзүлүп": 5101,
      "193": 5102,
      "кармоо": 5103,
      "көбүнчө": 5104,
      "жус": 5105,
      "иск": 5106,
      "түшүнү": 5107,
      "сиң": 5108,
      "натыйжада": 5109,
      "##ецк": 5110,
      "мол": 5111,
      "##ула": 5112,
      "##акун": 5113,
      "беришкен": 5114,
      "кире": 5115,
      "##елердин": 5116,
      "депутаттары": 5117,
      "сүйлөгөн": 5118,
      "колдонууга": 5119,
      "даярдык": 5120,
      "##матова": 5121,
      "аралаш": 5122,
      "48": 5123,
      "##жаң": 5124,
      "##екти": 5125,
      "##гиле": 5126,
      "камп": 5127,
      "жайлар": 5128,
      "тилинде": 5129,
      "согушта": 5130,
      "жүрүшүндө": 5131,
      "##серв": 5132,
      "##ьян": 5133,
      "##разия": 5134,
      "абыл": 5135,
      "##өң": 5136,
      "жарандарга": 5137,
      "жардамы": 5138,
      "тийген": 5139,
      "уюштурган": 5140,
      "кызматкерлеринин": 5141,
      "жерлерде": 5142,
      "балык": 5143,
      "виз": 5144,
      "##гүн": 5145,
      "кириш": 5146,
      "өтүү": 5147,
      "токтолду": 5148,
      "##өткөн": 5149,
      "жылдыз": 5150,
      "душ": 5151,
      "шил": 5152,
      "биринин": 5153,
      "ушуну": 5154,
      "##өшү": 5155,
      "маани": 5156,
      "бирикм": 5157,
      "китептер": 5158,
      "провинция": 5159,
      "четт": 5160,
      "##атору": 5161,
      "##онов": 5162,
      "##өрдүн": 5163,
      "жаатында": 5164,
      "караш": 5165,
      "мыйзамдар": 5166,
      "##ебер": 5167,
      "марат": 5168,
      "##макчы": 5169,
      "кабарлагандай": 5170,
      "учкуч": 5171,
      "##сем": 5172,
      "экин": 5173,
      "##мада": 5174,
      "чыгары": 5175,
      "жумушка": 5176,
      "кыймылы": 5177,
      "мерт": 5178,
      "жокпу": 5179,
      "##маны": 5180,
      "##енк": 5181,
      "жеринен": 5182,
      "жайын": 5183,
      "өзгөрүүлөр": 5184,
      "##иск": 5185,
      "##лаган": 5186,
      "##атып": 5187,
      "##абайт": 5188,
      "чынды": 5189,
      "өңдүү": 5190,
      "zko": 5191,
      "шин": 5192,
      "жылуулук": 5193,
      "атады": 5194,
      "тармагында": 5195,
      "көтөрүлүп": 5196,
      "күйөөсү": 5197,
      "буюм": 5198,
      "алгандан": 5199,
      "өкүлчүл": 5200,
      "евразия": 5201,
      "##гылар": 5202,
      "суткада": 5203,
      "губ": 5204,
      "дан": 5205,
      "даттан": 5206,
      "ура": 5207,
      "туризм": 5208,
      "##еши": 5209,
      "индия": 5210,
      "кытайга": 5211,
      "чогулуп": 5212,
      "тамыр": 5213,
      "түт": 5214,
      "фир": 5215,
      "##поз": 5216,
      "каар": 5217,
      "бергени": 5218,
      "жабдуу": 5219,
      "айыптаган": 5220,
      "бүткөн": 5221,
      "астана": 5222,
      "суз": 5223,
      "улук": 5224,
      "үйгө": 5225,
      "өкмөткө": 5226,
      "##осу": 5227,
      "казакстандык": 5228,
      "парламентке": 5229,
      "коюлду": 5230,
      "былтыркы": 5231,
      "демокр": 5232,
      "докт": 5233,
      "шах": 5234,
      "##кр": 5235,
      "##тери": 5236,
      "##ондон": 5237,
      "ташы": 5238,
      "иштерине": 5239,
      "##аштыр": 5240,
      "узарт": 5241,
      "бөлүнгөн": 5242,
      "евробиримдик": 5243,
      "##ту": 5244,
      "##шкөнүн": 5245,
      "кызуу": 5246,
      "шайлоодон": 5247,
      "басымдуу": 5248,
      "мезгилде": 5249,
      "kg": 5250,
      "##сок": 5251,
      "барым": 5252,
      "балл": 5253,
      "мектепке": 5254,
      "каршыл": 5255,
      "лаборатор": 5256,
      "##et": 5257,
      "##орго": 5258,
      "көрсөттү": 5259,
      "тапт": 5260,
      "аткарып": 5261,
      "прокуратуранын": 5262,
      "депутаттардын": 5263,
      "үстүнө": 5264,
      "мелдешт": 5265,
      "руслан": 5266,
      "##мын": 5267,
      "##пиз": 5268,
      "##шып": 5269,
      "##елеп": 5270,
      "берки": 5271,
      "кылышкан": 5272,
      "добушт": 5273,
      "эмгектен": 5274,
      "төмөндө": 5275,
      "туугандары": 5276,
      "каракол": 5277,
      "губерн": 5278,
      "700": 5279,
      "ноо": 5280,
      "##оосу": 5281,
      "баң": 5282,
      "##ейн": 5283,
      "##аларына": 5284,
      "президентинин": 5285,
      "ашып": 5286,
      "##бызга": 5287,
      "каттоого": 5288,
      "арадан": 5289,
      "көтөргөн": 5290,
      "сыдык": 5291,
      "жоюу": 5292,
      "агенттигинин": 5293,
      "65": 5294,
      "ер": 5295,
      "##чуларга": 5296,
      "асыл": 5297,
      "кубатт": 5298,
      "келиндер": 5299,
      "совет": 5300,
      "экстремисттик": 5301,
      "жогорулат": 5302,
      "кытайдан": 5303,
      "социал": 5304,
      "көбөйдү": 5305,
      "артында": 5306,
      "##чүлөрдүн": 5307,
      "тобок": 5308,
      "эгемендик": 5309,
      "глоб": 5310,
      "мет": 5311,
      "карман": 5312,
      "##ыма": 5313,
      "шаарда": 5314,
      "көпүр": 5315,
      "көздөп": 5316,
      "кошуп": 5317,
      "унут": 5318,
      "айыпталуу": 5319,
      "беренесинин": 5320,
      "армян": 5321,
      "пенсия": 5322,
      "42": 5323,
      "пет": 5324,
      "##делген": 5325,
      "##аттыкты": 5326,
      "##егине": 5327,
      "министрдин": 5328,
      "##дөрдү": 5329,
      "бузган": 5330,
      "бшкнын": 5331,
      "зордук": 5332,
      "кутт": 5333,
      "кеңешке": 5334,
      "текшерип": 5335,
      "көрүнүшт": 5336,
      "татаал": 5337,
      "##адык": 5338,
      "##еф": 5339,
      "##етинен": 5340,
      "##амж": 5341,
      "аймак": 5342,
      "жатса": 5343,
      "жазуучу": 5344,
      "сураган": 5345,
      "тилин": 5346,
      "делегация": 5347,
      "асман": 5348,
      "экинчиден": 5349,
      "тобокел": 5350,
      "##нап": 5351,
      "болуу": 5352,
      "жашайт": 5353,
      "тың": 5354,
      "конг": 5355,
      "жигит": 5356,
      "айдын": 5357,
      "эли": 5358,
      "калдык": 5359,
      "ташуучу": 5360,
      "жоопкерчилик": 5361,
      "баштапкы": 5362,
      "no1": 5363,
      "##дүгүн": 5364,
      "##ва": 5365,
      "##ердик": 5366,
      "институтт": 5367,
      "өскөн": 5368,
      "эпидемиологиялык": 5369,
      "лит": 5370,
      "тин": 5371,
      "чагым": 5372,
      "өздөрүнүн": 5373,
      "алынат": 5374,
      "токтотууга": 5375,
      "клуб": 5376,
      "ашыруу": 5377,
      "облустарында": 5378,
      "аралыгында": 5379,
      "сем": 5380,
      "##став": 5381,
      "##ович": 5382,
      "кылышты": 5383,
      "балбан": 5384,
      "абактан": 5385,
      "текебаев": 5386,
      "##бал": 5387,
      "##оран": 5388,
      "дешет": 5389,
      "жашы": 5390,
      "берүүдө": 5391,
      "##башы": 5392,
      "исмаил": 5393,
      "түшүндүрдү": 5394,
      "шайлоону": 5395,
      "##султан": 5396,
      "зомбулукка": 5397,
      "ээлеп": 5398,
      "статистика": 5399,
      "жомарт": 5400,
      "титир": 5401,
      "бри": 5402,
      "айбек": 5403,
      "##дөм": 5404,
      "турабыз": 5405,
      "башкалар": 5406,
      "келгени": 5407,
      "сатуу": 5408,
      "##ерсон": 5409,
      "жолугушууда": 5410,
      "трамптын": 5411,
      "силер": 5412,
      "көздөгөн": 5413,
      "негиздөө": 5414,
      "197": 5415,
      "чаралары": 5416,
      "эркек": 5417,
      "түшүнүк": 5418,
      "ушундан": 5419,
      "##нек": 5420,
      "окуясы": 5421,
      "келечекте": 5422,
      "##дил": 5423,
      "алай": 5424,
      "кыздар": 5425,
      "иштөө": 5426,
      "беле": 5427,
      "белгилейт": 5428,
      "##чуларды": 5429,
      "долбоорду": 5430,
      "##диктер": 5431,
      "бүлөсү": 5432,
      "натыйжалуу": 5433,
      "баянда": 5434,
      "толкун": 5435,
      "жик": 5436,
      "##албай": 5437,
      "2012": 5438,
      "кабылып": 5439,
      "кезинде": 5440,
      "февраль": 5441,
      "жаратып": 5442,
      "пайдаланып": 5443,
      "демократия": 5444,
      "рахмон": 5445,
      "вари": 5446,
      "дмит": 5447,
      "жете": 5448,
      "уккан": 5449,
      "тажикстанда": 5450,
      "бакча": 5451,
      "ашыкча": 5452,
      "##структур": 5453,
      "митингге": 5454,
      "кичи": 5455,
      "шинжаң": 5456,
      "41": 5457,
      "жэб": 5458,
      "экологиялык": 5459,
      "азамат": 5460,
      "мамлекети": 5461,
      "байге": 5462,
      "...+": 5463,
      "катарында": 5464,
      "кодек": 5465,
      "конгрес": 5466,
      "##ио": 5467,
      "жардыр": 5468,
      "##итор": 5469,
      "ачка": 5470,
      "отун": 5471,
      "мүлк": 5472,
      "эстел": 5473,
      "айыптады": 5474,
      "пат": 5475,
      "##баса": 5476,
      "жакш": 5477,
      "турганда": 5478,
      "жарандыгын": 5479,
      "абалга": 5480,
      "көбөйгөн": 5481,
      "студенттер": 5482,
      "санын": 5483,
      "##стык": 5484,
      "баг": 5485,
      "##бековдун": 5486,
      "автоном": 5487,
      "төлөө": 5488,
      "көчүп": 5489,
      "жеткирүү": 5490,
      "согуштун": 5491,
      "афр": 5492,
      "жубайы": 5493,
      ".)": 5494,
      "ах": 5495,
      "##ордо": 5496,
      "арда": 5497,
      "башына": 5498,
      "реакция": 5499,
      "беларустун": 5500,
      "каржылык": 5501,
      "пункт": 5502,
      "дмитр": 5503,
      "##атындагы": 5504,
      "арб": 5505,
      "##абын": 5506,
      "##имди": 5507,
      "жылуу": 5508,
      "өткөрүүгө": 5509,
      "саламаттыкты": 5510,
      "армения": 5511,
      "43": 5512,
      "утур": 5513,
      "утуп": 5514,
      "чоо": 5515,
      "##лин": 5516,
      "иштелип": 5517,
      "##аларынын": 5518,
      "##ушта": 5519,
      "тааныштыр": 5520,
      "уулан": 5521,
      "келтирилген": 5522,
      "мөөнөткө": 5523,
      "мобилизация": 5524,
      "барымта": 5525,
      "ленин": 5526,
      "юст": 5527,
      "##ьт": 5528,
      "##алса": 5529,
      "алууда": 5530,
      "күндүн": 5531,
      "##естив": 5532,
      "өзбекстанга": 5533,
      "сырт": 5534,
      "төмөнкү": 5535,
      "тушунда": 5536,
      "бөлүнүп": 5537,
      "унаа": 5538,
      "шилт": 5539,
      "гран": 5540,
      "жыр": 5541,
      "##гр": 5542,
      "##үүсү": 5543,
      "андагы": 5544,
      "##мага": 5545,
      "мурдар": 5546,
      "жасады": 5547,
      "өлкөлөрүнүн": 5548,
      "өлүмүнө": 5549,
      "көмөк": 5550,
      "заманбап": 5551,
      "аткаминерлер": 5552,
      "фот": 5553,
      "##ушк": 5554,
      "бербейт": 5555,
      "билип": 5556,
      "корп": 5557,
      "билдиришкен": 5558,
      "кура": 5559,
      "убакты": 5560,
      "бузуп": 5561,
      "бийликтен": 5562,
      "жикчил": 5563,
      "кей": 5564,
      "десек": 5565,
      "тартты": 5566,
      "##ылганы": 5567,
      "саткан": 5568,
      "сунуштады": 5569,
      "коомчулукка": 5570,
      "акчасын": 5571,
      "жээнбековдун": 5572,
      "юстиция": 5573,
      "дания": 5574,
      "рав": 5575,
      "##асак": 5576,
      "##скө": 5577,
      "башталып": 5578,
      "##быздын": 5579,
      "көчөлөр": 5580,
      "##ицип": 5581,
      "үстүнөн": 5582,
      "күмүш": 5583,
      "мирзиёев": 5584,
      "re": 5585,
      "##оза": 5586,
      "эсептей": 5587,
      "милицияга": 5588,
      "муницип": 5589,
      "атаандашт": 5590,
      "чочул": 5591,
      "мойнуна": 5592,
      "39": 5593,
      "лондон": 5594,
      "эмест": 5595,
      "ишинин": 5596,
      "эмесмин": 5597,
      "башталат": 5598,
      "сөзү": 5599,
      "айылындагы": 5600,
      "өткөрмө": 5601,
      "алдыда": 5602,
      "экспертт": 5603,
      "жактыр": 5604,
      "никол": 5605,
      "лог": 5606,
      "##тууга": 5607,
      "##өдү": 5608,
      "##ыктары": 5609,
      "ассо": 5610,
      "демилгеси": 5611,
      "көмү": 5612,
      "жөө": 5613,
      "##нев": 5614,
      "##дыкка": 5615,
      "194": 5616,
      "көтөрүлгөн": 5617,
      "инвесторлор": 5618,
      "каттоодон": 5619,
      "эсебинен": 5620,
      "жемк": 5621,
      "каккан": 5622,
      "принцип": 5623,
      "47": 5624,
      "колл": 5625,
      "##үшөт": 5626,
      "көздө": 5627,
      "партиялардын": 5628,
      "деңгээли": 5629,
      "энергиясын": 5630,
      "түпт": 5631,
      "таптакыр": 5632,
      "азиз": 5633,
      "корут": 5634,
      "курама": 5635,
      "жерг": 5636,
      "балам": 5637,
      "үйдөн": 5638,
      "инсан": 5639,
      "берене": 5640,
      "инфра": 5641,
      "жатты": 5642,
      "чех": 5643,
      "##ыбек": 5644,
      "таалай": 5645,
      "кылабыз": 5646,
      "##ктарын": 5647,
      "тартыш": 5648,
      "кошулган": 5649,
      "кечир": 5650,
      "дайынсыз": 5651,
      "сентябрь": 5652,
      "оф": 5653,
      "ры": 5654,
      "таратты": 5655,
      "жайында": 5656,
      "көздөй": 5657,
      "чечимине": 5658,
      "арызын": 5659,
      "калыс": 5660,
      "сүйлөшүүлөрдү": 5661,
      "баяндам": 5662,
      "коргоп": 5663,
      "арзан": 5664,
      "фондунун": 5665,
      "турушат": 5666,
      "атай": 5667,
      "жетет": 5668,
      "##үшүн": 5669,
      "##естр": 5670,
      "бүлөлөр": 5671,
      "бүтүр": 5672,
      "адис": 5673,
      "документтерди": 5674,
      "мурдараак": 5675,
      "лей": 5676,
      "##сылык": 5677,
      "##дукт": 5678,
      "экендигин": 5679,
      "кереги": 5680,
      "тартууга": 5681,
      "азербайжандын": 5682,
      "600": 5683,
      "тун": 5684,
      "##откон": 5685,
      "##ттарын": 5686,
      "буларды": 5687,
      "мамыт": 5688,
      "баланы": 5689,
      "##ишке": 5690,
      "##осун": 5691,
      "кенен": 5692,
      "дмитрий": 5693,
      "вер": 5694,
      "##кус": 5695,
      "алсак": 5696,
      "##улук": 5697,
      "берерин": 5698,
      "кирди": 5699,
      "жалаң": 5700,
      "реалдуу": 5701,
      "жеңип": 5702,
      "себептен": 5703,
      "инфраструктур": 5704,
      "чок": 5705,
      "юн": 5706,
      "##сунун": 5707,
      "##ье": 5708,
      "##или": 5709,
      "барбы": 5710,
      "түздү": 5711,
      "таанылган": 5712,
      "баткенде": 5713,
      "чап": 5714,
      "##шев": 5715,
      "элинин": 5716,
      "##лоого": 5717,
      "күчү": 5718,
      "автом": 5719,
      "башкарган": 5720,
      "саясатын": 5721,
      "кайрылуусунда": 5722,
      "##уучулардын": 5723,
      "ау": 5724,
      "сөзүн": 5725,
      "окуядан": 5726,
      "долларды": 5727,
      "жеткирилген": 5728,
      "белгиленди": 5729,
      "курманбек": 5730,
      "пайызы": 5731,
      "натыйжасында": 5732,
      "болушун": 5733,
      "биринчиден": 5734,
      "айырм": 5735,
      "сүйлөшкөн": 5736,
      "##гери": 5737,
      "##ышын": 5738,
      "кыргызстанды": 5739,
      "окутуу": 5740,
      "бөлүшт": 5741,
      "тармагындагы": 5742,
      "банктар": 5743,
      "күтүү": 5744,
      "жусуп": 5745,
      "күл": 5746,
      "чир": 5747,
      "колунда": 5748,
      "койсо": 5749,
      "сулай": 5750,
      "фракциясынын": 5751,
      "нью": 5752,
      "##сең": 5753,
      "айына": 5754,
      "##истикалык": 5755,
      "түздөн": 5756,
      "жашта": 5757,
      "уюштуруп": 5758,
      "мамилеси": 5759,
      "чынында": 5760,
      "ойлоп": 5761,
      "тагдыры": 5762,
      "концер": 5763,
      "ассоци": 5764,
      "лу": 5765,
      "рев": 5766,
      "##өңг": 5767,
      "##жа": 5768,
      "##гап": 5769,
      "күндүк": 5770,
      "кетишкен": 5771,
      "марттан": 5772,
      "##игип": 5773,
      "сунушу": 5774,
      "жоюл": 5775,
      "адатта": 5776,
      "бошотулган": 5777,
      "сайтына": 5778,
      "тегерегинде": 5779,
      "харь": 5780,
      "глобалдык": 5781,
      "бен": 5782,
      "айкын": 5783,
      "##умун": 5784,
      "абакка": 5785,
      "чыгышы": 5786,
      "коомдо": 5787,
      "ооба": 5788,
      "салууну": 5789,
      "ишканасы": 5790,
      "системасын": 5791,
      "фейсб": 5792,
      "көмүскө": 5793,
      "өп": 5794,
      "##аттагы": 5795,
      "##рациялык": 5796,
      "жарл": 5797,
      "негизсиз": 5798,
      "сурамж": 5799,
      "себебин": 5800,
      "кемчил": 5801,
      "коңш": 5802,
      "иимдин": 5803,
      "new": 5804,
      "##анов": 5805,
      "##дайт": 5806,
      "өнүк": 5807,
      "төрайым": 5808,
      "майга": 5809,
      "чыкканы": 5810,
      "мөөнөтт": 5811,
      "федералдык": 5812,
      "чыгармачыл": 5813,
      "тыйын": 5814,
      "изилдөөлөр": 5815,
      "ассоциация": 5816,
      "при": 5817,
      "жолуккан": 5818,
      "айыптар": 5819,
      "коргоого": 5820,
      "ичиндеги": 5821,
      "исаков": 5822,
      "агенттигине": 5823,
      "##ыктарга": 5824,
      "энергетикалык": 5825,
      "баратат": 5826,
      "бекемдөө": 5827,
      "блогер": 5828,
      "умт": 5829,
      "демонстранттар": 5830,
      "##ce": 5831,
      "##унд": 5832,
      "##ишет": 5833,
      "кызматтык": 5834,
      "абды": 5835,
      "##ктады": 5836,
      "тарапка": 5837,
      "киргизип": 5838,
      "аралашкан": 5839,
      "коркунучу": 5840,
      "кармаган": 5841,
      "буйрук": 5842,
      "мектепте": 5843,
      "чай": 5844,
      "жатпайбы": 5845,
      "сурады": 5846,
      "##измге": 5847,
      "2005": 5848,
      "мекендешт": 5849,
      "мөөнөтүнөн": 5850,
      "жамгыр": 5851,
      "буюр": 5852,
      "назарбаев": 5853,
      "тум": 5854,
      "##гал": 5855,
      "##ңер": 5856,
      "апрелге": 5857,
      "##ууларга": 5858,
      "китепт": 5859,
      "ийгиликтүү": 5860,
      "юрист": 5861,
      "венгр": 5862,
      "сурамжыл": 5863,
      "##янын": 5864,
      "##рч": 5865,
      "каф": 5866,
      "коюшкан": 5867,
      "тыны": 5868,
      "миссия": 5869,
      "узар": 5870,
      "радиосу": 5871,
      "түйш": 5872,
      "үйрөн": 5873,
      "жуктуруп": 5874,
      "кичин": 5875,
      "тосуп": 5876,
      "баңгиз": 5877,
      "##май": 5878,
      "элчи": 5879,
      "апт": 5880,
      "түшүндүрүү": 5881,
      "кыскарт": 5882,
      "##еренция": 5883,
      "көмөкт": 5884,
      "%,": 5885,
      "85": 5886,
      "##гол": 5887,
      "##гур": 5888,
      "##сал": 5889,
      "аймакка": 5890,
      "жарылуу": 5891,
      "##сың": 5892,
      "калганда": 5893,
      "курулушу": 5894,
      "ооганстанда": 5895,
      "калыптан": 5896,
      "өтүнүчү": 5897,
      "##бир": 5898,
      "##ir": 5899,
      "##арда": 5900,
      "менчи": 5901,
      "бөлмө": 5902,
      "кармоочу": 5903,
      "##сунан": 5904,
      "окшош": 5905,
      "альян": 5906,
      "адабият": 5907,
      "генерал": 5908,
      "##аа": 5909,
      "##пеген": 5910,
      "андр": 5911,
      "экология": 5912,
      "өкүн": 5913,
      "кыян": 5914,
      "экспорт": 5915,
      "өзгөч": 5916,
      "жобо": 5917,
      "козголуп": 5918,
      "киевге": 5919,
      "евробиримдиктин": 5920,
      "##инче": 5921,
      "алдык": 5922,
      "түрлөр": 5923,
      "акцияга": 5924,
      "орточо": 5925,
      "абдрах": 5926,
      "кесиптик": 5927,
      "достук": 5928,
      "ром": 5929,
      "айтышууда": 5930,
      "күчөгөн": 5931,
      "кошуна": 5932,
      "тактоо": 5933,
      "нерсени": 5934,
      "радикал": 5935,
      "түшүнүкт": 5936,
      "орду": 5937,
      "жарлык": 5938,
      "жарандарын": 5939,
      "шайлоочулардын": 5940,
      "чарасы": 5941,
      "жөнүндөгү": 5942,
      "иликтеп": 5943,
      "наам": 5944,
      "армениянын": 5945,
      "муниципалдык": 5946,
      "##ыларын": 5947,
      "##ткү": 5948,
      "башчылары": 5949,
      "чыгарууга": 5950,
      "эсен": 5951,
      "абагына": 5952,
      "##лашкан": 5953,
      "аялдарга": 5954,
      "финансылык": 5955,
      "салмакта": 5956,
      "вагнер": 5957,
      "ира": 5958,
      "херсон": 5959,
      "##стер": 5960,
      "депор": 5961,
      "колон": 5962,
      "##үмдүк": 5963,
      "##иссер": 5964,
      "аткез": 5965,
      "жүргөнүн": 5966,
      "кызматкерлерине": 5967,
      "элчилиги": 5968,
      "райондордо": 5969,
      "дүр": 5970,
      "сект": 5971,
      "##ia": 5972,
      "##етинде": 5973,
      "##улов": 5974,
      "баасын": 5975,
      "жаайт": 5976,
      "жаткыр": 5977,
      "сөзүнө": 5978,
      "аймактын": 5979,
      "жыйыр": 5980,
      "кытайда": 5981,
      "көчмөн": 5982,
      "тизмесине": 5983,
      "үндө": 5984,
      "масштаб": 5985,
      "пнев": 5986,
      "##пин": 5987,
      "коор": 5988,
      "эмге": 5989,
      "акмат": 5990,
      "жаралган": 5991,
      "сотунда": 5992,
      "органдарына": 5993,
      "күйүүчү": 5994,
      "согуштук": 5995,
      "оппозициячыл": 5996,
      "тирүү": 5997,
      "жолдош": 5998,
      "кремлдин": 5999,
      "ылдам": 6000,
      "виза": 6001,
      "жоб": 6002,
      "сүз": 6003,
      "##тө": 6004,
      "##екей": 6005,
      "##улушу": 6006,
      "##ыктарын": 6007,
      "кабарчысы": 6008,
      "жыйыны": 6009,
      "пикири": 6010,
      "кечирим": 6011,
      "экинчиси": 6012,
      "тапшырган": 6013,
      "сындаган": 6014,
      "талаштуу": 6015,
      "##дел": 6016,
      "ишемб": 6017,
      "чакыруу": 6018,
      "коюшту": 6019,
      "катарына": 6020,
      "тарыхы": 6021,
      "ноябрь": 6022,
      "##дп": 6023,
      "##атов": 6024,
      "келерин": 6025,
      "##лис": 6026,
      "жайыл": 6027,
      "долбоордун": 6028,
      "эсептелет": 6029,
      "аскерлерин": 6030,
      "командасы": 6031,
      "сактагыч": 6032,
      "равшан": 6033,
      "аал": 6034,
      "айыгып": 6035,
      "айылда": 6036,
      "##дром": 6037,
      "токмок": 6038,
      "калаа": 6039,
      "кыйынчыл": 6040,
      "замир": 6041,
      "гезит": 6042,
      "мухаммед": 6043,
      "харьков": 6044,
      "депортация": 6045,
      "жмк": 6046,
      "хол": 6047,
      "##кем": 6048,
      "##ешкен": 6049,
      "азиянын": 6050,
      "чечен": 6051,
      "192": 6052,
      "киргизилди": 6053,
      "качкан": 6054,
      "кызматкерлердин": 6055,
      "ишенимдүү": 6056,
      "кырсык": 6057,
      "дер": 6058,
      "##ардан": 6059,
      "##сты": 6060,
      "##иль": 6061,
      "төрөлгөн": 6062,
      "борборлор": 6063,
      "башкарып": 6064,
      "албайм": 6065,
      "тааныш": 6066,
      "уулунун": 6067,
      "кризист": 6068,
      "душман": 6069,
      "тра": 6070,
      "бос": 6071,
      "казакстандагы": 6072,
      "орунду": 6073,
      "кимге": 6074,
      "европадагы": 6075,
      "##орттун": 6076,
      "эреже": 6077,
      "ачылды": 6078,
      "бийлигине": 6079,
      "медал": 6080,
      "кесепети": 6081,
      "польш": 6082,
      "координ": 6083,
      "кыш": 6084,
      "##ком": 6085,
      "косм": 6086,
      "##идеги": 6087,
      "аялы": 6088,
      "дүйнөгө": 6089,
      "ырайы": 6090,
      "диал": 6091,
      "жетектеп": 6092,
      "жылдыгына": 6093,
      "заво": 6094,
      "##алышын": 6095,
      "абылгазиев": 6096,
      "иса": 6097,
      "сууга": 6098,
      "##етине": 6099,
      "канат": 6100,
      "байланыштыр": 6101,
      "2011": 6102,
      "бийликте": 6103,
      "чектеш": 6104,
      "интерв": 6105,
      "жагдайлар": 6106,
      "отуз": 6107,
      "сереп": 6108,
      "быш": 6109,
      "гон": 6110,
      "турсун": 6111,
      "каст": 6112,
      "кетсе": 6113,
      "салтан": 6114,
      "тили": 6115,
      "##лигин": 6116,
      "мигрант": 6117,
      "##штыруу": 6118,
      "участ": 6119,
      "ракеталык": 6120,
      "бутага": 6121,
      "штабдын": 6122,
      "өзгөчөл": 6123,
      "пневмон": 6124,
      "гол": 6125,
      "байл": 6126,
      "##үндөй": 6127,
      "шаарларында": 6128,
      "акыры": 6129,
      "абалын": 6130,
      "экспертиза": 6131,
      "##абил": 6132,
      "##ыйт": 6133,
      "билдирет": 6134,
      "чечип": 6135,
      "бекеш": 6136,
      "пикиринде": 6137,
      "күчтөрдүн": 6138,
      "##оолорду": 6139,
      "##ылышына": 6140,
      "редакция": 6141,
      "центер": 6142,
      "##пак": 6143,
      "##сындагы": 6144,
      "##ter": 6145,
      "курууга": 6146,
      "келгенден": 6147,
      "196": 6148,
      "суроого": 6149,
      "түркияга": 6150,
      "сакталып": 6151,
      "##суалдык": 6152,
      "даярдап": 6153,
      "бошотуу": 6154,
      "жаратылыш": 6155,
      "минск": 6156,
      "кино": 6157,
      "мээр": 6158,
      "##аф": 6159,
      "##he": 6160,
      "аймагы": 6161,
      "жээг": 6162,
      "аракеттерин": 6163,
      "##ers": 6164,
      "##лен": 6165,
      "##олук": 6166,
      "какты": 6167,
      "катчы": 6168,
      "жүрө": 6169,
      "195": 6170,
      "##уулары": 6171,
      "чыккандан": 6172,
      "окуяларды": 6173,
      "пикирде": 6174,
      "иликтөөлөр": 6175,
      "өкмөттү": 6176,
      "полициясы": 6177,
      "жабырлан": 6178,
      "артынан": 6179,
      "матраимовдун": 6180,
      "тегеран": 6181,
      "ашы": 6182,
      "##лет": 6183,
      "атал": 6184,
      "катм": 6185,
      "экенине": 6186,
      "башын": 6187,
      "##кыч": 6188,
      "кирүүгө": 6189,
      "жайкын": 6190,
      "##сион": 6191,
      "окууда": 6192,
      "##ациялоо": 6193,
      "уруп": 6194,
      "ойдо": 6195,
      "соккул": 6196,
      "сиге": 6197,
      "репрессия": 6198,
      "бейшеналиев": 6199,
      "укт": 6200,
      "айн": 6201,
      "кардар": 6202,
      "кыргыздын": 6203,
      "атабыз": 6204,
      "2013": 6205,
      "коюш": 6206,
      "тизме": 6207,
      "санкциялар": 6208,
      "тажрыйба": 6209,
      "механ": 6210,
      "жоктугун": 6211,
      "чагылдыр": 6212,
      "демократтар": 6213,
      "асп": 6214,
      "ро": 6215,
      "##пул": 6216,
      "жазылып": 6217,
      "балдарын": 6218,
      "шаардагы": 6219,
      "аймагынан": 6220,
      "тополоң": 6221,
      "баштаганын": 6222,
      "дене": 6223,
      "башчысынын": 6224,
      "программасы": 6225,
      "окумуштуулар": 6226,
      "күбөлөр": 6227,
      "ауди": 6228,
      "##инов": 6229,
      "##циялоо": 6230,
      "##өлөк": 6231,
      "##ланд": 6232,
      "колунан": 6233,
      "доллардан": 6234,
      "колдоого": 6235,
      "материалдык": 6236,
      "жатышканын": 6237,
      "##сен": 6238,
      "##it": 6239,
      "##юп": 6240,
      "##us": 6241,
      "азим": 6242,
      "башчынын": 6243,
      "миллионго": 6244,
      "##баганын": 6245,
      "макулдашуу": 6246,
      "администрациясы": 6247,
      "суроолоруна": 6248,
      "##кунун": 6249,
      "##бер": 6250,
      "##уктан": 6251,
      "##анган": 6252,
      "##урман": 6253,
      "көрбөгөн": 6254,
      "курулган": 6255,
      "кант": 6256,
      "шаарынан": 6257,
      "талапт": 6258,
      "облусуна": 6259,
      "үмүтт": 6260,
      "сайтында": 6261,
      "созулган": 6262,
      "кмш": 6263,
      "раз": 6264,
      "##идин": 6265,
      "##рек": 6266,
      "##орд": 6267,
      "анык": 6268,
      "ордо": 6269,
      "програм": 6270,
      "2000": 6271,
      "жүрүшү": 6272,
      "кирүү": 6273,
      "чыккандар": 6274,
      "ортом": 6275,
      "тармагы": 6276,
      "сыйлык": 6277,
      "маркумдун": 6278,
      "кыял": 6279,
      "лукашенко": 6280,
      "##назаров": 6281,
      "кесиптешт": 6282,
      "жемкорл": 6283,
      "исп": 6284,
      "##дыл": 6285,
      "##тун": 6286,
      "алиев": 6287,
      "##ипов": 6288,
      "##башт": 6289,
      "кетишти": 6290,
      "коюлуп": 6291,
      "##чыларынын": 6292,
      "прокуратурасы": 6293,
      "согуштан": 6294,
      "биримдик": 6295,
      "##ылышын": 6296,
      "экспертиз": 6297,
      "авиак": 6298,
      "шилтеме": 6299,
      "52": 6300,
      "чегинде": 6301,
      "##бест": 6302,
      "окуучу": 6303,
      "чыгышт": 6304,
      "борборунда": 6305,
      "бүткүл": 6306,
      "четтет": 6307,
      "54": 6308,
      "болсун": 6309,
      "аза": 6310,
      "жеринде": 6311,
      "тартышты": 6312,
      "##иктен": 6313,
      "##ибер": 6314,
      "өткөрүлүп": 6315,
      "миллиондогон": 6316,
      "бакч": 6317,
      "макулда": 6318,
      "шектүүлөр": 6319,
      "көрүнүп": 6320,
      "блин": 6321,
      "ташыган": 6322,
      "болору": 6323,
      "жаратты": 6324,
      "өтүүгө": 6325,
      "жекшембиде": 6326,
      "анткен": 6327,
      "тизмеге": 6328,
      "биримдигинин": 6329,
      "аскерлеринин": 6330,
      "кабинети": 6331,
      "талдоочу": 6332,
      "иштебей": 6333,
      "каарман": 6334,
      "блинкен": 6335,
      "куп": 6336,
      "мү": 6337,
      "##om": 6338,
      "##алиция": 6339,
      "жүргүн": 6340,
      "нурсултан": 6341,
      "интернетке": 6342,
      "тонн": 6343,
      "институту": 6344,
      "конференция": 6345,
      "эфир": 6346,
      "мушт": 6347,
      "поп": 6348,
      "шылт": 6349,
      "##гыра": 6350,
      "туристтер": 6351,
      "кызды": 6352,
      "кабаттуу": 6353,
      "##уштук": 6354,
      "киргизил": 6355,
      "тизмесин": 6356,
      "үстөм": 6357,
      "донецк": 6358,
      "коопсуздугу": 6359,
      "мүнөздө": 6360,
      "кримин": 6361,
      "шав": 6362,
      "##ортко": 6363,
      "##генин": 6364,
      "##дарынан": 6365,
      "маян": 6366,
      "мындайча": 6367,
      "илин": 6368,
      "деклар": 6369,
      "акциялары": 6370,
      "сабыр": 6371,
      "институтунун": 6372,
      "академ": 6373,
      "бук": 6374,
      "##тр": 6375,
      "##гысы": 6376,
      "##ланат": 6377,
      "реестр": 6378,
      "жүргүзүлгөн": 6379,
      "эркиндигин": 6380,
      "120": 6381,
      "мектептин": 6382,
      "дам": 6383,
      "дегендей": 6384,
      "өкүлдөрүнүн": 6385,
      "##мөк": 6386,
      "##аевдин": 6387,
      "жоопкерчилиги": 6388,
      "үйрөт": 6389,
      "идея": 6390,
      "түшүндүрмөсү": 6391,
      "тарапташтары": 6392,
      "камтылган": 6393,
      "өрөөнүндө": 6394,
      "##ств": 6395,
      "аннек": 6396,
      "том": 6397,
      "##дүгү": 6398,
      "жайларда": 6399,
      "##иби": 6400,
      "##дикти": 6401,
      "тапшырды": 6402,
      "чакты": 6403,
      "вирустун": 6404,
      "стандар": 6405,
      "плат": 6406,
      "58": 6407,
      "норм": 6408,
      "##мур": 6409,
      "айларында": 6410,
      "баб": 6411,
      "коалиция": 6412,
      "сомду": 6413,
      "эркектер": 6414,
      "урмат": 6415,
      "дармек": 6416,
      "дараж": 6417,
      "жүргүзүлүп": 6418,
      "барганда": 6419,
      "санкцияларды": 6420,
      "дарыгерлердин": 6421,
      "көчөгө": 6422,
      "айлана": 6423,
      "баалуулу": 6424,
      "милдеттендир": 6425,
      "аннексия": 6426,
      "57": 6427,
      "рас": 6428,
      "алдам": 6429,
      "берүүнүн": 6430,
      "сагын": 6431,
      "катышат": 6432,
      "кайн": 6433,
      "калышты": 6434,
      "камалды": 6435,
      "мари": 6436,
      "окуянын": 6437,
      "кызматта": 6438,
      "суук": 6439,
      "мигранттарды": 6440,
      "тургай": 6441,
      "франциянын": 6442,
      "куугунтук": 6443,
      "архив": 6444,
      "өнүктүрүүгө": 6445,
      "46": 6446,
      "##хаб": 6447,
      "##ur": 6448,
      "алда": 6449,
      "келер": 6450,
      "жүрдү": 6451,
      "алгандардын": 6452,
      "кишиден": 6453,
      "жыйн": 6454,
      "өткөрдү": 6455,
      "сактоого": 6456,
      "##лашты": 6457,
      "арызы": 6458,
      "кенем": 6459,
      "бурм": 6460,
      "беришет": 6461,
      "кореянын": 6462,
      "лейлек": 6463,
      "49": 6464,
      "абай": 6465,
      "ип": 6466,
      "чий": 6467,
      "##оодон": 6468,
      "болгондон": 6469,
      "##бойт": 6470,
      "өтүшү": 6471,
      "түрткү": 6472,
      "көрсө": 6473,
      "урм": 6474,
      "кеңешчиси": 6475,
      "европанын": 6476,
      "окуучулар": 6477,
      "талапкерлердин": 6478,
      "адабия": 6479,
      "дайындалды": 6480,
      "советтер": 6481,
      "үс": 6482,
      "##арх": 6483,
      "##ерд": 6484,
      "жактагы": 6485,
      "##бады": 6486,
      "жазасын": 6487,
      "иштерге": 6488,
      "##елерге": 6489,
      "окуяларга": 6490,
      "аныктап": 6491,
      "бекер": 6492,
      "төлө": 6493,
      "спект": 6494,
      "кайтаруу": 6495,
      "1990": 6496,
      "мирлан": 6497,
      "департаментинин": 6498,
      "валюта": 6499,
      "ги": 6500,
      "##ынып": 6501,
      "келүүдө": 6502,
      "келишти": 6503,
      "турууга": 6504,
      "жолунун": 6505,
      "жокмун": 6506,
      "жумур": 6507,
      "иранда": 6508,
      "жумушсуз": 6509,
      "жазгандай": 6510,
      "ортодо": 6511,
      "буудай": 6512,
      "астында": 6513,
      "сузак": 6514,
      "кичинекей": 6515,
      "ti": 6516,
      "the": 6517,
      "арасын": 6518,
      "##дугу": 6519,
      "үчөө": 6520,
      "жөндөм": 6521,
      "алдыдагы": 6522,
      "журналисттик": 6523,
      "адахан": 6524,
      "абдулла": 6525,
      "сумма": 6526,
      "жокпуз": 6527,
      "51": 6528,
      "##ерв": 6529,
      "##имде": 6530,
      "##алардан": 6531,
      "##иктерди": 6532,
      "чыкса": 6533,
      "түшүнүп": 6534,
      "##тони": 6535,
      "иштетүү": 6536,
      "инвестициялык": 6537,
      "кызматташуу": 6538,
      "ченем": 6539,
      "жун": 6540,
      "##ессия": 6541,
      "##ашин": 6542,
      "өндүрүү": 6543,
      "сайма": 6544,
      "студент": 6545,
      "##орож": 6546,
      "фестив": 6547,
      "##дал": 6548,
      "##сине": 6549,
      "өздөрүн": 6550,
      "айтышат": 6551,
      "##гожин": 6552,
      "президенттикке": 6553,
      "##ибизди": 6554,
      "гор": 6555,
      "ижар": 6556,
      "фрон": 6557,
      "##сов": 6558,
      "##орунун": 6559,
      "##амбет": 6560,
      "##икасы": 6561,
      "маг": 6562,
      "маек": 6563,
      "##ешти": 6564,
      "даярдоо": 6565,
      "эркиндик": 6566,
      "натонун": 6567,
      "жогоруда": 6568,
      "тагылган": 6569,
      "##гуз": 6570,
      "##мен": 6571,
      "##олот": 6572,
      "булак": 6573,
      "талан": 6574,
      "кетсек": 6575,
      "салгыл": 6576,
      "украиналык": 6577,
      "күчүндө": 6578,
      "жарандарына": 6579,
      "чарасын": 6580,
      "жапаровго": 6581,
      "кимдер": 6582,
      "аракеттерди": 6583,
      "салынат": 6584,
      "сунушун": 6585,
      "ээлеген": 6586,
      "кризис": 6587,
      "окумуштуу": 6588,
      "##хаил": 6589,
      "кубанычбек": 6590,
      "шавкат": 6591,
      "чур": 6592,
      "##ol": 6593,
      "##na": 6594,
      "##мад": 6595,
      "жайына": 6596,
      "##дөргө": 6597,
      "байланышта": 6598,
      "кылмы": 6599,
      "абактагы": 6600,
      "рест": 6601,
      "колдонулган": 6602,
      "берилгенин": 6603,
      "жапония": 6604,
      "дайында": 6605,
      "петер": 6606,
      "вариан": 6607,
      "62": 6608,
      "##нам": 6609,
      "##асың": 6610,
      "үйл": 6611,
      "##устар": 6612,
      "уюмга": 6613,
      "өткөндөн": 6614,
      "кесилген": 6615,
      "долбооруна": 6616,
      "тармагына": 6617,
      "нато": 6618,
      "салынды": 6619,
      "саатка": 6620,
      "жоопкерчиликти": 6621,
      "пандемиясы": 6622,
      "шартында": 6623,
      "үзгүлтүккө": 6624,
      "платф": 6625,
      "тиг": 6626,
      "##айм": 6627,
      "тартк": 6628,
      "орусияны": 6629,
      "келгендер": 6630,
      "борбордун": 6631,
      "түндүг": 6632,
      "комисс": 6633,
      "тигил": 6634,
      "уюштурулган": 6635,
      "##ификация": 6636,
      "ташкентт": 6637,
      "сверд": 6638,
      "отчет": 6639,
      "профессор": 6640,
      "пашин": 6641,
      "##ров": 6642,
      "##жыр": 6643,
      "##ig": 6644,
      "ансыз": 6645,
      "келб": 6646,
      "бардыгын": 6647,
      "калкы": 6648,
      "тартылып": 6649,
      "##дорго": 6650,
      "көлбаев": 6651,
      "курулуп": 6652,
      "тарыхында": 6653,
      "##дегенде": 6654,
      "кызыкдар": 6655,
      "мандат": 6656,
      "чалып": 6657,
      "##дат": 6658,
      "алк": 6659,
      "##улова": 6660,
      "айы": 6661,
      "бирден": 6662,
      "кож": 6663,
      "конушт": 6664,
      "чараларын": 6665,
      "күтүлүүдө": 6666,
      "спортчу": 6667,
      "агрессия": 6668,
      "азайып": 6669,
      "жаныбар": 6670,
      "автобус": 6671,
      "англис": 6672,
      "пригожин": 6673,
      "декларация": 6674,
      "кепт": 6675,
      "хама": 6676,
      "##as": 6677,
      "##ёр": 6678,
      "тилект": 6679,
      "жеңишке": 6680,
      "баарыбыз": 6681,
      "чогултуп": 6682,
      "уйгур": 6683,
      "запорож": 6684,
      "зарылдыгын": 6685,
      "төк": 6686,
      "ыз": 6687,
      "айтыш": 6688,
      "абак": 6689,
      "төраг": 6690,
      "191": 6691,
      "жумган": 6692,
      "сүйүн": 6693,
      "толукт": 6694,
      "эсептелген": 6695,
      "көзөмөлдө": 6696,
      "ырайым": 6697,
      "олтур": 6698,
      "аралыкта": 6699,
      "керектөө": 6700,
      "сиздин": 6701,
      "кесепетт": 6702,
      "интел": 6703,
      "ыңгайлуу": 6704,
      "пашинян": 6705,
      "дуу": 6706,
      "ымыр": 6707,
      "тагын": 6708,
      "##ектүү": 6709,
      "чыкп": 6710,
      "марк": 6711,
      "стал": 6712,
      "сүйлөшт": 6713,
      "тергөөнүн": 6714,
      "уюштурууга": 6715,
      "кыйноого": 6716,
      "мугалимдер": 6717,
      "түрмөдө": 6718,
      "мандаттуу": 6719,
      "айтканы": 6720,
      "жигер": 6721,
      "төңк": 6722,
      "##омпания": 6723,
      "53": 6724,
      "68": 6725,
      "##диев": 6726,
      "бая": 6727,
      "##есиз": 6728,
      "##есиндеги": 6729,
      "##итект": 6730,
      "колдой": 6731,
      "мыйзамдарды": 6732,
      "өнүм": 6733,
      "оорунун": 6734,
      "ред": 6735,
      "ойлор": 6736,
      "өлкөлөрдөн": 6737,
      "келишимди": 6738,
      "##актары": 6739,
      "финалда": 6740,
      "##ханов": 6741,
      "чыгышындагы": 6742,
      "дүң": 6743,
      "зон": 6744,
      "йор": 6745,
      "##шар": 6746,
      "##часы": 6747,
      "кочк": 6748,
      "##умду": 6749,
      "сөзүндө": 6750,
      "өзгөрүү": 6751,
      "таанымал": 6752,
      "бузуулар": 6753,
      "машыктыр": 6754,
      "көчөдө": 6755,
      "улантып": 6756,
      "бакиевдин": 6757,
      "лукашенк": 6758,
      "мүлктү": 6759,
      "центерра": 6760,
      "°,": 6761,
      "##күр": 6762,
      "##шай": 6763,
      "арага": 6764,
      "жылдыр": 6765,
      "өзгөн": 6766,
      "турса": 6767,
      "жетим": 6768,
      "мурас": 6769,
      "таануу": 6770,
      "келтирип": 6771,
      "өндүрүшт": 6772,
      "планы": 6773,
      "прокуратурага": 6774,
      "рубль": 6775,
      "биргеликте": 6776,
      "твиттер": 6777,
      "кепилдик": 6778,
      "куттукт": 6779,
      "свердлов": 6780,
      "теп": 6781,
      "##стөн": 6782,
      "каг": 6783,
      "белгилери": 6784,
      "жашында": 6785,
      "көрсөтүүгө": 6786,
      "орунга": 6787,
      "аныкталып": 6788,
      "талапкерлигин": 6789,
      "айланасындагы": 6790,
      "которгон": 6791,
      "калтырды": 6792,
      "чыңалуу": 6793,
      "спектак": 6794,
      "ус": 6795,
      "##стагы": 6796,
      "айтматов": 6797,
      "##ышта": 6798,
      "адамдары": 6799,
      "жердин": 6800,
      "михаил": 6801,
      "маселесине": 6802,
      "мурдагыдай": 6803,
      "жанындагы": 6804,
      "иликтен": 6805,
      "2009": 6806,
      "айтылгандай": 6807,
      "суроолорго": 6808,
      "##орлору": 6809,
      "диалог": 6810,
      "цзин": 6811,
      "##юк": 6812,
      "айланды": 6813,
      "жагы": 6814,
      "##өлүп": 6815,
      "кыргызча": 6816,
      "маалыматтык": 6817,
      "жүрүм": 6818,
      "өтөп": 6819,
      "коронавирусту": 6820,
      "дарм": 6821,
      "кылганын": 6822,
      "камсыздан": 6823,
      "мигранттарга": 6824,
      "no2": 6825,
      "чемпиону": 6826,
      "топтордун": 6827,
      "тааныган": 6828,
      "алмашуу": 6829,
      "намаз": 6830,
      "тандап": 6831,
      "фото": 6832,
      "##лору": 6833,
      "##уң": 6834,
      "##гый": 6835,
      "##ург": 6836,
      "##илов": 6837,
      "жайылып": 6838,
      "түзүүгө": 6839,
      "авст": 6840,
      "сатылып": 6841,
      "ээн": 6842,
      "көтөрүлдү": 6843,
      "аймактарга": 6844,
      "тапшырып": 6845,
      "техника": 6846,
      "коопсуздукту": 6847,
      "калтырган": 6848,
      "сириянын": 6849,
      "аппарат": 6850,
      "дарыланып": 6851,
      "немис": 6852,
      "63": 6853,
      "хим": 6854,
      "шери": 6855,
      "билин": 6856,
      "жашоого": 6857,
      "##герлер": 6858,
      "аныктаган": 6859,
      "көзөмөлдөп": 6860,
      "төртүнчү": 6861,
      "сунушталган": 6862,
      "2008": 6863,
      "тейлөө": 6864,
      "адегенде": 6865,
      "суб": 6866,
      "##не": 6867,
      "##лаш": 6868,
      "алим": 6869,
      "болушкан": 6870,
      "мамбет": 6871,
      "калбай": 6872,
      "жөнөткөн": 6873,
      "бериле": 6874,
      "журналисттин": 6875,
      "тапшырм": 6876,
      "сайты": 6877,
      "темиров": 6878,
      "камактагы": 6879,
      "агай": 6880,
      "белгилегендей": 6881,
      "архитект": 6882,
      "моралдык": 6883,
      "мамытов": 6884,
      "австрал": 6885,
      "мем": 6886,
      "##цар": 6887,
      "##ымдын": 6888,
      "даана": 6889,
      "аларын": 6890,
      "ишканалар": 6891,
      "тизмеси": 6892,
      "жакшыртуу": 6893,
      "болбогонун": 6894,
      "улукбек": 6895,
      "мик": 6896,
      "хор": 6897,
      "соц": 6898,
      "аягы": 6899,
      "тилдүү": 6900,
      "күрө": 6901,
      "долларлык": 6902,
      "кошумчалаган": 6903,
      "кызыкчылыгы": 6904,
      "анклав": 6905,
      "өзүбүздүн": 6906,
      "фун": 6907,
      "##пөгөн": 6908,
      "##ордон": 6909,
      "##ульт": 6910,
      "жаатындагы": 6911,
      "кое": 6912,
      "жолдун": 6913,
      "##дөрүнө": 6914,
      "белгилей": 6915,
      "шарты": 6916,
      "опуз": 6917,
      "койгонун": 6918,
      "которулган": 6919,
      "коркунучтуу": 6920,
      "механизм": 6921,
      "##өргө": 6922,
      "кожо": 6923,
      "кыргыздардын": 6924,
      "баруу": 6925,
      "##ита": 6926,
      "украинаны": 6927,
      "чечүүгө": 6928,
      "чечимге": 6929,
      "жакындарына": 6930,
      "кимдин": 6931,
      "конституциянын": 6932,
      "жугушт": 6933,
      "резолюция": 6934,
      "жумуштан": 6935,
      "биргелешип": 6936,
      "беларуста": 6937,
      "56": 6938,
      "бөрү": 6939,
      "шир": 6940,
      "##зел": 6941,
      "##күл": 6942,
      "##ii": 6943,
      "##еки": 6944,
      "##шкы": 6945,
      "камалып": 6946,
      "жарандарынын": 6947,
      "өткөрүүнү": 6948,
      "сомдук": 6949,
      "октябрга": 6950,
      "колдоосу": 6951,
      "күйүп": 6952,
      "максим": 6953,
      "сөздөрдү": 6954,
      "психологиялык": 6955,
      "жетекчисинин": 6956,
      "ушуга": 6957,
      "көргөзмө": 6958,
      "төрайымы": 6959,
      "мээрим": 6960,
      "жөлөк": 6961,
      "калууда": 6962,
      "пер": 6963,
      "##тыл": 6964,
      "##усуна": 6965,
      "барууга": 6966,
      "кори": 6967,
      "##ктарда": 6968,
      "кошулуп": 6969,
      "каражатты": 6970,
      "түштүг": 6971,
      "талкууланып": 6972,
      "чогулт": 6973,
      "коркутуп": 6974,
      "этникалык": 6975,
      "##ская": 6976,
      "швей": 6977,
      "өнүккөн": 6978,
      "көмөктөш": 6979,
      "петербург": 6980,
      "рейт": 6981,
      "##мамат": 6982,
      "##боо": 6983,
      "бабан": 6984,
      "##усун": 6985,
      "азап": 6986,
      "аткарган": 6987,
      "пайдалуу": 6988,
      "курчуп": 6989,
      "жкку": 6990,
      "батыштын": 6991,
      "мазм": 6992,
      "үсөн": 6993,
      "77": 6994,
      "сүт": 6995,
      "шаш": 6996,
      "##мир": 6997,
      "##өбаев": 6998,
      "болушту": 6999,
      "аксы": 7000,
      "атом": 7001,
      "##ишкенин": 7002,
      "шаарын": 7003,
      "жыйынын": 7004,
      "апа": 7005,
      "сотуна": 7006,
      "төлөгөн": 7007,
      "көзөмөлдөгөн": 7008,
      "эскертип": 7009,
      "декабрь": 7010,
      "оңдоп": 7011,
      "интернетте": 7012,
      "бюджеттен": 7013,
      "билбейм": 7014,
      "шве": 7015,
      "байыркы": 7016,
      "андрей": 7017,
      "швейцар": 7018,
      "рим": 7019,
      "##сыл": 7020,
      "##чук": 7021,
      "##дак": 7022,
      "деб": 7023,
      "тууганы": 7024,
      "өткөнүн": 7025,
      "жарандын": 7026,
      "макрон": 7027,
      "кимдир": 7028,
      "узун": 7029,
      "##оолорго": 7030,
      "имарат": 7031,
      "жылдардагы": 7032,
      "мейкин": 7033,
      "##uters": 7034,
      "арбын": 7035,
      "reuters": 7036,
      "программа": 7037,
      "жугуштуу": 7038,
      "зулуш": 7039,
      "##iv": 7040,
      "##ic": 7041,
      "##икага": 7042,
      "кылыч": 7043,
      "кабылганын": 7044,
      "##асыңар": 7045,
      "жоголгон": 7046,
      "борборуна": 7047,
      "кеткенден": 7048,
      "кечки": 7049,
      "токио": 7050,
      "козгогон": 7051,
      "вирусту": 7052,
      "айланасында": 7053,
      "оорудан": 7054,
      "таңкы": 7055,
      "##иттин": 7056,
      "акысыз": 7057,
      "администрациясынын": 7058,
      "грузин": 7059,
      "татар": 7060,
      "редакт": 7061,
      "көпүрө": 7062,
      "жеп": 7063,
      "жору": 7064,
      "пав": 7065,
      "##гип": 7066,
      "көрдү": 7067,
      "##отек": 7068,
      "комен": 7069,
      "жүрөк": 7070,
      "аймагынын": 7071,
      "мааниси": 7072,
      "арыздан": 7073,
      "деңгээлдеги": 7074,
      "жумада": 7075,
      "монгол": 7076,
      "булактарына": 7077,
      "навальныйдын": 7078,
      "революция": 7079,
      "дешти": 7080,
      "жаатта": 7081,
      "арасына": 7082,
      "##абаган": 7083,
      "маар": 7084,
      "өзүндө": 7085,
      "документке": 7086,
      "##остук": 7087,
      "жыйынтыгына": 7088,
      "полициянын": 7089,
      "акчанын": 7090,
      "ачылып": 7091,
      "сирия": 7092,
      "##үктөрдү": 7093,
      "жолдорун": 7094,
      "кенемте": 7095,
      "ымыркай": 7096,
      "чатыр": 7097,
      "##но": 7098,
      "##игый": 7099,
      "##ыккан": 7100,
      "баскыч": 7101,
      "жайдын": 7102,
      "##ясынын": 7103,
      "чыгарылып": 7104,
      "окууга": 7105,
      "түшөт": 7106,
      "ачыкт": 7107,
      "берүүдөн": 7108,
      "көзөмөлгө": 7109,
      "топтоп": 7110,
      "таштанды": 7111,
      "ыктым": 7112,
      "каражаттарынын": 7113,
      "##ативдүү": 7114,
      "куугунтукт": 7115,
      "тамактан": 7116,
      "##ль": 7117,
      "бирөөлөр": 7118,
      "##цияга": 7119,
      "тагыра": 7120,
      "барбай": 7121,
      "тариф": 7122,
      "атыр": 7123,
      "иштөөгө": 7124,
      "тургандай": 7125,
      "түзүлдү": 7126,
      "##бызда": 7127,
      "табигый": 7128,
      "айыптоо": 7129,
      "нурбек": 7130,
      "бүтүп": 7131,
      "##ресс": 7132,
      "курмандыктар": 7133,
      "имараттар": 7134,
      "донбас": 7135,
      "сөөкт": 7136,
      "курамы": 7137,
      "курамына": 7138,
      "байдендин": 7139,
      "кызматташтыкты": 7140,
      "кызыкчылыгын": 7141,
      "ошентсе": 7142,
      "аэропортт": 7143,
      "объектил": 7144,
      "авторитардык": 7145,
      "жыйырма": 7146,
      "ипотек": 7147,
      "аттан": 7148,
      "дил": 7149,
      "зор": 7150,
      "##вид": 7151,
      "махм": 7152,
      "калай": 7153,
      "##дөрдө": 7154,
      "кыдырып": 7155,
      "##уулукту": 7156,
      "мекемесинин": 7157,
      "чектелген": 7158,
      "маселеге": 7159,
      "сайттар": 7160,
      "режеп": 7161,
      "өлтүрүлгөн": 7162,
      "ойноп": 7163,
      "татыктуу": 7164,
      "дуушар": 7165,
      "рам": 7166,
      "##пест": 7167,
      "##le": 7168,
      "##алыктар": 7169,
      "айлам": 7170,
      "##үлө": 7171,
      "депутаттын": 7172,
      "миграциялык": 7173,
      "бүтүндөй": 7174,
      "1000": 7175,
      "жөнөтүлгөн": 7176,
      "макулдашууга": 7177,
      "метрге": 7178,
      "жылдардан": 7179,
      "калкынын": 7180,
      "пакистандын": 7181,
      "жоокерлер": 7182,
      "каржылоо": 7183,
      "анкара": 7184,
      "учкучсуз": 7185,
      "атт": 7186,
      "кече": 7187,
      "пады": 7188,
      "хал": 7189,
      "##ром": 7190,
      "##чун": 7191,
      "##арк": 7192,
      "##ске": 7193,
      "бөлүш": 7194,
      "тыян": 7195,
      "##уулугу": 7196,
      "дарыя": 7197,
      "төлөй": 7198,
      "келишимдин": 7199,
      "банкы": 7200,
      "далай": 7201,
      "таасирдүү": 7202,
      "илимпоз": 7203,
      "бюджетке": 7204,
      "аянты": 7205,
      "франц": 7206,
      "коюуга": 7207,
      "багытында": 7208,
      "адилеттүү": 7209,
      "каптаган": 7210,
      "негиздөөчүсү": 7211,
      "61": 7212,
      "не": 7213,
      "эмир": 7214,
      "үйү": 7215,
      "чечкен": 7216,
      "##иктери": 7217,
      "жооб": 7218,
      "уруш": 7219,
      "аялдын": 7220,
      "бузулган": 7221,
      "мунап": 7222,
      "кыйналып": 7223,
      "айдоочулар": 7224,
      "режими": 7225,
      "оштогу": 7226,
      "долбоорлорду": 7227,
      "данияр": 7228,
      "интервью": 7229,
      "сессия": 7230,
      "чалды": 7231,
      "##боого": 7232,
      "айсул": 7233,
      "##ттик": 7234,
      "##иканын": 7235,
      "##ымсыз": 7236,
      "жаткандар": 7237,
      "каныбек": 7238,
      "салат": 7239,
      "##иевдин": 7240,
      "коомго": 7241,
      "кабылды": 7242,
      "парламенттеги": 7243,
      "эскерүү": 7244,
      "аймактарды": 7245,
      "транз": 7246,
      "сарпт": 7247,
      "көрсөткүчтөр": 7248,
      "схем": 7249,
      "800": 7250,
      "драм": 7251,
      "нор": 7252,
      "##жай": 7253,
      "##арбек": 7254,
      "десем": 7255,
      "жазага": 7256,
      "##терди": 7257,
      "окурман": 7258,
      "саясатка": 7259,
      "жүргөнү": 7260,
      "250": 7261,
      "документти": 7262,
      "бюр": 7263,
      "суроосуна": 7264,
      "нарк": 7265,
      "сириядагы": 7266,
      "##алышына": 7267,
      "##өңгүл": 7268,
      "бекешев": 7269,
      "67": 7270,
      "оч": 7271,
      "##көө": 7272,
      "##адыр": 7273,
      "##еринин": 7274,
      "каралат": 7275,
      "маалымдалды": 7276,
      "өлкөбүз": 7277,
      "чыгарууну": 7278,
      "акшга": 7279,
      "евро": 7280,
      "жүргүзүүгө": 7281,
      "күрөшүп": 7282,
      "сыйм": 7283,
      "ишкананын": 7284,
      "тайма": 7285,
      "экономикасы": 7286,
      "кезексиз": 7287,
      "ижарага": 7288,
      "хак": 7289,
      "##орация": 7290,
      "турчу": 7291,
      "билебиз": 7292,
      "чечм": 7293,
      "чыгара": 7294,
      "тыгыз": 7295,
      "билдирүүсү": 7296,
      "өнөктөш": 7297,
      "##тиф": 7298,
      "чындыгында": 7299,
      "ачкачылык": 7300,
      "##арат": 7301,
      "жатак": 7302,
      "алардан": 7303,
      "##иктердин": 7304,
      "##тыгы": 7305,
      "эсеби": 7306,
      "##үктөрү": 7307,
      "табуу": 7308,
      "катыша": 7309,
      "катышуучулар": 7310,
      "текст": 7311,
      "органдардын": 7312,
      "башталганын": 7313,
      "начарлап": 7314,
      "асанов": 7315,
      "азайтуу": 7316,
      "фактысы": 7317,
      "##үшкө": 7318,
      "##иясын": 7319,
      "баалап": 7320,
      "##лардан": 7321,
      "##каз": 7322,
      "маалымдалган": 7323,
      "күнүмдүк": 7324,
      "мартка": 7325,
      "кезегинде": 7326,
      "жабылган": 7327,
      "##матовдун": 7328,
      "кылганы": 7329,
      "бөлүмү": 7330,
      "күбөл": 7331,
      "акчасы": 7332,
      "эртеси": 7333,
      "калыптыр": 7334,
      "жогорудагы": 7335,
      "##самбл": 7336,
      "кремль": 7337,
      "демонстрация": 7338,
      "моюнга": 7339,
      "мейманкан": 7340,
      "кенин": 7341,
      "##вол": 7342,
      "айдар": 7343,
      "булардын": 7344,
      "турам": 7345,
      "жартыл": 7346,
      "азгыр": 7347,
      "кетп": 7348,
      "ичип": 7349,
      "көрсөтөт": 7350,
      "автору": 7351,
      "сатууга": 7352,
      "соттор": 7353,
      "имам": 7354,
      "штаттардын": 7355,
      "өзгөртүүлөр": 7356,
      "импортт": 7357,
      "запорожье": 7358,
      "жигердүү": 7359,
      "64": 7360,
      "нас": 7361,
      "тет": 7362,
      "калем": 7363,
      "түрүндө": 7364,
      "негизделген": 7365,
      "токтогон": 7366,
      "акшдагы": 7367,
      "көлдө": 7368,
      "эркиндикке": 7369,
      "оңдоо": 7370,
      "радио": 7371,
      "сөөгүн": 7372,
      "акысы": 7373,
      "кесепетинен": 7374,
      "##ing": 7375,
      "ташкент": 7376,
      "рыск": 7377,
      "ыктымалды": 7378,
      "махмуд": 7379,
      "жартылай": 7380,
      "76": 7381,
      "теб": 7382,
      "##далык": 7383,
      "##лүк": 7384,
      "жатышты": 7385,
      "өлт": 7386,
      "жайда": 7387,
      "колдонул": 7388,
      "европага": 7389,
      "ыргы": 7390,
      "тапшырма": 7391,
      "изилдеп": 7392,
      "самм": 7393,
      "грек": 7394,
      "элчилик": 7395,
      "айдоочу": 7396,
      "тоскоолду": 7397,
      "заманда": 7398,
      "мырз": 7399,
      "канааттандыр": 7400,
      "эместигин": 7401,
      "гал": 7402,
      "белгилешет": 7403,
      "кошуун": 7404,
      "сатылган": 7405,
      "тармагын": 7406,
      "козголоң": 7407,
      "машина": 7408,
      "шектелип": 7409,
      "аскерлердин": 7410,
      "обсерв": 7411,
      "куур": 7412,
      "мүлкүн": 7413,
      "акими": 7414,
      "рыног": 7415,
      "ынтымак": 7416,
      "луган": 7417,
      "мариуп": 7418,
      "өлтүрүү": 7419,
      "сыз": 7420,
      "суг": 7421,
      "чындап": 7422,
      "ыңк": 7423,
      "##кил": 7424,
      "##дыкты": 7425,
      "##дерде": 7426,
      "толгон": 7427,
      "жардамга": 7428,
      "жабылып": 7429,
      "карантинге": 7430,
      "польша": 7431,
      "жергесинде": 7432,
      "таалайбек": 7433,
      "гонкон": 7434,
      "пам": 7435,
      "чөп": 7436,
      "##еттеги": 7437,
      "байма": 7438,
      "##егор": 7439,
      "авар": 7440,
      "##арова": 7441,
      "жасалып": 7442,
      "айрымдар": 7443,
      "отургуз": 7444,
      "өзбекстандык": 7445,
      "тажикстанга": 7446,
      "июлга": 7447,
      "тайып": 7448,
      "экономиканы": 7449,
      "ишкерлердин": 7450,
      "токтоткон": 7451,
      "соолугуна": 7452,
      "климаттын": 7453,
      "тук": 7454,
      "упай": 7455,
      "шан": 7456,
      "##бил": 7457,
      "##ху": 7458,
      "##анып": 7459,
      "алдыр": 7460,
      "##евич": 7461,
      "##дугун": 7462,
      "##ланууда": 7463,
      "байсал": 7464,
      "дегендер": 7465,
      "учуру": 7466,
      "##үгүнүн": 7467,
      "шайлоочулар": 7468,
      "тургундардын": 7469,
      "үстүндө": 7470,
      "колдоду": 7471,
      "абдул": 7472,
      "өнүгүп": 7473,
      "аныкталганын": 7474,
      "канада": 7475,
      "түрмөгө": 7476,
      "санап": 7477,
      "машыгуу": 7478,
      "фирм": 7479,
      "жыны": 7480,
      "##ылса": 7481,
      "болсок": 7482,
      "даң": 7483,
      "жалдан": 7484,
      "##оса": 7485,
      "районуна": 7486,
      "жасоо": 7487,
      "киргизилип": 7488,
      "таба": 7489,
      "бөлүмүндө": 7490,
      "гүлн": 7491,
      "доомат": 7492,
      "ажыратылган": 7493,
      "молдо": 7494,
      "ноокат": 7495,
      "59": 7496,
      "66": 7497,
      "95": 7498,
      "гар": 7499,
      "##лян": 7500,
      "##эк": 7501,
      "аркы": 7502,
      "тура": 7503,
      "боор": 7504,
      "##иктор": 7505,
      "борис": 7506,
      "конуш": 7507,
      "согушк": 7508,
      "өзгөрүп": 7509,
      "июнга": 7510,
      "кубатбек": 7511,
      "топтолгон": 7512,
      "журналисттерди": 7513,
      "кайтыш": 7514,
      "бөлүмүнө": 7515,
      "калың": 7516,
      "бюджет": 7517,
      "коопсуздугуна": 7518,
      "тартиби": 7519,
      "интег": 7520,
      "бөлүштүр": 7521,
      "гонконг": 7522,
      "небер": 7523,
      "төш": 7524,
      "чег": 7525,
      "##ни": 7526,
      "##пой": 7527,
      "##индин": 7528,
      "##иллер": 7529,
      "билдириш": 7530,
      "кургак": 7531,
      "##аларында": 7532,
      "ушин": 7533,
      "марш": 7534,
      "апрелдеги": 7535,
      "абалынан": 7536,
      "бузулуп": 7537,
      "сутка": 7538,
      "кылмыштар": 7539,
      "талкууланды": 7540,
      "дарылоо": 7541,
      "ырастаган": 7542,
      "аяктап": 7543,
      "монитор": 7544,
      "news": 7545,
      "попул": 7546,
      "келерки": 7547,
      "айсулуу": 7548,
      "ашкер": 7549,
      "дн": 7550,
      "доз": 7551,
      "##лект": 7552,
      "турушу": 7553,
      "айтууга": 7554,
      "кабатыр": 7555,
      "##сив": 7556,
      "кошун": 7557,
      "апам": 7558,
      "топко": 7559,
      "эркиндигине": 7560,
      "мекемеси": 7561,
      "сынак": 7562,
      "сүрөттөр": 7563,
      "жерлеринде": 7564,
      "турмушка": 7565,
      "беттешт": 7566,
      "бөлүгүндө": 7567,
      "сыдыков": 7568,
      "көчмөндөр": 7569,
      "француз": 7570,
      "луганск": 7571,
      "егип": 7572,
      "##ицион": 7573,
      "##ендер": 7574,
      "##өлү": 7575,
      "проп": 7576,
      "кыздардын": 7577,
      "кылышы": 7578,
      "кайсыл": 7579,
      "үйүнүн": 7580,
      "кыйр": 7581,
      "жарыяланып": 7582,
      "айылына": 7583,
      "августка": 7584,
      "түшүндүргөн": 7585,
      "ойлогон": 7586,
      "күткөн": 7587,
      "жоопкерчиликке": 7588,
      "1991": 7589,
      "өзгөртүүлөрдү": 7590,
      "жүрүшөт": 7591,
      "конституцияга": 7592,
      "офиц": 7593,
      "коңшул": 7594,
      "дор": 7595,
      "##оди": 7596,
      "##ty": 7597,
      "турум": 7598,
      "билем": 7599,
      "балага": 7600,
      "күчт": 7601,
      "чечкин": 7602,
      "боронов": 7603,
      "##опол": 7604,
      "жакыны": 7605,
      "даярдан": 7606,
      "тажикстандык": 7607,
      "милдети": 7608,
      "коркуп": 7609,
      "өзгөртүп": 7610,
      "атаандаш": 7611,
      "жарлыкка": 7612,
      "лин": 7613,
      "форма": 7614,
      "##bc": 7615,
      "##омали": 7616,
      "абдык": 7617,
      "чакырылган": 7618,
      "атактуу": 7619,
      "европалык": 7620,
      "келишими": 7621,
      "бурул": 7622,
      "аралашып": 7623,
      "коррупцияны": 7624,
      "артиллер": 7625,
      "маселелерин": 7626,
      "энергиясы": 7627,
      "нерселер": 7628,
      "федерациясынын": 7629,
      "баалады": 7630,
      "кочкор": 7631,
      "кк": 7632,
      "сууну": 7633,
      "##пө": 7634,
      "арча": 7635,
      "##име": 7636,
      "туруштук": 7637,
      "карашы": 7638,
      "жасай": 7639,
      "чыкканда": 7640,
      "толуп": 7641,
      "доллардын": 7642,
      "сунуштап": 7643,
      "бүтүрүү": 7644,
      "көбөйтүү": 7645,
      "түшүндүрүп": 7646,
      "көчкү": 7647,
      "жагдайды": 7648,
      "үнү": 7649,
      "курамында": 7650,
      "түркиядагы": 7651,
      "бекитилген": 7652,
      "тажрыйбасы": 7653,
      "милдеттенм": 7654,
      "символ": 7655,
      "роман": 7656,
      "атомдук": 7657,
      "кс": 7658,
      "##түп": 7659,
      "##аторлор": 7660,
      "##ерине": 7661,
      "##ттин": 7662,
      "карта": 7663,
      "##кадыр": 7664,
      "иште": 7665,
      "##ометр": 7666,
      "балалуу": 7667,
      "тилке": 7668,
      "компью": 7669,
      "##ттарды": 7670,
      "брю": 7671,
      "ыйык": 7672,
      "бетер": 7673,
      "тазалоо": 7674,
      "кыргызстандыктардын": 7675,
      "коркутуу": 7676,
      "өзүңүз": 7677,
      "академиясынын": 7678,
      "титирөө": 7679,
      "кыянаттык": 7680,
      "виктор": 7681,
      "ха": 7682,
      "карайт": 7683,
      "кайды": 7684,
      "калышкан": 7685,
      "көрү": 7686,
      "##аттарын": 7687,
      "уюмуна": 7688,
      "санкт": 7689,
      "тарапкер": 7690,
      "партиялык": 7691,
      "компаниялардын": 7692,
      "илимдеринин": 7693,
      "##кулова": 7694,
      "тактаган": 7695,
      "тайп": 7696,
      "аскери": 7697,
      "сентябрга": 7698,
      "баратканын": 7699,
      "алмаштыруу": 7700,
      "жүгүртүү": 7701,
      "бект": 7702,
      "жоро": 7703,
      "нус": 7704,
      "чуу": 7705,
      "##нов": 7706,
      "##рис": 7707,
      "келече": 7708,
      "##алганын": 7709,
      "кав": 7710,
      "мамлекетте": 7711,
      "шаарга": 7712,
      "жайларга": 7713,
      "##сиң": 7714,
      "конкр": 7715,
      "казакстандан": 7716,
      "авторлор": 7717,
      "көлдүн": 7718,
      "импер": 7719,
      "сапаты": 7720,
      "курулушт": 7721,
      "милициясы": 7722,
      "кырдаалда": 7723,
      "тынчт": 7724,
      "кармалганы": 7725,
      "которуп": 7726,
      "эрежелерин": 7727,
      "учурларда": 7728,
      "медет": 7729,
      "блогерлер": 7730,
      "молдок": 7731,
      "үлгүсүндөгү": 7732,
      "сиңир": 7733,
      "кайдыгер": 7734,
      "келечеги": 7735,
      "73": 7736,
      "аңг": 7737,
      "пес": 7738,
      "##сф": 7739,
      "##вили": 7740,
      "##ырап": 7741,
      "эмомали": 7742,
      "жерине": 7743,
      "өтүүдө": 7744,
      "##үгүл": 7745,
      "майнап": 7746,
      "жабуу": 7747,
      "партиясынан": 7748,
      "катардагы": 7749,
      "жетекчилик": 7750,
      "такси": 7751,
      "филь": 7752,
      "эпидемия": 7753,
      "фактылар": 7754,
      "петр": 7755,
      "тиз": 7756,
      "##ub": 7757,
      "##енс": 7758,
      "##айн": 7759,
      "акжол": 7760,
      "өлүп": 7761,
      "үйдү": 7762,
      "чыгарылды": 7763,
      "жаштан": 7764,
      "жаштардын": 7765,
      "##ингде": 7766,
      "тийип": 7767,
      "режиссер": 7768,
      "илдетке": 7769,
      "тилкесинде": 7770,
      "кызыг": 7771,
      "көлөмүн": 7772,
      "соолугу": 7773,
      "позициясын": 7774,
      "кылымдын": 7775,
      "каракал": 7776,
      "назарбаевдин": 7777,
      "##ографиялык": 7778,
      "нааразылыгын": 7779,
      "##абеков": 7780,
      "губернатору": 7781,
      "ресторан": 7782,
      "72": 7783,
      "шык": 7784,
      "##нун": 7785,
      "##пол": 7786,
      "##өб": 7787,
      "##атуу": 7788,
      "дег": 7789,
      "кырк": 7790,
      "айтор": 7791,
      "##үмдү": 7792,
      "чыккын": 7793,
      "токтакун": 7794,
      "илимдер": 7795,
      "##штырып": 7796,
      "тармактарга": 7797,
      "үйлөрдүн": 7798,
      "буйругу": 7799,
      "мусулмандар": 7800,
      "өстүр": 7801,
      "менчикт": 7802,
      "маарак": 7803,
      "ушинтип": 7804,
      "лав": 7805,
      "##фа": 7806,
      "##il": 7807,
      "карга": 7808,
      "##үлүшү": 7809,
      "##скы": 7810,
      "өлкөл": 7811,
      "жайкы": 7812,
      "##осп": 7813,
      "##дорун": 7814,
      "көрсөтө": 7815,
      "кенж": 7816,
      "эрежелер": 7817,
      "сырткы": 7818,
      "резерв": 7819,
      "лагерлер": 7820,
      "рейд": 7821,
      "мом": 7822,
      "##берг": 7823,
      "##уч": 7824,
      "##айып": 7825,
      "берем": 7826,
      "азем": 7827,
      "категор": 7828,
      "калкты": 7829,
      "сөздү": 7830,
      "алдым": 7831,
      "табылып": 7832,
      "кеңештеги": 7833,
      "иммун": 7834,
      "поли": 7835,
      "тергөөчү": 7836,
      "жүргөндө": 7837,
      "ассамбл": 7838,
      "спут": 7839,
      "сунуштар": 7840,
      "ишенип": 7841,
      "күчтөрүн": 7842,
      "##бизди": 7843,
      "жеткирип": 7844,
      "иликтөөчү": 7845,
      "адистердин": 7846,
      "мэрия": 7847,
      "элчилигинин": 7848,
      "талкуулап": 7849,
      "процесс": 7850,
      "күчөтүү": 7851,
      "африка": 7852,
      "хамастын": 7853,
      "##дыгына": 7854,
      "акцион": 7855,
      "билбеген": 7856,
      "кайткан": 7857,
      "жүрүү": 7858,
      "жазуучулар": 7859,
      "көзүн": 7860,
      "терг": 7861,
      "терез": 7862,
      "коопер": 7863,
      "##үктөрүн": 7864,
      "айткандай": 7865,
      "ээлик": 7866,
      "акциясы": 7867,
      "кулап": 7868,
      "жарымы": 7869,
      "которуу": 7870,
      "жерлерди": 7871,
      "минтип": 7872,
      "тынчсыздануусун": 7873,
      "алектенген": 7874,
      "корутунд": 7875,
      "##төбөл": 7876,
      "##осаяс": 7877,
      "клоо": 7878,
      "##is": 7879,
      "##ылда": 7880,
      "карас": 7881,
      "элден": 7882,
      "атышат": 7883,
      "жайларды": 7884,
      "иниси": 7885,
      "##енти": 7886,
      "окут": 7887,
      "жапаровду": 7888,
      "чечимдер": 7889,
      "түшкөнүн": 7890,
      "компаниясына": 7891,
      "декабрга": 7892,
      "акциялар": 7893,
      "кыймылсыз": 7894,
      "талибдердин": 7895,
      "деңгээлге": 7896,
      "германияда": 7897,
      "өлтүрүүгө": 7898,
      "аскаров": 7899,
      "ноябрга": 7900,
      "ажыратуу": 7901,
      "атышууну": 7902,
      "кримтөбөл": 7903,
      "кишилердин": 7904,
      "ресурстары": 7905,
      "козгоп": 7906,
      "ыраазычылык": 7907,
      "мониторинг": 7908,
      "##олорду": 7909,
      "##өрман": 7910,
      "экендиги": 7911,
      "мамлекетти": 7912,
      "##угунан": 7913,
      "евген": 7914,
      "##баганы": 7915,
      "продук": 7916,
      "бюджеттин": 7917,
      "товарларды": 7918,
      "талаптарды": 7919,
      "геосаяс": 7920,
      "заводун": 7921,
      "ксдп": 7922,
      "чинов": 7923,
      "##стүү": 7924,
      "кызыктуу": 7925,
      "аксак": 7926,
      "кылыш": 7927,
      "##ота": 7928,
      "жайлардын": 7929,
      "президентти": 7930,
      "өлкөлөрүндө": 7931,
      "катышууга": 7932,
      "катышууда": 7933,
      "европада": 7934,
      "мамилени": 7935,
      "натого": 7936,
      "алтынбек": 7937,
      "мүмкүнчүлүгүн": 7938,
      "кылмыштарга": 7939,
      "##ибиздин": 7940,
      "##дүүлүк": 7941,
      "мекемелердин": 7942,
      "баяндама": 7943,
      "барымтага": 7944,
      "зулушев": 7945,
      "памир": 7946,
      "пе": 7947,
      "чөн": 7948,
      "##ттыр": 7949,
      "бергиле": 7950,
      "##дөшт": 7951,
      "##динг": 7952,
      "##чыларды": 7953,
      "түзүүнү": 7954,
      "сомдун": 7955,
      "жүзөгө": 7956,
      "экономиканын": 7957,
      "күзүндө": 7958,
      "##калый": 7959,
      "##ештирүү": 7960,
      "күтүүсүз": 7961,
      "салгылаш": 7962,
      "соцтар": 7963,
      "конкреттүү": 7964,
      "сас": 7965,
      "##куп": 7966,
      "##ынган": 7967,
      "##үлөрүн": 7968,
      "турукта": 7969,
      "кайрым": 7970,
      "көрдүк": 7971,
      "салышкан": 7972,
      "##тердик": 7973,
      "чакырык": 7974,
      "берилерин": 7975,
      "билимдүү": 7976,
      "электигин": 7977,
      "ойло": 7978,
      "салынып": 7979,
      "серб": 7980,
      "өкүмү": 7981,
      "тутум": 7982,
      "ролу": 7983,
      "атышуу": 7984,
      "кетишин": 7985,
      "качкындар": 7986,
      "##дүктөн": 7987,
      "тинтүү": 7988,
      "бриф": 7989,
      "79": 7990,
      "жанын": 7991,
      "##рой": 7992,
      "баалан": 7993,
      "бирөөнүн": 7994,
      "жагым": 7995,
      "элине": 7996,
      "каж": 7997,
      "тоң": 7998,
      "бөлтүр": 7999,
      "коомунун": 8000,
      "жабдыктар": 8001,
      "ылайыкт": 8002,
      "токтотулган": 8003,
      "видеолор": 8004,
      "киргенден": 8005,
      "келечек": 8006,
      "күнөөсү": 8007,
      "оюм": 8008,
      "фейсбук": 8009,
      "ккм": 8010,
      "физ": 8011,
      "##ета": 8012,
      "кылса": 8013,
      "тоз": 8014,
      "керем": 8015,
      "##терн": 8016,
      "аскерге": 8017,
      "чарчы": 8018,
      "чарага": 8019,
      "тынымсыз": 8020,
      "таануучу": 8021,
      "уланта": 8022,
      "эсептешет": 8023,
      "баку": 8024,
      "алмашкан": 8025,
      "өкмөттөр": 8026,
      "бүтүм": 8027,
      "##дигинен": 8028,
      "келиндин": 8029,
      "ооруган": 8030,
      "ташиевдин": 8031,
      "ишкерлерге": 8032,
      "каналына": 8033,
      "көрсөткүчү": 8034,
      "ниетин": 8035,
      "класст": 8036,
      "маңзат": 8037,
      "номур": 8038,
      "масштабдуу": 8039,
      "тилектешт": 8040,
      "84": 8041,
      "браз": 8042,
      "мүн": 8043,
      "ого": 8044,
      "##кеч": 8045,
      "##далат": 8046,
      "айдап": 8047,
      "жатабы": 8048,
      "айтса": 8049,
      "кайдан": 8050,
      "##ести": 8051,
      "тармакта": 8052,
      "алынганы": 8053,
      "жолугушуусу": 8054,
      "ооганстандан": 8055,
      "1992": 8056,
      "учактар": 8057,
      "материалдар": 8058,
      "анкар": 8059,
      "куткаруу": 8060,
      "поэ": 8061,
      "шакир": 8062,
      "чамасында": 8063,
      "алымкадыр": 8064,
      "версия": 8065,
      "комендан": 8066,
      "78": 8067,
      "мана": 8068,
      "саты": 8069,
      "##өөр": 8070,
      "##ктап": 8071,
      "алсыз": 8072,
      "бахм": 8073,
      "айылдык": 8074,
      "##цид": 8075,
      "өткөнү": 8076,
      "##чыларга": 8077,
      "өндүрүлгөн": 8078,
      "пландалган": 8079,
      "мэриясы": 8080,
      "өлтүрүп": 8081,
      "##итте": 8082,
      "көптөн": 8083,
      "оорукананын": 8084,
      "катышуучулары": 8085,
      "судьясы": 8086,
      "##лыгына": 8087,
      "өпкө": 8088,
      "чөнт": 8089,
      "pr": 8090,
      "аида": 8091,
      "##уя": 8092,
      "##алл": 8093,
      "##ымда": 8094,
      "##стандын": 8095,
      "жылдардын": 8096,
      "өздөшт": 8097,
      "##езд": 8098,
      "билиш": 8099,
      "үчтөн": 8100,
      "сах": 8101,
      "жаткандай": 8102,
      "##ыштар": 8103,
      "мамлекеттен": 8104,
      "боршай": 8105,
      "эсеге": 8106,
      "болбошу": 8107,
      "бийликтеги": 8108,
      "сапат": 8109,
      "аракеттерге": 8110,
      "бойлуу": 8111,
      "талаа": 8112,
      "экөөбүз": 8113,
      "мектептерде": 8114,
      "коёт": 8115,
      "акаевдин": 8116,
      "палатасынын": 8117,
      "бактыбек": 8118,
      "түтүн": 8119,
      "согушкерлер": 8120,
      "клар": 8121,
      "##зе": 8122,
      "##көй": 8123,
      "##уусуна": 8124,
      "##елик": 8125,
      "##ырбек": 8126,
      "##ткыч": 8127,
      "бербеген": 8128,
      "салттуу": 8129,
      "##чылыгын": 8130,
      "жайылт": 8131,
      "коргогон": 8132,
      "койгону": 8133,
      "жаратат": 8134,
      "мэриянын": 8135,
      "тири": 8136,
      "эпт": 8137,
      "ойногон": 8138,
      "жамааттык": 8139,
      "төгүндө": 8140,
      "жонсон": 8141,
      "платформ": 8142,
      "шерикт": 8143,
      "брюсс": 8144,
      "бразил": 8145,
      "боршайком": 8146,
      "97": 8147,
      "фак": 8148,
      "өй": 8149,
      "##mes": 8150,
      "бах": 8151,
      "келүүгө": 8152,
      "##динов": 8153,
      "талабын": 8154,
      "көрөт": 8155,
      "белек": 8156,
      "кооз": 8157,
      "учкан": 8158,
      "жазылат": 8159,
      "жөнү": 8160,
      "термин": 8161,
      "чекит": 8162,
      "кабарчы": 8163,
      "колдонулуп": 8164,
      "миллиондой": 8165,
      "кызматкерлерин": 8166,
      "документте": 8167,
      "мезгилинде": 8168,
      "иштетип": 8169,
      "иретинде": 8170,
      "аппараттын": 8171,
      "россиянын": 8172,
      "тартипте": 8173,
      "жаныбек": 8174,
      "ерев": 8175,
      "74": 8176,
      "пот": 8177,
      "##даг": 8178,
      "##ори": 8179,
      "##штар": 8180,
      "##ттук": 8181,
      "бирот": 8182,
      "арасы": 8183,
      "жолдон": 8184,
      "башкаларга": 8185,
      "##терин": 8186,
      "агасы": 8187,
      "долбоорго": 8188,
      "баштаганда": 8189,
      "күрөшү": 8190,
      "отстав": 8191,
      "адистери": 8192,
      "далилдер": 8193,
      "юристтер": 8194,
      "сексуалдык": 8195,
      "беттеш": 8196,
      "командир": 8197,
      "стацион": 8198,
      "балыкчы": 8199,
      "жүргүнчүлөр": 8200,
      "биротоло": 8201,
      "чегин": 8202,
      "##ухам": 8203,
      "айк": 8204,
      "болдук": 8205,
      "##иков": 8206,
      "башташты": 8207,
      "##ацияга": 8208,
      "мария": 8209,
      "##лайт": 8210,
      "эркект": 8211,
      "мынча": 8212,
      "абадда": 8213,
      "планын": 8214,
      "документтери": 8215,
      "пайдаланууга": 8216,
      "мүчөлөрүнүн": 8217,
      "отурумунда": 8218,
      "жоготуп": 8219,
      "өнөктөштөр": 8220,
      "италия": 8221,
      "убактысы": 8222,
      "айламп": 8223,
      "fa": 8224,
      "ва": 8225,
      "мук": 8226,
      "см": 8227,
      "##хай": 8228,
      "##енция": 8229,
      "болгар": 8230,
      "жаткандыктан": 8231,
      "камап": 8232,
      "уюмдарга": 8233,
      "илгер": 8234,
      "убад": 8235,
      "киргизүүнү": 8236,
      "баткендеги": 8237,
      "акциясына": 8238,
      "израилге": 8239,
      "жагдайда": 8240,
      "##болот": 8241,
      "илдеттен": 8242,
      "программасынын": 8243,
      "күзөт": 8244,
      "коммунисттик": 8245,
      "жүгүрт": 8246,
      "ураан": 8247,
      "тык": 8248,
      "##то": 8249,
      "##бин": 8250,
      "келдим": 8251,
      "туристтик": 8252,
      "жардыруу": 8253,
      "короо": 8254,
      "орусча": 8255,
      "көрбөй": 8256,
      "##чиев": 8257,
      "эмеспиз": 8258,
      "инсп": 8259,
      "кыдыр": 8260,
      "иштеринин": 8261,
      "батук": 8262,
      "алынышы": 8263,
      "дедим": 8264,
      "келишпест": 8265,
      "араң": 8266,
      "табыш": 8267,
      "ташуу": 8268,
      "эрежелерди": 8269,
      "сарай": 8270,
      "дүйшөн": 8271,
      "мүнөтт": 8272,
      "түркмөнстандын": 8273,
      "убакыттан": 8274,
      "корпорация": 8275,
      "69": 8276,
      "st": 8277,
      "аэ": 8278,
      "пир": 8279,
      "эдил": 8280,
      "##яд": 8281,
      "##хак": 8282,
      "абзел": 8283,
      "ичим": 8284,
      "марттагы": 8285,
      "өлкөлөрүнө": 8286,
      "көтөрүү": 8287,
      "эсептеп": 8288,
      "милициясынын": 8289,
      "сабактар": 8290,
      "ишмердигин": 8291,
      "сындады": 8292,
      "башаламандыктар": 8293,
      "бербөө": 8294,
      "клиникалык": 8295,
      "спикер": 8296,
      "көздөйт": 8297,
      "болушунча": 8298,
      "%)": 8299,
      "71": 8300,
      "?!": 8301,
      "бок": 8302,
      "##гүр": 8303,
      "##дах": 8304,
      "жатыш": 8305,
      "мамат": 8306,
      "инст": 8307,
      "ачууга": 8308,
      "##исин": 8309,
      "шарттары": 8310,
      "бекназаров": 8311,
      "пландап": 8312,
      "ашырууга": 8313,
      "каражаттарын": 8314,
      "администрациянын": 8315,
      "укуктарынын": 8316,
      "арзанда": 8317,
      "американын": 8318,
      "үйлөн": 8319,
      "кооператив": 8320,
      "сасык": 8321,
      "ичи": 8322,
      "рыс": 8323,
      "роза": 8324,
      "фабр": 8325,
      "##кам": 8326,
      "##бөө": 8327,
      "##re": 8328,
      "##ңды": 8329,
      "##аркан": 8330,
      "алба": 8331,
      "көрдүм": 8332,
      "жолдору": 8333,
      "жазында": 8334,
      "казына": 8335,
      "##енттин": 8336,
      "##чүлөрү": 8337,
      "талкалан": 8338,
      "күркүр": 8339,
      "жекшемби": 8340,
      "багып": 8341,
      "азияда": 8342,
      "газадагы": 8343,
      "путинге": 8344,
      "көңүлүн": 8345,
      "документтерин": 8346,
      "республикасы": 8347,
      "телефондон": 8348,
      "үйлөрдү": 8349,
      "мобилдик": 8350,
      "ысымы": 8351,
      "кеңсеси": 8352,
      "майыптыгы": 8353,
      "сулайманов": 8354,
      "фильм": 8355,
      "соцтарма": 8356,
      "клара": 8357,
      "жен": 8358,
      "##кий": 8359,
      "##op": 8360,
      "##ирээк": 8361,
      "биринен": 8362,
      "##гени": 8363,
      "##ымын": 8364,
      "берчү": 8365,
      "туруш": 8366,
      "колдуу": 8367,
      "учурга": 8368,
      "ооруну": 8369,
      "орток": 8370,
      "аткарууга": 8371,
      "спорттук": 8372,
      "ишмерлер": 8373,
      "жоопкерчилигине": 8374,
      "демилгесин": 8375,
      "грузиянын": 8376,
      "валют": 8377,
      "##хоз": 8378,
      "алек": 8379,
      "##оруна": 8380,
      "баам": 8381,
      "арстан": 8382,
      "##доону": 8383,
      "каналы": 8384,
      "камбар": 8385,
      "компани": 8386,
      "энтони": 8387,
      "жүргүнчү": 8388,
      "аялдарды": 8389,
      "##ологдор": 8390,
      "көтөрдү": 8391,
      "ырчы": 8392,
      "кармалгандардын": 8393,
      "буруп": 8394,
      "талкууланган": 8395,
      "каражаттарына": 8396,
      "коммуникация": 8397,
      "чатак": 8398,
      "гүлнара": 8399,
      "каракалпак": 8400,
      "өбөл": 8401,
      "##енци": 8402,
      "##станция": 8403,
      "элест": 8404,
      "кайг": 8405,
      "жолукту": 8406,
      "баскан": 8407,
      "баскын": 8408,
      "шайланып": 8409,
      "оккуп": 8410,
      "бөлүштү": 8411,
      "жаңыдан": 8412,
      "түб": 8413,
      "##ектешкен": 8414,
      "көзөмөлүндө": 8415,
      "ишенем": 8416,
      "кулак": 8417,
      "аскерлерди": 8418,
      "кадамжай": 8419,
      "кыйноо": 8420,
      "тартипти": 8421,
      "класс": 8422,
      "британияда": 8423,
      "эсепке": 8424,
      "фонддун": 8425,
      "айтканын": 8426,
      "чагымчыл": 8427,
      "кастыкты": 8428,
      "талаптарын": 8429,
      "обо": 8430,
      "оке": 8431,
      "рат": 8432,
      "сцен": 8433,
      "##em": 8434,
      "катышы": 8435,
      "канатбек": 8436,
      "мамлекеттерге": 8437,
      "аймагын": 8438,
      "берүүчү": 8439,
      "кеңешине": 8440,
      "таанышып": 8441,
      "жолугушкан": 8442,
      "жолугушту": 8443,
      "беренелери": 8444,
      "чакта": 8445,
      "кездеш": 8446,
      "белгиленет": 8447,
      "биримдигине": 8448,
      "республиканын": 8449,
      "товарлардын": 8450,
      "диагн": 8451,
      "телеканалы": 8452,
      "чектөөлөрдү": 8453,
      "квт": 8454,
      "саламаттыгы": 8455,
      "авиакомпания": 8456,
      "##ive": 8457,
      "байсалов": 8458,
      "эптеп": 8459,
      "зат": 8460,
      "хир": 8461,
      "##кей": 8462,
      "##актын": 8463,
      "айды": 8464,
      "##ттым": 8465,
      "багын": 8466,
      "##икада": 8467,
      "##имит": 8468,
      "##усств": 8469,
      "жазышты": 8470,
      "баласын": 8471,
      "дарегине": 8472,
      "соттон": 8473,
      "журналисти": 8474,
      "кеңешме": 8475,
      "уланат": 8476,
      "сапарга": 8477,
      "динара": 8478,
      "тарыхта": 8479,
      "козголду": 8480,
      "жетишпей": 8481,
      "##иттик": 8482,
      "диасп": 8483,
      "кирешеси": 8484,
      "өрттөн": 8485,
      "концеп": 8486,
      "адабий": 8487,
      "схема": 8488,
      "реестрине": 8489,
      "коридор": 8490,
      "мариупол": 8491,
      "даңаз": 8492,
      "интеграция": 8493,
      "диаспор": 8494,
      "ван": 8495,
      "иван": 8496,
      "квар": 8497,
      "##басын": 8498,
      "##лүү": 8499,
      "##гыч": 8500,
      "##гада": 8501,
      "##уля": 8502,
      "##окко": 8503,
      "##аганда": 8504,
      "айтпай": 8505,
      "кетүүнү": 8506,
      "теракт": 8507,
      "кыйра": 8508,
      "чараларга": 8509,
      "айылга": 8510,
      "жакындарынын": 8511,
      "акырын": 8512,
      "даярдалган": 8513,
      "сунушталды": 8514,
      "130": 8515,
      "кулу": 8516,
      "мекеним": 8517,
      "бошотууга": 8518,
      "бошотууну": 8519,
      "курманкул": 8520,
      "инфля": 8521,
      "##аграм": 8522,
      "вируска": 8523,
      "уурдап": 8524,
      "нидер": 8525,
      "кичине": 8526,
      "орнотуу": 8527,
      "эмгеги": 8528,
      "ашыгы": 8529,
      "песков": 8530,
      "87": 8531,
      "аса": 8532,
      "бөт": 8533,
      "ек": 8534,
      "под": 8535,
      "рум": 8536,
      "##гим": 8537,
      "##поо": 8538,
      "##бара": 8539,
      "##чумун": 8540,
      "##ak": 8541,
      "башчыларынын": 8542,
      "балан": 8543,
      "бийикт": 8544,
      "ичине": 8545,
      "##өйүн": 8546,
      "таппай": 8547,
      "жасоого": 8548,
      "каражаты": 8549,
      "катышуусу": 8550,
      "январга": 8551,
      "январдагы": 8552,
      "бейр": 8553,
      "ишканалардын": 8554,
      "##ахта": 8555,
      "жерлерге": 8556,
      "ырастап": 8557,
      "токтотту": 8558,
      "багыттагы": 8559,
      "улантууда": 8560,
      "өтүнүчүн": 8561,
      "айырма": 8562,
      "алыскы": 8563,
      "аянтында": 8564,
      "искусств": 8565,
      "жарлыгы": 8566,
      "тагыраагы": 8567,
      "##сивдүү": 8568,
      "дордой": 8569,
      "чечкиндүү": 8570,
      "зил": 8571,
      "синин": 8572,
      "түндө": 8573,
      "уя": 8574,
      "хез": 8575,
      "##үдүн": 8576,
      "корот": 8577,
      "абдир": 8578,
      "күчөдү": 8579,
      "##баеванын": 8580,
      "майк": 8581,
      "айыппул": 8582,
      "мекс": 8583,
      "ишендир": 8584,
      "адвокаттар": 8585,
      "жөнөтүп": 8586,
      "кадамга": 8587,
      "нарист": 8588,
      "басылмалар": 8589,
      "үлгүр": 8590,
      "сентябрдагы": 8591,
      "лаборатория": 8592,
      "эсептейм": 8593,
      "бышыкт": 8594,
      "##баштык": 8595,
      "times": 8596,
      "төңкөр": 8597,
      "факульт": 8598,
      "инстаграм": 8599,
      "руст": 8600,
      "##стра": 8601,
      "буларга": 8602,
      "жүрүүдө": 8603,
      "сала": 8604,
      "шаарларда": 8605,
      "кайрат": 8606,
      "өкмөтүнө": 8607,
      "башкарууга": 8608,
      "саясатчылардын": 8609,
      "асел": 8610,
      "токтотууну": 8611,
      "барганын": 8612,
      "финлян": 8613,
      "калаанын": 8614,
      "тиреш": 8615,
      "калтырып": 8616,
      "орно": 8617,
      "чемпионатында": 8618,
      "намы": 8619,
      "баңгизат": 8620,
      "мухаммедкалый": 8621,
      "дегеле": 8622,
      "өбөлгө": 8623,
      "хезбол": 8624,
      "рег": 8625,
      "##заков": 8626,
      "алчу": 8627,
      "##усунун": 8628,
      "сааттан": 8629,
      "шаарды": 8630,
      "##тарды": 8631,
      "видеого": 8632,
      "беренелер": 8633,
      "такталган": 8634,
      "100дөн": 8635,
      "бошотулду": 8636,
      "басылма": 8637,
      "туңг": 8638,
      "бүттү": 8639,
      "мелис": 8640,
      "макамын": 8641,
      "эмдөөдөн": 8642,
      "шарттарды": 8643,
      "санариптик": 8644,
      "сссрдин": 8645,
      "практ": 8646,
      "жогорулатуу": 8647,
      "испания": 8648,
      "live": 8649,
      "##олл": 8650,
      "алуунун": 8651,
      "жаабайт": 8652,
      "##абад": 8653,
      "айтыла": 8654,
      "##гөнү": 8655,
      "аларда": 8656,
      "курск": 8657,
      "курсан": 8658,
      "дегени": 8659,
      "мыйзамы": 8660,
      "киришкен": 8661,
      "басар": 8662,
      "мурат": 8663,
      "аяктады": 8664,
      "борборун": 8665,
      "жабылды": 8666,
      "талкаланган": 8667,
      "эмнени": 8668,
      "иликтеген": 8669,
      "талибандын": 8670,
      "жоопкерчилигин": 8671,
      "адвокаттары": 8672,
      "жактаган": 8673,
      "түркиядан": 8674,
      "таласта": 8675,
      "альтерн": 8676,
      "суммасы": 8677,
      "түрмөдөн": 8678,
      "кылынган": 8679,
      "чиновн": 8680,
      "брюссел": 8681,
      "ратификация": 8682,
      "##тоо": 8683,
      "##ci": 8684,
      "##она": 8685,
      "##уксуз": 8686,
      "##даны": 8687,
      "маект": 8688,
      "булуң": 8689,
      "##өлүү": 8690,
      "айтсак": 8691,
      "байг": 8692,
      "кийип": 8693,
      "мамлекеттери": 8694,
      "реабил": 8695,
      "киргизди": 8696,
      "ээлери": 8697,
      "аралыктан": 8698,
      "капчы": 8699,
      "ыйман": 8700,
      "үнөм": 8701,
      "программасын": 8702,
      "ноябрдагы": 8703,
      "материалдарды": 8704,
      "тийгизген": 8705,
      "макамы": 8706,
      "артыкчыл": 8707,
      "кырсыкка": 8708,
      "маданияты": 8709,
      "спикери": 8710,
      "##кусунан": 8711,
      "аткезчилик": 8712,
      "үндөдү": 8713,
      "үмүттөн": 8714,
      "камсыздандыруу": 8715,
      "вет": 8716,
      "жей": 8717,
      "резиден": 8718,
      "##кур": 8719,
      "##акта": 8720,
      "##абуул": 8721,
      "келдик": 8722,
      "өзүнөн": 8723,
      "атылган": 8724,
      "жетүү": 8725,
      "жазат": 8726,
      "бишкектен": 8727,
      "2025": 8728,
      "алынса": 8729,
      "чечимдерди": 8730,
      "ушунчалык": 8731,
      "110": 8732,
      "бешинчи": 8733,
      "##диктерди": 8734,
      "окуялардан": 8735,
      "болоч": 8736,
      "акысын": 8737,
      "кырсыгы": 8738,
      "амал": 8739,
      "шейшембиде": 8740,
      "өлкөлүктөр": 8741,
      "реабилит": 8742,
      "адеп": 8743,
      "леги": 8744,
      "нан": 8745,
      "нет": 8746,
      "одон": 8747,
      "##ау": 8748,
      "##сөк": 8749,
      "##ec": 8750,
      "##хен": 8751,
      "##абаев": 8752,
      "мыйзамдуул": 8753,
      "чыгарат": 8754,
      "жаранды": 8755,
      "оорусу": 8756,
      "тилине": 8757,
      "өткөрүлгөн": 8758,
      "берилбей": 8759,
      "мектеб": 8760,
      "кырдаалдан": 8761,
      "исхак": 8762,
      "агент": 8763,
      "ирандык": 8764,
      "жеткил": 8765,
      "тилкеси": 8766,
      "сертиф": 8767,
      "бөгөтт": 8768,
      "аналит": 8769,
      "өнөктөштөрү": 8770,
      "индиянын": 8771,
      "орозо": 8772,
      "гэс": 8773,
      "дубан": 8774,
      "бомба": 8775,
      "жабырлануучу": 8776,
      "көрбөгөндөй": 8777,
      "тигүү": 8778,
      "жыныстык": 8779,
      "көрүстөн": 8780,
      "аксакал": 8781,
      "потенци": 8782,
      "одоно": 8783,
      "##роп": 8784,
      "##eg": 8785,
      "##алоого": 8786,
      "##сти": 8787,
      "##стон": 8788,
      "##аковдун": 8789,
      "##абар": 8790,
      "жатасыз": 8791,
      "булган": 8792,
      "акчал": 8793,
      "басаң": 8794,
      "чыгууда": 8795,
      "азыраак": 8796,
      "тартууну": 8797,
      "болдум": 8798,
      "сапатын": 8799,
      "сыноо": 8800,
      "кечке": 8801,
      "барганы": 8802,
      "сокулук": 8803,
      "учагы": 8804,
      "сариев": 8805,
      "жиберип": 8806,
      "кесипкөй": 8807,
      "нерселерди": 8808,
      "коштолгон": 8809,
      "союзунун": 8810,
      "мажбурлап": 8811,
      "тендер": 8812,
      "өстү": 8813,
      "бензин": 8814,
      "сталин": 8815,
      "лукашенконун": 8816,
      "евгений": 8817,
      "мүнөт": 8818,
      "bbc": 8819,
      "гим": 8820,
      "хас": 8821,
      "чуул": 8822,
      "##жиги": 8823,
      "##ht": 8824,
      "бадах": 8825,
      "жагын": 8826,
      "кароого": 8827,
      "туруксуз": 8828,
      "барса": 8829,
      "үйүнөн": 8830,
      "##орух": 8831,
      "окуй": 8832,
      "жеген": 8833,
      "айылы": 8834,
      "##сүң": 8835,
      "баштаганы": 8836,
      "2006": 8837,
      "2007": 8838,
      "чындыкка": 8839,
      "керектиги": 8840,
      "сиздер": 8841,
      "сайтындагы": 8842,
      "дүйшөмбүдө": 8843,
      "паспортун": 8844,
      "байкоочулар": 8845,
      "моюнуна": 8846,
      "осмонов": 8847,
      "эмгектенген": 8848,
      "асад": 8849,
      "hu": 8850,
      "ворух": 8851,
      "чей": 8852,
      "##уалдуу": 8853,
      "##аба": 8854,
      "бердик": 8855,
      "калп": 8856,
      "##шыбыз": 8857,
      "##шканын": 8858,
      "жазышкан": 8859,
      "##чылыктын": 8860,
      "жаңыр": 8861,
      "аймакты": 8862,
      "иштердин": 8863,
      "кабарлашты": 8864,
      "теги": 8865,
      "апрелден": 8866,
      "июндагы": 8867,
      "багыттар": 8868,
      "бурч": 8869,
      "сабап": 8870,
      "күйөрман": 8871,
      "ыкма": 8872,
      "киевдин": 8873,
      "шамал": 8874,
      "команд": 8875,
      "стади": 8876,
      "гидр": 8877,
      "продукция": 8878,
      "геосаясий": 8879,
      "акчалай": 8880,
      "уят": 8881,
      "чу": 8882,
      "##өбө": 8883,
      "##ңүз": 8884,
      "каримов": 8885,
      "кызын": 8886,
      "билбейт": 8887,
      "##үмүн": 8888,
      "жетпеген": 8889,
      "жазасына": 8890,
      "учурлары": 8891,
      "майдагы": 8892,
      "##исс": 8893,
      "жыйынына": 8894,
      "чакырыктар": 8895,
      "партиясын": 8896,
      "көбөйгөнүн": 8897,
      "этап": 8898,
      "##үшүбүз": 8899,
      "вакцинаны": 8900,
      "##ошуп": 8901,
      "жолдомо": 8902,
      "акыны": 8903,
      "ынан": 8904,
      "##tional": 8905,
      "тараптардын": 8906,
      "технологиялар": 8907,
      "башаламандыкка": 8908,
      "импорт": 8909,
      "аламүдүн": 8910,
      "бомб": 8911,
      "иманалиев": 8912,
      "inter": 8913,
      "өкүнүч": 8914,
      "падыш": 8915,
      "жалданма": 8916,
      "аңгем": 8917,
      "абдирас": 8918,
      "it": 8919,
      "лат": 8920,
      "##едей": 8921,
      "##чуну": 8922,
      "##елля": 8923,
      "кылдат": 8924,
      "колун": 8925,
      "доллары": 8926,
      "##уулукка": 8927,
      "жардамчысы": 8928,
      "жанына": 8929,
      "##дикте": 8930,
      "билими": 8931,
      "180": 8932,
      "мамилелер": 8933,
      "тапшырмасы": 8934,
      "оюндары": 8935,
      "оюндарына": 8936,
      "агенттиктин": 8937,
      "максатта": 8938,
      "өзгөртүүгө": 8939,
      "тиркем": 8940,
      "каражаттарды": 8941,
      "өчүрүү": 8942,
      "жеткенин": 8943,
      "кармаш": 8944,
      "##бөлөң": 8945,
      "##ess": 8946,
      "архе": 8947,
      "адилетсиз": 8948,
      "шакиев": 8949,
      "коллег": 8950,
      "аталышт": 8951,
      "yo": 8952,
      "хр": 8953,
      "чер": 8954,
      "##оси": 8955,
      "##үүл": 8956,
      "арав": 8957,
      "орхан": 8958,
      "төрөт": 8959,
      "түшүнө": 8960,
      "апелля": 8961,
      "айылдын": 8962,
      "##...": 8963,
      "сакталган": 8964,
      "окуялардын": 8965,
      "дарык": 8966,
      "өзбекстандан": 8967,
      "абалына": 8968,
      "чектел": 8969,
      "көзөмөлүнө": 8970,
      "акчага": 8971,
      "тиханов": 8972,
      "жүзү": 8973,
      "артисти": 8974,
      "жиберди": 8975,
      "атамбаевди": 8976,
      "##итти": 8977,
      "##man": 8978,
      "мелдеш": 8979,
      "байланышып": 8980,
      "убакытта": 8981,
      "талдоочулар": 8982,
      "кишилерди": 8983,
      "дооматтарды": 8984,
      "делег": 8985,
      "жеңилдетилген": 8986,
      "рекорд": 8987,
      "маршр": 8988,
      "##жигит": 8989,
      "86": 8990,
      "дог": 8991,
      "##тү": 8992,
      "##пром": 8993,
      "##бектин": 8994,
      "##арка": 8995,
      "##евди": 8996,
      "пресс": 8997,
      "таркат": 8998,
      "билүү": 8999,
      "сахн": 9000,
      "шаарлар": 9001,
      "##аттарга": 9002,
      "кеңей": 9003,
      "коюшу": 9004,
      "дале": 9005,
      "2003": 9006,
      "мамилесин": 9007,
      "вирустан": 9008,
      "тездет": 9009,
      "тургуз": 9010,
      "фейк": 9011,
      "экономикага": 9012,
      "мамлекеттерде": 9013,
      "идеология": 9014,
      "себептүү": 9015,
      "маалымдагандай": 9016,
      "чалгындоо": 9017,
      "ойлонуп": 9018,
      "жыг": 9019,
      "дубай": 9020,
      "атайылап": 9021,
      "##ight": 9022,
      "редактору": 9023,
      "лавров": 9024,
      "жеткиликтүү": 9025,
      "000": 9026,
      "81": 9027,
      "92": 9028,
      "med": 9029,
      "алиш": 9030,
      "маалы": 9031,
      "бизден": 9032,
      "майдын": 9033,
      "##00дөн": 9034,
      "коюшат": 9035,
      "түркиялык": 9036,
      "кызматтары": 9037,
      "сүрөткө": 9038,
      "сүйлөшүүгө": 9039,
      "ишенбей": 9040,
      "такай": 9041,
      "октябрдан": 9042,
      "сезген": 9043,
      "калаасы": 9044,
      "парламенти": 9045,
      "жабыркагандар": 9046,
      "активисттердин": 9047,
      "конституцияны": 9048,
      "баарынан": 9049,
      "дүрбөлөң": 9050,
      "жунуш": 9051,
      "мунапыс": 9052,
      "өздөштүр": 9053,
      "концепция": 9054,
      "румын": 9055,
      "98": 9056,
      "агып": 9057,
      "диз": 9058,
      "мөңгүл": 9059,
      "оде": 9060,
      "##loo": 9061,
      "##анек": 9062,
      "##ктер": 9063,
      "##гыс": 9064,
      "##ыраак": 9065,
      "##итер": 9066,
      "жаткандардын": 9067,
      "жерин": 9068,
      "##аарын": 9069,
      "балт": 9070,
      "аша": 9071,
      "компанияга": 9072,
      "келтирди": 9073,
      "тапшыруу": 9074,
      "имараттын": 9075,
      "деңгээлин": 9076,
      "далилден": 9077,
      "толтура": 9078,
      "эмилбек": 9079,
      "ызы": 9080,
      "баягы": 9081,
      "тынчтыкты": 9082,
      "айдың": 9083,
      "нетан": 9084,
      "дэ": 9085,
      "мүр": 9086,
      "уст": 9087,
      "ши": 9088,
      "##иан": 9089,
      "турарын": 9090,
      "каш": 9091,
      "куран": 9092,
      "парк": 9093,
      "балта": 9094,
      "##тердин": 9095,
      "ашууну": 9096,
      "ашпай": 9097,
      "чакырыл": 9098,
      "стол": 9099,
      "евраз": 9100,
      "түшүнбөй": 9101,
      "коопсуздукка": 9102,
      "кеңешм": 9103,
      "жеңүүчү": 9104,
      "даярданып": 9105,
      "##ойгон": 9106,
      "декабрында": 9107,
      "күтүлүп": 9108,
      "дайындоо": 9109,
      "ишмердиги": 9110,
      "туугандар": 9111,
      "тапканын": 9112,
      "тобуна": 9113,
      "көйгөйлөрдү": 9114,
[...]
