[UNK]	0
[CLS]	1
[SEP]	2
[PAD]	3
[MASK]	4
!	5
"	6
#	7
$	8
%	9
&	10
'	11
(	12
)	13
*	14
+	15
,	16
-	17
.	18
/	19
0	20
1	21
2	22
3	23
4	24
5	25
6	26
7	27
8	28
9	29
:	30
;	31
=	32
?	33
@	34
[	35
\	36
]	37
_	38
`	39
a	40
b	41
c	42
d	43
e	44
f	45
g	46
h	47
i	48
j	49
k	50
l	51
m	52
n	53
o	54
p	55
q	56
r	57
s	58
t	59
u	60
v	61
w	62
x	63
y	64
z	65
{	66
}	67
£	68
§	69
©	70
¬	71
­	72
°	73
·	74
ß	75
á	76
â	77
ã	78
ä	79
ç	80
è	81
é	82
í	83
ï	84
ñ	85
ö	86
ü	87
ā	88
ą	89
ğ	90
ı	91
ŋ	92
ş	93
š	94
ū	95
ƚ	96
ƣ	97
ə	98
ɵ	99
ʙ	100
ʼ	101
́	102
̆	103
̇	104
̧	105
а	106
б	107
в	108
г	109
д	110
е	111
ж	112
з	113
и	114
й	115
к	116
л	117
м	118
н	119
о	120
п	121
р	122
с	123
т	124
у	125
ф	126
х	127
ц	128
ч	129
ш	130
щ	131
ъ	132
ы	133
ь	134
э	135
ю	136
я	137
ё	138
ђ	139
і	140
ї	141
љ	142
ћ	143
ў	144
ѳ	145
ғ	146
қ	147
ң	148
ү	149
ұ	150
ҳ	151
ҷ	152
һ	153
ӊ	154
ӏ	155
ә	156
ө	157
ӯ	158
ا	159
ح	160
خ	161
د	162
ر	163
ز	164
ص	165
ط	166
ظ	167
ع	168
غ	169
ق	170
ك	171
ل	172
م	173
ن	174
ه	175
و	176
ي	177
ُ	178
ِ	179
‎	180
‒	181
―	182
•	183
⁄	184
⁠	185
⁣	186
→	187
−	188
▪	189
●	190
⠀	191
回	192
堅	193
族	194
昆	195
鄄	196
韓	197
鬲	198
	199
️	200
##р	201
##я	202
##щ	203
##н	204
##л	205
##а	206
##с	207
##и	208
##к	209
##i	210
##c	211
##r	212
##o	213
##ш	214
##о	215
##б	216
##з	217
##ж	218
##д	219
##в	220
##г	221
##е	222
##ү	223
##w	224
##b	225
##u	226
##ч	227
##t	228
##т	229
##s	230
##ы	231
##8	232
##7	233
##х	234
##ё	235
##6	236
##ң	237
##п	238
##у	239
##м	240
##й	241
##a	242
##ц	243
##m	244
##n	245
##e	246
##і	247
##ь	248
##l	249
##d	250
##ю	251
##y	252
##v	253
##h	254
##k	255
##f	256
##5	257
##ө	258
##э	259
##p	260
##g	261
##0	262
##z	263
##9	264
##ı	265
##1	266
##3	267
##ф	268
##2	269
##ӊ	270
##x	271
##ѳ	272
##ҳ	273
##4	274
##j	275
##)	276
##q	277
##/	278
##ғ	279
##ü	280
##ğ	281
##ا	282
##ه	283
##ر	284
##.	285
##ъ	286
##ҷ	287
##ɵ	288
##қ	289
##ö	290
##ұ	291
##ə	292
##-	293
##̇	294
##"	295
##ç	296
##韓	297
##ą	298
##ʼ	299
##ş	300
##;	301
##é	302
##*	303
##ә	304
##ï	305
##,	306
##ƣ	307
##]	308
##â	309
##:	310
##í	311
##昆	312
##ä	313
##ñ	314
##ß	315
##ў	316
##$	317
##ن	318
##ك	319
##ح	320
##ћ	321
##á	322
##©	323
##م	324
##د	325
##ã	326
##ā	327
##族	328
##!	329
##љ	330
##ђ	331
##ع	332
##ص	333
##ي	334
##ط	335
##ل	336
##ق	337
##ū	338
##ан	339
##ар	340
##ен	341
##ын	342
##ер	343
##да	344
##ат	345
ал	346
##ин	347
ар	348
##ал	349
##уу	350
##ыл	351
ай	352
##ай	353
ко	354
##ык	355
ке	356
##ир	357
##ек	358
ын	359
ган	360
##үн	361
да	362
##ур	363
##ак	364
##ол	365
##ун	366
##гы	367
де	368
ан	369
##ыр	370
ат	371
ка	372
##ле	373
##ик	374
##ул	375
##аш	376
##өр	377
##ия	378
##он	379
мен	380
##ор	381
##ил	382
##ди	383
##ам	384
бир	385
##ды	386
##өн	387
тар	388
иш	389
ин	390
га	391
##кт	392
##ана	393
##ма	394
менен	395
##лг	396
та	397
##ра	398
##ып	399
##ыз	400
##ст	401
##ган	402
жана	403
ор	404
дын	405
бол	406
кар	407
кан	408
##га	409
уу	410
##үү	411
##де	412
лар	413
нын	414
##ка	415
кө	416
##ук	417
##ыш	418
ия	419
##ок	420
##ет	421
баш	422
ак	423
ун	424
жат	425
##ча	426
##ли	427
ер	428
тү	429
бер	430
##из	431
жа	432
##та	433
ки	434
ас	435
ма	436
бул	437
##ус	438
туу	439
ды	440
аз	441
аб	442
##лд	443
кет	444
айт	445
ып	446
##ген	447
өт	448
тур	449
жыл	450
на	451
##те	452
өл	453
өз	454
##ас	455
ул	456
##уш	457
ук	458
эк	459
деп	460
те	461
пр	462
##оо	463
үү	464
нда	465
чы	466
ст	467
##дө	468
кал	469
дар	470
эм	471
кы	472
##юн	473
##мат	474
кыр	475
гы	476
ында	477
##йин	478
аш	479
лык	480
үн	481
ыл	482
со	483
сы	484
##ев	485
че	486
##уп	487
ден	488
##стан	489
##ап	490
##үр	491
үч	492
дин	493
тер	494
лер	495
ый	496
кат	497
кыргы	498
эле	499
ти	500
оюн	501
##ке	502
##ес	503
бил	504
дан	505
сын	506
##өт	507
зстан	508
##дам	509
бе	510
ов	511
ге	512
##ты	513
маал	514
##ги	515
##ары	516
ур	517
не	518
бар	519
ара	520
оюнча	521
##ог	522
ош	523
олг	524
ты	525
ая	526
ет	527
##ис	528
##оп	529
ба	530
үр	531
бай	532
##то	533
ына	534
кыз	535
##ут	536
##ов	537
ок	538
##зи	539
пре	540
тр	541
олгон	542
эл	543
ыш	544
кү	545
##им	546
##кер	547
кер	548
##кө	549
ык	550
ыр	551
ен	552
үчүн	553
өк	554
##үл	555
кор	556
тал	557
мам	558
ир	559
өлкө	560
он	561
бек	562
##ти	563
дү	564
тин	565
гөн	566
тик	567
ап	568
луу	569
мин	570
##ду	571
кай	572
кыл	573
үй	574
ген	575
билди	576
##го	577
ла	578
мамле	579
##чу	580
көр	581
##ым	582
прези	583
ымат	584
иште	585
каб	586
##ло	587
ди	588
сал	589
анда	590
адам	591
ав	592
туура	593
стан	594
лан	595
##лик	596
ком	597
ам	598
ий	599
нин	600
деген	601
##гү	602
минис	603
жол	604
гө	605
##шы	606
##си	607
##сы	608
ол	609
кен	610
##ум	611
дө	612
алд	613
ми	614
уш	615
из	616
алган	617
жок	618
агы	619
анын	620
уч	621
болуп	622
са	623
төр	624
чыг	625
##гө	626
оо	627
жак	628
рус	629
ард	630
русия	631
уз	632
нун	633
##еш	634
тын	635
күн	636
кара	637
кызма	638
чейин	639
өр	640
##дан	641
дун	642
ша	643
##еп	644
##анд	645
##ге	646
кийин	647
ли	648
си	649
лөр	650
бирок	651
эмес	652
керек	653
каз	654
##кы	655
##зам	656
ыйзам	657
дент	658
жаш	659
башка	660
##кан	661
##арт	662
бери	663
нд	664
алып	665
ку	666
##гиз	667
ич	668
##бо	669
дагы	670
жер	671
##ла	672
атт	673
ары	674
жаз	675
эки	676
ре	677
жатат	678
##лги	679
##үк	680
ндө	681
##ара	682
сө	683
ой	684
##үп	685
##мак	686
##ба	687
бу	688
белги	689
##ки	690
им	691
өтк	692
тт	693
көп	694
сун	695
үп	696
кур	697
го	698
ыз	699
ата	700
##от	701
биз	702
унда	703
мур	704
шай	705
ри	706
нүн	707
ил	708
то	709
түш	710
үм	711
жылы	712
сү	713
эс	714
чык	715
ев	716
кел	717
се	718
учур	719
өн	720
акт	721
же	722
ог	723
рда	724
алды	725
##чө	726
сот	727
об	728
азыр	729
кең	730
##ция	731
ач	732
##гыз	733
ду	734
тан	735
ны	736
##лө	737
##кек	738
##раи	739
украи	740
дер	741
инде	742
##дук	743
##ши	744
##ала	745
катар	746
көз	747
өө	748
ра	749
##лиг	750
нт	751
ланыш	752
##лге	753
шайло	754
##ору	755
##асы	756
рди	757
ым	758
##чи	759
ыргыз	760
чек	761
жүр	762
##до	763
арак	764
##лык	765
##ми	766
өкм	767
тө	768
дол	769
кели	770
жог	771
каршы	772
түз	773
ишкек	774
келге	775
##уг	776
жаң	777
чеч	778
киши	779
ей	780
или	781
өкмөт	782
күч	783
ээ	784
до	785
сөз	786
##еле	787
мил	788
мурда	789
ис	790
оку	791
чыл	792
##ме	793
аселе	794
##лдо	795
миң	796
##ика	797
бү	798
жаңы	799
кир	800
##ку	801
андай	802
жет	803
кенин	804
##на	805
уп	806
##иш	807
ую	808
кеңеш	809
сыз	810
бө	811
##лус	812
алуу	813
от	814
ип	815
кол	816
эми	817
жары	818
жар	819
##аны	820
облус	821
ни	822
үл	823
түр	824
ист	825
үш	826
пай	827
алар	828
бо	829
пут	830
ошол	831
орб	832
чыгар	833
ну	834
уул	835
##бек	836
##яб	837
ийлик	838
ме	839
##ект	840
казак	841
орбор	842
дөн	843
ынын	844
##ко	845
жөн	846
##кен	847
уна	848
бас	849
нде	850
үмк	851
чак	852
үмкүн	853
арт	854
жогор	855
колдо	856
болду	857
су	858
жал	859
лүү	860
таж	861
кабыл	862
уб	863
рай	864
ле	865
тык	866
улут	867
оп	868
##чы	869
иялык	870
али	871
ошон	872
аранд	873
##ый	874
аны	875
аскер	876
##ына	877
##тыр	878
##сө	879
талап	880
##өө	881
экен	882
ел	883
асы	884
ага	885
негиз	886
ардын	887
корго	888
ызмат	889
ги	890
ад	891
##би	892
кабар	893
буга	894
келе	895
бири	896
аба	897
араке	898
канын	899
уюм	900
көрсө	901
##не	902
лери	903
жап	904
кон	905
ылм	906
##уну	907
айып	908
алын	909
пан	910
болот	911
катыш	912
гана	913
ект	914
ыкт	915
##чү	916
окт	917
чакыр	918
инин	919
дүй	920
дей	921
тарт	922
сур	923
орус	924
тагы	925
##сат	926
чу	927
##нө	928
шаары	929
дүн	930
дүйнө	931
##со	932
##үз	933
айтыл	934
улутт	935
үнд	936
дик	937
карма	938
чыкка	939
##алы	940
ооп	941
жас	942
райо	943
жарыя	944
кою	945
##бай	946
ошонд	947
ви	948
трлиг	949
аймак	950
ууда	951
евр	952
айтып	953
дай	954
кам	955
икт	956
кооп	957
лор	958
ция	959
ыйын	960
башта	961
ала	962
окуя	963
про	964
ындай	965
түү	966
тарап	967
айр	968
##дер	969
ит	970
##айы	971
баев	972
но	973
сак	974
##иру	975
##дин	976
мат	977
##ел	978
өткөр	979
ент	980
ушул	981
токт	982
огуш	983
парт	984
бей	985
##ск	986
деди	987
оору	988
айл	989
ек	990
ткер	991
тажик	992
рген	993
болсо	994
##че	995
##тай	996
##ине	997
кый	998
коопс	999
мак	1000
сом	1001
милли	1002
ум	1003
##тар	1004
##гон	1005
суу	1006
айыл	1007
шаар	1008
тыш	1009
токто	1010
рас	1011
өткөн	1012
чо	1013
##орт	1014
кытай	1015
пар	1016
келиш	1017
көн	1018
кетке	1019
##кар	1020
алдык	1021
чысы	1022
май	1023
акча	1024
укт	1025
ынан	1026
ларды	1027
жапар	1028
чет	1029
жолу	1030
йт	1031
##маг	1032
##ци	1033
кайра	1034
##ыг	1035
көб	1036
ик	1037
жылд	1038
ине	1039
гон	1040
жылды	1041
чечим	1042
корон	1043
гр	1044
нер	1045
жакын	1046
чыгы	1047
долбо	1048
кайр	1049
путат	1050
бөл	1051
ылд	1052
авиру	1053
өрү	1054
##аг	1055
аары	1056
ардык	1057
кайры	1058
лган	1059
топ	1060
##екч	1061
ууга	1062
ардам	1063
##унд	1064
унун	1065
етекч	1066
адамд	1067
##үм	1068
му	1069
эр	1070
дем	1071
инчи	1072
пания	1073
##ынд	1074
лары	1075
лоо	1076
##лер	1077
ант	1078
олд	1079
лук	1080
өм	1081
##пы	1082
арк	1083
өзбек	1084
##аб	1085
дык	1086
эч	1087
айрым	1088
ян	1089
ту	1090
сиз	1091
жалпы	1092
аг	1093
сунуш	1094
азат	1095
абыз	1096
арды	1097
##лөр	1098
мент	1099
ышат	1100
кт	1101
тары	1102
укук	1103
дон	1104
алдар	1105
##үш	1106
ылайы	1107
азатт	1108
##гил	1109
ут	1110
андан	1111
ро	1112
##сий	1113
аясий	1114
экс	1115
##ем	1116
беков	1117
мика	1118
анык	1119
сына	1120
түн	1121
##ян	1122
таш	1123
ндагы	1124
оң	1125
##ри	1126
##ив	1127
ом	1128
чара	1129
тарды	1130
расми	1131
еке	1132
лист	1133
##лган	1134
лүк	1135
ким	1136
рес	1137
орто	1138
би	1139
##ип	1140
арасы	1141
албай	1142
сынын	1143
уздук	1144
берил	1145
арм	1146
айтты	1147
өзү	1148
жакшы	1149
##гөр	1150
иктүү	1151
ылмыш	1152
##ше	1153
денти	1154
элек	1155
ганда	1156
мо	1157
улам	1158
тил	1159
тун	1160
парла	1161
##анк	1162
##дыр	1163
дүү	1164
аң	1165
авто	1166
три	1167
соң	1168
үргү	1169
жум	1170
өзгөр	1171
еб	1172
чил	1173
чоң	1174
чыгып	1175
аныкт	1176
акыр	1177
үйлө	1178
##рд	1179
тап	1180
үргүз	1181
аты	1182
нө	1183
эң	1184
ышы	1185
ерүү	1186
##ети	1187
үрк	1188
жөнү	1189
каза	1190
тыр	1191
мү	1192
чүл	1193
издин	1194
айы	1195
##оно	1196
нү	1197
кош	1198
башкы	1199
##за	1200
сай	1201
##ери	1202
нуу	1203
эконо	1204
лады	1205
дор	1206
оз	1207
араж	1208
чү	1209
оом	1210
дек	1211
келет	1212
үрө	1213
тоо	1214
үйлөш	1215
##өй	1216
ез	1217
октяб	1218
өмүр	1219
быз	1220
##пи	1221
##үнө	1222
долл	1223
##гу	1224
кана	1225
жур	1226
ина	1227
##гүн	1228
##се	1229
##лген	1230
рк	1231
журна	1232
илд	1233
##угу	1234
акш	1235
илик	1236
күнү	1237
##су	1238
тор	1239
эсеп	1240
ашт	1241
##дар	1242
чылык	1243
ру	1244
##ент	1245
кез	1246
аркыл	1247
мун	1248
дая	1249
##кү	1250
##но	1251
##тур	1252
по	1253
азия	1254
##сия	1255
аж	1256
ганын	1257
порт	1258
иши	1259
тит	1260
ындан	1261
##тап	1262
##скв	1263
##00	1264
теги	1265
##өм	1266
айыпт	1267
үүгө	1268
ча	1269
турат	1270
пайда	1271
мл	1272
калды	1273
өтөр	1274
оор	1275
дөр	1276
нан	1277
ыс	1278
##ей	1279
келип	1280
тен	1281
уучу	1282
орун	1283
мө	1284
нече	1285
иси	1286
алиев	1287
рт	1288
дук	1289
үнө	1290
##тү	1291
эмне	1292
атал	1293
рдаал	1294
чул	1295
аймаг	1296
бала	1297
ыг	1298
лаган	1299
таб	1300
үүдө	1301
ички	1302
абал	1303
өтө	1304
ийлиг	1305
садыр	1306
за	1307
отур	1308
шарт	1309
иссия	1310
пик	1311
рүү	1312
ыгы	1313
бак	1314
деле	1315
мүчө	1316
екеме	1317
бүгүн	1318
ркин	1319
аткар	1320
нган	1321
##еше	1322
берип	1323
кылып	1324
бый	1325
быйыл	1326
жерде	1327
иштеп	1328
аган	1329
йын	1330
өнү	1331
жи	1332
##дү	1333
тери	1334
элд	1335
ергил	1336
аштал	1337
ния	1338
##рел	1339
апрел	1340
соци	1341
март	1342
саны	1343
еп	1344
орган	1345
пикир	1346
абуу	1347
ыйынт	1348
ергө	1349
ергөө	1350
##еби	1351
сүр	1352
аксат	1353
ами	1354
дыр	1355
үрөш	1356
##ани	1357
очу	1358
акы	1359
илдир	1360
сат	1361
сакто	1362
##бу	1363
сыя	1364
тол	1365
##тор	1366
кин	1367
ачык	1368
##вар	1369
аясат	1370
ада	1371
##гөн	1372
көзөм	1373
өөн	1374
так	1375
##ушу	1376
##тер	1377
аттар	1378
ади	1379
ымд	1380
төраг	1381
рм	1382
##гра	1383
##үгү	1384
үз	1385
##ден	1386
дөгү	1387
##ро	1388
##быз	1389
беш	1390
шум	1391
##уун	1392
##ээ	1393
үркия	1394
иликт	1395
кул	1396
боло	1397
жумуш	1398
илиц	1399
гү	1400
##ит	1401
пол	1402
меди	1403
лог	1404
тук	1405
пер	1406
тир	1407
болчу	1408
сүрөт	1409
дары	1410
конс	1411
ектеп	1412
зы	1413
берди	1414
##акт	1415
арма	1416
ишке	1417
##пу	1418
өкүл	1419
бүл	1420
жай	1421
гер	1422
алы	1423
тургу	1424
европ	1425
мал	1426
##гин	1427
инен	1428
ем	1429
сүн	1430
шумча	1431
карат	1432
жаб	1433
ады	1434
бүлө	1435
оол	1436
өс	1437
##ңг	1438
##део	1439
лгон	1440
салам	1441
рат	1442
##мк	1443
арыз	1444
арын	1445
##са	1446
төрт	1447
##лика	1448
январ	1449
##гус	1450
блика	1451
респу	1452
##жы	1453
мек	1454
июн	1455
аев	1456
тааны	1457
ылган	1458
басма	1459
##юл	1460
алыш	1461
уктан	1462
авгус	1463
грам	1464
өкү	1465
төлө	1466
айтым	1467
там	1468
ышты	1469
син	1470
лект	1471
тышкы	1472
сура	1473
рр	1474
##упц	1475
алт	1476
жолуг	1477
тек	1478
ррупц	1479
гын	1480
жаран	1481
##буш	1482
добуш	1483
актив	1484
нояб	1485
укмк	1486
тем	1487
##дай	1488
ири	1489
акц	1490
пл	1491
эсепт	1492
жылга	1493
доо	1494
сан	1495
##рат	1496
суроо	1497
майда	1498
маани	1499
лидер	1500
аткен	1501
теле	1502
өкүлд	1503
дуу	1504
сыр	1505
док	1506
көбү	1507
макул	1508
##ом	1509
##огу	1510
озго	1511
еле	1512
жу	1513
жый	1514
бүт	1515
докум	1516
айлан	1517
каны	1518
түзүл	1519
сында	1520
олушу	1521
коюл	1522
ишен	1523
наара	1524
омдук	1525
салуу	1526
толук	1527
канча	1528
жең	1529
юш	1530
абд	1531
баган	1532
##ене	1533
чүлүк	1534
декаб	1535
түл	1536
юштур	1537
амиле	1538
соту	1539
лектр	1540
саат	1541
бет	1542
ах	1543
көбөй	1544
нанын	1545
нар	1546
##мь	1547
өтүп	1548
кой	1549
зар	1550
көл	1551
кайта	1552
анд	1553
банк	1554
жетиш	1555
##шо	1556
##тип	1557
ерене	1558
##илд	1559
лерди	1560
ылтыр	1561
рам	1562
даярд	1563
абад	1564
зүн	1565
асар	1566
абуул	1567
истем	1568
кий	1569
##юу	1570
бр	1571
армак	1572
талк	1573
жарат	1574
гөчө	1575
өөнөт	1576
карал	1577
ишкан	1578
ууну	1579
фи	1580
путин	1581
ыбыз	1582
нур	1583
тынч	1584
па	1585
лик	1586
тий	1587
##по	1588
калык	1589
олбо	1590
видео	1591
дейт	1592
билим	1593
ыра	1594
өнд	1595
ортос	1596
атчы	1597
бере	1598
жаша	1599
себ	1600
тарых	1601
жазыл	1602
барып	1603
иев	1604
үүчү	1605
чог	1606
##дет	1607
ура	1608
##гент	1609
айг	1610
сент	1611
кинчи	1612
камак	1613
##сү	1614
июл	1615
аттал	1616
сп	1617
үнкү	1618
айым	1619
жек	1620
агент	1621
экени	1622
сентя	1623
лды	1624
алдуу	1625
сыякт	1626
бы	1627
муну	1628
айлар	1629
карап	1630
мир	1631
нерсе	1632
тарда	1633
себеп	1634
жүрүп	1635
артыл	1636
кеч	1637
илген	1638
иргиз	1639
нен	1640
##тет	1641
ация	1642
ыкка	1643
ндар	1644
лу	1645
нов	1646
окуу	1647
чилик	1648
аттык	1649
ылмы	1650
##оку	1651
премь	1652
ана	1653
##це	1654
күт	1655
аас	1656
##үнү	1657
тай	1658
үндүр	1659
арган	1660
##жа	1661
көм	1662
ндук	1663
тиги	1664
укугу	1665
йгон	1666
ылдан	1667
теген	1668
чыкты	1669
тов	1670
ушунд	1671
ман	1672
өкүлү	1673
нерг	1674
жүз	1675
уулу	1676
унаа	1677
тарат	1678
мад	1679
ого	1680
аки	1681
ло	1682
бат	1683
тиеше	1684
зарыл	1685
улан	1686
ылыш	1687
ойло	1688
ашуун	1689
илдет	1690
жаса	1691
ең	1692
##па	1693
фор	1694
шта	1695
түшүн	1696
үнүн	1697
алык	1698
аат	1699
болбо	1700
соңку	1701
эскер	1702
аасир	1703
тта	1704
##лар	1705
##ари	1706
##екс	1707
тташ	1708
кайсы	1709
млн	1710
жан	1711
гүл	1712
ски	1713
урал	1714
чылар	1715
##иц	1716
алк	1717
үнү	1718
текше	1719
уун	1720
##нын	1721
ишкер	1722
ээн	1723
кирги	1724
еш	1725
##уна	1726
иб	1727
сатып	1728
улуш	1729
ынча	1730
үндүз	1731
жума	1732
келди	1733
үшү	1734
жаза	1735
сынан	1736
##гек	1737
тең	1738
жеке	1739
олбой	1740
арга	1741
кезде	1742
грамм	1743
тиз	1744
шт	1745
кызык	1746
10	1747
антке	1748
айгаш	1749
төрү	1750
итети	1751
##дон	1752
титу	1753
урм	1754
соо	1755
деги	1756
лд	1757
ради	1758
ачыл	1759
##бө	1760
бериш	1761
##тан	1762
##уз	1763
отт	1764
жыйын	1765
даш	1766
айылы	1767
уюму	1768
перт	1769
өндүр	1770
канда	1771
аяс	1772
нттар	1773
алат	1774
титуц	1775
леди	1776
ратур	1777
жасал	1778
калк	1779
барат	1780
тышк	1781
зүнүн	1782
рип	1783
мд	1784
ыкты	1785
инс	1786
рак	1787
ияга	1788
нөн	1789
уула	1790
ылуу	1791
ебеби	1792
суна	1793
эг	1794
##же	1795
ели	1796
анан	1797
шаард	1798
нды	1799
оскв	1800
ес	1801
осква	1802
соода	1803
берет	1804
кш	1805
ошо	1806
аялд	1807
дир	1808
ооган	1809
кшнын	1810
фр	1811
эт	1812
убакт	1813
леп	1814
медиц	1815
ашык	1816
фон	1817
атам	1818
үүлөр	1819
уба	1820
сызд	1821
диги	1822
##ера	1823
эне	1824
##ңүл	1825
жашоо	1826
##мин	1827
уюмд	1828
деш	1829
##бы	1830
кап	1831
еген	1832
ания	1833
ток	1834
##мө	1835
мия	1836
бой	1837
кач	1838
зра	1839
өлүгү	1840
тыюу	1841
зраил	1842
рун	1843
салын	1844
сүй	1845
агдай	1846
көңүл	1847
тас	1848
проку	1849
багы	1850
үйү	1851
аштап	1852
мет	1853
##кта	1854
догу	1855
жалал	1856
опера	1857
тизме	1858
##ыт	1859
тынын	1860
илер	1861
темир	1862
брда	1863
дал	1864
амери	1865
июнда	1866
деңг	1867
илим	1868
бөлүм	1869
##мер	1870
абак	1871
деңгэ	1872
табыл	1873
тон	1874
аял	1875
сырт	1876
кала	1877
жөнөт	1878
имов	1879
багыт	1880
жарым	1881
кетти	1882
вак	1883
айда	1884
ышкан	1885
чал	1886
дарды	1887
##көн	1888
иц	1889
рин	1890
ыйыны	1891
кама	1892
үүнү	1893
түп	1894
урук	1895
кайт	1896
куну	1897
алкуу	1898
дөй	1899
во	1900
ишин	1901
алты	1902
ерин	1903
ушуу	1904
изилд	1905
ларын	1906
үст	1907
##ий	1908
ократ	1909
котор	1910
мигра	1911
чын	1912
унан	1913
ула	1914
дүк	1915
алда	1916
төн	1917
жазды	1918
алм	1919
##жо	1920
ерлер	1921
ысык	1922
кетиш	1923
лай	1924
аа	1925
##анс	1926
сап	1927
вла	1928
кунуч	1929
адис	1930
актал	1931
рмалы	1932
илиги	1933
сотто	1934
сок	1935
кем	1936
өнүкт	1937
элдик	1938
влади	1939
милде	1940
ег	1941
каг	1942
бүз	1943
газ	1944
ою	1945
нада	1946
ишмер	1947
сту	1948
##бүз	1949
асып	1950
өнө	1951
алмаш	1952
кыс	1953
##поз	1954
чур	1955
мэ	1956
ех	1957
##бер	1958
болуу	1959
нага	1960
полиц	1961
лы	1962
ибиз	1963
нал	1964
логия	1965
##инг	1966
##мөн	1967
истра	1968
иран	1969
тараб	1970
ууган	1971
өрт	1972
##түр	1973
гач	1974
түрк	1975
огору	1976
армия	1977
алка	1978
өлүм	1979
ирим	1980
урукс	1981
үрүү	1982
азар	1983
бейт	1984
эмгек	1985
##ару	1986
жо	1987
ска	1988
##евр	1989
февр	1990
нат	1991
алкаг	1992
елару	1993
жабыр	1994
ос	1995
жерге	1996
ова	1997
трлер	1998
co	1999
лөрү	2000
нча	2001
ейт	2002
москв	2003
лып	2004
каев	2005
суз	2006
аар	2007
ков	2008
админ	2009
ион	2010
ака	2011
##лам	2012
чүй	2013
##уучу	2014
чулар	2015
шкан	2016
алдын	2017
бакыт	2018
жибер	2019
уг	2020
абалы	2021
мас	2022
депут	2023
июлда	2024
айынд	2025
абдан	2026
өлтүр	2027
өш	2028
ылды	2029
бөй	2030
тарга	2031
катуу	2032
пи	2033
чө	2034
тый	2035
улган	2036
армаг	2037
апкан	2038
радио	2039
асыл	2040
үлг	2041
15	2042
караш	2043
ль	2044
ейтап	2045
умт	2046
уунун	2047
иң	2048
сс	2049
спорт	2050
20	2051
хам	2052
санал	2053
лим	2054
шек	2055
азык	2056
кетип	2057
гөнүн	2058
тобу	2059
көч	2060
нет	2061
сапар	2062
гачкы	2063
ушу	2064
атамб	2065
##йгө	2066
каруу	2067
зыл	2068
лап	2069
зылык	2070
аль	2071
элдин	2072
алыс	2073
##теп	2074
ский	2075
оло	2076
күй	2077
таг	2078
имара	2079
үлүп	2080
шев	2081
алтын	2082
ама	2083
матов	2084
саба	2085
шект	2086
чылыг	2087
ыкча	2088
бри	2089
изге	2090
лерин	2091
пайыз	2092
##дж	2093
исалы	2094
форма	2095
жетки	2096
өг	2097
гин	2098
байт	2099
сине	2100
өнөкт	2101
##ни	2102
сүз	2103
кеси	2104
гем	2105
үнчү	2106
леген	2107
ыктар	2108
илке	2109
келин	2110
аман	2111
тапшы	2112
мед	2113
өттү	2114
елт	2115
ултан	2116
ажыр	2117
##вес	2118
кээ	2119
итинг	2120
сайын	2121
##дын	2122
оппоз	2123
каржы	2124
сотко	2125
кыска	2126
тарын	2127
елтир	2128
жети	2129
езек	2130
жаг	2131
азай	2132
чурда	2133
курул	2134
сокку	2135
ланды	2136
ттуу	2137
нып	2138
ере	2139
##мо	2140
елген	2141
төмөн	2142
ндеги	2143
одо	2144
терди	2145
##джет	2146
юджет	2147
рма	2148
тыйжа	2149
##vi	2150
ив	2151
учак	2152
чогул	2153
йм	2154
буз	2155
чект	2156
пе	2157
##түк	2158
үштүк	2159
басым	2160
пей	2161
орду	2162
млрд	2163
кеп	2164
уд	2165
үк	2166
риш	2167
ндор	2168
аян	2169
мурун	2170
актан	2171
ткери	2172
батыш	2173
көрүп	2174
азуу	2175
уза	2176
##еси	2177
нтари	2178
четке	2179
эске	2180
30	2181
ск	2182
тигин	2183
күндө	2184
акынд	2185
башчы	2186
реж	2187
нарын	2188
аштар	2189
зом	2190
чулук	2191
аният	2192
асылм	2193
ларда	2194
сый	2195
ың	2196
панде	2197
рган	2198
арада	2199
зомбу	2200
рып	2201
мунун	2202
тут	2203
туш	2204
ашыр	2205
тез	2206
апта	2207
эрте	2208
нг	2209
сек	2210
комме	2211
вир	2212
гал	2213
олог	2214
актап	2215
ажыра	2216
ттер	2217
талаш	2218
иримд	2219
ыч	2220
айына	2221
көчө	2222
##инч	2223
кетүү	2224
дирек	2225
мае	2226
рси	2227
инвес	2228
баа	2229
адыр	2230
санк	2231
##рл	2232
ондо	2233
ткү	2234
уулар	2235
рил	2236
генин	2237
митет	2238
рамп	2239
санкц	2240
орт	2241
дым	2242
топто	2243
эгер	2244
үгү	2245
тул	2246
жеңил	2247
аал	2248
таза	2249
киев	2250
рсите	2251
##еже	2252
улант	2253
скер	2254
эреже	2255
инети	2256
кыйын	2257
лануу	2258
штаб	2259
##ама	2260
акция	2261
герма	2262
келат	2263
вакц	2264
их	2265
обо	2266
##дөө	2267
өнүг	2268
ест	2269
китеп	2270
ети	2271
олдоо	2272
терге	2273
үндүк	2274
кийи	2275
бал	2276
ракет	2277
11	2278
өң	2279
кта	2280
##лы	2281
нунда	2282
бирөө	2283
каала	2284
турук	2285
аяг	2286
еки	2287
инф	2288
аши	2289
товар	2290
##vid	2291
анат	2292
##иве	2293
өөчү	2294
иал	2295
декси	2296
кулов	2297
сүйлө	2298
униве	2299
ткөн	2300
баз	2301
кс	2302
ишти	2303
түрдө	2304
езгил	2305
тору	2306
ттан	2307
игра	2308
урам	2309
туп	2310
арба	2311
метр	2312
брита	2313
12	2314
трлик	2315
жазып	2316
ыктын	2317
умтөр	2318
шон	2319
ыктан	2320
дат	2321
ебиз	2322
антип	2323
##мы	2324
түк	2325
алтыр	2326
дээ	2327
анит	2328
баасы	2329
ау	2330
рдук	2331
сөзд	2332
##жан	2333
зыян	2334
евро	2335
covid	2336
пу	2337
бошо	2338
базар	2339
кирип	2340
ери	2341
аякта	2342
лен	2343
иштей	2344
стун	2345
вирус	2346
дээрл	2347
болуш	2348
сынд	2349
##сыз	2350
рь	2351
баала	2352
бур	2353
орунд	2354
екен	2355
здар	2356
асыз	2357
овет	2358
элч	2359
катта	2360
мби	2361
талас	2362
армап	2363
коюш	2364
шайла	2365
даяр	2366
no	2367
ург	2368
##гын	2369
ония	2370
дам	2371
күнөө	2372
көлө	2373
матер	2374
што	2375
куруу	2376
оолуу	2377
жам	2378
туруш	2379
күчөт	2380
чем	2381
станд	2382
бош	2383
ырт	2384
аракч	2385
беген	2386
өч	2387
эсеби	2388
анал	2389
зүү	2390
узду	2391
титут	2392
койду	2393
кесип	2394
күнд	2395
сам	2396
ыраст	2397
рыл	2398
гу	2399
олдо	2400
улар	2401
ланып	2402
алекс	2403
##ту	2404
аянт	2405
пул	2406
окшо	2407
лукка	2408
өмүрү	2409
турум	2410
кошул	2411
инг	2412
сайты	2413
жоо	2414
ырс	2415
улд	2416
муз	2417
ымб	2418
зор	2419
ус	2420
калат	2421
эли	2422
ари	2423
мүнө	2424
##ста	2425
телеф	2426
илди	2427
##лор	2428
диний	2429
узуу	2430
ырсык	2431
рос	2432
кын	2433
коюп	2434
лүгү	2435
тамак	2436
атра	2437
айден	2438
канал	2439
циясы	2440
ишени	2441
гемен	2442
сунда	2443
##маз	2444
нунун	2445
##нес	2446
атыл	2447
нтин	2448
өзүн	2449
аза	2450
уктур	2451
ңыз	2452
ирет	2453
изнес	2454
лмаз	2455
кадам	2456
орно	2457
үлк	2458
ашиев	2459
терин	2460
урс	2461
байка	2462
##анц	2463
туруп	2464
айтыш	2465
оро	2466
ектөө	2467
ыгын	2468
иялар	2469
курч	2470
галим	2471
зел	2472
рын	2473
сана	2474
имди	2475
келти	2476
##йр	2477
изд	2478
аттуу	2479
өөк	2480
дарыг	2481
бш	2482
бөлүн	2483
бетте	2484
етте	2485
маш	2486
мок	2487
түзүү	2488
сакта	2489
сеп	2490
тали	2491
кылды	2492
##сб	2493
жолдо	2494
калаа	2495
зи	2496
бшк	2497
шы	2498
планд	2499
оттун	2500
үт	2501
кли	2502
бизди	2503
играц	2504
лиги	2505
гында	2506
убада	2507
##ва	2508
баян	2509
ондон	2510
урман	2511
еск	2512
үстү	2513
уур	2514
##on	2515
көздө	2516
ндия	2517
лаш	2518
сыртк	2519
мана	2520
фак	2521
танд	2522
факты	2523
етика	2524
транс	2525
мэри	2526
көлөм	2527
аан	2528
күбө	2529
##пө	2530
енко	2531
режим	2532
астан	2533
##үг	2534
таян	2535
үнүш	2536
100	2537
##пар	2538
үйлөр	2539
ред	2540
баса	2541
куучу	2542
##жал	2543
ериш	2544
бара	2545
##шө	2546
##тик	2547
үйшө	2548
арай	2549
бою	2550
амат	2551
ван	2552
айжан	2553
тасма	2554
арала	2555
булак	2556
тапта	2557
шар	2558
уздуг	2559
узак	2560
бирге	2561
ткүч	2562
чемпи	2563
аткан	2564
ымбат	2565
зат	2566
зама	2567
жакта	2568
өөсү	2569
чук	2570
##ья	2571
үзөт	2572
нул	2573
##лет	2574
амсыз	2575
ийи	2576
ылдыр	2577
аэ	2578
айко	2579
таң	2580
ызыл	2581
пас	2582
ира	2583
##сөт	2584
иза	2585
өрсөт	2586
студе	2587
зелен	2588
комп	2589
егиз	2590
жокко	2591
тирүү	2592
талд	2593
##түү	2594
сөзү	2595
арх	2596
олдор	2597
пир	2598
ору	2599
улуу	2600
дөрү	2601
##доо	2602
луп	2603
сир	2604
калы	2605
аңжал	2606
таган	2607
ачан	2608
түшүп	2609
орлор	2610
жиг	2611
арна	2612
атр	2613
газа	2614
14	2615
50	2616
кызы	2617
айылд	2618
##туу	2619
еңиш	2620
дип	2621
иг	2622
13	2623
дыгы	2624
план	2625
дро	2626
дипло	2627
жара	2628
түрү	2629
изм	2630
сия	2631
етект	2632
лас	2633
арг	2634
өзүнө	2635
сирия	2636
##дик	2637
иим	2638
еткен	2639
аппар	2640
олу	2641
курор	2642
чүлүг	2643
олго	2644
нууда	2645
рек	2646
үбүз	2647
мб	2648
шент	2649
иреше	2650
ааты	2651
ылбек	2652
камчы	2653
##йру	2654
доочу	2655
өнөр	2656
оок	2657
имдиг	2658
штуу	2659
ылып	2660
жабыл	2661
ленге	2662
сте	2663
орд	2664
алаа	2665
дигин	2666
тыл	2667
атаал	2668
жарал	2669
медиа	2670
атыш	2671
акиев	2672
ерр	2673
екит	2674
##шу	2675
арыл	2676
жылда	2677
экөө	2678
тив	2679
лыш	2680
мык	2681
ыптыр	2682
сез	2683
араат	2684
евроб	2685
жогот	2686
жүзү	2687
менин	2688
лей	2689
ыштыр	2690
апат	2691
сар	2692
##гар	2693
иштет	2694
фей	2695
шты	2696
түрмө	2697
оңшу	2698
фейсб	2699
рө	2700
огул	2701
үнүч	2702
ысы	2703
манас	2704
мын	2705
сен	2706
муни	2707
ейше	2708
рия	2709
арыш	2710
унт	2711
интер	2712
тиция	2713
тыгы	2714
урмуш	2715
ашине	2716
иалд	2717
нбай	2718
айлык	2719
коно	2720
кароо	2721
од	2722
урамы	2723
##ma	2724
өп	2725
өйгө	2726
ылдык	2727
баянд	2728
##ерб	2729
ндөгү	2730
едер	2731
азерб	2732
синин	2733
терро	2734
шо	2735
лла	2736
каган	2737
жайыл	2738
кес	2739
ыйгар	2740
милге	2741
зия	2742
риз	2743
сөө	2744
тонна	2745
өйгөй	2746
тасы	2747
ве	2748
ник	2749
##шыр	2750
проце	2751
сомго	2752
гинде	2753
мыкты	2754
25	2755
колог	2756
оттук	2757
абаг	2758
оци	2759
чаг	2760
сурак	2761
маалы	2762
аманд	2763
огуз	2764
шондо	2765
чөй	2766
ерс	2767
сттик	2768
апшыр	2769
тарта	2770
ңар	2771
өкүм	2772
чогуу	2773
утб	2774
герде	2775
анк	2776
төрө	2777
ойно	2778
өөлөр	2779
бошот	2780
ино	2781
жетти	2782
ардыг	2783
еди	2784
зм	2785
өкт	2786
##оро	2787
элде	2788
демия	2789
дерди	2790
гынын	2791
16	2792
тех	2793
жери	2794
франц	2795
##чик	2796
жасап	2797
коюу	2798
удья	2799
ыңг	2800
бирик	2801
алиба	2802
чукул	2803
ика	2804
ста	2805
ыт	2806
өтөт	2807
##мит	2808
пал	2809
ци	2810
айма	2811
жолун	2812
вице	2813
вал	2814
бекем	2815
ескин	2816
леш	2817
смо	2818
узуп	2819
зит	2820
оптор	2821
ерден	2822
чыр	2823
чыгыш	2824
датта	2825
оли	2826
##рө	2827
##ея	2828
чөйрө	2829
ият	2830
буйру	2831
сөөгү	2832
абы	2833
енин	2834
жашап	2835
убан	2836
алгыз	2837
айдан	2838
оомчу	2839
##есс	2840
бажы	2841
кун	2842
рем	2843
нстан	2844
сел	2845
оюз	2846
камс	2847
18	2848
мени	2849
ыздоо	2850
кл	2851
нция	2852
ерект	2853
тере	2854
рый	2855
кыркы	2856
үнөн	2857
олот	2858
оюнд	2859
мөн	2860
төө	2861
егия	2862
пози	2863
өгөт	2864
оч	2865
атка	2866
гресс	2867
ркек	2868
уку	2869
жакка	2870
тара	2871
аммит	2872
едера	2873
чыга	2874
өрүн	2875
жүк	2876
сум	2877
турак	2878
олку	2879
лимпи	2880
##вок	2881
айта	2882
төгөн	2883
рыйба	2884
гум	2885
##иг	2886
тууга	2887
сегиз	2888
ароо	2889
башал	2890
баруу	2891
##ого	2892
иңде	2893
ийгиз	2894
лөрдү	2895
гра	2896
лет	2897
тып	2898
олтур	2899
эсе	2900
##чар	2901
карыз	2902
ислам	2903
утбол	2904
бөлүш	2905
ъект	2906
енчик	2907
корея	2908
ризис	2909
эрки	2910
жанд	2911
ыкма	2912
оль	2913
ткан	2914
ани	2915
ения	2916
ыраа	2917
аст	2918
лмат	2919
асына	2920
өтпө	2921
мбиде	2922
лматы	2923
олжо	2924
ный	2925
ктор	2926
огулт	2927
таап	2928
үнчө	2929
аттам	2930
убак	2931
фонд	2932
ью	2933
##му	2934
үмү	2935
чыкпа	2936
начар	2937
чечүү	2938
оңдо	2939
ран	2940
адвок	2941
оокер	2942
лыгы	2943
ласс	2944
кил	2945
нуп	2946
##дүү	2947
калыб	2948
кр	2949
кете	2950
ыгыш	2951
оолу	2952
##эб	2953
мага	2954
үрөт	2955
оңку	2956
акты	2957
еми	2958
вод	2959
ажы	2960
лю	2961
арам	2962
ыйм	2963
##пе	2964
катто	2965
ыймыл	2966
кеми	2967
узул	2968
мер	2969
енс	2970
чилиг	2971
алса	2972
ишине	2973
атор	2974
агым	2975
күнгө	2976
умш	2977
17	2978
убат	2979
туруу	2980
гүн	2981
иж	2982
орма	2983
иштүү	2984
лө	2985
ыма	2986
ашыг	2987
андат	2988
##үшү	2989
күр	2990
мар	2991
түштү	2992
иккен	2993
туул	2994
ээк	2995
уулук	2996
үлгөн	2997
уккан	2998
нтер	2999
згө	3000
лыг	3001
унай	3002
##иза	3003
укта	3004
мей	3005
пара	3006
алга	3007
салык	3008
кириш	3009
көнүн	3010
нуш	3011
түй	3012
баева	3013
##тт	3014
далил	3015
ion	3016
пс	3017
стат	3018
күчт	3019
атып	3020
руз	3021
рл	3022
рдо	3023
арык	3024
ca	3025
тте	3026
адан	3027
илери	3028
шунд	3029
ңиз	3030
октом	3031
арлык	3032
ынга	3033
уусу	3034
жаны	3035
пор	3036
ганы	3037
раак	3038
техни	3039
үлд	3040
дыгын	3041
алым	3042
таан	3043
они	3044
чечил	3045
анча	3046
чынд	3047
арат	3048
ыны	3049
ларга	3050
одон	3051
рол	3052
анция	3053
инче	3054
сооро	3055
инте	3056
лду	3057
ууг	3058
еме	3059
ланга	3060
рүүдө	3061
мол	3062
тат	3063
түлү	3064
араш	3065
ашкан	3066
октот	3067
гран	3068
ехно	3069
40	3070
тация	3071
убай	3072
үркмө	3073
атуу	3074
ышына	3075
рей	3076
скар	3077
дөө	3078
фонду	3079
оско	3080
орг	3081
нттер	3082
фер	3083
жүрүш	3084
андаш	3085
жуг	3086
үрүшү	3087
ндон	3088
еңиз	3089
как	3090
экинч	3091
тыкта	3092
утка	3093
мы	3094
арку	3095
ыздар	3096
сепет	3097
иде	3098
андыр	3099
улма	3100
акын	3101
ийги	3102
үтү	3103
##бей	3104
атты	3105
гыл	3106
згөчө	3107
убуз	3108
лгөн	3109
нф	3110
сүндө	3111
күчө	3112
илими	3113
район	3114
скерт	3115
штар	3116
изде	3117
улду	3118
ши	3119
олугу	3120
оочу	3121
аласы	3122
иян	3123
оога	3124
сези	3125
ожо	3126
шуу	3127
позиц	3128
ника	3129
дөгөн	3130
еги	3131
кмат	3132
аттоо	3133
екция	3134
кула	3135
аап	3136
зо	3137
ноо	3138
арлам	3139
кация	3140
яр	3141
акан	3142
артип	3143
нато	3144
ализ	3145
ерт	3146
диа	3147
чыгуу	3148
асын	3149
ави	3150
агытт	3151
ед	3152
раф	3153
ектеш	3154
анов	3155
кени	3156
утуу	3157
нго	3158
каш	3159
аша	3160
тос	3161
айга	3162
салды	3163
өбүз	3164
зал	3165
лам	3166
##иси	3167
илип	3168
үүсү	3169
нден	3170
жатыш	3171
онат	3172
ктуу	3173
км	3174
айыр	3175
өлүп	3176
гөнү	3177
теш	3178
күл	3179
аттан	3180
ерге	3181
алабы	3182
иби	3183
пт	3184
хан	3185
абду	3186
укукт	3187
пасы	3188
урул	3189
ене	3190
еев	3191
иден	3192
үкт	3193
акала	3194
елип	3195
сың	3196
рманд	3197
ткен	3198
нц	3199
кага	3200
келүү	3201
артуу	3202
екше	3203
тти	3204
оого	3205
асым	3206
боо	3207
вок	3208
фил	3209
лт	3210
##at	3211
терде	3212
урна	3213
талга	3214
апты	3215
жарак	3216
##ge	3217
дашуу	3218
бизде	3219
ооз	3220
аалым	3221
рыг	3222
шат	3223
ашты	3224
бия	3225
десе	3226
тийиш	3227
але	3228
арыя	3229
реги	3230
өтүү	3231
окту	3232
бес	3233
сүнө	3234
умуш	3235
луна	3236
тала	3237
исти	3238
мне	3239
ачуу	3240
ыды	3241
арына	3242
дап	3243
лат	3244
ото	3245
ерв	3246
оргоо	3247
##пай	3248
сттер	3249
ести	3250
гек	3251
мдөө	3252
карт	3253
ута	3254
ортто	3255
лөө	3256
ткар	3257
тей	3258
лын	3259
арбы	3260
аку	3261
дарын	3262
дукт	3263
мон	3264
ттар	3265
йлөр	3266
атар	3267
ферен	3268
сла	3269
ашыл	3270
үйө	3271
руг	3272
ыка	3273
күчү	3274
апа	3275
рга	3276
айтуу	3277
мака	3278
грант	3279
страт	3280
вокат	3281
рыгер	3282
зан	3283
оптуу	3284
азасы	3285
жөнө	3286
ттери	3287
илет	3288
көй	3289
корку	3290
ендер	3291
сим	3292
оолор	3293
рлер	3294
айын	3295
ылдар	3296
дум	3297
уран	3298
дис	3299
удай	3300
руу	3301
йыл	3302
ож	3303
кас	3304
амб	3305
атыр	3306
ыйы	3307
жашыр	3308
ичи	3309
ркинд	3310
чыны	3311
еч	3312
нба	3313
арта	3314
арты	3315
ац	3316
раб	3317
агына	3318
мекен	3319
гыла	3320
сул	3321
хамас	3322
##ну	3323
хн	3324
кирүү	3325
рс	3326
19	3327
аф	3328
өлг	3329
алиб	3330
хника	3331
еврал	3332
фе	3333
келеч	3334
өнгө	3335
##ra	3336
ичине	3337
рий	3338
ыбек	3339
рег	3340
абык	3341
ону	3342
еа	3343
екени	3344
егизи	3345
спи	3346
кети	3347
жин	3348
##хан	3349
окум	3350
артыш	3351
алышы	3352
##лү	3353
аров	3354
арым	3355
урт	3356
ныш	3357
улат	3358
андуу	3359
ынган	3360
улаг	3361
тип	3362
лөрдө	3363
лин	3364
атат	3365
мел	3366
чеги	3367
ондук	3368
таанд	3369
анган	3370
шу	3371
##бе	3372
аткы	3373
анып	3374
көргө	3375
демил	3376
ория	3377
маз	3378
ашк	3379
олдук	3380
бл	3381
апар	3382
ля	3383
төрүн	3384
факт	3385
көйгө	3386
юму	3387
гыс	3388
ырма	3389
екке	3390
армоо	3391
ртуу	3392
60	3393
ima	3394
##стр	3395
тег	3396
адани	3397
коро	3398
гул	3399
юри	3400
курам	3401
тоочу	3402
image	3403
мыл	3404
уудан	3405
арака	3406
дүүлү	3407
уруу	3408
лаг	3409
рист	3410
виру	3411
элди	3412
лиц	3413
мыр	3414
тады	3415
улуп	3416
ирд	3417
ыд	3418
виза	3419
аяк	3420
ымды	3421
үлдү	3422
ne	3423
иринч	3424
көрө	3425
көзү	3426
эпи	3427
ария	3428
атасы	3429
тури	3430
көрдү	3431
малуу	3432
мэр	3433
ияны	3434
луг	3435
ивдүү	3436
ынып	3437
ануу	3438
дим	3439
стук	3440
үтүн	3441
гун	3442
шү	3443
издөө	3444
төгү	3445
олдон	3446
лле	3447
уң	3448
ңкы	3449
лукта	3450
тайын	3451
ктар	3452
ресс	3453
синде	3454
ера	3455
кук	3456
нск	3457
ют	3458
22	3459
24	3460
эси	3461
той	3462
тогу	3463
егер	3464
кад	3465
көрүн	3466
оңо	3467
атта	3468
шкер	3469
геси	3470
нстр	3471
алам	3472
абия	3473
лтын	3474
200	3475
демо	3476
нек	3477
корк	3478
дос	3479
ешет	3480
рды	3481
улу	3482
кч	3483
эксп	3484
лекс	3485
үң	3486
онал	3487
нип	3488
нүп	3489
##ман	3490
шам	3491
аралы	3492
пө	3493
үмд	3494
улак	3495
лорду	3496
ва	3497
мба	3498
ыгым	3499
буу	3500
тууну	3501
гыр	3502
өбө	3503
олду	3504
еррор	3505
80	3506
араба	3507
баг	3508
такта	3509
кынд	3510
##en	3511
ерал	3512
ылкы	3513
өктү	3514
көө	3515
еске	3516
мине	3517
сиң	3518
чилер	3519
ио	3520
деми	3521
тург	3522
жого	3523
бызды	3524
мылы	3525
айге	3526
вер	3527
лег	3528
юн	3529
атын	3530
ерн	3531
колун	3532
алгач	3533
ңг	3534
ришти	3535
руучу	3536
тема	3537
илин	3538
##er	3539
өтүн	3540
дыры	3541
өлгөн	3542
шып	3543
##pt	3544
үндө	3545
гэ	3546
айра	3547
дыкка	3548
бра	3549
##суз	3550
пүр	3551
караб	3552
арыг	3553
колу	3554
опсуз	3555
шан	3556
кире	3557
нансы	3558
уну	3559
ттен	3560
21	3561
рым	3562
сып	3563
тинин	3564
тори	3565
хе	3566
рис	3567
рика	3568
терг	3569
етк	3570
аск	3571
алары	3572
дүгү	3573
өчүр	3574
шка	3575
өрө	3576
маши	3577
дил	3578
елг	3579
сма	3580
ишет	3581
70	3582
нууга	3583
ирге	3584
пон	3585
ттү	3586
ташта	3587
елег	3588
фин	3589
акыт	3590
лышы	3591
еткир	3592
рев	3593
кило	3594
лү	3595
##ви	3596
тыкты	3597
асма	3598
нь	3599
чен	3600
артка	3601
##es	3602
анг	3603
capt	3604
был	3605
##ср	3606
кыла	3607
алба	3608
елек	3609
##бү	3610
жүрө	3611
чөл	3612
гэс	3613
бан	3614
сым	3615
ыйка	3616
ачып	3617
ысым	3618
рында	3619
йбыз	3620
пост	3621
штыр	3622
шуна	3623
бирин	3624
аштыр	3625
имп	3626
дус	3627
нка	3628
ыган	3629
наб	3630
урма	3631
кри	3632
рим	3633
лия	3634
нүү	3635
чи	3636
алап	3637
амы	3638
елбей	3639
сайт	3640
нген	3641
ати	3642
лерге	3643
жы	3644
кыймы	3645
рв	3646
тика	3647
ттүү	3648
хи	3649
ыйлы	3650
аңг	3651
ора	3652
##лга	3653
рд	3654
перат	3655
алан	3656
үлүш	3657
ңү	3658
маан	3659
тамб	3660
ереги	3661
арлар	3662
ылдыг	3663
пы	3664
аи	3665
здө	3666
ирзи	3667
лоого	3668
айла	3669
исал	3670
мис	3671
инд	3672
дерге	3673
спе	3674
27	3675
35	3676
ечи	3677
уа	3678
атак	3679
ылышы	3680
есс	3681
үктө	3682
##ia	3683
азала	3684
нап	3685
23	3686
мына	3687
нче	3688
коло	3689
көпчү	3690
гүндө	3691
ече	3692
абыр	3693
сунун	3694
ачка	3695
адим	3696
лугу	3697
рон	3698
токо	3699
26	3700
неси	3701
уруп	3702
ыруун	3703
үйдө	3704
ико	3705
шип	3706
салыш	3707
аков	3708
##теш	3709
жк	3710
осу	3711
атына	3712
500	3713
нор	3714
инт	3715
етер	3716
луучу	3717
ечит	3718
рет	3719
алма	3720
менти	3721
айд	3722
умушт	3723
еси	3724
ката	3725
жүрг	3726
өлүк	3727
мдүү	3728
шун	3729
ганд	3730
күм	3731
кылы	3732
чам	3733
абар	3734
кырсы	3735
пат	3736
отч	3737
##ябр	3738
##сын	3739
налык	3740
үсү	3741
ашып	3742
ец	3743
ырып	3744
тим	3745
лиев	3746
кус	3747
шыл	3748
абат	3749
илек	3750
еаэб	3751
ита	3752
иясы	3753
екет	3754
улда	3755
арман	3756
90	3757
лов	3758
##кту	3759
ойн	3760
икке	3761
иргел	3762
тым	3763
лукту	3764
ид	3765
үдө	3766
ешкен	3767
лиз	3768
башы	3769
акыры	3770
кция	3771
кв	3772
ерб	3773
вич	3774
адагы	3775
ссср	3776
ирзиё	3777
лга	3778
уча	3779
арад	3780
пов	3781
арка	3782
ылык	3783
ндер	3784
түүгө	3785
иги	3786
наа	3787
ынч	3788
ынды	3789
етип	3790
үрт	3791
куя	3792
сунан	3793
раган	3794
лорго	3795
оно	3796
иктин	3797
ыгып	3798
дыруу	3799
чат	3800
алп	3801
өлөм	3802
арш	3803
жете	3804
арызд	3805
урат	3806
зе	3807
мор	3808
асты	3809
дика	3810
йым	3811
арда	3812
дур	3813
##in	3814
рте	3815
тили	3816
ета	3817
оюу	3818
нтип	3819
өлө	3820
өзд	3821
анада	3822
гуна	3823
жон	3824
тябр	3825
коо	3826
тябрь	3827
in	3828
оф	3829
ылт	3830
уру	3831
мит	3832
муна	3833
st	3834
##ула	3835
улов	3836
ахм	3837
лбо	3838
ылат	3839
куба	3840
риг	3841
нис	3842
суп	3843
база	3844
кере	3845
ыздын	3846
кг	3847
енди	3848
28	3849
инци	3850
аттын	3851
ндөй	3852
рыла	3853
идео	3854
үлөт	3855
еним	3856
лдык	3857
зак	3858
оюл	3859
##ха	3860
барды	3861
ылына	3862
ритан	3863
ити	3864
##ве	3865
лит	3866
вс	3867
нкт	3868
рмат	3869
нуучу	3870
ауд	3871
нчө	3872
уган	3873
тынан	3874
артык	3875
геле	3876
гөндө	3877
ыртка	3878
ини	3879
бад	3880
аңд	3881
уя	3882
ерек	3883
узга	3884
ух	3885
алилд	3886
окат	3887
роз	3888
аала	3889
ирөө	3890
лоб	3891
ушкан	3892
коопт	3893
ыя	3894
алай	3895
урду	3896
реп	3897
шүү	3898
ашы	3899
катчы	3900
рах	3901
иса	3902
лдик	3903
зин	3904
рге	3905
урн	3906
кка	3907
нти	3908
##oo	3909
кыш	3910
##сүн	3911
утт	3912
##ut	3913
ордо	3914
едиа	3915
лынын	3916
усу	3917
өрүл	3918
ель	3919
урасы	3920
өра	3921
ато	3922
угуп	3923
стана	3924
сер	3925
рап	3926
фт	3927
опа	3928
ердик	3929
бөйт	3930
амал	3931
льт	3932
мдун	3933
кла	3934
жатты	3935
овду	3936
дөп	3937
үшкөн	3938
өрага	3939
##ху	3940
реа	3941
ртыл	3942
йман	3943
er	3944
рто	3945
елет	3946
ырга	3947
чүлөр	3948
мында	3949
##ko	3950
кылыш	3951
бакт	3952
елги	3953
кти	3954
урда	3955
ышын	3956
онго	3957
дугу	3958
штары	3959
таты	3960
45	3961
ров	3962
рчу	3963
##юс	3964
гай	3965
мгек	3966
це	3967
карыл	3968
иктен	3969
ентяб	3970
рбек	3971
уста	3972
ье	3973
бю	3974
ним	3975
үрдү	3976
үйөө	3977
гени	3978
ава	3979
тту	3980
өөнү	3981
вка	3982
##he	3983
үнүп	3984
алдан	3985
тро	3986
имдик	3987
поз	3988
kg	3989
re	3990
ндан	3991
кташ	3992
зим	3993
рация	3994
ымдар	3995
лаб	3996
агып	3997
ева	3998
ейи	3999
уюш	4000
көнү	4001
иров	4002
шунда	4003
илдик	4004
300	4005
мдө	4006
ндай	4007
калд	4008
дарга	4009
овго	4010
жашы	4011
утуп	4012
арызы	4013
zko	4014
зун	4015
үшүнө	4016
нду	4017
фа	4018
екети	4019
лууда	4020
төрдү	4021
ардар	4022
жайын	4023
te	4024
уруш	4025
өгө	4026
акс	4027
гиз	4028
аса	4029
ыры	4030
лдуу	4031
пч	4032
тунд	4033
андар	4034
акай	4035
ыша	4036
лип	4037
урас	4038
36	4039
кча	4040
ыно	4041
ерм	4042
берки	4043
еде	4044
##ou	4045
арь	4046
тилин	4047
жэб	4048
скө	4049
отун	4050
33	4051
вет	4052
аде	4053
уй	4054
инал	4055
пөй	4056
ука	4057
дайын	4058
жкку	4059
анде	4060
рит	4061
ранда	4062
тет	4063
байла	4064
лис	4065
анти	4066
онд	4067
лдер	4068
шил	4069
ттык	4070
аштык	4071
ылбай	4072
ртүү	4073
лкө	4074
нам	4075
сон	4076
инанс	4077
ирди	4078
рчы	4079
ейм	4080
екте	4081
вари	4082
енция	4083
еби	4084
сто	4085
кылмы	4086
оби	4087
дөрүн	4088
уттук	4089
ккан	4090
ашына	4091
уулан	4092
күрө	4093
32	4094
рдын	4095
алия	4096
тект	4097
##ce	4098
акал	4099
рид	4100
тапт	4101
new	4102
йка	4103
ндүр	4104
кты	4105
лым	4106
тиш	4107
каба	4108
сей	4109
өктө	4110
норма	4111
ясы	4112
аард	4113
орук	4114
йле	4115
кчил	4116
##ону	4117
наз	4118
сти	4119
үрүл	4120
өөдө	4121
ликт	4122
иева	4123
көмү	4124
иясын	4125
баал	4126
имдер	4127
ипло	4128
аам	4129
нбек	4130
кей	4131
ынчы	4132
ti	4133
зү	4134
айдын	4135
орон	4136
стиц	4137
ушту	4138
ебе	4139
мк	4140
аланы	4141
атив	4142
нышы	4143
улушу	4144
манов	4145
лди	4146
абыл	4147
енде	4148
лыгын	4149
талат	4150
лав	4151
кыйк	4152
мда	4153
берб	4154
етин	4155
илиш	4156
манк	4157
енен	4158
зд	4159
ост	4160
улга	4161
чаб	4162
автор	4163
куб	4164
одекс	4165
отчет	4166
ктеш	4167
##or	4168
теби	4169
тыгын	4170
етет	4171
крим	4172
жд	4173
мды	4174
рен	4175
төт	4176
чан	4177
өгү	4178
үүсүн	4179
стика	4180
беке	4181
раз	4182
75	4183
кут	4184
рул	4185
акта	4186
шону	4187
елгил	4188
ате	4189
ойго	4190
##al	4191
##сун	4192
үндөр	4193
этно	4194
уст	4195
кады	4196
оодо	4197
социа	4198
емо	4199
гам	4200
ткы	4201
ха	4202
ууп	4203
ериле	4204
птө	4205
ква	4206
капи	4207
тист	4208
ндын	4209
табы	4210
оба	4211
коё	4212
жашта	4213
сөзүн	4214
нс	4215
огу	4216
ышт	4217
ном	4218
кчы	4219
ят	4220
ялд	4221
танды	4222
гиле	4223
айк	4224
били	4225
аныб	4226
гор	4227
нес	4228
үд	4229
омдо	4230
аатта	4231
##le	4232
тка	4233
арб	4234
аркы	4235
абай	4236
ектүү	4237
29	4238
рч	4239
ште	4240
өнүк	4241
no1	4242
31	4243
34	4244
йг	4245
тра	4246
##ch	4247
арс	4248
туру	4249
кысы	4250
овд	4251
##нев	4252
арлы	4253
янс	4254
ууд	4255
онуу	4256
бий	4257
режи	4258
өктөш	4259
ека	4260
ума	4261
кармо	4262
мелер	4263
тышуу	4264
ице	4265
лдин	4266
мп	4267
##ина	4268
ирүү	4269
бут	4270
##оз	4271
алил	4272
орк	4273
око	4274
чекте	4275
ео	4276
##st	4277
урак	4278
ынты	4279
өндө	4280
макта	4281
йн	4282
ракт	4283
##ar	4284
анс	4285
лыкка	4286
бел	4287
li	4288
зч	4289
пнев	4290
өзгө	4291
парк	4292
пневм	4293
48	4294
ое	4295
року	4296
чиси	4297
урган	4298
ранс	4299
шаш	4300
аныш	4301
иреш	4302
поли	4303
мдын	4304
рево	4305
рдин	4306
уусун	4307
ени	4308
ндү	4309
аада	4310
сыйл	4311
ордун	4312
44	4313
уга	4314
ыргы	4315
рал	4316
шер	4317
алмак	4318
логи	4319
зиз	4320
здын	4321
енг	4322
ндык	4323
екст	4324
йд	4325
эмге	4326
оциал	4327
нч	4328
пин	4329
шир	4330
яна	4331
дилет	4332
тыны	4333
агын	4334
рмасы	4335
150	4336
былга	4337
иф	4338
хм	4339
гиси	4340
наны	4341
сыл	4342
чки	4343
арап	4344
айык	4345
түндү	4346
лугун	4347
йс	4348
38	4349
ng	4350
гуу	4351
иктер	4352
лгө	4353
рде	4354
үштү	4355
кту	4356
нбаев	4357
аягы	4358
лда	4359
дери	4360
майы	4361
стор	4362
дерин	4363
боор	4364
лот	4365
аржы	4366
ойдо	4367
ектор	4368
55	4369
ймак	4370
стө	4371
кым	4372
нуна	4373
кинд	4374
рман	4375
65	4376
тырып	4377
слав	4378
овдун	4379
пет	4380
айсы	4381
өрүнө	4382
лөрүн	4383
рад	4384
роза	4385
кмш	4386
лкөдө	4387
al	4388
йин	4389
тайт	4390
аалар	4391
олиц	4392
700	4393
мчу	4394
нак	4395
эн	4396
үчө	4397
онг	4398
алиц	4399
рлары	4400
лм	4401
аяна	4402
гонун	4403
дорду	4404
ктив	4405
осо	4406
рлар	4407
атке	4408
башын	4409
онт	4410
олору	4411
акто	4412
эш	4413
ңд	4414
тинг	4415
шамал	4416
аил	4417
гына	4418
ырд	4419
мдуу	4420
гол	4421
##фа	4422
##она	4423
дың	4424
оода	4425
ража	4426
өрүш	4427
нияз	4428
үзө	4429
37	4430
жыр	4431
лдук	4432
хо	4433
ше	4434
айс	4435
рама	4436
дия	4437
мди	4438
нгөн	4439
менд	4440
унд	4441
лүп	4442
нвар	4443
##хта	4444
атпай	4445
тура	4446
угуш	4447
урнал	4448
өбү	4449
арч	4450
кеме	4451
акул	4452
ыгына	4453
ессия	4454
ете	4455
ыйла	4456
сыны	4457
шташ	4458
нж	4459
гар	4460
##уб	4461
андал	4462
отург	4463
плат	4464
очула	4465
арал	4466
коом	4467
лигин	4468
чакта	4469
агыл	4470
жыйы	4471
лбоор	4472
the	4473
уштуу	4474
кунд	4475
дахан	4476
акка	4477
араз	4478
машы	4479
уюшту	4480
дс	4481
ув	4482
ырка	4483
41	4484
ры	4485
рки	4486
даган	4487
ыйна	4488
пад	4489
сузд	4490
тма	4491
ашат	4492
отуз	4493
гүү	4494
##аси	4495
лерде	4496
налда	4497
жайы	4498
чий	4499
кенем	4500
лиг	4501
400	4502
аак	4503
##ах	4504
түүнү	4505
оорон	4506
шарше	4507
үмдү	4508
верд	4509
иплом	4510
мов	4511
анар	4512
эмд	4513
енб	4514
рг	4515
##эл	4516
ашин	4517
лини	4518
түшү	4519
екси	4520
род	4521
бло	4522
жөө	4523
расы	4524
чир	4525
шери	4526
акшы	4527
салма	4528
ызы	4529
ктан	4530
ченем	4531
42	4532
me	4533
мик	4534
ганга	4535
араб	4536
тыя	4537
rn	4538
юу	4539
айпа	4540
прел	4541
сизд	4542
өндөр	4543
масы	4544
ликте	4545
раш	4546
улугу	4547
мекте	4548
згөн	4549
чуу	4550
үрүм	4551
рилди	4552
уура	4553
йдө	4554
чүн	4555
үгө	4556
инди	4557
тыруу	4558
урсу	4559
генде	4560
арых	4561
жуму	4562
ураг	4563
клуб	4564
коомч	4565
чүнчү	4566
шен	4567
үбү	4568
амир	4569
ers	4570
рез	4571
актоо	4572
ургак	4573
бюро	4574
айсал	4575
зона	4576
лк	4577
мпа	4578
ске	4579
чин	4580
##ve	4581
айн	4582
ылда	4583
форм	4584
рдүү	4585
тааси	4586
news	4587
идин	4588
йла	4589
оне	4590
ринде	4591
грац	4592
43	4593
айтар	4594
тран	4595
мдөр	4596
ялдар	4597
эшик	4598
##во	4599
аби	4600
окко	4601
көрүш	4602
еже	4603
ьер	4604
кырыл	4605
мөк	4606
сиял	4607
лл	4608
пп	4609
рке	4610
##зо	4611
укту	4612
аим	4613
ппоз	4614
рамы	4615
39	4616
47	4617
кмөн	4618
лак	4619
ктөр	4620
вар	4621
гүнө	4622
##re	4623
алаш	4624
ерг	4625
ерли	4626
оюнч	4627
билд	4628
етүү	4629
амак	4630
идея	4631
ача	4632
уда	4633
анды	4634
етине	4635
имде	4636
ешти	4637
угу	4638
тында	4639
өңү	4640
лүгүн	4641
reut	4642
бун	4643
таба	4644
көк	4645
көрү	4646
кесеп	4647
мдук	4648
нз	4649
ыбы	4650
өшө	4651
муш	4652
нко	4653
##te	4654
калыш	4655
ектен	4656
ектел	4657
тпө	4658
лыкты	4659
олуг	4660
лея	4661
иңи	4662
on	4663
йк	4664
мду	4665
акси	4666
ипот	4667
аркат	4668
vi	4669
мт	4670
птер	4671
ялы	4672
ату	4673
ырыл	4674
амил	4675
үлөр	4676
икте	4677
эрк	4678
дио	4679
түрүү	4680
бойт	4681
блус	4682
йдар	4683
кпай	4684
тты	4685
босо	4686
литва	4687
меси	4688
алг	4689
##ура	4690
жагы	4691
өлү	4692
арага	4693
етр	4694
етпе	4695
олуп	4696
учуру	4697
актар	4698
омго	4699
зу	4700
йлы	4701
арти	4702
ирде	4703
еф	4704
нте	4705
шык	4706
улук	4707
урд	4708
ний	4709
юл	4710
##дп	4711
анас	4712
апо	4713
ремь	4714
ктагы	4715
ариу	4716
85	4717
гил	4718
шем	4719
өчү	4720
айкы	4721
үрөө	4722
кура	4723
ида	4724
ыймы	4725
еков	4726
рп	4727
шуун	4728
ерине	4729
обс	4730
кезе	4731
адио	4732
иви	4733
йна	4734
ранц	4735
штур	4736
ыда	4737
##юр	4738
боз	4739
аарын	4740
үмдөр	4741
пыс	4742
раа	4743
##ёр	4744
орис	4745
чыкк	4746
агасы	4747
no2	4748
йып	4749
арл	4750
ыпты	4751
еттүү	4752
кери	4753
езде	4754
дини	4755
араң	4756
ранды	4757
лгач	4758
кко	4759
кое	4760
аке	4761
ышкы	4762
енип	4763
уши	4764
куу	4765
уса	4766
ачар	4767
упай	4768
шемби	4769
гно	4770
кб	4771
ох	4772
берг	4773
стик	4774
үйүн	4775
ром	4776
ажи	4777
устар	4778
54	4779
үбө	4780
##li	4781
тага	4782
тиг	4783
жазы	4784
ипте	4785
дүң	4786
емби	4787
елди	4788
уман	4789
тирил	4790
иле	4791
йч	4792
отто	4793
ыктал	4794
кадр	4795
гынд	4796
кырк	4797
талы	4798
балы	4799
рсу	4800
##bc	4801
арчы	4802
ынб	4803
анкт	4804
тац	4805
ако	4806
ерд	4807
диц	4808
өрбө	4809
ээр	4810
ексу	4811
зүндө	4812
оюп	4813
tu	4814
мара	4815
оц	4816
пак	4817
сси	4818
##an	4819
##mi	4820
ишкен	4821
рав	4822
бөгө	4823
лоочу	4824
рина	4825
циал	4826
ri	4827
чүү	4828
урч	4829
ыгер	4830
сумма	4831
мпани	4832
есе	4833
рста	4834
ынд	4835
атайы	4836
ыкчы	4837
акти	4838
тыкка	4839
ондой	4840
ья	4841
унуш	4842
гынан	4843
62	4844
идер	4845
мыш	4846
ног	4847
рик	4848
рба	4849
рюс	4850
түг	4851
геме	4852
мини	4853
ктүү	4854
рлору	4855
атег	4856
тайы	4857
нты	4858
рш	4859
шот	4860
ro	4861
вто	4862
ена	4863
акту	4864
айрыл	4865
үзүл	4866
моо	4867
нк	4868
элге	4869
атура	4870
өтүш	4871
элчи	4872
уту	4873
торду	4874
мтө	4875
600	4876
вге	4877
мга	4878
ранд	4879
фу	4880
часы	4881
өй	4882
тарма	4883
урун	4884
том	4885
tim	4886
58	4887
рж	4888
рчи	4889
таз	4890
енже	4891
басыл	4892
артия	4893
омо	4894
ксдп	4895
57	4896
63	4897
лине	4898
шуп	4899
ндаш	4900
вид	4901
ыгыл	4902
меке	4903
септе	4904
күчтө	4905
мүн	4906
ртка	4907
верси	4908
68	4909
илг	4910
кра	4911
ксы	4912
лес	4913
пто	4914
чус	4915
##фи	4916
нелер	4917
елүү	4918
яны	4919
52	4920
сх	4921
цен	4922
##эр	4923
окку	4924
кайд	4925
коман	4926
рази	4927
кирге	4928
мсыз	4929
эпо	4930
алим	4931
дес	4932
анты	4933
кант	4934
берд	4935
лиши	4936
поэ	4937
рча	4938
##ri	4939
##зел	4940
калем	4941
алыгы	4942
46	4943
49	4944
53	4945
сары	4946
##ре	4947
##be	4948
орго	4949
үрүп	4950
амга	4951
налар	4952
мм	4953
##зин	4954
айке	4955
асык	4956
ыштар	4957
дуг	4958
бог	4959
гине	4960
рү	4961
ял	4962
мада	4963
тес	4964
ндо	4965
екчи	4966
жанын	4967
туту	4968
чинов	4969
рюсс	4970
зө	4971
инара	4972
енти	4973
талды	4974
елиш	4975
игине	4976
лышын	4977
реван	4978
кум	4979
рыш	4980
ызма	4981
отста	4982
лими	4983
120	4984
inte	4985
51	4986
fa	4987
gra	4988
зил	4989
өчө	4990
соц	4991
терн	4992
сала	4993
оорло	4994
үзүп	4995
77	4996
йли	4997
лана	4998
пция	4999
