[UNK]	0
[CLS]	1
[SEP]	2
[PAD]	3
[MASK]	4
!	5
"	6
#	7
$	8
%	9
&	10
'	11
(	12
)	13
*	14
+	15
,	16
-	17
.	18
/	19
0	20
1	21
2	22
3	23
4	24
5	25
6	26
7	27
8	28
9	29
:	30
;	31
=	32
?	33
@	34
[	35
\	36
]	37
_	38
`	39
a	40
b	41
c	42
d	43
e	44
f	45
g	46
h	47
i	48
j	49
k	50
l	51
m	52
n	53
o	54
p	55
q	56
r	57
s	58
t	59
u	60
v	61
w	62
x	63
y	64
z	65
{	66
}	67
£	68
§	69
©	70
¬	71
­	72
°	73
·	74
ß	75
á	76
â	77
ã	78
ä	79
ç	80
è	81
é	82
í	83
ï	84
ñ	85
ö	86
ü	87
ā	88
ą	89
ğ	90
ı	91
ŋ	92
ş	93
š	94
ū	95
ƚ	96
ƣ	97
ə	98
ɵ	99
ʙ	100
ʼ	101
́	102
̇	103
̧	104
а	105
б	106
в	107
г	108
д	109
е	110
ж	111
з	112
и	113
й	114
к	115
л	116
м	117
н	118
о	119
п	120
р	121
с	122
т	123
у	124
ф	125
х	126
ц	127
ч	128
ш	129
щ	130
ъ	131
ы	132
ь	133
э	134
ю	135
я	136
ё	137
ђ	138
і	139
ї	140
љ	141
ћ	142
ў	143
ѳ	144
ғ	145
қ	146
ң	147
ү	148
ұ	149
ҳ	150
ҷ	151
һ	152
ӊ	153
ӏ	154
ә	155
ө	156
ӯ	157
ا	158
ح	159
خ	160
د	161
ر	162
ز	163
ص	164
ط	165
ظ	166
ع	167
غ	168
ق	169
ك	170
ل	171
م	172
ن	173
ه	174
و	175
ي	176
ُ	177
ِ	178
‎	179
‒	180
―	181
•	182
⁄	183
⁠	184
⁣	185
→	186
−	187
▪	188
●	189
⠀	190
回	191
堅	192
族	193
昆	194
鄄	195
韓	196
鬲	197
	198
️	199
##у	200
##м	201
##е	202
##л	203
##ь	204
##г	205
##а	206
##р	207
##д	208
##ң	209
##с	210
##и	211
##з	212
##к	213
##ө	214
##б	215
##й	216
##т	217
##н	218
##о	219
##ц	220
##я	221
##ы	222
##ш	223
##2	224
##7	225
##ч	226
##ү	227
##п	228
##k	229
##n	230
##b	231
##в	232
##ф	233
##ю	234
##t	235
##a	236
##m	237
##ж	238
##ъ	239
##э	240
##ل	241
##ط	242
##ا	243
##ق	244
##3	245
##0	246
##ё	247
##4	248
##e	249
##v	250
##r	251
##ѳ	252
##х	253
##s	254
##o	255
##щ	256
##z	257
##ӊ	258
##1	259
##i	260
##y	261
##8	262
##5	263
##g	264
##9	265
##u	266
##l	267
##d	268
##p	269
##f	270
##h	271
##c	272
##j	273
##w	274
##,	275
##ö	276
##x	277
##_	278
##;	279
##6	280
##ə	281
##ُ	282
##و	283
##ِ	284
##ز	285
##ğ	286
##ü	287
##і	288
##ў	289
##)	290
##қ	291
##?	292
##"	293
##.	294
##q	295
##}	296
##ƚ	297
##ï	298
##/	299
##ә	300
##-	301
##昆	302
##ş	303
##ɵ	304
##á	305
##ı	306
##ß	307
##ҳ	308
##ه	309
##ر	310
##+	311
##́	312
##ї	313
##é	314
##©	315
##族	316
##ن	317
##ك	318
##ح	319
##ع	320
##ص	321
##ي	322
##̇	323
##è	324
##ӏ	325
##ā	326
##*	327
##ñ	328
##í	329
##ʼ	330
##ұ	331
##]	332
##љ	333
##ç	334
##韓	335
##!	336
##(	337
##:	338
##ғ	339
##م	340
##د	341
##­	342
##ӯ	343
##ҷ	344
##$	345
##[	346
##ą	347
##ū	348
##ã	349
##‎	350
##ä	351
##&	352
###	353
##⁣	354
##ђ	355
##ƣ	356
##ћ	357
##ʙ	358
##â	359
##ан	360
##ар	361
##ын	362
##ен	363
##ал	364
##ин	365
##ат	366
##ер	367
##да	368
##уу	369
##ол	370
##кт	371
##ыл	372
##ай	373
##үн	374
##ган	375
##ир	376
##ун	377
ал	378
##ды	379
##гы	380
##ор	381
##он	382
##ур	383
##ет	384
##ст	385
##ия	386
##ек	387
##ил	388
##шт	389
##га	390
##ел	391
##ам	392
##ул	393
##ыр	394
##ык	395
ба	396
жа	397
##өр	398
ай	399
##ып	400
##оо	401
##ик	402
бол	403
##өн	404
де	405
##үү	406
##шк	407
##ак	408
##ана	409
##тт	410
##дын	411
бир	412
мен	413
##ген	414
##ди	415
##ас	416
##ыз	417
##де	418
##ары	419
##ында	420
ар	421
кар	422
##үр	423
менен	424
##из	425
да	426
##ап	427
эл	428
ко	429
##ук	430
##дар	431
##ий	432
ан	433
##аб	434
жана	435
##ок	436
##атт	437
##ым	438
бер	439
##тк	440
кө	441
##ов	442
##дө	443
##стан	444
##дан	445
эк	446
##ес	447
##ог	448
##им	449
##ый	450
жат	451
##ей	452
кыр	453
##ус	454
ор	455
ма	456
кел	457
##ча	458
##ция	459
жыл	460
бул	461
##кан	462
##уп	463
##үл	464
##гыз	465
деп	466
##ына	467
##ра	468
кыргыз	469
##өл	470
өз	471
та	472
##ист	473
##ма	474
тур	475
##ип	476
##ыш	477
##ев	478
со	479
##ду	480
бар	481
##ез	482
эм	483
##ку	484
тар	485
##ект	486
пр	487
кыз	488
##гө	489
##ги	490
ак	491
бо	492
##ден	493
##ынын	494
##ем	495
##алган	496
ка	497
##етт	498
бил	499
##юн	500
##дык	501
##дин	502
##гон	503
ат	504
аз	505
##аган	506
##ск	507
жар	508
##лан	509
##дагы	510
##үз	511
##ли	512
чы	513
үч	514
са	515
##ге	516
##лар	517
##үп	518
##дам	519
##ба	520
##өт	521
кыл	522
эле	523
##ка	524
##ит	525
##сы	526
кат	527
##еп	528
өл	529
##иш	530
кыргызстан	531
айт	532
##уш	533
маал	534
ош	535
##бек	536
##гөн	537
кор	538
ишт	539
##алык	540
##дир	541
##алуу	542
##ери	543
боюн	544
мам	545
боюнча	546
##ум	547
20	548
##уз	549
кызм	550
то	551
маалым	552
кай	553
##нын	554
билдир	555
орус	556
##инин	557
болгон	558
туу	559
кал	560
тал	561
##дай	562
үчүн	563
##үй	564
көр	565
##инде	566
кол	567
жол	568
иш	569
жаткан	570
##еч	571
##ең	572
алар	573
##үм	574
##иден	575
##от	576
башк	577
##до	578
өлк	579
##лек	580
##ыкт	581
биз	582
каб	583
ком	584
##инист	585
кан	586
бай	587
##ышт	588
##шы	589
##езиден	590
адам	591
кур	592
мамлек	593
президен	594
жет	595
##го	596
##гил	597
##дук	598
##үк	599
##ут	600
күн	601
##ег	602
ук	603
жер	604
ми	605
##инистр	606
##ине	607
өк	608
##үш	609
деген	610
орусия	611
жүр	612
кий	613
##үч	614
##ом	615
министр	616
баш	617
бел	618
экен	619
коо	620
анын	621
##лер	622
##аар	623
##ылган	624
кызмат	625
##чу	626
кер	627
##еш	628
##дун	629
уч	630
жок	631
дагы	632
##лык	633
##бай	634
жаз	635
кет	636
болуп	637
ул	638
сал	639
##ейин	640
##шкан	641
##чи	642
##өө	643
##дер	644
##унун	645
кийин	646
чейин	647
##кы	648
ин	649
##ууга	650
туур	651
каз	652
жак	653
тууралуу	654
##ынан	655
##чы	656
мамлекетт	657
бирок	658
аб	659
##ктар	660
турган	661
##үг	662
##зам	663
##алар	664
пар	665
##асы	666
мый	667
мыйзам	668
##үндө	669
би	670
кир	671
эмес	672
бал	673
##дик	674
бий	675
учур	676
##унда	677
##бл	678
##чыл	679
кам	680
шаар	681
##еб	682
##уун	683
бас	684
жатат	685
##дү	686
өтк	687
##уна	688
##аны	689
мур	690
өт	691
керек	692
##кен	693
эки	694
чыг	695
башт	696
##анын	697
маалымат	698
##дон	699
##бо	700
мил	701
көп	702
##та	703
шай	704
##дыр	705
президент	706
##кта	707
жай	708
түр	709
алып	710
үй	711
##чул	712
##яс	713
жылы	714
##үнө	715
эр	716
жог	717
##уг	718
уш	719
ую	720
",	721
ич	722
##ээ	723
мас	724
##ке	725
##аттар	726
##лоо	727
##ент	728
##дөр	729
алган	730
белгил	731
##скер	732
азыр	733
##бр	734
##ав	735
##сыз	736
##ору	737
кең	738
##ки	739
кы	740
##өм	741
##кер	742
ая	743
##ябр	744
##ман	745
##ады	746
көз	747
түз	748
укра	749
украин	750
##ага	751
##тер	752
жаң	753
саяс	754
ав	755
##аз	756
күч	757
миң	758
байлан	759
бу	760
##дары	761
дол	762
##ушт	763
чеч	764
сө	765
ошон	766
##үнүн	767
##ран	768
##өлөр	769
##ылуу	770
киш	771
##иция	772
жаш	773
келген	774
сөз	775
айма	776
өлкө	777
жал	778
##аш	779
##уст	780
бишк	781
аш	782
##өй	783
тарт	784
тер	785
оку	786
ты	787
өн	788
мамлекеттик	789
чыгар	790
##егиз	791
##еле	792
бор	793
жары	794
төр	795
жаран	796
өкм	797
##дардын	798
башка	799
жөн	800
##икт	801
##гү	802
##чил	803
билдирди	804
ок	805
##си	806
мак	807
##иев	808
экенин	809
жый	810
##утт	811
##ындагы	812
кара	813
обл	814
ошол	815
чыгы	816
бөл	817
каршы	818
##ян	819
##инчи	820
эми	821
чык	822
##ты	823
жоо	824
##ос	825
##ив	826
көрс	827
шайлоо	828
##үүгө	829
кош	830
##төр	831
май	832
##күн	833
эс	834
түш	835
##дуу	836
##айын	837
##баев	838
бери	839
оор	840
жогор	841
##доо	842
рай	843
ап	844
##ткан	845
##оп	846
борб	847
иштер	848
чек	849
жап	850
##ктан	851
##аттык	852
негиз	853
##сынын	854
же	855
кандай	856
дүй	857
дар	858
казак	859
##иянын	860
кон	861
мүм	862
кооп	863
##ликт	864
мүмкүн	865
чак	866
19	867
сур	868
коом	869
##алы	870
##суз	871
##икалык	872
##ууда	873
##со	874
карм	875
калган	876
##лик	877
##өш	878
##об	879
жаңы	880
аскер	881
байланышт	882
токт	883
##са	884
##аров	885
болот	886
202	887
болду	888
аны	889
аба	890
мар	891
##еси	892
##агы	893
кый	894
##арын	895
талап	896
кылм	897
##елер	898
ач	899
район	900
##ейт	901
##алдык	902
##гын	903
уюм	904
жогорку	905
кабар	906
##гында	907
ишк	908
##дөн	909
##гер	910
##лам	911
##алды	912
##ация	913
алардын	914
##00	915
буга	916
депут	917
201	918
##еген	919
борбор	920
##инен	921
##ада	922
таж	923
ре	924
##еди	925
арак	926
из	927
гана	928
##ис	929
жыйын	930
##алып	931
чакыр	932
##кты	933
##чү	934
чар	935
бат	936
##тай	937
тап	938
дүйн	939
алын	940
улутт	941
##аты	942
##үт	943
##иб	944
##өнүн	945
##дүн	946
##иялык	947
сот	948
от	949
айып	950
##дор	951
тил	952
чыккан	953
кабыл	954
##ябрда	955
ага	956
жум	957
сүй	958
топ	959
катт	960
##лай	961
мында	962
##лөр	963
##уну	964
##гиз	965
жарыя	966
##сп	967
ст	968
сан	969
кою	970
жооп	971
байланыштуу	972
масел	973
жатканын	974
##лиги	975
коопсуз	976
##өтт	977
айтып	978
##ышы	979
киши	980
жас	981
##ентт	982
га	983
катары	984
##уул	985
айыл	986
##ардын	987
кыргызстандын	988
ев	989
учурда	990
##дүү	991
дем	992
##оз	993
комп	994
алдын	995
##чүл	996
##үнү	997
тарап	998
##ания	999
аралык	1000
мындай	1001
сог	1002
акш	1003
корг	1004
парт	1005
мек	1006
##ци	1007
атк	1008
өкүл	1009
ушул	1010
өткөр	1011
##рам	1012
казакстан	1013
##тты	1014
чет	1015
##йт	1016
##рым	1017
пай	1018
##чө	1019
##ешт	1020
түрк	1021
деди	1022
##епт	1023
ил	1024
берген	1025
##арды	1026
##асын	1027
тол	1028
##ышкан	1029
милли	1030
дин	1031
уку	1032
сом	1033
##сү	1034
жур	1035
берил	1036
##ууну	1037
кой	1038
тажик	1039
ад	1040
өткөн	1041
долбо	1042
мо	1043
окуя	1044
сакт	1045
##ылып	1046
көб	1047
коргоо	1048
облус	1049
кытай	1050
мурдагы	1051
##иг	1052
орусиянын	1053
кеткен	1054
##айт	1055
кайра	1056
эн	1057
##..	1058
кез	1059
кайр	1060
##чысы	1061
чо	1062
##укт	1063
улуттук	1064
эрк	1065
жапаров	1066
сун	1067
##ени	1068
болсо	1069
тү	1070
сүйл	1071
##үкт	1072
чечим	1073
президентт	1074
##асм	1075
##ла	1076
жакын	1077
##онав	1078
өкмөт	1079
##уб	1080
##сия	1081
##үгүн	1082
ур	1083
##дарды	1084
##оном	1085
кыргызстанда	1086
коронав	1087
коронавир	1088
ой	1089
##дой	1090
##еги	1091
соң	1092
##ест	1093
караган	1094
жетек	1095
жардам	1096
парлам	1097
эч	1098
##нал	1099
##гына	1100
##быз	1101
биринчи	1102
көрсөт	1103
##ика	1104
...	1105
##гун	1106
билдирген	1107
##үлгөн	1108
авт	1109
##яр	1110
жылдын	1111
##үүдө	1112
тышк	1113
##пы	1114
##тыр	1115
бишкект	1116
сат	1117
##беков	1118
уба	1119
жаб	1120
##ышат	1121
орт	1122
##дүр	1123
жашт	1124
айрым	1125
айткан	1126
өзбек	1127
келиш	1128
##асында	1129
партия	1130
##огон	1131
евр	1132
эконом	1133
##лиг	1134
жалпы	1135
алуу	1136
##иде	1137
ылай	1138
##ушу	1139
журнал	1140
андан	1141
чоң	1142
жолу	1143
##се	1144
сотт	1145
бири	1146
шар	1147
окт	1148
##туу	1149
жүрг	1150
##абыз	1151
алды	1152
орун	1153
кызматт	1154
суу	1155
акт	1156
##кү	1157
аял	1158
##мө	1159
бек	1160
албай	1161
##асмий	1162
##мер	1163
киргиз	1164
анда	1165
10	1166
##улган	1167
##ылды	1168
себ	1169
журналист	1170
өлкөлөр	1171
колдон	1172
өзү	1173
саясий	1174
ара	1175
##орт	1176
улам	1177
расмий	1178
##иги	1179
ылайык	1180
талк	1181
ата	1182
##гөр	1183
кызматкер	1184
башкар	1185
бийлик	1186
дан	1187
оп	1188
таб	1189
өзгөр	1190
айтты	1191
##тар	1192
мын	1193
долбоор	1194
түн	1195
отур	1196
##ышты	1197
##ата	1198
аныкт	1199
тын	1200
чыгып	1201
##ри	1202
##чулар	1203
##олог	1204
##ети	1205
кес	1206
кылмыш	1207
##лери	1208
эмн	1209
##дөрү	1210
түшүн	1211
ичинде	1212
сы	1213
##оого	1214
жүргүз	1215
##атты	1216
арк	1217
эң	1218
миллион	1219
ун	1220
берүү	1221
коопсуздук	1222
бишкек	1223
саясат	1224
ким	1225
жан	1226
##мия	1227
буз	1228
каза	1229
компания	1230
биздин	1231
##дөө	1232
таш	1233
күр	1234
##дей	1235
ошондой	1236
келет	1237
караганда	1238
караж	1239
башкы	1240
##мүр	1241
##тын	1242
##сын	1243
кеңеш	1244
кеңешт	1245
те	1246
он	1247
##иктүү	1248
болбо	1249
президенти	1250
калды	1251
дары	1252
##изм	1253
##дарга	1254
катар	1255
##үүнү	1256
##уучу	1257
атайын	1258
##ече	1259
ээ	1260
жөнүндө	1261
##шкен	1262
ли	1263
##сүн	1264
эмне	1265
элек	1266
жең	1267
##шка	1268
##өөн	1269
##үүлөр	1270
15	1271
акыр	1272
##су	1273
даяр	1274
дүйнө	1275
коронавирус	1276
соци	1277
көл	1278
тарма	1279
доллар	1280
##ундагы	1281
аркылуу	1282
турат	1283
##тта	1284
моск	1285
сын	1286
##рел	1287
##сат	1288
ра	1289
меди	1290
##ктуу	1291
деле	1292
москв	1293
##аткан	1294
мл	1295
ын	1296
##цин	1297
мамлекет	1298
##тан	1299
##ыгы	1300
мындан	1301
##гиликтүү	1302
өзбекстан	1303
##акка	1304
аткар	1305
келип	1306
рес	1307
##өтк	1308
ти	1309
өлкөдө	1310
##ой	1311
##алиев	1312
улан	1313
сүр	1314
катыш	1315
##өгөн	1316
тергө	1317
жылдан	1318
##үгү	1319
апрел	1320
мүч	1321
нече	1322
##инг	1323
көтөр	1324
##ылык	1325
жакшы	1326
им	1327
##ко	1328
кырда	1329
миг	1330
садыр	1331
төл	1332
эркин	1333
##ланган	1334
комит	1335
таан	1336
##вар	1337
нын	1338
жерде	1339
пик	1340
абал	1341
ички	1342
##сиз	1343
тек	1344
чект	1345
##ңг	1346
сыр	1347
бүгүн	1348
азаттык	1349
өлкөнүн	1350
##ыйыл	1351
мекем	1352
##өлүк	1353
бардык	1354
эксп	1355
##мат	1356
##оол	1357
иштеп	1358
кылып	1359
чог	1360
берип	1361
ушун	1362
быйыл	1363
##убл	1364
пол	1365
##ердин	1366
социалдык	1367
кылган	1368
кр	1369
кем	1370
##өп	1371
##илген	1372
турганын	1373
жергиликтүү	1374
тий	1375
күнү	1376
оо	1377
пикир	1378
##стит	1379
бийликт	1380
орган	1381
беш	1382
##лор	1383
##бей	1384
тергөө	1385
өзгө	1386
сап	1387
жарыял	1388
иликт	1389
жүргөн	1390
##етти	1391
сүйлөш	1392
##сун	1393
11	1394
эсепт	1395
айыпт	1396
курул	1397
уул	1398
##аман	1399
##ерди	1400
тажикстан	1401
##өк	1402
ян	1403
маан	1404
төрага	1405
комис	1406
парламентт	1407
мект	1408
##асына	1409
##өмөл	1410
##шыр	1411
30	1412
##алан	1413
##ишт	1414
##юл	1415
кызматы	1416
##ерин	1417
аракет	1418
алынган	1419
##шты	1420
көзөмөл	1421
жек	1422
##ыкты	1423
12	1424
док	1425
##окур	1426
туура	1427
##оон	1428
##тир	1429
##ова	1430
иши	1431
европ	1432
курал	1433
##тор	1434
##ктагы	1435
кач	1436
министрлиги	1437
##мк	1438
министри	1439
ачык	1440
акча	1441
су	1442
элект	1443
прокур	1444
ден	1445
аталган	1446
но	1447
өмүр	1448
келишим	1449
төрт	1450
бан	1451
соңку	1452
##пай	1453
баары	1454
дек	1455
азыркы	1456
кеч	1457
##алат	1458
коз	1459
докум	1460
на	1461
берди	1462
ишке	1463
ас	1464
алма	1465
##ерг	1466
##ларды	1467
июн	1468
акыркы	1469
бүл	1470
ала	1471
жолуг	1472
эскер	1473
##дүк	1474
январ	1475
##штур	1476
билим	1477
дал	1478
сп	1479
##аев	1480
##сына	1481
##түү	1482
өзгөчө	1483
##шкөн	1484
арыз	1485
актив	1486
оорук	1487
милиция	1488
ди	1489
карата	1490
##руп	1491
кырдаал	1492
болчу	1493
мурда	1494
доб	1495
##густ	1496
респ	1497
август	1498
багы	1499
##циялык	1500
башчысы	1501
кошум	1502
так	1503
ыр	1504
тары	1505
жаг	1506
##огу	1507
аймактар	1508
мат	1509
кеңештин	1510
##асынын	1511
салам	1512
эгер	1513
##пи	1514
##ымында	1515
##чылык	1516
ге	1517
сунушт	1518
нур	1519
өкмөтт	1520
сактоо	1521
тем	1522
министрлиг	1523
республ	1524
укук	1525
##атур	1526
##уунун	1527
уюштур	1528
##ерс	1529
##абр	1530
жатышат	1531
##дуктан	1532
ыс	1533
басма	1534
##ед	1535
ишен	1536
саны	1537
айтымында	1538
үн	1539
экинчи	1540
тышкы	1541
сент	1542
##дикт	1543
ол	1544
кен	1545
ис	1546
чаб	1547
өтө	1548
облуст	1549
##екс	1550
##деги	1551
жаштагы	1552
баштаган	1553
бүт	1554
ооган	1555
макул	1556
##ама	1557
наар	1558
##рал	1559
азия	1560
##анда	1561
##гыл	1562
##етинин	1563
салуу	1564
наараз	1565
укмк	1566
кабарл	1567
жылга	1568
##бүз	1569
маалыматтар	1570
##ьер	1571
корруп	1572
##ылат	1573
арасында	1574
200	1575
жо	1576
##рат	1577
тынч	1578
токтот	1579
белгилүү	1580
баткен	1581
ушундай	1582
кармалган	1583
тарых	1584
жүз	1585
##ны	1586
##чиси	1587
камсыз	1588
декабр	1589
##ттар	1590
14	1591
келтир	1592
окуу	1593
коомдук	1594
##эр	1595
алга	1596
##юу	1597
өтүп	1598
ку	1599
до	1600
адамдар	1601
18	1602
каран	1603
аскердик	1604
өр	1605
виде	1606
мамил	1607
электр	1608
антк	1609
газ	1610
көбөй	1611
##ктын	1612
##асир	1613
аж	1614
жээ	1615
прем	1616
##хн	1617
шаарында	1618
милд	1619
13	1620
##атта	1621
зар	1622
күчтөр	1623
коюл	1624
маселе	1625
##дим	1626
эт	1627
ча	1628
был	1629
украина	1630
абад	1631
шт	1632
күрөш	1633
берен	1634
бр	1635
##ерлер	1636
##есин	1637
сист	1638
акция	1639
##угу	1640
баз	1641
экономикалык	1642
кл	1643
##диг	1644
былтыр	1645
жара	1646
чын	1647
##үшү	1648
16	1649
жайга	1650
бош	1651
айында	1652
талапкер	1653
##утин	1654
##еби	1655
##олгон	1656
##рация	1657
##штыр	1658
путин	1659
##өкт	1660
таасир	1661
мөөн	1662
июл	1663
тапшыр	1664
премьер	1665
17	1666
аген	1667
мис	1668
октябрда	1669
##тка	1670
украинанын	1671
сыя	1672
мигран	1673
жетекчил	1674
##енин	1675
барып	1676
карап	1677
куб	1678
уз	1679
##аларды	1680
ортос	1681
##озиция	1682
толук	1683
дейт	1684
комиссия	1685
##үлүп	1686
##гу	1687
аракетт	1688
тиеш	1689
25	1690
оюн	1691
##овдун	1692
корк	1693
мыйзамсыз	1694
##арт	1695
түшт	1696
алгач	1697
жүрүп	1698
##анд	1699
бур	1700
депутат	1701
нат	1702
##дарын	1703
##шер	1704
там	1705
фев	1706
ашык	1707
сыяктуу	1708
тартып	1709
алб	1710
чабуул	1711
тургун	1712
##иши	1713
болушу	1714
илим	1715
феврал	1716
арал	1717
быз	1718
дай	1719
соо	1720
арт	1721
жатканы	1722
##чылар	1723
ток	1724
койгон	1725
##дап	1726
райондук	1727
жеке	1728
түнкү	1729
анткени	1730
иран	1731
##тик	1732
техн	1733
иштеген	1734
си	1735
про	1736
ойл	1737
түшүндүр	1738
алдында	1739
##унан	1740
бала	1741
тең	1742
барган	1743
басары	1744
төрагасы	1745
##үрүү	1746
коомчул	1747
эск	1748
##кир	1749
президенттин	1750
текшер	1751
караб	1752
агентт	1753
добуш	1754
президенттик	1755
кул	1756
##алары	1757
##ыт	1758
кайсы	1759
муну	1760
болгонун	1761
##лардын	1762
сатып	1763
согуш	1764
млн	1765
өндүр	1766
##оолор	1767
бей	1768
айтылган	1769
вир	1770
##ортт	1771
саб	1772
козг	1773
чыкты	1774
топт	1775
жарандык	1776
оорукана	1777
сый	1778
майда	1779
жыйынты	1780
күнд	1781
го	1782
план	1783
күндүз	1784
активист	1785
медицин	1786
##дыктар	1787
өзүн	1788
шаардык	1789
экспер	1790
билдирүү	1791
ади	1792
##догон	1793
бийлиги	1794
салын	1795
сиз	1796
кайт	1797
жумуш	1798
энерг	1799
му	1800
колдоо	1801
##бу	1802
оң	1803
##ынча	1804
көч	1805
##усу	1806
##лары	1807
##тин	1808
##раил	1809
көрсөтк	1810
##улуп	1811
##демия	1812
##ланды	1813
##ияда	1814
##ститу	1815
##за	1816
##дөгү	1817
эмг	1818
пан	1819
алтын	1820
мүчө	1821
соода	1822
##тип	1823
израил	1824
максат	1825
коррупция	1826
өзүнүн	1827
24	1828
##дери	1829
интер	1830
прокуратур	1831
европа	1832
кап	1833
ашуун	1834
талкуу	1835
ыра	1836
##игин	1837
аларды	1838
ды	1839
##бул	1840
##ерге	1841
##ишкен	1842
саат	1843
конститу	1844
атам	1845
журналисттер	1846
мартта	1847
министрлигинин	1848
мадан	1849
##ыктар	1850
күт	1851
мектеп	1852
жолугуш	1853
##чал	1854
тышкары	1855
күй	1856
##бы	1857
мүмкүнчүл	1858
кызматкерлер	1859
өкүлү	1860
анан	1861
негизги	1862
берет	1863
башталган	1864
дун	1865
маалыматына	1866
##ктылуу	1867
##жан	1868
ысык	1869
комм	1870
##жы	1871
##ограм	1872
керект	1873
акшнын	1874
жу	1875
лар	1876
такт	1877
көң	1878
келди	1879
берилген	1880
##дарынын	1881
ир	1882
сай	1883
ошондуктан	1884
бишкекте	1885
тизм	1886
уб	1887
октябр	1888
москва	1889
##өрү	1890
##акт	1891
маш	1892
жазган	1893
түнкүсүн	1894
элдик	1895
##тко	1896
##ардык	1897
жеткир	1898
##аль	1899
көңүл	1900
##кын	1901
полиция	1902
жарым	1903
фон	1904
жээн	1905
ов	1906
изил	1907
саламаттык	1908
##стр	1909
##ттү	1910
экени	1911
2020	1912
##мыл	1913
##дарына	1914
дарыгер	1915
жагдай	1916
ноябрда	1917
белгиледи	1918
тыюу	1919
дон	1920
авто	1921
деңг	1922
##кери	1923
мун	1924
мекен	1925
августта	1926
##кул	1927
дүйнөлүк	1928
деңгээ	1929
өкүлдөрү	1930
##ордук	1931
жалал	1932
ооганстан	1933
сок	1934
##мак	1935
дын	1936
##үнөн	1937
маалымда	1938
документт	1939
100	1940
кылмышт	1941
##ич	1942
##елүү	1943
систем	1944
бөлүм	1945
жазды	1946
атт	1947
кийинки	1948
##ушка	1949
##етте	1950
апрелде	1951
зарыл	1952
кыймыл	1953
согушт	1954
##сынан	1955
алты	1956
фин	1957
кезде	1958
убактылуу	1959
##иц	1960
##гынын	1961
опер	1962
амер	1963
##од	1964
##аттары	1965
тез	1966
##дөй	1967
ишин	1968
##егинде	1969
кыргызстанга	1970
ири	1971
кит	1972
өнүкт	1973
жабыр	1974
##диги	1975
бере	1976
##тон	1977
пайда	1978
сүрөтт	1979
дайын	1980
тан	1981
азырынча	1982
##еж	1983
иликтөө	1984
опп	1985
байк	1986
22	1987
жетекчиси	1988
##ыктын	1989
канча	1990
шект	1991
реф	1992
сентябрда	1993
##орм	1994
тел	1995
жатабыз	1996
учурунда	1997
темир	1998
##ала	1999
жылдары	2000
код	2001
##дыгы	2002
июнда	2003
##ият	2004
пайд	2005
котор	2006
салган	2007
алууга	2008
кум	2009
сул	2010
сез	2011
демок	2012
декабрда	2013
кайтар	2014
январда	2015
##даш	2016
бошот	2017
болгону	2018
башкарм	2019
башында	2020
##имов	2021
урук	2022
сам	2023
алат	2024
вла	2025
##кция	2026
##ээр	2027
жоопкер	2028
##кат	2029
##уулар	2030
элдин	2031
ду	2032
кү	2033
катышкан	2034
коркуну	2035
өлүм	2036
уулу	2037
##кин	2038
##аса	2039
бейт	2040
кетти	2041
мөөнөт	2042
кирген	2043
адм	2044
депутаттар	2045
##тык	2046
иштери	2047
кыргызстандык	2048
ый	2049
брит	2050
бю	2051
##дж	2052
ташт	2053
##мо	2054
белги	2055
##етр	2056
##илүү	2057
##ганы	2058
##укка	2059
##аттын	2060
##гөй	2061
ишмер	2062
тараб	2063
бүлө	2064
23	2065
басып	2066
##сүндө	2067
калы	2068
алка	2069
облусунун	2070
жазылган	2071
##ология	2072
2021	2073
себеп	2074
себеби	2075
##анас	2076
##үшт	2077
##ара	2078
гер	2079
##ттер	2080
##дум	2081
кала	2082
ий	2083
тай	2084
үст	2085
##димир	2086
##хан	2087
акыл	2088
катуу	2089
акч	2090
##емб	2091
түшкөн	2092
кызык	2093
талиб	2094
кайрылуу	2095
убак	2096
украинага	2097
владимир	2098
келин	2099
укукт	2100
ажыр	2101
жоопкерчил	2102
шайл	2103
облусунда	2104
белар	2105
28	2106
чүй	2107
2022	2108
маанилүү	2109
көй	2110
балдар	2111
жаза	2112
##рес	2113
армия	2114
co	2115
маселелер	2116
##ограмм	2117
21	2118
кызматынын	2119
кээ	2120
абдан	2121
көпчүл	2122
белгилен	2123
##кө	2124
##на	2125
##етин	2126
маалыматка	2127
жашоо	2128
##бол	2129
миңден	2130
жээнбеков	2131
кыск	2132
реж	2133
шайлоого	2134
аскерлер	2135
жиб	2136
##тур	2137
келе	2138
кошумчал	2139
бирим	2140
эрт	2141
ради	2142
курман	2143
имар	2144
27	2145
##ганын	2146
",-	2147
ту	2148
##түр	2149
каал	2150
##ологиялык	2151
кыргызстандагы	2152
кама	2153
##деген	2154
оппозиция	2155
башкармалы	2156
тала	2157
##баган	2158
##ого	2159
сунуш	2160
азаттыкка	2161
бү	2162
бейтап	2163
адист	2164
##индеги	2165
кетип	2166
пандемия	2167
ары	2168
чейинки	2169
##оону	2170
июлда	2171
менин	2172
казакстандын	2173
ык	2174
дарыл	2175
оору	2176
калып	2177
негизинде	2178
жарат	2179
адамдын	2180
##мон	2181
##итардык	2182
мит	2183
жети	2184
атамбаев	2185
##бөй	2186
сотко	2187
тран	2188
##че	2189
алкагында	2190
тоол	2191
инв	2192
уруксат	2193
##арий	2194
мурун	2195
##др	2196
##елген	2197
деңгээл	2198
адв	2199
көйгөй	2200
бизге	2201
илд	2202
##ард	2203
##тке	2204
интерн	2205
окуялар	2206
тиешелүү	2207
адвок	2208
##дердин	2209
пайыз	2210
26	2211
гр	2212
##фон	2213
50	2214
министрлер	2215
##аттуу	2216
өнөкт	2217
##ишти	2218
теле	2219
алгачкы	2220
рак	2221
инвест	2222
терр	2223
##ти	2224
##бейт	2225
орусияда	2226
дө	2227
##мөн	2228
##ах	2229
баштады	2230
өкмөттүн	2231
199	2232
нер	2233
дир	2234
макс	2235
төм	2236
орто	2237
эске	2238
төмөн	2239
ыкт	2240
##сул	2241
кызматта	2242
айтылат	2243
февралда	2244
##орун	2245
орусиялык	2246
тоо	2247
##өшт	2248
вак	2249
жерлер	2250
колдо	2251
ашыр	2252
кабарлады	2253
медициналык	2254
##аларын	2255
катышуу	2256
##vi	2257
сайын	2258
көрүн	2259
зом	2260
катчысы	2261
жеңил	2262
түркия	2263
мисалы	2264
муз	2265
камакка	2266
видео	2267
##үүчү	2268
##ымал	2269
жайгашкан	2270
##далган	2271
басым	2272
пайдалан	2273
зомбул	2274
өттү	2275
шек	2276
##есине	2277
жарыялаган	2278
##онун	2279
об	2280
гы	2281
##аттан	2282
жатып	2283
борбордук	2284
кеп	2285
кызматкерлери	2286
чыгыш	2287
бюдж	2288
##син	2289
##ыйж	2290
жашаган	2291
натыйж	2292
нерсе	2293
##өнү	2294
уюмунун	2295
көрүп	2296
уча	2297
жерге	2298
басыл	2299
операция	2300
бет	2301
инф	2302
демил	2303
аларга	2304
##чүлөр	2305
нааразылык	2306
##рд	2307
##рон	2308
ордун	2309
млрд	2310
коркунуч	2311
туш	2312
##абы	2313
эмгек	2314
мэр	2315
##газ	2316
митинг	2317
вакцин	2318
##иверс	2319
##орлор	2320
автоуна	2321
эреж	2322
базар	2323
зы	2324
четке	2325
арас	2326
өзгөрт	2327
демократ	2328
##сак	2329
кабин	2330
салып	2331
милдетт	2332
соту	2333
##иштүү	2334
күндө	2335
##дөгөн	2336
##ский	2337
белгисиз	2338
##суна	2339
2019	2340
эг	2341
##ош	2342
каражат	2343
лидер	2344
тир	2345
айл	2346
ишкана	2347
герман	2348
##ентарий	2349
арада	2350
депутаты	2351
чогул	2352
тарабынан	2353
универс	2354
сар	2355
катталган	2356
##лом	2357
кыйын	2358
элчил	2359
##өөлөр	2360
өткөрүп	2361
бак	2362
##актар	2363
республик	2364
комментарий	2365
парламент	2366
ачыл	2367
гүл	2368
өс	2369
аймагында	2370
баштап	2371
##ыштыр	2372
дээр	2373
##ья	2374
бы	2375
мунун	2376
арм	2377
тов	2378
трам	2379
жакт	2380
абд	2381
дип	2382
сүйлөшүүлөр	2383
ракет	2384
санкция	2385
мин	2386
чыга	2387
спорт	2388
түштүк	2389
диплом	2390
шарт	2391
##ону	2392
трамп	2393
мез	2394
дээрлик	2395
тууган	2396
улуу	2397
мезгил	2398
салык	2399
##аг	2400
башчы	2401
тармактар	2402
университ	2403
тери	2404
##сүз	2405
##алим	2406
тапкан	2407
директ	2408
жөнөт	2409
куу	2410
жактан	2411
коопсузду	2412
##алдуу	2413
жогору	2414
##алап	2415
парламенттик	2416
тон	2417
бишкектин	2418
киев	2419
##оонун	2420
миллиард	2421
##өрүн	2422
##vid	2423
кас	2424
##ылыш	2425
сында	2426
##алардын	2427
##өгө	2428
жазып	2429
аг	2430
##чулардын	2431
##деп	2432
жума	2433
чакырды	2434
кым	2435
##беген	2436
бирик	2437
бийлиг	2438
бл	2439
##еттин	2440
29	2441
кодекс	2442
соттун	2443
матери	2444
##сө	2445
кадам	2446
ичинен	2447
жыйынында	2448
##орду	2449
кесип	2450
##бө	2451
батыш	2452
##шу	2453
сыртк	2454
тажикстандын	2455
таг	2456
тург	2457
##арга	2458
куралдуу	2459
орусияга	2460
чыгарып	2461
##илер	2462
кытайдын	2463
жакында	2464
каранды	2465
жибер	2466
түрдө	2467
ислам	2468
сөө	2469
##ыгын	2470
##арым	2471
үл	2472
бой	2473
өнүг	2474
##үлдү	2475
кирип	2476
суроо	2477
##дерди	2478
түзүлгөн	2479
##ирим	2480
көбү	2481
кызматтан	2482
##емен	2483
кумтөр	2484
диний	2485
##on	2486
өнүктүрүү	2487
андай	2488
covid	2489
ны	2490
##ина	2491
бишкектеги	2492
түндүк	2493
##устун	2494
барак	2495
калтыр	2496
##пөй	2497
##ост	2498
##елен	2499
аян	2500
далил	2501
лидери	2502
##догу	2503
укугу	2504
ыраст	2505
##үүнүн	2506
баарын	2507
боло	2508
доо	2509
алы	2510
курулуш	2511
##шемб	2512
коюлган	2513
эп	2514
тилк	2515
##елери	2516
банк	2517
өтүн	2518
азатт	2519
тоб	2520
фран	2521
таң	2522
программ	2523
##бур	2524
билдирип	2525
бизде	2526
кармап	2527
кыйн	2528
учурлар	2529
##айым	2530
кошумчалады	2531
зыян	2532
кантип	2533
##ылганын	2534
курам	2535
телефон	2536
нарын	2537
фей	2538
бүгүнкү	2539
кошумча	2540
баян	2541
##есинин	2542
##дия	2543
шаарынын	2544
сту	2545
каражаттар	2546
##чулары	2547
##гүл	2548
тоолуу	2549
факт	2550
дарыгерлер	2551
маселеси	2552
ортосундагы	2553
##ланып	2554
нар	2555
##ерен	2556
##ебиз	2557
жетиш	2558
жолдо	2559
##укту	2560
мамиле	2561
вирус	2562
акы	2563
өлтүр	2564
наз	2565
##сунда	2566
радиос	2567
##сүнө	2568
##er	2569
сир	2570
иштет	2571
мүчөлөр	2572
турукт	2573
окш	2574
басылм	2575
##ид	2576
чыгарган	2577
no	2578
мүл	2579
кайрадан	2580
##алууда	2581
бийликтин	2582
##ларга	2583
##бү	2584
кымб	2585
##атор	2586
бажы	2587
чың	2588
сер	2589
туруп	2590
көргөн	2591
инстит	2592
40	2593
##биз	2594
##атив	2595
кылуу	2596
##арынын	2597
калат	2598
##пар	2599
сегиз	2600
мир	2601
##ея	2602
китеп	2603
тө	2604
алекс	2605
облустук	2606
жасаган	2607
жабырк	2608
коюп	2609
экономик	2610
##штир	2611
азаттыктын	2612
ни	2613
кызы	2614
##егер	2615
байден	2616
көпт	2617
эгемен	2618
мамлекеттин	2619
районунун	2620
баракч	2621
райондор	2622
##дыруу	2623
мал	2624
мамлекеттер	2625
алмаз	2626
мына	2627
##уктур	2628
болбойт	2629
сов	2630
акын	2631
##ибиз	2632
##дыгын	2633
орн	2634
аттуу	2635
##чалык	2636
мага	2637
бизн	2638
матра	2639
##орон	2640
өлкөдөгү	2641
жарыяланган	2642
ташиев	2643
##исттик	2644
белгилеп	2645
муг	2646
каттоо	2647
макулдаш	2648
чем	2649
жашыр	2650
товар	2651
айдоо	2652
метр	2653
башкаруу	2654
мугалим	2655
##ктык	2656
ишеним	2657
нун	2658
күндөрү	2659
ишкерлер	2660
##алоо	2661
уг	2662
султан	2663
тин	2664
үм	2665
үйлөр	2666
кырсы	2667
албетте	2668
көчө	2669
бөлүн	2670
чыр	2671
чара	2672
студен	2673
өч	2674
бшк	2675
31	2676
аск	2677
жарыялады	2678
админист	2679
##илет	2680
партиясынын	2681
апта	2682
ыктымал	2683
ирет	2684
чемпи	2685
адамдардын	2686
жалпысынан	2687
коронавируска	2688
##орма	2689
болгондор	2690
##лап	2691
##аң	2692
карж	2693
көлөм	2694
жылдар	2695
маалыматты	2696
##өөгө	2697
кадыр	2698
өкмөтү	2699
##дыктан	2700
кеңешинин	2701
канал	2702
долбоору	2703
режим	2704
##еге	2705
администрация	2706
бийликке	2707
ада	2708
##бия	2709
таян	2710
##ңиз	2711
##чусу	2712
шаарындагы	2713
сырткары	2714
өзбекстандын	2715
максатында	2716
##илип	2717
абалы	2718
аныкталган	2719
жам	2720
##едер	2721
##йр	2722
##олд	2723
кызматкери	2724
##мок	2725
##гындагы	2726
конституция	2727
##улат	2728
дүйш	2729
кылды	2730
аль	2731
##елип	2732
айынан	2733
карабай	2734
##акция	2735
мигранттар	2736
азер	2737
териштир	2738
энергет	2739
бут	2740
жарак	2741
токто	2742
зелен	2743
айтканда	2744
азербай	2745
##анов	2746
кишинин	2747
кана	2748
жуг	2749
##матов	2750
беренеси	2751
мыкты	2752
тапта	2753
багытт	2754
изилдөө	2755
ла	2756
алыш	2757
мед	2758
##штуу	2759
##еттик	2760
##дигин	2761
миңдей	2762
##жол	2763
турм	2764
##ыктан	2765
украинадагы	2766
сайт	2767
##луу	2768
##дөп	2769
коргон	2770
камчы	2771
көрсөткүч	2772
түшүп	2773
жакта	2774
##ma	2775
аякт	2776
манас	2777
ортосунда	2778
мүчөсү	2779
ишкер	2780
ишкан	2781
болуш	2782
##тти	2783
качан	2784
##атр	2785
жокко	2786
жылдагы	2787
эксперт	2788
##пей	2789
өзүнө	2790
##зия	2791
март	2792
телек	2793
чечими	2794
зеленский	2795
укуктар	2796
жаңж	2797
алганын	2798
аялдар	2799
кызыкчыл	2800
уур	2801
##укта	2802
тог	2803
эст	2804
##атып	2805
алм	2806
##ыла	2807
соорон	2808
түзгөн	2809
##сында	2810
##улду	2811
стан	2812
ката	2813
##ттан	2814
улант	2815
кызыл	2816
##дүүл	2817
козголгон	2818
салынган	2819
тегер	2820
түркмөн	2821
согушка	2822
коң	2823
##туп	2824
##уусу	2825
##аларга	2826
трансп	2827
##байт	2828
кодексинин	2829
##етке	2830
сүрөттүн	2831
бара	2832
бараткан	2833
уюму	2834
отурган	2835
##өйр	2836
аппар	2837
тартылган	2838
##иси	2839
##цион	2840
азербайжан	2841
бериш	2842
байланыш	2843
карантин	2844
мүнө	2845
ишти	2846
бою	2847
калк	2848
2023	2849
бөлүгү	2850
##елерди	2851
##ице	2852
мел	2853
үз	2854
берүүгө	2855
##игине	2856
##олду	2857
карма	2858
үчүнчү	2859
иим	2860
уюмдар	2861
##есинде	2862
##ева	2863
жеткен	2864
маалымдады	2865
кесеп	2866
вице	2867
ген	2868
чук	2869
тарткан	2870
жетект	2871
уна	2872
белгилеген	2873
калганын	2874
мус	2875
келеч	2876
албайт	2877
түл	2878
##ад	2879
##көм	2880
киреш	2881
##олуп	2882
комитетинин	2883
бийликти	2884
кабарлаган	2885
олим	2886
##юз	2887
##ектен	2888
жайлар	2889
жарандар	2890
ошент	2891
##уман	2892
саясатчы	2893
##асп	2894
өлкөгө	2895
шайлоодо	2896
кызматташт	2897
##өрдү	2898
эсеб	2899
энергия	2900
фейс	2901
##алышы	2902
##ини	2903
курч	2904
кармалып	2905
сокку	2906
##өөл	2907
##атын	2908
кезект	2909
болбой	2910
маданият	2911
материал	2912
экс	2913
суроолор	2914
##анды	2915
##обирим	2916
евробирим	2917
##оочу	2918
жараны	2919
көпчүлүк	2920
болорун	2921
аты	2922
##аниянын	2923
көк	2924
тынчтык	2925
проц	2926
##ti	2927
##илди	2928
казакстанда	2929
##уучулар	2930
кабылган	2931
мигрантт	2932
убакыт	2933
бирг	2934
##ушту	2935
маалда	2936
жылды	2937
рос	2938
##тал	2939
бирин	2940
стат	2941
инвестиция	2942
парламенттин	2943
аст	2944
##истан	2945
##есс	2946
чукул	2947
сапар	2948
элге	2949
жүрүш	2950
ыйг	2951
өкүм	2952
##мит	2953
##иф	2954
##оло	2955
прокуратура	2956
кабинетинин	2957
пак	2958
конституциялык	2959
##екция	2960
жабыркаган	2961
корея	2962
сомго	2963
убада	2964
демилг	2965
деги	2966
жылда	2967
талас	2968
чогуу	2969
белгиленген	2970
команда	2971
буйр	2972
аэр	2973
өнөр	2974
буу	2975
түй	2976
жараат	2977
ордуна	2978
соттук	2979
мектепт	2980
таза	2981
койду	2982
ына	2983
60	2984
жаман	2985
##ью	2986
долбоорун	2987
##сиянын	2988
тартип	2989
октябрь	2990
айтылып	2991
ошондо	2992
кайрылган	2993
сүрөт	2994
карш	2995
турак	2996
сен	2997
##иза	2998
салыштыр	2999
##ков	3000
эгерде	3001
жасап	3002
пен	3003
ойн	3004
мекеменин	3005
фр	3006
тогуз	3007
##сек	3008
суд	3009
##арына	3010
##атыр	3011
заман	3012
айта	3013
мени	3014
тарта	3015
өтөт	3016
топтор	3017
телекан	3018
##ушкан	3019
##хам	3020
тилек	3021
##андын	3022
сентябр	3023
карыз	3024
күчөт	3025
##өткө	3026
күм	3027
##даган	3028
бекем	3029
туруктуу	3030
мыйзамга	3031
##гынан	3032
##ант	3033
##үндөгү	3034
2018	3035
акылбек	3036
тен	3037
##үлөт	3038
кыргызстандыктар	3039
жерден	3040
##угун	3041
борбору	3042
кескин	3043
жаңжал	3044
##ема	3045
##ияга	3046
##аламан	3047
корго	3048
сомдон	3049
аракети	3050
мон	3051
жашап	3052
##шти	3053
алынып	3054
маселени	3055
жетти	3056
жылдык	3057
өкүлдөр	3058
талкуул	3059
эсептейт	3060
##гып	3061
жалгыз	3062
##мин	3063
##аков	3064
араб	3065
экөө	3066
##өөк	3067
керектигин	3068
барат	3069
аман	3070
ме	3071
ооруканага	3072
башаламан	3073
иштерин	3074
директору	3075
отурум	3076
финан	3077
жакка	3078
нерс	3079
насы	3080
##уулук	3081
америкалык	3082
фут	3083
сум	3084
##ми	3085
экономика	3086
бөгө	3087
билдиргендей	3088
жыйынтыгы	3089
чарба	3090
жүк	3091
киргизилген	3092
ондогон	3093
башкармалыгынын	3094
##ъект	3095
тараткан	3096
күйөө	3097
гө	3098
документ	3099
тамак	3100
чөйр	3101
80	3102
зав	3103
##иктер	3104
##рый	3105
түркиянын	3106
мекемелер	3107
жолдор	3108
штаб	3109
##ордун	3110
##аша	3111
маж	3112
тажрый	3113
алынды	3114
##ларын	3115
каттам	3116
активисттер	3117
ке	3118
##амат	3119
ша	3120
##чар	3121
жаштар	3122
түрмө	3123
федер	3124
күнөөл	3125
сөздөр	3126
бириккен	3127
көптөгөн	3128
дей	3129
көрсөткөн	3130
футбол	3131
көмүр	3132
##ылышы	3133
анал	3134
##баева	3135
70	3136
арга	3137
маалыматта	3138
туул	3139
жарандары	3140
судья	3141
турганы	3142
##ткөн	3143
акый	3144
чакырым	3145
ноябр	3146
кин	3147
##бөл	3148
таап	3149
айтылды	3150
алмазбек	3151
манд	3152
таз	3153
чемпион	3154
балдардын	3155
жаан	3156
бизди	3157
жапаровдун	3158
матраимов	3159
500	3160
##исттер	3161
токтом	3162
армен	3163
ээл	3164
калыб	3165
##эб	3166
##раф	3167
тобу	3168
аябай	3169
##уд	3170
миңдеген	3171
коррупцияга	3172
##ири	3173
баасы	3174
эртең	3175
##шке	3176
кошт	3177
жасалган	3178
талаш	3179
жасал	3180
клас	3181
мектептер	3182
##анып	3183
кеминде	3184
агенттиги	3185
жүрөт	3186
шайлоонун	3187
зал	3188
арасындагы	3189
##ный	3190
азык	3191
буунун	3192
##аганын	3193
мер	3194
атындагы	3195
түнү	3196
күнгө	3197
адистер	3198
калыбына	3199
чал	3200
беларус	3201
##анган	3202
##жин	3203
каралган	3204
жапон	3205
##па	3206
тааны	3207
кайтып	3208
бирге	3209
дароо	3210
груз	3211
институт	3212
олимпи	3213
##es	3214
соол	3215
түзөт	3216
айда	3217
##уттуу	3218
демек	3219
британия	3220
##салык	3221
##уккан	3222
ишине	3223
начар	3224
шам	3225
##дырып	3226
шектүү	3227
кайрылып	3228
укуктары	3229
жем	3230
болбосо	3231
##ышка	3232
азай	3233
криз	3234
тийгиз	3235
жагынан	3236
сел	3237
адамга	3238
##штыруу	3239
караба	3240
башынан	3241
крем	3242
өзүм	3243
кабарланды	3244
тараптуу	3245
медиа	3246
...-	3247
кызматташ	3248
##игинин	3249
кемп	3250
баа	3251
##кум	3252
кагыл	3253
чектөө	3254
гуман	3255
тут	3256
аткаруу	3257
миграция	3258
камсыздоо	3259
мүмкүнчүлүк	3260
пакистан	3261
##пер	3262
##ткен	3263
чыгым	3264
коюу	3265
көрсөтүп	3266
мекеме	3267
түп	3268
##ңыз	3269
кармалды	3270
жүргүзүп	3271
камчыбек	3272
насыя	3273
бирөө	3274
тоск	3275
##икке	3276
##аак	3277
улуттар	3278
комитети	3279
мей	3280
ник	3281
ыбыз	3282
алганы	3283
куугун	3284
союз	3285
нааразы	3286
35	3287
чыгаруу	3288
франция	3289
республикалык	3290
күндөн	3291
##аттарды	3292
жумш	3293
нав	3294
ошт	3295
сооронбай	3296
билдирүүдө	3297
инин	3298
эсеп	3299
өтүнүч	3300
берүүнү	3301
министринин	3302
2017	3303
##те	3304
кремл	3305
укугун	3306
компаниясы	3307
аэроп	3308
кемпир	3309
пасп	3310
түзүп	3311
олуттуу	3312
ака	3313
тиешеси	3314
мунай	3315
алматы	3316
##атында	3317
кайрыл	3318
##уктун	3319
##ашкан	3320
аскерлери	3321
300	3322
сыз	3323
комитет	3324
##үштү	3325
бизнес	3326
катышты	3327
көбүр	3328
өлкөлөрдүн	3329
мүнөз	3330
эмнеге	3331
##ро	3332
куруу	3333
башкача	3334
лук	3335
чу	3336
чаралар	3337
жолугушуу	3338
куугунт	3339
мыйзамдуу	3340
колдонуу	3341
хан	3342
##ектер	3343
илимий	3344
тес	3345
айдан	3346
шартт	3347
өзгөртүү	3348
күчтөрү	3349
шаарлар	3350
өлкөдөн	3351
бүз	3352
##евдин	3353
жатканда	3354
түзүү	3355
ажырат	3356
##мек	3357
өткөрүү	3358
табылган	3359
##сс	3360
коё	3361
булактар	3362
уюмдун	3363
атаанда	3364
көмө	3365
иде	3366
лык	3367
##сер	3368
##ондук	3369
өздөр	3370
позиция	3371
##сам	3372
##стыкт	3373
мамлекетке	3374
тагдыр	3375
тоскоол	3376
үйр	3377
текшерүү	3378
##бан	3379
##оро	3380
жогот	3381
партиянын	3382
укмкнын	3383
тик	3384
##мушт	3385
атып	3386
жакындары	3387
театр	3388
90	3389
##есе	3390
аймактык	3391
кеткенин	3392
чач	3393
##атка	3394
ошондон	3395
акаев	3396
маркум	3397
мукта	3398
сына	3399
күз	3400
##ырт	3401
##шен	3402
муктаж	3403
##бар	3404
жоокер	3405
көрсөтүлгөн	3406
карандысыз	3407
пикирин	3408
террор	3409
##ойт	3410
соз	3411
берилди	3412
канчалык	3413
дегенде	3414
караштуу	3415
киргизүү	3416
катышып	3417
дайым	3418
##tion	3419
##дешт	3420
арн	3421
сактап	3422
##дур	3423
айга	3424
ави	3425
окуп	3426
страт	3427
объект	3428
##улман	3429
толугу	3430
лардын	3431
юр	3432
майрам	3433
2010	3434
мүчөлөрү	3435
мусулман	3436
".	3437
кылым	3438
түшүр	3439
укуктук	3440
айлан	3441
##сыздан	3442
маселесин	3443
гуманитардык	3444
ум	3445
##бет	3446
##ша	3447
##лайн	3448
ошентип	3449
##яны	3450
облусундагы	3451
##өөнү	3452
сынга	3453
##масы	3454
##бөгөн	3455
##алай	3456
##еттер	3457
тартуу	3458
маалыматтарды	3459
органдары	3460
ваш	3461
##акты	3462
##богон	3463
колдогон	3464
жалган	3465
салды	3466
стратег	3467
кил	3468
рах	3469
дипломат	3470
##изация	3471
айр	3472
##еттен	3473
##ыктуу	3474
издөө	3475
айлык	3476
чыгуу	3477
дүйшөм	3478
билген	3479
дрон	3480
сак	3481
тараптан	3482
##ингтон	3483
аймактарда	3484
ооз	3485
деңиз	3486
телеканал	3487
##устан	3488
өтпөй	3489
каражаттары	3490
миңге	3491
##өттү	3492
сүйлөшүү	3493
вашингтон	3494
ым	3495
##al	3496
##абай	3497
корку	3498
адамды	3499
жаңыл	3500
##сих	3501
негизинен	3502
айылында	3503
техникалык	3504
##чам	3505
##иясы	3506
бербей	3507
сана	3508
##гым	3509
мөөнөтү	3510
##шембиде	3511
көбүрөөк	3512
арх	3513
тр	3514
##ыс	3515
болжол	3516
маалыматы	3517
аң	3518
##чынын	3519
баки	3520
жакшыр	3521
партиясы	3522
түрдүү	3523
бойдон	3524
каржыл	3525
акыйкат	3526
наваль	3527
камалган	3528
чечимин	3529
болууда	3530
фил	3531
талапкерлер	3532
##ула	3533
##en	3534
##in	3535
чыгарма	3536
долбоорлор	3537
##кулов	3538
##ырып	3539
кийим	3540
##мун	3541
##ышына	3542
онлайн	3543
жокт	3544
##ста	3545
маегинде	3546
жетекчи	3547
арз	3548
аким	3549
бую	3550
өзүнчө	3551
армиясы	3552
псих	3553
өң	3554
орусиядагы	3555
чектөөлөр	3556
дост	3557
ыкчам	3558
тургуну	3559
##рад	3560
кызматка	3561
##дерге	3562
бөгөт	3563
##ура	3564
жыйында	3565
##өөнүн	3566
жакынкы	3567
түркмөнстан	3568
талибан	3569
##кап	3570
##ылууда	3571
машин	3572
террордук	3573
тас	3574
өзүбүз	3575
анк	3576
кандайдыр	3577
штаттар	3578
сыйл	3579
таянып	3580
вал	3581
кошо	3582
2016	3583
убагында	3584
тийиштүү	3585
тарыхый	3586
окумушт	3587
апрель	3588
кылмыштуу	3589
болмок	3590
кылат	3591
##чылары	3592
келгенин	3593
оорукан	3594
демократиялык	3595
##ңк	3596
##чиден	3597
районунда	3598
орнот	3599
навальный	3600
түшүндүрмө	3601
тонна	3602
##ме	3603
##ap	3604
милдетин	3605
алышкан	3606
##ээк	3607
кыс	3608
кошмо	3609
##үктү	3610
жуктур	3611
ларды	3612
##лук	3613
иштей	3614
энергетика	3615
статист	3616
##дет	3617
качып	3618
жиги	3619
токаев	3620
республикасынын	3621
##итт	3622
болгондуктан	3623
салым	3624
сөөгү	3625
фор	3626
тастыкт	3627
менч	3628
айыр	3629
##дигине	3630
касым	3631
үгү	3632
##сан	3633
атат	3634
атыш	3635
айтууда	3636
этн	3637
аргасыз	3638
")	3639
ам	3640
гект	3641
жүй	3642
жаны	3643
##штары	3644
калса	3645
абакта	3646
өртт	3647
мыр	3648
тат	3649
маалында	3650
массалык	3651
негизде	3652
конц	3653
##лав	3654
##сүнүн	3655
##айы	3656
##кор	3657
##гыр	3658
ушу	3659
блог	3660
пул	3661
мыйзамдын	3662
көрсөтүү	3663
##бой	3664
аф	3665
##енко	3666
адамдарды	3667
берилет	3668
нин	3669
коңшу	3670
фракция	3671
##ари	3672
баалуу	3673
кагаз	3674
##обил	3675
эпиде	3676
назар	3677
("	3678
экстр	3679
жараткан	3680
кетет	3681
эркинен	3682
##ктары	3683
өрт	3684
жасалма	3685
ос	3686
кабарланган	3687
чакырган	3688
убакы	3689
деңгээлде	3690
калуу	3691
##атынын	3692
өнүгүү	3693
##окт	3694
ресур	3695
проф	3696
жүрө	3697
алдынча	3698
тийиш	3699
зомбулук	3700
##ыч	3701
талдоо	3702
көтөрүп	3703
автор	3704
гез	3705
коргоочу	3706
анализ	3707
кич	3708
##өлгөн	3709
баракчасына	3710
үмүт	3711
нан	3712
карак	3713
мыйзамды	3714
тарапта	3715
ойлой	3716
##ель	3717
айтыш	3718
министрлик	3719
жайы	3720
аткыл	3721
себепт	3722
мажбур	3723
башы	3724
тарбия	3725
учак	3726
##баевдин	3727
аракеттер	3728
##ерендум	3729
бары	3730
##цен	3731
##алда	3732
##үктөр	3733
),	3734
балдары	3735
ошону	3736
төрагасынын	3737
##ативдик	3738
элди	3739
жарандардын	3740
референдум	3741
кооптуу	3742
чакан	3743
фонд	3744
айтк	3745
аймакта	3746
июнь	3747
сезим	3748
форм	3749
билбей	3750
төлөм	3751
тынчсыздан	3752
өнөктөшт	3753
экстрем	3754
ну	3755
кылын	3756
салма	3757
башталды	3758
компаниясынын	3759
колдоп	3760
33	3761
эш	3762
үр	3763
##an	3764
орусиядан	3765
жапырт	3766
аягына	3767
түзүм	3768
балк	3769
чыгат	3770
кудай	3771
сол	3772
тун	3773
##ентке	3774
жокп	3775
алмаш	3776
ирандын	3777
жугуз	3778
тос	3779
эскертти	3780
фейсбу	3781
келат	3782
терең	3783
сек	3784
жараша	3785
маалымдаган	3786
өздөрү	3787
олимпиада	3788
хам	3789
##ңар	3790
##амир	3791
дүйшөмбү	3792
күчтүү	3793
кырдаалдар	3794
атасы	3795
тутк	3796
##ех	3797
кызматтар	3798
рез	3799
көргө	3800
республика	3801
улут	3802
калганы	3803
жандан	3804
фондун	3805
тест	3806
жөнгө	3807
2015	3808
кароо	3809
кут	3810
##амин	3811
бузуу	3812
ер	3813
коммер	3814
кыйла	3815
багыт	3816
##артам	3817
кеңири	3818
жабык	3819
аныкталды	3820
##агн	3821
##пайт	3822
##ерн	3823
##үгүнө	3824
келгенде	3825
өмүрүн	3826
александ	3827
ташк	3828
##тация	3829
##малуу	3830
таандык	3831
чогулган	3832
рол	3833
##омол	3834
кыя	3835
эсе	3836
коргонуу	3837
##ткар	3838
туулган	3839
пал	3840
##тр	3841
##ылт	3842
##тту	3843
ине	3844
транспорт	3845
келаткан	3846
##хм	3847
##гандар	3848
##асыз	3849
көрө	3850
жама	3851
бийик	3852
конф	3853
кетир	3854
макам	3855
толк	3856
дүйнөдө	3857
курултай	3858
##mag	3859
imag	3860
бээ	3861
##иж	3862
энелер	3863
аймактарында	3864
газа	3865
түлүк	3866
балким	3867
бирине	3868
##ешет	3869
комитеттин	3870
министрликт	3871
төлөп	3872
ыл	3873
камт	3874
32	3875
##буз	3876
максаты	3877
св	3878
##еев	3879
чакырып	3880
облустарынын	3881
система	3882
станция	3883
александр	3884
кетүү	3885
аймагына	3886
эне	3887
эксперттер	3888
көйгөйлөр	3889
районундагы	3890
куткар	3891
маданий	3892
бөлүмүнүн	3893
аянт	3894
жумушчу	3895
израилдин	3896
дер	3897
жыйынт	3898
топтун	3899
реформ	3900
укуктарын	3901
дү	3902
##гуу	3903
өлкөлүк	3904
окр	3905
оорул	3906
электрондук	3907
күтүп	3908
кыска	3909
багытталган	3910
болбогон	3911
интернет	3912
өлч	3913
тартиб	3914
##үүлөрдү	3915
токтотуу	3916
кишиге	3917
көбүн	3918
чагыл	3919
аралаш	3920
жел	3921
##тым	3922
##олю	3923
##аларда	3924
пикирлер	3925
пл	3926
##ну	3927
айынын	3928
технология	3929
алак	3930
кетүүгө	3931
##дикке	3932
прокурор	3933
медицина	3934
камакта	3935
##жо	3936
кыргызстандан	3937
##ктыяр	3938
чалгын	3939
кызматына	3940
долларга	3941
##үшкөн	3942
өзөкт	3943
##икти	3944
көргөз	3945
эмдөө	3946
чыгарм	3947
##рессия	3948
кымбат	3949
департам	3950
кармалганын	3951
серг	3952
##ыгына	3953
жарык	3954
жүргүзгөн	3955
каалаган	3956
тасм	3957
сурап	3958
##убуз	3959
администр	3960
салыштырмалуу	3961
##лу	3962
өлгөн	3963
батир	3964
##иядагы	3965
жубай	3966
жи	3967
##ашты	3968
кетиш	3969
сотунун	3970
сүйлө	3971
паспорт	3972
менчик	3973
36	3974
##кана	3975
##икация	3976
жетиштүү	3977
качкын	3978
вакцина	3979
дөн	3980
ман	3981
ыктыяр	3982
ңыз	3983
##ник	3984
каралып	3985
бүтүн	3986
ыйгарым	3987
##ткон	3988
бекит	3989
отуруп	3990
молд	3991
##фт	3992
коммун	3993
кездеги	3994
өсп	3995
##шат	3996
демон	3997
клим	3998
хар	3999
борборунун	4000
айрымдары	4001
көрүнүш	4002
##ец	4003
##улуш	4004
иштейт	4005
калышы	4006
кырдаалды	4007
чөл	4008
бирдикт	4009
той	4010
таасирин	4011
бетт	4012
дүк	4013
мобил	4014
##чилик	4015
##ска	4016
жеңиш	4017
москвада	4018
тасма	4019
демонст	4020
болоб	4021
барды	4022
##аганы	4023
алганда	4024
чен	4025
жатканына	4026
##доган	4027
жүзүндө	4028
жыйынтыгында	4029
эрдоган	4030
коронавирустун	4031
аялдардын	4032
путиндин	4033
инфекция	4034
наб	4035
ант	4036
прот	4037
аптада	4038
00	4039
лөр	4040
##пон	4041
жумушт	4042
мирз	4043
аткан	4044
дардын	4045
дүйнөдөгү	4046
сиң	4047
байкоо	4048
кысым	4049
суз	4050
##ut	4051
консул	4052
##лов	4053
##дарында	4054
абалда	4055
билдирүүсүндө	4056
үгүт	4057
##зин	4058
уланып	4059
45	4060
вен	4061
жүкт	4062
жаап	4063
каржы	4064
тармактарда	4065
көлөмү	4066
##шкон	4067
машы	4068
инд	4069
өлчөм	4070
кв	4071
не	4072
инт	4073
түзүл	4074
узак	4075
##далды	4076
##үшүнө	4077
баса	4078
чыгарды	4079
макал	4080
##бас	4081
##егин	4082
##елерин	4083
маселен	4084
тургундар	4085
чөйрө	4086
чалдык	4087
ороз	4088
колго	4089
өзөктүк	4090
сей	4091
##дат	4092
##улов	4093
тагы	4094
айтышты	4095
айыптап	4096
ашты	4097
чол	4098
##зат	4099
2014	4100
автоунаа	4101
өчүр	4102
кишини	4103
##чилер	4104
эв	4105
маалыматтарга	4106
процес	4107
башаламандык	4108
административдик	4109
сып	4110
##дырган	4111
реп	4112
үйдө	4113
кайтарып	4114
саммит	4115
илдет	4116
гэ	4117
палат	4118
##алаган	4119
деш	4120
элем	4121
кадр	4122
бакы	4123
көрүү	4124
убакта	4125
компаниялар	4126
катаал	4127
бардыгы	4128
төг	4129
##ейл	4130
реда	4131
саясатчылар	4132
январь	4133
териштирүү	4134
тим	4135
##дору	4136
алектен	4137
күнөө	4138
украинада	4139
комиссиянын	4140
өмүрү	4141
ашкан	4142
алууну	4143
тарат	4144
##ктарды	4145
##диктин	4146
лагер	4147
финансы	4148
##үрүм	4149
билдиришти	4150
абанын	4151
кечээ	4152
өспүрүм	4153
чалдыккан	4154
жон	4155
##атбек	4156
##раз	4157
##усту	4158
аткамин	4159
сотто	4160
##пайбы	4161
лукаш	4162
гектар	4163
рын	4164
факты	4165
артка	4166
ачылган	4167
дүйнөнүн	4168
партиялар	4169
иб	4170
карабастан	4171
как	4172
##at	4173
карай	4174
катталды	4175
өткөргөн	4176
уюштуруу	4177
кызматташтык	4178
фейсбуктагы	4179
курган	4180
жарыяланды	4181
ысым	4182
өнүктүр	4183
милдеттүү	4184
арналган	4185
дос	4186
##ar	4187
##ылар	4188
сөзсүз	4189
эски	4190
каршылык	4191
завод	4192
бирдиктүү	4193
тор	4194
комплек	4195
парламентте	4196
университетинин	4197
##би	4198
##манов	4199
бүлөлүк	4200
##али	4201
##шкө	4202
тилекке	4203
сергей	4204
cap	4205
##ити	4206
коррупциялык	4207
син	4208
суракка	4209
мисал	4210
дайындалган	4211
таштап	4212
мурунку	4213
тажрыйб	4214
департамент	4215
##кту	4216
##ышын	4217
азайт	4218
##үгүр	4219
ойлон	4220
музык	4221
музей	4222
жаракат	4223
баласы	4224
балдарды	4225
байланышкан	4226
милдеттен	4227
туткун	4228
өзүң	4229
крим	4230
коопсуздугун	4231
айым	4232
жатышкан	4233
ошого	4234
кийлиги	4235
имп	4236
##аж	4237
##кон	4238
##ыкча	4239
кандуу	4240
келишет	4241
поль	4242
сутк	4243
мэ	4244
кишилер	4245
негизи	4246
аныктоо	4247
милициянын	4248
күбө	4249
алыс	4250
##чо	4251
##улла	4252
##ушат	4253
жетекчилери	4254
##ттын	4255
##ышып	4256
тескери	4257
##кыр	4258
##еме	4259
экспортт	4260
акчаны	4261
##шкер	4262
көрүүгө	4263
##угуна	4264
чыгарылган	4265
айрыкча	4266
image	4267
чөлкөм	4268
моюн	4269
москванын	4270
федерация	4271
caption	4272
алышы	4273
кооптон	4274
кызматтын	4275
киргизген	4276
талкууга	4277
табылды	4278
жетекчилиги	4279
##газиев	4280
##олюция	4281
##олор	4282
берб	4283
чыгышты	4284
чараларды	4285
набыт	4286
400	4287
##арип	4288
дый	4289
##еттүү	4290
бөлүп	4291
крым	4292
##сык	4293
жылкы	4294
198	4295
теке	4296
коомчулукта	4297
реформа	4298
райондорунда	4299
пост	4300
сары	4301
иштеш	4302
көрүнү	4303
издеп	4304
саналат	4305
##естин	4306
автоб	4307
аткаруучу	4308
ne	4309
чечил	4310
тапты	4311
облустар	4312
атамбаевдин	4313
чолпон	4314
дыйкан	4315
шартта	4316
жараян	4317
артык	4318
коомчулук	4319
мүмкүнчүлүгү	4320
##альд	4321
камагына	4322
калктын	4323
үйүнө	4324
2024	4325
уюмдардын	4326
дипломатиялык	4327
ойлойм	4328
итал	4329
көн	4330
##лору	4331
##далып	4332
америк	4333
үлгү	4334
аскар	4335
##тө	4336
айлар	4337
биринде	4338
көм	4339
райым	4340
бакыт	4341
нам	4342
аягында	4343
аймактагы	4344
шаары	4345
жк	4346
али	4347
##ели	4348
терс	4349
кылмышка	4350
облусу	4351
көбөйгөн	4352
ки	4353
порт	4354
колдонуп	4355
алексей	4356
күнөөлүү	4357
уй	4358
шв	4359
кишил	4360
стам	4361
автордук	4362
өлкөлөрү	4363
жатам	4364
атап	4365
лидерлер	4366
бээжин	4367
##ограф	4368
ынан	4369
комиссиясынын	4370
тобунун	4371
##олоң	4372
дүкөн	4373
ибра	4374
рубл	4375
өндүрүш	4376
##шан	4377
##ыкта	4378
адилет	4379
##бекова	4380
атал	4381
саясаты	4382
жоопко	4383
арадагы	4384
темпер	4385
германия	4386
болгондордун	4387
учуп	4388
##иктин	4389
талапт	4390
кечинде	4391
температур	4392
жуу	4393
уу	4394
ачып	4395
жүздөгөн	4396
келтирген	4397
күрөшүү	4398
34	4399
##синин	4400
алабыз	4401
анг	4402
сүйлөп	4403
клин	4404
таасири	4405
адвокат	4406
россия	4407
жери	4408
##ыктарды	4409
тараптар	4410
##бург	4411
округ	4412
##мөт	4413
##көн	4414
толтур	4415
сүйлөшүп	4416
ырааз	4417
санарип	4418
соттолгон	4419
по	4420
танда	4421
##ида	4422
##ыны	4423
өзбекстанда	4424
ресурст	4425
мирзи	4426
ооруканада	4427
айыпта	4428
акшда	4429
бейшен	4430
тандоо	4431
келсе	4432
алмаштыр	4433
адаб	4434
келтирүү	4435
стратегиялык	4436
##чулук	4437
##иктир	4438
кезек	4439
төлөн	4440
күчтөрүнүн	4441
биргел	4442
##гүн	4443
##ылап	4444
жазуу	4445
түркияда	4446
өмүрбек	4447
кышт	4448
муун	4449
мамлекеттердин	4450
башталгандан	4451
ишмердүүл	4452
дор	4453
өск	4454
коомдун	4455
мигранттардын	4456
##чер	4457
карама	4458
кете	4459
учурдагы	4460
депутаттык	4461
министрлигине	4462
ыңг	4463
мадум	4464
кагып	4465
алдындагы	4466
тургундары	4467
жашыруун	4468
академия	4469
мадумаров	4470
ом	4471
##стын	4472
быйылкы	4473
чыныгы	4474
башкармалыгы	4475
?"	4476
ачкан	4477
адил	4478
өлкөлөрдө	4479
телег	4480
##шемби	4481
рей	4482
ут	4483
президентке	4484
шаардын	4485
майдан	4486
меч	4487
келбейт	4488
аймагындагы	4489
жыйынтык	4490
жашка	4491
батышт	4492
тв	4493
##ха	4494
пара	4495
ээси	4496
эркиндиги	4497
журналисттерге	4498
шак	4499
##тен	4500
үйдүн	4501
##өкөй	4502
дональд	4503
кыскар	4504
айланас	4505
жетектеген	4506
град	4507
мор	4508
баск	4509
келбей	4510
турду	4511
айылынын	4512
кеткени	4513
күрөшт	4514
осмон	4515
кырсык	4516
еа	4517
жом	4518
##шту	4519
дастан	4520
айтуу	4521
##аныч	4522
өкмөтүнүн	4523
өлүмү	4524
отч	4525
органдар	4526
доор	4527
##үнчү	4528
кос	4529
маң	4530
пров	4531
жөнөкөй	4532
жарыялап	4533
айтат	4534
адамдан	4535
жазык	4536
шаарына	4537
кеңс	4538
катталып	4539
сапары	4540
айыпталып	4541
банктар	4542
кымбатт	4543
in	4544
##деш	4545
камер	4546
санитардык	4547
##аланган	4548
асан	4549
##ешкен	4550
сактагы	4551
журт	4552
коргоочулар	4553
адвокаты	4554
кезекте	4555
форум	4556
жүйө	4557
болобу	4558
жуккан	4559
тыр	4560
##ашы	4561
азиядагы	4562
салууга	4563
стамбул	4564
!"	4565
жакыр	4566
өкмөттүк	4567
келатат	4568
хамас	4569
ыңгай	4570
прин	4571
коронавирустан	4572
ынтым	4573
окшойт	4574
ру	4575
алышат	4576
кыргыздар	4577
мыйзамда	4578
байланышы	4579
жүргүзүү	4580
эскерт	4581
мүлкт	4582
зап	4583
ооруп	4584
москвага	4585
арасынан	4586
кийлигиш	4587
дык	4588
##елди	4589
чыгууга	4590
шайланган	4591
өсүп	4592
##иттер	4593
алса	4594
берсе	4595
градус	4596
еаэб	4597
делген	4598
жүгүр	4599
##исти	4600
карапайым	4601
аяктаган	4602
бакиев	4603
телеграм	4604
##макка	4605
##үккө	4606
окуяс	4607
##елешкен	4608
саналып	4609
тараптын	4610
журналисттердин	4611
ста	4612
шер	4613
##тып	4614
иштеб	4615
кошул	4616
ийгил	4617
демилге	4618
сыпатт	4619
гл	4620
чат	4621
##эн	4622
##стин	4623
кылууга	4624
берилип	4625
нааразыл	4626
чам	4627
баланын	4628
келиши	4629
көзөмөлдөө	4630
ачыкка	4631
оңой	4632
бийлигинин	4633
дөгү	4634
биргелешкен	4635
элчиси	4636
булар	4637
атаган	4638
кетиши	4639
күчөп	4640
реги	4641
алдына	4642
37	4643
тейл	4644
##оодо	4645
капт	4646
турмуш	4647
зорду	4648
ссс	4649
##ылбай	4650
##ындап	4651
бишкекке	4652
албаган	4653
канааттан	4654
проток	4655
мирзиё	4656
ссср	4657
##дүм	4658
келишкен	4659
сырттан	4660
жыйынтыкт	4661
алышты	4662
жерди	4663
##ебин	4664
көрсөтмө	4665
##елет	4666
жанында	4667
150	4668
органдарынын	4669
капит	4670
көпчүлүгү	4671
доом	4672
кары	4673
##уусун	4674
жетпей	4675
иштерди	4676
түштү	4677
##дем	4678
аралы	4679
##имче	4680
айтышкан	4681
жашыл	4682
жарандарды	4683
энеси	4684
##ыгып	4685
ракета	4686
кезектеги	4687
##үтт	4688
##унду	4689
андыктан	4690
талибдер	4691
принц	4692
##ra	4693
кирет	4694
мой	4695
күмөн	4696
нов	4697
##гар	4698
##паган	4699
##гация	4700
бериши	4701
бож	4702
иштин	4703
чыкпай	4704
болбосун	4705
келишимге	4706
кепил	4707
38	4708
##ңкы	4709
##ияз	4710
жетишкен	4711
чыгышкан	4712
алдыга	4713
эрте	4714
рус	4715
##ля	4716
козго	4717
британ	4718
британиянын	4719
валю	4720
мырза	4721
лер	4722
##ван	4723
##унов	4724
алам	4725
лицен	4726
тактап	4727
америка	4728
беткап	4729
жугузуп	4730
мэри	4731
зордукт	4732
комиссиясы	4733
мухам	4734
сындап	4735
чачын	4736
кайрылды	4737
вагн	4738
ган	4739
лаб	4740
абалды	4741
аракеттен	4742
маселелерди	4743
түйүн	4744
пра	4745
##абек	4746
окуяга	4747
аракетин	4748
такыр	4749
ыкм	4750
басымдуу	4751
туугандары	4752
ою	4753
юри	4754
баб	4755
айланып	4756
булагы	4757
##дигинин	4758
күб	4759
себептер	4760
демократия	4761
аэропорт	4762
сүз	4763
##гак	4764
##үлүүдө	4765
##үгүндө	4766
талаптар	4767
саналган	4768
өрөөн	4769
жетекчилер	4770
фонду	4771
системасы	4772
басылмасы	4773
дайыма	4774
юридик	4775
жетип	4776
укуктуу	4777
##аланып	4778
токой	4779
ырастады	4780
эсебинде	4781
75	4782
##or	4783
көзү	4784
багытта	4785
фер	4786
чагы	4787
##гуна	4788
##чунун	4789
##атына	4790
алым	4791
##чылыгы	4792
уюшкан	4793
ташып	4794
ыраазы	4795
эф	4796
кадим	4797
жолун	4798
банктын	4799
согушту	4800
кесипт	4801
адамдарга	4802
##чылардын	4803
##өшү	4804
кеңеште	4805
пайдалануу	4806
жиберген	4807
советтик	4808
##бап	4809
дарды	4810
керектүү	4811
машине	4812
калаа	4813
голд	4814
теги	4815
тата	4816
келүү	4817
тараган	4818
кыздын	4819
кийинчер	4820
отурат	4821
##гыла	4822
тегерегинде	4823
кино	4824
кг	4825
пун	4826
##наз	4827
##ырган	4828
эмил	4829
коло	4830
##дөрдүн	4831
##ивдүү	4832
кагылыш	4833
регион	4834
ия	4835
карт	4836
мыйзамдар	4837
токтоп	4838
кеңеши	4839
кубаныч	4840
оппозициялык	4841
сим	4842
айланган	4843
балдарга	4844
беришти	4845
мадания	4846
мекенине	4847
ишканасынын	4848
чыңгыз	4849
атын	4850
миллиондон	4851
техник	4852
бийлигин	4853
болгондо	4854
##ешип	4855
абагында	4856
жумду	4857
эскертүү	4858
професс	4859
райымбек	4860
кабул	4861
##дерин	4862
жыйынтыгын	4863
радиосуна	4864
чечимди	4865
алынганын	4866
менимче	4867
ооганстандын	4868
палестин	4869
##пт	4870
маалыматында	4871
өлкөлөргө	4872
спик	4873
москвадагы	4874
##ло	4875
жыйынга	4876
активдүү	4877
акциялар	4878
коммерциялык	4879
божомол	4880
жор	4881
тый	4882
##данып	4883
көркөм	4884
көчүр	4885
кээде	4886
биримдиги	4887
угуп	4888
келечект	4889
##кал	4890
##ира	4891
баатыр	4892
ашып	4893
##доого	4894
ачуу	4895
колдонгон	4896
долбоорунун	4897
сыртка	4898
мол	4899
өст	4900
##oo	4901
жарл	4902
алдыңкы	4903
тит	4904
##аку	4905
кыла	4906
кызматынан	4907
бергенин	4908
тизме	4909
кадимки	4910
44	4911
##жар	4912
##илов	4913
##ашат	4914
окуган	4915
##икте	4916
компаниянын	4917
жарадар	4918
лидерлери	4919
германиянын	4920
жактоо	4921
генер	4922
кызматын	4923
беришкен	4924
суунун	4925
ура	4926
##чан	4927
##ch	4928
##онов	4929
баарына	4930
маалымдоо	4931
кире	4932
##өйт	4933
майып	4934
сатуу	4935
жолугуп	4936
лицензия	4937
##ят	4938
##данын	4939
келбеген	4940
колу	4941
дегенди	4942
алгандар	4943
##синче	4944
эваку	4945
кылууда	4946
бөлүнгөн	4947
киреше	4948
##өгү	4949
сауд	4950
билдирүүлөр	4951
жолку	4952
күчүнө	4953
уланууда	4954
илимдер	4955
кыял	4956
тескерисинче	4957
агым	4958
айтылууда	4959
индия	4960
саламатты	4961
көбөйүп	4962
эпидеми	4963
оз	4964
##ва	4965
##st	4966
туруу	4967
##чүсү	4968
албайбыз	4969
##орттук	4970
жетишсиз	4971
акыйкатчы	4972
##мед	4973
##кай	4974
маз	4975
жылына	4976
таратып	4977
кайда	4978
сурак	4979
эскерткен	4980
жы	4981
##ko	4982
сунуштаган	4983
ооганстандагы	4984
провин	4985
эж	4986
десе	4987
талабы	4988
эвакуация	4989
лог	4990
сх	4991
бирдей	4992
жолду	4993
өлкөнү	4994
баштайт	4995
казакстанга	4996
радиосунун	4997
уран	4998
анча	4999
кытайлык	5000
маанай	5001
кыймылынын	5002
мейман	5003
министрликтин	5004
провинция	5005
дел	5006
##сон	5007
##иясынын	5008
##рах	5009
ташы	5010
бом	5011
билет	5012
талант	5013
эмеспи	5014
чыкканын	5015
июль	5016
мөөнөтүн	5017
ном	5018
фар	5019
колуна	5020
окуяны	5021
апасы	5022
радик	5023
кырдаалга	5024
нияз	5025
баар	5026
куруп	5027
жердеги	5028
документтер	5029
(+	5030
үйүндө	5031
делегация	5032
токтотуп	5033
700	5034
алиев	5035
##ттуу	5036
түрү	5037
ошонун	5038
жооптуу	5039
соңунда	5040
уюштурган	5041
протокол	5042
кийинчерээк	5043
##шев	5044
##оль	5045
##ото	5046
бөлүгүн	5047
жалпыга	5048
айыпталган	5049
зарылды	5050
изилдө	5051
##ецк	5052
үйрөн	5053
55	5054
гран	5055
лары	5056
##эл	5057
бакты	5058
##өрдүн	5059
жолго	5060
пайызга	5061
студентт	5062
килограмм	5063
тама	5064
муфт	5065
келиндер	5066
сил	5067
##як	5068
##пейт	5069
##доп	5070
байыр	5071
бейөк	5072
ошто	5073
шей	5074
атынан	5075
абадан	5076
##сүндөгү	5077
тоскоолдук	5078
бейөкмөт	5079
иман	5080
лан	5081
лив	5082
болууга	5083
беребиз	5084
боз	5085
аракеттери	5086
жерлерде	5087
лабор	5088
балык	5089
км	5090
##гам	5091
кошкон	5092
иштен	5093
чечүү	5094
кармоо	5095
маселелери	5096
казакстандык	5097
калдым	5098
көтөрүл	5099
жигит	5100
мойн	5101
##ешке	5102
##тим	5103
##ed	5104
##иров	5105
күнүнө	5106
кеңейт	5107
коомчулуктун	5108
дарылан	5109
армения	5110
температурасы	5111
иск	5112
сү	5113
бириктир	5114
улук	5115
өтүү	5116
юридикалык	5117
дыктан	5118
токтог	5119
маани	5120
сабак	5121
армиясынын	5122
##гүлт	5123
48	5124
##гор	5125
ушуну	5126
даярдык	5127
нурлан	5128
##гин	5129
##раттар	5130
жашы	5131
араны	5132
##разия	5133
кетишкен	5134
париж	5135
үзгүлт	5136
жылуулук	5137
учку	5138
масшт	5139
түзүлүп	5140
согушта	5141
көбүнчө	5142
##ушта	5143
##улганын	5144
натыйжада	5145
астана	5146
ры	5147
марат	5148
сүйлөгөн	5149
күйөөсү	5150
кичи	5151
##штык	5152
болуу	5153
##имовдун	5154
орунда	5155
жете	5156
жазуучу	5157
чыгары	5158
тилинде	5159
##үлгөнүн	5160
колдонууга	5161
жүрүшүндө	5162
рек	5163
абыл	5164
токтолду	5165
беларуст	5166
жылдыз	5167
мерт	5168
шин	5169
сөзү	5170
жарандарга	5171
жардамы	5172
берене	5173
душ	5174
жус	5175
шил	5176
##ьян	5177
##алдын	5178
депутаттары	5179
тийген	5180
кызматкерлеринин	5181
статистика	5182
лу	5183
##тардын	5184
##чылыкка	5185
совет	5186
ги	5187
зордук	5188
мээ	5189
нем	5190
##жаң	5191
биринин	5192
атады	5193
евразия	5194
өзгөрүүлөр	5195
көтөргөн	5196
##атору	5197
жумушка	5198
татаал	5199
дуб	5200
лон	5201
баал	5202
жаатында	5203
жокпу	5204
мет	5205
туризм	5206
жеринен	5207
##еши	5208
кириш	5209
көрсөттү	5210
айыптаган	5211
кыймылы	5212
китептер	5213
өңдүү	5214
учкуч	5215
zko	5216
##el	5217
##стык	5218
айдын	5219
берки	5220
чарб	5221
көтөрүлүп	5222
асыл	5223
бүтк	5224
бирикм	5225
унаа	5226
шах	5227
алууда	5228
балл	5229
жайын	5230
##оза	5231
##ресс	5232
кабарлагандай	5233
суткада	5234
токтогул	5235
губ	5236
##ту	5237
193	5238
кытайга	5239
##үктүн	5240
жабдуу	5241
чогулуп	5242
докт	5243
көбөйт	5244
жеңилдет	5245
фир	5246
##төн	5247
үйгө	5248
алгандан	5249
өкүлчүл	5250
социал	5251
баарыбыз	5252
үстүнө	5253
жоопкерчилик	5254
бүткөн	5255
мезгилде	5256
экин	5257
өкмөткө	5258
бергени	5259
парламентке	5260
коюлду	5261
былтыркы	5262
##серв	5263
түт	5264
алдык	5265
##ттык	5266
кызуу	5267
абды	5268
##ктардын	5269
тартыш	5270
иштерине	5271
бузган	5272
тамыр	5273
евробиримдик	5274
kg	5275
##дама	5276
караш	5277
##гиле	5278
шайлоодон	5279
тармагында	5280
жайгаштыр	5281
артында	5282
мектепке	5283
руслан	5284
лаборатор	5285
##став	5286
аймак	5287
##аттагы	5288
каар	5289
сыдык	5290
ташуучу	5291
жоюу	5292
эмгектен	5293
эгемендик	5294
барым	5295
дуу	5296
лей	5297
ноо	5298
##иск	5299
##өбүз	5300
##улук	5301
баң	5302
кеңешке	5303
каттоого	5304
арадан	5305
прокуратуранын	5306
каракол	5307
##мен	5308
##ье	5309
##гай	5310
##жа	5311
кылышкан	5312
көпүр	5313
аткарып	5314
узарт	5315
демократтар	5316
депутаттардын	5317
пенсия	5318
буюм	5319
губерн	5320
даттан	5321
##тери	5322
кура	5323
##алиева	5324
көбөйдү	5325
агенттигинин	5326
мелдешт	5327
виз	5328
жэб	5329
чата	5330
камп	5331
экстремисттик	5332
дешет	5333
42	5334
##нек	5335
тың	5336
үндө	5337
глоб	5338
пет	5339
##мөлөр	5340
##поз	5341
##окел	5342
##аттыкты	5343
кошуп	5344
кытайдан	5345
чынды	5346
жолугушууда	5347
армян	5348
тобокел	5349
кутт	5350
турабыз	5351
##ебер	5352
көздөп	5353
жыйн	5354
алынат	5355
унут	5356
бшкнын	5357
##итор	5358
президентинин	5359
##ашып	5360
##ациялык	5361
айыпталуу	5362
асман	5363
түшүндүрдү	5364
текшерип	5365
өскөн	5366
).	5367
##кар	5368
карман	5369
жатса	5370
кылышты	5371
шаарда	5372
жашайт	5373
келгени	5374
айлана	5375
ээлеп	5376
экинчиден	5377
600	5378
##кр	5379
эли	5380
кыздар	5381
калдык	5382
клуб	5383
ашыруу	5384
сумма	5385
чагым	5386
тык	5387
##ыбек	5388
##оосу	5389
конг	5390
сураган	5391
тапт	5392
эркек	5393
түшүнүк	5394
##ерсон	5395
баштапкы	5396
мүлк	5397
эпидемиологиялык	5398
65	5399
жик	5400
лит	5401
силер	5402
##елеп	5403
##ектор	5404
уккан	5405
абактан	5406
##өткөн	5407
добушт	5408
бүлөсү	5409
no1	5410
өздөрүнүн	5411
жубайы	5412
аралыгында	5413
кей	5414
пат	5415
##маны	5416
##атов	5417
токтотууга	5418
кубатт	5419
төмөндө	5420
көрүнүшт	5421
айбек	5422
азамат	5423
байл	5424
байге	5425
беле	5426
##дордун	5427
##ештир	5428
исма	5429
шайлоону	5430
текебаев	5431
облустарында	5432
39	5433
бри	5434
четт	5435
берүүдө	5436
##ейн	5437
тилин	5438
трамптын	5439
студенттер	5440
ах	5441
##сем	5442
##оран	5443
##ыктары	5444
мамлекети	5445
министрдин	5446
күчү	5447
##матова	5448
##султан	5449
титир	5450
##et	5451
башкалар	5452
##егине	5453
көздөгөн	5454
негиздөө	5455
ушундан	5456
вари	5457
күл	5458
##делген	5459
##фа	5460
##акыр	5461
корп	5462
иштөө	5463
##ыктыр	5464
жогорул	5465
чаралары	5466
окуясы	5467
төлөө	5468
##диктер	5469
ашыкча	5470
зомбулукка	5471
бакча	5472
институтт	5473
жомарт	5474
re	5475
ленин	5476
санын	5477
утуп	5478
##стер	5479
белгилейт	5480
ачка	5481
отун	5482
долбоорду	5483
ип	5484
кабылып	5485
кезинде	5486
февраль	5487
жаратып	5488
пайдаланып	5489
митингге	5490
рахмон	5491
демонстран	5492
дмит	5493
сем	5494
десек	5495
андагы	5496
##дөм	5497
башына	5498
тажикстанда	5499
көмөк	5500
шинжаң	5501
##или	5502
экологиялык	5503
курама	5504
турганда	5505
жасады	5506
...+	5507
шарттар	5508
калыс	5509
натыйжалуу	5510
толкун	5511
new	5512
мө	5513
##гал	5514
арб	5515
##ктарга	5516
көрсө	5517
абалга	5518
саламаттыкты	5519
афр	5520
айыптады	5521
пункт	5522
жыр	5523
чыл	5524
##гандардын	5525
##амж	5526
##асынан	5527
жарандыгын	5528
реакция	5529
сырт	5530
каржылык	5531
эстел	5532
мойнуна	5533
##штар	5534
тартты	5535
катарында	5536
көчүп	5537
##структур	5538
согуштун	5539
жылуу	5540
жогорулат	5541
автоном	5542
беларустун	5543
##ционер	5544
барымта	5545
дмитр	5546
цент	5547
##дүгүн	5548
##есинен	5549
боор	5550
##осу	5551
өткөрүүгө	5552
убакты	5553
окшош	5554
күмүш	5555
мобилизация	5556
утур	5557
орду	5558
2012	5559
өзбекстанга	5560
сунуштады	5561
келтирилген	5562
мөөнөткө	5563
төмөнкү	5564
47	5565
##алга	5566
билип	5567
күндүн	5568
саткан	5569
тушунда	5570
бөлүнүп	5571
арзан	5572
43	5573
дания	5574
оф	5575
чоо	5576
юст	5577
##өдү	5578
##айбыз	5579
азиз	5580
иштелип	5581
##үгүндөгү	5582
өткөрмө	5583
##естив	5584
өлкөлөрүнүн	5585
экспорт	5586
бызды	5587
адис	5588
өлүмүнө	5589
акчасын	5590
заманбап	5591
арда	5592
бербейт	5593
билдиришкен	5594
башкарган	5595
бузуп	5596
аткаминерлер	5597
##ьт	5598
##сок	5599
##улушу	5600
##скө	5601
ишинин	5602
балбан	5603
кошуна	5604
бийликтен	5605
коомчулукка	5606
жээнбековдун	5607
санкциялар	5608
мирзиёев	5609
масштаб	5610
шилт	5611
юстиция	5612
рав	5613
мурдар	5614
197	5615
айылындагы	5616
муниц	5617
кармаган	5618
ыйгар	5619
никол	5620
ңиз	5621
чочул	5622
эсептей	5623
милицияга	5624
жеткирүү	5625
кодек	5626
баяндама	5627
энергиясын	5628
вер	5629
##гери	5630
##пиз	5631
##етинен	5632
инсан	5633
башталып	5634
алдыда	5635
көчөлөр	5636
деңгээли	5637
темиров	5638
каттоодон	5639
демилгеси	5640
бейшеналиев	5641
лондон	5642
##гр	5643
##нев	5644
кирди	5645
эмесмин	5646
баланы	5647
башталат	5648
үнө	5649
курманбек	5650
экендигин	5651
кереги	5652
ассо	5653
экспертт	5654
үстүнөн	5655
эсебинен	5656
муницип	5657
41	5658
жөө	5659
жатты	5660
өп	5661
##ro	5662
алай	5663
турушат	5664
таратты	5665
партиялардын	5666
арызын	5667
көмү	5668
таптакыр	5669
догу	5670
чех	5671
корут	5672
көтөрүлгөн	5673
күтүү	5674
кайрылуусунда	5675
фондунун	5676
принцип	5677
тыйын	5678
жикчил	5679
нью	5680
таалай	5681
тарды	5682
кылабыз	5683
үйдөн	5684
##чуларды	5685
окутуу	5686
кошулган	5687
##ограмма	5688
дайынсыз	5689
инфра	5690
сентябрь	5691
каккан	5692
көздө	5693
көздөй	5694
чечимине	5695
соттор	5696
тармагындагы	5697
кечир	5698
кенен	5699
коргоп	5700
атай	5701
жетет	5702
балам	5703
түздү	5704
тартууга	5705
конт	5706
##естр	5707
мурдараак	5708
дүр	5709
рев	5710
чок	5711
##откон	5712
##шкөнүн	5713
буларды	5714
мамыт	5715
беренесинин	5716
ойлоп	5717
документтерди	5718
пайызы	5719
азербайжандын	5720
##ушк	5721
##ром	5722
##ипов	5723
реалдуу	5724
таанылган	5725
тааныштыр	5726
##еренция	5727
болушун	5728
блогер	5729
дмитрий	5730
юн	5731
##сылык	5732
алсак	5733
берерин	5734
жайында	5735
жалаң	5736
жеңип	5737
экспертиза	5738
себептен	5739
чап	5740
колл	5741
сөзүн	5742
баткенде	5743
октябрдагы	5744
тирүү	5745
сүйлөшүүлөрдү	5746
инфраструктур	5747
ау	5748
айына	5749
адатта	5750
ичиндеги	5751
саясатын	5752
ова	5753
буйрук	5754
өтүнүчү	5755
##гул	5756
барбы	5757
##ктады	5758
чыгышы	5759
окуядан	5760
долларды	5761
чындык	5762
агенттигине	5763
белгиленди	5764
инвесторлор	5765
биринчиден	5766
сүйлөшкөн	5767
виза	5768
тиг	5769
чай	5770
алба	5771
жерг	5772
коомдо	5773
жеткирилген	5774
жусуп	5775
дыгы	5776
чир	5777
айкын	5778
колунда	5779
бүлөлөр	5780
чынында	5781
сулай	5782
натыйжасында	5783
тагдыры	5784
концер	5785
фракциясынын	5786
замир	5787
##циялоо	5788
абакка	5789
##иктен	5790
койсо	5791
сунушу	5792
уюштуруп	5793
түшүндүрүү	5794
ассоци	5795
көмүскө	5796
иса	5797
элинин	5798
элчи	5799
при	5800
кыргызстанды	5801
##ыктардын	5802
күндүк	5803
өнүк	5804
салууну	5805
окуучулар	5806
бошотулган	5807
ишканасы	5808
фейсб	5809
харь	5810
глобалдык	5811
бен	5812
##кил	5813
бөлмө	5814
ооба	5815
мамилеси	5816
миссия	5817
ишканалар	5818
85	5819
лы	5820
нүн	5821
жатпайбы	5822
төрайым	5823
түшүнү	5824
себебин	5825
аралашкан	5826
коркунучу	5827
сайтына	5828
иимдин	5829
тажрыйба	5830
салмакта	5831
адабият	5832
кыш	5833
жакш	5834
194	5835
жоюл	5836
федералдык	5837
ассоциация	5838
##албаган	5839
жашта	5840
исаков	5841
системасын	5842
самми	5843
энергетикалык	5844
мектепте	5845
бекемдөө	5846
баратат	5847
достук	5848
##ио	5849
кызматтык	5850
түздөн	5851
негизсиз	5852
чыкканы	5853
тарапка	5854
коргоого	5855
киргизип	5856
тааныш	5857
бүтүр	5858
мөөнөтт	5859
жактыр	5860
райондордо	5861
умт	5862
изилдөөлөр	5863
##ce	5864
##сты	5865
##үгүнүн	5866
сурады	5867
дене	5868
жобо	5869
мөөнөтүнөн	5870
ийгиликтүү	5871
баяндам	5872
жамгыр	5873
юрист	5874
буюр	5875
назарбаев	5876
чү	5877
баасын	5878
экология	5879
кылыш	5880
жолуккан	5881
кемчил	5882
жагдайлар	5883
радиосу	5884
сирия	5885
куугунтук	5886
тум	5887
##гап	5888
аймакка	5889
##истикалык	5890
программа	5891
каф	5892
жарылуу	5893
##үшүн	5894
коюшкан	5895
апрелге	5896
токмок	5897
мекендешт	5898
түйш	5899
жуктуруп	5900
тосуп	5901
венгр	5902
генерал	5903
баңгиз	5904
##оф	5905
эмест	5906
жарлык	5907
чакыруу	5908
тыны	5909
иликтеп	5910
курулушу	5911
экинчиси	5912
китепт	5913
гезит	5914
херсон	5915
акмат	5916
##үмдүк	5917
кыян	5918
майга	5919
пикири	5920
ооганстанда	5921
##бөйт	5922
түпт	5923
радикал	5924
":	5925
##ңуз	5926
##ашуу	5927
жарандарын	5928
калганда	5929
чарасы	5930
наам	5931
акцияга	5932
узар	5933
тактоо	5934
фактыл	5935
альян	5936
жоокерлер	5937
гон	5938
ром	5939
##пак	5940
баруу	5941
үйү	5942
майн	5943
сурамж	5944
кармоочу	5945
орточо	5946
киевге	5947
евробиримдиктин	5948
айтышууда	5949
вагнер	5950
сурамжыл	5951
ордо	5952
башчылары	5953
дарга	5954
козголуп	5955
##макчы	5956
калыптан	5957
кесиптик	5958
нерсени	5959
чегинде	5960
##аа	5961
##ткү	5962
коман	5963
бөлүшт	5964
2005	5965
абдрах	5966
жолдош	5967
чыгармачыл	5968
##кус	5969
##абайт	5970
##лис	5971
шайлоочулардын	5972
кабарчысы	5973
##иссер	5974
тили	5975
жөнүндөгү	5976
тапшырган	5977
сындаган	5978
макулдашуу	5979
ишенимдүү	5980
финансылык	5981
армениянын	5982
муниципалдык	5983
ира	5984
##адык	5985
##дил	5986
##екей	5987
андр	5988
##рациялык	5989
өкүн	5990
күчөгөн	5991
аймактын	5992
абагына	5993
аялдарга	5994
жүргөнүн	5995
кесепети	5996
конференция	5997
дик	5998
хол	5999
##гур	6000
##дым	6001
эмге	6002
талаб	6003
колон	6004
чыгарууга	6005
эсен	6006
коюшту	6007
##сүнөн	6008
кызматкерлерине	6009
##одогу	6010
оппозициячыл	6011
көмөкт	6012
ылдам	6013
пнев	6014
##атындагы	6015
##ортация	6016
баев	6017
жаайт	6018
депортация	6019
түрлөр	6020
жыйыр	6021
аткез	6022
албайм	6023
мигрант	6024
көчмөн	6025
тизмесине	6026
элчилиги	6027
тра	6028
##енк	6029
жаралган	6030
сөзүнө	6031
##ациялоо	6032
сотунда	6033
автом	6034
органдарына	6035
күйүүчү	6036
согуштук	6037
талаштуу	6038
кызматташуу	6039
кремлдин	6040
атабыз	6041
төлө	6042
кечирим	6043
үнүн	6044
бошотуу	6045
жаратылыш	6046
эреже	6047
мухаммед	6048
айыгып	6049
коор	6050
келерин	6051
ишемб	6052
##герлер	6053
жыйыны	6054
кытайда	6055
уруп	6056
катарына	6057
акыры	6058
ырайы	6059
аскерлерин	6060
ноябрь	6061
равшан	6062
түшүнүкт	6063
##еф	6064
##лин	6065
##инче	6066
##унд	6067
кетсе	6068
кирүү	6069
##осун	6070
долбоордун	6071
дүйнөгө	6072
эсептелет	6073
командасы	6074
сактагыч	6075
душман	6076
жмк	6077
##дп	6078
баг	6079
какты	6080
канат	6081
##омп	6082
балдарын	6083
чечен	6084
харьков	6085
##тууга	6086
##тарды	6087
бос	6088
азиянын	6089
кайн	6090
киргизилди	6091
абалын	6092
бийликте	6093
уулунун	6094
качкан	6095
ачылды	6096
кичин	6097
аал	6098
ашы	6099
##ia	6100
##асак	6101
турсун	6102
казакстандагы	6103
башкарып	6104
кимге	6105
чектеш	6106
тарыхы	6107
заво	6108
##лет	6109
борборлор	6110
ойдо	6111
европадагы	6112
минск	6113
бийлигине	6114
сереп	6115
жылдыгына	6116
валюта	6117
##лыктар	6118
##бал	6119
##пин	6120
билиш	6121
##чылыктар	6122
аялы	6123
диал	6124
жетектеп	6125
нерселер	6126
айырм	6127
абылгазиев	6128
мүн	6129
##гол	6130
##пеген	6131
отуз	6132
айылда	6133
бузуулар	6134
интерв	6135
кызматкерлердин	6136
участ	6137
штабдын	6138
пневмон	6139
координ	6140
жоб	6141
фото	6142
##кий	6143
##чак	6144
катчы	6145
салтан	6146
2011	6147
биримдик	6148
ракеталык	6149
бутага	6150
медал	6151
шилтеме	6152
.)	6153
кардар	6154
##умун	6155
аймагы	6156
төрөлгөн	6157
апт	6158
##ибер	6159
күчтөрдүн	6160
ларга	6161
репрессия	6162
редакция	6163
##he	6164
билдирет	6165
кант	6166
башын	6167
##ктарын	6168
бекеш	6169
пикиринде	6170
механ	6171
шаарларында	6172
центер	6173
54	6174
мү	6175
##еция	6176
##сал	6177
анык	6178
жаткыр	6179
курууга	6180
кирүүгө	6181
чечип	6182
чыккандар	6183
сакталып	6184
өзгөрүү	6185
сың	6186
##суалдык	6187
түркияга	6188
окумуштуулар	6189
сууга	6190
укт	6191
##инов	6192
окууда	6193
суроого	6194
өкмөттү	6195
аракеттерин	6196
артынан	6197
кыскарт	6198
жоктугун	6199
##аст	6200
##бир	6201
##баса	6202
##албай	6203
жайкын	6204
окуяларды	6205
даярдап	6206
жээг	6207
полициясы	6208
донецк	6209
матраимовдун	6210
тегеран	6211
келечекте	6212
гол	6213
тук	6214
ус	6215
##екти	6216
катм	6217
##үшөт	6218
экенине	6219
келгенден	6220
окуучу	6221
##дуулук	6222
чыккандан	6223
урмат	6224
орунду	6225
пикирде	6226
жекшембиде	6227
коңш	6228
созулган	6229
##алса	6230
дармек	6231
тармагы	6232
иликтөөлөр	6233
жабырлан	6234
жемкор	6235
49	6236
##асындагы	6237
аза	6238
башчынын	6239
##ылганы	6240
жазылып	6241
шаардагы	6242
өтүүгө	6243
аймагынан	6244
##сион	6245
тополоң	6246
баштаганын	6247
сыйлык	6248
башчысынын	6249
коопсуздугу	6250
кризист	6251
жатышканын	6252
күбөлөр	6253
ауди	6254
##us	6255
кыргыздын	6256
##өлөк	6257
тартышты	6258
доллардан	6259
асанов	6260
сиге	6261
бюджет	6262
материалдык	6263
программасы	6264
айдоочулар	6265
администрациясы	6266
жапония	6267
идея	6268
талдоочу	6269
асп	6270
фестив	6271
менчи	6272
азим	6273
колунан	6274
192	6275
эркектер	6276
##диктен	6277
бейтаптар	6278
суроолоруна	6279
мүнөздө	6280
мээр	6281
коч	6282
булак	6283
том	6284
жүрүшү	6285
кетишти	6286
шаарынан	6287
өтүшү	6288
##устар	6289
миллионго	6290
макулда	6291
колдоого	6292
прокуратурасы	6293
кмш	6294
быш	6295
исп	6296
раз	6297
ха	6298
##рек	6299
2000	6300
көрбөгөн	6301
курулган	6302
күндөр	6303
илин	6304
облусуна	6305
кризис	6306
маркумдун	6307
лукашенко	6308
кесиптешт	6309
поп	6310
##ter	6311
##дукт	6312
каст	6313
##ита	6314
коюш	6315
өзгөч	6316
коюлуп	6317
согуштан	6318
аэропортт	6319
алмашуу	6320
ташыган	6321
58	6322
куп	6323
##олук	6324
болору	6325
болсун	6326
кызды	6327
##аттардын	6328
чакты	6329
бакч	6330
институту	6331
польш	6332
бүткүл	6333
се	6334
##мад	6335
туристтер	6336
жаратты	6337
2013	6338
борборунда	6339
ортом	6340
миллиондогон	6341
тапшырды	6342
шектүүлөр	6343
биримдигинин	6344
көрүнүп	6345
кабинети	6346
санкцияларды	6347
блин	6348
сайтында	6349
академ	6350
түшүндүрмөсү	6351
иштебей	6352
мамытов	6353
абай	6354
пады	6355
##дел	6356
өткөрүлүп	6357
анткен	6358
сабыр	6359
тизмеге	6360
соккул	6361
аскерлеринин	6362
университет	6363
кримин	6364
блинкен	6365
ti	6366
##урман	6367
##абил	6368
тардын	6369
үчөө	6370
##үмдү	6371
жеринде	6372
алгандардын	6373
##лашкан	6374
жүргүн	6375
киргизил	6376
нурсултан	6377
кайтаруу	6378
жоопкерчилиги	6379
интернетке	6380
тонн	6381
лор	6382
ро	6383
рас	6384
##алиция	6385
келер	6386
келишти	6387
турууга	6388
##дайт	6389
кабаттуу	6390
эркиндигин	6391
тизмесин	6392
үстөм	6393
мектептин	6394
шав	6395
үс	6396
195	6397
мындайча	6398
дарыя	6399
деклар	6400
кенин	6401
акциялары	6402
барганда	6403
тургай	6404
студент	6405
тарапташтары	6406
эфир	6407
гор	6408
##кем	6409
##кунун	6410
бая	6411
айн	6412
аннек	6413
маян	6414
дегендей	6415
иштерге	6416
реестр	6417
##дорду	6418
өткөрдү	6419
жүргүзүлгөн	6420
директор	6421
##бетов	6422
чагылдыр	6423
өрөөнүндө	6424
лейлек	6425
52	6426
паш	6427
шылт	6428
##ишке	6429
##ани	6430
кыргызча	6431
калышты	6432
жайылыш	6433
түрткү	6434
суук	6435
үмүтт	6436
стандар	6437
өкүлдөрүнүн	6438
институтунун	6439
окумуштуу	6440
плат	6441
айларында	6442
##лаган	6443
айланды	6444
кожо	6445
евро	6446
кеңешчиси	6447
вирустун	6448
сайма	6449
кездеш	6450
мугалимдер	6451
аннексия	6452
##чк	6453
##пул	6454
##юк	6455
коалиция	6456
##уштук	6457
дараж	6458
мари	6459
таануу	6460
спект	6461
дарыгерлердин	6462
##ers	6463
көчөгө	6464
мигранттарды	6465
архив	6466
камтылган	6467
автобус	6468
профессор	6469
каарман	6470
четтет	6471
кичинекей	6472
46	6473
57	6474
хор	6475
##ортко	6476
айы	6477
катышат	6478
окуянын	6479
бекер	6480
жүргүзүлүп	6481
жоопкерчиликти	6482
беришет	6483
франциянын	6484
түзүмдөр	6485
сузак	6486
өнүктүрүүгө	6487
департаментинин	6488
кубанычбек	6489
the	6490
##шып	6491
берүүнүн	6492
жүрдү	6493
башчылар	6494
кишиден	6495
сомду	6496
сактоого	6497
кенем	6498
дайындалды	6499
советтер	6500
кореянын	6501
өзгөчөл	6502
суна	6503
##ров	6504
##юп	6505
жактагы	6506
маг	6507
сагын	6508
айтышат	6509
болгондон	6510
аларын	6511
##ыктарын	6512
камалды	6513
байланышта	6514
##лигин	6515
абдулла	6516
талапкерлердин	6517
баалуулу	6518
пер	6519
чий	6520
##сең	6521
##ектин	6522
196	6523
европанын	6524
##штырып	6525
окуяларга	6526
мирлан	6527
жайларда	6528
каршыл	6529
машыгуу	6530
##назаров	6531
жыйырма	6532
бук	6533
ел	6534
норм	6535
ынын	6536
алдам	6537
##ета	6538
##икасы	6539
арасын	6540
##ыйт	6541
маек	6542
кызым	6543
##гожин	6544
жумур	6545
аныктап	6546
эркиндик	6547
120	6548
арызы	6549
иранда	6550
техника	6551
жумушсуз	6552
жазгандай	6553
ортодо	6554
буудай	6555
өздөрүн	6556
отчет	6557
жун	6558
жардыр	6559
жокмун	6560
жазасын	6561
украиналык	6562
чыгышт	6563
чыкса	6564
алдыдагы	6565
журналисттик	6566
ээр	6567
сунушун	6568
адахан	6569
ээлеген	6570
жокпуз	6571
68	6572
теп	6573
чур	6574
##ьм	6575
##сине	6576
##арх	6577
##ств	6578
даана	6579
##ессия	6580
калкы	6581
чарасын	6582
түшүнүп	6583
кимдер	6584
бурм	6585
инвестициялык	6586
анкара	6587
ченем	6588
деб	6589
келүүдө	6590
##дугу	6591
жолунун	6592
жайыл	6593
абактагы	6594
марк	6595
##ешти	6596
өткөндөн	6597
##сунан	6598
##дикти	6599
##оолорду	6600
спортчу	6601
иштетүү	6602
астында	6603
##орож	6604
петер	6605
##ерд	6606
жөндөм	6607
борбордун	6608
күрө	6609
президенттикке	6610
керектөө	6611
финалда	6612
##тони	6613
1990	6614
айланасындагы	6615
ыңгайлуу	6616
вариан	6617
фрон	6618
##ком	6619
келб	6620
тема	6621
авиак	6622
##хаил	6623
##боо	6624
##na	6625
##ыларын	6626
ансыз	6627
кетсек	6628
мурас	6629
күчүндө	6630
жарандарына	6631
рест	6632
чараларын	6633
жапаровго	6634
даярдоо	6635
тармагына	6636
натонун	6637
өндүрүү	6638
салынат	6639
шавкат	6640
53	6641
##гысы	6642
орусияны	6643
##үндөй	6644
келгендер	6645
чыкп	6646
кылмы	6647
колдонулган	6648
долбооруна	6649
жанындагы	6650
үнү	6651
мүмкүнчүлүкт	6652
берилгенин	6653
##чүлөрдүн	6654
тагылган	6655
адабия	6656
аппарат	6657
жаныбар	6658
дүң	6659
пригожин	6660
ыз	6661
жүрөк	6662
аягы	6663
уюмга	6664
аракеттерди	6665
салынды	6666
##ханов	6667
пандемиясы	6668
шартында	6669
төлөмдөр	6670
үзгүлтүккө	6671
зон	6672
кече	6673
танд	6674
##диев	6675
##баш	6676
##бызды	6677
кесилген	6678
сыноо	6679
уюштурулган	6680
агай	6681
айтканы	6682
сверд	6683
революция	6684
хим	6685
##инян	6686
бардыгын	6687
жарн	6688
тартылып	6689
төраг	6690
ред	6691
көлбаев	6692
курулуп	6693
комисс	6694
тарыхында	6695
саатка	6696
ташкентт	6697
англис	6698
##ёр	6699
жагы	6700
##ттагы	6701
##дарда	6702
турса	6703
марттан	6704
уруш	6705
жеңишке	6706
күтүлүүдө	6707
жогоруда	6708
кесепетт	6709
тааныган	6710
жигер	6711
интел	6712
түйүндөр	6713
зарылдыгын	6714
декларация	6715
62	6716
77	6717
зор	6718
рим	6719
хама	6720
##хаб	6721
дешти	6722
үйл	6723
шайлоочулар	6724
##игип	6725
тигил	6726
көзөмөлдө	6727
ырайым	6728
сиздин	6729
кызыкдар	6730
агрессия	6731
калтырды	6732
улантып	6733
мандаттуу	6734
азайып	6735
үйрөт	6736
уйгур	6737
запорож	6738
пашинян	6739
платф	6740
тагын	6741
тура	6742
##башы	6743
көрү	6744
аралыкта	6745
эрежелер	6746
өрттөн	6747
чалып	6748
##жыр	6749
##ig	6750
тергөөнүн	6751
эсептелген	6752
чогултуп	6753
кыйноого	6754
кепилдик	6755
немис	6756
##орд	6757
##еки	6758
бирден	6759
тартк	6760
мыйзамдарды	6761
жайына	6762
оорунун	6763
контр	6764
суран	6765
жумган	6766
ойлор	6767
өлкөлөрдөн	6768
келишимди	6769
уюштурууга	6770
чыгышындагы	6771
чыңалуу	6772
чемпиону	6773
түрмөдө	6774
мандат	6775
ымыр	6776
резолюция	6777
намаз	6778
центерра	6779
800	6780
йор	6781
төк	6782
##бер	6783
##арат	6784
арага	6785
кое	6786
колдой	6787
абак	6788
сөзүндө	6789
стал	6790
сүйлөшт	6791
урм	6792
таанымал	6793
планы	6794
калтырган	6795
бакиевдин	6796
лукашенк	6797
спектак	6798
ларын	6799
##гуз	6800
##идин	6801
##ty	6802
алда	6803
##ланд	6804
михаил	6805
апа	6806
конушт	6807
түнд	6808
эскерүү	6809
келтирип	6810
милдеттендир	6811
рубль	6812
свердлов	6813
тет	6814
##сен	6815
##нов	6816
##атуу	6817
##стөн	6818
##данган	6819
##ланат	6820
айтматов	6821
маалыматтык	6822
жетим	6823
маселесине	6824
бериле	6825
аныкталып	6826
көтөрүлдү	6827
которгон	6828
камактагы	6829
##дегенде	6830
сарпт	6831
көчөдө	6832
жолдорун	6833
биргеликте	6834
твиттер	6835
мүлктү	6836
диалог	6837
бөрү	6838
чуу	6839
##шар	6840
##ынып	6841
##акунов	6842
өзгөн	6843
белгилери	6844
байланыштыр	6845
##лашты	6846
шарты	6847
кылганын	6848
##актары	6849
имарат	6850
төңк	6851
суроолорго	6852
##ификация	6853
топтордун	6854
жакшыртуу	6855
тейлөө	6856
төрайымы	6857
ижар	6858
сынын	6859
сүт	6860
цзин	6861
##цар	6862
жардыруу	6863
жүрүм	6864
өтөп	6865
коронавирусту	6866
көрсөтүүгө	6867
ээн	6868
2009	6869
мигранттарга	6870
көргөзмө	6871
тандап	6872
кепт	6873
##өбаев	6874
##ттин	6875
соц	6876
түзүүгө	6877
авст	6878
сүйүн	6879
мурдагыдай	6880
сатылып	6881
орунга	6882
аткарган	6883
иликтен	6884
аймактарга	6885
талапкерлигин	6886
тапшырып	6887
айтылгандай	6888
прокуратурага	6889
овдун	6890
сириянын	6891
no2	6892
архит	6893
өнүккөн	6894
жердин	6895
жашында	6896
жашоого	6897
##иктерди	6898
аныктаган	6899
катыша	6900
көзөмөлдөп	6901
төртүнчү	6902
сунушталган	6903
2008	6904
тоолор	6905
экспертиз	6906
болбогонун	6907
моралдык	6908
байыркы	6909
мээрим	6910
51	6911
56	6912
63	6913
адегенде	6914
жору	6915
суб	6916
чө	6917
шери	6918
##не	6919
##as	6920
жаатта	6921
болушкан	6922
##үлө	6923
адамдары	6924
жайылып	6925
журналисттин	6926
колдоосу	6927
дарыланып	6928
белгилегендей	6929
улукбек	6930
кочкор	6931
австрал	6932
мик	6933
алк	6934
алим	6935
##гый	6936
##ория	6937
##улар	6938
жаатындагы	6939
дег	6940
билин	6941
шаарын	6942
түшөт	6943
тилдүү	6944
табуу	6945
оңдоп	6946
машина	6947
машыктыр	6948
радио	6949
кызыкчылыгы	6950
өзүбүздүн	6951
татыктуу	6952
куттукт	6953
механизм	6954
шир	6955
##күр	6956
жолдун	6957
белгилей	6958
жыйынын	6959
жакындарына	6960
опуз	6961
таба	6962
долларлык	6963
койгонун	6964
тизмеси	6965
кошумчалаган	6966
максим	6967
коркунучтуу	6968
анклав	6969
көпүрө	6970
мем	6971
##зел	6972
##ерв	6973
баку	6974
жаса	6975
атом	6976
украинаны	6977
##измге	6978
дайында	6979
күйүп	6980
которулган	6981
акчанын	6982
коопсуздукту	6983
запорожье	6984
фун	6985
##шай	6986
##алыктар	6987
##олот	6988
##ург	6989
болушту	6990
аксы	6991
каныбек	6992
##ыштар	6993
##уштуу	6994
чечүүгө	6995
тилект	6996
чечимге	6997
кимдин	6998
таштанды	6999
жугуштуу	7000
ушуга	7001
жумуштан	7002
биргелешип	7003
беларуста	7004
кож	7005
кыргыздардын	7006
кори	7007
алардан	7008
чыгара	7009
жарандарынын	7010
жөнөткөн	7011
##уулары	7012
өткөрүүнү	7013
толукт	7014
сомдук	7015
каражатты	7016
узун	7017
сайты	7018
октябрга	7019
тайма	7020
##аматов	7021
жетекчисинин	7022
психологиялык	7023
этникалык	7024
билбейм	7025
негиздөөчүсү	7026
жөлөк	7027
калууда	7028
ңар	7029
барууга	7030
калбай	7031
талан	7032
өндүрүшт	7033
конституциянын	7034
жкку	7035
швей	7036
мазм	7037
news	7038
кенемте	7039
петербург	7040
рейт	7041
##тыл	7042
##тун	7043
##но	7044
азап	7045
көрдү	7046
камалып	7047
өнүм	7048
таби	7049
талкууланып	7050
пайдалуу	7051
интернетте	7052
мейкин	7053
коркутуп	7054
батыштын	7055
арбын	7056
көмөктөш	7057
пневмония	7058
үсөн	7059
ик	7060
мушт	7061
рам	7062
##чук	7063
##улова	7064
##лоого	7065
кошулуп	7066
төлөгөн	7067
айыптоо	7068
эскертип	7069
нурбек	7070
декабрь	7071
тапшырма	7072
нато	7073
бюджеттен	7074
курчуп	7075
объектил	7076
ынтымак	7077
##абеков	7078
молдо	7079
ачкачылык	7080
андрей	7081
швейцар	7082
дөй	7083
пав	7084
##дак	7085
##ульт	7086
##үүсү	7087
кылыч	7088
өткөнүн	7089
терге	7090
жарандын	7091
макрон	7092
борборуна	7093
кимдир	7094
мааниси	7095
көзөмөлдөгөн	7096
камсыздан	7097
оорудан	7098
сөздөрдү	7099
баскыч	7100
интервью	7101
жеп	7102
зулуш	7103
##вид	7104
өзүндө	7105
калай	7106
жаткандар	7107
кабылганын	7108
жоголгон	7109
сотуна	7110
кеткенден	7111
кечки	7112
вирусту	7113
козгогон	7114
донбас	7115
талаа	7116
таңкы	7117
акысыз	7118
администрациясынын	7119
монгол	7120
грузин	7121
редакт	7122
reut	7123
76	7124
дил	7125
лин	7126
##лүк	7127
##пой	7128
өлт	7129
комен	7130
жүргөнү	7131
деңгээлдеги	7132
жумада	7133
тазалоо	7134
булактарына	7135
навальныйдын	7136
татар	7137
польша	7138
сыдыков	7139
reuters	7140
сессия	7141
арасына	7142
маект	7143
##отек	7144
##ышта	7145
окууга	7146
берүүдөн	7147
көзөмөлгө	7148
документке	7149
мамилелер	7150
полициянын	7151
мэрия	7152
ошентсе	7153
каржылоо	7154
ымыркай	7155
чатыр	7156
##часы	7157
тариф	7158
аймагынын	7159
эсеби	7160
курмандыктар	7161
ачылып	7162
каражаттарынын	7163
тамактан	7164
##ештирүү	7165
табигый	7166
67	7167
чалды	7168
##мур	7169
##көө	7170
бакир	7171
иште	7172
тууганы	7173
тургандай	7174
##аларына	7175
түзүлдү	7176
чыгарылып	7177
кыйр	7178
миграциялык	7179
банкы	7180
бүтүп	7181
##гылар	7182
топтоп	7183
транс	7184
ыктым	7185
курамы	7186
курамына	7187
байдендин	7188
кызыкчылыгын	7189
авторитардык	7190
тагыра	7191
ипотек	7192
мук	7193
нү	7194
маар	7195
махм	7196
иштөөгө	7197
салат	7198
учуру	7199
кыдырып	7200
мекемесинин	7201
таасирдүү	7202
илимпоз	7203
режеп	7204
куур	7205
өлтүрүлгөн	7206
метрге	7207
кызматташтыкты	7208
азайтуу	7209
дуушар	7210
данияр	7211
драм	7212
рат	7213
хал	7214
##май	7215
##ыккан	7216
турчу	7217
бөлүш	7218
дарм	7219
кабылды	7220
жасай	7221
чектелген	7222
##ңгүл	7223
аймактарды	7224
олтур	7225
бүтүндөй	7226
жыйынтыгына	7227
1000	7228
имараттар	7229
элчилик	7230
жөнөтүлгөн	7231
макулдашууга	7232
калкынын	7233
ойноп	7234
пакистандын	7235
интег	7236
учкучсуз	7237
исмаил	7238
форма	7239
##ci	7240
##арбек	7241
айлам	7242
##ттарды	7243
##ектүү	7244
салгыл	7245
##ясынын	7246
келишимдин	7247
бюджетке	7248
жогорудагы	7249
аянты	7250
коюуга	7251
адилеттүү	7252
..	7253
шаш	7254
##усуна	7255
барбай	7256
атыр	7257
кылышы	7258
инде	7259
тыян	7260
жасоо	7261
толгон	7262
төлөй	7263
далай	7264
маселеге	7265
тапшырм	7266
мунап	7267
суроосуна	7268
кыйналып	7269
сириядагы	7270
##ативдүү	7271
айдоочу	7272
режими	7273
оштогу	7274
атышуу	7275
##ская	7276
каптаган	7277
оч	7278
##ни	7279
##ота	7280
##бойт	7281
чечкен	7282
##тыгы	7283
коомго	7284
стр	7285
аялдын	7286
текст	7287
парламенттеги	7288
транз	7289
доомат	7290
жылдардан	7291
багытында	7292
машыг	7293
конгрес	7294
өлтүрүү	7295
66	7296
##еде	7297
##re	7298
айсул	7299
десем	7300
каг	7301
өлүп	7302
жазага	7303
автору	7304
##мөк	7305
саясатка	7306
өзбекстандык	7307
сутка	7308
документти	7309
грек	7310
схем	7311
бекешев	7312
архитект	7313
##мир	7314
##арк	7315
айдар	7316
каралат	7317
турам	7318
азгыр	7319
маалымдалды	7320
жайдын	7321
өлкөбүз	7322
чыгарууну	7323
марш	7324
акшга	7325
жүргүзүүгө	7326
органдардын	7327
алмаштыруу	7328
күрөшүп	7329
##орттун	7330
бөлүмү	7331
сөөкт	7332
канада	7333
ишкананын	7334
материалдар	7335
фактысы	7336
кезексиз	7337
демонстранттар	7338
жигердүү	7339
ижарага	7340
95	7341
li	7342
хак	7343
##пөгөн	7344
##le	7345
##өлүп	7346
билебиз	7347
кетп	7348
жайылт	7349
тыгыз	7350
окурман	7351
ачыкт	7352
бузду	7353
250	7354
билдирүүсү	7355
оңдоо	7356
кылмыштар	7357
ыйык	7358
акчасы	7359
эртеси	7360
нарк	7361
долбоорлорду	7362
акими	7363
демонстрация	7364
чындыгында	7365
таалайбек	7366
көчмөндөр	7367
ва	7368
нор	7369
синин	7370
шан	7371
баалап	7372
эмир	7373
депутаттын	7374
сынак	7375
башталганын	7376
начарлап	7377
эместигин	7378
теб	7379
##чун	7380
##орация	7381
##стагы	7382
жатак	7383
билдириш	7384
күнүмдүк	7385
чечм	7386
жооб	7387
кезегинде	7388
жабылган	7389
бузулган	7390
имам	7391
тажикстандык	7392
колдоду	7393
чогулт	7394
франц	7395
экономикасы	7396
көрсөткүчтөр	7397
кремль	7398
64	7399
##ху	7400
##шкы	7401
##генин	7402
маалымдалган	7403
##ктарда	7404
түрүндө	7405
ичип	7406
карашт	7407
191	7408
##лайт	7409
толуп	7410
көрсөтөт	7411
сыйм	7412
кайтыш	7413
штаттардын	7414
ташкент	7415
моюнга	7416
дүн	7417
нас	7418
ого	7419
төш	7420
эб	7421
булардын	7422
турушу	7423
атышат	7424
жартыл	7425
калем	7426
авар	7427
токтогон	7428
акшдагы	7429
тармагын	7430
эркиндикке	7431
##тиф	7432
акысы	7433
аныкталганын	7434
##самбл	7435
рыск	7436
махмуд	7437
жартылай	7438
упай	7439
ңуз	7440
##гип	7441
##вол	7442
жатышты	7443
турум	7444
боронов	7445
негизделген	7446
мартка	7447
айрымдар	7448
көлдө	7449
европага	7450
ыргы	7451
изилдеп	7452
сүрөттөр	7453
кесепетинен	7454
ажыратылган	7455
швеция	7456
айланасында	7457
59	7458
73	7459
##мос	7460
аркы	7461
##абаган	7462
жайда	7463
белгилешет	7464
кошуун	7465
конуш	7466
жардамга	7467
сатылган	7468
##идеги	7469
козголоң	7470
шектелип	7471
аскерлердин	7472
калыптыр	7473
обсерв	7474
соолугу	7475
соолугуна	7476
мусулмандар	7477
##конг	7478
луган	7479
мариуп	7480
ыктымалды	7481
чындап	7482
бирөөлөр	7483
кайс	7484
##уулугу	7485
жабылып	7486
тыным	7487
таануучу	7488
келишими	7489
такси	7490
кубатбек	7491
күткөн	7492
дарылоо	7493
өзгөртүүлөрдү	7494
карантинге	7495
келечеги	7496
коркутуу	7497
этност	7498
жүгүртүү	7499
жергесинде	7500
чөп	7501
ыңк	7502
##үшкө	7503
##имде	7504
жасалып	7505
сатууга	7506
ташуу	7507
тажикстанга	7508
июлга	7509
ойлогон	7510
тайып	7511
сөөгүн	7512
өнүгүп	7513
экономиканы	7514
ишкерлердин	7515
аскаров	7516
климаттын	7517
ноокат	7518
гонконг	7519
##пест	7520
##вили	7521
жылдыр	7522
байсал	7523
кургак	7524
дегендер	7525
##уулукту	7526
колдонул	7527
тургундардын	7528
бюр	7529
абдул	7530
түрмөгө	7531
рыног	7532
коридор	7533
айсулуу	7534
луганск	7535
гал	7536
##бест	7537
##ганда	7538
болсок	7539
элибиз	7540
районуна	7541
тилке	7542
киргизилип	7543
атактуу	7544
отургуз	7545
европалык	7546
бөлүмүндө	7547
монитор	7548
санап	7549
тартиби	7550
61	7551
72	7552
дн	7553
жыны	7554
##лян	7555
арча	7556
карга	7557
карта	7558
##есиндеги	7559
өтүүдө	7560
жапа	7561
жабуу	7562
бекет	7563
өзгөрүп	7564
кылганы	7565
июнга	7566
милдети	7567
түшүндүргөн	7568
топтолгон	7569
журналисттерди	7570
бөлүмүнө	7571
калың	7572
үстүндө	7573
коопсуздугуна	7574
мүлкүн	7575
аяктап	7576
атаандаш	7577
позициясын	7578
куткаруу	7579
фирм	7580
##ol	7581
##it	7582
##иллер	7583
мамлекетте	7584
борис	7585
уюмуна	7586
топко	7587
беки	7588
##алиевдин	7589
абалынан	7590
көбөйтүү	7591
талкууланды	7592
тактаган	7593
иликтөөчү	7594
күбөл	7595
ырастаган	7596
токтоткон	7597
энергиясы	7598
тоскоолду	7599
лагерлер	7600
тажрыйбасы	7601
титирөө	7602
попул	7603
келерки	7604
ашкер	7605
егип	7606
небер	7607
үү	7608
айтууга	7609
кабатыр	7610
##омали	7611
ушин	7612
бөлүгүндө	7613
##оса	7614
апам	7615
компью	7616
бузулуп	7617
эркиндигине	7618
мекемеси	7619
жетекчилик	7620
которуу	7621
катышуучулар	7622
гүлн	7623
өзүңүз	7624
##ляция	7625
баалады	7626
француз	7627
79	7628
суг	7629
##адыр	7630
##иков	7631
##динов	7632
ашат	7633
карашы	7634
жарыяланып	7635
жоопкерчиликке	7636
режиссер	7637
1991	7638
жерлеринде	7639
турмушка	7640
жүрүшөт	7641
офиц	7642
ресторан	7643
туруштук	7644
проп	7645
үйдү	7646
үйүнүн	7647
чечкин	7648
айылына	7649
августка	7650
коркуп	7651
маселелерин	7652
бетер	7653
өзгөртүп	7654
фактылар	7655
жылдардагы	7656
процесс	7657
тутум	7658
федерациясынын	7659
жарлыкка	7660
кс	7661
кк	7662
##bc	7663
билем	7664
байма	7665
балага	7666
түшкөнүн	7667
чечимдер	7668
компаниялардын	7669
тергөөчү	7670
артиллер	7671
көчкү	7672
коррупцияны	7673
жагдайды	7674
түркиядагы	7675
өзгөртүүлөр	7676
товарлар	7677
аралашып	7678
академиясынын	7679
губернатору	7680
африка	7681
роман	7682
гар	7683
пес	7684
##иль	7685
жакыны	7686
көрсөтө	7687
доллардын	7688
импер	7689
милициясы	7690
сунуштап	7691
бүтүрүү	7692
түшүндүрүп	7693
өнөктөш	7694
тинтүү	7695
баратканын	7696
резерв	7697
бекитилген	7698
маңзат	7699
кыянаттык	7700
атомдук	7701
викт	7702
чор	7703
##лект	7704
##дүгү	7705
##ынган	7706
##үлүшү	7707
эмомали	7708
##ланууда	7709
калышкан	7710
балалуу	7711
тыгын	7712
чакырылган	7713
партиялык	7714
сапаты	7715
брю	7716
ишмерлер	7717
басылма	7718
эрежелерин	7719
блогерлер	7720
97	7721
шык	7722
##күл	7723
##дыгер	7724
карайт	7725
##есиз	7726
кав	7727
кайдыгер	7728
##дукция	7729
сөздү	7730
##опол	7731
ойло	7732
курамында	7733
конституцияга	7734
сентябрга	7735
атышууну	7736
илимдеринин	7737
84	7738
нус	7739
пи	7740
петр	7741
ри	7742
##өң	7743
##алышына	7744
кыздардын	7745
команд	7746
жерине	7747
сала	7748
шаарга	7749
конкр	7750
санкт	7751
казакстандан	7752
партиясынан	7753
кырдаалда	7754
кармалганы	7755
документте	7756
которуп	7757
учурларда	7758
медет	7759
буйругу	7760
беттешт	7761
сиңир	7762
үлгүсүндөгү	7763
нааразылыгын	7764
мониторинг	7765
жоро	7766
сууну	7767
кырк	7768
азем	7769
##үгүл	7770
##терди	7771
чакырык	7772
чыкканда	7773
тарапкер	7774
алдым	7775
катардагы	7776
күчтөрүн	7777
ооруган	7778
илдетке	7779
аскери	7780
көлөмүн	7781
фильм	7782
мырз	7783
эпидемия	7784
тынчсыздануусун	7785
ролу	7786
качкындар	7787
италия	7788
дүкөндөр	7789
үйлөн	7790
аңг	7791
бект	7792
##алышын	7793
даң	7794
салыш	7795
терди	7796
чыгарылды	7797
жаштан	7798
жаштардын	7799
компаниясына	7800
тийип	7801
уулан	7802
өкмөттөр	7803
тынчт	7804
жерлерди	7805
тилкесинде	7806
басылмалар	7807
класс	7808
назарбаевдин	7809
каракал	7810
импортт	7811
рейд	7812
лаборатория	7813
майнап	7814
өй	7815
##лы	7816
##бил	7817
##пол	7818
##ub	7819
##енция	7820
##айн	7821
акжол	7822
##кадыр	7823
айтор	7824
иниси	7825
жайларды	7826
жаранды	7827
##сив	7828
чыккын	7829
авторлор	7830
сариев	7831
тармактарга	7832
бойлуу	7833
милдеттенм	7834
чатак	7835
спикер	7836
бомба	7837
ашыгы	7838
маарак	7839
ушинтип	7840
ек	7841
тиз	7842
##то	7843
##жай	7844
##ve	7845
##ендер	7846
##емет	7847
##каз	7848
калкты	7849
жайларга	7850
болбошу	7851
көлдүн	7852
уланта	7853
иммун	7854
сунуштар	7855
сырткы	7856
товарларды	7857
күчөтүү	7858
кылымдын	7859
символ	7860
спектакл	7861
лав	7862
##уң	7863
##берг	7864
элден	7865
кызыктуу	7866
катег	7867
абдык	7868
жайкы	7869
жөнү	7870
чакырыктар	7871
согушк	7872
өлкөлөрүндө	7873
табылып	7874
кеңештеги	7875
ээлик	7876
поли	7877
ассамбл	7878
ишенип	7879
кенж	7880
кулап	7881
минтип	7882
ажыратуу	7883
айырма	7884
өнөктөштөр	7885
бөлүштүр	7886
камсыздандыруу	7887
vi	7888
аэ	7889
##оди	7890
алчу	7891
##ттик	7892
##езд	7893
билбеген	7894
##скы	7895
##гөнү	7896
##ометр	7897
экендиги	7898
терез	7899
айткандай	7900
жүргөндө	7901
спут	7902
жеткирип	7903
элчилигинин	7904
кыргызстандыктардын	7905
алектенген	7906
ыраазычылык	7907
корпорация	7908
өпкө	7909
сталин	7910
69	7911
клоо	7912
мом	7913
памир	7914
сектор	7915
##финг	7916
турукта	7917
каналы	7918
жапаровду	7919
декабрга	7920
акциясы	7921
сиздер	7922
кыймылсыз	7923
талибдердин	7924
ыкма	7925
деңгээлге	7926
өлтүрүүгө	7927
талкуулап	7928
ноябрга	7929
куугунтукт	7930
беттеш	7931
кримтө	7932
ресурстары	7933
козгоп	7934
фейсбук	7935
хамастын	7936
кримтөбөл	7937
жанын	7938
физ	7939
##ктер	7940
##ырап	7941
катышы	7942
мамбет	7943
мамлекетти	7944
көзүн	7945
евген	7946
берилерин	7947
сатык	7948
апрелдеги	7949
продукция	7950
адистердин	7951
бюджеттин	7952
германияда	7953
үйлөрдүн	7954
сулайманов	7955
заводун	7956
ксдп	7957
78	7958
аса	7959
доз	7960
пе	7961
чинов	7962
##боого	7963
##стүү	7964
бергиле	7965
##станция	7966
##ске	7967
катышууга	7968
катышууда	7969
европада	7970
электигин	7971
мамилени	7972
натого	7973
алтынбек	7974
мүмкүнчүлүгүн	7975
сарай	7976
далилдер	7977
күзүндө	7978
кетишин	7979
молдок	7980
балыкчы	7981
түтүн	7982
төңкөр	7983
зулушев	7984
ичи	7985
ле	7986
лат	7987
##уктан	7988
##поо	7989
##артуу	7990
бах	7991
атылган	7992
##баштык	7993
түзүүнү	7994
терг	7995
##осп	7996
сомдун	7997
##ести	7998
мынча	7999
##матовдун	8000
алынганы	8001
беренелер	8002
өндүрүлгөн	8003
##оолорго	8004
такталган	8005
кылмыштарга	8006
кыйноо	8007
каражаттарын	8008
экономиканын	8009
ниетин	8010
клиник	8011
бактыбек	8012
версия	8013
үмүттөн	8014
конкреттүү	8015
st	8016
дук	8017
чөн	8018
##өрман	8019
берем	8020
берчү	8021
аксак	8022
көрдүк	8023
өлкөл	8024
салышкан	8025
жалдан	8026
##иктери	8027
билимдүү	8028
геоса	8029
салынып	8030
##баганы	8031
учактар	8032
өкүмү	8033
күнөөсү	8034
талаптарды	8035
оюм	8036
брифинг	8037
барымтага	8038
геосаяс	8039
чег	8040
##сунун	8041
##нун	8042
##ылда	8043
алсыз	8044
бирөөнүн	8045
тоң	8046
кайткан	8047
кайрым	8048
бөлтүр	8049
##цид	8050
өткөнү	8051
президентти	8052
табыш	8053
жүзөгө	8054
видеолор	8055
күрөшү	8056
койгону	8057
жарымы	8058
киргенден	8059
келечек	8060
##ing	8061
молдов	8062
кишилердин	8063
чамасында	8064
номур	8065
күтүүсүз	8066
tim	8067
интеграция	8068
ккм	8069
сас	8070
##куп	8071
##ылса	8072
##айм	8073
элине	8074
##динг	8075
мамат	8076
орусча	8077
бизден	8078
белек	8079
казына	8080
бөлүштү	8081
коопер	8082
аскерге	8083
чарчы	8084
чарага	8085
дедим	8086
эсептешет	8087
алмашкан	8088
бүтүм	8089
бурул	8090
чабуулдар	8091
кызматкерлерин	8092
келиндин	8093
##баганын	8094
мэриясы	8095
ташиевдин	8096
ишкерлерге	8097
көрсөткүчү	8098
мектептерде	8099
ымды	8100
поэ	8101
өстү	8102
масштабдуу	8103
тынымсыз	8104
fa	8105
браз	8106
ван	8107
саты	8108
чи	8109
##уя	8110
##тү	8111
##ырбек	8112
##овду	8113
жатабы	8114
кылса	8115
тоз	8116
кайдан	8117
##чиев	8118
саясатта	8119
чекит	8120
коомунун	8121
тармакта	8122
токио	8123
сабактар	8124
жолугушуусу	8125
сайттар	8126
ооганстандан	8127
кыйынчылыктар	8128
кичине	8129
коммунисттик	8130
алымкадыр	8131
##калый	8132
гидр	8133
жүргүнчүлөр	8134
комендан	8135
кайсыл	8136
74	8137
аида	8138
пот	8139
##алл	8140
бахм	8141
айдап	8142
бербеген	8143
жолдон	8144
жаткандай	8145
жазуучулар	8146
салттуу	8147
көтөрдү	8148
токтотулган	8149
катышуучулары	8150
тири	8151
өлтүрүп	8152
көптөн	8153
тартипте	8154
судьясы	8155
жоготуулар	8156
оорукананын	8157
импорт	8158
баңгизат	8159
под	8160
айды	8161
##дугун	8162
айтса	8163
мамлекеттен	8164
боршай	8165
эсеге	8166
мария	8167
айылдык	8168
бийликтеги	8169
аракеттерге	8170
кулак	8171
экөөбүз	8172
коёт	8173
акаевдин	8174
жаныбек	8175
палатасынын	8176
соцтар	8177
клар	8178
ңүз	8179
##зе	8180
алек	8181
жагым	8182
арасы	8183
келүүгө	8184
коргогон	8185
сапат	8186
жекшемби	8187
планын	8188
пландалган	8189
жаратат	8190
илдеттен	8191
мэриянын	8192
аппараттын	8193
сексуалдык	8194
ерев	8195
жамааттык	8196
жонсон	8197
жүгүрт	8198
майыптыгы	8199
төңкөрүш	8200
бразил	8201
боршайком	8202
##она	8203
##тте	8204
артт	8205
##ымдар	8206
##дөшт	8207
өздөшт	8208
каж	8209
жолукту	8210
жүрүү	8211
кооз	8212
учкан	8213
жазылат	8214
инсп	8215
жайлардын	8216
ошолор	8217
президенттер	8218
колдонулуп	8219
миллиондой	8220
көтөрүү	8221
ларынын	8222
1992	8223
эрежелерди	8224
мезгилинде	8225
иштетип	8226
иретинде	8227
каналына	8228
россиянын	8229
ойногон	8230
убактысы	8231
компьютер	8232
брюсс	8233
пир	8234
##яд	8235
##пө	8236
##ur	8237
бирот	8238
үчтөн	8239
көрөт	8240
башкаларга	8241
киришкен	8242
алынышы	8243
журналисти	8244
долбоорго	8245
ырчы	8246
эпт	8247
тилкелер	8248
ысымы	8249
стацион	8250
саламаттыгы	8251
биротоло	8252
зат	8253
ист	8254
роза	8255
ши	8256
##ңер	8257
##ыгынын	8258
##чаб	8259
болдук	8260
##усун	8261
туристтик	8262
##еттеги	8263
короо	8264
башташты	8265
отстав	8266
агасы	8267
кайрат	8268
ишмердигин	8269
тайп	8270
биримдигине	8271
пайдаланууга	8272
мүчөлөрүнүн	8273
отурумунда	8274
грузия	8275
юристтер	8276
сакай	8277
көрүнүштөр	8278
командир	8279
тилектешт	8280
обсервация	8281
дым	8282
па	8283
хир	8284
чегин	8285
болгар	8286
##укаев	8287
жаткандыктан	8288
камап	8289
иштеринин	8290
уюмдарга	8291
кабарчы	8292
киргизүүнү	8293
араң	8294
баштаганда	8295
баткендеги	8296
чакта	8297
акциясына	8298
израилге	8299
жагдайда	8300
мекеним	8301
адистери	8302
##ахта	8303
программасынын	8304
дүйшөн	8305
##дүүлүк	8306
мекемелердин	8307
жоготуп	8308
орнотуу	8309
айтканын	8310
технологиялар	8311
##ография	8312
##ографиялык	8313
шакир	8314
байсалов	8315
гүлнара	8316
гул	8317
түндө	8318
фак	8319
##лукка	8320
##гулов	8321
##көй	8322
##омет	8323
эмеспиз	8324
##терн	8325
компани	8326
##үктөн	8327
келишпест	8328
абадда	8329
спортчулар	8330
серб	8331
үйлөрдү	8332
түркмөнстандын	8333
төгүндө	8334
ураан	8335
чагымчыл	8336
талабын	8337
эдил	8338
##бөө	8339
##mi	8340
##хак	8341
##ена	8342
##ори	8343
##стаг	8344
##иясын	8345
карас	8346
келдим	8347
туруш	8348
абзел	8349
мурат	8350
ичим	8351
##арова	8352
батукаев	8353
жабдыктар	8354
өлкөлөрүнө	8355
унун	8356
эсептеп	8357
курулушт	8358
милициясынын	8359
кулу	8360
калаанын	8361
республикасы	8362
сындады	8363
убакыттан	8364
бербөө	8365
клиникалык	8366
көздөйт	8367
болушунча	8368
кастыкты	8369
каракалпак	8370
мана	8371
обо	8372
##мент	8373
##ерине	8374
баалан	8375
жатыш	8376
##өлү	8377
##епция	8378
көрбөй	8379
ачууга	8380
##иби	8381
түб	8382
бекназаров	8383
пландап	8384
ашырууга	8385
укуктарынын	8386
башаламандыктар	8387
күзөт	8388
мобилдик	8389
кеңсеси	8390
схема	8391
согушкерлер	8392
сасык	8393
кооператив	8394
рыс	8395
фабр	8396
##үлөрүн	8397
сах	8398
аларда	8399
жазында	8400
теракт	8401
##ламент	8402
берүүчү	8403
багып	8404
азияда	8405
көңүлүн	8406
документтери	8407
документтерин	8408
телефондон	8409
мүнөтт	8410
өтүнүчүн	8411
макамын	8412
газадагы	8413
өстүр	8414
корутунд	8415
айламп	8416
клара	8417
бок	8418
см	8419
өбөл	8420
##дах	8421
арты	8422
##ымды	8423
##ович	8424
##өлөт	8425
айтпай	8426
көрдүм	8427
колдуу	8428
канатбек	8429
учурга	8430
камбар	8431
ооруну	8432
орток	8433
жүргүнчү	8434
аткарууга	8435
кеме	8436
жолугушту	8437
спорттук	8438
путинге	8439
буруп	8440
бошотууну	8441
жоопкерчилигине	8442
демилгесин	8443
грузиянын	8444
шарттары	8445
квт	8446
баскын	8447
жогорулатуу	8448
эмгеги	8449
шерикт	8450
жалданма	8451
өбөлгө	8452
сцен	8453
##хай	8454
##хоз	8455
##алдар	8456
арстан	8457
баласын	8458
динара	8459
энтони	8460
аялдарды	8461
күркүр	8462
кеңешме	8463
уулум	8464
диагн	8465
кармалгандардын	8466
жумушчулар	8467
инфляция	8468
тиреш	8469
республиканын	8470
каражаттарына	8471
жолдомо	8472
вируска	8473
тийгизген	8474
аткылоо	8475
фонддун	8476
ыктыярчылар	8477
коммуникация	8478
американын	8479
жабырлануучу	8480
реестрине	8481
авиакомп	8482
дөр	8483
##заков	8484
##енци	8485
жылдардын	8486
жазышты	8487
##асыңар	8488
аяктады	8489
аймагын	8490
оккуп	8491
кошун	8492
дарегине	8493
жаңыдан	8494
кыйра	8495
көзөмөлүндө	8496
тапшыруу	8497
талкууланган	8498
дайынд	8499
аскерлерди	8500
администрациянын	8501
тартипти	8502
тендер	8503
британияда	8504
микро	8505
рейтинг	8506
чечкиндүү	8507
жен	8508
оке	8509
##ухам	8510
##лугу	8511
##олорду	8512
багын	8513
биринен	8514
кайг	8515
жолдору	8516
шайланып	8517
ичине	8518
##аттарын	8519
киргизди	8520
кеңешине	8521
таанышып	8522
жолугушкан	8523
##диктерди	8524
белгиленет	8525
катышуусу	8526
кадамжай	8527
улантууда	8528
телеканалы	8529
чектөөлөрдү	8530
осмонов	8531
эптеп	8532
##гим	8533
##кеч	8534
##ерго	8535
алдыр	8536
##дес	8537
##имит	8538
##усств	8539
каш	8540
мамлекеттерге	8541
баскан	8542
термин	8543
макала	8544
таппай	8545
айыппул	8546
соттон	8547
диасп	8548
ишенем	8549
тарыхта	8550
агент	8551
козголду	8552
дыгын	8553
эсепке	8554
талаптарын	8555
адабий	8556
жарлыгы	8557
искусств	8558
чеченстан	8559
менчикт	8560
испания	8561
даңаз	8562
диаспор	8563
нет	8564
рег	8565
##лен	8566
бирибиз	8567
##абаев	8568
дегени	8569
кетүүнү	8570
айылга	8571
жакындарынын	8572
талкалан	8573
уланат	8574
сунушталды	8575
100дөн	8576
бошотууга	8577
адвокаттары	8578
өнөктөшү	8579
нидер	8580
уурдап	8581
кирешеси	8582
концепция	8583
кылынган	8584
макамы	8585
чалгындоо	8586
шакиев	8587
мейманкана	8588
башчыларынын	8589
мариупол	8590
песков	8591
times	8592
it	8593
зил	8594
кени	8595
квар	8596
рум	8597
тиги	8598
уят	8599
хаб	8600
##бин	8601
##гыч	8602
##гасы	8603
баам	8604
пресс	8605
айтыла	8606
курск	8607
инен	8608
парк	8609
басаң	8610
майк	8611
чараларга	8612
жасоого	8613
##чүлөрү	8614
даярдалган	8615
сапарга	8616
асел	8617
январга	8618
жүзү	8619
беренелери	8620
бейр	8621
курманкул	8622
жерлерге	8623
блок	8624
ырастап	8625
алыскы	8626
жетишпей	8627
токтотту	8628
багыттагы	8629
шамал	8630
аянтында	8631
паспортун	8632
орозо	8633
музыка	8634
дордой	8635
спикери	8636
аткезчилик	8637
тагыраагы	8638
##сивдүү	8639
98	8640
бөт	8641
гим	8642
хез	8643
##ктап	8644
буларга	8645
айтсак	8646
жүрүүдө	8647
инстаг	8648
##асың	8649
күчөдү	8650
жеген	8651
мекс	8652
илгер	8653
##бековдун	8654
##ңгу	8655
ишендир	8656
ирандык	8657
барганын	8658
кадамга	8659
товарлардын	8660
суммасы	8661
бабанов	8662
инстаграм	8663
жей	8664
##стар	8665
##гада	8666
##икага	8667
сая	8668
##итет	8669
салышты	8670
тердин	8671
убад	8672
партиясын	8673
башкарууга	8674
саясатчылардын	8675
токтотууну	8676
финлян	8677
котормо	8678
ыйман	8679
жоопкерчилигин	8680
адвокаттар	8681
үлүшү	8682
калтырып	8683
нарист	8684
мелис	8685
материалдарды	8686
чемпионатында	8687
шаарларда	8688
дрондор	8689
кырсыкка	8690
практ	8691
үндөдү	8692
мухаммедкалый	8693
платформ	8694
дегеле	8695
live	8696
кенже	8697
брюссел	8698
факульт	8699
хезбол	8700
000	8701
71	8702
87	8703
руст	8704
##отту	8705
##аркан	8706
жазасына	8707
##чылыгын	8708
кыдыр	8709
түшүнө	8710
каражаты	8711
сапатын	8712
агенттик	8713
бошотулду	8714
##болот	8715
туңгу	8716
өлтүргөн	8717
##трк	8718
оорулар	8719
эмдөөдөн	8720
санариптик	8721
шейшембиде	8722
көрүстөн	8723
лавров	8724
вет	8725
одон	8726
##үдүн	8727
жаабайт	8728
##имди	8729
жетүү	8730
шаарды	8731
басар	8732
кеңей	8733
борборун	8734
алынса	8735
жабылды	8736
талкаланган	8737
өзгөргөн	8738
эмнени	8739
ээлери	8740
бешинчи	8741
130	8742
##кулова	8743
таласта	8744
бүттү	8745
түркиядан	8746
жактаган	8747
жабыркагандар	8748
түрмөдөн	8749
шарттарды	8750
сссрдин	8751
кагылышуу	8752
бышыкт	8753
ит	8754
лен	8755
резиден	8756
##түп	8757
элдер	8758
турук	8759
абдир	8760
реабил	8761
тилине	8762
берилбей	8763
сакталган	8764
эркект	8765
жеңүүчү	8766
акырын	8767
иликтеген	8768
кечке	8769
тапшырмасы	8770
аралыктан	8771
учагы	8772
ракеталар	8773
жөнөтүп	8774
##ылышын	8775
программасын	8776
ишканалардын	8777
кармаш	8778
дубан	8779
бензин	8780
мүнөт	8781
виктор	8782
асад	8783
med	8784
лап	8785
леги	8786
чер	8787
##кей	8788
##олл	8789
алуунун	8790
алабы	8791
келдик	8792
билүү	8793
сааттан	8794
кийип	8795
жазат	8796
аша	8797
оорусу	8798
иштердин	8799
өкмөтүнө	8800
бишкектен	8801
ушунчалык	8802
исхак	8803
видеого	8804
оюндарына	8805
соодагерлер	8806
капчы	8807
талибандын	8808
үлг	8809
болоч	8810
тилкеси	8811
кырсыгы	8812
өчүрүү	8813
альтерн	8814
аналит	8815
амал	8816
моюнуна	8817
эмгектенген	8818
эсептейм	8819
ратификация	8820
өлкөлүктөр	8821
авиакомпания	8822
реабилит	8823
99	8824
900	8825
##янын	8826
##ердик	8827
##дыкты	8828
айтт	8829
элест	8830
жеткил	8831
балта	8832
учурлары	8833
окуй	8834
коюшу	8835
кырдаалдан	8836
окуялардан	8837
каражаттарды	8838
акысын	8839
сертиф	8840
мелдеш	8841
индиянын	8842
толтура	8843
канааттандыр	8844
тигүү	8845
көрбөгөндөй	8846
жыныстык	8847
пропаган	8848
потенци	8849
одоно	8850
уя	8851
##гем	8852
##сындагы	8853
##хен	8854
##гыс	8855
жатасыз	8856
булуң	8857
##ларынын	8858
##кыч	8859
мамлекеттери	8860
азыраак	8861
аймакты	8862
ашпай	8863
тартууну	8864
окут	8865
чыгарат	8866
төрөт	8867
калгандары	8868
чечимдерди	8869
##ологдор	8870
билими	8871
өзүнөн	8872
сокулук	8873
кесипкөй	8874
жиберип	8875
нерселерди	8876
коштолгон	8877
союзунун	8878
мажбурлап	8879
өнөктөштөрү	8880
байкоочулар	8881
гэс	8882
аламүдүн	8883
лукашенконун	8884
мунапыс	8885
евгений	8886
bbc	8887
hu	8888
##мыр	8889
##ak	8890
##эк	8891
##ri	8892
##ht	8893
##стон	8894
бадах	8895
кароого	8896
сахн	8897
кылдат	8898
##ишер	8899
колум	8900
чыгууда	8901
##орух	8902
2025	8903
болдум	8904
марипов	8905
башкаруучу	8906
сыңар	8907
аткара	8908
акчага	8909
кармалгандар	8910
##чалай	8911
керектиги	8912
ишмердиги	8913
тургуз	8914
акыны	8915
сайтындагы	8916
талдоочулар	8917
дүйшөмбүдө	8918
эмилбек	8919
коллег	8920
туруксуз	8921
ворух	8922
зам	8923
иж	8924
##яция	8925
жагын	8926
акционер	8927
акчалай	8928
колун	8929
дегенге	8930
жазышкан	8931
ашууну	8932
жардамчысы	8933
келтирди	8934
мамилесин	8935
албаса	8936
барганы	8937
сабап	8938
билдирүүсүн	8939
байкалган	8940
инвестор	8941
вакцинаны	8942
парламенти	8943
киевдин	8944
фейк	8945
намы	8946
мечитт	8947
стади	8948
##кусунан	8949
баягы	8950
геосаясий	8951
диз	8952
лик	8953
##лүү	8954
##акта	8955
##енов	8956
##ирээк	8957
##штан	8958
болор	8959
каримов	8960
##өлүү	8961
##евич	8962
барса	8963
корот	8964
абу	8965
балан	8966
##угунан	8967
жыйынына	8968
тараптардын	8969
өткөрүлгөн	8970
адал	8971
алуучу	8972
акту	8973
үнөм	8974
декабрында	8975
180	8976
этап	8977
бурч	8978
агенттиктин	8979
жеткенин	8980
талкуулады	8981
##tional	8982
лөрдүн	8983
көбөйгөнүн	8984
иманалиев	8985
өкүнүч	8986
редактору	8987
кайрымдуулук	8988
хирург	8989
абдирас	8990
86	8991
yo	8992
агып	8993
чей	8994
##дыл	8995
билбейт	8996
жетпеген	8997
казакбаев	8998
айылдын	8999
110	9000
мектеб	9001
көзөмөлүнө	9002
дале	9003
баштаганы	9004
артисти	9005
вирустан	9006
күйөрман	9007
максатта	9008
архе	9009
үрөй	9010
адилетсиз	9011
дүрбөл	9012
чындыкка	9013
чиновн	9014
хр	9015
хас	9016
##анек	9017
##елик	9018
орхан	9019
өтчү	9020
үйүнөн	9021
доллары	9022
апел	9023
түркиялык	9024
тиханов	9025
абалына	9026
##дикте	9027
2006	9028
оюндары	9029
өндүргөн	9030
ович	9031
дайындоо	9032
сезген	9033
жиберди	9034
атамбаевди	9035
##man	9036
байланышып	9037
идеология	9038
##иттик	9039
убакытта	9040
барышы	9041
грант	9042
рекорд	9043
жеңилдетилген	9044
маршр	9045
үлгүр	9046
92	9047
бин	9048
чуул	9049
##гог	9050
##оси	9051
##ec	9052
##ir	9053
##loo	9054
##стра	9055
арав	9056
бердик	9057
кызын	9058
акка	9059
##ишет	9060
маалы	9061
мыйзамы	9062
көпкө	9063
суранган	9064
кабарлашты	9065
өзбекстандан	9066
сүрөткө	9067
арыздан	9068
2007	9069
ишмердигине	9070
илдети	9071
өзгөртүүгө	9072
тиркем	9073
мамлекеттерде	9074
активисттердин	9075
ооруканалар	9076
##октор	9077
себептүү	9078
өлчөмдө	9079
ойлонуп	9080
кишилерди	9081
маданияты	9082
делег	9083
атайылап	9084
чиркөө	9085
альянс	9086
##ight	9087
архитектура	9088
жеткиликтүү	9089
адеп	9090
латын	9091
мүр	9092
роб	9093
##eg	9094
кыларын	9095
##доону	9096
жерин	9097
коюшат	9098
кызматтары	9099
жанына	9100
сүйлөшүүгө	9101
такай	9102
калаасы	9103
деңгээлин	9104
автоунаалар	9105
чогултуу	9106
кызыкчылыгына	9107
баарынан	9108
жунуш	9109
драма	9110
айдың	9111
##чабуул	9112
румын	9113
дүрбөлөң	9114
дог	9115
чүл	9116
ып	9117
##тоо	9118
##пром	9119
тармак	9120
өлдү	9121
калп	9122
көрүүнү	9123
жаткандардын	9124
байг	9125
жөнүн	9126
түшүм	9127
##исс	9128
стол	9129
окуялардын	9130
жүргөндөр	9131
төртөө	9132
ишенбей	9133
байкоочу	9134
имараттын	9135
назаров	9136
кадыров	9137
машинелер	9138
маалымдагандай	9139
башаламандыкка	9140
inter	9141
рух	9142
кийлигишүү	9143
бомб	9144
саймаити	9145
ызы	9146
тынчтыкты	9147
соцтарма	9148
нетан	9149
дэ	9150
фл	9151
булган	9152
турарын	9153
тарга	9154
алганга	9155
арачылар	9156
түшүнбөй	9157
адиси	9158
күтүлүп	9159
системасына	9160
дубай	9161
##ошуп	9162
тапканын	9163
далилден	9164
тобуна	9165
куткаруучулар	9166
дооматтарды	9167
муфтий	9168
мөңгүл	9169
купуя	9170
##сти	9171
каралууда	9172
##даны	9173
келчү	9174
турбай	9175
кылууну	9176
куран	9177
бийикт	9178
учураган	9179
үйүн	9180
айыптар	9181
президенттери	9182
урулган	9183
даярданып	9184
ушунча	9185
аймактардагы	9186
2003	9187
эмгект	9188
москвадан	9189
тездет	9190
бюджеттик	9191
##дүүлүгү	9192
көйгөйлөрдү	9193
өспүрүмдөр	9194
чөлкөмдөгү	9195
айтуусунда	9196
вич	9197
луу	9198
ноб	9199
туз	9200
##лия	9201
##il	9202
алишер	9203
болгонуна	9204
кызматында	9205
эрки	9206
белгилеш	9207
белгилешти	9208
кышкы	9209
калгандар	9210
тилдер	9211
коопсуздукка	9212
ондон	9213
сапаттуу	9214
эсептеген	9215
маанис	9216
газанын	9217
кулов	9218
мух	9219
октябрында	9220
##струк	9221
имаратынын	9222
каалоо	9223
бейтаптардын	9224
ооруга	9225
нерсеге	9226
зыяндуу	9227
олимп	9228
карызды	9229
##ess	9230
анкар	9231
себептери	9232
ролун	9233
тыкыр	9234
баяндамасында	9235
°,	9236
дум	9237
лөрдү	9238
олиг	9239
сүнө	9240
тым	9241
ыш	9242
##тов	9243
##арка	9244
##иле	9245
##гедия	9246
##ларда	9247
кайта	9248
талдап	9249
балт	9250
жаңыр	9251
күчт	9252
жашай	9253
дарык	9254
айылы	9255
колдонулат	9256
табылганын	9257
милдет	9258
жолугушуулар	9259
иликтөөдө	9260
бошотуп	9261
бүлөсүнө	9262
чүйдө	9263
жашоосу	9264
вакцинанын	9265
экономикага	9266
конституцияны	9267
климаттык	9268
жүктөлгөн	9269
музыкалык	9270
исаев	9271
трагедия	9272
шылтоо	9273
өйдө	9274
клооп	9275
сценарий	9276
ижара	9277
акционердик	9278
актуалдуу	9279
нетанья	9280
дам	9281
див	9282
жук	9283
##агына	9284
##зада	9285
##дый	9286
##амбет	9287
турушкан	9288
акматов	9289
##бады	9290
кетерин	9291
##терин	9292
конв	9293
мүмкүндүгүн	9294
чакырыл	9295
батыр	9296
берилбейт	9297
кесил	9298
кимди	9299
компанияга	9300
сув	9301
козут	9302
аймактарына	9303
жараяны	9304
катышканы	9305
кодексине	9306
гендер	9307
атаандаштык	9308
формат	9309
убакытка	9310
доктору	9311
бука	9312
гидро	9313
арттыр	9314
резиденция	9315
элестет	9316
кибер	9317
нда	9318
туман	9319
##далык	9320
##хр	9321
карим	9322
экөөнүн	9323
прог	9324
көрүлүп	9325
курчу	9326
жүрүшт	9327
баштал	9328
тартылды	9329
бөлүкт	9330
кыйылды	9331
району	9332
киргизүүгө	9333
өлкөлөрдөгү	9334
түшүнгөн	9335
жүргүзүлөт	9336
негизгиси	9337
мекенчил	9338
сезип	9339
самат	9340
пандемияга	9341
айлыгы	9342
элчиликтин	9343
ишкердик	9344
сүрөтүн	9345
өкүлдөрүнө	9346
шарттуу	9347
коммерция	9348
индияда	9349
валют	9350
чуркап	9351
стадион	9352
олигарх	9353
81	9354
уткан	9355
чел	9356
##мын	9357
##бак	9358
##чем	9359
##fi	9360
айк	9361
##ттук	9362
калктуу	9363
министрлери	9364
камты	9365
чыгууну	9366
##ашына	9367
байланыштырган	9368
евраз	9369
жардамды	9370
кеңешм	9371
газада	9372
билдирүүсүнө	9373
оппозициянын	9374
өнөктүгү	9375
басылмасынын	9376
транспорттук	9377
мектепти	9378
заманда	9379
жаңжалда	9380
балдарым	9381
тыныбекова	9382
химиялык	9383
кавказ	9384
бектур	9385
##ube	9386
өздөштүр	9387
82	9388
за	9389
миш	9390
цах	9391
##маматов	9392
##амм	9393
##абад	9394
орчун	9395
тарады	9396
казан	9397
баштан	9398
масалиев	9399
саясатты	9400
сүйүү	9401
энерго	9402
берилгени	9403
бөлүмдөр	9404
залкар	9405
мерчем	9406
секунда	9407
свет	9408
алака	9409
департаменти	9410
портал	9411
лидерлеринин	9412
аталышт	9413
кадимкидей	9414
жактоочусу	9415
эже	9416
логистикалык	9417
буюрса	9418
тукум	9419
макулдашкан	9420
88	9421
шы	9422
##шта	9423
жааган	9424
бошт	9425
##итер	9426
иштеди	9427
канц	9428
абду	9429
кабарчылар	9430
кызматты	9431
жүргүзүүдө	9432
арызды	9433
шайлоолор	9434
пандемиясына	9435
видеодо	9436
сүрөтү	9437
бөгөтт	9438
паспортт	9439
позициясы	9440
чагылдырган	9441
ибраев	9442
мааниге	9443
диагноз	9444
лердин	9445
мык	9446
сн	9447
тбил	9448
##дана	9449
##ңүз	9450
##шек	9451
##вег	9452
##дыктары	9453
таркат	9454
адамз	9455
башпа	9456
керемет	9457
жаңылык	9458
жашар	9459
жалаа	9460
оорл	9461
урду	9462
шаршен	9463
башкарууну	9464
тармактагы	9465
украинадан	9466
жетекчилигине	9467
жолугушууга	9468
жеткирилди	9469
ооганстанга	9470
кайрылууда	9471
бычак	9472
окшогон	9473
токтобой	9474
коргой	9475
коштоп	9476
жаңылыктар	9477
болжолдуу	9478
консулдук	9479
жорж	9480
алдамчылык	9481
сиңирген	9482
сертифик	9483
ашк	9484
дердин	9485
лаган	9486
хай	9487
шала	9488
##уэл	9489
##жиги	9490
##дыра	9491
##ияттын	9492
##окко	9493
жатышы	9494
турн	9495
кылышат	9496
болгондой	9497
куру	9498
көзгө	9499
токтакунов	9500
чакырылыш	9501
айылдагы	9502
демарка	9503
илгери	9504
табы	9505
келишимине	9506
жүздөн	9507
оюндар	9508
сизге	9509
кайталап	9510
машинен	9511
иликтөөгө	9512
бейтаптын	9513
жаратууда	9514
тилкесин	9515
иштетүүгө	9516
акындын	9517
орно	9518
жараксыз	9519
өкүлдөрүн	9520
жоготуу	9521
телеканалынын	9522
каптап	9523
ферган	9524
озоди	9525
жыг	9526
студенттердин	9527
ипотекалык	9528
норвег	9529
оккупация	9530
шалаак	9531
te	9532
ахм	9533
зоо	9534
игор	9535
руз	9536
суп	9537
устав	9538
цех	9539
##шов	9540
##штын	9541
баалаган	9542
##шкени	9543
##кады	9544
комуз	9545
курсан	9546
кетчү	9547
казуу	9548
түзүлөт	9549
жарандыгы	9550
жапкан	9551
башкысы	9552
багыты	9553
багыттар	9554
теңге	9555
кулаган	9556
жеткирген	9557
көйгөйү	9558
пайыздык	9559
ниет	9560
баракчасында	9561
ишкерлерди	9562
жапониянын	9563
азайган	9564
тийгизип	9565
шарттарын	9566
авиация	9567
ылдый	9568
соккулар	9569
билдиришинче	9570
брифингде	9571
каракалпакстан	9572
агыз	9573
норма	9574
оок	9575
тээ	9576
##агын	9577
##кам	9578
алына	9579
##ызын	9580
арын	9581
кая	9582
атасынын	9583
калчу	9584
учурган	9585
коомдогу	9586
изол	9587
тилде	9588
жарыялоо	9589
даярдан	9590
дүйнөдөн	9591
чектел	9592
качуу	9593
газпром	9594
түштүгүндөгү	9595
сооронкулова	9596
союзда	9597
куугунтукка	9598
ооздукт	9599
толкуну	9600
##utube	9601
сейил	9602
айларда	9603
##ram	9604
асылбек	9605
падыш	9606
ээрч	9607
##national	9608
кылмышк	9609
интеллект	9610
түндүгүндөгү	9611
media	9612
абдирасулова	9613
youtube	9614
аккаун	9615
догдур	9616
international	9617
pr	9618
сүн	9619
уст	9620
##лукту	9621
##гүз	9622
##гелди	9623
##дс	9624
##алоого	9625
##иканын	9626
артта	9627
айтматовдун	9628
##ыштык	9629
башчыл	9630
жайды	9631
түшпөй	9632
өкүлүнүн	9633
бекеттер	9634
өзгөрдү	9635
азыркыга	9636
сунушталып	9637
уюштуруучулар	9638
кубог	9639
темирлан	9640
калаада	9641
образ	9642
ачылат	9643
агартуу	9644
чыңдоо	9645
чыгармачылык	9646
артыкчылык	9647
жетекчилеринин	9648
жоромол	9649
искендер	9650
ылдамдыгы	9651
түрлөрү	9652
чөг	9653
махмудов	9654
апелля	9655
тымызын	9656
ii	9657
дур	9658
ив	9659
карым	9660
ың	9661
##мира	9662
##ьев	9663
##ау	9664
##эй	9665
##ектору	9666
кылбай	9667
калыш	9668
калышат	9669
абий	9670
түрмөлөр	9671
тартылат	9672
жарыгы	9673
негиздеген	9674
##сация	9675
четиндеги	9676
даярдалып	9677
##ойгон	9678
өмүрүнө	9679
иштегендер	9680
тизмесинде	9681
финалга	9682
көрүнөт	9683
ниети	9684
фрун	9685
жолдорду	9686
жоктугу	9687
формасын	9688
сейрек	9689
поезд	9690
делимит	9691
кожоюн	9692
нидерланд	9693
орчундуу	9694
апелляциялык	9695
зул	9696
ланган	9697
сонун	9698
чылык	9699
##кырып	9700
##ic	9701
##дады	9702
келебиз	9703
жолдогон	9704
кабат	9705
мыйзамдарына	9706
жоочулар	9707
байланышты	9708
кабарланууда	9709
креди	9710
алмашты	9711
карант	9712
коюлат	9713
штамм	9714
акциясын	9715
кубат	9716
урукс	9717
ажыраткан	9718
окуяларынан	9719
катталганын	9720
мамлекеттеринин	9721
суроолорду	9722
чемпионатынын	9723
токтому	9724
тийгизет	9725
салымы	9726
гезити	9727
аракеттерине	9728
батирлер	9729
металл	9730
шинжаңдагы	9731
ишемби	9732
үстөмдүк	9733
83	9734
лю	9735
##ср	9736
##аним	9737
##унова	9738
саак	9739
жоголуп	9740
кычк	9741
мүмкүндүк	9742
абактар	9743
реаним	9744
##ярдуу	9745
каражаттын	9746
сүрүп	9747
төлөөгө	9748
чектешкен	9749
келишимин	9750
келишимдер	9751
окуудан	9752
ажылык	9753
сабалган	9754
башталганда	9755
нарматова	9756
сирияда	9757
алматыда	9758
чалдыккандардын	9759
мээн	9760
сугат	9761
айттым	9762
башпаанек	9763
sp	9764
вол	9765
ен	9766
кус	9767
чул	9768
##мет	9769
##гула	9770
##фил	9771
##алады	9772
##дид	9773
каралды	9774
##ово	9775
кашк	9776
салт	9777
инстанция	9778
казын	9779
##уста	9780
##ософ	9781
майдын	9782
коому	9783
##ози	9784
ойго	9785
саясатчынын	9786
электе	9787
ажы	9788
##дигинен	9789
чабуулунан	9790
оңд	9791
системаны	9792
митингдер	9793
уурдалган	9794
күчөтүлгөн	9795
терроризм	9796
күрөштү	9797
түшүнүктүү	9798
польшанын	9799
шашылыш	9800
ch	9801
вит	9802
##лас	9803
##ot	9804
баарынын	9805
биригип	9806
экстра	9807
##лиц	9808
улана	9809
мыйзамдарын	9810
##дүкт	9811
өтсө	9812
чече	9813
##елеген	9814
##чилиги	9815
жообу	9816
издеген	9817
чарч	9818
берилиши	9819
бүтө	9820
видеону	9821
чаап	9822
албаганын	9823
февралында	9824
кылмыштын	9825
кыймылдын	9826
салгандан	9827
колдойт	9828
катышуусунда	9829
эрежесин	9830
өтүнгөн	9831
нарында	9832
кызматташууга	9833
философ	9834
тартибин	9835
таратуу	9836
артыкчыл	9837
отчё	9838
сүзүп	9839
фермер	9840
мекендештер	9841
этностук	9842
аңгем	9843
игорь	9844
вар	9845
куш	9846
чил	9847
##берди	9848
алмак	9849
атуу	9850
садык	9851
каларын	9852
көрүш	9853
улгай	9854
өткүн	9855
ушунун	9856
ортого	9857
дарыгери	9858
макулдук	9859
чабуулга	9860
топту	9861
планда	9862
ирина	9863
белгиси	9864
кыйынчылык	9865
агр	9866
назгүл	9867
каналдар	9868
харр	9869
санарипт	9870
космос	9871
аалам	9872
human	9873
суверен	9874
right	9875
ация	9876
бюл	9877
##ода	9878
##дагог	9879
##кталай	9880
арген	9881
келери	9882
аталып	9883
ишинде	9884
орусиялыктар	9885
парад	9886
мыйзамына	9887
##сыздык	9888
эсимде	9889
коомду	9890
мара	9891
илбир	9892
биринчиси	9893
крас	9894
крок	9895
организм	9896
тергөөгө	9897
уулун	9898
накталай	9899
январында	9900
уюштурулуп	9901
140	9902
оюндарынын	9903
технологиялык	9904
капта	9905
китеби	9906
үстү	9907
натыйжа	9908
наркы	9909
жашырып	9910
аяктайт	9911
чөйрөнү	9912
калууга	9913
карамагына	9914
педагог	9915
зилз	9916
тихановская	9917
саакаш	9918
экстради	9919
бюллет	9920
wat	9921
екат	9922
иван	9923
нөш	9924
утту	9925
##сб	9926
##сов	9927
##жен	9928
##жав	9929
##ылбаган	9930
орустар	9931
кыздары	9932
##гидр	9933
кетпей	9934
абр	9935
жайлоо	9936
австр	9937
19га	9938
өткөндө	9939
өкмөтүн	9940
##илгени	9941
олжо	9942
азияга	9943
этият	9944
карабак	9945
сизди	9946
максатын	9947
пайыздан	9948
кызыгуу	9949
режимде	9950
козголгонун	9951
кесепетин	9952
коргош	9953
арабия	9954
отурумда	9955
туулуп	9956
класста	9957
жемиш	9958
атаандашт	9959
##ent	9960
авторлору	9961
литв	9962
түзүмдөрүнүн	9963
твиттердеги	9964
тарапкерлери	9965
легитим	9966
камтыган	9967
rights	9968
екатерин	9969
нөшөр	9970
as	9971
төө	9972
чегер	9973
үбүз	9974
##ео	9975
##гум	9976
##жи	9977
бактылуу	9978
##ттары	9979
аранын	9980
бермек	9981
жылып	9982
турушту	9983
##дира	9984
казып	9985
##енти	9986
күчүн	9987
бөлгөн	9988
чыккандардын	9989
каттаган	9990
саналуу	9991
көрсөтүлүп	9992
ылайыкт	9993
түшүнүү	9994
айыптарды	9995
сунуштарды	9996
токтото	9997
тарыхын	9998
тургундарды	9999
