[UNK]	0
[CLS]	1
[SEP]	2
[PAD]	3
[MASK]	4
!	5
"	6
#	7
$	8
%	9
&	10
'	11
(	12
)	13
*	14
+	15
,	16
-	17
.	18
/	19
0	20
1	21
2	22
3	23
4	24
5	25
6	26
7	27
8	28
9	29
:	30
;	31
=	32
?	33
@	34
[	35
\	36
]	37
_	38
`	39
a	40
b	41
c	42
d	43
e	44
f	45
g	46
h	47
i	48
j	49
k	50
l	51
m	52
n	53
o	54
p	55
q	56
r	57
s	58
t	59
u	60
v	61
w	62
x	63
y	64
z	65
{	66
}	67
£	68
§	69
©	70
¬	71
­	72
°	73
·	74
ß	75
á	76
â	77
ã	78
ä	79
ç	80
è	81
é	82
í	83
ï	84
ñ	85
ö	86
ü	87
ā	88
ą	89
ğ	90
ı	91
ŋ	92
ş	93
š	94
ū	95
ƚ	96
ƣ	97
ə	98
ɵ	99
ʙ	100
ʼ	101
́	102
̆	103
̇	104
̧	105
а	106
б	107
в	108
г	109
д	110
е	111
ж	112
з	113
и	114
й	115
к	116
л	117
м	118
н	119
о	120
п	121
р	122
с	123
т	124
у	125
ф	126
х	127
ц	128
ч	129
ш	130
щ	131
ъ	132
ы	133
ь	134
э	135
ю	136
я	137
ё	138
ђ	139
і	140
ї	141
љ	142
ћ	143
ў	144
ѳ	145
ғ	146
қ	147
ң	148
ү	149
ұ	150
ҳ	151
ҷ	152
һ	153
ӊ	154
ӏ	155
ә	156
ө	157
ӯ	158
ا	159
ح	160
خ	161
د	162
ر	163
ز	164
ص	165
ط	166
ظ	167
ع	168
غ	169
ق	170
ك	171
ل	172
م	173
ن	174
ه	175
و	176
ي	177
ُ	178
ِ	179
‎	180
‒	181
―	182
•	183
⁄	184
⁠	185
⁣	186
→	187
−	188
▪	189
●	190
⠀	191
回	192
堅	193
族	194
昆	195
鄄	196
韓	197
鬲	198
	199
️	200
##у	201
##ф	202
##т	203
##й	204
##о	205
##к	206
##м	207
##а	208
##л	209
##ц	210
##г	211
##с	212
##ь	213
##е	214
##з	215
##и	216
##6	217
##8	218
##н	219
##i	220
##w	221
##р	222
##ү	223
##ө	224
##в	225
##u	226
##p	227
##д	228
##х	229
##c	230
##s	231
##п	232
##ы	233
##e	234
##б	235
##d	236
##r	237
##o	238
##m	239
##ч	240
##t	241
##ш	242
##g	243
##ж	244
##ё	245
##я	246
##7	247
##3	248
##э	249
##ң	250
##і	251
##a	252
##l	253
##4	254
##n	255
##k	256
##v	257
##5	258
##9	259
##,	260
##ѳ	261
##h	262
##щ	263
##ı	264
##j	265
##1	266
##2	267
##z	268
##ъ	269
##ӊ	270
##ю	271
##0	272
##b	273
##y	274
##f	275
##ғ	276
##ü	277
##x	278
##қ	279
##ə	280
##昆	281
##.	282
##ƣ	283
##ђ	284
##ɵ	285
##q	286
##̇	287
##ç	288
##*	289
##ن	290
##ك	291
##ا	292
##ح	293
##ҷ	294
##"	295
##ã	296
##í	297
##ñ	298
##ұ	299
##ҳ	300
##-	301
##ą	302
##:	303
##ه	304
##ر	305
##ş	306
##ў	307
##ә	308
##族	309
##)	310
##ä	311
##!	312
##â	313
##韓	314
##é	315
##ū	316
##á	317
##ö	318
##ʼ	319
##ā	320
##ï	321
##ع	322
##ص	323
##ي	324
##$	325
##ћ	326
##ß	327
##م	328
##د	329
##ğ	330
##]	331
##/	332
##ط	333
##ل	334
##ق	335
##;	336
##©	337
##љ	338
##ан	339
##ар	340
##ен	341
##ын	342
##ер	343
##да	344
##ат	345
ал	346
##ин	347
ар	348
##ал	349
##уу	350
##ыл	351
ай	352
##ай	353
ко	354
##ык	355
ке	356
##ир	357
##ек	358
ын	359
ган	360
##үн	361
да	362
##ур	363
##ак	364
##ол	365
##ун	366
##гы	367
де	368
ан	369
##ыр	370
ат	371
ка	372
##ле	373
##ик	374
##ул	375
##аш	376
##өр	377
##ия	378
##он	379
мен	380
##ор	381
##ил	382
##ди	383
##ам	384
бир	385
##ды	386
##өн	387
тар	388
иш	389
ин	390
га	391
##кт	392
##ана	393
##ма	394
менен	395
##лг	396
та	397
##ра	398
##ып	399
##ыз	400
##ст	401
##ган	402
жана	403
ор	404
дын	405
бол	406
кар	407
кан	408
##га	409
уу	410
##үү	411
##де	412
лар	413
нын	414
##ка	415
кө	416
##ук	417
##ыш	418
ия	419
##ок	420
##ет	421
баш	422
ак	423
ун	424
жат	425
##ча	426
##ли	427
ер	428
тү	429
бер	430
##из	431
жа	432
##та	433
ки	434
ас	435
ма	436
бул	437
##ус	438
туу	439
ды	440
аз	441
аб	442
##лд	443
кет	444
айт	445
ып	446
##ген	447
өт	448
тур	449
жыл	450
на	451
##те	452
өл	453
өз	454
##ас	455
ул	456
##уш	457
ук	458
эк	459
деп	460
те	461
пр	462
##оо	463
үү	464
нда	465
чы	466
ст	467
##дө	468
кал	469
дар	470
эм	471
кы	472
##юн	473
##мат	474
кыр	475
гы	476
ында	477
##йин	478
аш	479
лык	480
үн	481
ыл	482
со	483
сы	484
##ев	485
че	486
##уп	487
ден	488
##стан	489
##ап	490
##үр	491
үч	492
дин	493
тер	494
лер	495
ый	496
кат	497
кыргы	498
эле	499
ти	500
оюн	501
##ке	502
##ес	503
бил	504
дан	505
сын	506
##өт	507
зстан	508
##дам	509
бе	510
ов	511
ге	512
##ты	513
маал	514
##ги	515
##ары	516
ур	517
не	518
бар	519
ара	520
оюнча	521
##ог	522
ош	523
олг	524
ты	525
ая	526
ет	527
##ис	528
##оп	529
ба	530
үр	531
бай	532
##то	533
ына	534
кыз	535
##ут	536
##ов	537
ок	538
##зи	539
пре	540
тр	541
олгон	542
эл	543
ыш	544
кү	545
##им	546
##кер	547
кер	548
##кө	549
ык	550
ыр	551
ен	552
үчүн	553
өк	554
##үл	555
кор	556
тал	557
мам	558
ир	559
өлкө	560
он	561
бек	562
##ти	563
дү	564
тин	565
гөн	566
тик	567
ап	568
луу	569
мин	570
##ду	571
кай	572
кыл	573
үй	574
ген	575
билди	576
##го	577
ла	578
мамле	579
##чу	580
көр	581
##ым	582
прези	583
ымат	584
иште	585
каб	586
##ло	587
ди	588
сал	589
анда	590
адам	591
ав	592
туура	593
стан	594
лан	595
##лик	596
ком	597
ам	598
ий	599
нин	600
деген	601
##гү	602
минис	603
жол	604
гө	605
##шы	606
##си	607
##сы	608
ол	609
кен	610
##ум	611
дө	612
алд	613
ми	614
уш	615
из	616
алган	617
жок	618
агы	619
анын	620
уч	621
болуп	622
са	623
төр	624
чыг	625
##гө	626
оо	627
жак	628
рус	629
ард	630
русия	631
уз	632
нун	633
##еш	634
тын	635
күн	636
кара	637
кызма	638
чейин	639
өр	640
##дан	641
дун	642
ша	643
##еп	644
##анд	645
##ге	646
кийин	647
ли	648
си	649
лөр	650
бирок	651
эмес	652
керек	653
каз	654
##кы	655
##зам	656
ыйзам	657
дент	658
жаш	659
башка	660
##кан	661
##арт	662
бери	663
нд	664
алып	665
ку	666
##гиз	667
ич	668
##бо	669
дагы	670
жер	671
##ла	672
атт	673
ары	674
жаз	675
эки	676
ре	677
жатат	678
##лги	679
##үк	680
ндө	681
##ара	682
сө	683
ой	684
##үп	685
##мак	686
##ба	687
бу	688
белги	689
##ки	690
им	691
өтк	692
тт	693
көп	694
сун	695
үп	696
кур	697
го	698
ыз	699
ата	700
##от	701
биз	702
унда	703
мур	704
шай	705
ри	706
нүн	707
ил	708
то	709
түш	710
үм	711
жылы	712
сү	713
эс	714
чык	715
ев	716
кел	717
се	718
учур	719
өн	720
акт	721
же	722
ог	723
рда	724
алды	725
##чө	726
сот	727
об	728
азыр	729
кең	730
##ция	731
ач	732
##гыз	733
ду	734
тан	735
ны	736
##лө	737
##кек	738
##раи	739
украи	740
дер	741
инде	742
##дук	743
##ши	744
##ала	745
катар	746
көз	747
өө	748
ра	749
##лиг	750
нт	751
ланыш	752
##лге	753
шайло	754
##ору	755
##асы	756
рди	757
ым	758
##чи	759
ыргыз	760
чек	761
жүр	762
##до	763
арак	764
##лык	765
##ми	766
өкм	767
тө	768
дол	769
кели	770
жог	771
каршы	772
түз	773
ишкек	774
келге	775
##уг	776
жаң	777
чеч	778
киши	779
ей	780
или	781
өкмөт	782
күч	783
ээ	784
до	785
сөз	786
##еле	787
мил	788
мурда	789
ис	790
оку	791
чыл	792
##ме	793
аселе	794
##лдо	795
миң	796
##ика	797
бү	798
жаңы	799
кир	800
##ку	801
андай	802
жет	803
кенин	804
##на	805
уп	806
##иш	807
ую	808
кеңеш	809
сыз	810
бө	811
##лус	812
алуу	813
от	814
ип	815
кол	816
эми	817
жары	818
жар	819
##аны	820
облус	821
ни	822
үл	823
түр	824
ист	825
үш	826
пай	827
алар	828
бо	829
пут	830
ошол	831
орб	832
чыгар	833
ну	834
уул	835
##бек	836
##яб	837
ийлик	838
ме	839
##ект	840
казак	841
орбор	842
дөн	843
ынын	844
##ко	845
жөн	846
##кен	847
уна	848
бас	849
нде	850
үмк	851
чак	852
үмкүн	853
арт	854
жогор	855
колдо	856
болду	857
су	858
жал	859
лүү	860
таж	861
кабыл	862
уб	863
рай	864
ле	865
тык	866
улут	867
оп	868
##чы	869
иялык	870
али	871
ошон	872
аранд	873
##ый	874
аны	875
аскер	876
##ына	877
##тыр	878
##сө	879
талап	880
##өө	881
экен	882
ел	883
асы	884
ага	885
негиз	886
ардын	887
корго	888
ызмат	889
ги	890
ад	891
##би	892
кабар	893
буга	894
келе	895
бири	896
аба	897
араке	898
канын	899
уюм	900
көрсө	901
##не	902
лери	903
жап	904
кон	905
ылм	906
##уну	907
айып	908
алын	909
пан	910
болот	911
катыш	912
гана	913
ект	914
ыкт	915
##чү	916
окт	917
чакыр	918
инин	919
дүй	920
дей	921
тарт	922
сур	923
орус	924
тагы	925
##сат	926
чу	927
##нө	928
шаары	929
дүн	930
дүйнө	931
##со	932
##үз	933
айтыл	934
улутт	935
үнд	936
дик	937
карма	938
чыкка	939
##алы	940
ооп	941
жас	942
райо	943
жарыя	944
кою	945
##бай	946
ошонд	947
ви	948
трлиг	949
аймак	950
ууда	951
евр	952
айтып	953
дай	954
кам	955
икт	956
кооп	957
лор	958
ция	959
ыйын	960
башта	961
ала	962
окуя	963
про	964
ындай	965
түү	966
тарап	967
айр	968
##дер	969
ит	970
##айы	971
баев	972
но	973
сак	974
##иру	975
##дин	976
мат	977
##ел	978
өткөр	979
ент	980
ушул	981
токт	982
огуш	983
парт	984
бей	985
##ск	986
деди	987
оору	988
айл	989
ек	990
ткер	991
тажик	992
рген	993
болсо	994
##че	995
##тай	996
##ине	997
кый	998
коопс	999
мак	1000
сом	1001
милли	1002
ум	1003
##тар	1004
##гон	1005
суу	1006
айыл	1007
шаар	1008
тыш	1009
токто	1010
рас	1011
өткөн	1012
чо	1013
##орт	1014
кытай	1015
пар	1016
келиш	1017
көн	1018
кетке	1019
##кар	1020
алдык	1021
чысы	1022
май	1023
акча	1024
укт	1025
ынан	1026
ларды	1027
жапар	1028
чет	1029
жолу	1030
йт	1031
##маг	1032
##ци	1033
кайра	1034
##ыг	1035
көб	1036
ик	1037
жылд	1038
ине	1039
гон	1040
жылды	1041
чечим	1042
корон	1043
гр	1044
нер	1045
жакын	1046
чыгы	1047
долбо	1048
кайр	1049
путат	1050
бөл	1051
ылд	1052
авиру	1053
өрү	1054
##аг	1055
аары	1056
ардык	1057
кайры	1058
лган	1059
топ	1060
##екч	1061
ууга	1062
ардам	1063
##унд	1064
унун	1065
етекч	1066
адамд	1067
##үм	1068
му	1069
эр	1070
дем	1071
инчи	1072
пания	1073
##ынд	1074
лары	1075
лоо	1076
##лер	1077
ант	1078
олд	1079
лук	1080
өм	1081
##пы	1082
арк	1083
өзбек	1084
##аб	1085
дык	1086
эч	1087
айрым	1088
ян	1089
ту	1090
сиз	1091
жалпы	1092
аг	1093
сунуш	1094
азат	1095
абыз	1096
арды	1097
##лөр	1098
мент	1099
ышат	1100
кт	1101
тары	1102
укук	1103
дон	1104
алдар	1105
##үш	1106
ылайы	1107
азатт	1108
##гил	1109
ут	1110
андан	1111
ро	1112
##сий	1113
аясий	1114
экс	1115
##ем	1116
беков	1117
мика	1118
анык	1119
сына	1120
түн	1121
##ян	1122
таш	1123
ндагы	1124
оң	1125
##ри	1126
##ив	1127
ом	1128
чара	1129
тарды	1130
расми	1131
еке	1132
лист	1133
##лган	1134
лүк	1135
ким	1136
рес	1137
орто	1138
би	1139
##ип	1140
арасы	1141
албай	1142
сынын	1143
уздук	1144
берил	1145
арм	1146
айтты	1147
өзү	1148
жакшы	1149
##гөр	1150
иктүү	1151
ылмыш	1152
##ше	1153
денти	1154
элек	1155
ганда	1156
мо	1157
улам	1158
тил	1159
тун	1160
парла	1161
##анк	1162
##дыр	1163
дүү	1164
аң	1165
авто	1166
три	1167
соң	1168
үргү	1169
жум	1170
өзгөр	1171
еб	1172
чил	1173
чоң	1174
чыгып	1175
аныкт	1176
акыр	1177
үйлө	1178
##рд	1179
тап	1180
үргүз	1181
аты	1182
нө	1183
эң	1184
ышы	1185
ерүү	1186
##ети	1187
үрк	1188
жөнү	1189
каза	1190
тыр	1191
мү	1192
чүл	1193
издин	1194
айы	1195
##оно	1196
нү	1197
кош	1198
башкы	1199
##за	1200
сай	1201
##ери	1202
нуу	1203
эконо	1204
лады	1205
дор	1206
оз	1207
араж	1208
чү	1209
оом	1210
дек	1211
келет	1212
үрө	1213
тоо	1214
үйлөш	1215
##өй	1216
ез	1217
октяб	1218
өмүр	1219
быз	1220
##пи	1221
##үнө	1222
долл	1223
##гу	1224
кана	1225
жур	1226
ина	1227
##гүн	1228
##се	1229
##лген	1230
рк	1231
журна	1232
илд	1233
##угу	1234
акш	1235
илик	1236
күнү	1237
##су	1238
тор	1239
эсеп	1240
ашт	1241
##дар	1242
чылык	1243
ру	1244
##ент	1245
кез	1246
аркыл	1247
мун	1248
дая	1249
##кү	1250
##тур	1251
##но	1252
по	1253
азия	1254
##сия	1255
аж	1256
ганын	1257
порт	1258
иши	1259
тит	1260
ындан	1261
##тап	1262
##скв	1263
##00	1264
теги	1265
##өм	1266
айыпт	1267
үүгө	1268
ча	1269
турат	1270
пайда	1271
мл	1272
калды	1273
өтөр	1274
оор	1275
дөр	1276
нан	1277
ыс	1278
##ей	1279
келип	1280
тен	1281
уучу	1282
орун	1283
мө	1284
нече	1285
иси	1286
алиев	1287
рт	1288
дук	1289
үнө	1290
##тү	1291
эмне	1292
атал	1293
рдаал	1294
чул	1295
аймаг	1296
бала	1297
ыг	1298
лаган	1299
таб	1300
үүдө	1301
ички	1302
абал	1303
өтө	1304
ийлиг	1305
садыр	1306
за	1307
отур	1308
шарт	1309
иссия	1310
пик	1311
рүү	1312
ыгы	1313
бак	1314
деле	1315
мүчө	1316
екеме	1317
бүгүн	1318
ркин	1319
аткар	1320
нган	1321
##еше	1322
берип	1323
кылып	1324
бый	1325
быйыл	1326
жерде	1327
иштеп	1328
аган	1329
йын	1330
өнү	1331
жи	1332
##дү	1333
тери	1334
элд	1335
ергил	1336
аштал	1337
ния	1338
##рел	1339
апрел	1340
соци	1341
март	1342
саны	1343
еп	1344
орган	1345
пикир	1346
абуу	1347
ыйынт	1348
ергө	1349
ергөө	1350
##еби	1351
сүр	1352
аксат	1353
ами	1354
дыр	1355
үрөш	1356
##ани	1357
очу	1358
акы	1359
илдир	1360
сат	1361
сакто	1362
##бу	1363
сыя	1364
тол	1365
##тор	1366
кин	1367
ачык	1368
##вар	1369
аясат	1370
ада	1371
##гөн	1372
көзөм	1373
өөн	1374
так	1375
##ушу	1376
##тер	1377
аттар	1378
ади	1379
ымд	1380
төраг	1381
рм	1382
##гра	1383
##үгү	1384
үз	1385
##ден	1386
дөгү	1387
##ро	1388
##быз	1389
беш	1390
шум	1391
##уун	1392
##ээ	1393
үркия	1394
иликт	1395
кул	1396
боло	1397
жумуш	1398
илиц	1399
гү	1400
##ит	1401
пол	1402
меди	1403
лог	1404
тук	1405
пер	1406
тир	1407
болчу	1408
сүрөт	1409
дары	1410
конс	1411
ектеп	1412
зы	1413
берди	1414
##акт	1415
арма	1416
ишке	1417
##пу	1418
өкүл	1419
бүл	1420
жай	1421
гер	1422
алы	1423
тургу	1424
европ	1425
мал	1426
##гин	1427
инен	1428
ем	1429
сүн	1430
шумча	1431
карат	1432
жаб	1433
ады	1434
бүлө	1435
оол	1436
өс	1437
##ңг	1438
##део	1439
лгон	1440
салам	1441
рат	1442
##мк	1443
арыз	1444
арын	1445
##са	1446
төрт	1447
##лика	1448
январ	1449
##гус	1450
блика	1451
респу	1452
##жы	1453
мек	1454
июн	1455
аев	1456
тааны	1457
ылган	1458
басма	1459
##юл	1460
алыш	1461
уктан	1462
авгус	1463
грам	1464
өкү	1465
төлө	1466
айтым	1467
там	1468
ышты	1469
син	1470
лект	1471
тышкы	1472
сура	1473
рр	1474
##упц	1475
алт	1476
жолуг	1477
тек	1478
ррупц	1479
гын	1480
жаран	1481
##буш	1482
добуш	1483
актив	1484
нояб	1485
укмк	1486
тем	1487
##дай	1488
ири	1489
акц	1490
пл	1491
эсепт	1492
жылга	1493
доо	1494
сан	1495
##рат	1496
суроо	1497
майда	1498
маани	1499
лидер	1500
аткен	1501
теле	1502
өкүлд	1503
дуу	1504
сыр	1505
док	1506
көбү	1507
макул	1508
##ом	1509
##огу	1510
озго	1511
еле	1512
жу	1513
жый	1514
бүт	1515
докум	1516
айлан	1517
каны	1518
түзүл	1519
сында	1520
олушу	1521
коюл	1522
ишен	1523
наара	1524
омдук	1525
салуу	1526
толук	1527
канча	1528
жең	1529
юш	1530
абд	1531
баган	1532
##ене	1533
чүлүк	1534
декаб	1535
түл	1536
юштур	1537
амиле	1538
соту	1539
лектр	1540
саат	1541
бет	1542
ах	1543
көбөй	1544
нанын	1545
нар	1546
##мь	1547
өтүп	1548
кой	1549
зар	1550
көл	1551
кайта	1552
анд	1553
банк	1554
жетиш	1555
##шо	1556
##тип	1557
ерене	1558
##илд	1559
лерди	1560
ылтыр	1561
рам	1562
даярд	1563
абад	1564
зүн	1565
асар	1566
абуул	1567
истем	1568
кий	1569
##юу	1570
бр	1571
армак	1572
талк	1573
жарат	1574
гөчө	1575
өөнөт	1576
карал	1577
ишкан	1578
ууну	1579
фи	1580
путин	1581
ыбыз	1582
нур	1583
тынч	1584
па	1585
лик	1586
тий	1587
##по	1588
калык	1589
олбо	1590
видео	1591
дейт	1592
билим	1593
ыра	1594
өнд	1595
ортос	1596
атчы	1597
бере	1598
жаша	1599
себ	1600
тарых	1601
жазыл	1602
барып	1603
иев	1604
үүчү	1605
чог	1606
##дет	1607
ура	1608
##гент	1609
айг	1610
сент	1611
кинчи	1612
камак	1613
##сү	1614
июл	1615
аттал	1616
сп	1617
үнкү	1618
айым	1619
жек	1620
агент	1621
экени	1622
сентя	1623
лды	1624
алдуу	1625
сыякт	1626
бы	1627
муну	1628
айлар	1629
карап	1630
мир	1631
нерсе	1632
тарда	1633
себеп	1634
жүрүп	1635
артыл	1636
кеч	1637
илген	1638
иргиз	1639
нен	1640
##тет	1641
ация	1642
ыкка	1643
ндар	1644
лу	1645
нов	1646
окуу	1647
чилик	1648
аттык	1649
ылмы	1650
##оку	1651
премь	1652
ана	1653
##це	1654
күт	1655
аас	1656
##үнү	1657
тай	1658
үндүр	1659
арган	1660
##жа	1661
көм	1662
ндук	1663
тиги	1664
укугу	1665
йгон	1666
ылдан	1667
теген	1668
чыкты	1669
тов	1670
ушунд	1671
ман	1672
өкүлү	1673
нерг	1674
жүз	1675
уулу	1676
унаа	1677
тарат	1678
мад	1679
ого	1680
аки	1681
ло	1682
бат	1683
тиеше	1684
зарыл	1685
улан	1686
ылыш	1687
ойло	1688
ашуун	1689
илдет	1690
жаса	1691
ең	1692
##па	1693
фор	1694
шта	1695
түшүн	1696
үнүн	1697
алык	1698
аат	1699
болбо	1700
соңку	1701
эскер	1702
аасир	1703
тта	1704
##лар	1705
##ари	1706
##екс	1707
тташ	1708
кайсы	1709
млн	1710
жан	1711
гүл	1712
ски	1713
урал	1714
чылар	1715
##иц	1716
алк	1717
үнү	1718
текше	1719
уун	1720
##нын	1721
ишкер	1722
ээн	1723
кирги	1724
еш	1725
##уна	1726
иб	1727
сатып	1728
улуш	1729
ынча	1730
үндүз	1731
жума	1732
келди	1733
үшү	1734
жаза	1735
сынан	1736
##гек	1737
тең	1738
жеке	1739
олбой	1740
арга	1741
кезде	1742
грамм	1743
тиз	1744
шт	1745
кызык	1746
10	1747
антке	1748
айгаш	1749
төрү	1750
итети	1751
##дон	1752
титу	1753
урм	1754
соо	1755
деги	1756
лд	1757
ради	1758
ачыл	1759
##бө	1760
бериш	1761
##уз	1762
##тан	1763
отт	1764
жыйын	1765
даш	1766
айылы	1767
уюму	1768
перт	1769
өндүр	1770
канда	1771
аяс	1772
нттар	1773
алат	1774
титуц	1775
леди	1776
ратур	1777
жасал	1778
калк	1779
барат	1780
тышк	1781
зүнүн	1782
рип	1783
мд	1784
ыкты	1785
инс	1786
рак	1787
ияга	1788
нөн	1789
уула	1790
ылуу	1791
ебеби	1792
суна	1793
эг	1794
##же	1795
ели	1796
анан	1797
шаард	1798
нды	1799
оскв	1800
ес	1801
осква	1802
соода	1803
берет	1804
кш	1805
ошо	1806
аялд	1807
дир	1808
ооган	1809
кшнын	1810
фр	1811
эт	1812
убакт	1813
леп	1814
медиц	1815
ашык	1816
фон	1817
атам	1818
үүлөр	1819
уба	1820
сызд	1821
диги	1822
##ера	1823
эне	1824
##ңүл	1825
жашоо	1826
##мин	1827
уюмд	1828
деш	1829
##бы	1830
кап	1831
еген	1832
ания	1833
ток	1834
##мө	1835
мия	1836
бой	1837
кач	1838
зра	1839
өлүгү	1840
тыюу	1841
зраил	1842
рун	1843
салын	1844
сүй	1845
агдай	1846
көңүл	1847
тас	1848
проку	1849
багы	1850
үйү	1851
аштап	1852
мет	1853
##кта	1854
догу	1855
жалал	1856
опера	1857
тизме	1858
##ыт	1859
тынын	1860
илер	1861
темир	1862
брда	1863
дал	1864
амери	1865
июнда	1866
деңг	1867
илим	1868
бөлүм	1869
##мер	1870
абак	1871
деңгэ	1872
табыл	1873
тон	1874
аял	1875
сырт	1876
кала	1877
жөнөт	1878
имов	1879
багыт	1880
жарым	1881
кетти	1882
вак	1883
айда	1884
ышкан	1885
чал	1886
дарды	1887
##көн	1888
иц	1889
рин	1890
ыйыны	1891
кама	1892
үүнү	1893
түп	1894
урук	1895
кайт	1896
куну	1897
алкуу	1898
дөй	1899
во	1900
ишин	1901
алты	1902
ерин	1903
ушуу	1904
изилд	1905
ларын	1906
үст	1907
##ий	1908
ократ	1909
котор	1910
мигра	1911
чын	1912
унан	1913
ула	1914
дүк	1915
алда	1916
төн	1917
жазды	1918
алм	1919
##жо	1920
ерлер	1921
ысык	1922
кетиш	1923
лай	1924
аа	1925
##анс	1926
сап	1927
вла	1928
кунуч	1929
адис	1930
актал	1931
рмалы	1932
илиги	1933
сотто	1934
сок	1935
кем	1936
өнүкт	1937
элдик	1938
влади	1939
милде	1940
ег	1941
каг	1942
бүз	1943
газ	1944
ою	1945
нада	1946
ишмер	1947
сту	1948
##бүз	1949
асып	1950
өнө	1951
алмаш	1952
кыс	1953
##поз	1954
чур	1955
мэ	1956
ех	1957
##бер	1958
болуу	1959
нага	1960
полиц	1961
лы	1962
ибиз	1963
нал	1964
логия	1965
##инг	1966
##мөн	1967
истра	1968
иран	1969
тараб	1970
ууган	1971
өрт	1972
##түр	1973
гач	1974
түрк	1975
огору	1976
армия	1977
алка	1978
өлүм	1979
ирим	1980
урукс	1981
үрүү	1982
азар	1983
бейт	1984
эмгек	1985
##ару	1986
жо	1987
ска	1988
##евр	1989
февр	1990
нат	1991
алкаг	1992
елару	1993
жабыр	1994
ос	1995
жерге	1996
ова	1997
трлер	1998
co	1999
лөрү	2000
нча	2001
ейт	2002
москв	2003
лып	2004
каев	2005
суз	2006
аар	2007
ков	2008
админ	2009
ион	2010
ака	2011
##лам	2012
чүй	2013
##уучу	2014
чулар	2015
шкан	2016
алдын	2017
бакыт	2018
жибер	2019
уг	2020
абалы	2021
мас	2022
депут	2023
июлда	2024
айынд	2025
абдан	2026
өлтүр	2027
өш	2028
ылды	2029
бөй	2030
тарга	2031
катуу	2032
пи	2033
чө	2034
тый	2035
улган	2036
армаг	2037
апкан	2038
радио	2039
асыл	2040
үлг	2041
15	2042
караш	2043
ль	2044
ейтап	2045
умт	2046
уунун	2047
иң	2048
сс	2049
спорт	2050
20	2051
хам	2052
санал	2053
лим	2054
шек	2055
азык	2056
кетип	2057
гөнүн	2058
тобу	2059
көч	2060
нет	2061
сапар	2062
гачкы	2063
ушу	2064
атамб	2065
##йгө	2066
каруу	2067
зыл	2068
лап	2069
зылык	2070
аль	2071
элдин	2072
алыс	2073
##теп	2074
ский	2075
оло	2076
күй	2077
таг	2078
имара	2079
үлүп	2080
шев	2081
алтын	2082
ама	2083
матов	2084
саба	2085
шект	2086
чылыг	2087
ыкча	2088
бри	2089
изге	2090
лерин	2091
пайыз	2092
##дж	2093
исалы	2094
форма	2095
жетки	2096
өг	2097
гин	2098
байт	2099
сине	2100
өнөкт	2101
##ни	2102
сүз	2103
кеси	2104
гем	2105
үнчү	2106
леген	2107
ыктар	2108
илке	2109
келин	2110
аман	2111
тапшы	2112
мед	2113
өттү	2114
елт	2115
ултан	2116
ажыр	2117
##вес	2118
кээ	2119
итинг	2120
сайын	2121
##дын	2122
оппоз	2123
каржы	2124
сотко	2125
кыска	2126
тарын	2127
елтир	2128
жети	2129
езек	2130
жаг	2131
азай	2132
чурда	2133
курул	2134
сокку	2135
ланды	2136
ттуу	2137
нып	2138
ере	2139
##мо	2140
елген	2141
төмөн	2142
ндеги	2143
одо	2144
терди	2145
##джет	2146
юджет	2147
рма	2148
тыйжа	2149
##vi	2150
ив	2151
учак	2152
чогул	2153
йм	2154
буз	2155
чект	2156
пе	2157
##түк	2158
үштүк	2159
басым	2160
пей	2161
орду	2162
млрд	2163
кеп	2164
уд	2165
үк	2166
риш	2167
ндор	2168
аян	2169
мурун	2170
актан	2171
ткери	2172
батыш	2173
көрүп	2174
азуу	2175
уза	2176
##еси	2177
нтари	2178
четке	2179
эске	2180
30	2181
ск	2182
тигин	2183
күндө	2184
акынд	2185
башчы	2186
реж	2187
нарын	2188
аштар	2189
зом	2190
чулук	2191
аният	2192
асылм	2193
ларда	2194
сый	2195
ың	2196
панде	2197
рган	2198
арада	2199
зомбу	2200
рып	2201
мунун	2202
тут	2203
туш	2204
ашыр	2205
тез	2206
апта	2207
эрте	2208
нг	2209
сек	2210
комме	2211
вир	2212
гал	2213
олог	2214
актап	2215
ажыра	2216
ттер	2217
талаш	2218
иримд	2219
ыч	2220
айына	2221
көчө	2222
##инч	2223
кетүү	2224
дирек	2225
мае	2226
рси	2227
инвес	2228
баа	2229
адыр	2230
санк	2231
##рл	2232
ондо	2233
ткү	2234
уулар	2235
рил	2236
генин	2237
митет	2238
рамп	2239
санкц	2240
орт	2241
дым	2242
топто	2243
эгер	2244
үгү	2245
тул	2246
жеңил	2247
аал	2248
таза	2249
киев	2250
рсите	2251
##еже	2252
улант	2253
скер	2254
эреже	2255
инети	2256
кыйын	2257
лануу	2258
штаб	2259
##ама	2260
акция	2261
герма	2262
келат	2263
вакц	2264
их	2265
обо	2266
##дөө	2267
өнүг	2268
ест	2269
китеп	2270
ети	2271
олдоо	2272
терге	2273
үндүк	2274
кийи	2275
бал	2276
ракет	2277
11	2278
өң	2279
кта	2280
##лы	2281
нунда	2282
бирөө	2283
каала	2284
турук	2285
аяг	2286
еки	2287
инф	2288
аши	2289
товар	2290
##vid	2291
анат	2292
##иве	2293
өөчү	2294
иал	2295
декси	2296
кулов	2297
сүйлө	2298
униве	2299
ткөн	2300
баз	2301
кс	2302
ишти	2303
түрдө	2304
езгил	2305
тору	2306
ттан	2307
игра	2308
урам	2309
туп	2310
арба	2311
метр	2312
брита	2313
12	2314
трлик	2315
жазып	2316
ыктын	2317
умтөр	2318
шон	2319
ыктан	2320
дат	2321
ебиз	2322
антип	2323
##мы	2324
түк	2325
алтыр	2326
дээ	2327
анит	2328
баасы	2329
ау	2330
рдук	2331
сөзд	2332
##жан	2333
зыян	2334
евро	2335
covid	2336
пу	2337
бошо	2338
базар	2339
кирип	2340
ери	2341
аякта	2342
лен	2343
иштей	2344
стун	2345
вирус	2346
дээрл	2347
болуш	2348
сынд	2349
##сыз	2350
рь	2351
баала	2352
бур	2353
орунд	2354
екен	2355
здар	2356
асыз	2357
овет	2358
элч	2359
катта	2360
мби	2361
талас	2362
армап	2363
коюш	2364
шайла	2365
даяр	2366
no	2367
ург	2368
##гын	2369
ония	2370
дам	2371
күнөө	2372
көлө	2373
матер	2374
што	2375
куруу	2376
оолуу	2377
жам	2378
туруш	2379
күчөт	2380
чем	2381
станд	2382
бош	2383
ырт	2384
аракч	2385
беген	2386
өч	2387
эсеби	2388
анал	2389
зүү	2390
узду	2391
титут	2392
койду	2393
кесип	2394
күнд	2395
сам	2396
ыраст	2397
рыл	2398
гу	2399
олдо	2400
улар	2401
ланып	2402
алекс	2403
##ту	2404
аянт	2405
пул	2406
окшо	2407
лукка	2408
өмүрү	2409
турум	2410
кошул	2411
инг	2412
сайты	2413
жоо	2414
ырс	2415
улд	2416
муз	2417
ымб	2418
зор	2419
ус	2420
калат	2421
эли	2422
ари	2423
мүнө	2424
##ста	2425
телеф	2426
илди	2427
##лор	2428
диний	2429
узуу	2430
ырсык	2431
рос	2432
кын	2433
коюп	2434
лүгү	2435
тамак	2436
атра	2437
айден	2438
канал	2439
циясы	2440
ишени	2441
гемен	2442
сунда	2443
##маз	2444
нунун	2445
##нес	2446
атыл	2447
нтин	2448
өзүн	2449
аза	2450
уктур	2451
ңыз	2452
ирет	2453
изнес	2454
лмаз	2455
кадам	2456
орно	2457
үлк	2458
ашиев	2459
терин	2460
урс	2461
байка	2462
##анц	2463
туруп	2464
айтыш	2465
оро	2466
ектөө	2467
ыгын	2468
иялар	2469
курч	2470
галим	2471
зел	2472
рын	2473
сана	2474
имди	2475
келти	2476
##йр	2477
изд	2478
аттуу	2479
өөк	2480
дарыг	2481
бш	2482
бөлүн	2483
бетте	2484
етте	2485
маш	2486
мок	2487
түзүү	2488
сакта	2489
сеп	2490
тали	2491
кылды	2492
##сб	2493
жолдо	2494
калаа	2495
зи	2496
бшк	2497
шы	2498
планд	2499
оттун	2500
үт	2501
кли	2502
бизди	2503
играц	2504
лиги	2505
гында	2506
убада	2507
##ва	2508
баян	2509
ондон	2510
урман	2511
еск	2512
үстү	2513
уур	2514
##on	2515
көздө	2516
ндия	2517
лаш	2518
сыртк	2519
мана	2520
фак	2521
танд	2522
факты	2523
етика	2524
транс	2525
мэри	2526
көлөм	2527
аан	2528
күбө	2529
##пө	2530
енко	2531
режим	2532
астан	2533
##үг	2534
таян	2535
үнүш	2536
100	2537
##пар	2538
үйлөр	2539
ред	2540
баса	2541
куучу	2542
##жал	2543
ериш	2544
бара	2545
##шө	2546
##тик	2547
үйшө	2548
арай	2549
бою	2550
амат	2551
ван	2552
айжан	2553
тасма	2554
арала	2555
булак	2556
тапта	2557
шар	2558
уздуг	2559
узак	2560
бирге	2561
ткүч	2562
чемпи	2563
аткан	2564
ымбат	2565
зат	2566
зама	2567
жакта	2568
өөсү	2569
чук	2570
##ья	2571
үзөт	2572
нул	2573
##лет	2574
амсыз	2575
ийи	2576
ылдыр	2577
аэ	2578
айко	2579
таң	2580
ызыл	2581
пас	2582
ира	2583
##сөт	2584
иза	2585
өрсөт	2586
студе	2587
зелен	2588
комп	2589
егиз	2590
жокко	2591
тирүү	2592
талд	2593
##түү	2594
сөзү	2595
арх	2596
олдор	2597
пир	2598
ору	2599
улуу	2600
дөрү	2601
##доо	2602
луп	2603
сир	2604
калы	2605
аңжал	2606
таган	2607
ачан	2608
түшүп	2609
орлор	2610
жиг	2611
арна	2612
атр	2613
газа	2614
14	2615
50	2616
кызы	2617
айылд	2618
##туу	2619
еңиш	2620
дип	2621
иг	2622
13	2623
дыгы	2624
план	2625
дро	2626
дипло	2627
жара	2628
түрү	2629
изм	2630
сия	2631
етект	2632
лас	2633
арг	2634
өзүнө	2635
сирия	2636
##дик	2637
иим	2638
еткен	2639
аппар	2640
олу	2641
курор	2642
чүлүг	2643
олго	2644
нууда	2645
рек	2646
үбүз	2647
мб	2648
шент	2649
иреше	2650
ааты	2651
ылбек	2652
камчы	2653
##йру	2654
доочу	2655
өнөр	2656
оок	2657
имдиг	2658
штуу	2659
ылып	2660
жабыл	2661
ленге	2662
сте	2663
орд	2664
алаа	2665
дигин	2666
тыл	2667
атаал	2668
жарал	2669
медиа	2670
атыш	2671
акиев	2672
ерр	2673
екит	2674
##шу	2675
арыл	2676
жылда	2677
экөө	2678
тив	2679
лыш	2680
мык	2681
ыптыр	2682
сез	2683
араат	2684
евроб	2685
жогот	2686
жүзү	2687
менин	2688
лей	2689
ыштыр	2690
апат	2691
сар	2692
##гар	2693
иштет	2694
фей	2695
шты	2696
түрмө	2697
оңшу	2698
фейсб	2699
рө	2700
огул	2701
үнүч	2702
ысы	2703
манас	2704
мын	2705
сен	2706
муни	2707
ейше	2708
рия	2709
арыш	2710
унт	2711
интер	2712
тиция	2713
тыгы	2714
урмуш	2715
ашине	2716
иалд	2717
нбай	2718
айлык	2719
коно	2720
кароо	2721
од	2722
урамы	2723
##ma	2724
өп	2725
өйгө	2726
ылдык	2727
баянд	2728
##ерб	2729
ндөгү	2730
едер	2731
азерб	2732
синин	2733
терро	2734
шо	2735
лла	2736
каган	2737
жайыл	2738
кес	2739
ыйгар	2740
милге	2741
зия	2742
риз	2743
сөө	2744
тонна	2745
өйгөй	2746
тасы	2747
ве	2748
ник	2749
##шыр	2750
проце	2751
сомго	2752
гинде	2753
мыкты	2754
25	2755
колог	2756
оттук	2757
абаг	2758
оци	2759
чаг	2760
сурак	2761
маалы	2762
аманд	2763
огуз	2764
шондо	2765
чөй	2766
ерс	2767
сттик	2768
апшыр	2769
тарта	2770
ңар	2771
өкүм	2772
чогуу	2773
утб	2774
герде	2775
анк	2776
төрө	2777
ойно	2778
өөлөр	2779
бошот	2780
ино	2781
жетти	2782
ардыг	2783
еди	2784
зм	2785
өкт	2786
##оро	2787
элде	2788
демия	2789
дерди	2790
гынын	2791
16	2792
тех	2793
жери	2794
франц	2795
##чик	2796
жасап	2797
коюу	2798
удья	2799
ыңг	2800
бирик	2801
алиба	2802
чукул	2803
ика	2804
ста	2805
ыт	2806
өтөт	2807
##мит	2808
пал	2809
ци	2810
айма	2811
жолун	2812
вице	2813
вал	2814
бекем	2815
ескин	2816
леш	2817
смо	2818
узуп	2819
зит	2820
оптор	2821
ерден	2822
чыр	2823
чыгыш	2824
датта	2825
оли	2826
##ея	2827
##рө	2828
чөйрө	2829
ият	2830
буйру	2831
сөөгү	2832
абы	2833
енин	2834
жашап	2835
убан	2836
алгыз	2837
айдан	2838
оомчу	2839
##есс	2840
бажы	2841
кун	2842
рем	2843
нстан	2844
сел	2845
оюз	2846
камс	2847
18	2848
мени	2849
ыздоо	2850
кл	2851
нция	2852
ерект	2853
тере	2854
рый	2855
кыркы	2856
үнөн	2857
олот	2858
оюнд	2859
мөн	2860
төө	2861
егия	2862
пози	2863
өгөт	2864
оч	2865
атка	2866
гресс	2867
ркек	2868
уку	2869
жакка	2870
тара	2871
аммит	2872
едера	2873
чыга	2874
өрүн	2875
жүк	2876
сум	2877
турак	2878
олку	2879
лимпи	2880
##вок	2881
айта	2882
төгөн	2883
рыйба	2884
гум	2885
##иг	2886
тууга	2887
сегиз	2888
ароо	2889
башал	2890
баруу	2891
##ого	2892
иңде	2893
ийгиз	2894
лөрдү	2895
гра	2896
лет	2897
тып	2898
олтур	2899
эсе	2900
##чар	2901
карыз	2902
ислам	2903
утбол	2904
бөлүш	2905
ъект	2906
енчик	2907
корея	2908
ризис	2909
эрки	2910
жанд	2911
ыкма	2912
оль	2913
ткан	2914
ани	2915
ения	2916
ыраа	2917
аст	2918
лмат	2919
асына	2920
өтпө	2921
мбиде	2922
лматы	2923
олжо	2924
ный	2925
ктор	2926
огулт	2927
таап	2928
үнчө	2929
аттам	2930
убак	2931
фонд	2932
ью	2933
##му	2934
үмү	2935
чыкпа	2936
начар	2937
чечүү	2938
оңдо	2939
ран	2940
адвок	2941
оокер	2942
лыгы	2943
ласс	2944
кил	2945
нуп	2946
##дүү	2947
калыб	2948
кр	2949
кете	2950
ыгыш	2951
оолу	2952
##эб	2953
мага	2954
үрөт	2955
оңку	2956
акты	2957
еми	2958
вод	2959
ажы	2960
лю	2961
арам	2962
ыйм	2963
##пе	2964
катто	2965
ыймыл	2966
кеми	2967
узул	2968
мер	2969
енс	2970
чилиг	2971
алса	2972
ишине	2973
атор	2974
агым	2975
күнгө	2976
умш	2977
17	2978
убат	2979
туруу	2980
гүн	2981
иж	2982
орма	2983
иштүү	2984
лө	2985
ыма	2986
ашыг	2987
андат	2988
##үшү	2989
күр	2990
мар	2991
түштү	2992
иккен	2993
туул	2994
ээк	2995
уулук	2996
үлгөн	2997
уккан	2998
нтер	2999
згө	3000
лыг	3001
унай	3002
##иза	3003
укта	3004
мей	3005
пара	3006
алга	3007
салык	3008
кириш	3009
көнүн	3010
нуш	3011
түй	3012
баева	3013
##тт	3014
далил	3015
ion	3016
пс	3017
стат	3018
күчт	3019
атып	3020
руз	3021
рл	3022
рдо	3023
арык	3024
ca	3025
тте	3026
адан	3027
илери	3028
шунд	3029
ңиз	3030
октом	3031
арлык	3032
ынга	3033
уусу	3034
жаны	3035
пор	3036
ганы	3037
раак	3038
техни	3039
үлд	3040
дыгын	3041
алым	3042
таан	3043
они	3044
чечил	3045
анча	3046
чынд	3047
арат	3048
ыны	3049
ларга	3050
одон	3051
рол	3052
анция	3053
инче	3054
сооро	3055
инте	3056
лду	3057
ууг	3058
еме	3059
ланга	3060
рүүдө	3061
мол	3062
тат	3063
түлү	3064
араш	3065
ашкан	3066
октот	3067
гран	3068
ехно	3069
40	3070
тация	3071
убай	3072
үркмө	3073
атуу	3074
ышына	3075
рей	3076
скар	3077
дөө	3078
фонду	3079
оско	3080
орг	3081
нттер	3082
фер	3083
жүрүш	3084
андаш	3085
жуг	3086
үрүшү	3087
ндон	3088
еңиз	3089
как	3090
экинч	3091
тыкта	3092
утка	3093
мы	3094
арку	3095
ыздар	3096
сепет	3097
иде	3098
андыр	3099
улма	3100
акын	3101
ийги	3102
үтү	3103
##бей	3104
атты	3105
гыл	3106
згөчө	3107
убуз	3108
лгөн	3109
нф	3110
сүндө	3111
күчө	3112
илими	3113
район	3114
скерт	3115
штар	3116
изде	3117
улду	3118
ши	3119
олугу	3120
оочу	3121
аласы	3122
иян	3123
оога	3124
сези	3125
ожо	3126
шуу	3127
позиц	3128
ника	3129
дөгөн	3130
еги	3131
кмат	3132
аттоо	3133
екция	3134
кула	3135
аап	3136
зо	3137
ноо	3138
арлам	3139
кация	3140
яр	3141
акан	3142
артип	3143
нато	3144
ализ	3145
ерт	3146
диа	3147
чыгуу	3148
асын	3149
ави	3150
агытт	3151
ед	3152
раф	3153
ектеш	3154
анов	3155
кени	3156
утуу	3157
нго	3158
каш	3159
аша	3160
тос	3161
айга	3162
салды	3163
өбүз	3164
зал	3165
лам	3166
##иси	3167
илип	3168
үүсү	3169
нден	3170
жатыш	3171
онат	3172
ктуу	3173
км	3174
айыр	3175
өлүп	3176
гөнү	3177
теш	3178
күл	3179
аттан	3180
ерге	3181
алабы	3182
иби	3183
пт	3184
хан	3185
абду	3186
укукт	3187
пасы	3188
урул	3189
ене	3190
еев	3191
иден	3192
үкт	3193
акала	3194
елип	3195
сың	3196
рманд	3197
ткен	3198
нц	3199
кага	3200
келүү	3201
артуу	3202
екше	3203
тти	3204
оого	3205
асым	3206
боо	3207
вок	3208
фил	3209
лт	3210
##at	3211
терде	3212
урна	3213
талга	3214
апты	3215
жарак	3216
##ge	3217
дашуу	3218
бизде	3219
ооз	3220
аалым	3221
рыг	3222
шат	3223
ашты	3224
бия	3225
десе	3226
тийиш	3227
але	3228
арыя	3229
реги	3230
өтүү	3231
окту	3232
бес	3233
сүнө	3234
умуш	3235
луна	3236
тала	3237
исти	3238
мне	3239
ачуу	3240
ыды	3241
арына	3242
дап	3243
лат	3244
ото	3245
ерв	3246
оргоо	3247
##пай	3248
сттер	3249
ести	3250
гек	3251
мдөө	3252
карт	3253
ута	3254
ортто	3255
лөө	3256
ткар	3257
тей	3258
лын	3259
арбы	3260
аку	3261
дарын	3262
дукт	3263
мон	3264
ттар	3265
йлөр	3266
атар	3267
ферен	3268
сла	3269
ашыл	3270
үйө	3271
руг	3272
ыка	3273
күчү	3274
апа	3275
рга	3276
айтуу	3277
мака	3278
грант	3279
страт	3280
вокат	3281
рыгер	3282
зан	3283
оптуу	3284
азасы	3285
жөнө	3286
ттери	3287
илет	3288
көй	3289
корку	3290
ендер	3291
сим	3292
оолор	3293
рлер	3294
айын	3295
ылдар	3296
дум	3297
уран	3298
дис	3299
удай	3300
руу	3301
йыл	3302
ож	3303
кас	3304
амб	3305
атыр	3306
ыйы	3307
жашыр	3308
ичи	3309
ркинд	3310
чыны	3311
еч	3312
нба	3313
арта	3314
арты	3315
ац	3316
раб	3317
агына	3318
мекен	3319
гыла	3320
сул	3321
хамас	3322
##ну	3323
хн	3324
кирүү	3325
рс	3326
19	3327
аф	3328
өлг	3329
алиб	3330
хника	3331
еврал	3332
фе	3333
келеч	3334
өнгө	3335
##ra	3336
ичине	3337
рий	3338
ыбек	3339
рег	3340
абык	3341
ону	3342
еа	3343
екени	3344
егизи	3345
спи	3346
кети	3347
жин	3348
##хан	3349
окум	3350
артыш	3351
алышы	3352
##лү	3353
аров	3354
арым	3355
урт	3356
ныш	3357
улат	3358
андуу	3359
ынган	3360
улаг	3361
тип	3362
лөрдө	3363
лин	3364
атат	3365
мел	3366
чеги	3367
ондук	3368
таанд	3369
анган	3370
шу	3371
##бе	3372
аткы	3373
анып	3374
көргө	3375
демил	3376
ория	3377
маз	3378
ашк	3379
олдук	3380
бл	3381
апар	3382
ля	3383
төрүн	3384
факт	3385
көйгө	3386
юму	3387
гыс	3388
ырма	3389
екке	3390
армоо	3391
ртуу	3392
60	3393
ima	3394
##стр	3395
тег	3396
адани	3397
коро	3398
гул	3399
юри	3400
курам	3401
тоочу	3402
image	3403
мыл	3404
уудан	3405
арака	3406
дүүлү	3407
уруу	3408
лаг	3409
рист	3410
виру	3411
элди	3412
лиц	3413
мыр	3414
тады	3415
улуп	3416
ирд	3417
ыд	3418
виза	3419
аяк	3420
ымды	3421
үлдү	3422
ne	3423
иринч	3424
көрө	3425
көзү	3426
эпи	3427
ария	3428
атасы	3429
тури	3430
көрдү	3431
малуу	3432
мэр	3433
ияны	3434
луг	3435
ивдүү	3436
ынып	3437
ануу	3438
дим	3439
стук	3440
үтүн	3441
гун	3442
шү	3443
издөө	3444
төгү	3445
олдон	3446
лле	3447
уң	3448
ңкы	3449
лукта	3450
тайын	3451
ктар	3452
ресс	3453
синде	3454
ера	3455
кук	3456
нск	3457
ют	3458
24	3459
22	3460
эси	3461
той	3462
тогу	3463
егер	3464
кад	3465
көрүн	3466
оңо	3467
атта	3468
шкер	3469
геси	3470
нстр	3471
алам	3472
абия	3473
лтын	3474
200	3475
демо	3476
нек	3477
корк	3478
дос	3479
ешет	3480
рды	3481
улу	3482
кч	3483
эксп	3484
лекс	3485
үң	3486
онал	3487
нип	3488
нүп	3489
##ман	3490
шам	3491
аралы	3492
пө	3493
үмд	3494
улак	3495
лорду	3496
ва	3497
мба	3498
ыгым	3499
буу	3500
тууну	3501
гыр	3502
өбө	3503
олду	3504
еррор	3505
80	3506
араба	3507
баг	3508
такта	3509
кынд	3510
##en	3511
ерал	3512
ылкы	3513
өктү	3514
көө	3515
еске	3516
мине	3517
сиң	3518
чилер	3519
ио	3520
деми	3521
тург	3522
жого	3523
бызды	3524
мылы	3525
айге	3526
вер	3527
лег	3528
юн	3529
атын	3530
ерн	3531
колун	3532
алгач	3533
ңг	3534
ришти	3535
руучу	3536
тема	3537
илин	3538
##er	3539
өтүн	3540
дыры	3541
өлгөн	3542
шып	3543
##pt	3544
үндө	3545
гэ	3546
айра	3547
дыкка	3548
бра	3549
##суз	3550
пүр	3551
караб	3552
арыг	3553
колу	3554
опсуз	3555
шан	3556
кире	3557
нансы	3558
уну	3559
ттен	3560
21	3561
рым	3562
сып	3563
тинин	3564
тори	3565
хе	3566
рис	3567
рика	3568
терг	3569
етк	3570
аск	3571
алары	3572
дүгү	3573
өчүр	3574
шка	3575
өрө	3576
маши	3577
дил	3578
елг	3579
сма	3580
ишет	3581
70	3582
нууга	3583
ирге	3584
пон	3585
ттү	3586
ташта	3587
елег	3588
фин	3589
акыт	3590
лышы	3591
еткир	3592
рев	3593
кило	3594
лү	3595
##ви	3596
тыкты	3597
асма	3598
нь	3599
чен	3600
артка	3601
##es	3602
анг	3603
capt	3604
был	3605
##ср	3606
кыла	3607
алба	3608
елек	3609
##бү	3610
жүрө	3611
чөл	3612
гэс	3613
бан	3614
сым	3615
ыйка	3616
ачып	3617
ысым	3618
рында	3619
йбыз	3620
пост	3621
штыр	3622
шуна	3623
бирин	3624
аштыр	3625
имп	3626
дус	3627
нка	3628
ыган	3629
наб	3630
урма	3631
кри	3632
рим	3633
лия	3634
нүү	3635
чи	3636
алап	3637
амы	3638
елбей	3639
сайт	3640
нген	3641
ати	3642
лерге	3643
жы	3644
кыймы	3645
рв	3646
тика	3647
ттүү	3648
хи	3649
ыйлы	3650
аңг	3651
ора	3652
##лга	3653
рд	3654
перат	3655
алан	3656
үлүш	3657
ңү	3658
маан	3659
тамб	3660
ереги	3661
арлар	3662
ылдыг	3663
пы	3664
аи	3665
здө	3666
ирзи	3667
лоого	3668
айла	3669
исал	3670
мис	3671
инд	3672
дерге	3673
спе	3674
27	3675
35	3676
ечи	3677
уа	3678
атак	3679
ылышы	3680
есс	3681
үктө	3682
##ia	3683
азала	3684
нап	3685
23	3686
мына	3687
нче	3688
коло	3689
көпчү	3690
гүндө	3691
ече	3692
абыр	3693
сунун	3694
ачка	3695
адим	3696
лугу	3697
рон	3698
токо	3699
26	3700
неси	3701
уруп	3702
ыруун	3703
үйдө	3704
ико	3705
шип	3706
салыш	3707
аков	3708
##теш	3709
жк	3710
осу	3711
атына	3712
500	3713
нор	3714
инт	3715
етер	3716
луучу	3717
ечит	3718
рет	3719
алма	3720
менти	3721
айд	3722
умушт	3723
еси	3724
ката	3725
жүрг	3726
өлүк	3727
мдүү	3728
шун	3729
ганд	3730
күм	3731
кылы	3732
чам	3733
абар	3734
кырсы	3735
пат	3736
отч	3737
##ябр	3738
##сын	3739
налык	3740
үсү	3741
ашып	3742
ец	3743
ырып	3744
тим	3745
лиев	3746
кус	3747
шыл	3748
абат	3749
илек	3750
еаэб	3751
ита	3752
иясы	3753
екет	3754
улда	3755
арман	3756
90	3757
лов	3758
##кту	3759
ойн	3760
икке	3761
иргел	3762
тым	3763
лукту	3764
ид	3765
үдө	3766
ешкен	3767
лиз	3768
башы	3769
акыры	3770
кция	3771
кв	3772
ерб	3773
вич	3774
адагы	3775
ссср	3776
ирзиё	3777
лга	3778
уча	3779
арад	3780
пов	3781
арка	3782
ылык	3783
ндер	3784
түүгө	3785
иги	3786
наа	3787
ынч	3788
ынды	3789
етип	3790
үрт	3791
куя	3792
сунан	3793
раган	3794
лорго	3795
оно	3796
иктин	3797
ыгып	3798
дыруу	3799
чат	3800
алп	3801
өлөм	3802
арш	3803
жете	3804
арызд	3805
урат	3806
зе	3807
мор	3808
асты	3809
дика	3810
йым	3811
арда	3812
дур	3813
##in	3814
рте	3815
тили	3816
ета	3817
оюу	3818
нтип	3819
өлө	3820
өзд	3821
анада	3822
гуна	3823
жон	3824
тябр	3825
коо	3826
тябрь	3827
in	3828
оф	3829
ылт	3830
уру	3831
мит	3832
муна	3833
st	3834
##ула	3835
улов	3836
ахм	3837
лбо	3838
ылат	3839
куба	3840
риг	3841
нис	3842
суп	3843
база	3844
кере	3845
ыздын	3846
кг	3847
енди	3848
28	3849
инци	3850
аттын	3851
ндөй	3852
рыла	3853
идео	3854
үлөт	3855
еним	3856
лдык	3857
зак	3858
оюл	3859
##ха	3860
барды	3861
ылына	3862
ритан	3863
ити	3864
##ве	3865
лит	3866
вс	3867
нкт	3868
рмат	3869
нуучу	3870
ауд	3871
нчө	3872
уган	3873
тынан	3874
артык	3875
геле	3876
гөндө	3877
ыртка	3878
ини	3879
бад	3880
аңд	3881
уя	3882
ерек	3883
узга	3884
ух	3885
алилд	3886
окат	3887
роз	3888
аала	3889
ирөө	3890
лоб	3891
ушкан	3892
коопт	3893
ыя	3894
алай	3895
урду	3896
реп	3897
шүү	3898
ашы	3899
катчы	3900
рах	3901
иса	3902
лдик	3903
зин	3904
рге	3905
урн	3906
кка	3907
нти	3908
##oo	3909
кыш	3910
##сүн	3911
утт	3912
##ut	3913
ордо	3914
едиа	3915
лынын	3916
усу	3917
өрүл	3918
ель	3919
урасы	3920
өра	3921
ато	3922
угуп	3923
стана	3924
сер	3925
рап	3926
фт	3927
опа	3928
ердик	3929
бөйт	3930
амал	3931
льт	3932
мдун	3933
кла	3934
жатты	3935
овду	3936
дөп	3937
үшкөн	3938
өрага	3939
##ху	3940
реа	3941
ртыл	3942
йман	3943
er	3944
рто	3945
елет	3946
ырга	3947
чүлөр	3948
мында	3949
##ko	3950
кылыш	3951
бакт	3952
елги	3953
кти	3954
урда	3955
ышын	3956
онго	3957
дугу	3958
штары	3959
таты	3960
45	3961
ров	3962
рчу	3963
##юс	3964
гай	3965
мгек	3966
це	3967
карыл	3968
иктен	3969
ентяб	3970
рбек	3971
уста	3972
ье	3973
бю	3974
ним	3975
үрдү	3976
үйөө	3977
гени	3978
ава	3979
тту	3980
өөнү	3981
вка	3982
##he	3983
үнүп	3984
алдан	3985
тро	3986
имдик	3987
поз	3988
kg	3989
re	3990
ндан	3991
кташ	3992
зим	3993
рация	3994
ымдар	3995
лаб	3996
агып	3997
ева	3998
ейи	3999
уюш	4000
көнү	4001
иров	4002
шунда	4003
илдик	4004
300	4005
мдө	4006
ндай	4007
калд	4008
дарга	4009
овго	4010
жашы	4011
утуп	4012
арызы	4013
zko	4014
зун	4015
үшүнө	4016
нду	4017
фа	4018
екети	4019
лууда	4020
төрдү	4021
ардар	4022
жайын	4023
te	4024
уруш	4025
өгө	4026
акс	4027
гиз	4028
аса	4029
ыры	4030
лдуу	4031
пч	4032
тунд	4033
андар	4034
акай	4035
ыша	4036
лип	4037
урас	4038
36	4039
кча	4040
ыно	4041
ерм	4042
берки	4043
еде	4044
##ou	4045
арь	4046
тилин	4047
жэб	4048
скө	4049
отун	4050
33	4051
вет	4052
аде	4053
уй	4054
инал	4055
пөй	4056
ука	4057
дайын	4058
жкку	4059
анде	4060
рит	4061
ранда	4062
тет	4063
байла	4064
лис	4065
анти	4066
онд	4067
лдер	4068
шил	4069
ттык	4070
аштык	4071
ылбай	4072
ртүү	4073
лкө	4074
нам	4075
сон	4076
инанс	4077
ирди	4078
рчы	4079
ейм	4080
екте	4081
вари	4082
енция	4083
еби	4084
сто	4085
кылмы	4086
оби	4087
дөрүн	4088
уттук	4089
ккан	4090
ашына	4091
уулан	4092
күрө	4093
32	4094
рдын	4095
алия	4096
тект	4097
##ce	4098
акал	4099
рид	4100
тапт	4101
new	4102
йка	4103
ндүр	4104
кты	4105
лым	4106
тиш	4107
каба	4108
сей	4109
өктө	4110
норма	4111
ясы	4112
аард	4113
орук	4114
йле	4115
кчил	4116
##ону	4117
наз	4118
сти	4119
үрүл	4120
өөдө	4121
ликт	4122
иева	4123
көмү	4124
иясын	4125
баал	4126
имдер	4127
ипло	4128
аам	4129
нбек	4130
кей	4131
ынчы	4132
ti	4133
зү	4134
айдын	4135
орон	4136
стиц	4137
ушту	4138
ебе	4139
мк	4140
аланы	4141
атив	4142
нышы	4143
улушу	4144
манов	4145
лди	4146
абыл	4147
енде	4148
лыгын	4149
талат	4150
лав	4151
кыйк	4152
мда	4153
берб	4154
етин	4155
илиш	4156
манк	4157
енен	4158
зд	4159
ост	4160
улга	4161
чаб	4162
автор	4163
куб	4164
одекс	4165
отчет	4166
ктеш	4167
##or	4168
теби	4169
тыгын	4170
етет	4171
крим	4172
жд	4173
мды	4174
рен	4175
төт	4176
чан	4177
өгү	4178
үүсүн	4179
стика	4180
беке	4181
раз	4182
75	4183
кут	4184
рул	4185
акта	4186
шону	4187
елгил	4188
ате	4189
ойго	4190
##al	4191
##сун	4192
үндөр	4193
этно	4194
уст	4195
кады	4196
оодо	4197
социа	4198
емо	4199
гам	4200
ткы	4201
ха	4202
ууп	4203
ериле	4204
птө	4205
ква	4206
капи	4207
тист	4208
ндын	4209
табы	4210
оба	4211
коё	4212
жашта	4213
сөзүн	4214
нс	4215
огу	4216
ышт	4217
ном	4218
кчы	4219
ят	4220
ялд	4221
танды	4222
гиле	4223
айк	4224
били	4225
аныб	4226
гор	4227
нес	4228
үд	4229
омдо	4230
аатта	4231
##le	4232
тка	4233
арб	4234
аркы	4235
абай	4236
ектүү	4237
29	4238
рч	4239
ште	4240
өнүк	4241
no1	4242
34	4243
31	4244
йг	4245
тра	4246
##ch	4247
арс	4248
туру	4249
кысы	4250
овд	4251
##нев	4252
арлы	4253
янс	4254
ууд	4255
онуу	4256
бий	4257
режи	4258
өктөш	4259
ека	4260
ума	4261
кармо	4262
мелер	4263
тышуу	4264
ице	4265
лдин	4266
мп	4267
##ина	4268
ирүү	4269
бут	4270
##оз	4271
алил	4272
орк	4273
око	4274
чекте	4275
ео	4276
##st	4277
урак	4278
ынты	4279
өндө	4280
макта	4281
йн	4282
ракт	4283
##ar	4284
анс	4285
лыкка	4286
бел	4287
li	4288
зч	4289
пнев	4290
өзгө	4291
парк	4292
пневм	4293
48	4294
ое	4295
року	4296
чиси	4297
урган	4298
ранс	4299
шаш	4300
аныш	4301
иреш	4302
поли	4303
мдын	4304
рево	4305
рдин	4306
уусун	4307
ени	4308
ндү	4309
аада	4310
сыйл	4311
ордун	4312
44	4313
уга	4314
ыргы	4315
рал	4316
шер	4317
алмак	4318
логи	4319
зиз	4320
здын	4321
енг	4322
ндык	4323
екст	4324
йд	4325
эмге	4326
оциал	4327
нч	4328
пин	4329
шир	4330
яна	4331
дилет	4332
тыны	4333
агын	4334
рмасы	4335
150	4336
былга	4337
иф	4338
хм	4339
гиси	4340
наны	4341
сыл	4342
чки	4343
арап	4344
айык	4345
түндү	4346
лугун	4347
йс	4348
38	4349
ng	4350
гуу	4351
иктер	4352
лгө	4353
рде	4354
үштү	4355
кту	4356
нбаев	4357
аягы	4358
лда	4359
дери	4360
майы	4361
стор	4362
дерин	4363
боор	4364
лот	4365
аржы	4366
ойдо	4367
ектор	4368
55	4369
ймак	4370
стө	4371
кым	4372
нуна	4373
кинд	4374
рман	4375
65	4376
тырып	4377
слав	4378
овдун	4379
пет	4380
айсы	4381
өрүнө	4382
лөрүн	4383
рад	4384
роза	4385
кмш	4386
лкөдө	4387
al	4388
йин	4389
тайт	4390
аалар	4391
олиц	4392
700	4393
мчу	4394
нак	4395
эн	4396
үчө	4397
онг	4398
алиц	4399
рлары	4400
лм	4401
аяна	4402
гонун	4403
дорду	4404
ктив	4405
осо	4406
рлар	4407
атке	4408
башын	4409
онт	4410
олору	4411
акто	4412
эш	4413
ңд	4414
тинг	4415
шамал	4416
аил	4417
гына	4418
ырд	4419
мдуу	4420
гол	4421
##фа	4422
##она	4423
дың	4424
оода	4425
ража	4426
өрүш	4427
нияз	4428
үзө	4429
37	4430
жыр	4431
лдук	4432
хо	4433
ше	4434
айс	4435
рама	4436
дия	4437
мди	4438
нгөн	4439
менд	4440
унд	4441
лүп	4442
нвар	4443
##хта	4444
атпай	4445
тура	4446
угуш	4447
урнал	4448
өбү	4449
арч	4450
кеме	4451
акул	4452
ыгына	4453
ессия	4454
ете	4455
ыйла	4456
сыны	4457
шташ	4458
нж	4459
гар	4460
##уб	4461
андал	4462
отург	4463
плат	4464
очула	4465
арал	4466
коом	4467
лигин	4468
чакта	4469
агыл	4470
жыйы	4471
лбоор	4472
the	4473
уштуу	4474
кунд	4475
дахан	4476
акка	4477
араз	4478
машы	4479
уюшту	4480
дс	4481
ув	4482
ырка	4483
41	4484
ры	4485
рки	4486
даган	4487
ыйна	4488
пад	4489
сузд	4490
тма	4491
ашат	4492
отуз	4493
гүү	4494
##аси	4495
лерде	4496
налда	4497
жайы	4498
чий	4499
кенем	4500
лиг	4501
400	4502
аак	4503
##ах	4504
түүнү	4505
оорон	4506
шарше	4507
үмдү	4508
верд	4509
иплом	4510
мов	4511
анар	4512
эмд	4513
енб	4514
рг	4515
##эл	4516
ашин	4517
лини	4518
түшү	4519
екси	4520
род	4521
бло	4522
жөө	4523
расы	4524
чир	4525
шери	4526
акшы	4527
салма	4528
ызы	4529
ктан	4530
ченем	4531
42	4532
me	4533
мик	4534
ганга	4535
араб	4536
тыя	4537
rn	4538
юу	4539
айпа	4540
прел	4541
сизд	4542
өндөр	4543
масы	4544
ликте	4545
раш	4546
улугу	4547
мекте	4548
згөн	4549
чуу	4550
үрүм	4551
рилди	4552
уура	4553
йдө	4554
чүн	4555
үгө	4556
инди	4557
тыруу	4558
урсу	4559
генде	4560
арых	4561
жуму	4562
ураг	4563
клуб	4564
коомч	4565
чүнчү	4566
шен	4567
үбү	4568
амир	4569
ers	4570
рез	4571
актоо	4572
ургак	4573
бюро	4574
айсал	4575
зона	4576
лк	4577
мпа	4578
ске	4579
чин	4580
##ve	4581
айн	4582
ылда	4583
форм	4584
рдүү	4585
тааси	4586
news	4587
идин	4588
йла	4589
оне	4590
ринде	4591
грац	4592
43	4593
айтар	4594
тран	4595
мдөр	4596
ялдар	4597
эшик	4598
##во	4599
аби	4600
окко	4601
көрүш	4602
еже	4603
ьер	4604
кырыл	4605
мөк	4606
сиял	4607
лл	4608
пп	4609
рке	4610
##зо	4611
укту	4612
аим	4613
ппоз	4614
рамы	4615
39	4616
47	4617
кмөн	4618
лак	4619
ктөр	4620
вар	4621
гүнө	4622
##re	4623
алаш	4624
ерг	4625
ерли	4626
оюнч	4627
билд	4628
етүү	4629
амак	4630
идея	4631
ача	4632
уда	4633
анды	4634
етине	4635
имде	4636
ешти	4637
угу	4638
тында	4639
өңү	4640
лүгүн	4641
reut	4642
бун	4643
таба	4644
көк	4645
көрү	4646
кесеп	4647
мдук	4648
нз	4649
ыбы	4650
өшө	4651
муш	4652
нко	4653
##te	4654
калыш	4655
ектен	4656
ектел	4657
тпө	4658
лыкты	4659
олуг	4660
лея	4661
иңи	4662
on	4663
йк	4664
мду	4665
акси	4666
ипот	4667
аркат	4668
vi	4669
мт	4670
птер	4671
ялы	4672
ату	4673
ырыл	4674
амил	4675
үлөр	4676
икте	4677
эрк	4678
дио	4679
түрүү	4680
бойт	4681
блус	4682
йдар	4683
кпай	4684
тты	4685
босо	4686
литва	4687
меси	4688
алг	4689
##ура	4690
жагы	4691
өлү	4692
арага	4693
етр	4694
етпе	4695
олуп	4696
учуру	4697
актар	4698
омго	4699
зу	4700
йлы	4701
арти	4702
ирде	4703
еф	4704
нте	4705
шык	4706
улук	4707
урд	4708
ний	4709
юл	4710
##дп	4711
анас	4712
апо	4713
ремь	4714
ктагы	4715
ариу	4716
85	4717
гил	4718
шем	4719
өчү	4720
айкы	4721
үрөө	4722
кура	4723
ида	4724
ыймы	4725
еков	4726
рп	4727
шуун	4728
ерине	4729
обс	4730
кезе	4731
адио	4732
иви	4733
йна	4734
ранц	4735
штур	4736
ыда	4737
##юр	4738
боз	4739
аарын	4740
үмдөр	4741
пыс	4742
раа	4743
##ёр	4744
орис	4745
чыкк	4746
агасы	4747
no2	4748
йып	4749
арл	4750
ыпты	4751
еттүү	4752
кери	4753
езде	4754
дини	4755
араң	4756
ранды	4757
лгач	4758
кко	4759
кое	4760
аке	4761
ышкы	4762
енип	4763
уши	4764
куу	4765
уса	4766
ачар	4767
упай	4768
шемби	4769
гно	4770
кб	4771
ох	4772
берг	4773
стик	4774
үйүн	4775
ром	4776
ажи	4777
устар	4778
54	4779
үбө	4780
##li	4781
тага	4782
тиг	4783
жазы	4784
ипте	4785
дүң	4786
емби	4787
елди	4788
уман	4789
тирил	4790
иле	4791
йч	4792
отто	4793
ыктал	4794
кадр	4795
гынд	4796
кырк	4797
талы	4798
балы	4799
рсу	4800
##bc	4801
арчы	4802
ынб	4803
анкт	4804
тац	4805
ако	4806
ерд	4807
диц	4808
өрбө	4809
ээр	4810
ексу	4811
зүндө	4812
оюп	4813
tu	4814
мара	4815
оц	4816
пак	4817
сси	4818
##mi	4819
##an	4820
ишкен	4821
рав	4822
бөгө	4823
лоочу	4824
рина	4825
циал	4826
ri	4827
чүү	4828
урч	4829
ыгер	4830
сумма	4831
мпани	4832
есе	4833
рста	4834
ынд	4835
атайы	4836
ыкчы	4837
акти	4838
тыкка	4839
ондой	4840
ья	4841
унуш	4842
гынан	4843
62	4844
идер	4845
мыш	4846
ног	4847
рик	4848
рба	4849
рюс	4850
түг	4851
геме	4852
мини	4853
ктүү	4854
рлору	4855
атег	4856
тайы	4857
нты	4858
рш	4859
шот	4860
ro	4861
вто	4862
ена	4863
акту	4864
айрыл	4865
үзүл	4866
моо	4867
нк	4868
элге	4869
атура	4870
өтүш	4871
элчи	4872
уту	4873
торду	4874
мтө	4875
600	4876
вге	4877
мга	4878
ранд	4879
фу	4880
часы	4881
өй	4882
тарма	4883
урун	4884
том	4885
tim	4886
58	4887
рж	4888
рчи	4889
таз	4890
енже	4891
басыл	4892
артия	4893
омо	4894
ксдп	4895
57	4896
63	4897
лине	4898
шуп	4899
ндаш	4900
вид	4901
ыгыл	4902
меке	4903
септе	4904
күчтө	4905
мүн	4906
ртка	4907
верси	4908
68	4909
илг	4910
кра	4911
ксы	4912
лес	4913
пто	4914
чус	4915
##фи	4916
нелер	4917
елүү	4918
яны	4919
52	4920
сх	4921
цен	4922
##эр	4923
окку	4924
кайд	4925
коман	4926
рази	4927
кирге	4928
мсыз	4929
эпо	4930
алим	4931
дес	4932
анты	4933
кант	4934
берд	4935
лиши	4936
поэ	4937
рча	4938
##зел	4939
##ri	4940
калем	4941
алыгы	4942
46	4943
49	4944
53	4945
сары	4946
##ре	4947
##be	4948
орго	4949
үрүп	4950
амга	4951
налар	4952
мм	4953
##зин	4954
айке	4955
асык	4956
ыштар	4957
дуг	4958
бог	4959
гине	4960
рү	4961
ял	4962
мада	4963
тес	4964
ндо	4965
екчи	4966
жанын	4967
туту	4968
чинов	4969
рюсс	4970
зө	4971
инара	4972
енти	4973
талды	4974
елиш	4975
игине	4976
лышын	4977
реван	4978
кум	4979
рыш	4980
ызма	4981
отста	4982
лими	4983
120	4984
inte	4985
51	4986
fa	4987
gra	4988
зил	4989
өчө	4990
соц	4991
терн	4992
сала	4993
оорло	4994
үзүп	4995
77	4996
йли	4997
лана	4998
пция	4999
азак	5000
сага	5001
өрсө	5002
лгону	5003
нова	5004
ардаг	5005
пта	5006
пот	5007
үрмө	5008
кенди	5009
ктын	5010
ахна	5011
лашы	5012
шө	5013
ерч	5014
абзел	5015
исте	5016
рати	5017
чусу	5018
рхан	5019
яд	5020
узд	5021
айлоо	5022
лоодо	5023
езд	5024
sa	5025
истан	5026
лара	5027
лоону	5028
елис	5029
күйө	5030
лкала	5031
hu	5032
калар	5033
енд	5034
ойгон	5035
ымда	5036
спор	5037
квт	5038
нве	5039
ңде	5040
##иб	5041
##эн	5042
нас	5043
рунда	5044
it	5045
##рк	5046
ордук	5047
##тел	5048
уроо	5049
ттын	5050
штын	5051
нот	5052
##рис	5053
##ёт	5054
тада	5055
ышта	5056
абалд	5057
шарке	5058
аэс	5059
лөп	5060
ai	5061
куп	5062
шей	5063
эст	5064
инст	5065
уни	5066
азы	5067
над	5068
угат	5069
ургун	5070
лүкт	5071
бин	5072
зди	5073
нста	5074
шку	5075
ярд	5076
алгы	5077
times	5078
56	5079
иет	5080
лса	5081
тк	5082
##ид	5083
ори	5084
ерим	5085
асса	5086
үрб	5087
live	5088
гат	5089
иан	5090
кц	5091
нга	5092
рз	5093
алоо	5094
ерти	5095
дарда	5096
либ	5097
импе	5098
ело	5099
санд	5100
айка	5101
трат	5102
емин	5103
амбар	5104
мча	5105
мдер	5106
асп	5107
тел	5108
ылым	5109
##кел	5110
ачы	5111
дикти	5112
ижара	5113
гноз	5114
or	5115
ылга	5116
##сан	5117
көт	5118
стык	5119
ензин	5120
екку	5121
эри	5122
мбе	5123
идерл	5124
ch	5125
иге	5126
илге	5127
лли	5128
нөт	5129
##et	5130
каал	5131
ови	5132
оодон	5133
ндуу	5134
ндун	5135
екс	5136
рүүчү	5137
доого	5138
шууда	5139
лүктү	5140
67	5141
наш	5142
ердин	5143
аарла	5144
амас	5145
кво	5146
схак	5147
дж	5148
лген	5149
мене	5150
ырч	5151
аптар	5152
роф	5153
адах	5154
птал	5155
потен	5156
вр	5157
анц	5158
рези	5159
анали	5160
вард	5161
bbc	5162
лг	5163
оюнда	5164
олук	5165
##шиг	5166
жалд	5167
номи	5168
утту	5169
едиц	5170
73	5171
збек	5172
оону	5173
птыр	5174
##ht	5175
болор	5176
апел	5177
анына	5178
оосу	5179
буюр	5180
окто	5181
250	5182
еж	5183
улг	5184
шет	5185
үлө	5186
##ty	5187
дети	5188
анч	5189
канд	5190
дарыл	5191
ышып	5192
куру	5193
обуш	5194
доза	5195
ликке	5196
квота	5197
йыр	5198
үг	5199
келд	5200
ашкар	5201
каты	5202
итет	5203
тисти	5204
61	5205
егин	5206
ики	5207
тбек	5208
үүн	5209
##sa	5210
алли	5211
коз	5212
унду	5213
мист	5214
ымдуу	5215
зоди	5216
үүнүн	5217
59	5218
you	5219
ике	5220
рлик	5221
##ша	5222
айо	5223
тымы	5224
етал	5225
елин	5226
омп	5227
72	5228
тпа	5229
алл	5230
арий	5231
анари	5232
ыкыр	5233
жерин	5234
өөнүн	5235
рса	5236
##loo	5237
##fi	5238
ганды	5239
кич	5240
маг	5241
урб	5242
лөргө	5243
мбаев	5244
##ent	5245
to	5246
лдо	5247
мөт	5248
ыба	5249
эж	5250
күлд	5251
ирлер	5252
десса	5253
bi	5254
яху	5255
эко	5256
ашуу	5257
ттө	5258
ктер	5259
талиб	5260
дугун	5261
мдү	5262
кис	5263
енат	5264
ента	5265
сүт	5266
айры	5267
ртып	5268
жагын	5269
мисс	5270
76	5271
ar	5272
раге	5273
64	5274
лты	5275
най	5276
шти	5277
##el	5278
арынд	5279
ниет	5280
ондор	5281
ега	5282
зүм	5283
итеп	5284
птеш	5285
чта	5286
##ере	5287
гым	5288
енген	5289
андык	5290
гүз	5291
елд	5292
изи	5293
##хоз	5294
асс	5295
етик	5296
она	5297
ндин	5298
елери	5299
ташы	5300
армал	5301
pr	5302
лдар	5303
цах	5304
##пр	5305
ырл	5306
луусу	5307
ыкта	5308
нөк	5309
резид	5310
цахал	5311
sp	5312
жеп	5313
йза	5314
крат	5315
аршы	5316
атов	5317
rnat	5318
tube	5319
мани	5320
нна	5321
айдоо	5322
##оля	5323
чей	5324
апса	5325
изди	5326
рага	5327
ka	5328
маны	5329
тчы	5330
стон	5331
ыла	5332
ыккан	5333
жөнүн	5334
андын	5335
жою	5336
71	5337
95	5338
зын	5339
мн	5340
шкен	5341
##ld	5342
жард	5343
гону	5344
ептел	5345
лимп	5346
800	5347
згөр	5348
йб	5349
сф	5350
узи	5351
##мен	5352
алал	5353
дел	5354
үрд	5355
өкмө	5356
рдун	5357
ii	5358
ае	5359
ела	5360
чкы	5361
абр	5362
рел	5363
парат	5364
штаг	5365
налга	5366
урсан	5367
##man	5368
нике	5369
пате	5370
78	5371
гус	5372
лчу	5373
##лан	5374
аррис	5375
уль	5376
улары	5377
онун	5378
дссу	5379
эпос	5380
po	5381
даг	5382
стү	5383
ылба	5384
рея	5385
өткү	5386
раилд	5387
айыт	5388
ыска	5389
текте	5390
ni	5391
нчи	5392
оон	5393
##ta	5394
ано	5395
индер	5396
ирс	5397
иль	5398
кинди	5399
үлдө	5400
66	5401
зала	5402
уду	5403
шин	5404
шак	5405
лад	5406
сады	5407
курма	5408
өөлө	5409
дөрдү	5410
адат	5411
ерди	5412
азап	5413
теп	5414
илб	5415
рада	5416
артта	5417
елим	5418
ериал	5419
цион	5420
айыны	5421
отчёт	5422
рлор	5423
сман	5424
##ght	5425
азып	5426
элин	5427
ире	5428
ейб	5429
уулун	5430
увере	5431
мма	5432
алч	5433
ырын	5434
амг	5435
отор	5436
опту	5437
дикт	5438
уму	5439
аева	5440
gram	5441
human	5442
69	5443
84	5444
wat	5445
зам	5446
ици	5447
ирус	5448
лиш	5449
жазд	5450
тоб	5451
чынын	5452
лдаш	5453
right	5454
af	5455
чогу	5456
шын	5457
алыг	5458
код	5459
азыл	5460
ындап	5461
изоля	5462
лдын	5463
ыял	5464
ваг	5465
гд	5466
лайы	5467
айни	5468
етро	5469
амын	5470
шайке	5471
оомду	5472
үзү	5473
ибер	5474
ынчыл	5475
урнир	5476
97	5477
кине	5478
мүр	5479
мдан	5480
##хай	5481
индин	5482
ияда	5483
лига	5484
имм	5485
ттөр	5486
жем	5487
пайг	5488
грек	5489
оман	5490
ресе	5491
тоого	5492
кова	5493
куту	5494
кымба	5495
тобун	5496
ие	5497
йи	5498
йүн	5499
кте	5500
мдин	5501
нди	5502
ржа	5503
чар	5504
тинде	5505
пайы	5506
ирич	5507
пахта	5508
ндыгы	5509
үлөрү	5510
watch	5511
as	5512
бор	5513
втор	5514
зилд	5515
иеше	5516
чт	5517
шк	5518
##pp	5519
ыму	5520
манб	5521
le	5522
ma	5523
үрү	5524
ланд	5525
күчүн	5526
икти	5527
ентте	5528
илдер	5529
раван	5530
000	5531
лон	5532
шала	5533
эшиг	5534
арып	5535
кечи	5536
берге	5537
нел	5538
амен	5539
олуна	5540
ойду	5541
ктө	5542
малды	5543
лова	5544
ржава	5545
tv	5546
ласы	5547
уэ	5548
теб	5549
стр	5550
беге	5551
##ook	5552
абылд	5553
рпус	5554
87	5555
ru	5556
ода	5557
эй	5558
айды	5559
өлүү	5560
аме	5561
опто	5562
ктрк	5563
ртыш	5564
студ	5565
ионат	5566
рлан	5567
здөр	5568
am	5569
зиза	5570
рб	5571
укум	5572
кыры	5573
барак	5574
ошто	5575
онуп	5576
отко	5577
тунда	5578
ламан	5579
##ess	5580
79	5581
аанд	5582
лушу	5583
оё	5584
хак	5585
шко	5586
болг	5587
иянын	5588
аси	5589
олл	5590
тоз	5591
алдыг	5592
елде	5593
омбу	5594
брь	5595
манд	5596
нса	5597
ыст	5598
ңк	5599
өд	5600
уук	5601
ттик	5602
тажи	5603
ктур	5604
пера	5605
үктү	5606
уял	5607
чийки	5608
74	5609
бле	5610
фсб	5611
енден	5612
изин	5613
риб	5614
озг	5615
айдал	5616
аало	5617
ньян	5618
аимов	5619
book	5620
lin	5621
нвес	5622
роо	5623
руп	5624
рго	5625
рбай	5626
анаг	5627
тууд	5628
өткө	5629
үчүл	5630
аво	5631
түзө	5632
омун	5633
мүт	5634
аразы	5635
face	5636
sh	5637
зги	5638
кто	5639
лжо	5640
пти	5641
үгүн	5642
өкө	5643
##тк	5644
карг	5645
##ета	5646
ерик	5647
ылыт	5648
адаш	5649
өөнө	5650
##рой	5651
ратор	5652
чата	5653
өдөн	5654
go	5655
ааны	5656
бды	5657
иди	5658
оги	5659
рх	5660
тот	5661
түгү	5662
урса	5663
еттик	5664
иро	5665
илли	5666
рмо	5667
егизг	5668
патри	5669
ардак	5670
розо	5671
блема	5672
меле	5673
##la	5674
ынт	5675
ерде	5676
стин	5677
нинг	5678
бизге	5679
нүгү	5680
ысын	5681
зыя	5682
малар	5683
ахр	5684
ааныш	5685
кия	5686
лдет	5687
як	5688
##ца	5689
кани	5690
асе	5691
артып	5692
180	5693
латви	5694
зинф	5695
de	5696
йык	5697
ьян	5698
өйр	5699
##ник	5700
##dia	5701
##яд	5702
##ют	5703
алет	5704
инж	5705
асал	5706
com	5707
өйрө	5708
86	5709
ило	5710
нсу	5711
##еф	5712
чег	5713
араг	5714
ойг	5715
риал	5716
истр	5717
нуэл	5718
наты	5719
110	5720
лго	5721
лхоз	5722
мдар	5723
##тр	5724
тари	5725
магы	5726
опк	5727
жамк	5728
лөш	5729
82	5730
рыз	5731
ңдо	5732
##sh	5733
касы	5734
##раф	5735
укка	5736
стра	5737
чечи	5738
ттары	5739
илде	5740
нист	5741
суб	5742
##пич	5743
ауди	5744
81	5745
ога	5746
болу	5747
улжа	5748
өөгө	5749
койг	5750
ренд	5751
аё	5752
абир	5753
астык	5754
ыты	5755
оту	5756
убу	5757
алист	5758
нкция	5759
лчи	5760
малы	5761
##ран	5762
етке	5763
ооч	5764
түнү	5765
рылды	5766
тог	5767
дады	5768
гент	5769
гөй	5770
сип	5771
кири	5772
гонд	5773
лдор	5774
ачылы	5775
осуна	5776
балд	5777
air	5778
et	5779
kz	5780
na	5781
бине	5782
##лас	5783
даа	5784
авл	5785
дашты	5786
рунун	5787
рбаев	5788
83	5789
зас	5790
анхай	5791
менчи	5792
ишим	5793
бербе	5794
сов	5795
онов	5796
ндик	5797
янд	5798
ртты	5799
тама	5800
това	5801
ерина	5802
130	5803
латын	5804
us	5805
нык	5806
нгө	5807
##ват	5808
##ne	5809
еркен	5810
иру	5811
лаа	5812
амчы	5813
шахта	5814
келбе	5815
екц	5816
нияда	5817
орту	5818
зб	5819
зым	5820
кк	5821
лбай	5822
пла	5823
##ct	5824
ерма	5825
урба	5826
урлар	5827
амба	5828
евдин	5829
өмө	5830
льв	5831
литр	5832
рүүнү	5833
of	5834
so	5835
аалы	5836
нүш	5837
рэ	5838
яга	5839
##нов	5840
##rw	5841
аре	5842
арла	5843
дак	5844
аброй	5845
еринб	5846
амагы	5847
скери	5848
орой	5849
аида	5850
пчр	5851
rov	5852
afp	5853
инжен	5854
ci	5855
амаг	5856
аци	5857
тети	5858
удан	5859
##уд	5860
##ав	5861
##ряд	5862
##ro	5863
дад	5864
ушак	5865
шах	5866
актер	5867
рынан	5868
лбек	5869
чай	5870
үс	5871
##lo	5872
##лем	5873
ашал	5874
урга	5875
ырды	5876
муру	5877
экспо	5878
үзгө	5879
уят	5880
мдери	5881
ьянма	5882
88	5883
98	5884
nce	5885
луш	5886
ско	5887
##жар	5888
айз	5889
##ами	5890
ерген	5891
еркел	5892
етт	5893
пикет	5894
ахар	5895
гали	5896
no3	5897
ерниз	5898
бюрос	5899
get	5900
nd	5901
бок	5902
дог	5903
йло	5904
үндү	5905
нүг	5906
бакты	5907
ариат	5908
постс	5909
900	5910
бдан	5911
гия	5912
лб	5913
линг	5914
рык	5915
ьев	5916
эти	5917
##мал	5918
##ck	5919
иний	5920
урп	5921
апур	5922
имсан	5923
убара	5924
умент	5925
дири	5926
тасс	5927
ктап	5928
нөө	5929
руна	5930
алян	5931
##али	5932
бада	5933
өрүнү	5934
илл	5935
агынд	5936
балды	5937
kloo	5938
вт	5939
ее	5940
иа	5941
рн	5942
ху	5943
ындар	5944
улы	5945
ылты	5946
оппо	5947
урап	5948
жүзүн	5949
ариф	5950
ренб	5951
дсмен	5952
kloop	5953
йл	5954
см	5955
##pa	5956
ербе	5957
ирип	5958
ажа	5959
чөп	5960
скат	5961
ороон	5962
temi	5963
ширш	5964
хакер	5965
getty	5966
ast	5967
di	5968
xi	5969
жмк	5970
лтай	5971
оста	5972
сол	5973
ули	5974
чок	5975
инч	5976
акк	5977
акыл	5978
тели	5979
ирия	5980
илк	5981
эск	5982
ээрл	5983
упер	5984
рома	5985
чагы	5986
есип	5987
айкуш	5988
--	5989
da	5990
ed	5991
шор	5992
шке	5993
шел	5994
алас	5995
инге	5996
ней	5997
ийне	5998
аха	5999
лбой	6000
tele	6001
уйку	6002
шкана	6003
ta	6004
дмин	6005
зоо	6006
лөт	6007
##юдо	6008
##еро	6009
алак	6010
айна	6011
лабы	6012
умг	6013
##ууну	6014
елиши	6015
аид	6016
ухтар	6017
паки	6018
99	6019
дн	6020
зык	6021
рка	6022
роп	6023
тпай	6024
уйру	6025
шха	6026
улп	6027
ышка	6028
апка	6029
боору	6030
итан	6031
эро	6032
аңга	6033
алкак	6034
мдары	6035
no4	6036
140	6037
сени	6038
нүгүү	6039
93	6040
an	6041
cn	6042
do	6043
su	6044
дз	6045
пил	6046
юз	6047
ящ	6048
##ье	6049
##se	6050
ало	6051
анасы	6052
бах	6053
ырг	6054
комис	6055
илбей	6056
алиф	6057
иттер	6058
мдик	6059
лья	6060
ссёр	6061
ивер	6062
ткөнү	6063
марке	6064
92	6065
wh	6066
бары	6067
еге	6068
лир	6069
нку	6070
эв	6071
кот	6072
азды	6073
ашын	6074
ашоо	6075
импич	6076
үлү	6077
гондо	6078
оңу	6079
нанс	6080
пиа	6081
сср	6082
ива	6083
анкц	6084
үктөр	6085
ллеж	6086
##хаз	6087
hrw	6088
еат	6089
ема	6090
лев	6091
мум	6092
нсы	6093
нети	6094
шал	6095
шкөн	6096
шраф	6097
##жи	6098
ованы	6099
авел	6100
амдар	6101
ндр	6102
үмүн	6103
вив	6104
номер	6105
армо	6106
лой	6107
шту	6108
лдоо	6109
лена	6110
вест	6111
##ial	6112
##ork	6113
засын	6114
york	6115
рбей	6116
ялык	6117
##фт	6118
##цов	6119
##ны	6120
##бир	6121
##ерт	6122
анн	6123
гап	6124
ордер	6125
азган	6126
нег	6127
риле	6128
отряд	6129
өтөрү	6130
тайда	6131
мүл	6132
нол	6133
омат	6134
ози	6135
тм	6136
чала	6137
шым	6138
##урт	6139
оргон	6140
опо	6141
мато	6142
дыкат	6143
ктал	6144
аңыл	6145
отуру	6146
ванын	6147
разы	6148
боорд	6149
эркин	6150
what	6151
мүлк	6152
оу	6153
оме	6154
рта	6155
тээ	6156
уф	6157
атай	6158
аска	6159
ашка	6160
овар	6161
ырым	6162
лаур	6163
лант	6164
үлүк	6165
паж	6166
афах	6167
nex	6168
рдык	6169
ba	6170
xx	6171
зер	6172
пра	6173
алб	6174
турму	6175
элект	6176
талып	6177
ирик	6178
сибир	6179
ураб	6180
ибир	6181
угуна	6182
тылды	6183
став	6184
шиев	6185
sapp	6186
press	6187
cnn	6188
hi	6189
zer	6190
нге	6191
пен	6192
рына	6193
##кур	6194
##зан	6195
##wi	6196
##бли	6197
##ерг	6198
ише	6199
акса	6200
килем	6201
дара	6202
изме	6203
пайду	6204
дайы	6205
умше	6206
туб	6207
ибе	6208
штир	6209
риса	6210
sty	6211
энерг	6212
нолог	6213
wa	6214
виз	6215
ного	6216
уан	6217
фган	6218
шим	6219
яче	6220
##ич	6221
##de	6222
аруу	6223
абын	6224
мина	6225
көрг	6226
авт	6227
ушун	6228
вист	6229
ому	6230
тыры	6231
емпи	6232
ырас	6233
өлгө	6234
гунда	6235
аңгак	6236
шеним	6237
94	6238
има	6239
рме	6240
тп	6241
ыюу	6242
атте	6243
эль	6244
үзг	6245
еңе	6246
аажы	6247
рымда	6248
нисеф	6249
amne	6250
96	6251
91	6252
mo	6253
быш	6254
ыб	6255
##оло	6256
үнгөн	6257
##кем	6258
нем	6259
тре	6260
апы	6261
авло	6262
ейр	6263
ейтер	6264
агат	6265
рткан	6266
емир	6267
плак	6268
ешт	6269
очо	6270
eu	6271
pfi	6272
рот	6273
ыж	6274
##il	6275
ууч	6276
##кес	6277
ттин	6278
дерг	6279
аркын	6280
туз	6281
емеси	6282
арыны	6283
рунт	6284
вело	6285
идент	6286
тетин	6287
чабал	6288
media	6289
илег	6290
mat	6291
засы	6292
ңа	6293
##юк	6294
айне	6295
ургу	6296
ызык	6297
шайл	6298
уктун	6299
ыңа	6300
күлү	6301
згөрт	6302
бхаз	6303
вгу	6304
гим	6305
кпа	6306
рууну	6307
учу	6308
чка	6309
шыр	6310
ямин	6311
алына	6312
атер	6313
ууш	6314
асфа	6315
ыплас	6316
насы	6317
ашар	6318
ирек	6319
ттоо	6320
өнт	6321
нткен	6322
полк	6323
иңд	6324
##ene	6325
350	6326
ткөр	6327
вгуст	6328
аӊ	6329
вис	6330
еӊ	6331
нөр	6332
##од	6333
##op	6334
##kt	6335
айбыз	6336
оре	6337
асир	6338
ная	6339
күсү	6340
лифи	6341
имдин	6342
актёр	6343
нит	6344
ндей	6345
икс	6346
ктары	6347
өсү	6348
осни	6349
угун	6350
публи	6351
оонун	6352
ахрир	6353
la	6354
##нак	6355
##ру	6356
##вт	6357
##дк	6358
##rp	6359
арпа	6360
##еке	6361
капа	6362
көг	6363
асул	6364
азал	6365
ыйыл	6366
амду	6367
өрг	6368
оберт	6369
ымын	6370
ахман	6371
угар	6372
аянд	6373
ооке	6374
аршав	6375
tech	6376
шыкт	6377
nik	6378
львов	6379
еттен	6380
авлод	6381
sc	6382
лги	6383
шпе	6384
##вит	6385
гант	6386
абу	6387
улло	6388
уро	6389
етки	6390
доха	6391
дүйш	6392
нүкт	6393
ылдый	6394
##мос	6395
бокс	6396
емасы	6397
ногой	6398
ейрут	6399
ези	6400
лку	6401
мс	6402
нци	6403
пами	6404
рине	6405
цз	6406
ьет	6407
юп	6408
##cc	6409
##эк	6410
анга	6411
ардан	6412
жазуу	6413
рест	6414
риа	6415
ниве	6416
уулд	6417
моди	6418
сүрө	6419
мира	6420
есине	6421
чурка	6422
клан	6423
ылыкт	6424
ртем	6425
этнос	6426
номур	6427
мдиги	6428
аттес	6429
dia	6430
mb	6431
si	6432
вд	6433
йү	6434
чик	6435
шоо	6436
##уж	6437
##ят	6438
арим	6439
ынак	6440
инк	6441
окур	6442
уштар	6443
саб	6444
арыб	6445
реже	6446
тоют	6447
үмдө	6448
артты	6449
рганы	6450
160	6451
astra	6452
лгиле	6453
un	6454
zene	6455
рок	6456
рдик	6457
##us	6458
анду	6459
аным	6460
стал	6461
кызд	6462
лууну	6463
амзан	6464
мурд	6465
тоң	6466
өндү	6467
раж	6468
нота	6469
ктяб	6470
##емя	6471
емен	6472
лдөр	6473
этти	6474
шоу	6475
веб	6476
фавит	6477
нски	6478
иммун	6479
next	6480
зып	6481
лман	6482
ома	6483
ппа	6484
рсе	6485
тс	6486
цив	6487
шөт	6488
шпай	6489
##яз	6490
аркар	6491
иннов	6492
үчт	6493
түшкө	6494
адина	6495
##рид	6496
ечим	6497
net	6498
##ina	6499
время	6500
сфана	6501
ккм	6502
89	6503
аасы	6504
вра	6505
шап	6506
##so	6507
неп	6508
лорун	6509
ентке	6510
гру	6511
түнө	6512
зав	6513
жабд	6514
пуля	6515
пакет	6516
урпак	6517
uz	6518
өгөн	6519
алик	6520
ство	6521
ырба	6522
талг	6523
генц	6524
ызда	6525
опурт	6526
утун	6527
баки	6528
толго	6529
урах	6530
есси	6531
узаху	6532
олитк	6533
##пед	6534
дзюдо	6535
goo	6536
nc	6537
гла	6538
шине	6539
юм	6540
##кин	6541
##хар	6542
чеб	6543
дина	6544
ыйыт	6545
ирил	6546
сист	6547
ымал	6548
сомдо	6549
рота	6550
ептер	6551
үзгөн	6552
##mar	6553
bo	6554
gle	6555
естан	6556
йлар	6557
лтүр	6558
мран	6559
руш	6560
рты	6561
тв	6562
штү	6563
##чк	6564
##ti	6565
##жу	6566
алта	6567
оркес	6568
акета	6569
##ева	6570
тота	6571
рабы	6572
бода	6573
конст	6574
под	6575
үздү	6576
тизм	6577
тиви	6578
алымд	6579
татт	6580
мора	6581
рахма	6582
амира	6583
иверс	6584
en	6585
is	6586
дра	6587
кэ	6588
кэр	6589
лору	6590
лика	6591
лдү	6592
##дл	6593
тиц	6594
шаг	6595
төп	6596
тоодо	6597
үздө	6598
елеч	6599
осун	6600
рслан	6601
атема	6602
неско	6603
улпук	6604
cent	6605
вде	6606
мдо	6607
налы	6608
рук	6609
чоро	6610
ңир	6611
стар	6612
пред	6613
олк	6614
уша	6615
ымы	6616
исин	6617
көндө	6618
антин	6619
озу	6620
аасын	6621
арид	6622
очул	6623
рланд	6624
зоок	6625
крит	6626
несин	6627
mi	6628
гис	6629
кку	6630
нүк	6631
тана	6632
цин	6633
чоку	6634
##ad	6635
дашы	6636
сток	6637
ури	6638
урус	6639
амара	6640
оос	6641
өргө	6642
келб	6643
өөсүн	6644
исси	6645
үшүн	6646
утта	6647
тилк	6648
табыз	6649
бакта	6650
тири	6651
сант	6652
льга	6653
bion	6654
агатэ	6655
вай	6656
гыз	6657
кке	6658
лге	6659
сса	6660
тке	6661
шпа	6662
##чак	6663
кого	6664
##ила	6665
апит	6666
амала	6667
шаа	6668
ойт	6669
имо	6670
жей	6671
жел	6672
умун	6673
туде	6674
роман	6675
үзүү	6676
елеви	6677
орос	6678
рант	6679
марк	6680
рейс	6681
лавян	6682
елоси	6683
тпөй	6684
зде	6685
мөө	6686
уси	6687
шиш	6688
шүнө	6689
##хо	6690
##me	6691
##ga	6692
айчы	6693
орит	6694
башт	6695
чех	6696
элтр	6697
олла	6698
тына	6699
жазг	6700
чака	6701
ктү	6702
елеф	6703
көлү	6704
орозо	6705
175	6706
зодл	6707
##all	6708
sput	6709
kakt	6710
post	6711
пилот	6712
ha	6713
вен	6714
зүп	6715
идө	6716
йта	6717
лүм	6718
мвт	6719
пү	6720
тия	6721
алина	6722
анжар	6723
када	6724
орват	6725
еру	6726
непр	6727
аяр	6728
еверо	6729
##яни	6730
ринен	6731
өшү	6732
стема	6733
вада	6734
юнча	6735
inst	6736
ермет	6737
ондун	6738
осту	6739
asso	6740
циви	6741
gm	6742
зду	6743
икар	6744
рден	6745
усе	6746
##da	6747
##ата	6748
##ино	6749
индик	6750
стип	6751
ылай	6752
араби	6753
нид	6754
уюмда	6755
октон	6756
раса	6757
рту	6758
ахат	6759
аалда	6760
170	6761
екаб	6762
ciat	6763
днк	6764
оритм	6765
стипе	6766
occ	6767
ra	6768
tra	6769
жө	6770
йр	6771
мала	6772
ртур	6773
шүг	6774
яй	6775
##ой	6776
айя	6777
орда	6778
ерип	6779
ериси	6780
улин	6781
при	6782
тиле	6783
ето	6784
ырак	6785
шад	6786
актын	6787
умкар	6788
антта	6789
ураху	6790
зияда	6791
рууга	6792
ельта	6793
анышы	6794
occrp	6795
дюс	6796
йдан	6797
лбей	6798
рум	6799
яба	6800
##вд	6801
##бр	6802
дасы	6803
атто	6804
гасы	6805
карга	6806
ерл	6807
ерни	6808
етме	6809
баэ	6810
күз	6811
ырда	6812
сипед	6813
ачкы	6814
төш	6815
леге	6816
##ейт	6817
аталь	6818
cov	6819
росс	6820
тылып	6821
монт	6822
йылд	6823
гуля	6824
260	6825
вето	6826
tik	6827
йнер	6828
увейт	6829
шериг	6830
лира	6831
himar	6832
бж	6833
еба	6834
лка	6835
пте	6836
айб	6837
##дит	6838
ирб	6839
илүү	6840
тани	6841
гри	6842
плюс	6843
огот	6844
аалим	6845
веде	6846
шуусу	6847
йылда	6848
рсула	6849
##erg	6850
ллион	6851
үлүкт	6852
врач	6853
аара	6854
аиси	6855
елге	6856
ои	6857
эте	6858
ям	6859
айм	6860
ког	6861
берүү	6862
неф	6863
амин	6864
ичин	6865
рига	6866
номин	6867
умд	6868
аштан	6869
зад	6870
450	6871
ралд	6872
iii	6873
bloo	6874
gu	6875
бс	6876
ейин	6877
еши	6878
оти	6879
айби	6880
анжа	6881
унган	6882
абас	6883
укса	6884
онду	6885
апык	6886
евди	6887
актык	6888
захар	6889
кагыл	6890
лина	6891
кгб	6892
шейх	6893
cha	6894
урбан	6895
tok	6896
шахма	6897
непро	6898
дюсер	6899
gr	6900
pa	6901
аге	6902
бб	6903
диз	6904
ечү	6905
йра	6906
ыкер	6907
##нал	6908
##они	6909
аксы	6910
унг	6911
сох	6912
неге	6913
дист	6914
сотту	6915
обяни	6916
нтон	6917
мег	6918
расс	6919
ктери	6920
ковду	6921
no5	6922
игнал	6923
штей	6924
rnal	6925
vii	6926
шаки	6927
mberg	6928
яйен	6929
jou	6930
ss	6931
se	6932
xvi	6933
еше	6934
зуу	6935
здер	6936
кдк	6937
нчү	6938
рлык	6939
уар	6940
фен	6941
ягы	6942
өгүн	6943
##ie	6944
##пер	6945
айыш	6946
ердар	6947
магын	6948
абс	6949
улум	6950
енес	6951
узу	6952
экспе	6953
оңд	6954
озеп	6955
акшны	6956
чач	6957
рмия	6958
ырах	6959
еңил	6960
ешик	6961
ракта	6962
тылат	6963
ыяс	6964
ктиги	6965
##oup	6966
аамай	6967
йыпт	6968
ежи	6969
перац	6970
gmt	6971
аун	6972
аут	6973
бык	6974
ккө	6975
лсо	6976
мбу	6977
пек	6978
рду	6979
удин	6980
##кат	6981
##бт	6982
##ot	6983
##эй	6984
ылары	6985
мино	6986
изг	6987
өнүн	6988
вита	6989
аңги	6990
##вах	6991
килов	6992
аратк	6993
мола	6994
нфо	6995
рийне	6996
230	6997
тишт	6998
акед	6999
уэла	7000
йлана	7001
омас	7002
che	7003
el	7004
sin	7005
дүр	7006
жчк	7007
зуп	7008
нус	7009
ралы	7010
тко	7011
яг	7012
##кс	7013
##id	7014
##др	7015
##ter	7016
арис	7017
анбе	7018
ишу	7019
тая	7020
кипр	7021
аппа	7022
шага	7023
ттук	7024
ние	7025
115	7026
ыгыны	7027
кчан	7028
stre	7029
ngt	7030
insta	7031
здөө	7032
кнын	7033
ппо	7034
сло	7035
шари	7036
ых	7037
##зы	7038
орло	7039
наг	7040
эмки	7041
тие	7042
ийкем	7043
рец	7044
келер	7045
асыя	7046
уюмун	7047
епт	7048
лыс	7049
росси	7050
ранын	7051
едел	7052
усту	7053
##arm	7054
##ree	7055
лгбт	7056
сфара	7057
идиш	7058
##shi	7059
ak	7060
бен	7061
еали	7062
кса	7063
нси	7064
нбе	7065
эже	7066
ёв	7067
##ос	7068
##рам	7069
инай	7070
ерия	7071
тууда	7072
өзөм	7073
стер	7074
окм	7075
олат	7076
ойку	7077
жаңыл	7078
раси	7079
сизо	7080
тилд	7081
нөл	7082
жайла	7083
этин	7084
жож	7085
усуб	7086
агыла	7087
амиля	7088
нейт	7089
глаз	7090
group	7091
еалии	7092
ax	7093
for	7094
free	7095
id	7096
жыш	7097
йде	7098
йне	7099
лж	7100
мч	7101
миз	7102
рку	7103
##ад	7104
##цак	7105
##ei	7106
##ms	7107
##яр	7108
##ена	7109
айон	7110
##үнд	7111
##ори	7112
иштер	7113
уум	7114
ияд	7115
ыпчак	7116
ылан	7117
ове	7118
неги	7119
тыг	7120
енне	7121
лаф	7122
обол	7123
ница	7124
екин	7125
рой	7126
робо	7127
ратып	7128
ксен	7129
125	7130
137	7131
марат	7132
уңкур	7133
220	7134
шамы	7135
абылг	7136
gold	7137
washi	7138
hou	7139
ja	7140
жик	7141
лүшү	7142
оми	7143
пц	7144
пь	7145
фтан	7146
алкар	7147
ару	7148
кесе	7149
андит	7150
атпа	7151
##кти	7152
акуп	7153
жаат	7154
калга	7155
денд	7156
ыйк	7157
олс	7158
саг	7159
иман	7160
боб	7161
алаба	7162
расын	7163
чоӊ	7164
ажаб	7165
ртык	7166
##рос	7167
полис	7168
ооло	7169
ахре	7170
анага	7171
манын	7172
амаза	7173
рилге	7174
118	7175
псула	7176
квор	7177
удап	7178
кбар	7179
өйү	7180
чарба	7181
ынтык	7182
xix	7183
визит	7184
gen	7185
wor	7186
wall	7187
бли	7188
вро	7189
ите	7190
ила	7191
пап	7192
ргү	7193
шок	7194
ңе	7195
##ww	7196
##na	7197
##ft	7198
анкер	7199
атма	7200
тах	7201
орни	7202
##ово	7203
ирке	7204
ирээ	7205
амши	7206
оллар	7207
елб	7208
маты	7209
бейп	7210
макка	7211
емб	7212
оюш	7213
өшкө	7214
лапт	7215
аяны	7216
орош	7217
шыбы	7218
мушту	7219
аудит	7220
offi	7221
min	7222
дже	7223
иана	7224
кпо	7225
лба	7226
тч	7227
чүр	7228
##cy	7229
##юм	7230
аран	7231
атмос	7232
орм	7233
##ето	7234
ерман	7235
абыш	7236
абит	7237
ыйр	7238
гей	7239
керт	7240
ирзо	7241
лаз	7242
лий	7243
убси	7244
топч	7245
туар	7246
утат	7247
руд	7248
үзүнд	7249
синд	7250
манды	7251
лыжа	7252
машин	7253
кран	7254
үлдөр	7255
трав	7256
накай	7257
нжер	7258
андыг	7259
йыпта	7260
тозок	7261
асалг	7262
ьево	7263
шымк	7264
ббас	7265
кпост	7266
ns	7267
rk	7268
еул	7269
куш	7270
оце	7271
паг	7272
хун	7273
ъе	7274
ывах	7275
##ca	7276
##ss	7277
##дат	7278
арса	7279
атцак	7280
уло	7281
кали	7282
етон	7283
байд	7284
ийр	7285
кенде	7286
сая	7287
шаң	7288
ызг	7289
риши	7290
көзд	7291
екч	7292
адаг	7293
луата	7294
арига	7295
азая	7296
емел	7297
енед	7298
ваз	7299
ядр	7300
gov	7301
дизел	7302
world	7303
iv	7304
rt	7305
tter	7306
usa	7307
wi	7308
аама	7309
быр	7310
ийин	7311
ным	7312
рян	7313
хсан	7314
чкан	7315
ыян	7316
##зги	7317
##ka	7318
атас	7319
гас	7320
ылы	7321
ырк	7322
ирин	7323
апыр	7324
учич	7325
күнө	7326
имиш	7327
риф	7328
желе	7329
алады	7330
ээнб	7331
ксф	7332
крам	7333
750	7334
жыра	7335
ard	7336
страц	7337
ga	7338
ho	7339
twi	7340
зай	7341
зыр	7342
лч	7343
мери	7344
мпо	7345
##рт	7346
атан	7347
инет	7348
түт	7349
тео	7350
енси	7351
амды	7352
мите	7353
ими	7354
ейте	7355
мезги	7356
елен	7357
ыйынд	7358
ктору	7359
торун	7360
такт	7361
емп	7362
ахти	7363
койго	7364
##жах	7365
мания	7366
өпчү	7367
шииб	7368
ативд	7369
рянск	7370
by	7371
cial	7372
ovid	7373
зур	7374
ижан	7375
йо	7376
йма	7377
лдө	7378
тум	7379
##ью	7380
##si	7381
##fe	7382
##fa	7383
алпы	7384
айду	7385
##улу	7386
акып	7387
улун	7388
терр	7389
араза	7390
реб	7391
имге	7392
нүнө	7393
рави	7394
елбе	7395
лганы	7396
епки	7397
ттагы	7398
cop	7399
no6	7400
позит	7401
чабуу	7402
тозот	7403
no47	7404
ерниг	7405
еннед	7406
house	7407
ирээт	7408
fina	7409
гуз	7410
кси	7411
кци	7412
мст	7413
нта	7414
ржан	7415
ссо	7416
шри	7417
шму	7418
эни	7419
яс	7420
##лин	7421
##өб	7422
##lu	7423
##ya	7424
ану	7425
иналы	7426
ерно	7427
даро	7428
гел	7429
тыва	7430
аяз	7431
үрг	7432
онна	7433
апт	7434
миним	7435
ниг	7436
опе	7437
грин	7438
чаң	7439
пага	7440
уралд	7441
ксп	7442
нышты	7443
лица	7444
шире	7445
ялары	7446
чтеке	7447
ийрим	7448
ip	7449
йды	7450
йдын	7451
ясын	7452
ёр	7453
##ek	7454
ерк	7455
асср	7456
азиз	7457
уржу	7458
ыркы	7459
ирг	7460
аптуу	7461
ызд	7462
рииб	7463
раба	7464
опум	7465
ахим	7466
чөлөр	7467
педо	7468
пейи	7469
спид	7470
650	7471
поэма	7472
лбайт	7473
dom	7474
matы	7475
отив	7476
",	7477
аур	7478
дда	7479
игин	7480
йжан	7481
лде	7482
нэ	7483
пло	7484
рли	7485
шары	7486
##лов	7487
##рон	7488
ках	7489
##ора	7490
таа	7491
##сто	7492
кары	7493
жатта	7494
ерги	7495
ермин	7496
териш	7497
неме	7498
авай	7499
лиф	7500
ейит	7501
алих	7502
гроз	7503
бид	7504
##ээл	7505
ахма	7506
тынчт	7507
айгак	7508
аалд	7509
аргам	7510
ольк	7511
рсал	7512
амила	7513
икит	7514
сталь	7515
ki	7516
басы	7517
далы	7518
оле	7519
сери	7520
эӊ	7521
##яж	7522
арв	7523
аркан	7524
арья	7525
айыз	7526
болго	7527
ерил	7528
ерце	7529
жаа	7530
үчү	7531
##еса	7532
енева	7533
тикт	7534
ндыр	7535
ыза	7536
рац	7537
ниц	7538
ниги	7539
##яби	7540
оопту	7541
итлер	7542
ной	7543
тышка	7544
утман	7545
105	7546
102	7547
кыны	7548
арход	7549
одол	7550
касын	7551
ечер	7552
190	7553
афа	7554
рдеги	7555
kaz	7556
шишик	7557
пцр	7558
ерцег	7559
mon	7560
op	7561
omi	7562
sia	7563
дору	7564
един	7565
мде	7566
фо	7567
шур	7568
ылг	7569
якта	7570
##ii	7571
##di	7572
алх	7573
анак	7574
##лей	7575
ормал	7576
аборт	7577
укул	7578
үнөө	7579
бага	7580
амда	7581
изел	7582
өрд	7583
ттор	7584
ымкат	7585
чыла	7586
елуж	7587
дейре	7588
ргени	7589
утрк	7590
омик	7591
тоод	7592
исича	7593
епке	7594
урага	7595
ургат	7596
ариб	7597
ухара	7598
ургаб	7599
эвф	7600
вести	7601
ncial	7602
кэдр	7603
здуг	7604
усей	7605
usaid	7606
ny	7607
ow	7608
va	7609
ver	7610
гл	7611
йгө	7612
шчу	7613
ялар	7614
өңүл	7615
##цо	7616
##нат	7617
##ён	7618
##ba	7619
алу	7620
арас	7621
анта	7622
канды	7623
ази	7624
тиби	7625
##ови	7626
сабо	7627
жакы	7628
лич	7629
ндекс	7630
отан	7631
басар	7632
пант	7633
майер	7634
##риг	7635
рттер	7636
елес	7637
фифа	7638
ациял	7639
ессе	7640
114	7641
олид	7642
бляз	7643
ирзие	7644
360	7645
трац	7646
fact	7647
asia	7648
eura	7649
стокг	7650
етоди	7651
зурпа	7652
өрдүн	7653
bal	7654
ky	7655
ren	7656
лти	7657
мми	7658
пкин	7659
рар	7660
ртип	7661
хх	7662
эп	7663
##ьз	7664
##co	7665
котт	7666
##ург	7667
абына	7668
окр	7669
ышык	7670
лах	7671
ийиш	7672
ызды	7673
рдак	7674
радан	7675
нтр	7676
артын	7677
ектер	7678
итар	7679
агари	7680
роб	7681
ликти	7682
ашид	7683
дата	7684
реку	7685
змир	7686
терео	7687
крет	7688
cat	7689
афар	7690
240	7691
риман	7692
star	7693
урдур	7694
арльз	7695
лесни	7696
org	7697
pro	7698
ндиги	7699
венг	7700
check	7701
bel	7702
der	7703
nt	7704
ph	7705
rg	7706
www	7707
втан	7708
дсу	7709
ито	7710
йду	7711
йтап	7712
лн	7713
оке	7714
рф	7715
ңда	7716
##цк	7717
арко	7718
##ули	7719
берт	7720
кетин	7721
прид	7722
калуу	7723
барг	7724
енера	7725
ирза	7726
онс	7727
оод	7728
упян	7729
нодар	7730
өмөн	7731
ктоо	7732
руху	7733
епа	7734
пав	7735
лос	7736
лоте	7737
штин	7738
лдун	7739
этт	7740
155	7741
усун	7742
архат	7743
клас	7744
фина	7745
one	7746
850	7747
ропо	7748
xxi	7749
нефте	7750
аксыт	7751
bu	7752
glo	7753
жим	7754
зник	7755
йге	7756
лсе	7757
лсу	7758
оӊ	7759
рдан	7760
рно	7761
цой	7762
шве	7763
өсө	7764
##как	7765
##ез	7766
##чык	7767
##za	7768
##анж	7769
арин	7770
арик	7771
айж	7772
орку	7773
уугу	7774
айти	7775
нац	7776
ырмал	7777
иркел	7778
беки	7779
олт	7780
атаң	7781
иллер	7782
өөгү	7783
адрид	7784
ное	7785
сайп	7786
оруна	7787
полит	7788
106	7789
103	7790
вока	7791
ивд	7792
элиза	7793
145	7794
люкс	7795
ролев	7796
ңгээл	7797
шыпы	7798
210	7799
280	7800
нсул	7801
гарри	7802
рикс	7803
нвест	7804
мумин	7805
ыбын	7806
аӊы	7807
..	7808
ap	7809
gi	7810
harm	7811
nge	7812
swi	7813
аус	7814
аста	7815
дул	7816
тпе	7817
фит	7818
хал	7819
хон	7820
чап	7821
ыга	7822
##ёв	7823
##ki	7824
алс	7825
аро	7826
айло	7827
кета	7828
##сте	7829
оран	7830
кари	7831
айты	7832
укур	7833
стен	7834
кырд	7835
ыйым	7836
##иса	7837
суну	7838
еляби	7839
матка	7840
уктар	7841
йтыл	7842
ташты	7843
үрксо	7844
ажай	7845
оорд	7846
ссанж	7847
11и	7848
ытт	7849
270	7850
осток	7851
##вой	7852
илеп	7853
рукс	7854
gua	7855
пьеса	7856
зыркы	7857
app	7858
ex	7859
lli	7860
аани	7861
бама	7862
йлык	7863
кн	7864
ктай	7865
лок	7866
нх	7867
низ	7868
сара	7869
фето	7870
хор	7871
чып	7872
шик	7873
ңу	7874
##кай	7875
##жон	7876
##va	7877
##fc	7878
арпы	7879
кава	7880
ишп	7881
аким	7882
наса	7883
укан	7884
прот	7885
ырама	7886
апчы	7887
андаг	7888
олч	7889
ндөр	7890
ойрон	7891
риж	7892
нтген	7893
ейс	7894
райс	7895
виде	7896
йтыш	7897
өмү	7898
ктр	7899
ктун	7900
чав	7901
жид	7902
поль	7903
синки	7904
107	7905
тасын	7906
льян	7907
шекер	7908
шевч	7909
112	7910
рылып	7911
шард	7912
135	7913
лейте	7914
юнд	7915
норм	7916
ерчил	7917
авлян	7918
цзян	7919
уумп	7920
...	7921
fi	7922
ko	7923
qu	7924
ress	7925
ure	7926
бого	7927
вин	7928
вот	7929
гир	7930
здан	7931
йке	7932
рүм	7933
сык	7934
сми	7935
спо	7936
чон	7937
эз	7938
##pi	7939
##do	7940
арки	7941
##ыра	7942
орден	7943
акч	7944
унук	7945
ергек	7946
през	7947
енеш	7948
гөч	7949
өрдө	7950
имент	7951
риан	7952
огор	7953
опт	7954
икро	7955
аркак	7956
ктин	7957
оорун	7958
ысына	7959
грамо	7960
ахса	7961
угушу	7962
амаз	7963
ивл	7964
арыла	7965
рөөн	7966
ораса	7967
erra	7968
назик	7969
гарм	7970
врора	7971
line	7972
link	7973
зооп	7974
ибирь	7975
мчек	7976
робот	7977
афаэл	7978
ec	7979
ral	7980
sk	7981
аю	7982
ауна	7983
бд	7984
бук	7985
гур	7986
кп	7987
мго	7988
мпе	7989
оябр	7990
рти	7991
уле	7992
хар	7993
хат	7994
юр	7995
ңку	7996
##сс	7997
##иа	7998
##хаб	7999
##rk	8000
##ly	8001
алуж	8002
арина	8003
арнак	8004
тад	8005
тиши	8006
урхан	8007
етху	8008
үрүш	8009
күб	8010
ирриг	8011
онуш	8012
генд	8013
станц	8014
олун	8015
нтро	8016
ейми	8017
суф	8018
матты	8019
макты	8020
икир	8021
дона	8022
рох	8023
рүүгө	8024
емси	8025
109	8026
педи	8027
екист	8028
134	8029
ольф	8030
люд	8031
едрос	8032
афтар	8033
юндар	8034
идп	8035
энб	8036
голов	8037
аллон	8038
лони	8039
lines	8040
ахрам	8041
рызд	8042
ургап	8043
лушун	8044
уучул	8045
рлиги	8046
личко	8047
swift	8048
cp	8049
ht	8050
lt	8051
rs	8052
wel	8053
гуп	8054
ечик	8055
йты	8056
йдо	8057
нук	8058
рмак	8059
удук	8060
фап	8061
хаб	8062
храм	8063
цир	8064
##кк	8065
##гм	8066
##як	8067
иним	8068
ерме	8069
ово	8070
##име	8071
енск	8072
рио	8073
тоор	8074
раил	8075
истер	8076
уттуу	8077
аганы	8078
толу	8079
герим	8080
нура	8081
батта	8082
еште	8083
лдары	8084
елито	8085
15и	8086
154	8087
аниил	8088
ньюс	8089
550	8090
етеор	8091
ексен	8092
poli	8093
лбас	8094
аннер	8095
euro	8096
шагыл	8097
sinop	8098
лчил	8099
игини	8100
open	8101
пкини	8102
fra	8103
pe	8104
qa	8105
tut	8106
vo	8107
ачу	8108
жен	8109
зг	8110
зир	8111
лс	8112
нст	8113
рст	8114
рүп	8115
##фу	8116
##нит	8117
аркти	8118
айдар	8119
ынг	8120
##уля	8121
ерна	8122
була	8123
ыпар	8124
улпу	8125
урят	8126
окс	8127
енго	8128
кабы	8129
олсо	8130
бух	8131
имми	8132
тою	8133
мила	8134
упик	8135
алага	8136
итте	8137
итти	8138
екир	8139
йткан	8140
ктук	8141
дека	8142
ооро	8143
нганд	8144
аганд	8145
тайды	8146
108	8147
раке	8148
con	8149
акап	8150
гинек	8151
ортту	8152
13ү	8153
ректи	8154
кески	8155
олиси	8156
любо	8157
авид	8158
едор	8159
эпид	8160
митен	8161
stan	8162
330	8163
гност	8164
рзы	8165
ештин	8166
едина	8167
belli	8168
apple	8169
ata	8170
fo	8171
ks	8172
lo	8173
pri	8174
rdia	8175
вор	8176
гаш	8177
дд	8178
жрт	8179
йга	8180
лкан	8181
лом	8182
оси	8183
рск	8184
тто	8185
уж	8186
уот	8187
ужах	8188
чер	8189
яп	8190
##аз	8191
##ед	8192
##зе	8193
##зар	8194
##рет	8195
##ял	8196
##эт	8197
##ace	8198
алем	8199
аргы	8200
аткер	8201
##кас	8202
абиш	8203
улкан	8204
##уше	8205
нефт	8206
тың	8207
аяша	8208
үргө	8209
байл	8210
оош	8211
лифт	8212
рича	8213
обин	8214
ачин	8215
райы	8216
адд	8217
тышты	8218
ажеп	8219
текш	8220
елеси	8221
ахмат	8222
брам	8223
налд	8224
нгер	8225
164	8226
шифа	8227
шууга	8228
##enz	8229
патру	8230
аркап	8231
гори	8232
голо	8233
420	8234
chat	8235
икита	8236
удум	8237
мүрү	8238
dail	8239
and	8240
прав	8241
уард	8242
чавуш	8243
econ	8244
daily	8245
at	8246
bka	8247
hen	8248
ir	8249
nat	8250
son	8251
ufc	8252
we	8253
win	8254
ya	8255
аиса	8256
биш	8257
вол	8258
йлө	8259
лке	8260
лама	8261
нев	8262
нно	8263
реш	8264
рна	8265
рбе	8266
ссе	8267
слан	8268
тму	8269
өӊ	8270
##нер	8271
##ры	8272
##бри	8273
##tp	8274
дас	8275
анки	8276
унк	8277
азил	8278
сог	8279
ыйнак	8280
овхоз	8281
тыб	8282
ланын	8283
амыр	8284
олта	8285
миӊ	8286
рита	8287
нтти	8288
ейда	8289
уулда	8290
ноя	8291
нөкт	8292
рущ	8293
емцов	8294
ыраха	8295
манке	8296
есна	8297
нали	8298
124	8299
усуна	8300
146	8301
14ү	8302
138	8303
163	8304
176	8305
##est	8306
275	8307
ухар	8308
гаруу	8309
шыкак	8310
куул	8311
sche	8312
вайде	8313
когол	8314
ржант	8315
rgy	8316
дуло	8317
ермез	8318
бухг	8319
rdian	8320
ce	8321
cms	8322
ge	8323
ment	8324
sar	8325
ааб	8326
зма	8327
йдай	8328
нюс	8329
пис	8330
ргы	8331
рле	8332
рне	8333
рула	8334
уми	8335
хоз	8336
цев	8337
ыдай	8338
ңо	8339
##ван	8340
##ru	8341
##mo	8342
##gi	8343
##эм	8344
##ll	8345
##ha	8346
##енж	8347
арке	8348
##ири	8349
инка	8350
көң	8351
акеш	8352
жатк	8353
ерро	8354
аске	8355
абур	8356
улпар	8357
уркан	8358
аят	8359
##опи	8360
амар	8361
ийч	8362
олов	8363
милан	8364
үшүп	8365
суд	8366
опол	8367
итко	8368
тышы	8369
ташка	8370
моск	8371
аңгы	8372
адал	8373
ахта	8374
олбос	8375
новду	8376
алкон	8377
104	8378
ракон	8379
эттк	8380
рини	8381
оюм	8382
льев	8383
ыңыр	8384
117	8385
рылд	8386
165	8387
ытта	8388
лешмо	8389
лобби	8390
тетти	8391
гард	8392
чийи	8393
айкем	8394
новая	8395
рбк	8396
ркад	8397
sun	8398
mode	8399
uni	8400
гриф	8401
mini	8402
ыйрак	8403
лазиз	8404
nspa	8405
rency	8406
sky	8407
http	8408
рнест	8409
%,	8410
az	8411
mer	8412
mar	8413
ot	8414
ve	8415
бап	8416
бро	8417
дп	8418
дов	8419
золо	8420
йго	8421
күү	8422
лкөн	8423
пк	8424
пка	8425
тб	8426
ябр	8427
##ска	8428
##um	8429
алкан	8430
арев	8431
дасын	8432
аниме	8433
тарм	8434
инве	8435
гасын	8436
акен	8437
##лиф	8438
наама	8439
ылый	8440
урл	8441
урш	8442
етан	8443
енц	8444
онент	8445
##чуг	8446
амс	8447
олто	8448
рагы	8449
радар	8450
рабыз	8451
үшө	8452
елли	8453
конф	8454
антер	8455
янт	8456
ктык	8457
оңур	8458
езник	8459
этек	8460
##жоу	8461
альма	8462
113	8463
111	8464
аучи	8465
пута	8466
no7	8467
усул	8468
шарап	8469
136	8470
ведо	8471
ремя	8472
ремон	8473
тканы	8474
рафик	8475
пысы	8476
sta	8477
stor	8478
ыязы	8479
ышаа	8480
андем	8481
остер	8482
бийке	8483
гарни	8484
rna	8485
no27	8486
ялда	8487
space	8488
sha	8489
правд	8490
оииб	8491
анаке	8492
изель	8493
усейн	8494
cpj	8495
йтым	8496
цирк	8497
нефть	8498
ябрь	8499
ay	8500
bus	8501
men	8502
man	8503
tb	8504
еду	8505
елик	8506
лгы	8507
лэр	8508
нв	8509
ота	8510
рүн	8511
рби	8512
рене	8513
уал	8514
шл	8515
штеп	8516
алпу	8517
арж	8518
айип	8519
андер	8520
анжы	8521
инне	8522
##дел	8523
акар	8524
акет	8525
унак	8526
ерат	8527
жаал	8528
айте	8529
укар	8530
тест	8531
сты	8532
стын	8533
беп	8534
урут	8535
ырган	8536
ирме	8537
амд	8538
реза	8539
курт	8540
илаш	8541
тозо	8542
евер	8543
огуу	8544
ачк	8545
өөл	8546
раве	8547
досто	8548
лео	8549
расса	8550
пард	8551
агер	8552
илдөө	8553
мөл	8554
абали	8555
епил	8556
ешк	8557
101	8558
угал	8559
ришт	8560
скв	8561
122	8562
усан	8563
ороз	8564
ттеж	8565
птоо	8566
вага	8567
урукт	8568
осто	8569
рена	8570
айкал	8571
чийме	8572
meta	8573
резе	8574
нкул	8575
нквд	8576
зила	8577
шында	8578
тозог	8579
deut	8580
нуэль	8581
алпыс	8582
олтав	8583
epa	8584
he	8585
ku	8586
mu	8587
вк	8588
жип	8589
зек	8590
зүл	8591
йж	8592
йги	8593
йкы	8594
мг	8595
нн	8596
нушу	8597
плей	8598
рпа	8599
рекс	8600
шүп	8601
##лу	8602
##пыл	8603
##ry	8604
алама	8605
##ака	8606
анте	8607
анян	8608
атч	8609
ороп	8610
акаш	8611
ерсе	8612
асап	8613
маң	8614
мадан	8615
азу	8616
ашир	8617
етх	8618
етра	8619
анынд	8620
иче	8621
актай	8622
иске	8623
жалат	8624
итт	8625
бейпи	8626
янь	8627
роце	8628
##нос	8629
поч	8630
бакы	8631
ахир	8632
ахри	8633
паст	8634
ибн	8635
елиз	8636
алмай	8637
шевик	8638
үккө	8639
балын	8640
аулет	8641
тивен	8642
аниел	8643
егич	8644
едия	8645
арыял	8646
отоци	8647
рсен	8648
19у	8649
225	8650
ерали	8651
215	8652
ронд	8653
тимул	8654
shad	8655
юмдар	8656
абсол	8657
akh	8658
ltd	8659
ирмем	8660
ad	8661
ial	8662
sy	8663
глиф	8664
еко	8665
еэк	8666
зон	8667
зинг	8668
йе	8669
ктеп	8670
лек	8671
лдан	8672
мээ	8673
нья	8674
оог	8675
очи	8676
осе	8677
пия	8678
пиц	8679
рбо	8680
ткө	8681
тса	8682
уиа	8683
фф	8684
хот	8685
чжоу	8686
ңж	8687
ңүл	8688
##ль	8689
##bs	8690
арз	8691
атва	8692
инц	8693
акер	8694
асми	8695
азын	8696
аяке	8697
енч	8698
онте	8699
тини	8700
апал	8701
гене	8702
ардин	8703
лив	8704
куро	8705
обу	8706
раун	8707
раунд	8708
чеке	8709
исла	8710
упу	8711
упул	8712
чакт	8713
артин	8714
елпи	8715
умч	8716
парз	8717
рукт	8718
куль	8719
перс	8720
малга	8721
пляж	8722
урму	8723
брид	8724
есте	8725
шыб	8726
144	8727
132	8728
сард	8729
177	8730
ожент	8731
193	8732
ляска	8733
вад	8734
юнх	8735
ыганы	8736
insi	8737
ste	8738
ренс	8739
йдана	8740
ппак	8741
turk	8742
равма	8743
льван	8744
ахаба	8745
зоот	8746
еӊеш	8747
scie	8748
ксено	8749
iph	8750
павло	8751
халат	8752
welle	8753
уотч	8754
едуза	8755
5g	8756
ght	8757
ly	8758
tor	8759
гыш	8760
екер	8761
зиц	8762
зулу	8763
йса	8764
лург	8765
пуш	8766
уде	8767
убо	8768
##фе	8769
##кал	8770
##пк	8771
##бат	8772
##шан	8773
##bi	8774
арго	8775
арян	8776
арзы	8777
айбер	8778
##ола	8779
ань	8780
анил	8781
анна	8782
##сти	8783
орци	8784
аксу	8785
аксү	8786
еркас	8787
маи	8788
улк	8789
даре	8790
гео	8791
нецов	8792
аярд	8793
ырмак	8794
енчи	8795
енеси	8796
ирена	8797
онде	8798
кукт	8799
евин	8800
рдаг	8801
нтке	8802
ейро	8803
убнов	8804
алифа	8805
камо	8806
ентин	8807
айлы	8808
гро	8809
респ	8810
биле	8811
мото	8812
ажар	8813
толе	8814
кулд	8815
ратуу	8816
ахту	8817
еңи	8818
аадан	8819
ехни	8820
гинд	8821
ерез	8822
116	8823
127	8824
дамд	8825
зелт	8826
зион	8827
архан	8828
архад	8829
атру	8830
162	8831
астры	8832
195	8833
афи	8834
ерапе	8835
нора	8836
ухрат	8837
ельс	8838
остон	8839
чабан	8840
лмаш	8841
хосте	8842
##вод	8843
лакта	8844
no26	8845
no21	8846
ульмо	8847
шаке	8848
замб	8849
эвэн	8850
лдөрү	8851
үчтөр	8852
лбейт	8853
мство	8854
лифат	8855
вотса	8856
дпол	8857
уршаб	8858
storm	8859
du	8860
era	8861
ic	8862
ll	8863
nu	8864
qr	8865
tes	8866
tal	8867
бэ	8868
бүр	8869
двок	8870
дэн	8871
еит	8872
жык	8873
йбы	8874
йша	8875
лден	8876
мжон	8877
оде	8878
оинг	8879
рц	8880
рщ	8881
рюдо	8882
уила	8883
яз	8884
яб	8885
##ip	8886
##вей	8887
##po	8888
##per	8889
##bo	8890
алпа	8891
айме	8892
айфу	8893
анж	8894
атык	8895
тау	8896
еро	8897
берен	8898
мао	8899
абари	8900
кетте	8901
өлөр	8902
сть	8903
ашта	8904
үнх	8905
сой	8906
даны	8907
ырм	8908
енге	8909
амис	8910
миф	8911
атташ	8912
илу	8913
сеит	8914
истон	8915
үшк	8916
убл	8917
леу	8918
алаб	8919
айран	8920
##рио	8921
ебин	8922
адап	8923
рмон	8924
ахи	8925
ешке	8926
влад	8927
лапта	8928
тула	8929
no8	8930
148	8931
аргун	8932
185	8933
сумка	8934
астар	8935
рантт	8936
casa	8937
моло	8938
афур	8939
шуар	8940
ераси	8941
иос	8942
рдөн	8943
роне	8944
өздөр	8945
320	8946
квад	8947
голла	8948
##элл	8949
vis	8950
560	8951
рэпер	8952
льяс	8953
ешип	8954
арант	8955
нхва	8956
тбол	8957
be	8958
ber	8959
gel	8960
lb	8961
pat	8962
th	8963
вила	8964
влов	8965
доп	8966
жыт	8967
зен	8968
йнө	8969
лп	8970
нчы	8971
нша	8972
поп	8973
рю	8974
рдө	8975
рко	8976
фбр	8977
чоло	8978
ычы	8979
өб	8980
##фо	8981
##тон	8982
##кет	8983
##хам	8984
##ини	8985
арип	8986
арсе	8987
##лес	8988
ордай	8989
акро	8990
ерөб	8991
ыпт	8992
улик	8993
кыя	8994
ылма	8995
ыйыр	8996
араа	8997
етиш	8998
баб	8999
##зио	9000
тина	9001
салд	9002
олдат	9003
узаг	9004
оймо	9005
ымынд	9006
ейп	9007
мили	9008
милиц	9009
##ная	9010
упара	9011
отте	9012
үшкө	9013
боюн	9014
екти	9015
ноза	9016
расн	9017
омб	9018
##ное	9019
кино	9020
адага	9021
емиз	9022
рата	9023
брон	9024
луя	9025
акас	9026
лимит	9027
ереза	9028
удс	9029
нгар	9030
естер	9031
123	9032
ленд	9033
жооп	9034
зелки	9035
143	9036
142	9037
167	9038
18и	9039
шиши	9040
ярда	9041
лтон	9042
слави	9043
рууда	9044
198	9045
афиз	9046
бланк	9047
гулаг	9048
242	9049
верс	9050
орадо	9051
261	9052
лове	9053
зема	9054
ригор	9055
кутер	9056
ралык	9057
ллект	9058
##зод	9059
лакап	9060
time	9061
china	9062
анчес	9063
кинем	9064
чтөр	9065
lea	9066
max	9067
айзак	9068
смс	9069
лева	9070
прагм	9071
визу	9072
xvii	9073
хунта	9074
эттн	9075
пияз	9076
patri	9077
au	9078
ara	9079
des	9080
ev	9081
gre	9082
hon	9083
lu	9084
nbc	9085
res	9086
варт	9087
дэр	9088
ешиг	9089
жун	9090
лэ	9091
мус	9092
ня	9093
ню	9094
пинг	9095
ппар	9096
рог	9097
сян	9098
сдик	9099
току	9100
фти	9101
чүк	9102
эво	9103
ѳз	9104
##йт	9105
##сар	9106
##сел	9107
##ня	9108
##рал	9109
##plo	9110
##хи	9111
##чер	9112
##жаш	9113
##ni	9114
аля	9115
алча	9116
арн	9117
айан	9118
даб	9119
анка	9120
ишви	9121
унар	9122
ерри	9123
асыр	9124
асра	9125
азари	9126
улла	9127
кыт	9128
ылчык	9129
тиб	9130
етри	9131
##ова	9132
окоп	9133
күп	9134
ырык	9135
иренж	9136
тино	9137
апжаш	9138
каби	9139
диум	9140
##бод	9141
арыт	9142
рели	9143
ызак	9144
атабы	9145
илал	9146
чыкт	9147
жез	9148
таны	9149
төм	9150
сөздө	9151
##меч	9152
лецк	9153
елл	9154
еля	9155
гипер	9156
##цит	9157
рош	9158
дорун	9159
ыгуу	9160
заар	9161
заара	9162
рүүлө	9163
епе	9164
адак	9165
рму	9166
рмен	9167
полот	9168
зард	9169
мирно	9170
этью	9171
егени	9172
аялин	9173
чаль	9174
чурко	9175
пион	9176
үлгө	9177
156	9178
159	9179
151	9180
207	9181
удур	9182
128	9183
дээр	9184
манап	9185
147	9186
131	9187
аргар	9188
25и	9189
161	9190
оливи	9191
асте	9192
крис	9193
умшук	9194
шиит	9195
симе	9196
ечил	9197
норар	9198
аркаб	9199
inc	9200
inf	9201
заказ	9202
зина	9203
рулга	9204
шерик	9205
рашан	9206
айнак	9207
абиу	9208
ллек	9209
зуй	9210
оргос	9211
ткус	9212
ырчын	9213
ылаң	9214
defe	9215
tass	9216
лири	9217
лжир	9218
offic	9219
ирзох	9220
ылыгы	9221
rgyz	9222
иткои	9223
сдикц	9224
ea	9225
ech	9226
g7	9227
ty	9228
wei	9229
аул	9230
вдик	9231
гк	9232
дрис	9233
жов	9234
жани	9235
зис	9236
лтан	9237
отел	9238
пес	9239
пала	9240
рөө	9241
св	9242
скан	9243
сама	9244
сэр	9245
тсе	9246
тве	9247
фул	9248
хир	9249
чты	9250
шук	9251
ён	9252
##фер	9253
##гѳ	9254
##рин	9255
##вк	9256
##дак	9257
алер	9258
алала	9259
арли	9260
арто	9261
айдай	9262
анап	9263
анто	9264
атм	9265
иния	9266
кано	9267
уут	9268
асха	9269
мая	9270
укен	9271
ашала	9272
үчтү	9273
ыйча	9274
урж	9275
ураны	9276
байб	9277
кылд	9278
амыш	9279
миг	9280
мида	9281
шае	9282
лихан	9283
жазга	9284
рих	9285
ривой	9286
долон	9287
ейман	9288
убок	9289
сака	9290
саки	9291
парас	9292
туй	9293
утан	9294
##иво	9295
аңс	9296
аңта	9297
ебет	9298
порту	9299
портр	9300
заде	9301
куля	9302
ириге	9303
докс	9304
фиоп	9305
фицо	9306
штан	9307
лдпр	9308
ринг	9309
ерини	9310
лайн	9311
ская	9312
152	9313
126	9314
ауле	9315
пасс	9316
игери	9317
ордур	9318
шох	9319
252	9320
188	9321
града	9322
178	9323
рлов	9324
емей	9325
рейсу	9326
шиле	9327
алех	9328
199	9329
247	9330
дуран	9331
ухрид	9332
ыяк	9333
осте	9334
##ort	9335
хазар	9336
430	9337
шыка	9338
no29	9339
ромж	9340
уэз	9341
плац	9342
no31	9343
diplo	9344
##ные	9345
усеи	9346
ырака	9347
ssia	9348
оболь	9349
gence	9350
ребре	9351
швед	9352
fox	9353
бридд	9354
зуйпа	9355
твеа	9356
ama	9357
cli	9358
dar	9359
gent	9360
kt	9361
аит	9362
вел	9363
дхан	9364
зөт	9365
йжар	9366
лсын	9367
нгент	9368
оул	9369
пке	9370
роно	9371
рээ	9372
ркти	9373
текч	9374
уц	9375
уанд	9376
цук	9377
чжи	9378
чвк	9379
швей	9380
юлган	9381
өлд	9382
##ir	9383
##воз	9384
##пак	9385
##бар	9386
##dy	9387
##rt	9388
##ём	9389
аляр	9390
алори	9391
##але	9392
айша	9393
анр	9394
анам	9395
атри	9396
атви	9397
аткак	9398
##рах	9399
орп	9400
болат	9401
көчү	9402
акф	9403
акем	9404
кими	9405
нави	9406
өзө	9407
укр	9408
укай	9409
укинг	9410
экб	9411
тезио	9412
гыд	9413
ыйып	9414
ыйпыл	9415
##есе	9416
овла	9417
нед	9418
бард	9419
араан	9420
ошт	9421
керди	9422
ено	9423
енни	9424
ирект	9425
апан	9426
аптан	9427
аври	9428
ланг	9429
изги	9430
өрүп	9431
шаб	9432
ттун	9433
сунд	9434
евге	9435
##мид	9436
түзү	9437
ейне	9438
##наз	9439
алид	9440
елдет	9441
алах	9442
матум	9443
умса	9444
инема	9445
гонду	9446
гре	9447
аркал	9448
агд	9449
роби	9450
ебеп	9451
жибе	9452
перей	9453
ахан	9454
нарко	9455
урад	9456
лоял	9457
если	9458
удрет	9459
секе	9460
балда	9461
119	9462
121	9463
рьев	9464
вед	9465
олит	9466
аниэл	9467
астер	9468
ажыя	9469
зода	9470
енеж	9471
атыра	9472
ечел	9473
197	9474
227	9475
ернак	9476
индзо	9477
алпак	9478
sti	9479
##oom	9480
ендей	9481
мдаг	9482
устун	9483
нчыл	9484
пини	9485
386	9486
голе	9487
370	9488
етео	9489
чийил	9490
схат	9491
460	9492
grap	9493
кисло	9494
spie	9495
shenz	9496
аёо	9497
nasa	9498
авлат	9499
авлов	9500
asta	9501
нейро	9502
bay	9503
ыбыра	9504
чикир	9505
boei	9506
ent	9507
xviii	9508
gaz	9509
лахш	9510
rsf	9511
маңке	9512
cus	9513
cbs	9514
dent	9515
iri	9516
nk	9517
ov	9518
аөб	9519
бъ	9520
вик	9521
вил	9522
вас	9523
вгус	9524
гс	9525
дана	9526
ефа	9527
еид	9528
зий	9529
йлик	9530
кф	9531
кму	9532
лту	9533
лбе	9534
леке	9535
нил	9536
оан	9537
оуз	9538
пери	9539
ркан	9540
рент	9541
рро	9542
слам	9543
тэн	9544
хэ	9545
чж	9546
ыяб	9547
ёл	9548
ңур	9549
##май	9550
##ний	9551
##вин	9552
##ps	9553
##mp	9554
##чп	9555
##щи	9556
##bu	9557
алес	9558
аржа	9559
айса	9560
кая	9561
##ике	9562
инат	9563
инду	9564
орин	9565
иядан	9566
акуше	9567
ерц	9568
ермер	9569
##уси	9570
або	9571
өлүн	9572
өлүг	9573
улпи	9574
үүс	9575
үнт	9576
үнк	9577
лерг	9578
аяп	9579
етти	9580
баст	9581
тру	9582
ыкалы	9583
талыш	9584
иреп	9585
диг	9586
амшан	9587
ола	9588
олб	9589
буй	9590
ызала	9591
шайта	9592
илла	9593
ачыр	9594
дух	9595
ныг	9596
раг	9597
нтек	9598
ейн	9599
ейли	9600
ейла	9601
ейпи	9602
##куб	9603
отка	9604
ниге	9605
артог	9606
лүүдө	9607
ледар	9608
опур	9609
алима	9610
елу	9611
елле	9612
абагы	9613
##ней	9614
пане	9615
чучуг	9616
камал	9617
умен	9618
топоз	9619
##яно	9620
руа	9621
атали	9622
жиа	9623
адича	9624
ахди	9625
ахали	9626
паста	9627
спер	9628
отту	9629
елитр	9630
воз	9631
алдак	9632
ната	9633
209	9634
ксана	9635
ауэр	9636
бура	9637
улдар	9638
элит	9639
арио	9640
251	9641
166	9642
172	9643
алгап	9644
моль	9645
афк	9646
жини	9647
ютте	9648
212	9649
тории	9650
238	9651
232	9652
морг	9653
281	9654
всп	9655
клав	9656
аксып	9657
365	9658
аамы	9659
tico	9660
290	9661
ширел	9662
шеде	9663
уват	9664
mega	9665
437	9666
гили	9667
илеге	9668
520	9669
айкел	9670
gran	9671
джет	9672
етрос	9673
ское	9674
смет	9675
днр	9676
пена	9677
эльс	9678
mot	9679
диная	9680
sino	9681
папа	9682
иркей	9683
wiki	9684
елени	9685
exp	9686
осиф	9687
воле	9688
stem	9689
tesla	9690
ллекц	9691
гкчп	9692
зийпа	9693
.,	9694
04	9695
age	9696
bm	9697
bri	9698
bek	9699
cc	9700
hy	9701
pi	9702
par	9703
ron	9704
um	9705
ua	9706
za	9707
zoom	9708
вя	9709
дь	9710
дю	9711
едо	9712
еңг	9713
жү	9714
жүн	9715
зеп	9716
ккен	9717
кро	9718
лта	9719
мги	9720
мки	9721
уил	9722
уис	9723
фан	9724
цназ	9725
чүп	9726
яхта	9727
##уа	9728
##фср	9729
##мыр	9730
##цы	9731
##зер	9732
##хон	9733
##шак	9734
алый	9735
ализа	9736
арп	9737
арди	9738
айбай	9739
коп	9740
део	9741
анес	9742
анба	9743
атус	9744
атти	9745
##иля	9746
инаг	9747
тав	9748
орген	9749
оруну	9750
ордин	9751
##око	9752
акый	9753
уннит	9754
кие	9755
асим	9756
азхаб	9757
абч	9758
айтка	9759
уляб	9760
чың	9761
стуу	9762
уре	9763
урен	9764
барч	9765
##опа	9766
багын	9767
ырат	9768
енн	9769
енем	9770
тине	9771
олон	9772
ндпк	9773
ттал	9774
шайыр	9775
семит	9776
раво	9777
чеки	9778
ейк	9779
артер	9780
елово	9781
лора	9782
итир	9783
ексе	9784
умм	9785
топо	9786
рода	9787
ресло	9788
аңы	9789
ажо	9790
ысак	9791
йынан	9792
жиб	9793
кулда	9794
гүс	9795
алыб	9796
плена	9797
ахдат	9798
ештер	9799
елио	9800
егм	9801
лыб	9802
158	9803
ссета	9804
ивуд	9805
тулло	9806
зиё	9807
чуку	9808
мбрио	9809
стаф	9810
смос	9811
187	9812
183	9813
189	9814
летт	9815
умшак	9816
арата	9817
ашага	9818
лтд	9819
рсала	9820
рсона	9821
рсфср	9822
228	9823
217	9824
идор	9825
репер	9826
ельф	9827
цех	9828
аваи	9829
337	9830
нсан	9831
446	9832
visa	9833
юлда	9834
640	9835
найте	9836
йбар	9837
илбар	9838
лигас	9839
lex	9840
compa	9841
ресто	9842
гейт	9843
ауре	9844
арвиз	9845
ницки	9846
чыпка	9847
рижёр	9848
хотан	9849
удец	9850
lbma	9851
дхано	9852
цукер	9853
зеппе	9854
мгиче	9855
00	9856
abc	9857
act	9858
bli	9859
cu	9860
ck	9861
eta	9862
fu	9863
gt	9864
il	9865
аули	9866
вз	9867
вей	9868
гак	9869
гама	9870
дэ	9871
дала	9872
диза	9873
едик	9874
еоро	9875
жээ	9876
зап	9877
ииб	9878
йни	9879
меш	9880
мынд	9881
нни	9882
оди	9883
оса	9884
пту	9885
сил	9886
сес	9887
хим	9888
хунд	9889
цру	9890
чене	9891
ыск	9892
юмен	9893
яопи	9894
үу	9895
өдө	9896
##аа	9897
##ьс	9898
##руд	9899
##дс	9900
##хат	9901
##бк	9902
##ѳр	9903
##ӊг	9904
арри	9905
айли	9906
айдер	9907
айпак	9908
кос	9909
кост	9910
анб	9911
анбек	9912
антеп	9913
каи	9914
ишара	9915
унде	9916
ерке	9917
ерони	9918
ких	9919
азга	9920
ыпта	9921
улт	9922
улян	9923
стуг	9924
калет	9925
ылк	9926
терд	9927
оввоз	9928
урби	9929
нео	9930
үрүн	9931
преф	9932
трей	9933
өкс	9934
ирма	9935
лаус	9936
амкай	9937
оллес	9938
узук	9939
имир	9940
имаш	9941
имит	9942
годо	9943
мурат	9944
рилет	9945
дерс	9946
ымчык	9947
ейдар	9948
илиум	9949
кирд	9950
иста	9951
арту	9952
лед	9953
алича	9954
виа	9955
умия	9956
майор	9957
янни	9958
##рих	9959
ебап	9960
атың	9961
канас	9962
рух	9963
ртём	9964
атало	9965
аевди	9966
плюр	9967
спис	9968
баты	9969
фран	9970
капар	9971
егенд	9972
лыбы	9973
пист	9974
153	9975
205	9976
201	9977
олос	9978
ерещ	9979
кспо	9980
129	9981
пуле	9982
no9	9983
ариа	9984
ороб	9985
##ваз	9986
139	9987
##ороз	9988
168	9989
169	9990
циа	9991
люге	9992
174	9993
рлери	9994
192	9995
алибр	9996
ллел	9997
ваза	9998
вахта	9999
ернс	10000
35и	10001
жккк	10002
идней	10003
репе	10004
кчасы	10005
уйка	10006
329	10007
атеуш	10008
арбак	10009
312	10010
lity	10011
енич	10012
агыны	10013
коомд	10014
айнар	10015
54ү	10016
##bek	10017
ord	10018
tod	10019
күлдө	10020
950	10021
ульф	10022
970	10023
уэй	10024
илош	10025
айзу	10026
урпат	10027
улиан	10028
baza	10029
isw	10030
йохан	10031
йоав	10032
эниел	10033
алхаш	10034
эзил	10035
ухаре	10036
shahe	10037
вкп	10038
почто	10039
ахима	10040
муса	10041
рээзи	10042
бъект	10043
гсян	10044
жээн	10045
ah	10046
fou	10047
jo	10048
ke	10049
ox	10050
rya	10051
ur	10052
аари	10053
бон	10054
буш	10055
бика	10056
бууну	10057
бдк	10058
бэй	10059
вани	10060
гло	10061
гари	10062
дого	10063
еда	10064
жев	10065
йда	10066
йсы	10067
йына	10068
лун	10069
ммк	10070
нто	10071
нян	10072
нвой	10073
оду	10074
тн	10075
уо	10076
уат	10077
удо	10078
цун	10079
чип	10080
штер	10081
юк	10082
ңил	10083
##фал	10084
##фор	10085
##күр	10086
##ссе	10087
##ист	10088
##хра	10089
##ci	10090
##tal	10091
##ho	10092
##bn	10093
##ени	10094
арпи	10095
айбо	10096
кек	10097
ыныш	10098
##ури	10099
деста	10100
ане	10101
анш	10102
##аши	10103
##раб	10104
оров	10105
ияз	10106
##окс	10107
акма	10108
акым	10109
акко	10110
ерки	10111
ерово	10112
кит	10113
асфал	10114
азот	10115
айтк	10116
өзг	10117
улта	10118
укк	10119
тело	10120
стте	10121
үчкүр	10122
теро	10123
ыйнат	10124
бег	10125
урана	10126
урум	10127
уриц	10128
арабы	10129
аята	10130
етс	10131
ырыш	10132
апыл	10133
апшы	10134
апкы	10135
аппе	10136
кабат	10137
диета	10138
амп	10139
амми	10140
ийбо	10141
агыт	10142
сад	10143
курга	10144
ызга	10145
риген	10146
риго	10147
евлү	10148
алдыб	10149
ейган	10150
бом	10151
орби	10152
елта	10153
елмо	10154
адик	10155
алынд	10156
умур	10157
йту	10158
муң	10159
эрит	10160
антон	10161
агар	10162
ктони	10163
оңг	10164
ажные	10165
исида	10166
ыгар	10167
епк	10168
амид	10169
паз	10170
спруд	10171
мири	10172
елит	10173
осно	10174
cor	10175
202	10176
бриж	10177
скоп	10178
шыгы	10179
клим	10180
ираж	10181
стем	10182
ллах	10183
186	10184
люк	10185
171	10186
cal	10187
тата	10188
рейес	10189
рафат	10190
нцев	10191
фила	10192
афий	10193
мазон	10194
шамси	10195
шамши	10196
213	10197
214	10198
аити	10199
235	10200
231	10201
264	10202
пато	10203
кват	10204
етаф	10205
закц	10206
литви	10207
серин	10208
453	10209
авах	10210
332	10211
атеи	10212
340	10213
380	10214
372	10215
шеф	10216
шеги	10217
##эль	10218
530	10219
еримб	10220
вропа	10221
leop	10222
иллиа	10223
##rwa	10224
nda	10225
super	10226
аннат	10227
unrwa	10228
роко	10229
кэдп	10230
mic	10231
нефти	10232
кнс	10233
локда	10234
рижер	10235
умита	10236
merce	10237
арево	10238
иннеа	10239
эвэнь	10240
green	10241
плацд	10242
amaz	10243
click	10244
bmw	10245
улянт	10246
евлүт	10247
ale	10248
em	10249
ect	10250
fly	10251
gpt	10252
ji	10253
ld	10254
lia	10255
lle	10256
nti	10257
pre	10258
pla	10259
rm	10260
rat	10261
sch	10262
ura	10263
ащ	10264
аук	10265
вь	10266
ват	10267
гн	10268
гала	10269
гнит	10270
иу	10271
кно	10272
лоп	10273
мбай	10274
месе	10275
нш	10276
пли	10277
пакт	10278
птик	10279
ргу	10280
ргын	10281
рпич	10282
слин	10283
уңг	10284
фра	10285
хай	10286
хья	10287
чк	10288
шмы	10289
эзи	10290
үңг	10291
##сак	10292
##ело	10293
##wa	10294
##хт	10295
##хап	10296
##sc	10297
алла	10298
алтер	10299
арча	10300
арте	10301
арши	10302
арея	10303
айят	10304
коб	10305
##гыс	10306
деб	10307
анама	10308
атик	10309
мента	10310
орпо	10311
акке	10312
унни	10313
жатка	10314
##лич	10315
ерфи	10316
түс	10317
кив	10318
асаб	10319
маа	10320
маза	10321
азг	10322
абэ	10323
абаш	10324
турга	10325
наар	10326
улли	10327
стюм	10328
ашми	10329
ылака	10330
чеп	10331
билбе	10332
данд	10333
овин	10334
урдай	10335
аяман	10336
бая	10337
окер	10338
элла	10339
керки	10340
енер	10341
коря	10342
ирса	10343
авир	10344
ланы	10345
ийри	10346
саго	10347
саид	10348
шаф	10349
шаган	10350
##гел	10351
##лав	10352
үпк	10353
курс	10354
иля	10355
илья	10356
илбе	10357
тояно	10358
раги	10359
раза	10360
ейхан	10361
ээф	10362
кира	10363
уюк	10364
елч	10365
елор	10366
чуб	10367
умар	10368
антын	10369
янск	10370
агал	10371
оңбо	10372
биху	10373
бица	10374
торми	10375
ажары	10376
епти	10377
адид	10378
малик	10379
плен	10380
пау	10381
ыраң	10382
##жад	10383
лоу	10384
еслан	10385
капт	10386
мета	10387
далд	10388
ерех	10389
ереми	10390
удра	10391
туля	10392
өңк	10393
дамда	10394
ыртык	10395
ариел	10396
атрик	10397
133	10398
тылуу	10399
кесин	10400
181	10401
крино	10402
умшуг	10403
мейни	10404
cafa	10405
ашаал	10406
бияк	10407
24ү	10408
вере	10409
##ers	10410
ченеп	10411
##esti	10412
былка	10413
ртеж	10414
stra	10415
заки	10416
уяк	10417
ыят	10418
ыяз	10419
ыяма	10420
гайо	10421
rep	10422
ted	10423
нсар	10424
штег	10425
345	10426
шерм	10427
йдил	10428
ширет	10429
рдеон	10430
лдая	10431
375	10432
425	10433
390	10434
шыкал	10435
540	10436
465	10437
492	10438
ммун	10439
519	10440
hua	10441
шейит	10442
рзу	10443
елоу	10444
ежда	10445
йырма	10446
biot	10447
art	10448
ульс	10449
шакир	10450
740	10451
sota	10452
soft	10453
иллю	10454
шорд	10455
глава	10456
box	10457
мстер	10458
лнр	10459
павил	10460
кпсс	10461
qaz	10462
гашиш	10463
асмий	10464
рщик	10465
ероси	10466
илуф	10467
ншаа	10468
ейпин	10469
атмус	10470
graph	10471
ыябан	10472
ыскар	10473
жкккб	10474
аариф	10475
вьет	10476
эзип	10477
06	10478
aw	10479
ag	10480
ab	10481
aq	10482
br	10483
bt	10484
ban	10485
bla	10486
cd	10487
ct	10488
es	10489
fut	10490
fro	10491
hel	10492
ime	10493
mc	10494
ms	10495
mh	10496
nta	10497
nse	10498
ol	10499
ori	10500
olu	10501
pu	10502
pm	10503
ser	10504
san	10505
ter	10506
tru	10507
uww	10508
vp	10509
yet	10510
аду	10511
аюм	10512
вон	10513
гё	10514
гвт	10515
дряд	10516
ея	10517
екан	10518
жуп	10519
ждан	10520
живо	10521
зв	10522
йф	10523
йба	10524
йку	10525
йпа	10526
кж	10527
лжан	10528
лиза	10529
оган	10530
оза	10531
пш	10532
пиш	10533
ргө	10534
рла	10535
тки	10536
уол	10537
уиза	10538
цип	10539
шугу	10540
шлем	10541
шови	10542
ѳр	10543
##йк	10544
##ля	10545
##цев	10546
##цки	10547
##ьо	10548
##ьма	10549
##ио	10550
##ие	10551
##чо	10552
##gu	10553
##ще	10554
##ze	10555
алпар	10556
арен	10557
айис	10558
айха	10559
кози	10560
ганди	10561
анса	10562
ать	10563
кав	10564
инда	10565
инаны	10566
инкуб	10567
гау	10568
тава	10569
оррис	10570
карж	10571
көлөр	10572
акил	10573
акмал	10574
унхай	10575
еран	10576
ерун	10577
жах	10578
асай	10579
асина	10580
дыг	10581
азд	10582
абиз	10583
нах	10584
##тед	10585
улек	10586
прим	10587
үүг	10588
эмеро	10589
сота	10590
согу	10591
чеби	10592
бед	10593
урше	10594
урьма	10595
аякем	10596
ыкч	10597
иркин	10598
кабел	10599
авил	10600
олина	10601
саа	10602
караг	10603
лима	10604
мура	10605
риум	10606
илат	10607
себи	10608
актыл	10609
ные	10610
рау	10611
раң	10612
нттик	10613
ейл	10614
ейд	10615
дом	10616
дозер	10617
ипер	10618
босс	10619
райн	10620
кони	10621
вит	10622
вига	10623
алафи	10624
проон	10625
##чей	10626
умга	10627
аграт	10628
аглан	10629
рож	10630
роин	10631
рочи	10632
ебат	10633
озен	10634
езгек	10635
торл	10636
рттар	10637
ртекс	10638
завод	10639
герчи	10640
емсел	10641
ратка	10642
тамол	10643
ыраг	10644
айгар	10645
тово	10646
уралу	10647
есеп	10648
этрин	10649
нале	10650
cola	10651
coca	10652
пиң	10653
альта	10654
##нич	10655
галла	10656
ауто	10657
самбо	10658
уска	10659
бшыр	10660
септ	10661
мбра	10662
лышка	10663
ытып	10664
летка	10665
крем	10666
173	10667
марал	10668
шишиг	10669
аапыр	10670
монд	10671
191	10672
афик	10673
блум	10674
ness	10675
245	10676
241	10677
224	10678
221	10679
вахаб	10680
колот	10681
268	10682
283	10683
уяла	10684
tea	10685
едеп	10686
назар	10687
умая	10688
йнур	10689
381	10690
ali	10691
голан	10692
med	10693
met	10694
470	10695
858	10696
охсе	10697
770	10698
рзент	10699
ort	10700
ork	10701
##шад	10702
toy	10703
найза	10704
719	10705
690	10706
ндит	10707
mash	10708
уэц	10709
абира	10710
рэкет	10711
ndat	10712
ana	10713
бахид	10714
нетит	10715
омел	10716
тсер	10717
үчтө	10718
netw	10719
ham	10720
ариса	10721
ркуя	10722
ыйрал	10723
wild	10724
ясына	10725
авайи	10726
vac	10727
phot	10728
стенд	10729
нуко	10730
умио	10731
амдуу	10732
зекет	10733
арзый	10734
ливье	10735
кульп	10736
шишип	10737
песси	10738
шукур	10739
аңсыл	10740
остео	10741
вято	10742
кихот	10743
micro	10744
уңгар	10745
дебют	10746
өңкөр	10747
vpn	10748
**	10749
07	10750
bar	10751
benz	10752
dw	10753
del	10754
dpa	10755
gn	10756
ica	10757
ju	10758
om	10759
rl	10760
ul	10761
аги	10762
бк	10763
бтр	10764
вул	10765
гѳ	10766
гоо	10767
гдам	10768
дм	10769
др	10770
емит	10771
зый	10772
зза	10773
зюм	10774
идан	10775
идо	10776
йз	10777
кст	10778
кына	10779
кян	10780
лв	10781
лмак	10782
одер	10783
ожах	10784
пок	10785
пика	10786
птор	10787
пороз	10788
рдон	10789
рэн	10790
сн	10791
сб	10792
сайы	10793
ути	10794
уск	10795
уфа	10796
фкк	10797
цай	10798
чим	10799
ые	10800
ыӊг	10801
эши	10802
ѳл	10803
үи	10804
өэ	10805
##уст	10806
##тө	10807
##аж	10808
##ляж	10809
##ьев	10810
##еда	10811
##ws	10812
##хе	10813
##хак	10814
##ыд	10815
##ev	10816
##rd	10817
##om	10818
##чат	10819
алика	10820
аллы	10821
арра	10822
арсы	10823
аргу	10824
арви	10825
##ыке	10826
ынар	10827
ынап	10828
анни	10829
атя	10830
ател	10831
инни	10832
орул	10833
кане	10834
ууду	10835
##дед	10836
ияк	10837
ерж	10838
киф	10839
асри	10840
дымак	10841
азир	10842
абан	10843
айтер	10844
ыпы	10845
улб	10846
улуси	10847
укеш	10848
урти	10849
тыт	10850
байко	10851
ыкан	10852
ырье	10853
енцов	10854
талар	10855
лади	10856
лави	10857
лауд	10858
салом	10859
стант	10860
амза	10861
амса	10862
ийке	10863
иймыр	10864
агыр	10865
учик	10866
русо	10867
өрдү	10868
литер	10869
лива	10870
сий	10871
сима	10872
ндөн	10873
ойко	10874
ттир	10875
мурад	10876
илан	10877
обул	10878
обеда	10879
нтс	10880
нтье	10881
ымшак	10882
жүрү	10883
төл	10884
милд	10885
чылы	10886
сызда	10887
отлич	10888
убин	10889
опат	10890
елог	10891
гипо	10892
гипе	10893
аджи	10894
октя	10895
алаф	10896
мако	10897
умбай	10898
умуля	10899
тышат	10900
икмеч	10901
грэ	10902
эрке	10903
агнат	10904
уттар	10905
моза	10906
мости	10907
модед	10908
дора	10909
канад	10910
помид	10911
ажыке	10912
чаак	10913
заган	10914
еминг	10915
алтан	10916
плови	10917
ахро	10918
ахыт	10919
фицит	10920
себе	10921
лома	10922
лота	10923
ехник	10924
льс	10925
иңден	10926
208	10927
203	10928
альди	10929
альдо	10930
альци	10931
30у	10932
аалга	10933
ленск	10934
арих	10935
шыба	10936
егизд	10937
141	10938
игмат	10939
лейк	10940
одор	10941
254	10942
стаз	10943
палат	10944
вали	10945
ранг	10946
179	10947
нфан	10948
ашаа	10949
енебе	10950
196	10951
афро	10952
блуст	10953
ляц	10954
импер	10955
аңгал	10956
276	10957
23ү	10958
282	10959
ухро	10960
ордос	10961
rea	10962
ренл	10963
no14	10964
313	10965
310	10966
480	10967
38и	10968
385	10969
555	10970
ala	10971
гола	10972
шех	10973
нжу	10974
410	10975
родно	10976
474	10977
vip	10978
vid	10979
рпен	10980
545	10981
ries	10982
680	10983
777	10984
674	10985
720	10986
pres	10987
йбори	10988
780	10989
664	10990
660	10991
шакек	10992
972	10993
иего	10994
чаран	10995
борб	10996
amer	10997
eti	10998
рэп	10999
урпан	11000
xii	11001
нейтр	11002
anad	11003
леви	11004
уфляж	11005
way	11006
ncy	11007
румы	11008
ямсо	11009
viii	11010
лжас	11011
овещ	11012
jave	11013
шоко	11014
аптал	11015
лифф	11016
monde	11017
nyt	11018
pharm	11019
оӊку	11020
gital	11021
княз	11022
ворон	11023
брамо	11024
irna	11025
шлина	11026
юнхен	11027
пуши	11028
арзыб	11029
орпок	11030
еннет	11031
космо	11032
ншот	11033
***	11034
вулка	11035
гоочу	11036
зыйпа	11037
hor	11038
han	11039
jan	11040
jsa	11041
kf	11042
ken	11043
mp	11044
rd	11045
rin	11046
val	11047
vel	11048
xia	11049
zon	11050
ааш	11051
бот	11052
вв	11053
ваш	11054
влет	11055
гна	11056
гпу	11057
жама	11058
жэн	11059
зго	11060
ищ	11061
йно	11062
йгар	11063
йоз	11064
кз	11065
кне	11066
кчей	11067
лх	11068
м2	11069
морт	11070
нъ	11071
нон	11072
нкер	11073
нене	11074
нчар	11075
пект	11076
рут	11077
раны	11078
сли	11079
сев	11080
сис	11081
сфа	11082
тэ	11083
уди	11084
уали	11085
фурт	11086
хлас	11087
чана	11088
штай	11089
эе	11090
юре	11091
##лз	11092
##сно	11093
##вр	11094
##вел	11095
##ur	11096
##дб	11097
##пс	11098
##ex	11099
##oн	11100
##ol	11101
##чка	11102
##шн	11103
##яв	11104
##эле	11105
##hn	11106
##ено	11107
алкы	11108
арук	11109
арвар	11110
аржал	11111
ароз	11112
коди	11113
кеш	11114
ынат	11115
гани	11116
##оли	11117
аня	11118
анбай	11119
##или	11120
##амо	11121
бирим	11122
инжал	11123
габри	11124
таун	11125
##сть	11126
ороо	11127
ортеп	11128
карим	11129
аксе	11130
ерем	11131
еркес	11132
киp	11133
асла	11134
абб	11135
абхаз	11136
улти	11137
улале	11138
##уша	11139
теӊ	11140
эмп	11141
ашко	11142
ылч	11143
софт	11144
сосно	11145
бедин	11146
урки	11147
барр	11148
оше	11149
##исс	11150
баи	11151
трак	11152
##имб	11153
енек	11154
енри	11155
ирз	11156
##тий	11157
апи	11158
апыз	11159
апчу	11160
лау	11161
лага	11162
лахо	11163
##лос	11164
авыд	11165
амсу	11166
амбод	11167
амчат	11168
ийчи	11169
ийни	11170
нино	11171
нине	11172
олин	11173
олли	11174
мид	11175
ушан	11176
ушта	11177
ушчу	11178
учук	11179
сив	11180
кугу	11181
имх	11182
шайы	11183
риде	11184
илшо	11185
илтон	11186
илшад	11187
обл	11188
танз	11189
өөп	11190
раат	11191
ымсак	11192
ейсе	11193
иссар	11194
уюп	11195
ипа	11196
ипти	11197
иппе	11198
нистр	11199
артай	11200
убли	11201
райл	11202
райб	11203
леон	11204
елж	11205
елси	11206
гига	11207
адж	11208
адия	11209
адил	11210
конит	11211
пани	11212
дикте	11213
итин	11214
итик	11215
нока	11216
паро	11217
парин	11218
григ	11219
муд	11220
аграм	11221
утна	11222
оңк	11223
омон	11224
омисс	11225
биг	11226
аңкал	11227
озеф	11228
езе	11229
ртү	11230
жиу	11231
жиело	11232
епон	11233
кинч	11234
шумер	11235
лого	11236
өсүн	11237
ахай	11238
спан	11239
манда	11240
лою	11241
аатан	11242
раки	11243
елиф	11244
аават	11245
мэй	11246
corp	11247
ково	11248
157	11249
льф	11250
ссет	11251
206	11252
204	11253
лимон	11254
альян	11255
уджа	11256
удулу	11257
308	11258
302	11259
режне	11260
тулку	11261
екиди	11262
аучер	11263
лени	11264
nolo	11265
рынын	11266
шыңг	11267
149	11268
мбик	11269
сения	11270
шоссе	11271
риза	11272
255	11273
олис	11274
олист	11275
граф	11276
capi	11277
едро	11278
ечүү	11279
194	11280
блия	11281
246	11282
244	11283
271	11284
236	11285
рони	11286
265	11287
квон	11288
ербок	11289
##ine	11290
inve	11291
inde	11292
285	11293
рахат	11294
рова	11295
аксым	11296
323	11297
325	11298
tive	11299
остин	11300
устон	11301
нсор	11302
346	11303
трасб	11304
ралаш	11305
all	11306
хост	11307
нжен	11308
418	11309
411	11310
395	11311
391	11312
удая	11313
нтел	11314
юллер	11315
ris	11316
627	11317
рико	11318
585	11319
580	11320
ржин	11321
681	11322
536	11323
538	11324
531	11325
512	11326
нотар	11327
тель	11328
ors	11329
bil	11330
елимх	11331
борд	11332
шкай	11333
mast	11334
rus	11335
рбет	11336
рбани	11337
опкут	11338
авлюк	11339
рэй	11340
рэтк	11341
айзер	11342
бокир	11343
edu	11344
932	11345
sus	11346
940	11347
isbn	11348
кэрри	11349
ыракм	11350
ауни	11351
шариа	11352
лжур	11353
иркеш	11354
how	11355
эние	11356
опед	11357
very	11358
локал	11359
qua	11360
улеге	11361
europ	11362
vol	11363
лкеси	11364
нвер	11365
kun	11366
греб	11367
вилла	11368
айсаң	11369
ерцог	11370
oxf	11371
тнюк	11372
терои	11373
пауза	11374
repu	11375
bank	11376
imei	11377
ципл	11378
лвани	11379
инних	11380
ухроб	11381
presi	11382
север	11383
03	11384
02	11385
5ке	11386
8де	11387
cy	11388
cre	11389
dra	11390
ele	11391
fe	11392
ft	11393
fli	11394
g2	11395
gy	11396
har	11397
ix	11398
lan	11399
port	11400
ry	11401
ria	11402
rli	11403
rfe	11404
tan	11405
uk	11406
yon	11407
zme	11408
аюу	11409
ббо	11410
бжал	11411
брой	11412
вент	11413
вэн	11414
влас	11415
гм	11416
гви	11417
еист	11418
знак	11419
злов	11420
идж	11421
йот	11422
кик	11423
кпр	11424
мр	11425
м3	11426
мим	11427
мкан	11428
мети	11429
моно	11430
мман	11431
оат	11432
олик	11433
оэн	11434
пел	11435
пшыр	11436
рдам	11437
рсы	11438
рупц	11439
тдин	11440
того	11441
уала	11442
хс	11443
хло	11444
хино	11445
цян	11446
шанс	11447
ъло	11448
ыста	11449
этап	11450
яу	11451
язан	11452
ңш	11453
##фар	11454
##тин	11455
##цин	11456
##гал	11457
##рай	11458
##рор	11459
##вет	11460
##вэй	11461
##pri	11462
##дун	11463
##хин	11464
##cs	11465
##don	11466
##gm	11467
##ящ	11468
##vo	11469
##ѳз	11470
##hr	11471
##zy	11472
алмаз	11473
алван	11474
арек	11475
арги	11476
арси	11477
айер	11478
айба	11479
айит	11480
айман	11481
даки	11482
атро	11483
атве	11484
кади	11485
кадер	11486
##лев	11487
инер	11488
индар	11489
инера	11490
##рас	11491
орн	11492
орес	11493
орбо	11494
акел	11495
##таг	11496
##тах	11497
килей	11498
аспар	11499
мау	11500
теза	11501
прит	11502
приб	11503
калов	11504
ашим	11505
ашым	11506
ылжы	11507
ыйн	11508
овой	11509
урси	11510
урне	11511
уркур	11512
нея	11513
бари	11514
барон	11515
барга	11516
ошэ	11517
ошот	11518
етмен	11519
баум	11520
##зит	11521
##зий	11522
ышту	11523
керч	11524
ыкмай	11525
енис	11526
онас	11527
оном	11528
онета	11529
тикал	11530
апкел	11531
минн	11532
аван	11533
ават	11534
авуш	11535
ланда	11536
амур	11537
амро	11538
амкур	11539
ийе	11540
изам	11541
уччи	11542
саз	11543
оой	11544
оосун	11545
узия	11546
өрк	11547
лиди	11548
литий	11549
сиф	11550
ичер	11551
реген	11552
ойро	11553
имин	11554
имфер	11555
имиля	11556
гом	11557
гомо	11558
атаб	11559
шайын	11560
риги	11561
илян	11562
рдагы	11563
обия	11564
ных	11565
раи	11566
раим	11567
нтай	11568
нтур	11569
нтик	11570
ымыр	11571
ейди	11572
ейна	11573
ейлер	11574
дош	11575
искур	11576
отоп	11577
коль	11578
мех	11579
местр	11580
##кое	11581
убар	11582
убэй	11583
райан	11584
алит	11585
елина	11586
елони	11587
адми	11588
чуйк	11589
цияла	11590
итана	11591
итани	11592
мата	11593
екд	11594
екул	11595
сомо	11596
ылдын	11597
аркет	11598
ктон	11599
роу	11600
роц	11601
оңду	11602
биб	11603
армен	11604
мой	11605
тиль	11606
аңка	11607
ебиш	11608
ебел	11609
нүч	11610
тоом	11611
инаст	11612
торко	11613
подо	11614
чаа	11615
кини	11616
рмал	11617
кулжа	11618
еман	11619
емил	11620
өсүнө	11621
ратк	11622
ноябр	11623
ахич	11624
рамва	11625
брим	11626
##пос	11627
луцки	11628
еңеш	11629
ешил	11630
есп	11631
еску	11632
аялы	11633
ринф	11634
лайк	11635
кагын	11636
мэн	11637
жоё	11638
осик	11639
льеф	11640
ссур	11641
елток	11642
удди	11643
306	11644
303	11645
304	11646
ыңы	11647
нгуше	11648
ычыл	11649
ксим	11650
ыртыл	11651
пуль	11652
арида	11653
арите	11654
ариду	11655
атраң	11656
игран	11657
атыша	11658
арылд	11659
ысый	11660
шой	11661
стаг	11662
184	11663
аниб	11664
ранш	11665
405	11666
шии	11667
ханза	11668
тейт	11669
апаң	11670
рсена	11671
афез	11672
604	11673
лагма	11674
226	11675
шамбе	11676
вахап	11677
80и	11678
верто	11679
унуч	11680
21и	11681
216	11682
218	11683
фины	11684
274	11685
351	11686
рета	11687
өлөмү	11688
зели	11689
ниса	11690
28и	11691
287	11692
284	11693
закем	11694
ухум	11695
eri	11696
ртос	11697
452	11698
ниме	11699
regi	11700
335	11701
укас	11702
298	11703
292	11704
34ү	11705
317	11706
##cha	11707
бийл	11708
мпер	11709
мпур	11710
448	11711
440	11712
55и	11713
557	11714
552	11715
ald	11716
энь	11717
увал	11718
416	11719
421	11720
medi	11721
шени	11722
ллин	11723
мушта	11724
ona	11725
алгаш	11726
ефт	11727
##юрн	11728
арлз	11729
охтар	11730
##mir	11731
утума	11732
575	11733
495	11734
sams	11735
##ётр	11736
ориу	11737
orm	11738
orda	11739
ллис	11740
670	11741
730	11742
урбон	11743
tolo	11744
760	11745
егас	11746
sport	11747
дель	11748
665	11749
замон	11750
эйлу	11751
эйтед	11752
здөрү	11753
хакам	11754
асиба	11755
рупий	11756
ship	11757
ныкы	11758
рэд	11759
арема	11760
иллон	11761
dio	11762
аңгаг	11763
921	11764
аннан	11765
тпей	11766
960	11767
ыбык	11768
цзе	11769
цзэ	11770
mba	11771
sipri	11772
олкул	11773
цинк	11774
уриан	11775
унгур	11776
пьев	11777
аруф	11778
арух	11779
шокер	11780
тчер	11781
лазер	11782
no61	11783
ясна	11784
mond	11785
стено	11786
харам	11787
tute	11788
черк	11789
week	11790
баппе	11791
рүндө	11792
уалет	11793
яньа	11794
пицца	11795
пиццы	11796
шыбак	11797
нюст	11798
еляц	11799
отель	11800
акфир	11801
оштв	11802
grand	11803
аттиң	11804
full	11805
взвод	11806
иуда	11807
black	11808
mcdon	11809
риумф	11810
эшит	11811
өэу	11812
одорк	11813
аашыр	11814
илшод	11815
g20	11816
кпрф	11817
05	11818
09	11819
01	11820
7ге	11821
ac	11822
ari	11823
blo	11824
fil	11825
her	11826
ker	11827
mpi	11828
oo	11829
ora	11830
ota	11831
ose	11832
per	11833
pet	11834
qst	11835
rvi	11836
sm	11837
she	11838
tou	11839
аген	11840
аум	11841
бик	11842
бзий	11843
воло	11844
гзам	11845
гарт	11846
гнат	11847
еал	11848
зик	11849
зура	11850
ии	11851
иду	11852
иеш	11853
иже	11854
йул	11855
кле	11856
кбо	11857
кзит	11858
лут	11859
лүш	11860
лесс	11861
мф	11862
мге	11863
мёт	11864
нл	11865
нра	11866
нюрн	11867
ока	11868
пм	11869
пам	11870
пит	11871
пэт	11872
ря	11873
рдер	11874
сик	11875
сэм	11876
тку	11877
уе	11878
уана	11879
уция	11880
уме	11881
уден	11882
уэл	11883
уэр	11884
фел	11885
фбк	11886
хро	11887
хата	11888
хью	11889
цы	11890
цим	11891
чот	11892
чкар	11893
шп	11894
шоро	11895
шея	11896
ыбай	11897
яш	11898
ёт	11899
ёд	11900
қуз	11901
үсүн	11902
##уц	11903
##мет	11904
##лс	11905
##лют	11906
##ег	11907
##ех	11908
##зил	11909
##нс	11910
##ву	11911
##хер	11912
##su	11913
##пык	11914
##чып	11915
##жер	11916
##яо	11917
##ls	11918
##zi	11919
##ber	11920
##bdo	11921
##fo	11922
##аре	11923
ален	11924
алин	11925
алдай	11926
араны	11927
арби	11928
арраф	11929
айор	11930
айча	11931
айза	11932
ынжы	11933
дела	11934
анара	11935
атче	11936
атери	11937
атом	11938
атман	11939
кац	11940
##илл	11941
инх	11942
инес	11943
тае	11944
орти	11945
орея	11946
канди	11947
ууй	11948
нына	11949
акд	11950
акб	11951
аксо	11952
унжу	11953
унвэй	11954
ерх	11955
ерте	11956
ерээ	11957
ерзод	11958
жая	11959
асан	11960
асер	11961
асло	11962
асси	11963
аспи	11964
аспа	11965
мади	11966
булу	11967
азум	11968
абло	11969
ыпкал	11970
өлт	11971
##аса	11972
улен	11973
улуг	11974
стай	11975
стара	11976
стро	11977
ашо	11978
ашке	11979
ылтаг	11980
динб	11981
ыйша	11982
тише	11983
даном	11984
ургон	11985
урунд	11986
неон	11987
##опо	11988
баар	11989
байра	11990
байду	11991
окси	11992
элс	11993
элина	11994
ырпык	11995
енка	11996
енчуг	11997
корп	11998
ирлик	11999
оня	12000
онта	12001
онцов	12002
апш	12003
аптыр	12004
минде	12005
мином	12006
ладе	12007
авз	12008
авла	12009
комм	12010
амм	12011
амер	12012
амбо	12013
амари	12014
жоли	12015
олц	12016
оля	12017
олуш	12018
олчу	12019
миб	12020
изом	12021
саги	12022
узург	12023
лиани	12024
редел	12025
имар	12026
имон	12027
курси	12028
рие	12029
риат	12030
рива	12031
рифи	12032
илмеч	12033
тоун	12034
евлют	12035
дуду	12036
ныгыс	12037
дерл	12038
рач	12039
раек	12040
раст	12041
рауп	12042
рагм	12043
нту	12044
нтраф	12045
ымыз	12046
төгө	12047
исс	12048
исма	12049
##куд	12050
оттер	12051
ипп	12052
нив	12053
уулга	12054
райко	12055
агава	12056
абах	12057
оопт	12058
оопур	12059
итро	12060
екре	12061
екзод	12062
##чег	12063
маку	12064
икам	12065
тубер	12066
роси	12067
роэле	12068
оңол	12069
##рит	12070
##ива	12071
омдун	12072
бит	12073
аңтар	12074
иная	12075
инага	12076
рубри	12077
руэлл	12078
чаба	12079
ртик	12080
зади	12081
бака	12082
епсе	12083
толо	12084
адака	12085
емер	12086
гыны	12087
нардо	12088
брор	12089
ыраз	12090
ырааг	12091
манн	12092
##ица	12093
10у	12094
лдири	12095
есел	12096
дали	12097
ааби	12098
ехди	12099
льск	12100
льич	12101
пеис	12102
пейже	12103
307	12104
305	12105
скак	12106
ауэлл	12107
ургур	12108
дамды	12109
само	12110
самат	12111
усур	12112
элис	12113
ород	12114
шарип	12115
пасе	12116
архи	12117
пира	12118
пирс	12119
нико	12120
253	12121
пало	12122
182	12123
емич	12124
ижний	12125
cam	12126
шида	12127
шибер	12128
рафф	12129
кмөт	12130
шаты	12131
рсин	12132
афари	12133
еаэк	12134
блок	12135
блэк	12136
605	12137
ерап	12138
243	12139
223	12140
229	12141
222	12142
буут	12143
айраг	12144
рдуна	12145
рдови	12146
357	12147
234	12148
266	12149
269	12150
пати	12151
морал	12152
ine	12153
sto	12154
закон	12155
ухит	12156
елье	12157
ельфи	12158
атоме	12159
erc	12160
456	12161
451	12162
red	12163
фада	12164
фазил	12165
tel	12166
tex	12167
362	12168
лиса	12169
еймар	12170
326	12171
орона	12172
ендел	12173
754	12174
этном	12175
хау	12176
296	12177
297	12178
291	12179
347	12180
318	12181
315	12182
311	12183
мпус	12184
##art	12185
ансап	12186
limi	12187
48и	12188
аадат	12189
шири	12190
551	12191
дское	12192
41и	12193
рыжа	12194
428	12195
439	12196
абиб	12197
479	12198
охиб	12199
ромб	12200
541	12201
тигма	12202
равд	12203
620	12204
road	12205
582	12206
636	12207
630	12208
498	12209
514	12210
774	12211
орич	12212
617	12213
610	12214
икипе	12215
икеч	12216
bild	12217
644	12218
елави	12219
тепк	12220
иреге	12221
led	12222
870	12223
оллон	12224
deli	12225
comm	12226
820	12227
nair	12228
sos	12229
city	12230
айзы	12231
еттин	12232
no36	12233
втб	12234
хуа	12235
xiv	12236
day	12237
эвен	12238
аскад	12239
nexta	12240
wada	12241
910	12242
орецк	12243
lab	12244
езид	12245
una	12246
##usi	12247
ражен	12248
цивил	12249
алтаб	12250
isra	12251
hap	12252
insti	12253
ырдаш	12254
отиви	12255
pay	12256
fore	12257
блица	12258
папка	12259
рифу	12260
еркул	12261
арвен	12262
ызаат	12263
moni	12264
глю	12265
венгр	12266
оӊо	12267
рохин	12268
pega	12269
qaza	12270
ужум	12271
брамс	12272
пись	12273
unit	12274
mari	12275
брох	12276
пкул	12277
busi	12278
hebdo	12279
почта	12280
ффар	12281
iphr	12282
улкуп	12283
рцах	12284
кыям	12285
арнас	12286
уллах	12287
рошон	12288
info	12289
жовт	12290
арлис	12291
ебете	12292
ktar	12293
bayra	12294
чжэ	12295
чжэн	12296
pisa	12297
вейс	12298
ченеб	12299
john	12300
артеф	12301
boxi	12302
brent	12303
bto	12304
cdc	12305
йфел	12306
team	12307
покр	12308
ливая	12309
kfw	12310
ввс	12311
howo	12312
rlie	12313
вэнс	12314
екдот	12315
samsu	12316
иудаи	12317
qstan	12318
rvice	12319
йулла	12320
".	12321
:-	12322
aut	12323
aba	12324
bb	12325
bra	12326
cs	12327
dy	12328
festi	12329
ger	12330
gar	12331
im	12332
jia	12333
lon	12334
lar	12335
my	12336
nj	12337
od	12338
rge	12339
smar	12340
tre	12341
tri	12342
tro	12343
var	12344
ze	12345
zho	12346
şa	12347
аго	12348
аура	12349
ауша	12350
бике	12351
ву	12352
гара	12353
гнес	12354
глас	12355
дри	12356
дула	12357
еу	12358
емат	12359
еоло	12360
жут	12361
зю	12362
зев	12363
здо	12364
ймаг	12365
йод	12366
ксу	12367
кпар	12368
лф	12369
мсун	12370
мре	12371
мпич	12372
мрт	12373
мчег	12374
нзи	12375
нкар	12376
нри	12377
одар	12378
олет	12379
пур	12380
пыз	12381
пса	12382
пий	12383
рани	12384
смен	12385
сная	12386
тх	12387
тю	12388
тхан	12389
уер	12390
уай	12391
уок	12392
уци	12393
фун	12394
хут	12395
хна	12396
хvi	12397
ца	12398
цел	12399
шул	12400
шүк	12401
шара	12402
шыг	12403
шама	12404
ыке	12405
ьен	12406
ьёв	12407
эц	12408
эд	12409
эб	12410
юд	12411
ѳт	12412
өле	12413
##уи	12414
##кут	12415
##мс	12416
##см	12417
##рак	12418
##өу	12419
##вай	12420
##хид	12421
##ход	12422
##sy	12423
##ep	12424
##du	12425
##шат	12426
##жба	12427
##lr	12428
##no	12429
##ke	12430
##енг	12431
##енд	12432
алок	12433
аркер	12434
арме	12435
арза	12436
арсу	12437
ареке	12438
аймат	12439
айши	12440
айфа	12441
кок	12442
##ира	12443
ынс	12444
ынык	12445
##уни	12446
анет	12447
анби	12448
анел	12449
анци	12450
анаб	12451
ишт	12452
инур	12453
индо	12454
инзар	12455
гадо	12456
орка	12457
##дев	12458
акр	12459
ерен	12460
ерсо	12461
еркем	12462
берон	12463
киш	12464
ася	12465
асни	12466
ассан	12467
асрал	12468
абек	12469
абине	12470
абза	12471
ыпат	12472
ыпара	12473
өлтү	12474
улкар	12475
улжан	12476
улрах	12477
улхак	12478
экзо	12479
экөу	12480
тед	12481
прин	12482
үүлө	12483
стак	12484
стака	12485
кало	12486
ашик	12487
ашари	12488
үнгө	12489
соӊ	12490
сопу	12491
чес	12492
чеи	12493
ыйл	12494
тих	12495
бедев	12496
урген	12497
урэл	12498
непо	12499
барс	12500
барит	12501
араф	12502
оши	12503
үрѳ	12504
трам	12505
керме	12506
керри	12507
ыкар	12508
ырь	12509
ирок	12510
апек	12511
апол	12512
апес	12513
апри	12514
үйр	12515
дието	12516
комо	12517
амя	12518
амим	12519
амый	12520
ийг	12521
ийн	12522
ийем	12523
нина	12524
олтан	12525
сада	12526
өргөн	12527
ливи	12528
сите	12529
##боз	12530
арыс	12531
имхан	12532
имич	12533
бизон	12534
мурут	12535
риет	12536
риел	12537
риент	12538
илле	12539
илкан	12540
сема	12541
огун	12542
огов	12543
обир	12544
тано	12545
өөг	12546
чече	12547
еймер	12548
упа	12549
уплет	12550
отк	12551
отоо	12552
нива	12553
мега	12554
мели	12555
басан	12556
артүр	12557
сух	12558
суфи	12559
убен	12560
леуб	12561
опер	12562
опес	12563
елаш	12564
гид	12565
адин	12566
адри	12567
виц	12568
нобат	12569
ности	12570
ность	12571
##елл	12572
умба	12573
расно	12574
аркай	12575
туд	12576
ктёр	12577
родо	12578
мом	12579
аңкай	12580
ебер	12581
тоот	12582
езис	12583
торо	12584
руб	12585
ысмы	12586
ртунд	12587
амима	12588
поло	12589
поля	12590
полиг	12591
тукки	12592
малд	12593
алтак	12594
текс	12595
ахт	12596
ахара	12597
рамор	12598
ликви	12599
ураз	12600
ааси	12601
##жаи	12602
лоза	12603
штад	12604
ттав	12605
штам	12606
штрих	12607
еселе	12608
качан	12609
руно	12610
восто	12611
кемен	12612
осан	12613
оссе	12614
акао	12615
льц	12616
хамра	12617
лиман	12618
альси	12619
альва	12620
##джи	12621
удда	12622
скра	12623
нгул	12624
рсит	12625
ериг	12626
лента	12627
жаму	12628
гуен	12629
гума	12630
уссе	12631
усни	12632
арифа	12633
роско	12634
зио	12635
ванш	12636
шарк	12637
архар	12638
сияны	12639
рекц	12640
рекви	12641
шота	12642
ники	12643
259	12644
ерссо	12645
ытыл	12646
лешка	12647
сумга	12648
асти	12649
люси	12650
енсер	12651
енсус	12652
моле	12653
молёт	12654
406	12655
рейип	12656
зобо	12657
тосот	12658
##ata	12659
алед	12660
ожник	12661
ечкек	12662
артаң	12663
ацлав	12664
рсон	12665
ристо	12666
248	12667
атыны	12668
сыпыр	12669
реви	12670
нью	12671
атиф	12672
атима	12673
277	12674
279	12675
355	12676
жкк	12677
патро	12678
908	12679
ербет	12680
286	12681
өраг	12682
ern	12683
урдаш	12684
позн	12685
зунг	12686
аксыр	12687
366	12688
361	12689
уйда	12690
уйур	12691
сейит	12692
емода	12693
аркыт	12694
no16	12695
no19	12696
no11	12697
341	12698
314	12699
319	12700
lix	12701
lict	12702
486	12703
ралес	12704
нчал	12705
388	12706
387	12707
654	12708
371	12709
арчын	12710
нжил	12711
увап	12712
рыц	12713
426	12714
423	12715
429	12716
индиг	12717
чинин	12718
435	12719
396	12720
475	12721
гилас	12722
кбокс	12723
549	12724
roid	12725
ржев	12726
571	12727
638	12728
685	12729
497	12730
кумт	12731
510	12732
561	12733
orga	12734
chi	12735
737	12736
732	12737
улгал	12738
590	12739
аллас	12740
top	12741
ылааж	12742
712	12743
сфор	12744
783	12745
poi	12746
afad	12747
975	12748
уэт	12749
уэнос	12750
795	12751
хакас	12752
shot	12753
рхон	12754
demo	12755
отуя	12756
авлон	12757
ируза	12758
ncet	12759
лбина	12760
dis	12761
xiii	12762
шорпо	12763
улпул	12764
doi	12765
дзина	12766
бахо	12767
эвис	12768
уфули	12769
пенг	12770
уант	12771
eur	12772
тузу	12773
еӊил	12774
law	12775
сталл	12776
netf	12777
good	12778
haw	12779
етодо	12780
ырдак	12781
зуур	12782
чачыл	12783
chev	12784
forbe	12785
илаф	12786
папил	12787
иркеп	12788
mine	12789
аптык	12790
арван	12791
ницца	12792
рфог	12793
фитс	12794
вотч	12795
эзоп	12796
овое	12797
conf	12798
воль	12799
geo	12800
aze	12801
илаши	12802
зонни	12803
eral	12804
аштад	12805
үнхен	12806
ркоз	12807
honda	12808
пингв	12809
кфон	12810
елужи	12811
hyu	12812
тавра	12813
нние	12814
ndai	12815
мбайн	12816
чкул	12817
адуга	12818
гёте	12819
гѳн	12820
улбул	12821
лхом	12822
атвее	12823
ижего	12824
рдерн	12825
ерээз	12826
ledko	12827
unama	12828
абзац	12829
aa	12830
avi	12831
ace	12832
ben	12833
bor	12834
bch	12835
cra	12836
cia	12837
cle	12838
cru	12839
don	12840
din	12841
ddo	12842
ey	12843
eli	12844
ews	12845
fer	12846
ffi	12847
gal	12848
gro	12849
gps	12850
io	12851
ik	12852
i̇	12853
ira	12854
je	12855
jet	12856
kei	12857
kek	12858
ler	12859
llu	12860
md	12861
mes	12862
mor	12863
os	12864
oz	12865
old	12866
pl	12867
rе	12868
rest	12869
rbek	12870
s7	12871
sen	12872
sni	12873
swa	12874
tü	12875
trt	12876
vya	12877
ws	12878
wal	12879
west	12880
zi	12881
ао	12882
аана	12883
аулу	12884
бз	12885
бору	12886
бээ	12887
бжан	12888
бина	12889
вг	12890
вчи	12891
вино	12892
глы	12893
гово	12894
дъ	12895
еэ	12896
еол	12897
еты	12898
ебек	12899
еани	12900
еден	12901
жеш	12902
жoн	12903
зн	12904
зген	12905
заг	12906
зүнө	12907
золя	12908
иала	12909
илиг	12910
йдин	12911
йфо	12912
кa	12913
кык	12914
ксо	12915
квар	12916
кви	12917
лый	12918
ллар	12919
мый	12920
мунд	12921
нб	12922
ниш	12923
нгус	12924
няз	12925
нрих	12926
оис	12927
один	12928
одик	12929
ожаи	12930
паш	12931
пиво	12932
пётр	12933
рё	12934
рсб	12935
рфа	12936
сл	12937
сa	12938
сра	12939
смак	12940
сно	12941
секс	12942
сво	12943
сдп	12944
сран	12945
тнос	12946
тхон	12947
уү	12948
уам	12949
уиз	12950
уюн	12951
удит	12952
уез	12953
фро	12954
хт	12955
хин	12956
хли	12957
хоп	12958
хит	12959
хари	12960
хдб	12961
хрор	12962
цвет	12963
чине	12964
чжа	12965
чже	12966
шют	12967
якт	12968
яти	12969
ёс	12970
ңор	12971
##ффе	12972
##йн	12973
##цу	12974
##гет	12975
##ьер	12976
##ьян	12977
##еб	12978
##ели	12979
##зя	12980
##ров	12981
##ряв	12982
##үй	12983
##ec	12984
##бур	12985
##бил	12986
##rs	12987
##my	12988
##чыл	12989
##ax	12990
##by	12991
##ант	12992
алон	12993
алев	12994
алини	12995
арф	12996
арири	12997
арпыл	12998
арлос	12999
айле	13000
айдо	13001
айжа	13002
коза	13003
кеде	13004
даай	13005
##ако	13006
##гыр	13007
анди	13008
аналы	13009
атынд	13010
ками	13011
мено	13012
##иль	13013
ишка	13014
инамо	13015
орта	13016
орян	13017
бола	13018
кард	13019
ууйт	13020
лард	13021
акур	13022
акуш	13023
ункер	13024
еруп	13025
ерлус	13026
ергин	13027
ерами	13028
кии	13029
аскы	13030
туур	13031
ыпаа	13032
турла	13033
нау	13034
нади	13035
нази	13036
наси	13037
насо	13038
надел	13039
уля	13040
улани	13041
строй	13042
ашпи	13043
ашит	13044
ылак	13045
лера	13046
ыйкы	13047
ыйба	13048
беги	13049
ован	13050
урай	13051
урик	13052
ургус	13053
барри	13054
аяш	13055
##ису	13056
үрс	13057
окк	13058
трян	13059
күсүн	13060
ыкк	13061
еня	13062
енза	13063
енжи	13064
ирги	13065
ируз	13066
иррах	13067
онус	13068
онку	13069
апай	13070
апор	13071
апил	13072
апкак	13073
апчып	13074
минг	13075
минд	13076
минус	13077
генди	13078
##чуа	13079
##лот	13080
авана	13081
аму	13082
амол	13083
амана	13084
амыз	13085
амиз	13086
амдын	13087
амзин	13088
амос	13089
оляр	13090
ушер	13091
изак	13092
саян	13093
ардыр	13094
узвел	13095
караж	13096
липе	13097
рех	13098
реису	13099
имай	13100
имка	13101
ундай	13102
муре	13103
рито	13104
риден	13105
ридж	13106
риэл	13107
илки	13108
илва	13109
илоро	13110
тоти	13111
евд	13112
сем	13113
сеин	13114
жеэк	13115
обур	13116
обор	13117
ачи	13118
ныяз	13119
рауд	13120
нтал	13121
ейкер	13122
ейко	13123
ейсб	13124
доол	13125
упеш	13126
упса	13127
отче	13128
отоло	13129
нита	13130
нипа	13131
үлүгү	13132
истик	13133
пайз	13134
бозо	13135
убт	13136
убер	13137
убио	13138
лем	13139
леб	13140
алида	13141
алиха	13142
елк	13143
елер	13144
елый	13145
елсат	13146
адв	13147
адыл	13148
адык	13149
адари	13150
чума	13151
лори	13152
мате	13153
умпай	13154
##цио	13155
икл	13156
икх	13157
икал	13158
икул	13159
грэм	13160
муста	13161
агдат	13162
ментт	13163
утана	13164
утина	13165
роти	13166
омс	13167
омме	13168
мос	13169
мокт	13170
аңк	13171
акырд	13172
нөлү	13173
езги	13174
руста	13175
ружба	13176
ажан	13177
ажап	13178
ыса	13179
ртр	13180
зах	13181
заид	13182
жист	13183
епс	13184
амиди	13185
акыя	13186
сатар	13187
адит	13188
адишо	13189
рмала	13190
рмент	13191
полто	13192
герб	13193
емеле	13194
теке	13195
елем	13196
нард	13197
зари	13198
рами	13199
рамза	13200
луж	13201
анаф	13202
анафи	13203
лока	13204
лозо	13205
еңгел	13206
еша	13207
ешеси	13208
ракч	13209
есер	13210
есла	13211
этчер	13212
чалык	13213
ринин	13214
вой	13215
үстүн	13216
лайф	13217
ехр	13218
ехто	13219
ехман	13220
##берт	13221
оспи	13222
осфор	13223
cou	13224
нетт	13225
альто	13226
гиня	13227
пед	13228
пече	13229
удь	13230
удряв	13231
309	13232
301	13233
ксай	13234
ксон	13235
аухар	13236
бурха	13237
now	13238
пулу	13239
ингуш	13240
усев	13241
уску	13242
ариан	13243
шыдыр	13244
үтүп	13245
##ьяк	13246
пиро	13247
атрин	13248
арылг	13249
мыкт	13250
сенс	13251
одмос	13252
##mad	13253
вели	13254
вела	13255
256	13256
258	13257
257	13258
зман	13259
ытма	13260
граб	13261
граж	13262
астыр	13263
астап	13264
люди	13265
мерд	13266
порц	13267
407	13268
409	13269
рейд	13270
како	13271
идес	13272
кмал	13273
нцз	13274
филь	13275
шатма	13276
мони	13277
атаре	13278
ргасы	13279
дисци	13280
ожер	13281
ляга	13282
608	13283
602	13284
neet	13285
кчо	13286
кчыл	13287
шамс	13288
шами	13289
шампа	13290
ваң	13291
юнч	13292
ернар	13293
айраң	13294
211	13295
нье	13296
ньес	13297
былд	13298
посто	13299
273	13300
272	13301
353	13302
352	13303
уаз	13304
237	13305
239	13306
267	13307
норка	13308
ini	13309
stry	13310
288	13311
итио	13312
иниат	13313
инима	13314
ухай	13315
ухари	13316
ухид	13317
ухгал	13318
рахам	13319
нтиг	13320
##ood	13321
рапи	13322
клах	13323
бюст	13324
ними	13325
367	13326
363	13327
ермен	13328
ермес	13329
33ү	13330
вете	13331
ритре	13332
328	13333
327	13334
321	13335
tics	13336
мкк	13337
рулло	13338
29у	13339
295	13340
no18	13341
no13	13342
348	13343
342	13344
арсыл	13345
мпула	13346
life	13347
487	13348
444	13349
445	13350
пино	13351
ширин	13352
ифат	13353
ифтах	13354
йсал	13355
554	13356
559	13357
65и	13358
653	13359
славд	13360
голи	13361
378	13362
шело	13363
увени	13364
417	13365
419	13366
чини	13367
ллино	13368
лленж	13369
393	13370
392	13371
476	13372
ефор	13373
апос	13374
no25	13375
гноб	13376
543	13377
равел	13378
629	13379
583	13380
581	13381
ржон	13382
омой	13383
574	13384
572	13385
632	13386
682	13387
528	13388
522	13389
469	13390
533	13391
517	13392
hub	13393
нотр	13394
лүктө	13395
568	13396
ches	13397
727	13398
729	13399
алля	13400
аллин	13401
bish	13402
кисел	13403
641	13404
78и	13405
pol	13406
668	13407
удуд	13408
удуң	13409
840	13410
кодил	13411
lev	13412
mad	13413
эйко	13414
794	13415
ктот	13416
тоту	13417
816	13418
812	13419
бинец	13420
832	13421
пласт	13422
sout	13423
cir	13424
civi	13425
no39	13426
nder	13427
nders	13428
смани	13429
992	13430
котч	13431
уфур	13432
нгел	13433
lav	13434
цзем	13435
sid	13436
sity	13437
ражуд	13438
тсва	13439
шапал	13440
шапке	13441
юмда	13442
bot	13443
алтаң	13444
mit	13445
haber	13446
covax	13447
paki	13448
pamir	13449
sea	13450
ырахм	13451
аутс	13452
akip	13453
амшит	13454
гейм	13455
шаңга	13456
hold	13457
эниэ	13458
олеум	13459
шуру	13460
ылгап	13461
proj	13462
phd	13463
giz	13464
nger	13465
figa	13466
que	13467
рохир	13468
брамз	13469
mark	13470
амсил	13471
вксе	13472
рпач	13473
зонд	13474
ньяк	13475
ghtra	13476
nuc	13477
рцогу	13478
язов	13479
ркоб	13480
релиз	13481
еллен	13482
ауль	13483
свен	13484
фулл	13485
аржау	13486
абото	13487
духун	13488
grant	13489
ccbu	13490
дюжар	13491
cup	13492
нтош	13493
scho	13494
плита	13495
хайп	13496
aqi	13497
help	13498
звено	13499
озавр	13500
домор	13501
аутои	13502
кстон	13503
рэнк	13504
чимк	13505
арсыг	13506
йозеф	13507
нъюн	13508
volk	13509
land	13510
ыйнур	13511
мехр	13512
ефть	13513
цзэд	13514
film	13515
smm	13516
мфорт	13517
нрава	13518
ёдор	13519
мибия	13520
bbli	13521
агом	13522
зевс	13523
анабы	13524
льцг	13525
cracy	13526
ddos	13527
llup	13528
вгик	13529
уизиа	13530
чжао	13531
яктуу	13532
2х	13533
3d	13534
5те	13535
6га	13536
7де	13537
8ге	13538
aр	13539
bre	13540
cот	13541
cti	13542
dge	13543
ep	13544
evi	13545
ean	13546
ety	13547
eva	13548
eart	13549
fm	13550
farm	13551
fest	13552
fru	13553
gs	13554
gon	13555
hr	13556
ia	13557
if	13558
jer	13559
jin	13560
lut	13561
lla	13562
lop	13563
mpo	13564
mcha	13565
musi	13566
nte	13567
nter	13568
ok	13569
ovi	13570
oce	13571
rba	13572
sla	13573
sil	13574
tw	13575
tz	13576
tsh	13577
up	13578
ust	13579
uro	13580
via	13581
war	13582
wps	13583
yda	13584
zan	13585
а1	13586
а2	13587
ауз	13588
бн	13589
бла	13590
бүк	13591
борт	13592
бэк	13593
вам	13594
вери	13595
вори	13596
гда	13597
дное	13598
еап	13599
елика	13600
зара	13601
зме	13602
зем	13603
зей	13604
иё	13605
иен	13606
иат	13607
иир	13608
икер	13609
иба	13610
игил	13611
иуд	13612
иэт	13613
йен	13614
йер	13615
йкел	13616
кзо	13617
лус	13618
лтур	13619
мфи	13620
мру	13621
нок	13622
нүр	13623
нке	13624
нара	13625
нмо	13626
нчик	13627
нёв	13628
оте	13629
олиг	13630
одж	13631
очик	13632
пле	13633
пиза	13634
пэн	13635
рза	13636
рца	13637
ряни	13638
рцо	13639
сет	13640
сна	13641
сму	13642
сяо	13643
тшо	13644
тхо	13645
тьев	13646
уи	13647
уит	13648
уфи	13649
фат	13650
флин	13651
хi	13652
хы	13653
хана	13654
хук	13655
хиз	13656
хара	13657
цар	13658
цева	13659
чун	13660
чте	13661
чөт	13662
чэн	13663
чник	13664
шли	13665
шоп	13666
шмер	13667
шэн	13668
ыта	13669
ытыр	13670
эок	13671
эби	13672
юс	13673
юта	13674
юнос	13675
яда	13676
ярл	13677
ѳѳ	13678
үж	13679
үде	13680
өф	13681
##фат	13682
##об	13683
##мѳ	13684
##зу	13685
##нѳ	13686
##рен	13687
##вон	13688
##дѳ	13689
##хед	13690
##бби	13691
##rri	13692
##oc	13693
##чел	13694
##жор	13695
##яс	13696
##япа	13697
##эс	13698
##эла	13699
##ver	13700
##юз	13701
##bra	13702
##ард	13703
##ати	13704
алук	13705
алми	13706
алчы	13707
аллам	13708
алжал	13709
##инд	13710
арар	13711
армат	13712
арит	13713
арбоз	13714
айш	13715
айим	13716
айси	13717
кобод	13718
кейр	13719
ынта	13720
дао	13721
дага	13722
дахин	13723
анчи	13724
атин	13725
атур	13726
атиш	13727
атлер	13728
атури	13729
##дис	13730
ишер	13731
инн	13732
инис	13733
инден	13734
ином	13735
гах	13736
гауп	13737
таф	13738
таӊ	13739
орс	13740
оря	13741
орми	13742
орна	13743
оргу	13744
ортер	13745
ордж	13746
ормо	13747
карп	13748
канак	13749
ларк	13750
лари	13751
иям	13752
ияр	13753
ияро	13754
акиш	13755
акей	13756
унь	13757
унат	13758
унке	13759
жаты	13760
ерф	13761
ерон	13762
ерес	13763
ерзи	13764
ерба	13765
ерчи	13766
ерне	13767
ерент	13768
ерит	13769
ерхан	13770
берра	13771
берри	13772
жафар	13773
асур	13774
асам	13775
асип	13776
азис	13777
азза	13778
азири	13779
абуш	13780
абри	13781
айто	13782
ыпчыл	13783
турк	13784
нав	13785
наул	13786
улер	13787
укол	13788
укян	13789
укри	13790
укбат	13791
экзи	13792
приц	13793
калый	13794
калье	13795
эмбри	13796
ашан	13797
ылж	13798
ылки	13799
чел	13800
##апс	13801
динс	13802
като	13803
тис	13804
типе	13805
овер	13806
урх	13807
ураш	13808
урча	13809
урүп	13810
уркат	13811
неш	13812
нестр	13813
ошуа	13814
тыма	13815
аяне	13816
етона	13817
бау	13818
үргөн	13819
##овщ	13820
трюк	13821
элли	13822
элсо	13823
күс	13824
ыкы	13825
ыкыл	13826
ырай	13827
ырчы	13828
ыраши	13829
енаш	13830
енет	13831
енке	13832
ендин	13833
енжа	13834
талон	13835
ирө	13836
ирук	13837
ирген	13838
ирми	13839
онре	13840
апча	13841
апуа	13842
минер	13843
лава	13844
лаос	13845
авле	13846
авут	13847
авран	13848
авуд	13849
ланка	13850
амма	13851
ампер	13852
ийма	13853
ийск	13854
олча	13855
оляд	13856
миде	13857
миге	13858
мицин	13859
ушт	13860
ушка	13861
ушнер	13862
изн	13863
изви	13864
агыш	13865
ардо	13866
ардор	13867
шафт	13868
лиа	13869
лиде	13870
липос	13871
ндѳ	13872
куй	13873
куз	13874
жерл	13875
реф	13876
реде	13877
ойя	13878
буду	13879
буюк	13880
иму	13881
имер	13882
мурай	13883
мурод	13884
риен	13885
рипо	13886
илло	13887
эсф	13888
евит	13889
өнөт	13890
рауз	13891
нттин	13892
ымып	13893
ейш	13894
ейжи	13895
илиз	13896
добу	13897
ипке	13898
колин	13899
нич	13900
ниан	13901
түрд	13902
бод	13903
бодо	13904
орбс	13905
нуар	13906
артан	13907
уби	13908
убцов	13909
райм	13910
лещ	13911
опу	13912
алиди	13913
елп	13914
елал	13915
елия	13916
елла	13917
елору	13918
агаж	13919
гист	13920
гипс	13921
абаз	13922
абаң	13923
конти	13924
вида	13925
вифт	13926
камч	13927
итлз	13928
ноу	13929
мати	13930
еким	13931
екрет	13932
умра	13933
умкан	13934
чоб	13935
майни	13936
йтк	13937
##цид	13938
икбо	13939
мув	13940
мудин	13941
агу	13942
агери	13943
ктж	13944
утур	13945
омин	13946
биат	13947
мобил	13948
тило	13949
аңт	13950
ебр	13951
##зад	13952
езос	13953
езнич	13954
руди	13955
руст	13956
руиз	13957
##ной	13958
ажал	13959
чача	13960
чулу	13961
заа	13962
заед	13963
епсел	13964
акыс	13965
кули	13966
перк	13967
пере	13968
алыӊ	13969
емён	13970
раты	13971
тамон	13972
текин	13973
плас	13974
елеп	13975
андор	13976
ыраан	13977
спа	13978
луга	13979
маник	13980
огош	13981
лоз	13982
лото	13983
ешхед	13984
ибрал	13985
аргап	13986
штраф	13987
рипас	13988
лепч	13989
ицил	13990
ринц	13991
ринб	13992
ринар	13993
##ийн	13994
аад	13995
аадыр	13996
өнөк	13997
ехри	13998
лыма	13999
скас	14000
осян	14001
осье	14002
овач	14003
угжан	14004
питер	14005
ссана	14006
альке	14007
альза	14008
амаф	14009
ереб	14010
одой	14011
удов	14012
зомби	14013
ыңша	14014
нгс	14015
ычыш	14016
ортун	14017
ортсм	14018
ихти	14019
ашие	14020
ксё	14021
ауи	14022
аухид	14023
бурн	14024
nop	14025
усаб	14026
усман	14027
арии	14028
ороши	14029
зелте	14030
лашет	14031
вант	14032
шарм	14033
шарма	14034
ирас	14035
ираз	14036
пират	14037
504	14038
501	14039
реке	14040
одур	14041
одул	14042
оджа	14043
ллаж	14044
зияш	14045
вегет	14046
ерсен	14047
едим	14048
едиг	14049
едиз	14050
стави	14051
валь	14052
летар	14053
астма	14054
кряби	14055
люч	14056
лөк	14057
псж	14058
рлен	14059
camp	14060
ттес	14061
ролик	14062
едовщ	14063
енеб	14064
##att	14065
шатыр	14066
латыш	14067
ожде	14068
амбаш	14069
ечен	14070
ечкин	14071
рсел	14072
аффор	14073
лино	14074
мель	14075
шуан	14076
шуба	14077
шуби	14078
шухра	14079
лугат	14080
аттах	14081
шаман	14082
шамшы	14083
шамба	14084
вау	14085
805	14086
##eni	14087
юник	14088
юнике	14089
шыпа	14090
шыпаа	14091
брах	14092
219	14093
шкаф	14094
702	14095
финн	14096
рева	14097
была	14098
банкт	14099
чиде	14100
атих	14101
атиба	14102
278	14103
356	14104
358	14105
233	14106
262	14107
шылт	14108
идир	14109
идящ	14110
аршал	14111
дурас	14112
##ini	14113
ind	14114
int	14115
офи	14116
ылтак	14117
str	14118
закар	14119
##хау	14120
розик	14121
серек	14122
458	14123
цели	14124
repo	14125
аксим	14126
364	14127
едей	14128
338	14129
339	14130
ветт	14131
ритм	14132
күрөш	14133
кейт	14134
етини	14135
чабат	14136
756	14137
хач	14138
айкро	14139
293	14140
299	14141
343	14142
316	14143
трафи	14144
##chi	14145
йнак	14146
lib	14147
483	14148
484	14149
489	14150
шашт	14151
449	14152
пинн	14153
ифтер	14154
389	14155
рдем	14156
556	14157
655	14158
651	14159
энс	14160
энд	14161
энду	14162
379	14163
хобби	14164
шебе	14165
арали	14166
уваш	14167
413	14168
414	14169
415	14170
412	14171
лкун	14172
айнат	14173
436	14174
43ү	14175
431	14176
432	14177
ллапс	14178
477	14179
471	14180
нзор	14181
oni	14182
vir	14183
шыкап	14184
куула	14185
охар	14186
548	14187
547	14188
паке	14189
равч	14190
равцо	14191
rio	14192
626	14193
628	14194
енази	14195
фуза	14196
58и	14197
586	14198
577	14199
635	14200
639	14201
леся	14202
523	14203
525	14204
466	14205
463	14206
461	14207
491	14208
53ү	14209
534	14210
535	14211
515	14212
fami	14213
773	14214
елисх	14215
купе	14216
567	14217
569	14218
тканд	14219
рзан	14220
елос	14221
телла	14222
chen	14223
736	14224
735	14225
598	14226
592	14227
726	14228
tow	14229
biz	14230
761	14231
ark	14232
642	14233
нная	14234
714	14235
710	14236
pos	14237
удущ	14238
69у	14239
84ү	14240
847	14241
lem	14242
lear	14243
эйл	14244
799	14245
нсаф	14246
746	14247
ахру	14248
deve	14249
deep	14250
инжи	14251
865	14252
827	14253
810	14254
плащ	14255
883	14256
885	14257
ndu	14258
догма	14259
ьева	14260
этиб	14261
смент	14262
dili	14263
улис	14264
edi	14265
шелон	14266
995	14267
937	14268
dosa	14269
льяш	14270
лиров	14271
лево	14272
озиц	14273
оуэн	14274
уфат	14275
уфет	14276
946	14277
еӊиз	14278
sim	14279
тоңот	14280
895	14281
систе	14282
bozy	14283
подт	14284
подг	14285
eni	14286
end	14287
жейи	14288
шишке	14289
венк	14290
румка	14291
айбат	14292
no50	14293
уардо	14294
чачыр	14295
jaze	14296
ргүз	14297
тчан	14298
ыйрыг	14299
гейи	14300
rtvi	14301
мсте	14302
ссоф	14303
kir	14304
gies	14305
чапан	14306
чыпчы	14307
ейсал	14308
fifa	14309
qui	14310
гуру	14311
улеш	14312
харал	14313
харас	14314
хабга	14315
cont	14316
ужур	14317
atla	14318
web	14319
нөктө	14320
аабат	14321
бапи	14322
довар	14323
амсак	14324
шляпа	14325
осточ	14326
ренаж	14327
йжер	14328
мгц	14329
арзыш	14330
улкун	14331
улкул	14332
гроза	14333
due	14334
dub	14335
одей	14336
thi	14337
лпек	14338
ншаат	14339
өбөй	14340
арипа	14341
улико	14342
hong	14343
лэш	14344
фулли	14345
антос	14346
анамо	14347
еноша	14348
шабло	14349
вики	14350
ейнс	14351
beki	14352
ардиф	14353
тавро	14354
бэйи	14355
вание	14356
play	14357
кжбр	14358
ерань	14359
070	14360
арраж	14361
horne	14362
жэнх	14363
слим	14364
аруки	14365
ббой	14366
хсон	14367
ллинз	14368
ткуч	14369
уефа	14370
уэрто	14371
яшко	14372
хутто	14373
хнааг	14374
эцян	14375
ческо	14376
уйдал	14377
avia	14378
ffic	14379
iran	14380
morni	14381
snim	14382
бзал	14383
дъез	14384
еэаб	14385
ллард	14386
рсбол	14387
кедей	14388
ыйбаа	14389
holdi	14390
2х1	14391
mchak	14392
music	14393
ovis	14394
rbai	14395
иирт	14396
иэтл	14397
ынтаа	14398
иномё	14399
гаупт	14400
оргуч	14401
("	14402
.)	14403
1де	14404
9у	14405
9га	14406
aн	14407
aza	14408
bp	14409
bn	14410
cb	14411
cen	14412
cel	14413
cro	14414
clu	14415
den	14416
doo	14417
dou	14418
ei	14419
esh	14420
ene	14421
eco	14422
epi	14423
fy	14424
far	14425
gat	14426
ib	14427
ish	14428
ide	14429
kia	14430
kle	14431
kil	14432
kfc	14433
les	14434
lti	14435
mq	14436
mkt	14437
nty	14438
nfo	14439
oin	14440
out	14441
ode	14442
our	14443
pan	14444
pus	14445
rr	14446
rb	14447
sat	14448
sor	14449
sse	14450
sna	14451
tm	14452
tn	14453
tia	14454
tar	14455
tty	14456
tti	14457
ue	14458
uct	14459
vb	14460
vent	14461
wom	14462
ye	14463
yo	14464
zat	14465
zei	14466
аеке	14467
бм	14468
бта	14469
бис	14470
бья	14471
вл	14472
вы	14473
вди	14474
ври	14475
все	14476
вуд	14477
вами	14478
гe	14479
гут	14480
гват	14481
гбар	14482
дт	14483
дa	14484
джан	14485
джах	14486
ещ	14487
жж	14488
жук	14489
зул	14490
зок	14491
здү	14492
зве	14493
иӊ	14494
икел	14495
иеро	14496
икуд	14497
йшат	14498
кх	14499
кѳ	14500
кшо	14501
клы	14502
кэк	14503
лпы	14504
лян	14505
лент	14506
лтер	14507
лакт	14508
лдон	14509
лхан	14510
мра	14511
мут	14512
мчы	14513
мгил	14514
мён	14515
нп	14516
нир	14517
нум	14518
нце	14519
нлы	14520
оут	14521
отап	14522
пх	14523
пент	14524
пник	14525
рги	14526
рло	14527
рунд	14528
рдж	14529
рюк	14530
рпед	14531
сь	14532
сд	14533
сор	14534
сус	14535
сѳз	14536
тлер	14537
тно	14538
тпо	14539
тман	14540
тмос	14541
уин	14542
уте	14543
устан	14544
уап	14545
увар	14546
уимб	14547
фм	14548
фс	14549
фай	14550
фоз	14551
хик	14552
цер	14553
цум	14554
цдж	14555
чоп	14556
чтү	14557
чнер	14558
шына	14559
шдин	14560
швар	14561
штет	14562
шмал	14563
шмид	14564
ыи	14565
ыча	14566
ыжы	14567
ычуа	14568
элг	14569
юб	14570
юан	14571
юэль	14572
яо	14573
яма	14574
яки	14575
ява	14576
ёң	14577
ёдан	14578
ёль	14579
ѳтк	14580
ѳгѳ	14581
қа	14582
ңке	14583
##уар	14584
##тс	14585
##йи	14586
##кул	14587
##ква	14588
##мон	14589
##гат	14590
##сир	14591
##ец	14592
##зд	14593
##ice	14594
##рут	14595
##вен	14596
##pe	14597
##pr	14598
##хп	14599
##хют	14600
##пыр	14601
##ew	14602
##бб	14603
##был	14604
##бас	14605
##бел	14606
##бян	14607
##dd	14608
##ov	14609
##odo	14610
##чко	14611
##tv	14612
##шк	14613
##ёз	14614
##эз	14615
##эли	14616
##aй	14617
##ks	14618
##hi	14619
##ja	14620
##юан	14621
##yo	14622
##fm	14623
##ff	14624
алле	14625
алвар	14626
аря	14627
ариз	14628
арама	14629
ариза	14630
арват	14631
арино	14632
арваз	14633
##ало	14634
айа	14635
айи	14636
айат	14637
аймер	14638
айед	14639
коч	14640
кочо	14641
ынай	14642
дахам	14643
анз	14644
аник	14645
анги	14646
анза	14647
ансе	14648
ансу	14649
анжи	14650
анила	14651
атен	14652
аташ	14653
атчи	14654
атхан	14655
кадет	14656
##лез	14657
##леб	14658
##иян	14659
##орг	14660
##оре	14661
инь	14662
инар	14663
инген	14664
инцов	14665
габа	14666
##кто	14667
орен	14668
оркен	14669
орне	14670
орина	14671
орье	14672
орица	14673
канб	14674
ууку	14675
ууса	14676
##каг	14677
##кач	14678
көдө	14679
ияс	14680
баши	14681
акат	14682
акам	14683
акари	14684
унин	14685
унта	14686
унгус	14687
унний	14688
##лис	14689
ерп	14690
ерси	14691
ерей	14692
ертер	14693
ерва	14694
ерева	14695
ерхи	14696
ердак	14697
берто	14698
##таб	14699
кип	14700
кипед	14701
киийн	14702
асула	14703
маха	14704
мажор	14705
азво	14706
абе	14707
абыт	14708
абори	14709
аббат	14710
аббар	14711
айтал	14712
айтак	14713
ыпын	14714
наф	14715
наж	14716
улды	14717
улка	14718
улус	14719
улина	14720
улфа	14721
улфи	14722
улхай	14723
укем	14724
эку	14725
прета	14726
чый	14727
стю	14728
стам	14729
ашра	14730
үнг	14731
ылчы	14732
##ево	14733
ыйт	14734
ыйга	14735
овно	14736
геп	14737
урши	14738
урсо	14739
ураши	14740
неу	14741
неж	14742
нежад	14743
барма	14744
арах	14745
арави	14746
ошир	14747
еть	14748
етиз	14749
етби	14750
етод	14751
етимб	14752
үрдө	14753
үрки	14754
окот	14755
труд	14756
эллс	14757
элкут	14758
ышү	14759
ышыг	14760
күң	14761
керев	14762
ырса	14763
енст	14764
енто	14765
енци	14766
мамл	14767
ирана	14768
ирине	14769
онга	14770
онет	14771
онча	14772
онто	14773
бекри	14774
апус	14775
апары	14776
априо	14777
минс	14778
минь	14779
минет	14780
гено	14781
лаза	14782
##лоу	14783
салм	14784
авлет	14785
аваси	14786
авьер	14787
амай	14788
амаш	14789
амбы	14790
ниньо	14791
олы	14792
олян	14793
олкач	14794
кене	14795
миот	14796
мицид	14797
ушал	14798
изер	14799
изван	14800
учкак	14801
учкаг	14802
саза	14803
сават	14804
русс	14805
русси	14806
ардон	14807
узел	14808
өртү	14809
лиан	14810
лича	14811
лиге	14812
сиӊ	14813
сийт	14814
ндси	14815
##бос	14816
арый	14817
арыа	14818
арыжи	14819
реас	14820
редер	14821
ойче	14822
имч	14823
имал	14824
имур	14825
гомос	14826
готаб	14827
шайма	14828
рив	14829
ридо	14830
риво	14831
риват	14832
илол	14833
илхан	14834
иленг	14835
тоял	14836
үмкан	14837
еви	14838
евил	14839
сеан	14840
актек	14841
обз	14842
обро	14843
ныган	14844
рая	14845
раде	14846
рабо	14847
рагу	14848
ымсын	14849
ейис	14850
ейси	14851
доси	14852
исне	14853
иссан	14854
исква	14855
упол	14856
отта	14857
ипие	14858
ниён	14859
исто	14860
ндес	14861
ндеми	14862
үмкун	14863
артон	14864
суй	14865
лех	14866
лема	14867
лехан	14868
елат	14869
елка	14870
елки	14871
елкет	14872
панел	14873
ыктоо	14874
сурк	14875
виат	14876
вите	14877
дайкы	14878
алад	14879
алави	14880
айрат	14881
айрак	14882
итим	14883
екпе	14884
макса	14885
умай	14886
умил	14887
умдан	14888
тышып	14889
чодо	14890
пари	14891
парч	14892
парта	14893
икун	14894
икет	14895
икли	14896
икки	14897
икмет	14898
гриве	14899
нера	14900
топон	14901
аркыр	14902
янж	14903
туя	14904
тува	14905
агай	14906
агир	14907
агам	14908
утц	14909
утси	14910
уткак	14911
рост	14912
омен	14913
омпа	14914
биби	14915
арму	14916
армар	14917
аңко	14918
аңыра	14919
тапка	14920
озер	14921
озон	14922
тоог	14923
езон	14924
ркп	14925
торс	14926
руй	14927
руят	14928
пом	14929
ажик	14930
ажон	14931
чао	14932
чад	14933
ртуни	14934
дуку	14935
зау	14936
заик	14937
заав	14938
пикап	14939
бакан	14940
еппе	14941
амит	14942
амиан	14943
сатто	14944
адаб	14945
рмин	14946
рмино	14947
шумк	14948
кулу	14949
куло	14950
полу	14951
полл	14952
тиро	14953
мали	14954
емсе	14955
ембер	14956
адыг	14957
тамов	14958
рруц	14959
ахал	14960
ахра	14961
ахтер	14962
ахмин	14963
ахина	14964
ахиб	14965
рамо	14966
паң	14967
пазо	14968
ырагы	14969
быча	14970
ново	14971
анау	14972
огози	14973
лобо	14974
лоэр	14975
ибис	14976
тизо	14977
штүк	14978
рипол	14979
инся	14980
елич	14981
есса	14982
дирис	14983
дирип	14984
фред	14985
рунб	14986
айдак	14987
еринг	14988
алмы	14989
лайт	14990
аахют	14991
егмат	14992
co2	14993
coin	14994
угум	14995
льпы	14996
льва	14997
альд	14998
амазо	14999
брит	15000
бридж	15001
гинин	15002
еред	15003
ивс	15004
ивол	15005
иврит	15006
пея	15007
удург	15008
скопи	15009
ыңыл	15010
туша	15011
ортал	15012
ортон	15013
обот	15014
еста	15015
балта	15016
балас	15017
ксус	15018
ксфа	15019
ауф	15020
ауыр	15021
not	15022
novo	15023
nomad	15024
ургер	15025
ургай	15026
арима	15027
арито	15028
росхе	15029
атрас	15030
азаи	15031
ванди	15032
шарп	15033
чукак	15034
паска	15035
атрез	15036
508	15037
503	15038
сияда	15039
мбх	15040
одя	15041
одир	15042
##mat	15043
ллаб	15044
ризма	15045
веоко	15046
ерсон	15047
анкин	15048
пале	15049
зитро	15050
олиб	15051
анифа	15052
астра	15053
киль	15054
лют	15055
люб	15056
люст	15057
ижаре	15058
cas	15059
card	15060
порта	15061
408	15062
404	15063
401	15064
402	15065
рейк	15066
шиха	15067
шифер	15068
ертил	15069
едут	15070
лампо	15071
енец	15072
аштыг	15073
лати	15074
латы	15075
отос	15076
отов	15077
ерво	15078
ервый	15079
лыны	15080
диск	15081
ечин	15082
афп	15083
фест	15084
фели	15085
606	15086
607	15087
603	15088
609	15089
гуло	15090
гуль	15091
ney	15092
уңка	15093
ерах	15094
249	15095
некро	15096
доска	15097
буур	15098
ерныш	15099
шыпш	15100
шыпыр	15101
шань	15102
701	15103
ньки	15104
ангри	15105
рдью	15106
алант	15107
354	15108
абатэ	15109
90у	15110
906	15111
чаты	15112
ардап	15113
ins	15114
stu	15115
stat	15116
ригес	15117
итиг	15118
инист	15119
уяң	15120
ухраб	15121
ыярат	15122
зинат	15123
##ool	15124
усув	15125
атоми	15126
атоян	15127
ere	15128
ert	15129
455	15130
аваз	15131
rex	15132
tez	15133
липс	15134
333	15135
334	15136
331	15137
ветер	15138
уйбян	15139
ондл	15140
322	15141
акаль	15142
тишке	15143
чабак	15144
755	15145
этноф	15146
устер	15147
устур	15148
номен	15149
горде	15150
арбин	15151
арбый	15152
no17	15153
344	15154
349	15155
31и	15156
бийри	15157
lik	15158
liev	15159
488	15160
485	15161
шашып	15162
441	15163
угач	15164
зизи	15165
383	15166
382	15167
nga	15168
лдагы	15169
энк	15170
377	15171
373	15172
айсар	15173
етем	15174
гарс	15175
гарре	15176
уван	15177
увват	15178
ыркап	15179
ргд	15180
427	15181
424	15182
rni	15183
rnet	15184
433	15185
434	15186
абига	15187
лля	15188
ллю	15189
ллен	15190
397	15191
394	15192
мтс	15193
мтв	15194
етрин	15195
нтес	15196
юлен	15197
екова	15198
рпор	15199
бозор	15200
гнос	15201
охбер	15202
охру	15203
ажио	15204
арчыг	15205
ердор	15206
##mit	15207
равле	15208
riot	15209
622	15210
шотла	15211
rock	15212
rome	15213
588	15214
ржие	15215
631	15216
686	15217
683	15218
лесь	15219
527	15220
ценз	15221
494	15222
490	15223
532	15224
тесла	15225
516	15226
518	15227
511	15228
778	15229
772	15230
sap	15231
##энт	15232
шейра	15233
ианда	15234
chy	15235
игече	15236
ексур	15237
679	15238
джи	15239
джон	15240
734	15241
739	15242
улго	15243
улгар	15244
596	15245
725	15246
tov	15247
bio	15248
bili	15249
767	15250
762	15251
arr	15252
aren	15253
гүзүү	15254
онави	15255
spri	15256
чейи	15257
716	15258
713	15259
715	15260
959	15261
сфай	15262
аед	15263
786	15264
787	15265
784	15266
666	15267
662	15268
шинин	15269
694	15270
замат	15271
afri	15272
гдр	15273
ктей	15274
борбо	15275
maj	15276
mail	15277
нелл	15278
878	15279
875	15280
872	15281
745	15282
741	15283
shi	15284
ердег	15285
864	15286
823	15287
абири	15288
833	15289
ккк	15290
off	15291
sot	15292
soci	15293
аалыг	15294
рэт	15295
аред	15296
арели	15297
дакшн	15298
cit	15299
886	15300
884	15301
880	15302
988	15303
983	15304
no38	15305
ndi	15306
ndy	15307
ndex	15308
рнк	15309
смета	15310
смето	15311
ажаат	15312
disc	15313
tau	15314
зооти	15315
айнаб	15316
999	15317
no42	15318
93ү	15319
dogu	15320
sub	15321
##ьез	15322
льяз	15323
926	15324
эвин	15325
левч	15326
албал	15327
нгем	15328
пенд	15329
пенит	15330
94ү	15331
945	15332
аттео	15333
961	15334
916	15335
913	15336
914	15337
mosc	15338
треб	15339
велож	15340
орег	15341
scop	15342
мсэк	15343
sie	15344
side	15345
чике	15346
und	15347
nca	15348
ens	15349
вайс	15350
шише	15351
еруза	15352
gmlr	15353
raz	15354
йрес	15355
gula	15356
paper	15357
ббани	15358
унгли	15359
no55	15360
бензя	15361
force	15362
idel	15363
jas	15364
блиш	15365
шаңш	15366
екчил	15367
usagm	15368
апыра	15369
hol	15370
зайд	15371
зырын	15372
лчын	15373
byte	15374
no63	15375
шриф	15376
ерном	15377
гель	15378
kit	15379
арьям	15380
одола	15381
vers	15382
глен	15383
kyodo	15384
ххі	15385
лахат	15386
prod	15387
bul	15388
ароф	15389
чыпк	15390
чонон	15391
акчел	15392
кпей	15393
нукер	15394
pea	15395
voa	15396
voice	15397
рстон	15398
conc	15399
consu	15400
fok	15401
logi	15402
ломто	15403
wind	15404
йлөш	15405
нево	15406
неве	15407
инкаб	15408
vefa	15409
бром	15410
meni	15411
mens	15412
нвэн	15413
тозои	15414
kul	15415
осеф	15416
ics	15417
ероб	15418
илуан	15419
bea	15420
лпам	15421
рючк	15422
шиший	15423
arab	15424
аляви	15425
weibo	15426
фулло	15427
енниф	15428
stic	15429
bayk	15430
тэнф	15431
индуи	15432
басту	15433
олбоо	15434
руац	15435
кром	15436
cks	15437
дэу	15438
ундес	15439
йдап	15440
ырышч	15441
бомж	15442
ntic	15443
ащик	15444
плену	15445
ммуно	15446
063	15447
ѳргѳ	15448
жахме	15449
бедь	15450
рожно	15451
агима	15452
дмурт	15453
уудум	15454
рутю	15455
ылчын	15456
имхп	15457
бигүл	15458
indep	15459
index	15460
гмент	15461
орнок	15462
мперс	15463
рэдли	15464
лутф	15465
инхро	15466
иссур	15467
нивхт	15468
smart	15469
анбиж	15470
индое	15471
ырьё	15472
рыцар	15473
hawk	15474
crui	15475
ios	15476
plus	15477
türk	15478
нязь	15479
риэлт	15480
гражд	15481
нцзян	15482
cirf	15483
mpox	15484
еапол	15485
змеи	15486
иёра	15487
мфите	15488
флинн	15489
царна	15490
чтеме	15491
ытыра	15492
ылжып	15493
ебриз	15494
вальв	15495
ваука	15496
nduk	15497
klein	15498
pussy	15499
snap	15500
лпыс	15501
нлыур	15502
уапсе	15503
цджер	15504
шдини	15505
"-	15506
%.	15507
(!	15508
08	15509
2де	15510
3тө	15511
4тө	15512
6да	15513
9да	15514
aer	15515
ach	15516
acc	15517
aca	15518
bat	15519
bia	15520
ball	15521
blu	15522
cr	15523
cl	15524
cer	15525
ces	15526
cum	15527
dan	15528
ee	15529
eg	15530
ems	15531
efe	15532
fat	15533
ges	15534
gan	15535
gri	15536
gls	15537
hk	15538
hin	15539
hal	15540
hop	15541
iw	15542
ij	15543
iq	15544
icc	15545
iba	15546
ihr	15547
iata	15548
jum	15549
kp	15550
kn	15551
kin	15552
kor	15553
kan	15554
kook	15555
lor	15556
lly	15557
mz	15558
mra	15559
moo	15560
mal	15561
mall	15562
mgm	15563
nn	15564
nh	15565
nz	15566
nze	15567
oi	15568
ou	15569
oli	15570
osh	15571
oil	15572
pen	15573
por	15574
pal	15575
ple	15576
pti	15577
pers	15578
rch	15579
rfi	15580
rda	15581
roup	15582
rsi	15583
sv	15584
sal	15585
set	15586
ssa	15587
sina	15588
ts	15589
tr	15590
tt	15591
tte	15592
try	15593
vesti	15594
wu	15595
wr	15596
wck	15597
wti	15598
wood	15599
xv	15600
xec	15601
yu	15602
yk	15603
yan	15604
yev	15605
аин	15606
аунд	15607
аиза	15608
аоли	15609
бим	15610
бян	15611
боно	15612
бани	15613
бму	15614
бяр	15615
вн	15616
вда	15617
вши	15618
влев	15619
гю	15620
гети	15621
гушу	15622
гороз	15623
дк	15624
дч	15625
дван	15626
двин	15627
дьез	15628
еир	15629
ежад	15630
жч	15631
жил	15632
жное	15633
зл	15634
зол	15635
занд	15636
зге	15637
ззам	15638
зив	15639
зден	15640
зрк	15641
иар	15642
иам	15643
ибо	15644
ител	15645
йынд	15646
йрат	15647
йоко	15648
йцев	15649
йберт	15650
к3	15651
кып	15652
клд	15653
кстан	15654
кло	15655
кмк	15656
кста	15657
кья	15658
кѳз	15659
лё	15660
лал	15661
лте	15662
лум	15663
лко	15664
лмер	15665
лмос	15666
мѳ	15667
мта	15668
мог	15669
мри	15670
мгу	15671
мпу	15672
мари	15673
мму	15674
мхо	15675
нгон	15676
несс	15677
ннов	15678
оя	15679
оэ	15680
оир	15681
оур	15682
оху	15683
оиб	15684
пыт	15685
попи	15686
рүл	15687
ркы	15688
рпу	15689
рни	15690
ряд	15691
сз	15692
ср	15693
с1	15694
сук	15695
сро	15696
сгар	15697
сват	15698
сила	15699
свд	15700
тц	15701
ть	15702
тe	15703
тус	15704
тэй	15705
тхи	15706
ууу	15707
уары	15708
умак	15709
угүн	15710
уха	15711
уӊг	15712
фю	15713
фур	15714
фла	15715
форт	15716
фом	15717
хен	15718
хүр	15719
хве	15720
хэн	15721
хваз	15722
цк	15723
цци	15724
цари	15725
цару	15726
цзин	15727
цопо	15728
чол	15729
чор	15730
чоо	15731
чөө	15732
чья	15733
шол	15734
шуш	15735
шалы	15736
шиц	15737
шера	15738
шмо	15739
шья	15740
шхан	15741
шина	15742
шник	15743
шпер	15744
шэй	15745
шова	15746
щик	15747
ыкем	15748
эх	15749
эше	15750
юй	15751
юж	15752
юка	15753
юсу	15754
ютер	15755
юэл	15756
юссе	15757
яң	15758
ётт	15759
ңов	15760
ӊг	15761
әсе	15762
өше	15763
##уй	15764
##фр	15765
##фир	15766
##йе	15767
##йы	15768
##йне	15769
##кор	15770
##мил	15771
##аф	15772
##цж	15773
##цер	15774
##ся	15775
##сал	15776
##иф	15777
##нек	15778
##ica	15779
##wn	15780
##рик	15781
##өл	15782
##вис	15783
##ui	15784
##ue	15785
##pl	15786
##дт	15787
##дь	15788
##хла	15789
##хме	15790
##хэт	15791
##cu	15792
##пц	15793
##пан	15794
##пус	15795
##пел	15796
##eр	15797
##бѳ	15798
##бак	15799
##бра	15800
##db	15801
##df	15802
##rta	15803
##men	15804
##mbo	15805
##шып	15806
##gt	15807
##gh	15808
##жк	15809
##яе	15810
##aн	15811
##ac	15812
##ku	15813
##vd	15814
##щак	15815
##zz	15816
##ъа	15817
##ъми	15818
##br	15819
##ye	15820
##yt	15821
##fy	15822
##аро	15823
алис	15824
алом	15825
алюк	15826
алева	15827
алёв	15828
алъа	15829
арон	15830
арус	15831
арчи	15832
арел	15833
арни	15834
арре	15835
арру	15836
арулу	15837
арцер	15838
##аль	15839
##ыла	15840
айф	15841
айч	15842
айде	15843
айсо	15844
айгон	15845
айян	15846
аймо	15847
айшан	15848
##айд	15849
кох	15850
коин	15851
кота	15852
кожо	15853
ынгыс	15854
дав	15855
даван	15856
##гый	15857
##гыш	15858
дело	15859
дехан	15860
делос	15861
ансы	15862
анши	15863
анкар	15864
анэли	15865
анхэт	15866
атс	15867
атдет	15868
атари	15869
атпе	15870
каут	15871
кадо	15872
##лег	15873
##онд	15874
менси	15875
биржа	15876
таро	15877
иша	15878
ишан	15879
иня	15880
инкт	15881
инке	15882
инму	15883
иннер	15884
гаг	15885
гаи	15886
гав	15887
гад	15888
гада	15889
гава	15890
габыл	15891
##мас	15892
таси	15893
таъми	15894
орх	15895
орай	15896
орик	15897
орст	15898
орте	15899
орси	15900
орот	15901
орко	15902
орман	15903
оркас	15904
орхам	15905
оррен	15906
кару	15907
каре	15908
ууз	15909
ларг	15910
##кая	15911
ияг	15912
##етт	15913
акир	15914
акыш	15915
акпы	15916
унуу	15917
унса	15918
унбри	15919
унаса	15920
унгыш	15921
ердо	15922
ерани	15923
ером	15924
ербей	15925
еруд	15926
ереро	15927
##изо	15928
##изи	15929
кио	15930
аскар	15931
ассе	15932
асиб	15933
асру	15934
асрид	15935
асили	15936
мах	15937
маде	15938
булас	15939
булло	15940
азл	15941
азым	15942
абер	15943
абин	15944
абым	15945
абыг	15946
нао	15947
өлүш	15948
улх	15949
улме	15950
улвах	15951
уки	15952
тепе	15953
прек	15954
прес	15955
прива	15956
чыӊ	15957
стина	15958
стюк	15959
калим	15960
дари	15961
дард	15962
ашл	15963
ашха	15964
лыке	15965
үну	15966
ылгый	15967
сода	15968
чепи	15969
терми	15970
ыйыш	15971
ыйпыр	15972
тиу	15973
овен	15974
овый	15975
овиц	15976
овнич	15977
##гис	15978
урц	15979
урис	15980
урей	15981
нее	15982
неч	15983
нечик	15984
баро	15985
аяли	15986
етар	15987
етто	15988
етче	15989
бади	15990
баап	15991
бажар	15992
окай	15993
окир	15994
окпо	15995
окят	15996
прем	15997
элл	15998
ыран	15999
енз	16000
енал	16001
енсе	16002
енсу	16003
ензо	16004
маме	16005
ирм	16006
ириш	16007
ирму	16008
онн	16009
онти	16010
онни	16011
онжи	16012
апер	16013
апак	16014
апас	16015
апсар	16016
минем	16017
үйнѳ	16018
лаги	16019
лабыз	16020
көрс	16021
диша	16022
дидак	16023
салон	16024
авер	16025
аврон	16026
авхат	16027
авели	16028
авгат	16029
стано	16030
амш	16031
амю	16032
амзи	16033
амеле	16034
амел	16035
амше	16036
аммо	16037
амыра	16038
ийм	16039
ийка	16040
ийге	16041
ийме	16042
олда	16043
олок	16044
олови	16045
олдак	16046
мих	16047
миле	16048
мити	16049
ушди	16050
ушүп	16051
изо	16052
изар	16053
изкуб	16054
агыза	16055
сав	16056
саана	16057
садам	16058
жакт	16059
ардер	16060
узов	16061
шагыр	16062
лиган	16063
сипи	16064
нджер	16065
жерем	16066
атту	16067
аттра	16068
арың	16069
арыба	16070
реч	16071
рещ	16072
регон	16073
ребе	16074
ойсо	16075
##бах	16076
бума	16077
имуля	16078
сунг	16079
гоу	16080
гой	16081
госто	16082
атаа	16083
шайм	16084
шайдо	16085
рич	16086
риев	16087
риева	16088
риэла	16089
илык	16090
илам	16091
илов	16092
илани	16093
илжон	16094
тоу	16095
тое	16096
точ	16097
тоё	16098
тост	16099
сецк	16100
огон	16101
обон	16102
обус	16103
ачек	16104
рао	16105
раик	16106
рабай	16107
раэнт	16108
нтв	16109
ымча	16110
төфи	16111
доло	16112
ейф	16113
ейил	16114
ейно	16115
ейха	16116
ейкин	16117
илиан	16118
ээй	16119
доз	16120
искар	16121
##мел	16122
##мед	16123
упка	16124
упюр	16125
упист	16126
отен	16127
отер	16128
отон	16129
отти	16130
отпус	16131
нищ	16132
истав	16133
пайке	16134
алари	16135
бос	16136
нух	16137
##кос	16138
ндеш	16139
сума	16140
убул	16141
уберт	16142
убрак	16143
райен	16144
леж	16145
леще	16146
опс	16147
опул	16148
опук	16149
опсо	16150
елф	16151
елок	16152
елши	16153
елчи	16154
елян	16155
елани	16156
елжи	16157
елова	16158
агауз	16159
гип	16160
гиё	16161
адх	16162
адир	16163
адрут	16164
##биц	16165
конц	16166
конни	16167
панк	16168
дүйн	16169
вих	16170
витер	16171
вица	16172
иктү	16173
икток	16174
алав	16175
пром	16176
айру	16177
айрул	16178
итман	16179
ноа	16180
ноб	16181
нога	16182
ноян	16183
##ель	16184
бейро	16185
екил	16186
екара	16187
екче	16188
екро	16189
екрас	16190
екзад	16191
макал	16192
умал	16193
умке	16194
умсо	16195
умян	16196
умура	16197
чой	16198
чоор	16199
майл	16200
икпе	16201
икати	16202
гонс	16203
гони	16204
грей	16205
гром	16206
грюм	16207
топи	16208
янка	16209
агз	16210
агами	16211
роди	16212
ромос	16213
түнд	16214
омер	16215
омес	16216
омпос	16217
ресси	16218
бии	16219
моу	16220
моз	16221
мош	16222
мода	16223
улама	16224
тунг	16225
тунч	16226
аңшы	16227
атыс	16228
айыса	16229
сайра	16230
озик	16231
озако	16232
езур	16233
езорт	16234
жури	16235
инав	16236
акшак	16237
торг	16238
торол	16239
рубе	16240
пос	16241
ажу	16242
ажат	16243
портн	16244
титр	16245
чаар	16246
ртек	16247
ртет	16248
аталу	16249
ыгат	16250
заң	16251
захра	16252
бакар	16253
жиген	16254
епут	16255
епкен	16256
амиу	16257
амида	16258
кина	16259
рмоо	16260
рмоз	16261
кулёз	16262
пола	16263
туку	16264
тукуш	16265
маль	16266
тамин	16267
текц	16268
ириг	16269
доки	16270
жувон	16271
юшон	16272
ахор	16273
ахты	16274
ахым	16275
ахси	16276
нари	16277
##шоу	16278
рамат	16279
рамте	16280
брик	16281
пахан	16282
пачк	16283
миро	16284
мирис	16285
нови	16286
анач	16287
анаат	16288
анаба	16289
манш	16290
лод	16291
лоход	16292
жанн	16293
алкып	16294
уунт	16295
ешин	16296
ешок	16297
ибали	16298
ибрид	16299
шток	16300
фрин	16301
лепс	16302
ааган	16303
ехар	16304
ехти	16305
ковид	16306
акаф	16307
угти	16308
льет	16309
ссен	16310
ссам	16311
шекши	16312
альт	16313
альг	16314
одос	16315
пест	16316
пейза	16317
кепин	16318
удк	16319
удрин	16320
туше	16321
нгл	16322
вирт	16323
галя	16324
ычык	16325
ычыр	16326
ычма	16327
рильс	16328
ортко	16329
ихат	16330
естф	16331
балт	16332
ксун	16333
ауыт	16334
ауца	16335
пуц	16336
ериа	16337
ерид	16338
ерих	16339
рьян	16340
nobe	16341
nova	16342
nord	16343
ыртып	16344
пулос	16345
улдур	16346
улдул	16347
усли	16348
усуп	16349
усрат	16350
арион	16351
ариэл	16352
зима	16353
шың	16354
уурка	16355
аанай	16356
аэк	16357
арха	16358
пирн	16359
сири	16360
арнав	16361
507	16362
502	16363
аргыл	16364
олуб	16365
реко	16366
мбия	16367
мбро	16368
стео	16369
сарат	16370
сено	16371
шоола	16372
ризо	16373
веча	16374
ерсин	16375
анкур	16376
анкет	16377
ытмыр	16378
циф	16379
клон	16380
рыйб	16381
олькс	16382
аниф	16383
ание	16384
анижа	16385
ырааз	16386
рано	16387
крон	16388
крсу	16389
люм	16390
ижнек	16391
нтерн	16392
молет	16393
татра	16394
рейт	16395
рейси	16396
ферт	16397
идеал	16398
гылт	16399
шид	16400
ноог	16401
нооту	16402
ярка	16403
кман	16404
кмту	16405
лтун	16406
регис	16407
ыдып	16408
латте	16409
латуш	16410
отоб	16411
монп	16412
диссе	16413
амбил	16414
ечки	16415
сулло	16416
рсони	16417
афир	16418
афак	16419
афна	16420
афос	16421
афсир	16422
феффе	16423
##rai	16424
абыкт	16425
еади	16426
блан	16427
блас	16428
короз	16429
ners	16430
эпит	16431
эпиг	16432
ераф	16433
ерад	16434
еращ	16435
кадзе	16436
шамх	16437
ваген	16438
вагон	16439
802	16440
минец	16441
верт	16442
айраб	16443
аскал	16444
70и	16445
709	16446
крипц	16447
атиб	16448
хид	16449
рдир	16450
аиди	16451
уад	16452
атаки	16453
колом	16454
263	16455
норам	16456
ретто	16457
ретро	16458
пата	16459
патье	16460
шылто	16461
903	16462
901	16463
лово	16464
квин	16465
ербди	16466
аркас	16467
аркад	16468
зела	16469
ртел	16470
ртеид	16471
stri	16472
stop	16473
аудри	16474
ухур	16475
ыякт	16476
ыяман	16477
зинка	16478
##utt	16479
ельпо	16480
рапу	16481
err	16482
457	16483
459	16484
гайпк	16485
rew	16486
real	16487
tec	16488
teh	16489
аксоп	16490
368	16491
арьи	16492
уйк	16493
уйки	16494
уйсе	16495
андел	16496
ебито	16497
##cef	16498
назир	16499
tip	16500
tion	16501
tish	16502
tify	16503
мкг	16504
ендес	16505
лавэр	16506
остро	16507
ренек	16508
разе	16509
758	16510
хаус	16511
квази	16512
квадр	16513
нсир	16514
ятти	16515
гора	16516
несе	16517
несен	16518
арбон	16519
294	16520
no12	16521
no10	16522
тразе	16523
арсык	16524
мпат	16525
оркок	16526
##are	16527
шашыл	16528
шашма	16529
полиф	16530
полиэ	16531
44ү	16532
447	16533
443	16534
шерд	16535
енгал	16536
йсара	16537
ngs	16538
656	16539
659	16540
радч	16541
наке	16542
накер	16543
энн	16544
голос	16545
376	16546
рыб	16547
ргун	16548
422	16549
микс	16550
rne	16551
чуур	16552
айнал	16553
айнаш	16554
438	16555
ппен	16556
ппок	16557
ркес	16558
398	16559
399	16560
478	16561
лакто	16562
ыбыт	16563
##tel	16564
vie	16565
атуир	16566
зубо	16567
ефе	16568
856	16569
идаят	16570
##юрк	16571
no23	16572
no24	16573
no20	16574
усада	16575
кбал	16576
охат	16577
охин	16578
охдар	16579
ажиб	16580
546	16581
илем	16582
илев	16583
акос	16584
акота	16585
tur	16586
tusa	16587
rich	16588
есели	16589
624	16590
ршад	16591
roy	16592
role	16593
robo	16594
рандт	16595
өйтер	16596
587	16597
579	16598
689	16599
524	16600
529	16601
схар	16602
468	16603
467	16604
462	16605
49у	16606
499	16607
fast	16608
ядро	16609
sai	16610
sas	16611
sada	16612
ita	16613
aib	16614
566	16615
563	16616
565	16617
елод	16618
телло	16619
ory	16620
orbi	16621
cho	16622
игель	16623
675	16624
671	16625
джей	16626
врил	16627
лгуш	16628
731	16629
ежур	16630
ежак	16631
ежлис	16632
анчып	16633
61и	16634
616	16635
618	16636
611	16637
егинд	16638
59у	16639
597	16640
594	16641
599	16642
еталл	16643
724	16644
tock	16645
bit	16646
biya	16647
bimbo	16648
763	16649
769	16650
arti	16651
649	16652
изит	16653
spu	16654
spo	16655
spy	16656
kara	16657
71и	16658
718	16659
елах	16660
781	16661
ульк	16662
pow	16663
poly	16664
nicef	16665
аной	16666
667	16667
661	16668
шака	16669
отори	16670
оторн	16671
693	16672
695	16673
699	16674
848	16675
843	16676
844	16677
849	16678
841	16679
water	16680
иберт	16681
976	16682
978	16683
973	16684
иммон	16685
борон	16686
шкус	16687
leum	16688
mama	16689
mach	16690
maga	16691
maha	16692
лонка	16693
873	16694
879	16695
rum	16696
run	16697
эйт	16698
эйк	16699
amoc	16700
рбат	16701
798	16702
793	16703
790	16704
хаки	16705
shop	16706
shutt	16707
got	16708
ироат	16709
кияда	16710
deo	16711
demy	16712
commi	16713
824	16714
822	16715
лдорф	16716
etna	16717
авлу	16718
835	16719
ныкт	16720
ккп	16721
плаг	16722
львер	16723
ofac	16724
sof	16725
шахти	16726
888	16727
889	16728
881	16729
985	16730
980	16731
no32	16732
no30	16733
ndtv	16734
лбин	16735
лбур	16736
иллл	16737
рнет	16738
ылтый	16739
смм	16740
dive	16741
улит	16742
чоко	16743
dai	16744
шора	16745
tai	16746
tab	16747
tage	16748
994	16749
днок	16750
улпус	16751
934	16752
ano	16753
dolu	16754
sud	16755
бахар	16756
920	16757
тмунд	16758
оуин	16759
омео	16760
уфер	16761
xxvi	16762
hic	16763
hist	16764
wafa	16765
943	16766
тпол	16767
эльба	16768
963	16769
965	16770
move	16771
moha	16772
апыс	16773
matt	16774
шырда	16775
аӊыл	16776
scan	16777
sita	16778
вдок	16779
рокер	16780
омаст	16781
рсело	16782
891	16783
враам	16784
##sos	16785
nco	16786
глав	16787
диназ	16788
подст	16789
engi	16790
iss	16791
isna	16792
драян	16793
кэа	16794
руки	16795
усит	16796
усип	16797
венс	16798
rab	16799
rail	16800
йрен	16801
румк	16802
ырдал	16803
бжам	16804
ямс	16805
ямфу	16806
аксый	16807
rnali	16808
sera	16809
уарег	16810
быке	16811
ell	16812
слох	16813
ford	16814
йдел	16815
мизе	16816
пью	16817
папке	16818
шоки	16819
амшид	16820
ормон	16821
лазь	16822
шаңы	16823
шаңыр	16824
home	16825
hotel	16826
шиибб	16827
cope	16828
яско	16829
ануэл	16830
ipsos	16831
еркли	16832
рлис	16833
kip	16834
арвин	16835
ницы	16836
ope	16837
единг	16838
шури	16839
vak	16840
vax	16841
veri	16842
азиат	16843
balt	16844
нтрё	16845
лнаси	16846
рфин	16847
эттис	16848
арике	16849
дулло	16850
fir	16851
kov	16852
komp	16853
qura	16854
ralz	16855
харат	16856
тадгу	16857
ltan	16858
welt	16859
хабы	16860
pep	16861
зира	16862
зире	16863
лсуну	16864
log	16865
prime	16866
ворд	16867
ворки	16868
гашка	16869
черка	16870
япон	16871
henga	16872
yah	16873
бишке	16874
рущёв	16875
аңгыр	16876
no76	16877
нвен	16878
шлюз	16879
стың	16880
muda	16881
зекип	16882
adat	16883
sydy	16884
ливер	16885
step	16886
аньсу	16887
llp	16888
ller	16889
анжид	16890
аштаг	16891
зенит	16892
бабж	16893
бабак	16894
бабве	16895
визуа	16896
desi	16897
resi	16898
rese	16899
reso	16900
няя	16901
няху	16902
рогон	16903
ѳзгѳ	16904
аляре	16905
рошюр	16906
east	16907
ssian	16908
amaq	16909
clima	16910
вель	16911
велоп	16912
велла	16913
енома	16914
тэнд	16915
тэнли	16916
ерцев	16917
труи	16918
дигма	16919
духту	16920
part	16921
roni	16922
006	16923
ilna	16924
взнос	16925
corri	16926
embra	16927
jica	16928
premi	16929
ural	16930
аллах	16931
орпос	16932
орпоң	16933
чубал	16934
чубап	16935
serge	16936
tere	16937
дрядч	16938
уолз	16939
нахш	16940
озенб	16941
delfi	16942
della	16943
ult	16944
снир	16945
кифл	16946
ийкеп	16947
грэс	16948
ways	16949
zone	16950
тэц	16951
елжеп	16952
бигне	16953
billi	16954
ukrai	16955
иджей	16956
кику	16957
аргис	16958
инерц	16959
апаңа	16960
цзеч	16961
arif	16962
petro	16963
пмис	16964
оксид	16965
авзол	16966
иппен	16967
иппес	16968
camry	16969
stock	16970
commu	16971
lond	16972
şaat	16973
зюме	16974
шүкүр	16975
ьену	16976
эбин	16977
трамк	16978
упаи	16979
откр	16980
вольт	16981
clea	16982
wsj	16983
еолит	16984
загс	16985
квита	16986
ниша	16987
хтш	16988
икуль	16989
evil	16990
ocea	16991
silk	16992
twe	16993
вамин	16994
кзоти	16995
орсбо	16996
иярба	16997
уньи	16998
елпек	16999
заада	17000
cbd	17001
club	17002
fars	17003
idea	17004
tmer	17005
women	17006
бьяд	17007
зулло	17008
пхён	17009
сусп	17010
айида	17011
ерпил	17012
ылчыг	17013
уршид	17014
витеб	17015
паңс	17016
arena	17017
undp	17018
блишм	17019
(!)	17020
blue	17021
glsdb	17022
jump	17023
mzh	17024
porn	17025
rsity	17026
wrest	17027
гюго	17028
жчку	17029
иаму	17030
клдп	17031
лкоди	17032
рүлүп	17033
рнито	17034
тусф	17035
шьям	17036
эшег	17037
ёттон	17038
азыми	17039
окятб	17040
амшед	17041
nobel	17042
etnam	17043
")	17044
,-	17045
.:	17046
4g	17047
4кө	17048
aк	17049
aл	17050
av	17051
apt	17052
ami	17053
asa	17054
ado	17055
abek	17056
bfm	17057
cи	17058
cine	17059
ds	17060
dj	17061
dor	17062
dre	17063
dmi	17064
dri	17065
data	17066
ek	17067
ege	17068
est	17069
fr	17070
foo	17071
fal	17072
fri	17073
fie	17074
fot	17075
food	17076
gh	17077
gx	17078
gma	17079
gin	17080
gene	17081
gha	17082
hp	17083
hü	17084
hall	17085
hbi	17086
hbo	17087
ig	17088
iz	17089
ian	17090
kc	17091
kent	17092
katt	17093
lg	17094
lı	17095
lfi	17096
lent	17097
lum	17098
ldy	17099
ml	17100
mbe	17101
mck	17102
mco	17103
mlr	17104
mvd	17105
n1	17106
nst	17107
nla	17108
nna	17109
nka	17110
nva	17111
oe	17112
opt	17113
ore	17114
osi	17115
odi	17116
oly	17117
omo	17118
pt	17119
pv	17120
pra	17121
pia	17122
pini	17123
pool	17124
qi	17125
qat	17126
rc	17127
rf	17128
rö	17129
rar	17130
rve	17131
rta	17132
rina	17133
rad	17134
rry	17135
sb	17136
sf	17137
sma	17138
soo	17139
sou	17140
sms	17141
ska	17142
tvi	17143
tma	17144
tbek	17145
uu	17146
uo	17147
ut	17148
uer	17149
uba	17150
van	17151
vest	17152
ww	17153
wp	17154
wer	17155
wri	17156
wol	17157
yer	17158
yin	17159
yol	17160
zu	17161
zh	17162
zha	17163
zine	17164
аок	17165
аюн	17166
аис	17167
аиш	17168
ааг	17169
аене	17170
аина	17171
аоля	17172
бх	17173
бка	17174
блик	17175
бсо	17176
бсе	17177
боро	17178
бкс	17179
бщи	17180
въ	17181
вүр	17182
вес	17183
веле	17184
всу	17185
вуз	17186
винг	17187
вчар	17188
влин	17189
гөр	17190
гып	17191
где	17192
гуш	17193
гов	17194
гян	17195
глан	17196
дл	17197
дц	17198
дe	17199
дст	17200
душ	17201
ддин	17202
дста	17203
дво	17204
дре	17205
дник	17206
ддк	17207
драм	17208
допи	17209
дяно	17210
джад	17211
еен	17212
едан	17213
ераи	17214
еаб	17215
еза	17216
еөб	17217
жт	17218
жo	17219
жир	17220
жор	17221
жди	17222
жку	17223
жно	17224
жене	17225
жмал	17226
жэк	17227
жева	17228
жэй	17229
зр	17230
зеро	17231
зуля	17232
зрет	17233
злот	17234
ича	17235
имат	17236
икан	17237
ику	17238
ибай	17239
идон	17240
идик	17241
иёр	17242
иид	17243
иола	17244
йа	17245
йак	17246
йил	17247
йген	17248
йел	17249
йше	17250
йден	17251
йом	17252
ймин	17253
ймер	17254
ймос	17255
йяр	17256
йваз	17257
кg	17258
кі	17259
краи	17260
ксат	17261
клер	17262
лр	17263
лкт	17264
лло	17265
лэн	17266
лёт	17267
лхо	17268
лёв	17269
лэм	17270
лхам	17271
лиля	17272
мз	17273
мж	17274
мя	17275
мa	17276
мук	17277
мес	17278
мот	17279
мро	17280
мбер	17281
мхан	17282
мжар	17283
мрид	17284
мхер	17285
мхп	17286
нр	17287
нѳ	17288
нши	17289
нгу	17290
нпу	17291
нгин	17292
нпо	17293
нму	17294
низа	17295
нюк	17296
нева	17297
ноко	17298
оуп	17299
осат	17300
оян	17301
оэл	17302
оули	17303
ощи	17304
оуни	17305
пст	17306
пеш	17307
панд	17308
пкан	17309
пчү	17310
пци	17311
пив	17312
пуз	17313
пэк	17314
пкк	17315
рo	17316
рор	17317
рюн	17318
ргон	17319
рпе	17320
рере	17321
рори	17322
рури	17323
ррас	17324
сp	17325
сж	17326
ссы	17327
сбу	17328
слы	17329
све	17330
слов	17331
сдс	17332
срор	17333
сётр	17334
тл	17335
тё	17336
ткт	17337
тме	17338
тмк	17339
тня	17340
тьс	17341
тьяк	17342
уак	17343
уес	17344
ужа	17345
удж	17346
улет	17347
уви	17348
ужар	17349
уэль	17350
фж	17351
фар	17352
фир	17353
фик	17354
фук	17355
фет	17356
фес	17357
фис	17358
фло	17359
флер	17360
фрид	17361
фой	17362
фьев	17363
хб	17364
хъ	17365
хер	17366
хур	17367
хол	17368
хас	17369
хсу	17370
хва	17371
хово	17372
хён	17373
хбк	17374
цон	17375
цюн	17376
цов	17377
цзи	17378
цаг	17379
цем	17380
цман	17381
цюр	17382
цова	17383
цхак	17384
цили	17385
цилл	17386
чуп	17387
чама	17388
чере	17389
чжу	17390
шг	17391
шю	17392
шана	17393
шмат	17394
шут	17395
шов	17396
шкек	17397
шуг	17398
шорт	17399
шүнү	17400
ший	17401
шоло	17402
шива	17403
шизо	17404
ыжа	17405
ыой	17406
эю	17407
это	17408
эдс	17409
юи	17410
юне	17411
юрос	17412
ях	17413
яри	17414
ём	17415
ёко	17416
ѳй	17417
ѳлг	17418
ңыр	17419
үӊ	17420
өик	17421
##ув	17422
##фан	17423
##фел	17424
##фос	17425
##тб	17426
##ое	17427
##ош	17428
##кѳ	17429
##кун	17430
##кил	17431
##мар	17432
##мус	17433
##лю	17434
##лок	17435
##ляд	17436
##гг	17437
##гер	17438
##гов	17439
##св	17440
##ьn	17441
##ең	17442
##нк	17443
##нб	17444
##io	17445
##iv	17446
##рер	17447
##рот	17448
##рей	17449
##өк	17450
##өз	17451
##вол	17452
##вор	17453
##виг	17454
##дх	17455
##хур	17456
##хте	17457
##пт	17458
##пол	17459
##пла	17460
##ed	17461
##ef	17462
##бл	17463
##бс	17464
##бко	17465
##dle	17466
##del	17467
##ow	17468
##oe	17469
##ok	17470
##ml	17471
##min	17472
##чѳ	17473
##чан	17474
##to	17475
##шин	17476
##шор	17477
##gs	17478
##go	17479
##gn	17480
##жый	17481
##яц	17482
##ями	17483
##ящи	17484
##эма	17485
##ңке	17486
##ік	17487
##au	17488
##lc	17489
##lt	17490
##lf	17491
##ng	17492
##kp	17493
##hu	17494
##hl	17495
##щик	17496
##ju	17497
##юй	17498
##юи	17499
##юб	17500
##юша	17501
##fl	17502
##for	17503
##xa	17504
##ɵт	17505
##",	17506
##ано	17507
##арл	17508
##ыни	17509
##ату	17510
алж	17511
алё	17512
алго	17513
алки	17514
алмин	17515
алну	17516
алжи	17517
арун	17518
арде	17519
ариш	17520
арбай	17521
арно	17522
арпу	17523
аржан	17524
арпе	17525
аркел	17526
арнат	17527
айин	17528
айгы	17529
айди	17530
айлд	17531
айзи	17532
аймк	17533
айчак	17534
айдел	17535
аййи	17536
коти	17537
кодо	17538
копе	17539
кокс	17540
кеӊ	17541
кеки	17542
##ека	17543
ганг	17544
ганр	17545
##үнѳ	17546
даун	17547
дака	17548
##аке	17549
##аки	17550
##олл	17551
##оль	17552
дед	17553
анек	17554
анун	17555
анор	17556
аноп	17557
анчу	17558
анси	17559
анера	17560
анжал	17561
анаси	17562
анюр	17563
атх	17564
атб	17565
атап	17566
атут	17567
атим	17568
атму	17569
атина	17570
атрос	17571
атира	17572
атюша	17573
каж	17574
##ияж	17575
менс	17576
меню	17577
##ило	17578
тарк	17579
ишк	17580
ишана	17581
ишне	17582
ишник	17583
ишня	17584
инан	17585
инов	17586
ингу	17587
инари	17588
инхай	17589
инью	17590
гаф	17591
гаит	17592
габр	17593
##раг	17594
##рав	17595
орф	17596
орч	17597
орал	17598
орра	17599
орке	17600
орог	17601
орче	17602
орри	17603
ором	17604
орзел	17605
оржу	17606
орнер	17607
болд	17608
каро	17609
уус	17610
уума	17611
уубай	17612
уумал	17613
##дес	17614
##кап	17615
##уко	17616
##ышы	17617
ияни	17618
##ете	17619
акст	17620
акли	17621
акис	17622
акум	17623
акла	17624
акки	17625
акула	17626
акраб	17627
акияж	17628
ункан	17629
унбай	17630
унгар	17631
жата	17632
##чав	17633
##чаң	17634
##лим	17635
ерш	17636
ерка	17637
ердан	17638
ерпи	17639
ериза	17640
түле	17641
берли	17642
киа	17643
кима	17644
аср	17645
асен	17646
асле	17647
асасы	17648
асый	17649
асем	17650
асака	17651
асьян	17652
аслим	17653
махт	17654
булат	17655
##уск	17656
дыбар	17657
азр	17658
азан	17659
азен	17660
азим	17661
абон	17662
абам	17663
абдар	17664
айтөр	17665
айтхо	17666
өтү	17667
надо	17668
навар	17669
наср	17670
нават	17671
начо	17672
##тем	17673
улф	17674
улв	17675
улча	17676
улап	17677
ултер	17678
улха	17679
улжу	17680
уляк	17681
ултон	17682
укп	17683
укер	17684
укут	17685
теи	17686
теин	17687
теми	17688
тева	17689
прик	17690
прут	17691
ндага	17692
ндатр	17693
чыт	17694
стыр	17695
стул	17696
стуз	17697
ства	17698
ству	17699
ствен	17700
калли	17701
эме	17702
эмир	17703
эмбли	17704
кыи	17705
ашак	17706
ашраб	17707
үнс	17708
ыль	17709
ылкан	17710
ылчак	17711
соз	17712
соп	17713
соб	17714
чебер	17715
дениз	17716
дино	17717
терри	17718
ыйгы	17719
ыйшак	17720
тиф	17721
тиана	17722
тите	17723
тиси	17724
билт	17725
дани	17726
бех	17727
бест	17728
овоз	17729
геш	17730
гелд	17731
урке	17732
урку	17733
урян	17734
урани	17735
урту	17736
уркул	17737
нец	17738
нез	17739
неи	17740
нест	17741
нели	17742
негин	17743
араи	17744
арав	17745
араӊ	17746
араон	17747
ошап	17748
ошкун	17749
олга	17750
тые	17751
аям	17752
аячи	17753
аяхме	17754
етта	17755
етсо	17756
етири	17757
етшин	17758
баби	17759
байс	17760
окин	17761
окст	17762
оккай	17763
трк	17764
трал	17765
трящи	17766
элле	17767
элор	17768
эляз	17769
күд	17770
керма	17771
##көл	17772
ыкшып	17773
ырсы	17774
ыраны	17775
ырёв	17776
еник	17777
енил	17778
енте	17779
енмин	17780
ензел	17781
енная	17782
корм	17783
талл	17784
таль	17785
маму	17786
ират	17787
ирал	17788
ирчи	17789
ирна	17790
ирне	17791
ирел	17792
ирден	17793
ирчик	17794
ирюк	17795
онур	17796
онтан	17797
бекип	17798
бекий	17799
дүи	17800
тинк	17801
тикло	17802
апен	17803
апёр	17804
аплин	17805
апкай	17806
апкор	17807
лууг	17808
мину	17809
минут	17810
лада	17811
ласт	17812
лаго	17813
лахан	17814
кабак	17815
див	17816
дима	17817
дидар	17818
андаб	17819
андаж	17820
авс	17821
авр	17822
авин	17823
авзо	17824
авлан	17825
авхар	17826
авчав	17827
амта	17828
амуш	17829
амдан	17830
амиш	17831
амри	17832
амыт	17833
амсун	17834
амша	17835
амран	17836
амфе	17837
ийа	17838
нини	17839
олм	17840
олын	17841
олер	17842
олор	17843
олло	17844
олпо	17845
олже	17846
кент	17847
алдо	17848
мио	17849
мидин	17850
миче	17851
уше	17852
ушра	17853
ушуг	17854
ушкат	17855
ушбак	17856
изан	17857
изами	17858
агыс	17859
агың	17860
учер	17861
учин	17862
саак	17863
сави	17864
оота	17865
руса	17866
руси	17867
арден	17868
узг	17869
өре	17870
шаи	17871
шаю	17872
шаги	17873
шаани	17874
шаве	17875
лидо	17876
липи	17877
либер	17878
лиоз	17879
лихат	17880
ндс	17881
ндур	17882
ндары	17883
ндрат	17884
ндѳр	17885
ндaй	17886
кух	17887
кулез	17888
ичан	17889
ичка	17890
ичке	17891
ичкен	17892
##лах	17893
арыса	17894
реле	17895
рега	17896
редо	17897
реми	17898
реци	17899
реңке	17900
ойл	17901
ойбо	17902
ойрот	17903
бужо	17904
бува	17905
буяк	17906
##кит	17907
имен	17908
имоно	17909
иммо	17910
ттн	17911
гос	17912
ызал	17913
ызышы	17914
атаиб	17915
шайба	17916
рида	17917
рицак	17918
илм	17919
илил	17920
илора	17921
илхам	17922
тод	17923
тоя	17924
тоци	17925
сүг	17926
евид	17927
сеч	17928
сефа	17929
өнг	17930
жело	17931
жеза	17932
огба	17933
ограб	17934
сотт	17935
общ	17936
обчак	17937
обров	17938
ачич	17939
дуин	17940
дуэт	17941
танок	17942
ныт	17943
индел	17944
рае	17945
раис	17946
радо	17947
раби	17948
раян	17949
нтет	17950
нтис	17951
нторг	17952
ымба	17953
ымпы	17954
ымпел	17955
ымкап	17956
чека	17957
чекен	17958
ейир	17959
ейиз	17960
ейби	17961
ейсо	17962
ейфи	17963
ейлан	17964
ейчел	17965
илит	17966
ээл	17967
мило	17968
иски	17969
исала	17970
исса	17971
##мей	17972
жетке	17973
упан	17974
упат	17975
упур	17976
упри	17977
отб	17978
отин	17979
отир	17980
отик	17981
откин	17982
откат	17983
отдел	17984
отокс	17985
отля	17986
ипи	17987
ипин	17988
ипак	17989
ипсы	17990
эмип	17991
жари	17992
жарч	17993
нии	17994
нида	17995
ниёр	17996
үлж	17997
бото	17998
бобо	17999
бому	18000
божон	18001
путч	18002
орбин	18003
нуч	18004
нуж	18005
нуолл	18006
меми	18007
месте	18008
ндез	18009
ндеп	18010
артли	18011
жалп	18012
убей	18013
убару	18014
убров	18015
лел	18016
лез	18017
леми	18018
опп	18019
опен	18020
опоз	18021
алив	18022
алич	18023
алива	18024
аныт	18025
елто	18026
елов	18027
елти	18028
елче	18029
елха	18030
елфи	18031
еллоу	18032
асыг	18033
агаң	18034
гив	18035
гич	18036
адм	18037
адур	18038
адра	18039
адори	18040
келес	18041
пано	18042
паня	18043
октб	18044
дикер	18045
вием	18046
иктик	18047
лорд	18048
лорит	18049
айрид	18050
итл	18051
ить	18052
итал	18053
итис	18054
итера	18055
итрал	18056
итуц	18057
ноз	18058
нома	18059
ному	18060
ностр	18061
саке	18062
сакун	18063
бейта	18064
айлын	18065
екме	18066
екуля	18067
маки	18068
макай	18069
умер	18070
умир	18071
умул	18072
умшу	18073
умсар	18074
расл	18075
расул	18076
чоу	18077
пару	18078
паре	18079
майма	18080
икб	18081
икма	18082
икси	18083
грен	18084
грев	18085
гриб	18086
топу	18087
мухан	18088
эрлиф	18089
эрола	18090
эруко	18091
анту	18092
аркаш	18093
янц	18094
туо	18095
агик	18096
агаш	18097
агжан	18098
агман	18099
агний	18100
ктк	18101
утуш	18102
утпи	18103
уттер	18104
роду	18105
рожа	18106
роиц	18107
рооло	18108
оңкос	18109
омду	18110
омбо	18111
омика	18112
омера	18113
екей	18114
реси	18115
реска	18116
био	18117
биен	18118
библи	18119
биале	18120
мост	18121
модо	18122
мофи	18123
ебрас	18124
сайд	18125
дорин	18126
озор	18127
озду	18128
озым	18129
озгел	18130
декс	18131
декса	18132
езер	18133
ркуля	18134
руан	18135
руда	18136
ружи	18137
кезек	18138
поми	18139
ажда	18140
ажир	18141
ажым	18142
ажино	18143
чаян	18144
тено	18145
ртта	18146
ртюр	18147
ртони	18148
зада	18149
заур	18150
заги	18151
зажы	18152
зави	18153
завах	18154
пикр	18155
ыгыр	18156
ният	18157
епар	18158
епир	18159
епси	18160
еплок	18161
амиат	18162
акыб	18163
акың	18164
толга	18165
адау	18166
таке	18167
адими	18168
полим	18169
логот	18170
геро	18171
алыч	18172
алың	18173
ембо	18174
емала	18175
өсүнд	18176
тами	18177
рре	18178
теки	18179
ирид	18180
плён	18181
елед	18182
ахжа	18183
ахари	18184
ахму	18185
ахеб	18186
нарци	18187
койд	18188
зарба	18189
рамка	18190
брай	18191
брэн	18192
брыни	18193
фиф	18194
фиб	18195
фицж	18196
пади	18197
паана	18198
пафо	18199
пачка	18200
пахла	18201
лике	18202
ураж	18203
айгам	18204
спен	18205
спект	18206
мирн	18207
мирет	18208
луи	18209
луч	18210
новер	18211
тайн	18212
тайлз	18213
мань	18214
манжу	18215
лох	18216
лоид	18217
ешим	18218
ешув	18219
ибери	18220
ибрай	18221
оттон	18222
рипт	18223
ракма	18224
ракшн	18225
елиа	18226
елив	18227
елид	18228
елиме	18229
есем	18230
есбос	18231
есаро	18232
кшан	18233
этки	18234
этме	18235
этни	18236
атами	18237
мете	18238
метаз	18239
ваку	18240
вака	18241
ицот	18242
ринк	18243
ишини	18244
алмон	18245
ааз	18246
ааал	18247
аади	18248
стука	18249
стубб	18250
чурин	18251
ехзод	18252
лые	18253
жоа	18254
жое	18255
жод	18256
жош	18257
осг	18258
осс	18259
ось	18260
осул	18261
осор	18262
осет	18263
осса	18264
овая	18265
cost	18266
code	18267
cour	18268
аказ	18269
угаш	18270
угут	18271
масса	18272
пид	18273
пиб	18274
пич	18275
чөк	18276
льси	18277
ссон	18278
сская	18279
лимар	18280
ушуб	18281
лапа	18282
альк	18283
альм	18284
олоти	18285
амау	18286
амап	18287
амади	18288
гина	18289
гини	18290
ереф	18291
ерея	18292
ивек	18293
ивлин	18294
ивхте	18295
пейж	18296
удик	18297
ришна	18298
скал	18299
скур	18300
вирид	18301
гале	18302
галло	18303
рсиа	18304
баау	18305
аалат	18306
ихтер	18307
обоз	18308
обод	18309
есто	18310
ксан	18311
ксур	18312
ксел	18313
шонд	18314
датп	18315
ауб	18316
аубер	18317
пуд	18318
ерио	18319
ерито	18320
ериге	18321
бурап	18322
noi	18323
nort	18324
ургум	18325
зорд	18326
усай	18327
усра	18328
усла	18329
успан	18330
ариде	18331
арита	18332
россе	18333
орошо	18334
зиг	18335
зида	18336
клиби	18337
шарф	18338
чуке	18339
##ьяр	18340
нулы	18341
аэда	18342
пасо	18343
ирад	18344
изаци	18345
архор	18346
пиров	18347
лупа	18348
сира	18349
атрон	18350
атреш	18351
атруд	18352
506	18353
505	18354
509	18355
дипсе	18356
игаш	18357
играй	18358
игаре	18359
ласф	18360
аргал	18361
рекат	18362
мбала	18363
мбани	18364
тыла	18365
лейн	18366
лейта	18367
одов	18368
одба	18369
оддер	18370
одни	18371
одня	18372
одмон	18373
одвиг	18374
одпол	18375
шоз	18376
шоон	18377
кесме	18378
ризе	18379
ризон	18380
везд	18381
никел	18382
инома	18383
едита	18384
икас	18385
икасы	18386
ыткар	18387
абыге	18388
сель	18389
клин	18390
клол	18391
кляр	18392
очор	18393
сумса	18394
айтас	18395
ольт	18396
олье	18397
ольн	18398
ании	18399
асту	18400
астя	18401
убако	18402
кре	18403
криш	18404
крами	18405
кринд	18406
емиш	18407
люз	18408
лючи	18409
мерч	18410
мерси	18411
ижам	18412
мейра	18413
стата	18414
cap	18415
can	18416
caf	18417
cava	18418
call	18419
роли	18420
лдуз	18421
40ы	18422
403	18423
рейе	18424
кака	18425
шиа	18426
шие	18427
ших	18428
шифр	18429
шууд	18430
зоид	18431
акано	18432
рафи	18433
залес	18434
ламал	18435
ламхо	18436
км2	18437
кмдб	18438
птиз	18439
енез	18440
енеч	18441
нцева	18442
лата	18443
латин	18444
латип	18445
отод	18446
ервуш	18447
ервез	18448
мона	18449
монти	18450
занти	18451
удайн	18452
ожур	18453
ожей	18454
ожид	18455
ечан	18456
артыс	18457
артың	18458
рсла	18459
рсант	18460
афыз	18461
афто	18462
афри	18463
афид	18464
аффе	18465
уртин	18466
уртка	18467
линви	18468
блай	18469
блино	18470
блова	18471
блоко	18472
ляут	18473
60ы	18474
гулг	18475
лицин	18476
ned	18477
nesa	18478
nect	18479
neue	18480
шүц	18481
ллега	18482
ллехо	18483
неки	18484
улума	18485
үңк	18486
шаму	18487
шамк	18488
шамын	18489
шамше	18490
вао	18491
вах	18492
вази	18493
вахан	18494
807	18495
803	18496
804	18497
809	18498
ерны	18499
шыпты	18500
браз	18501
рисп	18502
рисма	18503
аскре	18504
706	18505
707	18506
704	18507
реве	18508
ревал	18509
##виа	18510
##вид	18511
ньоз	18512
##esh	18513
банки	18514
набис	18515
риме	18516
лияс	18517
чие	18518
чич	18519
атиас	18520
жыя	18521
жыве	18522
ораб	18523
аиб	18524
##ian	18525
колой	18526
ечем	18527
ронт	18528
рона	18529
ронь	18530
ронх	18531
икос	18532
норе	18533
норин	18534
тимм	18535
907	18536
909	18537
ловер	18538
идье	18539
идзе	18540
ербиш	18541
арказ	18542
ынчт	18543
алпын	18544
аршам	18545
зеех	18546
море	18547
мори	18548
морим	18549
ардал	18550
дурз	18551
етафи	18552
insa	18553
india	18554
ster	18555
ригг	18556
закым	18557
всян	18558
иниче	18559
ухал	18560
ухта	18561
ухси	18562
ухшо	18563
розм	18564
роздь	18565
лобок	18566
ыяна	18567
ашың	18568
урнит	18569
нтий	18570
уттум	18571
ельд	18572
ельян	18573
ельеф	18574
атоб	18575
амало	18576
клад	18577
45и	18578
454	18579
гайд	18580
устав	18581
аваба	18582
rei	18583
rete	18584
reco	18585
rezi	18586
ейид	18587
фаиз	18588
фаунд	18589
teg	18590
аксак	18591
аксут	18592
369	18593
арьяб	18594
336	18595
уйга	18596
инали	18597
андеб	18598
ритми	18599
шиль	18600
шилби	18601
324	18602
tiev	18603
орони	18604
ебед	18605
лаво	18606
лавер	18607
лавий	18608
ость	18609
ости	18610
остен	18611
остел	18612
улгад	18613
чабар	18614
рени	18615
чане	18616
чанак	18617
75и	18618
751	18619
хаз	18620
хаги	18621
нсорт	18622
нсбах	18623
гормо	18624
арбаш	18625
арбор	18626
no15	18627
трах	18628
екач	18629
умач	18630
окос	18631
##ari	18632
бельс	18633
lii	18634
lis	18635
lim	18636
liga	18637
481	18638
шашке	18639
ениа	18640
ралар	18641
шерт	18642
шерн	18643
енгур	18644
нчүл	18645
шира	18646
ифт	18647
йсан	18648
558	18649
652	18650
славл	18651
радх	18652
alp	18653
нака	18654
накви	18655
эндо	18656
энни	18657
шеж	18658
шеми	18659
айсон	18660
айсам	18661
арчук	18662
кемел	18663
етей	18664
нжип	18665
дсен	18666
дски	18667
рыган	18668
ргам	18669
ргоо	18670
ргесе	18671
чирий	18672
мико	18673
раши	18674
резу	18675
резо	18676
айнц	18677
айнур	18678
абид	18679
ьерр	18680
39у	18681
473	18682
удаа	18683
удал	18684
ong	18685
vill	18686
етрис	18687
зухра	18688
ефат	18689
857	18690
855	18691
851	18692
гила	18693
гилан	18694
гилза	18695
гиляк	18696
рпак	18697
бозом	18698
no28	18699
ажид	18700
ажибу	18701
542	18702
tuu	18703
tung	18704
оцци	18705
равв	18706
rit	18707
rief	18708
623	18709
621	18710
ногай	18711
ногам	18712
рикпе	18713
rop	18714
ros	18715
roma	18716
robn	18717
мгааб	18718
584	18719
589	18720
578	18721
570	18722
637	18723
634	18724
684	18725
крав	18726
лесе	18727
521	18728
464	18729
оргой	18730
513	18731
776	18732
775	18733
йлиш	18734
новав	18735
потс	18736
ерчел	18737
sam	18738
sab	18739
save	18740
samo	18741
sady	18742
huri	18743
hurri	18744
itf	18745
aiba	18746
шейн	18747
унио	18748
562	18749
ието	18750
ткээл	18751
ориен	18752
орист	18753
гатне	18754
иано	18755
ертиц	18756
елоз	18757
orp	18758
chri	18759
673	18760
джин	18761
джай	18762
джап	18763
джид	18764
738	18765
733	18766
ежду	18767
612	18768
икий	18769
еталь	18770
722	18771
урбум	18772
tom	18773
765	18774
aro	18775
arms	18776
646	18777
648	18778
64ү	18779
643	18780
##ell	18781
##ely	18782
ассер	18783
prot	18784
spi	18785
kay	18786
kady	18787
kapl	18788
ылаба	18789
95и	18790
узибо	18791
аео	18792
аеж	18793
елази	18794
абрия	18795
рельс	18796
789	18797
pod	18798
nity	18799
илье	18800
шакян	18801
ладка	18802
ейбут	18803
698	18804
691	18805
692	18806
замби	18807
лишас	18808
afc	18809
afo	18810
977	18811
979	18812
971	18813
чарук	18814
ash	18815
asy	18816
asrta	18817
бора	18818
mai	18819
map	18820
mas	18821
mak	18822
mah	18823
maz	18824
may	18825
made	18826
лонд	18827
уэст	18828
уэро	18829
уэйт	18830
876	18831
rusi	18832
эйн	18833
эйнс	18834
amc	18835
рбан	18836
рбиш	18837
рбдин	18838
79у	18839
797	18840
791	18841
асиле	18842
743	18843
744	18844
рибан	18845
sher	18846
show	18847
идие	18848
иллис	18849
рмос	18850
рмосо	18851
асеи	18852
инжин	18853
инжуй	18854
866	18855
860	18856
828	18857
817	18858
813	18859
819	18860
ethe	18861
nak	18862
naz	18863
navi	18864
836	18865
83ү	18866
837	18867
839	18868
ккур	18869
ккра	18870
ккум	18871
soc	18872
рэс	18873
рэгон	18874
рэвис	18875
рэгг	18876
оройл	18877
cis	18878
##rop	18879
шахте	18880
ургас	18881
88и	18882
882	18883
987	18884
ской	18885
айзе	18886
no33	18887
no35	18888
nde	18889
ndo	18890
иллс	18891
иллак	18892
иллма	18893
йлон	18894
die	18895
diet	18896
dick	18897
dium	18898
daca	18899
daew	18900
шорго	18901
taz	18902
taby	18903
алаке	18904
996	18905
990	18906
днан	18907
ропи	18908
улпен	18909
улпат	18910
улпур	18911
938	18912
931	18913
930	18914
dow	18915
dov	18916
docu	18917
sui	18918
дзюк	18919
ящик	18920
алох	18921
льяви	18922
924	18923
922	18924
эвон	18925
левит	18926
левод	18927
шалда	18928
ндраш	18929
ндряк	18930
аннс	18931
шымб	18932
лауре	18933
nexia	18934
bak	18935
bab	18936
xxx	18937
зерж	18938
прас	18939
hima	18940
high	18941
пенс	18942
пени	18943
тубра	18944
визи	18945
уанг	18946
шимо	18947
рмей	18948
эльм	18949
эльза	18950
969	18951
962	18952
918	18953
915	18954
911	18955
mov	18956
mobi	18957
ыбыр	18958
ротол	18959
##ill	18960
орец	18961
орез	18962
ореч	18963
нитра	18964
уллох	18965
езип	18966
цзы	18967
цзю	18968
ресте	18969
sis	18970
site	18971
арими	18972
unc	18973
рокс	18974
еменд	18975
898	18976
893	18977
899	18978
892	18979
uzu	18980
uzau	18981
ncil	18982
boy	18983
boby	18984
eng	18985
iskp	18986
mik	18987
biont	18988
ссауи	18989
чехра	18990
has	18991
hamit	18992
венд	18993
вента	18994
rah	18995
rain	18996
яйло	18997
прице	18998
шадма	18999
дюссе	19000
бжон	19001
лкаби	19002
айбак	19003
оита	19004
аймс	19005
нефр	19006
grou	19007
pass	19008
быкш	19009
elb	19010
elli	19011
elme	19012
ткои	19013
aka	19014
мчул	19015
уумай	19016
hour	19017
jama	19018
омима	19019
аруи	19020
ыйкым	19021
чоӊу	19022
илаат	19023
илава	19024
minex	19025
nsp	19026
rki	19027
вазир	19028
iven	19029
wit	19030
wire	19031
бырт	19032
gaa	19033
hov	19034
homo	19035
byd	19036
йоса	19037
тумер	19038
ребко	19039
ксиди	19040
нтаб	19041
ануч	19042
ерное	19043
ёрнер	19044
ёрнс	19045
",-	19046
аурер	19047
рлист	19048
немец	19049
kib	19050
ерили	19051
ницын	19052
афаел	19053
monj	19054
omic	19055
siar	19056
шуро	19057
алхи	19058
ows	19059
own	19060
алух	19061
алуч	19062
арасу	19063
лично	19064
kyz	19065
kyiv	19066
rena	19067
nto	19068
pha	19069
рфо	19070
эттью	19071
bune	19072
buro	19073
йгел	19074
gis	19075
чапа	19076
арош	19077
exx	19078
хордо	19079
олчок	19080
fire	19081
koz	19082
kova	19083
koica	19084
quad	19085
смий	19086
акчын	19087
акчек	19088
унуке	19089
риано	19090
linke	19091
аюб	19092
улес	19093
хард	19094
хатки	19095
юррей	19096
html	19097
rsk	19098
нукле	19099
peo	19100
peace	19101
жень	19102
згляд	19103
love	19104
lock	19105
lose	19106
гаше	19107
ужин	19108
япб	19109
яппай	19110
irc	19111
sona	19112
wef	19113
бише	19114
gep	19115
gem	19116
geely	19117
цево	19118
аркеч	19119
azal	19120
mart	19121
броз	19122
броси	19123
пкүп	19124
еллит	19125
еллио	19126
no78	19127
mana	19128
tbi	19129
tb2	19130
tball	19131
елике	19132
hera	19133
hefor	19134
mun	19135
ads	19136
syy	19137
syst	19138
рбодо	19139
ффани	19140
ффало	19141
арзу	19142
енчур	19143
шыбап	19144
ваджо	19145
lyk	19146
аньян	19147
афие	19148
эвэнд	19149
ican	19150
nurt	19151
tesy	19152
бэни	19153
рцог	19154
рщиг	19155
стьян	19156
илуо	19157
убляж	19158
bear	19159
лпекс	19160
рющ	19161
ейпь	19162
ейпил	19163
audi	19164
ever	19165
great	19166
lucy	19167
муссе	19168
рогат	19169
ѳзү	19170
арнье	19171
еллог	19172
пески	19173
свал	19174
ёнг	19175
атмур	19176
уржун	19177
рихт	19178
рихло	19179
велл	19180
навид	19181
шабыр	19182
грест	19183
робиц	19184
stice	19185
викт	19186
виль	19187
лбеге	19188
ррози	19189
слами	19190
ыябы	19191
абох	19192
аботи	19193
олбур	19194
рагчи	19195
елуар	19196
motor	19197
046	19198
049	19199
ccr	19200
pari	19201
rone	19202
вяги	19203
едос	19204
фанди	19205
копье	19206
уренк	19207
тталь	19208
ейкум	19209
ажоб	19210
blic	19211
fun	19212
illu	19213
вейп	19214
гакы	19215
йнид	19216
осаго	19217
имира	19218
ahr	19219
key	19220
жевал	19221
йдабо	19222
луни	19223
нтот	19224
удой	19225
удож	19226
чипи	19227
кекир	19228
анеж	19229
calp	19230
шефч	19231
emre	19232
lian	19233
вати	19234
чким	19235
рагим	19236
чубак	19237
agro	19238
abra	19239
aqm	19240
from	19241
ntag	19242
адуж	19243
уолло	19244
атьки	19245
витри	19246
teach	19247
hampt	19248
omet	19249
дмон	19250
рэнд	19251
сбор	19252
ускат	19253
ыӊгай	19254
ѳлѳ	19255
ѳлкѳ	19256
атяш	19257
амсаа	19258
ийкед	19259
йозв	19260
кзис	19261
лхас	19262
тэо	19263
аббор	19264
тракц	19265
лауэр	19266
allia	19267
rism	19268
risk	19269
volvo	19270
038	19271
crew	19272
crea	19273
credi	19274
tant	19275
мими	19276
ыйныт	19277
зелит	19278
ефтри	19279
012	19280
mpire	19281
shell	19282
аумер	19283
аумай	19284
пэтри	19285
уэлс	19286
хром	19287
цыган	19288
шпил	19289
ашоу	19290
имарс	19291
исмаи	19292
нивер	19293
reddi	19294
telia	19295
эвень	19296
чжэнь	19297
gard	19298
njia	19299
vari	19300
зюган	19301
тхэ	19302
тхир	19303
тюард	19304
хviii	19305
эдф	19306
еренц	19307
оших	19308
ситем	19309
умбаи	19310
умбад	19311
рубка	19312
жккб	19313
child	19314
ferra	19315
walt	19316
зняк	19317
кakt	19318
мыйза	19319
слайд	19320
сдпк	19321
уамар	19322
амуду	19323
елков	19324
иклон	19325
аңкып	19326
локац	19327
пирож	19328
aрa	19329
brea	19330
brex	19331
ifes	19332
jeru	19333
ибао	19334
ибаит	19335
нокот	19336
отест	19337
снаг	19338
снаб	19339
фатх	19340
чунак	19341
ытая	19342
анчиа	19343
оряшк	19344
енаше	19345
убиан	19346
опуе	19347
агущ	19348
энсис	19349
edit	19350
doolo	19351
eiu	19352
epic	19353
pana	19354
rrent	19355
rbon	19356
uefa	19357
бмп	19358
вдие	19359
вриче	19360
гeн	19361
ещан	19362
мутжа	19363
нпур	19364
нцеф	19365
рюкз	19366
ѳткѳ	19367
ерхио	19368
чыйка	19369
стюг	19370
обзев	19371
stud	19372
энкок	19373
ктейл	19374
ndyk	19375
нвэнь	19376
beast	19377
clin	19378
hindu	19379
iwpr	19380
ijf	19381
moody	19382
svt	19383
бими	19384
бянка	19385
бярь	19386
итель	19387
мхоф	19388
ркыт	19389
рпух	19390
фюмер	19391
фомс	19392
царии	19393
шицай	19394
шмоб	19395
южет	19396
юсуф	19397
атсап	19398
мадея	19399
ашлак	19400
окпой	19401
изото	19402
речуш	19403
елчиг	19404
гипот	19405
адхим	19406
агзум	19407
ажуди	19408
шыңга	19409
rnews	19410
ефедр	19411
sudan	19412
xxvii	19413
falc	19414
gmail	19415
hürri	19416
lumen	19417
nvas	19418
pvp	19419
qatar	19420
rary	19421
wwf	19422
wolf	19423
аагат	19424
аоляо	19425
въет	19426
вүрт	19427
дцп	19428
дстав	19429
дяное	19430
зрек	19431
йакут	19432
йярто	19433
мукар	19434
нпуи	19435
тмкк	19436
тняя	19437
ться	19438
фжак	19439
фетө	19440
хбор	19441
шовин	19442
юита	19443
ѳлгѳ	19444
шавед	19445
robno	19446
уэйтс	19447
"",	19448
%)	19449
(©	19450
),	19451
//	19452
1и	19453
1б	19454
2g	19455
2ни	19456
3х	19457
3g	19458
[...]
