<unk>	0
<s>	0
</s>	0
▁а	-0
▁к	-1
▁т	-2
▁д	-3
▁б	-4
ан	-5
▁ж	-6
▁н	-7
ар	-8
▁ы	-9
▁и	-10
▁м	-11
▁с	-12
▁.	-13
▁о	-14
▁г	-15
▁у	-16
▁л	-17
ен	-18
ын	-19
▁,	-20
ер	-21
да	-22
▁ү	-23
ат	-24
▁р	-25
ин	-26
▁ар	-27
ал	-28
▁э	-29
▁ч	-30
▁ө	-31
▁ал	-32
▁-	-33
▁"	-34
уу	-35
▁е	-36
▁А	-37
▁п	-38
ыл	-39
ай	-40
▁ай	-41
ол	-42
ык	-43
▁К	-44
▁Б	-45
ир	-46
ек	-47
▁ке	-48
▁ын	-49
▁ган	-50
үн	-51
▁да	-52
ур	-53
ак	-54
ун	-55
гы	-56
ор	-57
▁де	-58
ыр	-59
▁ат	-60
он	-61
аш	-62
ле	-63
ик	-64
ам	-65
ул	-66
өр	-67
▁ш	-68
ия	-69
▁ан	-70
ил	-71
▁з	-72
▁мен	-73
ди	-74
▁ко	-75
ды	-76
өн	-77
▁тар	-78
▁иш	-79
▁ин	-80
кт	-81
▁ка	-82
▁га	-83
▁1	-84
▁2	-85
ана	-86
▁М	-87
▁менен	-88
лг	-89
ма	-90
▁та	-91
ып	-92
ыз	-93
ра	-94
ст	-95
ган	-96
▁жана	-97
▁дын	-98
▁бир	-99
▁бол	-100
▁ор	-101
га	-102
үү	-103
▁уу	-104
▁кан	-105
де	-106
▁лар	-107
▁нын	-108
ка	-109
▁кар	-110
▁Т	-111
▁С	-112
▁Ж	-113
ук	-114
ыш	-115
▁0	-116
▁О	-117
▁ия	-118
ок	-119
ет	-120
ли	-121
▁ун	-122
▁жат	-123
▁ер	-124
▁кө	-125
ча	-126
та	-127
▁бер	-128
из	-129
▁й	-130
▁тү	-131
ас	-132
▁баш	-133
▁ас	-134
ус	-135
▁туу	-136
▁ки	-137
▁ды	-138
▁ак	-139
▁кет	-140
ап	-141
▁ып	-142
▁ыл	-143
ген	-144
▁айт	-145
▁ма	-146
▁тур	-147
▁өт	-148
▁жыл	-149
те	-150
оо	-151
уш	-152
▁өл	-153
▁деп	-154
▁на	-155
▁үү	-156
▁нда	-157
▁ст	-158
▁чы	-159
▁те	-160
дө	-161
▁аб	-162
юн	-163
▁эк	-164
▁У	-165
▁дар	-166
ре	-167
▁кал	-168
мат	-169
▁гы	-170
▁ында	-171
▁ул	-172
йин	-173
ент	-174
▁лык	-175
▁аш	-176
▁үн	-177
▁сы	-178
ев	-179
▁че	-180
үр	-181
уп	-182
▁өз	-183
▁эм	-184
▁Ал	-185
стан	-186
▁тер	-187
▁лер	-188
▁ый	-189
▁дин	-190
▁кат	-191
▁үч	-192
ыргы	-193
▁жа	-194
▁эле	-195
▁со	-196
ке	-197
▁ти	-198
▁оюн	-199
▁бил	-200
▁дан	-201
өт	-202
▁сын	-203
▁зстан	-204
ес	-205
▁ол	-206
дам	-207
▁кы	-208
▁ов	-209
ты	-210
▁бе	-211
▁ге	-212
▁Э	-213
ги	-214
ары	-215
▁ф	-216
үл	-217
▁ур	-218
▁ара	-219
▁бар	-220
▁оюнча	-221
ог	-222
▁не	-223
▁олг	-224
▁ты	-225
▁в	-226
▁Кыргы	-227
▁ет	-228
▁ая	-229
ис	-230
▁маал	-231
▁аз	-232
то	-233
ку	-234
▁үр	-235
▁ына	-236
▁ба	-237
ов	-238
ут	-239
▁бай	-240
зи	-241
▁И	-242
▁кыз	-243
▁эл	-244
▁тр	-245
▁олгон	-246
▁ыш	-247
оп	-248
▁бул	-249
кер	-250
кө	-251
▁кер	-252
▁3	-253
▁ык	-254
ду	-255
им	-256
▁ыр	-257
▁ил	-258
▁кү	-259
▁үчүн	-260
до	-261
▁тин	-262
▁гөн	-263
▁тик	-264
▁ап	-265
▁луу	-266
▁он	-267
▁кай	-268
▁9	-269
▁билди	-270
▁үй	-271
▁өлкө	-272
▁ген	-273
го	-274
амле	-275
чу	-276
▁көр	-277
ым	-278
▁пре	-279
▁дент	-280
▁ымат	-281
▁бек	-282
▁өк	-283
▁иште	-284
▁кыл	-285
▁ла	-286
▁ди	-287
▁Д	-288
▁адам	-289
▁ав	-290
▁туура	-291
▁стан	-292
▁каб	-293
дан	-294
▁Ан	-295
ция	-296
▁тал	-297
▁дү	-298
▁лан	-299
▁П	-300
▁кор	-301
▁кол	-302
▁ий	-303
▁нин	-304
▁деген	-305
▁Бул	-306
гү	-307
инис	-308
▁5	-309
▁гө	-310
шы	-311
си	-312
▁ук	-313
▁сал	-314
▁Бир	-315
▁жол	-316
▁кен	-317
▁дө	-318
▁ком	-319
сы	-320
▁из	-321
▁ам	-322
▁алган	-323
▁ир	-324
▁агы	-325
▁жок	-326
ло	-327
ба	-328
▁алд	-329
▁мамле	-330
ара	-331
▁болуп	-332
ум	-333
▁Н	-334
▁уч	-335
▁4	-336
▁ми	-337
▁төр	-338
гө	-339
▁рус	-340
▁чыг	-341
▁русия	-342
▁прези	-343
▁анда	-344
▁уз	-345
▁ард	-346
▁нун	-347
▁тын	-348
ип	-349
▁күн	-350
▁кызма	-351
▁чейин	-352
▁минис	-353
▁өр	-354
▁дун	-355
еп	-356
▁:	-357
анд	-358
ге	-359
▁жак	-360
▁ша	-361
от	-362
▁Аз	-363
▁лөр	-364
▁эмес	-365
▁я	-366
кы	-367
▁уш	-368
▁керек	-369
еш	-370
дук	-371
ки	-372
зам	-373
▁ыйзам	-374
кан	-375
▁ен	-376
арт	-377
▁жаш	-378
иш	-379
▁алып	-380
▁кийин	-381
лик	-382
▁Ө	-383
гиз	-384
▁дагы	-385
▁тт	-386
бо	-387
▁оо	-388
ла	-389
▁атт	-390
▁Р	-391
өл	-392
▁ары	-393
▁7	-394
▁жаз	-395
▁жатат	-396
▁Ош	-397
лги	-398
үк	-399
▁ку	-400
▁башка	-401
▁ндө	-402
үп	-403
▁6	-404
▁ой	-405
▁ли	-406
▁8	-407
▁сө	-408
▁жер	-409
▁(	-410
▁белги	-411
▁ре	-412
▁сун	-413
▁үп	-414
▁)	-415
▁ыз	-416
▁си	-417
▁кара	-418
▁унда	-419
▁им	-420
▁нүн	-421
▁ң	-422
▁го	-423
▁үм	-424
▁жылы	-425
▁сү	-426
▁түш	-427
▁кел	-428
▁ич	-429
▁эс	-430
▁чык	-431
ми	-432
▁эки	-433
▁са	-434
▁өн	-435
▁учур	-436
▁кур	-437
▁акт	-438
▁се	-439
▁өтк	-440
▁ог	-441
ро	-442
▁көп	-443
▁рда	-444
▁алды	-445
▁нт	-446
чө	-447
▁Ч	-448
урда	-449
▁об	-450
▁Г	-451
▁ач	-452
гыз	-453
▁же	-454
▁ок	-455
▁шай	-456
ала	-457
▁ду	-458
▁тан	-459
▁ны	-460
кек	-461
раи	-462
▁дер	-463
▁инде	-464
асы	-465
▁катар	-466
▁нд	-467
ти	-468
лиг	-469
▁анын	-470
▁то	-471
ши	-472
▁ланыш	-473
лге	-474
ору	-475
▁көз	-476
▁оку	-477
▁рди	-478
▁ым	-479
▁ош	-480
чи	-481
▁ыргыз	-482
▁сот	-483
▁жүр	-484
▁ата	-485
▁?	-486
▁ра	-487
▁арак	-488
мак	-489
лык	-490
ект	-491
▁кели	-492
▁кам	-493
▁дол	-494
▁каршы	-495
▁ишкек	-496
▁келге	-497
▁түз	-498
▁үл	-499
▁чеч	-500
▁киши	-501
▁ей	-502
▁или	-503
мөт	-504
▁Бирок	-505
еле	-506
▁ээ	-507
▁Ш	-508
▁күч	-509
▁мил	-510
▁чыл	-511
ме	-512
▁аселе	-513
▁сөз	-514
ика	-515
▁миң	-516
аз	-517
▁шайло	-518
▁ден	-519
ңы	-520
▁андай	-521
▁жет	-522
▁өө	-523
▁кенин	-524
▁уп	-525
на	-526
▁кир	-527
ңеш	-528
▁сыз	-529
лус	-530
▁алуу	-531
▁арт	-532
үз	-533
▁Ук	-534
▁Украи	-535
▁ип	-536
▁ь	-537
▁жары	-538
▁жолу	-539
аны	-540
▁до	-541
▁облус	-542
уз	-543
▁жар	-544
▁ист	-545
▁үш	-546
▁пай	-547
өө	-548
▁от	-549
▁орб	-550
▁чыгар	-551
▁уул	-552
▁ну	-553
бек	-554
▁ую	-555
өш	-556
яб	-557
гу	-558
▁ийлик	-559
▁орбор	-560
▁дөн	-561
▁ынын	-562
▁өкмөт	-563
кен	-564
ко	-565
▁ме	-566
▁уна	-567
▁жөн	-568
▁мурда	-569
▁бас	-570
▁нде	-571
▁үмк	-572
▁чак	-573
▁ю	-574
▁үмкүн	-575
дин	-576
огор	-577
▁В	-578
▁колдо	-579
▁болду	-580
▁ни	-581
▁лүү	-582
▁кабыл	-583
▁жаңы	-584
▁түр	-585
▁уб	-586
▁тык	-587
▁ри	-588
чы	-589
▁иялык	-590
▁рай	-591
▁бо	-592
ыт	-593
иев	-594
▁аранд	-595
ый	-596
▁ел	-597
▁оп	-598
▁аскер	-599
ына	-600
онд	-601
тыр	-602
▁биз	-603
▁Е	-604
сө	-605
▁талап	-606
▁экен	-607
▁асы	-608
▁негиз	-609
апар	-610
▁ардын	-611
▁ызмат	-612
▁кабар	-613
уга	-614
би	-615
▁корго	-616
▁келе	-617
▁араке	-618
▁бери	-619
▁канын	-620
ем	-621
▁көрсө	-622
▁лери	-623
не	-624
▁ги	-625
▁чек	-626
дыр	-627
▁ылм	-628
уну	-629
▁айып	-630
▁алын	-631
за	-632
▁бири	-633
▁ис	-634
▁болот	-635
▁катыш	-636
▁ект	-637
чү	-638
▁ыкт	-639
▁гана	-640
▁пан	-641
▁окт	-642
▁чакыр	-643
▁инин	-644
▁эми	-645
йн	-646
▁азыр	-647
▁дей	-648
▁тарт	-649
▁сур	-650
▁Ф	-651
▁тагы	-652
сат	-653
▁чу	-654
▁шаары	-655
йнө	-656
▁дүн	-657
▁Каз	-658
со	-659
▁айтыл	-660
утт	-661
▁уюм	-662
▁үнд	-663
өм	-664
▁карма	-665
▁дик	-666
▁ле	-667
▁чыкка	-668
ци	-669
алы	-670
үг	-671
▁ооп	-672
аб	-673
▁жас	-674
▁райо	-675
аг	-676
▁жарыя	-677
▁кою	-678
ине	-679
бай	-680
▁х	-681
▁трлиг	-682
▁аймак	-683
▁ууда	-684
▁айтып	-685
▁дай	-686
дер	-687
▁икт	-688
▁Казак	-689
▁лор	-690
▁ция	-691
▁ыйын	-692
▁ент	-693
▁башта	-694
▁окуя	-695
▁ындай	-696
▁түү	-697
▁тарап	-698
▁ев	-699
▁про	-700
айы	-701
▁баев	-702
▁ит	-703
▁сак	-704
иру	-705
▁өткөр	-706
▁мат	-707
▁аны	-708
▁огуш	-709
▁деди	-710
▁өкүл	-711
▁Л	-712
▁оору	-713
▁айл	-714
▁Х	-715
ск	-716
жик	-717
▁парт	-718
▁ткер	-719
че	-720
өй	-721
▁рген	-722
▁болсо	-723
▁кый	-724
▁милли	-725
тар	-726
гон	-727
▁айыл	-728
▁сом	-729
▁ви	-730
▁ум	-731
▁бей	-732
▁орус	-733
▁шаар	-734
кто	-735
▁ек	-736
орт	-737
▁келиш	-738
▁көн	-739
▁пут	-740
▁кетке	-741
ыг	-742
ше	-743
кар	-744
▁алдык	-745
▁су	-746
▁чысы	-747
▁акча	-748
▁укт	-749
ры	-750
▁ынан	-751
▁ларды	-752
▁Жапар	-753
▁үйл	-754
▁йт	-755
маг	-756
▁кайра	-757
▁көб	-758
▁Жогор	-759
▁ик	-760
▁ине	-761
▁жылд	-762
▁жылды	-763
▁чечим	-764
▁нер	-765
▁чыгы	-766
▁долбо	-767
▁путат	-768
▁бөл	-769
▁авиру	-770
▁чо	-771
▁өрү	-772
▁аары	-773
▁ардык	-774
▁кооп	-775
▁кайры	-776
▁Анын	-777
▁лган	-778
екч	-779
▁ууга	-780
▁ардам	-781
унд	-782
▁унун	-783
▁етекч	-784
▁адамд	-785
▁гон	-786
үм	-787
▁май	-788
ри	-789
оно	-790
▁чет	-791
▁инчи	-792
▁мак	-793
▁пания	-794
ынд	-795
▁лары	-796
▁лоо	-797
▁пар	-798
▁топ	-799
лер	-800
▁лук	-801
пы	-802
▁арк	-803
▁дык	-804
рым	-805
▁дүйнө	-806
алпы	-807
▁сунуш	-808
үш	-809
▁Ев	-810
▁ошол	-811
▁ян	-812
▁абыз	-813
▁арды	-814
атт	-815
▁мент	-816
▁ышат	-817
▁но	-818
дар	-819
▁тары	-820
▁укук	-821
▁алдар	-822
▁аг	-823
▁коопс	-824
▁ылайы	-825
▁ага	-826
▁Азатт	-827
гил	-828
сий	-829
▁аясий	-830
▁Ке	-831
▁беков	-832
▁экс	-833
▁мика	-834
▁ут	-835
▁кт	-836
▁дем	-837
▁анык	-838
▁сына	-839
ян	-840
▁ту	-841
▁ад	-842
▁түн	-843
▁ндагы	-844
▁чара	-845
▁ом	-846
▁тарды	-847
асми	-848
ытай	-849
▁Кытай	-850
▁өткөн	-851
▁еке	-852
▁оң	-853
▁лист	-854
▁токто	-855
ив	-856
лган	-857
▁лүк	-858
▁орто	-859
▁арасы	-860
▁албай	-861
▁сынын	-862
▁уздук	-863
▁Кеңеш	-864
▁эч	-865
▁берил	-866
▁суу	-867
▁айтты	-868
▁сиз	-869
▁жакын	-870
▁жакшы	-871
гөр	-872
▁иктүү	-873
▁тыш	-874
▁ылмыш	-875
▁денти	-876
▁Өз	-877
▁элек	-878
▁ганда	-879
▁улам	-880
▁Ко	-881
▁парла	-882
▁тун	-883
анк	-884
▁дүү	-885
▁өзү	-886
▁авто	-887
▁три	-888
▁аң	-889
▁үргү	-890
▁жум	-891
▁өзгөр	-892
▁чил	-893
▁корон	-894
▁соң	-895
▁аныкт	-896
▁чыгып	-897
рд	-898
▁ушул	-899
▁үргүз	-900
▁акыр	-901
▁тап	-902
▁аты	-903
▁еб	-904
▁З	-905
▁дон	-906
▁ышы	-907
▁ерүү	-908
ети	-909
▁жөнү	-910
кин	-911
▁тыр	-912
▁бирок	-913
▁мү	-914
▁Биз	-915
▁чүл	-916
▁издин	-917
▁ала	-918
▁нө	-919
ери	-920
▁үрк	-921
▁ким	-922
▁нуу	-923
▁Ул	-924
▁чоң	-925
▁алар	-926
▁лады	-927
▁эконо	-928
▁дор	-929
▁гр	-930
▁оз	-931
▁араж	-932
▁оом	-933
▁дек	-934
▁келет	-935
▁өм	-936
дү	-937
▁нү	-938
▁үйлөш	-939
▁ез	-940
▁жалпы	-941
▁октяб	-942
▁айы	-943
▁быз	-944
▁Улутт	-945
үнө	-946
▁долл	-947
се	-948
▁Баш	-949
▁кеңеш	-950
▁жур	-951
▁АК	-952
▁аял	-953
▁ина	-954
▁кана	-955
▁Алар	-956
лген	-957
пи	-958
▁журна	-959
▁Ай	-960
▁илик	-961
▁АКШ	-962
▁күнү	-963
▁эсеп	-964
▁ашт	-965
▁тор	-966
ей	-967
▁чылык	-968
▁кез	-969
▁аркыл	-970
▁айрым	-971
▁дая	-972
тур	-973
▁Ошонд	-974
кү	-975
но	-976
▁тө	-977
▁каза	-978
сия	-979
▁Азыр	-980
▁олд	-981
▁ганын	-982
▁тил	-983
▁порт	-984
▁аж	-985
▁тит	-986
▁ындан	-987
тап	-988
скв	-989
00	-990
▁иши	-991
▁теги	-992
▁айыпт	-993
▁Са	-994
дик	-995
▁үүгө	-996
▁турат	-997
▁мл	-998
▁пайда	-999
▁калды	-1000
үгүн	-1001
▁ант	-1002
▁кыргы	-1003
▁өтөр	-1004
▁расми	-1005
▁дөр	-1006
▁Та	-1007
▁ча	-1008
▁нан	-1009
▁Өзбек	-1010
▁келип	-1011
▁по	-1012
▁таш	-1013
▁уучу	-1014
▁тен	-1015
▁рт	-1016
▁орун	-1017
▁нече	-1018
▁сай	-1019
▁оор	-1020
▁иси	-1021
▁алиев	-1022
▁Буга	-1023
▁мө	-1024
▁үнө	-1025
▁дук	-1026
▁кон	-1027
тү	-1028
▁эмне	-1029
▁эң	-1030
▁атал	-1031
▁рдаал	-1032
▁чул	-1033
▁арм	-1034
▁аймаг	-1035
▁бала	-1036
▁ыг	-1037
▁лаган	-1038
▁Мен	-1039
▁таб	-1040
▁үүдө	-1041
▁абал	-1042
▁ийлиг	-1043
▁Садыр	-1044
▁Евр	-1045
▁отур	-1046
▁иссия	-1047
▁рүү	-1048
▁шарт	-1049
▁ыгы	-1050
▁пик	-1051
▁деле	-1052
▁мүчө	-1053
▁екеме	-1054
▁өтө	-1055
▁ркин	-1056
акт	-1057
▁аткар	-1058
▁нган	-1059
▁берип	-1060
▁кылып	-1061
ыйыл	-1062
▁жерде	-1063
▁иштеп	-1064
▁аган	-1065
▁йын	-1066
▁тери	-1067
▁ергил	-1068
▁аштал	-1069
▁ро	-1070
▁уку	-1071
рел	-1072
▁бү	-1073
▁апрел	-1074
▁соци	-1075
▁март	-1076
▁тоо	-1077
▁саны	-1078
▁Тажик	-1079
▁еп	-1080
▁орган	-1081
бу	-1082
▁пикир	-1083
▁абуу	-1084
▁ыйынт	-1085
гөө	-1086
▁ергөө	-1087
▁илд	-1088
еби	-1089
▁аксат	-1090
▁ами	-1091
▁дыр	-1092
ит	-1093
▁буга	-1094
▁жи	-1095
▁үрөш	-1096
ани	-1097
▁очу	-1098
▁илдир	-1099
▁сат	-1100
▁сакто	-1101
▁кин	-1102
▁сыя	-1103
са	-1104
▁Ы	-1105
тор	-1106
▁ачык	-1107
вар	-1108
▁аясат	-1109
▁тол	-1110
гөн	-1111
▁кош	-1112
▁ада	-1113
▁көзөм	-1114
▁өөн	-1115
ушу	-1116
▁аттар	-1117
тер	-1118
▁ымд	-1119
▁ади	-1120
▁төраг	-1121
гра	-1122
▁рм	-1123
үгү	-1124
▁үз	-1125
ден	-1126
▁пр	-1127
▁дөгү	-1128
быз	-1129
▁ния	-1130
▁Пре	-1131
ээ	-1132
▁Ошол	-1133
▁шум	-1134
уун	-1135
▁бу	-1136
▁үркия	-1137
▁иликт	-1138
су	-1139
▁кул	-1140
▁жумуш	-1141
▁илиц	-1142
▁гү	-1143
▁так	-1144
▁меди	-1145
▁боло	-1146
▁Аба	-1147
▁тир	-1148
үрөт	-1149
▁лог	-1150
▁болчу	-1151
▁Прези	-1152
▁дары	-1153
МК	-1154
▁тук	-1155
▁өмүр	-1156
▁пер	-1157
▁рес	-1158
▁ектеп	-1159
сык	-1160
▁зы	-1161
▁ру	-1162
▁берди	-1163
▁арма	-1164
▁ишке	-1165
өлө	-1166
▁алы	-1167
▁бүл	-1168
▁тургу	-1169
▁Европ	-1170
▁му	-1171
пу	-1172
гин	-1173
▁Азия	-1174
▁ем	-1175
▁инен	-1176
▁сүн	-1177
▁шумча	-1178
▁жай	-1179
▁карат	-1180
▁жаб	-1181
▁пол	-1182
▁ады	-1183
▁мал	-1184
▁бүлө	-1185
▁беш	-1186
▁өс	-1187
▁оол	-1188
ңг	-1189
део	-1190
▁лгон	-1191
▁рат	-1192
▁арыз	-1193
ран	-1194
▁арын	-1195
▁Эл	-1196
▁төрт	-1197
лика	-1198
▁январ	-1199
гус	-1200
▁блика	-1201
жы	-1202
▁июн	-1203
▁аев	-1204
▁тааны	-1205
▁басма	-1206
▁ылган	-1207
▁аба	-1208
▁али	-1209
▁алыш	-1210
▁уктан	-1211
юл	-1212
▁Ак	-1213
▁авгус	-1214
▁грам	-1215
▁мун	-1216
▁төлө	-1217
▁айтым	-1218
▁Ма	-1219
▁ышты	-1220
▁лект	-1221
▁син	-1222
▁эр	-1223
▁сура	-1224
▁ц	-1225
ом	-1226
▁за	-1227
упц	-1228
▁рр	-1229
▁алт	-1230
▁жолуг	-1231
▁УК	-1232
▁ррупц	-1233
▁там	-1234
▁лу	-1235
▁гын	-1236
▁жаран	-1237
көн	-1238
буш	-1239
▁добуш	-1240
▁актив	-1241
▁нояб	-1242
▁УКМК	-1243
▁тек	-1244
▁акц	-1245
дай	-1246
▁эсепт	-1247
▁жылга	-1248
▁бак	-1249
рат	-1250
▁доо	-1251
▁суроо	-1252
▁майда	-1253
▁маани	-1254
▁лидер	-1255
лөр	-1256
▁аткен	-1257
▁теле	-1258
▁өкүлд	-1259
▁дуу	-1260
▁ири	-1261
▁сыр	-1262
▁док	-1263
▁көбү	-1264
▁пл	-1265
▁макул	-1266
огу	-1267
▁мек	-1268
▁озго	-1269
▁еле	-1270
▁жый	-1271
▁Кара	-1272
▁докум	-1273
▁айлан	-1274
▁Би	-1275
▁каны	-1276
▁түзүл	-1277
▁сында	-1278
▁олушу	-1279
▁коюл	-1280
▁ишен	-1281
▁наара	-1282
▁омдук	-1283
▁Анда	-1284
▁Мамле	-1285
▁салуу	-1286
▁толук	-1287
▁канча	-1288
▁жең	-1289
▁юш	-1290
▁бүт	-1291
ене	-1292
▁баган	-1293
▁чүлүк	-1294
▁декаб	-1295
▁юштур	-1296
▁Ант	-1297
▁амиле	-1298
▁соту	-1299
▁лектр	-1300
▁саат	-1301
▁сан	-1302
▁ах	-1303
▁акы	-1304
▁көбөй	-1305
▁бет	-1306
▁нанын	-1307
мь	-1308
▁Аб	-1309
▁өтүп	-1310
▁каз	-1311
▁кайта	-1312
▁кой	-1313
▁жетиш	-1314
шо	-1315
▁ерене	-1316
▁түл	-1317
▁банк	-1318
илд	-1319
▁лерди	-1320
▁ылтыр	-1321
▁зар	-1322
▁даярд	-1323
▁зүн	-1324
▁рам	-1325
▁асар	-1326
▁абуул	-1327
▁истем	-1328
▁Абад	-1329
юу	-1330
▁армак	-1331
▁талк	-1332
▁жарат	-1333
▁гөчө	-1334
▁өөнөт	-1335
▁карал	-1336
▁ишкан	-1337
▁ууну	-1338
▁бр	-1339
▁Пут	-1340
▁ыбыз	-1341
▁Путин	-1342
▁тынч	-1343
▁кыр	-1344
ел	-1345
▁лик	-1346
▁тий	-1347
▁олбо	-1348
▁видео	-1349
▁калык	-1350
▁Ү	-1351
еке	-1352
▁дейт	-1353
▁билим	-1354
▁ыра	-1355
▁өнд	-1356
▁ортос	-1357
▁атчы	-1358
▁бере	-1359
▁жаша	-1360
▁себ	-1361
▁улутт	-1362
по	-1363
▁тарых	-1364
▁жазыл	-1365
▁C	-1366
▁барып	-1367
▁иев	-1368
▁үүчү	-1369
дет	-1370
▁чог	-1371
гент	-1372
▁айг	-1373
▁ура	-1374
▁сент	-1375
еше	-1376
▁кинчи	-1377
▁камак	-1378
сү	-1379
▁июл	-1380
▁аттал	-1381
ий	-1382
▁үнкү	-1383
▁айым	-1384
▁сп	-1385
▁агент	-1386
▁экени	-1387
▁сентя	-1388
▁лды	-1389
▁алдуу	-1390
▁сыякт	-1391
▁айлар	-1392
▁карап	-1393
▁нерсе	-1394
▁себеп	-1395
▁тарда	-1396
▁жүрүп	-1397
▁артыл	-1398
▁илген	-1399
▁иргиз	-1400
▁бы	-1401
▁нен	-1402
тет	-1403
▁ация	-1404
▁кеч	-1405
▁ыкка	-1406
▁ндар	-1407
▁чү	-1408
▁окуу	-1409
▁чилик	-1410
▁ылмы	-1411
▁аттык	-1412
▁андан	-1413
▁Нур	-1414
оку	-1415
▁премь	-1416
це	-1417
▁күт	-1418
үнү	-1419
▁аас	-1420
▁Андан	-1421
▁үндүр	-1422
▁арган	-1423
▁көм	-1424
жа	-1425
▁ндук	-1426
▁тиги	-1427
▁укугу	-1428
▁йгон	-1429
▁ылдан	-1430
▁башкы	-1431
▁теген	-1432
▁чыкты	-1433
▁тажик	-1434
▁ушунд	-1435
▁нов	-1436
▁тов	-1437
▁па	-1438
▁өкүлү	-1439
▁мо	-1440
▁ман	-1441
▁нерг	-1442
▁ана	-1443
▁уулу	-1444
▁унаа	-1445
▁тарат	-1446
▁ого	-1447
▁тиеше	-1448
иц	-1449
▁зарыл	-1450
▁жүз	-1451
▁улан	-1452
▁ошонд	-1453
ари	-1454
▁Ага	-1455
▁ойло	-1456
▁ылыш	-1457
▁жаса	-1458
▁ашуун	-1459
▁илдет	-1460
▁түшүн	-1461
▁фор	-1462
▁шта	-1463
▁кий	-1464
▁үнүн	-1465
▁алык	-1466
▁аат	-1467
▁болбо	-1468
▁ең	-1469
▁соңку	-1470
▁эскер	-1471
па	-1472
екс	-1473
▁аасир	-1474
▁быйыл	-1475
▁тта	-1476
лар	-1477
▁Кон	-1478
▁тташ	-1479
▁млн	-1480
▁кайсы	-1481
▁ски	-1482
▁еш	-1483
▁урал	-1484
▁чылар	-1485
▁алк	-1486
▁жогор	-1487
ума	-1488
▁Көл	-1489
▁текше	-1490
▁үнү	-1491
нын	-1492
▁ишкер	-1493
▁кирги	-1494
уна	-1495
▁ээн	-1496
▁ички	-1497
▁сатып	-1498
▁ло	-1499
▁ынча	-1500
▁улуш	-1501
▁үндүз	-1502
▁иб	-1503
▁келди	-1504
тан	-1505
▁үшү	-1506
▁жаза	-1507
▁сынан	-1508
гек	-1509
▁жеке	-1510
▁олбой	-1511
▁тең	-1512
▁арга	-1513
▁грамм	-1514
▁кезде	-1515
▁кызык	-1516
▁тиз	-1517
▁Антке	-1518
▁айгаш	-1519
▁шт	-1520
▁төрү	-1521
▁итети	-1522
дон	-1523
▁10	-1524
▁титу	-1525
▁урм	-1526
▁деги	-1527
▁соо	-1528
дын	-1529
мө	-1530
▁ачыл	-1531
бө	-1532
▁бериш	-1533
▁отт	-1534
▁жыйын	-1535
▁айылы	-1536
▁даш	-1537
▁уюму	-1538
▁перт	-1539
▁өндүр	-1540
▁канда	-1541
▁аяс	-1542
▁Минис	-1543
▁нттар	-1544
▁алат	-1545
▁титуц	-1546
▁ратур	-1547
▁жасал	-1548
же	-1549
▁калк	-1550
▁леди	-1551
▁барат	-1552
▁ради	-1553
▁тышк	-1554
▁рип	-1555
▁зүнүн	-1556
▁ыкты	-1557
▁инс	-1558
▁Уш	-1559
▁ияга	-1560
▁нөн	-1561
▁уула	-1562
▁ылуу	-1563
▁Кор	-1564
▁ебеби	-1565
▁Мо	-1566
▁суна	-1567
▁ели	-1568
▁шаард	-1569
▁Оо	-1570
▁мур	-1571
▁бүгүн	-1572
▁тай	-1573
▁рак	-1574
▁нды	-1575
▁оскв	-1576
▁мир	-1577
▁осква	-1578
▁соода	-1579
▁берет	-1580
гер	-1581
▁аялд	-1582
▁өнү	-1583
▁дир	-1584
▁ес	-1585
▁Ооган	-1586
▁КШ	-1587
▁КШнын	-1588
▁олу	-1589
▁убакт	-1590
▁Жал	-1591
▁леп	-1592
▁медиц	-1593
▁ашык	-1594
▁Ат	-1595
▁үүлөр	-1596
▁уба	-1597
▁сызд	-1598
▁диги	-1599
ера	-1600
ңүл	-1601
▁жашоо	-1602
мин	-1603
▁уюмд	-1604
▁деш	-1605
▁ания	-1606
▁еген	-1607
▁мия	-1608
▁кач	-1609
▁бой	-1610
▁зра	-1611
▁өлүгү	-1612
▁Ата	-1613
▁тыюу	-1614
▁зраил	-1615
▁фи	-1616
▁салын	-1617
▁рун	-1618
▁сүй	-1619
▁агдай	-1620
▁көңүл	-1621
▁Де	-1622
▁проку	-1623
▁багы	-1624
▁эне	-1625
▁аштап	-1626
▁мет	-1627
▁эт	-1628
кта	-1629
▁үйү	-1630
▁догу	-1631
▁Жалал	-1632
▁опера	-1633
▁тизме	-1634
▁тынын	-1635
▁брда	-1636
▁илер	-1637
▁июнда	-1638
▁кап	-1639
▁деңг	-1640
▁бөлүм	-1641
▁илим	-1642
мер	-1643
▁абак	-1644
▁деңгэ	-1645
▁табыл	-1646
▁тон	-1647
▁!	-1648
▁сырт	-1649
▁кала	-1650
▁жөнөт	-1651
▁имов	-1652
▁багыт	-1653
▁кең	-1654
▁жарым	-1655
▁N	-1656
▁кетти	-1657
▁вак	-1658
▁айда	-1659
▁сүрөт	-1660
▁ышкан	-1661
▁дарды	-1662
▁чал	-1663
▁иц	-1664
▁ыйыны	-1665
▁кама	-1666
▁кайт	-1667
▁урук	-1668
▁үүнү	-1669
▁куну	-1670
▁алкуу	-1671
▁рин	-1672
▁дөй	-1673
▁ишин	-1674
▁алты	-1675
▁тас	-1676
▁ерин	-1677
▁ушуу	-1678
▁изилд	-1679
▁ларын	-1680
▁во	-1681
▁үст	-1682
▁ократ	-1683
▁котор	-1684
▁мигра	-1685
▁ыс	-1686
▁Абд	-1687
▁дүк	-1688
▁унан	-1689
▁%	-1690
▁алда	-1691
▁төн	-1692
▁жазды	-1693
жо	-1694
▁алм	-1695
▁;	-1696
▁Ысык	-1697
▁ерлер	-1698
▁кетиш	-1699
анс	-1700
▁Ар	-1701
▁Вла	-1702
▁кунуч	-1703
▁аа	-1704
▁адис	-1705
ылм	-1706
▁украи	-1707
▁актал	-1708
▁рмалы	-1709
үй	-1710
▁илиги	-1711
▁сотто	-1712
▁тем	-1713
▁лай	-1714
▁Нар	-1715
▁чын	-1716
▁элдик	-1717
▁өнүкт	-1718
▁сту	-1719
▁Влади	-1720
▁милде	-1721
▁каг	-1722
▁бүз	-1723
▁Башкы	-1724
▁ула	-1725
▁ишмер	-1726
▁нада	-1727
▁ою	-1728
бүз	-1729
поз	-1730
▁өнө	-1731
▁асып	-1732
▁алмаш	-1733
▁кыс	-1734
▁сок	-1735
▁ех	-1736
бер	-1737
▁түп	-1738
▁болуу	-1739
инг	-1740
▁казак	-1741
▁полиц	-1742
▁лы	-1743
▁ибиз	-1744
▁нага	-1745
▁I	-1746
▁нал	-1747
▁логия	-1748
▁истра	-1749
▁тышкы	-1750
▁тараб	-1751
▁ууган	-1752
▁Конс	-1753
түр	-1754
▁гач	-1755
▁армия	-1756
▁огору	-1757
▁алка	-1758
▁өлүм	-1759
▁ирим	-1760
▁урукс	-1761
▁үрүү	-1762
▁азар	-1763
▁бейт	-1764
▁Иран	-1765
▁эмгек	-1766
▁анд	-1767
ару	-1768
▁Атам	-1769
▁ска	-1770
евр	-1771
▁февр	-1772
▁алкаг	-1773
унун	-1774
▁елару	-1775
▁жабыр	-1776
▁жерге	-1777
▁ос	-1778
▁ова	-1779
▁трлер	-1780
▁Дү	-1781
▁лөрү	-1782
▁ейт	-1783
▁нча	-1784
▁Москв	-1785
▁дал	-1786
▁лып	-1787
▁Ис	-1788
▁каев	-1789
▁мд	-1790
▁мэ	-1791
▁T	-1792
▁суз	-1793
▁админ	-1794
▁аар	-1795
▁өрт	-1796
лам	-1797
▁ион	-1798
▁Чүй	-1799
уучу	-1800
▁ков	-1801
▁чулар	-1802
▁уг	-1803
▁шкан	-1804
▁алдын	-1805
▁бакыт	-1806
▁жибер	-1807
▁абалы	-1808
▁депут	-1809
▁июлда	-1810
▁айынд	-1811
▁абдан	-1812
▁өлтүр	-1813
▁өш	-1814
▁Си	-1815
▁салам	-1816
▁бөй	-1817
▁ылды	-1818
▁тарга	-1819
▁катуу	-1820
▁жог	-1821
▁тый	-1822
▁апкан	-1823
▁армаг	-1824
▁улган	-1825
▁радио	-1826
▁Дүйнө	-1827
▁үлг	-1828
▁караш	-1829
▁умт	-1830
▁ейтап	-1831
▁иң	-1832
▁спорт	-1833
▁15	-1834
▁санал	-1835
▁жан	-1836
▁азык	-1837
▁лим	-1838
▁пи	-1839
▁гөнүн	-1840
▁кетип	-1841
▁өг	-1842
▁тобу	-1843
▁көч	-1844
▁20	-1845
▁нет	-1846
▁шек	-1847
▁гачкы	-1848
▁сапар	-1849
▁Атамб	-1850
йгө	-1851
▁каруу	-1852
▁көл	-1853
▁зыл	-1854
▁зылык	-1855
▁лап	-1856
▁элдин	-1857
▁алыс	-1858
теп	-1859
▁ский	-1860
▁күй	-1861
▁имара	-1862
▁үлүп	-1863
▁таж	-1864
▁алтын	-1865
▁таг	-1866
▁ака	-1867
▁аль	-1868
▁матов	-1869
▁Эми	-1870
▁саба	-1871
▁шект	-1872
▁чылыг	-1873
▁муну	-1874
▁ыкча	-1875
▁изге	-1876
▁лерин	-1877
▁пайыз	-1878
▁исалы	-1879
▁форма	-1880
дж	-1881
▁Ушул	-1882
▁ама	-1883
▁жетки	-1884
▁гин	-1885
▁Тал	-1886
▁ль	-1887
▁байт	-1888
▁сине	-1889
▁өнөкт	-1890
▁сүз	-1891
▁шев	-1892
▁кеси	-1893
▁гем	-1894
▁үнчү	-1895
▁лд	-1896
▁гер	-1897
▁леген	-1898
▁ыктар	-1899
ни	-1900
▁илке	-1901
▁келин	-1902
▁аман	-1903
▁тапшы	-1904
▁өттү	-1905
▁елт	-1906
▁Маал	-1907
▁ултан	-1908
▁ажыр	-1909
вес	-1910
▁итинг	-1911
▁сайын	-1912
▁оппоз	-1913
▁каржы	-1914
▁сотко	-1915
▁төм	-1916
▁кыска	-1917
▁елтир	-1918
▁тарын	-1919
▁езек	-1920
▁жети	-1921
▁газ	-1922
▁жаг	-1923
▁азай	-1924
▁чурда	-1925
▁курул	-1926
▁сокку	-1927
▁ттуу	-1928
▁ланды	-1929
▁ере	-1930
▁нып	-1931
▁би	-1932
▁Бат	-1933
▁елген	-1934
мо	-1935
▁төмөн	-1936
▁ндеги	-1937
▁ире	-1938
▁одо	-1939
джет	-1940
▁Рес	-1941
▁риш	-1942
▁терди	-1943
▁юджет	-1944
▁рма	-1945
▁тыйжа	-1946
▁Респу	-1947
▁учак	-1948
▁чогул	-1949
▁йм	-1950
▁буз	-1951
▁чект	-1952
түк	-1953
▁басым	-1954
▁үштүк	-1955
▁мин	-1956
▁млрд	-1957
▁орду	-1958
▁үк	-1959
▁пей	-1960
▁бө	-1961
▁ндор	-1962
▁Ю	-1963
▁актан	-1964
▁мурун	-1965
▁уд	-1966
▁ткери	-1967
▁Сал	-1968
▁Батыш	-1969
▁көрүп	-1970
▁азуу	-1971
еси	-1972
▁уза	-1973
▁нтари	-1974
▁четке	-1975
▁эске	-1976
VI	-1977
▁аян	-1978
▁тигин	-1979
▁күндө	-1980
▁акынд	-1981
▁башчы	-1982
▁реж	-1983
▁Нарын	-1984
▁ск	-1985
▁аштар	-1986
▁зом	-1987
▁аният	-1988
▁асылм	-1989
▁чулук	-1990
▁30	-1991
▁ларда	-1992
▁ив	-1993
▁сый	-1994
▁панде	-1995
▁рган	-1996
▁арада	-1997
▁Гер	-1998
▁зомбу	-1999
▁рып	-2000
▁ашыр	-2001
▁ың	-2002
▁апта	-2003
▁тут	-2004
▁эрте	-2005
▁комме	-2006
▁вир	-2007
▁туш	-2008
▁олог	-2009
▁ажыра	-2010
▁актап	-2011
▁ттер	-2012
▁иримд	-2013
▁талаш	-2014
▁ыч	-2015
▁айына	-2016
▁көчө	-2017
▁кетүү	-2018
▁Бүгүн	-2019
▁дирек	-2020
▁респу	-2021
▁Аны	-2022
▁мае	-2023
▁сек	-2024
▁рси	-2025
▁инвес	-2026
лө	-2027
дөө	-2028
▁адыр	-2029
▁санк	-2030
рл	-2031
▁ондо	-2032
▁ткү	-2033
▁уулар	-2034
▁рил	-2035
▁рамп	-2036
▁генин	-2037
▁митет	-2038
▁санкц	-2039
▁нг	-2040
▁дым	-2041
▁орт	-2042
▁Эгер	-2043
▁топто	-2044
▁үгү	-2045
▁жеңил	-2046
ама	-2047
▁аал	-2048
▁таза	-2049
▁рсите	-2050
▁мед	-2051
▁улант	-2052
реже	-2053
▁скер	-2054
▁эреже	-2055
▁баа	-2056
▁инети	-2057
▁кыйын	-2058
▁тез	-2059
▁лануу	-2060
▁штаб	-2061
▁Ич	-2062
▁Герма	-2063
▁акция	-2064
▁келат	-2065
▁вакц	-2066
▁их	-2067
▁гал	-2068
▁кеп	-2069
▁То	-2070
▁тул	-2071
▁өнүг	-2072
▁ест	-2073
▁ети	-2074
▁китеп	-2075
▁олдоо	-2076
▁терге	-2077
▁пе	-2078
▁үндүк	-2079
▁Киев	-2080
▁ракет	-2081
▁өң	-2082
лы	-2083
▁кта	-2084
▁нунда	-2085
▁обо	-2086
▁бирөө	-2087
▁11	-2088
▁аяг	-2089
▁каала	-2090
▁турук	-2091
▁еки	-2092
▁инф	-2093
▁товар	-2094
▁анат	-2095
▁өөчү	-2096
▁иал	-2097
▁декси	-2098
▁кулов	-2099
▁сүйлө	-2100
иве	-2101
▁униве	-2102
▁ткөн	-2103
▁ишти	-2104
▁A	-2105
▁баз	-2106
▁езгил	-2107
▁түрдө	-2108
▁тору	-2109
▁ттан	-2110
▁Бри	-2111
▁игра	-2112
▁урам	-2113
▁Өк	-2114
▁арба	-2115
▁метр	-2116
▁Брита	-2117
▁трлик	-2118
▁туп	-2119
▁жазып	-2120
▁умтөр	-2121
▁ыктын	-2122
▁Эки	-2123
▁ыктан	-2124
▁Ро	-2125
▁Газ	-2126
▁ебиз	-2127
▁12	-2128
▁антип	-2129
▁Ички	-2130
▁алтыр	-2131
▁дээ	-2132
▁анит	-2133
▁баасы	-2134
▁дат	-2135
▁рдук	-2136
▁өзбек	-2137
▁түк	-2138
▁сөзд	-2139
жан	-2140
▁шон	-2141
▁зыян	-2142
▁Евро	-2143
on	-2144
▁бошо	-2145
▁базар	-2146
▁кирип	-2147
▁ери	-2148
▁аякта	-2149
▁Өкмөт	-2150
▁иштей	-2151
▁пу	-2152
▁лен	-2153
▁конс	-2154
▁стун	-2155
▁вирус	-2156
▁дээрл	-2157
▁Жа	-2158
▁болуш	-2159
▁сынд	-2160
▁аки	-2161
▁n	-2162
▁CO	-2163
сыз	-2164
▁ау	-2165
▁рь	-2166
▁баала	-2167
▁c	-2168
▁Мурда	-2169
▁бур	-2170
▁орунд	-2171
▁элч	-2172
▁асыз	-2173
▁екен	-2174
▁здар	-2175
▁овет	-2176
▁ток	-2177
▁катта	-2178
▁Талас	-2179
▁армап	-2180
▁s	-2181
▁мби	-2182
▁коюш	-2183
▁шайла	-2184
▁гүл	-2185
▁Салам	-2186
▁даяр	-2187
гын	-2188
▁ония	-2189
▁күнөө	-2190
▁дам	-2191
▁ург	-2192
▁матер	-2193
▁што	-2194
▁куруу	-2195
▁оолуу	-2196
▁жума	-2197
▁Жаңы	-2198
бы	-2199
▁күчөт	-2200
▁туруш	-2201
▁Жо	-2202
▁чем	-2203
▁станд	-2204
▁ырт	-2205
▁аракч	-2206
▁беген	-2207
▁эсеби	-2208
▁евр	-2209
▁анал	-2210
▁зүү	-2211
▁узду	-2212
▁кесип	-2213
▁койду	-2214
▁титут	-2215
▁күнд	-2216
▁бош	-2217
▁ыраст	-2218
▁мад	-2219
▁рыл	-2220
ту	-2221
▁олдо	-2222
▁улар	-2223
▁ланып	-2224
▁Кө	-2225
▁аянт	-2226
▁Алекс	-2227
VID	-2228
▁окшо	-2229
▁лукка	-2230
▁өмүрү	-2231
▁өч	-2232
▁пул	-2233
▁кошул	-2234
▁турум	-2235
▁сайты	-2236
▁инг	-2237
▁ымб	-2238
▁муз	-2239
▁калат	-2240
▁ус	-2241
▁S	-2242
▁зор	-2243
▁мүнө	-2244
▁телеф	-2245
▁ари	-2246
▁илди	-2247
лор	-2248
▁узуу	-2249
▁диний	-2250
ста	-2251
▁ырсык	-2252
▁No	-2253
▁гу	-2254
▁кээ	-2255
▁коюп	-2256
▁лүгү	-2257
▁кын	-2258
▁тамак	-2259
▁атра	-2260
▁айден	-2261
▁гемен	-2262
▁ишени	-2263
▁канал	-2264
▁циясы	-2265
сс	-2266
▁сунда	-2267
маз	-2268
▁нунун	-2269
нес	-2270
▁атыл	-2271
▁нтин	-2272
▁өзүн	-2273
▁ег	-2274
▁уктур	-2275
▁ңыз	-2276
▁ирет	-2277
▁COVID	-2278
▁Быйыл	-2279
▁изнес	-2280
▁лмаз	-2281
▁үлк	-2282
▁орно	-2283
▁ашиев	-2284
▁кадам	-2285
▁урс	-2286
▁терин	-2287
▁байка	-2288
▁туруп	-2289
▁айтыш	-2290
▁Анан	-2291
▁ыгын	-2292
▁ектөө	-2293
▁курч	-2294
▁галим	-2295
▁иялар	-2296
▁имди	-2297
▁сана	-2298
йр	-2299
▁рын	-2300
▁келти	-2301
▁Кам	-2302
▁аза	-2303
▁изд	-2304
▁оро	-2305
▁өөк	-2306
▁аттуу	-2307
▁дарыг	-2308
▁бетте	-2309
▁бөлүн	-2310
▁етте	-2311
▁Сүрөт	-2312
▁маш	-2313
▁мок	-2314
▁түзүү	-2315
▁сакта	-2316
▁сеп	-2317
▁мас	-2318
▁кылды	-2319
ШК	-2320
▁жолдо	-2321
▁калаа	-2322
ИМ	-2323
▁БШК	-2324
▁фон	-2325
▁оттун	-2326
▁планд	-2327
▁үт	-2328
▁играц	-2329
▁гында	-2330
▁убада	-2331
▁баян	-2332
▁лиги	-2333
▁шы	-2334
▁ондон	-2335
▁урман	-2336
▁еск	-2337
▁үстү	-2338
▁уур	-2339
▁көздө	-2340
▁кс	-2341
▁ндия	-2342
▁эли	-2343
▁сыртк	-2344
▁ушу	-2345
▁фак	-2346
▁танд	-2347
▁факты	-2348
▁Айт	-2349
▁ылд	-2350
▁лаш	-2351
▁мэри	-2352
▁етика	-2353
▁көлөм	-2354
▁транс	-2355
▁аан	-2356
▁күбө	-2357
пө	-2358
▁енко	-2359
▁зи	-2360
▁режим	-2361
пар	-2362
▁таян	-2363
▁үнүш	-2364
▁астан	-2365
▁Ц	-2366
▁100	-2367
▁баса	-2368
▁үйлөр	-2369
жал	-2370
▁ериш	-2371
▁куучу	-2372
▁бара	-2373
шө	-2374
▁Зел	-2375
тик	-2376
▁үйшө	-2377
▁кийи	-2378
▁арай	-2379
ва	-2380
▁Тыш	-2381
▁бою	-2382
▁амат	-2383
▁айжан	-2384
▁Тышкы	-2385
▁тасма	-2386
▁арала	-2387
▁булак	-2388
▁тапта	-2389
▁уздуг	-2390
▁Айрым	-2391
▁ран	-2392
▁узак	-2393
▁бирге	-2394
▁Суу	-2395
▁ткүч	-2396
▁чемпи	-2397
▁ыйм	-2398
▁аткан	-2399
▁ымбат	-2400
▁өөсү	-2401
▁жакта	-2402
▁Но	-2403
▁зат	-2404
ья	-2405
лет	-2406
▁чук	-2407
▁үзөт	-2408
▁амсыз	-2409
▁нул	-2410
▁ийи	-2411
▁i	-2412
▁Ор	-2413
▁ылдыр	-2414
▁айко	-2415
▁ызыл	-2416
▁Ала	-2417
сөт	-2418
▁Зелен	-2419
▁студе	-2420
▁өрсөт	-2421
▁Со	-2422
▁комп	-2423
▁иза	-2424
▁егиз	-2425
▁жокко	-2426
▁тирүү	-2427
▁талд	-2428
түү	-2429
▁чө	-2430
▁сөзү	-2431
▁арх	-2432
▁түрк	-2433
▁олдор	-2434
▁ира	-2435
▁дөрү	-2436
▁улуу	-2437
доо	-2438
▁Мад	-2439
▁луп	-2440
▁ору	-2441
▁калы	-2442
▁аңжал	-2443
▁сс	-2444
▁ачан	-2445
▁таган	-2446
▁түшүп	-2447
▁Рос	-2448
▁Чек	-2449
▁орлор	-2450
▁жиг	-2451
▁ред	-2452
▁арна	-2453
▁Ки	-2454
▁Газа	-2455
▁Орус	-2456
▁14	-2457
▁Сот	-2458
▁кызы	-2459
▁айылд	-2460
туу	-2461
▁еңиш	-2462
▁атр	-2463
▁50	-2464
▁иг	-2465
▁дип	-2466
▁дыгы	-2467
▁таң	-2468
▁дро	-2469
▁дипло	-2470
▁түрү	-2471
▁13	-2472
▁сия	-2473
▁етект	-2474
▁Сир	-2475
▁изм	-2476
▁өзүнө	-2477
▁арг	-2478
▁Сирия	-2479
▁+	-2480
▁еткен	-2481
▁Бек	-2482
▁ИИМ	-2483
▁Ошо	-2484
▁аппар	-2485
▁курор	-2486
▁чүлүг	-2487
▁олго	-2488
▁нууда	-2489
▁үбүз	-2490
▁ошо	-2491
▁ааты	-2492
▁шент	-2493
▁иреше	-2494
йру	-2495
▁лас	-2496
▁Камчы	-2497
▁ылбек	-2498
▁доочу	-2499
▁r	-2500
▁пас	-2501
▁өнөр	-2502
сб	-2503
шу	-2504
▁оок	-2505
▁имдиг	-2506
▁штуу	-2507
▁ылып	-2508
▁жабыл	-2509
▁ленге	-2510
▁мб	-2511
▁сте	-2512
▁алаа	-2513
▁дигин	-2514
▁орд	-2515
▁тыл	-2516
▁план	-2517
▁атаал	-2518
▁жарал	-2519
▁ван	-2520
▁медиа	-2521
▁атыш	-2522
▁акиев	-2523
▁пир	-2524
▁екит	-2525
▁ерр	-2526
▁жара	-2527
▁арыл	-2528
▁экөө	-2529
▁Кийин	-2530
▁жылда	-2531
▁лыш	-2532
▁Ам	-2533
▁ци	-2534
▁Таш	-2535
▁мык	-2536
▁сез	-2537
▁ыптыр	-2538
▁рек	-2539
▁тив	-2540
▁Евроб	-2541
▁араат	-2542
▁жүзү	-2543
▁жогот	-2544
▁Амери	-2545
▁менин	-2546
▁кли	-2547
▁апат	-2548
▁ыштыр	-2549
гар	-2550
▁иштет	-2551
,5	-2552
тай	-2553
ейсб	-2554
өлөр	-2555
▁лей	-2556
▁шты	-2557
▁оңшу	-2558
▁Фейсб	-2559
▁түрмө	-2560
▁рө	-2561
▁огул	-2562
▁үнүч	-2563
анас	-2564
▁Манас	-2565
▁муни	-2566
▁ейше	-2567
▁зама	-2568
▁рия	-2569
▁унт	-2570
▁арыш	-2571
▁Тем	-2572
▁тыгы	-2573
▁интер	-2574
▁тиция	-2575
▁урмуш	-2576
▁иалд	-2577
▁ашине	-2578
▁Өт	-2579
▁ысы	-2580
▁коно	-2581
▁нбай	-2582
▁айлык	-2583
▁кароо	-2584
▁од	-2585
▁урамы	-2586
▁Гүл	-2587
шыр	-2588
▁өйгө	-2589
▁баянд	-2590
▁ылдык	-2591
ерб	-2592
▁Корон	-2593
▁ндөгү	-2594
▁едер	-2595
▁Азерб	-2596
▁синин	-2597
▁Шай	-2598
▁терро	-2599
▁фр	-2600
▁өп	-2601
▁лла	-2602
▁жайыл	-2603
▁каган	-2604
▁жоо	-2605
▁темир	-2606
▁Темир	-2607
▁милге	-2608
▁ыйгар	-2609
▁кем	-2610
▁ъ	-2611
▁сөө	-2612
▁тонна	-2613
▁өйгөй	-2614
er	-2615
▁тасы	-2616
▁гинде	-2617
▁проце	-2618
▁сомго	-2619
ma	-2620
▁мыкты	-2621
▁колог	-2622
▁кес	-2623
▁оттук	-2624
▁25	-2625
▁Фран	-2626
▁абаг	-2627
▁оци	-2628
▁чаг	-2629
▁сурак	-2630
▁аманд	-2631
▁маалы	-2632
▁огуз	-2633
▁бизди	-2634
▁риз	-2635
▁чөй	-2636
▁апшыр	-2637
▁сттик	-2638
▁шондо	-2639
▁Токто	-2640
▁тарта	-2641
▁Ле	-2642
▁ерс	-2643
▁зия	-2644
▁ңар	-2645
▁өкүм	-2646
▁Жума	-2647
▁чогуу	-2648
▁нат	-2649
▁утб	-2650
▁герде	-2651
мүр	-2652
▁ойно	-2653
▁төрө	-2654
▁Өмүр	-2655
▁бошот	-2656
▁өөлөр	-2657
▁ино	-2658
▁ардыг	-2659
▁жетти	-2660
оро	-2661
▁зм	-2662
▁элде	-2663
▁демия	-2664
▁еди	-2665
▁өкт	-2666
▁тали	-2667
▁гынын	-2668
▁дерди	-2669
▁жери	-2670
▁Франц	-2671
▁амери	-2672
чик	-2673
▁анк	-2674
▁тех	-2675
▁жасап	-2676
▁коюу	-2677
▁удья	-2678
▁ыңг	-2679
▁бирик	-2680
▁алиба	-2681
▁чукул	-2682
▁16	-2683
мит	-2684
▁ыт	-2685
▁хам	-2686
▁өтөт	-2687
▁Мунун	-2688
▁ика	-2689
▁айма	-2690
▁жолун	-2691
▁вице	-2692
▁бекем	-2693
▁ескин	-2694
инч	-2695
▁шо	-2696
▁леш	-2697
▁узуп	-2698
▁зит	-2699
▁ник	-2700
▁оптор	-2701
▁Ком	-2702
▁гре	-2703
▁ерден	-2704
▁датта	-2705
▁чыгыш	-2706
▁оли	-2707
ея	-2708
рө	-2709
▁чөйрө	-2710
▁вал	-2711
▁ият	-2712
▁буйру	-2713
▁сөөгү	-2714
▁абы	-2715
▁енин	-2716
▁убан	-2717
▁жашап	-2718
▁пал	-2719
▁айдан	-2720
▁алгыз	-2721
▁оомчу	-2722
▁чыр	-2723
▁Расми	-2724
▁бажы	-2725
▁Өткөн	-2726
▁Арм	-2727
▁кун	-2728
▁оюз	-2729
▁рем	-2730
▁смо	-2731
▁нстан	-2732
▁камс	-2733
▁ыздоо	-2734
▁олот	-2735
▁нция	-2736
▁тере	-2737
▁ерект	-2738
▁УУ	-2739
▁рый	-2740
▁үнөн	-2741
▁кыркы	-2742
иг	-2743
▁Өл	-2744
ого	-2745
▁18	-2746
▁оюнд	-2747
▁мөн	-2748
▁анан	-2749
▁егия	-2750
▁өгөт	-2751
▁ве	-2752
▁күл	-2753
▁атка	-2754
▁гресс	-2755
▁ркек	-2756
▁жакка	-2757
▁оч	-2758
▁аммит	-2759
▁едера	-2760
▁Көп	-2761
▁пози	-2762
▁чыга	-2763
▁өрүн	-2764
▁төө	-2765
▁турак	-2766
▁олку	-2767
▁лимпи	-2768
вок	-2769
▁айта	-2770
▁рыйба	-2771
▁төгөн	-2772
▁сегиз	-2773
▁тууга	-2774
▁ароо	-2775
▁баруу	-2776
▁башал	-2777
▁иңде	-2778
▁аэ	-2779
▁кл	-2780
▁сен	-2781
▁ийгиз	-2782
▁лөрдү	-2783
▁сум	-2784
▁тып	-2785
▁эсе	-2786
▁олтур	-2787
чар	-2788
▁тара	-2789
▁Ислам	-2790
▁карыз	-2791
▁утбол	-2792
▁бөлүш	-2793
▁кытай	-2794
▁ъект	-2795
▁Жалпы	-2796
▁енчик	-2797
▁Кош	-2798
▁лет	-2799
▁сел	-2800
▁Башка	-2801
▁Корея	-2802
▁Шайло	-2803
▁ризис	-2804
▁жанд	-2805
▁ыкма	-2806
▁ани	-2807
▁гра	-2808
▁оль	-2809
▁ения	-2810
▁ткан	-2811
▁/	-2812
маты	-2813
▁эрки	-2814
▁өтпө	-2815
▁асына	-2816
▁лматы	-2817
▁мбиде	-2818
▁ный	-2819
▁ктор	-2820
▁олжо	-2821
▁ошон	-2822
▁ыраа	-2823
▁огулт	-2824
▁таап	-2825
▁Му	-2826
▁аст	-2827
▁шар	-2828
▁убак	-2829
▁үнчө	-2830
▁аттам	-2831
▁Коо	-2832
▁фонд	-2833
▁ью	-2834
▁үмү	-2835
▁чыкпа	-2836
▁R	-2837
▁оңдо	-2838
▁начар	-2839
▁чечүү	-2840
▁адвок	-2841
▁оокер	-2842
▁ласс	-2843
▁лыгы	-2844
дүү	-2845
▁нуп	-2846
▁B	-2847
▁калыб	-2848
▁кете	-2849
▁оолу	-2850
▁ыгыш	-2851
▁Өлкө	-2852
ЭБ	-2853
нун	-2854
▁мага	-2855
▁үрөт	-2856
▁оңку	-2857
▁акты	-2858
▁УУнун	-2859
▁вод	-2860
▁На	-2861
▁катто	-2862
▁ыймыл	-2863
▁еми	-2864
▁улу	-2865
▁кеми	-2866
▁узул	-2867
▁жүк	-2868
▁мер	-2869
▁чилиг	-2870
▁енс	-2871
▁кил	-2872
▁алса	-2873
▁ишине	-2874
▁агым	-2875
▁атор	-2876
▁күнгө	-2877
▁ажы	-2878
▁арам	-2879
▁убат	-2880
▁ста	-2881
▁туруу	-2882
▁иж	-2883
АТ	-2884
▁орма	-2885
▁иштүү	-2886
иза	-2887
▁жу	-2888
үшү	-2889
▁ыма	-2890
▁ашыг	-2891
▁андат	-2892
▁күр	-2893
▁17	-2894
▁түштү	-2895
▁иккен	-2896
▁ээк	-2897
▁туул	-2898
▁уулук	-2899
▁үлгөн	-2900
▁нтер	-2901
▁уккан	-2902
▁гүн	-2903
▁згө	-2904
▁лыг	-2905
▁укта	-2906
▁унай	-2907
▁До	-2908
▁умш	-2909
▁алга	-2910
▁салык	-2911
▁кириш	-2912
▁көнүн	-2913
▁нуш	-2914
▁баева	-2915
▁далил	-2916
тт	-2917
▁ion	-2918
▁гум	-2919
▁стат	-2920
▁Жак	-2921
▁сам	-2922
▁күчт	-2923
пс	-2924
▁атып	-2925
▁рл	-2926
▁рдо	-2927
▁азия	-2928
▁арык	-2929
▁тте	-2930
▁Кем	-2931
▁Муну	-2932
▁адан	-2933
▁Коопс	-2934
▁илери	-2935
▁мей	-2936
▁рас	-2937
▁шунд	-2938
АС	-2939
▁октом	-2940
▁Я	-2941
▁мар	-2942
▁түй	-2943
▁ңиз	-2944
▁уусу	-2945
▁ынга	-2946
▁арлык	-2947
▁ганы	-2948
▁жаны	-2949
▁раак	-2950
▁техни	-2951
▁дыгын	-2952
▁они	-2953
▁алым	-2954
▁таан	-2955
▁пор	-2956
▁чечил	-2957
▁анча	-2958
▁чынд	-2959
▁ыны	-2960
▁ларга	-2961
▁арат	-2962
▁инче	-2963
▁одон	-2964
▁Сооро	-2965
▁анция	-2966
▁рол	-2967
▁инте	-2968
▁лду	-2969
▁еме	-2970
▁ууг	-2971
▁ланга	-2972
▁рүүдө	-2973
ge	-2974
▁түлү	-2975
▁араш	-2976
▁ашкан	-2977
▁октот	-2978
▁ехно	-2979
▁абд	-2980
▁нар	-2981
▁убай	-2982
▁тация	-2983
▁үркмө	-2984
▁мол	-2985
▁атуу	-2986
▁ышына	-2987
▁рей	-2988
▁оско	-2989
▁скар	-2990
▁Жакын	-2991
▁фонду	-2992
▁орг	-2993
▁нттер	-2994
▁фер	-2995
▁дөө	-2996
▁жүрүш	-2997
▁андаш	-2998
▁жуг	-2999
▁еңиз	-3000
▁ндон	-3001
▁үрүшү	-3002
▁жам	-3003
▁арку	-3004
▁утка	-3005
▁тыкта	-3006
▁40	-3007
▁Ад	-3008
▁ыздар	-3009
▁мы	-3010
▁сепет	-3011
▁гран	-3012
▁улма	-3013
▁андыр	-3014
▁акын	-3015
▁ийги	-3016
▁үтү	-3017
бей	-3018
▁бат	-3019
▁атты	-3020
▁как	-3021
▁згөчө	-3022
▁гыл	-3023
▁убуз	-3024
▁лгөн	-3025
▁улут	-3026
▁сүндө	-3027
▁уунун	-3028
▁нф	-3029
▁күчө	-3030
▁илими	-3031
▁район	-3032
▁скерт	-3033
▁изде	-3034
▁штар	-3035
▁улду	-3036
▁оочу	-3037
▁олугу	-3038
▁аласы	-3039
▁иян	-3040
▁оога	-3041
▁сези	-3042
▁иде	-3043
▁ожо	-3044
▁шуу	-3045
▁позиц	-3046
▁дөгөн	-3047
▁пс	-3048
▁еги	-3049
▁кмат	-3050
▁ника	-3051
▁аттоо	-3052
▁екция	-3053
▁руз	-3054
▁кула	-3055
АТО	-3056
▁аап	-3057
▁арлам	-3058
▁кация	-3059
▁алаб	-3060
▁акан	-3061
▁НАТО	-3062
▁артип	-3063
▁ерт	-3064
▁ализ	-3065
▁чыгуу	-3066
▁ноо	-3067
▁диа	-3068
▁асын	-3069
му	-3070
▁зо	-3071
▁ави	-3072
▁агытт	-3073
▁ектеш	-3074
▁раф	-3075
▁анов	-3076
▁кени	-3077
▁утуу	-3078
▁ед	-3079
▁нго	-3080
▁тос	-3081
▁айга	-3082
▁салды	-3083
▁G	-3084
▁өбүз	-3085
иси	-3086
▁каш	-3087
▁илип	-3088
▁нден	-3089
▁үүсү	-3090
▁аша	-3091
▁зал	-3092
▁ктуу	-3093
▁онат	-3094
▁жатыш	-3095
КУ	-3096
▁Кур	-3097
пе	-3098
▁айыр	-3099
▁гөнү	-3100
▁өлүп	-3101
▁Ок	-3102
▁лам	-3103
▁аттан	-3104
▁теш	-3105
▁ерге	-3106
▁алабы	-3107
▁иби	-3108
▁укукт	-3109
▁пт	-3110
▁Абду	-3111
▁пасы	-3112
▁ене	-3113
▁жап	-3114
▁урул	-3115
▁еев	-3116
▁мын	-3117
▁үкт	-3118
▁елип	-3119
▁иден	-3120
▁акала	-3121
▁яр	-3122
▁сың	-3123
▁рманд	-3124
▁Бал	-3125
▁ткен	-3126
▁үрө	-3127
▁екше	-3128
▁кага	-3129
▁пара	-3130
▁артуу	-3131
▁келүү	-3132
▁тти	-3133
▁нц	-3134
▁асым	-3135
▁оого	-3136
▁Али	-3137
▁вок	-3138
▁тат	-3139
ЭС	-3140
▁M	-3141
▁апты	-3142
▁урна	-3143
▁жарак	-3144
▁талга	-3145
▁терде	-3146
мы	-3147
▁лө	-3148
▁дашуу	-3149
▁бизде	-3150
▁аалым	-3151
▁рыг	-3152
▁ашты	-3153
▁Бо	-3154
▁десе	-3155
▁тийиш	-3156
▁арыя	-3157
▁реги	-3158
▁ооз	-3159
▁ото	-3160
▁шат	-3161
▁окту	-3162
▁өтүү	-3163
▁бес	-3164
▁бия	-3165
▁Ток	-3166
▁сүнө	-3167
▁умуш	-3168
▁исти	-3169
▁луна	-3170
▁Ас	-3171
▁мне	-3172
▁ачуу	-3173
пай	-3174
▁ыды	-3175
▁арына	-3176
▁лт	-3177
▁дап	-3178
▁лю	-3179
▁Анд	-3180
▁ерв	-3181
▁оргоо	-3182
▁ести	-3183
▁сттер	-3184
▁карт	-3185
▁мдөө	-3186
▁гек	-3187
▁ута	-3188
▁ортто	-3189
▁лөө	-3190
▁ткар	-3191
▁аку	-3192
▁лын	-3193
▁тей	-3194
▁арбы	-3195
▁дукт	-3196
▁дарын	-3197
▁ттар	-3198
▁атар	-3199
▁йлөр	-3200
▁ферен	-3201
▁ca	-3202
▁Түр	-3203
▁үйө	-3204
▁ашыл	-3205
▁Жап	-3206
▁За	-3207
▁руг	-3208
▁сла	-3209
▁ыка	-3210
▁күчү	-3211
▁рга	-3212
▁мени	-3213
▁айтуу	-3214
▁грант	-3215
▁вокат	-3216
▁рыгер	-3217
▁страт	-3218
▁зан	-3219
▁оптуу	-3220
АМ	-3221
▁апа	-3222
▁жөнө	-3223
▁азасы	-3224
▁ттери	-3225
▁Лу	-3226
▁але	-3227
▁көй	-3228
▁илет	-3229
▁корку	-3230
ну	-3231
▁P	-3232
▁ендер	-3233
▁оло	-3234
▁оолор	-3235
▁эг	-3236
▁айын	-3237
▁рлер	-3238
▁ылдар	-3239
▁сим	-3240
▁Ми	-3241
▁дум	-3242
▁уран	-3243
СС	-3244
▁руу	-3245
▁мака	-3246
▁F	-3247
▁йыл	-3248
▁амб	-3249
▁удай	-3250
▁атыр	-3251
▁чыны	-3252
▁жашыр	-3253
▁ркинд	-3254
▁ож	-3255
▁дис	-3256
▁нба	-3257
▁раб	-3258
▁ыйы	-3259
▁арта	-3260
▁арты	-3261
▁ац	-3262
▁агына	-3263
▁мекен	-3264
▁a	-3265
▁Мам	-3266
▁гыла	-3267
АМАС	-3268
▁ХАМАС	-3269
▁Ру	-3270
▁боо	-3271
▁ичи	-3272
▁Түрк	-3273
▁кирүү	-3274
▁хн	-3275
▁Й	-3276
▁өлг	-3277
▁хника	-3278
▁алиб	-3279
▁еврал	-3280
▁келеч	-3281
▁өнгө	-3282
▁19	-3283
▁рий	-3284
▁ичине	-3285
▁еч	-3286
▁кр	-3287
▁рег	-3288
▁ыбек	-3289
▁Тоо	-3290
▁абык	-3291
▁мон	-3292
▁егизи	-3293
▁екени	-3294
▁ону	-3295
▁фил	-3296
▁кети	-3297
хан	-3298
▁окум	-3299
▁артыш	-3300
▁алышы	-3301
▁урт	-3302
▁аров	-3303
▁арым	-3304
▁Иш	-3305
▁ныш	-3306
▁улат	-3307
▁андуу	-3308
▁ынган	-3309
▁улаг	-3310
▁лөрдө	-3311
▁атат	-3312
▁жин	-3313
▁мел	-3314
▁тип	-3315
▁чеги	-3316
▁ондук	-3317
лү	-3318
▁аф	-3319
▁таанд	-3320
▁анган	-3321
▁рс	-3322
▁аткы	-3323
▁анып	-3324
▁демил	-3325
▁көргө	-3326
бе	-3327
▁лин	-3328
▁ория	-3329
▁олдук	-3330
▁апар	-3331
▁төрүн	-3332
▁ашк	-3333
▁факт	-3334
▁көйгө	-3335
at	-3336
▁гыс	-3337
▁юму	-3338
▁екке	-3339
▁ртуу	-3340
▁ырма	-3341
▁армоо	-3342
▁k	-3343
стр	-3344
▁адани	-3345
mage	-3346
▁юри	-3347
▁Image	-3348
▁курам	-3349
▁тоочу	-3350
▁ля	-3351
▁мыл	-3352
▁уудан	-3353
▁маз	-3354
▁арака	-3355
▁дүүлү	-3356
▁рист	-3357
▁уруу	-3358
▁бал	-3359
▁виру	-3360
▁элди	-3361
▁ирд	-3362
▁мыр	-3363
▁тады	-3364
▁улуп	-3365
▁ё	-3366
▁ыд	-3367
▁60	-3368
▁тег	-3369
▁ымды	-3370
▁үлдү	-3371
▁фе	-3372
▁аяк	-3373
▁көзү	-3374
▁көрө	-3375
▁эпи	-3376
▁иринч	-3377
▁Дон	-3378
▁ария	-3379
▁ияны	-3380
▁тури	-3381
▁атасы	-3382
▁көрдү	-3383
▁малуу	-3384
▁Жан	-3385
▁ивдүү	-3386
▁ануу	-3387
▁ынып	-3388
▁стук	-3389
▁үтүн	-3390
▁төгү	-3391
▁издөө	-3392
▁олдон	-3393
▁уң	-3394
▁шу	-3395
▁дим	-3396
▁лле	-3397
▁спи	-3398
▁ңкы	-3399
▁лукта	-3400
▁тайын	-3401
▁ктар	-3402
▁ресс	-3403
▁синде	-3404
▁ют	-3405
▁Кар	-3406
▁нск	-3407
▁22	-3408
▁КМ	-3409
▁эси	-3410
▁тогу	-3411
ra	-3412
▁Жер	-3413
▁егер	-3414
▁луг	-3415
▁оңо	-3416
▁көрүн	-3417
▁гун	-3418
▁кук	-3419
▁атта	-3420
▁лиц	-3421
▁шкер	-3422
▁24	-3423
▁кас	-3424
▁геси	-3425
▁бл	-3426
▁хан	-3427
▁абия	-3428
▁алам	-3429
▁лтын	-3430
▁нстр	-3431
ви	-3432
▁200	-3433
▁H	-3434
▁демо	-3435
▁нип	-3436
▁корк	-3437
ман	-3438
▁лаг	-3439
▁ешет	-3440
▁Тил	-3441
▁рды	-3442
▁виза	-3443
▁Ую	-3444
▁кч	-3445
▁дос	-3446
▁эксп	-3447
▁нек	-3448
▁лекс	-3449
▁онал	-3450
▁нүп	-3451
▁W	-3452
▁аралы	-3453
▁пө	-3454
▁үмд	-3455
▁айр	-3456
▁лорду	-3457
▁мба	-3458
▁ыгым	-3459
▁уун	-3460
▁тууну	-3461
▁гыр	-3462
▁өбө	-3463
▁олду	-3464
▁еррор	-3465
▁баг	-3466
▁араба	-3467
▁такта	-3468
▁кынд	-3469
▁ылкы	-3470
▁өктү	-3471
▁көө	-3472
▁ерал	-3473
▁еске	-3474
▁сиң	-3475
▁улак	-3476
▁чилер	-3477
▁деми	-3478
▁мине	-3479
▁тург	-3480
▁ио	-3481
▁мылы	-3482
▁бызды	-3483
▁лат	-3484
▁айге	-3485
▁80	-3486
▁үң	-3487
▁вер	-3488
▁ерн	-3489
▁атын	-3490
▁алгач	-3491
▁колун	-3492
▁Z	-3493
▁ңг	-3494
▁ришти	-3495
▁илин	-3496
▁тема	-3497
▁руучу	-3498
УУ	-3499
▁опс	-3500
▁дыры	-3501
▁өтүн	-3502
▁өлгөн	-3503
▁лег	-3504
▁үндө	-3505
▁айра	-3506
▁дыкка	-3507
▁бра	-3508
▁пүр	-3509
▁шып	-3510
▁арыг	-3511
▁колу	-3512
▁караб	-3513
▁опсуз	-3514
en	-3515
▁нансы	-3516
▁уну	-3517
▁ттен	-3518
▁БУУ	-3519
▁рым	-3520
▁сып	-3521
▁тори	-3522
▁тинин	-3523
▁жого	-3524
▁мэр	-3525
▁шан	-3526
▁етк	-3527
▁терг	-3528
▁аск	-3529
▁рис	-3530
▁21	-3531
▁дүгү	-3532
▁коро	-3533
▁өчүр	-3534
▁алары	-3535
▁°	-3536
▁шка	-3537
▁өрө	-3538
▁маши	-3539
▁дил	-3540
▁елг	-3541
▁кире	-3542
es	-3543
pt	-3544
ККУ	-3545
▁шү	-3546
▁ишет	-3547
▁нууга	-3548
▁Эр	-3549
▁юн	-3550
▁хе	-3551
▁ера	-3552
▁кад	-3553
▁ттү	-3554
▁елег	-3555
▁ташта	-3556
▁сар	-3557
▁акыт	-3558
▁ирге	-3559
▁лышы	-3560
▁еткир	-3561
▁тыкты	-3562
▁пон	-3563
▁асма	-3564
▁ши	-3565
▁артка	-3566
▁Ре	-3567
▁capt	-3568
▁кило	-3569
▁нь	-3570
▁анг	-3571
▁был	-3572
▁кыла	-3573
▁гул	-3574
▁алба	-3575
▁рика	-3576
бү	-3577
▁70	-3578
▁елек	-3579
▁той	-3580
▁чөл	-3581
▁жүрө	-3582
▁t	-3583
▁ГЭС	-3584
▁сым	-3585
▁ачып	-3586
▁ысым	-3587
▁рында	-3588
▁бан	-3589
▁йбыз	-3590
▁ыйка	-3591
▁Каб	-3592
▁имп	-3593
▁штыр	-3594
▁шуна	-3595
▁аштыр	-3596
▁дус	-3597
▁наб	-3598
▁нка	-3599
▁урма	-3600
▁ыган	-3601
▁L	-3602
▁Мас	-3603
▁амы	-3604
▁нүү	-3605
▁алап	-3606
▁K	-3607
▁сма	-3608
▁сайт	-3609
▁елбей	-3610
▁ати	-3611
▁нген	-3612
▁лерге	-3613
▁Мак	-3614
▁кыймы	-3615
▁лия	-3616
▁ттүү	-3617
▁Эң	-3618
▁рв	-3619
▁ыйлы	-3620
▁o	-3621
▁Ли	-3622
▁аңг	-3623
лга	-3624
▁ора	-3625
▁тика	-3626
дун	-3627
▁ял	-3628
▁ече	-3629
▁перат	-3630
▁алан	-3631
▁үлүш	-3632
▁ңү	-3633
▁тамб	-3634
▁ереги	-3635
ССР	-3636
▁арлар	-3637
▁ылдыг	-3638
▁пы	-3639
▁маан	-3640
▁чи	-3641
▁здө	-3642
▁ирзи	-3643
▁бирин	-3644
▁лоого	-3645
▁аи	-3646
▁айла	-3647
▁исал	-3648
▁спе	-3649
▁дерге	-3650
▁рев	-3651
▁l	-3652
▁ечи	-3653
▁нап	-3654
▁есс	-3655
▁атак	-3656
▁үктө	-3657
▁ылышы	-3658
▁27	-3659
▁нче	-3660
▁азала	-3661
▁мына	-3662
▁гүндө	-3663
▁көпчү	-3664
▁23	-3665
▁абыр	-3666
▁адим	-3667
▁ачка	-3668
▁сунун	-3669
▁35	-3670
▁лугу	-3671
▁токо	-3672
▁неси	-3673
▁уруп	-3674
▁үйдө	-3675
▁ыруун	-3676
▁жал	-3677
▁ико	-3678
▁салыш	-3679
теш	-3680
▁26	-3681
▁аков	-3682
▁пост	-3683
▁инт	-3684
▁мис	-3685
▁осу	-3686
▁атына	-3687
▁мунун	-3688
▁ЕА	-3689
▁500	-3690
▁шип	-3691
▁етер	-3692
▁уа	-3693
▁ечит	-3694
▁луучу	-3695
▁рет	-3696
▁менти	-3697
▁айд	-3698
▁нор	-3699
▁умушт	-3700
ia	-3701
▁еси	-3702
▁жүрг	-3703
▁ката	-3704
▁жы	-3705
▁Ушу	-3706
▁мдүү	-3707
▁өлүк	-3708
▁күм	-3709
▁шун	-3710
▁кылы	-3711
▁чам	-3712
▁абар	-3713
▁кырсы	-3714
▁ганд	-3715
ябр	-3716
▁коло	-3717
сын	-3718
▁налык	-3719
▁үсү	-3720
▁ашып	-3721
▁ец	-3722
▁ырып	-3723
кинч	-3724
▁Сай	-3725
▁лиев	-3726
▁Экинч	-3727
▁кус	-3728
▁ЕАЭБ	-3729
▁абат	-3730
▁илек	-3731
▁ва	-3732
▁ита	-3733
▁екет	-3734
▁иясы	-3735
▁улда	-3736
▁арман	-3737
▁кри	-3738
кту	-3739
▁лов	-3740
▁ойн	-3741
▁шыл	-3742
▁икке	-3743
▁иргел	-3744
▁тым	-3745
▁лукту	-3746
▁үдө	-3747
▁ешкен	-3748
▁башы	-3749
▁акыры	-3750
▁кция	-3751
▁90	-3752
▁ерб	-3753
▁адагы	-3754
▁ирзиё	-3755
▁СССР	-3756
▁лга	-3757
▁арад	-3758
▁уча	-3759
▁арка	-3760
▁ндер	-3761
▁ылык	-3762
▁түүгө	-3763
▁пов	-3764
▁иги	-3765
▁куя	-3766
▁наа	-3767
▁ынч	-3768
▁үрт	-3769
▁етип	-3770
▁ынды	-3771
ула	-3772
▁Уюм	-3773
▁лорго	-3774
▁раган	-3775
▁сунан	-3776
▁пат	-3777
▁рон	-3778
▁ыгып	-3779
▁дыруу	-3780
▁иктин	-3781
▁Фи	-3782
▁оно	-3783
▁өлөм	-3784
▁арш	-3785
▁отч	-3786
▁чат	-3787
▁жете	-3788
▁арызд	-3789
▁D	-3790
▁асты	-3791
▁урат	-3792
▁мор	-3793
▁алп	-3794
▁арда	-3795
▁Пар	-3796
▁дур	-3797
▁йым	-3798
▁дика	-3799
▁рте	-3800
▁тили	-3801
▁ета	-3802
▁оюу	-3803
▁өзд	-3804
▁өлө	-3805
▁нтип	-3806
▁анада	-3807
ябрь	-3808
▁гуна	-3809
▁тябрь	-3810
▁жаң	-3811
▁e	-3812
▁ылт	-3813
▁ахм	-3814
▁улов	-3815
▁лбо	-3816
▁мит	-3817
▁куба	-3818
▁ылат	-3819
▁Сул	-3820
▁уру	-3821
▁база	-3822
▁кере	-3823
▁ыздын	-3824
▁оф	-3825
▁Сар	-3826
▁енди	-3827
▁муна	-3828
▁лиз	-3829
▁суп	-3830
▁инци	-3831
▁ндөй	-3832
▁рыла	-3833
▁аттын	-3834
▁Ne	-3835
▁идео	-3836
▁үлөт	-3837
▁28	-3838
▁Ким	-3839
▁еним	-3840
▁лдык	-3841
▁ид	-3842
▁риг	-3843
▁барды	-3844
▁Жу	-3845
▁ритан	-3846
▁ылына	-3847
▁g	-3848
▁зе	-3849
▁оюл	-3850
▁ауд	-3851
▁ити	-3852
▁рим	-3853
▁рмат	-3854
▁нуучу	-3855
во	-3856
▁нкт	-3857
▁нчө	-3858
▁уган	-3859
▁артык	-3860
▁тынан	-3861
▁геле	-3862
▁гөндө	-3863
▁ыртка	-3864
▁ух	-3865
▁аңд	-3866
▁ини	-3867
▁узга	-3868
▁бад	-3869
▁ерек	-3870
▁окат	-3871
▁алилд	-3872
▁аала	-3873
▁ирөө	-3874
▁коопт	-3875
▁ушкан	-3876
▁лоб	-3877
▁рах	-3878
▁алай	-3879
▁урду	-3880
▁ыя	-3881
▁ашы	-3882
▁реп	-3883
▁шүү	-3884
▁лдик	-3885
▁катчы	-3886
▁рге	-3887
▁урн	-3888
▁уя	-3889
▁кка	-3890
▁роз	-3891
in	-3892
сүн	-3893
▁утт	-3894
ве	-3895
▁ордо	-3896
▁лынын	-3897
▁Кан	-3898
▁усу	-3899
▁едиа	-3900
▁өрүл	-3901
▁Жол	-3902
▁чен	-3903
▁урасы	-3904
▁вс	-3905
▁ель	-3906
▁улд	-3907
▁өра	-3908
▁угуп	-3909
oo	-3910
▁зак	-3911
▁стана	-3912
▁опа	-3913
▁фт	-3914
▁бөйт	-3915
▁ердик	-3916
▁Дем	-3917
▁рап	-3918
▁амал	-3919
▁жо	-3920
▁льт	-3921
▁нти	-3922
▁мдун	-3923
▁дөп	-3924
▁зин	-3925
▁овду	-3926
▁жатты	-3927
▁үшкөн	-3928
▁өрага	-3929
ху	-3930
ut	-3931
▁йман	-3932
▁ртыл	-3933
▁рто	-3934
▁кла	-3935
▁елет	-3936
▁ырга	-3937
▁чүлөр	-3938
he	-3939
▁Иса	-3940
▁бакт	-3941
▁кылыш	-3942
▁er	-3943
▁кти	-3944
▁кыш	-3945
▁дугу	-3946
▁елги	-3947
▁онго	-3948
▁таты	-3949
▁ышын	-3950
▁штары	-3951
▁рчу	-3952
▁урда	-3953
▁Сам	-3954
▁коо	-3955
▁мгек	-3956
▁карыл	-3957
▁ров	-3958
▁ентяб	-3959
▁иктен	-3960
▁рк	-3961
▁ье	-3962
▁рбек	-3963
▁реа	-3964
▁тту	-3965
▁үйөө	-3966
▁үрдү	-3967
▁өөнү	-3968
▁вка	-3969
▁гени	-3970
▁үнүп	-3971
▁алдан	-3972
▁45	-3973
▁тро	-3974
▁имдик	-3975
▁шам	-3976
▁кташ	-3977
▁ндан	-3978
▁уста	-3979
▁рация	-3980
▁ымдар	-3981
▁ава	-3982
▁ейи	-3983
▁уюш	-3984
▁агып	-3985
▁көнү	-3986
▁Кыз	-3987
▁лаб	-3988
▁сер	-3989
▁иров	-3990
▁шунда	-3991
эл	-3992
▁m	-3993
▁Ге	-3994
▁илдик	-3995
▁це	-3996
▁300	-3997
▁мдө	-3998
▁жашы	-3999
▁калд	-4000
▁ндай	-4001
▁овго	-4002
▁арызы	-4003
▁дарга	-4004
Ko	-4005
▁ZKo	-4006
▁зун	-4007
▁үшүнө	-4008
▁нду	-4009
▁ним	-4010
▁екети	-4011
▁Ви	-4012
▁Тала	-4013
▁ардар	-4014
▁жайын	-4015
▁лууда	-4016
▁төрдү	-4017
ou	-4018
▁уруш	-4019
▁E	-4020
▁км	-4021
▁зим	-4022
▁өгө	-4023
▁утуп	-4024
▁лип	-4025
▁гиз	-4026
▁ева	-4027
▁аса	-4028
▁поз	-4029
▁лдуу	-4030
▁бю	-4031
▁хи	-4032
▁гай	-4033
▁ыры	-4034
▁ыша	-4035
▁акай	-4036
▁тунд	-4037
▁урас	-4038
▁андар	-4039
▁ато	-4040
▁ерм	-4041
▁кча	-4042
▁ыно	-4043
▁берки	-4044
▁Жон	-4045
▁арь	-4046
▁еде	-4047
▁тилин	-4048
▁ЖЭБ	-4049
▁скө	-4050
▁36	-4051
▁аде	-4052
▁акс	-4053
▁инал	-4054
▁пөй	-4055
▁ука	-4056
▁ЖККУ	-4057
▁дайын	-4058
▁33	-4059
▁Үч	-4060
▁вет	-4061
▁анде	-4062
▁ранда	-4063
▁тет	-4064
▁байла	-4065
▁d	-4066
▁кг	-4067
▁анти	-4068
▁рит	-4069
▁лдер	-4070
▁ттык	-4071
▁аштык	-4072
▁лис	-4073
▁ртүү	-4074
▁ылбай	-4075
▁O	-4076
▁Эм	-4077
▁фа	-4078
▁лкө	-4079
▁ирди	-4080
▁инанс	-4081
▁рд	-4082
▁ейм	-4083
▁нам	-4084
▁рчы	-4085
▁екте	-4086
▁Сиз	-4087
▁шил	-4088
▁енция	-4089
▁b	-4090
▁оби	-4091
▁вари	-4092
▁дөрүн	-4093
▁уттук	-4094
▁X	-4095
▁еби	-4096
▁ккан	-4097
▁уй	-4098
▁сто	-4099
▁ашына	-4100
▁уулан	-4101
▁алия	-4102
▁рдын	-4103
▁акал	-4104
▁тапт	-4105
▁тект	-4106
▁йка	-4107
▁тим	-4108
▁ндүр	-4109
▁32	-4110
ылмы	-4111
▁кты	-4112
▁лым	-4113
▁каба	-4114
▁Кылмы	-4115
▁норма	-4116
▁сей	-4117
▁ясы	-4118
▁аард	-4119
▁күрө	-4120
▁орук	-4121
or	-4122
▁йле	-4123
▁кчил	-4124
ед	-4125
ону	-4126
▁сти	-4127
▁тиш	-4128
▁нис	-4129
▁иева	-4130
▁көмү	-4131
▁ликт	-4132
▁үрүл	-4133
▁өөдө	-4134
▁In	-4135
▁сон	-4136
▁баал	-4137
▁ипло	-4138
▁имдер	-4139
▁иясын	-4140
▁1,5	-4141
▁аам	-4142
▁нбек	-4143
▁ынчы	-4144
▁зү	-4145
▁орон	-4146
▁айдын	-4147
▁стиц	-4148
▁ушту	-4149
▁атив	-4150
▁нышы	-4151
▁аланы	-4152
▁манов	-4153
▁улушу	-4154
▁ебе	-4155
▁лди	-4156
▁абыл	-4157
▁енде	-4158
▁лыгын	-4159
▁Ку	-4160
▁рид	-4161
▁кыйк	-4162
▁талат	-4163
ce	-4164
▁мда	-4165
▁етин	-4166
▁илиш	-4167
▁берб	-4168
▁енен	-4169
▁манк	-4170
▁зд	-4171
▁Мир	-4172
▁кей	-4173
▁куб	-4174
▁лав	-4175
▁улга	-4176
▁автор	-4177
▁одекс	-4178
▁чаб	-4179
▁етет	-4180
▁ктеш	-4181
▁теби	-4182
▁тыгын	-4183
ха	-4184
▁мды	-4185
▁төт	-4186
▁өгү	-4187
▁беке	-4188
▁стика	-4189
▁үүсүн	-4190
▁жд	-4191
▁лиш	-4192
▁акта	-4193
▁шону	-4194
▁елгил	-4195
▁ате	-4196
▁ост	-4197
▁рул	-4198
▁Каза	-4199
▁ойго	-4200
▁Го	-4201
сун	-4202
▁йн	-4203
▁үндөр	-4204
▁Эч	-4205
▁емо	-4206
▁уст	-4207
▁кады	-4208
▁оодо	-4209
▁социа	-4210
ov	-4211
▁75	-4212
▁птө	-4213
▁ткы	-4214
▁ууп	-4215
▁ериле	-4216
▁kg	-4217
▁Кээ	-4218
▁кут	-4219
▁ндын	-4220
▁табы	-4221
▁тист	-4222
▁ква	-4223
▁оба	-4224
▁жашта	-4225
▁сөзүн	-4226
▁нс	-4227
▁огу	-4228
▁чан	-4229
▁Жам	-4230
▁коё	-4231
▁ном	-4232
▁ышт	-4233
▁кчы	-4234
▁рен	-4235
▁гиле	-4236
▁танды	-4237
▁айк	-4238
▁аныб	-4239
▁били	-4240
▁үд	-4241
▁омдо	-4242
▁аатта	-4243
▁абай	-4244
▁аркы	-4245
▁тала	-4246
▁ектүү	-4247
▁отчет	-4248
▁йг	-4249
▁рч	-4250
▁арб	-4251
▁тка	-4252
▁ште	-4253
▁өнүк	-4254
▁V	-4255
нев	-4256
▁Te	-4257
▁кысы	-4258
le	-4259
▁29	-4260
▁янс	-4261
▁арлы	-4262
▁туру	-4263
▁Re	-4264
▁инд	-4265
▁ууд	-4266
▁онуу	-4267
▁режи	-4268
▁этно	-4269
▁өктөш	-4270
ина	-4271
▁31	-4272
▁34	-4273
▁ека	-4274
▁кармо	-4275
▁мелер	-4276
▁тышуу	-4277
зы	-4278
▁ице	-4279
▁ума	-4280
▁ирүү	-4281
▁капи	-4282
▁лдин	-4283
▁1,	-4284
▁мп	-4285
▁арс	-4286
▁око	-4287
▁алил	-4288
▁чекте	-4289
▁урак	-4290
ta	-4291
▁орк	-4292
▁ынты	-4293
▁өндө	-4294
▁макта	-4295
▁ео	-4296
▁анс	-4297
▁бий	-4298
▁ракт	-4299
▁лыкка	-4300
▁зч	-4301
невм	-4302
▁вич	-4303
▁өзгө	-4304
▁ое	-4305
▁New	-4306
▁гам	-4307
▁року	-4308
▁чиси	-4309
▁урган	-4310
ch	-4311
▁Y	-4312
▁аныш	-4313
▁иреш	-4314
▁мдын	-4315
▁ранс	-4316
▁u	-4317
▁48	-4318
▁ени	-4319
▁ндү	-4320
▁аада	-4321
▁рдин	-4322
▁сыйл	-4323
▁ордун	-4324
▁уусун	-4325
▁Май	-4326
▁ыргы	-4327
▁рал	-4328
▁логи	-4329
▁поли	-4330
▁алмак	-4331
ДП	-4332
▁44	-4333
▁уга	-4334
▁екст	-4335
▁здын	-4336
▁крим	-4337
▁ндык	-4338
▁экинч	-4339
▁йд	-4340
▁Фин	-4341
▁енг	-4342
▁зиз	-4343
▁онд	-4344
▁эмге	-4345
▁оциал	-4346
▁агын	-4347
▁тыны	-4348
▁дилет	-4349
▁рмасы	-4350
▁нч	-4351
▁150	-4352
▁былга	-4353
▁ng	-4354
▁иф	-4355
▁хм	-4356
аси	-4357
▁чки	-4358
▁айык	-4359
▁арап	-4360
▁атам	-4361
▁гиси	-4362
▁наны	-4363
▁лугун	-4364
▁түндү	-4365
▁йс	-4366
▁сыл	-4367
▁лү	-4368
▁бут	-4369
▁гуу	-4370
▁яна	-4371
▁иктер	-4372
▁кту	-4373
▁лгө	-4374
▁рде	-4375
▁тра	-4376
▁үштү	-4377
▁нбаев	-4378
▁аягы	-4379
▁38	-4380
▁От	-4381
▁Бак	-4382
▁лда	-4383
▁дери	-4384
▁майы	-4385
▁стор	-4386
▁дерин	-4387
▁ИМ	-4388
▁шаш	-4389
▁аржы	-4390
▁боор	-4391
▁Тай	-4392
▁ойдо	-4393
▁парк	-4394
▁ектор	-4395
▁лот	-4396
▁стө	-4397
▁ймак	-4398
▁кинд	-4399
▁нуна	-4400
▁рман	-4401
al	-4402
▁үг	-4403
▁кым	-4404
▁овдун	-4405
▁тырып	-4406
▁КМШ	-4407
▁айсы	-4408
▁лкөдө	-4409
▁лөрүн	-4410
▁өрүнө	-4411
▁йин	-4412
▁олиц	-4413
▁слав	-4414
▁тайт	-4415
▁аалар	-4416
▁700	-4417
▁мам	-4418
▁мчу	-4419
▁онг	-4420
▁алиц	-4421
▁рлары	-4422
▁55	-4423
▁лм	-4424
▁пин	-4425
▁үчө	-4426
▁аяна	-4427
▁ктив	-4428
▁гонун	-4429
▁дорду	-4430
ад	-4431
оз	-4432
ияз	-4433
она	-4434
▁Су	-4435
▁осо	-4436
▁пет	-4437
▁акто	-4438
▁атке	-4439
▁рлар	-4440
▁башын	-4441
▁олору	-4442
▁пневм	-4443
ийи	-4444
▁ңд	-4445
▁онт	-4446
▁тинг	-4447
▁шамал	-4448
▁аил	-4449
▁ырд	-4450
▁гына	-4451
▁мдуу	-4452
▁Те	-4453
▁дың	-4454
▁үзө	-4455
▁оода	-4456
▁өрүш	-4457
▁айс	-4458
▁жыр	-4459
▁сүр	-4460
▁лдук	-4461
хта	-4462
▁65	-4463
▁дия	-4464
▁мди	-4465
▁унд	-4466
▁нгөн	-4467
▁ража	-4468
▁37	-4469
▁ят	-4470
▁лүп	-4471
▁нвар	-4472
▁рама	-4473
▁угуш	-4474
▁атпай	-4475
▁урнал	-4476
▁эн	-4477
▁арч	-4478
▁өбү	-4479
▁акул	-4480
▁кеме	-4481
▁ессия	-4482
▁ыгына	-4483
▁ете	-4484
▁менд	-4485
▁сыны	-4486
▁шташ	-4487
▁ыйла	-4488
ТР	-4489
▁нж	-4490
▁рево	-4491
▁Жыл	-4492
▁нак	-4493
▁андал	-4494
▁отург	-4495
▁очула	-4496
уб	-4497
▁U	-4498
ында	-4499
▁агыл	-4500
▁арал	-4501
▁жыйы	-4502
▁коом	-4503
▁лбоор	-4504
▁лигин	-4505
▁чакта	-4506
▁ув	-4507
▁уштуу	-4508
жи	-4509
▁пч	-4510
▁кунд	-4511
▁машы	-4512
▁тура	-4513
▁дахан	-4514
▁уюшту	-4515
▁Кал	-4516
▁Алма	-4517
▁ырка	-4518
ура	-4519
▁Чет	-4520
▁рки	-4521
▁акка	-4522
▁сузд	-4523
▁ыйна	-4524
▁даган	-4525
ах	-4526
▁41	-4527
▁тма	-4528
▁шер	-4529
▁ашат	-4530
▁плат	-4531
▁МК	-4532
▁ры	-4533
▁гүү	-4534
▁лерде	-4535
▁налда	-4536
▁эш	-4537
▁лиг	-4538
▁жайы	-4539
▁кенем	-4540
өз	-4541
▁400	-4542
▁оорон	-4543
▁түүнү	-4544
▁верд	-4545
▁үмдү	-4546
▁иплом	-4547
▁енб	-4548
▁эмд	-4549
▁анар	-4550
▁Ti	-4551
▁Чо	-4552
▁Наз	-4553
▁мов	-4554
▁ашин	-4555
▁Нияз	-4556
▁екси	-4557
▁лини	-4558
▁түшү	-4559
▁чир	-4560
▁ызы	-4561
▁акшы	-4562
▁ктан	-4563
▁расы	-4564
▁шери	-4565
▁салма	-4566
▁ченем	-4567
ард	-4568
▁ганга	-4569
Вт	-4570
▁rn	-4571
▁юу	-4572
▁араб	-4573
▁рг	-4574
▁тыя	-4575
▁айпа	-4576
▁прел	-4577
▁сизд	-4578
▁өндөр	-4579
▁42	-4580
▁масы	-4581
▁ликте	-4582
▁мекте	-4583
▁улугу	-4584
▁The	-4585
▁раш	-4586
▁Кийи	-4587
▁згөн	-4588
▁уура	-4589
▁үрүм	-4590
▁рилди	-4591
▁аак	-4592
▁йдө	-4593
▁чүн	-4594
▁үгө	-4595
▁инди	-4596
▁тыруу	-4597
▁рю	-4598
▁чуу	-4599
▁арых	-4600
▁жуму	-4601
▁ураг	-4602
▁урсу	-4603
▁генде	-4604
▁коомч	-4605
▁чүнчү	-4606
ty	-4607
▁ers	-4608
▁чур	-4609
▁үбү	-4610
▁амир	-4611
▁нес	-4612
▁род	-4613
▁шен	-4614
▁айсал	-4615
▁актоо	-4616
▁ургак	-4617
▁бло	-4618
▁мпа	-4619
▁ске	-4620
▁форм	-4621
▁ылда	-4622
▁зона	-4623
▁рдүү	-4624
▁тааси	-4625
▁Бай	-4626
▁йла	-4627
▁оне	-4628
▁рад	-4629
▁грац	-4630
▁идин	-4631
▁ринде	-4632
▁лк	-4633
▁айн	-4634
▁мдөр	-4635
▁Мында	-4636
▁айтар	-4637
▁ялдар	-4638
te	-4639
▁43	-4640
▁аби	-4641
▁окко	-4642
▁эшик	-4643
▁көрүш	-4644
▁еже	-4645
▁мөк	-4646
▁чин	-4647
▁ьер	-4648
▁сиял	-4649
▁кырыл	-4650
▁Жоо	-4651
▁рке	-4652
▁укту	-4653
▁лл	-4654
▁аим	-4655
▁ппоз	-4656
▁рамы	-4657
▁пп	-4658
▁Дал	-4659
▁рез	-4660
▁уда	-4661
▁кмөн	-4662
▁ктөр	-4663
▁39	-4664
▁жөө	-4665
▁алаш	-4666
▁амак	-4667
▁билд	-4668
▁гүнө	-4669
▁ерли	-4670
▁етүү	-4671
▁оюнч	-4672
ha	-4673
re	-4674
▁47	-4675
▁бел	-4676
▁анды	-4677
▁ешти	-4678
▁имде	-4679
▁етине	-4680
▁ача	-4681
▁ерг	-4682
▁угу	-4683
▁өңү	-4684
▁лүгүн	-4685
▁тында	-4686
▁Reut	-4687
▁көрү	-4688
▁таба	-4689
▁кесеп	-4690
▁нз	-4691
▁бун	-4692
▁лак	-4693
▁өшө	-4694
▁Токт	-4695
▁клуб	-4696
▁мдук	-4697
▁бри	-4698
▁муш	-4699
▁нко	-4700
▁бюро	-4701
▁ектел	-4702
▁ектен	-4703
▁калыш	-4704
▁иңи	-4705
▁лея	-4706
▁тпө	-4707
▁олуг	-4708
▁лыкты	-4709
▁Ил	-4710
▁Ошон	-4711
▁акси	-4712
▁аркат	-4713
▁ату	-4714
▁мду	-4715
▁мик	-4716
▁ыбы	-4717
▁ялы	-4718
▁амил	-4719
▁икте	-4720
▁птер	-4721
▁ырыл	-4722
▁үлөр	-4723
▁йк	-4724
▁Лит	-4725
▁дио	-4726
▁	-4727
а	-4728
н	-4729
к	-4730
р	-4731
т	-4732
ы	-4733
е	-4734
и	-4735
л	-4736
д	-4737
у	-4738
о	-4739
г	-4740
м	-4741
б	-4742
с	-4743
ү	-4744
ө	-4745
ш	-4746
п	-4747
й	-4748
ж	-4749
з	-4750
ч	-4751
.	-4752
,	-4753
э	-4754
я	-4755
-	-4756
в	-4757
"	-4758
А	-4759
К	-4760
Б	-4761
ң	-4762
1	-4763
ю	-4764
М	-4765
0	-4766
2	-4767
ц	-4768
С	-4769
Т	-4770
О	-4771
Ж	-4772
У	-4773
ф	-4774
Э	-4775
3	-4776
5	-4777
х	-4778
И	-4779
ь	-4780
9	-4781
4	-4782
Д	-4783
П	-4784
Ш	-4785
7	-4786
6	-4787
8	-4788
Н	-4789
:	-4790
Р	-4791
Ө	-4792
)	-4793
(	-4794
Ч	-4795
Г	-4796
?	-4797
e	-4798
В	-4799
a	-4800
Е	-4801
o	-4802
Ф	-4803
Л	-4804
Х	-4805
i	-4806
t	-4807
n	-4808
r	-4809
%	-4810
I	-4811
З	-4812
s	-4813
Ы	-4814
C	-4815
l	-4816
c	-4817
m	-4818
Ү	-4819
A	-4820
u	-4821
N	-4822
g	-4823
T	-4824
ё	-4825
V	-4826
D	-4827
!	-4828
;	-4829
O	-4830
h	-4831
p	-4832
k	-4833
S	-4834
d	-4835
Ю	-4836
R	-4837
B	-4838
P	-4839
Ц	-4840
M	-4841
y	-4842
F	-4843
K	-4844
+	-4845
ъ	-4846
/	-4847
G	-4848
b	-4849
E	-4850
v	-4851
W	-4852
Я	-4853
w	-4854
L	-4855
H	-4856
Й	-4857
z	-4858
Z	-4859
X	-4860
ӊ	-4861
°	-4862
f	-4863
U	-4864
Y	-4865
щ	-4866
ѳ	-4867
x	-4868
J	-4869
[	-4870
]	-4871
̆	-4872
­	-4873
Q	-4874
*	-4875
'	-4876
j	-4877
Ё	-4878
#	-4879
q	-4880
$	-4881
і	-4882
&	-4883
қ	-4884
ı	-4885
ɵ	-4886
\	-4887
Ѳ	-4888
І	-4889
_	-4890
Қ	-4891
@	-4892
ü	-4893
Ş	-4894
ş	-4895
Ɵ	-4896
Щ	-4897
−	-4898
ә	-4899
`	-4900
ғ	-4901
·	-4902
ا	-4903
=	-4904
ç	-4905
é	-4906
İ	-4907
⠀	-4908
️	-4909
¬	-4910
ə	-4911
ұ	-4912
•	-4913
▪	-4914
ö	-4915
ğ	-4916
Ң	-4917
©	-4918
́	-4919
ل	-4920
Ü	-4921
á	-4922
ʙ	-4923
Ь	-4924
ҳ	-4925
ق	-4926
⁄	-4927
→	-4928
昆	-4929
Ç	-4930
Ö	-4931
â	-4932
í	-4933
ï	-4934
љ	-4935
Ұ	-4936
ҷ	-4937
ӏ	-4938
Ә	-4939
ح	-4940
و	-4941
ُ	-4942
―	-4943
⁣	-4944
●	-4945
堅	-4946
鄄	-4947
韓	-4948
鬲	-4949
{	-4950
}	-4951
£	-4952
§	-4953
Ñ	-4954
ß	-4955
ã	-4956
ä	-4957
è	-4958
ñ	-4959
ā	-4960
ą	-4961
Ŋ	-4962
Š	-4963
ū	-4964
ƚ	-4965
Ƣ	-4966
ƣ	-4967
ʼ	-4968
̧	-4969
Ђ	-4970
Ъ	-4971
ђ	-4972
ї	-4973
ћ	-4974
ў	-4975
һ	-4976
ӯ	-4977
خ	-4978
د	-4979
ر	-4980
ز	-4981
ص	-4982
ط	-4983
ظ	-4984
ع	-4985
غ	-4986
ك	-4987
م	-4988
ن	-4989
ه	-4990
ي	-4991
ِ	-4992
‒	-4993
⁠	-4994
回	-4995
族	-4996
