<unk>	0
<s>	0
</s>	0
.	-3.20784
,	-3.56445
н	-4.07709
▁	-4.24691
-	-4.69245
га	-4.87165
▁"	-4.9007
"	-4.94952
▁менен	-5.03732
▁жана	-5.16039
м	-5.20573
т	-5.2279
да	-5.23569
к	-5.25606
р	-5.36166
п	-5.37189
ы	-5.38328
л	-5.43767
ка	-5.52255
▁бир	-5.63607
и	-5.6484
▁да	-5.6527
нын	-5.71792
на	-5.73477
ды	-5.75515
▁деп	-5.76911
й	-5.79228
▁эле	-5.82172
ын	-5.82597
ге	-5.83033
дан	-5.91166
▁боюнча	-5.97831
▁-	-6.00815
ди	-6.0491
а	-6.0519
с	-6.05509
гы	-6.0562
ш	-6.06686
▁ал	-6.07246
▁бул	-6.10441
▁үчүн	-6.12212
▁Ал	-6.13987
ке	-6.15026
у	-6.15642
та	-6.18692
дин	-6.18768
го	-6.19156
дын	-6.19595
▁бар	-6.22016
з	-6.23696
де	-6.25457
▁Бул	-6.29055
сы	-6.33607
ин	-6.35256
▁деген	-6.35927
▁болуп	-6.37428
:	-6.41861
лык	-6.41944
гө	-6.42971
▁жок	-6.43829
▁болгон	-6.44801
▁тууралуу	-6.46043
ты	-6.4855
▁керек	-6.49719
те	-6.54115
ду	-6.54736
▁эмес	-6.55202
▁чейин	-6.55612
дагы	-6.56387
дар	-6.56735
▁жатат	-6.56738
ат	-6.58012
ган	-6.58922
ү	-6.59406
ө	-6.60172
ма	-6.63834
е	-6.64206
▁алып	-6.64666
ң	-6.65107
тар	-6.65771
)	-6.66947
▁(	-6.67677
▁кийин	-6.67828
ти	-6.6783
ла	-6.68581
ра	-6.69894
са	-6.70159
ына	-6.7071
▁эки	-6.70915
▁же	-6.71185
▁дагы	-6.71188
д	-6.7273
▁А	-6.73343
жылы	-6.73533
ча	-6.77606
не	-6.78763
чу	-6.79544
тан	-6.79714
ов	-6.80264
туу	-6.81583
ну	-6.82625
ып	-6.83205
ны	-6.84332
▁анын	-6.84478
лар	-6.84646
▁башка	-6.84675
▁каршы	-6.8585
дө	-6.86066
▁Бирок	-6.86128
▁эл	-6.86519
▁жаткан	-6.87244
▁экенин	-6.88406
▁бери	-6.88429
▁билдирди	-6.88601
?	-6.89162
▁ар	-6.89183
",	-6.89325
▁турган	-6.89927
үн	-6.9088
▁адам	-6.91955
бек	-6.9212
ден	-6.92276
▁алган	-6.92362
б	-6.92854
о	-6.94747
▁иш	-6.95613
дун	-6.96773
өт	-6.97033
г	-6.97222
тин	-6.98158
▁көп	-6.98719
тын	-6.98805
▁а	-6.98929
ба	-6.99335
ри	-6.99548
ч	-7.00403
▁өз	-7.00513
нун	-7.00515
до	-7.00988
дык	-7.0153
▁чек	-7.02395
ында	-7.02811
▁болду	-7.03531
ту	-7.03997
▁келген	-7.04496
си	-7.04917
▁маалымат	-7.05142
инин	-7.06693
▁жыл	-7.08304
сын	-7.0833
▁жаңы	-7.08623
я	-7.09785
▁мамлекеттик	-7.09976
ман	-7.11963
ги	-7.13696
ине	-7.13755
▁болот	-7.14432
ев	-7.14568
▁эми	-7.14648
▁сөз	-7.14718
кы	-7.14939
ия	-7.14984
▁гана	-7.1522
▁ара	-7.15401
▁К	-7.15531
▁кандай	-7.15639
▁катары	-7.15734
▁аралык	-7.17489
бай	-7.1793
▁са	-7.18094
▁иштер	-7.18477
дай	-7.19146
тер	-7.20286
▁кабыл	-7.20498
▁чыккан	-7.21054
А	-7.2147
х	-7.21876
▁баш	-7.221
ю	-7.22464
инде	-7.22556
кө	-7.2275
▁байланыштуу	-7.23138
▁Ка	-7.23307
▁кыргыз	-7.23514
▁жатканын	-7.23638
дү	-7.23755
ко	-7.24069
▁айтып	-7.2435
ли	-7.24812
▁жолу	-7.25002
гу	-7.25677
ле	-7.25748
за	-7.2592
▁кол	-7.26019
▁Кыргызстандын	-7.26849
▁киши	-7.27924
▁президент	-7.29503
▁Са	-7.29832
▁аны	-7.30501
▁у	-7.30926
үп	-7.31113
нин	-7.31239
▁берген	-7.31567
ку	-7.31623
▁болсо	-7.31656
▁Кыргызстанда	-7.31945
ь	-7.32418
уп	-7.32616
▁үй	-7.33164
3	-7.33395
дик	-7.33649
7	-7.35161
▁калган	-7.35383
▁мыйзам	-7.35461
▁мүмкүн	-7.35806
су	-7.35828
2	-7.35892
1	-7.3704
▁Орусиянын	-7.37339
чү	-7.37349
нүн	-7.38271
тен	-7.38552
ор	-7.38734
▁миң	-7.38941
▁Жогорку	-7.39325
▁жол	-7.39498
ун	-7.40041
йт	-7.4052
быз	-7.40896
9	-7.41044
▁Кыргызстан	-7.41966
▁Анын	-7.42089
чы	-7.4251
ларды	-7.427
оо	-7.42882
ип	-7.43002
6	-7.4313
▁деди	-7.43227
дардын	-7.43252
▁С	-7.43256
▁чет	-7.43262
4	-7.43294
▁жардам	-7.43723
▁шайлоо	-7.43912
ни	-7.44029
8	-7.4431
▁ошол	-7.44359
ар	-7.44508
дөн	-7.44652
▁учурда	-7.44827
▁алуу	-7.44832
гөн	-7.4489
▁үч	-7.45122
▁бири	-7.45187
0	-7.46082
дер	-7.4649
би	-7.47018
▁өткөн	-7.47228
▁экен	-7.47564
▁кылмыш	-7.48026
ль	-7.4933
▁мурдагы	-7.49333
▁ылайык	-7.49363
К	-7.50096
тагы	-7.50442
▁ай	-7.50933
▁эч	-7.51667
▁кеткен	-7.5201
▁айтты	-7.52021
▁Ма	-7.52177
луу	-7.52563
ен	-7.52656
ынын	-7.52671
▁И	-7.53078
се	-7.5346
▁көз	-7.53645
нда	-7.53724
лер	-7.54219
▁орун	-7.54542
▁Жапаров	-7.54601
▁ата	-7.54723
5	-7.54768
ер	-7.5489
▁алды	-7.55238
түү	-7.55648
▁Орусия	-7.55772
сына	-7.5585
ре	-7.56319
%	-7.56639
▁суу	-7.56646
тик	-7.56725
сынын	-7.56754
▁Алар	-7.56819
э	-7.56921
▁жооп	-7.57705
▁Ба	-7.58047
▁улам	-7.5807
тык	-7.58915
▁чыгып	-7.59126
тарды	-7.60221
лардын	-7.60728
▁калды	-7.60797
▁Биз	-7.60851
▁ичинде	-7.60947
▁жай	-7.60967
ки	-7.61182
бы	-7.61503
уу	-7.62429
▁күч	-7.62478
▁кызмат	-7.62887
▁ушул	-7.6292
▁билдирген	-7.63001
▁акча	-7.63591
▁бирок	-7.638
ал	-7.63802
▁к	-7.63822
▁Та	-7.63837
▁жа	-7.64581
▁элек	-7.64673
ф	-7.65034
▁чоң	-7.6527
▁караганда	-7.65402
нү	-7.65435
▁келет	-7.65483
тү	-7.65517
▁Ош	-7.65528
▁берүү	-7.65551
жа	-7.65701
▁жакшы	-7.65891
он	-7.66225
▁ага	-7.66233
▁өзү	-7.66391
▁айткан	-7.66604
▁президенти	-7.66642
▁айыл	-7.66772
▁кайра	-7.67025
▁алар	-7.67328
▁орус	-7.67576
сыз	-7.67745
ро	-7.68145
▁О	-7.68223
па	-7.68273
▁алардын	-7.68317
▁саясий	-7.68381
▁мындай	-7.68697
▁жөнүндө	-7.68879
▁каза	-7.69198
ет	-7.69202
▁өкмөт	-7.69732
то	-7.6998
▁19	-7.70376
лоо	-7.70507
нан	-7.70623
ру	-7.71247
▁аркылуу	-7.71293
e	-7.7142
▁Жа	-7.7143
▁кара	-7.72102
ыш	-7.72112
лып	-7.72559
▁бийлик	-7.72798
▁бала	-7.72903
сында	-7.73012
лары	-7.73392
▁аз	-7.73452
лап	-7.73534
үү	-7.73586
▁турат	-7.7362
тардын	-7.73932
▁АКШ	-7.74099
жылдын	-7.74163
▁кал	-7.74341
▁баа	-7.74579
▁биринчи	-7.74869
баев	-7.75179
▁кызматы	-7.75207
▁Ко	-7.75235
▁нече	-7.75421
▁У	-7.7554
▁талап	-7.75569
▁Ай	-7.75896
▁келип	-7.76046
▁коопсуздук	-7.76217
▁Эл	-7.76375
ай	-7.7666
▁ч	-7.76734
нө	-7.77348
▁эң	-7.77679
▁расмий	-7.7773
▁күн	-7.77835
▁коргоо	-7.77865
▁Буга	-7.77952
лат	-7.78155
▁жакын	-7.78272
▁Ак	-7.78634
тун	-7.78649
ыр	-7.78717
үндө	-7.78813
▁мамлекет	-7.78858
▁коронавирус	-7.78956
▁Бишкек	-7.79094
▁биз	-7.7912
ым	-7.79121
▁Садыр	-7.79123
дук	-7.79208
ил	-7.79337
▁жер	-7.79754
▁деле	-7.79832
ло	-7.8036
үнө	-7.80715
сү	-7.81092
▁5	-7.81105
Т	-7.81189
▁күнү	-7.81367
t	-7.81414
▁кылып	-7.8151
чи	-7.81609
▁миллион	-7.81662
▁өлкө	-7.81918
▁ким	-7.82033
▁иштеп	-7.82262
в	-7.82618
▁берип	-7.82649
▁министрлиги	-7.8291
▁кылган	-7.83404
a	-7.83549
▁турганын	-7.83692
лган	-7.83726
ынан	-7.83942
▁өтө	-7.84033
▁Мен	-7.84344
▁башчысы	-7.84395
▁сот	-7.84422
дүн	-7.84467
гү	-7.84475
дон	-7.85433
биз	-7.85447
ция	-7.85757
▁баары	-7.85789
▁сактоо	-7.86112
▁та	-7.86401
им	-7.86601
▁буга	-7.86856
ова	-7.86878
▁шаар	-7.87067
чылык	-7.87184
i	-7.87227
уна	-7.87257
▁атайын	-7.87675
▁алынган	-7.87832
▁иши	-7.8784
▁туура	-7.87995
▁жалпы	-7.88145
дарды	-7.88214
ва	-7.88222
▁бай	-7.88226
ц	-7.88385
▁саны	-7.88459
▁Ошол	-7.88474
лан	-7.8882
▁ачык	-7.88863
▁аракет	-7.89353
▁оору	-7.89361
▁айрым	-7.9005
▁адамдар	-7.90624
▁жерде	-7.90775
▁берди	-7.90823
че	-7.90882
▁Кытай	-7.90884
▁э	-7.91128
▁катар	-7.91179
▁сал	-7.91192
▁өлкөнүн	-7.91528
▁Улуттук	-7.9154
▁Бир	-7.9161
▁албай	-7.91691
өө	-7.92081
тары	-7.92636
кан	-7.92775
▁бардык	-7.93054
лик	-7.93243
ан	-7.93251
▁сом	-7.93268
▁Э	-7.93546
▁бийлиги	-7.93643
▁болчу	-7.93934
▁Анда	-7.94335
ж	-7.94743
▁топ	-7.95049
чулар	-7.9508
▁ишке	-7.95414
деги	-7.95448
шы	-7.95515
мат	-7.95598
▁беш	-7.96566
▁эмне	-7.96908
▁оор	-7.96934
дей	-7.97326
▁карата	-7.97646
▁Кыргыз	-7.97863
00	-7.97933
▁20	-7.98155
ак	-7.98261
▁Европа	-7.98358
▁Алардын	-7.98718
▁болушу	-7.99039
▁доллар	-7.99092
унун	-7.99197
▁азыр	-7.99197
▁жатышат	-7.99534
▁басма	-7.99803
▁тил	-7.99833
октябрда	-7.99944
▁социалдык	-8.00053
тоо	-8.00228
▁тергөө	-8.00361
ыл	-8.00476
дары	-8.00545
▁арыз	-8.00597
▁тур	-8.00689
лөр	-8.00966
▁айтымында	-8.00991
по	-8.011
▁жаштагы	-8.01258
С	-8.01326
▁10	-8.0153
▁се	-8.01665
▁баштаган	-8.01949
рт	-8.02029
ышы	-8.02062
ларын	-8.0224
ылган	-8.02279
тө	-8.02291
▁мурда	-8.02495
бе	-8.02598
▁айып	-8.02833
дуу	-8.03044
▁добуш	-8.0312
сун	-8.03524
▁Т	-8.0392
▁окуя	-8.04031
алы	-8.04054
▁ала	-8.042
▁Да	-8.0442
▁жергиликтүү	-8.04456
ме	-8.05165
▁кыл	-8.05857
тап	-8.05906
▁жети	-8.06028
▁даяр	-8.06125
тор	-8.06247
лери	-8.06271
▁6	-8.06414
беков	-8.07196
o	-8.07212
▁бере	-8.07476
▁т	-8.07645
▁айында	-8.07767
▁толук	-8.07925
▁пайда	-8.08032
▁арасында	-8.08265
▁согуш	-8.08512
▁Баткен	-8.09045
▁маселе	-8.091
▁министри	-8.09139
▁белгилүү	-8.09143
▁тарап	-8.09184
дөр	-8.09195
▁май	-8.09225
▁шаарында	-8.09457
▁мен	-8.09485
▁өкүлдөрү	-8.0972
▁өтүп	-8.09796
▁ат	-8.09923
▁Ар	-8.10319
▁төрт	-8.10323
▁Кеңештин	-8.10692
алиев	-8.11049
стан	-8.11062
Абад	-8.1142
▁жаш	-8.11599
▁ба	-8.11629
ткан	-8.11669
мо	-8.11714
ол	-8.12465
от	-8.12868
▁аба	-8.12879
▁күрөш	-8.12941
мө	-8.13009
▁биздин	-8.13279
▁уулу	-8.13382
▁каражат	-8.13384
мак	-8.13414
Р	-8.13487
▁кыз	-8.13513
▁Би	-8.13599
ры	-8.13635
тыр	-8.13701
▁укук	-8.13797
ст	-8.14189
▁Азия	-8.14324
иялык	-8.14483
овдун	-8.14608
▁так	-8.14676
шкан	-8.14851
▁жара	-8.1511
▁өзгөчө	-8.1531
▁кыргызстандык	-8.15472
пай	-8.1575
▁жүргөн	-8.15757
▁аскердик	-8.15818
дор	-8.15888
дыгы	-8.15917
▁ак	-8.16125
унда	-8.16171
▁барып	-8.16279
▁саат	-8.16286
▁Украинанын	-8.16305
s	-8.16324
тарга	-8.16369
20	-8.16387
ларга	-8.16456
▁Ж	-8.16528
▁Казакстан	-8.1664
▁Ф	-8.1677
лай	-8.17262
▁чыкты	-8.17296
М	-8.17406
▁билим	-8.17411
▁жүрүп	-8.175
▁аталган	-8.17535
▁дары	-8.17896
жы	-8.18157
ви	-8.18186
▁сыяктуу	-8.18186
▁Азыр	-8.18244
дыр	-8.18427
▁Мында	-8.18487
ск	-8.1849
зи	-8.1864
▁тартып	-8.18821
▁жаз	-8.18881
▁басары	-8.1901
Б	-8.19044
▁Президент	-8.19191
рган	-8.19209
▁Ке	-8.19301
▁ашык	-8.19505
▁жатканы	-8.19549
мартта	-8.19733
ха	-8.19906
▁окуу	-8.19958
инен	-8.2007
▁төрагасы	-8.2012
▁салуу	-8.2015
▁Б	-8.20295
тери	-8.20296
▁койгон	-8.20519
▁ээ	-8.20599
▁андан	-8.20681
ылып	-8.20934
суна	-8.20958
▁коомдук	-8.21046
дүү	-8.21137
▁кө	-8.21162
И	-8.21189
▁алдында	-8.21279
▁Ку	-8.21359
▁өкүлү	-8.21748
▁иштеген	-8.21759
▁токто	-8.21805
▁жан	-8.21863
▁башкы	-8.2187
тук	-8.21916
▁Андан	-8.22149
▁аскер	-8.2216
ул	-8.22195
▁кылуу	-8.2221
▁Ага	-8.22532
▁зарыл	-8.2262
▁7	-8.22646
▁болгонун	-8.22735
ян	-8.22789
▁кабар	-8.22832
▁ашуун	-8.22927
▁ма	-8.23369
▁жылдан	-8.23448
▁соңку	-8.23585
дап	-8.23629
пи	-8.23668
▁келди	-8.23807
бу	-8.23852
▁абал	-8.24107
▁млн	-8.24158
кыр	-8.24224
тур	-8.24454
▁Ра	-8.24538
▁анда	-8.24576
▁аял	-8.24805
▁райондук	-8.2493
бо	-8.24955
▁8	-8.25046
төр	-8.25136
ша	-8.25169
▁кайсы	-8.25292
▁жаза	-8.25384
▁жетекчиси	-8.25568
рып	-8.25639
▁келе	-8.25667
арын	-8.257
▁өлкөдө	-8.25742
▁4	-8.25914
▁мыйзамсыз	-8.25968
▁сатып	-8.26145
апрелде	-8.26303
▁ички	-8.26322
▁айтылган	-8.26352
Э	-8.26398
▁Бишкекте	-8.26842
▁экинчи	-8.26851
▁ок	-8.271
▁Кара	-8.2738
лук	-8.27384
сө	-8.27481
▁с	-8.27518
үр	-8.27552
▁Эми	-8.27831
▁дүйнө	-8.27957
▁ушундай	-8.28037
чылар	-8.2807
▁барган	-8.28253
▁тең	-8.28418
лор	-8.28608
▁жумуш	-8.28621
▁1	-8.28938
ек	-8.28949
▁кат	-8.2896
ий	-8.29028
тай	-8.29103
▁келишим	-8.29193
бүз	-8.29364
▁кырдаал	-8.29766
▁акыркы	-8.29848
▁курал	-8.29921
▁иликтөө	-8.29941
иш	-8.29947
▁депутат	-8.30014
теги	-8.30027
▁жаса	-8.303
▁кай	-8.30443
▁улуттук	-8.3047
▁балдар	-8.30711
▁жеке	-8.30858
▁шарт	-8.30881
жо	-8.31121
▁бу	-8.31132
үүдө	-8.31207
▁б	-8.31488
▁кызы	-8.31549
дарга	-8.31634
▁азыркы	-8.31658
▁милиция	-8.31708
▁дейт	-8.31956
▁министрлигинин	-8.32288
▁жазды	-8.32571
▁тышкары	-8.32602
тарын	-8.3273
▁то	-8.32777
▁Му	-8.32784
▁көр	-8.32795
▁шаардык	-8.33036
▁Ошондой	-8.33058
▁саясат	-8.33211
ык	-8.33443
майда	-8.33473
▁экени	-8.3354
ый	-8.33698
▁маалыматына	-8.33775
▁нерсе	-8.33781
▁берет	-8.33818
лышы	-8.33935
төн	-8.33941
▁кы	-8.34149
син	-8.34433
▁видео	-8.34557
ындагы	-8.34559
▁журналист	-8.34699
▁берилген	-8.34844
▁кур	-8.34916
▁чечим	-8.3499
ноябрда	-8.3505
үшү	-8.35195
▁кезде	-8.35234
▁сура	-8.35282
▁күндүз	-8.35336
▁АКШнын	-8.35361
▁Ш	-8.35545
▁жазган	-8.35754
▁ошондой	-8.3583
▁өзүнүн	-8.35982
▁жылга	-8.36215
кер	-8.36464
▁Москва	-8.36802
ур	-8.36866
августта	-8.36896
ууга	-8.36952
▁талкуу	-8.36956
▁Те	-8.37037
▁түнкүсүн	-8.37237
ей	-8.37284
▁кызматкерлери	-8.37292
▁ишин	-8.3733
▁белгиледи	-8.37347
▁кетти	-8.37479
▁тыюу	-8.37639
;	-8.3769
▁көңүл	-8.37741
▁На	-8.37861
Д	-8.37863
▁учурунда	-8.38058
▁Нур	-8.38147
январда	-8.3825
июнда	-8.38381
▁карап	-8.3848
▁Борбор	-8.38501
▁ыр	-8.38589
▁ту	-8.38627
гра	-8.38765
ышты	-8.38812
▁президенттик	-8.39071
▁кармалган	-8.39092
со	-8.39238
▁канча	-8.39427
▁кор	-8.39467
▁Мындай	-8.39853
▁план	-8.39911
дөгү	-8.40169
Азаттык	-8.40176
▁бил	-8.40211
үүгө	-8.40505
▁негизги	-8.40512
бөй	-8.40608
▁Жалал	-8.40623
▁түшкөн	-8.40748
▁Жо	-8.40771
лды	-8.41077
▁иштери	-8.41151
▁быйыл	-8.4117
r	-8.41187
▁тарт	-8.41191
сентябрда	-8.41336
▁талапкер	-8.41383
▁түз	-8.41505
▁муну	-8.41548
▁Путин	-8.41714
ми	-8.41752
▁борбор	-8.418
▁200	-8.41844
▁кый	-8.41857
u	-8.41934
▁ири	-8.42013
Көл	-8.42113
▁Анткени	-8.42145
▁ойло	-8.42201
▁де	-8.42206
▁1-	-8.42656
▁12	-8.42794
ушу	-8.42797
▁кар	-8.42823
терди	-8.42883
▁эске	-8.4291
▁30	-8.42973
▁чабуул	-8.4303
▁11	-8.43032
▁жатабыз	-8.43114
▁жарым	-8.43151
тып	-8.43421
▁кен	-8.43588
но	-8.44029
▁Кыргызстанга	-8.4426
▁ж	-8.44373
кана	-8.44392
▁соода	-8.44396
▁боло	-8.44403
сиз	-8.44404
▁экономикалык	-8.4447
▁9	-8.44594
",-	-8.44604
▁аныкта	-8.44633
▁Ха	-8.44715
декабрда	-8.45051
▁чакыр	-8.45258
мин	-8.45421
▁салган	-8.45521
▁көзөмөл	-8.45575
▁соту	-8.45652
▁кон	-8.45692
▁Ми	-8.46232
▁жакта	-8.46379
▁Мамлекеттик	-8.46481
лаган	-8.46554
▁2020-	-8.46587
ок	-8.46593
▁кан	-8.46595
▁катышкан	-8.46608
диги	-8.46649
▁жаран	-8.46722
▁жогорку	-8.46864
ууда	-8.46901
буз	-8.46949
▁мигранттар	-8.46949
▁колдоо	-8.46965
ши	-8.47032
▁элдик	-8.47112
▁электр	-8.4717
министр	-8.47306
▁алууга	-8.47308
▁улан	-8.47379
ам	-8.47613
▁15	-8.47632
жи	-8.47647
оп	-8.47754
▁он	-8.47829
▁жарандык	-8.47884
ылды	-8.47986
▁кирген	-8.47991
ого	-8.48005
▁суроо	-8.48064
▁алты	-8.48079
▁Башкы	-8.48083
▁2	-8.48423
▁иште	-8.4847
ран	-8.48551
догу	-8.49008
кен	-8.49029
▁премьер	-8.4904
▁Ысык	-8.49282
▁Ошондуктан	-8.49338
▁маалыматтар	-8.49421
▁башкаруу	-8.49458
▁облусунун	-8.4946
▁жазылган	-8.49669
▁жөн	-8.49767
бүлө	-8.49809
ве	-8.50087
▁басып	-8.50348
▁аты	-8.50417
О	-8.5056
c	-8.50656
▁тышкы	-8.50887
▁облусунда	-8.50931
▁уруксат	-8.51003
▁төлө	-8.51061
▁учур	-8.51067
бей	-8.51067
▁парламент	-8.51166
▁Владимир	-8.51235
ук	-8.51243
мун	-8.51334
▁убактылуу	-8.51351
▁3	-8.51357
▁М	-8.51394
дөй	-8.51476
▁100	-8.51506
▁ур	-8.51518
▁шек	-8.51561
▁болгону	-8.51574
▁Биринчи	-8.51584
ик	-8.51618
ланган	-8.5184
▁жар	-8.51918
▁жогору	-8.51933
▁алат	-8.51961
▁банк	-8.52249
▁мында	-8.52326
▁күндө	-8.52434
▁чейинки	-8.52469
У	-8.5263
▁окуялар	-8.52638
▁Украинага	-8.52832
байт	-8.52862
дыгын	-8.52955
l	-8.53025
▁башында	-8.53068
▁алкагында	-8.53109
сти	-8.53212
тон	-8.53496
▁кызматынын	-8.5357
доо	-8.53667
▁маанилүү	-8.53706
▁кийинки	-8.53728
июлда	-8.53762
▁Ша	-8.53936
ыбыз	-8.53998
рек	-8.54093
▁аларды	-8.54167
▁Чүй	-8.54251
▁түшүн	-8.54285
▁сунуш	-8.54322
▁партия	-8.54488
▁миңден	-8.545
▁сакта	-8.54759
▁бүт	-8.54902
▁өнүктүрүү	-8.54961
▁чыгуу	-8.54971
▁катуу	-8.54976
▁ары	-8.55199
сак	-8.55218
▁баштады	-8.5524
▁жашоо	-8.5535
▁көбү	-8.55475
стр	-8.5555
ит	-8.55561
-19	-8.55568
▁Жээнбеков	-8.55768
Азаттыкка	-8.5609
▁негизинде	-8.56162
түн	-8.56202
ганы	-8.56347
▁убакыт	-8.56353
баган	-8.56463
кү	-8.56581
▁былтыр	-8.56598
▁тааны	-8.5674
▁макул	-8.5687
▁орто	-8.56884
▁арада	-8.56917
▁сунушта	-8.56958
▁спорт	-8.56966
▁эт	-8.57169
▁пикир	-8.57344
▁кетип	-8.57386
В	-8.57409
▁калып	-8.57602
ары	-8.57636
▁катчысы	-8.57718
▁президенттин	-8.57869
өл	-8.57948
тал	-8.58074
▁мамиле	-8.58082
▁Се	-8.58201
хан	-8.58263
өй	-8.58318
▁бер	-8.58626
▁жат	-8.58628
▁Украина	-8.58683
▁укугу	-8.58761
▁Кыргызстандагы	-8.58991
▁Казакстандын	-8.59147
▁2021-	-8.59203
▁соң	-8.59283
ум	-8.59431
▁кошумча	-8.59454
▁нааразылык	-8.59479
▁жыйынтыгы	-8.59519
▁мектеп	-8.59596
▁чыгаруу	-8.5989
унан	-8.60321
▁абдан	-8.60344
▁алдын	-8.60353
▁катта	-8.60388
Л	-8.60394
терин	-8.60559
▁прокуратура	-8.60617
зат	-8.60618
▁таза	-8.60791
▁абалы	-8.60907
▁камсыз	-8.60938
руу	-8.60955
▁элдин	-8.60989
февралда	-8.61234
▁башталган	-8.61271
▁жарандар	-8.61302
▁Орусияда	-8.61418
зы	-8.61536
▁жайы	-8.61557
▁2022-	-8.61877
▁эмгек	-8.61942
▁өттү	-8.61949
▁талкуула	-8.6198
▁Бо	-8.62024
▁шайлоого	-8.62028
▁жылы	-8.622
▁Бе	-8.62296
▁кем	-8.62298
үл	-8.62346
▁уюмдар	-8.62399
▁байланыш	-8.62473
▁бейтап	-8.62475
▁айтылат	-8.62567
иши	-8.62746
▁Д	-8.62824
лыгы	-8.62834
▁13	-8.62872
▁14	-8.62904
▁кабарлады	-8.63046
▁Өзбекстан	-8.63167
▁учурлар	-8.63225
ышкан	-8.63249
▁сайын	-8.63328
▁кел	-8.63329
▁сотко	-8.63599
ация	-8.6362
▁Г	-8.63688
▁жайгашкан	-8.63767
▁себеп	-8.63791
▁Ушул	-8.63989
тердин	-8.64092
▁компания	-8.64123
төрү	-8.64318
▁сокку	-8.64361
▁П	-8.64364
▁жарыялаган	-8.64414
▁коюлган	-8.64493
▁оюн	-8.64511
▁адамдын	-8.64516
ус	-8.64597
из	-8.64684
d	-8.64692
алдык	-8.65029
рат	-8.65176
▁мамлекеттер	-8.65361
▁тез	-8.65386
▁Учурда	-8.65425
бер	-8.65516
▁жатып	-8.65538
I	-8.65552
▁алгачкы	-8.65656
▁жашаган	-8.65695
▁колдонуу	-8.65736
▁жарандары	-8.65882
▁кир	-8.65888
▁камакка	-8.65905
▁кам	-8.65967
▁Маалымат	-8.66095
▁каражаттары	-8.661
▁өзгөртүү	-8.66128
▁Аны	-8.66137
во	-8.66167
▁коом	-8.66185
▁млрд	-8.6623
▁башчы	-8.66274
ста	-8.66317
▁Су	-8.66337
▁учак	-8.66708
▁орусиялык	-8.66714
Би	-8.66906
ис	-8.67044
▁Кур	-8.67147
h	-8.67247
▁ф	-8.67287
▁Эр	-8.67354
▁Ч	-8.67493
▁чын	-8.67559
▁көчө	-8.67688
▁көрүп	-8.67767
▁илдет	-8.67999
▁ре	-8.68056
▁тапта	-8.68227
ңыз	-8.68249
ист	-8.68265
▁тиешелүү	-8.68277
▁салып	-8.68372
▁То	-8.68462
▁жерге	-8.68508
ларда	-8.68553
▁өткөрүү	-8.68569
!	-8.68579
▁жете	-8.68603
жан	-8.68608
▁Баш	-8.6871
терге	-8.68715
▁алтын	-8.68754
▁салык	-8.68813
▁өлкөлөр	-8.68922
▁тарабынан	-8.68964
өр	-8.69098
▁депутаты	-8.6911
▁түш	-8.69748
▁өткөрүп	-8.69764
▁сын	-8.69788
ков	-8.69796
▁катталган	-8.69923
▁документ	-8.69978
▁аймагында	-8.70017
▁Батыш	-8.70022
ууну	-8.70069
П	-8.70132
лиги	-8.70166
▁Ме	-8.70222
▁аялдар	-8.70306
▁чыгарган	-8.70353
▁жайлар	-8.70448
▁Сот	-8.70508
▁операция	-8.70517
▁комментарий	-8.7057
▁бас	-8.70605
▁кыйын	-8.7068
▁миллиард	-8.70711
▁белгиле	-8.70735
▁киргиз	-8.70746
▁кайрылуу	-8.70879
сүнө	-8.71001
▁сүрөт	-8.7101
▁тапшыр	-8.71035
лим	-8.71091
▁Нарын	-8.71097
▁тартуу	-8.71104
▁маселеси	-8.71199
▁жүз	-8.71244
▁автоунаа	-8.71277
май	-8.71281
ом	-8.71302
▁Иран	-8.71363
▁белгисиз	-8.71373
▁18	-8.71392
гер	-8.71496
▁такта	-8.71535
▁жагдай	-8.71595
▁вирус	-8.71664
▁Кеңеш	-8.71704
▁талаш	-8.71912
лүк	-8.71926
ров	-8.72001
▁Па	-8.72107
изм	-8.72199
▁азырынча	-8.72203
Ба	-8.72622
▁сыр	-8.72692
чө	-8.72862
▁Де	-8.72919
▁лидери	-8.73219
▁Иш	-8.73273
▁украин	-8.73281
▁система	-8.73281
тип	-8.73346
▁авто	-8.73477
▁жыйын	-8.73617
▁Ан	-8.7369
▁бүгүн	-8.73696
▁50	-8.7371
▁тапкан	-8.7372
A	-8.73754
зо	-8.73823
▁жеңил	-8.73864
▁ыктымал	-8.74007
ци	-8.74161
суз	-8.743
же	-8.74322
▁чы	-8.74451
▁кызматкери	-8.74458
▁эсепте	-8.74486
▁чыга	-8.74488
▁баарын	-8.74509
▁вакцина	-8.74592
▁Бишкектин	-8.74768
▁жазып	-8.74788
кул	-8.74846
▁чакырды	-8.74954
▁жактан	-8.74964
▁абакта	-8.74968
ала	-8.75031
▁бюджет	-8.75106
мен	-8.75213
гүл	-8.75245
▁жүк	-8.75328
Ата	-8.75692
▁түрдө	-8.75708
▁Киев	-8.75713
▁жыйынында	-8.75732
▁ша	-8.7576
▁ичинен	-8.7579
▁ажыра	-8.75922
дарын	-8.75978
▁митинг	-8.75994
вар	-8.76148
▁таасир	-8.76148
▁топто	-8.76226
ем	-8.76341
тиги	-8.76511
жылдан	-8.76522
▁кеңеш	-8.76562
▁бол	-8.76717
Н	-8.76874
▁2019-	-8.7689
▁борбору	-8.76912
▁изилдөө	-8.76965
Си	-8.77028
▁жу	-8.77046
дердин	-8.7709
▁кыска	-8.77119
▁полиция	-8.77157
лууда	-8.77216
▁курулуш	-8.77271
▁Эгер	-8.7734
▁чыгарып	-8.77368
▁баштап	-8.77478
фа	-8.77491
▁айтканда	-8.77589
▁16	-8.77658
▁шайлоодо	-8.77666
▁районунда	-8.77698
▁долбоору	-8.77733
▁Тур	-8.77945
тыгы	-8.77977
сүн	-8.78192
шат	-8.78267
лу	-8.78487
▁түзүлгөн	-8.78681
лерди	-8.78763
▁10-	-8.78776
▁Ички	-8.78783
▁Тажикстандын	-8.78821
▁Жу	-8.78946
▁кош	-8.7903
▁калтыр	-8.79114
ой	-8.79201
▁билдирүү	-8.79241
▁эс	-8.79249
▁армиясы	-8.79341
▁ме	-8.79405
лердин	-8.7946
▁кирип	-8.79465
▁коркунуч	-8.79518
▁Бишкектеги	-8.79523
▁өкмөтү	-8.79599
лорду	-8.79674
▁зыян	-8.79704
▁аймактар	-8.7974
▁Кытайдын	-8.79749
▁Бу	-8.79847
▁оку	-8.799
▁медициналык	-8.7994
үүнү	-8.80116
ланып	-8.80223
▁кызматтан	-8.80304
▁дээрлик	-8.80323
▁кеп	-8.80351
▁билдирип	-8.80655
▁депутаттар	-8.80725
▁Орусияга	-8.80739
▁17	-8.80853
▁бою	-8.80859
▁базар	-8.80862
▁Түркия	-8.80877
▁аракети	-8.80894
▁кошумчалады	-8.81024
▁кет	-8.81036
▁жашы	-8.81154
тир	-8.81227
абы	-8.81273
▁Министрлер	-8.81365
мын	-8.81458
▁кармап	-8.81464
ың	-8.81582
▁Казакстанда	-8.81688
▁жолдо	-8.81799
▁жума	-8.81825
▁аскерлери	-8.81958
▁жолугушуу	-8.82037
▁Израил	-8.82073
▁түзүү	-8.82153
аш	-8.82155
үнүн	-8.82189
▁куруу	-8.82238
сүз	-8.82262
▁шаарынын	-8.82286
▁кызматкерлер	-8.82405
▁тарткан	-8.8251
▁Эки	-8.82563
лөрдү	-8.82691
кар	-8.82779
▁башта	-8.82813
▁4-	-8.82883
▁айда	-8.82895
ше	-8.83073
▁Талас	-8.83164
▁ортосундагы	-8.83279
▁бөлүм	-8.83366
▁Биздин	-8.83391
▁экс	-8.83442
▁көрсөтүү	-8.83506
▁жылдын	-8.83513
ир	-8.83576
▁токтотуу	-8.83713
▁материал	-8.83719
лаш	-8.83746
k	-8.83865
▁5-	-8.83987
▁катышуу	-8.84015
▁корго	-8.84018
▁күт	-8.84083
▁Кылмыш	-8.84099
▁койду	-8.84253
▁көрсөт	-8.84321
▁жакындары	-8.84329
▁мо	-8.84341
▁чарба	-8.84361
уш	-8.84428
▁агенттиги	-8.84452
▁карма	-8.84628
▁тобу	-8.8466
ес	-8.84746
▁оң	-8.84821
▁жибер	-8.84905
▁аянт	-8.85026
▁бирөө	-8.8504
▁катыш	-8.85158
▁Га	-8.85201
зе	-8.85237
▁бо	-8.85337
▁күндөрү	-8.85426
фи	-8.85518
▁кантип	-8.85607
түр	-8.85652
▁2-	-8.85671
▁каттоо	-8.85685
▁табы	-8.85722
ээ	-8.85756
▁комиссия	-8.85795
▁уюм	-8.86113
▁газ	-8.86121
▁мүчөлөрү	-8.86142
кулов	-8.86211
бат	-8.86214
▁маалыматты	-8.86229
▁Жаңы	-8.86489
▁ком	-8.86534
▁Мисалы	-8.86567
▁баасы	-8.86706
▁калат	-8.86722
Азаттыктын	-8.86886
уучу	-8.86918
▁мекеме	-8.87075
матов	-8.87175
▁кылды	-8.87368
▁коюп	-8.87564
▁телефон	-8.87566
▁Тажикстан	-8.87612
▁өзүн	-8.87633
▁Мар	-8.87634
▁салынган	-8.8765
▁бөл	-8.87667
▁доо	-8.8771
▁кээ	-8.87788
▁долбоорун	-8.87852
▁ишти	-8.87966
▁өзүнө	-8.8804
R	-8.88065
▁Байден	-8.88133
▁көргөн	-8.8819
▁ш	-8.88198
▁районунун	-8.88262
▁кайрадан	-8.88334
ибиз	-8.88364
▁таң	-8.88366
▁өкмөттүн	-8.88385
ева	-8.88466
▁15-	-8.88558
▁парламенттик	-8.88561
▁ас	-8.88601
▁шектүү	-8.88661
▁7-	-8.88723
▁жасаган	-8.88766
▁казак	-8.88797
▁25	-8.88867
▁мүчөсү	-8.88906
▁туруктуу	-8.88908
▁негизде	-8.88911
▁мүмкүнчүлүк	-8.88981
▁сый	-8.89001
▁болбойт	-8.8902
лүгү	-8.89028
▁диний	-8.89083
▁тажик	-8.89084
▁метр	-8.89154
му	-8.89158
▁УКМК	-8.89163
анын	-8.89224
▁кымбат	-8.89247
ая	-8.89251
▁ой	-8.89261
лугу	-8.89281
▁чогул	-8.89364
акта	-8.89397
индеги	-8.8946
аны	-8.89499
▁Быйыл	-8.89501
▁кадам	-8.89504
▁Бек	-8.89545
▁айт	-8.89548
▁Саламаттык	-8.89672
▁кабылган	-8.89702
▁жерлер	-8.89728
▁ирет	-8.89758
▁саламаттык	-8.90013
▁бирге	-8.90259
бү	-8.90322
▁отурган	-8.90326
▁ко	-8.90416
▁жарыяланган	-8.90446
шып	-8.90458
▁эркиндиги	-8.90545
▁туруп	-8.90603
ыкты	-8.90646
▁3-	-8.90727
март	-8.90826
▁белгилеп	-8.9083
▁кеч	-8.90851
▁No	-8.90875
▁аттуу	-8.90881
▁туш	-8.90908
▁Ташиев	-8.90959
үй	-8.90975
▁мөөнөтү	-8.91011
▁органдары	-8.91021
▁Анан	-8.91024
▁уюму	-8.91204
▁20-	-8.91231
▁COVID	-8.91304
үлгөн	-8.91352
евдин	-8.91379
▁көрү	-8.91548
чо	-8.91602
▁жарыялады	-8.91643
кка	-8.91646
▁бара	-8.91711
▁Ата	-8.91721
ларына	-8.91783
▁Со	-8.91802
▁калаа	-8.91926
▁жеткир	-8.92077
илип	-8.92113
Ка	-8.92261
▁аткар	-8.923
▁текшерүү	-8.92401
▁сотто	-8.92562
▁партиясы	-8.92571
лин	-8.92582
▁жараны	-8.92679
бал	-8.92838
▁9-	-8.92846
▁Матраимов	-8.92875
▁убада	-8.92878
▁су	-8.92904
▁партиясынын	-8.92939
▁Ошондо	-8.93016
▁мыйзамдар	-8.93097
▁максатында	-8.93108
баева	-8.93169
үнөн	-8.93265
▁кызык	-8.93377
▁бур	-8.9339
▁тоо	-8.93422
▁жаштар	-8.93444
деп	-8.93447
▁карабай	-8.93452
▁соттун	-8.938
гандар	-8.93928
▁сырткары	-8.93948
▁пайыз	-8.94046
▁аныкталган	-8.94184
лов	-8.9422
▁келтир	-8.94231
▁күбө	-8.94293
ери	-8.94451
▁тартылган	-8.94529
▁шаарындагы	-8.94554
▁активист	-8.9467
төрдү	-8.94704
сынан	-8.94735
▁бет	-8.94748
▁түрк	-8.94755
▁негиз	-8.94796
▁режим	-8.95011
▁Ө	-8.95032
бар	-8.95245
▁киргизүү	-8.95293
,5	-8.95363
тарда	-8.95369
асы	-8.95397
▁каржы	-8.95422
▁чечими	-8.95434
▁11-	-8.9547
▁компаниясы	-8.95473
кс	-8.95498
▁саясатчы	-8.95597
▁ишкер	-8.95703
уусу	-8.95833
▁облустук	-8.95839
чаралар	-8.95846
▁бербей	-8.95944
▁айынан	-8.96095
▁кап	-8.96115
шты	-8.96218
▁Тышк	-8.96297
мал	-8.96365
▁аскерлер	-8.96516
▁ишкерлер	-8.96553
▁Өзбекстандын	-8.96659
дерди	-8.96842
▁миңдей	-8.96903
▁Айрым	-8.96917
▁мүчө	-8.97114
▁бийликтин	-8.97156
▁системасы	-8.97191
▁дүйнөлүк	-8.97407
▁ортосунда	-8.97435
▁аш	-8.97511
▁жыйынтык	-8.97535
күр	-8.97711
▁отур	-8.97776
ара	-8.98034
▁мамлекеттин	-8.98059
▁аларга	-8.98129
ика	-8.98146
▁чара	-8.98249
▁көрсөткүч	-8.98301
мир	-8.98368
▁аткаруу	-8.98391
▁кишинин	-8.98424
чүлөр	-8.98501
▁десе	-8.98508
дыктан	-8.98766
▁Ы	-8.98802
▁Зеленский	-8.98858
ос	-8.98915
▁тизме	-8.98972
▁адамдардын	-8.99
▁өтүү	-8.99066
▁бизге	-8.99099
▁Аб	-8.99154
лөрдүн	-8.99208
▁жокко	-8.99228
▁алыс	-8.99276
▁Украинадагы	-8.99313
▁түшүп	-8.99323
беген	-8.99385
▁бош	-8.99418
▁Х	-8.99459
сындагы	-8.99619
▁тара	-8.99673
▁азык	-8.99703
▁түзгөн	-8.99831
▁жүрө	-8.99852
▁ач	-8.99874
▁бөлүгү	-8.9997
▁директору	-9.00037
▁Себеби	-9.0008
▁чеч	-9.00096
▁6-	-9.00115
g	-9.0016
▁айта	-9.00248
▁болорун	-9.00299
төгү	-9.00329
▁чыгар	-9.00337
иянын	-9.00437
▁берүүнү	-9.00506
▁Атамбаев	-9.00535
▁кама	-9.00622
▁бараткан	-9.00631
▁Газа	-9.00638
▁40	-9.00816
шу	-9.00817
▁өнөктөш	-9.00935
▁милдет	-9.00942
▁бизнес	-9.00978
▁кете	-9.01009
▁жылда	-9.01103
▁козголгон	-9.01132
▁чектөө	-9.01242
▁адистер	-9.01334
▁укуктары	-9.01344
▁Конституция	-9.01346
▁кодексинин	-9.01368
▁басым	-9.01383
▁Си	-9.01384
ңар	-9.01548
▁ордуна	-9.016
▁тургундар	-9.01678
еги	-9.01691
▁Ва	-9.01694
▁бийликке	-9.01709
▁дарыгерлер	-9.01761
▁уюштуруу	-9.01882
▁максат	-9.01918
▁чыгары	-9.01967
▁Сүрөттү	-9.01989
▁күчтөрү	-9.02
T	-9.02019
теш	-9.02024
▁кула	-9.02086
абыз	-9.022
▁болуш	-9.02252
▁Борбордук	-9.02359
ИИМ	-9.02377
▁себеби	-9.02472
▁маалымдады	-9.02474
▁көрсөткөн	-9.02482
▁8-	-9.02491
▁таш	-9.02496
▁көйгөй	-9.02548
▁тол	-9.02565
▁тасма	-9.02668
▁маселесин	-9.0274
▁белгилеген	-9.02772
ада	-9.02825
▁тарта	-9.02892
Ме	-9.02921
▁зомбулук	-9.02925
y	-9.02958
▁реформа	-9.02958
▁өлкөдөгү	-9.03022
▁берүүгө	-9.03049
▁жеткен	-9.03057
▁Чек	-9.03057
▁кайрылган	-9.03094
P	-9.03153
▁карантин	-9.03258
хи	-9.03287
m	-9.03318
жылдары	-9.03385
▁сан	-9.03392
▁алганын	-9.03418
жылдагы	-9.03482
▁канал	-9.03549
▁тамак	-9.03644
▁кароо	-9.03658
▁Кийин	-9.0374
▁колдон	-9.03797
улуп	-9.03836
▁согушка	-9.0387
▁24-	-9.03871
▁Трамп	-9.03938
▁аппарат	-9.04034
▁Сирия	-9.04041
▁чыгарма	-9.04091
Жа	-9.04151
▁жабыл	-9.04223
кин	-9.04307
▁со	-9.04398
өгө	-9.044
▁Же	-9.04408
▁маданият	-9.04428
төө	-9.04486
▁сиз	-9.04513
▁маалда	-9.04595
▁калганын	-9.04606
▁Мо	-9.04615
▁келгенде	-9.04711
▁ракета	-9.04765
▁акын	-9.04845
лө	-9.04856
баш	-9.04907
▁өздөрү	-9.05041
Ч	-9.05095
лбай	-9.05177
алдуу	-9.05186
тору	-9.0522
▁комитетинин	-9.05266
▁сүйлөшүү	-9.05414
N	-9.05417
ларынын	-9.05436
▁Өз	-9.05458
ышат	-9.05499
▁мурун	-9.05555
мар	-9.05575
▁За	-9.05619
▁экөө	-9.05735
▁иштерин	-9.05745
▁25-	-9.05814
өрү	-9.05867
▁киреше	-9.0593
▁караган	-9.05933
▁кармалып	-9.05975
▁жоопкерчилик	-9.06021
F	-9.06021
Фейсбук	-9.06021
▁кесип	-9.06021
зар	-9.06168
▁чыр	-9.06199
▁колдонул	-9.06282
▁тарых	-9.06292
▁айылында	-9.06317
p	-9.06323
рак	-9.06332
▁медиа	-9.06332
▁болбой	-9.06405
▁по	-9.06414
Манас	-9.06485
лек	-9.06549
▁кала	-9.067
▁айлана	-9.06932
▁уюмунун	-9.06979
▁Евробиримдик	-9.0703
чулардын	-9.07039
▁коомчулук	-9.07053
▁жүргүзүү	-9.0706
▁өлкөгө	-9.07092
▁жетти	-9.07159
▁китеп	-9.07175
▁жаңжал	-9.07233
▁жакында	-9.07274
▁18-	-9.07338
▁качан	-9.07437
er	-9.07625
▁кеңешинин	-9.07797
рап	-9.07802
аб	-9.07869
▁жакка	-9.07919
▁штаб	-9.07956
▁ушу	-9.07983
кай	-9.08113
▁Ро	-9.08122
сунда	-9.08151
▁район	-9.0829
▁келин	-9.08306
▁партиялар	-9.08354
▁сегиз	-9.08461
▁дегенде	-9.08468
чара	-9.08483
▁коррупция	-9.08539
луп	-9.08597
▁кыймыл	-9.086
▁тонна	-9.08687
▁күчтөр	-9.08815
▁куб	-9.08904
▁эсеп	-9.0894
▁Май	-9.08948
▁маселени	-9.08997
айым	-9.09043
▁топтор	-9.09123
▁курч	-9.09162
▁мекемелер	-9.09179
▁барат	-9.09186
▁долбоор	-9.09289
▁тынчтык	-9.09333
▁көпчүлүк	-9.09393
▁сомго	-9.09526
▁па	-9.09534
▁жарыяла	-9.09572
▁облусу	-9.09634
илген	-9.09709
▁болуу	-9.09747
▁жылдык	-9.0975
▁белгиленген	-9.09805
▁сөздөр	-9.0981
▁60	-9.0991
▁кошул	-9.09941
▁Коронавирус	-9.10014
ңиз	-9.10021
▁кызматына	-9.10049
▁дем	-9.1006
▁коюу	-9.10128
▁компаниялар	-9.10132
▁кабинетинин	-9.10149
▁28-	-9.10421
▁кырсык	-9.10432
▁маалым	-9.1048
▁жараат	-9.10501
▁чогуу	-9.10537
чыл	-9.10583
▁өзгөрт	-9.10593
яр	-9.10623
▁табылган	-9.10696
▁караш	-9.10711
▁кайтар	-9.10735
▁Мыйзам	-9.10747
▁маселелер	-9.10765
▁пикирин	-9.10774
▁Акылбек	-9.10853
куралдуу	-9.10874
▁форма	-9.10893
▁Кар	-9.109
▁айтылып	-9.10942
▁мыкты	-9.11073
▁албайт	-9.11148
/	-9.11169
▁З	-9.11264
▁миграция	-9.11275
▁керектигин	-9.11282
тарына	-9.11456
▁далил	-9.11493
▁Азербайжан	-9.11593
▁30-	-9.11622
▁жасап	-9.11675
атты	-9.11732
▁өнөр	-9.11807
▁17-	-9.11862
▁ойно	-9.12007
V	-9.12018
лүү	-9.12061
▁өкүм	-9.12125
▁кармоо	-9.12126
▁чукул	-9.12134
лет	-9.12225
Са	-9.12322
▁улут	-9.12458
▁Че	-9.12473
▁эркин	-9.12502
▁2023-	-9.12552
▁журналисттер	-9.12587
▁деңгээлде	-9.12659
Таш	-9.12705
▁согушту	-9.12731
▁тармагы	-9.12854
Талибан	-9.12874
үлүп	-9.1291
▁комитети	-9.12971
▁жетекчилиги	-9.13102
▁сомдон	-9.13116
ент	-9.13188
бой	-9.13193
▁сөөгү	-9.13197
▁калк	-9.13206
▁котор	-9.13225
n	-9.13259
чилик	-9.13266
түк	-9.13279
▁эсептейт	-9.13397
▁жашап	-9.13416
раак	-9.13455
▁прокурор	-9.13521
▁турмуш	-9.13571
өп	-9.1362
дүк	-9.13682
тажик	-9.13732
▁Расмий	-9.13737
▁кескин	-9.13737
▁Өткөн	-9.13737
▁Өкмөт	-9.13825
▁жагы	-9.1386
▁багыт	-9.13925
Суу	-9.13959
▁алынып	-9.13962
▁өтөт	-9.13982
▁Кал	-9.14035
▁Германия	-9.14054
▁Былтыр	-9.14063
▁акция	-9.14075
чылыгы	-9.1408
▁аймагына	-9.14113
▁экономика	-9.14265
▁машине	-9.14282
▁көрө	-9.14442
▁14-	-9.14446
▁камакта	-9.14574
▁булактар	-9.14658
▁камсыздоо	-9.14754
исттер	-9.14824
▁Мунун	-9.14864
▁оорукана	-9.14899
▁экспорт	-9.14937
▁келүү	-9.15088
▁алыш	-9.15107
▁органдар	-9.1522
▁саясаты	-9.15264
▁билдиргендей	-9.15318
▁сурак	-9.15409
▁23-	-9.1542
мек	-9.15555
ид	-9.15563
▁Азыркы	-9.15586
▁тараткан	-9.15633
▁эсе	-9.1571
▁киргизилген	-9.15726
▁Америка	-9.15819
▁Түштүк	-9.15819
▁кетиши	-9.1586
▁бажы	-9.15908
▁24	-9.15952
▁аймактарда	-9.16004
▁16-	-9.16196
▁башкармалыгынын	-9.16205
▁вице	-9.16373
ундагы	-9.16387
▁жатканда	-9.16421
▁иликте	-9.16485
30	-9.16546
▁алынды	-9.16618
▁Башка	-9.16681
Г	-9.16748
август	-9.1679
▁кишилер	-9.16801
▁комитет	-9.16918
▁пандемия	-9.1694
▁Түркиянын	-9.16976
▁жылдары	-9.17033
▁турак	-9.17046
ура	-9.1709
▁про	-9.17199
икалык	-9.17312
▁демилге	-9.17312
▁Корея	-9.1738
▁жабыркаган	-9.17385
▁Но	-9.17397
рам	-9.17553
үч	-9.17675
▁карыз	-9.17772
▁чечүү	-9.17997
▁уу	-9.18287
▁таап	-9.18288
Ж	-9.18307
▁12-	-9.1831
▁До	-9.18403
дугу	-9.18422
лгон	-9.18508
▁инвестиция	-9.18511
▁интернет	-9.18511
▁өндүрүш	-9.18625
▁анан	-9.18648
▁отурум	-9.18654
▁көтөр	-9.18728
▁темир	-9.18741
▁Жума	-9.18875
▁айтылды	-9.18933
▁факт	-9.1896
▁андай	-9.18962
▁22-	-9.19022
пар	-9.19053
▁аракеттер	-9.19059
▁ооруканага	-9.19197
Кыргыз	-9.19236
▁түшүр	-9.19243
▁ий	-9.19263
▁Алмазбек	-9.19311
мур	-9.19353
▁сүйлөшүүлөр	-9.19461
▁элге	-9.19468
▁Ю	-9.19485
▁Ас	-9.19539
ав	-9.1961
+	-9.19654
▁сапар	-9.19661
тарынын	-9.19678
▁жасалган	-9.19752
▁начар	-9.19765
▁Акыркы	-9.1977
▁чал	-9.19923
▁көзөмөлдө	-9.19969
▁Британия	-9.2001
▁келиши	-9.20095
▁үмүт	-9.20115
риккен	-9.20215
Кыргызстан	-9.20349
▁тууган	-9.20377
▁Жапаровдун	-9.20391
▁Аба	-9.204
▁жерден	-9.20426
▁A	-9.20519
ё	-9.20564
▁менчик	-9.20579
бир	-9.20588
сүндө	-9.20617
in	-9.2062
▁бөгөт	-9.20695
▁жүрөт	-9.20733
▁Алматы	-9.20828
илди	-9.20869
гуу	-9.21038
▁БУУнун	-9.21045
▁кетүү	-9.21121
▁арасындагы	-9.21165
▁Дүйнөлүк	-9.21175
▁тажрыйба	-9.21278
▁көлөмү	-9.21395
▁бузул	-9.21398
▁калыбына	-9.21512
▁жаан	-9.21523
мент	-9.21578
▁ишине	-9.21608
▁Сооронба	-9.21629
▁каралган	-9.21691
▁тартип	-9.21768
күл	-9.21927
▁80	-9.2197
▁коңшу	-9.21981
УКМК	-9.22096
▁америкалык	-9.22099
сине	-9.22112
▁калуу	-9.22129
▁ишкана	-9.22153
▁атындагы	-9.22187
▁көрүнүш	-9.22308
▁мезгил	-9.22323
▁түшүндүр	-9.2236
вер	-9.22444
▁кызматташтык	-9.22492
▁кайрылып	-9.22565
▁өмүрүн	-9.22602
▁нааразы	-9.22642
▁2018-	-9.2269
▁кайтып	-9.22748
▁маалыматка	-9.22761
лген	-9.22773
▁жагынан	-9.22866
▁27-	-9.22878
▁ондогон	-9.22928
▁түзөт	-9.2296
▁имарат	-9.23004
▁өлкөлөрдө	-9.23021
▁Соңку	-9.23046
▁тийгиз	-9.23047
▁кабарланды	-9.23166
▁19-	-9.23214
▁Шайлоо	-9.23289
▁кайрыл	-9.233
▁документтер	-9.23365
зу	-9.2337
▁турганы	-9.2341
▁S	-9.23425
▁ишмер	-9.23536
D	-9.23643
▁Армения	-9.23644
▁катышты	-9.23672
▁C	-9.23704
▁тараптуу	-9.2375
▁унаа	-9.23766
▁Ис	-9.23894
▁чакырым	-9.23909
▁("	-9.23972
ымды	-9.23989
▁соттук	-9.23994
▁насыя	-9.24123
▁Муну	-9.24185
об	-9.242
▁көрсөтүп	-9.24222
▁макулдашуу	-9.24244
10	-9.24265
▁кармалды	-9.24279
▁чечил	-9.24301
▁жүргүзүп	-9.24307
▁танда	-9.24448
▁башаламандык	-9.24484
▁активисттер	-9.24589
даган	-9.24651
деген	-9.24656
▁мандат	-9.24746
▁өлкөлүк	-9.2483
▁Франция	-9.24968
▁судья	-9.24968
▁мага	-9.25051
▁маалыматтарды	-9.25268
▁Камчыбек	-9.25455
▁жалгыз	-9.25455
хо	-9.25605
▁менин	-9.25704
баса	-9.2575
▁кошо	-9.25757
▁бийликти	-9.25822
▁тогуз	-9.26071
сентябр	-9.26108
B	-9.26312
▁балдары	-9.26314
лөрү	-9.26334
▁Бийлик	-9.2636
▁башынан	-9.2639
президент	-9.26494
▁дос	-9.26544
ткен	-9.26554
▁Е	-9.26586
▁күнгө	-9.26659
▁жүргүз	-9.26669
ья	-9.2668
▁22	-9.26693
▁түзүп	-9.26713
инг	-9.26797
▁тиешеси	-9.26804
▁Коопсуздук	-9.26928
▁аябай	-9.26931
Ө	-9.2712
өрүн	-9.27195
рас	-9.27389
▁маалыматы	-9.27497
▁кеткенин	-9.27507
▁чыгым	-9.27553
▁Ушу	-9.27634
▁орган	-9.27665
▁Депутат	-9.27673
▁сынга	-9.27762
▁команда	-9.27777
▁өлкөлөрдүн	-9.27797
▁дароо	-9.27947
▁миңдеген	-9.27987
Ф	-9.2801
таган	-9.28041
▁билбей	-9.28223
декабр	-9.28292
▁завод	-9.28298
өгү	-9.28457
жылга	-9.28532
▁Бүгүн	-9.28655
▁максаты	-9.28688
▁өткөр	-9.28719
шев	-9.28734
▁күй	-9.28758
▁мүлк	-9.2878
пер	-9.29001
▁тургуну	-9.29033
▁деңгээли	-9.29053
")	-9.29158
▁13-	-9.29167
▁мыйзамга	-9.29188
▁багытта	-9.29227
▁суроолор	-9.29295
▁шайла	-9.2933
S	-9.29411
▁баласы	-9.29434
▁21-	-9.29437
▁бардыгы	-9.29454
▁мисал	-9.2956
▁республика	-9.29651
▁ыкма	-9.29694
▁коё	-9.29703
▁ачы	-9.29718
▁туруу	-9.29726
▁ич	-9.29802
▁кризис	-9.29814
▁Ор	-9.29842
▁министринин	-9.29881
▁29-	-9.29969
▁коюл	-9.29973
▁жаман	-9.29982
▁T	-9.3003
түлүк	-9.30053
▁саммит	-9.30069
керлер	-9.30083
▁база	-9.30132
▁кайта	-9.30213
▁салды	-9.30217
▁парламенттин	-9.30282
▁бузуу	-9.30297
▁билдирүүдө	-9.30305
▁мал	-9.3031
дүр	-9.30311
▁мүмкүнчүлүгү	-9.30325
▁тынч	-9.30359
▁күндөн	-9.30376
▁тал	-9.30401
▁түрдүү	-9.30453
циялык	-9.30463
▁алганы	-9.30589
▁ыраста	-9.30651
▁кура	-9.30719
▁Албетте	-9.30838
▁сатуу	-9.30876
▁карандысыз	-9.30876
▁Бай	-9.3097
▁бекет	-9.30976
▁университет	-9.3101
▁илим	-9.31012
өлү	-9.31013
▁адамга	-9.31077
▁териштирүү	-9.31108
▁бөлүгүн	-9.31117
▁берилди	-9.31128
ноябр	-9.31196
▁бак	-9.31317
▁караштуу	-9.31361
▁колдо	-9.31381
▁долбоорлор	-9.31472
▁УКМКнын	-9.31483
▁позиция	-9.31483
бол	-9.31505
▁эне	-9.31506
▁катышып	-9.31532
▁мени	-9.31546
▁шайлоонун	-9.31582
муш	-9.3161
▁олуттуу	-9.31612
▁көрсөтүлгөн	-9.31675
▁жүрүш	-9.31752
▁коргонуу	-9.31795
▁өнүгүү	-9.31872
▁муктаж	-9.32002
E	-9.32002
▁зал	-9.32002
▁маалында	-9.32035
▁аймак	-9.32053
▁сайты	-9.32098
▁министрлик	-9.32168
өнү	-9.32542
▁болууда	-9.32644
▁Өзгөчө	-9.32655
▁көптөгөн	-9.32655
▁мунай	-9.32658
шуу	-9.32712
▁сактап	-9.32746
?"	-9.32763
▁басылмасы	-9.32786
▁Кремл	-9.32787
исттик	-9.32797
▁жараян	-9.32798
▁26-	-9.32843
▁Гүл	-9.32855
▁21	-9.32866
лору	-9.3293
▁өткөрүл	-9.32939
▁көмүр	-9.33049
▁облусундагы	-9.33066
▁70	-9.33088
▁адвокат	-9.33146
▁толугу	-9.33218
▁колдогон	-9.33329
▁биле	-9.33387
▁эгер	-9.33389
▁санкциялар	-9.33397
ант	-9.33459
▁чечимин	-9.335
▁ачуу	-9.33535
▁Көп	-9.33549
▁0	-9.33549
▁Орус	-9.33553
▁аэропорт	-9.33576
▁коргоочу	-9.33593
▁500	-9.33615
▁калса	-9.33624
▁оппозиция	-9.33667
▁ишеним	-9.33682
▁өзбек	-9.33727
үүчү	-9.3375
▁жетекчилери	-9.33773
▁аймакта	-9.33784
улган	-9.33914
пей	-9.33953
▁айлык	-9.33954
▁паспорт	-9.33973
▁Индия	-9.33973
▁берене	-9.34013
сто	-9.34022
Эркин	-9.34023
▁окуп	-9.3403
сиң	-9.34083
▁укугун	-9.34112
дери	-9.34166
▁аралаш	-9.34223
▁футбол	-9.34372
сам	-9.34443
▁үчүнчү	-9.34497
▁атаандаш	-9.34506
▁тараптан	-9.3451
▁шаарына	-9.34529
▁өрт	-9.34533
▁эсте	-9.34596
▁Дүйнө	-9.34623
▁программасы	-9.34632
▁илимий	-9.34667
▁жалпысынан	-9.347
▁программа	-9.3478
▁айтууда	-9.3485
▁Акаев	-9.34869
▁өлтүр	-9.34869
▁түнү	-9.3492
▁Аскар	-9.3507
▁эрежелер	-9.35102
▁чакырган	-9.35141
лардан	-9.3523
▁90	-9.35252
▁энергетика	-9.35309
▁жумша	-9.3531
▁Түркияда	-9.35421
▁НАТО	-9.35444
ог	-9.35458
ишет	-9.3548
▁Абды	-9.35495
▁облустары	-9.35576
▁2017-	-9.35579
▁адамды	-9.3562
▁Түндүк	-9.35638
▁эр	-9.35665
▁көбүрөөк	-9.35714
▁кабат	-9.35738
▁башкармалыгы	-9.35783
▁бойдон	-9.3585
▁дарыгер	-9.35873
▁сатыл	-9.35876
▁түрү	-9.35937
бет	-9.35958
▁аптада	-9.35975
▁Чын	-9.35983
▁өлкөдөн	-9.36008
an	-9.36034
▁балдардын	-9.36049
▁баса	-9.36074
▁тармактар	-9.36114
▁Вашингтон	-9.3612
▁тийиш	-9.36162
▁орду	-9.36251
▁ооган	-9.36288
▁Адам	-9.36306
▁ашыруу	-9.36322
▁аргасыз	-9.36395
▁мектептер	-9.36432
▁алдынча	-9.36517
рип	-9.36518
▁сапары	-9.36623
▁Султан	-9.36634
▁маегинде	-9.36663
▁үйдө	-9.36714
▁калышы	-9.3674
▁өтпөй	-9.368
▁аныктоо	-9.36801
▁сумма	-9.36802
▁казы	-9.36858
оро	-9.36859
▁миңге	-9.3688
▁чыгыш	-9.36938
лип	-9.36971
▁адис	-9.37044
▁куугунтук	-9.37073
▁аймагы	-9.37083
▁ашыр	-9.37214
ля	-9.37218
▁I	-9.37224
▁мамлекетке	-9.37292
▁үстүнө	-9.37358
▁ысы	-9.37416
▁Эс	-9.37477
▁чөйрө	-9.37485
▁каала	-9.37485
▁Ли	-9.37495
мет	-9.37543
▁саясатчылар	-9.37609
▁жогот	-9.37637
▁болмок	-9.37637
▁кыш	-9.37651
▁жүр	-9.37715
▁транспорт	-9.37721
▁таянып	-9.37762
▁аткан	-9.37825
▁фонду	-9.37834
рим	-9.37878
▁пайдалануу	-9.37919
үшкөн	-9.37936
боо	-9.3794
чулук	-9.37982
▁маалыматта	-9.38025
▁издөө	-9.38036
▁укуктарын	-9.38049
▁тармагында	-9.38062
▁канчалык	-9.38196
рүү	-9.38226
▁Ди	-9.38245
▁мыйзамдуу	-9.38353
▁камалган	-9.38376
▁күрөшүү	-9.38475
▁милдетин	-9.38503
▁кийим	-9.38524
▁Аталган	-9.38749
дөө	-9.38828
ыбызды	-9.38862
▁27	-9.38955
▁Мамлекет	-9.38956
жылдар	-9.38992
▁Коргоо	-9.39008
▁байкоо	-9.39013
▁Орусиядагы	-9.39016
▁шарттар	-9.3914
▁Пакистан	-9.39148
▁келгенин	-9.39172
улу	-9.39194
▁бериши	-9.39379
▁кылат	-9.39426
▁акы	-9.39525
▁көрүү	-9.39544
▁текшер	-9.39569
▁учура	-9.39684
▁Кадыр	-9.39782
▁берсе	-9.39834
▁театр	-9.3985
▁болгондуктан	-9.3985
▁талабы	-9.3987
▁ук	-9.39964
▁Бакиев	-9.40003
▁пара	-9.40109
▁баракчасына	-9.40193
▁болгондо	-9.40254
▁жетекчи	-9.40351
▁Тергөө	-9.40414
▁бизде	-9.40443
▁Жыл	-9.4045
▁Жан	-9.40504
чилер	-9.40617
дүгү	-9.4068
▁гектар	-9.40702
▁билген	-9.40763
▁талаптар	-9.40799
▁жак	-9.4088
▁эрте	-9.409
▁аймактарында	-9.40904
деди	-9.40909
▁убакта	-9.40984
▁Жол	-9.41008
ушту	-9.4109
▁Токаев	-9.41135
▁26	-9.4122
▁Тилек	-9.41279
▁кызыкчылыгы	-9.41284
▁бей	-9.41337
▁тоолуу	-9.41357
▁атасы	-9.41374
▁Жер	-9.41408
▁жыйында	-9.41435
энелер	-9.41437
▁ичи	-9.4152
▁Ре	-9.41538
▁жүйө	-9.41554
▁сүй	-9.417
тация	-9.41708
убуз	-9.41722
▁Н	-9.41722
▁кызматкер	-9.41754
▁кызматка	-9.41762
▁Эгерде	-9.41777
▁23	-9.41829
▁Биримдиги	-9.41839
▁Навальный	-9.41839
▁берилет	-9.41843
▁тий	-9.41917
▁туугандары	-9.41966
▁күз	-9.42041
▁тургундары	-9.42056
▁Москвада	-9.42057
▁Беларус	-9.4211
▁тынчсыздан	-9.42127
▁март	-9.42177
овду	-9.42182
▁Ти	-9.42216
▁качып	-9.42271
штыруу	-9.42276
▁коронавирусту	-9.42299
▁тек	-9.42329
чысы	-9.42351
▁иштей	-9.42368
▁айга	-9.42373
▁жаа	-9.42414
▁элчилиги	-9.42415
▁2010-	-9.42416
▁түшүнүк	-9.42417
пайт	-9.42442
▁кабарланган	-9.42482
▁атып	-9.42566
▁министр	-9.42607
▁кой	-9.42666
▁Касым	-9.42725
▁адамдарды	-9.42893
▁көтөрүп	-9.43082
▁курман	-9.43086
▁аягына	-9.4314
Тоо	-9.43147
▁оюндары	-9.43159
▁кетет	-9.43176
▁лидерлери	-9.43198
▁келтирүү	-9.43258
▁эртең	-9.43273
▁Штаттар	-9.43286
▁тилке	-9.43293
▁карай	-9.43314
▁айтуу	-9.43322
▁пул	-9.43343
▁алышкан	-9.43359
▁эркине	-9.43405
▁Экономика	-9.43431
▁жоопкерчилиги	-9.43431
O	-9.43431
сия	-9.43539
▁сабак	-9.43584
▁маалымдаган	-9.43593
▁Үй	-9.43666
▁партиянын	-9.43667
▁тармактарда	-9.43697
▁Улуттар	-9.43723
▁Улуу	-9.43731
Х	-9.43771
▁Ду	-9.43782
en	-9.43784
▁айдан	-9.43862
тура	-9.43875
▁өмүр	-9.43893
▁бүгүнкү	-9.4391
ене	-9.43943
▁Өзбекстанда	-9.43952
▁айтыш	-9.43956
▁болбосо	-9.44016
▁онлайн	-9.44018
дой	-9.44075
▁мин	-9.44091
▁козго	-9.44121
▁жараша	-9.44122
▁сунушу	-9.44247
▁түп	-9.44252
▁кырдаалдар	-9.44343
▁2016-	-9.44458
▁айыптоо	-9.446
▁авиа	-9.44645
мок	-9.44646
▁жарык	-9.44664
▁алууну	-9.44701
▁бошотуу	-9.44755
▁үйүнө	-9.44794
▁үйлөр	-9.44893
▁Кошмо	-9.44901
▁байланышты	-9.44972
▁облус	-9.45037
▁жүргүзүл	-9.45063
▁башталды	-9.45094
▁тааныш	-9.45111
▁коррупцияга	-9.45119
▁жүзүндө	-9.45139
▁мажбур	-9.45197
▁Республикасынын	-9.45247
орун	-9.45253
▁иштеш	-9.45288
▁Ви	-9.45299
тартыш	-9.45321
▁келсе	-9.45325
▁өзүнчө	-9.45377
▁тапшырма	-9.45444
▁маани	-9.45486
C	-9.45568
▁колдоп	-9.45583
▁болжол	-9.45644
▁аяк	-9.45651
энеси	-9.45657
▁Түрк	-9.45665
▁аткарыл	-9.45706
▁төмөндө	-9.45736
▁көзү	-9.45737
лбаган	-9.4575
▁лидер	-9.45782
▁төрагасынын	-9.45818
▁Пе	-9.45852
▁кыйла	-9.45853
дерге	-9.45905
▁товар	-9.45931
▁убагында	-9.45942
▁Сиз	-9.45951
▁Экинчи	-9.45992
▁эскертти	-9.46087
▁Украинада	-9.46132
▁колуна	-9.46152
олог	-9.46239
▁кагаз	-9.46246
▁айла	-9.46286
▁Ту	-9.46294
▁мыйзамды	-9.46327
▁тийиштүү	-9.4645
үштү	-9.46452
Кумтөр	-9.4648
ология	-9.46511
▁кандайдыр	-9.46539
▁токтом	-9.46689
алиева	-9.46697
▁ХАМАС	-9.46844
▁деңиз	-9.4688
▁чыгат	-9.46905
▁Мурдагы	-9.46906
▁Ала	-9.46949
▁студенттер	-9.47013
▁зордук	-9.47156
▁коо	-9.4718
▁компаниясынын	-9.47224
▁аймактык	-9.47228
▁жөнгө	-9.47273
жаза	-9.47372
▁жасалма	-9.47386
чусу	-9.47399
▁тастыкта	-9.4745
▁үгүт	-9.4745
лөрүн	-9.47482
▁салым	-9.47564
▁кооптуу	-9.47602
▁узак	-9.4761
▁Ге	-9.47637
▁өлкөлөрү	-9.4767
бүлөсү	-9.47688
▁кызматташуу	-9.47693
▁жумушчу	-9.47749
үлдү	-9.4776
▁Мына	-9.47783
▁беренеси	-9.47825
▁кырдаалды	-9.47832
▁жоо	-9.47871
▁өлүмү	-9.47887
▁процесс	-9.47905
▁эмдөө	-9.47907
▁майрам	-9.47956
шкен	-9.48057
жайы	-9.48114
▁ишканалар	-9.48166
tion	-9.48212
▁Россия	-9.48212
▁жылдар	-9.48238
▁35	-9.48305
▁өлүм	-9.48352
▁техника	-9.48355
▁Ирандын	-9.48356
▁Кумтөр	-9.48466
▁тема	-9.48571
▁курамы	-9.48644
▁талапкерлер	-9.48648
▁аракеттери	-9.48658
▁Менин	-9.48696
▁аныкталды	-9.4874
▁Түркмөнстан	-9.48826
▁шаары	-9.48876
▁иштөө	-9.49026
лоого	-9.49059
▁300	-9.49062
▁туру	-9.49094
▁абалда	-9.49097
▁гуманитардык	-9.49134
▁таандык	-9.49134
▁ошондо	-9.49174
▁сел	-9.49184
▁жаатында	-9.49219
▁терең	-9.49289
▁алышы	-9.49359
бөгөн	-9.49443
▁кетсе	-9.49561
▁Токто	-9.49611
▁таасирин	-9.49732
50	-9.49746
▁коопсуздугун	-9.49751
▁ыкчам	-9.49909
▁28	-9.4994
▁туулган	-9.49948
▁санкция	-9.49971
▁сөзү	-9.49994
▁По	-9.49997
▁уюштурул	-9.50013
ибизди	-9.50034
▁Чыгыш	-9.50065
▁чектөөлөр	-9.50068
▁жараткан	-9.50181
▁бакча	-9.50209
▁албаган	-9.5033
▁кылмыштуу	-9.50353
▁келаткан	-9.50378
▁жанында	-9.50389
▁сүйлөш	-9.50405
▁эреже	-9.50462
▁укуктук	-9.50486
▁таануу	-9.50545
сезим	-9.50594
▁Александр	-9.50691
▁террордук	-9.50693
▁ниет	-9.507
▁кыздар	-9.50758
▁кетир	-9.50781
▁беле	-9.50783
▁Ошентип	-9.50848
▁доомат	-9.50934
▁өмүрү	-9.5094
▁Image	-9.51005
▁каранды	-9.51043
▁Республика	-9.51057
▁парламентте	-9.51103
▁байланышы	-9.5112
▁Тү	-9.51152
▁Эмне	-9.51165
▁жокпу	-9.51184
▁апта	-9.51215
W	-9.5132
▁кеңири	-9.5132
▁Орусиядан	-9.51353
▁кылыш	-9.51415
▁тарбия	-9.51478
▁чагылдыр	-9.5148
▁кодекс	-9.51551
▁коюш	-9.51596
▁мөөнөт	-9.51602
торду	-9.51636
▁каалаган	-9.51692
▁калганы	-9.51744
X	-9.51795
ад	-9.51835
▁айрымдары	-9.51852
▁тарыхый	-9.5188
▁туткун	-9.51954
▁акысы	-9.51993
▁эскерт	-9.52032
▁кез	-9.52057
▁Өзү	-9.52244
▁чакырып	-9.52278
▁жакты	-9.52284
▁талаа	-9.52284
▁багытталган	-9.52332
▁аң	-9.52348
▁кабарлаган	-9.52432
▁чыгарылган	-9.52555
айын	-9.52558
беренеси	-9.5256
дордун	-9.52585
▁дүйнөдө	-9.52627
ологиялык	-9.52628
▁эркиндик	-9.52691
▁согушта	-9.52693
▁төлөп	-9.52748
▁куру	-9.52833
▁БШК	-9.52834
▁айырма	-9.52912
▁тартиби	-9.52916
▁институту	-9.5301
▁окуясы	-9.53038
▁анализ	-9.53072
▁тоскоолдук	-9.53082
▁болгондор	-9.53083
▁эски	-9.53124
▁Бизде	-9.53408
▁Израилдин	-9.53659
▁Ара	-9.53661
▁кетүүгө	-9.53664
▁айынын	-9.5368
w	-9.53716
▁бөлүмүнүн	-9.53747
▁жарандардын	-9.53748
▁ачылган	-9.53827
▁күтүп	-9.53852
министри	-9.53855
▁жигит	-9.53878
▁күчтүү	-9.5391
▁министрлигине	-9.53912
премьер	-9.53919
▁мамилеси	-9.5398
▁инфекция	-9.5404
дарынын	-9.54044
▁округ	-9.5405
▁Фе	-9.54378
тикалык	-9.54411
сың	-9.54444
▁жүргүзгөн	-9.54454
▁шартта	-9.5452
▁жабык	-9.5453
▁маселелери	-9.54537
19	-9.54671
▁мэр	-9.54731
Биз	-9.54789
▁чыгарды	-9.54844
▁гезит	-9.54856
▁элди	-9.54935
b	-9.55018
15	-9.55024
▁чакан	-9.5503
кор	-9.55057
▁тапты	-9.55104
▁болбогон	-9.55182
▁жабыр	-9.55183
▁жери	-9.55191
▁мелдеш	-9.55348
Ак	-9.55404
▁академия	-9.55511
▁кыргыздар	-9.55514
▁өрттө	-9.55516
▁эмеспи	-9.55529
▁өч	-9.55549
▁кишиге	-9.55585
▁Атайы	-9.55731
▁көрдү	-9.55818
▁кармалганын	-9.55851
▁финал	-9.55857
▁беки	-9.55915
▁каралып	-9.55956
▁сотунун	-9.55982
▁чаралары	-9.56102
▁отуруп	-9.56123
▁иштетүү	-9.56124
▁статистика	-9.56172
▁2015-	-9.56172
▁Болот	-9.56173
▁31-	-9.56333
▁Бээжин	-9.56337
▁күнөөлүү	-9.56347
▁өзүбүз	-9.56384
▁кыла	-9.56472
▁Бер	-9.56499
▁ырайы	-9.56502
▁атат	-9.56533
▁негизинен	-9.56558
▁сомду	-9.56579
▁сурап	-9.56586
▁төрө	-9.56613
▁кездеги	-9.56646
ерлер	-9.56654
▁Жергиликтүү	-9.5667
▁жетиштүү	-9.5667
▁техникалык	-9.56712
▁республикалык	-9.56717
келиндер	-9.56913
▁Мурда	-9.56946
▁борборунун	-9.56986
лөргө	-9.57064
▁Ошто	-9.57106
▁мыйзамдын	-9.57145
▁референдум	-9.57171
▁салыштырмалуу	-9.57171
▁баяндама	-9.57171
үз	-9.57253
▁Уюм	-9.57314
▁Жапония	-9.57338
▁Я	-9.57384
▁Интернет	-9.57506
▁демилгеси	-9.5762
▁долларга	-9.57714
▁экология	-9.5774
▁жалган	-9.57764
▁катаал	-9.57825
▁жатканына	-9.57841
▁жапырт	-9.57842
▁жетпей	-9.57843
▁иштейт	-9.57985
▁бийик	-9.58011
▁Президенттин	-9.58058
▁комиссиясы	-9.58121
▁Ким	-9.5815
▁Ча	-9.58163
▁департамент	-9.5818
▁палата	-9.58182
кир	-9.58192
▁түзүл	-9.58328
▁виза	-9.58353
Жо	-9.58362
ишти	-9.58363
▁билдирүүсүндө	-9.58375
▁фонд	-9.58422
▁Кемпир	-9.58434
▁ыйгарым	-9.58519
▁Эрдоган	-9.58519
▁күйөөсү	-9.58523
▁жеңиш	-9.58564
▁кишини	-9.58619
▁ооруканада	-9.58639
▁комитеттин	-9.58665
▁топтун	-9.58743
▁Хо	-9.58753
▁эксперт	-9.58778
▁медицина	-9.58866
Бир	-9.58923
▁акыры	-9.58925
▁кий	-9.5901
▁администрациясы	-9.59154
▁колу	-9.59161
▁орно	-9.59199
ӊ	-9.592
▁талибдер	-9.592
▁Демек	-9.59225
▁акыл	-9.5936
▁батир	-9.59446
башы	-9.59459
▁бузган	-9.59459
▁коргоочулар	-9.59538
▁штат	-9.59555
▁айтышты	-9.5959
16	-9.59591
▁артка	-9.59651
итет	-9.59673
▁аткаруучу	-9.59699
▁кеңей	-9.59713
▁адилет	-9.59714
▁түрмө	-9.5983
▁Грузия	-9.59885
▁жаап	-9.59939
▁эмнеге	-9.60011
фон	-9.60027
Чоң	-9.60029
▁макала	-9.60062
чил	-9.60073
▁беттеш	-9.60085
▁куу	-9.60172
мил	-9.60182
▁Укук	-9.60232
▁ээси	-9.6034
▁ошону	-9.60478
▁кире	-9.60488
▁акчаны	-9.6055
▁сүр	-9.6065
үндөгү	-9.60732
▁айыптап	-9.60734
▁фа	-9.60889
▁Бүгүнкү	-9.60949
▁уюмдун	-9.60953
▁депутаттары	-9.60959
▁уланып	-9.61075
▁көргөз	-9.61097
▁Шаар	-9.61101
▁аяктаган	-9.61108
▁33	-9.61137
▁Кыз	-9.61366
▁кирүү	-9.61399
▁кайтарып	-9.61495
ович	-9.6151
▁көрсөтмө	-9.61513
▁алгач	-9.61565
▁энергия	-9.6158
▁бекем	-9.61611
▁баян	-9.61613
▁эксперттер	-9.61703
▁чечимдер	-9.61747
°	-9.61795
▁кино	-9.6192
▁Казак	-9.61956
БУУ	-9.6197
▁майда	-9.62035
▁болобу	-9.62093
имов	-9.62094
ңүз	-9.62113
▁Олимпиада	-9.62146
▁райондорунда	-9.62147
Ма	-9.62361
z	-9.62498
▁чалдыккан	-9.62499
▁билдиришти	-9.62504
▁кесепет	-9.62521
▁Кол	-9.62557
ташты	-9.62581
рес	-9.62601
▁курултай	-9.62675
▁курган	-9.62704
▁ката	-9.62852
v	-9.62852
▁башчылары	-9.62874
on	-9.62903
▁карабастан	-9.6303
▁институт	-9.63098
▁даярдык	-9.63103
▁катталды	-9.63274
▁өткөргөн	-9.63307
ar	-9.63341
▁кеңеши	-9.63376
▁Чо	-9.63384
▁арналган	-9.63387
▁өлгөн	-9.63389
▁жарыяланды	-9.63394
▁чалгын	-9.63394
▁чыкпай	-9.63543
▁Назарбаев	-9.63564
абыт	-9.63599
сүнүн	-9.63786
жарак	-9.63788
▁чемпион	-9.6381
▁мугалим	-9.6392
17	-9.63935
баевдин	-9.64001
▁демократия	-9.64065
бүлөлүк	-9.64151
▁жазуучу	-9.64194
▁жый	-9.64207
▁соолугу	-9.6428
ташы	-9.6439
▁токтотул	-9.64453
▁Сергей	-9.64459
▁себептер	-9.64578
▁байге	-9.64652
▁жатышкан	-9.64874
▁дайындалган	-9.64886
25	-9.64887
▁Бала	-9.65021
▁эскертүү	-9.6508
or	-9.65105
▁Жар	-9.65153
▁Ташкент	-9.65182
ңуз	-9.6519
▁ишмердиги	-9.65214
▁таштап	-9.65275
▁дипломат	-9.6531
▁байланышкан	-9.65343
▁Лукашенко	-9.65364
▁Мекеменин	-9.65407
▁университетинин	-9.65484
▁дене	-9.655
▁экспертиза	-9.65546
▁долбоорду	-9.65557
▁Өмүрбек	-9.65567
▁келишет	-9.65569
▁баруу	-9.65592
▁тагдыры	-9.65594
▁жолдор	-9.65623
▁Маселен	-9.65727
▁бүтүр	-9.65816
▁маек	-9.65843
al	-9.6585
▁ошо	-9.65855
▁улуу	-9.65868
сунун	-9.65891
үлө	-9.65917
▁Конституциялык	-9.66038
▁элчиси	-9.66096
▁аталыш	-9.66218
▁электрондук	-9.66276
▁үлгү	-9.66278
▁моюн	-9.66287
▁акциялары	-9.66391
▁Ла	-9.66394
▁cap	-9.66459
▁машина	-9.6646
▁уурда	-9.665
▁бута	-9.66518
▁кийлигиш	-9.66644
▁Ушундай	-9.66645
▁маселелерди	-9.66656
тогу	-9.66702
▁жерди	-9.66766
ский	-9.66774
▁жыйыны	-9.66786
▁адабият	-9.66827
▁ойлойм	-9.66838
▁киргизген	-9.66867
▁дайындал	-9.66953
▁пандемиясы	-9.66998
▁апасы	-9.67045
▁изде	-9.67206
▁толкун	-9.67255
M	-9.6726
▁конуш	-9.67295
▁атышуу	-9.67356
▁Негизи	-9.67382
▁булагы	-9.67403
▁түштү	-9.67408
▁чыгышты	-9.67443
▁2014-	-9.67567
▁көрүүгө	-9.67688
L	-9.67753
▁саналат	-9.67756
▁Милиция	-9.6794
▁Тоолуу	-9.67941
▁жаракат	-9.67963
▁Ооганстан	-9.6798
▁Украин	-9.68006
▁колго	-9.68009
▁Кеңеште	-9.68058
▁эгемен	-9.6806
паган	-9.68075
▁тилкеси	-9.68091
дору	-9.68124
▁камагына	-9.68128
▁көйгөйлөр	-9.68167
▁администрация	-9.68176
▁порт	-9.6822
▁чемпионаты	-9.68242
чатак	-9.68264
▁Эң	-9.68303
▁өтүнүчү	-9.68399
!"	-9.68419
▁террор	-9.68531
▁жагдайлар	-9.68597
▁чогулган	-9.68658
▁кызматтын	-9.68687
▁көздөй	-9.68713
мей	-9.68782
▁баракча	-9.68796
▁айдоочу	-9.68799
рген	-9.68841
▁берүүдө	-9.68859
▁градус	-9.68876
лукту	-9.68879
▁Ислам	-9.68901
▁алака	-9.68947
▁издеп	-9.68971
▁өзөктүк	-9.69064
▁акциясы	-9.69151
▁тараптар	-9.69209
▁маркум	-9.69253
▁колдонуп	-9.69383
▁Жаш	-9.69425
июн	-9.69431
▁комплекс	-9.69442
апрель	-9.69442
▁тандоо	-9.69449
▁36	-9.69453
▁Ү	-9.69477
▁окуучулар	-9.6949
▁алдына	-9.69509
▁Москванын	-9.69558
▁жеткирүү	-9.69629
▁аягында	-9.69631
изация	-9.69635
▁жатам	-9.69709
▁ашкан	-9.69738
▁уюмдардын	-9.69812
▁көбөйгөн	-9.69821
цио	-9.69913
▁муун	-9.69982
талган	-9.69997
K	-9.70011
▁таасири	-9.70024
▁төлөө	-9.70029
▁тобунун	-9.7004
▁тая	-9.70047
▁арзан	-9.70092
▁чарасы	-9.70111
фор	-9.70135
▁бөлүп	-9.70165
▁Алексей	-9.70202
▁ГЭС	-9.70202
▁лагер	-9.70209
▁G	-9.70263
12	-9.70283
▁жүрүү	-9.70293
лорго	-9.70319
▁заман	-9.70407
▁32	-9.70442
▁фактылар	-9.70457
▁коррупциялык	-9.70504
▁сыйлык	-9.70578
▁болгондордун	-9.70699
▁маданий	-9.70776
▁автордук	-9.70776
▁теле	-9.70813
▁Чолпон	-9.70967
▁көчүр	-9.70976
18	-9.70993
▁Путинди	-9.70998
дармек	-9.71026
▁милдеттүү	-9.71074
▁комиссиясынын	-9.71087
улду	-9.71112
▁Совет	-9.7116
▁келтирген	-9.71193
▁консул	-9.71198
▁кызматташ	-9.71226
▁M	-9.71286
▁сүйлөп	-9.7135
▁маанай	-9.71353
▁блогер	-9.71353
тив	-9.71357
▁Темир	-9.71397
▁бизди	-9.71461
▁класс	-9.71478
▁кеме	-9.7152
бул	-9.71599
▁табылды	-9.71602
▁музей	-9.71753
▁Атамбаевдин	-9.71777
▁жайгашты	-9.71781
▁чыгышы	-9.71781
▁башкача	-9.71855
▁мекен	-9.71872
▁жүргөнү	-9.71895
▁уюштурган	-9.72007
▁кадр	-9.72128
▁рубл	-9.72131
▁кайда	-9.7236
▁терс	-9.7237
▁бөлүштү	-9.72465
▁ачып	-9.72491
▁Ошону	-9.72536
▁чакыруу	-9.72552
▁кечинде	-9.72609
▁Балдар	-9.72618
▁кары	-9.72785
дөрү	-9.72806
▁коомчулукта	-9.72807
▁ишканасы	-9.72826
▁алабыз	-9.73118
лешкен	-9.73197
үмдү	-9.73247
▁окуяны	-9.73255
▁кезекте	-9.73292
▁ыраазы	-9.733
▁Уюмунун	-9.7334
эне	-9.73482
▁Бакыт	-9.73501
▁учуп	-9.73503
▁медал	-9.73524
▁сүйлөшүп	-9.7358
▁арадагы	-9.73591
▁Ни	-9.73615
▁Тажикстанда	-9.73693
▁көпчүлүгү	-9.73694
иктер	-9.73779
▁кагып	-9.73892
▁кайрылды	-9.73923
▁башталгандан	-9.73963
▁Билим	-9.73978
▁абалды	-9.74049
▁өспүрүм	-9.74089
▁мугалимдер	-9.7409
▁кысым	-9.74096
es	-9.74107
▁Кызыл	-9.74158
▁ачкан	-9.74255
▁Үч	-9.74275
▁Мадумаров	-9.74288
▁сөзсүз	-9.74289
▁Ороз	-9.74313
▁күчтөрүнүн	-9.74451
▁узар	-9.74567
▁Польша	-9.74885
▁кыймылы	-9.74974
▁аялдардын	-9.75154
▁аймагындагы	-9.75156
▁тура	-9.75192
▁келбейт	-9.75214
▁кезек	-9.7522
▁алдындагы	-9.75258
▁кандуу	-9.75262
▁жетектеген	-9.75286
Ц	-9.75286
▁жою	-9.75294
▁курама	-9.75317
▁кичи	-9.75386
▁билет	-9.75451
▁Жети	-9.75476
октябрь	-9.75487
▁Дональд	-9.75487
▁чөлкөм	-9.75487
▁автобус	-9.75689
▁жасоо	-9.75696
▁билдирүүсү	-9.75735
▁айылынын	-9.75741
▁бошотул	-9.75879
административдик	-9.75889
▁буйрук	-9.75889
▁келечек	-9.7589
▁келишкен	-9.7589
▁адвокаты	-9.75942
▁Ри	-9.75957
▁салышты	-9.75987
▁мамлекеттердин	-9.76049
▁элчилик	-9.76087
▁кыйноо	-9.761
▁соттолгон	-9.76115
▁угу	-9.76136
▁төрага	-9.76273
▁активдүү	-9.76337
советтик	-9.76409
▁катталып	-9.76436
дашты	-9.7647
▁жуу	-9.7647
▁коммерция	-9.76497
фер	-9.76625
▁Евразия	-9.767
▁кырсыгы	-9.767
▁Оору	-9.76725
▁агенттик	-9.76736
▁келбей	-9.76836
▁жашка	-9.76972
▁жарыялап	-9.76991
бекова	-9.76992
түз	-9.77015
▁көзөмөлдөө	-9.77034
▁жуккан	-9.77112
▁түштүк	-9.77294
▁Осмон	-9.77312
▁окшойт	-9.77312
▁келатат	-9.77313
▁дүкөн	-9.77319
▁Абдул	-9.77435
▁мэри	-9.77439
H	-9.77517
▁Гу	-9.77535
▁өкмөтүнүн	-9.77605
кубат	-9.77667
▁укуктуу	-9.77672
▁калктын	-9.77708
▁айтат	-9.77808
▁Ооганстанда	-9.77878
ЕАЭБ	-9.77928
▁45	-9.77934
▁сактагыч	-9.77947
▁күнөө	-9.7798
▁мүнөздө	-9.77981
▁Азиядагы	-9.78047
▁четте	-9.78059
▁үйү	-9.78067
▁жашта	-9.78111
▁Жакында	-9.78174
▁телеканал	-9.78233
▁пикирлер	-9.78336
▁Кээ	-9.78336
▁тизмесин	-9.7834
▁чектеш	-9.78343
▁комиссиянын	-9.78364
енко	-9.78422
▁Айыл	-9.78512
▁Дүйшөмбү	-9.78548
▁саналып	-9.78551
▁абагында	-9.78554
▁коомдун	-9.7864
▁чеги	-9.78817
▁Фа	-9.78829
▁дүйнөдөгү	-9.78909
▁командасы	-9.79
▁коро	-9.79058
▁ашты	-9.79072
▁билдирүүлөр	-9.79102
▁аймактагы	-9.79212
▁Ру	-9.79254
▁тараптын	-9.79285
▁финансы	-9.79381
▁айыпталып	-9.79381
▁берилип	-9.79386
▁мезгилде	-9.79403
▁көрсөтүл	-9.79438
фе	-9.79582
▁шайланган	-9.79597
▁бийлигинин	-9.79631
▁жетишкен	-9.79633
▁Кабул	-9.79675
▁коркунучу	-9.79676
▁күчөп	-9.79691
▁экономикасы	-9.79724
▁окуган	-9.79753
▁вирусту	-9.79914
▁Про	-9.79957
▁арасынан	-9.80001
▁Стамбул	-9.80009
▁музыка	-9.80016
▁жетекчилер	-9.80016
▁күчү	-9.80058
▁ташта	-9.80202
▁өсүп	-9.8022
▁калкы	-9.8039
▁Азырынча	-9.80433
▁салыш	-9.80477
▁жатты	-9.80675
▁делген	-9.80686
▁энергиясын	-9.80691
▁чама	-9.80711
▁Улан	-9.8075
▁мурунку	-9.80783
▁курулушу	-9.80842
▁табуу	-9.80883
▁оңой	-9.80896
▁пост	-9.8098
▁жүздөгөн	-9.81067
▁изилде	-9.81068
▁балдарды	-9.81179
▁айтышкан	-9.81211
▁жамаат	-9.81283
есс	-9.81298
▁тараган	-9.81308
▁Крым	-9.81321
▁Канат	-9.81344
▁150	-9.81367
▁Баары	-9.81404
▁ою	-9.81424
▁Мирзиёев	-9.81493
▁юрист	-9.81496
▁анча	-9.81537
Бул	-9.8154
ташкан	-9.81564
▁органдарынын	-9.81579
▁жоокер	-9.81609
▁мына	-9.8168
▁болбосун	-9.81706
▁депутаттык	-9.81734
▁натыйжа	-9.81806
▁чыгышкан	-9.81814
▁Бишкекке	-9.81836
▁алышат	-9.81838
▁кайтаруу	-9.8187
22	-9.82021
▁бүтүн	-9.82156
▁дүйнөнүн	-9.82224
▁жазуу	-9.82249
▁жугузуп	-9.8235
▁Ве	-9.82355
▁сунуштаган	-9.82386
▁бөлмө	-9.8245
торлор	-9.82511
▁кирет	-9.82525
▁тургун	-9.82552
тивдүү	-9.82566
▁мечит	-9.82568
▁мырза	-9.82781
▁дипломатиялык	-9.82816
▁калыс	-9.82863
▁Мекен	-9.8296
▁билдир	-9.82971
▁Италия	-9.83001
▁эсебинде	-9.83012
▁сындап	-9.83153
Ко	-9.83183
▁Британиянын	-9.83195
▁бирдиктүү	-9.83217
▁башкалар	-9.83225
▁журналисттерге	-9.83235
▁мурас	-9.83237
▁Министрлик	-9.83244
▁айтыл	-9.83282
терде	-9.83322
▁соз	-9.83413
▁жумган	-9.83457
чачын	-9.83624
▁29	-9.83631
▁Рыс	-9.8365
▁саналган	-9.83653
▁атаган	-9.83686
▁өндүрүү	-9.83868
жылкы	-9.83922
▁жарандарды	-9.84028
▁2024-	-9.84087
▁сайтында	-9.84209
▁пайызы	-9.84257
▁демократиялык	-9.84295
▁Саясат	-9.84307
▁Окуя	-9.84307
▁Социалдык	-9.84307
▁чече	-9.84321
лүктү	-9.84361
▁сынак	-9.84367
▁ырастады	-9.84408
24	-9.84506
имди	-9.84581
▁коло	-9.84614
▁айланып	-9.84686
▁күмөн	-9.84747
▁жактоочу	-9.84751
▁кыйнал	-9.84759
▁34	-9.8476
▁улантуу	-9.84814
21	-9.84833
▁долларды	-9.84836
▁жиберген	-9.85033
макчы	-9.85086
▁колдоосу	-9.85164
▁СССР	-9.85189
лануу	-9.85312
▁жолду	-9.85397
f	-9.8541
▁Текебаев	-9.85416
▁унут	-9.85564
▁фракциясы	-9.85682
▁сүрөттө	-9.85711
▁отурат	-9.85746
амы	-9.85776
▁импорт	-9.85855
▁машыгуу	-9.85855
▁клиника	-9.85859
▁тилинде	-9.85894
▁койсо	-9.85895
▁айтса	-9.85929
▁Көк	-9.85972
▁кесепети	-9.8605
▁акыйкат	-9.86078
▁массалык	-9.86078
▁эскерткен	-9.86117
▁алышты	-9.86189
▁жолдору	-9.86209
▁окуучу	-9.86309
▁беришти	-9.86336
▁үйдүн	-9.86363
▁мигрант	-9.86408
▁беришкен	-9.86455
▁түндүк	-9.86527
▁жумду	-9.86529
▁кошкон	-9.86552
▁ишканасынын	-9.8657
▁бел	-9.8658
▁миллиондон	-9.86616
▁кошуна	-9.86645
өбө	-9.86646
▁анткени	-9.86751
▁протокол	-9.86751
▁Жыйын	-9.86759
▁бүткөн	-9.86782
▁мекенине	-9.87149
▁тегерегинде	-9.87202
▁айланган	-9.8721
▁коопсуздугу	-9.87216
шууда	-9.87254
▁радиосуна	-9.8729
▁Октябрь	-9.87428
▁Чыңгыз	-9.87428
▁божомол	-9.87428
жу	-9.87498
▁чабуулдар	-9.87514
▁кезектеги	-9.8755
▁сүйлөшүүлөрдү	-9.87664
▁400	-9.87726
▁сунуштар	-9.87741
▁жолку	-9.87764
▁борбордук	-9.87837
▁Райымбек	-9.87882
▁кетишкен	-9.87884
▁чыныгы	-9.87887
▁Ле	-9.87907
▁сапат	-9.87964
▁өлкөлөргө	-9.87998
▁окутуу	-9.88027
Е	-9.88058
▁чечимди	-9.88158
▁колдонгон	-9.88236
▁жайкы	-9.88246
▁армия	-9.88368
▁Аскер	-9.88419
▁жүргүнчү	-9.88567
▁бөлүк	-9.88572
▁Ооганстандын	-9.88594
▁карапайым	-9.88614
▁эсеби	-9.88719
▁лицензия	-9.88797
▁мээ	-9.88819
▁тартты	-9.8883
▁талкала	-9.88895
▁Москвадагы	-9.88906
▁тест	-9.89018
▁карта	-9.89023
▁Жеңиш	-9.89027
▁жолугуп	-9.89032
▁долбоорунун	-9.89104
▁өзгөрүүлөр	-9.89104
▁жарандыгын	-9.89141
▁Карабак	-9.89264
▁Абду	-9.89402
▁кампа	-9.89404
▁Согуш	-9.89494
▁кагылыш	-9.89518
▁Мама	-9.89551
▁өкмөттүк	-9.89587
дешти	-9.89597
Коррупция	-9.89719
▁өстү	-9.89721
▁31	-9.89881
▁жыйынтыгында	-9.89997
▁кое	-9.90035
▁банктар	-9.90036
▁дайыма	-9.9012
▁Анкара	-9.90187
▁жобо	-9.90188
▁бирикме	-9.90188
▁санитардык	-9.90195
▁норма	-9.90197
▁маал	-9.90199
▁такыр	-9.902
▁маалымдоо	-9.90228
▁келбеген	-9.90228
▁сүйлө	-9.90233
▁стратегиялык	-9.90271
▁уланууда	-9.90273
▁көбөйүп	-9.90417
▁татаал	-9.90423
▁жашыруун	-9.90432
▁айтылууда	-9.90441
▁журналисттердин	-9.90493
▁сыноо	-9.90635
▁камера	-9.90653
▁таратып	-9.90708
▁облустарында	-9.90771
▁турду	-9.90819
▁Жалпы	-9.90871
▁жетишсиз	-9.90885
▁Голд	-9.90897
▁күчүнө	-9.90925
▁ташуучу	-9.90945
▁нарк	-9.90974
▁дрон	-9.9103
▁куту	-9.91051
▁Германиянын	-9.9114
▁технология	-9.91172
▁Азиз	-9.91184
▁атуу	-9.91187
▁сураган	-9.91244
▁телеканалы	-9.91252
▁тарыхы	-9.91344
▁имараты	-9.91363
▁үйрөн	-9.9138
▁баштайт	-9.91543
▁албайбыз	-9.91573
▁жоюу	-9.91586
З	-9.91587
▁бөлүнгөн	-9.91591
▁Өлкө	-9.91634
▁радиосунун	-9.91678
▁көл	-9.91687
▁Парламент	-9.91704
▁басымдуу	-9.91815
▁Шер	-9.91934
▁температурасы	-9.91973
▁Ооганстандагы	-9.92041
▁макамы	-9.92077
▁өлтүрүү	-9.92107
▁кыймылынын	-9.92117
өзү	-9.92295
▁регион	-9.9254
▁алмашуу	-9.92544
▁токтотуп	-9.92544
▁төмөнкү	-9.92559
▁кармаган	-9.92575
▁Го	-9.92707
▁тапшырган	-9.92717
▁коопсуз	-9.92726
▁валюта	-9.92778
▁Тегеран	-9.92779
▁студент	-9.9299
▁өтүшү	-9.93024
▁өлүмүнө	-9.93089
ография	-9.9311
лог	-9.93147
▁Не	-9.93379
▁жердеги	-9.93453
▁сыртка	-9.93475
бүздү	-9.93485
үбүз	-9.93497
▁пенсия	-9.93498
▁беткап	-9.93503
▁көрсөттү	-9.93518
экономикалык	-9.93525
▁Исаков	-9.93533
▁куруп	-9.93547
▁кеңсеси	-9.93659
▁Ирак	-9.93688
▁өкүл	-9.93738
▁куткаруу	-9.93739
U	-9.93739
▁суткада	-9.93741
▁соңунда	-9.93746
▁коомдо	-9.9379
▁сындаган	-9.938
▁угуп	-9.93823
▁соттор	-9.93825
▁каттамдар	-9.93882
▁акциялар	-9.9393
▁килограмм	-9.9398
▁Абд	-9.9413
▁тилек	-9.9417
▁Жарандык	-9.94223
▁келишимди	-9.9437
▁чараларды	-9.9437
▁эркек	-9.94404
▁жөнөкөй	-9.94465
▁саламаттыгы	-9.94465
▁аймакты	-9.94531
▁тактоо	-9.94678
▁түшүндүрмө	-9.9469
▁провинция	-9.94709
▁делегация	-9.94711
▁талдоочу	-9.94713
▁бириктир	-9.94713
▁беребиз	-9.94719
бири	-9.9472
▁кошуу	-9.94975
▁Марат	-9.95138
бирине	-9.95151
▁ислам	-9.95197
▁Айтматов	-9.95198
▁жубайы	-9.95215
▁37	-9.95232
▁жарадар	-9.95331
▁жатса	-9.95441
▁июнь	-9.95443
▁токтолду	-9.95449
Султан	-9.95498
▁кас	-9.95582
▁кабинети	-9.95614
▁үйүндө	-9.95724
▁айыпталган	-9.95735
▁өзгөрүү	-9.95851
▁документтерди	-9.95873
▁атынан	-9.95954
▁чыгара	-9.96222
▁жүрүшүндө	-9.96254
▁түрмөдө	-9.96262
▁түзүлүп	-9.96332
▁объект	-9.96417
▁Маданият	-9.96428
▁таанышты	-9.96732
▁эркектер	-9.96741
▁өлкөнү	-9.96846
▁схема	-9.96925
▁эвакуация	-9.96925
▁көркөм	-9.96927
▁сүйлөгөн	-9.96997
▁44	-9.9701
▁ооруканалар	-9.97018
▁сапаты	-9.97147
▁профессор	-9.97175
▁Асан	-9.97177
▁каржылоо	-9.97217
▁үзгүлтүк	-9.97425
▁жөө	-9.97443
▁айыптаган	-9.97498
▁1,5	-9.97507
Ш	-9.97571
▁ижара	-9.97675
▁жүрдү	-9.97682
▁Сауд	-9.97684
▁сүйлөшкөн	-9.97702
▁тийген	-9.97711
▁төмөн	-9.97751
▁инсан	-9.97928
▁жардыруу	-9.9793
▁айланды	-9.97968
▁Нурлан	-9.98124
▁тизмесине	-9.98126
▁мекеменин	-9.9815
▁канааттан	-9.98178
▁Париж	-9.98179
▁жүрүшү	-9.98196
▁мэриясы	-9.98214
▁силер	-9.98285
▁кабарлагандай	-9.98301
▁көтөргөн	-9.98335
▁тарапташтары	-9.98431
▁Жазык	-9.98432
▁кадыр	-9.98504
▁Базар	-9.98574
▁көбөйт	-9.98654
▁Ленин	-9.98765
▁салууну	-9.98791
▁ташып	-9.98863
▁өңдүү	-9.98938
▁форум	-9.98938
▁анти	-9.99009
▁Өлкөдө	-9.99076
▁буларды	-9.99145
▁мерт	-9.99156
ZKo	-9.99192
▁кадимки	-9.99192
Вагнер	-9.99193
▁министрлер	-9.99214
▁көтөрүлүп	-9.99217
өөнү	-9.99235
▁илимдер	-9.99335
▁артында	-9.99408
▁ишмердүүлүгү	-9.99448
▁тушунда	-9.99706
▁которуу	-9.99918
▁Молдо	-9.99922
▁дыйкан	-9.9996
▁алдыңкы	-9.99961
▁салмакта	-9.99987
▁прокуратурасы	-10.0013
▁күнөөсү	-10.0017
▁жеринен	-10.0023
▁таба	-10.0026
▁борборунда	-10.0035
▁банктын	-10.0038
▁Беларуста	-10.0043
▁коюлду	-10.0051
▁түшүндүрдү	-10.0052
▁окуяларды	-10.0053
▁мамилелер	-10.0055
▁балл	-10.0056
▁кытайлык	-10.0064
▁Компани	-10.0073
▁аралыгында	-10.0073
▁балбан	-10.0073
▁радикал	-10.0073
▁кабарчысы	-10.0079
▁мектепте	-10.0085
▁мааниси	-10.0099
▁пункт	-10.0099
▁келечеги	-10.0099
▁38	-10.01
▁чогулуп	-10.0119
▁Өмүр	-10.0122
▁Жалпысынан	-10.0127
▁Көлбаев	-10.0133
▁китептер	-10.0166
▁даярдоо	-10.0167
▁жарлык	-10.0172
▁Дастан	-10.0173
▁алмаштыруу	-10.0177
▁көбөйдү	-10.0177
▁биримдиги	-10.0178
▁кылышкан	-10.0179
▁күчөтүү	-10.0187
▁койбо	-10.0194
▁кытай	-10.0202
▁психолог	-10.0204
▁окшош	-10.0204
▁аткарып	-10.021
▁алмаштыр	-10.0211
▁эгемендик	-10.0213
▁ролу	-10.022
▁Руслан	-10.023
▁жакшыртуу	-10.0231
▁көтөрүлгөн	-10.0233
▁оппозициялык	-10.0236
▁полициясы	-10.0241
▁күнүнө	-10.0248
▁кызуу	-10.0251
▁кармаш	-10.0254
▁иштебей	-10.0266
▁берки	-10.0278
▁Документ	-10.0282
▁конституциялык	-10.0282
ЖККУ	-10.0282
▁жашайт	-10.0283
▁көздөп	-10.0283
▁бошотулган	-10.0284
▁чечимине	-10.0293
▁коомчулуктун	-10.032
▁агенттигинин	-10.0333
▁идея	-10.0335
▁түздү	-10.0341
▁айдоочулар	-10.0349
▁кошуп	-10.0358
Твиттер	-10.0362
▁кылышты	-10.039
▁абагына	-10.039
▁Андыктан	-10.0394
▁колдой	-10.0395
▁ашып	-10.0399
▁келишимдер	-10.0415
Бүтүн	-10.0416
▁бомба	-10.0416
▁жатпайбы	-10.0416
▁текшерип	-10.0427
▁ийгилик	-10.0437
▁уруш	-10.0442
▁ээлеп	-10.0442
▁Астана	-10.0444
▁алынат	-10.0448
▁жайылышы	-10.0452
▁тармак	-10.0458
беренесинин	-10.0459
▁Талант	-10.047
▁аткаминерлер	-10.0472
▁дарылоо	-10.0476
леген	-10.0478
▁азайтуу	-10.0481
▁жүргөндө	-10.0487
▁Темиров	-10.0497
▁радиосу	-10.0501
▁жообу	-10.0502
▁дешет	-10.0523
▁48	-10.0532
▁турабыз	-10.0541
▁көздөгөн	-10.055
▁75	-10.055
▁жарылуу	-10.0551
▁кеңештин	-10.0558
Кызмат	-10.0561
▁Токтогул	-10.0577
▁Бейшеналиев	-10.0578
▁катышуусу	-10.0589
▁кагылышуу	-10.0601
▁Трамптын	-10.0604
▁түшүндүрүү	-10.0618
▁кошулган	-10.0625
▁белгилейт	-10.0629
▁жүгүртүү	-10.0632
▁Сузак	-10.0633
▁пайдаланып	-10.0643
▁жаратып	-10.0647
▁берерин	-10.0653
▁казакстандык	-10.0659
▁нерсени	-10.0677
▁Рахмон	-10.0687
▁мүнөт	-10.0687
▁Министр	-10.0701
▁тобокел	-10.0714
▁билдиришкен	-10.0714
▁айыптады	-10.0715
▁райондо	-10.0718
▁Орто	-10.0731
▁тарыхында	-10.0738
▁Асанов	-10.074
щ	-10.0742
▁бейөкмөт	-10.0742
▁албетте	-10.0742
▁сутка	-10.0743
Ислам	-10.0767
▁мойнуна	-10.077
▁Каракол	-10.077
▁юридикалык	-10.0797
▁жашоосу	-10.0799
▁кыял	-10.0802
▁натыйжалуу	-10.0805
▁вариант	-10.0825
▁бекемдөө	-10.0827
▁шаарларында	-10.083
▁Өкмөттүн	-10.0831
▁Кайра	-10.0836
▁көмөк	-10.0853
ишке	-10.0855
▁мөөнөткө	-10.0866
▁быйылкы	-10.0867
▁аткыла	-10.0869
▁колунда	-10.0874
▁700	-10.0878
▁ойдо	-10.0881
▁генерал	-10.0881
▁көпүрө	-10.0883
жерлерде	-10.089
экстремисттик	-10.0909
жөнү	-10.0917
▁өлкөлөрүнүн	-10.0928
▁бузуп	-10.0938
▁иштелип	-10.0942
▁үйлөрдү	-10.0957
▁климатты	-10.0966
▁лаборатория	-10.0966
▁катышуучулары	-10.0968
евич	-10.0971
▁ташуу	-10.098
Ша	-10.0987
▁утуп	-10.0995
▁Никол	-10.0998
▁өздөрүнүн	-10.1013
▁реакция	-10.1023
▁көчүп	-10.1023
▁объектилер	-10.1024
▁жолугушуусу	-10.1026
▁Лейлек	-10.1051
▁башталып	-10.1067
▁бурул	-10.1072
▁жоокерлер	-10.1073
▁уран	-10.1077
▁товарларды	-10.1077
▁Максат	-10.108
▁Алгач	-10.1083
▁ресурс	-10.109
слав	-10.1097
▁Эмгек	-10.1108
▁Менимче	-10.1108
▁бөлүнүп	-10.1108
▁каккан	-10.1108
▁эсебинен	-10.1109
▁таратты	-10.1109
▁окумуштуулар	-10.1124
▁башталат	-10.1124
▁уккан	-10.1132
▁Кир	-10.1136
▁Жакынкы	-10.1137
▁келтирилген	-10.1141
▁клуб	-10.1166
▁оңдоо	-10.1174
▁таанылган	-10.1184
▁Сапар	-10.1186
▁Лондон	-10.1195
▁күмүш	-10.1195
▁Азамат	-10.1195
▁аткылоо	-10.1195
▁кылабыз	-10.1215
▁коштол	-10.122
▁чач	-10.1222
эпидемиологиялык	-10.1224
▁федерация	-10.1224
▁Беларустун	-10.1232
▁басылмалар	-10.1253
▁кереги	-10.1253
▁турушат	-10.1256
▁Во	-10.1257
▁Балким	-10.1282
▁миссия	-10.1282
▁Дмитрий	-10.1311
▁качкындар	-10.1311
▁фирма	-10.1311
▁тыйын	-10.1311
▁багытында	-10.1318
▁астында	-10.1321
▁тармакта	-10.1323
▁принцип	-10.134
▁инвесторлор	-10.1346
▁өткөрдү	-10.1362
▁себептен	-10.1369
▁Акыйкатчы	-10.137
▁Шинжаң	-10.137
▁үйрөт	-10.1371
▁узун	-10.1371
▁Канада	-10.1374
▁кайрылуусунда	-10.1375
▁китеби	-10.1399
▁жеңип	-10.14
▁жылуулук	-10.14
▁милициясы	-10.1418
▁губернатор	-10.1429
▁автоном	-10.1429
▁Курманбек	-10.1429
▁биримдик	-10.143
▁белгиленди	-10.1431
▁жуктурган	-10.1431
▁дарылануу	-10.1433
▁түзүмдөрү	-10.1435
▁эже	-10.1444
▁жеткирилген	-10.1462
итардык	-10.1465
▁батыш	-10.1467
om	-10.1468
▁фондунун	-10.1486
▁райондордо	-10.1489
▁төлөмдөр	-10.149
▁түзүлүш	-10.1493
▁натыйжасында	-10.1497
▁корутунду	-10.1518
▁жикчил	-10.1518
▁Замир	-10.1522
▁мөөнөтүнө	-10.1523
kg	-10.1523
▁уюштуруп	-10.1524
▁Мекеме	-10.1541
▁Мамытов	-10.1548
▁Азим	-10.1553
▁кезинде	-10.1556
саясий	-10.1556
▁бузуулар	-10.1564
▁Экинчиден	-10.1569
▁Адвокат	-10.1578
▁Жусуп	-10.1578
▁көбөйтүү	-10.1583
▁имараттар	-10.1588
▁күндүк	-10.159
▁орнотуу	-10.1601
▁инфраструктура	-10.1608
▁каттоодон	-10.1623
▁жекшемби	-10.1639
▁берилбей	-10.1639
штырып	-10.1644
▁Араб	-10.1651
▁Харьков	-10.1669
▁айрыкча	-10.1669
▁Шарше	-10.1669
зомбулук	-10.1679
▁репрессия	-10.1699
▁2012-	-10.1699
▁жабуу	-10.1702
класс	-10.171
▁товарлар	-10.1715
el	-10.1722
▁киргизип	-10.1725
▁Африка	-10.173
▁келерин	-10.1745
▁аралашкан	-10.1751
▁ЖЭБ	-10.176
пресс	-10.1764
▁жолуккан	-10.1766
▁абакка	-10.1772
▁Парламентти	-10.1776
апрелге	-10.1791
▁дайынсыз	-10.1791
▁жөнөткөн	-10.1791
▁каарман	-10.1791
▁жуктуруп	-10.1791
▁артыкчылык	-10.1791
▁токой	-10.1791
▁тосуп	-10.1791
▁чыкса	-10.1792
▁пе	-10.1794
Орусия	-10.1803
▁туризм	-10.1805
▁ракеталар	-10.1809
▁коюшкан	-10.1811
айкын	-10.1814
▁Төрө	-10.1822
▁жаратылыш	-10.1822
▁Өлкөнү	-10.183
▁түзүм	-10.1841
▁муз	-10.1851
▁чагы	-10.1859
▁43	-10.186
▁мусулмандар	-10.1864
▁рол	-10.1867
▁Кубанычбек	-10.1884
▁отчет	-10.1884
▁Коом	-10.19
▁союз	-10.1914
▁мейманкана	-10.1915
▁кепилдик	-10.1915
▁азайт	-10.1918
▁ташыган	-10.1918
▁уюшкан	-10.1946
▁Бардык	-10.1946
▁козголуп	-10.1948
дуулук	-10.1948
▁жаатта	-10.1975
▁айыпталуучу	-10.1977
▁айтышууда	-10.1982
▁мусулман	-10.1997
▁Херсон	-10.2008
▁өнөктүгү	-10.2008
▁тейлөө	-10.2008
▁Нью	-10.2008
▁65	-10.2015
▁сезил	-10.202
▁экономиканы	-10.204
▁күчөгөн	-10.2043
▁ысымы	-10.2065
▁буйругу	-10.2071
▁көмөктөш	-10.2071
▁мобилизация	-10.2071
▁өлчөмү	-10.2071
▁көбүнчө	-10.2072
▁евро	-10.2073
▁доза	-10.2074
▁өткөрмө	-10.2079
▁коюшту	-10.2092
▁курамында	-10.2102
▁умтул	-10.2105
▁кылынган	-10.2105
▁жаайт	-10.2118
▁тилкесинде	-10.2118
өзбек	-10.2121
▁ресурстары	-10.2124
▁Адистер	-10.2135
▁Төрт	-10.2136
▁тагылган	-10.2136
▁сыйлыгы	-10.2173
▁чегинде	-10.2175
▁жарлыгы	-10.2176
конференция	-10.2199
▁кызыкчылыктар	-10.22
▁реалдуу	-10.2205
ошого	-10.2214
▁далилдер	-10.2214
▁баалуулуктар	-10.2231
▁заманбап	-10.2231
▁наам	-10.2234
▁эсептелет	-10.2236
▁өрөөнүндө	-10.2248
Ы	-10.225
▁жүргүзүлгөн	-10.2251
▁ийгиликтүү	-10.2269
▁шилтеме	-10.2295
▁украиналык	-10.2295
▁түрлөрү	-10.2296
▁түйүндөр	-10.23
▁киргизилди	-10.23
ѳ	-10.2327
▁Пандемия	-10.2327
▁камтылган	-10.2328
▁курулган	-10.2342
▁Мурат	-10.2342
▁сүт	-10.2349
▁фактор	-10.2353
▁Натыйжада	-10.236
▁Равшан	-10.236
▁кечир	-10.2362
▁дайым	-10.2372
▁ачылды	-10.2373
▁агент	-10.2387
пикир	-10.2387
▁какты	-10.2393
▁Минск	-10.2393
▁Молдова	-10.2397
▁урмат	-10.2415
▁технологиялар	-10.2418
▁Абылгазиев	-10.2425
▁депортация	-10.2425
Адилет	-10.243
▁мүлктү	-10.2431
▁негизсиз	-10.2433
▁тармакты	-10.2434
▁41	-10.2442
G	-10.2447
▁Кандай	-10.2461
▁Сөз	-10.2462
▁түшүндүрмөсү	-10.2469
▁видеолор	-10.2484
▁эмгеги	-10.2491
▁өндүрүл	-10.2491
▁Сыдыков	-10.2491
▁адатта	-10.2498
▁ишенимдүү	-10.2498
▁төрөлгөн	-10.2524
▁билдирет	-10.2531
▁Экс	-10.2538
▁Мухаммед	-10.2557
Центерра	-10.2557
▁тиреш	-10.2557
▁алынышы	-10.2558
▁кеңешме	-10.2577
▁чечип	-10.2577
▁бөлүш	-10.258
▁төрайымы	-10.259
▁айыгып	-10.259
▁өкүн	-10.2591
▁чыкпа	-10.2599
Бишкек	-10.2615
▁кылымда	-10.2616
▁териштир	-10.262
▁кооптонуу	-10.2623
▁качкан	-10.2623
▁ылдам	-10.2624
▁британ	-10.2624
▁токтоткон	-10.2624
▁жоготуулар	-10.2624
▁Алмаз	-10.2625
▁Коомдук	-10.2628
▁кечээ	-10.2629
▁душман	-10.2657
▁жөнөтүлгөн	-10.2657
▁созулган	-10.2658
▁кечирим	-10.2661
▁орточо	-10.2664
компания	-10.2683
▁тескерисинче	-10.269
▁келишти	-10.2694
▁директор	-10.2706
▁редакция	-10.2724
аракеттер	-10.2725
▁контр	-10.2748
▁жогол	-10.2756
▁көмүскө	-10.2758
▁концерт	-10.2792
▁армян	-10.2792
▁чакырылыш	-10.2794
▁Көз	-10.2809
▁мүнөз	-10.2817
▁кеңешчиси	-10.2826
▁капитал	-10.2826
▁кетишти	-10.2829
▁айларында	-10.2829
▁муниципалдык	-10.286
▁титирөө	-10.286
▁сөөк	-10.286
▁кафе	-10.2861
▁кириши	-10.2875
турум	-10.2884
Же	-10.2886
▁тирүү	-10.2896
▁күйүүчү	-10.2897
▁талант	-10.2902
▁эфир	-10.2929
▁өлтүрүлгөн	-10.2932
▁сектор	-10.2935
екция	-10.2948
▁Бейше	-10.2963
▁мекендештер	-10.2963
▁таштанды	-10.2964
▁жаратты	-10.2971
▁эскерүү	-10.2973
▁чыгармалары	-10.299
▁Долбоор	-10.2998
▁шамал	-10.3005
▁буруу	-10.3017
▁Блинкен	-10.3032
▁мазмун	-10.3032
▁акими	-10.3042
▁Мектеп	-10.3067
x	-10.3067
▁жалаң	-10.3067
▁ушунча	-10.3068
▁качуу	-10.3068
▁Каримов	-10.3078
▁радио	-10.3089
Авто	-10.3102
▁Донецк	-10.3102
▁Юстиция	-10.3102
▁убактысы	-10.3102
▁чакырыктар	-10.3103
▁түрүндө	-10.3104
▁парк	-10.312
▁Нурсултан	-10.3137
▁Полиция	-10.3137
Тез	-10.3159
▁түрткү	-10.3172
▁чакты	-10.3173
▁дрондор	-10.3186
▁кайтыш	-10.3191
▁Венгрия	-10.3208
Кыя	-10.3236
▁БШКны	-10.3241
▁түркмөн	-10.3243
▁идеология	-10.3244
▁дүң	-10.3247
▁чочула	-10.3279
▁көрүнүп	-10.3279
▁тургай	-10.3281
▁Анткен	-10.3285
▁жолукту	-10.3293
▁балким	-10.3315
▁палестин	-10.3315
▁2005-	-10.3315
▁артынан	-10.3316
▁ачылышы	-10.3321
▁камалды	-10.3329
▁демонстранттар	-10.335
Журт	-10.3352
▁оппозициячыл	-10.3353
▁Адаха	-10.3372
▁түнкү	-10.3385
▁ошондуктан	-10.3386
▁жыйырма	-10.3386
▁өчүрүү	-10.3387
▁учагы	-10.3387
жемиш	-10.3398
▁кылмыштуулук	-10.3403
▁уюштур	-10.3418
▁Тажик	-10.3457
▁которулган	-10.3462
▁өтүнүч	-10.3478
▁олимпиада	-10.3495
▁Мирлан	-10.3495
Бел	-10.3523
▁Ноокат	-10.3532
▁Ооба	-10.3532
▁ортомчу	-10.3567
▁миллиондогон	-10.3605
▁Жолдош	-10.3605
▁өпкө	-10.3605
▁кенемте	-10.3642
▁актив	-10.3642
▁жогорулатуу	-10.3642
▁Шавкат	-10.3679
▁диалог	-10.3679
▁стандарт	-10.368
▁доктор	-10.368
▁Конгресс	-10.3716
▁баскыч	-10.3717
▁мушташ	-10.372
▁даана	-10.3727
▁Пригожин	-10.3753
▁агрессия	-10.3753
▁коалиция	-10.3753
▁кесилген	-10.3753
▁маяна	-10.3754
▁тинтүү	-10.3757
Рос	-10.377
▁Журналисттер	-10.3791
▁аннексия	-10.3791
▁каалоо	-10.3791
▁түйүн	-10.3824
▁күтүлүүдө	-10.3828
▁ыңгайлуу	-10.3828
▁азайып	-10.3829
демократтар	-10.384
▁кубаттуу	-10.3867
▁каптаган	-10.387
▁баңгизат	-10.3904
▁салгылаш	-10.3904
▁көтөрүү	-10.391
▁Пашинян	-10.3942
▁1990-	-10.3942
▁Саясий	-10.3942
▁милдеттенме	-10.3942
▁немис	-10.3942
▁чогултуп	-10.3942
▁Төлө	-10.3945
▁ээлеген	-10.3946
▁кызматкерлерини	-10.3947
▁эсептелген	-10.3947
▁ыйла	-10.3969
▁Саймаити	-10.398
▁грант	-10.398
▁жөнөтүү	-10.3986
▁көрүнүштөр	-10.401
▁2011-	-10.4019
▁Запорожье	-10.4019
▁глобалдык	-10.4019
▁журнал	-10.4025
▁жемкорлук	-10.4057
▁Михаил	-10.4057
▁Мамбет	-10.4057
▁жумушчулар	-10.4078
Кабар	-10.4085
▁Свердлов	-10.4096
▁рыногу	-10.4096
▁биргеликте	-10.4096
▁Токио	-10.4096
▁көтөрүлдү	-10.4098
▁олтур	-10.4104
▁орнотул	-10.4108
▁2013-	-10.4134
▁КМШ	-10.4134
▁пневмония	-10.4134
▁бербөө	-10.4135
▁Инанды	-10.4135
▁иниси	-10.4135
▁көтөрүлүш	-10.4135
▁мектеби	-10.4173
▁коридор	-10.4175
▁өнүм	-10.4176
▁жергесинде	-10.4177
пөгөн	-10.421
▁Энергетика	-10.4212
▁азайган	-10.4213
▁үстүндө	-10.4221
▁платформа	-10.4252
▁Бекешев	-10.4252
ӨКМ	-10.4252
▁архив	-10.4252
▁казуу	-10.4252
▁коомчулугу	-10.4291
▁талкаланган	-10.4294
▁бекер	-10.4294
▁тендер	-10.431
Социал	-10.433
▁сурамжылоо	-10.433
▁Улукбек	-10.4331
▁ченем	-10.4331
▁кейи	-10.4343
▁чаба	-10.4345
Y	-10.437
▁декларация	-10.437
Йорк	-10.437
▁курмандыктары	-10.4371
▁ашыгы	-10.4411
▁жүрүм	-10.4411
▁чыңалуу	-10.445
▁Кечээ	-10.445
▁отуз	-10.445
▁шылтоо	-10.445
▁Боронов	-10.445
▁жаткырыл	-10.4452
октябрга	-10.449
▁негиздөөчүсү	-10.449
▁жеңүүчү	-10.449
▁эшик	-10.4491
▁зона	-10.4493
▁Жаныбек	-10.4508
▁которгон	-10.4543
▁өнүгүшү	-10.4571
Петербург	-10.4571
▁маңзат	-10.4571
▁буудай	-10.4571
Биримдик	-10.4572
▁түс	-10.463
Й	-10.4649
▁өзгөрүшү	-10.4652
▁Андрей	-10.4652
▁Сулайманов	-10.4652
▁биргелешип	-10.4652
▁Үсөн	-10.4653
▁Маркум	-10.4653
▁түштүгүндө	-10.4655
▁Каныбек	-10.4656
▁арбын	-10.4657
▁эместигин	-10.4657
▁дайындоо	-10.4693
▁Макрон	-10.4693
▁революция	-10.4693
▁ачкачылык	-10.4694
▁козгогон	-10.4699
▁татыктуу	-10.4735
▁кемчиликтер	-10.4735
▁Партия	-10.4735
БШК	-10.4758
▁Зулушев	-10.4776
▁резолюция	-10.4776
▁өлчөмдө	-10.4776
▁Ливан	-10.4776
Коргон	-10.4777
▁нааразылыгын	-10.4777
▁ураан	-10.4782
▁ажыратылган	-10.4818
ификация	-10.4818
▁диплом	-10.4823
▁коркутуп	-10.4859
▁бюро	-10.4859
▁теске	-10.4859
Донбасс	-10.4901
▁дуушар	-10.4901
▁криминал	-10.4901
▁Режеп	-10.4901
▁жетишпей	-10.4901
▁Бабанов	-10.4901
▁жигердүү	-10.4943
▁Испания	-10.4943
▁өзбекстандык	-10.4943
▁бойлуу	-10.4943
▁зор	-10.4955
Электр	-10.4986
▁анклав	-10.5027
▁интервью	-10.5027
▁Үчүнчү	-10.5028
▁чыңдоо	-10.5028
▁чектелген	-10.5028
▁Тарых	-10.5028
▁Вирус	-10.5028
▁ассоциациясы	-10.507
▁беларус	-10.507
▁англис	-10.507
▁жарнама	-10.507
▁жарыгы	-10.5071
▁рейтинг	-10.5113
▁тажикстандык	-10.5113
▁ыйгарыл	-10.5113
▁фронт	-10.5113
▁Айсулуу	-10.5113
▁намаз	-10.5113
▁Кубатбек	-10.5113
▁Чехия	-10.5113
▁опера	-10.5132
▁Дарыгерлер	-10.5156
▁жакырчылык	-10.5156
▁маалымдалды	-10.5156
▁коркутуу	-10.5156
▁учкучсуз	-10.5157
▁рейд	-10.5196
▁Иликтөө	-10.5199
▁көчкү	-10.5199
▁рынок	-10.5199
▁фракция	-10.5232
▁Австралия	-10.5242
▁жөлөк	-10.5242
▁тыгыз	-10.5244
▁күткөн	-10.5245
▁жоголгон	-10.5247
▁окумуштуу	-10.5262
▁стратегия	-10.5269
▁Премьер	-10.5286
▁жорук	-10.5286
▁санарип	-10.5286
▁салтанат	-10.5286
▁блок	-10.5287
▁Облус	-10.5329
▁ымыркай	-10.5329
▁Бийик	-10.5329
▁маалымдалган	-10.5329
▁чатыр	-10.5332
▁фестивал	-10.5373
▁кесиптештери	-10.5373
▁кичинекей	-10.5373
▁түндүгүндө	-10.5373
жартылай	-10.5373
▁этникалык	-10.5373
▁Махмуд	-10.5417
▁Сокулук	-10.5417
▁2009-	-10.5418
▁спектакл	-10.5461
▁Кочкор	-10.5461
▁шектелип	-10.5461
▁Швеция	-10.5461
▁белгилешет	-10.5462
▁Комиссия	-10.5506
▁ипотека	-10.5506
▁символ	-10.5506
▁авторлору	-10.5506
▁моралдык	-10.5506
▁Активист	-10.5506
▁электигин	-10.5508
▁Арабиясы	-10.551
▁колония	-10.5512
депутат	-10.5543
▁дүйшөмбү	-10.555
▁кезегинде	-10.555
▁өнүккөн	-10.555
намыс	-10.5579
▁өкүлчүлүгү	-10.5595
июлга	-10.5595
▁Токмок	-10.5595
▁азгыр	-10.5596
▁жугуштуу	-10.564
▁отургуз	-10.5641
▁өзгөрүп	-10.5686
▁Жолугушуу	-10.5686
▁2008-	-10.5686
▁Оппозиция	-10.5731
▁төңкөрүш	-10.5731
▁Литва	-10.5731
▁өчүрүл	-10.5732
▁мөңгү	-10.5777
▁чиркөө	-10.5777
▁Швейцария	-10.5777
▁драма	-10.5777
▁бычак	-10.5777
▁жабырлануучу	-10.5777
▁эмдел	-10.5778
▁баалады	-10.5778
▁совет	-10.5797
аракет	-10.5799
▁Кийинчерээк	-10.5823
▁Мариупол	-10.5823
▁авторитардык	-10.5823
▁тиркеме	-10.5823
▁эпидемия	-10.5823
▁көбөйө	-10.5823
▁тумоо	-10.5824
▁туруштук	-10.5869
▁бышык	-10.5869
▁жээгинде	-10.589
▁Гонконг	-10.5915
▁алектенген	-10.5915
▁өнүгүп	-10.5915
▁Борис	-10.5925
▁узартыл	-10.5938
▁мунапыс	-10.5962
▁Байсалов	-10.5962
▁Исаев	-10.5997
▁жүгү	-10.6008
▁тариф	-10.6009
мамлекет	-10.6054
▁Эмомали	-10.6055
▁демонстрация	-10.6055
▁Союзу	-10.6055
▁күнүмдүк	-10.6055
[	-10.6102
▁уйгур	-10.6102
▁үлгүсүндөгү	-10.6102
▁илимпоз	-10.6102
▁станциясы	-10.6103
елерки	-10.6117
▁интеграция	-10.615
▁бергиле	-10.615
▁коркуп	-10.615
▁Марипов	-10.6153
▁Медет	-10.6164
▁Айрыкча	-10.6197
▁аткезчилик	-10.6197
▁машыктыруучу	-10.6197
▁Виктор	-10.6197
▁байыркы	-10.6197
▁ашкере	-10.6197
▁киришкен	-10.6198
▁мобилд	-10.6204
▁Алтынбек	-10.6206
▁Транспорт	-10.6245
▁Ошентсе	-10.6245
▁Бактыбек	-10.6245
▁бекитилген	-10.6245
▁табият	-10.6245
▁айлампа	-10.6245
▁таймаш	-10.6245
▁Санкт	-10.6245
▁кардарлар	-10.6257
▁болбошу	-10.6293
▁Токтакунов	-10.6293
▁ишемби	-10.6293
▁Аялдар	-10.6293
▁тигүү	-10.6294
Украина	-10.6296
▁Федерал	-10.6297
]	-10.6342
▁камсыздандыруу	-10.6342
▁табигый	-10.6342
▁Акжол	-10.6342
мыйзам	-10.6345
▁саналуу	-10.6356
▁жаңылыктар	-10.6374
▁Петр	-10.6379
▁Сербия	-10.639
▁микро	-10.639
▁өңүт	-10.639
▁түтүн	-10.6391
Эксперттер	-10.6394
Масса	-10.6398
▁деңгээлге	-10.6439
▁офицер	-10.6439
▁Мырза	-10.6439
▁жээк	-10.6439
▁тарапкерлери	-10.6442
▁үзүл	-10.6445
Балта	-10.6449
▁жабдыктар	-10.6488
▁козголоң	-10.6488
▁босого	-10.6488
▁альянс	-10.6488
Клооп	-10.649
▁Нарматова	-10.6537
▁макулдашыл	-10.6537
▁Экөө	-10.6542
Ордо	-10.6564
▁бүтүм	-10.6579
октябрында	-10.6587
▁токтотту	-10.6589
▁продукция	-10.6636
▁ишенбей	-10.6637
▁соодагерлер	-10.6637
▁чечмеле	-10.6638
ирээк	-10.6671
▁Египет	-10.6686
▁артиллерия	-10.6686
▁категория	-10.6686
▁төртүнчү	-10.6687
▁кыскартуу	-10.6687
▁үйлөн	-10.6689
ККМ	-10.6689
▁мониторинг	-10.6737
▁Убакты	-10.6737
▁эсептешет	-10.6737
▁алмашкан	-10.6737
▁ресторан	-10.6787
▁Песков	-10.6788
оммунисттик	-10.6788
▁ишенди	-10.6788
▁кайдыгер	-10.6838
▁резерв	-10.6889
▁транзит	-10.6889
▁1991-	-10.6889
▁номур	-10.6889
▁Иманалиев	-10.6889
Ү	-10.6901
▁боору	-10.6915
▁кийинчерээк	-10.694
▁компьютер	-10.694
▁Жонсон	-10.694
▁европалык	-10.694
▁сессия	-10.694
Достук	-10.6941
▁авария	-10.6945
▁таратыл	-10.6968
▁чечкиндүү	-10.6992
▁Кылыч	-10.6992
▁учкан	-10.6992
▁News	-10.7044
▁маараке	-10.7044
▁пландалган	-10.7044
▁чебер	-10.7044
Чечен	-10.7066
▁тагдыр	-10.7082
J	-10.7096
▁Тайван	-10.7096
▁конкреттүү	-10.7096
▁ынтымак	-10.7096
▁Көрсө	-10.7096
▁тосмо	-10.7096
▁суроолорун	-10.7128
▁Күндүз	-10.7148
▁Демократия	-10.7148
▁Максим	-10.7148
▁Динара	-10.7148
▁союздаш	-10.715
Камбар	-10.7157
▁Бахмут	-10.7201
▁Брюссел	-10.7201
▁Луганск	-10.7201
▁Сооронкулова	-10.7201
▁тынымсыз	-10.7201
▁серепчи	-10.7201
▁Гүлнара	-10.7201
▁Ереван	-10.7254
▁абзел	-10.7254
▁жолугушту	-10.7254
▁аңгеме	-10.7254
▁падыша	-10.7254
▁Курманкул	-10.7254
▁соолук	-10.7256
Республика	-10.7271
▁Бөлтүрүк	-10.7307
▁Ибраев	-10.7307
▁отставка	-10.7307
▁өзгөргөн	-10.7307
▁Фото	-10.7307
▁Жакшы	-10.7307
▁Боршайком	-10.736
▁Дүйшөн	-10.736
▁биротоло	-10.736
▁Йе	-10.7364
▁Болгону	-10.7414
▁Шектүү	-10.7414
▁ээрчи	-10.7414
▁жыгыл	-10.7416
Өзбекстан	-10.7434
Кытай	-10.7435
▁белгиси	-10.7449
▁Лавров	-10.7468
▁көбөйүшү	-10.7468
▁масштабдуу	-10.7468
▁көрүстөн	-10.7468
▁Балыкчы	-10.747
▁дарегине	-10.7522
▁өбөлгө	-10.7522
▁тыянак	-10.7522
▁фильм	-10.7522
▁жаныбарлар	-10.7522
▁манасчы	-10.7523
▁сарптал	-10.7523
▁Адатта	-10.7523
▁ишенем	-10.7523
▁аяктады	-10.7523
▁жукту	-10.7524
▁кеңсе	-10.754
▁барымтага	-10.7577
▁ирандык	-10.7577
▁жолугушкан	-10.7577
▁көлөмдө	-10.7577
▁ишенип	-10.7577
▁кажет	-10.7578
▁режиссер	-10.7632
▁шейшемби	-10.7632
▁1992-	-10.7632
▁козголду	-10.7632
▁айыппул	-10.7634
Ынтымак	-10.7687
▁Шакиев	-10.7688
▁атомду	-10.769
Көчө	-10.7692
АКШ	-10.7712
▁илгери	-10.7743
Дордой	-10.7743
январга	-10.7743
▁даярдалган	-10.7743
▁Мелис	-10.7743
▁Кадамжай	-10.7799
Ю	-10.7825
Z	-10.7911
ъ	-10.9308
­	-11.0931
Q	-11.2415
*	-11.3846
'	-11.4265
Я	-11.4672
j	-11.5517
Ё	-11.6672
#	-11.8954
q	-12.125
і	-12.3671
&	-12.4529
қ	-12.6502
ı	-12.7657
ɵ	-12.8509
\	-12.9439
Ѳ	-12.9439
І	-13.1021
_	-13.1609
Қ	-13.1609
@	-13.2235
−	-13.3615
ş	-13.3615
Ɵ	-13.3615
Ş	-13.3615
ü	-13.3615
ә	-13.6127
`	-13.7127
ғ	-13.8238
·	-13.9488
ا	-13.9488
=	-14.0917
é	-14.0917
⠀	-14.0917
️	-14.0917
ç	-14.0917
İ	-14.0917
¬	-14.2583
ə	-14.2583
•	-14.2583
▪	-14.2583
ұ	-14.2583
ğ	-14.4583
ö	-14.4583
Ң	-14.4583
́	-14.7083
©	-14.7083
ل	-14.7083
Ь	-15.0417
ق	-15.0417
⁄	-15.0417
→	-15.0417
á	-15.0417
ҳ	-15.0417
昆	-15.0417
Ü	-15.0417
â	-15.5417
Ö	-15.5417
í	-15.5417
ҷ	-15.5417
―	-15.5417
●	-15.5417
⁣	-15.5417
ï	-15.5417
љ	-15.5417
Ұ	-15.5417
鬲	-16.5404
韓	-16.5405
鄄	-16.5406
堅	-16.5407
ُ	-16.5408
و	-16.5409
ح	-16.541
Ә	-16.5411
ӏ	-16.5412
Ç	-16.5413
ʙ	-16.5414
Щ	-16.5415
$	-16.5416
ƣ	-16.5417
⁠	-16.5417
{	-16.5417
}	-16.5417
£	-16.5417
§	-16.5417
Ñ	-16.5417
ß	-16.5417
ã	-16.5417
ä	-16.5417
è	-16.5417
ñ	-16.5417
ā	-16.5417
ą	-16.5417
Ŋ	-16.5417
Š	-16.5417
ū	-16.5417
ƚ	-16.5417
Ƣ	-16.5417
ʼ	-16.5417
̧	-16.5417
Ђ	-16.5417
Ъ	-16.5417
ђ	-16.5417
ї	-16.5417
ћ	-16.5417
һ	-16.5417
ӯ	-16.5417
د	-16.5417
ر	-16.5417
ز	-16.5417
ص	-16.5417
ظ	-16.5417
ع	-16.5417
غ	-16.5417
ك	-16.5417
م	-16.5417
ن	-16.5417
ه	-16.5417
ي	-16.5417
ِ	-16.5417
‒	-16.5417
回	-16.5417
族	-16.5417
ў	-16.5417
ط	-16.5417
(	-16.5417
خ	-16.5417
