<unk>	0
<s>	0
</s>	0
.	-3.08436
,	-3.42464
н	-4.09211
-	-4.60306
▁"	-4.75252
"	-4.81025
▁менен	-4.89593
▁	-4.93491
▁жана	-5.01874
га	-5.09776
да	-5.51696
м	-5.52815
▁бир	-5.54732
▁да	-5.55884
▁деп	-5.62976
т	-5.69586
к	-5.70007
▁эле	-5.70545
ы	-5.77203
нын	-5.78214
ка	-5.79312
▁боюнча	-5.83693
▁-	-5.86584
▁үчүн	-5.98078
▁бул	-5.99241
п	-5.99326
р	-5.99401
и	-6.01935
на	-6.03903
дан	-6.06055
▁Ал	-6.09494
▁ал	-6.11597
ын	-6.15334
▁Бул	-6.16209
▁бар	-6.17649
ге	-6.17921
ды	-6.19579
▁болуп	-6.23284
▁деген	-6.2705
:	-6.27723
а	-6.29129
▁тууралуу	-6.31901
▁болгон	-6.32405
й	-6.33815
л	-6.34063
▁жок	-6.36258
дин	-6.3856
ке	-6.3985
ди	-6.40176
гы	-6.40727
▁чейин	-6.41497
▁жатат	-6.42586
▁керек	-6.43015
▁эмес	-6.43985
дын	-6.4587
▁алып	-6.50504
▁кийин	-6.53713
▁дагы	-6.55826
▁(	-6.57216
▁эки	-6.57574
)	-6.58354
де	-6.61458
с	-6.61654
жылы	-6.61827
го	-6.62151
гө	-6.64495
дагы	-6.66065
та	-6.67175
▁же	-6.68536
▁анын	-6.69966
у	-6.71753
▁Бирок	-6.71987
лык	-6.72881
▁билдирди	-6.74455
ин	-6.76128
▁экенин	-6.76535
?	-6.7706
▁каршы	-6.77544
",	-6.78134
▁башка	-6.81313
ш	-6.81651
▁жаткан	-6.82125
▁турган	-6.82998
сы	-6.83696
ты	-6.84369
дар	-6.85116
▁адам	-6.85757
▁көп	-6.86808
▁эл	-6.89227
▁болду	-6.89356
лар	-6.89681
ду	-6.8972
▁бери	-6.92617
чу	-6.92843
▁иш	-6.92975
ң	-6.9428
▁өз	-6.94783
▁мамлекеттик	-6.9584
ти	-6.95987
▁жаңы	-6.96524
▁чек	-6.97128
▁ар	-6.98156
ны	-6.98229
▁маалымат	-6.99388
▁алган	-6.9984
▁болот	-7.00239
ү	-7.00365
▁эми	-7.00522
▁гана	-7.01044
▁келген	-7.01061
▁кандай	-7.01502
з	-7.02299
дун	-7.03948
ат	-7.0544
тан	-7.05828
ов	-7.07734
▁аралык	-7.08803
▁байланыштуу	-7.08982
▁катары	-7.09201
▁жатканын	-7.09422
тар	-7.09869
ден	-7.10093
▁айтып	-7.10191
до	-7.10951
са	-7.12441
▁Кыргызстандын	-7.12722
ына	-7.13748
▁кол	-7.15074
▁кабыл	-7.16417
▁сөз	-7.16965
нун	-7.17129
▁болсо	-7.17514
те	-7.18735
тын	-7.194
бек	-7.19702
▁кыргыз	-7.20301
▁киши	-7.20415
▁аны	-7.20501
дө	-7.22255
ну	-7.22984
ган	-7.2309
▁иштер	-7.23123
▁Орусиянын	-7.23237
▁миң	-7.24927
▁Жогорку	-7.25194
▁жолу	-7.25545
▁Кыргызстанда	-7.25769
▁жыл	-7.27477
▁мүмкүн	-7.27478
▁Анын	-7.27539
ып	-7.2849
▁чыккан	-7.2885
▁деди	-7.28901
тин	-7.2978
▁мыйзам	-7.30013
▁президент	-7.30572
▁А	-7.3107
▁баш	-7.31232
▁ошол	-7.31342
▁калган	-7.31394
▁чет	-7.32225
▁берген	-7.33006
▁үй	-7.33098
▁бири	-7.34881
▁ылайык	-7.35225
быз	-7.36546
ма	-7.36761
ла	-7.3677
▁алуу	-7.37243
▁жол	-7.37363
д	-7.37513
▁эч	-7.37514
▁айтты	-7.37838
▁учурда	-7.38207
бай	-7.39025
▁көз	-7.39945
▁мурдагы	-7.40026
б	-7.4044
▁үч	-7.40739
▁Кыргызстан	-7.40893
нда	-7.41098
ту	-7.41368
ра	-7.4229
▁К	-7.42524
▁жардам	-7.42589
▁ара	-7.43322
▁улам	-7.43931
не	-7.44838
▁чыгып	-7.44988
нин	-7.45382
тер	-7.45596
үн	-7.45711
дай	-7.46531
ча	-7.4722
нүн	-7.4751
туу	-7.48203
ө	-7.48283
▁экен	-7.48542
▁ушул	-7.48627
▁билдирген	-7.48878
▁бирок	-7.49582
ги	-7.49842
▁шайлоо	-7.49978
▁өткөн	-7.49984
ларды	-7.50215
дык	-7.50508
▁келет	-7.51197
▁караганда	-7.51252
▁Жапаров	-7.51349
▁кылмыш	-7.51526
сын	-7.51724
▁жакшы	-7.5175
▁элек	-7.51967
▁кайра	-7.52883
▁жооп	-7.53129
ине	-7.53263
ко	-7.53368
▁орун	-7.53637
су	-7.53897
▁алардын	-7.54047
▁саясий	-7.54182
▁чоң	-7.54453
▁Орусия	-7.54522
▁ичинде	-7.54656
▁каза	-7.55224
▁президенти	-7.55678
▁Алар	-7.55686
е	-7.56373
▁алар	-7.56381
▁Биз	-7.5715
▁аркылуу	-7.57157
▁кеткен	-7.57859
о	-7.58646
▁берүү	-7.58892
▁турат	-7.59346
си	-7.59512
%	-7.60531
▁мындай	-7.60708
▁биринчи	-7.60724
жылдын	-7.60754
▁орус	-7.60939
кө	-7.612
ч	-7.61201
▁Ош	-7.61207
▁нече	-7.61285
▁алды	-7.61819
▁келип	-7.61888
ри	-7.62325
▁жөнүндө	-7.62562
инин	-7.62686
А	-7.62974
г	-7.63194
инде	-7.63433
▁эң	-7.63461
▁расмий	-7.63617
▁Буга	-7.63652
▁биз	-7.64344
би	-7.64555
дардын	-7.6487
▁Садыр	-7.64948
▁Бишкек	-7.6515
дөн	-7.65167
▁деле	-7.65657
ман	-7.6575
дү	-7.66
▁талап	-7.66414
▁ага	-7.66455
чү	-7.66899
▁күнү	-7.6722
▁кылып	-7.6727
▁берип	-7.67834
▁иштеп	-7.67949
▁калды	-7.68762
▁өзү	-7.68908
▁турганын	-7.69096
▁айткан	-7.69292
ев	-7.69639
▁Мен	-7.69805
▁коопсуздук	-7.69882
▁акча	-7.70285
ли	-7.70646
К	-7.70654
▁кызматы	-7.707
лардын	-7.70981
▁саны	-7.7168
▁буга	-7.72361
▁министрлиги	-7.7277
▁коргоо	-7.73169
▁атайын	-7.73537
ында	-7.7373
▁туура	-7.73874
▁жалпы	-7.74012
ба	-7.74136
▁к	-7.74314
▁иши	-7.75201
▁айрым	-7.75924
▁сот	-7.7608
▁күн	-7.76177
▁миллион	-7.76258
▁суу	-7.76324
▁берди	-7.7646
▁жерде	-7.76571
▁Ошол	-7.76641
▁коронавирус	-7.7691
▁Улуттук	-7.77376
▁өлкөнүн	-7.77376
нан	-7.77678
7	-7.77927
▁башчысы	-7.78446
▁бардык	-7.7874
▁өлкө	-7.7905
дик	-7.79262
йт	-7.79347
▁болчу	-7.79759
ынын	-7.8006
▁Бир	-7.80252
▁а	-7.80308
▁Эл	-7.80421
▁сактоо	-7.80692
бы	-7.80856
▁сом	-7.80956
3	-7.81097
▁ишке	-7.81174
▁айыл	-7.81424
▁АКШ	-7.81505
▁өтө	-7.81576
▁жер	-7.81581
▁жакын	-7.82495
ун	-7.82803
дер	-7.82855
ия	-7.83026
▁карата	-7.83335
нү	-7.83489
▁Кыргыз	-7.835
х	-7.8358
▁кылган	-7.83624
чы	-7.83625
▁катар	-7.83742
4	-7.83938
6	-7.84125
▁Алардын	-7.84603
луу	-7.84765
▁азыр	-7.85063
▁жатышат	-7.85391
▁басма	-7.85611
▁социалдык	-7.85928
тагы	-7.86487
▁бийлик	-7.86581
▁айтымында	-7.86853
▁О	-7.8687
8	-7.86914
▁ата	-7.87051
▁жаштагы	-7.87085
▁албай	-7.87731
▁күч	-7.87957
▁өкмөт	-7.8806
гу	-7.88118
тун	-7.8817
▁алынган	-7.88348
9	-7.8845
▁Ка	-7.88479
▁оор	-7.88559
▁аз	-7.89863
▁ачык	-7.89993
кан	-7.9002
тен	-7.90199
ь	-7.90242
▁жергиликтүү	-7.90318
▁С	-7.90665
▁болушу	-7.90718
▁Анда	-7.9171
1	-7.91908
лары	-7.92032
▁беш	-7.92251
▁аракет	-7.92598
2	-7.92741
5	-7.92829
гү	-7.92886
▁айында	-7.93049
тарды	-7.93196
▁баары	-7.93282
▁10	-7.93541
баев	-7.93758
▁толук	-7.93765
тык	-7.93869
▁арасында	-7.94177
▁мурда	-7.94488
▁Ма	-7.94704
▁министри	-7.948
▁эмне	-7.94952
▁белгилүү	-7.95006
▁шаарында	-7.95331
▁У	-7.95544
ар	-7.95596
▁өтүп	-7.95658
биз	-7.95713
ор	-7.9581
▁20	-7.96079
за	-7.96107
ым	-7.9646
▁Кеңештин	-7.96528
ю	-7.96651
деги	-7.96788
▁бере	-7.97148
Абад	-7.97284
я	-7.97481
нө	-7.98047
сыз	-7.98111
тү	-7.98517
ф	-7.98589
▁Би	-7.98627
▁мен	-7.98725
▁баштаган	-7.98996
▁биздин	-7.99084
▁топ	-7.99256
дон	-7.99308
сына	-7.99479
▁укук	-8.00063
▁19	-8.00071
уу	-8.00218
тардын	-8.00619
▁адамдар	-8.00677
октябрда	-8.01293
ро	-8.01306
▁кыргызстандык	-8.01334
▁аскердик	-8.01647
▁бала	-8.01945
▁барып	-8.01983
▁Украинанын	-8.0229
▁мамлекет	-8.0232
▁төрт	-8.02382
се	-8.02677
▁Т	-8.02705
▁чыкты	-8.03141
▁тергөө	-8.03261
▁аталган	-8.03329
▁жүрүп	-8.03346
▁ай	-8.03518
кы	-8.03925
▁сыяктуу	-8.04048
▁добуш	-8.04213
▁Азыр	-8.04247
▁маселе	-8.04371
▁Мында	-8.04384
ал	-8.04493
▁тартып	-8.04615
▁басары	-8.04855
0	-8.05038
▁жүргөн	-8.05065
▁жатканы	-8.05125
▁айып	-8.05383
ил	-8.05737
▁так	-8.05875
▁ким	-8.05959
лер	-8.05973
▁төрагасы	-8.05975
▁Ага	-8.06305
▁андан	-8.06336
▁өзгөчө	-8.06756
ль	-8.06791
▁коомдук	-8.06891
▁алдында	-8.07101
сынын	-8.07551
▁Андан	-8.07651
▁Ак	-8.08049
▁болгонун	-8.08064
▁башкы	-8.08076
▁жылдан	-8.08553
ни	-8.09135
▁келди	-8.09293
▁соңку	-8.09418
▁кызмат	-8.09491
дук	-8.09533
▁млн	-8.10019
▁Европа	-8.10287
▁Са	-8.10718
▁райондук	-8.1078
▁кайсы	-8.11
▁ала	-8.11254
▁бийлиги	-8.11344
▁жай	-8.11385
▁кара	-8.1147
▁жетекчиси	-8.11557
▁өлкөдө	-8.11569
дарды	-8.11605
▁мыйзамсыз	-8.11793
▁сатып	-8.11955
ре	-8.12029
▁ички	-8.12172
▁Бишкекте	-8.12451
мартта	-8.12539
ан	-8.12567
▁уулу	-8.12704
▁Азия	-8.1316
па	-8.13524
▁И	-8.13548
▁өкүлү	-8.13751
чи	-8.13828
▁ушундай	-8.13899
ова	-8.14463
сү	-8.15043
ен	-8.15376
▁акыркы	-8.15709
▁ашуун	-8.16343
▁улуттук	-8.16354
▁өкүлдөрү	-8.16591
жа	-8.16982
ынан	-8.17031
▁жеке	-8.17152
▁Ар	-8.17308
ц	-8.17365
▁май	-8.17375
▁азыркы	-8.17494
▁иштеген	-8.17653
ет	-8.17784
▁доллар	-8.17856
▁дейт	-8.17903
▁министрлигинин	-8.18127
▁Баткен	-8.18194
▁жазды	-8.18197
▁Кытай	-8.18228
▁арыз	-8.18263
▁тышкары	-8.18464
▁баа	-8.18589
▁Ошондой	-8.18848
▁шаардык	-8.18851
майда	-8.19068
▁Президент	-8.19073
▁берет	-8.19366
▁маалыматына	-8.19414
ку	-8.19419
▁1	-8.19559
▁курал	-8.19628
▁билим	-8.19632
то	-8.19721
ноябрда	-8.20018
▁са	-8.20056
▁Та	-8.20163
▁жылга	-8.20357
бүз	-8.2051
сында	-8.20511
00	-8.20552
Т	-8.20656
▁ашык	-8.20702
тик	-8.20965
▁АКШнын	-8.21071
▁экени	-8.21133
▁күндүз	-8.21198
▁анда	-8.21351
▁ошондой	-8.21626
лоо	-8.21712
▁өзүнүн	-8.21768
▁тарап	-8.21897
ыр	-8.22495
апрелде	-8.22736
в	-8.22798
▁белгиледи	-8.23042
▁түнкүсүн	-8.23099
▁кетти	-8.23103
лап	-8.23234
▁чечим	-8.23262
▁экинчи	-8.23322
августта	-8.2348
▁тыюу	-8.23501
;	-8.23552
▁саат	-8.23619
▁карап	-8.23636
▁учурунда	-8.23819
a	-8.23848
июнда	-8.23989
ип	-8.24173
▁ок	-8.24185
▁Борбор	-8.24329
▁айтылган	-8.2441
дуу	-8.24551
▁келе	-8.24626
▁президенттик	-8.24847
уп	-8.25122
▁канча	-8.25263
▁Мындай	-8.25554
▁согуш	-8.25886
▁тең	-8.25912
ки	-8.25951
ло	-8.25994
Азаттык	-8.26151
мо	-8.26464
▁Жалал	-8.26483
▁салуу	-8.26521
▁Кара	-8.2673
▁быйыл	-8.27068
▁ишин	-8.27662
▁жаш	-8.2781
▁ири	-8.27854
▁Анткени	-8.2799
ларын	-8.2812
▁1-	-8.28539
▁эске	-8.2886
ак	-8.28975
▁жатабыз	-8.28977
▁койгон	-8.29029
▁Жа	-8.29299
▁Кыргызстанга	-8.29481
тары	-8.29846
▁ат	-8.30115
▁экономикалык	-8.30148
▁Ай	-8.30177
▁салган	-8.30181
▁Казакстан	-8.30187
▁соода	-8.30286
өт	-8.30371
декабрда	-8.3067
ж	-8.30964
",-	-8.31052
ле	-8.3149
гөн	-8.31619
С	-8.31726
▁бай	-8.31943
лик	-8.32202
им	-8.32216
▁Мамлекеттик	-8.32285
▁кезде	-8.3231
▁алууга	-8.32474
▁2020-	-8.32487
▁жогорку	-8.32726
▁элдик	-8.32753
▁алты	-8.32936
январда	-8.3306
▁депутат	-8.33109
▁иштери	-8.33307
▁көңүл	-8.33658
▁ээ	-8.33674
▁жарандык	-8.33677
▁Башкы	-8.33922
ларга	-8.33947
үнө	-8.34014
▁негизги	-8.34156
буз	-8.34156
e	-8.34353
он	-8.34363
▁окуу	-8.34482
▁премьер	-8.34652
▁берилген	-8.35001
▁Ысык	-8.35173
▁Ошондуктан	-8.352
▁облусунун	-8.35291
▁жазылган	-8.35493
▁кызматкерлери	-8.35611
▁электр	-8.35725
▁15	-8.35846
o	-8.35851
▁зарыл	-8.35853
▁жазган	-8.35879
министр	-8.35998
▁30	-8.36065
сун	-8.36131
▁басып	-8.36139
ва	-8.36298
▁окуя	-8.36344
▁алат	-8.36473
▁болгону	-8.36694
▁тышкы	-8.36754
▁аба	-8.36835
▁облусунда	-8.36842
▁уруксат	-8.36865
▁кабар	-8.37025
▁Владимир	-8.37097
▁убактылуу	-8.37213
түү	-8.37393
▁аскер	-8.3745
▁барган	-8.37935
▁мында	-8.38112
▁чейинки	-8.38163
тор	-8.38216
▁Украинага	-8.38459
▁ары	-8.38561
▁кыз	-8.38608
▁башында	-8.38696
сентябрда	-8.38729
▁алкагында	-8.38971
догу	-8.39168
▁жаза	-8.39268
▁кызматынын	-8.39296
мак	-8.39306
▁кийинки	-8.39439
▁маанилүү	-8.39569
▁аларды	-8.39575
июлда	-8.39624
▁Ба	-8.39972
үп	-8.40035
▁Путин	-8.40103
▁Нур	-8.40142
▁миңден	-8.40307
беков	-8.40353
▁баштады	-8.40701
шы	-8.4071
▁катуу	-8.4075
алиев	-8.41008
ха	-8.41332
арын	-8.41506
дүн	-8.41567
▁жети	-8.41625
▁пайда	-8.41781
▁абал	-8.41795
Азаттыкка	-8.41842
▁Эми	-8.41872
унун	-8.41967
▁негизинде	-8.41982
▁11	-8.42062
ыш	-8.42227
i	-8.42731
▁дары	-8.42752
бу	-8.4304
сиз	-8.43058
▁100	-8.43314
▁президенттин	-8.436
▁Б	-8.43658
▁катчысы	-8.43698
▁жан	-8.43753
▁балдар	-8.44072
▁сын	-8.44112
▁аял	-8.44208
ру	-8.44345
-19	-8.44423
▁Кыргызстандагы	-8.44482
оо	-8.4451
▁алдын	-8.44546
уна	-8.4456
бе	-8.44594
▁дүйнө	-8.4461
овдун	-8.44625
▁Да	-8.44855
дары	-8.44873
▁Казакстандын	-8.44874
▁катышкан	-8.45053
▁2021-	-8.45103
дөгү	-8.45111
▁нааразылык	-8.45318
▁он	-8.4532
▁түшкөн	-8.45434
▁сунуш	-8.45482
лат	-8.45575
ик	-8.45925
▁күндө	-8.45982
▁көбү	-8.45987
▁12	-8.46123
▁абдан	-8.46203
▁даяр	-8.46211
▁элдин	-8.46476
▁жарым	-8.46815
▁Орусияда	-8.46859
▁кар	-8.47015
февралда	-8.47096
▁нерсе	-8.47123
▁ак	-8.47161
э	-8.47195
дөй	-8.4722
алы	-8.4723
▁2	-8.47373
инен	-8.47422
ша	-8.47435
ме	-8.47508
▁шайлоого	-8.47581
сө	-8.47756
▁2022-	-8.47773
▁өттү	-8.4782
▁айтылат	-8.48442
▁кабарлады	-8.48913
ай	-8.49
▁шек	-8.49027
▁кирген	-8.49082
▁сайын	-8.49277
▁сотко	-8.49412
▁Ушул	-8.49586
▁жайгашкан	-8.49644
Би	-8.49827
▁адамдын	-8.50042
▁жарыялаган	-8.50161
▁коюлган	-8.50185
▁колдоо	-8.50281
▁кызы	-8.50363
▁с	-8.50391
▁кетип	-8.51018
▁Москва	-8.51227
▁Аны	-8.51248
мат	-8.51257
▁Учурда	-8.51287
▁талапкер	-8.51351
▁алгачкы	-8.51508
▁жашаган	-8.51556
▁камакка	-8.51758
дей	-8.5201
▁млрд	-8.52092
▁орусиялык	-8.52542
▁муну	-8.52943
тарга	-8.53033
▁Биринчи	-8.53147
▁көрүп	-8.53265
▁ту	-8.5335
▁салып	-8.53901
▁иликтөө	-8.53963
▁тапта	-8.54071
▁жерге	-8.54075
▁соту	-8.54119
▁тиешелүү	-8.54137
▁арада	-8.54193
▁оору	-8.54319
▁депутаты	-8.54381
▁боло	-8.54408
▁камсыз	-8.54445
▁укугу	-8.54601
Көл	-8.54709
Б	-8.54761
ол	-8.54804
▁тарабынан	-8.5483
▁соң	-8.55146
терди	-8.55468
▁жөн	-8.55557
▁өткөрүп	-8.55595
тыр	-8.55635
▁кармалган	-8.5566
▁катталган	-8.55745
▁Ке	-8.5585
▁аймагында	-8.55936
▁чыгарган	-8.55958
че	-8.56079
ыл	-8.56136
▁у	-8.56349
▁комментарий	-8.56432
дарга	-8.56526
▁жылы	-8.56539
▁миллиард	-8.56573
тери	-8.56682
20	-8.56705
тарын	-8.56776
▁Нарын	-8.57168
▁белгисиз	-8.57223
▁кырдаал	-8.57262
▁шаар	-8.57326
t	-8.57365
лук	-8.57499
▁шарт	-8.57513
по	-8.57588
▁кан	-8.57624
▁ж	-8.57978
▁лидери	-8.58013
▁жогору	-8.58045
▁азырынча	-8.58064
▁жаран	-8.58503
▁Чүй	-8.58514
▁калып	-8.58531
▁өнүктүрүү	-8.59085
▁украин	-8.59204
▁каражат	-8.5955
▁бүгүн	-8.59564
▁тапкан	-8.59579
▁кызматкери	-8.59735
лан	-8.59754
▁ыктымал	-8.59869
▁жактан	-8.60189
ер	-8.6028
тө	-8.60328
▁чакырды	-8.6034
лөр	-8.60347
▁уюмдар	-8.60463
▁э	-8.60465
▁Бишкектин	-8.60561
▁сокку	-8.6064
▁жазып	-8.60703
чылык	-8.60843
▁жатып	-8.61142
дап	-8.61305
Ата	-8.61409
▁Украина	-8.61425
үү	-8.6147
▁жыйынында	-8.6148
төр	-8.61705
үүдө	-8.61756
▁түрдө	-8.61762
▁ичинен	-8.6186
▁Э	-8.62304
▁14	-8.62341
▁эс	-8.6235
ры	-8.6254
▁мамиле	-8.62697
▁жакта	-8.62754
▁чабуул	-8.62787
өө	-8.62791
▁2019-	-8.62799
▁13	-8.62832
иялык	-8.62872
▁чыгарып	-8.62891
дыр	-8.62919
▁районунда	-8.63015
У	-8.63025
▁маалыматтар	-8.63026
▁кошумча	-8.63053
тай	-8.63111
ис	-8.63136
жылдан	-8.63168
ууда	-8.63213
▁Жо	-8.63256
▁Эгер	-8.63292
▁былтыр	-8.63472
▁партия	-8.63529
рт	-8.63548
▁башкаруу	-8.63653
▁кем	-8.63701
▁алтын	-8.63853
▁башталган	-8.63889
▁себеп	-8.6415
▁курулуш	-8.64283
пай	-8.64284
▁түзүлгөн	-8.64505
▁Тажикстандын	-8.6461
▁Ички	-8.64645
▁Жээнбеков	-8.64648
▁10-	-8.64696
зи	-8.6484
▁3	-8.6492
▁тез	-8.65112
тоо	-8.65205
▁кирип	-8.65271
▁Бишкектеги	-8.65324
▁Кытайдын	-8.6536
▁медициналык	-8.65701
ст	-8.65731
▁Орусияга	-8.65802
ция	-8.65946
▁дээрлик	-8.66185
▁т	-8.66305
▁кызматтан	-8.66386
▁билдирип	-8.66501
▁салык	-8.66579
▁маселеси	-8.66643
▁түз	-8.66647
▁бою	-8.66673
▁кыл	-8.66849
Э	-8.66875
▁кошумчалады	-8.6689
▁Маалымат	-8.66974
▁кармап	-8.66988
!	-8.67004
▁жылдын	-8.67063
▁Министрлер	-8.67219
▁милиция	-8.67381
▁өкмөтү	-8.67432
теги	-8.67511
▁банк	-8.67868
▁б	-8.67913
▁кат	-8.67959
▁4-	-8.68005
▁шаарынын	-8.68046
тердин	-8.68073
▁эмгек	-8.6811
▁видео	-8.68242
▁Эки	-8.68331
▁16	-8.68543
▁баарын	-8.68551
лаган	-8.68585
▁та	-8.68701
▁5	-8.68996
▁ортосундагы	-8.69083
▁Биздин	-8.69139
бо	-8.69147
▁кылуу	-8.69457
дор	-8.6959
тур	-8.69749
ланган	-8.6988
▁Кылмыш	-8.6989
▁50	-8.70002
▁койду	-8.70088
▁чарба	-8.70308
▁журналист	-8.70395
▁ыр	-8.70602
▁абалы	-8.70753
▁күндөрү	-8.71016
A	-8.71059
▁кылды	-8.71211
байт	-8.71214
▁17	-8.71219
▁кантип	-8.71454
И	-8.71494
▁газ	-8.71604
ары	-8.71685
▁калат	-8.71995
▁Батыш	-8.72113
▁чыга	-8.72258
со	-8.72364
▁комиссия	-8.72413
мин	-8.72413
▁Жаңы	-8.72421
▁кеңеш	-8.72428
▁Мисалы	-8.72429
▁каттоо	-8.72442
Азаттыктын	-8.72719
кен	-8.72978
▁аты	-8.73069
▁М	-8.7334
▁18	-8.73347
▁өзүнө	-8.73397
▁коюп	-8.73426
▁бирге	-8.73582
▁салынган	-8.73588
Р	-8.73802
▁жасаган	-8.73932
лган	-8.73971
▁кайрадан	-8.74061
▁районунун	-8.74118
▁казак	-8.74223
син	-8.74235
▁жараны	-8.74305
тып	-8.74308
лор	-8.74372
▁парламенттик	-8.74374
▁тажик	-8.74389
жи	-8.7447
▁УКМК	-8.74535
▁өкмөттүн	-8.74627
▁мүчөсү	-8.74661
▁болбойт	-8.74706
▁таза	-8.7484
ви	-8.7493
▁диний	-8.74951
▁То	-8.75026
бүлө	-8.75096
▁Ми	-8.75186
▁На	-8.75259
▁Саламаттык	-8.75535
▁Ко	-8.75656
кер	-8.7572
▁отурган	-8.7573
тук	-8.75772
ышы	-8.76064
▁туруп	-8.76124
▁туш	-8.76142
▁долбоору	-8.76143
▁айтканда	-8.76191
I	-8.76195
▁белгилеп	-8.76216
▁убакыт	-8.76229
▁жарыяланган	-8.76308
▁саясат	-8.76318
▁кайрылуу	-8.76478
▁Өзбекстан	-8.76566
▁аттуу	-8.76569
▁Баш	-8.76606
▁Анан	-8.76613
▁парламент	-8.76632
▁кеп	-8.76863
▁No	-8.76876
▁20-	-8.77012
кулов	-8.7704
▁оюн	-8.77046
▁айта	-8.771
▁жүк	-8.77165
▁COVID	-8.77166
▁жарыялады	-8.7729
s	-8.77585
▁Казакстанда	-8.77588
▁учурлар	-8.77602
▁9-	-8.77951
үшү	-8.7806
суна	-8.78102
▁партиясынын	-8.78699
▁убада	-8.78738
ык	-8.78757
▁Му	-8.78796
▁операция	-8.78825
▁Ха	-8.78833
▁максатында	-8.78874
▁5-	-8.78951
түн	-8.78952
▁билдирүү	-8.79116
▁карабай	-8.79121
▁өзүн	-8.79154
▁кал	-8.79214
▁Ошондо	-8.79366
▁Ра	-8.79494
▁вирус	-8.79573
▁тил	-8.7958
▁полиция	-8.79626
▁соттун	-8.79642
дүү	-8.79669
пи	-8.79677
аш	-8.79706
▁сырткары	-8.79806
рат	-8.79878
d	-8.80075
▁жеңил	-8.80122
▁документ	-8.80163
▁шаарындагы	-8.80234
▁талаш	-8.80292
▁айда	-8.80341
▁тартылган	-8.80342
дыгы	-8.80398
руу	-8.805
▁туруктуу	-8.80599
сүнө	-8.80696
▁борбору	-8.80851
ск	-8.809
▁чечими	-8.80924
ткан	-8.80927
▁Д	-8.80945
▁таасир	-8.81139
▁11-	-8.81276
▁ма	-8.81281
▁активист	-8.81318
▁башчы	-8.81581
▁облустук	-8.8169
▁Су	-8.8184
▁Тышк	-8.82143
▁маалыматты	-8.82315
▁айынан	-8.82334
▁Өзбекстандын	-8.82398
дердин	-8.82653
▁миңдей	-8.82693
▁бийликтин	-8.82854
▁мүчө	-8.83119
▁аларга	-8.83182
▁долбоорун	-8.83199
▁дүйнөлүк	-8.83255
▁ортосунда	-8.83353
▁2-	-8.83391
лери	-8.83474
▁4	-8.8356
▁Израил	-8.83626
▁аткаруу	-8.83726
ми	-8.83942
тап	-8.84047
▁мамлекеттин	-8.84049
▁кишинин	-8.8419
▁саясатчы	-8.84295
баган	-8.84343
жан	-8.84377
▁күчтөрү	-8.84385
▁6-	-8.84403
▁тарткан	-8.84435
▁изилдөө	-8.84477
▁адамдардын	-8.84483
ур	-8.84572
▁бизге	-8.84667
▁Зеленский	-8.8472
▁жокко	-8.84801
▁Иран	-8.84963
жо	-8.84993
▁жылда	-8.85065
▁Украинадагы	-8.85083
▁түшүп	-8.85106
▁директору	-8.85189
ындагы	-8.8522
▁орто	-8.85277
▁7-	-8.85308
ала	-8.85339
▁Ку	-8.8535
О	-8.85466
▁тарта	-8.85471
ве	-8.85479
из	-8.85527
▁тобу	-8.85566
▁түзгөн	-8.85612
шкан	-8.85706
▁Себеби	-8.85942
▁бара	-8.85984
▁15-	-8.86039
▁суроо	-8.86045
кыр	-8.86284
▁сура	-8.86376
терге	-8.86407
унда	-8.86429
▁40	-8.86472
▁экс	-8.8648
▁басым	-8.86536
▁баштап	-8.87029
ый	-8.87049
▁көзөмөл	-8.87116
▁8-	-8.87158
▁кодексинин	-8.87201
▁бийликке	-8.87252
▁ордуна	-8.87351
▁3-	-8.87488
▁бөлүгү	-8.87509
▁коркунуч	-8.87581
▁алганын	-8.87788
▁Сүрөттү	-8.87963
кү	-8.88068
▁жумуш	-8.88109
стан	-8.88122
▁Борбордук	-8.88199
▁Быйыл	-8.88205
▁болорун	-8.88241
▁кен	-8.88272
▁каражаттары	-8.88316
▁маалымдады	-8.88335
▁Чек	-8.88386
▁кайрылган	-8.88534
▁компания	-8.8854
▁күрөш	-8.88564
иш	-8.88619
▁берүүгө	-8.88726
ран	-8.88825
▁өлкөдөгү	-8.88866
лу	-8.88962
жылдары	-8.89005
лай	-8.89055
▁калганын	-8.89199
▁согушка	-8.89224
▁көргөн	-8.89248
чулар	-8.8929
▁Талас	-8.89302
▁тамак	-8.89448
дөр	-8.89454
▁борбор	-8.89457
▁Г	-8.89498
▁мүмкүнчүлүк	-8.89509
▁аялдар	-8.89636
▁Ата	-8.89687
▁24-	-8.89786
▁Трамп	-8.89818
▁де	-8.90072
▁жа	-8.90244
▁чыр	-8.90482
▁маалда	-8.90505
жылдагы	-8.90606
▁жаштар	-8.90617
▁жашоо	-8.90958
▁комитетинин	-8.91071
▁депутаттар	-8.91192
▁караган	-8.91242
▁кый	-8.91279
▁партиясы	-8.91343
▁мурун	-8.91456
▁ч	-8.91502
▁байланыш	-8.91514
▁шайлоодо	-8.91528
▁25-	-8.91586
▁Ж	-8.91628
▁куруу	-8.91733
ам	-8.91767
ул	-8.91798
▁кармалып	-8.918
март	-8.91996
▁25	-8.92052
▁медиа	-8.92189
▁сакта	-8.92369
▁чектөө	-8.92402
▁200	-8.92454
▁болбой	-8.92465
шат	-8.92474
ий	-8.92519
▁уюму	-8.92644
▁уюмунун	-8.92789
▁өлкөгө	-8.92797
▁жетти	-8.93005
▁жакында	-8.93012
▁18-	-8.93218
▁Бо	-8.93272
▁качан	-8.93305
ыбыз	-8.93361
▁кош	-8.93369
оп	-8.93487
▁жакка	-8.93534
▁кеңешинин	-8.93594
мө	-8.93679
▁келишим	-8.93727
сак	-8.93902
М	-8.94054
▁макул	-8.94088
▁Байден	-8.94125
▁сегиз	-8.94322
ап	-8.94326
▁Тажикстан	-8.94347
▁ирет	-8.9438
Си	-8.94403
▁тонна	-8.94533
▁маселени	-8.9457
лүк	-8.94608
▁талкуу	-8.95054
▁кыйын	-8.9511
▁сомго	-8.95155
гер	-8.95161
▁баасы	-8.95165
▁Ташиев	-8.95187
▁базар	-8.95293
уш	-8.95322
▁жылдык	-8.95337
▁түрк	-8.95462
▁жакындары	-8.95532
ян	-8.95601
▁белгиленген	-8.95667
но	-8.95726
▁ко	-8.95868
▁жарандар	-8.95884
П	-8.95926
▁кабинетинин	-8.96008
▁жагдай	-8.96021
k	-8.96042
▁жараат	-8.9607
▁албайт	-8.96087
▁28-	-8.9634
▁чогуу	-8.96399
▁маалым	-8.96406
▁аймактарда	-8.96483
▁Кеңеш	-8.96552
▁Аб	-8.96573
▁чара	-8.96646
▁Мыйзам	-8.96686
▁Акылбек	-8.96715
▁жасап	-8.96745
▁айтылып	-8.96751
▁мыкты	-8.96927
/	-8.97031
▁миграция	-8.97137
▁саламаттык	-8.97175
▁сотто	-8.97254
▁метр	-8.97283
▁кабылган	-8.97362
▁п	-8.97499
▁30-	-8.97517
ушу	-8.97684
▁өнөр	-8.97744
▁ш	-8.97764
▁17-	-8.97811
▁керектигин	-8.97818
лыгы	-8.97905
▁кармоо	-8.97987
▁чукул	-8.97988
▁сурак	-8.98073
▁се	-8.98226
▁укуктары	-8.98237
▁Айрым	-8.98312
▁прокуратура	-8.9835
▁2023-	-8.98414
▁маселелер	-8.98499
▁компаниясы	-8.98575
▁кор	-8.98746
кана	-8.98829
ус	-8.9892
ылган	-8.98942
▁өтөт	-8.98942
▁сомдон	-8.98959
▁сөөгү	-8.99059
▁Те	-8.99083
▁жаса	-8.99124
▁бет	-8.99191
▁эсептейт	-8.99198
▁жашап	-8.99305
▁уюм	-8.99533
▁Расмий	-8.99599
▁кескин	-8.99599
▁Өткөн	-8.99602
▁тартуу	-8.99692
▁Өкмөт	-8.99692
▁жума	-8.9971
▁алынып	-8.99823
▁жылдары	-8.99824
лаш	-8.99843
куралдуу	-8.99924
▁Былтыр	-8.99925
▁жара	-8.99977
▁армиясы	-9.0003
▁эркин	-9.00031
▁дин	-9.0004
мен	-9.00235
▁14-	-9.00261
▁ишти	-9.00266
тажик	-9.00309
▁телефон	-9.00418
▁органдары	-9.00468
▁өлкөлөр	-9.00476
▁тоо	-9.00522
▁Мунун	-9.00565
▁өзгөртүү	-9.00567
▁камсыздоо	-9.006
май	-9.00651
▁аракети	-9.0072
▁иште	-9.00741
▁чыгаруу	-9.0081
▁кээ	-9.00916
▁текшерүү	-9.00963
c	-9.01028
лбай	-9.01099
мун	-9.01099
▁билдиргендей	-9.01112
▁Эр	-9.01128
алдык	-9.01139
деп	-9.0121
▁23-	-9.01324
▁Азыркы	-9.01337
▁кете	-9.01375
▁козголгон	-9.01451
▁тараткан	-9.01468
төн	-9.01479
▁киргизилген	-9.01573
рып	-9.01579
▁жыйынтыгы	-9.01603
▁Түштүк	-9.01681
▁бажы	-9.01692
▁иштерин	-9.01827
ууга	-9.01852
▁долбоор	-9.02039
▁башкармалыгынын	-9.02049
баева	-9.02057
▁аныкталган	-9.02129
▁16-	-9.02133
▁агенттиги	-9.02227
▁вице	-9.02236
▁зыян	-9.02302
тон	-9.02453
▁алынды	-9.02466
▁бирөө	-9.02565
▁турак	-9.02634
▁Түркиянын	-9.02654
ей	-9.02666
▁таң	-9.02721
▁экономика	-9.02863
▁азык	-9.02864
▁Атамбаев	-9.03018
▁кыска	-9.03098
▁Ан	-9.03106
▁24	-9.03297
▁мүчөлөрү	-9.03325
▁түзүү	-9.03342
▁Де	-9.03367
▁Со	-9.03369
ит	-9.03372
▁9	-9.03412
▁Сот	-9.03449
ум	-9.03728
▁далил	-9.03837
▁12-	-9.04009
▁жыйынтык	-9.04063
чылар	-9.04102
▁элге	-9.04105
▁окуялар	-9.04132
кул	-9.04136
▁таап	-9.04166
▁анан	-9.04192
ларда	-9.04224
▁система	-9.04226
▁андай	-9.04437
изм	-9.04457
▁ооруканага	-9.04487
▁темир	-9.04601
Д	-9.04638
▁айтылды	-9.04669
▁катта	-9.04706
▁Иш	-9.0474
▁жүз	-9.04854
▁22-	-9.04931
▁Алмазбек	-9.05163
бей	-9.05182
доо	-9.0522
▁маселесин	-9.05254
▁көр	-9.05316
▁өткөрүү	-9.05531
▁жасалган	-9.05534
▁Акыркы	-9.05632
▁ой	-9.05751
өгө	-9.05767
үнүн	-9.0577
ци	-9.05857
дыктан	-9.05982
анын	-9.05988
▁Түркия	-9.05997
мын	-9.06001
▁Си	-9.06007
▁жүрөт	-9.06066
▁жерден	-9.0608
ңыз	-9.06087
лугу	-9.06129
▁жаан	-9.06166
▁план	-9.06264
өй	-9.06276
▁сиз	-9.06331
▁пикир	-9.06414
▁шектүү	-9.06416
▁ишине	-9.06416
риккен	-9.06454
▁Жапаровдун	-9.06572
ларына	-9.06575
лы	-9.06743
▁кымбат	-9.06766
▁жеткен	-9.0679
▁арасындагы	-9.06809
▁комитети	-9.06842
Кыргызстан	-9.0691
▁БУУнун	-9.06939
дерди	-9.06942
▁Дүйнөлүк	-9.07031
ганы	-9.07171
▁көлөмү	-9.07257
▁калыбына	-9.07374
▁каралган	-9.07423
▁Сооронба	-9.07491
Ба	-9.07529
▁Га	-9.07548
▁маалыматка	-9.07577
▁турганы	-9.07637
ого	-9.0779
▁19-	-9.07821
▁коңшу	-9.07843
▁бизнес	-9.07854
▁Ме	-9.07914
▁көрүнүш	-9.07927
▁америкалык	-9.07961
▁8	-9.08048
▁атындагы	-9.08055
▁адистер	-9.08064
▁баласы	-9.08207
▁аскерлери	-9.08211
▁Матраимов	-9.08225
▁дал	-9.08261
Н	-9.08291
▁ба	-9.08346
▁катышты	-9.08376
▁кайрылып	-9.08389
ева	-9.08395
▁кай	-9.08425
▁сый	-9.08469
рин	-9.08496
▁нааразы	-9.08548
▁кайтып	-9.08569
▁колдонуу	-9.08577
ой	-9.08606
▁2018-	-9.0861
УКМК	-9.08675
▁жар	-9.08692
▁жагынан	-9.0871
▁Коронавирус	-9.08784
▁ондогон	-9.0879
▁27-	-9.08797
▁60	-9.08809
▁сан	-9.08815
▁Соңку	-9.08908
▁кабарланды	-9.09037
▁башта	-9.09127
▁вакцина	-9.09137
▁Шайлоо	-9.09148
рган	-9.09395
▁тараптуу	-9.09401
▁маалыматтарды	-9.0946
▁мага	-9.09481
▁экөө	-9.09585
▁учак	-9.09626
▁автоунаа	-9.09659
зы	-9.09741
y	-9.09745
▁эт	-9.09789
▁соттук	-9.09806
▁чакырым	-9.0982
▁көпчүлүк	-9.0983
▁сапар	-9.09874
▁Муну	-9.09882
В	-9.09958
▁насыя	-9.09985
фи	-9.09987
▁көрсөтүп	-9.09996
▁жүргүзүп	-9.10111
▁то	-9.10112
▁кармалды	-9.10146
▁7	-9.10156
ир	-9.1019
▁кала	-9.10325
▁максаты	-9.10345
▁бараткан	-9.10401
ок	-9.10449
p	-9.10467
▁бүт	-9.10631
▁Па	-9.10823
▁("	-9.10833
▁берүүнү	-9.10903
▁6	-9.10909
▁тургундар	-9.11016
же	-9.11108
▁менин	-9.11115
зат	-9.11158
лүү	-9.11277
▁жалгыз	-9.11317
▁кошо	-9.11335
хан	-9.11399
▁бийликти	-9.11443
терин	-9.11444
▁Камчыбек	-9.11492
▁келиши	-9.11503
бир	-9.11671
▁пандемия	-9.11683
▁мал	-9.11886
▁тогуз	-9.1193
▁киргизүү	-9.11939
▁дарыгерлер	-9.11987
үр	-9.12229
▁күнгө	-9.1232
лердин	-9.12323
▁түзүп	-9.12456
▁тиешеси	-9.12667
▁Коопсуздук	-9.1279
▁аябай	-9.12791
▁башынан	-9.12873
▁сынга	-9.12897
▁П	-9.13134
сүн	-9.13412
бү	-9.13413
ом	-9.13432
▁алыш	-9.13473
▁эсеп	-9.13512
▁өлкөлөрдүн	-9.13591
▁мыйзамга	-9.1362
▁салды	-9.13646
▁тынчтык	-9.13695
▁менчик	-9.13785
▁дароо	-9.13788
▁миңдеген	-9.13824
▁Ө	-9.14055
▁жатканда	-9.14067
▁алганы	-9.14355
▁табылган	-9.1437
▁дегенде	-9.14373
▁жу	-9.14556
▁Бүгүн	-9.14566
▁маалыматы	-9.14609
▁тургуну	-9.14657
▁кел	-9.1474
▁адамга	-9.1474
▁мүлк	-9.14782
▁22	-9.148
▁кеткенин	-9.14826
▁мекемелер	-9.14949
▁13-	-9.1495
▁бу	-9.14986
▁негиз	-9.15076
лып	-9.15192
▁кызматкерлер	-9.15196
▁бузуу	-9.15317
▁чыгуу	-9.15325
▁21-	-9.15359
жылга	-9.15397
үүгө	-9.15404
▁команда	-9.15437
▁жаман	-9.15484
түлүк	-9.15511
▁Кийин	-9.15522
ышты	-9.15635
▁Мар	-9.15637
▁министринин	-9.15661
▁Мо	-9.15687
▁күндөн	-9.15827
▁калаа	-9.1585
▁29-	-9.15882
▁бейтап	-9.15968
▁уюштуруу	-9.15979
▁парламенттин	-9.16035
▁билдирүүдө	-9.16041
▁тынч	-9.16061
▁көрө	-9.16074
▁мыйзамдар	-9.1612
▁териштирүү	-9.1614
▁журналисттер	-9.16153
▁мүмкүнчүлүгү	-9.16187
▁түрдүү	-9.16322
ков	-9.16438
▁көрсөткөн	-9.16439
▁ден	-9.16497
▁учур	-9.16551
баш	-9.1667
▁Албетте	-9.167
▁илим	-9.16847
бөй	-9.16951
▁белгилеген	-9.16959
▁берилди	-9.16965
чө	-9.16983
▁мектеп	-9.17127
▁караштуу	-9.17136
унан	-9.17172
g	-9.17197
")	-9.17273
зо	-9.17287
▁УКМКнын	-9.17312
▁катышып	-9.17312
▁каржы	-9.17361
үл	-9.17401
▁чы	-9.1745
▁олуттуу	-9.17475
▁көрсөтүлгөн	-9.1749
лет	-9.17517
▁күрөшүү	-9.17533
▁сапары	-9.17557
▁коргонуу	-9.17617
▁болууда	-9.17626
▁кур	-9.17694
▁өнүгүү	-9.17734
▁келин	-9.17766
▁маалында	-9.17772
▁сактап	-9.17932
ация	-9.18004
▁коргоочу	-9.18014
ибиз	-9.18014
▁шайлоонун	-9.18081
тир	-9.18129
лө	-9.18233
▁калса	-9.18451
лерди	-9.18454
▁көптөгөн	-9.18517
▁Өзгөчө	-9.18517
▁мунай	-9.18518
u	-9.1854
▁аймакта	-9.18591
▁26-	-9.18757
▁мамлекеттер	-9.18768
▁облусундагы	-9.18771
▁70	-9.18776
▁Бек	-9.18854
▁көмүр	-9.18911
▁өзбек	-9.18986
ууну	-9.19048
▁толугу	-9.19055
▁айлык	-9.19164
▁негизде	-9.19189
▁окуп	-9.19206
▁мөөнөтү	-9.19264
Суу	-9.19293
30	-9.19303
▁чечимин	-9.19309
▁ишеним	-9.19442
▁пикирин	-9.19459
?"	-9.19504
Талибан	-9.19542
▁адамды	-9.19562
ышкан	-9.19642
стр	-9.19719
индеги	-9.19724
▁жаңжал	-9.19776
▁айтууда	-9.19798
▁спорт	-9.19803
▁21	-9.19857
▁500	-9.19894
▁облустары	-9.19901
▁үчүнчү	-9.19951
▁көрсөтүү	-9.2002
▁чакырган	-9.2009
▁айылында	-9.20238
Ка	-9.20243
во	-9.20313
▁бербей	-9.20318
▁түнү	-9.20335
▁кетиши	-9.20374
▁өрт	-9.20417
▁Орус	-9.20444
дери	-9.20479
▁илимий	-9.20516
▁жалпысынан	-9.20544
▁тараптан	-9.20735
▁басылмасы	-9.20741
ларынын	-9.20795
Кыргыз	-9.20851
▁жолдо	-9.20899
▁мо	-9.21329
▁Түндүк	-9.21334
▁2017-	-9.21441
▁жарандары	-9.21514
▁көбүрөөк	-9.21578
▁башкармалыгы	-9.21667
▁балдардын	-9.21672
▁аптада	-9.21674
▁бойдон	-9.21723
▁өлкөдөн	-9.21724
▁жетекчилиги	-9.21789
▁тийиш	-9.21914
▁Ш	-9.21964
▁Вашингтон	-9.21982
▁атасы	-9.22026
▁миңге	-9.22112
▁коом	-9.22128
Г	-9.2224
▁алдынча	-9.22248
▁аргасыз	-9.22255
▁ооган	-9.22258
▁маалыматта	-9.22274
▁Адам	-9.22276
Ж	-9.22293
тарда	-9.22375
▁ишкер	-9.22381
▁маегинде	-9.22527
▁жоопкерчилик	-9.22566
ем	-9.22653
▁өтпөй	-9.22662
от	-9.22669
▁мамлекетке	-9.22674
▁дарыгер	-9.22717
▁аныктоо	-9.22811
▁партиялар	-9.22849
даган	-9.22875
▁Ва	-9.22923
▁калк	-9.23013
S	-9.2305
үндө	-9.23092
▁үстүнө	-9.23217
▁аткан	-9.2324
▁бер	-9.23308
▁өмүрүн	-9.23339
чүлөр	-9.23408
▁болмок	-9.23489
ши	-9.23511
гандар	-9.23536
▁таянып	-9.23623
▁киреше	-9.23792
▁коюу	-9.23854
▁келтирүү	-9.23904
▁жаз	-9.23912
▁канчалык	-9.23944
▁коррупция	-9.24076
▁себеби	-9.24186
▁камалган	-9.24188
▁ф	-9.24227
диги	-9.24272
▁сүйлөшүү	-9.24298
▁оң	-9.24367
▁ишкерлер	-9.24369
▁кадам	-9.2438
▁тургундары	-9.24448
▁Аталган	-9.24516
▁Орусиядагы	-9.24545
▁милдетин	-9.24635
▁кылат	-9.24648
зе	-9.24816
▁Мамлекет	-9.24843
▁Коргоо	-9.2487
▁ажыра	-9.24881
суз	-9.25094
▁айга	-9.25128
▁S	-9.25312
▁аймактарында	-9.25455
лөрдү	-9.25461
▁Москвада	-9.25512
▁кетүү	-9.25528
өрүн	-9.25561
▁келгенин	-9.256
▁тааны	-9.25602
пар	-9.2565
▁болгондуктан	-9.25712
▁талабы	-9.25717
▁берсе	-9.25742
r	-9.25743
▁Кар	-9.25794
▁кам	-9.25799
▁Киев	-9.2588
▁эсе	-9.25883
▁мигранттар	-9.25906
▁баракчасына	-9.26012
▁калышы	-9.26124
▁кызматка	-9.26263
мек	-9.26276
▁Тергөө	-9.26276
m	-9.26311
▁бизде	-9.26328
▁кө	-9.26335
▁Жер	-9.2634
▁маданият	-9.26346
▁комитет	-9.26348
▁оку	-9.26374
ук	-9.26416
ек	-9.26417
▁коронавирусту	-9.26456
▁27	-9.26525
▁гектар	-9.2656
лек	-9.26581
▁эне	-9.26604
▁март	-9.26791
▁билген	-9.26813
асы	-9.26846
▁мени	-9.26876
▁Газа	-9.2689
деди	-9.26899
▁Токаев	-9.26991
▁бур	-9.27149
▁Өзбекстанда	-9.27157
▁тоолуу	-9.27182
▁Тилек	-9.27215
▁зомбулук	-9.27218
▁кыймыл	-9.27275
▁эркине	-9.2736
▁ий	-9.27369
▁Тур	-9.274
▁жүйө	-9.27415
▁Эгерде	-9.27524
үй	-9.27525
ылды	-9.27543
тал	-9.27551
▁колдон	-9.27554
рек	-9.27692
h	-9.27736
▁укугун	-9.27755
▁берилет	-9.27799
Тоо	-9.27838
▁бөгөт	-9.27857
▁адамдарды	-9.279
▁иштей	-9.27936
▁атып	-9.28011
▁качып	-9.2816
▁Же	-9.28162
▁айдан	-9.28226
▁тармактарда	-9.28291
▁кабарланган	-9.28319
рип	-9.28335
▁2010-	-9.28344
Таш	-9.28348
▁деңгээлде	-9.28365
ё	-9.28409
▁маани	-9.28506
▁Май	-9.28526
▁түзөт	-9.28579
▁кетет	-9.28582
▁караш	-9.28652
▁Беларус	-9.28655
▁жашы	-9.28724
▁Касым	-9.28726
▁активисттер	-9.28815
▁көтөрүп	-9.28866
▁алууну	-9.28919
▁алышкан	-9.28932
▁аягына	-9.29003
дарын	-9.29059
▁эртең	-9.29072
▁Бу	-9.29076
сынан	-9.29153
тип	-9.29163
▁жүзүндө	-9.29183
▁Ы	-9.29211
▁аныкта	-9.29217
▁партиянын	-9.29318
▁пул	-9.29328
аны	-9.29376
▁Үй	-9.2939
▁Бай	-9.29478
▁кызматкер	-9.29479
▁Улуу	-9.29583
▁Улуттар	-9.29586
ңар	-9.29607
▁митинг	-9.29627
▁жараша	-9.29761
▁бүгүнкү	-9.29761
▁эсепте	-9.29786
төрү	-9.29828
▁жарык	-9.29852
▁кырдаалдар	-9.29857
энелер	-9.29861
▁26	-9.29875
▁болбосо	-9.29879
▁онлайн	-9.29879
▁республика	-9.29898
▁үйүнө	-9.29903
▁мекеме	-9.2996
ундагы	-9.29982
▁23	-9.30127
▁Украинада	-9.30282
▁2016-	-9.3032
▁коррупцияга	-9.30529
матов	-9.30534
▁жайы	-9.30558
лды	-9.30596
▁мыйзамды	-9.3062
▁жумушчу	-9.30673
▁Кошмо	-9.30774
рим	-9.30789
▁туугандары	-9.30818
▁товар	-9.30868
кты	-9.30884
▁башталды	-9.30923
Манас	-9.30946
▁кырдаалды	-9.30985
▁табы	-9.31024
▁колдоп	-9.31026
ос	-9.31044
▁Республикасынын	-9.31184
төгү	-9.31185
чулук	-9.31237
▁келсе	-9.31308
иши	-9.31332
▁өзүнчө	-9.31338
▁карандысыз	-9.31376
▁Бийлик	-9.31425
▁кыйла	-9.31452
тыгы	-9.3147
сине	-9.31504
▁дем	-9.31524
▁Алматы	-9.31579
▁төрагасынын	-9.31589
▁болжол	-9.31663
▁прокурор	-9.31666
▁келгенде	-9.31687
T	-9.31688
▁тур	-9.31695
▁токтотуу	-9.31722
евдин	-9.31804
▁убагында	-9.31805
▁ракета	-9.31845
▁эскертти	-9.31871
ел	-9.31955
▁жетекчилери	-9.32123
▁өндүрүш	-9.32124
▁кыздар	-9.3214
дыгын	-9.32146
▁реформа	-9.32155
▁алыс	-9.32172
▁чыгат	-9.32253
▁тийиштүү	-9.32282
▁кандайдыр	-9.32294
пер	-9.32334
▁зордук	-9.32452
▁мыйзамдуу	-9.32465
шев	-9.32537
бар	-9.32542
аб	-9.32652
▁өлүмү	-9.32717
▁Мурдагы	-9.3272
▁деңиз	-9.32729
▁абалда	-9.32761
▁компаниясынын	-9.32895
▁каала	-9.329
▁жөнгө	-9.32992
▁аймактык	-9.33007
рак	-9.3304
Кумтөр	-9.33058
▁кыла	-9.33143
аз	-9.33146
▁жасалма	-9.33207
▁үгүт	-9.33312
▁сел	-9.33343
▁убакта	-9.33372
▁таш	-9.33443
▁бил	-9.33444
▁укуктарын	-9.33453
▁кооптуу	-9.33464
▁Мына	-9.33466
▁узак	-9.33467
▁Кал	-9.3348
▁максат	-9.33531
▁жолугушуу	-9.3357
▁Кумтөр	-9.3359
▁камакта	-9.3361
жаза	-9.33623
үнөн	-9.33636
▁колдогон	-9.33671
лууда	-9.33711
му	-9.33763
▁калуу	-9.33816
▁жат	-9.33851
ика	-9.33864
▁күбө	-9.33917
▁өлкөлүк	-9.33984
▁Ирандын	-9.34029
▁Түркияда	-9.3405
l	-9.34064
▁парламентте	-9.34068
tion	-9.34074
▁саясаты	-9.34135
▁Менин	-9.34154
чыл	-9.34239
ада	-9.34426
C	-9.34441
▁аныкталды	-9.34544
▁кийим	-9.34574
уучу	-9.34576
▁деңгээли	-9.3465
▁кир	-9.34679
▁кылмыштуу	-9.34685
▁өмүр	-9.34706
▁китеп	-9.34719
▁өздөрү	-9.34914
▁таандык	-9.34996
▁баса	-9.35004
▁Германия	-9.35032
▁гуманитардык	-9.35073
тору	-9.35127
▁көрсөткүч	-9.35154
▁өлүм	-9.35316
▁чакыр	-9.35349
Жа	-9.35416
өл	-9.35463
▁Депутат	-9.35466
▁калганы	-9.35591
▁таасирин	-9.35596
▁Аскар	-9.35639
▁Британия	-9.35674
▁ыкчам	-9.35771
▁туулган	-9.35798
▁бериши	-9.35819
▁Гүл	-9.35827
▁кон	-9.35935
▁жараткан	-9.35985
▁Чыгыш	-9.36012
▁300	-9.36016
▁алышы	-9.36048
▁аймагына	-9.3609
▁барат	-9.36131
▁оппозиция	-9.36164
▁A	-9.36184
▁келаткан	-9.3624
▁көзү	-9.36266
▁28	-9.36272
▁террордук	-9.36341
▁беренеси	-9.36386
▁укуктук	-9.36418
президент	-9.36511
▁начар	-9.36527
▁Александр	-9.36553
тиги	-9.36624
▁аң	-9.36654
▁Орусиядан	-9.36687
▁Ала	-9.36697
▁Ошентип	-9.3671
гра	-9.36761
үч	-9.36778
▁Image	-9.36867
▁каранды	-9.36869
▁Өзү	-9.37068
▁кеңири	-9.37182
▁апта	-9.37241
▁каалаган	-9.37321
ланып	-9.37345
ес	-9.37376
▁За	-9.37402
▁дүйнөдө	-9.37408
кар	-9.375
▁төлөп	-9.37564
бер	-9.37634
▁тарыхый	-9.37641
атты	-9.37714
▁айрымдары	-9.37739
▁аппарат	-9.37863
▁чакырып	-9.37983
сам	-9.37989
шты	-9.37999
▁кишилер	-9.38083
▁талаа	-9.38137
▁багытталган	-9.38154
▁кабарлаган	-9.38282
▁чыгарылган	-9.38313
▁инвестиция	-9.38333
декабр	-9.38409
▁өмүрү	-9.38436
▁кура	-9.38479
▁жабыркаган	-9.38581
чара	-9.3861
,5	-9.38688
▁Бизде	-9.38699
▁өкүм	-9.38763
▁Айт	-9.38829
▁анализ	-9.38934
▁кырсык	-9.38938
▁эски	-9.38949
▁сүйлөшүүлөр	-9.38961
▁облусу	-9.39051
Ак	-9.39177
▁жарандардын	-9.39252
▁айынын	-9.3926
лов	-9.3932
▁Израилдин	-9.39391
еги	-9.39407
▁кетүүгө	-9.39415
▁министрлигине	-9.3942
мур	-9.39504
▁маселелери	-9.39505
▁кызматына	-9.39579
▁элди	-9.39587
▁күтүп	-9.39591
▁ачылган	-9.39597
▁атат	-9.39607
▁бөлүмүнүн	-9.39614
▁чыгарды	-9.39728
▁жыйында	-9.39734
министри	-9.39806
лин	-9.399
▁БШК	-9.39985
дой	-9.40012
▁абакта	-9.40016
▁Башка	-9.40051
▁күчтүү	-9.40102
▁ша	-9.40149
▁унаа	-9.40167
▁майда	-9.40209
▁кой	-9.4021
▁жүргүзгөн	-9.4024
▁ооруканада	-9.40261
▁кап	-9.40269
▁жабык	-9.4039
▁Корея	-9.40402
▁кишиге	-9.40466
ров	-9.40492
премьер	-9.40498
жы	-9.40516
баса	-9.40553
▁администрациясы	-9.40667
▁транспорт	-9.40676
ут	-9.40686
▁багытта	-9.40692
▁бекет	-9.40698
▁куугунтук	-9.40734
▁балдары	-9.4079
▁депутаттары	-9.40845
лөрү	-9.40849
ңиз	-9.40871
▁чакан	-9.40883
▁тапты	-9.40897
▁шартта	-9.40943
мар	-9.41013
▁мезгил	-9.41014
▁компаниялар	-9.41018
▁куб	-9.41051
сындагы	-9.41238
▁Азербайжан	-9.41252
▁сурап	-9.4131
хи	-9.41493
Ф	-9.41523
▁жатканына	-9.41557
▁каралып	-9.41578
▁сотунун	-9.41676
▁тарых	-9.41693
▁органдар	-9.41777
▁кармалганын	-9.418
▁отуруп	-9.41891
▁80	-9.419
▁футбол	-9.41912
),	-9.41922
▁топтор	-9.41932
▁долларга	-9.41987
▁статистика	-9.42034
▁2015-	-9.42034
▁Болот	-9.4205
▁төмөндө	-9.42131
шып	-9.42172
лардан	-9.4219
▁Бээжин	-9.42199
▁күнөөлүү	-9.42206
▁31-	-9.42223
▁Атайы	-9.42257
▁техникалык	-9.42317
▁негизинен	-9.42395
▁кездеги	-9.42396
▁илдет	-9.42447
▁мыйзамдын	-9.42451
▁республикалык	-9.42502
▁жетиштүү	-9.42532
▁комиссиясы	-9.42552
▁кароо	-9.42564
▁Жергиликтүү	-9.42572
▁издөө	-9.42607
сүндө	-9.42664
▁борборунун	-9.42717
▁акын	-9.42747
▁саясатчылар	-9.42838
▁Мурда	-9.42853
▁санкция	-9.43006
▁демилгеси	-9.43008
▁До	-9.43011
▁референдум	-9.43033
▁салыштырмалуу	-9.43033
ндө	-9.43054
келиндер	-9.43154
кка	-9.43167
▁ачуу	-9.43185
сүз	-9.43185
ымды	-9.43294
▁эр	-9.43406
▁театр	-9.43442
▁иштейт	-9.43479
▁жалган	-9.43484
▁кире	-9.43517
▁Н	-9.43565
▁катаал	-9.43592
▁Көп	-9.43595
▁акчаны	-9.43639
▁жетпей	-9.43705
▁жапырт	-9.43708
▁ишкана	-9.43733
▁Президенттин	-9.43778
▁коё	-9.43898
▁тасма	-9.43947
▁Кемпир	-9.44168
▁кишини	-9.44194
▁билдирүүсүндө	-9.44234
▁эксперт	-9.44257
▁аткаруучу	-9.44296
▁акыл	-9.4437
▁ыйгарым	-9.44381
▁Эрдоган	-9.44381
зу	-9.44452
▁алганда	-9.44458
▁комитеттин	-9.44464
хо	-9.44471
лөрдүн	-9.44545
▁топтун	-9.44548
лим	-9.44598
▁улут	-9.44668
▁бас	-9.44686
▁артка	-9.44699
▁терең	-9.4472
▁ре	-9.44743
▁медицина	-9.44771
▁колу	-9.44906
▁коргоочулар	-9.4496
▁ошону	-9.44964
▁курч	-9.44987
ӊ	-9.45062
▁Демек	-9.45076
▁жери	-9.45092
▁айтышты	-9.45183
алиева	-9.45215
▁өлкөлөрү	-9.45299
▁эмнеге	-9.45307
лиги	-9.45337
▁жаап	-9.45359
▁Өз	-9.45372
лышы	-9.45406
икалык	-9.45436
өп	-9.45623
▁доо	-9.45658
ист	-9.45772
▁о	-9.45785
▁бат	-9.45802
▁макала	-9.4592
ав	-9.46074
▁Укук	-9.46092
▁ме	-9.4616
▁C	-9.46186
▁жеткирүү	-9.46255
бүлөсү	-9.46265
▁жыйын	-9.4638
▁Дүйнө	-9.46389
▁айыптап	-9.46499
▁уланып	-9.46523
▁Жан	-9.4659
▁су	-9.46604
▁Ре	-9.46664
▁го	-9.46693
▁уюмдун	-9.46756
ыбызды	-9.46801
▁Бүгүнкү	-9.46803
▁аскерлер	-9.46894
▁жазуучу	-9.46913
тка	-9.46932
▁аяктаган	-9.46962
▁карантин	-9.46996
бал	-9.4708
Л	-9.47085
рап	-9.4714
▁кайтарып	-9.47171
ээ	-9.47193
▁албаган	-9.47249
▁күйөөсү	-9.47269
▁алгач	-9.47437
▁түрү	-9.47456
▁жайга	-9.47457
▁ээси	-9.47531
°	-9.47657
▁курган	-9.47704
шуу	-9.47726
▁бериш	-9.4775
ста	-9.4779
сың	-9.47791
▁кайда	-9.47834
▁кризис	-9.47891
▁Олимпиада	-9.48008
▁райондорунда	-9.48008
▁эксперттер	-9.48025
▁күчтөр	-9.48058
▁Акаев	-9.48078
▁болгондор	-9.48086
▁фонду	-9.48107
▁акциялары	-9.48129
▁окуясы	-9.48177
▁даярдык	-9.48224
▁төлө	-9.48246
▁чечүү	-9.48349
▁билдиришти	-9.48362
▁Путинди	-9.484
▁тапшыр	-9.48403
яр	-9.48458
▁жерди	-9.48505
▁адис	-9.48517
▁курултай	-9.48543
▁Ди	-9.48615
рма	-9.4875
▁карай	-9.48775
▁33	-9.48776
▁кагаз	-9.48788
кор	-9.48864
▁чыкпай	-9.48865
▁ашыруу	-9.48885
▁карабастан	-9.48902
тарына	-9.49017
▁сатуу	-9.49035
▁Кыз	-9.49077
▁катталды	-9.49084
▁өткөргөн	-9.49089
▁пара	-9.49135
▁жете	-9.4915
▁мугалим	-9.49235
▁арналган	-9.49248
▁жарыяланды	-9.49252
▁бюджет	-9.49298
▁байге	-9.49399
▁Ли	-9.49489
▁чын	-9.49624
вар	-9.49636
▁эскертүү	-9.49713
▁35	-9.4982
▁90	-9.49869
n	-9.499
▁Сиз	-9.49921
инг	-9.49923
▁тааныш	-9.49985
бүлөлүк	-9.49989
▁Кеңеште	-9.50111
сунда	-9.50146
раак	-9.50181
▁эгер	-9.50221
мет	-9.50242
▁бак	-9.50255
▁Сергей	-9.50321
▁паспорт	-9.50332
▁бей	-9.50408
▁дайындалган	-9.50484
▁муктаж	-9.50503
R	-9.50511
▁эркиндиги	-9.50576
▁чыгышы	-9.50605
Ма	-9.50625
акта	-9.50654
кай	-9.50841
▁таштап	-9.50844
▁тагдыры	-9.50889
үлгөн	-9.50911
ттар	-9.50969
лса	-9.50988
▁улуу	-9.5099
▁болобу	-9.51031
▁бардыгы	-9.51062
рам	-9.51066
▁Америка	-9.51092
пей	-9.51096
▁байланышкан	-9.51145
▁карма	-9.51162
ене	-9.51188
кин	-9.51251
▁Мекеменин	-9.51262
▁Өмүрбек	-9.51265
▁түш	-9.51281
▁университетинин	-9.51287
алдуу	-9.51379
▁экспертиза	-9.51408
▁келишет	-9.51424
зар	-9.51513
▁системасы	-9.51551
▁кыргыздар	-9.51576
Жо	-9.5158
▁маселелерди	-9.51655
▁Конституциялык	-9.51688
▁улан	-9.51711
рды	-9.51789
▁Кур	-9.51882
абыт	-9.51991
▁отур	-9.52068
дүгү	-9.52089
▁байланышы	-9.52144
▁электрондук	-9.52153
дөө	-9.52164
▁кы	-9.52184
▁Маселен	-9.52314
▁cap	-9.52321
▁машина	-9.52322
▁чакыруу	-9.52361
▁элчиси	-9.52363
▁Я	-9.52389
▁Ушундай	-9.52591
▁адабият	-9.52689
▁ойлойм	-9.52691
▁киргизген	-9.52701
▁сыр	-9.52721
▁чогулган	-9.52746
▁киргиз	-9.52787
▁Бе	-9.52865
▁колго	-9.5303
лен	-9.53092
▁чыгышты	-9.53183
▁булагы	-9.53263
▁жагдайлар	-9.53319
▁түштү	-9.53347
▁акы	-9.53358
▁көрүүгө	-9.53389
▁алдына	-9.53426
b	-9.53429
▁2014-	-9.5343
▁өтүнүчү	-9.53475
▁Жол	-9.53535
▁ишканасы	-9.53582
▁саналат	-9.53616
▁министр	-9.53648
▁Эң	-9.5367
▁аралаш	-9.53694
рүү	-9.538
▁Милиция	-9.53802
▁Тоолуу	-9.53802
▁жаракат	-9.53807
лип	-9.53811
гүл	-9.53814
▁апасы	-9.53866
▁пайдалануу	-9.53948
▁кызматташтык	-9.53979
▁камагына	-9.53988
▁тарт	-9.54027
▁иштерди	-9.54166
▁ашкан	-9.54222
▁Ат	-9.54248
▁Ислам	-9.54276
▁кино	-9.54386
▁интернет	-9.544
өрү	-9.54489
▁издеп	-9.54549
шу	-9.54586
▁кызматтын	-9.54629
башы	-9.54629
мир	-9.54677
чо	-9.54726
▁градус	-9.54738
10	-9.5477
▁Ооганстан	-9.54772
▁Ша	-9.54837
ля	-9.54883
▁өзөктүк	-9.54926
▁шаары	-9.55018
фа	-9.55023
▁чөйрө	-9.55033
▁Ла	-9.55038
▁Москванын	-9.55057
▁Евробиримдик	-9.55067
▁колдонуп	-9.55149
▁тажрыйба	-9.55151
▁катышуу	-9.55186
▁бол	-9.55191
ың	-9.55198
лукту	-9.55206
ташы	-9.55214
▁таасири	-9.55302
▁комплекс	-9.55304
▁тандоо	-9.55305
▁кайрыл	-9.55368
▁уюмдардын	-9.55418
▁жүргүзүү	-9.55456
▁Экинчи	-9.55486
▁аягында	-9.55494
▁жатам	-9.55514
уусу	-9.55521
▁чыгым	-9.55545
▁Украин	-9.55623
Са	-9.55648
бас	-9.55787
▁тобунун	-9.55844
▁бөлүп	-9.55887
▁арзан	-9.55906
▁бийик	-9.5594
▁муун	-9.56049
▁Алексей	-9.56064
▁ката	-9.56108
▁кыймылы	-9.56215
жарак	-9.56218
▁биринде	-9.56225
▁коррупциялык	-9.56229
үшкөн	-9.56294
▁тармактар	-9.56331
▁сүрөт	-9.56386
!"	-9.56405
▁ишканалар	-9.56461
▁студенттер	-9.56478
дөрү	-9.56485
▁болгондордун	-9.56526
ид	-9.56553
▁ойло	-9.56558
▁башкача	-9.56599
▁абалды	-9.56622
▁автордук	-9.56657
бак	-9.56682
▁маданий	-9.56759
дармек	-9.56782
▁Чолпон	-9.56829
▁милдеттүү	-9.56852
▁танда	-9.56864
▁комиссиясынын	-9.56875
▁Кол	-9.56944
▁Ге	-9.57032
▁сүйлөп	-9.57033
▁коомчулукта	-9.57041
▁байкоо	-9.57052
▁өлкөлөрдө	-9.57059
▁келтирген	-9.57078
▁бизди	-9.57082
▁Армения	-9.57092
▁Тажикстанда	-9.57175
▁маалымдаган	-9.57175
▁Ча	-9.57191
▁маанай	-9.57214
ура	-9.57313
▁министрлик	-9.57364
▁табылды	-9.5742
▁көрүү	-9.57463
▁техника	-9.57531
▁музей	-9.57607
сти	-9.57622
▁тема	-9.57627
▁ачып	-9.57677
▁кечинде	-9.57692
▁мекен	-9.57719
▁уюштурган	-9.57752
ага	-9.5786
▁бөлүм	-9.57913
▁Атамбаевдин	-9.58041
▁Жу	-9.58048
▁сабак	-9.58159
▁коопсуздугун	-9.5816
▁терс	-9.58197
▁Сан	-9.58311
▁36	-9.58352
▁тар	-9.58377
▁арадагы	-9.58391
▁кайрылды	-9.58418
▁лидерлери	-9.58551
▁калкы	-9.58554
▁чыгарма	-9.58557
▁Жапония	-9.58591
▁Штаттар	-9.58595
еп	-9.58643
ше	-9.58647
▁алабыз	-9.58684
▁Ошону	-9.58805
▁тал	-9.58837
▁токто	-9.58841
▁Ким	-9.58896
▁коомчулук	-9.58947
▁отурум	-9.58963
▁имарат	-9.59085
▁жашта	-9.59113
▁чыгыш	-9.59115
▁кезекте	-9.59153
▁Уюмунун	-9.592
▁каршылык	-9.59203
▁медал	-9.59237
▁турмуш	-9.59275
▁Бакыт	-9.59359
▁учуп	-9.59359
▁сүйлөшүп	-9.59369
▁пайызы	-9.59429
▁жарыяла	-9.59456
▁билет	-9.5946
▁көпчүлүгү	-9.59556
▁башталгандан	-9.59587
▁жак	-9.59589
Ч	-9.59603
▁жигит	-9.59632
▁кеткени	-9.59707
▁мажбур	-9.59727
▁кагып	-9.59754
▁жүрө	-9.5977
▁кеңеши	-9.59793
▁Билим	-9.59794
▁коркунучу	-9.59795
лгон	-9.59879
дордун	-9.59906
▁M	-9.59931
▁кысым	-9.59955
торду	-9.59994
▁ачкан	-9.6001
▁сөзсүз	-9.60043
▁не	-9.6005
▁Кыргызстандан	-9.60051
▁Үч	-9.60056
ара	-9.60065
▁район	-9.6015
▁Мадумаров	-9.6015
өр	-9.60161
▁адвокаты	-9.60166
▁В	-9.60202
▁күчтөрүнүн	-9.60287
дүк	-9.60324
▁ур	-9.60359
▁карыз	-9.60448
▁чогул	-9.60502
▁Кызыл	-9.60528
▁мугалимдер	-9.60561
▁эрте	-9.60609
▁Польша	-9.60747
▁Ю	-9.60757
▁алдындагы	-9.6076
▁айт	-9.60788
▁аймагындагы	-9.60826
▁келбейт	-9.60876
▁тарбия	-9.60933
▁Ду	-9.60937
▁котор	-9.60942
▁өтүү	-9.60997
▁шаарына	-9.61015
▁курама	-9.61039
▁Аба	-9.61072
▁АКШда	-9.6108
▁кезек	-9.61092
▁32	-9.61095
▁бакча	-9.611
ас	-9.6111
▁кандуу	-9.6112
er	-9.61133
▁айырма	-9.6114
▁кызматташуу	-9.61155
▁жетектеген	-9.61158
▁жазуу	-9.61174
рас	-9.61177
тел	-9.61184
▁топто	-9.61211
▁чаралар	-9.61212
▁аэропорт	-9.61247
▁багыт	-9.6127
▁көзөмөлдөө	-9.61278
▁аялдардын	-9.61279
▁милдет	-9.61319
түр	-9.61336
▁Дональд	-9.61349
▁айылынын	-9.61397
▁тара	-9.61447
▁мамлекеттердин	-9.61494
▁түшүн	-9.61553
беренеси	-9.61569
▁үйдө	-9.61699
административдик	-9.61751
▁буйрук	-9.61752
▁келишкен	-9.61766
▁башаламандык	-9.61773
▁күчү	-9.6178
▁ырайы	-9.61784
▁экономикасы	-9.61825
▁жашка	-9.619
▁0	-9.61905
▁командасы	-9.6193
▁соттолгон	-9.61966
руп	-9.61992
ыз	-9.6206
бат	-9.62084
паган	-9.62089
▁шайла	-9.62091
▁Е	-9.62113
▁активдүү	-9.6218
▁катталып	-9.62186
▁жарыялап	-9.62208
P	-9.6226
▁төрага	-9.62292
+	-9.62321
▁сумма	-9.62322
▁коммерция	-9.62359
▁эмдөө	-9.62402
иянын	-9.62432
▁жыйыны	-9.62475
▁десе	-9.62527
таган	-9.62557
▁кырсыгы	-9.62562
▁жагы	-9.62574
▁Евразия	-9.62615
▁долларды	-9.62685
▁келбей	-9.62864
▁пикирлер	-9.62889
▁Ооганстанда	-9.62915
▁түштүк	-9.62915
күр	-9.62992
▁айтат	-9.63048
▁чече	-9.63118
▁Балдар	-9.63132
▁окшойт	-9.63174
▁келатат	-9.63174
▁жуу	-9.632
▁укуктуу	-9.63259
кс	-9.63359
▁өкмөтүнүн	-9.63394
ович	-9.63525
▁элчилиги	-9.63529
▁кайтаруу	-9.63562
▁45	-9.63565
▁Жума	-9.63574
▁айым	-9.63595
▁курулушу	-9.63653
▁системасын	-9.63732
▁Азиядагы	-9.63752
▁чыгар	-9.63921
▁по	-9.63979
▁калктын	-9.64066
▁үйлөр	-9.64104
дерге	-9.64122
▁на	-9.64123
▁аймагы	-9.64162
▁комиссиянын	-9.6417
▁Айыл	-9.64224
▁программа	-9.6426
дору	-9.64284
▁Али	-9.64313
▁со	-9.64323
E	-9.64324
▁коомдун	-9.6434
▁Жыл	-9.64343
▁жатты	-9.64382
сен	-9.64382
▁Дүйшөмбү	-9.6441
▁саналып	-9.6441
▁абагында	-9.64412
▁ашты	-9.64429
▁вирусту	-9.6448
▁жал	-9.64518
▁чеги	-9.64561
▁көйгөй	-9.64644
▁окуган	-9.64649
▁айлана	-9.64683
▁энергетика	-9.64705
▁акция	-9.64709
▁дүйнөдөгү	-9.64737
▁кызматын	-9.64769
мал	-9.64784
▁виза	-9.64792
▁мезгилде	-9.64817
▁кет	-9.64868
50	-9.64875
▁аймактагы	-9.64914
▁тараптын	-9.64942
▁мисал	-9.65055
▁берилип	-9.65156
▁салууга	-9.65186
▁айыпталып	-9.65263
▁Ин	-9.65395
▁бийлигинин	-9.65426
▁Ара	-9.65442
▁шайланган	-9.65455
▁Кабул	-9.6549
▁Баары	-9.65494
сто	-9.65498
▁күчөп	-9.65499
▁чектөөлөр	-9.65522
▁документтер	-9.65583
▁талкууга	-9.65627
▁Бала	-9.65789
абы	-9.65807
▁жоопкерчилиги	-9.65812
▁Стамбул	-9.65871
▁адамдан	-9.66019
▁сал	-9.66042
▁өсүп	-9.66083
▁алгандар	-9.66083
▁НАТО	-9.66213
орун	-9.66218
▁Азырынча	-9.66294
▁Москвага	-9.66323
▁аш	-9.66324
▁балдарды	-9.66344
кара	-9.66375
▁кодекс	-9.66379
▁Улан	-9.66403
an	-9.66409
▁кылууга	-9.66457
▁делген	-9.66514
▁үн	-9.66527
▁мурунку	-9.66562
▁Кой	-9.66605
▁арасынан	-9.66657
▁табуу	-9.66722
▁оңой	-9.66733
▁тараган	-9.66747
▁пост	-9.66779
жылкы	-9.66794
▁сунуштаган	-9.66821
▁маалыматтарга	-9.66838
лей	-9.66878
▁бүтүн	-9.66881
▁чыгууга	-9.6689
эл	-9.66929
▁жүздөгөн	-9.66944
▁айтышкан	-9.66982
Биз	-9.67018
▁аймактар	-9.67089
▁заман	-9.67143
▁жоокер	-9.6715
▁органдарынын	-9.67175
▁ич	-9.67211
▁ишмер	-9.67226
▁алышат	-9.67273
▁эреже	-9.67297
бул	-9.67307
▁Бишкекке	-9.67335
▁Мирзиёев	-9.67355
▁анча	-9.67363
▁сунушта	-9.67376
▁мына	-9.67393
оз	-9.67409
▁университет	-9.67478
▁жолун	-9.67493
▁депутаттык	-9.67495
илип	-9.67524
▁болбосун	-9.67568
▁бута	-9.67612
▁чыгышкан	-9.67644
улган	-9.6766
абыз	-9.6772
пайт	-9.67754
▁болуу	-9.67767
▁атаган	-9.67933
▁дүйнөнүн	-9.67982
▁барды	-9.68002
▁кирет	-9.68027
▁Россия	-9.68112
▁Ри	-9.6819
▁жугузуп	-9.68212
▁бөлмө	-9.68233
15	-9.68291
▁Эмне	-9.68342
▁келишимди	-9.68374
▁ук	-9.68406
▁мечит	-9.68428
▁Ни	-9.68474
▁фракциясы	-9.68535
▁өрттө	-9.68569
тикалык	-9.68599
▁Ти	-9.68609
бой	-9.68617
▁туруу	-9.68629
▁мырза	-9.68644
▁дипломатиялык	-9.68657
▁калыс	-9.68658
овду	-9.68729
имов	-9.68758
▁колдоосу	-9.6877
▁өлгөн	-9.68793
▁ачыкка	-9.68794
▁журналисттерге	-9.68815
тация	-9.6885
▁Италия	-9.68861
▁Британиянын	-9.68866
▁эсебинде	-9.68872
▁коло	-9.689
▁сындап	-9.68937
▁машине	-9.68938
▁тартыш	-9.68948
▁150	-9.68978
ылып	-9.69025
сунун	-9.69038
▁бирдиктүү	-9.69078
▁тараптар	-9.69147
▁жарандарды	-9.69193
▁Че	-9.69227
пу	-9.69244
▁үмүт	-9.69268
▁токтом	-9.6929
▁жумган	-9.69304
▁тарыхы	-9.69314
август	-9.69317
▁айла	-9.69339
▁баарына	-9.69379
▁майрам	-9.69385
▁кеч	-9.69446
▁өзгөрт	-9.6947
▁саналган	-9.69519
▁батир	-9.69521
▁ХАМАС	-9.69619
▁ас	-9.69666
▁жараян	-9.69668
▁атап	-9.6968
▁29	-9.69682
төрдү	-9.69689
таш	-9.69689
▁Мекен	-9.69721
▁өндүрүү	-9.6973
лешкен	-9.69778
▁ырастады	-9.69859
өлү	-9.69883
гыла	-9.6989
▁планы	-9.69913
▁2024-	-9.6995
▁беле	-9.69967
▁окуучу	-9.69975
▁сынак	-9.69981
▁сөздөр	-9.70045
▁демократиялык	-9.7007
▁облус	-9.70089
▁Окуя	-9.70169
▁Социалдык	-9.70169
▁судья	-9.70201
▁көрү	-9.70237
▁ор	-9.70239
ология	-9.70285
лю	-9.70417
▁айланып	-9.70438
чылыгы	-9.7054
▁иштетүү	-9.70553
in	-9.70603
▁кылууда	-9.70644
▁Бакиев	-9.70659
тарынын	-9.70711
▁алса	-9.70724
▁санкциялар	-9.70758
▁T	-9.70768
▁жетип	-9.70822
▁жүр	-9.7083
түк	-9.70882
▁Ошто	-9.70913
▁жиберген	-9.70924
ar	-9.70957
▁кез	-9.71049
▁бийлигин	-9.71103
▁форма	-9.71134
лерге	-9.71187
▁тууган	-9.71193
▁орно	-9.71214
▁жанында	-9.7125
▁Текебаев	-9.71274
▁алышты	-9.71314
▁тилинде	-9.71448
▁булактар	-9.71457
▁сайтында	-9.71488
▁отурат	-9.71546
▁акысы	-9.71592
▁көчө	-9.71601
▁бош	-9.71609
▁макулдашуу	-9.71687
▁жумша	-9.71695
▁мамлекети	-9.71728
▁койсо	-9.71741
▁Көк	-9.71748
▁Конституция	-9.71793
▁кошул	-9.71921
▁саясатын	-9.71938
▁эскерткен	-9.71958
▁араны	-9.72008
үм	-9.72039
чачын	-9.72043
▁массалык	-9.72045
▁Р	-9.72198
▁ооруп	-9.7222
▁беришкен	-9.72268
▁курман	-9.723
▁мөөнөтүн	-9.72329
▁беришти	-9.72351
▁ишканасынын	-9.72364
▁Ч	-9.72368
▁жумду	-9.72405
▁учурдагы	-9.7241
▁кошкон	-9.72414
▁миллиондон	-9.72415
▁кошуна	-9.72437
сиң	-9.72442
▁банктар	-9.72484
▁тартты	-9.72523
▁түндүк	-9.72598
▁анткени	-9.72613
▁протокол	-9.72613
▁сүйлөшүүлөрдү	-9.72623
▁көрсөтмө	-9.72629
▁үйдүн	-9.72704
▁кесепети	-9.72775
▁34	-9.72796
▁Ту	-9.72825
▁айланган	-9.72937
▁мекенине	-9.72961
еш	-9.72992
▁жайкы	-9.73017
or	-9.73038
ая	-9.73041
▁алынганын	-9.73042
▁радиосуна	-9.73073
▁баян	-9.73102
▁жолку	-9.73131
▁салым	-9.73191
▁беттеш	-9.73245
▁чечимди	-9.73276
▁Чыңгыз	-9.7329
▁тургун	-9.733
▁Октябрь	-9.73329
▁Таш	-9.73368
▁кезектеги	-9.73375
▁I	-9.7356
▁маалыматында	-9.73586
▁борбордук	-9.73589
▁өлкөлөргө	-9.73602
лөрүн	-9.7363
▁ком	-9.73694
▁турду	-9.73729
үз	-9.73729
▁Райымбек	-9.73744
▁чыныгы	-9.73745
▁кетишкен	-9.73753
▁демократия	-9.73786
▁токтоп	-9.73795
▁чал	-9.73814
исттик	-9.73875
▁келүү	-9.7389
макчы	-9.73892
▁Хан	-9.73961
▁Бар	-9.73965
▁эли	-9.73966
▁жетекчи	-9.74022
ңүз	-9.74027
▁колдонгон	-9.74041
рай	-9.74053
▁үйү	-9.74105
17	-9.74107
▁бөлүгүн	-9.74162
▁тартип	-9.74327
▁400	-9.74354
▁Ооганстандын	-9.74394
илген	-9.74414
▁тилин	-9.74414
▁карапайым	-9.74453
▁Москвадагы	-9.74455
өм	-9.74458
▁ИИМ	-9.74475
▁кое	-9.74551
синде	-9.74563
▁адамдарга	-9.74589
▁технология	-9.74616
▁кыш	-9.74622
алды	-9.74655
▁лицензия	-9.74659
бет	-9.74681
▁айыптоо	-9.74716
▁тик	-9.74767
▁Султан	-9.7479
▁долбоорунун	-9.7479
▁баяндама	-9.74807
▁демилге	-9.74839
▁Жеңиш	-9.74889
▁жолугуп	-9.7489
▁жүрүшү	-9.74945
▁тест	-9.74947
▁кампа	-9.75056
▁четте	-9.75056
▁карта	-9.75065
▁талапкерлер	-9.75075
▁аракетин	-9.75107
боо	-9.75112
лорду	-9.75223
▁Ор	-9.75266
▁сураган	-9.753
▁Согуш	-9.75352
▁жыйынтыгын	-9.75377
▁керектүү	-9.75527
▁институту	-9.75542
мок	-9.75561
▁согушта	-9.75562
▁такта	-9.75567
▁өкмөттүк	-9.75631
▁кары	-9.7564
ери	-9.75713
▁ташуучу	-9.75744
▁такыр	-9.75769
▁дрон	-9.75774
▁мунун	-9.75804
ушту	-9.75805
▁инфекция	-9.7582
▁мэри	-9.75865
бол	-9.75884
▁дайыма	-9.75947
▁санитардык	-9.7605
▁Анкара	-9.76062
▁уланууда	-9.76069
▁маалымдоо	-9.76072
▁стратегиялык	-9.76079
убуз	-9.76164
▁жибер	-9.76167
▁мигранттардын	-9.76167
▁келбеген	-9.76185
▁көбөйүп	-9.76279
▁татаал	-9.7628
▁сапаты	-9.76283
▁жашыруун	-9.76286
▁айтылууда	-9.76291
▁сүйлө	-9.76328
▁сыноо	-9.76363
▁алдыга	-9.76373
▁ачы	-9.76395
үштү	-9.76451
▁ооруканалар	-9.76465
▁бергенин	-9.76476
▁күчүнө	-9.76509
▁таратып	-9.76533
▁жыйынтыгында	-9.76643
▁уу	-9.76654
олог	-9.76695
▁облустарында	-9.76701
▁Голд	-9.76753
▁Германиянын	-9.76754
▁келишимге	-9.76759
улуп	-9.76764
on	-9.76862
▁Жалпы	-9.76868
▁журналисттердин	-9.76893
▁тапшырган	-9.76956
▁жоюу	-9.76962
▁аймакты	-9.76963
▁Азиз	-9.77012
об	-9.77033
▁база	-9.77079
чысы	-9.77143
▁куту	-9.77272
имди	-9.773
▁калдык	-9.77372
▁кармаган	-9.77394
▁албайбыз	-9.77407
▁баштайт	-9.77413
▁прокуратурасы	-9.7744
▁бөлүнгөн	-9.77453
өгү	-9.77467
▁дегенди	-9.77479
▁радиосунун	-9.77528
▁Се	-9.77569
▁маал	-9.77647
▁окуяларды	-9.77744
▁температурасы	-9.77781
▁сырттан	-9.77788
▁Ооганстандагы	-9.77808
▁кыймылынын	-9.77916
▁иштерине	-9.77934
▁тастыкта	-9.78013
▁эмеспи	-9.78032
▁Эркин	-9.78043
▁жакты	-9.78069
▁жардамы	-9.78121
▁өзүм	-9.78127
▁бирдей	-9.78139
▁Өлкө	-9.78285
▁той	-9.78296
▁орган	-9.78366
▁алмашуу	-9.78407
F	-9.7841
▁төмөнкү	-9.78416
▁токтотуп	-9.78423
▁атуу	-9.78468
Бир	-9.78513
ент	-9.7858
▁болгондо	-9.78598
▁куруп	-9.78602
▁документтерди	-9.78622
▁валюта	-9.7864
▁Тегеран	-9.78641
▁па	-9.78675
деген	-9.78677
▁төлөө	-9.78718
▁энергиясын	-9.78729
▁коопсуз	-9.78744
▁колуна	-9.7877
▁түрмөдө	-9.78808
▁көрсөттү	-9.78832
▁өлүмүнө	-9.78851
▁31	-9.78859
▁жетекчилер	-9.78975
лору	-9.79042
▁тапшырма	-9.79059
чак	-9.79061
вер	-9.79073
▁жердеги	-9.79085
▁милициянын	-9.7912
▁басымдуу	-9.79125
лүгү	-9.79215
▁соттор	-9.79222
беген	-9.79243
мент	-9.79323
сия	-9.79326
▁угуп	-9.79341
▁сыртка	-9.79353
▁пенсия	-9.7936
▁беткап	-9.79362
▁Исаков	-9.79381
▁армия	-9.79401
▁Ирак	-9.7942
▁президентке	-9.79439
▁сомду	-9.7946
аг	-9.79466
▁сындаган	-9.7948
▁суткада	-9.79514
▁студент	-9.7957
▁соңунда	-9.79582
▁эркек	-9.79692
Мен	-9.79762
▁Бол	-9.79827
▁килограмм	-9.79842
илди	-9.79846
▁Не	-9.79853
▁талибдер	-9.79928
▁фонд	-9.80013
▁чалдыккан	-9.80048
▁кызматынан	-9.80056
▁пайызга	-9.80078
экономикалык	-9.80104
▁иштөө	-9.8011
жу	-9.80127
чусу	-9.80146
▁Х	-9.80151
▁калтыр	-9.80186
▁Жарандык	-9.80193
▁чыкканын	-9.80195
ңуз	-9.80232
▁кула	-9.80262
▁окуяга	-9.80264
лоого	-9.8029
▁сунушу	-9.80313
▁жөнөкөй	-9.80327
▁саламаттыгы	-9.80327
лөргө	-9.80349
октябрдагы	-9.80354
▁үйүндө	-9.8036
▁жатса	-9.80465
▁кесип	-9.80537
▁беребиз	-9.80545
▁жарадар	-9.80555
w	-9.80571
▁тилке	-9.80592
N	-9.80594
▁Марат	-9.80619
▁Казакстанга	-9.80635
▁Жети	-9.80742
▁мигрант	-9.80772
▁класс	-9.80865
ком	-9.80931
▁туу	-9.80936
терде	-9.81006
▁баланын	-9.8103
▁төмөн	-9.81033
▁болууга	-9.81037
▁ислам	-9.81059
▁мектепте	-9.81064
▁жубайы	-9.81068
M	-9.81084
▁Республика	-9.8111
▁Түрк	-9.81257
▁Тай	-9.81261
▁ичи	-9.81269
▁Кан	-9.81275
▁токтолду	-9.81305
▁Аман	-9.81305
▁билбей	-9.81441
▁таба	-9.81443
▁Л	-9.81474
талган	-9.81516
▁июнь	-9.8153
▁F	-9.81541
▁айыпталган	-9.81583
▁атынан	-9.81616
▁окуяны	-9.81755
▁чараларды	-9.8176
▁адвокат	-9.81816
▁ойно	-9.81859
▁жүрүшүндө	-9.819
▁аткарыл	-9.81902
16	-9.81925
ят	-9.81952
▁түр	-9.82013
▁акциялар	-9.82024
▁шаардын	-9.82044
▁армиясынын	-9.82047
▁тактоо	-9.82055
▁түзүлүп	-9.82072
йын	-9.82076
Султан	-9.82077
▁кармаш	-9.82209
▁эркиндик	-9.82237
▁объект	-9.82285
▁Маданият	-9.82291
▁жүрүү	-9.8231
нер	-9.82326
▁лидер	-9.82365
▁жарандыгын	-9.82407
▁түшүндүрмө	-9.82442
▁зал	-9.82445
ткен	-9.82483
▁мелдеш	-9.82511
▁изде	-9.82511
▁көк	-9.82523
B	-9.82577
▁Сал	-9.82584
▁өлкөнү	-9.82587
▁кайта	-9.82588
▁жооптуу	-9.82605
▁корго	-9.82628
рал	-9.8267
▁канал	-9.82672
жар	-9.82772
еге	-9.82776
▁Асан	-9.82779
▁схема	-9.82787
▁эвакуация	-9.82787
▁көркөм	-9.82788
▁сүйлөгөн	-9.82823
теш	-9.82837
▁37	-9.82912
▁башчылары	-9.82941
▁салууну	-9.82949
▁Сар	-9.83005
▁х	-9.83009
▁болуш	-9.83127
▁жөө	-9.83141
▁эркектер	-9.83193
▁тилкеси	-9.83196
▁которуу	-9.83234
▁өтүшү	-9.83269
▁каржылоо	-9.83312
▁жүрдү	-9.83314
дүр	-9.83325
▁айыптаган	-9.83329
▁тизмесине	-9.83402
▁штаб	-9.83419
▁алака	-9.83427
кеев	-9.83455
▁Ташкент	-9.83468
▁сезим	-9.83469
▁Грузия	-9.83475
▁сүйлөшкөн	-9.83548
▁белгиле	-9.83558
▁Сауд	-9.83561
▁тийген	-9.83586
▁Казак	-9.83685
эне	-9.83728
▁силер	-9.83735
▁мүнөздө	-9.83761
▁Ро	-9.83764
▁1,5	-9.83777
▁Негизи	-9.83787
▁жардыруу	-9.8379
гысы	-9.83814
баганын	-9.83836
ологиялык	-9.83851
▁айланды	-9.83884
▁Бер	-9.83885
▁мекеменин	-9.83896
▁полициясы	-9.83908
▁Пе	-9.83941
лот	-9.83997
төө	-9.8404
▁Париж	-9.84041
▁теле	-9.84052
▁көтөргөн	-9.84067
баевдин	-9.84072
▁калдым	-9.84091
▁билдирүүсү	-9.84121
▁чабуулу	-9.84122
▁кабарлагандай	-9.84133
лерин	-9.84136
▁44	-9.84144
▁борборунда	-9.84217
дейт	-9.84218
▁кырдаалга	-9.8422
түз	-9.84225
▁эсте	-9.84274
▁Жазык	-9.84293
▁тарапташтары	-9.84294
▁жою	-9.84309
▁буларды	-9.84315
▁Базар	-9.84325
▁колдонууга	-9.84354
en	-9.84374
▁жаатында	-9.84379
июн	-9.84397
▁аймак	-9.84437
▁ташып	-9.8444
ышат	-9.84466
бири	-9.84496
▁ордун	-9.84529
▁Өлкөдө	-9.84571
▁бергени	-9.84758
эн	-9.84774
▁өңдүү	-9.84805
▁чыгары	-9.84836
күл	-9.84861
▁мерт	-9.8491
бекова	-9.84926
▁аялы	-9.84933
▁ач	-9.84942
Ко	-9.84951
▁иштин	-9.8496
▁ГЭС	-9.84983
▁Аларды	-9.85011
ZKo	-9.85054
Вагнер	-9.85055
▁көтөрүлүп	-9.85058
▁мандат	-9.85086
кур	-9.8509
▁мэр	-9.85161
▁Беларуста	-9.85172
▁сөзү	-9.85203
▁коронавирустан	-9.85256
▁про	-9.85278
▁артында	-9.85299
▁күнөөсү	-9.85311
▁илимдер	-9.85329
▁элчилик	-9.8534
▁кызык	-9.85432
▁балдарга	-9.85545
25	-9.8559
▁тушунда	-9.8569
исттер	-9.85696
▁арызын	-9.85723
▁алдыңкы	-9.85822
▁ролу	-9.85837
▁айдоочулар	-9.85882
▁Сирия	-9.86006
▁талкуула	-9.86007
дир	-9.86008
айым	-9.86011
▁Жакында	-9.86043
▁банктын	-9.86077
▁алмаштыруу	-9.8608
▁түшүндүрдү	-9.86144
▁жолго	-9.8615
▁атады	-9.86159
▁коюлду	-9.86168
▁ушу	-9.86169
▁штат	-9.86282
▁акциясы	-9.86305
▁бо	-9.86312
▁жылына	-9.86346
▁өзгөрүү	-9.86363
▁сүр	-9.86367
▁кытайлык	-9.86455
▁макамы	-9.86479
▁көл	-9.86575
▁аралыгында	-9.86595
▁радикал	-9.86595
жыл	-9.86597
▁балбан	-9.86597
▁алууда	-9.86611
▁кабарчысы	-9.86625
▁гезит	-9.86675
▁оо	-9.86824
▁келечеги	-9.86854
▁Интернет	-9.86863
▁согушту	-9.86869
▁жеринен	-9.86873
▁чогулуп	-9.86887
▁сыйлык	-9.86959
▁кеңсеси	-9.8701
▁үлгү	-9.87012
▁тармагында	-9.8702
▁Ү	-9.87093
▁Чоң	-9.87102
▁жарлык	-9.87119
▁Жалпысынан	-9.87125
▁кылмышка	-9.87195
▁Ви	-9.87219
▁Индия	-9.87232
▁салышты	-9.87236
▁тизме	-9.87286
▁ЕАЭБ	-9.87301
▁хан	-9.87369
▁облусуна	-9.87369
▁Шер	-9.87404
▁бийлигине	-9.87411
▁даярдоо	-9.87428
▁Дастан	-9.87433
али	-9.87453
▁кылышкан	-9.8746
▁кыздын	-9.87484
▁38	-9.87501
▁түшүндүрүү	-9.87525
Ал	-9.87536
▁жашоосу	-9.87558
▁келгени	-9.87568
шууда	-9.87574
▁көбөйдү	-9.87635
▁биримдиги	-9.87637
▁сала	-9.87672
▁күчөтүү	-9.87681
▁Шаар	-9.87742
▁Темиров	-9.87746
v	-9.87752
▁Франция	-9.87762
▁аткарып	-9.87767
уз	-9.87841
леп	-9.87855
▁бирине	-9.87858
▁чечимине	-9.87871
▁окшош	-9.87898
▁жуккан	-9.879
▁бошотулган	-9.8798
шо	-9.87988
▁мамлекетте	-9.87993
▁күнүнө	-9.88
▁эгемендик	-9.88021
▁кытай	-9.88036
▁атын	-9.8804
▁оппозициялык	-9.88097
▁мэриясы	-9.88099
▁экендигин	-9.8811
чаралар	-9.88128
24	-9.88137
▁акыры	-9.8814
▁кызуу	-9.88144
▁Руслан	-9.8816
▁жакшыртуу	-9.88164
▁көтөрүлгөн	-9.88165
луп	-9.88177
▁суунун	-9.88254
▁сайты	-9.88259
мер	-9.88265
▁эскерт	-9.88304
▁иштен	-9.88355
үлдү	-9.88402
үлүп	-9.88406
жылдар	-9.88408
▁өч	-9.88457
▁абадан	-9.88462
▁берки	-9.88475
изация	-9.88481
ула	-9.88544
▁берене	-9.88568
чулардын	-9.88586
▁B	-9.88646
▁көздөп	-9.88689
▁колдонул	-9.88699
▁конституциялык	-9.88699
▁соз	-9.88713
▁аракеттер	-9.88777
ташкан	-9.88792
▁мамилеси	-9.88819
▁түздү	-9.88838
▁жашайт	-9.88888
▁Ф	-9.88985
▁жарандарга	-9.88987
▁Жар	-9.89012
▁Андай	-9.89015
▁администрация	-9.89059
жай	-9.89066
▁салмакта	-9.89102
▁агенттигинин	-9.89105
лон	-9.89128
▁жылдар	-9.89137
▁Гу	-9.89201
Ш	-9.89251
▁иштебей	-9.89257
чил	-9.89271
▁кошуп	-9.89284
▁кылышты	-9.8935
▁тармагы	-9.89353
▁Абд	-9.89426
▁кетсе	-9.8946
▁чалгын	-9.89476
▁ашып	-9.89497
▁курамы	-9.89513
▁коомчулуктун	-9.89585
▁75	-9.89613
▁Экономика	-9.89629
▁Мама	-9.89653
▁тарыхында	-9.89719
▁абагына	-9.89755
сал	-9.89757
▁экспорт	-9.89764
▁Андыктан	-9.89779
▁Дар	-9.89781
▁программасы	-9.89784
▁тек	-9.89818
▁жасады	-9.89836
үүчү	-9.8986
айын	-9.89925
▁Кытайга	-9.89985
▁мин	-9.89998
▁жатпайбы	-9.90019
▁маек	-9.90036
▁текшерип	-9.90038
дарынын	-9.9004
иев	-9.90044
▁таануу	-9.90071
▁кама	-9.90214
▁азайтуу	-9.90228
▁дене	-9.90261
U	-9.90285
▁жайылышы	-9.90303
▁алынат	-9.90305
▁ээлеп	-9.9031
Бүтүн	-9.90336
▁тий	-9.90359
▁дарылоо	-9.90389
▁калганда	-9.90418
туп	-9.90423
▁Ц	-9.90443
▁моюн	-9.90526
▁Астана	-9.90533
▁аткаминерлер	-9.90547
▁Талант	-9.90555
ованын	-9.90612
▁жылуу	-9.9062
▁радиосу	-9.90717
▁угу	-9.90744
f	-9.90823
еси	-9.90879
al	-9.9094
үүнү	-9.90954
▁жолдор	-9.90972
▁өскөн	-9.90988
▁сайтына	-9.90992
ог	-9.91004
▁учура	-9.91006
▁кошулган	-9.91022
▁тай	-9.91025
▁органдарына	-9.91055
▁дешет	-9.91093
▁кагылышуу	-9.91104
▁тура	-9.91124
▁48	-9.91145
▁турабыз	-9.9117
▁Айбек	-9.91202
▁Тү	-9.91224
ини	-9.9126
тардан	-9.91303
▁Журналист	-9.91305
▁Кон	-9.91307
▁уруш	-9.91312
▁кеңештин	-9.91318
▁террор	-9.91339
▁позиция	-9.91362
▁жарылуу	-9.91366
▁көздөгөн	-9.91398
▁токтотууга	-9.91399
сентябр	-9.91424
бор	-9.91436
▁жерлерде	-9.91445
диктен	-9.91459
▁аянты	-9.9151
лайт	-9.91514
▁нерсени	-9.91545
беренесинин	-9.91607
▁Рыс	-9.91636
▁Бейшеналиев	-9.91637
▁жайлар	-9.91666
▁Токтогул	-9.91719
D	-9.91744
▁Кытайдан	-9.91768
▁кг	-9.91809
▁Трамптын	-9.91852
▁белгилейт	-9.91953
▁мааниси	-9.9201
12	-9.9206
▁ойлон	-9.92078
▁сунуштады	-9.92096
лас	-9.92131
▁окууда	-9.92137
циялык	-9.92157
▁Сузак	-9.92184
▁пайдаланып	-9.9222
ич	-9.92229
▁жаратып	-9.92286
▁порт	-9.92378
▁берерин	-9.92411
▁казакстандык	-9.92456
▁апрель	-9.92507
▁ошондо	-9.92561
▁акчасын	-9.92598
▁жеткир	-9.92686
18	-9.9272
▁Рахмон	-9.9273
▁жумушка	-9.92758
▁мектептер	-9.92817
▁аракеттери	-9.92849
▁сүй	-9.92854
▁Министр	-9.92909
▁билдиришкен	-9.93006
дорду	-9.93006
▁айыптады	-9.93007
ошого	-9.9304
ский	-9.93065
▁Орто	-9.9308
үндөгү	-9.93109
▁Хо	-9.93173
▁дипломат	-9.93179
▁кирди	-9.93209
сунан	-9.93237
▁өзүбүз	-9.93258
▁кабылып	-9.93273
▁албетте	-9.93282
▁бейөкмөт	-9.93284
▁кабинети	-9.93299
▁жакынкы	-9.93349
▁Асанов	-9.93352
▁алгандан	-9.93364
▁сутка	-9.93398
▁Кор	-9.93433
▁уланта	-9.93434
▁сөзүнө	-9.93439
▁катарында	-9.9344
▁банкы	-9.9345
▁Навальный	-9.9349
тей	-9.93504
▁Токто	-9.93511
ад	-9.93522
тивдүү	-9.93535
▁Каракол	-9.93577
кысы	-9.9359
▁мойнуна	-9.93613
▁конуш	-9.93646
▁абалын	-9.93722
умду	-9.93758
Сай	-9.93763
▁юридикалык	-9.93837
▁орунда	-9.93854
▁натыйжалуу	-9.93872
▁Чо	-9.93957
ташты	-9.93993
▁Темир	-9.93994
▁кызматкерлерине	-9.9401
▁кирүү	-9.94011
▁аза	-9.94029
▁ташуу	-9.9403
▁түп	-9.94107
▁бекемдөө	-9.94125
▁Өкмөттүн	-9.94157
чилик	-9.94169
▁өкмөткө	-9.94224
▁Назарбаев	-9.94224
Ислам	-9.94244
O	-9.94244
▁жокпу	-9.94263
▁аткыла	-9.94301
▁сунуштар	-9.94319
▁шаарларында	-9.94323
▁президентинин	-9.94335
▁быйылкы	-9.94344
▁көмөк	-9.94393
▁Мир	-9.94436
▁мөөнөткө	-9.94438
▁өткөрүүгө	-9.94445
▁шаарда	-9.94464
▁аскери	-9.94469
▁Телеграм	-9.94502
▁эгемен	-9.94532
бирине	-9.94631
▁келгендер	-9.9465
эки	-9.9465
▁факты	-9.9466
▁генерал	-9.94675
▁көпүрө	-9.9468
▁өткөрүл	-9.94683
▁базасы	-9.9476
▁айтканы	-9.94791
▁Эч	-9.94797
үбүз	-9.94837
▁ойдо	-9.9486
▁жасай	-9.94863
▁колунда	-9.94866
▁оюндары	-9.94872
▁финал	-9.94933
гуу	-9.94969
Ай	-9.95005
жөнү	-9.95078
▁өлкөлөрүнүн	-9.95082
▁Баткенде	-9.9509
▁700	-9.95108
дөрдүн	-9.95117
▁көрсөт	-9.95135
▁эм	-9.95186
▁Сен	-9.9519
▁По	-9.95214
▁шарттары	-9.95236
▁бузуп	-9.95238
▁иштелип	-9.95256
▁V	-9.9526
▁элем	-9.95277
басын	-9.95285
▁товарларды	-9.95317
▁мектепке	-9.95318
▁күт	-9.95326
лордун	-9.95375
▁казына	-9.95424
▁каражатты	-9.95455
▁баалуу	-9.95466
▁башкарган	-9.95513
▁жабыр	-9.95517
▁лаборатория	-9.9552
▁Калган	-9.95532
▁аралыкта	-9.95549
▁БУУ	-9.9559
ишти	-9.95639
▁парламентке	-9.95781
▁утуп	-9.95825
▁башына	-9.95839
▁автобус	-9.95885
▁ысы	-9.9589
ышына	-9.95922
▁бербейт	-9.95943
▁коомдо	-9.9595
▁өздөрүнүн	-9.9595
▁десек	-9.9599
▁учуру	-9.96004
40	-9.96011
рдык	-9.96029
▁реакция	-9.9609
▁октябрь	-9.96096
▁көчүп	-9.96098
▁көзөмөлдө	-9.96133
▁чоо	-9.96149
лорго	-9.96203
▁кызматтар	-9.96208
▁сурады	-9.96263
▁айылындагы	-9.96281
▁чыккандар	-9.963
▁Лейлек	-9.96372
▁башталып	-9.96456
ибизди	-9.96615
▁Эс	-9.96638
▁прокуратуранын	-9.96639
▁унут	-9.96655
▁Максат	-9.96659
▁Өзбекстанга	-9.9672
▁санкцияларды	-9.96802
оро	-9.96814
▁жумада	-9.96826
чул	-9.9683
▁шайлоону	-9.96853
▁имараттар	-9.9687
▁Менимче	-9.96944
▁бөлүнүп	-9.96944
▁жоокерлер	-9.96958
▁эмесмин	-9.96958
▁таратты	-9.96959
▁ресурс	-9.96966
▁каккан	-9.96976
▁башталат	-9.96994
▁Жаш	-9.96997
▁абалга	-9.9701
▁55	-9.97022
▁Эмгек	-9.9706
▁көбөйтүү	-9.97068
▁уккан	-9.97079
др	-9.97097
▁божомол	-9.97115
▁Кудай	-9.97126
▁ою	-9.97138
▁туткун	-9.9718
цио	-9.97185
▁Жакынкы	-9.97232
▁келтирилген	-9.97237
овго	-9.97237
▁кеткенде	-9.97274
▁Лукашенко	-9.97298
▁саткан	-9.97324
ноябр	-9.97368
▁P	-9.97372
▁Ве	-9.97465
▁өзгөрүүлөр	-9.9749
▁таанылган	-9.97553
▁советтик	-9.97558
▁Фи	-9.97564
▁Жээнбековдун	-9.97579
▁Сапар	-9.97584
▁эсебинен	-9.97596
ңөр	-9.97623
▁байланышта	-9.97641
▁имараты	-9.97659
▁берүүдө	-9.97692
бузду	-9.97725
▁күмүш	-9.97809
▁Лондон	-9.97809
▁Азамат	-9.97809
▁аткылоо	-9.97811
▁кызматтары	-9.97843
▁учурга	-9.97917
▁кылабыз	-9.97952
▁өспүрүм	-9.97978
▁окумуштуулар	-9.97979
дырып	-9.98021
▁Ле	-9.98043
▁көздөй	-9.98053
▁коро	-9.98072
▁коюл	-9.98122
▁компаниянын	-9.98163
▁Беларустун	-9.98176
▁турганда	-9.9821
чет	-9.983
эпидемиологиялык	-9.98315
▁тийгиз	-9.98323
▁тили	-9.9837
▁күмөн	-9.98374
▁Кадыр	-9.98379
▁Кай	-9.98387
▁кереги	-9.9839
▁турушат	-9.98432
▁кесепет	-9.98448
▁келишими	-9.98456
дж	-9.98464
▁кызыл	-9.98468
▁долбоорду	-9.98657
▁Балким	-9.98681
▁климатты	-9.98686
▁катышуучулары	-9.98756
▁пикири	-9.98778
▁чаралары	-9.98801
▁башкалар	-9.98809
▁г	-9.9893
▁жетет	-9.98941
▁согушу	-9.9895
▁өткөрдү	-9.98964
▁тармагындагы	-9.98969
▁Дмитрий	-9.98973
▁коргоп	-9.98974
▁тыйын	-9.98975
▁көбөйгөн	-9.98978
▁жетишкен	-9.98992
▁астында	-9.99002
▁орду	-9.99028
▁жайларды	-9.99104
▁ишинин	-9.99125
рес	-9.99205
▁Крым	-9.99249
Бул	-9.99269
▁Иранда	-9.99271
▁оңдоо	-9.99331
▁гүл	-9.99348
▁калбай	-9.99404
▁себептен	-9.99416
▁коомчулукка	-9.9943
Эркин	-9.99439
▁окуучулар	-9.99488
▁Кээ	-9.99529
▁Акыйкатчы	-9.99561
▁Канада	-9.99584
▁түшүнүк	-9.99604
▁кайрылуусунда	-9.99657
▁тактап	-9.99679
▁жолугушууда	-9.99773
▁Фр	-9.99811
▁каржылык	-9.99836
▁китеби	-9.99856
▁жеңип	-9.99856
ья	-9.99895
▁Ленин	-9.99917
▁чектеш	-9.99956
тогу	-10.0006
▁кенин	-10.0013
▁козго	-10.0015
▁белгиленди	-10.0015
▁мөөнөтүнө	-10.0017
▁дарылануу	-10.0017
▁биримдик	-10.0017
▁Абды	-10.002
▁саммит	-10.0022
▁тармак	-10.0023
▁маркум	-10.0029
▁агенттигине	-10.003
▁жылуулук	-10.0034
▁тартууга	-10.0036
▁Курманбек	-10.0044
▁жеткирилген	-10.0045
▁мээ	-10.0046
мил	-10.0046
▁салыш	-10.0047
▁тоскоолдук	-10.0049
▁ашыкча	-10.005
▁ташта	-10.0055
▁фондунун	-10.0062
бейт	-10.0068
▁Жи	-10.007
▁райондордо	-10.0075
▁катарына	-10.0075
▁булар	-10.0076
▁депутаттардын	-10.0081
▁натыйжасында	-10.0082
▁Навальныйды	-10.0082
▁спортчу	-10.0083
▁үйгө	-10.0088
▁аман	-10.0088
лген	-10.0093
▁кезинде	-10.0094
тылган	-10.0097
▁жайында	-10.0103
▁Бизге	-10.0103
▁уюштуруп	-10.0106
kg	-10.0107
▁энергия	-10.0114
ант	-10.0119
▁жыйынга	-10.0121
ланды	-10.0123
ед	-10.0124
▁август	-10.0128
▁Мекеме	-10.0128
▁Ру	-10.0129
▁Абду	-10.013
▁автор	-10.0133
▁Азербайжандын	-10.0134
▁Мамытов	-10.0134
▁барбы	-10.0137
▁бузган	-10.014
мдын	-10.014
ван	-10.0143
▁шайлоодон	-10.0143
▁талаптар	-10.0144
▁куу	-10.0144
▁Экинчиден	-10.0148
▁абактан	-10.0153
▁эркиндигин	-10.0164
▁Адвокат	-10.0164
▁Жусуп	-10.0164
▁режим	-10.0165
▁күндүк	-10.0171
▁орнотуу	-10.0173
▁Араб	-10.0175
▁биле	-10.0175
лүгүн	-10.0179
ыңыз	-10.0185
▁сөзүн	-10.0188
▁чыгара	-10.0191
▁инфраструктура	-10.0195
▁ичиндеги	-10.0203
▁каттоодон	-10.0208
лүктү	-10.0209
ыкты	-10.0213
саясий	-10.0214
▁пандемиясы	-10.0224
▁жайларда	-10.0238
▁качкындар	-10.0241
▁блогер	-10.0246
▁ИИМдин	-10.0247
▁элинин	-10.0254
▁Харьков	-10.0255
▁айрыкча	-10.0255
▁Оору	-10.0256
▁күнөө	-10.026
теринин	-10.0265
▁атышуу	-10.0265
▁окутуу	-10.0265
ланат	-10.0266
штырып	-10.027
▁баратат	-10.0275
▁чөлкөм	-10.0275
өзү	-10.0276
19	-10.0283
▁Салык	-10.0285
▁репрессия	-10.0285
▁2012-	-10.0285
▁жабуу	-10.0286
▁киргизип	-10.029
▁басылмалар	-10.0296
▁кызматта	-10.0297
▁убакытта	-10.0305
▁Кир	-10.0312
▁Африка	-10.0316
▁Го	-10.0318
▁65	-10.0327
▁Бал	-10.0333
▁аралашкан	-10.0337
▁бузуулар	-10.0344
танып	-10.0345
▁жолуккан	-10.035
▁узар	-10.0352
▁ЖЭБ	-10.0358
▁Өлкөнү	-10.0359
it	-10.0362
▁Кытайда	-10.0362
▁кичи	-10.0365
Е	-10.0367
айкын	-10.0368
класс	-10.0368
▁партиялардын	-10.037
▁тажрыйбасы	-10.0371
▁абакка	-10.0374
▁айдын	-10.0374
маш	-10.0375
▁жөнөткөн	-10.0377
▁каарман	-10.0377
▁дайынсыз	-10.0377
▁артыкчылык	-10.0377
▁жуктуруп	-10.0378
▁чыкса	-10.0378
▁токой	-10.0378
▁тосуп	-10.0379
▁туризм	-10.038
▁Ис	-10.0382
▁коюшкан	-10.0384
жайы	-10.0393
▁күндүн	-10.04
▁аймактарды	-10.0402
апрелге	-10.0406
▁жаратылыш	-10.0408
▁Кремлди	-10.0412
▁Ас	-10.0415
▁иштеш	-10.0416
▁төлөмдөр	-10.0419
шкен	-10.042
▁жолду	-10.0428
▁Жаза	-10.0428
ыя	-10.0429
▁экономиканы	-10.0438
▁керектөө	-10.0439
▁суук	-10.0444
лады	-10.0452
лашкан	-10.0456
▁январь	-10.0459
Орусия	-10.0461
▁жарат	-10.0464
▁тегерегинде	-10.0464
сүнүн	-10.0467
тыш	-10.0467
▁натыйжа	-10.0469
▁Кубанычбек	-10.047
▁Коом	-10.0471
▁коопсуздугу	-10.0474
▁суроолор	-10.0474
▁билип	-10.0478
▁ойлоп	-10.0479
▁коргоого	-10.0483
60	-10.0492
▁видеолор	-10.0499
▁союз	-10.05
▁мейманкана	-10.0501
▁кепилдик	-10.0501
▁арадан	-10.0502
▁ташыган	-10.0502
▁мусулмандар	-10.0504
▁пайыз	-10.0505
▁ушуну	-10.0512
▁айына	-10.0517
▁Финансы	-10.0517
▁жаатта	-10.0519
▁жоктугун	-10.0519
▁43	-10.0525
▁мөөнөт	-10.0525
▁жүзү	-10.0528
▁көргөз	-10.0529
▁мусулман	-10.0529
▁козголуп	-10.0533
▁уюшкан	-10.0534
▁тарапка	-10.0535
▁завод	-10.0537
▁сотунда	-10.0538
улу	-10.0542
▁Бардык	-10.0542
▁сезил	-10.0543
фе	-10.0548
▁фа	-10.0549
▁фактылар	-10.0552
▁Манас	-10.0557
▁бекем	-10.0558
▁азайт	-10.0558
▁оорукана	-10.0559
лбаган	-10.0559
▁келерин	-10.0561
▁айтуу	-10.0562
▁айтышууда	-10.0565
▁чыкканы	-10.0569
мей	-10.0574
ез	-10.0576
Ө	-10.0577
▁машыгуу	-10.0578
▁түздөн	-10.0583
жал	-10.0587
тат	-10.0592
▁талкала	-10.0594
▁Херсон	-10.0595
▁тейлөө	-10.0595
▁өнөктүгү	-10.0595
▁Нью	-10.0595
▁ысымы	-10.0596
▁ыкма	-10.0606
ред	-10.0606
▁Евробиримдиктин	-10.0606
өөнү	-10.0607
▁Киевге	-10.0609
▁жүргөнүн	-10.0624
▁чабуулдар	-10.0627
▁себептер	-10.0628
▁товарлар	-10.0629
▁чемпионаты	-10.0629
▁күчөгөн	-10.0629
▁аскерлерин	-10.0632
▁соолугу	-10.0635
▁жөнүндөгү	-10.0639
▁бийликтен	-10.0643
▁жасоо	-10.0644
▁кызматкерлерини	-10.0645
▁Мак	-10.0646
▁шарттар	-10.0648
▁телеканалы	-10.0657
▁эти	-10.0657
▁мобилизация	-10.0658
▁буйругу	-10.0658
▁көбүнчө	-10.0658
▁баасын	-10.0658
▁евро	-10.0658
▁доза	-10.0658
▁курамында	-10.0659
22	-10.0662
▁Бажы	-10.0662
▁коюшту	-10.0662
▁келтир	-10.0671
▁сай	-10.0674
▁Армениянын	-10.0678
▁ресурстары	-10.0687
▁умтул	-10.069
▁кылынган	-10.069
тоого	-10.0691
энеси	-10.0692
▁жаайт	-10.0692
иб	-10.0702
▁тилкесинде	-10.0703
▁батыш	-10.0707
дуулук	-10.0709
иясы	-10.0709
▁өт	-10.071
▁бел	-10.0712
▁иликтеп	-10.0714
дугу	-10.0721
▁Адистер	-10.0721
▁тагылган	-10.0721
▁Төрт	-10.0721
▁G	-10.0723
▁чай	-10.0723
▁белгилери	-10.0724
▁адамдары	-10.0724
▁өткөрмө	-10.0725
11	-10.0729
▁сак	-10.073
▁жамаат	-10.073
▁барганда	-10.0736
▁жагын	-10.0737
рген	-10.0745
▁биринин	-10.0753
▁балдарын	-10.0754
▁сыйлыгы	-10.0756
▁жарлыгы	-10.0756
▁жаралган	-10.0758
▁аймакка	-10.0759
ңер	-10.0761
▁чегинде	-10.0765
▁39	-10.0769
▁бөл	-10.0777
жайын	-10.0778
бызды	-10.0778
▁кадыр	-10.0781
▁регион	-10.0784
өзбек	-10.0785
▁реалдуу	-10.0786
▁өкүмү	-10.0792
▁жабылган	-10.0796
▁өрөөнүндө	-10.0798
▁түшүндүрмөсү	-10.0798
▁доомат	-10.0803
▁карашы	-10.0803
▁бошотуу	-10.0806
ех	-10.0808
▁Коррупция	-10.0812
▁Аскер	-10.0814
▁заманбап	-10.0817
▁баалуулуктар	-10.0817
▁Күн	-10.0818
▁эсептелет	-10.0819
▁жүргүзүлгөн	-10.0821
▁өткөндө	-10.0822
▁Аш	-10.0829
▁эрежелер	-10.083
▁тизмесин	-10.0841
▁себебин	-10.0846
▁Карабак	-10.085
▁ийгиликтүү	-10.0851
рей	-10.0852
▁кыр	-10.0855
▁кырдаалда	-10.0855
▁экологиялык	-10.086
▁митингге	-10.0862
▁Экономикалык	-10.0864
▁болору	-10.0865
▁Президенттик	-10.0867
▁Чет	-10.0869
▁чыгарууга	-10.0871
▁Ушу	-10.0872
▁шилтеме	-10.0881
▁украиналык	-10.0881
▁киргизилди	-10.0882
▁кызматташтыкты	-10.0885
▁иликте	-10.0886
▁колдо	-10.0887
▁Суу	-10.0893
▁былтыркы	-10.0895
▁далилдер	-10.0896
▁түрлөрү	-10.0896
▁кас	-10.0899
▁сүт	-10.0901
▁мыйзамдарды	-10.0902
▁арызы	-10.0905
зия	-10.0911
▁Аларга	-10.0912
ѳ	-10.0914
▁Пандемия	-10.0914
▁түн	-10.0914
▁камтылган	-10.0915
▁мурас	-10.0919
▁Мурат	-10.0919
▁жарандарын	-10.0921
▁тармакты	-10.0933
▁курулган	-10.0934
▁жатышканын	-10.0935
▁түйүндөр	-10.0939
Кара	-10.0939
▁мисалы	-10.0943
▁аткар	-10.0943
▁Натыйжада	-10.0946
▁Равшан	-10.0946
▁зат	-10.0947
▁башкарып	-10.0947
▁ачылды	-10.0949
▁экенине	-10.0953
▁41	-10.0954
▁баланы	-10.0956
▁дайым	-10.0961
▁47	-10.0962
▁Дал	-10.0967
▁жүрөк	-10.0969
▁милицияга	-10.0972
▁кадамдар	-10.0974
фер	-10.098
▁аяк	-10.0981
▁колдонулган	-10.0982
▁урмат	-10.0982
▁Молдова	-10.0983
▁согуштун	-10.0987
▁какты	-10.0988
▁жетектеп	-10.0991
манов	-10.0992
▁маданияты	-10.0995
▁жоо	-10.0995
▁жаткандар	-10.0998
▁доор	-10.1002
▁мүлктү	-10.1002
сон	-10.1003
▁Фейсбуктагы	-10.1008
▁Сөз	-10.101
▁Абылгазиев	-10.1011
үлө	-10.1014
▁күз	-10.1015
▁негизсиз	-10.1017
▁Пакистан	-10.1021
▁жараяны	-10.1025
енко	-10.1027
14	-10.1031
▁тапшырды	-10.1033
▁жарымы	-10.1037
Да	-10.1039
▁пикирде	-10.104
▁кеңей	-10.104
es	-10.1042
▁Кандай	-10.1053
▁эсеби	-10.1055
▁оорусу	-10.1058
▁Фе	-10.106
▁камера	-10.1062
▁D	-10.1064
Эл	-10.1065
▁процесс	-10.1075
▁эмгеги	-10.1077
▁окуядан	-10.1082
▁ил	-10.1094
ерлер	-10.1095
▁кагылыш	-10.1096
▁жашыл	-10.1098
▁Өмүр	-10.1103
▁ишенимдүү	-10.1109
▁буруу	-10.1109
▁төрөлгөн	-10.111
▁Кыргызстандык	-10.1116
▁му	-10.1119
синин	-10.1121
▁лагер	-10.1125
▁баштаганын	-10.1128
дарына	-10.1129
▁билдирет	-10.1129
▁Азиянын	-10.1139
майга	-10.1139
▁каттам	-10.1139
▁келүүдө	-10.114
▁Мухаммед	-10.1143
Центерра	-10.1143
кир	-10.1143
▁чечип	-10.1145
▁алынышы	-10.1147
▁сакталып	-10.1147
▁сүрөтү	-10.1157
▁жактагы	-10.1158
▁пикиринде	-10.1158
▁ырчы	-10.116
▁600	-10.1165
▁Беш	-10.1165
▁Каза	-10.1167
бөгөн	-10.1169
▁баарыбыз	-10.1175
▁айыгып	-10.1176
▁төрайымы	-10.1176
стин	-10.1178
лашы	-10.1178
▁кеңешме	-10.118
▁үнү	-10.1184
пресс	-10.1184
рет	-10.1196
▁долбоорлор	-10.1196
▁албайм	-10.1197
▁айтыш	-10.1203
▁уулунун	-10.1203
▁штабы	-10.1204
▁төрө	-10.1204
▁R	-10.1208
▁британ	-10.121
▁кечээ	-10.1211
▁токтоткон	-10.1211
▁Алмаз	-10.1213
▁Коомдук	-10.1213
▁качкан	-10.1214
▁кадр	-10.1221
▁тиги	-10.1222
▁суроого	-10.1224
▁кооптонуу	-10.1226
▁Сыдыков	-10.1233
▁жылдыгына	-10.1233
▁тууганы	-10.1236
▁текшер	-10.1238
▁арты	-10.1239
▁Европадагы	-10.1239
талып	-10.1242
▁душман	-10.1243
▁жөнөтүлгөн	-10.1243
▁созулган	-10.1244
▁кечирим	-10.1245
▁орточо	-10.1246
▁от	-10.1248
▁аткарган	-10.1249
▁Казакстандагы	-10.1253
▁даярдап	-10.1253
Ош	-10.1256
Бишкек	-10.1273
▁тескерисинче	-10.1277
▁айылына	-10.1283
▁каражаттар	-10.129
төрдүн	-10.129
▁ажыратуу	-10.1293
▁согуштук	-10.1296
▁бузулган	-10.1297
▁келишти	-10.1298
▁үйдөн	-10.1303
▁калтырган	-10.1307
▁көтөр	-10.1319
▁материалдар	-10.1323
▁кызматкерлердин	-10.1324
дашты	-10.1325
▁курс	-10.1326
▁жайгашты	-10.1328
▁маселесине	-10.1333
▁көчөдө	-10.1334
▁төлөм	-10.1336
23	-10.1337
▁ыраста	-10.1339
▁42	-10.1343
▁көмүскө	-10.1344
▁бирикме	-10.1345
▁сунушун	-10.1349
▁технологиялар	-10.135
лануу	-10.1352
▁чакырылган	-10.1356
▁кирүүгө	-10.1362
▁көтөрүү	-10.1363
▁арасын	-10.1363
од	-10.1369
▁жазы	-10.1374
▁болбогон	-10.1375
▁концерт	-10.1378
▁армян	-10.1378
▁Элдик	-10.138
▁чыгармалары	-10.138
▁Жыйын	-10.1382
▁курууга	-10.1385
сыңар	-10.139
Тез	-10.1391
▁айтса	-10.1394
Сиге	-10.1395
▁күчтөрдүн	-10.1396
▁жумушта	-10.1397
беш	-10.1399
Х	-10.1406
V	-10.1409
L	-10.1409
▁кеңешчиси	-10.1412
▁капитал	-10.1412
▁алдык	-10.1416
орус	-10.1416
▁кетишти	-10.1416
▁айларында	-10.1416
▁Түркияга	-10.1423
▁авто	-10.1429
▁муниципалдык	-10.1446
▁титирөө	-10.1446
▁сөөк	-10.1446
▁жазылып	-10.1449
▁кириши	-10.145
▁асман	-10.1455
▁салын	-10.146
▁тергөөчү	-10.1465
▁тармагына	-10.1467
рылып	-10.1467
▁кийлигиш	-10.1469
▁Биримдиги	-10.1471
G	-10.1478
▁күйүүчү	-10.1481
▁талант	-10.1482
▁колдоого	-10.1483
▁сап	-10.1487
▁БШКны	-10.1488
▁тирүү	-10.1488
▁энергиясы	-10.1491
▁беки	-10.1494
кут	-10.1496
▁башчынын	-10.1497
▁районуна	-10.15
мас	-10.1508
▁уюштурулган	-10.1508
▁кетир	-10.1512
▁доллардан	-10.1514
▁эфир	-10.1515
▁өлтүрүлгөн	-10.1515
▁сектор	-10.1517
▁байланышты	-10.1518
▁жайлары	-10.1519
анов	-10.1529
▁вакцинасы	-10.153
▁Матраимовдун	-10.1541
леген	-10.1548
▁мекендештер	-10.1549
▁таштанды	-10.155
аракеттер	-10.1551
▁уруу	-10.1553
▁балл	-10.1556
▁эскерүү	-10.1556
▁сатыл	-10.1557
аягы	-10.1566
▁жаратты	-10.1568
▁Парламент	-10.1569
▁чарасы	-10.1581
▁аянт	-10.1585
чилер	-10.1585
▁шамал	-10.1586
▁жарандарына	-10.1586
▁коюлуп	-10.1587
▁бүткөн	-10.1589
▁миллионго	-10.1593
▁Чы	-10.1593
Ме	-10.1598
▁табыш	-10.1606
▁өтүүгө	-10.1608
▁Түркмөнстан	-10.1613
▁түшүр	-10.1615
тура	-10.1618
▁Блинкен	-10.1619
▁Сай	-10.1619
▁Кел	-10.1619
▁өкмөттү	-10.162
▁өткөрүлүп	-10.1622
керлер	-10.1623
түп	-10.1625
▁СССР	-10.1636
▁Жай	-10.1637
▁жетүү	-10.1637
Журт	-10.1647
▁Министрлик	-10.165
▁үзгүлтүк	-10.1653
▁Мектеп	-10.1653
▁жалаң	-10.1653
▁пандемиясына	-10.1655
▁жарыш	-10.1655
▁башчысынын	-10.1656
▁болсун	-10.1658
бады	-10.1659
▁аскерлеринин	-10.1661
▁шарты	-10.1662
боого	-10.1664
▁кызматтык	-10.1665
мед	-10.1665
▁карама	-10.1669
▁таанышты	-10.168
▁радио	-10.168
ски	-10.1681
тив	-10.1682
▁Юстиция	-10.1688
▁бөлүш	-10.1689
▁убактысы	-10.1689
▁жатышы	-10.169
▁аракеттерин	-10.1692
▁дүйнөгө	-10.1692
▁ээлери	-10.1692
▁парк	-10.1694
▁операциясы	-10.1695
▁кээде	-10.1696
▁чап	-10.1697
бара	-10.1697
▁Донецк	-10.1699
▁кенен	-10.1699
▁аймагынан	-10.1699
▁сөздү	-10.1707
чылардын	-10.1715
өнү	-10.1717
▁Сары	-10.172
▁адатта	-10.1722
▁Нурсултан	-10.1723
▁Полиция	-10.1723
▁кабаттуу	-10.1728
▁шаарынан	-10.173
фон	-10.173
▁жыйындар	-10.1732
▁каналы	-10.1734
▁баштапкы	-10.1736
▁качуу	-10.1739
▁Чу	-10.1745
▁экология	-10.1747
▁уруп	-10.1748
▁түрткү	-10.1759
▁чакты	-10.1759
▁жанына	-10.176
▁кайтыш	-10.1763
▁жүрүш	-10.1765
▁кеме	-10.1767
▁Башкача	-10.1771
▁калышты	-10.1772
улду	-10.1781
▁пункт	-10.1782
▁айтыл	-10.1785
▁долбоорлорду	-10.1785
▁турса	-10.1786
▁жоготуулар	-10.179
▁көрсөтүл	-10.1792
▁тилде	-10.1792
▁Медиа	-10.1793
▁Венгрия	-10.1794
▁өкүлдөрүнүн	-10.1803
▁институтунун	-10.1808
иф	-10.181
▁жүргүзүл	-10.1813
граф	-10.1813
▁дүйнөсү	-10.1815
▁шайлоочулардын	-10.1817
▁Ху	-10.182
▁аныктаган	-10.1821
▁нерселер	-10.1822
▁юрист	-10.1823
▁өткөр	-10.1827
▁келгенден	-10.1828
▁ысык	-10.1828
21	-10.1829
▁идеология	-10.183
▁дүң	-10.183
▁келишимдер	-10.1835
▁ошондон	-10.1835
▁Кош	-10.1838
▁долбооруна	-10.184
27	-10.1841
▁тынчсыздан	-10.1842
▁кимдер	-10.1842
▁Алиев	-10.1848
▁үчөө	-10.185
▁көбөйт	-10.185
▁Кеңешке	-10.185
▁жакындарына	-10.1855
иров	-10.1856
▁өткөрүүнү	-10.1858
▁жеринде	-10.186
▁кимге	-10.1861
▁колунан	-10.1864
бүздү	-10.1864
▁Фа	-10.1865
▁көрүнүп	-10.1865
▁тургай	-10.1865
K	-10.1865
З	-10.1866
▁тааныган	-10.1869
▁жолукту	-10.1871
▁тапшыруу	-10.1872
▁Булар	-10.1875
▁атабыз	-10.1878
▁Анткен	-10.1879
тартыш	-10.1891
эр	-10.1894
▁борборуна	-10.1899
▁шартында	-10.1899
▁балким	-10.1901
▁2005-	-10.1901
▁жүргүзүлүп	-10.1903
торлор	-10.1905
▁катыша	-10.1906
z	-10.1906
▁артынан	-10.1906
▁оңдо	-10.1907
▁камалды	-10.1907
▁беришет	-10.1908
▁Франциянын	-10.1908
▁120	-10.1909
▁дегендей	-10.1909
▁катышат	-10.191
▁шайлоочулар	-10.1915
▁там	-10.1915
▁оппозициячыл	-10.1916
▁Катар	-10.1917
бүлөлөр	-10.192
▁экстремисттик	-10.192
▁дайындалды	-10.1924
26	-10.1929
үмдү	-10.1935
▁делегация	-10.1936
▁кызыкчылыгын	-10.194
▁режими	-10.1941
▁Адаха	-10.1941
▁дрондор	-10.1943
▁катыш	-10.1959
▁талаштуу	-10.196
▁талдоочу	-10.196
▁штабдын	-10.196
200	-10.1962
жемиш	-10.1963
▁кылса	-10.1963
▁түрүндө	-10.1963
▁жыйырма	-10.1973
▁ошондуктан	-10.1973
▁түнкү	-10.1973
▁өкүл	-10.1977
▁департаментинин	-10.1979
▁учагы	-10.198
▁бомба	-10.1983
▁факт	-10.1987
уралдуу	-10.1988
ларында	-10.1995
▁мыйзамда	-10.1999
уза	-10.2001
▁жүгүртүү	-10.2002
▁ашыр	-10.2002
▁өнүктүрүүгө	-10.2002
▁жазасын	-10.2004
▁каражаты	-10.2006
Ша	-10.2015
▁коому	-10.2022
▁башын	-10.2026
▁себептери	-10.2031
▁эркиндигине	-10.2033
▁акты	-10.2035
▁айдоочу	-10.2035
▁чыгымдар	-10.2036
▁демонстранттар	-10.2036
▁чар	-10.2038
▁Кореянын	-10.2042
▁Тажик	-10.2044
▁жазгандай	-10.2046
▁акцияга	-10.2046
▁которулган	-10.2046
▁алгандардын	-10.2046
▁сактоого	-10.2048
▁кызды	-10.205
▁бардыгын	-10.2051
▁жүргүзө	-10.2053
▁кайгы	-10.2053
▁Орусияны	-10.2054
▁суроолорун	-10.2056
▁жокпуз	-10.2056
▁курамына	-10.2057
▁Баа	-10.2059
Же	-10.2063
▁жокмун	-10.2066
▁кишиден	-10.2069
▁аныктап	-10.2069
▁тая	-10.207
▁чакырыктар	-10.2077
▁олимпиада	-10.2081
▁көйгөйлөр	-10.2082
▁Мирлан	-10.2084
▁тол	-10.2093
▁китептер	-10.2095
жер	-10.2098
ель	-10.2099
▁ант	-10.2108
▁иштеши	-10.2108
▁зарылдыгын	-10.2112
▁турууга	-10.2117
▁Ноокат	-10.2118
▁Ооба	-10.2118
▁коопсуздукту	-10.2118
рбай	-10.2119
лөрдө	-10.2126
▁турушу	-10.2132
▁күйөө	-10.2132
▁ортомчу	-10.2133
▁аялдарга	-10.2138
▁жолугушуусу	-10.2144
▁кирешеси	-10.2148
▁чама	-10.2149
▁ишмердүүлүгү	-10.2151
▁ортодо	-10.2153
▁айтышат	-10.2165
▁телеканал	-10.2169
▁айланасындагы	-10.217
▁бериле	-10.2172
▁окуяларга	-10.2183
▁Айтматов	-10.2184
рууга	-10.2185
▁миллиондогон	-10.2191
▁Жолдош	-10.2191
▁күчүндө	-10.2192
▁вирусу	-10.2199
▁лидерлер	-10.2202
▁өткөрө	-10.2203
▁таратуу	-10.2206
▁мас	-10.2207
▁кармалышы	-10.2209
Көлдө	-10.2217
▁сөздөрдү	-10.2217
даштыруу	-10.2217
▁жайына	-10.2217
▁Германияда	-10.2219
▁ток	-10.2219
▁өтүнүч	-10.222
▁берилгенин	-10.2223
▁келечекте	-10.2225
▁мүнөз	-10.2225
▁фактысы	-10.2225
▁актив	-10.2228
▁кенемте	-10.2228
▁өчүрүү	-10.2229
▁өлтүр	-10.2229
▁улантуу	-10.2231
▁мекемеси	-10.2234
▁алам	-10.2235
▁салынат	-10.2238
▁кылмыштуулук	-10.2239
▁бейтаптар	-10.2254
▁кул	-10.2259
▁депортация	-10.2261
▁спикер	-10.2263
дегенде	-10.2265
▁Шавкат	-10.2265
▁диалог	-10.2265
13	-10.2265
▁стандарт	-10.2265
▁болушту	-10.2267
▁жетекчилик	-10.2269
▁түшүнүп	-10.2269
▁кетсек	-10.2275
▁сайт	-10.2277
▁кайрылуусу	-10.2277
▁төлөй	-10.228
▁баатыр	-10.2282
▁Ушунда	-10.2282
▁көрсө	-10.2292
▁ракеталык	-10.2295
▁жогорулатуу	-10.2299
▁документти	-10.2301
▁Конгресс	-10.2302
▁мушташ	-10.2303
▁баскыч	-10.2303
амы	-10.2304
өз	-10.2304
▁элчи	-10.2308
▁даана	-10.2309
▁НАТОнун	-10.2316
▁жолунун	-10.2317
дыктар	-10.2318
▁тилкелери	-10.2321
▁көйгөйү	-10.2323
▁салынды	-10.2324
▁заводу	-10.2332
▁чочула	-10.2332
дорго	-10.2338
▁катышуусу	-10.2339
▁Пригожин	-10.234
▁кесилген	-10.234
▁коалиция	-10.234
▁маяна	-10.234
▁тинтүү	-10.234
▁Европанын	-10.2341
▁жанындагы	-10.2342
▁бөлүмү	-10.2342
өсү	-10.235
▁Шам	-10.2351
▁калтырды	-10.2357
le	-10.2361
▁оорулар	-10.2361
▁акими	-10.2365
▁өлкөлөрүнө	-10.2369
▁болгондон	-10.237
▁үйрөн	-10.2378
▁тартылып	-10.2378
ИИМ	-10.2382
▁жүргөнү	-10.2386
▁Кайсы	-10.2386
▁импорт	-10.2393
▁ун	-10.2397
лукка	-10.2399
▁кыйноо	-10.2401
▁Эмил	-10.2404
▁материал	-10.2405
▁туристтер	-10.2406
▁тизмеге	-10.2406
▁норма	-10.2407
▁күтүлүүдө	-10.2415
▁ыңгайлуу	-10.2415
▁Во	-10.2417
▁азайып	-10.2418
Кабар	-10.242
▁зомбулукка	-10.242
▁иштерге	-10.2421
▁жолдорун	-10.2425
▁токтому	-10.2426
▁башы	-10.2427
▁атам	-10.2433
лог	-10.2438
▁жүрөгү	-10.2442
▁таануучу	-10.2445
тек	-10.2448
▁мамлекеттерде	-10.2451
▁кубаттуу	-10.2452
▁каптаган	-10.2454
▁материалдык	-10.2458
▁жабыркагандар	-10.246
▁мандаттуу	-10.2461
▁Ад	-10.2462
▁Жапаровго	-10.247
▁жайда	-10.247
▁чыда	-10.2471
▁үмүттө	-10.2472
▁сен	-10.2474
▁рубл	-10.2486
▁баңгизат	-10.249
▁салгылаш	-10.2491
▁чарасын	-10.2491
▁жашында	-10.2492
▁институт	-10.2499
▁профессор	-10.2503
▁кызыкдар	-10.2506
ланышы	-10.2508
70	-10.2513
▁жоопкерчиликти	-10.2517
кубат	-10.2518
▁бийликте	-10.2523
▁1990-	-10.2528
▁Пашинян	-10.2528
▁Саясий	-10.2528
▁немис	-10.2528
▁Төлө	-10.2528
▁коюшу	-10.2529
▁мамилелер	-10.2529
▁чогултуп	-10.2529
▁эсептелген	-10.2529
▁ээлеген	-10.2531
▁берүүнүн	-10.2533
Кыя	-10.2535
▁дүкөн	-10.2545
дыгына	-10.2549
▁X	-10.2551
▁тазалоо	-10.2553
▁чалып	-10.2561
▁Нурлан	-10.2562
▁туру	-10.2562
▁энергетикалык	-10.2563
▁анык	-10.2564
▁сөздөрү	-10.2565
▁Саймаити	-10.2566
▁грант	-10.2567
▁бой	-10.2567
▁тилдүү	-10.2573
▁Советтер	-10.2576
▁финансылык	-10.2576
▁сууга	-10.2578
каршы	-10.2578
▁бурул	-10.258
▁өлтүрүү	-10.2581
▁чемпиону	-10.2582
▁дайындал	-10.2584
▁чыгарууну	-10.2584
▁короо	-10.2586
▁түзүм	-10.2586
▁округ	-10.259
Ар	-10.2591
чүлөрдүн	-10.2596
▁жөнөтүү	-10.2596
▁июль	-10.2598
▁сапат	-10.2598
▁спортчулар	-10.2602
▁Запорожье	-10.2605
▁глобалдык	-10.2605
▁2011-	-10.2605
терине	-10.2607
▁кыргызча	-10.2612
▁көрсөтө	-10.262
▁сөзүндө	-10.262
▁жобо	-10.2623
▁тизмеси	-10.2632
▁Мага	-10.2634
▁Михаил	-10.2643
▁жемкорлук	-10.2643
▁Мамбет	-10.2645
▁талапкерлигин	-10.2646
▁саясатта	-10.2646
▁келтирип	-10.2647
▁колдой	-10.265
▁кызыкчылыгы	-10.2654
▁калууда	-10.2656
▁сүйлөштү	-10.2662
▁көрүнүштөр	-10.2662
▁аракеттерди	-10.2668
▁булактарына	-10.267
▁чыгарыш	-10.2672
щ	-10.2682
▁Свердлов	-10.2682
▁рыногу	-10.2682
▁биргеликте	-10.2682
▁Токио	-10.2682
▁изилдөөлөр	-10.2682
▁көтөрүлдү	-10.2682
▁аныкталып	-10.2685
▁улантып	-10.2685
▁курулуп	-10.2686
▁камактагы	-10.2686
демократтар	-10.2687
▁ойго	-10.2689
▁тармагын	-10.2692
▁54	-10.2695
▁эк	-10.2698
▁уюштур	-10.2699
▁Совет	-10.2711
▁КМШ	-10.2721
▁пневмония	-10.2721
▁2013-	-10.2721
▁көтөрүлүш	-10.2721
▁иниси	-10.2723
▁кошумчалаган	-10.2729
▁куру	-10.273
▁мүнөт	-10.274
▁бал	-10.2741
▁Көлбаев	-10.2743
▁идея	-10.2751
▁уюштурууга	-10.2752
28	-10.2753
▁мектептин	-10.2754
▁бербөө	-10.2756
ибиздин	-10.2756
▁койгонун	-10.2757
▁мектеби	-10.276
▁өнүм	-10.276
▁Кызмат	-10.276
▁коридор	-10.2761
▁согушкерлер	-10.2763
▁абактагы	-10.2765
▁жергесинде	-10.2765
уд	-10.2767
▁алдыда	-10.2769
Фейсбуктагы	-10.277
▁жеңишке	-10.2771
▁Документ	-10.2778
▁олтур	-10.278
▁85	-10.2785
▁Бакиевдин	-10.279
бөйт	-10.2791
▁тапшырмасы	-10.2795
▁алек	-10.2797
▁Энергетика	-10.2799
▁кошуу	-10.2799
▁азайган	-10.2799
▁58	-10.28
▁көрсөтүүгө	-10.28
▁ийгилик	-10.2807
▁үстүндө	-10.2808
▁колдоно	-10.2815
▁топтордун	-10.282
зомбулук	-10.2826
▁жумушчулар	-10.2832
▁Орусиялык	-10.2832
▁инсан	-10.2835
▁Бекешев	-10.2838
▁платформа	-10.2838
▁архив	-10.2838
▁казуу	-10.2838
▁бий	-10.284
▁болбогонун	-10.2842
▁кесиптик	-10.2842
▁айтылгандай	-10.2843
▁камоо	-10.2844
▁жабдуулар	-10.2844
▁түзүүгө	-10.285
▁чечиле	-10.2852
▁катышууда	-10.2854
▁жерлерди	-10.2856
▁тендер	-10.2856
▁бөлүштү	-10.2858
▁жарыялоо	-10.2864
29	-10.2869
▁акыйкат	-10.2871
▁коомчулугу	-10.2877
▁бекер	-10.2878
▁талкаланган	-10.2879
▁көргөзмө	-10.2881
▁дарыланып	-10.2883
▁белгилегендей	-10.2883
▁кулак	-10.2884
▁жайылып	-10.2885
▁тандап	-10.2889
▁тапшырып	-10.2891
▁алмаштыр	-10.2893
▁болушкан	-10.2893
▁49	-10.2894
▁абанын	-10.2894
▁февраль	-10.2897
▁сүрөттө	-10.2899
▁көчөгө	-10.2901
▁Журналисттер	-10.2904
▁инвестициялык	-10.2907
▁көзөмөлдөп	-10.2911
▁талапкерлердин	-10.2913
▁жетишсиз	-10.2916
лоону	-10.2916
▁сурамжылоо	-10.2917
▁Улукбек	-10.2917
Социал	-10.2917
▁ченем	-10.2918
▁сактагычы	-10.2918
▁таанымал	-10.2919
▁жыйынтыгына	-10.292
Башы	-10.2923
▁өлкөлөрдөн	-10.2926
▁шаардагы	-10.2933
▁Нурбек	-10.2934
▁W	-10.2934
▁суроолорго	-10.2936
▁сатылып	-10.2936
▁жаатындагы	-10.2943
▁Бей	-10.2946
▁күрөштү	-10.2949
▁декларация	-10.2956
▁57	-10.2961
▁бекемде	-10.2962
▁бөлө	-10.2966
▁мигранттарды	-10.2967
▁станция	-10.2969
ху	-10.2976
▁чагылдыр	-10.2977
▁киргенде	-10.298
ed	-10.2992
лиши	-10.2995
▁ашыгы	-10.2996
▁жүрүм	-10.2998
▁өзүндө	-10.3
▁рубль	-10.3
▁Шар	-10.3006
▁баруу	-10.3007
▁ишмерлер	-10.3012
▁аткара	-10.3012
▁прокуратурага	-10.3025
▁муз	-10.3027
▁өкмөттөр	-10.3027
▁кылганын	-10.3028
▁Молдо	-10.3031
▁чараларын	-10.3032
▁чыңалуу	-10.3036
▁Боронов	-10.3036
▁шылтоо	-10.3036
▁Кечээ	-10.3037
▁коопсуздугуна	-10.3037
▁отуз	-10.3037
▁барбай	-10.3038
▁финалда	-10.3042
▁жерлер	-10.3045
▁министрликтин	-10.3051
▁өтөп	-10.3053
▁күрөшү	-10.3053
▁илдети	-10.3055
▁долларлык	-10.3056
▁бүтө	-10.3066
▁чечүүгө	-10.3067
лушу	-10.3069
▁кадимки	-10.3074
октябрга	-10.3076
▁негиздөөчүсү	-10.3076
▁эшик	-10.3077
▁зона	-10.3077
▁кайтар	-10.3079
▁авиа	-10.3081
▁кайткан	-10.3082
▁жоочулар	-10.3084
▁Жаныбек	-10.3084
▁Биринчиден	-10.3086
▁Пи	-10.3099
▁милициясы	-10.3105
el	-10.3106
▁ыкмалар	-10.3112
▁токтотулган	-10.3113
▁Никол	-10.312
▁которгон	-10.3122
▁мамилени	-10.3124
▁өнөктөш	-10.3131
▁кий	-10.3136
▁калаасы	-10.3139
▁дарыя	-10.314
дөрдү	-10.3146
▁сотуна	-10.3148
▁агай	-10.315
▁аймактарга	-10.3154
Петербург	-10.3157
▁маңзат	-10.3157
▁түс	-10.3157
▁буудай	-10.3157
▁камалып	-10.3159
▁каты	-10.3159
▁талкууланып	-10.3161
▁Өзгөн	-10.3164
сек	-10.3164
▁ачылышы	-10.3166
▁сомдук	-10.3168
▁коррупцияны	-10.3171
Биримдик	-10.3172
▁Кыргызстанды	-10.3176
▁макам	-10.3177
▁Көз	-10.3178
▁катчы	-10.318
▁атылган	-10.3181
▁уюмга	-10.3185
▁алсак	-10.3185
Де	-10.3187
▁салмак	-10.3193
▁46	-10.3195
▁курчуп	-10.3204
▁кошулуп	-10.3205
▁Украинаны	-10.3207
▁өнөктөштөрү	-10.3208
▁жеңүүчү	-10.3211
▁жашоого	-10.3212
▁жатышкан	-10.3214
▁жарандарынын	-10.3217
▁кабылганын	-10.3219
фор	-10.3227
▁көчүр	-10.3228
▁ыраазы	-10.3237
▁Андрей	-10.3239
▁Сулайманов	-10.3239
▁биргелешип	-10.3239
▁өзгөрүшү	-10.3239
▁түштүгүндө	-10.324
▁Каныбек	-10.324
▁арбын	-10.3241
▁эместигин	-10.3241
▁согуштан	-10.3242
▁теги	-10.3243
зиев	-10.3244
▁токтот	-10.3245
▁сунушталган	-10.3245
▁демек	-10.3246
▁коо	-10.3246
▁барууга	-10.3253
▁сүйлөш	-10.3255
▁кыйынчылыктар	-10.3261
рүп	-10.327
▁Ло	-10.327
▁Чын	-10.3273
▁программасын	-10.3279
▁дайындоо	-10.328
▁революция	-10.328
▁ачкачылык	-10.328
▁Макрон	-10.328
▁козгогон	-10.3282
▁L	-10.3283
▁көзөмөлдөгөн	-10.3285
▁Кожо	-10.3287
▁урган	-10.3293
▁салт	-10.3295
▁ниет	-10.3296
▁бөлүмүнө	-10.3301
▁фирма	-10.3304
▁кабат	-10.3313
▁аларын	-10.3317
▁баракча	-10.3317
▁үйрөт	-10.3318
▁татыктуу	-10.3321
▁Партия	-10.3321
▁кемчиликтер	-10.3321
▁курмандыктары	-10.3322
▁саясатты	-10.3324
▁эскертип	-10.3325
▁билдир	-10.3331
▁Аксы	-10.3332
лордо	-10.3341
▁атаандаш	-10.3347
▁төрөт	-10.3353
▁мамилесин	-10.3357
▁Зулушев	-10.3362
▁резолюция	-10.3362
▁саатта	-10.3363
▁нааразылыгын	-10.3363
▁Ливан	-10.3363
▁ураан	-10.3364
ишет	-10.3366
▁өлчөмдө	-10.3367
at	-10.3368
▁такси	-10.3372
еле	-10.3376
болот	-10.3379
▁Баку	-10.338
Коргон	-10.3381
▁арасына	-10.3382
▁эрежелерин	-10.3384
▁өткөнүн	-10.3385
▁жапа	-10.3387
▁пайдалуу	-10.3389
▁министрлер	-10.339
▁убак	-10.3391
▁диплом	-10.34
▁узун	-10.3404
▁ажыратылган	-10.3405
▁ачылып	-10.3407
▁аталыш	-10.3407
чараларды	-10.341
▁багыты	-10.3414
рах	-10.3415
БШК	-10.3415
▁Канатбек	-10.3416
сезим	-10.3416
▁чогултуу	-10.3416
▁деңгээлдеги	-10.342
▁дегендер	-10.3421
▁тартибин	-10.3421
▁түшөт	-10.3428
▁казы	-10.3442
▁милдети	-10.3444
▁коркутуп	-10.3445
▁толтур	-10.3449
▁өздөрүн	-10.3452
▁түзүлдү	-10.3452
▁башталганын	-10.3453
▁суммасы	-10.3453
▁бүтүп	-10.3453
▁Акча	-10.346
▁көзөмөлгө	-10.3461
▁тыш	-10.3463
▁автору	-10.3464
▁андагы	-10.3464
▁аймагынын	-10.3467
▁добушу	-10.3468
▁ача	-10.3471
▁соолугуна	-10.3476
▁палата	-10.3476
▁ырастаган	-10.3481
▁турчу	-10.3483
▁дуушар	-10.3487
▁криминал	-10.3487
▁Режеп	-10.3487
▁жетишпей	-10.3487
▁Бабанов	-10.3487
▁сайттар	-10.349
▁кыдырып	-10.3492
▁чыгарылып	-10.3492
▁аянтча	-10.3494
▁мекемесинин	-10.3495
▁топтоп	-10.3499
▁айткандары	-10.3504
▁анти	-10.3505
мөк	-10.351
▁акчасы	-10.3513
▁Сер	-10.3519
▁өлкөлөрүндө	-10.3521
аж	-10.3525
▁кабарчылар	-10.3527
▁зор	-10.3529
▁Испания	-10.3529
▁жигердүү	-10.3529
▁өзбекстандык	-10.3529
▁күйүп	-10.3531
▁абак	-10.3532
▁бойлуу	-10.3534
▁тайпа	-10.3534
▁дешти	-10.3539
▁журт	-10.3543
▁саатка	-10.3543
эм	-10.3545
▁Турсун	-10.3546
▁каражаттарынын	-10.3547
▁уурда	-10.3548
▁Аз	-10.3549
▁Пакистандын	-10.355
▁акысыз	-10.3554
▁академия	-10.3555
▁оңдоп	-10.3558
пас	-10.3559
баганы	-10.3563
▁борбордун	-10.3568
▁Саясат	-10.3569
▁опера	-10.3569
▁шаарлары	-10.357
▁тартыштыгы	-10.3573
▁мындайча	-10.3576
▁2,5	-10.3577
бизди	-10.3582
казак	-10.3587
▁күрөшкө	-10.3593
▁иштөөгө	-10.3594
▁Куба	-10.3599
▁шаарын	-10.3602
▁өлкөсү	-10.3604
▁метрге	-10.3612
▁Конституциянын	-10.3613
▁анклав	-10.3614
▁интервью	-10.3614
▁чыңдоо	-10.3614
▁Тарых	-10.3614
▁Үчүнчү	-10.3614
▁чектелген	-10.3614
▁Вирус	-10.3614
▁жый	-10.3617
▁позициясын	-10.3618
шип	-10.3618
▁суроосуна	-10.3622
▁жарандын	-10.3624
▁Оштогу	-10.3628
▁салат	-10.3633
▁жакыны	-10.3634
▁балам	-10.3636
▁вакцинаны	-10.3641
▁бүтүр	-10.3646
▁көрдү	-10.3648
▁тилине	-10.3649
▁багытында	-10.3656
▁англис	-10.3656
▁беларус	-10.3656
▁жарнама	-10.3656
▁жарыгы	-10.3656
▁чечкен	-10.3659
▁ууру	-10.3661
▁тургандай	-10.3668
▁68	-10.3669
саат	-10.3673
▁музыка	-10.3683
▁окуй	-10.3689
▁арал	-10.3689
▁имаратты	-10.3694
Твиттер	-10.3696
▁башкарууну	-10.3696
▁рейтинг	-10.3699
▁фронт	-10.3699
▁ыйгарыл	-10.3699
▁Айсулуу	-10.3699
▁тажикстандык	-10.3699
▁Чехия	-10.3699
▁намаз	-10.3699
▁Кубатбек	-10.3699
▁бюджеттен	-10.3708
▁жообу	-10.3709
▁мигранттарга	-10.3716
▁окумуштуу	-10.3717
▁буюмдар	-10.3728
▁берүүдөн	-10.373
ыбызда	-10.3731
▁жайылтуу	-10.3732
▁тамга	-10.3735
▁сактагыч	-10.3741
▁Дарыгерлер	-10.3742
▁коркутуу	-10.3742
▁маалымдалды	-10.3742
▁түркмөн	-10.3742
▁учкучсуз	-10.3743
▁жакырчылык	-10.3744
иңиз	-10.375
▁Кийинки	-10.3751
▁тополоң	-10.3756
▁Кул	-10.3756
▁эже	-10.3759
▁коюуга	-10.376
▁Данияр	-10.3761
▁каралат	-10.3762
▁дарыгерлердин	-10.3762
▁чечимдер	-10.3763
▁балык	-10.3772
▁оозу	-10.3773
▁жүргүзүүгө	-10.3773
▁Исмаилов	-10.3777
▁күрөшүп	-10.3779
▁кафе	-10.3785
▁Иликтөө	-10.3785
▁ойноп	-10.3785
▁рынок	-10.3785
▁көчкү	-10.3786
▁жаа	-10.3787
▁билебиз	-10.379
▁кабылды	-10.3791
саң	-10.3792
▁тоолор	-10.3793
▁рейд	-10.3795
▁жашай	-10.3796
▁азап	-10.3798
▁дос	-10.3802
▁Таалайбек	-10.381
▁койбо	-10.3812
▁Сириядагы	-10.3821
▁аймактарына	-10.3822
▁десем	-10.3825
▁маселеге	-10.3826
▁Австралия	-10.3828
▁тыгыз	-10.3828
▁күткөн	-10.3829
▁жоголгон	-10.3831
▁таасирдүү	-10.3836
▁начарлап	-10.3836
▁отура	-10.3836
▁компаниясына	-10.3839
иктер	-10.384
▁митингдер	-10.384
▁кайтарыл	-10.3847
▁жаңжалда	-10.3848
▁коммун	-10.3849
▁коркунучтуу	-10.3854
▁195	-10.3858
ишке	-10.3859
▁далай	-10.386
▁Премьер	-10.3872
▁салтанат	-10.3872
▁блок	-10.3873
▁дарыясы	-10.3873
ra	-10.3873
▁Таласта	-10.3879
▁судьясы	-10.3879
▁калыптыр	-10.3885
▁Фейсбук	-10.3887
▁колдоду	-10.3895
▁баалап	-10.3896
шер	-10.3896
таев	-10.3901
▁250	-10.3904
▁келиш	-10.3907
▁жүргөндө	-10.3907
▁Банк	-10.3908
▁K	-10.3915
▁ымыркай	-10.3915
▁маалымдалган	-10.3915
▁Бийик	-10.3916
▁чатыр	-10.3916
▁тартиби	-10.3923
▁Канат	-10.3923
▁Республикасы	-10.3927
▁үлүшү	-10.3928
▁кыйноого	-10.3931
▁кылымда	-10.3943
▁арасы	-10.395
▁көрсөтөт	-10.3957
▁фестивал	-10.3959
▁кичинекей	-10.3959
жартылай	-10.3959
▁этникалык	-10.3959
▁түзүл	-10.396
▁сентябрда	-10.3964
▁инвесторлор	-10.3971
Чоң	-10.3977
▁кыйналып	-10.3977
▁кыйнал	-10.3978
▁мурдагыдай	-10.3988
▁айланасында	-10.3993
▁жагдайды	-10.3997
▁турам	-10.3997
▁келтире	-10.3999
▁компаниялары	-10.3999
кол	-10.4001
▁Сокулук	-10.4003
▁2009-	-10.4004
▁негизделген	-10.4005
▁жатышты	-10.4007
▁кесепетинен	-10.4007
▁объектилер	-10.4011
▁түзүлүш	-10.4013
▁N	-10.4015
▁көрүш	-10.4019
▁дүкөндөр	-10.4029
▁Ошон	-10.4033
маалы	-10.404
▁доллары	-10.4041
▁Кочкор	-10.4048
▁Швеция	-10.4048
▁спектакл	-10.4048
▁шектелип	-10.4048
▁белгилешет	-10.4048
▁кызматташтыгы	-10.4048
▁Кадыров	-10.4051
▁автоунаалар	-10.4055
▁айлыгы	-10.4061
▁изилдеп	-10.4065
▁экендиги	-10.4074
▁долбоордун	-10.4075
▁гезити	-10.4078
▁толкуну	-10.4083
▁бюджетке	-10.4089
▁түшүндүр	-10.409
▁Комиссия	-10.4092
▁символ	-10.4092
▁моралдык	-10.4092
▁Активист	-10.4092
▁авторлору	-10.4093
▁электигин	-10.4093
ью	-10.4094
▁макулдугу	-10.4094
et	-10.4094
▁Арабиясы	-10.4094
▁колония	-10.4097
▁баратканын	-10.4097
▁келечек	-10.4099
алган	-10.41
▁билбейм	-10.41
▁өсүшү	-10.4101
▁илдетине	-10.4109
X	-10.411
▁кыргыздардын	-10.4116
есс	-10.4119
▁байма	-10.4119
лыш	-10.412
▁саламаттыкты	-10.4121
▁нарк	-10.4121
▁бийликтеги	-10.4121
мыш	-10.4122
ээр	-10.4122
▁уюштурул	-10.4122
▁63	-10.4124
▁чеч	-10.4129
▁жуктурган	-10.413
намыс	-10.4135
▁кезегинде	-10.4137
▁өнүккөн	-10.4137
▁дүйшөмбү	-10.4137
▁кургак	-10.4137
Па	-10.4138
▁кылышы	-10.4138
▁тарапта	-10.414
▁Абаны	-10.4141
▁жасалып	-10.4141
▁кеңейтүү	-10.4142
▁62	-10.4143
▁толкун	-10.4146
▁53	-10.4148
яс	-10.4152
▁өзгөртүүлөрдү	-10.4154
▁түзүүнү	-10.4155
▁жерлеринде	-10.4158
▁бөлүмүндө	-10.4161
▁жайдын	-10.4162
▁чалды	-10.4178
▁аким	-10.4181
июлга	-10.4182
▁өкүлчүлүгү	-10.4182
▁Токмок	-10.4182
▁азгыр	-10.4182
▁ТИМ	-10.4185
▁ижарага	-10.4185
▁аныкталганын	-10.4185
▁органдардын	-10.4189
re	-10.4192
▁Кат	-10.4196
▁Кант	-10.42
депутат	-10.4201
▁түрмө	-10.4203
▁оорунун	-10.4204
▁окууга	-10.4206
▁лагерлер	-10.4207
▁саммити	-10.421
аракет	-10.421
▁талаптарды	-10.422
▁кылганы	-10.4222
x	-10.4227
▁жугуштуу	-10.4227
▁отургуз	-10.4227
▁губернатору	-10.4229
▁санап	-10.4233
▁журналисттик	-10.4242
▁оюндар	-10.4243
ье	-10.4244
▁майып	-10.4247
▁Британияда	-10.4249
▁экинчиси	-10.4253
▁Пер	-10.4255
▁чакырык	-10.4257
▁АКШдагы	-10.4258
▁макулдашууга	-10.426
▁Алгач	-10.4261
▁досу	-10.4261
▁жылды	-10.4266
евич	-10.4267
▁өзгөрүп	-10.4272
▁Жолугушуу	-10.4272
▁2008-	-10.4272
▁иштегендер	-10.4272
▁ооз	-10.4274
▁түшүндүргөн	-10.4275
▁Кремль	-10.4276
▁көрсөткүчү	-10.4276
▁берүүчү	-10.4276
▁Ушуну	-10.4282
▁упай	-10.4283
▁жабылып	-10.4284
▁жарыя	-10.4289
▁араб	-10.4298
▁текст	-10.4299
▁унаалар	-10.4301
▁ыкмасы	-10.4307
▁коомго	-10.4317
▁Оппозиция	-10.4317
▁төңкөрүш	-10.4317
▁Литва	-10.4317
▁киргизилип	-10.4319
▁кылыш	-10.4319
▁аяктап	-10.4319
▁талкууланды	-10.432
▁тармакта	-10.4322
▁ниетин	-10.4327
▁токтогон	-10.4328
▁Соттун	-10.4333
▁в	-10.4335
▁сатууга	-10.4338
▁эркиндикке	-10.4348
▁каражаттарды	-10.4349
▁тиреш	-10.4354
▁Азим	-10.4354
▁тактаган	-10.4354
▁Минск	-10.436
▁Швейцария	-10.4363
▁мөңгү	-10.4363
▁драма	-10.4363
▁жабырлануучу	-10.4363
▁бычак	-10.4363
▁Саясатчы	-10.4365
▁өзүбүздүн	-10.4367
▁баалады	-10.4367
▁чектөөлөрдү	-10.4368
▁абалынан	-10.4371
▁Ше	-10.4374
▁көбөйө	-10.4382
▁түшүнө	-10.4384
▁кайталан	-10.4385
▁адилет	-10.4404
▁койгону	-10.4404
▁чыгууну	-10.4405
▁Мариупол	-10.4409
▁Кийинчерээк	-10.4409
▁эпидемия	-10.4409
▁тиркеме	-10.4409
▁авторитардык	-10.4409
▁тумоо	-10.4409
▁нике	-10.441
▁жарыяланып	-10.4411
▁жүрүшөт	-10.4412
▁ошо	-10.4414
▁бөлүгүндө	-10.4418
▁тор	-10.4423
елерки	-10.4424
▁көрбөй	-10.4427
▁Байденди	-10.4432
▁фракция	-10.4432
▁52	-10.4435
▁кыйынчылык	-10.4438
▁финансы	-10.4443
▁Кремл	-10.4446
▁жолугушуулар	-10.4448
▁тартипте	-10.4451
▁бузулуп	-10.4457
▁өзгөртүп	-10.446
▁форум	-10.446
Ала	-10.446
жылдардагы	-10.4464
шкон	-10.4467
▁долбоорлору	-10.447
▁аянтында	-10.447
▁жагдайда	-10.4471
БУУ	-10.4477
ыптыр	-10.4477
апрелдеги	-10.4477
▁туруштук	-10.4478
▁жылдарда	-10.448
▁салымы	-10.4484
▁жээгинде	-10.4485
▁билдирүүлөр	-10.4485
▁кризисти	-10.4486
ic	-10.4487
чек	-10.4492
▁Осмонов	-10.4494
▁Гонконг	-10.4501
▁өнүгүп	-10.4501
▁алектенген	-10.4501
кеч	-10.4502
▁мезгилинде	-10.4504
▁ыктыярчылар	-10.4505
▁ичип	-10.4507
▁Борис	-10.4509
▁Акматов	-10.4512
▁окуянын	-10.4515
▁аралашып	-10.4519
На	-10.4521
▁каттамдар	-10.4522
▁киргизүүнү	-10.4527
▁баштоо	-10.4529
▁кадрлар	-10.4532
▁Рай	-10.4533
▁конференция	-10.4533
▁56	-10.4534
▁бириктир	-10.4537
ани	-10.454
▁Мал	-10.4542
▁мунапыс	-10.4548
▁Байсалов	-10.4548
▁кыянаттык	-10.4549
▁айтууга	-10.4549
▁түшүндүрүп	-10.455
▁Про	-10.4551
жол	-10.4554
▁кечир	-10.4556
▁ишкердик	-10.4562
▁топко	-10.4564
компания	-10.457
▁катышканы	-10.4577
▁Батыштын	-10.4592
▁муктаждык	-10.4594
▁жүгү	-10.4594
▁тариф	-10.4596
▁буту	-10.4598
▁уул	-10.4599
▁отчет	-10.46
▁сунуштап	-10.4612
▁токтото	-10.4612
▁турмушу	-10.4612
▁кеңсе	-10.4613
▁өтүүдө	-10.4615
▁тургундардын	-10.4618
▁чатак	-10.4623
▁билем	-10.4628
▁Турду	-10.4631
ia	-10.4636
▁совет	-10.4639
▁Союзу	-10.4641
▁Эмомали	-10.4641
▁күнүмдүк	-10.4641
▁агымы	-10.4643
▁психологиялык	-10.4643
▁кабатыр	-10.4644
ыбызга	-10.4645
▁Экс	-10.4645
▁толуп	-10.4647
▁жабыл	-10.4649
▁бетер	-10.465
▁кармалганы	-10.4652
▁багын	-10.4654
▁бошот	-10.4655
▁ашпай	-10.4655
▁түрмөгө	-10.4655
пек	-10.4657
▁калышкан	-10.4657
▁учурларда	-10.4663
▁Эне	-10.4667
▁көйгөйлөрдү	-10.4669
▁мектептерди	-10.4673
▁өкмөтүнө	-10.4678
▁кыргыздын	-10.4682
▁клуб	-10.4683
лис	-10.4683
▁Тажикстанга	-10.4686
▁калп	-10.4687
▁уйгур	-10.4689
▁үлгүсүндөгү	-10.4689
▁басылма	-10.4689
▁күрөштө	-10.4693
▁өндүрүштү	-10.4694
▁которуп	-10.4695
▁куур	-10.4701
▁чекит	-10.4701
ографиялык	-10.4701
▁бейтаптарды	-10.4706
▁ого	-10.4712
▁угуу	-10.4716
▁мигранттары	-10.4717
▁шаарларда	-10.4719
▁Исаев	-10.4725
▁узартыл	-10.4728
кыш	-10.4731
үүсү	-10.4731
▁чемпионат	-10.4732
▁Кары	-10.4733
▁өкүлдөрүнө	-10.4733
▁кору	-10.4733
▁коркуп	-10.4736
▁бергиле	-10.4737
▁Марипов	-10.4737
▁топтолгон	-10.4738
▁Медет	-10.4739
▁материалдары	-10.4739
▁ойлогон	-10.474
кече	-10.474
▁аркы	-10.4741
▁Түркиядагы	-10.4745
▁Reuters	-10.4747
▁жакыр	-10.4747
▁интеграция	-10.4747
шканын	-10.4751
дашып	-10.4754
▁оорудан	-10.4755
▁тынчсыздануусун	-10.4756
▁ишмердигин	-10.4764
▁партиясынан	-10.4765
▁Абдул	-10.4765
▁билүү	-10.4766
▁чечти	-10.4766
▁атышууну	-10.4774
▁иликтөөлөр	-10.4778
▁Жара	-10.4778
▁З	-10.478
▁Интернетте	-10.4782
▁Айрыкча	-10.4784
▁аткезчилик	-10.4784
▁байыркы	-10.4784
▁Виктор	-10.4784
▁машыктыруучу	-10.4784
▁ашкере	-10.4784
▁киришкен	-10.4784
▁мобилд	-10.4784
▁800	-10.4784
▁майнап	-10.4784
▁кетпей	-10.4785
▁учураган	-10.4785
▁энеси	-10.4787
▁тийип	-10.4788
▁Алтынбек	-10.479
▁карантинге	-10.4792
эй	-10.4795
▁жоопкерчилигине	-10.4797
штыруу	-10.4798
▁бут	-10.4798
▁жүргүз	-10.4798
▁ашырыл	-10.4816
▁жолдун	-10.4817
▁карайт	-10.4821
▁жылдыгы	-10.4825
▁көрсөткүчтөр	-10.4827
▁Ошентсе	-10.4831
▁Транспорт	-10.4831
▁бекитилген	-10.4831
▁табият	-10.4831
▁Бактыбек	-10.4832
▁Санкт	-10.4832
▁кую	-10.4832
▁кылдат	-10.4832
▁таймаш	-10.4833
▁адилеттүү	-10.4834
▁чыгарылды	-10.4835
▁кечки	-10.4837
▁токтотууну	-10.4841
▁кардарлар	-10.4841
▁Уюмду	-10.4844
▁барышы	-10.4844
түгүл	-10.4846
▁боз	-10.4847
▁институттар	-10.4857
▁кетүүнү	-10.4858
▁Замир	-10.4864
▁чечимдерди	-10.4865
▁Адилет	-10.4866
ыраак	-10.4869
леринин	-10.487
▁укугуна	-10.4873
▁түшкөнүн	-10.4873
▁Токтакунов	-10.4879
▁болбошу	-10.4879
▁ишемби	-10.488
▁тигүү	-10.488
▁Федерал	-10.4881
▁кесиптештери	-10.4884
▁кач	-10.4884
▁өкүн	-10.4886
▁77	-10.4896
▁илдетти	-10.49
▁беренелери	-10.4905
▁жылдыз	-10.4907
▁программалар	-10.4911
▁материалдарды	-10.4911
▁орунду	-10.4915
ско	-10.4916
▁Маалыматта	-10.4922
▁айтпай	-10.4926
▁H	-10.4927
]	-10.4928
▁камсыздандыруу	-10.4928
▁табигый	-10.4928
▁саналуу	-10.4931
▁Акжол	-10.4931
▁табылып	-10.4931
▁атаандаштык	-10.4932
▁нерселерди	-10.4934
▁күтүү	-10.4936
▁Петр	-10.4937
▁кайтарылган	-10.4942
▁принциптер	-10.4944
▁каражаттарына	-10.4946
абад	-10.4948
▁жаңылыктар	-10.4953
Украина	-10.4954
▁академиясынын	-10.4957
▁көтөрдү	-10.4958
▁өзгөртүүлөр	-10.4958
▁машинелер	-10.4959
▁Ста	-10.4962
▁51	-10.4963
▁району	-10.4968
▁микро	-10.4976
▁Сербия	-10.4976
▁түтүн	-10.4977
▁өлүп	-10.4977
Масса	-10.498
▁Сей	-10.498
▁Март	-10.4981
▁мелдештер	-10.4982
▁кимдир	-10.4983
▁аскерлердин	-10.4984
▁тармактарга	-10.4986
▁агасы	-10.499
▁тос	-10.499
▁элчилигинин	-10.4991
▁калың	-10.4995
▁өтөрү	-10.4996
▁сатылган	-10.4997
▁ээлик	-10.4998
▁компаниялардын	-10.4998
▁элине	-10.5001
▁үзүл	-10.5003
▁аялдын	-10.5003
мыйзам	-10.5003
▁Жапаровду	-10.5004
▁Конституцияга	-10.5012
▁жайларга	-10.5015
▁Сирияда	-10.5015
▁журналисттин	-10.5018
▁авиация	-10.5024
▁деңгээлге	-10.5025
▁офицер	-10.5025
▁Мырза	-10.5025
▁тарапкерлери	-10.5026
▁Алымка	-10.5026
▁ыраазычылык	-10.5027
▁жеткирип	-10.503
▁ген	-10.5033
▁үйүнүн	-10.5033
▁миссиясы	-10.5035
▁уста	-10.5036
▁берилиши	-10.5037
▁Канча	-10.5038
▁атышат	-10.5038
▁өткөнү	-10.5039
▁сол	-10.5041
▁окуяларына	-10.5043
▁кылууну	-10.5043
▁The	-10.5044
▁E	-10.5046
Фейсбук	-10.5048
▁адистери	-10.505
▁ХАМАСты	-10.505
айып	-10.505
▁берилерин	-10.5051
▁O	-10.5051
▁киргизди	-10.5056
▁борборлору	-10.5064
▁жи	-10.5065
▁козгоп	-10.5066
ol	-10.5069
▁адвокаттары	-10.5071
▁федерация	-10.5071
▁балалуу	-10.5072
▁босого	-10.5074
▁козголоң	-10.5074
▁альянс	-10.5074
Клооп	-10.5075
▁жабдыктар	-10.508
▁сарай	-10.5081
▁экспорттоо	-10.5084
▁талкуулап	-10.5085
▁өлтүрүүгө	-10.5092
▁коюш	-10.5096
гиле	-10.5097
W	-10.5102
ьер	-10.5108
ткөн	-10.5108
▁чакырыл	-10.511
▁процесси	-10.511
▁Ши	-10.5111
▁Лукашенкону	-10.5112
▁бүтүм	-10.5115
▁Башында	-10.5115
▁тобокел	-10.5123
▁Нарматова	-10.5123
▁Экөө	-10.5125
▁видеосу	-10.5127
Ордо	-10.5127
▁чөп	-10.5128
▁күзөт	-10.5134
▁тынчсыздануу	-10.5135
кыч	-10.5139
▁турмушка	-10.515
▁саясатка	-10.515
▁наркы	-10.5153
▁Назарбаевдин	-10.5154
чыгыш	-10.5154
▁жүздө	-10.5156
▁эгерде	-10.516
▁акциясына	-10.5164
октябрында	-10.5173
калый	-10.5174
▁түшүрүлгөн	-10.5174
▁Из	-10.5176
▁жолдору	-10.518
▁байлык	-10.5184
▁ишкерлердин	-10.5188
▁жумушу	-10.5191
▁өнөктөштөр	-10.5191
▁жүргүнчү	-10.5197
▁жерине	-10.5199
берене	-10.52
▁алсыз	-10.5206
Ке	-10.5208
▁кылмыштарга	-10.5214
▁токтотту	-10.5216
▁жүрүшкө	-10.5217
▁продукция	-10.5223
▁чечмеле	-10.5223
▁ишенбей	-10.5223
▁соодагерлер	-10.5223
▁консулдук	-10.5225
▁режимин	-10.5229
ография	-10.523
▁чакта	-10.5236
▁билдирүүсүнө	-10.5238
▁сүрөттөр	-10.5239
▁салышкан	-10.524
▁Индияда	-10.524
▁салынып	-10.5242
▁иретинде	-10.5244
▁уюмуна	-10.5248
▁үйлөрдүн	-10.525
▁бүттү	-10.5255
▁көзөмөлүндө	-10.5261
▁көрдүк	-10.5264
ердик	-10.5268
▁Египет	-10.5273
▁категория	-10.5273
▁артиллерия	-10.5273
▁төртүнчү	-10.5273
▁кыскартуу	-10.5273
▁Жумуш	-10.5274
ККМ	-10.5274
▁үйлөн	-10.5274
▁өндүрүлгөн	-10.5274
▁эрежелерди	-10.5275
▁кулап	-10.5276
▁маалыматтык	-10.5276
▁Берлин	-10.528
▁чамасында	-10.5283
▁катышууга	-10.5286
▁Аял	-10.5287
▁документтерин	-10.529
слав	-10.5294
▁коргой	-10.5296
▁Асел	-10.5304
▁тартууну	-10.5311
▁Уюм	-10.5313
▁мониторинг	-10.5323
▁эсептешет	-10.5323
▁Убакты	-10.5323
▁алмашкан	-10.5323
▁Иса	-10.5326
▁айыпталуучу	-10.5326
▁Кайра	-10.5327
талап	-10.5327
улла	-10.5328
▁чарчы	-10.5328
▁кыйылган	-10.5329
▁калем	-10.5329
▁айлант	-10.5334
▁автоунааларды	-10.5334
▁тарыхчы	-10.534
▁булактары	-10.5343
▁билбеген	-10.5349
▁тартипти	-10.536
▁мектептерде	-10.5365
▁жатабы	-10.5367
▁паспортун	-10.537
▁Песков	-10.5373
▁ишенди	-10.5375
▁Сариев	-10.5376
▁Компания	-10.5377
▁Алай	-10.5378
▁провинциясында	-10.5378
лоп	-10.538
▁кызыктуу	-10.5385
▁базарлар	-10.5385
Ха	-10.539
▁коомунун	-10.5393
▁аталышы	-10.5399
▁учурлары	-10.54
▁өчүрүл	-10.5401
▁шектүүлөр	-10.5403
▁Шинжаң	-10.5411
▁айылдык	-10.5413
▁байкоочулар	-10.5417
▁кимдин	-10.5424
▁кайдыгер	-10.5424
▁окуялары	-10.5426
▁тийгизген	-10.5426
▁61	-10.5427
▁экспортто	-10.5429
▁1000	-10.5436
бүлөсүнө	-10.5444
▁өзүмдү	-10.5444
муш	-10.5445
▁системасына	-10.5457
▁майрамы	-10.5463
▁пайызды	-10.5464
▁жандант	-10.5471
дөгөн	-10.5475
▁1991-	-10.5475
▁резерв	-10.5475
▁номур	-10.5475
▁Иманалиев	-10.5475
▁күтүүсүз	-10.5476
▁күй	-10.5478
▁толгон	-10.5479
▁Сотто	-10.5481
▁кишилердин	-10.5502
ибизге	-10.5503
▁Лу	-10.5517
бастан	-10.5519
▁ишкананын	-10.5522
▁максатта	-10.5523
▁кийинчерээк	-10.5526
▁компьютер	-10.5526
▁европалык	-10.5526
▁Жонсон	-10.5527
▁авария	-10.5527
чатак	-10.5527
▁өлтүргөн	-10.5533
▁агент	-10.5541
▁жардамчысы	-10.5541
▁жаратат	-10.5545
▁аппараттын	-10.5552
дашкан	-10.5553
▁Бел	-10.5555
▁эсеге	-10.5555
▁67	-10.5555
▁Ташиевдин	-10.556
▁66	-10.5562
▁коёт	-10.5575
▁үйдү	-10.5575
▁башкаруучу	-10.5576
▁чечкиндүү	-10.5578
▁учкан	-10.5578
▁коргогон	-10.558
▁достору	-10.558
▁кылым	-10.558
▁жазылат	-10.5581
▁иштетип	-10.5582
▁колдонулуп	-10.5585
▁акыйкатчы	-10.5586
▁аша	-10.5588
▁аткарылышы	-10.5592
▁жайыт	-10.5594
▁карызы	-10.5596
Достук	-10.5606
▁64	-10.5607
▁ит	-10.561
us	-10.5611
▁келүүгө	-10.5612
▁карызды	-10.5613
▁Шаардык	-10.5619
▁отурумунда	-10.5622
▁бербеген	-10.5626
▁маараке	-10.563
▁пландалган	-10.563
▁News	-10.563
▁чебер	-10.5631
▁суранган	-10.5633
▁чечиш	-10.5637
▁ойногон	-10.5637
▁окуучулары	-10.5638
▁аппараты	-10.564
▁такталган	-10.564
мэр	-10.5643
▁кылмышкер	-10.5645
ИМ	-10.5645
▁мэрия	-10.5646
▁бюджеттин	-10.5651
▁59	-10.5655
▁маркумду	-10.5657
▁райондо	-10.5664
итет	-10.5664
▁дыйкандар	-10.5668
▁окуясына	-10.567
екция	-10.567
▁фондуна	-10.5671
▁кызматташ	-10.5672
өбө	-10.5673
▁Нар	-10.5674
▁тоскоолдуктар	-10.5676
▁интернетте	-10.5677
li	-10.5678
▁чачы	-10.5682
▁талкуулаган	-10.5682
J	-10.5682
▁конкреттүү	-10.5682
▁ынтымак	-10.5682
▁Тайван	-10.5683
▁жапон	-10.5683
▁Көрсө	-10.5684
▁Аида	-10.5684
▁тосмо	-10.5685
▁билими	-10.5685
▁[	-10.5689
▁76	-10.5691
▁Биримдигинин	-10.5692
▁жолдомо	-10.5696
▁башташты	-10.5698
▁көмөктөш	-10.5701
▁жыйынына	-10.5707
▁мүчөлөрүнүн	-10.5709
om	-10.571
▁берчү	-10.5713
▁Дос	-10.5716
▁Сирияны	-10.5717
▁атаандашы	-10.5732
▁Демократия	-10.5734
▁Күндүз	-10.5734
▁Максим	-10.5734
▁Динара	-10.5734
▁атактуу	-10.5735
▁Эксперттер	-10.5735
▁союздаш	-10.5735
▁урулган	-10.5738
▁кырк	-10.5738
▁Зар	-10.5739
▁чен	-10.5742
дүктөн	-10.5742
▁парламенти	-10.5743
сатык	-10.5744
▁көрөт	-10.5745
Камбар	-10.5746
▁жаштардын	-10.5747
▁Мария	-10.5758
▁жайылт	-10.5763
▁Аль	-10.5769
▁шар	-10.5772
▁кызыкчылыктар	-10.5773
▁талаптарын	-10.5777
▁Баткендеги	-10.5783
▁жаткандыктан	-10.5784
▁учактар	-10.5785
▁Бахмут	-10.5787
▁Сооронкулова	-10.5787
▁тынымсыз	-10.5787
▁Луганск	-10.5787
▁Гүлнара	-10.5787
▁жаткандай	-10.5792
▁жиберди	-10.5794
▁кыймылсыз	-10.58
▁мамлекеттери	-10.5802
▁эмеспиз	-10.5807
▁журналисти	-10.5808
▁албаса	-10.5811
▁жетекчилигине	-10.5811
▁вариант	-10.5812
▁акыны	-10.5813
сиңер	-10.5814
▁Алматыда	-10.5817
богон	-10.582
▁уга	-10.5824
▁Уюму	-10.5826
▁билдирүүлөрү	-10.5829
▁сууну	-10.583
зер	-10.5832
▁тагдыр	-10.5832
▁73	-10.5834
▁Компани	-10.5836
▁абзел	-10.584
▁падыша	-10.584
▁Ереван	-10.584
▁аңгеме	-10.584
▁сындады	-10.5842
▁жоготуп	-10.5842
▁арачылары	-10.5843
▁суусу	-10.5845
▁тилек	-10.5846
▁жоготуу	-10.5847
▁жолугушту	-10.5847
▁Аялдар	-10.5847
▁айдап	-10.5852
▁пайдаланууга	-10.5855
▁блогерлер	-10.5856
▁көңүлүн	-10.5856
▁дипломаттар	-10.5861
▁Россиянын	-10.5864
▁тартканы	-10.5865
▁ишкерлерге	-10.5868
35	-10.5869
▁демилгелер	-10.5885
▁көзөмөлүнө	-10.5886
▁жогот	-10.5888
am	-10.5888
▁кошулуу	-10.5889
▁түшүнбөй	-10.589
ch	-10.5892
▁Курманкул	-10.5893
▁Бөлтүрүк	-10.5893
▁Ибраев	-10.5893
▁отставка	-10.5893
▁өзгөргөн	-10.5893
▁Жакшы	-10.5893
▁Фото	-10.5895
▁эсептөө	-10.5896
▁документтери	-10.5896
▁көздөйт	-10.59
▁Муса	-10.5901
▁пландап	-10.5902
▁милициясынын	-10.5902
▁Жок	-10.5904
▁пайдасы	-10.5911
▁мекемелердин	-10.5915
▁кооз	-10.5916
▁чемпионатында	-10.5917
▁оюндарына	-10.5918
▁кыялы	-10.5922
▁белек	-10.5922
▁үчтөн	-10.5923
▁укту	-10.5926
Республика	-10.5929
жанов	-10.593
▁күзүндө	-10.594
▁программасынын	-10.5944
▁Акаевдин	-10.5945
▁айткандай	-10.5946
▁Боршайком	-10.5946
▁Дүйшөн	-10.5946
▁биротоло	-10.5946
▁Бекназаров	-10.5947
▁агым	-10.5947
▁Йе	-10.5947
▁өлтүрүп	-10.595
▁уюмдары	-10.595
▁өткөрүлгөн	-10.5955
▁асыл	-10.5956
▁юристтер	-10.5957
▁видеодо	-10.5958
▁түрүнө	-10.5958
мит	-10.5962
▁системаны	-10.5963
▁формасын	-10.5965
▁айтпа	-10.5966
▁контр	-10.597
▁полициянын	-10.5975
▁партиялык	-10.5978
▁талкуулады	-10.5981
Се	-10.5982
▁инфекциясы	-10.5999
▁Шектүү	-10.6
▁Болгону	-10.6
▁ээрчи	-10.6
▁Энтон	-10.6
▁жыгыл	-10.6001
▁камап	-10.6003
▁чалгындоо	-10.6003
▁органы	-10.6003
▁автоном	-10.6003
▁кылбай	-10.6007
▁көрсөтүш	-10.6008
▁Газадагы	-10.601
▁соолук	-10.6014
▁пе	-10.6015
▁түшүнүү	-10.6022
▁салыкты	-10.6025
мынча	-10.603
оммунисттик	-10.6032
▁палатасынын	-10.6033
▁таратыл	-10.6034
▁бошотууну	-10.6038
▁шарттарды	-10.6038
▁агенттик	-10.6038
▁жетиши	-10.6046
▁Самат	-10.6049
▁Парламентти	-10.6049
▁көрдүм	-10.605
▁көбөйгөнүн	-10.6054
▁Лавров	-10.6054
▁көбөйүшү	-10.6054
▁масштабдуу	-10.6054
▁көрүстөн	-10.6054
▁Эдил	-10.6055
▁Балыкчы	-10.6055
▁таппай	-10.6055
▁жикчил	-10.6057
▁реестрине	-10.6059
▁Ги	-10.6061
▁кызыгуу	-10.6062
▁буруп	-10.6067
▁улантууда	-10.607
▁териштир	-10.6072
▁ашырууга	-10.608
▁конуштар	-10.6084
▁аскерге	-10.6086
▁өстү	-10.6087
▁жазма	-10.609
Өзбекстан	-10.6092
Кытай	-10.6092
▁кырсыкта	-10.6093
▁иштеринин	-10.6096
▁режимде	-10.6098
▁Ишен	-10.6101
▁көптөн	-10.6107
▁фильм	-10.6109
▁өбөлгө	-10.6109
▁тыянак	-10.6109
▁манасчы	-10.6109
▁сарптал	-10.6109
▁аяктады	-10.6109
▁ишенем	-10.6109
▁багып	-10.6109
▁Адатта	-10.6109
▁термин	-10.6109
▁эсептейм	-10.6109
▁жукту	-10.6109
▁уран	-10.6109
▁токтобой	-10.611
▁дарегине	-10.6112
▁белгиси	-10.6115
▁талкууланган	-10.612
▁тир	-10.6122
▁жазышты	-10.6124
▁ырлары	-10.6127
▁ушуга	-10.6132
▁Түркмөнстандын	-10.6134
▁укуктарынын	-10.6135
▁Тар	-10.6135
▁көтөрө	-10.614
▁Шо	-10.6144
▁бузул	-10.6149
▁толтура	-10.6159
▁кылымды	-10.6159
▁Тер	-10.6161
▁уру	-10.6162
▁барымтага	-10.6163
▁ирандык	-10.6163
▁ишенип	-10.6163
▁белгиленет	-10.6163
▁кажет	-10.6163
▁шайланып	-10.6164
▁көлөмдө	-10.6164
▁чыгууда	-10.6167
▁чыгышындагы	-10.6168
▁жолугушкан	-10.6169
▁Пол	-10.6169
▁Израилге	-10.6177
чарага	-10.6177
▁Грузиянын	-10.6177
▁Дума	-10.6179
▁каналдар	-10.6181
▁боору	-10.6183
▁ыры	-10.6185
▁журналисттерди	-10.6187
▁чыгармачылык	-10.6191
▁импортто	-10.6195
▁дооматтарды	-10.6197
?!	-10.6202
▁сессия	-10.6203
▁ачууга	-10.6203
марттагы	-10.6203
▁кеңешине	-10.6205
▁1992-	-10.6218
▁режиссер	-10.6218
▁шейшемби	-10.6218
▁козголду	-10.6218
▁айыппул	-10.6219
▁минтип	-10.622
▁бөлүктөрү	-10.6229
▁жумшал	-10.6232
▁кези	-10.6234
▁79	-10.6236
▁макта	-10.6247
топ	-10.6248
▁Шу	-10.6249
▁үйлөрдү	-10.6253
▁күбөлүк	-10.6255
▁эсептеп	-10.6257
▁булак	-10.6258
▁өсүш	-10.6262
▁бошотул	-10.6267
оюн	-10.6271
Ынтымак	-10.6274
▁Шакиев	-10.6274
▁Соода	-10.6274
▁атомду	-10.6275
▁болушунча	-10.6275
Көчө	-10.6275
ur	-10.6275
▁сунушталды	-10.6276
▁аракеттерге	-10.6283
▁узартуу	-10.6285
▁78	-10.6286
▁уланат	-10.6289
▁жака	-10.629
Арча	-10.6291
45	-10.6296
▁айтыла	-10.6311
ологдор	-10.6314
икти	-10.6314
То	-10.6324
▁мамлекеттерге	-10.6325
▁канааттан	-10.6329
январга	-10.6329
Дордой	-10.6329
▁теңге	-10.6329
▁ансыз	-10.633
▁Мелис	-10.6331
▁жарандыгы	-10.6331
▁терроризм	-10.6331
▁фактор	-10.6335
▁күбөлөр	-10.6345
▁баскан	-10.6345
▁даярдалган	-10.635
▁Ыр	-10.6352
▁жасоого	-10.6353
▁Америкалык	-10.6366
АКШ	-10.637
▁ырастап	-10.637
▁таанышып	-10.637
▁бошотууга	-10.6381
▁сентябрь	-10.6382
▁Кадамжай	-10.6385
▁Кырсык	-10.6385
▁командир	-10.6385
▁күчөдү	-10.6385
▁2000-	-10.6385
▁роман	-10.6386
▁Ус	-10.6386
▁өнөктөшү	-10.6386
▁Султанбеков	-10.6387
▁эгемендиги	-10.6387
▁жылыш	-10.639
Тал	-10.6391
Рос	-10.6391
▁багыттагы	-10.6397
▁иликтөөнү	-10.64
▁Майк	-10.6404
▁84	-10.6406
▁башчыларынын	-10.6406
▁көрсөтүүнү	-10.6409
▁жүрүүдө	-10.6409
▁мамлекетти	-10.6418
▁тарабында	-10.6418
▁Түркмөнстанда	-10.6424
▁араң	-10.6435
Хезболла	-10.6441
▁КСДП	-10.6441
▁жөнөтүп	-10.6441
▁обсервация	-10.6441
▁экстремизм	-10.6441
▁кастыкты	-10.6441
▁сырткы	-10.6441
▁Келишим	-10.6441
▁барганын	-10.6443
▁жоготкон	-10.6444
▁Эш	-10.6447
▁Иван	-10.6448
эт	-10.6452
▁денеси	-10.6458
▁көчөлөрү	-10.6467
▁Курск	-10.6487
▁курула	-10.6487
▁кейи	-10.6487
▁тыгын	-10.6489
▁форуму	-10.6492
▁бирөөлөр	-10.6493
Инстаграм	-10.6498
Z	-10.6498
▁өнөктүк	-10.6498
▁даңаза	-10.6498
▁үндөдү	-10.6498
▁ишмердиги	-10.6498
▁көчмөндөр	-10.65
▁каттамдары	-10.6502
▁катышы	-10.6502
▁уят	-10.6503
▁аскерлерди	-10.6505
▁салттуу	-10.6506
▁бошотулду	-10.6508
▁Окуу	-10.6513
▁калтырып	-10.6514
▁телефондон	-10.6516
▁Путинге	-10.6523
il	-10.6526
ибизде	-10.6527
▁орток	-10.6528
▁уурдап	-10.6531
▁керектиги	-10.6533
До	-10.6545
▁Жеке	-10.6545
▁редактору	-10.6545
▁доорунда	-10.6547
▁ижара	-10.655
31	-10.6551
▁Times	-10.6554
Евро	-10.6555
▁өпкө	-10.6555
▁учуу	-10.6556
Мекеним	-10.6557
▁жаабайт	-10.6557
▁жеңиш	-10.6558
▁аракеттенүү	-10.6559
▁талдоо	-10.6576
ылда	-10.6577
▁жабылды	-10.6579
▁кайтарган	-10.6585
ТР	-10.6586
▁кайна	-10.6589
▁кызматташууну	-10.659
▁чыгармачыл	-10.6591
▁жазасына	-10.6594
▁станциясы	-10.6599
▁жогорудагы	-10.66
▁кетерин	-10.6603
▁Штаттарды	-10.6605
▁ыйык	-10.6612
▁өнөктөштүк	-10.6612
▁маектеш	-10.6614
▁сыртына	-10.6614
▁президенттери	-10.6615
▁сакталган	-10.6622
Талибандын	-10.6624
▁илдеттен	-10.6625
▁гол	-10.6625
▁чынында	-10.6626
▁аялдарды	-10.6632
▁ниети	-10.6635
▁суроолорду	-10.6636
▁ЖККУ	-10.6638
▁Күч	-10.6641
▁ичине	-10.6642
▁кайтуу	-10.6645
▁отуруму	-10.6656
үрөк	-10.6662
Электр	-10.6667
▁стационар	-10.6669
▁диаспора	-10.6669
▁ратификация	-10.6669
▁эмгектенген	-10.6669
▁Бакиров	-10.6669
▁жетишсиздиги	-10.6671
▁алынса	-10.6671
▁кийип	-10.6673
▁иликтеген	-10.6675
▁моюнуна	-10.6677
▁коштол	-10.6678
▁Министрликтин	-10.6681
▁билимдүү	-10.6687
▁69	-10.6688
Көлдүн	-10.6688
▁башаламандыктар	-10.6691
▁депутаттын	-10.6693
▁берилбей	-10.6694
▁каттамы	-10.6699
▁фактылары	-10.6704
▁көрүүнү	-10.6707
Ми	-10.6708
▁Жү	-10.6713
▁Ново	-10.672
дешти	-10.6724
▁Финляндия	-10.6727
▁француз	-10.6727
▁Отунбаева	-10.6727
▁опуза	-10.6727
▁Кармалган	-10.6727
▁кВт	-10.6727
▁рекорд	-10.6727
▁көрбөгөндөй	-10.6728
is	-10.673
▁кайрыла	-10.6733
▁Пакистанда	-10.674
▁айылдары	-10.6741
▁келтирди	-10.6741
▁чакырылыш	-10.6744
▁тобуна	-10.6748
▁Долбоор	-10.6749
▁кыял	-10.6754
▁отун	-10.6757
▁ашууну	-10.676
▁ӨКМ	-10.6761
▁талибдерди	-10.6764
▁жерлери	-10.6769
▁Американын	-10.6771
▁Бах	-10.6771
▁сүйүн	-10.6771
▁кызматтарды	-10.6772
кыргыз	-10.6772
бүлөдө	-10.6773
▁сыйла	-10.6782
▁сексуалдык	-10.6785
▁ушинтип	-10.6785
▁саякат	-10.6785
▁кабарлашты	-10.6785
▁жатасыз	-10.6785
▁байкалган	-10.6785
▁Көпчүлүк	-10.6786
▁достук	-10.6787
▁коштолгон	-10.6788
▁ресторан	-10.6788
▁жиберип	-10.6792
▁жазында	-10.6793
▁чагы	-10.6806
▁чечил	-10.6807
▁даярдыгы	-10.6808
▁корутундусу	-10.6808
▁бөлүү	-10.6809
▁системалары	-10.6814
▁өлкөлүктөр	-10.6828
Түндүк	-10.6831
▁клиника	-10.6832
Бука	-10.6836
▁кайрымдуулук	-10.6843
▁сезген	-10.6843
▁сезон	-10.6845
▁айтсак	-10.6845
▁байланыштырган	-10.6846
▁келишимине	-10.6847
▁Но	-10.6848
▁сакталышы	-10.6849
Синин	-10.6849
спор	-10.6852
▁порталы	-10.6855
▁кичине	-10.6855
▁жөнөтө	-10.6856
▁Гани	-10.6856
▁тааныбай	-10.6857
▁төлөгөн	-10.6857
▁окуялардан	-10.6858
▁сабактар	-10.686
▁130	-10.6867
туруму	-10.6876
итардык	-10.6877
▁Дүйнөдө	-10.6878
▁чыгарат	-10.6885
▁жаныбарлар	-10.6887
▁азыктары	-10.6891
▁кароого	-10.6891
▁негизи	-10.6895
▁чач	-10.6899
▁Эмнеге	-10.69
▁беренелер	-10.6901
▁Бразилия	-10.6902
▁Евгений	-10.6902
▁өсүмдүк	-10.6902
▁Жылдыз	-10.6902
▁жеңген	-10.6903
окто	-10.6903
▁консул	-10.6904
▁Курулуш	-10.6905
▁доору	-10.6908
▁Роза	-10.6911
▁мүмкүнчүлүктөрү	-10.6912
▁сулуу	-10.6917
▁салыгы	-10.6917
▁жазышкан	-10.6921
▁баракчасында	-10.6921
▁жеген	-10.6928
▁чагымчыл	-10.6932
▁варианты	-10.6934
▁эмнени	-10.6934
▁аземи	-10.6935
▁ую	-10.6942
гула	-10.6943
▁иликтөөчү	-10.6943
▁мандатын	-10.6943
▁киргизе	-10.6949
▁көргөндө	-10.6959
▁психолог	-10.696
▁искусство	-10.6961
▁Нидерланд	-10.6961
▁одоно	-10.6961
▁уурдоо	-10.6961
▁артисти	-10.6962
▁Клара	-10.6962
▁эрки	-10.6964
▁орусча	-10.6968
▁турарын	-10.6973
▁Индиянын	-10.6974
▁уткан	-10.6975
▁кыларын	-10.6977
▁чөлкөмдө	-10.6983
▁талкуулоо	-10.6984
▁талкуулар	-10.6989
▁жеткенин	-10.6992
▁түзүмдөрү	-10.6993
президенти	-10.6994
▁телеканалдар	-10.6996
пөгөн	-10.7001
▁95	-10.7009
Бийлик	-10.701
▁уранды	-10.7012
▁позициясы	-10.7015
январдагы	-10.7021
▁Исхак	-10.7021
▁фейк	-10.7021
▁жалданма	-10.7021
▁өсүү	-10.7022
▁Эмилбек	-10.7022
▁Урмат	-10.7023
▁бөлүштүрүү	-10.7025
▁туристтик	-10.7025
▁азыраак	-10.7026
▁башкаларга	-10.7027
▁мажбурлап	-10.7029
▁ызы	-10.7029
▁чечимдери	-10.7031
раган	-10.7035
▁жоктугу	-10.7035
▁тамыр	-10.7042
акы	-10.7055
лбаганы	-10.7057
▁палатасы	-10.7061
▁эмнеде	-10.7061
декабрында	-10.7062
рав	-10.7063
▁кишилерди	-10.7067
as	-10.707
▁тизмеде	-10.7071
▁учактары	-10.7073
▁97	-10.7077
▁Чи	-10.7078
▁Мээрим	-10.7081
▁келишпестик	-10.7081
▁күйөрман	-10.7081
▁сахна	-10.7081
▁курсу	-10.7083
▁тамактануу	-10.7083
▁Курман	-10.7083
▁башталышы	-10.7085
иддин	-10.71
▁билбейт	-10.7103
бөгөнү	-10.7104
▁дубал	-10.7104
▁жолдорду	-10.7104
▁тигил	-10.7105
▁чындыкка	-10.7105
▁Гал	-10.7111
▁Камчы	-10.7115
▁72	-10.7116
▁жекшемби	-10.7116
▁калыш	-10.7118
▁туткундарды	-10.7121
▁чагылдырган	-10.7129
дуулугу	-10.714
▁Жыйынтыгында	-10.7141
▁Медицина	-10.7141
▁кримтөбөл	-10.7141
▁тургуз	-10.7141
▁теракт	-10.7142
▁майыптыгы	-10.7142
▁танк	-10.7144
чөйрөнү	-10.7149
▁министрлери	-10.7152
▁клиникалык	-10.7153
▁Киевдин	-10.7154
▁маалымдагандай	-10.7159
▁себептүү	-10.716
▁180	-10.716
▁Казакбаев	-10.7175
▁сүрөттөрү	-10.7183
▁жерлерге	-10.7184
Алтын	-10.7185
▁университети	-10.7185
▁аракетине	-10.719
▁бөгөттө	-10.7197
▁110	-10.7199
▁Аламүдүн	-10.7202
▁бензин	-10.7202
▁концепция	-10.7202
▁кооператив	-10.7202
▁Белгиле	-10.7202
▁байланышып	-10.7204
▁Эгемендик	-10.7207
▁Сагын	-10.7207
▁ишканалардын	-10.7208
▁иштеди	-10.7208
▁бекеттери	-10.7211
▁коюшат	-10.7213
▁мурдараак	-10.7214
▁өткү	-10.7216
▁таңкы	-10.722
▁жекшембиде	-10.7227
▁ишмердигине	-10.7229
▁кулаган	-10.723
▁СССРдин	-10.7231
▁апа	-10.7231
▁спорттук	-10.7232
▁нук	-10.7237
▁катышуусунда	-10.7241
▁Чыны	-10.7244
▁тра	-10.7245
▁өткөрүш	-10.7247
▁академиясы	-10.725
▁жашар	-10.725
▁Газада	-10.7251
▁чыккандарды	-10.7252
апрель	-10.7253
▁сени	-10.7253
▁каналына	-10.7257
▁чогулуш	-10.7258
▁сиздер	-10.7259
▁Фар	-10.726
үткүл	-10.7262
▁терезе	-10.7263
▁Мексика	-10.7263
▁бейшемби	-10.7263
▁бюро	-10.7263
Озоди	-10.7263
▁квота	-10.7263
▁этият	-10.7264
▁Асад	-10.7265
▁көч	-10.7269
хе	-10.7276
▁нормалар	-10.7277
▁байлыгы	-10.7277
▁өзгөртүүгө	-10.7278
▁ооруну	-10.728
▁80%	-10.7281
▁шаарды	-10.7287
▁бөлүк	-10.7289
▁калкты	-10.7289
▁корутунду	-10.7299
▁изи	-10.7306
▁үстү	-10.7306
▁Атамбаевди	-10.7307
▁басыл	-10.731
▁эмдөөдө	-10.7313
▁Абдирасулова	-10.7324
▁өстүр	-10.7324
▁тынчтыкты	-10.7324
▁аткаминер	-10.7325
▁IT	-10.7327
▁Орхан	-10.7327
▁департаменти	-10.7336
▁алыскы	-10.7337
▁эрежесин	-10.7342
▁Францияда	-10.7344
▁баяндамасында	-10.7346
▁Өзбек	-10.735
▁курул	-10.7354
▁ракеталар	-10.7356
ov	-10.7358
▁этно	-10.736
▁кызыкчылыгына	-10.7365
▁видеого	-10.7368
▁экөөбүз	-10.7371
ников	-10.7371
▁Абдулла	-10.7373
▁тасмалар	-10.7373
▁тизмесинде	-10.7374
▁айыптар	-10.7374
▁алабы	-10.738
▁Болбосо	-10.7386
▁жетпеген	-10.7386
▁инфляция	-10.7386
▁стадион	-10.7386
▁Митинг	-10.7386
▁Масалиев	-10.7386
▁айдың	-10.7386
▁даярданып	-10.7386
▁мүмкүндүгүн	-10.7386
▁күтүлүп	-10.7387
▁айтуусунда	-10.7387
▁Оорукана	-10.7389
▁күчөтүлгөн	-10.7389
▁жандандыруу	-10.7392
▁сүйүү	-10.7392
▁облуста	-10.7395
▁Хи	-10.74
▁Палестина	-10.7402
▁пайдаланган	-10.7403
▁өлчөмүндө	-10.7406
▁баалаган	-10.7409
▁токтотул	-10.741
▁өчүр	-10.7413
▁акчалай	-10.7415
▁наам	-10.742
▁редакциясы	-10.7423
▁Парламенттик	-10.7429
катыш	-10.7432
▁нуска	-10.7448
▁белгилешти	-10.7448
▁агып	-10.7449
▁камалышы	-10.745
▁жеткирген	-10.7451
▁ойлонуп	-10.7454
▁кечке	-10.7457
▁түшүнгөн	-10.7458
▁кызыктыр	-10.7458
▁каралууда	-10.746
▁ойлор	-10.7462
▁көзөмөлдү	-10.7463
▁айдоо	-10.7469
▁87	-10.7469
Бел	-10.7473
▁макулдашууну	-10.7473
▁саясатчылардын	-10.7479
түрк	-10.7484
▁аракеттерине	-10.7502
▁ноябрь	-10.7503
▁климат	-10.7509
▁Монголия	-10.751
▁Нетаньяху	-10.751
▁Одесса	-10.751
▁координация	-10.751
▁очогу	-10.751
▁соцтармак	-10.751
▁АЭС	-10.7511
▁тукум	-10.7512
▁өмүрүнө	-10.7513
баркы	-10.7515
▁чагым	-10.7524
▁жолдошу	-10.7524
▁имаратынын	-10.7529
▁колдонулат	-10.7532
▁ачты	-10.7534
▁өспүрүмдөр	-10.7537
▁түпкү	-10.7541
▁башаламандыкка	-10.7543
▁журналы	-10.7544
үбүздү	-10.7546
пикир	-10.7546
▁алынбай	-10.7546
▁айларда	-10.7548
▁алыста	-10.7548
▁жетекте	-10.7548
▁кийлигишүү	-10.7551
▁Кайрат	-10.7556
▁Ороз	-10.756
▁чыкпа	-10.756
▁тыкы	-10.7562
▁ачылыш	-10.7564
▁Тил	-10.7566
видео	-10.7567
▁чыгарбай	-10.7568
▁туруксуз	-10.7573
▁жатакана	-10.7573
▁Алишер	-10.7574
▁бузулушу	-10.7575
▁жетишти	-10.7575
▁бошотуп	-10.7577
▁Автор	-10.7577
▁өтсө	-10.7578
▁доктору	-10.7583
▁адиси	-10.7583
▁агенттиктер	-10.7587
▁округу	-10.759
▁директор	-10.7591
▁билдире	-10.7592
▁Каржы	-10.7593
▁кодексине	-10.7596
▁тасмасы	-10.76
▁Эсен	-10.7606
▁билиш	-10.7608
▁бирөөнүн	-10.7608
▁өтчү	-10.7614
▁изилде	-10.762
▁эсептеген	-10.762
каналы	-10.7621
▁салса	-10.7624
az	-10.7625
Ү	-10.7629
Түрк	-10.7629
▁аркасы	-10.7633
▁жогол	-10.7633
▁Депутаттар	-10.7634
▁BBC	-10.7637
▁Апрель	-10.7637
▁актуалдуу	-10.7637
▁жеткиликтүү	-10.7637
▁кесипкөй	-10.7637
▁сезип	-10.7637
▁Добуш	-10.7637
▁транс	-10.7637
▁тартылды	-10.764
▁утту	-10.764
▁адал	-10.7641
▁жүргүзүлөт	-10.7641
▁айыптарды	-10.7642
▁кыйылды	-10.7642
▁келчү	-10.7653
▁өлкөлөрдөгү	-10.7661
▁үйлөрүнө	-10.767
▁берилбейт	-10.7673
▁жеңиши	-10.7682
85	-10.7683
▁жүргөндөр	-10.7691
▁кызматты	-10.7696
▁тоскоол	-10.7697
▁аннексия	-10.7698
▁Айрымдары	-10.7698
▁Тынчтык	-10.77
▁Тыныбекова	-10.77
▁адабий	-10.77
▁апелляция	-10.77
▁аудио	-10.77
▁муфтият	-10.77
январында	-10.77
▁жөнөттү	-10.77
▁запас	-10.77
лөө	-10.7701
▁жүктөлгөн	-10.7702
▁жактоочулары	-10.7702
▁каалоосу	-10.7702
▁мазмуну	-10.7705
▁дебат	-10.7706
▁талдап	-10.7707
▁түшүм	-10.7707
жыныстык	-10.7709
▁киргизүүгө	-10.7709
▁негиздеген	-10.7714
▁этап	-10.7721
▁төртөө	-10.7722
▁жаткандыгы	-10.7723
▁тергөөнүн	-10.7726
кайра	-10.7727
▁Шах	-10.775
▁жабдуу	-10.7754
ица	-10.7755
▁борборлор	-10.7757
▁бүткөндө	-10.776
▁өнүктү	-10.7763
▁жоромол	-10.7764
▁Ворух	-10.7764
▁Жогоруда	-10.7764
▁жеңилдетилген	-10.7764
▁оккупация	-10.7764
▁инстанция	-10.7764
▁аксакал	-10.7764
▁2007-	-10.7765
▁макулдашкан	-10.7767
▁адилетсиз	-10.7767
▁журналистика	-10.7769
▁китепкана	-10.777
▁Бектур	-10.7773
тест	-10.778
▁сүрөткө	-10.7781
ырылган	-10.7786
▁келишимде	-10.7788
▁Киевде	-10.7788
▁демилгечи	-10.7788
▁табылганын	-10.7793
▁лидерлеринин	-10.7794
▁отурду	-10.7803
ңыздар	-10.7804
▁жамааты	-10.781
▁кармалгандар	-10.7816
▁чечилбей	-10.7817
▁куткаруучулар	-10.7825
▁өлчөмү	-10.7826
▁ВИЧ	-10.7829
▁жамгыр	-10.7829
▁өндүргөн	-10.7829
▁Спорт	-10.7829
▁геосаясий	-10.7829
▁жактоочусу	-10.783
▁көрүлүп	-10.7832
▁турушкан	-10.7832
Нур	-10.7834
▁ушунчалык	-10.7839
▁Силер	-10.7844
▁ЖМК	-10.7846
▁кум	-10.7849
олку	-10.7852
▁тарады	-10.7853
▁кошуундар	-10.7853
▁тартибине	-10.7856
▁Аймакта	-10.7857
▁добуштарды	-10.7862
бери	-10.7868
▁Илим	-10.7869
форма	-10.7872
▁жүргүзүүдө	-10.7874
▁жактаган	-10.7881
Алай	-10.7886
▁интернетке	-10.7887
▁катмар	-10.7887
техникалык	-10.7888
▁видеону	-10.7891
▁инвестор	-10.7893
▁Бадахшан	-10.7894
▁жумурият	-10.7894
▁коллегия	-10.7894
▁мерчем	-10.7894
ЦАХАЛ	-10.7894
▁диагноз	-10.7894
▁окшогон	-10.7894
▁резиденция	-10.7894
▁фабрика	-10.7894
▁өйдө	-10.7894
ing	-10.7897
▁калчу	-10.7901
▁чалдыккандарды	-10.7904
▁чуркап	-10.7906
▁колдонуучулары	-10.7906
▁көйгөйдү	-10.7908
ондор	-10.791
▁Жумабеков	-10.7919
▁китепти	-10.792
овский	-10.7922
▁айтышы	-10.7923
▁тармактагы	-10.7926
▁Ер	-10.7928
▁түндө	-10.793
▁жарыялана	-10.7933
▁курмандыгы	-10.7941
▁74	-10.7948
▁Конституцияны	-10.795
▁кенди	-10.795
Ю	-10.7954
урук	-10.7957
Газпром	-10.7959
▁Абдрахманов	-10.7959
▁Болгария	-10.7959
▁Тихановская	-10.7959
▁купуя	-10.7959
▁түйшүк	-10.7959
▁практика	-10.7959
▁сиңирген	-10.7959
▁үнөмдө	-10.7959
▁Жаштар	-10.796
▁жеткирилди	-10.796
▁жаратууда	-10.7961
▁кайталап	-10.7968
▁арачылар	-10.7968
чүлүк	-10.7969
▁келинген	-10.7971
▁кылышат	-10.7977
▁Ташкентте	-10.7977
▁буюм	-10.7981
аяк	-10.7982
▁жааган	-10.7983
▁өтүн	-10.7985
▁калтыруу	-10.7985
▁прокурору	-10.7991
▁чында	-10.7997
▁мурасы	-10.8016
▁белги	-10.8017
өлкө	-10.8017
▁болгу	-10.8019
советтик	-10.802
бөлүгү	-10.802
▁албады	-10.8021
▁автономия	-10.8021
▁Тбилиси	-10.8025
▁интеллект	-10.8025
▁атайылап	-10.8025
▁наристе	-10.8025
▁бышык	-10.8025
▁поезд	-10.8025
▁Игор	-10.8025
▁коштоп	-10.8027
▁элестет	-10.8027
▁жазалоо	-10.8027
▁Жорж	-10.8028
▁түзүлөт	-10.8029
▁Ажы	-10.803
▁телеканалынын	-10.8031
▁тийгизип	-10.8031
▁бөлгөн	-10.8033
▁автоунаасы	-10.8047
▁Акция	-10.8052
▁түзөтүү	-10.8055
▁соңуна	-10.8061
▁багыттары	-10.8061
▁наамы	-10.8062
▁иштетүүгө	-10.8065
▁департамент	-10.8067
▁98	-10.8068
бетов	-10.8075
▁ылдам	-10.8085
▁фото	-10.8087
▁министрдин	-10.8087
Му	-10.8089
▁билдирүүлөрдү	-10.8089
▁сүйлөшүүгө	-10.8089
▁жөлөк	-10.8091
▁Январь	-10.8091
▁билдиришинче	-10.8091
▁дүрбөлөң	-10.8091
▁жапкан	-10.8091
▁өлдү	-10.8091
▁2003-	-10.8091
▁оорукананы	-10.8092
▁түндүгүндөгү	-10.8093
▁күрөө	-10.8094
▁максаттары	-10.8096
бөсө	-10.8099
▁Инанды	-10.81
▁улантыл	-10.8101
▁чочу	-10.8105
▁акындар	-10.8118
▁Кеңешинин	-10.8122
▁качкын	-10.8123
ченко	-10.8133
▁элита	-10.814
▁санаа	-10.8143
▁барууда	-10.815
▁Жыйында	-10.8151
иңди	-10.8153
▁жикчилдер	-10.8156
▁учкуч	-10.8157
▁Кылыч	-10.8158
▁өзгөрдү	-10.8158
▁Искендер	-10.8158
▁пропаганда	-10.8158
▁көрүнгөн	-10.8158
▁агыз	-10.816
▁организм	-10.8161
▁өтүнгөн	-10.8161
▁сүрөтчү	-10.8162
▁каптап	-10.8164
▁000	-10.8168
▁сапаттуу	-10.8168
▁түркиялык	-10.8169
▁Каримов	-10.8171
саба	-10.8171
▁71	-10.8173
Өз	-10.8174
күлдөр	-10.8175
▁урду	-10.8176
▁жайылган	-10.8183
▁соккусуна	-10.8189
▁чөйрөдө	-10.8191
▁жетекчилеринин	-10.8199
▁900	-10.8209
▁как	-10.8214
▁болгондой	-10.8216
▁аэропортто	-10.8224
ДССУ	-10.8225
▁акционердик	-10.8225
▁архитектура	-10.8225
▁Кулубаев	-10.8225
▁жараксыз	-10.8225
▁көрүнөт	-10.8225
▁Айзада	-10.8225
▁белгилөө	-10.8225
▁Нобел	-10.8225
▁линия	-10.8228
үркүт	-10.823
▁ачылат	-10.8231
▁ылдамдыгы	-10.8231
▁мамилелерди	-10.8235
▁ашат	-10.8237
▁форматта	-10.8238
▁тартылат	-10.8241
▁каралды	-10.8246
▁процесстер	-10.8248
▁өкүлүнүн	-10.8249
▁Чүйдө	-10.8255
▁Зе	-10.8255
▁Керек	-10.8258
,5%	-10.8268
▁кадамы	-10.8271
Ве	-10.8277
▁жеңе	-10.8281
медициналык	-10.8289
▁төш	-10.8291
▁Басылма	-10.8293
▁сценарий	-10.8293
▁кабарланууда	-10.8293
▁Эртең	-10.8293
▁тебеле	-10.8293
▁Тасма	-10.8293
▁издеген	-10.8294
▁парад	-10.8294
▁Ниязов	-10.8295
▁Деген	-10.8295
▁Темирлан	-10.8298
▁тийгизет	-10.8299
▁ажыраткан	-10.83
▁агенттиктин	-10.8301
мени	-10.8302
ent	-10.8302
▁Элчилик	-10.8303
▁ишкерлик	-10.8305
▁тилкесине	-10.8312
▁коюлат	-10.8313
▁жээги	-10.8317
▁активисттердин	-10.8318
▁четиндеги	-10.8326
▁кармалгандарды	-10.8333
un	-10.8335
▁мамлекеттеринин	-10.8335
▁50%	-10.8335
▁Махмудов	-10.8351
ter	-10.8358
▁Асылбек	-10.836
▁палестин	-10.8361
▁башпаанек	-10.8361
▁маршрут	-10.8361
▁трагедия	-10.8361
▁эптеп	-10.8361
▁түшпөй	-10.8361
▁сабыр	-10.8361
▁2006-	-10.8361
▁кокус	-10.8364
▁мыйзамдарына	-10.8364
▁борбордо	-10.8364
▁чектешкен	-10.8365
▁сүрүп	-10.8367
▁брифингде	-10.8367
жашыруу	-10.8367
гендер	-10.8368
▁айыкты	-10.8368
▁жолдогон	-10.8369
▁даярдалып	-10.8373
▁калышат	-10.8375
▁кырсыктары	-10.8379
▁кетчү	-10.8382
▁мүмкүндүк	-10.8385
▁жарандарыбыз	-10.8388
▁тараптардын	-10.8389
катнаш	-10.8393
▁токтой	-10.8394
▁төлөөгө	-10.8403
▁баштай	-10.8404
▁келебиз	-10.8407
▁футболчу	-10.8411
▁Осмон	-10.8412
▁заттар	-10.8416
▁дис	-10.8418
▁30%	-10.842
октябрь	-10.8427
▁шаршемби	-10.8429
▁Абдрахматова	-10.8429
▁Прокуратура	-10.8429
▁Харрис	-10.8429
▁үстөмдүк	-10.8429
▁бешинчи	-10.8429
▁даттануу	-10.8429
▁Курсан	-10.843
▁тамеки	-10.843
▁Памир	-10.8433
▁ипотекалык	-10.8436
▁зыяндуу	-10.8439
▁түшүргөн	-10.8442
▁эртеси	-10.8451
пикирлер	-10.8451
▁Бур	-10.846
▁(19	-10.8462
▁күтө	-10.8466
▁көчөсүндө	-10.847
▁Бара	-10.8475
▁келери	-10.8492
▁поли	-10.8493
▁оюнчулар	-10.8496
февралында	-10.8498
▁Мэрия	-10.8498
▁сүзүп	-10.8498
▁Олимп	-10.8498
▁чаап	-10.8498
▁өкүлчүлүк	-10.8498
▁биригип	-10.8499
▁тапса	-10.8502
▁бюджеттик	-10.8509
▁алмашты	-10.8509
акунов	-10.8512
▁кирбей	-10.8512
▁бизнести	-10.8516
▁эмдел	-10.8516
▁Алдыда	-10.8517
▁адат	-10.8522
▁адеп	-10.8524
▁Кээде	-10.8529
алымдар	-10.8536
▁натыйжасы	-10.8543
▁аралын	-10.8543
▁автобустар	-10.8548
▁сунуштарды	-10.8549
үшөт	-10.8549
▁калгандары	-10.8558
▁негизгиси	-10.856
▁жаңылыш	-10.8562
▁Бейше	-10.8562
иешелүү	-10.8565
▁көндү	-10.8566
▁колдойт	-10.8566
▁Ибрагим	-10.8567
▁Китеп	-10.8567
▁Талибдер	-10.8567
▁израилдик	-10.8567
▁сертификат	-10.8567
▁сейил	-10.8567
▁канаттуу	-10.8567
▁Ирина	-10.8568
▁жалаа	-10.8568
▁кадимкидей	-10.8571
▁төгүл	-10.8573
▁түзө	-10.8573
▁сунушталып	-10.8575
▁түйүнү	-10.8578
▁ажал	-10.8578
▁ажылык	-10.8582
▁убакытты	-10.8584
▁кубаты	-10.8587
▁музыкалык	-10.8587
▁учакты	-10.8588
▁макулдук	-10.8588
▁улана	-10.8592
▁азиялык	-10.8602
шот	-10.8604
▁Сел	-10.8612
▁кетишине	-10.8614
жылдарды	-10.8616
▁сыртта	-10.8616
▁Бийликти	-10.8618
▁Фу	-10.863
▁суроону	-10.8635
Казакстан	-10.8637
Human	-10.8637
▁штамм	-10.8637
▁экстрадиция	-10.8637
▁дайындаган	-10.8637
▁аяктайт	-10.8637
▁Талкуу	-10.8637
▁чыккынчылык	-10.8637
▁мунаса	-10.8637
▁цех	-10.8637
▁карамагына	-10.8638
▁тутанган	-10.8638
майынча	-10.8638
▁булуң	-10.8639
▁ууланды	-10.8639
▁инсандар	-10.8642
▁сынагы	-10.8642
▁уюштурулуп	-10.8642
▁катмары	-10.8654
▁Шинжаңдагы	-10.8655
▁чыгаша	-10.8658
▁көрсөтүүдө	-10.8659
ro	-10.866
▁университетинде	-10.8662
Реформа	-10.8662
бегени	-10.8663
▁аталып	-10.8668
фар	-10.8673
▁мөөнөттө	-10.8674
▁бакчалар	-10.8677
▁зарылдыгы	-10.8681
▁каш	-10.8684
▁тааный	-10.8694
▁жылдырыл	-10.8695
▁адвокаттар	-10.8701
▁Үсөн	-10.8701
▁жактоочу	-10.8705
▁студенттердин	-10.8705
▁пайдасына	-10.8707
▁Rights	-10.8708
▁козутуу	-10.8708
▁образ	-10.8708
▁орчундуу	-10.8708
▁ыктыяры	-10.8708
▁Назгүл	-10.8708
▁Кыска	-10.8708
▁күчөттү	-10.8708
▁солгун	-10.8708
▁Назаров	-10.8708
▁Негизинен	-10.8708
▁дооматтар	-10.8708
▁жеңилдиктер	-10.871
▁Бая	-10.8711
Твиттердеги	-10.8714
▁камтыган	-10.8715
▁артта	-10.8716
▁Чынында	-10.8724
▁деңгээлинде	-10.8725
▁кудай	-10.8726
▁утур	-10.8728
▁Быйылкы	-10.8732
▁фонддун	-10.8734
▁потенциал	-10.8736
▁куткаруу	-10.8742
▁бузганы	-10.8745
чаралары	-10.8747
▁үмүтү	-10.8751
Бо	-10.8758
▁пайыздан	-10.8763
▁83	-10.8764
Йорк	-10.8765
Кече	-10.8765
▁тарыхта	-10.8768
▁жаткырылган	-10.877
▁каларын	-10.8774
▁билиши	-10.8776
▁International	-10.8779
▁алдамчылык	-10.8779
▁Румыния	-10.8779
▁сейрек	-10.8779
▁металл	-10.8779
▁замат	-10.8779
▁Шарше	-10.878
жерлерде	-10.8781
▁роль	-10.8781
▁иштеткен	-10.8782
▁федерациясынын	-10.8783
▁көрсөтүлүп	-10.8785
▁козголгонун	-10.8786
▁туулуп	-10.8786
▁сүйлөшүүсү	-10.8788
▁механизм	-10.8789
▁кетирген	-10.8789
▁86	-10.8795
▁жатыптыр	-10.88
▁көтөрүлө	-10.8804
▁жабды	-10.881
▁тие	-10.8811
▁Кадырбеков	-10.8813
▁апам	-10.8814
▁жогорулат	-10.8818
▁учактарды	-10.882
▁140	-10.882
▁Экинчиси	-10.8821
▁турушту	-10.8824
▁таштаган	-10.8828
▁жоруктарды	-10.8829
▁зыяны	-10.8837
▁Каракалпакстан	-10.885
▁аброю	-10.885
▁империя	-10.885
▁регламент	-10.885
▁тымызын	-10.885
▁этектеринде	-10.885
▁Молдокматов	-10.885
▁сабап	-10.8851
▁суранып	-10.8851
▁ооруканасынын	-10.8857
▁топтогон	-10.8858
▁түзүмдөрүнүн	-10.8858
▁кымбаттап	-10.8859
▁баруучу	-10.8863
▁даярдаган	-10.8863
▁сандар	-10.8866
▁бейтаптын	-10.8895
▁судьялар	-10.8899
▁тилди	-10.8903
уңуз	-10.8905
▁аталышта	-10.8906
▁аласыз	-10.8907
Биздин	-10.8909
гулов	-10.8912
▁Саакашвили	-10.8922
▁Цзинпин	-10.8922
▁накталай	-10.8922
▁салмагы	-10.8922
▁азайды	-10.8922
▁номер	-10.8922
H	-10.8923
▁археолог	-10.8924
▁жаратуу	-10.8924
▁бошоткон	-10.8924
▁чыгармачылыгы	-10.8924
▁козгоду	-10.8927
▁түшүнүктүү	-10.8928
ская	-10.8928
▁3,5	-10.8931
Адам	-10.8931
▁өтүндү	-10.8937
юшкан	-10.8945
▁тамыры	-10.8949
▁чыкпаган	-10.8949
▁күрөшө	-10.8949
▁орнотулган	-10.8954
▁кабарлап	-10.8956
▁чогулду	-10.8956
▁ойлору	-10.8962
▁жүргүзүүнү	-10.8962
▁ондон	-10.8964
▁чабуулдарын	-10.8965
▁казып	-10.8965
▁сыйлыктар	-10.8967
Булак	-10.8972
▁мектепти	-10.8973
▁миссия	-10.898
▁өк	-10.8982
▁Евробиримдикке	-10.8986
▁каттаган	-10.8991
▁көчмө	-10.8993
▁олигарх	-10.8995
▁Жазуучу	-10.8995
▁Рустам	-10.8995
▁Фергана	-10.8995
▁жоголуп	-10.8998
▁чиновниктер	-10.8998
▁окурмандар	-10.9
▁шык	-10.9
▁боор	-10.9001
▁Британ	-10.9002
тивдик	-10.9003
▁кыскарган	-10.9003
ыңды	-10.9013
▁агрессиясы	-10.9014
▁2-3	-10.9027
▁багытындагы	-10.9029
▁профессору	-10.9043
▁жообуна	-10.9056
▁Каримова	-10.906
▁Watch	-10.9068
▁Негизги	-10.9068
▁Футбол	-10.9068
▁отчёт	-10.9068
Коопсуз	-10.9068
▁шектелген	-10.9068
▁Ниязбеков	-10.9068
▁үрөй	-10.9068
▁башкармалык	-10.9068
▁кесилиш	-10.9068
▁жабыркап	-10.9068
▁патент	-10.9068
▁нота	-10.9069
▁жаашы	-10.9072
▁Зи	-10.9072
▁жаралып	-10.9075
актап	-10.9075
▁чакыртып	-10.9075
▁чечүүнү	-10.9078
▁Акыры	-10.908
▁көчөсү	-10.9083
▁Айтматовдун	-10.9086
▁беттеште	-10.9087
▁алакасы	-10.9091
▁демократ	-10.9104
зомбулукту	-10.9106
▁болгондугу	-10.911
▁бөлүгүнө	-10.9112
▁экспорту	-10.9116
▁туугандар	-10.912
▁айдоочусу	-10.913
▁баалоо	-10.914
опол	-10.9141
Торугарт	-10.9141
▁Сүйлөшүү	-10.9141
▁шайкеш	-10.9141
▁Видео	-10.9141
▁калкалап	-10.9141
▁сабалган	-10.9141
▁эстеликтер	-10.9141
▁кубогу	-10.9142
▁ылдый	-10.9142
▁жетишкендиктер	-10.9142
▁байкап	-10.9142
▁талаптарына	-10.9142
Сапат	-10.9145
▁бейтапкана	-10.9149
▁жактарга	-10.915
▁күчтөрдү	-10.9152
▁дайыны	-10.9164
▁ассоциациясынын	-10.9164
▁мүчөлөрүнө	-10.9164
▁редакция	-10.9171
▁күнүндө	-10.9177
▁Нурланбек	-10.9184
▁Сегизбаев	-10.919
▁техникасы	-10.9196
▁Дания	-10.9197
▁темасы	-10.9208
▁китептерди	-10.921
Крокус	-10.9215
▁Жамаатты	-10.9215
▁Ибраимов	-10.9215
▁Норвегия	-10.9215
▁Коңшу	-10.9215
▁Сырт	-10.9216
▁Олег	-10.9216
▁кароону	-10.9217
▁грек	-10.9218
▁уланды	-10.9219
Медиа	-10.9219
▁кыскартыл	-10.9219
▁жумушсуз	-10.9219
▁этабы	-10.9221
▁клубу	-10.9225
▁Көр	-10.9225
▁кызыкчылык	-10.9238
▁жайгаштыруу	-10.9247
▁пландары	-10.9249
▁ошолорду	-10.925
логистикалык	-10.9257
Улуу	-10.9259
▁принцип	-10.9265
▁конок	-10.9271
▁ыйла	-10.9274
ректүү	-10.9275
▁эсебине	-10.9283
февралга	-10.929
▁нөшөр	-10.929
▁популярдуу	-10.929
▁химиялык	-10.929
▁этностук	-10.929
▁шашылыш	-10.929
▁кибер	-10.929
▁учурап	-10.929
▁бирикмесинин	-10.9291
▁үндөгөн	-10.9291
▁жолугушуп	-10.9292
▁Шакир	-10.9292
▁талкуулашты	-10.9292
▁ташкын	-10.9294
▁Донбасста	-10.9297
▁токтотулду	-10.9303
▁Маркумду	-10.9305
▁ректор	-10.9311
▁өзгөчөлүгү	-10.9317
▁7-8	-10.9321
▁жибере	-10.9328
▁негиздеме	-10.9329
▁кооптону	-10.9329
▁тастыктаган	-10.9332
берг	-10.9334
▁калабыз	-10.9335
▁түрмөлөр	-10.9343
▁теске	-10.9359
террорчу	-10.9361
▁тиш	-10.9362
чараны	-10.9365
▁Бюджет	-10.9365
▁Жунушалиев	-10.9365
▁держава	-10.9365
▁үстөмдүгү	-10.9365
▁Чаткал	-10.9365
▁кожоюн	-10.9365
▁палестиналык	-10.9365
▁2025-	-10.9365
▁алмашып	-10.9365
▁сугат	-10.9366
▁өтүш	-10.9373
▁зарылчылыгы	-10.9373
▁сенатор	-10.9374
сентябрь	-10.938
▁теп	-10.9381
▁Чүйдүн	-10.9389
▁макулдашылган	-10.9392
▁шаш	-10.94
▁тарбиялоо	-10.9404
▁салышы	-10.9405
Каз	-10.9408
▁өлкөсүндө	-10.9423
▁чок	-10.9427
▁ушунча	-10.9429
▁администрацияны	-10.9433
▁чыгаруучу	-10.9434
▁Жамгырчиев	-10.9441
▁Июнь	-10.9441
▁инфратүзүм	-10.9441
▁күчөтүп	-10.9441
студия	-10.9441
▁океан	-10.9441
▁статусу	-10.9441
▁чектелүү	-10.9442
▁Сабыр	-10.9442
▁делегациясы	-10.9443
▁ташылып	-10.9444
▁чындык	-10.9445
▁койбойт	-10.9448
▁Аскердик	-10.9451
жобосу	-10.9452
▁комитетине	-10.9455
▁Анар	-10.9456
▁ГЭСин	-10.9462
▁калааны	-10.9463
банк	-10.9468
▁курчут	-10.9476
▁ЖК	-10.9476
▁директорлор	-10.9495
▁учурду	-10.9499
▁министрлигинде	-10.9505
▁көрсөткөнү	-10.9508
▁жашоону	-10.9511
▁мазмун	-10.9511
▁санарип	-10.9514
▁жыт	-10.9515
▁Ооган	-10.9516
▁Тескерисинче	-10.9517
▁ырааттуу	-10.9517
­	-10.9517
▁Комитет	-10.9517
кассалык	-10.9518
▁болочок	-10.9518
песе	-10.9518
▁Сталин	-10.9519
▁кесиптеши	-10.9519
▁топтолуп	-10.9519
▁уурдалган	-10.952
▁залкар	-10.952
▁чечилген	-10.9522
спикер	-10.9523
▁жашырып	-10.9524
▁округунан	-10.9525
▁Биримдигине	-10.9531
▁өзүңүз	-10.9533
▁актоо	-10.9537
rk	-10.9538
▁жылдыруу	-10.9539
▁Орозо	-10.9544
МУ	-10.9545
▁кумар	-10.9547
▁эмгектери	-10.955
▁жолугушуусунда	-10.955
▁текшерүүдөн	-10.9551
▁көпчүлүктү	-10.9552
▁бешөө	-10.9555
▁чиркөө	-10.9561
▁айыптоолорду	-10.957
▁Фо	-10.9572
▁агрессия	-10.9574
▁бюллетен	-10.9594
▁керемет	-10.9594
▁Австрия	-10.9594
▁сасык	-10.9595
▁тилектештик	-10.9596
▁талдоочулар	-10.9597
▁макулдашты	-10.9597
▁реформалар	-10.9598
▁корпорациясы	-10.96
▁оокат	-10.9603
▁коомчулукту	-10.9603
▁өң	-10.9605
▁түзүлүшү	-10.9607
▁чабал	-10.961
июнь	-10.9612
өтө	-10.9618
▁ыйлап	-10.962
▁Төрө	-10.9627
▁факторлор	-10.9629
▁машыгуулар	-10.9636
Балта	-10.9637
▁кимиси	-10.9642
▁штатында	-10.9644
игин	-10.9648
▁алтынды	-10.9664
ФСБ	-10.9672
Үмүт	-10.9672
▁агартуу	-10.9673
▁комуз	-10.9673
▁Карантин	-10.9674
▁Саид	-10.9675
▁машинеси	-10.9677
▁Крымды	-10.9677
коррупция	-10.9679
▁тынбай	-10.9682
▁15-20	-10.9688
▁Алгачкы	-10.9694
▁топтору	-10.9695
▁кемелер	-10.9695
▁сүйлөшүүлөрү	-10.9697
▁сонун	-10.9702
назаров	-10.971
чатактар	-10.9711
▁куткар	-10.9714
▁тарабы	-10.9724
▁кайтарды	-10.9727
▁көйгөйлөрү	-10.973
▁Жээнбек	-10.973
YouTube	-10.975
▁Изилдөө	-10.975
▁төкмө	-10.975
▁субъект	-10.975
▁пахта	-10.975
цкий	-10.975
▁ишенген	-10.975
▁Ачык	-10.975
▁түшүнүксүз	-10.9752
гүлө	-10.9753
▁кылышууда	-10.9753
▁туудур	-10.9754
▁карантинде	-10.976
▁Өрт	-10.9762
▁кошулду	-10.9766
орунду	-10.9783
▁Көлбаевдин	-10.9784
▁5-6	-10.9785
мамбетов	-10.9786
▁көрүүчүлөр	-10.979
▁топтоо	-10.9799
▁жашоочулары	-10.9803
▁оюндарында	-10.981
▁бурган	-10.9818
▁бакты	-10.9819
▁өнүгүшү	-10.9825
▁өкүлдөр	-10.9828
▁шектүүнү	-10.9828
▁Еврошаркет	-10.9828
▁Пентагон	-10.9828
▁эбегейсиз	-10.9828
▁пансионат	-10.9828
▁тамаша	-10.9829
▁Айнура	-10.9829
▁карамагында	-10.9829
▁көрсөтмөсү	-10.9829
▁жиберилген	-10.983
▁белгилешкен	-10.983
▁киришти	-10.9831
▁тааныштырган	-10.9831
▁аналитик	-10.9833
▁чаба	-10.9833
▁дейм	-10.9834
поого	-10.984
▁90%	-10.985
▁ооруканасына	-10.9852
▁Замирбек	-10.9857
▁Фонд	-10.9859
▁басуу	-10.986
▁Осмоналиев	-10.986
Хо	-10.9866
▁комитетинде	-10.9868
▁түшө	-10.9869
▁факультетин	-10.987
▁турууну	-10.9884
▁Орозбек	-10.99
▁Облус	-10.9906
▁Англия	-10.9908
▁коңгуроо	-10.9908
▁чейрек	-10.9908
▁Днепр	-10.9908
▁процедура	-10.9908
▁илгери	-10.9908
▁кичүү	-10.9908
▁Араван	-10.991
▁секундасын	-10.9911
▁баягы	-10.9912
▁күрөшүнөн	-10.9915
расмий	-10.9917
▁чабуулду	-10.9918
▁батирлер	-10.992
▁Арыз	-10.992
Чек	-10.9921
▁кыдыр	-10.9923
▁Жүз	-10.9925
▁Аким	-10.9926
▁куда	-10.9926
▁улуттун	-10.9926
ноябрь	-10.9927
▁сүйлөшүүлөрдө	-10.9927
▁ашыра	-10.9959
▁көмөктөшүү	-10.9961
▁баалай	-10.9973
▁объектилерди	-10.9975
▁түшүрүү	-10.9978
▁айыбы	-10.9979
Кыргызгидромет	-10.9988
▁дарбаза	-10.9988
▁сыпаттады	-10.9988
▁күчөткөн	-10.9988
Семетей	-10.9988
▁эшиги	-10.9988
▁белгиленип	-10.9988
тиричилик	-10.9988
▁жагымдуу	-10.9989
▁айырмаланып	-10.9991
▁жасалды	-10.9995
▁Зо	-10.9996
Борбор	-10.9997
▁чий	-10.9998
▁жүргүнчүлөр	-11.0001
▁туруш	-11.0006
▁коомдогу	-11.0012
▁тазалап	-11.0013
▁космос	-11.0031
кытай	-11.0035
▁Буларды	-11.0042
▁350	-11.0047
▁ракеталарды	-11.0049
▁чабы	-11.0062
▁Covid	-11.0068
▁буюртма	-11.0068
Грузин	-11.0068
▁Жоошев	-11.0068
▁жатасыңар	-11.0068
▁филиал	-11.0068
▁чектеген	-11.0068
▁аккаунт	-11.0069
▁2001-	-11.0069
▁бактылуу	-11.0073
▁түйүн	-11.0074
апрелинде	-11.0076
Кызмат	-11.0078
Жаңы	-11.0079
▁Исмаил	-11.0084
▁базарында	-11.0084
▁жыйынды	-11.0089
▁сурай	-11.0093
▁99	-11.0096
▁Абдуллаев	-11.0099
ноябрында	-11.0099
▁Ишкер	-11.01
▁келишимдерди	-11.0105
▁камералар	-11.0107
▁издөөдө	-11.0113
▁оорулуу	-11.0115
▁өрөөн	-11.0117
▁калдыктары	-11.0125
▁провинциясы	-11.0128
▁Сүрөт	-11.0137
▁ажы	-11.0138
▁серепчилер	-11.0144
▁демөөрчү	-11.015
▁ошентип	-11.015
▁шериктеш	-11.015
▁чындыгында	-11.015
январына	-11.015
▁оюмча	-11.015
▁турнир	-11.015
▁автожол	-11.015
▁жеткире	-11.0151
▁караңгы	-11.0152
▁кыйраган	-11.0152
▁Хасан	-11.0152
▁чийки	-11.0152
▁Батукаевди	-11.0153
▁түшүндүрөт	-11.0154
▁(+1	-11.0155
▁жашырган	-11.0157
▁аныктама	-11.0159
▁тээ	-11.0159
▁Карабактагы	-11.0159
Кылмыш	-11.0161
Авто	-11.0168
▁Султанбаев	-11.0171
▁кагылышта	-11.0178
▁болушат	-11.0179
▁чагылдырып	-11.0182
▁3-4	-11.0184
▁81	-11.0185
▁текшере	-11.0192
▁демонстрациялар	-11.0192
▁ЖМКлар	-11.021
▁Роман	-11.0222
New	-11.0232
▁1994-	-11.0232
▁Эммануэл	-11.0232
▁жөнөтүлдү	-11.0232
▁зилзала	-11.0232
▁арттыруу	-11.0232
▁түшүнүгү	-11.0232
▁тергелип	-11.0232
▁кубаныч	-11.0232
▁Денис	-11.0232
▁эпосу	-11.0233
▁индекс	-11.0233
▁жашоочулар	-11.0233
▁Атазов	-11.0236
▁гимн	-11.0238
▁чогулткан	-11.0238
Ы	-11.0242
▁бөрү	-11.0244
▁кетиптир	-11.0245
эркин	-11.0245
▁көрсөткөндөй	-11.0245
▁гидро	-11.0252
▁93	-11.0255
▁суранды	-11.0262
▁текшерүүнү	-11.0264
▁уча	-11.0265
▁залына	-11.0293
▁милдеттерин	-11.0295
▁камты	-11.03
▁машинени	-11.0309
▁социал	-11.0309
▁айыпталуучулар	-11.0309
ЖАМК	-11.0314
▁федералдык	-11.0314
▁абийир	-11.0314
▁окшоп	-11.0314
▁коркпо	-11.0314
ификация	-11.0314
▁залака	-11.0315
▁күчөтүл	-11.0315
▁талкаланып	-11.0316
▁митингчилер	-11.0317
▁айткы	-11.032
▁толтуруу	-11.032
▁модел	-11.0325
▁Соттук	-11.0326
транспорт	-11.0327
Мамлекеттик	-11.0327
▁Дамир	-11.0327
▁жоболор	-11.0331
▁сезе	-11.0341
▁түшкөндө	-11.0346
▁чакырылышы	-11.035
▁Куран	-11.035
▁орнотул	-11.0374
▁станциялары	-11.0375
▁жыйынтыктары	-11.0393
▁Илдет	-11.0398
▁муфтий	-11.0398
▁руханий	-11.0398
▁Аспеков	-11.0398
▁Тогуз	-11.0398
▁Жумагулов	-11.0398
▁төгүп	-11.0399
▁бошотулушу	-11.04
▁ошончолук	-11.04
▁өнүгүшүнө	-11.0401
ээрлик	-11.0402
▁жактырган	-11.0402
▁Тенг	-11.0403
▁82	-11.0404
▁ЖККУнун	-11.0409
Коррупция	-11.041
украин	-11.0411
▁88	-11.0411
▁тегерегиндеги	-11.0413
▁идеясы	-11.0416
▁өздөрүнө	-11.0428
▁Жарандар	-11.0437
▁Федерациясы	-11.0444
▁стратегия	-11.0447
▁баракчалары	-11.0451
▁куугунтуктоо	-11.0472
▁заттарды	-11.0476
▁конфискация	-11.0482
▁тенденция	-11.0482
▁1996-	-11.0482
▁Латвия	-11.0482
▁мүчүлүштүк	-11.0482
▁педагог	-11.0482
▁телерадио	-11.0482
▁Сүйүн	-11.0482
▁Шойгу	-11.0482
▁акырындап	-11.0482
▁жабыркады	-11.0482
▁түгөн	-11.0482
▁аттанган	-11.0482
▁укмуш	-11.0483
▁Оюн	-11.0485
▁кредит	-11.0487
▁мөөнөттүү	-11.0488
▁ишмердүүлүгүнө	-11.049
▁ичкен	-11.0491
▁Асыл	-11.0494
ne	-11.0495
▁даярдал	-11.0496
▁болууну	-11.0502
▁кармал	-11.0502
Чет	-11.0508
▁жиберүү	-11.0524
▁катышпай	-11.0525
▁көрбөгөн	-11.0526
▁версиясы	-11.0533
▁демократияны	-11.0535
▁чындыкты	-11.0538
▁соо	-11.0545
▁катышуучулар	-11.0548
▁реформалоо	-11.0551
▁коноктор	-11.0552
▁ооруканасында	-11.056
▁Хе	-11.056
▁бүтүрүүчүлөр	-11.0561
▁түбөлүк	-11.0566
▁Белгород	-11.0566
▁Кудайберген	-11.0566
▁чөгүп	-11.0566
▁илбирс	-11.0566
▁Районду	-11.0567
▁шайланды	-11.0568
▁куткаруучу	-11.057
▁соттолуп	-11.0571
▁жетишүү	-11.0571
▁иликтөөсү	-11.0572
▁өзгөрө	-11.0574
▁барабар	-11.0575
электр	-11.0578
▁Жамал	-11.058
▁саммитинде	-11.0581
▁тасманы	-11.0595
▁Киши	-11.0607
▁каттала	-11.0608
станция	-11.0609
▁ийгиликтер	-11.0629
▁жээк	-11.063
▁келүүнү	-11.0646
▁аянтта	-11.0648
▁аткарбай	-11.0651
▁мейкин	-11.0652
▁Жамбыл	-11.0652
▁проблема	-11.0652
▁үстөк	-11.0652
▁бейтарап	-11.0652
▁болбоду	-11.0652
▁илинген	-11.0652
▁таянсак	-11.0652
▁жүктөп	-11.0652
▁ишмердүүлүк	-11.0652
▁мейкиндигин	-11.0652
▁Прага	-11.0652
▁үндөп	-11.0653
Альянс	-11.0653
▁бекиткен	-11.0653
▁куралчан	-11.0654
бестен	-11.0656
беренесине	-11.0662
▁берсин	-11.0662
▁сыртында	-11.0663
▁чемпион	-11.0663
Улуттук	-11.0667
ңиздер	-11.067
▁кышкы	-11.0674
▁айылдарда	-11.069
▁Долбоорду	-11.0705
▁сүйлөшө	-11.0713
▁токтотуш	-11.0725
▁апаат	-11.0729
▁режимди	-11.0731
▁губернатор	-11.0734
▁Жекше	-11.0738
▁Пхеньян	-11.0738
▁айыгышкан	-11.0738
▁зыярат	-11.0738
▁поэзия	-11.0738
▁орусиячыл	-11.0738
▁Самарканд	-11.0738
▁Антони	-11.0738
▁гендердик	-11.0738
▁ырайымсыз	-11.0738
▁каргаша	-11.0738
▁Ырыс	-11.0738
▁кызыгып	-11.0739
▁чыкпоо	-11.0739
▁атпайбы	-11.074
▁жеңди	-11.0741
▁өтүнүп	-11.0741
▁жумушсуздук	-11.0742
▁Коронавирусту	-11.0742
▁эгин	-11.0743
▁Түркстан	-11.0743
▁Жанарбек	-11.0745
▁жүрсө	-11.0746
июль	-11.0754
▁кетки	-11.0754
▁саноо	-11.0755
▁сабаган	-11.0756
▁кароосуна	-11.0767
▁ачары	-11.0773
▁туткундар	-11.0783
августунда	-11.0784
▁камсыздал	-11.0787
▁аткарылган	-11.0788
▁инвесторлорду	-11.0802
Y	-11.0821
ъ	-11.0825
▁Косово	-11.0825
▁Судья	-11.0825
▁Бердымухамедов	-11.0825
▁Көптөгөн	-11.0825
▁каатчылык	-11.0825
▁кагууда	-11.0825
▁чуулгандуу	-11.0825
▁тартылышы	-11.0825
▁Абакиров	-11.0825
▁Акматалиев	-11.0825
▁салыштырганда	-11.0825
▁алкогол	-11.0825
▁байланыштырды	-11.0827
▁Юрист	-11.0828
▁In	-11.0828
▁маеги	-11.0832
▁сүрөттөрдү	-11.0832
▁чыгарылат	-11.0832
▁эстелик	-11.0833
▁транспорттук	-11.0834
▁санаган	-11.0835
кызыл	-11.0843
▁театрынын	-11.0847
▁оппозициясы	-11.0852
▁милдеттенмелери	-11.0863
▁Кеч	-11.0864
сентябрында	-11.0881
▁жетише	-11.0887
▁Жекшембиде	-11.0888
▁ооруларды	-11.0897
▁Парламентте	-11.0898
чүмүн	-11.0899
оору	-11.0906
▁Зу	-11.0906
▁медресе	-11.0913
▁Белгилүү	-11.0913
▁алектенип	-11.0913
▁бригада	-11.0913
▁реанимация	-11.0913
▁сыпаттаган	-11.0913
▁айгинеле	-11.0913
▁айыпталууда	-11.0913
▁чарчап	-11.0913
▁желеги	-11.0913
▁сакайып	-11.0914
Ыйман	-11.0914
▁обон	-11.0915
Терек	-11.0916
▁Yo	-11.0917
▁жуктургандарды	-11.0929
▁катышары	-11.0937
▁бааланган	-11.0943
▁ортосуна	-11.0946
▁кызматташкан	-11.0952
▁Брюсселде	-11.0953
▁баланс	-11.0973
▁заводду	-11.0978
▁реформаларды	-11.0984
▁Документте	-11.0986
▁жумшарт	-11.0989
▁агенттер	-11.0997
Q	-11.1001
▁1999-	-11.1001
▁КТРК	-11.1001
▁Кундуз	-11.1001
▁Светлана	-11.1001
▁Сурабалдиева	-11.1001
▁санариптештирүү	-11.1001
▁холдинг	-11.1001
▁өркүндө	-11.1001
Көмүр	-11.1001
▁кыйроо	-11.1002
▁Айпери	-11.1002
▁үзгүлтүксүз	-11.1003
kz	-11.1004
▁кызыкчылыктарын	-11.1005
▁жубайлар	-11.1006
▁латын	-11.1007
▁түшүрүп	-11.1007
▁улуттар	-11.1011
▁каралышы	-11.1017
Биринчи	-11.1019
▁түшүү	-11.102
Элдик	-11.1031
▁кийген	-11.1037
▁танктар	-11.1038
▁аткарыш	-11.1039
▁зыянды	-11.1042
▁карантинди	-11.1045
ru	-11.1048
▁спортту	-11.1052
▁Сиздер	-11.1054
▁айылдарында	-11.1056
▁Жанар	-11.1068
▁жайларында	-11.1071
▁үлүш	-11.1073
Й	-11.1088
▁клиникасы	-11.1089
▁инспектор	-11.1091
▁улгайган	-11.1091
▁1...6	-11.1091
▁кескен	-11.1091
▁пайгамбар	-11.1091
▁этегинде	-11.1091
▁жеңилдетүү	-11.1091
▁шахта	-11.1091
▁Эмираттары	-11.1091
▁пайдаланыл	-11.1092
▁утурлай	-11.1092
▁Азимжан	-11.1093
▁Туура	-11.1094
▁түбү	-11.1094
▁көчүрүп	-11.1096
▁талапкерлиги	-11.1096
энесинин	-11.1102
▁актаган	-11.1102
мамлекет	-11.1107
еркен	-11.1108
▁кирсе	-11.112
▁сагын	-11.113
▁жигиттер	-11.1146
▁стат	-11.1154
зордуктоого	-11.1159
▁өңүт	-11.1162
▁Маркум	-11.1162
▁доктор	-11.1167
▁обочо	-11.1181
▁чордону	-11.1181
▁госпитал	-11.1181
▁жөндөмдүү	-11.1181
▁коркуткан	-11.1181
▁препарат	-11.1181
▁унчукпай	-11.1181
▁ишенич	-11.1181
▁көлөкө	-11.1181
▁бөлүнөт	-11.1181
▁контрчабуул	-11.1181
▁менчиги	-11.1181
▁Тараптар	-11.1181
▁нугу	-11.1182
▁берилбеген	-11.1183
▁имам	-11.1183
▁Кичи	-11.1185
▁Тактап	-11.1185
▁чакырышты	-11.1187
▁окутуучу	-11.119
▁күрд	-11.1191
▁класста	-11.1195
▁Крис	-11.1196
Йоркто	-11.1198
▁ролду	-11.1199
▁мүнөздөгү	-11.1199
батышында	-11.1201
▁стратегиясы	-11.1205
▁жүргүнчүлөрдү	-11.1212
▁ракеталары	-11.124
▁механизмдер	-11.1259
▁реестр	-11.1264
▁колдонуучулар	-11.1266
▁каалоо	-11.1268
▁кетирүү	-11.1271
▁Гутерриш	-11.1272
▁Помпео	-11.1272
▁небереси	-11.1272
▁Юрий	-11.1272
▁дарамети	-11.1272
▁элекпиз	-11.1272
▁сабагы	-11.1272
▁айлампа	-11.1273
▁кайтты	-11.1274
▁байланыштырып	-11.1275
▁аннексиялап	-11.1275
▁кайрылышкан	-11.1276
▁күмөндүү	-11.1276
▁чечилип	-11.1277
▁карманган	-11.1279
▁жөнөп	-11.1282
▁визасыз	-11.1287
▁Камил	-11.1288
▁жыйнал	-11.129
▁атаандаштары	-11.13
▁бузгандар	-11.13
акция	-11.1307
▁Эксперт	-11.1315
▁милдеттенме	-11.1318
▁аэропортунда	-11.1319
▁айыптоолор	-11.1348
▁отчету	-11.1355
бүбү	-11.1356
▁Шанхай	-11.1363
▁функция	-11.1363
▁Карасартова	-11.1363
▁Окумуштуулар	-11.1363
▁Олжобай	-11.1363
▁пландалып	-11.1363
▁мынчалык	-11.1363
▁кылынат	-11.1364
▁калайык	-11.1364
▁TV	-11.1365
▁Кыйноолор	-11.1365
▁териштирип	-11.1368
▁камтыйт	-11.1368
▁ашуусу	-11.1368
▁келтириш	-11.1373
▁жаткырыл	-11.1375
▁демилгени	-11.1377
Чечен	-11.1381
кызмат	-11.1385
▁атылып	-11.1387
▁ыдык	-11.1387
ирээк	-11.1395
▁тактала	-11.1398
▁кетиш	-11.1398
▁таштоо	-11.1399
▁дебей	-11.1405
▁көрүшү	-11.1432
▁жүргүзүш	-11.144
▁улук	-11.1448
▁жуккандарды	-11.1456
▁Нооруз	-11.1456
▁жөрөлгө	-11.1456
▁казино	-11.1456
▁келатышат	-11.1456
▁өндүрүм	-11.1456
▁Чындыгында	-11.1456
▁Кайрылуу	-11.1456
▁Миграция	-11.1456
▁молдо	-11.1456
▁жапайы	-11.1456
▁күчтөп	-11.1456
▁алектене	-11.1456
▁медиктер	-11.1457
▁кыштак	-11.1458
▁которулуп	-11.1458
▁улутчул	-11.1459
▁катышуучусу	-11.1459
▁зым	-11.146
▁алышпайт	-11.1461
▁бийликчил	-11.147
▁ойнойт	-11.1472
▁комендантты	-11.1472
▁Эрлан	-11.1473
▁илимпоздор	-11.1476
турум	-11.1477
▁өзгөртө	-11.1481
▁жаралуу	-11.1484
▁кагыш	-11.1491
Эгер	-11.1494
▁алмаштырып	-11.1497
▁мыйзамдаштыр	-11.1507
▁Адил	-11.1509
шкөн	-11.151
▁акынды	-11.1522
▁киргизбей	-11.1525
▁Инандыны	-11.1537
▁сыймыктан	-11.1549
▁1995-	-11.1549
▁боштондук	-11.1549
▁снаряд	-11.1549
▁ыңкылап	-11.1549
▁канцлери	-11.1549
▁маңдай	-11.1549
▁кездешет	-11.1549
▁Меркел	-11.1549
▁Момбеков	-11.1549
▁ажырым	-11.155
▁литр	-11.155
▁2002-	-11.155
▁2004-	-11.155
▁курагында	-11.155
▁дыйканчылык	-11.1551
▁транзиттик	-11.1552
▁автомат	-11.1553
▁регионалдык	-11.1553
▁демаркациялоо	-11.1554
▁орой	-11.1555
▁тескери	-11.1556
▁такталбаган	-11.1559
▁телефондор	-11.1565
▁пакет	-11.1567
▁Төрөбаев	-11.1585
▁мүнөттө	-11.1596
▁кемеси	-11.1601
өзүнчө	-11.1626
▁саммитте	-11.1641
▁Талдоочу	-11.1644
▁грузин	-11.1644
▁канааттандырган	-11.1644
▁консерва	-11.1644
▁цензура	-11.1644
▁кыйкырып	-11.1644
▁кыжыр	-11.1644
▁өзгөрүүлөрдү	-11.1644
▁пробация	-11.1644
▁берейин	-11.1644
▁консулдугу	-11.1644
▁айнек	-11.1644
▁утулуп	-11.1646
▁карандысыздыгын	-11.1652
▁айдоочулук	-11.166
▁кездешүү	-11.166
▁балет	-11.166
кеңеш	-11.1666
Кемпир	-11.1668
▁Стр	-11.1674
▁үлгүсү	-11.1681
▁ашырып	-11.1686
▁турист	-11.1709
▁эжеси	-11.1715
Донбасс	-11.173
▁байланышуу	-11.1734
ЕККУ	-11.1736
▁Аргентина	-11.1739
▁Жаратылыш	-11.1739
▁Сатыбалдиев	-11.1739
▁Столтенберг	-11.1739
▁квартал	-11.1739
▁күркүрөйт	-11.1739
▁ачарчылык	-11.1739
▁инженер	-11.1739
▁Кенже	-11.1739
▁Николаев	-11.174
▁мизи	-11.1743
▁болжо	-11.1743
▁Майрам	-11.1744
▁Am	-11.1745
▁кыскарып	-11.175
▁жүрүштөр	-11.1754
▁форматында	-11.1755
▁жоктугунан	-11.1756
▁республикачылар	-11.176
укуктук	-11.1764
▁уял	-11.1785
▁илимпоз	-11.1814
▁бурмала	-11.1815
▁жүргүздү	-11.183
▁өндүрүл	-11.1832
▁Европарламент	-11.1835
▁Статистика	-11.1835
▁ассамблеясы	-11.1835
▁куттуктоо	-11.1835
▁легитимдүү	-11.1835
▁меморандум	-11.1835
▁ыктыярдуу	-11.1835
▁Кырдаал	-11.1835
▁канадалык	-11.1835
▁байкалууда	-11.1835
▁күчөшү	-11.1835
▁Рахман	-11.1835
▁кемпир	-11.1836
▁делимитациялоо	-11.1836
▁өзгөрткөн	-11.1838
▁Аймакты	-11.1838
▁Мэр	-11.184
▁күйгөн	-11.1841
▁тастыкталган	-11.1842
▁жарылып	-11.1844
▁бекитүү	-11.1844
өкмөт	-11.186
▁элчиликтер	-11.1866
атуучу	-11.1879
▁пайдалана	-11.1894
жабдык	-11.1914
▁Диплом	-11.1932
▁дезинфекция	-11.1932
Спутник	-11.1932
▁Еврокомиссия	-11.1932
▁Наталья	-11.1932
▁ПЧР	-11.1932
▁даражалуу	-11.1932
▁километр	-11.1932
▁конфликт	-11.1932
▁1993-	-11.1932
▁учкай	-11.1932
▁кесиби	-11.1932
▁артисттер	-11.1932
▁иммунитет	-11.1932
▁аракеттенген	-11.1932
процессуалдык	-11.1932
▁көнүп	-11.1933
щее	-11.1933
▁Облустук	-11.1934
▁кыргын	-11.1935
▁Ch	-11.1937
▁көрсөтүлөт	-11.1939
▁Үсөнбаев	-11.1941
▁Жарым	-11.1946
▁жасалат	-11.1951
Мыйзам	-11.1959
▁прокурорлор	-11.1976
▁кагаздары	-11.199
▁пункту	-11.1997
▁колдогондор	-11.1999
▁Аскаровду	-11.202
▁Екатеринбург	-11.203
▁1989-	-11.203
▁Шейшемби	-11.203
▁комиссариат	-11.203
▁компенсация	-11.203
▁оппозиционер	-11.203
▁Саммит	-11.203
▁ооздуктоо	-11.203
▁айыккан	-11.203
▁Ливия	-11.203
Өгүз	-11.203
▁тете	-11.2033
▁чыгарылышы	-11.2034
апырт	-11.2034
▁Маселе	-11.2034
▁бүтүргөн	-11.2037
▁тектүү	-11.2039
▁аныкташ	-11.2039
▁текшерген	-11.2044
ЕАЭБ	-11.2058
талкуу	-11.2058
▁жолугуш	-11.208
өнөр	-11.2082
энесине	-11.211
▁дареги	-11.2127
Facebook	-11.2129
токмокко	-11.2129
▁Ишемби	-11.2129
▁Малайзия	-11.2129
▁Мьянма	-11.2129
▁ТАСС	-11.2129
▁Тагыраагы	-11.2129
▁түйшүгү	-11.2129
▁өнөкөт	-11.2129
▁1998-	-11.2129
▁участка	-11.2129
▁участок	-11.2129
▁Эстония	-11.2129
Коммерция	-11.2129
▁тездетүү	-11.2129
▁Айдарбеков	-11.2129
▁мөмө	-11.2129
▁Кашкар	-11.2129
▁узатуу	-11.2129
▁Аскат	-11.213
▁тамагы	-11.213
▁турбайбы	-11.2131
▁каада	-11.2131
▁текшерилип	-11.2131
▁Айдоочу	-11.2131
▁чечилиши	-11.2131
▁колдобой	-11.2131
▁жоюлуп	-11.2131
▁Эсеп	-11.2132
▁акыбал	-11.2134
▁Согд	-11.2145
▁унутпа	-11.2154
▁жаныбар	-11.2155
▁Таалай	-11.217
сериал	-11.2198
аймана	-11.2205
гвардия	-11.2229
▁лицей	-11.2229
▁масштабы	-11.2229
▁пикет	-11.2229
▁медайым	-11.2229
▁карындашы	-11.2229
▁алынарын	-11.223
▁чокусу	-11.223
▁ушундан	-11.2231
▁Кулматов	-11.2232
Альфа	-11.2235
▁жанданды	-11.224
▁Бүбү	-11.2256
▁өлгөндөрдү	-11.226
мамлекеттик	-11.2262
▁донорлор	-11.2267
рдиктүү	-11.2275
▁мэрияны	-11.2294
▁ассоциациясы	-11.2302
▁айлампасы	-11.2328
▁таржымалы	-11.233
▁Ширшов	-11.233
▁масштабда	-11.233
▁нөөмөт	-11.233
▁экономист	-11.233
▁камтама	-11.233
▁кечеңде	-11.233
▁курактагы	-11.233
▁байкалат	-11.233
▁иликтенип	-11.233
▁өнүгө	-11.2331
▁узундугу	-11.2331
▁курмандыктар	-11.2331
▁мушкер	-11.2333
▁мээнет	-11.2333
▁санариптик	-11.2334
▁окутуп	-11.2334
▁өчүрүп	-11.2334
▁азчылыктар	-11.2337
▁билишет	-11.2337
жазуучулар	-11.2343
▁аныкталат	-11.2344
▁утул	-11.2367
▁бириктирүү	-11.2369
▁фирмалар	-11.2372
▁жоолук	-11.2373
түзөө	-11.2391
*	-11.2432
▁Ашхабад	-11.2432
▁Индонезия	-11.2432
▁конвенция	-11.2432
▁принциби	-11.2432
▁уникалдуу	-11.2432
▁участогу	-11.2432
▁ыңкылабы	-11.2432
▁2...7	-11.2432
▁Абдылдаев	-11.2432
▁Шаршемби	-11.2432
▁дегеле	-11.2432
▁Мугалим	-11.2432
▁Диний	-11.2432
▁Мухтар	-11.2433
▁колхоз	-11.2433
▁аалам	-11.2433
▁жетишилген	-11.2433
▁чакырабыз	-11.2436
▁үйрөнүп	-11.2438
▁көбөйтүп	-11.2439
▁музыкант	-11.2442
америка	-11.2445
Путин	-11.2464
Кызыл	-11.2464
конференция	-11.2464
Адилет	-11.2464
театр	-11.2467
▁куну	-11.2497
▁92	-11.2519
▁AFP	-11.2535
▁Атырау	-11.2535
▁Шыкмаматов	-11.2535
▁психикалык	-11.2535
▁фигура	-11.2535
▁1997-	-11.2535
▁Август	-11.2535
▁догдур	-11.2535
▁Чыгарма	-11.2535
▁Ашраф	-11.2535
▁Маматалиев	-11.2535
▁бириктирген	-11.2536
▁Йо	-11.2536
▁философия	-11.2537
▁оолак	-11.2537
▁Узак	-11.2537
▁койгула	-11.2537
бердиев	-11.2538
▁автоматтык	-11.2539
▁кетирип	-11.2544
▁Бейшенбек	-11.2545
▁үйрөтүү	-11.2552
Америка	-11.2568
Баткен	-11.2573
▁гео	-11.2576
▁журнал	-11.2581
▁бомбалоо	-11.2611
▁өпкөсү	-11.2638
▁Оренбург	-11.264
▁Сингапур	-11.264
▁капчыгай	-11.264
Kloop	-11.264
▁Дэвид	-11.264
▁Раззаков	-11.264
▁импичмент	-11.264
▁коммуникациялар	-11.264
▁хижаб	-11.264
▁ССР	-11.264
▁Анталия	-11.264
▁көмүлгөн	-11.264
▁жомок	-11.264
▁кыйнап	-11.264
▁Жумалиев	-11.2642
▁токтолуп	-11.2642
▁бекитип	-11.2642
▁полигон	-11.2645
▁багуу	-11.2646
▁түштөн	-11.2647
▁иштешет	-11.2649
▁Жакындары	-11.2655
▁ардагерлер	-11.2662
▁жазыш	-11.2665
▁киргизиш	-11.2665
маңызы	-11.2669
▁заводдор	-11.2673
кылмыш	-11.2674
2020-	-11.2674
▁сакчылар	-11.2677
Жашыл	-11.2683
аюу	-11.2705
оператор	-11.2729
▁үндөш	-11.273
▁тилектеш	-11.2743
HRW	-11.2745
▁Илхам	-11.2745
▁пакистандык	-11.2745
Авив	-11.2745
▁Байкоочу	-11.2745
▁Цзиньпин	-11.2745
▁Ахмед	-11.2745
▁күнөөлөп	-11.2745
▁Абдукадыр	-11.2745
▁Женева	-11.2745
▁Караганды	-11.2745
▁Орбан	-11.2745
▁Илья	-11.2745
▁бурмалоо	-11.2745
▁өтмөк	-11.2746
▁эстелиги	-11.2748
▁Азык	-11.275
▁чыңда	-11.2752
Мекенчил	-11.2763
▁өңүттө	-11.2769
Кулжа	-11.2792
мүлк	-11.2793
▁Алмамбет	-11.2802
▁төлөбөй	-11.2821
▁Ишкерлер	-11.2829
▁барымтада	-11.2835
▁Вице	-11.2851
'	-11.2851
▁-2...+3	-11.2851
▁0...5	-11.2851
▁кечигип	-11.2851
▁тестирлөө	-11.2851
▁Билдирүү	-11.2851
▁Элмирбек	-11.2851
▁коргошун	-11.2851
▁баюу	-11.2853
▁тоскоолдуксуз	-11.2855
▁бөлүштүрүл	-11.2857
▁кечирип	-11.2857
▁бокс	-11.2858
▁көрүлгөн	-11.2858
▁кымбаттаган	-11.2859
▁жабылышы	-11.2861
▁конгон	-11.2877
▁капыс	-11.2886
система	-11.2887
январь	-11.2888
▁бүтүрүү	-11.2891
▁божомолдор	-11.2895
▁иче	-11.2933
▁Жумгал	-11.2959
▁LIVE	-11.2959
▁Temirov	-11.2959
▁Бангладеш	-11.2959
▁Токтогазиев	-11.2959
▁индиялык	-11.2959
▁кабырга	-11.2959
▁концентрат	-11.2959
▁көбөйүүдө	-11.2959
▁көрүнүктүү	-11.2959
▁милиционер	-11.2959
▁эффективдүү	-11.2959
▁Өндүрүш	-11.2959
▁кетейин	-11.2959
▁ысымдары	-11.2959
▁коллеж	-11.296
▁байкаган	-11.296
▁тезирээк	-11.2961
▁Тартип	-11.2961
▁ишарат	-11.2962
▁башкалаа	-11.2971
▁Көбү	-11.2976
▁түзүмдөр	-11.2979
▁чагылдыруу	-11.299
▁өлчө	-11.3023
▁күбөлүгү	-11.3026
▁кийлигишүүсү	-11.3033
▁Амангелдиев	-11.3067
▁Новиков	-11.3067
▁баллистикалык	-11.3067
▁кесилди	-11.3067
▁конгресс	-11.3067
▁өкүнүчтүү	-11.3067
▁боордош	-11.3067
▁оозеки	-11.3067
▁көмөгү	-11.3067
▁толкундоолор	-11.3067
▁теория	-11.3067
▁Жоробеков	-11.3067
▁даттанган	-11.3067
▁Филипп	-11.3068
▁тагылып	-11.3068
▁которулду	-11.3069
▁таянуу	-11.307
▁бутактары	-11.307
▁даярдануу	-11.3076
жаңы	-11.3082
▁бурулуш	-11.3085
▁Фарид	-11.3103
▁бөлүктө	-11.311
▁ардагер	-11.3154
▁Мухаммад	-11.3177
▁Мүмкүн	-11.3177
▁Прокурор	-11.3177
▁Рафах	-11.3177
▁Рыскелди	-11.3177
▁дубандарында	-11.3177
▁маалымдашынча	-11.3177
▁марафон	-11.3177
▁оппонент	-11.3177
▁отряд	-11.3177
▁пирамида	-11.3177
▁резонанс	-11.3177
▁тыңчылык	-11.3177
▁Шаршенбеков	-11.3177
▁грамм	-11.3178
токтоосуз	-11.3178
▁кыйгап	-11.3179
▁дыкат	-11.318
▁калкалоо	-11.3181
▁кетишет	-11.3182
▁дешкен	-11.3182
▁убара	-11.3183
▁жактырды	-11.3195
▁Бурул	-11.3196
▁дыйкан	-11.3205
▁демонстрация	-11.323
акырындык	-11.3233
▁окурман	-11.3281
▁CNN	-11.3288
▁Жактоочу	-11.3288
▁дурус	-11.3288
▁күтүлөт	-11.3288
▁сириялык	-11.3288
▁Жоламан	-11.3288
▁амалдары	-11.3288
▁каникул	-11.3289
▁Юлия	-11.3289
▁каякта	-11.3289
▁азайышы	-11.3289
▁тартыларын	-11.3289
▁өрүк	-11.329
Элвира	-11.3293
▁көрүнбөй	-11.3293
▁секунд	-11.3293
▁провинция	-11.3307
аштапкы	-11.3314
▁жорук	-11.3322
Москва	-11.3329
2019-	-11.333
маданий	-11.333
▁күндөрдө	-11.3343
▁ыктыярчы	-11.339
▁транзит	-11.3398
▁Бельгия	-11.3401
esty	-11.3401
▁Getty	-11.3401
▁Суваналиев	-11.3401
▁жанкечти	-11.3401
▁куттуктады	-11.3401
▁магистр	-11.3401
▁оболу	-11.3401
▁соккон	-11.3401
▁сыпаттап	-11.3401
▁тыныгуу	-11.3401
▁килем	-11.3401
▁Боррел	-11.3401
▁созулат	-11.3401
полковник	-11.3401
▁Түлөбаев	-11.3401
▁чектелип	-11.3401
▁Кимсанов	-11.3401
▁Алтынай	-11.3401
▁планета	-11.3401
▁темп	-11.3402
▁тобокелчилик	-11.3402
▁Жетиген	-11.3402
▁чектеп	-11.3402
▁жеткирилип	-11.3403
Өзөн	-11.3404
▁хирургия	-11.3404
▁Бизнес	-11.3407
▁булганышы	-11.341
▁жүгүртүүсү	-11.3422
▁Төрөкул	-11.3423
▁акцияны	-11.343
▁өткөрбөй	-11.3437
▁чиркөөсү	-11.3449
Дөбө	-11.3454
▁шаарчасы	-11.3459
▁температура	-11.347
▁сайыл	-11.3472
ЮНИСЕФ	-11.3514
▁Инвестиция	-11.3514
▁жатышпайбы	-11.3514
▁ыңгайсыз	-11.3514
▁Павел	-11.3514
▁Жылуулук	-11.3514
▁пландалууда	-11.3514
▁менимче	-11.3514
▁Арстанбек	-11.3515
▁каптады	-11.3515
▁Орозайым	-11.3515
▁Талапкер	-11.3516
▁бөлүшкөн	-11.3519
▁жабыш	-11.352
▁элементтер	-11.3523
▁Минскиде	-11.3528
com	-11.3542
▁жээкте	-11.3544
Президент	-11.3558
кийин	-11.3559
▁кесе	-11.357
урулуш	-11.3596
ахлак	-11.3629
▁Вакцина	-11.3629
▁Словакия	-11.3629
▁Текшерүү	-11.3629
▁ийгилиги	-11.3629
▁кореялык	-11.3629
▁ардактуу	-11.3629
▁плакат	-11.3629
▁отурушат	-11.3629
▁эмгектенип	-11.3629
▁Түрмө	-11.3629
▁Шамшиев	-11.3629
▁фонунда	-11.3629
▁калайман	-11.3629
▁изилдеген	-11.363
▁удаа	-11.3633
▁арызданган	-11.3635
▁көчүрүү	-11.3655
күнөө	-11.3659
өскөн	-11.3675
улуттук	-11.3677
▁түшүнүктөр	-11.3716
Асман	-11.3732
хирург	-11.3742
▁ошончо	-11.3743
media	-11.3746
▁Жуманазарова	-11.3746
▁Усубалиев	-11.3746
▁кудурет	-11.3746
▁спутник	-11.3746
▁Көбүнчө	-11.3746
▁Эртеси	-11.3746
▁кычкылтек	-11.3746
▁кымбаттады	-11.3746
▁ферма	-11.3746
адыресе	-11.3763
Рейтер	-11.3769
▁Бүт	-11.379
2021-	-11.3792
дүйнө	-11.3793
▁кабинет	-11.3825
▁Жапонияны	-11.3852
Pfizer	-11.3863
▁-3...+2	-11.3863
▁альтернативдүү	-11.3863
▁медкызматкер	-11.3863
▁симптом	-11.3863
▁ыңгайлаш	-11.3863
▁өндүрүп	-11.3863
▁1980-	-11.3863
▁Ахмад	-11.3863
▁Багдад	-11.3863
▁туңгуюк	-11.3863
▁чоңойгон	-11.3863
▁Татарстан	-11.3863
▁илинип	-11.3863
▁эсептейбиз	-11.3863
▁өткөөл	-11.3863
уңгуч	-11.3863
▁Надира	-11.3863
▁дейбиз	-11.3864
▁дарыканалар	-11.3865
▁Капаров	-11.3866
▁басарлары	-11.3866
Ишеним	-11.3878
▁өстүрүү	-11.391
ЖККУ	-11.3911
согуш	-11.3915
чөйрө	-11.3959
▁рол	-11.3978
ектрондук	-11.398
▁филармония	-11.3982
октябрына	-11.3982
▁0...-5	-11.3982
▁Жабыркаган	-11.3982
▁Уюштуруучулар	-11.3982
▁Чеченстанды	-11.3982
▁Шайлдабекова	-11.3982
▁изоляция	-11.3982
▁континент	-11.3982
▁кумшекер	-11.3982
▁ынтымагы	-11.3982
▁корккон	-11.3982
▁бороон	-11.3982
▁түтүк	-11.3982
▁төлөнүп	-11.3983
▁өтпөгөн	-11.3983
▁карманып	-11.3983
▁Чынара	-11.3984
▁логика	-11.3985
муратов	-11.3985
▁Мишел	-11.3994
▁тартылба	-11.3999
Ц	-11.4032
Раим	-11.4035
▁жүктөл	-11.4102
WhatsApp	-11.4103
зомбулугу	-11.4103
▁12...17	-11.4103
▁Дүйшөбаев	-11.4103
▁Павлодар	-11.4103
▁жумуртка	-11.4103
▁Курултай	-11.4103
▁Мыктыбек	-11.4103
▁христиан	-11.4103
Кыргызалтын	-11.4103
▁Разаков	-11.4103
j	-11.4103
▁Салянова	-11.4103
▁жыйынтыкталды	-11.4103
сервис	-11.4103
▁аркалаган	-11.4103
ндогон	-11.4105
очок	-11.4117
▁тирешүү	-11.4128
▁кагыл	-11.4131
▁Сыдык	-11.4139
ӨКМ	-11.4153
коопсуз	-11.4154
▁Биримдигинде	-11.4212
Тахрир	-11.4225
▁Ассамблея	-11.4225
▁Мохаммад	-11.4225
▁Татьяна	-11.4225
▁Токтонасыров	-11.4225
▁авиакаттам	-11.4225
▁актёр	-11.4225
▁инаугурация	-11.4225
▁контейнер	-11.4225
▁Жолдубаева	-11.4225
▁байкалып	-11.4225
▁биологиялык	-11.4225
▁Роберт	-11.4225
дөөлөт	-11.4225
▁ээледи	-11.4225
▁чакырыгы	-11.4225
▁абактарында	-11.4229
▁Экология	-11.4237
Буура	-11.4244
▁жырт	-11.425
▁кыянат	-11.4345
Эркечтам	-11.4348
патриот	-11.4348
▁10...15	-11.4348
▁Абхазия	-11.4348
▁Чогулгандар	-11.4348
▁керебет	-11.4348
▁пенсионер	-11.4348
▁трибуна	-11.4348
▁төккөн	-11.4348
▁Өмүрзаков	-11.4348
▁Жоомарт	-11.4348
▁курчоого	-11.4348
▁спирт	-11.4348
▁райондорунун	-11.4348
▁физикалык	-11.4348
▁авиакомпаниясы	-11.4348
▁камагында	-11.4349
▁Холл	-11.4349
▁келгенсип	-11.435
▁алыстыкта	-11.435
▁бекен	-11.435
▁Расул	-11.435
▁экипаж	-11.435
▁астына	-11.4352
▁онкология	-11.4366
▁кендерин	-11.437
Мурас	-11.4379
Эмне	-11.4402
космостук	-11.4405
▁этүү	-11.4414
▁иммун	-11.4473
Административдик	-11.4473
▁Вячеслав	-11.4473
▁Муфтият	-11.4473
▁Шольц	-11.4473
▁бүдөмүк	-11.4473
▁аккредитация	-11.4473
▁үстөл	-11.4473
▁бастырып	-11.4473
▁тепкич	-11.4473
▁боолго	-11.4473
▁Шабдан	-11.4473
▁жөлөкпул	-11.4473
▁Блогер	-11.4473
техник	-11.4473
▁өрттөнүп	-11.4473
▁Бейрут	-11.4473
▁2030-	-11.4474
▁төлөнөт	-11.4474
▁жаркын	-11.4474
▁акимчилик	-11.4475
▁бозгунда	-11.4475
▁Арипов	-11.4475
▁аламандык	-11.4476
▁Ошолорду	-11.4478
Токой	-11.4486
▁Махмуд	-11.4491
▁кармануу	-11.4506
▁Эсенгул	-11.4516
Жалпы	-11.4529
азыркы	-11.4529
чабуул	-11.453
каналдар	-11.4536
sh	-11.4564
дарактар	-11.4567
▁полк	-11.4585
▁ипотека	-11.4588
▁Түркмөн	-11.4599
▁9...14	-11.46
▁Live	-11.46
▁Львов	-11.46
▁аукцион	-11.46
▁зыйнаты	-11.46
▁4...9	-11.46
▁Баяндама	-11.46
▁Орунбеков	-11.46
▁асфальт	-11.46
▁публицист	-11.46
▁сөгүш	-11.46
▁сызыгы	-11.46
▁аракеттенип	-11.46
▁имиш	-11.46
▁Тизме	-11.46
▁жихад	-11.46
▁берилчү	-11.4601
▁башчылыкка	-11.4601
▁Келечекте	-11.4601
▁Насир	-11.4601
▁уюлду	-11.4603
▁жетсе	-11.4607
▁улак	-11.4608
▁канаты	-11.4632
Интер	-11.4636
▁версия	-11.465
лешти	-11.4662
▁таңуула	-11.4666
Талаа	-11.4686
▁өлө	-11.471
Бейит	-11.4725
▁Варшава	-11.4728
▁6...11	-11.4728
▁7...12	-11.4728
▁Вьетнам	-11.4728
▁өргүү	-11.4728
▁либерал	-11.4728
▁Дегеле	-11.4728
▁ашынган	-11.4728
▁байкалды	-11.4728
▁шаркет	-11.4728
▁Мелдеш	-11.4729
▁ушак	-11.4738
Тилек	-11.4787
Мурза	-11.4815
▁түндүгүндө	-11.4854
▁тейле	-11.4855
анааттандырарлык	-11.4858
▁Рамзан	-11.4858
▁время	-11.4858
▁депозит	-11.4858
▁көчүрмөсү	-11.4858
▁Толкун	-11.4858
▁курчуган	-11.4858
Исфана	-11.4858
▁пенде	-11.4859
▁Артем	-11.4859
▁Кабыл	-11.4862
айрым	-11.4866
▁айкалыш	-11.4873
▁ордени	-11.4875
▁сүзүү	-11.4885
террордук	-11.4898
Чыгыш	-11.4918
экстремисттик	-11.4918
▁Брюссел	-11.493
▁Press	-11.4989
▁Баласагын	-11.4989
▁Буюрса	-11.4989
▁Жабырлануучу	-11.4989
▁буюрса	-11.4989
▁бюрократия	-11.4989
▁бөтөлкө	-11.4989
▁кейиштүү	-11.4989
▁фамилия	-11.4989
▁кечиктир	-11.499
▁веб	-11.4992
Террор	-11.4993
▁чыкмак	-11.4998
▁Сынак	-11.4998
▁Садыков	-11.5003
Унаа	-11.5057
▁апрел	-11.5069
▁донор	-11.5073
▁чурка	-11.5098
OVID	-11.5122
өтүүчү	-11.5122
▁5...10	-11.5123
▁Рузахунов	-11.5123
▁алфавит	-11.5123
▁мүрзө	-11.5123
▁шылуундар	-11.5123
▁мүрт	-11.5123
▁Убагын	-11.5123
▁касиет	-11.5123
▁мунара	-11.5123
▁Жунус	-11.5123
▁Чечим	-11.5123
▁берилсе	-11.5123
▁контент	-11.5124
▁Умаров	-11.5124
▁мафия	-11.5124
▁шире	-11.5125
бөдү	-11.5128
Кылым	-11.5133
▁Сегиз	-11.5169
2022-	-11.5187
▁ыкт	-11.5233
▁эмделген	-11.5254
▁көкбөрү	-11.5258
Ё	-11.5258
июлунда	-11.5258
▁Абдыкадыров	-11.5258
▁белгилешинче	-11.5258
▁квалификация	-11.5258
▁комбинат	-11.5258
▁криптовалюта	-11.5258
▁тагыраагы	-11.5258
▁тизгин	-11.5258
▁терапия	-11.5258
январдын	-11.5258
▁Арслан	-11.5258
▁бөтөн	-11.5258
▁кайгуул	-11.5258
▁2026-	-11.5258
▁чегерил	-11.5258
▁кучак	-11.5258
▁Пелоси	-11.5258
баптыр	-11.5258
▁жыйнап	-11.5258
▁бренд	-11.5258
▁майнинг	-11.5258
▁даават	-11.5259
▁жапты	-11.526
▁лигасы	-11.5261
▁байкуш	-11.5264
▁тейлеген	-11.5265
▁(+2	-11.5268
▁рейс	-11.5269
▁Алимбаев	-11.527
рөөк	-11.528
▁Ангел	-11.5348
▁инновация	-11.5395
▁Telegram	-11.5395
▁баарлашуу	-11.5395
▁мораторий	-11.5395
▁муздаткыч	-11.5395
▁режиссёр	-11.5395
▁Эреже	-11.5395
▁почта	-11.5395
▁1916-	-11.5395
▁кылынды	-11.5396
▁ыдыра	-11.5396
▁курорт	-11.5397
▁Сенатта	-11.5399
▁жеңүү	-11.54
▁Эрнис	-11.5402
▁трансформация	-11.5408
▁тартыла	-11.5428
бөөгө	-11.5451
Финансы	-11.5463
Ысык	-11.5463
▁Эгемен	-11.5522
Кыйноо	-11.5531
▁Калифорния	-11.5534
▁Күрөш	-11.5534
▁Мурунку	-11.5534
▁агрессивдүү	-11.5534
▁гепатит	-11.5534
▁инспекция	-11.5534
▁интеллигенция	-11.5534
▁күжүрмөн	-11.5534
▁троллейбус	-11.5534
▁фермерлер	-11.5534
▁Өнүктүрүү	-11.5534
▁Махабат	-11.5534
▁аэродром	-11.5534
▁оркестр	-11.5534
▁сабаттуу	-11.5534
▁Ухань	-11.5534
▁доклад	-11.5534
▁телеграм	-11.5534
▁жетектөө	-11.5534
▁күлкү	-11.5534
▁кыштагында	-11.5534
▁казган	-11.5534
▁топурак	-11.5534
▁сымал	-11.5534
▁Оторбаев	-11.5536
▁Мусулмандар	-11.5536
▁кесүү	-11.5537
▁усул	-11.5545
Мадина	-11.555
▁Файз	-11.5553
▁Алыкул	-11.5609
тегереги	-11.5675
▁Авдеевка	-11.5675
▁Мамдума	-11.5675
▁Мурзахалилов	-11.5675
▁актриса	-11.5675
▁бассейн	-11.5675
▁мылтык	-11.5675
▁православ	-11.5675
▁түптөгөн	-11.5675
▁өрнөк	-11.5675
▁3...8	-11.5675
▁ЮНЕСКО	-11.5675
▁Үркүн	-11.5675
▁титире	-11.5675
▁бөлүндү	-11.5675
▁стресс	-11.5675
▁бүтпөй	-11.5675
▁орноткон	-11.5675
▁Ростов	-11.5675
▁жөтөл	-11.5675
▁Балтабай	-11.5675
▁жугуп	-11.5675
▁Макалада	-11.5675
▁соттолду	-11.5675
▁жыйнагы	-11.5675
▁башчылыгына	-11.5675
▁дизел	-11.5675
▁тобокелдиктер	-11.5675
▁ЕККУну	-11.5679
▁серб	-11.5689
▁Федерация	-11.5739
Аял	-11.5746
Тажикстан	-11.5746
февраль	-11.5746
гуманитардык	-11.5746
▁макулдашыл	-11.5766
▁эксперимент	-11.5817
МАГАТЭ	-11.5817
Свобода	-11.5817
▁Идлиб	-11.5817
▁Кошумча	-11.5817
▁Ноокен	-11.5817
▁куттуктап	-11.5817
▁опурталдуу	-11.5817
▁тапанча	-11.5817
▁тегерек	-11.5817
▁Марокко	-11.5817
▁Хорог	-11.5817
▁бербесе	-11.5817
▁ойлойсуз	-11.5817
▁ремонт	-11.5817
▁далаалат	-11.5817
Замандаш	-11.5818
▁Елена	-11.5818
▁Салтанат	-11.5818
Мегаком	-11.5818
▁кийимчен	-11.5818
▁ыктаган	-11.5818
▁татыган	-11.5818
▁алаамат	-11.5818
октябрды	-11.5843
▁логистика	-11.5881
2018-	-11.5891
Балдар	-11.5927
корпорация	-11.595
ассоциация	-11.5958
Көчмөндөр	-11.5962
▁Елизавета	-11.5962
▁Жыргалбек	-11.5962
▁Жөнөкөй	-11.5962
▁Сурамжылоо	-11.5962
▁стабилдүү	-11.5962
▁Костанай	-11.5962
▁Серепчилер	-11.5962
▁жайгаштырылган	-11.5962
▁келбесе	-11.5962
▁көрсөтпөй	-11.5962
▁шылдың	-11.5962
▁Солтон	-11.5962
▁айрылган	-11.5963
▁Балтика	-11.5963
▁Климат	-11.5963
▁эмоция	-11.5963
▁шакирт	-11.5963
▁төлөнгөн	-11.5963
▁таттуу	-11.5963
▁баамында	-11.5963
▁таянган	-11.5964
Сорос	-11.5967
мүмкүнчүлүктөрдү	-11.6095
Озодлик	-11.6109
▁Кыймыл	-11.6109
▁күмбөз	-11.6109
▁Гурбангул	-11.6109
▁милдеттендирген	-11.6109
▁чөнтөк	-11.6109
▁Актөбө	-11.6109
▁ырастоо	-11.611
▁кызамык	-11.611
▁вагон	-11.611
▁конкурс	-11.611
▁врач	-11.611
▁Чотонов	-11.611
▁ыйман	-11.611
▁бурмаланган	-11.611
төшөк	-11.6114
▁текшериле	-11.6121
тозок	-11.6155
▁бийиктикте	-11.622
▁комендант	-11.6232
февралына	-11.6259
▁11...16	-11.6259
▁Post	-11.6259
▁Абдыжапар	-11.6259
▁Анжиян	-11.6259
▁Валентина	-11.6259
▁Зулпукаров	-11.6259
▁Капитолий	-11.6259
▁Хопкинс	-11.6259
▁академик	-11.6259
#	-11.754
Я	-11.8744
q	-11.9836
і	-12.2257
&	-12.3115
қ	-12.5088
ı	-12.6243
ɵ	-12.7095
Ѳ	-12.8026
\	-12.8026
[	-12.8454
І	-12.9607
_	-13.0196
Қ	-13.0196
@	-13.0821
ü	-13.2202
Ş	-13.2202
ş	-13.2202
Ɵ	-13.2202
−	-13.2202
ә	-13.4713
`	-13.5713
ғ	-13.6824
ا	-13.8074
·	-13.8074
=	-13.9503
é	-13.9503
⠀	-13.9503
️	-13.9503
ç	-13.9503
İ	-13.9503
ə	-14.117
ұ	-14.117
¬	-14.117
•	-14.117
▪	-14.117
Ң	-14.317
ğ	-14.317
ö	-14.317
́	-14.567
©	-14.567
ل	-14.567
Ü	-14.9003
á	-14.9003
ق	-14.9003
⁄	-14.9003
→	-14.9003
昆	-14.9003
ҳ	-14.9003
Ь	-14.9003
ҷ	-15.4003
Ö	-15.4003
â	-15.4003
í	-15.4003
ï	-15.4003
љ	-15.4003
Ұ	-15.4003
―	-15.4003
⁣	-15.4003
●	-15.4003
鬲	-16.399
韓	-16.3991
鄄	-16.3992
堅	-16.3993
ُ	-16.3994
و	-16.3995
ح	-16.3996
Ә	-16.3997
ӏ	-16.3998
Ç	-16.3999
ʙ	-16.4
Щ	-16.4001
$	-16.4002
خ	-16.4003
ز	-16.4003
ِ	-16.4003
ʼ	-16.4003
ї	-16.4003
ў	-16.4003
ӯ	-16.4003
ظ	-16.4003
{	-16.4003
}	-16.4003
£	-16.4003
§	-16.4003
Ñ	-16.4003
ã	-16.4003
ä	-16.4003
è	-16.4003
ñ	-16.4003
ā	-16.4003
Ŋ	-16.4003
Š	-16.4003
ƚ	-16.4003
Ƣ	-16.4003
ƣ	-16.4003
̧	-16.4003
Ђ	-16.4003
Ъ	-16.4003
ђ	-16.4003
ћ	-16.4003
һ	-16.4003
د	-16.4003
ر	-16.4003
ص	-16.4003
ط	-16.4003
ع	-16.4003
غ	-16.4003
ك	-16.4003
م	-16.4003
ن	-16.4003
ه	-16.4003
ي	-16.4003
‒	-16.4003
⁠	-16.4003
回	-16.4003
族	-16.4003
(	-16.4003
ß	-16.4003
ą	-16.4003
ū	-16.4003
