<unk>	0
<s>	0
</s>	0
▁к	-0
ан	-1
ар	-2
▁б	-3
ын	-4
ал	-5
▁ж	-6
ен	-7
да	-8
ин	-9
ат	-10
▁т	-11
ер	-12
▁м	-13
ай	-14
уу	-15
кт	-16
ол	-17
▁с	-18
ыл	-19
ган	-20
▁э	-21
үн	-22
ун	-23
де	-24
ир	-25
ор	-26
ды	-27
▁а	-28
гы	-29
он	-30
ур	-31
ил	-32
ст	-33
ия	-34
ет	-35
▁ч	-36
га	-37
▁А	-38
ек	-39
ул	-40
шт	-41
▁ө	-42
ыр	-43
▁ал	-44
ам	-45
▁Б	-46
ел	-47
▁К	-48
ык	-49
ак	-50
ас	-51
өр	-52
ып	-53
ди	-54
оо	-55
өн	-56
▁ай	-57
▁бол	-58
үү	-59
▁де	-60
дар	-61
шк	-62
тт	-63
▁и	-64
дын	-65
▁о	-66
ген	-67
ап	-68
▁"	-69
ик	-70
ыз	-71
ында	-72
ук	-73
▁ба	-74
▁мен	-75
▁п	-76
ана	-77
үр	-78
аб	-79
▁менен	-80
из	-81
ым	-82
▁М	-83
▁ар	-84
ий	-85
▁кар	-86
дан	-87
▁жана	-88
ок	-89
атт	-90
▁бир	-91
▁жа	-92
▁эл	-93
ов	-94
кан	-95
дө	-96
▁ко	-97
▁да	-98
▁у	-99
▁бер	-100
стан	-101
ары	-102
ес	-103
ый	-104
ог	-105
▁жат	-106
им	-107
ей	-108
үч	-109
▁кө	-110
▁О	-111
ус	-112
▁Ж	-113
ча	-114
ция	-115
▁эк	-116
үл	-117
▁Т	-118
▁кел	-119
▁С	-120
▁2	-121
өл	-122
уп	-123
▁1	-124
▁д	-125
ына	-126
гыз	-127
аны	-128
ра	-129
лар	-130
ыргыз	-131
ев	-132
▁ш	-133
▁деп	-134
▁ма	-135
ист	-136
ма	-137
тк	-138
ду	-139
ге	-140
ре	-141
дин	-142
ынын	-143
ип	-144
ден	-145
гө	-146
▁тур	-147
дагы	-148
үй	-149
▁бар	-150
ги	-151
ка	-152
ыш	-153
ект	-154
алган	-155
▁бо	-156
юн	-157
дык	-158
ба	-159
гон	-160
▁кыз	-161
ли	-162
▁тар	-163
▁бил	-164
етт	-165
▁айт	-166
үз	-167
▁жар	-168
▁өз	-169
▁ат	-170
▁со	-171
▁эм	-172
нын	-173
аз	-174
ск	-175
▁н	-176
үп	-177
дам	-178
▁У	-179
өт	-180
▁эле	-181
▁үч	-182
аган	-183
ем	-184
ку	-185
еп	-186
ит	-187
анын	-188
▁чы	-189
сы	-190
иш	-191
айл	-192
ыргызстан	-193
▁Ал	-194
бек	-195
уш	-196
гөн	-197
▁кат	-198
▁кыл	-199
алык	-200
▁ишт	-201
алуу	-202
▁-	-203
дир	-204
▁өл	-205
зи	-206
ери	-207
ум	-208
▁боюн	-209
инин	-210
алым	-211
▁ор	-212
▁та	-213
▁боюнча	-214
▁бул	-215
уз	-216
дай	-217
мат	-218
жыл	-219
▁билдир	-220
▁Э	-221
▁Кыргызстан	-222
инде	-223
▁болгон	-224
үм	-225
от	-226
▁туу	-227
▁үчүн	-228
▁20	-229
▁кай	-230
▁маалым	-231
го	-232
ең	-233
▁көр	-234
до	-235
еч	-236
▁кал	-237
▁жаткан	-238
▁кор	-239
▁жыл	-240
▁р	-241
▁И	-242
▁са	-243
шы	-244
▁кол	-245
лек	-246
ктар	-247
▁то	-248
▁иш	-249
инист	-250
▁жол	-251
рези	-252
резиден	-253
дун	-254
▁өлк	-255
амлек	-256
ут	-257
гил	-258
дук	-259
ом	-260
▁каб	-261
үк	-262
ерл	-263
ег	-264
▁Ор	-265
ине	-266
инистр	-267
▁адам	-268
▁жет	-269
▁ком	-270
үш	-271
аар	-272
▁Бул	-273
▁тал	-274
усия	-275
▁күн	-276
ады	-277
▁башк	-278
▁деген	-279
▁жүр	-280
▁экен	-281
▁ак	-282
бай	-283
▁Бир	-284
ылган	-285
▁Д	-286
ынан	-287
чу	-288
еш	-289
чи	-290
▁П	-291
▁кызмат	-292
аш	-293
▁кур	-294
алар	-295
▁жок	-296
лык	-297
▁кер	-298
▁болуп	-299
▁кет	-300
▁кий	-301
▁кан	-302
зам	-303
унун	-304
ерди	-305
▁мамлек	-306
ейин	-307
▁өк	-308
ооп	-309
ууга	-310
▁баш	-311
▁Орусия	-312
чы	-313
▁ми	-314
өө	-315
▁чейин	-316
үндө	-317
шкан	-318
үг	-319
кы	-320
▁туур	-321
та	-322
▁Н	-323
асы	-324
▁тууралуу	-325
▁президен	-326
лан	-327
▁Ош	-328
ав	-329
уг	-330
▁уч	-331
▁бел	-332
▁аз	-333
уна	-334
▁Ан	-335
▁жер	-336
чыл	-337
арт	-338
▁жаз	-339
▁турган	-340
ыйзам	-341
унда	-342
▁ф	-343
▁эмес	-344
дон	-345
дары	-346
▁кийин	-347
ян	-348
еб	-349
бл	-350
",	-351
ишк	-352
▁кир	-353
агы	-354
ыкт	-355
кен	-356
дү	-357
▁жак	-358
▁жатат	-359
ез	-360
икт	-361
чул	-362
ага	-363
▁бас	-364
бо	-365
дер	-366
▁керек	-367
▁ул	-368
▁чыг	-369
▁башт	-370
уун	-371
▁(	-372
▁мыйзам	-373
▁шаар	-374
үнө	-375
▁өт	-376
ки	-377
▁Ө	-378
▁сал	-379
▁министр	-380
яс	-381
ардын	-382
▁алып	-383
▁бий	-384
..	-385
▁3	-386
дөр	-387
укт	-388
▁өтк	-389
▁мамлекетт	-390
сыз	-391
▁учур	-392
ерлер	-393
ке	-394
ээ	-395
бр	-396
▁Р	-397
▁маалымат	-398
▁мил	-399
өз	-400
▁дагы	-401
уул	-402
өм	-403
▁көп	-404
▁үй	-405
▁ан	-406
▁эки	-407
▁алган	-408
ман	-409
▁байл	-410
▁кам	-411
ент	-412
үнүн	-413
▁белгил	-414
ябр	-415
▁бал	-416
▁ук	-417
ору	-418
ро	-419
раин	-420
аж	-421
▁тарт	-422
▁шайл	-423
ушт	-424
жылы	-425
▁аны	-426
дардын	-427
▁жай	-428
▁көз	-429
ышт	-430
аттар	-431
арл	-432
▁байланы	-433
▁мур	-434
▁миң	-435
өлөр	-436
▁күч	-437
▁Г	-438
▁түз	-439
ял	-440
▁ош	-441
▁Ч	-442
тер	-443
▁биз	-444
▁ую	-445
иши	-446
ындагы	-447
уст	-448
▁з	-449
▁ка	-450
▁в	-451
ылуу	-452
▁анын	-453
ис	-454
▁мас	-455
▁дол	-456
▁чеч	-457
▁келген	-458
▁ич	-459
өй	-460
егиз	-461
▁Бирок	-462
чил	-463
инчи	-464
▁чыгар	-465
▁Аз	-466
дик	-467
▁айма	-468
▁Бишк	-469
ран	-470
▁сөз	-471
▁саяс	-472
▁билдирди	-473
утт	-474
▁президент	-475
алы	-476
▁экенин	-477
ыт	-478
▁жаш	-479
▁Ук	-480
ыйын	-481
иев	-482
ос	-483
баев	-484
▁оку	-485
▁жаң	-486
▁өн	-487
үүгө	-488
төр	-489
▁өлкө	-490
күн	-491
ты	-492
▁жөн	-493
оом	-494
▁Ш	-495
▁обл	-496
▁жаран	-497
ууда	-498
мө	-499
▁каршы	-500
▁ок	-501
ив	-502
▁чык	-503
00	-504
▁масел	-505
гү	-506
▁аб	-507
огор	-508
ктан	-509
▁Украин	-510
дөн	-511
иянын	-512
доо	-513
▁башка	-514
▁көрс	-515
▁бөл	-516
▁уш	-517
орб	-518
▁түш	-519
уга	-520
▁аш	-521
суз	-522
аттык	-523
акыр	-524
инен	-525
▁ин	-526
со	-527
▁төр	-528
икалык	-529
үмкүн	-530
ада	-531
▁ил	-532
▁оор	-533
▁Алар	-534
азак	-535
▁мүмкүн	-536
өш	-537
аров	-538
сынын	-539
са	-540
▁байланышт	-541
ышк	-542
еген	-543
▁чыгы	-544
▁эс	-545
▁бери	-546
▁болду	-547
▁кандай	-548
ейт	-549
▁шайлоо	-550
алды	-551
си	-552
алдык	-553
гында	-554
▁иштер	-555
▁карм	-556
йт	-557
еси	-558
айон	-559
▁ре	-560
арын	-561
дуу	-562
лик	-563
▁аск	-564
гын	-565
▁калган	-566
огорку	-567
▁же	-568
ация	-569
▁мамлекеттик	-570
үт	-571
акт	-572
быз	-573
▁сур	-574
▁негиз	-575
дор	-576
дыр	-577
▁мак	-578
▁район	-579
▁кош	-580
дүн	-581
▁талап	-582
▁жары	-583
▁4	-584
▁5	-585
орбор	-586
алып	-587
гана	-588
▁коом	-589
өнүн	-590
0-	-591
иция	-592
об	-593
▁202	-594
ыркы	-595
▁кыргыз	-596
чү	-597
▁болот	-598
окт	-599
лөр	-600
▁гана	-601
иб	-602
оң	-603
иялык	-604
▁В	-605
▁Е	-606
еди	-607
тур	-608
айын	-609
арды	-610
▁эми	-611
сп	-612
аза	-613
үйн	-614
▁чек	-615
▁министрли	-616
▁түр	-617
▁алын	-618
▁ач	-619
▁кооп	-620
▁чакыр	-621
▁бийли	-622
▁тап	-623
▁тер	-624
айт	-625
иг	-626
▁201	-627
▁эр	-628
ентт	-629
уну	-630
▁чыккан	-631
▁киши	-632
үнү	-633
чүл	-634
▁пр	-635
гиз	-636
▁жас	-637
▁арак	-638
▁кабыл	-639
▁жыйын	-640
▁Жап	-641
ындай	-642
▁айып	-643
▁байланыштуу	-644
▁сакт	-645
▁кою	-646
▁катт	-647
▁жатканын	-648
дүү	-649
▁ав	-650
▁Биз	-651
▁айтып	-652
▁токт	-653
▁катары	-654
ара	-655
▁жооп	-656
▁жаңы	-657
епт	-658
ания	-659
▁уюм	-660
ашт	-661
▁Кыргызстандын	-662
ци	-663
елер	-664
▁топ	-665
▁аралык	-666
ондо	-667
КШ	-668
асын	-669
▁сүй	-670
▁депут	-671
мөт	-672
ешт	-673
▁жал	-674
▁Казак	-675
ябрда	-676
чө	-677
▁тарап	-678
сү	-679
▁кылм	-680
▁алдын	-681
▁өткөр	-682
рам	-683
дарды	-684
тты	-685
▁АКШ	-686
▁Ак	-687
▁кең	-688
рым	-689
ыс	-690
ууну	-691
▁өкүл	-692
▁Өз	-693
▁берген	-694
гоо	-695
уб	-696
▁ишк	-697
▁кызм	-698
▁кыр	-699
▁парт	-700
ени	-701
асында	-702
▁берил	-703
▁Ф	-704
▁сот	-705
▁19	-706
▁милли	-707
▁сом	-708
ылып	-709
▁кызматк	-710
▁пай	-711
уттук	-712
▁айыл	-713
үкт	-714
▁кый	-715
кин	-716
▁кеткен	-717
▁облус	-718
чысы	-719
беков	-720
▁жум	-721
▁комп	-722
▁Орусиянын	-723
▁атк	-724
асм	-725
▁Жапаров	-726
аты	-727
▁болсо	-728
ла	-729
▁сан	-730
онав	-731
▁айткан	-732
▁ыл	-733
...	-734
▁көб	-735
үгүн	-736
▁тил	-737
▁Л	-738
1-	-739
▁Казакстан	-740
сия	-741
ест	-742
үүдө	-743
оном	-744
▁чечим	-745
▁Жогорку	-746
▁тол	-747
арлам	-748
онавир	-749
еги	-750
▁сог	-751
▁долбо	-752
▁сүйл	-753
▁Анын	-754
абыз	-755
▁Кыргызстанда	-756
▁коопсуз	-757
гына	-758
яр	-759
▁эск	-760
▁ошол	-761
нал	-762
▁кез	-763
▁ур	-764
▁кайр	-765
▁кой	-766
▁6	-767
▁жетек	-768
то	-769
▁көрсөт	-770
үлгөн	-771
▁кайра	-772
Аз	-773
▁караган	-774
▁билдирген	-775
8-	-776
иде	-777
▁Ай	-778
дүр	-779
▁жардам	-780
▁7	-781
▁чет	-782
▁Ул	-783
▁деди	-784
тыр	-785
▁сун	-786
ышат	-787
ышы	-788
▁Х	-789
▁окуя	-790
үрк	-791
▁Бишкект	-792
тан	-793
ытай	-794
▁Ев	-795
▁ой	-796
▁алар	-797
тор	-798
адыр	-799
ылды	-800
гер	-801
▁дүйн	-802
не	-803
урнал	-804
▁ылай	-805
оого	-806
▁коргоо	-807
мар	-808
▁кон	-809
▁жакын	-810
▁мурдагы	-811
▁жашт	-812
▁партия	-813
▁алуу	-814
огон	-815
▁кызматт	-816
▁жүрг	-817
ика	-818
кү	-819
дарга	-820
ой	-821
▁эч	-822
▁уба	-823
тар	-824
▁жолу	-825
се	-826
асмий	-827
▁жаб	-828
ушу	-829
▁өткөн	-830
▁дел	-831
улган	-832
▁киргиз	-833
▁Ар	-834
урналист	-835
2-	-836
▁Кең	-837
▁учурда	-838
▁өлкөлөр	-839
▁ыр	-840
▁сат	-841
гөр	-842
▁колдон	-843
ердин	-844
тын	-845
алда	-846
орт	-847
▁өкмөт	-848
▁албай	-849
▁Аб	-850
▁Бат	-851
кты	-852
▁ылайык	-853
кта	-854
роп	-855
олог	-856
▁азыр	-857
чулар	-858
дей	-859
▁бири	-860
ыгы	-861
өп	-862
екем	-863
▁айтты	-864
▁отур	-865
▁башкар	-866
▁өзгөр	-867
ондой	-868
▁Кытай	-869
▁ап	-870
үүлөр	-871
▁улам	-872
▁алды	-873
▁ара	-874
9-	-875
үшт	-876
дөрү	-877
туу	-878
▁парлам	-879
▁чыгып	-880
но	-881
рем	-882
гун	-883
ата	-884
▁соң	-885
▁талк	-886
▁президентт	-887
▁ичинде	-888
▁ушул	-889
▁коронавир	-890
ети	-891
▁Ба	-892
▁аныкт	-893
▁жүргүз	-894
▁Мен	-895
▁дем	-896
анда	-897
▁арк	-898
▁түшүн	-899
сүн	-900
▁орун	-901
▁келиш	-902
▁аба	-903
ышкан	-904
▁аял	-905
ундагы	-906
▁сотт	-907
мия	-908
▁таб	-909
▁Түрк	-910
▁акт	-911
▁бирок	-912
атты	-913
иги	-914
5-	-915
▁долбоор	-916
▁берүү	-917
▁кес	-918
дөө	-919
▁из	-920
▁келет	-921
▁бай	-922
▁чоң	-923
ону	-924
дек	-925
▁караганда	-926
▁дар	-927
▁г	-928
изм	-929
алиев	-930
▁Мо	-931
сат	-932
▁караж	-933
кер	-934
▁жалп	-935
ышты	-936
▁калды	-937
▁алардын	-938
уус	-939
▁Ат	-940
▁май	-941
үүнү	-942
ири	-943
▁саясий	-944
▁жөнүндө	-945
▁жарыял	-946
▁өзү	-947
өөн	-948
▁мындай	-949
▁З	-950
▁Бишкек	-951
ерин	-952
уучу	-953
иктүү	-954
▁элек	-955
шка	-956
аткан	-957
▁компания	-958
▁миллион	-959
▁чар	-960
▁тышк	-961
ече	-962
тта	-963
▁каза	-964
ындан	-965
мүр	-966
▁журналист	-967
асынын	-968
акка	-969
олор	-970
өк	-971
▁даяр	-972
▁аркылуу	-973
сиз	-974
рел	-975
▁болбо	-976
▁тарма	-977
алан	-978
▁оп	-979
▁айрым	-980
4-	-981
ыкты	-982
ко	-983
угу	-984
скв	-985
▁президенти	-986
▁доллар	-987
▁бийлик	-988
▁Эл	-989
▁ая	-990
цин	-991
сын	-992
ердик	-993
▁ээ	-994
ова	-995
▁турат	-996
▁мл	-997
▁деле	-998
бекстан	-999
▁борбор	-1000
аң	-1001
3-	-1002
▁ад	-1003
▁күр	-1004
▁ли	-1005
өгөн	-1006
асына	-1007
▁саясат	-1008
▁Эм	-1009
▁эконом	-1010
жылдын	-1011
▁Москв	-1012
деги	-1013
▁келип	-1014
ганын	-1015
▁катар	-1016
онун	-1017
▁ага	-1018
үгү	-1019
▁орус	-1020
гиликтүү	-1021
▁кабар	-1022
▁мүч	-1023
ерлери	-1024
▁эң	-1025
▁көтөр	-1026
7-	-1027
▁Буга	-1028
▁нече	-1029
▁расмий	-1030
▁биринчи	-1031
инг	-1032
ех	-1033
бүз	-1034
ишт	-1035
овдун	-1036
дөгү	-1037
▁Ма	-1038
▁Садыр	-1039
мер	-1040
илген	-1041
циялык	-1042
▁катыш	-1043
▁аткар	-1044
өлүк	-1045
▁себ	-1046
лор	-1047
ыйыл	-1048
▁кырда	-1049
▁чект	-1050
▁кылып	-1051
▁берип	-1052
▁ким	-1053
циалдык	-1054
убл	-1055
▁Таж	-1056
ерт	-1057
▁иштеп	-1058
гандар	-1059
Азаттык	-1060
өтк	-1061
▁комит	-1062
6-	-1063
▁айыпт	-1064
шыр	-1065
стит	-1066
вар	-1067
▁ст	-1068
бей	-1069
▁турганын	-1070
гөө	-1071
▁Кор	-1072
▁жакшы	-1073
▁жүргөн	-1074
▁коопсуздук	-1075
▁тий	-1076
▁Кар	-1077
юл	-1078
анды	-1079
▁буз	-1080
МК	-1081
икстан	-1082
▁суу	-1083
▁чог	-1084
▁кылмыш	-1085
гыл	-1086
▁эсепт	-1087
▁күнү	-1088
▁Өзбекстан	-1089
▁жең	-1090
өмөл	-1091
ларды	-1092
▁буга	-1093
тин	-1094
▁он	-1095
енин	-1096
▁маан	-1097
▁атайын	-1098
▁Кеңешт	-1099
алат	-1100
окур	-1101
▁төл	-1102
дикт	-1103
ңг	-1104
▁түн	-1105
▁орт	-1106
▁төрага	-1107
▁кызматы	-1108
тир	-1109
етти	-1110
▁министрлиги	-1111
▁миг	-1112
өтт	-1113
гинин	-1114
▁жалпы	-1115
▁көзөмөл	-1116
▁сүйлөш	-1117
▁эмне	-1118
▁пик	-1119
ала	-1120
ганы	-1121
штур	-1122
май	-1123
үшк	-1124
оп	-1125
унан	-1126
ерг	-1127
еттик	-1128
▁8	-1129
▁өлкөнүн	-1130
дүк	-1131
▁дүйнө	-1132
▁Улуттук	-1133
▁кабарл	-1134
▁жерде	-1135
▁мамлекет	-1136
▁сыр	-1137
окум	-1138
▁дары	-1139
▁аракет	-1140
▁иши	-1141
ны	-1142
▁бардык	-1143
▁Ошол	-1144
▁коронавирус	-1145
▁ты	-1146
пай	-1147
еке	-1148
▁Кыргыз	-1149
огу	-1150
▁комис	-1151
ктуу	-1152
▁Жал	-1153
екш	-1154
есп	-1155
▁иликт	-1156
мөтт	-1157
▁туура	-1158
▁сын	-1159
▁курул	-1160
▁меди	-1161
ымында	-1162
▁Тажикстан	-1163
руп	-1164
▁ишке	-1165
пи	-1166
рат	-1167
гөчө	-1168
густ	-1169
▁берди	-1170
▁Борбор	-1171
▁болчу	-1172
амил	-1173
ерс	-1174
▁Президен	-1175
▁мект	-1176
▁кеңеш	-1177
▁улан	-1178
▁коз	-1179
ах	-1180
лер	-1181
▁башчысы	-1182
▁акча	-1183
▁Со	-1184
▁келишим	-1185
▁карата	-1186
дуктан	-1187
▁бийликт	-1188
▁дай	-1189
▁багы	-1190
▁эксп	-1191
министр	-1192
▁Уш	-1193
▁Алардын	-1194
▁Европ	-1195
▁сактоо	-1196
▁кач	-1197
▁сунушт	-1198
бы	-1199
▁жаг	-1200
▁ачык	-1201
абр	-1202
еспубл	-1203
ланган	-1204
▁тын	-1205
ыя	-1206
бүл	-1207
ылык	-1208
▁беш	-1209
▁жатышат	-1210
▁прокур	-1211
чылык	-1212
▁элект	-1213
▁аймактар	-1214
▁Ы	-1215
▁социалдык	-1216
▁Азыр	-1217
лардын	-1218
атур	-1219
▁арыз	-1220
ыктар	-1221
▁кошум	-1222
▁саны	-1223
▁абал	-1224
олгон	-1225
▁айтымында	-1226
январ	-1227
▁баштаган	-1228
▁оорук	-1229
ылат	-1230
▁жаштагы	-1231
▁уюштур	-1232
аараз	-1233
ундай	-1234
▁салуу	-1235
КМК	-1236
▁басма	-1237
▁кылган	-1238
етинин	-1239
▁жан	-1240
▁доб	-1241
▁киш	-1242
▁баары	-1243
▁парламентт	-1244
▁пикир	-1245
ылм	-1246
ерге	-1247
▁курал	-1248
аларды	-1249
▁жог	-1250
▁уул	-1251
▁чаб	-1252
▁Эк	-1253
▁сап	-1254
▁токтот	-1255
▁эн	-1256
арых	-1257
▁10	-1258
сына	-1259
чиси	-1260
▁актив	-1261
түү	-1262
ози	-1263
ттар	-1264
▁эркин	-1265
ри	-1266
апрел	-1267
▁ди	-1268
▁камсыз	-1269
▁облуст	-1270
▁төрт	-1271
▁кырдаал	-1272
мен	-1273
▁докум	-1274
▁тергөө	-1275
▁наараз	-1276
өкт	-1277
▁өтө	-1278
дим	-1279
▁жергиликтүү	-1280
кө	-1281
▁макул	-1282
▁ти	-1283
▁Азия	-1284
есин	-1285
▁тел	-1286
▁келтир	-1287
ьер	-1288
▁Нур	-1289
▁арасында	-1290
▁9	-1291
▁мурда	-1292
▁жолуг	-1293
▁Баткен	-1294
▁белгилүү	-1295
▁көбөй	-1296
▁бан	-1297
▁шаарында	-1298
▁мамил	-1299
▁кы	-1300
▁өтүп	-1301
биз	-1302
бад	-1303
▁алынган	-1304
▁коюл	-1305
▁Кеңештин	-1306
гин	-1307
еби	-1308
тка	-1309
▁күчтөр	-1310
ама	-1311
▁Ин	-1312
евр	-1313
▁мекем	-1314
▁министри	-1315
алам	-1316
▁кеч	-1317
▁Анда	-1318
▁жүз	-1319
гач	-1320
▁ишен	-1321
Абад	-1322
▁милде	-1323
▁кармалган	-1324
▁дал	-1325
▁маалыматтар	-1326
▁айында	-1327
утин	-1328
рация	-1329
▁адамдар	-1330
▁биздин	-1331
аль	-1332
▁жайга	-1333
▁Мамлек	-1334
▁күрөш	-1335
▁таас	-1336
▁тапшыр	-1337
▁Ошон	-1338
бул	-1339
аттуу	-1340
▁бош	-1341
ед	-1342
▁сист	-1343
▁мөөн	-1344
сан	-1345
▁ортос	-1346
үшү	-1347
▁кыргызстан	-1348
оз	-1349
тик	-1350
▁кайт	-1351
▁сыя	-1352
▁маселе	-1353
▁Украина	-1354
су	-1355
▁Эр	-1356
үлүп	-1357
▁барып	-1358
ремьер	-1359
▁200	-1360
▁аскердик	-1361
юу	-1362
▁Украинанын	-1363
уунун	-1364
▁ата	-1365
▁Кон	-1366
▁жетекчил	-1367
дарын	-1368
▁сүр	-1369
▁өкмөтт	-1370
▁милиция	-1371
▁таж	-1372
ардык	-1373
▁билим	-1374
▁карап	-1375
▁аталган	-1376
▁жүрүп	-1377
▁аген	-1378
▁Путин	-1379
ктын	-1380
▁тарых	-1381
▁акция	-1382
ишкен	-1383
▁сп	-1384
▁сыяктуу	-1385
ортт	-1386
ехн	-1387
сык	-1388
▁тартып	-1389
▁окуу	-1390
▁андан	-1391
чылар	-1392
үшкөн	-1393
ткени	-1394
▁толук	-1395
уд	-1396
ияда	-1397
▁таан	-1398
▁жатканы	-1399
▁тынч	-1400
▁Андан	-1401
▁болушу	-1402
▁ашык	-1403
▁корк	-1404
үнөн	-1405
▁бүт	-1406
▁зар	-1407
▁виде	-1408
▁койгон	-1409
ерен	-1410
штыр	-1411
▁алдында	-1412
август	-1413
▁жылдан	-1414
▁коомдук	-1415
дап	-1416
ынча	-1417
июн	-1418
▁ун	-1419
кат	-1420
▁түшүндүр	-1421
▁иштеген	-1422
▁комиссия	-1423
▁Ага	-1424
▁Оо	-1425
▁кем	-1426
тык	-1427
▁чабуул	-1428
бир	-1429
▁басары	-1430
▁өр	-1431
▁лид	-1432
▁тиеш	-1433
▁башкы	-1434
сун	-1435
үрүү	-1436
-1	-1437
алары	-1438
▁Ү	-1439
▁жарыя	-1440
▁электр	-1441
▁ойл	-1442
▁төрагасы	-1443
▁болгонун	-1444
екшер	-1445
▁соңку	-1446
▁быйыл	-1447
▁так	-1448
▁түнкү	-1449
аев	-1450
▁млн	-1451
▁Кур	-1452
▁шар	-1453
▁Бел	-1454
▁корруп	-1455
▁15	-1456
▁укук	-1457
▁мигран	-1458
деп	-1459
▁эт	-1460
▁Из	-1461
▁райондук	-1462
▁оюн	-1463
▁агентт	-1464
▁пол	-1465
▁жара	-1466
декабр	-1467
▁мыйзамсыз	-1468
ош	-1469
дүз	-1470
ээн	-1471
▁сатып	-1472
▁чыкты	-1473
▁айтылган	-1474
сент	-1475
жан	-1476
▁салын	-1477
20	-1478
улуп	-1479
▁жетк	-1480
▁экинчи	-1481
▁тургун	-1482
▁ра	-1483
▁өлкөдө	-1484
▁Са	-1485
догон	-1486
▁бийлиги	-1487
кын	-1488
уулар	-1489
ылтыр	-1490
▁ички	-1491
▁ушундай	-1492
▁колдоо	-1493
▁тең	-1494
▁өмүр	-1495
▁билдирүү	-1496
раил	-1497
атта	-1498
▁көрсөтк	-1499
▁уз	-1500
демия	-1501
▁аракетт	-1502
▁жыйынты	-1503
ститу	-1504
▁өзгөчө	-1505
▁текшер	-1506
▁дин	-1507
▁Мындан	-1508
екен	-1509
▁про	-1510
мак	-1511
▁добуш	-1512
▁козг	-1513
▁акыркы	-1514
▁илим	-1515
▁коомчул	-1516
▁тоб	-1517
▁C	-1518
ланды	-1519
▁улуттук	-1520
усу	-1521
кул	-1522
▁ашуун	-1523
▁Бай	-1524
октябрда	-1525
ич	-1526
▁Мар	-1527
дөй	-1528
индеги	-1529
▁соо	-1530
▁аж	-1531
▁там	-1532
▁Министр	-1533
чал	-1534
ыктын	-1535
▁мүчө	-1536
▁дейт	-1537
▁министрлигинин	-1538
аст	-1539
үст	-1540
игин	-1541
▁Мур	-1542
гынын	-1543
▁өндүр	-1544
▁азыркы	-1545
▁жеке	-1546
▁укукт	-1547
емир	-1548
▁тышкары	-1549
др	-1550
▁баз	-1551
▁Ошондой	-1552
ограм	-1553
▁берет	-1554
▁башталган	-1555
▁алгач	-1556
▁Иран	-1557
▁өкүлү	-1558
▁маалыматына	-1559
▁бүгүн	-1560
тко	-1561
▁күт	-1562
▁оң	-1563
▁мүмкүнчүл	-1564
▁керект	-1565
ост	-1566
▁техн	-1567
ктылуу	-1568
▁Бишкекте	-1569
▁ишкан	-1570
ңүл	-1571
▁такт	-1572
▁ала	-1573
▁АКШнын	-1574
▁берилген	-1575
бак	-1576
сак	-1577
атка	-1578
▁бур	-1579
▁Европа	-1580
▁Эгер	-1581
ерлердин	-1582
▁жумуш	-1583
▁күндүз	-1584
озиция	-1585
июл	-1586
▁жылга	-1587
▁өзүнүн	-1588
▁ошондой	-1589
▁Ооган	-1590
аттын	-1591
▁таасир	-1592
▁кайсы	-1593
▁шаардык	-1594
▁көч	-1595
▁жеткир	-1596
дыктар	-1597
▁Башк	-1598
мыл	-1599
дыгы	-1600
▁түнкүсүн	-1601
тип	-1602
▁анда	-1603
▁экени	-1604
тон	-1605
▁согуш	-1606
▁тааны	-1607
шты	-1608
айым	-1609
алап	-1610
▁белгиледи	-1611
▁көңүл	-1612
ңгээ	-1613
▁Москва	-1614
▁УКМК	-1615
ттү	-1616
▁өкүлдөрү	-1617
▁прокуратур	-1618
▁деңгээ	-1619
▁кл	-1620
иц	-1621
догу	-1622
▁тизм	-1623
▁маалымда	-1624
аттары	-1625
▁Бак	-1626
дердин	-1627
елүү	-1628
▁активист	-1629
фор	-1630
",-	-1631
юм	-1632
▁жагдай	-1633
▁Мындай	-1634
▁вир	-1635
рит	-1636
▁Президент	-1637
▁ге	-1638
▁л	-1639
тке	-1640
▁11	-1641
▁сый	-1642
▁президенттик	-1643
абай	-1644
▁келди	-1645
▁жазды	-1646
▁Жалал	-1647
▁негизги	-1648
▁систем	-1649
етте	-1650
▁тыюу	-1651
▁Жээн	-1652
▁соода	-1653
▁бала	-1654
▁кезде	-1655
чар	-1656
на	-1657
▁бек	-1658
деген	-1659
▁Анткени	-1660
▁Кыргызстанга	-1661
▁Израил	-1662
▁медицин	-1663
▁Ооганстан	-1664
өрү	-1665
укка	-1666
сүндө	-1667
▁1-	-1668
эн	-1669
ээр	-1670
▁зарыл	-1671
эр	-1672
▁бөлүм	-1673
▁жатабыз	-1674
▁жетекчиси	-1675
▁ишин	-1676
▁пайд	-1677
ти	-1678
ттер	-1679
елен	-1680
▁өзүн	-1681
ушка	-1682
▁таш	-1683
ткөн	-1684
▁кайтар	-1685
утк	-1686
▁пайда	-1687
▁барган	-1688
▁кыймыл	-1689
▁экономикалык	-1690
▁салган	-1691
▁энерг	-1692
▁комм	-1693
▁учурунда	-1694
▁жолугуш	-1695
▁күй	-1696
дж	-1697
▁бере	-1698
▁кен	-1699
оолор	-1700
▁дайын	-1701
▁алууга	-1702
гел	-1703
нун	-1704
кция	-1705
▁бошот	-1706
▁авто	-1707
▁айлан	-1708
дум	-1709
алардын	-1710
▁бу	-1711
▁оо	-1712
▁алма	-1713
▁фон	-1714
бол	-1715
▁100	-1716
▁башкарм	-1717
▁өнүкт	-1718
▁30	-1719
▁жазган	-1720
аг	-1721
▁Вла	-1722
▁Мамлекеттик	-1723
лам	-1724
Көл	-1725
▁изил	-1726
▁2020-	-1727
оол	-1728
терн	-1729
ларга	-1730
▁жарым	-1731
илүү	-1732
▁кетти	-1733
▁котор	-1734
гөй	-1735
имов	-1736
ият	-1737
түр	-1738
мартта	-1739
▁жогорку	-1740
▁кирген	-1741
▁максат	-1742
▁х	-1743
▁колдо	-1744
▁балдар	-1745
▁ади	-1746
▁коркуну	-1747
▁иштери	-1748
▁алка	-1749
имди	-1750
аса	-1751
▁арал	-1752
▁жоопкер	-1753
▁урук	-1754
▁саб	-1755
майда	-1756
рес	-1757
▁ир	-1758
▁алат	-1759
▁мөөнөт	-1760
▁уулу	-1761
ограмм	-1762
▁ири	-1763
▁орган	-1764
▁тараб	-1765
ологиялык	-1766
▁Ошондуктан	-1767
▁мектеп	-1768
▁облусунун	-1769
▁согушт	-1770
▁Ысык	-1771
▁жазылган	-1772
▁эскер	-1773
▁чын	-1774
егинде	-1775
▁опер	-1776
ология	-1777
февр	-1778
өнү	-1779
▁басып	-1780
димир	-1781
▁жарандык	-1782
▁Башкы	-1783
▁12	-1784
▁документт	-1785
▁N	-1786
▁тышкы	-1787
даш	-1788
▁шт	-1789
▁Тал	-1790
алдуу	-1791
▁өлүм	-1792
▁облусунда	-1793
▁Владимир	-1794
гине	-1795
▁себеп	-1796
▁убактылуу	-1797
рд	-1798
үб	-1799
▁жабыр	-1800
▁кит	-1801
▁полиция	-1802
▁түшкөн	-1803
орун	-1804
▁факт	-1805
▁Украинага	-1806
▁белги	-1807
▁жиб	-1808
▁ажыр	-1809
▁алты	-1810
▁канча	-1811
▁Биринчи	-1812
августта	-1813
▁топт	-1814
▁кызматынын	-1815
▁депутат	-1816
аларын	-1817
▁Атам	-1818
▁украин	-1819
▁белгилен	-1820
▁кызык	-1821
бүлө	-1822
бөй	-1823
▁кылмышт	-1824
абы	-1825
▁жоопкерчил	-1826
оону	-1827
▁оорукана	-1828
би	-1829
▁убак	-1830
▁маанилүү	-1831
мон	-1832
▁шект	-1833
▁премьер	-1834
гар	-1835
▁кодек	-1836
▁башкармалы	-1837
чүлөр	-1838
▁миңден	-1839
▁Чүй	-1840
▁байк	-1841
▁кап	-1842
еф	-1843
апрелде	-1844
▁салам	-1845
че	-1846
▁үст	-1847
▁кийинки	-1848
▁бейт	-1849
▁кошумчал	-1850
акет	-1851
бейт	-1852
▁көй	-1853
▁жый	-1854
уктар	-1855
▁аскер	-1856
▁Жээнбеков	-1857
▁жакт	-1858
▁шарт	-1859
лары	-1860
январда	-1861
▁Уч	-1862
▁армия	-1863
арга	-1864
Азаттыкка	-1865
▁иликтөө	-1866
асындагы	-1867
▁аларды	-1868
▁коррупция	-1869
андемия	-1870
угун	-1871
рор	-1872
▁Кан	-1873
▁чейинки	-1874
▁жоо	-1875
▁катуу	-1876
▁болгону	-1877
баган	-1878
▁саат	-1879
итардык	-1880
▁негизинде	-1881
▁башында	-1882
▁эрк	-1883
арий	-1884
ияга	-1885
ттан	-1886
▁сок	-1887
етр	-1888
▁калып	-1889
▁кетип	-1890
ябрь	-1891
ноябрда	-1892
▁алкагында	-1893
▁опп	-1894
▁келе	-1895
▁президенттин	-1896
рон	-1897
▁сунуш	-1898
▁ол	-1899
▁Кыргызстандагы	-1900
синин	-1901
▁бю	-1902
▁план	-1903
▁деңгээл	-1904
▁Дүйн	-1905
▁акч	-1906
▁имар	-1907
ард	-1908
▁кызматкерлер	-1909
ский	-1910
▁орусия	-1911
ишти	-1912
▁кала	-1913
,5	-1914
вок	-1915
▁Казакстандын	-1916
▁кайрылуу	-1917
▁элдин	-1918
▁Конститу	-1919
урда	-1920
▁2021-	-1921
▁элдик	-1922
▁ий	-1923
вест	-1924
▁журналисттер	-1925
ократ	-1926
син	-1927
июнда	-1928
▁ради	-1929
▁Бал	-1930
▁пайыз	-1931
▁куб	-1932
өшт	-1933
▁арт	-1934
▁I	-1935
▁абдан	-1936
▁уруксат	-1937
▁жашоо	-1938
▁Атамбаев	-1939
▁көйгөй	-1940
акч	-1941
▁бат	-1942
▁мун	-1943
сул	-1944
▁Ушул	-1945
▁баштады	-1946
ого	-1947
үштүк	-1948
▁шайлоого	-1949
▁13	-1950
▁мындан	-1951
ымал	-1952
▁дарыл	-1953
▁көл	-1954
▁маш	-1955
оонун	-1956
▁өнөкт	-1957
▁Орусияда	-1958
▁2022-	-1959
ума	-1960
ың	-1961
өмөн	-1962
чулардын	-1963
сүз	-1964
▁сез	-1965
сө	-1966
▁бейтап	-1967
▁адамдын	-1968
▁айтылат	-1969
▁ташт	-1970
▁катышкан	-1971
есине	-1972
▁мадан	-1973
дарына	-1974
▁жарат	-1975
үүчү	-1976
▁Гер	-1977
▁кабарлады	-1978
андык	-1979
▁ыкт	-1980
▁каал	-1981
▁сотко	-1982
▁кыргызстандык	-1983
ух	-1984
дыктан	-1985
▁сайын	-1986
▁ый	-1987
омбул	-1988
▁14	-1989
▁Кам	-1990
дарынын	-1991
жы	-1992
▁Эми	-1993
▁Маалым	-1994
▁жарыялаган	-1995
ерсе	-1996
мөн	-1997
атый	-1998
газ	-1999
үүнүн	-2000
декабрда	-2001
▁берен	-2002
▁көрүн	-2003
атор	-2004
уусу	-2005
▁кызматкерлери	-2006
атыйж	-2007
ебиз	-2008
реж	-2009
▁ык	-2010
▁жатып	-2011
▁катчысы	-2012
▁уу	-2013
▁өттү	-2014
▁Мам	-2015
өөлөр	-2016
▁жашаган	-2017
▁тез	-2018
актар	-2019
▁камакка	-2020
ешк	-2021
▁төмөн	-2022
▁алтын	-2023
УУ	-2024
гек	-2025
▁млрд	-2026
итинг	-2027
▁талапкер	-2028
▁Өк	-2029
акцин	-2030
▁пайдалан	-2031
далган	-2032
амм	-2033
▁жайгашкан	-2034
▁мурун	-2035
▁көпчүл	-2036
дерди	-2037
еспублик	-2038
орон	-2039
▁басым	-2040
од	-2041
▁Брит	-2042
▁ашыр	-2043
▁көрүп	-2044
▁нерсе	-2045
▁четке	-2046
стр	-2047
▁Таш	-2048
еттин	-2049
▁эске	-2050
VI	-2051
ылыш	-2052
▁өзгөрт	-2053
▁авт	-2054
▁салып	-2055
▁илде	-2056
▁ордун	-2057
мо	-2058
өг	-2059
үйш	-2060
иштүү	-2061
▁жеңил	-2062
▁199	-2063
ентарий	-2064
сентябрда	-2065
▁коркунуч	-2066
▁жап	-2067
▁органдар	-2068
▁тиешелүү	-2069
елерди	-2070
▁Ис	-2071
иверс	-2072
▁арада	-2073
өгө	-2074
▁Аны	-2075
▁тарабынан	-2076
▁алгачкы	-2077
▁уча	-2078
▁Учурда	-2079
▁соту	-2080
▁шек	-2081
▁жөнөт	-2082
алим	-2083
▁туш	-2084
▁өткөрүп	-2085
ыгын	-2086
▁катталган	-2087
▁Ст	-2088
▁Белар	-2089
▁дир	-2090
өрүн	-2091
▁аймагында	-2092
▁Ток	-2093
▁чогул	-2094
▁кр	-2095
▁муну	-2096
▁операция	-2097
▁кабин	-2098
▁күндө	-2099
▁комментарий	-2100
▁ары	-2101
ач	-2102
байт	-2103
▁каз	-2104
▁фор	-2105
▁талкуу	-2106
ИМ	-2107
▁автоуна	-2108
ибиз	-2109
арынын	-2110
▁белгисиз	-2111
ээрлик	-2112
▁милдетт	-2113
▁ачыл	-2114
ари	-2115
▁Мак	-2116
▁демил	-2117
аттан	-2118
рамп	-2119
▁депутаты	-2120
▁оору	-2121
беген	-2122
▁Мат	-2123
иверсит	-2124
▁азырынча	-2125
езгил	-2126
▁инвест	-2127
▁тармактар	-2128
▁нааразылык	-2129
▁18	-2130
ья	-2131
бур	-2132
▁Ич	-2133
▁эреж	-2134
▁Трамп	-2135
▁жактан	-2136
лоо	-2137
июлда	-2138
▁башчы	-2139
▁коопсузду	-2140
ашы	-2141
▁Бол	-2142
▁турукт	-2143
-19	-2144
▁тапкан	-2145
▁мат	-2146
▁реж	-2147
есинин	-2148
▁казак	-2149
▁жерге	-2150
▁об	-2151
▁Бүгүн	-2152
▁Абд	-2153
▁ден	-2154
устун	-2155
▁бет	-2156
▁вакцин	-2157
▁Бишкектин	-2158
пл	-2159
▁от	-2160
▁жазып	-2161
▁Герман	-2162
on	-2163
▁миллиард	-2164
▁зы	-2165
▁бюдж	-2166
▁директ	-2167
ийин	-2168
ктагы	-2169
▁кыйын	-2170
ылганын	-2171
сүнө	-2172
▁чакырды	-2173
▁Киев	-2174
▁тов	-2175
▁ичинен	-2176
▁кеп	-2177
пар	-2178
үлдү	-2179
дөгөн	-2180
▁пандемия	-2181
▁жыйынында	-2182
▁ракет	-2183
▁Кара	-2184
ңиз	-2185
▁10-	-2186
▁эрт	-2187
уулук	-2188
пөй	-2189
▁2019-	-2190
▁баштап	-2191
▁чыгарып	-2192
умтөр	-2193
▁түрдө	-2194
емп	-2195
дыгын	-2196
▁университ	-2197
▁Жак	-2198
аларга	-2199
герлер	-2200
▁сүйлөшүүлөр	-2201
▁каражат	-2202
▁каранды	-2203
▁мезгил	-2204
▁тан	-2205
▁Кыз	-2206
▁жибер	-2207
▁былтыр	-2208
улат	-2209
▁автор	-2210
жылдан	-2211
▁санкция	-2212
▁орто	-2213
▁окуялар	-2214
мок	-2215
▁16	-2216
▁Орусияга	-2217
Би	-2218
▁Би	-2219
▁муз	-2220
гүл	-2221
▁жылдын	-2222
ирүү	-2223
ттин	-2224
▁Ю	-2225
▁өс	-2226
▁сыртк	-2227
▁түзүлгөн	-2228
▁Тажикстандын	-2229
бү	-2230
илер	-2231
▁чыга	-2232
▁калтыр	-2233
▁Ички	-2234
▁тург	-2235
▁инф	-2236
диги	-2237
▁Тур	-2238
▁тилк	-2239
▁ыраст	-2240
▁карашт	-2241
▁Кытайдын	-2242
▁Мис	-2243
▁Бишкектеги	-2244
▁кирип	-2245
▁Аск	-2246
алында	-2247
▁лидери	-2248
аңы	-2249
▁аякт	-2250
алууда	-2251
▁медициналык	-2252
▁адист	-2253
үштү	-2254
▁кызматтан	-2255
ышкы	-2256
▁кым	-2257
Азатт	-2258
▁аян	-2259
▁укугу	-2260
▁митинг	-2261
тти	-2262
▁дээрлик	-2263
шу	-2264
хан	-2265
▁өтүн	-2266
▁билдирип	-2267
▁таг	-2268
▁коюлган	-2269
▁50	-2270
▁кармап	-2271
▁Баш	-2272
уучулар	-2273
▁кошумчалады	-2274
▁элчил	-2275
▁түрк	-2276
еге	-2277
аман	-2278
▁Жол	-2279
▁куу	-2280
▁17	-2281
▁4-	-2282
елери	-2283
▁программ	-2284
ид	-2285
▁учурлар	-2286
er	-2287
маз	-2288
▁шаарынын	-2289
▁Министрлер	-2290
▁курам	-2291
▁Токт	-2292
уктур	-2293
▁им	-2294
▁тарткан	-2295
▁спорт	-2296
▁суроо	-2297
▁Биздин	-2298
▁адвок	-2299
▁далил	-2300
жол	-2301
▁боло	-2302
▁матери	-2303
▁дипл	-2304
▁депутаттар	-2305
▁Эки	-2306
▁маселеси	-2307
▁Өл	-2308
▁ортосундагы	-2309
▁террор	-2310
▁макс	-2311
▁орусиялык	-2312
▁CO	-2313
азар	-2314
исттик	-2315
ина	-2316
атив	-2317
ашты	-2318
▁мүчөлөр	-2319
▁көбү	-2320
ликт	-2321
▁бой	-2322
▁Кылм	-2323
▁зыян	-2324
▁Салам	-2325
▁жетиш	-2326
аттардын	-2327
▁маселелер	-2328
▁радиос	-2329
▁иштет	-2330
еришт	-2331
укту	-2332
▁Кийин	-2333
▁2-	-2334
▁өлтүр	-2335
▁өнүктүрүү	-2336
▁окш	-2337
VID	-2338
▁сөө	-2339
Ата	-2340
айн	-2341
▁жо	-2342
дордун	-2343
▁кесип	-2344
▁газ	-2345
▁кантип	-2346
▁Бек	-2347
▁Та	-2348
▁талкуул	-2349
▁Нарын	-2350
▁25	-2351
▁аскерлер	-2352
уудан	-2353
▁тран	-2354
▁чыгарган	-2355
евдин	-2356
▁Алек	-2357
▁калат	-2358
▁БУУ	-2359
▁видео	-2360
орлор	-2361
циянын	-2362
▁Мисалы	-2363
▁баарын	-2364
▁5-	-2365
▁өнүг	-2366
чулары	-2367
ысынан	-2368
▁15-	-2369
Азаттыктын	-2370
егер	-2371
▁баракч	-2372
дүүл	-2373
▁жети	-2374
▁телеф	-2375
▁кайрадан	-2376
ктык	-2377
▁коюп	-2378
▁жасаган	-2379
ШК	-2380
▁кээ	-2381
өөгө	-2382
▁Жар	-2383
гемен	-2384
илип	-2385
февралда	-2386
▁ада	-2387
▁каражаттар	-2388
▁Байден	-2389
▁көргөн	-2390
ейс	-2391
уден	-2392
▁Түркия	-2393
▁Ол	-2394
▁районунун	-2395
▁Сул	-2396
▁мар	-2397
▁өкмөттүн	-2398
асынан	-2399
▁болбойт	-2400
▁парламенттик	-2401
оочу	-2402
ырм	-2403
акта	-2404
▁20-	-2405
▁таң	-2406
▁7-	-2407
чалык	-2408
▁тон	-2409
▁диний	-2410
ейш	-2411
▁жылы	-2412
▁кымб	-2413
▁ас	-2414
илет	-2415
▁үл	-2416
▁парламент	-2417
емпи	-2418
▁3-	-2419
▁Быйыл	-2420
▁кадам	-2421
▁жогору	-2422
▁инстит	-2423
▁экономик	-2424
▁Алмаз	-2425
ылбек	-2426
▁сында	-2427
▁эскерт	-2428
▁кул	-2429
▁туруп	-2430
оль	-2431
▁Сүр	-2432
▁адм	-2433
▁белгилеп	-2434
▁Ком	-2435
▁Анан	-2436
▁натыйж	-2437
буз	-2438
ткен	-2439
▁басылм	-2440
ырып	-2441
▁мекен	-2442
▁No	-2443
▁каран	-2444
▁аттуу	-2445
ерлерди	-2446
▁Ташиев	-2447
▁кошумча	-2448
ея	-2449
бетте	-2450
гындагы	-2451
▁Мир	-2452
дел	-2453
▁9-	-2454
▁COVID	-2455
▁Айт	-2456
▁райондор	-2457
▁кылуу	-2458
▁күндөрү	-2459
▁баян	-2460
▁жарыялады	-2461
▁те	-2462
▁мамлекеттер	-2463
▁мис	-2464
ыб	-2465
▁T	-2466
▁партиясынын	-2467
гынан	-2468
кар	-2469
▁фин	-2470
▁күб	-2471
▁Евро	-2472
▁Матра	-2473
ыны	-2474
▁банк	-2475
чусу	-2476
▁кыс	-2477
угалим	-2478
▁бөлүн	-2479
ини	-2480
▁өкмөтү	-2481
▁курулуш	-2482
▁макулдаш	-2483
инистрация	-2484
Си	-2485
▁мэр	-2486
▁мамиле	-2487
▁соттун	-2488
астан	-2489
гу	-2490
▁11-	-2491
▁ирет	-2492
▁багытт	-2493
▁сырткары	-2494
▁көлөм	-2495
▁ыктымал	-2496
▁максатында	-2497
▁шаарындагы	-2498
▁Жер	-2499
▁долбоору	-2500
▁аныкталган	-2501
▁таян	-2502
сында	-2503
едер	-2504
▁кызматкери	-2505
▁аларга	-2506
олд	-2507
▁үйлөр	-2508
▁администрация	-2509
асп	-2510
ербай	-2511
▁Дон	-2512
▁мүл	-2513
▁бийликтин	-2514
▁Уюм	-2515
▁зомбул	-2516
▁каттоо	-2517
▁айтканда	-2518
берен	-2519
▁жерлер	-2520
▁облустук	-2521
▁айынан	-2522
бия	-2523
тай	-2524
▁каржыл	-2525
▁карабай	-2526
▁тажик	-2527
▁улант	-2528
▁Мас	-2529
▁Тышкы	-2530
▁кылды	-2531
▁оорукан	-2532
▁Өзбекстандын	-2533
андын	-2534
▁Зелен	-2535
атр	-2536
▁чемпи	-2537
▁сай	-2538
▁миңдей	-2539
анас	-2540
суна	-2541
▁адамдардын	-2542
▁Айрым	-2543
▁Бий	-2544
▁кызы	-2545
▁Сүрөтт	-2546
▁товар	-2547
▁кишинин	-2548
ушту	-2549
▁өч	-2550
▁дүйнөлүк	-2551
▁Жаңы	-2552
есинде	-2553
мин	-2554
▁вирус	-2555
таж	-2556
матов	-2557
▁демократ	-2558
▁ортосунда	-2559
▁жарыяланган	-2560
жар	-2561
улду	-2562
кор	-2563
▁апта	-2564
▁мамлекеттин	-2565
өөл	-2566
▁Сир	-2567
▁абалы	-2568
▁мүчөсү	-2569
▁студен	-2570
▁бизге	-2571
▁болуш	-2572
▁аг	-2573
▁Себ	-2574
▁жокко	-2575
▁теришт	-2576
▁көрсөткүч	-2577
йр	-2578
▁талапк	-2579
▁укуктар	-2580
көм	-2581
▁бү	-2582
олду	-2583
уман	-2584
▁Дем	-2585
▁жуг	-2586
▁тапта	-2587
▁чечими	-2588
▁Зеленский	-2589
▁6-	-2590
▁Украинадагы	-2591
үндөгү	-2592
▁кызыкчыл	-2593
ева	-2594
▁түшүп	-2595
▁эмгек	-2596
▁кырсы	-2597
▁телефон	-2598
▁ээл	-2599
▁түзгөн	-2600
пей	-2601
акция	-2602
▁көпт	-2603
▁айдоо	-2604
туп	-2605
▁Соорон	-2606
анган	-2607
▁8-	-2608
▁бараткан	-2609
▁салынган	-2610
Ал	-2611
▁метр	-2612
бар	-2613
илди	-2614
цион	-2615
▁бизн	-2616
▁алганын	-2617
▁бийликке	-2618
олуп	-2619
өйр	-2620
▁козголгон	-2621
▁кызматташт	-2622
▁жакта	-2623
▁тартылган	-2624
▁кодексинин	-2625
▁уг	-2626
атып	-2627
маты	-2628
▁Себеби	-2629
тал	-2630
ларын	-2631
▁телек	-2632
иясы	-2633
▁режим	-2634
мун	-2635
▁сиз	-2636
▁сайт	-2637
▁Ав	-2638
баева	-2639
ылт	-2640
▁жетект	-2641
▁көчө	-2642
▁ю	-2643
▁Борбордук	-2644
▁Саламаттык	-2645
▁өзүнө	-2646
▁берүүгө	-2647
▁оппозиция	-2648
▁маалымдады	-2649
▁Сүрөттүн	-2650
ице	-2651
оопсуз	-2652
▁салык	-2653
аниянын	-2654
▁белгилеген	-2655
▁рефор	-2656
▁жеткен	-2657
▁өлкөдөгү	-2658
▁эп	-2659
▁24-	-2660
▁мугалим	-2661
мушт	-2662
".	-2663
▁кабарлаган	-2664
укул	-2665
▁уюмдар	-2666
▁маалыматты	-2667
орду	-2668
▁башкаруу	-2669
акты	-2670
▁эсеб	-2671
ашып	-2672
ti	-2673
▁кесеп	-2674
▁жабырка	-2675
▁аппар	-2676
▁Кай	-2677
▁алыш	-2678
▁Кош	-2679
ад	-2680
▁эксперт	-2681
сек	-2682
▁18-	-2683
арына	-2684
бирим	-2685
▁ишеним	-2686
ңыз	-2687
▁25-	-2688
▁зам	-2689
▁байланыш	-2690
алоо	-2691
▁комитетинин	-2692
ербайжан	-2693
ейсб	-2694
▁Республик	-2695
▁мигранттар	-2696
),	-2697
раз	-2698
▁Кеңеш	-2699
▁калганын	-2700
дия	-2701
▁бою	-2702
▁карма	-2703
▁киреш	-2704
▁Экинчи	-2705
дөп	-2706
истан	-2707
октябр	-2708
▁кармалып	-2709
алдар	-2710
дешт	-2711
▁Тер	-2712
▁болорун	-2713
▁китеп	-2714
игине	-2715
▁мүнө	-2716
жылдары	-2717
айы	-2718
▁куралдуу	-2719
ков	-2720
▁кыск	-2721
▁келин	-2722
▁өлкөгө	-2723
▁кабылган	-2724
▁пл	-2725
ешкен	-2726
▁уюмунун	-2727
▁болбой	-2728
▁жараны	-2729
▁Евробирим	-2730
▁чыр	-2731
ларда	-2732
үктөр	-2733
▁Фран	-2734
▁жаңж	-2735
сиянын	-2736
▁күчөт	-2737
▁маалда	-2738
▁Камчы	-2739
▁суроолор	-2740
емб	-2741
икке	-2742
ферен	-2743
▁качан	-2744
▁Казакстанда	-2745
▁курч	-2746
▁кеңешинин	-2747
▁40	-2748
▁Чек	-2749
үлөт	-2750
▁сокку	-2751
алга	-2752
дерге	-2753
▁отурган	-2754
▁калк	-2755
▁сегиз	-2756
ma	-2757
иккен	-2758
▁кезект	-2759
ашкан	-2760
огуз	-2761
▁кыйн	-2762
▁сомго	-2763
юз	-2764
▁албайт	-2765
▁согушка	-2766
▁жарандар	-2767
▁бут	-2768
▁салышт	-2769
▁жүрүш	-2770
▁A	-2771
али	-2772
алай	-2773
▁ишм	-2774
▁эмге	-2775
▁шайлоодо	-2776
▁долбоорун	-2777
▁бей	-2778
▁ордуна	-2779
▁28-	-2780
▁30-	-2781
▁белгиленген	-2782
ью	-2783
исттер	-2784
баевдин	-2785
▁жакында	-2786
▁Коронавир	-2787
кел	-2788
атыр	-2789
▁17-	-2790
▁кабинетинин	-2791
асс	-2792
▁жылда	-2793
▁Гүл	-2794
▁жасап	-2795
▁мектепт	-2796
дыруу	-2797
▁Мыйзам	-2798
өөк	-2799
етке	-2800
▁айтылып	-2801
алышы	-2802
▁нерс	-2803
▁койду	-2804
▁чогуу	-2805
▁бөлүгү	-2806
▁команда	-2807
сынан	-2808
үндүк	-2809
▁ыйгар	-2810
алдын	-2811
▁Талас	-2812
▁изилдөө	-2813
▁кайрылган	-2814
▁саламаттык	-2815
▁Ад	-2816
▁убакыт	-2817
▁ыс	-2818
орбору	-2819
▁республ	-2820
▁курман	-2821
▁топтор	-2822
▁өтөт	-2823
▁бериш	-2824
▁аялдар	-2825
▁жума	-2826
▁өкүм	-2827
▁чукул	-2828
ож	-2829
▁Шайл	-2830
▁2023-	-2831
▁токто	-2832
▁14-	-2833
уттар	-2834
иси	-2835
▁борбору	-2836
▁бекем	-2837
дөрүнүн	-2838
▁Көп	-2839
▁Мунун	-2840
▁сомдон	-2841
уктун	-2842
жылдагы	-2843
▁Акылбек	-2844
▁убада	-2845
▁эсептейт	-2846
адан	-2847
▁жашап	-2848
▁жетти	-2849
▁Кылмыш	-2850
▁керектигин	-2851
▁үз	-2852
▁айда	-2853
▁Өткөн	-2854
▁Расмий	-2855
▁биргел	-2856
▁кескин	-2857
▁алынып	-2858
▁жерден	-2859
▁интерн	-2860
...1	-2861
▁жолдо	-2862
Тал	-2863
▁ката	-2864
▁эгемен	-2865
▁16-	-2866
▁корго	-2867
▁директору	-2868
аша	-2869
дигин	-2870
▁буйр	-2871
▁тарта	-2872
▁23-	-2873
уусун	-2874
▁кайрыл	-2875
▁барат	-2876
▁телекан	-2877
▁("	-2878
▁БШК	-2879
▁Амер	-2880
▁жараат	-2881
▁билдиргендей	-2882
агыл	-2883
ъект	-2884
▁уюму	-2885
▁иштерин	-2886
екке	-2887
▁тараткан	-2888
▁киргизилген	-2889
анып	-2890
ттик	-2891
▁жакка	-2892
рый	-2893
акан	-2894
тажик	-2895
▁Азыркы	-2896
▁башкармалыгынын	-2897
▁24	-2898
▁жылдык	-2899
▁Ил	-2900
оюн	-2901
оңку	-2902
▁12-	-2903
▁ишти	-2904
▁проц	-2905
▁Ас	-2906
овду	-2907
▁элге	-2908
▁Түркиянын	-2909
▁Өмүр	-2910
▁жашыр	-2911
▁алынды	-2912
дери	-2913
еттер	-2914
▁турак	-2915
аттарды	-2916
руз	-2917
раф	-2918
▁мыкты	-2919
кап	-2920
▁окт	-2921
утбол	-2922
▁вице	-2923
▁карантин	-2924
есс	-2925
▁Дүйш	-2926
▁Темир	-2927
▁карыз	-2928
Кыргыз	-2929
▁мигрантт	-2930
▁туруктуу	-2931
▁көрсөткөн	-2932
▁Түштүк	-2933
▁бөгө	-2934
▁Батыш	-2935
▁Мекем	-2936
бөл	-2937
▁Жум	-2938
▁S	-2939
▁келеч	-2940
▁маселени	-2941
ный	-2942
▁22-	-2943
▁андай	-2944
▁анан	-2945
▁таап	-2946
▁ооруканага	-2947
▁коронавируска	-2948
▁эст	-2949
▁инвестиция	-2950
аак	-2951
ема	-2952
▁күнөөл	-2953
▁отурум	-2954
▁темир	-2955
▁айтылды	-2956
▁башалам	-2957
▁жарандары	-2958
▁кошт	-2959
үң	-2960
ырт	-2961
бет	-2962
▁күм	-2963
▁каттам	-2964
▁19-	-2965
▁жыйынтыгы	-2966
▁мекемелер	-2967
▁аракети	-2968
▁жылдары	-2969
▁маалыматка	-2970
▁үм	-2971
▁Май	-2972
иктер	-2973
▁калыб	-2974
▁жасалган	-2975
цияга	-2976
▁амер	-2977
▁сүрөт	-2978
▁Жапаровдун	-2979
кум	-2980
▁бл	-2981
убуз	-2982
▁Тил	-2983
▁азай	-2984
▁жүрөт	-2985
▁тууган	-2986
▁Корея	-2987
▁турганы	-2988
▁Акыркы	-2989
▁ошон	-2990
ембиде	-2991
▁арасындагы	-2992
шти	-2993
асыз	-2994
уттуу	-2995
▁сөздөр	-2996
уккан	-2997
▁өнөр	-2998
▁Алмазбек	-2999
АТ	-3000
▁коң	-3001
аганын	-3002
атында	-3003
масы	-3004
омат	-3005
▁акын	-3006
елип	-3007
оопсуздук	-3008
▁саясатчы	-3009
▁БУУнун	-3010
дем	-3011
дырып	-3012
▁тажрый	-3013
▁Дүйнөлүк	-3014
ерв	-3015
луу	-3016
импи	-3017
▁тобу	-3018
▁Азербайжан	-3019
ткан	-3020
удья	-3021
▁акы	-3022
▁чыгыш	-3023
▁каралган	-3024
es	-3025
жин	-3026
▁аты	-3027
▁тартип	-3028
ЭБ	-3029
оор	-3030
атын	-3031
ларында	-3032
Кыргызстан	-3033
ализ	-3034
те	-3035
▁27-	-3036
▁атындагы	-3037
▁на	-3038
▁стат	-3039
▁Армен	-3040
▁калыбына	-3041
▁Ошент	-3042
сам	-3043
▁Деп	-3044
▁баасы	-3045
▁кайрылып	-3046
▁агенттиги	-3047
бан	-3048
▁туул	-3049
▁аэ	-3050
асым	-3051
▁тут	-3052
▁чара	-3053
арында	-3054
▁2018-	-3055
▁түзөт	-3056
▁кайтып	-3057
▁Матраимов	-3058
▁Иш	-3059
▁Былтыр	-3060
▁жагынан	-3061
▁мага	-3062
▁ондогон	-3063
түл	-3064
өшк	-3065
▁Ака	-3066
▁жаан	-3067
▁адамга	-3068
▁тийгиз	-3069
иң	-3070
алыш	-3071
ттуу	-3072
▁штаб	-3073
▁Соңку	-3074
in	-3075
игинин	-3076
▁укуктары	-3077
▁бара	-3078
▁карш	-3079
▁бирге	-3080
▁Британия	-3081
▁кабарланды	-3082
АС	-3083
УКМК	-3084
▁менин	-3085
▁уна	-3086
▁арга	-3087
▁чемпион	-3088
мек	-3089
сыздан	-3090
акистан	-3091
▁соттук	-3092
▁насы	-3093
▁жогор	-3094
▁чакырым	-3095
▁мыйзамга	-3096
▁көрсөтүп	-3097
▁камсыздоо	-3098
▁жүргүзүп	-3099
▁кармалды	-3100
▁стан	-3101
▁манда	-3102
▁тараптуу	-3103
ылууда	-3104
▁коргон	-3105
▁аң	-3106
▁ку	-3107
▁Сан	-3108
▁чарба	-3109
Бир	-3110
▁айл	-3111
▁ишине	-3112
ңар	-3113
▁сум	-3114
▁айта	-3115
▁Куб	-3116
елген	-3117
за	-3118
пайт	-3119
▁бажы	-3120
▁мүмкүнчүлүк	-3121
еде	-3122
▁Шт	-3123
▁жалгыз	-3124
▁бак	-3125
бөгөн	-3126
даган	-3127
▁ишмер	-3128
▁кеминде	-3129
▁комитети	-3130
▁Маалыматка	-3131
▁тай	-3132
▁Жалп	-3133
▁тоск	-3134
ышка	-3135
устан	-3136
▁сыйл	-3137
иядагы	-3138
▁көпчүлүк	-3139
иза	-3140
ремл	-3141
▁кагыл	-3142
▁тогуз	-3143
▁чектөө	-3144
▁башынан	-3145
▁Сооронбай	-3146
▁жүк	-3147
сүнүн	-3148
Талиб	-3149
▁күнгө	-3150
нот	-3151
▁таза	-3152
▁күндөн	-3153
▁түзүп	-3154
▁берүүнү	-3155
▁өтүнүч	-3156
ыч	-3157
аларда	-3158
▁түрмө	-3159
▁аскерлери	-3160
▁машы	-3161
▁бийликти	-3162
▁Али	-3163
▁институт	-3164
▁21	-3165
▁13-	-3166
▁ажырат	-3167
сунда	-3168
гунт	-3169
▁чыгым	-3170
▁катышуу	-3171
▁Депут	-3172
▁тиешеси	-3173
▁өлкөлөрдүн	-3174
ээк	-3175
чынын	-3176
▁аябай	-3177
▁көбүр	-3178
▁Мил	-3179
▁зав	-3180
стыкт	-3181
▁дароо	-3182
президен	-3183
▁чыгаруу	-3184
▁миңдеген	-3185
▁Ошт	-3186
▁сүрөтт	-3187
▁компаниясы	-3188
")	-3189
▁ы	-3190
▁Муну	-3191
▁алганы	-3192
▁жолдор	-3193
дур	-3194
▁жатканда	-3195
▁22	-3196
▁21-	-3197
▁табылган	-3198
▁Коопсуздук	-3199
tion	-3200
▁экс	-3201
▁жумш	-3202
▁түшүр	-3203
эк	-3204
▁тамак	-3205
▁түзүү	-3206
иф	-3207
лиги	-3208
оодо	-3209
убай	-3210
▁күчтөрү	-3211
▁булактар	-3212
бу	-3213
▁Ку	-3214
ясий	-3215
▁Өлкө	-3216
▁куруу	-3217
▁Алматы	-3218
▁прокуратура	-3219
▁29-	-3220
етин	-3221
▁криз	-3222
▁министринин	-3223
▁коё	-3224
▁Өкмөт	-3225
▁Камчыбек	-3226
цен	-3227
өөнүн	-3228
▁жасал	-3229
▁Бириккен	-3230
▁өзгөртүү	-3231
ыма	-3232
жылга	-3233
▁демилг	-3234
▁самм	-3235
▁кеткенин	-3236
▁500	-3237
уктаж	-3238
▁нааразы	-3239
ентке	-3240
ыктан	-3241
▁тынчтык	-3242
▁парламенттин	-3243
эл	-3244
укта	-3245
улуш	-3246
екция	-3247
▁көмө	-3248
▁мүнөз	-3249
▁тоскоол	-3250
▁энергет	-3251
▁өлкөдөн	-3252
яны	-3253
▁жакшыр	-3254
▁Албетте	-3255
▁карандысыз	-3256
усул	-3257
▁УКМКнын	-3258
▁үйр	-3259
▁экөө	-3260
▁берилди	-3261
▁шайлоонун	-3262
▁арн	-3263
еск	-3264
▁катышып	-3265
▁караштуу	-3266
АТО	-3267
▁соз	-3268
▁куугунт	-3269
слам	-3270
▁көрсөтүлгөн	-3271
овго	-3272
▁жогот	-3273
▁сактап	-3274
лайн	-3275
▁баа	-3276
усулман	-3277
▁26-	-3278
▁ИИМ	-3279
▁Нав	-3280
▁кеңешт	-3281
▁муктаж	-3282
▁киргизүү	-3283
▁маселесин	-3284
уманитардык	-3285
▁экспер	-3286
▁позиция	-3287
▁мүчөлөрү	-3288
изация	-3289
▁өткөрүү	-3290
▁алмаштыр	-3291
ыла	-3292
▁Каб	-3293
ланып	-3294
▁дегенде	-3295
▁көптөгөн	-3296
▁облусундагы	-3297
деди	-3298
олуу	-3299
үнчү	-3300
өөнү	-3301
▁Кремл	-3302
▁олуттуу	-3303
ca	-3304
ратег	-3305
▁трансп	-3306
▁Өзгөчө	-3307
▁органдары	-3308
▁билдирүүдө	-3309
▁60	-3310
▁Асан	-3311
▁окуп	-3312
▁аэроп	-3313
▁көмүр	-3314
чам	-3315
▁эгер	-3316
▁Бил	-3317
▁азык	-3318
▁соол	-3319
▁күйөө	-3320
чылары	-3321
▁үчүнчү	-3322
▁объект	-3323
▁колдогон	-3324
▁кызматташ	-3325
ылышы	-3326
▁энергия	-3327
▁айылында	-3328
▁документ	-3329
▁маалыматтарды	-3330
▁пасп	-3331
▁аткаруу	-3332
▁жылды	-3333
ашинг	-3334
▁тараптан	-3335
▁чың	-3336
▁толугу	-3337
▁футбол	-3338
▁балдардын	-3339
▁каражаттары	-3340
кл	-3341
сих	-3342
арак	-3343
▁таз	-3344
ондук	-3345
▁Парлам	-3346
▁атаанда	-3347
en	-3348
▁Я	-3349
есе	-3350
ктардын	-3351
▁илимий	-3352
▁жалпысынан	-3353
▁миңге	-3354
ордун	-3355
▁сынга	-3356
▁бербей	-3357
▁Сот	-3358
▁жокт	-3359
▁жарак	-3360
▁Эконом	-3361
▁жаштар	-3362
атынын	-3363
▁маалыматы	-3364
?"	-3365
▁НАТО	-3366
▁маж	-3367
▁уур	-3368
▁2017-	-3369
▁салды	-3370
▁тагдыр	-3371
▁Рос	-3372
▁дек	-3373
▁болууда	-3374
▁ака	-3375
емпир	-3376
▁бойдон	-3377
▁чечимин	-3378
▁көбүрөөк	-3379
▁партиясы	-3380
▁судья	-3381
▁Вашинг	-3382
▁Султан	-3383
▁жуктур	-3384
▁шектүү	-3385
гым	-3386
ушк	-3387
▁чал	-3388
▁Түндүк	-3389
▁кама	-3390
▁мамлекетке	-3391
ыйкат	-3392
▁Адам	-3393
мөнстан	-3394
▁армиясы	-3395
▁пикирин	-3396
▁комитет	-3397
▁миграция	-3398
арк	-3399
▁Жаз	-3400
▁өтпөй	-3401
▁Коронавирус	-3402
рад	-3403
▁жаңыл	-3404
▁мед	-3405
▁колдонуу	-3406
бө	-3407
▁Ц	-3408
ким	-3409
▁мунай	-3410
▁токтом	-3411
▁маегинде	-3412
▁доо	-3413
▁түнү	-3414
▁аткан	-3415
▁чөйр	-3416
▁эсеп	-3417
▁тургуну	-3418
анд	-3419
▁Үч	-3420
▁машин	-3421
▁таянып	-3422
▁канчалык	-3423
▁текшерүү	-3424
кон	-3425
▁тир	-3426
▁Орусиядагы	-3427
өттү	-3428
альный	-3429
▁аймактарда	-3430
al	-3431
аныш	-3432
ышууда	-3433
▁болмок	-3434
▁сүйлөшүү	-3435
▁долбоорлор	-3436
▁ген	-3437
▁кылат	-3438
▁камалган	-3439
▁активисттер	-3440
КУ	-3441
гул	-3442
▁өң	-3443
ектер	-3444
ыктуу	-3445
▁ооган	-3446
өлгөн	-3447
▁Аталган	-3448
▁районунда	-3449
гыр	-3450
ьян	-3451
▁турм	-3452
▁орнот	-3453
▁түрдүү	-3454
▁ишкерлер	-3455
▁айдан	-3456
▁келгенин	-3457
▁23	-3458
▁корку	-3459
▁тонна	-3460
▁Коргоо	-3461
▁адамды	-3462
▁Жан	-3463
▁иде	-3464
▁насыя	-3465
▁мөөнөтү	-3466
▁Пакистан	-3467
ойт	-3468
▁Төр	-3469
▁айга	-3470
▁кызматка	-3471
▁америкалык	-3472
бой	-3473
богон	-3474
▁Кадыр	-3475
▁милдетин	-3476
▁дарыгерлер	-3477
▁27	-3478
▁кин	-3479
▁театр	-3480
▁жетекчи	-3481
▁болгондуктан	-3482
▁кил	-3483
▁тоо	-3484
▁Орус	-3485
▁базар	-3486
▁Бакиев	-3487
▁чектөөлөр	-3488
СС	-3489
лап	-3490
▁кийим	-3491
үүлөрдү	-3492
сен	-3493
▁тастыкт	-3494
АМ	-3495
ттын	-3496
▁атып	-3497
▁билген	-3498
ерн	-3499
▁Эн	-3500
▁ооз	-3501
▁Башка	-3502
▁укугун	-3503
▁300	-3504
▁маалында	-3505
an	-3506
▁Токаев	-3507
▁издөө	-3508
▁калса	-3509
▁тоолуу	-3510
▁жүй	-3511
▁айлык	-3512
▁талаш	-3513
▁Эгерде	-3514
обил	-3515
дардан	-3516
ативдик	-3517
▁айтууда	-3518
▁сар	-3519
▁кара	-3520
▁берилет	-3521
▁Биримди	-3522
▁аргасыз	-3523
▁Навальный	-3524
▁түшүндүрмө	-3525
▁26	-3526
▁80	-3527
▁күз	-3528
▁кошо	-3529
▁аткыл	-3530
▁келат	-3531
ЭС	-3532
еж	-3533
агаз	-3534
▁убакы	-3535
▁эркинен	-3536
өбүз	-3537
ырган	-3538
▁апрел	-3539
▁качып	-3540
▁кетет	-3541
▁Курман	-3542
▁себепт	-3543
▁2010-	-3544
▁тартуу	-3545
ектен	-3546
▁Негиз	-3547
▁бирөө	-3548
▁өзбек	-3549
▁себеби	-3550
▁фр	-3551
▁Касым	-3552
▁жакындары	-3553
▁партиянын	-3554
▁иштей	-3555
▁көтөрүп	-3556
▁мей	-3557
угуна	-3558
▁эртең	-3559
▁адамдарды	-3560
50	-3561
▁тала	-3562
ктарды	-3563
ити	-3564
▁ави	-3565
▁бөгөт	-3566
еринин	-3567
▁калуу	-3568
▁ойлой	-3569
▁бизнес	-3570
▁алдынча	-3571
▁тынчсыздан	-3572
есур	-3573
▁түп	-3574
▁кабарланган	-3575
ушкан	-3576
▁жаза	-3577
▁экст	-3578
▁онлайн	-3579
▁Улуттар	-3580
▁баракчасына	-3581
▁коррупцияга	-3582
▁тийиш	-3583
▁дипломат	-3584
▁0	-3585
▁Үй	-3586
дөрүн	-3587
▁2016-	-3588
▁бүгүнкү	-3589
АМАС	-3590
▁ыра	-3591
▁Чыгы	-3592
▁көрсөтүү	-3593
▁төрагасынын	-3594
▁мектептер	-3595
▁маалыматта	-3596
рист	-3597
амир	-3598
▁сөөгү	-3599
▁колдоп	-3600
▁башталды	-3601
кай	-3602
▁кылын	-3603
▁мажбур	-3604
▁катышты	-3605
▁тарапта	-3606
▁чакырган	-3607
▁Республикасынын	-3608
▁дрон	-3609
▁Кошмо	-3610
▁Орусиядан	-3611
▁Сиз	-3612
▁жугуз	-3613
▁өзүнчө	-3614
▁болбосо	-3615
▁Улуу	-3616
▁болжол	-3617
амин	-3618
малар	-3619
▁алмаш	-3620
▁чыгат	-3621
ван	-3622
асст	-3623
▁мени	-3624
▁салма	-3625
▁коргоочу	-3626
▁70	-3627
өмбү	-3628
ктары	-3629
▁өзүм	-3630
▁түзүм	-3631
▁баалуу	-3632
▁эскертти	-3633
▁деңгээлде	-3634
▁кандайдыр	-3635
▁маалымдаган	-3636
▁сел	-3637
▁акыр	-3638
▁кагаз	-3639
ми	-3640
зак	-3641
▁менч	-3642
▁өртт	-3643
▁ресур	-3644
▁тийиштүү	-3645
▁компаниясынын	-3646
Суу	-3647
асма	-3648
енко	-3649
▁мел	-3650
ышканын	-3651
▁өнөктөшт	-3652
сей	-3653
▁ХАМАС	-3654
▁деңиз	-3655
▁стратег	-3656
▁аймактык	-3657
▁Вашингтон	-3658
емби	-3659
▁Бейш	-3660
▁Кумтөр	-3661
өгү	-3662
▁имп	-3663
▁пул	-3664
чилик	-3665
▁караб	-3666
▁аягына	-3667
▁Мурдагы	-3668
бызды	-3669
▁салым	-3670
▁жараша	-3671
ель	-3672
▁Рах	-3673
үктү	-3674
▁Менин	-3675
▁эмгект	-3676
▁R	-3677
▁тос	-3678
гөнүн	-3679
▁бары	-3680
бекова	-3681
ларынын	-3682
гөз	-3683
Кумтөр	-3684
▁чыгуу	-3685
▁майрам	-3686
▁Ирандын	-3687
▁Фин	-3688
артам	-3689
кулов	-3690
▁жандан	-3691
19	-3692
уң	-3693
амат	-3694
▁го	-3695
▁Мына	-3696
импиада	-3697
▁азайт	-3698
▁жөнгө	-3699
▁аныкталды	-3700
анс	-3701
▁Сар	-3702
▁Түркмөнстан	-3703
өң	-3704
▁өмүрүн	-3705
▁кырдаалдар	-3706
алаган	-3707
▁гектар	-3708
▁гуманитардык	-3709
▁Жо	-3710
▁сек	-3711
▁терең	-3712
үгүнө	-3713
▁багыт	-3714
▁убагында	-3715
ейл	-3716
▁Алексан	-3717
▁ни	-3718
ешет	-3719
▁Кел	-3720
терди	-3721
▁кана	-3722
уктагы	-3723
▁Жапон	-3724
▁ыкчам	-3725
▁таандык	-3726
▁мусулман	-3727
жаза	-3728
▁түй	-3729
▁жараткан	-3730
▁келгенде	-3731
Ак	-3732
ларына	-3733
▁фондун	-3734
▁камт	-3735
▁тутк	-3736
▁укуктук	-3737
▁чыгарма	-3738
▁келаткан	-3739
▁террордук	-3740
▁аймактарында	-3741
ge	-3742
ша	-3743
▁28	-3744
▁мин	-3745
▁Дагы	-3746
▁кылмыштуу	-3747
▁Газа	-3748
▁псих	-3749
▁Ошентип	-3750
▁Ima	-3751
▁ишкер	-3752
тен	-3753
▁жокп	-3754
▁талиб	-3755
▁кооптуу	-3756
ну	-3757
дикке	-3758
иктин	-3759
▁макам	-3760
ырмалуу	-3761
икация	-3762
▁кыйла	-3763
▁төлөп	-3764
▁өздөрү	-3765
▁облустарынын	-3766
▁Ос	-3767
▁Кул	-3768
▁конц	-3769
▁жаман	-3770
Талибан	-3771
▁кеңири	-3772
▁тарыхый	-3773
▁ла	-3774
тация	-3775
▁учак	-3776
▁Назар	-3777
▁билбей	-3778
▁өзүбүз	-3779
▁аймагына	-3780
▁материал	-3781
▁жарандардын	-3782
▁жем	-3783
▁эсе	-3784
▁атат	-3785
чылардын	-3786
▁чакырып	-3787
▁мыйзамды	-3788
шат	-3789
▁Ап	-3790
ишин	-3791
▁атыш	-3792
▁аянт	-3793
▁фракция	-3794
▁укуктарын	-3795
▁багытталган	-3796
ирип	-3797
▁төлөм	-3798
▁туулган	-3799
омол	-3800
▁Дүйнө	-3801
▁чагыл	-3802
ура	-3803
▁Ка	-3804
ыгына	-3805
▁кетүү	-3806
▁кишиге	-3807
▁аймакта	-3808
олю	-3809
тун	-3810
далды	-3811
▁элди	-3812
▁бузуу	-3813
▁тартиб	-3814
▁өлкөлүк	-3815
▁районундагы	-3816
▁Араб	-3817
▁Коом	-3818
елерин	-3819
▁Журналист	-3820
▁болгондор	-3821
▁март	-3822
▁айынын	-3823
▁анализ	-3824
▁Израилдин	-3825
▁B	-3826
еттен	-3827
▁абакта	-3828
▁кетүүгө	-3829
▁мыйзамдын	-3830
▁жиги	-3831
▁көйгөйлөр	-3832
түлүк	-3833
уусуна	-3834
▁күтүп	-3835
▁Ошондо	-3836
ферендум	-3837
▁Александр	-3838
▁кызматына	-3839
▁G	-3840
тым	-3841
диктин	-3842
▁бөлүмүнүн	-3843
оч	-3844
▁окр	-3845
рессия	-3846
▁долларга	-3847
▁жабыркаган	-3848
▁акыл	-3849
▁мал	-3850
▁кагы	-3851
мб	-3852
▁Оку	-3853
▁арх	-3854
▁өлч	-3855
▁Груз	-3856
▁шартт	-3857
▁Интерн	-3858
▁максаты	-3859
укаш	-3860
▁Бор	-3861
▁күчтүү	-3862
дой	-3863
▁өрт	-3864
алына	-3865
үшүнө	-3866
▁сурап	-3867
▁Пр	-3868
▁Кол	-3869
▁статист	-3870
▁Беларус	-3871
▁калганы	-3872
маны	-3873
үтүн	-3874
ерине	-3875
▁чакан	-3876
▁сотунун	-3877
▁кармалганын	-3878
Биз	-3879
тып	-3880
арип	-3881
үнчө	-3882
▁31-	-3883
▁каралып	-3884
▁жел	-3885
уткар	-3886
▁кылым	-3887
▁токтотуу	-3888
лери	-3889
▁жабык	-3890
▁отуруп	-3891
ивдүү	-3892
▁аким	-3893
▁2015-	-3894
▁Атайын	-3895
▁Тергөө	-3896
▁тарбия	-3897
министри	-3898
▁каалаган	-3899
▁техникалык	-3900
▁Кыргызстандан	-3901
тту	-3902
чын	-3903
▁Бээ	-3904
▁Тай	-3905
▁ток	-3906
▁кездеги	-3907
▁беренеси	-3908
ушат	-3909
▁Кат	-3910
▁үндө	-3911
▁бекит	-3912
▁тарат	-3913
▁негизинен	-3914
▁республикалык	-3915
урт	-3916
▁капт	-3917
▁өнүгүү	-3918
▁жетиштүү	-3919
▁борборунун	-3920
▁Мух	-3921
▁пен	-3922
Манас	-3923
дарда	-3924
▁Кал	-3925
▁Чын	-3926
▁Ташк	-3927
▁түзүл	-3928
дарында	-3929
ашат	-3930
онст	-3931
▁Эмне	-3932
▁иштейт	-3933
▁таасирин	-3934
▁референдум	-3935
▁салыштырмалуу	-3936
▁ша	-3937
ткон	-3938
▁болоб	-3939
рык	-3940
доган	-3941
өктүк	-3942
▁Сотт	-3943
▁абалда	-3944
▁жалган	-3945
▁көрүнүш	-3946
▁жатканына	-3947
Ор	-3948
егин	-3949
▁блог	-3950
▁барды	-3951
▁кароо	-3952
▁жүзүндө	-3953
▁Конституция	-3954
▁Президенттин	-3955
хм	-3956
▁аптада	-3957
▁жапырт	-3958
рек	-3959
▁фил	-3960
▁алганда	-3961
▁департам	-3962
дөрдүн	-3963
▁Болот	-3964
▁Кемпир	-3965
▁билдирүүсүндө	-3966
▁арз	-3967
сентябр	-3968
▁топтун	-3969
▁эмнеге	-3970
▁Эрдоган	-3971
▁ыйгарым	-3972
▁Москвада	-3973
▁калышы	-3974
▁комитеттин	-3975
▁Ким	-3976
▁зор	-3977
▁жасалма	-3978
▁камакта	-3979
▁тармактарда	-3980
▁33	-3981
▁проф	-3982
жай	-3983
▁Демек	-3984
▁бизде	-3985
▁адистер	-3986
▁жаап	-3987
▁фонд	-3988
▁чалдык	-3989
▁ишмерди	-3990
баш	-3991
пайбы	-3992
▁чыгарды	-3993
▁90	-3994
▁кич	-3995
анада	-3996
келин	-3997
▁тегер	-3998
▁алышкан	-3999
▁Бизде	-4000
▁жарык	-4001
▁технология	-4002
зин	-4003
ансы	-4004
ноябр	-4005
икти	-4006
▁сов	-4007
▁алыс	-4008
▁жүргүзгөн	-4009
чет	-4010
▁жыйында	-4011
▁окумушт	-4012
202	-4013
▁уланып	-4014
▁айыптап	-4015
▁система	-4016
ter	-4017
пон	-4018
ыск	-4019
▁алак	-4020
▁көлөмү	-4021
▁уюмдун	-4022
ымды	-4023
үрүм	-4024
▁июн	-4025
▁коюу	-4026
▁илдет	-4027
▁кишини	-4028
▁Бүгүнкү	-4029
министративдик	-4030
ник	-4031
▁су	-4032
▁көргөз	-4033
▁кырдаалды	-4034
усту	-4035
▁Шаар	-4036
▁оорул	-4037
▁кайтарып	-4038
▁Хар	-4039
▁кызматтар	-4040
итт	-4041
ктарга	-4042
▁өлчөм	-4043
▁жумушчу	-4044
▁тажрыйб	-4045
▁коргонуу	-4046
▁төг	-4047
тарды	-4048
▁элем	-4049
ец	-4050
201	-4051
ани	-4052
доого	-4053
▁жумушт	-4054
▁айтышты	-4055
▁алектен	-4056
▁Жергиликтүү	-4057
дуул	-4058
▁убакта	-4059
үгүр	-4060
алиева	-4061
едерация	-4062
▁болбогон	-4063
кыр	-4064
...-	-4065
ергей	-4066
естин	-4067
спүрүм	-4068
▁батир	-4069
премьер	-4070
▁чалдыккан	-4071
▁билдиришти	-4072
▁темп	-4073
▁февр	-4074
диктүү	-4075
ыктыяр	-4076
▁Караб	-4077
▁менчик	-4078
кыл	-4079
▁Тел	-4080
дерин	-4081
чунун	-4082
▁тасм	-4083
▁Бийлик	-4084
▁Путиндин	-4085
лин	-4086
уусунда	-4087
▁паспорт	-4088
▁маданият	-4089
▁карабастан	-4090
▁Карак	-4091
▁эмдөө	-4092
▁өнүктүр	-4093
▁катталды	-4094
ейсбуктагы	-4095
▁Украинада	-4096
оолуу	-4097
▁Лукаш	-4098
▁ачылган	-4099
▁арналган	-4100
▁прокурор	-4101
▁жарыяланды	-4102
алю	-4103
айбыз	-4104
▁өчүр	-4105
▁атасы	-4106
▁Шайлоо	-4107
иров	-4108
улла	-4109
▁жоок	-4110
▁узарт	-4111
▁алууну	-4112
▁Сай	-4113
ирген	-4114
▁заман	-4115
үбүз	-4116
өткө	-4117
далып	-4118
еттүү	-4119
оро	-4120
чулук	-4121
атбек	-4122
▁толк	-4123
▁Сергей	-4124
▁дайындалган	-4125
ККУ	-4126
еев	-4127
▁Ата	-4128
ограф	-4129
▁милдеттен	-4130
▁бетт	-4131
▁коңшу	-4132
▁таштап	-4133
or	-4134
▁P	-4135
ант	-4136
дору	-4137
▁чалгын	-4138
ресс	-4139
ценз	-4140
иядан	-4141
▁Молд	-4142
бра	-4143
▁ca	-4144
▁Мекеменин	-4145
▁университетинин	-4146
азы	-4147
өрдү	-4148
▁Жыл	-4149
▁Укук	-4150
бүлөлүк	-4151
▁дарыгер	-4152
▁келишет	-4153
▁курултай	-4154
дүм	-4155
▁мон	-4156
▁конт	-4157
ованын	-4158
▁Акаев	-4159
▁палат	-4160
▁чогулган	-4161
▁Конституциялык	-4162
зат	-4163
абыт	-4164
бург	-4165
кара	-4166
▁сент	-4167
▁колго	-4168
▁август	-4169
▁рез	-4170
ption	-4171
▁теск	-4172
▁бериши	-4173
▁кымбат	-4174
▁жетекчилери	-4175
▁35	-4176
олоң	-4177
▁Ада	-4178
▁зал	-4179
▁моюн	-4180
▁көрүү	-4181
▁ыктыяр	-4182
▁териштирүү	-4183
▁электрондук	-4184
их	-4185
▁чөл	-4186
рыкча	-4187
▁Image	-4188
▁чыгарылган	-4189
▁жүкт	-4190
елердин	-4191
▁толтур	-4192
▁caption	-4193
▁Ушундай	-4194
▁кийлиги	-4195
▁негизде	-4196
▁башаламандык	-4197
шан	-4198
гази	-4199
▁Чол	-4200
аштыр	-4201
▁киргизген	-4202
▁тургундар	-4203
өнүп	-4204
чилер	-4205
▁мыйзамдуу	-4206
▁жетекчилиги	-4207
▁коопсуздугун	-4208
30	-4209
дый	-4210
шет	-4211
паган	-4212
чо	-4213
ткө	-4214
үтт	-4215
▁но	-4216
үгүт	-4217
▁реда	-4218
▁ойлон	-4219
▁баласы	-4220
▁курган	-4221
▁көрүүгө	-4222
▁Эң	-4223
▁Газ	-4224
▁түшт	-4225
▁2014-	-4226
▁суракка	-4227
▁саясатчылар	-4228
▁райондорунда	-4229
огул	-4230
дырган	-4231
▁артка	-4232
▁көрүнү	-4233
▁талдоо	-4234
▁саналат	-4235
▁чыгышты	-4236
▁экономика	-4237
▁сутк	-4238
▁Ислам	-4239
▁кошул	-4240
▁Тоолуу	-4241
▁Милиция	-4242
▁кызматтын	-4243
ar	-4244
ме	-4245
лов	-4246
▁32	-4247
▁Жең	-4248
▁аткамин	-4249
▁биринде	-4250
ияны	-4251
▁Окт	-4252
▁үгүт	-4253
▁кишил	-4254
▁ойлойм	-4255
▁Москванын	-4256
лыктар	-4257
орттук	-4258
▁издеп	-4259
Таш	-4260
альд	-4261
▁иштеш	-4262
▁кыска	-4263
▁мобил	-4264
аланган	-4265
▁куткар	-4266
▁чөйрө	-4267
▁саясаты	-4268
▁өзөктүк	-4269
▁уюмдардын	-4270
▁чечил	-4271
▁шаары	-4272
▁маркум	-4273
▁кишилер	-4274
▁камагына	-4275
▁колдонуп	-4276
айман	-4277
▁үмүт	-4278
▁процес	-4279
▁туткун	-4280
▁комплек	-4281
▁кооптон	-4282
▁күрөшүү	-4283
▁Ала	-4284
▁Сов	-4285
▁жатам	-4286
▁Депутат	-4287
▁демонст	-4288
▁F	-4289
▁M	-4290
▁набыт	-4291
▁облусу	-4292
▁тобунун	-4293
аф	-4294
▁Ник	-4295
ератур	-4296
▁бөлүп	-4297
▁тапты	-4298
кал	-4299
▁шартта	-4300
▁Алексей	-4301
▁коррупциялык	-4302
кту	-4303
▁берб	-4304
▁фактыл	-4305
▁болгондордун	-4306
арда	-4307
штары	-4308
▁алба	-4309
▁Аскар	-4310
▁үйүнө	-4311
▁өмүрү	-4312
▁комиссиясынын	-4313
▁тест	-4314
▁форм	-4315
▁ысым	-4316
▁кымбатт	-4317
▁маданий	-4318
▁автордук	-4319
▁Аф	-4320
▁күбө	-4321
▁Чолпон	-4322
▁сүйлөп	-4323
▁өлкөлөрү	-4324
▁Вен	-4325
▁сак	-4326
тардын	-4327
▁консул	-4328
▁арадагы	-4329
▁келтирген	-4330
▁пара	-4331
▁дарыг	-4332
▁танда	-4333
▁жоопко	-4334
▁Атамбаевдин	-4335
▁байланышкан	-4336
▁Сур	-4337
▁сып	-4338
▁ачып	-4339
▁жараян	-4340
▁аныктоо	-4341
▁табылды	-4342
▁экстрем	-4343
▁өткөргөн	-4344
▁улут	-4345
▁Райым	-4346
▁алышы	-4347
иясынын	-4348
агым	-4349
▁сына	-4350
▁Сал	-4351
▁инт	-4352
▁кадр	-4353
▁прот	-4354
▁аткаруучу	-4355
▁департамент	-4356
уф	-4357
ыкта	-4358
адагы	-4359
▁Стам	-4360
▁алабыз	-4361
▁башкача	-4362
▁уюштуруу	-4363
▁милдеттүү	-4364
▁Өзбекстанда	-4365
ком	-4366
мур	-4367
▁36	-4368
...2	-4369
▁союз	-4370
▁округ	-4371
▁байкоо	-4372
▁мүмкүнчүлүгү	-4373
▁Ибра	-4374
▁терс	-4375
▁келтирүү	-4376
▁үн	-4377
▁үлгү	-4378
▁Мирзи	-4379
▁Мамлекет	-4380
▁автоунаа	-4381
▁температур	-4382
▁Бейшен	-4383
▁Бээжин	-4384
▁вакцина	-4385
▁аяктаган	-4386
▁башталгандан	-4387
▁доор	-4388
▁жери	-4389
▁Уюмунун	-4390
▁Түркияда	-4391
▁ишмердүүл	-4392
үккө	-4393
▁198	-4394
▁Нар	-4395
пания	-4396
▁көрө	-4397
▁учуп	-4398
аланып	-4399
▁таасири	-4400
▁сүйлөшүп	-4401
▁тургундары	-4402
▁кызматташтык	-4403
▁министрлигине	-4404
ида	-4405
ттык	-4406
▁Поль	-4407
думаров	-4408
at	-4409
Ар	-4410
▁Пол	-4411
▁аст	-4412
▁рубл	-4413
▁кагып	-4414
▁Аман	-4415
▁ачкан	-4416
▁сөзсүз	-4417
▁өспүрүм	-4418
гандардын	-4419
▁өлкөлөрдө	-4420
имин	-4421
үкөн	-4422
▁Жам	-4423
▁жуу	-4424
▁көк	-4425
▁Ороз	-4426
▁клим	-4427
актагы	-4428
▁Кызыл	-4429
▁күнөөлүү	-4430
▁Мадумаров	-4431
▁аялдардын	-4432
▁күчтөрүнүн	-4433
Эр	-4434
мир	-4435
▁аймагындагы	-4436
бап	-4437
▁нач	-4438
▁масс	-4439
▁күнөө	-4440
чылыктар	-4441
▁аягында	-4442
▁келбейт	-4443
лору	-4444
өкөй	-4445
▁автоб	-4446
▁жашка	-4447
▁жубай	-4448
КМ	-4449
▁жам	-4450
үктүн	-4451
▁кеңс	-4452
▁Бакыт	-4453
▁Франция	-4454
ели	-4455
▁жээ	-4456
▁Жакын	-4457
▁келсе	-4458
▁факты	-4459
▁коммер	-4460
▁чаралар	-4461
▁айылынын	-4462
▁медицина	-4463
▁жетектеген	-4464
▁мамлекеттердин	-4465
▁Дин	-4466
▁диплом	-4467
▁карама	-4468
▁чөлкөм	-4469
▁Дональд	-4470
▁жайгаштыр	-4471
▁Парламентт	-4472
▁муун	-4473
▁Өмүрбек	-4474
▁алдындагы	-4475
▁башкармалыгы	-4476
ССР	-4477
▁Билим	-4478
▁медиа	-4479
деринин	-4480
▁Ошондон	-4481
▁кечинде	-4482
▁ресурст	-4483
▁жүргүзүү	-4484
▁коомчулук	-4485
▁эркиндиги	-4486
гол	-4487
анов	-4488
үшүн	-4489
▁узак	-4490
▁Евраз	-4491
▁жарыялап	-4492
▁соттолгон	-4493
инц	-4494
▁реп	-4495
өшкөн	-4496
▁айтат	-4497
▁Маселен	-4498
▁адамдан	-4499
▁сактагы	-4500
▁шаарына	-4501
▁катталып	-4502
чер	-4503
ырма	-4504
▁үйдө	-4505
▁келиши	-4506
▁жаракат	-4507
▁нааразыл	-4508
▁коргоочулар	-4509
көн	-4510
шту	-4511
шкон	-4512
макка	-4513
▁өлүмү	-4514
▁болобу	-4515
▁дүйнөдө	-4516
▁как	-4517
▁рын	-4518
▁завод	-4519
▁акчаны	-4520
▁жыйынт	-4521
▁салууга	-4522
▁тр	-4523
аныч	-4524
▁ээси	-4525
▁жуккан	-4526
▁кандуу	-4527
▁ойно	-4528
▁Осмон	-4529
▁эпиде	-4530
▁келбей	-4531
▁окшойт	-4532
▁келатат	-4533
▁кеткени	-4534
▁Азиядагы	-4535
▁өкмөтүнүн	-4536
олу	-4537
түз	-4538
еграм	-4539
ордукт	-4540
▁бизди	-4541
▁күрөшт	-4542
▁калктын	-4543
агн	-4544
ттагы	-4545
чылыкка	-4546
▁кетиши	-4547
▁партиялар	-4548
▁комиссиянын	-4549
АЭБ	-4550
кыз	-4551
▁ГЭС	-4552
▁жүйө	-4553
▁зомбулук	-4554
үлө	-4555
▁Кээ	-4556
үгүндө	-4557
▁оппози	-4558
▁сыпатт	-4559
▁W	-4560
ишет	-4561
ышып	-4562
▁карай	-4563
▁окуяс	-4564
▁сапары	-4565
▁бардыгы	-4566
▁коомдун	-4567
▁станция	-4568
атына	-4569
азаров	-4570
▁жүгүр	-4571
▁саналып	-4572
▁Москвага	-4573
▁талкууга	-4574
ыгып	-4575
▁кыскарт	-4576
▁тараптын	-4577
▁Олимпиада	-4578
деш	-4579
гинен	-4580
радус	-4581
▁берсе	-4582
▁кысым	-4583
▁кезекте	-4584
▁кылууга	-4585
▁дүйнөдөгү	-4586
▁маалыматтарга	-4587
▁коронавирустун	-4588
ындап	-4589
▁ашты	-4590
▁кете	-4591
▁иштеб	-4592
▁берилип	-4593
▁бийлигинин	-4594
шып	-4595
▁айым	-4596
▁мүлкт	-4597
▁градус	-4598
▁айыпталып	-4599
ебин	-4600
▁аралы	-4601
▁күчөп	-4602
▁алдына	-4603
▁элчиси	-4604
дет	-4605
▁эш	-4606
абек	-4607
▁музык	-4608
▁качкын	-4609
▁арасынан	-4610
▁кийлигиш	-4611
▁аймактагы	-4612
▁ооруканада	-4613
Эл	-4614
па	-4615
овин	-4616
▁көм	-4617
▁сапар	-4618
▁Стамбул	-4619
▁чыгууга	-4620
▁Көл	-4621
▁ыңг	-4622
▁жама	-4623
▁өсүп	-4624
оратор	-4625
▁Бишкекке	-4626
▁Кой	-4627
▁Айыл	-4628
алынын	-4629
олюция	-4630
▁музей	-4631
▁Азырынча	-4632
▁делген	-4633
▁каршылык	-4634
▁парламентте	-4635
▁органдарынын	-4636
дейт	-4637
пейт	-4638
унду	-4639
▁оңой	-4640
▁пост	-4641
▁атаган	-4642
▁H	-4643
Бул	-4644
ажы	-4645
имче	-4646
▁Улан	-4647
▁тейл	-4648
▁алышат	-4649
▁жүздөгөн	-4650
▁байланышы	-4651
).	-4652
ra	-4653
еме	-4654
ысын	-4655
▁Акт	-4656
▁Крым	-4657
үлүүдө	-4658
▁АКШда	-4659
▁сотто	-4660
▁Мирзиё	-4661
гуу	-4662
иканын	-4663
▁ачыкка	-4664
▁Сам	-4665
▁Меди	-4666
▁кечир	-4667
▁кирет	-4668
▁балдарды	-4669
▁болбосун	-4670
▁аракеттен	-4671
▁көзөмөлдөө	-4672
тим	-4673
эри	-4674
айлык	-4675
ылбай	-4676
▁дост	-4677
дуулук	-4678
▁Кудай	-4679
▁Өкмөтт	-4680
▁жанында	-4681
▁дүйнөнүн	-4682
▁чам	-4683
▁Теке	-4684
▁атап	-4685
▁дүкөн	-4686
▁тасма	-4687
▁инфекция	-4688
":	-4689
▁жетпей	-4690
▁катаал	-4691
▁жугузуп	-4692
▁меч	-4693
▁мыр	-4694
▁өлгөн	-4695
▁иштерди	-4696
▁Британиянын	-4697
▁журналисттерге	-4698
▁400	-4699
чуларды	-4700
▁мекеме	-4701
▁балдары	-4702
▁адвокаты	-4703
▁депутаттык	-4704
▁дипломатиялык	-4705
ло	-4706
рий	-4707
▁Св	-4708
▁Сог	-4709
▁Итал	-4710
▁сана	-4711
▁сындап	-4712
▁чыкпай	-4713
▁тараган	-4714
▁31	-4715
апар	-4716
▁ийгил	-4717
▁академия	-4718
▁экспортт	-4719
▁айрымдары	-4720
▁бирдиктүү	-4721
▁маселелерди	-4722
▁Шар	-4723
▁мына	-4724
▁жыйынтык	-4725
ияз	-4726
лав	-4727
▁Аш	-4728
баса	-4729
▁Саяс	-4730
▁алса	-4731
▁Жыйын	-4732
▁саналган	-4733
▁шайланган	-4734
ңкы	-4735
▁Шв	-4736
▁Чың	-4737
▁Мекен	-4738
▁жетип	-4739
▁козго	-4740
▁Россия	-4741
▁эсептел	-4742
▁кайрылды	-4743
▁ырастады	-4744
▁кызматкер	-4745
▁клин	-4746
шканын	-4747
▁2024-	-4748
▁мунун	-4749
▁топто	-4750
▁басылмасы	-4751
▁демократиялык	-4752
ят	-4753
▁29	-4754
стер	-4755
▁тек	-4756
▁Иман	-4757
▁көчүр	-4758
▁булагы	-4759
▁Социалдык	-4760
дым	-4761
ойн	-4762
▁айланып	-4763
▁учурдагы	-4764
▁эсебинде	-4765
▁Ир	-4766
ышта	-4767
▁нор	-4768
данып	-4769
▁жолун	-4770
алестин	-4771
▁начарл	-4772
бас	-4773
▁Сер	-4774
ектин	-4775
▁принц	-4776
▁жиберген	-4777
▁адамдарга	-4778
▁жарандарды	-4779
▁дей	-4780
ыштын	-4781
▁СССР	-4782
▁мурунку	-4783
▁укуктуу	-4784
▁аэропорт	-4785
▁көрсөтмө	-4786
▁системасы	-4787
вак	-4788
ешип	-4789
▁ооруп	-4790
▁түштү	-4791
▁алдыга	-4792
▁отурат	-4793
▁жыйынтыкт	-4794
жо	-4795
як	-4796
▁Ур	-4797
▁эски	-4798
▁канааттан	-4799
▁коомчулукта	-4800
ерисин	-4801
▁Алтын	-4802
▁үйдүн	-4803
▁өрөөн	-4804
▁алышты	-4805
▁мадания	-4806
▁комиссиясы	-4807
▁Кө	-4808
▁тик	-4809
▁улуу	-4810
▁бирик	-4811
▁макал	-4812
▁абагында	-4813
▁массалык	-4814
▁себептер	-4815
▁республик	-4816
▁ишканасынын	-4817
:00	-4818
гем	-4819
сон	-4820
ста	-4821
▁ев	-4822
мада	-4823
▁бож	-4824
беренеси	-4825
▁талаптар	-4826
▁миллиондон	-4827
оф	-4828
гам	-4829
▁34	-4830
▁Эмил	-4831
▁жумду	-4832
▁ыраазы	-4833
▁Күн	-4834
▁проток	-4835
▁реформ	-4836
▁анткени	-4837
▁бийлигин	-4838
▁сунуштаган	-4839
▁министрликт	-4840
юр	-4841
▁кв	-4842
дүкт	-4843
▁Кабул	-4844
▁жакыр	-4845
▁кепил	-4846
▁күмөн	-4847
▁абалды	-4848
▁жолугушуу	-4849
Тоо	-4850
▁1,	-4851
▁Көк	-4852
имовдун	-4853
сүндөгү	-4854
тешт	-4855
циал	-4856
▁адаб	-4857
▁түйүн	-4858
▁Чыңгыз	-4859
▁жаңжал	-4860
▁Октябрь	-4861
▁беришти	-4862
▁кезектеги	-4863
▁өлкөлөргө	-4864
▁маалыматында	-4865
▁токтоп	-4866
▁чыгарм	-4867
▁алынганын	-4868
▁борбордук	-4869
▁Оп	-4870
▁артык	-4871
▁чыныгы	-4872
▁Москвадагы	-4873
▁кут	-4874
▁тандоо	-4875
алиевдин	-4876
▁колдонгон	-4877
▁радиосуна	-4878
▁жыйынтыгын	-4879
жаң	-4880
▁маз	-4881
олорду	-4882
▁айтышкан	-4883
▁Ооганстандын	-4884
гып	-4885
стин	-4886
димки	-4887
өкмөт	-4888
▁Исак	-4889
▁бирин	-4890
улганын	-4891
▁лиценз	-4892
▁карапайым	-4893
▁долбоорунун	-4894
ля	-4895
чүсү	-4896
үүсү	-4897
▁Окуя	-4898
▁Тегер	-4899
ациялык	-4900
▁Дүйшөмбү	-4901
▁бергенин	-4902
▁чыгышкан	-4903
▁лидерлери	-4904
рах	-4905
▁Сы	-4906
ваку	-4907
эконом	-4908
▁жолугуп	-4909
▁кызматын	-4910
▁мигранттардын	-4911
чылыгы	-4912
▁Германия	-4913
▁керектүү	-4914
▁туугандар	-4915
▁пайдалануу	-4916
▁энергетика	-4917
oo	-4918
ске	-4919
бөйт	-4920
▁Мин	-4921
▁ант	-4922
▁баал	-4923
▁тата	-4924
▁жерди	-4925
▁өкмөттүк	-4926
өйт	-4927
▁уй	-4928
олдо	-4929
▁өст	-4930
▁такыр	-4931
▁Райымбек	-4932
сал	-4933
ундан	-4934
диктен	-4935
▁дайыма	-4936
ерисинче	-4937
▁дегенди	-4938
▁журналисттердин	-4939
есинен	-4940
▁жетишкен	-4941
▁келбеген	-4942
▁уланууда	-4943
▁санитардык	-4944
▁стратегиялык	-4945
!"	-4946
st	-4947
аныбек	-4948
▁Мадан	-4949
▁камер	-4950
▁кылууда	-4951
▁көбөйүп	-4952
▁интернет	-4953
▁айтылууда	-4954
▁келишимге	-4955
▁Германиянын	-4956
▁билдирүүлөр	-4957
▁чен	-4958
гинде	-4959
мөлөр	-4960
▁айырм	-4961
үлгөнүн	-4962
▁таратып	-4963
президент	-4964
▁лидерлер	-4965
▁эскерткен	-4966
▁бирдей	-4967
▁жетишсиз	-4968
▁мыйзамда	-4969
▁жыйынтыгында	-4970
5,	-4971
Сул	-4972
оло	-4973
чан	-4974
▁албайбыз	-4975
▁жашыруун	-4976
ституциялык	-4977
▁кызматынан	-4978
ска	-4979
▁гез	-4980
дикалык	-4981
▁күчүнө	-4982
▁баштайт	-4983
▁сырттан	-4984
▁мекенине	-4985
▁көпчүлүгү	-4986
▁ц	-4987
өдү	-4988
▁150	-4989
гация	-4990
▁Эркин	-4991
▁жазуу	-4992
▁божомол	-4993
▁кыймылынын	-4994
▁радиосунун	-4995
▁президентке	-4996
▁Ооганстандагы	-4997
▁эмеспи	-4998
вакуация	-4999
▁чыкканын	-5000
▁маалымдоо	-5001
гал	-5002
гор	-5003
▁(+	-5004
▁ту	-5005
▁чо	-5006
▁тен	-5007
▁той	-5008
иттер	-5009
▁жолку	-5010
▁фонду	-5011
▁январ	-5012
▁окуган	-5013
▁окуяга	-5014
▁багытта	-5015
▁баланын	-5016
▁алгандар	-5017
▁аракетин	-5018
▁Казакстанга	-5019
▁июл	-5020
▁сер	-5021
ондон	-5022
сүнөн	-5023
▁Голд	-5024
▁баса	-5025
газиев	-5026
ыйкатчы	-5027
▁маанай	-5028
▁зарылды	-5029
▁кагылыш	-5030
▁мөөнөтүн	-5031
▁милициянын	-5032
ch	-5033
штык	-5034
▁мет	-5035
▁Абды	-5036
▁реги	-5037
▁куруп	-5038
▁чечимди	-5039
▁болгондо	-5040
▁токтотуп	-5041
▁эксперттер	-5042
кеч	-5043
▁валю	-5044
▁мойн	-5045
черээк	-5046
▁келүү	-5047
▁Тилекке	-5048
Өз	-5049
▁L	-5050
сем	-5051
төн	-5052
уфт	-5053
ешке	-5054
сине	-5055
дорду	-5056
чачын	-5057
▁жайы	-5058
▁Сен	-5059
▁тат	-5060
▁маал	-5061
▁угуп	-5062
▁кеңейт	-5063
▁түштүк	-5064
▁Кеңеште	-5065
▁бөлүгүн	-5066
▁жогорул	-5067
▁зордукт	-5068
▁ын	-5069
▁беткап	-5070
гай	-5071
▁бирикт	-5072
▁пайызга	-5073
▁тараптар	-5074
ou	-5075
кур	-5076
ула	-5077
▁эф	-5078
▁Бар	-5079
▁көн	-5080
▁иштин	-5081
▁колуна	-5082
▁провин	-5083
▁сураган	-5084
▁келишкен	-5085
▁биргелешкен	-5086
гүлт	-5087
▁сен	-5088
ытайлык	-5089
▁көбөйт	-5090
▁албаган	-5091
▁килограмм	-5092
мага	-5093
▁түрү	-5094
▁ракета	-5095
▁беребиз	-5096
▁болууга	-5097
▁жарадар	-5098
▁жөнөкөй	-5099
▁активдүү	-5100
▁тит	-5101
▁Ошто	-5102
▁Мурда	-5103
▁маселелери	-5104
исс	-5105
▁кезек	-5106
▁калдым	-5107
▁шаардын	-5108
▁транспорт	-5109
экономикалык	-5110
Ko	-5111
ңуз	-5112
икте	-5113
ышына	-5114
▁эрте	-5115
дөрүнө	-5116
▁ислам	-5117
ридикалык	-5118
▁Жарандык	-5119
арх	-5120
акун	-5121
айлуу	-5122
▁июнь	-5123
▁атынан	-5124
▁сыртка	-5125
▁армиясынын	-5126
▁компаниялар	-5127
мит	-5128
башы	-5129
екте	-5130
маил	-5131
тери	-5132
▁Жон	-5133
дүгүн	-5134
▁Жалпы	-5135
▁айыпталган	-5136
ed	-5137
ариж	-5138
▁Кен	-5139
▁ста	-5140
▁тем	-5141
▁ачуу	-5142
▁порт	-5143
▁чарб	-5144
▁декабр	-5145
▁машине	-5146
▁уюштурган	-5147
▁45	-5148
▁араны	-5149
▁кайда	-5150
▁туруу	-5151
▁ишкана	-5152
▁коммун	-5153
▁түзүлүп	-5154
▁аракеттер	-5155
▁температурасы	-5156
2,	-5157
ович	-5158
▁бийик	-5159
▁Саясат	-5160
▁киреше	-5161
▁талашт	-5162
▁техник	-5163
▁жооптуу	-5164
▁саламатт	-5165
▁териштир	-5166
▁кырдаалга	-5167
лоб	-5168
▁сх	-5169
серв	-5170
өткөн	-5171
▁кыла	-5172
матова	-5173
▁бүткөн	-5174
▁професс	-5175
▁беришкен	-5176
абар	-5177
гиле	-5178
оосу	-5179
▁ном	-5180
▁доом	-5181
▁көркөм	-5182
▁үзгүлт	-5183
▁жердеги	-5184
▁тилинде	-5185
▁сүйлөгөн	-5186
▁жүрүшүндө	-5187
ov	-5188
гр	-5189
дил	-5190
орго	-5191
данын	-5192
▁окуяны	-5193
▁турмуш	-5194
▁үйүндө	-5195
▁балдарга	-5196
▁колдонууга	-5197
▁тоскоолдук	-5198
ew	-5199
куч	-5200
▁Бр	-5201
өрдүн	-5202
▁агым	-5203
▁маани	-5204
▁мейман	-5205
Султан	-5206
▁чечүү	-5207
▁тийген	-5208
▁токтолду	-5209
▁эвакуация	-5210
▁депутаттары	-5211
поз	-5212
өшү	-5213
олук	-5214
▁Инд	-5215
▁Сауд	-5216
▁десе	-5217
▁кире	-5218
▁иштен	-5219
▁сабак	-5220
▁Негизи	-5221
ецк	-5222
▁Аст	-5223
▁шам	-5224
атору	-5225
▁Париж	-5226
▁билет	-5227
▁каржы	-5228
▁Нурлан	-5229
аборатор	-5230
▁Штаттар	-5231
▁жаатында	-5232
▁кылмышка	-5233
▁мекеменин	-5234
▁кабарлагандай	-5235
мөткө	-5236
▁Абыл	-5237
▁Жазык	-5238
▁ташып	-5239
▁талабы	-5240
▁даярдык	-5241
6,	-5242
▁Кер	-5243
абайт	-5244
актын	-5245
▁Дары	-5246
дыйкан	-5247
үгүнүн	-5248
▁Марат	-5249
▁жолго	-5250
▁кадыр	-5251
▁чыгары	-5252
▁өлкөнү	-5253
▁соңунда	-5254
▁айыптаган	-5255
▁коронавирустан	-5256
1,	-5257
et	-5258
доп	-5259
дөрдү	-5260
▁мерт	-5261
▁форум	-5262
▁өңдүү	-5263
▁Аларды	-5264
▁дарылан	-5265
▁жардамы	-5266
ZKo	-5267
ади	-5268
▁ут	-5269
▁Рус	-5270
▁арм	-5271
▁коло	-5272
▁четт	-5273
▁атады	-5274
▁жактоо	-5275
▁кадимки	-5276
▁көтөрүлүп	-5277
▁тармагында	-5278
пт	-5279
▁37	-5280
▁Оор	-5281
▁суткада	-5282
осу	-5283
▁пун	-5284
▁орно	-5285
▁масшт	-5286
▁кыздын	-5287
▁демилге	-5288
тө	-5289
сок	-5290
▁аралаш	-5291
▁дыйкан	-5292
▁саммит	-5293
▁банктын	-5294
▁жеринен	-5295
▁Кр	-5296
▁Аял	-5297
▁Эксп	-5298
▁майып	-5299
▁начар	-5300
ылтыркы	-5301
▁изилдө	-5302
▁кармоо	-5303
▁коюлду	-5304
▁өндүрүш	-5305
еши	-5306
▁кү	-5307
аммед	-5308
көнүн	-5309
▁атын	-5310
▁балл	-5311
▁унут	-5312
▁алгандан	-5313
▁иштерине	-5314
▁кыргыздар	-5315
▁провинция	-5316
мын	-5317
▁Жус	-5318
▁Чоң	-5319
▁радик	-5320
баганын	-5321
▁жайлар	-5322
▁түндүк	-5323
▁бергени	-5324
пиз	-5325
▁Аба	-5326
▁анча	-5327
▁буюм	-5328
ттердин	-5329
▁бирикм	-5330
▁суунун	-5331
▁Кытайга	-5332
▁баалуул	-5333
▁чогулуп	-5334
▁мезгилде	-5335
▁44	-5336
▁ачы	-5337
▁ЕАЭБ	-5338
▁көзү	-5339
▁Чыгыш	-5340
▁жылына	-5341
▁алдыңкы	-5342
▁кыймылы	-5343
▁эркинди	-5344
▁Маданият	-5345
▁Жалпысынан	-5346
3,	-5347
▁Сүй	-5348
уберн	-5349
▁жаны	-5350
▁Жеңиш	-5351
▁Дастан	-5352
▁абадан	-5353
▁согушта	-5354
▁эмгектен	-5355
▁жарандарга	-5356
зо	-5357
гүн	-5358
бызга	-5359
▁Андай	-5360
▁кырсык	-5361
▁аткарып	-5362
▁биримди	-5363
▁шил	-5364
▁Нияз	-5365
▁жарл	-5366
▁өзүң	-5367
▁генер	-5368
▁оппозициялык	-5369
el	-5370
▁Бу	-5371
▁маң	-5372
ектүү	-5373
▁тапт	-5374
энелер	-5375
чүлөрдүн	-5376
▁көбөйдү	-5377
▁көтөргөн	-5378
▁өзгөрүүлөр	-5379
▁ум	-5380
▁Кеч	-5381
ергет	-5382
▁Докум	-5383
▁Руслан	-5384
▁үстүнө	-5385
▁Жакында	-5386
▁мелдешт	-5387
▁бөлүнгөн	-5388
▁көрсөттү	-5389
окел	-5390
▁аль	-5391
▁нар	-5392
имдик	-5393
макчы	-5394
делген	-5395
▁Сыдык	-5396
▁төлөн	-5397
чуларга	-5398
▁көздөп	-5399
▁жогорулат	-5400
▁Евробиримдик	-5401
▁конституциялык	-5402
бер	-5403
енк	-5404
▁38	-5405
март	-5406
▁1,5	-5407
▁Ади	-5408
▁этн	-5409
егине	-5410
▁бузган	-5411
▁кеңеши	-5412
▁Кытайдан	-5413
▁көрүнүшт	-5414
▁агенттигинин	-5415
▁коомчулуктун	-5416
ио	-5417
▁ашып	-5418
▁жатса	-5419
▁кошуп	-5420
▁кызуу	-5421
▁кытай	-5422
▁БШКнын	-5423
▁согушту	-5424
▁төмөндө	-5425
▁мыйзамдар	-5426
▁ойн	-5427
▁эне	-5428
▁мырза	-5429
▁жашайт	-5430
▁кубатт	-5431
оран	-5432
▁учкуч	-5433
▁ташуучу	-5434
▁Андыктан	-5435
▁эскертүү	-5436
миологиялык	-5437
скөн	-5438
▁виз	-5439
етинен	-5440
▁ашкан	-5441
▁ошого	-5442
▁санын	-5443
▁китепт	-5444
▁күнүнө	-5445
▁каттоого	-5446
▁текшерип	-5447
ту	-5448
ичи	-5449
▁Бер	-5450
▁буу	-5451
жылкы	-5452
▁тилин	-5453
▁алынат	-5454
▁ашыруу	-5455
дыктардын	-5456
▁аралыгында	-5457
▁токтотууга	-5458
▁облустарында	-5459
пик	-5460
ыст	-5461
гуна	-5462
став	-5463
▁Бан	-5464
▁Дол	-5465
▁эмн	-5466
▁өтүү	-5467
▁Талан	-5468
▁калдык	-5469
▁майдан	-5470
▁кылышты	-5471
Жом	-5472
дөм	-5473
▁пар	-5474
албай	-5475
▁каар	-5476
султан	-5477
▁берки	-5478
▁капит	-5479
▁ээлеп	-5480
▁түшүндүрдү	-5481
дош	-5482
ебер	-5483
▁700	-5484
▁кум	-5485
▁нам	-5486
ардан	-5487
▁мэри	-5488
▁дешет	-5489
ассалык	-5490
ранттар	-5491
үгүндөгү	-5492
▁баарына	-5493
▁берүүдө	-5494
▁турабыз	-5495
▁Беларуст	-5496
▁кеңештин	-5497
ото	-5498
▁кг	-5499
Жомарт	-5500
▁Айбек	-5501
▁шарттар	-5502
▁өкүлчүл	-5503
▁басымдуу	-5504
▁көздөгөн	-5505
▁Суз	-5506
▁ташы	-5507
▁Индия	-5508
▁окуясы	-5509
▁делегация	-5510
кр	-5511
...+	-5512
▁сиң	-5513
▁беле	-5514
бековдун	-5515
структур	-5516
▁жумушка	-5517
▁Трамптын	-5518
▁белгилейт	-5519
юс	-5520
гак	-5521
нам	-5522
нап	-5523
▁Жума	-5524
▁Мамыт	-5525
▁инсан	-5526
▁апрель	-5527
▁регион	-5528
▁жаратып	-5529
▁кабылып	-5530
▁келгени	-5531
▁Токтогул	-5532
▁казакстан	-5533
▁чараларды	-5534
▁пайдаланып	-5535
уль	-5536
үск	-5537
▁Баб	-5538
инжаң	-5539
▁апасы	-5540
▁титир	-5541
▁турду	-5542
▁кризист	-5543
истикалык	-5544
▁Текебаев	-5545
▁негиздөө	-5546
октябрдагы	-5547
▁-1	-5548
▁48	-5549
▁по	-5550
ылап	-5551
▁Кыр	-5552
▁Дмит	-5553
▁иштөө	-5554
▁Рахмон	-5555
нек	-5556
▁сим	-5557
▁артында	-5558
▁жакынкы	-5559
▁айыптады	-5560
▁президентинин	-5561
▁Ок	-5562
▁Лив	-5563
▁алам	-5564
▁жете	-5565
ликтин	-5566
▁албетте	-5567
▁жарандыгын	-5568
▁документтер	-5569
Вагн	-5570
уктан	-5571
бүлөсү	-5572
▁Австр	-5573
▁добушт	-5574
▁жылдар	-5575
▁бейөкмөт	-5576
▁турганда	-5577
▁мамлекети	-5578
▁Тажикстанда	-5579
абын	-5580
▁Шам	-5581
замат	-5582
▁вари	-5583
▁кыял	-5584
уттукт	-5585
▁төлөө	-5586
▁тобокел	-5587
▁өкмөткө	-5588
▁катарында	-5589
▁натыйжалуу	-5590
▁юридикалык	-5591
же	-5592
▁Нов	-5593
▁рек	-5594
Мекен	-5595
икчил	-5596
ишине	-5597
▁жокпу	-5598
▁Калган	-5599
атындагы	-5600
▁Америка	-5601
▁быйылкы	-5602
▁көтөрүл	-5603
▁Өкмөттүн	-5604
▁лаборатор	-5605
▁өткөрүүгө	-5606
▁Эч	-5607
ымта	-5608
▁Көр	-5609
▁абалга	-5610
аларынын	-5611
▁Телеграм	-5612
▁көбөйгөн	-5613
▁мөөнөткө	-5614
рав	-5615
▁Шер	-5616
аганы	-5617
естив	-5618
▁шилт	-5619
▁көпүр	-5620
аларына	-5621
▁алууда	-5622
▁арадан	-5623
▁тушунда	-5624
▁аракеттери	-5625
дукт	-5626
унча	-5627
ырды	-5628
Ислам	-5629
▁Алым	-5630
▁карт	-5631
▁байге	-5632
▁бакча	-5633
▁болуу	-5634
▁Исмаил	-5635
▁жасады	-5636
▁түшүнүк	-5637
▁өлүмүнө	-5638
▁айланган	-5639
▁мектепке	-5640
▁тааныштыр	-5641
▁туугандары	-5642
▁Өзбекстанга	-5643
▁өлкөлөрүнүн	-5644
Сай	-5645
стиция	-5646
▁бузуп	-5647
▁бербейт	-5648
▁иштелип	-5649
▁билдиришкен	-5650
▁парламентке	-5651
▁D	-5652
или	-5653
мал	-5654
▁эли	-5655
ылганы	-5656
▁десек	-5657
▁жабдуу	-5658
▁тартты	-5659
▁сунуштады	-5660
▁жоопкерчилик	-5661
▁Ти	-5662
ицип	-5663
▁арб	-5664
▁утуп	-5665
быздын	-5666
▁аймак	-5667
▁карман	-5668
▁Евразия	-5669
▁октябрь	-5670
▁өздөрүнүн	-5671
▁прокуратуранын	-5672
Кор	-5673
▁Саб	-5674
▁Комп	-5675
▁көчүп	-5676
▁башына	-5677
▁зордук	-5678
▁кытайлык	-5679
▁шайлоодон	-5680
нев	-5681
үскө	-5682
ерлик	-5683
ыктары	-5684
ышканы	-5685
▁караш	-5686
▁көмөк	-5687
▁эмест	-5688
▁мойнуна	-5689
▁эмесмин	-5690
▁башталып	-5691
▁демилгеси	-5692
бил	-5693
▁сол	-5694
▁Тала	-5695
▁Алгач	-5696
▁ишинин	-5697
▁күйөөсү	-5698
▁реакция	-5699
елеп	-5700
▁Ноо	-5701
▁дуб	-5702
▁кызыл	-5703
▁уккан	-5704
▁каккан	-5705
▁Менимче	-5706
▁бөлүнүп	-5707
▁эсептей	-5708
▁үстүнөн	-5709
▁Мирзиёев	-5710
▁башталат	-5711
▁эсебинен	-5712
▁айылындагы	-5713
ишке	-5714
үшөт	-5715
▁193	-5716
▁Мел	-5717
▁Шак	-5718
диктер	-5719
▁көздө	-5720
▁чочул	-5721
▁саткан	-5722
▁Жакынкы	-5723
▁куттукт	-5724
▁деңгээли	-5725
▁жеткирүү	-5726
▁советтик	-5727
▁көтөрүлгөн	-5728
▁келтирилген	-5729
▁компаниянын	-5730
▁Жээнбековдун	-5731
Ин	-5732
▁Си	-5733
кана	-5734
▁клуб	-5735
дараак	-5736
циялоо	-5737
▁эстел	-5738
▁протокол	-5739
▁энергиясын	-5740
измге	-5741
▁докт	-5742
▁жатты	-5743
▁Лондон	-5744
▁Армения	-5745
▁кылабыз	-5746
▁кошулган	-5747
▁шайлоону	-5748
▁чоо	-5749
Бүтүн	-5750
▁сатуу	-5751
▁жардыр	-5752
▁көздөй	-5753
▁Кубаныч	-5754
▁таратты	-5755
▁чечимине	-5756
▁федерация	-5757
▁Беларустун	-5758
7,	-5759
иль	-5760
улов	-5761
▁фир	-5762
▁жерг	-5763
▁Дания	-5764
▁Никол	-5765
▁бүтүр	-5766
▁жетет	-5767
▁мисал	-5768
▁сурак	-5769
алашкан	-5770
▁абактан	-5771
▁турушат	-5772
раструктур	-5773
естр	-5774
▁гүл	-5775
▁сөзү	-5776
▁Бизге	-5777
▁Балким	-5778
▁арызын	-5779
▁коргоп	-5780
▁санарип	-5781
▁тартууга	-5782
▁экендигин	-5783
бат	-5784
▁Ер	-5785
▁үйгө	-5786
▁Дмитрий	-5787
▁кармаган	-5788
▁коомчулукка	-5789
4,	-5790
диев	-5791
▁Жаш	-5792
▁Кап	-5793
▁Рав	-5794
▁адил	-5795
▁Талант	-5796
▁губерн	-5797
▁кыскар	-5798
▁тактап	-5799
▁акчасын	-5800
▁берерин	-5801
▁принцип	-5802
▁себептен	-5803
▁Й	-5804
▁Ыр	-5805
▁жы	-5806
игер	-5807
осун	-5808
▁197	-5809
▁ашк	-5810
▁барбы	-5811
▁сезим	-5812
▁Шинжаң	-5813
▁курама	-5814
▁каржылык	-5815
▁башкарган	-5816
▁талапкерлер	-5817
▁сүйлөшүүлөрдү	-5818
▁тың	-5819
рансп	-5820
▁Ленин	-5821
▁жеңип	-5822
▁көчөлөр	-5823
▁саясатын	-5824
▁таанылган	-5825
ье	-5826
Эркин	-5827
▁ошону	-5828
▁кереги	-5829
▁татаал	-5830
▁автоном	-5831
▁жыйынга	-5832
▁белгиленди	-5833
▁республика	-5834
▁депутаттардын	-5835
жа	-5836
алп	-5837
сең	-5838
ерсон	-5839
▁аман	-5840
▁жылуу	-5841
▁түздү	-5842
ансылык	-5843
▁пайызы	-5844
▁Баткенде	-5845
▁талибдер	-5846
▁жеткирилген	-5847
▁(1	-5848
соци	-5849
ыруу	-5850
▁колл	-5851
▁мүлк	-5852
зомбул	-5853
▁Эмгек	-5854
▁бирине	-5855
▁пенсия	-5856
▁тармагындагы	-5857
▁фракциясынын	-5858
kg	-5859
тууга	-5860
▁жайл	-5861
▁Базар	-5862
▁Замир	-5863
▁койсо	-5864
▁корут	-5865
▁ашыкча	-5866
▁түшүнү	-5867
▁кылышкан	-5868
▁уюштуруп	-5869
▁фондунун	-5870
▁коммерциялык	-5871
▁натыйжасында	-5872
▁Азербайжандын	-5873
▁кайрылуусунда	-5874
гап	-5875
емет	-5876
▁Мон	-5877
▁ачка	-5878
▁корп	-5879
аттагы	-5880
ктарын	-5881
▁интер	-5882
бүлөлөр	-5883
▁Аларга	-5884
▁элинин	-5885
лобалдык	-5886
▁кетишкен	-5887
▁Экинчиден	-5888
улук	-5889
умун	-5890
▁Афр	-5891
▁Миг	-5892
▁түшк	-5893
ктарда	-5894
▁Адвок	-5895
▁Жусуп	-5896
▁сөзүн	-5897
▁жикчил	-5898
▁күндүк	-5899
▁сунушу	-5900
▁салууну	-5901
▁мамилеси	-5902
▁инфраструктур	-5903
көр	-5904
▁жоюл	-5905
▁күчү	-5906
▁ошондо	-5907
▁согушк	-5908
рациялык	-5909
социация	-5910
▁жалпыга	-5911
▁сайтына	-5912
▁төмөнкү	-5913
▁долларды	-5914
▁ишканасы	-5915
▁каттоодон	-5916
алса	-5917
дайт	-5918
▁тин	-5919
амжыл	-5920
▁Харь	-5921
▁жекш	-5922
▁тыйын	-5923
▁ИИМдин	-5924
▁биринин	-5925
едералдык	-5926
ва	-5927
▁Шарш	-5928
▁мушт	-5929
▁Ошону	-5930
▁айдын	-5931
▁чагым	-5932
▁Азамат	-5933
▁Таалай	-5934
▁чыгышы	-5935
▁айрыкча	-5936
▁баратат	-5937
▁мөөнөтт	-5938
▁башкалар	-5939
▁бекемдөө	-5940
▁системасын	-5941
▁агенттигине	-5942
▁Су	-5943
▁2012-	-5944
▁кирди	-5945
▁Натыйж	-5946
▁киргизип	-5947
▁студенттер	-5948
бал	-5949
гур	-5950
гөч	-5951
▁In	-5952
гыла	-5953
ыкка	-5954
арынан	-5955
▁жигит	-5956
▁пункт	-5957
▁бөлүшт	-5958
▁сурады	-5959
▁жатпайбы	-5960
▁Курманбек	-5961
▁тегерегинде	-5962
▁партиялардын	-5963
▁Кож	-5964
▁чач	-5965
▁арзан	-5966
▁күтүү	-5967
ууларга	-5968
▁абакка	-5969
▁баяндам	-5970
▁тарапка	-5971
▁чыкканы	-5972
▁жолуккан	-5973
▁коргоого	-5974
▁коркунучу	-5975
▁инвесторлор	-5976
▁K	-5977
итор	-5978
▁Жети	-5979
▁гран	-5980
▁Бакты	-5981
▁токой	-5982
▁тосуп	-5983
▁үйрөн	-5984
ыктарды	-5985
▁күндүн	-5986
келиндер	-5987
▁радиосу	-5988
▁дайынсыз	-5989
▁жуктуруп	-5990
▁таптакыр	-5991
▁Өн	-5992
▁жанын	-5993
▁кетир	-5994
▁ичиндеги	-5995
▁бошотулган	-5996
%,	-5997
сың	-5998
унд	-5999
ашин	-6000
▁Дал	-6001
▁Чеч	-6002
▁сырт	-6003
▁күмүш	-6004
▁лидер	-6005
▁ойлоп	-6006
▁көмөкт	-6007
▁январь	-6008
▁тагдыры	-6009
▁төрайым	-6010
▁өтүнүчү	-6011
▁калганда	-6012
9,	-6013
аа	-6014
там	-6015
асак	-6016
▁билип	-6017
▁окшош	-6018
▁барымта	-6019
▁муницип	-6020
▁бийликтен	-6021
▁министрлик	-6022
▁статистика	-6023
шкен	-6024
идеги	-6025
кадыр	-6026
пеген	-6027
▁түпт	-6028
▁жолду	-6029
▁Максат	-6030
▁жайында	-6031
▁кармоочу	-6032
▁Назарбаев	-6033
▁айыпталуу	-6034
▁тапшырган	-6035
игип	-6036
дыкка	-6037
Орусия	-6038
▁алдык	-6039
▁Бардык	-6040
▁Корруп	-6041
▁түрлөр	-6042
▁уюшкан	-6043
▁Өлкөнүн	-6044
▁козголуп	-6045
ейн	-6046
рок	-6047
▁75	-6048
▁600	-6049
▁коо	-6050
индин	-6051
улушу	-6052
▁жашы	-6053
▁Киевге	-6054
▁түздөн	-6055
▁нерсени	-6056
▁айтышууда	-6057
▁Ооганстанда	-6058
рч	-6059
▁Нью	-6060
▁Сары	-6061
▁Акмат	-6062
▁өзгөч	-6063
▁кемчил	-6064
▁жөнүндөгү	-6065
▁жарандарын	-6066
▁Евробиримдиктин	-6067
ткү	-6068
эки	-6069
үмдүк	-6070
▁түйш	-6071
▁айына	-6072
▁жубайы	-6073
▁орунда	-6074
▁күчөгөн	-6075
▁курулушу	-6076
▁долбоорду	-6077
▁Армениянын	-6078
▁документтерди	-6079
▁Он	-6080
▁мо	-6081
▁При	-6082
▁бри	-6083
▁доз	-6084
▁умт	-6085
форма	-6086
▁эркек	-6087
аттарга	-6088
▁абагына	-6089
▁жазуучу	-6090
▁көбүнчө	-6091
▁жүргөнүн	-6092
▁башчылары	-6093
▁мобилизация	-6094
▁кызматкерлерине	-6095
ir	-6096
сим	-6097
▁тама	-6098
етинде	-6099
▁жаайт	-6100
▁иликтеп	-6101
▁колунда	-6102
▁себебин	-6103
▁салмакта	-6104
▁сындаган	-6105
▁элчилиги	-6106
▁тизмесине	-6107
▁чыгарууга	-6108
▁райондордо	-6109
ейд	-6110
жыр	-6111
шар	-6112
▁ыкм	-6113
урман	-6114
уулары	-6115
ыларын	-6116
▁юрист	-6117
▁Абдрах	-6118
▁буйрук	-6119
▁окутуу	-6120
▁сөзүнө	-6121
▁аймакка	-6122
▁Сулайман	-6123
▁милицияга	-6124
▁изилдөөлөр	-6125
▁органдарына	-6126
he	-6127
айм	-6128
орттун	-6129
▁миссия	-6130
▁сотунда	-6131
▁жаралган	-6132
▁согуштун	-6133
ократиялык	-6134
уди	-6135
ынч	-6136
▁ги	-6137
▁Лей	-6138
▁баң	-6139
▁жөө	-6140
▁сүз	-6141
гылар	-6142
дыкты	-6143
мамат	-6144
чүлүк	-6145
▁наам	-6146
саясий	-6147
угунан	-6148
▁бөлмө	-6149
▁коюшту	-6150
▁кезинде	-6151
▁катарына	-6152
▁Экономика	-6153
ce	-6154
▁X	-6155
▁Ра	-6156
екей	-6157
▁атал	-6158
▁жашта	-6159
▁каршыл	-6160
▁тактоо	-6161
▁Каракол	-6162
▁келерин	-6163
▁Куралдуу	-6164
▁заманбап	-6165
▁митингге	-6166
▁түшүнүкт	-6167
▁командасы	-6168
▁эсептелет	-6169
▁түшүндүрүү	-6170
ДП	-6171
200	-6172
Мен	-6173
шев	-6174
дром	-6175
ышын	-6176
▁Көз	-6177
▁Пен	-6178
анышы	-6179
өзбек	-6180
▁сект	-6181
▁канал	-6182
апрелге	-6183
▁буларды	-6184
▁экспорт	-6185
▁экспертиз	-6186
▁экологиялык	-6187
▁Экономикалык	-6188
кем	-6189
▁Хан	-6190
▁Бажы	-6191
▁реформа	-6192
▁былтыркы	-6193
▁аскерлерин	-6194
▁ийгиликтүү	-6195
▁киргизилди	-6196
▁мөөнөтүнөн	-6197
Цент	-6198
▁ЖЭБ	-6199
▁Сөз	-6200
▁каст	-6201
▁Мекеме	-6202
▁Азиянын	-6203
▁Республ	-6204
▁Кремлдин	-6205
▁башкарып	-6206
▁кабарчысы	-6207
окр	-6208
▁41	-6209
жарак	-6210
▁бүтк	-6211
▁орду	-6212
алышын	-6213
▁менчи	-6214
▁тамыр	-6215
▁улутт	-6216
▁үйдөн	-6217
▁албайм	-6218
▁ачылды	-6219
▁туризм	-6220
▁Кытайда	-6221
▁Харьков	-6222
▁окуядан	-6223
▁өткөрмө	-6224
▁Натыйжада	-6225
▁бийлигине	-6226
▁Фейсбуктагы	-6227
8,	-6228
лигин	-6229
▁Төрт	-6230
▁заво	-6231
▁дайым	-6232
▁депор	-6233
▁Равшан	-6234
▁балбан	-6235
▁шаарда	-6236
▁жетектеп	-6237
ia	-6238
ехан	-6239
▁сей	-6240
▁атам	-6241
лардан	-6242
невмон	-6243
▁Сапар	-6244
▁жаткыр	-6245
▁жыйыны	-6246
▁кошкон	-6247
▁жерлерде	-6248
▁негизсиз	-6249
лис	-6250
абил	-6251
▁укт	-6252
▁Салык	-6253
▁Кандай	-6254
алдаштыр	-6255
▁Да	-6256
▁кыян	-6257
жылдар	-6258
▁жашыл	-6259
▁кетсе	-6260
ылышына	-6261
юп	-6262
лет	-6263
сиң	-6264
▁Мих	-6265
▁апт	-6266
▁душ	-6267
Центер	-6268
▁Абанын	-6269
▁баасын	-6270
▁баянда	-6271
▁тарыхы	-6272
▁билдирет	-6273
▁төрөлгөн	-6274
▁пикиринде	-6275
▁Казакстандагы	-6276
▁55	-6277
алог	-6278
корл	-6279
өлөк	-6280
▁Иса	-6281
ттарды	-6282
▁участ	-6283
▁чечип	-6284
суалдык	-6285
▁баланы	-6286
▁уулунун	-6287
▁өзгөчөл	-6288
▁сакталып	-6289
▁Европадагы	-6290
▁демократия	-6291
▁шаарларында	-6292
зел	-6293
▁Сок	-6294
▁унаа	-6295
▁Бекеш	-6296
▁коман	-6297
▁абалын	-6298
▁айыгып	-6299
▁айыпто	-6300
▁даттан	-6301
▁кыздар	-6302
▁курууга	-6303
▁масштаб	-6304
▁суроого	-6305
▁кесепети	-6306
▁лицензия	-6307
eu	-6308
тарт	-6309
▁Кый	-6310
▁сил	-6311
үндөй	-6312
▁Орто	-6313
▁брит	-6314
▁какты	-6315
▁кечээ	-6316
▁ылдам	-6317
▁качкан	-6318
▁Коомдук	-6319
▁пикирде	-6320
▁Мухаммед	-6321
▁полициясы	-6322
▁үр	-6323
Бишк	-6324
сион	-6325
актуу	-6326
оодон	-6327
▁адис	-6328
▁конф	-6329
▁өнүк	-6330
ференция	-6331
▁даярдап	-6332
▁экенине	-6333
▁Түркияга	-6334
▁согуштук	-6335
▁чагылдыр	-6336
▁борборлор	-6337
▁жылдыгына	-6338
▁келгенден	-6339
▁окуяларды	-6340
▁чыккандан	-6341
олл	-6342
ыйт	-6343
ягы	-6344
инов	-6345
чара	-6346
▁кей	-6347
етине	-6348
икага	-6349
▁жоюу	-6350
▁коюш	-6351
бирине	-6352
ылышын	-6353
▁аймагы	-6354
▁интерв	-6355
▁орточо	-6356
▁бошотуу	-6357
▁кечирим	-6358
▁Бейшеналиев	-6359
▁кызматкерлердин	-6360
▁Ян	-6361
адык	-6362
екти	-6363
идин	-6364
▁Ишк	-6365
▁Элдик	-6366
▁бутага	-6367
▁чектеш	-6368
▁адвокат	-6369
▁макулда	-6370
▁аймагынан	-6371
▁күчтөрдүн	-6372
▁баштаганын	-6373
▁башчысынын	-6374
▁тескерисинче	-6375
сел	-6376
▁өп	-6377
Сиге	-6378
▁быш	-6379
иктен	-6380
▁коңш	-6381
▁Минск	-6382
▁кирүүгө	-6383
▁чакыруу	-6384
▁жылуулук	-6385
▁чаралары	-6386
▁доллардан	-6387
▁депортация	-6388
▁жатышканын	-6389
▁47	-6390
▁ЖККУ	-6391
▁арда	-6392
▁боор	-6393
▁жакш	-6394
▁ойдо	-6395
▁армян	-6396
▁калыс	-6397
▁башчынын	-6398
▁сактагыч	-6399
▁ишенимдүү	-6400
▁программасы	-6401
▁суроолоруна	-6402
▁администрациясы	-6403
Ош	-6404
етер	-6405
▁Азиз	-6406
▁жүрө	-6407
елерге	-6408
▁соккул	-6409
▁жарылуу	-6410
▁колдоого	-6411
▁шаарынан	-6412
роф	-6413
бара	-6414
▁Ира	-6415
▁каф	-6416
▁Азим	-6417
▁Польш	-6418
▁ырайы	-6419
марттан	-6420
▁Өлкөдө	-6421
▁Тегеран	-6422
▁жазылып	-6423
▁көрбөгөн	-6424
▁облусуна	-6425
▁созулган	-6426
▁миллионго	-6427
беренесинин	-6428
▁чыгармачыл	-6429
▁муниципалдык	-6430
▁оф	-6431
ност	-6432
ликти	-6433
▁чыкп	-6434
ыштагы	-6435
▁кетишти	-6436
▁күйүүчү	-6437
▁тармагы	-6438
чыларынын	-6439
▁жоктугун	-6440
▁Лукашенко	-6441
▁мекендешт	-6442
▁чыккандар	-6443
▁прокуратурасы	-6444
бест	-6445
▁194	-6446
...-1	-6447
лаган	-6448
▁камп	-6449
▁тили	-6450
▁четтет	-6451
▁чегинде	-6452
▁курулган	-6453
▁Матраимовдун	-6454
аил	-6455
пул	-6456
▁Уба	-6457
▁Чет	-6458
ымдын	-6459
▁башы	-6460
▁катчы	-6461
▁майда	-6462
▁жүрүшү	-6463
▁коомдо	-6464
▁сайтында	-6465
чык	-6466
дугу	-6467
ракт	-6468
▁Беш	-6469
▁Тар	-6470
жайын	-6471
ортко	-6472
тарын	-6473
▁Жекш	-6474
линкен	-6475
▁Долбо	-6476
▁кирүү	-6477
▁колон	-6478
▁коюлуп	-6479
▁окууда	-6480
▁өтүүгө	-6481
▁жаратты	-6482
▁колунан	-6483
▁ташыган	-6484
▁борборунда	-6485
Ай	-6486
▁42	-6487
▁Наз	-6488
майга	-6489
▁Мект	-6490
алиция	-6491
▁Блинкен	-6492
▁дүйнөгө	-6493
▁ошондон	-6494
▁шилтеме	-6495
▁кызматтык	-6496
▁өткөрүлүп	-6497
▁ассоциация	-6498
▁башаламанды	-6499
▁жолугушууда	-6500
▁аскерлеринин	-6501
▁Им	-6502
апор	-6503
▁Жет	-6504
▁Төл	-6505
▁боз	-6506
енттин	-6507
▁Баары	-6508
▁жалаң	-6509
▁кээде	-6510
▁болору	-6511
▁болсун	-6512
▁жайкын	-6513
▁пикири	-6514
▁киргизил	-6515
▁тизмесин	-6516
▁казакстандык	-6517
.)	-6518
лу	-6519
кыч	-6520
▁чап	-6521
сунан	-6522
▁бакч	-6523
▁кимге	-6524
▁үмүтт	-6525
▁Юстиция	-6526
▁мүнөздө	-6527
▁коопсуздугу	-6528
40	-6529
пр	-6530
▁39	-6531
▁КМ	-6532
▁Лу	-6533
дүгү	-6534
▁Реж	-6535
▁Шав	-6536
алдан	-6537
▁виза	-6538
▁уруп	-6539
▁аткез	-6540
▁механ	-6541
▁үстөм	-6542
▁Полиция	-6543
▁адабият	-6544
▁баштапкы	-6545
▁кабаттуу	-6546
▁Нурсултан	-6547
▁акциялары	-6548
▁эркиндигин	-6549
ТР	-6550
мөк	-6551
бойт	-6552
▁тум	-6553
▁чир	-6554
▁Союз	-6555
▁колу	-6556
актары	-6557
▁Венгр	-6558
▁кенен	-6559
▁жарлык	-6560
▁тааныш	-6561
▁иштебей	-6562
▁дегендей	-6563
▁тажрыйба	-6564
▁Биримдиги	-6565
▁камтылган	-6566
▁өрөөнүндө	-6567
▁өкүлдөрүнүн	-6568
▁түшүндүрмөсү	-6569
уч	-6570
бий	-6571
дарм	-6572
▁нем	-6573
▁тонн	-6574
▁атабыз	-6575
▁Башкача	-6576
▁Кеңешке	-6577
▁өкмөттү	-6578
▁тапшырды	-6579
▁иликтөөлөр	-6580
▁институтунун	-6581
▁шайлоочулардын	-6582
ств	-6583
ттен	-6584
▁илин	-6585
нексия	-6586
ттардын	-6587
▁көмүскө	-6588
▁Пандемия	-6589
▁бийликте	-6590
▁китептер	-6591
▁айларында	-6592
▁милдеттендир	-6593
▁жоопкерчилиги	-6594
боо	-6595
гысы	-6596
ешти	-6597
усуна	-6598
▁реестр	-6599
▁тургай	-6600
▁калышты	-6601
▁катышат	-6602
▁көрүнүп	-6603
▁Франциянын	-6604
ерд	-6605
абад	-6606
амбет	-6607
шканы	-6608
еттери	-6609
▁2005-	-6610
▁асман	-6611
▁жүрдү	-6612
▁калаа	-6613
▁Анткен	-6614
▁балким	-6615
▁конушт	-6616
▁артынан	-6617
▁беришет	-6618
▁кишиден	-6619
▁өткөрдү	-6620
▁аялдарга	-6621
▁кабинети	-6622
▁мектепте	-6623
▁сактоого	-6624
▁экология	-6625
▁жүргүзүлүп	-6626
▁алгандардын	-6627
▁экстремисттик	-6628
it	-6629
иан	-6630
▁43	-6631
▁New	-6632
▁чакты	-6633
▁өтүшү	-6634
аттарын	-6635
▁Белгил	-6636
▁жайылт	-6637
▁түрткү	-6638
дыктарды	-6639
▁акцияга	-6640
▁камалды	-6641
▁штабдын	-6642
▁берүүнүн	-6643
▁палестин	-6644
▁болгондон	-6645
▁дайындалды	-6646
▁өнүктүрүүгө	-6647
▁оппозициячыл	-6648
аан	-6649
ира	-6650
асул	-6651
атов	-6652
ская	-6653
откон	-6654
▁муфт	-6655
▁эфир	-6656
▁Талиб	-6657
▁гезит	-6658
▁сомду	-6659
▁тирүү	-6660
▁Херсон	-6661
▁класст	-6662
▁толукт	-6663
▁жактагы	-6664
▁мигрант	-6665
▁Кореянын	-6666
▁балдарын	-6667
▁жайларда	-6668
▁талаштуу	-6669
▁Акыйкатчы	-6670
▁кеңешчиси	-6671
▁окуяларга	-6672
▁ошондуктан	-6673
▁департаментинин	-6674
тони	-6675
▁ЖМК	-6676
▁ашы	-6677
▁рев	-6678
остук	-6679
пикир	-6680
▁өкүн	-6681
инекей	-6682
▁ортом	-6683
▁жокмун	-6684
▁Финансы	-6685
▁аныктап	-6686
▁астында	-6687
▁иштерге	-6688
▁келүүдө	-6689
▁турууга	-6690
▁калыптан	-6691
▁жазгандай	-6692
▁баалуулуктар	-6693
▁тарапташтары	-6694
Ук	-6695
▁V	-6696
▁Үс	-6697
▁рол	-6698
дикти	-6699
устар	-6700
▁Улук	-6701
итация	-6702
▁Борон	-6703
▁сууга	-6704
иктерди	-6705
ларация	-6706
▁арасын	-6707
▁жокпуз	-6708
▁таануу	-6709
▁коюшкан	-6710
▁редакция	-6711
▁сүйлөшкөн	-6712
часы	-6713
дөргө	-6714
энеси	-6715
▁Мага	-6716
▁чыкса	-6717
▁үйрөт	-6718
▁Иранда	-6719
▁Мирлан	-6720
▁келишти	-6721
▁Европанын	-6722
om	-6723
▁би	-6724
олот	-6725
▁Ден	-6726
▁Чех	-6727
ессия	-6728
▁Ооба	-6729
▁авиак	-6730
▁дараж	-6731
▁сумма	-6732
▁эреже	-6733
ергетика	-6734
▁жазасын	-6735
▁жолунун	-6736
▁барганда	-6737
▁кызматта	-6738
▁жагдайлар	-6739
гуз	-6740
▁2,	-6741
▁Гон	-6742
гожин	-6743
▁ауди	-6744
аевдин	-6745
▁Канат	-6746
▁Сузак	-6747
▁Адахан	-6748
▁берене	-6749
▁айтышат	-6750
ёр	-6751
мад	-6752
▁65	-6753
▁лог	-6754
▁Конг	-6755
▁спик	-6756
ибизди	-6757
▁машыг	-6758
▁тизме	-6759
сындагы	-6760
▁Лейлек	-6761
▁мисалы	-6762
▁пикирлер	-6763
▁миллиондогон	-6764
ыштан	-6765
▁кичи	-6766
▁корг	-6767
▁башын	-6768
▁кенем	-6769
дегенде	-6770
▁кетсек	-6771
▁машыкт	-6772
▁окуучу	-6773
▁банктар	-6774
▁жеринде	-6775
▁иштетүү	-6776
▁күчүндө	-6777
▁салынат	-6778
▁стандар	-6779
▁өндүрүү	-6780
▁аймактын	-6781
▁Кубанычбек	-6782
▁жарандарына	-6783
▁жүргүзүлгөн	-6784
▁Кы	-6785
▁пан	-6786
▁чат	-6787
▁лагер	-6788
▁Шавкат	-6789
▁чарасы	-6790
▁Абдулла	-6791
▁даярдоо	-6792
▁сунушун	-6793
▁түшүнүп	-6794
▁тагылган	-6795
▁Жапаровго	-6796
▁кесиптешт	-6797
▁ракеталык	-6798
▁берилгенин	-6799
▁колдонулган	-6800
▁санкцияларды	-6801
Кыз	-6802
асың	-6803
ипов	-6804
реди	-6805
▁Син	-6806
дорго	-6807
ордин	-6808
▁араб	-6809
▁арызы	-6810
▁Анкара	-6811
▁баатыр	-6812
▁кардар	-6813
▁НАТОнун	-6814
▁салынды	-6815
▁директор	-6816
▁шартында	-6817
▁долбооруна	-6818
▁пандемиясы	-6819
▁үзгүлтүккө	-6820
екс	-6821
▁196	-6822
▁Айма	-6823
▁Жаза	-6824
▁маян	-6825
▁кызды	-6826
▁кесилген	-6827
▁коалиция	-6828
▁тармагына	-6829
▁байланышта	-6830
▁зомбулукка	-6831
▁уюштурулган	-6832
▁E	-6833
▁Y	-6834
дат	-6835
умду	-6836
▁Кем	-6837
▁пре	-6838
▁чай	-6839
басын	-6840
икасы	-6841
▁Сверд	-6842
▁вариан	-6843
▁кошуна	-6844
▁Ушундан	-6845
▁тизмеге	-6846
▁тартылып	-6847
▁өткөндөн	-6848
▁институтт	-6849
▁тарыхында	-6850
см	-6851
▁Ко	-6852
глис	-6853
усун	-6854
▁Бур	-6855
▁Жаб	-6856
икада	-6857
▁азайып	-6858
▁блогер	-6859
▁жумган	-6860
▁толкун	-6861
▁аннексия	-6862
▁кайтаруу	-6863
▁институту	-6864
▁күтүлүүдө	-6865
▁аракеттерин	-6866
ИИМ	-6867
жаш	-6868
▁жор	-6869
апорож	-6870
▁Пашин	-6871
▁Сайма	-6872
алардан	-6873
▁аралашкан	-6874
▁зарылдыгын	-6875
▁материалдык	-6876
ток	-6877
ынып	-6878
▁мор	-6879
▁ушу	-6880
▁жыйн	-6881
▁кепт	-6882
▁баңгиз	-6883
▁Запорож	-6884
▁жемкорл	-6885
▁радикал	-6886
▁Пригожин	-6887
▁аралыкта	-6888
▁кызыкдар	-6889
▁репрессия	-6890
▁талкуулан	-6891
▁Президенттик	-6892
▁ыз	-6893
▁Вир	-6894
▁Эрт	-6895
▁плат	-6896
▁утур	-6897
гөөнүн	-6898
▁1990-	-6899
▁тагын	-6900
▁чалып	-6901
▁Саясий	-6902
▁жүргүн	-6903
▁ээлеген	-6904
▁чогултуп	-6905
▁куугунтук	-6906
▁эсептелген	-6907
▁энергетикалык	-6908
есиз	-6909
ектак	-6910
итект	-6911
ордон	-6912
▁ижар	-6913
▁июль	-6914
баганы	-6915
дармек	-6916
▁айтуу	-6917
ыктарын	-6918
▁Исаков	-6919
▁режисс	-6920
есиндеги	-6921
▁Пашинян	-6922
▁студент	-6923
▁сурамжыл	-6924
▁көзөмөлдө	-6925
▁мандаттуу	-6926
▁эгемендик	-6927
▁Министрлик	-6928
▁уюштурууга	-6929
▁финансылык	-6930
▁өлкөлөрдөн	-6931
ig	-6932
өлүп	-6933
▁Сыр	-6934
боого	-6935
өңкөр	-6936
▁Андр	-6937
▁2011-	-6938
▁Тилек	-6939
▁жоокер	-6940
▁салгыл	-6941
▁чектел	-6942
Центерра	-6943
▁генерал	-6944
▁програм	-6945
▁сүйлөшт	-6946
▁сөзүндө	-6947
ейшембиде	-6948
▁Советтер	-6949
▁глобалдык	-6950
▁келгендер	-6951
ol	-6952
°,	-6953
Тв	-6954
юк	-6955
елл	-6956
өңг	-6957
жара	-6958
▁пат	-6959
▁кино	-6960
▁Тажик	-6961
▁ойлор	-6962
▁өскөн	-6963
▁айылда	-6964
▁колдой	-6965
▁координ	-6966
▁келтирип	-6967
▁мектептин	-6968
▁ип	-6969
тыгы	-6970
▁аялы	-6971
▁Манас	-6972
▁арага	-6973
▁олтур	-6974
▁абанын	-6975
▁жылдыр	-6976
▁каарман	-6977
▁курулуп	-6978
▁улантып	-6979
▁Лукашенк	-6980
▁Свердлов	-6981
▁калтырды	-6982
▁аныкталып	-6983
▁биргеликте	-6984
▁КМШ	-6985
▁дан	-6986
устук	-6987
Бишкек	-6988
▁2013-	-6989
▁планы	-6990
ерлерге	-6991
▁Михаил	-6992
▁адабия	-6993
▁жөндөм	-6994
▁мандат	-6995
▁жашында	-6996
▁пневмон	-6997
▁адамдары	-6998
▁тааныган	-6999
▁бейтаптар	-7000
▁белгилери	-7001
▁маселесине	-7002
▁айланасындагы	-7003
имде	-7004
үшкө	-7005
▁195	-7006
▁дүр	-7007
▁дүң	-7008
▁идея	-7009
▁өнүм	-7010
▁өтөп	-7011
▁Балдар	-7012
▁сыйлык	-7013
▁Көлбаев	-7014
▁айланды	-7015
▁чарасын	-7016
▁Орусияны	-7017
▁кылганын	-7018
▁чемпиону	-7019
▁ыңгайлуу	-7020
▁Бакиевдин	-7021
▁көрсөтүүгө	-7022
Тез	-7023
гый	-7024
ымыр	-7025
уштуу	-7026
▁жагы	-7027
▁батыш	-7028
▁отчет	-7029
▁төраг	-7030
▁кризис	-7031
▁Жапония	-7032
▁жеңишке	-7033
▁түзүүгө	-7034
▁жарыялан	-7035
▁калтырган	-7036
▁көтөрүлдү	-7037
▁топтордун	-7038
▁айтылгандай	-7039
▁кызматташуу	-7040
▁Коронавируска	-7041
дал	-7042
▁тү	-7043
ектр	-7044
▁зон	-7045
▁Цзин	-7046
▁алда	-7047
▁архив	-7048
▁бирден	-7049
▁тандап	-7050
▁убакты	-7051
▁реалдуу	-7052
▁өзгөрүү	-7053
▁кесиптик	-7054
▁тапшырып	-7055
▁шаардагы	-7056
Фейсбуктагы	-7057
▁Абылгазиев	-7058
▁прокуратурага	-7059
▁талапкерлигин	-7060
▁жоопкерчиликти	-7061
еки	-7062
цар	-7063
аков	-7064
▁Коч	-7065
▁аза	-7066
канын	-7067
▁калкы	-7068
▁бериле	-7069
▁жактыр	-7070
▁көчөгө	-7071
ранспорт	-7072
▁дайында	-7073
▁жайылып	-7074
▁февраль	-7075
▁жөнөткөн	-7076
▁согуштан	-7077
▁аныктаган	-7078
▁дарыланып	-7079
▁көзөмөлдөп	-7080
▁белгилегендей	-7081
▁инвестициялык	-7082
▁талапкерлердин	-7083
▁абр	-7084
▁ник	-7085
арбек	-7086
▁Мари	-7087
▁Тыны	-7088
▁турса	-7089
▁ченем	-7090
омпания	-7091
▁комисс	-7092
▁Мамытов	-7093
▁сатылып	-7094
▁таанымал	-7095
▁жакшыртуу	-7096
▁келишимди	-7097
▁суроолорго	-7098
пин	-7099
сыл	-7100
клав	-7101
ульт	-7102
өргө	-7103
▁Кач	-7104
▁чур	-7105
▁Парт	-7106
▁автом	-7107
▁уюмга	-7108
▁аларын	-7109
▁алдыда	-7110
▁мүлктү	-7111
▁тилдүү	-7112
▁Улукбек	-7113
▁автобус	-7114
▁айтканы	-7115
▁тизмеси	-7116
▁аткарган	-7117
▁бардыгын	-7118
▁долларлык	-7119
▁Кыргызстанды	-7120
▁кошумчалаган	-7121
15	-7122
хам	-7123
▁Аж	-7124
▁эж	-7125
▁кое	-7126
манов	-7127
пөгөн	-7128
▁суук	-7129
▁бекер	-7130
▁жүрүм	-7131
▁рубль	-7132
▁Мамбет	-7133
▁диалог	-7134
▁кимдер	-7135
▁иликтен	-7136
▁жумушсуз	-7137
▁кепилдик	-7138
▁койгонун	-7139
▁декларация	-7140
▁жаатындагы	-7141
рис	-7142
шай	-7143
ылай	-7144
▁120	-7145
▁Жун	-7146
▁тун	-7147
лерди	-7148
сунун	-7149
▁отуз	-7150
▁Кечээ	-7151
▁алсак	-7152
▁медал	-7153
алганын	-7154
▁чечүүгө	-7155
▁Сириянын	-7156
▁бузуулар	-7157
▁жеңилдет	-7158
▁Биринчиден	-7159
▁аймактарга	-7160
▁кызыкчылыгы	-7161
▁мыйзамдарды	-7162
▁министрликтин	-7163
гип	-7164
үбү	-7165
▁-2	-7166
▁192	-7167
▁Мал	-7168
аарын	-7169
ханов	-7170
▁2000	-7171
▁түнд	-7172
ерттер	-7173
усунан	-7174
▁бүтүн	-7175
▁даана	-7176
▁сайты	-7177
▁ыктым	-7178
дыгында	-7179
▁адилет	-7180
▁сомдук	-7181
▁аппарат	-7182
▁керектөө	-7183
▁жанындагы	-7184
▁окуучулар	-7185
▁өткөрүүнү	-7186
▁болбогонун	-7187
▁жарандарынын	-7188
▁жетекчисинин	-7189
▁мигранттарды	-7190
▁Кыргызстандык	-7191
im	-7192
пол	-7193
▁Каз	-7194
▁фран	-7195
абаган	-7196
▁балам	-7197
▁жайына	-7198
▁тейлөө	-7199
етербург	-7200
▁барууга	-7201
▁калууда	-7202
▁спортчу	-7203
▁колдоосу	-7204
▁которгон	-7205
▁механизм	-7206
Вт	-7207
сез	-7208
▁Ус	-7209
▁ча	-7210
ters	-7211
ейцар	-7212
ктешт	-7213
▁Өзгөн	-7214
назаров	-7215
▁Астана	-7216
▁буудай	-7217
▁жашоого	-7218
▁камалып	-7219
▁чыңалуу	-7220
▁көмөктөш	-7221
▁төрайымы	-7222
▁Беларуста	-7223
▁талкууланып	-7224
▁коопсуздукту	-7225
ох	-7226
▁күл	-7227
айкын	-7228
иясын	-7229
ээрим	-7230
▁келб	-7231
▁курчуп	-7232
▁шаарын	-7233
▁кошулуп	-7234
▁талдоочу	-7235
күл	-7236
▁Жоо	-7237
▁дуу	-7238
▁маек	-7239
▁Үсөн	-7240
▁арбын	-7241
▁баруу	-7242
ишкенин	-7243
▁Андрей	-7244
▁Маркум	-7245
▁калбай	-7246
▁финалда	-7247
▁өздөрүн	-7248
▁эркектер	-7249
▁биргелешип	-7250
▁жакындарына	-7251
Йор	-7252
отек	-7253
стык	-7254
ыңыз	-7255
▁Исп	-7256
▁дос	-7257
абуул	-7258
бызда	-7259
▁сокк	-7260
euters	-7261
асыңар	-7262
олгону	-7263
▁Зулуш	-7264
▁демек	-7265
▁жумур	-7266
▁Жолдош	-7267
▁кримин	-7268
▁ошонун	-7269
▁сотуна	-7270
үүлөрдүн	-7271
▁өткөнүн	-7272
▁агрессия	-7273
▁козгогон	-7274
▁сөздөрдү	-7275
▁кеткенден	-7276
▁кабылганын	-7277
▁которулган	-7278
▁көзөмөлдөгөн	-7279
60	-7280
ита	-7281
жайы	-7282
▁алк	-7283
▁үнү	-7284
▁бирим	-7285
▁Донецк	-7286
▁Макрон	-7287
▁жумада	-7288
▁саатка	-7289
▁эскертип	-7290
▁макулдашуу	-7291
▁булактарына	-7292
▁кыйынчылыктар	-7293
▁ке	-7294
ашуу	-7295
үмдү	-7296
▁анык	-7297
▁элчи	-7298
▁жигер	-7299
стандын	-7300
үктөрдү	-7301
▁душман	-7302
▁ырайым	-7303
▁техника	-7304
▁жолдорун	-7305
▁пайдалуу	-7306
▁камсыздан	-7307
▁профессор	-7308
▁айланасында	-7309
▁материалдар	-7310
70	-7311
▁O	-7312
000	-7313
игый	-7314
үңүз	-7315
▁Кир	-7316
▁Мэр	-7317
▁үйл	-7318
▁буюр	-7319
ясынын	-7320
▁Токио	-7321
▁түшөт	-7322
ативдүү	-7323
▁андагы	-7324
▁ачылып	-7325
▁редакт	-7326
▁өзүндө	-7327
▁болушту	-7328
▁берүүдөн	-7329
▁курулушт	-7330
▁аймагынын	-7331
▁борборуна	-7332
▁көзөмөлгө	-7333
▁деңгээлдеги	-7334
▁каражаттарынын	-7335
id	-7336
айлы	-7337
алит	-7338
илов	-7339
тары	-7340
▁чий	-7341
уштук	-7342
▁дене	-7343
▁билин	-7344
▁бүтүп	-7345
албаган	-7346
уулукту	-7347
▁топтоп	-7348
▁арасына	-7349
▁жыйынын	-7350
▁түзүлдү	-7351
▁коркутуп	-7352
▁тургандай	-7353
▁куугунтукт	-7354
▁Навальныйдын	-7355
▁кызыкчылыгын	-7356
▁Конституциянын	-7357
БШК	-7358
ишим	-7359
каны	-7360
стон	-7361
угуш	-7362
▁дер	-7363
▁ман	-7364
▁рух	-7365
дөрдө	-7366
▁Режеп	-7367
▁байка	-7368
▁Нурбек	-7369
▁артист	-7370
▁валюта	-7371
▁дуушар	-7372
▁кыдырып	-7373
▁мындайча	-7374
▁объектил	-7375
▁чыгарылып	-7376
▁өзбекстан	-7377
▁мугалимдер	-7378
▁экспертиза	-7379
▁мекемесинин	-7380
▁кызматташтыкты	-7381
na	-7382
кил	-7383
айып	-7384
уулугу	-7385
▁Аскер	-7386
▁бөлүш	-7387
▁күйүп	-7388
▁оңдоп	-7389
▁сарпт	-7390
▁ушуну	-7391
дарынан	-7392
циналык	-7393
▁Прокур	-7394
▁акысыз	-7395
▁британ	-7396
▁метрге	-7397
▁тууганы	-7398
▁видеолор	-7399
▁вирустун	-7400
▁жарандын	-7401
▁жумуштан	-7402
▁Байдендин	-7403
▁Украинаны	-7404
▁борбордун	-7405
▁каражатты	-7406
▁жөнөтүлгөн	-7407
▁Пакистандын	-7408
▁жыйынтыгына	-7409
▁Журналисттер	-7410
▁мигранттарга	-7411
ург	-7412
...3	-7413
арус	-7414
▁фун	-7415
ымсыз	-7416
▁Аксы	-7417
▁мазм	-7418
ектешт	-7419
▁Иликт	-7420
алышына	-7421
▁Турсун	-7422
▁Эгемен	-7423
▁барбай	-7424
▁жаатта	-7425
▁коюуга	-7426
октябрга	-7427
▁иштөөгө	-7428
▁мааниси	-7429
▁багытында	-7430
▁негиздөөчүсү	-7431
▁коронавирусту	-7432
фон	-7433
арат	-7434
▁Жай	-7435
▁Лит	-7436
▁Тынч	-7437
▁жооб	-7438
иктери	-7439
мөндөр	-7440
▁Тарых	-7441
▁дешти	-7442
▁анклав	-7443
▁режими	-7444
▁Үчүнчү	-7445
▁күбөлөр	-7446
▁каптаган	-7447
▁маселеге	-7448
▁чектелген	-7449
каз	-7450
чун	-7451
өбө	-7452
▁Опп	-7453
дугун	-7454
▁тыян	-7455
▁айтыш	-7456
▁ынтым	-7457
▁Оштогу	-7458
▁курамы	-7459
▁тарапк	-7460
▁чечкен	-7461
▁түрмөдө	-7462
▁курамына	-7463
▁жаткандар	-7464
▁өлтүрүлгөн	-7465
авр	-7466
есиң	-7467
▁мер	-7468
▁Махм	-7469
▁рейт	-7470
▁фрон	-7471
▁үчөө	-7472
Украин	-7473
▁Айсул	-7474
▁академ	-7475
▁англис	-7476
▁жазага	-7477
▁Бекешев	-7478
▁кабылды	-7479
▁кенемте	-7480
▁чечимге	-7481
▁бузулган	-7482
▁бюджеттен	-7483
▁саламатты	-7484
▁суроосуна	-7485
▁тажикстан	-7486
▁дарыгерлердин	-7487
лай	-7488
орд	-7489
▁49	-7490
▁54	-7491
▁Сп	-7492
▁2,5	-7493
▁жеп	-7494
▁каг	-7495
▁төк	-7496
генин	-7497
▁Гүлн	-7498
▁азап	-7499
▁кетп	-7500
еттеги	-7501
үктөрү	-7502
▁десем	-7503
▁ойноп	-7504
▁салат	-7505
▁Данияр	-7506
▁жүргөнү	-7507
▁каралат	-7508
▁күрөшүп	-7509
▁тополоң	-7510
▁учкучсуз	-7511
▁чыгарууну	-7512
▁Энергетика	-7513
▁жүргүзүүгө	-7514
▁маалымдалды	-7515
Ан	-7516
жаб	-7517
▁Обл	-7518
ганда	-7519
манын	-7520
ыгынын	-7521
▁Актив	-7522
▁көрдү	-7523
▁турчу	-7524
▁окууга	-7525
▁тоолор	-7526
▁төңкөр	-7527
▁Кийинки	-7528
▁билебиз	-7529
▁жыйырма	-7530
▁чараларын	-7531
▁билдирүүсү	-7532
▁долбоордун	-7533
▁министрлер	-7534
еле	-7535
үнөм	-7536
▁жек	-7537
бизди	-7538
ырбек	-7539
▁кори	-7540
▁ымыр	-7541
▁Фейсб	-7542
▁жөлөк	-7543
▁кириш	-7544
▁тыгыз	-7545
▁көчөдө	-7546
▁чыгара	-7547
иктердин	-7548
▁Австрал	-7549
▁Каныбек	-7550
▁Айтматов	-7551
▁интервью	-7552
▁начарлап	-7553
▁башталганын	-7554
▁долбоорлорду	-7555
,6	-7556
-2	-7557
ахта	-7558
▁Кыл	-7559
ендер	-7560
самбл	-7561
▁чечм	-7562
▁банкы	-7563
▁жайда	-7564
▁табуу	-7565
▁тигил	-7566
▁баалап	-7567
▁катыша	-7568
▁салтан	-7569
матовдун	-7570
▁азайтуу	-7571
▁арыздан	-7572
▁кылганы	-7573
▁жабылган	-7574
▁калыптыр	-7575
▁Сириядагы	-7576
▁таасирдүү	-7577
▁мурдагыдай	-7578
▁украиналык	-7579
▁коркунучтуу	-7580
▁көрсөткүчтөр	-7581
шер	-7582
▁191	-7583
▁тиг	-7584
▁Эсен	-7585
▁АКШга	-7586
▁дарыя	-7587
▁кенин	-7588
▁турам	-7589
▁чатыр	-7590
▁айлана	-7591
▁моюнга	-7592
▁жаныбар	-7593
▁кылмышк	-7594
▁фактысы	-7595
▁кыйноого	-7596
▁көрсөтөт	-7597
▁татыктуу	-7598
▁Запорожье	-7599
▁маалымдалган	-7600
Кам	-7601
алл	-7602
лүк	-7603
▁57	-7604
ылса	-7605
▁Бей	-7606
▁Суу	-7607
өңгүл	-7608
▁тайп	-7609
Вагнер	-7610
▁аянты	-7611
▁күбөл	-7612
▁эсеби	-7613
▁имарат	-7614
▁көпүрө	-7615
▁фестив	-7616
▁чогулт	-7617
▁айыптоо	-7618
▁алмашуу	-7619
▁окуянын	-7620
▁түрүндө	-7621
▁каржылоо	-7622
▁кыйналып	-7623
▁этникалык	-7624
▁экономикасы	-7625
▁кыргыздардын	-7626
re	-7627
Бат	-7628
ктап	-7629
пест	-7630
▁Шве	-7631
▁жоб	-7632
▁чок	-7633
▁шаш	-7634
▁косм	-7635
▁2009-	-7636
▁Алиев	-7637
▁Махмуд	-7638
▁жайдын	-7639
▁октябр	-7640
▁ортодо	-7641
▁жатышты	-7642
▁оорунун	-7643
▁колдонул	-7644
▁кыргызча	-7645
▁тамактан	-7646
▁программа	-7647
▁ыктымалды	-7648
▁эместигин	-7649
▁санкциялар	-7650
▁кесепетинен	-7651
▁негизделген	-7652
ing	-7653
Чоң	-7654
чук	-7655
опул	-7656
ымда	-7657
түрүү	-7658
ыштар	-7659
▁Карм	-7660
▁схем	-7661
▁шери	-7662
▁Кайсы	-7663
▁акими	-7664
▁акысы	-7665
▁рыног	-7666
▁талан	-7667
гиндеги	-7668
▁Асанов	-7669
▁мейкин	-7670
▁изилдеп	-7671
▁спектак	-7672
▁өнөктөш	-7673
▁Европага	-7674
▁бюджетке	-7675
▁тармагын	-7676
▁шектелип	-7677
▁белгилешет	-7678
us	-7679
зы	-7680
дес	-7681
евич	-7682
▁Мун	-7683
▁даң	-7684
дерде	-7685
ерсия	-7686
▁Рыск	-7687
▁драм	-7688
▁дүйш	-7689
▁симв	-7690
▁ыргы	-7691
орация	-7692
▁Кочкор	-7693
▁ипотек	-7694
▁кошуун	-7695
▁АКШдагы	-7696
▁кезексиз	-7697
▁моралдык	-7698
▁Орусиялык	-7699
▁Таалайбек	-7700
▁ишканалар	-7701
▁аймактарды	-7702
▁жергесинде	-7703
кам	-7704
өлү	-7705
▁58	-7706
Башы	-7707
конг	-7708
чыгы	-7709
▁кайн	-7710
▁жүрөк	-7711
▁Чыгышт	-7712
▁билбейм	-7713
▁жасалып	-7714
▁ижарага	-7715
▁өлтүрүү	-7716
▁кезегинде	-7717
▁органдардын	-7718
▁макулдашууга	-7719
▁президенттикке	-7720
le	-7721
Ул	-7722
оса	-7723
түп	-7724
пиде	-7725
рель	-7726
өөдө	-7727
▁Бөл	-7728
▁ТИМ	-7729
ынган	-7730
▁Абдул	-7731
▁сереп	-7732
▁сутка	-7733
▁шарты	-7734
▁автору	-7735
▁сөөгүн	-7736
▁Жолугуш	-7737
▁колдоду	-7738
▁сатууга	-7739
▁дегендер	-7740
▁кичинекей	-7741
▁шайлоолор	-7742
▁аныкталганын	-7743
,7	-7744
еда	-7745
ылда	-7746
▁Мах	-7747
иллер	-7748
казак	-7749
спект	-7750
▁Алды	-7751
▁нарк	-7752
▁уурд	-7753
▁алдыр	-7754
▁жасоо	-7755
▁санап	-7756
▁болсок	-7757
▁беттешт	-7758
▁отургуз	-7759
▁районуна	-7760
▁тапшырма	-7761
▁ажыратылган	-7762
▁сунушталган	-7763
▁журналисттик	-7764
▁саламаттыкты	-7765
10	-7766
кун	-7767
лян	-7768
босо	-7769
егор	-7770
идео	-7771
▁Пав	-7772
▁сул	-7773
▁үйү	-7774
депут	-7775
омали	-7776
▁рейд	-7777
мартка	-7778
▁2008-	-7779
▁Булар	-7780
▁Комис	-7781
▁козут	-7782
▁Байсал	-7783
▁Кремль	-7784
▁коомго	-7785
▁күткөн	-7786
▁тартыш	-7787
▁Аскаров	-7788
▁жабылып	-7789
▁үстүндө	-7790
▁өзгөрүп	-7791
▁Кубатбек	-7792
▁бөлүштүр	-7793
▁жабырлан	-7794
▁кыргыздын	-7795
▁мейманкан	-7796
▁тоскоолду	-7797
▁канааттандыр	-7798
ейк	-7799
пой	-7800
өзү	-7801
▁Ах	-7802
гери	-7803
оман	-7804
▁Дар	-7805
▁Тат	-7806
▁алы	-7807
▁теб	-7808
ганск	-7809
омдук	-7810
▁Айдар	-7811
▁азгыр	-7812
▁далай	-7813
▁таңкы	-7814
алыктар	-7815
▁Соттун	-7816
▁аяктап	-7817
▁тартиби	-7818
▁абалынан	-7819
▁токтоткон	-7820
▁ырастаган	-7821
▁киргизилип	-7822
▁эркиндикке	-7823
▁талкууланды	-7824
ни	-7825
цуз	-7826
жарт	-7827
игит	-7828
орус	-7829
ентте	-7830
синде	-7831
дыгына	-7832
▁Балык	-7833
▁Бийик	-7834
▁оңдоо	-7835
▁учуру	-7836
▁жолдун	-7837
жартылай	-7838
▁Адистер	-7839
▁Айсулуу	-7840
▁Ташкент	-7841
▁Швейцар	-7842
▁акчанын	-7843
▁импортт	-7844
▁мекемеси	-7845
амлекеттик	-7846
▁ачкачылык	-7847
▁өзүбүздүн	-7848
▁эркиндигине	-7849
BC	-7850
Бал	-7851
▁Мус	-7852
▁мээ	-7853
ттери	-7854
үркүр	-7855
▁евро	-7856
▁калп	-7857
▁куур	-7858
▁комен	-7859
▁Мариуп	-7860
▁кайтыш	-7861
▁кылышы	-7862
▁турушу	-7863
▁жүрүшөт	-7864
▁түркмөн	-7865
▁калкынын	-7866
▁келечекте	-7867
▁жарыяланып	-7868
▁Кийинчерээк	-7869
▁Тажикстанга	-7870
▁түшүндүргөн	-7871
▁авторитардык	-7872
▁окумуштуулар	-7873
▁коопсуздугуна	-7874
,2	-7875
▁85	-7876
стын	-7877
▁сыз	-7878
▁Бала	-7879
▁ичип	-7880
▁тура	-7881
▁Мында	-7882
▁Премьер	-7883
▁айтууга	-7884
▁айылына	-7885
▁бузулуп	-7886
▁өнүккөн	-7887
▁алдыдагы	-7888
▁жугуштуу	-7889
▁өзгөртүп	-7890
▁резолюция	-7891
▁жерлеринде	-7892
▁орусиялыктар	-7893
▁өзгөртүүлөрдү	-7894
▁жоопкерчиликке	-7895
,8	-7896
имп	-7897
▁46	-7898
▁ме	-7899
▁ың	-7900
▁Бас	-7901
▁бос	-7902
▁куп	-7903
▁фер	-7904
ометр	-7905
▁Донб	-7906
▁таба	-7907
▁ысык	-7908
▁Борис	-7909
▁байма	-7910
▁сөөкт	-7911
▁топко	-7912
▁өнүгүп	-7913
▁баалады	-7914
▁окурман	-7915
▁аралашып	-7916
▁бөлүмүнө	-7917
▁көргөзмө	-7918
▁нерселер	-7919
▁Парламент	-7920
▁энергиясы	-7921
▁өзгөртүүлөр	-7922
Кл	-7923
БУУ	-7924
▁68	-7925
аптар	-7926
интип	-7927
июлга	-7928
рузин	-7929
▁Меде	-7930
▁шылт	-7931
▁билем	-7932
▁мунап	-7933
▁тариф	-7934
▁Канада	-7935
▁Боронов	-7936
▁Сыдыков	-7937
▁вирусту	-7938
▁даярдан	-7939
▁Батыштын	-7940
▁Маалымат	-7941
▁көбөйтүү	-7942
▁сунуштап	-7943
▁бөлүмүндө	-7944
▁окумуштуу	-7945
▁түшүндүрүп	-7946
▁маселелерин	-7947
▁тургундардын	-7948
нов	-7949
▁52	-7950
▁Ел	-7951
уура	-7952
▁Мыр	-7953
▁Там	-7954
▁аркы	-7955
▁узун	-7956
▁упай	-7957
▁айлам	-7958
еграция	-7959
▁Уюмдун	-7960
▁карашы	-7961
▁акыйкат	-7962
▁оорудан	-7963
▁финансы	-7964
▁дүйшөмбү	-7965
▁токтогон	-7966
▁туруштук	-7967
▁камактагы	-7968
▁кыянаттык	-7969
▁милдеттенм	-7970
көй	-7971
мыр	-7972
▁ою	-7973
иктор	-7974
▁Алим	-7975
▁Атыр	-7976
▁бомб	-7977
▁төлө	-7978
▁бетер	-7979
▁келер	-7980
▁толуп	-7981
аторлор	-7982
иторинг	-7983
▁жакыны	-7984
▁этност	-7985
▁Гонконг	-7986
▁түрмөгө	-7987
▁болушкан	-7988
▁күнүмдүк	-7989
▁тактаган	-7990
▁баратканын	-7991
▁илимдеринин	-7992
▁психологиялык	-7993
куп	-7994
▁Фр	-7995
вили	-7996
евди	-7997
▁250	-7998
▁тет	-7999
Көлдө	-8000
ыккан	-8001
▁Эмир	-8002
иевдин	-8003
кулова	-8004
▁намаз	-8005
▁уйгур	-8006
еттерин	-8007
▁акчасы	-8008
▁карайт	-8009
▁команд	-8010
▁дарылоо	-8011
▁илимпоз	-8012
▁кабатыр	-8013
▁которуп	-8014
▁милдети	-8015
▁эскерүү	-8016
Петербург	-8017
исттердин	-8018
▁бирөөлөр	-8019
▁чыкканда	-8020
▁кырдаалда	-8021
▁учурларда	-8022
▁Түркиядагы	-8023
▁алмаштыруу	-8024
▁кармалганы	-8025
▁чакырылган	-8026
▁миграциялык	-8027
▁үлгүсүндөгү	-8028
уму	-8029
ырап	-8030
үгүл	-8031
▁Вал	-8032
▁Отун	-8033
▁беки	-8034
▁аттан	-8035
▁ашкер	-8036
▁манас	-8037
▁чалды	-8038
▁коркуп	-8039
▁өтүүдө	-8040
▁Reuters	-8041
▁жардамга	-8042
▁милициясы	-8043
▁соолугуна	-8044
▁Штаттардын	-8045
▁карантинге	-8046
▁келишимдин	-8047
▁партиясынан	-8048
▁Казакстандан	-8049
▁демонстрация	-8050
ty	-8051
име	-8052
▁62	-8053
▁Кос	-8054
▁Түр	-8055
▁суг	-8056
▁чег	-8057
▁ээн	-8058
июнга	-8059
▁Ишен	-8060
▁күчт	-8061
▁уруш	-8062
абеков	-8063
ыштыгы	-8064
▁Сегиз	-8065
▁жабуу	-8066
▁тийип	-8067
▁тилке	-8068
фикация	-8069
▁аскери	-8070
▁жаштан	-8071
▁жердин	-8072
▁майнап	-8073
▁Айрыкча	-8074
▁Эмомали	-8075
▁ымыркай	-8076
▁жигердүү	-8077
ографиялык	-8078
▁жаратылыш	-8079
▁тажрыйбасы	-8080
▁тилкесинде	-8081
▁чакырыктар	-8082
▁аракеттерди	-8083
▁аскерлердин	-8084
▁Республикалык	-8085
12	-8086
ci	-8087
ub	-8088
▁800	-8089
айдын	-8090
олдин	-8091
▁бурм	-8092
▁Санкт	-8093
▁акыры	-8094
▁европ	-8095
▁кечки	-8096
▁конуш	-8097
▁тайма	-8098
▁Виктор	-8099
▁буйругу	-8100
▁Токтакун	-8101
▁бүтүндөй	-8102
▁жүгүртүү	-8103
▁адилеттүү	-8104
▁аэропортт	-8105
▁курамында	-8106
▁чыгарылды	-8107
▁бекитилген	-8108
▁позициясын	-8109
▁эрежелерин	-8110
▁тармактарга	-8111
▁нааразылыгын	-8112
СДП	-8113
алин	-8114
енти	-8115
окко	-8116
▁Иск	-8117
▁отч	-8118
▁теп	-8119
дорун	-8120
ингде	-8121
▁Бект	-8122
▁Берл	-8123
▁өлкөл	-8124
▁аялдын	-8125
▁баскыч	-8126
августка	-8127
▁көлөмүн	-8128
▁көрсөтө	-8129
▁турмушт	-8130
▁жайларга	-8131
▁келишими	-8132
▁таштанды	-8133
▁Конституцияга	-8134
ета	-8135
▁до	-8136
бады	-8137
ибер	-8138
▁айр	-8139
▁Акжол	-8140
▁Сирия	-8141
▁Польша	-8142
▁машина	-8143
▁Ошентсе	-8144
▁күчөтүү	-8145
▁табигый	-8146
▁табылып	-8147
▁келечеги	-8148
▁сентябрда	-8149
▁Федералдык	-8150
▁академиясынын	-8151
▁компаниялардын	-8152
орв	-8153
ори	-8154
берг	-8155
имтө	-8156
итке	-8157
▁Рам	-8158
▁мик	-8159
▁хим	-8160
▁Брюс	-8161
▁жобо	-8162
▁өлүп	-8163
▁берем	-8164
▁жүрүү	-8165
▁көбүн	-8166
▁ыңкыл	-8167
▁өстүр	-8168
имтөбөл	-8169
үктөрүн	-8170
▁кимдир	-8171
▁үйүнүн	-8172
▁жагдайды	-8173
▁жүргөндө	-8174
▁саясатка	-8175
▁алектенген	-8176
▁документти	-8177
▁маалыматтык	-8178
▁элчилигинин	-8179
▁журналисттин	-8180
▁тынчсыздануусун	-8181
тр	-8182
Бел	-8183
▁кыш	-8184
үлүшү	-8185
▁офиц	-8186
▁текст	-8187
▁уулан	-8188
▁ээлик	-8189
▁атышат	-8190
▁козгоп	-8191
▁акциясы	-8192
▁балалуу	-8193
▁бүтүрүү	-8194
▁ажыратуу	-8195
▁жеткирип	-8196
▁күчтөрүн	-8197
▁түшкөнүн	-8198
▁чечимдер	-8199
▁Жапаровду	-8200
▁деңгээлге	-8201
▁талкуулап	-8202
▁Германияда	-8203
▁Маалыматта	-8204
иби	-8205
▁63	-8206
▁оч	-8207
нтым	-8208
▁The	-8209
▁Жок	-8210
▁жыр	-8211
▁кас	-8212
терин	-8213
▁кура	-8214
▁ынан	-8215
▁алдым	-8216
▁альян	-8217
▁жасай	-8218
▁калың	-8219
▁көчкү	-8220
▁Африка	-8221
▁Ноокат	-8222
ификация	-8223
▁заводун	-8224
▁кайткан	-8225
▁атаандаш	-8226
▁козголоң	-8227
▁турмушка	-8228
▁экендиги	-8229
▁эрежелер	-8230
▁үйлөрдүн	-8231
▁өлтүрүүгө	-8232
▁губернатору	-8233
▁компаниясына	-8234
Ав	-8235
бин	-8236
ота	-8237
ттук	-8238
цтар	-8239
▁Сат	-8240
▁чөп	-8241
Фейсб	-8242
ашына	-8243
масын	-8244
өрман	-8245
дүүлүк	-8246
мыйзам	-8247
▁попул	-8248
▁обсерв	-8249
▁эгерде	-8250
▁Башында	-8251
▁платфор	-8252
▁Алтынбек	-8253
▁атышууну	-8254
▁жоголгон	-8255
▁корутунд	-8256
▁катышууга	-8257
▁катышууда	-8258
▁топтолгон	-8259
▁ресурстары	-8260
▁ишкерлердин	-8261
▁ыраазычылык	-8262
▁өлкөлөрүндө	-8263
▁Назарбаевдин	-8264
▁мүмкүнчүлүгүн	-8265
ht	-8266
▁53	-8267
анат	-8268
дөшт	-8269
чөйр	-8270
ылар	-8271
▁Гор	-8272
▁Нас	-8273
калый	-8274
▁азем	-8275
класст	-8276
▁кылыш	-8277
▁небер	-8278
▁немис	-8279
креттүү	-8280
чыларды	-8281
▁НАТОго	-8282
▁продук	-8283
▁Конгрес	-8284
▁байыркы	-8285
▁бергиле	-8286
▁түзүүнү	-8287
▁артиллер	-8288
▁мамилени	-8289
▁сунуштар	-8290
▁телеканал	-8291
▁кылмыштарга	-8292
,3	-8293
▁Же	-8294
▁Аль	-8295
▁сах	-8296
арова	-8297
аштар	-8298
▁Егип	-8299
▁Жоро	-8300
баштык	-8301
дүктөн	-8302
сторан	-8303
▁Евген	-8304
▁ашыгы	-8305
▁кулап	-8306
▁өкүмү	-8307
▁жалдан	-8308
▁кимдин	-8309
▁көрдүк	-8310
▁орунга	-8311
▁кетишин	-8312
▁которуу	-8313
▁салынып	-8314
▁фактылар	-8315
▁берилерин	-8316
▁электигин	-8317
▁экономиканы	-8318
гл	-8319
пө	-8320
сов	-8321
өнт	-8322
Кара	-8323
аңыз	-8324
елик	-8325
▁сүт	-8326
▁Илим	-8327
▁Согуш	-8328
▁Тайып	-8329
▁сынак	-8330
▁сөздү	-8331
▁ташуу	-8332
чылыгын	-8333
▁жерине	-8334
▁жүзөгө	-8335
▁сапаты	-8336
▁Адвокат	-8337
▁Темиров	-8338
▁категор	-8339
▁ылайыкт	-8340
▁акциялар	-8341
▁төртүнчү	-8342
▁Транспорт	-8343
▁киргенден	-8344
▁айдоочулар	-8345
▁кишилердин	-8346
дак	-8347
оза	-8348
оода	-8349
ткыч	-8350
штар	-8351
▁Жый	-8352
▁атт	-8353
▁Абай	-8354
▁авар	-8355
▁ролу	-8356
▁бөлүмү	-8357
▁журнал	-8358
▁уланта	-8359
▁чечкин	-8360
▁баарыбыз	-8361
▁билбеген	-8362
▁жерлерди	-8363
▁таануучу	-8364
▁эсептешет	-8365
▁мамлекетте	-8366
рим	-8367
тоо	-8368
ука	-8369
ести	-8370
▁төш	-8371
▁артт	-8372
аганда	-8373
▁бүтүм	-8374
▁кылса	-8375
▁чарчы	-8376
▁элине	-8377
чаралар	-8378
чыларга	-8379
▁жатабы	-8380
▁планын	-8381
▁Европада	-8382
▁алынганы	-8383
▁коомунун	-8384
▁сүрөттөр	-8385
▁тармакта	-8386
▁Алымкадыр	-8387
▁чамасында	-8388
▁жетекчилер	-8389
▁көрсөткүчү	-8390
▁товарларды	-8391
▁токтотулган	-8392
цид	-8393
▁На	-8394
матт	-8395
▁жою	-8396
▁зап	-8397
▁кок	-8398
▁оюм	-8399
▁хан	-8400
Клооп	-8401
иясына	-8402
террор	-8403
үлөрүн	-8404
▁кайды	-8405
▁жарымы	-8406
▁ниетин	-8407
▁өткөнү	-8408
▁айдоочу	-8409
▁мэриясы	-8410
▁судьясы	-8411
▁титирөө	-8412
▁чакырык	-8413
апрелдеги	-8414
▁абактагы	-8415
▁жарлыкка	-8416
▁ишкананын	-8417
▁революция	-8418
▁талаптарды	-8419
▁жолугушуусу	-8420
▁Ооганстандан	-8421
▁катышуучулары	-8422
зе	-8423
яд	-8424
ымын	-8425
▁Таб	-8426
▁суб	-8427
далат	-8428
талап	-8429
▁атай	-8430
▁иште	-8431
▁коёт	-8432
угунун	-8433
▁1991-	-8434
▁эсеге	-8435
ноябрга	-8436
▁бойлуу	-8437
▁версия	-8438
▁резерв	-8439
▁толгон	-8440
▁Зулушев	-8441
▁болбошу	-8442
▁коркутуу	-8443
▁күтүүсүз	-8444
▁Ташиевдин	-8445
▁жаткандай	-8446
:0	-8447
il	-8448
эм	-8449
езд	-8450
▁Жог	-8451
▁тиз	-8452
динов	-8453
разил	-8454
шайком	-8455
▁иниси	-8456
▁номур	-8457
оосунда	-8458
▁компью	-8459
▁кызыкт	-8460
▁өздөшт	-8461
декабрга	-8462
▁жаратат	-8463
▁койгону	-8464
▁төгүндө	-8465
▁Бактыбек	-8466
▁кызыктуу	-8467
▁доллардын	-8468
▁кийинчерээк	-8469
▁Сол	-8470
▁бен	-8471
▁ого	-8472
▁түб	-8473
актап	-8474
▁Кылыч	-8475
▁көрөт	-8476
▁Жонсон	-8477
▁акцион	-8478
▁чындап	-8479
▁жазылат	-8480
▁иштетип	-8481
▁келүүгө	-8482
▁бербеген	-8483
▁демилгел	-8484
▁иретинде	-8485
▁тартипте	-8486
▁бөлүгүндө	-8487
▁жетекчилик	-8488
▁колдонулуп	-8489
▁мезгилинде	-8490
▁миллиондой	-8491
▁мониторинг	-8492
▁Жаң	-8493
▁каж	-8494
отоло	-8495
▁проп	-8496
▁үйдү	-8497
ацияга	-8498
▁арасы	-8499
▁Молдок	-8500
▁маарак	-8501
▁сомдун	-8502
▁Жаныбек	-8503
▁беларус	-8504
▁жайларды	-8505
▁жайлардын	-8506
▁жаштардын	-8507
▁пландалган	-8508
▁курмандыктар	-8509
▁кызматкерлерин	-8510
as	-8511
ik	-8512
▁[	-8513
дың	-8514
▁Кл	-8515
▁дө	-8516
раак	-8517
болот	-8518
▁News	-8519
▁окут	-8520
Абадда	-8521
▁айдап	-8522
▁болдук	-8523
▁күрөшү	-8524
▁күнөөсү	-8525
▁учактар	-8526
сентябрга	-8527
▁башташты	-8528
▁өкмөттөр	-8529
▁имараттар	-8530
▁конкреттүү	-8531
▁мүчөлөрүнүн	-8532
▁Биримдигинин	-8533
▁Парламенттин	-8534
▁пайдаланууга	-8535
гим	-8536
жем	-8537
хак	-8538
огол	-8539
ойгон	-8540
▁Аида	-8541
▁совет	-8542
▁Күндүз	-8543
▁сессия	-8544
▁ноябрда	-8545
▁адистери	-8546
▁коргогон	-8547
▁айткандай	-8548
▁акциясына	-8549
▁бюджеттин	-8550
▁Баткендеги	-8551
▁аппараттын	-8552
▁баштаганда	-8553
▁киргизүүнү	-8554
▁жаткандыктан	-8555
ыскы	-8556
▁Ара	-8557
▁Миң	-8558
▁деб	-8559
▁фак	-8560
алпак	-8561
енция	-8562
▁Бахм	-8563
▁Ерев	-8564
лердин	-8565
▁чегин	-8566
▁чинов	-8567
иясында	-8568
▁Тургун	-8569
▁кайсыл	-8570
аларында	-8571
▁алынышы	-8572
▁машыгуу	-8573
▁ойлогон	-8574
▁сайттар	-8575
▁тазалоо	-8576
▁эмеспиз	-8577
▁архитект	-8578
▁жагдайда	-8579
▁тынымсыз	-8580
▁Россиянын	-8581
▁Федерация	-8582
▁иштеринин	-8583
▁кыймылсыз	-8584
▁ишкерлерге	-8585
▁полициянын	-8586
▁өндүрүлгөн	-8587
чат	-8588
асык	-8589
ылма	-8590
▁Күй	-8591
▁апа	-8592
▁тор	-8593
чакыр	-8594
▁1000	-8595
▁Лавр	-8596
▁бриф	-8597
▁гези	-8598
▁пады	-8599
▁филь	-8600
ератив	-8601
▁абзел	-8602
▁жатыш	-8603
▁силер	-8604
▁атышуу	-8605
▁соттор	-8606
▁тинтүү	-8607
▁жоготуп	-8608
▁көздөйт	-8609
▁көтөрүү	-8610
▁сындады	-8611
▁убакыттан	-8612
▁ишмердигин	-8613
▁отурумунда	-8614
▁өлкөлөрүнө	-8615
▁мекемелердин	-8616
▁милициясынын	-8617
гүр	-8618
иков	-8619
лара	-8620
опол	-8621
янын	-8622
▁Tim	-8623
▁Бах	-8624
▁түт	-8625
▁шыл	-8626
аркан	-8627
ялары	-8628
▁айтк	-8629
▁кооз	-8630
▁чирк	-8631
▁Мамат	-8632
▁сууну	-8633
▁төлөй	-8634
▁үчтөн	-8635
Твиттер	-8636
▁Бөлтүр	-8637
▁Максим	-8638
▁бербөө	-8639
▁кайрым	-8640
▁келдим	-8641
▁отстав	-8642
▁аскерге	-8643
▁пландап	-8644
▁Акаевдин	-8645
▁ХАМАСтын	-8646
▁ашырууга	-8647
▁баяндама	-8648
▁партиялык	-8649
▁тилектешт	-8650
▁укуктарынын	-8651
▁каражаттарын	-8652
▁өзбекстандык	-8653
▁программасынын	-8654
ау	-8655
пе	-8656
бөө	-8657
сом	-8658
▁56	-8659
стаг	-8660
▁Ман	-8661
▁тык	-8662
чалай	-8663
ылдыз	-8664
▁ойло	-8665
цтарма	-8666
чүлөрү	-8667
▁Мария	-8668
▁Январ	-8669
▁агасы	-8670
▁алсыз	-8671
▁геоса	-8672
▁дедим	-8673
▁жагым	-8674
▁калем	-8675
▁камап	-8676
▁түтүн	-8677
▁Азияда	-8678
▁баалан	-8679
▁көрбөй	-8680
▁ооруган	-8681
▁талабын	-8682
▁өлтүрүп	-8683
▁Газадагы	-8684
▁биротоло	-8685
▁Боршайком	-8686
▁Кеңештеги	-8687
▁кыздардын	-8688
▁Бекназаров	-8689
Ре	-8690
Аль	-8691
ред	-8692
▁51	-8693
▁77	-8694
Кнын	-8695
атуу	-8696
өлүү	-8697
▁тук	-8698
идерл	-8699
ирээк	-8700
▁норм	-8701
олорго	-8702
ттерди	-8703
▁берчү	-8704
▁булар	-8705
▁ушуга	-8706
▁Дүйшөн	-8707
▁ачууга	-8708
▁балага	-8709
▁бүткүл	-8710
▁доомат	-8711
▁израил	-8712
▁колдуу	-8713
▁көрдүм	-8714
▁учурга	-8715
▁Луганск	-8716
▁арзанда	-8717
▁көңүлүн	-8718
▁ойногон	-8719
▁соолугу	-8720
▁убактысы	-8721
▁уюмдарга	-8722
▁Убактылуу	-8723
▁аткарууга	-8724
▁келишпест	-8725
▁демилгесин	-8726
▁өнөктөштөр	-8727
▁палатасынын	-8728
▁жоопкерчилигине	-8729
ноз	-8730
хоз	-8731
ысы	-8732
▁Пес	-8733
бирин	-8734
ордой	-8735
▁Эдил	-8736
▁марш	-8737
▁убад	-8738
▁Медиа	-8739
▁алдам	-8740
▁буруп	-8741
▁тынчт	-8742
▁Энтони	-8743
▁кайдан	-8744
▁кургак	-8745
▁көптөн	-8746
▁көрүст	-8747
▁шаарга	-8748
▁көтөрдү	-8749
▁Израилге	-8750
▁октябрда	-8751
▁Сулайманов	-8752
▁масштабдуу	-8753
▁эрежелерди	-8754
▁байланыштыр	-8755
▁конференция	-8756
▁мамлекеттен	-8757
▁документтери	-8758
▁каражаттарына	-8759
30-	-8760
теп	-8761
гөнү	-8762
▁Айн	-8763
▁Кав	-8764
Кабар	-8765
дикте	-8766
▁Төрө	-8767
▁өбөл	-8768
тердин	-8769
▁багып	-8770
▁табыш	-8771
▁ураан	-8772
▁элест	-8773
станция	-8774
▁ишенем	-8775
▁коңшул	-8776
▁Гүлнара	-8777
▁бөлүштү	-8778
▁жолукту	-8779
▁Грузиянын	-8780
▁тийгизген	-8781
▁Британияда	-8782
▁көзөмөлүндө	-8783
▁экономиканын	-8784
▁документтерин	-8785
▁парламенттеги	-8786
▁Түркмөнстандын	-8787
эй	-8788
Ала	-8789
мба	-8790
▁59	-8791
▁Ум	-8792
амед	-8793
▁Топ	-8794
Казак	-8795
доону	-8796
раагы	-8797
▁араң	-8798
дамжай	-8799
▁Самат	-8800
▁жапон	-8801
▁иммун	-8802
▁казын	-8803
▁класс	-8804
▁кошун	-8805
▁чакта	-8806
ологдор	-8807
▁жолугу	-8808
▁ишенип	-8809
▁Болгону	-8810
▁аймагын	-8811
▁күзүндө	-8812
▁орнотуу	-8813
▁эсептеп	-8814
Өзбекстан	-8815
▁Байсалов	-8816
▁далилдер	-8817
▁куткаруу	-8818
▁шайланып	-8819
▁экинчиси	-8820
▁барымтага	-8821
▁жолугушту	-8822
▁климаттын	-8823
▁белгиленет	-8824
▁коррупцияны	-8825
▁чектөөлөрдү	-8826
▁чыгышындагы	-8827
ху	-8828
енд	-8829
▁өй	-8830
онов	-8831
ттым	-8832
▁Рыс	-8833
▁Тол	-8834
аспор	-8835
усств	-8836
баевди	-8837
▁1992-	-8838
аштыруу	-8839
▁Адилет	-8840
▁күркүр	-8841
▁минтип	-8842
▁уланат	-8843
▁Шаардык	-8844
▁аяктады	-8845
▁берүүчү	-8846
▁жазышты	-8847
▁жолдору	-8848
▁кеңсеси	-8849
▁Канатбек	-8850
▁айтканын	-8851
▁дарегине	-8852
▁жатышкан	-8853
▁козголду	-8854
▁реестрине	-8855
▁журналисти	-8856
▁корпорация	-8857
▁талаптарын	-8858
▁телеканалы	-8859
▁аракеттерге	-8860
▁катышуучулар	-8861
▁мамлекеттерге	-8862
▁демонстранттар	-8863
,4	-8864
уля	-8865
ушта	-8866
абаев	-8867
лерин	-8868
лоого	-8869
▁Алам	-8870
▁Март	-8871
▁Мени	-8872
▁Саты	-8873
▁чөнт	-8874
усунун	-8875
▁Чечен	-8876
▁Динара	-8877
▁Песков	-8878
▁жолдон	-8879
▁эсепке	-8880
иялыктар	-8881
▁кетүүнү	-8882
▁процесс	-8883
еспублика	-8884
▁кирешеси	-8885
▁шарттары	-8886
▁Курманкул	-8887
▁болушунча	-8888
▁бошотууга	-8889
▁Дарыгерлер	-8890
▁сунушталды	-8891
▁журналисттерди	-8892
Со	-8893
Рос	-8894
ино	-8895
кий	-8896
поо	-8897
сад	-8898
▁мү	-8899
гада	-8900
ктер	-8901
үдүн	-8902
үнөт	-8903
уксуз	-8904
▁жору	-8905
чарага	-8906
▁Медет	-8907
▁айтса	-8908
▁ансыз	-8909
▁валют	-8910
▁радио	-8911
▁туруш	-8912
▁чекит	-8913
ибиздин	-8914
▁айламп	-8915
▁чыккын	-8916
▁эркект	-8917
баеванын	-8918
▁Путинге	-8919
▁жасоого	-8920
▁келерки	-8921
▁сапарга	-8922
▁ырастап	-8923
▁жетишпей	-8924
▁сабактар	-8925
▁сатылган	-8926
▁сентябрь	-8927
▁таанышып	-8928
▁багыттагы	-8929
▁бошотууну	-8930
▁катышуусу	-8931
▁улантууда	-8932
▁даярдалган	-8933
▁башчыларынын	-8934
ak	-8935
▁U	-8936
Газ	-8937
гыч	-8938
мос	-8939
ски	-8940
▁Кут	-8941
▁дон	-8942
▁шай	-8943
▁Алай	-8944
▁Асел	-8945
▁Баку	-8946
▁баам	-8947
▁уран	-8948
ыгынан	-8949
▁элден	-8950
стаграм	-8951
▁бышыкт	-8952
▁жүгүрт	-8953
▁күчөдү	-8954
▁орунду	-8955
▁сектор	-8956
Биримдик	-8957
▁атомдук	-8958
▁ишендир	-8959
▁кадамга	-8960
▁үйлөрдү	-8961
▁Кадамжай	-8962
▁августта	-8963
▁аянтында	-8964
▁командир	-8965
▁лагерлер	-8966
▁спектакл	-8967
▁токтотту	-8968
▁эпидемия	-8969
▁эсептейм	-8970
▁өтүнүчүн	-8971
▁оорукананын	-8972
▁товарлардын	-8973
АКШ	-8974
фер	-8975
ибир	-8976
мокр	-8977
▁зат	-8978
Кытай	-8979
езбол	-8980
ирург	-8981
раган	-8982
▁КСДП	-8983
▁өпкө	-8984
демокр	-8985
▁Элдин	-8986
▁жеген	-8987
▁илгер	-8988
▁үлгүр	-8989
▁сырткы	-8990
▁тергел	-8991
▁өбөлгө	-8992
марттагы	-8993
чылыктын	-8994
▁жарлыгы	-8995
▁жүрүүдө	-8996
▁жөнөтүп	-8997
▁факульт	-8998
▁өлкөбүз	-8999
▁Интернет	-9000
▁адегенде	-9001
▁барганын	-9002
▁жүргүнчү	-9003
▁калтырып	-9004
▁эркиндик	-9005
▁Мурдараак	-9006
▁токтотууну	-9007
▁саламаттыгы	-9008
▁шайлоочулар	-9009
▁Мухаммедкалый	-9010
▁чемпионатында	-9011
илз	-9012
отен	-9013
▁Мер	-9014
октор	-9015
▁алчу	-9016
▁диаг	-9017
▁сала	-9018
▁2000-	-9019
▁Абдир	-9020
▁таппай	-9021
▁уурдап	-9022
диктерди	-9023
▁Жыйынты	-9024
▁Испания	-9025
▁айыппул	-9026
▁илдетке	-9027
чараларды	-9028
▁бошотулду	-9029
▁башкарууга	-9030
▁документке	-9031
▁мамлекетти	-9032
▁телефондон	-9033
▁талибдердин	-9034
▁тажикстандык	-9035
is	-9036
нес	-9037
итте	-9038
▁Жор	-9039
▁айы	-9040
▁Фото	-9041
▁жыны	-9042
▁ушун	-9043
▁Times	-9044
▁Ошого	-9045
▁багын	-9046
▁схема	-9047
ейшемби	-9048
январга	-9049
▁айырма	-9050
▁маңзат	-9051
▁Балыкчы	-9052
▁Таласта	-9053
▁жаабайт	-9054
▁жабылды	-9055
▁макамын	-9056
▁каражаты	-9057
▁кылымдын	-9058
▁кылынган	-9059
атификация	-9060
▁шаарларда	-9061
▁интеграция	-9062
▁жогорулатуу	-9063
▁жоопкерчилигин	-9064
?!	-9065
тү	-9066
иск	-9067
она	-9068
чап	-9069
▁-3	-9070
өгүн	-9071
▁Күч	-9072
атсыз	-9073
детүү	-9074
жигит	-9075
▁Совет	-9076
▁орток	-9077
▁Мектеп	-9078
▁айтыла	-9079
▁катмар	-9080
▁үндөдү	-9081
▁Брюссел	-9082
▁кабарчы	-9083
▁салттуу	-9084
▁чынында	-9085
жылдардын	-9086
▁борборун	-9087
▁илдеттен	-9088
▁кабарлан	-9089
▁кастыкты	-9090
▁киргизди	-9091
▁киришкен	-9092
▁комендан	-9093
▁мобилдик	-9094
▁Түркиядан	-9095
▁шарттарды	-9096
▁аскерлерди	-9097
▁жүргүнчүлөр	-9098
▁мектептерде	-9099
Эк	-9100
Бий	-9101
гат	-9102
сөк	-9103
▁73	-9104
▁Гр	-9105
доно	-9106
лана	-9107
▁ичи	-9108
▁мем	-9109
сезим	-9110
▁Руст	-9111
▁Мелис	-9112
▁Молдо	-9113
▁жазат	-9114
▁жетүү	-9115
▁кийип	-9116
▁мурас	-9117
▁Ошонун	-9118
▁алынса	-9119
▁беттеш	-9120
▁кездеш	-9121
▁келдик	-9122
▁мүлкүн	-9123
▁эмгеги	-9124
▁алуунун	-9125
▁атактуу	-9126
▁баласын	-9127
▁диаспор	-9128
▁келишин	-9129
▁кырсыгы	-9130
▁мыйзамы	-9131
▁стацион	-9132
▁суммасы	-9133
▁тилкеси	-9134
▁талкалан	-9135
▁тартипти	-9136
▁өкмөтүнө	-9137
▁иликтеген	-9138
▁депутаттын	-9139
▁өлкөлүктөр	-9140
▁ратификация	-9141
▁Министрликтин	-9142
лүү	-9143
▁67	-9144
олон	-9145
▁обо	-9146
▁ӨКМ	-9147
илдөө	-9148
▁Иван	-9149
▁Оору	-9150
▁опуз	-9151
Дордой	-9152
▁корот	-9153
▁энеси	-9154
▁Италия	-9155
▁Финлян	-9156
▁макамы	-9157
▁мектеб	-9158
▁француз	-9159
▁алмашкан	-9160
▁берилбей	-9161
▁жогоруда	-9162
▁кеңешине	-9163
Республика	-9164
▁Бишкектен	-9165
▁Кармалган	-9166
▁Американын	-9167
▁окуялардан	-9168
▁көрбөгөндөй	-9169
▁эмгектенген	-9170
▁авиакомпания	-9171
▁аткаминерлер	-9172
хен	-9173
▁Эш	-9174
еңиз	-9175
исин	-9176
чиев	-9177
▁Фер	-9178
▁Эрн	-9179
берди	-9180
заков	-9181
▁сцен	-9182
Хезбол	-9183
уулган	-9184
▁Катар	-9185
▁Мурат	-9186
▁басаң	-9187
▁бүттү	-9188
▁импер	-9189
▁ичине	-9190
▁айтпай	-9191
▁айтсак	-9192
▁акысын	-9193
▁баскан	-9194
▁болдум	-9195
▁бөгөтт	-9196
▁казына	-9197
▁кеңешм	-9198
▁тилине	-9199
▁ээлери	-9200
▁алардан	-9201
▁жаранды	-9202
▁жатасыз	-9203
▁жиберип	-9204
▁ушинтип	-9205
▁чыгарат	-9206
▁үмүттөн	-9207
▁авторлор	-9208
▁билимдүү	-9209
▁салышкан	-9210
▁тартууну	-9211
▁маданияты	-9212
▁башкаларга	-9213
▁нерселерди	-9214
▁сексуалдык	-9215
▁чечимдерди	-9216
▁өнөктөштөрү	-9217
▁программасын	-9218
▁материалдарды	-9219
лөш	-9220
сүң	-9221
уэл	-9222
▁61	-9223
орух	-9224
өөчү	-9225
▁кВт	-9226
чыгыш	-9227
▁Соода	-9228
▁даңаз	-9229
▁жагын	-9230
▁карга	-9231
▁оккуп	-9232
▁тиреш	-9233
▁транс	-9234
▁учагы	-9235
Мекеним	-9236
скусств	-9237
чулукка	-9238
▁Адатта	-9239
▁Эмнеге	-9240
▁өзүнөн	-9241
Массалык	-9242
▁кароого	-9243
▁сапатын	-9244
▁төлөгөн	-9245
▁чыгууда	-9246
ехникалык	-9247
▁жактаган	-9248
▁керектиги	-9249
▁басылмалар	-9250
▁жогорудагы	-9251
▁мамлекеттери	-9252
елди	-9253
етан	-9254
пром	-9255
спек	-9256
үмүн	-9257
▁Хам	-9258
ыраак	-9259
▁үнөм	-9260
▁инфек	-9261
▁потен	-9262
▁ысымы	-9263
уулукка	-9264
▁Бразил	-9265
▁Жылдыз	-9266
▁Нидерл	-9267
▁уюмуна	-9268
▁Евгений	-9269
▁моюнуна	-9270
▁Индиянын	-9271
▁иштердин	-9272
▁маркумдун	-9273
▁кабарлашты	-9274
▁сайтындагы	-9275
▁өткөрүлгөн	-9276
▁адвокаттары	-9277
▁Лукашенконун	-9278
пы	-9279
фа	-9280
жал	-9281
кет	-9282
▁Ам	-9283
ерде	-9284
Синин	-9285
▁сыйм	-9286
▁өстү	-9287
tional	-9288
Көлдүн	-9289
Түндүк	-9290
үшүбүз	-9291
▁Клара	-9292
▁Элмир	-9293
▁одоно	-9294
▁уткан	-9295
▁Монгол	-9296
▁бийикт	-9297
▁соттон	-9298
▁Осмонов	-9299
▁атылган	-9300
▁барганы	-9301
▁жаңыдан	-9302
▁жолдомо	-9303
▁коридор	-9304
▁аялдарды	-9305
▁жазасына	-9306
▁искусств	-9307
▁кайдыгер	-9308
▁учурлары	-9309
▁олимпиада	-9310
▁партиясын	-9311
▁продукция	-9312
▁беренелери	-9313
▁жекшембиде	-9314
▁көбөйгөнүн	-9315
ace	-9316
man	-9317
гог	-9318
ңүз	-9319
елля	-9320
▁Айз	-9321
▁Мом	-9322
▁жур	-9323
▁поэ	-9324
арлык	-9325
епция	-9326
иттин	-9327
▁окуй	-9328
▁ыкма	-9329
нтымак	-9330
▁Кайра	-9331
▁Курск	-9332
▁Оорук	-9333
▁Шакиев	-9334
▁булган	-9335
▁мүнөтт	-9336
▁өчүрүү	-9337
▁Сокулук	-9338
▁азыраак	-9339
▁билбейт	-9340
▁доллары	-9341
▁жазында	-9342
▁сааттан	-9343
▁жеткенин	-9344
▁жыйынына	-9345
жылдардагы	-9346
▁баштаганы	-9347
▁мажбурлап	-9348
▁оюндарына	-9349
▁паспортун	-9350
▁такталган	-9351
▁туристтик	-9352
▁тапшырмасы	-9353
▁каражаттарды	-9354
▁коммуникация	-9355
үүл	-9356
меди	-9357
саты	-9358
чуну	-9359
▁Дос	-9360
▁Июн	-9361
▁Коң	-9362
▁Уул	-9363
▁тра	-9364
▁Калы	-9365
▁Кана	-9366
▁акту	-9367
майдан	-9368
▁Жабыр	-9369
▁Исхак	-9370
▁акыны	-9371
▁ачыкт	-9372
▁кетиш	-9373
▁Жогору	-9374
▁өрттөн	-9375
▁Киевдин	-9376
▁Тиханов	-9377
▁абалына	-9378
▁айылдык	-9379
▁артисти	-9380
▁жиберди	-9381
▁резиден	-9382
▁экөөбүз	-9383
▁убакытта	-9384
▁чындыкка	-9385
▁эмдөөдөн	-9386
президенти	-9387
▁атаандашт	-9388
▁мамилелер	-9389
▁байланышып	-9390
▁көзөмөлүнө	-9391
▁талкаланган	-9392
gra	-9393
ово	-9394
▁Ом	-9395
ight	-9396
адах	-9397
жөнү	-9398
▁Экс	-9399
▁нус	-9400
бөлөң	-9401
▁Жеке	-9402
▁Батук	-9403
▁коюшу	-9404
▁такси	-9405
майдагы	-9406
▁термин	-9407
▁тургуз	-9408
▁үйүнөн	-9409
▁жылдагы	-9410
▁жерлерге	-9411
▁калаанын	-9412
▁себептүү	-9413
▁долбоорго	-9414
▁кишилерди	-9415
▁коштолгон	-9416
▁кримтөбөл	-9417
▁мамилесин	-9418
▁редактору	-9419
▁сакталган	-9420
▁жардамчысы	-9421
▁клиникалык	-9422
▁Жыйынтыгында	-9423
▁ишканалардын	-9424
▁Өзбекстандан	-9425
▁мамлекеттерде	-9426
▁маалымдагандай	-9427
ess	-9428
гүз	-9429
умын	-9430
▁алек	-9431
ектеги	-9432
▁Сагын	-9433
▁кеңей	-9434
▁күзөт	-9435
▁ошент	-9436
▁терез	-9437
▁үйлөн	-9438
июндагы	-9439
ристтер	-9440
▁Сариев	-9441
▁жеткил	-9442
▁коюшат	-9443
▁сезген	-9444
▁Каримов	-9445
▁СССРдин	-9446
▁калаасы	-9447
▁оюндары	-9448
▁жардыруу	-9449
▁максатта	-9450
▁спорттук	-9451
▁суранган	-9452
▁февралда	-9453
▁европалык	-9454
▁жоокерлер	-9455
▁мурдараак	-9456
▁чечкиндүү	-9457
▁кооператив	-9458
▁кызматтары	-9459
▁кырдаалдан	-9460
▁мыйзамдуул	-9461
▁парламенти	-9462
▁өзгөртүүгө	-9463
▁камсыздандыруу	-9464
Жар	-9465
Озо	-9466
ена	-9467
чак	-9468
▁78	-9469
▁Өр	-9470
▁Мекс	-9471
▁жүзү	-9472
▁кырк	-9473
дерден	-9474
илгени	-9475
ияттын	-9476
кыргыз	-9477
▁Жунуш	-9478
▁Нетан	-9479
▁баарл	-9480
▁таркат	-9481
▁чиновн	-9482
▁шаарды	-9483
▁Компани	-9484
▁аймакты	-9485
▁видеого	-9486
▁мунапыс	-9487
▁бириктир	-9488
▁келтирди	-9489
▁тапшыруу	-9490
▁өздөштүр	-9491
▁окуялардын	-9492
▁жаткандардын	-9493
loo	-9494
гыс	-9495
▁66	-9496
▁76	-9497
▁IT	-9498
аңгы	-9499
бири	-9500
▁Хас	-9501
▁лин	-9502
стрем	-9503
чумун	-9504
▁Кулу	-9505
▁серт	-9506
апрель	-9507
ылбайт	-9508
▁Орхан	-9509
▁ашпай	-9510
▁байыр	-9511
▁дубан	-9512
▁сыноо	-9513
▁төрөт	-9514
▁Арстан	-9515
▁алыскы	-9516
▁ашууну	-9517
▁баскын	-9518
▁жанына	-9519
▁тобуна	-9520
▁турарын	-9521
▁Аламүдүн	-9522
▁Саймаити	-9523
▁ишмерлер	-9524
▁калышкан	-9525
▁көрүстөн	-9526
▁түрмөдөн	-9527
▁деңгээлин	-9528
em	-9529
ИЧ	-9530
▁69	-9531
Арча	-9532
ради	-9533
▁180	-9534
мадан	-9535
▁ыйык	-9536
аданын	-9537
ешелүү	-9538
▁айдың	-9539
▁айылы	-9540
▁алабы	-9541
▁инфля	-9542
▁маект	-9543
▁стади	-9544
чуларын	-9545
▁Лавров	-9546
▁Митинг	-9547
▁Мээрим	-9548
▁илдети	-9549
▁коллег	-9550
▁кылдат	-9551
▁ооруну	-9552
▁оорусу	-9553
▁Болбосо	-9554
▁Эмилбек	-9555
▁айыптар	-9556
▁акчалай	-9557
▁дегенге	-9558
▁кылууну	-9559
▁күтүлүп	-9560
▁көрүүнү	-9561
▁толтура	-9562
▁шаарлар	-9563
▁дайындоо	-9564
▁жетпеген	-9565
▁тапканын	-9566
▁Иманалиев	-9567
▁даярданып	-9568
▁ишмердиги	-9569
▁Атамбаевди	-9570
▁кызматында	-9571
▁талкуулады	-9572
▁Коррупцияга	-9573
▁билдирүүсүн	-9574
▁дооматтарды	-9575
▁Парламенттик	-9576
▁саясатчылардын	-9577
АЛ	-9578
▁Эс	-9579
кага	-9580
▁Тим	-9581
▁кож	-9582
▁Роза	-9583
▁агып	-9584
▁дале	-9585
▁кышт	-9586
кызмат	-9587
▁Анкар	-9588
▁аңгем	-9589
▁фильм	-9590
▁аткара	-9591
▁калкты	-9592
▁ноябрь	-9593
▁тиркем	-9594
▁жеңүүчү	-9595
▁кыларын	-9596
▁нерсеге	-9597
▁ойлонуп	-9598
▁өкүлдөр	-9599
▁Донбасст	-9600
▁белгилеш	-9601
▁далилден	-9602
▁жазышкан	-9603
▁ишкердик	-9604
▁процесст	-9605
▁тергөөчү	-9606
▁чагымчыл	-9607
▁Москвадан	-9608
▁Оппозиция	-9609
▁болгонуна	-9610
▁каралууда	-9611
▁комплекст	-9612
▁айтуусунда	-9613
▁имаратынын	-9614
▁көйгөйлөрдү	-9615
▁системасына	-9616
▁баяндамасында	-9617
▁башаламандыкка	-9618
эв	-9619
▁(2	-9620
▁64	-9621
▁Ую	-9622
ерго	-9623
▁Кит	-9624
▁физ	-9625
струк	-9626
▁Асад	-9627
▁Одес	-9628
▁баст	-9629
▁кайг	-9630
даштыр	-9631
диянын	-9632
▁Көрсө	-9633
▁барса	-9634
▁делег	-9635
▁жайкы	-9636
▁кызын	-9637
▁тыкыр	-9638
▁барышы	-9639
▁рекорд	-9640
▁турист	-9641
▁эмнени	-9642
▁Газанын	-9643
▁Нетанья	-9644
▁алганга	-9645
▁тилкелер	-9646
▁идеология	-9647
▁катышканы	-9648
▁көчмөндөр	-9649
▁себептери	-9650
▁туристтер	-9651
▁эсептеген	-9652
▁Америкалык	-9653
▁белгилешти	-9654
▁колдонулат	-9655
▁экономикага	-9656
▁технологиялар	-9657
АХ	-9658
уй	-9659
Ком	-9660
шке	-9661
асам	-9662
ызын	-9663
▁Доб	-9664
▁мам	-9665
атура	-9666
иканы	-9667
▁Акыр	-9668
▁леги	-9669
бектин	-9670
жерлер	-9671
▁агент	-9672
▁карал	-9673
чылыкты	-9674
▁айылга	-9675
▁бензин	-9676
▁формат	-9677
▁бошотуп	-9678
ноябрдагы	-9679
▁бирөөнүн	-9680
▁келиндин	-9681
▁туруксуз	-9682
▁убакытка	-9683
▁Казакбаев	-9684
▁беренелер	-9685
▁качкындар	-9686
▁майыптыгы	-9687
демократтар	-9688
▁аймактарына	-9689
▁мүмкүндүгүн	-9690
Ев	-9691
чек	-9692
даны	-9693
▁BBC	-9694
▁АЭС	-9695
▁Тен	-9696
▁Ушу	-9697
▁Шир	-9698
антин	-9699
үштүн	-9700
▁өтчү	-9701
арлары	-9702
▁Бизди	-9703
▁жерин	-9704
▁келчү	-9705
▁колун	-9706
▁сезип	-9707
▁тазал	-9708
▁такай	-9709
▁Өзбек	-9710
асулова	-9711
олордун	-9712
ылбаган	-9713
▁Апрель	-9714
▁адатта	-9715
▁акчага	-9716
▁апелля	-9717
▁кыйноо	-9718
▁теракт	-9719
▁альтерн	-9720
▁доктору	-9721
▁жараяны	-9722
▁кыйылды	-9723
итациялоо	-9724
▁Көпчүлүк	-9725
▁кесипкөй	-9726
▁тартылды	-9727
▁учураган	-9728
▁чогултуу	-9729
▁аралыктан	-9730
▁берилбейт	-9731
▁тергөөнүн	-9732
сентябрдагы	-9733
▁бийликтеги	-9734
▁жүргүзүлөт	-9735
▁киргизүүгө	-9736
▁өкүлдөрүнө	-9737
▁жеткиликтүү	-9738
▁өлкөлөрдөгү	-9739
▁коопсуздукка	-9740
лиц	-9741
чем	-9742
▁72	-9743
▁Бл	-9744
чыны	-9745
▁80%	-9746
▁Мук	-9747
▁Сей	-9748
▁кыч	-9749
▁мүр	-9750
▁оңд	-9751
ттары	-9752
▁Балт	-9753
▁Орун	-9754
▁эрки	-9755
▁Өкүл	-9756
▁аксак	-9757
▁балык	-9758
▁кулак	-9759
▁тигүү	-9760
▁Болгар	-9761
▁Жамгыр	-9762
▁Токмок	-9763
▁адабий	-9764
▁импорт	-9765
▁реабил	-9766
▁талдап	-9767
▁турбай	-9768
▁Индияда	-9769
▁ооздукт	-9770
▁чыгууну	-9771
▁өлчөмдө	-9772
аттарынын	-9773
▁жардамды	-9774
▁өнөктөшү	-9775
▁жүктөлгөн	-9776
ube	-9777
оля	-9778
▁Ун	-9779
▁ЮН	-9780
окто	-9781
▁Арт	-9782
▁аша	-9783
terna	-9784
артуу	-9785
▁агай	-9786
рупция	-9787
ттерге	-9788
▁2007-	-9789
▁Ворух	-9790
▁Жаман	-9791
▁адиси	-9792
▁башпа	-9793
▁болор	-9794
▁камты	-9795
▁кимди	-9796
▁сарай	-9797
▁Бектур	-9798
▁Кайрат	-9799
▁бердик	-9800
▁кармаш	-9801
▁катышы	-9802
▁району	-9803
▁сиздин	-9804
▁жашоосу	-9805
▁заманда	-9806
▁кетерин	-9807
▁сентябр	-9808
▁баалаган	-9809
▁жалданма	-9810
▁өнөктүгү	-9811
▁адилетсиз	-9812
▁берилгени	-9813
▁жылдардан	-9814
▁калгандар	-9815
▁кодексине	-9816
▁коммерция	-9817
▁чалгындоо	-9818
▁компанияга	-9819
▁негиздеген	-9820
▁табылганын	-9821
▁басылмасынын	-9822
▁билдирүүсүнө	-9823
▁лидерлеринин	-9824
▁жеңилдетилген	-9825
▁кызыкчылыгына	-9826
Эм	-9827
уж	-9828
▁Га	-9829
Түрк	-9830
пады	-9831
▁110	-9832
▁ВИЧ	-9833
жөнүн	-9834
иялар	-9835
марка	-9836
ционер	-9837
ыктагы	-9838
▁жайыл	-9839
▁практ	-9840
▁тыгын	-9841
▁үлүшү	-9842
маматов	-9843
▁жамгыр	-9844
▁иштеди	-9845
▁кесипт	-9846
▁орусча	-9847
▁социал	-9848
▁тарады	-9849
апрелден	-9850
бүлөсүнө	-9851
▁көрүлүп	-9852
▁мааниге	-9853
▁сүрөткө	-9854
▁жыныстык	-9855
▁ресторан	-9856
▁түшүнбөй	-9857
▁геосаясий	-9858
▁ушунчалык	-9859
▁интернетке	-9860
▁көрүнүштөр	-9861
▁президентти	-9862
▁пандемиясына	-9863
пидемиологиялык	-9864
,9	-9865
муш	-9866
нин	-9867
▁Чы	-9868
АХАЛ	-9869
Журт	-9870
егей	-9871
орум	-9872
ттун	-9873
өлөт	-9874
▁Пан	-9875
▁Раф	-9876
анага	-9877
▁жапа	-9878
▁кошк	-9879
▁түст	-9880
▁фабр	-9881
▁ырчы	-9882
Коргон	-9883
ишинче	-9884
▁Автор	-9885
▁Бадах	-9886
▁Ушуну	-9887
айырбек	-9888
дүүлүгү	-9889
дөрүндө	-9890
иктерге	-9891
▁Газада	-9892
▁Шаршен	-9893
▁билими	-9894
▁коргой	-9895
▁мерчем	-9896
▁чуркап	-9897
▁Акматов	-9898
▁диагноз	-9899
▁окшогон	-9900
▁баңгизат	-9901
▁жаңжалда	-9902
▁саясатты	-9903
▁катардагы	-9904
▁башкарууну	-9905
▁Ооганстанга	-9906
▁ишмердигине	-9907
▁мусулмандар	-9908
▁чагылдырган	-9909
▁жетекчилигине	-9910
MA	-9911
▁Ли	-9912
▁Үр	-9913
анга	-9914
ифик	-9915
▁Раз	-9916
Алтын	-9917
Озоди	-9918
алаак	-9919
далык	-9920
кайра	-9921
уштун	-9922
▁купу	-9923
дигине	-9924
еллект	-9925
▁Дубай	-9926
▁билүү	-9927
▁учкан	-9928
дыктары	-9929
илгенин	-9930
▁кайтал	-9931
чилердин	-9932
чылыктан	-9933
▁ишенбей	-9934
▁концерт	-9935
▁кылышат	-9936
▁сүрөтүн	-9937
▁кайталап	-9938
▁кызматты	-9939
▁кырсыкка	-9940
▁сиңирген	-9941
▁соцтарма	-9942
▁тилкесин	-9943
▁токтобой	-9944
▁жаратууда	-9945
▁жеткирилди	-9946
▁келишимине	-9947
▁тармактагы	-9948
▁мыйзамдаштыр	-9949
▁телеканалынын	-9950
▁байланыштырган	-9951
▁St	-9952
edia	-9953
ирдин	-9954
кырып	-9955
▁Жама	-9956
▁Игор	-9957
▁Талк	-9958
▁Тбил	-9959
▁оорл	-9960
биздин	-9961
▁бомба	-9962
▁капчы	-9963
▁ролун	-9964
▁теңге	-9965
аттыкты	-9966
▁Алишер	-9967
▁коштоп	-9968
▁нарист	-9969
▁шылтоо	-9970
▁апрелде	-9971
▁буларга	-9972
▁вируска	-9973
▁секунда	-9974
▁түзүлөт	-9975
▁Активист	-9976
▁атайылап	-9977
▁тартышты	-9978
▁тийгизип	-9979
▁түшүнгөн	-9980
▁жеткирген	-9981
▁иликтөөгө	-9982
▁иликтөөчү	-9983
▁иштетүүгө	-9984
ternational	-9985
▁аткезчилик	-9986
▁министрдин	-9987
▁сүйлөшүүгө	-9988
▁баракчасында	-9989
▁жакындарынын	-9990
дро	-9991
мет	-9992
оск	-9993
сап	-9994
гиси	-9995
мент	-9996
▁Ант	-9997
▁Ахм	-9998
▁Муз	-9999
▁Чат	-10000
босун	-10001
имова	-10002
▁Айып	-10003
▁арты	-10004
▁журт	-10005
▁парк	-10006
▁үйүн	-10007
баевге	-10008
▁2003-	-10009
▁Район	-10010
▁жашар	-10011
▁тилде	-10012
Газпром	-10013
▁Ибраев	-10014
▁Январь	-10015
▁бюджет	-10016
▁дегени	-10017
егиндеги	-10018
▁Келишим	-10019
▁Марипов	-10020
▁демарка	-10021
▁Масалиев	-10022
▁багыттар	-10023
▁дүйнөдөн	-10024
▁дүрбөлөң	-10025
▁Кеңешинин	-10026
▁болгондой	-10027
▁имараттын	-10028
▁концепция	-10029
▁Жапониянын	-10030
▁Украинадан	-10031
▁жаңылыктар	-10032
▁Республикасы	-10033
▁билдиришинче	-10034
▁түндүгүндөгү	-10035
▁түштүгүндөгү	-10036
▁Конституцияны	-10037
аба	-10038
дуг	-10039
сол	-10040
тагы	-10041
▁Ноб	-10042
▁ШКУ	-10043
▁Шах	-10044
▁бөт	-10045
абына	-10046
огдур	-10047
▁Каза	-10048
▁агыз	-10049
▁этап	-10050
▁ээрч	-10051
аракет	-10052
▁дарык	-10053
▁калыш	-10054
▁курчу	-10055
▁мүнөт	-10056
▁жылдыз	-10057
▁каптап	-10058
▁союзда	-10059
▁айылдын	-10060
▁жаңылык	-10061
▁калктуу	-10062
▁толкуну	-10063
▁түрлөрү	-10064
▁учурган	-10065
январдагы	-10066
▁Палестин	-10067
▁өкүлүнүн	-10068
▁жарандыгы	-10069
▁өкүлдөрүн	-10070
▁куугунтукка	-10071
▁кайрымдуулук	-10072
▁президенттери	-10073
▁жетекчилеринин	-10074
.,	-10075
80	-10076
Нур	-10077
ССУ	-10078
баз	-10079
еор	-10080
▁84	-10081
▁900	-10082
▁Ишт	-10083
▁Кас	-10084
▁жыг	-10085
▁рег	-10086
▁чей	-10087
▁ызы	-10088
▁Өзү	-10089
ацияда	-10090
берген	-10091
дыктын	-10092
▁жайды	-10093
▁калчу	-10094
▁кесил	-10095
▁көпкө	-10096
▁орчун	-10097
еттерди	-10098
▁ачылат	-10099
▁багыты	-10100
▁демокр	-10101
▁чыңдоо	-10102
▁айларда	-10103
▁башпаан	-10104
▁болушун	-10105
▁каралды	-10106
▁көрүнөт	-10107
▁Мариупол	-10108
▁бекеттер	-10109
▁жараксыз	-10110
▁тартылат	-10111
▁товарлар	-10112
▁өлтүргөн	-10113
▁биримдиги	-10114
▁жолугушкан	-10115
▁жүргүзүүдө	-10116
▁кийлигишүү	-10117
▁тизмесинде	-10118
▁акционердик	-10119
▁активисттердин	-10120
▁Ая	-10121
аним	-10122
гула	-10123
ибек	-10124
ремь	-10125
▁(19	-10126
▁000	-10127
▁Сел	-10128
▁быч	-10129
сация	-10130
▁ажыл	-10131
▁ашат	-10132
▁өйдө	-10133
▁өлдү	-10134
▁Деген	-10135
▁Эртең	-10136
▁алака	-10137
▁жашай	-10138
▁коюлат	-10139
▁мелдеш	-10140
▁ирандык	-10141
▁өзгөрдү	-10142
▁өмүрүнө	-10143
октябрдан	-10144
▁Темирлан	-10145
▁сапаттуу	-10146
▁сценарий	-10147
▁тийгизет	-10148
▁ажыраткан	-10149
▁четиндеги	-10150
▁суроолорду	-10151
▁агенттиктин	-10152
▁катталганын	-10153
▁окуяларынан	-10154
▁тараптардын	-10155
▁аймактардагы	-10156
▁кабарланууда	-10157
▁чемпионатынын	-10158
▁мамлекеттеринин	-10159
,1	-10160
▁J	-10161
жон	-10162
окс	-10163
топ	-10164
Алай	-10165
өшкө	-10166
▁130	-10167
▁чөг	-10168
▁амал	-10169
▁шарш	-10170
игинен	-10171
▁2006-	-10172
▁Жумуш	-10173
▁Исаев	-10174
▁Карас	-10175
▁Румын	-10176
▁болоч	-10177
▁кулат	-10178
▁маршр	-10179
▁сабыр	-10180
▁сүрүп	-10181
▁тамга	-10182
▁траге	-10183
▁эптеп	-10184
▁Сүйлөш	-10185
▁айттым	-10186
▁жарнам	-10187
▁сүрөтү	-10188
▁түшпөй	-10189
▁Жыйында	-10190
▁Сирияда	-10191
▁азайган	-10192
▁жоромол	-10193
▁илимдер	-10194
▁калышат	-10195
▁келебиз	-10196
▁көйгөйү	-10197
▁сүйлөшк	-10198
▁төлөөгө	-10199
▁Белгилей	-10200
▁Искендер	-10201
▁Саясатчы	-10202
▁акциясын	-10203
▁күйөрман	-10204
▁байкалган	-10205
▁вакцинаны	-10206
▁даярдалып	-10207
▁чектешкен	-10208
медициналык	-10209
▁Эксперттер	-10210
▁вакцинанын	-10211
▁атаандаштык	-10212
▁башталганда	-10213
▁Сооронкулова	-10214
▁чалдыккандардын	-10215
жен	-10216
тат	-10217
юдж	-10218
▁95	-10219
▁Тв	-10220
ахун	-10221
енов	-10222
ерий	-10223
итет	-10224
ософ	-10225
▁Ген	-10226
▁Так	-10227
▁уят	-10228
алдагы	-10229
ашууда	-10230
игинде	-10231
мамбет	-10232
▁алыст	-10233
▁кетчү	-10234
▁коому	-10235
▁тутум	-10236
▁чегер	-10237
▁Грузия	-10238
▁Инвест	-10239
▁Курсан	-10240
▁баштан	-10241
▁жарыгы	-10242
▁кичине	-10243
▁макала	-10244
▁мөңгүл	-10245
▁электе	-10246
▁Алматыда	-10247
▁жолдогон	-10248
▁пайыздык	-10249
Талибандын	-10250
▁Польшанын	-10251
▁брифингде	-10252
▁кылмыштар	-10253
▁Каракалпак	-10254
▁Тыныбекова	-10255
▁жумушчулар	-10256
▁ипотекалык	-10257
▁күчөтүлгөн	-10258
▁чабуулунан	-10259
▁жолугушуулар	-10260
II	-10261
ut	-10262
ИБ	-10263
кти	-10264
uman	-10265
▁Лат	-10266
▁див	-10267
▁сам	-10268
▁тым	-10269
ыйкан	-10270
▁Теск	-10271
▁адеп	-10272
▁кези	-10273
▁мээн	-10274
▁туңг	-10275
▁урду	-10276
▁чаап	-10277
ибизге	-10278
▁Игорь	-10279
▁Кээде	-10280
▁кечке	-10281
▁сүзүп	-10282
▁сүйүн	-10283
▁талаа	-10284
далууда	-10285
▁гезити	-10286
▁жатышы	-10287
▁ишинде	-10288
▁калыст	-10289
▁милдет	-10290
▁тармак	-10291
▁хирург	-10292
дыктарга	-10293
зомбулук	-10294
▁Нарында	-10295
▁бешинчи	-10296
▁биригип	-10297
▁издеген	-10298
▁колдойт	-10299
▁урулган	-10300
▁Өкүлдөр	-10301
▁бюджеттик	-10302
▁мүмкүндүк	-10303
▁негизгиси	-10304
▁позициясы	-10305
▁салгандан	-10306
▁тынчтыкты	-10307
▁артыкчылык	-10308
▁департаменти	-10309
▁катышуусунда	-10310
▁мыйзамдарына	-10311
▁Демократиялык	-10312
▁кызматташууга	-10313
өб	-10314
ent	-10315
дул	-10316
уда	-10317
чата	-10318
үмөн	-10319
▁Күр	-10320
▁Миш	-10321
▁деш	-10322
верен	-10323
игарх	-10324
ылары	-10325
ысына	-10326
▁Литв	-10327
▁байг	-10328
▁Алдын	-10329
▁Памир	-10330
▁Токто	-10331
▁грант	-10332
▁өткүн	-10333
октябрь	-10334
үлбөгөн	-10335
▁Баатыр	-10336
▁ортого	-10337
▁эртеси	-10338
▁Кадыров	-10339
▁шарттуу	-10340
▁этектер	-10341
▁Комиссия	-10342
▁декабрда	-10343
▁сертифик	-10344
▁тартибин	-10345
▁төңкөрүш	-10346
▁эрежесин	-10347
▁башпаанек	-10348
▁музыкалык	-10349
▁шарттарын	-10350
▁шектүүлөр	-10351
▁кадимкидей	-10352
▁сунушталып	-10353
▁кызыкчылыктар	-10354
▁республиканын	-10355
ot	-10356
шов	-10357
gram	-10358
Ордо	-10359
арап	-10360
дады	-10361
елос	-10362
▁цех	-10363
ights	-10364
ерден	-10365
терге	-10366
юллет	-10367
▁Жорж	-10368
▁конв	-10369
▁өтсө	-10370
айынча	-10371
▁булуң	-10372
▁жатак	-10373
▁жылып	-10374
▁карта	-10375
▁китеб	-10376
▁көзүн	-10377
▁наркы	-10378
▁уулун	-10379
▁штамм	-10380
акталай	-10381
уулугун	-10382
▁Швеция	-10383
▁аталып	-10384
▁аяктайт	-10385
▁жоктугу	-10386
▁калууга	-10387
▁финалга	-10388
▁элестет	-10389
▁элчилик	-10390
▁өкмөтүн	-10391
▁берилиши	-10392
▁экстради	-10393
▁келишимин	-10394
▁ракеталар	-10395
▁Шинжаңдагы	-10396
▁оюндарынын	-10397
▁уюштурулуп	-10398
▁чөлкөмдөгү	-10399
▁Тихановская	-10400
▁студенттердин	-10401
кут	-10402
▁Тр	-10403
Меди	-10404
акаш	-10405
отту	-10406
фект	-10407
измди	-10408
каршы	-10409
маалы	-10410
мекчи	-10411
үктөн	-10412
▁канц	-10413
▁отун	-10414
едагог	-10415
олдинг	-10416
▁Садык	-10417
▁кудай	-10418
▁образ	-10419
▁салыш	-10420
▁Rights	-10421
▁Азияга	-10422
▁Британ	-10423
▁Карабак	-10424
▁Назаров	-10425
▁Тынчтык	-10426
▁Чынында	-10427
▁карызды	-10428
▁токтому	-10429
▁фонддун	-10430
▁каналына	-10431
▁пайыздан	-10432
▁паспортт	-10433
▁түрмөлөр	-10434
▁Нарматова	-10435
▁Негизинен	-10436
▁мыйзамына	-10437
▁жактоочусу	-10438
▁спортчулар	-10439
▁Абдирасулова	-10440
▁бейтаптардын	-10441
▁тарапкерлери	-10442
am	-10443
ur	-10444
СР	-10445
жав	-10446
сыр	-10447
atch	-10448
өөсү	-10449
▁30%	-10450
▁50%	-10451
▁мык	-10452
гулов	-10453
имдин	-10454
үүдөн	-10455
▁архе	-10456
▁роль	-10457
▁ташк	-10458
дерине	-10459
измдин	-10460
▁ниети	-10461
▁улана	-10462
катерин	-10463
▁Саакаш	-10464
▁арызды	-10465
▁жүздөн	-10466
▁кылбай	-10467
▁металл	-10468
▁пайдал	-10469
▁салымы	-10470
▁сейрек	-10471
▁туулуп	-10472
▁Быйылкы	-10473
▁белгиси	-10474
▁зыяндуу	-10475
▁пайызын	-10476
▁салышты	-10477
▁тарыхын	-10478
▁дарыгери	-10479
▁жатыптыр	-10480
▁иштеткен	-10481
▁камтыган	-10482
▁кетирген	-10483
▁максатын	-10484
▁чабуулга	-10485
▁өндүргөн	-10486
уучулардын	-10487
▁Нидерланд	-10488
▁системаны	-10489
▁көрсөтүлүп	-10490
▁апелляциялык	-10491
▁чыккандардын	-10492
▁International	-10493
▁федерациясынын	-10494
pp	-10495
эт	-10496
▁87	-10497
абал	-10498
аний	-10499
еатр	-10500
ийир	-10501
▁Жен	-10502
▁Пер	-10503
▁Сев	-10504
▁сая	-10505
актоо	-10506
▁Абду	-10507
▁Кайр	-10508
▁кыйр	-10509
итинин	-10510
оосуна	-10511
станда	-10512
ухамед	-10513
▁Ирина	-10514
▁Олимп	-10515
▁адамз	-10516
▁билиш	-10517
▁делим	-10518
▁сабап	-10519
▁түндө	-10520
▁өсүшү	-10521
чүлөргө	-10522
▁аласыз	-10523
▁жааган	-10524
▁реглам	-10525
гылардын	-10526
советтик	-10527
▁авиация	-10528
▁жаранын	-10529
▁суранып	-10530
▁турушту	-10531
▁тымызын	-10532
▁улантуу	-10533
▁айындагы	-10534
▁макулдук	-10535
▁орчундуу	-10536
▁актуалдуу	-10537
▁арачылары	-10538
▁кымбаттап	-10539
▁түркиялык	-10540
▁мыйзамдарын	-10541
▁тургундарды	-10542
▁түзүмдөрүнүн	-10543
▁ооруканасынын	-10544
▁кармалгандардын	-10545
25	-10546
нар	-10547
ыйн	-10548
▁79	-10549
▁VI	-10550
дира	-10551
▁ККМ	-10552
▁Хал	-10553
город	-10554
диева	-10555
чинин	-10556
үктүү	-10557
▁Абак	-10558
▁Башт	-10559
▁Марк	-10560
▁бошт	-10561
▁бүтө	-10562
▁кант	-10563
Биздин	-10564
▁казып	-10565
▁канди	-10566
▁ондон	-10567
▁тобун	-10568
▁топту	-10569
уусунун	-10570
▁Назгүл	-10571
▁азайды	-10572
▁алуучу	-10573
▁достук	-10574
▁каттап	-10575
▁Асылбек	-10576
▁аптадан	-10577
▁керекпи	-10578
▁оорулар	-10579
▁популяр	-10580
▁токтото	-10581
▁жекшемби	-10582
▁кабарлап	-10583
▁накталай	-10584
▁тааныбай	-10585
▁формасын	-10586
▁үстөмдүк	-10587
▁бейтаптын	-10588
▁болжолдуу	-10589
▁интеллект	-10590
▁кесепетин	-10591
▁климаттык	-10592
▁иштегендер	-10593
▁түшүнүктүү	-10594
▁козголгонун	-10595
▁жабыркагандар	-10596
▁пандемиясынан	-10597
▁Евробиримдикке	-10598
az	-10599
iv	-10600
рос	-10601
хай	-10602
▁97	-10603
▁Юл	-10604
Адам	-10605
▁Көч	-10606
▁Шан	-10607
▁маг	-10608
Йоркт	-10609
агысы	-10610
ыштык	-10611
▁Баар	-10612
▁теги	-10613
▁турн	-10614
▁поезд	-10615
▁штабы	-10616
ырганда	-10617
▁Инанды	-10618
▁Рустам	-10619
▁акырын	-10620
▁кетпей	-10621
▁негизи	-10622
▁ооруга	-10623
▁жоголуп	-10624
▁окуудан	-10625
▁олигарх	-10626
рессивдүү	-10627
▁салуудан	-10628
▁топтогон	-10629
▁уруксаты	-10630
▁Өлкөдөгү	-10631
▁башкаруучу	-10632
▁ишкерлерди	-10633
▁сунуштарды	-10634
маш	-10635
ovid	-10636
елек	-10637
өшөр	-10638
▁Гал	-10639
▁Дэв	-10640
▁Фон	-10641
▁дис	-10642
▁том	-10643
орвег	-10644
▁Кант	-10645
▁кеме	-10646
▁отчё	-10647
▁элин	-10648
бастан	-10649
▁Watch	-10650
▁барыш	-10651
▁ижара	-10652
▁карым	-10653
▁качуу	-10654
▁күчүн	-10655
▁көрүш	-10656
▁падыш	-10657
▁Бердым	-10658
▁Футбол	-10659
▁аранын	-10660
▁базасы	-10661
▁жылдай	-10662
▁келери	-10663
▁түшүнө	-10664
▁Дүйнөдө	-10665
▁абактар	-10666
▁бузууга	-10667
▁дрондор	-10668
▁жаралып	-10669
▁жолунда	-10670
▁тарапты	-10671
▁өтүнгөн	-10672
герлердин	-10673
▁жабыркап	-10674
▁жайылган	-10675
▁илдетине	-10676
▁канаттуу	-10677
▁саясатта	-10678
▁чакыртып	-10679
▁өзгөргөн	-10680
▁авторлору	-10681
▁кырсыктар	-10682
▁сапарынын	-10683
▁шектелген	-10684
▁ылдамдыгы	-10685
▁каражаттын	-10686
▁курмандыгы	-10687
▁мэриясынын	-10688
▁Айтматовдун	-10689
▁компаниялары	-10690
▁билдирүүлөрдү	-10691
илл	-10692
эне	-10693
▁бр	-10694
ашка	-10695
бөст	-10696
оруг	-10697
▁Жөн	-10698
ратүз	-10699
үчтүү	-10700
▁жууп	-10701
дромет	-10702
ыларды	-10703
▁жаашы	-10704
▁изоля	-10705
▁казуу	-10706
▁кыялы	-10707
▁ылдый	-10708
▁америк	-10709
▁аналит	-10710
▁байкап	-10711
▁коргош	-10712
орлордун	-10713
▁козгоду	-10714
▁кулаган	-10715
▁күчөттү	-10716
▁режимде	-10717
▁банкынын	-10718
▁жактарга	-10719
▁калкалап	-10720
▁мектепти	-10721
▁юристтер	-10722
ацияланган	-10723
▁айыптарды	-10724
▁Атамбаевге	-10725
▁карамагына	-10726
▁профессору	-10727
▁резиденция	-10728
▁багытындагы	-10729
▁кайтарылган	-10730
▁Саламаттыкты	-10731
▁ассоциациясынын	-10732
fi	-10733
жүр	-10734
чуу	-10735
ыча	-10736
башт	-10737
ктүү	-10738
▁3,5	-10739
▁Баг	-10740
▁Жур	-10741
▁Кез	-10742
▁Нат	-10743
тагон	-10744
ундуз	-10745
▁Акын	-10746
▁Байк	-10747
▁чече	-10748
▁Жакшы	-10749
▁артта	-10750
▁жообу	-10751
▁түшүм	-10752
аттарда	-10753
дырууга	-10754
иттерге	-10755
▁Норвег	-10756
▁алышып	-10757
▁символ	-10758
▁учурап	-10759
▁жоготуу	-10760
▁кандида	-10761
▁саммити	-10762
▁аралыкты	-10763
▁негиздем	-10764
▁режиссер	-10765
▁тармакка	-10766
▁төлөмдөр	-10767
декабрдагы	-10768
▁калганына	-10769
▁чыгармалар	-10770
▁долбоорунда	-10771
▁жоруктардын	-10772
▁министрлери	-10773
▁талаптарына	-10774
▁Тажикстандагы	-10775
▁Түркмөнстанда	-10776
:30	-10777
Жер	-10778
Кар	-10779
енс	-10780
пат	-10781
▁ам	-10782
Улуу	-10783
обуз	-10784
агына	-10785
ордук	-10786
▁Алты	-10787
▁Олег	-10788
▁Петр	-10789
▁Экөө	-10790
▁рект	-10791
▁үрөй	-10792
▁Чүйдө	-10793
▁драма	-10794
▁жазал	-10795
▁көзгө	-10796
депутат	-10797
▁Мигран	-10798
▁басмыр	-10799
▁жеңген	-10800
▁жолуна	-10801
▁карант	-10802
▁музыка	-10803
▁реаним	-10804
▁төртөө	-10805
аттарына	-10806
▁видеону	-10807
▁жанынан	-10808
▁калаада	-10809
▁калабыз	-10810
▁күнүндө	-10811
▁пайдасы	-10812
▁таратуу	-10813
▁уюмдары	-10814
▁Екатерин	-10815
▁Тиешелүү	-10816
▁жайылтуу	-10817
▁жарыялоо	-10818
▁каттаган	-10819
▁келинген	-10820
▁кеткенде	-10821
▁күчтөрдү	-10822
▁мандатын	-10823
▁химиялык	-10824
▁этностук	-10825
▁жолугушуп	-10826
▁токтотулду	-10827
▁Султанбеков	-10828
▁талапкердин	-10829
▁талкуулашты	-10830
▁бирикмесинин	-10831
СБ	-10832
▁Pr	-10833
Крок	-10834
дана	-10835
көнү	-10836
▁Ван	-10837
▁асп	-10838
▁шах	-10839
▁Бюдж	-10840
▁ЕККУ	-10841
▁акка	-10842
▁инде	-10843
▁тагы	-10844
доонун	-10845
▁2025-	-10846
▁алына	-10847
▁тапса	-10848
▁форма	-10849
егейсиз	-10850
▁Чүйдүн	-10851
▁ачылыш	-10852
▁бөлгөн	-10853
▁держав	-10854
▁кожоюн	-10855
▁коргол	-10856
▁Бабанов	-10857
▁Окумушт	-10858
▁алмашып	-10859
▁имараты	-10860
▁күрөштү	-10861
▁күрөштө	-10862
▁чогулду	-10863
▁аймактан	-10864
▁вирустан	-10865
▁градуска	-10866
▁жолдорду	-10867
▁кубаттуу	-10868
▁штабынын	-10869
▁Жамааттык	-10870
▁зарылдыгы	-10871
▁кармалышы	-10872
▁мыйзамдарга	-10873
▁Тажикстандан	-10874
жаз	-10875
ьев	-10876
▁Дн	-10877
Ташт	-10878
абат	-10879
емин	-10880
ошуп	-10881
▁оке	-10882
▁туз	-10883
төгөн	-10884
▁Июнь	-10885
орунда	-10886
▁Азиза	-10887
▁Жетим	-10888
▁балан	-10889
▁кибер	-10890
▁парад	-10891
Ынтымак	-10892
▁Иранга	-10893
▁клиник	-10894
бегейсиз	-10895
сентябрь	-10896
▁Санарип	-10897
▁добушун	-10898
▁каларын	-10899
▁койбойт	-10900
▁котормо	-10901
▁күчөтүп	-10902
▁рейтинг	-10903
▁ташылып	-10904
▁эсебине	-10905
▁Аскердик	-10906
▁Кулубаев	-10907
▁инфратүз	-10908
▁тагдырын	-10909
▁тергөөгө	-10910
▁төмөндөп	-10911
▁атаандашы	-10912
▁жуктурган	-10913
▁кайтарган	-10914
▁пайдасына	-10915
▁демонстран	-10916
▁провинциясында	-10917
op	-10918
жи	-10919
Бей	-10920
▁74	-10921
▁86	-10922
Бука	-10923
ариф	-10924
овка	-10925
песе	-10926
шарк	-10927
▁10%	-10928
▁Чен	-10929
▁сир	-10930
делип	-10931
жанов	-10932
▁Гани	-10933
▁Крас	-10934
▁Талап	-10935
▁буруу	-10936
▁жалаа	-10937
▁баштал	-10938
▁жаздым	-10939
▁жүрүшт	-10940
▁иштеши	-10941
▁каналы	-10942
▁уланды	-10943
▁ушунча	-10944
▁өзүңүз	-10945
▁башкысы	-10946
▁жашырып	-10947
▁жообуна	-10948
▁табууга	-10949
▁Махмудов	-10950
▁агенттик	-10951
▁жагдайга	-10952
▁топтолуп	-10953
▁үйлөрүнө	-10954
▁кылгандар	-10955
▁көзөмөлдү	-10956
▁округунан	-10957
▁Интернетке	-10958
▁акцияларын	-10959
▁орнотулган	-10960
▁текшерүүдөн	-10961
▁Тескерисинче	-10962
▁оппозициянын	-10963
ook	-10964
ера	-10965
жок	-10966
ипт	-10967
кеш	-10968
лой	-10969
ыйк	-10970
▁71	-10971
едел	-10972
спик	-10973
ыбыз	-10974
▁Сак	-10975
▁вет	-10976
актан	-10977
сыңар	-10978
▁Акча	-10979
▁Уюму	-10980
▁кени	-10981
гентин	-10982
дердик	-10983
онентт	-10984
▁айыгы	-10985
▁бычак	-10986
▁кышта	-10987
▁күчкө	-10988
▁сасык	-10989
▁чечет	-10990
▁ыйлап	-10991
▁Дыйкан	-10992
▁айлыгы	-10993
▁аткары	-10994
▁берели	-10995
▁бюллет	-10996
▁соңуна	-10997
▁чордон	-10998
февралга	-10999
чылыгына	-11000
▁Абдылда	-11001
▁жөнөттү	-11002
▁кеңешме	-11003
▁легитим	-11004
▁суверен	-11005
▁чакырыл	-11006
▁шашылыш	-11007
уулгандуу	-11008
▁Айрымдар	-11009
▁Экинчиси	-11010
▁доорунда	-11011
▁көйгөйдү	-11012
▁машыктыр	-11013
▁партияга	-11014
▁сыртынан	-11015
▁Нурланбек	-11016
▁Францияда	-11017
▁тармактык	-11018
▁Интернетте	-11019
▁кыйынчылык	-11020
▁депутаттарын	-11021
▁мектептердин	-11022
▁системасынын	-11023
▁ыктымалдыгын	-11024
▁университетинде	-11025
гум	-11026
ейм	-11027
мөй	-11028
өмө	-11029
▁-4	-11030
▁Ле	-11031
▁Уз	-11032
Tube	-11033
гусу	-11034
иска	-11035
июнь	-11036
таев	-11037
агыла	-11038
батыш	-11039
▁Адил	-11040
▁блок	-11041
▁грек	-11042
▁дикт	-11043
▁каат	-11044
тконун	-11045
▁Каржы	-11046
▁комуз	-11047
▁сонун	-11048
бүлөнүн	-11049
▁Токтом	-11050
▁жапкан	-11051
▁согушу	-11052
▁ыкмасы	-11053
▁акындын	-11054
▁жаранга	-11055
▁жетпейт	-11056
▁машинен	-11057
▁режимин	-11058
▁саналуу	-11059
▁түшүнүү	-11060
▁инвестор	-11061
▁окуялары	-11062
▁Айрымдары	-11063
▁Нетаньяху	-11064
▁Токаевдин	-11065
▁көрсөтүүдө	-11066
▁көрсөтүүнү	-11067
▁маалыматын	-11068
▁тастыктаган	-11069
▁жабырлануучу	-11070
▁комиссиясына	-11071
▁саламаттыгына	-11072
,5%	-11073
Бай	-11074
обо	-11075
емат	-11076
эксп	-11077
▁Англ	-11078
▁аягы	-11079
▁грам	-11080
▁кары	-11081
▁табы	-11082
ouTube	-11083
еметей	-11084
▁Еврок	-11085
▁дарам	-11086
▁сугат	-11087
▁түрүн	-11088
▁урмат	-11089
▁устав	-11090
ография	-11091
▁Социал	-11092
▁видеок	-11093
▁туудур	-11094
демиянын	-11095
ылышынын	-11096
▁Коомчул	-11097
▁жумадан	-11098
▁субъект	-11099
▁тилекке	-11100
▁январда	-11101
▁кыйылган	-11102
▁мэриянын	-11103
▁сүйлөштү	-11104
▁өзгөрүшү	-11105
алдаштыруу	-11106
▁коюлганын	-11107
▁кылышууда	-11108
▁тарабында	-11109
▁өлчөмүндө	-11110
▁Көлбаевдин	-11111
▁баратканда	-11112
▁дайындаган	-11113
▁окуучулары	-11114
▁операциясы	-11115
▁соккусунан	-11116
▁тартыштыгы	-11117
▁түшүнүксүз	-11118
▁автоунаалар	-11119
▁аймактардан	-11120
▁байкоочулар	-11121
▁коомчулукту	-11122
▁телеканалына	-11123
▁кызматташууну	-11124
SA	-11125
Ме	-11126
жер	-11127
ско	-11128
амак	-11129
паса	-11130
уңуз	-11131
▁Маж	-11132
▁Том	-11133
▁шак	-11134
поого	-11135
уктук	-11136
чүнүн	-11137
үксүз	-11138
▁Асыл	-11139
▁апам	-11140
▁бюро	-11141
▁Добуш	-11142
▁Жаран	-11143
▁Канча	-11144
▁Макал	-11145
▁Эмман	-11146
▁бурул	-11147
▁нөшөр	-11148
онструк	-11149
▁Кавказ	-11150
▁аталыш	-11151
▁бердим	-11152
▁китеби	-11153
▁коомду	-11154
▁окуяда	-11155
▁өлкөсү	-11156
▁Жээнбек	-11157
▁жөнөтүү	-11158
▁пансион	-11159
▁Булардын	-11160
▁Еврошарк	-11161
▁Пентагон	-11162
▁кетишине	-11163
▁тутанган	-11164
▁эбегейсиз	-11165
▁дарыясынын	-11166
▁түшүрүлгөн	-11167
▁санариптешт	-11168
▁талкуулаган	-11169
▁борборундагы	-11170
▁мүмкүнчүлүктөр	-11171
Кон	-11172
ань	-11173
беш	-11174
зия	-11175
▁ды	-11176
иске	-11177
мөөр	-11178
ңгур	-11179
▁Жүз	-11180
▁КТР	-11181
▁мын	-11182
▁уст	-11183
▁Днеп	-11184
▁Свет	-11185
орунду	-11186
▁15-20	-11187
▁Курул	-11188
▁аялды	-11189
▁кварт	-11190
▁кылам	-11191
▁пресс	-11192
анышына	-11193
оругарт	-11194
▁Айнура	-11195
▁Наараз	-11196
▁коңгур	-11197
▁органы	-11198
▁процед	-11199
▁сынына	-11200
▁урматт	-11201
▁өтүндү	-11202
чиликтин	-11203
▁жетишти	-11204
▁канчасы	-11205
▁пикирге	-11206
▁салууда	-11207
▁талашып	-11208
▁улуттун	-11209
▁чочулап	-11210
▁үндөгөн	-11211
▁жоготкон	-11212
▁өмүрүнүн	-11213
министрдин	-11214
▁акыйкатчы	-11215
▁кагылышуу	-11216
▁күрөшүнөн	-11217
▁талкуулар	-11218
▁чабуулуна	-11219
▁жолугушууга	-11220
▁дарыгерлерге	-11221
▁ишмердүүлүгү	-11222
ex	-11223
Айт	-11224
лас	-11225
▁хи	-11226
аназ	-11227
илек	-11228
ктым	-11229
одон	-11230
төрт	-11231
улам	-11232
ырга	-11233
өлкө	-11234
▁140	-11235
▁90%	-11236
▁Дав	-11237
▁кая	-11238
▁Арыз	-11239
▁Кары	-11240
▁Стат	-11241
▁дейм	-11242
▁жатт	-11243
▁ойго	-11244
▁окко	-11245
▁тири	-11246
алганы	-11247
ноябрь	-11248
▁Вирус	-11249
▁белек	-11250
▁динин	-11251
▁жүрөг	-11252
▁улгай	-11253
▁Коммун	-11254
▁Курулуш	-11255
▁Путинди	-11256
▁ассамбл	-11257
▁биринен	-11258
▁жайлары	-11259
▁жасалды	-11260
▁тазалап	-11261
▁азыркыга	-11262
▁айылдагы	-11263
▁жакындап	-11264
▁жээгинде	-11265
▁коомдогу	-11266
▁Беларуска	-11267
▁даярдаган	-11268
▁прокурору	-11269
▁сыпаттады	-11270
▁Депутаттар	-11271
▁Кадырбеков	-11272
▁белгиленип	-11273
▁кырсыгынан	-11274
▁учурундагы	-11275
▁айырмаланып	-11276
▁секундасына	-11277
▁тарыхындагы	-11278
▁парламентинин	-11279
▁кызматкерлерге	-11280
эпидемиологиялык	-11281
был	-11282
▁83	-11283
алын	-11284
аруу	-11285
бөсө	-11286
заев	-11287
инги	-11288
оцид	-11289
пөйт	-11290
▁Сый	-11291
▁Хор	-11292
▁бүл	-11293
▁гер	-11294
▁гим	-11295
▁син	-11296
күндө	-11297
▁Серб	-11298
▁Фрун	-11299
▁фили	-11300
Борбор	-11301
июндан	-11302
▁2001-	-11303
▁Covid	-11304
▁артып	-11305
▁буюрт	-11306
▁жеңүү	-11307
▁күнүн	-11308
▁модер	-11309
▁сейил	-11310
▁сөзгө	-11311
▁унчук	-11312
маларды	-11313
уусунан	-11314
▁аккаун	-11315
▁чындык	-11316
▁өлүмүн	-11317
дүүлүгүн	-11318
еттердин	-11319
▁Негизги	-11320
▁видеосу	-11321
▁каттамы	-11322
▁колдоно	-11323
▁укугуна	-11324
▁ыктыяры	-11325
▁Компания	-11326
▁атасынын	-11327
▁кабардар	-11328
▁кайтарды	-11329
▁таштаган	-11330
▁чектеген	-11331
августтагы	-11332
▁албаганын	-11333
▁жатасыңар	-11334
▁кылмыштын	-11335
▁полицияга	-11336
▁пандемияга	-11337
▁чыгарганын	-11338
▁лаборатория	-11339
▁ыктыярчылар	-11340
▁аракеттерине	-11341
▁кызматкеринин	-11342
▁экономикасына	-11343
▁Өзбекстандагы	-11344
▁жолугушуусунда	-11345
11	-11346
кей	-11347
▁98	-11348
енич	-11349
▁үгү	-11350
гунда	-11351
▁Журт	-11352
▁үнүн	-11353
арыбыз	-11354
▁Мыкты	-11355
▁ЦАХАЛ	-11356
▁гидро	-11357
▁жылыт	-11358
▁калай	-11359
▁мүчүл	-11360
▁оюмча	-11361
▁умтул	-11362
▁баллга	-11363
▁демөөр	-11364
▁жүрөгү	-11365
▁күндөр	-11366
▁тынбай	-11367
▁Алгачкы	-11368
▁автожол	-11369
▁алмашты	-11370
▁атканын	-11371
▁болушат	-11372
▁видеодо	-11373
▁декабрь	-11374
▁кароону	-11375
▁кошулду	-11376
▁ошентип	-11377
▁Грузияда	-11378
▁Замирбек	-11379
▁бөлүктөр	-11380
▁чыгарбай	-11381
▁Кытайдагы	-11382
▁Маркумдун	-11383
▁булактары	-11384
▁вакцинасын	-11385
▁түшүндүрөт	-11386
▁чагылдырып	-11387
▁чындыгында	-11388
▁белгилешкен	-11389
▁туткундарды	-11390
▁келгендердин	-11391
▁талкууланган	-11392
24	-11393
куу	-11394
чен	-11395
шуу	-11396
Кылм	-11397
евге	-11398
▁2-3	-11399
▁Жүр	-11400
▁баг	-11401
▁пир	-11402
▁ысы	-11403
касын	-11404
ушуна	-11405
чолук	-11406
үркүт	-11407
▁1...	-11408
▁Атаз	-11409
▁Тагы	-11410
▁ачты	-11411
▁зилз	-11412
▁катм	-11413
▁тема	-11414
даткыч	-11415
маттуу	-11416
фекция	-11417
▁1994-	-11418
▁Аспек	-11419
▁Мурун	-11420
▁Нобел	-11421
▁бетин	-11422
▁индек	-11423
▁мында	-11424
▁ноябр	-11425
▁тукум	-11426
елеради	-11427
▁Киевде	-11428
▁кылдык	-11429
▁мартта	-11430
▁Долбоор	-11431
▁ийгилик	-11432
▁ишенген	-11433
▁натыйжа	-11434
▁эмнеден	-11435
▁өткөрөт	-11436
▁Арасында	-11437
▁Эммануэл	-11438
▁кетиптир	-11439
▁отурумда	-11440
▁тергелип	-11441
▁жөнөтүлдү	-11442
▁чогулткан	-11443
▁Милициянын	-11444
▁Токтакунов	-11445
▁Карабактагы	-11446
▁камсыздоого	-11447
▁ооруканадан	-11448
▁согушкерлер	-11449
▁Зеленскийдин	-11450
▁кылмыштуулук	-11451
▁көрсөткөндөй	-11452
-1"	-11453
АМК	-11454
Чек	-11455
дыл	-11456
мүт	-11457
ыра	-11458
▁Се	-11459
ашын	-11460
еден	-11461
мокт	-11462
пери	-11463
өмүр	-11464
▁Зар	-11465
▁Чог	-11466
▁нур	-11467
▁тээ	-11468
ооруз	-11469
▁100%	-11470
▁Эрге	-11471
▁жуук	-11472
▁ниет	-11473
▁фейк	-11474
Крокус	-11475
гиликт	-11476
зиттик	-11477
чилиги	-11478
▁Дамир	-11479
▁Керек	-11480
▁Силер	-11481
▁Турду	-11482
▁баягы	-11483
▁залак	-11484
▁мыкаа	-11485
▁окшоп	-11486
рчабуул	-11487
▁Соттук	-11488
▁жагына	-11489
▁куралы	-11490
▁чеккен	-11491
гидромет	-11492
▁Молдова	-11493
▁киришти	-11494
▁философ	-11495
▁чөйрөдө	-11496
▁кайталан	-11497
▁күнөөсүн	-11498
▁күрөшкөн	-11499
▁бүткөндөн	-11500
▁фактылары	-11501
▁кырдаалдын	-11502
▁талкаланып	-11503
▁тастыктады	-11504
▁федералдык	-11505
▁жандандыруу	-11506
▁комитетинде	-11507
▁пайдаланган	-11508
▁кесепеттерин	-11509
▁кесиптештери	-11510
▁документтерге	-11511
▁ишмердүүлүгүн	-11512
▁тармактардагы	-11513
▁автоунаалардын	-11514
0,	-11515
ic	-11516
un	-11517
ГБ	-11518
hat	-11519
кол	-11520
лук	-11521
пич	-11522
▁га	-11523
бери	-11524
огун	-11525
утер	-11526
▁Кес	-11527
▁Пар	-11528
▁Роб	-11529
▁Түп	-11530
▁Шой	-11531
▁али	-11532
видео	-11533
канов	-11534
оосун	-11535
утник	-11536
эркин	-11537
▁Пхен	-11538
▁Черн	-11539
раимов	-11540
тартыш	-11541
ттарга	-11542
▁Тогуз	-11543
▁атуул	-11544
▁болом	-11545
▁төгүп	-11546
▁шамал	-11547
▁айыпта	-11548
▁албаса	-11549
▁аныкта	-11550
▁жазасы	-11551
▁муфтий	-11552
▁ЖККУнун	-11553
▁Инандын	-11554
▁айланат	-11555
▁айыптуу	-11556
▁дүйнөсү	-11557
▁жүрүүгө	-11558
▁издөөдө	-11559
▁руханий	-11560
▁согушуп	-11561
▁түшкөнү	-11562
▁Самаркан	-11563
▁баарынын	-11564
▁жагымдуу	-11565
▁жакшылап	-11566
▁салганын	-11567
▁консулдук	-11568
▁өнүгүшүнө	-11569
Мамлекеттик	-11570
▁жоготуулар	-11571
▁оюндарында	-11572
▁тургандыгын	-11573
▁айыптоолорду	-11574
▁чыгармачылык	-11575
%)	-11576
Ас	-11577
ьв	-11578
гом	-11579
ирл	-11580
кич	-11581
кка	-11582
миг	-11583
▁Ди	-11584
▁Ик	-11585
book	-11586
өкөт	-11587
▁Бен	-11588
▁Оюн	-11589
▁Пра	-11590
Балта	-11591
армон	-11592
шыбыз	-11593
үлөрү	-11594
▁Латв	-11595
▁жоол	-11596
▁узар	-11597
украин	-11598
▁1996-	-11599
▁дезин	-11600
▁ичкен	-11601
▁креди	-11602
▁түгөн	-11603
▁эмдел	-11604
тикалык	-11605
▁Тенгиз	-11606
▁айтсам	-11607
▁курчут	-11608
▁таанып	-11609
▁тенден	-11610
▁Сурабал	-11611
▁салганы	-11612
▁сандагы	-11613
▁сөздөрү	-11614
▁тапканы	-11615
аракеттер	-11616
▁болуптур	-11617
▁кеңейтүү	-11618
▁конфиска	-11619
▁көрүнгөн	-11620
▁телеради	-11621
▁акырындап	-11622
▁кризистик	-11623
▁кыймылдын	-11624
▁мөөнөттүү	-11625
▁ошончолук	-11626
▁тарапташт	-11627
▁балдарынын	-11628
▁маселесинде	-11629
ИИБ	-11630
баб	-11631
көз	-11632
үтк	-11633
айды	-11634
алаа	-11635
аягы	-11636
карш	-11637
янск	-11638
▁Пом	-11639
▁гол	-11640
▁тоз	-11641
▁эмо	-11642
алыгы	-11643
▁Ачык	-11644
▁ичим	-11645
▁куру	-11646
▁этет	-11647
▁Өзүм	-11648
керлер	-11649
▁Денис	-11650
▁Кыйно	-11651
▁илбир	-11652
▁пробл	-11653
▁сизге	-11654
▁чөгүп	-11655
acebook	-11656
ектерди	-11657
орандум	-11658
▁басымы	-11659
▁бизден	-11660
▁келсек	-11661
▁чектен	-11662
▁шайкеш	-11663
▁шайлан	-11664
▁ысымын	-11665
январдан	-11666
▁Бакиров	-11667
▁ачылышы	-11668
▁барабар	-11669
▁педагог	-11670
▁потенци	-11671
▁стадион	-11672
▁Белгород	-11673
▁кризиске	-11674
▁процесси	-11675
▁соттолуп	-11676
▁шайланды	-11677
▁шайлоочу	-11678
аштырылган	-11679
▁айдоочусу	-11680
▁вакцинасы	-11681
▁жабыркады	-11682
▁кайрылуусу	-11683
▁менчиктешт	-11684
▁өнөктөштүк	-11685
▁Кудайберген	-11686
▁Навальныйды	-11687
▁тилектештик	-11688
▁чыккынчылык	-11689
▁президенттер	-11690
▁тынчсыздануу	-11691
▁колдонуучулары	-11692
▁жуктургандардын	-11693
35	-11694
:1	-11695
АГ	-11696
ИА	-11697
дз	-11698
Жаш	-11699
Чет	-11700
жак	-11701
ипл	-11702
мил	-11703
▁аф	-11704
олий	-11705
угал	-11706
▁Зул	-11707
▁дил	-11708
айсыз	-11709
ентти	-11710
олору	-11711
сеңиз	-11712
▁абак	-11713
▁атуу	-11714
▁макт	-11715
гандан	-11716
ишүүдө	-11717
структ	-11718
▁Абдук	-11719
▁көлөк	-11720
▁үндөп	-11721
▁өңүтт	-11722
бегенин	-11723
ристиан	-11724
▁берсин	-11725
▁билиши	-11726
▁добушу	-11727
▁жүктөп	-11728
▁таарын	-11729
▁шалаак	-11730
▁эффект	-11731
▁орундуу	-11732
▁суроону	-11733
▁таянсак	-11734
▁тийбест	-11735
▁түзүлүш	-11736
▁чыгарын	-11737
▁баарынан	-11738
▁бейтарап	-11739
▁жүргүзөт	-11740
▁каалоосу	-11741
▁сөздөрүн	-11742
▁ырааттуу	-11743
▁Баткендин	-11744
▁Италиянын	-11745
▁Коррупция	-11746
▁Отунбаева	-11747
▁саясатына	-11748
▁Германияга	-11749
▁Пакистанда	-11750
▁аймактарын	-11751
▁жайылышына	-11752
▁аймактардын	-11753
▁булактардан	-11754
▁директорунун	-11755
▁мугалимдердин	-11756
?.	-11757
ахр	-11758
ене	-11759
елли	-11760
ерим	-11761
иден	-11762
стор	-11763
түнү	-11764
▁Гол	-11765
▁Көб	-11766
▁Мор	-11767
аштан	-11768
жобай	-11769
иддин	-11770
▁Бейт	-11771
▁Муфт	-11772
▁Тарт	-11773
▁акыб	-11774
▁зыяр	-11775
▁өсүш	-11776
▁Орозо	-11777
▁жылкы	-11778
▁кабат	-11779
▁көрсө	-11780
▁орден	-11781
▁чийки	-11782
Улуттук	-11783
аштырып	-11784
▁Тбилис	-11785
▁баалоо	-11786
▁газдын	-11787
▁дайыны	-11788
▁заттар	-11789
▁концер	-11790
▁өтүнүп	-11791
диктерин	-11792
▁Пхеньян	-11793
▁кызыгып	-11794
▁кызынын	-11795
▁Бөлтүрүк	-11796
▁куралчан	-11797
▁күрөштүн	-11798
▁чектелүү	-11799
▁чыгышына	-11800
▁Жумабеков	-11801
▁айыгышкан	-11802
▁гендердик	-11803
▁орусиячыл	-11804
▁ырайымсыз	-11805
▁Жекшембиде	-11806
▁адистердин	-11807
▁башталганы	-11808
▁келишимдер	-11809
▁Матраимовду	-11810
▁деңгээлинде	-11811
▁Мадумаровдун	-11812
▁кармалгандар	-11813
▁компанияларга	-11814
▁документтердин	-11815
▁кызматкерлерди	-11816
Аб	-11817
СК	-11818
Сп	-11819
Ый	-11820
▁+	-11821
түн	-11822
шта	-11823
▁""	-11824
▁Ын	-11825
газы	-11826
июль	-11827
мана	-11828
омис	-11829
сана	-11830
чоро	-11831
ясын	-11832
▁Гар	-11833
▁ачар	-11834
диялык	-11835
▁Жарат	-11836
▁Кыдыр	-11837
▁бешөө	-11838
▁жетим	-11839
▁сүйүү	-11840
▁тилди	-11841
▁үстөк	-11842
чиликке	-11843
▁айыпка	-11844
▁койдук	-11845
▁узакка	-11846
▁алуудан	-11847
▁бирлери	-11848
▁жылдыгы	-11849
▁кагууда	-11850
▁турууну	-11851
▁Бадахшан	-11852
▁Жанарбек	-11853
▁Көптөгөн	-11854
▁жаштарды	-11855
▁тартканы	-11856
▁Стамбулда	-11857
▁жабдуулар	-11858
▁иликтөөдө	-11859
▁мүчөлөрүн	-11860
▁театрынын	-11861
▁чыгарылат	-11862
▁Султанбаев	-11863
▁Эрдогандын	-11864
▁кеңештерге	-11865
▁органдарга	-11866
▁реконструк	-11867
▁тапшырылды	-11868
▁чуулгандуу	-11869
▁дарыланууда	-11870
▁каалагандай	-11871
▁соодагерлер	-11872
▁Абдрахматова	-11873
▁Бердымухамед	-11874
▁транспорттук	-11875
▁тегерегиндеги	-11876
ИС	-11877
фи	-11878
Кыя	-11879
Тур	-11880
изи	-11881
ияр	-11882
таз	-11883
тез	-11884
асаң	-11885
▁Мед	-11886
▁Түн	-11887
▁Хай	-11888
▁ача	-11889
▁куд	-11890
ыктык	-11891
▁Бөрү	-11892
▁Имам	-11893
▁Усуб	-11894
▁ажал	-11895
▁кууп	-11896
▁утту	-11897
Достук	-11898
андагы	-11899
ардыгы	-11900
ышыбыз	-11901
үмдүкт	-11902
▁айгин	-11903
▁жеңиш	-11904
▁кызым	-11905
▁суран	-11906
ановдун	-11907
стердин	-11908
улушуна	-11909
▁Андагы	-11910
▁Жаштар	-11911
▁баштоо	-11912
▁залкар	-11913
▁медрес	-11914
▁ресурс	-11915
▁чарчап	-11916
▁өтөгөн	-11917
▁өтөрүн	-11918
устардын	-11919
▁Фергана	-11920
▁болбоду	-11921
▁дүйнөнү	-11922
▁илдетти	-11923
▁сакайып	-11924
▁чакырат	-11925
▁Шайлоого	-11926
▁бактылуу	-11927
▁бөлүгүнө	-11928
▁даректүү	-11929
▁организм	-11930
▁палатасы	-11931
▁салгылаш	-11932
▁өкмөттөн	-11933
▁Эгемендик	-11934
▁алектенип	-11935
▁блогерлер	-11936
▁имаратына	-11937
▁калаадагы	-11938
▁күрөшүүгө	-11939
▁тарбиялоо	-11940
▁тартканын	-11941
▁түзүмдөрү	-11942
▁эрежелери	-11943
▁интернетте	-11944
▁келатканын	-11945
▁саммитинде	-11946
▁Беларустагы	-11947
▁Молдокматов	-11948
▁Стамбулдагы	-11949
▁зордуктоого	-11950
▁кызматтарды	-11951
▁прокурордун	-11952
▁саясатчынын	-11953
▁талдоочулар	-11954
▁ооруканасына	-11955
▁тааныштырган	-11956
▁тоскоолдуктар	-11957
▁министрлигинен	-11958
FP	-11959
күр	-11960
мэр	-11961
саң	-11962
цев	-11963
▁КЭ	-11964
Кече	-11965
болу	-11966
инди	-11967
тору	-11968
үкүр	-11969
▁3-4	-11970
▁Кеп	-11971
▁Хаб	-11972
▁Шаб	-11973
▁жөр	-11974
▁өск	-11975
Булак	-11976
арлар	-11977
тарга	-11978
ымкен	-11979
▁датт	-11980
▁дыма	-11981
ашынча	-11982
▁1999-	-11983
▁Гутер	-11984
▁Жамал	-11985
▁Судья	-11986
▁Татар	-11987
▁аянтч	-11988
▁желим	-11989
▁контр	-11990
▁кутул	-11991
деринде	-11992
▁Жоошев	-11993
▁Кундуз	-11994
▁Талдоо	-11995
▁вирусу	-11996
▁камкор	-11997
▁көтөрө	-11998
▁тааный	-11999
▁тамеки	-12000
▁токтол	-12001
▁узунду	-12002
▁чейрек	-12003
▁алтынчы	-12004
▁куралды	-12005
▁көбөйөт	-12006
▁түшүрүп	-12007
▁экөөнүн	-12008
▁өркүндө	-12009
Вагнердин	-12010
▁Белгилүү	-12011
▁Карасарт	-12012
▁бошоткон	-12013
▁иштегени	-12014
▁шамалдын	-12015
декабрында	-12016
▁каражатын	-12017
▁колдоосун	-12018
▁корутунду	-12019
▁кыскартуу	-12020
▁Алматыдагы	-12021
▁Жунушалиев	-12022
▁Темировдун	-12023
▁губернатор	-12024
▁жүргүзүүнү	-12025
▁киргизилет	-12026
▁комитетине	-12027
▁объектилер	-12028
▁популярдуу	-12029
▁тармагынын	-12030
▁айыпталууда	-12031
▁чыгармалары	-12032
▁үзгүлтүксүз	-12033
▁байланыштырды	-12034
▁башкармалыгына	-12035
▁маалыматтардын	-12036
kz	-12037
ЕФ	-12038
сип	-12039
Жаңы	-12040
егим	-12041
шкар	-12042
▁350	-12043
▁Абу	-12044
▁Рим	-12045
▁Тоо	-12046
▁уюш	-12047
Элдик	-12048
алтын	-12049
ейман	-12050
еркен	-12051
ованы	-12052
стагы	-12053
ыштуу	-12054
▁Слов	-12055
▁ачат	-12056
▁госп	-12057
▁обоч	-12058
▁поли	-12059
▁тарж	-12060
▁текш	-12061
▁ферм	-12062
адалык	-12063
пайбыз	-12064
расмий	-12065
▁Туура	-12066
▁алалы	-12067
▁алмак	-12068
▁жылыш	-12069
▁мүдөө	-12070
▁этият	-12071
▁үгүтт	-12072
Биринчи	-12073
▁Тайван	-12074
▁кескен	-12075
▁мураст	-12076
▁чечмел	-12077
▁Мектепт	-12078
▁бузганы	-12079
▁инспект	-12080
▁күбөлүк	-12081
▁көчүрүп	-12082
▁таштады	-12083
▁утурлай	-12084
изациялоо	-12085
▁Карантин	-12086
▁Светлана	-12087
▁бюллетен	-12088
▁жоочулар	-12089
▁камактан	-12090
▁кеткенине	-12091
▁мыйзамдары	-12092
▁мүчөлөрүнө	-12093
▁себептерин	-12094
▁билдирүүлөрү	-12095
▁жактоочулары	-12096
▁коменданттык	-12097
▁университети	-12098
▁курмандыктары	-12099
▁куткаруучулар	-12100
▁салыштырганда	-12101
RS	-12102
КС	-12103
ящ	-12104
!",	-12105
Пол	-12106
гуч	-12107
икл	-12108
иян	-12109
ерек	-12110
лион	-12111
овск	-12112
▁Исф	-12113
▁Сах	-12114
▁Сын	-12115
▁нан	-12116
гилер	-12117
кызыл	-12118
кытай	-12119
мынча	-12120
наряд	-12121
огуна	-12122
▁Стол	-12123
▁диск	-12124
▁имам	-12125
аганды	-12126
▁Абдык	-12127
▁Бакир	-12128
▁Батыр	-12129
▁Келеч	-12130
▁Помпе	-12131
▁Цзинь	-12132
▁жүрөм	-12133
▁мүлкү	-12134
▁портт	-12135
кциялык	-12136
ушканын	-12137
▁Тактап	-12138
▁Токтон	-12139
▁госпит	-12140
▁препар	-12141
▁Азимжан	-12142
▁алынбай	-12143
▁бирөөгө	-12144
▁бөлүнөт	-12145
▁карасак	-12146
▁концент	-12147
▁Талибдер	-12148
▁арачылар	-12149
▁аткарбай	-12150
▁болушуна	-12151
▁мамиледе	-12152
▁маселеде	-12153
▁форматта	-12154
▁Шайлообек	-12155
▁аракетине	-12156
▁башындагы	-12157
▁жүргөндөр	-12158
▁коркуткан	-12159
▁мүнөздөгү	-12160
▁пневмония	-12161
▁тартибине	-12162
▁чакырышты	-12163
▁машыктыруу	-12164
▁сыпаттаган	-12165
▁директорлор	-12166
▁контрчабуул	-12167
▁жуккандардын	-12168
▁колдонуучулар	-12169
▁ооруканаларда	-12170
▁технологиялык	-12171
▁башаламандыктар	-12172
RW	-12173
ad	-12174
ay	-12175
ЧР	-12176
Кул	-12177
Сап	-12178
вил	-12179
кыс	-12180
күч	-12181
лад	-12182
▁Ой	-12183
адам	-12184
алья	-12185
ктун	-12186
паев	-12187
▁20%	-12188
▁Дил	-12189
▁Сап	-12190
▁евр	-12191
▁хак	-12192
айлоо	-12193
аттам	-12194
ганга	-12195
дөөнү	-12196
ланын	-12197
▁2...	-12198
▁Ирак	-12199
▁Сент	-12200
▁Юрий	-12201
▁граф	-12202
▁кемп	-12203
▁чарт	-12204
олорун	-12205
▁Камил	-12206
▁Спорт	-12207
▁агымы	-12208
▁жөнөп	-12209
▁сагын	-12210
бековду	-12211
гелдиев	-12212
▁Гутерр	-12213
▁аталат	-12214
▁кийген	-12215
▁тендер	-12216
▁токтоо	-12217
▁визасыз	-12218
▁жаралды	-12219
▁жүргүзө	-12220
▁илинген	-12221
▁келинди	-12222
▁майрамы	-12223
▁чечилип	-12224
▁элекпиз	-12225
▁кандайча	-12226
▁каттоодо	-12227
▁күмөндүү	-12228
▁көйгөйүн	-12229
▁трагедия	-12230
▁уюмдарды	-12231
▁Австралия	-12232
▁жардамдын	-12233
▁өлкөсүндө	-12234
▁бийликтери	-12235
▁кайрылууда	-12236
▁калгандары	-12237
▁өкүлчүлүгү	-12238
▁аннексиялап	-12239
▁курамындагы	-12240
▁чыгармаларын	-12241
▁байланыштырып	-12242
▁кызматташтыгы	-12243
▁жетекчилигинин	-12244
18	-12245
ши	-12246
удс	-12247
▁TV	-12248
▁От	-12249
өлгө	-12250
▁40%	-12251
▁Коз	-12252
▁айн	-12253
ендин	-12254
еттим	-12255
улова	-12256
▁түшө	-12257
аштары	-12258
ашыбыз	-12259
икасын	-12260
▁Роман	-12261
▁Чыгар	-12262
▁аброй	-12263
▁жеңди	-12264
▁чечен	-12265
Реформа	-12266
еттерге	-12267
▁Араван	-12268
▁Одесса	-12269
▁атылып	-12270
▁ашкере	-12271
▁кириши	-12272
▁модерн	-12273
▁сураны	-12274
▁уурдоо	-12275
▁өлүмгө	-12276
▁Мексика	-12277
▁Олжобай	-12278
▁адамдык	-12279
▁болууну	-12280
▁камтыйт	-12281
▁качууга	-12282
▁кылынат	-12283
▁түзөтүү	-12284
▁фондуна	-12285
▁функция	-12286
августтан	-12287
чараларга	-12288
▁Исмаилов	-12289
▁баштадык	-12290
▁мынчалык	-12291
▁талабына	-12292
▁талкалап	-12293
▁укугунан	-12294
техникалык	-12295
▁пландалып	-12296
▁тенденция	-12297
▁тилкесине	-12298
▁уурдалган	-12299
▁Евразиялык	-12300
▁Осмоналиев	-12301
▁келтирүүгө	-12302
▁макулдашты	-12303
▁териштирип	-12304
▁транспортт	-12305
▁элчиликтин	-12306
▁кызматкерин	-12307
▁макулдашкан	-12308
▁Вашингтондун	-12309
▁референдумга	-12310
▁артиллериялык	-12311
▁сүйлөшүүлөргө	-12312
▁депутаттарынын	-12313
16	-12314
IV	-12315
▁,	-12316
ork	-12317
сте	-12318
▁Ре	-12319
▁оз	-12320
Унун	-12321
отор	-12322
уруп	-12323
▁Ган	-12324
▁Сох	-12325
▁тоң	-12326
дабай	-12327
ослав	-12328
▁Ухан	-12329
▁доза	-12330
▁сахн	-12331
▁элит	-12332
▁эшик	-12333
быздан	-12334
бүлөдө	-12335
▁Икрам	-12336
▁Тасма	-12337
▁Эрлан	-12338
▁акыйк	-12339
▁пахта	-12340
▁ролду	-12341
▁таңга	-12342
▁убакт	-12343
алыктын	-12344
▁Качкын	-12345
▁Нооруз	-12346
▁УКМКга	-12347
▁аброюн	-12348
▁жасайт	-12349
▁калкка	-12350
▁күчтөп	-12351
▁ойнойт	-12352
▁олимпи	-12353
етикалык	-12354
куловдун	-12355
▁Парижде	-12356
▁бурууга	-12357
▁карында	-12358
▁посттор	-12359
▁суранды	-12360
▁тартуул	-12361
▁улутчул	-12362
Орусиянын	-12363
январында	-12364
▁алышпайт	-12365
▁байкоочу	-12366
▁барышкан	-12367
▁бюджетти	-12368
▁жашоосун	-12369
▁инфляция	-12370
▁турушкан	-12371
▁чыкпаган	-12372
▁чындыкты	-12373
▁Бээжиндин	-12374
▁баласынын	-12375
▁бийликчил	-12376
▁келатышат	-12377
▁кеткендер	-12378
▁кооптонуу	-12379
▁которулуп	-12380
▁саясаттын	-12381
▁Чындыгында	-12382
▁алмаштырып	-12383
▁жазуучулар	-12384
▁катышканын	-12385
▁айыпталуучу	-12386
▁мамилелерди	-12387
▁чалдыккандар	-12388
▁Коронавирустун	-12389
▁ишмердүүлүгүнө	-12390
▁каражаттарында	-12391
▁сүйлөшүүлөрдүн	-12392
▁.	-12393
Ток	-12394
иле	-12395
роц	-12396
сты	-12397
өөт	-12398
▁82	-12399
▁93	-12400
▁99	-12401
▁Ро	-12402
Эгер	-12403
геле	-12404
▁Арх	-12405
▁Дум	-12406
▁Чок	-12407
▁боё	-12408
▁куй	-12409
▁лиц	-12410
▁сөг	-12411
▁шык	-12412
иштин	-12413
▁Түлө	-12414
▁орой	-12415
▁ценз	-12416
ишкени	-12417
мамлек	-12418
токмок	-12419
▁1995-	-12420
▁2002-	-12421
▁2004-	-12422
▁жукту	-12423
▁кенди	-12424
▁курст	-12425
▁латын	-12426
▁Меркел	-12427
▁көлөкө	-12428
▁маңдай	-12429
▁отурду	-12430
▁учурду	-12431
андыктар	-12432
▁атпайбы	-12433
▁жамааты	-12434
▁көлөмдө	-12435
▁бергенге	-12436
▁кампания	-12437
▁кездешет	-12438
▁райондун	-12439
▁тоннадан	-12440
алыктардын	-12441
▁Кабулдагы	-12442
▁бааланган	-12443
▁барымтада	-12444
▁жүзүндөгү	-12445
▁иштетүүчү	-12446
▁маанидеги	-12447
▁суммадагы	-12448
▁билдиргени	-12449
▁катчысынын	-12450
▁транзиттик	-12451
▁мекендештер	-12452
▁операциясын	-12453
▁регионалдык	-12454
▁этектеринде	-12455
▁калгандыктан	-12456
▁командасынын	-12457
▁маселелердин	-12458
▁тилкесиндеги	-12459
Пр	-12460
АСС	-12461
зит	-12462
үмө	-12463
▁88	-12464
▁Лю	-12465
рупп	-12466
угур	-12467
▁Атк	-12468
▁Вол	-12469
▁Гур	-12470
▁Кич	-12471
▁жом	-12472
▁фар	-12473
▁чак	-12474
▁Акыл	-12475
▁салт	-12476
▁эгин	-12477
уларын	-12478
ушубуз	-12479
▁Жанар	-12480
▁Разак	-12481
▁алдап	-12482
▁зыяны	-12483
▁кыйыр	-12484
▁проба	-12485
▁Шанхай	-12486
▁ашырып	-12487
▁грузин	-12488
▁койдум	-12489
▁мурасы	-12490
▁сыртта	-12491
▁утулуп	-12492
▁Айеркен	-12493
▁Ирактын	-12494
▁базарда	-12495
▁барабыз	-12496
▁берейин	-12497
▁консерв	-12498
▁спикери	-12499
▁чечилет	-12500
мерциялык	-12501
редитация	-12502
▁Аргентин	-12503
▁Түркстан	-12504
▁абалында	-12505
▁артыкчыл	-12506
▁бекиткен	-12507
▁коңгуроо	-12508
▁кыйкырып	-12509
▁окуясына	-12510
▁партияны	-12511
▁бөлүгүнүн	-12512
▁партиядан	-12513
▁соттордун	-12514
▁талапкери	-12515
▁бекемдөөгө	-12516
▁бөлүштүрүү	-12517
▁китептерди	-12518
▁талапкерди	-12519
▁кемчиликтер	-12520
▁компаниясын	-12521
▁мигранттары	-12522
▁себептерден	-12523
Кыргызстандын	-12524
▁тургундарынын	-12525
Са	-12526
ech	-12527
каб	-12528
рин	-12529
фил	-12530
штү	-12531
▁ЖК	-12532
▁не	-12533
emir	-12534
касы	-12535
▁70%	-12536
▁бюр	-12537
ыкеев	-12538
ыргал	-12539
өндүр	-12540
▁Банг	-12541
▁бети	-12542
▁бөрү	-12543
▁прав	-12544
▁тиги	-12545
▁тосм	-12546
▁улук	-12547
▁урун	-12548
Камбар	-12549
Кемпир	-12550
енбург	-12551
ттарын	-12552
▁Сүйүн	-12553
▁айтор	-12554
▁инжен	-12555
▁кажет	-12556
▁оптим	-12557
▁түгүл	-12558
▁төкмө	-12559
паганын	-12560
▁Жамбыл	-12561
▁Майрам	-12562
▁аларда	-12563
▁аралап	-12564
▁жапайы	-12565
▁карызы	-12566
▁төлөйт	-12567
▁чыктым	-12568
▁Сатыбал	-12569
▁Столтен	-12570
▁Трампты	-12571
▁абалдын	-12572
▁аскерий	-12573
▁болобуз	-12574
▁даярбыз	-12575
▁компьют	-12576
▁кыскача	-12577
▁көрүүдө	-12578
▁көрөбүз	-12579
▁мааниде	-12580
▁мазмуну	-12581
▁сунушту	-12582
▁тарыхта	-12583
▁тарыхчы	-12584
▁тоннага	-12585
▁узартуу	-12586
▁чабуулу	-12587
Коррупция	-12588
▁Документ	-12589
▁илдеттин	-12590
▁казынага	-12591
▁кыскарып	-12592
▁көбөйүшү	-12593
▁улгайган	-12594
▁өздөрүнө	-12595
▁бергенден	-12596
▁жемкорлук	-12597
▁талаптары	-12598
▁тармактын	-12599
▁тургандар	-12600
келиндердин	-12601
▁жоктугунан	-12602
▁текшерүүгө	-12603
▁жагдайларды	-12604
▁мектептерди	-12605
▁текшерүүлөр	-12606
▁журналисттери	-12607
ая	-12608
ее	-12609
ele	-12610
гөм	-12611
-19:	-12612
айма	-12613
түрк	-12614
▁Вар	-12615
▁Кум	-12616
донез	-12617
үлбөй	-12618
▁Банк	-12619
▁ДССУ	-12620
▁Дипл	-12621
▁Майк	-12622
▁Мурз	-12623
▁Шамш	-12624
▁кеси	-12625
▁күрд	-12626
▁таты	-12627
emirov	-12628
Кызмат	-12629
▁Айтор	-12630
▁Келди	-12631
▁Коңшу	-12632
▁Кырда	-12633
▁бөлөк	-12634
▁жайын	-12635
▁жайыт	-12636
▁жээкт	-12637
▁кызыг	-12638
▁чечти	-12639
▁шаарч	-12640
▁Өндүр	-12641
укуктук	-12642
чалаган	-12643
▁Уюштур	-12644
▁атуучу	-12645
▁карьер	-12646
▁майдын	-12647
▁снаряд	-12648
▁турнир	-12649
▁чиркөө	-12650
▁өтүүчү	-12651
ыктардын	-12652
▁аткылоо	-12653
▁жарылып	-12654
▁курамын	-12655
▁кысымга	-12656
▁күрөшкө	-12657
▁окуясын	-12658
▁отуруму	-12659
▁райондо	-12660
▁тескери	-12661
▁чыкпайт	-12662
▁борборго	-12663
▁имаратын	-12664
▁канцлери	-12665
▁каралышы	-12666
▁катталуу	-12667
▁күндүзгү	-12668
▁мыйзамын	-12669
▁ортодогу	-12670
▁спорттун	-12671
▁чечилбей	-12672
▁өсүмдүкт	-12673
февралдагы	-12674
▁Еврокомис	-12675
▁депутатты	-12676
▁жайылышын	-12677
▁жактырган	-12678
▁камсыздап	-12679
▁кырсыктан	-12680
▁чакырууда	-12681
Твиттердеги	-12682
▁Европарлам	-12683
▁азербайжан	-12684
▁байкалууда	-12685
▁жашоочулар	-12686
▁кылынганын	-12687
▁меморандум	-12688
▁Мирзиёевдин	-12689
▁Столтенберг	-12690
▁жаткырылган	-12691
▁кайрылышкан	-12692
▁мекемелерге	-12693
▁Сурабалдиева	-12694
▁демаркациялоо	-12695
▁ооруканасында	-12696
▁делимитациялоо	-12697
▁канааттандырган	-12698
▁я	-12699
оев	-12700
чес	-12701
ңер	-12702
▁Но	-12703
Йорк	-12704
амер	-12705
бесе	-12706
бөрү	-12707
кышт	-12708
үшүп	-12709
▁Маш	-12710
▁ПЧР	-12711
турум	-12712
▁Самм	-12713
▁асыл	-12714
июлдан	-12715
сиялык	-12716
▁0...-	-12717
▁1993-	-12718
▁Интер	-12719
▁Оштун	-12720
▁алары	-12721
▁баада	-12722
▁көнүп	-12723
▁учкай	-12724
▁Айпери	-12725
▁абийир	-12726
▁заводу	-12727
▁ишенич	-12728
▁кемсин	-12729
▁оюндар	-12730
▁саякат	-12731
▁фактор	-12732
▁чыктык	-12733
▁Азимбек	-12734
▁Жуманаз	-12735
▁Жыйынга	-12736
▁Наталья	-12737
▁жасалат	-12738
▁калбайт	-12739
▁пикирди	-12740
▁Ибраимов	-12741
▁Кылмышка	-12742
▁Николаев	-12743
▁Облустук	-12744
▁аралыкка	-12745
▁жашырган	-12746
▁кармоого	-12747
▁километр	-12748
▁коюлганы	-12749
▁тартипке	-12750
▁Финляндия	-12751
▁Чыгыштагы	-12752
▁базарынын	-12753
▁даражалуу	-12754
▁искусство	-12755
▁каналынын	-12756
▁күркүрөйт	-12757
▁мезгилине	-12758
▁төрагалык	-12759
▁факторлор	-12760
▁Венгриянын	-12761
▁күйөөсүнүн	-12762
▁көрсөтүлөт	-12763
▁макулдугун	-12764
▁өспүрүмдөр	-12765
▁Биримдигине	-12766
▁басылмасына	-12767
▁зомбулуктун	-12768
▁мыйзамдардын	-12769
▁маалыматтарын	-12770
7;	-12771
Мо	-12772
ьг	-12773
ran	-12774
Кай	-12775
быр	-12776
ейб	-12777
иге	-12778
ирт	-12779
Сары	-12780
итар	-12781
▁160	-12782
▁мит	-12783
▁уял	-12784
анова	-12785
бизге	-12786
бүздү	-12787
дашып	-12788
▁Жаны	-12789
▁тете	-12790
Мыйзам	-12791
▁1989-	-12792
▁Айдоо	-12793
▁БШКга	-12794
▁Жарым	-12795
▁Жерге	-12796
▁Малай	-12797
▁Эстон	-12798
▁бааны	-12799
▁жүзүн	-12800
▁камоо	-12801
▁кыжыр	-12802
▁миним	-12803
▁роман	-12804
▁табыл	-12805
▁чебер	-12806
Фейсбук	-12807
гыларды	-12808
майынча	-12809
экстрем	-12810
▁10...1	-12811
▁Кимсан	-12812
▁айыпты	-12813
▁койбой	-12814
▁компен	-12815
▁спикер	-12816
▁түрүнө	-12817
▁ЕАЭБдин	-12818
▁аталышы	-12819
▁каймана	-12820
▁козутуу	-12821
▁салмагы	-12822
бүлөсүнүн	-12823
▁кыйраган	-12824
▁Исмаилова	-12825
▁ийгиликке	-12826
▁комиссари	-12827
▁чыгаруучу	-12828
▁ыктыярдуу	-12829
▁Акматалиев	-12830
▁айдоочулук	-12831
▁байланышты	-12832
▁жайларында	-12833
▁укуктарына	-12834
▁Абдрахманов	-12835
▁Прокуратура	-12836
▁башкаруунун	-12837
▁карантиндик	-12838
▁катышуучусу	-12839
▁ооруканалар	-12840
▁такталбаган	-12841
▁Екатеринбург	-12842
▁депутаттыкка	-12843
▁окуучулардын	-12844
▁макулдашылган	-12845
▁туугандарынын	-12846
▁министрлигинде	-12847
14	-12848
"...	-12849
loop	-12850
ЕАЭБ	-12851
агын	-12852
оним	-12853
саат	-12854
утта	-12855
ьянс	-12856
өнөр	-12857
▁190	-12858
▁Вас	-12859
▁онк	-12860
▁оол	-12861
дайым	-12862
▁Кыск	-12863
▁Мьян	-12864
▁ТАСС	-12865
▁коет	-12866
▁мили	-12867
▁чеги	-12868
атайын	-12869
вардын	-12870
ербайж	-12871
есиңер	-12872
▁1998-	-12873
▁Жолду	-12874
▁адамы	-12875
▁бузду	-12876
▁сизди	-12877
▁тролл	-12878
декабрь	-12879
иктерин	-12880
ышыптыр	-12881
▁айыкты	-12882
▁байлап	-12883
▁бекети	-12884
▁босого	-12885
▁дайынд	-12886
▁жоюлуп	-12887
▁карала	-12888
▁кимиси	-12889
чилерден	-12890
▁актаган	-12891
▁достору	-12892
▁орустар	-12893
▁ташууга	-12894
▁эскерип	-12895
▁кызыккан	-12896
▁обочолон	-12897
▁унчукпай	-12898
▁этегинде	-12899
▁Абдыкадыр	-12900
▁Тагыраагы	-12901
▁балдарына	-12902
▁израилдик	-12903
▁иликтөөнү	-12904
▁мыйзамдык	-12905
▁таланттуу	-12906
▁тилиндеги	-12907
▁турганына	-12908
▁өткөрүүдө	-12909
▁дайындалып	-12910
▁колдоосуна	-12911
▁маданиятын	-12912
▁текшерилип	-12913
▁академиялык	-12914
▁депутаттарга	-12915
▁маалыматтары	-12916
▁мамлекетинин	-12917
▁тапкандардын	-12918
▁туугандарына	-12919
▁энергиясынын	-12920
▁уюштуруучулар	-12921
▁экспертизанын	-12922
АК	-12923
199	-12924
Бар	-12925
Мур	-12926
мей	-12927
суу	-12928
ури	-12929
шум	-12930
▁--	-12931
амын	-12932
елет	-12933
итер	-12934
омун	-12935
ремя	-12936
сула	-12937
фаль	-12938
▁90-	-12939
▁Хак	-12940
енинг	-12941
хабад	-12942
▁1200	-12943
▁Баян	-12944
▁Кали	-12945
▁Макс	-12946
▁Шект	-12947
▁адал	-12948
▁досу	-12949
▁жабд	-12950
▁жанр	-12951
▁мушк	-12952
▁обон	-12953
▁сага	-12954
албайт	-12955
асалык	-12956
канага	-12957
оомарт	-12958
убузду	-12959
▁Жаңыл	-12960
▁Мухам	-12961
▁булак	-12962
▁кечең	-12963
▁койчу	-12964
▁модел	-12965
▁табия	-12966
▁Кырсык	-12967
▁баалар	-12968
▁бурган	-12969
▁жеңиши	-12970
▁ишемби	-12971
▁суусун	-12972
▁шылуун	-12973
▁элдикт	-12974
▁эмнеде	-12975
токмокко	-12976
▁Дээрлик	-12977
▁басылма	-12978
▁оорулуу	-12979
▁тасмасы	-12980
▁ушундан	-12981
▁өзүмдүн	-12982
ционалдык	-12983
▁башчылар	-12984
▁каналдар	-12985
▁кыздарды	-12986
▁облустун	-12987
▁округдан	-12988
▁сайтынын	-12989
▁топторго	-12990
▁боштондук	-12991
▁кароосуна	-12992
▁текшерген	-12993
▁чартердик	-12994
▁Министрдин	-12995
▁адвокаттар	-12996
▁документте	-12997
▁кабарчылар	-12998
▁сүйлөшүүсү	-12999
▁шейшембиде	-13000
▁көрсөтмөлөр	-13001
▁системалары	-13002
▁Казакстандык	-13003
▁эркиндигинин	-13004
▁коргоочулардын	-13005
-10	-13006
ная	-13007
нөк	-13008
рой	-13009
сти	-13010
шко	-13011
-202	-13012
икул	-13013
итал	-13014
итов	-13015
ылым	-13016
Өгүз	-13017
▁Каш	-13018
▁Сун	-13019
▁нөө	-13020
▁уюл	-13021
▁фиг	-13022
▁чеб	-13023
Ыйман	-13024
бетов	-13025
түүгө	-13026
▁быча	-13027
жалган	-13028
огунда	-13029
онунан	-13030
▁9...1	-13031
▁Абдан	-13032
▁Филип	-13033
▁келем	-13034
▁кеңсе	-13035
▁конок	-13036
▁терге	-13037
▁тийди	-13038
▁ээлер	-13039
▁өздүк	-13040
герлери	-13041
оочулар	-13042
▁Нуржан	-13043
▁акылга	-13044
▁катышт	-13045
▁окутуп	-13046
▁тыянак	-13047
▁уулуна	-13048
▁чечиле	-13049
▁өчүрүп	-13050
▁билишет	-13051
▁кошулуу	-13052
▁метрден	-13053
▁Абакиров	-13054
▁Жогоруда	-13055
▁Израилди	-13056
▁Райондук	-13057
▁байкалат	-13058
▁борбордо	-13059
▁калтыруу	-13060
▁кошкондо	-13061
▁менчикке	-13062
▁сактаган	-13063
сентябрдан	-13064
▁аныкталат	-13065
▁жабдыктар	-13066
▁иликтенип	-13067
▁кандидаты	-13068
▁каттамдар	-13069
▁окуясынан	-13070
▁чакырымга	-13071
▁Республика	-13072
▁иликтөөнүн	-13073
▁пикирлерди	-13074
▁санариптик	-13075
▁коррупциянын	-13076
▁логистикалык	-13077
▁талапкерлиги	-13078
▁автоунааларды	-13079
,-	-13080
od	-13081
ri	-13082
so	-13083
раж	-13084
▁5%	-13085
▁As	-13086
▁Sp	-13087
▁Юн	-13088
etty	-13089
иңиз	-13090
оглу	-13091
тага	-13092
упер	-13093
ушев	-13094
▁Шык	-13095
▁зым	-13096
етнам	-13097
үткүл	-13098
▁Рита	-13099
▁кине	-13100
▁миңи	-13101
▁серв	-13102
▁уник	-13103
▁Human	-13104
▁Аскат	-13105
▁Диний	-13106
▁аалам	-13107
▁аалым	-13108
▁бөлүү	-13109
▁патри	-13110
▁топур	-13111
диктери	-13112
оолорго	-13113
чүлөрдү	-13114
▁Алдыда	-13115
▁Кутман	-13116
▁Сербия	-13117
▁Чаткал	-13118
▁дегеле	-13119
▁каргаш	-13120
▁козгол	-13121
▁колхоз	-13122
▁сандар	-13123
▁токтой	-13124
жерлерде	-13125
▁Ашхабад	-13126
▁Индонез	-13127
▁үйрөнүп	-13128
▁өлгөнүн	-13129
▁Мусулман	-13130
▁алышыбыз	-13131
▁жакындан	-13132
▁жеңилдик	-13133
▁жүрүшкөн	-13134
▁көбөйтүп	-13135
▁процедур	-13136
▁Ташкентте	-13137
▁башталышы	-13138
▁бергенбиз	-13139
▁канадалык	-13140
▁кооптонуп	-13141
▁талкуулоо	-13142
▁чакырабыз	-13143
▁чыгышында	-13144
▁шериктешт	-13145
▁өлкөлөрдү	-13146
мамлекеттик	-13147
▁кайтарууга	-13148
▁каттамдары	-13149
▁кызматтагы	-13150
▁миграцияга	-13151
▁уюштурулду	-13152
▁аракеттенүү	-13153
▁жемкорлукка	-13154
▁маалыматтын	-13155
▁маселелерге	-13156
▁өлгөндөрдүн	-13157
▁макулдашууну	-13158
▁сактагычынын	-13159
Ад	-13160
ют	-13161
яз	-13162
дий	-13163
тте	-13164
уса	-13165
үгө	-13166
▁ит	-13167
адым	-13168
зода	-13169
ильм	-13170
нама	-13171
▁AFP	-13172
▁Air	-13173
▁Соб	-13174
Кызыл	-13175
Менин	-13176
Путин	-13177
▁4...	-13178
▁Ырыс	-13179
▁бурч	-13180
▁куча	-13181
▁теор	-13182
угунда	-13183
▁1997-	-13184
▁Абдил	-13185
▁Айгүл	-13186
▁Алтай	-13187
▁Ашраф	-13188
▁Сабыр	-13189
▁июлда	-13190
▁курсу	-13191
▁кышкы	-13192
▁микро	-13193
▁урган	-13194
▁Август	-13195
▁Жыргал	-13196
▁Кызмат	-13197
▁Помпео	-13198
▁Сингап	-13199
▁Харрис	-13200
▁аралар	-13201
▁кыргын	-13202
▁соттол	-13203
▁өкүмүн	-13204
уулуктун	-13205
▁келечек	-13206
▁кетирип	-13207
бекованын	-13208
▁Астанада	-13209
▁Ирандагы	-13210
▁Чогулган	-13211
▁айылынан	-13212
▁биримдик	-13213
▁бүтүргөн	-13214
▁имаратты	-13215
▁мөөнөттө	-13216
▁пакистан	-13217
▁такталып	-13218
▁турбайбы	-13219
▁киргизбей	-13220
▁муктаждык	-13221
▁облусунан	-13222
▁өзгөрткөн	-13223
▁өлкөсүнүн	-13224
▁автоматтык	-13225
▁алынгандан	-13226
▁жыйынтыкка	-13227
▁ишканасына	-13228
▁психикалык	-13229
Кыргызстанда	-13230
▁аяктагандан	-13231
▁бириктирген	-13232
▁компенсация	-13233
▁кызматтарда	-13234
▁биримдигинин	-13235
▁идеологиялык	-13236
▁телеканалдар	-13237
▁мамлекеттерден	-13238
ges	-13239
оту	-13240
пыз	-13241
рид	-13242
уре	-13243
хаз	-13244
ңды	-13245
Амер	-13246
апкы	-13247
евка	-13248
кылт	-13249
утур	-13250
▁Дек	-13251
▁Кок	-13252
▁Пет	-13253
▁ССР	-13254
▁Эрк	-13255
детип	-13256
дуруп	-13257
истик	-13258
чүмүн	-13259
▁Акун	-13260
▁Порт	-13261
▁ордо	-13262
▁түзө	-13263
▁угуу	-13264
▁фирм	-13265
▁ыдык	-13266
Баткен	-13267
дүгүнө	-13268
еришти	-13269
▁Антал	-13270
▁Видео	-13271
▁Дүйшө	-13272
▁Медер	-13273
▁Суван	-13274
▁импич	-13275
▁мечит	-13276
▁тумоо	-13277
▁чыгаш	-13278
▁эстеп	-13279
ократия	-13280
▁Текшер	-13281
▁берсек	-13282
▁дарыяс	-13283
▁догдур	-13284
▁кыйнап	-13285
▁рынокт	-13286
▁тектүү	-13287
▁өткөрө	-13288
▁Цзинпин	-13289
▁алкогол	-13290
▁аныктай	-13291
▁барууну	-13292
▁бекитип	-13293
▁жаралат	-13294
▁жаратыл	-13295
▁жоокери	-13296
▁иштешет	-13297
▁кездери	-13298
▁келүүнү	-13299
▁полигон	-13300
▁тилинин	-13301
▁түбөлүк	-13302
▁өнөктүк	-13303
▁Ливандын	-13304
▁Мыйзамга	-13305
▁Оренбург	-13306
▁арасынын	-13307
▁бизнести	-13308
▁булардын	-13309
▁иштебейт	-13310
▁облустар	-13311
▁токтолуп	-13312
▁Бийликтин	-13313
▁Партиянын	-13314
▁Тергөөнүн	-13315
▁азыркыдай	-13316
▁айткандар	-13317
▁маалымдаш	-13318
▁натыйжада	-13319
▁тилкелери	-13320
▁учурларды	-13321
▁видеолорду	-13322
▁куткаруучу	-13323
▁партиясына	-13324
▁түзүлгөнүн	-13325
▁баштагандан	-13326
▁дыйканчылык	-13327
▁милдеттерин	-13328
▁чыккандарды	-13329
▁кызматтарынын	-13330
▁программасына	-13331
45	-13332
ru	-13333
оу	-13334
Фин	-13335
зан	-13336
мас	-13337
ния	-13338
удь	-13339
шек	-13340
өмб	-13341
▁Об	-13342
Авив	-13343
Азия	-13344
алма	-13345
алпы	-13346
кылм	-13347
▁Бос	-13348
▁Зал	-13349
2020-	-13350
бузду	-13351
дешке	-13352
▁Аким	-13353
▁Арал	-13354
▁Фарх	-13355
Грузин	-13356
▁Илхам	-13357
▁Карам	-13358
▁Салян	-13359
▁Шакир	-13360
▁дебей	-13361
▁жүрсө	-13362
▁иштеч	-13363
▁июнда	-13364
▁калам	-13365
▁куран	-13366
▁маңыз	-13367
▁сыйын	-13368
▁хижаб	-13369
дуулугу	-13370
оолорду	-13371
чиликти	-13372
▁12...1	-13373
▁Билдир	-13374
▁Египет	-13375
▁күйгөн	-13376
▁ыңгайл	-13377
▁YouTube	-13378
▁Мугалим	-13379
▁азайтып	-13380
▁аткылап	-13381
▁баратып	-13382
▁жүрөбүз	-13383
▁кадрлар	-13384
▁кармады	-13385
▁кеңешке	-13386
▁оңдоого	-13387
▁талапка	-13388
▁таңында	-13389
▁тестирл	-13390
▁тизмеде	-13391
▁түзүүдө	-13392
▁учактын	-13393
Инстаграм	-13394
▁аттанган	-13395
▁беттеште	-13396
▁жаштарга	-13397
▁күнөөлөп	-13398
▁паспорту	-13399
▁саммитте	-13400
▁Абдукадыр	-13401
▁Балдардын	-13402
▁Караганды	-13403
▁базарында	-13404
▁бизнесмен	-13405
▁билбейбиз	-13406
▁демилгени	-13407
▁маселенин	-13408
▁сапарында	-13409
▁театрында	-13410
▁Дүйшөмбүдө	-13411
▁аткарылышы	-13412
▁жеткирүүгө	-13413
▁кайтарылды	-13414
▁коомчулугу	-13415
▁салынганын	-13416
▁серепчилер	-13417
▁пандемиядан	-13418
▁санкцияларга	-13419
▁Маалыматтарга	-13420
▁жетекчилердин	-13421
▁кабылгандардын	-13422
NN	-13423
TA	-13424
sA	-13425
ИД	-13426
ian	-13427
zer	-13428
жет	-13429
зод	-13430
көп	-13431
мүл	-13432
уюк	-13433
▁81	-13434
▁92	-13435
▁Аг	-13436
▁Ый	-13437
асто	-13438
лүгү	-13439
пост	-13440
штан	-13441
юуга	-13442
▁Бет	-13443
▁Уил	-13444
▁ажы	-13445
▁мек	-13446
аугур	-13447
ордан	-13448
▁0...	-13449
▁York	-13450
▁Грек	-13451
▁Зулп	-13452
▁бийл	-13453
▁куда	-13454
▁этип	-13455
ектрон	-13456
ибизде	-13457
ьетнам	-13458
▁Дэвид	-13459
▁абага	-13460
▁аудио	-13461
▁жаңыр	-13462
▁кыйно	-13463
▁резон	-13464
▁салса	-13465
▁төртт	-13466
▁-2...+	-13467
▁Айзада	-13468
▁Атырау	-13469
▁Электр	-13470
▁кирбей	-13471
▁конгон	-13472
▁унутуп	-13473
▁өзүмдү	-13474
активдүү	-13475
бүлөдөгү	-13476
түлүктүн	-13477
▁Венгрия	-13478
▁айылдар	-13479
▁барууда	-13480
▁кечигип	-13481
▁кечирип	-13482
▁кубаныч	-13483
▁ордунда	-13484
▁чыгабыз	-13485
▁Алмамбет	-13486
▁Гутерриш	-13487
▁алынарын	-13488
▁түшүргөн	-13489
▁финалдык	-13490
▁чабуулун	-13491
▁Биринчиси	-13492
▁Талантбек	-13493
▁адистерди	-13494
▁бербейбиз	-13495
▁дарыларды	-13496
▁реформалар	-13497
▁сунуштарын	-13498
▁түштүгүндө	-13499
▁Мамлекеттин	-13500
▁дезинфекция	-13501
▁добуштардын	-13502
▁жакшыртууга	-13503
▁комплекстүү	-13504
▁криминалдык	-13505
▁мекемелерде	-13506
▁тургундарга	-13507
▁реформаларды	-13508
▁санкциялардын	-13509
▁тоскоолдуксуз	-13510
47	-13511
5;	-13512
io	-13513
по	-13514
ьт	-13515
IVE	-13516
дос	-13517
көл	-13518
паш	-13519
сөм	-13520
туб	-13521
чоң	-13522
▁(6	-13523
▁89	-13524
азан	-13525
гени	-13526
гүсү	-13527
дина	-13528
ебей	-13529
кожо	-13530
лойд	-13531
сист	-13532
тири	-13533
урус	-13534
ящее	-13535
▁Нем	-13536
▁отр	-13537
▁под	-13538
▁уга	-13539
ериал	-13540
жашыр	-13541
лоону	-13542
овага	-13543
чатак	-13544
▁1500	-13545
▁LIVE	-13546
▁Бири	-13547
▁Бээж	-13548
▁Вице	-13549
▁Фари	-13550
▁мара	-13551
▁прог	-13552
Альянс	-13553
доолор	-13554
енттер	-13555
истика	-13556
январь	-13557
▁Макул	-13558
▁Мохам	-13559
▁бузул	-13560
▁окуйт	-13561
▁премь	-13562
▁тамаш	-13563
Коопсуз	-13564
атордук	-13565
▁11...1	-13566
▁Бангла	-13567
▁Тартип	-13568
▁жетиши	-13569
▁медаль	-13570
▁тездик	-13571
▁түштөн	-13572
▁участк	-13573
▁чөнтөг	-13574
астоящее	-13575
▁Temirov	-13576
▁Азиядан	-13577
▁Изилдөө	-13578
▁Орозбек	-13579
▁атагысы	-13580
▁байлыгы	-13581
▁дарыкан	-13582
▁кетейин	-13583
▁миңдейи	-13584
▁улантат	-13585
▁унаалар	-13586
▁ыкмалар	-13587
▁ыңкылап	-13588
▁экенбиз	-13589
энелердин	-13590
▁конфликт	-13591
▁көргөнүн	-13592
▁тезирээк	-13593
▁узундугу	-13594
▁учактары	-13595
▁айырмалан	-13596
▁жаңжалдан	-13597
▁күрөшүүдө	-13598
▁көбөйүүдө	-13599
▁митингдер	-13600
▁саммитине	-13601
▁тартылышы	-13602
гиликтүүлөр	-13603
▁Аскаровдун	-13604
▁Молдованын	-13605
▁колдонууну	-13606
▁ооругандар	-13607
▁саясатынын	-13608
▁тараптарды	-13609
▁чемпионаты	-13610
▁өндүрүштүк	-13611
▁Батукаевдин	-13612
▁айылдарында	-13613
▁бейтаптарды	-13614
▁кызматташып	-13615
▁экстрадиция	-13616
▁аэропортунун	-13617
▁тастыкталган	-13618
▁Кыргызгидромет	-13619
▁катышкандардын	-13620
ёв	-13621
nes	-13622
едо	-13623
кең	-13624
рак	-13625
юдо	-13626
▁аё	-13627
cial	-13628
арль	-13629
шкөн	-13630
үктө	-13631
▁Бин	-13632
▁Элв	-13633
Москв	-13634
▁бөлм	-13635
▁конг	-13636
▁окшо	-13637
▁сени	-13638
▁сүйр	-13639
▁уруу	-13640
Социал	-13641
уктары	-13642
улушун	-13643
үбүздү	-13644
▁Артык	-13645
▁Ахмед	-13646
▁Сотко	-13647
▁Төрөк	-13648
▁Урмат	-13649
▁актоо	-13650
▁карак	-13651
▁кедер	-13652
▁кубан	-13653
еллиген	-13654
чаранын	-13655
▁Бахмут	-13656
▁Олимпи	-13657
▁Сиздин	-13658
▁алуусу	-13659
▁баалай	-13660
▁дарбаз	-13661
▁мушташ	-13662
▁округу	-13663
▁оозеки	-13664
▁Бийликт	-13665
▁Фейсбук	-13666
▁аскерин	-13667
▁баардык	-13668
▁вариант	-13669
▁каралоо	-13670
▁кесилди	-13671
▁кошулат	-13672
▁сыйлыгы	-13673
▁тагылып	-13674
▁тактала	-13675
алиеванын	-13676
▁аныктайт	-13677
▁долларын	-13678
▁мечиттер	-13679
▁мүчүлүшт	-13680
▁отурабыз	-13681
▁тармакты	-13682
▁токойлор	-13683
▁топторду	-13684
▁фондунан	-13685
беренесине	-13686
▁Жапонияда	-13687
▁жарымынан	-13688
▁позицияны	-13689
▁уникалдуу	-13690
▁чабуулдан	-13691
▁өкүнүчтүү	-13692
▁Документте	-13693
▁азчылыктар	-13694
▁жиберилген	-13695
▁жээгиндеги	-13696
▁кайрылууга	-13697
▁талаптарга	-13698
▁Карасартова	-13699
▁кайрылганын	-13700
▁килограммга	-13701
демократиялык	-13702
▁демократияга	-13703
▁кызматташкан	-13704
▁мамлекеттүүл	-13705
▁тынчсызданып	-13706
▁экспорттоого	-13707
▁баллистикалык	-13708
▁коммуникациялар	-13709
▁технологияларды	-13710
Кө	-13711
эч	-13712
ber	-13713
Таж	-13714
ахл	-13715
бач	-13716
лон	-13717
сар	-13718
сог	-13719
теги	-13720
өйүн	-13721
▁Бүт	-13722
▁дык	-13723
дукка	-13724
лерге	-13725
▁Блог	-13726
▁Раим	-13727
▁гимн	-13728
▁кырт	-13729
▁мөмө	-13730
▁ойду	-13731
▁таяк	-13732
▁тери	-13733
канада	-13734
тандил	-13735
▁Акыры	-13736
▁Алсак	-13737
▁Ишкер	-13738
▁Литва	-13739
▁балет	-13740
▁босог	-13741
▁жакты	-13742
▁каада	-13743
▁кайта	-13744
▁купуя	-13745
▁пирам	-13746
▁тушта	-13747
▁чекке	-13748
▁Images	-13749
▁Бекмур	-13750
▁Бүткүл	-13751
▁Мүмкүн	-13752
▁Фрунзе	-13753
▁кайтты	-13754
▁кеттим	-13755
▁кыйгап	-13756
▁Сирияга	-13757
▁Трампка	-13758
▁бакчага	-13759
▁дозасын	-13760
▁зыяндын	-13761
▁издөөгө	-13762
▁капитал	-13763
▁кетишет	-13764
▁медайым	-13765
▁урганын	-13766
▁өндүрүм	-13767
Казакстан	-13768
Настоящее	-13769
▁Муратбек	-13770
▁Тараптар	-13771
▁Төрөбаев	-13772
▁айрымдар	-13773
▁баштадым	-13774
▁казактар	-13775
▁кыймылын	-13776
▁маанисин	-13777
▁сыноодон	-13778
▁чабуулду	-13779
▁Дүйнөдөгү	-13780
▁жайларына	-13781
▁изилдөөгө	-13782
▁илдетинен	-13783
▁келгенбиз	-13784
▁көчөсүндө	-13785
▁натыйжасы	-13786
▁окуясында	-13787
▁рекорддук	-13788
▁учактарды	-13789
▁чабуулдар	-13790
▁аткарылбай	-13791
▁жакындарын	-13792
▁көрүнүктүү	-13793
▁мектебинин	-13794
▁трансформа	-13795
▁эксперттик	-13796
▁айткандарын	-13797
▁зарылчылыгы	-13798
▁дубандарында	-13799
▁келишимдерге	-13800
▁коммунисттик	-13801
▁маалымдашынча	-13802
▁баалуулуктарды	-13803
▁жоопкерчиликтүү	-13804
17	-13805
ac	-13806
?",	-13807
ive	-13808
lin	-13809
аск	-13810
гүү	-13811
▁ЕБ	-13812
акай	-13813
алгы	-13814
олла	-13815
▁CNN	-13816
▁Тик	-13817
аштын	-13818
динин	-13819
оттук	-13820
▁Азык	-13821
▁литр	-13822
▁тарк	-13823
▁чети	-13824
ациясы	-13825
▁Жаныш	-13826
▁Хасан	-13827
▁жарыш	-13828
▁кошуу	-13829
▁күнкү	-13830
▁норма	-13831
▁пайду	-13832
▁ырдап	-13833
бүлөсүн	-13834
дигинен	-13835
▁Антони	-13836
▁Маселе	-13837
▁Рахман	-13838
▁жүздөй	-13839
▁коллеж	-13840
▁көндүр	-13841
▁магист	-13842
Мекенчил	-13843
Торугарт	-13844
▁бирөөнү	-13845
▁китепти	-13846
▁колубуз	-13847
▁күтүлөт	-13848
▁ортомчу	-13849
▁Дүйнөнүн	-13850
▁андыктан	-13851
▁баштоого	-13852
▁белгилей	-13853
▁жаңжалды	-13854
▁кадамдар	-13855
▁мекендик	-13856
▁салыктык	-13857
▁штатында	-13858
октябрында	-13859
▁Ниязбеков	-13860
▁Рахмондун	-13861
▁акырындык	-13862
▁ачылышына	-13863
▁жазганына	-13864
▁кагылышта	-13865
▁которулду	-13866
▁макулдугу	-13867
▁системага	-13868
▁улантууга	-13869
▁өткөрүштү	-13870
▁аталыштагы	-13871
▁дүрбөлөңгө	-13872
▁көрсөтүлдү	-13873
▁пландаштыр	-13874
▁институттар	-13875
▁ракеталарды	-13876
▁чабуулдарын	-13877
▁аэропортунда	-13878
▁полициясынын	-13879
▁Каракалпакстан	-13880
▁Коронавирустан	-13881
Иш	-13882
Кур	-13883
гүч	-13884
едж	-13885
ики	-13886
осо	-13887
пил	-13888
▁Ру	-13889
баст	-13890
елей	-13891
ингв	-13892
ишип	-13893
оров	-13894
осуз	-13895
птом	-13896
союз	-13897
өөнө	-13898
▁4-5	-13899
▁Жас	-13900
▁ФСБ	-13901
▁поч	-13902
▁уда	-13903
▁эже	-13904
2019-	-13905
Сапат	-13906
айлап	-13907
ублиц	-13908
▁Амир	-13909
▁Опер	-13910
▁Сити	-13911
▁Учур	-13912
▁айла	-13913
▁диаб	-13914
▁жоюп	-13915
▁лига	-13916
▁тыны	-13917
▁угуз	-13918
▁чата	-13919
алдары	-13920
бестен	-13921
ңыздар	-13922
өлөрдү	-13923
▁Getty	-13924
▁Бельг	-13925
▁арачы	-13926
▁инсул	-13927
▁лауре	-13928
▁оболу	-13929
▁оокат	-13930
▁сенин	-13931
▁татар	-13932
июлдагы	-13933
маданий	-13934
▁Аялдар	-13935
▁Берлин	-13936
▁Жекшен	-13937
▁Ниязов	-13938
▁Словак	-13939
▁Элвира	-13940
▁ажырап	-13941
▁жанкеч	-13942
▁чектеп	-13943
▁энерго	-13944
▁өнөкөт	-13945
▁Жетиген	-13946
▁Жоламан	-13947
▁агартуу	-13948
▁алдырып	-13949
▁бүтүрүп	-13950
▁жолдошу	-13951
▁отурукт	-13952
▁силерге	-13953
▁созулат	-13954
▁четинен	-13955
▁өнүгүшү	-13956
▁өткөндө	-13957
▁аппараты	-13958
▁арызынын	-13959
▁бизнеске	-13960
▁жайылышы	-13961
▁жактырды	-13962
▁кыздарга	-13963
▁маанайда	-13964
▁мурдатан	-13965
▁салыштыр	-13966
▁союзунун	-13967
▁сыпаттап	-13968
▁тоолордо	-13969
▁ууландыр	-13970
▁чарбалык	-13971
▁чектелип	-13972
▁элдердин	-13973
▁Канаданын	-13974
▁Швейцария	-13975
▁байланышка	-13976
▁жеткирилип	-13977
▁интеллиген	-13978
▁карантинде	-13979
▁курулушуна	-13980
▁шайлоодогу	-13981
▁кайрылуусун	-13982
▁депутаттарды	-13983
▁объектилерди	-13984
▁системасында	-13985
▁маалыматтарда	-13986
▁талапкерлерди	-13987
"-	-13988
Өн	-13989
.00	-13990
пер	-13991
▁тө	-13992
▁ып	-13993
mnes	-13994
ИСЕФ	-13995
Мега	-13996
гамб	-13997
емен	-13998
ылчу	-13999
үйнө	-14000
▁Арс	-14001
▁Чал	-14002
▁ура	-14003
▁урп	-14004
дустр	-14005
сатык	-14006
▁3...	-14007
▁улай	-14008
▁өсөт	-14009
mnesty	-14010
алоого	-14011
дуктун	-14012
огондо	-14013
осибир	-14014
удсмен	-14015
усунда	-14016
▁Антон	-14017
▁Кесип	-14018
▁Павел	-14019
▁Сотто	-14020
▁Тимур	-14021
▁атына	-14022
▁килем	-14023
▁терап	-14024
▁уулум	-14025
▁уурул	-14026
▁чатак	-14027
алиевди	-14028
энелери	-14029
үшкөнүн	-14030
▁Коргон	-14031
▁кыйкыр	-14032
▁күнүгө	-14033
▁патент	-14034
▁полков	-14035
▁топтоо	-14036
▁Өзүнүн	-14037
аларынан	-14038
дуулукка	-14039
ыштардын	-14040
▁Антониу	-14041
▁Ибрагим	-14042
▁Кореяда	-14043
▁Кыскасы	-14044
▁Эксперт	-14045
▁айыккан	-14046
▁алдынан	-14047
▁армияга	-14048
▁жагында	-14049
▁жарнама	-14050
▁ишкерди	-14051
▁каптады	-14052
▁кычкылт	-14053
▁менимче	-14054
▁облусун	-14055
▁сабаган	-14056
▁чыгарыш	-14057
▁Азербайж	-14058
▁Баткенге	-14059
▁Кулматов	-14060
▁Миграция	-14061
▁Момбеков	-14062
▁Орозайым	-14063
▁Рыскелди	-14064
▁алтындын	-14065
▁даярдыгы	-14066
▁дүкөндөр	-14067
▁жараянын	-14068
▁жыйындын	-14069
▁мүмкүнбү	-14070
▁сыртында	-14071
▁тергөөдө	-14072
▁түрлөрүн	-14073
▁аймактары	-14074
▁аныктоого	-14075
▁башташкан	-14076
▁кишилерге	-14077
▁курагында	-14078
▁сакталышы	-14079
▁чакырылып	-14080
▁Адистердин	-14081
▁Жамгырчиев	-14082
▁Инвестиция	-14083
▁Лондондогу	-14084
▁Маматалиев	-14085
▁аткарылган	-14086
▁жатышпайбы	-14087
▁кадамдарга	-14088
▁пикирлерин	-14089
▁реформалоо	-14090
▁тартыларын	-14091
▁Амангелдиев	-14092
▁Саймаитинин	-14093
▁аппаратынын	-14094
▁пландалууда	-14095
▁прокурорлор	-14096
▁тажрыйбалуу	-14097
▁туруктуулук	-14098
▁ыктымалдыгы	-14099
▁кызматкердин	-14100
▁тургундарына	-14101
26	-14102
гн	-14103
com	-14104
our	-14105
ачу	-14106
бел	-14107
сөз	-14108
утн	-14109
▁фл	-14110
Эксп	-14111
атом	-14112
едев	-14113
ласт	-14114
үмдө	-14115
▁Рай	-14116
▁Чыр	-14117
▁диз	-14118
▁ооп	-14119
▁пил	-14120
▁чоч	-14121
▁ыйл	-14122
алады	-14123
атаев	-14124
кийин	-14125
ченко	-14126
▁Жара	-14127
▁Февр	-14128
▁алым	-14129
▁атка	-14130
▁бирж	-14131
▁болж	-14132
▁бөйр	-14133
▁жада	-14134
▁мырз	-14135
▁плак	-14136
ландия	-14137
үлбөйт	-14138
▁Айыпт	-14139
▁Комит	-14140
▁айтам	-14141
▁актер	-14142
▁кирсе	-14143
▁күндү	-14144
▁оюнда	-14145
▁чабал	-14146
▁өнүгө	-14147
алиевге	-14148
▁Вакцин	-14149
▁Партия	-14150
▁Сталин	-14151
▁арасыз	-14152
▁аянтча	-14153
▁илгери	-14154
▁контин	-14155
▁соккон	-14156
Президен	-14157
ектердин	-14158
▁Семетей	-14159
▁Шаардын	-14160
▁геноцид	-14161
▁жеңилип	-14162
▁киргени	-14163
▁кызыгуу	-14164
▁сенатор	-14165
▁тактады	-14166
▁учурады	-14167
▁фонунда	-14168
▁Жылуулук	-14169
▁Италияда	-14170
▁Кеңешбек	-14171
▁айырмасы	-14172
▁ардактуу	-14173
▁жерлерин	-14174
▁жылдыруу	-14175
▁калайман	-14176
▁келишине	-14177
▁көмүлгөн	-14178
▁отурушат	-14179
▁саммитке	-14180
▁гезитинин	-14181
▁жетектейт	-14182
▁келечегин	-14183
▁күчтөрүнө	-14184
▁алдамчылык	-14185
▁бүтүндүгүн	-14186
▁дарыгердин	-14187
▁дүйнөсүнүн	-14188
▁инфратүзүм	-14189
▁куттуктады	-14190
▁партиялары	-14191
▁системалуу	-14192
▁сүрөттөрдү	-14193
▁ыйгарылган	-14194
▁эмгектенип	-14195
▁өзгөчөлүгү	-14196
▁Жээнбековго	-14197
▁Матраимовго	-14198
▁Шаршенбеков	-14199
▁беренесинин	-14200
▁курултайдын	-14201
▁маалыматтан	-14202
▁эркектердин	-14203
▁Коммунисттик	-14204
▁кызматкерине	-14205
▁материалдары	-14206
▁экономикасын	-14207
-3	-14208
13	-14209
se	-14210
▁Z	-14211
17-	-14212
ard	-14213
ell	-14214
Жол	-14215
ТИМ	-14216
бит	-14217
саб	-14218
сып	-14219
илик	-14220
ктин	-14221
мира	-14222
орос	-14223
ошев	-14224
Өзөн	-14225
▁170	-14226
▁Пал	-14227
▁тим	-14228
Альфа	-14229
аштык	-14230
дырат	-14231
дөмүк	-14232
ектеш	-14233
енген	-14234
ликке	-14235
лүгүн	-14236
ников	-14237
уттун	-14238
ымдан	-14239
юшкан	-14240
өрүнө	-14241
▁Tele	-14242
▁Ашир	-14243
▁Клим	-14244
▁Проф	-14245
▁квот	-14246
▁судь	-14247
▁урап	-14248
▁Өзүн	-14249
дугуна	-14250
еванын	-14251
▁8...1	-14252
▁Бурул	-14253
▁ГЭСин	-14254
▁авиаб	-14255
▁аялга	-14256
▁газды	-14257
▁жүрчү	-14258
▁кудур	-14259
▁толду	-14260
илердин	-14261
ылардын	-14262
үүлөргө	-14263
▁Шектүү	-14264
▁Эртеси	-14265
▁айтышы	-14266
▁болсом	-14267
▁болтур	-14268
▁жамаат	-14269
▁жолдоп	-14270
▁жумушу	-14271
▁кеттик	-14272
▁көптөр	-14273
▁ошолор	-14274
▁тартат	-14275
Хезболла	-14276
▁Алтынай	-14277
▁Валерий	-14278
▁Көбүнчө	-14279
▁айылдан	-14280
▁алтынды	-14281
▁болочок	-14282
▁кетебиз	-14283
▁курулат	-14284
▁сааттын	-14285
▁салыкты	-14286
▁сүрөтчү	-14287
▁талапты	-14288
▁тасманы	-14289
▁турмушу	-14290
▁төрөгөн	-14291
▁чечүүчү	-14292
▁Сулейман	-14293
▁армиянын	-14294
▁бөлүшкөн	-14295
▁заттарды	-14296
▁кайгылуу	-14297
▁киргенде	-14298
▁колдонот	-14299
▁көргөндө	-14300
▁түзгөнүн	-14301
▁убакытты	-14302
▁ыңгайсыз	-14303
▁беришибиз	-14304
▁жөнөтүлөт	-14305
▁изилдеген	-14306
▁каражатка	-14307
▁карманган	-14308
▁кризистен	-14309
▁көтөрүлүш	-14310
▁машинелер	-14311
▁мектептен	-14312
▁орундарын	-14313
▁ошолордун	-14314
▁өткөрүлөт	-14315
▁кымбаттады	-14316
▁системанын	-14317
▁өзгөртүүнү	-14318
▁Медициналык	-14319
▁Текебаевдин	-14320
▁долбоорлору	-14321
▁салтанаттуу	-14322
▁кылмыштуулукка	-14323
▁экономикасынын	-14324
▁аткаминерлердин	-14325
Ат	-14326
all	-14327
ene	-14328
ion	-14329
аби	-14330
мян	-14331
ткы	-14332
фия	-14333
▁96	-14334
▁Ла	-14335
Анын	-14336
асыр	-14337
басы	-14338
екст	-14339
инче	-14340
итти	-14341
ихад	-14342
тест	-14343
▁Акч	-14344
▁Туу	-14345
▁лег	-14346
▁шир	-14347
2021-	-14348
fizer	-14349
media	-14350
Темир	-14351
амдуу	-14352
иптов	-14353
пасын	-14354
▁Окуу	-14355
▁Отор	-14356
▁Стал	-14357
▁Стан	-14358
▁боол	-14359
▁буту	-14360
▁деги	-14361
▁ийне	-14362
▁майн	-14363
доруна	-14364
дөөнүн	-14365
исинин	-14366
▁1980-	-14367
▁Багда	-14368
▁Китеп	-14369
▁Павло	-14370
▁дыкат	-14371
▁кетем	-14372
▁колум	-14373
▁көкүр	-14374
▁мэрия	-14375
▁сезон	-14376
Украина	-14377
чөйрөнү	-14378
▁-3...+	-14379
▁ЕАЭБге	-14380
▁дейбиз	-14381
▁дешкен	-14382
▁илинип	-14383
▁кайгыр	-14384
▁коюуну	-14385
▁көбөйө	-14386
▁ошончо	-14387
▁таянуу	-14388
▁фронтт	-14389
▁чакырт	-14390
▁экспон	-14391
▁өткөөл	-14392
иптовалю	-14393
▁Адамдар	-14394
▁Дүйшөмб	-14395
▁Уланбек	-14396
▁азиялык	-14397
▁акылдуу	-14398
▁бөлүшүп	-14399
▁залынан	-14400
▁каникул	-14401
▁келтире	-14402
▁ордунан	-14403
▁токтоду	-14404
▁түрүнөн	-14405
▁эсептеш	-14406
▁өндүрүп	-14407
▁Баштапкы	-14408
▁Мухаммад	-14409
▁варианты	-14410
▁далилдеп	-14411
▁жардамын	-14412
▁жаңжалга	-14413
▁пландары	-14414
▁чечилген	-14415
▁чоңойгон	-14416
▁даярдоого	-14417
▁калгандай	-14418
▁келишимде	-14419
▁кылмышкер	-14420
▁максатына	-14421
▁медкызмат	-14422
▁токтоосуз	-14423
▁шектүүнүн	-14424
▁Мигранттар	-14425
▁бейшембиде	-14426
▁жетишилген	-14427
▁зомбулукту	-14428
▁мыкаачылык	-14429
▁пропаганда	-14430
▁тизмесинен	-14431
▁түйүндөрдө	-14432
▁чакырымдай	-14433
▁шаарлардын	-14434
▁эсептейбиз	-14435
▁Олимпиадага	-14436
▁акцияларына	-14437
▁архитектура	-14438
▁жашоочулары	-14439
▁кызматтардын	-14440
▁органдарында	-14441
▁альтернативдүү	-14442
▁провинциясынын	-14443
▁санариптештирүү	-14444
22	-14445
Ка	-14446
Ма	-14447
див	-14448
жит	-14449
роз	-14450
сер	-14451
ңөр	-14452
ЖККУ	-14453
алты	-14454
гыча	-14455
огой	-14456
▁Июл	-14457
▁Руз	-14458
▁Чер	-14459
▁жыш	-14460
▁ошо	-14461
▁ред	-14462
▁фот	-14463
агнер	-14464
ейтер	-14465
ектеп	-14466
истин	-14467
кенин	-14468
▁Марл	-14469
▁Саид	-14470
▁Сали	-14471
▁Чыны	-14472
▁Эрке	-14473
▁арам	-14474
▁иден	-14475
▁каты	-14476
▁нике	-14477
▁сары	-14478
▁танк	-14479
▁экип	-14480
▁20-30	-14481
▁Афган	-14482
▁Шойгу	-14483
▁бүтөт	-14484
▁дурус	-14485
▁иммиг	-14486
▁кезге	-14487
▁лицей	-14488
▁семир	-14489
Таштагы	-14490
ациялоо	-14491
▁-1...-	-14492
▁Шайлда	-14493
▁банкка	-14494
▁барлар	-14495
▁зыярат	-14496
▁козгоо	-14497
▁кумшек	-14498
▁көңүлү	-14499
▁салмак	-14500
▁өлчөмү	-14501
жылдарга	-14502
▁Жабырка	-14503
▁базасын	-14504
▁барышты	-14505
▁дарылар	-14506
▁каалайт	-14507
▁камтама	-14508
▁манасчы	-14509
▁симптом	-14510
▁төлөбөй	-14511
▁төлөнүп	-14512
▁шаардан	-14513
▁өтпөгөн	-14514
ектрондук	-14515
▁Ташкентт	-14516
▁албайсың	-14517
▁аныктады	-14518
▁жакшылык	-14519
▁капчыгай	-14520
▁карманып	-14521
▁күчөткөн	-14522
▁орноштур	-14523
▁психолог	-14524
▁сабалган	-14525
▁салуунун	-14526
▁толкунун	-14527
▁филармон	-14528
ратегиялык	-14529
▁Исаковдун	-14530
▁айылдарда	-14531
▁баракчасы	-14532
▁кеңешинде	-14533
▁кодекстин	-14534
▁сыйлыктар	-14535
▁тапкандар	-14536
▁Айдарбеков	-14537
▁Суваналиев	-14538
▁банктардын	-14539
▁жакырчылык	-14540
▁каржылоого	-14541
▁тилкелерин	-14542
▁биримдиктин	-14543
▁кабарлашкан	-14544
▁кызматтарга	-14545
▁ассоциациясы	-14546
▁жабыркаганын	-14547
▁тармактардын	-14548
▁активисттерди	-14549
▁киргизилгенин	-14550
▁материалдарын	-14551
▁туруктуулукту	-14552
▁жолугушууларды	-14553
[...]
