<unk>	0
<s>	0
</s>	0
.	-2.99158
,	-3.32889
н	-4.07756
-	-4.55537
▁"	-4.64885
"	-4.7193
▁менен	-4.79474
▁жана	-4.91749
га	-5.33773
▁	-5.40473
▁бир	-5.47246
▁да	-5.48479
▁деп	-5.52966
▁эле	-5.60741
▁боюнча	-5.73575
▁-	-5.76234
▁үчүн	-5.87965
▁бул	-5.89954
нын	-5.92698
да	-5.93836
ка	-6.03857
▁Ал	-6.04876
▁Бул	-6.06358
▁болуп	-6.13977
▁бар	-6.15945
▁ал	-6.16131
▁деген	-6.18208
к	-6.20558
м	-6.20921
▁тууралуу	-6.21779
:	-6.22738
▁болгон	-6.23043
ы	-6.2471
▁жок	-6.26168
дан	-6.27927
▁чейин	-6.31393
▁жатат	-6.32465
▁эмес	-6.33883
▁керек	-6.34632
т	-6.38813
▁алып	-6.40818
▁кийин	-6.43602
▁дагы	-6.45278
ге	-6.46291
▁эки	-6.4744
)	-6.50307
▁(	-6.50727
жылы	-6.51984
а	-6.52466
и	-6.54895
на	-6.56532
гы	-6.56742
▁анын	-6.59765
▁Бирок	-6.61869
▁билдирди	-6.64334
ке	-6.64862
п	-6.65824
▁экенин	-6.66447
?	-6.66868
ын	-6.68858
▁каршы	-6.69135
дин	-6.69335
",	-6.70005
дын	-6.72377
го	-6.73882
▁жаткан	-6.74084
▁башка	-6.74418
▁же	-6.75404
▁турган	-6.77793
р	-6.77916
▁адам	-6.80075
▁көп	-6.80306
ды	-6.83706
▁болду	-6.84759
лык	-6.84827
▁мамлекеттик	-6.85711
▁бери	-6.86118
▁эл	-6.89054
дагы	-6.89791
▁болот	-6.90061
▁өз	-6.90373
▁иш	-6.90536
▁эми	-6.90671
▁гана	-6.90917
▁маалымат	-6.92217
▁кандай	-6.93019
▁алган	-6.9322
▁чек	-6.93791
▁келген	-6.94895
▁жаңы	-6.9522
▁ар	-6.97675
▁байланыштуу	-6.98858
й	-6.99061
▁катары	-6.99161
▁жатканын	-6.99297
▁айтып	-7.00065
ди	-7.00408
▁Кыргызстандын	-7.02583
▁аралык	-7.02994
гө	-7.05975
▁кабыл	-7.0712
▁кол	-7.07696
▁сөз	-7.09091
▁аны	-7.1043
▁киши	-7.10561
▁кыргыз	-7.11274
▁болсо	-7.1155
▁Орусиянын	-7.13095
у	-7.14201
▁иштер	-7.14459
ин	-7.14772
▁Жогорку	-7.15073
▁Кыргызстанда	-7.15517
▁миң	-7.16739
▁Анын	-7.17226
с	-7.17537
л	-7.17723
▁мүмкүн	-7.19046
▁жолу	-7.22079
▁деди	-7.22249
дун	-7.22288
де	-7.22875
▁ошол	-7.23116
▁чыккан	-7.2599
▁жыл	-7.26345
▁үй	-7.26738
▁чет	-7.26773
▁учурда	-7.28059
▁ылайык	-7.28154
▁эч	-7.28301
та	-7.28812
▁мурдагы	-7.29915
▁президент	-7.30082
▁бири	-7.30101
▁калган	-7.30318
▁жол	-7.30607
▁үч	-7.30636
▁айтты	-7.30721
▁баш	-7.30995
▁Кыргызстан	-7.31127
лар	-7.32017
ны	-7.32068
сы	-7.32646
▁улам	-7.33825
▁чыгып	-7.3487
▁берген	-7.34904
нун	-7.35949
▁мыйзам	-7.36939
▁алуу	-7.3735
ден	-7.3809
▁ушул	-7.38459
тан	-7.38938
▁бирок	-7.39435
▁өткөн	-7.39901
▁көз	-7.40225
▁келет	-7.40991
▁караганда	-7.41107
ду	-7.41305
▁Жапаров	-7.41305
▁билдирген	-7.41883
▁кайра	-7.43558
▁алардын	-7.43872
ов	-7.43967
▁саясий	-7.44043
▁жардам	-7.4437
▁Орусия	-7.44383
▁ичинде	-7.44537
▁экен	-7.45021
▁жооп	-7.45208
▁каза	-7.45246
▁Алар	-7.45583
▁президенти	-7.45935
ат	-7.47027
▁аркылуу	-7.47038
▁элек	-7.47731
▁чоң	-7.48298
▁жакшы	-7.48856
▁турат	-7.49194
чу	-7.49681
▁мындай	-7.50589
жылдын	-7.50916
▁нече	-7.51165
▁Биз	-7.51556
▁шайлоо	-7.51559
▁жөнүндө	-7.52448
▁биринчи	-7.52952
▁алар	-7.53234
▁келип	-7.53358
▁Буга	-7.53472
▁берүү	-7.5373
▁эң	-7.54633
▁Садыр	-7.54827
ги	-7.54888
▁расмий	-7.5503
▁Бишкек	-7.55254
▁орус	-7.55524
▁ага	-7.56084
быз	-7.56602
▁биз	-7.56642
▁кеткен	-7.56752
ти	-7.56769
▁кылып	-7.57129
ты	-7.5718
▁иштеп	-7.57781
нин	-7.58284
▁Ош	-7.58408
▁кылмыш	-7.58552
▁берип	-7.58869
▁ара	-7.58939
ү	-7.59475
▁күнү	-7.59534
ына	-7.59826
▁турганын	-7.59951
тын	-7.60155
▁деле	-7.60166
▁калды	-7.60179
▁орун	-7.60548
дар	-7.60687
бек	-7.61828
▁буга	-7.62148
▁кызматы	-7.62476
ң	-7.6251
ш	-7.62527
▁министрлиги	-7.62698
▁атайын	-7.63455
▁жалпы	-7.63897
▁коопсуздук	-7.64443
▁талап	-7.64767
▁алды	-7.64771
▁иши	-7.64946
са	-7.65328
▁туура	-7.66033
▁коргоо	-7.66742
▁айткан	-7.66792
▁Мен	-7.67151
▁өлкөнүн	-7.67241
▁Улуттук	-7.67248
▁коронавирус	-7.67348
▁жерде	-7.6755
▁суу	-7.67773
▁Ошол	-7.68152
▁башчысы	-7.68354
▁бардык	-7.68504
▁миллион	-7.68705
▁айрым	-7.68912
▁акча	-7.69187
до	-7.69704
▁саны	-7.70198
▁өзү	-7.70568
▁ишке	-7.71036
▁сот	-7.7134
▁болчу	-7.71981
тар	-7.72252
▁карата	-7.73154
▁Кыргыз	-7.73212
▁жакын	-7.73944
▁Алардын	-7.74393
б	-7.74449
▁азыр	-7.7495
▁берди	-7.75134
▁жатышат	-7.75272
▁социалдык	-7.75803
▁сактоо	-7.75948
▁басма	-7.76317
▁күн	-7.76372
▁айтымында	-7.76735
бай	-7.76797
дөн	-7.76836
▁жаштагы	-7.76948
тин	-7.7715
▁Бир	-7.7728
дө	-7.77395
▁жер	-7.77917
дай	-7.78146
▁өтө	-7.78384
▁кылган	-7.79066
▁катар	-7.79254
▁АКШ	-7.7929
▁сом	-7.79905
▁оор	-7.80305
▁албай	-7.80973
▁өлкө	-7.8159
▁ачык	-7.8177
те	-7.82022
▁беш	-7.82153
▁жергиликтүү	-7.82612
▁бийлик	-7.83061
▁арасында	-7.84038
дык	-7.84285
з	-7.8463
▁министри	-7.84671
▁Анда	-7.84698
инин	-7.84709
▁белгилүү	-7.84888
▁шаарында	-7.85202
▁өтүп	-7.85538
нүн	-7.85649
ну	-7.8618
▁Кеңештин	-7.86396
▁болушу	-7.87115
▁баары	-7.87222
ып	-7.87468
▁мурда	-7.87599
▁айында	-7.87715
▁өкмөт	-7.88155
▁эмне	-7.88245
▁аракет	-7.88324
▁К	-7.88515
▁биздин	-7.88881
▁толук	-7.88925
▁алынган	-7.89242
▁ата	-7.89827
▁Эл	-7.90049
сын	-7.90578
ко	-7.90846
▁аскердик	-7.91524
▁барып	-7.91662
▁Украинанын	-7.92146
ма	-7.92737
▁аталган	-7.93191
▁жүрүп	-7.93225
▁адамдар	-7.9385
▁күч	-7.9385
▁сыяктуу	-7.9393
▁аз	-7.93961
▁Азыр	-7.94158
▁Мында	-7.94291
▁Би	-7.94374
▁тартып	-7.94481
▁А	-7.94655
▁жатканы	-7.94678
▁басары	-7.94748
▁төрт	-7.95139
▁Ага	-7.95461
▁жүргөн	-7.95759
▁төрагасы	-7.95865
ларды	-7.96127
▁андан	-7.96247
▁укук	-7.96454
туу	-7.96574
▁коомдук	-7.96785
▁алдында	-7.96856
▁Андан	-7.97419
▁жылдан	-7.98106
ине	-7.98184
Абад	-7.98273
нда	-7.9892
▁10	-7.98994
октябрда	-7.99181
▁соңку	-7.99295
д	-7.99307
▁мен	-7.99346
▁топ	-7.99415
▁млн	-7.99901
бы	-8.00476
▁добуш	-8.0048
▁болгонун	-8.00508
▁райондук	-8.00658
▁маселе	-8.00898
▁кыргызстандык	-8.00975
▁өзгөчө	-8.00984
▁бийлиги	-8.01245
лардын	-8.01324
▁өлкөдө	-8.01374
▁мамлекет	-8.0159
▁чыкты	-8.01601
▁20	-8.0163
▁мыйзамсыз	-8.01803
▁сатып	-8.01827
чү	-8.01959
▁ички	-8.02052
▁бала	-8.02639
▁башкы	-8.0324
ган	-8.03466
▁ушундай	-8.03783
▁жетекчиси	-8.03864
▁ала	-8.05195
А	-8.05226
е	-8.05394
деги	-8.05472
▁акыркы	-8.05593
▁ким	-8.05782
▁тергөө	-8.06066
▁улуттук	-8.06215
▁ашуун	-8.06309
▁өкүлү	-8.06394
си	-8.06397
▁өкүлдөрү	-8.065
▁жеке	-8.06729
гү	-8.06954
▁азыркы	-8.07338
▁дейт	-8.07724
▁так	-8.07797
▁министрлигинин	-8.07998
▁Баткен	-8.08182
▁к	-8.08204
▁тышкары	-8.08346
▁баштаган	-8.08402
▁Бишкекте	-8.08431
▁Ошондой	-8.08686
▁шаардык	-8.08702
▁берет	-8.08992
би	-8.09082
▁Президент	-8.09118
▁маалыматына	-8.09157
▁жылга	-8.09581
▁билим	-8.09673
▁кызмат	-8.09737
нан	-8.098
дардын	-8.10145
▁ашык	-8.10609
▁кайсы	-8.10698
▁АКШнын	-8.10859
су	-8.10884
▁күндүз	-8.11082
▁экени	-8.11164
▁анда	-8.11256
▁доллар	-8.11273
▁ошондой	-8.11493
▁өзүнүн	-8.11574
кө	-8.11891
▁уулу	-8.12319
▁белгиледи	-8.12888
▁түнкүсүн	-8.1298
▁бере	-8.12996
▁экинчи	-8.13171
▁карап	-8.13263
▁тыюу	-8.13383
▁чечим	-8.13505
▁Борбор	-8.14209
▁айтылган	-8.1427
;	-8.14606
о	-8.14742
▁президенттик	-8.14764
%	-8.14814
▁Мындай	-8.15343
майда	-8.15357
▁келди	-8.15679
Азаттык	-8.16131
ча	-8.1617
▁Жалал	-8.16377
▁иштеген	-8.16482
▁Кытай	-8.16719
▁быйыл	-8.1697
▁жазды	-8.17493
▁май	-8.17665
▁Анткени	-8.17858
тер	-8.18083
▁жатабыз	-8.18854
▁тең	-8.18988
▁Кыргызстанга	-8.19042
июнда	-8.19187
ь	-8.1943
К	-8.1963
▁учурунда	-8.1985
▁экономикалык	-8.19949
▁соода	-8.20155
ноябрда	-8.20362
ла	-8.20423
▁ай	-8.20567
▁ишин	-8.20634
мартта	-8.20905
▁айып	-8.21014
",-	-8.21281
кан	-8.2135
▁айыл	-8.21472
▁кетти	-8.21821
▁алууга	-8.2184
августта	-8.21869
▁Европа	-8.22091
▁Мамлекеттик	-8.22145
ту	-8.22382
▁2020-	-8.22599
▁жогорку	-8.22614
▁саат	-8.22667
1	-8.22742
▁иштери	-8.22886
▁ири	-8.22942
не	-8.23437
▁келе	-8.2349
▁жарандык	-8.23552
▁Азия	-8.237
▁1-	-8.23776
▁негизги	-8.24051
тен	-8.24352
▁премьер	-8.24443
ра	-8.25019
▁Ысык	-8.25045
▁Ошондуктан	-8.25083
▁алты	-8.25111
инде	-8.25136
▁облусунун	-8.25165
▁депутат	-8.25258
▁ок	-8.25353
үн	-8.25437
▁Башкы	-8.25475
▁тарап	-8.25745
▁койгон	-8.25921
▁алат	-8.25929
▁жай	-8.25944
▁басып	-8.26001
2	-8.26106
▁канча	-8.26388
ри	-8.26567
▁тышкы	-8.26633
▁Кара	-8.26659
▁облусунда	-8.26736
▁Владимир	-8.26979
▁убактылуу	-8.27097
▁1	-8.27474
декабрда	-8.27503
апрелде	-8.27839
▁мында	-8.28039
тун	-8.28159
▁Т	-8.28201
▁Украинага	-8.28227
сентябрда	-8.28365
▁согуш	-8.28423
▁зарыл	-8.28741
дон	-8.28778
▁алкагында	-8.28853
▁жазылган	-8.28989
▁кызматынын	-8.29022
лары	-8.29113
▁аларды	-8.29134
▁кийинки	-8.29251
ун	-8.29359
▁30	-8.29408
▁көңүл	-8.29482
ч	-8.29538
г	-8.29666
▁болгону	-8.29889
▁С	-8.29977
▁миңден	-8.3012
дер	-8.3052
▁катуу	-8.30603
▁аскер	-8.30906
биз	-8.30985
▁арыз	-8.31124
январда	-8.31215
Азаттыкка	-8.31646
▁маанилүү	-8.317
▁чейинки	-8.3171
▁элдик	-8.31716
▁электр	-8.31759
▁негизинде	-8.31836
▁Путин	-8.32004
▁жаш	-8.32888
▁Казакстан	-8.33106
▁катчысы	-8.33541
▁президенттин	-8.33591
▁алдын	-8.33725
▁ары	-8.33836
▁берилген	-8.34075
▁Кыргызстандагы	-8.34314
▁он	-8.34351
▁Казакстандын	-8.34774
чы	-8.34857
▁2021-	-8.34975
▁Эми	-8.35084
▁кезде	-8.35279
▁уруксат	-8.3533
▁башында	-8.35345
▁кызматкерлери	-8.35829
▁абдан	-8.36085
▁элдин	-8.36097
3	-8.36131
▁пайда	-8.36203
сыз	-8.36249
▁Орусияда	-8.36369
сына	-8.36421
ө	-8.36771
8	-8.36891
▁шайлоого	-8.37387
▁окуу	-8.37597
▁2022-	-8.37677
▁өттү	-8.37692
▁эске	-8.37705
ынын	-8.37801
▁Ар	-8.37854
ли	-8.3829
▁айтылат	-8.38293
▁абал	-8.38372
▁ээ	-8.38694
▁кабарлады	-8.38791
ба	-8.38813
▁сайын	-8.39093
бүз	-8.39177
▁Ушул	-8.39191
▁сотко	-8.39255
▁жайгашкан	-8.3952
▁У	-8.3952
▁адамдын	-8.39658
министр	-8.39737
▁салган	-8.39839
▁жарыялаган	-8.39995
▁барган	-8.40668
▁Аны	-8.40733
▁окуя	-8.40802
▁аба	-8.40827
▁кетип	-8.40897
ан	-8.40943
▁Учурда	-8.41169
▁алгачкы	-8.41381
▁шек	-8.41425
июлда	-8.41452
-19	-8.41638
▁камакка	-8.41639
▁күндө	-8.41874
▁млрд	-8.41974
дуу	-8.42028
▁100	-8.42248
▁баштады	-8.42339
тарды	-8.42458
я	-8.42466
ман	-8.42622
▁муну	-8.428
▁балдар	-8.42984
▁көрүп	-8.43073
▁түшкөн	-8.43269
догу	-8.43316
▁Ак	-8.43395
▁арада	-8.43463
Би	-8.43627
▁15	-8.43721
▁салып	-8.43745
ар	-8.43908
ев	-8.43969
▁нааразылык	-8.43998
▁жазган	-8.44005
▁тапта	-8.44009
▁депутаты	-8.44011
▁тиешелүү	-8.44018
▁соту	-8.44022
▁12	-8.44242
6	-8.44617
▁тарабынан	-8.44711
▁укугу	-8.44744
▁соң	-8.45194
▁өткөрүп	-8.45473
луу	-8.4553
ова	-8.457
▁аймагында	-8.4586
баев	-8.45914
дү	-8.46145
▁курал	-8.4625
▁салуу	-8.46258
▁миллиард	-8.46455
▁кармалган	-8.46509
гу	-8.46741
▁жашаган	-8.47009
▁белгисиз	-8.47104
▁жарым	-8.47155
тардын	-8.47391
ынан	-8.47556
▁лидери	-8.47756
▁нерсе	-8.47848
дик	-8.47933
▁азырынча	-8.47946
▁катышкан	-8.47954
▁жерге	-8.48035
▁кара	-8.48261
лер	-8.483
▁Чүй	-8.48517
▁Москва	-8.48619
▁колдоо	-8.48645
▁2	-8.48839
февралда	-8.48866
▁көбү	-8.48911
се	-8.49009
▁кирген	-8.49189
▁бүгүн	-8.49418
▁жети	-8.49425
▁кырдаал	-8.49621
▁Биринчи	-8.49831
▁жактан	-8.4991
▁чакырды	-8.50076
▁11	-8.50157
ым	-8.50219
дөй	-8.50295
▁Бишкектин	-8.50374
▁Б	-8.50425
▁жазып	-8.50445
▁кыз	-8.50733
▁жатып	-8.50993
▁жыйынында	-8.51411
▁түрдө	-8.51533
▁ичинен	-8.5174
▁комментарий	-8.52006
▁районунда	-8.52225
▁дүйнө	-8.52578
▁2019-	-8.52673
▁чыгарып	-8.52692
▁сунуш	-8.52963
▁Эгер	-8.53203
жылдан	-8.5329
▁былтыр	-8.53372
▁кызматкери	-8.53521
▁Украина	-8.53798
сынын	-8.53814
Көл	-8.53933
▁Тажикстандын	-8.54453
▁Ички	-8.54528
▁жылы	-8.54718
▁украин	-8.54861
▁3	-8.54949
▁кирип	-8.55143
▁Бишкектеги	-8.55186
▁Кытайдын	-8.55244
▁Орусияга	-8.55289
Ата	-8.55397
▁медициналык	-8.55547
▁жылдын	-8.56012
▁дээрлик	-8.56067
▁кызматтан	-8.56129
▁19	-8.56261
▁өнүктүрүү	-8.56339
▁билдирип	-8.56379
▁маселеси	-8.56411
▁коюлган	-8.56473
▁катталган	-8.56509
▁шарт	-8.5654
▁орусиялык	-8.56763
▁кошумчалады	-8.5677
!	-8.56782
▁кармап	-8.56797
▁тез	-8.56816
▁Министрлер	-8.57094
нө	-8.57095
▁даяр	-8.57323
▁жаза	-8.57342
▁шаарынын	-8.57864
х	-8.57871
дарды	-8.58105
▁Эки	-8.58223
С	-8.58419
▁Нарын	-8.58867
Т	-8.58894
▁ортосундагы	-8.58944
▁Биздин	-8.5908
ни	-8.59149
▁милиция	-8.59195
ж	-8.59224
йт	-8.59892
▁кылуу	-8.59939
▁а	-8.60123
ал	-8.60175
▁кошумча	-8.6025
▁чыгарган	-8.60291
▁каражат	-8.60614
ик	-8.61109
▁10-	-8.61122
▁кантип	-8.61331
ен	-8.6134
тагы	-8.61421
▁күндөрү	-8.61513
▁калат	-8.61637
буз	-8.6186
▁О	-8.62119
▁бирге	-8.62146
▁Мисалы	-8.62329
▁түзүлгөн	-8.62387
Азаттыктын	-8.62558
▁кар	-8.62609
ларын	-8.63772
▁кайрадан	-8.63775
▁районунун	-8.63992
ында	-8.64182
▁аял	-8.6422
▁Да	-8.64238
▁парламенттик	-8.64255
▁мүчөсү	-8.64453
▁болбойт	-8.64454
▁өкмөттүн	-8.64494
▁эмгек	-8.64637
▁ат	-8.64789
▁видео	-8.64795
▁диний	-8.64827
▁жакта	-8.64839
▁50	-8.65065
▁5	-8.65086
сиз	-8.6516
▁14	-8.652
ф	-8.65278
▁баарын	-8.65485
▁туруп	-8.65972
▁камсыз	-8.65984
▁белгилеп	-8.66029
▁жарыяланган	-8.66188
▁алтын	-8.66385
▁аттуу	-8.66394
▁жараны	-8.66429
▁No	-8.66764
▁баа	-8.66927
▁өкмөтү	-8.66932
▁Жаңы	-8.66998
▁COVID	-8.67048
▁жарыялады	-8.67087
▁Анан	-8.67124
▁Жээнбеков	-8.6728
сында	-8.6749
▁убакыт	-8.67582
▁өзүн	-8.67586
▁ыктымал	-8.67603
7	-8.67623
сү	-8.67791
▁долбоору	-8.67848
▁журналист	-8.67952
ларга	-8.67956
▁коюп	-8.68008
▁салык	-8.68117
▁себеп	-8.68242
▁сын	-8.68449
▁партиясынын	-8.68496
▁комиссия	-8.68577
▁максатында	-8.68784
00	-8.68839
▁карабай	-8.68887
▁айтканда	-8.69066
5	-8.69069
▁18	-8.69192
▁Ошондо	-8.69368
▁сокку	-8.69505
▁соттун	-8.69569
дук	-8.69587
ия	-8.69605
▁кылды	-8.69616
▁Кылмыш	-8.69652
▁сырткары	-8.69685
▁тажик	-8.6993
▁шаарындагы	-8.70041
▁башкаруу	-8.70052
арын	-8.70112
▁талапкер	-8.70126
лап	-8.70183
▁Нур	-8.70206
▁чечими	-8.70585
▁жаран	-8.70704
▁Ка	-8.70919
▁11-	-8.71041
▁16	-8.71105
▁полиция	-8.71122
▁абалы	-8.71134
▁9-	-8.71137
▁13	-8.71333
▁маалыматты	-8.7136
▁облустук	-8.71568
тик	-8.71944
▁салынган	-8.71992
▁Тышк	-8.72021
▁айынан	-8.72198
▁4-	-8.72214
▁Өзбекстандын	-8.72226
▁мамиле	-8.7224
▁аларга	-8.72438
▁калып	-8.72553
▁бийликтин	-8.72674
4	-8.72752
▁дүйнөлүк	-8.73127
▁2-	-8.73199
▁ортосунда	-8.73257
▁УКМК	-8.73355
сун	-8.7336
▁вирус	-8.73505
▁таасир	-8.73723
▁мамлекеттин	-8.73868
▁казак	-8.739
▁кишинин	-8.74043
▁адамдардын	-8.74144
▁5-	-8.74169
уу	-8.74378
▁бизге	-8.74399
▁жокко	-8.74483
▁Маалымат	-8.7481
▁аты	-8.74841
▁башчы	-8.7487
▁Украинадагы	-8.74911
▁директору	-8.74945
▁түшүп	-8.74978
▁7-	-8.75222
▁Өзбекстан	-8.75504
ки	-8.75569
▁убада	-8.75578
▁саясат	-8.75602
ша	-8.75611
▁жасаган	-8.75637
▁Себеби	-8.75824
▁таза	-8.75824
▁чыга	-8.75852
ил	-8.76054
▁бою	-8.76082
▁суроо	-8.7619
▁Баш	-8.76245
▁уюмдар	-8.76268
▁эс	-8.76279
▁өзүнө	-8.76286
нү	-8.7644
▁башталган	-8.76646
▁баштап	-8.76739
▁алганын	-8.76739
▁15-	-8.76912
▁бийликке	-8.77011
▁кодексинин	-8.77069
▁8-	-8.77096
▁ордуна	-8.7713
▁туш	-8.77163
▁учурлар	-8.77205
▁3-	-8.77402
▁Саламаттык	-8.77747
▁Сүрөттү	-8.77794
▁иликтөө	-8.77814
за	-8.77854
▁болорун	-8.77863
▁маалыматтар	-8.7789
▁кабар	-8.77922
▁20-	-8.78049
▁Борбордук	-8.78055
▁Быйыл	-8.78105
▁маалымдады	-8.78217
▁берүүгө	-8.7842
дөгү	-8.78501
▁койду	-8.78655
жылдары	-8.78673
▁өлкөдөгү	-8.78713
▁мүчө	-8.7883
▁согушка	-8.78877
үнө	-8.79025
▁6-	-8.79326
тү	-8.79454
▁17	-8.79455
▁аялдар	-8.79503
▁орто	-8.79509
овдун	-8.79579
9	-8.79638
▁боло	-8.79794
▁кызы	-8.80049
▁Чек	-8.80099
▁маалда	-8.80311
▁курулуш	-8.80523
им	-8.80608
▁жылда	-8.80636
▁активист	-8.80647
▁комитетинин	-8.80934
▁караган	-8.8097
▁тарта	-8.81204
▁мурун	-8.81336
▁миңдей	-8.81394
▁25-	-8.81396
▁4	-8.81665
▁кармалып	-8.81671
▁Казакстанда	-8.81744
▁калганын	-8.82069
▁дары	-8.82232
▁24-	-8.82285
▁уюму	-8.82446
▁өлкөгө	-8.82504
▁болбой	-8.82511
▁уюмунун	-8.82647
мак	-8.8266
▁Зеленский	-8.82961
▁18-	-8.83003
▁чарба	-8.83029
▁качан	-8.83184
▁жетти	-8.83213
▁Талас	-8.83218
▁жакка	-8.83236
ле	-8.83237
▁түз	-8.83432
▁кеңешинин	-8.83432
▁ак	-8.83677
▁шайлоодо	-8.83765
ет	-8.83829
▁банк	-8.8415
чи	-8.84192
то	-8.84247
▁маселени	-8.84284
▁долбоорун	-8.84325
▁200	-8.8435
▁ирет	-8.84374
▁кыйын	-8.84384
▁бөлүгү	-8.84773
▁партия	-8.84779
кы	-8.84929
▁сомго	-8.84955
▁жылдык	-8.85085
▁билдирүү	-8.8513
▁Ай	-8.85175
▁тартылган	-8.85269
▁албайт	-8.85341
▁айта	-8.85408
▁күрөш	-8.85703
▁жарандар	-8.85771
дары	-8.8579
▁кабинетинин	-8.85883
▁жараат	-8.85891
▁Байден	-8.85899
▁чогуу	-8.86281
▁жасап	-8.86436
▁Батыш	-8.86572
▁айтылып	-8.86609
▁борбору	-8.86615
▁Акылбек	-8.86632
▁отурган	-8.86788
▁мыкты	-8.86808
дүн	-8.86906
ай	-8.8692
лик	-8.87002
▁тарткан	-8.8701
▁саламаттык	-8.87134
дей	-8.87196
теги	-8.87277
▁жөн	-8.87289
▁жүк	-8.87452
▁17-	-8.875
▁керектигин	-8.87637
▁саясатчы	-8.87724
түү	-8.87853
жылдагы	-8.87991
▁көзөмөл	-8.88169
▁өтөт	-8.88266
бу	-8.88308
▁2023-	-8.88464
▁айда	-8.88495
куралдуу	-8.8868
▁сомдон	-8.88803
▁Иран	-8.88935
▁эсептейт	-8.8907
▁чабуул	-8.89106
Си	-8.89115
инен	-8.89129
▁жашап	-8.89176
i	-8.89375
▁Расмий	-8.89482
▁кескин	-8.89482
▁ишти	-8.89492
тык	-8.89655
▁кеп	-8.89692
▁алынып	-8.89702
▁ж	-8.89836
▁каттоо	-8.89987
че	-8.90294
▁аракети	-8.90374
▁40	-8.90384
▁Мунун	-8.90393
▁прокуратура	-8.90402
тажик	-8.90452
▁тонна	-8.90658
▁баасы	-8.90751
▁эркин	-8.90752
▁28-	-8.90757
▁туруктуу	-8.90821
▁кээ	-8.90843
▁белгиленген	-8.90887
▁билдиргендей	-8.90964
▁түзгөн	-8.90992
▁жан	-8.91069
▁тил	-8.91095
▁Азыркы	-8.91184
▁парламент	-8.91213
▁тараткан	-8.91343
▁сурак	-8.91399
▁куруу	-8.91504
▁жыйынтыгы	-8.91528
▁Түштүк	-8.91589
▁Ма	-8.91727
▁түрк	-8.91802
▁М	-8.91818
▁тамак	-8.91831
▁башкармалыгынын	-8.91834
жа	-8.92043
▁вице	-8.92138
ууда	-8.92177
тор	-8.92203
▁тапкан	-8.92207
▁алынды	-8.92343
▁Жо	-8.92386
▁турак	-8.92426
▁бара	-8.9243
▁Түркиянын	-8.92484
▁чыгаруу	-8.9251
▁Та	-8.92516
▁чукул	-8.92564
▁талаш	-8.92569
▁шаар	-8.92764
ре	-8.92904
▁чара	-8.93061
▁тобу	-8.93074
▁келишим	-8.93181
▁жылдары	-8.93262
▁30-	-8.93313
▁жогору	-8.9334
▁элге	-8.93424
▁кыл	-8.93565
▁23-	-8.93701
▁16-	-8.93897
в	-8.93918
▁12-	-8.93954
▁анан	-8.93971
▁Ташиев	-8.93974
▁чыр	-8.93999
▁таап	-8.94033
▁14-	-8.9414
▁андай	-8.94147
▁ооруканага	-8.94281
▁иштерин	-8.94376
▁сегиз	-8.94466
▁айтылды	-8.94498
▁темир	-8.94519
ц	-8.94549
өт	-8.94573
▁25	-8.94597
▁22-	-8.94795
▁Өкмөт	-8.94823
▁экс	-8.94854
▁Өткөн	-8.94942
▁тоо	-8.94969
▁Алмазбек	-8.95025
ип	-8.95293
▁макул	-8.95498
▁коркунуч	-8.95501
▁Акыркы	-8.95537
ак	-8.95625
▁ишине	-8.95708
тай	-8.95784
▁жүрөт	-8.95805
▁газ	-8.95816
тыр	-8.95836
▁жерден	-8.95872
▁Тажикстан	-8.95903
дыр	-8.95907
▁жаан	-8.95938
▁кан	-8.95939
▁агенттиги	-8.96169
▁борбор	-8.96276
a	-8.96375
▁19-	-8.96377
▁Жапаровдун	-8.96385
▁комитети	-8.96532
▁укуктары	-8.96567
▁арасындагы	-8.96585
▁мүмкүнчүлүк	-8.96744
▁БУУнун	-8.96815
▁кем	-8.96821
▁маалыматка	-8.96882
▁көргөн	-8.96902
▁Дүйнөлүк	-8.96909
тары	-8.9702
март	-8.97196
▁калыбына	-8.97256
▁документ	-8.97371
▁Сооронба	-8.97373
▁миграция	-8.97493
▁сотто	-8.97823
ю	-8.97856
▁атындагы	-8.979
▁маалыматтарды	-8.97935
▁турганы	-8.98057
▁6	-8.98105
/	-8.98198
▁кайрылып	-8.9822
▁органдары	-8.9839
▁Са	-8.98415
▁кайтып	-8.98442
▁2018-	-8.98479
▁Былтыр	-8.98537
▁27-	-8.98614
▁ондогон	-8.98672
уна	-8.98718
унун	-8.98728
▁Соңку	-8.98791
▁тартуу	-8.98795
▁мага	-8.98795
▁жагынан	-8.98819
УКМК	-8.98819
▁кабарланды	-8.98913
e	-8.98944
▁дал	-8.98975
▁аткаруу	-8.98978
▁өлкөлөр	-8.99053
▁Түркия	-8.99184
▁азык	-8.99199
▁тараптуу	-8.99221
беков	-8.9934
▁козголгон	-8.99551
▁аныкталган	-8.99613
ло	-8.99658
риккен	-8.99665
▁соттук	-8.99674
▁Муну	-8.99692
оо	-8.99787
▁көрсөтүп	-8.99869
▁компаниясы	-8.9996
▁жүргүзүп	-8.99988
▁кармалды	-9.00002
▁зыян	-9.00086
▁көпчүлүк	-9.00223
▁чектөө	-9.00275
▁басым	-9.00307
аш	-9.00471
▁берүүнү	-9.0065
лы	-9.00693
▁менин	-9.00849
▁Трамп	-9.00857
▁уюм	-9.01035
▁Израил	-9.01049
▁жагдай	-9.01197
▁бийликти	-9.01199
▁жалгыз	-9.01218
▁киргизилген	-9.01264
дарга	-9.01275
▁("	-9.01293
▁Камчыбек	-9.01367
▁аскерлери	-9.01517
▁түзүү	-9.0154
▁кайрылган	-9.01564
▁жакындары	-9.01609
лөр	-9.01617
▁сынга	-9.0177
▁тогуз	-9.0181
ор	-9.01811
▁күнгө	-9.02015
▁операция	-9.02104
▁өнөр	-9.02178
уп	-9.02184
▁күчтөрү	-9.02204
▁мыйзамга	-9.02226
▁жатканда	-9.02229
▁түзүп	-9.02312
тарга	-9.02459
▁тиешеси	-9.0255
Б	-9.02571
▁дегенде	-9.02596
▁Коопсуздук	-9.02672
▁аябай	-9.02672
▁башынан	-9.02696
▁кайрылуу	-9.02858
s	-9.02954
▁депутаттар	-9.02971
▁салды	-9.03123
▁адамга	-9.03164
▁армиясы	-9.03245
▁алганы	-9.03335
▁кат	-9.03341
▁жасалган	-9.03375
ро	-9.03398
▁Айрым	-9.03588
он	-9.03628
▁өлкөлөрдүн	-9.0366
▁дароо	-9.03667
▁миңдеген	-9.03695
лук	-9.03738
▁тынчтык	-9.03797
▁с	-9.03927
▁тургуну	-9.04369
▁Бүгүн	-9.04442
И	-9.04502
▁13-	-9.04653
ль	-9.04683
▁ден	-9.05066
▁каралган	-9.05086
▁21-	-9.05144
▁жашоо	-9.05181
o	-9.05184
син	-9.05239
▁Кийин	-9.05415
жылга	-9.05444
▁күндөн	-9.055
▁министринин	-9.05513
▁шектүү	-9.05642
▁мүчөлөрү	-9.05669
▁29-	-9.0573
▁билдирүүдө	-9.05825
▁жаштар	-9.06028
▁парламенттин	-9.06046
терди	-9.06383
ыбыз	-9.0642
▁түрдүү	-9.06432
▁жакында	-9.06482
▁Албетте	-9.06582
▁8	-9.06613
деп	-9.0668
0	-9.06716
▁илим	-9.06816
▁белгилеген	-9.06838
▁берилди	-9.06841
▁көрсөткөн	-9.06858
▁кеткенин	-9.06899
ол	-9.06929
▁бейтап	-9.06955
▁караштуу	-9.0698
ер	-9.06993
▁кошо	-9.07018
▁УКМКнын	-9.07091
▁катышып	-9.07151
▁медиа	-9.072
▁24	-9.07202
▁Коронавирус	-9.07224
▁болууда	-9.07273
▁менчик	-9.07362
▁олуттуу	-9.07374
▁көрсөтүлгөн	-9.0738
кыр	-9.07464
▁сактап	-9.07543
▁киргизүү	-9.07678
")	-9.0774
▁каражаттары	-9.07859
▁шайлоонун	-9.07864
▁калса	-9.07936
▁өзгөртүү	-9.08131
па	-9.08224
▁партиясы	-9.08256
▁жеңил	-9.08393
▁көптөгөн	-9.08399
▁Өзгөчө	-9.08411
▁26-	-9.08492
▁телефон	-9.0856
▁облусундагы	-9.08594
▁маселесин	-9.08637
▁долбоор	-9.08677
▁мөөнөтү	-9.0869
▁бажы	-9.08721
▁окуп	-9.0887
▁толугу	-9.08925
Суу	-9.09145
▁айлык	-9.09232
▁үчүнчү	-9.09491
▁7	-9.09492
▁чечимин	-9.09499
▁Атамбаев	-9.09519
▁айтууда	-9.09523
▁катышты	-9.09755
▁өткөрүү	-9.09945
тө	-9.09952
▁айылында	-9.10026
▁түнү	-9.10047
▁көрсөтүү	-9.10127
▁коргоочу	-9.10163
?"	-9.10209
▁маалыматы	-9.10267
▁Орус	-9.10383
▁илимий	-9.10394
дор	-9.104
▁жалпысынан	-9.10416
▁тараптан	-9.10496
▁спорт	-9.1051
▁компания	-9.106
▁Сот	-9.10662
▁аптада	-9.10718
▁жумуш	-9.10736
▁жарандары	-9.10807
▁окуялар	-9.10928
▁чыгуу	-9.10996
▁маалыматта	-9.11005
▁Түндүк	-9.11156
▁2017-	-9.11377
▁кармоо	-9.11382
▁балдардын	-9.11446
▁көбүрөөк	-9.11459
бүлө	-9.11481
▁Кеңеш	-9.11503
алиев	-9.11539
ме	-9.11539
▁кош	-9.11564
▁аймактарда	-9.11583
▁оюн	-9.11583
▁бойдон	-9.11599
▁миңге	-9.11605
▁өлкөдөн	-9.11619
▁22	-9.11965
▁алдынча	-9.12065
▁аргасыз	-9.12142
▁мектеп	-9.12158
▁оору	-9.12196
ыр	-9.12316
▁мамлекетке	-9.12392
▁маегинде	-9.12409
▁өтпөй	-9.12549
▁пикирин	-9.1255
▁сапары	-9.12937
▁үстүнө	-9.13093
▁америкалык	-9.13101
▁алыш	-9.13117
ва	-9.13494
▁таянып	-9.13508
▁учак	-9.13519
суз	-9.1357
▁60	-9.13741
▁канчалык	-9.13758
▁адамды	-9.13964
▁коронавирусту	-9.13996
▁себеби	-9.14077
▁табылган	-9.14149
▁айга	-9.14171
▁милдетин	-9.14174
▁кылат	-9.1425
▁Орусиядагы	-9.1432
▁Аталган	-9.14351
▁500	-9.14415
▁учур	-9.14518
ры	-9.14561
деди	-9.1457
ары	-9.14659
кен	-9.14668
анын	-9.14727
▁Коргоо	-9.14752
▁камсыздоо	-9.14777
▁өмүрүн	-9.14909
y	-9.15168
из	-9.15234
дыгы	-9.15257
▁бай	-9.15261
лоо	-9.15477
▁болгондуктан	-9.15616
май	-9.15718
▁жеткен	-9.1582
▁кызматка	-9.15859
▁кабылган	-9.15871
тып	-9.15892
▁баракчасына	-9.1591
▁келгенин	-9.15948
▁нааразы	-9.1598
▁өзбек	-9.16122
▁Ж	-9.16169
▁чакырган	-9.16195
▁сөөгү	-9.16227
ру	-9.16259
▁мени	-9.16267
мо	-9.16356
▁гектар	-9.16442
▁эркине	-9.16526
▁маалында	-9.16538
▁тийиш	-9.16884
▁тоолуу	-9.17038
▁негизде	-9.17059
ап	-9.17262
▁адамдарды	-9.17291
▁Эгерде	-9.17291
▁коргонуу	-9.17324
ңыз	-9.17332
▁бөгөт	-9.17339
▁айдан	-9.17358
▁атып	-9.17368
▁насыя	-9.17535
▁берилет	-9.17556
▁бирөө	-9.17743
түлүк	-9.17949
▁качып	-9.18028
О	-9.18087
▁укугун	-9.18101
▁кетет	-9.18163
▁кабарланган	-9.18173
▁облустары	-9.18174
▁2010-	-9.18202
▁деңгээлде	-9.18249
▁И	-9.18322
▁түзөт	-9.18429
шы	-9.18431
сө	-9.18509
▁ыр	-9.1873
▁көтөрүп	-9.18741
▁аягына	-9.18926
▁Ха	-9.19014
▁Мыйзам	-9.19079
▁партиянын	-9.19243
▁Улуу	-9.19311
▁Улуттар	-9.19512
▁жараша	-9.19576
▁кырдаалдар	-9.19586
▁автоунаа	-9.19589
▁бүгүнкү	-9.197
▁Э	-9.19706
М	-9.19738
▁онлайн	-9.19761
▁болбосо	-9.19762
жан	-9.19778
ку	-9.19853
▁жыйынтык	-9.19986
▁коррупцияга	-9.20218
ис	-9.20225
▁2016-	-9.20232
▁эсе	-9.20303
Кыргыз	-9.20337
▁Жа	-9.20371
▁Кошмо	-9.2066
▁бүт	-9.20694
▁вакцина	-9.20696
▁башталды	-9.20802
▁ишкер	-9.20811
▁колдоп	-9.20821
▁маселелер	-9.20825
тердин	-9.20867
▁жүз	-9.20954
▁журналисттер	-9.20995
▁парламентте	-9.21011
▁Республикасынын	-9.21028
▁өзүнчө	-9.21138
▁мигранттар	-9.21155
▁тынч	-9.21201
▁текшерүү	-9.21231
▁кыйла	-9.21248
▁төрагасынын	-9.21306
▁абалда	-9.21311
▁келгенде	-9.21464
мен	-9.21511
У	-9.21684
▁убагында	-9.21693
▁эскертти	-9.21695
▁Ата	-9.21729
▁эсеп	-9.21766
t	-9.21771
▁токтотуу	-9.21778
ит	-9.21785
▁чыгат	-9.21802
Талибан	-9.22036
▁кандайдыр	-9.22116
▁тийиштүү	-9.22152
баган	-9.22221
▁өлкөлүк	-9.22277
▁экономика	-9.22383
байт	-9.22575
▁компаниясынын	-9.22669
▁жөнгө	-9.22711
▁мунай	-9.22733
▁аймактык	-9.2277
▁Мурдагы	-9.22817
со	-9.22826
үү	-9.22894
▁негиз	-9.22946
▁кадам	-9.23255
▁Мына	-9.23265
▁кооптуу	-9.23348
алы	-9.23425
▁са	-9.23468
▁камакта	-9.23516
▁метр	-9.23529
▁ой	-9.23637
▁колдонуу	-9.23677
жаза	-9.237
мин	-9.23718
▁колдогон	-9.23725
▁бербей	-9.23766
▁Ирандын	-9.23818
▁экөө	-9.23982
ий	-9.24011
иялык	-9.24012
▁кымбат	-9.24295
▁Менин	-9.24308
▁калышы	-9.24417
▁аныкталды	-9.24417
▁өрт	-9.24489
▁убакта	-9.24559
▁адистер	-9.24616
▁9	-9.24657
▁таандык	-9.24878
▁гуманитардык	-9.24927
▁жума	-9.24959
өө	-9.25044
▁өздөрү	-9.25109
▁дин	-9.25235
▁коррупция	-9.25252
▁Киев	-9.25301
лан	-9.25309
бү	-9.25327
▁21	-9.25424
▁болмок	-9.25443
▁туулган	-9.25662
▁ыкчам	-9.2567
▁аймактарында	-9.25731
Э	-9.25746
▁жараткан	-9.25841
▁аймагына	-9.25888
дыктан	-9.25903
▁жумушчу	-9.25962
▁көмүр	-9.26086
ышы	-9.26098
▁Ба	-9.26117
▁террордук	-9.26177
▁укуктук	-9.2625
▁атасы	-9.26288
▁беренеси	-9.26289
▁Орусиядан	-9.2633
▁маалым	-9.26373
▁иштей	-9.26422
▁Александр	-9.26443
▁мыйзамды	-9.26468
▁Ошентип	-9.26592
▁кылмыштуу	-9.26603
▁аймакта	-9.2671
▁каранды	-9.26738
дөр	-9.26765
▁коңшу	-9.26789
▁Тилек	-9.26797
▁жаман	-9.26797
▁өмүрү	-9.26892
▁эртең	-9.26929
▁таң	-9.27029
▁кеңири	-9.27122
▁төлөп	-9.27275
▁тарыхый	-9.27454
▁чакырып	-9.27735
▁Бизде	-9.27762
▁жетекчилиги	-9.27775
▁На	-9.27867
▁бузуу	-9.27891
▁багытталган	-9.28074
шат	-9.28077
▁айрымдары	-9.28096
Кыргызстан	-9.28108
▁кабарлаган	-9.28148
▁көлөмү	-9.28251
▁март	-9.28274
▁бериши	-9.28297
▁атат	-9.2848
▁элди	-9.28542
▁үгүт	-9.28655
▁кызматына	-9.28726
▁Мамлекет	-9.28774
лор	-9.28865
Манас	-9.28901
▁жарандардын	-9.29035
▁калганы	-9.29062
▁таасирин	-9.29086
▁жасалма	-9.29096
▁айынын	-9.29116
▁жыйында	-9.29121
▁Бийлик	-9.29175
▁кетүүгө	-9.29223
▁чыгарды	-9.29278
министри	-9.293
лат	-9.2933
▁тармактарда	-9.2934
▁Израилдин	-9.29432
▁күтүп	-9.29463
▁облусу	-9.29466
▁бөлүмүнүн	-9.29482
▁б	-9.29501
▁300	-9.29516
▁укуктарын	-9.29688
▁жатканына	-9.29716
лай	-9.29739
▁жетекчилери	-9.2983
▁администрациясы	-9.2984
▁кишиге	-9.29883
▁изилдөө	-9.299
▁пул	-9.29977
▁коюу	-9.30209
▁жабык	-9.30272
▁күчтүү	-9.3028
▁Д	-9.3032
▁70	-9.30431
▁жүргүзгөн	-9.30566
▁шартта	-9.30575
▁деңиз	-9.30608
премьер	-9.30642
▁алышкан	-9.30687
▁чакан	-9.30779
▁сурап	-9.30836
▁тапты	-9.30879
▁мамлекеттер	-9.31134
▁карандысыз	-9.31284
▁долларга	-9.31364
▁кармалганын	-9.31411
▁каралып	-9.31431
▁сотунун	-9.31472
тарын	-9.315
tion	-9.31511
ир	-9.31671
▁мыйзамдын	-9.31738
20	-9.31742
▁отуруп	-9.31754
▁териштирүү	-9.31868
▁бизнес	-9.31889
▁кетүү	-9.3194
▁2015-	-9.31995
▁31-	-9.32051
▁өмүр	-9.32068
▁техникалык	-9.32076
Таш	-9.32122
лаган	-9.3214
▁Британия	-9.32144
▁бизде	-9.32151
▁көрүнүш	-9.32229
▁кездеги	-9.32233
ланган	-9.3226
▁негизинен	-9.32264
▁бараткан	-9.32267
▁республикалык	-9.32308
▁кала	-9.32321
▁жетиштүү	-9.32417
▁Жергиликтүү	-9.32439
▁Ала	-9.32488
▁борборунун	-9.32542
▁Г	-9.3255
▁Мурда	-9.32578
▁Атайы	-9.32579
▁Москвада	-9.32645
▁Путинди	-9.32656
ибиз	-9.32802
▁талкуу	-9.32821
▁алганда	-9.32898
▁мал	-9.32912
▁салыштырмалуу	-9.32915
▁сел	-9.33051
▁абакта	-9.33061
тук	-9.33092
▁иштейт	-9.33106
▁аткаруучу	-9.33119
▁байланыш	-9.33154
▁Иш	-9.3321
▁пандемия	-9.33239
▁күбө	-9.33258
▁жалган	-9.3337
▁жүзүндө	-9.33404
▁футбол	-9.33509
гөн	-9.33513
ков	-9.33521
▁Президенттин	-9.33567
▁жапырт	-9.33589
▁кете	-9.33686
▁Газа	-9.33988
▁максаты	-9.34053
▁билдирүүсүндө	-9.34134
▁артка	-9.34165
сүнө	-9.342
▁ыйгарым	-9.34266
▁кишини	-9.34278
▁комитеттин	-9.34302
▁Кемпир	-9.34334
зи	-9.34593
рин	-9.34648
▁ошону	-9.34656
▁медицина	-9.34667
бе	-9.34674
Р	-9.34715
▁өлкөлөрү	-9.3475
▁топтун	-9.34774
▁дарыгерлер	-9.34782
рт	-9.34814
▁Алматы	-9.34853
по	-9.34904
Ак	-9.34908
▁Демек	-9.34948
▁ооган	-9.3496
▁айтышты	-9.35004
▁аныктоо	-9.35011
▁кен	-9.3512
▁жаап	-9.35164
▁23	-9.35201
▁кырдаалды	-9.35241
дүү	-9.35469
▁кыска	-9.35676
▁80	-9.35706
түн	-9.35761
▁оң	-9.35928
Д	-9.35958
▁Укук	-9.36006
суна	-9.36056
▁санкция	-9.36234
▁уланып	-9.36333
▁айыптап	-9.36343
▁пикир	-9.36401
▁маданият	-9.36479
A	-9.36498
▁Бүгүнкү	-9.36672
баева	-9.36677
▁Көп	-9.36678
Тоо	-9.36785
▁27	-9.36786
▁уюмдун	-9.36836
▁Кеңеште	-9.36887
ум	-9.36949
▁дем	-9.36971
▁кайтарып	-9.37024
▁кеңеш	-9.37034
▁Токаев	-9.37064
▁курган	-9.37327
▁алгач	-9.37337
▁Украинада	-9.37399
▁келтирүү	-9.37622
ыш	-9.37656
▁тургундары	-9.37786
▁райондорунда	-9.37898
▁Акаев	-9.37968
▁де	-9.37971
▁көрө	-9.37973
▁алууну	-9.37973
▁Адам	-9.38162
▁билдиришти	-9.38243
▁активисттер	-9.38283
▁карай	-9.38457
Кумтөр	-9.38555
▁фонду	-9.38559
сүн	-9.38652
ян	-9.38711
жи	-9.38726
▁карабастан	-9.38781
▁катталды	-9.38955
лүү	-9.39073
▁карантин	-9.39121
▁арналган	-9.3913
▁жарыяланды	-9.39131
▁Си	-9.39137
▁тургундар	-9.39224
үп	-9.3923
▁сүйлөшүү	-9.39438
▁ачылган	-9.39513
▁Ку	-9.39594
▁байланышы	-9.39708
Г	-9.3978
бүлөлүк	-9.39854
▁Депутат	-9.39932
▁багытта	-9.39954
▁келсе	-9.4005
мын	-9.40052
ви	-9.40102
▁т	-9.40177
▁эгер	-9.40188
▁каржы	-9.40197
▁Сергей	-9.40203
▁алыс	-9.40216
▁дайындалган	-9.40235
▁баласы	-9.40238
▁иштерди	-9.40274
▁коом	-9.40324
▁акын	-9.4033
▁Болот	-9.40594
▁таштап	-9.40599
r	-9.40658
▁35	-9.4071
▁ракета	-9.40766
абыт	-9.40804
▁саясатчылар	-9.40837
▁кишилер	-9.40972
▁университетинин	-9.41134
▁Мекеменин	-9.4114
▁келишет	-9.41295
▁Конституциялык	-9.41524
▁алдына	-9.41526
▁күрөшүү	-9.4163
чылар	-9.41659
▁калк	-9.41672
▁прокурор	-9.4169
p	-9.41832
▁Му	-9.41844
▁өнүгүү	-9.41852
дап	-9.41885
ык	-9.41967
▁электрондук	-9.42039
▁байланышкан	-9.42081
▁министр	-9.42151
▁Image	-9.42191
▁элчиси	-9.42198
▁cap	-9.42204
▁26	-9.42212
▁узак	-9.42332
▁чыгарылган	-9.42365
бо	-9.4241
▁Ушундай	-9.42434
от	-9.42441
төр	-9.42455
▁комитет	-9.42471
▁берсе	-9.42488
▁ойлойм	-9.42572
хан	-9.42579
▁киргизген	-9.42583
▁апта	-9.42588
▁мыйзамдуу	-9.42672
▁колго	-9.42714
▁28	-9.42739
▁эмнеге	-9.42744
▁ээси	-9.42854
▁эски	-9.42919
▁катаал	-9.42972
▁чыгышты	-9.42988
▁сапар	-9.43082
▁булагы	-9.43137
▁көрүүгө	-9.43189
▁Май	-9.43249
▁2014-	-9.4334
▁Эң	-9.43373
▁кызматкерлер	-9.43393
▁саясаты	-9.43402
▁калкы	-9.4347
▁Жер	-9.43484
▁саналат	-9.43508
▁маани	-9.43519
ул	-9.43559
▁Вашингтон	-9.4367
▁жоопкерчилик	-9.43671
▁Милиция	-9.43684
▁жаракат	-9.43688
▁Тоолуу	-9.4369
▁го	-9.43732
▁камагына	-9.4387
▁пайдалануу	-9.44138
▁калаа	-9.44145
▁Үй	-9.4418
▁кызматташтык	-9.44256
▁издеп	-9.44281
▁кызматтын	-9.44382
▁шаары	-9.44398
▁башкармалыгы	-9.44424
▁кетиши	-9.44434
▁Беларус	-9.44474
▁градус	-9.4462
ткан	-9.44748
▁биринде	-9.4475
▁үйүнө	-9.44755
▁Касым	-9.44771
▁өзөктүк	-9.44821
▁барат	-9.44853
▁Москванын	-9.44989
▁колдонуп	-9.45004
▁илдет	-9.45034
рып	-9.45142
▁таасири	-9.4516
мө	-9.45192
ок	-9.45282
▁бериш	-9.45351
▁доо	-9.45365
▁аягында	-9.45403
▁Экинчи	-9.45413
▁жатам	-9.45415
▁жыйын	-9.45434
▁уюмдардын	-9.45449
▁жүргүзүү	-9.45467
▁Украин	-9.45511
▁тобунун	-9.45683
▁бөлүп	-9.45758
иш	-9.45929
▁Алексей	-9.45946
▁Же	-9.45993
▁башкача	-9.46011
▁коррупциялык	-9.46076
▁Тергөө	-9.46079
▁байге	-9.46116
▁келаткан	-9.46271
ларына	-9.46295
▁коомчулукта	-9.46308
▁Өзбекстанда	-9.46443
үүдө	-9.46492
ция	-9.465
!"	-9.46511
▁бардыгы	-9.46524
▁болгондордун	-9.46532
▁автордук	-9.46538
▁маданий	-9.46596
▁комиссиясынын	-9.46624
▁милдеттүү	-9.46716
▁коргоочулар	-9.46722
▁сүйлөп	-9.46751
▁ишкерлер	-9.46769
),	-9.46919
▁кызматкер	-9.46937
▁келтирген	-9.46937
▁өлкөлөрдө	-9.46998
▁маалымдаган	-9.47062
▁зомбулук	-9.47087
▁даярдык	-9.47142
баш	-9.47168
▁көрсөткүч	-9.47183
▁жашта	-9.47183
▁Олимпиада	-9.47187
пай	-9.47254
дердин	-9.47266
▁табылды	-9.47293
▁камалган	-9.47322
▁ачып	-9.47345
▁кечинде	-9.47348
▁уюштурган	-9.47386
П	-9.47402
изм	-9.47421
уш	-9.47505
▁статистика	-9.4752
▁Түркияда	-9.47682
▁министрлигине	-9.47683
▁Бай	-9.47705
▁арадагы	-9.47776
▁баса	-9.47785
▁Атамбаевдин	-9.47821
мат	-9.47897
▁S	-9.47925
чө	-9.47946
▁партиялар	-9.47999
▁Ө	-9.48016
▁Кар	-9.48105
▁терс	-9.48107
э	-9.48143
▁Бо	-9.4815
▁келиши	-9.48202
▁лидерлери	-9.4827
тери	-9.48273
лу	-9.48307
▁жүйө	-9.48324
▁алабыз	-9.48376
▁коопсуздугун	-9.48396
▁кыла	-9.48432
баса	-9.48445
▁ооруканада	-9.48539
▁билет	-9.48655
ый	-9.48664
▁командасы	-9.48751
▁жабыркаган	-9.48771
▁күнөөлүү	-9.48941
индеги	-9.48947
▁АКШда	-9.4896
▁кезекте	-9.49012
▁издөө	-9.49014
▁эркиндиги	-9.49032
▁Уюмунун	-9.49068
▁Ошону	-9.49202
▁сүйлөшүп	-9.49244
▁учуп	-9.49263
ыл	-9.49285
▁сүйлөшүүлөр	-9.49409
▁Жан	-9.49424
төн	-9.49426
▁көпчүлүгү	-9.49439
▁өлүмү	-9.49516
▁коомчулук	-9.49583
▁долларды	-9.4963
▁кагып	-9.49636
▁Билим	-9.49687
▁адвокаты	-9.49694
▁Кыргызстандан	-9.49704
▁башталгандан	-9.4974
▁Өмүрбек	-9.49759
▁болгондор	-9.49862
▁сөзсүз	-9.49902
▁китеп	-9.50098
▁күчтөрүнүн	-9.50113
▁жигит	-9.50127
▁эксперттер	-9.50279
▁терең	-9.50319
президент	-9.50349
▁түштү	-9.5042
▁алдындагы	-9.50435
▁эрте	-9.50439
▁Ра	-9.5045
▁товар	-9.50497
▁кандуу	-9.50527
▁уюштуруу	-9.50579
▁келбейт	-9.50595
▁Шайлоо	-9.50617
▁шаарына	-9.50625
▁инвестиция	-9.50632
▁аймагындагы	-9.50674
▁начар	-9.50695
▁дүйнөдө	-9.50747
▁аялдардын	-9.50994
▁кезек	-9.50996
▁таш	-9.51015
▁чакырым	-9.51025
▁жетектеген	-9.51033
▁каршылык	-9.51038
▁жарык	-9.51215
▁айылынын	-9.51219
▁Дональд	-9.51231
▁Маселен	-9.51266
ала	-9.51318
▁акчаны	-9.5135
▁кеткени	-9.51381
▁жашка	-9.51408
▁мамлекеттердин	-9.51408
▁басылмасы	-9.51467
▁жашы	-9.51623
административдик	-9.51634
▁кире	-9.51657
▁транспорт	-9.51711
▁Башка	-9.51852
ларынын	-9.51856
▁жарыялап	-9.51894
лердин	-9.5202
▁эне	-9.52038
▁катталып	-9.52044
▁коммерция	-9.52241
▁мүмкүнчүлүгү	-9.52259
▁түштүк	-9.52292
▁айтат	-9.52416
▁болобу	-9.52434
▁Евразия	-9.52477
кул	-9.52638
Ж	-9.52824
▁келбей	-9.52894
▁Па	-9.52919
▁комиссиясы	-9.52948
лүк	-9.5298
▁муктаж	-9.53017
▁укуктуу	-9.5304
▁келатат	-9.53056
▁окшойт	-9.53056
c	-9.53059
▁өкмөтүнүн	-9.53192
▁вирусту	-9.53261
▁сабак	-9.53389
▁Матраимов	-9.53393
▁Азиядагы	-9.53478
▁жете	-9.53612
ам	-9.53631
▁унаа	-9.53659
▁Ми	-9.53711
▁БШК	-9.53722
▁акы	-9.53788
тон	-9.53811
ст	-9.53819
▁калктын	-9.53895
▁комиссиянын	-9.53897
▁Айыл	-9.53911
▁билген	-9.53916
▁ишеним	-9.53937
▁окуган	-9.5395
▁салууга	-9.54057
тап	-9.54066
▁өлүм	-9.54116
▁үйдө	-9.54275
▁аскерлер	-9.54287
▁абагында	-9.54293
▁саналып	-9.54301
▁ашты	-9.54352
▁алгандар	-9.54372
▁улуу	-9.54385
▁сиз	-9.54443
▁дүйнөдөгү	-9.54575
▁энергетика	-9.54613
▁коомдун	-9.54628
n	-9.54655
кулов	-9.54685
▁аймактагы	-9.54702
▁жайга	-9.54754
▁кароо	-9.54805
сынан	-9.54833
▁Германия	-9.54869
▁талкууга	-9.54892
▁адамдан	-9.54979
▁берилип	-9.54986
▁күйөөсү	-9.55051
▁Корея	-9.55061
T	-9.55092
ск	-9.55131
▁айыпталып	-9.55135
▁тараптын	-9.55205
▁бийлигинин	-9.55239
▁шайланган	-9.55335
▁күчөп	-9.55349
жы	-9.55478
алдык	-9.55666
▁Москвага	-9.55687
▁Ким	-9.55744
▁өткөргөн	-9.55775
▁Эрдоган	-9.55844
▁пара	-9.5585
▁балдарды	-9.5585
▁мекеме	-9.55906
▁маалыматтарга	-9.55921
бул	-9.55934
ес	-9.55935
▁өсүп	-9.55964
дери	-9.55965
▁кылууга	-9.55968
▁өкүм	-9.56015
▁НАТО	-9.56132
▁Азырынча	-9.56175
унда	-9.56176
▁Га	-9.56203
▁реформа	-9.5628
▁Дүйнө	-9.56296
▁сунуштаган	-9.56359
▁делген	-9.5639
▁мурунку	-9.56447
В	-9.56463
▁тараган	-9.5648
стан	-9.56484
▁арасынан	-9.56499
▁чыгууга	-9.5651
▁оңой	-9.56607
▁коё	-9.56676
▁туугандары	-9.56774
▁жүздөгөн	-9.56826
▁айтышкан	-9.5689
▁органдарынын	-9.56895
▁Бишкекке	-9.56936
▁32	-9.56937
▁алышат	-9.57007
Биз	-9.57016
▁аң	-9.57129
▁атаган	-9.57199
C	-9.57214
▁анча	-9.57253
▁мына	-9.57281
▁депутаттык	-9.57289
▁Жол	-9.57334
▁баарына	-9.57361
▁маселелерди	-9.57391
▁болбосун	-9.57452
▁чыгышкан	-9.57527
▁аткан	-9.57556
▁кирет	-9.57637
▁Су	-9.57717
▁болжол	-9.57849
▁үн	-9.57887
▁жетпей	-9.57941
▁интернет	-9.58008
▁жугузуп	-9.58095
▁ачуу	-9.58136
▁Азербайжан	-9.58149
▁чыкпай	-9.5817
▁дүйнөнүн	-9.58201
▁За	-9.5821
▁ачыкка	-9.58232
▁Эмне	-9.58236
▁Эр	-9.5824
▁мезгилде	-9.58311
▁министрлик	-9.58359
▁90	-9.58365
▁туруу	-9.58376
▁система	-9.58381
▁араны	-9.58401
▁Мо	-9.58427
▁системасы	-9.58465
чыл	-9.58472
Н	-9.58507
▁журналисттерге	-9.5855
▁мырза	-9.58569
▁дипломатиялык	-9.58572
▁бизди	-9.58583
▁атап	-9.58612
▁Британиянын	-9.58663
ева	-9.58668
▁эсебинде	-9.58753
▁кыймыл	-9.58755
▁сындап	-9.58765
▁жарандарды	-9.58817
▁Ислам	-9.58871
▁бирдиктүү	-9.5896
▁кысым	-9.58979
беренеси	-9.59026
тир	-9.59081
ындагы	-9.59165
▁сый	-9.59221
▁команда	-9.5927
но	-9.59333
▁36	-9.59393
▁саналган	-9.59471
▁кайрылды	-9.59492
лешкен	-9.59577
үндө	-9.59579
▁үмүт	-9.59586
▁ырастады	-9.59636
▁кыргыздар	-9.59654
ларда	-9.59732
▁кылууда	-9.59745
▁тасма	-9.59762
▁сайтында	-9.59774
▁33	-9.59789
▁Үч	-9.59791
▁киреше	-9.59836
▁2024-	-9.59864
чылык	-9.59885
▁беле	-9.59937
▁Де	-9.59942
▁анализ	-9.59955
▁демократиялык	-9.59987
▁калуу	-9.60032
▁Окуя	-9.60054
▁Социалдык	-9.60062
▁жетип	-9.60101
▁кеңеши	-9.60114
▁катышуу	-9.6015
30	-9.60175
▁күчтөр	-9.60185
▁жери	-9.60288
▁айланып	-9.60292
ой	-9.60305
▁ш	-9.60383
▁Али	-9.60437
▁Ошто	-9.60443
▁Кызыл	-9.60597
үч	-9.60682
▁жиберген	-9.60787
▁алышты	-9.60823
▁түрү	-9.60861
▁ХАМАС	-9.60888
▁алышы	-9.61143
▁Жыл	-9.61145
лерди	-9.61165
▁отурат	-9.61216
▁далил	-9.6123
▁Ко	-9.61261
▁бийлигин	-9.61267
▁жанында	-9.61294
▁абалды	-9.61368
▁алса	-9.61377
чачын	-9.61393
▁Сиз	-9.61398
үнүн	-9.61415
лери	-9.6142
▁ооруп	-9.61439
кара	-9.61489
▁митинг	-9.61654
Жо	-9.6166
▁активдүү	-9.61699
эл	-9.61711
▁буйрук	-9.6172
▁Чыгыш	-9.61729
▁Кумтөр	-9.61752
▁эскерткен	-9.61825
▁тартты	-9.61873
u	-9.6188
▁массалык	-9.61889
дерди	-9.61906
сак	-9.61954
лардан	-9.62048
▁ишканасынын	-9.62084
▁беришкен	-9.62107
ха	-9.62127
▁сүйлөшүүлөрдү	-9.62151
▁беришти	-9.62163
▁чогулган	-9.62177
▁учурдагы	-9.62183
▁миллиондон	-9.62227
▁Армения	-9.62255
▁жумду	-9.62277
▁тууган	-9.62312
▁чечимди	-9.62323
▁жайкы	-9.62401
▁оппозиция	-9.62421
дой	-9.62436
▁үйдүн	-9.62495
▁анткени	-9.62495
▁мөөнөтүн	-9.62495
▁түндүк	-9.62528
▁Бала	-9.62577
келиндер	-9.62593
▁мекенине	-9.62742
▁жара	-9.62774
▁радиосуна	-9.6286
ич	-9.62882
▁жардамы	-9.62894
▁ту	-9.62909
▁чын	-9.6291
d	-9.62915
▁турду	-9.62924
▁алынганын	-9.62943
▁маалыматында	-9.62973
▁жолку	-9.63052
▁Чыңгыз	-9.63172
▁Октябрь	-9.63197
▁кезектеги	-9.6325
▁келүү	-9.63255
▁өлкөлөргө	-9.63359
▁көзү	-9.63365
▁150	-9.63424
▁токтоп	-9.63428
▁борбордук	-9.63432
▁Аскар	-9.63475
доо	-9.63495
▁адамдарга	-9.63498
ушу	-9.63508
▁Кой	-9.63531
▁каалаган	-9.63601
▁чыныгы	-9.63627
▁Райымбек	-9.63643
▁мыйзамдар	-9.63725
▁мажбур	-9.63854
▁көзөмөлдөө	-9.63862
лаш	-9.63975
▁жерди	-9.63976
▁мэри	-9.64101
▁Москвадагы	-9.64158
I	-9.64191
▁ИИМ	-9.64232
▁бийик	-9.64299
▁карапайым	-9.64321
▁арзан	-9.64334
▁Ооганстандын	-9.64384
өгө	-9.64417
▁окуяларды	-9.6445
b	-9.64477
▁долбоорунун	-9.64562
▁коло	-9.64563
▁дегенди	-9.64567
▁алдыга	-9.6466
▁келишкен	-9.64722
рак	-9.64752
▁400	-9.64753
рган	-9.6477
▁жолугуп	-9.64775
▁тарбия	-9.64905
▁мамлекети	-9.64932
▁ташуучу	-9.64996
▁курч	-9.65039
▁керектүү	-9.65151
▁сатуу	-9.65189
▁аяктаган	-9.65358
▁компаниялар	-9.65368
▁өкмөттүк	-9.65397
▁кайда	-9.65473
▁кино	-9.65481
▁такыр	-9.65529
▁тажрыйба	-9.65631
жарак	-9.65696
▁мунун	-9.6571
ңар	-9.65741
▁жыйынтыгын	-9.6577
▁бергенин	-9.65775
▁келин	-9.65775
▁дайыма	-9.65802
▁аймакты	-9.659
▁колу	-9.65901
▁санитардык	-9.65929
▁уланууда	-9.65933
фи	-9.65948
▁маалымдоо	-9.65956
▁мигранттардын	-9.6597
▁стратегиялык	-9.65984
▁майда	-9.66
▁келбеген	-9.66014
▁тапшырган	-9.66117
▁көбөйүп	-9.66162
▁айтылууда	-9.66216
▁күчүнө	-9.66289
▁дарыгер	-9.66293
▁жыйынтыгында	-9.66295
▁эксперт	-9.66329
▁кой	-9.66396
▁таратып	-9.66401
ем	-9.66407
▁Бакыт	-9.66449
▁Германиянын	-9.66465
▁келишимге	-9.66485
▁Жума	-9.6663
▁журналисттердин	-9.66648
▁жашыруун	-9.66674
▁Жалпы	-9.66705
▁десе	-9.66708
▁В	-9.66743
▁салым	-9.66776
▁акция	-9.66783
▁иштерине	-9.66797
▁кармаган	-9.66935
лөрдү	-9.66993
▁Азиз	-9.6705
▁Голд	-9.67063
▁баштайт	-9.67154
▁албайбыз	-9.67237
башы	-9.67284
▁34	-9.67327
▁радиосунун	-9.67395
рат	-9.67428
ңиз	-9.6744
▁Ооганстандагы	-9.67515
тур	-9.67525
▁бирдей	-9.6757
инг	-9.67577
▁болгондо	-9.67597
ши	-9.67599
▁калдык	-9.67607
▁температурасы	-9.67635
▁кыймылынын	-9.6764
▁депутаттары	-9.67642
▁маал	-9.67655
▁сырттан	-9.67673
бей	-9.67701
▁эмеспи	-9.67709
▁кырсык	-9.67856
▁45	-9.67923
гер	-9.67995
ста	-9.68241
▁судья	-9.68277
▁токтотуп	-9.68289
▁ур	-9.68299
кер	-9.68318
▁куруп	-9.68359
▁колуна	-9.68369
▁та	-9.68412
ос	-9.68459
▁апасы	-9.68463
▁валюта	-9.68523
▁коопсуз	-9.68524
▁программа	-9.68545
▁чыкканын	-9.68558
▁көрсөттү	-9.68563
▁өлүмүнө	-9.68636
▁президентке	-9.68738
▁милициянын	-9.68855
▁жердеги	-9.68898
▁куугунтук	-9.68956
▁соңунда	-9.69
Ба	-9.69038
▁адис	-9.69048
▁курман	-9.69069
ек	-9.69076
▁угуп	-9.69092
▁чаралар	-9.69113
▁карыз	-9.69141
шкан	-9.69147
▁үйүндө	-9.69159
▁суткада	-9.69164
▁маселелери	-9.69183
▁сыртка	-9.69235
▁окуяга	-9.6931
▁Евробиримдик	-9.69403
▁көйгөй	-9.69431
▁коркунучу	-9.69495
▁фракциясы	-9.69537
▁чечүү	-9.69577
▁бута	-9.6958
▁П	-9.69601
▁Казакстанга	-9.69677
▁кызматынан	-9.6979
▁аракетин	-9.69837
▁пайызга	-9.69839
▁жатса	-9.69936
ур	-9.69954
▁Кал	-9.69969
▁29	-9.69999
▁Жарандык	-9.70034
▁органдар	-9.70121
▁тараптар	-9.70252
▁жарадар	-9.70262
тоо	-9.70296
▁Марат	-9.70313
▁беребиз	-9.70337
сүз	-9.7049
▁баланын	-9.70508
ус	-9.70534
▁талабы	-9.70561
▁болууга	-9.70665
же	-9.70681
▁Өлкө	-9.70688
▁чараларды	-9.70691
▁тарых	-9.70698
ого	-9.70699
▁табы	-9.70724
▁барды	-9.70868
август	-9.70887
еминде	-9.70899
▁жубайы	-9.70943
▁жеткирүү	-9.71118
▁Түрк	-9.71124
▁токтолду	-9.71215
▁салууну	-9.71275
▁июнь	-9.71328
кана	-9.71337
,5	-9.71356
▁Со	-9.71433
▁окуяны	-9.71449
▁эмдөө	-9.71518
▁Бээжин	-9.71522
▁тактоо	-9.71618
▁аппарат	-9.71648
▁шаардын	-9.7165
▁жүрүшүндө	-9.71719
▁атынан	-9.71724
▁армиясынын	-9.71733
▁зордук	-9.71737
октябрдагы	-9.7176
аны	-9.7179
▁балдары	-9.71862
▁түзүлүп	-9.71934
▁башаламандык	-9.71953
▁топтор	-9.71996
▁талибдер	-9.72037
▁чыгышы	-9.72043
▁Маданият	-9.72202
▁өлкөнү	-9.72245
▁жооптуу	-9.72264
▁байкоо	-9.72305
▁калдым	-9.72357
▁тандоо	-9.72394
пи	-9.72452
▁түшүндүрмө	-9.7248
ей	-9.72588
▁көркөм	-9.7267
▁татаал	-9.72752
▁тилинде	-9.72763
▁Америка	-9.72841
сине	-9.72875
▁Өлкөдө	-9.72966
▁Көк	-9.72971
▁тизмесине	-9.73139
▁виза	-9.7315
▁Ли	-9.73177
▁айыптаган	-9.73189
▁кошуна	-9.73227
▁буларды	-9.7324
▁сүрөт	-9.73276
▁болуш	-9.73384
g	-9.7342
▁Сауд	-9.73427
түз	-9.73433
▁башчылары	-9.73438
▁Бу	-9.73446
▁Аларды	-9.73484
▁иште	-9.73562
▁кырдаалга	-9.73587
▁согушта	-9.73622
▁Негизи	-9.7367
▁максат	-9.73683
▁колдонууга	-9.7371
▁элем	-9.73721
экономикалык	-9.73727
лин	-9.73764
▁1,5	-9.73793
▁Мекен	-9.73842
▁эскертүү	-9.73854
▁саясатын	-9.73886
▁кел	-9.73889
▁мекеменин	-9.7392
▁кыймылы	-9.73925
▁куб	-9.73979
▁кабарлагандай	-9.73989
▁ишканасы	-9.74015
▁бергени	-9.74049
▁ката	-9.74068
руу	-9.74119
▁тарапташтары	-9.74175
ми	-9.74176
▁Жазык	-9.74178
▁арызын	-9.74212
ут	-9.74265
▁жаатында	-9.74288
▁курама	-9.74303
▁иштин	-9.74338
дейт	-9.74338
▁ташып	-9.74387
тип	-9.74453
19	-9.74559
▁өндүрүш	-9.74622
▁0	-9.74684
▁өңдүү	-9.74684
▁мерт	-9.74695
▁балдарга	-9.74705
▁тушунда	-9.74729
даган	-9.74848
▁коронавирустан	-9.74929
ӊ	-9.74931
ZKo	-9.74937
▁көтөрүлүп	-9.74938
Ма	-9.75031
▁илимдер	-9.7506
▁артында	-9.7508
▁жылына	-9.75111
▁ашыруу	-9.75237
▁атады	-9.75265
▁сураган	-9.7532
▁сөзү	-9.7538
үй	-9.75465
ээ	-9.75484
кар	-9.75575
▁кал	-9.75576
ович	-9.75604
▁төмөн	-9.75604
▁алдыңкы	-9.7573
▁бак	-9.75775
▁калыс	-9.75787
▁жолго	-9.75801
▁банктын	-9.75831
▁иштен	-9.7586
▁соттолгон	-9.75879
▁коюлду	-9.75977
▁түшүндүрдү	-9.75989
▁кылмышка	-9.76
рма	-9.76033
▁аялы	-9.76078
Бир	-9.76176
▁Р	-9.76253
▁Хан	-9.76254
▁ф	-9.76366
▁түшүндүрүү	-9.76387
▁Жакында	-9.76433
▁аралыгында	-9.76489
▁ачкан	-9.76523
▁До	-9.76589
▁кытайлык	-9.76635
во	-9.7669
▁Улан	-9.76703
▁жеринен	-9.76707
▁чогулуп	-9.76742
▁Ан	-9.76758
күл	-9.76769
▁Чоң	-9.76769
▁тармагында	-9.76773
S	-9.76778
▁согушту	-9.7678
Ф	-9.76811
▁37	-9.76922
▁бийлигине	-9.76942
▁салмакта	-9.76981
▁Өз	-9.77003
▁Жалпысынан	-9.77004
▁болуу	-9.77009
ага	-9.77023
▁кыздын	-9.77091
▁44	-9.7712
▁чечимине	-9.77189
▁кабарчысы	-9.77263
▁Я	-9.77312
▁кылышкан	-9.77349
ас	-9.77494
▁кытай	-9.77513
▁көбөйдү	-9.77524
сындагы	-9.7755
▁аткарып	-9.77575
▁күнүнө	-9.77598
рек	-9.77641
бүлөсү	-9.77646
▁экспертиза	-9.77686
▁өзүм	-9.77688
▁машине	-9.77692
▁күчү	-9.77709
гысы	-9.77738
▁беткап	-9.77776
▁келгени	-9.77793
▁кур	-9.77811
▁оппозициялык	-9.77903
▁кеч	-9.77911
ыбызды	-9.77926
▁штаб	-9.77971
▁суунун	-9.78008
▁абадан	-9.78008
▁жайы	-9.78033
▁эгемендик	-9.78033
▁Руслан	-9.78042
чулар	-9.78064
▁жүрүшү	-9.7807
▁Индия	-9.78097
▁кызуу	-9.78132
▁көрүү	-9.78179
ндө	-9.78192
▁Андай	-9.78211
▁Жапония	-9.78292
▁берки	-9.78317
▁жасады	-9.78367
▁Гүл	-9.78426
▁бөлүнгөн	-9.78463
▁жарандарга	-9.785
▁кызматын	-9.7852
▁көздөп	-9.78569
▁конституциялык	-9.786
▁прокуратурасы	-9.78664
▁жашайт	-9.78673
▁түздү	-9.78719
▁Франция	-9.78732
▁бөлүгүн	-9.78736
раак	-9.7874
▁өтүү	-9.78811
▁айланган	-9.78856
▁Кытайга	-9.78904
уучу	-9.78908
жылкы	-9.78928
▁чыгыш	-9.78958
▁план	-9.78964
▁агенттигинин	-9.78966
ууга	-9.78968
чара	-9.79034
▁ишкана	-9.79049
оз	-9.79118
▁кошуп	-9.79122
▁энергиясын	-9.7913
▁Мирзиёев	-9.7916
▁кылышты	-9.79161
▁ашып	-9.79229
▁чалгын	-9.79246
▁базар	-9.79421
▁коомчулуктун	-9.79456
▁окуясы	-9.79468
▁жолугушуу	-9.79479
▁кетсе	-9.79481
▁атын	-9.7952
▁Экономика	-9.79543
▁ырайы	-9.79552
▁э	-9.79611
▁жөнөкөй	-9.79631
▁абагына	-9.79634
▁Андыктан	-9.79642
▁жаса	-9.79774
m	-9.79844
▁текшерип	-9.79905
▁Кан	-9.79986
▁Жеңиш	-9.80033
▁органдарына	-9.80057
▁Ат	-9.80164
▁ээлеп	-9.80182
▁Те	-9.80236
▁алынат	-9.80248
▁шаарда	-9.80317
▁облустарында	-9.80363
ом	-9.80381
терин	-9.80432
▁сайтына	-9.80466
▁Ла	-9.80472
▁деңгээли	-9.80533
▁жетекчи	-9.80548
▁жылуу	-9.80549
▁улут	-9.80591
▁радиосу	-9.8066
▁кам	-9.8069
▁жолун	-9.80696
▁басымдуу	-9.80732
k	-9.80755
▁мектепте	-9.80767
ылган	-9.80801
ци	-9.80806
▁Айбек	-9.80871
▁эли	-9.80902
▁жерлерде	-9.80936
▁башта	-9.80949
▁дешет	-9.8098
▁нерсени	-9.80996
дерге	-9.80999
▁сөздөр	-9.81001
▁турабыз	-9.81025
▁чектөөлөр	-9.81026
▁токтотууга	-9.81037
▁кеңештин	-9.81041
▁кармаш	-9.81162
ышкан	-9.81218
▁Кытайдан	-9.81225
▁токтом	-9.81322
▁пайызы	-9.81365
▁демилгеси	-9.81394
▁кг	-9.81396
▁тилин	-9.81456
жай	-9.81478
▁сунуштады	-9.81493
▁Токтогул	-9.81608
▁аракеттери	-9.81695
▁кетишкен	-9.81714
бар	-9.81738
▁мисал	-9.81742
▁таануу	-9.81744
▁Ч	-9.81836
▁белгилейт	-9.81845
▁жумада	-9.81871
▁тургун	-9.81909
▁38	-9.82016
▁ишмер	-9.82079
▁жаратып	-9.82089
▁пайдаланып	-9.82093
▁Тажикстанда	-9.82094
▁Трамптын	-9.82127
▁кирди	-9.82137
▁жал	-9.82143
▁катарында	-9.82195
▁Текебаев	-9.82212
10	-9.82237
▁апрель	-9.82269
▁жумушка	-9.82277
▁алгандан	-9.82331
аз	-9.82428
беренесинин	-9.82517
▁C	-9.82518
▁ошондо	-9.82532
▁моюн	-9.826
▁жарандыгын	-9.82638
▁кабылып	-9.82645
▁сөзүнө	-9.82755
▁администрация	-9.82776
▁талапкерлер	-9.82783
▁жазуучу	-9.82803
▁бет	-9.82811
▁каражатты	-9.82872
▁айыптады	-9.82888
▁окшош	-9.82888
▁31	-9.82889
▁аймак	-9.83001
▁мугалим	-9.83025
▁жакынкы	-9.83063
бир	-9.83108
дарын	-9.83126
▁албетте	-9.83164
▁бейөкмөт	-9.83165
▁Ара	-9.83255
▁дрон	-9.83294
ышты	-9.83295
үнөн	-9.83325
▁системасын	-9.83361
▁көрсөтмө	-9.83432
▁мойнуна	-9.83474
▁берерин	-9.83478
кс	-9.83505
Ал	-9.83506
▁жолдо	-9.8351
▁сутка	-9.83535
▁кызматкерлерине	-9.8357
Сай	-9.83682
▁юридикалык	-9.83728
▁сунушу	-9.83732
терге	-9.83755
▁48	-9.8387
▁ислам	-9.83919
▁өкмөткө	-9.83931
▁президентинин	-9.83955
▁сурады	-9.83965
▁тур	-9.83967
▁жар	-9.83985
▁тик	-9.84008
▁Өкмөттүн	-9.84019
▁жокпу	-9.84114
▁быйылкы	-9.84116
▁F	-9.84146
▁өткөрүүгө	-9.8418
▁шаарларында	-9.84225
▁өтүнүчү	-9.84239
▁Баткенде	-9.84283
▁мөөнөткө	-9.84297
▁Телеграм	-9.84344
▁кийим	-9.84379
Ислам	-9.84389
▁тар	-9.84451
▁Эч	-9.84451
▁көмөк	-9.84521
▁тагдыры	-9.84521
▁алууда	-9.84545
▁генерал	-9.84557
евдин	-9.84616
▁Шер	-9.84658
бирине	-9.84672
l	-9.84774
эки	-9.84791
E	-9.84891
▁өлкөлөрүнүн	-9.84928
▁багыт	-9.84964
▁Навальный	-9.85097
▁мектепке	-9.85107
▁Чолпон	-9.85108
▁башына	-9.85109
▁бузуп	-9.8512
▁иштелип	-9.85125
ация	-9.85186
▁700	-9.85236
▁БУУ	-9.85327
▁башкарган	-9.85367
үүгө	-9.85368
гыла	-9.85381
▁чыккандар	-9.85409
▁лидер	-9.85428
▁бербейт	-9.85431
▁мамилеси	-9.85451
▁парламентке	-9.85451
▁эркек	-9.85484
▁A	-9.855
▁Иранда	-9.85618
▁десек	-9.85651
▁өтүшү	-9.85662
▁Бакиев	-9.85672
▁айланды	-9.85691
▁утуп	-9.85692
▁өздөрүнүн	-9.85776
▁тийген	-9.85777
▁Кол	-9.85799
▁Анкара	-9.85811
бөй	-9.85831
▁экендигин	-9.85863
▁октябрь	-9.8587
үшү	-9.85908
▁чакыруу	-9.85952
▁албаган	-9.85962
▁көчүп	-9.85972
▁Өзбекстанга	-9.86014
▁кесип	-9.86025
▁айылындагы	-9.86026
▁сура	-9.86042
▁ашкан	-9.86059
▁мезгил	-9.86083
▁тест	-9.86089
▁абалга	-9.86104
▁шайлоону	-9.86232
Бүтүн	-9.86235
▁Лейлек	-9.86254
▁башталып	-9.86293
▁прокуратуранын	-9.8639
▁көтөргөн	-9.86427
▁бакча	-9.8648
шев	-9.86545
унан	-9.86571
▁эмесмин	-9.86593
▁айым	-9.86651
▁Менимче	-9.86826
▁бөлүнүп	-9.86828
▁таратты	-9.86839
▁каккан	-9.86876
▁башталат	-9.86884
▁Эмгек	-9.86899
▁берүүдө	-9.86924
▁театр	-9.87092
чет	-9.87098
▁катарына	-9.87114
▁Жакынкы	-9.87116
▁келтирилген	-9.87139
▁республика	-9.87261
▁жолугушууда	-9.87265
▁советтик	-9.87319
▁жатты	-9.87327
▁Сапар	-9.87413
▁таанылган	-9.87415
▁сан	-9.87432
▁эсебинен	-9.87485
▁ч	-9.87547
▁аралаш	-9.87555
▁турганда	-9.87557
▁күмүш	-9.87691
▁Азамат	-9.87698
лет	-9.87708
▁Жээнбековдун	-9.87721
▁адабият	-9.87724
▁T	-9.8773
▁мигрант	-9.87756
▁кылабыз	-9.87776
▁койсо	-9.87789
▁элчилиги	-9.87859
▁Лукашенко	-9.87947
▁жарлык	-9.88011
▁Беларустун	-9.8802
▁көздөй	-9.88057
▁долбоорду	-9.88096
▁сүйлөгөн	-9.88102
▁компаниянын	-9.88122
▁калганда	-9.88144
эпидемиологиялык	-9.88165
▁акыл	-9.88187
▁паспорт	-9.88208
▁күмөн	-9.88263
▁кереги	-9.88273
▁Ту	-9.88278
▁турушат	-9.88296
▁Ша	-9.88329
Мен	-9.88365
▁ишинин	-9.88464
ноябр	-9.88548
▁жетет	-9.88556
▁Балким	-9.88564
▁акчасын	-9.88652
▁коргоп	-9.88654
▁өткөрдү	-9.8867
":	-9.88758
▁аракеттер	-9.88767
▁тармагындагы	-9.88791
▁Дмитрий	-9.88855
рам	-9.88892
▁бош	-9.889
▁Навальныйды	-9.8891
▁экономиканы	-9.89036
▁мугалимдер	-9.89079
▁курулушу	-9.89124
▁жыйыны	-9.8913
▁Эркин	-9.89146
▁коомчулукка	-9.8921
▁тактап	-9.89231
▁себептен	-9.89239
▁мандат	-9.89349
▁туткун	-9.89357
▁Кээ	-9.89415
▁B	-9.89421
ымды	-9.89431
▁ич	-9.89435
▁Акыйкатчы	-9.89445
убуз	-9.89536
Эркин	-9.89587
▁той	-9.89603
үр	-9.89611
▁каржылык	-9.89618
▁жеңип	-9.89742
▁жумган	-9.89751
▁тартууга	-9.89759
▁Ленин	-9.89773
▁кайрылуусунда	-9.89774
▁чектеш	-9.89807
▁кезинде	-9.89812
▁эсепте	-9.89846
▁пост	-9.89879
▁убакытта	-9.89983
мун	-9.89994
▁белгиленди	-9.90034
▁мөөнөтүнө	-9.90039
▁үйгө	-9.9005
▁агенттигине	-9.90104
▁Кремлди	-9.90152
сен	-9.90158
▁ашыкча	-9.90208
сың	-9.9023
▁жайында	-9.90234
▁Курманбек	-9.90235
▁Бизге	-9.90247
жыл	-9.90267
▁жылуулук	-9.90301
▁орунда	-9.90355
▁Н	-9.90355
▁жагдайлар	-9.90359
▁аман	-9.90426
▁фондунун	-9.90458
▁бу	-9.90466
энелер	-9.90605
▁кошкон	-9.90617
▁райондордо	-9.9063
▁натыйжасында	-9.90661
▁Интернет	-9.90711
▁таба	-9.90735
in	-9.90745
▁пандемиясы	-9.90774
▁жыйынга	-9.9079
▁орган	-9.908
▁барбы	-9.90806
▁кагаз	-9.90819
▁депутаттардын	-9.90884
▁уюштуруп	-9.9093
▁көк	-9.90951
kg	-9.90962
▁тура	-9.9097
▁Азербайжандын	-9.91092
▁шайлоодон	-9.91122
▁75	-9.91129
Бул	-9.91133
▁Мекеме	-9.91173
▁абактан	-9.91311
▁Экинчиден	-9.91326
▁Дастан	-9.91327
дүк	-9.91344
▁спортчу	-9.9137
▁жаңжал	-9.91406
▁м	-9.91463
овду	-9.91491
лса	-9.9151
кур	-9.91603
▁күндүк	-9.91625
▁студенттер	-9.91656
ров	-9.91703
▁сөзүн	-9.91725
▁Исаков	-9.91759
▁инфраструктура	-9.91827
▁ичиндеги	-9.91876
▁Мадумаров	-9.91996
▁адвокат	-9.91997
▁санын	-9.92084
▁Өлкөнү	-9.92113
▁элинин	-9.92124
руп	-9.92165
▁алмашуу	-9.92179
▁демилге	-9.92196
▁эреже	-9.92196
▁орду	-9.92214
саясий	-9.92287
▁ИИМдин	-9.92295
▁берене	-9.92319
рды	-9.92321
▁сындаган	-9.9233
төрү	-9.92353
▁Салык	-9.9237
▁айрыкча	-9.92433
▁бузган	-9.92439
▁Россия	-9.92443
▁тартип	-9.92443
▁Ор	-9.92445
▁каттоодон	-9.92476
▁кызматкерлерини	-9.92476
тал	-9.925
▁жу	-9.92503
яр	-9.92511
▁баратат	-9.92537
▁мо	-9.9255
▁бирине	-9.92643
▁референдум	-9.9271
▁жолдор	-9.92733
▁репрессия	-9.92737
▁киргизип	-9.92739
▁2012-	-9.92776
▁Республика	-9.92871
▁тили	-9.9301
▁сакта	-9.93039
чылыгы	-9.93042
▁жатпайбы	-9.93046
▁айдын	-9.93097
▁айлана	-9.93112
▁катта	-9.93124
▁колдонгон	-9.93208
▁бей	-9.93258
▁учуру	-9.93307
▁бекем	-9.93313
▁мыйзамдарды	-9.93412
хо	-9.93418
▁Казак	-9.93446
▁абакка	-9.93487
▁арызы	-9.93534
▁батир	-9.93548
▁Тур	-9.93569
▁жолду	-9.93603
▁полициясы	-9.93628
▁жуктуруп	-9.93656
▁тосуп	-9.93658
▁дайынсыз	-9.93665
▁партиялардын	-9.93679
ланып	-9.9375
▁Баары	-9.93767
▁коюшкан	-9.93793
▁арадан	-9.93802
▁маек	-9.93804
▁инфекция	-9.93808
▁лицензия	-9.93822
▁айыпталган	-9.93824
▁блогер	-9.93863
▁Ооганстанда	-9.93882
▁Тай	-9.9389
▁чыкса	-9.93954
апрелге	-9.93978
▁турмуш	-9.94038
▁жоктугун	-9.94048
▁институту	-9.94071
зар	-9.94137
алиева	-9.9421
▁Жаза	-9.94218
▁чыкканы	-9.94218
▁күндүн	-9.94263
▁төмөнкү	-9.9427
ошого	-9.94324
▁ойлоп	-9.94354
▁январь	-9.94399
▁коопсуздугу	-9.94401
▁килограмм	-9.94406
▁БШКны	-9.94421
M	-9.94436
▁ушуну	-9.94448
▁сотунда	-9.94469
▁коомдо	-9.94471
▁тегерегинде	-9.94487
▁коргоого	-9.94506
ar	-9.94524
▁документтерди	-9.94528
er	-9.94552
▁сыр	-9.94561
▁кырдаалда	-9.94562
▁билип	-9.94598
▁кеткенде	-9.94619
▁тарапка	-9.94631
▁чыкканда	-9.94732
▁көтөрүлгөн	-9.94744
▁Кубанычбек	-9.94761
▁айына	-9.94779
▁Мар	-9.94788
ганы	-9.94795
▁дене	-9.94855
үм	-9.94858
▁кепилдик	-9.94891
▁Финансы	-9.94991
▁Кудай	-9.95032
түр	-9.95036
▁тоскоолдук	-9.95066
▁ташыган	-9.95122
▁жүрдү	-9.95127
лө	-9.95183
▁козголуп	-9.95203
▁уюшкан	-9.95206
▁келерин	-9.95233
кка	-9.95237
▁Бардык	-9.95247
тиги	-9.95352
▁эт	-9.95363
▁айтуу	-9.95377
▁тек	-9.95429
▁бошотулган	-9.95462
▁баалуу	-9.95479
▁айтышууда	-9.95526
▁сал	-9.95535
декабр	-9.95535
▁түздөн	-9.95647
▁кое	-9.95704
тыгы	-9.9572
▁билдиришкен	-9.95814
▁Херсон	-9.95828
▁Киевге	-9.9583
▁Нью	-9.9583
ше	-9.95844
▁Евробиримдиктин	-9.95884
▁чаралары	-9.95911
▁ба	-9.9593
▁бийликтен	-9.95988
▁медал	-9.9602
▁Таш	-9.96095
▁жөнүндөгү	-9.96195
▁жүргөнүн	-9.96206
▁Дал	-9.96243
▁жаатта	-9.96277
▁кошулган	-9.96319
Са	-9.96323
▁кесепети	-9.96367
ел	-9.96401
▁колунда	-9.96434
▁биринин	-9.96438
▁буйругу	-9.96458
▁мобилизация	-9.96458
▁евро	-9.96458
▁көбүнчө	-9.96462
▁Бажы	-9.96472
▁коюшту	-9.96484
▁Армениянын	-9.96523
шу	-9.96523
июн	-9.96581
▁Аба	-9.96627
Султан	-9.96642
▁Бейшеналиев	-9.9665
▁кичи	-9.96674
▁жаайт	-9.96788
▁иликтеп	-9.96818
олог	-9.96872
энеси	-9.96975
▁тагылган	-9.97093
▁Аларга	-9.97136
▁Чет	-9.97162
an	-9.97183
Ч	-9.97224
▁кыздар	-9.97234
▁өткөндө	-9.9725
гүл	-9.97264
▁айт	-9.97306
▁аймакка	-9.97367
▁экенине	-9.97444
сунда	-9.97448
макчы	-9.97508
▁суроолор	-9.97539
▁өрөөнүндө	-9.97549
▁жабылган	-9.97579
▁жаралган	-9.97648
▁Беларуста	-9.97649
▁түшүндүрмөсү	-9.97658
тей	-9.97672
P	-9.97681
▁кадыр	-9.97707
▁сумма	-9.97844
▁ресурстары	-9.97895
▁Коррупция	-9.97901
▁кабинети	-9.9794
өзбек	-9.97957
▁55	-9.97967
▁кызматташтыкты	-9.98036
▁заманбап	-9.9805
▁эсептелет	-9.98056
вер	-9.9807
▁бошотуу	-9.98083
▁чыгарууга	-9.9816
▁форма	-9.98216
хи	-9.98216
▁митингге	-9.98275
▁көздөгөн	-9.98287
▁себебин	-9.98326
лыгы	-9.98348
▁ийгиликтүү	-9.98392
▁ордун	-9.98398
▁Ю	-9.98423
▁экологиялык	-9.9847
▁Президенттик	-9.9848
▁билбей	-9.9849
өзү	-9.98491
▁Экономикалык	-9.985
▁P	-9.98501
▁кайтаруу	-9.98571
али	-9.98575
лип	-9.98619
▁Кай	-9.98622
▁чегинде	-9.98644
▁Кыз	-9.98711
▁шилтеме	-9.98715
▁киргизилди	-9.98717
▁былтыркы	-9.98757
▁тизмесин	-9.98872
▁башкалар	-9.98996
▁жарандарын	-9.99005
▁үйү	-9.99013
▁милицияга	-9.99023
▁Пандемия	-9.99035
▁белгилери	-9.99039
▁камтылган	-9.9904
▁пайыз	-9.99057
▁курулган	-9.99111
▁Кытайда	-9.99149
▁ичи	-9.99209
▁башкарып	-9.99218
▁колдонулган	-9.99301
▁өткөрмө	-9.99304
▁Равшан	-9.99343
▁ачылды	-9.99346
▁Натыйжада	-9.9936
▁машина	-9.99387
Кара	-9.99421
▁тапшырды	-9.99424
▁мүлктү	-9.99443
▁баланы	-9.99498
өл	-9.99519
▁дайым	-9.99524
▁Назарбаев	-9.99647
▁чыгар	-9.99661
▁согуштун	-9.99675
▁жетектеп	-9.99683
▁какты	-9.99712
▁алдык	-9.99715
▁Фейсбуктагы	-9.9975
▁пикирлер	-9.9976
▁пикирде	-9.99765
▁Бол	-9.99785
▁жатышканын	-9.99795
▁казакстандык	-9.998
▁Балдар	-9.99829
▁эр	-9.99874
▁болору	-9.99902
Эл	-9.9998
Тез	-9.99982
▁негизсиз	-10.0003
▁көчөдө	-10.0005
▁албайм	-10.0009
жайын	-10.0013
кин	-10.002
▁бат	-10.0027
ид	-10.003
▁жоюу	-10.0035
▁Кандай	-10.0039
▁эркектер	-10.0042
▁кызматташуу	-10.0043
▁аймагы	-10.0044
▁эсеби	-10.0048
ңуз	-10.0048
▁41	-10.0049
ткен	-10.005
▁Азиянын	-10.006
▁баштаганын	-10.0066
▁жүрө	-10.0071
▁кир	-10.008
▁жайларда	-10.0083
▁Ин	-10.0091
▁окуядан	-10.0099
▁төрөлгөн	-10.01
▁ма	-10.0102
▁билдирет	-10.0103
on	-10.0104
▁имарат	-10.0105
▁тууганы	-10.0106
▁кама	-10.0106
▁Ш	-10.0109
▁келүүдө	-10.0112
пар	-10.0113
▁программасы	-10.0121
▁пикиринде	-10.0121
▁барганда	-10.0129
▁автобус	-10.013
Центерра	-10.0131
▁Мухаммед	-10.0131
▁чечип	-10.0132
▁сакталып	-10.0132
▁алынышы	-10.0133
▁Каракол	-10.0139
оп	-10.0141
▁Асанов	-10.0141
мды	-10.0144
▁ишенимдүү	-10.0146
▁баасын	-10.0148
▁документтер	-10.0158
▁жактагы	-10.016
▁айыгып	-10.0165
еги	-10.0169
ая	-10.017
▁мэр	-10.0172
▁аянты	-10.0173
▁уулунун	-10.0175
алдуу	-10.0175
▁Орто	-10.0177
▁төрайымы	-10.0185
▁пенсия	-10.0192
▁600	-10.0194
▁мусулман	-10.0198
▁кечээ	-10.0199
▁Коомдук	-10.0201
▁оку	-10.0203
▁качкан	-10.0203
▁Кыргызстандык	-10.0204
▁суроого	-10.0206
▁Европадагы	-10.0207
▁окуучу	-10.0207
▁Сузак	-10.0208
▁август	-10.0211
▁Казакстандагы	-10.0211
Ош	-10.0211
▁аткарган	-10.0213
▁жылдыгына	-10.0213
▁чоо	-10.0214
▁Алмаз	-10.0216
▁даярдоо	-10.0222
майга	-10.0223
▁акциялары	-10.0227
▁созулган	-10.0231
▁кечирим	-10.0232
▁орточо	-10.0233
▁даярдап	-10.0235
▁тармагы	-10.0235
▁көпүрө	-10.0236
▁аскерлерин	-10.0241
▁43	-10.0241
°	-10.0241
▁калтырган	-10.0243
▁Кур	-10.0246
ология	-10.0247
▁Айт	-10.0249
лууда	-10.0251
▁саткан	-10.0252
▁пикири	-10.0254
▁согуштук	-10.0263
▁маселесине	-10.0265
▁тескерисинче	-10.0265
▁үйдөн	-10.0274
иши	-10.0275
▁келишти	-10.0278
сам	-10.0279
▁Пе	-10.0282
дору	-10.0285
h	-10.0285
Бишкек	-10.0287
▁облусуна	-10.0292
▁бел	-10.0303
▁курууга	-10.0311
▁Х	-10.0312
таган	-10.0314
▁Ооганстан	-10.0314
паган	-10.0318
▁M	-10.0319
▁кызыл	-10.033
▁Элдик	-10.0333
▁Бек	-10.0335
▁кирүүгө	-10.0341
▁Хо	-10.0346
▁байланышта	-10.0349
▁ко	-10.0351
▁келишимди	-10.0352
▁кызматкерлердин	-10.0357
▁планы	-10.0361
Сиге	-10.0363
▁Түркияга	-10.0367
▁четте	-10.0367
▁күчтөрдүн	-10.0382
▁сынак	-10.0397
▁42	-10.0401
▁ун	-10.0401
▁кетишти	-10.0402
▁айларында	-10.0403
▁п	-10.0407
▁кеңешчиси	-10.041
▁Не	-10.0411
▁жылдар	-10.0415
лөрдүн	-10.0416
▁тармагына	-10.0417
▁ий	-10.0418
▁карма	-10.0425
▁натыйжалуу	-10.0426
дордун	-10.0431
▁муниципалдык	-10.0434
▁жазылып	-10.0435
▁сайты	-10.0435
▁Кон	-10.0436
▁47	-10.0446
▁жоопкерчилиги	-10.0449
▁районуна	-10.0449
▁колдоого	-10.046
▁доллардан	-10.0463
▁Биримдиги	-10.0464
▁башчынын	-10.0465
▁күйүүчү	-10.0469
▁ушу	-10.047
▁от	-10.0471
▁уюштурулган	-10.0476
сунун	-10.048
▁Бар	-10.0484
▁бузуулар	-10.0485
▁булактар	-10.0487
▁жаткандар	-10.0488
кор	-10.0488
▁тирүү	-10.0489
▁Журналист	-10.0494
лды	-10.05
▁жарандарына	-10.0509
үл	-10.0511
▁тажрыйбасы	-10.0513
▁мыйзамда	-10.0516
▁окууда	-10.0517
▁39	-10.052
▁сөздү	-10.0521
▁көр	-10.0522
▁Стамбул	-10.0524
бызды	-10.0524
дармек	-10.0535
▁чарасы	-10.0536
▁таштанды	-10.0538
▁эскерүү	-10.0539
▁жаратты	-10.0542
▁су	-10.0545
өн	-10.055
▁пандемиясына	-10.0557
▁орнотуу	-10.0557
▁миллионго	-10.0561
▁жа	-10.0565
▁район	-10.0566
▁коюлуп	-10.0573
▁өтүүгө	-10.0584
▁Матраимовдун	-10.0587
▁Ре	-10.0587
▁борборунда	-10.0587
▁кай	-10.0588
▁иштөө	-10.0591
▁башчысынын	-10.0593
▁жакшыртуу	-10.0593
▁банктар	-10.0594
▁түшүнүк	-10.0599
▁өкмөттү	-10.0601
f	-10.0607
▁Блинкен	-10.0607
▁өткөрүлүп	-10.0607
▁тилкесинде	-10.0608
▁Ро	-10.061
▁аткаминерлер	-10.0611
▁үлгү	-10.0615
▁65	-10.0615
▁катышуучулары	-10.0616
▁тапшыруу	-10.0619
▁келгендер	-10.0621
▁мисалы	-10.0622
▁кызматтык	-10.0628
▁Ча	-10.0631
▁СССР	-10.0633
▁аскерлеринин	-10.0638
▁үзгүлтүк	-10.0641
▁жалаң	-10.0642
▁болсун	-10.0643
▁чыгара	-10.0645
мал	-10.0645
▁дүйнөгө	-10.0647
▁Темир	-10.0649
▁Министрлик	-10.0652
▁студент	-10.0653
▁жагы	-10.0664
▁кээде	-10.0665
▁маркум	-10.0676
▁Юстиция	-10.0677
▁кризис	-10.0679
▁кенен	-10.068
▁абалын	-10.0682
▁Донецк	-10.0683
▁аймагынан	-10.0688
18	-10.0692
▁Түркмөнстан	-10.0698
дыгын	-10.0699
▁аракеттерин	-10.0711
▁шаарынан	-10.0711
▁Нурсултан	-10.0712
▁Полиция	-10.0712
▁бөлүм	-10.0712
▁кабаттуу	-10.0714
▁уруп	-10.0717
▁баштапкы	-10.0717
таш	-10.0719
▁суроолорун	-10.072
▁долбоорлорду	-10.0721
▁колдон	-10.0725
▁турса	-10.0727
▁долбооруна	-10.0727
▁иштебей	-10.0731
▁экология	-10.0736
▁Тегеран	-10.074
өрүн	-10.0744
рим	-10.0746
▁түрткү	-10.0747
▁чакты	-10.075
▁Башкача	-10.0752
▁калышты	-10.0752
▁жакындарына	-10.0756
▁тарыхы	-10.0756
▁аныктаган	-10.0758
өрү	-10.0761
▁Жу	-10.0765
тка	-10.0766
▁келгенден	-10.0766
деген	-10.0771
▁Мамытов	-10.0772
O	-10.0773
бас	-10.0773
▁курултай	-10.0777
▁өкүлдөрүнүн	-10.0777
▁кимдер	-10.0779
лукту	-10.0782
w	-10.0782
▁борборуна	-10.0782
▁убактысы	-10.0787
▁өткөрүүнү	-10.0789
▁танда	-10.079
▁институтунун	-10.079
▁кимге	-10.0794
▁үчөө	-10.0796
фа	-10.0796
▁жеринде	-10.0796
▁Медиа	-10.0797
▁кайтыш	-10.0797
▁шартында	-10.0798
тикалык	-10.0801
▁тааныган	-10.0803
▁адамдары	-10.0803
▁Штаттар	-10.0804
уз	-10.0805
▁факты	-10.0806
кай	-10.0807
ран	-10.0808
▁сомду	-10.081
▁Парламент	-10.0816
▁Кеңешке	-10.0816
ѳ	-10.0818
▁Максат	-10.0821
▁там	-10.0825
▁ошондон	-10.0825
▁шайлоочулардын	-10.0826
мур	-10.0826
▁катыша	-10.0836
▁Министр	-10.0837
▁колунан	-10.0841
▁дегендей	-10.0843
бекова	-10.0849
▁көрүнүп	-10.0853
▁тургай	-10.086
▁жолукту	-10.086
▁өзгөрүүлөр	-10.0863
▁техника	-10.0867
50	-10.0874
стр	-10.0875
▁Анткен	-10.0876
▁катышат	-10.0876
▁оппозициячыл	-10.0886
▁Харьков	-10.0887
▁тейлөө	-10.0888
▁балким	-10.0889
▁жүргүзүлүп	-10.0889
▁Франциянын	-10.089
▁камалды	-10.0891
▁нерселер	-10.0892
▁жайда	-10.0892
▁артынан	-10.0892
▁То	-10.0893
▁дайындалды	-10.0893
▁2005-	-10.0894
▁кирүү	-10.0894
▁беришет	-10.0896
▁Польша	-10.0897
▁экстремисттик	-10.0901
▁Булар	-10.0902
▁атабыз	-10.0903
▁анык	-10.0908
▁үйлөр	-10.0913
▁талдоочу	-10.0916
лбай	-10.0916
лон	-10.0918
▁кызыкчылыгын	-10.0924
▁бер	-10.0924
▁бомба	-10.0925
▁Адаха	-10.0926
▁ре	-10.0927
▁кы	-10.0934
▁талаштуу	-10.0936
▁штабдын	-10.0941
▁Жети	-10.0949
▁эркиндигин	-10.0952
▁кызды	-10.0953
▁Ду	-10.0956
▁түнкү	-10.096
▁ошондуктан	-10.0961
▁өнүктүрүүгө	-10.0965
▁департаментинин	-10.0965
▁жаз	-10.0966
▁учагы	-10.0967
улган	-10.0967
▁коопсуздукту	-10.0969
▁Ке	-10.0975
▁ойдо	-10.0978
диги	-10.0979
чо	-10.0979
еге	-10.098
сон	-10.0981
▁алгандардын	-10.0982
▁кирешеси	-10.0987
▁эркиндигине	-10.0992
▁акцияга	-10.0998
▁алам	-10.0999
▁аныктап	-10.1006
▁Кореянын	-10.1007
▁сактоого	-10.1012
▁кишиден	-10.1015
▁жасай	-10.1016
▁жазгандай	-10.1019
▁жокмун	-10.1021
B	-10.1024
▁демонстранттар	-10.1025
▁курамына	-10.1025
▁Базар	-10.1026
▁жумушта	-10.1029
▁жокпуз	-10.1038
икалык	-10.1044
▁саламаттыгы	-10.1045
кеев	-10.1046
му	-10.1052
▁келечекте	-10.1052
жайы	-10.1055
▁жайына	-10.1056
▁чакырыктар	-10.106
▁Пакистан	-10.106
шуу	-10.106
▁Султан	-10.1064
▁жайлар	-10.1064
▁зарылдыгын	-10.1066
▁төрага	-10.1067
▁Мирлан	-10.107
▁аялдарга	-10.1072
▁өзүбүз	-10.1074
▁талаа	-10.1075
▁документти	-10.1075
▁турууга	-10.1079
▁шарты	-10.1084
▁жазасын	-10.1085
▁Тажик	-10.1086
▁сыйлык	-10.1092
▁балдарын	-10.1094
▁акими	-10.1095
▁санкцияларды	-10.1098
▁окуяларга	-10.11
▁Ооба	-10.1106
▁д	-10.1107
▁тапшырма	-10.112
лугу	-10.1124
сентябр	-10.1125
▁арасын	-10.1127
▁Манас	-10.113
Е	-10.1134
▁банкы	-10.1137
▁Конституция	-10.1139
▁материалдар	-10.1144
▁турушу	-10.1144
асы	-10.1146
йын	-10.1148
▁айтышат	-10.1149
▁Крым	-10.1154
▁айланасындагы	-10.1155
▁жарылуу	-10.1162
▁күчүндө	-10.1163
▁Талант	-10.1164
▁астында	-10.1166
▁фактысы	-10.1168
▁тай	-10.1169
▁көйгөйлөр	-10.1172
ист	-10.1172
кү	-10.1173
▁сөздөрдү	-10.1173
▁тыйын	-10.1175
▁миллиондогон	-10.1179
▁бөлүмү	-10.1193
▁кармалышы	-10.1197
▁Мага	-10.1197
Вагнер	-10.1204
▁алмаштыруу	-10.1205
▁жүрөк	-10.1213
▁кенемте	-10.1216
en	-10.1219
марттан	-10.1222
▁жүргүзүлгөн	-10.1222
▁жаратылыш	-10.1223
▁салынат	-10.1224
▁мекемелер	-10.1226
▁окуучулар	-10.1227
▁D	-10.1229
▁айтыш	-10.123
▁V	-10.1241
▁кетсек	-10.1245
сүндө	-10.1246
▁атышуу	-10.1247
▁жолунун	-10.1248
▁Европанын	-10.125
▁Шавкат	-10.1253
▁Төрт	-10.1254
▁түшүнүп	-10.1254
▁жогорулатуу	-10.1261
▁Ушунда	-10.1266
▁сунушун	-10.1268
▁болушту	-10.1272
▁иштерге	-10.1277
▁калтырды	-10.1278
▁ракеталык	-10.1279
ика	-10.128
диктен	-10.1282
▁берилгенин	-10.1287
▁Орусияны	-10.1287
▁аралашкан	-10.1291
▁Эмил	-10.1296
▁жетекчилик	-10.1297
▁салынды	-10.1298
▁туризм	-10.1299
▁НАТОнун	-10.1302
ууну	-10.1304
чүлөр	-10.1307
▁машыгуу	-10.1316
▁болгондон	-10.1316
▁факт	-10.1323
▁даана	-10.1324
▁радикал	-10.1325
▁чемпионаты	-10.1325
пер	-10.1326
▁тааныш	-10.1327
▁кесилген	-10.1328
▁коалиция	-10.1328
▁жанындагы	-10.1329
▁өлкөлөрүнө	-10.133
▁өкүл	-10.1334
▁тинтүү	-10.1345
ад	-10.1347
▁курамы	-10.1354
▁алдыда	-10.1355
▁башы	-10.1356
▁жөө	-10.1358
▁Кайсы	-10.1358
▁жолдорун	-10.1362
▁тартылып	-10.1366
▁жашында	-10.1367
▁төлөө	-10.137
▁Рахмон	-10.137
▁сууга	-10.1371
▁тарыхында	-10.1371
▁Сай	-10.1377
▁тизмеге	-10.1379
▁реакция	-10.1381
▁иштетүү	-10.1387
▁зомбулукка	-10.1388
▁катышуусу	-10.1391
▁санкциялар	-10.1394
▁Сирия	-10.1396
▁муун	-10.1396
ИИМ	-10.1396
F	-10.1399
үз	-10.1399
▁күтүлүүдө	-10.1403
▁ыңгайлуу	-10.1403
▁көрсөтө	-10.1403
▁азайып	-10.1406
▁башын	-10.1413
▁кызматта	-10.1421
▁база	-10.1432
▁Жапаровго	-10.1434
▁аралыкта	-10.1439
▁аш	-10.144
▁каражаттар	-10.144
▁каптаган	-10.1441
мек	-10.1441
лерге	-10.1444
▁мандаттуу	-10.1445
▁материалдык	-10.1447
▁бериле	-10.1451
жар	-10.1453
▁түрмөдө	-10.1455
▁кө	-10.1458
▁бол	-10.146
▁Аб	-10.1464
тарынын	-10.1465
▁мааниси	-10.1467
▁жоопкерчиликти	-10.1469
▁ортодо	-10.147
баганын	-10.1477
▁чарасын	-10.1478
▁баңгизат	-10.1479
▁жарымы	-10.1481
▁кызыкдар	-10.1482
▁аракеттерди	-10.1483
▁киргенде	-10.149
▁өлтүрүү	-10.1496
▁профессор	-10.1498
▁берүүнүн	-10.1498
▁төлө	-10.1505
▁табуу	-10.1506
R	-10.1509
▁жакты	-10.1509
▁калууда	-10.151
▁жеткирилген	-10.1512
▁1990-	-10.1517
▁чогултуп	-10.1517
▁эсептелген	-10.1517
▁ээлеген	-10.1518
▁батыш	-10.1519
пы	-10.1522
▁облус	-10.1523
▁Саясий	-10.1523
▁чыгарууну	-10.1525
▁чалып	-10.1531
▁Сөз	-10.1532
▁жарлыгы	-10.1534
▁кыр	-10.1535
▁бардыгын	-10.1536
▁казына	-10.1536
12	-10.1538
▁кыргызча	-10.1539
тарына	-10.1541
▁энергетикалык	-10.1544
▁арты	-10.1556
▁Нурлан	-10.1557
▁Советтер	-10.1559
▁Абылгазиев	-10.1563
▁финансылык	-10.1564
▁чемпиону	-10.1566
▁тазалоо	-10.1566
D	-10.1572
▁тилдүү	-10.1574
▁Ушу	-10.1574
▁июль	-10.1574
▁чыгым	-10.1577
▁тизмеси	-10.158
бер	-10.1583
▁тартыш	-10.1586
ушту	-10.1588
▁сөзүндө	-10.1588
▁окумуштуулар	-10.1588
▁тааны	-10.159
төгү	-10.1591
▁Запорожье	-10.1593
▁120	-10.1593
▁глобалдык	-10.1593
лиги	-10.1596
▁2011-	-10.1598
▁реалдуу	-10.1615
ук	-10.1618
▁колдоосу	-10.1621
▁жабуу	-10.1622
▁радио	-10.1629
▁булактарына	-10.1629
▁Михаил	-10.1631
▁келтирип	-10.1632
▁катышууда	-10.164
бат	-10.1643
▁койгонун	-10.1644
▁Ц	-10.1644
▁талапкерлигин	-10.1646
▁уюштурууга	-10.1648
▁тапшырмасы	-10.1651
өр	-10.1658
▁басылмалар	-10.166
▁демократия	-10.166
▁Ме	-10.1665
еп	-10.1665
▁кызыкчылыгы	-10.1665
▁баарыбыз	-10.1666
▁камактагы	-10.1668
рип	-10.167
▁Свердлов	-10.167
▁биргеликте	-10.167
▁көтөрүлдү	-10.167
▁аныкталып	-10.1671
▁улантып	-10.1671
▁курулуп	-10.1671
▁караш	-10.1674
▁Ху	-10.1678
▁алака	-10.1683
▁жерлерди	-10.1691
зы	-10.1704
▁иниси	-10.171
▁акыры	-10.1711
▁Абаны	-10.1712
▁Ди	-10.1714
▁2013-	-10.1714
▁КМШ	-10.1715
▁Кор	-10.1716
▁кенин	-10.1719
▁Журналисттер	-10.1721
▁мас	-10.1722
▁илдети	-10.1724
▁Аскер	-10.1726
▁жатышы	-10.1727
▁мектептин	-10.1735
▁Көлбаев	-10.1736
▁өскөн	-10.1736
▁кулак	-10.1737
▁абактагы	-10.1748
▁жергесинде	-10.1751
▁Суу	-10.1754
▁көбөйгөн	-10.1756
▁жеңишке	-10.1757
▁Бер	-10.1758
▁Абды	-10.1759
▁суук	-10.176
▁Кабул	-10.1761
▁айтканы	-10.177
▁жоокер	-10.177
▁көрсөтүүгө	-10.1773
ина	-10.1774
▁на	-10.1777
▁ме	-10.1779
▁Нурбек	-10.1779
▁бүтүн	-10.178
▁жөнөткөн	-10.1781
Фейсбуктагы	-10.1785
▁Энергетика	-10.1787
▁өспүрүм	-10.179
▁үстүндө	-10.179
бой	-10.1791
▁Дүйшөмбү	-10.1792
еш	-10.1794
▁кап	-10.1794
ля	-10.1797
▁бөлүштү	-10.1803
▁сала	-10.1808
▁Бакиевдин	-10.1809
▁эгемен	-10.181
▁хан	-10.1815
▁түзүүгө	-10.1816
▁айтылгандай	-10.1819
бет	-10.1821
▁Бекешев	-10.1826
▁абанын	-10.1829
▁бий	-10.183
чаралар	-10.1831
▁кесиптик	-10.1833
▁тандап	-10.184
дөрдүн	-10.1841
▁жыйынтыгына	-10.1844
▁тапшырып	-10.1844
▁жетишсиз	-10.1849
▁финалда	-10.1853
▁казуу	-10.1853
өй	-10.1863
▁фонд	-10.1864
▁оорукана	-10.1864
▁бекер	-10.1865
▁жайылып	-10.1868
▁белгилегендей	-10.187
▁көчөгө	-10.1871
▁дарыланып	-10.1871
▁топтордун	-10.1872
эн	-10.1872
▁кылганын	-10.1876
▁көзөмөлдөп	-10.1877
▁февраль	-10.1878
▁инвестициялык	-10.1886
▁өтөп	-10.1888
▁болбогонун	-10.1888
▁шаардагы	-10.1892
▁болушкан	-10.1892
▁Ва	-10.1894
▁бекемдөө	-10.1897
лөрү	-10.1902
▁Улукбек	-10.1905
▁таанымал	-10.1905
▁чече	-10.1905
▁кайта	-10.1911
▁чай	-10.1914
▁өлкөлөрдөн	-10.1915
▁сатылып	-10.1915
▁суроолорго	-10.1921
▁мигранттарды	-10.1923
▁Л	-10.1924
▁алда	-10.1925
▁жаатындагы	-10.1927
40	-10.1929
▁Сыдыков	-10.1935
ав	-10.1942
леп	-10.1942
▁Астана	-10.1947
▁талапкерлердин	-10.1947
▁кон	-10.195
▁Канада	-10.1958
иянын	-10.1958
▁Ас	-10.1958
▁прокуратурага	-10.196
▁айдоочу	-10.1961
▁Кыргызстанды	-10.1961
▁Германияда	-10.1965
Башы	-10.1972
Көлдө	-10.1976
▁коопсуздугуна	-10.198
▁оңдоо	-10.1983
▁ашыгы	-10.1985
▁рубль	-10.1987
▁теле	-10.1991
▁туу	-10.1999
▁Темиров	-10.2
▁милдети	-10.2006
▁украиналык	-10.201
▁бил	-10.2011
▁өзүндө	-10.2015
▁мамилени	-10.2017
▁күрөшү	-10.2019
ундагы	-10.2019
лган	-10.202
▁шылтоо	-10.2024
▁Кечээ	-10.2025
▁отуз	-10.2025
▁вакцинаны	-10.2025
▁карама	-10.2026
▁Боронов	-10.2026
▁долларлык	-10.203
синде	-10.2031
▁ЖЭБ	-10.2032
▁министрликтин	-10.2032
▁аларын	-10.2033
▁өндүрүү	-10.2038
▁чечүүгө	-10.2039
▁сотуна	-10.2046
▁жүргөнү	-10.2047
▁жараян	-10.205
төрдү	-10.2053
▁аймактарга	-10.2055
▁Биринчиден	-10.2059
▁кадимки	-10.2063
октябрга	-10.2065
▁негиздөөчүсү	-10.2065
ё	-10.2072
▁жардыруу	-10.2072
▁кайткан	-10.2074
▁жуккан	-10.2074
▁со	-10.2077
лөргө	-10.2077
▁Африка	-10.2083
жо	-10.2091
▁алсак	-10.2099
▁уюмга	-10.2103
▁сомдук	-10.2106
▁үнү	-10.211
▁се	-10.2117
▁качкындар	-10.2119
▁которгон	-10.2121
▁сен	-10.2125
▁Орусиялык	-10.2126
▁мэриясы	-10.2129
▁па	-10.2131
ура	-10.2137
▁салышты	-10.2138
▁айыптоо	-10.2139
▁уккан	-10.2142
▁жакыны	-10.2145
▁маңзат	-10.2145
▁камалып	-10.2146
▁Ни	-10.2146
▁талкууланып	-10.2147
▁буудай	-10.2147
ыңыз	-10.2152
▁Араб	-10.2155
▁протокол	-10.2158
Биримдик	-10.2167
ван	-10.2167
▁жарандарынын	-10.2173
or	-10.2178
▁барууга	-10.2179
▁согуштан	-10.2181
▁Аксы	-10.2183
▁жашоого	-10.2184
ком	-10.2184
▁кошулуп	-10.2188
▁курчуп	-10.2188
орус	-10.2189
▁азайтуу	-10.2194
▁кабылганын	-10.2195
лүгү	-10.2201
▁Беш	-10.2201
уралдуу	-10.2202
▁көмүскө	-10.2205
ах	-10.2209
Кабар	-10.2211
24	-10.2211
нер	-10.2213
ент	-10.2215
▁дегендер	-10.2217
▁курмандыктары	-10.2222
▁Украинаны	-10.2223
боо	-10.2223
чараларды	-10.2226
▁биргелешип	-10.2227
▁Андрей	-10.2227
▁түштүгүндө	-10.2227
▁Каныбек	-10.2227
▁эместигин	-10.2228
▁арбын	-10.2228
▁отурум	-10.2232
ың	-10.2234
бол	-10.2234
▁сунушталган	-10.2236
▁акысы	-10.2247
▁суммасы	-10.2261
▁козгогон	-10.2269
▁Алиев	-10.2269
▁корго	-10.227
▁көзөмөлдөгөн	-10.2273
▁божомол	-10.2274
▁ачкачылык	-10.2274
▁дайындоо	-10.2274
▁чакырылган	-10.2275
▁бөлүмүнө	-10.2276
▁ысык	-10.2276
▁тилде	-10.2276
▁58	-10.2277
▁токтоткон	-10.2284
▁баяндама	-10.2289
▁жабыр	-10.2297
аев	-10.23
▁Италия	-10.2305
▁татыктуу	-10.2309
▁эскертип	-10.2309
▁жолуккан	-10.2314
▁арасына	-10.2322
▁жетүү	-10.2323
▁имаратты	-10.2327
▁54	-10.233
▁бүткөн	-10.2331
имди	-10.2334
▁арага	-10.2338
▁Кадыр	-10.2343
▁гүл	-10.2344
▁зат	-10.2346
▁Сулайманов	-10.2348
▁өлчөмдө	-10.2352
▁өздөрүн	-10.2355
▁у	-10.2356
▁инсан	-10.236
▁пайдалуу	-10.2364
▁сүт	-10.237
▁57	-10.2375
▁айырма	-10.2376
▁өткөнүн	-10.2378
▁автору	-10.2379
▁бюджет	-10.238
▁узун	-10.2391
▁ачылып	-10.2392
15	-10.2395
▁ажыратылган	-10.2398
▁фактылар	-10.24
ери	-10.2402
▁түшөт	-10.2402
▁башталганын	-10.2402
▁чогултуу	-10.2402
▁деңгээлдеги	-10.2408
лору	-10.241
баевдин	-10.241
▁көзөмөлгө	-10.2425
▁энергиясы	-10.2428
▁билдирүүсү	-10.2428
боого	-10.2429
БШК	-10.243
▁тарт	-10.2431
үлгөн	-10.2432
▁коркутуп	-10.2433
▁түзүлдү	-10.2435
▁аймагынын	-10.2436
▁бүтүп	-10.2436
▁соолугуна	-10.2437
▁мүлк	-10.2439
▁жетишкен	-10.2442
▁министрлер	-10.2444
▁атаандаш	-10.2444
▁топтоп	-10.2444
ибизди	-10.2446
▁тал	-10.2446
▁андагы	-10.2454
▁мекемеси	-10.2455
▁саатка	-10.2456
▁Адистер	-10.2459
гар	-10.246
▁позициясын	-10.2463
▁G	-10.2473
▁режими	-10.2473
лов	-10.2474
▁Режеп	-10.2475
▁дуушар	-10.2475
▁кыдырып	-10.2477
▁чыгарылып	-10.2477
▁мекемесинин	-10.2482
▁каражаттарынын	-10.2493
▁Грузия	-10.2494
▁дешти	-10.2495
▁ишканалар	-10.2496
▁тилине	-10.2506
▁далилдер	-10.2508
22	-10.251
▁жөнөтүлгөн	-10.2515
▁мөөнөт	-10.2515
▁жигердүү	-10.2517
▁күйүп	-10.2518
▁бойлуу	-10.2519
▁мындайча	-10.252
▁Сар	-10.252
▁күчөгөн	-10.2521
▁чалдыккан	-10.2523
▁акысыз	-10.2526
▁оңдоп	-10.2527
▁бирин	-10.253
▁Пакистандын	-10.2531
▁Адвокат	-10.2532
Л	-10.2533
ский	-10.2535
матов	-10.2543
▁шаарын	-10.2544
▁борбордун	-10.2544
▁мектептер	-10.2547
▁шайла	-10.2548
вар	-10.255
▁бирден	-10.2556
▁Саясат	-10.2556
▁салат	-10.2557
L	-10.2557
шо	-10.2558
▁метрге	-10.2561
ада	-10.2562
▁каттам	-10.2567
▁Ге	-10.2568
▁Оору	-10.2569
▁иштөөгө	-10.257
▁макулдашуу	-10.2571
▁Конституциянын	-10.2574
▁Париж	-10.2579
▁49	-10.258
▁тургандай	-10.2582
▁адатта	-10.2583
▁өнөктүгү	-10.2588
▁ант	-10.2588
▁ойго	-10.2593
▁2,5	-10.2597
ышат	-10.2598
казак	-10.26
▁Байденди	-10.2601
▁чектелген	-10.2602
▁суроосуна	-10.2606
лбаган	-10.2607
▁Оштогу	-10.261
▁турчу	-10.2611
▁экономикасы	-10.2612
сан	-10.2614
▁товарлар	-10.2616
рай	-10.2618
аб	-10.2622
N	-10.2626
тат	-10.2631
лорду	-10.2639
абы	-10.2642
▁беларус	-10.2644
▁жарнама	-10.2645
Ко	-10.2645
▁багытында	-10.2646
▁кабылды	-10.2648
ве	-10.2649
▁көрдү	-10.265
▁жасоо	-10.2654
▁жарыгы	-10.2656
▁мигранттарга	-10.2656
тору	-10.2661
▁тамга	-10.2662
▁жарандын	-10.2665
▁ан	-10.2672
▁энергия	-10.2672
▁нааразылыгын	-10.2672
үүчү	-10.2675
▁өлтүрүлгөн	-10.2676
▁чараларын	-10.2678
▁коюуга	-10.2686
▁Айсулуу	-10.2687
▁намаз	-10.2687
▁тор	-10.2688
▁бюджеттен	-10.269
▁Ф	-10.269
фе	-10.2693
▁кеңешме	-10.2695
ованын	-10.2699
▁акциясы	-10.2702
▁берүүдөн	-10.2709
▁по	-10.2715
▁катчы	-10.2721
▁Кубатбек	-10.2721
▁дарылоо	-10.2723
▁өлгөн	-10.2726
тарда	-10.2728
▁маалымдалды	-10.273
▁түркмөн	-10.273
▁учкучсуз	-10.273
▁компаниясына	-10.2731
▁Ру	-10.2735
▁Кийинки	-10.2735
лайт	-10.2741
▁Данияр	-10.2741
▁ойноп	-10.2741
▁балбан	-10.2745
▁соолугу	-10.2747
▁каралат	-10.2747
▁күрөшүп	-10.2747
▁азап	-10.2749
▁жүргүзүүгө	-10.275
▁оюндары	-10.2751
▁маселеге	-10.2751
теш	-10.2753
▁эже	-10.2756
▁46	-10.2758
▁дарыгерлердин	-10.2761
▁шарттар	-10.2763
▁десем	-10.2767
▁жылды	-10.2769
▁аймактарына	-10.277
▁кафе	-10.2773
сиң	-10.2774
▁билебиз	-10.2775
▁Сары	-10.2777
▁далай	-10.2778
▁уруш	-10.2781
▁көчкү	-10.2782
▁Таалайбек	-10.2787
▁токой	-10.279
▁жаңжалда	-10.2794
▁балык	-10.2798
▁Сириядагы	-10.2798
▁саатта	-10.2801
▁жолугушуусу	-10.2802
▁кеме	-10.2804
▁көзөмөлдө	-10.2808
▁котор	-10.2813
▁Күн	-10.2814
иев	-10.2816
▁тыгыз	-10.2817
▁күткөн	-10.2817
▁начарлап	-10.282
▁жагдайды	-10.2821
Жа	-10.2821
▁судьясы	-10.2824
▁токтому	-10.2832
▁коркунучтуу	-10.2833
▁ажыратуу	-10.2835
▁айла	-10.284
▁жетекчилер	-10.2842
▁тартиби	-10.2844
▁таасирдүү	-10.2844
▁түрүндө	-10.2846
▁жүрүү	-10.2849
▁сунуштар	-10.2852
▁бузулган	-10.2852
кыргызстандыктар	-10.2853
▁алек	-10.2858
▁Премьер	-10.286
▁салтанат	-10.286
▁чы	-10.2862
▁атам	-10.2864
▁калыптыр	-10.2867
▁колдоду	-10.2868
▁баалап	-10.2869
▁түн	-10.287
▁айдоочулар	-10.2881
▁шайлоочулар	-10.2889
▁долбоорлор	-10.2897
21	-10.2901
▁окумуштуу	-10.2901
▁күчөтүү	-10.2903
▁Бийик	-10.2904
▁маалымдалган	-10.2904
▁Аш	-10.2905
▁кризисти	-10.2905
▁жазуу	-10.2908
лот	-10.2909
▁кыйноого	-10.2914
▁толкуну	-10.2914
▁эсте	-10.2915
▁уруу	-10.2919
▁аймактарды	-10.2919
▁көрсөтөт	-10.2924
▁сентябрда	-10.2939
▁которуу	-10.2942
▁уланта	-10.2942
▁турам	-10.2943
▁мурдагыдай	-10.2947
жартылай	-10.2948
▁этникалык	-10.2948
▁кичинекей	-10.2948
▁үлүшү	-10.295
▁кыйналып	-10.2955
11	-10.2962
▁талаптарды	-10.2963
төрдүн	-10.297
▁айланасында	-10.298
▁жүргөндө	-10.2982
ыбызда	-10.2985
▁Ти	-10.2987
Чоң	-10.2991
▁Ноокат	-10.2991
▁жатышты	-10.2992
▁негизделген	-10.2992
▁2009-	-10.2993
▁кесепетинен	-10.2993
сыңар	-10.2994
▁Канат	-10.2996
▁кырсыгы	-10.2998
чысы	-10.2998
▁базарлар	-10.3003
▁Чын	-10.3011
▁каржылоо	-10.3018
▁ролу	-10.3018
▁Токто	-10.3019
▁барбай	-10.302
▁Мал	-10.3024
▁окууга	-10.3026
▁музей	-10.3027
▁шектелип	-10.3036
Ар	-10.3036
▁белгилешет	-10.3036
эне	-10.3037
▁билбейм	-10.3038
▁Чо	-10.3041
▁85	-10.3042
▁изилдеп	-10.3043
▁элчи	-10.3043
▁армия	-10.3045
▁бюджетке	-10.305
▁долбоордун	-10.3056
▁автоунаалар	-10.3061
▁байма	-10.3063
талган	-10.3064
▁баратканын	-10.3064
▁саламаттыкты	-10.3077
▁бөлүмүндө	-10.3077
▁моралдык	-10.308
▁электигин	-10.3081
каршы	-10.3081
▁айлыгы	-10.3081
▁кыш	-10.3083
▁түзүүнү	-10.3084
▁көлөмүн	-10.3085
▁Ташкент	-10.3091
▁дүң	-10.3091
▁ээлери	-10.3096
▁оорусу	-10.3098
▁кыргыздардын	-10.3099
▁жоо	-10.3099
▁кылганы	-10.31
▁таануучу	-10.31
▁кары	-10.3102
▁сап	-10.3113
▁каражаттарды	-10.3116
өм	-10.3116
▁тизме	-10.3119
▁келишими	-10.3124
▁өнүккөн	-10.3125
▁кезегинде	-10.3125
▁68	-10.3125
▁жасалып	-10.3125
▁баатыр	-10.313
үбүз	-10.3131
▁диалог	-10.3131
▁түп	-10.3133
▁өзгөртүүлөрдү	-10.3134
мер	-10.3135
▁Калган	-10.3139
▁органдардын	-10.3151
▁оорунун	-10.3153
▁Европада	-10.3161
▁ижарага	-10.3163
▁Ошон	-10.3169
июлга	-10.317
▁көрсөткүчү	-10.3175
▁акчасы	-10.3176
▁макулдашууга	-10.3176
▁аныкталганын	-10.3179
дорду	-10.318
▁жагдайда	-10.318
▁жерлеринде	-10.3185
▁тармагын	-10.3188
▁ниетин	-10.3188
▁ТИМ	-10.3188
▁АКШдагы	-10.3193
▁губернатору	-10.3194
▁катыш	-10.3197
▁сыноо	-10.3198
▁жайдын	-10.3199
▁нарк	-10.3203
▁калаасы	-10.3203
▁тара	-10.3208
▁Ушуну	-10.3208
▁жугуштуу	-10.3215
депутат	-10.3215
▁санап	-10.3217
▁мамлекетте	-10.3219
▁бийликте	-10.3222
уусу	-10.3225
түп	-10.3225
▁журналисттик	-10.3231
▁чакырык	-10.3231
▁Айтматов	-10.3234
▁сөөгүн	-10.3238
▁жыйырма	-10.3241
▁жеп	-10.3241
▁бейтаптарды	-10.3251
▁Алгач	-10.3252
Ка	-10.3253
▁өзгөрүп	-10.326
▁2008-	-10.326
▁упай	-10.3261
▁Кремль	-10.3261
▁түшүндүргөн	-10.3262
▁мезгилинде	-10.3264
▁изилдөөлөр	-10.3265
▁сатууга	-10.3265
▁жабылып	-10.3265
▁тартипте	-10.3268
▁экинчиси	-10.327
зат	-10.327
▁250	-10.3271
▁Согуш	-10.3272
▁позиция	-10.3273
уд	-10.3273
лыгын	-10.3274
▁аянтында	-10.3275
▁жат	-10.328
▁чыгууну	-10.3282
▁ГЭС	-10.3283
▁китептер	-10.3286
▁коомго	-10.329
▁келечеги	-10.3295
▁Көз	-10.3295
+	-10.3299
тта	-10.3301
▁көбөйтүү	-10.3303
▁чектөөлөрдү	-10.3305
▁киргизилип	-10.3306
▁коюшу	-10.3306
▁талкууланды	-10.3306
▁өнөктөш	-10.3308
▁аяктап	-10.331
▁чечимдер	-10.3311
▁төңкөрүш	-10.3313
▁Соттун	-10.3314
▁тактаган	-10.3316
▁эркиндикке	-10.3317
▁канал	-10.3319
▁милициясы	-10.3321
▁сүйлөшкөн	-10.3322
▁айылына	-10.3325
▁азайт	-10.3325
басын	-10.3327
▁кадр	-10.3328
▁агымы	-10.3332
▁62	-10.334
айып	-10.3342
▁маселелерин	-10.3343
▁тармакта	-10.335
▁Ле	-10.3351
▁жабырлануучу	-10.3351
▁баалады	-10.3352
▁Швейцария	-10.3353
бак	-10.3354
▁Саясатчы	-10.3355
▁саясатта	-10.3355
▁материал	-10.3358
al	-10.3359
шууда	-10.3362
чек	-10.3364
Ала	-10.3365
▁бычак	-10.3367
▁көрбөй	-10.3375
▁кеңсеси	-10.3381
25	-10.3384
луп	-10.3384
мет	-10.3388
гым	-10.3388
ред	-10.3389
▁Өзү	-10.3391
сия	-10.3396
▁52	-10.3397
▁Кийинчерээк	-10.3397
▁авторитардык	-10.3397
▁нике	-10.3398
▁жарыяланып	-10.3398
▁жүрүшөт	-10.3398
▁тема	-10.3402
▁кылса	-10.3402
▁Фи	-10.3406
▁өтүнүч	-10.3406
▁завод	-10.3408
▁акциялар	-10.3409
▁өзүбүздүн	-10.3417
▁Шар	-10.3421
▁Сирияны	-10.3423
▁Европага	-10.343
▁финансы	-10.3434
26	-10.3439
▁Осмонов	-10.344
▁өзгөртүп	-10.3443
▁бузулуп	-10.3444
▁окуянын	-10.3444
▁заман	-10.3446
▁компаниялары	-10.3449
▁киргизүүнү	-10.3454
▁жээгинде	-10.3457
▁туруштук	-10.3457
рын	-10.3459
▁Дин	-10.3462
▁ичип	-10.3463
зу	-10.3465
▁сунушта	-10.3466
▁и	-10.3466
▁абалынан	-10.3472
өз	-10.3473
ья	-10.3483
▁ого	-10.3489
▁өнүгүп	-10.3489
▁алектенген	-10.3489
▁Борис	-10.349
БУУ	-10.3491
▁күтүү	-10.3492
▁макам	-10.3495
▁аралашып	-10.3498
чан	-10.3499
▁койгону	-10.3501
▁күрөштө	-10.3501
▁сапаты	-10.3501
▁Интернетте	-10.3503
70	-10.3503
▁АКШга	-10.3505
▁карашы	-10.3506
▁аскери	-10.3509
14	-10.3511
▁ыктыярчылар	-10.3513
▁айтууга	-10.3518
шып	-10.352
▁немис	-10.3521
▁ташуу	-10.3522
-1	-10.3523
▁топко	-10.3528
▁укугуна	-10.353
маш	-10.3533
▁планын	-10.3534
▁учурларда	-10.3536
▁мунапыс	-10.3536
▁Байсалов	-10.3536
апрелдеги	-10.3536
▁түшүндүрүп	-10.3536
▁кыянаттык	-10.3536
▁норма	-10.3543
▁күнөө	-10.3543
рылып	-10.3544
иб	-10.3544
▁тарапта	-10.3548
▁Ы	-10.3548
лен	-10.3552
▁сунуштап	-10.3553
▁рубл	-10.3554
илген	-10.3557
▁кыргыздын	-10.356
кол	-10.3563
▁Се	-10.3569
▁кармалганы	-10.3569
Орусия	-10.3571
▁өтүүдө	-10.3571
▁токтото	-10.3572
▁ыкма	-10.3573
▁схема	-10.3578
▁угу	-10.358
тты	-10.3588
▁Тажикстанга	-10.359
▁өкмөтүнө	-10.3593
▁эрежелерин	-10.3596
▁зор	-10.3599
▁Батыштын	-10.3599
▁колдой	-10.3602
▁Аман	-10.3604
Ша	-10.3612
▁лидерлер	-10.3614
▁бербөө	-10.3621
▁аркы	-10.3622
▁көйгөйлөрдү	-10.3624
▁совет	-10.3628
▁Эмомали	-10.363
▁күнүмдүк	-10.363
▁толуп	-10.3631
ини	-10.3631
▁бетер	-10.3632
▁Исаев	-10.3632
▁түрмөгө	-10.3634
▁психологиялык	-10.3635
▁булактары	-10.3636
▁илдетти	-10.3646
▁калышкан	-10.3648
▁оорудан	-10.3649
▁кый	-10.3652
▁жүрөгү	-10.3653
▁колдонул	-10.3653
▁энеси	-10.3659
▁угуу	-10.3662
шты	-10.3663
°,	-10.3663
туп	-10.3663
▁жылдарда	-10.3666
▁Сирияда	-10.3667
▁Совет	-10.3669
▁чекит	-10.3671
▁жек	-10.3672
▁киргизди	-10.3672
▁экендиги	-10.3675
▁өзгөрүү	-10.3677
▁үлгүсүндөгү	-10.3677
▁дүкөн	-10.3678
▁не	-10.3678
▁которуп	-10.3678
ыраак	-10.3683
айкын	-10.3685
дир	-10.3685
▁тургундардын	-10.3686
▁жакыр	-10.3686
▁отур	-10.369
▁бут	-10.3691
▁кылынган	-10.3693
▁климатты	-10.3696
енко	-10.3698
▁өкүлдөрүнө	-10.3702
шкон	-10.3702
▁Түркиядагы	-10.3704
▁мечит	-10.3721
▁чечимдерди	-10.3721
▁Макрон	-10.3722
▁грант	-10.3723
▁Мама	-10.3723
▁учураган	-10.3724
▁Марипов	-10.3725
▁коркуп	-10.3725
▁топтолгон	-10.3726
▁түр	-10.3726
▁Уюмду	-10.3726
▁бергиле	-10.3728
▁болсок	-10.3728
▁Reuters	-10.3731
▁карайт	-10.3735
ылып	-10.3736
▁ХАМАСты	-10.3737
▁Конгресс	-10.3737
▁тынчсыздануусун	-10.374
чил	-10.3745
▁атышууну	-10.3747
▁о	-10.376
каны	-10.376
▁карантинге	-10.3766
▁жолдун	-10.3768
▁агасы	-10.3768
▁беттеш	-10.377
▁окуяларына	-10.3771
▁Айрыкча	-10.3772
▁байыркы	-10.3772
▁майнап	-10.3772
▁тийип	-10.3773
▁кетүүнү	-10.3773
▁аткезчилик	-10.3774
▁токтотууну	-10.3778
▁адистери	-10.3781
тардан	-10.3782
сал	-10.3782
▁имараттар	-10.3784
▁жоопкерчилигине	-10.3789
▁айтпай	-10.379
G	-10.3791
▁материалдарды	-10.3791
▁800	-10.3795
▁кылыш	-10.3796
▁көтөрүү	-10.3804
▁идея	-10.3805
▁юрист	-10.3813
▁ишмердигин	-10.3813
▁каражаттарына	-10.3814
▁Шаар	-10.3815
▁ыраазы	-10.3818
▁Ошентсе	-10.382
▁Транспорт	-10.382
▁бекитилген	-10.382
▁Санкт	-10.382
▁партиясынан	-10.382
▁чыгарылды	-10.3821
▁Алтынбек	-10.3821
▁нерселерди	-10.3821
исттик	-10.3822
▁кечки	-10.3823
▁куру	-10.3823
▁элине	-10.3823
▁өч	-10.3834
▁спортчулар	-10.3835
▁которулган	-10.3835
Ш	-10.3836
ларында	-10.3836
▁беренелери	-10.384
▁Адилет	-10.3843
▁Бактыбек	-10.3849
дөө	-10.3853
▁63	-10.3855
▁ооруканалар	-10.3859
жал	-10.386
▁Замир	-10.386
▁тармактарга	-10.3864
▁Зулушев	-10.3865
▁Токтакунов	-10.3868
▁тигүү	-10.3868
▁Федерал	-10.3868
▁чабуулдар	-10.3871
▁Жаш	-10.3874
▁өзгөртүүлөр	-10.3877
▁ырчы	-10.3878
▁баруу	-10.3878
▁болбошу	-10.3885
▁натыйжа	-10.3889
▁миссиясы	-10.3893
▁китеби	-10.3895
▁жүрүм	-10.3901
▁Ло	-10.3905
▁кылууну	-10.3906
▁соттор	-10.3909
▁Жапаровду	-10.391
▁тынчсыздануу	-10.3912
]	-10.3916
▁камсыздандыруу	-10.3916
▁табигый	-10.3916
▁табылып	-10.3917
▁Акжол	-10.3917
▁району	-10.3917
▁кыйынчылык	-10.3921
▁курамында	-10.3921
▁адвокаттары	-10.3925
▁калбай	-10.3928
▁оорулар	-10.393
▁кызык	-10.3931
▁Конституцияга	-10.3931
▁Британияда	-10.3932
▁салыкты	-10.3932
▁өлкөлөрүндө	-10.3932
▁көтөрдү	-10.3933
лас	-10.3934
▁академиясынын	-10.3935
ама	-10.394
ят	-10.3941
▁сатылган	-10.3942
▁карызы	-10.3942
▁эмгеги	-10.3942
▁Чы	-10.3944
▁өкүмү	-10.3945
▁жайларга	-10.3946
▁калың	-10.3948
▁актив	-10.3949
▁жөнөтүү	-10.3949
▁шаарларда	-10.3952
▁түшкөнүн	-10.3952
▁аскерлердин	-10.3953
▁талаптар	-10.3955
▁төрөт	-10.3956
ара	-10.396
▁учурлары	-10.3961
зе	-10.3962
▁кесиптештери	-10.3962
▁түтүн	-10.3965
▁карта	-10.3968
▁Лукашенкону	-10.397
▁автоунааларды	-10.3972
▁элчилигинин	-10.3974
▁күчтөрүн	-10.3974
▁ээлик	-10.3976
▁көрсө	-10.3976
▁кимдир	-10.3977
▁ойно	-10.3978
▁өлүп	-10.3979
▁ноябрда	-10.3981
▁аткылоо	-10.3987
▁По	-10.3988
тартыш	-10.3991
Украина	-10.3995
▁Маалыматта	-10.3996
▁компаниялардын	-10.3998
▁г	-10.4003
▁аткара	-10.4003
17	-10.4007
▁үйүнүн	-10.4011
▁чөлкөмдө	-10.4012
▁деңгээлге	-10.4013
▁тарапкерлери	-10.4014
▁жеткирип	-10.4014
▁Алымка	-10.4014
▁ыраазычылык	-10.4014
▁көзөмөлүндө	-10.4015
дарынын	-10.4016
▁Канча	-10.4019
▁келишимдин	-10.4019
▁атышат	-10.402
▁козгоп	-10.4022
▁талкуулап	-10.4025
▁The	-10.4025
▁наркы	-10.4029
▁53	-10.4033
▁балалуу	-10.4037
ыз	-10.4037
дым	-10.4039
тыгын	-10.4048
▁аялдын	-10.4049
▁Индияда	-10.4051
▁журналисттин	-10.4051
▁коомчулугу	-10.4052
▁каражаты	-10.4054
▁учурга	-10.4054
▁кагылышуу	-10.4055
▁ком	-10.4059
Ке	-10.4063
▁камоо	-10.4066
▁кетишин	-10.4067
лерин	-10.4069
▁документтерин	-10.4073
▁өлтүрүүгө	-10.4074
▁таратуу	-10.4074
бара	-10.4077
Абадда	-10.4078
▁өткөнү	-10.4081
▁Башында	-10.4081
▁кабат	-10.4082
имов	-10.4088
▁саясатка	-10.4088
кты	-10.4092
▁түш	-10.4099
▁турмушка	-10.41
▁араб	-10.4103
▁уюмуна	-10.4107
▁ишмерлер	-10.411
▁чөп	-10.4112
ель	-10.4117
▁маалыматтык	-10.412
▁акциясына	-10.412
бады	-10.4123
▁арасы	-10.4125
▁Баку	-10.4125
овго	-10.4129
it	-10.4129
▁Назарбаевдин	-10.4131
▁эгерде	-10.4132
▁мигранттары	-10.4133
▁Өзгөн	-10.4138
▁ойло	-10.4139
▁класс	-10.414
▁окутуу	-10.414
ланды	-10.4141
▁56	-10.4143
▁жерине	-10.4145
▁чыгымдар	-10.4151
▁жолдору	-10.4151
▁акчанын	-10.4153
түк	-10.416
▁мусулмандар	-10.416
Х	-10.4161
▁орно	-10.4161
калый	-10.4161
умду	-10.4162
өп	-10.4166
▁ошо	-10.417
лып	-10.417
▁мектептерде	-10.4171
▁жүргүнчү	-10.4173
▁мамилесин	-10.4176
▁кошул	-10.4177
▁эрежелерди	-10.4179
▁иретинде	-10.4182
▁мүнөт	-10.4183
▁токтотту	-10.4188
▁берүүчү	-10.4189
▁кооптонуу	-10.4189
▁жүзү	-10.4192
▁кез	-10.4195
▁берчү	-10.4198
▁жерлер	-10.42
лоп	-10.4204
бизди	-10.4205
▁тартууну	-10.4209
▁товарларды	-10.421
▁берилерин	-10.421
▁бүттү	-10.4211
▁консулдук	-10.4215
ылды	-10.4216
▁жазы	-10.4217
бирин	-10.4218
▁чыгары	-10.4219
▁кулап	-10.4219
▁катышууга	-10.4221
▁кылмыштарга	-10.4221
▁салынып	-10.4222
▁билдирүүсүнө	-10.4224
▁салышкан	-10.4224
▁жарыяла	-10.4224
▁үйлөрдүн	-10.4229
лей	-10.4231
▁Алай	-10.4231
▁бейтаптар	-10.4233
▁отчет	-10.4234
▁көрүнүштөр	-10.4234
▁көрдүк	-10.4235
▁эшик	-10.4237
▁алынганы	-10.4239
▁салт	-10.4247
▁Асел	-10.426
▁артиллерия	-10.4261
▁категория	-10.4261
▁төртүнчү	-10.4261
▁кыскартуу	-10.4261
▁лаборатория	-10.4261
▁чакта	-10.4263
▁чамасында	-10.4265
▁ишкерлердин	-10.4265
▁өндүрүлгөн	-10.4266
▁окуучулары	-10.4271
▁системасына	-10.4273
▁артыкчылык	-10.4274
▁коюш	-10.428
▁жаа	-10.428
▁алдым	-10.4281
▁тартипти	-10.4282
▁Пашинян	-10.4286
▁Штаттарды	-10.4292
так	-10.4298
▁барышы	-10.4299
▁макала	-10.4304
▁ою	-10.4305
▁кеңей	-10.4308
▁мониторинг	-10.4311
▁эсептешет	-10.4311
▁күнөөсү	-10.4312
▁жердин	-10.4313
▁чарчы	-10.4313
▁өзбекстандык	-10.4313
жөнү	-10.4313
▁себептер	-10.4316
▁Кайра	-10.4316
▁51	-10.4319
▁көл	-10.432
▁билбеген	-10.4322
эй	-10.4326
▁муз	-10.433
төө	-10.4332
▁провинциясында	-10.4334
▁айылда	-10.4335
▁агай	-10.4342
пу	-10.4345
талап	-10.4351
▁берем	-10.4352
29	-10.4353
▁интернетте	-10.4353
▁биримдиги	-10.4355
▁ЕАЭБ	-10.4356
▁жатабы	-10.4359
▁англис	-10.436
▁Эне	-10.436
▁карызды	-10.4361
▁Песков	-10.4362
▁кызыктуу	-10.4365
синин	-10.4368
▁коомунун	-10.4372
өгү	-10.4374
▁токтотулган	-10.4377
▁вирусу	-10.4379
▁77	-10.438
зо	-10.4382
▁авто	-10.4384
ндай	-10.439
үмдү	-10.4392
алык	-10.4393
циялык	-10.4394
▁кырк	-10.4394
▁кет	-10.4395
▁такси	-10.4397
▁Жаныбек	-10.4399
▁силер	-10.4399
▁телеканалы	-10.4402
▁музыка	-10.4403
▁тийгизген	-10.4414
▁октябрда	-10.4415
▁маркумду	-10.4415
▁талкаланган	-10.4423
бүлөсүнө	-10.4424
▁булар	-10.4446
▁сүйлөш	-10.4448
▁уу	-10.4451
▁олимпиада	-10.4453
35	-10.4453
▁Канатбек	-10.4457
▁Экс	-10.4461
▁кишилердин	-10.4462
▁салын	-10.4462
▁1991-	-10.4464
▁күтүүсүз	-10.4464
▁аткарыл	-10.4468
ымда	-10.447
▁Абду	-10.4471
▁Иманалиев	-10.4471
▁акыны	-10.4474
▁пайызды	-10.4476
▁Шо	-10.4476
▁толгон	-10.4476
▁билими	-10.4478
▁армян	-10.4479
елерки	-10.4485
▁кимдин	-10.4486
▁жайларды	-10.4492
кат	-10.4496
▁ук	-10.4497
▁үйдү	-10.4497
▁учура	-10.4499
▁атылган	-10.4502
▁аша	-10.4503
▁коёт	-10.4504
ээр	-10.4505
сай	-10.4507
▁х	-10.4512
▁кийинчерээк	-10.4515
▁европалык	-10.4515
мил	-10.4515
▁Жонсон	-10.4515
▁кошулуу	-10.4518
▁ишкананын	-10.4518
▁эсеге	-10.452
▁Ташиевдин	-10.452
▁жиберди	-10.4522
▁жардамчысы	-10.4522
мир	-10.4522
▁ырастаган	-10.4524
▁аппараттын	-10.4526
▁тармакты	-10.4526
▁жаратат	-10.4526
▁му	-10.4527
▁мушташ	-10.4529
▁резолюция	-10.4531
дегенде	-10.4533
▁аткарылышы	-10.4536
▁61	-10.4538
▁кура	-10.454
▁Пригожин	-10.4544
▁Дарыгерлер	-10.4547
▁суусу	-10.455
▁талкуулаган	-10.455
▁жарыя	-10.4553
▁органы	-10.4556
▁сайттар	-10.4557
▁көтөрө	-10.456
▁чечкиндүү	-10.4566
▁жазылат	-10.4567
▁иштетип	-10.4567
▁элчилик	-10.4568
▁колдонулуп	-10.4568
▁коргогон	-10.4569
▁1000	-10.4575
▁отурумунда	-10.458
▁учкан	-10.4581
об	-10.4584
▁шар	-10.4586
▁келүүгө	-10.4587
▁бербеген	-10.459
▁бөлүгүндө	-10.4591
▁байланышты	-10.4594
лген	-10.4599
▁боз	-10.4603
▁документтери	-10.4604
▁кыялы	-10.4604
▁Шаардык	-10.461
саат	-10.4612
▁Молдо	-10.4617
▁жыйынына	-10.4618
кыш	-10.4618
▁News	-10.4619
ологиялык	-10.4619
▁суранган	-10.4619
▁өлтүргөн	-10.4622
▁пландалган	-10.4624
▁окуялары	-10.4626
▁атаандашы	-10.4626
▁саммити	-10.4626
▁такталган	-10.4627
▁ойногон	-10.4628
▁талкуулады	-10.4634
▁баштаганда	-10.464
▁Сан	-10.4642
лоого	-10.4644
▁сурамжылоо	-10.4645
▁көрөт	-10.4646
▁Республикасы	-10.4646
▁Эксперттер	-10.4651
пайт	-10.4653
▁паспортун	-10.4664
абыз	-10.4664
▁жакырчылык	-10.4665
▁өнөктөштөрү	-10.4665
▁жардамга	-10.4666
▁конкреттүү	-10.467
▁Аида	-10.4671
▁Көрсө	-10.4671
▁өчүрүү	-10.4671
▁жолдомо	-10.4674
▁Жок	-10.4674
▁жаткандай	-10.4675
▁[	-10.4675
▁кор	-10.4677
▁Сокулук	-10.4677
▁башташты	-10.4678
▁Биримдигинин	-10.468
▁мүчөлөрүнүн	-10.4689
▁эркиндик	-10.4692
▁Уюм	-10.4692
рап	-10.4694
▁журналисти	-10.4697
▁мекендештер	-10.4702
▁Акча	-10.4704
z	-10.4707
▁Сен	-10.4714
дүктөн	-10.4717
▁шарттары	-10.4718
▁тендер	-10.4719
ибиздин	-10.472
▁акыйкат	-10.4721
▁арачылары	-10.4722
▁Күндүз	-10.4722
▁атактуу	-10.4723
▁Динара	-10.4723
▁Таласта	-10.4727
▁Максим	-10.4728
▁ысымы	-10.4729
▁Ооганстандан	-10.4729
▁юристтер	-10.4729
▁Казакстандан	-10.4731
▁Мария	-10.4732
▁кылымды	-10.4732
▁Демократия	-10.4733
▁Самат	-10.4735
бастан	-10.4736
▁коридор	-10.4737
ана	-10.4739
▁бюджеттин	-10.4739
▁айдап	-10.4741
▁сууну	-10.4747
▁орунду	-10.4752
▁өт	-10.4752
аль	-10.4757
▁жаткандыктан	-10.4762
▁мамилелер	-10.4764
▁Баткендеги	-10.4767
▁айылы	-10.4775
▁Сооронкулова	-10.4775
▁тынымсыз	-10.4775
▁Гүлнара	-10.4775
▁революция	-10.4778
ттар	-10.4779
▁Жон	-10.4779
▁жанын	-10.478
▁Луганск	-10.4783
▁эмеспиз	-10.4784
▁албаса	-10.4784
▁кыймылсыз	-10.4785
▁жетекчилигине	-10.4785
орун	-10.4787
▁Март	-10.4788
▁жаштардын	-10.479
▁Парламентти	-10.4799
▁Молдова	-10.4802
▁пайдаланууга	-10.4806
▁кыйноо	-10.4813
▁пайдасы	-10.4817
▁ишкерлерге	-10.482
▁калгандар	-10.4821
▁Россиянын	-10.4822
▁Он	-10.4826
▁Компани	-10.4826
▁про	-10.4827
▁абзел	-10.4828
▁Ереван	-10.4828
▁сындады	-10.4829
▁жоготуп	-10.4829
аба	-10.483
▁кошумчалаган	-10.483
▁жолугушту	-10.4834
▁оюндарына	-10.4835
илип	-10.4836
▁автор	-10.4838
▁иликтөөнү	-10.484
▁түшүнбөй	-10.4841
▁жайлардын	-10.4842
▁тилек	-10.4844
лышы	-10.4845
▁айткандай	-10.4847
талып	-10.4853
өлү	-10.4853
▁биле	-10.4854
▁көзөмөлүнө	-10.4855
▁чечкен	-10.4855
▁чөйрө	-10.4857
▁Курманкул	-10.4859
▁көздөйт	-10.4859
▁чемпионатында	-10.4861
▁сапат	-10.4863
рбай	-10.4863
дүгү	-10.4866
чылардын	-10.487
мди	-10.4872
▁милициясынын	-10.4873
чуу	-10.4873
бири	-10.4876
▁байкоочулар	-10.4877
▁белек	-10.4878
▁демилгесин	-10.4881
▁Бөлтүрүк	-10.4881
▁Ибраев	-10.4881
▁Жакшы	-10.4881
▁Фото	-10.4882
re	-10.4883
▁тармактар	-10.4885
▁то	-10.4886
▁программасынын	-10.489
▁пландап	-10.4891
▁төлөй	-10.4893
▁күзүндө	-10.4896
▁үчтөн	-10.49
▁мекемелердин	-10.49
▁билдирүүлөр	-10.4903
▁коому	-10.4903
▁шамал	-10.4904
▁видеодо	-10.4904
▁Акаевдин	-10.4919
▁шарттарды	-10.492
▁тажикстандык	-10.4921
▁биротоло	-10.4935
▁өлтүрүп	-10.4935
▁полициянын	-10.4935
▁партиялык	-10.4936
▁оңдо	-10.4939
▁августта	-10.4939
▁төлөм	-10.494
▁Лу	-10.4941
Республика	-10.4944
▁жагын	-10.4945
▁көңүлүн	-10.4946
▁өткөрүлгөн	-10.4946
▁достору	-10.495
▁толтура	-10.4951
▁Мени	-10.4955
▁камап	-10.4958
▁ток	-10.4967
чулук	-10.4968
16	-10.497
▁учактар	-10.4976
лыш	-10.4976
▁Газадагы	-10.4979
▁сомдун	-10.4981
▁өтүнүчүн	-10.4982
▁ашырууга	-10.4983
▁улантууда	-10.4988
▁Энтон	-10.4989
▁Болгону	-10.4991
▁Азияда	-10.4996
еси	-10.4997
▁штабы	-10.5
На	-10.5002
▁коррупцияны	-10.5003
▁чыгууда	-10.5003
лгон	-10.5004
▁Стамбулда	-10.501
▁сектор	-10.5012
▁талаптарын	-10.5012
▁палатасынын	-10.5012
вен	-10.5012
гандар	-10.5013
▁көрдүм	-10.5014
▁бошотууну	-10.5015
Арча	-10.5015
▁автоном	-10.5015
▁чалгындоо	-10.502
▁аскерге	-10.502
▁иштеринин	-10.5022
дүр	-10.5025
▁жашыл	-10.5029
23	-10.5033
чулардын	-10.5037
▁оо	-10.504
▁Лавров	-10.5043
▁масштабдуу	-10.5043
▁Балыкчы	-10.5043
▁Эдил	-10.5044
▁буруп	-10.5045
▁реестрине	-10.5045
▁таппай	-10.5048
K	-10.505
▁жазма	-10.5051
▁Жыйын	-10.5052
▁укуктарынын	-10.5054
▁бой	-10.5055
тивдүү	-10.5055
▁Минск	-10.5058
▁орунга	-10.5062
▁жашай	-10.5062
▁ушуга	-10.5065
▁макамын	-10.5067
▁кыздардын	-10.507
▁кайрыл	-10.5071
▁иштеши	-10.5073
▁көптөн	-10.5074
▁чыккандарды	-10.5074
▁H	-10.5074
▁67	-10.5082
▁пневмония	-10.5083
▁76	-10.5088
▁келдим	-10.509
▁уран	-10.5094
▁тумоо	-10.5095
▁болбогон	-10.5095
▁эвакуация	-10.5096
▁өбөлгө	-10.5097
▁Адатта	-10.5097
▁тыянак	-10.5097
▁токтобой	-10.5097
▁каттамдары	-10.5098
▁дарегине	-10.5098
▁иштегендер	-10.51
▁талкууланган	-10.51
▁белгиси	-10.5101
▁багып	-10.5101
▁жазышты	-10.5104
Өзбекстан	-10.5107
Кытай	-10.5107
▁жоопкерчилигин	-10.5109
▁ачууга	-10.511
▁аяктады	-10.5111
▁дооматтарды	-10.5111
▁Израилге	-10.5112
▁ишенем	-10.5113
▁мамлекеттери	-10.5115
▁Түркмөнстандын	-10.5115
▁тергөөчү	-10.5117
атты	-10.5117
▁эсептейм	-10.512
дугу	-10.5123
▁кеңешине	-10.5129
▁журналисттерди	-10.513
▁Грузиянын	-10.5132
▁мэрия	-10.5132
▁текшер	-10.5136
чарага	-10.5138
13	-10.514
▁Документ	-10.5146
▁каражаттарын	-10.5148
▁барымтага	-10.5152
▁белгиленет	-10.5152
▁ирандык	-10.5152
▁шайланып	-10.5152
▁кабатыр	-10.5153
▁келиш	-10.5154
▁ишенип	-10.5155
ог	-10.5156
мок	-10.5157
▁кошуу	-10.5158
▁жолугушкан	-10.516
▁K	-10.516
▁доллары	-10.5162
▁жапа	-10.5168
иясы	-10.517
▁эсептеп	-10.5175
марттагы	-10.5176
▁64	-10.5178
▁Мак	-10.5179
▁чыгышындагы	-10.5179
▁мамлекеттерде	-10.5185
▁чыгармачылык	-10.5187
▁процесс	-10.5187
▁макамы	-10.5189
▁курсу	-10.519
?!	-10.5199
▁акты	-10.5201
▁козголду	-10.5206
▁айыппул	-10.5207
▁1992-	-10.5207
▁минтип	-10.5207
▁милдет	-10.5208
▁аткарууга	-10.5209
▁талабын	-10.5209
▁Жусуп	-10.521
ерлер	-10.5213
▁булак	-10.5215
▁Катар	-10.5219
▁үйлөрдү	-10.522
▁каттамы	-10.5222
▁Кочкор	-10.5223
▁доору	-10.5226
▁айтыла	-10.5227
▁Лондон	-10.5233
▁токтогон	-10.5237
▁уланат	-10.5238
▁аракеттерге	-10.5243
▁чыгарма	-10.5244
▁объект	-10.5247
дөрү	-10.5248
дорго	-10.5252
▁чогул	-10.5254
▁максатта	-10.5254
▁талибдерди	-10.5258
▁агенттик	-10.526
▁деңгээлин	-10.5261
Ынтымак	-10.5262
лек	-10.5262
▁Шакиев	-10.5262
▁болушунча	-10.5262
лиши	-10.5263
▁сунушталды	-10.5263
▁көбөйгөнүн	-10.5263
▁мамлекеттерге	-10.5265
▁көрсөтүүнү	-10.5267
лордун	-10.5268
,4	-10.5269
▁уюмдарга	-10.5271
▁Түркмөнстанда	-10.5273
▁узартуу	-10.5275
▁Банк	-10.5275
▁формасын	-10.5278
▁шаарга	-10.5279
▁жыйындар	-10.528
▁калаада	-10.5282
▁мамлекеттен	-10.5283
▁күбөлүк	-10.5288
▁ооз	-10.5288
▁чөлкөм	-10.529
▁Венгрия	-10.529
▁ооруган	-10.5293
▁араң	-10.5297
торду	-10.5299
▁жикчил	-10.53
▁жетишпей	-10.5301
▁уга	-10.5304
тел	-10.5304
▁регион	-10.531
▁ырлары	-10.5312
▁мыйзамдарын	-10.5314
аг	-10.5316
январга	-10.5317
Дордой	-10.5317
▁Мелис	-10.5317
▁фактылары	-10.532
▁ансыз	-10.5321
▁өстү	-10.5321
▁ырастап	-10.5325
▁даярдалган	-10.5328
▁көтөр	-10.5329
60	-10.5329
▁технологиялар	-10.5331
▁жасоого	-10.5333
жон	-10.5334
9-	-10.5335
▁тилкесин	-10.5336
бөгөн	-10.5338
▁таанышып	-10.534
▁баскан	-10.5343
▁бошотууга	-10.5346
▁өнөктөшү	-10.5347
▁мамлекетти	-10.535
▁сентябрь	-10.5352
▁жараяны	-10.5352
лерден	-10.5357
ңер	-10.5358
▁дүйнөсү	-10.5362
▁зал	-10.5362
▁эмнеде	-10.5363
алар	-10.5364
▁коркутуу	-10.5365
▁багыттагы	-10.5365
▁аймагын	-10.5373
▁Кадамжай	-10.5373
▁күчөдү	-10.5373
йм	-10.5375
45	-10.5379
▁жүрүүдө	-10.5381
▁башчыларынын	-10.5383
демократтар	-10.5384
АКШ	-10.5385
▁айтса	-10.5391
▁Кадыров	-10.5394
▁кызматташууну	-10.5394
▁катышы	-10.5395
ед	-10.5395
▁Дүйнөдө	-10.5399
▁Азим	-10.54
▁баян	-10.5403
▁(1	-10.5407
эр	-10.541
Масса	-10.542
▁ишмердиги	-10.5424
▁жөнөтүп	-10.5429
▁сырткы	-10.5429
▁Келишим	-10.5429
▁киргизе	-10.543
▁жоголгон	-10.5432
▁орток	-10.5434
▁Америкалык	-10.5437
▁кызматкерлерин	-10.5438
▁кастыкты	-10.5438
▁Ри	-10.5439
▁колдоно	-10.5442
лү	-10.5445
▁улан	-10.5447
▁көрсөтүл	-10.5449
▁калтырып	-10.5453
▁N	-10.5453
айын	-10.5454
▁камера	-10.5457
▁аскерлерди	-10.5458
▁Австралия	-10.5458
▁болдук	-10.5459
▁Путинге	-10.5461
▁сапарга	-10.5461
▁өсүшү	-10.5464
теринин	-10.5466
▁качуу	-10.5467
▁сапатын	-10.5467
▁жашоосу	-10.5474
▁I	-10.5474
▁дедим	-10.5476
▁тилкеси	-10.5477
▁интеграция	-10.5478
▁барганын	-10.548
лоону	-10.5482
▁Токмок	-10.5482
▁кайдан	-10.5483
▁мобилд	-10.5485
▁ниет	-10.5486
▁драма	-10.5486
▁үндөдү	-10.5486
▁жайылтуу	-10.5486
▁Жеке	-10.5487
▁бошотулду	-10.5489
▁көчмөндөр	-10.5489
▁Гу	-10.5489
▁салттуу	-10.549
▁уурдап	-10.5492
▁66	-10.5493
▁күзөт	-10.5494
▁телефондон	-10.5497
▁жыйынын	-10.5504
▁короо	-10.5506
▁2000-	-10.5513
es	-10.5517
▁балага	-10.552
▁редактору	-10.5521
▁президенттери	-10.5521
▁ниети	-10.5521
▁кайтарган	-10.5521
чилер	-10.5526
алган	-10.5526
▁башаламандыктар	-10.5527
▁керектиги	-10.5528
▁айтканын	-10.5531
▁уят	-10.5533
▁импорт	-10.5534
▁кылышы	-10.5537
▁майрамы	-10.5538
▁оюндар	-10.5539
▁Times	-10.5543
▁Бел	-10.5543
▁эрежелер	-10.5544
▁жаабайт	-10.5544
рүп	-10.5545
▁жабылды	-10.5549
▁Сал	-10.5551
▁ижара	-10.5551
▁аялдарды	-10.5553
ибизде	-10.5557
▁теңге	-10.5561
▁телеканалдар	-10.5562
▁ша	-10.5563
▁жазасына	-10.5563
чилик	-10.5569
▁чыгармачыл	-10.5569
лөрүн	-10.5572
Мекеним	-10.5573
▁суроолорду	-10.5577
дыктар	-10.5581
▁жүрүш	-10.5585
▁өкмөттөр	-10.5585
▁59	-10.559
▁бекемде	-10.5591
▁бур	-10.5592
▁товарлардын	-10.5593
▁жогорудагы	-10.5598
од	-10.5598
▁ыйык	-10.56
▁сыртына	-10.56
▁тизмеде	-10.5601
▁технология	-10.5601
▁чынында	-10.5605
ташты	-10.5605
▁Ок	-10.5605
▁Элдин	-10.5607
▁илдеттен	-10.5608
▁сакталган	-10.5608
▁февралда	-10.5611
▁ичине	-10.5612
бал	-10.5613
▁Күч	-10.5613
▁ЖККУ	-10.5615
▁экспорт	-10.5615
богон	-10.5619
щ	-10.5621
▁атомду	-10.5621
▁күз	-10.5623
▁негизи	-10.5629
▁З	-10.5632
▁талдоо	-10.5633
▁көрүүнү	-10.5641
▁мар	-10.5642
▁тааныбай	-10.5642
▁ашууну	-10.5643
▁тобуна	-10.5646
▁кул	-10.5646
▁тастыкта	-10.5648
U	-10.5649
▁депутаттын	-10.5652
▁Саймаити	-10.5652
▁майрам	-10.5656
▁борборлору	-10.5657
▁эмгектенген	-10.5657
▁алынса	-10.5658
▁кийип	-10.5658
▁Токио	-10.5659
▁иликтеген	-10.5661
▁моюнуна	-10.5661
▁жеңиш	-10.5663
▁Министрликтин	-10.5664
Көлдүн	-10.5668
▁колония	-10.567
▁тополоң	-10.567
▁келтирди	-10.5674
▁Өмүр	-10.5675
дыгына	-10.5678
мар	-10.5678
▁иликтөөчү	-10.5693
▁жазында	-10.5693
▁отун	-10.5703
▁берилбей	-10.5704
▁элден	-10.5706
▁көлөмдө	-10.5706
▁билимдүү	-10.5709
▁Отунбаева	-10.5715
▁француз	-10.5715
▁кВт	-10.5715
▁партиясын	-10.5716
▁көрбөгөндөй	-10.5716
тпай	-10.5717
▁73	-10.5718
▁билдирүүлөрү	-10.5718
тогу	-10.5719
▁Американын	-10.5721
▁себептери	-10.5724
▁инвесторлор	-10.5724
▁акысын	-10.5726
беген	-10.5726
▁O	-10.5731
▁маанай	-10.5731
▁учактары	-10.5732
▁түзүлүш	-10.5734
▁ӨКМ	-10.5736
ch	-10.5738
▁чар	-10.5747
зомбулук	-10.5749
▁ойлогон	-10.5754
▁кызматтары	-10.5757
▁системалары	-10.5769
▁Карабак	-10.5771
▁саякат	-10.5773
▁ушинтип	-10.5773
▁байкалган	-10.5773
▁сексуалдык	-10.5773
▁Көпчүлүк	-10.5774
▁достук	-10.5774
▁жиберип	-10.5774
▁кабарлашты	-10.5774
▁коштолгон	-10.5775
▁агент	-10.5775
▁мурас	-10.5778
▁Эш	-10.578
▁Гани	-10.5781
▁тир	-10.5789
▁84	-10.5791
▁жазат	-10.5791
Синин	-10.5792
мөк	-10.5792
▁78	-10.5794
31	-10.5794
үлүп	-10.5794
▁балам	-10.5795
▁айтсак	-10.5796
▁келишимине	-10.5796
там	-10.5797
▁учуу	-10.5798
▁бүтө	-10.5798
▁Долбоор	-10.5799
▁тагдыр	-10.5802
▁ил	-10.5802
анов	-10.5803
Талибандын	-10.5805
▁башкарууга	-10.5805
▁келишин	-10.5808
▁багыты	-10.5809
гыдай	-10.581
▁диплом	-10.5811
▁айылдык	-10.5812
▁чыгарат	-10.5816
▁операциясы	-10.5818
Бука	-10.5822
▁сүрөттө	-10.5824
жу	-10.5824
▁Бабанов	-10.5824
▁Виктор	-10.583
Коргон	-10.5831
▁топто	-10.5831
▁кайрымдуулук	-10.5832
▁байланыштырган	-10.5833
ула	-10.5833
▁сезген	-10.5834
▁аракетине	-10.5837
▁кичине	-10.5838
Кыя	-10.5842
Түндүк	-10.5846
кыргыз	-10.5846
▁парламенти	-10.5848
▁муктаждык	-10.585
▁сакталышы	-10.5854
тек	-10.5856
▁баракчасында	-10.5858
▁Ки	-10.5859
▁кампа	-10.5863
▁киришкен	-10.5864
▁гол	-10.5865
▁кароого	-10.5865
▁эмнени	-10.5865
лю	-10.5867
▁башкаруучу	-10.5868
▁Ис	-10.5869
▁кетерин	-10.5873
▁Эмнеге	-10.5874
▁окуялардан	-10.5875
▁ра	-10.5881
▁кырсыкта	-10.5885
▁Бакиров	-10.5886
тти	-10.5887
▁Аль	-10.5889
ктар	-10.5889
▁ашкере	-10.589
▁Евгений	-10.589
▁Жылдыз	-10.5891
▁келдик	-10.5891
▁депортация	-10.5892
▁Курулуш	-10.5892
▁орусча	-10.5892
▁тобун	-10.5894
▁Роза	-10.5895
сунан	-10.5897
лорго	-10.59
берене	-10.59
▁жеңген	-10.59
▁жазышкан	-10.5906
▁өлкөсү	-10.5915
▁E	-10.5916
▁беренелер	-10.592
шкен	-10.5923
▁ишкердик	-10.5926
▁таанышты	-10.5928
лог	-10.5928
лүктү	-10.5929
чусу	-10.5931
▁доор	-10.5933
▁жолдорду	-10.5941
▁башкаларга	-10.5941
▁кайсыл	-10.5944
▁алына	-10.5948
▁делегация	-10.5948
▁искусство	-10.595
▁одоно	-10.595
▁Клара	-10.595
▁Рыс	-10.5951
▁Индиянын	-10.5952
▁балл	-10.5954
▁79	-10.5956
президенти	-10.5956
▁туткундарды	-10.5961
иге	-10.5963
▁уткан	-10.5964
▁мүмкүнчүлүгүн	-10.5965
▁түрлөрү	-10.5966
▁билүү	-10.5969
▁атаандаштык	-10.597
чак	-10.5971
▁доза	-10.5973
▁кас	-10.5978
декабрында	-10.5982
▁Чехия	-10.5982
▁алыста	-10.5983
жылдарды	-10.5984
▁төлөгөн	-10.5987
Ай	-10.5989
жылдардагы	-10.5991
▁сол	-10.5993
▁чагымчыл	-10.5995
▁маяна	-10.5996
▁программасын	-10.6002
▁кооз	-10.6003
кир	-10.6005
рда	-10.6006
▁позициясы	-10.6006
▁кишилерди	-10.6008
▁Исхак	-10.6009
▁жалданма	-10.6009
▁Эмилбек	-10.601
▁бөлүштүрүү	-10.6011
▁туристтик	-10.6011
▁ызы	-10.6012
▁ты	-10.6014
▁мажбурлап	-10.6014
▁азыраак	-10.6014
▁Кел	-10.6016
тууга	-10.6016
▁жеткенин	-10.6016
▁берилиши	-10.6018
▁артисти	-10.6018
рүн	-10.6019
пей	-10.6019
27	-10.602
▁чал	-10.6022
▁оорукананы	-10.6024
мент	-10.6029
▁министрлери	-10.603
▁жатышкан	-10.6031
▁жамааты	-10.6035
ттик	-10.6036
▁эти	-10.6037
▁билбейт	-10.6041
▁баштаганы	-10.6042
ыбыздын	-10.6046
▁титирөө	-10.6048
▁жогоруда	-10.6051
▁W	-10.6053
▁окуй	-10.6057
▁Газада	-10.606
▁абалына	-10.6061
▁ача	-10.6062
▁объектилер	-10.6063
иде	-10.6066
саң	-10.6066
▁мүлкүн	-10.6067
Клооп	-10.6067
▁режим	-10.6067
▁сахна	-10.6069
▁айыптар	-10.6074
▁Мээрим	-10.6074
▁кант	-10.6077
▁эмдөөдө	-10.6082
▁чагылдырган	-10.6084
▁кыларын	-10.6084
дөрдү	-10.6085
▁чындыкка	-10.6088
▁келечек	-10.6088
▁турарын	-10.609
▁Францияда	-10.6091
▁туристтер	-10.6094
▁130	-10.6095
▁башталышы	-10.6095
▁жумушчулар	-10.6097
▁стандарт	-10.6098
тро	-10.61
▁аянтча	-10.6107
▁буруу	-10.6112
рей	-10.6115
күр	-10.6117
▁чында	-10.6117
▁Камчы	-10.6118
▁барганы	-10.612
▁кийлигишүү	-10.6123
▁байланышып	-10.6125
▁интервью	-10.6129
▁Жыйынтыгында	-10.613
▁теракт	-10.613
am	-10.613
▁Бизди	-10.613
▁майыптыгы	-10.613
▁кримтөбөл	-10.6132
▁жекшемби	-10.6135
▁клиникалык	-10.6137
▁департаменти	-10.6137
▁себептүү	-10.6139
▁маалымдагандай	-10.6143
▁акциясын	-10.6151
▁ташы	-10.6151
▁дарылануу	-10.6151
▁жеген	-10.6153
▁коро	-10.6153
Петербург	-10.6153
▁каналына	-10.6154
▁Казакбаев	-10.6155
▁жерлерге	-10.6155
▁жолугушуулар	-10.6159
▁кулаган	-10.616
▁кылмыштар	-10.6161
▁режимде	-10.6166
▁атуу	-10.6168
▁шаарды	-10.617
▁макулдашууну	-10.6173
▁Медет	-10.6178
▁Киевдин	-10.6183
▁тармак	-10.6184
▁жекшембиде	-10.6185
▁декларация	-10.6186
▁кенди	-10.6189
▁бал	-10.6189
▁Аламүдүн	-10.619
▁демек	-10.6192
▁Акматов	-10.6194
▁Белгиле	-10.6194
▁жанына	-10.6196
▁коюшат	-10.6197
▁мурдараак	-10.6199
▁гезити	-10.6199
▁өткү	-10.6201
Ө	-10.6202
▁Сариев	-10.6202
▁өнөктөштөр	-10.6203
▁ишмердигине	-10.6206
▁тынчтыкты	-10.6207
▁180	-10.6208
▁баласын	-10.6209
▁спорттук	-10.6209
▁жашар	-10.6211
▁СССРдин	-10.6212
шип	-10.6212
▁Түркиядан	-10.6216
▁ооруну	-10.6219
▁катышуусунда	-10.6221
▁95	-10.6224
▁кылдат	-10.6226
▁72	-10.6226
▁эм	-10.6228
▁өзгөртүүгө	-10.623
▁калкты	-10.6231
▁жоктугу	-10.6235
▁Алты	-10.6236
▁ишканалардын	-10.6236
▁тасмасы	-10.6237
▁вакцинасы	-10.6238
▁чыңдоо	-10.6239
▁ролун	-10.624
▁майып	-10.6241
сер	-10.6242
▁Атамбаевди	-10.6244
январдагы	-10.6251
Озоди	-10.6251
▁Мексика	-10.6251
▁квота	-10.6251
▁этият	-10.6251
▁сүйлө	-10.6254
▁тамыр	-10.6254
▁80%	-10.6261
дигин	-10.6263
апрель	-10.6267
▁эрки	-10.6272
▁көргөзмө	-10.6273
▁байлыгы	-10.6282
▁британ	-10.6284
▁базасы	-10.6288
▁мыйзамы	-10.6288
▁унаалар	-10.6289
▁жаңылык	-10.629
▁алардан	-10.6292
▁Партия	-10.6293
▁ашпай	-10.6297
▁кургак	-10.6306
▁аэропортто	-10.6306
▁кайна	-10.6308
▁Никол	-10.6312
▁Абдирасулова	-10.6312
▁Соода	-10.6312
▁добуштарды	-10.6313
▁IT	-10.6313
▁Орхан	-10.6314
инди	-10.6317
▁палата	-10.6317
▁Вирус	-10.6318
жер	-10.6319
▁алабы	-10.6321
▁алыскы	-10.6322
▁кызыкчылыгына	-10.6322
▁ачты	-10.6322
▁Өзбек	-10.6323
▁ураан	-10.6326
▁тизмесинде	-10.6328
W	-10.6329
болот	-10.6331
▁мүмкүнчүлүктөрү	-10.6334
▁жем	-10.6335
▁видеого	-10.6338
▁Комиссия	-10.6343
▁болгонуна	-10.6347
at	-10.6348
ыбызга	-10.6354
▁баяндамасында	-10.6356
▁кайдыгер	-10.6358
алды	-10.6364
▁басылма	-10.637
▁көзөмөлдү	-10.6373
▁жетпеген	-10.6374
▁Болбосо	-10.6374
▁күтүлүп	-10.6374
▁Масалиев	-10.6375
▁айтуусунда	-10.6375
▁даярданып	-10.6376
▁жандандыруу	-10.6377
▁мелдеш	-10.6378
▁күчөтүлгөн	-10.6379
▁баалаган	-10.6381
▁айыптарды	-10.6381
ону	-10.6383
мүн	-10.6385
▁110	-10.6387
Журт	-10.6391
▁өлчөмүндө	-10.6391
▁акчалай	-10.6392
ыптыр	-10.6395
▁президентти	-10.6398
▁каналы	-10.6399
▁тартыштыгы	-10.64
▁Парламенттик	-10.6401
▁көйгөйү	-10.6403
▁алуунун	-10.6404
▁аткаминер	-10.6406
▁мурасы	-10.6406
▁электе	-10.6407
▁тапканын	-10.6408
▁Литва	-10.6409
▁өзгөрүшү	-10.6412
▁кечке	-10.6417
▁аракеттерине	-10.6418
▁пайдаланган	-10.6421
▁чагым	-10.6423
▁Алматыда	-10.6424
▁Жай	-10.6428
▁Мырза	-10.6436
▁нуска	-10.6436
▁агып	-10.6436
▁белгилешти	-10.6436
▁Абдулла	-10.6437
▁ойлонуп	-10.6437
▁кимди	-10.6437
▁каралууда	-10.644
▁жеткирген	-10.644
▁түшүнгөн	-10.6442
▁бекети	-10.6448
▁алчу	-10.6448
▁калыш	-10.645
▁мүмкүндүгүн	-10.6462
▁камалышы	-10.6464
▁ноябрь	-10.6471
▁имаратынын	-10.6472
▁өмүрүнө	-10.6478
▁Нарматова	-10.6481
▁бийликтеги	-10.6482
▁катышканы	-10.6485
▁отурду	-10.649
▁Аз	-10.6491
▁Грузияда	-10.6492
▁чыгарбай	-10.6493
▁билдирүүсүн	-10.6495
▁корутунду	-10.6495
▁башаламандыкка	-10.6497
▁адиси	-10.6497
▁Монголия	-10.6499
▁координация	-10.6499
▁Нетаньяху	-10.6499
▁Одесса	-10.6499
▁очогу	-10.6499
▁тиги	-10.65
▁Кул	-10.6501
▁жолдошу	-10.6504
▁АЭС	-10.6506
▁асыл	-10.6508
▁Нарында	-10.6509
▁борборун	-10.651
▁теги	-10.6511
▁келчү	-10.6511
онун	-10.6512
▁колдонулат	-10.6513
▁саясатчылардын	-10.6514
рия	-10.6514
▁айларда	-10.6516
▁Кайрат	-10.6529
▁жоокерлер	-10.6529
пикир	-10.653
▁97	-10.6533
ең	-10.6534
▁сүрөтү	-10.6535
▁R	-10.6536
▁бирөөлөр	-10.6537
▁ракеталар	-10.6538
▁кези	-10.6541
▁карала	-10.6543
▁арызды	-10.6546
▁Эсен	-10.6549
▁кармалгандарды	-10.6554
▁кеңейтүү	-10.6555
▁Киевде	-10.656
▁Алишер	-10.6562
▁бошотуп	-10.6562
▁жатакана	-10.6564
▁кодексине	-10.6566
▁бекет	-10.6566
▁доктору	-10.6568
▁жобо	-10.6568
▁автоунаасы	-10.6569
▁өтсө	-10.657
▁Эгемендик	-10.6571
▁жуктурган	-10.6571
▁Каржы	-10.6572
▁жеңиши	-10.6573
▁нерсеге	-10.6573
▁Сер	-10.6575
дарына	-10.6575
видео	-10.658
▁абак	-10.6582
▁спикер	-10.6582
▁билем	-10.6586
▁мазмуну	-10.6588
▁өтчү	-10.6589
▁эрежесин	-10.659
▁кылгандар	-10.6591
▁түрмөдөн	-10.6596
▁жамаат	-10.6599
▁прокурору	-10.6604
▁чыңалуу	-10.6605
▁69	-10.6606
жыныстык	-10.6615
эт	-10.6624
▁актуалдуу	-10.6625
▁жеткиликтүү	-10.6625
▁Добуш	-10.6625
▁BBC	-10.6625
▁сезип	-10.6625
▁тартылды	-10.6625
▁кыйылды	-10.6625
рүү	-10.6627
туруму	-10.6627
▁кызматты	-10.6627
Фейсбук	-10.6628
▁Тоо	-10.6628
▁келишимде	-10.6629
▁жүргүзүлөт	-10.6629
▁сай	-10.6633
▁Апрель	-10.6635
▁бүткөндө	-10.6638
▁аралын	-10.664
▁болдум	-10.664
▁үйлөрүнө	-10.6642
▁берилбейт	-10.6643
▁өлкөлөрдөгү	-10.6643
▁дале	-10.6646
▁би	-10.6647
▁апрелде	-10.665
ганда	-10.6651
▁доомат	-10.6652
евич	-10.6653
терде	-10.6659
▁төртөө	-10.6659
▁каалоосу	-10.666
▁университети	-10.6666
▁киргизүүгө	-10.6667
▁айдоо	-10.6669
акта	-10.6671
▁Ү	-10.6673
▁Ман	-10.6675
▁процесстер	-10.6676
▁тергөөнүн	-10.6678
ңыздар	-10.6679
▁жактоочулары	-10.6679
▁апа	-10.6684
▁тоскоол	-10.6686
▁келтире	-10.6688
▁Тыныбекова	-10.6688
▁адабий	-10.6688
▁апелляция	-10.6688
▁аудио	-10.6688
январында	-10.6688
▁жөнөттү	-10.6688
▁бирөөнүн	-10.6689
мит	-10.6689
▁түндө	-10.669
▁талдап	-10.669
▁көтөрүлүш	-10.669
▁жүктөлгөн	-10.6692
▁жетишти	-10.6693
▁саясатты	-10.6694
▁Силер	-10.6697
▁керектөө	-10.6699
▁экономикага	-10.6701
▁берилгени	-10.6705
▁жаңыдан	-10.6706
жөнүн	-10.6706
▁Е	-10.6708
▁Жаштар	-10.6708
▁учурган	-10.6708
▁директор	-10.6709
▁мин	-10.671
▁үйүнөн	-10.6712
лыктар	-10.6716
▁негиздеген	-10.6716
▁келиндин	-10.6717
кайра	-10.6717
▁фронт	-10.6729
▁жерин	-10.6733
▁Кош	-10.6733
▁келишимин	-10.6737
▁башкарууну	-10.6738
маалы	-10.6739
80	-10.6739
үүнү	-10.674
▁видеону	-10.6746
▁блок	-10.6748
▁инстанция	-10.6753
▁Ворух	-10.6753
▁тартибин	-10.6753
▁жеңилдетилген	-10.6753
▁2007-	-10.6754
▁акцияларын	-10.6758
▁досу	-10.676
▁сүрөткө	-10.676
▁айы	-10.6762
рон	-10.6771
▁китепкана	-10.6772
▁талкуулар	-10.6773
▁лидерлеринин	-10.6776
▁жардамды	-10.6781
▁тарады	-10.6781
▁сатыл	-10.6784
▁Бектур	-10.6785
▁Швеция	-10.679
▁тартибине	-10.6791
Нур	-10.6792
даш	-10.6793
▁мейманкана	-10.6793
аа	-10.68
▁жарандыгы	-10.6802
▁турушкан	-10.6803
▁бузул	-10.6804
▁башындагы	-10.6808
▁табылганын	-10.6809
▁ЖМК	-10.681
▁калааны	-10.6811
▁өлчөмү	-10.6811
▁Өзбекстандан	-10.6815
▁жактоочусу	-10.6816
▁ВИЧ	-10.6817
▁жамгыр	-10.6817
▁геосаясий	-10.6817
▁көрүлүп	-10.6818
бүлөдө	-10.6818
▁өндүргөн	-10.6819
▁барууда	-10.6819
▁жообу	-10.6825
▁ушунчалык	-10.6826
▁колдонуучулары	-10.6838
▁чач	-10.6839
▁басылмасынын	-10.6842
▁куткаруучулар	-10.6843
▁жүргүзүүдө	-10.6843
▁куралы	-10.6847
28	-10.6848
▁акыйкатчы	-10.6851
▁калп	-10.6851
▁уюмдары	-10.6852
▁интернетке	-10.6856
▁Бал	-10.6857
▁Го	-10.6857
▁көйгөйдү	-10.6857
мед	-10.6859
▁сактагыч	-10.6863
▁утту	-10.6864
▁кү	-10.6865
▁тапшыр	-10.6865
Алай	-10.6866
▁кармалгандар	-10.6867
▁урган	-10.6868
лим	-10.6871
▁кардарлар	-10.6878
цио	-10.6878
▁кубаттуу	-10.6878
▁жоготуулар	-10.6878
V	-10.688
▁окшогон	-10.6882
▁өйдө	-10.6882
▁Бадахшан	-10.6885
лыкты	-10.6885
мей	-10.6885
▁чуркап	-10.6888
чүлөрдүн	-10.6891
▁азайган	-10.6892
▁жылдагы	-10.6895
▁коргой	-10.6897
▁көбүн	-10.69
▁Жумабеков	-10.69
▁сүрөтүн	-10.6901
▁тармактагы	-10.6904
▁кагылыш	-10.6904
▁сиздин	-10.6905
▁жаңылыктар	-10.6907
▁төлөмдөр	-10.6909
Алтын	-10.6915
▁Пакистанда	-10.6916
▁мыйзамына	-10.6918
▁Айрымдары	-10.6919
▁Конституцияны	-10.6919
Ми	-10.692
торлор	-10.6926
ic	-10.6927
▁мамилелерди	-10.6928
▁куу	-10.6929
▁ишенбей	-10.693
▁курмандыгы	-10.6933
▁жаратууда	-10.6933
▁87	-10.694
▁жары	-10.6942
▁инвестор	-10.6943
▁өкүлчүлүгү	-10.6943
иф	-10.6944
Газпром	-10.6947
▁Абдрахманов	-10.6947
▁Болгария	-10.6947
▁Тихановская	-10.6947
▁түйшүк	-10.6947
▁практика	-10.6947
▁сиңирген	-10.6947
▁кайталап	-10.6951
▁жеткирилди	-10.6951
▁климат	-10.6956
▁кылышат	-10.6957
одо	-10.6957
▁чалдыккандарды	-10.6959
▁ас	-10.6961
▁колдо	-10.6966
▁жааган	-10.6967
▁кум	-10.6969
▁мөөнөттө	-10.6972
лукка	-10.6973
▁келинген	-10.6973
сек	-10.6974
чөйрөнү	-10.6975
▁Ооганстанга	-10.6975
▁өзүнөн	-10.6978
▁телеканалынын	-10.6985
▁изи	-10.6986
▁албады	-10.6987
▁компанияга	-10.6987
▁авторлору	-10.6988
▁салымы	-10.6989
▁тарыхта	-10.6989
эс	-10.6992
▁келишимдер	-10.6995
▁мелдештер	-10.6997
▁алуучу	-10.6998
дардан	-10.6999
▁соңуна	-10.7003
▁режиссер	-10.7003
▁жарыялоо	-10.7004
▁чыгармалары	-10.7007
▁катмар	-10.7008
▁Тил	-10.7011
▁Керек	-10.7012
▁поезд	-10.7013
▁Игор	-10.7013
▁учакты	-10.7013
хар	-10.7013
▁тийгизип	-10.7014
▁атайылап	-10.7014
▁коштоп	-10.7014
▁аль	-10.7014
▁буларга	-10.7016
▁зона	-10.7017
лады	-10.702
▁түзүлөт	-10.702
▁жеңүүчү	-10.702
тра	-10.702
▁пайызын	-10.7023
▁бөлгөн	-10.7025
▁улантыл	-10.7028
▁иштетүүгө	-10.7028
▁институт	-10.703
советтик	-10.7034
бөлүгү	-10.7035
▁кызматында	-10.7039
▁Активист	-10.704
▁түзөтүү	-10.7044
▁иштегени	-10.7044
бор	-10.7045
▁билдирүүлөрдү	-10.7046
▁сүйлөшүүгө	-10.7046
▁соккусуна	-10.7046
▁Жыйында	-10.7048
▁Тарых	-10.705
жылдар	-10.7051
▁ээн	-10.7053
▁тигил	-10.7055
▁унут	-10.7057
▁узар	-10.706
▁маданияты	-10.7061
▁катардагы	-10.7066
▁жылкы	-10.7067
▁бизнести	-10.7068
▁жукту	-10.707
▁иликтөөгө	-10.7072
▁дыйкандар	-10.7073
▁айылга	-10.7077
▁асман	-10.7078
▁жөлөк	-10.7079
▁Январь	-10.7079
▁билдиришинче	-10.7079
▁дүрбөлөң	-10.7079
▁өлдү	-10.7079
ra	-10.708
▁2003-	-10.708
▁күрөө	-10.708
▁убакытты	-10.7081
▁түндүгүндөгү	-10.7081
▁жайды	-10.7084
▁Дос	-10.7084
▁жапкан	-10.709
▁алсыз	-10.7091
▁Экөө	-10.7092
Се	-10.7094
▁оп	-10.7096
▁Фа	-10.7096
▁министрдин	-10.7096
▁көпкө	-10.7096
▁бакчалар	-10.7097
▁элита	-10.7101
Ордо	-10.7101
▁Кеңешинин	-10.7101
▁санаа	-10.7101
техникалык	-10.7101
▁ачы	-10.711
▁утур	-10.7111
▁өкүн	-10.7112
▁калчу	-10.7115
▁Тар	-10.7116
мб	-10.712
▁тий	-10.7121
баганы	-10.7121
▁колун	-10.7123
▁арал	-10.7125
▁коопсуздукка	-10.7125
▁чатак	-10.7127
▁Абдул	-10.7129
▁кечир	-10.7131
Тал	-10.7132
▁Ши	-10.7133
▁урду	-10.7134
өсү	-10.7136
▁Чүйдө	-10.7137
▁жолуна	-10.7142
▁бердик	-10.7143
▁Искендер	-10.7146
▁пропаганда	-10.7146
▁өзгөрдү	-10.7146
▁палатасы	-10.7146
лөө	-10.7147
▁көрүнгөн	-10.7147
▁урмат	-10.7147
▁каптап	-10.7147
▁организм	-10.7148
▁алмашкан	-10.7149
▁сапаттуу	-10.715
▁000	-10.7151
▁форматта	-10.7151
▁түркиялык	-10.7152
▁өтүнгөн	-10.7153
▁Кабулда	-10.7156
▁дегени	-10.7157
▁райондо	-10.7158
күлдөр	-10.7158
сүнүн	-10.7158
улуп	-10.7158
пак	-10.7162
▁жайылган	-10.7162
▁парад	-10.7162
▁зыяны	-10.7163
▁ашат	-10.7163
▁болгондой	-10.7165
дашкан	-10.7165
▁аралыктан	-10.7166
▁өсүш	-10.7166
▁жакындарынын	-10.7167
▁өзгөргөн	-10.7169
▁ооруга	-10.7171
200	-10.7173
▁жетекчилеринин	-10.7175
▁Бийликти	-10.7175
фер	-10.7188
▁900	-10.7189
рал	-10.7189
▁анклав	-10.7192
▁комплекс	-10.7194
▁кылымда	-10.7201
аягы	-10.7202
▁сандар	-10.7202
▁кетчү	-10.7203
▁Инанды	-10.7205
▁Шах	-10.7207
▁өкүлүнүн	-10.7208
▁жүздө	-10.721
лорун	-10.721
▁тосмо	-10.721
▁куугунтукка	-10.7213
▁Айзада	-10.7213
▁Кулубаев	-10.7213
▁жараксыз	-10.7213
▁акционердик	-10.7213
▁бүтүм	-10.7213
▁ылдамдыгы	-10.7217
▁архитектура	-10.7218
▁тыш	-10.7218
▁каралды	-10.7219
▁көрүнөт	-10.722
▁тартылат	-10.7221
Му	-10.7222
▁ачылат	-10.7223
стин	-10.7226
▁экспорту	-10.7228
ски	-10.723
▁заводу	-10.7232
▁шарттарын	-10.7235
▁издеген	-10.7236
▁чуу	-10.7236
▁дос	-10.7252
▁ишмердүүлүгү	-10.7257
▁Так	-10.726
▁ыш	-10.7261
▁анти	-10.7261
▁үйүн	-10.7264
us	-10.7273
▁Но	-10.7274
▁Москвадан	-10.7275
▁бо	-10.7276
▁Уюму	-10.7277
▁аймактар	-10.728
▁башталганда	-10.728
▁Басылма	-10.7281
▁сценарий	-10.7281
▁кабарланууда	-10.7281
▁ажыраткан	-10.7281
▁Курск	-10.7282
▁Ниязов	-10.7282
▁Деген	-10.7282
▁Эртең	-10.7282
▁Темирлан	-10.7283
▁Кас	-10.7284
▁тийгизет	-10.7286
▁агенттиктин	-10.7286
▁Дүйшөн	-10.7289
сар	-10.7292
▁көчө	-10.7292
▁айылдын	-10.7292
▁коюлат	-10.7293
тура	-10.7295
▁пресс	-10.7299
ттер	-10.7302
▁50%	-10.7304
медициналык	-10.7304
▁жак	-10.7304
▁катталганын	-10.7305
▁четиндеги	-10.7306
▁кылбай	-10.7309
▁мамлекеттеринин	-10.7309
мдын	-10.7311
▁университетинде	-10.7316
▁Махмудов	-10.7318
До	-10.732
▁тилкесине	-10.7322
▁Жар	-10.7323
▁кыйылган	-10.7325
▁Асылбек	-10.7326
▁кий	-10.7327
▁ач	-10.7328
ыма	-10.7329
▁жазалоо	-10.7331
▁баштоо	-10.7331
З	-10.7333
▁жумша	-10.7335
▁зыяндуу	-10.7337
▁конуштар	-10.7339
▁кириши	-10.7341
▁болгу	-10.7343
▁мыйзамдарына	-10.7346
▁түзө	-10.7347
▁чап	-10.7348
▁башпаанек	-10.7349
▁трагедия	-10.7349
▁эптеп	-10.7349
▁2006-	-10.7349
▁сүрүп	-10.7349
▁казы	-10.7352
▁чектешкен	-10.7352
▁айыкты	-10.7352
▁түшпөй	-10.7354
▁изде	-10.7355
▁борбордо	-10.7356
▁калышат	-10.7356
▁жолдогон	-10.7356
▁Чу	-10.7356
▁даярдалып	-10.7357
▁брифингде	-10.7357
▁жарыш	-10.7358
▁автобустар	-10.7359
▁куту	-10.736
▁аймактардагы	-10.7363
▁принциптер	-10.7365
▁төлөөгө	-10.7366
▁мүмкүндүк	-10.7366
▁активисттердин	-10.7366
▁тыкы	-10.7367
▁заттар	-10.7372
▁кач	-10.7373
▁ит	-10.7374
бөгөнү	-10.7376
▁келебиз	-10.7381
▁30%	-10.7382
ант	-10.7382
▁январда	-10.7384
▁сунуштарды	-10.7385
▁тарапты	-10.7386
▁сүйлөшүүсү	-10.7387
▁улана	-10.7388
▁кайтарылган	-10.7389
▁босого	-10.7391
▁жабыркагандар	-10.7393
ез	-10.7393
юк	-10.7396
штырып	-10.7397
рдык	-10.74
▁аталышта	-10.7405
адам	-10.741
үшкөн	-10.741
▁Абдрахматова	-10.7417
▁Прокуратура	-10.7417
▁үстөмдүк	-10.7417
▁бешинчи	-10.7417
▁тамеки	-10.7417
▁тилди	-10.7418
▁Курсан	-10.7418
▁авиация	-10.7418
▁Памир	-10.7418
Бел	-10.7421
▁ипотекалык	-10.7423
▁түзүмдөрү	-10.7429
▁эртеси	-10.7431
бүлөлөр	-10.7433
▁көчөсүндө	-10.7436
▁кайгы	-10.7438
▁көргөз	-10.7439
октябрь	-10.7441
ттын	-10.7442
▁буту	-10.7444
▁келери	-10.7444
▁темасы	-10.7448
▁тараптардын	-10.7449
▁ыры	-10.7452
майдан	-10.7461
▁конференция	-10.7462
▁Мэрия	-10.7462
▁Марк	-10.7469
▁Польшанын	-10.7469
▁Осмон	-10.747
▁урулган	-10.7475
▁тоскоолдуктар	-10.7476
иза	-10.7478
▁тилкелерин	-10.7479
▁Каза	-10.748
▁сүрөттөр	-10.7481
Бо	-10.7482
▁байке	-10.7485
▁сүзүп	-10.7486
▁Олимп	-10.7486
▁биригип	-10.7486
▁бузганы	-10.7487
▁чаап	-10.7487
▁жеңе	-10.7488
▁криминал	-10.7489
▁КСДП	-10.7493
▁катмары	-10.7494
▁71	-10.7494
▁дарыгери	-10.7495
▁суроону	-10.7495
▁адеп	-10.7497
пикирлер	-10.7497
▁билдир	-10.7498
▁Кээде	-10.7503
▁байлык	-10.7504
▁бюджеттик	-10.7504
айым	-10.7506
▁бөлүктөрү	-10.7506
x	-10.7508
▁таймаш	-10.7509
▁Ван	-10.7511
▁колдойт	-10.7513
▁ча	-10.7515
▁комиссиясына	-10.752
▁академиясы	-10.7524
▁негизгиси	-10.7526
про	-10.7526
▁инфекциясы	-10.7529
▁учактарды	-10.7529
▁мүнөздө	-10.7534
чараны	-10.7543
аң	-10.7543
▁башкармалыгына	-10.7544
▁жою	-10.7545
▁98	-10.755
▁тапса	-10.755
▁республиканын	-10.7551
иешелүү	-10.7555
▁Талибдер	-10.7556
▁сейил	-10.7556
▁сертификат	-10.7556
▁израилдик	-10.7556
▁Алтын	-10.7556
▁жалаа	-10.7556
▁канаттуу	-10.7557
▁кадимкидей	-10.7558
▁ажал	-10.7559
▁сунушталып	-10.7559
▁кесепеттерин	-10.756
▁Ирина	-10.7563
▁макулдук	-10.7566
▁музыкалык	-10.757
▁ажылык	-10.7573
▁үмүтү	-10.7574
▁чабуулунан	-10.7576
▁архив	-10.7582
▁университет	-10.7587
▁ишинде	-10.7587
▁сезим	-10.7588
▁кызматташууга	-10.7589
бери	-10.7595
чатак	-10.7596
▁кетишине	-10.7598
▁сыртта	-10.7598
▁көрсөтүүдө	-10.7601
▁алакасы	-10.7608
▁жуу	-10.7608
▁жүгүртүү	-10.7608
▁акчага	-10.761
▁каналдар	-10.7611
▁ыкмасы	-10.7612
▁системаны	-10.7616
▁из	-10.7619
▁мунаса	-10.7626
▁карамагына	-10.7626
▁чыккынчылык	-10.7626
майынча	-10.7626
▁Талкуу	-10.7626
▁тутанган	-10.7626
▁дайындаган	-10.7626
▁уюштурулуп	-10.7626
▁74	-10.7633
▁аяктайт	-10.7633
▁кадрлар	-10.7634
Реформа	-10.7635
▁аталып	-10.7635
▁финалга	-10.7638
▁чыгаша	-10.7638
▁качкын	-10.7639
▁күрөштү	-10.7639
▁нан	-10.764
▁барса	-10.7642
▁Шинжаңдагы	-10.7643
▁каттамдар	-10.7646
▁каш	-10.7647
▁жаратуу	-10.765
▁пайдасына	-10.7651
чук	-10.7658
Казакстан	-10.7659
тация	-10.766
▁чыгармаларын	-10.7666
▁тамыры	-10.7667
▁жел	-10.7667
▁Сотто	-10.7668
▁топту	-10.7669
▁агым	-10.7669
▁ысы	-10.7672
▁ынтымак	-10.7672
7-	-10.7672
класс	-10.7673
▁оюндарынын	-10.7674
▁өчүр	-10.7679
▁кетпей	-10.768
▁сүйлөштү	-10.7685
▁аза	-10.7686
▁уруксаты	-10.769
▁резерв	-10.7691
кет	-10.7693
▁операциясын	-10.7695
▁Rights	-10.7696
▁Назгүл	-10.7696
▁орчундуу	-10.7696
▁ыктыяры	-10.7696
▁күчөттү	-10.7696
▁Негизинен	-10.7696
Твиттердеги	-10.7699
▁тол	-10.77
▁камтыган	-10.77
▁администрацияны	-10.77
▁Чынында	-10.7702
▁кудай	-10.7702
▁козутуу	-10.7703
▁туру	-10.7703
▁дүйнөдөн	-10.7706
▁Быйылкы	-10.7707
▁жактоочу	-10.7708
▁фонддун	-10.7709
▁апам	-10.7713
▁тургундарды	-10.7713
▁артта	-10.7713
жанов	-10.7713
▁жаткырылган	-10.7714
бала	-10.7716
Кече	-10.772
▁зарылдыгы	-10.7724
▁студенттердин	-10.7725
▁чен	-10.7728
▁таштаган	-10.7731
▁кызын	-10.7733
▁блогерлер	-10.7733
сезим	-10.7734
▁Ве	-10.7737
▁пайыздан	-10.7738
▁мааниде	-10.7738
ol	-10.774
▁кабарлар	-10.7743
▁Фе	-10.7744
▁штат	-10.7745
▁өнөктүк	-10.7746
▁куткаруу	-10.7748
▁токтот	-10.7762
ңүз	-10.7763
▁уул	-10.7765
▁ачылышы	-10.7766
▁Румыния	-10.7767
▁сейрек	-10.7767
▁көрсөтүлүп	-10.7768
▁иштеткен	-10.7768
▁туулуп	-10.7768
▁роль	-10.7769
▁International	-10.777
▁жоруктарды	-10.7771
▁кабарчылар	-10.7773
▁басымы	-10.7775
▁алдамчылык	-10.7776
▁шектүүлөр	-10.7776
▁козго	-10.7777
▁кетирген	-10.7777
▁жатыптыр	-10.778
мдү	-10.7781
▁калууга	-10.7783
▁мандатын	-10.7785
▁согушу	-10.7787
▁чечүүнү	-10.7787
▁федерациясынын	-10.7788
▁калгандары	-10.7789
ланышы	-10.7792
▁каала	-10.7794
▁тарыхын	-10.7794
Па	-10.7795
▁Экинчиси	-10.78
штыруу	-10.7801
тоого	-10.7802
▁толкун	-10.7802
зер	-10.7802
▁Тү	-10.7806
▁буюм	-10.7809
▁алмашты	-10.7811
▁каттаган	-10.7814
▁турушту	-10.7821
▁кылым	-10.7824
▁жи	-10.7826
ңөр	-10.7827
▁чогулду	-10.7827
▁душман	-10.7829
тов	-10.7829
▁форум	-10.7834
▁концерт	-10.7838
▁Молдокматов	-10.7838
▁тымызын	-10.7838
▁этектеринде	-10.7838
▁сабап	-10.7838
▁суранып	-10.7839
▁Каракалпакстан	-10.784
▁кымбаттап	-10.7842
▁жашоосун	-10.7842
▁түзүмдөрүнүн	-10.7843
▁вакцинасын	-10.7844
▁даярдаган	-10.7844
▁топтогон	-10.7844
▁форуму	-10.7846
▁кесепетин	-10.7848
зия	-10.7848
▁ооруканасынын	-10.7851
▁ишкерлерди	-10.7852
▁Бе	-10.7854
▁саммит	-10.7856
сиңер	-10.7857
▁сарай	-10.7863
рет	-10.7865
▁козгоду	-10.7866
▁бейтаптын	-10.7867
жерлерде	-10.7867
▁жүргүзүүнү	-10.7868
▁козголгонун	-10.7869
▁жибер	-10.7869
таев	-10.7872
пас	-10.7873
▁Кант	-10.7875
▁шык	-10.7876
▁баратканда	-10.788
▁Шу	-10.7882
▁станция	-10.7886
▁жабдуу	-10.7887
дж	-10.7889
ене	-10.7889
▁декабрда	-10.7889
▁Кары	-10.789
Ха	-10.7891
▁чыкпаган	-10.7895
иров	-10.7896
▁Кен	-10.7897
▁баштан	-10.79
▁илдетине	-10.7901
▁кеңсе	-10.7907
Биздин	-10.7908
ur	-10.7909
▁азайды	-10.791
▁салмагы	-10.791
▁накталай	-10.7911
▁бошоткон	-10.7911
▁Кырсык	-10.7913
▁адат	-10.7913
▁Иван	-10.7915
▁түшүнүктүү	-10.7915
кысы	-10.7918
▁Кадырбеков	-10.7918
▁өтүндү	-10.7918
▁бас	-10.7918
чул	-10.7918
▁кабарлап	-10.7923
▁казып	-10.7925
▁чыгармачылыгы	-10.7925
▁отуруму	-10.7926
▁аягы	-10.7928
▁орнотулган	-10.7928
▁ККМ	-10.793
▁мектепти	-10.7933
▁Украинадан	-10.7933
леген	-10.7938
▁ондон	-10.7941
Адам	-10.7941
▁климаттык	-10.7943
▁каттап	-10.7943
сто	-10.7944
▁боор	-10.7945
▁3,5	-10.7947
▁түшүнүү	-10.7948
▁Евробиримдикке	-10.7949
бузду	-10.7951
▁бөлүү	-10.7951
▁китептерди	-10.7955
▁добушун	-10.7957
▁чиновниктер	-10.7958
▁каларын	-10.7958
▁комплекси	-10.7961
▁керекпи	-10.7964
▁чечил	-10.7965
▁текст	-10.7965
▁кырсыктары	-10.7971
▁аныкта	-10.7971
ех	-10.7973
▁сынына	-10.7975
▁сиздер	-10.7976
бөйт	-10.7977
▁калганына	-10.7977
▁көрүстөн	-10.7979
▁көчмө	-10.798
J	-10.7983
▁Рустам	-10.7983
▁Фергана	-10.7983
▁жоголуп	-10.7983
▁Шам	-10.7984
▁айттым	-10.7984
▁жоготкон	-10.7986
дашы	-10.7986
▁жашоону	-10.7991
сти	-10.7992
▁чакырылышы	-10.7994
ланат	-10.7994
▁айылдагы	-10.7997
▁Аялдар	-10.7997
▁жылып	-10.7999
▁Каримова	-10.8001
▁2-3	-10.8001
▁Компания	-10.8009
▁курам	-10.8013
▁Британ	-10.8014
▁багытындагы	-10.8016
▁дарыланууда	-10.8016
▁ашыра	-10.8016
▁профессору	-10.8018
Сапат	-10.8019
▁жообуна	-10.8021
▁кыскарган	-10.8024
▁дрондор	-10.8026
▁өткөрө	-10.8031
▁мэриясынын	-10.8035
▁жүргөндөр	-10.8038
▁уланды	-10.8038
▁күнүндө	-10.8039
▁түйүндөр	-10.8039
▁боору	-10.804
▁Султанбеков	-10.804
▁жарандарыбыз	-10.8041
▁бюджети	-10.8043
тез	-10.8045
▁делегациясы	-10.8048
▁оозун	-10.8049
▁жака	-10.805
Коопсуз	-10.8056
▁үрөй	-10.8056
▁Watch	-10.8056
▁Негизги	-10.8056
▁Футбол	-10.8056
▁шектелген	-10.8056
лугун	-10.8056
▁патент	-10.8056
▁чакыртып	-10.8057
оро	-10.8057
▁жаашы	-10.8058
▁Акыры	-10.8059
▁жаралып	-10.8059
▁Айрымдар	-10.8061
et	-10.8061
▁жабыркап	-10.8062
исттер	-10.8064
▁долбоорунда	-10.8064
иктер	-10.8064
▁эсептөө	-10.8064
▁Анар	-10.8068
▁Айтматовдун	-10.8068
▁телеканал	-10.807
▁ресторан	-10.807
▁штатында	-10.807
той	-10.8075
▁жабдуулар	-10.8081
▁баалоо	-10.8082
кече	-10.8082
▁ман	-10.8084
▁кызматташтыгы	-10.8085
лчу	-10.8088
▁бөлүгүнө	-10.8088
▁чабуулга	-10.8091
▁Бишкектен	-10.8091
▁көрсөткүчтөр	-10.8091
▁көзүн	-10.8099
▁киргени	-10.8101
▁аткыла	-10.8104
▁саламаттыгына	-10.8104
▁карым	-10.8108
▁талаптарына	-10.8112
шин	-10.8112
▁айдоочусу	-10.8112
▁базарында	-10.8112
▁каты	-10.8113
▁Ше	-10.8115
▁Финляндия	-10.8116
▁куралды	-10.8117
▁күчтөрдү	-10.8119
▁корутундусу	-10.812
▁Саламаттыкты	-10.812
▁Бахмут	-10.8121
▁Бекназаров	-10.8122
үндөгү	-10.8122
▁кароону	-10.8126
ырылган	-10.8126
▁имараты	-10.8127
Торугарт	-10.8129
▁шайкеш	-10.8129
▁ылдый	-10.8129
▁кубогу	-10.8129
▁байкап	-10.8129
▁калкалап	-10.8131
▁жактарга	-10.8131
▁саясатына	-10.8132
▁барышкан	-10.8135
▁Пол	-10.8139
▁Нурланбек	-10.8141
▁ойлон	-10.8142
▁Кожо	-10.8142
▁сүйүү	-10.8143
▁Жумуш	-10.8144
▁Жаз	-10.8145
▁жууп	-10.8146
▁мүчөлөрүнө	-10.8147
▁ассоциациясынын	-10.8149
▁айындагы	-10.8152
▁улантуу	-10.8155
▁бейтапкана	-10.8161
▁кызматтар	-10.8161
▁Акын	-10.8171
▁чечиш	-10.8175
▁жайыт	-10.8176
▁аялды	-10.8178
▁көрсөткөнү	-10.8181
▁Курман	-10.8182
гра	-10.8183
үткүл	-10.8187
▁10%	-10.8191
▁Иса	-10.8191
▁президенттер	-10.8193
▁Дания	-10.8195
▁Кам	-10.8198
ыкты	-10.8199
▁банкынын	-10.8201
▁көбөйүшү	-10.8202
▁редакция	-10.8203
▁Ирак	-10.8203
Крокус	-10.8203
▁Коңшу	-10.8203
▁Жамаатты	-10.8204
▁адилеттүү	-10.8204
▁Сырт	-10.8204
▁грек	-10.8204
▁жумушсуз	-10.8204
▁Олег	-10.8205
▁(19	-10.8206
▁ыйла	-10.8209
▁жайгаштыруу	-10.821
быздын	-10.8211
▁конок	-10.8213
rk	-10.8216
▁Атамбаевге	-10.8217
▁Маркумду	-10.8218
▁Ви	-10.822
▁Депутаттар	-10.8221
▁сүйлөшүүлөрү	-10.8227
▁учурап	-10.8228
▁журт	-10.8231
▁түшүнө	-10.8231
▁тармакка	-10.8233
el	-10.8237
▁канчасы	-10.8239
ликке	-10.8243
манов	-10.8243
Улуу	-10.8245
▁фильм	-10.8246
▁дайыны	-10.8251
▁в	-10.8254
▁Сербия	-10.8254
▁чагы	-10.8255
суу	-10.8259
▁ооруканаларда	-10.826
▁эсебине	-10.8263
▁Муса	-10.8265
▁Тайван	-10.8267
уң	-10.827
▁жылдай	-10.827
▁айылдары	-10.8271
▁лагерлер	-10.8273
▁жолунда	-10.8275
Йорк	-10.8275
▁компьютер	-10.8276
февралга	-10.8278
▁популярдуу	-10.8278
▁жолугушуп	-10.8279
▁үндөгөн	-10.8279
▁Шакир	-10.8279
▁Кореяда	-10.8279
▁токтотулду	-10.828
▁бузууга	-10.828
▁талкуулашты	-10.828
▁этностук	-10.8281
▁химиялык	-10.8282
▁бирикмесинин	-10.8282
▁чабуулду	-10.8282
▁актоо	-10.8284
▁психолог	-10.8284
▁Крымды	-10.8285
дарда	-10.8287
рес	-10.8289
▁бекеттери	-10.8289
▁тастыктаган	-10.8291
▁шашылыш	-10.8291
▁округ	-10.8291
▁айыпталуучу	-10.8291
▁140	-10.8292
▁чакыр	-10.8301
▁калабыз	-10.8305
▁аппараты	-10.8306
чүлүк	-10.8306
is	-10.8309
▁сүрөтчү	-10.8309
▁аталыш	-10.8314
фор	-10.8317
▁экөөбүз	-10.8317
ош	-10.8319
▁аралыкты	-10.832
▁Азияга	-10.8321
▁телеканалына	-10.8321
▁уранды	-10.8322
▁Ком	-10.8322
▁сөздөрү	-10.8322
масы	-10.8324
▁Ад	-10.8327
▁L	-10.8331
▁терезе	-10.8331
li	-10.8332
▁митингдер	-10.8332
▁Тажикстандагы	-10.8333
▁учурду	-10.8333
▁иликтөөдө	-10.8335
▁жаткандарды	-10.8336
▁Турсун	-10.8338
▁Тер	-10.8342
▁салуудан	-10.8343
▁Ибраимов	-10.8344
▁аракеттенүү	-10.8345
,5%	-10.835
▁басуу	-10.835
▁Абу	-10.8351
▁86	-10.8352
▁Бюджет	-10.8353
▁Жунушалиев	-10.8353
▁Чаткал	-10.8353
▁үстөмдүгү	-10.8353
▁Шинжаң	-10.8353
▁сугат	-10.8353
▁алмашып	-10.8354
▁реформалар	-10.8355
▁белгиле	-10.8355
▁видеолор	-10.8356
▁сак	-10.8359
▁зарылчылыгы	-10.8359
▁комитетине	-10.8361
▁Кавказ	-10.8362
▁2025-	-10.8366
▁кайрыла	-10.8367
▁Чүйдүн	-10.8368
▁таңга	-10.8373
▁макулдашылган	-10.8374
▁шектүүнү	-10.8375
▁тагдырын	-10.8376
▁кени	-10.8376
▁Мариупол	-10.8376
ху	-10.8377
▁мартта	-10.8378
▁берели	-10.8379
▁көбөйт	-10.8383
▁өлкөсүндө	-10.8383
▁манасчы	-10.8384
▁түзүлүшү	-10.8386
Де	-10.8389
сентябрь	-10.839
▁ресурс	-10.8392
▁максатын	-10.8392
▁видеосу	-10.8393
газ	-10.8396
▁имаратына	-10.8396
▁Жетим	-10.8397
▁штабынын	-10.8398
▁Шектүү	-10.8398
▁жаңжалды	-10.8399
гул	-10.84
▁күчүн	-10.8403
▁жапон	-10.8406
Балта	-10.8408
кеч	-10.8409
▁Журт	-10.841
тердик	-10.8411
▁ыктымалдыгын	-10.8412
▁жайылышына	-10.8412
▁түшүрүү	-10.8416
▁тасмалар	-10.8418
▁үмүттө	-10.8418
гуу	-10.8418
▁ушунча	-10.8418
лөрдө	-10.842
▁көмөктөшүү	-10.8424
▁эн	-10.8426
ашка	-10.8426
▁жылыш	-10.8427
▁журналистика	-10.8428
▁Жамгырчиев	-10.8429
▁күчөтүп	-10.8429
▁океан	-10.8429
▁чектелүү	-10.8429
▁Июнь	-10.843
▁ташылып	-10.8431
▁Аскердик	-10.8433
▁бетин	-10.8434
кут	-10.8434
▁баскыч	-10.8435
▁Куба	-10.8438
▁чындык	-10.844
▁төмөндөп	-10.8441
алуу	-10.8442
▁койбойт	-10.8443
▁жыйынды	-10.845
▁танк	-10.8459
H	-10.846
ье	-10.8467
▁топтоо	-10.8468
▁аянтта	-10.8468
раган	-10.8468
v	-10.847
▁тарбиялоо	-10.8476
as	-10.8477
▁сыйла	-10.848
▁министрлигинде	-10.848
▁тарыхчы	-10.8483
бүлөнүн	-10.8486
▁ынан	-10.8486
▁доорунда	-10.8489
▁ошолорду	-10.849
▁изилде	-10.849
▁тергөөгө	-10.8494
беш	-10.8494
▁бешөө	-10.8498
▁83	-10.8498
▁санарип	-10.8504
▁Ооган	-10.8504
чатактар	-10.8505
▁Тескерисинче	-10.8505
▁ырааттуу	-10.8505
­	-10.8505
▁Комитет	-10.8505
▁жаны	-10.8505
▁кесиптеши	-10.8506
▁залкар	-10.8506
▁топтолуп	-10.8507
▁жашырып	-10.8508
▁ашырыл	-10.8509
▁округунан	-10.8509
▁уурдалган	-10.8509
Бу	-10.8511
ректүү	-10.8512
▁Биримдигине	-10.8512
▁Орозо	-10.8513
▁жанынан	-10.8513
орунда	-10.8515
▁кесипкөй	-10.8517
85	-10.852
▁тиреш	-10.8521
▁талапкердин	-10.8522
▁жолугушуусунда	-10.8525
▁келишимдерди	-10.8525
▁статусу	-10.8527
▁текшерүүдөн	-10.8528
▁чечилген	-10.8529
▁камералар	-10.8533
терине	-10.8534
▁кумар	-10.8535
бызга	-10.8536
Хезболла	-10.8538
▁Саид	-10.8541
▁айыптоолорду	-10.8542
▁чөйрөдө	-10.8545
▁көзгө	-10.8547
▁жылдыруу	-10.8548
ашты	-10.8549
лам	-10.8551
▁чабуулдарын	-10.8552
▁мыйзамдарга	-10.8553
зода	-10.8553
▁деңгээлинде	-10.8556
саба	-10.8567
▁карантинде	-10.8571
▁коомчулукту	-10.8576
▁окуудан	-10.8578
илди	-10.8579
▁бурган	-10.8579
▁Австрия	-10.8582
▁керемет	-10.8582
▁сасык	-10.8582
▁көйгөйлөрү	-10.8583
▁тилектештик	-10.8583
▁Рай	-10.8585
▁оокат	-10.8586
▁төмөндө	-10.8586
тет	-10.8586
▁белги	-10.8591
▁партиялары	-10.8591
▁талдоочулар	-10.8593
▁Хи	-10.8595
▁ыйлап	-10.8596
▁көрсөтмөсү	-10.8597
▁ЖК	-10.8597
▁элин	-10.8598
▁жолдон	-10.8599
▁ишемби	-10.8601
▁Миң	-10.8601
▁кайтарды	-10.8601
▁дүйшөмбү	-10.8602
▁чиркөө	-10.8602
▁табууга	-10.8603
▁башкысы	-10.8608
▁кимиси	-10.8611
▁коомду	-10.8613
топ	-10.8614
▁тармактык	-10.8615
▁чечет	-10.8616
▁өкмөтүн	-10.8616
▁жый	-10.8618
▁уй	-10.8622
июнь	-10.8622
▁пландары	-10.8622
▁макулдашты	-10.8624
▁талкуулоо	-10.8626
▁саналуу	-10.8636
▁жылдыгы	-10.8636
ыя	-10.8637
▁Кат	-10.8638
▁күчкө	-10.8638
▁Төрө	-10.864
▁Аким	-10.864
▁жумуштар	-10.8644
лашы	-10.8647
▁алганга	-10.8647
▁салыш	-10.8648
данып	-10.8652
▁депутаттарын	-10.8652
тест	-10.8654
▁көч	-10.8654
▁сар	-10.8656
▁системасынын	-10.8656
▁Карантин	-10.8661
▁айыпталуучулар	-10.8661
рууга	-10.8662
▁тынбай	-10.8664
▁15-20	-10.8667
лануу	-10.8668
▁оппозициянын	-10.8671
▁сонун	-10.8674
▁Алгачкы	-10.8674
▁Чен	-10.8678
▁кубат	-10.868
▁фейк	-10.8682
▁албаганын	-10.8685
▁адамзат	-10.8687
▁сарптал	-10.869
▁мамиледе	-10.8693
▁Исмаилов	-10.8693
▁Пи	-10.8694
апрелден	-10.8694
▁шайлоочу	-10.8694
▁кошулду	-10.8696
▁тап	-10.8697
▁отурумда	-10.8698
▁айыпты	-10.87
▁Кеп	-10.87
ско	-10.8703
▁көрү	-10.8704
▁тайпа	-10.8711
назаров	-10.8713
▁как	-10.8715
ышына	-10.8715
▁Токаевдин	-10.8716
▁чыгымы	-10.8716
47	-10.8717
▁жетпейт	-10.8721
▁жашоочулары	-10.8722
лак	-10.8723
▁оюндарында	-10.8724
басы	-10.8725
▁объектилерди	-10.8726
▁Ошо	-10.8727
▁комитетинде	-10.8729
пол	-10.873
ияда	-10.8731
▁сүйлөшүүлөрдө	-10.8732
▁Бен	-10.8733
▁жеткире	-10.8733
▁дүкөндөр	-10.8737
▁жетиш	-10.8737
лий	-10.8737
▁пахта	-10.8738
▁төкмө	-10.8738
▁ишенген	-10.8738
▁тарабы	-10.8739
▁түшүнүксүз	-10.8739
▁кылышууда	-10.874
▁Донбасста	-10.8741
▁Кеч	-10.8742
рыш	-10.8742
▁кайрылуусу	-10.8746
▁ор	-10.8749
▁лагер	-10.875
кыс	-10.8752
▁мектептердин	-10.8753
вин	-10.8754
▁5-6	-10.8756
▁чабуулуна	-10.8757
уза	-10.8757
▁билдиргени	-10.8757
▁Ачык	-10.8758
орунду	-10.8759
▁зордуктоо	-10.8761
▁Көлбаевдин	-10.8763
▁Жи	-10.8766
▁жатасыз	-10.8767
▁Иранга	-10.8773
иңиз	-10.8775
▁Жээнбек	-10.8777
▁кеткендер	-10.8778
▁Социал	-10.8778
▁Буларды	-10.878
ter	-10.8783
▁режимин	-10.8789
▁жаздым	-10.8796
лүгүн	-10.88
▁түшө	-10.8801
▁баалай	-10.8801
▁ракеталарды	-10.8802
др	-10.8804
▁күйөө	-10.8804
▁текшерүүнү	-10.8809
▁сата	-10.881
▁ийгиликтер	-10.8813
▁жүгү	-10.8814
▁турууну	-10.8815
▁кер	-10.8815
▁Рим	-10.8816
▁Еврошаркет	-10.8817
▁эбегейсиз	-10.8817
▁Айнура	-10.8817
▁тамаша	-10.8817
▁жиберилген	-10.8817
▁белгилешкен	-10.8818
▁өзгөртө	-10.8819
▁тааныштырган	-10.882
кел	-10.882
▁өнүгүшү	-10.8821
▁90%	-10.8827
▁фирма	-10.8828
▁болгондугу	-10.8829
▁дарыясынын	-10.883
▁Замирбек	-10.883
▁киришти	-10.8833
▁көргөндө	-10.8833
▁козголоң	-10.8836
пөгөн	-10.8838
▁Осмоналиев	-10.884
▁Оппозиция	-10.8842
▁ооруканасына	-10.8842
▁дейм	-10.8843
▁коюлганын	-10.8845
▁Кумтөрдү	-10.8848
Достук	-10.8851
изация	-10.8852
▁жактаган	-10.8853
уңуз	-10.8855
▁ут	-10.8855
ылда	-10.8856
▁күрөшкөн	-10.886
▁Ишен	-10.8865
▁Нар	-10.8866
▁борборундагы	-10.8866
даштыруу	-10.8868
тыш	-10.8869
▁багын	-10.8869
▁өнөктөштүк	-10.8874
аф	-10.8878
▁койгондо	-10.8879
▁окуяда	-10.8879
Булак	-10.888
сатык	-10.8886
▁жаранды	-10.8889
▁күнөөсүн	-10.8889
▁Мах	-10.8892
▁провинциясы	-10.8893
▁Облус	-10.8895
▁Англия	-10.8896
▁илгери	-10.8896
▁коңгуроо	-10.8896
▁чейрек	-10.8896
▁Араван	-10.8897
▁баягы	-10.8897
▁з	-10.8899
▁Арыз	-10.89
▁күрөшүнөн	-10.89
▁улуттун	-10.8904
▁чочулап	-10.8905
▁процесси	-10.8906
▁наамы	-10.8912
▁аким	-10.8919
▁Бая	-10.892
шту	-10.8921
▁маселеде	-10.8921
▁ысымын	-10.8922
▁талашып	-10.8923
▁түшүрүлгөн	-10.8924
▁фактор	-10.8925
▁кылмышкер	-10.8927
▁отургуз	-10.8928
▁ошолор	-10.8929
Социал	-10.8931
расмий	-10.8932
Чек	-10.8933
▁документте	-10.8933
паса	-10.8936
▁ишканалары	-10.8938
ноябрында	-10.8938
ноябрь	-10.8939
▁байкоочу	-10.8939
▁эфир	-10.894
▁фестивал	-10.894
▁ырайым	-10.8941
▁алышып	-10.8942
▁сезон	-10.8946
▁өкүлдөр	-10.8948
▁партияга	-10.8949
▁тургандыгын	-10.8956
гула	-10.8956
▁натыйжасы	-10.8956
Твиттер	-10.8957
▁экономикасына	-10.8957
▁өндүрүштү	-10.8959
▁салууда	-10.8959
сүң	-10.896
▁сөздөрүн	-10.8961
▁кыйынчылыктар	-10.8963
▁Бак	-10.8964
▁тасманы	-10.8964
▁тарабында	-10.8965
▁авария	-10.8965
▁пикирге	-10.8968
▁Тажикстандан	-10.8969
▁экспортто	-10.8969
▁дарыгерлерге	-10.8971
▁добушу	-10.8972
▁Нидерланд	-10.8974
▁купуя	-10.8976
▁күчөткөн	-10.8976
▁сыпаттады	-10.8976
▁белгиленип	-10.8976
▁жагымдуу	-10.8976
▁айыбы	-10.8976
▁айырмаланып	-10.8977
▁салмак	-10.8977
▁жасалды	-10.8977
▁чий	-10.8977
▁дарыларды	-10.8978
▁атканын	-10.898
▁машинелер	-10.8983
▁мыйзамдары	-10.8985
▁факультетин	-10.8986
▁төлөн	-10.8988
▁кылмыштуулук	-10.8989
▁коомдогу	-10.8991
▁Алдын	-10.8992
38	-10.8993
▁порталы	-10.8995
▁ишмердүүлүгүн	-10.8997
▁тазалап	-10.8999
аяк	-10.9
▁жүргүзө	-10.9
министрдин	-10.9003
Борбор	-10.9012
▁парламентинин	-10.9012
▁туруш	-10.9013
▁оппозициясы	-10.9014
▁түрүн	-10.9015
▁залына	-10.9017
▁өспүрүмдөр	-10.9018
▁калдыктары	-10.9019
▁таңкы	-10.902
▁тарыхындагы	-10.9021
▁Абай	-10.9021
▁жарымына	-10.9022
кытай	-10.9023
▁иштеш	-10.9025
▁окко	-10.9028
▁бирлери	-10.9031
▁издөөдө	-10.9033
▁кылам	-10.9036
▁өрттөн	-10.9038
апрелинде	-10.9041
▁капитал	-10.9042
▁жолугушууга	-10.9042
▁жабдыктар	-10.9044
▁космос	-10.9044
▁жайлары	-10.9045
▁кызматкерлерге	-10.9045
▁кине	-10.9048
▁Штаттары	-10.9049
▁өзгөчөлүгү	-10.905
▁багыттар	-10.9052
▁макулдугу	-10.9053
▁жүргүнчүлөр	-10.9054
▁Covid	-10.9057
▁Жоошев	-10.9057
▁буюртма	-10.9057
Грузин	-10.9057
▁2001-	-10.9057
▁толтуруу	-10.906
▁чектеген	-10.9064
▁Фрунзе	-10.9065
өтө	-10.9066
▁оорулуу	-10.907
▁жатасыңар	-10.9073
▁режимди	-10.9074
▁Лондондо	-10.9076
▁жакындап	-10.9076
▁Ишкер	-10.9077
▁бензин	-10.9078
▁Беларуска	-10.9079
▁Дүйшөмбүдө	-10.908
▁туугандар	-10.9085
▁түшкөнү	-10.9087
түнү	-10.9087
▁жаранга	-10.909
▁кырсыгынан	-10.909
То	-10.9091
-1"	-10.9092
▁бактылуу	-10.9093
Жаңы	-10.9093
Кызмат	-10.9093
▁кылмыштарды	-10.9094
▁тапканы	-10.9097
▁кабардар	-10.9099
▁фракция	-10.91
▁сезими	-10.9102
▁Союзу	-10.9103
▁жазасы	-10.9103
▁жагдайларды	-10.9105
▁чемпионат	-10.9105
▁текшере	-10.911
▁Ер	-10.9112
өлкө	-10.9112
▁жагына	-10.9113
▁Султанбаев	-10.9115
кассалык	-10.9115
▁ташта	-10.9119
▁серепчилер	-10.9122
▁жашоочулар	-10.9123
▁арачылар	-10.9124
мыш	-10.9125
▁Абд	-10.9125
▁камты	-10.9126
▁Спорт	-10.9127
жемиш	-10.9127
▁бийликтери	-10.9128
▁ойлор	-10.9128
▁жайылышы	-10.913
▁али	-10.913
▁машинени	-10.9131
▁Митинг	-10.9135
▁ошентип	-10.9138
январына	-10.9138
▁турнир	-10.9138
▁фото	-10.9138
▁кыйраган	-10.9138
▁артып	-10.9139
▁Батукаевди	-10.9139
▁караңгы	-10.9139
▁чийки	-10.914
▁оюмча	-10.914
▁чындыгында	-10.914
▁Хасан	-10.9141
▁(+1	-10.9141
90	-10.9141
уусуна	-10.9146
▁зыянды	-10.9147
▁Карабактагы	-10.9147
▁түшүндүрөт	-10.9148
шет	-10.9148
▁ЦАХАЛ	-10.9149
граф	-10.915
▁чагылдырып	-10.9153
▁жоготуу	-10.9154
▁базарда	-10.9157
▁болушат	-10.9157
▁жашырган	-10.9163
▁3-4	-10.9163
улла	-10.9165
▁Роман	-10.9168
▁Сүрөт	-10.9168
▁айласы	-10.9168
Кыргызстанда	-10.9168
▁карантинди	-10.9172
▁100%	-10.9173
▁жетишсиздиги	-10.9173
октябрында	-10.9175
▁декабрь	-10.9175
Кылмыш	-10.9175
▁тыгын	-10.9179
дырып	-10.9182
▁нормалар	-10.9183
▁Коронавирусту	-10.9184
▁350	-10.9186
▁тастыктады	-10.919
▁долбоорлору	-10.9191
▁өткөрүүдө	-10.9192
▁ымыркай	-10.9192
▁баалар	-10.9197
▁башталганы	-10.9198
▁жандант	-10.9201
юр	-10.9201
▁кызым	-10.9203
▁чыгарганын	-10.9203
▁соз	-10.9203
▁баллга	-10.9205
▁кызматкерине	-10.9205
улу	-10.9207
▁сүр	-10.9207
▁аталышын	-10.9209
▁Про	-10.9211
▁пар	-10.9215
▁демонстрациялар	-10.9217
▁идеясы	-10.9218
▁об	-10.9219
▁Эммануэл	-10.922
▁жөнөтүлдү	-10.922
▁түшүнүгү	-10.922
▁1994-	-10.922
▁Денис	-10.922
▁тергелип	-10.922
рас	-10.9221
▁Атазов	-10.9221
▁чогулткан	-10.9221
▁аткар	-10.9223
аракеттер	-10.9223
▁бөрү	-10.9224
▁бурул	-10.9225
▁жүр	-10.9225
▁арттыруу	-10.9227
▁кетиптир	-10.9228
▁аймактан	-10.923
▁айткы	-10.9231
▁81	-10.9232
▁суранды	-10.9232
▁журналисттери	-10.9232
▁отставка	-10.9233
▁көрсөткөндөй	-10.9233
▁опера	-10.9236
▁атасынын	-10.9238
▁Өзбекстандагы	-10.9239
▁өткөрөт	-10.924
▁акындар	-10.9241
көй	-10.9242
▁ЖМКлар	-10.9242
▁түзүл	-10.9246
Вагнердин	-10.9248
гем	-10.9249
▁чыгышына	-10.9251
▁агрессия	-10.9253
▁калтыруу	-10.9255
эркин	-10.9258
▁себептерин	-10.9259
жылдарда	-10.926
▁ыкмалары	-10.9261
▁акынды	-10.9261
▁баалуулуктар	-10.9265
▁Курал	-10.9266
▁Хай	-10.9269
▁жазуучулар	-10.927
катнаш	-10.9271
▁Кытайдагы	-10.9272
тил	-10.9273
▁айыптуу	-10.9273
▁бузду	-10.9273
%)	-10.9279
▁кызматтагы	-10.9282
▁келгендердин	-10.9285
▁бердим	-10.9286
▁бата	-10.9286
▁Бирөө	-10.9288
▁Айдар	-10.9289
▁пандемияга	-10.9292
▁камсыздоого	-10.9292
▁талапкери	-10.9292
il	-10.9295
▁Бейше	-10.9298
▁чалдыккандар	-10.9299
▁заттарды	-10.9302
▁Ста	-10.9302
▁абийир	-10.9303
▁федералдык	-10.9303
▁окшоп	-10.9303
▁залака	-10.9303
▁талкаланып	-10.9303
▁модел	-10.9304
▁Испания	-10.9307
▁Соттук	-10.9308
фт	-10.9309
▁маараке	-10.9312
▁мүлкү	-10.9313
▁кылмыштын	-10.9316
▁алуусу	-10.932
Жар	-10.9322
▁округу	-10.9323
▁Матраимовду	-10.9323
▁жуук	-10.9328
▁стадион	-10.9329
▁ишканасына	-10.9334
▁Федерациясы	-10.9334
төрт	-10.9335
Мамлекеттик	-10.9341
▁аласыз	-10.9341
▁документтерге	-10.9345
▁тартканы	-10.9345
пады	-10.9346
▁учурундагы	-10.9349
▁сабаган	-10.9351
▁маселесинде	-10.9351
▁аралар	-10.9357
▁экспорттоо	-10.9359
бейт	-10.936
түрк	-10.9361
энелердин	-10.9364
акы	-10.9365
▁өтөрүн	-10.9377
ташкан	-10.9379
ебе	-10.9382
▁Тогуз	-10.9386
▁муфтий	-10.9386
▁руханий	-10.9386
▁Аспеков	-10.9386
▁Илдет	-10.9386
▁төгүп	-10.9386
▁бошотулушу	-10.9386
▁табыш	-10.9387
▁Тенг	-10.9387
▁ошончолук	-10.9387
ээрлик	-10.9388
▁өнүгүшүнө	-10.9388
ттык	-10.939
▁Астанада	-10.939
▁тармактардагы	-10.9392
▁жактырган	-10.9393
▁чеккен	-10.9394
чик	-10.9395
▁ЖККУнун	-10.9395
▁реформалоо	-10.9398
▁Жарандар	-10.94
▁жүрүүгө	-10.9403
▁укуктарына	-10.9405
▁өздөрүнө	-10.9407
маз	-10.941
▁тегерегиндеги	-10.9411
▁коо	-10.9412
▁Бара	-10.9412
▁Түп	-10.9413
▁каражатын	-10.9414
▁сезе	-10.9417
▁согушуп	-10.9418
▁уйгур	-10.9419
▁салганын	-10.9419
▁жоокери	-10.942
▁Аял	-10.942
▁дубал	-10.9422
▁болууну	-10.9425
Коррупция	-10.9425
украин	-10.9425
▁сандагы	-10.9426
▁өлүмүн	-10.9431
лашты	-10.9432
▁клиника	-10.9433
▁айланат	-10.9435
▁соодагерлер	-10.9435
мынча	-10.9438
▁кылдык	-10.9439
▁жарат	-10.9443
▁тургандар	-10.9445
▁стратегия	-10.9446
95	-10.9447
танып	-10.9448
▁материалдарын	-10.9451
оф	-10.9451
дем	-10.9453
Ме	-10.9454
▁көрбөгөн	-10.9455
▁сөзгө	-10.9457
▁уурдоо	-10.9458
ани	-10.9463
беренесине	-10.9464
▁саммитинде	-10.9465
Жер	-10.9466
▁Үчүнчү	-10.9466
▁Сүйүн	-10.947
▁тенденция	-10.947
▁Латвия	-10.947
▁Шойгу	-10.947
▁кредит	-10.947
▁1996-	-10.947
▁аттанган	-10.947
▁мүмкүнчүлүктөр	-10.9472
▁Оюн	-10.9472
▁дипломаттар	-10.9472
▁Фу	-10.9473
жол	-10.9474
▁ичкен	-10.9475
▁мөөнөттүү	-10.9476
4-	-10.9477
▁ишмердүүлүгүнө	-10.9477
▁акырындап	-10.9477
ed	-10.948
ердин	-10.9482
▁жабыркады	-10.9485
▁түшкөндө	-10.9485
▁куткаруучу	-10.9486
▁82	-10.9486
▁коноктор	-10.9487
▁эмгектери	-10.9488
хам	-10.9488
▁эк	-10.9489
▁Чыны	-10.949
▁туугандарына	-10.9492
үштү	-10.9496
▁ооруканасында	-10.9496
▁таанып	-10.9498
▁айтсам	-10.9501
▁катышпай	-10.9503
▁чындыкты	-10.9505
▁сат	-10.9506
▁каршылыгын	-10.9506
ата	-10.9508
Чет	-10.9514
▁пункту	-10.9514
▁секундасын	-10.9516
▁кыймылдын	-10.9516
▁термин	-10.9522
▁Ташкентте	-10.9522
▁версиясы	-10.9526
▁талабына	-10.9527
▁жыйынтыктары	-10.9529
▁сулуу	-10.9532
ro	-10.9532
▁Кер	-10.9536
▁Мурат	-10.9536
бүлөсүн	-10.9537
▁падыша	-10.9537
▁кызматкерлерди	-10.9539
▁Дар	-10.9545
▁болуптур	-10.9549
▁келүүнү	-10.9553
▁микро	-10.9554
▁Белгород	-10.9555
▁түбөлүк	-10.9555
▁чөгүп	-10.9555
▁шайланды	-10.9555
▁салганы	-10.9555
өнү	-10.9556
дуулук	-10.9557
▁чыгарын	-10.9557
▁соттолуп	-10.9557
▁барабар	-10.9559
▁бааны	-10.9559
▁ую	-10.956
андар	-10.9562
▁заводду	-10.9564
дил	-10.9567
▁жарыялай	-10.9568
▁колдоосун	-10.9568
▁уулуна	-10.9569
енов	-10.957
▁күбөлөр	-10.9572
▁Берлин	-10.9573
▁коркунучуна	-10.9574
▁этет	-10.9575
▁Жолдош	-10.9576
▁жаштарды	-10.9576
▁орусиялыктар	-10.9578
▁жайылышын	-10.9582
▁гезит	-10.9583
▁сактай	-10.9585
▁кризиске	-10.9586
▁милдеттерин	-10.9586
▁күндөр	-10.9588
▁кабарчы	-10.9594
▁күт	-10.9596
▁аткарбай	-10.9596
▁чалды	-10.9597
Өз	-10.9601
▁паркы	-10.9601
▁Долбоорду	-10.9602
▁болом	-10.9613
▁кеткенине	-10.9613
▁инвесторлорду	-10.9614
▁аталышы	-10.9614
аракет	-10.9618
▁спортту	-10.9619
▁айтыл	-10.9619
▁сизге	-10.962
▁Окуу	-10.9621
▁балдарынын	-10.9622
▁Ам	-10.9628
кыч	-10.963
▁жемкорлук	-10.963
▁түшүм	-10.9632
34	-10.9634
▁аткарылган	-10.9637
▁ашыр	-10.9639
▁бейтарап	-10.964
▁үстөк	-10.964
▁жүктөп	-10.964
▁илинген	-10.964
▁Жамбыл	-10.964
▁үндөп	-10.964
▁бекиткен	-10.964
▁таянсак	-10.9641
Альянс	-10.9641
▁болбоду	-10.9643
▁берсин	-10.9643
▁сыртында	-10.9643
▁куралчан	-10.9645
▁этти	-10.9645
▁кышкы	-10.9646
▁үнүн	-10.9646
▁өнүм	-10.9647
▁келсек	-10.9652
▁Бах	-10.9654
▁чемпион	-10.9658
▁жүргүзөт	-10.9659
▁Парламентте	-10.9661
▁Көчө	-10.9665
▁келатканын	-10.9666
▁ГЭСин	-10.9666
▁алтынчы	-10.9668
▁станциялары	-10.9672
▁койчу	-10.9672
▁куран	-10.9674
▁казактар	-10.9676
▁аймактарын	-10.9676
▁тер	-10.9678
Улуттук	-10.9682
▁ачары	-10.9683
▁булактардан	-10.9687
▁кетирүү	-10.969
▁апаат	-10.9692
▁мекемелерде	-10.9696
▁Италиянын	-10.9697
ец	-10.97
▁Сиздер	-10.9703
▁ашкана	-10.9703
▁чектен	-10.9706
▁чыкпа	-10.9706
▁Кир	-10.9707
пек	-10.9716
▁орундуу	-10.9717
рген	-10.9717
▁клиникасы	-10.9717
▁аэропортуна	-10.9721
▁Баа	-10.9725
▁Пхеньян	-10.9726
▁айыгышкан	-10.9726
▁орусиячыл	-10.9726
▁поэзия	-10.9726
▁гендердик	-10.9726
▁каргаша	-10.9726
▁Ырыс	-10.9727
▁өтүнүп	-10.9727
▁атпайбы	-10.9727
юм	-10.973
▁жүрсө	-10.9731
▁жумушсуздук	-10.9732
▁эгин	-10.9733
▁Жанарбек	-10.9734
▁кызыгып	-10.9735
▁эрежелери	-10.9735
▁саноо	-10.9737
▁кароосуна	-10.9738
▁планда	-10.9739
▁паспорту	-10.9739
▁Түркстан	-10.974
▁кызыктыр	-10.9742
▁дүйнөнү	-10.9748
▁жеңди	-10.9748
▁жээк	-10.9749
▁чеги	-10.9753
▁Петр	-10.9754
келиндердин	-10.9754
▁Тынчтык	-10.9756
▁тамактануу	-10.976
▁мугалимдердин	-10.9767
▁Атыр	-10.9767
июль	-10.9768
▁губернатор	-10.9773
▁сүрөттөрдү	-10.9773
le	-10.9773
▁Мектеп	-10.9773
▁көйгөйүн	-10.9778
▁кызматтарды	-10.9781
▁жоокерлери	-10.9787
▁тактала	-10.9789
▁реформаларды	-10.979
▁Антони	-10.979
▁танктар	-10.9793
▁биринен	-10.9796
▁ажыраган	-10.9796
32	-10.9801
дашып	-10.9804
▁түрмө	-10.9804
▁Убакты	-10.9805
▁ырайымсыз	-10.9806
▁агенттер	-10.9807
▁вариант	-10.9809
▁аймактардан	-10.9811
гиси	-10.9811
Y	-10.9813
▁Бердымухамедов	-10.9813
▁Көптөгөн	-10.9813
▁чуулгандуу	-10.9813
▁каатчылык	-10.9813
▁Абакиров	-10.9813
▁тартылышы	-10.9813
▁салыштырганда	-10.9813
▁колдонууну	-10.9814
▁маеги	-10.9814
▁байланыштырды	-10.9814
▁санаган	-10.9815
▁ракеталары	-10.9815
▁чыгарылат	-10.9816
▁барыш	-10.9818
▁Египет	-10.9818
лия	-10.9819
▁Зе	-10.9819
▁тапшырылды	-10.982
▁дебат	-10.9822
▁иштеди	-10.9823
▁кагууда	-10.9824
орго	-10.9824
▁учурларды	-10.9825
улам	-10.9826
▁бөлөк	-10.9827
▁көрүш	-10.9828
▁кеңештерге	-10.9829
▁Акматалиев	-10.9829
▁каалагандай	-10.9829
▁куур	-10.983
▁ишмердүүлүк	-10.9832
▁транспорттук	-10.9833
▁Мадумаровдун	-10.9833
▁согушкерлер	-10.9835
▁маанисин	-10.9835
▁материалдары	-10.9835
▁Асан	-10.9838
атуучу	-10.984
▁Германияга	-10.9841
▁театрынын	-10.9841
тордун	-10.9842
оору	-10.9845
мас	-10.9845
▁Аймакта	-10.9847
▁Районду	-10.9851
▁мекени	-10.9857
▁сүйүн	-10.9859
▁Эрдогандын	-10.9863
▁Жекшембиде	-10.9866
▁арачы	-10.9868
▁20%	-10.987
▁Евробиримдикте	-10.9872
кызыл	-10.9874
▁ортосуна	-10.9874
▁жигиттер	-10.9876
▁Исмаил	-10.9877
▁ва	-10.9883
▁убак	-10.9887
поого	-10.9897
▁жетишүү	-10.9898
▁+	-10.99
▁Брюсселде	-10.99
▁инфляция	-10.99
▁Белгилүү	-10.9901
▁айыпталууда	-10.9901
▁алектенип	-10.9901
Ыйман	-10.9901
▁сыпаттаган	-10.9901
▁сакайып	-10.9901
ing	-10.9903
ашы	-10.9903
▁чарчап	-10.9905
лашкан	-10.9906
▁чыгарыш	-10.9907
▁бааланган	-10.991
▁сому	-10.9911
▁чакырат	-10.9915
▁көрүшү	-10.9915
▁тариф	-10.9917
▁комендантты	-10.9918
▁кууп	-10.9918
▁болушуна	-10.9919
▁компанияларга	-10.9919
▁кыздары	-10.9922
▁компаниясын	-10.9924
▁желим	-10.9924
▁чагылдыр	-10.9924
▁өлкөсүнө	-10.9926
луучу	-10.9926
▁узакка	-10.9928
овка	-10.9931
▁беттеште	-10.9932
▁прокурордун	-10.9937
▁мезгилине	-10.9937
▁Кызмат	-10.9939
▁тиш	-10.9941
▁тукум	-10.9941
▁адистердин	-10.9943
банк	-10.9945
▁күрөшүүгө	-10.9947
▁күрөштүн	-10.9947
▁газдын	-10.9948
▁кызматташкан	-10.9948
▁Бүт	-10.9948
▁наристе	-10.9948
▁ооругандар	-10.9949
▁инсандар	-10.9951
▁алма	-10.9952
▁аэропортунда	-10.9952
▁таштады	-10.9954
▁уч	-10.9957
тив	-10.9958
сентябрында	-10.9959
▁Жанар	-10.996
▁вирусуна	-10.9963
▁тууну	-10.9964
▁кемчиликтер	-10.9968
▁каражаттарында	-10.997
▁стационар	-10.9971
аж	-10.9973
▁Беларустагы	-10.9975
▁оорусуна	-10.9975
▁Исмаилова	-10.9976
▁жайларына	-10.9978
▁Ур	-10.9982
▁орустар	-10.9984
▁бышык	-10.9989
▁Светлана	-10.9989
▁Сурабалдиева	-10.9989
▁интеллект	-10.9989
▁санариптештирүү	-10.9989
▁холдинг	-10.9989
Көмүр	-10.999
▁1999-	-10.999
▁Айпери	-10.999
▁латын	-10.999
▁түшүрүп	-10.999
▁Кундуз	-10.999
▁жубайлар	-10.9991
▁үзгүлтүксүз	-10.9991
▁силерди	-10.9991
▁органдарга	-10.9991
▁тартканын	-10.9993
▁терге	-10.9993
▁кызыгуу	-10.9995
▁курагы	-10.9995
▁татар	-10.9998
бел	-10.9998
kz	-10.9999
▁иликтөөсү	-10.9999
жок	-11.0001
▁эте	-11.0001
▁киргизилет	-11.0001
▁аныктады	-11.0003
▁мейкиндигин	-11.0004
▁аймактардын	-11.0004
▁койдук	-11.0004
иңди	-11.0004
▁каралоо	-11.0004
▁көбөйөт	-11.0005
▁Акция	-11.0005
ташы	-11.0006
▁Жапонияда	-11.0009
▁кызынын	-11.0012
▁жуктургандарды	-11.0012
▁ооруканадан	-11.0013
▁жараянын	-11.0014
▁акцияларына	-11.0015
▁каралышы	-11.0018
▁том	-11.002
шканын	-11.0023
▁кийген	-11.0024
ибизге	-11.0025
▁макулдашкан	-11.0026
▁кызматташ	-11.0032
▁механизмдер	-11.0034
Биринчи	-11.0034
компания	-11.0034
▁Эс	-11.0035
▁кагылышта	-11.0036
▁тааный	-11.0038
Элдик	-11.004
▁денеси	-11.004
сип	-11.0043
▁эпосу	-11.005
▁көө	-11.0051
▁сөөк	-11.0057
▁өкмөттөн	-11.0058
▁баруучу	-11.0059
▁иштете	-11.0059
▁Алматыдагы	-11.0063
алты	-11.0063
▁чечти	-11.0066
▁рейд	-11.0067
▁жоболор	-11.0068
▁байланышуу	-11.0068
▁ачка	-11.0068
▁Бээжинди	-11.0068
▁Боршайком	-11.0071
▁айылдарында	-11.0071
▁обон	-11.0072
еркен	-11.0075
▁Темировдун	-11.0076
▁1...6	-11.0079
▁улгайган	-11.0079
▁кескен	-11.0079
▁жеңилдетүү	-11.0079
▁шахта	-11.0079
▁Эмираттары	-11.0079
▁этегинде	-11.0079
▁көчүрүп	-11.0079
▁Туура	-11.008
▁утурлай	-11.008
▁Азимжан	-11.008
ская	-11.0081
▁актаган	-11.0083
▁биримдикти	-11.0083
▁институттар	-11.0084
▁документи	-11.0085
▁тармагынын	-11.0087
▁атты	-11.0088
▁Мари	-11.0088
▁жетиши	-11.0089
чаралары	-11.0093
энелери	-11.0093
юн	-11.0095
▁каттоодо	-11.0096
▁пикирлерди	-11.0098
▁бурду	-11.0098
▁спикери	-11.0102
▁ачат	-11.0112
▁кирсе	-11.0113
▁Бразилия	-11.0113
▁Парижде	-11.0115
▁курамындагы	-11.0116
▁экөөнүн	-11.0116
Эр	-11.0116
▁алалы	-11.0116
▁маанайы	-11.0117
▁келинди	-11.0117
▁кайрылууда	-11.0118
вай	-11.0118
▁баарынын	-11.0118
рад	-11.012
▁талапкерлиги	-11.0126
▁чечен	-11.0126
▁колдонуучулар	-11.0127
▁биримдик	-11.013
▁колдонгону	-11.0131
▁саясатчынын	-11.0131
▁жүрөм	-11.0134
▁жогот	-11.0134
Кур	-11.0135
▁сунушту	-11.0136
▁дипломат	-11.0138
▁элдер	-11.0138
▁тилкелери	-11.0139
▁платформа	-11.014
▁төрагалык	-11.0141
▁бети	-11.0142
▁аккаунт	-11.0143
▁Шайлообек	-11.0145
▁заманда	-11.0148
▁жүргүнчүлөрдү	-11.0151
▁чатыр	-11.0152
▁алынбай	-11.0153
▁ракетасы	-11.0153
▁99	-11.0157
▁доктор	-11.016
▁тра	-11.0163
▁Ыр	-11.0163
▁ажыра	-11.0166
▁госпитал	-11.0169
▁көлөкө	-11.0169
▁унчукпай	-11.0169
▁ишенич	-11.0169
▁коркуткан	-11.0169
▁контрчабуул	-11.0169
▁Тараптар	-11.0169
▁нугу	-11.0169
▁бөлүнөт	-11.0169
▁берилбеген	-11.017
▁Тактап	-11.0172
▁чакырышты	-11.0173
▁мүнөздөгү	-11.0174
▁кызыкчылыктарын	-11.0177
▁карасак	-11.0177
▁Че	-11.0178
▁Кичи	-11.0178
▁операциялар	-11.018
▁ролду	-11.0182
▁стратегиясы	-11.0182
▁чечиле	-11.0184
▁кыйыр	-11.0186
▁Сел	-11.0192
▁технологиялык	-11.0193
йыр	-11.0195
▁тандаган	-11.0196
▁айлампа	-11.0198
▁кыйган	-11.02
▁40%	-11.0201
▁уюмдарды	-11.0202
▁айыпка	-11.0202
▁лицензиясы	-11.021
▁X	-11.021
мамлекет	-11.0213
▁түшүндүр	-11.0216
мэр	-11.0218
▁Бей	-11.0219
▁атаандаштары	-11.0219
▁таштоо	-11.0222
▁бирөөгө	-11.0224
▁бизнеси	-11.0231
▁бюджетти	-11.0231
▁Коом	-11.0232
▁барууну	-11.0236
▁жайларында	-11.0237
▁күрөшкө	-11.0237
▁реформасы	-11.024
чараларга	-11.0241
был	-11.0241
▁Маркум	-11.0243
энесинин	-11.0244
▁дарылар	-11.0244
ким	-11.0247
▁ажы	-11.0247
▁борборлор	-11.025
▁эстелик	-11.025
▁койбо	-11.025
▁фондуна	-11.0253
▁реестр	-11.0255
▁документтердин	-11.0259
▁бузгандар	-11.0259
▁Гутерриш	-11.026
▁Помпео	-11.026
▁Юрий	-11.026
▁дарамети	-11.026
▁элекпиз	-11.026
▁кайрылышкан	-11.0261
▁аннексиялап	-11.0261
▁байланыштырып	-11.0261
▁чечилип	-11.0262
▁жөнөп	-11.0262
▁күмөндүү	-11.0262
▁карманган	-11.0263
▁станциясын	-11.0263
▁Пер	-11.0266
▁нота	-11.0268
▁жаралды	-11.0269
▁айылдарда	-11.027
▁күй	-11.0271
▁кошкондо	-11.0271
▁визасыз	-11.0271
▁турмушу	-11.0272
рав	-11.0276
▁кула	-11.0276
биздин	-11.0278
еле	-11.0279
▁сабагы	-11.0279
▁Дары	-11.028
▁үйлөрү	-11.028
▁аталат	-11.0281
▁Камил	-11.0282
леринин	-11.0284
▁мам	-11.0287
▁Палестина	-11.0287
▁өлкөлүктөр	-11.0288
шти	-11.029
▁жетекчилигинин	-11.0291
▁колдоосуна	-11.0292
ченко	-11.0295
▁университеттер	-11.0296
▁актер	-11.0297
▁жуккандарды	-11.0297
▁93	-11.0298
▁160	-11.0299
▁маалыматын	-11.0299
▁жоочулар	-11.03
▁демилгени	-11.03
Ы	-11.0306
▁иштетүүчү	-11.0307
▁Автор	-11.0308
▁талаптары	-11.0309
▁Атам	-11.0311
▁көрүүдө	-11.0313
▁кайтты	-11.0316
▁тиркеме	-11.0316
▁дебей	-11.0317
▁кырдаалдын	-11.0318
▁эп	-11.0319
▁камын	-11.0322
▁күчтөрүнө	-11.0322
▁Ой	-11.0323
▁сессия	-11.0324
▁өтөгөн	-11.0327
▁адвокаттар	-11.0328
▁88	-11.033
▁Андагы	-11.0332
ирээк	-11.0333
ңарды	-11.0334
▁союздаш	-11.0338
▁Чи	-11.0339
▁иликте	-11.0339
▁Бур	-11.0341
▁чабуулу	-11.0343
амы	-11.0343
▁экстремизм	-11.0343
бүбү	-11.0344
▁Төлө	-11.0344
лерде	-11.0348
▁чыгымды	-11.0348
▁деңгээлине	-11.0351
▁солгун	-11.0351
▁Карасартова	-11.0351
▁Олжобай	-11.0351
▁Шанхай	-11.0352
▁кылынат	-11.0352
▁териштирип	-11.0352
▁TV	-11.0352
▁пландалып	-11.0352
обо	-11.0353
▁Сагын	-11.0354
▁камтыйт	-11.0354
▁улук	-11.0355
▁мынчалык	-11.0358
▁атылып	-11.0358
▁элчиликтин	-11.0359
▁Майк	-11.036
▁ыдык	-11.0361
▁кеңешке	-11.0361
▁талкалап	-11.0362
▁Инандыны	-11.0363
мага	-11.0364
берг	-11.0364
▁машинеси	-11.0368
доого	-11.0369
Твиттерге	-11.037
▁балдарына	-11.037
сызбы	-11.0375
▁баракчасы	-11.0379
▁Китеп	-11.038
▁тармактары	-11.0381
▁телефондор	-11.0381
▁небереси	-11.0381
дашты	-11.0385
▁кызматтарда	-11.0386
род	-11.0387
▁июнда	-11.0388
▁кайталан	-11.0389
▁өлүмгө	-11.039
▁Адамдар	-11.0391
ИМ	-11.0394
▁сүйлөшүүлөргө	-11.0394
кей	-11.0395
▁пайдаланыл	-11.0397
▁ир	-11.0397
▁келтирүүгө	-11.0397
▁чегин	-11.0399
▁порт	-11.04
кызмат	-11.04
▁Бири	-11.0401
▁эрк	-11.0403
▁иликтөөлөр	-11.0405
фар	-11.0409
▁журналы	-11.041
эм	-11.0415
▁дооматтар	-11.0416
▁оюнчулар	-11.0418
▁партияны	-11.0419
▁чакырууда	-11.0423
▁айтышы	-11.0423
▁эгемендигин	-11.0425
▁курула	-11.0428
▁умтул	-11.0429
▁талкуула	-11.0431
▁качууга	-11.0431
▁оюнда	-11.0432
▁кандайча	-11.0434
-16	-11.0438
▁кармады	-11.0438
▁эсептеген	-11.0438
▁илимпоздор	-11.0439
▁Миграция	-11.0444
▁Нооруз	-11.0444
▁Чындыгында	-11.0444
▁келатышат	-11.0444
▁Кайрылуу	-11.0444
▁жапайы	-11.0444
▁күчтөп	-11.0444
▁медиктер	-11.0445
▁которулуп	-11.0445
▁айыптоолор	-11.0445
▁катышуучусу	-11.0445
▁алышпайт	-11.0446
▁Эрлан	-11.0449
▁киргизбей	-11.045
▁кемеси	-11.045
▁эркектерди	-11.0451
▁бийликчил	-11.0452
▁туруктуулук	-11.0453
un	-11.0453
Орусиянын	-11.0453
үндөй	-11.0456
▁авиа	-11.0459
▁ойнойт	-11.0459
▁70%	-11.0461
▁молдо	-11.0461
▁алмаштырып	-11.0462
▁саммитте	-11.0465
▁курс	-11.0466
▁сактаган	-11.0468
▁Адил	-11.0469
▁баам	-11.0476
▁баалуулуктарды	-11.0483
▁туз	-11.0484
▁жүктү	-11.0485
▁кошуундар	-11.0485
▁кагылышуулар	-11.0485
▁тилке	-11.0487
▁Ишти	-11.0491
▁жасайт	-11.0494
Эгер	-11.0497
▁депутаттарынын	-11.0497
▁түс	-11.0498
▁референдумга	-11.0499
▁Сох	-11.0501
▁жаралуу	-11.0504
▁уча	-11.0506
▁кеңештерди	-11.0508
▁жеңилдик	-11.051
▁Аскаров	-11.0518
▁бурууга	-11.0521
▁түпкү	-11.0524
▁өңүттө	-11.0524
▁калтыр	-11.0528
▁үлгүсү	-11.0528
▁өзгөрүүлөрдү	-11.0528
▁Газаны	-11.0529
▁Из	-11.053
▁Окумуштуулар	-11.0532
мартында	-11.0532
▁аныктай	-11.0535
▁диаспора	-11.0536
▁ортомчу	-11.0537
▁билиш	-11.0537
▁боштондук	-11.0538
▁снаряд	-11.0538
▁ыңкылап	-11.0538
▁Момбеков	-11.0538
▁литр	-11.0538
▁ажырым	-11.0538
▁1995-	-11.0538
▁автомат	-11.0538
▁2002-	-11.0538
▁регионалдык	-11.0539
▁транзиттик	-11.0539
▁тескери	-11.0539
▁2004-	-11.054
▁такталбаган	-11.054
▁Меркел	-11.054
▁кездешет	-11.054
▁максаттары	-11.0541
▁демаркациялоо	-11.0541
▁баракчалары	-11.0543
▁дыйканчылык	-11.0544
▁пакет	-11.0545
▁Ус	-11.0545
ланд	-11.0546
▁орой	-11.0546
▁чыгаруучу	-11.0553
▁маалыматтарын	-11.0554
▁окуясына	-11.0555
▁райондун	-11.0557
75	-11.0558
▁жүзүндөгү	-11.0558
▁сыймыктан	-11.0563
▁элдиктер	-11.0567
▁калкка	-11.0568
▁жаныбарлар	-11.0569
▁Казакстандык	-11.0575
▁Төрөбаев	-11.0576
▁Ын	-11.0576
▁курагында	-11.0576
лав	-11.0577
▁калгандыктан	-11.0578
▁жазыш	-11.0579
▁топтору	-11.058
▁кадамдар	-11.0581
▁Пар	-11.0582
▁мектептерди	-11.0583
▁роман	-11.0585
▁канцлери	-11.0587
бур	-11.059
▁соккулар	-11.0591
▁Трампты	-11.0594
▁телефону	-11.0597
▁тос	-11.0599
▁резиденция	-11.0599
▁болор	-11.0603
Сары	-11.0603
гендер	-11.0603
▁талапкерди	-11.0603
▁Жал	-11.0605
▁карандысыздыгын	-11.0606
▁кажет	-11.0606
▁программасына	-11.0606
сөк	-11.0607
оммунисттик	-11.0608
юшкан	-11.0609
▁баада	-11.0611
▁абалында	-11.0614
▁имаратын	-11.0618
▁адамдык	-11.0618
▁коюл	-11.0619
▁ийгилик	-11.062
яз	-11.062
утту	-11.0623
▁пикирди	-11.0625
▁түшүн	-11.0627
▁мэрияны	-11.0629
▁тушта	-11.063
▁терроризм	-11.063
▁коюуну	-11.0632
▁грузин	-11.0632
▁канааттандырган	-11.0632
▁кыйкырып	-11.0632
▁цензура	-11.0632
▁пробация	-11.0632
▁берейин	-11.0632
▁айнек	-11.0632
▁утулуп	-11.0633
▁Ирактын	-11.0638
▁айдоочулук	-11.0642
▁себептерден	-11.0644
▁Тамак	-11.0645
▁баласынын	-11.0645
▁ашырууну	-11.0646
▁баштадык	-11.0646
▁балет	-11.0646
▁этика	-11.0649
▁чечилет	-11.0651
▁ашырып	-11.0652
▁бекемдөөгө	-11.0653
▁кызыккан	-11.0654
▁имараттарды	-11.0656
Кыргызстандын	-11.0658
▁жүзүн	-11.066
▁технологияларды	-11.0662
▁салышы	-11.0667
▁акцияларды	-11.067
▁жүрүшкөн	-11.0673
▁кайрылса	-11.0677
▁Израилди	-11.0677
▁бөлүгүнүн	-11.0678
▁наам	-11.0679
Камбар	-11.0682
▁салса	-11.0683
▁бизден	-11.0684
▁кылмыштары	-11.0688
▁чабуулун	-11.0694
▁фирмалар	-11.0697
▁прокурорлор	-11.0701
чык	-11.0703
▁курамын	-11.0706
▁эжеси	-11.0708
үбүздү	-11.071
▁Норвегия	-11.0712
▁федерациясы	-11.0713
▁базары	-11.0713
▁министрлигинен	-11.0714
▁жогорулат	-11.0715
▁Фейсбук	-11.0716
▁барабыз	-11.0716
икти	-11.0719
▁195	-11.0719
▁белгилөө	-11.0723
▁саясаттын	-11.0725
▁Сизди	-11.0726
▁Аргентина	-11.0727
▁Жаратылыш	-11.0727
▁Сатыбалдиев	-11.0727
▁Столтенберг	-11.0727
▁күркүрөйт	-11.0727
▁ачарчылык	-11.0727
▁Yo	-11.0727
▁Николаев	-11.0728
▁Майрам	-11.073
▁таланттуу	-11.073
▁кыскарып	-11.0732
▁түйүнү	-11.0733
▁рыногу	-11.0735
▁соттордун	-11.0739
▁көрөбүз	-11.074
▁жоктугунан	-11.074
▁айткандар	-11.0741
▁бурмала	-11.0741
▁милдеттенмелери	-11.0742
▁катышканын	-11.0742
▁кыскача	-11.0743
▁белгилей	-11.0744
▁көңүлү	-11.0745
бүлөсүнүн	-11.0746
▁Арабиясы	-11.0747
▁Сити	-11.0749
▁айтор	-11.0754
▁өзгөртүүнү	-11.0756
▁ыраста	-11.0757
▁Ги	-11.0758
кыз	-11.076
▁төлөйт	-11.0762
▁аскерий	-11.0762
▁болобуз	-11.0763
▁сыйлыктар	-11.0766
▁тоолор	-11.0766
▁түрүнө	-11.077
▁жүргүздү	-11.077
▁түгүл	-11.0772
баркы	-11.0775
▁айымдар	-11.0778
X	-11.0778
37	-11.0779
▁алдап	-11.0779
укуктук	-11.0779
ишке	-11.0784
▁аралап	-11.0784
▁текшерүүгө	-11.0784
▁Харрис	-11.0786
унчу	-11.0787
▁мүчөлөрүн	-11.0788
сем	-11.079
▁түшүргөн	-11.079
▁даярбыз	-11.0791
▁чеч	-11.0791
▁кылынганын	-11.0792
▁жикчилдер	-11.0793
▁тургундарынын	-11.0794
түгүл	-11.0794
▁видеолорду	-11.0797
анг	-11.0799
▁медресе	-11.0802
▁капа	-11.0807
▁чечилбей	-11.0807
▁туристтерди	-11.0808
"...	-11.0808
▁Жорж	-11.0808
Да	-11.081
▁маданиятын	-11.081
▁Ол	-11.081
▁фабрика	-11.0813
▁басылмасына	-11.0814
▁экономикасын	-11.0817
гусу	-11.0817
▁Жапонияны	-11.0821
▁Статистика	-11.0823
▁куттуктоо	-11.0823
▁меморандум	-11.0823
▁ыктыярдуу	-11.0823
▁Кырдаал	-11.0823
▁байкалууда	-11.0823
▁канадалык	-11.0823
▁өзгөрткөн	-11.0824
ru	-11.0824
▁бекитүү	-11.0825
▁делимитациялоо	-11.0825
▁жарылып	-11.0826
жалган	-11.0826
▁илимпоз	-11.0829
▁койдум	-11.083
гөнү	-11.083
шева	-11.0833
▁камсыздап	-11.0833
▁тастыкталган	-11.0835
▁чабуулдары	-11.0836
▁каны	-11.0836
▁бөлүк	-11.0836
▁Айтор	-11.0839
▁түйүндөрдө	-11.084
▁4-5	-11.0841
▁ДССУ	-11.0843
▁Чыгыштагы	-11.0843
▁курамасы	-11.0845
кум	-11.0847
лис	-11.0848
▁аралаштыр	-11.0848
▁кетиш	-11.085
▁макта	-11.0851
▁тери	-11.0853
▁мээ	-11.0857
92	-11.0858
▁Мэр	-11.0859
▁Үйдө	-11.086
▁жагында	-11.086
ov	-11.0863
▁мекемелерге	-11.0866
ью	-11.0869
оочу	-11.087
▁коюлганы	-11.0871
▁колдогондор	-11.0876
евди	-11.0878
аймана	-11.0879
▁машыктыруучу	-11.0883
▁кооператив	-11.0883
▁Нобел	-11.0886
▁Үсөнбаев	-11.0889
▁кагазы	-11.0892
▁чама	-11.0894
▁киргизиш	-11.0895
▁чыкпайт	-11.0901
ографиялык	-11.0902
27-	-11.0911
▁тергөөдө	-11.0912
▁бүтүрүү	-11.0912
ишти	-11.0915
▁чыгымдарды	-11.0916
▁чык	-11.0917
▁кадрларды	-11.0919
Спутник	-11.092
▁Наталья	-11.092
▁ПЧР	-11.092
▁даражалуу	-11.092
▁конфликт	-11.092
▁1993-	-11.092
▁кесиби	-11.092
▁километр	-11.092
процессуалдык	-11.092
▁аракеттенген	-11.0921
▁учкай	-11.0921
▁коркунучтар	-11.0921
▁Облустук	-11.0921
▁көрсөтүлөт	-11.0923
▁көнүп	-11.0923
▁кыргын	-11.0923
▁борборго	-11.0923
▁Жарым	-11.0923
▁Дем	-11.0925
▁корко	-11.0927
▁кемпир	-11.0928
энесине	-11.093
▁жасалат	-11.093
36	-11.0932
▁системасында	-11.0932
атайын	-11.0933
▁Гал	-11.0934
▁күйгөн	-11.0936
▁жакшылык	-11.0938
▁күйөөсүнүн	-11.0939
▁УКМКга	-11.0945
▁жардамдын	-11.0953
▁калбайт	-11.0958
▁базарынын	-11.0958
▁ойду	-11.096
▁тартипке	-11.0962
▁эпидемия	-11.0963
▁Италияда	-11.0964
▁фестивалы	-11.0964
▁бириктирүү	-11.0966
▁Венгриянын	-11.0968
▁каналынын	-11.0969
▁бузулушу	-11.0978
лбайт	-11.0981
щее	-11.0982
▁Акмат	-11.0983
▁куну	-11.0983
▁үлүш	-11.0985
айт	-11.0985
бактылуу	-11.0986
▁бекетине	-11.0988
▁жаңылыш	-11.0991
▁сизди	-11.0992
▁дарыя	-11.0992
▁варианты	-11.0994
▁Баатыр	-11.0994
аракеттери	-11.0994
▁жумшал	-11.0995
чар	-11.0998
▁айырмасы	-11.0998
бегени	-11.1
▁Жерге	-11.1004
▁азайганы	-11.1004
▁курууну	-11.1004
шкөн	-11.1005
▁Сак	-11.1006
▁кармоого	-11.1007
▁чогулгандар	-11.101
▁ылдам	-11.101
бийликти	-11.1012
▁даттануу	-11.1013
▁курултайды	-11.1014
▁күү	-11.1015
▁карашты	-11.1016
▁опуза	-11.1017
▁маалыматтары	-11.1018
▁койбой	-11.1018
▁Екатеринбург	-11.1018
▁комиссариат	-11.1018
▁компенсация	-11.1018
▁оппозиционер	-11.1018
ъ	-11.1018
▁ооздуктоо	-11.1018
▁Ливия	-11.1018
Өгүз	-11.1018
▁1989-	-11.1018
▁айыккан	-11.1019
▁тете	-11.1019
▁тектүү	-11.1023
▁мунайды	-11.1023
жогу	-11.1025
▁ишкерлик	-11.1026
өбө	-11.1027
лушу	-11.1029
▁чыгарылышы	-11.1031
▁ийгиликке	-11.1032
▁муфтият	-11.1032
▁тийди	-11.1036
▁Изилдөө	-11.1037
▁сага	-11.1039
▁Аскаровду	-11.104
▁Ороз	-11.1041
▁Вашингтонду	-11.1042
▁ЕАЭБдин	-11.1043
▁майдын	-11.1043
▁театрында	-11.1044
эк	-11.1044
▁ишмердик	-11.1046
▁адилетсиз	-11.1051
▁кулагы	-11.1053
▁5%	-11.1053
▁артисттер	-11.1054
▁сурай	-11.1055
▁республикачылар	-11.1057
▁элибиз	-11.1059
▁унааларды	-11.106
▁кыштак	-11.106
▁окуучулардын	-11.1064
▁кайтар	-11.1064
▁жабыл	-11.1065
▁концепциясы	-11.1065
▁мүнөттө	-11.1066
▁бетке	-11.1067
▁өпкөсү	-11.1067
▁укканда	-11.1067
▁көзүнө	-11.1068
▁текшерген	-11.107
ЕАЭБ	-11.1072
▁мыйзамын	-11.1073
талкуу	-11.1073
▁зомбулуктун	-11.1078
декабрь	-11.1081
▁Мур	-11.1083
итет	-11.1085
▁шамалды	-11.1087
алып	-11.1089
▁Ажы	-11.1091
▁маалыматтарда	-11.1091
үүсү	-11.1092
▁өзүмдү	-11.1096
▁Аты	-11.11
▁кыздарды	-11.1103
▁турист	-11.1108
▁бекетинде	-11.1108
▁көтөрүлүшү	-11.1114
өөнү	-11.1116
▁отчёт	-11.1117
▁бирөөнү	-11.1117
▁Малайзия	-11.1117
▁Мьянма	-11.1117
▁ТАСС	-11.1117
▁түйшүгү	-11.1117
▁участка	-11.1117
▁өнөкөт	-11.1117
▁Эстония	-11.1117
▁тездетүү	-11.1117
▁мөмө	-11.1117
▁Кашкар	-11.1118
▁узатуу	-11.1118
▁1998-	-11.1118
▁каада	-11.1118
▁тамагы	-11.1118
▁жоюлуп	-11.1118
▁текшерилип	-11.1118
▁колдобой	-11.1118
▁чечилиши	-11.1118
▁Аскат	-11.1118
Коммерция	-11.1118
▁акыбал	-11.1119
▁Тагыраагы	-11.112
▁өкүмүн	-11.112
▁дайындалып	-11.112
▁түшүү	-11.112
токмокко	-11.112
▁Согд	-11.1121
▁коргоону	-11.1122
▁Айдарбеков	-11.1122
▁экспертизанын	-11.1123
▁академиялык	-11.1123
▁эскерип	-11.1123
▁облустун	-11.1124
▁Ил	-11.1124
▁Газ	-11.1124
▁ууру	-11.1125
▁кандидаты	-11.113
▁макулдугун	-11.113
▁саммитине	-11.1136
▁байлап	-11.1137
▁уюштур	-11.1137
▁бергенден	-11.1142
▁алуудан	-11.1142
▁каралбай	-11.1145
▁түзүлгөнүн	-11.1145
▁Элчилик	-11.1147
▁миссия	-11.1148
▁туугандарынын	-11.1149
сыздык	-11.1152
▁Айып	-11.1153
▁импортто	-11.1153
▁тапкандардын	-11.1156
▁клубу	-11.1157
▁чыктым	-11.1162
тоноо	-11.1163
▁окуясын	-11.1163
▁өткөр	-11.1164
▁улай	-11.1167
▁Назаров	-11.117
▁тута	-11.1171
▁коет	-11.1175
▁айрымдар	-11.1175
▁дареги	-11.1177
▁кездери	-11.1177
▁ассамблеясы	-11.1179
▁кору	-11.1179
▁мина	-11.1179
▁Маселе	-11.118
▁пункт	-11.1181
▁жумушу	-11.1182
ио	-11.1183
▁U	-11.1183
▁энелер	-11.1184
▁кызга	-11.1184
▁сынагы	-11.1185
▁ап	-11.1188
▁өлкөлөрдү	-11.119
▁бергенге	-11.1192
апырт	-11.1204
▁июлда	-11.1207
▁этабы	-11.1208
▁баштаса	-11.1209
▁тилиндеги	-11.1211
▁өлгөндөрдү	-11.1213
лүгүнө	-11.1216
▁масштабы	-11.1217
▁карындашы	-11.1217
▁пикет	-11.1217
▁облуста	-11.1218
▁Кулматов	-11.1218
la	-11.1218
▁өзүң	-11.1218
▁жанданды	-11.1218
цкий	-11.1218
▁алынарын	-11.1219
▁бүтүргөн	-11.1219
▁мүнөзү	-11.1223
Альфа	-11.1223
▁сам	-11.1224
▁ташууга	-11.1225
▁шейшембиде	-11.1225
▁лицей	-11.1226
рах	-11.1227
▁салгылаш	-11.1227
▁мамлекетинин	-11.1228
▁1200	-11.1228
▁сабактар	-11.1229
рдиктүү	-11.1229
▁донорлор	-11.123
▁потенциалы	-11.1232
Рос	-11.1233
▁табият	-11.1234
▁маянасы	-11.124
▁эфирде	-11.1243
▁округдан	-11.1243
тыкты	-11.1243
рү	-11.1247
▁алмаштыр	-11.125
ынган	-11.1252
▁БШКга	-11.1252
лордо	-11.1254
▁Нуржан	-11.1258
▁Хар	-11.1259
▁Урмат	-11.1259
▁Талантбек	-11.126
▁алышыбыз	-11.126
▁өлгөнүн	-11.1261
▁1-2	-11.1264
▁Жогоруда	-11.1265
маг	-11.1266
▁топторго	-11.1266
▁эркиндигинин	-11.1267
▁таңында	-11.1268
▁чапкан	-11.1268
▁чыгармасы	-11.1273
мамлекеттик	-11.1275
▁энергиясынын	-11.1276
▁Тал	-11.1276
пост	-11.1277
иц	-11.1279
фон	-11.1282
баевди	-11.1288
▁турмушта	-11.129
▁Мамат	-11.129
ардын	-11.1291
▁палестин	-11.1292
▁жиберүү	-11.1292
ив	-11.1292
▁Арабия	-11.1293
▁ассоциациясы	-11.1293
▁машыгуулар	-11.1293
▁баштык	-11.1294
лашып	-11.1294
▁ушундан	-11.1297
▁буу	-11.1297
▁кагаздары	-11.1298
▁салуусуна	-11.1298
▁чегине	-11.13
▁сайтынын	-11.1301
▁Пу	-11.1303
▁товарды	-11.1305
▁баштай	-11.1306
▁Вашингтондо	-11.1307
▁таяк	-11.1309
▁иче	-11.1309
▁Электр	-11.1309
48	-11.1311
▁өсүү	-11.1311
▁коргоочулардын	-11.1315
▁санал	-11.1316
▁масштабда	-11.1318
▁курактагы	-11.1318
▁иликтенип	-11.1318
▁камтама	-11.1318
▁өнүгө	-11.1318
▁экономист	-11.1319
▁мушкер	-11.1319
▁таржымалы	-11.1319
▁кечеңде	-11.1319
▁окутуп	-11.1319
▁өчүрүп	-11.132
▁билишет	-11.132
▁санариптик	-11.1321
▁узундугу	-11.1321
▁Рей	-11.1322
▁кездешүү	-11.1323
▁Тасма	-11.1323
▁Айгүл	-11.1323
▁мыкаачылык	-11.1324
▁байкалат	-11.1324
▁Согушту	-11.1325
▁маршрут	-11.1328
▁аныкталат	-11.1329
▁келишпестик	-11.1329
▁Рита	-11.1331
▁карашын	-11.1333
▁шаарлары	-11.1334
▁жоолук	-11.1337
шү	-11.1337
▁талкууда	-11.1339
▁фактыларды	-11.1344
▁логистикалык	-11.1345
▁Им	-11.1346
▁турбайбы	-11.1346
▁мугалимди	-11.1347
▁за	-11.1348
▁кордо	-11.1348
▁долбоорлорун	-11.135
▁Үсөн	-11.135
▁өздүк	-11.1353
ТР	-11.1354
иддин	-11.1355
▁но	-11.1358
▁башкаруунун	-11.1359
түзөө	-11.136
▁Акун	-11.136
▁чак	-11.1361
▁метрден	-11.1361
▁кеңешинде	-11.1366
▁Абдан	-11.1371
▁Цзинпин	-11.1372
▁тынчсыздан	-11.1373
▁чыктык	-11.1373
▁ашырган	-11.1376
▁Кремл	-11.1377
▁номур	-11.1379
▁жашоодо	-11.1379
Азия	-11.138
▁туруктуулукту	-11.1381
▁Зу	-11.1382
▁кабылгандар	-11.1384
▁салынганын	-11.1386
▁дайын	-11.1388
▁айлампасы	-11.1388
▁алмак	-11.139
▁Өзүн	-11.1394
убузду	-11.1397
▁Алдыда	-11.1397
▁өзүмдүн	-11.1399
гиле	-11.1402
бөсө	-11.1403
ников	-11.1405
▁күтө	-11.141
▁сыры	-11.1412
▁токтой	-11.1413
▁турганына	-11.1414
▁мыйзамдык	-11.1416
▁жолугушууларды	-11.1419
▁ыңкылабы	-11.142
▁2...7	-11.142
▁Ашхабад	-11.142
▁Индонезия	-11.142
▁принциби	-11.142
▁уникалдуу	-11.142
▁участогу	-11.142
▁дегеле	-11.142
▁колхоз	-11.1421
▁аалам	-11.1421
▁үйрөнүп	-11.1421
▁жетишилген	-11.1421
▁балбандар	-11.1422
▁көбөйтүп	-11.1422
▁Диний	-11.1423
▁чакырабыз	-11.1423
▁түшүр	-11.1424
▁маселелердин	-11.1424
▁кооптонуп	-11.1425
▁уюштурулду	-11.1425
▁жайын	-11.1426
▁музыкант	-11.1427
▁ийне	-11.1429
▁ыйгарылган	-11.1435
▁рынок	-11.1436
▁сени	-11.1438
▁котормочу	-11.1438
▁аларда	-11.1439
▁Human	-11.1441
вал	-11.1441
▁Мухтар	-11.1443
▁чыгышында	-11.1446
▁азыктарын	-11.1447
▁Муратбек	-11.1448
▁жемкорлукка	-11.1449
▁Абдылдаев	-11.1451
▁сактагычынын	-11.1451
▁дипломаты	-11.1452
▁медалы	-11.1452
▁алкак	-11.1456
мени	-11.1457
▁өнүктүрүүнү	-11.146
▁сунуштарын	-11.1461
▁баштала	-11.1462
▁номуру	-11.1465
▁этап	-11.1466
ток	-11.1468
▁эмгегин	-11.1468
▁аттары	-11.1476
жобосу	-11.1479
Адилет	-11.1479
Путин	-11.1479
Кызыл	-11.1479
▁Документте	-11.1481
аюу	-11.1486
▁акылга	-11.1487
▁кийими	-11.1488
▁кыйы	-11.1489
▁Аг	-11.1491
▁кыдыр	-11.1493
▁чыгармаларды	-11.1495
▁оозу	-11.1498
▁жайгашты	-11.15
▁орундарын	-11.1503
▁аткарылбай	-11.1504
▁баасына	-11.1505
▁шаарларына	-11.1508
тивдик	-11.151
▁сатык	-11.151
▁Рахмонду	-11.1512
▁кетир	-11.1512
▁сапарында	-11.1513
▁маектеш	-11.1514
дешти	-11.1514
Менин	-11.1514
▁кодекс	-11.1516
▁даярдыгы	-11.1517
арат	-11.152
▁таанышкан	-11.1523
▁AFP	-11.1524
▁Август	-11.1524
▁Шыкмаматов	-11.1524
▁догдур	-11.1524
▁психикалык	-11.1524
▁Ашраф	-11.1524
▁Чыгарма	-11.1524
▁Атырау	-11.1524
▁токто	-11.1524
▁1997-	-11.1524
▁философия	-11.1524
▁оолак	-11.1524
▁койгула	-11.1525
▁Маматалиев	-11.1525
▁кетирип	-11.1525
▁автоматтык	-11.1525
▁Йо	-11.1525
▁бириктирген	-11.1526
▁чатагы	-11.1526
▁жоочулары	-11.153
▁такталып	-11.153
▁Бейшенбек	-11.153
▁Алтай	-11.1532
▁бергенбиз	-11.1532
▁окуясынан	-11.1533
▁бирикмеси	-11.1533
▁идеологиялык	-11.1533
▁биримдигинин	-11.1535
▁депутаттарга	-11.1535
▁Ниязбеков	-11.1538
▁өлкөсүнүн	-11.1538
▁маселелерге	-11.1539
▁Жолугушуу	-11.1539
▁курмандыктар	-11.1539
▁өтөө	-11.1539
▁Мор	-11.154
▁Дүйнөнү	-11.154
▁тергөөчүлөр	-11.1542
▁тынчы	-11.1544
99	-11.1546
▁чечимдерин	-11.1546
▁төлөмдөрү	-11.1549
▁чыры	-11.1551
энем	-11.1553
▁эмдел	-11.1555
▁келем	-11.1556
▁миңи	-11.1557
▁долларын	-11.1557
▁союз	-11.156
▁диагноз	-11.1565
▁чакырымга	-11.1566
▁Мыйзамды	-11.1571
▁башташкан	-11.1571
ьер	-11.1573
ртка	-11.1575
▁айткандарын	-11.1576
▁кайтарууга	-11.1576
▁Биринчиси	-11.158
▁Сей	-11.1581
▁азгыр	-11.1582
Америка	-11.1583
▁Вол	-11.1584
Баткен	-11.1585
▁сары	-11.1586
демократиялык	-11.1586
▁Израилде	-11.1588
▁ченемдер	-11.1588
▁жүрүшкө	-11.1588
▁сыз	-11.159
шер	-11.1591
▁схемалар	-11.1595
▁альянс	-11.1596
▁сайыл	-11.1597
▁парк	-11.1599
▁мыйзамдуулугу	-11.1603
▁жашыруу	-11.1604
▁Сегизбаев	-11.1605
▁акцияны	-11.1609
▁92	-11.1609
ели	-11.161
ави	-11.1615
▁партиясына	-11.1616
▁жумуштары	-11.1617
утур	-11.1619
үмдө	-11.1624
ымдын	-11.1624
▁платформасы	-11.1627
Kloop	-11.1628
▁Дэвид	-11.1628
▁Оренбург	-11.1628
▁Раззаков	-11.1628
▁Сингапур	-11.1628
▁жомок	-11.1628
▁импичмент	-11.1628
▁көмүлгөн	-11.1628
▁хижаб	-11.1628
▁Анталия	-11.1628
▁кыйнап	-11.1628
▁бекитип	-11.1628
▁токтолуп	-11.1629
▁багуу	-11.1629
▁Жумалиев	-11.1629
▁өң	-11.1633
түлүктүн	-11.1634
▁жаралат	-11.1636
▁иштешет	-11.1639
ныкы	-11.1641
▁кааласа	-11.1646
▁конушунда	-11.1648
▁жең	-11.1649
▁кардар	-11.1651
ent	-11.1652
▁чабал	-11.1657
▁Абдил	-11.1657
▁эстеп	-11.1658
▁пайдалана	-11.166
▁катты	-11.1661
▁байланышка	-11.1662
далып	-11.1663
▁Жакындары	-11.1669
▁бийликтер	-11.167
▁демократтар	-11.1671
ованы	-11.1679
▁иштебейт	-11.1679
▁аңгеме	-11.168
▁Мигранттарды	-11.1681
▁абалдын	-11.1684
▁өрттү	-11.1684
▁натыйжада	-11.1685
Ю	-11.1687
▁үшү	-11.1687
▁чогулуш	-11.1688
кылмыш	-11.1688
2020-	-11.1688
▁түштөн	-11.169
▁учакта	-11.1695
▁булуң	-11.1695
▁кызматтарынын	-11.17
▁Орозбек	-11.1704
▁Мир	-11.1704
Кулжа	-11.1706
▁Атасы	-11.1707
▁коммуникациялар	-11.1707
хат	-11.1712
▁тилинин	-11.1715
▁Эсеп	-11.1715
▁маанайда	-11.1716
▁кадамы	-11.1718
▁Көр	-11.1721
▁жолугушууну	-11.1723
▁Мам	-11.1724
▁чагылдыруу	-11.1724
▁калка	-11.1725
▁жөнөтө	-11.1726
▁сүйлөшүүдө	-11.1727
▁мүнөз	-11.1727
▁каналында	-11.1729
▁тилектеш	-11.1732
▁бөл	-11.1733
▁Цзиньпин	-11.1733
Авив	-11.1733
▁Абдукадыр	-11.1733
▁пакистандык	-11.1733
▁бурмалоо	-11.1733
▁кубаныч	-11.1733
▁Караганды	-11.1733
▁Орбан	-11.1733
▁Ахмед	-11.1733
▁Илхам	-11.1733
▁күнөөлөп	-11.1733
▁адистерди	-11.1734
▁кыял	-11.1734
▁чыңда	-11.1735
▁Азык	-11.1735
▁Донбасс	-11.1737
▁кенже	-11.1737
▁Кыргызгидромет	-11.1739
▁жүрөбүз	-11.174
▁билбейбиз	-11.1741
▁азайтып	-11.1742
▁кайтарылды	-11.1744
▁берсек	-11.1745
▁Абактагы	-11.1746
▁бомбалоо	-11.1747
▁геноцид	-11.1748
▁94	-11.1748
Мекенчил	-11.1748
▁YouTube	-11.1749
▁ачыш	-11.1749
▁баргандар	-11.1749
▁божомолдор	-11.175
▁бурулуш	-11.175
▁аткылап	-11.1751
▁Ливанды	-11.1757
▁ыкмалар	-11.1766
▁жетекчилердин	-11.1766
күч	-11.1766
▁оңдоого	-11.1767
▁Элчи	-11.1767
▁Илья	-11.1768
▁кабылгандардын	-11.1769
▁талант	-11.1769
▁жабылышы	-11.177
▁аянтына	-11.177
▁жеткирүүгө	-11.1771
▁төлөбөй	-11.1772
▁сынды	-11.1775
▁Алмамбет	-11.1777
▁ордунда	-11.178
▁соо	-11.1787
▁формасы	-11.1789
▁отура	-11.1789
тарында	-11.1791
▁такта	-11.1792
▁Өзүм	-11.1794
Кемпир	-11.1794
коррупция	-11.1794
Жол	-11.1798
▁тааныштары	-11.18
▁Каримов	-11.18
▁сенатор	-11.1801
▁палестиналык	-11.1802
▁байланыштары	-11.1803
▁Тажи	-11.1804
чарасы	-11.1804
▁көбөйө	-11.1804
▁Иракта	-11.1807
▁эркиндикти	-11.181
▁редакциясы	-11.181
▁дүйшөмбүдө	-11.1812
▁окуясында	-11.1812
▁кайтарыл	-11.1812
▁атка	-11.1814
om	-11.1814
▁табыла	-11.1815
үмө	-11.1816
▁энергияны	-11.1816
▁дипломатия	-11.1817
▁көчөлөрү	-11.1817
▁согушкерлери	-11.1819
▁уял	-11.1821
▁чакырылыш	-11.1822
лерине	-11.1824
▁кирбей	-11.1825
▁рекордду	-11.1826
▁көрүүчүлөр	-11.1826
▁бюллетен	-11.1827
ердик	-11.1829
▁арасынын	-11.1829
▁коррупциянын	-11.1833
▁адилет	-11.1834
▁төш	-11.1837
▁0...5	-11.1839
'	-11.1839
▁-2...+3	-11.1839
▁Вице	-11.1839
▁кечигип	-11.1839
▁тестирлөө	-11.1839
▁Элмирбек	-11.1839
▁сыйлыгы	-11.184
▁баюу	-11.184
▁көрүлгөн	-11.184
▁бокс	-11.1841
▁Видео	-11.1841
▁унутуп	-11.1841
▁190	-11.1841
▁кечирип	-11.1841
▁тутум	-11.1841
▁комплекстүү	-11.1842
▁сунушуна	-11.1842
стоя	-11.1843
▁тоскоолдуксуз	-11.1843
▁бөлүштүрүл	-11.1844
ташып	-11.1845
▁криминалдык	-11.1845
▁капыс	-11.1848
▁миграцияга	-11.185
▁коргошун	-11.1851
▁пандемиядан	-11.1855
бүлөдөгү	-11.1857
▁бербейбиз	-11.1857
▁тараптарды	-11.1863
▁текшерүүлөр	-11.1864
▁Мамлекеттин	-11.1868
лигине	-11.1868
▁этип	-11.1869
▁окурмандар	-11.1869
иңер	-11.1871
▁конгон	-11.1872
Хо	-11.1872
▁уста	-11.1873
гүсү	-11.1873
▁курулушуна	-11.1874
▁өтмөк	-11.1879
гандан	-11.1879
▁санкцияларга	-11.188
Жашыл	-11.1881
▁базасын	-11.1882
▁170	-11.1883
ондук	-11.1884
▁делегат	-11.1888
▁Ишкерлер	-11.189
▁этно	-11.1891
▁топторду	-11.1891
▁мамлекеттерден	-11.1893
▁калам	-11.1896
▁финалды	-11.1898
▁символу	-11.1898
▁чыгабыз	-11.1899
▁газын	-11.19
▁көргөнүн	-11.1901
январь	-11.1902
33	-11.1902
▁башкаларды	-11.1905
хе	-11.1909
▁цех	-11.1911
▁позицияны	-11.1914
▁эстелиги	-11.1916
чоң	-11.1917
▁өткөрүл	-11.1918
▁акт	-11.1919
▁комиссары	-11.1921
▁Балдардын	-11.1921
улду	-11.1924
▁этүү	-11.1925
▁кодекси	-11.1927
▁тапкандар	-11.1928
▁кабары	-11.193
онов	-11.193
▁котормо	-11.1931
Кан	-11.1932
▁90-	-11.1932
▁ачылыш	-11.1932
▁175	-11.1938
▁Чолпонбаев	-11.1938
▁Ант	-11.1939
▁96	-11.194
кусу	-11.1942
▁келечегин	-11.1944
▁кемелер	-11.1944
ңды	-11.1944
▁аяк	-11.1946
▁Токтогазиев	-11.1947
▁LIVE	-11.1947
▁Бангладеш	-11.1947
▁Жумгал	-11.1947
▁индиялык	-11.1947
▁көрүнүктүү	-11.1947
▁эффективдүү	-11.1947
▁Өндүрүш	-11.1947
▁кетейин	-11.1947
▁байкаган	-11.1947
▁коллеж	-11.1947
▁көбөйүүдө	-11.1947
▁Тартип	-11.1948
▁тезирээк	-11.1949
▁жугузгандар	-11.1949
▁Temirov	-11.1951
▁башкалаа	-11.1951
▁аэропортунун	-11.1954
стра	-11.1954
▁кызматташып	-11.1956
итардык	-11.1956
▁медаль	-11.1957
▁Эм	-11.1959
▁ишарат	-11.1959
▁Көбү	-11.196
▁жазда	-11.196
▁Талибан	-11.1961
▁жада	-11.1963
берди	-11.1966
▁1500	-11.1968
▁Шайлоону	-11.1968
▁болочок	-11.197
▁айылынан	-11.1971
▁суммада	-11.1971
окто	-11.1973
▁акылдуу	-11.1973
▁кайтара	-11.1973
▁түрлөрүн	-11.1975
▁өндүрүштүк	-11.1976
▁Мыйзамга	-11.1978
▁тоолордо	-11.198
▁жактары	-11.1981
керлер	-11.1982
Түрк	-11.1982
▁окуйт	-11.1983
▁улантат	-11.1989
▁жакшыртууга	-11.1989
▁рак	-11.1991
▁миңдейи	-11.1994
▁жүргүз	-11.1996
▁капиталды	-11.2
▁сыйлыкты	-11.2001
▁Молдованын	-11.2003
▁тажа	-11.2003
▁Дил	-11.2003
▁күндү	-11.2007
▁оюну	-11.2008
▁экенбиз	-11.2008
▁тактады	-11.2017
министрлик	-11.2024
ологдор	-11.2029
▁Мирзиёевди	-11.203
64	-11.203
ром	-11.203
▁өлчө	-11.2032
▁уурдаган	-11.2032
▁казынасын	-11.2033
▁салгылашуу	-11.2035
▁кеңештер	-11.2036
▁алынгандан	-11.2036
▁түзүүдө	-11.2037
▁ыктымалдыгы	-11.2037
мор	-11.2044
▁Хе	-11.2047
▁аскерин	-11.2049
▁жүгүртүүсү	-11.2051
▁Новиков	-11.2056
▁баллистикалык	-11.2056
▁кесилди	-11.2056
▁көмөгү	-11.2056
▁оозеки	-11.2056
▁теория	-11.2056
▁өкүнүчтүү	-11.2056
▁конгресс	-11.2056
▁Жоробеков	-11.2056
▁тагылып	-11.2056
▁Филипп	-11.2056
▁даттанган	-11.2056
▁Амангелдиев	-11.2056
▁которулду	-11.2056
анд	-11.2056
▁бутактары	-11.2058
▁өкмөттө	-11.2059
▁кайрылганын	-11.2059
▁тынчсызданып	-11.206
▁отурабыз	-11.2062
▁даярдануу	-11.2062
лбаганы	-11.2063
▁Кыскасы	-11.2064
абад	-11.2065
▁Маск	-11.2066
▁Амир	-11.2071
▁экспорттоого	-11.2073
▁Келин	-11.2076
▁сентябр	-11.2077
▁аныктайт	-11.2078
▁Фарид	-11.208
▁машинелерди	-11.208
▁Во	-11.208
▁кошулат	-11.2081
▁Бардыгы	-11.2083
▁мекен	-11.2083
▁таянуу	-11.2083
▁станциясы	-11.2084
▁Сотко	-11.2086
▁корк	-11.2088
▁Сура	-11.2088
▁Иман	-11.2088
Ташта	-11.2089
▁кийлигишүүсү	-11.2089
▁облусунан	-11.209
▁сактагычында	-11.209
▁ачылышына	-11.2091
▁мисалдар	-11.2091
▁айылдарды	-11.2091
▁тутумун	-11.2095
▁кабарчылары	-11.2095
▁метро	-11.2096
▁жүрчү	-11.2096
▁дозасын	-11.2098
▁мелдеште	-11.2099
▁Илим	-11.2101
еев	-11.2102
▁Бор	-11.2102
муш	-11.2107
▁чыңалууну	-11.2107
лөрүнө	-11.2111
акция	-11.2112
▁талаада	-11.2116
дигине	-11.2116
▁урганын	-11.2118
▁жаныбар	-11.2118
▁улуттар	-11.2119
жаңы	-11.2121
ондор	-11.2122
▁Абал	-11.2123
▁бөлмөдө	-11.2126
▁арыздар	-11.2127
эч	-11.2127
▁китепти	-11.2132
▁Анна	-11.2136
▁конушу	-11.2137
▁өстүр	-11.2137
▁тургундарга	-11.2138
▁сактагычы	-11.2142
▁келтир	-11.2144
▁азчылыктар	-11.2144
▁тургундарына	-11.2152
▁Түш	-11.2158
▁Керим	-11.2159
намыс	-11.2161
▁баратып	-11.2161
▁комуз	-11.2162
▁жаштарга	-11.2163
ңку	-11.2163
▁Мухаммад	-11.2165
▁Мүмкүн	-11.2165
▁Рафах	-11.2165
▁дубандарында	-11.2165
▁маалымдашынча	-11.2165
▁марафон	-11.2165
▁резонанс	-11.2165
▁Шаршенбеков	-11.2165
▁грамм	-11.2166
▁Рыскелди	-11.2166
▁кыйгап	-11.2166
▁убара	-11.2166
▁кетишет	-11.2167
▁дешкен	-11.2168
▁кече	-11.2169
▁демонстрация	-11.2169
көз	-11.217
▁жерлерин	-11.217
▁коммунисттик	-11.217
▁мектебинин	-11.2171
▁долбоордо	-11.2171
▁толкундоолор	-11.2171
▁сыноодон	-11.2172
▁Images	-11.2173
▁эксперттик	-11.2173
ck	-11.2174
▁жоопкерчиликтүү	-11.2174
▁жактырды	-11.2174
▁дыкат	-11.2174
▁сүйгөн	-11.2182
▁калем	-11.2183
оюн	-11.2184
▁жүрүшүнө	-11.2185
шот	-11.2187
▁товарларын	-11.2188
▁саясатынын	-11.2189
▁тыңчылык	-11.2192
бүздү	-11.2192
▁регламент	-11.2193
▁демократияга	-11.2193
▁аныкташ	-11.2193
▁келишимдерге	-11.2197
теген	-11.2197
▁токтоду	-11.2199
ияны	-11.2199
▁Тергөөнү	-11.2199
▁жазганына	-11.2201
▁номер	-11.2202
▁Катарда	-11.2205
▁күбөлүгү	-11.2206
▁мээси	-11.2208
▁талаптарга	-11.2208
акырындык	-11.2209
▁При	-11.2209
▁нааразычылык	-11.2212
▁жетекчилерине	-11.2212
▁кеңешчи	-11.2213
▁издөөгө	-11.2214
▁жайылуу	-11.2215
▁агенттиктер	-11.2216
▁качкындарды	-11.2217
▁бакты	-11.2217
имдин	-11.2219
me	-11.2221
▁изилдөөгө	-11.2225
▁билиши	-11.2226
▁килограммга	-11.2228
үлө	-11.2228
ыңды	-11.223
▁ыйгар	-11.2231
чыгыш	-11.2231
▁желек	-11.2232
Медиа	-11.2232
▁доордо	-11.2236
▁ысымдары	-11.2237
▁учурады	-11.2239
▁билсе	-11.2241
▁кайрылуусун	-11.2243
ёр	-11.2243
▁көчүрүү	-11.2243
▁бөгөттө	-11.2244
батышында	-11.2245
▁Фр	-11.2246
▁уйку	-11.2247
▁Шай	-11.2247
▁Чыр	-11.2251
▁чабуулдан	-11.2252
▁Нурбаев	-11.2255
▁Кубат	-11.2257
▁Ток	-11.2259
▁пикирлерин	-11.2261
▁кошту	-11.2264
▁талапкерлерди	-11.2265
▁башташы	-11.2266
▁окурман	-11.2266
▁азиялык	-11.2268
▁талапты	-11.2268
▁Мигранттар	-11.2269
▁Акыл	-11.227
шпайт	-11.2272
ңа	-11.2273
▁анализи	-11.2273
▁сезимдер	-11.2274
▁аке	-11.2275
▁кибер	-11.2277
▁CNN	-11.2277
▁Жактоочу	-11.2277
▁сириялык	-11.2277
▁дурус	-11.2277
▁Жоламан	-11.2277
▁каникул	-11.2277
▁каякта	-11.2277
▁күтүлөт	-11.2277
▁азайышы	-11.2277
▁тартыларын	-11.2277
▁Юлия	-11.2277
▁өрүк	-11.2278
Элвира	-11.2278
▁өткөрүштү	-11.2278
▁ЕБ	-11.2279
▁жүзүнө	-11.2279
▁Валери	-11.2279
▁андыктан	-11.2279
▁көрсөтүлдү	-11.2281
аштапкы	-11.2282
▁Жаныш	-11.2282
▁окуду	-11.2283
▁ырдап	-11.2283
▁Алсак	-11.2284
▁20-30	-11.2285
чумун	-11.2286
▁фондунан	-11.2286
▁сезил	-11.2287
токтоосуз	-11.2288
▁эткен	-11.2289
▁жеткирүүнү	-11.2289
▁амалдары	-11.2289
▁күнкү	-11.229
▁комитетте	-11.2291
▁чаң	-11.2291
▁мекендик	-11.2293
▁Нааразылык	-11.2295
боону	-11.2295
бестен	-11.2297
▁тасмада	-11.2301
▁бергендер	-11.2302
▁4,5	-11.2303
▁баштоого	-11.2307
▁жүздөй	-11.2307
▁Сирияга	-11.2309
▁футболчу	-11.2309
жаш	-11.2311
▁адабияты	-11.2314
▁алтоо	-11.232
▁буюмдарды	-11.2324
шүүдө	-11.2324
каналы	-11.2326
▁жабдууларды	-11.2326
▁кызыкчылыктар	-11.2326
дөгөн	-11.2328
лбей	-11.2329
▁ыктыярчы	-11.2331
▁курду	-11.2333
▁Сам	-11.2334
▁кайрылгандар	-11.2335
▁багытын	-11.2338
▁Чыгышта	-11.2338
▁процессин	-11.2339
▁жаткандыгы	-11.2339
көп	-11.234
▁көргөзмөсү	-11.2342
Москва	-11.2344
маданий	-11.2344
▁чектөөнү	-11.2344
2019-	-11.2344
▁контр	-11.2345
▁кызматташтыгын	-11.2345
▁келгенбиз	-11.2346
ханов	-11.2348
▁улантууга	-11.235
▁Америкада	-11.2351
▁кыйналган	-11.2353
▁идеология	-11.2354
▁бакчага	-11.2354
▁кымбатчылык	-11.2355
▁450	-11.2356
▁депутаттарды	-11.2356
умдук	-11.2356
▁айткандары	-11.2357
▁жанр	-11.2357
гени	-11.2358
▁жээкте	-11.236
▁көбөйгөнү	-11.2362
руз	-11.237
▁Сол	-11.2372
июлдагы	-11.2374
▁сүрөттөрү	-11.2375
аракети	-11.2378
▁жоокерлерди	-11.2378
Аль	-11.2383
үлдү	-11.2383
▁Трампка	-11.2386
▁демилгелер	-11.2387
▁туудур	-11.2387
▁транзит	-11.2387
▁тарыхты	-11.2388
▁Суваналиев	-11.2389
▁тыныгуу	-11.2389
▁Getty	-11.2389
▁Бельгия	-11.2389
▁жанкечти	-11.2389
▁куттуктады	-11.2389
▁созулат	-11.2389
▁соккон	-11.2389
▁Түлөбаев	-11.2389
▁чектелип	-11.2389
▁Кимсанов	-11.2389
▁темп	-11.2389
▁оболу	-11.2389
▁планета	-11.2389
▁килем	-11.2389
▁Боррел	-11.2389
▁сыпаттап	-11.2389
▁чектеп	-11.2389
esty	-11.239
▁бүтүрүп	-11.239
▁жеткирилип	-11.239
▁британиялык	-11.2391
▁Алтынай	-11.2392
▁булганышы	-11.2392
▁убакты	-11.2394
▁Бизнес	-11.2395
▁союзунун	-11.2396
▁отургандар	-11.2399
▁орундар	-11.24
▁полициясынын	-11.24
▁өткөрбөй	-11.2403
Өзөн	-11.2405
▁ажырап	-11.2405
▁акимдер	-11.2405
кулова	-11.2406
▁Дума	-11.2408
▁окумуштуулары	-11.2409
Асман	-11.2409
▁тартпай	-11.241
▁жоюп	-11.241
▁максатына	-11.241
▁санкциялардын	-11.2413
Дөбө	-11.2413
▁түзүмүн	-11.2415
яс	-11.2415
▁чарбасы	-11.2416
▁баштагандан	-11.2421
▁силерге	-11.2424
▁жорук	-11.2424
▁келишине	-11.2426
Каз	-11.2432
▁Коомчулукта	-11.2433
▁илдетинен	-11.2441
пейт	-11.2441
65	-11.2443
пур	-11.2444
▁козгоо	-11.2444
▁өтүн	-11.2445
▁алдырып	-11.2448
▁Гонконг	-11.2449
▁Кеңешбек	-11.2451
▁кырсыктар	-11.2452
▁жабыш	-11.2452
▁билдирүүнү	-11.2454
Жаш	-11.2457
кеңеш	-11.2457
▁көрсөтүшү	-11.2458
▁далилдерди	-11.2462
▁кетем	-11.2463
▁91	-11.2464
▁четинен	-11.2466
▁элдердин	-11.2466
дикти	-11.2466
▁Канаданын	-11.2467
Же	-11.2467
сөз	-11.2469
▁уюштурууну	-11.2472
▁температура	-11.2472
тирүү	-11.2472
46	-11.2473
▁топтол	-11.2474
▁орнотул	-11.2475
▁класста	-11.2476
шов	-11.2477
▁бизнеске	-11.2479
есс	-11.2481
▁...	-11.2483
Ас	-11.2488
▁үйдөгү	-11.2489
▁калмак	-11.2491
башка	-11.2491
▁кайрылууга	-11.2492
▁жеңилдиктер	-11.2493
▁бергенде	-11.2494
ir	-11.2496
▁башкармалык	-11.2498
▁ооругандарды	-11.2499
▁ратификация	-11.2499
▁сүйлөшө	-11.25
▁баштадым	-11.25
▁автожол	-11.2502
▁обочо	-11.2503
▁жатышпайбы	-11.2503
▁ыңгайсыз	-11.2503
▁каптады	-11.2503
▁менимче	-11.2503
▁Арстанбек	-11.2503
▁Орозайым	-11.2503
▁бөлүшкөн	-11.2503
▁Жылуулук	-11.2503
▁Павел	-11.2503
▁пландалууда	-11.2503
▁динди	-11.2503
▁Ибрагим	-11.2504
▁Тимур	-11.2504
▁шайлоодогу	-11.2504
▁Уланбек	-11.2504
▁директорлор	-11.2505
▁Төрөкул	-11.2506
▁элементтер	-11.2506
▁объекттер	-11.2506
▁Эски	-11.2507
▁бага	-11.2508
▁бүтүндүгүн	-11.2508
▁чарбалык	-11.2508
▁биримдигине	-11.2509
▁четтетүү	-11.251
▁Минскиде	-11.251
▁Абдуллаев	-11.251
▁айтпа	-11.251
▁каарман	-11.251
▁ШКУ	-11.2511
▁жылдыгын	-11.2512
▁өсөт	-11.2513
▁Саймаитинин	-11.2513
▁тажрыйбалуу	-11.2513
бетов	-11.2517
▁бурбай	-11.2517
▁Өзүнүн	-11.2518
▁кордук	-11.2521
▁өпкө	-11.2524
▁Ишкана	-11.2524
▁Сенат	-11.2525
▁үйрөтүү	-11.2526
дармектер	-11.2526
▁өстүрүү	-11.2527
▁системага	-11.2529
ие	-11.2532
сырап	-11.2533
com	-11.2534
▁механизми	-11.2539
▁социал	-11.2544
иевдин	-11.2549
▁өтөрү	-11.255
▁кезге	-11.2553
▁планды	-11.2553
▁Шаарда	-11.2553
▁газды	-11.2555
▁аппаратынын	-11.2555
▁кызыкчылык	-11.2556
55	-11.2557
▁мүмкүнбү	-11.2559
Бийлик	-11.2559
▁жибере	-11.2561
▁Сат	-11.2561
97	-11.2563
▁чакырылып	-11.2566
▁териштирүүнү	-11.2567
өнөр	-11.2567
▁албайсың	-11.2567
ваз	-11.2569
▁кесе	-11.2569
▁кадамдарга	-11.2571
кийин	-11.2573
▁аймактары	-11.2573
▁күрөшүүдө	-11.2576
▁кеттим	-11.2576
күнөө	-11.2579
▁талапка	-11.258
▁Акматбек	-11.2581
▁кыздарга	-11.2581
▁аныктоого	-11.2584
урук	-11.2588
▁атуул	-11.2588
▁өсүмдүк	-11.259
▁жылдыз	-11.2591
рем	-11.2591
▁албаганда	-11.2594
▁пайдалан	-11.2594
▁статистикасы	-11.2595
▁клуб	-11.2597
улло	-11.2599
▁мектеби	-11.26
▁күрөшө	-11.2603
▁сакал	-11.2603
▁кыймылын	-11.2603
бузга	-11.2606
тоону	-11.2606
▁өткөргөнү	-11.2607
▁базасында	-11.2609
▁хирургия	-11.261
▁89	-11.2611
▁Марс	-11.2611
▁замат	-11.2612
▁фирмасы	-11.2614
66	-11.2617
▁Вакцина	-11.2618
▁кыйнал	-11.2618
▁Словакия	-11.2618
▁Текшерүү	-11.2618
▁ардактуу	-11.2618
▁кореялык	-11.2618
▁отурушат	-11.2618
▁телерадио	-11.2618
▁эмгектенип	-11.2618
▁калайман	-11.2618
▁Шамшиев	-11.2618
▁(2	-11.2618
▁ийгилиги	-11.2618
Султанда	-11.2618
▁удаа	-11.2618
▁сенин	-11.2618
ахлак	-11.2618
▁фонунда	-11.2618
▁арызданган	-11.262
▁командалары	-11.2622
▁таб	-11.2622
▁Учак	-11.2622
▁изилдеген	-11.2622
▁дипломаттары	-11.2623
▁Маалыматтар	-11.2623
▁каржылаган	-11.2623
▁жашоосуна	-11.2623
▁жашылча	-11.2624
▁сум	-11.2625
▁декларациясы	-11.2625
▁жетектейт	-11.2625
▁армияга	-11.2627
▁кишилерге	-11.2627
▁офицер	-11.2629
▁системалуу	-11.2629
▁дүйнөсүнүн	-11.2629
▁жеңилип	-11.2629
▁атына	-11.2634
▁гезитинин	-11.2637
▁Семетей	-11.2637
▁саммитке	-11.2638
ia	-11.2639
уль	-11.264
▁театры	-11.2642
▁Кый	-11.2642
паев	-11.2645
▁абага	-11.2646
▁ооп	-11.2646
▁эстеликтер	-11.2646
▁элде	-11.2648
▁олтур	-11.2649
▁баратканы	-11.2653
▁анклавы	-11.2654
лд	-11.2654
ткөн	-11.2659
ямин	-11.2666
▁салыгы	-11.2668
▁кайтарууну	-11.2668
▁чети	-11.2669
▁туруксуз	-11.2671
67	-11.2674
▁Асад	-11.2676
▁жөөт	-11.2679
▁дарыгердин	-11.268
▁талкала	-11.2681
▁баскычы	-11.2682
▁Матраимовго	-11.2685
▁майданда	-11.2686
▁укпай	-11.2686
▁принцип	-11.2686
▁Азиядан	-11.2687
иң	-11.2687
өскөн	-11.2689
Мекен	-11.2689
ТИМ	-11.2691
▁Мамбет	-11.2692
▁мугалими	-11.2695
олу	-11.2696
▁аткарбаган	-11.2699
▁дыйкан	-11.2699
▁департамент	-11.2702
▁мусулмандарды	-11.2703
ими	-11.2703
▁алтынды	-11.2708
▁маселелерде	-11.2709
▁Өрт	-11.271
▁чачы	-11.271
рэ	-11.2714
▁кызматкерди	-11.2714
▁айтам	-11.2715
▁ыкмасын	-11.2716
▁тирешүү	-11.2716
▁оорулары	-11.2717
▁кызматтарын	-11.2718
тылган	-11.2722
▁окуучусу	-11.2722
▁факторлор	-11.2722
▁жоопкер	-11.2724
▁айдаган	-11.2726
▁тазала	-11.2727
▁сүрөттөрүн	-11.2731
▁дарыны	-11.2731
жур	-11.2731
▁Арал	-11.2732
▁ошончо	-11.2732
▁айтканына	-11.2732
▁мыйзамдаштыруу	-11.2732
▁зомбулукту	-11.2733
media	-11.2734
▁Усубалиев	-11.2734
▁Жуманазарова	-11.2734
▁Көбүнчө	-11.2734
▁кымбаттады	-11.2734
▁кычкылтек	-11.2734
▁ферма	-11.2734
▁өткөрүлөт	-11.2735
▁Эртеси	-11.2736
Ве	-11.2736
▁кайгылуу	-11.2737
▁кыйрат	-11.2739
▁Самарканд	-11.274
▁урап	-11.274
акча	-11.2741
▁жөнөтүлөт	-11.2742
▁кризистен	-11.2743
▁карыя	-11.2743
адыресе	-11.2743
▁Медициналык	-11.2744
▁толду	-11.2744
суң	-11.2746
▁тим	-11.2748
ардык	-11.2749
▁чечүүчү	-11.275
чарада	-11.2751
▁Шаарды	-11.2751
▁New	-11.2751
▁кетебиз	-11.2752
▁компанияны	-11.2752
▁Зеленскийди	-11.2752
▁төрөгөн	-11.2752
зиев	-11.2757
▁курулат	-11.2762
▁чала	-11.2763
▁билги	-11.2764
дармектерди	-11.2766
▁штаммы	-11.2766
▁кылмыштуулукка	-11.277
▁колдонот	-11.2771
▁Жолугушууда	-11.2775
▁тексти	-11.2776
▁Ch	-11.2777
▁аткаминерлердин	-11.2777
▁баалаш	-11.2779
▁Жээнбековго	-11.2779
уч	-11.2779
▁болжолдо	-11.2781
▁инфекцияны	-11.2782
▁болуусу	-11.2783
▁сындагандар	-11.2784
▁Текебаевдин	-11.2787
▁жолдоп	-11.2788
▁төлөмдөрдү	-11.279
▁кенине	-11.279
▁Камбар	-11.279
▁автономия	-11.2795
талышы	-11.2799
▁тереңде	-11.28
▁пе	-11.2801
▁түзгөнүн	-11.2802
▁реакциясы	-11.2803
▁кырсыкты	-11.2804
▁армиянын	-11.2805
▁көрүнүштөрдү	-11.2806
дүйнө	-11.2807
▁аныктама	-11.2808
февралында	-11.2808
бүлөнү	-11.2812
раз	-11.2816
▁түшүнүктөр	-11.282
▁жыт	-11.282
▁машиналар	-11.2822
▁каттамдарды	-11.2823
Бай	-11.2826
▁тургуз	-11.283
▁уюштуруучулары	-11.2834
метр	-11.2835
▁судьялар	-11.2836
39	-11.2836
▁куралдан	-11.2837
▁экономикасынын	-11.284
▁алтындын	-11.284
▁барышты	-11.284
▁протоколду	-11.284
▁күнүгө	-11.2843
2021-	-11.2844
▁Сын	-11.2844
▁тиреши	-11.2847
▁Токиодо	-11.2849
▁эвакуациялоо	-11.2851
Pfizer	-11.2851
▁-3...+2	-11.2851
▁илинип	-11.2851
▁туңгуюк	-11.2851
▁ыңгайлаш	-11.2851
уңгуч	-11.2851
▁өткөөл	-11.2851
▁Надира	-11.2851
▁чоңойгон	-11.2851
▁Татарстан	-11.2852
▁альтернативдүү	-11.2852
▁Ахмад	-11.2852
▁укмуш	-11.2852
▁өндүрүп	-11.2852
▁Капаров	-11.2852
▁бөлүшүп	-11.2852
▁1980-	-11.2852
▁эсимде	-11.2853
▁азабын	-11.2853
▁эсептейбиз	-11.2854
▁дейбиз	-11.2854
▁Николай	-11.2854
бизге	-11.2855
▁кодекстин	-11.2856
▁сагын	-11.2857
▁далилдеп	-11.2858
,9%	-11.2859
▁фон	-11.2859
▁азери	-11.2862
▁чакырышкан	-11.2862
▁c	-11.2862
▁унаасы	-11.2863
еми	-11.2863
▁рол	-11.2864
▁Гер	-11.2864
▁Казан	-11.2864
▁журнал	-11.2865
Ишеним	-11.2869
лоодо	-11.2871
▁Фонд	-11.2871
▁активисттерди	-11.2872
▁Жамал	-11.2873
▁армиясына	-11.2874
▁үйрөн	-11.2875
▁чакырымдай	-11.2876
▁бошот	-11.2879
63	-11.2879
▁ред	-11.288
▁жетише	-11.2881
▁органдарында	-11.2884
▁референдумда	-11.2885
▁Айдан	-11.2885
▁тартат	-11.2887
▁ЕАЭБге	-11.2888
▁өткөрүш	-11.2889
▁жактарда	-11.2891
▁өк	-11.2891
▁чалган	-11.2893
▁даярдоого	-11.2896
▁араларын	-11.2897
▁шаарлардын	-11.2898
ттин	-11.2899
▁чөйрөсү	-11.2904
▁Зо	-11.2905
лова	-11.2906
▁сабалган	-11.2906
▁баяны	-11.2908
▁келтирил	-11.2909
▁турбай	-11.291
▁кайт	-11.2912
алымдар	-11.2913
▁киргизилгенин	-11.2913
▁басарлары	-11.2914
▁атууну	-11.2914
төргө	-11.2915
▁рыногунда	-11.2915
▁темада	-11.2918
▁байланыштар	-11.2918
▁санай	-11.2921
ЖККУ	-11.2926
согуш	-11.2927
стер	-11.2927
▁чечмеле	-11.2928
▁Зар	-11.293
▁жабыркаганын	-11.293
дуулугу	-11.2931
▁оро	-11.2933
▁Зи	-11.2934
▁көзөмөлү	-11.2934
▁соолук	-11.2934
▁иштесе	-11.2937
▁соолугун	-11.2939
▁запасы	-11.2942
▁куткар	-11.2943
▁курулушун	-11.2944
▁Мас	-11.2945
▁камалгандарды	-11.2945
▁Бээжинде	-11.2948
▁аксакал	-11.2949
▁региондор	-11.2949
бектин	-11.295
▁тартылганы	-11.2952
▁жүрбөй	-11.2963
▁Вер	-11.2963
▁эпидемиясы	-11.2964
багыла	-11.2967
▁тарыхчылар	-11.2967
▁жолукканда	-11.2969
▁Шайлдабекова	-11.297
▁кумшекер	-11.297
▁0...-5	-11.2971
▁изоляция	-11.2971
▁филармония	-11.2971
▁ынтымагы	-11.2971
▁континент	-11.2971
октябрына	-11.2971
▁бороон	-11.2971
▁карманып	-11.2971
▁өтпөгөн	-11.2971
▁логика	-11.2971
▁Йе	-11.2971
▁Чынара	-11.2971
▁корккон	-11.2971
▁гимн	-11.2972
▁төлөнүп	-11.2972
▁назар	-11.2973
▁кабарлашкан	-11.2973
▁каалайт	-11.2973
▁болоорун	-11.2974
▁согушун	-11.2977
Эки	-11.2978
te	-11.2978
▁апталарда	-11.2978
▁айтылуу	-11.2979
бүздүн	-11.2983
▁элчилигине	-11.2984
▁кайым	-11.2988
▁Кармалган	-11.2993
▁кесепеттери	-11.2993
▁рейддер	-11.2993
▁таанышуу	-11.2993
▁каалагандар	-11.2993
▁турум	-11.2995
▁лабораториялык	-11.2996
▁Уюштуруучулар	-11.2997
▁кодекстер	-11.2999
▁Исаковдун	-11.3
▁Шарше	-11.3003
1)	-11.3005
▁каржылоого	-11.3005
▁кабылганы	-11.3005
▁оюнду	-11.3006
ma	-11.3007
▁60%	-11.3007
▁дамба	-11.301
sh	-11.3012
▁3000	-11.3013
▁Киши	-11.3014
▁бүтөт	-11.3016
de	-11.3016
жылдарга	-11.3017
▁учук	-11.3022
▁дооматы	-11.3023
лөп	-11.3023
лоочу	-11.3024
ge	-11.3027
▁Абакта	-11.3028
▁бирикмелер	-11.303
▁курулуштар	-11.3035
ad	-11.3035
▁банктардын	-11.3036
▁Тбилисиде	-11.3037
▁арыздарды	-11.3039
▁үйрөнүү	-11.3041
▁жаңжалга	-11.3042
Баш	-11.3044
▁иштечү	-11.3046
▁Марле	-11.3047
▁сумманы	-11.305
▁тарткандар	-11.3051
▁сактоону	-11.3051
▁кууру	-11.3052
▁төрөл	-11.3054
▁Бекбо	-11.3055
▁салыгын	-11.3055
▁агрессиясы	-11.3059
▁митингчилер	-11.3059
▁мезгили	-11.3061
▁жолдоду	-11.3066
▁түрүнөн	-11.3068
лах	-11.3068
▁коомунда	-11.3069
▁тый	-11.3072
▁касса	-11.3072
▁кылмышты	-11.3074
▁мурдакы	-11.3076
▁кызматтарга	-11.308
ография	-11.3081
▁кармал	-11.3081
▁ишенимин	-11.3083
▁нөшөр	-11.3084
▁каражатка	-11.3084
кандай	-11.3085
мэри	-11.3085
▁аркасы	-11.3086
▁жарата	-11.3087
ta	-11.3089
▁жүктөл	-11.3091
WhatsApp	-11.3091
▁12...17	-11.3091
▁Курултай	-11.3091
▁Павлодар	-11.3091
▁жумуртка	-11.3091
▁Салянова	-11.3091
Кыргызалтын	-11.3091
▁Разаков	-11.3091
▁Мыктыбек	-11.3091
▁аркалаган	-11.3091
▁төрө	-11.3092
▁жыйынтыкталды	-11.3092
▁аннексияланган	-11.3092
▁тармактардын	-11.3093
▁агартуу	-11.3093
▁көрүшөт	-11.3093
▁Кошуна	-11.3094
чубуз	-11.3094
▁Калкты	-11.3094
▁турмушун	-11.3095
▁баалуулуктары	-11.3095
▁өзгөрүшүнө	-11.3095
▁жарыялашкан	-11.3096
▁10-15	-11.3096
▁айтайын	-11.3097
▁университеттин	-11.3098
▁кою	-11.3098
▁Союзунун	-11.3102
▁кубаттуулугу	-11.3102
▁уурда	-11.3102
▁аянтка	-11.3108
▁чыгарылганын	-11.3109
сел	-11.311
▁Жара	-11.3112
▁командири	-11.3113
▁Дүйшөбаев	-11.3114
▁тиричилик	-11.3114
▁калгандай	-11.3119
▁өсүмдүктөр	-11.3119
аттык	-11.312
▁куугунтуктоо	-11.3122
▁араларды	-11.3124
▁отурумдар	-11.3124
Көлдөгү	-11.3125
▁эскертүүдө	-11.3125
▁өпкөнү	-11.313
▁эсине	-11.3132
▁кайрылат	-11.3132
▁темалар	-11.3133
▁шаршембиде	-11.3134
▁каттала	-11.3135
▁болмокчу	-11.3135
▁Багдад	-11.314
▁эмдөөнү	-11.3145
▁белгилер	-11.3151
▁Ав	-11.3152
▁образы	-11.3156
▁Ич	-11.3158
▁тандоосу	-11.3158
▁Баарына	-11.3158
▁кызматтардын	-11.3161
газы	-11.3161
▁зыярат	-11.3165
▁отурганын	-11.3166
есте	-11.3166
ӨКМ	-11.3168
▁ысым	-11.317
▁Кыш	-11.3173
▁койсок	-11.3177
▁күндөрдө	-11.3177
▁системанын	-11.3177
▁түйүн	-11.3178
▁кеттик	-11.318
▁уурулук	-11.3181
▁басмырлоо	-11.3181
▁улуту	-11.3182
▁Дубай	-11.3182
▁теп	-11.3183
▁рынокто	-11.3184
▁вариантын	-11.3185
▁тартибинде	-11.3186
▁жеткенде	-11.3187
▁жазуучусу	-11.3188
▁импорттоо	-11.3188
▁Берлинде	-11.319
▁мамилелери	-11.319
▁нааразылыктар	-11.3192
▁шектүүлөрдүн	-11.3192
▁мамилесине	-11.3195
▁Биримдигинде	-11.3197
▁Министрди	-11.3198
▁кадамын	-11.3199
▁чечимдери	-11.3201
▁шейшемби	-11.3203
▁бейшембиде	-11.3206
▁Тынч	-11.3206
,8%	-11.3206
▁гезиттер	-11.3207
▁жогол	-11.3208
▁барымтада	-11.321
▁жүйөсү	-11.3211
▁жетим	-11.3211
Тахрир	-11.3213
▁Мохаммад	-11.3213
▁Татьяна	-11.3213
▁Токтонасыров	-11.3213
▁контейнер	-11.3213
▁байкалып	-11.3213
▁Роберт	-11.3213
▁ээледи	-11.3213
▁актёр	-11.3213
▁Жолдубаева	-11.3213
▁биологиялык	-11.3214
▁аныкталса	-11.3214
▁кезеги	-11.3214
илл	-11.3214
▁Айтмакчы	-11.3215
▁улутундагы	-11.3215
▁абактарында	-11.3215
▁Эрбол	-11.3215
▁өткөрүлдү	-11.3216
▁институттун	-11.3218
зомбулукка	-11.3218
▁бейшемби	-11.322
▁чакырыгы	-11.3221
дүгүн	-11.3222
Буура	-11.3223
▁Тель	-11.3225
пыз	-11.3225
Рейтер	-11.3226
лашуу	-11.3227
▁отчету	-11.3229
▁катып	-11.3229
▁жеткириш	-11.3229
▁майрамды	-11.3232
▁баласына	-11.3236
▁чогулуу	-11.3239
муратов	-11.3241
▁аппараттарды	-11.3242
▁Асановдун	-11.3243
▁мүмкүнчүлүгүнө	-11.3247
▁залал	-11.3247
▁ачыла	-11.3249
опол	-11.325
▁пландоо	-11.3252
▁банкка	-11.3253
▁Кулов	-11.3254
▁соккуларына	-11.3255
▁сыйлыгынын	-11.3255
▁эсептери	-11.3257
▁Батыштагы	-11.3257
▁пансионат	-11.3258
▁Тоң	-11.3258
▁эпос	-11.326
▁Ташиевге	-11.326
▁Чеченстанды	-11.326
▁Карабакты	-11.3261
▁жазаны	-11.3267
▁изилдөөлөрдү	-11.3267
▁Талаш	-11.3269
▁дрондорду	-11.3271
▁издей	-11.3276
По	-11.3277
▁Эркиндик	-11.3281
▁корук	-11.3281
Петербургда	-11.3287
▁кыйынчылыктарга	-11.329
▁титирөөдө	-11.3291
▁союздаштары	-11.3293
жашыруу	-11.3296
▁кең	-11.3296
▁ишенет	-11.3296
▁салам	-11.3298
▁беки	-11.33
мыйзамсыз	-11.3303
▁жаткандыгын	-11.3307
лөрүнүн	-11.331
▁жаралышы	-11.331
2)	-11.3313
▁атоо	-11.3316
Мо	-11.3317
▁Штаттарда	-11.332
▁полк	-11.3321
тугу	-11.3326
▁көчөсү	-11.333
▁визасы	-11.3331
▁мандатына	-11.3333
▁программалар	-11.3333
▁агыз	-11.3334
▁кыянат	-11.3335
Эркечтам	-11.3336
▁10...15	-11.3336
▁Абхазия	-11.3336
▁Чогулгандар	-11.3336
▁спирт	-11.3336
▁трибуна	-11.3336
▁төккөн	-11.3336
▁Өмүрзаков	-11.3336
▁керебет	-11.3336
▁курчоого	-11.3336
▁камагында	-11.3337
▁Расул	-11.3337
▁алыстыкта	-11.3337
▁бекен	-11.3337
▁Холл	-11.3337
na	-11.3337
▁сөөктөрү	-11.3337
▁экипаж	-11.3337
▁олтуруп	-11.3338
▁террористтик	-11.3338
▁талкууланат	-11.3338
гүлө	-11.3338
▁чамалуу	-11.3339
▁төмөндөтүү	-11.3339
▁райондорунун	-11.334
▁физикалык	-11.3341
▁Качан	-11.3342
▁начарлаган	-11.3342
▁онкология	-11.3343
▁маалымдап	-11.3343
▁кендерин	-11.3344
▁Жоомарт	-11.3346
▁Иманкулов	-11.3346
▁өрттөп	-11.3348
▁спектакл	-11.335
▁айтылбай	-11.335
▁келгенсип	-11.335
▁кароодон	-11.3352
▁таратылган	-11.3353
▁басылып	-11.3354
▁Матраимовдорду	-11.3355
космостук	-11.3356
ңызды	-11.3356
▁буюмдар	-11.3357
▁жашагандар	-11.3358
▁Үмүт	-11.3363
▁ачууну	-11.3364
▁экстрадиция	-11.3364
датып	-11.3364
▁кыймылына	-11.3364
▁VI	-11.3368
Не	-11.337
▁Ирактагы	-11.3373
▁аскерлерине	-11.3374
▁штатта	-11.3376
▁Иште	-11.3378
▁барам	-11.3378
▁тагдырына	-11.3379
▁Коз	-11.338
▁астына	-11.3385
▁Раз	-11.3386
▁Мира	-11.3387
▁мектептерге	-11.3388
▁кичүү	-11.339
бург	-11.339
▁биздеги	-11.339
▁салымын	-11.3391
▁жоюуга	-11.3396
▁жап	-11.3396
▁санда	-11.3398
▁байланыштарды	-11.3398
лбаса	-11.3399
▁албасын	-11.3401
▁137	-11.3402
77	-11.3406
▁видеосун	-11.3406
▁Ливан	-11.3408
▁уюмду	-11.3408
,7%	-11.341
▁аэропорту	-11.3411
кыла	-11.3411
49	-11.3413
▁элестет	-11.3414
▁малдын	-11.3415
▁өзүлөрү	-11.3416
Эмне	-11.3417
бүлөгө	-11.3417
өтүүчү	-11.3418
▁колдонууда	-11.3419
▁митингди	-11.342
▁тартууда	-11.3422
▁өлө	-11.3426
▁аялга	-11.3429
▁жабыркагандарга	-11.3432
▁эсептей	-11.3432
▁Бакытбек	-11.3432
Бийликти	-11.3432
▁картасын	-11.3433
ne	-11.3434
▁базарга	-11.3436
▁жыйнал	-11.3439
▁катышкандарды	-11.344
президенттин	-11.3444
▁Юрист	-11.3445
чүмүн	-11.3448
▁уюштурду	-11.3449
▁чочула	-11.3449
▁адамзатты	-11.345
▁өзүбүздү	-11.3451
▁Медицина	-11.3451
үшөт	-11.3451
дуктан	-11.3452
▁күчөгөнүн	-11.3453
беши	-11.3459
▁иммун	-11.3461
Административдик	-11.3461
▁Вячеслав	-11.3461
▁Муфтият	-11.3461
▁Шольц	-11.3461
▁аккредитация	-11.3461
▁бүдөмүк	-11.3461
▁үстөл	-11.3461
▁боолго	-11.3461
▁жөлөкпул	-11.3461
▁Шабдан	-11.3461
▁тепкич	-11.3461
▁Бейрут	-11.3461
▁Блогер	-11.3461
▁2030-	-11.3462
▁жаркын	-11.3462
▁Арипов	-11.3462
▁бастырып	-11.3462
▁бириктирип	-11.3462
▁өрттөнүп	-11.3463
Мурас	-11.3463
▁In	-11.3463
▁төлөнөт	-11.3464
▁өчүп	-11.3464
▁демекчи	-11.3465
▁акимчилик	-11.3468
▁ыйгарылды	-11.3469
▁Апам	-11.3476
▁кармануу	-11.3476
▁кеңсесинин	-11.3477
▁катталууда	-11.348
▁мекемелеринин	-11.3481
▁Атай	-11.3482
▁жоюлган	-11.3482
▁кетели	-11.3484
кубат	-11.3486
▁кепке	-11.3487
сыңбы	-11.3487
▁жазгы	-11.3489
▁тастыктап	-11.3489
▁толкундоо	-11.3491
▁укуктар	-11.3493
▁жатышканы	-11.3494
циясы	-11.3494
▁күрөшөт	-11.3496
▁Эсенгул	-11.3496
▁далили	-11.3496
01	-11.3497
▁боюнда	-11.3498
▁Партияны	-11.3502
▁Дене	-11.3505
▁орусиялыктарды	-11.3506
▁Рыскулов	-11.3508
куй	-11.3509
▁Гор	-11.3511
▁Саакашвили	-11.3515
етте	-11.3516
▁Махмуд	-11.3519
▁олигарх	-11.3521
мыйзам	-11.3522
▁км	-11.3524
▁дарыканалар	-11.3525
▁өзүңөр	-11.3529
талбай	-11.353
▁Африкада	-11.353
▁октябрында	-11.3531
▁Таластагы	-11.3534
▁мүдөөсү	-11.3538
▁процедура	-11.3538
▁ылайыктуу	-11.3542
Z	-11.3543
▁жүрдүм	-11.3543
Жалпы	-11.3543
азыркы	-11.3543
Токой	-11.3543
Европа	-11.3544
▁бөлүшө	-11.3545
▁оңчул	-11.3546
▁миллиону	-11.3549
▁жаңылоо	-11.355
майында	-11.355
олку	-11.3559
▁куралдарды	-11.356
▁Маалыматты	-11.3562
▁ураандар	-11.3563
▁жумурият	-11.3565
▁билдирүүгө	-11.3568
▁шал	-11.3568
▁мейманканалар	-11.357
үңүз	-11.3572
▁айылдан	-11.3573
▁илип	-11.3573
▁карады	-11.3577
аракеттерди	-11.3577
▁ипотека	-11.3577
августунда	-11.3579
▁жоокерди	-11.358
▁орундары	-11.3583
▁күрд	-11.3585
▁Түркмөн	-11.3587
▁4...9	-11.3588
▁9...14	-11.3588
▁Баяндама	-11.3588
▁Львов	-11.3588
▁Орунбеков	-11.3588
▁асфальт	-11.3588
▁аукцион	-11.3588
▁зыйнаты	-11.3588
▁сөгүш	-11.3588
▁публицист	-11.3588
▁аракеттенип	-11.3588
▁Live	-11.3588
▁жихад	-11.3588
▁берилчү	-11.3588
▁Тизме	-11.3588
▁Келечекте	-11.3589
▁уюлду	-11.3589
▁координатору	-11.359
▁улак	-11.359
▁жазылды	-11.359
▁салыштырып	-11.359
▁Сталин	-11.3591
▁жетсе	-11.3592
▁аркасында	-11.3592
▁караштырып	-11.3593
▁сызыгы	-11.3593
▁Жүз	-11.3594
▁ишканаларды	-11.3594
▁башчылыкка	-11.3595
▁өнүгүүсүнө	-11.3596
▁тийгизди	-11.3596
▁акчасына	-11.3597
▁узартылды	-11.3597
▁динге	-11.3598
▁талаасында	-11.3599
▁өсүшүнө	-11.3599
байбыз	-11.3601
▁чечмелеп	-11.3602
▁чабы	-11.3602
▁көрүнүшү	-11.3605
▁рекорд	-11.3605
▁кышында	-11.3608
▁каалап	-11.361
Талаа	-11.361
▁авиакомпаниясы	-11.3611
имде	-11.3611
▁Шайлоодо	-11.3611
▁линиясы	-11.3612
▁аялуу	-11.3613
▁Кино	-11.3614
▁таңуула	-11.3614
▁олимпиадалык	-11.3615
▁дей	-11.3619
▁тилкесинин	-11.3619
▁аңчылык	-11.3619
,2%	-11.362
▁Ошко	-11.3622
▁келтирет	-11.3623
класстын	-11.3623
ино	-11.3627
▁биринчиден	-11.3627
▁курулушту	-11.3628
▁ырчылар	-11.3628
▁чоңдор	-11.3629
▁версия	-11.3631
▁медиасы	-11.3636
▁түрмөлөр	-11.3638
▁жообун	-11.3639
кысым	-11.364
▁рейтинги	-11.3642
▁аймактарынын	-11.3643
▁иштеринде	-11.3647
▁намыс	-11.3648
▁өспүрүмдү	-11.3648
▁учу	-11.3651
▁режимине	-11.3652
▁Батыштан	-11.3653
том	-11.3657
Бейит	-11.3659
▁Ошолорду	-11.3659
▁табууну	-11.3662
зордуктоого	-11.3664
генде	-11.3665
▁Турду	-11.3667
▁умтулуу	-11.3668
▁бура	-11.3668
▁жакпай	-11.3668
▁Нуру	-11.3669
▁түшкө	-11.3676
▁өзүңүз	-11.3677
ания	-11.3678
▁мекемеге	-11.3683
▁жайларын	-11.3684
▁барарын	-11.3684
▁өкүмдү	-11.3685
▁ишембиде	-11.3686
▁субъект	-11.3688
▁кыймылда	-11.369
▁эрежеси	-11.3691
бирөө	-11.3692
тайым	-11.3693
▁берери	-11.3694
▁кыргыздарга	-11.3699
▁тургандыгы	-11.37
▁ээрчи	-11.3703
▁транс	-11.3703
42	-11.3704
▁Кудайберген	-11.3705
▁ойлорун	-11.371
▁басты	-11.371
▁бошотул	-11.3714
▁либерал	-11.3716
▁6...11	-11.3716
▁7...12	-11.3716
▁Варшава	-11.3716
▁Вьетнам	-11.3716
▁өргүү	-11.3716
▁Дегеле	-11.3716
▁байкалды	-11.3716
▁Мелдеш	-11.3716
▁ашынган	-11.3717
▁абройлуу	-11.3717
▁даярдыгын	-11.3717
▁Гүлбара	-11.3718
▁эбак	-11.3718
▁шаркет	-11.3718
▁курултайда	-11.3718
▁ушак	-11.3719
▁жогорулашы	-11.372
▁сакталат	-11.372
Ре	-11.3721
▁макулдашуусу	-11.3721
▁акталган	-11.3721
▁чагылдырылган	-11.3723
▁аяр	-11.3725
▁изилдөөчүлөр	-11.3726
▁кырсыгына	-11.3726
▁сүйлөдү	-11.3727
▁Facebook	-11.3729
▁жарыяланат	-11.373
рез	-11.3731
▁украиндер	-11.3732
▁Калиева	-11.3734
▁карашта	-11.3734
▁үзүлгөн	-11.3735
▁алышканын	-11.3735
▁ишене	-11.3736
-200	-11.3736
▁Санду	-11.3736
▁эшигин	-11.374
▁аткылаган	-11.3741
▁жабдыктарды	-11.3742
▁имаратында	-11.3742
▁Am	-11.3745
▁модернизациялоо	-11.3748
▁окутуучу	-11.3749
▁класстар	-11.3751
▁жазганы	-11.3754
▁230	-11.3754
гыча	-11.3755
▁Иликтөө	-11.3756
▁маанайдагы	-11.3757
▁чыда	-11.376
▁базарына	-11.376
▁катын	-11.376
▁саналууда	-11.3762
зоок	-11.3762
▁тарата	-11.3763
▁фронтто	-11.3765
▁бригада	-11.377
▁алганбыз	-11.3771
▁Союз	-11.3771
▁активисттин	-11.3772
▁милдеттенме	-11.3774
▁Казакстанды	-11.3774
▁Конституцияда	-11.378
▁музейи	-11.378
▁оюнчу	-11.3781
▁Асадды	-11.3784
▁студенттерге	-11.3786
Кар	-11.3786
▁Ап	-11.3786
▁кирешелерди	-11.3787
▁каармандар	-11.379
чулары	-11.3791
▁Анкарада	-11.3792
▁Республикасында	-11.3793
▁маңыз	-11.3793
▁Салим	-11.3795
▁Жазуучу	-11.3796
Тилек	-11.3801
▁чочу	-11.3802
▁азыктары	-11.3802
▁дис	-11.3802
эсен	-11.3804
Айыл	-11.3805
▁капиталы	-11.3806
▁зым	-11.3807
▁жаттым	-11.3807
▁оюм	-11.3808
▁жаңжалдар	-11.3808
▁козголоңчулар	-11.3814
▁жагдайларга	-11.3814
▁бажыдагы	-11.3816
[...]
