<unk>	0
<s>	0
</s>	0
н	-3.20997
.	-3.30935
,	-3.94227
▁	-4.06528
га	-4.5622
▁"	-4.6372
▁,	-4.82184
к	-4.87593
-	-4.88365
▁менен	-5.08711
нын	-5.19333
т	-5.19402
▁жана	-5.20987
м	-5.2282
п	-5.26351
р	-5.2937
"	-5.32025
ы	-5.33983
да	-5.37612
ка	-5.38481
а	-5.42762
и	-5.4376
▁да	-5.44498
й	-5.59065
гы	-5.61106
л	-5.64145
на	-5.70096
▁бир	-5.71719
▁-	-5.73011
ге	-5.73977
у	-5.80565
▁деп	-5.80726
▁эле	-5.86888
ын	-5.97111
гө	-6.02682
▁боюнча	-6.02818
с	-6.05466
ды	-6.05665
та	-6.05722
го	-6.05899
лык	-6.07402
▁ал	-6.14995
▁бул	-6.15266
▁Ал	-6.15715
▁үчүн	-6.17126
де	-6.20107
ке	-6.21558
з	-6.21813
ку	-6.25011
дан	-6.25216
▁бар	-6.28622
ш	-6.28687
нин	-6.28779
дын	-6.32404
ди	-6.32636
▁Бул	-6.34236
▁аны	-6.35644
ты	-6.38641
▁деген	-6.40579
▁болуп	-6.42269
дин	-6.43302
▁жок	-6.45045
уу	-6.4601
▁.	-6.46784
тар	-6.46995
▁А	-6.47038
ов	-6.47597
▁дагы	-6.47607
▁болгон	-6.50955
▁тууралуу	-6.51018
сы	-6.5284
▁а	-6.53001
дагы	-6.53277
о	-6.54449
▁керек	-6.57192
ү	-6.58015
▁н	-6.59718
дар	-6.6005
▁эмес	-6.602
▁чейин	-6.60578
нун	-6.60707
лар	-6.61192
ду	-6.61352
▁жатат	-6.61706
ң	-6.64289
ат	-6.64823
е	-6.66247
ына	-6.67786
▁алып	-6.68546
▁(	-6.68887
ө	-6.7073
▁кийин	-6.72846
дө	-6.73421
ра	-6.74414
▁эки	-6.75051
туу	-6.75785
ма	-6.76067
▁же	-6.77034
ги	-6.77571
жылы	-6.78966
я	-6.79044
ин	-6.79858
д	-6.80596
б	-6.80851
ти	-6.81074
не	-6.81423
бек	-6.81613
са	-6.8274
үн	-6.83967
ып	-6.84177
▁адам	-6.85488
чу	-6.88035
те	-6.88117
ла	-6.89766
▁маалымат	-6.90165
си	-6.90596
▁каршы	-6.90658
▁Бирок	-6.90748
▁башка	-6.90908
▁ар	-6.92882
▁жаткан	-6.93473
▁билдирди	-6.93561
▁экенин	-6.93726
▁көп	-6.93847
▁турган	-6.94578
ко	-6.95528
)	-6.96092
▁эл	-6.96383
:	-6.96691
ри	-6.97631
дү	-6.97686
▁у	-6.98754
▁бери	-6.99112
г	-6.99557
ну	-7.02387
?	-7.03708
▁өз	-7.04801
ба	-7.05594
дун	-7.06122
кы	-7.0633
ларды	-7.06754
тер	-7.06951
▁болду	-7.08265
тан	-7.08513
▁кандай	-7.10077
▁К	-7.10488
ия	-7.12105
▁жаңы	-7.12384
▁Кыргызстан	-7.12843
ча	-7.13159
▁сөз	-7.13285
▁мамлекеттик	-7.13703
ны	-7.1421
▁иш	-7.14237
▁келген	-7.14397
тү	-7.14456
нүн	-7.14613
ч	-7.15375
бай	-7.15432
▁к	-7.15614
▁алган	-7.16375
▁Кыргызстанда	-7.16644
▁Ка	-7.17598
▁Орусия	-7.17636
ор	-7.17893
ле	-7.18201
▁эми	-7.19123
▁болот	-7.19149
▁катары	-7.19315
▁чек	-7.19757
▁гана	-7.20127
дык	-7.20148
1	-7.20258
тын	-7.20798
▁киши	-7.2173
нда	-7.22225
▁аралык	-7.22314
ту	-7.22358
▁кол	-7.22705
до	-7.23261
лары	-7.24365
▁бу	-7.24413
▁жолу	-7.24485
х	-7.245
▁мыйзам	-7.24623
▁кабыл	-7.25342
▁Кыргызстанды	-7.25867
кө	-7.25885
▁м	-7.26109
▁ка	-7.26345
ю	-7.26846
дер	-7.27276
▁ара	-7.27303
нү	-7.27478
лер	-7.27981
▁байланыштуу	-7.28126
▁миң	-7.29045
▁айтып	-7.29163
▁жатканын	-7.29399
ев	-7.29451
▁кыргыз	-7.29461
▁жыл	-7.29888
ер	-7.29896
тин	-7.30077
▁шайлоо	-7.30236
инин	-7.30826
чү	-7.31323
2	-7.31379
луу	-7.316
гу	-7.31729
▁биз	-7.32935
ында	-7.32979
су	-7.33386
өт	-7.33506
▁чыккан	-7.34041
дарды	-7.34957
▁берген	-7.36155
▁иштер	-7.36205
▁болсо	-7.36605
▁жол	-7.36622
ден	-7.37084
▁президент	-7.37633
ман	-7.37746
▁аларды	-7.37928
▁Са	-7.39162
▁алар	-7.39264
▁кызматы	-7.3935
түү	-7.39371
А	-7.39717
▁Жогор	-7.40174
▁министрлиги	-7.40183
▁бири	-7.40669
▁мүмкүн	-7.40684
▁үй	-7.40748
▁калган	-7.40771
▁Анда	-7.413
гү	-7.41411
ине	-7.41756
▁Аны	-7.4194
нан	-7.42104
",	-7.42512
сын	-7.42571
ли	-7.43383
▁баш	-7.43892
лган	-7.44223
ар	-7.44444
▁кайра	-7.4518
тары	-7.45411
▁алды	-7.45504
быз	-7.45594
▁И	-7.45895
▁сот	-7.46187
▁ошол	-7.46612
▁деди	-7.46771
ип	-7.47092
▁алуу	-7.47189
▁берүү	-7.48273
▁жардам	-7.48334
▁кара	-7.4835
үнө	-7.48403
▁чет	-7.48408
▁:	-7.48423
инде	-7.48641
▁өлкө	-7.48749
▁үч	-7.48863
▁учурда	-7.49416
▁Бу	-7.49443
▁көз	-7.49829
5	-7.50031
▁Ма	-7.5005
ет	-7.50912
▁кылмыш	-7.5175
дик	-7.51926
▁га	-7.52509
чы	-7.53096
▁Орусияны	-7.53972
▁мурдагы	-7.54003
ь	-7.541
▁ылайык	-7.54224
за	-7.54325
дай	-7.54567
ун	-7.5482
▁орун	-7.55207
йт	-7.5583
▁анда	-7.5625
▁са	-7.56284
▁эч	-7.56557
▁айтты	-7.56565
0	-7.56766
▁кеткен	-7.56904
6	-7.5721
ил	-7.57656
7	-7.58058
ыш	-7.58102
▁ча	-7.58288
▁С	-7.58509
e	-7.59604
▁ата	-7.60278
▁күч	-7.60747
▁азыр	-7.61139
%	-7.61626
▁т	-7.61753
уп	-7.61981
▁У	-7.62001
тарды	-7.62016
▁Жапаров	-7.62122
▁жооп	-7.62132
лап	-7.62487
▁улам	-7.62851
▁жа	-7.62977
лоо	-7.63216
сү	-7.63301
▁жерде	-7.63397
▁Алар	-7.63583
лүк	-7.63726
4	-7.63785
▁ага	-7.6391
▁чыгып	-7.64021
үү	-7.6407
К	-7.64276
▁калды	-7.64401
▁Жа	-7.64465
3	-7.64467
▁күн	-7.6459
ро	-7.65082
8	-7.65571
ал	-7.65737
▁ичинде	-7.65817
▁О	-7.65879
▁Бишкек	-7.65925
▁Украина	-7.65954
баев	-7.66201
▁Биз	-7.66437
▁ушул	-7.66633
▁өзү	-7.67119
▁акча	-7.6731
▁экен	-7.67351
өө	-7.67723
▁Ба	-7.67898
▁билдирген	-7.68009
▁президенти	-7.68069
▁өткөн	-7.68335
▁бирок	-7.68378
▁о	-7.68479
▁чоң	-7.69266
▁ы	-7.69353
үп	-7.69539
ру	-7.69632
▁жакшы	-7.69864
▁келет	-7.7024
▁суу	-7.70287
дары	-7.70392
▁караганда	-7.70427
▁талап	-7.70509
тык	-7.70555
▁бийлик	-7.70581
тик	-7.70686
ки	-7.71012
▁элек	-7.71132
дуу	-7.71357
ре	-7.71425
▁орус	-7.7154
ль	-7.71772
▁и	-7.71774
▁сом	-7.72362
▁айткан	-7.72544
▁саясий	-7.72597
▁мындай	-7.72706
▁Э	-7.72722
▁жөнүндө	-7.73309
▁каза	-7.73781
лып	-7.74093
би	-7.74543
тор	-7.74568
▁соң	-7.75132
ек	-7.75695
нө	-7.76015
се	-7.76088
▁аркылуу	-7.76254
лды	-7.76258
▁так	-7.77035
▁мамлекет	-7.77575
бы	-7.77732
▁Ош	-7.77751
лик	-7.77755
ц	-7.77949
▁Та	-7.77967
▁турат	-7.78224
чи	-7.78753
▁шаарында	-7.79145
▁биринчи	-7.79385
▁та	-7.79751
▁коопсуздук	-7.80221
▁нече	-7.80272
▁келип	-7.8074
в	-7.80991
ф	-7.81035
▁эң	-7.81304
▁5	-7.81605
▁дүйнө	-7.81747
ст	-7.81933
▁расмий	-7.81996
▁АКШ	-7.8202
▁дин	-7.82055
Азаттык	-7.82167
дөн	-7.82373
▁коргоо	-7.82394
▁жакын	-7.82789
▁аз	-7.82817
9	-7.82931
▁Садыр	-7.82985
▁айыл	-7.83122
жылды	-7.83569
ул	-7.83828
сына	-7.8384
▁иши	-7.84068
▁бийлиги	-7.84146
▁деле	-7.84238
▁коронавирус	-7.84302
дөгү	-7.84321
▁19	-7.84479
▁күнү	-7.84481
▁баа	-7.84856
▁ала	-7.85038
▁арасында	-7.85048
▁өлкөдө	-7.8528
▁ай	-7.85319
им	-7.86062
▁өлкөнү	-7.86151
▁атайы	-7.86179
▁Эл	-7.86308
▁кылып	-7.86324
▁доллар	-7.86503
▁иштеп	-7.87231
▁берип	-7.87651
▁миллион	-7.87779
он	-7.8808
▁кылган	-7.88096
▁башчысы	-7.88231
▁турганын	-7.88309
▁жер	-7.88586
ция	-7.88756
▁кыл	-7.88779
ло	-7.888
то	-7.88931
▁министри	-7.89328
▁Мен	-7.894
сынын	-7.89849
▁өкмөт	-7.90208
▁Бишкекте	-7.90234
▁жалпы	-7.90476
э	-7.90556
ва	-7.90934
▁кызмат	-7.90954
лор	-7.9104
▁өтө	-7.91099
▁сактоо	-7.91099
▁саны	-7.91135
▁туура	-7.91322
шкан	-7.91382
▁Б	-7.91412
ж	-7.9143
сыз	-7.91597
▁бизди	-7.9162
ышы	-7.91773
▁адамдар	-7.91989
a	-7.92269
дук	-7.92314
▁ачык	-7.92481
чылык	-7.9268
▁Ошол	-7.92908
▁бала	-7.93587
▁Ошондо	-7.94017
▁айрым	-7.94211
▁берди	-7.94301
▁кү	-7.94335
▁албай	-7.9443
▁се	-7.95236
▁Бир	-7.95286
▁Аларды	-7.95898
▁бардык	-7.96437
▁Улутту	-7.96521
▁ди	-7.96621
үндө	-7.96651
▁)	-7.9667
▁талкуу	-7.96825
▁ак	-7.97299
Б	-7.9754
▁ишке	-7.97742
беков	-7.97804
▁Ак	-7.97947
▁аракет	-7.98139
▁баары	-7.98332
▁де	-7.98341
▁катар	-7.98737
▁болчу	-7.98801
ен	-7.98881
▁Ай	-7.98942
алы	-7.99067
▁20	-7.99411
▁төрагасы	-7.9965
▁беш	-7.99726
▁бай	-7.99885
▁айып	-7.99915
▁Ар	-8.00072
▁6	-8.00168
▁эмне	-8.00658
▁көр	-8.00666
▁ат	-8.00903
▁Азия	-8.01248
▁тар	-8.01278
▁жаш	-8.0136
▁ге	-8.01419
▁оор	-8.0158
▁Кыргыз	-8.01656
лук	-8.01709
дор	-8.0173
▁май	-8.01792
ры	-8.01837
▁курал	-8.01837
▁1	-8.01888
▁ким	-8.0192
▁э	-8.02335
t	-8.02363
алиев	-8.02533
▁10	-8.02694
i	-8.02819
▁болушу	-8.03467
▁социалдык	-8.03555
▁до	-8.03906
▁Азыр	-8.03907
тен	-8.04
▁тергөө	-8.04031
▁Ко	-8.04056
▁басма	-8.04465
▁жатышат	-8.04517
жа	-8.04638
шты	-8.05171
оо	-8.05241
ол	-8.05583
лат	-8.0585
▁ө	-8.05893
▁жаштагы	-8.05902
▁Европа	-8.05908
▁айтымында	-8.06013
октябрда	-8.06075
Р	-8.06169
▁Ч	-8.06257
лөр	-8.0629
▁те	-8.0634
▁мурда	-8.06387
тө	-8.06393
тери	-8.06651
ак	-8.06665
ым	-8.06757
▁баштаган	-8.06805
▁алынган	-8.06996
▁добуш	-8.07322
ова	-8.07558
▁жүргөн	-8.07668
▁ба	-8.07716
▁ту	-8.07839
▁жай	-8.08129
▁чы	-8.08153
▁кызы	-8.08475
тардын	-8.08635
▁8	-8.08784
лан	-8.08886
чулар	-8.08892
▁жергиликтүү	-8.08899
▁7	-8.09024
ит	-8.09084
тыр	-8.0914
▁тур	-8.09337
▁топ	-8.09956
ация	-8.10172
▁ма	-8.10204
тагы	-8.10465
▁алдында	-8.10581
лай	-8.10727
▁мен	-8.10738
рган	-8.10874
▁облусу	-8.10897
ыл	-8.11146
▁бере	-8.11434
мо	-8.11638
▁айында	-8.11831
▁шаар	-8.12099
тур	-8.12177
сында	-8.12214
▁толук	-8.12269
▁пайда	-8.12762
▁өтүп	-8.13041
тун	-8.13127
▁Баткен	-8.13221
▁чечим	-8.13926
▁маселе	-8.13999
▁белгилүү	-8.1402
тоо	-8.14333
ха	-8.14447
▁с	-8.14464
▁төрт	-8.14488
▁өкүлдөрү	-8.14665
терди	-8.1467
▁кезде	-8.14947
▁Кеңешти	-8.15265
▁ж	-8.15385
унун	-8.15869
ынча	-8.15959
мө	-8.16187
дыгы	-8.16227
s	-8.16253
Абад	-8.16404
дөр	-8.16448
▁Кытай	-8.16511
▁окуя	-8.16721
▁ти	-8.16762
кен	-8.16988
▁уулу	-8.17148
▁дары	-8.17343
пай	-8.17671
деги	-8.17686
С	-8.1782
М	-8.17954
▁жети	-8.18244
▁аскердик	-8.1858
▁укук	-8.18609
Т	-8.18994
дыр	-8.19134
▁Орусияда	-8.19406
▁Т	-8.19477
▁аба	-8.19842
▁өзгөчө	-8.19944
▁облусунда	-8.20047
▁саат	-8.20084
үр	-8.20471
ыр	-8.20486
▁күндө	-8.20638
мак	-8.20823
▁учур	-8.20839
мат	-8.20842
ик	-8.20884
▁барып	-8.20986
▁тарап	-8.21318
▁жатканы	-8.21355
▁билим	-8.21474
▁чыкты	-8.21893
▁кур	-8.21998
▁Да	-8.22022
▁даяр	-8.22111
дүү	-8.22246
▁Мында	-8.22277
▁аталган	-8.22317
▁жүрүп	-8.22433
▁жылдан	-8.22892
▁сыяктуу	-8.23173
▁электр	-8.23195
▁карап	-8.23354
мартта	-8.23367
иялык	-8.23451
▁окуу	-8.23481
кү	-8.23555
▁Москва	-8.2364
▁тартып	-8.23656
биз	-8.23662
ай	-8.2373
▁салуу	-8.23915
ий	-8.23975
▁басары	-8.2399
▁ке	-8.24014
▁ашык	-8.2403
▁дан	-8.24333
▁районду	-8.24576
▁9	-8.24628
▁коомдук	-8.24659
арын	-8.24724
ык	-8.24969
▁укугу	-8.25152
▁кызматкерлери	-8.25406
▁кан	-8.2563
▁тил	-8.25636
че	-8.2566
▁п	-8.25702
▁ортосунда	-8.25759
▁соту	-8.25836
▁партиясы	-8.26
▁башкы	-8.26023
▁жара	-8.26249
▁иштеген	-8.2633
▁өкүлү	-8.2638
ви	-8.26456
лери	-8.26741
ир	-8.27103
▁ашуун	-8.27309
▁зарыл	-8.27388
▁2	-8.27415
▁болгонун	-8.27436
▁Казакстан	-8.27462
▁келди	-8.27587
үл	-8.27834
▁аскер	-8.28014
▁Нур	-8.28179
дон	-8.28521
▁иште	-8.28552
▁П	-8.2864
суна	-8.28939
▁кайсы	-8.28976
▁млн	-8.29011
▁кыз	-8.29255
▁Ага	-8.29459
o	-8.29513
▁оору	-8.29515
▁жетекчиси	-8.30091
▁Ке	-8.30128
▁келе	-8.30281
▁сатып	-8.30338
▁ички	-8.30412
▁кал	-8.30436
▁Кара	-8.30583
▁айтылган	-8.30614
▁Украинаны	-8.30754
▁мыйзамсыз	-8.30811
▁экинчи	-8.30847
▁коррупция	-8.30974
▁барган	-8.31217
▁арыз	-8.31332
▁аял	-8.31543
дерди	-8.31746
▁сал	-8.31849
дүн	-8.32052
▁кат	-8.32081
апрелде	-8.32093
▁ушундай	-8.32245
▁го	-8.32636
▁жумуш	-8.32968
▁тең	-8.33017
бүз	-8.33153
▁кө	-8.33323
▁кызматта	-8.33413
▁аты	-8.33449
▁улуттук	-8.33493
▁Президент	-8.33785
▁иликтөө	-8.33901
тап	-8.33918
▁акыркы	-8.33948
▁экени	-8.34196
аган	-8.34225
▁жеке	-8.34227
▁жылды	-8.34456
▁каражат	-8.34533
▁кыргызстандык	-8.34655
▁сын	-8.34711
▁жакта	-8.3514
▁жылга	-8.35347
▁кырдаал	-8.35507
бо	-8.35584
▁азыркы	-8.35588
инен	-8.35664
▁дейт	-8.35767
▁ээ	-8.3593
чылар	-8.35981
▁ду	-8.36088
▁кар	-8.36199
кыр	-8.36705
▁уюму	-8.36722
лген	-8.36743
▁балдар	-8.36829
▁ден	-8.3683
▁жазды	-8.36929
рып	-8.37008
▁тоо	-8.37131
▁шарт	-8.37179
▁келишим	-8.37187
шы	-8.37361
▁тышкары	-8.37589
▁шаардык	-8.37589
▁адамды	-8.37621
лаган	-8.37784
▁эске	-8.3781
▁Му	-8.37857
▁кай	-8.37947
▁чабуул	-8.38064
▁милиция	-8.38329
▁тү	-8.38469
ноябрда	-8.38493
▁Ра	-8.38511
▁1-	-8.38579
▁шаары	-8.38723
▁берет	-8.38815
ууда	-8.38968
▁күрөш	-8.39165
▁4	-8.39724
▁берилген	-8.39727
▁Эгер	-8.39905
▁Борбор	-8.40015
▁көзөмөл	-8.40059
▁абал	-8.40064
уш	-8.40097
▁Ө	-8.40098
▁жазган	-8.40141
майда	-8.40167
Би	-8.40226
төр	-8.40293
▁12	-8.40294
▁күндүз	-8.40297
сун	-8.40301
▁элди	-8.40345
▁су	-8.40359
▁депутат	-8.40366
сө	-8.4059
▁ошондой	-8.40592
▁кабар	-8.40702
▁Ж	-8.40842
▁видео	-8.40918
▁Бе	-8.40962
▁кетти	-8.41215
▁ок	-8.41867
августта	-8.41957
▁белгиледи	-8.42121
июнда	-8.42163
▁тыюу	-8.42222
▁түнкүс	-8.42312
▁көңүл	-8.42373
▁кон	-8.42374
жо	-8.424
▁ойло	-8.42498
▁30	-8.42501
▁учурунда	-8.42756
▁ш	-8.42758
▁түш	-8.42771
▁11	-8.42884
▁арада	-8.42885
▁президенттик	-8.43083
▁Мындай	-8.43185
ша	-8.43347
ше	-8.4336
▁канча	-8.43467
▁айда	-8.43516
▁ары	-8.43783
▁Жалал	-8.438
▁кый	-8.438
январда	-8.43855
ткан	-8.43939
▁сура	-8.43987
▁200	-8.44011
▁кармалган	-8.4412
▁ды	-8.44199
▁түшкөн	-8.4422
▁бүт	-8.44283
сентябрда	-8.44316
▁саясат	-8.44344
▁ири	-8.44455
▁түз	-8.44584
▁Ш	-8.44589
▁муну	-8.4464
▁жайы	-8.44686
▁негизги	-8.45082
▁аймагында	-8.45175
▁өкмөттү	-8.45186
▁кылуу	-8.45201
▁иштери	-8.45221
▁то	-8.4529
дөй	-8.45369
▁эт	-8.45416
▁ты	-8.4552
▁быйыл	-8.4583
баган	-8.45866
▁жан	-8.46055
лышы	-8.46191
ск	-8.46229
▁ишин	-8.46342
зи	-8.46447
▁бийликти	-8.465
▁экономикалык	-8.46653
лерди	-8.46681
унда	-8.46698
▁Анткени	-8.4672
▁кам	-8.46827
▁Ха	-8.46911
▁өзүнү	-8.46976
▁р	-8.471
▁жаза	-8.47353
▁согуш	-8.4738
▁эсепте	-8.47444
Көл	-8.47445
▁жарым	-8.47581
▁сунуш	-8.4783
▁койгон	-8.4788
▁жүз	-8.47886
▁15	-8.47897
ем	-8.4805
▁жатабыз	-8.48111
▁соода	-8.48144
үш	-8.48185
декабрда	-8.48281
▁бөлүгү	-8.48367
▁талапкер	-8.49022
▁2020-	-8.49166
▁маалыматтар	-8.49357
▁жогор	-8.4942
▁сунушта	-8.49427
▁быз	-8.4945
▁салган	-8.49673
▁алты	-8.49692
▁өлкөлөр	-8.49723
▁комитети	-8.4975
▁компаниясы	-8.49783
▁боло	-8.50194
▁чечими	-8.50296
▁он	-8.50302
жы	-8.50395
▁100	-8.50594
u	-8.50636
▁3	-8.50799
▁дун	-8.50981
▁Мамлекеттик	-8.512
▁катышкан	-8.51243
▁элдик	-8.51412
стан	-8.51566
со	-8.516
▁колдоо	-8.51743
бей	-8.51823
▁жарандык	-8.51943
▁алууга	-8.51961
▁Ысык	-8.52074
▁кирген	-8.52087
▁Путин	-8.52197
▁Башкы	-8.5256
▁оорукана	-8.52681
▁караш	-8.52691
ланган	-8.52866
▁укуктары	-8.52896
▁Би	-8.52945
ушу	-8.52981
тай	-8.5301
▁алат	-8.53196
Э	-8.53208
министр	-8.53372
▁президентти	-8.53505
▁абалы	-8.53549
▁премьер	-8.53643
▁М	-8.53703
▁Ошондуктан	-8.53765
▁органдары	-8.53771
▁тобу	-8.53842
▁ин	-8.53845
▁сакта	-8.53927
дап	-8.53983
l	-8.53999
▁башкаруу	-8.54019
▁ур	-8.54205
▁болгону	-8.54358
▁жазылган	-8.54532
▁Эми	-8.54551
▁на	-8.5459
▁мында	-8.54795
иш	-8.54904
▁тышкы	-8.54954
▁себеп	-8.54959
▁басып	-8.55037
▁суроо	-8.55126
▁уруксат	-8.5524
▁башында	-8.55326
ме	-8.55354
▁убактыл	-8.5547
ве	-8.55498
▁өкмөтү	-8.55694
▁Владимир	-8.55874
▁кор	-8.55933
▁На	-8.5594
▁Муну	-8.55948
▁Биринчи	-8.5599
Д	-8.56096
рт	-8.56174
▁Ми	-8.5636
▁төлө	-8.56439
▁Казакстанды	-8.56457
c	-8.5657
▁окуялар	-8.56758
▁жаса	-8.56767
▁сайы	-8.56974
▁жогору	-8.56997
сүз	-8.57033
асы	-8.57074
▁чейинки	-8.57426
▁кийинки	-8.57447
▁маанилүү	-8.57748
И	-8.57794
догу	-8.57806
▁адамдарды	-8.57903
ум	-8.57942
▁ф	-8.58032
▁алкагында	-8.58096
▁дар	-8.58104
▁Чүй	-8.58172
үүдө	-8.58462
▁Ку	-8.58673
ис	-8.58797
июлда	-8.58988
▁жылы	-8.58999
▁чекте	-8.5931
▁Жо	-8.59316
▁катуу	-8.59391
▁Ф	-8.59513
▁жүрүш	-8.59722
▁Министр	-8.59755
үнүн	-8.59787
▁өнүктүрүү	-8.59816
▁чыгуу	-8.59888
▁баштады	-8.5994
мин	-8.59982
▁долбоору	-8.59996
▁сү	-8.60042
▁2021-	-8.60126
ос	-8.60195
▁көбү	-8.60213
▁бил	-8.60676
▁башкармалыгы	-8.60731
▁парламент	-8.60754
кер	-8.6082
алдык	-8.60855
▁негиз	-8.60855
▁жашоо	-8.60959
▁убакыт	-8.61096
▁негизинде	-8.6114
▁Дүйнө	-8.61218
▁орто	-8.61241
▁былтыр	-8.61401
00	-8.61712
▁катчысы	-8.61717
▁борбор	-8.6188
▁кетип	-8.61903
лөрдү	-8.61938
▁калып	-8.62107
ый	-8.62259
▁АКШны	-8.62392
төрү	-8.6252
сиз	-8.62531
▁Те	-8.62555
▁ишен	-8.62621
▁агенттиги	-8.62631
фа	-8.62689
▁ыр	-8.62854
ел	-8.62928
▁чыгаруу	-8.63
▁жарандары	-8.63064
ок	-8.63202
мун	-8.63223
▁нерсе	-8.63366
▁14	-8.63398
▁кошумча	-8.63563
▁алдын	-8.63586
▁дын	-8.6362
▁пикир	-8.63645
▁оюн	-8.63832
▁абда	-8.63925
ран	-8.64003
ус	-8.64032
▁партия	-8.64079
▁13	-8.642
▁таза	-8.64201
▁2022-	-8.64252
▁нааразылык	-8.64312
тук	-8.64429
▁шек	-8.6466
бөй	-8.64686
▁журналист	-8.65203
▁миңде	-8.65231
▁аймакта	-8.65453
жи	-8.65857
r	-8.6587
▁өттү	-8.65906
▁эмгек	-8.66029
▁камак	-8.66223
▁чакыр	-8.66229
▁?	-8.66371
▁күчтөрү	-8.6639
февралда	-8.66448
▁сы	-8.66611
▁башта	-8.66724
▁бо	-8.66759
Ж	-8.66877
▁прокуратура	-8.66958
үлгөн	-8.67026
▁Д	-8.67036
▁айтылат	-8.67188
▁катта	-8.67227
▁Ушул	-8.67335
суз	-8.67552
▁50	-8.67558
өрү	-8.6771
▁кабарлады	-8.67967
▁мамлекеттер	-8.68016
лө	-8.68108
лыгы	-8.68169
бу	-8.68258
ашы	-8.68283
▁18	-8.68289
▁орусиялык	-8.6843
▁байланыш	-8.68475
хан	-8.68476
ич	-8.68596
ши	-8.68766
▁жайгашкан	-8.68768
▁сокку	-8.6882
▁уюмдар	-8.68825
▁кетүү	-8.68871
бе	-8.6895
лаш	-8.68955
▁Учурда	-8.69017
▁Су	-8.69023
▁тез	-8.69063
▁каражаттары	-8.69191
▁жарыялаган	-8.69258
▁коюлган	-8.69292
▁буз	-8.69426
▁Мар	-8.69428
▁ны	-8.69439
▁маалым	-8.69528
▁жарандар	-8.69582
▁маалыматы	-8.69834
d	-8.69944
▁учурлар	-8.69997
▁жатып	-8.70113
▁Маалымат	-8.70211
▁То	-8.7022
▁алгачкы	-8.70379
доо	-8.70696
▁жашаган	-8.70729
▁салык	-8.7086
▁Өзбекстан	-8.71018
▁өткөрүү	-8.71052
▁учак	-8.71086
▁млрд	-8.71217
▁Баш	-8.71224
▁көрүп	-8.71243
▁кишини	-8.71334
▁Эр	-8.71337
▁Батыш	-8.71493
үшү	-8.71706
ур	-8.71827
▁көчө	-8.72114
▁Ша	-8.72152
бүлө	-8.72211
▁башталган	-8.72415
ей	-8.72434
сти	-8.72459
▁кайрылуу	-8.72651
▁тиешелүү	-8.72717
▁тапта	-8.7273
▁лар	-8.72827
▁тартуу	-8.72841
I	-8.72863
теги	-8.72917
▁кы	-8.72961
▁салып	-8.73012
▁маселеси	-8.73075
▁жерге	-8.73126
▁сүрөт	-8.73165
▁депутаты	-8.73351
айым	-8.73474
▁ң	-8.73589
▁Па	-8.7359
аш	-8.73662
▁кеңеши	-8.73753
▁тарабынан	-8.73827
-19	-8.74092
▁тан	-8.74123
▁операция	-8.74515
ала	-8.74557
У	-8.74679
▁өткөрүп	-8.74758
тип	-8.74803
▁катталган	-8.7487
▁чыга	-8.74948
▁кыйын	-8.75044
▁белгисиз	-8.75075
▁чыгарган	-8.75115
▁До	-8.75177
▁Нарын	-8.75235
▁аскерлери	-8.75296
▁комментарий	-8.75345
▁миллиард	-8.75345
▁Ата	-8.75446
лиги	-8.75504
▁алтын	-8.75647
▁Иран	-8.75653
▁кызматкери	-8.75692
▁вирус	-8.75699
▁ко	-8.75726
▁автоунаа	-8.75768
▁талаш	-8.75794
оз	-8.75868
▁айына	-8.75941
▁украин	-8.7612
▁тапшыр	-8.76251
бер	-8.76266
▁республика	-8.76334
чыл	-8.76344
▁жагдай	-8.76421
▁16	-8.76471
▁лидери	-8.76503
▁жерлер	-8.76849
▁б	-8.77062
▁борбору	-8.77073
▁Түркия	-8.77096
▁айтканда	-8.77148
▁бүгүн	-8.77592
▁таасир	-8.7782
▁Иш	-8.77835
▁2019-	-8.78051
▁Бишкекти	-8.78069
▁Бүгүн	-8.78123
▁Де	-8.7825
▁вакцина	-8.78268
▁жашы	-8.78426
үүгө	-8.78515
▁ша	-8.78518
▁документ	-8.78555
▁аракети	-8.78573
▁чара	-8.7865
▁тапкан	-8.78709
▁эс	-8.78723
▁ыктымал	-8.78776
▁спорт	-8.78796
▁сотто	-8.78927
лим	-8.79159
▁Киев	-8.79201
▁токто	-8.7931
▁ре	-8.7938
▁Казакстанда	-8.79459
▁ына	-8.79473
▁ишти	-8.795
▁Тажикстанды	-8.79553
▁4-	-8.79562
▁кабинети	-8.79578
▁митинг	-8.79578
▁кел	-8.79594
▁чакырды	-8.7963
▁5-	-8.79691
төн	-8.79694
▁бө	-8.7973
▁жазып	-8.7999
тып	-8.79997
▁сиз	-8.80016
лип	-8.80064
▁түзүү	-8.80098
▁Кеңеш	-8.80098
гүл	-8.80151
▁2-	-8.80184
тир	-8.80193
▁колдонуу	-8.80197
▁топто	-8.80355
▁Тур	-8.80386
▁Же	-8.80406
▁Се	-8.80433
▁районунда	-8.80548
▁өткөр	-8.80585
сүнө	-8.80638
▁УКМК	-8.80671
▁ичинен	-8.80707
▁7-	-8.80709
▁мамиле	-8.80736
▁аялдар	-8.80768
▁чу	-8.80788
▁комиссия	-8.80799
▁жыйынында	-8.80863
▁шайлоодо	-8.80899
лүү	-8.80909
▁көрсөтүү	-8.80955
▁түрдө	-8.81005
▁па	-8.81082
▁17	-8.81085
▁бы	-8.81195
▁10-	-8.81229
▁аш	-8.8134
▁ракета	-8.81353
▁Конституция	-8.81375
▁кош	-8.81509
▁ажыра	-8.81728
A	-8.81959
▁ов	-8.81986
▁Ичк	-8.8206
▁илдет	-8.82137
▁чыгарып	-8.82205
▁армиясы	-8.82272
▁баштап	-8.82278
из	-8.82635
сак	-8.82649
О	-8.82719
ары	-8.82784
▁абакта	-8.82845
▁полиция	-8.82888
П	-8.82932
▁көрүү	-8.82985
▁бирөө	-8.82998
▁дээр	-8.83008
▁курулуш	-8.83154
Си	-8.83161
▁тааны	-8.8323
бар	-8.83353
▁кирип	-8.83575
▁медициналык	-8.83579
▁бара	-8.83604
▁өзүн	-8.83611
▁зыян	-8.83616
▁түзүлгөн	-8.83642
▁банк	-8.83788
20	-8.83906
▁жактан	-8.84044
▁куруу	-8.84228
▁базар	-8.8426
▁журналисттер	-8.84355
▁25	-8.84578
ланып	-8.84748
чүлөр	-8.84828
▁Кылмыш	-8.85154
▁система	-8.85157
▁Аб	-8.85162
▁3-	-8.85185
▁бою	-8.85238
▁бас	-8.8531
▁",-	-8.85355
▁долбоорун	-8.8542
▁би	-8.85448
рам	-8.85505
▁оку	-8.85581
▁че	-8.85636
▁Га	-8.85636
▁билдирип	-8.85641
▁билдирүү	-8.85718
▁кеп	-8.85747
▁башчы	-8.85763
▁экс	-8.85846
▁Кытайды	-8.8591
▁жума	-8.85949
▁кошумчалады	-8.86011
май	-8.8602
▁бек	-8.86127
▁баасы	-8.86291
▁кармап	-8.86305
мен	-8.86349
▁Бизди	-8.8636
▁кет	-8.8637
▁9-	-8.86512
▁тер	-8.86562
же	-8.86655
▁Жээнбеков	-8.86669
▁айы	-8.86721
▁чыгары	-8.86858
▁Эки	-8.87017
▁коркунуч	-8.87123
▁Талас	-8.87191
▁тарткан	-8.87326
▁мүмкүнчүлүк	-8.87427
▁негизде	-8.87432
Ата	-8.87649
h	-8.87745
▁чарба	-8.88065
▁макул	-8.88177
стр	-8.88249
▁жыйын	-8.88262
▁жакындары	-8.88365
▁маалыматты	-8.88492
▁жар	-8.88624
▁карат	-8.88629
▁жолугушуу	-8.88665
▁корго	-8.88746
▁газ	-8.88931
ой	-8.88955
▁токтотуу	-8.88958
▁дө	-8.88987
дей	-8.8906
▁жаран	-8.89102
▁койду	-8.89231
▁күндөрү	-8.89233
кулов	-8.89314
▁катышуу	-8.89357
тон	-8.89435
▁Мисалы	-8.89591
▁радиосу	-8.89618
ков	-8.89685
▁Кур	-8.89833
▁мамлекетти	-8.89931
▁табы	-8.89944
▁таш	-8.90104
▁Жаңы	-8.9049
▁со	-8.90792
▁жу	-8.9082
▁мүчөлөрү	-8.90994
▁Израил	-8.91139
▁облусту	-8.91141
▁кылды	-8.91349
▁туруп	-8.91442
▁системасы	-8.91469
▁диний	-8.91564
▁өзүнө	-8.91627
▁калат	-8.91653
иши	-8.91729
▁жолдо	-8.91734
▁уюм	-8.9174
▁көргөн	-8.91794
▁6-	-8.91808
▁тажик	-8.92021
▁жараны	-8.92025
▁кээ	-8.92027
▁коюп	-8.92134
▁дай	-8.92157
нтип	-8.92252
▁шектүү	-8.92301
▁метр	-8.92461
▁кем	-8.92522
▁факт	-8.92579
▁салынган	-8.92635
▁15-	-8.92649
▁казак	-8.9266
▁мыйзамды	-8.92698
▁парламенттик	-8.92729
▁туруктуу	-8.92801
▁20-	-8.9282
▁Байден	-8.92851
▁жасаган	-8.92936
▁мигранттар	-8.9297
▁районуну	-8.92991
▁мо	-8.93024
▁сый	-8.93212
▁ирет	-8.93224
▁бет	-8.93268
ларда	-8.9328
▁мүчөсү	-8.93281
лөрү	-8.93479
▁No	-8.93484
▁балдарды	-8.93565
итардык	-8.93689
▁ой	-8.93816
▁туш	-8.93825
▁болбойт	-8.93848
▁Саламаттык	-8.93894
▁кымбат	-8.93894
▁жылдары	-8.93935
▁COVID	-8.93979
роо	-8.94054
▁Быйыл	-8.94063
▁Алмаз	-8.94067
▁киргизүү	-8.94117
▁жибер	-8.9416
▁кен	-8.94178
мир	-8.9423
▁кабылган	-8.94279
▁текшерүү	-8.94314
жылдан	-8.94384
▁аттуу	-8.94478
▁саламаттык	-8.94488
▁оппозиция	-8.94612
▁сотту	-8.94641
▁баарын	-8.94658
▁Ташиев	-8.94658
лүгү	-8.94792
төгөн	-8.94862
▁мөөнөтү	-8.94978
чаралар	-8.9508
өл	-8.95114
жан	-8.95136
▁отурган	-8.9514
▁белгилеп	-8.95257
▁кадам	-8.95273
▁Ме	-8.95397
▁жарыяланган	-8.95432
▁эркиндиги	-8.95437
▁камсыз	-8.95707
▁таң	-8.95714
Азаттыкты	-8.95842
▁Анан	-8.95854
▁башына	-8.96017
лууда	-8.96044
▁жеңил	-8.9611
▁жылда	-8.96215
▁чо	-8.96233
▁өзгөртүү	-8.9635
▁мектеп	-8.96351
▁...	-8.96354
▁Тажикстан	-8.96357
▁жарыялады	-8.96469
▁8-	-8.96501
▁кеңеш	-8.96642
▁улан	-8.96646
лугу	-8.96713
▁бей	-8.96934
ав	-8.97073
▁кодекси	-8.97074
▁жете	-8.97244
шат	-8.9745
▁по	-8.97461
▁түрк	-8.97472
▁убада	-8.97514
▁40	-8.97624
талган	-8.97681
▁аза	-8.97868
▁Өзбекстанды	-8.97927
▁Украинада	-8.97982
▁кайта	-8.97999
▁максатында	-8.98003
▁карабай	-8.98099
ура	-8.98175
▁сан	-8.98235
бой	-8.98286
▁каттоо	-8.98352
▁киргиз	-8.98413
▁В	-8.98464
зо	-8.98521
▁таасири	-8.98587
▁жаштар	-8.98608
▁жыйынтыгы	-8.98679
▁!	-8.98759
▁күбө	-8.98924
▁сырткары	-8.98936
матов	-8.98993
Л	-8.9905
▁бейтап	-8.99285
це	-8.99326
▁компания	-8.99333
▁аныкталган	-8.99467
▁Со	-8.99531
▁жүрө	-8.9956
▁активист	-8.99597
фи	-8.99625
▁дегенде	-8.99674
▁комиссиясы	-8.99685
▁тартылган	-8.99698
▁каржы	-8.99755
▁Бо	-8.99951
▁Тыш	-9.00026
▁Ы	-9.00065
▁Сот	-9.00106
▁өтүү	-9.00276
▁гы	-9.00277
▁ишкерлер	-9.00395
▁Си	-9.00444
зат	-9.00533
ология	-9.00744
лу	-9.00924
▁Айрым	-9.01082
▁ишкер	-9.01113
▁десе	-9.01145
▁11-	-9.01165
k	-9.01342
ид	-9.01655
▁айылында	-9.01682
▁жазы	-9.01771
▁пайыз	-9.01833
▁аткаруу	-9.01861
;	-9.01918
▁кап	-9.01988
▁бербей	-9.02014
▁келтир	-9.02028
▁мүчө	-9.02185
▁миңдей	-9.0225
▁Х	-9.02337
▁кеч	-9.02384
▁аймакты	-9.02402
m	-9.02429
▁кой	-9.02453
пар	-9.02511
лет	-9.02534
▁айта	-9.02661
▁түшүп	-9.02814
улуп	-9.02878
▁төмөн	-9.03073
икалык	-9.03093
▁ач	-9.03111
уучу	-9.03126
▁ишеним	-9.03168
▁көрсөткүч	-9.03193
еги	-9.03399
▁бизнес	-9.03404
▁Зеленский	-9.03472
▁азык	-9.03477
▁саясатчы	-9.03536
▁алыс	-9.03621
гер	-9.03704
▁тарта	-9.03736
▁Г	-9.03791
▁Ро	-9.03901
▁фонду	-9.04021
▁компаниялар	-9.04038
▁демократия	-9.0411
▁директору	-9.04292
▁тасма	-9.04408
таган	-9.0446
g	-9.04488
▁Себеби	-9.04595
▁дарыгерлер	-9.04606
▁берүүнү	-9.04613
▁ас	-9.04724
▁түзгөн	-9.04747
▁Газа	-9.04848
▁отур	-9.04861
▁изилдөө	-9.04893
▁0	-9.04955
▁Кар	-9.04976
▁Ис	-9.05126
▁болорун	-9.05276
өгө	-9.05315
▁басым	-9.05565
дыктан	-9.05574
▁үн	-9.05654
▁адистер	-9.05679
▁жүк	-9.05684
▁коом	-9.057
Н	-9.05713
▁кала	-9.05719
▁уюштуруу	-9.05731
▁жарандарды	-9.05904
▁саясаты	-9.06
▁козголгон	-9.06119
▁бараткан	-9.06173
диги	-9.06233
▁куб	-9.06241
▁ү	-9.06304
▁кыска	-9.06332
▁зомбулук	-9.06509
▁Чек	-9.06518
▁тамак	-9.06529
▁ордуна	-9.06568
▁Ре	-9.06587
иев	-9.06614
▁За	-9.06722
▁өздөрү	-9.06763
▁Германия	-9.06851
▁Сүрөттү	-9.06976
▁реформа	-9.06976
▁карантин	-9.07185
▁алганын	-9.07226
▁тартыл	-9.07307
▁согушка	-9.07427
▁көрсөткөн	-9.07459
▁маалымдады	-9.0746
▁чектөө	-9.07529
▁кайрылган	-9.07653
▁себеби	-9.07653
▁жүргүзүү	-9.077
▁айт	-9.07734
буз	-9.07745
▁Мо	-9.07843
▁курч	-9.07884
▁жеткен	-9.07949
дөгөн	-9.0795
▁аппарат	-9.08042
▁кароо	-9.08206
▁колдон	-9.08295
▁кете	-9.08307
y	-9.08334
▁Бек	-9.08346
шет	-9.08351
▁кабарлаган	-9.0838
▁бөлүмү	-9.0844
▁маданият	-9.08726
▁жөн	-9.08868
▁калганын	-9.08909
▁Кийин	-9.09021
▁24-	-9.09061
март	-9.09088
n	-9.09257
▁маалда	-9.09322
Борбордук	-9.09339
▁сүйлөшүү	-9.09442
▁өлкөлөрү	-9.09467
▁автор	-9.09592
▁келүү	-9.09607
▁албайт	-9.09666
▁мурун	-9.09715
▁медиа	-9.09814
изм	-9.09818
▁көйгөй	-9.09826
▁бирге	-9.09888
▁экөө	-9.09911
▁караган	-9.09913
▁чыгарма	-9.09943
▁максат	-9.09965
лору	-9.10052
▁жоопкерчилик	-9.10109
▁киреше	-9.10122
▁комитет	-9.10224
▁болуу	-9.10349
▁ын	-9.10373
▁илим	-9.10381
▁Жапаровду	-9.1041
▁калтыр	-9.10418
▁акын	-9.10455
▁аймактарда	-9.10469
▁ла	-9.10519
▁токтот	-9.10537
▁25-	-9.10587
▁бер	-9.10604
▁мекемелер	-9.10764
амы	-9.10765
төрдү	-9.10784
▁кармалып	-9.10847
▁жаңжал	-9.10908
▁качан	-9.10931
▁болбой	-9.10976
▁ну	-9.11004
▁ишканасы	-9.11129
▁кызматына	-9.11149
▁согушту	-9.11188
Манас	-9.11298
▁тын	-9.11476
▁тарапта	-9.11548
▁Британия	-9.11559
▁жакында	-9.11617
▁30-	-9.11821
▁пикирин	-9.11842
▁Мыйзам	-9.11915
▁жетти	-9.11934
▁маселесин	-9.121
▁шайлоону	-9.12131
чара	-9.12216
▁чыр	-9.12272
▁жакка	-9.12336
▁китеп	-9.12364
▁ич	-9.12367
▁ли	-9.12453
▁жатканда	-9.12507
▁Май	-9.12518
▁бол	-9.12574
▁штаб	-9.12639
мар	-9.12653
▁сомдо	-9.12714
▁келин	-9.12767
▁сегиз	-9.12855
▁тынчтык	-9.12869
▁80	-9.12886
▁24	-9.12908
▁Коронавирус	-9.13035
▁мөөнөт	-9.13153
ист	-9.13176
▁кырсык	-9.13241
▁сөздөр	-9.13249
▁жөнө	-9.13385
▁маселени	-9.1348
▁тонна	-9.13487
▁18-	-9.13605
▁A	-9.13745
▁көпчүлүк	-9.13858
▁мыкты	-9.13858
N	-9.13946
▁өнөр	-9.1402
рак	-9.14055
▁чечүү	-9.14069
▁форма	-9.14324
▁белгиленген	-9.14583
▁кыймылы	-9.14688
раак	-9.14777
▁миграция	-9.14792
▁2023-	-9.14792
▁Москвада	-9.14921
▁тол	-9.14959
▁улут	-9.1499
▁28-	-9.15021
▁коюу	-9.15038
беген	-9.15045
ышат	-9.15183
▁жараат	-9.15224
▁далил	-9.15236
▁депутаттар	-9.15277
▁ме	-9.15287
▁балдары	-9.15395
▁чогуу	-9.15419
рап	-9.15421
▁Республикасы	-9.15484
▁табылган	-9.15495
▁Акылбек	-9.15524
▁жайлар	-9.15581
лбай	-9.1559
▁жылдык	-9.15672
жылдагы	-9.15714
ес	-9.15726
▁кески	-9.15736
▁айтылып	-9.1584
▁сурак	-9.1603
ээк	-9.16114
/	-9.16156
▁керектигин	-9.16262
▁кошул	-9.16277
▁тармагы	-9.16283
▁жасап	-9.16342
▁C	-9.16424
алдуу	-9.16467
ңиз	-9.16567
▁17-	-9.16599
▁чукул	-9.16673
Таш	-9.16814
▁Атамбаев	-9.16853
▁долбоор	-9.16996
▁про	-9.17029
▁келгенде	-9.17046
▁кыймыл	-9.17111
▁кармоо	-9.17112
▁өкүм	-9.17127
баева	-9.17135
▁бюджет	-9.1719
▁көрө	-9.17208
▁тагы	-9.17249
▁эркин	-9.17275
p	-9.17325
▁прокурор	-9.17325
лгон	-9.17371
▁ий	-9.17431
er	-9.17444
▁Трамп	-9.17451
▁Америка	-9.17647
▁ойно	-9.17695
▁Ва	-9.17812
Талибан	-9.17861
▁турмуш	-9.17881
▁сөөгү	-9.17968
▁жашап	-9.17976
▁алынып	-9.18082
▁жетекчилиги	-9.18083
▁кезекте	-9.18097
▁Өткөн	-9.18184
▁өтөт	-9.18209
▁S	-9.18234
▁тарых	-9.18278
▁Былтыр	-9.18399
▁машине	-9.184
▁эсептейт	-9.18403
▁60	-9.18404
▁чечил	-9.18456
▁планда	-9.18464
▁жаз	-9.18493
индеги	-9.18505
▁жагы	-9.1866
▁дем	-9.18716
▁аймагына	-9.18721
▁Расмий	-9.18724
▁карма	-9.18829
▁котор	-9.19042
▁өзгөр	-9.19135
▁вице	-9.19268
ерлер	-9.19282
хи	-9.19288
мет	-9.19362
▁калаа	-9.19414
▁бажы	-9.1945
▁камсыздоо	-9.19507
▁булактар	-9.19619
▁чакырым	-9.19804
V	-9.19924
▁Түштүк	-9.20033
▁нун	-9.20098
▁эсе	-9.20168
▁маселелер	-9.20171
▁деңгээлде	-9.20174
шев	-9.20189
▁алыш	-9.20195
▁билдиргендей	-9.2021
▁14-	-9.2038
▁Азыркы	-9.20433
▁телефон	-9.20436
▁тараткан	-9.20474
чылыгы	-9.20505
лов	-9.20602
▁киргизилген	-9.20695
▁кетиши	-9.20719
рылган	-9.20727
▁Абду	-9.20774
▁андай	-9.20778
▁кызматты	-9.20857
атындагы	-9.21044
зе	-9.2106
▁Башка	-9.21368
▁иштерин	-9.2137
▁алынды	-9.21374
▁Соң	-9.21413
▁дарды	-9.21541
▁турак	-9.21545
▁карыз	-9.21594
тажик	-9.21739
кул	-9.21746
▁өлкөлөрдү	-9.2197
Суу	-9.22054
▁темир	-9.22075
▁ком	-9.2208
▁мин	-9.22095
▁туруу	-9.22177
▁Ю	-9.22195
▁жыйынтыгын	-9.22227
▁инвестиция	-9.22254
▁өзгөрт	-9.2227
▁12-	-9.22276
▁өндүрүш	-9.22341
▁жабыркаган	-9.22373
▁16-	-9.22442
▁23-	-9.22554
▁демилге	-9.22587
гандар	-9.22699
▁интернет	-9.22705
▁ишине	-9.22707
▁Мекеме	-9.22818
▁Президентти	-9.22876
ириккен	-9.22908
▁анан	-9.22938
ева	-9.22964
▁өнөктөш	-9.23043
▁2018-	-9.23044
▁америкалык	-9.23044
Ка	-9.23053
▁элге	-9.23074
рүү	-9.23108
▁;	-9.23251
▁айтылды	-9.23271
▁таап	-9.23281
▁тууган	-9.23309
▁Жума	-9.23349
▁тал	-9.23355
▁камакта	-9.23457
▁акция	-9.23556
▁турганы	-9.23567
▁алганда	-9.23586
▁отурум	-9.23603
▁Алматы	-9.23619
▁БУУну	-9.23647
▁жаранды	-9.2374
чилик	-9.23755
▁сүйлөшүүлөр	-9.2385
чө	-9.23878
T	-9.24031
▁багытта	-9.24046
▁бөлүм	-9.24059
▁дей	-9.24061
▁Шайлоо	-9.24068
▁Өкмөт	-9.2409
▁22	-9.24172
гул	-9.24295
▁22-	-9.24368
есс	-9.24429
▁начар	-9.24527
▁жасалган	-9.24641
▁кул	-9.24653
▁авто	-9.24654
▁экономика	-9.24697
▁Акыркы	-9.24756
▁Н	-9.24913
▁берене	-9.24946
мур	-9.24958
▁калыбын	-9.24988
▁келиши	-9.25043
▁жаан	-9.25078
▁калуу	-9.25093
▁тартип	-9.25163
▁коомчулук	-9.25219
▁мыйзамдар	-9.25263
▁бөгөт	-9.25336
дугу	-9.25353
▁лары	-9.25455
шкен	-9.25563
▁активисттер	-9.25618
▁деги	-9.25659
▁жүрөт	-9.25719
▁чи	-9.25956
▁З	-9.26029
▁Сооронба	-9.26031
улган	-9.26126
!	-9.2613
▁коңшу	-9.26147
▁көлөмү	-9.26147
▁баса	-9.26283
▁баласы	-9.26299
▁айылы	-9.26396
ңыз	-9.26513
▁көрсө	-9.26588
▁насыя	-9.26616
үй	-9.26636
▁бак	-9.26715
▁Ооганстанда	-9.26792
▁түшүр	-9.26811
▁каралган	-9.2682
▁катышты	-9.26858
▁алганы	-9.26882
мал	-9.26915
▁кура	-9.26915
▁ондогон	-9.2698
ё	-9.27069
▁70	-9.27123
▁доо	-9.27226
▁унаа	-9.27249
▁бардыгы	-9.27309
▁кызматташтык	-9.27323
▁кез	-9.27359
▁бизде	-9.27361
▁заман	-9.27391
▁нааразы	-9.27439
▁маалыматтарды	-9.27528
▁кайрылып	-9.27562
▁башаламандык	-9.27677
Кыргыз	-9.2768
▁парламентти	-9.27681
▁кайтып	-9.2772
сүндө	-9.27723
▁тө	-9.27839
▁19-	-9.27848
▁жагынан	-9.27878
▁көрүнүш	-9.27882
▁түзөт	-9.2789
▁тийгиз	-9.27914
▁пандемия	-9.27953
▁ишмер	-9.28103
▁максаты	-9.28135
▁кабарланды	-9.28152
згөчө	-9.28209
▁мезгил	-9.28235
▁кириш	-9.28243
▁Бийлик	-9.28512
▁90	-9.28541
руп	-9.28559
зак	-9.28592
▁беренеси	-9.28601
▁Франция	-9.28869
▁сыр	-9.28891
▁макулдашуу	-9.28953
▁жалгыз	-9.2899
▁27-	-9.29068
▁500	-9.29092
▁өлкөлөрдө	-9.29102
▁көрсөтүп	-9.2911
үнчө	-9.29205
▁мандат	-9.2926
▁жүргүзүп	-9.2927
▁кармалды	-9.29278
▁соттук	-9.29328
▁аракеттер	-9.2949
▁мага	-9.29506
ондук	-9.29553
сунда	-9.29706
▁судья	-9.29713
▁мени	-9.29725
▁өлкөлүк	-9.29767
УКМК	-9.29773
боо	-9.29777
▁Камчыбек	-9.29834
ант	-9.29845
S	-9.29898
▁тизме	-9.29932
▁тогуз	-9.29955
Ч	-9.3
▁болгондо	-9.30054
Коопсуздук	-9.30082
▁Ушунда	-9.30183
▁өмүрүн	-9.30237
in	-9.30461
бат	-9.30477
▁кошо	-9.30687
▁Бай	-9.30791
▁агент	-9.30934
▁жетекчилери	-9.31002
▁завод	-9.31175
▁органдар	-9.3121
беренеси	-9.31261
▁тили	-9.31286
▁кеткенин	-9.31306
▁дал	-9.3138
деп	-9.31394
▁кайрыл	-9.31439
▁тааныш	-9.31449
▁долбоорлор	-9.31527
▁миңдеген	-9.3157
▁түзүп	-9.31653
▁21	-9.31663
▁Депутат	-9.31668
үлдү	-9.31679
▁менин	-9.31684
▁өтү	-9.31737
ымды	-9.31774
▁тиешеси	-9.31791
▁жаман	-9.31894
D	-9.31915
▁март	-9.31986
▁багыт	-9.32025
▁чыгым	-9.32171
▁сапары	-9.32296
▁орду	-9.32385
▁мүлк	-9.32462
мент	-9.32468
атты	-9.32547
▁атасы	-9.326
▁сапар	-9.32605
▁аймак	-9.32673
▁билбей	-9.32701
▁сынга	-9.33137
▁саммит	-9.33159
▁өндүр	-9.33262
▁салды	-9.33336
▁кризис	-9.3341
▁Ор	-9.33496
▁Түркияда	-9.33533
B	-9.33536
▁аткан	-9.33544
▁тургуну	-9.33605
▁программасы	-9.33706
тив	-9.3377
▁ыкма	-9.33802
▁кызматкерлер	-9.33839
олог	-9.33907
▁мисал	-9.33918
▁13-	-9.33921
▁түрдүү	-9.33932
түлүк	-9.34014
▁айла	-9.34144
▁тынч	-9.34261
▁зордук	-9.34305
▁мектептер	-9.34406
▁коё	-9.34438
▁үйдө	-9.34469
▁териштирүү	-9.34523
▁ачуу	-9.34653
▁Албетте	-9.34674
луп	-9.34675
▁өрт	-9.34845
▁I	-9.349
▁коргонуу	-9.35006
▁эр	-9.35022
▁бат	-9.3506
▁шайла	-9.3508
▁T	-9.35097
▁кыргыздар	-9.35175
лгөн	-9.35202
▁колдо	-9.35283
▁сатуу	-9.353
▁мүмкүнчүлүгү	-9.35311
▁кабат	-9.35378
▁билдирүүдө	-9.35442
сине	-9.35474
▁карандысыз	-9.35598
▁бузуу	-9.3564
▁аткар	-9.35695
▁белги	-9.35704
▁ишкана	-9.35777
▁өнүгүү	-9.35824
▁көмүр	-9.35825
▁өзбек	-9.35873
▁дайынд	-9.35876
▁олутту	-9.35953
▁Көп	-9.35959
▁белгилеген	-9.36067
▁берилди	-9.36089
▁Гүл	-9.36252
▁катышып	-9.36342
ья	-9.3636
еш	-9.36362
▁Тү	-9.36374
▁маалында	-9.36382
▁мал	-9.36463
▁көрсөтүлгөн	-9.36613
▁муктаж	-9.36729
▁Матраимов	-9.36779
▁команда	-9.36789
▁үчүнчү	-9.36791
▁26-	-9.36805
▁Өз	-9.36837
▁орган	-9.36848
tion	-9.36859
▁2017-	-9.36859
▁мунай	-9.36862
▁министрлик	-9.36896
▁миллиондо	-9.36932
ликте	-9.36938
E	-9.36989
▁калса	-9.37048
▁жыйында	-9.37051
▁үйрө	-9.37061
▁милдет	-9.37137
▁21-	-9.37139
▁толугу	-9.37152
▁болуш	-9.37261
▁шаарына	-9.37326
▁саясатчылар	-9.3736
▁атып	-9.37364
▁болууда	-9.37364
▁транспорт	-9.37424
▁айлык	-9.37425
▁эгер	-9.37434
▁паспорт	-9.3751
▁Индия	-9.37511
▁Акаев	-9.37523
ээ	-9.37555
▁күрөшүү	-9.37608
▁жараян	-9.37621
▁НАТО	-9.37642
▁зал	-9.37764
▁сактап	-9.37776
▁аралаш	-9.3779
▁саба	-9.3783
▁энергетика	-9.37835
▁29-	-9.37875
▁Жу	-9.37879
▁эне	-9.379
▁облустары	-9.37913
▁лардын	-9.37939
▁Ли	-9.37984
▁айтууда	-9.38042
Эркин	-9.38092
▁бүз	-9.38122
▁басылмасы	-9.38128
▁чө	-9.38161
үмдү	-9.38195
▁бийликте	-9.38225
▁Орус	-9.38319
▁колдогон	-9.3837
▁Түркияны	-9.38381
▁Улут	-9.38665
пей	-9.38702
▁илимий	-9.38732
▁Адам	-9.38739
▁окуп	-9.38783
▁кошто	-9.38796
▁дүйнөдө	-9.38808
▁чыгышы	-9.38814
апрел	-9.3887
▁аптада	-9.38941
▁адвокат	-9.38943
▁футбол	-9.3896
▁менчик	-9.38961
▁Жол	-9.39009
▁Абды	-9.3917
▁атаандаш	-9.39226
▁Аскар	-9.39229
▁ыбыз	-9.3927
▁министр	-9.39355
▁ооган	-9.39421
▁чакырган	-9.39436
▁калк	-9.39504
▁ашыруу	-9.3962
▁коргоочу	-9.397
▁Вашингтон	-9.39759
▁23	-9.39833
▁Түндүк	-9.39856
▁кир	-9.39903
▁түнү	-9.39915
▁окуясы	-9.39939
▁27	-9.3997
▁сыз	-9.40071
▁оң	-9.40143
▁адис	-9.40184
▁күндү	-9.40249
▁сатыл	-9.40273
▁тармактар	-9.40278
▁биле	-9.40295
▁өтпөй	-9.40297
▁эли	-9.40353
▁баруу	-9.40367
▁дайым	-9.40369
▁дарыгер	-9.40377
▁эрежелер	-9.40402
▁көбүрөөк	-9.40431
▁35	-9.40439
▁коронавирусту	-9.40493
▁Султан	-9.40503
▁Кал	-9.40584
мек	-9.40592
▁тургундары	-9.40615
бөгөн	-9.40627
▁Мамлекет	-9.40654
▁алгандар	-9.40657
▁2010-	-9.407
▁аянт	-9.40703
▁аргасыз	-9.40705
▁куугунтук	-9.40835
▁бойдон	-9.40836
▁жүргүз	-9.40904
▁тийиш	-9.40911
▁аякта	-9.41003
▁бү	-9.41111
▁кыздар	-9.41128
▁26	-9.41195
▁маалыматта	-9.41231
▁алдынча	-9.41308
▁казы	-9.41374
▁маегинде	-9.41378
▁калышы	-9.41433
▁эсеп	-9.41444
▁аймагы	-9.4156
▁аныктоо	-9.41655
▁Е	-9.41712
▁сумма	-9.41789
▁Өзбекстанда	-9.4185
▁план	-9.41862
▁үстүнө	-9.41935
▁издөө	-9.4206
▁театр	-9.4207
▁тизмеси	-9.42093
▁аракеттери	-9.4212
▁Пакистан	-9.42197
жылдары	-9.42223
энелер	-9.42387
▁Ту	-9.4253
▁жогот	-9.42602
▁Тергөө	-9.42609
▁болмок	-9.42609
▁жыйынтык	-9.42667
▁имарат	-9.42686
▁билген	-9.42726
▁ая	-9.42756
▁келгенин	-9.42758
▁таянып	-9.42806
▁пайдалануу	-9.42885
▁университет	-9.42906
▁Ти	-9.42914
▁канчалык	-9.42958
▁партиялар	-9.42976
▁тармагында	-9.42997
▁камалган	-9.43026
▁гуман	-9.43032
▁байкоо	-9.43163
▁өлтүр	-9.43218
▁жат	-9.43243
▁кийим	-9.433
▁пара	-9.43316
▁милдетин	-9.43341
ивдүү	-9.43383
▁алышы	-9.43409
▁жумша	-9.43439
▁суроолор	-9.43463
▁аткарыл	-9.43637
▁программа	-9.43667
▁Коргоо	-9.43716
▁талабы	-9.43717
▁Кадыр	-9.4372
▁Үй	-9.43722
▁айга	-9.43811
▁көтөр	-9.43819
▁жал	-9.43839
▁процесс	-9.43855
▁Уюму	-9.43856
▁келтирүү	-9.43917
▁2016-	-9.43995
октябр	-9.44029
▁албаган	-9.44034
▁сөзү	-9.44063
▁алышкан	-9.44172
▁топту	-9.4422
▁Жер	-9.44269
▁аймактарында	-9.44324
▁энергиясы	-9.44351
▁Тилек	-9.44415
▁кылат	-9.44472
▁жарыяла	-9.44483
30	-9.44519
▁Токаев	-9.44555
▁сунушу	-9.44589
▁берсе	-9.44618
В	-9.44776
▁жанында	-9.44803
▁болгондуктан	-9.44837
▁баракчасына	-9.44856
▁арасына	-9.44923
▁300	-9.45031
▁токтом	-9.45052
хо	-9.45067
▁мыйзамдуу	-9.45082
▁ооз	-9.45138
▁туугандары	-9.45187
дүгү	-9.45244
▁ичи	-9.45256
▁үйлөр	-9.453
G	-9.454
▁Израилди	-9.45405
▁Ас	-9.45417
▁там	-9.4542
бүлөсү	-9.45496
▁эркине	-9.45498
▁жабыл	-9.45524
▁оюндары	-9.45574
▁гектар	-9.45597
▁кыш	-9.45609
орлор	-9.45677
▁Касым	-9.45696
▁айтуу	-9.45837
▁эрте	-9.45885
▁кызыкчылыгы	-9.45969
▁убакта	-9.45969
R	-9.46051
▁жүзүндө	-9.46085
▁чыгар	-9.46091
▁Экономика	-9.46111
▁за	-9.46175
▁иштей	-9.46187
▁акы	-9.4622
▁жүйө	-9.46255
▁Ду	-9.46312
▁согушта	-9.46333
▁пул	-9.46343
▁си	-9.46354
▁Ге	-9.46401
▁тармактарда	-9.46434
Г	-9.46457
▁айтыш	-9.46459
▁түшүнүк	-9.46539
▁качып	-9.46543
▁ишканалар	-9.4663
▁эртең	-9.46671
энеси	-9.46761
▁Биримдиги	-9.46826
▁берилет	-9.46836
ИИМ	-9.46905
Кошмо	-9.46984
▁алууну	-9.47007
▁түрү	-9.47038
вер	-9.47096
▁колуна	-9.47119
▁Ошто	-9.47154
▁сабак	-9.47234
мер	-9.47244
▁белгилеш	-9.47267
▁тургундар	-9.47281
баса	-9.47302
▁элчилиги	-9.47402
▁Улуу	-9.47402
▁Түрк	-9.47437
▁кабарланган	-9.4746
Тоо	-9.47543
▁аягына	-9.47548
▁институту	-9.47673
▁кесепети	-9.47691
унан	-9.47743
▁курман	-9.47773
▁аяба	-9.47851
▁материалдар	-9.47924
▁көтөрүп	-9.48029
▁кетет	-9.48038
▁жалпысы	-9.48078
▁үйүнө	-9.4815
▁лидерлери	-9.48161
▁жарык	-9.48184
▁аң	-9.48266
▁стратегия	-9.48272
▁Штаттар	-9.48273
▁Иранды	-9.48277
▁Ди	-9.48387
▁28	-9.4841
▁жоопкерчилиги	-9.48418
▁кырдаалды	-9.48459
▁өмүр	-9.48512
an	-9.48515
▁маалымдаган	-9.48565
▁онлайн	-9.48568
▁Экинчи	-9.48642
▁борборду	-9.48721
▁бүгүнкү	-9.48767
▁Корея	-9.48795
▁болбосо	-9.48857
▁Сиз	-9.48858
▁колдонул	-9.489
▁кырдаалдар	-9.48917
▁козго	-9.48953
▁жараша	-9.48964
тараптуу	-9.49033
▁Сирия	-9.49208
▁режим	-9.49377
▁бошотуу	-9.49415
▁ХАМАС	-9.49592
▁кызматташуу	-9.49593
▁парламентте	-9.4966
▁Кытайда	-9.49669
▁келсе	-9.49684
▁айыптоо	-9.49725
▁кыйла	-9.49733
▁мажбур	-9.49739
▁Мына	-9.49788
▁себепте	-9.49872
▁тапшырма	-9.49905
▁түп	-9.49959
▁узак	-9.50019
▁ашыр	-9.50064
▁башталды	-9.50136
▁карай	-9.50153
▁Түркмөнстан	-9.50184
▁абалда	-9.50263
▁студенттер	-9.5029
▁болжол	-9.50333
▁байланышы	-9.50335
▁укуктук	-9.50401
en	-9.50409
▁көзөмөлдө	-9.50421
ибиз	-9.50477
▁кооптуу	-9.50481
▁кагаз	-9.50503
▁байланышты	-9.50595
▁колдоп	-9.50625
▁деңиз	-9.50684
▁тийиштүү	-9.50699
▁Евробиримдик	-9.50747
▁сел	-9.50753
▁убагында	-9.5078
▁эскертти	-9.5078
президент	-9.5078
▁жасалма	-9.50781
▁Өзү	-9.50984
▁ушу	-9.50986
▁техника	-9.50997
▁Мурдагы	-9.5112
▁маани	-9.51223
▁калганы	-9.51269
▁Атамбаевди	-9.51293
▁алса	-9.51336
▁арызы	-9.51394
жылга	-9.51411
▁өлүм	-9.5152
Ф	-9.51527
▁Россия	-9.51529
▁үгүт	-9.5153
▁биргелеш	-9.51551
▁коопсуздугун	-9.51593
▁жөнгө	-9.51604
▁террорду	-9.5168
▁өмүрү	-9.51685
▁чыгат	-9.51705
▁жоо	-9.51708
▁чектөөлөр	-9.51726
▁бериши	-9.5174
▁өлүмү	-9.51751
▁салым	-9.51794
▁майрам	-9.51909
▁Журналист	-9.51982
▁кирүү	-9.52157
деди	-9.52282
▁тастыкта	-9.52285
Ш	-9.52317
▁Кумтөр	-9.5242
O	-9.52436
▁эмдөө	-9.52436
▁кишилер	-9.52452
Кумтөр	-9.52474
ңкы	-9.52567
▁терең	-9.52589
▁тарбия	-9.52591
имов	-9.52651
▁Ви	-9.5266
еңири	-9.52743
▁акысы	-9.52801
▁техникалык	-9.52823
▁Путинди	-9.52859
▁майда	-9.53043
▁катыша	-9.53107
▁кылмыштуу	-9.53126
▁лидер	-9.53162
▁курамы	-9.53174
ерин	-9.53196
▁товар	-9.5326
▁ошондо	-9.53286
▁тема	-9.53295
▁иштөө	-9.53361
▁эреже	-9.53384
орун	-9.53429
▁Менин	-9.53444
▁көзү	-9.53457
▁мигранттарды	-9.53531
▁Токто	-9.53669
▁ине	-9.53756
▁беле	-9.53796
▁Александр	-9.53813
▁аныкталды	-9.53886
▁депутаттары	-9.53902
▁ашкан	-9.53906
▁жери	-9.53922
▁бакча	-9.53922
▁таандык	-9.54121
▁ыкчам	-9.54121
▁жокпу	-9.54154
▁Беларус	-9.54214
▁кетсе	-9.54217
▁топтор	-9.54224
▁Чыгыш	-9.54276
торду	-9.54487
жаза	-9.54581
▁төгү	-9.54745
▁маселелери	-9.54773
ушту	-9.54799
▁туулган	-9.54801
al	-9.54816
▁айрымдары	-9.54853
▁таануу	-9.54901
▁калкты	-9.54907
▁доомат	-9.54947
▁жараткан	-9.54975
▁чыны	-9.55036
▁Ошентип	-9.55052
▁бериш	-9.5511
баш	-9.55157
▁жумушчу	-9.55165
▁чогулт	-9.55169
▁каалаган	-9.55211
▁келаткан	-9.55365
сезим	-9.55478
▁жигит	-9.55521
▁башы	-9.55552
▁кетир	-9.55564
▁аялдарды	-9.55574
▁аныктал	-9.55602
▁уюмду	-9.55629
▁тарыхый	-9.55672
▁сомду	-9.55691
▁оо	-9.55717
▁жыйыны	-9.55838
▁каранды	-9.55867
▁шы	-9.5598
▁Image	-9.55992
▁Эмне	-9.55995
кей	-9.56024
▁үйдү	-9.56234
W	-9.56307
▁талаа	-9.56319
▁эркиндик	-9.56422
▁анализ	-9.56465
▁инфекция	-9.56465
▁кызматкер	-9.56466
▁чагылдыр	-9.56471
▁мекеме	-9.5656
▁мамилеси	-9.56629
▁Бизде	-9.56637
▁канал	-9.56671
▁кыла	-9.56671
▁атат	-9.56674
▁коюш	-9.56737
X	-9.56781
▁туткун	-9.56782
▁сына	-9.56883
▁күчтүү	-9.56899
▁камагын	-9.56948
бет	-9.57098
▁Азербайжан	-9.57112
▁чакырып	-9.57209
пөй	-9.57243
▁2015-	-9.57258
▁Ким	-9.5727
▁багытталган	-9.57358
▁мэри	-9.57363
▁чыгарылган	-9.57396
▁тоскоолдук	-9.57427
▁байкал	-9.57512
▁тартиби	-9.57579
▁күтүп	-9.57581
▁гр	-9.57635
▁администрациясы	-9.57659
▁УКМКны	-9.57686
▁сүйлөш	-9.57687
▁төлөп	-9.5771
▁айырма	-9.57739
▁аскерлер	-9.58025
үч	-9.58066
▁апта	-9.58307
▁эски	-9.58333
▁жабык	-9.58383
▁акчаны	-9.5844
▁гезит	-9.58553
▁Атайы	-9.58645
▁чакан	-9.58692
▁ачылган	-9.58705
▁кызды	-9.58749
▁чыгарды	-9.58761
▁чаралары	-9.5889
▁салыш	-9.58909
жайы	-9.59013
▁референдум	-9.59027
▁станция	-9.59029
▁Бээжин	-9.59189
▁акыл	-9.59197
чусу	-9.59269
▁министрлигине	-9.59282
▁Хо	-9.59321
▁Интернет	-9.59352
▁жүргүзгөн	-9.59383
▁кыр	-9.59452
▁Мурда	-9.5948
▁колу	-9.59525
▁партияны	-9.5957
▁болбогон	-9.59678
▁тапты	-9.5974
w	-9.59841
▁күнөөлүү	-9.59841
▁Болот	-9.59842
▁деңгээли	-9.5991
▁эмеспи	-9.59972
▁жабыр	-9.59997
премьер	-9.60007
▁кармалганын	-9.6005
▁мелдеш	-9.60169
▁жапыр	-9.60171
чулардын	-9.60221
министри	-9.60291
▁эксперт	-9.60303
келиндер	-9.60307
▁эсте	-9.60338
▁жаатында	-9.6039
▁Кол	-9.60424
▁үмүт	-9.60426
▁33	-9.60589
▁жерди	-9.60705
▁экендиги	-9.60742
од	-9.60744
▁ырайы	-9.60771
▁жетиштүү	-9.60828
▁салыштырма	-9.60828
▁каралып	-9.6083
▁финал	-9.60847
▁отуруп	-9.60913
▁иштетүү	-9.60939
аясий	-9.60941
▁Айт	-9.61116
▁статистика	-9.61158
▁экология	-9.61159
▁сурап	-9.61183
▁пандемиясы	-9.61269
▁университети	-9.61298
▁Жапония	-9.61324
чулук	-9.61485
▁Жергиликтүү	-9.6149
▁адилет	-9.61491
▁артка	-9.61508
Биз	-9.61574
▁По	-9.61648
▁класс	-9.6166
▁шартта	-9.61706
▁жоктугу	-9.61824
▁коргоочулар	-9.61829
Ө	-9.61866
▁борборунун	-9.61899
▁акыры	-9.61914
▁эмнеге	-9.61932
▁баяндама	-9.61991
▁демилгеси	-9.61997
▁БШК	-9.62018
▁жалган	-9.62117
▁Социал	-9.62125
▁башталганда	-9.62149
▁фонд	-9.62178
▁Кемпир	-9.62262
▁Жыл	-9.62265
▁жатканына	-9.62315
чысы	-9.62322
▁ооруканада	-9.62343
▁кино	-9.62371
▁ыйгарым	-9.62401
▁медицина	-9.62429
▁31-	-9.62456
▁виза	-9.62496
▁иштейт	-9.62507
▁күчтөр	-9.62516
▁материал	-9.62577
▁өр	-9.62659
▁Эрдоган	-9.62661
▁бийик	-9.62661
▁Кыз	-9.62664
гиз	-9.62669
▁жеткирүү	-9.62676
▁ңыз	-9.62822
b	-9.62829
Ц	-9.62829
▁ошону	-9.6283
▁жетпей	-9.6283
▁Демек	-9.62849
▁Чо	-9.62875
▁батир	-9.62951
▁акциялары	-9.62959
▁төрө	-9.62968
▁Шаар	-9.62972
▁дыгы	-9.63111
▁аткаруучу	-9.6314
▁Грузия	-9.63167
эр	-9.63168
▁ээси	-9.63184
▁катаал	-9.63297
▁талибдер	-9.63336
▁башчылары	-9.63344
▁билдирүүсүндө	-9.6353
▁уюмдарды	-9.63688
▁тарапты	-9.63698
▁орно	-9.63764
▁кере	-9.63783
▁комитетти	-9.63857
▁жаап	-9.63862
▁түрмө	-9.63874
▁айтышты	-9.63914
▁макулдаш	-9.63977
▁күйөөсү	-9.64074
▁уланып	-9.64106
▁иштерди	-9.64163
ӊ	-9.64186
▁жеңиш	-9.64201
▁эксперттер	-9.64217
▁өлгөн	-9.64233
▁жайга	-9.64446
▁башкалар	-9.64494
▁үндө	-9.64605
▁кире	-9.64615
▁кеңей	-9.647
▁Сал	-9.6477
▁санкция	-9.64771
▁баян	-9.64811
▁Ооганстан	-9.64857
▁эскертүү	-9.64875
▁макала	-9.64876
▁Жар	-9.6488
▁Укук	-9.64883
▁өрттө	-9.649
▁Бала	-9.64902
▁Серге	-9.65049
▁болобу	-9.65195
▁M	-9.65198
▁АКШда	-9.65217
Чоң	-9.65264
▁беттеш	-9.65394
декабр	-9.65463
▁Казак	-9.65505
▁айыптап	-9.65524
▁Армения	-9.65529
▁журналисттерди	-9.65531
▁курган	-9.65674
▁жүрүү	-9.65682
▁көрсөтмө	-9.65735
▁бекем	-9.65783
шо	-9.65819
▁болгондорду	-9.65856
▁өзөктү	-9.65909
▁улуу	-9.65926
10	-9.6595
▁Кеңеште	-9.65962
▁алгач	-9.6602
▁жерине	-9.66059
▁чалгын	-9.66083
▁2014-	-9.66257
▁Назарбаев	-9.66257
▁сыртта	-9.66277
▁F	-9.66349
▁кайтарып	-9.66405
▁ыктыяр	-9.66431
▁алектен	-9.66432
▁аяктаган	-9.66463
▁кайда	-9.66644
▁болгондор	-9.66655
Кыргызстан	-9.66745
рылып	-9.66752
▁көйгөйлөр	-9.66754
▁күчү	-9.6676
°	-9.66781
▁Олимпиада	-9.66782
▁райондорунда	-9.66782
on	-9.66827
▁экспорт	-9.66867
▁долбоорду	-9.67125
▁курултай	-9.67133
▁бузган	-9.67222
▁жолдор	-9.67276
▁чемпион	-9.67279
январ	-9.67286
▁36	-9.67306
▁облус	-9.67325
ңүз	-9.67329
z	-9.67485
▁билдиришти	-9.67485
▁чалдыккан	-9.67485
▁даярдык	-9.67639
▁чыкпай	-9.67709
▁чакырыл	-9.67786
▁порт	-9.67793
▁акциясы	-9.67801
▁тагдыры	-9.67817
инг	-9.6782
▁Ташкент	-9.67839
▁карабастан	-9.68016
▁ашты	-9.68102
Фейсбуктагы	-9.68218
▁тура	-9.68267
▁өткөргөн	-9.68276
▁катталды	-9.68314
▁арналган	-9.68375
▁жарыяланды	-9.68384
▁Өмүрбек	-9.68479
▁Ча	-9.68506
▁45	-9.68579
▁берүүдө	-9.68621
▁маселелерди	-9.68657
Х	-9.68663
▁пи	-9.68783
бол	-9.68856
▁Ла	-9.68979
▁түр	-9.69088
▁Я	-9.69127
▁тыгы	-9.69129
▁кесип	-9.69134
▁Тажикстанда	-9.69201
абыт	-9.69256
▁соолугу	-9.69266
▁сиң	-9.69298
▁Жаш	-9.69388
▁экспертиза	-9.69446
▁ката	-9.69455
▁мугалим	-9.69505
▁32	-9.69577
▁дайындалган	-9.69627
▁түштү	-9.6969
чил	-9.69711
▁Фа	-9.69724
▁калкы	-9.69804
▁Лукашенко	-9.69807
▁Маселен	-9.69807
▁байге	-9.70002
▁ишмердиги	-9.70005
▁бош	-9.70035
▁маек	-9.70044
▁R	-9.70064
▁таштап	-9.7011
▁байланышкан	-9.70114
▁тараптар	-9.70117
▁барат	-9.70125
▁маданий	-9.70169
P	-9.70175
▁Негизи	-9.70175
▁чогулган	-9.7035
▁жатышкан	-9.70351
▁келишет	-9.70532
ңуз	-9.70584
▁төлөө	-9.70617
▁тиги	-9.7063
▁абак	-9.70655
БУУ	-9.70658
жарак	-9.70729
▁Украин	-9.70806
▁дене	-9.70808
▁Милиция	-9.70897
▁теле	-9.70974
▁эгемен	-9.71024
▁тилкеси	-9.71037
▁Ү	-9.71078
▁машина	-9.7108
▁элчиси	-9.71082
▁окуучулар	-9.71132
▁толкун	-9.71227
▁көл	-9.71254
▁адабият	-9.71263
▁кийлигиш	-9.71263
▁чакыруу	-9.71279
▁лагер	-9.71308
▁жазуучу	-9.71308
▁жүргөнү	-9.71321
▁коро	-9.71334
▁аталыш	-9.71362
▁комплекс	-9.71446
▁cap	-9.71446
йрыкча	-9.71447
▁чарасы	-9.71495
Республика	-9.71516
▁өтүнүчү	-9.71527
M	-9.71833
▁мекемеси	-9.71863
▁киргизген	-9.71907
▁кимди	-9.72138
▁чыгышты	-9.72165
▁ойлойм	-9.72195
альд	-9.72213
▁булагы	-9.72247
▁жагдайлар	-9.72326
▁Алексе	-9.72369
▁моюн	-9.72423
▁Ислам	-9.72521
▁жаракат	-9.72572
▁окуяны	-9.72684
▁Совет	-9.72741
▁саналат	-9.72742
▁Тоолуу	-9.72742
▁конуш	-9.72764
▁кары	-9.72861
L	-9.72926
▁изде	-9.7313
ar	-9.73136
▁консул	-9.73151
▁издеп	-9.73254
▁апасы	-9.73272
▁маркум	-9.733
▁блогер	-9.733
▁уурда	-9.7331
▁Ушу	-9.73314
▁Эң	-9.73324
▁көрсөтүл	-9.73329
есе	-9.73341
чатак	-9.73362
▁август	-9.73391
▁баланы	-9.73415
▁кодекс	-9.73485
▁Чолпон	-9.73487
▁ысым	-9.73496
▁муун	-9.73625
▁градус	-9.73675
▁көздөй	-9.7373
▁имараты	-9.73806
▁абалды	-9.73807
▁тажрыйба	-9.73831
▁мекен	-9.73877
▁кубатт	-9.7389
▁дүйнөнү	-9.73893
▁жазуу	-9.73959
▁кеме	-9.73968
▁кезек	-9.74084
▁тандоо	-9.74106
▁бөлүп	-9.7424
▁колдонуп	-9.74337
▁алдына	-9.74339
▁чемпионаты	-9.74461
▁жуу	-9.74584
▁көбөйгөн	-9.74618
▁аягында	-9.74619
▁жатам	-9.74633
▁фактылар	-9.74722
▁сыйлык	-9.74764
▁бута	-9.74849
фер	-9.74868
▁музей	-9.74998
▁ГЭС	-9.74998
▁арзан	-9.75083
▁дипломатия	-9.75204
▁милдеттүү	-9.75279
F	-9.75279
▁айдоочу	-9.7537
▁экономикасы	-9.75428
▁Шар	-9.75431
▁коомчулукта	-9.75497
▁оңдо	-9.75511
▁коркунучу	-9.75541
▁Кызыл	-9.75636
C	-9.75658
▁Ни	-9.75705
▁башкача	-9.75822
▁Балдар	-9.75891
▁теги	-9.75934
▁кадр	-9.75963
▁төрага	-9.7597
▁келтирген	-9.7605
▁биринде	-9.76055
or	-9.76143
▁маанай	-9.76339
дармек	-9.76353
▁алабыз	-9.76358
▁сүйлөп	-9.76363
▁ачып	-9.76386
▁чөйрө	-9.76465
▁аймактары	-9.76503
▁уюштурган	-9.76532
дөрдүн	-9.76576
▁табылды	-9.76635
K	-9.76725
▁рубл	-9.76731
▁билдирүүсү	-9.76892
▁кечинде	-9.76983
▁бөлүштү	-9.76985
▁автобус	-9.77113
▁Бакыт	-9.77117
▁курулушу	-9.77129
▁жандан	-9.7733
▁авторду	-9.77332
▁арасы	-9.77359
▁Жети	-9.77398
▁мугалимдер	-9.77439
▁жашта	-9.77483
▁кайрылды	-9.77502
▁көк	-9.77604
▁командасы	-9.77609
▁ыраазы	-9.77698
▁Ороз	-9.77741
▁Ошону	-9.77792
▁бошот	-9.77829
▁Билим	-9.77948
ский	-9.78045
▁учуп	-9.781
▁сүйлөшүп	-9.78146
▁жылдар	-9.78241
▁өспүрүм	-9.78286
▁чыгыш	-9.78291
үлүп	-9.78408
алиева	-9.78435
▁медал	-9.78445
▁активдүү	-9.78483
▁кысым	-9.78487
▁кандуу	-9.78507
▁коомчулукту	-9.7857
тикалык	-9.78598
▁билет	-9.78652
▁Мадумаров	-9.7868
▁көпчүлүгү	-9.78681
▁Евразия	-9.78878
▁жукту	-9.78889
▁кагып	-9.78906
▁үлгү	-9.7895
▁Үч	-9.78966
▁көзөмөлдөө	-9.79024
▁кыйноо	-9.79081
▁институт	-9.79101
ноябр	-9.79138
▁дипломат	-9.79228
▁ачкан	-9.79247
▁Польша	-9.79274
▁адвокаты	-9.793
▁Ри	-9.79445
▁дүкөн	-9.79474
▁чече	-9.79563
▁администрация	-9.79571
▁көрсөтө	-9.79751
изация	-9.79813
▁шаарды	-9.79828
▁жетки	-9.79848
▁авиа	-9.79909
▁четте	-9.79942
▁долларды	-9.79981
▁узар	-9.80004
▁келбейт	-9.80016
▁элчилик	-9.80041
▁буйрук	-9.80072
▁чөлкөм	-9.80072
▁Баары	-9.80092
▁айланасында	-9.80115
▁планы	-9.80135
▁кайтар	-9.8016
▁Про	-9.80174
st	-9.80241
▁жетектеген	-9.80272
▁коммерция	-9.80272
▁мамлекеттерди	-9.80291
▁курама	-9.80295
▁29	-9.80309
▁билдирүүлөр	-9.80402
▁31	-9.80542
▁келбей	-9.80585
▁жасоо	-9.80675
▁Оору	-9.807
▁соттолгон	-9.80702
▁H	-9.80717
▁жолду	-9.80777
▁кыскарт	-9.80821
▁вирусту	-9.80875
административдик	-9.80876
▁келишкен	-9.80876
▁атуу	-9.80932
▁үз	-9.80983
▁пост	-9.80996
катыш	-9.81128
советтик	-9.81193
▁чыккандар	-9.81254
▁Осмон	-9.81281
▁сыпатт	-9.81296
▁кайтаруу	-9.81303
▁түштүк	-9.81321
▁коюл	-9.81359
▁Кээ	-9.81409
▁Гу	-9.81416
▁катталып	-9.81417
▁финансы	-9.81483
▁кырсыгы	-9.81484
▁Айыл	-9.81686
▁Дүйшөмбү	-9.81687
▁аянты	-9.81748
▁мезгилде	-9.81749
▁Фи	-9.81821
▁жарыялап	-9.81821
▁жуккан	-9.81891
▁келатат	-9.82095
▁телеканалы	-9.82158
мед	-9.82172
▁пайызы	-9.82249
▁34	-9.82282
▁Стамбул	-9.82299
▁окшойт	-9.8234
▁чеги	-9.82487
▁сууну	-9.82516
▁документтер	-9.82558
▁салышты	-9.8259
▁Темир	-9.826
▁жатты	-9.82619
▁айтат	-9.82783
▁анча	-9.82801
▁үйү	-9.82839
▁бирдикт	-9.82953
▁окуган	-9.82961
▁Улан	-9.83028
▁коомдун	-9.83112
ЕАЭБ	-9.83121
▁айлана	-9.83146
▁алышат	-9.83174
▁Мекен	-9.83206
▁музыка	-9.83328
спект	-9.83336
▁делген	-9.83492
▁саналып	-9.83537
▁абагында	-9.83539
▁150	-9.83568
▁укуктуу	-9.83732
▁Ооганстанды	-9.83863
▁мэр	-9.83909
▁тартыш	-9.8396
▁400	-9.83984
бүлөлү	-9.84002
▁Крым	-9.84011
▁эсебине	-9.84039
▁Абд	-9.84052
▁Кой	-9.84114
▁мырза	-9.84159
▁берилип	-9.84223
▁айыпталып	-9.84368
▁Кабул	-9.84441
▁тарыхы	-9.8447
▁бошотул	-9.845
исттер	-9.84515
▁пикирлер	-9.84523
▁жугузу	-9.84576
▁июнь	-9.84577
▁өсүп	-9.84579
▁шайланган	-9.84582
▁күчөп	-9.84583
▁фракциясы	-9.84735
▁Жакын	-9.84768
Жо	-9.84787
▁жайгаштыр	-9.84808
▁жүктө	-9.84894
▁жамаат	-9.84999
кеев	-9.85118
▁Мирзиёев	-9.85207
▁СССР	-9.85207
бири	-9.85222
▁депутаттык	-9.85407
▁мурунку	-9.85413
▁юрист	-9.8542
▁табуу	-9.85634
▁койгону	-9.85649
▁оңой	-9.85652
▁алышты	-9.85761
▁тараган	-9.85791
▁атаган	-9.85823
▁P	-9.85834
▁2024-	-9.85841
▁өчүр	-9.85904
▁тынчсыздан	-9.86052
▁бөлмө	-9.86054
▁атына	-9.86056
▁тилинде	-9.86062
об	-9.86118
▁мурас	-9.86144
▁айтышкан	-9.86149
▁жолдору	-9.86185
▁келишимди	-9.86315
▁мына	-9.86329
айын	-9.8647
▁сала	-9.86512
▁Аскер	-9.86537
▁Саясат	-9.86693
▁болбосун	-9.86693
▁мечит	-9.86694
убуз	-9.86724
▁сунуштаган	-9.86809
▁санкциялар	-9.8689
▁Италия	-9.86907
▁Рыс	-9.86907
▁калыс	-9.8694
▁чыгышкан	-9.86984
▁жоокер	-9.87218
▁айтса	-9.87243
▁кирет	-9.87253
сентябр	-9.87264
▁бүтүн	-9.87297
▁Трампты	-9.87297
чачын	-9.87327
▁коло	-9.87416
▁колдоосу	-9.87605
▁сындап	-9.87719
▁Окуя	-9.8777
▁Ле	-9.87802
фор	-9.87961
▁баарына	-9.87979
▁эсебинде	-9.88
▁сынак	-9.88037
▁район	-9.88111
▁Текебаев	-9.88202
▁клиника	-9.88202
▁октябрь	-9.88203
▁натыйжа	-9.8828
▁жумган	-9.88437
▁банктар	-9.88448
▁Министрлик	-9.88456
▁журналистти	-9.88527
▁айланып	-9.8854
▁саналган	-9.8864
▁Көк	-9.88714
▁чыгара	-9.88736
▁сайтында	-9.88791
▁акыйкат	-9.88855
▁ырастады	-9.88855
▁түндүк	-9.889
▁импорт	-9.89074
▁машыгуу	-9.89074
▁Акмат	-9.89087
феврал	-9.89176
▁улантуу	-9.8918
▁Гр	-9.8927
▁күмөн	-9.89304
▁өндүрүү	-9.89383
▁мүнөздө	-9.8941
▁Чыңгы	-9.89513
▁Но	-9.89619
▁технология	-9.89646
▁жактоочу	-9.89733
▁анткен	-9.89735
▁75	-9.8986
▁билдир	-9.89929
▁өлтүрүү	-9.90056
▁жиберген	-9.90146
▁протокол	-9.90175
▁кылууда	-9.90294
f	-9.90397
▁Октябрь	-9.90397
▁райондо	-9.90471
+	-9.90494
▁изилде	-9.90619
▁Го	-9.90686
▁отурат	-9.90707
▁Кремл	-9.90725
▁кошуна	-9.90847
▁койсо	-9.90894
жылдар	-9.90975
▁күрөшү	-9.91015
▁каналы	-9.91042
▁эскерткен	-9.91065
▁Жеңиш	-9.91065
еминде	-9.91098
▁той	-9.91101
▁беришти	-9.91235
бул	-9.91242
▁айланган	-9.91252
▁37	-9.91283
▁өзгөрүүлөр	-9.91286
▁турду	-9.91296
▁бүткөн	-9.9133
▁кошкон	-9.91342
▁сүйлөшүүлөрдү	-9.9136
▁нерселер	-9.91374
▁терге	-9.91399
бес	-9.91402
▁окутуу	-9.91429
Райымбек	-9.91513
▁жайкы	-9.91518
▁жумду	-9.91545
▁беришкен	-9.9155
▁чечимди	-9.91569
оф	-9.9171
▁божомол	-9.91738
▁тартты	-9.91765
▁алынганын	-9.91785
▁ташып	-9.91812
▁унут	-9.91946
▁камера	-9.91968
▁санитардык	-9.92004
▁деңгээл	-9.9203
▁мекенине	-9.92065
▁тегерегинде	-9.92189
▁Согуш	-9.92192
▁жашыруун	-9.92213
макчы	-9.92361
▁сүрөттөр	-9.92504
▁каттоодо	-9.92665
▁коомдо	-9.92734
▁айды	-9.92765
▁карта	-9.9287
▁режими	-9.92974
▁мээ	-9.93009
▁Өлкө	-9.93094
▁кетишкен	-9.93097
▁ташта	-9.93226
▁колдонгон	-9.93297
▁токтоп	-9.93315
▁лицензия	-9.93325
▁конституция	-9.93325
▁Карабак	-9.93328
▁үйүндө	-9.93329
▁татаал	-9.93333
▁бызды	-9.93388
▁тест	-9.93474
▁өстү	-9.93562
ra	-9.93612
▁Эмил	-9.9363
▁окуучу	-9.93777
▁Азиз	-9.9381
▁сапаты	-9.93997
▁Ошо	-9.94016
▁маалыматында	-9.94079
▁норма	-9.94122
енко	-9.94181
Фейсбук	-9.94213
▁апрель	-9.94245
▁44	-9.94246
▁жолугуп	-9.94249
▁угуп	-9.94252
▁окуяларды	-9.94257
▁кампа	-9.94283
▁банкы	-9.94338
▁апа	-9.94346
▁сураган	-9.94411
бирине	-9.94422
июл	-9.94438
догон	-9.94445
▁жетекчи	-9.94446
▁нарк	-9.94472
▁келбеген	-9.94508
▁чындык	-9.9454
▁департаменти	-9.94577
▁Шер	-9.94583
▁ашып	-9.94618
▁38	-9.94683
Коррупция	-9.94706
▁Анкара	-9.94707
▁Жакында	-9.94786
▁коому	-9.9483
▁пенсия	-9.94938
▁ислам	-9.94938
▁бирикме	-9.94941
▁1,5	-9.94946
▁Жалпы	-9.94965
▁уланууда	-9.95001
▁куту	-9.95011
▁күчтөрдү	-9.95059
▁келгендер	-9.95084
▁сыноо	-9.95107
▁жоюу	-9.95171
▁көбөйүп	-9.95171
▁айтылууда	-9.95171
▁маалымдоо	-9.95229
▁документтерди	-9.95237
▁кагылыш	-9.95252
▁коопсуздугу	-9.95314
▁жетишсиз	-9.95404
▁Голд	-9.95412
▁бюджетти	-9.95464
Бул	-9.95486
▁Не	-9.95624
▁таратып	-9.95639
Мен	-9.9564
▁сүйү	-9.95653
▁тургун	-9.95747
▁Өкмөттү	-9.95825
▁басымдуу	-9.95831
▁албайбыз	-9.95836
▁регион	-9.95875
▁облустарында	-9.95936
▁жетекчилер	-9.96084
▁маал	-9.96288
▁дрон	-9.96307
▁пункт	-9.96342
▁куткаруу	-9.9635
▁бөлүнгөн	-9.96373
▁өтүшү	-9.96406
:00	-9.96462
Ве	-9.96477
Сай	-9.96482
▁кое	-9.96495
▁иштерине	-9.96546
▁баштайт	-9.96546
▁ташуучу	-9.96565
▁кармаган	-9.96577
▁Тегеран	-9.96578
▁макамы	-9.9658
▁ниети	-9.96582
▁Айтматов	-9.96597
▁кени	-9.9668
өлү	-9.96722
▁армия	-9.96762
▁мигрант	-9.96768
▁валюта	-9.96814
▁тапшырган	-9.96833
▁бейтаптар	-9.96871
▁температурасы	-9.96884
▁Жоо	-9.96904
июн	-9.96943
▁Ирак	-9.96959
▁телеканал	-9.96977
▁алмашуу	-9.97051
ошого	-9.97107
▁талкала	-9.97221
▁жүргүзүл	-9.97277
▁Исаков	-9.97289
▁бирдей	-9.97361
▁коопсуз	-9.9748
▁сыртка	-9.97499
каналар	-9.97501
▁жөнөкөй	-9.97527
өкмөт	-9.97537
▁куруп	-9.9757
▁токтотуп	-9.97645
▁жүр	-9.97648
▁(+	-9.9766
▁кеңсеси	-9.97747
▁көрсөттү	-9.97766
▁беткап	-9.97772
▁Жаранды	-9.97791
▁төмөнкү	-9.97838
умду	-9.97873
▁каттамдар	-9.97905
▁Парламент	-9.97914
▁өлүмүнө	-9.9793
▁соңунда	-9.9798
▁саламаттыгы	-9.98004
Медиа	-9.98098
▁прокуратурасы	-9.98134
▁Беларуста	-9.98138
▁эркектер	-9.9825
▁шарттар	-9.9838
▁Жыйын	-9.98489
мей	-9.98563
▁сындаган	-9.9867
исттик	-9.98675
▁мектепте	-9.98678
U	-9.98726
▁Федер	-9.98726
▁Барды	-9.98757
▁сапат	-9.98759
▁Бакиев	-9.98827
лог	-9.98845
▁килограмм	-9.98967
▁сүйлө	-9.98973
▁мекемени	-9.99103
▁эркек	-9.99207
▁талдоочу	-9.99215
▁өкүл	-9.99284
▁жатса	-9.99378
▁позициясы	-9.99398
▁текшер	-9.99418
▁ташуу	-9.99434
▁делегация	-9.99455
▁Марат	-9.9947
▁Бол	-9.99484
▁каржылоо	-9.99585
пас	-9.99587
▁суткада	-9.9959
▁беребиз	-9.99626
▁провинция	-9.99695
▁жубайы	-9.99704
▁түрмөдө	-9.99707
▁күнөөсү	-9.99708
▁кызматтары	-9.99722
▁ооруканалар	-9.99732
▁силер	-9.99753
башы	-9.99911
▁Аман	-9.99926
▁база	-9.99932
▁жарадар	-9.99992
▁студент	-10.0001
▁мамлекетте	-10.0007
▁Темиров	-10.0012
▁форум	-10.0019
▁борборунда	-10.0025
▁тилке	-10.0032
▁схема	-10.0043
▁токтолду	-10.0043
назар	-10.0053
▁түшүндүрмө	-10.0058
▁көркөм	-10.0068
▁тактоо	-10.0071
▁айыпталган	-10.0077
▁эвакуация	-10.0092
ография	-10.0101
▁полициясы	-10.0106
▁700	-10.0108
▁которуу	-10.0111
▁Маданият	-10.0117
▁январь	-10.0117
▁түзүлүп	-10.0119
▁кадыр	-10.0122
▁жөө	-10.0131
▁Матраимовду	-10.0132
▁буларды	-10.0135
жылкы	-10.0137
▁объект	-10.014
▁жылдыгын	-10.0141
▁Париж	-10.0142
▁Базар	-10.0142
▁Сауд	-10.0142
▁жылдарда	-10.0143
▁кичине	-10.0151
▁кытай	-10.0152
▁Жээнбековду	-10.0159
▁Ленин	-10.0164
▁профессор	-10.0166
▁үзгүлтүк	-10.0166
▁55	-10.0167
▁банктын	-10.0168
▁сүйлөгөн	-10.0169
▁таба	-10.0194
▁камсызда	-10.0198
▁кызматкерлерди	-10.02
▁салууну	-10.0207
▁Нурлан	-10.0211
спикер	-10.0216
▁Жазык	-10.0216
▁радикал	-10.0216
▁жардыруу	-10.0216
▁сайты	-10.0225
▁жүрдү	-10.0226
▁жактыр	-10.0227
▁тизмесине	-10.024
▁айыптаган	-10.025
Султан	-10.0253
▁жазасын	-10.0253
▁министрлер	-10.026
▁кадимки	-10.0266
▁ижара	-10.0266
▁тийген	-10.0266
султан	-10.0268
▁сүйлөшкөн	-10.0269
▁Молдо	-10.0288
▁инсан	-10.0294
▁бекети	-10.0294
▁артында	-10.0299
▁айланды	-10.03
▁документтери	-10.0304
▁мэриясы	-10.0318
▁көтөргөн	-10.0321
▁согушу	-10.0324
▁Бер	-10.0339
▁48	-10.0342
▁юридика	-10.0342
▁тарапташтары	-10.0342
▁ролу	-10.0342
▁мүнөт	-10.0343
▁аэропорт	-10.0346
▁тушунда	-10.0349
▁Дастан	-10.0354
Е	-10.0355
▁милициясы	-10.0359
Й	-10.0367
▁дыйкан	-10.0367
▁өткөнү	-10.037
▁мамилелер	-10.0374
▁уруш	-10.0376
▁өңдүү	-10.0392
▁таян	-10.0393
▁күнүнө	-10.0397
▁китептер	-10.0407
▁катышуусу	-10.0412
▁илимдер	-10.0412
▁келишимдер	-10.0414
ZKo	-10.0418
Вагнер	-10.0418
▁Көлбаев	-10.0418
▁көтөрүлүп	-10.0419
▁түшүндүрүү	-10.0419
▁кабарчысы	-10.0422
▁көрүш	-10.0426
▁мааниси	-10.0443
▁Кул	-10.0443
▁ишмердүүлүгү	-10.0443
▁мерт	-10.0445
▁айдоочулар	-10.0446
▁Өмүр	-10.0454
терс	-10.0463
▁кытайлык	-10.0467
▁Документ	-10.0469
▁алмаштыруу	-10.0481
▁кармаш	-10.0482
▁бөлүн	-10.049
▁Өлкөдө	-10.0492
▁өзгөрүү	-10.0494
▁балл	-10.0499
▁дарылоо	-10.0502
▁Асанов	-10.0506
▁ийгилик	-10.0515
▁масса	-10.0517
▁балбан	-10.052
▁түшүндүрдү	-10.052
▁аралыгында	-10.052
▁салмакта	-10.0521
▁колунда	-10.0524
▁коюлду	-10.0537
▁тарыхында	-10.0539
▁Жалпысы	-10.0543
▁бурул	-10.0545
▁Компани	-10.0546
▁агресс	-10.0546
▁Асан	-10.0548
ред	-10.0569
▁Руслан	-10.0572
▁учкуч	-10.0572
▁бомба	-10.0572
▁мектепти	-10.0588
▁чогулуп	-10.0598
▁биримдиги	-10.0598
▁жарлык	-10.0599
v	-10.0624
▁буюм	-10.0625
▁Токтогул	-10.0626
▁жеңилдет	-10.0626
▁даярдоо	-10.0634
▁академиясы	-10.064
▁Беларусту	-10.0646
▁кылышкан	-10.065
▁мойнун	-10.065
ибизди	-10.0654
▁акциялар	-10.0654
▁базасы	-10.0655
▁эгемендик	-10.0658
▁окшош	-10.0667
▁аткарып	-10.0672
▁көбөйдү	-10.0676
▁чечимине	-10.0684
▁дешет	-10.0712
▁талапкерлер	-10.0714
▁иштебей	-10.0714
▁депутаттарды	-10.0723
▁бошотулган	-10.0726
▁жакшыртуу	-10.0729
▁жарылуу	-10.0729
▁көтөрүлгөн	-10.0732
даштыруу	-10.0735
▁айтпа	-10.0743
▁келечеги	-10.0755
▁жашоосу	-10.0759
▁колдой	-10.0763
▁берки	-10.0767
▁кошуп	-10.0772
▁аткаминерлер	-10.0777
ЖККУ	-10.0781
▁үйлөрдү	-10.0781
▁көчүрү	-10.0784
▁алынат	-10.0787
▁турабыз	-10.079
▁жолугушуусу	-10.0794
▁бөлүш	-10.0799
▁түздү	-10.0802
▁идея	-10.0808
▁абагына	-10.0809
▁кылышты	-10.0834
▁ээлеп	-10.0834
▁жашайт	-10.0834
▁Дания	-10.0836
▁жайлары	-10.0845
▁доору	-10.0851
▁тармакта	-10.0859
Твиттер	-10.0861
▁өскөн	-10.0861
▁күчөтүү	-10.0862
▁азайтуу	-10.0888
▁Астана	-10.0888
▁Андыктан	-10.0889
▁жасады	-10.0898
Бүтүн	-10.0914
▁жатпайбы	-10.0914
▁Талант	-10.0915
▁текшерип	-10.0921
▁аскерлерди	-10.093
▁өткөндө	-10.0937
▁Бейшеналиев	-10.0941
▁кыял	-10.0941
▁Каракол	-10.0941
▁Сузак	-10.0945
▁Орто	-10.095
▁жайылышы	-10.0952
▁багытында	-10.0963
▁уланта	-10.0965
▁жообу	-10.0971
▁уюштурул	-10.0973
Кызмат	-10.0987
▁кагылышуу	-10.0988
▁сайтына	-10.0996
▁жүгүртүү	-10.1022
▁кошулган	-10.1022
▁товарларды	-10.1027
▁палатасы	-10.1032
▁Кудай	-10.1047
▁албетте	-10.1049
▁кеңешти	-10.1054
▁көбөйт	-10.1059
▁кирди	-10.106
▁шарттары	-10.1061
▁Навальный	-10.1064
▁көздөгөн	-10.1064
▁уюш	-10.1074
▁байыр	-10.1075
▁ойдо	-10.1088
▁анти	-10.1098
▁партияларды	-10.1101
▁Телеграм	-10.1103
▁белгилейт	-10.1103
▁бербе	-10.1124
▁нерсени	-10.1125
▁Рахмон	-10.1131
▁пайдаланып	-10.1141
▁жаратып	-10.1142
▁сутка	-10.1144
▁берерин	-10.1152
▁казакстандык	-10.1158
▁тобокел	-10.1158
ыккан	-10.1166
▁комиссияны	-10.1183
▁лаборатория	-10.1185
▁жоюл	-10.1186
▁жайларды	-10.119
▁натыйжалуу	-10.1194
▁вариант	-10.1213
▁билдиришкен	-10.1213
▁көпүрө	-10.1213
▁түзүлүш	-10.1213
▁айыптады	-10.1213
экономикалык	-10.1215
август	-10.1234
▁аэропорту	-10.1236
щ	-10.1241
▁Кайра	-10.1242
▁утуп	-10.1242
▁уккан	-10.1243
▁окшо	-10.1249
▁быйылкы	-10.1261
▁каражатты	-10.1265
▁жыйынтыкта	-10.1273
▁санкцияларды	-10.1287
▁65	-10.1288
▁ресурс	-10.1289
▁генерал	-10.1296
▁көмөк	-10.1296
▁жоокерлер	-10.1317
опол	-10.1322
▁климатты	-10.1324
▁шаарларында	-10.1324
▁бекемдөө	-10.1324
жөнү	-10.1326
▁Никол	-10.1329
▁Сапар	-10.1344
▁турушту	-10.1358
▁Сирияда	-10.1369
▁Дмитри	-10.138
▁Кир	-10.1395
▁алмаштыр	-10.1396
экстремисттик	-10.1408
▁куттук	-10.1408
▁саткан	-10.141
▁Лейлек	-10.1436
▁Шинжаң	-10.1436
▁Максат	-10.1436
▁жыйна	-10.1436
▁барымта	-10.1437
▁клуб	-10.1437
ыбызды	-10.1441
▁Калган	-10.1442
▁атышуу	-10.1453
▁көбөйтүү	-10.1454
▁бузуп	-10.1457
▁39	-10.1458
▁Балким	-10.1464
▁федерация	-10.1464
▁Менимче	-10.1464
▁көчүп	-10.1465
▁катышуучулары	-10.1465
▁оорулар	-10.1465
Ислам	-10.1471
▁өкмөттө	-10.1485
▁Эч	-10.1491
▁реакция	-10.1493
▁аткыла	-10.1498
▁өзгөртүүлөр	-10.1502
▁Навальныйды	-10.1505
▁окумуштуулар	-10.1511
ассалык	-10.1515
▁Араб	-10.1516
▁объектилер	-10.1523
▁Алгач	-10.1526
▁бөлүнүп	-10.1526
▁губернатор	-10.155
▁Эмгек	-10.155
▁Азамат	-10.155
▁чоо	-10.155
▁42	-10.1552
▁өч	-10.1556
▁эже	-10.1562
▁жеткирил	-10.1568
▁башталып	-10.1569
▁тактап	-10.1578
▁2012-	-10.1578
Курманбек	-10.158
▁кишилерди	-10.1591
▁башталат	-10.1593
▁калбай	-10.1595
▁келтирилген	-10.1607
▁күмүш	-10.1607
▁өзүбүз	-10.1609
диктен	-10.1623
▁Москваны	-10.1624
▁Азербайжанды	-10.1633
▁миссия	-10.1636
▁турушат	-10.1636
▁бел	-10.1639
▁таратты	-10.1644
▁имараттар	-10.1657
▁таанылган	-10.1657
▁оңдоо	-10.1661
▁Акыйкатчы	-10.1664
▁Лондон	-10.1665
▁жылуулук	-10.1665
▁видеолор	-10.1665
▁узун	-10.1665
▁кайрылуусунда	-10.1668
▁аткылоо	-10.1693
▁каккан	-10.1695
▁600	-10.1696
▁натыйжасын	-10.1703
▁кылабыз	-10.1704
▁инвесторлор	-10.1709
▁47	-10.1724
▁энергия	-10.1735
▁биримдик	-10.1752
▁астында	-10.1754
▁жөнөтүл	-10.1757
▁жетишкен	-10.1758
▁Парламентти	-10.1762
▁Британияны	-10.1767
▁мусулмандар	-10.1771
▁ооруну	-10.1775
▁принцип	-10.1781
▁фирма	-10.1781
▁аймактарды	-10.18
▁кичи	-10.18
▁тыйын	-10.1811
▁Канада	-10.1813
▁өткөрдү	-10.1817
▁жайында	-10.1826
▁мөөнөтүнө	-10.1842
▁экономиканы	-10.1847
▁өздөрүнү	-10.1847
▁тааныштыр	-10.1869
▁түзүмдөрү	-10.187
▁басылмалар	-10.1882
▁жикчил	-10.1898
▁китеби	-10.1898
▁жеңип	-10.1898
▁дарылануу	-10.1898
▁райондордо	-10.1899
▁топторду	-10.1907
З	-10.1913
▁43	-10.1915
▁жекшемби	-10.1928
▁автоном	-10.1928
▁белгиленди	-10.1928
▁ИИМди	-10.1941
▁товарлар	-10.1942
▁опера	-10.1954
онференция	-10.1957
▁репрессия	-10.1957
▁Жусуп	-10.1957
▁төлөмдөр	-10.1961
▁жеткирилген	-10.1969
▁тургундарды	-10.1973
▁корутунду	-10.1987
▁Өлкөнү	-10.1991
▁Коомду	-10.1997
▁качкындар	-10.1999
▁Кремлди	-10.2003
▁кезинде	-10.2005
▁талаптарын	-10.2011
▁Адвокат	-10.2017
▁Мамытов	-10.2017
▁уюштуруп	-10.2017
▁Замир	-10.2021
▁Азим	-10.2022
▁бузуулар	-10.2042
▁берилбей	-10.2047
kg	-10.2051
▁билип	-10.2053
▁Экинчиден	-10.2061
▁Чыны	-10.2073
▁ЖЭБ	-10.2077
▁тармакты	-10.2078
▁тажрыйбасы	-10.2082
▁орнотуу	-10.2099
▁Харьков	-10.2107
▁Таалай	-10.2107
▁талапкерлерди	-10.2111
▁туризм	-10.2117
▁шайлоочуларды	-10.2127
▁аралашкан	-10.2129
кыргызстандыктар	-10.2132
▁Африка	-10.2137
▁каарман	-10.2137
▁жабуу	-10.2137
▁токой	-10.2137
om	-10.2145
▁Сотту	-10.2147
▁41	-10.2156
▁келерин	-10.2158
▁Бажы	-10.2162
▁союз	-10.2167
▁Финансы	-10.2168
▁иштеши	-10.218
Элдик	-10.2183
▁баратат	-10.2191
▁ушуну	-10.2202
▁Евробиримдикти	-10.2204
▁Экс	-10.2205
дуулук	-10.2207
▁Германияны	-10.2207
▁киргизип	-10.2219
▁компанияны	-10.2227
▁Нью	-10.2228
▁айыпталуучу	-10.2228
▁жаратылыш	-10.2229
▁июль	-10.2259
▁керектөө	-10.226
▁жолуккан	-10.2261
▁артына	-10.227
▁кабарлаш	-10.2273
▁артыкчылык	-10.229
▁дайынсыз	-10.229
▁тосуп	-10.229
▁созул	-10.229
▁жуктуруп	-10.2291
▁чыкса	-10.2291
▁кечир	-10.2299
▁коюшкан	-10.2315
▁отчет	-10.232
▁евро	-10.2322
▁уюшкан	-10.2323
▁ресурстары	-10.2328
▁түзүм	-10.2339
▁кепилдик	-10.2351
▁Төрт	-10.2351
▁ташыган	-10.2353
▁көргөз	-10.238
▁Кубанычбек	-10.2382
▁мейманкана	-10.2382
▁округу	-10.2382
▁иликтеп	-10.2382
▁мобилизация	-10.2383
▁буруу	-10.2387
айкын	-10.2394
▁мүнөз	-10.2398
▁түздөн	-10.2409
▁Төрө	-10.2413
▁жөнөткөн	-10.2413
▁айтышууда	-10.2418
▁кылымда	-10.2425
▁сезил	-10.2442
▁Пандемия	-10.2444
▁Херсон	-10.2444
▁душман	-10.2445
▁козголуп	-10.2447
▁жаатта	-10.2448
▁Кандай	-10.245
▁канааттандыр	-10.2462
▁тейлөө	-10.2476
▁чегинде	-10.2488
▁БШКны	-10.2494
▁өнөктүгү	-10.2507
▁буйругу	-10.2538
▁өлчөмү	-10.2539
▁көбүнчө	-10.2539
▁күчөгөн	-10.2543
▁реалдуу	-10.2544
▁тамыр	-10.2548
▁Адистер	-10.257
▁көмөктөш	-10.257
▁украиналык	-10.2571
▁белгилери	-10.2577
▁негизсиз	-10.258
▁коюшту	-10.2585
▁Коом	-10.2592
▁Сыр	-10.2596
▁жаайт	-10.2602
▁умтул	-10.2604
▁кылынган	-10.2604
▁курамында	-10.2606
зомбулук	-10.2629
▁тилкесинде	-10.2629
▁кызыкчылыктар	-10.2633
▁мусулман	-10.2644
▁Бакиевди	-10.2652
▁тагылган	-10.2652
▁Конституцияны	-10.2656
▁өрөөнүндө	-10.2665
▁Мурат	-10.2666
▁сыйлыгы	-10.2672
▁жарлыгы	-10.2672
үрткү	-10.268
▁Равшан	-10.2697
▁баалуулуктар	-10.2697
▁түйүндөр	-10.2697
▁жүргүзүлгөн	-10.2707
▁өткөрмө	-10.271
▁эсептелет	-10.2737
li	-10.2737
сентябрь	-10.2737
▁тирүү	-10.2738
▁түшүндү	-10.2751
▁далилдер	-10.2751
▁жабылган	-10.2754
▁2005-	-10.2762
▁Минск	-10.2762
▁какты	-10.2765
▁курулган	-10.2769
▁оорусу	-10.277
▁кеңештер	-10.2772
▁мүлктү	-10.2783
▁Мухаммед	-10.2794
▁шилтеме	-10.2794
▁киргизилди	-10.2794
▁ачылды	-10.2794
▁түрлөрү	-10.2797
▁Молдова	-10.2798
▁технологиялар	-10.2806
бүлөлөр	-10.2817
▁тарабы	-10.2819
ѳ	-10.2826
▁камтылган	-10.2826
▁адатта	-10.2833
▁түшүндүрмөсү	-10.2838
▁Натыйжада	-10.2859
▁Сыдыков	-10.2859
▁британ	-10.2859
ийгиликтүү	-10.2865
▁Абаны	-10.2871
▁урмат	-10.2876
▁Абылгазиев	-10.2891
▁депортация	-10.2891
▁жетектеп	-10.2891
▁армян	-10.2891
ици	-10.2899
▁колдонулган	-10.2901
▁концерт	-10.2924
▁алынышы	-10.2924
▁учка	-10.2925
▁суроолорун	-10.2927
▁эсеби	-10.2954
▁эмгеги	-10.2957
▁төрайымы	-10.2989
▁төрөлгөн	-10.2991
▁кечээ	-10.2995
▁чыкпа	-10.3015
▁кесепеттер	-10.3022
▁сөөк	-10.3023
▁айыгып	-10.3023
▁тиреш	-10.3023
орточо	-10.3026
▁билдирет	-10.3031
▁кеңешме	-10.3032
Авто	-10.3032
Центерра	-10.3056
▁чечип	-10.3056
▁телефондо	-10.3067
▁радио	-10.3078
▁сакталып	-10.3081
▁позиция	-10.3091
▁жогол	-10.3116
▁инфраструктура	-10.3117
▁өзүбүздү	-10.312
▁тескерисинче	-10.3122
▁качкан	-10.3122
▁жоготуулар	-10.3124
террорчу	-10.3126
▁кечирим	-10.3127
▁бузулган	-10.3127
▁токтоткон	-10.3138
▁даярдап	-10.314
▁жапа	-10.3149
▁чыгармалары	-10.3151
▁Мектеп	-10.3156
▁көмүскө	-10.3156
▁редакция	-10.3156
▁кооптонуу	-10.3158
▁созулган	-10.316
▁жөнөтүлгөн	-10.3162
▁аткарган	-10.3189
▁келишти	-10.3189
▁кафе	-10.319
▁ырчы	-10.3209
▁ээлери	-10.3216
▁калтырган	-10.3219
▁Андре	-10.3223
▁февраль	-10.3223
▁таштанды	-10.3225
▁талант	-10.3229
▁кесипти	-10.3248
▁асман	-10.3249
▁көтөрүү	-10.3251
муниципалдык	-10.3257
▁айларында	-10.3257
▁районуна	-10.3265
▁Сөз	-10.3281
▁кеңешчиси	-10.3291
▁жарыш	-10.3291
▁сектор	-10.3293
▁дрондор	-10.3296
▁териштир	-10.3297
▁кетишти	-10.3324
▁капитал	-10.3325
▁жазылып	-10.334
▁чакырылган	-10.3348
▁күйүүчү	-10.3359
▁Долбоор	-10.3359
▁глобал	-10.3359
▁титирөө	-10.3359
▁жалаң	-10.3359
чарчы	-10.3361
▁Каримов	-10.3362
▁директор	-10.3366
өзбек	-10.3367
▁мекендештер	-10.3393
▁эфир	-10.3393
▁ушунча	-10.3394
▁Көз	-10.3419
▁уюштурулган	-10.3421
▁Тажик	-10.3425
▁түркмөн	-10.3428
▁чакты	-10.3429
▁өлтүрүлгөн	-10.3431
▁Юсти	-10.3432
граф	-10.3444
▁2013-	-10.3462
▁ЖМК	-10.3462
▁идеология	-10.3462
▁жаратты	-10.3467
▁эскерүү	-10.3471
▁иштели	-10.3496
▁Донецк	-10.3496
▁өткөрүлүп	-10.3499
▁шамал	-10.3502
Журт	-10.3502
▁кылмыштуулук	-10.3504
Тез	-10.3504
▁коюлуп	-10.3505
▁жатышы	-10.3507
▁изилдөөлөр	-10.3525
▁палестин	-10.3531
▁Блинкен	-10.3531
▁Венгрия	-10.3531
▁психология	-10.3531
▁Полиция	-10.3531
▁акими	-10.3535
▁качуу	-10.3536
▁болсун	-10.354
x	-10.3566
▁убактысы	-10.3566
▁Ооба	-10.3566
▁ысык	-10.3568
▁калаасы	-10.3598
аракеттер	-10.3599
▁балким	-10.3601
▁тургай	-10.3605
▁кенен	-10.3623
▁жетиши	-10.3625
▁аныктаган	-10.3636
▁калышты	-10.3671
▁түрүндө	-10.3672
▁түнкү	-10.3679
Кыя	-10.3688
▁милдеттенди	-10.3707
▁баракчасы	-10.3737
▁2011-	-10.3742
▁даража	-10.3743
▁учагы	-10.3743
▁мыйзамдарын	-10.3748
▁Анткен	-10.377
▁демонстранттар	-10.3778
▁көрүнүп	-10.3778
▁келечекте	-10.3782
▁жүргүзүлүп	-10.3786
▁Адаха	-10.3787
▁дайындалды	-10.3813
▁Жолдош	-10.3813
өзү	-10.3817
▁спортту	-10.3839
▁жыйырма	-10.3849
▁үстөмдү	-10.3849
▁камалды	-10.3849
▁дарыясы	-10.3857
шондуктан	-10.388
тартыш	-10.3883
▁Ноокат	-10.3885
▁Мирлан	-10.3885
▁баскыч	-10.3886
▁күнөөлө	-10.3896
▁ортомчу	-10.3898
▁жобо	-10.3898
▁күйөө	-10.3909
демократтар	-10.3919
▁текшерил	-10.3919
▁өпкө	-10.3922
▁аныктап	-10.3922
▁которулган	-10.3924
▁заттар	-10.3931
▁жумушчулар	-10.394
▁олимпиада	-10.3957
▁кайтыш	-10.3973
▁баңгизат	-10.3994
▁дешти	-10.4031
▁маяна	-10.4031
▁кулак	-10.4042
▁Асыл	-10.4045
▁өчүрүү	-10.406
▁ээлеген	-10.4067
▁туристтер	-10.4073
▁ыйгары	-10.4088
үйүнүн	-10.4091
▁Конгресс	-10.4104
▁стандарт	-10.4104
▁таратуу	-10.4106
▁грант	-10.4106
▁кармалышы	-10.4111
▁жетекчилик	-10.4112
▁Шавкат	-10.4141
▁1990-	-10.4141
▁кенемте	-10.4141
▁диалог	-10.4141
▁түшүнүп	-10.4141
▁жогорулатуу	-10.4141
▁козу	-10.4141
▁бекеттер	-10.4141
▁салынат	-10.4141
▁тилкелери	-10.4156
▁Пригожин	-10.4178
▁аннексия	-10.4178
▁карамагын	-10.4178
▁илгер	-10.418
▁чабуулуна	-10.4184
▁журт	-10.4204
▁мушташ	-10.4215
▁салынды	-10.4215
▁Арменияны	-10.4222
▁өтүнүч	-10.4236
▁Свердл	-10.4252
▁коалиция	-10.4252
▁кесилген	-10.4252
▁немис	-10.4252
ov	-10.4252
▁Төлө	-10.429
▁көрүнүштөр	-10.4301
▁революция	-10.4327
▁ыңгайлуу	-10.4327
▁күтүлүүдө	-10.4327
▁үмүттө	-10.4344
▁азайып	-10.4365
▁2,5	-10.4366
▁кызыкдар	-10.4366
▁каптаган	-10.437
▁улантып	-10.4372
▁Саймаити	-10.4403
▁жемкорлук	-10.4403
▁милдеттенме	-10.4403
▁платформа	-10.4403
▁үлүшү	-10.4403
▁Пашинян	-10.4441
▁пневмония	-10.4441
▁Кечээ	-10.4441
▁Михаи	-10.4444
дашуу	-10.4445
▁чогултуп	-10.4453
▁Токио	-10.4479
▁коридор	-10.4479
▁Запорожье	-10.4517
▁КМШ	-10.4517
▁согушкерлер	-10.4518
▁бөлө	-10.4534
▁Ло	-10.4536
▁ачыла	-10.4537
▁Инанды	-10.4556
Кабар	-10.4594
▁мектеби	-10.4594
▁рыногу	-10.4594
▁бербөө	-10.4594
▁маңзат	-10.4594
▁архив	-10.4595
▁көтөрүлдү	-10.4597
▁иниси	-10.4597
▁курулуп	-10.4605
▁тендер	-10.4612
▁үлгүсүн	-10.462
▁орнотул	-10.4623
▁Жээн	-10.463
▁фестивал	-10.4633
▁жарыялоо	-10.4633
▁көтөрүлүш	-10.4633
▁көргөзмө	-10.4637
▁ашыгы	-10.4638
жемиш	-10.465
ткыч	-10.4655
▁жакты	-10.4664
▁өнүм	-10.4666
▁коомчулугу	-10.4672
▁жергесинде	-10.4674
▁экспортто	-10.4689
▁Энергетика	-10.4711
▁жүрүм	-10.4711
▁азайган	-10.4712
▁Өзгөн	-10.4714
▁сайттар	-10.4715
▁жолукту	-10.4724
▁үстүндө	-10.4735
▁чыңалуу	-10.475
▁Бекешев	-10.475
▁отуз	-10.4751
ӨКМ	-10.4751
▁ченем	-10.4751
▁зона	-10.4753
▁талкаланган	-10.4754
▁казуу	-10.4754
▁ыйла	-10.4772
▁криминал	-10.479
▁Тарых	-10.479
▁Ливан	-10.479
▁белгилегендей	-10.4794
▁сурамжылоо	-10.4829
▁декларация	-10.4829
▁курмандыктары	-10.4829
▁болбош	-10.4829
▁буудай	-10.483
▁болушкан	-10.4832
▁таанымал	-10.4835
Y	-10.4869
▁Боронов	-10.4869
▁механизм	-10.4869
▁өнүгүшү	-10.4869
Йорк	-10.4869
▁дарегин	-10.4876
▁оппозициячы	-10.4891
▁округда	-10.4909
▁шылтоо	-10.4909
▁эшик	-10.4909
▁зор	-10.4918
▁которгон	-10.4928
▁жеңүүчү	-10.4949
▁Жаныбек	-10.4957
▁Сулайманов	-10.4989
▁негиздөөчүсү	-10.4989
▁токтотулган	-10.4993
▁эпидемиолог	-10.5003
▁Болгон	-10.5004
▁Мамбет	-10.5013
▁мамилени	-10.5029
Петербург	-10.507
▁Партия	-10.507
▁Үсөн	-10.507
▁2009-	-10.507
▁кемчиликтер	-10.507
▁жугуш	-10.507
▁камалып	-10.507
▁диплом	-10.5076
▁арбын	-10.5077
Биримдик	-10.5079
өчмөндөр	-10.511
класс	-10.5111
▁ылдамды	-10.5151
▁Макрон	-10.5151
▁Үчүнчү	-10.5151
▁ачкачылык	-10.5151
▁эместигин	-10.5151
▁күйүп	-10.5151
▁түштүгүндө	-10.5151
▁ураан	-10.5152
град	-10.5153
▁өзгөрүшү	-10.516
▁тандал	-10.5167
▁беларус	-10.5192
▁Дарыгерлер	-10.5192
▁резолюция	-10.5192
▁санарип	-10.5192
каршы	-10.5195
▁козгогон	-10.5201
▁Сенат	-10.5217
▁тополоң	-10.5233
▁өлчөмдө	-10.5233
▁Бабанов	-10.5233
▁эскертип	-10.5233
ентсе	-10.5234
▁Зулушев	-10.5275
▁жигердүү	-10.5275
▁коркутуп	-10.5275
▁намаз	-10.5275
Коргон	-10.5276
▁нааразылыгын	-10.5277
▁Куралд	-10.5279
▁англис	-10.5316
▁Иликтөө	-10.5316
▁ажыратылган	-10.5316
▁ачылып	-10.5316
▁академия	-10.5331
▁ырастаган	-10.5358
▁Вирус	-10.5358
▁сарпта	-10.5358
▁чамасы	-10.5378
▁Донбасс	-10.54
▁Испания	-10.54
▁жетишпей	-10.54
▁кыдырып	-10.54
▁моралдык	-10.54
▁ноябрь	-10.54
▁өзбекстандык	-10.5442
▁күткөн	-10.5442
▁фронт	-10.5442
▁коркутуу	-10.5442
▁тайпа	-10.5442
▁жарнама	-10.5442
▁бойлуу	-10.5442
▁интервью	-10.5484
▁тажикстандык	-10.5484
▁тартыштыгы	-10.5484
Электр	-10.5484
▁рейд	-10.5487
▁окумуштуу	-10.55
Эксперттер	-10.5504
▁анклав	-10.5526
▁чыңдоо	-10.5526
▁2008-	-10.5526
▁теске	-10.5528
газиев	-10.5531
▁жоголгон	-10.5535
▁Чехия	-10.5569
▁төңкөрүш	-10.5569
▁чечкен	-10.5569
▁рынок	-10.5569
▁блок	-10.5572
▁кооптон	-10.5608
▁рейтинг	-10.5611
▁Айсулуу	-10.5612
▁Кубатбек	-10.5612
▁тийбе	-10.5636
▁жөлөк	-10.5654
▁Сокулук	-10.5654
▁кастык	-10.5655
Ы	-10.5664
▁Жанар	-10.5669
▁Премьер	-10.5697
▁Австралия	-10.5697
ландия	-10.57
▁Махмуд	-10.5741
▁Бийик	-10.5741
▁салтанат	-10.5741
▁өлүп	-10.5743
БШК	-10.5751
▁Облус	-10.5784
▁Кочкор	-10.5784
▁Оппозиция	-10.5784
▁кесиптештери	-10.5784
▁ымыркай	-10.5784
▁Кийинчер	-10.5784
▁каалай	-10.5787
▁жүргүнчүлөр	-10.5811
жарты	-10.5819
▁интеграция	-10.5828
▁Жолугушуу	-10.5828
▁өнүккөн	-10.5828
▁совет	-10.5847
мбетов	-10.586
▁Комиссия	-10.5872
▁түндүгүндө	-10.5872
▁көчкү	-10.5872
▁кыйналып	-10.5872
▁эпидемия	-10.5916
▁Швеция	-10.5916
▁таймаш	-10.5916
▁жатышты	-10.5916
▁колония	-10.5922
▁Швейцария	-10.596
▁дүйшөмбү	-10.596
▁ипотека	-10.596
▁драма	-10.596
▁шектелип	-10.596
▁кызматташтыгы	-10.596
▁Активист	-10.596
▁мобил	-10.6004
▁символ	-10.6005
▁электигин	-10.6005
▁айлампа	-10.6005
▁тынчсыздануусу	-10.6005
▁Арабиясы	-10.6005
▁Мариупол	-10.6049
▁ТИМ	-10.6049
▁бүтүрүү	-10.6049
▁Токмок	-10.6094
▁өкүлчүлүгү	-10.6094
момали	-10.6094
▁ыргыт	-10.6115
▁палата	-10.6122
▁чиркөө	-10.6139
▁отургуз	-10.6139
▁санап	-10.6144
▁тиркеме	-10.6184
▁түшүндүргөн	-10.6184
▁Литва	-10.6184
▁кийинчер	-10.6185
▁эмдел	-10.6187
▁келечек	-10.6225
▁жабырлануучу	-10.623
▁өнүгүп	-10.623
▁киргизилип	-10.623
▁талкууланды	-10.623
▁Борис	-10.623
▁тумоо	-10.623
▁бычак	-10.623
▁баалады	-10.6276
▁көбөйө	-10.629
▁сессия	-10.6321
▁жарыяланып	-10.6323
▁угуу	-10.6324
▁Демократия	-10.6328
аракет	-10.6329
▁демонстрация	-10.6367
▁мунапыс	-10.6367
▁сарай	-10.637
▁жээгинде	-10.6396
▁Гонконг	-10.6414
▁Сербия	-10.6414
▁уйгур	-10.6414
▁ашкере	-10.6414
▁Исаев	-10.6415
▁Кореяны	-10.6433
▁узартыл	-10.644
▁Байсалов	-10.646
▁Транспорт	-10.646
▁кыянаттык	-10.646
▁машыктыруучу	-10.646
▁түшүндүрүп	-10.646
токмок	-10.646
▁чечти	-10.6461
▁тариф	-10.6463
▁чөйрөсүн	-10.6486
елерки	-10.6489
▁аткезчилик	-10.6507
▁реестрин	-10.6507
▁калышкан	-10.6507
▁Жумуш	-10.6508
▁Петр	-10.6513
▁Союзу	-10.6554
▁жүгү	-10.6554
[	-10.6601
▁козголоң	-10.6601
▁табият	-10.6601
табигый	-10.6601
▁Марипов	-10.6601
▁коркуп	-10.6602
▁бекитилген	-10.6648
▁фильм	-10.6648
▁ишемби	-10.6648
▁бергиле	-10.6648
▁Виктор	-10.6649
▁кардарлар	-10.6658
▁Медет	-10.6667
▁укту	-10.6682
▁The	-10.6696
▁камсыздандыруу	-10.6696
▁Бактыбек	-10.6696
▁тийип	-10.6696
▁калың	-10.6705
▁штатта	-10.6706
▁жүргүнчү	-10.6715
▁микро	-10.6744
▁Акжол	-10.6744
▁тигүү	-10.6745
▁жаңылыктар	-10.6749
Орусия	-10.6772
▁Токтакунов	-10.6792
▁артиллерия	-10.6792
▁офицер	-10.6792
▁саналуу	-10.6804
аштыруу	-10.6812
▁ошончо	-10.684
]	-10.684
▁Мырза	-10.684
▁космос	-10.6889
▁төртүнчү	-10.6889
▁жеткирип	-10.6889
▁Экөө	-10.689
▁Алымка	-10.689
▁альянс	-10.6891
▁жабдыктар	-10.6895
▁1991-	-10.6938
▁Нарматова	-10.6938
▁Январ	-10.6938
▁категория	-10.6938
▁тарапкерлери	-10.6938
▁Жыйынтыгы	-10.6938
▁берилиши	-10.6938
Ордо	-10.6947
Балта	-10.6983
▁небере	-10.6987
▁резерв	-10.6987
▁терроризм	-10.6987
▁продукция	-10.6987
▁босого	-10.6987
Клооп	-10.6989
▁фракция	-10.6998
Бишкек	-10.7019
▁басылма	-10.7028
▁компьютер	-10.7036
▁ресторан	-10.7036
▁чечкиндүү	-10.7036
▁Убакты	-10.7036
▁транзит	-10.7036
▁Берлин	-10.7048
▁бүтүм	-10.7049
▁конкрет	-10.7085
▁Евгени	-10.7085
▁Египет	-10.7085
▁чечмеле	-10.7135
▁соодагерлер	-10.7135
▁салынып	-10.7135
▁News	-10.7185
▁номур	-10.7185
▁2000-	-10.7186
▁түшүнүү	-10.7187
▁башчыны	-10.7202
атышууну	-10.722
▁мониторинг	-10.7235
▁кайдыгер	-10.7235
▁авария	-10.7235
▁Балыкчы	-10.7236
▁алмашкан	-10.7236
▁кыйылган	-10.7236
▁аныктай	-10.7237
туруму	-10.7239
▁жатабы	-10.7266
Улут	-10.7274
▁Песков	-10.7286
▁европалык	-10.7286
▁каалаба	-10.7299
H	-10.7326
чөйрө	-10.7326
▁Кылыч	-10.7337
▁баракчалар	-10.7337
▁турукташ	-10.7337
▁чечиш	-10.7338
▁экстремизм	-10.7388
▁маараке	-10.7388
▁талкуулады	-10.739
▁Бахмут	-10.7439
▁Жонсон	-10.7439
▁достору	-10.7439
▁ынтымак	-10.7439
▁падыша	-10.7439
Апрель	-10.7439
▁химия	-10.7439
Достук	-10.744
▁жаратат	-10.7441
▁жапон	-10.7458
▁Брюссел	-10.749
▁Ереван	-10.749
▁акционер	-10.749
▁өздөштүр	-10.749
▁Максим	-10.7491
▁Тайван	-10.7491
▁түшүнбөй	-10.7491
▁тосмо	-10.7491
▁эпос	-10.7491
▁брифинг	-10.7542
▁масштабдуу	-10.7542
депутат	-10.7587
▁Күндүз	-10.7594
J	-10.7594
▁Луганск	-10.7594
▁Динара	-10.7595
▁1992-	-10.7647
▁Гүлнара	-10.7647
▁союздаш	-10.7648
Камбар	-10.7655
▁Дүйшөн	-10.7699
▁Сооронкулова	-10.7699
▁режиссер	-10.7699
▁толтура	-10.77
▁Жакшы	-10.77
▁түшүндүрө	-10.7714
▁Лавров	-10.7752
▁абзел	-10.7752
биротоло	-10.7752
▁аңгеме	-10.7752
▁соолук	-10.7752
▁Курманкул	-10.7752
▁Бекназаров	-10.7805
▁Бөлтүрүк	-10.7805
▁Ибраев	-10.7805
▁Шектүү	-10.7806
▁Фото	-10.7806
▁эсептөө	-10.7806
▁ардагер	-10.7806
▁геосаяс	-10.7813
дүктөн	-10.7849
▁Боршайком	-10.7859
▁отставка	-10.7859
▁ирандык	-10.7859
▁манасчы	-10.7859
▁Адатта	-10.7859
▁декабрь	-10.7859
▁ээрчи	-10.7859
▁көрүстөн	-10.7913
▁өбөлгө	-10.7913
▁кызыгуу	-10.7913
▁Абакта	-10.7915
▁Кырсык	-10.7967
▁Көрсө	-10.7967
▁көбөйүшү	-10.7967
▁таппай	-10.7968
▁жыгыл	-10.7972
▁тагдыр	-10.7973
▁айтыла	-10.7987
▁Келишим	-10.8021
▁тыянак	-10.8021
▁шейшемби	-10.8021
▁Соода	-10.8022
▁Кадамжай	-10.8076
▁авиакомпания	-10.8076
▁белгиленет	-10.8076
▁жолугушкан	-10.8076
▁Мелис	-10.8076
▁кажет	-10.8082
сексуалд	-10.8111
▁тилектешти	-10.8131
▁командир	-10.8131
▁логистика	-10.8131
▁козголду	-10.8131
▁кеңсе	-10.8135
▁ушинт	-10.8153
▁коммуникация	-10.8186
▁Шакиев	-10.8186
▁опуза	-10.8242
▁ырастап	-10.8242
Дордой	-10.8242
Ынтымак	-10.8242
▁даярдалган	-10.8242
▁коммунист	-10.8242
▁транс	-10.8242
▁Times	-10.8297
▁обсервация	-10.8297
▁достук	-10.8297
▁күчөдү	-10.8298
▁компе	-10.8299
▁жабды	-10.8304
Хезболла	-10.8354
▁өнөктүк	-10.8354
▁чогулуш	-10.8354
▁өнөктөштүк	-10.8354
▁гидро	-10.8355
Инстаграм	-10.841
Z	-10.841
▁даңаза	-10.841
▁Жылдыз	-10.841
▁Курулуш	-10.841
акталбаган	-10.8421
ЕККУ	-10.8467
▁жаабайт	-10.8467
▁француз	-10.8467
▁Отунбаева	-10.8467
▁рекорд	-10.8467
▁аракеттенүү	-10.847
▁Аламүд	-10.8524
▁Финляндия	-10.8524
▁диаспора	-10.8524
▁иликтеген	-10.8524
▁кримтөбөл	-10.8524
▁Көпчүлүк	-10.8524
▁комендант	-10.8524
▁Кармалган	-10.8524
▁жөнөтүп	-10.8524
▁сыртына	-10.8526
▁өсүү	-10.8548
▁ратификация	-10.8581
▁стационар	-10.8581
▁эмгектенген	-10.8581
▁кийип	-10.8582
▁фейк	-10.8582
жоболор	-10.8609
▁кайрымдуулук	-10.8639
▁өсүмдүк	-10.8639
Ю	-10.9384
ъ	-10.9937
­	-11.143
Q	-11.2914
'	-11.4764
Ү	-11.4815
j	-11.6015
Я	-11.7005
Ё	-11.717
#	-11.9453
q	-12.1749
$	-12.2648
і	-12.417
&	-12.5027
қ	-12.7001
ı	-12.8156
ɵ	-12.9007
Ѳ	-12.9938
\	-12.9938
І	-13.152
_	-13.2108
Қ	-13.2108
@	-13.2733
ü	-13.4114
Ɵ	-13.4114
Ş	-13.4114
ş	-13.4114
−	-13.4114
ә	-13.6626
`	-13.7626
ғ	-13.8737
·	-13.9987
ا	-13.9987
=	-14.1415
ç	-14.1415
é	-14.1415
️	-14.1415
İ	-14.1415
¬	-14.3082
ұ	-14.3082
•	-14.3082
▪	-14.3082
ə	-14.3082
Ң	-14.5082
ğ	-14.5082
ö	-14.5082
©	-14.7582
́	-14.7582
ل	-14.7582
ҳ	-15.0915
á	-15.0915
ق	-15.0915
⁄	-15.0915
→	-15.0915
昆	-15.0915
Ь	-15.0915
Ü	-15.0916
ҷ	-15.5915
Ö	-15.5915
í	-15.5915
ï	-15.5915
љ	-15.5915
Ұ	-15.5915
―	-15.5915
⁣	-15.5915
●	-15.5915
堅	-15.5915
â	-15.5916
鬲	-16.5902
韓	-16.5903
鄄	-16.5904
ُ	-16.5905
و	-16.5906
ح	-16.5907
Ә	-16.5908
ӏ	-16.5909
Ç	-16.591
ʙ	-16.5911
⠀	-16.5912
Щ	-16.5913
*	-16.5914
خ	-16.5915
ą	-16.5915
ū	-16.5915
ӯ	-16.5915
ظ	-16.5915
ā	-16.5915
(	-16.5915
{	-16.5915
}	-16.5915
£	-16.5915
§	-16.5915
Ñ	-16.5915
ß	-16.5915
ã	-16.5915
ä	-16.5915
è	-16.5915
ñ	-16.5915
Ŋ	-16.5915
Š	-16.5915
ƚ	-16.5915
Ƣ	-16.5915
ƣ	-16.5915
ʼ	-16.5915
̧	-16.5915
Ђ	-16.5915
Ъ	-16.5915
ђ	-16.5915
ї	-16.5915
ћ	-16.5915
ў	-16.5915
һ	-16.5915
د	-16.5915
ر	-16.5915
ز	-16.5915
ص	-16.5915
ط	-16.5915
ع	-16.5915
غ	-16.5915
ك	-16.5915
م	-16.5915
ن	-16.5915
ه	-16.5915
ي	-16.5915
ِ	-16.5915
‒	-16.5915
⁠	-16.5915
回	-16.5915
族	-16.5915
