<unk>	0
<s>	0
</s>	0
▁а	-0
▁к	-1
▁т	-2
▁д	-3
▁б	-4
ан	-5
▁ж	-6
▁н	-7
ар	-8
▁ы	-9
▁и	-10
▁м	-11
▁с	-12
▁.	-13
▁о	-14
▁г	-15
▁у	-16
▁л	-17
ен	-18
ын	-19
▁,	-20
ер	-21
да	-22
▁ү	-23
ат	-24
▁р	-25
ин	-26
▁ар	-27
ал	-28
▁э	-29
▁ч	-30
▁ө	-31
▁ал	-32
▁-	-33
▁"	-34
уу	-35
▁е	-36
▁А	-37
▁п	-38
ыл	-39
ай	-40
▁ай	-41
ол	-42
ык	-43
▁К	-44
▁Б	-45
ир	-46
ек	-47
▁ке	-48
▁ын	-49
▁ган	-50
үн	-51
▁да	-52
ур	-53
ак	-54
ун	-55
гы	-56
ор	-57
▁де	-58
ыр	-59
▁ат	-60
он	-61
аш	-62
ле	-63
ик	-64
ам	-65
ул	-66
өр	-67
▁ш	-68
ия	-69
▁ан	-70
ил	-71
▁з	-72
▁мен	-73
ди	-74
▁ко	-75
ды	-76
өн	-77
▁тар	-78
▁иш	-79
▁ин	-80
кт	-81
▁ка	-82
▁га	-83
▁1	-84
▁2	-85
ана	-86
▁М	-87
▁менен	-88
лг	-89
ма	-90
▁та	-91
ып	-92
ыз	-93
ра	-94
ст	-95
ган	-96
▁жана	-97
▁дын	-98
▁бир	-99
▁бол	-100
▁ор	-101
га	-102
үү	-103
▁уу	-104
▁кан	-105
де	-106
▁лар	-107
▁нын	-108
ка	-109
▁кар	-110
▁Т	-111
▁С	-112
▁Ж	-113
ук	-114
ыш	-115
▁0	-116
▁О	-117
▁ия	-118
ок	-119
ет	-120
ли	-121
▁ун	-122
▁жат	-123
▁ер	-124
▁кө	-125
ча	-126
та	-127
▁бер	-128
из	-129
▁й	-130
▁тү	-131
ас	-132
▁баш	-133
▁ас	-134
ус	-135
▁туу	-136
▁ки	-137
▁ды	-138
▁ак	-139
▁кет	-140
ап	-141
▁ып	-142
▁ыл	-143
ген	-144
▁айт	-145
▁ма	-146
▁тур	-147
▁өт	-148
▁жыл	-149
те	-150
оо	-151
уш	-152
▁өл	-153
▁деп	-154
▁на	-155
▁үү	-156
▁нда	-157
▁ст	-158
▁чы	-159
▁те	-160
дө	-161
▁аб	-162
юн	-163
▁эк	-164
▁У	-165
▁дар	-166
ре	-167
▁кал	-168
мат	-169
▁гы	-170
▁ында	-171
▁ул	-172
йин	-173
ент	-174
▁лык	-175
▁аш	-176
▁үн	-177
▁сы	-178
ев	-179
▁че	-180
үр	-181
уп	-182
▁өз	-183
▁эм	-184
▁Ал	-185
стан	-186
▁тер	-187
▁лер	-188
▁ый	-189
▁дин	-190
▁кат	-191
▁үч	-192
ыргы	-193
▁жа	-194
▁эле	-195
▁со	-196
ке	-197
▁ти	-198
▁оюн	-199
▁бил	-200
▁дан	-201
өт	-202
▁сын	-203
▁зстан	-204
ес	-205
▁ол	-206
дам	-207
▁кы	-208
▁ов	-209
ты	-210
▁бе	-211
▁ге	-212
▁Э	-213
ги	-214
ары	-215
▁ф	-216
үл	-217
▁ур	-218
▁ара	-219
▁бар	-220
▁оюнча	-221
ог	-222
▁не	-223
▁олг	-224
▁ты	-225
▁в	-226
▁Кыргы	-227
▁ет	-228
▁ая	-229
ис	-230
▁маал	-231
▁аз	-232
то	-233
ку	-234
▁үр	-235
▁ына	-236
▁ба	-237
ов	-238
ут	-239
▁бай	-240
зи	-241
▁И	-242
▁кыз	-243
▁эл	-244
▁тр	-245
▁олгон	-246
▁ыш	-247
оп	-248
▁бул	-249
кер	-250
кө	-251
▁кер	-252
▁3	-253
▁ык	-254
ду	-255
им	-256
▁ыр	-257
▁ил	-258
▁кү	-259
▁үчүн	-260
до	-261
▁тин	-262
▁гөн	-263
▁тик	-264
▁ап	-265
▁луу	-266
▁он	-267
▁кай	-268
▁9	-269
▁билди	-270
▁үй	-271
▁өлкө	-272
▁ген	-273
го	-274
амле	-275
чу	-276
▁көр	-277
ым	-278
▁пре	-279
▁дент	-280
▁ымат	-281
▁бек	-282
▁өк	-283
▁иште	-284
▁кыл	-285
▁ла	-286
▁ди	-287
▁Д	-288
▁адам	-289
▁ав	-290
▁туура	-291
▁стан	-292
▁каб	-293
дан	-294
▁Ан	-295
ция	-296
▁тал	-297
▁дү	-298
▁лан	-299
▁П	-300
▁кор	-301
▁кол	-302
▁ий	-303
▁нин	-304
▁деген	-305
▁Бул	-306
гү	-307
инис	-308
▁5	-309
▁гө	-310
шы	-311
си	-312
▁ук	-313
▁сал	-314
▁Бир	-315
▁жол	-316
▁кен	-317
▁дө	-318
▁ком	-319
сы	-320
▁из	-321
▁ам	-322
▁алган	-323
▁ир	-324
▁агы	-325
▁жок	-326
ло	-327
ба	-328
▁алд	-329
▁мамле	-330
ара	-331
▁болуп	-332
ум	-333
▁Н	-334
▁уч	-335
▁4	-336
▁ми	-337
▁төр	-338
гө	-339
▁рус	-340
▁чыг	-341
▁русия	-342
▁прези	-343
▁анда	-344
▁уз	-345
▁ард	-346
▁нун	-347
▁тын	-348
ип	-349
▁күн	-350
▁кызма	-351
▁чейин	-352
▁минис	-353
▁өр	-354
▁дун	-355
еп	-356
▁:	-357
анд	-358
ге	-359
▁жак	-360
▁ша	-361
от	-362
▁Аз	-363
▁лөр	-364
▁эмес	-365
▁я	-366
кы	-367
▁уш	-368
▁керек	-369
еш	-370
дук	-371
ки	-372
зам	-373
▁ыйзам	-374
кан	-375
▁ен	-376
арт	-377
▁жаш	-378
иш	-379
▁алып	-380
▁кийин	-381
лик	-382
▁Ө	-383
гиз	-384
▁дагы	-385
▁тт	-386
бо	-387
▁оо	-388
ла	-389
▁атт	-390
▁Р	-391
өл	-392
▁ары	-393
▁7	-394
▁жаз	-395
▁жатат	-396
▁Ош	-397
лги	-398
үк	-399
▁ку	-400
▁башка	-401
▁ндө	-402
үп	-403
▁6	-404
▁ой	-405
▁ли	-406
▁8	-407
▁сө	-408
▁жер	-409
▁(	-410
▁белги	-411
▁ре	-412
▁сун	-413
▁үп	-414
▁)	-415
▁ыз	-416
▁си	-417
▁кара	-418
▁унда	-419
▁им	-420
▁нүн	-421
▁ң	-422
▁го	-423
▁үм	-424
▁жылы	-425
▁сү	-426
▁түш	-427
▁кел	-428
▁ич	-429
▁эс	-430
▁чык	-431
ми	-432
▁эки	-433
▁са	-434
▁өн	-435
▁учур	-436
▁кур	-437
▁акт	-438
▁се	-439
▁өтк	-440
▁ог	-441
ро	-442
▁көп	-443
▁рда	-444
▁алды	-445
▁нт	-446
чө	-447
▁Ч	-448
урда	-449
▁об	-450
▁Г	-451
▁ач	-452
гыз	-453
▁же	-454
▁ок	-455
▁шай	-456
ала	-457
▁ду	-458
▁тан	-459
▁ны	-460
кек	-461
раи	-462
▁дер	-463
▁инде	-464
асы	-465
▁катар	-466
▁нд	-467
ти	-468
лиг	-469
▁анын	-470
▁то	-471
ши	-472
▁ланыш	-473
лге	-474
ору	-475
▁көз	-476
▁оку	-477
▁рди	-478
▁ым	-479
▁ош	-480
чи	-481
▁ыргыз	-482
▁сот	-483
▁жүр	-484
▁ата	-485
▁?	-486
▁ра	-487
▁арак	-488
мак	-489
лык	-490
ект	-491
▁кели	-492
▁кам	-493
▁дол	-494
▁каршы	-495
▁ишкек	-496
▁келге	-497
▁түз	-498
▁үл	-499
▁чеч	-500
▁киши	-501
▁ей	-502
▁или	-503
мөт	-504
▁Бирок	-505
еле	-506
▁ээ	-507
▁Ш	-508
▁күч	-509
▁мил	-510
▁чыл	-511
ме	-512
▁аселе	-513
▁сөз	-514
ика	-515
▁миң	-516
аз	-517
▁шайло	-518
▁ден	-519
ңы	-520
▁андай	-521
▁жет	-522
▁өө	-523
▁кенин	-524
▁уп	-525
на	-526
▁кир	-527
ңеш	-528
▁сыз	-529
лус	-530
▁алуу	-531
▁арт	-532
үз	-533
▁Ук	-534
▁Украи	-535
▁ип	-536
▁ь	-537
▁жары	-538
▁жолу	-539
аны	-540
▁до	-541
▁облус	-542
уз	-543
▁жар	-544
▁ист	-545
▁үш	-546
▁пай	-547
өө	-548
▁от	-549
▁орб	-550
▁чыгар	-551
▁уул	-552
▁ну	-553
бек	-554
▁ую	-555
өш	-556
яб	-557
гу	-558
▁ийлик	-559
▁орбор	-560
▁дөн	-561
▁ынын	-562
▁өкмөт	-563
кен	-564
ко	-565
▁ме	-566
▁уна	-567
▁жөн	-568
▁мурда	-569
▁бас	-570
▁нде	-571
▁үмк	-572
▁чак	-573
▁ю	-574
▁үмкүн	-575
дин	-576
огор	-577
▁В	-578
▁колдо	-579
▁болду	-580
▁ни	-581
▁лүү	-582
▁кабыл	-583
▁жаңы	-584
▁түр	-585
▁уб	-586
▁тык	-587
▁ри	-588
чы	-589
▁иялык	-590
▁рай	-591
▁бо	-592
ыт	-593
иев	-594
▁аранд	-595
ый	-596
▁ел	-597
▁оп	-598
▁аскер	-599
ына	-600
онд	-601
тыр	-602
▁биз	-603
▁Е	-604
сө	-605
▁талап	-606
▁экен	-607
▁асы	-608
▁негиз	-609
апар	-610
▁ардын	-611
▁ызмат	-612
▁кабар	-613
уга	-614
би	-615
▁корго	-616
▁келе	-617
▁араке	-618
▁бери	-619
▁канын	-620
ем	-621
▁көрсө	-622
▁лери	-623
не	-624
▁ги	-625
▁чек	-626
дыр	-627
▁ылм	-628
уну	-629
▁айып	-630
▁алын	-631
за	-632
▁бири	-633
▁ис	-634
▁болот	-635
▁катыш	-636
▁ект	-637
чү	-638
▁ыкт	-639
▁гана	-640
▁пан	-641
▁окт	-642
▁чакыр	-643
▁инин	-644
▁эми	-645
йн	-646
▁азыр	-647
▁дей	-648
▁тарт	-649
▁сур	-650
▁Ф	-651
▁тагы	-652
сат	-653
▁чу	-654
▁шаары	-655
йнө	-656
▁дүн	-657
▁Каз	-658
со	-659
▁айтыл	-660
утт	-661
▁уюм	-662
▁үнд	-663
өм	-664
▁карма	-665
▁дик	-666
▁ле	-667
▁чыкка	-668
ци	-669
алы	-670
үг	-671
▁ооп	-672
аб	-673
▁жас	-674
▁райо	-675
аг	-676
▁жарыя	-677
▁кою	-678
ине	-679
бай	-680
▁х	-681
▁трлиг	-682
▁аймак	-683
▁ууда	-684
▁айтып	-685
▁дай	-686
дер	-687
▁икт	-688
▁Казак	-689
▁лор	-690
▁ция	-691
▁ыйын	-692
▁ент	-693
▁башта	-694
▁окуя	-695
▁ындай	-696
▁түү	-697
▁тарап	-698
▁ев	-699
▁про	-700
айы	-701
▁баев	-702
▁ит	-703
▁сак	-704
иру	-705
▁өткөр	-706
▁мат	-707
▁аны	-708
▁огуш	-709
▁деди	-710
▁өкүл	-711
▁Л	-712
▁оору	-713
▁айл	-714
▁Х	-715
ск	-716
жик	-717
▁парт	-718
▁ткер	-719
че	-720
өй	-721
▁рген	-722
▁болсо	-723
▁кый	-724
▁милли	-725
тар	-726
гон	-727
▁айыл	-728
▁сом	-729
▁ви	-730
▁ум	-731
▁бей	-732
▁орус	-733
▁шаар	-734
кто	-735
▁ек	-736
орт	-737
▁келиш	-738
▁көн	-739
▁пут	-740
▁кетке	-741
ыг	-742
ше	-743
кар	-744
▁алдык	-745
▁су	-746
▁чысы	-747
▁акча	-748
▁укт	-749
ры	-750
▁ынан	-751
▁ларды	-752
▁Жапар	-753
▁үйл	-754
▁йт	-755
маг	-756
▁кайра	-757
▁көб	-758
▁Жогор	-759
▁ик	-760
▁ине	-761
▁жылд	-762
▁жылды	-763
▁чечим	-764
▁нер	-765
▁чыгы	-766
▁долбо	-767
▁путат	-768
▁бөл	-769
▁авиру	-770
▁чо	-771
▁өрү	-772
▁аары	-773
▁ардык	-774
▁кооп	-775
▁кайры	-776
▁Анын	-777
▁лган	-778
екч	-779
▁ууга	-780
▁ардам	-781
унд	-782
▁унун	-783
▁етекч	-784
▁адамд	-785
▁гон	-786
үм	-787
▁май	-788
ри	-789
оно	-790
▁чет	-791
▁инчи	-792
▁мак	-793
▁пания	-794
ынд	-795
▁лары	-796
▁лоо	-797
▁пар	-798
▁топ	-799
лер	-800
▁лук	-801
пы	-802
▁арк	-803
▁дык	-804
рым	-805
▁дүйнө	-806
алпы	-807
▁сунуш	-808
үш	-809
▁Ев	-810
▁ошол	-811
▁ян	-812
▁абыз	-813
▁арды	-814
атт	-815
▁мент	-816
▁ышат	-817
▁но	-818
дар	-819
▁тары	-820
▁укук	-821
▁алдар	-822
▁аг	-823
▁коопс	-824
▁ылайы	-825
▁ага	-826
▁Азатт	-827
гил	-828
сий	-829
▁аясий	-830
▁Ке	-831
▁беков	-832
▁экс	-833
▁мика	-834
▁ут	-835
▁кт	-836
▁дем	-837
▁анык	-838
▁сына	-839
ян	-840
▁ту	-841
▁ад	-842
▁түн	-843
▁ндагы	-844
▁чара	-845
▁ом	-846
▁тарды	-847
асми	-848
ытай	-849
▁Кытай	-850
▁өткөн	-851
▁еке	-852
▁оң	-853
▁лист	-854
▁токто	-855
ив	-856
лган	-857
▁лүк	-858
▁орто	-859
▁арасы	-860
▁албай	-861
▁сынын	-862
▁уздук	-863
▁Кеңеш	-864
▁эч	-865
▁берил	-866
▁суу	-867
▁айтты	-868
▁сиз	-869
▁жакын	-870
▁жакшы	-871
гөр	-872
▁иктүү	-873
▁тыш	-874
▁ылмыш	-875
▁денти	-876
▁Өз	-877
▁элек	-878
▁ганда	-879
▁улам	-880
▁Ко	-881
▁парла	-882
▁тун	-883
анк	-884
▁дүү	-885
▁өзү	-886
▁авто	-887
▁три	-888
▁аң	-889
▁үргү	-890
▁жум	-891
▁өзгөр	-892
▁чил	-893
▁корон	-894
▁соң	-895
▁аныкт	-896
▁чыгып	-897
рд	-898
▁ушул	-899
▁үргүз	-900
▁акыр	-901
▁тап	-902
▁аты	-903
▁еб	-904
▁З	-905
▁дон	-906
▁ышы	-907
▁ерүү	-908
ети	-909
▁жөнү	-910
кин	-911
▁тыр	-912
▁бирок	-913
▁мү	-914
▁Биз	-915
▁чүл	-916
▁издин	-917
▁ала	-918
▁нө	-919
ери	-920
▁үрк	-921
▁ким	-922
▁нуу	-923
▁Ул	-924
▁чоң	-925
▁алар	-926
▁лады	-927
▁эконо	-928
▁дор	-929
▁гр	-930
▁оз	-931
▁араж	-932
▁оом	-933
▁дек	-934
▁келет	-935
▁өм	-936
дү	-937
▁нү	-938
▁үйлөш	-939
▁ез	-940
▁жалпы	-941
▁октяб	-942
▁айы	-943
▁быз	-944
▁Улутт	-945
үнө	-946
▁долл	-947
се	-948
▁Баш	-949
▁кеңеш	-950
▁жур	-951
▁АК	-952
▁аял	-953
▁ина	-954
▁кана	-955
▁Алар	-956
лген	-957
пи	-958
▁журна	-959
▁Ай	-960
▁илик	-961
▁АКШ	-962
▁күнү	-963
▁эсеп	-964
▁ашт	-965
▁тор	-966
ей	-967
▁чылык	-968
▁кез	-969
▁аркыл	-970
▁айрым	-971
▁дая	-972
тур	-973
▁Ошонд	-974
кү	-975
но	-976
▁тө	-977
▁каза	-978
сия	-979
▁Азыр	-980
▁олд	-981
▁ганын	-982
▁тил	-983
▁порт	-984
▁аж	-985
▁тит	-986
▁ындан	-987
тап	-988
скв	-989
00	-990
▁иши	-991
▁теги	-992
▁айыпт	-993
▁Са	-994
дик	-995
▁үүгө	-996
▁турат	-997
▁мл	-998
▁пайда	-999
▁калды	-1000
үгүн	-1001
▁ант	-1002
▁кыргы	-1003
▁өтөр	-1004
▁расми	-1005
▁дөр	-1006
▁Та	-1007
▁ча	-1008
▁нан	-1009
▁Өзбек	-1010
▁келип	-1011
▁по	-1012
▁таш	-1013
▁уучу	-1014
▁тен	-1015
▁рт	-1016
▁орун	-1017
▁нече	-1018
▁сай	-1019
▁оор	-1020
▁иси	-1021
▁алиев	-1022
▁Буга	-1023
▁мө	-1024
▁үнө	-1025
▁дук	-1026
▁кон	-1027
тү	-1028
▁эмне	-1029
▁эң	-1030
▁атал	-1031
▁рдаал	-1032
▁чул	-1033
▁арм	-1034
▁аймаг	-1035
▁бала	-1036
▁ыг	-1037
▁лаган	-1038
▁Мен	-1039
▁таб	-1040
▁үүдө	-1041
▁абал	-1042
▁ийлиг	-1043
▁Садыр	-1044
▁Евр	-1045
▁отур	-1046
▁иссия	-1047
▁рүү	-1048
▁шарт	-1049
▁ыгы	-1050
▁пик	-1051
▁деле	-1052
▁мүчө	-1053
▁екеме	-1054
▁өтө	-1055
▁ркин	-1056
акт	-1057
▁аткар	-1058
▁нган	-1059
▁берип	-1060
▁кылып	-1061
ыйыл	-1062
▁жерде	-1063
▁иштеп	-1064
▁аган	-1065
▁йын	-1066
▁тери	-1067
▁ергил	-1068
▁аштал	-1069
▁ро	-1070
▁уку	-1071
рел	-1072
▁бү	-1073
▁апрел	-1074
▁соци	-1075
▁март	-1076
▁тоо	-1077
▁саны	-1078
▁Тажик	-1079
▁еп	-1080
▁орган	-1081
бу	-1082
▁пикир	-1083
▁абуу	-1084
▁ыйынт	-1085
гөө	-1086
▁ергөө	-1087
▁илд	-1088
еби	-1089
▁аксат	-1090
▁ами	-1091
▁дыр	-1092
ит	-1093
▁буга	-1094
▁жи	-1095
▁үрөш	-1096
ани	-1097
▁очу	-1098
▁илдир	-1099
▁сат	-1100
▁сакто	-1101
▁кин	-1102
▁сыя	-1103
са	-1104
▁Ы	-1105
тор	-1106
▁ачык	-1107
вар	-1108
▁аясат	-1109
▁тол	-1110
гөн	-1111
▁кош	-1112
▁ада	-1113
▁көзөм	-1114
▁өөн	-1115
ушу	-1116
▁аттар	-1117
тер	-1118
▁ымд	-1119
▁ади	-1120
▁төраг	-1121
гра	-1122
▁рм	-1123
үгү	-1124
▁үз	-1125
ден	-1126
▁пр	-1127
▁дөгү	-1128
быз	-1129
▁ния	-1130
▁Пре	-1131
ээ	-1132
▁Ошол	-1133
▁шум	-1134
уун	-1135
▁бу	-1136
▁үркия	-1137
▁иликт	-1138
су	-1139
▁кул	-1140
▁жумуш	-1141
▁илиц	-1142
▁гү	-1143
▁так	-1144
▁меди	-1145
▁боло	-1146
▁Аба	-1147
▁тир	-1148
үрөт	-1149
▁лог	-1150
▁болчу	-1151
▁Прези	-1152
▁дары	-1153
МК	-1154
▁тук	-1155
▁өмүр	-1156
▁пер	-1157
▁рес	-1158
▁ектеп	-1159
сык	-1160
▁зы	-1161
▁ру	-1162
▁берди	-1163
▁арма	-1164
▁ишке	-1165
өлө	-1166
▁алы	-1167
▁бүл	-1168
▁тургу	-1169
▁Европ	-1170
▁му	-1171
пу	-1172
гин	-1173
▁Азия	-1174
▁ем	-1175
▁инен	-1176
▁сүн	-1177
▁шумча	-1178
▁жай	-1179
▁карат	-1180
▁жаб	-1181
▁пол	-1182
▁ады	-1183
▁мал	-1184
▁бүлө	-1185
▁беш	-1186
▁өс	-1187
▁оол	-1188
ңг	-1189
део	-1190
▁лгон	-1191
▁рат	-1192
▁арыз	-1193
ран	-1194
▁арын	-1195
▁Эл	-1196
▁төрт	-1197
лика	-1198
▁январ	-1199
гус	-1200
▁блика	-1201
жы	-1202
▁июн	-1203
▁аев	-1204
▁тааны	-1205
▁басма	-1206
▁ылган	-1207
▁аба	-1208
▁али	-1209
▁алыш	-1210
▁уктан	-1211
юл	-1212
▁Ак	-1213
▁авгус	-1214
▁грам	-1215
▁мун	-1216
▁төлө	-1217
▁айтым	-1218
▁Ма	-1219
▁ышты	-1220
▁лект	-1221
▁син	-1222
▁эр	-1223
▁сура	-1224
▁ц	-1225
ом	-1226
▁за	-1227
упц	-1228
▁рр	-1229
▁алт	-1230
▁жолуг	-1231
▁УК	-1232
▁ррупц	-1233
▁там	-1234
▁лу	-1235
▁гын	-1236
▁жаран	-1237
көн	-1238
буш	-1239
▁добуш	-1240
▁актив	-1241
▁нояб	-1242
▁УКМК	-1243
▁тек	-1244
▁акц	-1245
дай	-1246
▁эсепт	-1247
▁жылга	-1248
▁бак	-1249
рат	-1250
▁доо	-1251
▁суроо	-1252
▁майда	-1253
▁маани	-1254
▁лидер	-1255
лөр	-1256
▁аткен	-1257
▁теле	-1258
▁өкүлд	-1259
▁дуу	-1260
▁ири	-1261
▁сыр	-1262
▁док	-1263
▁көбү	-1264
▁пл	-1265
▁макул	-1266
огу	-1267
▁мек	-1268
▁озго	-1269
▁еле	-1270
▁жый	-1271
▁Кара	-1272
▁докум	-1273
▁айлан	-1274
▁Би	-1275
▁каны	-1276
▁түзүл	-1277
▁сында	-1278
▁олушу	-1279
▁коюл	-1280
▁ишен	-1281
▁наара	-1282
▁омдук	-1283
▁Анда	-1284
▁Мамле	-1285
▁салуу	-1286
▁толук	-1287
▁канча	-1288
▁жең	-1289
▁юш	-1290
▁бүт	-1291
ене	-1292
▁баган	-1293
▁чүлүк	-1294
▁декаб	-1295
▁юштур	-1296
▁Ант	-1297
▁амиле	-1298
▁соту	-1299
▁лектр	-1300
▁саат	-1301
▁сан	-1302
▁ах	-1303
▁акы	-1304
▁көбөй	-1305
▁бет	-1306
▁нанын	-1307
мь	-1308
▁Аб	-1309
▁өтүп	-1310
▁каз	-1311
▁кайта	-1312
▁кой	-1313
▁жетиш	-1314
шо	-1315
▁ерене	-1316
▁түл	-1317
▁банк	-1318
илд	-1319
▁лерди	-1320
▁ылтыр	-1321
▁зар	-1322
▁даярд	-1323
▁зүн	-1324
▁рам	-1325
▁асар	-1326
▁абуул	-1327
▁истем	-1328
▁Абад	-1329
юу	-1330
▁армак	-1331
▁талк	-1332
▁жарат	-1333
▁гөчө	-1334
▁өөнөт	-1335
▁карал	-1336
▁ишкан	-1337
▁ууну	-1338
▁бр	-1339
▁Пут	-1340
▁ыбыз	-1341
▁Путин	-1342
▁тынч	-1343
▁кыр	-1344
ел	-1345
▁лик	-1346
▁тий	-1347
▁олбо	-1348
▁видео	-1349
▁калык	-1350
▁Ү	-1351
еке	-1352
▁дейт	-1353
▁билим	-1354
▁ыра	-1355
▁өнд	-1356
▁ортос	-1357
▁атчы	-1358
▁бере	-1359
▁жаша	-1360
▁себ	-1361
▁улутт	-1362
по	-1363
▁тарых	-1364
▁жазыл	-1365
▁C	-1366
▁барып	-1367
▁иев	-1368
▁үүчү	-1369
дет	-1370
▁чог	-1371
гент	-1372
▁айг	-1373
▁ура	-1374
▁сент	-1375
еше	-1376
▁кинчи	-1377
▁камак	-1378
сү	-1379
▁июл	-1380
▁аттал	-1381
ий	-1382
▁үнкү	-1383
▁айым	-1384
▁сп	-1385
▁агент	-1386
▁экени	-1387
▁сентя	-1388
▁лды	-1389
▁алдуу	-1390
▁сыякт	-1391
▁айлар	-1392
▁карап	-1393
▁нерсе	-1394
▁себеп	-1395
▁тарда	-1396
▁жүрүп	-1397
▁артыл	-1398
▁илген	-1399
▁иргиз	-1400
▁бы	-1401
▁нен	-1402
тет	-1403
▁ация	-1404
▁кеч	-1405
▁ыкка	-1406
▁ндар	-1407
▁чү	-1408
▁окуу	-1409
▁чилик	-1410
▁ылмы	-1411
▁аттык	-1412
▁андан	-1413
▁Нур	-1414
оку	-1415
▁премь	-1416
це	-1417
▁күт	-1418
үнү	-1419
▁аас	-1420
▁Андан	-1421
▁үндүр	-1422
▁арган	-1423
▁көм	-1424
жа	-1425
▁ндук	-1426
▁тиги	-1427
▁укугу	-1428
▁йгон	-1429
▁ылдан	-1430
▁башкы	-1431
▁теген	-1432
▁чыкты	-1433
▁тажик	-1434
▁ушунд	-1435
▁нов	-1436
▁тов	-1437
▁па	-1438
▁өкүлү	-1439
▁мо	-1440
▁ман	-1441
▁нерг	-1442
▁ана	-1443
▁уулу	-1444
▁унаа	-1445
▁тарат	-1446
▁ого	-1447
▁тиеше	-1448
иц	-1449
▁зарыл	-1450
▁жүз	-1451
▁улан	-1452
▁ошонд	-1453
ари	-1454
▁Ага	-1455
▁ойло	-1456
▁ылыш	-1457
▁жаса	-1458
▁ашуун	-1459
▁илдет	-1460
▁түшүн	-1461
▁фор	-1462
▁шта	-1463
▁кий	-1464
▁үнүн	-1465
▁алык	-1466
▁аат	-1467
▁болбо	-1468
▁ең	-1469
▁соңку	-1470
▁эскер	-1471
па	-1472
екс	-1473
▁аасир	-1474
▁быйыл	-1475
▁тта	-1476
лар	-1477
▁Кон	-1478
▁тташ	-1479
▁млн	-1480
▁кайсы	-1481
▁ски	-1482
▁еш	-1483
▁урал	-1484
▁чылар	-1485
▁алк	-1486
▁жогор	-1487
ума	-1488
▁Көл	-1489
▁текше	-1490
▁үнү	-1491
нын	-1492
▁ишкер	-1493
▁кирги	-1494
уна	-1495
▁ээн	-1496
▁ички	-1497
▁сатып	-1498
▁ло	-1499
▁ынча	-1500
▁улуш	-1501
▁үндүз	-1502
▁иб	-1503
▁келди	-1504
тан	-1505
▁үшү	-1506
▁жаза	-1507
▁сынан	-1508
гек	-1509
▁жеке	-1510
▁олбой	-1511
▁тең	-1512
▁арга	-1513
▁грамм	-1514
▁кезде	-1515
▁кызык	-1516
▁тиз	-1517
▁Антке	-1518
▁айгаш	-1519
▁шт	-1520
▁төрү	-1521
▁итети	-1522
дон	-1523
▁10	-1524
▁титу	-1525
▁урм	-1526
▁деги	-1527
▁соо	-1528
дын	-1529
мө	-1530
▁ачыл	-1531
бө	-1532
▁бериш	-1533
▁отт	-1534
▁жыйын	-1535
▁айылы	-1536
▁даш	-1537
▁уюму	-1538
▁перт	-1539
▁өндүр	-1540
▁канда	-1541
▁аяс	-1542
▁Минис	-1543
▁нттар	-1544
▁алат	-1545
▁титуц	-1546
▁ратур	-1547
▁жасал	-1548
же	-1549
▁калк	-1550
▁леди	-1551
▁барат	-1552
▁ради	-1553
▁тышк	-1554
▁рип	-1555
▁зүнүн	-1556
▁ыкты	-1557
▁инс	-1558
▁Уш	-1559
▁ияга	-1560
▁нөн	-1561
▁уула	-1562
▁ылуу	-1563
▁Кор	-1564
▁ебеби	-1565
▁Мо	-1566
▁суна	-1567
▁ели	-1568
▁шаард	-1569
▁Оо	-1570
▁мур	-1571
▁бүгүн	-1572
▁тай	-1573
▁рак	-1574
▁нды	-1575
▁оскв	-1576
▁мир	-1577
▁осква	-1578
▁соода	-1579
▁берет	-1580
гер	-1581
▁аялд	-1582
▁өнү	-1583
▁дир	-1584
▁ес	-1585
▁Ооган	-1586
▁КШ	-1587
▁КШнын	-1588
▁олу	-1589
▁убакт	-1590
▁Жал	-1591
▁леп	-1592
▁медиц	-1593
▁ашык	-1594
▁Ат	-1595
▁үүлөр	-1596
▁уба	-1597
▁сызд	-1598
▁диги	-1599
ера	-1600
ңүл	-1601
▁жашоо	-1602
мин	-1603
▁уюмд	-1604
▁деш	-1605
▁ания	-1606
▁еген	-1607
▁мия	-1608
▁кач	-1609
▁бой	-1610
▁зра	-1611
▁өлүгү	-1612
▁Ата	-1613
▁тыюу	-1614
▁зраил	-1615
▁фи	-1616
▁салын	-1617
▁рун	-1618
▁сүй	-1619
▁агдай	-1620
▁көңүл	-1621
▁Де	-1622
▁проку	-1623
▁багы	-1624
▁эне	-1625
▁аштап	-1626
▁мет	-1627
▁эт	-1628
кта	-1629
▁үйү	-1630
▁догу	-1631
▁Жалал	-1632
▁опера	-1633
▁тизме	-1634
▁тынын	-1635
▁брда	-1636
▁илер	-1637
▁июнда	-1638
▁кап	-1639
▁деңг	-1640
▁бөлүм	-1641
▁илим	-1642
мер	-1643
▁абак	-1644
▁деңгэ	-1645
▁табыл	-1646
▁тон	-1647
▁!	-1648
▁сырт	-1649
▁кала	-1650
▁жөнөт	-1651
▁имов	-1652
▁багыт	-1653
▁кең	-1654
▁жарым	-1655
▁N	-1656
▁кетти	-1657
▁вак	-1658
▁айда	-1659
▁сүрөт	-1660
▁ышкан	-1661
▁дарды	-1662
▁чал	-1663
▁иц	-1664
▁ыйыны	-1665
▁кама	-1666
▁кайт	-1667
▁урук	-1668
▁үүнү	-1669
▁куну	-1670
▁алкуу	-1671
▁рин	-1672
▁дөй	-1673
▁ишин	-1674
▁алты	-1675
▁тас	-1676
▁ерин	-1677
▁ушуу	-1678
▁изилд	-1679
▁ларын	-1680
▁во	-1681
▁үст	-1682
▁ократ	-1683
▁котор	-1684
▁мигра	-1685
▁ыс	-1686
▁Абд	-1687
▁дүк	-1688
▁унан	-1689
▁%	-1690
▁алда	-1691
▁төн	-1692
▁жазды	-1693
жо	-1694
▁алм	-1695
▁;	-1696
▁Ысык	-1697
▁ерлер	-1698
▁кетиш	-1699
анс	-1700
▁Ар	-1701
▁Вла	-1702
▁кунуч	-1703
▁аа	-1704
▁адис	-1705
ылм	-1706
▁украи	-1707
▁актал	-1708
▁рмалы	-1709
үй	-1710
▁илиги	-1711
▁сотто	-1712
▁тем	-1713
▁лай	-1714
▁Нар	-1715
▁чын	-1716
▁элдик	-1717
▁өнүкт	-1718
▁сту	-1719
▁Влади	-1720
▁милде	-1721
▁каг	-1722
▁бүз	-1723
▁Башкы	-1724
▁ула	-1725
▁ишмер	-1726
▁нада	-1727
▁ою	-1728
бүз	-1729
поз	-1730
▁өнө	-1731
▁асып	-1732
▁алмаш	-1733
▁кыс	-1734
▁сок	-1735
▁ех	-1736
бер	-1737
▁түп	-1738
▁болуу	-1739
инг	-1740
▁казак	-1741
▁полиц	-1742
▁лы	-1743
▁ибиз	-1744
▁нага	-1745
▁I	-1746
▁нал	-1747
▁логия	-1748
▁истра	-1749
▁тышкы	-1750
▁тараб	-1751
▁ууган	-1752
▁Конс	-1753
түр	-1754
▁гач	-1755
▁армия	-1756
▁огору	-1757
▁алка	-1758
▁өлүм	-1759
▁ирим	-1760
▁урукс	-1761
▁үрүү	-1762
▁азар	-1763
▁бейт	-1764
▁Иран	-1765
▁эмгек	-1766
▁анд	-1767
ару	-1768
▁Атам	-1769
▁ска	-1770
евр	-1771
▁февр	-1772
▁алкаг	-1773
унун	-1774
▁елару	-1775
▁жабыр	-1776
▁жерге	-1777
▁ос	-1778
▁ова	-1779
▁трлер	-1780
▁Дү	-1781
▁лөрү	-1782
▁ейт	-1783
▁нча	-1784
▁Москв	-1785
▁дал	-1786
▁лып	-1787
▁Ис	-1788
▁каев	-1789
▁мд	-1790
▁мэ	-1791
▁T	-1792
▁суз	-1793
▁админ	-1794
▁аар	-1795
▁өрт	-1796
лам	-1797
▁ион	-1798
▁Чүй	-1799
уучу	-1800
▁ков	-1801
▁чулар	-1802
▁уг	-1803
▁шкан	-1804
▁алдын	-1805
▁бакыт	-1806
▁жибер	-1807
▁абалы	-1808
▁депут	-1809
▁июлда	-1810
▁айынд	-1811
▁абдан	-1812
▁өлтүр	-1813
▁өш	-1814
▁Си	-1815
▁салам	-1816
▁бөй	-1817
▁ылды	-1818
▁тарга	-1819
▁катуу	-1820
▁жог	-1821
▁тый	-1822
▁апкан	-1823
▁армаг	-1824
▁улган	-1825
▁радио	-1826
▁Дүйнө	-1827
▁үлг	-1828
▁караш	-1829
▁умт	-1830
▁ейтап	-1831
▁иң	-1832
▁спорт	-1833
▁15	-1834
▁санал	-1835
▁жан	-1836
▁азык	-1837
▁лим	-1838
▁пи	-1839
▁гөнүн	-1840
▁кетип	-1841
▁өг	-1842
▁тобу	-1843
▁көч	-1844
▁20	-1845
▁нет	-1846
▁шек	-1847
▁гачкы	-1848
▁сапар	-1849
▁Атамб	-1850
йгө	-1851
▁каруу	-1852
▁көл	-1853
▁зыл	-1854
▁зылык	-1855
▁лап	-1856
▁элдин	-1857
▁алыс	-1858
теп	-1859
▁ский	-1860
▁күй	-1861
▁имара	-1862
▁үлүп	-1863
▁таж	-1864
▁алтын	-1865
▁таг	-1866
▁ака	-1867
▁аль	-1868
▁матов	-1869
▁Эми	-1870
▁саба	-1871
▁шект	-1872
▁чылыг	-1873
▁муну	-1874
▁ыкча	-1875
▁изге	-1876
▁лерин	-1877
▁пайыз	-1878
▁исалы	-1879
▁форма	-1880
дж	-1881
▁Ушул	-1882
▁ама	-1883
▁жетки	-1884
▁гин	-1885
▁Тал	-1886
▁ль	-1887
▁байт	-1888
▁сине	-1889
▁өнөкт	-1890
▁сүз	-1891
▁шев	-1892
▁кеси	-1893
▁гем	-1894
▁үнчү	-1895
▁лд	-1896
▁гер	-1897
▁леген	-1898
▁ыктар	-1899
ни	-1900
▁илке	-1901
▁келин	-1902
▁аман	-1903
▁тапшы	-1904
▁өттү	-1905
▁елт	-1906
▁Маал	-1907
▁ултан	-1908
▁ажыр	-1909
вес	-1910
▁итинг	-1911
▁сайын	-1912
▁оппоз	-1913
▁каржы	-1914
▁сотко	-1915
▁төм	-1916
▁кыска	-1917
▁елтир	-1918
▁тарын	-1919
▁езек	-1920
▁жети	-1921
▁газ	-1922
▁жаг	-1923
▁азай	-1924
▁чурда	-1925
▁курул	-1926
▁сокку	-1927
▁ттуу	-1928
▁ланды	-1929
▁ере	-1930
▁нып	-1931
▁би	-1932
▁Бат	-1933
▁елген	-1934
мо	-1935
▁төмөн	-1936
▁ндеги	-1937
▁ире	-1938
▁одо	-1939
джет	-1940
▁Рес	-1941
▁риш	-1942
▁терди	-1943
▁юджет	-1944
▁рма	-1945
▁тыйжа	-1946
▁Респу	-1947
▁учак	-1948
▁чогул	-1949
▁йм	-1950
▁буз	-1951
▁чект	-1952
түк	-1953
▁басым	-1954
▁үштүк	-1955
▁мин	-1956
▁млрд	-1957
▁орду	-1958
▁үк	-1959
▁пей	-1960
▁бө	-1961
▁ндор	-1962
▁Ю	-1963
▁актан	-1964
▁мурун	-1965
▁уд	-1966
▁ткери	-1967
▁Сал	-1968
▁Батыш	-1969
▁көрүп	-1970
▁азуу	-1971
еси	-1972
▁уза	-1973
▁нтари	-1974
▁четке	-1975
▁эске	-1976
VI	-1977
▁аян	-1978
▁тигин	-1979
▁күндө	-1980
▁акынд	-1981
▁башчы	-1982
▁реж	-1983
▁Нарын	-1984
▁ск	-1985
▁аштар	-1986
▁зом	-1987
▁аният	-1988
▁асылм	-1989
▁чулук	-1990
▁30	-1991
▁ларда	-1992
▁ив	-1993
▁сый	-1994
▁панде	-1995
▁рган	-1996
▁арада	-1997
▁Гер	-1998
▁зомбу	-1999
▁рып	-2000
▁ашыр	-2001
▁ың	-2002
▁апта	-2003
▁тут	-2004
▁эрте	-2005
▁комме	-2006
▁вир	-2007
▁туш	-2008
▁олог	-2009
▁ажыра	-2010
▁актап	-2011
▁ттер	-2012
▁иримд	-2013
▁талаш	-2014
▁ыч	-2015
▁айына	-2016
▁көчө	-2017
▁кетүү	-2018
▁Бүгүн	-2019
▁дирек	-2020
▁респу	-2021
▁Аны	-2022
▁мае	-2023
▁сек	-2024
▁рси	-2025
▁инвес	-2026
лө	-2027
дөө	-2028
▁адыр	-2029
▁санк	-2030
рл	-2031
▁ондо	-2032
▁ткү	-2033
▁уулар	-2034
▁рил	-2035
▁рамп	-2036
▁генин	-2037
▁митет	-2038
▁санкц	-2039
▁нг	-2040
▁дым	-2041
▁орт	-2042
▁Эгер	-2043
▁топто	-2044
▁үгү	-2045
▁жеңил	-2046
ама	-2047
▁аал	-2048
▁таза	-2049
▁рсите	-2050
▁мед	-2051
▁улант	-2052
реже	-2053
▁скер	-2054
▁эреже	-2055
▁баа	-2056
▁инети	-2057
▁кыйын	-2058
▁тез	-2059
▁лануу	-2060
▁штаб	-2061
▁Ич	-2062
▁Герма	-2063
▁акция	-2064
▁келат	-2065
▁вакц	-2066
▁их	-2067
▁гал	-2068
▁кеп	-2069
▁То	-2070
▁тул	-2071
▁өнүг	-2072
▁ест	-2073
▁ети	-2074
▁китеп	-2075
▁олдоо	-2076
▁терге	-2077
▁пе	-2078
▁үндүк	-2079
▁Киев	-2080
▁ракет	-2081
▁өң	-2082
лы	-2083
▁кта	-2084
▁нунда	-2085
▁обо	-2086
▁бирөө	-2087
▁11	-2088
▁аяг	-2089
▁каала	-2090
▁турук	-2091
▁еки	-2092
▁инф	-2093
▁товар	-2094
▁анат	-2095
▁өөчү	-2096
▁иал	-2097
▁декси	-2098
▁кулов	-2099
▁сүйлө	-2100
иве	-2101
▁униве	-2102
▁ткөн	-2103
▁ишти	-2104
▁A	-2105
▁баз	-2106
▁езгил	-2107
▁түрдө	-2108
▁тору	-2109
▁ттан	-2110
▁Бри	-2111
▁игра	-2112
▁урам	-2113
▁Өк	-2114
▁арба	-2115
▁метр	-2116
▁Брита	-2117
▁трлик	-2118
▁туп	-2119
▁жазып	-2120
▁умтөр	-2121
▁ыктын	-2122
▁Эки	-2123
▁ыктан	-2124
▁Ро	-2125
▁Газ	-2126
▁ебиз	-2127
▁12	-2128
▁антип	-2129
▁Ички	-2130
▁алтыр	-2131
▁дээ	-2132
▁анит	-2133
▁баасы	-2134
▁дат	-2135
▁рдук	-2136
▁өзбек	-2137
▁түк	-2138
▁сөзд	-2139
жан	-2140
▁шон	-2141
▁зыян	-2142
▁Евро	-2143
on	-2144
▁бошо	-2145
▁базар	-2146
▁кирип	-2147
▁ери	-2148
▁аякта	-2149
▁Өкмөт	-2150
▁иштей	-2151
▁пу	-2152
▁лен	-2153
▁конс	-2154
▁стун	-2155
▁вирус	-2156
▁дээрл	-2157
▁Жа	-2158
▁болуш	-2159
▁сынд	-2160
▁аки	-2161
▁n	-2162
▁CO	-2163
сыз	-2164
▁ау	-2165
▁рь	-2166
▁баала	-2167
▁c	-2168
▁Мурда	-2169
▁бур	-2170
▁орунд	-2171
▁элч	-2172
▁асыз	-2173
▁екен	-2174
▁здар	-2175
▁овет	-2176
▁ток	-2177
▁катта	-2178
▁Талас	-2179
▁армап	-2180
▁s	-2181
▁мби	-2182
▁коюш	-2183
▁шайла	-2184
▁гүл	-2185
▁Салам	-2186
▁даяр	-2187
гын	-2188
▁ония	-2189
▁күнөө	-2190
▁дам	-2191
▁ург	-2192
▁матер	-2193
▁што	-2194
▁куруу	-2195
▁оолуу	-2196
▁жума	-2197
▁Жаңы	-2198
бы	-2199
▁күчөт	-2200
▁туруш	-2201
▁Жо	-2202
▁чем	-2203
▁станд	-2204
▁ырт	-2205
▁аракч	-2206
▁беген	-2207
▁эсеби	-2208
▁евр	-2209
▁анал	-2210
▁зүү	-2211
▁узду	-2212
▁кесип	-2213
▁койду	-2214
▁титут	-2215
▁күнд	-2216
▁бош	-2217
▁ыраст	-2218
▁мад	-2219
▁рыл	-2220
ту	-2221
▁олдо	-2222
▁улар	-2223
▁ланып	-2224
▁Кө	-2225
▁аянт	-2226
▁Алекс	-2227
VID	-2228
▁окшо	-2229
▁лукка	-2230
▁өмүрү	-2231
▁өч	-2232
▁пул	-2233
▁кошул	-2234
▁турум	-2235
▁сайты	-2236
▁инг	-2237
▁ымб	-2238
▁муз	-2239
▁калат	-2240
▁ус	-2241
▁S	-2242
▁зор	-2243
▁мүнө	-2244
▁телеф	-2245
▁ари	-2246
▁илди	-2247
лор	-2248
▁узуу	-2249
▁диний	-2250
ста	-2251
▁ырсык	-2252
▁No	-2253
▁гу	-2254
▁кээ	-2255
▁коюп	-2256
▁лүгү	-2257
▁кын	-2258
▁тамак	-2259
▁атра	-2260
▁айден	-2261
▁гемен	-2262
▁ишени	-2263
▁канал	-2264
▁циясы	-2265
сс	-2266
▁сунда	-2267
маз	-2268
▁нунун	-2269
нес	-2270
▁атыл	-2271
▁нтин	-2272
▁өзүн	-2273
▁ег	-2274
▁уктур	-2275
▁ңыз	-2276
▁ирет	-2277
▁COVID	-2278
▁Быйыл	-2279
▁изнес	-2280
▁лмаз	-2281
▁үлк	-2282
▁орно	-2283
▁ашиев	-2284
▁кадам	-2285
▁урс	-2286
▁терин	-2287
▁байка	-2288
▁туруп	-2289
▁айтыш	-2290
▁Анан	-2291
▁ыгын	-2292
▁ектөө	-2293
▁курч	-2294
▁галим	-2295
▁иялар	-2296
▁имди	-2297
▁сана	-2298
йр	-2299
▁рын	-2300
▁келти	-2301
▁Кам	-2302
▁аза	-2303
▁изд	-2304
▁оро	-2305
▁өөк	-2306
▁аттуу	-2307
▁дарыг	-2308
▁бетте	-2309
▁бөлүн	-2310
▁етте	-2311
▁Сүрөт	-2312
▁маш	-2313
▁мок	-2314
▁түзүү	-2315
▁сакта	-2316
▁сеп	-2317
▁мас	-2318
▁кылды	-2319
ШК	-2320
▁жолдо	-2321
▁калаа	-2322
ИМ	-2323
▁БШК	-2324
▁фон	-2325
▁оттун	-2326
▁планд	-2327
▁үт	-2328
▁играц	-2329
▁гында	-2330
▁убада	-2331
▁баян	-2332
▁лиги	-2333
▁шы	-2334
▁ондон	-2335
▁урман	-2336
▁еск	-2337
▁үстү	-2338
▁уур	-2339
▁көздө	-2340
▁кс	-2341
▁ндия	-2342
▁эли	-2343
▁сыртк	-2344
▁ушу	-2345
▁фак	-2346
▁танд	-2347
▁факты	-2348
▁Айт	-2349
▁ылд	-2350
▁лаш	-2351
▁мэри	-2352
▁етика	-2353
▁көлөм	-2354
▁транс	-2355
▁аан	-2356
▁күбө	-2357
пө	-2358
▁енко	-2359
▁зи	-2360
▁режим	-2361
пар	-2362
▁таян	-2363
▁үнүш	-2364
▁астан	-2365
▁Ц	-2366
▁100	-2367
▁баса	-2368
▁үйлөр	-2369
жал	-2370
▁ериш	-2371
▁куучу	-2372
▁бара	-2373
шө	-2374
▁Зел	-2375
тик	-2376
▁үйшө	-2377
▁кийи	-2378
▁арай	-2379
ва	-2380
▁Тыш	-2381
▁бою	-2382
▁амат	-2383
▁айжан	-2384
▁Тышкы	-2385
▁тасма	-2386
▁арала	-2387
▁булак	-2388
▁тапта	-2389
▁уздуг	-2390
▁Айрым	-2391
▁ран	-2392
▁узак	-2393
▁бирге	-2394
▁Суу	-2395
▁ткүч	-2396
▁чемпи	-2397
▁ыйм	-2398
▁аткан	-2399
▁ымбат	-2400
▁өөсү	-2401
▁жакта	-2402
▁Но	-2403
▁зат	-2404
ья	-2405
лет	-2406
▁чук	-2407
▁үзөт	-2408
▁амсыз	-2409
▁нул	-2410
▁ийи	-2411
▁i	-2412
▁Ор	-2413
▁ылдыр	-2414
▁айко	-2415
▁ызыл	-2416
▁Ала	-2417
сөт	-2418
▁Зелен	-2419
▁студе	-2420
▁өрсөт	-2421
▁Со	-2422
▁комп	-2423
▁иза	-2424
▁егиз	-2425
▁жокко	-2426
▁тирүү	-2427
▁талд	-2428
түү	-2429
▁чө	-2430
▁сөзү	-2431
▁арх	-2432
▁түрк	-2433
▁олдор	-2434
▁ира	-2435
▁дөрү	-2436
▁улуу	-2437
доо	-2438
▁Мад	-2439
▁луп	-2440
▁ору	-2441
▁калы	-2442
▁аңжал	-2443
▁сс	-2444
▁ачан	-2445
▁таган	-2446
▁түшүп	-2447
▁Рос	-2448
▁Чек	-2449
▁орлор	-2450
▁жиг	-2451
▁ред	-2452
▁арна	-2453
▁Ки	-2454
▁Газа	-2455
▁Орус	-2456
▁14	-2457
▁Сот	-2458
▁кызы	-2459
▁айылд	-2460
туу	-2461
▁еңиш	-2462
▁атр	-2463
▁50	-2464
▁иг	-2465
▁дип	-2466
▁дыгы	-2467
▁таң	-2468
▁дро	-2469
▁дипло	-2470
▁түрү	-2471
▁13	-2472
▁сия	-2473
▁етект	-2474
▁Сир	-2475
▁изм	-2476
▁өзүнө	-2477
▁арг	-2478
▁Сирия	-2479
▁+	-2480
▁еткен	-2481
▁Бек	-2482
▁ИИМ	-2483
▁Ошо	-2484
▁аппар	-2485
▁курор	-2486
▁чүлүг	-2487
▁олго	-2488
▁нууда	-2489
▁үбүз	-2490
▁ошо	-2491
▁ааты	-2492
▁шент	-2493
▁иреше	-2494
йру	-2495
▁лас	-2496
▁Камчы	-2497
▁ылбек	-2498
▁доочу	-2499
▁r	-2500
▁пас	-2501
▁өнөр	-2502
сб	-2503
шу	-2504
▁оок	-2505
▁имдиг	-2506
▁штуу	-2507
▁ылып	-2508
▁жабыл	-2509
▁ленге	-2510
▁мб	-2511
▁сте	-2512
▁алаа	-2513
▁дигин	-2514
▁орд	-2515
▁тыл	-2516
▁план	-2517
▁атаал	-2518
▁жарал	-2519
▁ван	-2520
▁медиа	-2521
▁атыш	-2522
▁акиев	-2523
▁пир	-2524
▁екит	-2525
▁ерр	-2526
▁жара	-2527
▁арыл	-2528
▁экөө	-2529
▁Кийин	-2530
▁жылда	-2531
▁лыш	-2532
▁Ам	-2533
▁ци	-2534
▁Таш	-2535
▁мык	-2536
▁сез	-2537
▁ыптыр	-2538
▁рек	-2539
▁тив	-2540
▁Евроб	-2541
▁араат	-2542
▁жүзү	-2543
▁жогот	-2544
▁Амери	-2545
▁менин	-2546
▁кли	-2547
▁апат	-2548
▁ыштыр	-2549
гар	-2550
▁иштет	-2551
,5	-2552
тай	-2553
ейсб	-2554
өлөр	-2555
▁лей	-2556
▁шты	-2557
▁оңшу	-2558
▁Фейсб	-2559
▁түрмө	-2560
▁рө	-2561
▁огул	-2562
▁үнүч	-2563
анас	-2564
▁Манас	-2565
▁муни	-2566
▁ейше	-2567
▁зама	-2568
▁рия	-2569
▁унт	-2570
▁арыш	-2571
▁Тем	-2572
▁тыгы	-2573
▁интер	-2574
▁тиция	-2575
▁урмуш	-2576
▁иалд	-2577
▁ашине	-2578
▁Өт	-2579
▁ысы	-2580
▁коно	-2581
▁нбай	-2582
▁айлык	-2583
▁кароо	-2584
▁од	-2585
▁урамы	-2586
▁Гүл	-2587
шыр	-2588
▁өйгө	-2589
▁баянд	-2590
▁ылдык	-2591
ерб	-2592
▁Корон	-2593
▁ндөгү	-2594
▁едер	-2595
▁Азерб	-2596
▁синин	-2597
▁Шай	-2598
▁терро	-2599
▁фр	-2600
▁өп	-2601
▁лла	-2602
▁жайыл	-2603
▁каган	-2604
▁жоо	-2605
▁темир	-2606
▁Темир	-2607
▁милге	-2608
▁ыйгар	-2609
▁кем	-2610
▁ъ	-2611
▁сөө	-2612
▁тонна	-2613
▁өйгөй	-2614
er	-2615
▁тасы	-2616
▁гинде	-2617
▁проце	-2618
▁сомго	-2619
ma	-2620
▁мыкты	-2621
▁колог	-2622
▁кес	-2623
▁оттук	-2624
▁25	-2625
▁Фран	-2626
▁абаг	-2627
▁оци	-2628
▁чаг	-2629
▁сурак	-2630
▁аманд	-2631
▁маалы	-2632
▁огуз	-2633
▁бизди	-2634
▁риз	-2635
▁чөй	-2636
▁апшыр	-2637
▁сттик	-2638
▁шондо	-2639
▁Токто	-2640
▁тарта	-2641
▁Ле	-2642
▁ерс	-2643
▁зия	-2644
▁ңар	-2645
▁өкүм	-2646
▁Жума	-2647
▁чогуу	-2648
▁нат	-2649
▁утб	-2650
▁герде	-2651
мүр	-2652
▁ойно	-2653
▁төрө	-2654
▁Өмүр	-2655
▁бошот	-2656
▁өөлөр	-2657
▁ино	-2658
▁ардыг	-2659
▁жетти	-2660
оро	-2661
▁зм	-2662
▁элде	-2663
▁демия	-2664
▁еди	-2665
▁өкт	-2666
▁тали	-2667
▁гынын	-2668
▁дерди	-2669
▁жери	-2670
▁Франц	-2671
▁амери	-2672
чик	-2673
▁анк	-2674
▁тех	-2675
▁жасап	-2676
▁коюу	-2677
▁удья	-2678
▁ыңг	-2679
▁бирик	-2680
▁алиба	-2681
▁чукул	-2682
▁16	-2683
мит	-2684
▁ыт	-2685
▁хам	-2686
▁өтөт	-2687
▁Мунун	-2688
▁ика	-2689
▁айма	-2690
▁жолун	-2691
▁вице	-2692
▁бекем	-2693
▁ескин	-2694
инч	-2695
▁шо	-2696
▁леш	-2697
▁узуп	-2698
▁зит	-2699
▁ник	-2700
▁оптор	-2701
▁Ком	-2702
▁гре	-2703
▁ерден	-2704
▁датта	-2705
▁чыгыш	-2706
▁оли	-2707
ея	-2708
рө	-2709
▁чөйрө	-2710
▁вал	-2711
▁ият	-2712
▁буйру	-2713
▁сөөгү	-2714
▁абы	-2715
▁енин	-2716
▁убан	-2717
▁жашап	-2718
▁пал	-2719
▁айдан	-2720
▁алгыз	-2721
▁оомчу	-2722
▁чыр	-2723
▁Расми	-2724
▁бажы	-2725
▁Өткөн	-2726
▁Арм	-2727
▁кун	-2728
▁оюз	-2729
▁рем	-2730
▁смо	-2731
▁нстан	-2732
▁камс	-2733
▁ыздоо	-2734
▁олот	-2735
▁нция	-2736
▁тере	-2737
▁ерект	-2738
▁УУ	-2739
▁рый	-2740
▁үнөн	-2741
▁кыркы	-2742
иг	-2743
▁Өл	-2744
ого	-2745
▁18	-2746
▁оюнд	-2747
▁мөн	-2748
▁анан	-2749
▁егия	-2750
▁өгөт	-2751
▁ве	-2752
▁күл	-2753
▁атка	-2754
▁гресс	-2755
▁ркек	-2756
▁жакка	-2757
▁оч	-2758
▁аммит	-2759
▁едера	-2760
▁Көп	-2761
▁пози	-2762
▁чыга	-2763
▁өрүн	-2764
▁төө	-2765
▁турак	-2766
▁олку	-2767
▁лимпи	-2768
вок	-2769
▁айта	-2770
▁рыйба	-2771
▁төгөн	-2772
▁сегиз	-2773
▁тууга	-2774
▁ароо	-2775
▁баруу	-2776
▁башал	-2777
▁иңде	-2778
▁аэ	-2779
▁кл	-2780
▁сен	-2781
▁ийгиз	-2782
▁лөрдү	-2783
▁сум	-2784
▁тып	-2785
▁эсе	-2786
▁олтур	-2787
чар	-2788
▁тара	-2789
▁Ислам	-2790
▁карыз	-2791
▁утбол	-2792
▁бөлүш	-2793
▁кытай	-2794
▁ъект	-2795
▁Жалпы	-2796
▁енчик	-2797
▁Кош	-2798
▁лет	-2799
▁сел	-2800
▁Башка	-2801
▁Корея	-2802
▁Шайло	-2803
▁ризис	-2804
▁жанд	-2805
▁ыкма	-2806
▁ани	-2807
▁гра	-2808
▁оль	-2809
▁ения	-2810
▁ткан	-2811
▁/	-2812
маты	-2813
▁эрки	-2814
▁өтпө	-2815
▁асына	-2816
▁лматы	-2817
▁мбиде	-2818
▁ный	-2819
▁ктор	-2820
▁олжо	-2821
▁ошон	-2822
▁ыраа	-2823
▁огулт	-2824
▁таап	-2825
▁Му	-2826
▁аст	-2827
▁шар	-2828
▁убак	-2829
▁үнчө	-2830
▁аттам	-2831
▁Коо	-2832
▁фонд	-2833
▁ью	-2834
▁үмү	-2835
▁чыкпа	-2836
▁R	-2837
▁оңдо	-2838
▁начар	-2839
▁чечүү	-2840
▁адвок	-2841
▁оокер	-2842
▁ласс	-2843
▁лыгы	-2844
дүү	-2845
▁нуп	-2846
▁B	-2847
▁калыб	-2848
▁кете	-2849
▁оолу	-2850
▁ыгыш	-2851
▁Өлкө	-2852
ЭБ	-2853
нун	-2854
▁мага	-2855
▁үрөт	-2856
▁оңку	-2857
▁акты	-2858
▁УУнун	-2859
▁вод	-2860
▁На	-2861
▁катто	-2862
▁ыймыл	-2863
▁еми	-2864
▁улу	-2865
▁кеми	-2866
▁узул	-2867
▁жүк	-2868
▁мер	-2869
▁чилиг	-2870
▁енс	-2871
▁кил	-2872
▁алса	-2873
▁ишине	-2874
▁агым	-2875
▁атор	-2876
▁күнгө	-2877
▁ажы	-2878
▁арам	-2879
▁убат	-2880
▁ста	-2881
▁туруу	-2882
▁иж	-2883
АТ	-2884
▁орма	-2885
▁иштүү	-2886
иза	-2887
▁жу	-2888
үшү	-2889
▁ыма	-2890
▁ашыг	-2891
▁андат	-2892
▁күр	-2893
▁17	-2894
▁түштү	-2895
▁иккен	-2896
▁ээк	-2897
▁туул	-2898
▁уулук	-2899
▁үлгөн	-2900
▁нтер	-2901
▁уккан	-2902
▁гүн	-2903
▁згө	-2904
▁лыг	-2905
▁укта	-2906
▁унай	-2907
▁До	-2908
▁умш	-2909
▁алга	-2910
▁салык	-2911
▁кириш	-2912
▁көнүн	-2913
▁нуш	-2914
▁баева	-2915
▁далил	-2916
тт	-2917
▁ion	-2918
▁гум	-2919
▁стат	-2920
▁Жак	-2921
▁сам	-2922
▁күчт	-2923
пс	-2924
▁атып	-2925
▁рл	-2926
▁рдо	-2927
▁азия	-2928
▁арык	-2929
▁тте	-2930
▁Кем	-2931
▁Муну	-2932
▁адан	-2933
▁Коопс	-2934
▁илери	-2935
▁мей	-2936
▁рас	-2937
▁шунд	-2938
АС	-2939
▁октом	-2940
▁Я	-2941
▁мар	-2942
▁түй	-2943
▁ңиз	-2944
▁уусу	-2945
▁ынга	-2946
▁арлык	-2947
▁ганы	-2948
▁жаны	-2949
▁раак	-2950
▁техни	-2951
▁дыгын	-2952
▁они	-2953
▁алым	-2954
▁таан	-2955
▁пор	-2956
▁чечил	-2957
▁анча	-2958
▁чынд	-2959
▁ыны	-2960
▁ларга	-2961
▁арат	-2962
▁инче	-2963
▁одон	-2964
▁Сооро	-2965
▁анция	-2966
▁рол	-2967
▁инте	-2968
▁лду	-2969
▁еме	-2970
▁ууг	-2971
▁ланга	-2972
▁рүүдө	-2973
ge	-2974
▁түлү	-2975
▁араш	-2976
▁ашкан	-2977
▁октот	-2978
▁ехно	-2979
▁абд	-2980
▁нар	-2981
▁убай	-2982
▁тация	-2983
▁үркмө	-2984
▁мол	-2985
▁атуу	-2986
▁ышына	-2987
▁рей	-2988
▁оско	-2989
▁скар	-2990
▁Жакын	-2991
▁фонду	-2992
▁орг	-2993
▁нттер	-2994
▁фер	-2995
▁дөө	-2996
▁жүрүш	-2997
▁андаш	-2998
▁жуг	-2999
▁еңиз	-3000
▁ндон	-3001
▁үрүшү	-3002
▁жам	-3003
▁арку	-3004
▁утка	-3005
▁тыкта	-3006
▁40	-3007
▁Ад	-3008
▁ыздар	-3009
▁мы	-3010
▁сепет	-3011
▁гран	-3012
▁улма	-3013
▁андыр	-3014
▁акын	-3015
▁ийги	-3016
▁үтү	-3017
бей	-3018
▁бат	-3019
▁атты	-3020
▁как	-3021
▁згөчө	-3022
▁гыл	-3023
▁убуз	-3024
▁лгөн	-3025
▁улут	-3026
▁сүндө	-3027
▁уунун	-3028
▁нф	-3029
▁күчө	-3030
▁илими	-3031
▁район	-3032
▁скерт	-3033
▁изде	-3034
▁штар	-3035
▁улду	-3036
▁оочу	-3037
▁олугу	-3038
▁аласы	-3039
▁иян	-3040
▁оога	-3041
▁сези	-3042
▁иде	-3043
▁ожо	-3044
▁шуу	-3045
▁позиц	-3046
▁дөгөн	-3047
▁пс	-3048
▁еги	-3049
▁кмат	-3050
▁ника	-3051
▁аттоо	-3052
▁екция	-3053
▁руз	-3054
▁кула	-3055
АТО	-3056
▁аап	-3057
▁арлам	-3058
▁кация	-3059
▁алаб	-3060
▁акан	-3061
▁НАТО	-3062
▁артип	-3063
▁ерт	-3064
▁ализ	-3065
▁чыгуу	-3066
▁ноо	-3067
▁диа	-3068
▁асын	-3069
му	-3070
▁зо	-3071
▁ави	-3072
▁агытт	-3073
▁ектеш	-3074
▁раф	-3075
▁анов	-3076
▁кени	-3077
▁утуу	-3078
▁ед	-3079
▁нго	-3080
▁тос	-3081
▁айга	-3082
▁салды	-3083
▁G	-3084
▁өбүз	-3085
иси	-3086
▁каш	-3087
▁илип	-3088
▁нден	-3089
▁үүсү	-3090
▁аша	-3091
▁зал	-3092
▁ктуу	-3093
▁онат	-3094
▁жатыш	-3095
КУ	-3096
▁Кур	-3097
пе	-3098
▁айыр	-3099
▁гөнү	-3100
▁өлүп	-3101
▁Ок	-3102
▁лам	-3103
▁аттан	-3104
▁теш	-3105
▁ерге	-3106
▁алабы	-3107
▁иби	-3108
▁укукт	-3109
▁пт	-3110
▁Абду	-3111
▁пасы	-3112
▁ене	-3113
▁жап	-3114
▁урул	-3115
▁еев	-3116
▁мын	-3117
▁үкт	-3118
▁елип	-3119
▁иден	-3120
▁акала	-3121
▁яр	-3122
▁сың	-3123
▁рманд	-3124
▁Бал	-3125
▁ткен	-3126
▁үрө	-3127
▁екше	-3128
▁кага	-3129
▁пара	-3130
▁артуу	-3131
▁келүү	-3132
▁тти	-3133
▁нц	-3134
▁асым	-3135
▁оого	-3136
▁Али	-3137
▁вок	-3138
▁тат	-3139
ЭС	-3140
▁M	-3141
▁апты	-3142
▁урна	-3143
▁жарак	-3144
▁талга	-3145
▁терде	-3146
мы	-3147
▁лө	-3148
▁дашуу	-3149
▁бизде	-3150
▁аалым	-3151
▁рыг	-3152
▁ашты	-3153
▁Бо	-3154
▁десе	-3155
▁тийиш	-3156
▁арыя	-3157
▁реги	-3158
▁ооз	-3159
▁ото	-3160
▁шат	-3161
▁окту	-3162
▁өтүү	-3163
▁бес	-3164
▁бия	-3165
▁Ток	-3166
▁сүнө	-3167
▁умуш	-3168
▁исти	-3169
▁луна	-3170
▁Ас	-3171
▁мне	-3172
▁ачуу	-3173
пай	-3174
▁ыды	-3175
▁арына	-3176
▁лт	-3177
▁дап	-3178
▁лю	-3179
▁Анд	-3180
▁ерв	-3181
▁оргоо	-3182
▁ести	-3183
▁сттер	-3184
▁карт	-3185
▁мдөө	-3186
▁гек	-3187
▁ута	-3188
▁ортто	-3189
▁лөө	-3190
▁ткар	-3191
▁аку	-3192
▁лын	-3193
▁тей	-3194
▁арбы	-3195
▁дукт	-3196
▁дарын	-3197
▁ттар	-3198
▁атар	-3199
▁йлөр	-3200
▁ферен	-3201
▁ca	-3202
▁Түр	-3203
▁үйө	-3204
▁ашыл	-3205
▁Жап	-3206
▁За	-3207
▁руг	-3208
▁сла	-3209
▁ыка	-3210
▁күчү	-3211
▁рга	-3212
▁мени	-3213
▁айтуу	-3214
▁грант	-3215
▁вокат	-3216
▁рыгер	-3217
▁страт	-3218
▁зан	-3219
▁оптуу	-3220
АМ	-3221
▁апа	-3222
▁жөнө	-3223
▁азасы	-3224
▁ттери	-3225
▁Лу	-3226
▁але	-3227
▁көй	-3228
▁илет	-3229
▁корку	-3230
ну	-3231
▁P	-3232
▁ендер	-3233
▁оло	-3234
▁оолор	-3235
▁эг	-3236
▁айын	-3237
▁рлер	-3238
▁ылдар	-3239
▁сим	-3240
▁Ми	-3241
▁дум	-3242
▁уран	-3243
СС	-3244
▁руу	-3245
▁мака	-3246
▁F	-3247
▁йыл	-3248
▁амб	-3249
▁удай	-3250
▁атыр	-3251
▁чыны	-3252
▁жашыр	-3253
▁ркинд	-3254
▁ож	-3255
▁дис	-3256
▁нба	-3257
▁раб	-3258
▁ыйы	-3259
▁арта	-3260
▁арты	-3261
▁ац	-3262
▁агына	-3263
▁мекен	-3264
▁a	-3265
▁Мам	-3266
▁гыла	-3267
АМАС	-3268
▁ХАМАС	-3269
▁Ру	-3270
▁боо	-3271
▁ичи	-3272
▁Түрк	-3273
▁кирүү	-3274
▁хн	-3275
▁Й	-3276
▁өлг	-3277
▁хника	-3278
▁алиб	-3279
▁еврал	-3280
▁келеч	-3281
▁өнгө	-3282
▁19	-3283
▁рий	-3284
▁ичине	-3285
▁еч	-3286
▁кр	-3287
▁рег	-3288
▁ыбек	-3289
▁Тоо	-3290
▁абык	-3291
▁мон	-3292
▁егизи	-3293
▁екени	-3294
▁ону	-3295
▁фил	-3296
▁кети	-3297
хан	-3298
▁окум	-3299
▁артыш	-3300
▁алышы	-3301
▁урт	-3302
▁аров	-3303
▁арым	-3304
▁Иш	-3305
▁ныш	-3306
▁улат	-3307
▁андуу	-3308
▁ынган	-3309
▁улаг	-3310
▁лөрдө	-3311
▁атат	-3312
▁жин	-3313
▁мел	-3314
▁тип	-3315
▁чеги	-3316
▁ондук	-3317
лү	-3318
▁аф	-3319
▁таанд	-3320
▁анган	-3321
▁рс	-3322
▁аткы	-3323
▁анып	-3324
▁демил	-3325
▁көргө	-3326
бе	-3327
▁лин	-3328
▁ория	-3329
▁олдук	-3330
▁апар	-3331
▁төрүн	-3332
▁ашк	-3333
▁факт	-3334
▁көйгө	-3335
at	-3336
▁гыс	-3337
▁юму	-3338
▁екке	-3339
▁ртуу	-3340
▁ырма	-3341
▁армоо	-3342
▁k	-3343
стр	-3344
▁адани	-3345
mage	-3346
▁юри	-3347
▁Image	-3348
▁курам	-3349
▁тоочу	-3350
▁ля	-3351
▁мыл	-3352
▁уудан	-3353
▁маз	-3354
▁арака	-3355
▁дүүлү	-3356
▁рист	-3357
▁уруу	-3358
▁бал	-3359
▁виру	-3360
▁элди	-3361
▁ирд	-3362
▁мыр	-3363
▁тады	-3364
▁улуп	-3365
▁ё	-3366
▁ыд	-3367
▁60	-3368
▁тег	-3369
▁ымды	-3370
▁үлдү	-3371
▁фе	-3372
▁аяк	-3373
▁көзү	-3374
▁көрө	-3375
▁эпи	-3376
▁иринч	-3377
▁Дон	-3378
▁ария	-3379
▁ияны	-3380
▁тури	-3381
▁атасы	-3382
▁көрдү	-3383
▁малуу	-3384
▁Жан	-3385
▁ивдүү	-3386
▁ануу	-3387
▁ынып	-3388
▁стук	-3389
▁үтүн	-3390
▁төгү	-3391
▁издөө	-3392
▁олдон	-3393
▁уң	-3394
▁шу	-3395
▁дим	-3396
▁лле	-3397
▁спи	-3398
▁ңкы	-3399
▁лукта	-3400
▁тайын	-3401
▁ктар	-3402
▁ресс	-3403
▁синде	-3404
▁ют	-3405
▁Кар	-3406
▁нск	-3407
▁22	-3408
▁КМ	-3409
▁эси	-3410
▁тогу	-3411
ra	-3412
▁Жер	-3413
▁егер	-3414
▁луг	-3415
▁оңо	-3416
▁көрүн	-3417
▁гун	-3418
▁кук	-3419
▁атта	-3420
▁лиц	-3421
▁шкер	-3422
▁24	-3423
▁кас	-3424
▁геси	-3425
▁бл	-3426
▁хан	-3427
▁абия	-3428
▁алам	-3429
▁лтын	-3430
▁нстр	-3431
ви	-3432
▁200	-3433
▁H	-3434
▁демо	-3435
▁нип	-3436
▁корк	-3437
ман	-3438
▁лаг	-3439
▁ешет	-3440
▁Тил	-3441
▁рды	-3442
▁виза	-3443
▁Ую	-3444
▁кч	-3445
▁дос	-3446
▁эксп	-3447
▁нек	-3448
▁лекс	-3449
▁онал	-3450
▁нүп	-3451
▁W	-3452
▁аралы	-3453
▁пө	-3454
▁үмд	-3455
▁айр	-3456
▁лорду	-3457
▁мба	-3458
▁ыгым	-3459
▁уун	-3460
▁тууну	-3461
▁гыр	-3462
▁өбө	-3463
▁олду	-3464
▁еррор	-3465
▁баг	-3466
▁араба	-3467
▁такта	-3468
▁кынд	-3469
▁ылкы	-3470
▁өктү	-3471
▁көө	-3472
▁ерал	-3473
▁еске	-3474
▁сиң	-3475
▁улак	-3476
▁чилер	-3477
▁деми	-3478
▁мине	-3479
▁тург	-3480
▁ио	-3481
▁мылы	-3482
▁бызды	-3483
▁лат	-3484
▁айге	-3485
▁80	-3486
▁үң	-3487
▁вер	-3488
▁ерн	-3489
▁атын	-3490
▁алгач	-3491
▁колун	-3492
▁Z	-3493
▁ңг	-3494
▁ришти	-3495
▁илин	-3496
▁тема	-3497
▁руучу	-3498
УУ	-3499
▁опс	-3500
▁дыры	-3501
▁өтүн	-3502
▁өлгөн	-3503
▁лег	-3504
▁үндө	-3505
▁айра	-3506
▁дыкка	-3507
▁бра	-3508
▁пүр	-3509
▁шып	-3510
▁арыг	-3511
▁колу	-3512
▁караб	-3513
▁опсуз	-3514
en	-3515
▁нансы	-3516
▁уну	-3517
▁ттен	-3518
▁БУУ	-3519
▁рым	-3520
▁сып	-3521
▁тори	-3522
▁тинин	-3523
▁жого	-3524
▁мэр	-3525
▁шан	-3526
▁етк	-3527
▁терг	-3528
▁аск	-3529
▁рис	-3530
▁21	-3531
▁дүгү	-3532
▁коро	-3533
▁өчүр	-3534
▁алары	-3535
▁°	-3536
▁шка	-3537
▁өрө	-3538
▁маши	-3539
▁дил	-3540
▁елг	-3541
▁кире	-3542
es	-3543
pt	-3544
ККУ	-3545
▁шү	-3546
▁ишет	-3547
▁нууга	-3548
▁Эр	-3549
▁юн	-3550
▁хе	-3551
▁ера	-3552
▁кад	-3553
▁ттү	-3554
▁елег	-3555
▁ташта	-3556
▁сар	-3557
▁акыт	-3558
▁ирге	-3559
▁лышы	-3560
▁еткир	-3561
▁тыкты	-3562
▁пон	-3563
▁асма	-3564
▁ши	-3565
▁артка	-3566
▁Ре	-3567
▁capt	-3568
▁кило	-3569
▁нь	-3570
▁анг	-3571
▁был	-3572
▁кыла	-3573
▁гул	-3574
▁алба	-3575
▁рика	-3576
бү	-3577
▁70	-3578
▁елек	-3579
▁той	-3580
▁чөл	-3581
▁жүрө	-3582
▁t	-3583
▁ГЭС	-3584
▁сым	-3585
▁ачып	-3586
▁ысым	-3587
▁рында	-3588
▁бан	-3589
▁йбыз	-3590
▁ыйка	-3591
▁Каб	-3592
▁имп	-3593
▁штыр	-3594
▁шуна	-3595
▁аштыр	-3596
▁дус	-3597
▁наб	-3598
▁нка	-3599
▁урма	-3600
▁ыган	-3601
▁L	-3602
▁Мас	-3603
▁амы	-3604
▁нүү	-3605
▁алап	-3606
▁K	-3607
▁сма	-3608
▁сайт	-3609
▁елбей	-3610
▁ати	-3611
▁нген	-3612
▁лерге	-3613
▁Мак	-3614
▁кыймы	-3615
▁лия	-3616
▁ттүү	-3617
▁Эң	-3618
▁рв	-3619
▁ыйлы	-3620
▁o	-3621
▁Ли	-3622
▁аңг	-3623
лга	-3624
▁ора	-3625
▁тика	-3626
дун	-3627
▁ял	-3628
▁ече	-3629
▁перат	-3630
▁алан	-3631
▁үлүш	-3632
▁ңү	-3633
▁тамб	-3634
▁ереги	-3635
ССР	-3636
▁арлар	-3637
▁ылдыг	-3638
▁пы	-3639
▁маан	-3640
▁чи	-3641
▁здө	-3642
▁ирзи	-3643
▁бирин	-3644
▁лоого	-3645
▁аи	-3646
▁айла	-3647
▁исал	-3648
▁спе	-3649
▁дерге	-3650
▁рев	-3651
▁l	-3652
▁ечи	-3653
▁нап	-3654
▁есс	-3655
▁атак	-3656
▁үктө	-3657
▁ылышы	-3658
▁27	-3659
▁нче	-3660
▁азала	-3661
▁мына	-3662
▁гүндө	-3663
▁көпчү	-3664
▁23	-3665
▁абыр	-3666
▁адим	-3667
▁ачка	-3668
▁сунун	-3669
▁35	-3670
▁лугу	-3671
▁токо	-3672
▁неси	-3673
▁уруп	-3674
▁үйдө	-3675
▁ыруун	-3676
▁жал	-3677
▁ико	-3678
▁салыш	-3679
теш	-3680
▁26	-3681
▁аков	-3682
▁пост	-3683
▁инт	-3684
▁мис	-3685
▁осу	-3686
▁атына	-3687
▁мунун	-3688
▁ЕА	-3689
▁500	-3690
▁шип	-3691
▁етер	-3692
▁уа	-3693
▁ечит	-3694
▁луучу	-3695
▁рет	-3696
▁менти	-3697
▁айд	-3698
▁нор	-3699
▁умушт	-3700
ia	-3701
▁еси	-3702
▁жүрг	-3703
▁ката	-3704
▁жы	-3705
▁Ушу	-3706
▁мдүү	-3707
▁өлүк	-3708
▁күм	-3709
▁шун	-3710
▁кылы	-3711
▁чам	-3712
▁абар	-3713
▁кырсы	-3714
▁ганд	-3715
ябр	-3716
▁коло	-3717
сын	-3718
▁налык	-3719
▁үсү	-3720
▁ашып	-3721
▁ец	-3722
▁ырып	-3723
кинч	-3724
▁Сай	-3725
▁лиев	-3726
▁Экинч	-3727
▁кус	-3728
▁ЕАЭБ	-3729
▁абат	-3730
▁илек	-3731
▁ва	-3732
▁ита	-3733
▁екет	-3734
▁иясы	-3735
▁улда	-3736
▁арман	-3737
▁кри	-3738
кту	-3739
▁лов	-3740
▁ойн	-3741
▁шыл	-3742
▁икке	-3743
▁иргел	-3744
▁тым	-3745
▁лукту	-3746
▁үдө	-3747
▁ешкен	-3748
▁башы	-3749
▁акыры	-3750
▁кция	-3751
▁90	-3752
▁ерб	-3753
▁адагы	-3754
▁ирзиё	-3755
▁СССР	-3756
▁лга	-3757
▁арад	-3758
▁уча	-3759
▁арка	-3760
▁ндер	-3761
▁ылык	-3762
▁түүгө	-3763
▁пов	-3764
▁иги	-3765
▁куя	-3766
▁наа	-3767
▁ынч	-3768
▁үрт	-3769
▁етип	-3770
▁ынды	-3771
ула	-3772
▁Уюм	-3773
▁лорго	-3774
▁раган	-3775
▁сунан	-3776
▁пат	-3777
▁рон	-3778
▁ыгып	-3779
▁дыруу	-3780
▁иктин	-3781
▁Фи	-3782
▁оно	-3783
▁өлөм	-3784
▁арш	-3785
▁отч	-3786
▁чат	-3787
▁жете	-3788
▁арызд	-3789
▁D	-3790
▁асты	-3791
▁урат	-3792
▁мор	-3793
▁алп	-3794
▁арда	-3795
▁Пар	-3796
▁дур	-3797
▁йым	-3798
▁дика	-3799
▁рте	-3800
▁тили	-3801
▁ета	-3802
▁оюу	-3803
▁өзд	-3804
▁өлө	-3805
▁нтип	-3806
▁анада	-3807
ябрь	-3808
▁гуна	-3809
▁тябрь	-3810
▁жаң	-3811
▁e	-3812
▁ылт	-3813
▁ахм	-3814
▁улов	-3815
▁лбо	-3816
▁мит	-3817
▁куба	-3818
▁ылат	-3819
▁Сул	-3820
▁уру	-3821
▁база	-3822
▁кере	-3823
▁ыздын	-3824
▁оф	-3825
▁Сар	-3826
▁енди	-3827
▁муна	-3828
▁лиз	-3829
▁суп	-3830
▁инци	-3831
▁ндөй	-3832
▁рыла	-3833
▁аттын	-3834
▁Ne	-3835
▁идео	-3836
▁үлөт	-3837
▁28	-3838
▁Ким	-3839
▁еним	-3840
▁лдык	-3841
▁ид	-3842
▁риг	-3843
▁барды	-3844
▁Жу	-3845
▁ритан	-3846
▁ылына	-3847
▁g	-3848
▁зе	-3849
▁оюл	-3850
▁ауд	-3851
▁ити	-3852
▁рим	-3853
▁рмат	-3854
▁нуучу	-3855
во	-3856
▁нкт	-3857
▁нчө	-3858
▁уган	-3859
▁артык	-3860
▁тынан	-3861
▁геле	-3862
▁гөндө	-3863
▁ыртка	-3864
▁ух	-3865
▁аңд	-3866
▁ини	-3867
▁узга	-3868
▁бад	-3869
▁ерек	-3870
▁окат	-3871
▁алилд	-3872
▁аала	-3873
▁ирөө	-3874
▁коопт	-3875
▁ушкан	-3876
▁лоб	-3877
▁рах	-3878
▁алай	-3879
▁урду	-3880
▁ыя	-3881
▁ашы	-3882
▁реп	-3883
▁шүү	-3884
▁лдик	-3885
▁катчы	-3886
▁рге	-3887
▁урн	-3888
▁уя	-3889
▁кка	-3890
▁роз	-3891
in	-3892
сүн	-3893
▁утт	-3894
ве	-3895
▁ордо	-3896
▁лынын	-3897
▁Кан	-3898
▁усу	-3899
▁едиа	-3900
▁өрүл	-3901
▁Жол	-3902
▁чен	-3903
▁урасы	-3904
▁вс	-3905
▁ель	-3906
▁улд	-3907
▁өра	-3908
▁угуп	-3909
oo	-3910
▁зак	-3911
▁стана	-3912
▁опа	-3913
▁фт	-3914
▁бөйт	-3915
▁ердик	-3916
▁Дем	-3917
▁рап	-3918
▁амал	-3919
▁жо	-3920
▁льт	-3921
▁нти	-3922
▁мдун	-3923
▁дөп	-3924
▁зин	-3925
▁овду	-3926
▁жатты	-3927
▁үшкөн	-3928
▁өрага	-3929
ху	-3930
ut	-3931
▁йман	-3932
▁ртыл	-3933
▁рто	-3934
▁кла	-3935
▁елет	-3936
▁ырга	-3937
▁чүлөр	-3938
he	-3939
▁Иса	-3940
▁бакт	-3941
▁кылыш	-3942
▁er	-3943
▁кти	-3944
▁кыш	-3945
▁дугу	-3946
▁елги	-3947
▁онго	-3948
▁таты	-3949
▁ышын	-3950
▁штары	-3951
▁рчу	-3952
▁урда	-3953
▁Сам	-3954
▁коо	-3955
▁мгек	-3956
▁карыл	-3957
▁ров	-3958
▁ентяб	-3959
▁иктен	-3960
▁рк	-3961
▁ье	-3962
▁рбек	-3963
▁реа	-3964
▁тту	-3965
▁үйөө	-3966
▁үрдү	-3967
▁өөнү	-3968
▁вка	-3969
▁гени	-3970
▁үнүп	-3971
▁алдан	-3972
▁45	-3973
▁тро	-3974
▁имдик	-3975
▁шам	-3976
▁кташ	-3977
▁ндан	-3978
▁уста	-3979
▁рация	-3980
▁ымдар	-3981
▁ава	-3982
▁ейи	-3983
▁уюш	-3984
▁агып	-3985
▁көнү	-3986
▁Кыз	-3987
▁лаб	-3988
▁сер	-3989
▁иров	-3990
▁шунда	-3991
эл	-3992
▁m	-3993
▁Ге	-3994
▁илдик	-3995
▁це	-3996
▁300	-3997
▁мдө	-3998
▁жашы	-3999
▁калд	-4000
▁ндай	-4001
▁овго	-4002
▁арызы	-4003
▁дарга	-4004
Ko	-4005
▁ZKo	-4006
▁зун	-4007
▁үшүнө	-4008
▁нду	-4009
▁ним	-4010
▁екети	-4011
▁Ви	-4012
▁Тала	-4013
▁ардар	-4014
▁жайын	-4015
▁лууда	-4016
▁төрдү	-4017
ou	-4018
▁уруш	-4019
▁E	-4020
▁км	-4021
▁зим	-4022
▁өгө	-4023
▁утуп	-4024
▁лип	-4025
▁гиз	-4026
▁ева	-4027
▁аса	-4028
▁поз	-4029
▁лдуу	-4030
▁бю	-4031
▁хи	-4032
▁гай	-4033
▁ыры	-4034
▁ыша	-4035
▁акай	-4036
▁тунд	-4037
▁урас	-4038
▁андар	-4039
▁ато	-4040
▁ерм	-4041
▁кча	-4042
▁ыно	-4043
▁берки	-4044
▁Жон	-4045
▁арь	-4046
▁еде	-4047
▁тилин	-4048
▁ЖЭБ	-4049
▁скө	-4050
▁36	-4051
▁аде	-4052
▁акс	-4053
▁инал	-4054
▁пөй	-4055
▁ука	-4056
▁ЖККУ	-4057
▁дайын	-4058
▁33	-4059
▁Үч	-4060
▁вет	-4061
▁анде	-4062
▁ранда	-4063
▁тет	-4064
▁байла	-4065
▁d	-4066
▁кг	-4067
▁анти	-4068
▁рит	-4069
▁лдер	-4070
▁ттык	-4071
▁аштык	-4072
▁лис	-4073
▁ртүү	-4074
▁ылбай	-4075
▁O	-4076
▁Эм	-4077
▁фа	-4078
▁лкө	-4079
▁ирди	-4080
▁инанс	-4081
▁рд	-4082
▁ейм	-4083
▁нам	-4084
▁рчы	-4085
▁екте	-4086
▁Сиз	-4087
▁шил	-4088
▁енция	-4089
▁b	-4090
▁оби	-4091
▁вари	-4092
▁дөрүн	-4093
▁уттук	-4094
▁X	-4095
▁еби	-4096
▁ккан	-4097
▁уй	-4098
▁сто	-4099
▁ашына	-4100
▁уулан	-4101
▁алия	-4102
▁рдын	-4103
▁акал	-4104
▁тапт	-4105
▁тект	-4106
▁йка	-4107
▁тим	-4108
▁ндүр	-4109
▁32	-4110
ылмы	-4111
▁кты	-4112
▁лым	-4113
▁каба	-4114
▁Кылмы	-4115
▁норма	-4116
▁сей	-4117
▁ясы	-4118
▁аард	-4119
▁күрө	-4120
▁орук	-4121
or	-4122
▁йле	-4123
▁кчил	-4124
ед	-4125
ону	-4126
▁сти	-4127
▁тиш	-4128
▁нис	-4129
▁иева	-4130
▁көмү	-4131
▁ликт	-4132
▁үрүл	-4133
▁өөдө	-4134
▁In	-4135
▁сон	-4136
▁баал	-4137
▁ипло	-4138
▁имдер	-4139
▁иясын	-4140
▁1,5	-4141
▁аам	-4142
▁нбек	-4143
▁ынчы	-4144
▁зү	-4145
▁орон	-4146
▁айдын	-4147
▁стиц	-4148
▁ушту	-4149
▁атив	-4150
▁нышы	-4151
▁аланы	-4152
▁манов	-4153
▁улушу	-4154
▁ебе	-4155
▁лди	-4156
▁абыл	-4157
▁енде	-4158
▁лыгын	-4159
▁Ку	-4160
▁рид	-4161
▁кыйк	-4162
▁талат	-4163
ce	-4164
▁мда	-4165
▁етин	-4166
▁илиш	-4167
▁берб	-4168
▁енен	-4169
▁манк	-4170
▁зд	-4171
▁Мир	-4172
▁кей	-4173
▁куб	-4174
▁лав	-4175
▁улга	-4176
▁автор	-4177
▁одекс	-4178
▁чаб	-4179
▁етет	-4180
▁ктеш	-4181
▁теби	-4182
▁тыгын	-4183
ха	-4184
▁мды	-4185
▁төт	-4186
▁өгү	-4187
▁беке	-4188
▁стика	-4189
▁үүсүн	-4190
▁жд	-4191
▁лиш	-4192
▁акта	-4193
▁шону	-4194
▁елгил	-4195
▁ате	-4196
▁ост	-4197
▁рул	-4198
▁Каза	-4199
▁ойго	-4200
▁Го	-4201
сун	-4202
▁йн	-4203
▁үндөр	-4204
▁Эч	-4205
▁емо	-4206
▁уст	-4207
▁кады	-4208
▁оодо	-4209
▁социа	-4210
ov	-4211
▁75	-4212
▁птө	-4213
▁ткы	-4214
▁ууп	-4215
▁ериле	-4216
▁kg	-4217
▁Кээ	-4218
▁кут	-4219
▁ндын	-4220
▁табы	-4221
▁тист	-4222
▁ква	-4223
▁оба	-4224
▁жашта	-4225
▁сөзүн	-4226
▁нс	-4227
▁огу	-4228
▁чан	-4229
▁Жам	-4230
▁коё	-4231
▁ном	-4232
▁ышт	-4233
▁кчы	-4234
▁рен	-4235
▁гиле	-4236
▁танды	-4237
▁айк	-4238
▁аныб	-4239
▁били	-4240
▁үд	-4241
▁омдо	-4242
▁аатта	-4243
▁абай	-4244
▁аркы	-4245
▁тала	-4246
▁ектүү	-4247
▁отчет	-4248
▁йг	-4249
▁рч	-4250
▁арб	-4251
▁тка	-4252
▁ште	-4253
▁өнүк	-4254
▁V	-4255
нев	-4256
▁Te	-4257
▁кысы	-4258
le	-4259
▁29	-4260
▁янс	-4261
▁арлы	-4262
▁туру	-4263
▁Re	-4264
▁инд	-4265
▁ууд	-4266
▁онуу	-4267
▁режи	-4268
▁этно	-4269
▁өктөш	-4270
ина	-4271
▁31	-4272
▁34	-4273
▁ека	-4274
▁кармо	-4275
▁мелер	-4276
▁тышуу	-4277
зы	-4278
▁ице	-4279
▁ума	-4280
▁ирүү	-4281
▁капи	-4282
▁лдин	-4283
▁1,	-4284
▁мп	-4285
▁арс	-4286
▁око	-4287
▁алил	-4288
▁чекте	-4289
▁урак	-4290
ta	-4291
▁орк	-4292
▁ынты	-4293
▁өндө	-4294
▁макта	-4295
▁ео	-4296
▁анс	-4297
▁бий	-4298
▁ракт	-4299
▁лыкка	-4300
▁зч	-4301
невм	-4302
▁вич	-4303
▁өзгө	-4304
▁ое	-4305
▁New	-4306
▁гам	-4307
▁року	-4308
▁чиси	-4309
▁урган	-4310
ch	-4311
▁Y	-4312
▁аныш	-4313
▁иреш	-4314
▁мдын	-4315
▁ранс	-4316
▁u	-4317
▁48	-4318
▁ени	-4319
▁ндү	-4320
▁аада	-4321
▁рдин	-4322
▁сыйл	-4323
▁ордун	-4324
▁уусун	-4325
▁Май	-4326
▁ыргы	-4327
▁рал	-4328
▁логи	-4329
▁поли	-4330
▁алмак	-4331
ДП	-4332
▁44	-4333
▁уга	-4334
▁екст	-4335
▁здын	-4336
▁крим	-4337
▁ндык	-4338
▁экинч	-4339
▁йд	-4340
▁Фин	-4341
▁енг	-4342
▁зиз	-4343
▁онд	-4344
▁эмге	-4345
▁оциал	-4346
▁агын	-4347
▁тыны	-4348
▁дилет	-4349
▁рмасы	-4350
▁нч	-4351
▁150	-4352
▁былга	-4353
▁ng	-4354
▁иф	-4355
▁хм	-4356
аси	-4357
▁чки	-4358
▁айык	-4359
▁арап	-4360
▁атам	-4361
▁гиси	-4362
▁наны	-4363
▁лугун	-4364
▁түндү	-4365
▁йс	-4366
▁сыл	-4367
▁лү	-4368
▁бут	-4369
▁гуу	-4370
▁яна	-4371
▁иктер	-4372
▁кту	-4373
▁лгө	-4374
▁рде	-4375
▁тра	-4376
▁үштү	-4377
▁нбаев	-4378
▁аягы	-4379
▁38	-4380
▁От	-4381
▁Бак	-4382
▁лда	-4383
▁дери	-4384
▁майы	-4385
▁стор	-4386
▁дерин	-4387
▁ИМ	-4388
▁шаш	-4389
▁аржы	-4390
▁боор	-4391
▁Тай	-4392
▁ойдо	-4393
▁парк	-4394
▁ектор	-4395
▁лот	-4396
▁стө	-4397
▁ймак	-4398
▁кинд	-4399
▁нуна	-4400
▁рман	-4401
al	-4402
▁үг	-4403
▁кым	-4404
▁овдун	-4405
▁тырып	-4406
▁КМШ	-4407
▁айсы	-4408
▁лкөдө	-4409
▁лөрүн	-4410
▁өрүнө	-4411
▁йин	-4412
▁олиц	-4413
▁слав	-4414
▁тайт	-4415
▁аалар	-4416
▁700	-4417
▁мам	-4418
▁мчу	-4419
▁онг	-4420
▁алиц	-4421
▁рлары	-4422
▁55	-4423
▁лм	-4424
▁пин	-4425
▁үчө	-4426
▁аяна	-4427
▁ктив	-4428
▁гонун	-4429
▁дорду	-4430
ад	-4431
оз	-4432
ияз	-4433
она	-4434
▁Су	-4435
▁осо	-4436
▁пет	-4437
▁акто	-4438
▁атке	-4439
▁рлар	-4440
▁башын	-4441
▁олору	-4442
▁пневм	-4443
ийи	-4444
▁ңд	-4445
▁онт	-4446
▁тинг	-4447
▁шамал	-4448
▁аил	-4449
▁ырд	-4450
▁гына	-4451
▁мдуу	-4452
▁Те	-4453
▁дың	-4454
▁үзө	-4455
▁оода	-4456
▁өрүш	-4457
▁айс	-4458
▁жыр	-4459
▁сүр	-4460
▁лдук	-4461
хта	-4462
▁65	-4463
▁дия	-4464
▁мди	-4465
▁унд	-4466
▁нгөн	-4467
▁ража	-4468
▁37	-4469
▁ят	-4470
▁лүп	-4471
▁нвар	-4472
▁рама	-4473
▁угуш	-4474
▁атпай	-4475
▁урнал	-4476
▁эн	-4477
▁арч	-4478
▁өбү	-4479
▁акул	-4480
▁кеме	-4481
▁ессия	-4482
▁ыгына	-4483
▁ете	-4484
▁менд	-4485
▁сыны	-4486
▁шташ	-4487
▁ыйла	-4488
ТР	-4489
▁нж	-4490
▁рево	-4491
▁Жыл	-4492
▁нак	-4493
▁андал	-4494
▁отург	-4495
▁очула	-4496
уб	-4497
▁U	-4498
ында	-4499
▁агыл	-4500
▁арал	-4501
▁жыйы	-4502
▁коом	-4503
▁лбоор	-4504
▁лигин	-4505
▁чакта	-4506
▁ув	-4507
▁уштуу	-4508
жи	-4509
▁пч	-4510
▁кунд	-4511
▁машы	-4512
▁тура	-4513
▁дахан	-4514
▁уюшту	-4515
▁Кал	-4516
▁Алма	-4517
▁ырка	-4518
ура	-4519
▁Чет	-4520
▁рки	-4521
▁акка	-4522
▁сузд	-4523
▁ыйна	-4524
▁даган	-4525
ах	-4526
▁41	-4527
▁тма	-4528
▁шер	-4529
▁ашат	-4530
▁плат	-4531
▁МК	-4532
▁ры	-4533
▁гүү	-4534
▁лерде	-4535
▁налда	-4536
▁эш	-4537
▁лиг	-4538
▁жайы	-4539
▁кенем	-4540
өз	-4541
▁400	-4542
▁оорон	-4543
▁түүнү	-4544
▁верд	-4545
▁үмдү	-4546
▁иплом	-4547
▁енб	-4548
▁эмд	-4549
▁анар	-4550
▁Ti	-4551
▁Чо	-4552
▁Наз	-4553
▁мов	-4554
▁ашин	-4555
▁Нияз	-4556
▁екси	-4557
▁лини	-4558
▁түшү	-4559
▁чир	-4560
▁ызы	-4561
▁акшы	-4562
▁ктан	-4563
▁расы	-4564
▁шери	-4565
▁салма	-4566
▁ченем	-4567
ард	-4568
▁ганга	-4569
Вт	-4570
▁rn	-4571
▁юу	-4572
▁араб	-4573
▁рг	-4574
▁тыя	-4575
▁айпа	-4576
▁прел	-4577
▁сизд	-4578
▁өндөр	-4579
▁42	-4580
▁масы	-4581
▁ликте	-4582
▁мекте	-4583
▁улугу	-4584
▁The	-4585
▁раш	-4586
▁Кийи	-4587
▁згөн	-4588
▁уура	-4589
▁үрүм	-4590
▁рилди	-4591
▁аак	-4592
▁йдө	-4593
▁чүн	-4594
▁үгө	-4595
▁инди	-4596
▁тыруу	-4597
▁рю	-4598
▁чуу	-4599
▁арых	-4600
▁жуму	-4601
▁ураг	-4602
▁урсу	-4603
▁генде	-4604
▁коомч	-4605
▁чүнчү	-4606
ty	-4607
▁ers	-4608
▁чур	-4609
▁үбү	-4610
▁амир	-4611
▁нес	-4612
▁род	-4613
▁шен	-4614
▁айсал	-4615
▁актоо	-4616
▁ургак	-4617
▁бло	-4618
▁мпа	-4619
▁ске	-4620
▁форм	-4621
▁ылда	-4622
▁зона	-4623
▁рдүү	-4624
▁тааси	-4625
▁Бай	-4626
▁йла	-4627
▁оне	-4628
▁рад	-4629
▁грац	-4630
▁идин	-4631
▁ринде	-4632
▁лк	-4633
▁айн	-4634
▁мдөр	-4635
▁Мында	-4636
▁айтар	-4637
▁ялдар	-4638
te	-4639
▁43	-4640
▁аби	-4641
▁окко	-4642
▁эшик	-4643
▁көрүш	-4644
▁еже	-4645
▁мөк	-4646
▁чин	-4647
▁ьер	-4648
▁сиял	-4649
▁кырыл	-4650
▁Жоо	-4651
▁рке	-4652
▁укту	-4653
▁лл	-4654
▁аим	-4655
▁ппоз	-4656
▁рамы	-4657
▁пп	-4658
▁Дал	-4659
▁рез	-4660
▁уда	-4661
▁кмөн	-4662
▁ктөр	-4663
▁39	-4664
▁жөө	-4665
▁алаш	-4666
▁амак	-4667
▁билд	-4668
▁гүнө	-4669
▁ерли	-4670
▁етүү	-4671
▁оюнч	-4672
ha	-4673
re	-4674
▁47	-4675
▁бел	-4676
▁анды	-4677
▁ешти	-4678
▁имде	-4679
▁етине	-4680
▁ача	-4681
▁ерг	-4682
▁угу	-4683
▁өңү	-4684
▁лүгүн	-4685
▁тында	-4686
▁Reut	-4687
▁көрү	-4688
▁таба	-4689
▁кесеп	-4690
▁нз	-4691
▁бун	-4692
▁лак	-4693
▁өшө	-4694
▁Токт	-4695
▁клуб	-4696
▁мдук	-4697
▁бри	-4698
▁муш	-4699
▁нко	-4700
▁бюро	-4701
▁ектел	-4702
▁ектен	-4703
▁калыш	-4704
▁иңи	-4705
▁лея	-4706
▁тпө	-4707
▁олуг	-4708
▁лыкты	-4709
▁Ил	-4710
▁Ошон	-4711
▁акси	-4712
▁аркат	-4713
▁ату	-4714
▁мду	-4715
▁мик	-4716
▁ыбы	-4717
▁ялы	-4718
▁амил	-4719
▁икте	-4720
▁птер	-4721
▁ырыл	-4722
▁үлөр	-4723
▁йк	-4724
▁Лит	-4725
▁дио	-4726
▁бойт	-4727
▁түрүү	-4728
▁тты	-4729
▁блус	-4730
▁босо	-4731
▁йдар	-4732
▁кпай	-4733
▁тран	-4734
▁Мур	-4735
▁алг	-4736
▁етр	-4737
▁өлү	-4738
▁етпе	-4739
▁жагы	-4740
▁меси	-4741
▁олуп	-4742
▁омго	-4743
▁актар	-4744
▁арага	-4745
▁учуру	-4746
▁еф	-4747
▁йлы	-4748
▁арти	-4749
▁ирде	-4750
зо	-4751
▁юл	-4752
▁ний	-4753
▁нте	-4754
▁урд	-4755
▁чий	-4756
▁идея	-4757
▁гор	-4758
▁пад	-4759
▁анас	-4760
▁ариу	-4761
▁ремь	-4762
▁улук	-4763
▁үйлө	-4764
▁ктагы	-4765
li	-4766
тө	-4767
▁шык	-4768
▁өчү	-4769
▁айкы	-4770
▁кура	-4771
▁үрөө	-4772
▁ида	-4773
▁еков	-4774
▁ыймы	-4775
▁85	-4776
▁иви	-4777
▁шем	-4778
▁адио	-4779
▁кезе	-4780
▁отуз	-4781
▁шуун	-4782
▁ерине	-4783
▁йна	-4784
▁пыс	-4785
▁сул	-4786
▁ыда	-4787
▁ранц	-4788
▁штур	-4789
▁аарын	-4790
▁үмдөр	-4791
юр	-4792
▁Ин	-4793
▁ипот	-4794
ёр	-4795
▁рп	-4796
▁орис	-4797
▁чыкк	-4798
▁агасы	-4799
▁зу	-4800
▁хо	-4801
▁арл	-4802
▁йып	-4803
▁раа	-4804
▁езде	-4805
▁кери	-4806
▁ыпты	-4807
▁еттүү	-4808
▁апо	-4809
▁араң	-4810
▁дини	-4811
▁лгач	-4812
▁ранды	-4813
st	-4814
▁кко	-4815
▁алма	-4816
▁енип	-4817
▁ышкы	-4818
▁Он	-4819
▁Шар	-4820
▁жек	-4821
▁кое	-4822
▁ачар	-4823
▁Литва	-4824
▁шемби	-4825
▁ох	-4826
▁гно	-4827
▁есе	-4828
▁берг	-4829
▁стик	-4830
▁үйүн	-4831
▁устар	-4832
▁al	-4833
▁ажи	-4834
▁тиг	-4835
▁үбө	-4836
▁жазы	-4837
▁ипте	-4838
▁Кыл	-4839
▁ром	-4840
▁емби	-4841
▁уса	-4842
▁Мени	-4843
▁елди	-4844
▁уман	-4845
▁упай	-4846
▁тирил	-4847
▁54	-4848
▁йч	-4849
▁ше	-4850
▁отто	-4851
▁тага	-4852
▁ыктал	-4853
et	-4854
фа	-4855
▁гынд	-4856
▁кырк	-4857
▁талы	-4858
▁диц	-4859
▁ерд	-4860
▁куу	-4861
▁оюп	-4862
▁рсу	-4863
▁тац	-4864
▁ынб	-4865
▁ээр	-4866
▁анкт	-4867
▁арчы	-4868
▁ексу	-4869
▁өрбө	-4870
▁зүндө	-4871
▁2,5	-4872
▁ако	-4873
▁дүң	-4874
▁рав	-4875
▁сси	-4876
▁балы	-4877
▁бөгө	-4878
▁рина	-4879
▁циал	-4880
▁ишкен	-4881
▁лоочу	-4882
▁on	-4883
▁КС	-4884
▁оц	-4885
▁Айр	-4886
▁Тур	-4887
▁урч	-4888
▁чүү	-4889
▁ыгер	-4890
▁мпани	-4891
om	-4892
▁[	-4893
▁ынд	-4894
▁Отун	-4895
▁акти	-4896
▁рста	-4897
▁ыкчы	-4898
▁атайы	-4899
▁ондой	-4900
▁тыкка	-4901
BC	-4902
▁кб	-4903
▁ья	-4904
▁иле	-4905
▁унуш	-4906
▁гынан	-4907
▁мыш	-4908
▁рба	-4909
▁түг	-4910
▁атег	-4911
▁геме	-4912
▁идер	-4913
▁ктүү	-4914
▁мини	-4915
▁рлору	-4916
▁тайы	-4917
▁рш	-4918
▁нты	-4919
▁ног	-4920
▁акту	-4921
▁асыл	-4922
▁үзүл	-4923
▁айрыл	-4924
▁сумма	-4925
▁]	-4926
▁вто	-4927
▁лес	-4928
▁лит	-4929
▁моо	-4930
▁мтө	-4931
▁обс	-4932
▁элге	-4933
▁элчи	-4934
▁өтүш	-4935
▁атура	-4936
▁торду	-4937
mi	-4938
▁600	-4939
▁вге	-4940
▁ена	-4941
▁мга	-4942
▁News	-4943
▁Тали	-4944
▁урун	-4945
▁часы	-4946
▁тарма	-4947
ht	-4948
рис	-4949
▁өй	-4950
▁гил	-4951
▁омо	-4952
▁рчи	-4953
▁КСДП	-4954
▁енже	-4955
▁артия	-4956
▁басыл	-4957
▁вид	-4958
▁таз	-4959
▁фин	-4960
▁лине	-4961
▁ндаш	-4962
▁ыгыл	-4963
▁күчтө	-4964
▁септе	-4965
фи	-4966
▁62	-4967
▁мүн	-4968
▁шуп	-4969
▁ртка	-4970
▁верси	-4971
▁2,	-4972
▁58	-4973
▁ха	-4974
▁боз	-4975
▁илг	-4976
▁ксы	-4977
▁пто	-4978
▁чус	-4979
▁яны	-4980
▁елүү	-4981
▁нелер	-4982
▁сх	-4983
▁кайд	-4984
▁окку	-4985
▁рази	-4986
▁ранд	-4987
▁кирге	-4988
▁коман	-4989
▁Бей	-4990
▁дес	-4991
▁алим	-4992
▁анты	-4993
▁берд	-4994
▁кант	-4995
▁лиши	-4996
▁мсыз	-4997
юс	-4998
▁52	-4999
▁Не	-5000
▁кра	-5001
▁рча	-5002
▁алыгы	-5003
▁калем	-5004
эн	-5005
зин	-5006
▁46	-5007
▁Же	-5008
▁Сөз	-5009
▁амга	-5010
▁орго	-5011
▁сары	-5012
▁үрүп	-5013
▁налар	-5014
зел	-5015
кел	-5016
▁53	-5017
▁мм	-5018
▁дуг	-5019
▁ндо	-5020
▁эпо	-5021
▁асык	-5022
▁ыштар	-5023
▁49	-5024
▁57	-5025
▁Чоң	-5026
▁бог	-5027
▁сап	-5028
▁уту	-5029
▁гине	-5030
▁екчи	-5031
▁мада	-5032
▁рюсс	-5033
▁жанын	-5034
▁чинов	-5035
be	-5036
▁J	-5037
▁63	-5038
▁зө	-5039
▁Tim	-5040
▁пак	-5041
▁цен	-5042
▁елиш	-5043
▁енти	-5044
▁игине	-5045
▁инара	-5046
▁лышын	-5047
▁реван	-5048
▁талды	-5049
▁120	-5050
▁рыш	-5051
▁лими	-5052
▁ызма	-5053
▁Шам	-5054
▁соц	-5055
▁өчө	-5056
▁сала	-5057
▁терн	-5058
▁үзүп	-5059
▁оорло	-5060
▁v	-5061
▁68	-5062
▁рү	-5063
▁Инд	-5064
▁йли	-5065
▁Inte	-5066
▁азак	-5067
▁лана	-5068
▁пция	-5069
▁өрсө	-5070
▁ардаг	-5071
▁лгону	-5072
▁пта	-5073
▁шир	-5074
▁ахна	-5075
▁кадр	-5076
▁ктын	-5077
▁лашы	-5078
▁туту	-5079
▁үрмө	-5080
▁кенди	-5081
▁отста	-5082
▁нас	-5083
▁тес	-5084
▁эри	-5085
▁исте	-5086
▁чусу	-5087
▁абзел	-5088
▁51	-5089
▁рж	-5090
▁езд	-5091
▁узд	-5092
▁Роза	-5093
▁рхан	-5094
▁айлоо	-5095
▁лоодо	-5096
ri	-5097
▁Ла	-5098
▁яд	-5099
▁елис	-5100
▁күйө	-5101
▁лара	-5102
▁истан	-5103
▁лкала	-5104
▁лоону	-5105
▁шө	-5106
▁енд	-5107
▁ерч	-5108
▁уши	-5109
▁Меке	-5110
▁спор	-5111
▁ымда	-5112
▁калар	-5113
▁ойгон	-5114
▁нве	-5115
▁ңде	-5116
▁рати	-5117
▁Шарше	-5118
▁рунда	-5119
тел	-5120
▁Көз	-5121
▁пот	-5122
▁поэ	-5123
▁сип	-5124
▁ттын	-5125
▁уроо	-5126
▁штын	-5127
▁ордук	-5128
ёт	-5129
лан	-5130
▁Дин	-5131
▁лөп	-5132
▁тада	-5133
▁ышта	-5134
▁Бизди	-5135
▁абалд	-5136
▁шарке	-5137
▁Кы	-5138
▁АЭС	-5139
▁аши	-5140
▁көк	-5141
▁эст	-5142
▁инст	-5143
▁лүкт	-5144
▁угат	-5145
▁ургун	-5146
▁77	-5147
▁Беш	-5148
▁над	-5149
▁ярд	-5150
▁алгы	-5151
▁нста	-5152
▁ШКУ	-5153
▁азы	-5154
▁зди	-5155
▁иет	-5156
▁лса	-5157
▁үрб	-5158
▁асса	-5159
▁ерим	-5160
Эл	-5161
▁нк	-5162
▁нга	-5163
▁алоо	-5164
▁ерти	-5165
▁Times	-5166
▁дарда	-5167
Ак	-5168
▁56	-5169
▁кц	-5170
▁ело	-5171
▁иан	-5172
▁куп	-5173
▁айке	-5174
▁емин	-5175
▁импе	-5176
▁санд	-5177
▁трат	-5178
▁амбар	-5179
ТРК	-5180
▁асп	-5181
▁гат	-5182
▁мча	-5183
▁уни	-5184
▁айка	-5185
▁гноз	-5186
▁мдер	-5187
▁ылым	-5188
▁дикти	-5189
▁ижара	-5190
сан	-5191
▁ачы	-5192
▁көт	-5193
▁мбе	-5194
▁нот	-5195
▁ЕККУ	-5196
▁стык	-5197
▁ылга	-5198
▁ензин	-5199
▁идерл	-5200
▁лли	-5201
▁нөт	-5202
▁ови	-5203
▁илге	-5204
▁каал	-5205
▁ндун	-5206
▁ндуу	-5207
▁доого	-5208
▁лүктү	-5209
▁оодон	-5210
▁рүүчү	-5211
▁шууда	-5212
id	-5213
▁наш	-5214
▁тел	-5215
▁амас	-5216
▁схак	-5217
▁аарла	-5218
▁ердин	-5219
▁Hu	-5220
▁фу	-5221
▁екс	-5222
▁иге	-5223
▁кВт	-5224
▁ори	-5225
▁роф	-5226
▁ырч	-5227
▁адах	-5228
▁лген	-5229
▁мене	-5230
▁птал	-5231
▁аптар	-5232
оло	-5233
▁gra	-5234
▁анц	-5235
▁бин	-5236
▁вард	-5237
▁рези	-5238
▁утту	-5239
▁анали	-5240
▁тк	-5241
▁кво	-5242
▁едиц	-5243
▁жалд	-5244
▁номи	-5245
▁олук	-5246
▁оюнда	-5247
▁потен	-5248
▁250	-5249
▁буюр	-5250
▁збек	-5251
▁окто	-5252
▁оону	-5253
▁оосу	-5254
▁отун	-5255
▁птыр	-5256
▁анына	-5257
▁болор	-5258
▁73	-5259
▁ЖА	-5260
▁улг	-5261
▁шет	-5262
▁үлө	-5263
▁дети	-5264
▁доза	-5265
▁канд	-5266
▁куру	-5267
▁обуш	-5268
▁сага	-5269
▁ышып	-5270
▁дарыл	-5271
▁ликке	-5272
▁Ра	-5273
▁BBC	-5274
▁анч	-5275
▁йыр	-5276
▁итет	-5277
▁каты	-5278
▁келд	-5279
▁мара	-5280
▁ашкар	-5281
▁тисти	-5282
▁IT	-5283
үнүн	-5284
▁Кол	-5285
▁коз	-5286
▁алли	-5287
▁егин	-5288
▁мист	-5289
▁тбек	-5290
▁унду	-5291
▁ымдуу	-5292
▁үүнүн	-5293
▁Ri	-5294
▁айо	-5295
▁алл	-5296
▁ике	-5297
▁омп	-5298
▁шот	-5299
▁елин	-5300
▁етал	-5301
▁рлик	-5302
▁тымы	-5303
▁квота	-5304
КМ	-5305
▁тпа	-5306
▁арий	-5307
▁ыкыр	-5308
▁анари	-5309
▁жерин	-5310
▁өөнүн	-5311
▁61	-5312
▁You	-5313
▁кич	-5314
▁маг	-5315
▁рса	-5316
▁урб	-5317
▁зоди	-5318
▁ганды	-5319
▁лөргө	-5320
▁мбаев	-5321
man	-5322
▁59	-5323
▁67	-5324
▁еа	-5325
▁гол	-5326
▁лдо	-5327
▁мөт	-5328
▁ыба	-5329
▁десса	-5330
▁ирлер	-5331
ИЧ	-5332
loo	-5333
оля	-5334
▁дж	-5335
▁эж	-5336
▁аке	-5337
▁ттө	-5338
▁яху	-5339
▁ашуу	-5340
▁ктер	-5341
▁дугун	-5342
ace	-5343
ent	-5344
▁ЦА	-5345
▁мдү	-5346
▁айры	-5347
▁апел	-5348
▁енат	-5349
▁ента	-5350
▁мисс	-5351
▁ртып	-5352
▁Талиб	-5353
▁жагын	-5354
▁ВИЧ	-5355
▁Топ	-5356
▁ики	-5357
▁раге	-5358
ir	-5359
▁̆	-5360
▁72	-5361
▁гар	-5362
▁лты	-5363
▁рик	-5364
▁шти	-5365
▁арынд	-5366
▁мында	-5367
▁ондор	-5368
АЛ	-5369
ере	-5370
шиг	-5371
▁асс	-5372
▁гым	-5373
▁ега	-5374
▁зүм	-5375
▁чта	-5376
▁итеп	-5377
▁ниет	-5378
▁птеш	-5379
▁андык	-5380
▁енген	-5381
ol	-5382
хоз	-5383
▁3,	-5384
▁Ри	-5385
▁изи	-5386
▁либ	-5387
▁етик	-5388
▁ндин	-5389
▁ташы	-5390
▁армал	-5391
▁елери	-5392
ша	-5393
эр	-5394
ube	-5395
▁64	-5396
▁Кир	-5397
▁ЦАХ	-5398
▁нөк	-5399
▁она	-5400
▁ырл	-5401
▁ыкта	-5402
▁луусу	-5403
▁резид	-5404
▁Кү	-5405
▁Мед	-5406
▁гүз	-5407
▁йза	-5408
▁най	-5409
▁rnat	-5410
▁аршы	-5411
▁крат	-5412
▁лдар	-5413
▁76	-5414
▁елд	-5415
▁нна	-5416
▁чей	-5417
▁апса	-5418
▁атов	-5419
▁изди	-5420
▁рага	-5421
▁ЦАХАЛ	-5422
▁айдоо	-5423
▁жеп	-5424
▁жою	-5425
▁тчы	-5426
▁ыла	-5427
▁маны	-5428
▁стон	-5429
▁андын	-5430
▁жөнүн	-5431
▁ыккан	-5432
ав	-5433
▁w	-5434
▁зын	-5435
▁гону	-5436
▁жард	-5437
▁лимп	-5438
▁мани	-5439
▁нова	-5440
▁шкен	-5441
▁ептел	-5442
▁4-	-5443
▁or	-5444
▁Лю	-5445
▁йб	-5446
▁сф	-5447
▁800	-5448
▁дел	-5449
▁үрд	-5450
▁алал	-5451
▁згөр	-5452
▁рдун	-5453
▁өкмө	-5454
ИБ	-5455
мен	-5456
▁71	-5457
▁95	-5458
▁мн	-5459
▁ДСС	-5460
▁ела	-5461
▁рел	-5462
▁чкы	-5463
▁нике	-5464
▁штаг	-5465
▁налга	-5466
▁урсан	-5467
ar	-5468
▁80%	-5469
▁Сан	-5470
▁гус	-5471
▁лчу	-5472
▁ДССУ	-5473
▁араз	-5474
▁онун	-5475
▁аррис	-5476
▁улары	-5477
ve	-5478
▁z	-5479
▁ѳ	-5480
▁78	-5481
▁II	-5482
▁Да	-5483
▁абр	-5484
▁рея	-5485
▁стү	-5486
▁айыт	-5487
▁пате	-5488
▁ылба	-5489
▁ыска	-5490
▁өткү	-5491
▁парат	-5492
▁раилд	-5493
▁текте	-5494
▁рз	-5495
▁ирс	-5496
▁нчи	-5497
▁оон	-5498
▁сүт	-5499
▁күлд	-5500
▁эпос	-5501
▁үлдө	-5502
▁индер	-5503
▁кинди	-5504
▁Пр	-5505
▁Уч	-5506
▁ано	-5507
▁иль	-5508
▁кис	-5509
▁лад	-5510
▁Сады	-5511
▁өөлө	-5512
▁дөрдү	-5513
▁курма	-5514
ro	-5515
ess	-5516
▁Ту	-5517
▁илб	-5518
▁теп	-5519
▁уду	-5520
▁азап	-5521
▁елим	-5522
▁зала	-5523
▁цион	-5524
▁айыны	-5525
▁артта	-5526
▁ериал	-5527
ne	-5528
ght	-5529
▁VI	-5530
▁РИ	-5531
▁Ти	-5532
▁ваг	-5533
▁даг	-5534
▁ейб	-5535
▁уму	-5536
▁адат	-5537
▁азып	-5538
▁ерди	-5539
▁рлор	-5540
▁сман	-5541
▁увере	-5542
▁уулун	-5543
▁66	-5544
▁ае	-5545
▁Кли	-5546
▁алч	-5547
▁амг	-5548
▁gram	-5549
▁дикт	-5550
▁опту	-5551
▁отор	-5552
▁ырын	-5553
▁элин	-5554
▁Human	-5555
▁Wat	-5556
▁Чыг	-5557
▁ици	-5558
▁шин	-5559
▁Өзү	-5560
▁аева	-5561
▁жазд	-5562
▁ирус	-5563
▁лдаш	-5564
▁Right	-5565
▁чынын	-5566
▁69	-5567
▁As	-5568
▁Хи	-5569
▁уль	-5570
▁ыял	-5571
▁азыл	-5572
▁алыг	-5573
▁лдын	-5574
▁чогу	-5575
▁изоля	-5576
▁ындап	-5577
el	-5578
бун	-5579
▁84	-5580
▁Cov	-5581
▁Хан	-5582
▁үзү	-5583
▁айни	-5584
▁амын	-5585
▁етро	-5586
▁ибер	-5587
▁лайы	-5588
▁оомду	-5589
▁урнир	-5590
▁шайке	-5591
▁ынчыл	-5592
fi	-5593
хай	-5594
▁имм	-5595
▁мүр	-5596
▁неп	-5597
▁грек	-5598
▁ияда	-5599
▁кова	-5600
▁куту	-5601
▁мдан	-5602
▁ресе	-5603
▁ттөр	-5604
▁индин	-5605
▁кымба	-5606
▁отчёт	-5607
▁тобун	-5608
▁тоого	-5609
▁Ша	-5610
▁Акы	-5611
▁код	-5612
▁кте	-5613
▁ржа	-5614
▁том	-5615
▁ирич	-5616
▁мдин	-5617
▁оман	-5618
▁пайы	-5619
▁Watch	-5620
▁ндыгы	-5621
▁тинде	-5622
▁үлөрү	-5623
ed	-5624
▁3-	-5625
▁ие	-5626
▁чт	-5627
▁30%	-5628
▁йүн	-5629
▁ыму	-5630
▁втор	-5631
▁зилд	-5632
▁иеше	-5633
▁көлө	-5634
▁мана	-5635
▁манб	-5636
▁Sp	-5637
▁50%	-5638
▁зил	-5639
▁нди	-5640
▁узи	-5641
▁чар	-5642
▁икти	-5643
▁ланд	-5644
▁ентте	-5645
▁илдер	-5646
▁күчүн	-5647
▁раван	-5648
pp	-5649
▁2-	-5650
▁гд	-5651
▁йи	-5652
▁000	-5653
▁Жаш	-5654
▁аси	-5655
▁ктө	-5656
▁кум	-5657
▁нел	-5658
▁шак	-5659
▁үрү	-5660
▁амен	-5661
▁арып	-5662
▁кечи	-5663
▁лова	-5664
▁ойду	-5665
▁шала	-5666
▁берге	-5667
▁малды	-5668
▁олуна	-5669
▁ржава	-5670
▁Раз	-5671
▁теб	-5672
▁беге	-5673
▁ласы	-5674
▁рпус	-5675
▁абылд	-5676
▁ФС	-5677
▁Лат	-5678
▁аме	-5679
▁мма	-5680
▁ода	-5681
▁КТРК	-5682
▁айды	-5683
▁здөр	-5684
▁опто	-5685
▁рлан	-5686
▁ртыш	-5687
▁студ	-5688
▁өлүү	-5689
▁ионат	-5690
▁пахта	-5691
il	-5692
▁ӊ	-5693
▁жем	-5694
▁стр	-5695
▁зиза	-5696
▁кыры	-5697
▁онуп	-5698
▁ошто	-5699
▁укум	-5700
▁барак	-5701
▁ламан	-5702
▁тунда	-5703
▁­	-5704
ook	-5705
▁97	-5706
▁оё	-5707
▁брь	-5708
▁олл	-5709
▁шей	-5710
▁Tube	-5711
▁аанд	-5712
▁болг	-5713
▁елде	-5714
▁лушу	-5715
▁омбу	-5716
▁алдыг	-5717
▁иянын	-5718
▁ңк	-5719
▁өд	-5720
▁лон	-5721
▁нса	-5722
▁уял	-5723
▁шко	-5724
▁ыст	-5725
▁ктур	-5726
▁манд	-5727
▁отко	-5728
▁ттик	-5729
▁үктү	-5730
▁h	-5731
▁87	-5732
▁Тү	-5733
▁ФСБ	-5734
▁бле	-5735
▁озг	-5736
▁тот	-5737
▁уук	-5738
▁өкү	-5739
▁аало	-5740
▁изин	-5741
▁ньян	-5742
▁пера	-5743
▁Covid	-5744
▁аимов	-5745
▁айдал	-5746
▁енден	-5747
an	-5748
рой	-5749
▁79	-5750
▁аво	-5751
▁мүт	-5752
▁рго	-5753
▁риб	-5754
▁анаг	-5755
▁лига	-5756
▁нвес	-5757
▁омун	-5758
▁рбай	-5759
▁тууд	-5760
▁түзө	-5761
▁үчүл	-5762
▁өткө	-5763
▁аразы	-5764
ват	-5765
ета	-5766
▁КЭ	-5767
▁Се	-5768
▁уэ	-5769
▁3,5	-5770
▁зги	-5771
▁кто	-5772
▁лжо	-5773
▁руп	-5774
▁тоз	-5775
▁өкө	-5776
▁адаш	-5777
▁ерик	-5778
▁карг	-5779
▁чата	-5780
▁ылыт	-5781
▁үгүн	-5782
▁өдөн	-5783
▁өөнө	-5784
▁ратор	-5785
▁4,	-5786
▁дс	-5787
▁рх	-5788
▁бды	-5789
▁иро	-5790
▁оги	-5791
▁рмо	-5792
▁роо	-5793
▁ааны	-5794
▁илли	-5795
▁түгү	-5796
▁урса	-5797
▁эшиг	-5798
▁ардак	-5799
▁блема	-5800
▁егизг	-5801
▁еттик	-5802
▁TV	-5803
▁Жар	-5804
▁зам	-5805
▁ынт	-5806
▁ерде	-5807
▁меле	-5808
▁нинг	-5809
▁нүгү	-5810
▁розо	-5811
▁стин	-5812
▁ысын	-5813
▁ааныш	-5814
▁бизге	-5815
▁малар	-5816
hat	-5817
▁74	-5818
▁AF	-5819
▁По	-5820
▁10%	-5821
▁180	-5822
▁ахр	-5823
▁зыя	-5824
▁иди	-5825
▁кия	-5826
▁зинф	-5827
▁кани	-5828
▁лдет	-5829
▁артып	-5830
▁чийки	-5831
ря	-5832
ют	-5833
йрө	-5834
ник	-5835
▁ЖК	-5836
▁асе	-5837
▁йык	-5838
▁пти	-5839
▁ьян	-5840
▁алет	-5841
▁асал	-5842
▁өйрө	-5843
жен	-5844
▁st	-5845
▁як	-5846
▁110	-5847
▁90%	-5848
▁нсу	-5849
▁ойг	-5850
▁раз	-5851
▁чег	-5852
▁араг	-5853
▁истр	-5854
▁наты	-5855
▁нуэл	-5856
ево	-5857
▁Күн	-5858
▁лго	-5859
▁лөш	-5860
▁ЖАМК	-5861
▁лхоз	-5862
▁магы	-5863
▁пайг	-5864
▁риал	-5865
▁тари	-5866
▁Латви	-5867
ГБ	-5868
али	-5869
пич	-5870
раф	-5871
рид	-5872
▁шк	-5873
▁рыз	-5874
▁суб	-5875
▁ңдо	-5876
▁ауди	-5877
▁илде	-5878
▁касы	-5879
▁мдар	-5880
▁нист	-5881
▁стра	-5882
▁укка	-5883
▁чечи	-5884
▁ттары	-5885
▁ni	-5886
▁Ка	-5887
▁ога	-5888
▁book	-5889
▁болу	-5890
▁койг	-5891
▁ренд	-5892
▁улжа	-5893
▁өөгө	-5894
▁81	-5895
▁2-3	-5896
▁Чен	-5897
▁Шир	-5898
▁ило	-5899
▁абир	-5900
▁астык	-5901
az	-5902
лас	-5903
▁Li	-5904
▁убу	-5905
▁ыты	-5906
▁кине	-5907
▁алист	-5908
▁нкция	-5909
AR	-5910
SA	-5911
▁82	-5912
▁86	-5913
▁аё	-5914
▁лчи	-5915
▁ооч	-5916
▁оту	-5917
▁етке	-5918
▁малы	-5919
▁түнү	-5920
▁рылды	-5921
ила	-5922
▁гөй	-5923
▁хак	-5924
▁балд	-5925
▁гент	-5926
▁гонд	-5927
▁дады	-5928
▁лдор	-5929
▁ачылы	-5930
▁осуна	-5931
ИС	-5932
СР	-5933
йт	-5934
ами	-5935
▁Bi	-5936
▁Пе	-5937
▁Ст	-5938
▁Жаз	-5939
▁авл	-5940
▁даа	-5941
▁шын	-5942
▁Бири	-5943
▁бине	-5944
▁дашты	-5945
▁рбаев	-5946
▁рунун	-5947
▁83	-5948
▁130	-5949
▁Бар	-5950
▁зас	-5951
▁янд	-5952
▁ишим	-5953
▁онов	-5954
▁ртты	-5955
▁това	-5956
▁анхай	-5957
▁бербе	-5958
▁ерина	-5959
▁латын	-5960
▁менчи	-5961
▁патри	-5962
СК	-5963
▁Po	-5964
▁лг	-5965
▁екц	-5966
▁лаа	-5967
▁нгө	-5968
▁нык	-5969
▁амчы	-5970
▁ндик	-5971
▁орту	-5972
▁тама	-5973
▁еркен	-5974
▁келбе	-5975
▁нияда	-5976
▁шахта	-5977
уд	-5978
▁kz	-5979
▁Ха	-5980
▁зб	-5981
дина	-5982
▁rov	-5983
▁эко	-5984
▁өмө	-5985
▁амба	-5986
▁ерма	-5987
▁лбай	-5988
▁литр	-5989
▁урба	-5990
▁евдин	-5991
▁рүүнү	-5992
▁урлар	-5993
RW	-5994
ЧР	-5995
ид	-5996
нов	-5997
▁AFP	-5998
▁ПЧР	-5999
▁нүш	-6000
▁опк	-6001
▁яга	-6002
▁Face	-6003
▁аалы	-6004
▁аида	-6005
▁арла	-6006
▁аброй	-6007
▁амагы	-6008
▁еринб	-6009
▁инжен	-6010
▁скери	-6011
ak	-6012
яз	-6013
ряд	-6014
▁LI	-6015
▁Түп	-6016
▁аци	-6017
▁дад	-6018
▁амаг	-6019
▁орой	-6020
▁тети	-6021
▁удан	-6022
▁актер	-6023
▁рынан	-6024
жар	-6025
лем	-6026
▁БА	-6027
▁Па	-6028
▁Чы	-6029
▁үс	-6030
▁Так	-6031
▁дак	-6032
▁зым	-6033
▁ашал	-6034
▁лбек	-6035
▁муру	-6036
▁урга	-6037
▁ырды	-6038
▁үзгө	-6039
▁мдери	-6040
▁ьянма	-6041
sh	-6042
▁98	-6043
▁Am	-6044
▁St	-6045
▁еж	-6046
▁йл	-6047
▁3-4	-6048
▁Air	-6049
▁nce	-6050
▁етт	-6051
▁луш	-6052
▁ско	-6053
▁сов	-6054
▁ахар	-6055
▁бюрос	-6056
▁ерген	-6057
▁еркел	-6058
▁ерниз	-6059
АСС	-6060
▁88	-6061
▁дог	-6062
▁йло	-6063
▁нүг	-6064
▁роза	-6065
▁үндү	-6066
▁ариат	-6067
▁бакты	-6068
la	-6069
op	-6070
мал	-6071
▁ЕБ	-6072
▁лб	-6073
▁900	-6074
▁Бор	-6075
▁ТИМ	-6076
▁аре	-6077
▁пла	-6078
▁рык	-6079
▁урп	-6080
▁Пара	-6081
▁ТАСС	-6082
▁апур	-6083
▁бдан	-6084
▁дири	-6085
▁иний	-6086
▁имсан	-6087
▁умент	-6088
▁Оп	-6089
▁Күч	-6090
▁бок	-6091
▁илл	-6092
▁нөө	-6093
▁тре	-6094
▁чай	-6095
▁алян	-6096
▁бада	-6097
▁ктап	-6098
▁руна	-6099
▁агынд	-6100
▁балды	-6101
▁өрүнү	-6102
ct	-6103
ева	-6104
▁Фр	-6105
▁ее	-6106
▁20%	-6107
▁гия	-6108
▁иру	-6109
▁улы	-6110
▁эти	-6111
▁ариф	-6112
▁ренб	-6113
▁урап	-6114
▁ылты	-6115
▁дсмен	-6116
▁жүзүн	-6117
▁убара	-6118
▁ындар	-6119
Ал	-6120
▁рб	-6121
▁40%	-6122
▁70%	-6123
▁уят	-6124
▁Temi	-6125
▁Ширш	-6126
▁ербе	-6127
▁ирип	-6128
▁скат	-6129
▁ороон	-6130
▁хакер	-6131
loop	-6132
▁lin	-6133
▁ЖМК	-6134
▁Кеп	-6135
▁ажа	-6136
▁инч	-6137
▁есип	-6138
▁ирия	-6139
▁лтай	-6140
▁оста	-6141
▁тели	-6142
▁упер	-6143
▁чагы	-6144
▁ээрл	-6145
▁айкуш	-6146
МУ	-6147
ца	-6148
▁f	-6149
▁--	-6150
▁li	-6151
▁илк	-6152
▁ули	-6153
▁шке	-6154
▁эск	-6155
▁алас	-6156
▁ийне	-6157
▁инге	-6158
▁лбой	-6159
▁оппо	-6160
▁уйку	-6161
▁пикет	-6162
▁шкана	-6163
▁экспо	-6164
еро	-6165
▁ar	-6166
▁us	-6167
▁Get	-6168
▁Сен	-6169
▁аид	-6170
▁акк	-6171
▁аха	-6172
▁лөт	-6173
▁умг	-6174
▁чок	-6175
▁чөп	-6176
▁Зама	-6177
▁айна	-6178
▁алак	-6179
▁гали	-6180
▁дмин	-6181
▁лабы	-6182
▁линг	-6183
▁паки	-6184
▁елиши	-6185
▁ухтар	-6186
КС	-6187
ье	-6188
▁5%	-6189
▁99	-6190
▁эй	-6191
▁140	-6192
▁айз	-6193
▁зык	-6194
▁рка	-6195
▁шха	-6196
▁эро	-6197
▁Tele	-6198
▁апка	-6199
▁аңга	-6200
▁итан	-6201
▁рома	-6202
▁сени	-6203
▁тпай	-6204
▁уйру	-6205
▁ышка	-6206
▁алкак	-6207
▁боору	-6208
▁мдары	-6209
▁нүгүү	-6210
▁93	-6211
▁иа	-6212
▁юз	-6213
▁ящ	-6214
▁Гор	-6215
▁кот	-6216
▁оңу	-6217
▁шел	-6218
▁ырг	-6219
▁алиф	-6220
▁ивер	-6221
▁мдик	-6222
▁ссёр	-6223
▁Getty	-6224
▁анасы	-6225
▁илбей	-6226
▁иттер	-6227
▁комис	-6228
▁марке	-6229
▁ткөнү	-6230
ck	-6231
us	-6232
▁p	-6233
ипе	-6234
уля	-6235
хаз	-6236
▁CN	-6237
▁Pr	-6238
▁XI	-6239
▁nd	-6240
▁ССР	-6241
▁ало	-6242
▁нку	-6243
▁пиа	-6244
▁шиш	-6245
▁үлү	-6246
▁азды	-6247
▁анкц	-6248
▁ашоо	-6249
▁ашын	-6250
▁бары	-6251
▁ллеж	-6252
▁нанс	-6253
▁Kloop	-6254
▁гондо	-6255
▁импич	-6256
▁үктөр	-6257
VE	-6258
ЕФ	-6259
ork	-6260
▁To	-6261
▁вр	-6262
▁рн	-6263
▁HRW	-6264
▁Пан	-6265
▁вив	-6266
▁еат	-6267
▁еге	-6268
▁лой	-6269
▁мум	-6270
▁нсы	-6271
▁улп	-6272
▁авел	-6273
▁армо	-6274
▁лдоо	-6275
▁лена	-6276
▁нети	-6277
▁шкөн	-6278
▁шраф	-6279
▁үмүн	-6280
▁амдар	-6281
▁засын	-6282
▁номер	-6283
▁ованы	-6284
ны	-6285
фт	-6286
ial	-6287
бир	-6288
рем	-6289
цов	-6290
▁5,	-6291
▁Бе	-6292
▁вт	-6293
▁гап	-6294
▁York	-6295
▁олит	-6296
▁рбей	-6297
▁ялык	-6298
▁азган	-6299
▁ордер	-6300
▁тайда	-6301
▁өтөрү	-6302
▁'	-6303
ерт	-6304
ира	-6305
кур	-6306
урт	-6307
үлк	-6308
▁Ma	-6309
▁ed	-6310
▁et	-6311
▁тм	-6312
▁Ван	-6313
▁Түш	-6314
▁ема	-6315
▁ива	-6316
▁нол	-6317
▁нур	-6318
▁ози	-6319
▁опо	-6320
▁роп	-6321
▁LIVE	-6322
▁What	-6323
▁Тажи	-6324
▁аңыл	-6325
▁ктал	-6326
▁мато	-6327
▁мүлк	-6328
▁омат	-6329
▁разы	-6330
▁риле	-6331
▁чала	-6332
▁боорд	-6333
▁ванын	-6334
▁дыкат	-6335
▁оргон	-6336
▁отряд	-6337
▁отуру	-6338
▁эркин	-6339
:0	-6340
ич	-6341
кем	-6342
рим	-6343
▁уф	-6344
▁Гар	-6345
▁лья	-6346
▁оме	-6347
▁паж	-6348
▁рта	-6349
▁шту	-6350
▁Улут	-6351
▁аска	-6352
▁атай	-6353
▁афах	-6354
▁ашка	-6355
▁лаур	-6356
▁овар	-6357
▁рдык	-6358
▁ырым	-6359
▁үлүк	-6360
ос	-6361
рав	-6362
▁92	-6363
▁ge	-6364
▁оу	-6365
▁ыб	-6366
▁Үй	-6367
▁CNN	-6368
▁алб	-6369
▁ндр	-6370
▁рот	-6371
▁шал	-6372
▁ибир	-6373
▁ирик	-6374
▁лант	-6375
▁став	-6376
▁ураб	-6377
▁шиев	-6378
▁сибир	-6379
▁талып	-6380
▁турму	-6381
▁тылды	-6382
▁угуна	-6383
▁элект	-6384
ят	-6385
бли	-6386
ерг	-6387
▁5-	-6388
▁XX	-6389
▁Эс	-6390
▁sty	-6391
▁Рим	-6392
▁ибе	-6393
▁ише	-6394
▁наз	-6395
▁нге	-6396
▁туб	-6397
▁эрк	-6398
▁Акыл	-6399
▁акса	-6400
▁дайы	-6401
▁дара	-6402
▁риса	-6403
▁рына	-6404
▁умше	-6405
▁штир	-6406
▁Press	-6407
▁Корго	-6408
▁килем	-6409
▁нолог	-6410
▁пайду	-6411
▁энерг	-6412
зан	-6413
▁Гол	-6414
▁авт	-6415
▁нег	-6416
▁ому	-6417
▁пил	-6418
▁уан	-6419
▁яче	-6420
▁абын	-6421
▁аруу	-6422
▁вист	-6423
▁емпи	-6424
▁изме	-6425
▁көрг	-6426
▁тыры	-6427
▁ушун	-6428
▁фган	-6429
▁ырас	-6430
▁өлгө	-6431
▁аңгак	-6432
▁гунда	-6433
ot	-6434
ьв	-6435
ата	-6436
▁Бу	-6437
▁тп	-6438
ИСЕФ	-6439
▁Ака	-6440
▁еңе	-6441
▁зер	-6442
▁има	-6443
▁рме	-6444
▁ыюу	-6445
▁үзг	-6446
▁ӨКМ	-6447
▁Amne	-6448
▁аажы	-6449
▁атте	-6450
▁НИСЕФ	-6451
▁рымда	-6452
▁шеним	-6453
кес	-6454
▁91	-6455
▁94	-6456
▁zer	-6457
▁апы	-6458
▁быш	-6459
▁ейр	-6460
▁ешт	-6461
▁нем	-6462
▁очо	-6463
▁авло	-6464
▁емир	-6465
▁плак	-6466
▁ейтер	-6467
▁рткан	-6468
▁үнгөн	-6469
зю	-6470
▁96	-6471
▁ДН	-6472
▁кв	-6473
▁Pfi	-6474
▁виз	-6475
▁ууч	-6476
▁вело	-6477
▁дерг	-6478
▁илег	-6479
▁рунт	-6480
▁ттин	-6481
▁аркын	-6482
▁арыны	-6483
▁емеси	-6484
▁идент	-6485
▁тетин	-6486
▁чабал	-6487
▁шарше	-6488
is	-6489
ял	-6490
▁Q	-6491
ene	-6492
▁ңа	-6493
▁Ins	-6494
▁Рай	-6495
▁Рас	-6496
▁анн	-6497
▁сол	-6498
▁ыңа	-6499
▁Шайл	-6500
▁айне	-6501
▁засы	-6502
▁күлү	-6503
▁ургу	-6504
▁ызык	-6505
▁згөрт	-6506
▁уктун	-6507
ДК	-6508
▁ыж	-6509
edia	-6510
густ	-6511
ууну	-6512
▁350	-6513
▁Пол	-6514
▁иңд	-6515
▁кпа	-6516
▁нит	-6517
▁ууш	-6518
▁учу	-6519
▁чка	-6520
▁шыр	-6521
▁өнт	-6522
▁атер	-6523
▁ашар	-6524
▁бхаз	-6525
▁ирек	-6526
▁насы	-6527
▁полк	-6528
▁ткөр	-6529
▁ттоо	-6530
▁ямин	-6531
▁алына	-6532
▁вгуст	-6533
▁нткен	-6534
▁постс	-6535
▁рууну	-6536
уж	-6537
App	-6538
▁6,	-6539
▁me	-6540
▁аӊ	-6541
▁еӊ	-6542
▁рэ	-6543
▁4-5	-6544
▁Кап	-6545
▁Ста	-6546
▁вис	-6547
▁икс	-6548
▁нөр	-6549
▁туз	-6550
▁өрг	-6551
▁өсү	-6552
▁sApp	-6553
▁Ного	-6554
▁асир	-6555
▁вест	-6556
▁күсү	-6557
▁лифи	-6558
▁ндей	-6559
▁осни	-6560
▁угун	-6561
▁айбыз	-6562
▁актёр	-6563
▁ахрир	-6564
▁имдин	-6565
▁ктары	-6566
▁оонун	-6567
▁публи	-6568
lo	-6569
вит	-6570
мос	-6571
ьвов	-6572
▁Кең	-6573
▁Эли	-6574
▁көг	-6575
▁Азат	-6576
▁азал	-6577
▁амду	-6578
▁арпа	-6579
▁асул	-6580
▁аянд	-6581
▁капа	-6582
▁ооке	-6583
▁угар	-6584
▁ыйыл	-6585
▁ымын	-6586
▁Львов	-6587
▁авлод	-6588
▁аршав	-6589
▁ахман	-6590
▁еттен	-6591
▁оберт	-6592
од	-6593
үйш	-6594
▁Ast	-6595
▁Nex	-6596
▁оре	-6597
▁рсе	-6598
▁уро	-6599
▁шим	-6600
▁шпе	-6601
▁Доха	-6602
▁Дүйш	-6603
▁бокс	-6604
▁гант	-6605
▁етки	-6606
▁нүкт	-6607
▁улло	-6608
▁шыкт	-6609
▁ейрут	-6610
▁емасы	-6611
▁ыплас	-6612
нак	-6613
▁ne	-6614
▁ru	-6615
▁юп	-6616
▁com	-6617
▁гим	-6618
▁ези	-6619
▁лги	-6620
▁лку	-6621
▁ная	-6622
▁нци	-6623
▁ьет	-6624
▁Live	-6625
▁Коро	-6626
▁анга	-6627
▁асфа	-6628
▁клан	-6629
▁мира	-6630
▁ниве	-6631
▁рест	-6632
▁рине	-6633
▁ртем	-6634
▁сүрө	-6635
▁уулд	-6636
▁ардан	-6637
▁аттес	-6638
▁есине	-6639
▁жазуу	-6640
▁мдиги	-6641
▁номур	-6642
▁ылыкт	-6643
▁этнос	-6644
se	-6645
▁ci	-6646
▁ha	-6647
▁Жи	-6648
▁НЕ	-6649
▁вд	-6650
▁мк	-6651
▁160	-6652
▁Кас	-6653
▁инк	-6654
▁шоо	-6655
▁ялд	-6656
▁Tech	-6657
▁Кири	-6658
▁арим	-6659
▁арыб	-6660
▁окур	-6661
▁реже	-6662
▁ынак	-6663
▁үмдө	-6664
▁Astra	-6665
▁артты	-6666
▁лгиле	-6667
▁рганы	-6668
▁уштар	-6669
▁ылдый	-6670
▁y	-6671
хар	-6672
▁Eu	-6673
▁КР	-6674
▁4,5	-6675
▁60%	-6676
▁саб	-6677
▁чик	-6678
▁Zene	-6679
▁анду	-6680
▁аным	-6681
▁емен	-6682
▁ктяб	-6683
▁кызд	-6684
▁лдөр	-6685
▁мурд	-6686
▁нота	-6687
▁нски	-6688
▁рдик	-6689
▁ушак	-6690
▁этти	-6691
▁өндү	-6692
▁амзан	-6693
▁иммун	-6694
▁лууну	-6695
▁фавит	-6696
ie	-6697
юк	-6698
ina	-6699
ИИБ	-6700
ена	-6701
ремя	-6702
▁ККМ	-6703
▁веб	-6704
▁зып	-6705
▁ома	-6706
▁рок	-6707
▁рос	-6708
▁шах	-6709
▁шор	-6710
▁шөт	-6711
▁ечим	-6712
▁лман	-6713
▁шпай	-6714
▁адина	-6715
▁аркар	-6716
▁время	-6717
▁иннов	-6718
▁сфана	-6719
▁түшкө	-6720
▁чурка	-6721
IM	-6722
жу	-6723
▁89	-6724
▁см	-6725
▁зав	-6726
▁при	-6727
▁Рада	-6728
▁аасы	-6729
▁жабд	-6730
▁пуля	-6731
▁стал	-6732
▁түнө	-6733
▁шине	-6734
▁Ногой	-6735
▁ентке	-6736
▁лорун	-6737
▁пакет	-6738
▁урпак	-6739
эй	-6740
▁(6	-6741
▁ma	-6742
зюдо	-6743
▁вра	-6744
▁ппа	-6745
▁Next	-6746
▁алик	-6747
▁генц	-6748
▁есси	-6749
▁мина	-6750
▁ство	-6751
▁талг	-6752
▁урах	-6753
▁утун	-6754
▁ызда	-6755
▁ырба	-6756
▁өгөн	-6757
▁толго	-6758
▁узаху	-6759
CC	-6760
ИД	-6761
▁Ё	-6762
▁De	-6763
▁mb	-6764
▁ТВ	-6765
▁тс	-6766
▁юм	-6767
▁Goo	-6768
▁вар	-6769
▁зоо	-6770
▁чеб	-6771
▁шоу	-6772
▁ирил	-6773
▁сист	-6774
▁тоют	-6775
▁ыйыт	-6776
▁ымал	-6777
▁ептер	-6778
▁сомдо	-6779
▁үзгөн	-6780
-8	-6781
ic	-6782
▁*	-6783
▁5-6	-6784
▁Бел	-6785
▁Той	-6786
▁рты	-6787
▁тог	-6788
▁штү	-6789
▁алта	-6790
▁бода	-6791
▁йлар	-6792
▁лтүр	-6793
▁мора	-6794
▁мран	-6795
▁рабы	-6796
▁татт	-6797
▁тиви	-6798
▁тизм	-6799
▁үздү	-6800
▁Конст	-6801
▁акета	-6802
▁алымд	-6803
▁амира	-6804
▁естан	-6805
▁иверс	-6806
▁оркес	-6807
▁рахма	-6808
so	-6809
СКО	-6810
▁Ше	-6811
▁Ын	-6812
▁gle	-6813
▁жон	-6814
▁лдү	-6815
▁руш	-6816
▁тиц	-6817
▁елеч	-6818
▁лика	-6819
▁лору	-6820
▁осун	-6821
▁үздө	-6822
▁НЕСКО	-6823
▁атема	-6824
▁опурт	-6825
▁рслан	-6826
▁тоодо	-6827
▁улпук	-6828
:1	-6829
дл	-6830
ой	-6831
akt	-6832
all	-6833
▁АГ	-6834
▁йү	-6835
▁nik	-6836
▁Оор	-6837
▁вде	-6838
▁дра	-6839
▁кку	-6840
▁мдо	-6841
▁озу	-6842
▁олк	-6843
▁роб	-6844
▁төп	-6845
▁уша	-6846
▁ымы	-6847
▁ңир	-6848
▁арид	-6849
▁зоок	-6850
▁исин	-6851
▁налы	-6852
▁очул	-6853
▁стар	-6854
▁чоро	-6855
▁аасын	-6856
▁антин	-6857
▁көндө	-6858
▁несин	-6859
▁рланд	-6860
de	-6861
АТЭ	-6862
итм	-6863
▁7,	-6864
▁dia	-6865
▁нүк	-6866
▁оос	-6867
▁дашы	-6868
▁исси	-6869
▁келб	-6870
▁льга	-6871
▁сант	-6872
▁тана	-6873
▁тилк	-6874
▁тири	-6875
▁урус	-6876
▁утта	-6877
▁үшүн	-6878
▁өргө	-6879
▁АГАТЭ	-6880
▁амара	-6881
▁бакта	-6882
▁табыз	-6883
▁өөсүн	-6884
ИЗ	-6885
ру	-6886
ино	-6887
чак	-6888
▁Da	-6889
▁Le	-6890
▁in	-6891
▁nc	-6892
▁гыз	-6893
▁имо	-6894
▁кке	-6895
▁лге	-6896
▁ойт	-6897
▁рук	-6898
▁сса	-6899
▁тке	-6900
▁ури	-6901
▁шпа	-6902
▁Cent	-6903
▁апит	-6904
▁кого	-6905
▁марк	-6906
▁орос	-6907
▁рада	-6908
▁тпөй	-6909
▁туде	-6910
▁умун	-6911
▁үзүү	-6912
▁амала	-6913
▁елеви	-6914
▁елоси	-6915
▁лавян	-6916
▁роман	-6917
RP	-6918
▁175	-6919
▁Bio	-6920
▁Абу	-6921
▁Том	-6922
▁Тоң	-6923
▁гис	-6924
▁зде	-6925
▁ктү	-6926
▁мөө	-6927
▁раж	-6928
▁айчы	-6929
▁башт	-6930
▁елеф	-6931
▁жазг	-6932
▁зодл	-6933
▁көлү	-6934
▁олла	-6935
▁рант	-6936
▁чака	-6937
▁шүнө	-6938
▁орозо	-6939
ДӨ	-6940
яни	-6941
▁пү	-6942
▁ИДӨ	-6943
▁гри	-6944
▁зүп	-6945
▁йта	-6946
▁лүм	-6947
▁уси	-6948
▁шаа	-6949
▁өшү	-6950
▁Asso	-6951
▁Post	-6952
▁Баки	-6953
▁када	-6954
▁крит	-6955
▁нейт	-6956
▁непр	-6957
▁осту	-6958
▁рейс	-6959
▁тына	-6960
▁юнча	-6961
▁алина	-6962
▁анжар	-6963
▁еверо	-6964
▁ермет	-6965
▁ондун	-6966
▁орват	-6967
▁ринен	-6968
▁стема	-6969
эч	-6970
▁1-	-6971
▁GM	-6972
▁15%	-6973
▁170	-6974
▁ДНК	-6975
▁аяр	-6976
▁зду	-6977
▁нид	-6978
▁рту	-6979
▁тия	-6980
▁тээ	-6981
▁усе	-6982
▁шаг	-6983
▁ciat	-6984
▁ахат	-6985
▁вада	-6986
▁екаб	-6987
▁икар	-6988
▁рден	-6989
▁рота	-6990
▁циви	-6991
▁ылай	-6992
▁аалда	-6993
▁араби	-6994
▁индик	-6995
▁октон	-6996
▁оритм	-6997
▁пилот	-6998
▁стипе	-6999
▁уюмда	-7000
▁мс	-7001
▁яй	-7002
CCRP	-7003
▁айм	-7004
▁вай	-7005
▁ето	-7006
▁жел	-7007
▁Өтө	-7008
▁BioN	-7009
▁ЭлТР	-7010
▁ерип	-7011
▁раса	-7012
▁ртур	-7013
▁тиле	-7014
▁улин	-7015
▁ырак	-7016
▁Media	-7017
▁OCCRP	-7018
▁актын	-7019
▁антта	-7020
▁анышы	-7021
▁ельта	-7022
▁ериси	-7023
▁зияда	-7024
▁рууга	-7025
▁умкар	-7026
▁ураху	-7027
AT	-7028
ВД	-7029
ФА	-7030
рт	-7031
хо	-7032
erg	-7033
ван	-7034
ейт	-7035
IMAR	-7036
▁260	-7037
▁БАЭ	-7038
▁Шад	-7039
▁айя	-7040
▁дюс	-7041
▁ерл	-7042
▁яба	-7043
▁үчт	-7044
▁Kakt	-7045
▁атто	-7046
▁ачкы	-7047
▁гасы	-7048
▁дасы	-7049
▁ерни	-7050
▁етме	-7051
▁йдан	-7052
▁йнер	-7053
▁йылд	-7054
▁лбей	-7055
▁леге	-7056
▁лира	-7057
▁монт	-7058
▁росс	-7059
▁тота	-7060
▁чоку	-7061
▁ырда	-7062
▁HIMAR	-7063
▁аталь	-7064
▁карга	-7065
▁сипед	-7066
▁тылып	-7067
▁увейт	-7068
▁шериг	-7069
ws	-7070
ЧК	-7071
old	-7072
дит	-7073
▁Кер	-7074
▁Руз	-7075
▁айб	-7076
▁еба	-7077
▁ирб	-7078
▁лка	-7079
▁пте	-7080
▁Sput	-7081
▁веде	-7082
▁врач	-7083
▁илүү	-7084
▁огот	-7085
▁орда	-7086
▁тани	-7087
▁аалим	-7088
▁дзюдо	-7089
▁йылда	-7090
▁ллион	-7091
▁рсула	-7092
▁шуусу	-7093
▁үлүкт	-7094
pa	-7095
үт	-7096
ИЗО	-7097
рам	-7098
▁CA	-7099
▁Тө	-7100
▁4-9	-7101
▁450	-7102
▁III	-7103
▁Жок	-7104
▁еру	-7105
▁жей	-7106
▁зад	-7107
▁ког	-7108
▁неф	-7109
▁рум	-7110
▁умд	-7111
▁шүг	-7112
▁эте	-7113
▁Гуля	-7114
▁аара	-7115
▁аиси	-7116
▁амин	-7117
▁елге	-7118
▁ичин	-7119
▁пред	-7120
▁ралд	-7121
▁аштан	-7122
▁берүү	-7123
▁номин	-7124
ash	-7125
они	-7126
▁ЖО	-7127
▁Ой	-7128
▁Хо	-7129
▁Цз	-7130
▁Шү	-7131
▁бж	-7132
▁7-8	-7133
▁Tik	-7134
▁Tok	-7135
▁Tra	-7136
▁КГБ	-7137
▁Көк	-7138
▁вен	-7139
▁нөл	-7140
▁оти	-7141
▁төш	-7142
▁шап	-7143
▁Bloo	-7144
▁абас	-7145
▁айби	-7146
▁анжа	-7147
▁апык	-7148
▁вето	-7149
▁евди	-7150
▁ейин	-7151
▁онду	-7152
▁укса	-7153
▁Захар	-7154
▁актык	-7155
▁дюсер	-7156
▁кагыл	-7157
▁непро	-7158
▁унган	-7159
▁урбан	-7160
ay	-7161
ld	-7162
un	-7163
нал	-7164
▁ss	-7165
▁Ве	-7166
▁йр	-7167
▁Гум	-7168
▁Сох	-7169
▁Түл	-7170
▁аге	-7171
▁ежи	-7172
▁ечү	-7173
▁мег	-7174
▁под	-7175
▁узу	-7176
▁унг	-7177
▁rnal	-7178
▁аксы	-7179
▁дист	-7180
▁неге	-7181
▁нтон	-7182
▁расс	-7183
▁шаки	-7184
▁штей	-7185
▁ыкер	-7186
▁яйен	-7187
▁mberg	-7188
▁игнал	-7189
▁ковду	-7190
▁ктери	-7191
▁обяни	-7192
▁сотту	-7193
▁#	-7194
rou	-7195
▁Co	-7196
▁KG	-7197
▁бб	-7198
▁бс	-7199
▁ям	-7200
▁GMT	-7201
▁VII	-7202
▁XVI	-7203
▁КДК	-7204
▁КЭР	-7205
▁Мэр	-7206
▁Нов	-7207
▁РИА	-7208
▁абс	-7209
▁ваз	-7210
▁гру	-7211
▁еше	-7212
▁йра	-7213
▁нчү	-7214
▁оңд	-7215
▁ыяс	-7216
▁ягы	-7217
▁айыш	-7218
▁енес	-7219
▁ешик	-7220
▁еңил	-7221
▁здер	-7222
▁йыпт	-7223
▁озеп	-7224
▁прав	-7225
▁рлык	-7226
▁рмия	-7227
▁улум	-7228
▁ырах	-7229
▁өгүн	-7230
▁АКШны	-7231
▁аамай	-7232
▁ердар	-7233
▁ктиги	-7234
▁магын	-7235
▁перац	-7236
▁ракта	-7237
▁тылат	-7238
▁экспе	-7239
ti	-7240
ая	-7241
вах	-7242
кат	-7243
▁СУ	-7244
▁Ши	-7245
▁230	-7246
▁6,5	-7247
▁Jou	-7248
▁Кип	-7249
▁Кум	-7250
▁Эль	-7251
▁аут	-7252
▁бык	-7253
▁зуу	-7254
▁изг	-7255
▁лсо	-7256
▁мбу	-7257
▁нфо	-7258
▁рду	-7259
▁акед	-7260
▁аңги	-7261
▁лина	-7262
▁мино	-7263
▁мола	-7264
▁омас	-7265
▁тишт	-7266
▁удин	-7267
▁уэла	-7268
▁өнүн	-7269
▁аратк	-7270
▁йлана	-7271
▁килов	-7272
▁олитК	-7273
▁рийне	-7274
▁ылары	-7275
ua	-7276
ИА	-7277
ЭК	-7278
ter	-7279
ГБТ	-7280
лаз	-7281
▁na	-7282
▁of	-7283
▁яг	-7284
▁115	-7285
▁ngt	-7286
▁ЖЧК	-7287
▁Жөн	-7288
▁Пас	-7289
▁Ула	-7290
▁Фил	-7291
▁зуп	-7292
▁ишу	-7293
▁ние	-7294
▁тко	-7295
▁Өрт	-7296
▁ЛГБТ	-7297
▁анбе	-7298
▁аппа	-7299
▁кчан	-7300
▁ралы	-7301
▁ттук	-7302
▁шага	-7303
▁Insta	-7304
▁ыгыны	-7305
ni	-7306
wi	-7307
ree	-7308
▁7%	-7309
▁La	-7310
▁Пс	-7311
▁ых	-7312
ashi	-7313
▁7,5	-7314
▁Бах	-7315
▁Боо	-7316
▁Кад	-7317
▁епт	-7318
▁ккө	-7319
▁лыс	-7320
▁нус	-7321
▁ппо	-7322
▁рку	-7323
▁тие	-7324
▁чач	-7325
▁Stre	-7326
▁Кнын	-7327
▁асыя	-7328
▁едел	-7329
▁здөө	-7330
▁орло	-7331
▁усту	-7332
▁эмки	-7333
▁ийкем	-7334
▁келер	-7335
▁ранын	-7336
▁росси	-7337
▁сфара	-7338
▁уюмун	-7339
TA	-7340
ei	-7341
ТТ	-7342
ори	-7343
▁ёв	-7344
roup	-7345
алии	-7346
▁Sin	-7347
▁ЖОЖ	-7348
▁ару	-7349
▁диз	-7350
▁дүр	-7351
▁зел	-7352
▁кса	-7353
▁нбе	-7354
▁нси	-7355
▁окм	-7356
▁рец	-7357
▁сло	-7358
▁тая	-7359
▁үлд	-7360
▁Кипр	-7361
▁СИЗО	-7362
▁ерия	-7363
▁инай	-7364
▁мала	-7365
▁ойку	-7366
▁олат	-7367
▁стер	-7368
▁тилд	-7369
▁усуб	-7370
▁этин	-7371
▁өзөм	-7372
▁агыла	-7373
▁амиля	-7374
▁еалии	-7375
▁жайла	-7376
▁жаңыл	-7377
▁тууда	-7378
яр	-7379
ири	-7380
кти	-7381
ора	-7382
роз	-7383
цак	-7384
үнд	-7385
▁1/	-7386
▁8,	-7387
▁Ca	-7388
▁Ян	-7389
▁мч	-7390
▁ху	-7391
▁эв	-7392
▁125	-7393
▁137	-7394
▁220	-7395
▁МВт	-7396
▁Пир	-7397
▁Шым	-7398
▁жыш	-7399
▁ияд	-7400
▁йде	-7401
▁йне	-7402
▁күз	-7403
▁миз	-7404
▁ове	-7405
▁тыг	-7406
▁уум	-7407
▁Free	-7408
▁Глаз	-7409
▁айон	-7410
▁денд	-7411
▁екин	-7412
▁енне	-7413
▁идиш	-7414
▁ксен	-7415
▁неги	-7416
▁ница	-7417
▁обол	-7418
▁ылан	-7419
▁Washi	-7420
▁абылг	-7421
▁иштер	-7422
▁марат	-7423
▁ратып	-7424
▁уңкур	-7425
▁ыпчак	-7426
ga	-7427
ОН	-7428
кс	-7429
ью	-7430
▁жө	-7431
▁118	-7432
▁XIX	-7433
▁gen	-7434
▁Аял	-7435
▁Боб	-7436
▁Ири	-7437
▁Ред	-7438
▁наг	-7439
▁олс	-7440
▁саг	-7441
▁ыйк	-7442
▁өйү	-7443
▁Gold	-7444
▁ажаб	-7445
▁акуп	-7446
▁атпа	-7447
▁ахре	-7448
▁вита	-7449
▁жаат	-7450
▁иман	-7451
▁кбар	-7452
▁кесе	-7453
▁лүшү	-7454
▁ооло	-7455
▁раси	-7456
▁ртык	-7457
▁удап	-7458
▁фтан	-7459
▁шамы	-7460
▁алаба	-7461
▁алкар	-7462
▁амаза	-7463
▁анага	-7464
▁андит	-7465
▁калга	-7466
▁манын	-7467
▁полис	-7468
▁псула	-7469
▁расын	-7470
▁рилге	-7471
▁чарба	-7472
▁ынтык	-7473
rm	-7474
дат	-7475
иса	-7476
ово	-7477
▁Di	-7478
▁Mo	-7479
▁лж	-7480
▁ңе	-7481
пост	-7482
▁Sta	-7483
▁Ана	-7484
▁Соң	-7485
▁Эне	-7486
▁бли	-7487
▁елб	-7488
▁емб	-7489
▁жик	-7490
▁ите	-7491
▁лаф	-7492
▁оми	-7493
▁оюш	-7494
▁ргү	-7495
▁тах	-7496
▁Wall	-7497
▁амши	-7498
▁атма	-7499
▁аяны	-7500
▁ирке	-7501
▁ирээ	-7502
▁лапт	-7503
▁маты	-7504
▁орни	-7505
▁орош	-7506
▁өшкө	-7507
▁Group	-7508
▁анкер	-7509
▁аудит	-7510
▁макка	-7511
▁мушту	-7512
▁оллар	-7513
cy	-7514
ur	-7515
рос	-7516
▁AX	-7517
▁uz	-7518
▁тч	-7519
▁яб	-7520
▁1-2	-7521
▁ЭТТ	-7522
▁Эрк	-7523
▁вро	-7524
▁дже	-7525
▁лба	-7526
▁лий	-7527
▁орм	-7528
▁фен	-7529
▁чүр	-7530
▁Топч	-7531
▁Шымк	-7532
▁абит	-7533
▁абыш	-7534
▁аран	-7535
▁ббас	-7536
▁иана	-7537
▁ирзо	-7538
▁керт	-7539
▁кран	-7540
▁лыжа	-7541
▁нжер	-7542
▁синд	-7543
▁туар	-7544
▁убси	-7545
▁утат	-7546
▁ьево	-7547
▁андыг	-7548
▁асалг	-7549
▁атмос	-7550
▁визит	-7551
▁ерман	-7552
▁йыпта	-7553
▁кпост	-7554
▁манды	-7555
▁машин	-7556
▁накай	-7557
▁үзүнд	-7558
▁үлдөр	-7559
ID	-7560
юм	-7561
▁(1	-7562
▁So	-7563
▁Ги	-7564
▁Гр	-7565
▁Ло	-7566
▁ъе	-7567
orld	-7568
▁COV	-7569
▁екч	-7570
▁еул	-7571
▁оце	-7572
▁паг	-7573
▁сая	-7574
▁ызг	-7575
▁ыйр	-7576
▁ядр	-7577
▁Парт	-7578
▁адаг	-7579
▁азая	-7580
▁арса	-7581
▁бейп	-7582
▁емел	-7583
▁енед	-7584
▁көзд	-7585
▁ывах	-7586
▁арига	-7587
▁атцак	-7588
▁дизел	-7589
▁кенде	-7590
▁луата	-7591
▁шахма	-7592
47	-7593
СУ	-7594
ӨБ	-7595
зги	-7596
риг	-7597
сто	-7598
▁2%	-7599
▁Bo	-7600
▁ID	-7601
▁ns	-7602
▁СП	-7603
▁750	-7604
▁Sha	-7605
▁USA	-7606
▁быр	-7607
▁гел	-7608
▁емп	-7609
▁ксф	-7610
▁рян	-7611
▁уло	-7612
▁ылы	-7613
▁ырк	-7614
▁ыян	-7615
▁tter	-7616
▁Байд	-7617
▁аама	-7618
▁апыр	-7619
▁атас	-7620
▁етон	-7621
▁желе	-7622
▁жыра	-7623
▁ийин	-7624
▁имиш	-7625
▁ирин	-7626
▁крам	-7627
▁күнө	-7628
▁пами	-7629
▁учич	-7630
▁хсан	-7631
▁чкан	-7632
▁шыбы	-7633
▁ээнб	-7634
▁алады	-7635
▁страц	-7636
▁тозок	-7637
БК	-7638
ДР	-7639
Ош	-7640
жах	-7641
улу	-7642
▁Ch	-7643
▁rd	-7644
▁Ху	-7645
▁лч	-7646
▁пь	-7647
▁Hou	-7648
▁net	-7649
▁sta	-7650
▁Бүт	-7651
▁Шей	-7652
▁зыр	-7653
▁ила	-7654
▁мпо	-7655
▁ным	-7656
▁тео	-7657
▁түт	-7658
▁ьев	-7659
▁news	-7660
▁ШИИБ	-7661
▁амды	-7662
▁атан	-7663
▁ахти	-7664
▁ейте	-7665
▁елен	-7666
▁енси	-7667
▁инет	-7668
▁мери	-7669
▁мите	-7670
▁такт	-7671
▁өпчү	-7672
▁ативд	-7673
▁койго	-7674
▁ктору	-7675
▁мания	-7676
▁мезги	-7677
▁рянск	-7678
▁торун	-7679
▁ыйынд	-7680
ЭР	-7681
эң	-7682
лин	-7683
▁(7	-7684
▁ti	-7685
▁ЭК	-7686
▁MAT	-7687
▁Twi	-7688
▁ard	-7689
▁Чын	-7690
▁йма	-7691
▁лдө	-7692
▁чех	-7693
▁эже	-7694
▁cial	-7695
▁айду	-7696
▁акып	-7697
▁алпы	-7698
▁елбе	-7699
▁епки	-7700
▁ижан	-7701
▁имге	-7702
▁квор	-7703
▁нүнө	-7704
▁рига	-7705
▁терр	-7706
▁улун	-7707
▁House	-7708
▁араза	-7709
▁еннед	-7710
▁ерниг	-7711
▁ирээт	-7712
▁лганы	-7713
▁ттагы	-7714
▁чабуу	-7715
NA	-7716
me	-7717
▁4%	-7718
▁Me	-7719
▁le	-7720
▁Фе	-7721
▁Ят	-7722
▁1,4	-7723
▁Лев	-7724
▁апт	-7725
▁зур	-7726
▁кси	-7727
▁кци	-7728
▁мст	-7729
▁ниг	-7730
▁нта	-7731
▁риф	-7732
▁руд	-7733
▁ссо	-7734
▁шМУ	-7735
▁үрг	-7736
▁Fina	-7737
▁OVID	-7738
▁Мара	-7739
▁даро	-7740
▁ерно	-7741
▁лица	-7742
▁онна	-7743
▁пага	-7744
▁ржан	-7745
▁World	-7746
▁ийрим	-7747
▁иналы	-7748
▁миним	-7749
▁нышты	-7750
▁тозот	-7751
▁уралд	-7752
▁чтеке	-7753
▁ялары	-7754
ki	-7755
na	-7756
АГ	-7757
РТ	-7758
аке	-7759
лов	-7760
▁1%	-7761
▁9,	-7762
▁IS	-7763
▁RK	-7764
▁яс	-7765
▁1/8	-7766
▁650	-7767
▁dom	-7768
▁Кри	-7769
▁Тез	-7770
▁гуз	-7771
▁ерк	-7772
▁ими	-7773
▁ирг	-7774
▁йды	-7775
▁ксп	-7776
▁хун	-7777
▁шаң	-7778
▁ызд	-7779
▁эни	-7780
▁Опум	-7781
▁Отуз	-7782
▁РИИБ	-7783
▁СПИД	-7784
▁азиз	-7785
▁ахим	-7786
▁йдын	-7787
▁отив	-7788
▁раба	-7789
▁уржу	-7790
▁ыркы	-7791
▁ясын	-7792
▁аптуу	-7793
▁лбайт	-7794
▁чөлөр	-7795
ээл	-7796
▁Sh	-7797
▁2,3	-7798
▁25%	-7799
▁ану	-7800
▁аур	-7801
▁дда	-7802
▁лде	-7803
▁рли	-7804
▁таа	-7805
▁чоӊ	-7806
▁шок	-7807
▁АССР	-7808
▁Гроз	-7809
▁аалд	-7810
▁авай	-7811
▁алих	-7812
▁ахма	-7813
▁ейит	-7814
▁ерги	-7815
▁игин	-7816
▁икит	-7817
▁йжан	-7818
▁кары	-7819
▁неме	-7820
▁ольк	-7821
▁рсал	-7822
▁шары	-7823
▁шире	-7824
▁айгак	-7825
▁амила	-7826
▁аргам	-7827
▁ермин	-7828
▁жатта	-7829
▁териш	-7830
▁тынчт	-7831
ВФ	-7832
ТО	-7833
ЦР	-7834
эт	-7835
act	-7836
ian	-7837
еса	-7838
цег	-7839
яби	-7840
▁IV	-7841
▁ФИ	-7842
▁1,3	-7843
▁102	-7844
▁105	-7845
▁190	-7846
▁Cha	-7847
▁Ках	-7848
▁ПЦР	-7849
▁Пад	-7850
▁Там	-7851
▁афа	-7852
▁бид	-7853
▁зай	-7854
▁оле	-7855
▁үчү	-7856
▁Шари	-7857
▁айыз	-7858
▁арья	-7859
▁басы	-7860
▁далы	-7861
▁ерил	-7862
▁ечер	-7863
▁кыны	-7864
▁ндыр	-7865
▁ниги	-7866
▁одол	-7867
▁пейи	-7868
▁сери	-7869
▁тикт	-7870
▁аркан	-7871
▁арход	-7872
▁болго	-7873
▁енева	-7874
▁ерцег	-7875
▁итлер	-7876
▁касын	-7877
▁оопту	-7878
▁поэма	-7879
▁рдеги	-7880
▁тышка	-7881
▁утман	-7882
IF	-7883
nd	-7884
ля	-7885
▁$	-7886
лей	-7887
рон	-7888
▁"1	-7889
▁Ro	-7890
▁de	-7891
▁1,2	-7892
▁1,7	-7893
▁5,5	-7894
▁ЖАК	-7895
▁Тог	-7896
▁Шот	-7897
▁ЭВФ	-7898
▁алх	-7899
▁гип	-7900
▁куш	-7901
▁мде	-7902
▁пло	-7903
▁цин	-7904
▁чаң	-7905
▁ылг	-7906
▁өрд	-7907
▁КЭДР	-7908
▁Моди	-7909
▁Сток	-7910
▁УТРК	-7911
▁амда	-7912
▁ариб	-7913
▁бага	-7914
▁дору	-7915
▁елуж	-7916
▁епке	-7917
▁здуг	-7918
▁изел	-7919
▁омик	-7920
▁тоод	-7921
▁ттор	-7922
▁укул	-7923
▁чыла	-7924
▁якта	-7925
▁үнөө	-7926
▁USAID	-7927
▁ncial	-7928
▁аборт	-7929
▁вести	-7930
▁дейре	-7931
▁исича	-7932
▁ормал	-7933
▁ргени	-7934
▁сталь	-7935
▁урага	-7936
▁ургаб	-7937
▁ургат	-7938
▁ухара	-7939
▁шишик	-7940
▁ымкат	-7941
ЕК	-7942
цк	-7943
ён	-7944
нат	-7945
ови	-7946
▁Ar	-7947
▁Ду	-7948
▁Шо	-7949
▁114	-7950
▁360	-7951
▁COP	-7952
▁XXI	-7953
▁Гал	-7954
▁Жүк	-7955
▁Рад	-7956
▁гас	-7957
▁йгө	-7958
▁лиф	-7959
▁лич	-7960
▁ной	-7961
▁рац	-7962
▁реб	-7963
▁тум	-7964
▁шчу	-7965
▁Asia	-7966
▁XVII	-7967
▁ФИФА	-7968
▁анта	-7969
▁арас	-7970
▁бляз	-7971
▁елес	-7972
▁ессе	-7973
▁олид	-7974
▁рави	-7975
▁сабо	-7976
▁тиби	-7977
▁трац	-7978
▁ялар	-7979
▁өңүл	-7980
▁ациял	-7981
▁басар	-7982
▁етоди	-7983
▁зурпа	-7984
▁ирзие	-7985
▁канды	-7986
▁майер	-7987
▁ндекс	-7988
▁рттер	-7989
▁өрдүн	-7990
:2	-7991
АП	-7992
ьз	-7993
ули	-7994
ург	-7995
▁(5	-7996
▁sc	-7997
▁ИВ	-7998
▁эӊ	-7999
▁ҮР	-8000
heck	-8001
▁240	-8002
▁omi	-8003
▁алу	-8004
▁лаз	-8005
▁лти	-8006
▁мми	-8007
▁нтр	-8008
▁окр	-8009
▁шур	-8010
▁Отан	-8011
▁Шейх	-8012
▁афар	-8013
▁ашид	-8014
▁венг	-8015
▁змир	-8016
▁ийиш	-8017
▁ирза	-8018
▁итар	-8019
▁котт	-8020
▁крет	-8021
▁орку	-8022
▁пкин	-8023
▁рдак	-8024
▁ртип	-8025
▁ызды	-8026
▁ышык	-8027
▁өктө	-8028
▁абына	-8029
▁агари	-8030
▁арльз	-8031
▁артын	-8032
▁ектер	-8033
▁лесни	-8034
▁ликти	-8035
▁позит	-8036
▁радан	-8037
▁риман	-8038
▁терео	-8039
▁урдур	-8040
PA	-8041
ww	-8042
КК	-8043
анж	-8044
уло	-8045
▁3%	-8046
▁6-	-8047
▁Sa	-8048
▁nt	-8049
▁re	-8050
▁Нэ	-8051
▁ФЕ	-8052
▁155	-8053
▁850	-8054
▁Bel	-8055
▁Com	-8056
▁gov	-8057
▁www	-8058
▁Ато	-8059
▁ДСУ	-8060
▁ази	-8061
▁арв	-8062
▁епа	-8063
▁ито	-8064
▁йду	-8065
▁оке	-8066
▁онс	-8067
▁оод	-8068
▁пав	-8069
▁рар	-8070
▁шым	-8071
▁ыза	-8072
▁ңда	-8073
▁Eura	-8074
▁Прид	-8075
▁Учур	-8076
▁арко	-8077
▁барг	-8078
▁берт	-8079
▁втан	-8080
▁дина	-8081
▁йтап	-8082
▁клас	-8083
▁ктоо	-8084
▁лдун	-8085
▁педо	-8086
▁ропо	-8087
▁руху	-8088
▁упян	-8089
▁усун	-8090
▁фина	-8091
▁штин	-8092
▁өмөн	-8093
▁Стокг	-8094
▁аксыт	-8095
▁архат	-8096
▁енера	-8097
▁калуу	-8098
▁кетин	-8099
▁ндиги	-8100
▁нефте	-8101
▁нодар	-8102
:3	-8103
ya	-8104
как	-8105
хаб	-8106
чык	-8107
▁",	-8108
▁6%	-8109
▁Al	-8110
▁rg	-8111
▁sa	-8112
▁Йо	-8113
▁Ты	-8114
▁оӊ	-8115
▁103	-8116
▁106	-8117
▁145	-8118
▁210	-8119
▁280	-8120
▁cat	-8121
▁org	-8122
▁Ден	-8123
▁Мал	-8124
▁Тик	-8125
▁Цой	-8126
▁Шев	-8127
▁Шри	-8128
▁айж	-8129
▁аун	-8130
▁аӊы	-8131
▁буу	-8132
▁еши	-8133
▁ивд	-8134
▁йге	-8135
▁лсе	-8136
▁ное	-8137
▁пап	-8138
▁рно	-8139
▁шве	-8140
▁өсө	-8141
▁РИКС	-8142
▁Сайп	-8143
▁айти	-8144
▁арик	-8145
▁арин	-8146
▁атаң	-8147
▁вока	-8148
▁зник	-8149
▁кайр	-8150
▁моди	-8151
▁нсул	-8152
▁рдан	-8153
▁уугу	-8154
▁шыпы	-8155
▁ыбын	-8156
▁өөгү	-8157
▁Гарри	-8158
▁Элиза	-8159
▁адрид	-8160
▁иллер	-8161
▁иркел	-8162
▁мумин	-8163
▁нвест	-8164
▁оруна	-8165
▁полит	-8166
▁ролев	-8167
▁ырмал	-8168
▁ңгээл	-8169
AL	-8170
IC	-8171
ёв	-8172
▁j	-8173
АСА	-8174
КСО	-8175
вой	-8176
пер	-8177
сте	-8178
▁..	-8179
▁IR	-8180
▁el	-8181
▁ow	-8182
▁ro	-8183
▁te	-8184
▁Пл	-8185
▁ХХ	-8186
алат	-8187
▁1,8	-8188
▁24"	-8189
▁270	-8190
▁For	-8191
▁ren	-8192
▁sia	-8193
▁Таң	-8194
▁Уши	-8195
▁Шер	-8196
▁аро	-8197
▁аус	-8198
▁олт	-8199
▁тпе	-8200
▁ыга	-8201
▁ытт	-8202
▁ажай	-8203
▁айло	-8204
▁айты	-8205
▁аста	-8206
▁илеп	-8207
▁йтыл	-8208
▁кета	-8209
▁кырд	-8210
▁лоте	-8211
▁оорд	-8212
▁оран	-8213
▁рукс	-8214
▁стен	-8215
▁суну	-8216
▁тажи	-8217
▁укур	-8218
▁ыйым	-8219
▁еляби	-8220
▁зыркы	-8221
▁матка	-8222
▁осток	-8223
▁пьеса	-8224
▁ссанж	-8225
▁ташты	-8226
▁уктар	-8227
▁ҮРКСО	-8228
FC	-8229
MA	-8230
lu	-8231
АЗ	-8232
ИК	-8233
жон	-8234
кай	-8235
▁AI	-8236
▁SW	-8237
▁нх	-8238
▁эп	-8239
▁ңу	-8240
▁...	-8241
▁107	-8242
▁112	-8243
▁135	-8244
▁App	-8245
▁Glo	-8246
▁Gua	-8247
▁bal	-8248
▁lli	-8249
▁Ник	-8250
▁ПЕК	-8251
▁Пен	-8252
▁Таж	-8253
▁алс	-8254
▁жид	-8255
▁ишп	-8256
▁лсу	-8257
▁нац	-8258
▁олч	-8259
▁пен	-8260
▁риж	-8261
▁чап	-8262
▁чып	-8263
▁юнд	-8264
▁өмү	-8265
▁Star	-8266
▁ress	-8267
▁Акыр	-8268
▁НАСА	-8269
▁ФЕТО	-8270
▁Шевч	-8271
▁аани	-8272
▁аким	-8273
▁апчы	-8274
▁арпы	-8275
▁бама	-8276
▁виде	-8277
▁йлык	-8278
▁йтыш	-8279
▁кири	-8280
▁ктай	-8281
▁ктун	-8282
▁льян	-8283
▁ндөр	-8284
▁норм	-8285
▁поль	-8286
▁сара	-8287
▁укан	-8288
▁уумп	-8289
▁шард	-8290
▁авлян	-8291
▁андаг	-8292
▁ерчил	-8293
▁лейте	-8294
▁нтген	-8295
▁рылып	-8296
▁синки	-8297
▁тасын	-8298
▁шекер	-8299
▁ырама	-8300
ER	-8301
da	-8302
ek	-8303
ез	-8304
ini	-8305
ыра	-8306
▁RE	-8307
▁Sc	-8308
▁КП	-8309
▁ои	-8310
▁ёр	-8311
▁ure	-8312
▁ИВЛ	-8313
▁Лаг	-8314
▁Эко	-8315
▁бах	-8316
▁гөч	-8317
▁ейс	-8318
▁жаа	-8319
▁йке	-8320
▁мпе	-8321
▁опт	-8322
▁рүм	-8323
▁сми	-8324
▁сык	-8325
▁фит	-8326
▁хор	-8327
▁erra	-8328
▁Жара	-8329
▁Прот	-8330
▁арки	-8331
▁ахса	-8332
▁беки	-8333
▁бого	-8334
▁енеш	-8335
▁здан	-8336
▁зооп	-8337
▁икро	-8338
▁ктин	-8339
▁мчек	-8340
▁огор	-8341
▁плюс	-8342
▁през	-8343
▁риан	-8344
▁рөөн	-8345
▁унук	-8346
▁өрдө	-8347
▁аркак	-8348
▁арыла	-8349
▁афаэл	-8350
▁врора	-8351
▁грамо	-8352
▁ергек	-8353
▁ибирь	-8354
▁имент	-8355
▁оорун	-8356
▁ораса	-8357
▁орден	-8358
▁робот	-8359
▁угушу	-8360
▁ысына	-8361
MS	-8362
fe	-8363
ьс	-8364
IFT	-8365
▁2"	-8366
▁Ec	-8367
▁RT	-8368
▁Ra	-8369
▁ba	-8370
▁бд	-8371
▁лс	-8372
▁фо	-8373
▁юр	-8374
▁1,6	-8375
▁109	-8376
▁134	-8377
▁Pro	-8378
▁ral	-8379
▁ver	-8380
▁ИДП	-8381
▁Люд	-8382
▁Оюн	-8383
▁Сом	-8384
▁Чав	-8385
▁гей	-8386
▁күб	-8387
▁мго	-8388
▁рох	-8389
▁рти	-8390
▁суф	-8391
▁тад	-8392
▁уле	-8393
▁шик	-8394
▁энб	-8395
▁ңку	-8396
▁Fact	-8397
▁Голо	-8398
▁Кали	-8399
▁Крим	-8400
▁Пост	-8401
▁алуж	-8402
▁ауна	-8403
▁генд	-8404
▁дона	-8405
▁ейми	-8406
▁емси	-8407
▁етху	-8408
▁икир	-8409
▁лони	-8410
▁нтро	-8411
▁олун	-8412
▁ольф	-8413
▁онуш	-8414
▁оябр	-8415
▁рызд	-8416
▁тиши	-8417
▁үрүш	-8418
▁SWIFT	-8419
▁lines	-8420
▁Голов	-8421
▁аллон	-8422
▁арина	-8423
▁арнак	-8424
▁афтар	-8425
▁ахрам	-8426
▁едрос	-8427
▁екист	-8428
▁ирриг	-8429
▁личко	-8430
▁лушун	-8431
▁макты	-8432
▁матты	-8433
▁ойрон	-8434
▁рлиги	-8435
▁рүүгө	-8436
▁станц	-8437
▁ургап	-8438
▁урхан	-8439
▁уучул	-8440
▁юндар	-8441
АР	-8442
БР	-8443
гм	-8444
ех	-8445
як	-8446
pen	-8447
име	-8448
нит	-8449
отч	-8450
▁(4	-8451
▁TA	-8452
▁ak	-8453
▁en	-8454
▁ht	-8455
▁Бл	-8456
▁МА	-8457
▁Ни	-8458
▁Об	-8459
▁Эт	-8460
▁154	-8461
▁550	-8462
▁6-7	-8463
▁Пай	-8464
▁ФАП	-8465
▁йдо	-8466
▁йты	-8467
▁спо	-8468
▁Euro	-8469
▁Open	-8470
▁harm	-8471
▁Кана	-8472
▁Рево	-8473
▁дата	-8474
▁елит	-8475
▁енск	-8476
▁ерап	-8477
▁ерме	-8478
▁ечик	-8479
▁еште	-8480
▁иним	-8481
▁лбас	-8482
▁лчил	-8483
▁нура	-8484
▁ньюс	-8485
▁раил	-8486
▁рмак	-8487
▁тоор	-8488
▁удук	-8489
▁Sinop	-8490
▁аганы	-8491
▁аниил	-8492
▁аннер	-8493
▁батта	-8494
▁герим	-8495
▁ексен	-8496
▁елито	-8497
▁етеор	-8498
▁игини	-8499
▁истер	-8500
▁лдары	-8501
▁назик	-8502
▁пкини	-8503
▁уттуу	-8504
▁шагыл	-8505
21	-8506
27	-8507
ky	-8508
um	-8509
РУ	-8510
еф	-8511
зе	-8512
фу	-8513
нер	-8514
уза	-8515
▁8%	-8516
▁Do	-8517
▁si	-8518
▁Жы	-8519
▁гл	-8520
▁зг	-8521
илан	-8522
▁108	-8523
▁330	-8524
▁Fra	-8525
▁Кай	-8526
▁Шах	-8527
▁ачу	-8528
▁вин	-8529
▁гир	-8530
▁лок	-8531
▁нст	-8532
▁ово	-8533
▁окс	-8534
▁опе	-8535
▁рзы	-8536
▁рст	-8537
▁рүп	-8538
▁ынг	-8539
▁Боло	-8540
▁Любо	-8541
▁Люкс	-8542
▁авид	-8543
▁акап	-8544
▁арис	-8545
▁була	-8546
▁дека	-8547
▁едор	-8548
▁екир	-8549
▁енго	-8550
▁ерна	-8551
▁имми	-8552
▁итте	-8553
▁итти	-8554
▁кабы	-8555
▁кава	-8556
▁ктук	-8557
▁олсо	-8558
▁ооро	-8559
▁раке	-8560
▁реку	-8561
▁улпу	-8562
▁упик	-8563
▁урят	-8564
▁ыпар	-8565
▁эпид	-8566
▁Apple	-8567
▁Belli	-8568
▁аганд	-8569
▁айдар	-8570
▁алага	-8571
▁аркти	-8572
▁гинек	-8573
▁гност	-8574
▁едина	-8575
▁ештин	-8576
▁йткан	-8577
▁кески	-8578
▁митен	-8579
▁нганд	-8580
▁олиси	-8581
▁ортту	-8582
▁ректи	-8583
▁тайды	-8584
ca	-8585
КП	-8586
Эң	-8587
хг	-8588
үч	-8589
▁&	-8590
▁q	-8591
enz	-8592
ily	-8593
кас	-8594
рет	-8595
уше	-8596
▁CP	-8597
▁Ha	-8598
▁Ja	-8599
▁Pa	-8600
▁Ta	-8601
▁ri	-8602
▁Ум	-8603
▁Юн	-8604
▁164	-8605
▁2,2	-8606
▁26%	-8607
▁420	-8608
▁85%	-8609
▁95%	-8610
▁Ган	-8611
▁ЖРТ	-8612
▁Жай	-8613
▁Мун	-8614
▁Рио	-8615
▁Сел	-8616
▁адд	-8617
▁бук	-8618
▁вор	-8619
▁йга	-8620
▁нук	-8621
▁оош	-8622
▁оси	-8623
▁рой	-8624
▁ссе	-8625
▁чер	-8626
▁Econ	-8627
▁link	-8628
▁Пами	-8629
▁План	-8630
▁Рича	-8631
▁Ушак	-8632
▁Шифа	-8633
▁абиш	-8634
▁ажеп	-8635
▁алем	-8636
▁аргы	-8637
▁ачин	-8638
▁аяша	-8639
▁байл	-8640
▁гарм	-8641
▁гори	-8642
▁лкан	-8643
▁мила	-8644
▁мүрү	-8645
▁налд	-8646
▁нгер	-8647
▁нефт	-8648
▁обин	-8649
▁райс	-8650
▁райы	-8651
▁текш	-8652
▁уард	-8653
▁ужах	-8654
▁үргө	-8655
▁Чавуш	-8656
▁аркап	-8657
▁аткер	-8658
▁ахмат	-8659
▁елеси	-8660
▁икита	-8661
▁патру	-8662
▁тышты	-8663
▁улкан	-8664
▁шууга	-8665
20	-8666
FA	-8667
МС	-8668
ль	-8669
эм	-8670
est	-8671
ака	-8672
амо	-8673
аре	-8674
ати	-8675
цки	-8676
▁AP	-8677
▁NA	-8678
▁Su	-8679
▁дд	-8680
▁уж	-8681
▁өӊ	-8682
▁124	-8683
▁138	-8684
▁146	-8685
▁163	-8686
▁176	-8687
▁275	-8688
▁ATA	-8689
▁Mon	-8690
▁UFC	-8691
▁nge	-8692
▁rgy	-8693
▁Бен	-8694
▁Лиз	-8695
▁ОВД	-8696
▁Рак	-8697
▁акч	-8698
▁вол	-8699
▁лке	-8700
▁миӊ	-8701
▁нно	-8702
▁ноя	-8703
▁рбе	-8704
▁рна	-8705
▁рущ	-8706
▁тою	-8707
▁тто	-8708
▁тыб	-8709
▁унк	-8710
▁stan	-8711
▁Виза	-8712
▁Жакы	-8713
▁Тыва	-8714
▁азил	-8715
▁аиса	-8716
▁амыр	-8717
▁анки	-8718
▁дуло	-8719
▁ейда	-8720
▁есна	-8721
▁куул	-8722
▁нали	-8723
▁нтти	-8724
▁нөкт	-8725
▁олта	-8726
▁рита	-8727
▁слан	-8728
▁удум	-8729
▁храм	-8730
▁Daily	-8731
▁rdian	-8732
▁вайде	-8733
▁гаруу	-8734
▁емцов	-8735
▁ермез	-8736
▁когол	-8737
▁ланын	-8738
▁манке	-8739
▁овхоз	-8740
▁ржант	-8741
▁усуна	-8742
▁уулда	-8743
▁шыкак	-8744
▁ыйнак	-8745
▁ыраха	-8746
di	-8747
kA	-8748
tp	-8749
ul	-8750
vi	-8751
ТА	-8752
лу	-8753
ine	-8754
енж	-8755
ирк	-8756
▁Se	-8757
▁Wi	-8758
▁di	-8759
▁to	-8760
▁Ва	-8761
▁рц	-8762
▁ңо	-8763
нест	-8764
▁104	-8765
▁117	-8766
▁165	-8767
▁BkA	-8768
▁CMS	-8769
▁Net	-8770
▁Wel	-8771
▁mat	-8772
▁Але	-8773
▁Лос	-8774
▁РБК	-8775
▁РСК	-8776
▁ТМУ	-8777
▁Тек	-8778
▁ааб	-8779
▁бор	-8780
▁гуп	-8781
▁зма	-8782
▁ийч	-8783
▁көң	-8784
▁ней	-8785
▁нюс	-8786
▁оюм	-8787
▁пра	-8788
▁ргы	-8789
▁реш	-8790
▁рле	-8791
▁суд	-8792
▁хаб	-8793
▁чон	-8794
▁Poli	-8795
▁http	-8796
▁ment	-8797
▁nspa	-8798
▁sche	-8799
▁Моск	-8800
▁Ради	-8801
▁ЭТТК	-8802
▁абур	-8803
▁адал	-8804
▁акеш	-8805
▁амар	-8806
▁арке	-8807
▁аске	-8808
▁ахта	-8809
▁аңгы	-8810
▁гриф	-8811
▁ерро	-8812
▁жатк	-8813
▁инка	-8814
▁итко	-8815
▁йдай	-8816
▁лама	-8817
▁лифт	-8818
▁льев	-8819
▁олов	-8820
▁риши	-8821
▁ркад	-8822
▁рула	-8823
▁рылд	-8824
▁трав	-8825
▁тышы	-8826
▁чийи	-8827
▁ыдай	-8828
▁ытта	-8829
▁ыңыр	-8830
▁үшүп	-8831
▁rency	-8832
▁Милан	-8833
▁Новая	-8834
▁айкем	-8835
▁алкон	-8836
▁лазиз	-8837
▁лешмо	-8838
▁лобби	-8839
▁новду	-8840
▁олбос	-8841
▁ракон	-8842
▁рнест	-8843
▁ташка	-8844
▁тетти	-8845
▁улпар	-8846
▁уркан	-8847
▁ыйрак	-8848
26	-8849
DA	-8850
SS	-8851
ox	-8852
pi	-8853
ru	-8854
ЕА	-8855
рь	-8856
бол	-8857
вен	-8858
вер	-8859
жоу	-8860
кул	-8861
лиф	-8862
опи	-8863
сел	-8864
ска	-8865
чуг	-8866
▁(3	-8867
▁Mi	-8868
▁SO	-8869
▁ny	-8870
▁ot	-8871
▁ta	-8872
▁Зи	-8873
▁НК	-8874
▁Оң	-8875
▁Яр	-8876
▁гэ	-8877
▁111	-8878
▁113	-8879
▁13%	-8880
▁136	-8881
▁18%	-8882
▁3,2	-8883
▁65%	-8884
▁CPJ	-8885
▁Kaz	-8886
▁rna	-8887
▁Цин	-8888
▁амс	-8889
▁ахи	-8890
▁гаш	-8891
▁енц	-8892
▁жим	-8893
▁зир	-8894
▁йго	-8895
▁пка	-8896
▁уми	-8897
▁урл	-8898
▁урш	-8899
▁хоз	-8900
▁янт	-8901
▁үшө	-8902
▁Meta	-8903
▁Mini	-8904
▁Mode	-8905
▁Stor	-8906
▁Золо	-8907
▁ОИИБ	-8908
▁Плюс	-8909
▁акен	-8910
▁аучи	-8911
▁бухг	-8912
▁ведо	-8913
▁елли	-8914
▁етан	-8915
▁инве	-8916
▁йтым	-8917
▁конф	-8918
▁ктык	-8919
▁лкөн	-8920
▁олто	-8921
▁оңур	-8922
▁пант	-8923
▁пута	-8924
▁пысы	-8925
▁рагы	-8926
▁ремя	-8927
▁рини	-8928
▁сток	-8929
▁тарм	-8930
▁усул	-8931
▁ылый	-8932
▁ышаа	-8933
▁ыязы	-8934
▁ябрь	-8935
▁ялда	-8936
▁Space	-8937
▁алкан	-8938
▁альма	-8939
▁анаке	-8940
▁андем	-8941
▁аниме	-8942
▁антер	-8943
▁бийке	-8944
▁гарни	-8945
▁гасын	-8946
▁дасын	-8947
▁езник	-8948
▁изель	-8949
▁наама	-8950
▁нефть	-8951
▁онент	-8952
▁остер	-8953
▁правд	-8954
▁рабыз	-8955
▁радар	-8956
▁рафик	-8957
▁ремон	-8958
▁тканы	-8959
▁усейн	-8960
▁шарап	-8961
gi	-8962
ly	-8963
УЛ	-8964
яж	-8965
ild	-8966
пол	-8967
шан	-8968
▁UN	-8969
▁ЕР	-8970
▁эз	-8971
▁1,1	-8972
▁101	-8973
▁11%	-8974
▁12%	-8975
▁122	-8976
▁2,6	-8977
▁8,5	-8978
▁Боз	-8979
▁Кен	-8980
▁Сок	-8981
▁амд	-8982
▁арж	-8983
▁аят	-8984
▁беп	-8985
▁дас	-8986
▁дов	-8987
▁еду	-8988
▁ешк	-8989
▁лгы	-8990
▁мөл	-8991
▁ота	-8992
▁рби	-8993
▁рүн	-8994
▁скв	-8995
▁сты	-8996
▁тың	-8997
▁уал	-8998
▁өөл	-8999
▁Зила	-9000
▁Кадр	-9001
▁НКВД	-9002
▁агер	-9003
▁айип	-9004
▁айте	-9005
▁акар	-9006
▁акет	-9007
▁алпу	-9008
▁анжы	-9009
▁вага	-9010
▁евер	-9011
▁елик	-9012
▁епил	-9013
▁жаал	-9014
▁илаш	-9015
▁инне	-9016
▁ирме	-9017
▁квад	-9018
▁киев	-9019
▁курт	-9020
▁нкул	-9021
▁огуу	-9022
▁опол	-9023
▁пард	-9024
▁птоо	-9025
▁раве	-9026
▁резе	-9027
▁рене	-9028
▁ришт	-9029
▁стын	-9030
▁тест	-9031
▁ттеж	-9032
▁угал	-9033
▁укар	-9034
▁унак	-9035
▁урут	-9036
▁усан	-9037
▁цирк	-9038
▁штеп	-9039
▁этек	-9040
▁абали	-9041
▁айкал	-9042
▁алпыс	-9043
▁андер	-9044
▁илдөө	-9045
▁нуэль	-9046
▁олтав	-9047
▁расса	-9048
▁тозог	-9049
▁урукт	-9050
▁чийме	-9051
▁шында	-9052
▁ырган	-9053
ТВ	-9054
аа	-9055
дел	-9056
пыл	-9057
щик	-9058
▁(8	-9059
▁(9	-9060
▁Ex	-9061
▁Ru	-9062
▁Фу	-9063
▁йж	-9064
▁нн	-9065
▁215	-9066
▁225	-9067
▁9,5	-9068
▁Con	-9069
▁EPA	-9070
▁Sun	-9071
▁Uni	-9072
▁men	-9073
▁Аты	-9074
▁Жүз	-9075
▁Лай	-9076
▁Сма	-9077
▁Тээ	-9078
▁Түн	-9079
▁азу	-9080
▁атч	-9081
▁ачк	-9082
▁етх	-9083
▁зүл	-9084
▁итт	-9085
▁иче	-9086
▁йги	-9087
▁йкы	-9088
▁күү	-9089
▁маң	-9090
▁пис	-9091
▁рпа	-9092
▁сир	-9093
▁сог	-9094
▁шүп	-9095
▁Chat	-9096
▁Deut	-9097
▁Цзян	-9098
▁Шарт	-9099
▁акаш	-9100
▁анте	-9101
▁анян	-9102
▁асап	-9103
▁ахир	-9104
▁ахри	-9105
▁бакы	-9106
▁егич	-9107
▁едия	-9108
▁елиз	-9109
▁ерат	-9110
▁ерсе	-9111
▁етра	-9112
▁иске	-9113
▁нушу	-9114
▁ороп	-9115
▁педи	-9116
▁ронд	-9117
▁роце	-9118
▁рсен	-9119
▁тозо	-9120
▁үккө	-9121
▁Пневм	-9122
▁абсол	-9123
▁актай	-9124
▁алама	-9125
▁алмай	-9126
▁аниел	-9127
▁анынд	-9128
▁арыял	-9129
▁аулет	-9130
▁балын	-9131
▁бейпи	-9132
▁жалат	-9133
▁ирмем	-9134
▁мадан	-9135
▁отоци	-9136
▁тивен	-9137
▁тимул	-9138
▁шевик	-9139
▁юмдар	-9140
BS	-9141
mo	-9142
Ар	-9143
фо	-9144
aza	-9145
ива	-9146
ист	-9147
кал	-9148
лав	-9149
ола	-9150
▁IP	-9151
▁Ky	-9152
▁SA	-9153
▁КИ	-9154
▁Шу	-9155
▁ңж	-9156
▁10,	-9157
▁132	-9158
▁144	-9159
▁177	-9160
▁193	-9161
▁20,	-9162
▁33%	-9163
▁35%	-9164
▁IAL	-9165
▁Nat	-9166
▁Pri	-9167
▁Sky	-9168
▁der	-9169
▁tic	-9170
▁ЕЭК	-9171
▁Зил	-9172
▁Зоо	-9173
▁МОН	-9174
▁УИА	-9175
▁Хат	-9176
▁арз	-9177
▁бен	-9178
▁еко	-9179
▁енч	-9180
▁жип	-9181
▁инц	-9182
▁йлө	-9183
▁лек	-9184
▁нья	-9185
▁оог	-9186
▁осе	-9187
▁очи	-9188
▁рбо	-9189
▁ткө	-9190
▁тса	-9191
▁умч	-9192
▁упу	-9193
▁цев	-9194
▁шыб	-9195
▁юнх	-9196
▁ңүл	-9197
▁Insi	-9198
▁Shad	-9199
▁Сард	-9200
▁Уотч	-9201
▁азат	-9202
▁азын	-9203
▁акер	-9204
▁апал	-9205
▁асми	-9206
▁атва	-9207
▁аяке	-9208
▁брид	-9209
▁гене	-9210
▁елпи	-9211
▁есте	-9212
▁еӊеш	-9213
▁зинг	-9214
▁ктеп	-9215
▁куль	-9216
▁куро	-9217
▁лдан	-9218
▁онте	-9219
▁парз	-9220
▁перс	-9221
▁плей	-9222
▁пляж	-9223
▁ппак	-9224
▁раун	-9225
▁рекс	-9226
▁рена	-9227
▁ренс	-9228
▁рукт	-9229
▁тини	-9230
▁упул	-9231
▁урму	-9232
▁чакт	-9233
▁чеке	-9234
▁check	-9235
▁ардин	-9236
▁артин	-9237
▁ахаба	-9238
▁едуза	-9239
▁ерали	-9240
▁йдана	-9241
▁ксено	-9242
▁льван	-9243
▁ляска	-9244
▁малга	-9245
▁ожент	-9246
▁павло	-9247
▁равма	-9248
▁раунд	-9249
▁халат	-9250
▁ыганы	-9251
FF	-9252
ba	-9253
hi	-9254
ry	-9255
фе	-9256
urk	-9257
бат	-9258
вод	-9259
ини	-9260
ица	-9261
кут	-9262
сти	-9263
▁2.	-9264
▁Of	-9265
▁ay	-9266
▁АФ	-9267
▁Ди	-9268
▁лн	-9269
отса	-9270
▁116	-9271
▁127	-9272
▁162	-9273
▁195	-9274
▁75%	-9275
▁Ana	-9276
▁ght	-9277
▁Аяз	-9278
▁Лиц	-9279
▁МАИ	-9280
▁Отч	-9281
▁Риш	-9282
▁Сер	-9283
▁Түз	-9284
▁Хам	-9285
▁ань	-9286
▁афи	-9287
▁гео	-9288
▁гыш	-9289
▁еңи	-9290
▁зек	-9291
▁зиц	-9292
▁йса	-9293
▁убо	-9294
▁уде	-9295
▁янь	-9296
▁tube	-9297
▁Грин	-9298
▁Исла	-9299
▁ажар	-9300
▁айлы	-9301
▁аксу	-9302
▁аксү	-9303
▁анил	-9304
▁анна	-9305
▁арго	-9306
▁арзы	-9307
▁арян	-9308
▁атру	-9309
▁ахту	-9310
▁ашир	-9311
▁аярд	-9312
▁биле	-9313
▁гинд	-9314
▁глиф	-9315
▁дамд	-9316
▁даре	-9317
▁дпол	-9318
▁евин	-9319
▁ейро	-9320
▁екер	-9321
▁ельс	-9322
▁енчи	-9323
▁ерез	-9324
▁ехни	-9325
▁замб	-9326
▁зелт	-9327
▁зион	-9328
▁зулу	-9329
▁камо	-9330
▁кукт	-9331
▁кулд	-9332
▁лмаш	-9333
▁лург	-9334
▁мото	-9335
▁нтке	-9336
▁онде	-9337
▁орци	-9338
▁рдаг	-9339
▁респ	-9340
▁эвэн	-9341
▁Storm	-9342
▁аадан	-9343
▁айбер	-9344
▁алифа	-9345
▁архад	-9346
▁архан	-9347
▁астры	-9348
▁енеси	-9349
▁ентин	-9350
▁ерапе	-9351
▁еркас	-9352
▁ирена	-9353
▁лакта	-9354
▁лбейт	-9355
▁лдөрү	-9356
▁лифат	-9357
▁мство	-9358
▁нецов	-9359
▁остон	-9360
▁ратуу	-9361
▁убнов	-9362
▁ульмо	-9363
▁уршаб	-9364
▁ухрат	-9365
▁хосте	-9366
▁чабан	-9367
▁ырмак	-9368
▁үчтөр	-9369
29	-9370
31	-9371
do	-9372
va	-9373
СФ	-9374
ня	-9375
olo	-9376
вей	-9377
раб	-9378
рио	-9379
фар	-9380
элл	-9381
▁TU	-9382
▁ly	-9383
▁no	-9384
▁Ээ	-9385
▁11,	-9386
▁148	-9387
▁185	-9388
▁320	-9389
▁34%	-9390
▁560	-9391
▁99%	-9392
▁akh	-9393
▁Аза	-9394
▁Лах	-9395
▁Обс	-9396
▁Тол	-9397
▁Фиц	-9398
▁вад	-9399
▁еит	-9400
▁еро	-9401
▁жык	-9402
▁илу	-9403
▁иос	-9404
▁иса	-9405
▁йбы	-9406
▁йша	-9407
▁ктр	-9408
▁лео	-9409
▁леу	-9410
▁лом	-9411
▁низ	-9412
▁обу	-9413
▁оде	-9414
▁сть	-9415
▁уар	-9416
▁ырм	-9417
▁үнх	-9418
▁үшк	-9419
▁Scie	-9420
▁Влад	-9421
▁Кари	-9422
▁Уила	-9423
▁адап	-9424
▁айме	-9425
▁айфу	-9426
▁алпа	-9427
▁амис	-9428
▁атык	-9429
▁афур	-9430
▁ашта	-9431
▁даны	-9432
▁двок	-9433
▁ебин	-9434
▁енге	-9435
▁ешип	-9436
▁ешке	-9437
▁лден	-9438
▁льяс	-9439
▁мжон	-9440
▁нхва	-9441
▁оинг	-9442
▁рдөн	-9443
▁роне	-9444
▁рюдо	-9445
▁сеит	-9446
▁смет	-9447
▁тбол	-9448
▁өлөр	-9449
▁Голла	-9450
▁абари	-9451
▁айран	-9452
▁арант	-9453
▁аргун	-9454
▁астар	-9455
▁атташ	-9456
▁берен	-9457
▁ераси	-9458
▁истон	-9459
▁кетте	-9460
▁лапта	-9461
▁рантт	-9462
▁рэпер	-9463
▁сумка	-9464
▁өздөр	-9465
EX	-9466
SF	-9467
bi	-9468
Эч	-9469
хи	-9470
эк	-9471
Өз	-9472
УАР	-9473
дак	-9474
зио	-9475
зод	-9476
кет	-9477
лес	-9478
ная	-9479
ное	-9480
уса	-9481
хам	-9482
▁1"	-9483
▁Is	-9484
▁Ph	-9485
▁QR	-9486
▁so	-9487
▁Аг	-9488
▁лп	-9489
atri	-9490
▁1,9	-9491
▁123	-9492
▁142	-9493
▁143	-9494
▁16%	-9495
▁167	-9496
▁198	-9497
▁242	-9498
▁261	-9499
▁Dip	-9500
▁Mer	-9501
▁OFF	-9502
▁hen	-9503
▁ГУЛ	-9504
▁Гам	-9505
▁Дол	-9506
▁Жен	-9507
▁Зак	-9508
▁ЛДП	-9509
▁Либ	-9510
▁Мао	-9511
▁Мар	-9512
▁Сын	-9513
▁ФБР	-9514
▁Хон	-9515
▁аяз	-9516
▁биш	-9517
▁бро	-9518
▁бүр	-9519
▁ейп	-9520
▁йнө	-9521
▁луя	-9522
▁нчы	-9523
▁нша	-9524
▁омб	-9525
▁пек	-9526
▁пиц	-9527
▁рдө	-9528
▁рко	-9529
▁удс	-9530
▁ыпт	-9531
▁ычы	-9532
▁CASA	-9533
▁ЕРӨБ	-9534
▁Сага	-9535
▁Трав	-9536
▁ШУАР	-9537
▁ЭТТН	-9538
▁акас	-9539
▁акро	-9540
▁араа	-9541
▁арип	-9542
▁арсе	-9543
▁афиз	-9544
▁боюн	-9545
▁брон	-9546
▁верс	-9547
▁визу	-9548
▁влов	-9549
▁грин	-9550
▁екти	-9551
▁емиз	-9552
▁етиш	-9553
▁жооп	-9554
▁кино	-9555
▁лове	-9556
▁лтон	-9557
▁нгар	-9558
▁ноза	-9559
▁нора	-9560
▁ороз	-9561
▁осто	-9562
▁отте	-9563
▁расн	-9564
▁рата	-9565
▁салд	-9566
▁тина	-9567
▁толе	-9568
▁узаг	-9569
▁улик	-9570
▁чтөр	-9571
▁ыйыр	-9572
▁ылма	-9573
▁үшкө	-9574
▁China	-9575
▁Patri	-9576
▁Постс	-9577
▁адага	-9578
▁айзак	-9579
▁анчес	-9580
▁бланк	-9581
▁ереза	-9582
▁естер	-9583
▁зелки	-9584
▁кинем	-9585
▁кутер	-9586
▁лакап	-9587
▁лимит	-9588
▁ллект	-9589
▁милиц	-9590
▁олдат	-9591
▁орадо	-9592
▁ордай	-9593
▁прагм	-9594
▁ралык	-9595
▁ригор	-9596
▁рууда	-9597
▁слави	-9598
▁упара	-9599
▁хунта	-9600
▁ымынд	-9601
-9	-9602
ue	-9603
АК	-9604
ТС	-9605
цы	-9606
Үч	-9607
бод	-9608
жаш	-9609
иво	-9610
меч	-9611
ова	-9612
рал	-9613
рин	-9614
сар	-9615
тон	-9616
хат	-9617
цит	-9618
чер	-9619
шак	-9620
▁1)	-9621
▁1.	-9622
▁3.	-9623
▁4.	-9624
▁9%	-9625
▁GP	-9626
▁Lt	-9627
▁Na	-9628
▁Or	-9629
▁Pe	-9630
▁TB	-9631
▁gi	-9632
▁ov	-9633
▁Гу	-9634
▁Ча	-9635
▁Чу	-9636
▁йе	-9637
▁шл	-9638
азар	-9639
дикц	-9640
▁128	-9641
▁131	-9642
▁147	-9643
▁151	-9644
▁156	-9645
▁159	-9646
▁161	-9647
▁19,	-9648
▁207	-9649
▁Cor	-9650
▁Inc	-9651
▁NBC	-9652
▁gel	-9653
▁one	-9654
▁win	-9655
▁Гай	-9656
▁ДЭР	-9657
▁Дэн	-9658
▁Кыш	-9659
▁Мин	-9660
▁Рой	-9661
▁Тын	-9662
▁Чех	-9663
▁арн	-9664
▁даб	-9665
▁елл	-9666
▁еля	-9667
▁епе	-9668
▁кыт	-9669
▁рму	-9670
▁рош	-9671
▁сой	-9672
▁сян	-9673
▁тиб	-9674
▁TASS	-9675
▁rgyz	-9676
▁Зард	-9677
▁Крис	-9678
▁Риши	-9679
▁абиу	-9680
▁айан	-9681
▁алча	-9682
▁анка	-9683
▁арыт	-9684
▁асра	-9685
▁асте	-9686
▁асыр	-9687
▁варт	-9688
▁вила	-9689
▁гард	-9690
▁диум	-9691
▁дээр	-9692
▁ерри	-9693
▁етри	-9694
▁ечил	-9695
▁ешиг	-9696
▁заар	-9697
▁илал	-9698
▁ишви	-9699
▁каби	-9700
▁лева	-9701
▁ленд	-9702
▁лецк	-9703
▁ллек	-9704
▁мили	-9705
▁окоп	-9706
▁пинг	-9707
▁пион	-9708
▁ппар	-9709
▁рели	-9710
▁рмен	-9711
▁рмон	-9712
▁симе	-9713
▁таны	-9714
▁тино	-9715
▁ткус	-9716
▁току	-9717
▁толу	-9718
▁удур	-9719
▁улла	-9720
▁унар	-9721
▁чаль	-9722
▁чжоу	-9723
▁чыкт	-9724
▁шейх	-9725
▁ыгуу	-9726
▁ызак	-9727
▁ырык	-9728
▁этью	-9729
▁ярда	-9730
▁үлгө	-9731
▁Welle	-9732
▁азари	-9733
▁айнак	-9734
▁апжаш	-9735
▁аргар	-9736
▁аркаб	-9737
▁атабы	-9738
▁аялин	-9739
▁гипер	-9740
▁дорун	-9741
▁егени	-9742
▁заказ	-9743
▁иренж	-9744
▁ирзох	-9745
▁иткои	-9746
▁манап	-9747
▁мирно	-9748
▁норар	-9749
▁оливи	-9750
▁оргос	-9751
▁рашан	-9752
▁рулга	-9753
▁рүүлө	-9754
▁сдикц	-9755
▁сөздө	-9756
▁умшук	-9757
▁шерик	-9758
▁ылчык	-9759
▁ылыгы	-9760
▁ырчын	-9761
ES	-9762
HR	-9763
eb	-9764
fo	-9765
ft	-9766
ka	-9767
ВК	-9768
ПО	-9769
СП	-9770
гѳ	-9771
щи	-9772
ort	-9773
ДПК	-9774
йпа	-9775
ные	-9776
фер	-9777
▁Ga	-9778
▁ic	-9779
▁va	-9780
▁Ау	-9781
▁ГК	-9782
▁Зе	-9783
▁бэ	-9784
▁ню	-9785
▁ня	-9786
▁ѳз	-9787
▁өб	-9788
▁12,	-9789
▁126	-9790
▁14%	-9791
▁15,	-9792
▁152	-9793
▁178	-9794
▁188	-9795
▁199	-9796
▁247	-9797
▁252	-9798
▁3,6	-9799
▁430	-9800
▁Gra	-9801
▁Ltd	-9802
▁XII	-9803
▁ech	-9804
▁Аун	-9805
▁Гил	-9806
▁Гур	-9807
▁Жөө	-9808
▁Иши	-9809
▁Кат	-9810
▁ЛЭР	-9811
▁Миң	-9812
▁Пак	-9813
▁При	-9814
▁аля	-9815
▁атм	-9816
▁аңс	-9817
▁гро	-9818
▁жез	-9819
▁жыт	-9820
▁зис	-9821
▁кыя	-9822
▁күп	-9823
▁миф	-9824
▁паз	-9825
▁пес	-9826
▁поп	-9827
▁рих	-9828
▁рөө	-9829
▁тсе	-9830
▁убл	-9831
▁уре	-9832
▁урж	-9833
▁уут	-9834
▁уэз	-9835
▁фти	-9836
▁чты	-9837
▁шае	-9838
▁ыяк	-9839
▁Defe	-9840
▁Offi	-9841
▁Turk	-9842
▁ЛДПР	-9843
▁Рика	-9844
▁ТВЕА	-9845
▁Фицо	-9846
▁алер	-9847
▁алех	-9848
▁амыш	-9849
▁анап	-9850
▁анто	-9851
▁арли	-9852
▁арто	-9853
▁асха	-9854
▁ауле	-9855
▁аңта	-9856
▁байб	-9857
▁вдик	-9858
▁докс	-9859
▁дрис	-9860
▁ебет	-9861
▁емей	-9862
▁иния	-9863
▁кано	-9864
▁куля	-9865
▁кылд	-9866
▁лайн	-9867
▁лтан	-9868
▁мида	-9869
▁моло	-9870
▁нияз	-9871
▁осте	-9872
▁пасс	-9873
▁пияз	-9874
▁плац	-9875
▁рлов	-9876
▁ромж	-9877
▁сака	-9878
▁саки	-9879
▁сама	-9880
▁скан	-9881
▁ская	-9882
▁убок	-9883
▁укен	-9884
▁усеи	-9885
▁утан	-9886
▁фиоп	-9887
▁швед	-9888
▁шиле	-9889
▁штан	-9890
▁шыка	-9891
▁ыйча	-9892
▁үчтү	-9893
▁Diplo	-9894
▁OFFIC	-9895
▁gence	-9896
▁Долон	-9897
▁айдай	-9898
▁алала	-9899
▁ашала	-9900
▁бридд	-9901
▁града	-9902
▁дуран	-9903
▁ейман	-9904
▁ерини	-9905
▁жазга	-9906
▁зуйпа	-9907
▁игери	-9908
▁ириге	-9909
▁лихан	-9910
▁оболь	-9911
▁ордур	-9912
▁парас	-9913
▁портр	-9914
▁порту	-9915
▁ребре	-9916
▁рейсу	-9917
▁ривой	-9918
▁ураны	-9919
▁ухрид	-9920
▁чурко	-9921
▁ырака	-9922
dy	-9923
ho	-9924
ОК	-9925
ём	-9926
▁Ѳ	-9927
▁қ	-9928
ers	-9929
esi	-9930
per	-9931
бар	-9932
бри	-9933
вин	-9934
воз	-9935
есе	-9936
ике	-9937
мид	-9938
нос	-9939
пак	-9940
рах	-9941
сян	-9942
уси	-9943
хон	-9944
▁Fi	-9945
▁Ni	-9946
▁ST	-9947
▁Va	-9948
▁am	-9949
▁bi	-9950
▁by	-9951
▁ce	-9952
▁ra	-9953
▁КЕ	-9954
▁Эй	-9955
▁уц	-9956
▁119	-9957
▁121	-9958
▁13,	-9959
▁17%	-9960
▁197	-9961
▁1:0	-9962
▁227	-9963
▁2:1	-9964
▁37%	-9965
▁370	-9966
▁386	-9967
▁460	-9968
▁Ama	-9969
▁Bay	-9970
▁Cli	-9971
▁RSF	-9972
▁SAR	-9973
▁ent	-9974
▁son	-9975
▁Аль	-9976
▁Ара	-9977
▁Зия	-9978
▁Рек	-9979
▁СМС	-9980
▁ЧВК	-9981
▁Шор	-9982
▁ЭКБ	-9983
▁агд	-9984
▁аит	-9985
▁анж	-9986
▁анр	-9987
▁аул	-9988
▁вел	-9989
▁гыд	-9990
▁едо	-9991
▁ено	-9992
▁зөт	-9993
▁кро	-9994
▁лив	-9995
▁лту	-9996
▁мээ	-9997
▁орп	-9998
▁оул	-9999
▁пке	-10000
▁риа	-10001
▁рээ	-10002
▁тау	-10003
▁өзө	-10004
▁Boei	-10005
▁NASA	-10006
▁grap	-10007
▁Гана	-10008
▁Кими	-10009
▁Лахш	-10010
▁Парк	-10011
▁Паст	-10012
▁Элит	-10013
▁аври	-10014
▁адак	-10015
▁ажыя	-10016
▁айша	-10017
▁акем	-10018
▁алах	-10019
▁алид	-10020
▁аляр	-10021
▁апан	-10022
▁атви	-10023
▁атри	-10024
▁ахан	-10025
▁бард	-10026
▁голе	-10027
▁дхан	-10028
▁ебеп	-10029
▁евге	-10030
▁ейне	-10031
▁енеж	-10032
▁енни	-10033
▁если	-10034
▁етео	-10035
▁ечел	-10036
▁жибе	-10037
▁зода	-10038
▁изги	-10039
▁иран	-10040
▁йжар	-10041
▁көчү	-10042
▁ланг	-10043
▁лжир	-10044
▁лоял	-10045
▁лсын	-10046
▁мдаг	-10047
▁нчыл	-10048
▁овла	-10049
▁пини	-10050
▁ркти	-10051
▁роби	-10052
▁робо	-10053
▁роно	-10054
▁рьев	-10055
▁секе	-10056
▁сунд	-10057
▁схат	-10058
▁текч	-10059
▁ттун	-10060
▁түзү	-10061
▁уанд	-10062
▁укай	-10063
▁умса	-10064
▁урад	-10065
▁чоло	-10066
▁швей	-10067
▁шиит	-10068
▁ыйып	-10069
▁ылаң	-10070
▁өрүп	-10071
▁Shenz	-10072
▁XVIII	-10073
▁media	-10074
▁Полот	-10075
▁авлат	-10076
▁авлов	-10077
▁алори	-10078
▁алпак	-10079
▁аниэл	-10080
▁аптан	-10081
▁араан	-10082
▁аркал	-10083
▁астер	-10084
▁аткак	-10085
▁атыра	-10086
▁балда	-10087
▁болат	-10088
▁гонду	-10089
▁елдет	-10090
▁ендей	-10091
▁ернак	-10092
▁индзо	-10093
▁инема	-10094
▁ирект	-10095
▁керди	-10096
▁кисло	-10097
▁матум	-10098
▁маңке	-10099
▁нарко	-10100
▁нгент	-10101
▁нейро	-10102
▁перей	-10103
▁тезио	-10104
▁удрет	-10105
▁укинг	-10106
▁устун	-10107
▁чийил	-10108
▁чикир	-10109
▁ыбыра	-10110
▁ыйпыл	-10111
▁юлган	-10112
PR	-10113
su	-10114
ЗИ	-10115
РО	-10116
ЧП	-10117
иб	-10118
ola	-10119
АГО	-10120
але	-10121
ени	-10122
куб	-10123
май	-10124
наз	-10125
ней	-10126
ний	-10127
риц	-10128
фал	-10129
яно	-10130
▁Be	-10131
▁LB	-10132
▁ME	-10133
▁Sy	-10134
▁an	-10135
▁КН	-10136
▁Кл	-10137
▁Ну	-10138
▁РФ	-10139
▁Уу	-10140
▁Ыр	-10141
▁Эш	-10142
▁бъ	-10143
▁мг	-10144
▁пк	-10145
▁рф	-10146
▁Үң	-10147
esla	-10148
ийпа	-10149
укер	-10150
▁166	-10151
▁172	-10152
▁209	-10153
▁212	-10154
▁232	-10155
▁238	-10156
▁251	-10157
▁281	-10158
▁290	-10159
▁3,3	-10160
▁3-5	-10161
▁365	-10162
▁4,3	-10163
▁437	-10164
▁520	-10165
▁8-9	-10166
▁CBS	-10167
▁Fox	-10168
▁Gre	-10169
▁Med	-10170
▁One	-10171
▁Rep	-10172
▁tor	-10173
▁vis	-10174
▁АФК	-10175
▁АӨБ	-10176
▁ВСП	-10177
▁Гон	-10178
▁ДНР	-10179
▁КМУ	-10180
▁Нед	-10181
▁Тап	-10182
▁Укр	-10183
▁Чжи	-10184
▁вед	-10185
▁вил	-10186
▁диг	-10187
▁дух	-10188
▁еид	-10189
▁ейн	-10190
▁елу	-10191
▁ерц	-10192
▁зон	-10193
▁лбе	-10194
▁лев	-10195
▁ныг	-10196
▁оан	-10197
▁ола	-10198
▁олб	-10199
▁оуз	-10200
▁раг	-10201
▁рро	-10202
▁тру	-10203
▁туй	-10204
▁уке	-10205
▁улк	-10206
▁ыяб	-10207
▁эво	-10208
▁ңур	-10209
▁үнк	-10210
▁үнт	-10211
▁үүс	-10212
▁Asta	-10213
▁Sino	-10214
▁face	-10215
▁gent	-10216
▁ГКЧП	-10217
▁Гран	-10218
▁Пайг	-10219
▁аамы	-10220
▁абад	-10221
▁айса	-10222
▁алес	-10223
▁аржа	-10224
▁арио	-10225
▁ауэр	-10226
▁ахди	-10227
▁ачыр	-10228
▁баст	-10229
▁бура	-10230
▁вгус	-10231
▁воле	-10232
▁гили	-10233
▁дана	-10234
▁ейла	-10235
▁ейли	-10236
▁ейпи	-10237
▁елле	-10238
▁етти	-10239
▁жини	-10240
▁заде	-10241
▁илла	-10242
▁инат	-10243
▁инду	-10244
▁иреп	-10245
▁йлик	-10246
▁леке	-10247
▁лерг	-10248
▁моль	-10249
▁морг	-10250
▁ната	-10251
▁ниге	-10252
▁нтек	-10253
▁осиф	-10254
▁отка	-10255
▁пане	-10256
▁пена	-10257
▁пери	-10258
▁ркан	-10259
▁ское	-10260
▁слам	-10261
▁спер	-10262
▁уват	-10263
▁улпи	-10264
▁умен	-10265
▁чене	-10266
▁шеде	-10267
▁эльс	-10268
▁ютте	-10269
▁өлүг	-10270
▁өлүн	-10271
▁Tesla	-10272
▁Отчет	-10273
▁абагы	-10274
▁адича	-10275
▁айкел	-10276
▁аксып	-10277
▁акуше	-10278
▁алгап	-10279
▁алдак	-10280
▁алима	-10281
▁амшан	-10282
▁артог	-10283
▁атали	-10284
▁ахали	-10285
▁диная	-10286
▁елени	-10287
▁елитр	-10288
▁ермер	-10289
▁етрос	-10290
▁зийпа	-10291
▁илеге	-10292
▁иркей	-10293
▁иядан	-10294
▁камал	-10295
▁ксана	-10296
▁ледар	-10297
▁ллекц	-10298
▁лүүдө	-10299
▁паста	-10300
▁талыш	-10301
▁топоз	-10302
▁тории	-10303
▁улдар	-10304
▁хазар	-10305
▁чучуг	-10306
▁шайта	-10307
▁ширел	-10308
▁ызала	-10309
▁ыкалы	-10310
.,	-10311
30	-10312
ТД	-10313
уа	-10314
▁_	-10315
▁Қ	-10316
зер	-10317
зит	-10318
иля	-10319
мыр	-10320
око	-10321
опа	-10322
пос	-10323
ури	-10324
чел	-10325
что	-10326
▁(2	-10327
▁04	-10328
▁Ab	-10329
▁BM	-10330
▁BY	-10331
▁CH	-10332
▁GT	-10333
▁IN	-10334
▁KS	-10335
▁ai	-10336
▁ch	-10337
▁mp	-10338
▁Ёл	-10339
▁АР	-10340
▁Бю	-10341
▁Из	-10342
▁вя	-10343
▁дь	-10344
▁кн	-10345
СФСР	-10346
гиче	-10347
еппе	-10348
отан	-10349
▁158	-10350
▁183	-10351
▁187	-10352
▁189	-10353
▁217	-10354
▁228	-10355
▁2:0	-10356
▁3,7	-10357
▁30,	-10358
▁337	-10359
▁4,6	-10360
▁446	-10361
▁640	-10362
▁Vis	-10363
▁and	-10364
▁cha	-10365
▁for	-10366
▁tal	-10367
▁the	-10368
▁Бут	-10369
▁ЕФА	-10370
▁ЖИА	-10371
▁Зам	-10372
▁Зиё	-10373
▁ЛТД	-10374
▁Тим	-10375
▁абч	-10376
▁ажо	-10377
▁акш	-10378
▁арп	-10379
▁аяп	-10380
▁аёо	-10381
▁аңы	-10382
▁гүс	-10383
▁део	-10384
▁егм	-10385
▁енн	-10386
▁еңг	-10387
▁жиб	-10388
▁коп	-10389
▁лта	-10390
▁лыб	-10391
▁мки	-10392
▁сес	-10393
▁уис	-10394
▁чүк	-10395
▁чүп	-10396
▁этт	-10397
▁өлд	-10398
▁LBMA	-10399
▁Spie	-10400
▁Wiki	-10401
▁tico	-10402
▁Бери	-10403
▁Жого	-10404
▁НДПК	-10405
▁Тула	-10406
▁аваи	-10407
▁акый	-10408
▁алыб	-10409
▁алый	-10410
▁анба	-10411
▁анес	-10412
▁арди	-10413
▁асим	-10414
▁атус	-10415
▁ауре	-10416
▁барч	-10417
▁брам	-10418
▁гейт	-10419
▁джет	-10420
▁ексе	-10421
▁елио	-10422
▁ельф	-10423
▁енем	-10424
▁ивуд	-10425
▁идор	-10426
▁инаг	-10427
▁итир	-10428
▁йбар	-10429
▁ккен	-10430
▁лора	-10431
▁меке	-10432
▁нсан	-10433
▁олон	-10434
▁орин	-10435
▁отел	-10436
▁раво	-10437
▁рода	-10438
▁смос	-10439
▁стаф	-10440
▁стуу	-10441
▁тине	-10442
▁ттал	-10443
▁удец	-10444
▁уляб	-10445
▁умшу	-10446
▁цназ	-10447
▁чеки	-10448
▁чуку	-10449
▁шаке	-10450
▁ырат	-10451
▁ысак	-10452
▁юлда	-10453
▁яхта	-10454
▁Compa	-10455
▁Бирин	-10456
▁Вотса	-10457
▁ГУЛАГ	-10458
▁РСФСР	-10459
▁Цукер	-10460
▁азхаб	-10461
▁айбай	-10462
▁айтка	-10463
▁ализа	-10464
▁арата	-10465
▁арвиз	-10466
▁артер	-10467
▁ахдат	-10468
▁ашага	-10469
▁багын	-10470
▁дхано	-10471
▁елово	-10472
▁ештер	-10473
▁заара	-10474
▁зеппе	-10475
▁илбар	-10476
▁йынан	-10477
▁кулда	-10478
▁лигас	-10479
▁мбрио	-10480
▁мгиче	-10481
▁найте	-10482
▁ницки	-10483
▁олитк	-10484
▁орген	-10485
▁ордин	-10486
▁оруну	-10487
▁плена	-10488
▁репер	-10489
▁ресло	-10490
▁ресто	-10491
▁рижёр	-10492
▁рсала	-10493
▁рсона	-10494
▁семит	-10495
▁ссета	-10496
▁тулло	-10497
▁умшак	-10498
▁уннит	-10499
▁чыпка	-10500
▁шайыр	-10501
:4	-10502
Ph	-10503
am	-10504
bo	-10505
it	-10506
si	-10507
КТ	-10508
НР	-10509
йк	-10510
ѳр	-10511
ӊг	-10512
▁@	-10513
bek	-10514
ond	-10515
oom	-10516
дея	-10517
окс	-10518
рих	-10519
руд	-10520
уши	-10521
фор	-10522
ээн	-10523
▁+7	-10524
▁0,	-10525
▁00	-10526
▁AR	-10527
▁CC	-10528
▁Ge	-10529
▁LE	-10530
▁Mu	-10531
▁RU	-10532
▁SI	-10533
▁TO	-10534
▁at	-10535
▁ll	-10536
▁ua	-10537
▁um	-10538
▁ЭЭ	-10539
▁Яп	-10540
▁жү	-10541
▁мт	-10542
▁үу	-10543
ороз	-10544
▁129	-10545
▁139	-10546
▁14,	-10547
▁153	-10548
▁168	-10549
▁169	-10550
▁174	-10551
▁192	-10552
▁2,4	-10553
▁201	-10554
▁205	-10555
▁28%	-10556
▁312	-10557
▁32%	-10558
▁329	-10559
▁3:1	-10560
▁950	-10561
▁970	-10562
▁ABC	-10563
▁Hon	-10564
▁ISW	-10565
▁Lea	-10566
▁ber	-10567
▁des	-10568
▁eta	-10569
▁iPh	-10570
▁ord	-10571
▁Ары	-10572
▁ВКП	-10573
▁ГРУ	-10574
▁Дар	-10575
▁ИИБ	-10576
▁Кис	-10577
▁МИК	-10578
▁Мая	-10579
▁Пин	-10580
▁Сол	-10581
▁Хар	-10582
▁ЦРУ	-10583
▁Шаш	-10584
▁Шум	-10585
▁ЭКО	-10586
▁акф	-10587
▁анб	-10588
▁бап	-10589
▁буй	-10590
▁виа	-10591
▁гак	-10592
▁жүн	-10593
▁зен	-10594
▁йни	-10595
▁каи	-10596
▁кие	-10597
▁нео	-10598
▁нни	-10599
▁оди	-10600
▁сил	-10601
▁улт	-10602
▁циа	-10603
▁чың	-10604
▁ылк	-10605
▁ыск	-10606
▁өдө	-10607
▁өкс	-10608
▁dent	-10609
▁line	-10610
▁lity	-10611
▁ssia	-10612
▁ЖККК	-10613
▁Жээн	-10614
▁Йоав	-10615
▁Клуб	-10616
▁Тран	-10617
▁Этно	-10618
▁азга	-10619
▁айзу	-10620
▁айли	-10621
▁ариа	-10622
▁арту	-10623
▁атың	-10624
▁аули	-10625
▁баты	-10626
▁ваза	-10627
▁годо	-10628
▁гсян	-10629
▁дала	-10630
▁дерс	-10631
▁ебап	-10632
▁едик	-10633
▁енич	-10634
▁еоро	-10635
▁ерещ	-10636
▁ерке	-10637
▁ернс	-10638
▁илош	-10639
▁имаш	-10640
▁имит	-10641
▁ирма	-10642
▁иста	-10643
▁кали	-10644
▁кирд	-10645
▁кост	-10646
▁кспо	-10647
▁лаус	-10648
▁летт	-10649
▁ллел	-10650
▁лыбы	-10651
▁люге	-10652
▁муса	-10653
▁мынд	-10654
▁олос	-10655
▁ороб	-10656
▁отту	-10657
▁пала	-10658
▁плюр	-10659
▁преф	-10660
▁пуле	-10661
▁репе	-10662
▁ртём	-10663
▁спис	-10664
▁стуг	-10665
▁терд	-10666
▁трей	-10667
▁тыва	-10668
▁узук	-10669
▁уйка	-10670
▁улян	-10671
▁умия	-10672
▁унде	-10673
▁урби	-10674
▁урен	-10675
▁хунд	-10676
▁ыпта	-10677
▁эзил	-10678
▁юмен	-10679
▁янни	-10680
▁яопи	-10681
▁үрүн	-10682
▁Shahe	-10683
▁Йохан	-10684
▁Хотан	-10685
▁агыны	-10686
▁аевди	-10687
▁айдер	-10688
▁айнар	-10689
▁айпак	-10690
▁алибр	-10691
▁алича	-10692
▁алхаш	-10693
▁амкай	-10694
▁анбек	-10695
▁антеп	-10696
▁арбак	-10697
▁атало	-10698
▁атеуш	-10699
▁ахима	-10700
▁бъект	-10701
▁вахта	-10702
▁досто	-10703
▁егенд	-10704
▁ейдар	-10705
▁ерони	-10706
▁идней	-10707
▁илиум	-10708
▁ишара	-10709
▁калет	-10710
▁канас	-10711
▁капар	-10712
▁коомд	-10713
▁кчасы	-10714
▁күлдө	-10715
▁майор	-10716
▁мурат	-10717
▁оввоз	-10718
▁оллес	-10719
▁рилет	-10720
▁рлери	-10721
▁рээзи	-10722
▁улиан	-10723
▁урпат	-10724
▁ухаре	-10725
▁ымчык	-10726
▁эниел	-10727
14	-10728
EM	-10729
ci	-10730
fa	-10731
sa	-10732
ub	-10733
RWA	-10734
art	-10735
аши	-10736
ели	-10737
зян	-10738
йни	-10739
күр	-10740
ляж	-10741
лүт	-10742
нюк	-10743
ссе	-10744
хра	-10745
эль	-10746
▁-2	-10747
▁Hy	-10748
▁MI	-10749
▁PO	-10750
▁SU	-10751
▁Vi	-10752
▁da	-10753
▁ki	-10754
▁ky	-10755
▁la	-10756
▁lo	-10757
▁nk	-10758
▁rt	-10759
▁Га	-10760
▁МС	-10761
▁РК	-10762
▁СА	-10763
▁Ут	-10764
▁ШК	-10765
▁вз	-10766
▁уо	-10767
▁юк	-10768
▁яз	-10769
▁яп	-10770
ариф	-10771
▁(60	-10772
▁171	-10773
▁186	-10774
▁2,8	-10775
▁202	-10776
▁21%	-10777
▁213	-10778
▁214	-10779
▁231	-10780
▁235	-10781
▁24%	-10782
▁264	-10783
▁332	-10784
▁340	-10785
▁372	-10786
▁380	-10787
▁4,2	-10788
▁4,4	-10789
▁44%	-10790
▁453	-10791
▁530	-10792
▁94%	-10793
▁BMW	-10794
▁Exp	-10795
▁Gen	-10796
▁IRI	-10797
▁Rya	-10798
▁bli	-10799
▁ron	-10800
▁БДК	-10801
▁Жас	-10802
▁КНС	-10803
▁ММК	-10804
▁Мат	-10805
▁Пат	-10806
▁Поз	-10807
▁Поэ	-10808
▁Рид	-10809
▁Сад	-10810
▁Тег	-10811
▁УЗИ	-10812
▁УКК	-10813
▁Уил	-10814
▁Умм	-10815
▁Хак	-10816
▁або	-10817
▁амп	-10818
▁анш	-10819
▁бэй	-10820
▁вас	-10821
▁гла	-10822
▁еда	-10823
▁епк	-10824
▁етс	-10825
▁зап	-10826
▁йда	-10827
▁йсы	-10828
▁йту	-10829
▁лед	-10830
▁лун	-10831
▁нто	-10832
▁нян	-10833
▁оду	-10834
▁оля	-10835
▁оңг	-10836
▁пту	-10837
▁рух	-10838
▁рюс	-10839
▁тав	-10840
▁тэн	-10841
▁удо	-10842
▁хар	-10843
▁хон	-10844
▁шаб	-10845
▁ырс	-10846
▁ңил	-10847
▁Amaz	-10848
▁Baza	-10849
▁Leop	-10850
▁Time	-10851
▁Бика	-10852
▁Бюро	-10853
▁Дого	-10854
▁КЭДП	-10855
▁Капи	-10856
▁Клим	-10857
▁Рига	-10858
▁Уриц	-10859
▁Фила	-10860
▁авах	-10861
▁агар	-10862
▁агат	-10863
▁агыт	-10864
▁адик	-10865
▁азот	-10866
▁аити	-10867
▁айбо	-10868
▁айтк	-10869
▁акко	-10870
▁акма	-10871
▁акым	-10872
▁амАЗ	-10873
▁амид	-10874
▁амми	-10875
▁апкы	-10876
▁аппе	-10877
▁апшы	-10878
▁апыл	-10879
▁арпи	-10880
▁атеи	-10881
▁атти	-10882
▁афий	-10883
▁аята	-10884
▁вани	-10885
▁диза	-10886
▁елмо	-10887
▁ерки	-10888
▁етаф	-10889
▁закц	-10890
▁ийбо	-10891
▁ираж	-10892
▁йына	-10893
▁кват	-10894
▁ллах	-10895
▁мири	-10896
▁нави	-10897
▁нвой	-10898
▁опур	-10899
▁орби	-10900
▁оров	-10901
▁осно	-10902
▁пато	-10903
▁реза	-10904
▁рент	-10905
▁роко	-10906
▁скоп	-10907
▁стем	-10908
▁стте	-10909
▁тело	-10910
▁теро	-10911
▁улта	-10912
▁умур	-10913
▁урум	-10914
▁шеги	-10915
▁штер	-10916
▁шыгы	-10917
▁ыгар	-10918
▁ызга	-10919
▁ыныш	-10920
▁ырыш	-10921
▁эрит	-10922
▁Check	-10923
▁Click	-10924
▁Merce	-10925
▁UNRWA	-10926
▁БУУну	-10927
▁Литви	-10928
▁Шамси	-10929
▁Шамши	-10930
▁ажные	-10931
▁алдыб	-10932
▁алынд	-10933
▁аннат	-10934
▁антон	-10935
▁арабы	-10936
▁арево	-10937
▁асфал	-10938
▁вропа	-10939
▁деста	-10940
▁диета	-10941
▁евлүт	-10942
▁ейган	-10943
▁еримб	-10944
▁ерово	-10945
▁иллиа	-10946
▁иннеа	-10947
▁исида	-10948
▁кабат	-10949
▁ктони	-10950
▁курга	-10951
▁локда	-10952
▁мазон	-10953
▁нефти	-10954
▁плацд	-10955
▁рафат	-10956
▁рейес	-10957
▁риген	-10958
▁рижер	-10959
▁серин	-10960
▁спруд	-10961
▁улянт	-10962
▁умита	-10963
▁урана	-10964
▁ыйнат	-10965
▁эвэнь	-10966
▁үчкүр	-10967
CA	-10968
EC	-10969
ET	-10970
co	-10971
rt	-10972
АЮ	-10973
Не	-10974
ТБ	-10975
ЭУ	-10976
бн	-10977
уц	-10978
хт	-10979
цо	-10980
▁Ş	-10981
▁Ɵ	-10982
▁Щ	-10983
▁щ	-10984
▁−	-10985
вел	-10986
гел	-10987
гыс	-10988
ело	-10989
жад	-10990
зип	-10991
лич	-10992
сак	-10993
хап	-10994
ьет	-10995
▁-1	-10996
▁AN	-10997
▁Bu	-10998
▁CI	-10999
▁El	-11000
▁Jo	-11001
▁KA	-11002
▁Lu	-11003
▁Mc	-11004
▁PR	-11005
▁RF	-11006
▁Uz	-11007
▁Ya	-11008
▁az	-11009
▁es	-11010
▁ka	-11011
▁ks	-11012
▁se	-11013
▁Ён	-11014
▁Дю	-11015
▁кк	-11016
▁нш	-11017
esti	-11018
▁133	-11019
▁181	-11020
▁2,1	-11021
▁22%	-11022
▁3,8	-11023
▁345	-11024
▁375	-11025
▁38%	-11026
▁390	-11027
▁425	-11028
▁45%	-11029
▁465	-11030
▁48%	-11031
▁492	-11032
▁519	-11033
▁540	-11034
▁6,3	-11035
▁67%	-11036
▁740	-11037
▁86%	-11038
▁98%	-11039
▁Der	-11040
▁Fou	-11041
▁GPT	-11042
▁Hua	-11043
▁Pha	-11044
▁TUT	-11045
▁bus	-11046
▁cus	-11047
▁era	-11048
▁lle	-11049
▁nta	-11050
▁rat	-11051
▁Абэ	-11052
▁Буш	-11053
▁Габ	-11054
▁Жек	-11055
▁Жов	-11056
▁Жун	-11057
▁ЛНР	-11058
▁Пик	-11059
▁Под	-11060
▁Сон	-11061
▁Сүт	-11062
▁Шмы	-11063
▁Шох	-11064
▁ЭКС	-11065
▁ЭЭФ	-11066
▁азг	-11067
▁бом	-11068
▁вей	-11069
▁гло	-11070
▁ейк	-11071
▁елч	-11072
▁иля	-11073
▁ияз	-11074
▁коб	-11075
▁кос	-11076
▁меш	-11077
▁муң	-11078
▁ргу	-11079
▁рзу	-11080
▁уат	-11081
▁уэй	-11082
▁уяк	-11083
▁уңг	-11084
▁фра	-11085
▁хья	-11086
▁чеп	-11087
▁чип	-11088
▁ыяз	-11089
▁ыят	-11090
▁үпк	-11091
▁үңг	-11092
▁Өзг	-11093
▁өңк	-11094
▁Biot	-11095
▁CAFA	-11096
▁Zoom	-11097
▁soft	-11098
▁КПСС	-11099
▁Кели	-11100
▁Кира	-11101
▁Мака	-11102
▁Мина	-11103
▁САГО	-11104
▁САИД	-11105
▁абаш	-11106
▁авир	-11107
▁агал	-11108
▁адид	-11109
▁айят	-11110
▁акке	-11111
▁алла	-11112
▁арея	-11113
▁арри	-11114
▁арте	-11115
▁арча	-11116
▁арши	-11117
▁асаб	-11118
▁атик	-11119
▁ашми	-11120
▁биху	-11121
▁бица	-11122
▁вере	-11123
▁вьет	-11124
▁гайо	-11125
▁гнит	-11126
▁далд	-11127
▁данд	-11128
▁ежда	-11129
▁елор	-11130
▁елоу	-11131
▁енер	-11132
▁епти	-11133
▁ерех	-11134
▁ерфи	-11135
▁ийри	-11136
▁илбе	-11137
▁иллю	-11138
▁илуф	-11139
▁илья	-11140
▁ирса	-11141
▁йдил	-11142
▁капт	-11143
▁клав	-11144
▁коря	-11145
▁ланы	-11146
▁лдая	-11147
▁лири	-11148
▁маза	-11149
▁мбай	-11150
▁месе	-11151
▁мета	-11152
▁ммун	-11153
▁наар	-11154
▁нсар	-11155
▁нцев	-11156
▁ншаа	-11157
▁овин	-11158
▁оймо	-11159
▁окер	-11160
▁птик	-11161
▁раги	-11162
▁ргын	-11163
▁риго	-11164
▁ринг	-11165
▁рпич	-11166
▁ртеж	-11167
▁рщик	-11168
▁слин	-11169
▁стюм	-11170
▁туля	-11171
▁удра	-11172
▁улли	-11173
▁ульс	-11174
▁унни	-11175
▁усей	-11176
▁ухар	-11177
▁шерм	-11178
▁штег	-11179
▁ыяма	-11180
▁эзип	-11181
▁янск	-11182
▁graph	-11183
▁ЖКККБ	-11184
▁Керки	-11185
▁аариф	-11186
▁ажары	-11187
▁алтер	-11188
▁анама	-11189
▁антын	-11190
▁ариел	-11191
▁асмий	-11192
▁атмус	-11193
▁атрик	-11194
▁ашаал	-11195
▁аяман	-11196
▁билбе	-11197
▁былка	-11198
▁гашиш	-11199
▁глава	-11200
▁дамда	-11201
▁ейпин	-11202
▁ейхан	-11203
▁ереми	-11204
▁ероси	-11205
▁еслан	-11206
▁жатка	-11207
▁йырма	-11208
▁кесин	-11209
▁крино	-11210
▁литва	-11211
▁малик	-11212
▁мейни	-11213
▁мента	-11214
▁мстер	-11215
▁павил	-11216
▁рдеон	-11217
▁торми	-11218
▁тояно	-11219
▁турга	-11220
▁тылуу	-11221
▁умшуг	-11222
▁урдай	-11223
▁ченеп	-11224
▁шаган	-11225
▁ширет	-11226
▁шыкал	-11227
▁ылака	-11228
▁ыртык	-11229
▁ыскар	-11230
▁ыябан	-11231
EN	-11232
GM	-11233
PN	-11234
TI	-11235
WW	-11236
YT	-11237
gu	-11238
ui	-11239
wa	-11240
ВС	-11241
ДС	-11242
ПУ	-11243
Ыр	-11244
чк	-11245
чо	-11246
ще	-11247
ьо	-11248
▁\	-11249
ank	-11250
tal	-11251
tan	-11252
бют	-11253
вор	-11254
еда	-11255
ето	-11256
или	-11257
нич	-11258
оли	-11259
пел	-11260
пот	-11261
рас	-11262
тед	-11263
фел	-11264
хот	-11265
цев	-11266
чей	-11267
шад	-11268
ьма	-11269
▁06	-11270
▁Au	-11271
▁BT	-11272
▁En	-11273
▁GI	-11274
▁Ho	-11275
▁Ka	-11276
▁Ox	-11277
▁Ve	-11278
▁ck	-11279
▁ct	-11280
▁ld	-11281
▁ya	-11282
▁БК	-11283
▁Бы	-11284
▁Гё	-11285
▁Ир	-11286
▁Ун	-11287
▁Чи	-11288
▁гн	-11289
▁ея	-11290
▁кз	-11291
▁кф	-11292
▁пш	-11293
▁ря	-11294
▁ѳр	-11295
▁ѳт	-11296
icro	-11297
РООН	-11298
укур	-11299
улло	-11300
▁0,5	-11301
▁173	-11302
▁18,	-11303
▁191	-11304
▁2,7	-11305
▁2,9	-11306
▁221	-11307
▁224	-11308
▁241	-11309
▁245	-11310
▁268	-11311
▁27%	-11312
▁283	-11313
▁3,4	-11314
▁381	-11315
▁4,8	-11316
▁47%	-11317
▁470	-11318
▁51%	-11319
▁690	-11320
▁719	-11321
▁770	-11322
▁79%	-11323
▁858	-11324
▁And	-11325
▁Ara	-11326
▁Fut	-11327
▁Gaz	-11328
▁Man	-11329
▁Qaz	-11330
▁Qua	-11331
▁Toy	-11332
▁UWW	-11333
▁VPN	-11334
▁ect	-11335
▁man	-11336
▁nse	-11337
▁olu	-11338
▁ork	-11339
▁ort	-11340
▁ted	-11341
▁БАК	-11342
▁Бил	-11343
▁Бош	-11344
▁ГВт	-11345
▁Ибн	-11346
▁КИВ	-11347
▁КТР	-11348
▁Кэр	-11349
▁Лас	-11350
▁Нев	-11351
▁Низ	-11352
▁Пап	-11353
▁Рик	-11354
▁Рог	-11355
▁Руа	-11356
▁Рэт	-11357
▁Смо	-11358
▁Шап	-11359
▁Шон	-11360
▁абу	-11361
▁аду	-11362
▁азд	-11363
▁ать	-11364
▁аюм	-11365
▁бег	-11366
▁бед	-11367
▁гау	-11368
▁дыг	-11369
▁ейд	-11370
▁ейл	-11371
▁жев	-11372
▁ибн	-11373
▁йба	-11374
▁йку	-11375
▁йпа	-11376
▁кая	-11377
▁кно	-11378
▁лоп	-11379
▁мВт	-11380
▁маа	-11381
▁ные	-11382
▁раң	-11383
▁ргө	-11384
▁рла	-11385
▁тки	-11386
▁түс	-11387
▁уби	-11388
▁уэц	-11389
▁уюк	-11390
▁цех	-11391
▁цун	-11392
▁чуб	-11393
▁ыкч	-11394
▁Үйү	-11395
▁үүг	-11396
▁Coca	-11397
▁Cola	-11398
▁Phot	-11399
▁Wild	-11400
▁ndat	-11401
▁ness	-11402
▁Блум	-11403
▁Гала	-11404
▁Дина	-11405
▁Ждан	-11406
▁Зема	-11407
▁Зоот	-11408
▁Идея	-11409
▁Пант	-11410
▁абиз	-11411
▁авил	-11412
▁аджи	-11413
▁айис	-11414
▁айха	-11415
▁акил	-11416
▁анак	-11417
▁анам	-11418
▁анса	-11419
▁арев	-11420
▁арен	-11421
▁асай	-11422
▁афик	-11423
▁босс	-11424
▁бриж	-11425
▁бшыр	-11426
▁вига	-11427
▁вято	-11428
▁дряд	-11429
▁ебат	-11430
▁едеп	-11431
▁екан	-11432
▁еран	-11433
▁ерун	-11434
▁есеп	-11435
▁имир	-11436
▁инда	-11437
▁ипер	-11438
▁йнур	-11439
▁карж	-11440
▁кари	-11441
▁кози	-11442
▁кони	-11443
▁крем	-11444
▁лжан	-11445
▁мбра	-11446
▁монд	-11447
▁мура	-11448
▁нале	-11449
▁ндит	-11450
▁нуко	-11451
▁оган	-11452
▁озен	-11453
▁омел	-11454
▁охсе	-11455
▁оңбо	-11456
▁райн	-11457
▁риум	-11458
▁ркуя	-11459
▁роин	-11460
▁себи	-11461
▁септ	-11462
▁согу	-11463
▁тово	-11464
▁торл	-11465
▁тсер	-11466
▁уиза	-11467
▁улек	-11468
▁умая	-11469
▁умга	-11470
▁умио	-11471
▁урше	-11472
▁уска	-11473
▁уяла	-11474
▁чеби	-11475
▁шлем	-11476
▁шугу	-11477
▁ыраг	-11478
▁ыраң	-11479
▁ытып	-11480
▁үчтө	-11481
▁Micro	-11482
▁Галла	-11483
▁Голан	-11484
▁Кихот	-11485
▁ПРООН	-11486
▁Патри	-11487
▁аапыр	-11488
▁абира	-11489
▁авайи	-11490
▁аглан	-11491
▁аграт	-11492
▁айгар	-11493
▁акмал	-11494
▁актыл	-11495
▁алафи	-11496
▁алпар	-11497
▁альта	-11498
▁амдуу	-11499
▁арзый	-11500
▁ариса	-11501
▁асина	-11502
▁аякем	-11503
▁аңсыл	-11504
▁бахид	-11505
▁вахаб	-11506
▁герчи	-11507
▁дебют	-11508
▁дозер	-11509
▁езгек	-11510
▁емсел	-11511
▁инаны	-11512
▁инкуб	-11513
▁иркин	-11514
▁кабел	-11515
▁караг	-11516
▁колот	-11517
▁кульп	-11518
▁көлөр	-11519
▁летка	-11520
▁ливье	-11521
▁лышка	-11522
▁марал	-11523
▁назар	-11524
▁найза	-11525
▁нетит	-11526
▁нттик	-11527
▁олина	-11528
▁оррис	-11529
▁остео	-11530
▁песси	-11531
▁почто	-11532
▁ратка	-11533
▁рзент	-11534
▁ртекс	-11535
▁рттар	-11536
▁рэкет	-11537
▁самбо	-11538
▁стенд	-11539
▁тамол	-11540
▁унхай	-11541
▁уралу	-11542
▁урьма	-11543
▁уңгар	-11544
▁шишиг	-11545
▁шишип	-11546
▁ыйрал	-11547
▁эмеро	-11548
▁этрин	-11549
▁ясына	-11550
▁өңкөр	-11551
**	-11552
BN	-11553
BU	-11554
EI	-11555
GA	-11556
No	-11557
pe	-11558
Аю	-11559
МА	-11560
ОВ	-11561
аж	-11562
хе	-11563
шн	-11564
ыд	-11565
өч	-11566
ast	-11567
era	-11568
ind	-11569
sti	-11570
ull	-11571
гал	-11572
дед	-11573
еки	-11574
них	-11575
ром	-11576
тин	-11577
уст	-11578
уша	-11579
хак	-11580
чат	-11581
ыке	-11582
ьев	-11583
▁07	-11584
▁2)	-11585
▁AD	-11586
▁Ad	-11587
▁Af	-11588
▁Az	-11589
▁Ba	-11590
▁Br	-11591
▁CD	-11592
▁DW	-11593
▁Em	-11594
▁Er	-11595
▁Go	-11596
▁HO	-11597
▁Hi	-11598
▁PM	-11599
▁SM	-11600
▁TR	-11601
▁co	-11602
▁ev	-11603
▁gn	-11604
▁sp	-11605
▁th	-11606
▁tu	-11607
▁ty	-11608
▁ur	-11609
▁vi	-11610
▁КТ	-11611
▁Лэ	-11612
▁МИ	-11613
▁гѳ	-11614
▁дз	-11615
▁др	-11616
▁йз	-11617
▁ые	-11618
▁ѳл	-11619
▁Үн	-11620
▁үи	-11621
евер	-11622
оочу	-11623
улка	-11624
ыйпа	-11625
▁***	-11626
▁141	-11627
▁179	-11628
▁196	-11629
▁203	-11630
▁208	-11631
▁24,	-11632
▁254	-11633
▁276	-11634
▁28,	-11635
▁282	-11636
▁310	-11637
▁313	-11638
▁385	-11639
▁3:0	-11640
▁4,1	-11641
▁410	-11642
▁474	-11643
▁480	-11644
▁5,6	-11645
▁5-7	-11646
▁545	-11647
▁55%	-11648
▁555	-11649
▁6,4	-11650
▁660	-11651
▁664	-11652
▁674	-11653
▁680	-11654
▁720	-11655
▁777	-11656
▁780	-11657
▁97%	-11658
▁972	-11659
▁Age	-11660
▁Ale	-11661
▁Ali	-11662
▁Bla	-11663
▁Fly	-11664
▁LIN	-11665
▁Mot	-11666
▁NYT	-11667
▁Res	-11668
▁Tod	-11669
▁Tru	-11670
▁VIP	-11671
▁dar	-11672
▁ncy	-11673
▁nda	-11674
▁vid	-11675
▁wei	-11676
▁yet	-11677
▁ААК	-11678
▁БТР	-11679
▁Бап	-11680
▁Бер	-11681
▁Кил	-11682
▁Нил	-11683
▁Рам	-11684
▁Туу	-11685
▁ФКК	-11686
▁Чак	-11687
▁аги	-11688
▁атя	-11689
▁доп	-11690
▁ерж	-11691
▁жуп	-11692
▁зза	-11693
▁зюм	-11694
▁идо	-11695
▁ияк	-11696
▁кав	-11697
▁кии	-11698
▁кст	-11699
▁кян	-11700
▁льс	-11701
▁ляц	-11702
▁нжу	-11703
▁оса	-11704
▁пиң	-11705
▁пок	-11706
▁пуш	-11707
▁рэн	-11708
▁саа	-11709
▁сэр	-11710
▁уск	-11711
▁хим	-11712
▁ыӊг	-11713
▁эль	-11714
▁Amer	-11715
▁Anad	-11716
▁Benz	-11717
▁IRNA	-11718
▁Jave	-11719
▁Netw	-11720
▁STEM	-11721
▁VIII	-11722
▁Visa	-11723
▁ries	-11724
▁АРИС	-11725
▁Вест	-11726
▁Ипот	-11727
▁Пуши	-11728
▁Реза	-11729
▁Тара	-11730
▁Толу	-11731
▁Элла	-11732
▁абан	-11733
▁агыр	-11734
▁азир	-11735
▁алаф	-11736
▁аллы	-11737
▁амза	-11738
▁амса	-11739
▁арви	-11740
▁аргу	-11741
▁арих	-11742
▁арсы	-11743
▁асри	-11744
▁ател	-11745
▁ауто	-11746
▁афро	-11747
▁ахро	-11748
▁ахыт	-11749
▁ашаа	-11750
▁гдам	-11751
▁гипо	-11752
▁елТА	-11753
▁елог	-11754
▁емит	-11755
▁жүрү	-11756
▁зоот	-11757
▁идан	-11758
▁иего	-11759
▁ийке	-11760
▁илан	-11761
▁илат	-11762
▁кане	-11763
▁курс	-11764
▁кына	-11765
▁лави	-11766
▁лади	-11767
▁лауд	-11768
▁лжас	-11769
▁лиза	-11770
▁лифф	-11771
▁лмак	-11772
▁лота	-11773
▁мако	-11774
▁милд	-11775
▁ндөн	-11776
▁нтье	-11777
▁нфан	-11778
▁ншот	-11779
▁обул	-11780
▁овещ	-11781
▁одер	-11782
▁одор	-11783
▁ожах	-11784
▁ойко	-11785
▁октя	-11786
▁опат	-11787
▁орул	-11788
▁оӊку	-11789
▁пика	-11790
▁птор	-11791
▁ранг	-11792
▁рдон	-11793
▁ренл	-11794
▁рпен	-11795
▁румы	-11796
▁русо	-11797
▁сайы	-11798
▁себе	-11799
▁стаз	-11800
▁ттир	-11801
▁убин	-11802
▁укеш	-11803
▁урти	-11804
▁ууду	-11805
▁ухро	-11806
▁учик	-11807
▁чаак	-11808
▁чылы	-11809
▁шари	-11810
▁шови	-11811
▁шоко	-11812
▁шорд	-11813
▁шыба	-11814
▁ыкан	-11815
▁ынап	-11816
▁ынар	-11817
▁ырье	-11818
▁эрке	-11819
▁ямсо	-11820
▁өрдү	-11821
▁Green	-11822
▁Monde	-11823
▁Pharm	-11824
▁gital	-11825
▁Ганди	-11826
▁Дзюдо	-11827
▁Палат	-11828
▁аалга	-11829
▁агнат	-11830
▁ажыке	-11831
▁айтер	-11832
▁алика	-11833
▁алтан	-11834
▁альди	-11835
▁альдо	-11836
▁альци	-11837
▁аптал	-11838
▁арзыб	-11839
▁аңгал	-11840
▁байко	-11841
▁блуст	-11842
▁брамо	-11843
▁ворон	-11844
▁вулка	-11845
▁гоочу	-11846
▁дымак	-11847
▁егизд	-11848
▁еминг	-11849
▁енебе	-11850
▁еннет	-11851
▁енцов	-11852
▁ехник	-11853
▁завод	-11854
▁заган	-11855
▁зекет	-11856
▁зыйпа	-11857
▁игмат	-11858
▁иймыр	-11859
▁икмеч	-11860
▁импер	-11861
▁иңден	-11862
▁йбори	-11863
▁канад	-11864
▁космо	-11865
▁ленск	-11866
▁литер	-11867
▁модед	-11868
▁мости	-11869
▁мурад	-11870
▁нейтр	-11871
▁обеда	-11872
▁ордос	-11873
▁орпок	-11874
▁отлич	-11875
▁плови	-11876
▁помид	-11877
▁пороз	-11878
▁родно	-11879
▁салом	-11880
▁стант	-11881
▁сызда	-11882
▁талар	-11883
▁тышат	-11884
▁улуси	-11885
▁умбай	-11886
▁умуля	-11887
▁урпан	-11888
▁уттар	-11889
▁уфляж	-11890
▁фицит	-11891
▁чаран	-11892
▁шакек	-11893
▁шакир	-11894
▁шлина	-11895
▁ымшак	-11896
▁юнхен	-11897
36	-11898
39	-11899
AD	-11900
BA	-11901
IA	-11902
II	-11903
LA	-11904
RA	-11905
SE	-11906
ad	-11907
nt	-11908
sA	-11909
sy	-11910
ИЛ	-11911
НК	-11912
вр	-11913
лз	-11914
ящ	-11915
ӨУ	-11916
Don	-11917
our	-11918
ove	-11919
usi	-11920
енд	-11921
изи	-11922
имб	-11923
ипл	-11924
исс	-11925
лос	-11926
сно	-11927
сть	-11928
тий	-11929
уда	-11930
чка	-11931
шит	-11932
шод	-11933
эле	-11934
энс	-11935
▁5.	-11936
▁Aw	-11937
▁BC	-11938
▁By	-11939
▁DA	-11940
▁ER	-11941
▁Ev	-11942
▁MH	-11943
▁WA	-11944
▁We	-11945
▁bb	-11946
▁he	-11947
▁it	-11948
▁tv	-11949
▁ve	-11950
▁Ёр	-11951
▁Жө	-11952
▁Хе	-11953
▁ЭЕ	-11954
▁ищ	-11955
▁лв	-11956
▁лх	-11957
▁нв	-11958
▁нъ	-11959
▁св	-11960
улла	-11961
▁(67	-11962
▁149	-11963
▁157	-11964
▁194	-11965
▁204	-11966
▁206	-11967
▁22,	-11968
▁23%	-11969
▁236	-11970
▁244	-11971
▁246	-11972
▁255	-11973
▁265	-11974
▁271	-11975
▁285	-11976
▁302	-11977
▁308	-11978
▁323	-11979
▁325	-11980
▁346	-11981
▁391	-11982
▁395	-11983
▁3:2	-11984
▁4,7	-11985
▁411	-11986
▁418	-11987
▁4:1	-11988
▁5,2	-11989
▁50,	-11990
▁512	-11991
▁531	-11992
▁536	-11993
▁538	-11994
▁580	-11995
▁585	-11996
▁6-8	-11997
▁62%	-11998
▁627	-11999
▁68%	-12000
▁681	-12001
▁7,8	-12002
▁9,7	-12003
▁932	-12004
▁940	-12005
▁Box	-12006
▁Bri	-12007
▁Dis	-12008
▁JsA	-12009
▁Mar	-12010
▁NEX	-12011
▁Oxf	-12012
▁Sam	-12013
▁Son	-12014
▁Vac	-12015
▁Vol	-12016
▁cal	-12017
▁ors	-12018
▁shi	-12019
▁sus	-12020
▁tut	-12021
▁vel	-12022
▁Аян	-12023
▁Бло	-12024
▁ГПУ	-12025
▁Йоз	-12026
▁Кне	-12027
▁Лаз	-12028
▁Мэй	-12029
▁Ниц	-12030
▁Обо	-12031
▁Род	-12032
▁Түй	-12033
▁Цай	-12034
▁Шеф	-12035
▁ааш	-12036
▁абб	-12037
▁ане	-12038
▁апи	-12039
▁баи	-12040
▁ваш	-12041
▁вик	-12042
▁гна	-12043
▁гур	-12044
▁езе	-12045
▁елж	-12046
▁жэн	-12047
▁зго	-12048
▁ипа	-12049
▁йно	-12050
▁кеш	-12051
▁лоу	-12052
▁лою	-12053
▁льф	-12054
▁мид	-12055
▁муд	-12056
▁нев	-12057
▁обл	-12058
▁оза	-12059
▁оше	-12060
▁ртү	-12061
▁рэд	-12062
▁сив	-12063
▁сий	-12064
▁сис	-12065
▁сли	-12066
▁сфа	-12067
▁теӊ	-12068
▁тку	-12069
▁тыт	-12070
▁төл	-12071
▁уюп	-12072
▁фан	-12073
▁хай	-12074
▁хал	-12075
▁хир	-12076
▁чим	-12077
▁ылч	-12078
▁ыпы	-12079
▁эмп	-12080
▁юре	-12081
▁өөп	-12082
▁Corp	-12083
▁ISBN	-12084
▁Inde	-12085
▁Mash	-12086
▁Mast	-12087
▁Repu	-12088
▁SOTA	-12089
▁nolo	-12090
▁tive	-12091
▁very	-12092
▁Барр	-12093
▁Борб	-12094
▁Леви	-12095
▁Лига	-12096
▁Раат	-12097
▁Рэтк	-12098
▁авыд	-12099
▁адил	-12100
▁аксе	-12101
▁акыл	-12102
▁алкы	-12103
▁амаз	-12104
▁амсу	-12105
▁анни	-12106
▁апчу	-12107
▁апыз	-12108
▁ароз	-12109
▁арра	-12110
▁арук	-12111
▁асла	-12112
▁ауни	-12113
▁ахай	-12114
▁ашко	-12115
▁блия	-12116
▁борд	-12117
▁вент	-12118
▁влет	-12119
▁гама	-12120
▁гани	-12121
▁гига	-12122
▁гипе	-12123
▁граф	-12124
▁греб	-12125
▁дора	-12126
▁едро	-12127
▁ейсе	-12128
▁елиф	-12129
▁елси	-12130
▁енек	-12131
▁енри	-12132
▁епон	-12133
▁ерем	-12134
▁ечүү	-12135
▁жакы	-12136
▁жама	-12137
▁заки	-12138
▁зина	-12139
▁ийни	-12140
▁ийчи	-12141
▁иппе	-12142
▁ипти	-12143
▁итик	-12144
▁итин	-12145
▁йгар	-12146
▁кинч	-12147
▁княз	-12148
▁ково	-12149
▁кугу	-12150
▁кчей	-12151
▁лага	-12152
▁лахо	-12153
▁лейк	-12154
▁лени	-12155
▁леон	-12156
▁лжур	-12157
▁лого	-12158
▁мбик	-12159
▁морт	-12160
▁нвер	-12161
▁нене	-12162
▁нжен	-12163
▁нине	-12164
▁нкер	-12165
▁нока	-12166
▁нсор	-12167
▁нтел	-12168
▁нчар	-12169
▁озеф	-12170
▁олин	-12171
▁олис	-12172
▁олли	-12173
▁опед	-12174
▁ороо	-12175
▁пани	-12176
▁паро	-12177
▁пект	-12178
▁плен	-12179
▁райб	-12180
▁райл	-12181
▁раны	-12182
▁рбет	-12183
▁ржин	-12184
▁риде	-12185
▁рочи	-12186
▁сима	-12187
▁спан	-12188
▁ссет	-12189
▁танз	-12190
▁тата	-12191
▁таун	-12192
▁тель	-12193
▁тнюк	-12194
▁топо	-12195
▁трак	-12196
▁убли	-12197
▁удая	-12198
▁уджа	-12199
▁улти	-12200
▁урки	-12201
▁учук	-12202
▁ушан	-12203
▁ушта	-12204
▁ушчу	-12205
▁фурт	-12206
▁хлас	-12207
▁хост	-12208
▁ципл	-12209
▁чана	-12210
▁шайы	-12211
▁шкай	-12212
▁штай	-12213
▁шыңг	-12214
▁ынат	-12215
▁эние	-12216
▁өсүн	-12217
▁Europ	-12218
▁Super	-12219
▁Габри	-12220
▁Досто	-12221
▁Кэрри	-12222
▁Сосно	-12223
▁Шахма	-12224
▁аават	-12225
▁аатан	-12226
▁абхаз	-12227
▁авлюк	-12228
▁аграм	-12229
▁айзер	-12230
▁айсаң	-12231
▁аксым	-12232
▁альян	-12233
▁амбод	-12234
▁амчат	-12235
▁анбай	-12236
▁арвар	-12237
▁аржал	-12238
▁артай	-12239
▁аучер	-12240
▁аңкал	-12241
▁бедин	-12242
▁бокир	-12243
▁вилла	-12244
▁дикте	-12245
▁екиди	-12246
▁елимх	-12247
▁ербок	-12248
▁еркес	-12249
▁ерцог	-12250
▁жиело	-12251
▁илтон	-12252
▁илшад	-12253
▁инжал	-12254
▁инних	-12255
▁иркеш	-12256
▁иссар	-12257
▁карим	-12258
▁конит	-12259
▁лвани	-12260
▁лимон	-12261
▁лкеси	-12262
▁локал	-12263
▁манда	-12264
▁нистр	-12265
▁нотар	-12266
▁олист	-12267
▁омисс	-12268
▁опкут	-12269
▁ортеп	-12270
▁остин	-12271
▁парин	-12272
▁пауза	-12273
▁ралаш	-12274
▁рахат	-12275
▁рбани	-12276
▁режне	-12277
▁рынын	-12278
▁север	-12279
▁сения	-12280
▁терои	-12281
▁трасб	-12282
▁тулку	-12283
▁улале	-12284
▁улеге	-12285
▁устон	-12286
▁ухроб	-12287
▁шариа	-12288
▁шоссе	-12289
▁ымсак	-12290
▁ыракм	-12291
▁юллер	-12292
10	-12293
50	-12294
61	-12295
:6	-12296
AV	-12297
EF	-12298
IN	-12299
KO	-12300
ep	-12301
hn	-12302
oi	-12303
zy	-12304
ДБ	-12305
ЕН	-12306
Ой	-12307
РК	-12308
РФ	-12309
ТУ	-12310
ХП	-12311
ЦА	-12312
ву	-12313
яо	-12314
ѳз	-12315
▁`	-12316
▁і	-12317
PRI	-12318
eri	-12319
ome	-12320
аза	-12321
вая	-12322
вэй	-12323
зар	-12324
зий	-12325
ими	-12326
кое	-12327
лев	-12328
мет	-12329
пед	-12330
рай	-12331
рор	-12332
таг	-12333
тах	-12334
хин	-12335
хме	-12336
юрн	-12337
ётр	-12338
▁3;	-12339
▁AQ	-12340
▁Av	-12341
▁CE	-12342
▁Ci	-12343
▁IM	-12344
▁IX	-12345
▁Id	-12346
▁Ki	-12347
▁Ko	-12348
▁SE	-12349
▁US	-12350
▁UZ	-12351
▁gy	-12352
▁ol	-12353
▁rs	-12354
▁КГ	-12355
▁МГ	-12356
▁СО	-12357
▁ТО	-12358
▁УБ	-12359
▁Яу	-12360
▁вк	-12361
▁гм	-12362
▁дм	-12363
▁дн	-12364
▁дэ	-12365
▁пц	-12366
▁фф	-12367
▁хс	-12368
▁ңш	-12369
▁(68	-12370
▁(70	-12371
▁(77	-12372
▁16,	-12373
▁17,	-12374
▁184	-12375
▁216	-12376
▁218	-12377
▁226	-12378
▁27,	-12379
▁274	-12380
▁284	-12381
▁287	-12382
▁292	-12383
▁298	-12384
▁303	-12385
▁304	-12386
▁306	-12387
▁317	-12388
▁335	-12389
▁351	-12390
▁405	-12391
▁416	-12392
▁421	-12393
▁440	-12394
▁448	-12395
▁452	-12396
▁49%	-12397
▁495	-12398
▁5,3	-12399
▁552	-12400
▁557	-12401
▁575	-12402
▁60,	-12403
▁604	-12404
▁62,	-12405
▁665	-12406
▁670	-12407
▁730	-12408
▁76%	-12409
▁760	-12410
▁81%	-12411
▁921	-12412
▁960	-12413
▁Act	-12414
▁Bek	-12415
▁Che	-12416
▁Lex	-12417
▁Max	-12418
▁Pla	-12419
▁Sch	-12420
▁Xia	-12421
▁Yon	-12422
▁dio	-12423
▁ham	-12424
▁lia	-12425
▁orm	-12426
▁rli	-12427
▁sti	-12428
▁ura	-12429
▁val	-12430
▁zme	-12431
▁Баа	-12432
▁Воз	-12433
▁Гви	-12434
▁Гүн	-12435
▁Дан	-12436
▁Доп	-12437
▁Ева	-12438
▁Жим	-12439
▁Кей	-12440
▁Кес	-12441
▁Кит	-12442
▁Күз	-12443
▁Лоз	-12444
▁Луг	-12445
▁ММА	-12446
▁МиГ	-12447
▁Мик	-12448
▁НТС	-12449
▁Ним	-12450
▁Ошэ	-12451
▁Пер	-12452
▁Реа	-12453
▁Уол	-12454
▁Уфа	-12455
▁Фаз	-12456
▁Цзэ	-12457
▁Чан	-12458
▁Чий	-12459
▁аня	-12460
▁биг	-12461
▁дом	-12462
▁дош	-12463
▁есп	-12464
▁ефт	-12465
▁жоё	-12466
▁идж	-12467
▁ийе	-12468
▁ирз	-12469
▁йот	-12470
▁кек	-12471
▁лос	-12472
▁мех	-12473
▁мой	-12474
▁нон	-12475
▁ных	-12476
▁нүч	-12477
▁оат	-12478
▁орн	-12479
▁оэн	-12480
▁оңк	-12481
▁пел	-12482
▁пит	-12483
▁пли	-12484
▁раи	-12485
▁роц	-12486
▁рсы	-12487
▁рэп	-12488
▁сиф	-12489
▁тоң	-12490
▁улб	-12491
▁ути	-12492
▁хло	-12493
▁чаа	-12494
▁ъло	-12495
▁ыйн	-12496
▁ыңы	-12497
▁энь	-12498
▁ӨЭУ	-12499
▁өрк	-12500
▁Capi	-12501
▁Full	-12502
▁Inve	-12503
▁Line	-12504
▁Mari	-12505
▁Mega	-12506
▁mond	-12507
▁offi	-12508
▁Брим	-12509
▁Жани	-12510
▁Зина	-12511
▁КПРФ	-12512
▁Кире	-12513
▁Мала	-12514
▁Моза	-12515
▁ОшТВ	-12516
▁Папа	-12517
▁Пист	-12518
▁Прим	-12519
▁Прит	-12520
▁Раки	-12521
▁Сомо	-12522
▁Чуйк	-12523
▁аван	-12524
▁авуш	-12525
▁адми	-12526
▁айба	-12527
▁айер	-12528
▁айит	-12529
▁акел	-12530
▁алит	-12531
▁амро	-12532
▁амур	-12533
▁аниб	-12534
▁апаң	-12535
▁арги	-12536
▁арек	-12537
▁арлз	-12538
▁арси	-12539
▁аруф	-12540
▁арух	-12541
▁атаб	-12542
▁атве	-12543
▁атро	-12544
▁афез	-12545
▁ахич	-12546
▁ашым	-12547
▁аялы	-12548
▁аңка	-12549
▁баум	-12550
▁бжал	-12551
▁бийл	-12552
▁бияк	-12553
▁брой	-12554
▁гомо	-12555
▁даки	-12556
▁дель	-12557
▁ебел	-12558
▁ебиш	-12559
▁егас	-12560
▁един	-12561
▁еист	-12562
▁ейди	-12563
▁ейна	-12564
▁екул	-12565
▁еляц	-12566
▁еман	-12567
▁емил	-12568
▁енис	-12569
▁есел	-12570
▁еску	-12571
▁ешил	-12572
▁еңеш	-12573
▁жани	-12574
▁живо	-12575
▁зели	-12576
▁злов	-12577
▁изам	-12578
▁илян	-12579
▁имин	-12580
▁инер	-12581
▁иуда	-12582
▁ичер	-12583
▁квон	-12584
▁керч	-12585
▁кини	-12586
▁коль	-12587
▁ксим	-12588
▁ктон	-12589
▁лайк	-12590
▁ллин	-12591
▁ллис	-12592
▁лома	-12593
▁льеф	-12594
▁мети	-12595
▁минн	-12596
▁мкан	-12597
▁мман	-12598
▁моно	-12599
▁мпер	-12600
▁мпур	-12601
▁ниме	-12602
▁нтай	-12603
▁нтик	-12604
▁нтур	-12605
▁ныкы	-12606
▁нюст	-12607
▁обия	-12608
▁овой	-12609
▁ойро	-12610
▁олик	-12611
▁онас	-12612
▁оном	-12613
▁орбо	-12614
▁орес	-12615
▁ориу	-12616
▁осик	-12617
▁отоп	-12618
▁ошот	-12619
▁оңду	-12620
▁пакт	-12621
▁пуль	-12622
▁пшыр	-12623
▁пьев	-12624
▁раим	-12625
▁ранш	-12626
▁рдам	-12627
▁рета	-12628
▁риги	-12629
▁ринф	-12630
▁рмал	-12631
▁рони	-12632
▁ртос	-12633
▁рупц	-12634
▁сота	-12635
▁софт	-12636
▁ссур	-12637
▁стаг	-12638
▁тдин	-12639
▁теза	-12640
▁тейт	-12641
▁тиль	-12642
▁того	-12643
▁тоом	-12644
▁тпей	-12645
▁тчер	-12646
▁уала	-12647
▁убар	-12648
▁убэй	-12649
▁увал	-12650
▁удди	-12651
▁узия	-12652
▁укас	-12653
▁умар	-12654
▁унуч	-12655
▁урне	-12656
▁урси	-12657
▁ухум	-12658
▁уччи	-12659
▁фины	-12660
▁хино	-12661
▁черк	-12662
▁шанс	-12663
▁шени	-12664
▁ыбык	-12665
▁ылжы	-12666
▁ымыр	-12667
▁ыста	-12668
▁ысый	-12669
▁ычыл	-12670
▁ышту	-12671
▁эйлу	-12672
▁этап	-12673
▁эшит	-12674
▁язан	-12675
▁яньа	-12676
▁ясна	-12677
▁Black	-12678
▁Grand	-12679
▁McDon	-12680
▁SIPRI	-12681
▁Алмаз	-12682
▁Закем	-12683
▁Шамбе	-12684
▁аашыр	-12685
▁айман	-12686
▁акфир	-12687
▁алван	-12688
▁алгаш	-12689
▁амкур	-12690
▁аннан	-12691
▁апкел	-12692
▁арема	-12693
▁арида	-12694
▁ариду	-12695
▁арите	-12696
▁аркет	-12697
▁армен	-12698
▁арылд	-12699
▁асиба	-12700
▁аспар	-12701
▁атраң	-12702
▁аттиң	-12703
▁атыша	-12704
▁аңгаг	-12705
▁баппе	-12706
▁барга	-12707
▁барон	-12708
▁вахап	-12709
▁верто	-12710
▁взвод	-12711
▁ейлер	-12712
▁елина	-12713
▁елони	-12714
▁елток	-12715
▁етмен	-12716
▁замон	-12717
▁здөрү	-12718
▁игран	-12719
▁иллон	-12720
▁илшод	-12721
▁имиля	-12722
▁имфер	-12723
▁инаст	-12724
▁индар	-12725
▁инера	-12726
▁искур	-12727
▁итана	-12728
▁итани	-12729
▁кагын	-12730
▁кадер	-12731
▁калов	-12732
▁килей	-12733
▁кулжа	-12734
▁лагма	-12735
▁лазер	-12736
▁ланда	-12737
▁литий	-12738
▁луцки	-12739
▁местр	-12740
▁мушта	-12741
▁нгуше	-12742
▁ноябр	-12743
▁одорк	-12744
▁олкул	-12745
▁онета	-12746
▁оосун	-12747
▁охтар	-12748
▁пиццы	-12749
▁райан	-12750
▁рамва	-12751
▁рдагы	-12752
▁реген	-12753
▁риумф	-12754
▁рсена	-12755
▁рупий	-12756
▁рүндө	-12757
▁стено	-12758
▁тикал	-12759
▁торко	-12760
▁уалет	-12761
▁удулу	-12762
▁унгур	-12763
▁урбон	-12764
▁уриан	-12765
▁уркур	-12766
▁утума	-12767
▁ханза	-12768
▁цияла	-12769
▁шайын	-12770
▁шейит	-12771
▁шокер	-12772
▁шыбак	-12773
▁ыкмай	-12774
▁ылдын	-12775
▁ыртыл	-12776
▁эйтед	-12777
▁өлөмү	-12778
▁өсүнө	-12779
19	-12780
25	-12781
40	-12782
AN	-12783
CE	-12784
IS	-12785
ON	-12786
OR	-12787
PS	-12788
VA	-12789
WO	-12790
no	-12791
rk	-12792
ss	-12793
uk	-12794
up	-12795
zi	-12796
АД	-12797
Ай	-12798
ВИ	-12799
ГА	-12800
ДИ	-12801
ЕР	-12802
ИН	-12803
КБ	-12804
лс	-12805
эш	-12806
▁x	-12807
▁ә	-12808
ISA	-12809
alt	-12810
and	-12811
ard	-12812
att	-12813
ber	-12814
ena	-12815
ill	-12816
mir	-12817
rea	-12818
tar	-12819
айд	-12820
ант	-12821
аса	-12822
аше	-12823
бин	-12824
бия	-12825
бур	-12826
ваз	-12827
дот	-12828
жер	-12829
жэн	-12830
илл	-12831
куд	-12832
лот	-12833
лют	-12834
опо	-12835
оти	-12836
пык	-12837
рит	-12838
уэр	-12839
хер	-12840
цин	-12841
чег	-12842
чта	-12843
чып	-12844
▁"2	-12845
▁09	-12846
▁2;	-12847
▁3)	-12848
▁AS	-12849
▁AT	-12850
▁Ai	-12851
▁Ak	-12852
▁Gu	-12853
▁Il	-12854
▁Im	-12855
▁Lo	-12856
▁NE	-12857
▁PA	-12858
▁RL	-12859
▁RM	-12860
▁Si	-12861
▁mi	-12862
▁oo	-12863
▁pa	-12864
▁qs	-12865
▁vo	-12866
▁АУ	-12867
▁Ба	-12868
▁Зу	-12869
▁Ит	-12870
▁КЖ	-12871
▁МБ	-12872
▁ТУ	-12873
▁ТЭ	-12874
▁Шы	-12875
▁ащ	-12876
▁йо	-12877
▁кп	-12878
▁мр	-12879
▁мф	-12880
▁нл	-12881
▁рщ	-12882
▁ёт	-12883
ebdo	-12884
vice	-12885
▁182	-12886
▁21,	-12887
▁222	-12888
▁223	-12889
▁229	-12890
▁234	-12891
▁243	-12892
▁253	-12893
▁26,	-12894
▁266	-12895
▁269	-12896
▁29%	-12897
▁291	-12898
▁296	-12899
▁297	-12900
▁305	-12901
▁307	-12902
▁31%	-12903
▁311	-12904
▁315	-12905
▁318	-12906
▁326	-12907
▁34,	-12908
▁347	-12909
▁357	-12910
▁36%	-12911
▁36,	-12912
▁362	-12913
▁4,9	-12914
▁428	-12915
▁43%	-12916
▁439	-12917
▁451	-12918
▁456	-12919
▁46%	-12920
▁479	-12921
▁498	-12922
▁5,8	-12923
▁514	-12924
▁54%	-12925
▁541	-12926
▁551	-12927
▁582	-12928
▁59%	-12929
▁6,7	-12930
▁605	-12931
▁610	-12932
▁617	-12933
▁620	-12934
▁630	-12935
▁636	-12936
▁644	-12937
▁73%	-12938
▁754	-12939
▁774	-12940
▁82%	-12941
▁820	-12942
▁87%	-12943
▁870	-12944
▁8:0	-12945
▁910	-12946
▁Art	-12947
▁BTo	-12948
▁CDC	-12949
▁Cam	-12950
▁Fli	-12951
▁Fro	-12952
▁Gov	-12953
▁Jaz	-12954
▁Lab	-12955
▁Nik	-12956
▁Pre	-12957
▁RFE	-12958
▁SOS	-12959
▁UNA	-12960
▁XIV	-12961
▁ald	-12962
▁erc	-12963
▁hap	-12964
▁ica	-12965
▁ine	-12966
▁jan	-12967
▁ker	-12968
▁max	-12969
▁ona	-12970
▁ris	-12971
▁sha	-12972
▁way	-12973
▁Анн	-12974
▁Баб	-12975
▁Бин	-12976
▁ВВС	-12977
▁ВТБ	-12978
▁Гун	-12979
▁Доо	-12980
▁КВт	-12981
▁Как	-12982
▁Кеч	-12983
▁Кик	-12984
▁Мау	-12985
▁Мэн	-12986
▁Нах	-12987
▁Нин	-12988
▁Пэт	-12989
▁Рез	-12990
▁Сум	-12991
▁Сэм	-12992
▁Тун	-12993
▁Төө	-12994
▁ФБК	-12995
▁Фон	-12996
▁Хир	-12997
▁Хуа	-12998
▁Хью	-12999
▁Цзе	-13000
▁Цян	-13001
▁Чоӊ	-13002
▁авз	-13003
▁адж	-13004
▁амм	-13005
▁апш	-13006
▁ашо	-13007
▁аюу	-13008
▁баб	-13009
▁бая	-13010
▁биб	-13011
▁бит	-13012
▁бот	-13013
▁вит	-13014
▁еал	-13015
▁ерх	-13016
▁жая	-13017
▁иду	-13018
▁иеш	-13019
▁иже	-13020
▁инх	-13021
▁ипп	-13022
▁исс	-13023
▁кбо	-13024
▁кле	-13025
▁лах	-13026
▁лем	-13027
▁лүш	-13028
▁мге	-13029
▁мёт	-13030
▁нея	-13031
▁ниц	-13032
▁нту	-13033
▁ока	-13034
▁олц	-13035
▁оня	-13036
▁ошт	-13037
▁оӊо	-13038
▁рач	-13039
▁рие	-13040
▁роу	-13041
▁рут	-13042
▁уди	-13043
▁ууй	-13044
▁фел	-13045
▁хат	-13046
▁цив	-13047
▁цим	-13048
▁чот	-13049
▁шея	-13050
▁шии	-13051
▁шой	-13052
▁Қуз	-13053
▁өлт	-13054
▁Bank	-13055
▁Bild	-13056
▁Boxi	-13057
▁Comm	-13058
▁Fore	-13059
▁HOWO	-13060
▁IPHR	-13061
▁Isra	-13062
▁John	-13063
▁LINE	-13064
▁Medi	-13065
▁PISA	-13066
▁Pega	-13067
▁Qaza	-13068
▁Unit	-13069
▁WADA	-13070
▁ktar	-13071
▁nair	-13072
▁rlie	-13073
▁stra	-13074
▁tute	-13075
▁Апел	-13076
▁Блэк	-13077
▁Влас	-13078
▁Вэнс	-13079
▁ЕАЭК	-13080
▁Жовт	-13081
▁Ладе	-13082
▁Лиди	-13083
▁Мата	-13084
▁Нюрн	-13085
▁Подо	-13086
▁Пред	-13087
▁Саги	-13088
▁Тота	-13089
▁Шида	-13090
▁Шоро	-13091
▁Эшиг	-13092
▁ааби	-13093
▁абах	-13094
▁абиб	-13095
▁абло	-13096
▁ават	-13097
▁авла	-13098
▁аген	-13099
▁азум	-13100
▁айза	-13101
▁айзы	-13102
▁айор	-13103
▁айча	-13104
▁аксо	-13105
▁ален	-13106
▁алин	-13107
▁амбо	-13108
▁амер	-13109
▁анжи	-13110
▁арби	-13111
▁архи	-13112
▁асан	-13113
▁асер	-13114
▁асло	-13115
▁аспа	-13116
▁аспи	-13117
▁асси	-13118
▁атом	-13119
▁атре	-13120
▁атче	-13121
▁ашке	-13122
▁баар	-13123
▁бака	-13124
▁бзий	-13125
▁брор	-13126
▁брох	-13127
▁булу	-13128
▁буут	-13129
▁вейс	-13130
▁воло	-13131
▁гарт	-13132
▁гзам	-13133
▁гыны	-13134
▁дали	-13135
▁дела	-13136
▁дерл	-13137
▁динб	-13138
▁езид	-13139
▁екре	-13140
▁елье	-13141
▁емер	-13142
▁емич	-13143
▁енка	-13144
▁епсе	-13145
▁ерте	-13146
▁ерээ	-13147
▁ехди	-13148
▁зади	-13149
▁зема	-13150
▁зура	-13151
▁изом	-13152
▁икам	-13153
▁икеч	-13154
▁имар	-13155
▁имон	-13156
▁иная	-13157
▁инес	-13158
▁исма	-13159
▁итро	-13160
▁йфел	-13161
▁кзит	-13162
▁кмөт	-13163
▁комм	-13164
▁кыям	-13165
▁лесс	-13166
▁льич	-13167
▁льск	-13168
▁маку	-13169
▁манн	-13170
▁мпус	-13171
▁неон	-13172
▁нико	-13173
▁ниса	-13174
▁нына	-13175
▁окси	-13176
▁олуш	-13177
▁олчу	-13178
▁онта	-13179
▁оопт	-13180
▁орея	-13181
▁орич	-13182
▁ород	-13183
▁орпо	-13184
▁орти	-13185
▁охиб	-13186
▁пало	-13187
▁пеис	-13188
▁пись	-13189
▁пкул	-13190
▁покр	-13191
▁приб	-13192
▁равд	-13193
▁рагм	-13194
▁раек	-13195
▁раст	-13196
▁ратк	-13197
▁рауп	-13198
▁рафф	-13199
▁рдер	-13200
▁риат	-13201
▁рифи	-13202
▁рифу	-13203
▁рова	-13204
▁ромб	-13205
▁роси	-13206
▁рсин	-13207
▁ртик	-13208
▁рцах	-13209
▁рыжа	-13210
▁скак	-13211
▁стай	-13212
▁стро	-13213
▁тепк	-13214
▁тише	-13215
▁тоун	-13216
▁төгө	-13217
▁уана	-13218
▁уден	-13219
▁ужум	-13220
▁улен	-13221
▁улуг	-13222
▁ульф	-13223
▁унжу	-13224
▁усур	-13225
▁ухит	-13226
▁уция	-13227
▁фада	-13228
▁ффар	-13229
▁хата	-13230
▁цзян	-13231
▁чжэн	-13232
▁чкар	-13233
▁шаты	-13234
▁ыбай	-13235
▁ыйша	-13236
▁ымыз	-13237
▁ынжы	-13238
▁ыраз	-13239
▁эвен	-13240
▁үсүн	-13241
▁Bayra	-13242
▁Brent	-13243
▁Hebdo	-13244
▁Insti	-13245
▁Samsu	-13246
▁Sport	-13247
▁qstan	-13248
▁rvice	-13249
▁Фазил	-13250
▁Хакам	-13251
▁Шумер	-13252
▁Элина	-13253
▁аадат	-13254
▁агава	-13255
▁адака	-13256
▁айраг	-13257
▁алдай	-13258
▁алтаб	-13259
▁амари	-13260
▁анара	-13261
▁ансап	-13262
▁аптыр	-13263
▁араны	-13264
▁арвен	-13265
▁арлис	-13266
▁арнас	-13267
▁арраф	-13268
▁артеф	-13269
▁аскад	-13270
▁атери	-13271
▁атман	-13272
▁атоме	-13273
▁ауэлл	-13274
▁афари	-13275
▁аңтар	-13276
▁байду	-13277
▁байра	-13278
▁блица	-13279
▁брамс	-13280
▁венгр	-13281
▁дамды	-13282
▁даном	-13283
▁дское	-13284
▁ебете	-13285
▁евлют	-13286
▁еймар	-13287
▁екдот	-13288
▁екзод	-13289
▁елави	-13290
▁ельфи	-13291
▁ендел	-13292
▁енчуг	-13293
▁ерзод	-13294
▁еркул	-13295
▁еттин	-13296
▁закон	-13297
▁ижний	-13298
▁икипе	-13299
▁илмеч	-13300
▁инага	-13301
▁иреге	-13302
▁ирлик	-13303
▁иудаи	-13304
▁йулла	-13305
▁канди	-13306
▁курси	-13307
▁лдири	-13308
▁лиани	-13309
▁ливая	-13310
▁минде	-13311
▁мином	-13312
▁морал	-13313
▁нардо	-13314
▁нтраф	-13315
▁ныгыс	-13316
▁оллон	-13317
▁омдун	-13318
▁онцов	-13319
▁оопур	-13320
▁орецк	-13321
▁орона	-13322
▁отиви	-13323
▁оттер	-13324
▁папка	-13325
▁пейже	-13326
▁ражен	-13327
▁райко	-13328
▁рдови	-13329
▁рдуна	-13330
▁редел	-13331
▁рохин	-13332
▁рошон	-13333
▁роэле	-13334
▁рубри	-13335
▁руэлл	-13336
▁самат	-13337
▁стара	-13338
▁тигма	-13339
▁тубер	-13340
▁узург	-13341
▁улкуп	-13342
▁уллах	-13343
▁унвэй	-13344
▁ургон	-13345
▁ургур	-13346
▁урунд	-13347
▁уулга	-13348
▁ченеб	-13349
▁шарип	-13350
▁шибер	-13351
▁ылтаг	-13352
▁ыпкал	-13353
▁ырааг	-13354
▁ырдаш	-13355
▁ырпык	-13356
▁этном	-13357
",	-13358
11	-13359
12	-13360
16	-13361
38	-13362
:-	-13363
EA	-13364
LP	-13365
LR	-13366
OA	-13367
OO	-13368
TV	-13369
US	-13370
YA	-13371
ex	-13372
ok	-13373
sk	-13374
vo	-13375
АО	-13376
ЭА	-13377
др	-13378
жэ	-13379
ие	-13380
оң	-13381
ьф	-13382
юз	-13383
▁·	-13384
▁ɵ	-13385
▁І	-13386
DKO	-13387
chi	-13388
ere	-13389
lia	-13390
АМУ	-13391
ЕГА	-13392
абы	-13393
боз	-13394
вай	-13395
вет	-13396
дев	-13397
джи	-13398
дор	-13399
жаи	-13400
жба	-13401
зац	-13402
зоп	-13403
ики	-13404
иша	-13405
отр	-13406
ров	-13407
уни	-13408
хид	-13409
ход	-13410
шат	-13411
шко	-13412
▁05	-13413
▁5"	-13414
▁8.	-13415
▁AL	-13416
▁FT	-13417
▁He	-13418
▁IF	-13419
▁KF	-13420
▁MA	-13421
▁ND	-13422
▁TI	-13423
▁TS	-13424
▁be	-13425
▁bu	-13426
▁do	-13427
▁ex	-13428
▁ke	-13429
▁ko	-13430
▁kt	-13431
▁nj	-13432
▁nz	-13433
▁pr	-13434
▁ry	-13435
▁tz	-13436
▁un	-13437
▁we	-13438
▁АМ	-13439
▁ЖЕ	-13440
▁Зо	-13441
▁Йү	-13442
▁КБ	-13443
▁МТ	-13444
▁ПС	-13445
▁Пи	-13446
▁СК	-13447
▁ТТ	-13448
▁Уй	-13449
▁Фо	-13450
▁Хэ	-13451
▁Ыш	-13452
▁Яз	-13453
▁тх	-13454
▁эц	-13455
▁юд	-13456
orne	-13457
▁"20	-13458
▁"30	-13459
▁(40	-13460
▁(57	-13461
▁(62	-13462
▁(65	-13463
▁(97	-13464
▁19%	-13465
▁248	-13466
▁259	-13467
▁277	-13468
▁279	-13469
▁286	-13470
▁3-8	-13471
▁314	-13472
▁319	-13473
▁341	-13474
▁355	-13475
▁361	-13476
▁366	-13477
▁371	-13478
▁38,	-13479
▁387	-13480
▁388	-13481
▁396	-13482
▁406	-13483
▁42%	-13484
▁423	-13485
▁426	-13486
▁429	-13487
▁435	-13488
▁45,	-13489
▁475	-13490
▁486	-13491
▁497	-13492
▁4:0	-13493
▁4:3	-13494
▁5,4	-13495
▁510	-13496
▁52%	-13497
▁549	-13498
▁561	-13499
▁571	-13500
▁58,	-13501
▁590	-13502
▁5:1	-13503
▁6,8	-13504
▁638	-13505
▁65,	-13506
▁654	-13507
▁685	-13508
▁7,2	-13509
▁7,7	-13510
▁70,	-13511
▁712	-13512
▁732	-13513
▁737	-13514
▁78%	-13515
▁783	-13516
▁795	-13517
▁8,3	-13518
▁8,7	-13519
▁84%	-13520
▁908	-13521
▁975	-13522
▁Aki	-13523
▁DPA	-13524
▁Dia	-13525
▁Dra	-13526
▁Geo	-13527
▁Hel	-13528
▁Hyu	-13529
▁Kun	-13530
▁OSE	-13531
▁Par	-13532
▁Rea	-13533
▁Red	-13534
▁San	-13535
▁Zho	-13536
▁eri	-13537
▁inf	-13538
▁kaz	-13539
▁lix	-13540
▁mpi	-13541
▁ora	-13542
▁ota	-13543
▁rge	-13544
▁rin	-13545
▁АКС	-13546
▁Ажы	-13547
▁Бет	-13548
▁Биш	-13549
▁ГЕР	-13550
▁Ген	-13551
▁Гри	-13552
▁Зим	-13553
▁Зор	-13554
▁Лип	-13555
▁Лом	-13556
▁МРТ	-13557
▁Маз	-13558
▁Нан	-13559
▁Оку	-13560
▁Пил	-13561
▁Пиш	-13562
▁Рон	-13563
▁Сэр	-13564
▁УОК	-13565
▁Фен	-13566
▁Цел	-13567
▁Чжэ	-13568
▁Шаф	-13569
▁Шех	-13570
▁Шим	-13571
▁Шок	-13572
▁Эже	-13573
▁Элс	-13574
▁аго	-13575
▁агу	-13576
▁акд	-13577
▁амя	-13578
▁аум	-13579
▁ахт	-13580
▁ббо	-13581
▁бон	-13582
▁ват	-13583
▁виц	-13584
▁глю	-13585
▁гом	-13586
▁гѳн	-13587
▁дри	-13588
▁жен	-13589
▁жиу	-13590
▁здо	-13591
▁ийг	-13592
▁ийн	-13593
▁ишт	-13594
▁йод	-13595
▁кок	-13596
▁ксу	-13597
▁лир	-13598
▁льц	-13599
▁люк	-13600
▁мре	-13601
▁нзи	-13602
▁нри	-13603
▁оой	-13604
▁оши	-13605
▁пий	-13606
▁пса	-13607
▁пур	-13608
▁пыз	-13609
▁рау	-13610
▁рог	-13611
▁рыц	-13612
▁сух	-13613
▁тае	-13614
▁тих	-13615
▁туд	-13616
▁уер	-13617
▁уци	-13618
▁уэр	-13619
▁уэт	-13620
▁хау	-13621
▁хна	-13622
▁хот	-13623
▁хут	-13624
▁чеи	-13625
▁чес	-13626
▁шри	-13627
▁шыг	-13628
▁шүк	-13629
▁ыйл	-13630
▁ыке	-13631
▁ынс	-13632
▁ырь	-13633
▁ьен	-13634
▁ьёв	-13635
▁үйр	-13636
▁үрѳ	-13637
▁өле	-13638
▁өөг	-13639
▁AFAD	-13640
▁Busi	-13641
▁Conf	-13642
▁Demo	-13643
▁Good	-13644
▁IMEI	-13645
▁Limi	-13646
▁MEGA	-13647
▁Moni	-13648
▁Netf	-13649
▁Orga	-13650
▁Regi	-13651
▁Road	-13652
▁Team	-13653
▁Tolo	-13654
▁XIII	-13655
▁deli	-13656
▁eral	-13657
▁lict	-13658
▁ncet	-13659
▁ndai	-13660
▁roid	-13661
▁sapp	-13662
▁Арам	-13663
▁Бахо	-13664
▁Гадо	-13665
▁Гали	-13666
▁Гард	-13667
▁Григ	-13668
▁Гёте	-13669
▁ЖАМУ	-13670
▁Жоли	-13671
▁Кумт	-13672
▁Лима	-13673
▁Люси	-13674
▁МЕГА	-13675
▁Нива	-13676
▁Оймо	-13677
▁Педи	-13678
▁Пира	-13679
▁Позн	-13680
▁Реку	-13681
▁Риза	-13682
▁Рота	-13683
▁Толо	-13684
▁Уали	-13685
▁Улак	-13686
▁Шота	-13687
▁ЭКӨУ	-13688
▁Эзоп	-13689
▁ааси	-13690
▁абек	-13691
▁адин	-13692
▁адия	-13693
▁адри	-13694
▁айфа	-13695
▁айши	-13696
▁акао	-13697
▁алед	-13698
▁алок	-13699
▁амый	-13700
▁анби	-13701
▁анел	-13702
▁анет	-13703
▁анци	-13704
▁апек	-13705
▁апес	-13706
▁апол	-13707
▁апри	-13708
▁араф	-13709
▁арза	-13710
▁арме	-13711
▁арсу	-13712
▁арыс	-13713
▁асни	-13714
▁асти	-13715
▁атиф	-13716
▁аура	-13717
▁ауша	-13718
▁ашик	-13719
▁ашим	-13720
▁баки	-13721
▁бике	-13722
▁ванш	-13723
▁гари	-13724
▁гнат	-13725
▁гнес	-13726
▁гуен	-13727
▁гума	-13728
▁дуду	-13729
▁дула	-13730
▁ебер	-13731
▁езис	-13732
▁елаш	-13733
▁емат	-13734
▁еоло	-13735
▁ерен	-13736
▁ериг	-13737
▁ерсо	-13738
▁еӊил	-13739
▁звен	-13740
▁зобо	-13741
▁зунг	-13742
▁ийем	-13743
▁илаф	-13744
▁илле	-13745
▁имич	-13746
▁индо	-13747
▁инур	-13748
▁ирок	-13749
▁ймаг	-13750
▁кало	-13751
▁комо	-13752
▁корп	-13753
▁кпар	-13754
▁ктёр	-13755
▁кфон	-13756
▁леуб	-13757
▁лиса	-13758
▁лхом	-13759
▁малд	-13760
▁мели	-13761
▁моле	-13762
▁мпич	-13763
▁мсун	-13764
▁мчег	-13765
▁нгул	-13766
▁нжил	-13767
▁ники	-13768
▁нино	-13769
▁нкар	-13770
▁нние	-13771
▁нчал	-13772
▁обир	-13773
▁овое	-13774
▁огов	-13775
▁огун	-13776
▁одар	-13777
▁олет	-13778
▁опер	-13779
▁опес	-13780
▁орка	-13781
▁осан	-13782
▁оссе	-13783
▁отоо	-13784
▁отуя	-13785
▁папа	-13786
▁пенг	-13787
▁раза	-13788
▁рдем	-13789
▁рекц	-13790
▁риел	-13791
▁риет	-13792
▁ркоз	-13793
▁родо	-13794
▁рсит	-13795
▁рсон	-13796
▁руно	-13797
▁рфог	-13798
▁рхон	-13799
▁само	-13800
▁сема	-13801
▁сите	-13802
▁скра	-13803
▁смен	-13804
▁сная	-13805
▁стак	-13806
▁суфи	-13807
▁сфор	-13808
▁тано	-13809
▁тоот	-13810
▁торо	-13811
▁ттав	-13812
▁тузу	-13813
▁тхан	-13814
▁уант	-13815
▁убен	-13816
▁увап	-13817
▁удда	-13818
▁уйда	-13819
▁уйур	-13820
▁умба	-13821
▁урэл	-13822
▁усни	-13823
▁уссе	-13824
▁утна	-13825
▁фитс	-13826
▁цинк	-13827
▁чече	-13828
▁чкул	-13829
▁шара	-13830
▁шарк	-13831
▁штад	-13832
▁штам	-13833
▁ыкар	-13834
▁ынык	-13835
▁ыпат	-13836
▁ысмы	-13837
▁ытыл	-13838
▁эвис	-13839
▁экзо	-13840
▁үнгө	-13841
▁үүлө	-13842
▁өлтү	-13843
▁өраг	-13844
▁Festi	-13845
▁Forbe	-13846
▁Honda	-13847
▁LEDKO	-13848
▁NEXTA	-13849
▁UNAMA	-13850
▁Ницца	-13851
▁Почта	-13852
▁Хамра	-13853
▁Харам	-13854
▁ЭКСПО	-13855
▁абзац	-13856
▁абине	-13857
▁авлон	-13858
▁адуга	-13859
▁аймат	-13860
▁аксыр	-13861
▁аллас	-13862
▁алтак	-13863
▁альва	-13864
▁альси	-13865
▁амима	-13866
▁аптык	-13867
▁арван	-13868
▁ареке	-13869
▁арифа	-13870
▁аркай	-13871
▁аркер	-13872
▁аркыт	-13873
▁артаң	-13874
▁артүр	-13875
▁архар	-13876
▁арчын	-13877
▁асрал	-13878
▁ассан	-13879
▁атвее	-13880
▁атима	-13881
▁атыны	-13882
▁ахара	-13883
▁ацлав	-13884
▁ашари	-13885
▁аштад	-13886
▁аңкай	-13887
▁барит	-13888
▁басан	-13889
▁бедев	-13890
▁берон	-13891
▁бизон	-13892
▁восто	-13893
▁гилас	-13894
▁дзина	-13895
▁дието	-13896
▁еймер	-13897
▁елужи	-13898
▁емода	-13899
▁енсер	-13900
▁енсус	-13901
▁ербет	-13902
▁еркем	-13903
▁ерссо	-13904
▁ерээз	-13905
▁еселе	-13906
▁етодо	-13907
▁ечкек	-13908
▁зонни	-13909
▁ижего	-13910
▁илаши	-13911
▁илкан	-13912
▁имхан	-13913
▁индиг	-13914
▁инзар	-13915
▁иркеп	-13916
▁ируза	-13917
▁качан	-13918
▁кбокс	-13919
▁кемен	-13920
▁лбина	-13921
▁лента	-13922
▁лешка	-13923
▁ликви	-13924
▁лиман	-13925
▁мбайн	-13926
▁молёт	-13927
▁мурут	-13928
▁нобат	-13929
▁ности	-13930
▁ность	-13931
▁ожник	-13932
▁олтан	-13933
▁отель	-13934
▁папил	-13935
▁патро	-13936
▁пингв	-13937
▁пицца	-13938
▁полиг	-13939
▁ралес	-13940
▁рамор	-13941
▁расно	-13942
▁рдерн	-13943
▁рейип	-13944
▁рекви	-13945
▁риент	-13946
▁ристо	-13947
▁роско	-13948
▁ртунд	-13949
▁сейит	-13950
▁сияны	-13951
▁стака	-13952
▁сталл	-13953
▁сумга	-13954
▁сыпыр	-13955
▁тавра	-13956
▁тосот	-13957
▁тукки	-13958
▁улбул	-13959
▁улгал	-13960
▁улжан	-13961
▁улкар	-13962
▁улпул	-13963
▁улрах	-13964
▁улхак	-13965
▁уплет	-13966
▁урген	-13967
▁урдаш	-13968
▁уфули	-13969
▁уэнос	-13970
▁хакас	-13971
▁цивил	-13972
▁чачыл	-13973
▁чинин	-13974
▁шорпо	-13975
▁штрих	-13976
▁шукур	-13977
▁ылааж	-13978
▁ыпара	-13979
▁ырдак	-13980
▁үнхен	-13981
▁өргөн	-13982
1,	-13983
13	-13984
17	-13985
18	-13986
63	-13987
BO	-13988
Do	-13989
MC	-13990
UP	-13991
\8	-13992
ax	-13993
by	-13994
du	-13995
ev	-13996
ke	-13997
my	-13998
po	-13999
rd	-14000
sc	-14001
ВО	-14002
Ив	-14003
Иш	-14004
ОП	-14005
РС	-14006
ац	-14007
дѳ	-14008
еб	-14009
зя	-14010
тр	-14011
эс	-14012
яс	-14013
өк	-14014
▁=	-14015
▁İ	-14016
▁ı	-14017
▁⠀	-14018
ICA	-14019
ami	-14020
fic	-14021
ide	-14022
ilm	-14023
lup	-14024
one	-14025
ont	-14026
ood	-14027
ran	-14028
tem	-14029
tla	-14030
ГИК	-14031
МКА	-14032
ако	-14033
ано	-14034
апс	-14035
бби	-14036
бил	-14037
вон	-14038
гет	-14039
гыр	-14040
дей	-14041
дис	-14042
евс	-14043
енз	-14044
жао	-14045
жев	-14046
жно	-14047
зал	-14048
иль	-14049
иск	-14050
ису	-14051
ияк	-14052
ной	-14053
пек	-14054
пил	-14055
рак	-14056
ред	-14057
рес	-14058
рик	-14059
ряв	-14060
уке	-14061
улл	-14062
уль	-14063
уми	-14064
ффе	-14065
чуа	-14066
чыл	-14067
ъез	-14068
ыяз	-14069
ьер	-14070
ьяк	-14071
ьян	-14072
эла	-14073
▁-3	-14074
▁6.	-14075
▁6;	-14076
▁AZ	-14077
▁BA	-14078
▁ET	-14079
▁Et	-14080
▁IL	-14081
▁Ji	-14082
▁Ju	-14083
▁LT	-14084
▁MO	-14085
▁MS	-14086
▁bo	-14087
▁hu	-14088
▁om	-14089
▁pe	-14090
▁rb	-14091
▁sh	-14092
▁sy	-14093
▁ul	-14094
▁wa	-14095
▁Ёс	-14096
▁АБ	-14097
▁Гл	-14098
▁Ел	-14099
▁ИР	-14100
▁СМ	-14101
▁Ци	-14102
▁Эн	-14103
▁еу	-14104
▁ии	-14105
▁лф	-14106
▁сб	-14107
▁сл	-14108
▁тю	-14109
▁уү	-14110
racy	-14111
берт	-14112
дари	-14113
изиа	-14114
ктуу	-14115
рава	-14116
▁"15	-14117
▁(63	-14118
▁0:0	-14119
▁1:1	-14120
▁1:3	-14121
▁1\8	-14122
▁2-5	-14123
▁211	-14124
▁237	-14125
▁239	-14126
▁256	-14127
▁257	-14128
▁258	-14129
▁267	-14130
▁272	-14131
▁273	-14132
▁288	-14133
▁295	-14134
▁3,9	-14135
▁301	-14136
▁309	-14137
▁321	-14138
▁327	-14139
▁328	-14140
▁342	-14141
▁348	-14142
▁352	-14143
▁353	-14144
▁363	-14145
▁367	-14146
▁378	-14147
▁392	-14148
▁393	-14149
▁40,	-14150
▁407	-14151
▁409	-14152
▁41%	-14153
▁417	-14154
▁419	-14155
▁444	-14156
▁445	-14157
▁469	-14158
▁476	-14159
▁487	-14160
▁517	-14161
▁522	-14162
▁528	-14163
▁53%	-14164
▁533	-14165
▁54,	-14166
▁543	-14167
▁554	-14168
▁559	-14169
▁568	-14170
▁572	-14171
▁574	-14172
▁581	-14173
▁583	-14174
▁5:0	-14175
▁6,1	-14176
▁602	-14177
▁608	-14178
▁629	-14179
▁632	-14180
▁64%	-14181
▁641	-14182
▁653	-14183
▁668	-14184
▁682	-14185
▁7,4	-14186
▁72,	-14187
▁727	-14188
▁729	-14189
▁794	-14190
▁812	-14191
▁816	-14192
▁82,	-14193
▁832	-14194
▁840	-14195
▁88%	-14196
▁96%	-14197
▁992	-14198
▁AQI	-14199
▁AbA	-14200
▁Ala	-14201
▁Aut	-14202
▁BCh	-14203
▁Blo	-14204
▁Cru	-14205
▁DDo	-14206
▁Del	-14207
▁Doi	-14208
▁Ele	-14209
▁Eti	-14210
▁GIZ	-14211
▁GPS	-14212
▁Hen	-14213
▁KAZ	-14214
▁LAV	-14215
▁Mor	-14216
▁Mus	-14217
▁Pet	-14218
▁PhD	-14219
▁Pol	-14220
▁SMM	-14221
▁She	-14222
▁Ste	-14223
▁TRT	-14224
▁Tex	-14225
▁Tri	-14226
▁Tro	-14227
▁Tut	-14228
▁air	-14229
▁bar	-14230
▁edu	-14231
▁ews	-14232
▁kei	-14233
▁kek	-14234
▁ken	-14235
▁lea	-14236
▁mch	-14237
▁nti	-14238
▁ori	-14239
▁sar	-14240
▁sni	-14241
▁swa	-14242
▁tel	-14243
▁Ваң	-14244
▁Вон	-14245
▁Гро	-14246
▁Дик	-14247
▁Жаа	-14248
▁Жах	-14249
▁Жей	-14250
▁Жем	-14251
▁Жин	-14252
▁Ичи	-14253
▁Кут	-14254
▁Куш	-14255
▁Көр	-14256
▁Лут	-14257
▁Люк	-14258
▁МКК	-14259
▁Нак	-14260
▁Ори	-14261
▁Пей	-14262
▁РТР	-14263
▁Реб	-14264
▁Риз	-14265
▁Сун	-14266
▁Сыр	-14267
▁Тар	-14268
▁Туш	-14269
▁УБТ	-14270
▁Фун	-14271
▁ХДБ	-14272
▁Чал	-14273
▁Чже	-14274
▁Шек	-14275
▁Шиш	-14276
▁Шул	-14277
▁Ысы	-14278
▁адв	-14279
▁акб	-14280
▁арф	-14281
▁ачи	-14282
▁аңк	-14283
▁бээ	-14284
▁воз	-14285
▁вчи	-14286
▁глы	-14287
▁джи	-14288
▁евд	-14289
▁еня	-14290
▁еол	-14291
▁епс	-14292
▁еты	-14293
▁ехр	-14294
▁еша	-14295
▁жеш	-14296
▁жун	-14297
▁жут	-14298
▁зик	-14299
▁зио	-14300
▁икл	-14301
▁икх	-14302
▁йфо	-14303
▁киф	-14304
▁ксо	-14305
▁кчо	-14306
▁леб	-14307
▁лый	-14308
▁лэр	-14309
▁миг	-14310
▁мим	-14311
▁нье	-14312
▁няз	-14313
▁окк	-14314
▁опу	-14315
▁пед	-14316
▁рех	-14317
▁ржи	-14318
▁сем	-14319
▁соӊ	-14320
▁сра	-14321
▁уам	-14322
▁удь	-14323
▁уля	-14324
▁упа	-14325
▁уюн	-14326
▁фро	-14327
▁фул	-14328
▁хли	-14329
▁шют	-14330
▁ыса	-14331
▁юнч	-14332
▁яти	-14333
▁ңор	-14334
▁үрс	-14335
▁Akip	-14336
▁Bish	-14337
▁CCBU	-14338
▁CHES	-14339
▁Chev	-14340
▁Figa	-14341
▁Film	-14342
▁Scho	-14343
▁Sout	-14344
▁Volk	-14345
▁West	-14346
▁bbli	-14347
▁fact	-14348
▁live	-14349
▁llup	-14350
▁mine	-14351
▁nder	-14352
▁nger	-14353
▁rbek	-14354
▁ship	-14355
▁sity	-14356
▁tics	-14357
▁Апос	-14358
▁Блок	-14359
▁ВГИК	-14360
▁Вали	-14361
▁ГЕРБ	-14362
▁Гари	-14363
▁Гола	-14364
▁Голи	-14365
▁Граб	-14366
▁Грэм	-14367
▁Дата	-14368
▁Доол	-14369
▁ЖЕЭК	-14370
▁Заид	-14371
▁Зевс	-14372
▁ИМКА	-14373
▁Кади	-14374
▁Коди	-14375
▁Липе	-14376
▁Лири	-14377
▁Мади	-14378
▁Нади	-14379
▁Нотр	-14380
▁Ныяз	-14381
▁Орта	-14382
▁Оңол	-14383
▁Поля	-14384
▁Пётр	-14385
▁Ржев	-14386
▁Тура	-14387
▁Ульф	-14388
▁Фулл	-14389
▁Цвет	-14390
▁Цзем	-14391
▁Цзэд	-14392
▁Чжао	-14393
▁Шаке	-14394
▁Шами	-14395
▁Шамс	-14396
▁Элис	-14397
▁Язов	-14398
▁аана	-14399
▁агом	-14400
▁адит	-14401
▁адык	-14402
▁адыл	-14403
▁ажан	-14404
▁ажап	-14405
▁айдо	-14406
▁айжа	-14407
▁айле	-14408
▁акур	-14409
▁акуш	-14410
▁акыя	-14411
▁алев	-14412
▁алля	-14413
▁алон	-14414
▁амиз	-14415
▁амол	-14416
▁амыз	-14417
▁анаф	-14418
▁апай	-14419
▁апил	-14420
▁аскы	-14421
▁аулу	-14422
▁ауль	-14423
▁аутс	-14424
▁ашит	-14425
▁ашпи	-14426
▁бари	-14427
▁беги	-14428
▁бжан	-14429
▁бина	-14430
▁бозо	-14431
▁бола	-14432
▁бору	-14433
▁былд	-14434
▁бюст	-14435
▁вели	-14436
▁вете	-14437
▁вино	-14438
▁вксе	-14439
▁воль	-14440
▁гейм	-14441
▁гиня	-14442
▁гноб	-14443
▁граж	-14444
▁даай	-14445
▁еани	-14446
▁ебек	-14447
▁еден	-14448
▁езги	-14449
▁ейко	-14450
▁ейсб	-14451
▁елем	-14452
▁елер	-14453
▁елый	-14454
▁енжи	-14455
▁енза	-14456
▁ерес	-14457
▁еруп	-14458
▁есер	-14459
▁есла	-14460
▁ефор	-14461
▁ефть	-14462
▁ехто	-14463
▁жист	-14464
▁зген	-14465
▁зман	-14466
▁золя	-14467
▁зонд	-14468
▁зуур	-14469
▁зүнө	-14470
▁иала	-14471
▁идес	-14472
▁изак	-14473
▁икал	-14474
▁илва	-14475
▁илиг	-14476
▁илки	-14477
▁имай	-14478
▁ирги	-14479
▁ируз	-14480
▁итио	-14481
▁ифат	-14482
▁ишка	-14483
▁йдин	-14484
▁йсал	-14485
▁како	-14486
▁ками	-14487
▁клах	-14488
▁кмал	-14489
▁коза	-14490
▁котч	-14491
▁ксай	-14492
▁ктот	-14493
▁кчыл	-14494
▁лайф	-14495
▁лера	-14496
▁ллар	-14497
▁лока	-14498
▁лори	-14499
▁льцг	-14500
▁ляга	-14501
▁мате	-14502
▁мено	-14503
▁мерд	-14504
▁мехр	-14505
▁минд	-14506
▁мокт	-14507
▁мони	-14508
▁мунд	-14509
▁муре	-14510
▁мыкт	-14511
▁нард	-14512
▁наси	-14513
▁насо	-14514
▁нгел	-14515
▁нгус	-14516
▁нетт	-14517
▁ними	-14518
▁нина	-14519
▁нипа	-14520
▁нита	-14521
▁нрих	-14522
▁нтал	-14523
▁нтиг	-14524
▁нтош	-14525
▁нъюн	-14526
▁ньес	-14527
▁ньяк	-14528
▁нөлү	-14529
▁обор	-14530
▁обур	-14531
▁ован	-14532
▁одик	-14533
▁ожаи	-14534
▁ожер	-14535
▁оляр	-14536
▁омме	-14537
▁омой	-14538
▁онку	-14539
▁онус	-14540
▁ортс	-14541
▁орян	-14542
▁оспи	-14543
▁паст	-14544
▁пече	-14545
▁порц	-14546
▁пулу	-14547
▁ракч	-14548
▁рапи	-14549
▁рауд	-14550
▁реви	-14551
▁рейд	-14552
▁ржон	-14553
▁ридж	-14554
▁риэл	-14555
▁ркоб	-14556
▁рпач	-14557
▁рэнк	-14558
▁саян	-14559
▁свен	-14560
▁сеин	-14561
▁секс	-14562
▁сенс	-14563
▁смак	-14564
▁сран	-14565
▁тава	-14566
▁теке	-14567
▁текс	-14568
▁тнос	-14569
▁трян	-14570
▁тсва	-14571
▁туур	-14572
▁тхон	-14573
▁убер	-14574
▁убио	-14575
▁удит	-14576
▁удуд	-14577
▁удуң	-14578
▁упеш	-14579
▁упса	-14580
▁урай	-14581
▁урик	-14582
▁усев	-14583
▁уску	-14584
▁ууйт	-14585
▁уфур	-14586
▁ухай	-14587
▁ухид	-14588
▁ушер	-14589
▁филь	-14590
▁хрор	-14591
▁чине	-14592
▁чини	-14593
▁чума	-14594
▁шело	-14595
▁ыйба	-14596
▁ыйкы	-14597
▁ылак	-14598
▁ыпаа	-14599
▁ытма	-14600
▁эйко	-14601
▁эниэ	-14602
▁юмда	-14603
▁ёдор	-14604
▁үтүп	-14605
▁Covax	-14606
▁Pamir	-14607
▁cracy	-14608
▁nders	-14609
▁presi	-14610
▁Дюжар	-14611
▁Йозеф	-14612
▁Керри	-14613
▁Кисел	-14614
▁Надел	-14615
▁Пикет	-14616
▁Позит	-14617
▁абото	-14618
▁авана	-14619
▁агдат	-14620
▁адари	-14621
▁адишо	-14622
▁айраң	-14623
▁акырд	-14624
▁алида	-14625
▁алини	-14626
▁алиха	-14627
▁аллин	-14628
▁алтаң	-14629
▁альто	-14630
▁амана	-14631
▁амдын	-14632
▁амзин	-14633
▁амиди	-14634
▁амсил	-14635
▁амшит	-14636
▁анабы	-14637
▁аналы	-14638
▁анафи	-14639
▁апкак	-14640
▁апчып	-14641
▁ардыр	-14642
▁аржау	-14643
▁ариан	-14644
▁арири	-14645
▁арлос	-14646
▁арпыл	-14647
▁арсыг	-14648
▁арсыл	-14649
▁арылг	-14650
▁астап	-14651
▁астыр	-14652
▁атаре	-14653
▁атрин	-14654
▁атынд	-14655
▁аутои	-14656
▁аухар	-14657
▁барри	-14658
▁бинец	-14659
▁брамз	-14660
▁бурха	-14661
▁вотса	-14662
▁генди	-14663
▁дисци	-14664
▁домор	-14665
▁духун	-14666
▁ейкер	-14667
▁еллен	-14668
▁емеле	-14669
▁ерами	-14670
▁ергин	-14671
▁ерлус	-14672
▁ермен	-14673
▁ермес	-14674
▁ернар	-14675
▁ехман	-14676
▁ешеси	-14677
▁еңгел	-14678
▁звено	-14679
▁илоро	-14680
▁инамо	-14681
▁ингуш	-14682
▁иниат	-14683
▁инима	-14684
▁иррах	-14685
▁истик	-14686
▁ифтах	-14687
▁караж	-14688
▁кодил	-14689
▁кстон	-14690
▁кылмы	-14691
▁күсүн	-14692
▁лленж	-14693
▁ллино	-14694
▁лүктө	-14695
▁ментт	-14696
▁мибия	-14697
▁минус	-14698
▁мпула	-14699
▁муста	-14700
▁мфорт	-14701
▁норка	-14702
▁нрава	-14703
▁одмос	-14704
▁озавр	-14705
▁олеум	-14706
▁осфор	-14707
▁отоло	-14708
▁пласт	-14709
▁плита	-14710
▁полто	-14711
▁посто	-14712
▁равел	-14713
▁ражуд	-14714
▁рамза	-14715
▁рахам	-14716
▁ргасы	-14717
▁реису	-14718
▁релиз	-14719
▁риден	-14720
▁ринин	-14721
▁ритре	-14722
▁рмала	-14723
▁рмент	-14724
▁рохир	-14725
▁ружба	-14726
▁рулло	-14727
▁руста	-14728
▁рцогу	-14729
▁сатар	-14730
▁славд	-14731
▁смани	-14732
▁строй	-14733
▁турла	-14734
▁увени	-14735
▁удряв	-14736
▁узвел	-14737
▁уизиа	-14738
▁улани	-14739
▁умпай	-14740
▁ундай	-14741
▁ункер	-14742
▁ургус	-14743
▁утана	-14744
▁утина	-14745
▁ухари	-14746
▁ухгал	-14747
▁чалык	-14748
▁шампа	-14749
▁шапал	-14750
▁шатма	-14751
▁шаңга	-14752
▁ширин	-14753
▁шыдыр	-14754
▁ыйнур	-14755
▁ылгап	-14756
▁ырахм	-14757
▁этчер	-14758
▁яктуу	-14759
▁үлүгү	-14760
▁үстүн	-14761
+1	-14762
2,	-14763
42	-14764
55	-14765
:5	-14766
CK	-14767
IK	-14768
IL	-14769
LS	-14770
MP	-14771
RF	-14772
kt	-14773
uc	-14774
za	-14775
АУ	-14776
Ат	-14777
БУ	-14778
ЕС	-14779
ИЯ	-14780
Ми	-14781
НА	-14782
ОС	-14783
РИ	-14784
УМ	-14785
бб	-14786
зу	-14787
кр	-14788
кѳ	-14789
мѳ	-14790
нс	-14791
нѳ	-14792
об	-14793
уи	-14794
▁¬	-14795
▁ş	-14796
▁•	-14797
▁▪	-14798
IFA	-14799
ach	-14800
aki	-14801
arm	-14802
ary	-14803
bai	-14804
bra	-14805
eni	-14806
mad	-14807
mer	-14808
omp	-14809
rri	-14810
ver	-14811
ГИЛ	-14812
ЕФА	-14813
ПОР	-14814
ЭАБ	-14815
айс	-14816
аль	-14817
вид	-14818
гуч	-14819
елл	-14820
енг	-14821
ено	-14822
жет	-14823
жин	-14824
жор	-14825
инд	-14826
инт	-14827
ирт	-14828
ков	-14829
леб	-14830
лег	-14831
няк	-14832
овщ	-14833
омё	-14834
оту	-14835
рен	-14836
риз	-14837
таа	-14838
ука	-14839
упт	-14840
фат	-14841
хау	-14842
хед	-14843
цид	-14844
шид	-14845
этл	-14846
юме	-14847
ёра	-14848
▁1;	-14849
▁5;	-14850
▁7-	-14851
▁7.	-14852
▁AC	-14853
▁An	-14854
▁CS	-14855
▁Ea	-14856
▁Fa	-14857
▁IC	-14858
▁KO	-14859
▁Oz	-14860
▁Pl	-14861
▁RO	-14862
▁SC	-14863
▁SH	-14864
▁TE	-14865
▁TY	-14866
▁Tü	-14867
▁Za	-14868
▁ah	-14869
▁cy	-14870
▁ga	-14871
▁gu	-14872
▁ir	-14873
▁po	-14874
▁su	-14875
▁wi	-14876
▁za	-14877
▁АС	-14878
▁ЖИ	-14879
▁ИА	-14880
▁ПА	-14881
▁РС	-14882
▁СН	-14883
▁ТК	-14884
▁Фа	-14885
▁кВ	-14886
▁нб	-14887
▁рё	-14888
▁уи	-14889
▁хы	-14890
▁хэ	-14891
▁юс	-14892
▁ён	-14893
▁ѳѳ	-14894
▁ӨП	-14895
▁▪️	-14896
elle	-14897
erge	-14898
mart	-14899
oldi	-14900
ашет	-14901
джер	-14902
дини	-14903
ляпа	-14904
сбол	-14905
тель	-14906
▁(72	-14907
▁(76	-14908
▁(86	-14909
▁070	-14910
▁11.	-14911
▁2.5	-14912
▁219	-14913
▁233	-14914
▁25,	-14915
▁262	-14916
▁278	-14917
▁293	-14918
▁299	-14919
▁316	-14920
▁338	-14921
▁339	-14922
▁343	-14923
▁356	-14924
▁358	-14925
▁364	-14926
▁379	-14927
▁389	-14928
▁39%	-14929
▁412	-14930
▁413	-14931
▁414	-14932
▁415	-14933
▁43,	-14934
▁431	-14935
▁432	-14936
▁436	-14937
▁449	-14938
▁458	-14939
▁461	-14940
▁463	-14941
▁466	-14942
▁471	-14943
▁477	-14944
▁483	-14945
▁484	-14946
▁489	-14947
▁491	-14948
▁4:2	-14949
▁5,7	-14950
▁5,9	-14951
▁501	-14952
▁504	-14953
▁515	-14954
▁52,	-14955
▁523	-14956
▁525	-14957
▁534	-14958
▁535	-14959
▁547	-14960
▁548	-14961
▁556	-14962
▁567	-14963
▁569	-14964
▁577	-14965
▁58%	-14966
▁586	-14967
▁592	-14968
▁598	-14969
▁6,2	-14970
▁626	-14971
▁628	-14972
▁63%	-14973
▁635	-14974
▁639	-14975
▁642	-14976
▁651	-14977
▁655	-14978
▁6:1	-14979
▁7%,	-14980
▁702	-14981
▁710	-14982
▁714	-14983
▁726	-14984
▁735	-14985
▁736	-14986
▁746	-14987
▁756	-14988
▁761	-14989
▁773	-14990
▁799	-14991
▁7:3	-14992
▁8,2	-14993
▁805	-14994
▁81,	-14995
▁810	-14996
▁827	-14997
▁847	-14998
▁865	-14999
▁883	-15000
▁885	-15001
▁895	-15002
▁93%	-15003
▁937	-15004
▁946	-15005
▁99,	-15006
▁995	-15007
▁Aze	-15008
▁Ben	-15009
▁Bil	-15010
▁Bra	-15011
▁Cop	-15012
▁Cre	-15013
▁Dub	-15014
▁Due	-15015
▁Eli	-15016
▁Eur	-15017
▁Har	-15018
▁Haw	-15019
▁Ind	-15020
▁KFW	-15021
▁LTD	-15022
▁Law	-15023
▁Oce	-15024
▁Ori	-15025
▁POS	-15026
▁Pay	-15027
▁Poi	-15028
▁RUS	-15029
▁Rio	-15030
▁TSh	-15031
▁Thi	-15032
▁VYA	-15033
▁WPS	-15034
▁War	-15035
▁Wei	-15036
▁YDA	-15037
▁act	-15038
▁ark	-15039
▁che	-15040
▁cor	-15041
▁day	-15042
▁dge	-15043
▁ean	-15044
▁ety	-15045
▁eva	-15046
▁gon	-15047
▁han	-15048
▁her	-15049
▁int	-15050
▁kir	-15051
▁lar	-15052
▁lev	-15053
▁lla	-15054
▁lop	-15055
▁lut	-15056
▁mes	-15057
▁met	-15058
▁min	-15059
▁nop	-15060
▁nte	-15061
▁oni	-15062
▁pri	-15063
▁pro	-15064
▁ria	-15065
▁sto	-15066
▁tan	-15067
▁uro	-15068
▁vir	-15069
▁zon	-15070
▁Алп	-15071
▁Бик	-15072
▁Ваз	-15073
▁Гас	-15074
▁Гул	-15075
▁Зах	-15076
▁Зин	-15077
▁Иле	-15078
▁Ира	-15079
▁КОВ	-15080
▁КТЖ	-15081
▁Кац	-15082
▁Кой	-15083
▁Кын	-15084
▁Лег	-15085
▁МИС	-15086
▁Мис	-15087
▁Мос	-15088
▁Мув	-15089
▁Мээ	-15090
▁Нүр	-15091
▁ПСЖ	-15092
▁Пам	-15093
▁Пла	-15094
▁Пэн	-15095
▁РЦА	-15096
▁Рож	-15097
▁Рэй	-15098
▁СМУ	-15099
▁Саз	-15100
▁Сак	-15101
▁Сно	-15102
▁Сов	-15103
▁Сяо	-15104
▁Тед	-15105
▁Тен	-15106
▁Тес	-15107
▁Тук	-15108
▁Түк	-15109
▁Уот	-15110
▁Уят	-15111
▁Фан	-15112
▁Хиз	-15113
▁Хук	-15114
▁Чоб	-15115
▁Чон	-15116
▁Чыр	-15117
▁Шаг	-15118
▁ЭОК	-15119
▁ЭСФ	-15120
▁Юта	-15121
▁аад	-15122
▁айш	-15123
▁акр	-15124
▁ауз	-15125
▁ауи	-15126
▁аук	-15127
▁аяш	-15128
▁аңт	-15129
▁бод	-15130
▁бүк	-15131
▁вой	-15132
▁вон	-15133
▁гда	-15134
▁грэ	-15135
▁дао	-15136
▁еап	-15137
▁ейш	-15138
▁жов	-15139
▁заа	-15140
▁иат	-15141
▁иба	-15142
▁иен	-15143
▁изн	-15144
▁иму	-15145
▁ирө	-15146
▁иуд	-15147
▁иям	-15148
▁ияр	-15149
▁йер	-15150
▁йтк	-15151
▁кип	-15152
▁киш	-15153
▁ксё	-15154
▁куй	-15155
▁күс	-15156
▁лау	-15157
▁лещ	-15158
▁лэш	-15159
▁люч	-15160
▁лөк	-15161
▁мру	-15162
▁мфи	-15163
▁мый	-15164
▁нгс	-15165
▁ндѳ	-15166
▁неш	-15167
▁нив	-15168
▁нич	-15169
▁нке	-15170
▁нмо	-15171
▁нок	-15172
▁нёв	-15173
▁оис	-15174
▁ойя	-15175
▁омс	-15176
▁орс	-15177
▁оте	-15178
▁офи	-15179
▁рза	-15180
▁руб	-15181
▁рцо	-15182
▁сик	-15183
▁таф	-15184
▁таӊ	-15185
▁тис	-15186
▁тшо	-15187
▁уай	-15188
▁унь	-15189
▁урх	-15190
▁ушт	-15191
▁хач	-15192
▁чел	-15193
▁чте	-15194
▁чөт	-15195
▁шаф	-15196
▁шли	-15197
▁шох	-15198
▁ыкк	-15199
▁ыкы	-15200
▁ылж	-15201
▁ыта	-15202
▁эйн	-15203
▁эйт	-15204
▁энд	-15205
▁энс	-15206
▁яда	-15207
▁ярл	-15208
▁үде	-15209
▁Atla	-15210
▁Avia	-15211
▁Book	-15212
▁Bozy	-15213
▁DDoS	-15214
▁Deep	-15215
▁Deve	-15216
▁Dili	-15217
▁Eart	-15218
▁FIFA	-15219
▁Hong	-15220
▁Iran	-15221
▁Jaze	-15222
▁Land	-15223
▁Mark	-15224
▁NEET	-15225
▁Paki	-15226
▁Play	-15227
▁Port	-15228
▁Proj	-15229
▁RTVI	-15230
▁Repo	-15231
▁beki	-15232
▁ffic	-15233
▁gies	-15234
▁lear	-15235
▁nter	-15236
▁ovis	-15237
▁rbai	-15238
▁snim	-15239
▁stem	-15240
▁АМАЗ	-15241
▁АПОР	-15242
▁Бапи	-15243
▁Вотч	-15244
▁ЕЭАБ	-15245
▁Заед	-15246
▁Зияш	-15247
▁ИГИЛ	-15248
▁КЖБР	-15249
▁Камч	-15250
▁Квор	-15251
▁Кейр	-15252
▁Кило	-15253
▁Лаос	-15254
▁Линг	-15255
▁Лозо	-15256
▁Мати	-15257
▁Нази	-15258
▁Нова	-15259
▁Пасе	-15260
▁Педо	-15261
▁Перк	-15262
▁Пинн	-15263
▁Пирс	-15264
▁Подг	-15265
▁Рави	-15266
▁Раза	-15267
▁Рико	-15268
▁Ринг	-15269
▁Тава	-15270
▁Топо	-15271
▁УЕФА	-15272
▁Умра	-15273
▁Хари	-15274
▁Цели	-15275
▁Чоку	-15276
▁Шама	-15277
▁Шарм	-15278
▁Шебе	-15279
▁Шуан	-15280
▁Шуби	-15281
▁абаз	-15282
▁абаң	-15283
▁абри	-15284
▁абуш	-15285
▁авле	-15286
▁авуд	-15287
▁авут	-15288
▁агаж	-15289
▁агыш	-15290
▁ажал	-15291
▁азза	-15292
▁азис	-15293
▁айим	-15294
▁айто	-15295
▁акей	-15296
▁акиш	-15297
▁акыс	-15298
▁алми	-15299
▁алук	-15300
▁алчы	-15301
▁алыӊ	-15302
▁амаф	-15303
▁амим	-15304
▁амма	-15305
▁амос	-15306
▁анди	-15307
▁апуа	-15308
▁апча	-15309
▁арар	-15310
▁ардо	-15311
▁асам	-15312
▁асип	-15313
▁асур	-15314
▁атин	-15315
▁атих	-15316
▁атиш	-15317
▁атур	-15318
▁ахру	-15319
▁ашан	-15320
▁ашие	-15321
▁аяне	-15322
▁ббой	-15323
▁бзал	-15324
▁борт	-15325
▁брах	-15326
▁буду	-15327
▁бурн	-15328
▁буюк	-15329
▁была	-15330
▁бэйи	-15331
▁вант	-15332
▁вела	-15333
▁венк	-15334
▁вери	-15335
▁ветт	-15336
▁вифт	-15337
▁вори	-15338
▁гейи	-15339
▁гипс	-15340
▁гист	-15341
▁гуру	-15342
▁дага	-15343
▁динс	-15344
▁дное	-15345
▁добу	-15346
▁дъез	-15347
▁евит	-15348
▁едей	-15349
▁едиг	-15350
▁едиз	-15351
▁едим	-15352
▁езос	-15353
▁ейжи	-15354
▁ейнс	-15355
▁еким	-15356
▁елал	-15357
▁елеп	-15358
▁елия	-15359
▁елла	-15360
▁елос	-15361
▁емён	-15362
▁енеб	-15363
▁енет	-15364
▁енжа	-15365
▁енке	-15366
▁ерба	-15367
▁ереб	-15368
▁ерзи	-15369
▁ерит	-15370
▁ерне	-15371
▁ерон	-15372
▁ерчи	-15373
▁етем	-15374
▁ехри	-15375
▁ечен	-15376
▁еӊиз	-15377
▁жаты	-15378
▁жейи	-15379
▁жерл	-15380
▁жэнх	-15381
▁знак	-15382
▁идир	-15383
▁идящ	-15384
▁изви	-15385
▁иирт	-15386
▁ийма	-15387
▁ийск	-15388
▁икбо	-15389
▁икер	-15390
▁илиз	-15391
▁илло	-15392
▁имер	-15393
▁инжи	-15394
▁инис	-15395
▁ипке	-15396
▁ираз	-15397
▁ирас	-15398
▁ирми	-15399
▁ирук	-15400
▁итлз	-15401
▁ихти	-15402
▁ицил	-15403
▁ишер	-15404
▁иэтл	-15405
▁ияро	-15406
▁йжер	-15407
▁йкел	-15408
▁йнак	-15409
▁кард	-15410
▁квар	-15411
▁кейт	-15412
▁ксон	-15413
▁кули	-15414
▁лава	-15415
▁лард	-15416
▁лари	-15417
▁ларк	-15418
▁лепч	-15419
▁ливи	-15420
▁лиде	-15421
▁лкун	-15422
▁ллаж	-15423
▁лото	-15424
▁лпек	-15425
▁лтур	-15426
▁луга	-15427
▁лыма	-15428
▁льяш	-15429
▁люкс	-15430
▁мель	-15431
▁миге	-15432
▁миде	-15433
▁минг	-15434
▁мсте	-15435
▁нара	-15436
▁наул	-15437
▁нзор	-15438
▁нная	-15439
▁ного	-15440
▁нсаф	-15441
▁нуар	-15442
▁нчик	-15443
▁овач	-15444
▁овер	-15445
▁огош	-15446
▁одей	-15447
▁оджа	-15448
▁одой	-15449
▁одул	-15450
▁одур	-15451
▁ожде	-15452
▁озиц	-15453
▁олиг	-15454
▁олча	-15455
▁оляд	-15456
▁омин	-15457
▁омон	-15458
▁онре	-15459
▁орМи	-15460
▁орбс	-15461
▁ордж	-15462
▁ормо	-15463
▁осье	-15464
▁осян	-15465
▁оуэн	-15466
▁охар	-15467
▁очик	-15468
▁ошуа	-15469
▁паке	-15470
▁пере	-15471
▁пиво	-15472
▁пино	-15473
▁пист	-15474
▁плащ	-15475
▁подт	-15476
▁равч	-15477
▁райм	-15478
▁рани	-15479
▁раты	-15480
▁рауз	-15481
▁ргүз	-15482
▁реде	-15483
▁реке	-15484
▁рзан	-15485
▁риен	-15486
▁ринб	-15487
▁ринц	-15488
▁рипо	-15489
▁рлен	-15490
▁рсел	-15491
▁руиз	-15492
▁руст	-15493
▁ряни	-15494
▁скас	-15495
▁слим	-15496
▁ссоф	-15497
▁тило	-15498
▁типе	-15499
▁ткуч	-15500
▁тоти	-15501
▁трюк	-15502
▁ттес	-15503
▁тула	-15504
▁тчан	-15505
▁тыма	-15506
▁тьев	-15507
▁түрд	-15508
▁уваш	-15509
▁удов	-15510
▁удущ	-15511
▁ужур	-15512
▁укян	-15513
▁улер	-15514
▁улеш	-15515
▁улис	-15516
▁унат	-15517
▁унке	-15518
▁ураш	-15519
▁урча	-15520
▁урүп	-15521
▁усаб	-15522
▁утур	-15523
▁уфат	-15524
▁уфет	-15525
▁ушка	-15526
▁фуза	-15527
▁хайп	-15528
▁хсон	-15529
▁чача	-15530
▁чиде	-15531
▁чимк	-15532
▁чник	-15533
▁чулу	-15534
▁шафт	-15535
▁шашт	-15536
▁шкаф	-15537
▁шмер	-15538
▁шуба	-15539
▁шылт	-15540
▁ыкыл	-15541
▁ылки	-15542
▁ымып	-15543
▁ырай	-15544
▁ырчы	-15545
▁ытыр	-15546
▁ычыш	-15547
▁ыңша	-15548
▁ьева	-15549
▁энду	-15550
▁этиб	-15551
▁эцян	-15552
▁юник	-15553
▁юнос	-15554
▁яшко	-15555
▁өбөй	-15556
▁өнөк	-15557
▁өнөт	-15558
▁Haber	-15559
▁Horne	-15560
▁Morni	-15561
▁Music	-15562
▁ghtra	-15563
▁grant	-15564
▁mchak	-15565
▁Бирим	-15566
▁Гроза	-15567
▁Закар	-15568
▁Колин	-15569
▁Лашет	-15570
▁Отчёт	-15571
▁Сумма	-15572
▁Харал	-15573
▁Чийки	-15574
▁Шамшы	-15575
▁Шарма	-15576
▁Шухра	-15577
▁аабат	-15578
▁аадыр	-15579
▁авран	-15580
▁агери	-15581
▁азири	-15582
▁айбат	-15583
▁айкро	-15584
▁айнат	-15585
▁аксим	-15586
▁алжал	-15587
▁алиди	-15588
▁аллам	-15589
▁альза	-15590
▁альке	-15591
▁амбаш	-15592
▁ампер	-15593
▁амсак	-15594
▁анамо	-15595
▁андор	-15596
▁антос	-15597
▁арали	-15598
▁арбоз	-15599
▁аргап	-15600
▁ардиф	-15601
▁ардор	-15602
▁арзыш	-15603
▁арипа	-15604
▁армат	-15605
▁арраж	-15606
▁артан	-15607
▁аруки	-15608
▁аршал	-15609
▁астма	-15610
▁атиба	-15611
▁атлер	-15612
▁аттах	-15613
▁атури	-15614
▁аухид	-15615
▁аффор	-15616
▁банкт	-15617
▁берра	-15618
▁берри	-15619
▁вание	-15620
▁вегет	-15621
▁гаупт	-15622
▁дахин	-15623
▁довар	-15624
▁догма	-15625
▁дурас	-15626
▁едовщ	-15627
▁езнич	-15628
▁ейсал	-15629
▁екрет	-15630
▁елика	-15631
▁елисх	-15632
▁елору	-15633
▁елсат	-15634
▁енази	-15635
▁ендин	-15636
▁еноша	-15637
▁епсел	-15638
▁ерань	-15639
▁ерент	-15640
▁ерсен	-15641
▁ерхан	-15642
▁етини	-15643
▁етона	-15644
▁ечкин	-15645
▁ешхед	-15646
▁жафар	-15647
▁зелте	-15648
▁зомби	-15649
▁ибрал	-15650
▁инден	-15651
▁иномё	-15652
▁ирген	-15653
▁ифтер	-15654
▁калый	-15655
▁калье	-15656
▁канак	-15657
▁кедей	-15658
▁кобод	-15659
▁конти	-15660
▁кряби	-15661
▁куула	-15662
▁күрөш	-15663
▁ланка	-15664
▁латыш	-15665
▁летар	-15666
▁липос	-15667
▁лиров	-15668
▁ллапс	-15669
▁ллард	-15670
▁ллинз	-15671
▁лугат	-15672
▁майни	-15673
▁маник	-15674
▁минер	-15675
▁мицин	-15676
▁мобил	-15677
▁мудин	-15678
▁мурай	-15679
▁мурод	-15680
▁нестр	-15681
▁нттин	-15682
▁ншаат	-15683
▁нөктө	-15684
▁оргуч	-15685
▁ороши	-15686
▁ортер	-15687
▁ортсм	-15688
▁ортун	-15689
▁осточ	-15690
▁пират	-15691
▁питер	-15692
▁равцо	-15693
▁ренаж	-15694
▁ринар	-15695
▁рипас	-15696
▁розик	-15697
▁ролик	-15698
▁рсбол	-15699
▁румка	-15700
▁серек	-15701
▁систе	-15702
▁смент	-15703
▁ссана	-15704
▁стави	-15705
▁тавро	-15706
▁талон	-15707
▁тамон	-15708
▁текин	-15709
▁телла	-15710
▁тканд	-15711
▁тоңот	-15712
▁трафи	-15713
▁уардо	-15714
▁убцов	-15715
▁угжан	-15716
▁уйдал	-15717
▁укбат	-15718
▁улико	-15719
▁улкул	-15720
▁улкун	-15721
▁умкан	-15722
▁уркат	-15723
▁усман	-15724
▁ушнер	-15725
▁уэрто	-15726
▁фулли	-15727
▁хабга	-15728
▁харас	-15729
▁хнааг	-15730
▁хобби	-15731
▁хутто	-15732
▁чабат	-15733
▁чапан	-15734
▁чачыр	-15735
▁ческо	-15736
▁чыпчы	-15737
▁шабло	-15738
▁шаман	-15739
▁шапке	-15740
▁шатыр	-15741
▁шелон	-15742
▁шишке	-15743
▁шляпа	-15744
▁штраф	-15745
▁шыкап	-15746
▁шыпаа	-15747
▁ыйбаа	-15748
▁ыйрыг	-15749
▁ылтак	-15750
▁ынтаа	-15751
▁ыпчыл	-15752
▁ыраан	-15753
▁ыраши	-15754
▁эмбри	-15755
▁юнике	-15756
▁үргөн	-15757
.)	-15758
23	-15759
32	-15760
33	-15761
35	-15762
4,	-15763
70	-15764
80	-15765
Kt	-15766
LU	-15767
OS	-15768
PI	-15769
RI	-15770
ll	-15771
sp	-15772
ud	-15773
uu	-15774
we	-15775
АН	-15776
Бу	-15777
ГД	-15778
ИР	-15779
Ит	-15780
ОР	-15781
ПА	-15782
Си	-15783
ТИ	-15784
УР	-15785
ЭП	-15786
Эр	-15787
дс	-15788
дт	-15789
ец	-15790
зд	-15791
йи	-15792
йы	-15793
ож	-15794
тс	-15795
фл	-15796
цу	-15797
шк	-15798
юб	-15799
ёз	-15800
▁ç	-15801
▁ұ	-15802
VII	-15803
ars	-15804
ell	-15805
ing	-15806
kra	-15807
mat	-15808
mit	-15809
nap	-15810
odo	-15811
olu	-15812
omo	-15813
ura	-15814
urt	-15815
АДА	-15816
ЕАН	-15817
ИАН	-15818
МОН	-15819
аму	-15820
бас	-15821
бел	-15822
бос	-15823
был	-15824
бян	-15825
вал	-15826
гат	-15827
епи	-15828
зад	-15829
каг	-15830
кач	-15831
ква	-15832
кум	-15833
лат	-15834
лез	-15835
лис	-15836
лоу	-15837
меи	-15838
мей	-15839
мис	-15840
мон	-15841
нек	-15842
няя	-15843
оре	-15844
пан	-15845
пыр	-15846
пыс	-15847
рей	-15848
рут	-15849
сир	-15850
таб	-15851
уар	-15852
уту	-15853
фир	-15854
хют	-15855
цио	-15856
чко	-15857
ыла	-15858
ьез	-15859
эли	-15860
энт	-15861
эст	-15862
▁"4	-15863
▁"5	-15864
▁"7	-15865
▁"9	-15866
▁("	-15867
▁6)	-15868
▁Ag	-15869
▁Ah	-15870
▁BP	-15871
▁BU	-15872
▁Dy	-15873
▁FM	-15874
▁Fe	-15875
▁IB	-15876
▁Ip	-15877
▁Je	-15878
▁Ku	-15879
▁MQ	-15880
▁NT	-15881
▁Qa	-15882
▁TN	-15883
▁em	-15884
▁ey	-15885
▁is	-15886
▁iv	-15887
▁ja	-15888
▁od	-15889
▁rm	-15890
▁ze	-15891
▁Ёң	-15892
▁БМ	-15893
▁Ен	-15894
▁ИК	-15895
▁ИП	-15896
▁КЛ	-15897
▁РМ	-15898
▁СС	-15899
▁СТ	-15900
▁ТР	-15901
▁ТС	-15902
▁Ур	-15903
▁Цы	-15904
▁ао	-15905
▁вы	-15906
▁ещ	-15907
▁иӊ	-15908
▁кх	-15909
▁кш	-15910
▁кэ	-15911
▁кѳ	-15912
▁оя	-15913
▁сн	-15914
▁ца	-15915
▁чк	-15916
▁ыи	-15917
▁юб	-15918
▁Өч	-15919
lein	-15920
oice	-15921
ussy	-15922
апсе	-15923
арна	-15924
линн	-15925
лыур	-15926
▁"10	-15927
▁"12	-15928
▁"16	-15929
▁(17	-15930
▁(45	-15931
▁(50	-15932
▁(74	-15933
▁(80	-15934
▁-2°	-15935
▁063	-15936
▁13.	-15937
▁1:2	-15938
▁23,	-15939
▁23;	-15940
▁249	-15941
▁29,	-15942
▁322	-15943
▁331	-15944
▁333	-15945
▁334	-15946
▁344	-15947
▁349	-15948
▁354	-15949
▁373	-15950
▁377	-15951
▁382	-15952
▁383	-15953
▁394	-15954
▁397	-15955
▁3:3	-15956
▁3:4	-15957
▁4%,	-15958
▁401	-15959
▁402	-15960
▁404	-15961
▁408	-15962
▁424	-15963
▁427	-15964
▁433	-15965
▁434	-15966
▁441	-15967
▁455	-15968
▁485	-15969
▁488	-15970
▁490	-15971
▁494	-15972
▁5+1	-15973
▁503	-15974
▁508	-15975
▁511	-15976
▁516	-15977
▁518	-15978
▁527	-15979
▁532	-15980
▁55,	-15981
▁56%	-15982
▁57,	-15983
▁588	-15984
▁59,	-15985
▁596	-15986
▁603	-15987
▁606	-15988
▁607	-15989
▁609	-15990
▁61%	-15991
▁622	-15992
▁631	-15993
▁64,	-15994
▁66%	-15995
▁662	-15996
▁666	-15997
▁679	-15998
▁683	-15999
▁686	-16000
▁694	-16001
▁7,6	-16002
▁701	-16003
▁713	-16004
▁715	-16005
▁716	-16006
▁725	-16007
▁734	-16008
▁739	-16009
▁741	-16010
▁745	-16011
▁755	-16012
▁762	-16013
▁767	-16014
▁772	-16015
▁778	-16016
▁784	-16017
▁786	-16018
▁787	-16019
▁7:0	-16020
▁7:2	-16021
▁8,1	-16022
▁8,6	-16023
▁823	-16024
▁83%	-16025
▁83,	-16026
▁833	-16027
▁85,	-16028
▁864	-16029
▁872	-16030
▁875	-16031
▁878	-16032
▁880	-16033
▁884	-16034
▁886	-16035
▁89%	-16036
▁9,1	-16037
▁9,2	-16038
▁9,4	-16039
▁906	-16040
▁913	-16041
▁914	-16042
▁916	-16043
▁926	-16044
▁945	-16045
▁959	-16046
▁961	-16047
▁983	-16048
▁988	-16049
▁999	-16050
▁9:0	-16051
▁ANO	-16052
▁Amo	-16053
▁Arm	-16054
▁Ber	-16055
▁CAS	-16056
▁COM	-16057
▁Clu	-16058
▁Cou	-16059
▁Cro	-16060
▁Dou	-16061
▁Fok	-16062
▁Ini	-16063
▁JIA	-16064
▁Jet	-16065
▁KFC	-16066
▁MKt	-16067
▁Mat	-16068
▁Met	-16069
▁POL	-16070
▁Pan	-16071
▁Raz	-16072
▁SER	-16073
▁SIM	-16074
▁Sea	-16075
▁Sie	-16076
▁Sil	-16077
▁Tez	-16078
▁Top	-16079
▁Tre	-16080
▁UND	-16081
▁VAR	-16082
▁VOA	-16083
▁ara	-16084
▁aza	-16085
▁bil	-16086
▁biz	-16087
▁cia	-16088
▁cks	-16089
▁end	-16090
▁ens	-16091
▁ere	-16092
▁esh	-16093
▁gar	-16094
▁gaz	-16095
▁hel	-16096
▁hor	-16097
▁ics	-16098
▁ish	-16099
▁lem	-16100
▁ler	-16101
▁lik	-16102
▁lti	-16103
▁mba	-16104
▁med	-16105
▁nat	-16106
▁ndy	-16107
▁nes	-16108
▁ney	-16109
▁nfo	-16110
▁nty	-16111
▁oin	-16112
▁per	-16113
▁que	-16114
▁qui	-16115
▁rus	-16116
▁sse	-16117
▁ter	-16118
▁tes	-16119
▁tia	-16120
▁tti	-16121
▁tty	-16122
▁uct	-16123
▁ust	-16124
▁zan	-16125
▁zat	-16126
▁АКА	-16127
▁АФП	-16128
▁Аук	-16129
▁БОН	-16130
▁БТА	-16131
▁Бая	-16132
▁Бий	-16133
▁ГДР	-16134
▁Диз	-16135
▁Дүң	-16136
▁Зау	-16137
▁Зей	-16138
▁ИВС	-16139
▁ККК	-16140
▁КУУ	-16141
▁Кая	-16142
▁Кек	-16143
▁Куз	-16144
▁Кук	-16145
▁Лак	-16146
▁Лам	-16147
▁Лан	-16148
▁МАК	-16149
▁МБХ	-16150
▁МГц	-16151
▁МТВ	-16152
▁МТС	-16153
▁Ман	-16154
▁Мён	-16155
▁Нег	-16156
▁Нес	-16157
▁Ноо	-16158
▁Пит	-16159
▁Пон	-16160
▁РГД	-16161
▁РЕН	-16162
▁РКП	-16163
▁РНК	-16164
▁РОП	-16165
▁РФА	-16166
▁Роз	-16167
▁Соп	-16168
▁Тең	-16169
▁Тор	-16170
▁УАЗ	-16171
▁Уит	-16172
▁Уме	-16173
▁Уни	-16174
▁ФАТ	-16175
▁Фоз	-16176
▁ХХІ	-16177
▁Хик	-16178
▁Хун	-16179
▁Чад	-16180
▁Чао	-16181
▁Чин	-16182
▁Чэн	-16183
▁Шук	-16184
▁ЭКУ	-16185
▁Ява	-16186
▁Яна	-16187
▁аед	-16188
▁айа	-16189
▁айи	-16190
▁анз	-16191
▁аря	-16192
▁ася	-16193
▁ауф	-16194
▁вам	-16195
▁вди	-16196
▁ври	-16197
▁гав	-16198
▁геп	-16199
▁гид	-16200
▁гут	-16201
▁еви	-16202
▁ерф	-16203
▁еть	-16204
▁зве	-16205
▁здү	-16206
▁зок	-16207
▁имч	-16208
▁инь	-16209
▁ияс	-16210
▁кви	-16211
▁кит	-16212
▁кшо	-16213
▁күң	-16214
▁лиа	-16215
▁ллю	-16216
▁лля	-16217
▁лян	-16218
▁мом	-16219
▁мра	-16220
▁мус	-16221
▁мут	-16222
▁мчы	-16223
▁наф	-16224
▁неу	-16225
▁ноу	-16226
▁нум	-16227
▁нце	-16228
▁нью	-16229
▁обз	-16230
▁одж	-16231
▁одя	-16232
▁олы	-16233
▁оут	-16234
▁паш	-16235
▁паң	-16236
▁пея	-16237
▁пиш	-16238
▁пле	-16239
▁рги	-16240
▁рдж	-16241
▁реф	-16242
▁рло	-16243
▁рэй	-16244
▁рюк	-16245
▁саз	-16246
▁сет	-16247
▁сиӊ	-16248
▁сѳз	-16249
▁тно	-16250
▁туя	-16251
▁тхо	-16252
▁уез	-16253
▁утц	-16254
▁уфи	-16255
▁уэл	-16256
▁фай	-16257
▁цер	-16258
▁чтү	-16259
▁чый	-16260
▁шоп	-16261
▁ыжы	-16262
▁ыйт	-16263
▁ыча	-16264
▁ышү	-16265
▁эби	-16266
▁эйл	-16267
▁элг	-16268
▁энк	-16269
▁яма	-16270
▁янж	-16271
▁ѳгѳ	-16272
▁ңке	-16273
▁Үнү	-16274
▁үнг	-16275
▁өре	-16276
▁Afri	-16277
▁Arab	-16278
▁Bayk	-16279
▁Byte	-16280
▁CIRF	-16281
▁Conc	-16282
▁Crui	-16283
▁Disc	-16284
▁Dogu	-16285
▁Fest	-16286
▁GMLR	-16287
▁Gula	-16288
▁Hawk	-16289
▁Idel	-16290
▁Mosc	-16291
▁Novo	-16292
▁Orda	-16293
▁Plus	-16294
▁Prod	-16295
▁Riot	-16296
▁Shot	-16297
▁Snap	-16298
▁Stra	-16299
▁VISA	-16300
▁Vefa	-16301
▁chat	-16302
▁chen	-16303
▁city	-16304
▁fami	-16305
▁info	-16306
▁meni	-16307
▁mens	-16308
▁ndex	-16309
▁nduk	-16310
▁ntic	-16311
▁orda	-16312
▁rnet	-16313
▁sput	-16314
▁stic	-16315
▁stry	-16316
▁time	-16317
▁week	-16318
▁Биби	-16319
▁Брит	-16320
▁Вита	-16321
▁Вите	-16322
▁Гама	-16323
▁Гово	-16324
▁Гуло	-16325
▁Зайд	-16326
▁Зара	-16327
▁Змеи	-16328
▁ИМХП	-16329
▁Лайт	-16330
▁Левч	-16331
▁Лутф	-16332
▁Люди	-16333
▁МСЭК	-16334
▁Маха	-16335
▁НИАН	-16336
▁ОМОН	-16337
▁Ороз	-16338
▁Осто	-16339
▁Пайз	-16340
▁Пари	-16341
▁Пати	-16342
▁Плат	-16343
▁Поло	-16344
▁Прин	-16345
▁Райс	-16346
▁Рами	-16347
▁СЕАН	-16348
▁Сада	-16349
▁ТИЗО	-16350
▁Тоют	-16351
▁Тоял	-16352
▁Тува	-16353
▁Туту	-16354
▁Уимб	-16355
▁Укри	-16356
▁Улфа	-16357
▁Утуп	-16358
▁Фред	-16359
▁Хара	-16360
▁Ценз	-16361
▁Швар	-16362
▁Шмид	-16363
▁Элсо	-16364
▁абыт	-16365
▁аваз	-16366
▁агай	-16367
▁агам	-16368
▁агир	-16369
▁адаб	-16370
▁адыг	-16371
▁аеке	-16372
▁ажик	-16373
▁ажио	-16374
▁ажон	-16375
▁азаи	-16376
▁азво	-16377
▁айат	-16378
▁айед	-16379
▁акам	-16380
▁акат	-16381
▁алад	-16382
▁алле	-16383
▁алмы	-16384
▁альд	-16385
▁амай	-16386
▁амаш	-16387
▁амбы	-16388
▁амит	-16389
▁анау	-16390
▁анги	-16391
▁анза	-16392
▁ансе	-16393
▁ансу	-16394
▁анчи	-16395
▁апус	-16396
▁арах	-16397
▁аред	-16398
▁ариз	-16399
▁арии	-16400
▁арит	-16401
▁арму	-16402
▁ароф	-16403
▁арыа	-16404
▁арый	-16405
▁аташ	-16406
▁атен	-16407
▁атчи	-16408
▁ауыр	-16409
▁ахал	-16410
▁ахиб	-16411
▁ахра	-16412
▁ашра	-16413
▁ащик	-16414
▁аңко	-16415
▁баши	-16416
▁бедь	-16417
▁блиш	-16418
▁бомж	-16419
▁буур	-16420
▁быча	-16421
▁вали	-16422
▁вами	-16423
▁виат	-16424
▁габа	-16425
▁гбар	-16426
▁гель	-16427
▁гено	-16428
▁гнос	-16429
▁гуль	-16430
▁джах	-16431
▁джон	-16432
▁доси	-16433
▁евил	-16434
▁едут	-16435
▁езон	-16436
▁ейис	-16437
▁ейси	-16438
▁екпе	-16439
▁елат	-16440
▁елич	-16441
▁елка	-16442
▁елки	-16443
▁емсе	-16444
▁енец	-16445
▁енст	-16446
▁енто	-16447
▁енци	-16448
▁еппе	-16449
▁ерах	-16450
▁ерва	-16451
▁ерво	-16452
▁еред	-16453
▁ерей	-16454
▁ероб	-16455
▁ерси	-16456
▁ерхи	-16457
▁есса	-16458
▁еста	-16459
▁етби	-16460
▁етиз	-16461
▁етод	-16462
▁ечин	-16463
▁заик	-16464
▁зизи	-16465
▁ибис	-16466
▁ивол	-16467
▁иеро	-16468
▁изер	-16469
▁икел	-16470
▁икет	-16471
▁икки	-16472
▁икли	-16473
▁икуд	-16474
▁икун	-16475
▁илол	-16476
▁имал	-16477
▁имур	-16478
▁инар	-16479
▁инся	-16480
▁ипие	-16481
▁исне	-16482
▁исто	-16483
▁итиг	-16484
▁итим	-16485
▁иёра	-16486
▁йдап	-16487
▁йлөш	-16488
▁йрес	-16489
▁йшат	-16490
▁канб	-16491
▁кене	-16492
▁кочо	-16493
▁кпей	-16494
▁кром	-16495
▁ксус	-16496
▁ксфа	-16497
▁ктей	-16498
▁куло	-16499
▁кулу	-16500
▁көдө	-16501
▁лаза	-16502
▁лакт	-16503
▁латы	-16504
▁лдон	-16505
▁лево	-16506
▁лема	-16507
▁лент	-16508
▁лесь	-16509
▁леся	-16510
▁лиан	-16511
▁лино	-16512
▁липс	-16513
▁лича	-16514
▁ллаб	-16515
▁ллен	-16516
▁лобо	-16517
▁лоза	-16518
▁лоэр	-16519
▁лпам	-16520
▁лпыс	-16521
▁лтер	-16522
▁лхан	-16523
▁лчын	-16524
▁лыны	-16525
▁льва	-16526
▁льпы	-16527
▁льяз	-16528
▁мали	-16529
▁мамл	-16530
▁мгил	-16531
▁минс	-16532
▁минь	-16533
▁миот	-16534
▁нвэн	-16535
▁нгем	-16536
▁ндес	-16537
▁ндси	-16538
▁неве	-16539
▁нелл	-16540
▁непо	-16541
▁нера	-16542
▁ниён	-16543
▁ново	-16544
▁нтес	-16545
▁ньки	-16546
▁нязь	-16547
▁обот	-16548
▁обро	-16549
▁овно	-16550
▁одир	-16551
▁озер	-16552
▁озон	-16553
▁ойче	-16554
▁окот	-16555
▁олиб	-16556
▁олян	-16557
▁омен	-16558
▁омпа	-16559
▁онга	-16560
▁ондл	-16561
▁онет	-16562
▁онто	-16563
▁онча	-16564
▁орег	-16565
▁орен	-16566
▁орна	-16567
▁орне	-16568
▁орье	-16569
▁осеф	-16570
▁отап	-16571
▁отов	-16572
▁отос	-16573
▁отта	-16574
▁отче	-16575
▁охру	-16576
▁ошир	-16577
▁пазо	-16578
▁пале	-16579
▁пент	-16580
▁пник	-16581
▁полл	-16582
▁полу	-16583
▁приц	-16584
▁рагу	-16585
▁раде	-16586
▁рамо	-16587
▁рдью	-16588
▁реас	-16589
▁рева	-16590
▁рейк	-16591
▁ржие	-16592
▁рива	-16593
▁ридо	-16594
▁рико	-16595
▁рито	-16596
▁рмин	-16597
▁роти	-16598
▁рпед	-16599
▁рпор	-16600
▁рруц	-16601
▁руац	-16602
▁руди	-16603
▁рунб	-16604
▁русс	-16605
▁рутю	-16606
▁руят	-16607
▁рючк	-16608
▁салм	-16609
▁сийт	-16610
▁стам	-16611
▁сурк	-16612
▁сфай	-16613
▁тиро	-16614
▁тлер	-16615
▁тман	-16616
▁тмос	-16617
▁тоог	-16618
▁торс	-16619
▁трам	-16620
▁треб	-16621
▁труд	-16622
▁туша	-16623
▁тэнф	-16624
▁уаре	-16625
▁уван	-16626
▁увар	-16627
▁угач	-16628
▁угум	-16629
▁узел	-16630
▁укем	-16631
▁укол	-16632
▁улго	-16633
▁улды	-16634
▁улка	-16635
▁улус	-16636
▁улфи	-16637
▁умай	-16638
▁умил	-16639
▁унин	-16640
▁унта	-16641
▁упол	-16642
▁ураз	-16643
▁урсо	-16644
▁усув	-16645
▁утси	-16646
▁ууку	-16647
▁ууса	-16648
▁ушал	-16649
▁уңка	-16650
▁фели	-16651
▁фест	-16652
▁чаба	-16653
▁чаты	-16654
▁чейи	-16655
▁чике	-16656
▁чнер	-16657
▁чыпк	-16658
▁шань	-16659
▁шаңш	-16660
▁шири	-16661
▁шише	-16662
▁шмал	-16663
▁шриф	-16664
▁штет	-16665
▁штүк	-16666
▁шуру	-16667
▁шына	-16668
▁шыпа	-16669
▁шыпш	-16670
▁ыйга	-16671
▁ылчы	-16672
▁ынай	-16673
▁ыпын	-16674
▁ырса	-16675
▁ырьё	-16676
▁ычуа	-16677
▁ышыг	-16678
▁ыңыл	-16679
▁эвин	-16680
▁экзи	-16681
▁эллс	-16682
▁юлен	-16683
▁юэль	-16684
▁ёдан	-16685
▁ѳргѳ	-16686
▁үрдө	-16687
▁үрки	-16688
▁өртү	-16689
▁Consu	-16690
▁Force	-16691
▁Holdi	-16692
▁Indep	-16693
▁Index	-16694
▁Klein	-16695
▁Kyodo	-16696
▁Paper	-16697
▁Pussy	-16698
▁USAGM	-16699
▁Voice	-16700
▁kloop	-16701
▁nomad	-16702
▁ГУЛаг	-16703
▁Гарре	-16704
▁Горде	-16705
▁Готаб	-16706
▁Замат	-16707
▁Керев	-16708
▁Ниньо	-16709
▁Пахта	-16710
▁Тесла	-16711
▁Флинн	-16712
▁Царна	-16713
▁Шашып	-16714
▁Шукур	-16715
▁Элкут	-16716
▁аалыг	-16717
▁аахют	-16718
▁абатэ	-16719
▁аббар	-16720
▁аббат	-16721
▁абига	-16722
▁абири	-16723
▁абори	-16724
▁аваси	-16725
▁авлет	-16726
▁авьер	-16727
▁агима	-16728
▁ажаат	-16729
▁айдак	-16730
▁аймер	-16731
▁айнаб	-16732
▁айрак	-16733
▁айрат	-16734
▁айсар	-16735
▁айтак	-16736
▁айтал	-16737
▁акаль	-16738
▁акари	-16739
▁актек	-16740
▁акчел	-16741
▁алави	-16742
▁алант	-16743
▁албал	-16744
▁алвар	-16745
▁аляви	-16746
▁амазо	-16747
▁амиан	-16748
▁анбиж	-16749
▁ангри	-16750
▁анила	-16751
▁анифа	-16752
▁анкин	-16753
▁апары	-16754
▁априо	-16755
▁апыра	-16756
▁арави	-16757
▁арама	-16758
▁арбин	-16759
▁арбый	-16760
▁арваз	-16761
▁арват	-16762
▁ардап	-16763
▁ардон	-16764
▁арели	-16765
▁ариза	-16766
▁арима	-16767
▁арино	-16768
▁арито	-16769
▁аркыр	-16770
▁армар	-16771
▁артон	-16772
▁арчыг	-16773
▁арыжи	-16774
▁арьям	-16775
▁астра	-16776
▁асула	-16777
▁атоми	-16778
▁атоян	-16779
▁атрас	-16780
▁атрез	-16781
▁аттео	-16782
▁атхан	-16783
▁ахина	-16784
▁ахмин	-16785
▁ахтер	-16786
▁аштыг	-16787
▁аңыра	-16788
▁бакан	-16789
▁балас	-16790
▁балта	-16791
▁барма	-16792
▁басту	-16793
▁ббани	-16794
▁бекри	-16795
▁бензя	-16796
▁берто	-16797
▁бигүл	-16798
▁бийри	-16799
▁бирим	-16800
▁бозор	-16801
▁борбо	-16802
▁бридж	-16803
▁вальв	-16804
▁ванди	-16805
▁ваука	-16806
▁велож	-16807
▁веоко	-16808
▁ветер	-16809
▁гинин	-16810
▁гмент	-16811
▁гомос	-16812
▁гражд	-16813
▁гриве	-16814
▁гүзүү	-16815
▁дайкы	-16816
▁дакшн	-16817
▁дахам	-16818
▁дирип	-16819
▁дирис	-16820
▁дмурт	-16821
▁доска	-16822
▁еапол	-16823
▁ебриз	-16824
▁егмат	-16825
▁екова	-16826
▁ексур	-16827
▁екчил	-16828
▁елкет	-16829
▁ембер	-16830
▁енниф	-16831
▁ервый	-16832
▁ердак	-16833
▁ердег	-16834
▁ердор	-16835
▁ерева	-16836
▁еринг	-16837
▁ерном	-16838
▁ерныш	-16839
▁ерсон	-16840
▁ертер	-16841
▁ертил	-16842
▁еруза	-16843
▁етимб	-16844
▁етрин	-16845
▁жахме	-16846
▁зитро	-16847
▁зооти	-16848
▁зырын	-16849
▁ианда	-16850
▁иврит	-16851
▁игече	-16852
▁ижаре	-16853
▁изван	-16854
▁икмет	-16855
▁иленг	-16856
▁илуан	-16857
▁илхан	-16858
▁инген	-16859
▁индое	-16860
▁индуи	-16861
▁инист	-16862
▁инкаб	-16863
▁инхро	-16864
▁инцов	-16865
▁ирана	-16866
▁ирине	-16867
▁исква	-16868
▁иссан	-16869
▁иссур	-16870
▁кадет	-16871
▁киийн	-16872
▁кипед	-16873
▁лампо	-16874
▁лахат	-16875
▁лдагы	-16876
▁лехан	-16877
▁ломто	-16878
▁мажор	-16879
▁макса	-16880
▁минет	-16881
▁мицид	-16882
▁ммуно	-16883
▁мперс	-16884
▁мфите	-16885
▁ндеми	-16886
▁нежад	-16887
▁некро	-16888
▁нивхт	-16889
▁нлыур	-16890
▁ногой	-16891
▁номен	-16892
▁нукер	-16893
▁нцзян	-16894
▁ныган	-16895
▁огози	-16896
▁одола	-16897
▁олбоо	-16898
▁олкач	-16899
▁онави	-16900
▁орина	-16901
▁орица	-16902
▁оркен	-16903
▁орнок	-16904
▁ортал	-16905
▁ортон	-16906
▁охбер	-16907
▁панел	-16908
▁парта	-16909
▁паска	-16910
▁пенит	-16911
▁пикап	-16912
▁плену	-16913
▁прета	-16914
▁равле	-16915
▁редер	-16916
▁риват	-16917
▁ригес	-16918
▁ризма	-16919
▁рипол	-16920
▁риэлт	-16921
[...]
