<unk>	0
<s>	0
</s>	0
н	-3.07555
.	-3.13903
,	-3.76185
▁"	-4.42647
га	-4.51081
▁,	-4.59628
▁	-4.75315
-	-4.7684
▁менен	-4.88037
▁жана	-5.00278
нын	-5.09133
"	-5.16454
▁да	-5.2708
к	-5.35867
а	-5.4881
▁-	-5.53387
гы	-5.54277
▁бир	-5.54452
ка	-5.56807
▁деп	-5.60601
▁эле	-5.69063
▁боюнча	-5.82146
ге	-5.8333
гө	-5.93068
▁үчүн	-5.96365
▁бул	-5.9798
лык	-6.00347
нин	-6.02839
й	-6.0768
да	-6.08032
▁.	-6.0996
го	-6.10072
▁Ал	-6.12815
▁Бул	-6.14967
▁аны	-6.156
п	-6.18151
▁болуп	-6.22403
▁бар	-6.25615
▁дагы	-6.25831
▁жок	-6.26342
▁ал	-6.26811
▁деген	-6.2695
ке	-6.2723
и	-6.2998
▁тууралуу	-6.30342
▁болгон	-6.31839
▁н	-6.33446
т	-6.3692
▁керек	-6.39311
▁чейин	-6.39939
▁жатат	-6.41027
▁эмес	-6.42394
ку	-6.43037
м	-6.4544
▁алып	-6.48253
нун	-6.49566
ы	-6.4974
▁кийин	-6.52231
▁эки	-6.55189
▁(	-6.56861
на	-6.58923
жылы	-6.60852
дан	-6.69854
▁Бирок	-6.7007
▁адам	-6.71684
▁билдирди	-6.72881
▁экенин	-6.75701
ги	-6.75847
▁көп	-6.76738
у	-6.7858
▁каршы	-6.78657
:	-6.81046
▁же	-6.81233
▁маалымат	-6.81436
дын	-6.82377
)	-6.83724
▁башка	-6.8431
▁жаткан	-6.84728
?	-6.87726
▁турган	-6.88003
▁кандай	-6.89393
▁өз	-6.89557
▁болду	-6.92864
▁мамлекеттик	-6.92969
▁Кыргызстанда	-6.93129
▁бери	-6.94627
▁эл	-6.9598
▁иш	-6.96795
▁Кыргызстан	-6.96876
▁болот	-6.98374
бек	-6.98524
▁эми	-6.98592
▁гана	-6.99245
▁алган	-6.996
▁чек	-7.01649
▁жаңы	-7.0167
де	-7.01869
▁ар	-7.02636
▁сөз	-7.03769
▁келген	-7.03914
дагы	-7.04584
▁Орусия	-7.04649
▁Аны	-7.05372
▁киши	-7.05468
р	-7.06583
ов	-7.06675
▁Кыргызстанды	-7.06964
▁кол	-7.07079
▁а	-7.07164
▁байланыштуу	-7.07433
ды	-7.07557
▁катары	-7.07629
▁айтып	-7.08467
▁аралык	-7.08863
▁жатканын	-7.08982
▁миң	-7.11043
▁биз	-7.1428
▁аларды	-7.15342
ко	-7.15377
▁кабыл	-7.16596
▁к	-7.18054
дин	-7.18068
▁иштер	-7.18852
▁кыргыз	-7.19099
▁га	-7.1966
л	-7.19847
нүн	-7.20382
▁шайлоо	-7.2074
уу	-7.20831
▁болсо	-7.20844
▁кызматы	-7.21799
▁министрлиги	-7.22017
▁жолу	-7.22087
туу	-7.22351
▁Жогор	-7.22406
ын	-7.2418
▁кайра	-7.24479
▁үй	-7.25857
▁:	-7.26376
▁мыйзам	-7.268
▁президент	-7.26855
▁мүмкүн	-7.27305
▁Анда	-7.27451
▁учурда	-7.27457
▁жол	-7.27667
▁алар	-7.29379
▁деди	-7.29642
▁бири	-7.30368
▁жыл	-7.30601
▁ошол	-7.31071
▁Орусияны	-7.31339
е	-7.32352
▁мурдагы	-7.33352
▁чет	-7.3368
",	-7.34543
▁сот	-7.34603
▁анда	-7.35157
▁ылайык	-7.35283
▁берүү	-7.35892
▁эч	-7.36827
▁баш	-7.38186
▁чыккан	-7.38638
▁үч	-7.38878
▁айтты	-7.3889
▁берген	-7.40167
▁өлкө	-7.41172
ты	-7.41841
▁Жапаров	-7.42485
▁калган	-7.42503
▁улам	-7.43202
▁чыгып	-7.43348
▁азыр	-7.43528
▁Алар	-7.44297
▁ичинде	-7.44995
▁алуу	-7.45438
▁ушул	-7.45888
▁көз	-7.46215
▁президенти	-7.46612
▁алды	-7.47215
▁бу	-7.47323
▁Бу	-7.47392
▁бирок	-7.4759
▁жардам	-7.47912
с	-7.48944
▁келет	-7.49318
▁өткөн	-7.49379
ди	-7.49488
▁караганда	-7.49703
▁Бишкек	-7.49953
▁Биз	-7.50457
▁Украина	-7.51069
▁билдирген	-7.51129
▁жерде	-7.51691
▁мындай	-7.51975
▁саясий	-7.51987
▁м	-7.52266
чу	-7.5272
▁күн	-7.5312
кы	-7.53244
▁жооп	-7.53297
▁экен	-7.53579
▁каза	-7.53777
үн	-7.53843
▁т	-7.5401
сы	-7.54297
▁чоң	-7.55476
▁аркылуу	-7.55584
▁жакшы	-7.55878
▁А	-7.56133
▁ага	-7.56686
▁сом	-7.56696
не	-7.57126
▁бийлик	-7.57392
▁турат	-7.57392
▁кылмыш	-7.57437
▁Ош	-7.57588
луу	-7.57992
з	-7.58125
▁орун	-7.5819
▁соң	-7.58482
▁шаарында	-7.58706
▁нече	-7.59601
▁орус	-7.60405
▁элек	-7.60685
▁биринчи	-7.60893
▁жөнүндө	-7.61012
лар	-7.61288
▁расмий	-7.61348
▁иши	-7.61544
▁келип	-7.61627
▁дин	-7.6183
дө	-7.62249
▁эң	-7.6237
▁АКШ	-7.63382
▁Садыр	-7.63387
жылды	-7.63875
Азаттык	-7.64071
▁коронавирус	-7.64073
▁акча	-7.64146
▁күнү	-7.64293
▁ара	-7.64423
▁өлкөнү	-7.64539
▁арасында	-7.64764
▁Бишкекте	-7.65226
▁коргоо	-7.65275
▁атайы	-7.65499
▁кылып	-7.65538
▁иштеп	-7.6627
тар	-7.66672
ып	-7.66756
▁башчысы	-7.67308
▁министри	-7.67419
▁бизди	-7.67497
▁берип	-7.67579
▁коопсуздук	-7.67632
▁өлкөдө	-7.6782
▁кеткен	-7.67996
▁деле	-7.68065
▁суу	-7.68138
▁калды	-7.6851
▁турганын	-7.68633
та	-7.68652
ер	-7.69022
▁талап	-7.69569
▁жалпы	-7.69831
▁жакын	-7.70264
▁миллион	-7.70361
кө	-7.70465
ь	-7.71159
ш	-7.71171
▁туура	-7.72016
▁дүйнө	-7.72066
▁Аларды	-7.72188
▁ка	-7.72238
инин	-7.72295
ча	-7.72649
дун	-7.73148
▁Ошондо	-7.73372
дөгү	-7.73794
▁өзү	-7.73831
%	-7.74893
▁ачык	-7.75188
▁Улутту	-7.75513
▁бардык	-7.75602
▁Ошол	-7.76125
тан	-7.76364
▁Мен	-7.76638
▁айрым	-7.76747
ына	-7.76938
▁айткан	-7.76943
▁саны	-7.77248
▁ишке	-7.77442
▁төрагасы	-7.78725
дык	-7.80536
▁мамлекет	-7.80754
ү	-7.81758
▁өкмөт	-7.81789
▁сактоо	-7.81882
▁болчу	-7.81949
▁берди	-7.82157
нда	-7.8221
▁Б	-7.82259
▁катар	-7.82357
▁социалдык	-7.82886
▁Кыргыз	-7.83145
гү	-7.83152
▁күч	-7.83354
▁Азыр	-7.83395
ин	-7.83494
▁карат	-7.83748
дай	-7.83788
▁жатышат	-7.83843
ат	-7.84291
▁адамдар	-7.84335
▁доллар	-7.84688
▁Бир	-7.84902
о	-7.85063
▁жер	-7.85147
▁жаштагы	-7.85207
▁айтымында	-7.85341
▁басма	-7.85658
▁мурда	-7.85693
ң	-7.85915
бай	-7.86948
▁өтө	-7.87454
▁кызмат	-7.8767
▁бийлиги	-7.87731
▁баары	-7.87812
▁албай	-7.87883
▁бала	-7.88096
са	-7.88199
▁жергиликтүү	-7.88227
▁алдында	-7.88275
дуу	-7.88525
▁оор	-7.88531
ду	-7.90613
▁беш	-7.90623
▁айында	-7.91021
дар	-7.91201
▁Орусияда	-7.92274
▁кылган	-7.92439
октябрда	-7.92951
▁өтүп	-7.93161
▁белгилүү	-7.93345
▁Эл	-7.93383
▁Кеңешти	-7.93937
▁болушу	-7.94682
▁топ	-7.9512
до	-7.95645
▁алынган	-7.9573
▁ге	-7.95749
▁10	-7.95895
ти	-7.95949
▁эмне	-7.96482
▁К	-7.96516
▁и	-7.96727
▁аз	-7.97527
▁аскердик	-7.9789
▁толук	-7.97929
ма	-7.98187
▁ы	-7.98773
▁Европа	-7.98835
▁облусунда	-7.99101
▁жатканы	-7.9924
▁курал	-7.99295
▁маселе	-7.99424
▁барып	-7.99812
лүк	-7.99911
▁Кытай	-8.00099
си	-8.0012
ну	-8.00539
▁аракет	-8.01293
▁аталган	-8.01504
▁ким	-8.01587
▁дан	-8.01663
▁Мында	-8.01699
▁карап	-8.01748
▁жылдан	-8.01798
▁)	-8.0216
▁өкүлдөрү	-8.02491
▁сыяктуу	-8.02501
▁тартып	-8.02967
▁жүрүп	-8.03045
▁облусу	-8.03251
▁районду	-8.03267
▁ашык	-8.03303
▁басары	-8.03322
быз	-8.03474
▁төрт	-8.03677
▁коомдук	-8.04004
▁мен	-8.04077
▁Ага	-8.0454
▁Азия	-8.0456
▁ортосунда	-8.05079
▁20	-8.05253
ар	-8.05358
▁жүргөн	-8.06114
лик	-8.06186
▁уулу	-8.0659
▁укук	-8.06674
▁Москва	-8.0687
ев	-8.07071
▁тарап	-8.07213
▁С	-8.07484
▁ата	-8.07624
мартта	-8.07708
▁тергөө	-8.0794
▁өкүлү	-8.08136
▁млн	-8.083
▁Украинаны	-8.08361
▁электр	-8.08371
Абад	-8.08405
б	-8.08614
▁кезде	-8.08648
▁өзгөчө	-8.09347
▁жетекчиси	-8.09391
▁чыкты	-8.09551
ны	-8.09554
▁сатып	-8.0963
▁ички	-8.09721
▁адамды	-8.10211
су	-8.10474
▁башкы	-8.11133
▁болгонун	-8.11144
▁ди	-8.1121
▁Казакстан	-8.11316
▁ушундай	-8.11588
▁1	-8.11949
тер	-8.12047
▁айып	-8.12093
▁так	-8.12094
д	-8.12173
▁мыйзамсыз	-8.12219
▁элди	-8.12302
▁ден	-8.12452
▁арада	-8.12833
▁улуттук	-8.12863
ө	-8.12952
▁го	-8.13197
▁акыркы	-8.13276
▁добуш	-8.13339
▁жылга	-8.14007
▁жеке	-8.14078
▁ала	-8.14105
түү	-8.14219
▁ашуун	-8.14826
▁азыркы	-8.1486
▁дейт	-8.1498
лер	-8.15575
▁партиясы	-8.1623
▁экени	-8.16704
▁кызматкерлери	-8.16767
▁тышкары	-8.1692
нан	-8.17337
▁баштаган	-8.17401
▁Президент	-8.1753
▁берет	-8.1757
▁жаш	-8.17835
▁кайсы	-8.1826
▁бере	-8.18454
▁шаардык	-8.18577
▁Баткен	-8.18593
ынча	-8.18855
ден	-8.18931
▁Эгер	-8.19252
▁саат	-8.19302
майда	-8.19382
▁окуя	-8.19403
▁ны	-8.19551
▁күндүз	-8.1957
▁ошондой	-8.19874
▁Борбор	-8.20099
▁билим	-8.20485
▁соту	-8.20992
▁иштери	-8.21153
▁белгиледи	-8.21449
▁коррупция	-8.21511
▁тыюу	-8.21551
▁учурунда	-8.22075
▁президенттик	-8.22079
▁өзүнү	-8.22159
▁1-	-8.22237
▁Мындай	-8.22339
▁уюму	-8.22423
▁түнкүс	-8.22754
▁кыргызстандык	-8.22995
▁келди	-8.23074
▁Жалал	-8.23127
▁муну	-8.23489
▁чечим	-8.23658
▁экинчи	-8.23687
▁салуу	-8.23724
дөн	-8.24031
▁бийликти	-8.24302
▁балдар	-8.24302
▁өкмөттү	-8.24394
тин	-8.2483
▁аймагында	-8.24995
▁ири	-8.2511
▁быйыл	-8.25194
сыз	-8.2528
▁дун	-8.2549
▁ай	-8.25677
▁айыл	-8.25705
▁экономикалык	-8.25806
чү	-8.25846
▁ок	-8.25917
▁Анткени	-8.26011
▁абал	-8.26392
▁ды	-8.26417
▁айтылган	-8.26656
июнда	-8.26657
▁май	-8.26666
▁иштеген	-8.26728
▁жазды	-8.26923
▁ары	-8.26936
▁кыз	-8.27163
▁жатабыз	-8.27425
▁шаары	-8.27433
декабрда	-8.27543
ноябрда	-8.27555
апрелде	-8.28364
▁жогор	-8.28845
▁ээ	-8.29273
▁кетти	-8.29505
▁2020-	-8.29801
▁алты	-8.29865
августта	-8.30002
▁канча	-8.30007
▁2	-8.30211
▁алат	-8.30296
ту	-8.30454
▁Мамлекеттик	-8.30497
▁комитети	-8.30568
▁аскер	-8.3081
▁жарандык	-8.3086
▁алууга	-8.3089
январда	-8.30998
▁окуу	-8.31122
ип	-8.31129
▁тең	-8.3122
▁келе	-8.31331
▁Ысык	-8.31417
▁дын	-8.31637
тын	-8.31784
▁депутат	-8.31968
▁30	-8.32081
▁негизги	-8.32182
▁президентти	-8.32353
ине	-8.32464
▁премьер	-8.327
баев	-8.32885
▁Казакстанды	-8.32949
▁Муну	-8.33013
▁ишин	-8.33026
▁Ошондуктан	-8.33088
▁де	-8.33553
▁Путин	-8.33572
▁Башкы	-8.33575
дик	-8.33614
▁адамдарды	-8.34031
▁кырдаал	-8.34096
▁басып	-8.34285
▁тышкы	-8.34285
▁мында	-8.34625
ия	-8.34812
▁өкмөтү	-8.35112
гу	-8.35196
▁Владимир	-8.35202
▁болгону	-8.35398
▁ат	-8.35657
сентябрда	-8.35663
▁соода	-8.35765
▁зарыл	-8.36076
▁согуш	-8.36196
▁аба	-8.36377
▁милиция	-8.36444
▁чейинки	-8.36545
▁кийинки	-8.3659
▁жай	-8.36765
▁он	-8.37003
▁маанилүү	-8.37073
▁алкагында	-8.37424
▁колдоо	-8.37558
▁Кара	-8.37579
▁көңүл	-8.38127
▁катуу	-8.38202
▁быз	-8.38233
▁100	-8.38573
я	-8.39647
1	-8.39792
▁15	-8.39874
▁АКШны	-8.40071
нө	-8.40201
▁2021-	-8.40395
▁негизинде	-8.40398
▁миңде	-8.40534
▁жазылган	-8.40818
▁койгон	-8.40971
▁катчысы	-8.4106
▁убактыл	-8.41166
▁жылды	-8.41188
лары	-8.41607
▁Ар	-8.41709
▁элдик	-8.4223
▁сайы	-8.42327
▁компаниясы	-8.42838
▁Т	-8.42848
▁долбоору	-8.42856
▁алдын	-8.4298
▁абда	-8.43208
дү	-8.43231
▁уруксат	-8.43438
▁Эми	-8.43568
▁2022-	-8.43637
▁башында	-8.43669
▁тоо	-8.44112
июлда	-8.4412
▁агенттиги	-8.4423
▁кызматта	-8.44633
ч	-8.44858
▁эске	-8.44927
те	-8.45138
▁ду	-8.45184
▁өттү	-8.45232
▁өнүктүрүү	-8.45248
▁пайда	-8.45295
▁берилген	-8.45574
2	-8.45829
▁нерсе	-8.46067
ри	-8.46179
▁айтылат	-8.46471
▁Би	-8.46582
▁Чүй	-8.46611
▁Ушул	-8.46655
▁тобу	-8.46875
тик	-8.47293
▁кабарлады	-8.47295
▁маалыматтар	-8.47809
▁Ак	-8.4782
▁камак	-8.4787
министр	-8.47904
▁50	-8.4798
▁жайгашкан	-8.48083
үү	-8.48213
▁Учурда	-8.48345
▁кетип	-8.48875
▁Нур	-8.4892
▁башкармалыгы	-8.49129
▁алгачкы	-8.49693
▁жазган	-8.50204
▁күндө	-8.50357
▁көрүп	-8.5048
▁млрд	-8.50545
▁баштады	-8.50609
▁кишини	-8.5109
▁арыз	-8.51119
3	-8.51232
▁прокуратура	-8.51575
▁11	-8.51833
▁себеп	-8.51847
▁Баш	-8.5191
▁түшкөн	-8.51913
▁барган	-8.52026
▁тиешелүү	-8.52045
▁салып	-8.52052
▁депутаты	-8.52053
▁тапта	-8.52059
▁жарыялаган	-8.52189
▁шек	-8.52209
▁жети	-8.52731
▁сын	-8.52971
нү	-8.53191
▁нааразылык	-8.53232
▁тарабынан	-8.53278
▁укугу	-8.53575
▁12	-8.53678
▁Ө	-8.53804
▁өлкөлөр	-8.53914
▁Бишкекти	-8.53916
▁айына	-8.54019
▁өткөрүп	-8.54044
ра	-8.54052
▁Өзбекстан	-8.54346
▁белгисиз	-8.54401
Көл	-8.54479
▁с	-8.54677
▁лидери	-8.54875
▁Казакстанда	-8.55067
▁көбү	-8.55296
▁сунуш	-8.5551
▁комментарий	-8.55804
▁жарым	-8.55963
-19	-8.55978
г	-8.56096
▁ишти	-8.56448
▁жерге	-8.56466
▁Дүйнө	-8.56481
К	-8.56776
▁катышкан	-8.56829
▁бүгүн	-8.56941
▁кармалган	-8.56975
▁Тажикстанды	-8.57022
тү	-8.57125
▁2019-	-8.57419
▁кара	-8.57507
февралда	-8.57592
▁кеңеши	-8.57764
▁кар	-8.57809
▁маалыматын	-8.5781
▁?	-8.57843
▁видео	-8.57846
▁жылы	-8.58076
▁У	-8.58134
дыр	-8.58181
▁жашаган	-8.58355
▁Биринчи	-8.58378
▁чакырды	-8.58625
▁Бизди	-8.58736
5	-8.58834
▁жазып	-8.58862
▁жатып	-8.58984
▁тар	-8.59087
▁суроо	-8.59186
ла	-8.59305
▁жарандар	-8.59541
▁дар	-8.59868
▁Түркия	-8.59874
▁районунда	-8.59951
▁көзөмөл	-8.60043
▁жыйынында	-8.60139
▁3	-8.60157
▁кызматкери	-8.60168
▁түрдө	-8.60232
▁5	-8.60437
▁дары	-8.60609
▁ичинен	-8.60639
▁негиз	-8.60759
▁шайлоодо	-8.60854
▁Кытайды	-8.61001
▁чыгарып	-8.61012
Би	-8.61064
▁Украинада	-8.61093
▁жактан	-8.61198
▁Ичк	-8.61356
▁кирген	-8.61526
▁маселеси	-8.61534
▁былтыр	-8.61676
▁аял	-8.61767
▁органдары	-8.61992
▁башкаруу	-8.61994
▁дээр	-8.62336
▁миллиард	-8.62373
0	-8.62642
дүү	-8.62669
▁медициналык	-8.62829
▁партия	-8.62841
▁салган	-8.62851
▁гы	-8.62859
▁кирип	-8.62874
▁орусиялык	-8.6312
▁баштап	-8.63178
▁полиция	-8.63365
▁оорукана	-8.63505
▁украин	-8.63743
ба	-8.6384
▁маалыматты	-8.64011
▁келишим	-8.64385
▁таасир	-8.644
▁та	-8.64492
дөй	-8.64925
▁шарт	-8.64932
▁билдирип	-8.6495
▁коюлган	-8.65047
▁мыйзамды	-8.65204
▁",-	-8.65218
▁кызы	-8.65239
▁М	-8.65274
▁кармап	-8.65289
▁кошумчалады	-8.65339
▁каражат	-8.65344
▁УКМК	-8.65561
▁Конституция	-8.65689
▁4-	-8.65969
8	-8.66026
▁мамлекетти	-8.66191
▁Эки	-8.66257
▁тез	-8.66484
▁кодекси	-8.66677
▁бы	-8.66732
ында	-8.66819
▁аялдар	-8.66821
▁парламент	-8.66863
▁кабинети	-8.66987
Ата	-8.67048
▁Жээнбеков	-8.67071
▁чыгуу	-8.67091
А	-8.67201
▁жаза	-8.67293
дер	-8.67326
▁2-	-8.67389
▁9-	-8.67482
▁күчтөрү	-8.67593
догу	-8.67661
ларды	-8.6768
▁кошумча	-8.67709
▁дө	-8.6775
▁кылуу	-8.6776
▁Нарын	-8.67838
▁аймакта	-8.6799
▁чыгарган	-8.68134
▁учурлар	-8.68454
▁7-	-8.68552
▁10-	-8.68895
▁Мисалы	-8.68925
сын	-8.68981
▁күндөрү	-8.69057
▁катталган	-8.69114
▁14	-8.6931
би	-8.69489
▁кетүү	-8.69511
ки	-8.69572
▁облусту	-8.69689
▁калат	-8.70146
үнө	-8.70216
▁балдарды	-8.70358
▁даяр	-8.70461
▁иликтөө	-8.70495
▁жаран	-8.70585
▁ж	-8.70676
▁туруп	-8.70685
Азаттыкты	-8.70841
▁диний	-8.70842
▁куруу	-8.70851
▁армиясы	-8.70945
▁ын	-8.70956
▁на	-8.7122
▁кээ	-8.71302
▁Ма	-8.71721
▁парламенттик	-8.71828
▁5-	-8.71902
7	-8.71962
▁абалы	-8.72012
лап	-8.72083
сү	-8.72268
▁жакта	-8.72353
▁мүчөсү	-8.72559
▁районуну	-8.7266
▁болбойт	-8.72853
▁тартуу	-8.72922
▁сотту	-8.73063
▁No	-8.73198
▁Саламаттык	-8.73223
▁COVID	-8.73307
▁Быйыл	-8.73392
▁Алмаз	-8.73417
▁6-	-8.73485
▁аттуу	-8.73585
▁журналист	-8.73595
сына	-8.73766
▁Кылмыш	-8.73789
▁саламаттык	-8.73816
▁чечими	-8.73911
▁жараны	-8.73919
▁кан	-8.74064
▁3-	-8.74108
6	-8.74223
▁Өзбекстанды	-8.74432
▁башына	-8.74446
жылдан	-8.7454
▁белгилеп	-8.74585
▁8-	-8.74629
▁аты	-8.74655
▁Жаңы	-8.75015
▁комиссия	-8.75064
▁Анан	-8.75306
▁журналисттер	-8.75481
▁түзүлгөн	-8.75482
▁өзүн	-8.75581
▁баарын	-8.75606
▁у	-8.75614
▁жарыялады	-8.75632
▁ыктымал	-8.76048
▁коюп	-8.76148
тык	-8.76441
ле	-8.76452
▁...	-8.76499
▁Кеңеш	-8.76663
ж	-8.76688
▁чыгаруу	-8.76771
▁жылдары	-8.76801
▁айтканда	-8.76849
▁карабай	-8.77146
9	-8.7718
▁максатында	-8.77305
▁жылда	-8.77467
▁алтын	-8.77489
▁камсыз	-8.77815
▁убакыт	-8.77871
▁сырткары	-8.78255
▁чыга	-8.78379
▁тажик	-8.78447
▁р	-8.78579
▁мамиле	-8.7873
▁16	-8.7879
▁талапкер	-8.79092
▁Тыш	-8.79245
▁талкуу	-8.79395
▁өткөрүү	-8.79519
▁эс	-8.79554
нтип	-8.79567
▁Ай	-8.79621
▁бай	-8.79664
▁аскерлери	-8.79705
▁ты	-8.79752
▁мектеп	-8.79866
▁аймакты	-8.80005
▁эмгек	-8.80027
▁19	-8.80265
▁11-	-8.80266
▁Тажикстан	-8.80334
йт	-8.80359
4	-8.80365
▁лар	-8.80428
▁айылында	-8.80524
▁жумуш	-8.80671
▁жарыяланган	-8.80782
итардык	-8.80949
▁өзүнө	-8.81013
ет	-8.81033
▁салынган	-8.81156
▁миңдей	-8.81352
▁башчы	-8.81374
▁бөлүгү	-8.81435
▁өзгөртүү	-8.8161
▁талаш	-8.8172
▁салык	-8.81802
▁мүчөлөрү	-8.8213
ун	-8.82181
▁каражаттары	-8.82402
▁орто	-8.82467
▁түзүү	-8.82823
▁дай	-8.82831
▁жан	-8.82866
▁берүүнү	-8.83019
▁Израил	-8.83039
▁директору	-8.83052
▁жарандарды	-8.83111
▁20-	-8.83252
▁укуктары	-8.8346
алиев	-8.83496
▁түшүп	-8.83555
▁кылды	-8.83639
▁Маалымат	-8.83687
▁калып	-8.83715
▁13	-8.83802
▁Себеби	-8.83923
▁Да	-8.83944
▁алганын	-8.8395
▁бою	-8.84018
▁жашоо	-8.84029
▁туш	-8.84036
чы	-8.84318
▁башталган	-8.84386
биз	-8.84398
▁казак	-8.84447
▁15-	-8.84498
▁200	-8.84607
▁караш	-8.84998
лай	-8.85155
▁Жапаровду	-8.85306
▁18	-8.85322
С	-8.85335
▁саясат	-8.85376
инен	-8.8555
▁сокку	-8.85583
▁ордуна	-8.85742
▁бирге	-8.85776
▁токтотуу	-8.86103
▁Сүрөттү	-8.86306
▁17	-8.86328
▁билдирүү	-8.86488
▁Москвада	-8.86523
▁Э	-8.86525
▁болорун	-8.8655
▁согушка	-8.86554
▁курулуш	-8.866
▁ына	-8.86725
▁чабуул	-8.86757
▁маалымдады	-8.86795
▁кабар	-8.86838
▁боло	-8.86919
▁25	-8.87066
a	-8.87115
▁кызматына	-8.87153
▁нун	-8.872
▁уюм	-8.87215
Борбордук	-8.87236
бы	-8.87313
▁комиссиясы	-8.87563
▁кабарлаган	-8.87668
▁албайт	-8.87734
лук	-8.87809
▁сы	-8.88065
▁дарды	-8.8807
инде	-8.881
▁мүчө	-8.88103
▁тарапта	-8.88104
▁көрсөтүү	-8.88193
▁жасаган	-8.88224
▁24-	-8.88374
▁маалда	-8.88426
▁Ж	-8.8864
▁жыйынтыгы	-8.88849
төгөн	-8.88866
▁жарандары	-8.88996
суз	-8.89048
▁мурун	-8.89076
▁шайлоону	-8.89177
▁караган	-8.89251
▁түз	-8.89319
▁согушту	-8.89402
▁окуялар	-8.89518
▁маалыматы	-8.89581
▁койду	-8.89645
ф	-8.89681
ор	-8.89807
▁25-	-8.89812
▁республика	-8.90021
▁Чек	-8.90069
▁кармалып	-8.9014
▁Иран	-8.90153
се	-8.90244
▁качан	-8.90254
▁И	-8.90298
аш	-8.90308
▁сомдо	-8.90312
▁Талас	-8.90568
▁Батыш	-8.90622
ик	-8.90852
▁тарта	-8.90959
▁40	-8.90995
▁оору	-8.91262
▁жетти	-8.91263
▁колдонуу	-8.91318
▁аймактарда	-8.91336
▁ирет	-8.91398
▁метр	-8.91437
▁Ка	-8.91683
▁уюмдар	-8.91684
▁жакка	-8.91723
;	-8.9188
лоо	-8.91912
▁таза	-8.91989
▁борбору	-8.9201
▁калганын	-8.92302
▁О	-8.92711
▁борбор	-8.9275
▁активист	-8.92758
▁маселени	-8.9281
▁6	-8.92956
▁чарба	-8.93018
▁аракети	-8.93061
▁мыкты	-8.93186
▁жакындары	-8.93305
▁4	-8.93416
▁Киев	-8.93428
▁18-	-8.93526
▁келгенде	-8.93801
дук	-8.93893
▁белгиленген	-8.93912
▁кызматты	-8.93942
▁миграция	-8.9412
▁2023-	-8.94179
▁жараат	-8.94245
▁болбой	-8.94258
сиз	-8.94266
чи	-8.94448
▁баа	-8.9447
▁демократия	-8.94508
▁Ташиев	-8.94582
▁чогуу	-8.9475
тарды	-8.94784
▁жасап	-8.94815
беков	-8.94839
▁Акылбек	-8.94889
▁кезекте	-8.94903
▁кыйын	-8.94998
▁кески	-8.95064
сүз	-8.9512
▁айтылып	-8.95167
▁компания	-8.9519
ий	-8.95259
▁жогору	-8.953
▁саясатчы	-8.95365
▁вирус	-8.95389
▁баасы	-8.95431
▁Зеленский	-8.95434
▁радиосу	-8.95443
▁долбоорун	-8.9546
▁шаар	-8.95699
▁17-	-8.95783
▁оппозиция	-8.95824
▁Бүгүн	-8.95829
▁жүз	-8.95971
▁ак	-8.95998
▁өтөт	-8.96093
ай	-8.96107
▁жакында	-8.96141
ал	-8.9615
▁аткаруу	-8.96269
▁мүмкүнчүлүк	-8.96331
ли	-8.9656
▁айда	-8.96694
▁мигранттар	-8.96725
▁айта	-8.96763
▁абакта	-8.96835
деги	-8.96862
▁алганда	-8.97019
▁керектигин	-8.97042
▁28-	-8.97076
роо	-8.97122
▁жашап	-8.97298
▁чара	-8.97323
▁көрүү	-8.97344
▁деңгээлде	-8.97383
▁алынып	-8.97405
▁тан	-8.97407
▁күрөш	-8.97491
▁Өткөн	-8.97513
▁эсептейт	-8.97639
▁ке	-8.97666
▁каттоо	-8.97686
▁аймагына	-8.97692
▁Былтыр	-8.97728
▁киргизүү	-8.97813
▁Трамп	-8.97925
▁жылдык	-8.97954
▁убада	-8.97989
▁тарткан	-8.98024
▁Расмий	-8.98052
▁Атамбаев	-8.98081
▁депутаттар	-8.98153
▁30-	-8.98175
▁эркин	-8.98355
▁туруктуу	-8.98582
▁вице	-8.98596
▁Байден	-8.98663
▁түзгөн	-8.9867
▁тартылган	-8.98694
▁сегиз	-8.98982
▁андай	-8.99357
▁Түштүк	-8.99404
▁сурак	-8.99487
ова	-8.99511
▁билдиргендей	-8.99511
▁14-	-8.99528
▁эсе	-8.99584
тен	-8.99666
▁Азыркы	-8.99674
▁кыймылы	-8.99675
▁банк	-8.99689
дор	-8.99757
▁фонду	-8.99762
▁тамак	-8.99789
ил	-8.99898
▁өлкөлөрү	-8.99906
ц	-9.00264
▁өлкөлөрдү	-9.00347
▁макул	-9.0037
▁турак	-9.00434
▁Соң	-9.00589
▁чукул	-9.00637
▁алынды	-9.0069
▁тапкан	-9.00834
▁Министрл	-9.01015
▁60	-9.01066
▁деги	-9.01072
▁ишине	-9.01165
▁12-	-9.0135
▁анан	-9.01394
▁темир	-9.01415
▁чектөө	-9.0144
▁Ооганстанда	-9.01454
▁;	-9.01515
▁турганы	-9.01599
▁элге	-9.01625
▁16-	-9.01743
▁кайрылуу	-9.01772
ым	-9.01838
тажик	-9.01853
▁23-	-9.01878
▁П	-9.01906
▁ң	-9.01914
дүн	-9.02128
▁Мекеме	-9.02146
кен	-9.02294
▁2018-	-9.024
▁айтылды	-9.02598
▁таап	-9.026
▁жаштар	-9.02637
▁бизде	-9.02669
Б	-9.02675
▁бөлүмү	-9.02828
х	-9.02931
▁коом	-9.03084
▁8	-9.03248
Си	-9.03268
бүлө	-9.03518
▁Республикасы	-9.03643
▁22-	-9.03758
▁каржы	-9.03815
айым	-9.03884
▁Акыркы	-9.04128
▁БУУну	-9.04255
▁калыбын	-9.04315
▁жүрөт	-9.04375
▁экс	-9.04428
▁маалыматтарды	-9.04778
▁көргөн	-9.04823
▁тараткан	-9.04858
▁сиз	-9.04916
▁парламентти	-9.04965
▁учур	-9.05044
▁п	-9.0508
▁үн	-9.05132
▁19-	-9.05187
то	-9.05191
▁ов	-9.05471
▁коомчулук	-9.05569
▁алганы	-9.05581
▁ти	-9.0566
▁түрк	-9.05689
▁мага	-9.05779
▁зомбулук	-9.05815
▁24	-9.05894
▁дал	-9.05921
▁жүк	-9.05927
▁жаан	-9.05969
ык	-9.06076
▁Коронавирус	-9.06207
▁коюу	-9.06274
▁ондогон	-9.06307
▁Жо	-9.06355
▁Сот	-9.06508
▁жыйын	-9.06561
▁документ	-9.06581
▁кайрылып	-9.06779
▁дегенде	-9.06813
▁7	-9.06901
▁ишканасы	-9.06978
▁кайтып	-9.07007
▁иштерин	-9.07438
▁азык	-9.07459
▁камсыздоо	-9.07465
▁кабарланды	-9.0748
▁жетекчилери	-9.07504
▁мамлекеттер	-9.07516
талган	-9.07631
▁жөн	-9.07724
▁жагынан	-9.07841
▁жоопкерчилик	-9.07869
ман	-9.07933
алдык	-9.07944
▁кармоо	-9.08054
▁зыян	-9.08061
кыр	-9.08074
▁соттук	-9.08181
▁козголгон	-9.08191
▁көпчүлүк	-9.08193
▁о	-9.082
▁27-	-9.08296
▁Түркияда	-9.08321
▁жалгыз	-9.08342
▁жатканда	-9.08402
▁көрсөтүп	-9.08439
▁Өкмөт	-9.08544
▁жүргүзүп	-9.08559
▁кармалды	-9.08566
▁ишеним	-9.08836
▁80	-9.08847
▁аяба	-9.08949
лөр	-9.08965
▁газ	-9.08987
▁ин	-9.09038
▁катышты	-9.09103
▁Камчыбек	-9.09318
ириккен	-9.09332
▁Ушунда	-9.09335
▁чечүү	-9.09372
Коопсуздук	-9.09406
▁ш	-9.09473
▁пикир	-9.09476
▁бара	-9.09552
▁өлкөлөрдө	-9.09573
▁Сооронба	-9.09791
▁гө	-9.09856
УКМК	-9.0989
ция	-9.09905
▁киргизилген	-9.10086
▁бажы	-9.10124
атындагы	-9.10362
▁500	-9.10465
ро	-9.10479
▁кеп	-9.10636
лан	-9.10654
▁са	-9.10662
▁отурган	-9.10665
че	-9.10677
▁менин	-9.10779
▁түзүп	-9.1088
▁Ата	-9.10887
▁жума	-9.10999
▁миңдеген	-9.11006
▁ракета	-9.11038
▁Мыйзам	-9.11043
▁салды	-9.11108
▁тиешеси	-9.11121
▁70	-9.11293
▁Айрым	-9.1132
тары	-9.11406
жылдагы	-9.11408
▁сынга	-9.1145
бүз	-9.11527
▁басым	-9.11585
▁тынчтык	-9.11658
▁өнөр	-9.11672
▁!	-9.11726
▁айы	-9.11851
▁тонна	-9.11977
▁уюштуруу	-9.12359
еминде	-9.12364
▁бирөө	-9.12473
▁беренеси	-9.12477
▁болуу	-9.12638
▁тургуну	-9.12697
▁Са	-9.12716
арын	-9.1277
▁13-	-9.12867
▁миллиондо	-9.12972
▁22	-9.13055
март	-9.13108
▁аныкталган	-9.13267
▁шектүү	-9.13345
беренеси	-9.1368
▁кошо	-9.13694
▁Башка	-9.13827
▁жагдай	-9.13875
згөчө	-9.13885
▁Албетте	-9.14002
▁сапары	-9.14075
▁бей	-9.14121
s	-9.14123
▁үйдө	-9.1416
▁коргонуу	-9.14268
▁ну	-9.14486
▁билдирүүдө	-9.146
▁мөөнөтү	-9.14617
ст	-9.14681
▁буз	-9.14752
▁жасалган	-9.14845
▁шаарына	-9.14917
▁атып	-9.14972
▁Кийин	-9.15007
▁олутту	-9.15314
▁до	-9.15315
шы	-9.15321
▁белгилеген	-9.15402
▁берилди	-9.15411
▁коркунуч	-9.15412
▁алыс	-9.15454
▁тин	-9.15636
▁маалында	-9.15679
▁катышып	-9.15728
▁сотто	-9.15744
▁тогуз	-9.15782
▁калса	-9.15848
▁би	-9.15977
▁сактап	-9.1599
▁Түркияны	-9.1613
▁26-	-9.16141
▁болууда	-9.16143
▁2017-	-9.16219
▁Министр	-9.16268
▁айлык	-9.16284
▁чу	-9.16336
▁21-	-9.16399
▁чыр	-9.16412
▁толугу	-9.16448
▁туруу	-9.16454
▁маселелер	-9.16574
▁каралган	-9.16668
▁түрдүү	-9.16714
▁долбоор	-9.16762
▁эгер	-9.16776
▁басылмасы	-9.16864
▁айтууда	-9.16869
▁мени	-9.17017
▁энергетика	-9.17036
▁кыл	-9.17045
▁пикирин	-9.17111
▁окуп	-9.17181
▁кеткенин	-9.17229
▁29-	-9.17264
▁аптада	-9.17318
▁инвестиция	-9.17334
ло	-9.17443
▁кат	-9.17503
▁Өзбекстанда	-9.17577
мо	-9.17622
▁маалыматта	-9.17658
▁коронавирусту	-9.17737
иялык	-9.17861
тун	-9.17871
▁үчүнчү	-9.17934
▁операция	-9.17947
▁карантин	-9.18034
▁илимий	-9.18036
▁бузуу	-9.18165
▁Орус	-9.18175
▁жыйынтыгын	-9.18255
үнчө	-9.18384
лүү	-9.18546
▁тургундары	-9.18565
▁митинг	-9.18744
▁текшерүү	-9.18807
в	-9.18911
▁Түндүк	-9.19009
▁америкалык	-9.19083
▁медиа	-9.19219
▁оюн	-9.19248
▁тын	-9.19364
▁кайрылган	-9.19414
▁дайым	-9.19524
▁себеби	-9.19595
▁коргоочу	-9.19677
▁өтпөй	-9.19688
▁күндөн	-9.1971
▁көбүрөөк	-9.1976
▁күндү	-9.19827
Суу	-9.19831
▁атасы	-9.19837
ек	-9.1996
▁түнү	-9.1997
▁аргасыз	-9.20035
▁изилдөө	-9.20063
▁бойдон	-9.20168
▁жетекчилиги	-9.20245
▁ларды	-9.20257
▁илим	-9.2027
баган	-9.20382
▁2010-	-9.20444
▁менчик	-9.20514
үндө	-9.20649
▁иште	-9.20665
▁маегинде	-9.20707
▁айга	-9.20848
▁Израилди	-9.2089
▁лардын	-9.20987
ен	-9.21193
▁сөөгү	-9.21194
▁үстүнө	-9.21282
▁пайыз	-9.21404
▁ту	-9.21489
▁бейтап	-9.21625
лор	-9.21649
▁топту	-9.21676
▁көрсөтүлгөн	-9.21682
▁Кытайда	-9.21795
Кыргыз	-9.21901
▁табылган	-9.21903
▁дарыгерлер	-9.21958
▁көрсөткөн	-9.21998
▁ой	-9.22029
дон	-9.22062
▁таянып	-9.2209
жылдары	-9.22099
▁канчалык	-9.22283
▁тармактарда	-9.22326
▁борборду	-9.22409
▁гуман	-9.22418
▁бөгөт	-9.22615
▁дүйнөдө	-9.22659
▁кылат	-9.22781
▁согушта	-9.22978
▁Коргоо	-9.23044
i	-9.23109
▁өзбек	-9.23126
▁жеңил	-9.23189
▁9	-9.2327
▁2016-	-9.23328
▁арасына	-9.23394
▁Иранды	-9.23402
▁айылы	-9.23403
o	-9.23454
▁келгенин	-9.23484
▁парламентте	-9.23522
▁максаты	-9.23524
▁жаман	-9.23622
▁чечимин	-9.23654
за	-9.23822
▁Тилек	-9.23822
▁аймактарында	-9.2395
▁маселесин	-9.23956
▁эркине	-9.24013
▁баракчасына	-9.2405
▁акция	-9.24064
▁сүйлөшүү	-9.24085
▁милдетин	-9.24172
▁болгондуктан	-9.24181
▁Уюму	-9.24181
▁ишкерлер	-9.24313
▁алдынча	-9.24556
▁өмүрүн	-9.24797
▁аймак	-9.24819
▁тийиш	-9.24841
▁эрте	-9.24896
▁алууну	-9.24896
▁Британия	-9.25137
▁тил	-9.25256
▁тармагында	-9.25311
▁колуна	-9.25349
▁Экономика	-9.25439
▁өрт	-9.25452
▁аныктоо	-9.25462
▁сапар	-9.25637
▁учак	-9.25642
▁Германия	-9.25734
▁кабылган	-9.2578
▁качып	-9.25868
▁жеткен	-9.25932
▁В	-9.25988
▁берилет	-9.26118
▁багытта	-9.26126
▁кырдаалды	-9.26179
жан	-9.26197
▁бериши	-9.26212
▁чакырым	-9.26361
▁облустары	-9.26384
▁чакырган	-9.26389
▁Улуу	-9.26556
▁кетет	-9.26573
Кошмо	-9.26592
▁университети	-9.26645
▁кабарланган	-9.26741
▁спорт	-9.26751
▁Путинди	-9.26874
▁аягына	-9.26909
▁абалда	-9.26915
▁пайдалануу	-9.27039
▁лык	-9.27087
▁үйүнө	-9.27166
тай	-9.27221
ондук	-9.27243
▁жалпысы	-9.27273
Т	-9.27298
▁көтөрүп	-9.27311
тор	-9.27335
▁кырдаалдар	-9.27382
ре	-9.27577
▁болгондо	-9.27593
▁түзөт	-9.27763
▁онлайн	-9.27894
▁маалымдаган	-9.27901
▁пандемия	-9.27912
деди	-9.27919
▁негизде	-9.27937
▁кызматкерлер	-9.27963
▁айдан	-9.28005
▁Атамбаевди	-9.28005
▁бүгүнкү	-9.28058
▁таң	-9.28158
▁жараша	-9.28179
▁болбосо	-9.28185
дары	-9.28224
▁жүзүндө	-9.28235
▁нааразы	-9.28476
▁март	-9.28498
▁мөөнөт	-9.28515
▁өздөрү	-9.28612
▁бошотуу	-9.28639
▁өтүү	-9.28689
▁келтирүү	-9.2878
▁кыйла	-9.28782
▁Мына	-9.28849
▁баласы	-9.29211
ша	-9.29271
▁узак	-9.29309
▁башталды	-9.29366
▁сомду	-9.29376
▁колдоп	-9.29394
▁тургундар	-9.29395
▁су	-9.29396
▁Көп	-9.29417
▁мигранттарды	-9.29482
түлүк	-9.29723
▁институту	-9.29723
уп	-9.29802
▁ү	-9.29803
▁кооптуу	-9.29814
▁укуктук	-9.2983
▁мал	-9.29953
▁лидерлери	-9.29967
▁тийиштүү	-9.29994
▁өлүмү	-9.3003
▁чыгат	-9.30096
▁эскертти	-9.30111
▁убагында	-9.30115
▁ине	-9.30142
▁ө	-9.30426
▁Мурдагы	-9.30479
▁телефон	-9.30563
▁Д	-9.30569
▁тынч	-9.30592
▁автоунаа	-9.30616
сө	-9.30633
▁көрүнүш	-9.30719
▁экөө	-9.30763
▁коңшу	-9.30784
▁кош	-9.3081
▁300	-9.30827
▁жөнгө	-9.30893
▁26	-9.30911
Талибан	-9.3096
▁аялдарды	-9.31096
▁23	-9.31245
тараптуу	-9.31298
▁бизнес	-9.31323
▁калганы	-9.31351
▁21	-9.31358
▁террорду	-9.31418
▁күрөшүү	-9.31426
он	-9.31513
e	-9.31584
▁калышы	-9.31754
▁система	-9.31915
▁камакта	-9.3198
▁кылмыштуу	-9.32013
еңири	-9.32077
жылга	-9.32102
▁кишилер	-9.32111
▁техникалык	-9.32148
ээк	-9.32218
▁атат	-9.32308
▁гектар	-9.32356
▁бербей	-9.3236
▁вакцина	-9.32386
▁бүз	-9.32434
▁кымбат	-9.32515
▁көмүр	-9.32546
▁уюмду	-9.32666
▁үйдү	-9.32728
▁кызды	-9.32745
▁90	-9.32748
▁ошондо	-9.32797
▁калкты	-9.32806
▁келүү	-9.32862
▁кыска	-9.32975
▁аныкталды	-9.32996
▁активисттер	-9.33065
▁ачуу	-9.3309
▁партияны	-9.33101
▁Бизде	-9.33139
▁Александр	-9.33141
▁өмүрү	-9.33256
▁Газа	-9.3329
▁убакта	-9.33391
▁кадам	-9.33416
▁таандык	-9.33449
▁ыкчам	-9.33474
▁ишкер	-9.33479
чара	-9.33485
▁штаб	-9.33548
лган	-9.33604
▁Эр	-9.33794
▁Менин	-9.33808
▁укугун	-9.3388
▁эртең	-9.33938
▁болмок	-9.34015
▁туулган	-9.34077
▁УКМКны	-9.34176
▁жаатында	-9.34307
▁Алматы	-9.34344
▁чыны	-9.34352
▁Ошентип	-9.3438
▁адистер	-9.3444
жаза	-9.34466
▁ыбыз	-9.34516
▁администрациясы	-9.34527
▁биргелеш	-9.34579
▁кирүү	-9.34689
▁тарыхый	-9.34843
▁калк	-9.34859
▁айрымдары	-9.35004
Кумтөр	-9.35071
▁акчаны	-9.3514
дей	-9.35151
▁("	-9.35316
▁жерди	-9.35332
▁те	-9.35588
▁өлкөлүк	-9.35708
▁төлөп	-9.35731
▁Май	-9.35734
▁башталганда	-9.35781
▁жарык	-9.3579
▁күчтүү	-9.35936
▁эсеп	-9.36013
▁Беларус	-9.3619
▁саясаты	-9.36217
▁жасалма	-9.36257
▁чакырып	-9.36276
▁алышкан	-9.36318
▁тик	-9.36491
▁лары	-9.36508
▁2015-	-9.36622
▁Президентти	-9.36685
▁уюмдарды	-9.36688
▁комитет	-9.3677
▁күтүп	-9.36907
▁Мамлекет	-9.37061
▁АКШда	-9.37065
▁чын	-9.37159
раак	-9.37221
▁көлөмү	-9.37233
▁жыйында	-9.37407
▁чыгарды	-9.37418
▁Шайлоо	-9.37513
▁маалым	-9.37559
▁жабык	-9.37708
▁алышы	-9.37724
▁иштерди	-9.37742
▁экономика	-9.37745
▁чакан	-9.37883
▁эркиндиги	-9.37894
▁министрлигине	-9.38021
▁ачылган	-9.38032
ви	-9.38072
▁ооруканада	-9.38297
▁пул	-9.38332
▁Атайы	-9.38345
▁тарапты	-9.38385
▁тер	-9.38506
▁шартта	-9.38588
Манас	-9.38652
министри	-9.38783
▁Мурда	-9.3882
май	-9.38929
▁сурап	-9.38968
▁жатканына	-9.39064
▁тапты	-9.3907
▁кароо	-9.39125
!	-9.39163
▁катышуу	-9.3925
▁өнүгүү	-9.39261
▁Кеңеште	-9.39319
ва	-9.39337
▁системасы	-9.39516
▁элчилиги	-9.39612
буз	-9.39641
▁териштирүү	-9.39756
▁Түрк	-9.39813
▁каралып	-9.39843
▁издөө	-9.39858
▁б	-9.39975
▁жумушчу	-9.40074
премьер	-9.40125
▁салыштырма	-9.40156
▁отуруп	-9.40158
▁жетиштүү	-9.40162
▁байланыш	-9.40222
▁артка	-9.40244
▁кармалганын	-9.40361
▁калуу	-9.40394
▁дей	-9.40455
▁насыя	-9.40571
▁өмүр	-9.40582
▁өлүм	-9.40643
▁экология	-9.40703
▁келиши	-9.40761
▁журналисттерди	-9.40765
▁Жергиликтүү	-9.40865
▁эмнеге	-9.40894
▁комитетти	-9.40912
▁жапыр	-9.40925
▁аткаруучу	-9.41019
▁борборунун	-9.41085
▁жалган	-9.41147
▁иштейт	-9.4117
▁колдогон	-9.41234
▁интернет	-9.41249
y	-9.41288
мак	-9.41308
▁Социал	-9.41308
дарды	-9.41334
▁заман	-9.4137
▁Кемпир	-9.41444
▁үгүт	-9.41483
▁ыйгарым	-9.41505
Р	-9.41629
▁таасирин	-9.41636
М	-9.41653
▁БШК	-9.41664
▁31-	-9.41709
▁Матраимов	-9.41937
▁укуктарын	-9.41999
▁Демек	-9.4216
▁ошону	-9.42573
▁иштей	-9.42666
▁жараткан	-9.42675
ис	-9.42692
▁башчылары	-9.42746
▁билдирүүсүндө	-9.42857
▁тарды	-9.43012
▁уланып	-9.43018
▁айтышты	-9.43034
▁маданият	-9.4307
э	-9.43211
▁жаап	-9.43281
лып	-9.43399
▁сүрөт	-9.43562
▁нан	-9.43564
▁партиялар	-9.43607
▁бараткан	-9.43686
▁сүйлөшүүлөр	-9.438
▁Тажикстанда	-9.43823
▁жерине	-9.43869
▁сыз	-9.43953
▁мунай	-9.43986
▁болгондорду	-9.44034
▁28	-9.44181
▁Бийлик	-9.44221
▁Укук	-9.4426
дап	-9.44314
▁кетиши	-9.4435
▁компаниялар	-9.4438
▁Серге	-9.44451
▁курган	-9.44482
/	-9.44519
▁Си	-9.4462
▁ашыруу	-9.44633
▁карандысыз	-9.44696
▁айыптап	-9.44735
▁багытталган	-9.44802
▁дем	-9.44829
▁Токаев	-9.44902
▁баса	-9.4503
▁көрө	-9.45052
▁стратегия	-9.4515
▁долбоорду	-9.4525
▁байланышы	-9.45305
▁алыш	-9.45342
▁алгач	-9.45362
▁өзөктү	-9.45398
▁Ошто	-9.4543
бүлөсү	-9.45456
▁санкция	-9.45487
▁35	-9.45546
▁2014-	-9.45585
▁сыртта	-9.45587
▁кайтарып	-9.45596
▁сел	-9.45601
▁болгондор	-9.45667
tion	-9.45672
▁Та	-9.45674
▁аскерлер	-9.45769
▁берүүдө	-9.45919
▁райондорунда	-9.46134
▁шаарда	-9.46235
▁ашты	-9.46399
ю	-9.46455
▁башаламандык	-9.465
▁дипломатия	-9.46597
▁бардыгы	-9.46689
▁саясатчылар	-9.46697
▁билдиришти	-9.46819
абыт	-9.46906
▁доо	-9.46911
▁маселелерди	-9.46955
▁27	-9.46976
▁Иш	-9.47255
▁калкы	-9.47284
▁ооган	-9.47289
▁карабастан	-9.47344
▁мекеме	-9.47357
▁күбө	-9.4738
▁сатуу	-9.47433
▁катталды	-9.47523
▁келсе	-9.47591
▁шаарды	-9.47634
▁баланы	-9.47699
▁арналган	-9.477
▁жарыяланды	-9.47701
▁На	-9.47845
▁мандат	-9.47909
▁Өмүрбек	-9.48213
▁кыймыл	-9.48251
▁Болот	-9.48326
▁аймагы	-9.48345
▁күнөөлүү	-9.4843
▁камагын	-9.48699
▁каранды	-9.48864
▁медицина	-9.48889
▁таштап	-9.49003
▁ээси	-9.49025
Таш	-9.49025
▁окуяны	-9.49063
▁Акаев	-9.49181
▁мыйзамдуу	-9.49285
▁жүргүзгөн	-9.49394
▁Дон	-9.49433
▁Депутат	-9.49447
▁Негизи	-9.49498
ши	-9.495
▁л	-9.49511
▁маданий	-9.49588
▁дүйнөнү	-9.49619
▁оң	-9.49815
▁келишет	-9.49865
▁бет	-9.49908
▁S	-9.49985
▁алдына	-9.50008
▁авторду	-9.50107
▁футбол	-9.50124
▁мүмкүнчүлүгү	-9.50131
▁Украин	-9.50158
▁Милиция	-9.50225
▁таасири	-9.50398
▁элчиси	-9.50508
альд	-9.50753
▁Image	-9.50763
▁cap	-9.50774
▁кала	-9.50865
ит	-9.50902
▁суроолор	-9.50957
▁абалды	-9.5105
▁депутаттары	-9.511
Фейсбуктагы	-9.51175
▁чыгышты	-9.51365
▁мамлекеттерди	-9.51482
▁ойлойм	-9.51538
▁булагы	-9.51573
ков	-9.51642
▁кеңеш	-9.5172
▁Экинчи	-9.51722
им	-9.51817
▁Эң	-9.51836
▁байланышкан	-9.51839
со	-9.51845
▁Алексе	-9.51845
▁жаракат	-9.51884
▁Адам	-9.52003
▁Совет	-9.52068
▁саналат	-9.52072
▁Тоолуу	-9.52085
▁издеп	-9.52107
▁министр	-9.52118
▁жыйынтык	-9.52205
▁дон	-9.52227
▁Касым	-9.52232
▁балдары	-9.52283
▁мыйзамдар	-9.52295
▁Азербайжан	-9.52296
▁күчтөр	-9.52361
▁биринде	-9.52431
▁бийликте	-9.52544
▁мекемеси	-9.52614
▁Евробиримдик	-9.52766
▁катаал	-9.52794
▁башкалар	-9.52846
▁жайы	-9.52879
▁градус	-9.53003
▁долларды	-9.5306
▁аң	-9.53075
чө	-9.53333
сун	-9.53359
▁кызматташтык	-9.53385
▁не	-9.53492
▁теги	-9.53535
▁иштетүү	-9.53563
▁бөлүп	-9.53568
▁колдонуп	-9.53572
▁командасы	-9.53705
▁киреше	-9.5372
▁Ооганстан	-9.53727
▁жашта	-9.53767
▁коомчулукта	-9.53876
▁Тергөө	-9.53902
▁иштөө	-9.53951
▁жүргүзүү	-9.53962
▁жатам	-9.53967
▁аягында	-9.53974
▁кыргыздар	-9.54077
▁башкача	-9.54416
▁жолду	-9.54463
▁туугандары	-9.54521
▁милдеттүү	-9.54527
▁Вашингтон	-9.54528
▁жүйө	-9.54569
ланган	-9.54704
▁чыгарылган	-9.54825
▁кете	-9.54827
▁тажрыйба	-9.54986
▁көйгөй	-9.55043
▁күйөөсү	-9.55076
Тоо	-9.5514
▁сүйлөп	-9.55309
▁келаткан	-9.55354
▁көрсөткүч	-9.55357
▁прокурор	-9.55367
▁Ала	-9.55388
▁ачып	-9.55484
▁түштү	-9.55586
▁кечинде	-9.55605
▁Же	-9.55704
сында	-9.55713
▁коргоочулар	-9.55757
▁Үй	-9.55794
▁программасы	-9.55845
Кыргызстан	-9.5585
▁сына	-9.5585
▁табылды	-9.55863
▁карай	-9.55893
унун	-9.55941
▁кеткени	-9.55992
▁улуу	-9.56083
И	-9.56107
ууда	-9.56217
▁Бакыт	-9.56442
▁сууну	-9.56524
▁Ошону	-9.56654
I	-9.56705
▁терең	-9.568
▁деңиз	-9.56813
00	-9.56855
▁ба	-9.56909
▁абак	-9.56998
▁коомчулукту	-9.5714
▁бүт	-9.57152
▁Билим	-9.57299
▁берсе	-9.57302
▁адвокаты	-9.57384
▁C	-9.57408
▁сүйлөшүп	-9.5742
▁эски	-9.57421
▁учуп	-9.57458
▁кандуу	-9.57463
бүлөлү	-9.57546
▁акын	-9.57658
ру	-9.5781
▁кезек	-9.57918
▁топтор	-9.57984
d	-9.57998
▁көпчүлүгү	-9.58016
▁36	-9.58064
▁ун	-9.5808
▁кагып	-9.58212
▁айтуу	-9.58219
▁Евразия	-9.58245
У	-9.58316
▁Корея	-9.58328
П	-9.58443
сүнө	-9.58476
▁аракеттер	-9.58509
▁жеткирүү	-9.5853
▁),	-9.58554
ры	-9.58584
▁алгандар	-9.58808
дөгөн	-9.58819
▁вирусту	-9.5885
шкан	-9.58936
▁кире	-9.58938
▁каалаган	-9.58964
▁келбейт	-9.58969
▁кам	-9.58984
терс	-9.59117
▁келишимди	-9.59174
гүл	-9.59205
▁33	-9.59222
▁кабат	-9.5925
▁коопсуздугун	-9.59326
▁жүздө	-9.59398
▁29	-9.59527
▁коммерция	-9.59601
▁жетектеген	-9.59601
▁Баткенде	-9.59661
▁атына	-9.59778
▁нин	-9.59898
ум	-9.59972
ир	-9.60007
▁барат	-9.60017
▁финал	-9.60068
▁Бала	-9.60088
▁китеп	-9.60132
ңкы	-9.60177
лы	-9.60193
алы	-9.60198
административдик	-9.60204
ме	-9.60233
▁келбей	-9.60241
▁жолугушуу	-9.60264
▁бирдикт	-9.60325
ль	-9.60367
советтик	-9.604
ур	-9.60413
ыр	-9.60436
▁жарыялап	-9.60461
▁дайындалган	-9.60517
▁Маселен	-9.60543
▁катталып	-9.60613
▁Кээ	-9.60615
кү	-9.60662
▁Ооганстанды	-9.60673
мат	-9.60805
▁финансы	-9.60849
▁айтат	-9.60967
▁болобу	-9.60978
▁32	-9.60986
▁статистика	-9.61022
▁каршылык	-9.61061
▁Азияда	-9.61086
ыш	-9.61158
▁жа	-9.61246
▁айланасында	-9.61249
▁куугунтук	-9.61283
Э	-9.61359
▁билет	-9.61365
▁келатат	-9.61423
▁эли	-9.61432
▁Жер	-9.61471
▁Ха	-9.61536
▁ушу	-9.61591
▁тилинде	-9.61593
▁алууда	-9.61606
▁окшойт	-9.61632
▁эне	-9.61779
▁Армения	-9.61797
▁сый	-9.61833
▁апта	-9.61869
▁алышат	-9.61934
икалык	-9.61986
▁Темир	-9.61993
Ак	-9.62013
▁жери	-9.6204
▁анча	-9.62064
▁НАТО	-9.62065
▁Улан	-9.62073
изм	-9.62095
▁Олимпиада	-9.62168
▁сабак	-9.62248
▁фракциясы	-9.62303
▁журналистти	-9.6241
үнүн	-9.62479
▁ма	-9.6251
▁ишкана	-9.6253
▁окуясы	-9.62546
▁Биримдиги	-9.62659
▁делген	-9.62662
▁апасы	-9.62674
▁түрү	-9.62786
▁алабыз	-9.62807
▁дарыгер	-9.62862
▁саналып	-9.62867
▁начар	-9.62881
▁абагында	-9.62892
ск	-9.62961
▁чаралар	-9.62964
▁эскертүү	-9.63021
▁Н	-9.63104
▁400	-9.63127
ликте	-9.63148
▁далил	-9.63148
▁алса	-9.63153
▁максат	-9.63204
▁эсебине	-9.63316
▁берилип	-9.63334
▁дер	-9.63371
▁тур	-9.63465
▁мырза	-9.63536
кулов	-9.63582
▁товар	-9.63641
▁коомдун	-9.63644
▁айыпталып	-9.63702
▁өндүрүш	-9.63743
▁мамлекети	-9.63762
▁виза	-9.63783
▁күчөп	-9.63905
▁өсүп	-9.63905
▁пара	-9.63908
▁шайланган	-9.63909
▁укуктуу	-9.63951
▁июнь	-9.64011
▁атаган	-9.64025
▁документтер	-9.64189
▁жугузу	-9.64239
▁масса	-9.64253
▁маани	-9.64358
▁Трампты	-9.64361
лу	-9.64369
▁мына	-9.64372
▁араны	-9.64428
▁көзөмөлдөө	-9.64451
")	-9.64483
▁күчү	-9.64522
▁баарына	-9.64548
жа	-9.64571
▁кызматкер	-9.64625
▁команда	-9.64645
▁мурунку	-9.64668
▁жардамы	-9.64674
оо	-9.64674
▁Эрдоган	-9.64719
▁киргизген	-9.64751
▁депутаттык	-9.64806
▁алышты	-9.64819
▁акы	-9.64824
▁Америка	-9.64947
▁оңой	-9.64962
▁тараган	-9.64972
▁34	-9.65132
бап	-9.65207
▁2024-	-9.65237
▁болжол	-9.65301
▁бү	-9.65318
дөр	-9.65382
▁жара	-9.65385
▁айтышкан	-9.65471
лышы	-9.65479
▁адис	-9.65565
▁таш	-9.65621
▁өлтүрүү	-9.65625
▁чыкпай	-9.65894
▁45	-9.65981
▁кирет	-9.66
үп	-9.66002
▁Ислам	-9.6602
▁болбосун	-9.66021
▁кылууга	-9.66182
▁билген	-9.66184
ич	-9.66264
▁ашкан	-9.6629
▁чыгышкан	-9.66366
▁жетпей	-9.66508
▁Эмне	-9.66528
▁кайрылды	-9.66652
▁Бай	-9.66743
▁рубл	-9.66745
▁кө	-9.66782
▁транспорт	-9.66806
▁Кызыл	-9.66806
▁беле	-9.66877
▁атап	-9.66887
▁турмуш	-9.66915
▁ла	-9.66924
▁активдүү	-9.6697
▁аралыкта	-9.67041
тардын	-9.67044
▁сындап	-9.67057
ул	-9.67079
▁Окуя	-9.67096
▁даярдык	-9.671
▁Жа	-9.67191
▁кысым	-9.67281
▁чы	-9.67296
▁кыла	-9.67314
▁эсебинде	-9.6732
▁кылууда	-9.67366
▁үмүт	-9.67483
ол	-9.67516
▁ката	-9.67577
▁калаа	-9.67602
▁мезгилде	-9.67606
▁октябрь	-9.67606
лаш	-9.67636
▁өкүм	-9.67638
▁айланып	-9.67755
▁турду	-9.67838
▁карыз	-9.67857
▁кайда	-9.67897
▁сайтында	-9.67925
▁жабыркаган	-9.6796
▁Министрлик	-9.68063
▁баруу	-9.68161
▁ырастады	-9.68183
▁макулдашуу	-9.68194
▁Үч	-9.68233
▁мэри	-9.68233
▁камалган	-9.68305
өт	-9.68349
▁аткан	-9.6835
▁кызматташуу	-9.68467
▁келтирген	-9.68645
Биз	-9.68826
▁дегенди	-9.68828
▁Кой	-9.68838
▁Чыңгы	-9.68841
▁окуяларды	-9.68878
▁ооруп	-9.68909
▁жетип	-9.68938
ышы	-9.69005
▁анткен	-9.69072
▁чечимди	-9.69138
ид	-9.69193
▁ХАМАС	-9.69234
▁чектөөлөр	-9.6927
үүдө	-9.69423
▁департаменти	-9.69556
▁органдар	-9.69629
▁Чыгыш	-9.69647
▁жете	-9.69724
▁Октябрь	-9.69747
▁Ла	-9.69748
▁отурат	-9.6977
▁Аскар	-9.69794
▁окуган	-9.69807
▁Жыл	-9.7003
▁жайкы	-9.70094
▁бызды	-9.70112
▁жашы	-9.70133
чачын	-9.70267
▁сүйлөшүүлөрдү	-9.7029
u	-9.70305
▁жанында	-9.70382
▁эскерткен	-9.70399
▁жылдар	-9.70402
▁беришти	-9.70419
кыргызстандыктар	-9.70519
Ж	-9.70562
▁үнө	-9.70575
▁айдоочу	-9.70624
ыл	-9.70645
▁беришкен	-9.70696
▁алынганын	-9.70726
▁милициясы	-9.70765
▁бюджетти	-9.70829
▁жумду	-9.70848
▁150	-9.7089
▁каттоодо	-9.7102
▁Эмил	-9.71022
▁ташып	-9.71077
▁токтоп	-9.71109
▁37	-9.71173
▁Кумтөр	-9.71247
▁чыкканда	-9.71288
▁санитардык	-9.71306
▁мекенине	-9.71317
S	-9.71344
▁Али	-9.71444
стан	-9.71453
▁көзү	-9.71463
О	-9.71508
▁тегерегинде	-9.71533
хан	-9.71731
▁ИИМ	-9.71742
үгүнкү	-9.71968
▁майда	-9.71981
▁ич	-9.7205
Д	-9.72296
▁эксперттер	-9.72311
▁муктаж	-9.72314
▁бийик	-9.72409
▁ыр	-9.72424
бу	-9.72439
▁өткөргөн	-9.72505
▁жашыруун	-9.72571
▁конституция	-9.72653
▁тили	-9.72668
▁жолку	-9.72702
▁прокуратурасы	-9.72726
▁айт	-9.72766
▁түштүк	-9.72801
лөрдү	-9.72846
Райымбек	-9.72928
▁маалыматында	-9.72975
▁се	-9.73034
▁эксперт	-9.73076
▁Чолпон	-9.73087
▁Азиз	-9.73155
▁Бек	-9.73262
▁Ким	-9.73378
▁келин	-9.73392
▁тартип	-9.73397
президент	-9.73433
▁салым	-9.73466
▁угуп	-9.73572
▁жолугуп	-9.73572
▁ашып	-9.73609
▁документтерди	-9.73653
▁жылдарда	-9.73692
лат	-9.73766
▁апрель	-9.7377
▁күчтөрдү	-9.73838
▁чү	-9.73878
ем	-9.73913
▁тоскоолдук	-9.73946
▁төмөн	-9.73969
▁тараптар	-9.74135
▁сунуштаган	-9.74228
▁пенсия	-9.74266
▁уланууда	-9.74269
▁1,5	-9.74282
▁Беларуста	-9.74347
▁реформа	-9.74364
▁коё	-9.74387
▁Ли	-9.74402
▁мектепте	-9.7443
▁жайга	-9.74439
▁басымдуу	-9.74479
▁Жалпы	-9.7448
▁иштерине	-9.74491
▁көбөйүп	-9.74499
▁үйүндө	-9.74503
▁маалымдоо	-9.74504
▁айтылууда	-9.74543
▁маселелери	-9.74585
▁чыгышы	-9.74592
▁Сиз	-9.74604
▁талабы	-9.7463
▁бирине	-9.74642
▁тыр	-9.74838
▁жагы	-9.7484
▁кен	-9.74855
▁десе	-9.74859
▁албайбыз	-9.74942
▁таратып	-9.74966
▁Өкмөттү	-9.75006
▁Голд	-9.75035
▁облустарында	-9.75045
▁башы	-9.75084
▁мамлекетте	-9.75099
деп	-9.75428
▁бергенин	-9.75568
▁Ы	-9.75591
▁жүрүшүн	-9.75599
▁кой	-9.75613
▁автор	-9.75616
▁баштайт	-9.75718
▁ко	-9.75818
▁тармагы	-9.75842
от	-9.75904
▁кыйноо	-9.75909
▁эмеспи	-9.76103
▁температурасы	-9.76158
▁коркунучу	-9.76162
▁жаңжал	-9.76166
▁туу	-9.76171
▁Ми	-9.76241
▁бирдей	-9.76278
▁чыкканын	-9.76316
индеги	-9.76371
тыр	-9.7646
▁мин	-9.76594
▁жазуучу	-9.76613
▁сөздөр	-9.76631
▁мөөнөтүн	-9.76639
▁референдум	-9.76691
▁куруп	-9.76738
▁полициясы	-9.76741
▁экспертиза	-9.76799
▁токтотуп	-9.76857
▁кийим	-9.76893
▁Бо	-9.76902
▁коопсуз	-9.76907
▁кино	-9.76912
▁өзүм	-9.76926
▁Франция	-9.76992
▁аймактар	-9.77003
▁дү	-9.77019
▁өтүшү	-9.77043
▁беткап	-9.77094
▁Жакын	-9.77097
▁көрсөттү	-9.77097
▁төмөнкү	-9.77103
▁Сирия	-9.77105
▁соңунда	-9.77136
▁өлүмүнө	-9.77155
▁че	-9.77215
▁бергени	-9.77221
▁тагы	-9.77286
▁сыртка	-9.77333
▁Жаранды	-9.7734
▁38	-9.77368
▁келишкен	-9.77454
▁па	-9.77469
▁тууган	-9.77469
▁жердеги	-9.77581
▁Ч	-9.77596
▁44	-9.77598
▁Жээнбековду	-9.77623
▁саналган	-9.77647
▁кызматкерлерди	-9.77648
өкмөт	-9.77681
▁Индия	-9.77682
▁тармактар	-9.77729
▁Ба	-9.77731
▁бюджет	-9.77791
ес	-9.77812
▁татаал	-9.779
тук	-9.78018
▁түндүк	-9.78037
▁Жол	-9.78073
▁атын	-9.78085
▁демилгеси	-9.78096
терди	-9.78113
▁Россия	-9.78123
▁жасоо	-9.7815
▁жазасын	-9.78176
▁байге	-9.78202
▁мекемени	-9.78228
▁чараларды	-9.78294
▁килограмм	-9.78295
▁маал	-9.78301
▁барды	-9.78312
▁жатса	-9.78361
▁келгени	-9.78363
▁Марат	-9.78385
▁буйрук	-9.78392
▁эркиндик	-9.7841
▁бөлүгүн	-9.78434
▁тартты	-9.78518
▁бакча	-9.78547
▁жарадар	-9.78578
▁Матраимовду	-9.78594
▁суткада	-9.78618
▁коому	-9.78641
▁коло	-9.7871
▁беребиз	-9.78861
Жо	-9.78908
▁окууда	-9.78973
уш	-9.78994
▁жубайы	-9.79024
A	-9.79067
▁Сирияда	-9.79112
▁сөзү	-9.79128
▁студенттер	-9.7913
▁телеканалы	-9.79169
▁бута	-9.7922
▁жигит	-9.79296
келиндер	-9.79324
▁чакыруу	-9.79357
▁кайтаруу	-9.79431
g	-9.79469
▁түшүндүрмө	-9.79484
▁тасма	-9.79503
▁депутаттарды	-9.79632
▁токтолду	-9.79757
ос	-9.79859
▁кызыкчылыгын	-9.79896
▁тактоо	-9.79931
▁ова	-9.79945
ңыз	-9.79983
▁буларды	-9.79989
▁Жеңиш	-9.79995
▁көркөм	-9.8001
▁илдет	-9.80013
▁кыздар	-9.80036
▁дыктан	-9.8006
ел	-9.80063
▁курч	-9.8024
▁судья	-9.80251
▁салууну	-9.80263
▁калдым	-9.80303
▁700	-9.8033
ус	-9.80395
▁январь	-9.80496
▁түзүлүп	-9.80499
▁Маданият	-9.8055
▁Улутт	-9.80624
▁элем	-9.80627
▁жооптуу	-9.80706
▁Базар	-9.80747
▁Сауд	-9.80748
▁аракеттери	-9.80763
▁акыл	-9.80776
▁лер	-9.80782
▁кичине	-9.80789
▁Ленин	-9.80875
▁борборунда	-9.80888
▁тагдыры	-9.80895
▁Гүл	-9.80924
бул	-9.80926
▁кытай	-9.8096
▁уюштурган	-9.80987
▁үзгүлтүк	-9.80992
кул	-9.81006
▁ынан	-9.8108
тагы	-9.81167
▁байкоо	-9.81171
▁Ко	-9.81204
▁Г	-9.81214
▁болуш	-9.81266
▁кырсык	-9.81276
▁эмдөө	-9.81361
ала	-9.81466
▁Жазык	-9.81493
▁тизмесине	-9.81609
тып	-9.81634
▁мекемелер	-9.81687
▁Чоң	-9.81712
▁аяктаган	-9.81725
▁айыптаган	-9.81752
▁Өлкө	-9.81833
▁абада	-9.8193
▁банктын	-9.81978
▁кадимки	-9.8199
▁ижара	-9.8199
▁аскери	-9.82077
бо	-9.82162
▁төлөө	-9.82172
▁курман	-9.82203
▁сайты	-9.82223
▁калдык	-9.82287
▁Я	-9.82313
▁артында	-9.82323
▁жылына	-9.82326
▁банкы	-9.82328
▁орунда	-9.82366
▁75	-9.82433
▁Өзү	-9.82521
▁48	-9.82536
сынын	-9.82582
▁курулушу	-9.82602
▁күнүнө	-9.82617
▁көчө	-9.82678
▁алмаштыруу	-9.82691
Г	-9.82721
▁юридика	-9.82746
▁тарапташтары	-9.82749
▁тушунда	-9.82759
▁зордук	-9.82815
▁мектепти	-9.82823
▁Дастан	-9.82888
▁табуу	-9.82926
▁илимдер	-9.82964
▁атады	-9.82978
▁унаа	-9.83023
▁Айыл	-9.83063
▁тарых	-9.83073
▁Ат	-9.83195
▁түрмөдө	-9.83196
▁өңдүү	-9.83257
▁окуяда	-9.83261
▁мэриясы	-9.83392
ZKo	-9.83507
▁көтөрүлүп	-9.83508
▁түшүндүрүү	-9.83509
▁31	-9.83518
▁мерт	-9.83527
▁Иранда	-9.83588
энеси	-9.83615
▁T	-9.83646
апрел	-9.83742
▁Жакында	-9.83743
кер	-9.83831
▁комиссияны	-9.83907
▁кабарчысы	-9.83923
тур	-9.83946
▁кытайлык	-9.84018
▁Ф	-9.84262
▁кеткенде	-9.84373
▁талибдер	-9.8438
▁деңгээли	-9.84412
▁энергиясын	-9.84414
▁курама	-9.84531
▁түшүндүрдү	-9.84532
▁коюлду	-9.84542
▁аралыгында	-9.84545
C	-9.8461
▁орду	-9.84651
▁терди	-9.84674
тон	-9.84698
▁Жалпысы	-9.84711
өө	-9.84725
▁салмакта	-9.84801
▁Кар	-9.84874
▁Беларусту	-9.84887
▁жумада	-9.8495
▁Бээжин	-9.84951
▁Руслан	-9.85048
▁аялы	-9.85155
▁ташуучу	-9.85198
▁жоюу	-9.8523
лды	-9.8524
тип	-9.85267
▁Көк	-9.85276
▁бийлигине	-9.85295
▁чогулуп	-9.85307
▁биримдиги	-9.85307
чылык	-9.85348
▁Өз	-9.85352
▁сөзүн	-9.85354
▁чечимине	-9.85416
▁Кремл	-9.85513
▁колунда	-9.85549
▁кеңешти	-9.85575
▁даярдоо	-9.85579
▁жар	-9.85602
▁Токтогул	-9.85634
сүндө	-9.85704
▁Британияны	-9.85731
▁партияларды	-9.8581
▁мойнун	-9.85827
▁аткарып	-9.85838
▁жасады	-9.85988
▁өткөндө	-9.86001
▁жайларды	-9.86044
▁облусуна	-9.86061
▁көбөйдү	-9.86088
▁Жан	-9.86175
▁Жума	-9.86177
▁аскерлерди	-9.8619
▁ур	-9.8623
▁үйлөрдү	-9.86325
бей	-9.86344
▁дешет	-9.86359
▁көрсөтмө	-9.86362
▁бошотулган	-9.86383
▁жеңиш	-9.86516
▁Андай	-9.86584
▁жакшыртуу	-9.86623
▁аракетин	-9.86633
▁арызын	-9.86642
▁тарыхында	-9.86721
▁За	-9.86761
мен	-9.8688
▁берки	-9.86885
▁кошуп	-9.86892
▁сураган	-9.8692
▁э	-9.86996
▁түздү	-9.87063
▁абалына	-9.87103
ак	-9.8712
▁август	-9.87121
жарак	-9.8715
▁мажбур	-9.87156
▁турабыз	-9.87169
▁сан	-9.87201
▁кетсе	-9.87203
▁алынат	-9.87215
▁мамилеси	-9.87228
▁көздөп	-9.8725
▁теле	-9.87292
▁арызы	-9.87303
▁Мо	-9.87326
ве	-9.87327
▁валюта	-9.87334
▁пайызы	-9.87411
▁абагына	-9.87472
▁кризис	-9.87498
▁мисал	-9.87529
▁чогулган	-9.87585
▁бийлигин	-9.8762
▁ырайы	-9.87641
▁ээлеп	-9.87686
▁кылышты	-9.87701
энелер	-9.87716
▁жашайт	-9.87754
ый	-9.87873
▁күчөтүү	-9.87935
▁кармаган	-9.88
▁товарларды	-9.8805
▁машине	-9.88111
▁кылмыштар	-9.88138
▁Андыктан	-9.88204
▁каражатты	-9.88232
▁Дания	-9.88265
▁органдарына	-9.88305
ут	-9.88316
▁жерлерде	-9.88329
▁Мекен	-9.88337
▁бекем	-9.88444
▁текшерип	-9.88478
баева	-9.88483
▁ооруну	-9.88495
▁медал	-9.885
▁жетекчи	-9.88579
Бир	-9.88587
▁сунушу	-9.88635
▁кг	-9.88772
Бүтүн	-9.88795
▁Өлкөдө	-9.88828
k	-9.88843
▁сайтына	-9.88974
▁коомдо	-9.88982
▁Су	-9.88984
В	-9.88993
▁жокпу	-9.89018
▁кирди	-9.89069
▁багытында	-9.89084
▁тун	-9.89142
▁жылуу	-9.89182
▁кере	-9.89194
▁тандоо	-9.89236
▁кесип	-9.89265
▁тилин	-9.89284
▁өтүнүчү	-9.89429
▁тармакта	-9.89434
▁экендигин	-9.89466
▁калганда	-9.89479
лаган	-9.89579
▁ч	-9.89609
▁сунуштады	-9.89634
▁Тай	-9.89701
▁З	-9.89703
олог	-9.89717
▁бак	-9.89756
▁албетте	-9.89817
▁акциялары	-9.89854
▁мын	-9.89888
▁Х	-9.89891
al	-9.89902
шев	-9.89945
▁катарында	-9.8998
суна	-9.90127
▁колу	-9.90154
▁экономикасы	-9.90168
▁сура	-9.90219
▁жыйыны	-9.90245
▁Га	-9.90259
▁кем	-9.90405
▁жагдайлар	-9.90408
▁белгилейт	-9.9041
▁ойдо	-9.9045
▁Телеграм	-9.90466
t	-9.90566
▁Ра	-9.90578
▁кетишкен	-9.9059
▁жаратып	-9.9065
▁пайдаланып	-9.90653
▁нерсени	-9.90664
▁таануу	-9.90674
▁сөзүнө	-9.90719
▁айланган	-9.90809
▁кый	-9.90816
▁бөлүнгөн	-9.90867
син	-9.9091
▁окшош	-9.90931
▁Жапония	-9.9094
▁Ю	-9.90983
▁санкцияларды	-9.91049
мент	-9.91073
▁сутка	-9.91092
▁жөнөкөй	-9.91186
▁кабылып	-9.91366
▁тери	-9.91416
▁Азербайжанды	-9.91439
▁айыптады	-9.91459
▁десек	-9.91462
▁билдиришкен	-9.91463
▁Навальный	-9.9149
кара	-9.91504
▁талаа	-9.91537
▁Германияны	-9.91573
▁Мирзиёев	-9.91617
▁Москваны	-9.91621
▁Жыйын	-9.91686
▁Европада	-9.9173
▁быйылкы	-9.91748
▁дыгы	-9.91762
▁үйлөр	-9.918
▁утуп	-9.91877
рак	-9.91916
▁чыккандар	-9.91959
из	-9.91966
▁анализ	-9.92049
ян	-9.92066
▁55	-9.92097
▁кызматкерлерине	-9.92165
▁катарына	-9.92214
▁салт	-9.9222
экономикалык	-9.92268
▁кишилерди	-9.92376
▁жылдыгын	-9.92418
пай	-9.92454
▁адамдары	-9.92555
▁бекемдөө	-9.92568
▁көбөйтүү	-9.92616
▁Кайра	-9.92629
▁берерин	-9.92668
▁каржылоо	-9.92669
▁шаарларында	-9.92684
тери	-9.92712
▁ачкан	-9.92725
▁көмөк	-9.92738
▁жерлер	-9.92745
ева	-9.9279
▁Навальныйды	-9.92815
▁санкциялар	-9.92913
мө	-9.92945
▁балл	-9.93045
▁турушту	-9.93122
▁Дмитри	-9.93128
▁Эч	-9.93134
▁таба	-9.93197
дейт	-9.93209
бирине	-9.93228
▁климатты	-9.93262
▁келбеген	-9.93326
▁жарандыгын	-9.93352
▁ишмер	-9.93392
ары	-9.93428
▁пост	-9.9346
▁Ку	-9.93523
экстремисттик	-9.93525
инг	-9.93591
▁Максат	-9.93702
лери	-9.93703
▁бузуп	-9.93711
▁39	-9.9375
▁башкарган	-9.93757
m	-9.9376
▁Текебаев	-9.93764
▁жайды	-9.93769
▁БУУ	-9.93772
▁ңыз	-9.93785
▁кадыр	-9.93808
▁экономиканы	-9.93808
▁кырдаалда	-9.9385
▁дарылоо	-9.93897
▁кызматтары	-9.93946
▁эркек	-9.93972
▁Балким	-9.93973
▁Менимче	-9.93973
▁көчүп	-9.93974
Сай	-9.93999
▁бербейт	-9.94007
▁Те	-9.94107
чаралар	-9.94176
▁курултай	-9.94241
жыл	-9.94288
▁Парламентти	-9.94336
▁кимди	-9.9436
▁көтөргөн	-9.94393
▁жолугушууда	-9.94405
▁жиберген	-9.94435
▁тапшырган	-9.94468
▁калыс	-9.9447
▁бөлүнүп	-9.94541
▁Алгач	-9.94551
▁жайларда	-9.94564
же	-9.94603
унда	-9.94707
▁то	-9.94765
▁аман	-9.94781
Ислам	-9.94824
▁чалгын	-9.94825
▁Азамат	-9.94826
▁башталып	-9.94843
▁тактап	-9.94904
▁катышуучулары	-9.94905
▁Эмгек	-9.9496
▁Назарбаев	-9.95054
▁убакытта	-9.9508
▁соттолгон	-9.95101
▁жатты	-9.95104
▁2012-	-9.95111
▁башталат	-9.95161
▁жүрүү	-9.95182
▁мыйзамдарды	-9.95211
▁үйү	-9.95212
▁эмесмин	-9.95238
▁өзгөрүүлөр	-9.95304
▁түн	-9.95331
▁өздөрүнү	-9.95367
▁күмүш	-9.95398
▁42	-9.95434
▁булар	-9.95453
түз	-9.95572
▁тура	-9.9558
▁чектеш	-9.9562
▁турганда	-9.9568
▁таанылган	-9.95689
▁таратты	-9.957
▁турушат	-9.95701
▁чыгыш	-9.95727
▁кошуна	-9.95737
▁компанияны	-9.95738
▁жаранды	-9.95752
▁оңдоо	-9.95758
▁жолдо	-9.95825
▁кары	-9.95906
▁оюндары	-9.95908
▁базар	-9.95958
▁Акыйкатчы	-9.95973
▁жылуулук	-9.95993
▁Хан	-9.96052
▁кайрылуусунда	-9.96059
▁Ту	-9.96143
▁сапат	-9.96183
▁топторду	-9.96186
▁Кремлди	-9.96192
▁600	-9.9622
▁тургундарды	-9.96229
▁жайында	-9.96261
убуз	-9.96265
▁каккан	-9.96271
▁мигрант	-9.96272
▁кылабыз	-9.96305
▁43	-9.96411
▁Коомду	-9.96432
▁программа	-9.96437
▁Эркин	-9.96484
▁күмөн	-9.96535
▁Лукашенко	-9.96577
c	-9.9665
▁көздөй	-9.96731
▁ташуу	-9.96738
▁иштели	-9.96739
ация	-9.96748
Н	-9.96764
▁Ча	-9.96836
▁астында	-9.96878
▁мугалим	-9.96954
▁коргоп	-9.96998
▁жетет	-9.97067
▁пандемиясы	-9.97107
▁өткөрдү	-9.97168
▁паспорт	-9.97249
▁Улут	-9.97274
жи	-9.97274
▁47	-9.9731
▁тургун	-9.97359
▁кичи	-9.97379
▁алдык	-9.97413
▁Кол	-9.97426
▁тыйын	-9.97428
p	-9.97456
тап	-9.97484
▁мөөнөтүнө	-9.9755
▁табы	-9.97563
тө	-9.9765
▁натыйжасын	-9.97711
▁аймактарды	-9.97738
T	-9.97764
ом	-9.9782
▁моюн	-9.97837
▁музыка	-9.97902
▁жолдор	-9.97935
▁Коррупция	-9.9795
▁чыкканы	-9.97986
▁Анкара	-9.98005
▁талапкерлерди	-9.98047
▁кезинде	-9.98071
▁айым	-9.98076
▁коопсуздугу	-9.98139
▁мезгил	-9.98146
▁арзан	-9.98149
▁тен	-9.98222
зи	-9.98297
сүн	-9.98306
▁жеңип	-9.98316
▁кылышкан	-9.98331
▁чаралары	-9.98349
▁Өлкөнү	-9.9838
▁палатасы	-9.98423
▁Ан	-9.986
▁белгиленди	-9.98604
▁тарбия	-9.98622
ха	-9.98646
өгө	-9.98705
чет	-9.98723
▁райондордо	-9.98749
▁акчасын	-9.98755
▁себепте	-9.98862
▁Евробиримдикти	-9.98882
▁радикал	-9.98884
▁бек	-9.99018
▁ча	-9.99037
▁овду	-9.9912
▁саясатын	-9.99131
▁блогер	-9.99174
▁барбы	-9.99184
▁берене	-9.99274
▁системасын	-9.99277
Курманбек	-9.99282
▁догу	-9.99286
▁Баары	-9.99391
▁Мадумаров	-9.99433
үч	-9.99441
▁Салык	-9.99447
▁эт	-9.99448
йрыкча	-9.99477
▁уюштуруп	-9.99498
▁билип	-9.99514
▁Кал	-9.99514
▁Замир	-9.99527
▁ишкерлерди	-9.99556
▁ойлоп	-9.99583
▁тийген	-9.99622
▁куб	-9.99715
▁маек	-9.99719
август	-9.9975
▁шайлоочуларды	-9.99772
kg	-9.99826
▁Экинчиден	-9.99848
▁штабы	-9.99904
тир	-9.99907
▁багыт	-9.99908
▁орнотуу	-10.0012
Эркин	-10.0014
▁сында	-10.0015
▁суна	-10.0016
▁мыйзамда	-10.002
▁Бакиев	-10.0025
баса	-10.0031
▁айды	-10.0038
▁Дүйшөмбү	-10.0038
▁лөр	-10.0039
▁энергиясы	-10.004
▁жатпайбы	-10.004
▁Таалай	-10.0042
ошого	-10.0045
▁Казак	-10.0054
▁Аб	-10.0059
▁кант	-10.0061
▁ушуну	-10.0064
▁жабуу	-10.007
▁Бажы	-10.007
▁Де	-10.0071
▁администрация	-10.0072
чыл	-10.0075
▁эреже	-10.0076
▁ИИМди	-10.0078
бе	-10.0078
▁Жаза	-10.0086
▁мектептер	-10.01
▁түзүмдөрү	-10.0106
▁баратат	-10.0107
▁дене	-10.0109
▁министрлик	-10.0113
▁түрмө	-10.0114
▁Финансы	-10.0117
▁!"	-10.0118
▁уу	-10.0124
▁P	-10.0127
▁генерал	-10.0132
▁киргизип	-10.0132
▁демилге	-10.0134
°	-10.0136
▁алмашуу	-10.0141
үр	-10.0143
▁жүрүшү	-10.0144
▁тармакты	-10.0147
▁сыр	-10.015
▁Интернет	-10.0159
▁Нью	-10.0161
ров	-10.017
▁кесепети	-10.0183
▁аялды	-10.0191
▁июль	-10.0205
жай	-10.0206
h	-10.0209
Мен	-10.0213
▁талапкерлер	-10.0216
▁Ша	-10.022
▁тосуп	-10.0222
▁жуктуруп	-10.0223
▁сотунда	-10.0223
▁дайынсыз	-10.0223
ист	-10.0224
▁чыкса	-10.0228
ӊ	-10.0229
▁B	-10.0232
ология	-10.0234
▁ислам	-10.0235
▁артына	-10.0238
дыгы	-10.0239
▁аш	-10.0241
▁Республика	-10.0242
▁көр	-10.0243
▁евро	-10.0254
▁уюшкан	-10.0254
▁бериш	-10.0256
▁сындаган	-10.0258
▁колдонгон	-10.0258
▁лөрдү	-10.0268
▁өзгөртүүлөр	-10.0284
▁кепилдик	-10.0284
▁академиясы	-10.0289
▁Бакиевди	-10.0298
▁ташыган	-10.0298
▁41	-10.03
▁БШКны	-10.0312
▁дык	-10.0313
▁иликтеп	-10.0315
▁Аба	-10.0318
▁батир	-10.0319
▁түздөн	-10.0324
▁буруу	-10.0325
султан	-10.0338
▁көтөрүлгөн	-10.0339
▁ордун	-10.034
▁пикири	-10.0342
▁айтышууда	-10.0347
▁эр	-10.0348
▁Конституцияны	-10.0355
▁лицензия	-10.0357
▁Кур	-10.0359
лүгү	-10.036
ам	-10.0364
▁жүрдү	-10.0365
▁жаа	-10.0375
▁козголуп	-10.0377
▁жаатта	-10.0378
▁Кандай	-10.0382
▁Бол	-10.0382
акыр	-10.0383
▁мисалы	-10.0401
жайы	-10.0401
ивдүү	-10.0404
▁жаткандар	-10.0422
▁инфекция	-10.0431
▁чегинде	-10.0435
l	-10.0436
▁өнөктүгү	-10.044
▁келерин	-10.0443
▁айыпталган	-10.0443
рт	-10.0444
",-	-10.0452
▁тууганы	-10.0457
▁тү	-10.0457
кей	-10.0464
▁буйругу	-10.0471
▁көбүнчө	-10.0472
▁сурады	-10.0476
▁жөнүндөгү	-10.0484
▁коюшту	-10.0504
▁Адистер	-10.0505
▁негизсиз	-10.0508
▁кошто	-10.051
▁Чет	-10.051
кеев	-10.0511
▁планы	-10.0512
лет	-10.0516
▁соолугу	-10.0525
▁тай	-10.0527
▁дрон	-10.0528
▁кызматташтыкты	-10.0534
▁жаайт	-10.0536
▁гезити	-10.0541
▁экенине	-10.0543
▁белгилери	-10.0551
▁кап	-10.0556
▁билбей	-10.0564
▁адвокат	-10.0567
▁учкуч	-10.0572
▁баштаганын	-10.0575
▁азайтуу	-10.058
ыбыз	-10.058
▁A	-10.0582
▁эгемендик	-10.0592
▁улут	-10.0596
ой	-10.0598
▁жаса	-10.0603
▁өрөөнүндө	-10.0605
▁0	-10.0608
ийгиликтүү	-10.0614
▁келгендер	-10.0615
▁жарлык	-10.0615
▁сүйлөгөн	-10.062
▁кошулган	-10.0621
▁жайда	-10.0626
▁Равшан	-10.063
▁өзүбүз	-10.0631
▁барганда	-10.064
▁көздөгөн	-10.0645
▁жабылган	-10.0655
▁эсептелет	-10.0663
▁тирүү	-10.0664
сентябрь	-10.0666
▁65	-10.0666
▁албайм	-10.0672
▁Президенттик	-10.0675
▁тилкесинде	-10.0691
асы	-10.0691
▁2005-	-10.0694
▁какты	-10.0695
▁мүлктү	-10.0696
▁Бар	-10.0696
▁айылына	-10.0698
▁курамында	-10.0707
▁жүргөнүн	-10.0707
▁курулган	-10.0709
▁орган	-10.0716
▁Орто	-10.0724
▁киргизилди	-10.0727
▁ачылды	-10.0727
▁абалын	-10.0727
▁Ташкент	-10.0727
▁кесипти	-10.0728
▁шилтеме	-10.0729
▁Каракол	-10.074
▁бузган	-10.0749
▁сүрөтү	-10.0749
▁былтыркы	-10.075
▁болору	-10.075
▁камтылган	-10.076
▁башкарып	-10.0766
▁тапшырды	-10.0767
▁көк	-10.0767
▁өткөрмө	-10.0774
▁токтом	-10.0785
▁H	-10.0785
▁Натыйжада	-10.0793
▁машыгуу	-10.0793
▁талаптар	-10.0799
▁суроолорун	-10.0801
▁Лейлек	-10.0801
▁окумуштуулар	-10.0802
▁Ш	-10.0804
▁чындык	-10.0804
▁Сапар	-10.0804
▁алгандарды	-10.0808
▁жатышканын	-10.0808
▁аппарат	-10.0809
▁келечеги	-10.0818
▁жетектеп	-10.0826
▁түшүндүрмөсү	-10.0828
▁бош	-10.0843
▁көзөмөлдө	-10.0846
аясий	-10.0858
▁си	-10.0859
20	-10.0862
▁түнкү	-10.0866
▁Германияда	-10.0873
гысы	-10.0874
▁сөздү	-10.0884
▁саатта	-10.0886
▁эсеби	-10.0887
▁эмгеги	-10.0889
▁жүрө	-10.089
▁айлана	-10.0892
▁тармак	-10.0896
E	-10.0897
ей	-10.0897
▁шарттар	-10.0903
▁атабыз	-10.0914
үрткү	-10.0914
рин	-10.0918
▁Исаков	-10.0918
er	-10.0919
▁төрайымы	-10.0922
▁төрөлгөн	-10.0922
▁кечээ	-10.0923
рат	-10.0925
▁пикирлер	-10.093
▁пикирде	-10.0932
▁казакстандык	-10.0936
▁Ор	-10.0948
▁кызыл	-10.0949
▁ишканалар	-10.0951
▁план	-10.0955
▁айыгып	-10.0956
▁кеңешме	-10.0957
▁билдирет	-10.096
▁кеч	-10.0967
▁эркектер	-10.0972
сак	-10.098
▁пикиринде	-10.0982
▁мусулман	-10.0983
▁үнүн	-10.0984
▁жоопкерчилиги	-10.0984
саясий	-10.0987
Центерра	-10.0988
▁сакталып	-10.0989
▁чечип	-10.0989
Султан	-10.0992
an	-10.0993
?"	-10.0994
▁уруп	-10.0995
▁Ре	-10.0997
▁технология	-10.0998
▁чарасы	-10.1
▁г	-10.1005
▁Элди	-10.1009
▁келүүдө	-10.1011
оз	-10.1013
▁ишмердигин	-10.1013
▁өзүбүздү	-10.1013
▁аянты	-10.102
орточо	-10.1023
▁кел	-10.1036
▁койсо	-10.1038
▁Бейшеналиев	-10.1039
▁кеңсеси	-10.1044
тоо	-10.1046
▁турса	-10.1049
▁чи	-10.1054
▁арасы	-10.1054
▁тескерисинче	-10.1055
▁имараты	-10.1055
▁даярдап	-10.1058
▁кечирим	-10.106
▁төлө	-10.1063
▁байланышта	-10.1064
ура	-10.1071
▁жактагы	-10.1077
▁F	-10.1079
▁албаган	-10.1079
▁Польша	-10.108
дармек	-10.1088
уучу	-10.1089
▁созулган	-10.109
▁айланды	-10.1103
▁маселесине	-10.1105
▁калтырган	-10.1109
▁жанына	-10.1114
▁келишти	-10.1124
▁ажыратуу	-10.1125
▁ээлери	-10.1127
▁Дал	-10.1129
▁киргенде	-10.1131
▁жеринде	-10.1143
▁партиясына	-10.1144
▁Сузак	-10.1144
▁Газада	-10.1149
өл	-10.1152
▁таштанды	-10.1156
бас	-10.1156
▁февраль	-10.1157
▁театр	-10.116
▁натыйжалуу	-10.116
есе	-10.1162
▁кур	-10.117
▁илдети	-10.1173
▁тек	-10.1178
▁долбоорлор	-10.1183
▁кенин	-10.1183
▁Асанов	-10.1184
▁көчөдө	-10.1184
▁тармагына	-10.1187
муниципалдык	-10.1189
▁айларында	-10.119
▁бузуулар	-10.1192
▁учуру	-10.1194
▁спортту	-10.1199
▁Сөз	-10.1199
ми	-10.12
▁кызыкчылыгы	-10.1204
▁тажрыйбасы	-10.1211
▁районуна	-10.1211
▁ли	-10.1212
▁нү	-10.1217
▁жоктугун	-10.1221
▁кеңешчиси	-10.1224
▁лук	-10.1239
▁кимдер	-10.125
▁Со	-10.1252
▁тарыхы	-10.1254
▁алдыда	-10.1256
▁жаштарды	-10.1257
▁жазылып	-10.1258
▁кетишти	-10.1258
▁талаптарын	-10.1275
▁радиосун	-10.1278
▁автобус	-10.1288
▁глобал	-10.1291
▁жалаң	-10.1292
▁күйүүчү	-10.1292
▁имарат	-10.1303
▁силер	-10.1307
▁Ро	-10.1311
Сиге	-10.1311
▁пандемиясына	-10.1311
▁жазуу	-10.132
Бул	-10.1323
▁мугалимдер	-10.1324
▁мобилизация	-10.1325
▁ушунча	-10.1326
▁мүлк	-10.1329
▁арасын	-10.1342
▁кырсыгы	-10.1343
▁ларга	-10.1344
▁башта	-10.1344
жайын	-10.1345
▁жарандарына	-10.135
▁чакты	-10.1362
▁борборуна	-10.1363
▁сун	-10.1366
▁төрага	-10.1366
▁авто	-10.1367
▁Кан	-10.1368
▁аралаш	-10.1371
▁Тажик	-10.1375
▁Таш	-10.1376
өзбек	-10.1378
▁54	-10.1378
▁кое	-10.1382
▁бүткөн	-10.1383
▁Р	-10.1385
▁машина	-10.1386
▁жумушта	-10.1386
▁Кудай	-10.1387
аев	-10.1387
▁тапшырма	-10.1388
▁которуу	-10.1393
▁дүйнөсү	-10.1394
▁2013-	-10.1395
▁эскерүү	-10.1396
▁жаратты	-10.1397
мдуу	-10.1398
▁режими	-10.1398
▁чоо	-10.1409
▁сү	-10.1417
▁долбоорлорду	-10.1417
▁кошкон	-10.1425
▁өткөрүлүп	-10.1429
▁шамал	-10.143
▁коюлуп	-10.143
▁кыргыздарды	-10.1435
▁M	-10.1436
▁Барды	-10.1439
▁жу	-10.1452
▁Азим	-10.1454
шат	-10.1463
▁V	-10.1463
▁Блинкен	-10.1464
▁Венгрия	-10.1464
▁Полиция	-10.1464
▁болсун	-10.1464
▁качуу	-10.1467
▁бомба	-10.1468
▁58	-10.1472
▁кагаз	-10.1484
▁нерселер	-10.1489
▁хан	-10.1492
теги	-10.1493
▁Журналист	-10.1493
▁Ооба	-10.1499
▁себебин	-10.1506
▁ңар	-10.1511
▁мамлекеттерде	-10.1511
▁иштебей	-10.1518
▁коопсуздукту	-10.1526
▁китеби	-10.1527
▁жарандарын	-10.1534
▁балким	-10.1534
ав	-10.1539
▁келтирилген	-10.1539
▁кирешеси	-10.154
▁келечекте	-10.1542
▁гүл	-10.1542
▁кир	-10.1543
▁тургай	-10.1544
▁балбан	-10.1546
▁психология	-10.1548
▁Кон	-10.1548
▁натыйжа	-10.1552
▁аныктаган	-10.1569
▁убактысы	-10.1569
▁окутуу	-10.1573
▁түшүнүк	-10.1575
▁Жети	-10.1575
▁жакындарына	-10.1577
▁кишиде	-10.158
▁жайлар	-10.158
r	-10.1586
▁Согуш	-10.1592
▁шартында	-10.1596
▁катыша	-10.1599
▁клиника	-10.16
▁Булар	-10.1601
▁калышты	-10.1607
▁долбооруна	-10.1608
▁акими	-10.161
▁дор	-10.1613
▁баалуу	-10.1619
чулар	-10.1622
▁кыздарды	-10.1626
▁мамлекеттери	-10.1626
майга	-10.1627
▁Пакистан	-10.1629
▁дарыгерлерди	-10.1633
▁айылда	-10.1634
▁аларын	-10.1637
лса	-10.1641
▁Кубанычбек	-10.1644
▁Арменияны	-10.165
▁өткөрүүнү	-10.1653
▁техника	-10.1657
▁мыйзамдарын	-10.1659
▁тааныган	-10.1661
▁49	-10.1662
▁тизмесин	-10.1671
▁кенен	-10.1671
▁атуу	-10.1673
▁себептер	-10.1673
▁2011-	-10.1675
▁даража	-10.1675
▁бардыгын	-10.1675
▁Улук	-10.1682
▁дегендей	-10.1682
лип	-10.1684
▁учагы	-10.169
▁саммити	-10.1694
▁алам	-10.1703
▁жүргүзүлүп	-10.171
▁көрүнүп	-10.171
▁Адаха	-10.1711
▁курамы	-10.1713
▁беришет	-10.1716
▁окуучу	-10.1718
▁бузду	-10.1722
▁туткун	-10.1724
▁коюшкан	-10.1725
▁Анткен	-10.1728
▁катышат	-10.173
▁айтканы	-10.1738
▁тейлөө	-10.1739
▁Канада	-10.174
▁дайындалды	-10.1746
▁тазалоо	-10.1751
▁46	-10.1752
▁факты	-10.1764
▁мааниси	-10.1773
▁жайына	-10.1775
b	-10.1781
▁лерди	-10.1781
▁Сар	-10.1782
▁камалды	-10.1782
ашы	-10.1783
▁айтышат	-10.1786
▁баев	-10.1789
▁Адвокат	-10.179
▁Мамытов	-10.1793
▁алда	-10.1793
▁Херсон	-10.1796
▁Байденди	-10.1801
октябр	-10.1803
▁Батышты	-10.1806
▁кез	-10.1806
▁маркум	-10.1809
догон	-10.1809
матов	-10.1818
▁Төрт	-10.1818
▁Мирлан	-10.1819
▁турушу	-10.182
▁жуу	-10.183
▁аскерлерин	-10.1835
төн	-10.1836
▁студент	-10.1838
▁көйгөйлөр	-10.1838
шондуктан	-10.184
▁эркиндигине	-10.1841
лов	-10.1843
▁НАТОну	-10.1849
эл	-10.1852
▁ме	-10.1854
▁аныктап	-10.1854
▁бат	-10.1855
▁курамына	-10.1859
▁спортчу	-10.1861
▁документти	-10.1871
▁жаз	-10.1875
▁жазгандай	-10.1875
▁атышуу	-10.1876
▁бюджетте	-10.1878
▁ий	-10.1878
▁тизмеси	-10.1879
доо	-10.1884
▁кайтыш	-10.1891
▁жокпуз	-10.1897
үл	-10.1903
жо	-10.1904
▁балдарын	-10.1904
мун	-10.1906
▁дик	-10.1908
▁жокмун	-10.1909
▁компаниялары	-10.1914
▁ларын	-10.1926
▁баңгизат	-10.1927
▁каналы	-10.1928
▁спикер	-10.1929
▁фактысы	-10.1935
бөй	-10.1936
▁материалдык	-10.1938
▁ооз	-10.1946
▁сөздөрдү	-10.1947
▁даана	-10.1948
▁зарылдыгын	-10.1954
▁Мар	-10.1955
▁кай	-10.1956
▁Кай	-10.1957
иши	-10.196
▁кулак	-10.1964
▁Асыл	-10.1964
▁Талант	-10.1969
▁талдоочу	-10.1972
▁чемпионаты	-10.1974
▁Шер	-10.1975
▁чыгара	-10.1978
▁кыргызча	-10.1979
диги	-10.1985
▁сактоого	-10.1986
▁факт	-10.1989
▁тагылган	-10.199
▁жетекчилер	-10.1991
▁Беш	-10.1991
▁саясатта	-10.1993
▁багыты	-10.1996
чусу	-10.1999
гыла	-10.2
▁ээлеген	-10.2001
боо	-10.2003
▁жакыны	-10.2008
▁баасын	-10.2019
▁Султан	-10.2026
▁Айтматов	-10.2028
▁таратуу	-10.2037
▁Он	-10.2037
Элдик	-10.2049
▁ортодо	-10.2051
▁баштаганда	-10.2051
▁Парламент	-10.2055
▁чай	-10.2061
▁жерлерди	-10.2063
Вагнер	-10.2066
▁аракеттерди	-10.207
▁туризм	-10.2071
▁артыкчылык	-10.2072
▁1990-	-10.2073
▁Шавкат	-10.2073
▁кенемте	-10.2073
▁жогорулатуу	-10.2073
▁түшүнүп	-10.2074
▁салынат	-10.2076
▁банктар	-10.2077
▁өлкөсү	-10.2078
▁бейтаптар	-10.2086
▁күчүндө	-10.2087
▁Кайсы	-10.2088
▁чабуулуна	-10.2088
▁берилери	-10.2095
▁тары	-10.2099
▁Таласта	-10.2099
▁жөө	-10.2104
▁Кор	-10.2115
▁Манас	-10.2115
▁калтырды	-10.2119
▁жетекчилик	-10.2119
таев	-10.212
▁жаратылыш	-10.2123
▁каражаттар	-10.2127
▁кетсек	-10.2139
Л	-10.2141
▁Суу	-10.2141
▁Түркмөнстан	-10.2145
▁салынды	-10.2148
▁Абаны	-10.2152
▁аралашкан	-10.2158
▁келинди	-10.2162
▁өлкөлөрүнө	-10.2165
▁үнү	-10.2171
▁материалдар	-10.2174
▁жанындагы	-10.2182
▁бөлүм	-10.2182
▁Свердл	-10.2185
▁кесилген	-10.2185
▁радио	-10.2187
▁сыйлык	-10.219
▁эркиндигин	-10.2194
▁жашында	-10.2194
▁тинтүү	-10.2194
▁120	-10.2196
▁тал	-10.2211
▁берилгенин	-10.2213
▁катышуусу	-10.2216
кс	-10.2218
▁тартылып	-10.2224
▁чекте	-10.223
▁жарылуу	-10.223
▁саткан	-10.223
▁сынак	-10.2234
▁катышууда	-10.2236
▁бүтүн	-10.2246
▁тизмеге	-10.2247
рап	-10.2247
▁колдоосу	-10.2248
атты	-10.225
▁жайлары	-10.2253
▁Балдар	-10.2256
жылкы	-10.2257
▁күтүлүүдө	-10.226
▁ыңгайлуу	-10.226
▁сак	-10.2271
лерди	-10.2273
▁Андре	-10.2274
▁бериле	-10.2275
▁Хо	-10.2278
▁жолдорун	-10.2285
▁фонд	-10.2286
▁профессор	-10.2286
▁болушту	-10.2292
▁койгонун	-10.2292
▁башын	-10.2293
▁өкүл	-10.2294
▁Италия	-10.2297
▁азайып	-10.2298
▁каптаган	-10.2298
▁улантып	-10.2299
▁2,5	-10.23
▁тартыш	-10.23
▁кызыкдар	-10.2301
▁Нурлан	-10.2304
иев	-10.2306
▁57	-10.2306
▁сизди	-10.2308
▁калууда	-10.2319
▁реакция	-10.2325
▁кор	-10.2333
▁милдети	-10.2341
▁аракеттерин	-10.2342
дерди	-10.2343
▁Аскер	-10.235
▁вакцинаны	-10.2352
▁инфраструктура	-10.2352
▁жумган	-10.2364
▁дешти	-10.2368
тыгы	-10.237
▁Михаи	-10.2374
▁чогултуп	-10.2374
▁Кечээ	-10.2374
▁эсептелген	-10.2375
▁чалып	-10.2377
▁лы	-10.2378
▁компанияларды	-10.238
▁байыр	-10.2383
▁четте	-10.2386
▁Каны	-10.2388
▁Му	-10.2389
▁жатышы	-10.2397
▁чыгарууну	-10.2399
▁тапшырмасы	-10.24
▁Рахмон	-10.2405
▁министрликти	-10.2405
▁түрлөрү	-10.241
▁чемпиону	-10.2415
▁тилдүү	-10.2417
▁68	-10.2418
ткан	-10.2419
▁Донецк	-10.2424
▁ни	-10.2433
▁урмат	-10.2436
▁казына	-10.2436
ИИМ	-10.2441
▁саясатты	-10.2442
▁өскөн	-10.2442
▁Се	-10.2449
▁жылдагы	-10.245
▁Запорожье	-10.245
▁жөнөтүү	-10.2452
▁күрөштү	-10.2457
▁КМШ	-10.2461
▁Не	-10.2467
▁булактарына	-10.2469
▁Ху	-10.2471
▁сунушун	-10.2474
▁айтыш	-10.2475
▁ынын	-10.2483
▁колдон	-10.2485
▁дегендер	-10.2487
▁реалдуу	-10.2487
▁шарты	-10.249
▁келтирип	-10.249
хо	-10.2496
▁бекер	-10.2496
▁жүргөнү	-10.2505
айын	-10.2513
▁баарыбыз	-10.2513
▁Пандемия	-10.2516
иш	-10.2518
▁инде	-10.2521
▁Тегеран	-10.2522
▁бел	-10.2523
▁сен	-10.2523
▁үчөө	-10.2523
▁маңзат	-10.2527
▁көтөрүлдү	-10.2527
▁бербөө	-10.2527
▁иниси	-10.2528
▁курулуп	-10.2528
▁аныкталып	-10.2529
од	-10.2532
▁аткарган	-10.2532
▁органдарды	-10.2534
оп	-10.2534
▁Айт	-10.2537
▁акысы	-10.254
ar	-10.254
▁база	-10.2542
▁топто	-10.2548
▁той	-10.2549
июл	-10.2552
Тез	-10.2558
▁лидер	-10.2566
▁Араб	-10.2567
▁жаралган	-10.2567
▁кошумчалаган	-10.2568
▁катышканы	-10.2569
Көлдө	-10.257
▁Молдо	-10.2572
▁Аксы	-10.2576
▁татык	-10.2576
мин	-10.2578
▁талапкерлигин	-10.259
▁ийгилик	-10.2591
▁чарасын	-10.2595
▁корго	-10.2595
▁жүргүзүлгөн	-10.2595
▁53	-10.2596
▁үлүшү	-10.2604
▁Нурбек	-10.2605
▁тааныш	-10.2606
▁жергесинде	-10.2606
▁бирөөнү	-10.2607
сентябр	-10.2608
▁чыгышында	-10.2609
▁жетүү	-10.261
Эл	-10.2612
▁терге	-10.2617
▁Биринчиден	-10.2622
▁карашы	-10.2623
▁соттор	-10.2626
▁көтөрүү	-10.2629
дегенде	-10.2633
▁көбөйгөн	-10.2641
▁Энергетика	-10.2644
▁тапшырып	-10.2645
▁жолукту	-10.2653
▁өзүндө	-10.2654
▁Аман	-10.2656
▁өспүрүм	-10.266
▁уюштурулган	-10.266
▁базасы	-10.2667
▁тапшыруу	-10.2668
▁күчтөрүн	-10.2669
▁үстүндө	-10.2669
▁тилкеси	-10.267
ѳ	-10.2671
дүк	-10.2672
ула	-10.2673
енко	-10.2673
▁айтылгандай	-10.2673
▁800	-10.2676
▁жабыр	-10.2678
▁эгемен	-10.2678
▁үлгүсүн	-10.268
▁Бекешев	-10.2683
▁жетишсиз	-10.2683
▁казуу	-10.2683
▁отуз	-10.2685
▁Темиров	-10.2685
▁тандап	-10.2687
▁Сары	-10.2693
▁Крым	-10.2695
▁жолугушуусу	-10.2697
▁Куралд	-10.2698
▁экспорт	-10.2703
▁сал	-10.2708
▁көзөмөлдөп	-10.2708
▁сумма	-10.2712
▁бой	-10.2716
▁суук	-10.2716
ас	-10.2719
▁дерди	-10.2719
▁коопсуздугуна	-10.2721
▁дарыланып	-10.2723
▁белгилегендей	-10.2725
▁жайылып	-10.2726
▁кылганын	-10.2738
▁суммасы	-10.2747
▁Аш	-10.2749
▁бөлмө	-10.2753
▁атам	-10.2759
▁52	-10.276
▁болбош	-10.2762
▁таанымал	-10.2762
▁сатылып	-10.2764
▁төр	-10.2765
▁камты	-10.2769
▁өч	-10.2769
▁жыйынтыгына	-10.2771
▁түшөт	-10.2772
▁форма	-10.2781
▁Ни	-10.2785
▁болбогонун	-10.2789
ок	-10.279
▁алсак	-10.2796
▁Боронов	-10.2802
▁качкан	-10.2803
▁өнүгүшү	-10.2806
Х	-10.2807
M	-10.2809
▁Па	-10.281
▁жылкы	-10.2812
▁ишмердиги	-10.2812
▁энеси	-10.282
▁аппараты	-10.2823
▁85	-10.2827
▁карама	-10.283
бет	-10.283
▁өтөп	-10.2833
▁зор	-10.2842
Башы	-10.2849
▁Сыдыков	-10.2851
▁жөнөткөн	-10.2854
▁башталганын	-10.2857
▁То	-10.2859
▁Абылгазиев	-10.2862
▁федерациясы	-10.2864
▁ойго	-10.2868
▁Париж	-10.2868
▁от	-10.2871
▁Грузия	-10.2874
ше	-10.2879
▁мас	-10.288
▁күрөшү	-10.288
▁кадамдар	-10.2895
▁сотуна	-10.2895
▁Пакистанды	-10.2899
▁элде	-10.2904
▁д	-10.2907
▁акциясы	-10.2913
чылар	-10.2914
Ш	-10.2917
▁мамилени	-10.292
▁негиздөөчүсү	-10.2922
стр	-10.2924
▁Штаттар	-10.2927
▁Болгон	-10.293
▁Сулайманов	-10.293
▁бөлүмүнө	-10.2932
▁өндүрүү	-10.2936
▁көмүскө	-10.2945
▁кыйынчылыктар	-10.2945
▁репрессия	-10.2947
▁деңгээл	-10.2957
▁бирден	-10.2962
▁имаратты	-10.2965
▁узун	-10.2967
▁Кыргызстандык	-10.297
▁оңдоп	-10.2974
▁ЕАЭБ	-10.2976
леп	-10.2977
рим	-10.2981
▁жүрөк	-10.2981
ушу	-10.2988
омдук	-10.2993
▁иштеши	-10.2993
▁жугуш	-10.3002
▁2009-	-10.3003
▁камалып	-10.3003
▁чыгым	-10.3003
▁талкууланып	-10.3003
▁арбын	-10.3004
ана	-10.3011
▁тармагын	-10.3012
▁беренелери	-10.3015
▁армия	-10.3017
▁жолун	-10.302
▁56	-10.3025
зомбулук	-10.3026
▁Британияда	-10.3033
тогу	-10.3039
O	-10.3039
▁ырчы	-10.3042
▁Харьков	-10.3042
эки	-10.3043
▁кошулуп	-10.3044
▁курчуп	-10.3045
▁мигранттары	-10.3045
▁өлкөлөрүндө	-10.3045
▁кабылганын	-10.3052
▁катчы	-10.3055
▁куу	-10.3056
▁милицияны	-10.306
▁келишими	-10.3063
▁Медиа	-10.3071
▁/	-10.3083
лыгы	-10.3084
▁Макрон	-10.3084
▁өзгөрүшү	-10.3084
▁түштүгүндө	-10.3084
▁айыптоо	-10.3087
▁ачкачылык	-10.3087
▁Юсти	-10.3089
▁күйүп	-10.3089
▁сунушталган	-10.3091
ңиз	-10.3107
▁ф	-10.311
▁мэр	-10.3115
▁жуккан	-10.3115
Ч	-10.3118
▁кыш	-10.3121
▁сапаты	-10.3122
▁санарип	-10.3125
▁беларус	-10.3125
▁козгогон	-10.3128
▁баштоо	-10.3134
▁эрежелерин	-10.3134
▁тест	-10.3136
▁мекемелерди	-10.3136
▁башкарууну	-10.3139
▁62	-10.3144
үмдүк	-10.3146
▁салышты	-10.3147
чараларды	-10.3148
▁колдонулган	-10.3152
▁араб	-10.3155
▁ысык	-10.3155
▁пайдалуу	-10.3158
▁Кыз	-10.316
▁орунду	-10.316
▁билдирүүсү	-10.316
▁эскертип	-10.3167
▁автору	-10.317
▁өлчөмдө	-10.3171
▁далилдер	-10.3173
▁түп	-10.3175
▁турчу	-10.318
▁Астана	-10.3184
▁тилине	-10.3187
▁баяндама	-10.3201
▁район	-10.3202
▁коркутуп	-10.3207
▁түркмөн	-10.3207
▁жигердүү	-10.3208
декабр	-10.321
▁жыйындар	-10.3212
▁жасай	-10.322
▁ашыгы	-10.3221
төр	-10.3221
▁Кул	-10.3224
рам	-10.3229
▁жоокер	-10.3232
▁ассоциациясы	-10.3232
▁ого	-10.3233
▁акчасы	-10.3236
▁тартиби	-10.3237
▁Каза	-10.3241
D	-10.3245
▁ачылып	-10.3249
▁англис	-10.3249
▁чогултуу	-10.3253
▁саламаттыгы	-10.3256
▁63	-10.3261
▁ажыратылган	-10.3264
▁калаасы	-10.3265
▁сүт	-10.3266
▁соолугуна	-10.3278
лим	-10.3289
▁Саясат	-10.3289
▁ырастаган	-10.3291
▁түзүлдү	-10.3291
▁чыгарылып	-10.3292
▁бүтүп	-10.3292
▁Дин	-10.3292
ран	-10.3293
▁Кореяны	-10.3297
▁дууш	-10.3298
:00	-10.33
баш	-10.3305
▁процесс	-10.3311
▁өтүнүч	-10.3313
▁отурум	-10.3313
▁топтоп	-10.3313
▁эместигин	-10.3317
▁позициясын	-10.332
▁компаниясына	-10.3321
▁в	-10.3323
ая	-10.3324
▁парламенти	-10.3326
▁Реже	-10.3327
▁окуучулар	-10.3328
▁ымды	-10.333
эн	-10.3331
▁жеткирилген	-10.3332
▁моралдык	-10.3333
▁кыдырып	-10.3334
▁ишканаларды	-10.3338
▁отурумун	-10.3339
▁ичи	-10.334
▁акысыз	-10.3343
▁Сай	-10.3343
▁сың	-10.3344
Ф	-10.3348
▁ноябрь	-10.3349
▁энергия	-10.3351
▁G	-10.3355
▁250	-10.3355
▁экинчиси	-10.3355
▁Алиев	-10.3357
өзү	-10.3361
▁украиналык	-10.3363
▁этн	-10.3363
▁акциялар	-10.3368
▁акыры	-10.337
▁келишимдер	-10.3372
▁таян	-10.3373
▁өзбекстандык	-10.3375
▁чектелген	-10.3376
▁жайылтуу	-10.3377
▁шайлоочулар	-10.3378
▁Кийинки	-10.338
▁Алтын	-10.3384
▁ресурстары	-10.3385
▁кризисти	-10.3386
▁куру	-10.3388
▁ры	-10.3397
▁салат	-10.3398
▁кылышы	-10.3398
▁көрсө	-10.3413
▁регион	-10.3414
▁долларда	-10.3416
▁өсүшү	-10.3416
▁мектептерди	-10.3423
пар	-10.3424
▁өткөнүн	-10.3425
▁жалдан	-10.3426
▁Алматыда	-10.3427
▁).	-10.3429
руп	-10.3434
▁экендиги	-10.3435
ина	-10.3438
▁Африка	-10.3439
▁кесепетине	-10.3444
▁тургандай	-10.3452
n	-10.3452
▁фактылар	-10.3453
бол	-10.3454
▁жагдайды	-10.3458
▁2008-	-10.3459
▁чыңдоо	-10.3459
▁сунуштар	-10.3461
▁суроосун	-10.3465
жылдар	-10.3466
▁Катар	-10.3468
ах	-10.3469
▁азап	-10.3476
▁айла	-10.3477
▁каражаттарды	-10.348
▁саммит	-10.3484
▁коркунучтуу	-10.3485
▁салууда	-10.3492
▁төңкөрүш	-10.3502
▁жүргөндө	-10.3506
▁Ва	-10.3509
▁Интернетте	-10.3512
хи	-10.3517
▁коррупцияны	-10.3521
▁жарыгы	-10.3523
▁чакырыктар	-10.3523
▁жардыруу	-10.3524
▁адатта	-10.3525
▁көрсөтө	-10.3527
▁чамасы	-10.353
▁өлгөн	-10.3532
▁Л	-10.3533
▁жагдайда	-10.3536
▁нааразылыгын	-10.3538
▁Францияны	-10.3538
жарты	-10.3544
▁Айсулуу	-10.3544
▁кылганы	-10.3547
▁окумуштуу	-10.355
▁демонстранттар	-10.355
▁66	-10.3551
ибиз	-10.3563
▁тараптарды	-10.3564
▁өнөктөштөрү	-10.3564
▁талаптарды	-10.3566
▁Кубатбек	-10.357
▁оппозициячы	-10.357
▁судьясы	-10.3571
▁десем	-10.3573
▁Кадыр	-10.3575
▁кабылды	-10.3576
▁санын	-10.3585
пул	-10.3585
▁маалымдалды	-10.3587
▁Молдова	-10.3595
▁агымы	-10.3596
▁бирикмеси	-10.3596
▁тыгы	-10.3596
▁сала	-10.3597
гер	-10.3598
▁аймактарына	-10.3598
▁үлгү	-10.3598
ноябр	-10.36
▁Жанар	-10.3602
▁каралат	-10.3603
▁карызы	-10.3603
сен	-10.3607
▁элчи	-10.3611
▁чыккандарды	-10.3612
▁күрөшүп	-10.3612
▁турам	-10.3613
▁илдетине	-10.3621
▁батыш	-10.3623
▁Жу	-10.3625
▁алака	-10.3625
▁со	-10.3627
▁Премьер	-10.363
▁Австралия	-10.3631
ук	-10.3631
▁билебиз	-10.3631
▁Ошо	-10.3632
▁салыкты	-10.3633
▁түр	-10.364
ё	-10.364
▁баратканын	-10.3643
▁ойноп	-10.3643
вер	-10.3647
▁жүргүзүүгө	-10.3648
▁аппаратты	-10.3652
▁мелдеш	-10.3653
▁СССР	-10.3658
▁протокол	-10.3659
рып	-10.366
▁позиция	-10.3662
▁тор	-10.3667
сине	-10.3667
▁бөлүмүндө	-10.3669
▁барбай	-10.367
▁Көлбаев	-10.367
▁дөй	-10.3673
▁Бийик	-10.3674
▁салтанат	-10.3674
▁өлүп	-10.3674
▁улантуу	-10.3676
▁айлыгы	-10.3676
▁сап	-10.3676
▁начарлап	-10.3677
▁активисттерди	-10.3678
▁кайта	-10.3682
▁кул	-10.3683
▁жоо	-10.3685
▁баалап	-10.3685
▁аларда	-10.3694
▁ра	-10.3699
▁камактагы	-10.37
чан	-10.37
▁бейтаптарды	-10.3701
▁изилдөөлөр	-10.3701
▁жөнө	-10.3702
▁жаңжалда	-10.3704
▁муун	-10.3704
▁согушу	-10.3706
▁коридор	-10.3707
▁түрүндө	-10.3711
▁алынышы	-10.3711
▁жи	-10.3715
▁сынын	-10.3717
▁Кийинчер	-10.3717
▁Оппозиция	-10.3717
▁колдоду	-10.3719
Кабар	-10.3722
▁Ушу	-10.3725
▁чалдыккан	-10.3731
▁77	-10.3732
▁губернатору	-10.3734
▁басылмалар	-10.3737
▁эпидемиология	-10.375
фа	-10.3751
▁айдоочулар	-10.3752
▁оорусу	-10.3752
▁ант	-10.3754
▁Жолугушуу	-10.3761
▁өнүккөн	-10.3761
▁маалымдалган	-10.3761
▁толуп	-10.3762
▁олимпиада	-10.3763
БШК	-10.3763
июн	-10.3766
▁атаандаш	-10.3767
▁лери	-10.3771
▁канал	-10.3773
▁сакта	-10.3774
▁Канат	-10.3776
▁талапкерди	-10.3777
▁далай	-10.3778
▁көрсөтөт	-10.3778
▁жарлыгы	-10.3785
жы	-10.3786
▁октябрда	-10.3787
▁кезегин	-10.3788
▁салымы	-10.3801
▁дүң	-10.3803
▁көчкү	-10.3805
▁совет	-10.3806
▁кыйналып	-10.3806
▁атышат	-10.3808
▁өкмөттө	-10.3811
▁ролу	-10.3825
▁ша	-10.3832
▁саясатчыларды	-10.3833
ov	-10.3834
▁баяндамасын	-10.3837
▁мажбурла	-10.3844
▁жатышты	-10.3849
▁негизделген	-10.3849
▁түндүгүндө	-10.3853
лөрү	-10.3854
▁изилдеп	-10.3854
▁өзгөрүү	-10.3858
z	-10.3861
▁табылганы	-10.3861
▁режим	-10.3862
▁чыгар	-10.387
▁чече	-10.3872
▁кесиптештери	-10.3874
▁божомол	-10.3874
▁сентябрда	-10.3884
▁адистери	-10.3885
▁мектеби	-10.3887
▁ипотека	-10.3893
▁шектелип	-10.3893
▁белгилешет	-10.3894
▁ыктымалдыгы	-10.3895
▁калыптыр	-10.3896
▁жерлеринде	-10.3896
▁жарымы	-10.3897
▁тартипте	-10.3901
▁боз	-10.3907
▁Стамбул	-10.3908
рган	-10.3908
▁билүү	-10.3908
▁билбейм	-10.3915
▁булактары	-10.3922
▁таануучу	-10.3926
▁жашыл	-10.393
▁Стамбулда	-10.3931
▁Федер	-10.3937
▁мобил	-10.3937
▁түзүүнү	-10.3938
▁макулдугу	-10.3939
▁диги	-10.394
▁оку	-10.394
▁өндүрүштү	-10.3942
▁Ноокат	-10.3943
▁Токто	-10.3943
▁Ушуну	-10.3947
▁ХАМАСты	-10.3947
▁уюмдары	-10.3947
▁инвесторлор	-10.3949
▁мезгилинде	-10.395
▁тынчсыздануусу	-10.3952
канов	-10.3953
▁Осмонов	-10.3955
▁бе	-10.3956
▁аныкталганын	-10.3971
▁агасы	-10.3971
▁тык	-10.3973
▁укугуна	-10.3974
▁башчыны	-10.3977
▁авторлору	-10.3977
▁өздөрүн	-10.3982
▁жасалып	-10.3983
▁жабыркагандар	-10.3987
▁кызматтар	-10.3993
Ош	-10.3995
имов	-10.3995
▁Назарбаевди	-10.3997
▁кеңейтүү	-10.4002
▁диалог	-10.4004
▁кон	-10.4006
▁окуяларда	-10.4008
өрүн	-10.4011
▁Адилет	-10.4014
▁ТИМ	-10.4016
▁облус	-10.4017
бири	-10.4017
▁D	-10.4021
▁асман	-10.4024
▁арты	-10.4025
▁өкүлчүлүгү	-10.4027
момали	-10.4027
▁упай	-10.403
лин	-10.4032
▁Орусиялык	-10.4036
▁кылса	-10.4037
▁күрөштө	-10.404
▁заводу	-10.4042
▁калаада	-10.4049
▁мыйзамы	-10.4052
▁ичип	-10.4054
▁Киевди	-10.4055
▁байма	-10.4058
▁арага	-10.4058
▁аянтында	-10.4063
▁ком	-10.4063
▁51	-10.4069
▁элчилик	-10.407
▁жүрүш	-10.4072
▁санап	-10.4072
башы	-10.4073
▁күтүү	-10.4073
▁67	-10.4074
▁73	-10.4078
▁76	-10.4078
▁кыргыздын	-10.4079
▁каражаттарын	-10.408
▁Ас	-10.4086
▁интернетте	-10.4094
▁Лондон	-10.4101
▁чараларын	-10.4104
▁объектилер	-10.4105
▁койгону	-10.4107
▁каражаты	-10.4108
▁Рыс	-10.4108
▁Калган	-10.411
▁эже	-10.411
▁борборлору	-10.4111
▁Литва	-10.4117
▁түшүндүргөн	-10.4117
▁кийинчер	-10.4117
▁өзгөрүп	-10.4117
▁До	-10.4119
▁жеп	-10.412
▁жабылып	-10.412
▁аяктап	-10.4122
▁токтоткон	-10.4129
▁Ил	-10.4133
▁өтүүдө	-10.4133
▁чектөөлөрдү	-10.4133
▁Ле	-10.4135
Абадда	-10.4136
▁уланта	-10.4138
P	-10.4143
▁автоунааларды	-10.415
▁кармалганы	-10.4153
▁доомат	-10.4158
▁бөлүштү	-10.4159
▁жөнөтүлгөн	-10.416
▁ниетин	-10.416
▁Сотту	-10.4162
▁киргизилип	-10.4163
▁талкууланды	-10.4163
▁өнүгүп	-10.4163
▁Борис	-10.4163
▁тактаган	-10.4166
▁коюшу	-10.4168
▁көрсөткүчү	-10.4171
бар	-10.4176
▁Акмат	-10.4178
▁учурлары	-10.4184
▁көрдү	-10.4184
▁Ру	-10.4193
▁көрбөй	-10.4198
▁аткаминерлер	-10.42
▁Индияда	-10.4205
▁тизме	-10.4206
дил	-10.4209
▁бузулуп	-10.4209
-1	-10.4209
▁болушун	-10.421
▁баалады	-10.421
▁электигин	-10.4217
ңар	-10.422
▁материалдарды	-10.4226
▁чакырык	-10.4228
▁дарегин	-10.423
вар	-10.423
▁Ташиевди	-10.4235
▁бөлүгүндө	-10.4248
▁Көз	-10.4253
▁угуу	-10.4254
▁жарыяланып	-10.4254
▁ишкананы	-10.4254
▁Демократия	-10.4255
▁жүрүшөт	-10.4255
▁окуялары	-10.4256
▁Кабул	-10.4258
▁которгон	-10.4258
▁илдетти	-10.4263
▁анык	-10.4266
▁билими	-10.4269
▁кеңештер	-10.4278
▁там	-10.428
▁маданияты	-10.428
▁окуяларына	-10.4282
▁эм	-10.4283
▁ашат	-10.4288
▁Уюмду	-10.4288
▁көпүрө	-10.4295
▁чыгууну	-10.4295
▁Ү	-10.4298
▁базары	-10.4299
▁киргизүүнү	-10.43
▁өзгөртүп	-10.4301
▁мунапыс	-10.4301
▁сүйлөшкөн	-10.4301
▁жээгинде	-10.4307
Биримдик	-10.4307
▁жат	-10.4316
▁дайындоо	-10.4322
мер	-10.4325
▁театры	-10.4326
▁жемкорлук	-10.4334
▁ман	-10.4335
▁чечимдерди	-10.434
▁шаарын	-10.4343
▁комплекс	-10.4352
▁аралашып	-10.4355
▁токтому	-10.4356
▁көйгөйлөрдү	-10.4359
▁жаткандарды	-10.4363
▁Ме	-10.4365
▁Акматов	-10.4368
▁вирусу	-10.4381
▁колдой	-10.4386
▁эсте	-10.4386
▁өкмөтүнө	-10.4389
▁Байсалов	-10.4393
▁Транспорт	-10.4393
▁түшүндүрүп	-10.4393
▁кыянаттык	-10.4394
▁өстү	-10.4395
▁наркы	-10.4401
▁планын	-10.4402
▁Чын	-10.4404
▁сунуштап	-10.4405
▁немис	-10.4408
лө	-10.4411
▁макам	-10.4415
▁завод	-10.4419
▁каттам	-10.4424
▁Мурат	-10.4425
▁кеме	-10.4427
▁айтпай	-10.4428
▁64	-10.443
▁кылмыштуулук	-10.4435
▁Кожо	-10.4437
ансыз	-10.4441
▁өлтүрүлгөн	-10.4445
▁бойлуу	-10.4446
▁Канча	-10.4447
▁жолдору	-10.4455
▁кыйынчылык	-10.4462
▁барышы	-10.4465
▁Өзгөн	-10.4472
▁элине	-10.4472
казак	-10.4474
▁N	-10.4481
▁кылдат	-10.4487
▁кечки	-10.4489
▁нерселерди	-10.4492
▁79	-10.4493
Чоң	-10.4495
▁миссиясы	-10.4498
▁айырма	-10.4505
▁болушкан	-10.4508
▁Оору	-10.4508
▁кошуу	-10.4509
▁Ду	-10.4514
▁кал	-10.4516
▁жүзү	-10.4518
▁Штаттарды	-10.4524
▁сапатын	-10.4525
▁Экс	-10.453
▁өткөнү	-10.4531
▁палата	-10.4531
▁киргизди	-10.4532
▁депутатты	-10.4533
▁коркуп	-10.4534
▁чакырылган	-10.4534
▁которуп	-10.4534
▁топтолгон	-10.4534
▁зордуктоо	-10.4535
▁карайт	-10.4537
▁жакыр	-10.454
ред	-10.4543
▁бер	-10.4544
▁аркы	-10.4545
▁эмнеде	-10.4546
▁окуучулары	-10.4547
▁өт	-10.4555
▁жарыялоо	-10.4558
▁өкүлдөрүнө	-10.4561
▁Санк	-10.4564
▁видеосу	-10.4564
▁шаарларда	-10.4565
▁шарттары	-10.4569
жөнү	-10.4572
▁түшкөнүн	-10.4573
▁ондо	-10.4574
▁зат	-10.4575
▁жыйырма	-10.4576
▁Виктор	-10.4581
▁бекитилген	-10.4581
▁Акаевди	-10.4582
▁бергиле	-10.4582
▁сиңир	-10.4582
▁калың	-10.4582
▁адвокаттары	-10.4584
▁тыным	-10.4586
▁Reuters	-10.4594
▁Союзу	-10.4599
▁өкүмү	-10.4599
▁авиация	-10.4599
▁өнөктөш	-10.4606
▁мектептерде	-10.4613
▁Түркмөнстанды	-10.4615
▁чөйрө	-10.4615
▁району	-10.4617
▁алдым	-10.4617
айкын	-10.4618
▁көзөмөлүндө	-10.462
лый	-10.4624
▁титирөө	-10.4627
▁тийип	-10.4629
▁майнап	-10.4629
табигый	-10.4629
▁чыгарылды	-10.4629
▁камсыздандыруу	-10.4629
али	-10.4629
▁күткөн	-10.4633
▁алынганы	-10.4634
▁Айрыкча	-10.4637
▁жоопкерчилигине	-10.4644
▁кимдир	-10.4646
▁The	-10.4649
▁каражаттарына	-10.4651
▁K	-10.4653
▁кайгы	-10.4653
▁лаборатория	-10.4656
▁чекит	-10.4661
▁жүрүм	-10.4668
▁Бактыбек	-10.4668
▁з	-10.4672
▁Лукашенкону	-10.4672
▁кетүүнү	-10.4674
▁Акжол	-10.4677
▁кириши	-10.4678
ентсе	-10.4678
ларда	-10.4684
▁уруш	-10.469
▁Алтынбек	-10.4691
▁дарек	-10.4691
▁билдирүүлөр	-10.4695
▁токтотууну	-10.4698
▁күнөөсү	-10.4699
▁юрист	-10.4699
бат	-10.47
уз	-10.4704
▁Сирияны	-10.4705
бүлөнү	-10.4706
▁кылууну	-10.4707
▁маселелерин	-10.4708
▁булактар	-10.4716
▁ыкма	-10.4718
▁учурга	-10.4718
▁артиллерия	-10.4725
▁өндүрүлгөн	-10.4725
Кара	-10.4733
▁алектенген	-10.4736
▁органы	-10.4736
▁документтери	-10.4739
▁84	-10.4745
▁кылмышты	-10.4747
▁Батышта	-10.4754
▁жашоосу	-10.4766
▁кыялы	-10.477
▁ошончо	-10.4773
▁табылып	-10.4774
▁[	-10.4775
▁көтөрдү	-10.4777
▁бут	-10.4778
ыбызды	-10.4781
▁депортация	-10.4785
▁сатылган	-10.4795
▁өчүрүү	-10.4798
▁чечимдер	-10.4801
▁Эне	-10.4803
▁1000	-10.4807
▁түтүн	-10.4813
▁уюмуна	-10.4818
зо	-10.482
+	-10.482
▁аша	-10.4822
▁төртүнчү	-10.4822
▁ыраазычылык	-10.4822
▁жеткирип	-10.4822
▁саясатка	-10.4822
▁суз	-10.4825
▁мүнөт	-10.4831
▁Алымка	-10.4831
БУУ	-10.4833
▁маркумду	-10.4833
▁каты	-10.4834
▁ооруканалар	-10.4835
▁Маалыматта	-10.4835
▁которулган	-10.4842
▁Ц	-10.4843
▁карызды	-10.4845
рылган	-10.4846
▁тааныштыр	-10.4851
▁жараяны	-10.4854
▁тартипти	-10.4854
▁өзүмдү	-10.4859
▁Фи	-10.486
▁армян	-10.4866
▁оорулар	-10.4868
▁акыны	-10.4869
▁1991-	-10.487
▁Январ	-10.487
▁тарапкерлери	-10.487
▁күчөгөн	-10.4871
▁Жыйынтыгы	-10.4871
▁59	-10.4872
▁берилиши	-10.4874
▁Баку	-10.4876
▁жайларга	-10.4878
▁бүтүм	-10.4879
▁талкуулап	-10.4879
▁козгоп	-10.4879
▁Мал	-10.488
деген	-10.4883
үүгө	-10.4886
январ	-10.489
▁ңиз	-10.4893
▁E	-10.4896
▁иретинде	-10.4896
▁албаса	-10.4901
▁каттамы	-10.4906
▁көздө	-10.4915
бүлөлөр	-10.4916
▁адистерди	-10.4918
▁босого	-10.4919
▁кабарлаш	-10.4922
▁консулдук	-10.4927
▁курсу	-10.4928
▁программасын	-10.4928
▁чакта	-10.493
▁аткара	-10.4931
f	-10.4933
▁норма	-10.4935
▁ре	-10.4936
▁үчтө	-10.4937
лей	-10.4939
ент	-10.4942
туп	-10.4949
эне	-10.4952
▁61	-10.4952
▁атаандашы	-10.4959
▁камоо	-10.4959
лбай	-10.496
▁Убакты	-10.4969
▁транзит	-10.4969
▁Иманалиев	-10.4971
ne	-10.4972
чарчы	-10.4973
▁78	-10.4976
▁көрүнүштөр	-10.4977
▁уккан	-10.4978
▁системасына	-10.4979
▁акциясына	-10.4981
тартыш	-10.4984
▁тө	-10.4986
▁талант	-10.4986
▁эрежелерди	-10.4987
▁Асел	-10.4989
өлү	-10.5
▁жарнама	-10.5001
▁ишмердүүлүгү	-10.5006
▁кызык	-10.5007
бү	-10.5007
▁берчү	-10.5011
▁кайткан	-10.5016
▁муз	-10.5017
▁конкрет	-10.5018
▁Евгени	-10.5018
▁кулап	-10.5019
▁системаны	-10.5019
ья	-10.502
▁жүгүртүү	-10.5021
▁окуясына	-10.5022
▁төрөт	-10.5026
▁билдирүүсүнө	-10.5027
мур	-10.5028
▁ев	-10.5029
▁газды	-10.5031
Бишкек	-10.5032
▁Шар	-10.5035
▁кырсыгына	-10.5043
▁кылымды	-10.5043
▁Кочкор	-10.5043
▁талибдерди	-10.5048
ерин	-10.5048
▁барымта	-10.5059
атышууну	-10.5065
▁салынып	-10.5068
▁схема	-10.5071
▁абактагы	-10.5072
▁кыскартуу	-10.5073
▁соодагерлер	-10.5079
▁кени	-10.5079
▁салышкан	-10.5085
аган	-10.5086
▁ырлары	-10.5088
▁анти	-10.5089
▁97	-10.5089
▁тир	-10.509
▁кадр	-10.5093
▁товарлар	-10.5093
▁калбай	-10.5101
▁акыйкатчы	-10.5107
▁агай	-10.5111
▁тартууну	-10.5116
▁жүргүнчү	-10.5116
▁токой	-10.5117
▁News	-10.5118
▁күтүүсүз	-10.5119
▁көрдүк	-10.512
Е	-10.5121
▁токтотту	-10.5122
▁бүттү	-10.5123
▁жашоосун	-10.5126
▁коюш	-10.5127
▁отчет	-10.5127
▁берүүчү	-10.5127
▁качкындар	-10.5129
▁түшүнүү	-10.513
▁кы	-10.5137
апрелдеги	-10.5137
▁провинциясында	-10.5145
▁президенттери	-10.5146
on	-10.5148
▁Күн	-10.515
▁коалиция	-10.5152
▁2000-	-10.5153
▁такси	-10.5153
▁журналисти	-10.5154
▁атылган	-10.516
▁эсептешет	-10.5168
▁авария	-10.5168
▁Балыкчы	-10.5169
▁идеология	-10.5169
▁мониторинг	-10.5169
▁кошулуу	-10.5169
▁Компания	-10.517
▁69	-10.5176
▁кызыктуу	-10.5177
▁Зулушев	-10.5178
▁Наз	-10.5178
▁карта	-10.5184
пей	-10.5191
▁документтерин	-10.5192
▁лидерлер	-10.5193
▁фондуна	-10.5208
▁пайдасы	-10.5209
Ка	-10.5212
▁жатабы	-10.5214
интип	-10.5217
▁Песков	-10.5219
▁европалык	-10.5219
▁дүн	-10.5226
▁берем	-10.5228
▁тийгизген	-10.5228
▁кылыш	-10.5229
▁Ара	-10.5233
▁ноябрда	-10.5234
▁сөөгүн	-10.524
▁ия	-10.5242
лгон	-10.5243
▁эсепте	-10.5246
▁жамаат	-10.5247
лугу	-10.5253
▁жетишкен	-10.5254
▁Канатбек	-10.5259
▁тилек	-10.5259
▁Пакистанда	-10.5263
▁имараттар	-10.5264
▁тынчсыздануу	-10.5265
▁Мир	-10.527
▁жарыя	-10.5276
▁ысымы	-10.5278
G	-10.5285
сон	-10.5286
алдуу	-10.529
▁болсок	-10.529
▁Аи	-10.5291
▁жиберди	-10.5292
▁сыйлыгы	-10.5292
▁автоунаалар	-10.5296
▁72	-10.53
▁шылтоо	-10.5305
▁Жаныбек	-10.5316
▁бал	-10.5316
▁жыйынына	-10.5316
▁талкуулады	-10.5321
▁чалгындоо	-10.5321
▁ле	-10.5323
▁жардамчысы	-10.5325
▁көлөмүн	-10.5327
▁кызматтарды	-10.5331
▁башкаруучу	-10.5331
щ	-10.5335
▁Ирак	-10.5338
аг	-10.5338
▁көл	-10.5339
▁Журналисттер	-10.5339
▁арачылары	-10.534
▁Бер	-10.5342
▁доору	-10.5343
▁иштегендер	-10.5344
▁суусу	-10.535
▁жараян	-10.5351
▁жакты	-10.5356
▁коёт	-10.5358
▁толгон	-10.536
▁мак	-10.5363
Көлдү	-10.5365
мар	-10.5369
▁Чыгышта	-10.537
▁студенттерди	-10.537
▁ынтымак	-10.5372
Апрель	-10.5372
▁Жонсон	-10.5372
▁химия	-10.5373
▁коргогон	-10.5374
▁резолюция	-10.538
▁жаратат	-10.5381
▁Шаар	-10.5382
▁акыйкат	-10.5384
▁атты	-10.5387
▁ЖЭБ	-10.5387
▁Түркмөнстанда	-10.5391
Достук	-10.5391
▁тоскоолдуктар	-10.5392
▁кенди	-10.5396
▁оюндарына	-10.5397
▁Шинжаңда	-10.5397
▁I	-10.5404
▁пайызды	-10.5407
▁белги	-10.5409
▁сүйлөш	-10.5411
▁толкуну	-10.5412
▁Шаардык	-10.5415
▁намаз	-10.5416
▁мо	-10.5417
▁видеодо	-10.5421
▁өлтүрүп	-10.5423
▁жазылат	-10.5424
▁колдонулуп	-10.5424
▁Максим	-10.5424
▁иштетип	-10.5425
▁телефондо	-10.5427
▁мааниде	-10.5431
▁пландалган	-10.5431
бүлөсүнө	-10.5433
▁мушташ	-10.5437
▁такталган	-10.5437
▁Дарыгерлер	-10.5438
▁Ороз	-10.5438
▁тема	-10.5439
▁ошо	-10.544
▁түшүнбөй	-10.5442
▁бүткү	-10.5445
▁Самат	-10.5448
еги	-10.5449
▁Эксперттер	-10.5452
▁я	-10.5453
▁иликтөөнү	-10.5456
▁ниети	-10.546
▁мусулмандар	-10.5462
▁операциясы	-10.5462
▁ылдамды	-10.5462
▁дыйкан	-10.5466
▁макала	-10.5466
шу	-10.5466
▁тендер	-10.5473
Ала	-10.5473
▁брифинг	-10.5475
▁масштабдуу	-10.5475
яр	-10.5476
▁жолдомо	-10.5477
▁Ошон	-10.548
▁Мария	-10.548
▁кагылышуу	-10.5482
▁суранган	-10.5484
циялык	-10.5485
▁Алай	-10.5485
төрдү	-10.5488
үш	-10.549
▁Пашинян	-10.5491
▁катышы	-10.5507
▁президенттер	-10.5509
▁Мени	-10.551
▁негизи	-10.5513
▁тапкандар	-10.5514
ra	-10.5517
▁кайталан	-10.5517
▁жапон	-10.5518
▁министрлер	-10.552
▁себептери	-10.5525
▁көрөт	-10.5527
▁Динара	-10.5527
▁Күндүз	-10.5528
▁чөлкөм	-10.5529
▁жаткандай	-10.5529
▁башташты	-10.5532
▁паспортун	-10.5534
▁тизмеде	-10.5539
▁нике	-10.554
▁моюнун	-10.5547
▁дедим	-10.5562
▁сактагычы	-10.5565
▁чечкиндүү	-10.5566
▁зомбулукту	-10.5568
▁Сокулук	-10.5578
▁Гүлнара	-10.558
▁1992-	-10.558
▁атактуу	-10.558
▁көбүн	-10.5581
үүчү	-10.5585
▁жаткандыктан	-10.5587
▁токтото	-10.5604
▁убакты	-10.5606
▁майрам	-10.5611
▁макамы	-10.5615
▁жанын	-10.5616
▁ыраазы	-10.5632
▁материал	-10.5632
▁Дүйшөн	-10.5632
▁Сооронкулова	-10.5632
▁Жакшы	-10.5632
▁толтура	-10.5632
▁колония	-10.5633
▁шарттарды	-10.5636
▁айдап	-10.5638
▁лор	-10.564
▁түрүнө	-10.5642
▁эмеспиз	-10.5643
ыйык	-10.5644
▁ишмердүүлүгүн	-10.5645
▁көзөмөлүнө	-10.5645
бекова	-10.5649
▁жетекчилигине	-10.5654
B	-10.5668
ский	-10.5669
▁министрлери	-10.5671
▁дорду	-10.5673
▁байкал	-10.5675
▁эфир	-10.5682
▁камера	-10.5682
▁Компани	-10.5683
▁Акча	-10.5683
▁Лавров	-10.5685
▁абзел	-10.5685
биротоло	-10.5685
▁жоготуп	-10.5685
▁чар	-10.5691
▁Күч	-10.5694
▁күз	-10.5698
▁алчу	-10.5698
▁сындады	-10.57
лас	-10.57
макчы	-10.5701
▁демилгесин	-10.5702
▁соолук	-10.5704
▁жем	-10.5706
▁чемпионатында	-10.571
▁уруу	-10.5713
▁СССРди	-10.5714
▁Курманкул	-10.5715
▁көздөйт	-10.5718
▁пневмония	-10.572
▁майыпты	-10.5721
▁Лу	-10.5724
▁мечит	-10.5725
▁сүнө	-10.5726
,5	-10.5726
▁вакцинасы	-10.573
▁мүнөздө	-10.573
▁жообу	-10.5731
▁бол	-10.5736
▁Фото	-10.5739
▁Ибраев	-10.574
▁күзүндө	-10.574
▁Эдил	-10.574
▁өзгөргөн	-10.5744
▁жек	-10.5748
анов	-10.575
▁камап	-10.5751
▁пландап	-10.5753
бер	-10.5754
▁көптөн	-10.5756
▁Ло	-10.5756
▁төлөй	-10.5757
ибизди	-10.5759
Ө	-10.576
▁белгиси	-10.576
▁Пригожин	-10.5764
▁Саясатчы	-10.5767
елерки	-10.5768
феврал	-10.577
▁Ок	-10.5776
▁фактылары	-10.5781
▁айткандай	-10.5785
▁акырында	-10.5785
▁Боршайком	-10.5792
▁Адатта	-10.5792
▁ишенип	-10.5793
уд	-10.5794
▁чыгууда	-10.58
▁сыртк	-10.5801
маалы	-10.5802
▁жак	-10.5803
чуу	-10.5805
▁декабрь	-10.5809
▁тажикстандык	-10.5809
▁Минск	-10.5814
Масса	-10.5819
ад	-10.5828
▁доллары	-10.5833
▁Документ	-10.5833
▁жашай	-10.584
▁эвакуация	-10.5843
▁карма	-10.5844
▁өбөлгө	-10.5846
▁Энтон	-10.5846
▁жолугушту	-10.5846
▁келдим	-10.5847
▁бузулган	-10.585
▁буруп	-10.5853
▁формасын	-10.5861
▁төлөм	-10.5861
▁ларда	-10.5863
▁көрдүм	-10.5864
▁дооматтарды	-10.587
▁айылды	-10.587
▁Айбе	-10.5871
▁тумоо	-10.5872
▁фон	-10.5878
▁буудай	-10.588
▁барганы	-10.5882
үшү	-10.5882
▁Кабулда	-10.5885
үлгөн	-10.5887
▁шы	-10.5889
▁чечкен	-10.5889
▁жолдорду	-10.5894
▁көбөйүшү	-10.59
▁таппай	-10.59
▁бөлүү	-10.59
▁чыгармачылык	-10.5901
▁Абды	-10.5904
▁калгандар	-10.5905
▁чыгарганы	-10.5908
бирин	-10.5912
▁R	-10.5913
▁августта	-10.5921
орус	-10.5922
▁Жаш	-10.5923
▁Мухаммедка	-10.5926
эй	-10.5929
▁лугу	-10.5936
▁Кат	-10.5936
ation	-10.5936
▁дарыясы	-10.594
▁катта	-10.5942
▁сүрөттө	-10.5943
▁айтыла	-10.5944
▁биримдик	-10.5948
▁уран	-10.5948
▁кармалгандарды	-10.5951
▁Ливан	-10.5951
дж	-10.5953
▁тыянак	-10.5954
▁багып	-10.5954
Арча	-10.5955
▁аяктады	-10.5956
▁калааны	-10.5957
▁жазышты	-10.5958
▁Бак	-10.596
▁мүмкүндүгү	-10.5961
▁көрсөтүүнү	-10.5961
▁талкуулоо	-10.5962
▁жообун	-10.5963
▁Америкалык	-10.5963
▁маанай	-10.5973
мет	-10.5975
▁токтобой	-10.5978
▁көңүлүн	-10.5978
▁кармаш	-10.5981
▁митингдер	-10.5982
Ма	-10.599
▁кылынган	-10.5991
▁баган	-10.5991
▁автоном	-10.5992
▁сиң	-10.5993
▁уят	-10.5995
▁жарыш	-10.6
▁жикчил	-10.6006
▁кеңешине	-10.6007
▁технологиялар	-10.6008
▁Кадамжай	-10.6009
▁белгиленет	-10.6009
▁драма	-10.6009
▁Мелис	-10.6009
▁шайланып	-10.6009
▁кажет	-10.6009
▁учактары	-10.6009
▁кабатыр	-10.601
сексуалд	-10.6013
▁жолугушкан	-10.6019
▁революция	-10.6021
▁ыктыярчылар	-10.6022
▁мун	-10.6022
▁эрежелер	-10.6025
шты	-10.6025
▁экономикасын	-10.6027
▁барса	-10.603
▁эсептеп	-10.6032
▁болбогон	-10.6032
▁өнөктөшү	-10.6034
▁улантууда	-10.6038
▁максатта	-10.6038
▁Чо	-10.604
▁аймагын	-10.6041
▁чабуулдар	-10.6048
▁ыш	-10.6051
▁ор	-10.6059
▁дүкөн	-10.6061
▁козголду	-10.6065
▁ГЭС	-10.6067
▁автоунаасы	-10.6069
▁бий	-10.607
▁жапа	-10.607
▁ишенем	-10.6071
▁Киевде	-10.6073
▁оюндар	-10.6074
▁адабияты	-10.6074
▁форум	-10.6077
▁логистика	-10.6077
▁керектиги	-10.6082
▁жуктургандар	-10.6084
▁мамилесин	-10.6085
▁араң	-10.6085
▁салганда	-10.6086
▁ушинт	-10.6091
ля	-10.6093
▁мамилелер	-10.6096
▁аткезчилик	-10.6102
▁Карабакта	-10.6102
фи	-10.6103
▁токтотулган	-10.6107
▁ичине	-10.6111
▁ашууну	-10.6112
▁Испания	-10.6113
▁реестрин	-10.6117
▁системалары	-10.6118
▁Шакиев	-10.6119
▁сунушталды	-10.6119
▁кырк	-10.6119
▁дук	-10.612
▁тилде	-10.6123
▁ооруканасы	-10.6124
▁узартуу	-10.6124
▁Уюм	-10.6127
▁уланат	-10.6136
▁шарттарын	-10.6137
▁тарабында	-10.6137
бара	-10.6138
▁кыр	-10.6139
Мекени	-10.6139
▁келиш	-10.6141
▁бекети	-10.6141
▁ыбызды	-10.6141
▁тиги	-10.6142
▁Ди	-10.6148
▁сени	-10.6149
▁тергөөчү	-10.6149
▁жоголгон	-10.6151
▁Францияда	-10.6154
фор	-10.6157
▁жетишпей	-10.6158
▁агент	-10.6162
▁коомчулугу	-10.6162
▁уюмдарга	-10.6164
▁син	-10.6166
▁белгилеш	-10.6167
▁өтүнүчүн	-10.6169
▁кооптонуу	-10.6171
▁токтогон	-10.6173
Дордой	-10.6174
Ынтымак	-10.6174
▁даярдалган	-10.6174
▁ырастап	-10.6174
▁булактарда	-10.6175
▁баскан	-10.6176
▁жолунда	-10.6183
▁74	-10.6189
▁таанышып	-10.619
▁Абдул	-10.6194
▁интеграция	-10.6197
Республика	-10.62
▁коркутуу	-10.6201
▁Токмок	-10.6208
▁көбөйгөнүн	-10.6214
▁тааны	-10.6218
▁ңуз	-10.6219
▁күчөдү	-10.623
▁Times	-10.623
▁Депутаттар	-10.6233
▁Исаев	-10.6235
▁98	-10.6237
▁уурдап	-10.6238
▁макамын	-10.6238
▁шайла	-10.6239
▁жүрүүдө	-10.624
▁КСДП	-10.6242
▁башаламандыктар	-10.6243
▁теңге	-10.6247
▁добуштарды	-10.6253
▁Ташкентте	-10.6257
илдеттен	-10.6258
▁учактар	-10.6267
▁кылымда	-10.6269
▁ток	-10.6275
▁суга	-10.6276
▁кетишин	-10.6276
▁жүрөгү	-10.6277
ыраак	-10.628
▁балам	-10.6283
имди	-10.6284
▁үндөдү	-10.6288
▁калтырып	-10.6289
▁Исха	-10.629
▁кырсыкта	-10.6298
▁кызматташууну	-10.6306
▁музей	-10.6319
▁баштаганы	-10.632
▁жал	-10.6323
▁ооруган	-10.6326
▁байланышты	-10.6332
▁жекшембиде	-10.6333
▁саламаттыгын	-10.6334
▁эти	-10.6334
▁Нарында	-10.6335
L	-10.6337
▁объект	-10.634
▁жеңүүчү	-10.634
▁билбеген	-10.6342
▁Курулуш	-10.6343
▁Жылдыз	-10.6343
▁Тоо	-10.6344
▁бошотулду	-10.6345
▁ол	-10.6345
▁000	-10.6345
▁суроолорду	-10.6345
▁көчмөндөр	-10.6351
▁тополоң	-10.6352
▁редактору	-10.6355
▁бейтапты	-10.6361
▁келечек	-10.6364
▁уткан	-10.6364
▁позициясы	-10.6365
▁айтканын	-10.6367
▁бычак	-10.6369
K	-10.637
▁жогорудагы	-10.6372
▁жамааты	-10.6373
▁аракетине	-10.6373
▁жактар	-10.6374
▁нарк	-10.6375
▁аза	-10.6377
▁Майк	-10.6382
▁180	-10.6383
▁учуу	-10.6387
▁академия	-10.6389
▁Иракта	-10.6389
in	-10.6394
▁Жеке	-10.6399
▁ашкере	-10.64
▁жаабайт	-10.64
▁француз	-10.64
▁Июн	-10.64
▁алынса	-10.64
тикалык	-10.6401
▁тизмесинде	-10.6402
▁жабылды	-10.6405
▁ойлогон	-10.6408
инче	-10.6408
▁талдоо	-10.641
▁февралда	-10.6412
▁көрүүнү	-10.6413
▁Жусуп	-10.6415
▁сыноо	-10.6418
▁акырын	-10.6419
▁келишимде	-10.6421
синде	-10.6422
▁кайсыл	-10.6425
▁барганын	-10.6431
▁Швейцария	-10.6433
▁орусча	-10.6435
чүлөр	-10.6436
▁иштегени	-10.6439
▁берилбей	-10.6443
гул	-10.6444
▁айтсак	-10.6445
▁ою	-10.6446
▁жоготуу	-10.6451
▁окшо	-10.6455
▁чыгармачыл	-10.6456
▁унун	-10.6456
▁комендант	-10.6457
▁Аламүд	-10.6457
▁Финляндия	-10.6457
▁иликтеген	-10.6457
▁кримтөбөл	-10.6457
▁Сан	-10.6457
▁сыртына	-10.6457
▁жөнөтүп	-10.6457
▁Көпчүлүк	-10.6457
▁Токтакунов	-10.6458
▁жолуккан	-10.646
▁сакталган	-10.646
▁демек	-10.6461
▁орток	-10.6462
▁ил	-10.6462
▁одон	-10.6462
▁журналы	-10.6463
▁Россияны	-10.6469
▁туристти	-10.6469
▁Луганск	-10.6471
▁чеги	-10.6472
▁Бакиров	-10.6473
ед	-10.6476
▁шаарга	-10.6483
▁жоготуулар	-10.649
▁экөөнү	-10.6496
▁курмандыктары	-10.65
▁жоопкерчилигин	-10.6503
▁тийгиз	-10.6505
▁режимде	-10.6507
▁адабият	-10.6508
▁тобуна	-10.6509
▁чө	-10.651
▁кармалышы	-10.6511
▁накта	-10.6514
▁эмгектенген	-10.6515
F	-10.6515
▁кийип	-10.6522
▁эсептейм	-10.6522
▁жазында	-10.6523
▁келтирди	-10.6525
▁алабы	-10.6527
▁чагым	-10.6529
R	-10.6533
▁мынча	-10.6533
▁эмдөөдө	-10.6534
▁билимдүү	-10.6535
▁чатак	-10.6539
▁Кары	-10.6541
▁чылык	-10.6541
▁лаган	-10.6544
ят	-10.6547
▁Токио	-10.6551
▁инсан	-10.6551
дөрдүн	-10.6561
▁дарылануу	-10.6561
▁кези	-10.6566
дир	-10.6567
токмок	-10.6571
▁кайрымдуулук	-10.6572
▁кВт	-10.6572
▁шаарлары	-10.6572
▁тынчтыкты	-10.6574
▁Грузияда	-10.6576
▁айыптар	-10.6586
▁тагдырын	-10.6587
чаралары	-10.6592
▁ЖККУ	-10.6596
▁мурасы	-10.66
▁ая	-10.6604
▁көрбөгөндө	-10.6605
▁алек	-10.6605
▁камсызда	-10.6611
лууда	-10.6613
▁ӨКМ	-10.6613
▁ашпай	-10.6614
▁Гу	-10.6616
▁тигүү	-10.6625
▁келгендерди	-10.6625
тешкен	-10.663
▁коштолгон	-10.6631
▁жиберип	-10.6631
▁келишимине	-10.6632
▁дөр	-10.6637
ель	-10.6641
▁кайтуу	-10.6642
▁Мадумаровду	-10.6643
▁жазат	-10.6646
▁мугалимдерди	-10.6648
▁жумушу	-10.6649
▁Алты	-10.6654
▁бүтө	-10.6656
саат	-10.6659
▁эмнени	-10.666
▁туткундарды	-10.6663
▁чыгарат	-10.6665
▁жеңиши	-10.6668
▁Марипов	-10.6668
▁редакциясы	-10.6668
▁айыптарды	-10.6669
умду	-10.6673
▁калыптан	-10.6674
▁кодекс	-10.6674
Талибандын	-10.6675
▁Ге	-10.6676
▁сүз	-10.6677
▁тол	-10.6678
▁аэропорту	-10.6683
▁Медицина	-10.6689
▁искусство	-10.6689
▁Бразилия	-10.6689
▁теракт	-10.669
▁салыгы	-10.669
▁талабын	-10.6691
▁Жай	-10.6692
▁муктаждык	-10.6693
▁бергенде	-10.6694
▁байланыштырган	-10.6696
▁кыларын	-10.6697
▁төлөгөн	-10.6698
▁баракчасында	-10.67
▁Саймаити	-10.67
▁кетерин	-10.67
▁айылдык	-10.6703
▁ишкердик	-10.6704
таган	-10.6711
пөй	-10.6712
▁санда	-10.6713
▁китептер	-10.6716
сунда	-10.6717
▁Сен	-10.6718
▁иликтөөчү	-10.673
▁кайрыл	-10.6731
▁тыгын	-10.6733
▁Жон	-10.6733
▁куралы	-10.6738
▁министрди	-10.6743
унан	-10.6744
▁Долбоор	-10.6744
▁мэрия	-10.6746
▁уурдоо	-10.6748
▁Клара	-10.6748
▁Камчы	-10.6748
▁мекендештер	-10.6748
▁өткү	-10.6749
▁жазышкан	-10.6749
▁3,5	-10.675
▁талкаланган	-10.6753
▁Роза	-10.6753
▁эрки	-10.6753
▁Урмат	-10.6762
▁конференция	-10.6763
▁Кадыров	-10.6766
▁балык	-10.6767
▁ача	-10.6769
▁Кош	-10.6769
▁Эмнеге	-10.6769
теп	-10.6777
▁прокурору	-10.6782
▁эшик	-10.6782
▁киргени	-10.6785
▁Карабак	-10.6785
▁союзу	-10.6786
▁жоопкерчиликт	-10.6792
таш	-10.6796
▁жолугушуулар	-10.6802
▁ит	-10.6805
▁жеңилдетил	-10.681
▁айдоо	-10.6811
▁британ	-10.6813
▁базарда	-10.6813
▁Грузияны	-10.6814
▁Мээрим	-10.6815
▁130	-10.6819
▁Дэ	-10.6831
лд	-10.6835
бүлөдө	-10.6839
▁Силер	-10.6841
▁жабырлануучу	-10.6841
▁жыйынын	-10.6842
▁доза	-10.6843
▁каны	-10.6844
▁атаандаштык	-10.6845
▁төгү	-10.6845
▁ролун	-10.6851
▁күйөө	-10.6854
▁кум	-10.6854
▁өкмөттөр	-10.6855
▁арызды	-10.6864
▁аймактары	-10.6866
▁өлдү	-10.6866
▁азыраак	-10.687
▁артисти	-10.687
▁Казакбаев	-10.6871
▁Каржы	-10.6873
▁дегени	-10.6876
▁каналына	-10.6876
ог	-10.6878
Синин	-10.6881
▁жеткенин	-10.6885
мей	-10.6887
▁байкалган	-10.689
▁облуста	-10.6895
▁белек	-10.6896
▁ташы	-10.6896
▁87	-10.6897
▁бирөөлөр	-10.6897
▁билбейт	-10.6898
▁асыл	-10.69
▁Медет	-10.6901
▁түзүлүш	-10.6904
▁көргөзмө	-10.6904
▁Египет	-10.6905
▁мүлкүн	-10.691
▁про	-10.6912
▁тарыхта	-10.6918
▁тигил	-10.6922
▁тамактануу	-10.6923
▁көйгөйү	-10.6923
▁Көрсө	-10.6925
▁BBC	-10.6926
▁байлыгы	-10.6928
▁чагылдырган	-10.6929
▁өтчү	-10.6929
▁башталышы	-10.693
▁ович	-10.693
▁Матраимовдор	-10.6931
▁чыгарма	-10.6938
▁киришкен	-10.6941
▁Тынчтык	-10.6941
▁майрамы	-10.6943
▁видеолор	-10.6946
▁кемчиликтер	-10.6947
▁Е	-10.6949
▁Швеция	-10.6949
▁дыгын	-10.6949
▁айтса	-10.6952
▁Тил	-10.6956
гиз	-10.6958
▁терроризм	-10.6965
▁кечке	-10.6965
▁тилди	-10.6968
Бука	-10.6969
көрүлүп	-10.697
▁алуучу	-10.697
▁95	-10.697
▁ызы	-10.6972
ини	-10.698
▁жаңылык	-10.6982
▁турарын	-10.6984
▁Соода	-10.6986
▁IT	-10.6987
▁Жок	-10.699
це	-10.699
▁шайлоочу	-10.6991
▁По	-10.6995
▁пресс	-10.6997
▁71	-10.6999
▁чөп	-10.7007
▁экстремизм	-10.7008
▁грант	-10.7009
en	-10.7012
▁спортчулар	-10.7013
▁байланышып	-10.7016
▁утту	-10.7016
▁жогоруда	-10.7018
▁газы	-10.702
▁төртөө	-10.7021
Түндүк	-10.7022
▁лагерлер	-10.7022
▁мүмкүнчүлүктөрү	-10.7023
▁режимин	-10.7023
үй	-10.7029
▁110	-10.7031
▁бөлүштүрүү	-10.7039
▁Жаштар	-10.7042
▁көзөмөлдү	-10.7043
▁Март	-10.7046
▁Абдирасулова	-10.7047
▁Монголия	-10.7047
▁Добуш	-10.7047
▁жандандыруу	-10.7047
▁Белгиле	-10.7048
▁агып	-10.705
▁калтыруу	-10.7051
▁коюшат	-10.7052
▁жандан	-10.7057
▁900	-10.7057
▁келдик	-10.7062
▁фондду	-10.7063
▁китепти	-10.707
▁катышуусунда	-10.7077
демократтар	-10.7081
▁тасмасы	-10.7082
▁Вирус	-10.7084
▁ачты	-10.7085
▁текшерүүдө	-10.7088
▁кайдан	-10.7088
▁операциялар	-10.7089
▁туристтер	-10.709
▁секунда	-10.7097
▁акционер	-10.71
▁чыгармалары	-10.7103
Озоди	-10.7108
▁Мексика	-10.7108
▁өтсө	-10.7109
▁өндүргөн	-10.7109
▁c	-10.7113
▁макулдашууну	-10.7113
▁O	-10.7114
▁чыгарбай	-10.7114
▁учураган	-10.7124
▁күтүлү	-10.7128
▁Өзбек	-10.7129
▁экспорттоо	-10.7139
▁алсыз	-10.7141
▁Электр	-10.7146
▁жеген	-10.7147
▁жолуна	-10.7149
▁Банк	-10.7151
▁сер	-10.7152
▁берилгени	-10.7156
▁акысын	-10.7158
▁х	-10.7161
▁чечмеле	-10.7164
▁топтору	-10.7164
▁жатышкан	-10.7168
▁алтынды	-10.7168
▁кабарлар	-10.7168
▁адабий	-10.7169
▁жетпеген	-10.7169
▁калышкан	-10.7171
▁тергөөнү	-10.7171
▁кооз	-10.7174
▁ут	-10.7182
▁досу	-10.719
▁электе	-10.7191
▁убакытты	-10.7193
▁калп	-10.7198
▁отурду	-10.7198
▁баалаган	-10.72
▁Ад	-10.7203
▁билдирүүлөрү	-10.7206
▁Комиссия	-10.721
▁Бийликти	-10.7214
▁сотторду	-10.7218
▁адиси	-10.7222
▁зыяны	-10.7229
▁агенттик	-10.7229
▁байкоочулар	-10.7231
▁Ворух	-10.7231
▁Одесса	-10.7231
▁даярданып	-10.7231
▁Болбосо	-10.7231
▁Масалиев	-10.7232
▁айтуусунда	-10.7232
▁күчөтүлгөн	-10.7232
▁түшүнгөн	-10.7232
▁каралууда	-10.7233
▁аракеттерине	-10.7233
▁клубу	-10.7236
▁Көлбаевди	-10.7236
▁келчү	-10.7236
▁Абдулла	-10.7242
▁сүйү	-10.7242
▁2006-	-10.7248
▁жашар	-10.7252
▁болгонуна	-10.7252
▁милдет	-10.7253
▁учакты	-10.726
▁өмүрүнө	-10.726
▁арал	-10.726
▁чалдыккандарды	-10.7264
▁Өмүр	-10.7266
▁жагын	-10.7267
З	-10.727
▁жардамды	-10.7283
▁агенттикти	-10.7285
▁Эсен	-10.7286
▁пайдаланган	-10.7289
▁Мырза	-10.7293
▁Алишер	-10.7293
▁камалышы	-10.7294
▁ойлонуп	-10.7294
▁Ишен	-10.7295
▁жеткирген	-10.7296
▁сурамжылоо	-10.7296
▁белгилешти	-10.7297
▁куткаруучулар	-10.7298
рд	-10.7301
▁ишмерлер	-10.7302
▁жекшемби	-10.7304
▁иликтөөлөр	-10.7308
▁тартыштыгы	-10.7321
▁келишин	-10.7322
▁Шинжаң	-10.7327
▁гол	-10.7327
тей	-10.7329
▁шайлоолор	-10.7331
▁жылдыгы	-10.7334
Клооп	-10.7336
▁өлчөмүндө	-10.7337
мек	-10.7338
▁бийликтеги	-10.7339
▁Сариев	-10.735
▁болдум	-10.7355
▁Нетаньяху	-10.7356
▁мазмуну	-10.7356
▁очогу	-10.7356
▁өйдө	-10.7356
▁бошотуп	-10.7356
▁жүктөлгөн	-10.7356
▁талдап	-10.7357
▁архитектура	-10.7359
▁айларда	-10.736
▁колдонулат	-10.7363
▁86	-10.7364
▁жатакана	-10.7365
am	-10.7366
▁кү	-10.7376
▁Нарматова	-10.7378
▁акт	-10.7381
▁Тур	-10.7384
▁күчтө	-10.7389
исттик	-10.7394
жыныстык	-10.7396
▁келери	-10.7398
▁ь	-10.7402
▁Бабанов	-10.7403
▁чыңалуу	-10.7404
▁апрелде	-10.7404
андуу	-10.7405
▁2007-	-10.7408
▁мыйзамына	-10.7415
▁аудио	-10.7419
▁Орун	-10.7423
▁корутунду	-10.7424
▁доктору	-10.7425
юр	-10.7425
▁билдирүүсүн	-10.7429
▁жарандыгы	-10.7431
▁мыйзамдары	-10.7432
▁кеңсе	-10.7436
▁берилбейт	-10.7437
▁интервью	-10.7439
▁жазасы	-10.744
▁Керек	-10.744
▁Айрымдары	-10.7446
▁Бей	-10.745
▁коро	-10.745
ография	-10.7452
▁болдук	-10.7455
▁из	-10.746
▁жобо	-10.7461
▁үр	-10.7465
▁ирандык	-10.7466
▁өткөрүлгөн	-10.747
шо	-10.747
▁категория	-10.7477
▁тоскоол	-10.7481
▁Абдрахманов	-10.7482
▁ВИЧ	-10.7482
▁актуалдуу	-10.7482
▁апелляция	-10.7482
▁кыйылды	-10.7482
▁сезип	-10.7482
▁сиздер	-10.7485
▁геосаяс	-10.7485
▁жүргүзүлөт	-10.7486
▁тартылды	-10.7486
▁мамилелерди	-10.7486
▁үйлөрүнө	-10.7488
▁Кант	-10.7489
▁жактоочулары	-10.749
▁барууда	-10.7493
▁түзөтүү	-10.7493
▁аткылоо	-10.7493
өрү	-10.7495
▁каалоосу	-10.7498
▁түндө	-10.75
▁өлчөмү	-10.7502
▁мүмкүнчүлүктөр	-10.7513
▁пункту	-10.7514
▁Жогоруда	-10.7516
▁бизнести	-10.752
▁колдонуучулары	-10.7523
▁маанайда	-10.7526
▁карамагын	-10.7528
▁инфекциясы	-10.753
чил	-10.7541
▁видеону	-10.7545
▁Тыныбекова	-10.7546
▁жөнөттү	-10.7546
▁Жамаат	-10.7546
▁2003-	-10.7546
жар	-10.7546
▁Бектур	-10.7547
▁жоктугу	-10.755
▁Ше	-10.7552
▁тилкесин	-10.7556
▁билем	-10.7558
▁экспорту	-10.7563
▁тартибине	-10.7566
▁луу	-10.7568
▁бүткөндө	-10.757
▁кине	-10.7576
▁булак	-10.7579
▁кылгандар	-10.758
▁талкуулар	-10.758
▁январда	-10.758
▁ойногон	-10.758
▁Ри	-10.7582
▁ачылышы	-10.7582
▁катмары	-10.7583
▁кармалгандар	-10.7588
▁жуктурган	-10.7589
▁менде	-10.7591
▁тапканын	-10.7593
евич	-10.7593
▁алына	-10.7597
▁Бах	-10.76
▁администрацияны	-10.7609
▁Intern	-10.761
▁жамгыр	-10.761
▁жалаа	-10.761
▁ойлон	-10.761
▁тарады	-10.761
▁Эртең	-10.7613
▁үйүн	-10.7613
▁кийлигишүү	-10.7615
▁күчүн	-10.7617
▁дарыла	-10.7622
▁алмашты	-10.7623
▁мелдештер	-10.7629
▁алакасы	-10.7631
▁урду	-10.7631
▁адеп	-10.7635
▁лик	-10.7637
▁Ке	-10.7638
Кыя	-10.7638
▁тамыр	-10.7639
▁максаттары	-10.7645
▁Сер	-10.7646
Коргон	-10.7653
Журт	-10.7653
тта	-10.7656
еш	-10.7656
▁оюндарын	-10.7659
▁30%	-10.7659
тти	-10.7662
U	-10.7668
▁беттеш	-10.7668
▁Дос	-10.767
at	-10.7671
▁жетишти	-10.7672
раф	-10.7673
▁дүрбөлөң	-10.7674
▁калчу	-10.7676
▁жактоочусу	-10.7676
▁Жумабеков	-10.7677
▁декларация	-10.7679
▁Бадахшан	-10.768
▁практика	-10.7681
▁чуркап	-10.7685
▁Алдыда	-10.7686
▁кудай	-10.7688
▁китепкана	-10.7689
▁билдиргени	-10.769
▁жүргүзүүдө	-10.7691
күнгө	-10.7692
▁көйгөйдү	-10.7695
▁процесси	-10.77
▁Буларды	-10.7702
▁кура	-10.7703
▁Кир	-10.7703
▁Никол	-10.7706
▁климат	-10.7708
▁дөрдү	-10.7708
▁Сал	-10.7711
бес	-10.7711
▁эрежесин	-10.7719
▁партиялары	-10.7723
мал	-10.7725
▁гезит	-10.7728
▁күнөө	-10.7728
▁Темировду	-10.7728
▁түйшүк	-10.7739
▁Прокуратура	-10.7739
▁башпаан	-10.7739
▁Нобел	-10.7739
▁Жорж	-10.7739
▁окшогон	-10.774
▁курмандыгы	-10.774
тел	-10.7743
▁чыккынчылык	-10.7746
▁утур	-10.7749
▁билдирүүлөрдү	-10.775
▁Кореяда	-10.7755
ызын	-10.7756
▁соңуна	-10.7758
▁коргой	-10.7761
▁Парижде	-10.7761
▁Кел	-10.7762
▁соккусуна	-10.7764
▁Чу	-10.7767
президенти	-10.777
▁жаңылыктар	-10.7775
▁инвестор	-10.7783
▁үз	-10.7783
▁террорист	-10.7783
▁ишенбей	-10.7788
▁рейд	-10.7788
▁бюджети	-10.7793
▁экономикага	-10.7794
▁албаганын	-10.7796
▁Абду	-10.7797
▁келтире	-10.7803
▁калгандары	-10.7803
▁акциясын	-10.7804
▁поезд	-10.7804
▁трагедия	-10.7804
▁жөлөк	-10.7805
▁эптеп	-10.7805
▁орчун	-10.7805
▁жеткирилди	-10.7807
▁жараянын	-10.7808
▁кылышат	-10.7811
▁кайталап	-10.7814
▁тилке	-10.7814
▁жааган	-10.7816
аль	-10.7817
▁сол	-10.7825
▁Иса	-10.7826
▁жаратууда	-10.7827
▁боору	-10.783
▁уул	-10.7833
▁дарыгери	-10.7833
▁Аль	-10.7834
▁карала	-10.7836
it	-10.7843
▁ва	-10.7845
N	-10.7845
▁максатын	-10.7847
▁сезими	-10.7848
келиндерди	-10.7852
амы	-10.7856
▁борбордо	-10.7857
▁келинген	-10.7857
17	-10.7859
алиева	-10.786
▁колун	-10.786
▁кыймылды	-10.7861
▁каларын	-10.7864
▁сунуштарды	-10.7866
▁режиссер	-10.7869
▁деңгээлин	-10.7869
▁Игор	-10.787
▁билдиришинче	-10.787
▁организм	-10.7872
▁тийгизип	-10.7873
зак	-10.7876
▁түзүлөт	-10.7876
▁чыда	-10.7877
▁абаны	-10.7877
▁s	-10.7878
▁жапкан	-10.7881
li	-10.7882
▁кырсыктары	-10.7887
жөнүн	-10.7887
▁мүмкүнчүлүгүн	-10.7893
▁тартылганы	-10.7897
▁Айтматовду	-10.7898
▁отуруму	-10.7901
▁дозасы	-10.7901
▁чөйрөдө	-10.7902
▁көтөрүлүш	-10.7903
▁кызматында	-10.7907
▁көлөмдө	-10.7908
▁болгондой	-10.791
▁Кам	-10.7914
рүү	-10.7915
▁керектөө	-10.7916
▁техникасы	-10.7926
▁Элчилик	-10.7928
▁аткарылба	-10.793
Газпром	-10.7936
▁бөлгөн	-10.7937
▁аль	-10.7937
▁каптап	-10.7937
▁куткаруу	-10.7938
▁урулган	-10.7939
▁кетчү	-10.7939
▁түркиялык	-10.7942
▁ЖМК	-10.7947
▁Дүйнөдө	-10.7951
▁Гани	-10.7952
▁ашырыл	-10.7953
зат	-10.7953
▁учактарды	-10.7954
▁баян	-10.7954
▁заттар	-10.7961
▁Миң	-10.7966
▁ишинде	-10.7967
▁юристтер	-10.7967
Ко	-10.7968
депутат	-10.7969
▁зыяндуу	-10.7972
▁уга	-10.7972
▁округда	-10.7976
чысы	-10.7977
ролду	-10.7984
▁жеңе	-10.7987
▁дыйкандар	-10.7987
▁өлтүргөн	-10.7994
▁бузганы	-10.7994
▁Активист	-10.7995
▁жумушчулар	-10.7999
▁басылма	-10.8001
▁Искендер	-10.8003
▁сценарий	-10.8003
▁өтүнгөн	-10.8003
▁жараксыз	-10.8003
▁түшпөй	-10.8003
▁өзгөрдү	-10.8005
▁көрүнгөн	-10.8005
▁Го	-10.8011
▁ачылат	-10.8012
▁Марк	-10.8014
▁Айнур	-10.8031
▁Жумуш	-10.8031
▁жайылган	-10.8031
▁багыттары	-10.8035
мурат	-10.8039
▁ас	-10.8045
▁тамыры	-10.8047
▁Эс	-10.8047
▁достору	-10.8051
▁+	-10.8053
▁департамент	-10.8054
▁достук	-10.8062
▁машыгуулар	-10.8066
▁микро	-10.807
▁Талибдер	-10.807
▁Кулубаев	-10.807
▁белгилөө	-10.807
▁Курсан	-10.8071
▁тамеки	-10.8071
▁кылбай	-10.8073
▁калышат	-10.8074
▁Махмудов	-10.8075
▁ойно	-10.8077
▁көрүнөт	-10.8078
▁тартылат	-10.8078
▁мды	-10.8079
▁негиздеген	-10.8079
▁ооруга	-10.8079
атор	-10.8084
▁күрөшүнө	-10.8085
▁билин	-10.8092
▁Инанды	-10.8095
каршы	-10.8095
мөк	-10.8097
▁айыпталуучулар	-10.8099
▁учкан	-10.8101
▁азайган	-10.8117
▁?"	-10.8119
▁баласын	-10.8131
▁сүр	-10.8134
▁Басылма	-10.8138
▁кабарланууда	-10.8138
▁Олимп	-10.8138
▁ажыраткан	-10.8138
▁буту	-10.8139
▁саатты	-10.814
▁Деген	-10.8141
▁Курск	-10.8143
Петербург	-10.8145
иг	-10.8146
▁тийгизет	-10.8147
▁коюлат	-10.8149
▁жоктугуна	-10.8149
▁университетинде	-10.8153
▁81	-10.8154
▁тым	-10.8156
▁уруксаты	-10.8157
▁келебиз	-10.8158
▁айткандарын	-10.8158
▁кет	-10.8158
▁Балдарды	-10.816
▁тилкесине	-10.8161
▁Келишим	-10.8163
▁улутту	-10.8163
30	-10.8164
▁тосмо	-10.8168
▁жолдогон	-10.817
▁журт	-10.817
▁ыкмасы	-10.8171
▁Чүйдө	-10.8174
▁учурган	-10.8178
▁апа	-10.818
▁Крымды	-10.8188
▁чыгары	-10.8189
▁Чыны	-10.8197
▁чач	-10.8197
▁добушун	-10.8198
град	-10.8199
▁өсүш	-10.8204
▁форматта	-10.8205
▁Фергана	-10.8206
▁даярдалып	-10.8206
▁сүрөттөр	-10.8206
▁сүрүп	-10.8207
▁үмүтү	-10.8207
▁Мэрия	-10.8207
▁бешинчи	-10.8208
▁майды	-10.821
▁83	-10.8218
▁сай	-10.8219
юк	-10.8221
▁ракеталар	-10.8222
сти	-10.8223
▁али	-10.8228
▁ушунда	-10.8228
▁Дума	-10.823
▁станциясы	-10.8232
▁кадрлар	-10.8234
▁алуусу	-10.8235
!"	-10.8235
▁Исмаилов	-10.8237
лгөн	-10.824
▁карашта	-10.8242
▁чындыгын	-10.8247
ing	-10.825
Ар	-10.8255
▁куралды	-10.8261
▁улан	-10.8267
▁мөөнөттө	-10.8268
▁төлөмдөр	-10.827
▁үстөмдү	-10.827
▁жаратуу	-10.8273
▁каралды	-10.8279
▁Чынында	-10.8282
шү	-10.8282
▁Американы	-10.8283
▁Сербия	-10.8287
▁ажылык	-10.8298
▁кабарчылар	-10.8301
▁X	-10.831
бор	-10.8312
▁Төлө	-10.8314
▁көтөрө	-10.8314
пикирлер	-10.8318
Бизди	-10.8319
манов	-10.8321
▁шашылы	-10.8322
▁түш	-10.8325
▁боюнда	-10.8325
▁оңдо	-10.8327
Алтын	-10.8329
▁күзөт	-10.8338
▁айылдары	-10.8338
▁кана	-10.8341
▁келишимин	-10.8342
▁кызыктыр	-10.8343
күлдөр	-10.8343
▁Талкуу	-10.8343
uman	-10.8343
▁чаап	-10.8343
▁сүзүп	-10.8344
▁биригип	-10.8344
▁маалыматтарын	-10.8345
штырып	-10.8346
▁маяна	-10.8348
▁борборун	-10.8349
▁ажал	-10.835
▁көрүстөн	-10.8352
▁артта	-10.8354
▁88	-10.8354
▁тапса	-10.8354
10	-10.8355
▁ло	-10.8357
▁Гр	-10.8357
▁фракция	-10.8358
▁алдамчылык	-10.836
▁ойлору	-10.8364
▁акынды	-10.8365
us	-10.8369
▁колдойт	-10.837
▁улана	-10.837
▁Ыр	-10.8371
▁комиссиясына	-10.8371
▁түзгөнү	-10.8376
▁катталганын	-10.8376
▁алы	-10.8377
▁Асан	-10.8381
▁райондо	-10.8381
▁5%	-10.8384
▁негизгиси	-10.8386
▁пайдасына	-10.8387
чоро	-10.8388
▁Азияны	-10.8389
▁Экинчиси	-10.8392
видео	-10.8397
▁шектүүлөр	-10.84
▁узар	-10.8402
▁тандал	-10.8405
▁суроону	-10.841
▁мунаса	-10.8413
▁сунушталып	-10.8414
▁кайрылуусу	-10.8416
▁Кадырбеков	-10.8418
▁эмгектери	-10.8421
ic	-10.8421
▁көрсөтүүдө	-10.8429
▁бекеттери	-10.8433
▁рол	-10.8433
▁зарылдыгы	-10.8436
▁баратканда	-10.844
Алай	-10.844
▁мартта	-10.8442
▁көчөсүндө	-10.8442
болот	-10.8443
▁ланган	-10.8445
▁түшүнө	-10.8445
▁кетишине	-10.8451
▁долбоорунда	-10.8457
ье	-10.8463
▁кетпей	-10.8466
▁операциясын	-10.8468
▁китептерди	-10.847
Йорк	-10.8471
кече	-10.8473
▁бердик	-10.8474
▁Үсөн	-10.848
Реформа	-10.8483
▁Румыния	-10.8483
▁2025-	-10.8483
▁Right	-10.8483
▁уюштурулуп	-10.8483
▁тутанган	-10.8484
▁окуясын	-10.8485
▁Й	-10.8486
▁тарбиялоо	-10.8486
▁козутуу	-10.8486
▁карантинди	-10.8487
▁пайызын	-10.8487
▁аяктайт	-10.849
▁баалоо	-10.8492
▁сүйлөштү	-10.8492
▁башкармалыгына	-10.8493
▁колдоно	-10.8499
рылып	-10.8499
▁аталып	-10.85
▁лөрү	-10.85
▁акцияларын	-10.8502
▁бөлүгүнө	-10.8509
▁чалды	-10.851
▁сүйлөшүүсү	-10.8513
▁чал	-10.8514
▁чабуулу	-10.8518
▁Отунбаева	-10.8524
▁кайдыгер	-10.8527
▁зыянды	-10.8528
▁баатыр	-10.8529
▁жыйынды	-10.8537
▁каш	-10.854
▁көтөр	-10.854
▁бө	-10.8541
▁шты	-10.8546
▁биле	-10.8547
▁өнөктүк	-10.8551
▁блогерлер	-10.8553
▁сейрек	-10.8553
▁жоголуп	-10.8553
▁Жазуучу	-10.8554
▁II	-10.8554
▁туулуп	-10.8555
▁алмашкан	-10.8556
▁лап	-10.8557
Твиттердеги	-10.8557
▁жоруктарды	-10.8561
▁маданиятын	-10.8567
▁делегациясы	-10.8584
▁Жетим	-10.8586
▁кургак	-10.8591
▁органдарында	-10.8593
▁ыктыяры	-10.8594
▁казы	-10.8598
▁таштаган	-10.8604
▁Шам	-10.8607
▁реформалар	-10.8608
Ордо	-10.8609
рей	-10.861
▁күнүндө	-10.8611
▁чабуулду	-10.8613
▁качкын	-10.8619
▁мүнөз	-10.862
▁базарында	-10.8621
▁жыйынтыкта	-10.8623
▁Каракалпакстан	-10.8624
▁чогулду	-10.8624
▁иштеткен	-10.8624
▁салмагы	-10.8624
▁Ти	-10.8624
▁көрсөтүлүп	-10.8624
▁дайындаган	-10.8624
▁жазма	-10.8628
ri	-10.8628
▁Аскердик	-10.8628
▁каттаган	-10.8632
▁кетирген	-10.8634
жу	-10.8635
▁байке	-10.8638
об	-10.864
▁ойло	-10.8642
▁сабап	-10.8643
▁казып	-10.8644
▁шык	-10.8644
▁Акын	-10.8646
мды	-10.8646
Тал	-10.865
▁аягы	-10.8653
▁катмар	-10.8655
▁Донбасста	-10.8658
▁гендер	-10.8658
▁арзанда	-10.8658
▁кылмыштарды	-10.866
▁тарыхын	-10.8662
▁чо	-10.8663
▁экспортто	-10.8668
▁парад	-10.8676
▁станция	-10.8679
▁жүргүзүүнү	-10.8679
ез	-10.8681
▁чечүүнү	-10.8682
▁тааныбай	-10.8683
кеч	-10.8685
▁айттым	-10.8693
▁тагдыр	-10.8695
▁этектеринде	-10.8695
▁чыгармачылыгы	-10.8696
▁суранып	-10.8696
▁даярдаган	-10.8697
▁кымбаттап	-10.8698
▁82	-10.8698
▁Хи	-10.8698
▁сүн	-10.8699
▁токтоо	-10.8699
▁козгоду	-10.8703
чараны	-10.8703
лору	-10.8704
▁жүргөндөр	-10.8704
▁Илим	-10.8705
▁кайрылгандар	-10.8706
▁Саид	-10.8708
▁калганына	-10.8713
▁күл	-10.8713
▁көрсөткүчтөр	-10.8715
▁концерт	-10.8716
▁топтогон	-10.8718
▁кызматташтыгы	-10.8718
▁Абу	-10.8721
▁жерин	-10.8722
▁ооруканаларда	-10.8722
▁окуучуларды	-10.8723
▁каттамдар	-10.8732
улла	-10.8732
ro	-10.8734
▁Осмон	-10.8736
Та	-10.8737
улган	-10.8739
лот	-10.874
▁Пол	-10.8743
▁инен	-10.8745
▁отун	-10.8745
▁алыста	-10.8746
▁жаңжалды	-10.8746
▁көрсөткөнү	-10.8759
▁Маркумду	-10.8764
▁Ооган	-10.8767
▁Рустам	-10.8767
▁Цзинпин	-10.8767
▁күчөттү	-10.8767
сам	-10.8767
▁Коңшу	-10.8767
▁Негизги	-10.8767
▁азайды	-10.8767
▁өтүндү	-10.8768
▁этностук	-10.8768
▁грек	-10.8768
▁керекпи	-10.8771
▁чагымчыл	-10.8772
▁бошоткон	-10.8772
▁Мак	-10.8773
▁түшүнүктүү	-10.8775
▁ри	-10.8775
▁жоболор	-10.8779
▁кабарлап	-10.8779
▁Эрте	-10.8783
аягы	-10.8784
▁140	-10.8784
▁эрежелери	-10.8785
▁орнотулган	-10.879
▁жайылышы	-10.8791
▁жашоону	-10.8792
▁Журт	-10.8792
▁суммада	-10.8796
▁Арабиясы	-10.8797
▁каттап	-10.8797
▁саясатына	-10.8799
▁штатында	-10.8807
▁чап	-10.8807
▁Ван	-10.8808
▁кайтарган	-10.8811
▁козголгонун	-10.8811
оль	-10.8814
маз	-10.8821
▁аталышта	-10.8823
▁сынына	-10.8826
▁ооруларды	-10.8826
жерлерде	-10.8827
▁тартибин	-10.883
▁жабдуу	-10.8831
эр	-10.8832
▁басымы	-10.8832
▁көчмө	-10.8834
▁Балба	-10.8835
▁көргөндө	-10.884
▁Футбол	-10.884
▁саякат	-10.884
Сапат	-10.8843
ттер	-10.8846
▁жатыптыр	-10.8846
▁жеңилдиктер	-10.8846
▁статусу	-10.8846
▁учурду	-10.8846
▁мурас	-10.8851
▁тууну	-10.8855
гыс	-10.8859
▁ишканалары	-10.8859
▁профессору	-10.8862
▁коомду	-10.8862
▁канчасы	-10.8863
▁түзүлүшү	-10.8864
▁мамиледе	-10.8867
▁шектүүнү	-10.8874
▁Куба	-10.8874
▁класс	-10.8874
▁тургандар	-10.8875
рет	-10.8878
▁Ереван	-10.8879
еки	-10.8881
▁талдоочулар	-10.8883
▁беренелер	-10.8884
▁жууп	-10.8885
▁майы	-10.8889
▁кесепеттерин	-10.889
▁атканын	-10.8892
▁Штаттары	-10.8894
▁Британ	-10.8896
кор	-10.8899
▁чулар	-10.89
▁айылдагы	-10.8902
▁округуна	-10.8903
▁Турсун	-10.8904
▁деңгээлинде	-10.8909
▁даңаза	-10.8911
▁Watch	-10.8913
▁чакыртып	-10.8913
▁шектелген	-10.8913
▁калкалап	-10.8914
▁Нурланбек	-10.8914
▁карантинде	-10.8915
▁жаралып	-10.8915
пас	-10.8921
▁жабыркап	-10.8922
▁кайтарылган	-10.8923
▁этабы	-10.8927
▁айыпты	-10.8927
▁диплом	-10.8927
▁жарымына	-10.8932
▁аземи	-10.8939
▁Иван	-10.8939
▁Ис	-10.8943
▁жылыш	-10.8944
▁ңер	-10.8945
▁корпорациясы	-10.8946
▁сөздөрү	-10.8946
▁барышкан	-10.895
▁сасы	-10.895
ышат	-10.8951
▁эсептөө	-10.8955
▁өткө	-10.8959
ашты	-10.8959
▁жоокерлер	-10.896
На	-10.8962
ив	-10.8965
▁өлкөлүктөр	-10.8969
▁келишимдерди	-10.8974
Өзбекстан	-10.8974
талап	-10.8975
▁актоо	-10.8977
▁конок	-10.8979
иешелүү	-10.8981
▁Курман	-10.8981
▁ап	-10.8985
▁буюм	-10.8985
▁жеткиликтүү	-10.8986
Торугарт	-10.8986
▁популярдуу	-10.8986
▁кубогу	-10.8986
▁шайкеш	-10.8986
▁Олег	-10.8986
▁Норвегия	-10.8986
▁байкап	-10.8987
▁койгондо	-10.8987
▁кубаттуу	-10.8988
▁жайгаштыруу	-10.899
йсиз	-10.8991
▁керемет	-10.8991
▁Ибраимов	-10.8994
▁сыңар	-10.8994
▁пайызда	-10.8994
▁жумушсуз	-10.8996
▁түшүрүү	-10.8997
▁майып	-10.8997
▁кароону	-10.8998
▁пландары	-10.8999
▁ратификация	-10.9002
▁жазалоо	-10.9004
▁киргиз	-10.9005
▁мүчөлөрүнө	-10.9005
▁Султанбеков	-10.9005
▁мекени	-10.9006
▁дайыны	-10.9006
луп	-10.9007
▁Бакты	-10.9008
▁Чы	-10.9009
▁жылып	-10.9012
▁ши	-10.9017
бой	-10.9018
▁соккулар	-10.9025
жылдарды	-10.9026
▁форуму	-10.9031
▁бийликтери	-10.9034
▁Нар	-10.9034
▁Аз	-10.9037
▁бүздү	-10.9039
▁калыш	-10.9042
▁жоокерлери	-10.9044
▁чарбасы	-10.9048
▁прокурорду	-10.9049
▁квота	-10.905
▁түшө	-10.905
▁Токаевди	-10.9056
▁бешөө	-10.9057
▁адилеттүү	-10.9059
Крокус	-10.906
▁транс	-10.9061
▁уурдалган	-10.9061
▁учурап	-10.9061
▁кылым	-10.9063
▁окуй	-10.9064
▁ууда	-10.9065
▁Жи	-10.9067
дарында	-10.9071
▁көпчүлүктү	-10.9073
▁улук	-10.9073
▁өлгөндөр	-10.9073
▁ЖК	-10.9075
▁мандатын	-10.9076
▁жетекчилерди	-10.9076
▁берели	-10.908
▁жазуучулар	-10.9086
▁чечиш	-10.9086
▁чыгармаларын	-10.9091
чатак	-10.9093
▁телеканалдар	-10.9095
▁бас	-10.9095
▁Ки	-10.9097
▁базарлар	-10.9098
▁по	-10.9099
мед	-10.9101
▁Аялдар	-10.9106
24	-10.9113
▁Кумтөрдү	-10.9115
▁төрө	-10.9115
▁басуу	-10.9116
▁талкуулаган	-10.9116
▁ошолорду	-10.9119
▁жака	-10.9121
▁экөөбүз	-10.9124
▁күбөлүк	-10.9127
иза	-10.9128
▁баштан	-10.913
▁Айрымдар	-10.913
▁дрондор	-10.9133
▁Жунушалиев	-10.9135
▁пахта	-10.9135
▁Комитет	-10.9135
▁жолугушуп	-10.9135
▁токтотулду	-10.9136
▁талкуулашты	-10.9137
▁алмашып	-10.9137
▁кулаган	-10.9138
▁тастыктаган	-10.9139
▁Муса	-10.9139
▁терезе	-10.914
▁үндөгөн	-10.9142
▁сүйлөшүүлөрү	-10.9143
▁жиберүү	-10.9144
▁дүкөндөр	-10.9148
▁Кавказ	-10.9152
▁добушу	-10.9153
▁чыгаруучу	-10.9154
▁түшкөнү	-10.9163
▁көмөктөшүү	-10.9165
▁институт	-10.9165
▁адамзат	-10.918
өш	-10.9186
орун	-10.9187
▁Фейсбук	-10.9187
▁жашоочулары	-10.9189
▁талаптары	-10.919
▁тасманы	-10.9191
▁козголоң	-10.9192
сия	-10.9195
▁дүйшөмбү	-10.9196
▁топтоо	-10.92
▁кайрыла	-10.9206
бери	-10.9207
▁жатасыз	-10.9208
▁вируста	-10.921
▁Чаткал	-10.921
▁кредит	-10.921
▁ырааттуу	-10.921
▁1994-	-10.921
▁тамаша	-10.921
▁башкаларды	-10.9211
▁океан	-10.9211
▁чыл	-10.9211
le	-10.9211
▁турууну	-10.9211
▁иликтөөдө	-10.9211
▁Ая	-10.9217
▁зарылчылыгы	-10.9222
▁альянс	-10.9224
▁Сити	-10.9226
▁жабдуулар	-10.9229
▁көйгөйлөрү	-10.9231
▁имаратына	-10.9231
ио	-10.9232
Балта	-10.9236
▁сонун	-10.9237
▁ракеталарды	-10.9238
V	-10.9239
▁процесстер	-10.9239
▁пи	-10.9241
▁комитетине	-10.9243
▁коммунист	-10.9244
▁министрлигинде	-10.9244
▁кылынганы	-10.9246
▁ю	-10.9247
▁Санарип	-10.9249
▁макулдашылган	-10.9249
▁тарын	-10.9252
▁курулушун	-10.9255
▁аракеттенүү	-10.9258
▁уранды	-10.9259
лыш	-10.926
▁агым	-10.9263
▁жайылышына	-10.9266
ымды	-10.9266
▁алмак	-10.9269
▁комитетинде	-10.9274
▁Астанада	-10.9281
▁туруш	-10.9281
▁уна	-10.9283
▁күчөтүп	-10.9286
▁эбеге	-10.9286
▁төмөндөп	-10.9286
▁чейрек	-10.9286
▁Ишкер	-10.9286
▁кесипкөй	-10.9286
▁Карантин	-10.9288
▁чектелүү	-10.9288
▁тилкелери	-10.9291
▁93	-10.9291
нсация	-10.9292
▁кеткендер	-10.9295
▁унаалар	-10.9296
▁койбойт	-10.9299
▁Парламентте	-10.9302
▁калабыз	-10.9302
▁ңызды	-10.9306
ыккан	-10.9307
▁Тихановская	-10.9311
▁журналистика	-10.9316
▁аннексияла	-10.9318
▁түшкөндө	-10.9319
▁Эгемендик	-10.9321
▁принцип	-10.9323
▁Аким	-10.9324
▁беков	-10.9326
▁өлкөсүндө	-10.9337
▁маселеде	-10.9338
▁ым	-10.9344
▁оппозициясы	-10.9344
▁консул	-10.9345
▁Жээн	-10.9351
динов	-10.9351
▁Чен	-10.9351
▁порталы	-10.9353
▁жумуштар	-10.9355
мир	-10.9355
▁Бөлтүрүк	-10.936
иб	-10.9361
­	-10.9362
▁Австрия	-10.9362
▁Тескерисинче	-10.9362
▁Пентагон	-10.9362
▁кесиптеши	-10.9362
▁залкар	-10.9362
▁Араван	-10.9362
▁жылдыруу	-10.9362
▁канцлер	-10.9363
▁топтолуп	-10.9363
▁бөрү	-10.9363
▁Мурун	-10.9364
▁4,5	-10.9365
▁кимиси	-10.9365
▁түшүнүксүз	-10.9365
▁ланып	-10.9367
жемиш	-10.9369
▁жашырып	-10.9371
▁ракеталары	-10.9373
▁комплексин	-10.9374
▁зал	-10.9375
▁Ви	-10.9376
▁мекемелерде	-10.9379
▁тапканы	-10.938
▁көрсөтмөсү	-10.9381
▁алдыруу	-10.9381
▁объектилерди	-10.9383
▁ыйлап	-10.9383
▁Биримдигине	-10.9383
▁Жар	-10.9385
▁Так	-10.9388
▁жайыт	-10.9389
▁журналисттери	-10.9391
▁бурган	-10.9392
▁дос	-10.9393
▁дарыларды	-10.9393
▁Орозо	-10.9394
▁суну	-10.9395
or	-10.9395
сай	-10.9397
▁Мариупол	-10.9398
▁текшерүүнү	-10.9399
▁аянт	-10.94
▁кайтарды	-10.9401
▁доорунда	-10.9408
▁сүйлөшүүлөрдө	-10.9416
▁короо	-10.9416
▁чыгымы	-10.9416
энелери	-10.9418
▁Облусту	-10.9418
бл	-10.9418
▁саналуу	-10.9419
▁жары	-10.9423
▁провинциясы	-10.9425
▁шаарлар	-10.9426
H	-10.943
медициналык	-10.9431
▁силерди	-10.9432
▁импорт	-10.9433
▁Англия	-10.9439
▁компе	-10.9439
▁2001-	-10.9439
▁Ши	-10.9439
el	-10.944
▁тургандыгын	-10.9441
▁15-20	-10.9442
▁Осмоналиев	-10.9443
▁төшө	-10.9445
▁рды	-10.9446
▁вакцинасын	-10.9448
▁агрессия	-10.9448
▁89	-10.945
▁бербеген	-10.9452
▁Из	-10.9452
▁макулдашты	-10.9455
▁башкысы	-10.9456
▁аткаминер	-10.9456
▁Рим	-10.9459
▁Кеп	-10.9462
▁Сиздер	-10.9462
▁Бээжинди	-10.9463
▁Америкада	-10.9464
фер	-10.9469
ыйыр	-10.9469
▁мекемелери	-10.947
▁чечет	-10.9472
▁Газ	-10.9472
▁наамы	-10.9473
▁болгондугу	-10.9475
▁таңкы	-10.9475
Орусия	-10.9481
▁АЭС	-10.9485
▁ресторан	-10.9487
▁демонстрациялар	-10.9487
▁Индияны	-10.9489
▁сарай	-10.949
▁режимди	-10.949
▁алектен	-10.949
ol	-10.9491
▁тарыхчы	-10.9492
▁жеткире	-10.9499
▁салмак	-10.9501
▁жабыркаганы	-10.9509
▁Үчүнчү	-10.9512
▁салыштырган	-10.9517
▁кызым	-10.9518
▁Арыз	-10.9518
▁баарды	-10.9519
тпай	-10.9519
▁кошулду	-10.952
▁жагдайларды	-10.9521
▁сүрөтчү	-10.9527
▁ыңыз	-10.9528
▁элдиктер	-10.9528
▁өздөрүнө	-10.9534
оф	-10.9534
▁350	-10.9535
▁байланыштар	-10.9535
▁боор	-10.9538
тапкы	-10.9539
▁дарыланууда	-10.9539
▁шектүүлөрдү	-10.9542
▁ишемби	-10.9543
▁отурумда	-10.9549
▁рак	-10.9556
▁жоготкон	-10.9557
дыктар	-10.956
▁Батукаевди	-10.956
▁94	-10.9561
▁өзгөрт	-10.9564
▁таанышты	-10.9568
берди	-10.9569
▁транспорттук	-10.9573
▁үндө	-10.9573
27	-10.9576
▁ыкмалары	-10.9578
▁Алдын	-10.9578
▁жетпейт	-10.9579
▁тилектешти	-10.958
▁артып	-10.9585
▁эте	-10.9586
▁тап	-10.9587
▁жаздым	-10.9588
▁кыскарт	-10.9588
▁поли	-10.9591
▁көзүн	-10.9592
▁өнөктөштүк	-10.9593
▁орустар	-10.9594
▁төкмө	-10.9595
▁Covid	-10.9595
▁имп	-10.9596
▁баягы	-10.9596
▁кылышууда	-10.9596
ерлер	-10.9596
▁актаган	-10.9597
▁ыйла	-10.9598
астыкты	-10.96
▁урган	-10.96
беген	-10.9601
▁айыбы	-10.9604
▁96	-10.9604
▁туугандар	-10.9604
▁кириш	-10.961
зе	-10.9614
▁Евробиримдикте	-10.962
сатык	-10.9621
▁сө	-10.9621
re	-10.9622
▁чабуулда	-10.9622
▁редакция	-10.9622
▁криминал	-10.9622
Хезболла	-10.9625
▁Ачык	-10.9627
▁өчүр	-10.963
▁Зеленскийди	-10.9632
▁ишенген	-10.9634
▁идеясы	-10.9637
▁ооруканасына	-10.9642
▁текшер	-10.9646
▁өндүрүшү	-10.9649
ктүү	-10.965
▁Федерациясы	-10.9655
▁мүнөттө	-10.9657
▁кесепетин	-10.9657
▁өзгөчөлүгү	-10.9657
▁жүргүнчүлөр	-10.966
▁Жээнбек	-10.967
▁катыш	-10.9673
▁документи	-10.9674
▁жиберилген	-10.9674
▁коңгуроо	-10.9674
▁купуя	-10.9674
▁Олжо	-10.9674
▁кичүү	-10.9674
▁Хасан	-10.9674
▁Тар	-10.9675
туруму	-10.9676
▁белгилешкен	-10.9677
▁киришти	-10.9677
▁бактылуу	-10.9678
▁Ур	-10.9679
▁жоокери	-10.9679
▁гу	-10.9681
▁түштө	-10.9681
▁машинелер	-10.9681
▁грузи	-10.9682
ланып	-10.9696
▁заттарды	-10.9698
▁тазалап	-10.9701
авел	-10.9704
▁бирлери	-10.9704
▁заводду	-10.9707
▁жагына	-10.9708
▁ресурс	-10.9708
▁сатыл	-10.9709
▁Шо	-10.9709
▁малды	-10.9712
▁жазы	-10.9712
дыктан	-10.9713
▁ында	-10.9714
▁автобустар	-10.9714
▁ырайым	-10.9718
▁жумгандар	-10.9719
Бел	-10.9719
▁порт	-10.9721
▁документте	-10.9724
▁криминалды	-10.9725
▁ажыра	-10.9725
дуулук	-10.9727
▁долбоорлору	-10.9731
▁Иликтөө	-10.9733
▁Коронавирусту	-10.9734
▁бызда	-10.9734
▁талапкери	-10.9735
▁депутаттарын	-10.9737
▁өспүрүмдөр	-10.9738
▁фактор	-10.974
▁манасчы	-10.9741
▁ийгиликтер	-10.9742
дашып	-10.9742
спикер	-10.9748
▁аткарыл	-10.9749
▁фейк	-10.9749
▁тиреш	-10.9751
▁унчукпа	-10.9753
▁Тогуз	-10.9753
▁түбөлүк	-10.9754
▁чочулап	-10.9754
▁Кен	-10.9755
▁аралы	-10.9756
▁Сизди	-10.9756
▁калдыктары	-10.9757
▁Дар	-10.9758
▁Сотто	-10.9759
▁Окуу	-10.976
▁арыздан	-10.9761
▁койчу	-10.9762
▁дүгү	-10.9765
▁сандар	-10.9768
▁ЦАХАЛ	-10.9772
▁залына	-10.9772
▁ЖККУну	-10.9775
▁лоо	-10.9776
▁92	-10.9778
күл	-10.978
▁ация	-10.978
▁учка	-10.9781
▁Лондондо	-10.9782
▁даярдыкта	-10.9786
▁табыш	-10.9786
▁чөлкөмдө	-10.9792
▁Мухаммед	-10.9794
▁тапшырмалар	-10.9794
▁барлар	-10.98
40	-10.9802
ром	-10.9804
▁каражатын	-10.981
▁пропаганда	-10.9811
зия	-10.9812
▁байкоочу	-10.9812
▁айткы	-10.9815
▁телефону	-10.9818
лий	-10.9819
▁өзгөр	-10.9821
▁кызыкчылык	-10.9822
W	-10.9823
▁бо	-10.9826
▁уза	-10.9826
▁бизнеси	-10.9827
▁дейм	-10.9829
▁координация	-10.9832
▁турмушту	-10.9833
▁сыпаттады	-10.9833
▁толтуруу	-10.9833
▁белгиленип	-10.9833
▁айырмаланып	-10.9833
▁Бекназаров	-10.9833
▁фото	-10.9834
▁жасалды	-10.9834
▁Арасын	-10.9842
▁Абдрахматова	-10.9842
▁уулуна	-10.9843
▁Гул	-10.9847
Улуу	-10.9848
▁тартканы	-10.9851
▁аянтча	-10.9853
▁кафе	-10.9855
▁аттары	-10.9858
-2	-10.9859
▁Экөө	-10.986
▁чындыкты	-10.986
▁Абай	-10.9862
▁пандемияда	-10.9863
▁кабардар	-10.9863
дашуу	-10.9864
▁сахна	-10.9865
▁материалдары	-10.9866
▁паспорту	-10.9867
▁Роман	-10.9869
▁планда	-10.987
▁бур	-10.9871
иячыл	-10.9872
▁таймаш	-10.9873
▁-1	-10.9874
▁активистти	-10.9877
▁кыйылган	-10.9878
▁станциялары	-10.9883
▁ойлор	-10.9883
▁Жара	-10.9884
rk	-10.9889
▁маселесинде	-10.9889
▁талкууланган	-10.9889
ху	-10.989
▁обсервация	-10.9891
▁Ер	-10.9891
▁университет	-10.9893
▁салганын	-10.9897
▁Жапонияда	-10.9899
▁кыздары	-10.9903
▁коюлганын	-10.9905
▁факультетин	-10.9907
▁чыгышын	-10.991
чилик	-10.991
▁жүгү	-10.9912
▁буюртма	-10.9914
▁муфтий	-10.9914
▁чийки	-10.9914
▁Илдет	-10.9914
▁федерал	-10.9914
Грузи	-10.9914
▁рухани	-10.9914
▁ошентип	-10.9914
▁Жоошев	-10.9914
▁TV	-10.9914
▁тергелип	-10.9914
▁20%	-10.9915
▁жатасыңар	-10.9915
▁мүлкү	-10.9915
▁чектеген	-10.9917
▁кызыкчылыктарын	-10.9917
▁реформалоо	-10.9918
▁Брюсселде	-10.9919
▁Султанбаев	-10.9919
▁жолдон	-10.992
▁Соттук	-10.9921
▁ГЭСин	-10.9922
▁аталышын	-10.9927
▁көмүрдү	-10.993
▁7-8	-10.9931
▁серепчилер	-10.9931
▁бааны	-10.9933
▁макулду	-10.9933
▁изи	-10.9937
▁телеканал	-10.9938
▁Но	-10.994
▁башталганы	-10.9941
▁сезим	-10.9943
▁Кеңеши	-10.9945
▁сому	-10.9947
▁ошолор	-10.995
▁баева	-10.995
▁1996-	-10.9951
▁жактаган	-10.9954
энелерди	-10.9955
▁сабаган	-10.9957
▁жыйынтыктары	-10.9958
▁айыптуу	-10.9961
▁саммитинде	-10.9962
▁ысымын	-10.9962
▁99	-10.9963
үйүнүн	-10.9963
▁талашып	-10.9965
▁күрөшкөн	-10.9966
ll	-10.9969
▁Зар	-10.9972
▁Палестина	-10.9973
▁жетиш	-10.9974
▁күндөр	-10.9975
▁кылам	-10.9975
▁учурларды	-10.9976
ото	-10.9977
▁Бен	-10.9978
▁аталышы	-10.9979
ард	-10.998
▁стандарт	-10.9982
▁оккупация	-10.9982
▁райондору	-10.9994
▁өрттөн	-10.9994
▁акындар	-10.9994
▁этти	-10.9994
▁сейил	-10.9995
▁арттыруу	-10.9995
▁Коммунист	-10.9995
▁турнир	-10.9995
▁кыйраган	-10.9995
▁оюмча	-10.9997
▁чагылдырып	-10.9998
▁күй	-10.9999
▁өткөрүүдө	-10.9999
▁Долбоорду	-10.9999
диктен	-11.0001
▁тастыктады	-11.0001
январына	-11.0002
▁башташ	-11.0002
▁жигиттер	-11.0003
▁лыгы	-11.0003
▁издөөдө	-11.0004
▁түшүндүрөт	-11.0004
▁жашырган	-11.0005
түлүктү	-11.0006
▁жүзүн	-11.0007
▁болушат	-11.0008
:30	-11.0009
▁каралоо	-11.001
▁кызматкерине	-11.002
▁чыгарын	-11.0021
▁Камал	-11.0024
▁тактала	-11.0024
▁термин	-11.0025
▁күнөөсүн	-11.0027
▁атка	-11.003
▁зона	-11.0033
▁бети	-11.0034
▁сүйлөшкөнү	-11.0038
▁ажы	-11.0038
▁аянтта	-11.0039
▁бердим	-11.0039
▁Тарых	-11.004
▁билиши	-11.0043
▁за	-11.0047
▁жүктө	-11.005
▁космос	-11.0052
улуп	-11.0053
хе	-11.0056
▁көчүрү	-11.0059
▁му	-11.0059
▁Курал	-11.006
▁ырайымсыз	-11.006
▁Пи	-11.0064
▁экспортту	-11.0069
леген	-11.007
▁болгу	-11.0073
бөлүгү	-11.0073
эпидемиология	-11.0073
▁түйүнү	-11.0075
Коопсуз	-11.0076
▁Шах	-11.0077
▁Эммануэл	-11.0077
▁түшүнүгү	-11.0077
▁Ырыс	-11.0077
▁Денис	-11.0077
▁жөнөтүлдү	-11.0078
айыгышкан	-11.0079
үмдү	-11.0079
▁машинени	-11.008
▁кароодо	-11.0082
▁дебей	-11.0085
▁чогулткан	-11.0085
▁физика	-11.0086
▁көрсөткөндөй	-11.0088
▁суранды	-11.009
▁оро	-11.009
▁кама	-11.009
▁Чехия	-11.0091
▁өткөрөт	-11.0094
Вагнердин	-11.0094
▁алышып	-11.0096
▁орусиялыктар	-11.0096
▁ха	-11.0099
▁Түп	-11.0104
▁туугандарына	-11.0105
▁пас	-11.0109
▁ниет	-11.011
▁күрөө	-11.0111
▁аттанган	-11.0115
▁божомолдо	-11.0119
▁салганы	-11.0119
▁агенттер	-11.012
▁сөздөрүн	-11.0122
▁Польшаны	-11.0122
▁ский	-11.0129
▁социал	-11.013
▁оюнда	-11.0131
▁делегация	-11.0131
▁жүргүзө	-11.0134
▁падыша	-11.0135
▁музейи	-11.0135
▁көчөсү	-11.0135
▁элин	-11.0136
ch	-11.0136
▁өзүнөн	-11.0137
▁өтөрүн	-11.0142
▁жабыл	-11.0144
▁жолдошу	-11.0145
▁тармактарды	-11.0147
юу	-11.0153
келди	-11.0157
▁эпосу	-11.0159
Кыргызгидромет	-11.016
▁Латвия	-11.016
▁1999-	-11.016
▁талкаланып	-11.016
▁жеңген	-11.016
▁көлөм	-11.0162
▁кетиптир	-11.0165
▁инвесторлорду	-11.0166
▁баалар	-11.0166
▁сактай	-11.0167
▁ташта	-11.0169
▁бетин	-11.0169
▁Эрдоганды	-11.017
▁Түлө	-11.0172
▁натыйжасы	-11.0172
▁том	-11.0173
▁Болгария	-11.0174
▁3-4	-11.0174
▁5-6	-11.0176
▁өтөө	-11.0176
▁издеген	-11.0181
▁иликтөөсү	-11.0182
▁түс	-11.0185
түнү	-11.0187
▁укуктарына	-11.0187
▁ишканасына	-11.0188
▁жарыяла	-11.0188
▁коргош	-11.0193
▁Дамир	-11.0199
▁фильм	-11.0199
исттер	-11.0203
▁дарылар	-11.0205
es	-11.0206
▁аймактарын	-11.0208
▁айыпталуучу	-11.0208
▁Бая	-11.021
▁эркектерди	-11.0211
▁коркунучуна	-11.0216
▁материалдарын	-11.0225
▁кечир	-11.0225
лерде	-11.0233
▁ракетасы	-11.0235
▁клиникасы	-11.0235
▁мейманкана	-11.0236
▁уйгур	-11.0236
▁опера	-11.0238
▁башчылык	-11.0239
Адам	-11.0242
▁этият	-11.0242
▁Сурабалдиев	-11.0243
▁1995-	-11.0243
▁Жамал	-11.0244
▁системасында	-11.0244
▁Сүйүн	-11.0246
Нур	-11.0249
▁кетирүү	-11.0251
▁бүтүндүгүн	-11.0261
сагын	-11.0262
▁илинген	-11.0267
▁нааразычылы	-11.0268
▁ңүз	-11.027
▁төгүп	-11.0272
▁маалыматтары	-11.0273
▁жактырган	-11.0276
▁ооруканасында	-11.0279
Фейсбук	-11.028
▁чуу	-11.0284
тердик	-11.0285
▁кирешелер	-11.0286
▁айланат	-11.0287
▁отставка	-11.029
торду	-11.0292
▁Вашингтонду	-11.0294
▁ларына	-11.0294
▁согушуп	-11.0295
▁келатканын	-11.0296
▁мди	-11.0297
▁Атам	-11.0301
▁катышпай	-11.0305
▁штаты	-11.0307
▁Калы	-11.0311
▁реформаларды	-11.0315
▁Тургун	-11.0316
▁татар	-11.032
▁элдер	-11.0323
▁конфискация	-11.0327
▁чөгүп	-11.0327
▁аныктады	-11.0327
рүп	-11.0328
▁берсин	-11.0328
Чек	-11.0328
▁жабыркады	-11.0331
▁Ниязов	-11.0332
▁каршылыгын	-11.0334
идин	-11.0335
▁тарт	-11.0336
▁пакет	-11.0341
▁бензин	-11.0345
18	-11.0346
▁айтсам	-11.0349
▁фи	-11.0354
▁округу	-11.0355
▁таанып	-11.0357
иф	-11.0357
▁тыш	-11.0359
▁шаарларды	-11.0362
▁чуулг	-11.0363
▁Аймакта	-11.0363
▁кеткенине	-11.0366
▁байланышуу	-11.0366
▁болууну	-11.0366
▁үшү	-11.0373
▁талабына	-11.0378
▁сезе	-11.0381
▁Районду	-11.0382
▁баалуулуктар	-11.0387
▁көрүшү	-11.0391
▁сезген	-11.0393
▁болуптур	-11.0394
▁кайтар	-11.0395
▁Нидерланд	-11.0399
▁ңыздар	-11.04
▁реформасы	-11.0402
▁алтынчы	-11.0402
граф	-11.0403
▁Мамат	-11.0406
▁коо	-11.0409
Кызмат	-11.041
▁Абакиров	-11.0412
▁Кудайберген	-11.0412
▁телерадио	-11.0412
▁Белгород	-11.0412
▁поэзия	-11.0412
▁утулуп	-11.0412
▁шайланды	-11.0412
▁соттолуп	-11.0413
елгилүү	-11.0414
▁барабар	-11.0414
▁Туура	-11.0414
▁аткарбай	-11.0415
▁түгөн	-11.0416
▁жеңди	-11.0416
▁инфляция	-11.0417
▁мекен	-11.0419
▁ачары	-11.0419
▁атылып	-11.042
▁резерв	-11.0421
▁кышкы	-11.0421
▁келүүнү	-11.0421
▁элчиликти	-11.0429
аракеттери	-11.0431
▁кошкондо	-11.0434
▁этет	-11.0434
▁Эш	-11.0437
▁израилдик	-11.0437
▁кызматтагы	-11.0437
▁салыш	-11.0437
▁латын	-11.0439
▁кылдык	-11.044
▁түзө	-11.0441
▁чеч	-11.0442
▁оппозицияны	-11.0448
▁40%	-11.0448
▁жаны	-11.0449
рас	-11.0454
▁аткарылган	-11.0456
▁жетишүү	-11.0457
эрлик	-11.0458
онов	-11.046
▁сыйлыгын	-11.046
▁арачылар	-11.046
ант	-11.046
▁визасы	-11.0462
▁аралар	-11.0463
▁Жекшембиде	-11.0463
▁туру	-11.0464
▁болом	-11.0464
▁мэрияны	-11.0467
▁атпайбы	-11.0468
▁адамы	-11.0471
▁өткөрө	-11.0472
мыш	-11.0479
▁L	-11.048
теш	-11.0482
▁Мектеп	-11.0486
▁пикирлерди	-11.0487
▁төн	-11.0489
▁ачылышын	-11.0491
ью	-11.0492
▁Дүйшөмбүдө	-11.0495
▁куткаруучу	-11.0495
▁(+1	-11.0496
▁үстөк	-11.0497
▁Жамбыл	-11.0497
▁бекиткен	-11.0497
Альянс	-11.0497
▁каргаша	-11.0497
▁2002-	-11.0497
▁пайгамбар	-11.0497
▁сыртында	-11.0498
▁таянсак	-11.0498
▁жумушсуздук	-11.0499
▁тасмалар	-11.0499
▁куугунтуктоо	-11.0499
▁°	-11.05
Чет	-11.0501
▁жакырчылык	-11.0502
▁Ирин	-11.0503
мынча	-11.0508
▁сүрөттөрдү	-11.0509
▁Исаковду	-11.0509
▁жүргүзөт	-11.0515
▁күбөлөр	-11.0515
▁жүктөп	-11.052
▁үндөп	-11.0521
▁караса	-11.0522
▁тейле	-11.0524
▁Атыр	-11.0526
▁Мамлекетти	-11.0527
▁Кеч	-11.0528
▁курула	-11.0529
оого	-11.0533
▁айдоочуларды	-11.0534
▁лө	-11.0534
▁аныкташ	-11.0534
▁жуккандарды	-11.0536
▁Мари	-11.0539
▁W	-11.0539
чатактар	-11.0541
▁жукту	-11.0543
▁чалдыккандар	-11.0546
мөй	-11.0547
мбаев	-11.055
▁Маалыматты	-11.0551
▁Сел	-11.0552
▁лицензиясы	-11.0553
төп	-11.0554
▁комплекси	-11.0557
▁көңүлү	-11.0557
▁банкта	-11.0558
▁Гар	-11.0559
▁бийликтер	-11.056
▁октябрында	-11.0562
▁аэропортуна	-11.0564
▁биримдикти	-11.0567
▁жайларына	-11.0569
▁жаңжалы	-11.0571
▁оюну	-11.0573
▁вирусуна	-11.0576
▁ураан	-11.0578
▁Кас	-11.0583
▁Самарканд	-11.0583
▁чыкпоо	-11.0583
▁өтүнүп	-11.0583
▁2004-	-11.0583
]	-11.0584
лген	-11.0584
▁жүрсө	-11.0584
▁маеги	-11.0584
Мамлекеттик	-11.0584
▁кемпир	-11.0585
▁сакайы	-11.0585
▁кароосуна	-11.0586
▁денеси	-11.0586
▁санаган	-11.0586
11	-11.0586
▁кийими	-11.0587
▁өнүм	-11.0588
▁ыктыяр	-11.0589
чо	-11.059
▁Израилде	-11.059
▁ылдый	-11.0591
▁алышпайт	-11.0591
▁Чынар	-11.0593
▁этика	-11.0597
лөө	-11.0599
▁кызыгып	-11.0599
▁катышары	-11.06
▁танк	-11.0603
хар	-11.0605
▁өнөктөштөр	-11.0606
истика	-11.0607
▁айыкты	-11.0607
▁Такта	-11.0609
▁кылмыштары	-11.0611
▁бөлөк	-11.0614
▁ашыра	-11.0618
▁демократияны	-11.0621
▁фестивалы	-11.0622
▁айлампасы	-11.0623
▁демократтар	-11.0623
▁айылдар	-11.0624
▁Дары	-11.0626
▁саноо	-11.0627
иц	-11.063
▁жайларында	-11.0631
▁талапкерлиги	-11.0637
▁авиа	-11.0637
▁Аф	-11.0639
▁келсек	-11.064
▁төрагалык	-11.0646
▁Бири	-11.0647
▁кемеси	-11.065
▁класста	-11.0656
▁иштеди	-11.0656
▁таңга	-11.0659
▁Жаз	-11.0665
атов	-11.0668
▁Бердымухамедов	-11.067
▁Кундуз	-11.067
▁Нооруз	-11.067
▁психика	-11.067
▁жапайы	-11.067
▁реконструкция	-11.067
▁желеги	-11.067
▁Чындыгын	-11.0671
▁улгайган	-11.0671
▁тартылышы	-11.0671
▁маанайы	-11.0671
▁кыйга	-11.0674
▁чыгарылат	-11.0675
▁ортосуна	-11.0675
▁тапшырылды	-11.0675
▁каатчылык	-11.0676
▁наристе	-11.0677
раз	-11.0678
▁кагууда	-11.068
▁чыгымды	-11.0684
▁университеттер	-11.0685
▁Партия	-11.0694
▁дүктөн	-11.0704
▁каттамдары	-11.0706
лайман	-11.0707
▁Пер	-11.0708
▁үлүш	-11.0715
▁сектор	-11.0716
▁кагылышуулар	-11.0718
▁патент	-11.0718
▁алары	-11.0719
тайын	-11.0722
▁жагында	-11.0727
▁Мыйзамды	-11.0727
▁ки	-11.0732
▁болушуна	-11.0734
▁турмушу	-11.0734
▁сайт	-11.0736
▁Светл	-11.0737
▁оорусуна	-11.0739
▁дубан	-11.0741
▁Газаны	-11.0743
▁акцияларына	-11.0743
▁колдонгону	-11.0747
▁өскөнү	-11.0748
стиция	-11.075
▁бузулганы	-11.0751
▁Бе	-11.0752
▁Кылмыштар	-11.0754
▁айыптоолор	-11.0755
▁паркы	-11.0755
▁Миграция	-11.0758
▁айыпталууда	-11.0758
▁сыпаттаган	-11.0758
Ыйман	-11.0758
▁алектенип	-11.0761
▁реестр	-11.0761
кайра	-11.0762
et	-11.0763
▁бааланган	-11.0764
▁чарчап	-11.0765
▁Гал	-11.0765
▁Жапонияны	-11.0766
▁таштады	-11.0767
▁кызматташкан	-11.0769
▁чакырат	-11.0769
▁бейтарап	-11.0772
▁куран	-11.0772
▁мезгилине	-11.0779
До	-11.0782
▁колдонууну	-11.0788
▁өлкөсүнө	-11.0791
декабрын	-11.0793
▁ажыраган	-11.0793
▁аэропортунда	-11.08
▁Антони	-11.08
▁Ол	-11.0802
акай	-11.0802
улам	-11.0804
▁кору	-11.0804
▁Мам	-11.0804
▁февралын	-11.081
▁Тенг	-11.0811
▁албады	-11.0811
ех	-11.0811
▁мүмкүндү	-11.0824
▁өтөгөн	-11.0825
▁аткаминерлерди	-11.0826
▁күрөшкө	-11.0826
▁операцияны	-11.0829
министрди	-11.0833
ици	-11.0836
▁кызыгуу	-11.0836
▁Исмаил	-11.0837
▁акцияларды	-11.0838
▁колдоосун	-11.084
▁Кылыч	-11.0843
▁милдеттенмелери	-11.0845
▁Шанхай	-11.0847
▁Тараптар	-11.0847
▁Арзы	-11.0847
▁жубайлар	-11.0847
▁санариптештирүү	-11.0847
▁түшүрүп	-11.0847
▁мугалимди	-11.0848
▁тандаган	-11.0849
▁демилгечи	-11.085
▁киргизилет	-11.0851
мира	-11.0852
▁кагылышта	-11.0852
kz	-11.0856
▁көбөйөт	-11.0859
▁Ишти	-11.086
дүгү	-11.0862
▁КТРК	-11.0862
▁тааный	-11.0864
▁айылдарда	-11.0864
▁курагы	-11.0865
▁"...	-11.0866
▁Юри	-11.0867
▁эн	-11.0868
▁мунайды	-11.0868
▁сессия	-11.0868
▁аттан	-11.0873
▁жеңилдик	-11.0874
▁платформа	-11.0875
▁чечти	-11.088
▁айылдарында	-11.0883
энем	-11.0884
▁Мирзиёевди	-11.0884
▁дарамети	-11.0885
▁Сур	-11.0886
▁кармады	-11.0888
▁орно	-11.0894
▁Бел	-11.0897
▁карамагында	-11.0898
▁ымыркай	-11.0899
▁борборлор	-11.0899
▁актылар	-11.09
▁колдонуучулар	-11.0903
▁Конгресс	-11.0904
▁келтир	-11.091
▁инстанция	-11.0915
▁беттеште	-11.0918
▁берүүсүн	-11.092
▁унааларды	-11.0922
▁иде	-11.0923
▁Ген	-11.0924
▁чечиле	-11.0925
w	-11.0926
ргөн	-11.0926
▁тартканын	-11.0928
▁бакчалар	-11.0934
▁жүр	-11.0935
▁контрчабуул	-11.0936
▁коркуткан	-11.0936
▁1997-	-11.0936
▁Эмираттары	-11.0936
▁кескен	-11.0936
талья	-11.0936
▁илимпоздор	-11.0937
▁таштоо	-11.0938
▁Адыл	-11.0938
▁атаандаштары	-11.0938
▁биология	-11.0939
ыя	-11.0939
▁кирсе	-11.0939
Кытай	-11.094
Жаңы	-11.094
▁Шу	-11.094
▁Жолдош	-11.0942
▁каналдар	-11.0942
▁жаркы	-11.0943
▁жеңилдетүү	-11.0946
▁убак	-11.0946
▁тушта	-11.0948
▁Адил	-11.0949
▁республикачылар	-11.095
▁жүргүнчүлөрдү	-11.0954
▁имараттарды	-11.0957
▁этегинде	-11.0961
12	-11.0962
▁багын	-11.0962
▁ачат	-11.0966
▁баруучу	-11.0966
мит	-11.0969
▁айтышы	-11.097
▁Аскаров	-11.0971
▁камын	-11.0971
▁Акция	-11.0976
▁ашын	-11.0977
кожо	-11.0977
▁жүрөм	-11.0978
▁кеңештерди	-11.0981
▁турушкан	-11.0986
▁коюл	-11.0988
мүш	-11.099
▁уча	-11.099
▁Инандыны	-11.0993
ани	-11.0998
▁учакта	-11.0999
▁машыктыруучу	-11.1001
лиги	-11.1005
▁Петр	-11.1007
▁алынбай	-11.1009
▁кысы	-11.101
▁технологияларды	-11.1011
▁Маалыматтар	-11.1011
▁түшүрүлгөн	-11.1013
▁укканда	-11.1014
▁жарымын	-11.1015
▁Тү	-11.1019
▁үрөй	-11.1025
▁Айпери	-11.1026
▁Гутерриш	-11.1026
▁госпитал	-11.1026
▁көлөкө	-11.1026
▁цензура	-11.1026
▁бөлүнөт	-11.1026
▁Камил	-11.1028
▁байланыштырды	-11.1029
▁чакырышты	-11.1029
▁ыдык	-11.1031
▁Окумуштуулар	-11.1031
чыгышында	-11.1031
▁балдарына	-11.1032
▁күмөндүү	-11.1032
Булак	-11.1032
▁Мат	-11.1033
ская	-11.1035
▁мечиттер	-11.1036
▁ад	-11.1037
▁Сох	-11.1037
▁прокурорлор	-11.1037
▁тармактары	-11.1038
▁стационар	-11.1039
▁товарды	-11.104
▁баада	-11.1045
▁аткарылышы	-11.1049
рбай	-11.105
▁тукум	-11.105
▁көргөз	-11.1051
▁стадион	-11.1055
▁курамасы	-11.1057
▁айласы	-11.1059
▁актер	-11.1059
▁оо	-11.106
▁це	-11.1061
▁160	-11.1061
▁кийимдер	-11.1062
▁эжеси	-11.1063
▁салышы	-11.1067
▁түйүндөр	-11.107
▁стратегиясы	-11.1072
▁университетти	-11.1076
▁карасак	-11.108
▁чөйрөнү	-11.1086
▁ишенич	-11.1089
еркен	-11.1089
▁баракчасы	-11.109
▁себептерин	-11.1094
▁түрүн	-11.1095
▁дарыны	-11.1096
▁койдук	-11.1097
ИМ	-11.1098
▁айылдарды	-11.1098
Ве	-11.1099
▁Хар	-11.1099
▁кризисте	-11.1101
▁түк	-11.1103
▁көйгөйүн	-11.1104
тынбай	-11.1104
▁ооругандар	-11.1106
▁маанисин	-11.1109
▁дуу	-11.111
▁Аскаровду	-11.1111
▁жетишсиздиги	-11.1112
▁уста	-11.1113
▁схемалар	-11.1113
зу	-11.1116
▁Помпео	-11.1117
▁Карасартова	-11.1117
▁аброй	-11.1117
▁инженер	-11.1117
▁Икрам	-11.1117
▁элекпиз	-11.1117
▁боштондук	-11.1117
▁платформасы	-11.1117
▁кайтты	-11.1117
▁кайрылышкан	-11.1118
▁Абди	-11.1118
▁чечилип	-11.1119
▁жаралды	-11.1119
▁байланыштырып	-11.1119
▁карманган	-11.1119
▁бурду	-11.1121
Социал	-11.1123
▁Маркум	-11.1123
▁туруктуулук	-11.1123
▁колдогондор	-11.1124
▁башындагы	-11.1126
чүлүк	-11.1126
Улутту	-11.1126
▁колдоосуна	-11.1126
▁макулдашкан	-11.1126
▁барууну	-11.1129
▁Италияда	-11.1129
▁талкалап	-11.113
▁маалыматтарда	-11.113
▁тартылары	-11.1131
▁Кайрылуу	-11.1131
▁жүктү	-11.1132
▁улантыл	-11.1133
▁Анар	-11.1134
▁ойду	-11.1142
▁небереси	-11.1144
▁курултайды	-11.1145
▁чыгымдар	-11.1147
үткүл	-11.1147
үбүз	-11.1149
▁өзгөрүүлөрдү	-11.115
др	-11.1156
ийген	-11.1156
▁чыгармасы	-11.1158
▁күчтөрүнө	-11.1159
▁көрүүдө	-11.116
▁кабары	-11.1165
▁айлампа	-11.1167
▁баалуулуктарды	-11.1171
назаров	-11.1173
▁ханды	-11.118
▁Чар	-11.1181
▁апам	-11.1181
▁милдеттерин	-11.1181
▁баштык	-11.1183
тив	-11.1184
▁алдап	-11.1186
▁тергөөчүлөр	-11.1187
▁°,	-11.1189
▁Кырсык	-11.1189
▁жетиши	-11.1191
▁эсептеген	-11.1191
▁деңгээлине	-11.1195
▁алалы	-11.1197
үмө	-11.1198
▁Макала	-11.1202
▁кастык	-11.1203
▁арачы	-11.1207
▁жазда	-11.1207
▁союздаш	-11.1208
▁ыңкылап	-11.1209
▁Жаратылыш	-11.1209
▁1993-	-11.1209
▁ажырым	-11.1209
чул	-11.1209
▁териштирип	-11.121
▁тескери	-11.1211
▁пайдаланыл	-11.1212
▁камтыйт	-11.1212
▁кылынат	-11.1212
▁кагазы	-11.1212
террорду	-11.1212
▁кайрылууда	-11.1213
▁фирма	-11.1213
▁түрт	-11.1215
▁аталат	-11.1223
▁декабрын	-11.1223
Йоркто	-11.1224
▁стандарттар	-11.1225
▁190	-11.1227
▁демилгени	-11.1228
фф	-11.1229
Твиттерге	-11.1233
баркын	-11.1236
▁кабарчы	-11.1239
▁туристтерди	-11.124
▁Эм	-11.124
▁жаралуу	-11.1244
▁сабагы	-11.1245
төрү	-11.1246
▁сактаган	-11.1248
▁Пар	-11.1253
газиев	-11.1255
аракет	-11.1257
бүбү	-11.1259
▁аласыз	-11.1261
тез	-11.1261
берг	-11.1261
▁Wa	-11.1265
▁Дани	-11.1268
2-3	-11.1272
Ташта	-11.1273
▁айткандары	-11.1273
▁утурла	-11.1277
▁эп	-11.1281
▁Баткенди	-11.1287
▁кадрларды	-11.1291
▁уй	-11.1293
▁1989-	-11.1301
▁1998-	-11.1301
▁Кашкар	-11.1301
▁Раззаков	-11.1301
▁келатышат	-11.1301
▁ачарчылык	-11.1301
▁Аймакты	-11.1301
▁пробация	-11.1301
▁киргизбей	-11.1302
▁Дил	-11.1302
▁которулуп	-11.1302
▁литр	-11.1302
▁жарылып	-11.1303
▁берейин	-11.1304
▁Төрөбаев	-11.1304
▁алмаштырып	-11.1304
▁балет	-11.1306
▁төрдү	-11.1309
▁диктен	-11.1309
▁жазганын	-11.1312
▁жазыш	-11.1314
▁ойнойт	-11.1315
▁бюросу	-11.1318
▁лүк	-11.1321
▁августунда	-11.1322
▁таяк	-11.1324
▁саммитте	-11.1327
▁чегине	-11.1328
▁азайганы	-11.1329
жал	-11.133
ылуулук	-11.1331
16-	-11.1331
ушту	-11.1338
▁кардарлар	-11.134
▁согушкерлери	-11.1341
▁капитал	-11.1343
▁жасайт	-11.1344
▁Шай	-11.1344
▁чечен	-11.1346
▁өкүлдөр	-11.1346
▁варианты	-11.1347
▁басын	-11.1347
▁жакшылык	-11.1347
▁медалы	-11.1348
▁болор	-11.135
▁жумушчуларды	-11.135
▁тергөөдө	-11.1351
▁чагы	-11.1352
▁оюнчулар	-11.1353
бир	-11.1353
▁ортомчу	-11.1356
▁кайрылса	-11.1357
▁саба	-11.1357
▁киргизе	-11.1362
▁өнүгүүсү	-11.1366
демаркациялоо	-11.1367
▁лүгү	-11.1371
▁ет	-11.1372
анд	-11.1376
▁калмак	-11.1376
▁аныктай	-11.138
▁Рай	-11.138
▁чакырылышы	-11.1381
▁салса	-11.1382
▁коргоону	-11.1382
▁унут	-11.1383
▁жолугушуусун	-11.1385
▁тоннада	-11.1392
▁куну	-11.1394
▁жумуштары	-11.1395
▁Кырдаал	-11.1395
▁Момбеков	-11.1395
▁Екатеринбург	-11.1395
▁албаганы	-11.1397
▁Меркел	-11.1397
▁албайсың	-11.1397
▁ашырып	-11.1397
▁Аска	-11.1397
▁кездешет	-11.1398
▁катышуучусу	-11.1398
▁көрөбүз	-11.1401
▁имаратын	-11.1401
▁калгандыктан	-11.1402
▁Yo	-11.1404
▁кеңешке	-11.1405
▁кызматтарда	-11.1405
мартында	-11.1405
▁Абда	-11.1406
▁элестет	-11.1407
▁тете	-11.1407
▁кызматкерди	-11.1407
▁четинде	-11.1408
▁Ажы	-11.141
▁коргоочуларды	-11.141
▁геноцид	-11.1411
▁жаныбарлар	-11.1413
вира	-11.1417
▁бекетине	-11.1419
окко	-11.142
▁айткандар	-11.142
▁бекетинде	-11.1421
▁Тамак	-11.1423
▁курагында	-11.1432
жанов	-11.1441
▁көтөрүлүшү	-11.1443
▁кардар	-11.1444
▁чак	-11.1444
▁азгыры	-11.1445
төрт	-11.1445
▁аралап	-11.1449
▁кагаздары	-11.1451
▁дипломат	-11.1452
▁ташыл	-11.1454
▁апрелинде	-11.1456
▁Харрис	-11.1456
▁аэропорт	-11.1461
▁чыгымдарды	-11.1461
▁наам	-11.1463
▁Текебаевди	-11.1464
▁караңгы	-11.1468
▁айрымдар	-11.147
▁Жоо	-11.1473
рун	-11.1474
▁ЕАЭБди	-11.1474
▁Акыры	-11.1475
▁Айзада	-11.1476
▁Иман	-11.1476
▁долбоорлорун	-11.1479
▁коюлганы	-11.1481
▁катты	-11.1483
▁ПЧР	-11.1489
▁лицей	-11.1489
▁Ав	-11.149
▁Аргентина	-11.149
▁айнек	-11.149
▁Майрам	-11.1491
▁күйгөн	-11.1492
▁программасына	-11.1492
▁кыйкырып	-11.1492
▁канааттандырган	-11.1492
▁бетке	-11.1492
▁анклавы	-11.1493
▁жоочулар	-11.1493
▁толкун	-11.1494
▁үбүз	-11.1495
▁ардак	-11.1496
▁консулдугу	-11.1497
▁чөйрөсүн	-11.1497
▁кыс	-11.1498
кызыл	-11.1498
▁илгери	-11.1499
▁илип	-11.1503
▁армияны	-11.1503
▁душман	-11.1504
▁кошул	-11.1504
▁тыңчылык	-11.1506
▁багыттар	-11.1507
▁июнда	-11.1507
▁Мур	-11.1507
▁Бахмут	-11.1508
▁чечилет	-11.1508
▁барабыз	-11.1516
▁Жал	-11.1518
▁өсүү	-11.1518
▁чыгарыш	-11.1519
▁чылар	-11.1521
атуучу	-11.1521
▁мүн	-11.1522
▁мүнөзү	-11.1526
▁философия	-11.1526
▁агресс	-11.1532
▁чоңдор	-11.1535
▁жигитти	-11.1535
▁ташылы	-11.1536
▁миллиардда	-11.1537
ru	-11.1539
▁мээси	-11.1539
▁контр	-11.1543
▁ач	-11.1544
▁Фа	-11.1546
▁Маселе	-11.1547
▁казино	-11.1553
▁сыры	-11.1554
▁түшүү	-11.1556
▁пландал	-11.1558
лав	-11.1562
▁коюуну	-11.1562
▁ңарды	-11.1564
▁кагыш	-11.1564
▁салынганын	-11.1566
▁белгилей	-11.1568
▁ККМ	-11.1571
▁көзүнө	-11.1571
▁автоунааны	-11.1574
▁шай	-11.1575
▁көч	-11.1575
▁түгүл	-11.1576
▁чечилбей	-11.1577
▁сүйүү	-11.1579
▁төлөмдөрү	-11.1579
▁сайттар	-11.158
▁илимпоз	-11.1583
▁кожоюн	-11.1583
▁Малайзия	-11.1584
▁Столтенберг	-11.1584
▁күркүрөйт	-11.1584
▁километр	-11.1584
emir	-11.1584
▁канадалык	-11.1584
▁бириктирүү	-11.1584
▁иммунитет	-11.1584
▁Сатыбалдиев	-11.1584
▁Мэр	-11.1584
▁аалам	-11.1584
▁мизи	-11.1585
▁кулагы	-11.1585
үнүктүү	-11.1585
▁кыскарып	-11.1586
шет	-11.1591
▁муфтият	-11.1593
▁жүргүздү	-11.1594
▁кабылгандарды	-11.1594
▁инсандар	-11.16
▁Николаев	-11.1602
▁уланды	-11.1606
▁айтор	-11.1607
▁институтту	-11.1609
▁рыногу	-11.161
▁форматында	-11.1611
▁Шаршенбек	-11.1613
▁(+	-11.1614
▁болобуз	-11.1616
▁Шаарда	-11.1617
▁төлөйт	-11.1619
▁тастыкталган	-11.1622
▁даярбыз	-11.1622
кова	-11.1624
▁чыгарылганы	-11.1625
▁эсептери	-11.1625
▁Берлин	-11.1626
▁өзгөртүүнү	-11.1627
▁кеңешинде	-11.1628
ыгыз	-11.163
рав	-11.1632
▁койдум	-11.1638
▁фактыларды	-11.1642
▁кадамы	-11.1647
▁Исмаилова	-11.1647
▁эпидемия	-11.1648
▁турмушта	-11.1651
▁концепциясы	-11.1653
▁Орх	-11.1654
▁ашырууну	-11.1657
▁шейшембиде	-11.1662
▁директор	-11.1662
▁талкууда	-11.1671
▁тук	-11.1674
▁Үйдө	-11.1675
▁ырасташ	-11.1676
▁ачка	-11.1679
▁адилетсиз	-11.1679
▁Статистика	-11.168
▁бекитүү	-11.168
▁кесиби	-11.1681
▁делимитациялоо	-11.1681
▁меморандум	-11.1681
▁өзгөрткөн	-11.1681
▁байкалууда	-11.1682
▁Жарым	-11.1682
▁күчөшү	-11.1682
▁кыргын	-11.1684
▁Үсөнбаев	-11.1684
иров	-11.1685
▁Катарда	-11.1685
аймана	-11.1687
▁Айгүл	-11.1688
▁өзүң	-11.1688
▁кубан	-11.1688
▁ишмердик	-11.1689
▁тектүү	-11.169
чылыгы	-11.1691
Коммер	-11.1692
Эгер	-11.1693
▁чыры	-11.1693
▁номуру	-11.1693
▁Айтор	-11.1694
▁170	-11.1695
▁болжо	-11.1696
▁тынчы	-11.1696
▁Рахмонду	-11.1698
▁улай	-11.1699
▁тарткандар	-11.17
▁дооматтар	-11.1701
▁айырмасы	-11.1702
түгүл	-11.1705
▁үмүттө	-11.1706
▁катышкандарды	-11.1712
▁Вашингтондо	-11.1712
▁калбайт	-11.1713
▁ДССУ	-11.1718
▁пол	-11.1721
▁федерация	-11.1722
▁Жерге	-11.1723
▁камсыздап	-11.1724
▁Молдокматов	-11.1725
▁Кызмат	-11.1728
▁казактар	-11.1728
▁маалымда	-11.1729
кыштактар	-11.1733
▁90-	-11.1736
▁киргизиш	-11.1737
▁Согушту	-11.1738
▁чабуулун	-11.1738
is	-11.1739
▁сары	-11.1741
▁орундар	-11.1742
▁баскыч	-11.1744
▁балбандар	-11.1744
▁аңгеме	-11.1744
▁ассамблеясы	-11.1748
▁нуска	-11.1753
итет	-11.1758
▁чыкпайт	-11.1759
ец	-11.1765
▁тасмада	-11.1766
▁текст	-11.1766
▁дыгына	-11.1767
ово	-11.177
▁баштаса	-11.1771
▁калка	-11.1772
▁чакырууда	-11.1772
ларында	-11.1777
▁конфликт	-11.1777
Спутник	-11.1777
▁ТАСС	-11.1777
▁Эстония	-11.1777
▁ооздуктоо	-11.1777
▁өнөкөт	-11.1777
▁тийди	-11.1778
иктирген	-11.1778
▁тамагы	-11.1778
▁Кулматов	-11.1778
▁чыгарылышы	-11.1778
▁адвокаттар	-11.178
▁Атасы	-11.1781
▁көрсөтүлөт	-11.1782
▁сурай	-11.1782
▁эфирде	-11.1783
▁жаткырылган	-11.1784
▁маянасы	-11.1786
▁жасалат	-11.1786
▁Памир	-11.1786
▁көнүп	-11.1789
Биринчи	-11.179
орунду	-11.1794
▁Бюджет	-11.1798
▁четине	-11.1799
өтө	-11.1799
▁туз	-11.1799
▁аракеттенген	-11.18
▁Гре	-11.1805
▁кимде	-11.1806
▁Фу	-11.181
Жер	-11.181
▁артисттер	-11.1811
▁театрында	-11.1811
▁ую	-11.1819
▁идея	-11.1821
▁реабилитация	-11.1822
▁чакыр	-11.1825
▁мыйзамын	-11.1828
▁байланышка	-11.1832
▁курамын	-11.1835
▁изде	-11.1838
▁Өзүм	-11.1838
▁сунуштарын	-11.1842
▁сакталышы	-11.1844
щее	-11.1848
▁ишкерлик	-11.1848
бийликчил	-11.185
▁бузулушу	-11.1851
▁автоматты	-11.1851
▁Бур	-11.1852
▁тиркеме	-11.1858
▁койбой	-11.1859
▁кошуундар	-11.186
▁аяктаганда	-11.1864
▁жамаатты	-11.1867
▁Тайван	-11.1868
овский	-11.1869
▁соо	-11.187
J	-11.1871
▁элдерди	-11.1872
▁жайылышын	-11.1872
Кече	-11.1874
▁бакты	-11.1875
▁Август	-11.1875
▁Ишемби	-11.1875
▁Шейшемби	-11.1875
▁бүтүргөн	-11.1875
▁Абдыкадыр	-11.1875
▁тездетүү	-11.1875
Өгүз	-11.1876
▁оппозиционер	-11.1876
▁колдобой	-11.1876
▁Air	-11.1876
▁Согд	-11.1877
▁бокс	-11.1877
▁текшерген	-11.1877
▁аталыш	-11.1878
▁Сол	-11.1878
▁жоолук	-11.1879
▁ЖМКлар	-11.1879
▁байланыштары	-11.1882
▁Көр	-11.1883
жогу	-11.1883
▁баштадык	-11.1885
▁уюл	-11.1891
▁Каримова	-11.1893
▁институттар	-11.1893
▁ың	-11.1896
▁потенциалы	-11.1899
▁экспертти	-11.1901
рыш	-11.1905
▁сам	-11.1908
▁байлап	-11.1909
▁бил	-11.1921
▁чыктым	-11.1921
▁Назаров	-11.193
▁Нуржа	-11.1934
▁Акун	-11.1934
▁согушкерлер	-11.1935
▁сулуу	-11.1935
▁Мор	-11.1938
▁курууну	-11.1939
▁процессин	-11.1943
▁оюнчу	-11.1944
тивдик	-11.1945
▁капиталды	-11.1948
сап	-11.195
▁унаасы	-11.1952
▁чиновниктер	-11.1953
▁жикчилдер	-11.1953
▁аэропортто	-11.1958
▁банкты	-11.1961
▁бурмала	-11.1966
▁төлөш	-11.197
▁чөйрөсүндө	-11.1971
▁уч	-11.1974
▁Оренбург	-11.1974
▁иликтенип	-11.1974
▁кандидаты	-11.1974
▁түйшүгү	-11.1974
▁уникалдуу	-11.1974
▁участка	-11.1974
▁хижаб	-11.1974
▁дайындалып	-11.1974
▁эскерип	-11.1975
▁чечилиши	-11.1975
▁мөмө	-11.1975
▁жоюлуп	-11.1976
▁Айдарбеков	-11.1976
▁кеңей	-11.1977
▁текшерилип	-11.1977
▁айыптоолорд	-11.1978
▁жетки	-11.1978
▁каада	-11.1978
▁өткөр	-11.1979
▁мыкаачылык	-11.198
▁Фрунзе	-11.198
▁туруктуулукту	-11.198
▁Тагыраагы	-11.1981
▁молдо	-11.1981
▁жашоодо	-11.1982
▁Бара	-11.1983
▁таржымалы	-11.1984
▁узатуу	-11.1984
зер	-11.1985
▁таңында	-11.1987
▁күү	-11.1987
юшкан	-11.1989
▁1200	-11.1989
Сары	-11.1994
▁баасына	-11.1996
ерлик	-11.1996
▁оорулары	-11.1997
▁котормочу	-11.1998
▁4-5	-11.1998
чулук	-11.2
▁атай	-11.2
▁абагы	-11.2
▁өтөрү	-11.2005
▁Митинг	-11.2011
овка	-11.2014
▁жоочулары	-11.2015
▁дарыгерди	-11.2015
▁кездешүү	-11.2016
▁салуусуна	-11.2018
▁жибергени	-11.2018
▁төө	-11.2021
энесине	-11.2022
▁Алтай	-11.2026
▁Элчи	-11.2027
▁көрүш	-11.2029
▁Мигранттарды	-11.2031
▁коет	-11.2031
▁турганына	-11.2032
ликке	-11.2038
сезим	-11.2039
▁жактоочу	-11.2042
▁кенинде	-11.2044
▁түйүндөрдө	-11.2044
▁этап	-11.2045
▁Шаарды	-11.2047
▁элдери	-11.2051
▁карындашы	-11.2055
▁Талантбек	-11.2058
ализ	-11.2061
▁жолугушууларды	-11.2062
▁лорду	-11.2064
▁жарандарыбыз	-11.2065
▁рекордду	-11.2067
▁аткыла	-11.2068
▁жашыруу	-11.2068
▁маршрут	-11.2069
▁өнүктүрүүнү	-11.2069
▁коркунучтар	-11.2071
▁жаракт	-11.2072
▁Им	-11.2074
▁экономист	-11.2074
▁Еврокомиссия	-11.2074
▁Индонезия	-11.2074
▁масштабы	-11.2074
▁нөөмөт	-11.2074
▁медайым	-11.2074
▁үйрөнүп	-11.2074
▁кааласа	-11.2075
▁өзөгү	-11.2075
▁пикет	-11.2075
▁өчүрүп	-11.2075
▁Абдылдаев	-11.2075
▁окутуп	-11.2076
Альфа	-11.2077
▁даттануу	-11.2077
гиле	-11.2077
▁чиркөө	-11.2077
▁акылдуу	-11.2078
▁токтой	-11.2079
▁өндүрүм	-11.2084
▁жугузгандар	-11.2085
мэр	-11.2088
▁майрамда	-11.2088
▁Co	-11.2089
расмий	-11.209
▁дегел	-11.209
акталбаган	-11.2094
▁колдош	-11.2097
▁Хам	-11.2098
▁Аты	-11.2099
▁Азык	-11.21
▁U	-11.21
▁этүү	-11.2103
▁ооруканаларды	-11.2105
▁теске	-11.2108
▁дарт	-11.2115
▁келишпестик	-11.2116
▁Ошту	-11.2119
▁сабактар	-11.2119
▁Никола	-11.2122
кытай	-11.2128
пак	-11.213
▁тилкелерин	-11.2131
той	-11.2131
▁адилет	-11.2132
▁өтмөк	-11.2133
▁араларды	-11.2136
ченко	-11.2136
бил	-11.2138
▁казынасын	-11.2138
▁(6	-11.2139
▁ийне	-11.2139
▁боо	-11.2145
ассалык	-11.2148
▁куту	-11.2148
▁пар	-11.2149
▁Ири	-11.215
▁калем	-11.215
▁абасы	-11.2152
▁келем	-11.2155
▁Абдил	-11.2159
▁турист	-11.2163
▁саясатчыны	-11.2164
Петербургда	-11.2165
▁узунду	-11.2165
▁жумша	-11.2166
▁ууру	-11.217
▁Изилдөө	-11.2175
▁Шыкмаматов	-11.2175
▁автожол	-11.2175
▁альтернативд	-11.2176
▁колхоз	-11.2176
▁кечеңде	-11.2176
▁кечиги	-11.2176
▁мушкер	-11.2176
▁мээнет	-11.2176
▁билишет	-11.2177
▁энергияны	-11.2178
▁даярдыгы	-11.2178
▁дешкен	-11.2179
▁тааныштары	-11.2179
▁бомбалоо	-11.2179
▁сата	-11.2181
▁мыйзамдуулугу	-11.2182
▁Бээжинде	-11.2183
▁пайдалана	-11.2183
▁байкалат	-11.2183
▁мекенди	-11.2184
▁чыгымдары	-11.2185
▁Дэви	-11.2185
▁түзүлгөнүн	-11.2185
гусу	-11.2186
▁аныкталат	-11.2187
▁курактагы	-11.2188
Камбар	-11.2191
▁кыйнап	-11.2196
▁Рит	-11.2198
▁сатык	-11.2198
▁чокусу	-11.2199
▁мар	-11.2202
▁палестин	-11.2203
▁максаттар	-11.2205
▁метрден	-11.2207
▁тоодо	-11.2207
үлүп	-11.2209
▁Абактагы	-11.221
▁Пу	-11.221
▁кордук	-11.2211
▁орундарын	-11.2211
чарасы	-11.2216
▁чыгармаларды	-11.2217
▁дипломаты	-11.2221
ёр	-11.2222
▁доордо	-11.2223
▁конушу	-11.2229
аракеттер	-11.2229
▁текшерүүлөр	-11.223
▁шаарларына	-11.2232
▁Берлинде	-11.2234
▁адат	-11.2234
▁бергендер	-11.2234
▁чечимдери	-11.2239
▁тезир	-11.2241
▁жоокерлерди	-11.2243
тоноо	-11.2244
▁лагер	-11.2244
▁ашырган	-11.2245
▁алынарын	-11.2246
▁Биринчиси	-11.2248
▁кетиш	-11.2248
▁тамга	-11.225
▁үүдө	-11.2253
енов	-11.2256
гүлө	-11.2257
▁субъект	-11.2257
▁чемпионат	-11.2258
▁формасы	-11.2259
▁кирбей	-11.2262
25	-11.2266
▁сар	-11.2266
▁жаңылоо	-11.2266
▁чабуулдарына	-11.2267
▁ашканын	-11.2269
▁баштай	-11.227
▁декларациясы	-11.227
▁тоолордо	-11.227
▁Сагын	-11.2271
▁каналында	-11.2273
▁өлгөнүн	-11.2276
▁Ашхабад	-11.2278
▁марафон	-11.2278
▁принциби	-11.2278
▁участогу	-11.2278
▁Шаршемби	-11.2278
▁Суван	-11.2278
▁жетишилген	-11.2278
▁көбөйтүп	-11.2278
▁Жуманазаров	-11.2278
▁кооптонуп	-11.2278
▁турбайбы	-11.2278
▁дери	-11.2279
▁өкүнүчтүү	-11.2279
▁чакырабыз	-11.2279
▁жеткирилгени	-11.228
▁уюштурулду	-11.228
▁Мухтар	-11.228
▁чабал	-11.2281
▁каралбай	-11.2281
▁Жакындары	-11.2285
▁кармалышын	-11.2285
▁издей	-11.2286
▁Тергөөнү	-11.2286
▁жардамдын	-11.2286
▁машинелерди	-11.2287
▁AFP	-11.2288
аракети	-11.2288
▁Чолпонбаев	-11.2288
▁уял	-11.229
▁өрттү	-11.2292
▁оозун	-11.2292
▁эгин	-11.2293
бөгөн	-11.2296
▁Бүбү	-11.2297
▁жада	-11.2302
▁жанданды	-11.2304
ват	-11.2305
▁көрүүчүлөр	-11.2305
▁качкындарды	-11.2309
▁ыйгарылган	-11.2309
▁чечимдерин	-11.2312
▁окурмандар	-11.2316
▁сыноодо	-11.2319
▁карандысыздыгын	-11.2321
▁бурулуш	-11.2328
▁91	-11.2329
жалган	-11.2333
▁сүйлөшүүдө	-11.2338
▁сенатор	-11.234
▁ачылыш	-11.2345
▁каалагандар	-11.2348
▁июлда	-11.2357
ардык	-11.2357
▁анализи	-11.2357
▁ченемдер	-11.2358
ti	-11.2358
▁чатыр	-11.2361
▁кырсыкты	-11.2364
▁жашын	-11.2368
▁Видео	-11.2369
▁Шектүү	-11.2369
▁божомолдор	-11.2371
▁Мука	-11.2371
▁колдо	-11.2371
▁планды	-11.2372
ино	-11.2373
▁миссия	-11.2376
▁Жамгырчиев	-11.2376
▁туудур	-11.2378
▁кендери	-11.2378
▁ССР	-11.2381
▁Сингапур	-11.2381
▁масштабда	-11.2381
▁Атырау	-11.2381
▁койгула	-11.2381
▁багуу	-11.2381
▁кетирип	-11.2382
▁Маматалиев	-11.2382
▁такталып	-11.2383
▁коммуникациялар	-11.2385
▁Про	-11.2385
▁Элмирбек	-11.2387
▁Медер	-11.2387
түзөө	-11.2388
▁феврал	-11.2388
▁Бейшенбек	-11.239
▁өңүттө	-11.2391
▁тобокел	-11.2391
▁алдырып	-11.2393
▁таанышкан	-11.2397
сов	-11.2397
▁m	-11.2399
техникалык	-11.2399
жобосу	-11.2402
▁Өмүрзак	-11.2402
▁калтыр	-11.2405
▁элита	-11.2406
▁партияда	-11.2407
▁чегин	-11.2407
▁YouTube	-11.2408
юм	-11.2408
▁Макс	-11.241
▁отура	-11.241
▁мамилелери	-11.2411
▁башташкан	-11.2414
▁Ниязбеков	-11.2415
▁Шайлоону	-11.2416
алат	-11.2418
▁баргандар	-11.242
▁эмдел	-11.2421
▁конгон	-11.2426
Кулжа	-11.2427
▁эстеп	-11.243
▁конушунда	-11.2433
▁чагылдыруу	-11.2433
▁кыйна	-11.2434
▁00	-11.2434
Менин	-11.2435
алты	-11.244
▁Красно	-11.2442
Жашыл	-11.2448
▁эксперттерди	-11.245
▁дыр	-11.2451
▁опузала	-11.2451
▁шар	-11.2454
түп	-11.2456
▁тастыкта	-11.2457
▁коллегиясы	-11.246
▁сууда	-11.2464
▁диагноз	-11.2468
▁орусиялыктарды	-11.2468
▁калам	-11.2471
▁казыл	-11.2471
▁оюнду	-11.2474
▁Бирөө	-11.2474
▁барыш	-11.2475
▁эркиндикти	-11.2477
▁жүгүртүүсү	-11.248
▁кубаныч	-11.2483
▁аброюн	-11.2483
▁азайтып	-11.2485
▁бекитип	-11.2485
▁пакистандык	-11.2485
▁сентябрында	-11.2485
▁Жумалиев	-11.2485
▁токтолуп	-11.2485
▁оолак	-11.2485
▁көмүлгөн	-11.2485
▁Көбү	-11.2485
▁жаралат	-11.2488
▁география	-11.2491
▁үйлөрүн	-11.2493
▁мусулмандарды	-11.2494
▁иштешет	-11.2496
▁өзүлөрү	-11.2497
▁архив	-11.2501
▁ырдап	-11.2503
ЕАЭБ	-11.2504
талкуу	-11.2504
▁Келин	-11.2504
▁араларын	-11.2506
▁ооругандарды	-11.2507
лоп	-11.251
▁ишенимин	-11.2512
▁кабылгандар	-11.2513
▁чыңалууну	-11.2516
▁транспортту	-11.252
▁азыктарын	-11.2521
апрель	-11.2523
▁чапкан	-11.2525
беш	-11.2527
▁текшерил	-11.2528
ed	-11.2536
▁иштебейт	-11.2536
▁Сүрөт	-11.2542
▁Талибан	-11.2543
▁ГЭСтер	-11.2544
▁кылмышкер	-11.2544
▁Тажи	-11.2545
▁Нас	-11.2548
▁Кубат	-11.2553
▁Абд	-11.2555
▁өкүмүн	-11.2555
▁Арал	-11.2559
▁Айдар	-11.2563
▁сыйлыкты	-11.2564
▁мисалдар	-11.2565
▁аянтына	-11.2565
▁сүрөттөрү	-11.2568
▁Сегизбаев	-11.2569
▁миңи	-11.257
▁Зе	-11.2575
▁кабарчылары	-11.2576
▁кыдыр	-11.258
▁колдонууда	-11.2585
аяк	-11.2586
▁сунушта	-11.2588
▁бюллетен	-11.259
▁Билдирүү	-11.259
▁0...5	-11.259
▁Текшерүү	-11.259
▁бурмалоо	-11.259
▁кореялык	-11.259
Авив	-11.259
▁Абдукадыр	-11.259
▁булуң	-11.259
▁теория	-11.259
▁Орбан	-11.259
▁Илхам	-11.259
▁Вице	-11.259
▁Тартип	-11.2591
▁жабылышы	-11.2591
▁төлөбөй	-11.2591
▁калкалоо	-11.2592
▁Am	-11.2592
▁Караганды	-11.2593
▁жүрөбүз	-11.2594
▁билбейбиз	-11.2595
Мекенчил	-11.2596
▁кайтарылды	-11.2598
▁башталары	-11.2598
▁түшүргөн	-11.2598
▁козго	-11.2599
▁капыс	-11.26
▁бербейбиз	-11.26
▁Орозбек	-11.26
▁сунушуна	-11.2603
▁күнөөлөп	-11.2606
▁учу	-11.261
▁лог	-11.2611
▁активдери	-11.2611
▁Китеп	-11.2611
▁курчоо	-11.2612
▁аткылап	-11.2612
▁алкак	-11.2617
▁базарды	-11.2618
▁болочок	-11.2625
ur	-11.2625
▁эстелиги	-11.2626
андыктан	-11.2627
▁Акыл	-11.2627
▁Адамдар	-11.2628
ене	-11.2628
▁санаа	-11.2631
▁чакырымы	-11.2631
▁улантат	-11.2632
▁темасы	-11.2634
▁Асановду	-11.2639
▁дебат	-11.2639
▁Африкада	-11.264
▁рейтинги	-11.2643
▁Цзиньпин	-11.2644
▁Алмамбет	-11.2645
▁тазала	-11.2645
▁интер	-11.2649
▁бекет	-11.2658
▁улуту	-11.2666
тыгына	-11.2666
▁Сам	-11.2668
▁жолугушууну	-11.2673
▁бызга	-11.2674
▁Хе	-11.2677
▁медиасы	-11.2678
▁кым	-11.2684
▁тутумун	-11.2686
▁чыкпаган	-11.2687
▁кодексти	-11.2687
▁ордунда	-11.2689
▁талапты	-11.2692
▁Бор	-11.2693
▁Павло	-11.2694
▁сактагычында	-11.2694
хид	-11.2695
▁ыкмалар	-11.2696
'	-11.2696
▁милиционер	-11.2696
▁тестирлөө	-11.2696
▁секири	-11.2696
▁ыңгайсыз	-11.2696
стоя	-11.2697
▁алиев	-11.2697
▁Токтогазиев	-11.2697
▁баюу	-11.2697
▁унутуп	-11.2698
▁20-30	-11.2699
▁энелер	-11.2699
▁символу	-11.2701
▁Аял	-11.2702
▁Шакир	-11.2702
▁комиссары	-11.2702
▁Ап	-11.2703
▁баяны	-11.2705
▁түү	-11.271
стон	-11.271
▁чаң	-11.2711
▁корутундусун	-11.2712
▁баштала	-11.2713
▁Бардыгы	-11.2714
▁ыры	-11.2716
▁блок	-11.2719
NN	-11.272
▁роман	-11.2725
Султанда	-11.2728
▁талаада	-11.2729
▁Нурбаев	-11.2736
▁оорулуу	-11.2736
▁чыгабыз	-11.2736
▁жоюл	-11.2737
▁450	-11.2738
▁ысымдары	-11.2739
дов	-11.274
▁берсек	-11.274
▁дарыя	-11.2744
▁этип	-11.2746
чко	-11.2747
▁майрамды	-11.2749
▁чабуулдарын	-11.2752
тест	-11.2753
▁базасында	-11.2755
▁кер	-11.2756
тпоо	-11.2757
▁жээк	-11.2757
▁атууну	-11.2767
▁калбас	-11.2769
▁Анна	-11.2771
▁эгемендиги	-11.2774
▁командири	-11.2777
лбас	-11.2779
▁көм	-11.2781
▁төлөнү	-11.2781
▁Саймаитини	-11.2783
▁дипломаттары	-11.2788
▁чогулуш	-11.2791
▁байлык	-11.2792
▁Каримов	-11.2792
▁пикирлерин	-11.2794
▁тарыхты	-11.2795
▁корпусу	-11.2795
as	-11.2797
▁Менде	-11.2798
▁Документте	-11.28
▁болбоду	-11.2803
▁кыял	-11.2804
▁Жумгал	-11.2804
▁Getty	-11.2804
▁LIVE	-11.2804
▁Новиков	-11.2804
▁индиялык	-11.2804
▁көмөгү	-11.2804
▁Өндүрүш	-11.2804
▁Юлия	-11.2804
▁сириялык	-11.2804
▁планета	-11.2804
▁Мухаммад	-11.2804
▁эффективдүү	-11.2804
▁ишарат	-11.2804
▁коллеж	-11.2804
▁кибер	-11.2804
▁кетейин	-11.2805
▁көбөйүүдө	-11.2805
▁билсе	-11.2805
▁дурус	-11.2806
▁Назир	-11.2807
▁Надир	-11.2807
▁обол	-11.2807
▁байкаган	-11.2807
▁Коомчулукта	-11.281
▁птыр	-11.281
▁кызматташып	-11.281
▁тактады	-11.2811
▁Самар	-11.2812
▁кылын	-11.2814
▁иштеш	-11.2817
▁түпкү	-11.2817
▁көчүрүү	-11.2818
▁жаткандыгын	-11.282
▁Кармалгандар	-11.282
▁жерлери	-11.2823
▁дыкат	-11.2824
опол	-11.2824
▁дүйшөмбүдө	-11.2825
▁бекеттер	-11.2828
▁жүрүшүнө	-11.283
▁жетим	-11.2831
▁окуйт	-11.2832
▁Семетей	-11.2834
▁кей	-11.2835
▁долбоордо	-11.2841
▁жанр	-11.2841
▁көбөйгөнү	-11.2842
▁7%	-11.2844
26	-11.2844
дугу	-11.2848
▁Апам	-11.2852
▁чиркөөсү	-11.2852
▁ыргыт	-11.2853
▁тим	-11.2854
▁жазганы	-11.2855
▁Коста	-11.2858
▁чыктык	-11.2861
▁түшүндү	-11.2862
▁тутум	-11.2863
▁экенбиз	-11.2866
▁капа	-11.2867
▁фирмасы	-11.2872
▁болжолдо	-11.2872
омо	-11.2873
▁объекттер	-11.2875
▁Дини	-11.2881
▁Амир	-11.2883
▁уурдаган	-11.2883
өтүүчү	-11.2883
▁айтканына	-11.2885
▁котормо	-11.2887
▁Шойгу	-11.2894
▁курду	-11.2895
▁Камбар	-11.2896
▁цех	-11.2897
▁камалгандарды	-11.2898
▁Италияны	-11.2899
үбүздү	-11.29
▁хирургия	-11.2903
▁Оюн	-11.2903
▁толо	-11.2906
▁урганын	-11.2907
▁кыры	-11.2907
▁инфекцияны	-11.2908
бала	-11.2912
▁Кимсанов	-11.2913
▁Филипп	-11.2913
▁кесилди	-11.2913
▁резонанс	-11.2913
▁даттанган	-11.2913
▁бутактары	-11.2913
▁Амангелдиев	-11.2913
▁учурады	-11.2913
▁Жоробеков	-11.2913
▁толкундоолор	-11.2914
▁табышмак	-11.2914
▁губернатор	-11.2914
▁даярдануу	-11.2915
▁сүйгөн	-11.2915
▁сокко	-11.2915
▁которулду	-11.2915
▁Кыскасы	-11.2915
▁Бизнес	-11.2916
▁убара	-11.2916
▁отурабыз	-11.2916
▁тынчсызданып	-11.2916
▁тагылып	-11.2916
▁анклав	-11.2917
▁пункт	-11.2918
▁кенине	-11.2918
▁Анкарада	-11.2918
▁Фарид	-11.2919
▁доор	-11.2919
▁Жаныш	-11.292
орлор	-11.2921
▁чектөөнү	-11.2923
▁күрөшө	-11.2923
▁кайрылуусун	-11.2924
▁баалай	-11.2924
▁Ухан	-11.2926
▁Тбилисиде	-11.2926
▁бөлүктөрүн	-11.2928
▁кошулат	-11.293
▁акты	-11.2932
Асман	-11.2932
▁аныктайт	-11.2933
▁Марс	-11.2936
▁Абал	-11.2936
Коррупция	-11.2936
ыктуу	-11.2937
▁жоопкер	-11.2937
чөйрөнү	-11.2937
▁агенттиктер	-11.294
▁апрел	-11.2941
▁Асад	-11.2946
▁Партияны	-11.2946
▁ашкана	-11.2948
▁митингди	-11.295
▁буюмдарды	-11.2956
ланышы	-11.2959
▁түзүмүн	-11.2962
▁бузгандар	-11.2963
▁кампа	-11.2963
▁Мигранттар	-11.2967
21	-11.2968
▁жон	-11.2974
▁штаммы	-11.2974
▁эткен	-11.2975
▁текшере	-11.2976
▁түзүүдө	-11.2977
▁Кө	-11.2978
▁ордо	-11.2979
▁көргөнүн	-11.2983
▁түшүнүктөр	-11.2984
елл	-11.2985
▁замат	-11.2986
▁Керим	-11.2989
▁жабдууларды	-11.2996
▁Сын	-11.2997
▁калаасында	-11.3
▁сур	-11.3002
▁өстүрүү	-11.3005
▁протоколду	-11.3007
▁принциптер	-11.3012
▁далилдерди	-11.3016
▁Журналистти	-11.3017
▁]	-11.3022
▁Бельгия	-11.3023
▁каникул	-11.3023
▁угуз	-11.3023
▁маселелерде	-11.3023
▁амалдары	-11.3023
▁жаткыр	-11.3024
▁кетишет	-11.3024
▁маалымдашынча	-11.3024
▁британиялык	-11.3024
▁ЕБ	-11.3025
▁6,5	-11.3026
▁токтоду	-11.3026
▁кымбатчылык	-11.3027
▁жактырды	-11.3029
▁Images	-11.3029
▁толду	-11.3029
кубат	-11.3031
▁мелдеште	-11.3031
▁Нааразылык	-11.3032
▁окуусун	-11.3034
▁сөөк	-11.3035
▁?!	-11.3036
▁отургандар	-11.3036
▁билдириш	-11.3037
▁түшүрүлгөнү	-11.3038
▁уйку	-11.3043
▁175	-11.3044
▁командалары	-11.3045
▁оп	-11.3046
▁козгоо	-11.3047
▁үстү	-11.3047
▁чети	-11.3048
эркин	-11.3048
▁жаткандыгы	-11.3048
▁Иште	-11.3049
▁жүзүнө	-11.3049
өр	-11.305
Азия	-11.3051
үлкү	-11.3053
▁террорчулук	-11.3053
▁мезгили	-11.3053
▁күбөлүгү	-11.3054
▁баратып	-11.3054
▁курмандыктар	-11.3056
▁ФСБ	-11.3059
▁чыкпа	-11.3059
▁көргөзмөсү	-11.3063
▁тамгасы	-11.3064
▁Во	-11.3067
▁мейманканасы	-11.3069
▁Дүйнөнү	-11.3071
▁улуттар	-11.3073
▁1-2	-11.3074
▁түзөрү	-11.3076
▁темада	-11.3076
▁Баарына	-11.308
▁мугалими	-11.3081
▁комуз	-11.3084
▁жактары	-11.3085
▁арыздарды	-11.3089
▁сезил	-11.3095
▁азиялык	-11.3099
▁жең	-11.31
▁аткарууда	-11.31
▁жабдыктар	-11.3108
▁жайыл	-11.3112
рипов	-11.3115
▁чала	-11.3116
▁рух	-11.3116
▁Чи	-11.3118
▁сындагандар	-11.3119
унчу	-11.3123
илдетке	-11.3123
▁салгылашуу	-11.3125
утур	-11.3126
▁кайтара	-11.3126
оюн	-11.3128
▁Кичи	-11.313
▁апаат	-11.3131
▁палестиналык	-11.3132
▁басты	-11.3133
▁Бал	-11.3133
▁Татарстан	-11.3134
▁Жактоочу	-11.3134
▁Шамшиев	-11.3134
▁жоюп	-11.3134
▁азайышы	-11.3134
▁Жоламан	-11.3134
▁килем	-11.3134
▁күтүлөт	-11.3134
▁XX	-11.3134
▁Учак	-11.3134
▁тыныгуу	-11.3134
sty	-11.3135
▁көрсөтүлдү	-11.3135
▁Валери	-11.3135
▁өткөрүштү	-11.3135
▁жеткирүүнү	-11.3136
▁тартпай	-11.3137
▁Арстанбек	-11.3138
▁жүгүрт	-11.3138
▁Өрт	-11.3139
▁тартибинде	-11.3144
▁бурбай	-11.3146
▁түшүм	-11.3147
▁тенденция	-11.3148
▁пайт	-11.3152
ком	-11.3152
▁студия	-11.3153
▁машиналар	-11.3156
▁өкмөттөрү	-11.3156
▁урап	-11.3159
▁элибиз	-11.3162
▁автомат	-11.3164
▁сессиясын	-11.3164
▁Атазов	-11.3169
▁Көчө	-11.317
▁диаспорасы	-11.3174
▁динди	-11.3175
▁каякта	-11.3178
▁укпай	-11.3179
▁тирешүү	-11.3183
▁Кый	-11.3186
▁отур	-11.3187
▁бергендерди	-11.3188
▁мөөнөттү	-11.3189
өздүк	-11.3202
▁тарда	-11.3202
▁төрү	-11.3202
Твиттер	-11.3203
▁жаңжалдар	-11.3205
▁коноктор	-11.3207
▁отчёт	-11.3208
▁Ком	-11.321
▁аркасы	-11.3212
▁кыйналган	-11.322
▁тарыхчылар	-11.322
▁токтот	-11.3224
▁Чыр	-11.3225
▁кетем	-11.3226
▁кеттим	-11.3227
▁токто	-11.323
▁уюштуруучулары	-11.3232
▁Кут	-11.3236
▁билдирүүнү	-11.3236
▁номер	-11.3243
▁ишмердүүлүк	-11.3244
▁шахта	-11.3245
пан	-11.3245
класс	-11.3246
▁эрежеси	-11.3246
Дөбө	-11.3246
ъ	-11.3246
▁Усубалиев	-11.3246
▁бүтүрүп	-11.3246
▁куттуктады	-11.3246
▁менимче	-11.3246
▁сыпаттап	-11.3246
▁булганышы	-11.3246
▁албасын	-11.3246
▁Боррел	-11.3246
▁жанкечти	-11.3247
▁Тимур	-11.3247
▁чектелип	-11.3247
▁Вене	-11.3247
▁айымдар	-11.3247
▁жеткирилип	-11.3248
▁удаа	-11.3248
▁созулат	-11.325
▁Имам	-11.325
Өзөн	-11.325
▁Жетиген	-11.325
Раим	-11.3251
▁өтпөгөн	-11.3252
▁өсөт	-11.3256
▁убадасын	-11.3256
▁элементтер	-11.3256
эч	-11.3257
▁териштирүүнү	-11.3258
өгүш	-11.3258
▁кесе	-11.326
▁жарыялай	-11.3262
▁i	-11.3262
▁кыйган	-11.3265
▁заманда	-11.3265
хат	-11.3265
▁окуучусу	-11.3268
▁1500	-11.3268
▁ырчылар	-11.3269
▁фабрика	-11.3269
▁делегат	-11.327
▁New	-11.327
▁3000	-11.3274
катнаш	-11.3276
▁импорттоо	-11.3276
▁ажырап	-11.3276
▁реакциясы	-11.3277
▁эгемендигин	-11.3279
▁баштадым	-11.328
▁Штаттарда	-11.3282
▁Фр	-11.3285
▁кечири	-11.3286
▁куралдан	-11.3286
▁Токиодо	-11.3288
алак	-11.3288
▁стан	-11.3289
▁(1	-11.3292
▁маектеш	-11.3294
▁курулушту	-11.3294
▁залда	-11.3298
▁кадамын	-11.3299
▁айтам	-11.33
▁ураандар	-11.3303
ямин	-11.3304
▁кайрылганын	-11.3307
абад	-11.3307
▁бейтапкана	-11.3309
▁бөлмөдө	-11.3311
▁көө	-11.3313
▁эсептей	-11.3313
▁Ch	-11.3316
ңуз	-11.3323
▁кеткендерди	-11.3323
▁өткөргөнү	-11.3326
▁жыр	-11.3327
▁чектеп	-11.3327
▁табият	-11.3333
▁кыштак	-11.3333
▁им	-11.3335
▁банктарды	-11.3344
▁Автор	-11.3344
▁журту	-11.3345
ээр	-11.3345
▁туруксуз	-11.3346
▁машинеси	-11.3347
▁ардагер	-11.3352
▁изилдөөчүлөр	-11.3353
▁температура	-11.3353
▁атоо	-11.3354
▁Мер	-11.3359
▁Ахмад	-11.336
▁Словакия	-11.336
▁каптады	-11.336
▁өр	-11.336
▁азери	-11.336
▁жатышпайбы	-11.336
▁бөлүшкөн	-11.336
▁өткөрбөй	-11.336
▁Калкты	-11.336
ээ	-11.336
▁пландалууда	-11.3361
▁үйрөнүү	-11.3361
▁Минскиде	-11.3361
▁илинип	-11.3362
▁каттамдарды	-11.3362
▁органды	-11.3363
▁чакырылып	-11.3364
▁баалаш	-11.3364
▁тоолор	-11.3364
▁сатууда	-11.3364
▁спутник	-11.3366
▁жетектейт	-11.3367
▁агрессиясы	-11.3368
▁четтетүү	-11.3369
▁байт	-11.3372
▁карашын	-11.3372
com	-11.3372
алымдар	-11.3373
йин	-11.3376
▁мүмкүнбү	-11.3376
штү	-11.3379
▁акцияны	-11.3379
▁лиги	-11.3384
▁аяк	-11.3386
▁механизми	-11.3387
▁гезиттер	-11.3389
Кемпир	-11.3389
▁маараке	-11.3389
▁оокат	-11.3391
тех	-11.3391
январында	-11.3392
▁чүлөр	-11.3395
▁тиричилик	-11.3396
▁кең	-11.3397
бур	-11.34
▁Төрө	-11.34
▁демилгелер	-11.3403
▁болуусу	-11.3403
▁демонстрация	-11.3403
▁нааразылыктар	-11.3403
▁жаныбар	-11.3407
▁каралганы	-11.341
▁айдаган	-11.341
▁актап	-11.341
▁Ги	-11.3412
▁Маск	-11.3415
▁үйрөтүү	-11.3416
▁ШКУ	-11.3419
▁кодекстер	-11.342
▁тарабы	-11.342
▁электро	-11.342
▁айтылганы	-11.3422
Ишеним	-11.3422
▁Абдуллаев	-11.3424
▁жолдоду	-11.3431
▁Пара	-11.3432
▁сум	-11.3432
▁баратканы	-11.3433
▁регламент	-11.3433
▁кеттик	-11.3435
▁Ишкана	-11.3436
▁Карабакты	-11.3437
▁дрондорду	-11.3439
вай	-11.3442
▁учук	-11.3443
▁романы	-11.3444
▁Абакта	-11.3444
▁жашоочулар	-11.3445
▁сезон	-11.3445
▁кайрылуулар	-11.3445
▁Арабия	-11.3445
▁чемпион	-11.3446
▁эстеликтер	-11.3448
▁чачы	-11.345
▁алышканын	-11.3455
▁образы	-11.3461
▁уюштурууну	-11.3463
▁ред	-11.3466
▁офицер	-11.3467
▁тиреши	-11.3467
▁дайынд	-11.3469
▁катып	-11.3472
Улут	-11.3473
▁дипломаттар	-11.3474
▁Феврал	-11.3475
▁изоляция	-11.3475
▁кычкылтек	-11.3475
ахлак	-11.3475
▁Экология	-11.3475
▁2026-	-11.3475
▁ферма	-11.3475
▁ийгилиги	-11.3475
▁туңгуюк	-11.3475
▁бороон	-11.3475
▁кубаттуулугу	-11.3475
▁Июл	-11.3475
▁изилдеген	-11.3476
▁аткарбаган	-11.3476
▁эмгектенип	-11.3476
▁эвакуациялоо	-11.3478
▁отурушат	-11.3478
▁Эски	-11.3479
▁каржылаган	-11.348
▁мыйзамдаштыруу	-11.3481
▁Жаны	-11.3483
▁дейбиз	-11.3485
▁жашылча	-11.3486
▁ынандыр	-11.3486
▁мүдөөсү	-11.349
▁жумурияты	-11.3493
▁Багдад	-11.3494
▁жеңилип	-11.3495
▁өндүрүп	-11.3496
▁таанышуу	-11.3497
▁курс	-11.3497
▁жолукканда	-11.3499
▁сумманы	-11.3505
▁ооп	-11.3506
▁вариант	-11.3506
▁жоокерди	-11.3506
батышында	-11.3506
аркасында	-11.3516
▁региондор	-11.3516
▁Коргон	-11.3516
▁кабылганы	-11.3518
▁Акматбек	-11.3518
▁жүрчү	-11.3521
▁киргизилгенин	-11.3521
▁долларын	-11.3535
▁Ой	-11.3539
▁Гол	-11.3542
▁кайтарууну	-11.3548
▁үйдөгү	-11.355
▁жетише	-11.3555
▁ресурстарын	-11.3556
▁рынок	-11.3557
▁кызматташтыгын	-11.3557
▁ичкен	-11.3559
▁бирикмелер	-11.356
▁кошту	-11.3563
▁эпидемиясы	-11.3563
▁сүрөттөрүн	-11.3568
▁компьютер	-11.3571
▁Райым	-11.3573
▁Абайды	-11.3574
▁кууру	-11.3576
▁арызданган	-11.3582
▁кордо	-11.3582
▁Журналисттерди	-11.3583
▁келгенбиз	-11.3584
▁темалар	-11.3584
om	-11.3585
▁күрөшүүдө	-11.3588
▁республикасы	-11.3589
▁угул	-11.359
▁во	-11.359
media	-11.3591
▁Курултай	-11.3591
▁кудурет	-11.3591
▁эсимде	-11.3591
▁кымбаттады	-11.3591
▁Кошуна	-11.3591
▁Көбүнчө	-11.3591
-16	-11.3591
▁жөнөтүлөт	-11.3591
▁Ормон	-11.3592
▁уурулук	-11.3593
▁Разаков	-11.3594
▁төрөгөн	-11.3594
▁Стан	-11.3596
▁өткөрүлөт	-11.3597
▁чогулуу	-11.3597
▁барышты	-11.3598
▁парк	-11.3601
▁кетебиз	-11.3602
▁карыя	-11.3603
▁чогулгандар	-11.3604
▁тереңде	-11.3607
:1	-11.3608
▁запасы	-11.3608
▁сектору	-11.3609
▁жылдыз	-11.3609
позицияны	-11.361
▁төлөмдөрдү	-11.361
▁көрүнүштөрдү	-11.361
▁Тегеранда	-11.3611
▁бастыр	-11.3613
▁өпкө	-11.3613
▁бейшембиде	-11.3616
▁Кыш	-11.3619
▁курулат	-11.362
▁Ташов	-11.3621
▁колдонот	-11.3621
▁чакырылганы	-11.3622
v	-11.3622
тилек	-11.3623
ТИМ	-11.3624
▁өлчө	-11.3627
▁армиясына	-11.3628
октябрында	-11.3628
иңди	-11.3631
▁жеткенде	-11.3631
▁логика	-11.3632
▁сакал	-11.3632
▁чечилген	-11.3632
▁коомунда	-11.3634
▁эк	-11.3636
карт	-11.364
ски	-11.3643
▁Киши	-11.3645
▁ыма	-11.3647
▁соодасы	-11.3648
▁ишен	-11.3652
▁факторлор	-11.3653
▁жээкте	-11.3653
умдук	-11.3655
x	-11.3657
▁куралдарды	-11.3664
▁жарлыгын	-11.3664
▁Айдан	-11.3665
▁тандоосу	-11.3666
▁көрбөгөн	-11.3666
▁дооматы	-11.3667
▁майданда	-11.3671
▁чатагы	-11.3675
▁жерлерин	-11.3675
▁судьялар	-11.3676
▁жолдоп	-11.3676
▁баалуулуктары	-11.3676
▁азыктары	-11.3678
▁нота	-11.368
▁аткарылышын	-11.3681
▁Рей	-11.3681
▁курулуштар	-11.3681
▁жорук	-11.3682
▁капиталы	-11.3686
▁кайтарыл	-11.3687
▁агартуу	-11.3688
▁ыкмасын	-11.369
▁Спорт	-11.369
▁аким	-11.369
▁пайдалан	-11.3691
▁көбөйө	-11.3691
▁картасын	-11.3692
▁Еврошаркет	-11.3693
▁доктор	-11.3697
тугу	-11.3698
▁талкаланганы	-11.3699
▁ыктыярчы	-11.3699
▁ура	-11.3703
▁укту	-11.3703
▁унутпа	-11.3703
▁чык	-11.3706
дашкан	-11.3707
▁кесепеттери	-11.3708
▁психо	-11.3708
▁1980-	-11.3709
▁Салянова	-11.3709
▁чоңойгон	-11.3709
ейиштүү	-11.3709
▁Капаров	-11.3709
▁актёр	-11.3709
▁отурукташ	-11.3709
▁бөлүшүп	-11.3709
жур	-11.3709
▁Мишел	-11.3709
▁эсептейбиз	-11.371
▁басарлары	-11.371
▁далилдеп	-11.3712
▁ушак	-11.3712
лдаган	-11.3713
▁бааларды	-11.3716
▁мат	-11.3716
▁каалайт	-11.3716
▁Тоң	-11.372
▁евди	-11.372
▁иштесе	-11.3721
▁озу	-11.3721
▁салам	-11.3723
▁мандатына	-11.3723
▁өң	-11.3724
▁VI	-11.3725
▁классика	-11.3725
▁тургандарды	-11.3726
▁аёо	-11.3727
▁тайпа	-11.3727
▁директорлор	-11.3727
▁чакырышкан	-11.3729
үлдү	-11.3732
▁айландыр	-11.3734
▁чечил	-11.3736
▁эрк	-11.3736
каналы	-11.3736
аткан	-11.3737
▁Зо	-11.3737
▁Леон	-11.3738
▁рейддер	-11.3742
атышпоо	-11.3742
▁ишеними	-11.3745
▁каралары	-11.3745
▁линиясы	-11.3747
▁өткөрүш	-11.3748
▁жарата	-11.3751
▁Олимпиадасын	-11.3752
▁ЖЭБди	-11.3753
▁азабын	-11.3756
▁укукту	-11.3762
▁Тынч	-11.3764
апырт	-11.3764
▁рыногунда	-11.3768
үрмөн	-11.3769
▁жагдайы	-11.3769
Эр	-11.377
ханов	-11.3771
▁шаршембиде	-11.3774
▁Ибрагим	-11.3774
▁албаганда	-11.3775
▁билиш	-11.3777
▁көчөлөр	-11.3778
▁кептер	-11.3778
классты	-11.3782
▁сактоону	-11.3782
▁нормалар	-11.3783
▁ве	-11.3783
▁кырсыктар	-11.3783
▁сынды	-11.3784
▁зар	-11.3785
▁журнал	-11.3794
▁муунду	-11.3798
▁класстар	-11.3798
▁ӊ	-11.38
▁аянтчасы	-11.3802
▁айтылуу	-11.3805
кулова	-11.3808
▁иштеринде	-11.3808
▁n	-11.3811
▁аткар	-11.3815
инчи	-11.3817
▁жүрбөй	-11.3818
▁сындар	-11.3821
▁коммуникация	-11.3823
▁канаттуу	-11.3825
▁Абхазия	-11.3828
▁12...17	-11.3828
▁Шайлдабекова	-11.3828
▁кумшекер	-11.3828
▁терапия	-11.3828
▁филармония	-11.3828
▁ынтымагы	-11.3828
▁экипаж	-11.3828
▁өксү	-11.3828
▁Келечекте	-11.3828
▁орундары	-11.3828
▁аныктама	-11.3828
▁карманып	-11.3828
▁10-15	-11.3829
▁болоорун	-11.383
▁апталарда	-11.383
▁күж	-11.3831
▁жүрүшкөн	-11.3832
▁Талаш	-11.3832
▁айтайын	-11.3833
▁Тер	-11.3834
▁соккуларына	-11.3834
туулугу	-11.3834
▁Уюштуруучулар	-11.3837
▁Эркиндик	-11.3838
▁эсине	-11.3841
▁ишкерлери	-11.3841
▁ашса	-11.3842
▁эмдөөнү	-11.3848
▁отурганын	-11.3849
▁Эске	-11.3857
▁Бабановду	-11.3858
▁боюна	-11.3859
▁вариантын	-11.3861
лес	-11.3865
▁укуктар	-11.3865
▁бүтөт	-11.3866
▁лай	-11.3866
▁миллиону	-11.3867
▁союз	-11.3867
▁элчилигине	-11.3868
лла	-11.387
▁космосту	-11.3872
шууда	-11.3872
▁урук	-11.3873
▁195	-11.3875
▁бийле	-11.3876
▁дамба	-11.3877
▁түйүн	-11.3878
▁ышты	-11.3881
Аль	-11.3884
рест	-11.3885
унова	-11.3885
▁кулов	-11.3887
▁кийүү	-11.3892
▁медресе	-11.3893
▁мээ	-11.3896
еми	-11.3897
▁аппараттарды	-11.3898
▁баласына	-11.3909
▁Польшада	-11.3913
▁тапшырыш	-11.3914
▁теп	-11.3921
▁революциясы	-11.3921
▁корутундусу	-11.3922
▁жибере	-11.3925
▁табияты	-11.3928
▁өкүлчүлүк	-11.3933
▁созул	-11.3933
▁жазаны	-11.3934
▁убадалар	-11.3935
▁каттала	-11.3935
▁Чеченстанды	-11.3944
▁При	-11.3944
пикир	-11.3944
▁макта	-11.3946
▁Түркмөн	-11.3947
▁грамм	-11.3948
▁жумуртка	-11.3948
▁публицист	-11.3948
▁спирт	-11.3948
▁трибуна	-11.3948
▁көзөмөлү	-11.3948
▁ээледи	-11.3948
▁2030-	-11.3948
▁Мыктыбек	-11.3948
▁иммун	-11.3948
▁фирмалар	-11.3949
▁Айтмакчы	-11.3949
▁жыйынтыкталды	-11.3949
▁көрүшөт	-11.3949
▁аркалаган	-11.3949
▁кенже	-11.395
▁жарыялашкан	-11.395
▁кабарлашкан	-11.3954
▁титирөөдө	-11.3954
▁Кичине	-11.3954
▁үзүлгөн	-11.3954
▁фронтто	-11.3957
▁Европарламент	-11.3961
▁талдай	-11.3965
▁жазуучусу	-11.3965
▁таарын	-11.3966
ели	-11.3967
▁кыскарган	-11.397
▁Эсеп	-11.3971
▁жыт	-11.3974
▁автономия	-11.3974
▁өпкөнү	-11.3974
▁алакалар	-11.3977
▁импортто	-11.3982
▁штатта	-11.3982
▁сабалган	-11.3983
Адилет	-11.3984
ӨКМ	-11.3984
украин	-11.3984
▁кайрылат	-11.3984
▁Шайлоодо	-11.3986
▁токтомду	-11.3989
▁чагылдыр	-11.3989
▁изилдөөлөрдү	-11.399
Мурас	-11.399
▁болмокчу	-11.399
▁жүрүшкө	-11.3991
▁Жүз	-11.3991
▁Кадыровду	-11.3994
▁тургунду	-11.3994
▁Фонд	-11.3995
▁w	-11.3995
▁штатты	-11.3996
▁Үмүт	-11.3996
▁суң	-11.3998
▁мамилесине	-11.4007
▁дүү	-11.4009
▁Пан	-11.401
▁Пригожинди	-11.401
▁Гонконг	-11.4011
▁айланганы	-11.4011
▁Пхеньян	-11.4011
▁кепке	-11.4016
▁макчы	-11.4017
▁адамзатты	-11.4019
Бу	-11.4019
▁алуусуна	-11.4021
▁калгандай	-11.4023
▁жеткириш	-11.4023
▁аксакал	-11.4026
▁2000	-11.4028
▁ишкерди	-11.4028
▁ишембиде	-11.4029
▁коммун	-11.4029
▁башкармалык	-11.4034
14	-11.4035
▁Биримдигинде	-11.4035
▁жасалганы	-11.4036
▁окутуучу	-11.4036
▁тартат	-11.4037
▁кене	-11.4037
▁референдумду	-11.404
▁өздөштүр	-11.4045
▁Ос	-11.4048
▁Кармалган	-11.4051
▁Молд	-11.4051
лашып	-11.4052
▁педагогика	-11.4052
▁ачыла	-11.4052
жигит	-11.4053
▁окурман	-11.4056
▁далили	-11.4056
октор	-11.4056
▁системада	-11.4061
▁Махмуд	-11.4061
тиктер	-11.4063
▁унда	-11.4063
▁укта	-11.4065
Абадды	-11.4066
▁бөлүктөрү	-11.4068
▁кыянат	-11.4069
▁зыярат	-11.407
▁агыз	-11.407
▁Валентин	-11.407
▁Львов	-11.407
▁Роберт	-11.407
▁Татьяна	-11.407
▁Токтонасыров	-11.407
▁аукцион	-11.407
Тахрир	-11.407
▁онкология	-11.407
▁абактарында	-11.407
▁алыстыкта	-11.407
▁чакырыгы	-11.407
▁Мохаммад	-11.407
▁өткөрүлдү	-11.407
▁Жолдубаева	-11.407
▁Расул	-11.407
▁улутундагы	-11.4071
▁иликтей	-11.4071
▁Рамз	-11.4071
▁союздаштары	-11.4072
▁7,5	-11.4073
▁аныкталса	-11.4073
▁жаралышы	-11.4074
▁Качан	-11.4076
▁Тель	-11.4077
▁Инди	-11.4078
▁Балти	-11.4078
▁телефондор	-11.4079
▁сүң	-11.4084
▁жаңылыш	-11.4087
▁сеп	-11.4088
▁ишенет	-11.4088
еев	-11.4089
▁чабуулдары	-11.409
▁мүмкүнчүлүгүнө	-11.4091
▁Коом	-11.4093
▁Дене	-11.4094
▁берери	-11.4095
▁таасирине	-11.4096
▁басаң	-11.4096
▁имди	-11.4103
▁комитетте	-11.4104
▁кетели	-11.4104
▁аламандык	-11.4104
▁чакырылышта	-11.4105
▁умтулуу	-11.4106
коррупция	-11.4107
Украина	-11.4108
өскөн	-11.4109
▁программалар	-11.4109
ad	-11.4114
▁камералар	-11.4121
▁койсок	-11.4121
▁карады	-11.4123
▁митингчилер	-11.4126
рес	-11.4131
▁жүйөсү	-11.4132
акунов	-11.4135
▁лидерлерди	-11.4137
▁аскерлерине	-11.4139
▁Сырт	-11.4139
▁өтү	-11.4141
ыңды	-11.4141
дармектерди	-11.4141
▁тайга	-11.4147
есс	-11.4149
▁реформаны	-11.4154
▁кун	-11.4156
▁Асадды	-11.4157
▁токтомун	-11.416
▁Фейсбукта	-11.4165
▁ачууну	-11.4165
▁Мьянма	-11.4168
▁каалаба	-11.4172
гандар	-11.418
Ай	-11.4182
хам	-11.4185
▁арам	-11.4186
▁Толу	-11.4187
▁нөшөр	-11.4193
Эркечтам	-11.4193
▁Чогулгандар	-11.4193
▁адалдоо	-11.4193
▁асфальт	-11.4193
▁басылып	-11.4193
▁бүдөмүк	-11.4193
▁таратылган	-11.4193
▁Бейрут	-11.4193
▁Шабдан	-11.4193
▁талкууланат	-11.4193
▁сүйрө	-11.4193
▁Холл	-11.4194
▁иңер	-11.4194
▁либерал	-11.4194
▁олтуруп	-11.4194
▁акимчилик	-11.4194
▁каалап	-11.4194
▁келгенсип	-11.4194
▁ууланып	-11.4194
▁өрттөнүп	-11.4194
▁барам	-11.4195
▁буюмдар	-11.4195
▁керебет	-11.4195
▁төккөн	-11.4196
▁көрсөтүшү	-11.4196
▁музейди	-11.4197
▁чамалуу	-11.4197
▁Иманкулов	-11.4198
▁кыйноолор	-11.4199
▁өзүңүз	-11.4199
▁сентябрды	-11.42
▁чыгарууда	-11.42
▁ЮНИСЕФ	-11.42
▁Кино	-11.4201
▁кыймылына	-11.4204
▁төмөндөтүү	-11.4205
▁бекен	-11.4205
▁залакасы	-11.4208
▁жаштары	-11.4208
▁кармай	-11.421
▁уюштурду	-11.4211
▁өрттөп	-11.4212
▁Рыскулов	-11.4212
▁Жоомарт	-11.4213
▁мол	-11.4215
▁аке	-11.4219
▁астына	-11.4219
орой	-11.4222
▁ишене	-11.4222
бөө	-11.4223
▁чыгарышы	-11.4224
▁Дубайда	-11.4225
▁маалымдап	-11.4226
▁атылганы	-11.4226
▁түшкө	-11.4228
▁Нуру	-11.4228
▁сынып	-11.4229
▁макаласын	-11.4229
ңүздөр	-11.4231
ЖККУ	-11.4232
▁селде	-11.4234
▁чыңал	-11.4235
линг	-11.4236
▁тургандыгы	-11.4236
▁Саакашвили	-11.4241
▁залал	-11.4243
плас	-11.4243
▁кеңейтил	-11.4246
▁товарларын	-11.4249
▁230	-11.4249
Жар	-11.4252
▁жатышканы	-11.4255
мэри	-11.4256
▁уюштурганы	-11.4256
дармектер	-11.4259
▁өпкөсү	-11.4265
▁жазык	-11.427
үрү	-11.4271
▁акчасына	-11.4271
▁Тор	-11.4275
▁эстелик	-11.4275
▁вакциналар	-11.4282
▁кесепеттер	-11.4283
▁l	-11.4284
▁чалган	-11.4289
▁авиакомпаниясы	-11.429
▁бригада	-11.4291
▁корук	-11.4292
▁кызыкчылыктар	-11.4292
▁батышында	-11.4295
▁аракеттен	-11.4296
▁Гүлша	-11.4301
▁Лю	-11.4302
бел	-11.4303
▁күрд	-11.4305
гиси	-11.4307
▁мон	-11.4309
▁Кер	-11.4309
▁отчетун	-11.4311
▁агенттиктери	-11.4312
▁Хай	-11.4312
▁Черн	-11.4313
▁ниетте	-11.4317
▁экстрадиция	-11.4317
▁өсүмдүк	-11.4318
Административдик	-11.4318
▁9...14	-11.4318
▁Вьетнам	-11.4318
▁Вячеслав	-11.4318
▁бириктирип	-11.4318
▁аккредитация	-11.4318
▁ыңгайлаш	-11.4318
▁Кабыл	-11.4318
▁үстөл	-11.4318
▁Блогер	-11.4319
▁Live	-11.4319
▁бозгунда	-11.4319
▁Шольц	-11.4319
▁төлөнөт	-11.4319
▁Убагы	-11.4319
▁берилчү	-11.4319
▁ыраазычылыгы	-11.4319
▁жөлөкпул	-11.4319
▁милдеттерди	-11.432
▁бошот	-11.432
▁өчүп	-11.4321
▁демекчи	-11.4321
▁өтүүнү	-11.4322
▁кармануу	-11.4323
Талаа	-11.4323
▁адилеттүүлүк	-11.4324
▁ыйгарылды	-11.4324
▁лигасы	-11.433
▁кедей	-11.433
▁Баарыбыз	-11.4332
▁катталууда	-11.4334
▁-2	-11.4335
▁токтотпо	-11.4337
▁биринчиден	-11.4337
▁уктап	-11.434
▁жөндөмү	-11.4341
▁Facebook	-11.4341
▁Эсенгул	-11.4342
▁шейшемби	-11.4342
▁тастыктап	-11.4342
▁күрөшөт	-11.4345
▁КР	-11.4346
▁Депутатты	-11.4346
▁Хал	-11.4348
▁кумар	-11.4352
ирээ	-11.4352
сара	-11.4352
министрлик	-11.4354
▁танктар	-11.4355
▁115	-11.4356
▁аяр	-11.4357
Медиа	-11.4359
▁кий	-11.4359
Кызыл	-11.4359
Эмне	-11.4359
▁Ошолорду	-11.436
▁Мамбетов	-11.4363
▁сертификат	-11.4364
▁орундарды	-11.4366
конференция	-11.4373
▁Аскарбек	-11.4376
▁жөөт	-11.4376
▁режимине	-11.4376
▁өндүрүүнү	-11.4378
▁жумшал	-11.438
▁макулдашуулар	-11.4381
▁жүрдүм	-11.4382
▁өспүрүмдү	-11.4383
▁Куран	-11.4383
▁Жана	-11.4384
▁атасына	-11.4386
▁алма	-11.4388
▁клуб	-11.4388
▁алтоо	-11.4391
▁чыгаша	-11.4392
▁жабдыктарды	-11.4394
▁калгандарды	-11.4394
▁жазалан	-11.4396
▁Марл	-11.4399
▁күчөгөнүн	-11.4404
енд	-11.4408
▁макулдашуусу	-11.4409
▁төрттө	-11.441
▁сүйлөшө	-11.4412
▁токтоткону	-11.4414
▁бейшемби	-11.4418
ычтуу	-11.4419
▁касса	-11.442
▁Дубай	-11.4424
▁жетеле	-11.4428
анг	-11.443
▁Сталин	-11.4431
▁Юрист	-11.4437
▁кыштагы	-11.4438
▁кайрылуусуна	-11.4438
▁бошотул	-11.4439
▁Тегеранды	-11.4442
▁канааттан	-11.4443
▁ева	-11.4443
▁толкундоо	-11.4444
▁куттуктоо	-11.4445
▁филиалы	-11.4445
▁4...9	-11.4445
▁Баяндама	-11.4445
▁зыйнаты	-11.4445
▁координатору	-11.4445
▁Дегеле	-11.4445
▁жетсе	-11.4445
▁сызыгы	-11.4445
▁жазылды	-11.4446
▁салыштырып	-11.4446
▁ырастай	-11.4447
▁үйлө	-11.4447
▁аракеттенип	-11.4448
▁ууланган	-11.4449
▁аңчылык	-11.4449
▁даярдыгын	-11.4449
▁иштечү	-11.445
▁узартылды	-11.4452
уура	-11.4453
▁анысы	-11.4453
▁жөнөтүлгөнү	-11.4453
▁ысым	-11.4454
▁Крымда	-11.4455
▁артты	-11.4457
▁тийгизди	-11.4457
▁дарыканалар	-11.4458
▁тагыраагы	-11.4458
▁жоюлган	-11.446
▁күнөөсүз	-11.4461
▁гидро	-11.4467
пөс	-11.4471
▁референдумда	-11.4474
▁белгилер	-11.4474
▁Гор	-11.4475
▁козголоңчулар	-11.4477
▁келтирет	-11.4481
▁имараттары	-11.4482
▁өлгөнү	-11.4482
▁Фар	-11.4483
▁үнөмдөө	-11.4483
▁өкүмдү	-11.4484
▁атса	-11.4486
▁жакпай	-11.4488
мыйзамсыз	-11.4489
шкен	-11.449
▁футболчу	-11.4492
▁аннексиялан	-11.4494
▁кезеги	-11.4494
▁турмушун	-11.4496
▁барбайт	-11.4497
▁Сүйлөшүүлөр	-11.4499
акция	-11.4502
▁басылмалары	-11.4503
▁көрүнүшү	-11.4505
▁душманы	-11.4508
Унаа	-11.4509
▁деңизде	-11.4513
▁резиденция	-11.4514
▁сынакты	-11.4514
▁келишкени	-11.4514
▁баламды	-11.4517
▁Боз	-11.452
▁куткары	-11.4523
▁Z	-11.4523
▁базарына	-11.453
▁интервьюсу	-11.4531
▁196	-11.4536
▁Республикасында	-11.4538
▁Мира	-11.4543
▁ГЭСи	-11.4548
▁күндөрдө	-11.455
▁жобосу	-11.4551
▁демократ	-11.4552
богон	-11.4552
▁чурка	-11.4553
майынча	-11.4553
▁нө	-11.4553
▁атканда	-11.4554
кович	-11.4556
▁дарда	-11.4556
▁кемчиликтери	-11.4558
▁жарылууда	-11.456
▁Бүт	-11.4565
өнөкөй	-11.4572
▁бермек	-11.4573
▁Жабырлануучу	-11.4573
▁Мелдеш	-11.4573
▁6...11	-11.4573
▁7...12	-11.4573
▁Press	-11.4573
▁Буюрса	-11.4573
▁буюрса	-11.4573
▁эбак	-11.4573
▁Түнкү	-11.4573
▁берилсе	-11.4573
▁толтуруп	-11.4573
▁Толкун	-11.4574
▁модернизациялоо	-11.4574
▁жогорулашы	-11.4574
▁фискалд	-11.4574
▁жашагандар	-11.4574
▁Гүлбара	-11.4575
▁Сынак	-11.4575
ьер	-11.4575
▁сакталат	-11.4575
▁сүйлөдү	-11.4575
▁көрүлөрү	-11.4576
▁ланды	-11.4576
▁чагылдырылган	-11.4577
ырылып	-11.4578
▁рейс	-11.4579
▁Булак	-11.4581
▁Калиева	-11.4581
▁Бурул	-11.4581
▁жабыркагандарды	-11.4586
▁жарыяланат	-11.4587
▁Санду	-11.4587
Исфан	-11.4587
▁тарына	-11.4587
▁акталган	-11.4588
▁салгылашуулар	-11.4589
▁өлкөбүздү	-11.4593
▁Адамды	-11.4594
▁тактай	-11.4597
▁телеканалын	-11.4601
▁олигарх	-11.4606
▁ашуусу	-11.4607
▁милдеттенме	-11.461
▁табууну	-11.4611
руз	-11.4611
▁оюндарды	-11.4612
▁саналууда	-11.4612
▁террорчулар	-11.4613
ыгып	-11.4618
▁ачылбай	-11.4621
чатакты	-11.4626
▁Садыков	-11.4627
▁канаты	-11.4628
▁тапшырганы	-11.463
▁сыноолор	-11.4631
▁резиденциясын	-11.4633
▁лабораториялар	-11.464
▁жаныбарларды	-11.4643
▁жаттым	-11.4644
▁абийир	-11.4645
▁империя	-11.4645
▁кою	-11.4646
▁экенсиң	-11.4646
▁билгенде	-11.4648
▁жазгы	-11.465
▁бөгө	-11.4652
▁жактарда	-11.4653
▁токтотуш	-11.4655
керлер	-11.4657
▁фронт	-11.4663
Орусияны	-11.4666
▁Гонконгдо	-11.4669
ьев	-11.4671
▁аралаштыр	-11.4672
▁Аялдарды	-11.4673
кассалык	-11.4675
аракеттерди	-11.4676
▁аскерди	-11.4676
▁Асанбек	-11.4679
▁пландар	-11.4679
▁пенде	-11.4679
▁көрсөт	-11.4679
▁Азербайжанда	-11.4683
▁дарыялар	-11.4684
▁Молдованы	-11.4685
▁төлөөдө	-11.4685
▁затты	-11.4687
▁тапшырылган	-11.4687
▁Судья	-11.4688
▁өлтүрүлгөнү	-11.4689
▁дарыкана	-11.4693
▁шартын	-11.4695
▁археология	-11.4695
▁билди	-11.4695
▁октябр	-11.4697
▁курмандыктарын	-11.4698
урах	-11.4699
▁Дарыгер	-11.47
▁тарбияла	-11.4701
j	-11.4703
▁Зомбулук	-11.4703
▁инновация	-11.4703
▁тегерек	-11.4703
▁время	-11.4703
▁кайгуул	-11.4703
▁көчүрмөсү	-11.4703
▁мазмунда	-11.4703
▁режиссёр	-11.4703
▁депозит	-11.4703
▁Артем	-11.4703
▁өзгөртүлдү	-11.4703
▁ыктаган	-11.4703
▁тосуу	-11.4704
▁курчуган	-11.4704
▁коштоосу	-11.4704
▁усул	-11.4704
ислав	-11.4704
▁көрүшкөн	-11.4705
▁союзду	-11.4705
▁км	-11.4706
▁кейип	-11.4706
▁жарылган	-11.4707
мүрт	-11.4707
▁десең	-11.4708
▁мүнөздөдү	-11.4708
▁Елен	-11.4709
▁көчөлөрүн	-11.471
▁өзгөрөт	-11.4711
▁Ля	-11.4711
▁Карим	-11.4712
анааттандырарлык	-11.4713
▁препарат	-11.4713
▁эсепти	-11.4714
▁кампасы	-11.4714
▁туман	-11.4715
▁катын	-11.4716
▁рейтинг	-11.4717
▁версия	-11.4717
▁жандантуу	-11.4719
ами	-11.4719
▁Жашоо	-11.4719
▁сөөктөрү	-11.4721
▁талаасында	-11.4723
▁суукта	-11.4726
▁каттамдарын	-11.4726
▁иштешкен	-11.4727
▁намыс	-11.4727
13	-11.473
▁Сабыр	-11.473
раган	-11.4731
▁элибизди	-11.4731
▁коомчулугун	-11.4732
▁Айла	-11.4734
▁Тын	-11.4735
▁жыйна	-11.4736
▁салуусу	-11.4736
▁болсом	-11.4737
▁кызматташ	-11.4742
Бейит	-11.4742
▁келбегени	-11.4742
▁эмгектене	-11.4746
▁Иманов	-11.4748
Борбор	-11.4749
Түрк	-11.4749
▁мүчүлүштүктөр	-11.475
чев	-11.4751
▁Берди	-11.4751
▁нес	-11.4753
Ме	-11.4753
▁кокус	-11.4753
▁мина	-11.4758
▁келтириш	-11.4759
▁жакырчылыкты	-11.4761
президентти	-11.4765
▁Оор	-11.4768
▁Ташкентти	-11.477
▁баяндамада	-11.4776
ания	-11.4777
▁чыңда	-11.4786
▁буюмдары	-11.479
▁студенттери	-11.4795
▁тартууда	-11.4798
▁Лев	-11.4798
▁түркү	-11.4799
кысым	-11.4799
▁Чечим	-11.4799
▁тартыштыгына	-11.4801
▁интеллект	-11.4802
▁өзгөртө	-11.4803
▁кадамдары	-11.4807
эсен	-11.4811
▁Соттор	-11.4814
▁митингде	-11.4814
▁Арменияда	-11.4816
▁оозуна	-11.4818
▁жеткени	-11.4821
▁күнөөлө	-11.4822
▁жоромол	-11.4823
ришти	-11.4827
▁укмуш	-11.4827
▁пункттары	-11.4828
▁бренд	-11.4828
▁(19	-11.4828
▁декабрд	-11.4829
▁квартал	-11.4833
▁кызыккан	-11.4834
Next	-11.4835
▁бюрократия	-11.4835
▁бөтөлкө	-11.4835
▁кедергиси	-11.4835
▁почта	-11.4835
▁рахмат	-11.4835
▁ажыратты	-11.4835
Кыргызалтын	-11.4835
▁Өздөрү	-11.4835
▁криптовалюта	-11.4836
ону	-11.4836
▁табылбай	-11.4836
▁Атай	-11.4836
▁Эрмек	-11.4837
▁Акмол	-11.4837
▁үйлөнү	-11.4838
▁башчылыгын	-11.4839
ve	-11.4839
▁жээгине	-11.484
▁учурашы	-11.4841
▁иштете	-11.4842
▁салышат	-11.4842
▁баккан	-11.4844
▁рекорд	-11.4844
▁пландаган	-11.4846
▁шал	-11.4847
▁жоготту	-11.4849
▁аппараттар	-11.485
▁Активисттер	-11.485
▁сине	-11.4851
▁геология	-11.4852
▁көрүнүштү	-11.4852
ливан	-11.4853
▁биригүү	-11.4855
▁жыйнап	-11.4855
▁камсыздоону	-11.4857
▁Цз	-11.486
▁кайгыр	-11.4861
▁Кабулду	-11.4865
▁Султанов	-11.4866
кинс	-11.4869
▁беттештер	-11.487
▁такты	-11.4871
▁айтышып	-11.4872
▁Баатыр	-11.4872
▁Нурдин	-11.4875
▁Ордо	-11.4876
чыгыш	-11.4878
▁сынагы	-11.4879
өчүрүлүп	-11.488
▁Сузакта	-11.4881
Баткен	-11.4882
▁инспектор	-11.4884
илл	-11.4884
есте	-11.4887
▁Вирусту	-11.4888
▁гр	-11.489
▁элдиктерди	-11.4891
▁кендерди	-11.4892
▁барарын	-11.4892
▁пы	-11.4894
▁жарышта	-11.4894
▁талкуусун	-11.4898
▁сиңер	-11.4902
▁лануу	-11.4907
▁кепте	-11.4914
▁иштешүү	-11.4915
▁алынышын	-11.4918
▁кийимдери	-11.4918
▁институттары	-11.4919
▁ресурстар	-11.4923
▁классты	-11.4925
▁жабдык	-11.493
▁мушташка	-11.4934
▁Күр	-11.4938
▁Алия	-11.4939
▁Назар	-11.495
олла	-11.4954
▁Россияда	-11.4954
▁уюштурул	-11.4955
▁тилдери	-11.4955
▁Бейше	-11.4957
Мекен	-11.4958
▁көтөрүш	-11.4958
▁Сегиз	-11.4966
▁Пелоси	-11.4968
▁5...10	-11.4968
▁Глобал	-11.4968
▁Зайыр	-11.4968
▁алфавит	-11.4968
▁квалификация	-11.4968
▁киргизилиши	-11.4968
▁касиет	-11.4968
▁өрнөк	-11.4968
▁контент	-11.4968
▁Күрөш	-11.4968
▁Казакпаев	-11.4968
▁өзгөртүлгөн	-11.4968
▁көчүрүлгөн	-11.4969
▁өткөрүшкөн	-11.4969
▁кирбеген	-11.4969
▁майнинг	-11.4969
▁банктары	-11.4969
▁чөнтөгүнө	-11.4969
▁жөндөмдүү	-11.4969
сер	-11.497
▁Алимбаев	-11.497
▁Төлөгөн	-11.497
▁адилеттик	-11.4971
▁ордени	-11.4971
▁шылуундар	-11.4971
▁чогултулган	-11.4972
▁байкуш	-11.4973
▁стат	-11.4973
▁Үчүнчүдөн	-11.4973
▁Умаров	-11.4973
▁бурулуп	-11.4973
▁Рахман	-11.4973
▁Бинь	-11.4973
▁Казы	-11.4974
▁калыстык	-11.4976
▁согушуна	-11.4976
▁бура	-11.4978
Фейсбукка	-11.498
▁шире	-11.4981
▁каарман	-11.4982
▁Оль	-11.4983
▁Ток	-11.4983
▁сүй	-11.4985
▁жогорулап	-11.4989
▁эсинде	-11.4989
▁америкалыктар	-11.4993
▁кылмыштуулукту	-11.4995
▁жумшап	-11.4995
▁ойной	-11.4996
▁айдоочулары	-11.4999
Жол	-11.5
▁тартса	-11.5003
▁кайнат	-11.5003
▁чалуу	-11.5007
▁аялдары	-11.5007
▁125	-11.5008
▁күбөлөрдү	-11.5009
▁Вол	-11.501
▁команданы	-11.5014
Ю	-11.5014
▁тармактарында	-11.5014
▁табышкан	-11.5016
▁тартыл	-11.5017
Кылмыш	-11.5017
бийликти	-11.5017
кеңеш	-11.5017
▁университетте	-11.5018
▁Рада	-11.5019
▁такта	-11.5019
▁күчөткөн	-11.502
▁аксакалдар	-11.502
Бийликти	-11.5021
▁мөңгү	-11.5021
▁процедура	-11.5022
▁катында	-11.5025
▁иштетил	-11.5026
▁кыйылганы	-11.5027
▁мөңгүлөр	-11.5028
▁козголгону	-11.5029
▁уюштуруучулар	-11.503
▁тору	-11.5031
алган	-11.5035
▁метро	-11.5042
▁оодар	-11.5046
▁сыны	-11.5046
▁телеканалды	-11.5049
▁бетине	-11.505
▁камалганын	-11.505
▁иштерде	-11.5051
▁чыкмак	-11.5053
▁Той	-11.5053
▁бюджетине	-11.5055
▁Илья	-11.5056
даштыруу	-11.5057
үстөгү	-11.5057
▁насыяларды	-11.506
▁193	-11.5066
▁каттоосу	-11.5066
Рос	-11.5068
▁бөлүмдөрүн	-11.5069
▁көзүм	-11.507
▁дугу	-11.5074
лаф	-11.5074
▁Союз	-11.5075
▁Колу	-11.5077
▁кызыгы	-11.5078
▁куш	-11.5081
▁түшүн	-11.509
естан	-11.5091
▁тилкеде	-11.5094
▁чатыры	-11.5095
▁Кли	-11.5096
▁программаны	-11.5097
▁жаранына	-11.5098
▁ийген	-11.5101
тартыштар	-11.5101
нүктүрүү	-11.5102
▁оозу	-11.5102
венция	-11.5103
▁Эреже	-11.5103
▁Арслан	-11.5103
▁Махабат	-11.5103
▁Ноокен	-11.5103
▁прогресс	-11.5103
▁топурак	-11.5103
▁күтүлгөн	-11.5103
▁Ахун	-11.5104
▁тоют	-11.5104
▁сабырдуулук	-11.5104
▁бөтөн	-11.5104
▁Исламабад	-11.5104
Мыкты	-11.5104
▁In	-11.5104
▁Солтон	-11.5104
▁сүрө	-11.5104
▁бошотулуп	-11.5104
▁актриса	-11.5105
▁кийлигишип	-11.5106
▁рган	-11.5106
ir	-11.5106
▁эсептелип	-11.5106
▁лагерде	-11.5107
▁тээ	-11.5107
▁ңиздер	-11.5108
▁кетки	-11.5109
▁жүрүштү	-11.5109
▁баарлашуу	-11.511
▁Вита	-11.5111
▁Ангел	-11.5111
▁кийлигишүүсү	-11.5112
▁Telegram	-11.5113
▁асманда	-11.5115
▁жүрбө	-11.5115
▁академиясын	-11.5116
▁залында	-11.5116
▁күйөөсүнө	-11.5121
▁кубатын	-11.5124
▁барымтада	-11.5124
▁байкалды	-11.5125
▁тарата	-11.5125
▁кеңсесине	-11.5127
▁137	-11.5127
расс	-11.5128
▁батирлер	-11.5131
▁Аалы	-11.5132
▁ция	-11.5133
▁жактыр	-11.5133
▁ээрчи	-11.5134
январдын	-11.5134
▁падышалык	-11.5144
▁компьютерди	-11.5144
▁уюмда	-11.5145
▁береби	-11.5145
▁Турду	-11.5146
▁От	-11.5149
▁Пен	-11.515
Электр	-11.5154
бург	-11.5154
▁дрондору	-11.5155
▁тиркемеси	-11.5155
▁2022	-11.5157
▁фестивал	-11.5159
▁жапты	-11.5159
улло	-11.5162
▁Алыкул	-11.5163
▁имаратында	-11.5164
▁сурашты	-11.5164
▁курул	-11.5169
▁танып	-11.5169
лүгүнө	-11.517
▁Топ	-11.517
▁Гер	-11.517
суу	-11.5174
▁тутуу	-11.5176
Кылым	-11.5177
▁батирде	-11.5177
▁сунуштары	-11.5177
▁таймаштар	-11.5179
▁психолог	-11.5184
▁Гали	-11.5184
▁донорлор	-11.5184
▁райондор	-11.5185
▁устав	-11.519
▁камагында	-11.5192
▁on	-11.5192
15	-11.5195
▁Там	-11.5195
мба	-11.5196
▁бөлүштүр	-11.5199
▁бирикме	-11.52
▁басымды	-11.5202
▁милдеттенмелер	-11.5203
▁Шайлоочулар	-11.5204
шпаган	-11.5204
▁ресторандар	-11.5204
▁каттар	-11.5205
▁канааттандыр	-11.5206
▁чемпионатына	-11.5207
▁каттоосун	-11.5207
▁кендер	-11.5211
▁Сулайман	-11.5212
▁2%	-11.5212
▁өндүрө	-11.5215
▁альянсы	-11.5215
▁бутагы	-11.5216
▁камаган	-11.5217
▁негиздемеси	-11.5217
▁кармашка	-11.5218
ta	-11.5218
▁туткундар	-11.5218
▁Облус	-11.522
▁Диа	-11.5229
▁митинги	-11.5229
адим	-11.5231
▁министрликтер	-11.5233
▁уланган	-11.5235
▁ырын	-11.5236
солку	-11.5238
тандыруу	-11.5239
Q	-11.524
▁3...8	-11.524
▁мораторий	-11.524
▁муздаткыч	-11.524
▁түптөө	-11.524
▁доклад	-11.524
▁Мусулмандар	-11.524
▁сунушталууда	-11.524
▁токтолгон	-11.524
▁өчүрүлгөн	-11.5241
▁троллейбус	-11.5241
▁өркүндөтүү	-11.5241
▁байгеси	-11.5241
▁Ырас	-11.5242
▁угуш	-11.5242
▁мүнөздүү	-11.5244
▁жарыялашты	-11.5244
▁калтырбай	-11.5245
▁калабы	-11.5246
ial	-11.5246
▁кеткендиктен	-11.5248
▁кыймылда	-11.525
▁өрү	-11.525
▁сактагыч	-11.5251
▁кылынды	-11.5251
▁хирург	-11.5253
▁Эрнис	-11.5254
▁кызыгуусу	-11.5257
▁кыялдан	-11.5258
▁шаарча	-11.5258
▁уктум	-11.5258
цев	-11.5259
▁Сенат	-11.5259
▁өзгөчөлүктөрү	-11.526
▁элекмин	-11.526
▁көзөмөлдөйт	-11.5262
▁келечегине	-11.5263
▁фермерлер	-11.5264
▁жап	-11.5265
▁кетишкенин	-11.5266
латып	-11.5267
▁таанышы	-11.5269
ртуу	-11.5269
▁аяктаганын	-11.527
лүп	-11.5273
сус	-11.5277
▁диплому	-11.5277
▁тасмаларды	-11.5278
▁сапарды	-11.5281
▁алиги	-11.5282
▁кыштагында	-11.5283
таттуу	-11.5284
▁сайтты	-11.5288
Бийлик	-11.529
▁тергөөчүсү	-11.529
чөйрө	-11.5292
▁Эй	-11.5293
үт	-11.5293
Жалпы	-11.5293
▁ыкмаларды	-11.5297
▁кагылыш	-11.5298
▁Сенатта	-11.5298
▁чыгарса	-11.5299
▁4%	-11.5299
▁болдубу	-11.5299
▁улутчул	-11.53
▁легитимдүү	-11.5301
▁кооптон	-11.5302
бүлөлөрдү	-11.5304
эс	-11.5305
▁280	-11.5306
▁Бейшеналиевди	-11.5308
▁жактап	-11.5309
▁сүзүү	-11.531
▁баткан	-11.531
бабалары	-11.5312
түрк	-11.5312
▁лору	-11.5313
▁видеолору	-11.5317
▁карашты	-11.5317
▁Иликтөөчү	-11.5317
▁байланыша	-11.5321
▁тып	-11.5326
▁лашкан	-11.5328
жаб	-11.5331
▁офицерлер	-11.5332
▁жыйы	-11.5336
▁Жарандар	-11.5337
▁учкучтар	-11.5354
▁бөлө	-11.5355
▁маданиятты	-11.5359
▁өчүрүүчү	-11.5365
▁эшигин	-11.5368
▁Эксперт	-11.5368
▁Тайванды	-11.5369
фил	-11.537
▁бата	-11.5371
▁330	-11.5371
▁китепке	-11.5371
▁сураса	-11.5374
▁өзгөрүүсү	-11.5376
▁кышын	-11.5376
▁Космос	-11.5379
▁аэродром	-11.5379
Елизавета	-11.5379
▁Анжиян	-11.5379
▁Бейшемби	-11.5379
▁Гурбан	-11.5379
▁Калифорния	-11.5379
▁Ростов	-11.5379
▁бассейн	-11.5379
▁гепатит	-11.5379
▁көкбөрү	-11.5379
▁опурталдуу	-11.5379
▁оркестр	-11.5379
▁православ	-11.5379
▁стресс	-11.5379
▁телеграм	-11.5379
▁чөнтөк	-11.5379
▁Кошумча	-11.5379
▁жетектөө	-11.5379
▁интеллигенция	-11.5379
▁мылтык	-11.5379
▁Оторбаев	-11.5379
▁кесүү	-11.5379
▁жөтөл	-11.5379
▁казган	-11.5379
▁бербесе	-11.538
▁түртүп	-11.538
▁1,2	-11.5381
▁сөөктү	-11.5381
▁куда	-11.5382
▁Өмүралиев	-11.5382
▁лүктү	-11.5383
▁сүйлөй	-11.5384
▁баракчаларын	-11.5384
▁5,5	-11.5385
▁кеңейт	-11.5389
▁бурмаланган	-11.5392
▁деми	-11.5397
ёв	-11.5398
▁облустарда	-11.54
▁топтогу	-11.54
▁досум	-11.5401
▁Тек	-11.5404
▁Колдо	-11.5404
▁Айта	-11.5405
▁төмөндөгү	-11.5406
▁ип	-11.5408
▁каарманды	-11.5411
▁жүрүүчү	-11.5411
▁спортчуларды	-11.5413
▁медиктер	-11.5413
▁жумушчулары	-11.5414
▁күнөөнү	-11.5417
▁чакырымды	-11.5421
▁t	-11.5423
жылдарда	-11.5424
st	-11.5425
▁бөлүк	-11.543
un	-11.5431
▁тактика	-11.5431
зоок	-11.5432
Чыгыш	-11.5434
Z	-11.5434
укуктук	-11.5434
▁сыйлыктар	-11.5435
▁ырлар	-11.5438
▁автономиясы	-11.5439
▁Жерди	-11.5443
▁Аспеков	-11.5446
▁көрүлгөн	-11.5448
▁насыяны	-11.5452
▁Жаман	-11.5453
▁кирешени	-11.5453
▁ичүү	-11.5453
▁театрды	-11.5453
▁жараш	-11.5455
▁майрамын	-11.5455
▁кризиси	-11.5457
▁Мах	-11.5457
рал	-11.5459
▁пыз	-11.5459
ындай	-11.5463
▁клубдар	-11.5464
▁ңизди	-11.5465
▁которулганы	-11.5471
▁окуяларында	-11.5471
▁жөнөткөнү	-11.5475
▁эмнелер	-11.5475
▁которуш	-11.5476
▁мам	-11.548
▁кабинетине	-11.5481
▁банктарда	-11.5488
▁кылымдарда	-11.5489
▁Касп	-11.549
▁илбирс	-11.5491
алаң	-11.5492
▁байла	-11.5493
▁жээги	-11.5493
чулардын	-11.5493
▁жогот	-11.5495
▁зордуктаган	-11.5501
▁дубал	-11.5504
▁каттай	-11.5506
▁кагылышы	-11.5506
▁жазылганы	-11.5506
▁иштегендерди	-11.5511
▁ныкы	-11.5511
47	-11.5512
▁жомок	-11.5514
дыргыч	-11.5515
▁жүгүртүүнү	-11.5516
▁нур	-11.5516
▁маңдай	-11.5517
▁Авдеевка	-11.552
▁Мамдума	-11.552
▁Мурзахалилов	-11.552
▁Стратегия	-11.552
▁ЮНЕСКО	-11.552
▁ремонт	-11.552
▁далаалат	-11.552
▁жугуп	-11.552
▁орноткон	-11.552
▁соттолду	-11.552
▁Йенс	-11.552
▁Балтабай	-11.552
▁алаамат	-11.552
▁талкаланды	-11.552
▁жүргүзүлүүдө	-11.552
▁Марокко	-11.552
ганыч	-11.5521
▁Мунар	-11.5521
▁1,6	-11.5521
▁импорту	-11.5521
▁1,7	-11.5521
▁тышта	-11.5521
▁эвакуацияланган	-11.5522
▁бөлүндү	-11.5522
▁Жозе	-11.5522
▁алданып	-11.5522
▁кайтарылганы	-11.5523
▁Ё	-11.5523
▁байырлаган	-11.5524
▁түптөгөн	-11.5525
▁программаларын	-11.5525
▁талкуулай	-11.5525
▁мажбурлоо	-11.5527
▁Акрам	-11.5528
▁сыйлоо	-11.5529
▁каалабай	-11.5529
▁тапшыр	-11.5531
▁топтому	-11.5532
▁чакырам	-11.5532
▁кылалы	-11.5532
▁көтөрүлөт	-11.5532
▁кыргыздары	-11.5534
▁Оорукана	-11.5535
▁болчумун	-11.5536
▁заманында	-11.5536
фр	-11.5538
▁Мектептер	-11.5539
урмат	-11.5542
▁мөңгүлөрдү	-11.5543
▁жумшалган	-11.5544
▁токтоло	-11.5545
▁кетүүдө	-11.555
▁утуш	-11.5553
▁арыздар	-11.5556
▁Бас	-11.5556
▁Кыргыздар	-11.5558
▁куралган	-11.556
▁жыйнагы	-11.5561
▁үстөмдүгү	-11.5564
▁атканы	-11.5565
▁ТВ	-11.5567
▁мурастар	-11.5568
▁аңгемеси	-11.5568
▁но	-11.5569
▁орнош	-11.557
▁тыңчы	-11.5571
сезими	-11.5574
▁жылдызы	-11.5575
▁аныктал	-11.5576
Айыл	-11.5578
▁жарат	-11.5579
▁акындарды	-11.558
▁жасаганы	-11.5583
▁империясы	-11.5583
▁кыйрат	-11.5583
Жаш	-11.5586
▁улантыш	-11.5586
▁санкциялары	-11.5587
▁бутуна	-11.5591
▁элчиликтер	-11.5591
Өтө	-11.5596
▁өкүлүнө	-11.5602
▁коюла	-11.5604
▁канды	-11.5605
▁ойлоду	-11.5605
▁үйрө	-11.5607
▁түйүндөрү	-11.5608
▁Дав	-11.5614
▁катка	-11.5615
рус	-11.5616
▁сүйлөштүк	-11.5616
▁жумганы	-11.5618
▁Пашинянды	-11.5619
▁техниканы	-11.562
▁которуулар	-11.5622
▁металлдар	-11.5623
▁жоготуулары	-11.5623
▁картасы	-11.5624
сир	-11.5625
таж	-11.5628
▁кемчилик	-11.563
▁чачыра	-11.5633
▁Сербияны	-11.5637
▁башкасы	-11.5637
▁тамакты	-11.5639
ух	-11.564
▁изилден	-11.5642
▁майданы	-11.5642
▁кубаты	-11.5642
▁ашырууда	-11.5644
▁Кызым	-11.5645
▁Мүмкүн	-11.5648
▁бөгөттө	-11.5649
▁Брюссел	-11.5654
зода	-11.5655
▁басмырлоо	-11.5655
▁донор	-11.5658
▁1...6,	-11.5659
чиев	-11.5659
▁Карабаев	-11.5663
▁Жетекчи	-11.5663
▁Хорог	-11.5663
▁тапанча	-11.5663
▁эксперимент	-11.5663
Свобода	-11.5663
▁Салтанат	-11.5663
▁гвардия	-11.5663
▁келбесе	-11.5663
▁мемориал	-11.5663
▁суверендүү	-11.5663
▁шылдың	-11.5663
▁эмоция	-11.5663
▁татыган	-11.5663
▁врач	-11.5663
▁ыйман	-11.5663
▁куттуктап	-11.5663
▁кеңешип	-11.5663
▁мээрим	-11.5663
▁кайтпай	-11.5663
▁кыскартылган	-11.5663
▁жыгач	-11.5664
▁1,3	-11.5664
▁бүтпөй	-11.5665
▁бекемдеп	-11.5666
▁Калгандары	-11.5666
▁төмөндөгөн	-11.5667
▁отурбай	-11.5668
▁мартты	-11.5668
▁аңдап	-11.5669
▁Ливанда	-11.567
▁отуруу	-11.5673
▁Саб	-11.5674
тияр	-11.5675
▁тапшырыл	-11.5675
▁өстүр	-11.5675
▁кылсак	-11.5675
ышыптыр	-11.5675
▁Мамбеталиев	-11.5677
▁медианы	-11.5677
▁калаба	-11.5677
▁кыя	-11.5678
▁коркпой	-11.5681
▁ишенимди	-11.5683
▁мэрди	-11.5685
▁салышууда	-11.5685
▁көбөйт	-11.5686
▁алганбыз	-11.5688
▁музыкант	-11.5688
▁жазса	-11.5689
▁уулум	-11.569
▁сүйлө	-11.5692
ное	-11.5692
▁Мекенди	-11.5693
ba	-11.5693
лог	-11.5694
▁жасаганын	-11.5695
▁рыногуна	-11.5696
▁түнө	-11.5697
▁эгемендикти	-11.57
▁үлгүсү	-11.5701
шкин	-11.5702
▁Жолдошбек	-11.5704
▁милдеттери	-11.5707
▁ишканасында	-11.5709
▁мекендештери	-11.571
▁санына	-11.5711
▁лукту	-11.5712
▁жеңүү	-11.5714
▁илин	-11.5716
▁аткарат	-11.5718
▁операторлор	-11.5718
▁кийлигиш	-11.5719
▁салгандар	-11.5719
▁жашына	-11.5721
ia	-11.5722
▁сайып	-11.5724
▁экспертизаны	-11.5725
▁айланасын	-11.5725
▁караштары	-11.5725
▁делегаттар	-11.5725
▁уюш	-11.5731
▁ачканы	-11.5731
▁(+2	-11.5732
▁чыгармалар	-11.5736
▁чакырылыш	-11.5737
▁Уулум	-11.5738
▁талкала	-11.5738
▁күчтү	-11.5739
▁иштешип	-11.574
▁Жумагулов	-11.5741
▁Хоп	-11.5744
▁зым	-11.5744
▁Калганы	-11.5744
▁жаратыш	-11.5745
▁баракчалар	-11.5746
▁оогандык	-11.5747
▁келишпестиктер	-11.5748
▁зода	-11.575
▁кыйкыр	-11.5753
▁чакырыл	-11.5757
▁этно	-11.5759
▁чок	-11.576
▁аралында	-11.5761
▁тей	-11.5764
сымал	-11.5765
▁жарды	-11.5767
▁аткарышы	-11.5771
▁январында	-11.5772
▁Ник	-11.5774
▁Аялы	-11.5775
▁тариф	-11.5775
▁бакчаларды	-11.5779
▁тобокелдиктер	-11.578
▁калайык	-11.5781
▁колдонушу	-11.5784
ох	-11.5785
класста	-11.5787
▁тебеле	-11.5787
▁Кумтөрдө	-11.5788
▁тизмени	-11.5791
▁жайып	-11.5794
▁Дуб	-11.5796
▁митингдерди	-11.5801
▁тоосу	-11.5803
▁кетир	-11.5803
▁бирибиз	-11.5804
ыбызда	-11.5804
▁Актөбө	-11.5808
▁Кыймыл	-11.5808
▁Сурамжылоо	-11.5808
▁күмбөз	-11.5808
▁турукташтыруу	-11.5808
▁Жалгыз	-11.5808
▁кызамык	-11.5808
▁баамында	-11.5808
▁Жардам	-11.5808
▁Музыка	-11.5808
▁тараза	-11.5808
▁жайгаштырылган	-11.5808
▁колдонулушу	-11.5808
▁көрсөтпөй	-11.5808
Замандаш	-11.5808
▁киргизгени	-11.5808
▁таркатуу	-11.5808
▁Абиров	-11.5808
▁Наргиз	-11.5809
▁келгем	-11.5809
▁созулуп	-11.5809
▁1,8	-11.5809
▁төлөнгөн	-11.5809
▁баяндап	-11.581
▁Никит	-11.581
▁Жөн	-11.581
▁Серепчилер	-11.581
▁таажы	-11.581
▁бааланып	-11.581
▁ЕККУну	-11.5811
▁кайык	-11.5813
▁умтулган	-11.5813
▁агызып	-11.5813
өчмөндөр	-11.5814
▁түзүмү	-11.5814
▁сүттү	-11.5815
▁дайын	-11.5815
▁1,4	-11.5815
▁чех	-11.5816
▁өсүүдө	-11.5816
▁айрылган	-11.5816
▁Ел	-11.5818
Сорос	-11.5819
▁делегациялары	-11.582
▁Төө	-11.582
▁туусу	-11.582
▁Апасы	-11.5824
▁соттошу	-11.5826
▁тендерди	-11.5826
▁торду	-11.5827
▁өс	-11.5828
▁державалар	-11.5831
▁билдире	-11.5831
тикелей	-11.5834
▁тилкат	-11.5834
▁токтойт	-11.5835
бина	-11.5836
▁алкоголду	-11.5836
▁Азат	-11.5838
▁узартыл	-11.5838
▁куур	-11.584
▁дүйнөсүндө	-11.5841
▁бериңиз	-11.5842
▁айтчу	-11.5842
▁конуштар	-11.5843
▁колдорун	-11.5847
▁атышууда	-11.5849
▁барышат	-11.5852
▁кампаниясы	-11.5854
▁калбашы	-11.5854
▁ңөр	-11.5855
▁сакталышын	-11.5856
▁мүчөлүк	-11.5858
лашкан	-11.586
▁Оң	-11.5862
▁юристи	-11.5864
▁жөнөтүл	-11.5865
▁Ишкерлер	-11.5865
▁Перс	-11.5869
▁жарандыгына	-11.587
вор	-11.5871
▁макалада	-11.5872
▁мек	-11.5873
▁тамактан	-11.5875
▁темасын	-11.5882
▁2020	-11.5883
▁мекенинде	-11.5883
▁изин	-11.5884
▁тергеп	-11.5886
▁таштай	-11.5895
▁Жыргалбек	-11.5895
▁батирлерди	-11.5896
▁жараяндар	-11.5897
▁жетишкендиктери	-11.5899
кысы	-11.59
▁калууну	-11.59
▁Саммит	-11.5904
▁бардым	-11.5905
▁кылганда	-11.5906
▁ачыш	-11.5907
▁корко	-11.591
▁пайдубалы	-11.5911
▁каалоо	-11.5917
▁узартылган	-11.5924
▁сарпта	-11.5925
▁блогу	-11.5929
▁коңшулары	-11.593
▁сынагын	-11.593
▁архивди	-11.5936
тигине	-11.5936
▁желек	-11.5937
▁фа	-11.5943
▁жугузган	-11.5944
▁жарыяланганы	-11.5944
▁версиясын	-11.5947
▁меш	-11.5947
▁адамдарына	-11.5949
▁козу	-11.5951
пикири	-11.5952
▁аныкталганы	-11.5954
putnik	-11.5955
Озодлик	-11.5955
▁Босния	-11.5955
▁Константин	-11.5955
▁Чотонов	-11.5955
▁милдеттендирген	-11.5955
▁оорлошу	-11.5955
▁төмөндөдү	-11.5955
▁монгол	-11.5955
▁Кесипт	-11.5955
▁жосун	-11.5955
▁кемчилиги	-11.5955
▁конкурс	-11.5955
▁салынары	-11.5955
▁ачканда	-11.5955
▁Рахат	-11.5955
▁орозо	-11.5955
▁ойлойсуз	-11.5956
▁2,3	-11.5956
▁которул	-11.5956
▁in	-11.5956
▁Элмир	-11.5956
▁карьер	-11.5957
▁колдонсо	-11.5958
▁муктаждыгы	-11.5958
▁батпай	-11.5958
▁өзгөрттү	-11.5958
▁кыргызстандыкты	-11.5959
▁машыктыруучусу	-11.596
▁тарифтер	-11.596
▁Сеул	-11.5961
▁колдоону	-11.5961
▁туралы	-11.5963
▁чакырылды	-11.5963
▁ректору	-11.5964
▁мекемеде	-11.5965
▁Калыс	-11.5965
▁күзгү	-11.5965
▁Сали	-11.5965
▁бириккен	-11.5967
▁дронду	-11.5968
▁түшүр	-11.5969
▁иттер	-11.597
▁Вакцина	-11.597
▁базарларды	-11.597
▁күчөйт	-11.597
▁Бат	-11.5972
▁айыптоодо	-11.5975
▁өзүңдү	-11.5975
▁күйөөм	-11.5975
▁ырастоо	-11.5976
▁Турд	-11.5977
▁кездеме	-11.5978
▁сериал	-11.5979
▁кагаздар	-11.598
▁командалар	-11.5984
▁Тасма	-11.5987
▁Мас	-11.5988
▁био	-11.599
▁кетпейт	-11.5991
29	-11.5992
▁каналдын	-11.5992
▁көрсөткүчтө	-11.5994
▁мейкиндигин	-11.5994
улуусу	-11.5995
▁токтотулганы	-11.5997
▁мамлекеттерине	-11.5997
▁келишип	-11.5999
▁банкына	-11.6001
▁бурул	-11.6002
▁жетишкендиктер	-11.6003
лдуу	-11.6003
▁түшүндүрө	-11.6006
▁буудайды	-11.6008
▁тигип	-11.601
гулы	-11.6011
▁106	-11.6015
▁кылчу	-11.6016
▁уру	-11.6017
жоболор	-11.6018
Америка	-11.6018
▁кылары	-11.6019
▁мигрантты	-11.6022
агымсыз	-11.6026
▁кызымды	-11.6028
▁Мамай	-11.6032
▁отставкасын	-11.6034
▁атпай	-11.6036
▁коно	-11.6037
▁өрттө	-11.6038
▁жумшак	-11.6039
▁дареги	-11.6041
▁Мектепте	-11.6043
гүсү	-11.6043
▁каарманы	-11.6048
▁f	-11.6052
▁өндүрүүчү	-11.6052
▁тынчсыздандыр	-11.6053
▁маңызы	-11.6054
▁тың	-11.6054
▁жаттык	-11.6057
▁катышууну	-11.6058
▁инвестицияларды	-11.6058
дуулугу	-11.606
▁Пенс	-11.6062
уругу	-11.6066
▁проблема	-11.6079
▁держава	-11.608
▁номур	-11.6082
▁бербегени	-11.6082
▁Бангладеш	-11.609
Авто	-11.6093
▁жөндөм	-11.6096
▁күйөрмандар	-11.6098
▁жайгаштырган	-11.6098
АК	-11.6101
▁Кенже	-11.6102
▁тынчсыздан	-11.6103
▁при	-11.6103
▁секелек	-11.6104
▁11...16	-11.6104
▁Post	-11.6104
▁Абдыжапар	-11.6104
▁Днепр	-11.6104
▁Зулпукаров	-11.6104
▁Карамушкина	-11.6104
▁Мустаф	-11.6104
▁айыпташкан	-11.6104
▁ветеринар	-11.6104
▁структура	-11.6104
▁Университет	-11.6104
▁баяндаган	-11.6104
▁1930-	-11.6104
▁Горьк	-11.6104
▁Дем	-11.6104
▁жашырын	-11.6104
▁туруктуулугун	-11.6104
▁кептелген	-11.6105
▁VII	-11.6105
▁Васил	-11.6105
▁ажыратып	-11.6105
▁натыйжалуулугу	-11.6105
▁кыйрап	-11.6106
▁Жороев	-11.6106
▁кабарланып	-11.6107
▁бошотту	-11.6107
▁Жамил	-11.6107
▁мураскер	-11.6107
▁теке	-11.6108
▁айыптоочу	-11.6108
▁кайрылышты	-11.6108
▁лауреаты	-11.6109
▁куюу	-11.6109
▁товарлары	-11.6109
▁кыймылдар	-11.611
▁Каршы	-11.611
▁ыргытып	-11.6111
▁бийликтегилер	-11.6111
▁Заман	-11.6111
▁көрүлөт	-11.6111
▁чочулоо	-11.6112
▁баалануу	-11.6115
чүмүн	-11.6116
▁шайланат	-11.6116
▁академик	-11.6118
▁чогулта	-11.6118
▁адистиги	-11.612
▁салбай	-11.6122
▁трансформация	-11.6122
▁туруму	-11.6123
▁жукканы	-11.6124
▁адаттагыда	-11.6125
▁отурам	-11.6128
▁кенде	-11.613
ot	-11.6131
Сен	-11.6133
▁Таза	-11.6134
▁тарбиялап	-11.6135
▁душманды	-11.6137
▁пу	-11.6137
▁иликтөөлөрдү	-11.614
▁жагдайлары	-11.6141
ce	-11.6149
▁кайрылууну	-11.615
▁тилдеринде	-11.6151
▁мусулмандары	-11.6154
▁бөлүн	-11.6156
▁Жашы	-11.6157
▁округунда	-11.6159
▁Саат	-11.616
▁кайры	-11.6162
▁Деги	-11.6164
▁беген	-11.6167
▁негиздери	-11.6168
өнгөн	-11.6168
Ц	-11.6169
▁салгылаш	-11.617
▁аракетти	-11.6173
▁a	-11.6173
▁окуучуну	-11.6174
жашыруу	-11.6177
▁эңсе	-11.6178
▁эко	-11.618
▁калышына	-11.618
цкий	-11.6181
▁албоо	-11.6184
▁жайылуу	-11.6186
▁Ma	-11.619
▁отурганда	-11.6196
▁жөрөлгө	-11.6196
[...]
