<unk>	0
<s>	0
</s>	0
н	-3.13386
.	-3.20883
,	-3.82761
▁"	-4.50766
га	-4.51896
▁	-4.52412
▁,	-4.68249
-	-4.80983
▁менен	-4.96147
▁жана	-5.08396
нын	-5.12563
к	-5.16473
"	-5.23925
▁да	-5.3396
ка	-5.48075
а	-5.54821
гы	-5.5992
▁-	-5.609
▁бир	-5.61184
▁деп	-5.68545
м	-5.71138
т	-5.71157
п	-5.71982
да	-5.7348
▁эле	-5.76867
ы	-5.8085
ге	-5.837
и	-5.83957
й	-5.89615
▁боюнча	-5.90256
на	-5.94223
гө	-5.99029
р	-6.02976
лык	-6.03055
▁үчүн	-6.04438
▁бул	-6.05561
го	-6.10485
нин	-6.12952
▁Ал	-6.14134
▁ал	-6.17195
ке	-6.21065
▁.	-6.22371
▁Бул	-6.22759
▁аны	-6.23107
▁бар	-6.2854
▁болуп	-6.29703
▁деген	-6.33125
▁дагы	-6.34161
▁жок	-6.34429
ку	-6.37604
ын	-6.37936
▁тууралуу	-6.38453
▁болгон	-6.39646
у	-6.40006
▁н	-6.41931
дан	-6.42708
л	-6.4467
▁керек	-6.47075
дын	-6.47452
▁чейин	-6.48035
▁жатат	-6.49138
нун	-6.49984
▁эмес	-6.50495
ды	-6.51327
▁алып	-6.55865
▁кийин	-6.60303
▁(	-6.62933
▁эки	-6.63305
де	-6.65399
жылы	-6.68751
та	-6.71475
▁же	-6.76141
с	-6.7719
дин	-6.77512
▁адам	-6.77516
▁Бирок	-6.78181
▁маалымат	-6.79456
ты	-6.79891
ги	-6.80319
▁билдирди	-6.80992
дагы	-6.81025
▁көп	-6.83399
▁экенин	-6.83738
ов	-6.84407
▁каршы	-6.85252
▁башка	-6.86128
:	-6.86185
лар	-6.86301
▁а	-6.87508
тар	-6.88013
бек	-6.89007
▁турган	-6.89284
)	-6.90001
з	-6.9086
ш	-6.90949
уу	-6.91163
▁жаткан	-6.92389
▁болду	-6.95679
?	-6.95724
ди	-6.96516
▁эл	-6.96726
▁өз	-6.97221
▁кандай	-6.97506
▁бери	-6.99018
▁ар	-7.00946
▁мамлекеттик	-7.01099
▁жаңы	-7.01894
ына	-7.02026
▁Кыргызстан	-7.02114
▁Кыргызстанда	-7.02284
▁иш	-7.02452
дар	-7.02548
ко	-7.04532
сы	-7.04835
▁алган	-7.05066
туу	-7.05548
▁болот	-7.06534
▁эми	-7.06578
▁гана	-7.07483
ду	-7.07751
ң	-7.07919
▁чек	-7.08348
▁келген	-7.0969
е	-7.09729
▁Орусия	-7.11489
▁сөз	-7.11936
ин	-7.1212
нүн	-7.13113
▁киши	-7.13165
▁Кыргызстанды	-7.1317
▁кол	-7.13299
чу	-7.14998
ү	-7.15344
▁байланыштуу	-7.15551
▁катары	-7.15625
▁аралык	-7.16485
▁айтып	-7.16587
▁А	-7.16791
▁жатканын	-7.16974
▁миң	-7.17118
▁Аны	-7.17489
ат	-7.20535
не	-7.21169
▁биз	-7.21413
үн	-7.2151
дө	-7.21909
▁жолу	-7.22046
ып	-7.22049
▁к	-7.22366
▁кабыл	-7.23005
▁болсо	-7.24041
▁иштер	-7.24287
▁аларды	-7.2435
ти	-7.24837
▁кыргыз	-7.26556
кы	-7.26973
▁мыйзам	-7.27515
▁шайлоо	-7.28853
дун	-7.2913
о	-7.29166
▁кызматы	-7.29504
▁га	-7.29702
ну	-7.3
▁министрлиги	-7.30048
▁үй	-7.30438
▁Жогор	-7.30508
са	-7.31663
▁кайра	-7.32606
▁президент	-7.32613
▁мүмкүн	-7.33519
▁бу	-7.33698
▁деди	-7.34034
ма	-7.34048
▁алар	-7.34434
▁жол	-7.3457
▁:	-7.34881
тан	-7.35654
▁учурда	-7.35752
▁чет	-7.35772
▁Анда	-7.3584
▁жыл	-7.35911
ө	-7.36976
▁бири	-7.38638
▁ошол	-7.39379
▁баш	-7.39545
▁Орусияны	-7.39928
бай	-7.40403
▁берүү	-7.40404
",	-7.40493
▁сот	-7.41289
▁мурдагы	-7.41444
ча	-7.41872
ны	-7.42284
ер	-7.42558
▁м	-7.42862
д	-7.42902
▁ылайык	-7.4301
▁анда	-7.43386
до	-7.43517
▁берген	-7.43909
▁эч	-7.43946
▁айтты	-7.43973
тер	-7.44018
▁алды	-7.441
дык	-7.44405
▁чыккан	-7.45698
▁калган	-7.45943
▁үч	-7.46557
кө	-7.46607
нда	-7.47702
▁Бу	-7.48161
▁ара	-7.48189
▁өлкө	-7.48414
▁алуу	-7.4963
▁Жапаров	-7.50051
ь	-7.50264
▁улам	-7.50288
▁ка	-7.50865
ри	-7.50993
▁Алар	-7.51454
▁чыгып	-7.51458
▁азыр	-7.51632
луу	-7.52247
▁көз	-7.5248
ра	-7.5256
инин	-7.52659
▁ичинде	-7.53199
б	-7.53677
▁ушул	-7.54013
▁жардам	-7.54534
▁президенти	-7.54573
▁билдирген	-7.55448
▁Бишкек	-7.55473
▁бирок	-7.55727
▁экен	-7.57087
▁жакшы	-7.57303
▁Украина	-7.57467
▁Биз	-7.57479
▁өткөн	-7.57502
▁келет	-7.57516
▁күн	-7.57688
▁караганда	-7.57834
ларды	-7.58783
%	-7.58925
▁жерде	-7.59009
▁жооп	-7.59092
су	-7.5989
▁чоң	-7.5997
▁мындай	-7.60104
▁саясий	-7.60113
ту	-7.60125
▁сом	-7.60301
▁каза	-7.61321
▁К	-7.61581
▁т	-7.61966
▁орун	-7.62125
▁кылмыш	-7.6254
ла	-7.62577
▁бийлик	-7.62792
▁Ош	-7.6298
▁орус	-7.6349
▁аркылуу	-7.63694
▁элек	-7.6431
гү	-7.64625
те	-7.65107
▁ага	-7.65179
лары	-7.65311
▁турат	-7.65543
тын	-7.65676
▁дин	-7.65702
▁шаарында	-7.66466
▁соң	-7.66582
гу	-7.6667
▁биринчи	-7.66821
си	-7.67226
▁нече	-7.67712
тү	-7.68005
▁келип	-7.68155
▁эң	-7.68665
дү	-7.68696
▁жөнүндө	-7.69113
▁расмий	-7.69463
ч	-7.69777
▁коргоо	-7.70041
▁иши	-7.70202
▁Садыр	-7.70395
Азаттык	-7.704
▁АКШ	-7.70664
▁кеткен	-7.70867
▁акча	-7.71413
▁коронавирус	-7.71888
жылды	-7.71907
тин	-7.72217
▁күнү	-7.72417
▁суу	-7.72463
быз	-7.72632
2	-7.72856
▁айткан	-7.72985
▁өлкөнү	-7.73014
▁арасында	-7.73028
▁талап	-7.7341
▁өзү	-7.73453
▁атайы	-7.73555
нан	-7.7358
▁кылып	-7.73667
▁өлкөдө	-7.73683
ден	-7.73792
▁С	-7.7384
г	-7.74128
▁иштеп	-7.7446
▁берип	-7.74539
▁калды	-7.74859
▁турганын	-7.75355
▁башчысы	-7.7551
▁коопсуздук	-7.75676
ба	-7.75743
▁миллион	-7.75753
▁министри	-7.75791
▁Бишкекте	-7.75839
▁деле	-7.76208
дай	-7.76364
▁Мен	-7.76426
▁саны	-7.77008
▁бизди	-7.77021
дөгү	-7.77609
▁жакын	-7.77765
▁жалпы	-7.78078
▁ы	-7.7875
▁туура	-7.78771
1	-7.79076
▁дүйнө	-7.79143
▁у	-7.79213
▁ачык	-7.7991
лер	-7.79994
▁Ма	-7.8011
▁Ошондо	-7.81454
▁айрым	-7.81579
нү	-7.81657
▁берди	-7.81685
▁Аларды	-7.81865
я	-7.82255
▁Ошол	-7.82697
ев	-7.82817
▁мамлекет	-7.83697
▁бардык	-7.83833
ип	-7.83932
▁Улутту	-7.83974
▁и	-7.84673
лүк	-7.84773
▁курал	-7.84834
ия	-7.85222
▁ишке	-7.85384
▁болчу	-7.86215
▁төрагасы	-7.86937
▁сактоо	-7.87165
▁өкмөт	-7.87787
нө	-7.87991
▁күч	-7.88192
лик	-7.88308
▁доллар	-7.88841
▁Кыргыз	-7.8891
▁Бир	-7.8894
ине	-7.89108
▁аз	-7.89271
чү	-7.89668
▁жер	-7.8975
▁адамдар	-7.89858
▁Эл	-7.90046
дуу	-7.90242
▁бала	-7.90258
▁катар	-7.90373
▁болушу	-7.90649
▁социалдык	-7.90991
▁өтө	-7.91066
▁кызмат	-7.91218
▁Азыр	-7.91472
▁басма	-7.91862
▁жатышат	-7.91953
ли	-7.92763
0	-7.92908
йт	-7.93041
▁оор	-7.93141
▁жаштагы	-7.93324
▁айтымында	-7.93451
▁мурда	-7.93818
5	-7.94408
▁20	-7.9442
дарды	-7.94489
▁10	-7.94591
ар	-7.94691
баев	-7.94908
ында	-7.95063
▁ге	-7.95347
▁албай	-7.9584
дер	-7.96133
түү	-7.96221
▁баары	-7.96242
▁жергиликтүү	-7.96337
▁бийлиги	-7.96668
▁кылган	-7.96838
сын	-7.96899
▁алдында	-7.96973
▁беш	-7.97002
▁аракет	-7.97491
дик	-7.97721
▁так	-7.978
▁ата	-7.98231
А	-7.98441
▁айында	-7.9917
▁О	-7.99558
▁)	-7.99575
▁толук	-7.99689
▁топ	-7.99765
ун	-7.9983
▁1	-8.00144
▁өтүп	-8.00363
тык	-8.01018
К	-8.01048
▁добуш	-8.01178
октябрда	-8.0118
дөн	-8.01383
▁белгилүү	-8.01456
▁эмне	-8.0157
▁алынган	-8.01814
ю	-8.02037
▁маселе	-8.0212
▁Кеңешти	-8.02344
ор	-8.02626
▁Орусияда	-8.02635
▁Б	-8.02636
3	-8.03498
се	-8.03871
▁ай	-8.03873
▁ким	-8.04808
▁Са	-8.05034
▁Азия	-8.0507
▁уулу	-8.05579
▁ди	-8.05934
▁аскердик	-8.05994
▁айып	-8.06055
▁Европа	-8.06071
▁Кытай	-8.06099
▁укук	-8.06116
үү	-8.06281
чы	-8.06527
ал	-8.06608
▁облусунда	-8.07283
▁жатканы	-8.08048
▁У	-8.08087
▁барып	-8.08107
▁төрт	-8.08533
▁та	-8.09167
▁чыкты	-8.09328
▁карат	-8.09424
▁дан	-8.09591
▁аталган	-8.09645
▁кезде	-8.09681
▁Мында	-8.09775
▁тергөө	-8.09794
▁жүрүп	-8.09865
ле	-8.09875
▁жылдан	-8.09973
▁карап	-8.10034
мартта	-8.10577
▁сыяктуу	-8.10611
▁өкүлдөрү	-8.10614
▁тартып	-8.1109
▁облусу	-8.11322
▁басары	-8.11413
▁ашык	-8.1142
▁районду	-8.11453
▁коомдук	-8.12124
▁мен	-8.12447
Абад	-8.12641
▁электр	-8.12683
х	-8.12767
ц	-8.12925
▁Ка	-8.12995
▁жүргөн	-8.13061
▁ортосунда	-8.13191
▁өкүлү	-8.13402
▁башкы	-8.13425
▁го	-8.1352
инде	-8.13617
▁Москва	-8.13643
▁Ага	-8.13651
ман	-8.13665
▁тарап	-8.13821
тары	-8.14083
би	-8.14484
▁болгонун	-8.14777
▁ала	-8.15223
▁жаш	-8.15404
▁2	-8.15532
▁өзгөчө	-8.16268
▁млн	-8.16419
лган	-8.16437
7	-8.16634
▁баштаган	-8.16736
▁Украинаны	-8.16835
▁Казакстан	-8.17261
▁бай	-8.17471
▁жетекчиси	-8.17522
тик	-8.17636
▁сатып	-8.1775
▁ички	-8.17839
бы	-8.18112
▁мыйзамсыз	-8.18211
сыз	-8.18366
▁ат	-8.18541
ет	-8.18953
лоо	-8.18998
▁Т	-8.19294
ынча	-8.19319
▁бере	-8.19541
▁ушундай	-8.19701
▁де	-8.20215
▁Баткен	-8.20223
▁ден	-8.20918
▁улуттук	-8.20986
▁акыркы	-8.21386
4	-8.21393
▁адамды	-8.219
▁жылга	-8.22234
▁жеке	-8.22394
▁кара	-8.224
▁кыргызстандык	-8.225
▁айыл	-8.22567
▁май	-8.22659
▁ашуун	-8.22852
▁азыркы	-8.2301
тарды	-8.2305
▁келди	-8.23064
▁элди	-8.23094
▁Президент	-8.23229
▁дейт	-8.23264
сына	-8.23662
▁Ар	-8.23728
▁аба	-8.23836
▁Та	-8.24199
ро	-8.24206
▁кайсы	-8.2426
▁арада	-8.24269
▁жазды	-8.24292
ки	-8.24613
лап	-8.24665
▁окуя	-8.24801
▁балдар	-8.24864
▁партиясы	-8.24874
▁шаардык	-8.24962
▁салуу	-8.24998
▁тышкары	-8.25027
▁Ак	-8.25055
▁кызматкерлери	-8.25205
8	-8.25229
▁экени	-8.2523
ил	-8.25401
▁шаары	-8.25444
▁ды	-8.25743
ноябрда	-8.25794
▁берет	-8.25865
▁саат	-8.25893
▁1-	-8.25941
▁билим	-8.26054
▁с	-8.26117
▁жылды	-8.26299
▁Ай	-8.26512
▁19	-8.26785
▁И	-8.26888
▁милиция	-8.27266
▁Эгер	-8.27378
▁ары	-8.27464
▁ээ	-8.27497
майда	-8.27596
▁Борбор	-8.27623
▁күндүз	-8.27698
▁ошондой	-8.27998
апрелде	-8.28351
▁кетти	-8.28447
дүн	-8.28924
августта	-8.2917
▁жай	-8.29187
▁кыз	-8.29232
▁окуу	-8.29352
▁экинчи	-8.29414
июнда	-8.29486
▁белгиледи	-8.29558
▁коррупция	-8.29559
a	-8.29657
▁тыюу	-8.29662
ль	-8.29689
▁көңүл	-8.29811
дор	-8.29819
▁Кара	-8.30152
6	-8.30196
▁учурунда	-8.30201
▁айтылган	-8.30223
▁президенттик	-8.30296
▁келе	-8.30299
▁Мындай	-8.30504
▁соту	-8.30585
чи	-8.3072
▁иштери	-8.30761
январда	-8.30907
үнө	-8.31056
▁ок	-8.31098
▁уюму	-8.31229
▁Жалал	-8.31242
▁чечим	-8.3126
▁түнкүс	-8.3153
9	-8.31583
▁өзүнү	-8.31638
▁муну	-8.31656
▁тең	-8.31864
дары	-8.32199
алиев	-8.32383
e	-8.32497
▁өкмөттү	-8.32551
▁аймагында	-8.32572
дыр	-8.32693
лор	-8.33001
▁бийликти	-8.33056
ф	-8.3316
▁абал	-8.33174
тун	-8.33196
▁быйыл	-8.33287
▁ири	-8.33355
ым	-8.33654
▁экономикалык	-8.33984
▁аскер	-8.34043
▁иштеген	-8.34127
▁Анткени	-8.34137
арын	-8.34153
▁дун	-8.3418
▁эске	-8.34335
▁быз	-8.34588
▁сын	-8.34606
▁р	-8.34622
▁Нур	-8.34948
▁ишин	-8.35083
▁комитети	-8.35169
▁тар	-8.35175
сү	-8.35337
▁жатабыз	-8.35539
▁соода	-8.35605
декабрда	-8.35654
▁алты	-8.35715
ыш	-8.35789
▁жогор	-8.36313
то	-8.36319
за	-8.36444
ик	-8.36548
▁2020-	-8.36604
▁ны	-8.36921
▁согуш	-8.37002
ло	-8.37022
в	-8.37168
▁ак	-8.37237
▁30	-8.37677
▁15	-8.37734
он	-8.37787
▁тоо	-8.37865
▁канча	-8.38091
тен	-8.38266
i	-8.38358
▁Мамлекеттик	-8.38628
▁жарандык	-8.39006
▁алууга	-8.39087
▁алат	-8.39097
ре	-8.39132
▁Ысык	-8.39511
▁колдоо	-8.39529
дук	-8.3987
ай	-8.39971
▁Башкы	-8.40002
▁негизги	-8.40274
беков	-8.4037
▁болгону	-8.4071
ж	-8.40715
▁Путин	-8.40844
▁са	-8.4086
▁премьер	-8.40884
▁ду	-8.40951
▁Ошондуктан	-8.41201
▁кырдаал	-8.41266
▁берилген	-8.4152
▁Муну	-8.41637
министр	-8.41685
▁президентти	-8.41717
▁жазылган	-8.41939
▁кызматта	-8.42064
▁зарыл	-8.42201
▁жазган	-8.42234
▁пайда	-8.4235
▁тышкы	-8.42403
▁басып	-8.42416
▁депутат	-8.42445
▁11	-8.42584
▁Казакстанды	-8.42639
▁уруксат	-8.42678
▁убактыл	-8.42915
▁мында	-8.42998
▁башында	-8.43044
▁күндө	-8.4306
баган	-8.43198
▁Владимир	-8.43312
дүү	-8.43358
лан	-8.4338
▁дын	-8.43532
сентябрда	-8.43623
▁адамдарды	-8.43641
▁өкмөтү	-8.4422
▁Би	-8.44223
▁чейинки	-8.4473
▁кийинки	-8.44766
▁сайы	-8.44974
▁койгон	-8.45011
▁маанилүү	-8.45183
▁алкагында	-8.45534
▁арыз	-8.45545
▁дары	-8.46028
▁даяр	-8.46151
С	-8.46168
▁маалыматтар	-8.46183
▁жети	-8.46258
июлда	-8.46335
▁катуу	-8.46437
кен	-8.46464
тор	-8.46492
▁100	-8.46708
▁он	-8.46711
Б	-8.46745
▁баштады	-8.46995
▁өнүктүрүү	-8.47223
▁2021-	-8.47564
▁көбү	-8.4763
▁о	-8.47646
▁кар	-8.47863
▁башкармалыгы	-8.48169
биз	-8.48369
▁негизинде	-8.48534
кү	-8.48772
▁АКШны	-8.4889
▁ж	-8.48974
ыр	-8.4909
▁компаниясы	-8.49105
▁элдик	-8.49152
▁12	-8.49157
▁катчысы	-8.49199
▁3	-8.49316
o	-8.49386
▁баа	-8.49603
э	-8.49971
ва	-8.50011
▁агенттиги	-8.50106
▁миңде	-8.50333
▁Эми	-8.50437
▁ту	-8.5055
лук	-8.51059
ек	-8.51154
▁абда	-8.51325
▁тобу	-8.51473
▁алдын	-8.51512
▁п	-8.51541
лай	-8.51565
▁2022-	-8.51728
▁нааразылык	-8.51738
▁Ө	-8.51861
▁маалыматы	-8.51894
▁ке	-8.51913
▁күчтөрү	-8.52006
▁барган	-8.52035
▁долбоору	-8.52112
лат	-8.52183
шы	-8.52389
▁ты	-8.52513
өө	-8.52692
▁катышкан	-8.53049
ция	-8.5305
инен	-8.53207
▁өттү	-8.53347
▁жаза	-8.53367
бүз	-8.53561
▁?	-8.53627
февралда	-8.5376
▁Э	-8.53905
деги	-8.53942
▁нерсе	-8.54076
▁кызы	-8.54424
▁талкуу	-8.54443
▁айтылат	-8.546
▁Ушул	-8.54644
▁Чүй	-8.54743
▁кан	-8.55006
ова	-8.5509
▁прокуратура	-8.55296
▁шек	-8.55327
▁кабарлады	-8.55405
сө	-8.55643
▁50	-8.55807
▁орусиялык	-8.55835
▁камак	-8.55894
▁жайгашкан	-8.56198
▁кабар	-8.5636
▁Учурда	-8.56455
▁жарыялаган	-8.56703
▁партия	-8.56726
▁кетип	-8.56992
▁дар	-8.57126
ий	-8.57303
өт	-8.57329
шкан	-8.57656
▁су	-8.57724
▁алгачкы	-8.5781
▁сунуш	-8.57918
▁жашаган	-8.58131
▁Дүйнө	-8.5842
▁көрүп	-8.58601
▁млрд	-8.58655
▁укугу	-8.5869
терди	-8.58726
▁жылы	-8.58819
▁түшкөн	-8.58856
▁Баш	-8.58866
ак	-8.58956
▁кишини	-8.59022
▁себеп	-8.592
▁боло	-8.59428
▁Биринчи	-8.5956
ру	-8.59718
▁Да	-8.5997
▁тапта	-8.60152
▁тиешелүү	-8.60154
▁салып	-8.60202
лды	-8.60375
▁депутаты	-8.60383
▁жерге	-8.60396
▁Өзбекстан	-8.6047
▁көзөмөл	-8.60471
мо	-8.60593
▁түз	-8.60635
тардын	-8.60684
▁аял	-8.60814
▁тарабынан	-8.61255
▁салган	-8.61268
▁жарым	-8.61543
▁өлкөлөр	-8.61692
тагы	-8.61743
▁аскерлери	-8.61773
▁оору	-8.61867
▁5	-8.61916
▁өткөрүп	-8.62158
▁кызматкери	-8.62278
▁белгисиз	-8.6252
▁айына	-8.62544
-19	-8.62714
▁комментарий	-8.62783
▁миллиард	-8.62783
Көл	-8.62826
▁Нарын	-8.62881
уп	-8.63024
▁лидери	-8.63279
▁Бишкекти	-8.63489
▁ти	-8.63565
▁украин	-8.6362
▁бы	-8.63781
үл	-8.63801
▁талаш	-8.63877
▁14	-8.64127
ен	-8.64177
▁чы	-8.64362
▁видео	-8.64498
▁Казакстанда	-8.64585
ыл	-8.6465
▁кармалган	-8.64768
▁13	-8.64771
▁жан	-8.64884
▁бүгүн	-8.65037
▁Ба	-8.65231
▁суроо	-8.65475
▁жа	-8.65516
▁2019-	-8.65517
▁кеңеши	-8.65524
▁Бүгүн	-8.65561
▁жарандар	-8.65578
▁шаар	-8.65589
▁ишти	-8.65717
сынын	-8.65733
Би	-8.65909
▁Тажикстанды	-8.66153
▁шарт	-8.66276
▁кый	-8.66375
сиз	-8.66556
▁4-	-8.66636
▁Түркия	-8.66656
▁чакырды	-8.6679
үп	-8.66812
▁кабинети	-8.67016
▁жазып	-8.67062
▁жатып	-8.6712
ул	-8.67246
алы	-8.6725
▁Ж	-8.67272
▁16	-8.67428
▁оорукана	-8.67733
▁шайлоодо	-8.67868
▁районунда	-8.68079
▁УКМК	-8.6809
▁учурлар	-8.6822
▁жыйынында	-8.68247
▁түрдө	-8.68444
▁кошумча	-8.68553
▁аялдар	-8.6858
дон	-8.68635
▁ичинен	-8.68721
▁кетүү	-8.6874
▁негиз	-8.68824
▁Конституция	-8.68938
▁таасир	-8.68977
▁кирген	-8.69054
▁армиясы	-8.69064
▁парламент	-8.69118
▁Жо	-8.69141
▁чыгарып	-8.69231
▁Кеңеш	-8.69235
▁баштап	-8.69269
шты	-8.69281
▁жактан	-8.69301
▁Ичк	-8.69471
▁мамиле	-8.69475
дөй	-8.69561
тур	-8.69571
▁Бизди	-8.6963
▁былтыр	-8.69769
ме	-8.69841
▁органдары	-8.6995
▁маселеси	-8.70022
▁башкаруу	-8.70182
▁аты	-8.70191
ол	-8.70239
▁тез	-8.70351
▁келишим	-8.70426
▁дээр	-8.70446
▁Ата	-8.70689
▁комиссия	-8.70716
▁медициналык	-8.70965
▁кирип	-8.70992
▁ма	-8.71017
▁түзүлгөн	-8.71058
▁куруу	-8.71078
▁каражат	-8.71091
▁полиция	-8.71098
▁коюлган	-8.71159
▁курулуш	-8.71164
ст	-8.71202
▁баасы	-8.71387
▁Кытайды	-8.71407
▁эс	-8.71561
▁18	-8.71577
▁ин	-8.71642
▁4	-8.72103
▁17	-8.72137
▁каражаттары	-8.72283
▁журналисттер	-8.72391
▁Кылмыш	-8.72654
▁иликтөө	-8.72695
лөр	-8.72851
ха	-8.72926
▁башчы	-8.72943
сында	-8.72956
▁катталган	-8.72983
▁билдирип	-8.73063
▁на	-8.73112
▁жакта	-8.73119
▁9-	-8.73131
▁жарандары	-8.73158
▁караш	-8.73249
▁",-	-8.73251
жа	-8.73377
▁кошумчалады	-8.73448
ык	-8.7348
▁кармап	-8.73505
мат	-8.73561
▁салык	-8.73585
▁дө	-8.73599
▁республика	-8.73785
▁Украинада	-8.73887
ша	-8.73933
▁уюмдар	-8.73977
▁Эки	-8.74345
▁Жээнбеков	-8.74629
▁тартуу	-8.7483
▁маалыматты	-8.74834
▁чыгарган	-8.74844
▁Маалымат	-8.74895
▁чыгуу	-8.74903
Ата	-8.74934
▁2-	-8.74962
t	-8.74963
▁П	-8.75084
▁5-	-8.75156
▁10-	-8.75186
▁ш	-8.75327
▁мамлекетти	-8.75347
▁кыл	-8.75411
▁талапкер	-8.75449
▁колдонуу	-8.75549
▁айтканда	-8.75557
▁чыга	-8.75563
▁эмгек	-8.75629
▁кылуу	-8.75707
аш	-8.75964
▁жумуш	-8.76063
▁гы	-8.76172
▁жашоо	-8.76216
▁койду	-8.76358
▁мыйзамды	-8.7645
▁тур	-8.76539
▁күндөрү	-8.7657
ланган	-8.76604
▁7-	-8.76698
ск	-8.767
▁радиосу	-8.76773
▁М	-8.76779
▁аймакта	-8.76802
▁орто	-8.76933
▁жаран	-8.76967
▁Мисалы	-8.77029
▁кылды	-8.77082
со	-8.77141
лып	-8.77252
▁иште	-8.7744
▁кодекси	-8.77559
▁чыгаруу	-8.77745
▁банк	-8.7794
▁Жаңы	-8.78022
▁облусту	-8.78046
▁6-	-8.78074
▁жараны	-8.78091
▁ба	-8.78154
▁жогору	-8.7826
▁э	-8.78387
▁калат	-8.78507
▁өзүнө	-8.78742
▁Ха	-8.78767
▁туруп	-8.78769
▁диний	-8.78974
▁тажик	-8.79034
▁кээ	-8.79423
▁коюп	-8.79572
▁чабуул	-8.79684
▁Израил	-8.79831
▁метр	-8.79844
тай	-8.79965
▁балдарды	-8.79989
▁парламенттик	-8.80012
▁башталган	-8.80066
▁салынган	-8.80072
▁жасаган	-8.80146
тоо	-8.80471
▁туш	-8.80608
▁мүчөсү	-8.80608
▁абалы	-8.80658
▁журналист	-8.80663
▁тапкан	-8.80763
▁районуну	-8.80839
Азаттыкты	-8.80843
▁жылдары	-8.80863
▁То	-8.80964
▁таза	-8.80991
рт	-8.81039
▁болбойт	-8.81101
▁No	-8.81222
иялык	-8.81265
▁Саламаттык	-8.81334
▁сотту	-8.81337
үүдө	-8.81343
▁COVID	-8.81417
▁Быйыл	-8.81501
▁Алмаз	-8.81529
▁аттуу	-8.81757
▁саламаттык	-8.81926
▁бара	-8.82035
мак	-8.82227
▁отурган	-8.82242
▁3-	-8.82372
▁айда	-8.82446
жылдан	-8.82449
им	-8.82454
▁баарын	-8.82477
ткан	-8.82628
A	-8.82655
▁белгилеп	-8.82696
▁Анан	-8.82735
▁8-	-8.82842
▁жарыяланган	-8.82874
▁чечими	-8.82907
▁башына	-8.82939
s	-8.83132
▁камсыз	-8.8314
▁кайрылуу	-8.83228
▁өзүн	-8.83427
догу	-8.83437
▁дай	-8.83727
▁оюн	-8.83735
▁жарыялады	-8.8383
▁жүз	-8.8397
▁Жа	-8.84059
▁Өзбекстанды	-8.84103
▁ыктымал	-8.84149
▁...	-8.84212
▁бою	-8.84418
▁сы	-8.84479
▁ын	-8.84779
▁комиссиясы	-8.84811
▁убада	-8.84949
▁түзүү	-8.8497
▁алтын	-8.84983
▁убакыт	-8.85294
▁карабай	-8.85321
роо	-8.8533
▁максатында	-8.85384
дап	-8.85458
итардык	-8.85654
▁се	-8.85724
▁калып	-8.85958
▁жылда	-8.86005
▁уюм	-8.86081
лаган	-8.86178
▁күрөш	-8.86187
стан	-8.8621
▁билдирүү	-8.86227
▁Тажикстан	-8.86231
▁сырткары	-8.86368
ууда	-8.86429
Т	-8.86665
▁мектеп	-8.86776
кыр	-8.86833
сун	-8.86859
▁укуктары	-8.86953
▁борбору	-8.86974
▁сокку	-8.87001
мө	-8.87036
че	-8.87076
▁каржы	-8.87105
Ж	-8.87229
▁Тыш	-8.87392
▁тан	-8.87527
төгөн	-8.87625
d	-8.87675
▁кат	-8.87746
▁кеп	-8.87774
▁өткөрүү	-8.87824
буз	-8.87917
кулов	-8.88222
▁20-	-8.88428
▁долбоорун	-8.88479
▁айта	-8.88515
▁11-	-8.88541
▁Ке	-8.88563
ис	-8.88659
▁айылында	-8.88742
▁лар	-8.88795
▁саясат	-8.88895
▁200	-8.89133
▁байланыш	-8.89196
▁аймакты	-8.89207
тып	-8.89283
бо	-8.89403
ышы	-8.8949
▁миңдей	-8.89542
чылык	-8.89615
▁аткаруу	-8.89627
▁мүчө	-8.89751
ви	-8.89806
▁экс	-8.89869
;	-8.89929
▁бөлүгү	-8.9012
▁түшүп	-8.90178
дерди	-8.90216
▁мүчөлөрү	-8.9023
Р	-8.90402
▁Ку	-8.9051
▁казак	-8.90562
▁ишеним	-8.90662
▁ө	-8.91051
▁демократия	-8.91227
▁директору	-8.91245
тук	-8.91282
ры	-8.91299
тап	-8.9139
▁тарта	-8.91444
▁берүүнү	-8.91592
▁окуялар	-8.91756
▁Себеби	-8.92033
▁жарандарды	-8.92238
▁6	-8.92264
▁жүк	-8.92292
▁оппозиция	-8.92314
▁басым	-8.92337
▁Те	-8.92339
▁изилдөө	-8.92475
▁көрүү	-8.92606
▁25	-8.92638
▁15-	-8.92687
ир	-8.92818
лери	-8.9324
▁өзгөртүү	-8.93355
▁саясатчы	-8.93377
▁тарткан	-8.93484
▁8	-8.93686
▁те	-8.93711
▁учур	-8.93759
▁жара	-8.93853
ушу	-8.93854
▁тамак	-8.9388
▁ордуна	-8.93937
▁Чек	-8.93975
▁алганын	-8.93997
▁чарба	-8.94109
дыгы	-8.94138
▁токтотуу	-8.9425
▁Сүрөттү	-8.9442
ация	-8.94553
суз	-8.94662
▁согушка	-8.94776
▁ң	-8.94846
▁көр	-8.94921
▁маалымдады	-8.94939
▁калганын	-8.95036
▁компания	-8.95071
▁болорун	-8.95134
▁көргөн	-8.95438
▁Жапаровду	-8.95712
алдык	-8.95741
▁кабарлаган	-8.95793
▁коркунуч	-8.9591
▁Ко	-8.96022
▁көрсөтүү	-8.96098
▁ишканасы	-8.96163
▁40	-8.9622
▁албайт	-8.96278
▁Иран	-8.96328
▁бирге	-8.96333
Борбордук	-8.96517
▁24-	-8.96518
▁маалда	-8.96617
▁Батыш	-8.96728
▁жыйынтыгы	-8.9691
▁кызматына	-8.96943
▁чыр	-8.96945
▁митинг	-8.97074
▁буз	-8.97157
▁мурун	-8.97177
▁медиа	-8.9725
▁караган	-8.97287
▁Москвада	-8.97324
▁ла	-8.97327
▁Бо	-8.97335
▁ча	-8.974
▁тарапта	-8.97507
▁жоопкерчилик	-8.97547
унун	-8.97577
▁тил	-8.97677
▁Талас	-8.97704
▁25-	-8.9791
▁Ра	-8.98036
Э	-8.98104
▁шайлоону	-8.98232
▁кармалып	-8.98262
асы	-8.98283
▁качан	-8.98358
▁абакта	-8.98371
▁согушту	-8.98416
▁болбой	-8.98622
унда	-8.98776
▁жакында	-8.98983
лаш	-8.99092
▁Эр	-8.99107
00	-8.99114
▁сомдо	-8.99188
үр	-8.9923
▁30-	-8.99248
▁чектөө	-8.99265
▁түрк	-8.99351
▁жетти	-8.99361
▁ирет	-8.99384
▁Мыйзам	-8.99424
ур	-8.99532
кер	-8.99573
бүлө	-8.99599
▁ну	-8.99616
▁туруктуу	-8.99637
▁7	-8.99826
▁жакка	-8.99846
айым	-8.99848
▁нун	-8.99859
▁аймактарда	-8.99868
▁Киев	-8.99891
▁каттоо	-8.99919
▁ына	-8.99924
▁ыр	-8.99972
ит	-9.00033
▁дарды	-9.00204
▁че	-9.00204
▁документ	-9.00237
▁сегиз	-9.00276
▁тартылган	-9.00316
▁активист	-9.00355
Д	-9.00503
▁борбор	-9.00649
тери	-9.00663
▁киргизүү	-9.00701
У	-9.00835
▁тонна	-9.00897
▁18-	-9.00951
▁маселени	-9.00965
▁кыймылы	-9.01065
▁кыйын	-9.01133
үндө	-9.01223
▁жакындары	-9.01292
▁мыкты	-9.01296
ков	-9.01298
▁Се	-9.01302
▁тагы	-9.01418
▁мамлекеттер	-9.01472
▁өнөр	-9.01524
▁вирус	-9.01525
сүз	-9.01689
▁Су	-9.01816
▁Ташиев	-9.01816
▁белгиленген	-9.02021
▁операция	-9.02101
▁2023-	-9.02229
▁миграция	-9.02229
▁жараат	-9.02418
▁жылдык	-9.02439
▁коюу	-9.02445
▁сурак	-9.02447
▁28-	-9.02501
▁9	-9.02586
▁Зеленский	-9.02674
20	-9.0268
▁жаштар	-9.02726
▁аракети	-9.02758
▁балдары	-9.02835
▁келгенде	-9.02852
▁чогуу	-9.02857
▁Министр	-9.02911
▁Акылбек	-9.02962
▁жасап	-9.03164
▁кески	-9.03173
▁айтылып	-9.03277
▁мигранттар	-9.03295
▁мүмкүнчүлүк	-9.03507
▁чу	-9.03981
▁17-	-9.04079
▁депутаттар	-9.04084
▁чукул	-9.04107
чылар	-9.04217
▁Республикасы	-9.04289
▁кезекте	-9.04471
▁кармоо	-9.04549
нтип	-9.04583
▁өтөт	-9.04721
▁сый	-9.04727
▁лары	-9.04829
бу	-9.0483
▁таң	-9.04887
жи	-9.04987
▁керектигин	-9.05146
▁кызматты	-9.05308
▁24	-9.05323
▁Атамбаев	-9.05397
▁сөөгү	-9.05406
▁жашап	-9.05409
▁чара	-9.05428
дей	-9.05489
▁алынып	-9.05516
▁Трамп	-9.05528
▁Өткөн	-9.05621
▁60	-9.05707
▁эсептейт	-9.05755
▁Былтыр	-9.05837
үш	-9.05847
▁Байден	-9.0595
▁аймагына	-9.05982
▁эркин	-9.06023
▁Расмий	-9.06162
I	-9.06172
▁деңгээлде	-9.06187
▁түзгөн	-9.06482
▁макул	-9.06535
▁вице	-9.06705
▁бажы	-9.06827
▁камсыздоо	-9.06931
үшү	-9.0713
Си	-9.07186
▁сиз	-9.07337
▁долбоор	-9.07435
▁Түштүк	-9.07524
▁билдиргендей	-9.07637
▁эсе	-9.07648
▁ой	-9.07658
▁андай	-9.07707
▁14-	-9.07752
▁Азыркы	-9.07811
▁өздөрү	-9.07867
▁тараткан	-9.07912
▁алганда	-9.08067
▁жеңил	-9.08076
май	-9.0809
▁Па	-9.08093
оо	-9.08094
▁козголгон	-9.08094
▁киргизилген	-9.08132
дөр	-9.08174
▁кеңеш	-9.08334
▁фонду	-9.08507
суна	-9.08638
▁турак	-9.08639
▁жума	-9.08667
▁кайрылган	-9.08691
▁Башка	-9.08727
▁Соң	-9.08753
▁алынды	-9.08803
▁маселелер	-9.08948
▁өлкөлөрдү	-9.08952
▁газ	-9.08954
▁до	-9.0913
▁аныкталган	-9.09154
лу	-9.09226
▁азык	-9.09268
▁кете	-9.09322
▁ич	-9.09433
▁өлкөлөрү	-9.09454
▁темир	-9.09477
▁кө	-9.09486
▁12-	-9.09506
▁ишине	-9.09607
▁жаса	-9.09623
П	-9.09648
▁инвестиция	-9.09692
тажик	-9.09748
▁анан	-9.09775
мин	-9.09794
▁иштерин	-9.09829
▁дей	-9.09858
▁элге	-9.09897
y	-9.09914
▁;	-9.09983
▁жагдай	-9.10019
▁23-	-9.1002
▁жыйын	-9.10048
▁16-	-9.10054
▁уюштуруу	-9.10055
▁эркиндиги	-9.10068
▁турганы	-9.1007
▁деги	-9.10134
▁болуу	-9.10143
▁бей	-9.10167
▁Мекеме	-9.10255
ириккен	-9.10283
▁ов	-9.10358
▁2018-	-9.10482
▁америкалык	-9.10482
▁айтылды	-9.10708
▁таап	-9.10712
▁бет	-9.10745
уш	-9.10829
ус	-9.11035
▁Ооганстанда	-9.11048
▁баласы	-9.11143
▁S	-9.11178
▁Шайлоо	-9.11506
▁Өкмөт	-9.11569
▁айы	-9.11725
▁22-	-9.1185
▁сура	-9.1194
▁жасалган	-9.11993
▁Акыркы	-9.12194
▁башта	-9.12196
▁бөлүмү	-9.12221
▁бирөө	-9.12248
▁сүйлөшүү	-9.12258
▁үн	-9.1229
рып	-9.12412
▁калыбын	-9.12425
▁БУУну	-9.12483
▁чакырым	-9.12531
▁би	-9.12547
▁бизнес	-9.1257
▁коом	-9.12577
▁жүрөт	-9.12589
▁ү	-9.12603
зи	-9.12629
▁бизде	-9.12833
▁дал	-9.12978
▁зыян	-9.13036
▁коомчулук	-9.13121
▁система	-9.13129
лышы	-9.13289
▁22	-9.13346
▁Сот	-9.13363
▁Сооронба	-9.13469
▁сотто	-9.13481
▁жеткен	-9.13513
▁экономика	-9.13541
▁коңшу	-9.13585
талган	-9.13739
▁парламентти	-9.1374
▁маалыматтарды	-9.13852
▁Д	-9.13854
▁зомбулук	-9.1386
▁кабылган	-9.13977
▁Коронавирус	-9.14002
▁каралган	-9.14004
▁жаан	-9.14023
▁насыя	-9.14054
▁максаты	-9.14096
▁19-	-9.14121
!	-9.14165
ид	-9.14235
▁алганы	-9.1432
ала	-9.14349
▁80	-9.14362
▁ондогон	-9.14417
ум	-9.14417
▁көлөмү	-9.14462
▁катышты	-9.14502
▁көрүнүш	-9.14502
пай	-9.14505
▁бардыгы	-9.14622
М	-9.14664
жан	-9.14797
лүү	-9.14888
▁кайрылып	-9.14901
▁мага	-9.15025
▁кайтып	-9.15129
▁Ме	-9.15174
▁жагынан	-9.15283
▁атасы	-9.1535
кул	-9.15477
▁жөн	-9.15511
▁кабарланды	-9.1559
згөчө	-9.15623
төр	-9.15718
▁кош	-9.15825
▁дегенде	-9.15833
▁жетекчилери	-9.16031
лө	-9.16052
▁Де	-9.16104
▁кон	-9.16237
▁көпчүлүк	-9.16279
▁далил	-9.16289
▁Ф	-9.16305
▁сан	-9.16364
атындагы	-9.1641
▁жалгыз	-9.16428
▁өлкөлөрдө	-9.16444
▁соттук	-9.1648
▁көрсөтүп	-9.16548
▁27-	-9.16559
▁жүргүзүп	-9.16675
▁беренеси	-9.16694
▁кармалды	-9.16699
рган	-9.16894
▁комитет	-9.16927
▁кай	-9.17146
▁пикир	-9.17202
тыр	-9.17206
▁тогуз	-9.17394
▁Камчыбек	-9.17422
▁катышуу	-9.17437
▁Ушунда	-9.17487
▁Мар	-9.17506
Коопсуздук	-9.17518
▁алыс	-9.17568
▁жатканда	-9.17661
▁доо	-9.17709
ми	-9.17735
УКМК	-9.17784
▁чечүү	-9.18086
▁кошо	-9.18094
▁Түркияда	-9.18102
▁учак	-9.18301
▁сапары	-9.1833
▁500	-9.18437
▁вакцина	-9.1845
▁сакта	-9.18451
үнүн	-9.18638
▁ракета	-9.18685
▁кала	-9.18731
теги	-9.18732
▁пандемия	-9.18755
▁кы	-9.18782
▁менин	-9.18815
март	-9.18872
▁өтүү	-9.18878
И	-9.18885
▁түзүп	-9.19013
▁миңдеген	-9.19033
▁жаман	-9.1904
▁программасы	-9.19054
▁багытта	-9.19061
иши	-9.19094
▁ко	-9.19105
чүлөр	-9.1911
▁акция	-9.19148
▁тиешеси	-9.19229
▁б	-9.19278
▁бүт	-9.19305
жылдагы	-9.19322
▁Айрым	-9.19362
ос	-9.19365
▁70	-9.19411
беренеси	-9.19433
▁салды	-9.19546
▁катта	-9.19585
Н	-9.19613
▁тынчтык	-9.19623
тө	-9.19893
g	-9.19957
▁негизде	-9.20108
▁сынга	-9.20163
▁алыш	-9.20182
▁кыска	-9.20318
▁!	-9.20344
чара	-9.20527
p	-9.20597
чулар	-9.2077
▁ишкерлер	-9.20878
▁тургуну	-9.20886
▁мөөнөт	-9.20899
▁кеткенин	-9.21202
▁тынч	-9.21202
▁үйдө	-9.21231
▁заман	-9.21254
▁13-	-9.21275
▁шектүү	-9.21275
▁кам	-9.21339
дөгөн	-9.2135
▁дарыгерлер	-9.21357
▁түрдүү	-9.21364
▁сапар	-9.21452
▁ачуу	-9.21627
▁өрт	-9.21686
▁териштирүү	-9.21705
▁келиши	-9.21707
▁Ч	-9.21738
лөрү	-9.21814
▁миллиондо	-9.22023
▁Албетте	-9.22112
▁илим	-9.2225
k	-9.22323
▁коргонуу	-9.2238
▁сатуу	-9.22512
▁күрөшүү	-9.22716
▁мүмкүнчүлүгү	-9.22749
▁билдирүүдө	-9.22763
▁ф	-9.22931
▁өзбек	-9.22968
▁карандысыз	-9.23028
▁бузуу	-9.23064
▁На	-9.23087
▁Кийин	-9.23106
лерди	-9.2311
▁мөөнөтү	-9.23176
▁өнүгүү	-9.23262
▁олутту	-9.23393
▁белгилеген	-9.23509
▁гө	-9.23513
▁берилди	-9.23521
▁атып	-9.23555
рат	-9.2359
▁то	-9.23638
▁маалында	-9.238
▁көрсөткөн	-9.23816
▁шаарына	-9.23844
▁катышып	-9.23878
u	-9.24011
▁калса	-9.24045
▁көрсөтүлгөн	-9.24046
▁март	-9.24181
▁2017-	-9.24297
▁26-	-9.24299
▁текшерүү	-9.24308
▁мунай	-9.24323
▁сактап	-9.24397
▁болууда	-9.24455
▁толугу	-9.24565
▁21-	-9.24586
▁айлык	-9.24596
▁туруу	-9.24785
ши	-9.24793
▁транспорт	-9.24801
▁эгер	-9.24832
▁Түркияны	-9.24845
▁карантин	-9.24959
ээк	-9.24981
үнчө	-9.25007
▁Си	-9.25046
▁менчик	-9.25076
▁жолдо	-9.25102
▁21	-9.25115
▁айтууда	-9.25131
▁па	-9.25161
▁басылмасы	-9.2522
▁энергетика	-9.25224
Кыргыз	-9.2531
▁пайыз	-9.25333
▁29-	-9.25351
▁команда	-9.25363
▁облустары	-9.25385
ам	-9.25393
S	-9.25456
▁окуп	-9.25561
▁мени	-9.25684
▁0	-9.25753
▁аптада	-9.25771
▁кетиши	-9.25784
Талибан	-9.25841
▁спорт	-9.25884
▁Улут	-9.25891
▁пикирин	-9.25972
баева	-9.25983
▁90	-9.26143
▁илимий	-9.26153
ел	-9.26196
▁Орус	-9.26219
▁жыйынтыгын	-9.26255
лыгы	-9.26291
▁ий	-9.26432
▁чакырган	-9.26444
▁ашыруу	-9.26519
m	-9.26564
▁жагы	-9.26615
▁эсеп	-9.26617
▁коргоочу	-9.26961
▁үчүнчү	-9.27088
▁Өзбекстанда	-9.27127
өгө	-9.27139
▁Түндүк	-9.27166
▁коронавирусту	-9.27229
▁Кар	-9.27234
▁маалыматта	-9.27275
син	-9.2735
▁тургундары	-9.27416
▁27	-9.27588
▁дайым	-9.27693
▁өтпөй	-9.27816
▁дүйнөдө	-9.27857
▁көбүрөөк	-9.27868
▁себеби	-9.27887
Суу	-9.28059
▁ине	-9.28063
▁түнү	-9.28064
шат	-9.2808
оз	-9.28094
▁төмөн	-9.28118
▁2010-	-9.28138
▁аргасыз	-9.28141
О	-9.28182
лүгү	-9.28254
▁бойдон	-9.28281
▁жетекчилиги	-9.28332
▁табылган	-9.2837
▁тийиш	-9.28374
▁бейтап	-9.28397
▁26	-9.28484
оп	-9.28519
▁чо	-9.28646
▁алдынча	-9.28694
▁маегинде	-9.28817
c	-9.28831
▁кур	-9.28832
▁күндөн	-9.28854
▁Аб	-9.28905
▁лардын	-9.28929
▁нааразы	-9.29033
раак	-9.29039
▁аяба	-9.29086
▁аныктоо	-9.2909
▁күндү	-9.29114
▁тер	-9.29208
▁аймагы	-9.29329
▁үстүнө	-9.2937
▁кор	-9.294
▁мо	-9.29459
▁аймак	-9.29552
▁тин	-9.29672
▁келтирүү	-9.29692
▁телефон	-9.29855
▁Көп	-9.29858
▁институту	-9.29901
▁23	-9.29902
▁тармагында	-9.29944
▁айга	-9.29982
▁болмок	-9.30047
▁билген	-9.30081
жылдары	-9.30082
▁калк	-9.30095
▁таянып	-9.30213
▁кыймыл	-9.30224
▁ишкер	-9.30315
▁пайдалануу	-9.30323
▁канчалык	-9.30377
▁гуман	-9.30462
▁камалган	-9.30471
еминде	-9.30574
▁Жер	-9.30609
▁Израилди	-9.30722
▁университети	-9.30762
▁калышы	-9.30803
сүнө	-9.3081
▁бөгөт	-9.30862
шев	-9.30912
▁топту	-9.30917
▁Үй	-9.30999
▁маселесин	-9.31129
▁Коргоо	-9.31154
▁талабы	-9.31154
▁чечимин	-9.31188
▁кылат	-9.31192
боо	-9.31219
ары	-9.31381
▁албаган	-9.31388
▁2016-	-9.31438
▁Ди	-9.31504
▁алышкан	-9.31641
▁аймактарында	-9.31677
▁арасына	-9.31722
▁борборду	-9.31764
▁C	-9.31882
сүн	-9.31917
▁Тилек	-9.31954
▁тармактарда	-9.31962
▁өмүрүн	-9.31979
▁берсе	-9.32012
▁баракчасына	-9.32182
▁айылы	-9.32202
▁оку	-9.32204
▁келгенин	-9.32225
▁300	-9.32239
▁не	-9.32249
▁милдетин	-9.32257
▁болгондуктан	-9.32274
▁Британия	-9.32292
▁Май	-9.32341
▁эркине	-9.32359
▁Министрл	-9.32367
▁тын	-9.32395
▁согушта	-9.32526
▁айт	-9.32565
▁сүрөт	-9.32656
▁Германия	-9.32709
ран	-9.32741
▁Га	-9.32791
изм	-9.32796
лов	-9.32824
▁Уюму	-9.32826
▁ооган	-9.32956
▁гектар	-9.33009
▁Кытайда	-9.33022
▁мал	-9.33094
▁Со	-9.3315
▁иштей	-9.33168
▁ларды	-9.33178
▁Иранды	-9.33178
/	-9.33189
▁Касым	-9.33207
чыл	-9.33208
ондук	-9.33218
▁алышы	-9.33353
▁эрте	-9.33475
▁Экономика	-9.33549
▁алууну	-9.33635
▁жүйө	-9.33692
▁жүзүндө	-9.33721
▁лык	-9.33846
▁туугандары	-9.33914
▁качып	-9.33978
ян	-9.34038
▁пул	-9.34047
▁парламентте	-9.3405
▁колуна	-9.34051
▁эртең	-9.34062
▁сабак	-9.34083
▁сыз	-9.34098
▁аң	-9.34116
▁кызматкерлер	-9.34237
▁Гүл	-9.34278
▁берилет	-9.34324
▁табы	-9.34346
▁чын	-9.34351
▁Иш	-9.34358
▁убакта	-9.34391
l	-9.34471
ве	-9.34585
▁жалпысы	-9.34725
▁Улуу	-9.34792
▁элчилиги	-9.34843
▁кабарланган	-9.34874
▁кырдаалды	-9.34919
ес	-9.34929
Кошмо	-9.34947
▁кетет	-9.34983
▁аягына	-9.34985
▁саясаты	-9.35011
иш	-9.35248
▁Бай	-9.35327
▁үйүнө	-9.35351
▁көтөрүп	-9.35425
▁жу	-9.35464
▁жашы	-9.35544
индеги	-9.3567
▁көрө	-9.35674
▁стратегия	-9.3571
▁28	-9.35711
▁Му	-9.35725
▁жарык	-9.35746
бей	-9.35788
▁түзөт	-9.35934
▁тургундар	-9.35971
▁онлайн	-9.36004
▁сына	-9.36007
▁маалымдаган	-9.36025
▁абалда	-9.3606
▁кырдаалдар	-9.361
от	-9.36174
▁бүгүнкү	-9.3619
▁колдон	-9.36205
▁дем	-9.36243
▁жараша	-9.36268
▁болбосо	-9.36295
▁маданият	-9.36409
▁автоунаа	-9.3646
▁кадам	-9.36502
▁Мо	-9.36639
▁бошотуу	-9.36767
▁кен	-9.36858
▁калганы	-9.36917
тир	-9.36968
▁кыйла	-9.36983
▁сел	-9.37008
▁Мына	-9.37053
▁келсе	-9.37059
▁болгондо	-9.37074
▁Путинди	-9.37162
▁Атамбаевди	-9.37191
▁интернет	-9.37435
▁Бийлик	-9.37482
▁башталды	-9.37497
тип	-9.37502
деди	-9.37522
▁кирүү	-9.37543
▁бараткан	-9.37575
▁айдан	-9.37593
▁макулдашуу	-9.37598
▁колдоп	-9.37654
жо	-9.3766
▁узак	-9.37663
▁Же	-9.37666
▁көзү	-9.37713
▁калуу	-9.37715
бе	-9.37873
▁кооптуу	-9.37919
▁укуктук	-9.37934
түлүк	-9.37961
▁деңиз	-9.38094
▁тийиштүү	-9.38111
Манас	-9.38194
▁убагында	-9.38218
▁эскертти	-9.38218
▁жасалма	-9.3822
ибиз	-9.3839
▁көрсө	-9.38404
▁өлүмү	-9.38462
▁чыгат	-9.38542
▁башаламандык	-9.38583
▁Мурдагы	-9.38598
лбай	-9.38605
▁тү	-9.38609
матов	-9.38639
▁экөө	-9.38643
▁бериши	-9.38681
▁сал	-9.38729
ой	-9.38739
рак	-9.38756
▁мигранттарды	-9.38861
▁Ы	-9.38939
▁үгүт	-9.38968
▁биргелеш	-9.3897
Ка	-9.38976
▁жөнгө	-9.38983
▁аткан	-9.38986
▁укуктарын	-9.38989
▁лидерлери	-9.3944
▁В	-9.39643
▁кыла	-9.39704
▁өлүм	-9.39715
▁маалым	-9.3972
төрдү	-9.39723
лип	-9.39777
▁Газа	-9.39807
тараптуу	-9.39913
▁террорду	-9.39917
жылга	-9.40008
▁терең	-9.40026
лөрдү	-9.40095
▁депутаттары	-9.4015
еңири	-9.40179
▁кылмыштуу	-9.40213
▁жыйынтык	-9.40312
▁кишилер	-9.40343
▁жери	-9.40347
▁техникалык	-9.40374
лугу	-9.40381
▁көмүр	-9.40385
▁бербей	-9.40405
Кумтөр	-9.40485
▁камакта	-9.40494
Таш	-9.40545
▁кымбат	-9.40602
▁ашкан	-9.40648
▁кароо	-9.40658
▁Бек	-9.40692
▁штаб	-9.40723
фа	-9.40731
▁иштөө	-9.40792
▁активисттер	-9.40793
▁кура	-9.40838
▁ошондо	-9.40839
▁Менин	-9.40864
▁сомду	-9.40932
▁аныкталды	-9.41182
▁Александр	-9.4125
▁өмүрү	-9.41257
▁маселелери	-9.41308
▁эр	-9.41308
▁аялдарды	-9.41345
▁атат	-9.41353
▁Алматы	-9.41363
▁укугун	-9.41426
▁кү	-9.41437
▁колдогон	-9.41444
▁калкты	-9.41537
▁таандык	-9.41559
▁ыкчам	-9.41559
▁өмүр	-9.41588
▁адистер	-9.41607
▁жолугушуу	-9.41609
▁келүү	-9.41718
▁ая	-9.41728
▁тармагы	-9.41774
мун	-9.41899
▁уюмду	-9.41912
▁Ш	-9.41977
▁бүз	-9.41977
▁кал	-9.4206
▁көрсөткүч	-9.42094
деп	-9.42114
▁туулган	-9.42218
▁кем	-9.4226
сти	-9.42278
▁өлкөлүк	-9.42349
▁жараткан	-9.42358
жаза	-9.42397
гер	-9.42465
▁Ошентип	-9.4249
▁жете	-9.42523
▁ыбыз	-9.42529
▁Бизде	-9.42624
▁айрымдары	-9.42638
▁каалаган	-9.42647
▁Аскар	-9.42648
▁эсепте	-9.42664
ева	-9.42675
▁мандат	-9.42713
▁келаткан	-9.42802
▁жаз	-9.42809
▁үйдү	-9.42874
▁Депутат	-9.42879
▁Беларус	-9.42885
▁("	-9.42928
▁тарыхый	-9.43023
▁администрациясы	-9.43128
▁мекеме	-9.4313
ей	-9.43172
▁таш	-9.43176
▁каранды	-9.43265
▁Ли	-9.43274
▁кызды	-9.43319
▁За	-9.43369
▁Ан	-9.43468
беген	-9.43544
▁күчү	-9.43601
олог	-9.43665
▁л	-9.43705
▁талаа	-9.4375
▁акчаны	-9.43808
▁жаатында	-9.43836
▁Вашингтон	-9.43859
▁токто	-9.43867
▁анализ	-9.43906
▁эркиндик	-9.43928
▁Тергөө	-9.43968
бөй	-9.4402
▁төлөп	-9.44048
▁күчтүү	-9.44069
апрел	-9.44166
▁ишен	-9.44171
▁курч	-9.44298
▁УКМКны	-9.44411
▁чакырып	-9.44426
▁A	-9.44442
▁тик	-9.4445
▁камагын	-9.44485
ология	-9.44547
▁түш	-9.44554
▁жумушчу	-9.44584
▁колу	-9.44599
▁2015-	-9.44696
▁чыгарылган	-9.44731
▁багытталган	-9.44741
▁Мамлекет	-9.44756
▁китеп	-9.44776
▁партияны	-9.44829
▁тааны	-9.44845
▁күтүп	-9.45016
▁жерди	-9.45093
▁күбө	-9.45129
▁таасирин	-9.45139
▁Ми	-9.4545
▁Азербайжан	-9.4546
хан	-9.45478
▁куугунтук	-9.45481
▁дыгы	-9.45555
▁Адам	-9.45576
из	-9.45643
▁максат	-9.45701
▁эски	-9.45723
▁жыйында	-9.45746
▁мин	-9.45752
▁чыгарды	-9.45799
▁жабык	-9.45819
▁эт	-9.45903
▁мамилеси	-9.45931
▁за	-9.45933
▁баса	-9.4597
▁чакан	-9.4601
ңыз	-9.4603
▁башталганда	-9.4606
▁өкүм	-9.46066
▁Атайы	-9.46116
▁жайы	-9.46122
▁ачылган	-9.46142
▁министрлигине	-9.46352
▁Президентти	-9.46387
▁33	-9.46428
▁референдум	-9.46465
▁кул	-9.46555
▁киреше	-9.46574
▁жүргүзгөн	-9.46808
▁Америка	-9.46829
▁35	-9.46846
▁тармактар	-9.46905
▁Мурда	-9.47027
пар	-9.47083
▁тапты	-9.47132
▁сүйлөшүүлөр	-9.47151
ут	-9.47158
▁футбол	-9.47158
▁кырсык	-9.47185
▁шартта	-9.47188
▁ли	-9.47247
▁ша	-9.47263
▁күнөөлүү	-9.47283
▁Болот	-9.47293
фи	-9.473
зо	-9.47332
ше	-9.47376
ланып	-9.47389
▁ооруканада	-9.4741
▁сурап	-9.47434
төрү	-9.47438
▁мыйзамдар	-9.47446
министри	-9.47457
ё	-9.47596
▁чыны	-9.47661
▁уюмдарды	-9.47853
▁Түрк	-9.47924
▁издөө	-9.47952
▁коргоочулар	-9.47964
▁каралып	-9.47988
премьер	-9.4802
▁кайда	-9.48048
ем	-9.48103
▁жатканына	-9.48105
▁АКШда	-9.48112
▁иштетүү	-9.48195
▁жар	-9.48196
▁жетиштүү	-9.48265
▁салыштырма	-9.48266
▁отуруп	-9.48281
▁финал	-9.48333
▁иштерди	-9.48351
▁аскерлер	-9.48355
ый	-9.48358
▁тарапты	-9.48433
▁акциялары	-9.48435
ңиз	-9.48582
▁экология	-9.48596
▁статистика	-9.48596
▁кармалганын	-9.48599
▁артка	-9.48621
▁жапыр	-9.48675
▁Ошто	-9.48786
▁демилгеси	-9.48984
▁Жергиликтүү	-9.48986
▁эмнеге	-9.49038
▁деңгээли	-9.49112
▁жалган	-9.49191
өрүн	-9.49206
▁мыйзамдуу	-9.49224
▁борборунун	-9.49238
▁окуясы	-9.49275
үүгө	-9.49357
▁эне	-9.49422
▁дү	-9.49423
лууда	-9.49438
▁Социал	-9.49457
▁БШК	-9.49541
▁Матраимов	-9.49542
▁бү	-9.49548
▁иштейт	-9.49556
▁Кемпир	-9.49585
▁аткаруучу	-9.496
икалык	-9.49619
▁ыйгарым	-9.49732
▁кыш	-9.49821
▁медицина	-9.49858
▁комитетти	-9.49891
▁жабыркаган	-9.49912
мен	-9.49916
төн	-9.49922
▁31-	-9.49932
▁виза	-9.49932
▁бак	-9.49979
▁жеткирүү	-9.50101
▁коё	-9.50118
▁партиялар	-9.50205
▁түрү	-9.50223
▁системасы	-9.50234
▁башкалар	-9.5026
▁жетпей	-9.50267
▁Демек	-9.50275
▁батир	-9.50303
В	-9.50417
▁Кыз	-9.50434
▁ээси	-9.50488
▁айла	-9.50514
▁дон	-9.50558
▁жаңжал	-9.50578
▁катаал	-9.50639
лиги	-9.50672
▁кел	-9.50684
▁журналисттерди	-9.50709
▁башчылары	-9.50717
аган	-9.50723
▁ошону	-9.50733
▁компаниялар	-9.50748
▁билдирүүсүндө	-9.50958
▁төлө	-9.51018
▁Кеңеште	-9.51072
▁күйөөсү	-9.51139
▁Ала	-9.51157
▁айтышты	-9.51179
▁уланып	-9.51203
▁эксперттер	-9.51282
▁дарыгер	-9.51296
бүлөсү	-9.51312
мир	-9.51361
▁T	-9.51418
▁жаап	-9.51455
▁аш	-9.51484
▁улут	-9.51555
ӊ	-9.51624
▁эли	-9.51678
▁жарыяла	-9.51688
▁кире	-9.51936
▁Токаев	-9.52047
▁уу	-9.52064
▁начар	-9.5211
лет	-9.52139
▁санкция	-9.52229
рап	-9.52277
бар	-9.5228
▁илдет	-9.52289
▁эскертүү	-9.52311
▁Укук	-9.52314
▁макала	-9.52316
▁Бала	-9.52378
▁Жан	-9.52443
энелер	-9.52473
▁жерине	-9.52552
▁Серге	-9.52588
▁пара	-9.52625
▁курган	-9.52695
▁болгондорду	-9.52742
ок	-9.5278
▁турмуш	-9.52839
▁барат	-9.52876
▁айыптап	-9.52886
▁зордук	-9.52994
▁Армения	-9.533
▁өзөктү	-9.53347
▁кой	-9.53458
▁алгач	-9.53463
▁программа	-9.53541
ом	-9.53565
▁Жол	-9.53643
▁аяктаган	-9.53676
▁бас	-9.53679
▁2014-	-9.53695
▁сыртта	-9.537
▁кыргыздар	-9.53728
tion	-9.53732
▁кайтарып	-9.53732
▁Тажикстанда	-9.53755
▁болгондор	-9.5381
▁долбоорду	-9.54025
ыбыз	-9.54178
▁жумша	-9.54181
▁Г	-9.54187
an	-9.54202
°	-9.54219
▁саясатчылар	-9.54224
▁кабат	-9.54263
▁райондорунда	-9.54264
стр	-9.54391
ашы	-9.54493
▁болобу	-9.54549
▁курултай	-9.54575
▁ашты	-9.54633
▁36	-9.54643
▁чыкпай	-9.54661
▁бериш	-9.54678
ров	-9.54728
▁байланышы	-9.54734
Кыргызстан	-9.54749
▁унаа	-9.54816
▁күчтөр	-9.54821
▁берүүдө	-9.54826
▁сү	-9.54863
це	-9.54863
▁кап	-9.54885
▁тагдыры	-9.54902
▁имараты	-9.54907
▁билдиришти	-9.54935
▁Дон	-9.54935
абыт	-9.54995
▁төлөө	-9.55238
▁кагаз	-9.55259
w	-9.55277
▁карабастан	-9.55454
рылган	-9.55517
▁маселелерди	-9.55517
▁катталды	-9.55658
▁өткөргөн	-9.55662
▁бийликте	-9.55737
имов	-9.55758
▁До	-9.55765
▁арналган	-9.5581
▁жарыяланды	-9.55816
▁45	-9.55893
Фейсбуктагы	-9.56027
▁нан	-9.56178
▁тасма	-9.56269
лы	-9.56363
▁карай	-9.56374
▁Акаев	-9.56432
▁дипломатия	-9.56481
▁калкы	-9.56546
▁Өмүрбек	-9.56626
▁чакыруу	-9.56627
▁муктаж	-9.56721
▁байге	-9.56803
▁сыр	-9.5686
▁экспертиза	-9.56886
инг	-9.56953
▁дер	-9.56973
▁дайындалган	-9.57064
▁Ша	-9.57084
▁түштү	-9.57088
Тоо	-9.57122
▁тыгы	-9.57128
▁таасири	-9.57197
▁таштап	-9.57209
▁байланышкан	-9.57531
▁министр	-9.57585
▁Негизи	-9.57612
бап	-9.57667
▁маданий	-9.57721
▁окуяны	-9.57818
▁Айт	-9.57898
▁Кол	-9.57904
▁аракеттер	-9.57956
▁келишет	-9.57983
▁баланы	-9.58031
▁бат	-9.58044
▁Ва	-9.58111
▁өтүнүчү	-9.58132
▁Ооганстан	-9.58233
▁Украин	-9.58298
▁Милиция	-9.58334
▁көчө	-9.58358
ист	-9.58367
▁тарых	-9.58426
▁Ла	-9.58507
▁оң	-9.58549
▁өндүрүш	-9.58555
▁туу	-9.58588
▁карма	-9.58649
чө	-9.58675
▁элчиси	-9.5871
Ак	-9.58795
▁Image	-9.58869
▁cap	-9.58884
▁со	-9.58888
▁кийим	-9.58968
альд	-9.59002
▁шаарды	-9.59002
▁суроолор	-9.59026
T	-9.59099
▁си	-9.59155
▁Маселен	-9.59174
▁Евробиримдик	-9.59258
▁киргизген	-9.59283
▁дүйнөнү	-9.59295
▁жайга	-9.59341
▁айтуу	-9.59369
▁Ча	-9.59437
▁32	-9.59456
▁апасы	-9.59481
▁чыгышты	-9.59535
▁теги	-9.59543
▁ойлойм	-9.59623
▁булагы	-9.59674
▁авторду	-9.5971
r	-9.59753
▁Ре	-9.59774
▁Экинчи	-9.59792
▁Алексе	-9.59807
▁алдына	-9.59815
▁ре	-9.59858
▁абак	-9.59983
b	-9.59992
▁жаракат	-9.59996
▁Эң	-9.60051
▁абалды	-9.60133
▁саналат	-9.60178
▁Совет	-9.60178
▁Тоолуу	-9.60197
▁ушу	-9.60215
▁издеп	-9.60384
▁болжол	-9.60451
өл	-9.60618
Г	-9.60621
зе	-9.60712
▁экономикасы	-9.60818
▁Ким	-9.60958
▁муун	-9.60994
▁апта	-9.61078
▁градус	-9.61112
сүндө	-9.61135
▁мекемеси	-9.61275
▁кызматташтык	-9.61298
▁Ту	-9.61359
▁коркунучу	-9.61433
▁тандоо	-9.61504
▁кеткени	-9.61504
▁акы	-9.61539
▁төгү	-9.61585
сак	-9.61672
▁бөлүп	-9.61677
▁мамлекеттерди	-9.61685
▁Кумтөр	-9.61695
▁колдонуп	-9.61702
▁шаарда	-9.6172
▁ме	-9.61775
▁ойло	-9.61808
▁тажрыйба	-9.61834
▁биринде	-9.61845
рим	-9.62038
▁аягында	-9.62056
▁жатам	-9.62068
▁ун	-9.62139
ликте	-9.62212
▁прокурор	-9.62254
▁жүргүзүү	-9.62375
үй	-9.62427
▁ГЭС	-9.62436
▁музей	-9.62439
▁коомчулукта	-9.62441
▁көйгөй	-9.62539
▁жашта	-9.62601
сине	-9.62629
▁милдеттүү	-9.62645
▁башкача	-9.6283
on	-9.62838
гүл	-9.62901
▁майда	-9.62961
ура	-9.62995
▁улуу	-9.6301
▁курулушу	-9.63185
▁кезек	-9.63352
▁командасы	-9.63361
▁келтирген	-9.63423
▁жыйыны	-9.6345
▁тал	-9.63517
▁акын	-9.63517
▁кайрылды	-9.63537
▁сүйлөп	-9.63575
▁техника	-9.63584
пей	-9.63605
▁алабыз	-9.63626
▁ачып	-9.63646
дармек	-9.63659
▁автор	-9.63671
▁чекте	-9.63678
▁ур	-9.63738
▁акыл	-9.63773
er	-9.63794
▁кечинде	-9.63893
▁кызматкер	-9.63898
▁уюштурган	-9.6397
▁табылды	-9.63994
▁долларды	-9.63997
▁отур	-9.64016
▁билет	-9.64029
дүгү	-9.64048
▁ынан	-9.6409
▁рубл	-9.64164
▁кошто	-9.64246
▁төрага	-9.64297
▁жандан	-9.64319
▁жазуу	-9.64338
▁кыздар	-9.64389
▁реформа	-9.64395
▁ката	-9.64403
▁З	-9.64472
▁планы	-9.64502
▁Бакыт	-9.64552
▁үйү	-9.64553
▁аралаш	-9.64603
▁хан	-9.64606
al	-9.64661
▁чыгышы	-9.64733
▁Кур	-9.64861
▁телеканалы	-9.64944
президент	-9.6495
▁топтор	-9.65011
▁алса	-9.65051
▁жолду	-9.65134
▁Ошону	-9.65194
мент	-9.6527
▁Корея	-9.65349
▁Билим	-9.65351
▁эксперт	-9.65373
▁учуп	-9.6553
▁сүйлөшүп	-9.65536
хи	-9.65539
▁министрлик	-9.65588
▁Ге	-9.65705
▁коомчулукту	-9.65723
▁медал	-9.65761
▁адвокаты	-9.65805
▁кандуу	-9.65862
▁активдүү	-9.65929
▁көзөмөлдөө	-9.66055
кей	-9.66089
▁бекем	-9.66104
▁көпчүлүгү	-9.66126
▁десе	-9.66152
бүлөлү	-9.66152
▁кысым	-9.66165
▁Абд	-9.66176
▁пайызы	-9.66177
▁Евразия	-9.66316
ңкы	-9.66317
▁кагып	-9.66328
▁Үч	-9.66345
▁мекемелер	-9.66383
h	-9.66422
▁кыйноо	-9.66515
▁ачкан	-9.66598
▁органдар	-9.66613
▁сууну	-9.6663
таш	-9.66661
▁Баары	-9.66668
▁тема	-9.66675
▁коопсуздугун	-9.66719
▁ишкана	-9.66736
▁Я	-9.6679
▁чи	-9.66822
R	-9.66831
▁мезгилде	-9.66949
▁алгандар	-9.67077
▁Жыл	-9.67084
▁Н	-9.67125
▁),	-9.6718
▁келбейт	-9.67236
гиз	-9.67254
▁кызматташуу	-9.67272
▁тө	-9.67344
▁Кал	-9.67358
▁Россия	-9.6743
▁айырма	-9.67503
▁буйрук	-9.67511
▁вирусту	-9.67525
▁айланасында	-9.67531
▁29	-9.6761
▁өрттө	-9.67631
▁жетектеген	-9.6771
▁коммерция	-9.6771
▁айдоочу	-9.67771
октябр	-9.67819
▁жазуучу	-9.67834
▁адис	-9.67961
▁Олимпиада	-9.68007
▁жасоо	-9.68112
▁соттолгон	-9.68122
же	-9.68129
▁Р	-9.68129
▁келбей	-9.68205
▁сунушта	-9.68223
▁Ду	-9.68252
▁каршылык	-9.68265
▁чү	-9.68266
▁жылдар	-9.68283
административдик	-9.68314
▁келишкен	-9.68361
ая	-9.68379
▁пост	-9.68393
▁кайтаруу	-9.68456
▁бирдикт	-9.68493
▁келин	-9.68513
▁мүлк	-9.68513
бат	-9.6852
ивдүү	-9.68536
▁түштүк	-9.68553
советтик	-9.68589
▁келишимди	-9.68687
▁маани	-9.68716
▁документтер	-9.68737
▁Кээ	-9.68744
▁катталып	-9.68749
▁ырайы	-9.68757
▁түр	-9.68801
▁жарыялап	-9.68906
▁товар	-9.68908
▁финансы	-9.68921
▁тарыхы	-9.68952
▁кары	-9.68981
▁чаралар	-9.69012
ларда	-9.69096
▁Айыл	-9.69149
▁31	-9.69167
▁калаа	-9.69188
бас	-9.69197
▁Бээжин	-9.69208
C	-9.69275
▁бо	-9.69363
▁жатты	-9.69385
n	-9.69443
▁келатат	-9.69532
▁тарды	-9.69535
▁атына	-9.69561
▁айтат	-9.6957
алдуу	-9.69609
▁студенттер	-9.69726
▁окшойт	-9.69752
▁Кой	-9.69769
▁Ор	-9.69825
▁окуган	-9.69897
▁НАТО	-9.69922
▁Өз	-9.69942
▁мамлекети	-9.70014
▁Темир	-9.70055
▁Ооганстанды	-9.70062
▁базар	-9.7012
▁чектөөлөр	-9.70167
▁эмдөө	-9.70182
▁алышат	-9.70187
▁анча	-9.70193
ич	-9.70228
▁Улан	-9.70268
▁Тур	-9.70336
▁Штаттар	-9.70442
▁34	-9.70517
▁Биримдиги	-9.70664
бер	-9.70698
▁делген	-9.70793
▁Ат	-9.70808
Жо	-9.70811
▁план	-9.7083
▁бакча	-9.70872
▁саналып	-9.70973
▁абагында	-9.70975
▁150	-9.70995
▁укуктуу	-9.71009
▁коому	-9.71047
▁фракциясы	-9.71088
▁айлана	-9.71128
▁400	-9.71173
")	-9.71187
▁тартыш	-9.71202
доо	-9.71325
▁чече	-9.71329
▁Жума	-9.71359
▁шайла	-9.71363
өрү	-9.71371
жы	-9.71432
▁эсебине	-9.71445
▁бе	-9.71458
▁берилип	-9.71514
▁Чы	-9.71548
Х	-9.71583
▁мырза	-9.71596
▁мисал	-9.71612
еги	-9.7167
▁журналистти	-9.7168
▁коомдун	-9.71721
▁Эрдоган	-9.71723
▁оюндары	-9.71763
▁айыпталып	-9.71818
▁бил	-9.71836
▁бийик	-9.71871
▁режими	-9.71884
▁айды	-9.71898
▁тилинде	-9.71926
▁жугузу	-9.72014
▁өсүп	-9.72014
▁июнь	-9.72015
▁күчөп	-9.72016
▁шайланган	-9.72019
▁бюджет	-9.72066
теп	-9.72072
▁тыр	-9.72191
▁жат	-9.72222
▁жоопкерчилиги	-9.72355
▁баруу	-9.72394
▁бек	-9.72409
▁атаган	-9.72441
жарак	-9.72466
▁барды	-9.72491
кс	-9.72656
▁мурунку	-9.72798
тыгы	-9.72911
▁колдоосу	-9.72971
▁алышты	-9.73051
▁табуу	-9.73068
▁мына	-9.73069
▁оңой	-9.73077
▁депутаттык	-9.73087
▁тараган	-9.73101
▁алууда	-9.73102
▁банктар	-9.73127
▁мүнөздө	-9.73136
▁Ри	-9.73218
▁2024-	-9.73279
▁чыгыш	-9.73318
▁сунуштаган	-9.73324
▁Али	-9.73339
▁коло	-9.73417
▁тай	-9.73445
келиндер	-9.73448
▁Трампты	-9.73462
▁бөлмө	-9.73491
▁кино	-9.73525
▁айтышкан	-9.73544
айын	-9.73553
▁бүтүн	-9.73571
▁Баткенде	-9.73703
▁масса	-9.73754
▁баарына	-9.73837
▁жагдайлар	-9.73932
аев	-9.74013
▁болбосун	-9.74131
▁карыз	-9.74253
▁кылууга	-9.74277
▁Ислам	-9.74291
▁даярдык	-9.74293
▁Рыс	-9.74345
▁калыс	-9.74352
▁кирет	-9.74356
▁чыгышкан	-9.74436
▁өлтүрүү	-9.74441
▁берене	-9.74526
▁нин	-9.74543
▁Бе	-9.74543
▁үлгү	-9.74597
ук	-9.74598
▁Жу	-9.74615
▁санкциялар	-9.74648
▁Эмне	-9.74665
▁Кызыл	-9.74954
тон	-9.74958
▁беле	-9.75053
▁араны	-9.75081
▁акысы	-9.75098
▁сынак	-9.75099
▁атуу	-9.75151
▁Окуя	-9.75206
▁мезгил	-9.75304
иев	-9.75311
▁сындап	-9.75318
яр	-9.75355
▁эсебинде	-9.75434
▁Ю	-9.75465
▁кир	-9.75534
энеси	-9.75555
▁мажбур	-9.75563
▁октябрь	-9.7564
зат	-9.75662
Ф	-9.75666
ерин	-9.75717
▁үнө	-9.7579
▁Министрлик	-9.75818
▁Чыгыш	-9.759
▁айланып	-9.75905
Биз	-9.75927
▁кылууда	-9.75957
▁саналган	-9.76075
▁атап	-9.76087
▁сайтында	-9.76132
▁кылмыштар	-9.76254
▁ырастады	-9.76293
терс	-9.76363
▁ком	-9.76404
лген	-9.76514
▁түндүк	-9.76702
▁Таш	-9.76712
▁өндүрүү	-9.76763
▁ХАМАС	-9.76793
▁турду	-9.76808
▁Тай	-9.76813
▁жүрүшүн	-9.76924
▁Чыңгы	-9.76951
▁75	-9.7703
▁бута	-9.7704
▁кесепети	-9.77077
in	-9.77136
▁жардамы	-9.77155
▁анткен	-9.77187
▁орно	-9.77277
▁той	-9.77279
диги	-9.77318
▁кризис	-9.77355
▁мэри	-9.77367
▁үмүт	-9.77377
▁багыт	-9.77382
▁жиберген	-9.77461
▁протокол	-9.77613
зак	-9.77663
▁ооруп	-9.77674
▁жетип	-9.77683
▁чечимди	-9.77697
▁кодекс	-9.77718
▁Октябрь	-9.77835
▁Өзү	-9.77899
▁тери	-9.77908
▁отурат	-9.77923
рам	-9.77966
▁майрам	-9.77983
▁Азияда	-9.78057
▁сөздөр	-9.78216
▁кошуна	-9.78281
▁койсо	-9.78301
▁окуяларды	-9.78302
рас	-9.78318
Ш	-9.78322
▁Өлкө	-9.78425
▁жайкы	-9.78434
▁жанында	-9.78474
▁Жеңиш	-9.78503
▁эскерткен	-9.78503
▁курман	-9.78535
▁сүйлөшүүлөрдү	-9.78548
E	-9.78552
▁беришти	-9.78597
▁оо	-9.78598
▁37	-9.78609
▁айланган	-9.78627
▁түрмө	-9.78716
▁беришкен	-9.78855
▁жүрүш	-9.78882
▁ИИМ	-9.78941
Райымбек	-9.78953
▁токтом	-9.78963
▁жумду	-9.78965
▁Мекен	-9.79016
▁айтканы	-9.79099
лса	-9.79153
▁департаменти	-9.79196
▁ташып	-9.79246
▁дегенди	-9.79338
чачын	-9.79419
▁санитардык	-9.79431
▁тартты	-9.79443
▁мекенине	-9.79463
▁Кремл	-9.7947
▁коомдо	-9.79474
▁каттоодо	-9.79491
▁ра	-9.79493
шу	-9.79522
▁бюджетти	-9.79589
▁Х	-9.79621
▁тегерегинде	-9.79627
▁токтоп	-9.79638
▁жашыруун	-9.79644
▁тууган	-9.79667
▁бызды	-9.79716
ав	-9.79793
▁тест	-9.79832
▁четте	-9.79935
▁машине	-9.80004
▁Эмил	-9.80008
▁по	-9.80044
▁саясатын	-9.80088
▁Ошо	-9.80146
▁үйлөр	-9.80157
▁банкы	-9.80161
▁Султан	-9.80239
▁аялы	-9.80263
▁сапаты	-9.80295
▁өзүм	-9.8032
ar	-9.80356
▁кое	-9.80382
▁чыгары	-9.80454
▁зал	-9.80496
▁алынганын	-9.80501
▁мугалим	-9.80557
▁кетишкен	-9.80559
▁үйүндө	-9.80601
амы	-9.80617
▁салым	-9.80659
мур	-9.80681
▁тол	-9.80734
▁колдонгон	-9.80742
▁конституция	-9.80763
▁татаал	-9.80763
хо	-9.808
▁маалыматында	-9.8083
▁чогулган	-9.80869
▁тартип	-9.80885
▁кеч	-9.80935
▁жолку	-9.80943
▁ажыра	-9.80979
▁сураган	-9.81002
▁там	-9.81157
▁айыптоо	-9.81176
▁Чолпон	-9.81186
▁Азиз	-9.8139
▁тоскоолдук	-9.81512
▁кайта	-9.81522
▁салт	-9.81551
▁х	-9.81568
▁башы	-9.81634
вар	-9.81647
▁апрель	-9.81682
▁угуп	-9.81683
▁жолугуп	-9.81684
▁ашып	-9.81791
▁кампа	-9.81857
мал	-9.81873
▁келбеген	-9.81923
▁Сиз	-9.8196
▁38	-9.82013
гыла	-9.82117
z	-9.82134
▁Анкара	-9.82154
▁документтерди	-9.82165
▁тараптар	-9.8217
▁44	-9.82177
▁прокуратурасы	-9.823
▁куту	-9.82305
▁күчтөрдү	-9.82319
▁пенсия	-9.82376
▁ислам	-9.82376
▁1,5	-9.82381
▁уланууда	-9.82388
▁сыноо	-9.82428
▁кошул	-9.82434
▁аймактар	-9.82485
▁аралыкта	-9.82488
мек	-9.82494
бет	-9.82543
▁көбөйүп	-9.82609
▁жоюу	-9.82609
▁маалымдоо	-9.82618
▁Ле	-9.82642
▁айтылууда	-9.82672
▁Жалпы	-9.82749
лим	-9.82818
▁демилге	-9.8283
▁Голд	-9.82849
▁ташуучу	-9.82867
▁про	-9.82875
▁Сирия	-9.82876
▁лөр	-9.82879
▁Эркин	-9.8298
▁жетекчи	-9.83003
▁таратып	-9.83076
унан	-9.83095
▁албайбыз	-9.83129
▁куб	-9.83132
▁тапшырган	-9.8314
▁иштерине	-9.83163
▁Өкмөттү	-9.8318
▁B	-9.83214
чилик	-9.83215
▁судья	-9.83216
▁облустарында	-9.8326
Мен	-9.8331
▁регион	-9.83311
кеев	-9.83326
▁көрсөтмө	-9.83333
▁чыгар	-9.83375
▁Хо	-9.83387
др	-9.83491
▁милициясы	-9.83551
▁тургун	-9.83566
▁согушу	-9.8364
▁Көк	-9.83728
▁дрон	-9.83754
▁кармаган	-9.83779
▁өтүшү	-9.83796
▁бөлүнгөн	-9.83808
:00	-9.83823
▁август	-9.83836
▁баштайт	-9.83853
▁Беларуста	-9.84002
▁Тегеран	-9.84015
Бир	-9.84056
▁мөөнөтүн	-9.84058
▁Франция	-9.84115
алиева	-9.84121
▁эмеспи	-9.84178
▁натыйжа	-9.84201
июн	-9.84236
▁валюта	-9.84252
▁M	-9.84282
▁температурасы	-9.84287
▁бергенин	-9.84303
▁технология	-9.84357
баса	-9.84377
▁басымдуу	-9.84447
▁мектепте	-9.84502
▁алмашуу	-9.84565
▁бирдей	-9.84612
▁жылдарда	-9.8463
▁көзөмөлдө	-9.84672
ья	-9.84713
▁Индия	-9.84821
▁сунушу	-9.8487
ула	-9.84915
▁коопсуз	-9.84938
▁куруп	-9.84951
▁токтотуп	-9.84984
▁Аба	-9.85022
▁Жакын	-9.85102
▁Аш	-9.85103
▁чыкканда	-9.85117
▁жүрө	-9.8512
▁тун	-9.8516
▁көрсөттү	-9.85203
▁беткап	-9.85206
▁төмөнкү	-9.85239
▁сыртка	-9.8525
▁өлүмүнө	-9.85307
бул	-9.85315
▁соңунда	-9.85324
▁дык	-9.85382
▁машина	-9.85423
▁саламаттыгы	-9.85442
▁калдык	-9.85446
▁жеңиш	-9.85562
өкмөт	-9.85573
▁Жаранды	-9.85588
▁тор	-9.85623
▁орунда	-9.85696
▁жердеги	-9.85703
▁сөзү	-9.85716
▁маал	-9.85722
▁жазасын	-9.85722
▁бөлүгүн	-9.85912
▁Жыйын	-9.85917
▁лер	-9.85925
▁түн	-9.85931
▁театр	-9.85949
▁жүрүү	-9.86016
лгон	-9.8602
▁бирине	-9.86026
▁полициясы	-9.86042
бой	-9.86183
▁мигрант	-9.86231
▁макамы	-9.86249
ерлер	-9.8634
▁килограмм	-9.86405
мар	-9.86428
▁мамлекетте	-9.86456
▁жигит	-9.86503
▁жатса	-9.86562
▁ры	-9.8658
мет	-9.86602
од	-9.86615
▁Марат	-9.86633
▁Е	-9.86634
▁Ни	-9.86667
▁таба	-9.8676
▁беттеш	-9.86761
▁түрмөдө	-9.86805
▁ач	-9.86805
▁имарат	-9.86841
▁чараларды	-9.86851
▁суткада	-9.86859
▁сындаган	-9.86868
▁жарадар	-9.86869
▁окуучу	-9.86877
▁борборунда	-9.8692
▁каржылоо	-9.86965
▁беребиз	-9.87
еш	-9.87023
▁кызматкерлерди	-9.87029
F	-9.87037
▁мекемени	-9.8704
▁тили	-9.87113
▁жубайы	-9.87136
▁ле	-9.87188
пас	-9.87204
▁чыкканын	-9.87307
▁аракетин	-9.87316
▁кеңсеси	-9.87343
▁бергени	-9.87411
▁Матраимовду	-9.87418
▁Бакиев	-9.87437
▁Жээнбековду	-9.87439
▁тааныш	-9.87483
▁кант	-9.87521
▁сапат	-9.87534
▁ташуу	-9.87594
▁акыры	-9.87709
▁фонд	-9.87776
P	-9.87779
башы	-9.87803
▁схема	-9.87867
▁токтолду	-9.87867
▁которуу	-9.87939
▁тактоо	-9.87969
▁Сар	-9.88014
▁түшүндүрмө	-9.88031
▁эркек	-9.88037
▁кармаш	-9.88108
▁көркөм	-9.88113
▁ою	-9.88139
▁тилкеси	-9.88152
▁Ро	-9.88152
▁айыпталган	-9.88182
уучу	-9.88286
Л	-9.88303
▁700	-9.88362
▁кадыр	-9.88411
ас	-9.88435
▁келгени	-9.88469
▁жөө	-9.88479
▁жылдыгын	-9.88507
▁дыктан	-9.88548
▁бер	-9.88561
▁Маданият	-9.88605
▁январь	-9.88606
▁түзүлүп	-9.88623
▁55	-9.88735
▁күнөөсү	-9.88736
▁жал	-9.88762
▁Аман	-9.88845
▁Базар	-9.88854
▁буларды	-9.88865
▁Сауд	-9.88873
▁кытай	-9.88893
▁кичине	-9.88919
▁салууну	-9.88925
▁бош	-9.88927
▁орган	-9.88947
▁жооптуу	-9.88973
▁өткөр	-9.88977
▁студент	-9.88983
▁тилке	-9.88984
▁банктын	-9.89012
▁байкоо	-9.89024
▁ордун	-9.89047
▁Ленин	-9.89088
▁үзгүлтүк	-9.89101
▁бө	-9.89109
▁сүйлөгөн	-9.89119
▁орду	-9.89169
▁чакыр	-9.89262
дейт	-9.89262
▁камсызда	-9.89342
▁окууда	-9.89368
сунда	-9.89381
▁жолугушуусу	-9.89388
▁Эс	-9.89499
▁Сирияда	-9.895
▁бийлигин	-9.89597
f	-9.89599
▁жардыруу	-9.896
▁радикал	-9.89601
▁Жазык	-9.89606
▁билдирүүсү	-9.89614
▁жүрдү	-9.89683
▁болуш	-9.89727
▁форма	-9.8973
▁ойно	-9.89738
▁тизмесине	-9.89782
▁Хан	-9.89825
▁Бер	-9.89828
▁паспорт	-9.89856
▁айыптаган	-9.89879
▁калдым	-9.89909
▁Шаар	-9.89982
▁Чоң	-9.89999
▁Ти	-9.90028
▁кадимки	-9.901
▁ижара	-9.901
▁тийген	-9.90127
▁эсте	-9.90161
бири	-9.90214
▁ова	-9.9025
эл	-9.90265
▁база	-9.90325
▁атын	-9.90421
▁гүл	-9.90445
▁айланды	-9.90449
▁артында	-9.90478
▁энергиясын	-9.90487
убуз	-9.90495
▁Мир	-9.90508
▁аракеттери	-9.90522
Султан	-9.90542
▁сайты	-9.90555
▁жерлер	-9.90581
▁көтөргөн	-9.9062
▁48	-9.9069
▁H	-9.90769
▁класс	-9.90776
туп	-9.90847
▁юридика	-9.90856
▁тарапташтары	-9.90856
баш	-9.90873
▁тушунда	-9.90898
▁сөзүн	-9.90929
▁күнүнө	-9.90969
▁Бар	-9.90976
▁пикирлер	-9.91059
▁Дастан	-9.91066
▁депутаттарды	-9.91075
▁жашоосу	-9.91076
үлүп	-9.91125
▁адвокат	-9.91131
▁ролу	-9.91141
▁алмаштыруу	-9.91154
▁акциясы	-9.91209
▁Ташкент	-9.91267
▁Польша	-9.91354
▁илимдер	-9.91356
▁өңдүү	-9.91372
▁үйрө	-9.91463
леп	-9.91474
▁кызматтары	-9.91558
▁талибдер	-9.91594
ZKo	-9.91617
▁көтөрүлүп	-9.9162
▁түшүндүрүү	-9.91621
▁жөнөкөй	-9.91621
▁атады	-9.91624
▁кабарчысы	-9.91634
▁мерт	-9.91697
▁базасы	-9.91711
▁үндө	-9.9172
▁уруш	-9.91727
▁жылына	-9.91744
▁калганда	-9.91886
▁мелдеш	-9.91907
▁порт	-9.91907
▁топто	-9.91912
▁мектепти	-9.91914
▁Жакында	-9.91942
▁мэриясы	-9.91993
▁сак	-9.92017
▁академиясы	-9.92042
▁кытайлык	-9.92121
▁жарандыгын	-9.92247
▁дарылоо	-9.9225
▁сала	-9.92335
▁колунда	-9.92353
▁ңар	-9.92356
▁Асанов	-9.92391
▁курама	-9.92396
▁документтери	-9.92398
лот	-9.92524
▁тарыхында	-9.92536
▁Фи	-9.92581
▁түшүндүрдү	-9.92641
▁аралыгында	-9.92642
▁Жалпысы	-9.92685
▁Асан	-9.92704
▁коюлду	-9.92716
▁Журналист	-9.92722
▁уланта	-9.92794
ошого	-9.92854
ят	-9.92982
▁жарлык	-9.93029
▁Руслан	-9.93157
▁учкуч	-9.93158
▁Интернет	-9.93159
▁тарбия	-9.93225
лору	-9.93285
▁айым	-9.9331
▁салмакта	-9.93366
▁балл	-9.9339
▁чогулуп	-9.93417
▁биримдиги	-9.93417
▁аскери	-9.93436
орун	-9.93455
▁баян	-9.93486
▁Беларусту	-9.93553
▁тары	-9.93559
▁лидер	-9.936
▁пи	-9.93608
▁бийлигине	-9.93647
▁маек	-9.93652
▁Токтогул	-9.93681
▁даярдоо	-9.93703
▁Иранда	-9.93719
▁чечимине	-9.93808
▁Италия	-9.93823
▁тилин	-9.93833
▁жуу	-9.93867
▁чектеш	-9.93916
▁бол	-9.93932
▁мойнун	-9.93938
▁эгемендик	-9.9397
▁окшош	-9.93993
▁аткарып	-9.93998
▁кылышкан	-9.94017
▁мааниси	-9.94058
▁Кай	-9.94167
▁музыка	-9.94184
▁көбөйдү	-9.94198
▁өткөндө	-9.94232
▁сыйлык	-9.9425
▁Барды	-9.94278
▁эреже	-9.94278
▁D	-9.94296
▁арызын	-9.94358
▁жүздө	-9.94435
▁талапкерлер	-9.94463
▁Британияны	-9.94467
▁дешет	-9.94475
▁бошотулган	-9.94486
▁иштебей	-9.94488
▁жумада	-9.94524
▁жолдор	-9.94554
▁Чо	-9.94557
▁от	-9.94577
▁чеги	-9.94607
▁Шер	-9.94683
▁аянты	-9.94712
▁үйлөрдү	-9.94724
▁көтөрүлгөн	-9.94724
▁жакшыртуу	-9.94724
▁алака	-9.9475
сезим	-9.94758
есе	-9.94784
▁баяндама	-9.94801
▁жарылуу	-9.9483
▁шарттары	-9.94856
▁колдонул	-9.94879
гул	-9.94937
▁жайларды	-9.94968
▁ас	-9.94982
▁келечеги	-9.94985
▁Өлкөдө	-9.95004
▁берки	-9.95015
▁талаптар	-9.95017
▁кошуп	-9.95026
улган	-9.95073
▁жасады	-9.95083
▁Абды	-9.95163
▁кетсе	-9.95226
▁кеткенде	-9.95232
▁чалгын	-9.95257
▁алынат	-9.95268
▁турабыз	-9.95294
▁аскерлерди	-9.953
▁колдо	-9.95301
▁кеңешти	-9.95308
en	-9.95351
▁Андай	-9.95355
▁түздү	-9.95373
▁Ас	-9.95395
эр	-9.95424
▁таануу	-9.95457
▁көздөп	-9.9547
▁маанай	-9.95476
▁абагына	-9.95523
▁облусуна	-9.95588
▁теле	-9.95588
▁аппарат	-9.95598
▁Республика	-9.95611
▁окуяда	-9.95687
▁партияларды	-9.95708
▁Тү	-9.95709
▁тартиби	-9.95798
▁Сал	-9.95804
▁ээлеп	-9.95806
▁кылышты	-9.95842
▁адабият	-9.9589
▁курамы	-9.95927
атор	-9.95967
▁жашайт	-9.95983
▁күчөтүү	-9.96047
▁акчасын	-9.96131
▁Балдар	-9.96135
▁аныктал	-9.96144
▁терди	-9.96183
▁палатасы	-9.96243
▁Дания	-9.96273
▁азайтуу	-9.96312
▁кызыкчылыгын	-9.96313
▁Андыктан	-9.96319
▁P	-9.96407
▁келишими	-9.96459
▁Дүйшөмбү	-9.96546
▁абалына	-9.96556
▁товарларды	-9.96573
▁Талант	-9.9658
▁жатпайбы	-9.96585
▁текшерип	-9.96599
▁уза	-9.96605
▁жуккан	-9.9681
▁кесип	-9.96828
▁Каракол	-9.96848
▁Ил	-9.96848
▁Бейшеналиев	-9.96848
▁Сузак	-9.96862
▁Орто	-9.96881
бөгөн	-9.96906
Бүтүн	-9.96954
▁тура	-9.96955
▁жерлерде	-9.96955
▁Бол	-9.96983
▁жокпу	-9.97036
▁жообу	-9.97126
▁кере	-9.97165
▁органдарына	-9.97184
▁Не	-9.97226
атты	-9.97237
▁учуру	-9.97263
▁каражатты	-9.97273
▁багытында	-9.97295
▁кг	-9.97311
▁сайтына	-9.97319
▁кошулган	-9.9732
▁комиссияны	-9.97386
▁каты	-9.97391
▁кирди	-9.97407
▁жактар	-9.97473
▁F	-9.97491
▁экендигин	-9.97597
▁жылуу	-9.97647
▁ойдо	-9.97721
▁Кудай	-9.97784
▁тизме	-9.97814
▁канал	-9.97865
үч	-9.97875
▁ишканалар	-9.97885
▁адамдары	-9.9792
▁албетте	-9.97927
кара	-9.97945
or	-9.97953
▁пикири	-9.97979
▁мектептер	-9.97996
тогу	-9.9802
▁байыр	-9.98061
▁көздөгөн	-9.98068
▁Жапония	-9.98147
▁тармакта	-9.98151
гандар	-9.98243
▁сунуштады	-9.98244
ский	-9.98285
июл	-9.98414
▁Шар	-9.98455
▁мын	-9.98473
лей	-9.9851
▁белгилейт	-9.98565
▁Телеграм	-9.98602
▁көк	-9.9867
▁катарында	-9.9868
▁нерсени	-9.98745
пөй	-9.98746
▁Навальный	-9.98752
▁Жаш	-9.98762
▁пайдаланып	-9.98781
▁жаратып	-9.98784
▁ойлон	-9.98794
▁Мирзиёев	-9.98795
▁берерин	-9.98831
▁абада	-9.9889
W	-9.98942
▁эгемен	-9.98977
уз	-9.99006
▁сөзүнө	-9.99018
▁казакстандык	-9.99018
▁сутка	-9.9906
▁өч	-9.99123
▁кыр	-9.99289
▁лаборатория	-9.99293
▁Токто	-9.99319
▁натыйжалуу	-9.99355
▁көпүрө	-9.99569
▁айыптады	-9.9957
▁билдиришкен	-9.99576
▁ооз	-9.99723
▁мэр	-9.99727
▁элем	-9.9976
▁ооруну	-9.9981
▁десек	-9.9982
▁уккан	-9.99855
▁санкцияларды	-9.99864
N	-9.99872
▁утуп	-9.99909
▁жасай	-9.99922
▁кабылып	-9.99926
▁быйылкы	-9.99948
▁65	-9.99951
жыл	-9.9997
▁чаралары	-10.0003
▁арызы	-10.0007
▁өзгөртүүлөр	-10.001
жөнү	-10.0014
▁чыккандар	-10.0016
экономикалык	-10.0016
▁ишмер	-10.0031
▁Германияны	-10.0034
▁ресурс	-10.0037
▁По	-10.0037
▁генерал	-10.004
▁көмөк	-10.0041
руп	-10.0041
▁түп	-10.0042
▁тапшыр	-10.0046
▁кызматкерлерине	-10.0048
▁улан	-10.0049
август	-10.0051
▁дене	-10.0059
▁автобус	-10.0061
▁бекемдөө	-10.0068
▁Москваны	-10.007
▁Сапар	-10.0073
▁Фа	-10.0079
▁Калган	-10.0083
▁бөлүм	-10.0084
▁жайлары	-10.0087
▁шаарларында	-10.0089
▁Го	-10.0093
▁айылда	-10.01
эне	-10.0103
▁Текебаев	-10.0105
чаралар	-10.0106
▁жөнө	-10.0107
▁жазы	-10.0113
▁көбөйтүү	-10.0116
▁сурады	-10.0117
▁баалуу	-10.012
бирине	-10.0121
▁Дмитри	-10.0124
▁саткан	-10.0131
▁мыйзамда	-10.0138
▁Эч	-10.0141
▁Кайра	-10.0141
чылыгы	-10.0143
▁турушту	-10.015
экстремисттик	-10.0152
▁аза	-10.0156
▁лук	-10.0158
▁ңыз	-10.0161
▁кишилерди	-10.0163
таган	-10.0164
▁БУУ	-10.0171
▁корго	-10.0172
▁Навальныйды	-10.0179
▁жабыр	-10.018
▁Лейлек	-10.018
▁жыйна	-10.018
▁турганда	-10.018
▁Максат	-10.0182
▁эти	-10.0183
манов	-10.0185
▁бузуп	-10.0185
▁39	-10.0191
▁климатты	-10.0195
Сай	-10.0198
▁атышуу	-10.0204
▁башкарган	-10.0204
▁натыйжасын	-10.0205
▁аткыла	-10.0208
▁Менимче	-10.0208
▁Балким	-10.0208
▁катышуучулары	-10.0208
▁көчүп	-10.0209
▁Араб	-10.0214
▁Азербайжанды	-10.0215
▁Назарбаев	-10.0216
▁учурга	-10.0216
чусу	-10.023
▁мугалимдер	-10.0231
▁реакция	-10.0237
▁чоо	-10.0239
▁тиги	-10.0241
▁Кор	-10.0242
▁бербейт	-10.0244
▁системасын	-10.0252
▁окумуштуулар	-10.0253
▁кызыл	-10.0263
вер	-10.0264
▁бөлүнүп	-10.0266
▁Алгач	-10.0267
Ислам	-10.0272
?"	-10.0274
султан	-10.0275
▁факты	-10.0279
▁калбай	-10.0287
▁тек	-10.029
▁сында	-10.0292
▁Азамат	-10.0293
▁Парламентти	-10.0296
▁жүрүшү	-10.0298
чил	-10.0298
▁башталып	-10.0301
▁тактап	-10.0307
▁Эмгек	-10.031
▁чөлкөм	-10.0316
▁видеолор	-10.0318
▁2012-	-10.0322
▁башталат	-10.0327
▁өзгөрүүлөр	-10.033
▁жолугушууда	-10.033
▁Л	-10.0344
▁аман	-10.0345
ибизди	-10.0347
▁күмүш	-10.0351
▁келтирилген	-10.0351
▁өзүбүз	-10.0352
▁байланышта	-10.0353
ымды	-10.0355
▁моюн	-10.0356
▁жайларда	-10.0361
▁эмесмин	-10.0363
▁авто	-10.0374
▁Ара	-10.038
▁таратты	-10.0382
▁турушат	-10.0382
▁таанылган	-10.0384
▁оңдоо	-10.0386
▁R	-10.0391
▁I	-10.0401
▁катарына	-10.0402
дүк	-10.0406
▁Жар	-10.0407
ант	-10.0407
▁Акыйкатчы	-10.0408
▁жылуулук	-10.0411
кор	-10.0413
▁кайрылуусунда	-10.0416
луп	-10.0416
M	-10.0417
▁кырдаалда	-10.0424
рбай	-10.0425
▁42	-10.0427
▁600	-10.0429
түз	-10.0433
▁аткылоо	-10.0437
▁убакытта	-10.0438
▁каккан	-10.0438
▁булар	-10.0439
▁кылабыз	-10.0446
▁Лукашенко	-10.0447
▁47	-10.0448
▁өздөрүнү	-10.045
▁клиника	-10.0451
▁ңиз	-10.0452
▁комплекс	-10.0455
▁жайында	-10.046
▁мыйзамдарды	-10.046
▁43	-10.0463
▁күмөн	-10.0464
▁мусулмандар	-10.0468
▁коюл	-10.047
▁көздөй	-10.0474
▁Кон	-10.0476
▁тийгиз	-10.0483
▁каналы	-10.0487
▁Каны	-10.0489
▁Бел	-10.0494
▁астында	-10.0496
▁Жи	-10.0496
▁жетишкен	-10.0497
▁кызматтар	-10.0498
▁N	-10.0499
▁топторду	-10.0507
лгөн	-10.051
▁өтү	-10.0512
10	-10.0529
▁коргоп	-10.0529
лав	-10.0531
ог	-10.0534
▁баев	-10.0539
▁сиң	-10.0541
Ма	-10.0541
▁өткөрдү	-10.0542
▁кичи	-10.0546
▁экономиканы	-10.0551
диктен	-10.0554
▁тыйын	-10.0554
▁Канада	-10.0554
▁жетет	-10.0557
▁туткун	-10.0567
▁тен	-10.057
▁Кремлди	-10.0574
▁мөөнөтүнө	-10.0576
▁блогер	-10.0577
▁алдык	-10.0583
▁жүзү	-10.0586
▁тургундарды	-10.0589
▁көбөйгөн	-10.0594
▁Европада	-10.0594
▁Согуш	-10.0596
▁калтыр	-10.0598
▁өспүрүм	-10.0602
▁Коррупция	-10.0612
▁пандемиясы	-10.0615
кыргызстандыктар	-10.0617
▁түшүнүк	-10.0617
▁Коомду	-10.0618
▁жүргүз	-10.0619
штү	-10.0624
▁басылмалар	-10.0627
бир	-10.0627
▁китеби	-10.0642
▁жеңип	-10.0642
▁райондордо	-10.0642
▁кезинде	-10.0643
▁козго	-10.0644
▁отурум	-10.0652
▁бел	-10.0654
▁кенин	-10.0654
▁арзан	-10.066
▁компанияны	-10.0667
▁аймактарды	-10.0667
▁чыгара	-10.067
▁белгиленди	-10.0671
▁изде	-10.0673
▁шы	-10.0677
▁кимди	-10.0677
▁маданияты	-10.0678
▁жайды	-10.0681
▁жаранды	-10.0688
▁репрессия	-10.0701
▁Жусуп	-10.0701
▁барганда	-10.0703
▁жеткирилген	-10.0706
▁Мадумаров	-10.0709
▁Өлкөнү	-10.0709
▁качкындар	-10.071
B	-10.0713
▁чемпионаты	-10.0717
▁коопсуздугу	-10.0718
▁Крым	-10.072
чет	-10.0723
▁талапкерлерди	-10.0725
▁окутуу	-10.073
▁тажрыйбасы	-10.0736
Курманбек	-10.0746
▁бузуулар	-10.0748
▁администрация	-10.0749
▁Сотту	-10.0751
йрыкча	-10.0753
▁жумган	-10.0757
▁Адвокат	-10.0761
▁Мамытов	-10.0761
▁уюштуруп	-10.0761
▁Замир	-10.0762
лд	-10.0768
▁билип	-10.0769
▁Евробиримдикти	-10.0778
▁гезит	-10.078
▁Оору	-10.0785
▁догу	-10.0788
kg	-10.0793
▁барбы	-10.0797
▁жараяны	-10.0798
▁Экинчиден	-10.0799
▁Ви	-10.0801
▁себепте	-10.0802
Эркин	-10.0803
▁ойлоп	-10.0813
▁чыкканы	-10.0817
иф	-10.0824
▁орнотуу	-10.0833
▁Азим	-10.0836
▁ЖЭБ	-10.0836
▁Харьков	-10.0851
▁Таалай	-10.0851
▁туризм	-10.0854
▁маркум	-10.0866
бил	-10.0873
▁аралашкан	-10.0875
▁Африка	-10.0881
▁каарман	-10.0881
▁жабуу	-10.0881
▁токой	-10.0882
▁!"	-10.0883
▁Бажы	-10.0884
мей	-10.0885
▁овду	-10.0885
▁Салык	-10.0885
▁жоокер	-10.0886
▁өр	-10.0888
▁Күн	-10.0895
Ч	-10.0896
▁спортчу	-10.09
▁Элди	-10.0901
▁ушуну	-10.0902
об	-10.0906
▁Жаза	-10.0907
▁баратат	-10.0925
▁Казак	-10.0932
▁Финансы	-10.0932
▁процесс	-10.0932
▁Каза	-10.0936
чулук	-10.0936
▁ишкерлерди	-10.094
ra	-10.094
▁киргизип	-10.0945
▁Дал	-10.0946
▁шайлоочуларды	-10.0947
▁оорусу	-10.0948
▁ия	-10.0949
▁өзгөр	-10.095
▁инфекция	-10.0959
▁түшкөнү	-10.096
▁кошкон	-10.0964
▁белги	-10.0967
▁Аскер	-10.0972
▁жаратылыш	-10.0972
▁кызыкчылыгы	-10.0972
▁Нью	-10.0973
▁иштели	-10.0976
▁штабы	-10.0986
бес	-10.0986
тпай	-10.099
▁өзгөрт	-10.099
▁эм	-10.0999
▁жараян	-10.1
▁июль	-10.1003
▁керектөө	-10.1003
▁жолуккан	-10.1005
▁суук	-10.1012
ңуз	-10.1028
▁ИИМди	-10.1029
▁дайынсыз	-10.1033
▁артыкчылык	-10.1033
▁тосуп	-10.1033
▁жуктуруп	-10.1034
▁чыкса	-10.1034
▁кечир	-10.1035
теш	-10.1037
жай	-10.1045
▁коюшкан	-10.1045
▁лы	-10.1052
рылып	-10.1058
▁сап	-10.1062
▁сотунда	-10.1063
▁отчет	-10.1065
▁евро	-10.1067
▁уюшкан	-10.1067
▁ресурстары	-10.1068
▁Манас	-10.107
▁түзүмдөрү	-10.107
мдуу	-10.1073
▁терге	-10.1073
▁41	-10.1074
▁Кадыр	-10.1076
▁тармакты	-10.1077
жайы	-10.1089
▁артына	-10.1093
▁кепилдик	-10.1095
бү	-10.1099
▁чай	-10.1101
үүчү	-10.1102
▁барганы	-10.1104
ңар	-10.1117
бол	-10.1118
▁жумушта	-10.1123
▁көргөз	-10.1125
▁жи	-10.1125
▁Кубанычбек	-10.1126
▁иликтеп	-10.1126
▁мобилизация	-10.1126
▁буруу	-10.1128
▁ташыган	-10.113
Кызмат	-10.1134
ент	-10.1136
▁энергиясы	-10.1141
▁түздөн	-10.1142
▁лицензия	-10.1146
▁суна	-10.1147
▁фактылар	-10.1152
▁жөнөткөн	-10.1157
▁айтышууда	-10.1158
▁операциясы	-10.1161
▁сезил	-10.1162
▁бузган	-10.1166
жу	-10.1167
▁85	-10.1169
▁дик	-10.117
▁каражаты	-10.1171
▁күз	-10.1174
ne	-10.1181
▁БШКны	-10.1181
макчы	-10.1183
",-	-10.1186
▁Пандемия	-10.1188
▁Херсон	-10.1188
▁душман	-10.1188
▁козголуп	-10.1189
▁жаатта	-10.1189
▁Кандай	-10.119
айкын	-10.119
улуп	-10.1199
▁вирусу	-10.1199
▁лөрдү	-10.121
▁тейлөө	-10.1219
▁чегинде	-10.1227
ттер	-10.1227
▁Бакиевди	-10.1245
▁Ү	-10.1249
▁өнөктүгү	-10.1251
▁созул	-10.1252
▁түнкү	-10.1262
▁келерин	-10.1266
▁өкүмү	-10.1267
▁лагер	-10.1269
Е	-10.127
▁курамында	-10.1279
▁буйругу	-10.1282
▁көбүнчө	-10.1282
▁реалдуу	-10.1284
▁күчөгөн	-10.1285
▁тир	-10.1286
▁Катар	-10.129
▁Чет	-10.1298
▁тармак	-10.1303
▁жөнүндөгү	-10.1306
▁ысымы	-10.1307
▁Адистер	-10.1314
▁Сыр	-10.1314
▁украиналык	-10.1314
▁белгилери	-10.1315
▁коюшту	-10.1317
▁негизсиз	-10.1321
▁соолугу	-10.1322
▁аткар	-10.1323
бүлөлөр	-10.1324
▁салыш	-10.1324
▁сактагычы	-10.1328
D	-10.1334
▁жаткандар	-10.1336
ред	-10.134
▁билбей	-10.1343
▁ырчы	-10.1345
Бул	-10.1347
▁Конституцияны	-10.1347
▁умтул	-10.1347
▁тилкесинде	-10.1348
▁жаайт	-10.1349
▁тууганы	-10.1352
▁карашы	-10.1367
▁машыгуу	-10.1376
▁паспорту	-10.1376
▁кызматташтыкты	-10.1378
▁жайыл	-10.1384
▁тагылган	-10.1386
▁жаралган	-10.1387
▁калаасы	-10.1395
▁шарттар	-10.1395
үрткү	-10.1396
▁аялды	-10.1398
▁мечит	-10.1398
▁уруу	-10.1399
▁армия	-10.1402
▁жүрөк	-10.1405
▁болору	-10.1405
▁өрөөнүндө	-10.1409
▁тааныштыр	-10.1409
▁жарлыгы	-10.1411
▁сыйлыгы	-10.1412
бөө	-10.1414
▁шарты	-10.1415
▁Мурат	-10.1417
▁себептер	-10.1421
жылдар	-10.1421
ийгиликтүү	-10.1422
▁төр	-10.1428
▁далилдер	-10.1429
зомбулук	-10.143
▁жайлар	-10.1436
▁мисалы	-10.1439
▁мусулман	-10.1439
▁Равшан	-10.1441
▁өткөрмө	-10.1444
▁жүргүзүлгөн	-10.1446
▁ут	-10.1449
чысы	-10.145
▁жабылган	-10.1453
торду	-10.1457
▁зат	-10.1459
▁дүйнөсү	-10.146
▁түйүндөр	-10.1464
▁жактыр	-10.1466
▁келгендер	-10.1469
▁атам	-10.1471
▁барымта	-10.1473
▁эсептелет	-10.1475
▁жүргөнүн	-10.1475
▁экенине	-10.1476
сентябрь	-10.1478
▁тирүү	-10.1478
ография	-10.1479
▁вакцинасы	-10.1484
ноябр	-10.1489
енко	-10.1492
али	-10.1493
▁ев	-10.1499
▁анти	-10.1504
▁2005-	-10.1505
▁баштаганын	-10.1506
лог	-10.1506
▁какты	-10.1506
▁жашыл	-10.1509
▁Президенттик	-10.151
▁мүлктү	-10.1513
▁көл	-10.152
▁курулган	-10.1523
▁сер	-10.1531
▁жатышканын	-10.1531
▁киргизилди	-10.1537
▁ачылды	-10.1538
▁шилтеме	-10.1538
▁түрлөрү	-10.1539
▁кызык	-10.1553
▁ол	-10.1559
▁мүлкү	-10.1563
▁былтыркы	-10.1568
ѳ	-10.157
мер	-10.157
▁кадамдар	-10.1572
▁камтылган	-10.1572
▁режим	-10.1574
▁баарыбыз	-10.1577
▁кез	-10.1579
▁түшүндүрмөсү	-10.1581
▁дор	-10.1589
▁Ушу	-10.1597
▁башкарып	-10.16
▁Натыйжада	-10.1602
▁Сыдыков	-10.1603
▁айылына	-10.1604
▁кесипти	-10.1605
▁урмат	-10.1605
▁Акмат	-10.161
▁жүктө	-10.161
▁жоо	-10.1611
▁чындык	-10.1614
▁тапшырды	-10.1621
дугу	-10.1623
▁доомат	-10.1628
▁суроолорун	-10.1629
▁Кабул	-10.163
▁колдонулган	-10.1634
▁Абылгазиев	-10.1635
▁жетектеп	-10.1635
▁албайм	-10.164
▁узар	-10.1647
▁сүрөтү	-10.1649
▁Беш	-10.1653
аясий	-10.166
▁жибер	-10.1661
▁абалын	-10.1667
▁концерт	-10.1668
▁алынышы	-10.1668
▁учка	-10.1668
▁талаптарын	-10.1668
▁мекен	-10.167
▁барбай	-10.1676
▁Исаков	-10.1681
даштыруу	-10.1681
▁сунушун	-10.1685
▁камера	-10.1686
▁кайрылуусу	-10.1688
дж	-10.1693
▁(+	-10.1695
▁арасын	-10.1696
▁сүт	-10.1696
▁эсеби	-10.1699
▁эмгеги	-10.17
▁эркектер	-10.1715
▁мурас	-10.1723
▁төрайымы	-10.1733
▁төрөлгөн	-10.1734
▁деңгээл	-10.1734
▁кечээ	-10.1735
▁атабыз	-10.174
▁көтөрүү	-10.1741
имди	-10.1753
▁Жай	-10.1755
догон	-10.1765
▁Аз	-10.1765
▁кесепеттер	-10.1766
▁айыгып	-10.1767
▁кеңешме	-10.1772
▁пикирде	-10.1776
▁жарымы	-10.178
▁мыйзамы	-10.1782
саясий	-10.1784
▁билдирет	-10.1785
▁бой	-10.1787
▁саба	-10.1793
Центерра	-10.1799
▁сүз	-10.1799
▁чыгарма	-10.1801
▁чечип	-10.1803
▁сакталып	-10.1804
▁пикиринде	-10.1807
декабр	-10.1811
▁инфраструктура	-10.1815
▁жайда	-10.1823
▁тапшырма	-10.183
▁келүүдө	-10.1833
▁уруп	-10.1839
▁чарасы	-10.184
дир	-10.1854
▁элчи	-10.1857
▁өзүбүздү	-10.1858
▁чөйрө	-10.1865
▁тескерисинче	-10.1866
▁качкан	-10.1866
▁бузулган	-10.1868
▁кечирим	-10.1868
▁Германияда	-10.187
▁алгандарды	-10.1871
▁токтоткон	-10.1872
▁ичи	-10.1873
▁даярдап	-10.1875
▁үнүн	-10.1879
▁кооптонуу	-10.1883
орточо	-10.1884
▁чыгармалары	-10.1884
▁айтса	-10.1892
▁жактагы	-10.1894
тикалык	-10.1898
▁Мектеп	-10.1899
▁көмүскө	-10.1901
▁позиция	-10.1902
▁жөнөтүлгөн	-10.1903
▁созулган	-10.1905
▁себептери	-10.1906
▁турса	-10.1907
▁акциялар	-10.1909
▁аткарган	-10.1909
▁тастыкта	-10.191
▁жанына	-10.1912
рет	-10.1913
▁курс	-10.1918
Тез	-10.1921
фор	-10.1925
▁Суу	-10.1926
▁болбогон	-10.1929
▁калтырган	-10.1933
▁кафе	-10.1933
▁радио	-10.1938
▁келишти	-10.1939
▁маселесине	-10.194
▁жарыш	-10.1942
▁ажыратуу	-10.1946
▁ээлери	-10.1946
▁Өмүр	-10.1947
▁саммит	-10.1947
▁чал	-10.1957
▁заводу	-10.1959
▁долбоорлор	-10.1961
▁үчөө	-10.1963
▁февраль	-10.1967
▁Андре	-10.1967
▁таштанды	-10.1967
▁талант	-10.1969
▁асман	-10.1972
▁Бак	-10.1972
▁бурул	-10.1973
▁куу	-10.1976
рд	-10.198
▁ыкма	-10.1984
▁Ху	-10.199
▁киргенде	-10.2
муниципалдык	-10.2
таев	-10.2002
▁айларында	-10.2002
▁Ц	-10.2003
▁чакырылган	-10.2011
▁тармагына	-10.2013
▁жоктугун	-10.2023
▁көчөдө	-10.2024
▁маалымда	-10.2028
▁саясатта	-10.2031
▁сүйлө	-10.2034
▁кеңешчиси	-10.2034
▁сектор	-10.2035
▁V	-10.2038
▁дрондор	-10.2038
▁районуна	-10.204
тей	-10.2045
▁Сөз	-10.2049
жар	-10.2054
▁иштеши	-10.2056
иров	-10.2066
▁Сары	-10.2066
▁капитал	-10.2068
рүү	-10.2068
▁жазылып	-10.207
▁кетишти	-10.2071
▁кагылыш	-10.2072
▁жабыркагандар	-10.2072
▁сөздү	-10.2073
▁силер	-10.2073
өлү	-10.2081
▁саатта	-10.2092
▁буюм	-10.2099
▁аткарыл	-10.2101
▁глобал	-10.2102
▁титирөө	-10.2102
▁жалаң	-10.2102
▁күйүүчү	-10.2103
▁Каримов	-10.2105
▁айдоочулар	-10.2105
тел	-10.211
▁жеринде	-10.211
▁49	-10.2114
▁кырсыгы	-10.2116
▁карама	-10.2124
Сиге	-10.2126
▁айтыш	-10.2129
▁элде	-10.2132
▁мекендештер	-10.2137
▁эфир	-10.2137
▁ушунча	-10.2137
▁54	-10.2148
тив	-10.2149
▁уюштурулган	-10.2152
▁пандемиясына	-10.2163
өзбек	-10.2168
▁мар	-10.2168
▁ортодо	-10.2169
▁көрсөтүл	-10.2169
▁Тажик	-10.217
▁чакты	-10.2171
▁өлтүрүлгөн	-10.2171
▁ва	-10.2172
▁Юсти	-10.2172
▁ларга	-10.2173
▁токтому	-10.2178
▁мамлекеттери	-10.2178
▁бүткөн	-10.2178
Журт	-10.218
▁жоготуулар	-10.2184
▁этн	-10.2186
▁кимдер	-10.2187
▁Куралд	-10.2194
▁карта	-10.2195
▁ишмердигин	-10.2195
▁Алиев	-10.2195
▁СССР	-10.22
▁келишимдер	-10.22
▁Пакистан	-10.2201
O	-10.2202
мед	-10.2203
▁жаа	-10.2205
▁2013-	-10.2206
▁идеология	-10.2206
▁уру	-10.2206
▁жаратты	-10.2207
▁эскерүү	-10.2209
▁дегендер	-10.2211
▁кылса	-10.2216
▁кабарлаш	-10.2216
▁тапшыруу	-10.2218
st	-10.2218
▁Медиа	-10.2218
▁спортту	-10.2222
▁чалдыккан	-10.2228
▁изилдөөлөр	-10.2232
орлор	-10.2232
▁жарандарына	-10.2232
▁сатыл	-10.2235
▁өткөрүлүп	-10.2241
▁шамал	-10.2241
▁партиясына	-10.2242
▁коюлуп	-10.2242
▁борборуна	-10.2243
▁кылмыштуулук	-10.2245
▁долбоорлорду	-10.2246
пул	-10.2246
умду	-10.2252
▁Донецк	-10.2255
▁себебин	-10.227
үлдү	-10.2271
▁бомба	-10.2272
▁кеме	-10.2272
▁завод	-10.2274
▁Блинкен	-10.2275
▁Венгрия	-10.2275
▁Полиция	-10.2275
▁качуу	-10.2276
▁болсун	-10.2277
▁төлөм	-10.2279
▁58	-10.2288
▁тизмесин	-10.2289
майга	-10.2297
▁Газада	-10.2299
▁балбан	-10.2309
▁жетүү	-10.2309
▁сың	-10.231
▁Ооба	-10.231
▁убактысы	-10.231
▁ысык	-10.231
жайын	-10.2322
▁жыйындар	-10.2331
▁илдети	-10.2331
▁нерселер	-10.2333
▁L	-10.2333
▁лидерлер	-10.2338
▁ЕАЭБ	-10.234
▁Федер	-10.2345
▁балким	-10.2345
▁тургай	-10.2346
▁кенен	-10.2352
▁соттор	-10.2356
▁гезити	-10.2357
▁милдет	-10.2366
▁киргиз	-10.2369
шо	-10.2371
▁Жети	-10.2376
исттик	-10.2377
▁шартында	-10.2379
▁аныктаган	-10.238
▁Парламент	-10.2384
▁кирешеси	-10.2393
Кыя	-10.2394
▁катыша	-10.2401
▁факт	-10.2405
▁чакырыктар	-10.2409
Ө	-10.2414
▁коопсуздукту	-10.2415
▁калышты	-10.242
▁Булар	-10.2425
v	-10.2428
▁түрүндө	-10.2433
▁дүң	-10.2434
▁материалдар	-10.2445
сентябр	-10.2446
▁кайгы	-10.2447
▁Кул	-10.2451
▁жакындарына	-10.2452
▁салышты	-10.2456
▁келечекте	-10.2456
▁чар	-10.2466
▁психология	-10.2468
▁бал	-10.2478
ио	-10.2483
▁өткөрүүнү	-10.2485
▁2011-	-10.2486
▁даража	-10.2486
▁учагы	-10.2486
▁тааныган	-10.2488
▁аэропорту	-10.2493
▁жаштарды	-10.2496
▁акими	-10.2497
▁ооруканалар	-10.2501
▁Улук	-10.2503
ланышы	-10.2504
▁G	-10.251
▁долбооруна	-10.2518
▁кыргыздарды	-10.2521
▁көрүнүп	-10.2521
▁Адаха	-10.2523
▁дегендей	-10.2523
▁жүргүзүлүп	-10.2524
январ	-10.2525
▁Анткен	-10.2528
▁беришет	-10.2534
изация	-10.2543
▁коро	-10.2548
▁дайындалды	-10.2557
▁Жолдош	-10.2557
▁мамлекеттерде	-10.256
▁катышат	-10.2563
гысы	-10.2564
▁арыздан	-10.2564
▁юрист	-10.2566
17	-10.2567
▁46	-10.2569
▁тазалоо	-10.2569
▁турушу	-10.257
▁атылган	-10.2571
▁алам	-10.2573
▁бөлүн	-10.2586
▁материал	-10.2591
▁жыйырма	-10.2593
▁бузду	-10.2594
▁аймактары	-10.2594
▁камалды	-10.2595
▁айтышат	-10.2602
▁жетекчилер	-10.2606
▁ортомчу	-10.261
▁195	-10.2619
шондуктан	-10.2626
феврал	-10.2628
▁Ноокат	-10.2629
▁Төрт	-10.2629
▁жүр	-10.2629
▁баскыч	-10.2629
▁Мирлан	-10.2632
▁сүйлөшкөн	-10.2638
▁Шам	-10.2638
▁каражаттар	-10.2641
тартыш	-10.2643
▁жүргөнү	-10.2652
▁эркиндигине	-10.2655
▁спортчулар	-10.2657
▁көйгөйлөр	-10.2658
▁кыздарды	-10.2659
есс	-10.266
▁алдыда	-10.2665
▁аныктап	-10.2665
▁каттам	-10.2667
▁Дар	-10.2668
▁таян	-10.267
▁жайына	-10.2674
▁иштеш	-10.2678
▁кошуу	-10.2679
▁формасы	-10.2684
▁курамына	-10.2687
▁жазгандай	-10.2693
▁Гу	-10.2693
▁которулган	-10.2699
▁олимпиада	-10.2702
▁чыгышында	-10.2702
▁кайтыш	-10.2704
▁райондо	-10.2704
▁арасы	-10.2704
▁НАТОну	-10.2705
▁баатыр	-10.2708
▁дарыгерлерди	-10.271
▁Кир	-10.2713
ани	-10.2714
▁жокпуз	-10.2715
▁пункт	-10.2717
▁улантуу	-10.2717
▁кеңей	-10.2717
▁даана	-10.2718
▁оорулар	-10.2718
▁тынчсыздан	-10.2722
▁импорт	-10.2727
▁кылымда	-10.2733
▁күйөө	-10.2733
▁тобокел	-10.2737
▁баңгизат	-10.2738
▁өзгөрүү	-10.2741
▁жокмун	-10.2743
▁материалдык	-10.2744
▁документти	-10.2745
▁спикер	-10.275
▁ыш	-10.2751
▁Ур	-10.2751
▁тыш	-10.2753
▁талдоочу	-10.2754
▁196	-10.2756
▁көйгөйү	-10.2758
▁калыптан	-10.276
▁фактысы	-10.2762
▁Түркмөнстан	-10.2764
▁энеси	-10.2771
▁Айтматов	-10.2772
▁сөздөрдү	-10.2774
▁батыш	-10.2778
▁Асыл	-10.2778
▁кулак	-10.2779
▁бюджетте	-10.2783
▁тизмеси	-10.2788
▁өкүл	-10.2793
▁аларын	-10.2794
▁жүргүзө	-10.2797
▁берилгенин	-10.28
▁сактоого	-10.2803
рей	-10.2804
▁Журналисттер	-10.2809
▁ойго	-10.2813
▁ээлеген	-10.2813
▁Батышты	-10.2813
синде	-10.2814
▁делегация	-10.2815
▁кыргызча	-10.2824
▁жүгүртүү	-10.2824
▁Стамбул	-10.283
▁Наз	-10.2833
▁зарылдыгын	-10.2834
▁бейтаптар	-10.2837
▁Чу	-10.2842
▁өчүрүү	-10.2843
▁дипломат	-10.2844
▁Бей	-10.2844
▁өлгөн	-10.2846
▁Конгресс	-10.2847
▁грант	-10.2848
▁таратуу	-10.2848
▁шаарлары	-10.285
▁кармалышы	-10.285
▁имараттар	-10.2851
Кабар	-10.2851
чулардын	-10.2852
▁төлөй	-10.286
▁жүрөгү	-10.2863
Вагнер	-10.2873
▁жетекчилик	-10.2877
▁1990-	-10.2884
▁Шавкат	-10.2884
▁кенемте	-10.2884
▁түшүнүп	-10.2884
▁диалог	-10.2884
▁жогорулатуу	-10.2884
▁салынат	-10.2884
▁саммити	-10.289
▁тилкелери	-10.2892
▁Арменияны	-10.2894
ышат	-10.2894
▁Байденди	-10.2895
▁күчүндө	-10.2899
▁сөздөрү	-10.2905
▁Кайсы	-10.2906
▁жаңжалда	-10.291
иб	-10.2911
▁E	-10.2913
▁аткаминерлер	-10.2915
▁оңдо	-10.2917
▁компаниялары	-10.2917
▁лерди	-10.2917
▁дарыясы	-10.2919
▁Пригожин	-10.2921
▁жерлерди	-10.2928
▁берилери	-10.2929
▁аракеттерди	-10.2929
▁башын	-10.2931
▁журт	-10.2931
▁токтот	-10.2942
▁көрсөтө	-10.2948
▁чабуулуна	-10.2948
▁мүнөт	-10.2951
▁үнү	-10.2952
▁жайгаштыр	-10.2956
▁күнөөлө	-10.2958
▁мушташ	-10.2959
▁салынды	-10.2959
▁өлкөсү	-10.2961
▁калтырды	-10.2961
дыктар	-10.2963
▁кетсек	-10.2965
▁бербе	-10.297
▁өлтүр	-10.2971
▁базары	-10.298
▁Сай	-10.2984
▁жанындагы	-10.2984
▁өлкөлөрүнө	-10.2985
▁жашында	-10.299
▁ши	-10.299
▁Свердл	-10.2996
▁кесилген	-10.2996
▁коалиция	-10.2996
▁немис	-10.2996
▁депортация	-10.3
▁мамилелер	-10.3004
▁көбөйт	-10.3005
▁тинтүү	-10.3008
▁кадр	-10.3017
▁Кат	-10.3018
▁өнөктөштөрү	-10.302
▁120	-10.3026
▁объект	-10.3032
▁Төлө	-10.3033
▁катышуусу	-10.3037
▁аракеттерин	-10.3038
▁тартылып	-10.304
жылкы	-10.3049
▁үмүттө	-10.3054
▁чыда	-10.3062
▁күтүлүүдө	-10.3071
▁революция	-10.3071
▁ыңгайлуу	-10.3071
▁тизмеге	-10.3074
▁көчүрү	-10.308
▁дүкөн	-10.308
▁камты	-10.3081
▁коюшу	-10.3086
▁болушту	-10.3086
▁станция	-10.3088
▁профессор	-10.3092
▁жолдорун	-10.3092
▁чагылдыр	-10.3102
▁Нурлан	-10.3103
▁келинди	-10.3107
▁азайып	-10.3109
▁багыты	-10.3109
▁2,5	-10.3109
▁каптаган	-10.311
▁улантып	-10.3111
дуулук	-10.3115
▁бериле	-10.3116
▁таануучу	-10.3117
▁кызыкдар	-10.3119
▁57	-10.3125
сия	-10.3129
▁жемкорлук	-10.3147
леген	-10.3147
▁өтүнүч	-10.3151
▁Рахмон	-10.3158
▁Карабак	-10.3158
▁Ис	-10.3167
▁Бал	-10.3171
оф	-10.3176
▁ийгилик	-10.3179
▁дешти	-10.318
▁жоюл	-10.3183
▁Пашинян	-10.3185
▁пневмония	-10.3185
▁Кечээ	-10.3185
▁Михаи	-10.3185
▁эсептелген	-10.3186
▁чогултуп	-10.3186
▁калууда	-10.3194
▁кет	-10.3195
▁депутатты	-10.3196
▁ишмердиги	-10.3197
▁чалып	-10.3199
▁жүргүзүл	-10.32
▁баштаганда	-10.3201
▁казына	-10.3201
▁элчилик	-10.3207
▁жатышы	-10.321
▁катышууда	-10.3215
▁планда	-10.3222
▁коридор	-10.3223
▁тапшырмасы	-10.3225
▁чемпиону	-10.323
ИИМ	-10.3231
▁тилдүү	-10.3231
▁68	-10.3234
▁байкал	-10.3248
▁чыгарууну	-10.3249
▁келтир	-10.325
▁жөнөтүү	-10.3251
▁өскөн	-10.3252
бекова	-10.3257
▁Запорожье	-10.3261
▁КМШ	-10.3261
▁согушкерлер	-10.3261
▁катчы	-10.3263
▁өчүр	-10.3265
▁сүйлөштү	-10.3266
▁колдой	-10.3267
▁бөлө	-10.3274
Ар	-10.3274
▁келиш	-10.3275
өзү	-10.3279
▁Таласта	-10.328
▁күрөштү	-10.3282
▁кишиде	-10.3286
Көлдө	-10.3287
▁камактагы	-10.3289
▁койгонун	-10.329
дөрдүн	-10.3292
▁норма	-10.3294
▁сумма	-10.3299
▁булактарына	-10.3299
▁келтирип	-10.3304
▁көрүнүштөр	-10.3307
▁бекер	-10.3315
▁Нар	-10.3316
▁Дос	-10.3317
▁ишмерлер	-10.3318
▁K	-10.3319
▁иштегендер	-10.332
▁жабдуулар	-10.3324
▁агай	-10.3329
щ	-10.3338
▁маңзат	-10.3338
▁мектеби	-10.3338
▁рыногу	-10.3338
▁архив	-10.3338
▁көтөрүлдү	-10.3338
▁бербөө	-10.3339
▁иниси	-10.3339
▁курулуп	-10.3341
▁министрликти	-10.3348
▁акыйкат	-10.3348
▁аныкталып	-10.3349
▁жылдагы	-10.3351
▁кириши	-10.3355
▁сизди	-10.3357
▁жакыны	-10.3367
▁үлгүсүн	-10.3368
▁кагылышуу	-10.337
▁абактагы	-10.3371
▁саясатты	-10.3377
▁милдети	-10.3378
▁ашыгы	-10.3378
▁жарыялоо	-10.3379
жемиш	-10.338
▁53	-10.338
▁Молдо	-10.3381
▁экспорт	-10.3384
▁кошумчалаган	-10.3384
▁үлүшү	-10.3395
▁доллары	-10.3397
▁талапкерлигин	-10.3397
▁оюндар	-10.3404
▁чарасын	-10.3407
▁татык	-10.3409
▁чабуулдары	-10.3411
▁эвакуация	-10.3413
▁коомчулугу	-10.3416
▁чө	-10.3417
▁жергесинде	-10.3419
▁камоо	-10.342
▁өзүндө	-10.3423
▁колдоно	-10.343
▁компанияларды	-10.3431
▁Темиров	-10.3432
▁акчасы	-10.3434
▁түшүр	-10.3435
▁үз	-10.3436
дегенде	-10.3437
▁облус	-10.344
▁Биринчиден	-10.3444
▁бети	-10.3444
Эл	-10.3449
▁Энергетика	-10.3455
▁жүрүм	-10.3455
▁азайган	-10.3455
▁Өзгөн	-10.3457
▁жолукту	-10.3461
▁тапшырып	-10.3465
үлгөн	-10.3469
▁чыгым	-10.3477
▁Документ	-10.3478
▁Аксы	-10.3481
▁мак	-10.3484
▁узун	-10.3486
▁айтылгандай	-10.3488
▁үстүндө	-10.3489
▁800	-10.349
▁жетишсиз	-10.3493
▁вакцинаны	-10.3494
▁Бекешев	-10.3494
▁казуу	-10.3495
▁зона	-10.3495
▁отуз	-10.3495
▁талкаланган	-10.3498
▁52	-10.3498
▁болбогонун	-10.3499
▁Ороз	-10.3501
▁тандап	-10.3502
▁демек	-10.3505
ель	-10.3506
▁бирөөнү	-10.351
ээ	-10.3515
▁ташы	-10.3517
▁Париж	-10.3518
▁Орусиялык	-10.3519
▁тендер	-10.3521
▁Ру	-10.3524
▁Абаны	-10.353
▁Тарых	-10.3533
▁Ливан	-10.3534
▁кылын	-10.3534
▁белгилегендей	-10.3537
▁булактар	-10.3539
▁дарыланып	-10.3539
▁ачылышы	-10.354
▁жайылып	-10.3547
▁көзөмөлдөп	-10.3549
▁коопсуздугуна	-10.3549
▁өкмөттөр	-10.3554
▁ынын	-10.3558
▁болушкан	-10.3565
▁аткара	-10.3565
▁Грузия	-10.3565
▁суммасы	-10.3565
▁Нурбек	-10.3569
Элдик	-10.3571
▁сурамжылоо	-10.3573
▁болбош	-10.3573
▁буудай	-10.3573
▁таанымал	-10.3574
▁Никол	-10.3577
▁идея	-10.3581
▁сатылып	-10.3582
омдук	-10.3584
▁органдарды	-10.3595
▁түшөт	-10.3595
▁урган	-10.36
▁жоочулар	-10.3605
▁мас	-10.3609
▁Боронов	-10.3613
▁өнүгүшү	-10.3613
▁дарегин	-10.3616
▁Кожо	-10.3616
▁Кадыров	-10.3617
▁чыгарыш	-10.3623
▁Ло	-10.3625
▁Мамбет	-10.3628
▁өт	-10.3629
▁базарлар	-10.363
▁жыйынтыгына	-10.3635
лашкан	-10.3636
▁көздө	-10.3642
▁арал	-10.3643
▁Ирак	-10.3647
▁зор	-10.3652
▁шылтоо	-10.3652
▁эшик	-10.3653
▁которгон	-10.3657
▁алсак	-10.3657
▁бүтө	-10.3657
G	-10.3665
L	-10.3665
▁жылкы	-10.3672
▁жеңүүчү	-10.3692
▁Жаныбек	-10.3697
▁Пер	-10.3704
▁федерациясы	-10.3719
фер	-10.3729
▁балам	-10.373
ля	-10.3731
▁Сулайманов	-10.3733
▁негиздөөчүсү	-10.3733
▁токтотулган	-10.3733
▁курмандыктары	-10.3739
▁билин	-10.3744
▁Болгон	-10.3747
▁56	-10.3747
▁Исмаилов	-10.375
▁бөлүмүнө	-10.375
▁сайттар	-10.3752
▁тандал	-10.376
▁соккулар	-10.3761
штырып	-10.3763
үмдүк	-10.3764
▁Куба	-10.3767
▁Банк	-10.3767
▁күрөшү	-10.377
▁өлкөлөрүндө	-10.3775
▁кайткан	-10.3778
▁кириш	-10.3787
▁башталганын	-10.3787
▁байланышты	-10.3787
▁мамилени	-10.379
▁кылганын	-10.3792
▁өтөп	-10.3796
▁сайт	-10.3805
▁фи	-10.3806
▁кабылганын	-10.3807
▁оңдоп	-10.3809
ov	-10.3809
▁кыйынчылыктар	-10.381
Петербург	-10.3813
▁кемчиликтер	-10.3814
▁2009-	-10.3814
▁жугуш	-10.3814
▁сай	-10.3814
▁диплом	-10.3815
▁камалып	-10.3815
▁арбын	-10.3817
▁талкууланып	-10.3818
it	-10.3823
Биримдик	-10.3825
▁сотуна	-10.3826
дил	-10.3836
▁62	-10.3844
бор	-10.3845
▁куру	-10.3845
эки	-10.3847
▁Пакистанды	-10.3857
▁кошулуп	-10.3859
▁курчуп	-10.3859
▁түшүнө	-10.386
▁Кант	-10.3861
Башы	-10.3863
▁имаратты	-10.3863
▁в	-10.3863
▁өнөктөш	-10.3868
▁эрежеси	-10.3872
▁мыйзамдарын	-10.3875
▁демонстранттар	-10.3876
▁кетир	-10.389
▁тарт	-10.3892
▁Астана	-10.3894
▁Макрон	-10.3895
▁ачкачылык	-10.3895
▁Үчүнчү	-10.3895
▁түштүгүндө	-10.3895
▁ураан	-10.3895
град	-10.3896
▁күйүп	-10.3896
▁иликтөөлөр	-10.3897
▁өзгөрүшү	-10.3897
▁Турсун	-10.39
▁чараларын	-10.3904
▁77	-10.3907
▁орунду	-10.3907
▁сунушталган	-10.3908
▁оозу	-10.3915
▁ант	-10.3916
▁поли	-10.3922
▁аянт	-10.3923
рав	-10.3926
▁аппараты	-10.3929
▁турчу	-10.3936
▁санарип	-10.3936
▁беларус	-10.3936
▁резолюция	-10.3936
▁дайындоо	-10.3937
▁жобо	-10.3942
▁козгогон	-10.3942
▁оппозициячы	-10.3949
▁Дарыгерлер	-10.395
▁Сенат	-10.3959
▁Саясат	-10.3966
▁ого	-10.3966
▁баштоо	-10.3966
▁алектен	-10.3971
▁пайдалуу	-10.3975
▁Бабанов	-10.3977
▁эскертип	-10.3977
▁өлчөмдө	-10.3981
ентсе	-10.3982
деген	-10.3983
▁бирден	-10.3984
▁кама	-10.3984
▁мейманкана	-10.3986
▁Акча	-10.3989
▁конуш	-10.399
▁тополоң	-10.3992
▁окуучулар	-10.3996
▁/	-10.3999
▁беренелери	-10.4002
▁Санк	-10.4003
▁катышканы	-10.4005
чараларды	-10.4007
▁башкарууну	-10.4014
▁автору	-10.4016
▁Зулушев	-10.4018
▁жигердүү	-10.4018
▁коркутуп	-10.4018
▁түркмөн	-10.4019
▁жапа	-10.4019
▁нааразылыгын	-10.4019
ыбызды	-10.4019
▁намаз	-10.402
es	-10.4021
▁эрежелерин	-10.4022
▁Британияда	-10.4027
▁кабарчылар	-10.4027
▁Алтын	-10.4031
▁салмак	-10.4033
▁ача	-10.4038
▁айыптоолор	-10.4042
▁сунуштар	-10.4044
▁биле	-10.4047
▁тилине	-10.4048
▁арты	-10.4048
▁эже	-10.4055
▁уюмдары	-10.4055
▁ылдамды	-10.4055
▁Баку	-10.4056
▁күнөө	-10.4056
▁такси	-10.4059
▁63	-10.4059
▁Иликтөө	-10.406
▁ажыратылган	-10.406
▁англис	-10.406
▁ачылып	-10.406
▁барса	-10.406
▁чамасы	-10.4065
▁Жал	-10.4066
▁жайылышы	-10.4067
Коргон	-10.4068
▁жатышкан	-10.4068
▁ассоциациясы	-10.4072
▁гр	-10.4079
▁энергия	-10.4079
▁инсан	-10.4081
▁чогултуу	-10.4084
▁дерди	-10.4087
▁мээ	-10.4101
▁ырастаган	-10.4102
▁Вирус	-10.4102
▁сарпта	-10.4102
▁Реже	-10.4103
циялык	-10.4103
▁Пи	-10.4104
▁түзүлдү	-10.4104
▁шайлоочулар	-10.4105
▁чыгарылып	-10.4107
▁тилек	-10.4107
▁бүтүп	-10.4107
▁аянтча	-10.4108
▁окуй	-10.4108
▁тилдер	-10.411
▁соолугуна	-10.4113
▁дууш	-10.4113
▁Көз	-10.4119
▁аталышы	-10.4127
▁окуялары	-10.4129
▁эместигин	-10.4129
чо	-10.414
at	-10.4141
▁сүйлөш	-10.4141
▁Испания	-10.4143
▁жетишпей	-10.4143
▁моралдык	-10.4143
▁ноябрь	-10.4143
▁кыдырып	-10.4147
+	-10.4149
▁250	-10.415
▁район	-10.4151
▁мигранттары	-10.4154
▁топтоп	-10.4155
▁казы	-10.4162
▁мекемелерди	-10.4162
▁рол	-10.4167
▁акысыз	-10.4169
▁төрөт	-10.417
▁Кореяны	-10.418
▁өткөнүн	-10.4181
▁күткөн	-10.4185
▁өзбекстандык	-10.4185
▁жарнама	-10.4185
▁коркутуу	-10.4185
▁Но	-10.4186
▁чектелген	-10.4187
▁тайпа	-10.4187
▁балык	-10.4187
уд	-10.4187
▁ашпай	-10.4188
▁бойлуу	-10.4192
▁Кийинки	-10.4194
▁жайылтуу	-10.4197
▁рейд	-10.4207
▁Маалыматта	-10.4212
▁дүкөндөр	-10.4218
улла	-10.4227
▁интервью	-10.4228
▁тажикстандык	-10.4228
▁өсүшү	-10.4228
▁тартыштыгы	-10.4229
▁ымды	-10.423
▁кесепетине	-10.4246
▁окумуштуу	-10.4246
▁экендиги	-10.4247
▁инде	-10.4254
▁күрөшкө	-10.4255
▁жалдан	-10.4258
каналар	-10.4262
▁компаниясына	-10.4265
▁университет	-10.4265
el	-10.4269
▁анклав	-10.427
▁чыңдоо	-10.427
▁2008-	-10.427
▁жакырчылык	-10.4271
▁салат	-10.4276
▁жоголгон	-10.4277
▁тартыл	-10.4279
▁жүргөндө	-10.4284
лерде	-10.4284
исттер	-10.4287
▁чабуулу	-10.4289
K	-10.4291
▁тургандай	-10.4291
▁автоунаалар	-10.4295
▁сүр	-10.4297
▁араб	-10.4299
▁Молдова	-10.4306
▁коркунучтуу	-10.4308
▁кылышы	-10.4308
▁Чехия	-10.4313
▁төңкөрүш	-10.4313
▁O	-10.4317
▁чечкен	-10.4321
▁азап	-10.4322
▁чабуулдар	-10.4323
▁ишканаларды	-10.433
▁Кары	-10.4332
▁кризисти	-10.4334
▁толкуну	-10.4335
▁божомол	-10.4336
▁сүрөттө	-10.4337
▁жарыгы	-10.4345
▁мектептерди	-10.4345
30	-10.4346
▁табыш	-10.4348
Твиттер	-10.4353
▁уюш	-10.4353
▁экинчиси	-10.4354
▁рейтинг	-10.4355
▁Айсулуу	-10.4355
▁Кубатбек	-10.4356
▁жагдайды	-10.4357
▁конференция	-10.4359
24	-10.4362
▁66	-10.4367
▁академия	-10.437
▁каражаттарды	-10.4385
▁адатта	-10.4387
▁митингдер	-10.4388
▁жашай	-10.4388
▁коррупцияны	-10.4392
▁Фейсбук	-10.4397
▁Сокулук	-10.4398
▁кастык	-10.4398
▁Көлбаев	-10.4399
▁маалымдалды	-10.4401
▁Ая	-10.4401
▁фирма	-10.4402
▁судьясы	-10.4403
▁Жанар	-10.441
▁Францияны	-10.4412
▁бирикмеси	-10.4419
▁позициясын	-10.4422
▁талкала	-10.4427
▁десем	-10.4427
▁ыры	-10.4437
▁каралат	-10.4437
▁Австралия	-10.4441
▁Премьер	-10.4441
▁күрөшүп	-10.4442
▁билебиз	-10.4443
▁аймактарына	-10.4444
▁ит	-10.4447
▁долбоорлору	-10.4452
▁пол	-10.4454
жарты	-10.4455
▁жүргүзүүгө	-10.4456
▁суусу	-10.4456
▁бөлүмүндө	-10.4461
▁турам	-10.4462
▁илдетине	-10.4463
▁турмушу	-10.447
▁чеч	-10.447
▁кору	-10.447
▁Экс	-10.4475
▁технологиялар	-10.4477
▁төлөмдөр	-10.4478
▁досу	-10.4478
▁жагдайда	-10.4479
▁салтанат	-10.4485
▁Бийик	-10.4485
▁өлүп	-10.4485
▁Абду	-10.4487
▁атаандаш	-10.4487
▁Эне	-10.4488
▁начарлап	-10.4491
▁айлыгы	-10.4495
▁баратканын	-10.4497
▁ойноп	-10.4498
li	-10.4499
18	-10.45
▁баалап	-10.4503
▁берүүчү	-10.4505
▁талаптарды	-10.4511
▁материалдары	-10.4515
▁жыр	-10.4515
▁кыскарт	-10.452
▁ымыркай	-10.4528
▁Оппозиция	-10.4528
▁Кийинчер	-10.4528
▁каалай	-10.4529
▁кургак	-10.453
▁үр	-10.4531
▁чатыр	-10.4533
▁Алматыда	-10.4541
▁процесси	-10.4541
▁колдоду	-10.4542
▁кылганы	-10.4542
▁51	-10.4549
▁кабылды	-10.455
БШК	-10.4552
▁ыкмасы	-10.4553
▁губернатору	-10.4561
▁аппаратты	-10.4566
▁интеграция	-10.4572
▁Жолугушуу	-10.4572
▁өнүккөн	-10.4572
▁министрлер	-10.4574
▁маалымдалган	-10.4575
▁толуп	-10.4577
▁ыктыярчылар	-10.4577
▁биримдик	-10.4577
▁агымы	-10.4583
шкен	-10.4583
▁кезегин	-10.459
▁парламенти	-10.4594
дыктан	-10.4595
▁чыккандарды	-10.4596
▁Канат	-10.4596
▁совет	-10.46
▁дайынд	-10.4608
▁эпидемиология	-10.461
▁көрсөтөт	-10.461
▁чечиле	-10.4615
▁Интернетте	-10.4615
▁Комиссия	-10.4616
▁түндүгүндө	-10.4616
▁кыйналып	-10.4616
▁көчкү	-10.4618
▁атышат	-10.4625
▁дөр	-10.4627
▁Калы	-10.4634
▁лагерлер	-10.464
▁дос	-10.464
▁ашырыл	-10.464
▁буту	-10.4646
25	-10.4651
▁билдирүүлөр	-10.4655
▁чакырыл	-10.4655
лас	-10.4656
▁дөй	-10.4656
▁Швеция	-10.466
▁эпидемия	-10.466
▁жатышты	-10.466
▁таймаш	-10.466
▁бейтаптарды	-10.4661
▁түзүлүш	-10.4661
▁негизделген	-10.4662
▁бийликтеги	-10.4662
▁колония	-10.4663
▁өкмөттө	-10.4672
▁текст	-10.4676
▁октябрда	-10.4679
▁изилдеп	-10.4679
▁активисттерди	-10.4682
▁Мур	-10.4686
▁далай	-10.4688
▁аныкталганын	-10.4688
▁карызы	-10.4694
▁тараптарды	-10.4699
▁Про	-10.4701
▁ыраазы	-10.4702
▁кесиптештери	-10.4702
▁сөөк	-10.4703
▁Швейцария	-10.4704
▁дүйшөмбү	-10.4704
▁ипотека	-10.4704
▁шектелип	-10.4704
▁Активист	-10.4704
▁кызматташтыгы	-10.4704
▁белгилешет	-10.4706
▁калыптыр	-10.4709
▁ыктымалдыгы	-10.4711
▁жерлеринде	-10.4715
▁жакты	-10.4717
▁жолугушуулар	-10.4719
▁Кел	-10.4721
▁койгону	-10.4721
▁станциясы	-10.4722
Ве	-10.4729
▁ло	-10.4735
▁инвесторлор	-10.4738
▁эте	-10.474
▁кийлигиш	-10.4742
▁Арабиясы	-10.4749
▁мобил	-10.4749
▁авторлору	-10.475
▁билбейм	-10.475
▁макулдугу	-10.4752
▁өндүрүштү	-10.476
▁Саясатчы	-10.476
▁67	-10.4762
▁багын	-10.4764
▁куур	-10.4765
▁кайтарыл	-10.4768
▁өндүр	-10.4776
▁Осмонов	-10.4776
▁боз	-10.4778
▁тынчсыздануусу	-10.4779
▁түзүүнү	-10.478
граф	-10.4786
▁Мариупол	-10.4793
▁салымы	-10.4794
▁калп	-10.4798
▁кеңейтүү	-10.4798
▁нике	-10.4798
▁жасалып	-10.4799
▁Ушуну	-10.4804
юу	-10.4806
иза	-10.4807
Ош	-10.4808
▁ыргыт	-10.4808
▁калгандар	-10.4809
▁адистери	-10.4814
▁чалды	-10.4817
▁ңуз	-10.4817
▁тергөөчү	-10.4818
▁тартипте	-10.4821
▁макам	-10.4825
▁Адилет	-10.4834
▁ТИМ	-10.4835
▁Минск	-10.4836
▁Токмок	-10.4838
▁өкүлчүлүгү	-10.4838
момали	-10.4838
▁отурумун	-10.4844
▁күтүү	-10.485
▁нарк	-10.485
▁салууда	-10.4853
▁билүү	-10.4854
▁упай	-10.4854
▁сентябрда	-10.4859
▁мезгилинде	-10.4869
▁ХАМАСты	-10.487
▁күрөштө	-10.487
▁күл	-10.4872
шууда	-10.4876
▁электигин	-10.4879
▁саясатчыларды	-10.4879
▁булактары	-10.488
▁объектилер	-10.4881
▁73	-10.4883
▁отургуз	-10.4883
▁санап	-10.4884
▁жыйынтыкта	-10.4886
▁диги	-10.4886
▁бөлүгүндө	-10.4892
27	-10.4894
▁76	-10.4894
▁аянтында	-10.4896
▁ичип	-10.4898
40	-10.4903
▁өтөрү	-10.4912
▁байма	-10.4916
▁лор	-10.4918
▁жумушу	-10.4921
▁чөйрөсүн	-10.4923
▁ниетин	-10.4925
▁түшүндүргөн	-10.4928
▁Литва	-10.4928
▁тиркеме	-10.4928
▁кийинчер	-10.4928
▁өзгөрүп	-10.4931
▁жабылып	-10.4935
▁чакырык	-10.4939
▁ташта	-10.4941
▁шайлоолор	-10.4942
▁талапкерди	-10.4944
▁бергенде	-10.4951
▁эмдел	-10.4956
▁аяктап	-10.4956
▁өтүүдө	-10.4957
▁Назарбаевди	-10.4961
▁чектөөлөрдү	-10.4964
▁күбөлөр	-10.4973
▁жабырлануучу	-10.4974
▁киргизилип	-10.4974
▁өнүгүп	-10.4974
▁талкууланды	-10.4974
▁тумоо	-10.4974
▁Борис	-10.4974
▁бычак	-10.4974
▁тактаган	-10.4979
бери	-10.4979
мөк	-10.4981
le	-10.4983
▁укугуна	-10.4989
▁форум	-10.4996
▁Ги	-10.4998
▁көтөр	-10.5003
▁Кас	-10.5003
▁институттар	-10.5007
▁сынын	-10.501
▁көрсөткүчү	-10.5012
▁кыргыздын	-10.5013
▁баалады	-10.5019
▁бузулуп	-10.5021
▁токтогон	-10.5022
▁караса	-10.5024
▁ойлогон	-10.503
▁көбөйө	-10.5033
▁көрдү	-10.5042
елерки	-10.5049
▁салыкты	-10.5051
▁баяндамасын	-10.5051
▁телеканал	-10.5052
et	-10.5052
▁көрбөй	-10.5053
▁64	-10.5054
▁агасы	-10.5055
▁уул	-10.5057
▁келечек	-10.5057
▁мелдештер	-10.5059
▁каттамдар	-10.5061
аракет	-10.5061
▁угуу	-10.5066
▁Демократия	-10.5066
▁жарыяланып	-10.5067
▁кеңештер	-10.5068
▁жүрүшөт	-10.5069
▁автоунааларды	-10.507
▁материалдарды	-10.508
▁кармалганы	-10.5087
▁жардамды	-10.5093
▁британ	-10.511
▁мунапыс	-10.5111
▁сарай	-10.5112
▁өзгөртүп	-10.5114
▁борборлору	-10.512
▁ишкердик	-10.5123
▁палата	-10.5123
▁барышы	-10.5123
▁кайтар	-10.5131
лыш	-10.5131
▁жээгинде	-10.5133
▁Стамбулда	-10.5133
▁көч	-10.5134
▁жарыя	-10.5138
▁кайрыл	-10.514
▁киргизүүнү	-10.5141
▁Индияда	-10.5145
▁Мал	-10.515
▁келтире	-10.5154
▁ашат	-10.5154
▁Уюмду	-10.5156
▁уйгур	-10.5157
▁Сербия	-10.5157
▁ашкере	-10.5157
намыс	-10.516
▁чыгууну	-10.5162
▁тартканы	-10.5162
▁алектенген	-10.5162
▁илдетти	-10.5165
▁токтото	-10.5169
▁окуяларына	-10.517
▁мажбурла	-10.5174
▁Абдул	-10.5174
▁аралашып	-10.5175
▁көйгөйлөрдү	-10.5184
▁чечимдерди	-10.5184
▁адамзат	-10.5185
▁Исаев	-10.5186
▁билем	-10.5196
▁кези	-10.5197
▁Киевди	-10.5198
▁Байсалов	-10.5204
▁Транспорт	-10.5204
▁машыктыруучу	-10.5204
▁түшүндүрүп	-10.5204
токмок	-10.5204
▁кыянаттык	-10.5205
▁адилеттүү	-10.5207
▁тариф	-10.5209
▁шаарларда	-10.521
▁лери	-10.5211
▁кыйынчылык	-10.5214
▁Дэ	-10.5219
▁95	-10.522
▁Турду	-10.5224
▁ишкананы	-10.5224
▁өкмөтүнө	-10.5225
▁табылганы	-10.5226
▁калаада	-10.5229
▁тиреш	-10.523
▁көрсөткүчтөр	-10.5236
▁Кош	-10.524
ансыз	-10.524
▁аралы	-10.5241
▁окуяларда	-10.5246
▁муктаждык	-10.5246
▁Төрө	-10.5247
еми	-10.5248
▁аткезчилик	-10.5251
▁Жумуш	-10.5251
▁Канча	-10.5254
▁маалыматтары	-10.5258
▁салганы	-10.5264
▁жабыл	-10.5264
▁инфекциясы	-10.5264
▁Акматов	-10.5266
▁калышкан	-10.5269
Чоң	-10.5285
Абадда	-10.5286
▁сол	-10.5288
▁сунуштап	-10.5289
инче	-10.529
▁суроосун	-10.5293
ушту	-10.5297
▁Союзу	-10.5298
▁кылдат	-10.5298
▁аркы	-10.5301
om	-10.5302
▁кечки	-10.5303
▁кабатыр	-10.5303
▁Илим	-10.5307
▁ондо	-10.5307
▁Ши	-10.5309
▁79	-10.5309
▁узартыл	-10.5311
▁канааттандыр	-10.5312
▁театры	-10.5315
▁майрамы	-10.532
▁бошот	-10.532
гиле	-10.5324
▁жолдору	-10.5324
▁учурлары	-10.5328
казак	-10.5329
▁нерселерди	-10.5338
▁өткөнү	-10.5339
▁чечти	-10.5342
▁наркы	-10.5343
▁табият	-10.5345
табигый	-10.5345
▁коркуп	-10.5345
▁топтолгон	-10.5346
▁которуп	-10.5346
▁Марипов	-10.5348
саат	-10.5348
▁зордуктоо	-10.5349
▁учураган	-10.535
▁жакыр	-10.5355
▁чачы	-10.5356
▁өнүм	-10.5356
▁интернетте	-10.5357
▁миссиясы	-10.5365
▁Гр	-10.5371
зия	-10.5374
ье	-10.5377
▁элине	-10.5377
▁билими	-10.538
▁району	-10.5383
▁дарылануу	-10.5385
▁айтпай	-10.5388
x	-10.5392
▁бекитилген	-10.5392
▁ишемби	-10.5392
▁Виктор	-10.5392
▁фильм	-10.5392
▁бергиле	-10.5393
▁өкүлдөрүнө	-10.5393
▁кетпей	-10.5393
▁сиңир	-10.5395
▁кардарлар	-10.5397
▁урулган	-10.5398
▁бүткү	-10.5402
▁тыным	-10.5402
▁укту	-10.5405
▁көзөмөлүндө	-10.5407
▁Reuters	-10.5408
▁калың	-10.5409
▁божомолдо	-10.5414
▁принциптер	-10.5414
▁жаткандарды	-10.5415
▁киргизди	-10.5417
▁авиация	-10.542
▁карайт	-10.542
▁алсыз	-10.5423
▁Март	-10.5424
▁дарыя	-10.543
▁өстү	-10.5433
▁камсыздандыруу	-10.544
▁тийип	-10.544
▁Ташиевди	-10.544
▁майнап	-10.5441
▁чыгарылды	-10.5444
▁максатта	-10.5444
▁армян	-10.5444
▁окуучулары	-10.5446
▁киришкен	-10.5448
▁Айрыкча	-10.5452
▁жоопкерчилигине	-10.5458
▁адвокаттары	-10.5463
▁The	-10.5465
▁чечимдер	-10.5468
▁кимдир	-10.5483
▁жаңылыктар	-10.5484
▁Акжол	-10.5488
▁тигүү	-10.5488
▁Кө	-10.549
▁Бактыбек	-10.5492
фф	-10.5493
▁чекит	-10.5494
▁товарлар	-10.5495
▁видеосу	-10.5501
▁кырсыкта	-10.5503
▁Аялдар	-10.5505
▁59	-10.5505
▁дарек	-10.5507
▁84	-10.5513
▁Лукашенкону	-10.5519
▁Алтынбек	-10.552
▁бөлүштү	-10.5524
▁кылыш	-10.5534
▁кетүүнү	-10.5534
▁Токтакунов	-10.5536
▁артиллерия	-10.5536
▁офицер	-10.5536
▁өндүрүлгөн	-10.5536
▁атаандаштык	-10.5539
▁саналуу	-10.554
▁мектептерде	-10.5541
▁токтотууну	-10.5541
Кара	-10.5542
Ордо	-10.5546
▁Сирияны	-10.5548
▁каражаттарына	-10.5557
лый	-10.5563
▁кылууну	-10.5567
каршы	-10.5574
▁окшо	-10.5575
▁Түркмөнстанды	-10.5581
]	-10.5584
▁ошончо	-10.5584
▁Мырза	-10.5584
▁түтүн	-10.5585
▁[	-10.5586
▁табылып	-10.5589
▁толгон	-10.5592
▁көтөрдү	-10.5597
түгүл	-10.5605
▁сатылган	-10.561
▁алынганы	-10.562
▁баалар	-10.5621
БУУ	-10.5623
▁1000	-10.563
▁космос	-10.5633
▁жеткирип	-10.5633
▁Акаевди	-10.5633
▁Экөө	-10.5633
▁төртүнчү	-10.5633
▁Алымка	-10.5633
▁альянс	-10.5634
▁ыраазычылык	-10.5634
▁жабдыктар	-10.5636
▁ооругандар	-10.5637
▁аша	-10.5638
▁Жара	-10.5644
кече	-10.5644
▁кайтарылган	-10.5656
бүлөнү	-10.5661
▁саясатка	-10.5662
▁эмнеде	-10.5674
▁бөлүш	-10.5674
▁чөп	-10.5675
▁чыгымдар	-10.5675
орус	-10.5676
▁1991-	-10.5681
▁Нарматова	-10.5681
▁категория	-10.5681
▁тарапкерлери	-10.5681
▁Январ	-10.5681
▁берилиши	-10.5681
▁Жыйынтыгы	-10.5683
▁сүйү	-10.5683
▁чатак	-10.5685
▁тартипти	-10.5687
▁жайыт	-10.5695
▁бүтүм	-10.5695
сатык	-10.5698
▁кени	-10.5699
▁талкуулап	-10.5701
▁жайларга	-10.5703
▁кыялы	-10.5704
▁аларда	-10.5706
▁баалуулуктар	-10.5707
▁Иса	-10.5708
▁өзүмдү	-10.5715
▁долларда	-10.5715
▁изи	-10.572
▁режимде	-10.5725
▁кайталан	-10.5726
▁албаса	-10.5726
▁ырлары	-10.5726
▁бирөөлөр	-10.5729
▁продукция	-10.573
▁резерв	-10.573
▁босого	-10.573
▁терроризм	-10.5731
Клооп	-10.5731
▁чакта	-10.5732
▁консулдук	-10.5732
ing	-10.5733
▁коюлганы	-10.5733
▁козгоп	-10.5736
▁чогулт	-10.5738
▁61	-10.5738
▁башчыны	-10.5742
▁жүрүшкө	-10.5743
▁карызды	-10.5748
▁денеси	-10.5751
▁маркумду	-10.5754
ью	-10.5756
▁айылдык	-10.5761
атышууну	-10.5767
Фейсбук	-10.577
▁иретинде	-10.5771
З	-10.5772
тест	-10.5772
▁транзит	-10.578
▁ресторан	-10.578
▁чечкиндүү	-10.578
▁Убакты	-10.578
▁компьютер	-10.578
▁билбеген	-10.5782
▁Иманалиев	-10.5787
▁жамаат	-10.5787
▁органы	-10.5788
раф	-10.5788
▁асыл	-10.579
▁78	-10.5793
▁97	-10.5793
▁Сер	-10.5806
▁акциясына	-10.5807
▁жары	-10.581
▁эрежелерди	-10.5811
▁суз	-10.5812
▁отуруш	-10.5812
▁жумушчулар	-10.5812
▁берчү	-10.5814
▁Кочкор	-10.5815
Бишкек	-10.5821
▁сүрөттөр	-10.5822
▁уюмуна	-10.5823
▁тарыхчы	-10.5828
▁муз	-10.5828
▁Евгени	-10.5829
▁Египет	-10.5829
▁конкрет	-10.5829
▁түшүрүлгөн	-10.583
▁кулап	-10.5832
▁акыны	-10.5834
▁төрө	-10.5835
▁алмашты	-10.5836
▁сиздер	-10.5839
октябрында	-10.584
▁билдирүүсүнө	-10.5842
канов	-10.5843
▁конуштар	-10.5847
▁коргой	-10.5847
апрелдеги	-10.5848
▁системасына	-10.5853
▁Нас	-10.5855
▁Штаттарды	-10.5857
am	-10.5858
дашуу	-10.5859
үмдү	-10.5862
▁атаандашы	-10.5868
▁Асел	-10.587
▁Лу	-10.5877
▁салынып	-10.5879
▁чечмеле	-10.5879
▁соодагерлер	-10.5879
▁ишенбей	-10.5882
▁Кам	-10.5888
▁кыскартуу	-10.5891
▁жүргүнчү	-10.5894
▁салышкан	-10.5901
▁басылма	-10.5901
▁кырсыгына	-10.5908
▁адистерди	-10.5912
декабрын	-10.5915
▁пайдасы	-10.5919
▁мүнөз	-10.5921
V	-10.5921
▁кылбай	-10.5922
сагын	-10.5927
▁коюш	-10.5928
▁убак	-10.5929
▁News	-10.5929
▁түшүнүү	-10.5929
▁2000-	-10.5929
▁Сариев	-10.593
▁күтүүсүз	-10.593
▁окуясына	-10.5934
▁каттамы	-10.5938
▁көрдүк	-10.5944
▁бүттү	-10.5948
▁комплекси	-10.5948
▁Зар	-10.5955
▁72	-10.5955
▁Миң	-10.5955
▁токтотту	-10.5956
▁кошулуу	-10.5959
▁үчтө	-10.5959
▁193	-10.596
▁провинциясында	-10.5962
▁акыйкатчы	-10.5966
▁кайрыла	-10.5966
▁клуб	-10.5969
U	-10.5973
▁мониторинг	-10.5979
▁кайдыгер	-10.5979
▁Балыкчы	-10.5979
▁кыйылган	-10.5979
▁авария	-10.598
▁Тургун	-10.598
▁эсептешет	-10.598
▁аныктай	-10.598
▁Компания	-10.5983
▁тартууну	-10.5984
▁алмашкан	-10.5986
▁69	-10.5993
▁кызыктуу	-10.5993
▁дипломаттар	-10.5995
Ала	-10.5998
▁фракция	-10.6002
▁доору	-10.6007
▁каналдар	-10.6008
▁башкаруучу	-10.6011
ыраак	-10.6016
▁жатабы	-10.602
эй	-10.602
▁жерлери	-10.602
▁кылымды	-10.6021
▁Песков	-10.603
▁европалык	-10.603
▁дыйкандар	-10.6032
▁талибдерди	-10.6034
чарчы	-10.6038
▁тийгизген	-10.604
▁видеодо	-10.6043
▁майып	-10.6043
▁телефондо	-10.6044
▁кубан	-10.6045
▁президенттери	-10.6053
▁тоолор	-10.6056
▁Канатбек	-10.6057
талып	-10.6068
▁Ком	-10.6074
▁журналисти	-10.6075
богон	-10.6075
▁дыйкан	-10.6078
▁баракчалар	-10.608
▁ишмердүүлүгүн	-10.6086
▁айылдары	-10.6091
▁көчөлөр	-10.6093
▁кубатт	-10.6098
▁бербеген	-10.6101
▁тынчсыздануу	-10.6117
ation	-10.6121
▁жак	-10.6122
▁боору	-10.6122
▁дук	-10.6127
▁чечил	-10.6128
▁маараке	-10.6131
▁экстремизм	-10.6131
▁талкуулады	-10.6132
▁чалгындоо	-10.6133
▁Петр	-10.6133
▁аткарылышы	-10.6134
▁жардамчысы	-10.6141
▁Рай	-10.6163
анов	-10.6167
▁фондуна	-10.6168
ех	-10.6169
▁кызматында	-10.617
▁системаны	-10.6171
▁штат	-10.6176
▁ишмердүүлүгү	-10.6177
опол	-10.6181
▁газды	-10.6181
тешкен	-10.6181
▁жыйынына	-10.6182
▁Бахмут	-10.6183
▁падыша	-10.6183
▁ынтымак	-10.6183
Апрель	-10.6183
▁Жонсон	-10.6183
▁достору	-10.6183
▁химия	-10.6183
▁жаратат	-10.6183
▁чечиш	-10.6183
▁коргогон	-10.6186
▁жапон	-10.6189
▁Аял	-10.619
▁өлтүргөн	-10.6191
▁талкуулаган	-10.6194
▁Лондон	-10.6204
▁курсу	-10.6206
▁пландалган	-10.6206
▁Шо	-10.6208
▁Шаардык	-10.6218
▁кеткендер	-10.6222
▁юристтер	-10.6222
▁айтпа	-10.6222
▁жиберди	-10.6227
▁коёт	-10.6232
▁акционер	-10.6234
▁түшүнбөй	-10.6234
▁өздөштүр	-10.6234
▁тосмо	-10.6234
▁Ереван	-10.6234
▁Тайван	-10.6235
▁Максим	-10.6236
▁өлтүрүп	-10.6237
▁күзөт	-10.6238
▁жазылат	-10.6238
▁Пакистанда	-10.6238
▁арачылары	-10.6238
▁колдонулуп	-10.6239
▁оюндарына	-10.6239
▁иштетип	-10.624
▁күй	-10.624
▁ңүз	-10.6241
Достук	-10.6244
▁блогерлер	-10.6245
▁берем	-10.6246
▁такталган	-10.625
бүлөсүнө	-10.6251
▁кылгандар	-10.6257
туруму	-10.6264
▁чечимдери	-10.6275
▁Эксперттер	-10.6278
▁жарандыгы	-10.6286
▁брифинг	-10.6286
▁масштабдуу	-10.6286
▁ток	-10.6292
▁аэропорт	-10.6293
▁жолдомо	-10.6294
▁суранган	-10.6295
▁Батышта	-10.6297
▁тасмалар	-10.6297
▁которул	-10.6298
назар	-10.63
▁Мария	-10.6303
▁Түркмөнстанда	-10.6304
▁ойногон	-10.631
▁катыш	-10.6321
▁белек	-10.6324
▁тоскоолдуктар	-10.6326
▁алмаштыр	-10.6328
▁акырында	-10.6332
▁агент	-10.6336
▁байкоочулар	-10.6337
J	-10.6338
▁Күндүз	-10.6338
▁Динара	-10.6338
▁алуучу	-10.6347
▁Ше	-10.635
▁чемпионат	-10.6351
▁башташты	-10.6354
▁Луганск	-10.6355
▁булак	-10.6357
▁ад	-10.6361
▁кылмышты	-10.6364
▁угул	-10.6366
▁жаткандай	-10.6374
ийген	-10.6381
▁моюнун	-10.6385
депутат	-10.6389
шет	-10.6389
▁1992-	-10.6391
▁Гүлнара	-10.6391
▁салганда	-10.6391
▁союздаш	-10.6391
▁атактуу	-10.6391
▁катышы	-10.6391
Көлдү	-10.6394
▁кеңсе	-10.6398
▁иликтөөнү	-10.64
чатак	-10.6401
▁жаткандыктан	-10.6403
▁ниети	-10.6406
▁кенди	-10.641
▁көрөт	-10.6414
▁студенттерди	-10.6418
▁тигил	-10.642
▁мандатын	-10.6422
▁бөлүмдөр	-10.6428
▁Мука	-10.6429
Камбар	-10.6431
▁демилгелер	-10.6435
▁аякта	-10.644
▁зомбулукту	-10.6443
▁Дүйшөн	-10.6443
▁Сооронкулова	-10.6443
▁режиссер	-10.6443
▁Жакшы	-10.6443
▁толтура	-10.6443
▁чап	-10.6452
▁көзөмөлүнө	-10.6462
▁түрүнө	-10.6462
▁Алай	-10.6464
▁эмеспиз	-10.6466
▁Муса	-10.6469
▁форуму	-10.6471
▁негизи	-10.6473
▁жетекчилигине	-10.6475
▁фон	-10.6479
▁кызматтарды	-10.6488
▁Компани	-10.6492
ic	-10.6494
▁Лавров	-10.6496
▁абзел	-10.6496
биротоло	-10.6496
▁аңгеме	-10.6496
▁соолук	-10.6497
▁жоготуп	-10.6498
▁шарттарды	-10.6499
раз	-10.6504
▁билдирүүлөрү	-10.6505
дүктөн	-10.6507
▁Шинжаңда	-10.6507
▁Күч	-10.6512
▁сындады	-10.6526
▁Ыр	-10.6528
▁алуусу	-10.6529
▁Й	-10.653
▁чакырылыш	-10.6534
▁чемпионатында	-10.6535
▁уран	-10.6543
▁Курманкул	-10.6543
▁Бөлтүрүк	-10.6549
▁Ибраев	-10.6549
▁Фото	-10.6549
▁Шектүү	-10.6549
▁эсептөө	-10.6549
▁ардагер	-10.655
▁Бекназаров	-10.655
▁блок	-10.6551
▁күзүндө	-10.6552
▁Эдил	-10.6552
▁кооз	-10.6561
▁көздөйт	-10.6561
▁өзгөргөн	-10.6562
▁күбөлүк	-10.6562
▁айдап	-10.6563
ыйык	-10.6568
▁геосаяс	-10.657
▁Шу	-10.657
▁дорду	-10.6571
▁арзанда	-10.6574
▁жетиши	-10.6575
▁Самат	-10.6582
▁көбөйгөнүн	-10.6582
▁көптөн	-10.6585
▁тапкандар	-10.6591
▁камап	-10.6594
▁атты	-10.6596
▁пландап	-10.6599
▁жолунда	-10.6601
▁Боршайком	-10.6603
▁отставка	-10.6603
▁манасчы	-10.6603
▁Адатта	-10.6603
▁декабрь	-10.6603
▁ирандык	-10.6603
▁ээрчи	-10.6603
▁белгиси	-10.6603
▁өткөрүлгөн	-10.6603
▁кылынган	-10.6609
▁өнөктөштөр	-10.661
лайман	-10.6613
рез	-10.6613
▁акындар	-10.6613
▁ишенип	-10.6616
▁курула	-10.6627
▁көтөрө	-10.6631
▁Пол	-10.6633
▁Чыгышта	-10.6633
▁президенттер	-10.6635
▁Зе	-10.6654
▁айткандай	-10.6656
▁көрүстөн	-10.6657
▁өбөлгө	-10.6657
▁Энтон	-10.6657
▁Иван	-10.6658
▁кызыгуу	-10.6658
▁жолугушту	-10.6659
▁термин	-10.6662
▁тизмеде	-10.6662
▁пайызды	-10.6662
▁Абакта	-10.6663
▁Уюм	-10.6663
▁кубаттуу	-10.6666
▁дебат	-10.6667
▁сыртк	-10.6668
▁жылыш	-10.6668
▁буруп	-10.667
▁көмөктөш	-10.6672
Масса	-10.6673
▁майыпты	-10.6674
▁каттамдары	-10.6681
▁жикчил	-10.6683
жанов	-10.6684
▁министрлери	-10.6685
▁Дума	-10.6688
▁жогот	-10.6692
▁тасмасы	-10.6693
▁көрдүм	-10.6695
▁бий	-10.671
▁көбөйүшү	-10.6711
▁Кырсык	-10.6711
▁таппай	-10.6711
▁жыгыл	-10.6711
▁Көрсө	-10.6712
▁бөлүү	-10.6713
▁чыгармачылык	-10.6714
▁дооматтарды	-10.6715
▁сыңар	-10.6716
▁СССРди	-10.6719
▁жетки	-10.6723
▁эрежелер	-10.6732
▁чыгууда	-10.6734
▁сүнө	-10.6738
▁Мухаммедка	-10.674
ээр	-10.6743
▁өлкөлүктөр	-10.6746
▁кызыкчылыктар	-10.6747
▁айтыла	-10.6748
▁жолдорду	-10.6751
▁жоготуу	-10.6754
▁агым	-10.6757
▁өнөктөшү	-10.6758
▁жака	-10.6762
▁Келишим	-10.6765
▁тыянак	-10.6765
▁Соода	-10.6765
▁багып	-10.6766
▁токтобой	-10.6767
▁текшер	-10.6769
▁жазма	-10.6772
▁Окуу	-10.6773
▁жазышты	-10.6774
▁уят	-10.6775
▁талкууланган	-10.6778
▁Эш	-10.6778
▁аяктады	-10.678
▁мүмкүндүгү	-10.6786
▁талкуулоо	-10.6788
▁Америкалык	-10.679
маалы	-10.6793
▁автоном	-10.6812
▁Кадамжай	-10.682
▁авиакомпания	-10.682
▁белгиленет	-10.682
▁драма	-10.682
▁Мелис	-10.682
▁шайланып	-10.682
▁консул	-10.6821
▁кажет	-10.6821
▁мун	-10.6822
▁фактылары	-10.6823
▁жаткандыгы	-10.6823
▁Жаб	-10.6824
▁тагдыр	-10.6826
▁жолугушкан	-10.6828
▁орундары	-10.6831
▁көрсөтүүнү	-10.6831
сексуалд	-10.6833
▁айыпталуучу	-10.6838
▁позициясы	-10.6841
▁округу	-10.6844
▁системалары	-10.6844
▁кырк	-10.6846
ици	-10.685
▁ойлор	-10.6854
▁кеңешине	-10.6856
▁элдиктер	-10.6857
▁варианты	-10.6863
▁кармалгандарды	-10.6865
▁ошо	-10.6865
▁улантууда	-10.6869
▁Бас	-10.6871
▁келдим	-10.6871
зер	-10.6872
▁командир	-10.6875
▁логистика	-10.6875
▁козголду	-10.6875
▁тилектешти	-10.6875
▁эгемендиги	-10.6876
▁ишенем	-10.6877
▁оператор	-10.6878
▁бөлүктөрү	-10.6883
▁импортто	-10.6891
▁керектиги	-10.6894
▁мааниде	-10.6905
▁Бах	-10.6909
▁ушинт	-10.6914
▁көргөндө	-10.6922
Арча	-10.6923
▁жүргөндөр	-10.6928
▁учактар	-10.6929
▁Шакиев	-10.693
▁роман	-10.6931
▁сунушталды	-10.6935
▁жуктургандар	-10.6936
▁эсептеп	-10.6937
▁вариант	-10.6942
▁парк	-10.6945
▁узартуу	-10.6945
▁телеканалдар	-10.6945
▁азыктары	-10.6947
▁учактары	-10.6949
▁Султанбеков	-10.6951
▁калааны	-10.6953
▁тарабында	-10.6961
тпоо	-10.6967
▁ичине	-10.6968
▁Цз	-10.6969
▁уланат	-10.6972
▁белгилеш	-10.6972
▁райондору	-10.6976
▁аталышта	-10.6976
▁доорунда	-10.6976
▁74	-10.6977
▁бошотул	-10.6983
Дордой	-10.6985
▁ырастап	-10.6985
Ынтымак	-10.6985
▁даярдалган	-10.6985
▁коммунист	-10.6985
Республика	-10.6989
▁баскан	-10.6992
исте	-10.7
▁таанышып	-10.7002
андуу	-10.7003
лоп	-10.7011
▁басаң	-10.7015
▁130	-10.7016
бара	-10.7023
▁ашууну	-10.7024
▁түшүндү	-10.7024
▁автоунаасы	-10.7028
▁араң	-10.7029
▁жаныбарлар	-10.7031
▁лугу	-10.704
ами	-10.704
▁Times	-10.7041
▁КСДП	-10.7041
▁обсервация	-10.7041
▁күчөдү	-10.7041
Көчө	-10.7043
▁достук	-10.7043
▁ишендир	-10.7043
▁жабды	-10.7043
▁учуу	-10.7043
▁милдеттери	-10.7044
Мекени	-10.7044
рүп	-10.7045
▁Курск	-10.7046
▁98	-10.7055
▁шык	-10.7059
▁Из	-10.706
▁Тоо	-10.706
▁жүрүүдө	-10.7061
▁тааныбай	-10.7063
▁уурдап	-10.7065
▁тилде	-10.7071
▁теңге	-10.7079
кеч	-10.7083
▁чарбасы	-10.7089
рест	-10.709
▁Гал	-10.7093
▁өсүш	-10.7097
▁өнөктүк	-10.7097
Хезболла	-10.7097
▁өнөктөштүк	-10.7097
▁чогулуш	-10.7097
▁актив	-10.7098
▁китептер	-10.7098
▁Исха	-10.7103
re	-10.7103
▁фактор	-10.7105
▁жоготкон	-10.7106
▁үндөдү	-10.7108
▁гидро	-10.7108
▁даярдыгы	-10.711
▁калтырып	-10.7112
акталбаган	-10.7116
▁Францияда	-10.7119
▁кийимдер	-10.7128
▁облуста	-10.7131
▁Ад	-10.7137
чөйрөнү	-10.7138
▁дарыла	-10.7146
Z	-10.7154
Инстаграм	-10.7154
▁даңаза	-10.7154
▁Курулуш	-10.7154
▁Жылдыз	-10.7154
▁бекети	-10.7159
▁текшерил	-10.7159
▁000	-10.716
▁көчмөндөр	-10.716
▁бошотулду	-10.7162
▁Палестина	-10.7166
▁кызматташууну	-10.7167
▁кетерин	-10.7169
▁Чыны	-10.7169
▁редактору	-10.7172
актап	-10.7173
▁өпкө	-10.7176
▁февралын	-10.7178
▁сулуу	-10.7178
▁кадамы	-10.7186
▁башаламандыктар	-10.7191
▁кылым	-10.7192
▁уткан	-10.7201
▁суроолорду	-10.7201
ur	-10.7206
▁жогорудагы	-10.7207
▁аппараттар	-10.721
▁Отунбаева	-10.7211
▁жаабайт	-10.7211
▁француз	-10.7211
берди	-10.7211
▁алынса	-10.7212
▁аракеттенүү	-10.7213
▁Июн	-10.7213
▁Жоо	-10.7221
▁талдоо	-10.7227
▁кайтарган	-10.7227
▁жабылды	-10.7229
▁жекшембиде	-10.7237
▁Жеке	-10.7241
▁берилбей	-10.7244
▁180	-10.7249
▁Майк	-10.7253
▁көрүүнү	-10.7256
▁чыгармачыл	-10.7267
▁Финляндия	-10.7268
▁иликтеген	-10.7268
▁комендант	-10.7268
▁кримтөбөл	-10.7268
▁диаспора	-10.7268
▁жөнөтүп	-10.7268
▁Кармалган	-10.7268
▁Аламүд	-10.7268
▁сыртына	-10.7268
▁Бакиров	-10.7268
▁Көпчүлүк	-10.7269
▁талкуулар	-10.7272
▁ыбызды	-10.7272
▁өсүү	-10.7274
евич	-10.7279
▁добуштарды	-10.7283
▁сакталган	-10.7284
▁булактарда	-10.7286
▁одон	-10.7286
▁орусча	-10.7287
▁жеген	-10.7289
▁адилет	-10.729
▁корутундусу	-10.7291
▁нормалар	-10.7292
жал	-10.7292
▁алек	-10.7293
▁ларда	-10.7294
▁сүрөттөрү	-10.7294
▁жамааты	-10.7302
▁мынча	-10.7304
▁шар	-10.7305
▁Карабакта	-10.7308
▁айтсак	-10.7311
▁эмгектенген	-10.7325
▁стационар	-10.7325
▁кийип	-10.7325
▁фейк	-10.7325
▁эсептейм	-10.7326
венция	-10.7326
▁накта	-10.7326
▁жетишсиздиги	-10.7326
▁порталы	-10.733
▁өлгөнү	-10.733
▁борборлор	-10.7331
▁U	-10.7333
▁ыйгары	-10.7333
жигит	-10.7334
▁аракетине	-10.7341
▁түс	-10.7343
▁келишимде	-10.7347
▁билимдүү	-10.7351
▁алабы	-10.7354
▁чагым	-10.7358
▁келтирди	-10.7359
▁мэрия	-10.7359
▁жазында	-10.7362
▁тизмесинде	-10.7367
▁кайсыл	-10.7368
▁кайрымдуулук	-10.7383
▁өсүмдүк	-10.7383
▁кВт	-10.7383
▁Асад	-10.7383
▁экөөнү	-10.7385
▁Кичи	-10.7387
▁Киевде	-10.7387
▁сезон	-10.7389
▁бейтапты	-10.7389
▁ЖККУ	-10.7392
▁чагы	-10.7395
Талибандын	-10.7395
Та	-10.7401
▁журналы	-10.7407
дарында	-10.7416
▁эмдөөдө	-10.7431
▁ӨКМ	-10.7434
▁71	-10.7437
▁Чеченстан	-10.7441
▁жатасыз	-10.7441
▁чагымчыл	-10.7442
▁коштолгон	-10.7443
▁Эгемендик	-10.7443
▁тынчтыкты	-10.7446
▁жиберип	-10.7448
▁кум	-10.7452
хам	-10.7457
▁Кабулда	-10.7458
▁Иракта	-10.746
▁көрбөгөндө	-10.7464
▁маяна	-10.7466
▁курул	-10.7466
▁Гани	-10.7467
▁келишимине	-10.7468
аракеттер	-10.7469
▁Депутаттар	-10.7471
▁тобуна	-10.7474
талап	-10.7479
▁Чи	-10.748
▁эмнени	-10.7481
▁бюджети	-10.7481
▁кайтуу	-10.7484
▁Бразилия	-10.75
▁Медицина	-10.75
▁искусство	-10.75
▁Кыйноо	-10.75
▁сезген	-10.75
▁теракт	-10.7501
▁байланыштырган	-10.7501
▁ызы	-10.7502
▁кулаган	-10.7504
▁сакталышы	-10.7505
▁имп	-10.7508
илдеттен	-10.751
демократтар	-10.751
▁салыгы	-10.751
▁Долбоор	-10.7512
▁баракчасында	-10.7513
▁Грузияда	-10.7514
▁төлөгөн	-10.7515
▁Саймаити	-10.7521
▁Ташкентте	-10.7522
▁редакциясы	-10.7526
▁туткундарды	-10.7527
▁чыгарат	-10.7533
▁жеткенин	-10.7537
▁айыптар	-10.7541
▁эрки	-10.7541
▁аэропортто	-10.7543
▁Мадумаровду	-10.7544
▁алыста	-10.7544
us	-10.7547
▁Камчы	-10.7549
▁экспортто	-10.7555
▁уурдоо	-10.7559
▁жеңген	-10.7559
▁3,5	-10.7559
▁унаалар	-10.7559
▁Клара	-10.756
▁сүйүү	-10.7561
▁айдоо	-10.7563
▁өткү	-10.7563
▁жазышкан	-10.7563
▁Роза	-10.7564
бүлөдө	-10.7575
▁87	-10.7577
▁беренелер	-10.7578
▁Эмнеге	-10.758
чаралары	-10.7587
▁сактагыч	-10.7591
▁адабияты	-10.7593
▁айыптарды	-10.7602
▁агенттиктер	-10.7603
▁туристти	-10.7609
▁келгендерди	-10.7609
▁Урмат	-10.761
▁сени	-10.761
▁уранды	-10.7611
▁Мээрим	-10.7618
▁келишпестик	-10.7618
▁Нидерланд	-10.7618
▁тамактануу	-10.7619
▁иштегени	-10.7622
▁электе	-10.7622
▁мыйзамдары	-10.7623
▁жеңилдетил	-10.7627
▁доза	-10.7632
▁өспүрүмдөр	-10.7639
▁маектеш	-10.764
▁мугалимдерди	-10.7643
лбей	-10.7644
▁байкалган	-10.7647
▁жеңиши	-10.7647
▁кыял	-10.7649
▁сунуштары	-10.7655
▁Медет	-10.7657
▁жазат	-10.7659
▁Грузияны	-10.7675
▁күйөрман	-10.7677
▁инфляция	-10.7677
▁артисти	-10.7677
▁сахна	-10.7677
▁өлдү	-10.7677
аштыруу	-10.7679
▁жукту	-10.768
▁үстү	-10.7682
▁азыраак	-10.7682
▁салгылашуу	-10.7683
▁Казакбаев	-10.7684
▁экөөбүз	-10.7685
▁X	-10.7691
▁Каржы	-10.7693
▁майданы	-10.7693
Ко	-10.7701
▁айылды	-10.7702
▁утту	-10.7718
энелерди	-10.772
▁каналына	-10.7724
ху	-10.7728
Синин	-10.7732
▁өң	-10.7732
▁иштеди	-10.7733
▁прокурору	-10.7736
▁BBC	-10.7737
▁саякат	-10.7737
▁Тынчтык	-10.7737
▁АЭС	-10.7737
▁Коомчулук	-10.7737
▁билбейт	-10.7739
▁ович	-10.7741
▁Тил	-10.7742
▁башталышы	-10.7743
▁өтчү	-10.7743
▁Матраимовдор	-10.7746
▁чагылдырган	-10.7747
▁байлыгы	-10.775
▁чыгарганы	-10.7751
▁судьялар	-10.7755
▁мурасы	-10.7757
Бука	-10.7758
▁жазалоо	-10.7763
▁Сагын	-10.7764
▁төртөө	-10.7766
▁унун	-10.777
▁көргөзмө	-10.7772
▁реестрин	-10.7775
хе	-10.7778
▁Шинжаң	-10.7785
▁Силер	-10.7788
▁бакчалар	-10.7788
▁күчтө	-10.779
▁пресс	-10.7797
▁терезе	-10.7797
▁этият	-10.7799
▁IT	-10.7799
▁сыпатт	-10.78
▁Во	-10.78
чүлүк	-10.78
▁кечке	-10.7801
Түндүк	-10.7811
▁министрди	-10.7813
▁союз	-10.782
ch	-10.7826
▁телефону	-10.7827
▁мүмкүнчүлүктөрү	-10.7831
▁агенттик	-10.7836
▁иликтөөчү	-10.7838
▁туристтер	-10.7855
▁Абдирасулова	-10.7858
▁Монголия	-10.7858
▁бейшемби	-10.7858
▁квота	-10.7858
▁кооператив	-10.7858
▁бензин	-10.7858
▁жандандыруу	-10.7858
▁Добуш	-10.7858
▁Белгиле	-10.7859
▁символ	-10.7863
▁агып	-10.7864
▁баарлаш	-10.7865
▁шайлоочу	-10.7867
▁коюшат	-10.7867
▁калтыруу	-10.7879
▁Хи	-10.7881
▁900	-10.7882
▁Россияны	-10.7882
▁арачылар	-10.7888
▁110	-10.7891
▁союзу	-10.7895
▁катышуусунда	-10.7897
▁байланышып	-10.7899
Озоди	-10.7919
▁Мексика	-10.7919
▁күтүлү	-10.7921
▁өтсө	-10.7922
▁сезими	-10.7923
▁өндүргөн	-10.7924
▁макулдаш	-10.7924
▁ууру	-10.7925
▁секунда	-10.7925
▁көзөмөлдү	-10.7929
▁албады	-10.7929
▁Ишен	-10.7938
▁чыгарбай	-10.7938
▁жогоруда	-10.7939
▁түйүнү	-10.7942
▁арызды	-10.7943
▁Өзбек	-10.7948
▁киргени	-10.7955
▁наамы	-10.7959
хар	-10.7961
▁уюштуруучулар	-10.7966
▁Электр	-10.7967
▁кайрылыш	-10.7969
▁адабий	-10.798
▁жетпеген	-10.798
▁координация	-10.798
▁2006-	-10.798
▁тукум	-10.7986
чүсү	-10.7987
▁текшерүүдө	-10.7989
▁кийлигишүү	-10.7991
▁актылар	-10.7992
▁Оорукана	-10.7995
▁баалаган	-10.7995
▁китепти	-10.7997
ri	-10.8
▁максаттары	-10.8
көрүлүп	-10.8012
▁контр	-10.8012
▁айтышы	-10.8013
▁жекшемби	-10.8013
▁Абдулла	-10.8025
▁отурумда	-10.8027
▁күтө	-10.8029
▁ооруканасы	-10.803
▁журналистика	-10.8034
▁куттук	-10.804
▁Болбосо	-10.8042
▁Ворух	-10.8042
▁Одесса	-10.8042
▁стадион	-10.8042
▁туруксуз	-10.8042
▁түшүнгөн	-10.8042
▁эскертиш	-10.8042
▁кесипкөй	-10.8042
▁Масалиев	-10.8042
▁даярданып	-10.8042
▁нуска	-10.8043
▁айтуусунда	-10.8044
▁күчөтүлгөн	-10.8045
▁аныкташ	-10.8045
жашыруу	-10.8045
▁билиш	-10.805
▁каралууда	-10.8052
▁ачты	-10.8052
▁этап	-10.8053
▁келчү	-10.8056
▁салса	-10.8057
▁пайдаланган	-10.8059
▁Юри	-10.8061
ll	-10.8062
лөө	-10.8063
▁адиси	-10.807
▁тилди	-10.8072
▁Партия	-10.8073
▁тарыхта	-10.8074
▁киргизе	-10.8074
▁жашар	-10.8078
▁аракеттерине	-10.8079
▁корутунду	-10.8079
▁ченем	-10.8084
▁фондду	-10.8093
ol	-10.8094
▁укта	-10.8094
▁өмүрүнө	-10.8096
То	-10.8099
▁макта	-10.81
▁жеткирген	-10.8104
▁Алишер	-10.8104
▁2007-	-10.8104
▁Автор	-10.8105
▁камалышы	-10.8106
▁адилетсиз	-10.8106
▁ойлонуп	-10.8109
▁эсептеген	-10.8109
▁белгилешти	-10.8112
▁Эсен	-10.8114
▁өлчөмүндө	-10.8118
▁Жаштар	-10.8131
▁сотторду	-10.8131
▁Токио	-10.8135
11	-10.8137
▁Бийликти	-10.8138
▁макулдашууну	-10.814
▁Аймакта	-10.814
класс	-10.8144
▁агенттикти	-10.8145
▁борбордо	-10.8148
▁аткаминер	-10.8149
▁куткаруучулар	-10.8151
итет	-10.8152
▁отуруму	-10.8153
▁койгондо	-10.8154
▁чалдыккандарды	-10.8163
▁короо	-10.8164
▁көрүш	-10.8166
▁Көлбаевди	-10.8166
▁Нетаньяху	-10.8167
▁очогу	-10.8167
▁Спорт	-10.8167
▁архитектура	-10.8167
▁мазмуну	-10.8167
▁пропаганда	-10.8167
▁өйдө	-10.8167
▁жүктөлгөн	-10.8167
▁жатакана	-10.8168
▁алынбай	-10.8168
▁бошотуп	-10.8169
▁жолдошу	-10.8172
▁талдап	-10.8172
▁айларда	-10.8182
▁86	-10.8183
▁колдонулат	-10.8185
▁Жаман	-10.819
▁бөлүштүрүү	-10.819
▁чыңалуу	-10.8202
▁түшүм	-10.8202
▁базарда	-10.8203
▁наам	-10.8207
▁карамагын	-10.8209
▁апа	-10.8211
▁отурду	-10.8211
▁Ажы	-10.8218
▁топтору	-10.8224
▁чыкпа	-10.8229
▁бузулушу	-10.823
▁оккупация	-10.823
▁аудио	-10.823
▁жеткиликтүү	-10.823
▁Керек	-10.823
▁делегат	-10.823
▁убакытты	-10.8233
▁келери	-10.8239
▁доктору	-10.8241
интип	-10.8242
▁Орун	-10.8244
▁жактаган	-10.8253
▁турушкан	-10.826
▁берилбейт	-10.8266
▁процесстер	-10.8268
батышында	-10.8268
▁билдир	-10.8276
▁жогол	-10.8281
▁элита	-10.8288
▁аталыш	-10.8289
▁учакты	-10.829
▁тоскоол	-10.8291
▁Абдрахманов	-10.8293
▁ВИЧ	-10.8293
▁актуалдуу	-10.8293
▁апелляция	-10.8293
▁микро	-10.8293
▁обочо	-10.8293
▁сезип	-10.8293
▁кыйылды	-10.8293
жыныстык	-10.8293
▁Айрымдары	-10.8294
▁жүргүзүлөт	-10.8296
▁жактоочулары	-10.8297
▁демилгечи	-10.83
▁үйлөрүнө	-10.8304
▁болгу	-10.8307
▁түндө	-10.8307
▁99	-10.8308
▁түзөтүү	-10.831
▁Иман	-10.8311
▁зыяндуу	-10.8313
▁тамыр	-10.8315
▁тартылды	-10.8315
үлбөй	-10.832
▁ашыр	-10.8327
▁инсандар	-10.8327
▁каалоосу	-10.8327
▁жоктугу	-10.8334
▁опуза	-10.8338
жаб	-10.8338
▁өлчөмү	-10.8343
▁жуктурган	-10.8351
▁кармалгандар	-10.8351
▁тутуму	-10.8353
▁Жогоруда	-10.8355
▁колдонуучулары	-10.8356
▁Тыныбекова	-10.8356
▁аксакал	-10.8357
▁жөнөттү	-10.8357
▁Жамаат	-10.8357
▁2003-	-10.8357
▁чечилбей	-10.8358
январында	-10.8364
▁Бектур	-10.8364
▁төшө	-10.8364
мбетов	-10.8372
▁тартибине	-10.8376
▁өткөрө	-10.8378
▁платформа	-10.8379
▁климат	-10.8386
▁мамилелерди	-10.8389
▁экспорттоо	-10.8394
▁алтынды	-10.8394
▁декларация	-10.8399
▁газы	-10.8403
▁бүткөндө	-10.8414
▁департамент	-10.8415
▁фронт	-10.8416
▁видеону	-10.8416
▁резиденция	-10.8421
▁Intern	-10.8421
▁жамгыр	-10.8421
▁жоромол	-10.8421
▁транс	-10.8421
▁жалаа	-10.8421
▁тарады	-10.8421
▁жетишти	-10.8422
▁VI	-10.8423
▁Эртең	-10.8428
▁сүрө	-10.8429
▁чуу	-10.8433
▁клубу	-10.8434
ro	-10.8435
▁автобустар	-10.8437
▁Ер	-10.8439
H	-10.8443
▁макулдашкан	-10.8444
мурат	-10.8445
▁директор	-10.8448
▁багыттары	-10.8452
▁калчу	-10.8454
▁каларын	-10.8454
кожо	-10.8454
▁көлөмдө	-10.8455
▁зыяны	-10.8462
▁адеп	-10.8468
▁этно	-10.8472
▁урду	-10.8473
▁кине	-10.8473
▁опера	-10.8476
▁бизнести	-10.8478
▁экспорту	-10.848
▁30%	-10.8481
▁дүрбөлөң	-10.8485
▁Бадахшан	-10.8485
▁Болгария	-10.8485
▁купуя	-10.8485
▁практика	-10.8485
▁чындыгын	-10.8487
▁кудай	-10.8489
▁жактоочусу	-10.849
▁тергөөнү	-10.849
▁Жумабеков	-10.8492
▁кошуундар	-10.8501
▁чуркап	-10.8502
▁администрацияны	-10.8506
▁автономия	-10.8509
ce	-10.8513
▁жүргүзүүдө	-10.8513
▁Курман	-10.8519
▁үмүтү	-10.852
▁билдире	-10.8527
▁көйгөйдү	-10.8532
▁палестин	-10.855
▁Прокуратура	-10.855
▁диагноз	-10.855
▁түйшүк	-10.855
ЦАХАЛ	-10.855
▁жумурият	-10.855
▁башпаан	-10.855
▁күрөө	-10.855
▁Нобел	-10.855
▁Жорж	-10.8551
▁окшогон	-10.8551
▁катмары	-10.8552
▁курмандыгы	-10.8554
▁Памир	-10.8554
▁курчоо	-10.8555
▁барууда	-10.8556
▁чыккынчылык	-10.8557
▁соккусуна	-10.8559
▁сүрөтчү	-10.8562
▁округда	-10.8563
▁кырсыктары	-10.8566
▁чач	-10.8568
▁соз	-10.8571
▁билдирүүлөрдү	-10.8571
▁мечиттер	-10.8572
▁жабдуу	-10.8575
▁инвестор	-10.8576
келиндерди	-10.8576
▁Бара	-10.8581
▁ЖМК	-10.8581
▁жикчилдер	-10.8583
▁+	-10.8586
▁китепкана	-10.8594
▁жеңе	-10.8595
▁соңуна	-10.8596
▁Алдыда	-10.86
президенти	-10.8605
▁Тбилиси	-10.8615
▁Тихановская	-10.8615
▁поезд	-10.8615
▁трагедия	-10.8615
▁эптеп	-10.8615
▁орчун	-10.8615
▁жөлөк	-10.8616
▁кирбей	-10.8618
ызын	-10.8618
Бел	-10.8619
▁темасы	-10.8621
▁Темировду	-10.8622
▁жеткирилди	-10.8622
▁кайталап	-10.8624
▁көчөсү	-10.8625
▁Элчилик	-10.8626
▁операциялар	-10.8627
▁кылышат	-10.8629
▁140	-10.8632
▁жааган	-10.8632
▁Акция	-10.8643
▁жаратууда	-10.8647
▁келинген	-10.8647
▁Дүйнөдө	-10.8648
▁Лондондо	-10.8655
▁картасы	-10.8667
▁ачылыш	-10.8671
▁маршрут	-10.8681
▁түзүлөт	-10.8681
▁наристе	-10.8681
▁билдиришинче	-10.8681
▁жапкан	-10.8682
▁элестет	-10.8682
▁Игор	-10.8682
▁организм	-10.8684
▁жүрбө	-10.8688
▁улантыл	-10.8689
▁Лю	-10.8689
▁унут	-10.869
▁тийгизип	-10.869
▁фото	-10.8692
нсация	-10.8695
жобосу	-10.8701
▁кабарлар	-10.8705
Рос	-10.8722
▁форматта	-10.8732
▁сунуштарды	-10.8735
▁болгондой	-10.8741
▁коргош	-10.8741
▁алакасы	-10.8746
▁дозасы	-10.8746
Газпром	-10.8747
▁Кылыч	-10.8747
▁ырасташ	-10.8747
▁Тасма	-10.8748
▁бөлгөн	-10.8749
▁81	-10.8749
▁каптап	-10.8753
▁агыз	-10.8753
▁кетчү	-10.8754
▁менде	-10.8756
▁түркиялык	-10.8757
▁фабрика	-10.8758
▁дооматтар	-10.8769
▁Көр	-10.8769
▁куткаруу	-10.8769
▁тамыры	-10.877
▁фестивал	-10.8772
▁аттан	-10.8775
▁жарандарыбыз	-10.8777
▁чөйрөдө	-10.878
▁көтөрүлүш	-10.8782
sh	-10.8783
▁дарыгери	-10.8801
▁партиялары	-10.8802
▁демократтар	-10.881
▁Буларды	-10.8811
▁Искендер	-10.8814
▁сценарий	-10.8814
▁көрүнгөн	-10.8814
▁Айзада	-10.8814
▁жараксыз	-10.8814
▁өтүнгөн	-10.8814
▁ууланды	-10.8814
▁шашылы	-10.8816
▁түшпөй	-10.8816
▁Кореяда	-10.8816
▁издеген	-10.8818
▁Айтматовду	-10.8821
▁өзгөрдү	-10.8824
▁калгандары	-10.8824
▁жумшал	-10.8829
▁чөлкөмдө	-10.8829
▁заттар	-10.883
▁террорист	-10.8834
▁ачылат	-10.8839
▁чакырылышы	-10.8839
▁Парижде	-10.8841
▁санаа	-10.8845
▁пункту	-10.8853
▁стандарттар	-10.8857
▁рынок	-10.8862
▁апам	-10.8865
▁жайылган	-10.8867
ДССУ	-10.8881
▁Талибдер	-10.8881
▁Харрис	-10.8881
▁Кулубаев	-10.8881
▁Китеп	-10.8881
▁көрүнөт	-10.8881
▁тамеки	-10.8882
▁белгилөө	-10.8882
▁Курсан	-10.8882
▁айыкты	-10.8883
▁Махмудов	-10.8887
▁Инанды	-10.8888
▁беттеште	-10.8889
▁калышат	-10.889
▁ракеталар	-10.889
▁негиздеген	-10.8891
▁түзүмү	-10.8893
▁тартылат	-10.8893
▁жаңылыш	-10.8897
▁улана	-10.8898
▁учактарды	-10.8899
▁Шах	-10.89
▁ишкерлик	-10.89
▁агрессиясы	-10.8901
▁мүмкүнчүлүктөр	-10.8906
▁күрөшүнө	-10.8907
Ю	-10.8909
▁авиа	-10.891
▁Айнур	-10.8914
▁дубал	-10.8925
▁техникасы	-10.8932
▁бөлүштүр	-10.8946
▁милдеттенме	-10.8947
▁Басылма	-10.8949
▁кабарланууда	-10.8949
▁Олимп	-10.8949
▁тебеле	-10.8949
▁империя	-10.8949
▁Ниязов	-10.8949
▁израилдик	-10.895
▁ажыраткан	-10.8953
▁кызыктыр	-10.8954
▁тийгизет	-10.8955
▁Деген	-10.8956
▁кокус	-10.8957
▁бузганы	-10.8961
▁Хе	-10.8963
▁Чүйдө	-10.8964
▁оюнчулар	-10.8965
▁коюлат	-10.8966
▁тилкесине	-10.8973
▁келебиз	-10.8976
Бийлик	-10.8978
▁жээги	-10.8984
▁жолдогон	-10.8987
▁качкын	-10.8995
▁жоктугуна	-10.8996
▁Сали	-10.8999
▁тейле	-10.9007
▁дарыкана	-10.9013
▁жөндөм	-10.9015
▁Абдрахматова	-10.9017
▁Фергана	-10.9017
▁сертификат	-10.9017
▁үрөй	-10.9017
▁бешинчи	-10.9017
▁даярдалып	-10.9017
▁Мэрия	-10.902
▁сүрүп	-10.9021
▁каттоосу	-10.9031
▁мөөнөттө	-10.9038
▁83	-10.9041
пикирлер	-10.9046
Тынч	-10.9053
катнаш	-10.9053
ханов	-10.9053
▁ушунда	-10.9058
ализ	-10.9061
▁университетинде	-10.9068
▁Жаз	-10.9072
▁карала	-10.9074
▁үстөмдү	-10.908
▁Ибрагим	-10.9085
▁инстанция	-10.9085
▁шаршемби	-10.9085
▁сейил	-10.9085
▁патент	-10.9085
▁жаратуу	-10.9089
▁аянтта	-10.909
▁Чынында	-10.9095
▁түшүргөн	-10.9102
▁кадрлар	-10.9105
▁катталганын	-10.9107
▁каралды	-10.9112
▁ажылык	-10.9112
Алтын	-10.9117
▁зарылдыгы	-10.9127
▁айыпталуучулар	-10.9131
алымдар	-10.9134
күлдөр	-10.9153
uman	-10.9154
▁Санарип	-10.9154
▁алдамчылык	-10.9154
▁мейкиндиги	-10.9154
▁штамм	-10.9154
▁образ	-10.9154
▁Назаров	-10.9154
▁Талкуу	-10.9154
▁канаттуу	-10.9154
енд	-10.9155
▁чаап	-10.9155
▁цех	-10.9155
▁адвокаттар	-10.9155
▁биригип	-10.9156
▁тапса	-10.9156
▁артта	-10.9156
▁тааный	-10.9157
▁сүзүп	-10.9158
▁жөнөтө	-10.916
▁сыйлыктар	-10.916
▁Ново	-10.9161
▁товарды	-10.9165
▁ажал	-10.9168
▁88	-10.9174
Кече	-10.9174
▁актоо	-10.9174
un	-10.9176
Тал	-10.918
▁Крымды	-10.918
видео	-10.9186
▁шектүүлөр	-10.9191
болот	-10.9191
▁институт	-10.9198
▁ци	-10.9201
▁5%	-10.9206
▁Экинчиси	-10.9212
▁негизгиси	-10.9212
маз	-10.922
▁түзө	-10.9222
▁ойлору	-10.9223
▁колдойт	-10.9223
▁мунаса	-10.9224
▁археолог	-10.9224
▁окурмандар	-10.9225
▁кубаты	-10.9225
▁булуң	-10.9226
төп	-10.9227
▁Кадырбеков	-10.9229
▁сунушталып	-10.9232
▁азабы	-10.9232
▁көрүүчүлөр	-10.9232
▁пайдасына	-10.9236
▁көчөсүндө	-10.9237
▁парад	-10.9237
▁боюнда	-10.9241
▁Бая	-10.925
▁эмгектери	-10.9251
үрү	-10.9253
лдаган	-10.926
▁улутту	-10.926
Алай	-10.9263
▁Балдарды	-10.9265
спи	-10.9266
тех	-10.9268
▁кетишине	-10.9272
▁көрсөтүүдө	-10.9274
▁мөңгүлөр	-10.9277
▁сандар	-10.9287
▁Үсөн	-10.929
▁кыймылды	-10.9291
▁Right	-10.9294
▁Румыния	-10.9294
▁металл	-10.9294
▁олигарх	-10.9294
▁экстрадиция	-10.9294
Реформа	-10.9294
▁2025-	-10.9294
▁тутанган	-10.9294
▁уюштурулуп	-10.9295
▁катмар	-10.9296
▁аяктайт	-10.9299
▁суроону	-10.9299
is	-10.9301
▁бөгөттө	-10.9301
▁тарбиялоо	-10.9301
▁козутуу	-10.9302
▁сүйлөшүүсү	-10.9303
▁баратканда	-10.9323
▁китептерди	-10.9325
▁баалоо	-10.9326
▁аннексия	-10.9332
▁ыкмалар	-10.9334
▁салышы	-10.9335
▁Гар	-10.9336
▁ККМ	-10.9337
▁бакты	-10.9338
▁аталып	-10.9339
▁Мамат	-10.934
▁бөлүгүнө	-10.9343
▁көтөрүлө	-10.9345
рипов	-10.9351
▁утур	-10.9352
▁Сотто	-10.9362
▁Анар	-10.9364
▁Дыйкан	-10.9364
▁сейрек	-10.9364
▁кожоюн	-10.9364
▁жаткырылган	-10.9364
▁жоруктарды	-10.9364
▁Макала	-10.9365
газиев	-10.9365
▁Жазуучу	-10.9365
▁номер	-10.9366
▁жоголуп	-10.9366
▁II	-10.9367
▁күнүндө	-10.9367
Твиттердеги	-10.9367
▁машыгуулар	-10.9367
▁уста	-10.9368
▁туулуп	-10.9371
катыш	-10.9373
▁Кыш	-10.9375
▁чыгаша	-10.9381
▁түзгөнү	-10.9382
▁механизм	-10.9388
▁дөрдү	-10.9388
▁козголгонун	-10.939
дашып	-10.9391
▁карашта	-10.9393
▁сүйлөшүүлөрү	-10.9397
▁чыкпаган	-10.9401
▁толкун	-10.9402
▁куй	-10.9403
▁таштаган	-10.9409
▁реформалар	-10.9413
▁футболчу	-10.9417
▁ыктыяры	-10.9417
чатактар	-10.9418
Бизди	-10.9418
ролду	-10.942
▁жактоочу	-10.9425
тирилген	-10.9431
чоро	-10.9431
▁Жетим	-10.9433
▁Каракалпакстан	-10.9435
▁Саакашвили	-10.9435
▁чогулду	-10.9435
▁иштеткен	-10.9435
▁салмагы	-10.9435
▁үнөмдө	-10.9435
▁дайындаган	-10.9436
▁бермек	-10.9437
▁нота	-10.9438
▁көрсөтүлүп	-10.9439
▁Аскердик	-10.9443
▁маанайда	-10.9445
▁тартылганы	-10.9447
▁сата	-10.9449
▁кетирген	-10.9455
▁Өзүм	-10.9455
▁гендер	-10.9456
▁каттаган	-10.9466
шпаган	-10.9467
▁базарында	-10.9475
▁өнүктүр	-10.9484
▁машинеси	-10.9488
▁ашыра	-10.949
▁казып	-10.9491
ртылган	-10.9494
▁органдарында	-10.9496
▁товарлары	-10.9497
▁билиши	-10.9502
▁Коом	-10.9504
▁өлгөндөр	-10.9506
▁Сегизбаев	-10.9506
▁аброю	-10.9506
▁регламент	-10.9506
▁этектеринде	-10.9506
▁Молдокматов	-10.9506
▁Видео	-10.9506
▁даярдаган	-10.9508
▁чыгармачылыгы	-10.9508
▁бийликтери	-10.9508
▁82	-10.9508
▁суранып	-10.9509
▁өзүңүз	-10.951
▁кымбаттап	-10.9513
▁азгыры	-10.9513
▁сабап	-10.9515
▁уланды	-10.9516
Йорк	-10.9518
▁жүргүзүүнү	-10.9519
rk	-10.9522
Коммер	-10.9523
▁топтогон	-10.9525
▁Осмон	-10.9526
пөс	-10.9527
акунов	-10.9538
▁токтоо	-10.9543
▁түрмөлөр	-10.9545
▁козгоду	-10.9551
▁чиновниктер	-10.9561
▁делегациясы	-10.9571
▁чечүүнү	-10.9573
▁конок	-10.9575
▁Ооган	-10.9577
▁Коңшу	-10.9578
▁Рустам	-10.9578
▁Цзинпин	-10.9578
▁этностук	-10.9578
▁Негизги	-10.9578
▁Ниязбеков	-10.9578
▁күчөттү	-10.9578
▁ылдый	-10.9578
▁азайды	-10.9579
▁өтүндү	-10.9579
▁грек	-10.9582
▁сабалган	-10.9585
▁бошоткон	-10.9586
▁Акыры	-10.9586
▁керекпи	-10.9587
▁түшүнүктүү	-10.9588
▁эрежелери	-10.9588
▁Саид	-10.9588
▁жоокерлер	-10.9591
▁бекеттер	-10.9594
▁Абу	-10.9595
▁орнотулган	-10.9601
▁кабарлап	-10.9607
▁камералар	-10.961
▁калыш	-10.9613
жерлерде	-10.9617
▁Эрте	-10.962
▁Маркумду	-10.9622
▁аласыз	-10.9627
ыккан	-10.963
▁штатында	-10.9632
▁Донбасста	-10.9632
каналы	-10.9642
зода	-10.9648
▁атканын	-10.9648
▁көчмө	-10.9649
▁Футбол	-10.9651
▁отчёт	-10.9651
▁статусу	-10.9651
▁ректор	-10.9651
▁акынды	-10.9655
▁кыскарган	-10.9658
▁жатыптыр	-10.9661
ьев	-10.9662
▁пландары	-10.9665
▁баруучу	-10.9666
урах	-10.9667
ская	-10.9667
тандыруу	-10.9668
Сапат	-10.9668
▁жоболор	-10.9671
▁өстүр	-10.9673
▁чабуулду	-10.9678
▁профессору	-10.9683
▁көрсөткөнү	-10.9692
жылдарды	-10.9694
плас	-10.9695
▁Фу	-10.9697
▁Британ	-10.9697
▁деңгээлинде	-10.9697
▁ооруканаларда	-10.97
▁сынына	-10.9706
▁эстеликтер	-10.9708
▁коомду	-10.9719
▁кайрылгандар	-10.9722
▁Watch	-10.9724
▁шектелген	-10.9724
▁этабы	-10.9724
▁калкалап	-10.9724
▁жетишкендиктер	-10.9724
▁жабыркап	-10.9724
▁сенатор	-10.9724
▁барышкан	-10.9725
▁чакыртып	-10.9728
▁жаралып	-10.9735
▁аземи	-10.9738
▁ратификация	-10.9741
▁талдоочулар	-10.9745
▁ажы	-10.9747
ad	-10.9748
▁канчасы	-10.9749
▁мекени	-10.9752
▁жууп	-10.9753
алгысы	-10.9754
▁коо	-10.9755
▁өкүлчүлүк	-10.976
▁окуучуларды	-10.976
▁таанышты	-10.976
▁ЖМКлар	-10.9762
▁болгондугу	-10.9762
▁изилде	-10.9764
Өзбекстан	-10.9764
▁бешөө	-10.9764
▁миссия	-10.9765
▁Нурланбек	-10.9767
▁карантинди	-10.9768
▁айылдагы	-10.977
▁адат	-10.9772
▁ңер	-10.9774
стон	-10.9777
▁зыянды	-10.9778
▁өткө	-10.978
иешелүү	-10.9792
▁шектүүнү	-10.9794
▁түзүлүшү	-10.9794
үбүздү	-10.9796
▁жөнөтүл	-10.9797
▁держава	-10.9797
Торугарт	-10.9797
▁Бюджет	-10.9797
▁Ибраимов	-10.9797
▁Норвегия	-10.9797
▁популярдуу	-10.9797
▁шайкеш	-10.9797
▁Сталин	-10.9797
▁Олег	-10.9797
▁кубогу	-10.9797
Евро	-10.9797
▁штатта	-10.9798
▁Шакир	-10.9799
▁агартуу	-10.9799
▁мекемелери	-10.9799
▁байкап	-10.98
▁аналитик	-10.98
ent	-10.9802
▁жыйынды	-10.9802
▁керемет	-10.9803
▁дайыны	-10.9804
▁жумушсуз	-10.9807
ания	-10.9809
До	-10.9811
▁бекет	-10.9813
▁учурду	-10.9815
▁Бакты	-10.9816
▁жайгаштыруу	-10.9817
▁округуна	-10.9821
▁болжолдо	-10.9828
▁мүчөлөрүнө	-10.983
▁корпорациясы	-10.9831
▁жаңжалды	-10.9831
▁кооптон	-10.9832
чараны	-10.984
▁кароону	-10.9845
Булак	-10.9847
▁түшө	-10.9847
▁кагылышта	-10.9863
▁сасы	-10.9863
▁ооруларды	-10.9865
Крокус	-10.9871
▁учурап	-10.9872
▁уурдалган	-10.9874
▁ташкын	-10.9881
▁жарымына	-10.9884
▁өзгөчөлүгү	-10.9887
▁карантинде	-10.9898
▁көпчүлүктү	-10.9902
▁жашоону	-10.9904
▁түшүрүү	-10.9905
▁түшкөндө	-10.9905
▁ЖК	-10.9906
▁во	-10.9908
▁жакпа	-10.9911
▁кемелер	-10.9912
▁тууну	-10.9914
▁бүздү	-10.9914
▁келишимдерди	-10.992
▁улук	-10.9922
▁айткы	-10.9923
▁берели	-10.993
▁Айрымдар	-10.9939
▁Жунушалиев	-10.9946
▁Кавказ	-10.9946
▁токтотулду	-10.9946
▁нөшөр	-10.9946
▁пахта	-10.9946
▁талкуулашты	-10.9946
▁палестиналык	-10.9946
▁Комитет	-10.9946
▁болочок	-10.9946
▁жолугушуп	-10.9947
▁желек	-10.9947
▁Американы	-10.9949
▁факторлор	-10.995
▁алмашып	-10.9953
хид	-10.9954
▁Ишкер	-10.9956
▁тастыктаган	-10.9957
▁үндөгөн	-10.9959
▁Чен	-10.996
▁ошолор	-10.9962
▁Өрт	-10.9965
▁жеңилдиктер	-10.9965
▁бөлүк	-10.9967
▁жоокерлери	-10.9969
пыз	-10.997
▁баалай	-10.9973
▁козголоң	-10.9976
▁ошолорду	-10.998
▁кызыкчылык	-10.9981
▁туугандар	-10.9981
▁агрессия	-10.9983
▁төлөш	-10.9989
▁суммада	-10.9998
▁топтоо	-10.9998
▁Гонконг	-11.0002
▁көйгөйлөрү	-11.0007
▁паркы	-11.0007
▁кылмышкер	-11.0009
▁Кумтөрдү	-11.0014
▁1994-	-11.0021
▁Фрунзе	-11.0021
▁Чаткал	-11.0021
▁бюллетен	-11.0021
▁ырааттуу	-11.0021
▁кредит	-11.0021
▁макулдашылган	-11.0021
▁тамаша	-11.0021
▁океан	-11.0022
▁чабал	-11.0022
▁зарылчылыгы	-11.0027
▁үстөмдүгү	-11.0027
гүлө	-11.0031
▁кылмыштарды	-11.0037
тивдик	-11.0038
▁жетекчилерди	-11.0041
атуучу	-11.0044
▁бейтапкана	-11.0048
▁иликтөөдө	-11.0049
▁жатпа	-11.005
юшкан	-11.0053
▁турууну	-11.0053
▁башташ	-11.0059
▁принцип	-11.0062
▁Сити	-11.0064
▁жиберүү	-11.0086
▁Адамдар	-11.0087
▁сонун	-11.0088
▁жайылышына	-11.0093
▁директорлор	-11.0096
▁Жамгырчиев	-11.0097
▁инфратүзүм	-11.0097
▁чейрек	-11.0097
▁күчөтүп	-11.0097
▁эбеге	-11.0097
▁төмөндөп	-11.0097
▁Сабыр	-11.0097
▁прокурорду	-11.0099
▁Карантин	-11.0101
▁чектелүү	-11.0102
▁өлкөсүндө	-11.0105
▁оокат	-11.0111
▁Ухан	-11.0114
▁93	-11.0117
▁ракеталарды	-11.012
▁койбойт	-11.0123
▁калабыз	-11.0125
▁өкүлдөр	-11.0126
▁иликтөөсү	-11.0127
▁Орозо	-11.0133
▁туруш	-11.0133
МУ	-11.0135
▁басуу	-11.0141
Ы	-11.0141
▁көрсөтмөсү	-11.0143
▁Мах	-11.0151
▁көмөктөшүү	-11.0152
▁тактала	-11.0157
▁жашоочулары	-11.0159
▁Жээн	-11.016
▁дарыларды	-11.0165
турум	-11.0171
▁Пентагон	-11.0173
­	-11.0173
▁Тескерисинче	-11.0173
▁Австрия	-11.0173
▁аккаунт	-11.0173
▁кесиптеши	-11.0173
▁Араван	-11.0174
▁залкар	-11.0174
▁жылдыруу	-11.0174
▁4,5	-11.0174
▁топтолуп	-11.0175
▁канцлер	-11.0175
▁комуз	-11.0175
▁түшүнүксүз	-11.0177
▁жазуучулар	-11.0178
▁бөрү	-11.0178
▁жашырып	-11.0179
▁кимиси	-11.0179
▁Мурун	-11.0181
▁жыт	-11.0185
▁чечилген	-11.02
▁Биримдигине	-11.0203
▁уюштурул	-11.0205
▁бекеттери	-11.0205
▁ыйлап	-11.0206
▁ңызды	-11.0208
Балта	-11.021
▁ишканалары	-11.0211
▁жеткире	-11.0213
▁алдыруу	-11.0214
▁бурган	-11.0217
медициналык	-11.022
Орусия	-11.0235
▁комитетинде	-11.0237
▁чыгаруучу	-11.0245
▁милдеттенди	-11.025
▁комиссар	-11.025
▁Англия	-11.025
▁субъект	-11.025
▁компе	-11.025
▁2001-	-11.0251
▁караңгы	-11.0252
▁Астанада	-11.0253
▁объектилерди	-11.0253
▁чиркөө	-11.0253
▁уурда	-11.0258
▁Осмоналиев	-11.0258
▁күчөй	-11.0259
▁15-20	-11.026
▁кумар	-11.0265
▁майды	-11.0265
▁89	-11.0271
▁Жарандар	-11.0272
▁кайтарды	-11.0273
▁Балба	-11.0275
▁министрлигинде	-11.0276
▁баарды	-11.0278
▁криминал	-11.028
▁сүйлөшүүлөрдө	-11.0282
▁Токаевди	-11.0292
▁Сиздер	-11.0307
▁текшерүүнү	-11.0309
▁сурай	-11.0313
▁таңкы	-11.0314
▁куткар	-11.0321
▁териштир	-11.0323
▁92	-11.0325
▁Облусту	-11.0327
▁Изилдөө	-11.0328
▁абийир	-11.0328
▁Жүз	-11.0328
▁Федерациясы	-11.0328
ФСБ	-11.0328
Үмүт	-11.0329
▁Батукаевди	-11.0329
▁Арыз	-11.0329
▁ордо	-11.0329
▁салыштырган	-11.033
▁рух	-11.0332
▁машиналар	-11.0334
▁көчөлөрүн	-11.0335
▁350	-11.0347
▁илгери	-11.0348
▁макулдашты	-11.0349
▁ыңыз	-11.0349
▁ракеталары	-11.035
▁кылынганы	-11.0351
▁соо	-11.0354
▁кошулду	-11.0356
▁тарабы	-11.0356
▁өздөрүнө	-11.0357
▁реестр	-11.0357
▁провинциясы	-11.0362
▁94	-11.0363
▁редакция	-11.0371
▁Бирөө	-11.0375
▁Мигрант	-11.0375
▁көө	-11.0375
▁тарбияла	-11.0377
Медиа	-11.0378
▁шектүүлөрдү	-11.038
▁силерди	-11.0383
▁Индияны	-11.0396
▁козу	-11.0398
as	-11.0401
▁боор	-11.0403
YouTube	-11.0406
▁Covid	-11.0406
▁Еврошаркет	-11.0406
▁турукташ	-11.0406
▁төкмө	-11.0406
▁баягы	-11.0406
▁Ачык	-11.0407
▁Фонд	-11.0408
▁кылышууда	-11.0408
▁устав	-11.0408
▁туудур	-11.0412
▁актаган	-11.0413
ноябрында	-11.0416
▁дарыланууда	-11.0419
▁96	-11.0425
▁чыгымы	-11.0425
▁айыбы	-11.0426
▁Wa	-11.0428
▁ишенген	-11.0428
▁программалары	-11.043
▁байкоочу	-11.0433
▁вируста	-11.0434
▁кысы	-11.0436
▁факультетин	-11.0441
▁аннексияла	-11.0442
▁тасманы	-11.0448
▁ыйла	-11.0454
▁режимди	-11.0454
▁пайызда	-11.0458
истика	-11.0469
▁артып	-11.0472
▁Митинг	-11.0477
▁Жээнбек	-11.0477
▁демонстрациялар	-11.048
▁теске	-11.048
▁ооруканасына	-11.0484
▁Нааразы	-11.0485
▁кесилиш	-11.0485
▁коңгуроо	-11.0485
▁процедура	-11.0485
▁жиберилген	-11.0485
▁кичүү	-11.0485
▁пансионат	-11.0485
▁Олжо	-11.0485
цкий	-11.0485
▁Хасан	-11.0488
▁белгилешкен	-11.0489
▁бактылуу	-11.0491
▁жагдайларды	-11.0493
▁саатты	-11.0496
▁киришти	-11.0499
▁грузи	-11.0499
▁оңол	-11.0499
▁мүнөттө	-11.0501
▁жүргүнчүлөр	-11.0505
▁тазалап	-11.0509
▁жыйынтыктары	-11.051
▁Абдуллаев	-11.0516
▁тээ	-11.0516
▁койчу	-11.0521
▁машинелер	-11.0525
▁мекемелерде	-11.0533
спикер	-11.054
келди	-11.0546
▁Парламентте	-11.0549
▁түштө	-11.0554
▁Айла	-11.0562
▁түбөлүк	-11.0564
▁чочулап	-11.0564
▁эшиги	-11.0564
▁унчукпа	-11.0564
▁Тогуз	-11.0564
ландия	-11.0565
▁алмаш	-11.0565
▁Оюн	-11.0567
▁станциялары	-11.0575
▁калдыктары	-11.0575
иячыл	-11.0579
▁кыдыр	-11.0579
▁заттарды	-11.0587
▁Куран	-11.0588
▁Гул	-11.059
▁ыкмалары	-11.0593
▁Аким	-11.0593
▁танктар	-11.0596
▁залына	-11.0596
▁Орозбек	-11.0596
авел	-11.0597
▁Мухаммед	-11.0601
▁өндүрүшү	-11.0611
▁ЖККУну	-11.0621
▁Газ	-11.0623
▁аттары	-11.0626
▁идеясы	-11.0627
▁котор	-11.0642
▁белгиленип	-11.0644
▁толтуруу	-11.0644
Семетей	-11.0644
▁сыпаттады	-11.0644
▁1996-	-11.0644
▁аныктама	-11.0647
▁айырмаланып	-11.0647
берг	-11.065
▁жумгандар	-11.0655
▁жасалды	-11.0657
▁түшүү	-11.0657
ткыч	-11.0658
▁заводду	-11.0659
Улуу	-11.066
▁Бээжинди	-11.0691
▁криминалды	-11.0694
▁чындыкты	-11.0698
▁жоокери	-11.0698
▁версиясы	-11.0708
▁казактар	-11.0709
▁документте	-11.0714
▁жүгү	-11.0723
ларында	-11.0723
▁бригада	-11.0725
▁буюртма	-11.0725
▁жатасыңар	-11.0725
▁муфтий	-11.0725
▁ошентип	-11.0725
▁федерал	-11.0725
▁коркпо	-11.0725
▁укмуш	-11.0725
▁чийки	-11.0725
▁Атазов	-11.0725
▁Илдет	-11.0725
Грузи	-11.0725
▁рухани	-11.0725
▁TV	-11.0726
▁Жоошев	-11.0726
▁тергелип	-11.0727
▁чектеген	-11.073
▁Роман	-11.0735
▁реформалоо	-11.0736
▁Султанбаев	-11.0737
▁кубаныч	-11.0747
▁7-8	-11.0751
▁айласы	-11.0755
▁серепчилер	-11.0756
▁Коронавирусту	-11.076
майынча	-11.0763
▁суну	-11.0774
мыйзам	-11.0781
▁оорулуу	-11.0789
өтө	-11.0798
▁издөөдө	-11.0801
▁көлөм	-11.0805
▁медресе	-11.0806
▁демөөрчү	-11.0806
▁арттыруу	-11.0806
▁ырайымсыз	-11.0806
▁оюмча	-11.0806
▁Коммунист	-11.0806
▁кыйраган	-11.0806
▁турнир	-11.0807
▁жашырган	-11.0812
▁модел	-11.0813
▁саммитинде	-11.0815
▁Сизди	-11.0816
▁Кеч	-11.0818
Терек	-11.0819
▁чагылдырып	-11.0822
▁ысым	-11.0824
▁түшүндүрөт	-11.0824
▁сабаган	-11.0826
:30	-11.0827
январына	-11.0827
▁маселесинде	-11.083
▁болушат	-11.0831
түлүктү	-11.0834
▁Брюсселде	-11.0835
▁стандарт	-11.0835
▁тоно	-11.0841
▁тастыктады	-11.0842
▁ташылы	-11.0845
▁каралоо	-11.0853
▁ниет	-11.0858
▁көмүрдү	-11.086
бөлүгү	-11.0862
эпидемиология	-11.0863
▁оппозициясы	-11.0864
▁Долбоорду	-11.087
▁жибере	-11.0874
▁өткөрүүдө	-11.0876
▁куш	-11.088
▁кызыкчылыктарын	-11.088
▁Сүрөт	-11.0883
Коопсуз	-11.0886
▁Эммануэл	-11.0888
▁зилзала	-11.0888
▁түшүнүгү	-11.0888
▁дарбаза	-11.0888
▁холдинг	-11.0888
▁Ырыс	-11.0888
▁Денис	-11.0888
▁физика	-11.0888
кыштактар	-11.0889
▁Жапонияда	-11.0891
айыгышкан	-11.0893
▁жөнөтүлдү	-11.0893
▁Дамир	-11.0898
▁көрсөткөндөй	-11.0899
▁индекс	-11.0901
▁жагында	-11.0904
▁дебей	-11.0905
▁губернатор	-11.0908
▁чогулткан	-11.0909
▁аттанган	-11.0914
Вагнердин	-11.0914
▁Евробиримдикте	-11.0919
▁текшере	-11.092
▁суранды	-11.0923
▁этти	-11.0926
▁социал	-11.0932
▁өткөрөт	-11.0937
▁калмак	-11.0937
▁активистти	-11.0941
▁Сыды	-11.0944
▁көрбөгөн	-11.0949
▁сүйлөшкөнү	-11.0951
▁Мор	-11.0954
кович	-11.0956
▁Бейше	-11.0956
▁Аспеков	-11.0971
ЖАМК	-11.0971
Кыргызгидромет	-11.0971
▁1999-	-11.0971
▁Латвия	-11.0971
▁талкаланып	-11.0971
▁ичимдик	-11.0971
▁агенттер	-11.0971
тынбай	-11.0973
▁кароодо	-11.0973
▁митингчилер	-11.0973
▁коноктор	-11.098
▁кетиптир	-11.0982
ирээ	-11.0983
▁малды	-11.0988
▁турмушту	-11.0993
▁Камал	-11.0995
▁Түлө	-11.0997
▁5-6	-11.0997
▁машинени	-11.0997
▁3-4	-11.0997
▁сураса	-11.0999
кассалык	-11.1015
▁даярдыкта	-11.1016
▁сезе	-11.1019
▁каттала	-11.102
▁шаарларды	-11.1031
▁ийгиликтер	-11.1032
Адам	-11.1033
▁экспортту	-11.1037
▁орнотул	-11.1037
▁элдери	-11.1037
▁инвесторлорду	-11.104
▁1995-	-11.1054
▁Жумагулов	-11.1054
▁Сурабалдиев	-11.1054
▁Сүйүн	-11.1054
▁улутчул	-11.1054
▁Прага	-11.1055
▁бүтүрүүчүлөр	-11.1055
▁катышпай	-11.1056
▁бошотулушу	-11.1056
Авто	-11.1058
▁Ch	-11.1058
▁илинген	-11.1058
▁Жамал	-11.106
Нур	-11.1065
▁Батыр	-11.1069
▁көрүшү	-11.1074
▁Милл	-11.1082
▁тийбе	-11.1083
▁талкуулай	-11.1083
▁текшерүүлөр	-11.1093
▁эпосу	-11.1097
эрлик	-11.1103
▁ооруканасында	-11.1105
▁жигиттер	-11.1107
▁Зеленскийди	-11.1117
Чек	-11.1121
▁жактырган	-11.1122
▁билди	-11.1125
▁кетирүү	-11.1136
▁айымдар	-11.1137
▁тенденция	-11.1138
▁болбоду	-11.1138
▁конфискация	-11.1138
▁илбирс	-11.1138
▁Шойгу	-11.1138
▁чөгүп	-11.1138
▁жабыркады	-11.1138
▁аныктады	-11.1138
▁атпайбы	-11.1139
▁жетишүү	-11.114
▁берсин	-11.1142
▁туткундар	-11.1145
▁сүйлөшө	-11.1153
▁жашоочулар	-11.1155
▁чемпион	-11.1161
▁пакет	-11.1165
▁элчиликтер	-11.1173
▁каршылыгын	-11.1174
▁кышкы	-11.1174
▁жетише	-11.1175
▁реформаларды	-11.1178
▁Районду	-11.1179
▁кошкондо	-11.1184
▁эркектерди	-11.1213
баркын	-11.1222
▁телерадио	-11.1223
▁Белгород	-11.1223
▁Кудайберген	-11.1223
▁ишмердүүлүк	-11.1223
▁поэзия	-11.1223
▁Абакиров	-11.1223
▁жеңди	-11.1223
▁кымбатташы	-11.1223
▁утулуп	-11.1224
▁ашуусу	-11.1224
▁шайланды	-11.1225
▁Туура	-11.1226
▁соттолуп	-11.1226
▁түгөн	-11.123
▁барабар	-11.123
▁куткаруучу	-11.1231
елгилүү	-11.1232
▁Дүйшөмбүдө	-11.1233
▁жуккандарды	-11.1235
▁болууну	-11.1236
▁аткарбай	-11.1239
▁атылып	-11.124
▁эгин	-11.1243
▁түбү	-11.1246
▁жаткыр	-11.1248
▁жору	-11.1249
▁алтынчы	-11.1252
▁чалдыккандар	-11.1258
▁токтотуш	-11.1262
▁чуулг	-11.1266
▁40%	-11.1267
▁келүүнү	-11.1271
▁телефондор	-11.1275
▁ракетасы	-11.1282
▁ачары	-11.1283
▁сүйлөй	-11.1283
▁аткарылган	-11.1289
Чет	-11.1295
▁Жекшембиде	-11.1305
▁Косово	-11.1308
▁Жамбыл	-11.1308
▁Судья	-11.1308
▁бекиткен	-11.1308
▁пайгамбар	-11.1308
▁проблема	-11.1308
▁үстөк	-11.1308
▁Жекше	-11.1308
Альянс	-11.1308
▁каргаша	-11.1308
▁2002-	-11.1308
▁жээкте	-11.131
▁таянсак	-11.131
▁сыртында	-11.131
▁жумушсуздук	-11.1311
▁жеңилдик	-11.1313
▁куугунтуктоо	-11.1316
▁кетки	-11.1319
▁аким	-11.132
▁айылдарда	-11.132
▁латын	-11.1324
▁стат	-11.1324
назаров	-11.1337
▁ыктыяр	-11.1339
▁сүрөттөрдү	-11.1346
▁апаат	-11.1359
▁реформасы	-11.1363
▁элчиликти	-11.1366
▁Вол	-11.1369
▁Атыр	-11.1373
Мамлекеттик	-11.1374
▁пикирлерди	-11.138
▁системасында	-11.1382
▁караштыр	-11.1394
▁Пхеньян	-11.1394
▁Самарканд	-11.1394
▁зыярат	-11.1394
▁чыкпоо	-11.1394
▁алышпайт	-11.1394
▁кемпир	-11.1394
▁өңүттө	-11.1394
▁2004-	-11.1395
▁өтүнүп	-11.1395
▁молдо	-11.1395
▁кызыгып	-11.1396
▁милдеттенмелери	-11.1396
▁сакайы	-11.1397
▁шаш	-11.1398
▁Имам	-11.1399
▁жүрсө	-11.1399
овский	-11.1399
▁сессия	-11.14
▁кароосуна	-11.1401
▁маеги	-11.1401
▁Yo	-11.1403
▁саноо	-11.1403
▁санаган	-11.1409
▁Чынар	-11.1412
▁мэрияны	-11.1418
▁Кый	-11.1423
▁лицензиясы	-11.1424
▁түпкү	-11.1426
▁Эрдоганды	-11.1428
▁Документте	-11.143
▁бузгандар	-11.1432
▁Зо	-11.1433
▁клиникасы	-11.144
▁үлүш	-11.144
▁Исмаил	-11.1444
▁талапкерлиги	-11.1444
▁аткарылба	-11.1448
▁Исаковду	-11.1449
▁катышары	-11.1455
X	-11.1461
террорду	-11.1462
▁мерчемде	-11.1467
▁ңыздар	-11.1468
түрк	-11.1468
▁биримдикти	-11.1471
▁жайларында	-11.1476
▁Кеме	-11.1479
▁Бердымухамедов	-11.1481
▁Кундуз	-11.1481
▁Нооруз	-11.1481
▁психика	-11.1481
▁реанимация	-11.1481
▁реконструкция	-11.1481
▁улгайган	-11.1481
▁күчөткөн	-11.1481
▁Светл	-11.1481
▁кагууда	-11.1481
▁тапшырылды	-11.1481
▁каатчылык	-11.1481
▁Чындыгын	-11.1481
▁алкогол	-11.1481
▁жапайы	-11.1482
▁желеги	-11.1482
▁тартылышы	-11.1484
▁Юрист	-11.1485
▁чыгарылат	-11.1489
▁ортосуна	-11.1494
ru	-11.1495
▁келтириш	-11.1497
▁кендери	-11.1501
ыңды	-11.1502
▁Вашингтонду	-11.1506
▁тапшырмалар	-11.1507
▁эстелик	-11.1514
▁университеттер	-11.1516
▁штаты	-11.152
▁(+1	-11.1522
▁сары	-11.1527
▁бейтарап	-11.1532
▁Мамлекетти	-11.1551
▁айлампасы	-11.1551
▁шал	-11.1551
үйүнүн	-11.1555
кайра	-11.1555
▁жаркы	-11.1563
▁Миграция	-11.1569
▁айыпталууда	-11.1569
▁инспектор	-11.1569
▁чарчап	-11.1569
▁Антони	-11.1569
Ыйман	-11.157
▁сыпаттаган	-11.157
▁Пенс	-11.157
▁күрд	-11.1573
▁өскөнү	-11.1578
▁алектенип	-11.1578
▁имам	-11.1578
▁бааланган	-11.1591
▁кагылышуулар	-11.1593
▁чакырат	-11.1596
▁таштады	-11.1598
▁кызматташкан	-11.1598
▁мезгилине	-11.1602
▁чыгымды	-11.1603
▁Газаны	-11.1606
▁психолог	-11.1614
▁өлкөсүнө	-11.1615
▁Такта	-11.1615
▁чогулгандар	-11.1617
▁жумуштары	-11.162
▁бирикме	-11.1623
▁макулду	-11.1624
▁каалабай	-11.163
▁айдоочуларды	-11.1631
▁өтөгөн	-11.1639
ыймык	-11.1646
Y	-11.1648
▁тармактарды	-11.165
▁аэропортунда	-11.1652
▁КТРК	-11.1657
Q	-11.1658
▁Шанхай	-11.1658
▁препарат	-11.1658
▁чөнтөгү	-11.1658
▁дарамети	-11.1658
▁киргизилет	-11.1658
▁менчиги	-11.1658
▁санариптештирүү	-11.1658
▁Тараптар	-11.1658
Көмүр	-11.1658
▁Арзы	-11.1658
▁жубайлар	-11.1659
▁зым	-11.1659
▁тандаган	-11.166
kz	-11.1661
▁түшүрүп	-11.1661
▁Келин	-11.1666
▁китептери	-11.1666
▁кемеси	-11.1668
▁Жапонияны	-11.1671
▁доордо	-11.1676
▁Арасын	-11.1681
▁айылдарында	-11.1713
Кытай	-11.1729
Жаңы	-11.1729
▁доктор	-11.173
▁Кыдыр	-11.1733
Йоркто	-11.1733
▁1...6	-11.1747
▁Эмираттары	-11.1747
▁контрчабуул	-11.1747
▁1997-	-11.1747
▁коркуткан	-11.1747
▁шахта	-11.1747
▁кескен	-11.1747
▁этегинде	-11.1747
талья	-11.1747
▁карьер	-11.1747
▁күчөтүл	-11.1748
▁илимпоздор	-11.1749
▁жөндөмдүү	-11.175
▁биология	-11.1754
▁атаандаштары	-11.1754
▁таштоо	-11.1756
▁Адыл	-11.1757
▁унутпа	-11.1759
▁кирсе	-11.176
▁республикачылар	-11.1761
▁ниетте	-11.1761
▁ажыраган	-11.1776
▁жүргүнчүлөрдү	-11.1786
▁каалоо	-11.1789
▁жеңилдетүү	-11.1791
▁Адил	-11.1795
▁нааразычылы	-11.1802
▁окутуучу	-11.1804
▁Ишти	-11.1805
аракеттери	-11.1809
▁акцияларды	-11.1817
чыгышында	-11.1825
▁Инандыны	-11.1829
бирибиз	-11.183
▁өзгөртө	-11.1832
ъ	-11.1837
▁Гутерриш	-11.1837
▁Окумуштуулар	-11.1837
▁госпитал	-11.1837
▁квартал	-11.1837
▁цензура	-11.1837
▁чордону	-11.1837
▁Айпери	-11.1837
▁көлөкө	-11.1837
▁чакырышты	-11.1837
▁байланыштырды	-11.1837
▁Аскаровду	-11.1838
▁ишенич	-11.1842
▁бөлүнөт	-11.1842
▁күмөндүү	-11.1844
▁Крис	-11.1845
▁Камил	-11.1846
▁ачыш	-11.1851
▁айлампа	-11.1855
ченко	-11.1863
бург	-11.187
▁калем	-11.1872
▁Маркум	-11.1873
▁баракчасы	-11.1875
▁аткаминерлерди	-11.1879
▁солгун	-11.1879
▁Сох	-11.1897
▁механизмдер	-11.1897
▁технологияларды	-11.1902
▁Эксперт	-11.1906
▁унааларды	-11.1908
Социал	-11.1912
▁фирмалар	-11.192
▁прокурорлор	-11.1924
▁Помпео	-11.1928
▁жөрөлгө	-11.1928
▁Карасартова	-11.1928
▁боштондук	-11.1928
▁аброй	-11.1928
▁инженер	-11.1928
▁Кайрылуу	-11.1928
▁Икрам	-11.1928
▁элекпиз	-11.1928
▁бурду	-11.1929
▁кайтты	-11.193
▁байланыштырып	-11.193
▁кайрылышкан	-11.1931
▁Польшаны	-11.1931
▁карамагында	-11.1932
▁туруктуулук	-11.1933
▁чечилип	-11.1935
▁карманган	-11.1938
▁кеңештерди	-11.1941
▁террор	-11.1942
▁колдогондор	-11.1943
▁Соттор	-11.1944
▁жаралды	-11.1945
▁эжеси	-11.1946
ассалык	-11.1948
▁ачыла	-11.1956
▁курамасы	-11.1963
▁Маселе	-11.1967
▁барууну	-11.1977
орой	-11.1988
▁кризисте	-11.1989
▁университетти	-11.2001
▁өзгөрүүлөрдү	-11.2001
▁Мирзиёевди	-11.2002
АКШ	-11.2004
Улутту	-11.2008
▁небереси	-11.2013
▁имараттарды	-11.2018
▁функция	-11.202
▁1993-	-11.202
▁Жаратылыш	-11.202
▁ыңкылап	-11.202
▁кыжыр	-11.202
▁калайык	-11.202
▁маңдай	-11.202
▁пайдаланыл	-11.202
▁ажырым	-11.202
▁териштирип	-11.2024
▁Am	-11.2025
▁тескери	-11.2026
▁тартылары	-11.2028
▁камтыйт	-11.2029
▁колдонуучулар	-11.203
▁кылынат	-11.2038
▁баалуулуктарды	-11.2064
▁эсептери	-11.2077
▁мугалимди	-11.2082
▁жеткирил	-11.2084
▁короосун	-11.2085
▁демилгени	-11.2089
бүбү	-11.2094
▁Раззаков	-11.2112
▁легитимдүү	-11.2112
▁1989-	-11.2112
▁1998-	-11.2112
▁Кашкар	-11.2112
▁казино	-11.2112
▁келатышат	-11.2112
▁ачарчылык	-11.2112
▁пробация	-11.2112
▁Опера	-11.2112
▁медиктер	-11.2113
▁берейин	-11.2113
▁Аймакты	-11.2113
▁киргизбей	-11.2114
▁которулуп	-11.2116
▁тергөөчүлөр	-11.2118
▁августунда	-11.2118
▁литр	-11.2119
▁Төрөбаев	-11.2119
▁жарылып	-11.212
▁ойнойт	-11.2126
▁туристтерди	-11.2128
▁алмаштырып	-11.2128
классты	-11.2128
▁балет	-11.2129
16-	-11.2129
салт	-11.2134
▁бюросу	-11.214
▁саммитте	-11.214
▁чегине	-11.2143
▁Дани	-11.2145
▁үзүл	-11.2145
▁кадрларды	-11.2153
▁таяк	-11.2155
▁көтөрүлүшү	-11.2157
ылуулук	-11.2165
▁өзгөрүүсү	-11.2166
▁Берлин	-11.2169
▁фестивалы	-11.2171
▁платформасы	-11.2173
стро	-11.2178
-16	-11.2179
▁өндүрүм	-11.2181
▁чыгармасы	-11.2187
▁кайрылса	-11.2187
▁сактаган	-11.2195
▁муфтият	-11.2205
▁Екатеринбург	-11.2206
▁снаряд	-11.2206
▁Кырдаал	-11.2206
▁Момбеков	-11.2206
▁Меркел	-11.2206
▁курагында	-11.2207
▁катышуучусу	-11.2209
▁кездешет	-11.2211
▁албайсың	-11.2211
▁апрелинде	-11.2213
▁ашырып	-11.2217
▁калгандыктан	-11.2218
▁көрөбүз	-11.2218
▁кагаздары	-11.222
▁артты	-11.2221
демаркациялоо	-11.2223
▁үйрөтүү	-11.2228
▁утурла	-11.223
▁Тамак	-11.2235
▁кабылгандарды	-11.2237
▁автомат	-11.2242
▁бекетине	-11.2251
ИМ	-11.2269
үткүл	-11.2271
кызыл	-11.2288
▁Талдоочу	-11.23
▁Аргентина	-11.23
▁ПЧР	-11.23
▁айгинеле	-11.23
▁философия	-11.23
▁лицей	-11.23
▁тыңчылык	-11.23
▁консулдугу	-11.2301
▁Павло	-11.2301
▁Николаев	-11.2303
▁айнек	-11.2303
▁Майрам	-11.2304
▁күйгөн	-11.2304
▁кыйкырып	-11.2307
▁канааттандырган	-11.231
▁кызыккан	-11.231
▁ардак	-11.2313
▁кездешүү	-11.2316
▁агресс	-11.232
▁илип	-11.2327
▁Нуржа	-11.2352
▁жеңилдет	-11.2353
▁Гре	-11.2358
▁белгилей	-11.2364
▁бекетинде	-11.2373
ңүз	-11.2379
▁мүнөзү	-11.2379
апырт	-11.238
▁чыгымдарды	-11.239
ЕККУ	-11.2392
▁илимпоз	-11.2393
үнүктүү	-11.2394
▁кирешелер	-11.2395
▁Малайзия	-11.2395
▁Столтенберг	-11.2395
▁километр	-11.2395
▁концепциясы	-11.2395
▁күркүрөйт	-11.2395
▁Ливия	-11.2395
▁канадалык	-11.2395
emir	-11.2395
▁Шаршенбек	-11.2395
▁иммунитет	-11.2395
▁Рахман	-11.2395
▁Эсеп	-11.2395
▁Сатыбалдиев	-11.2395
▁бириктирүү	-11.2396
▁аалам	-11.2396
▁кулагы	-11.2396
▁мизи	-11.2397
▁куттуктоо	-11.2398
▁Мэр	-11.2398
▁форматында	-11.2398
▁заводдор	-11.2403
▁тастыкталган	-11.2403
▁куну	-11.2403
▁кыскарып	-11.2404
▁чамала	-11.2415
▁федерация	-11.2428
▁жумушчуларды	-11.2446
▁жүргүздү	-11.2459
▁институтту	-11.2462
ыгуу	-11.2467
▁жигитти	-11.2474
▁мүмкүндү	-11.2487
▁жараяндар	-11.2489
Эгер	-11.249
▁бүтүрүү	-11.249
▁Статистика	-11.2491
▁дезинфекция	-11.2491
▁меморандум	-11.2491
▁Европарламент	-11.2491
▁Жыргал	-11.2491
▁Саммит	-11.2491
▁күчөшү	-11.2491
▁кесиби	-11.2491
▁бекитүү	-11.2491
▁Кенже	-11.2492
▁делимитациялоо	-11.2492
▁өзгөртүүнү	-11.2493
▁Айдоочу	-11.2494
▁өзгөрткөн	-11.2494
▁менчиктештир	-11.2494
▁көрүлгөн	-11.2495
▁Дэви	-11.2495
▁байкалууда	-11.2495
▁Үсөнбаев	-11.2496
▁кыргын	-11.2497
▁Жарым	-11.25
▁ишмердик	-11.2503
▁тектүү	-11.2504
▁Айгүл	-11.2505
▁болжо	-11.2506
▁шейшембиде	-11.2518
▁номуру	-11.2526
▁реабилитация	-11.2529
▁автоунааны	-11.2532
▁класстар	-11.255
▁Текебаевди	-11.2556
▁жолугуш	-11.2573
Биринчи	-11.2579
онференция	-11.258
▁интеллект	-11.2585
Спутник	-11.2588
▁ТАСС	-11.2588
▁Эстония	-11.2588
▁конфликт	-11.2588
▁ооздуктоо	-11.2588
▁өнөкөт	-11.2588
▁артисттер	-11.2588
▁аракеттенген	-11.2589
▁тийди	-11.2589
▁акыбал	-11.2589
иктирген	-11.2589
▁көнүп	-11.2589
▁тамагы	-11.259
щее	-11.259
▁Кулматов	-11.2591
▁чыгарылышы	-11.2593
▁айыккан	-11.2593
▁көрсөтүлөт	-11.2594
▁ассамблеясы	-11.2601
▁алсыра	-11.2602
▁ЕАЭБди	-11.2604
▁жасалат	-11.2606
орунду	-11.2609
▁уял	-11.2611
оюн	-11.2616
ляция	-11.2616
▁төлөмдөрү	-11.2618
▁театрында	-11.2639
▁Согушту	-11.2643
▁маянасы	-11.2645
▁кагыш	-11.2647
▁кызматкерди	-11.2648
▁кылмышкерлер	-11.2655
▁Рахмонду	-11.2656
▁койбой	-11.2656
ve	-11.2661
▁үйлөрүн	-11.2665
мартында	-11.2681
▁бирикти	-11.2686
▁Ширшов	-11.2686
▁Август	-11.2686
▁Ишемби	-11.2686
▁Шейшемби	-11.2686
▁бүтүргөн	-11.2686
▁оппозиционер	-11.2686
▁потенциалы	-11.2686
▁Air	-11.2686
▁Мьянма	-11.2686
▁участок	-11.2686
▁карындашы	-11.2686
▁Мугалим	-11.2686
▁Абдыкадыр	-11.2686
▁комиссариат	-11.2686
▁тездетүү	-11.2687
Өгүз	-11.2687
▁колдобой	-11.2688
▁текшерген	-11.2689
▁донорлор	-11.2689
▁балбандар	-11.2691
▁Согд	-11.2692
▁жоолук	-11.2693
▁бокс	-11.2696
▁киргизиш	-11.2699
▁Мигранттарды	-11.2726
▁Токиодо	-11.2736
аймана	-11.2774
ышыптыр	-11.2779
▁бурмала	-11.2782
▁участка	-11.2785
▁Оренбург	-11.2785
▁Тагыраагы	-11.2785
▁иликтенип	-11.2785
▁кандидаты	-11.2785
▁мыкаачылык	-11.2785
▁таржымалы	-11.2785
▁түйшүгү	-11.2785
▁уникалдуу	-11.2785
▁хижаб	-11.2785
▁Айдарбеков	-11.2785
▁дайындалып	-11.2785
▁мөмө	-11.2786
▁Вене	-11.2786
▁эскерип	-11.2786
▁өтмөк	-11.2787
▁Облус	-11.2787
▁чечилиши	-11.2788
▁Бүбү	-11.2788
▁жоюлуп	-11.279
▁музыкант	-11.2791
▁каада	-11.2792
▁текшерилип	-11.2793
Сары	-11.2793
▁туруктуулукту	-11.2799
▁салуусуна	-11.281
▁Донбасс	-11.2811
▁1200	-11.2816
▁террорчул	-11.2837
▁армияны	-11.2844
▁тактика	-11.2847
▁өпкөсү	-11.2847
расмий	-11.2879
2-3	-11.288
▁Ишкерлер	-11.2882
▁нөөмөт	-11.2885
▁Абдылдаев	-11.2885
▁Еврокомиссия	-11.2885
▁Индонезия	-11.2885
▁жомок	-11.2885
▁жугузгандар	-11.2885
▁масштабы	-11.2885
▁экономист	-11.2885
▁медайым	-11.2885
▁кааласа	-11.2886
▁өнүгө	-11.2886
▁өзөгү	-11.2886
Альфа	-11.2886
▁үйрөнүп	-11.2886
▁пикет	-11.2887
▁чокусу	-11.2889
▁окутуп	-11.2889
▁өчүрүп	-11.289
▁кемсинт	-11.289
▁Азык	-11.2891
▁мээси	-11.2898
Раим	-11.2901
▁Макс	-11.2907
▁тезир	-11.2921
▁турист	-11.2926
▁автоматты	-11.2954
▁рекордду	-11.2962
▁кетиш	-11.2967
▁котормочу	-11.2969
▁лорду	-11.2975
▁өнүк	-11.2986
▁2...7	-11.2986
▁Шыкмаматов	-11.2986
▁Чыгарма	-11.2986
▁автожол	-11.2986
▁кечеңде	-11.2986
▁альтернативд	-11.2986
▁мушкер	-11.2986
▁колхоз	-11.2987
▁камтама	-11.2987
▁курактагы	-11.2987
▁кечиги	-11.2987
▁мээнет	-11.2989
▁азчылыктар	-11.2989
▁билишет	-11.2991
▁мыйзамдуулугу	-11.2992
▁сакчылар	-11.2992
▁дешкен	-11.2993
▁бомбалоо	-11.2995
▁тааныштары	-11.3002
▁чыгармаларды	-11.3002
▁кордук	-11.3003
▁кыйкыр	-11.3006
▁байкалат	-11.3007
▁жамаатты	-11.3012
▁кеңешинде	-11.3012
▁жыйы	-11.3016
▁түйүн	-11.302
▁акылдуу	-11.3022
▁дегел	-11.3028
▁энергияны	-11.3036
▁ашырган	-11.3064
▁тоолордо	-11.3071
▁салгылаш	-11.3082
▁соцтармак	-11.3088
▁догдур	-11.3088
▁AFP	-11.3089
▁Ашхабад	-11.3089
▁Шаршемби	-11.3089
▁марафон	-11.3089
▁принциби	-11.3089
▁участогу	-11.3089
▁ыңкылабы	-11.3089
▁өкүнүчтүү	-11.3089
▁Мухтар	-11.3089
▁турбайбы	-11.3089
▁чакырабыз	-11.3089
▁Жуманазаров	-11.3089
▁Суван	-11.3089
▁жетишилген	-11.309
▁In	-11.3091
▁Өмүрзак	-11.3091
▁кооптонуп	-11.3091
▁көбөйтүп	-11.3093
▁ыйгарылган	-11.3094
▁уюштурулду	-11.31
▁Чолпонбаев	-11.3104
▁каралбай	-11.3106
▁Жакындары	-11.3109
▁казынасын	-11.3133
▁араларын	-11.3135
тоноо	-11.3136
маңызы	-11.3144
▁жоокерлерди	-11.3164
▁машинелерди	-11.3167
▁армяндар	-11.3182
техникалык	-11.3188
▁таанышкан	-11.3191
▁Анталия	-11.3192
▁Сингапур	-11.3192
▁масштабда	-11.3192
▁сыймыктан	-11.3192
▁Элмирбек	-11.3192
▁фигура	-11.3192
▁ССР	-11.3192
▁Атырау	-11.3192
▁койгула	-11.3192
▁Красно	-11.3192
▁активдери	-11.3192
▁багуу	-11.3193
▁сериал	-11.3193
▁Маматалиев	-11.3195
▁конушунда	-11.3196
Жашыл	-11.3199
▁такталып	-11.3199
▁коммуникациялар	-11.3201
▁кетирип	-11.3202
өнгөн	-11.3206
▁Бейшенбек	-11.3211
▁чатагы	-11.3211
▁башташкан	-11.3225
▁декларациясы	-11.3227
бийликчил	-11.3257
▁номур	-11.3259
▁бөлүктө	-11.3265
▁экспертти	-11.3273
▁конгон	-11.3283
Кулжа	-11.3288
▁түзүм	-11.329
ЕАЭБ	-11.3293
талкуу	-11.3293
▁капчыгай	-11.3296
Kloop	-11.3296
▁Прокурор	-11.3296
▁пакистандык	-11.3296
▁Ахмед	-11.3296
▁Байкоочу	-11.3296
▁көмүлгөн	-11.3296
▁бекитип	-11.3296
▁азайтып	-11.3296
▁грамм	-11.3296
▁сентябрында	-11.3296
▁Женева	-11.3296
▁Жумалиев	-11.3296
▁Көбү	-11.3297
▁Васил	-11.3297
▁оолак	-11.3298
▁токтолуп	-11.3299
▁жүгүртүүсү	-11.3303
▁иштешет	-11.3307
▁география	-11.3308
▁ырдап	-11.3312
▁жаралат	-11.3317
▁иштетил	-11.3323
▁чапкан	-11.3324
▁кармал	-11.3326
▁Берлинде	-11.334
▁чыңалууну	-11.3342
түзөө	-11.3366
▁коллегиясы	-11.3394
▁0...5	-11.3401
▁Билдирүү	-11.3401
▁бурмалоо	-11.3401
HRW	-11.3401
Авив	-11.3401
▁Текшерүү	-11.3401
▁кореялык	-11.3401
▁Абдукадыр	-11.3401
▁күтүлбө	-11.3401
▁Алмамбет	-11.3401
▁Тартип	-11.3401
▁Караганды	-11.3401
▁калкалоо	-11.3401
▁теория	-11.3402
▁Илхам	-11.3402
▁Орбан	-11.3402
▁Вице	-11.3404
▁эстелиги	-11.3404
NN	-11.3404
▁жабылышы	-11.3405
▁сезимдер	-11.3405
▁төлөбөй	-11.3406
▁кенже	-11.3406
▁билбейбиз	-11.3408
▁небере	-11.3408
▁жүрөбүз	-11.341
Мекенчил	-11.3411
▁бербейбиз	-11.3415
▁Бурул	-11.3423
▁кийлигишүүсү	-11.3429
▁капыс	-11.3434
▁Ma	-11.3462
▁Тергөөнү	-11.3464
андыктан	-11.3483
▁курмандыктар	-11.3494
▁Вакцина	-11.3507
▁Мүмкүн	-11.3507
▁корпусу	-11.3507
'	-11.3507
▁-2...+3	-11.3507
▁милиционер	-11.3507
▁тестирлөө	-11.3507
▁ыңгайсыз	-11.3507
▁секири	-11.3507
▁Инвестиция	-11.3507
▁таңкысты	-11.3508
▁Токтогазиев	-11.3508
стоя	-11.3509
▁унутуп	-11.351
▁ысымдары	-11.3511
▁20-30	-11.3511
▁кымбаттаган	-11.3511
▁баюу	-11.3511
▁тутум	-11.3518
▁котормо	-11.3529
▁ченемдер	-11.3548
▁Саймаитини	-11.3576
▁жазыш	-11.3586
▁бурулуш	-11.3603
▁өлчө	-11.3604
▁көтөрүш	-11.3607
▁Бангладеш	-11.3615
▁Новиков	-11.3615
▁концентрат	-11.3615
▁Getty	-11.3615
▁LIVE	-11.3615
▁Жумгал	-11.3615
▁Мухаммад	-11.3615
▁индиялык	-11.3615
▁көбөйүүдө	-11.3615
▁отряд	-11.3615
▁Өндүрүш	-11.3615
▁көмөгү	-11.3615
▁сириялык	-11.3615
▁Юлия	-11.3615
▁дурус	-11.3615
▁эффективдүү	-11.3615
▁планета	-11.3615
▁кетейин	-11.3615
▁кызматташып	-11.3615
▁кибер	-11.3615
▁Апам	-11.3615
▁тактады	-11.3615
▁ишарат	-11.3616
Ү	-11.3616
▁коллеж	-11.3616
▁байкаган	-11.3618
▁обол	-11.3624
▁тамгасы	-11.3627
▁Назир	-11.3627
▁Надир	-11.3628
▁жаныбар	-11.3635
▁көрбө	-11.3643
▁тартибинде	-11.3682
▁чиркөөсү	-11.3719
▁Амангелдиев	-11.3724
▁Кимсанов	-11.3724
▁Кыскасы	-11.3724
▁Рафах	-11.3724
▁кесилди	-11.3724
▁резонанс	-11.3724
▁Жоробеков	-11.3724
▁Филипп	-11.3724
▁конгресс	-11.3724
▁оппонент	-11.3724
▁боордош	-11.3724
▁даттанган	-11.3724
▁сүйгөн	-11.3724
▁отурабыз	-11.3724
▁бутактары	-11.3724
▁сокко	-11.3724
▁учурады	-11.3724
үстөгү	-11.3725
тигине	-11.3725
▁ордер	-11.3725
▁толкундоолор	-11.3726
Коррупция	-11.3726
▁табышмак	-11.3728
▁даярдануу	-11.3729
▁Бизнес	-11.373
▁Фарид	-11.3731
▁күбөлүгү	-11.3731
▁убара	-11.3732
▁буюмдарды	-11.3735
▁Керим	-11.3741
▁узунду	-11.3746
▁хирургия	-11.3761
▁калбас	-11.3772
▁уурдаган	-11.3775
▁көргөзмөсү	-11.3776
▁Коста	-11.3776
▁пирамида	-11.3834
▁өзүңөр	-11.3834
▁Бельгия	-11.3834
▁амалдары	-11.3834
▁маалымдашынча	-11.3834
▁Талапкер	-11.3834
▁каникул	-11.3834
▁угуз	-11.3834
▁6,5	-11.3834
▁террорчулук	-11.3835
▁тетиктер	-11.3836
▁кетишет	-11.3837
▁британиялык	-11.3837
эркин	-11.3838
▁Images	-11.3842
▁ЕБ	-11.3843
▁кымбатчылык	-11.3843
Азия	-11.3845
▁инфекцияны	-11.385
▁бастыр	-11.3851
▁акимдер	-11.3872
▁жүгүрт	-11.3898
▁билдириш	-11.3911
троп	-11.3932
▁Жактоочу	-11.3945
▁Шамшиев	-11.3945
▁жоюп	-11.3945
▁күтүлөт	-11.3945
▁көрүнбөй	-11.3945
▁студия	-11.3945
▁каякта	-11.3945
▁Түрмө	-11.3945
▁Арстанбек	-11.3945
▁Татарстан	-11.3945
▁азайышы	-11.3945
▁Жоламан	-11.3945
▁килем	-11.3945
▁кыйналган	-11.3945
▁XX	-11.3945
▁укпай	-11.3945
▁Учак	-11.3946
▁тыныгуу	-11.3946
▁тобокелчилик	-11.3946
sty	-11.3948
▁өткөрүштү	-11.3949
энергетика	-11.395
▁машык	-11.3951
▁демонстрация	-11.3952
▁жабыш	-11.3952
▁шаарчасы	-11.3952
▁Валери	-11.3955
▁тартпай	-11.3956
▁аркасы	-11.3958
▁мекенди	-11.3993
▁түшүнүктөр	-11.4022
▁илин	-11.403
▁түзөрү	-11.4038
▁өстүрүү	-11.404
Асман	-11.4056
▁жанкечти	-11.4057
Дөбө	-11.4057
▁Усубалиев	-11.4057
▁христиан	-11.4057
▁Боррел	-11.4057
▁бүтүрүп	-11.4057
▁куттуктады	-11.4057
▁менимче	-11.4057
▁өсөт	-11.4057
▁булганышы	-11.4057
▁сыпаттап	-11.4057
▁Кесипт	-11.4057
▁албасын	-11.4058
▁калемгер	-11.4058
▁темп	-11.4058
▁Тимур	-11.406
▁Жетиген	-11.4061
▁өтпөгөн	-11.4062
▁чектелип	-11.4062
▁элементтер	-11.4062
▁жеткирилип	-11.4062
Өзөн	-11.4065
▁удаа	-11.4068
▁Абайды	-11.4076
тпаган	-11.4084
▁түзүмдөр	-11.4088
▁тирешүү	-11.411
өгүш	-11.4111
▁Тенг	-11.4147
▁температура	-11.4153
▁Ахмад	-11.4171
▁Словакия	-11.4171
▁жатышпайбы	-11.4171
▁жетектейт	-11.4171
▁континент	-11.4171
▁спутник	-11.4171
▁каптады	-11.4171
▁мафия	-11.4171
▁азери	-11.4171
▁бөлүшкөн	-11.4172
▁Калкты	-11.4173
иңди	-11.4173
com	-11.4173
Улут	-11.4174
▁пландалууда	-11.4174
▁өткөрбөй	-11.4174
▁илинип	-11.4175
▁Минскиде	-11.4175
Кемпир	-11.4178
өктө	-11.418
▁үйрөнүү	-11.4189
▁аласың	-11.4189
чүмүн	-11.4224
▁сессиясын	-11.4226
аркасында	-11.4232
▁мүдөөсү	-11.4243
акиев	-11.4252
▁илгер	-11.4256
Ишеним	-11.4271
▁2026-	-11.4286
ахлак	-11.4286
▁Феврал	-11.4286
▁изоляция	-11.4286
▁ийгилиги	-11.4286
▁плакат	-11.4286
▁туңгуюк	-11.4286
▁эмгектенип	-11.4286
▁кычкылтек	-11.4286
▁Экология	-11.4286
▁ферма	-11.4286
▁бороон	-11.4287
▁кубаттуулугу	-11.4287
▁изилдеген	-11.4288
▁өндүрүп	-11.429
▁аткарбаган	-11.4294
▁эвакуациялоо	-11.4294
▁Июл	-11.4304
▁Ишкана	-11.4325
▁журнал	-11.4327
▁сумманы	-11.4346
▁кенинде	-11.437
▁ыктыярчы	-11.4374
заматта	-11.4383
▁касса	-11.439
media	-11.4402
▁0...-5	-11.4402
▁Курултай	-11.4402
▁Новосибирск	-11.4402
▁Разаков	-11.4402
▁кудурет	-11.4402
▁эсимде	-11.4402
▁Көбүнчө	-11.4402
▁кымбаттады	-11.4402
▁Кошуна	-11.4402
▁чогулуу	-11.4402
▁калбады	-11.4402
▁Ормон	-11.4402
▁барышты	-11.4403
▁логика	-11.4404
▁жөнөтүлөт	-11.4405
▁уурулук	-11.4406
▁төрөгөн	-11.4406
▁жаракт	-11.4412
ТИМ	-11.4414
тилек	-11.4415
▁ажыратылы	-11.4423
▁рынокто	-11.4436
▁Партияны	-11.4461
Рейтер	-11.4464
▁объекттер	-11.4464
▁бирикмелер	-11.451
▁психо	-11.4519
▁1980-	-11.4519
Pfizer	-11.452
▁-3...+2	-11.452
▁Салянова	-11.452
▁актёр	-11.452
▁контейнер	-11.452
▁отурукташ	-11.452
▁чакырышкан	-11.452
▁чоңойгон	-11.452
▁эсептейбиз	-11.452
ейиштүү	-11.452
▁аёо	-11.452
▁пенде	-11.452
▁басарлары	-11.452
▁өкүнү	-11.452
▁Капаров	-11.452
▁жихад	-11.452
атышпоо	-11.4522
▁Мишел	-11.4523
▁бөлүшүп	-11.4524
олтурган	-11.4528
▁ушак	-11.4535
▁озу	-11.4563
▁каалаба	-11.4574
▁айтылуу	-11.4606
▁коммуникация	-11.4628
▁окурман	-11.4636
▁Шайлдабекова	-11.4639
▁филармония	-11.4639
▁12...17	-11.4639
▁Абхазия	-11.4639
▁Уюштуруучулар	-11.4639
▁кумшекер	-11.4639
▁терапия	-11.4639
▁ынтымагы	-11.4639
▁медкызматкер	-11.4639
▁10-15	-11.4639
▁Тизме	-11.4639
▁экипаж	-11.4639
бейбаштык	-11.4639
▁корккон	-11.4639
▁түтүк	-11.4639
▁өксү	-11.4639
▁түшүндүрүш	-11.4639
▁Келечекте	-11.4639
▁үйлөнү	-11.4639
▁кийүү	-11.4641
▁карманып	-11.4641
▁апталарда	-11.4644
▁дамба	-11.4646
здөө	-11.465
өздүк	-11.4677
th	-11.4688
өтүүчү	-11.4692
▁кеңейтил	-11.4692
▁провинция	-11.4749
▁Түркмөн	-11.4758
зомбулугу	-11.4759
▁басмырлоо	-11.4759
WhatsApp	-11.4759
j	-11.4759
▁Дүйшөбаев	-11.4759
▁жумуртка	-11.4759
▁пенсионер	-11.4759
▁публицист	-11.4759
▁тепкич	-11.4759
▁трибуна	-11.4759
▁иммун	-11.4759
▁спирт	-11.4759
▁айтылбай	-11.4759
▁2030-	-11.4759
▁ээледи	-11.4759
▁Мыктыбек	-11.4759
▁сабаттуу	-11.4759
▁аркалаган	-11.476
▁Айтмакчы	-11.4762
▁пландоо	-11.4763
▁көрүшөт	-11.4763
▁жыйынтыкталды	-11.4764
сервис	-11.4766
▁үзүлгөн	-11.4768
абад	-11.4772
ӨКМ	-11.4773
Адилет	-11.4773
украин	-11.4773
▁Гонконгдо	-11.479
▁которуш	-11.4793
▁жеткириш	-11.4805
▁Италияны	-11.4812
▁Махмуд	-11.487
▁кыянат	-11.4878
▁Молд	-11.488
▁педагогика	-11.488
▁Токтонасыров	-11.4881
Тахрир	-11.4881
▁Ассамблея	-11.4881
▁Валентин	-11.4881
▁Варшава	-11.4881
▁Львов	-11.4881
▁Мохаммад	-11.4881
▁Татьяна	-11.4881
▁авиакаттам	-11.4881
▁аукцион	-11.4881
▁Жолдубаева	-11.4881
▁Роберт	-11.4881
▁көрсөтүшү	-11.4881
▁улутундагы	-11.4881
▁онкология	-11.4881
▁экенсиң	-11.4881
дөөлөт	-11.4881
▁абактарында	-11.4881
▁алыстыкта	-11.4881
▁чакырыгы	-11.4882
▁Расул	-11.4882
▁7,5	-11.4882
▁иликтей	-11.4882
▁өткөрүлдү	-11.4883
▁күтпө	-11.4883
▁улак	-11.4886
▁Качан	-11.4888
▁фронтто	-11.489
▁Биримдигинде	-11.4893
Украина	-11.4896
транспорт	-11.4896
өскөн	-11.4897
коррупция	-11.4897
көрүлүшү	-11.4897
▁Рамз	-11.4905
▁түшүнүшү	-11.4928
Мурас	-11.495
чөйрө	-11.4995
▁Эгемен	-11.5001
Эркечтам	-11.5004
▁10...15	-11.5004
▁Чогулгандар	-11.5004
▁адалдоо	-11.5004
▁асфальт	-11.5004
▁бүдөмүк	-11.5004
▁олтуруп	-11.5004
▁сүйрө	-11.5004
▁таратылган	-11.5004
▁ЮНИСЕФ	-11.5004
▁залакасы	-11.5004
▁мейкиндик	-11.5004
▁төмөндөтүү	-11.5004
▁уюштурду	-11.5004
▁Бейрут	-11.5004
▁сабыр	-11.5004
▁талкууланат	-11.5004
▁төккөн	-11.5004
▁чамалуу	-11.5004
▁Шабдан	-11.5005
▁басылып	-11.5005
▁оңчул	-11.5005
▁Холл	-11.5005
▁иңер	-11.5005
▁имиш	-11.5005
▁либерал	-11.5005
▁өрттөнүп	-11.5005
▁акимчилик	-11.5005
▁каалап	-11.5005
▁астына	-11.5005
▁келгенсип	-11.5006
▁Жоомарт	-11.5007
▁керебет	-11.5007
▁Иманкулов	-11.5007
▁ырастал	-11.5007
▁негиздемеси	-11.5007
спект	-11.5008
▁жөнөтүш	-11.501
▁сентябрды	-11.5018
▁демократ	-11.502
ЖККУ	-11.5022
▁канааттан	-11.5051
▁бийле	-11.5069
▁шейшемби	-11.5095
Административдик	-11.5129
▁9...14	-11.5129
▁Live	-11.5129
▁Вячеслав	-11.5129
▁Муфтият	-11.5129
▁Шольц	-11.5129
▁аккредитация	-11.5129
▁патриот	-11.5129
▁ыңгайлаш	-11.5129
▁Афганистан	-11.5129
▁Вьетнам	-11.5129
▁индустрия	-11.5129
▁бириктирип	-11.5129
▁үстөл	-11.5129
▁бозгунда	-11.513
▁Кабыл	-11.513
▁Facebook	-11.513
▁Блогер	-11.513
▁Убагы	-11.513
▁берилчү	-11.513
▁жөлөкпул	-11.513
▁төлөнөт	-11.513
▁Эсенгул	-11.5131
▁ыраазычылыгы	-11.5131
очок	-11.5131
▁Ошолорду	-11.5131
▁курорт	-11.5131
▁эмгектене	-11.5132
▁округ	-11.5133
язов	-11.5134
▁чийи	-11.514
▁кармануу	-11.5147
Кызыл	-11.5149
Эмне	-11.5149
Талаа	-11.515
Токой	-11.5153
▁мейманканасы	-11.5162
▁лигасы	-11.5167
▁мейман	-11.5195
ычтуу	-11.5233
▁токтотпо	-11.5238
▁толкундоо	-11.5255
▁4...9	-11.5256
▁зыйнаты	-11.5256
▁координатору	-11.5256
▁филиалы	-11.5256
▁ырастай	-11.5256
▁Баяндама	-11.5256
▁Дегеле	-11.5256
▁өргүү	-11.5256
▁Өзүңүз	-11.5257
▁сызыгы	-11.5257
▁жетсе	-11.5257
▁Бекболот	-11.5258
▁салыштырып	-11.526
муздак	-11.5287
▁Сүйлөшүүлөр	-11.5289
▁классика	-11.5296
▁өткөрүш	-11.5323
▁козголоңчулар	-11.5333
▁кезеги	-11.5334
▁чурка	-11.5353
өнөкөй	-11.5382
▁Жабырлануучу	-11.5384
▁фамилия	-11.5384
▁6...11	-11.5384
▁7...12	-11.5384
▁Press	-11.5384
▁Буюрса	-11.5384
▁Мелдеш	-11.5384
▁буюрса	-11.5384
▁модернизациялоо	-11.5384
▁толтуруп	-11.5384
▁Толкун	-11.5384
▁Үркүн	-11.5384
▁чагылдырылган	-11.5384
▁көрүлөрү	-11.5384
▁ачылбай	-11.5384
▁(19	-11.5384
▁эбак	-11.5385
▁Түнкү	-11.5385
▁берилсе	-11.5385
▁өлкөбүздү	-11.5385
▁даават	-11.5385
▁1,4	-11.5386
▁Гүлбара	-11.5386
▁жогорулашы	-11.5387
▁Сынак	-11.5387
▁жарыяланат	-11.5387
▁фискалд	-11.5388
▁рейс	-11.5396
▁версия	-11.5411
гелди	-11.5412
Унаа	-11.5417
▁үйрөнүш	-11.5419
өнөр	-11.5437
▁Дарыгер	-11.5471
▁пландал	-11.549
Исфан	-11.5492
Орусияны	-11.5512
▁режиссёр	-11.5514
▁Зомбулук	-11.5514
▁время	-11.5514
▁кайгуул	-11.5514
▁көчүрмөсү	-11.5514
▁мазмунда	-11.5514
▁тегерек	-11.5514
▁инновация	-11.5514
▁комбинат	-11.5514
▁депозит	-11.5514
▁бренд	-11.5514
▁ыктаган	-11.5514
▁тосуу	-11.5514
▁Жунус	-11.5514
▁Артем	-11.5515
▁кейип	-11.5515
▁курчуган	-11.5515
▁өзгөртүлдү	-11.5516
▁сөөктөрү	-11.5516
▁көрүшкөн	-11.5517
▁усул	-11.5517
▁коштоосу	-11.5519
▁Елен	-11.5525
дарактар	-11.5525
▁тапшырыш	-11.5529
Борбор	-11.5538
Түрк	-11.5538
анааттандырарлык	-11.5544
кысым	-11.5545
▁мөңгү	-11.5546
мүрт	-11.5546
▁рекорд	-11.5547
▁унутул	-11.555
ришти	-11.5576
▁азайта	-11.558
өчүрүлүп	-11.5601
Бейит	-11.5606
▁Чечим	-11.5609
эсен	-11.5612
▁мүчүлүштүктөр	-11.5633
позицияны	-11.564
▁инспекция	-11.5646
Next	-11.5646
Кыргызалтын	-11.5646
▁бюрократия	-11.5646
▁бөтөлкө	-11.5646
▁кедергиси	-11.5646
▁криптовалюта	-11.5646
▁мүрзө	-11.5646
▁рахмат	-11.5646
▁өзгөчөлүктөрү	-11.5646
▁почта	-11.5646
▁ордени	-11.5646
▁шаркет	-11.5646
▁ажыратты	-11.5646
▁тизгин	-11.5646
▁мунара	-11.5646
▁Өздөрү	-11.5646
▁кетпес	-11.5648
▁биригүү	-11.5648
▁веб	-11.5649
▁Акмол	-11.5655
▁чыкмак	-11.5664
дештирүү	-11.5664
чыгыш	-11.5666
ливан	-11.5667
Баткен	-11.5671
▁башчылыгын	-11.5676
мезгили	-11.5685
▁Бүт	-11.5697
▁декабрд	-11.5722
Мекен	-11.5752
▁Йемен	-11.5779
▁Рузахунов	-11.5779
▁5...10	-11.5779
▁Глобал	-11.5779
▁Күрөш	-11.5779
▁Пелоси	-11.5779
▁алфавит	-11.5779
▁квалификация	-11.5779
▁киргизилиши	-11.5779
▁шылуундар	-11.5779
▁Казакпаев	-11.5779
▁Умаров	-11.5779
▁Зайыр	-11.5779
▁касиет	-11.5779
▁контент	-11.5779
▁өрнөк	-11.5779
▁өткөрүшкөн	-11.578
▁майнинг	-11.578
▁чогултулган	-11.578
▁өзгөртүлгөн	-11.578
▁көчүрүлгөн	-11.5781
▁Алимбаев	-11.5782
азиз	-11.5783
▁облустарда	-11.5789
Кылым	-11.579
▁байкуш	-11.579
▁Казы	-11.5795
кеңеш	-11.5804
Ц	-11.5806
Кылмыш	-11.5807
бийликти	-11.5807
▁Молдованы	-11.581
▁эпос	-11.5845
▁кайнат	-11.5882
нүктүрүү	-11.5913
▁Сулеймани	-11.5914
▁актриса	-11.5914
▁прогресс	-11.5914
Ё	-11.5914
▁Ноокен	-11.5914
▁күтүлгөн	-11.5914
▁Махабат	-11.5914
▁Солтон	-11.5914
▁Эреже	-11.5914
▁Арслан	-11.5914
▁топурак	-11.5914
▁сабырдуулук	-11.5914
▁Исламабад	-11.5915
▁Ахун	-11.5915
▁тоют	-11.5915
Мыкты	-11.5916
▁жапты	-11.5918
▁чогула	-11.5926
Электр	-11.5943
формал	-11.5948
▁Ангел	-11.5958
▁2022	-11.5969
▁Олимпиадасын	-11.5988
▁түшүнүш	-11.5998
▁хирург	-11.6004
▁тарата	-11.6021
▁спектакли	-11.6051
▁3...8	-11.6051
▁мораторий	-11.6051
▁муздаткыч	-11.6051
▁троллейбус	-11.6051
▁фермерлер	-11.6051
▁өркүндөтүү	-11.6051
▁доклад	-11.6051
▁түптөө	-11.6051
▁Мусулмандар	-11.6051
▁өчүрүлгөн	-11.6052
бабалары	-11.6053
▁Эрнис	-11.6068
▁угуш	-11.6081
Жалпы	-11.6082
кыздар	-11.6112
▁Алыкул	-11.6126
солку	-11.6151
Елизавета	-11.619
▁Анжиян	-11.619
▁Гурбан	-11.619
▁Космос	-11.619
▁Кошумча	-11.619
▁аэродром	-11.619
▁бассейн	-11.619
▁интеллигенция	-11.619
▁көкбөрү	-11.619
▁опурталдуу	-11.619
▁оркестр	-11.619
▁православ	-11.619
▁чөнтөк	-11.619
▁Калифорния	-11.619
▁Ростов	-11.619
▁гепатит	-11.619
▁жетектөө	-11.619
▁телеграм	-11.619
▁Бейшемби	-11.619
▁стресс	-11.619
▁мылтык	-11.619
▁чегерил	-11.619
▁жөтөл	-11.619
▁Файз	-11.619
▁казган	-11.619
▁Оторбаев	-11.6191
▁титире	-11.6191
▁кесүү	-11.6191
▁лүктү	-11.6192
▁бурмаланган	-11.6195
▁жардыры	-11.6205
Чыгыш	-11.6223
укуктук	-11.6223
▁жаратыш	-11.6232
▁Брюссел	-11.6281
▁ЮНЕСКО	-11.6331
▁Авдеевка	-11.6331
▁Идлиб	-11.6331
▁Мамдума	-11.6331
▁Мурзахалилов	-11.6331
▁Стратегия	-11.6331
▁Марокко	-11.6331
▁ремонт	-11.6331
▁шакирт	-11.6331
▁Йенс	-11.6331
▁далаалат	-11.6331
▁орноткон	-11.6331
▁Балтабай	-11.6331
▁жугуп	-11.6331
▁соттолду	-11.6331
▁алаамат	-11.6331
▁адамгерчили	-11.6332
▁1,6	-11.6333
▁талкаланды	-11.6333
▁ЕККУну	-11.6336
▁Мунар	-11.6341
▁дизел	-11.6341
▁улантыш	-11.6342
дыргыч	-11.6354
Айыл	-11.6366
▁топтому	-11.6372
▁өлбө	-11.6372
полковник	-11.6474
МАГАТЭ	-11.6474
▁гвардия	-11.6474
▁мемориал	-11.6474
Свобода	-11.6474
▁келбесе	-11.6474
▁суверендүү	-11.6474
▁тапанча	-11.6474
▁эксперимент	-11.6474
▁Жетекчи	-11.6474
▁жыгач	-11.6474
▁шылдың	-11.6474
▁Хорог	-11.6474
▁Салтанат	-11.6474
▁эмоция	-11.6474
▁татыган	-11.6474
▁врач	-11.6474
▁ыйман	-11.6475
▁бекемдел	-11.6491
өчмөндөр	-11.6611
террорчу	-11.6612
▁Актөбө	-11.6619
▁Музыка	-11.6619
▁Серепчилер	-11.6619
▁Сурамжылоо	-11.6619
▁күмбөз	-11.6619
▁турукташтыруу	-11.6619
Замандаш	-11.6619
▁Кыймыл	-11.6619
▁көрсөтпөй	-11.6619
▁жайгаштырылган	-11.6619
▁таажы	-11.6619
▁кызамык	-11.6619
▁Жалгыз	-11.6619
▁баамында	-11.6619
▁тараза	-11.6619
▁Жардам	-11.6619
▁Апасы	-11.6619
▁таркатуу	-11.662
▁төлөнгөн	-11.662
Сорос	-11.6621
тикелей	-11.6621
▁Никит	-11.6621
▁келгем	-11.6622
▁консерва	-11.663
▁Константин	-11.6766
▁Террор	-11.6766
▁Чотонов	-11.6766
putnik	-11.6766
Озодлик	-11.6766
▁Босния	-11.6766
▁ММК	-11.6766
▁кемчилиги	-11.6766
▁оорлошу	-11.6766
▁милдеттендирген	-11.6766
▁дизайн	-11.6766
▁конкурс	-11.6766
▁монгол	-11.6766
▁ойлойсуз	-11.6766
▁төмөндөдү	-11.6766
▁повест	-11.6766
▁Рахат	-11.6766
▁жосун	-11.6766
▁Күз	-11.6766
▁салынары	-11.6766
тозок	-11.6769
Америка	-11.6805
жоболор	-11.6808
айланыш	-11.6809
▁трансформация	-11.6842
▁шериктеш	-11.6889
▁түшүндүрө	-11.6913
агымсыз	-11.6914
▁Капитолий	-11.6915
▁структура	-11.6915
▁11...16	-11.6915
▁Post	-11.6915
▁Абдыжапар	-11.6915
▁Горьк	-11.6915
▁Днепр	-11.6915
▁Зулпукаров	-11.6915
▁Карамушкина	-11.6915
▁Мустаф	-11.6915
▁Университет	-11.6915
▁секелек	-11.6915
▁симптомдор	-11.6915
Мегаком	-11.6915
▁ветеринар	-11.6915
▁кептелген	-11.6915
▁көрүлөт	-11.6915
▁Жороев	-11.6915
▁даттаныш	-11.6915
▁адистиги	-11.6915
▁баяндаган	-11.6915
▁айыпташкан	-11.6915
▁1930-	-11.6915
▁куюу	-11.6916
▁жашырын	-11.6916
▁Жамил	-11.6917
▁баалануу	-11.6917
▁адаттагыда	-11.6934
▁июлун	-11.6954
▁серепчи	-11.7008
лбеши	-11.7028
ткаруу	-11.7056
▁Инвест	-11.7066
MAR	-11.7066
Интерфакс	-11.7066
сталиндик	-11.7066
▁-2...-7	-11.7066
▁Google	-11.7066
▁Бекмурзаев	-11.7066
▁ДНК	-11.7066
▁Илмиянов	-11.7066
▁Телефон	-11.7066
▁болтурбоо	-11.7066
▁жамынып	-11.7066
▁жыйноо	-11.7066
▁манипуляция	-11.7066
▁1970-	-11.7066
▁дүрмөт	-11.7066
▁суверенитет	-11.7066
▁ажыратылды	-11.7066
▁жаткырылды	-11.7066
үркүтүү	-11.7066
▁баяндалат	-11.7067
▁чынжыр	-11.7067
▁басылган	-11.7067
▁банкрот	-11.7067
▁капитан	-11.7067
▁Өнөр	-11.7067
▁кыскарды	-11.7067
▁Машине	-11.7067
▁идиш	-11.7067
▁жолугуу	-11.7068
▁округдарда	-11.7069
▁шоу	-11.707
Шариф	-11.7076
Мыйзам	-11.7113
▁мөөр	-11.7128
▁жыныс	-11.7219
▁диссертация	-11.722
AstraZeneca	-11.722
OCCRP	-11.722
Маңгыстау	-11.722
Өнүгүү	-11.722
▁-1...-6	-11.722
▁Португалия	-11.722
▁альпинист	-11.722
▁бышыктады	-11.722
▁зөөкүр	-11.722
▁конструкт	-11.722
▁цивилизация	-11.722
нтибиотик	-11.722
▁Декабр	-11.722
▁ЭлТР	-11.722
▁семирткич	-11.722
▁Туманбаев	-11.722
▁Грекия	-11.722
▁сабатсыз	-11.722
Байрактар	-11.7221
бурчунда	-11.7221
▁кубаттап	-11.7221
▁Ниязалиев	-11.7221
▁агылып	-11.7221
▁Фели	-11.7221
интернат	-11.7222
дошкон	-11.7231
Финансы	-11.7269
Тилек	-11.7269
каналдар	-11.7269
▁редактор	-11.7325
асалма	-11.7375
BioNTech	-11.7377
▁1988-	-11.7377
▁Kaktus	-11.7377
▁Абдикарим	-11.7377
▁Калмаматов	-11.7377
▁Сентябрд	-11.7377
▁дзюдо	-11.7377
▁дискриминация	-11.7377
▁жиберишти	-11.7377
▁кепилдиги	-11.7377
▁киргизилбей	-11.7377
▁суюлту	-11.7377
▁экзамен	-11.7377
▁Ирландия	-11.7377
▁Северодонецк	-11.7377
▁диабети	-11.7377
▁артыкчылыгы	-11.7377
▁Биргелеш	-11.7377
▁баяндалган	-11.7377
▁беделин	-11.7377
▁бересиң	-11.7377
▁агро	-11.7377
▁ылайыкташкан	-11.7377
▁аренада	-11.7377
▁соцтармактарда	-11.7378
▁куюл	-11.738
▁өтпө	-11.7404
Хизб	-11.7417
Путин	-11.7428
▁корпорация	-11.7463
▁кийлигишпе	-11.7487
▁бийиктикте	-11.7492
Өтө	-11.7508
▁кинотеатр	-11.7535
Прогресс	-11.7535
елосипед	-11.7535
профилактика	-11.7535
тиричилиги	-11.7535
▁Associate	-11.7535
▁Рузиев	-11.7535
▁абитуриент	-11.7535
▁азербайжандык	-11.7535
▁орноштуруу	-11.7535
▁стипендия	-11.7535
▁үзөңгүлөш	-11.7535
▁батальон	-11.7535
▁тескөө	-11.7535
▁карышкыр	-11.7535
▁башталгыч	-11.7535
▁төрөлүп	-11.7535
▁Сабиров	-11.7535
▁көтөрбө	-11.7535
▁жогорулайт	-11.7535
▁улантты	-11.7536
▁Түмөнба	-11.7536
▁Месси	-11.7536
▁герман	-11.7536
▁амалы	-11.7538
америка	-11.7539
уругу	-11.756
өндүрүү	-11.7576
Жаранды	-11.7589
▁график	-11.759
өлөк	-11.7606
▁Чеч	-11.7612
▁ноябрд	-11.7613
экспорттоого	-11.763
Й	-11.792
#	-11.8197
q	-12.0492
$	-12.1392
Я	-12.2806
і	-12.2914
&	-12.3771
қ	-12.5745
ı	-12.69
ɵ	-12.7751
\	-12.8682
Ѳ	-12.8682
І	-13.0264
Қ	-13.0852
_	-13.0852
@	-13.1477
ü	-13.2858
−	-13.2858
Ş	-13.2858
ş	-13.2858
Ɵ	-13.2858
ә	-13.537
`	-13.637
ғ	-13.7481
ا	-13.8731
·	-13.8731
=	-14.0159
️	-14.0159
İ	-14.0159
ç	-14.0159
é	-14.0159
ұ	-14.1826
¬	-14.1826
ə	-14.1826
•	-14.1826
▪	-14.1826
[	-14.3718
Ң	-14.3826
ğ	-14.3826
ö	-14.3826
©	-14.6326
́	-14.6326
ل	-14.6326
Ь	-14.9659
ҳ	-14.9659
Ü	-14.9659
ق	-14.9659
⁄	-14.9659
→	-14.9659
昆	-14.9659
á	-14.9659
Ұ	-15.4659
Ö	-15.4659
â	-15.4659
í	-15.4659
ï	-15.4659
љ	-15.4659
―	-15.4659
⁣	-15.4659
●	-15.4659
堅	-15.4659
ҷ	-15.4659
鬲	-16.4646
韓	-16.4647
鄄	-16.4648
ُ	-16.4649
و	-16.465
ح	-16.4651
Ә	-16.4652
ӏ	-16.4653
Ç	-16.4654
ʙ	-16.4655
⠀	-16.4656
Щ	-16.4657
*	-16.4658
ظ	-16.4659
ع	-16.4659
§	-16.4659
Ђ	-16.4659
{	-16.4659
}	-16.4659
£	-16.4659
Ñ	-16.4659
ß	-16.4659
ã	-16.4659
ä	-16.4659
è	-16.4659
ñ	-16.4659
ā	-16.4659
ą	-16.4659
Ŋ	-16.4659
Š	-16.4659
ū	-16.4659
ƚ	-16.4659
Ƣ	-16.4659
ƣ	-16.4659
ʼ	-16.4659
̧	-16.4659
Ъ	-16.4659
ђ	-16.4659
ї	-16.4659
ћ	-16.4659
ў	-16.4659
һ	-16.4659
د	-16.4659
ر	-16.4659
ص	-16.4659
غ	-16.4659
ك	-16.4659
م	-16.4659
ن	-16.4659
ه	-16.4659
ي	-16.4659
‒	-16.4659
⁠	-16.4659
回	-16.4659
族	-16.4659
ӯ	-16.4659
ط	-16.4659
(	-16.4659
خ	-16.4659
ز	-16.4659
ِ	-16.4659
