<unk>	0
<s>	0
</s>	0
▁а	-0
▁к	-1
▁т	-2
▁д	-3
▁б	-4
ан	-5
▁ж	-6
▁н	-7
ар	-8
▁ы	-9
▁и	-10
▁м	-11
▁с	-12
▁.	-13
▁о	-14
▁г	-15
▁у	-16
▁л	-17
ен	-18
ын	-19
▁,	-20
ер	-21
да	-22
▁ү	-23
ат	-24
▁р	-25
ин	-26
▁ар	-27
ал	-28
▁э	-29
▁ч	-30
▁ө	-31
▁ал	-32
▁-	-33
▁"	-34
уу	-35
▁е	-36
▁А	-37
▁п	-38
ыл	-39
ай	-40
▁ай	-41
ол	-42
ык	-43
▁К	-44
▁Б	-45
ир	-46
ек	-47
▁ке	-48
▁ын	-49
▁ган	-50
үн	-51
▁да	-52
ур	-53
ак	-54
ун	-55
гы	-56
ор	-57
▁де	-58
ыр	-59
▁ат	-60
он	-61
аш	-62
ле	-63
ик	-64
ам	-65
ул	-66
өр	-67
▁ш	-68
ия	-69
▁ан	-70
ил	-71
▁з	-72
▁мен	-73
ди	-74
▁ко	-75
ды	-76
өн	-77
▁тар	-78
▁иш	-79
▁ин	-80
кт	-81
▁ка	-82
▁га	-83
▁1	-84
▁2	-85
ана	-86
▁М	-87
▁менен	-88
лг	-89
ма	-90
▁та	-91
ып	-92
ыз	-93
ра	-94
ст	-95
ган	-96
▁жана	-97
▁дын	-98
▁бир	-99
▁бол	-100
▁ор	-101
га	-102
үү	-103
▁уу	-104
▁кан	-105
де	-106
▁лар	-107
▁нын	-108
ка	-109
▁кар	-110
▁Т	-111
▁С	-112
▁Ж	-113
ук	-114
ыш	-115
▁0	-116
▁О	-117
▁ия	-118
ок	-119
ет	-120
ли	-121
▁ун	-122
▁жат	-123
▁ер	-124
▁кө	-125
ча	-126
та	-127
▁бер	-128
из	-129
▁й	-130
▁тү	-131
ас	-132
▁баш	-133
▁ас	-134
ус	-135
▁туу	-136
▁ки	-137
▁ды	-138
▁ак	-139
▁кет	-140
ап	-141
▁ып	-142
▁ыл	-143
ген	-144
▁айт	-145
▁ма	-146
▁тур	-147
▁өт	-148
▁жыл	-149
те	-150
оо	-151
уш	-152
▁өл	-153
▁деп	-154
▁на	-155
▁үү	-156
▁нда	-157
▁ст	-158
▁чы	-159
▁те	-160
дө	-161
▁аб	-162
юн	-163
▁эк	-164
▁У	-165
▁дар	-166
ре	-167
▁кал	-168
мат	-169
▁гы	-170
▁ында	-171
▁ул	-172
йин	-173
ент	-174
▁лык	-175
▁аш	-176
▁үн	-177
▁сы	-178
ев	-179
▁че	-180
үр	-181
уп	-182
▁өз	-183
▁эм	-184
▁Ал	-185
стан	-186
▁тер	-187
▁лер	-188
▁ый	-189
▁дин	-190
▁кат	-191
▁үч	-192
ыргы	-193
▁жа	-194
▁эле	-195
▁со	-196
ке	-197
▁ти	-198
▁оюн	-199
▁бил	-200
▁дан	-201
өт	-202
▁сын	-203
▁зстан	-204
ес	-205
▁ол	-206
дам	-207
▁кы	-208
▁ов	-209
ты	-210
▁бе	-211
▁ге	-212
▁Э	-213
ги	-214
ары	-215
▁ф	-216
үл	-217
▁ур	-218
▁ара	-219
▁бар	-220
▁оюнча	-221
ог	-222
▁не	-223
▁олг	-224
▁ты	-225
▁в	-226
▁Кыргы	-227
▁ет	-228
▁ая	-229
ис	-230
▁маал	-231
▁аз	-232
то	-233
ку	-234
▁үр	-235
▁ына	-236
▁ба	-237
ов	-238
ут	-239
▁бай	-240
зи	-241
▁И	-242
▁кыз	-243
▁эл	-244
▁тр	-245
▁олгон	-246
▁ыш	-247
оп	-248
▁бул	-249
кер	-250
кө	-251
▁кер	-252
▁3	-253
▁ык	-254
ду	-255
им	-256
▁ыр	-257
▁ил	-258
▁кү	-259
▁үчүн	-260
до	-261
▁тин	-262
▁гөн	-263
▁тик	-264
▁ап	-265
▁луу	-266
▁он	-267
▁кай	-268
▁9	-269
▁билди	-270
▁үй	-271
▁өлкө	-272
▁ген	-273
го	-274
амле	-275
чу	-276
▁көр	-277
ым	-278
▁пре	-279
▁дент	-280
▁ымат	-281
▁бек	-282
▁өк	-283
▁иште	-284
▁кыл	-285
▁ла	-286
▁ди	-287
▁Д	-288
▁адам	-289
▁ав	-290
▁туура	-291
▁стан	-292
▁каб	-293
дан	-294
▁Ан	-295
ция	-296
▁тал	-297
▁дү	-298
▁лан	-299
▁П	-300
▁кор	-301
▁кол	-302
▁ий	-303
▁нин	-304
▁деген	-305
▁Бул	-306
гү	-307
инис	-308
▁5	-309
▁гө	-310
шы	-311
си	-312
▁ук	-313
▁сал	-314
▁Бир	-315
▁жол	-316
▁кен	-317
▁дө	-318
▁ком	-319
сы	-320
▁из	-321
▁ам	-322
▁алган	-323
▁ир	-324
▁агы	-325
▁жок	-326
ло	-327
ба	-328
▁алд	-329
▁мамле	-330
ара	-331
▁болуп	-332
ум	-333
▁Н	-334
▁уч	-335
▁4	-336
▁ми	-337
▁төр	-338
гө	-339
▁рус	-340
▁чыг	-341
▁русия	-342
▁прези	-343
▁анда	-344
▁уз	-345
▁ард	-346
▁нун	-347
▁тын	-348
ип	-349
▁күн	-350
▁кызма	-351
▁чейин	-352
▁минис	-353
▁өр	-354
▁дун	-355
еп	-356
▁:	-357
анд	-358
ге	-359
▁жак	-360
▁ша	-361
от	-362
▁Аз	-363
▁лөр	-364
▁эмес	-365
▁я	-366
кы	-367
▁уш	-368
▁керек	-369
еш	-370
дук	-371
ки	-372
зам	-373
▁ыйзам	-374
кан	-375
▁ен	-376
арт	-377
▁жаш	-378
иш	-379
▁алып	-380
▁кийин	-381
лик	-382
▁Ө	-383
гиз	-384
▁дагы	-385
▁тт	-386
бо	-387
▁оо	-388
ла	-389
▁атт	-390
▁Р	-391
өл	-392
▁ары	-393
▁7	-394
▁жаз	-395
▁жатат	-396
▁Ош	-397
лги	-398
үк	-399
▁ку	-400
▁башка	-401
▁ндө	-402
үп	-403
▁6	-404
▁ой	-405
▁ли	-406
▁8	-407
▁сө	-408
▁жер	-409
▁(	-410
▁белги	-411
▁ре	-412
▁сун	-413
▁үп	-414
▁)	-415
▁ыз	-416
▁си	-417
▁кара	-418
▁унда	-419
▁им	-420
▁нүн	-421
▁ң	-422
▁го	-423
▁үм	-424
▁жылы	-425
▁сү	-426
▁түш	-427
▁кел	-428
▁ич	-429
▁эс	-430
▁чык	-431
ми	-432
▁эки	-433
▁са	-434
▁өн	-435
▁учур	-436
▁кур	-437
▁акт	-438
▁се	-439
▁өтк	-440
▁ог	-441
ро	-442
▁көп	-443
▁рда	-444
▁алды	-445
▁нт	-446
чө	-447
▁Ч	-448
урда	-449
▁об	-450
▁Г	-451
▁ач	-452
гыз	-453
▁же	-454
▁ок	-455
▁шай	-456
ала	-457
▁ду	-458
▁тан	-459
▁ны	-460
кек	-461
раи	-462
▁дер	-463
▁инде	-464
асы	-465
▁катар	-466
▁нд	-467
ти	-468
лиг	-469
▁анын	-470
▁то	-471
ши	-472
▁ланыш	-473
лге	-474
ору	-475
▁көз	-476
▁оку	-477
▁рди	-478
▁ым	-479
▁ош	-480
чи	-481
▁ыргыз	-482
▁сот	-483
▁жүр	-484
▁ата	-485
▁?	-486
▁ра	-487
▁арак	-488
мак	-489
лык	-490
ект	-491
▁кели	-492
▁кам	-493
▁дол	-494
▁каршы	-495
▁ишкек	-496
▁келге	-497
▁түз	-498
▁үл	-499
▁чеч	-500
▁киши	-501
▁ей	-502
▁или	-503
мөт	-504
▁Бирок	-505
еле	-506
▁ээ	-507
▁Ш	-508
▁күч	-509
▁мил	-510
▁чыл	-511
ме	-512
▁аселе	-513
▁сөз	-514
ика	-515
▁миң	-516
аз	-517
▁шайло	-518
▁ден	-519
ңы	-520
▁андай	-521
▁жет	-522
▁өө	-523
▁кенин	-524
▁уп	-525
на	-526
▁кир	-527
ңеш	-528
▁сыз	-529
лус	-530
▁алуу	-531
▁арт	-532
үз	-533
▁Ук	-534
▁Украи	-535
▁ип	-536
▁ь	-537
▁жары	-538
▁жолу	-539
аны	-540
▁до	-541
▁облус	-542
уз	-543
▁жар	-544
▁ист	-545
▁үш	-546
▁пай	-547
өө	-548
▁от	-549
▁орб	-550
▁чыгар	-551
▁уул	-552
▁ну	-553
бек	-554
▁ую	-555
өш	-556
яб	-557
гу	-558
▁ийлик	-559
▁орбор	-560
▁дөн	-561
▁ынын	-562
▁өкмөт	-563
кен	-564
ко	-565
▁ме	-566
▁уна	-567
▁жөн	-568
▁мурда	-569
▁бас	-570
▁нде	-571
▁үмк	-572
▁чак	-573
▁ю	-574
▁үмкүн	-575
дин	-576
огор	-577
▁В	-578
▁колдо	-579
▁болду	-580
▁ни	-581
▁лүү	-582
▁кабыл	-583
▁жаңы	-584
▁түр	-585
▁уб	-586
▁тык	-587
▁ри	-588
чы	-589
▁иялык	-590
▁рай	-591
▁бо	-592
ыт	-593
иев	-594
▁аранд	-595
ый	-596
▁ел	-597
▁оп	-598
▁аскер	-599
ына	-600
онд	-601
тыр	-602
▁биз	-603
▁Е	-604
сө	-605
▁талап	-606
▁экен	-607
▁асы	-608
▁негиз	-609
апар	-610
▁ардын	-611
▁ызмат	-612
▁кабар	-613
уга	-614
би	-615
▁корго	-616
▁келе	-617
▁араке	-618
▁бери	-619
▁канын	-620
ем	-621
▁көрсө	-622
▁лери	-623
не	-624
▁ги	-625
▁чек	-626
дыр	-627
▁ылм	-628
уну	-629
▁айып	-630
▁алын	-631
за	-632
▁бири	-633
▁ис	-634
▁болот	-635
▁катыш	-636
▁ект	-637
чү	-638
▁ыкт	-639
▁гана	-640
▁пан	-641
▁окт	-642
▁чакыр	-643
▁инин	-644
▁эми	-645
йн	-646
▁азыр	-647
▁дей	-648
▁тарт	-649
▁сур	-650
▁Ф	-651
▁тагы	-652
сат	-653
▁чу	-654
▁шаары	-655
йнө	-656
▁дүн	-657
▁Каз	-658
со	-659
▁айтыл	-660
утт	-661
▁уюм	-662
▁үнд	-663
өм	-664
▁карма	-665
▁дик	-666
▁ле	-667
▁чыкка	-668
ци	-669
алы	-670
үг	-671
▁ооп	-672
аб	-673
▁жас	-674
▁райо	-675
аг	-676
▁жарыя	-677
▁кою	-678
ине	-679
бай	-680
▁х	-681
▁трлиг	-682
▁аймак	-683
▁ууда	-684
▁айтып	-685
▁дай	-686
дер	-687
▁икт	-688
▁Казак	-689
▁лор	-690
▁ция	-691
▁ыйын	-692
▁ент	-693
▁башта	-694
▁окуя	-695
▁ындай	-696
▁түү	-697
▁тарап	-698
▁ев	-699
▁про	-700
айы	-701
▁баев	-702
▁ит	-703
▁сак	-704
иру	-705
▁өткөр	-706
▁мат	-707
▁аны	-708
▁огуш	-709
▁деди	-710
▁өкүл	-711
▁Л	-712
▁оору	-713
▁айл	-714
▁Х	-715
ск	-716
жик	-717
▁парт	-718
▁ткер	-719
че	-720
өй	-721
▁рген	-722
▁болсо	-723
▁кый	-724
▁милли	-725
тар	-726
гон	-727
▁айыл	-728
▁сом	-729
▁ви	-730
▁ум	-731
▁бей	-732
▁орус	-733
▁шаар	-734
кто	-735
▁ек	-736
орт	-737
▁келиш	-738
▁көн	-739
▁пут	-740
▁кетке	-741
ыг	-742
ше	-743
кар	-744
▁алдык	-745
▁су	-746
▁чысы	-747
▁акча	-748
▁укт	-749
ры	-750
▁ынан	-751
▁ларды	-752
▁Жапар	-753
▁үйл	-754
▁йт	-755
маг	-756
▁кайра	-757
▁көб	-758
▁Жогор	-759
▁ик	-760
▁ине	-761
▁жылд	-762
▁жылды	-763
▁чечим	-764
▁нер	-765
▁чыгы	-766
▁долбо	-767
▁путат	-768
▁бөл	-769
▁авиру	-770
▁чо	-771
▁өрү	-772
▁аары	-773
▁ардык	-774
▁кооп	-775
▁кайры	-776
▁Анын	-777
▁лган	-778
екч	-779
▁ууга	-780
▁ардам	-781
унд	-782
▁унун	-783
▁етекч	-784
▁адамд	-785
▁гон	-786
үм	-787
▁май	-788
ри	-789
оно	-790
▁чет	-791
▁инчи	-792
▁мак	-793
▁пания	-794
ынд	-795
▁лары	-796
▁лоо	-797
▁пар	-798
▁топ	-799
лер	-800
▁лук	-801
пы	-802
▁арк	-803
▁дык	-804
рым	-805
▁дүйнө	-806
алпы	-807
▁сунуш	-808
үш	-809
▁Ев	-810
▁ошол	-811
▁ян	-812
▁абыз	-813
▁арды	-814
атт	-815
▁мент	-816
▁ышат	-817
▁но	-818
дар	-819
▁тары	-820
▁укук	-821
▁алдар	-822
▁аг	-823
▁коопс	-824
▁ылайы	-825
▁ага	-826
▁Азатт	-827
гил	-828
сий	-829
▁аясий	-830
▁Ке	-831
▁беков	-832
▁экс	-833
▁мика	-834
▁ут	-835
▁кт	-836
▁дем	-837
▁анык	-838
▁сына	-839
ян	-840
▁ту	-841
▁ад	-842
▁түн	-843
▁ндагы	-844
▁чара	-845
▁ом	-846
▁тарды	-847
асми	-848
ытай	-849
▁Кытай	-850
▁өткөн	-851
▁еке	-852
▁оң	-853
▁лист	-854
▁токто	-855
ив	-856
лган	-857
▁лүк	-858
▁орто	-859
▁арасы	-860
▁албай	-861
▁сынын	-862
▁уздук	-863
▁Кеңеш	-864
▁эч	-865
▁берил	-866
▁суу	-867
▁айтты	-868
▁сиз	-869
▁жакын	-870
▁жакшы	-871
гөр	-872
▁иктүү	-873
▁тыш	-874
▁ылмыш	-875
▁денти	-876
▁Өз	-877
▁элек	-878
▁ганда	-879
▁улам	-880
▁Ко	-881
▁парла	-882
▁тун	-883
анк	-884
▁дүү	-885
▁өзү	-886
▁авто	-887
▁три	-888
▁аң	-889
▁үргү	-890
▁жум	-891
▁өзгөр	-892
▁чил	-893
▁корон	-894
▁соң	-895
▁аныкт	-896
▁чыгып	-897
рд	-898
▁ушул	-899
▁үргүз	-900
▁акыр	-901
▁тап	-902
▁аты	-903
▁еб	-904
▁З	-905
▁дон	-906
▁ышы	-907
▁ерүү	-908
ети	-909
▁жөнү	-910
кин	-911
▁тыр	-912
▁бирок	-913
▁мү	-914
▁Биз	-915
▁чүл	-916
▁издин	-917
▁ала	-918
▁нө	-919
ери	-920
▁үрк	-921
▁ким	-922
▁нуу	-923
▁Ул	-924
▁чоң	-925
▁алар	-926
▁лады	-927
▁эконо	-928
▁дор	-929
▁гр	-930
▁оз	-931
▁араж	-932
▁оом	-933
▁дек	-934
▁келет	-935
▁өм	-936
дү	-937
▁нү	-938
▁үйлөш	-939
▁ез	-940
▁жалпы	-941
▁октяб	-942
▁айы	-943
▁быз	-944
▁Улутт	-945
үнө	-946
▁долл	-947
се	-948
▁Баш	-949
▁кеңеш	-950
▁жур	-951
▁АК	-952
▁аял	-953
▁ина	-954
▁кана	-955
▁Алар	-956
лген	-957
пи	-958
▁журна	-959
▁Ай	-960
▁илик	-961
▁АКШ	-962
▁күнү	-963
▁эсеп	-964
▁ашт	-965
▁тор	-966
ей	-967
▁чылык	-968
▁кез	-969
▁аркыл	-970
▁айрым	-971
▁дая	-972
тур	-973
▁Ошонд	-974
кү	-975
но	-976
▁тө	-977
▁каза	-978
сия	-979
▁Азыр	-980
▁олд	-981
▁ганын	-982
▁тил	-983
▁порт	-984
▁аж	-985
▁тит	-986
▁ындан	-987
тап	-988
скв	-989
00	-990
▁иши	-991
▁теги	-992
▁айыпт	-993
▁Са	-994
дик	-995
▁үүгө	-996
▁турат	-997
▁мл	-998
▁пайда	-999
▁калды	-1000
үгүн	-1001
▁ант	-1002
▁кыргы	-1003
▁өтөр	-1004
▁расми	-1005
▁дөр	-1006
▁Та	-1007
▁ча	-1008
▁нан	-1009
▁Өзбек	-1010
▁келип	-1011
▁по	-1012
▁таш	-1013
▁уучу	-1014
▁тен	-1015
▁рт	-1016
▁орун	-1017
▁нече	-1018
▁сай	-1019
▁оор	-1020
▁иси	-1021
▁алиев	-1022
▁Буга	-1023
▁мө	-1024
▁үнө	-1025
▁дук	-1026
▁кон	-1027
тү	-1028
▁эмне	-1029
▁эң	-1030
▁атал	-1031
▁рдаал	-1032
▁чул	-1033
▁арм	-1034
▁аймаг	-1035
▁бала	-1036
▁ыг	-1037
▁лаган	-1038
▁Мен	-1039
▁таб	-1040
▁үүдө	-1041
▁абал	-1042
▁ийлиг	-1043
▁Садыр	-1044
▁Евр	-1045
▁отур	-1046
▁иссия	-1047
▁рүү	-1048
▁шарт	-1049
▁ыгы	-1050
▁пик	-1051
▁деле	-1052
▁мүчө	-1053
▁екеме	-1054
▁өтө	-1055
▁ркин	-1056
акт	-1057
▁аткар	-1058
▁нган	-1059
▁берип	-1060
▁кылып	-1061
ыйыл	-1062
▁жерде	-1063
▁иштеп	-1064
▁аган	-1065
▁йын	-1066
▁тери	-1067
▁ергил	-1068
▁аштал	-1069
▁ро	-1070
▁уку	-1071
рел	-1072
▁бү	-1073
▁апрел	-1074
▁соци	-1075
▁март	-1076
▁тоо	-1077
▁саны	-1078
▁Тажик	-1079
▁еп	-1080
▁орган	-1081
бу	-1082
▁пикир	-1083
▁абуу	-1084
▁ыйынт	-1085
гөө	-1086
▁ергөө	-1087
▁илд	-1088
еби	-1089
▁аксат	-1090
▁ами	-1091
▁дыр	-1092
ит	-1093
▁буга	-1094
▁жи	-1095
▁үрөш	-1096
ани	-1097
▁очу	-1098
▁илдир	-1099
▁сат	-1100
▁сакто	-1101
▁кин	-1102
▁сыя	-1103
са	-1104
▁Ы	-1105
тор	-1106
▁ачык	-1107
вар	-1108
▁аясат	-1109
▁тол	-1110
гөн	-1111
▁кош	-1112
▁ада	-1113
▁көзөм	-1114
▁өөн	-1115
ушу	-1116
▁аттар	-1117
тер	-1118
▁ымд	-1119
▁ади	-1120
▁төраг	-1121
гра	-1122
▁рм	-1123
үгү	-1124
▁үз	-1125
ден	-1126
▁пр	-1127
▁дөгү	-1128
быз	-1129
▁ния	-1130
▁Пре	-1131
ээ	-1132
▁Ошол	-1133
▁шум	-1134
уун	-1135
▁бу	-1136
▁үркия	-1137
▁иликт	-1138
су	-1139
▁кул	-1140
▁жумуш	-1141
▁илиц	-1142
▁гү	-1143
▁так	-1144
▁меди	-1145
▁боло	-1146
▁Аба	-1147
▁тир	-1148
үрөт	-1149
▁лог	-1150
▁болчу	-1151
▁Прези	-1152
▁дары	-1153
МК	-1154
▁тук	-1155
▁өмүр	-1156
▁пер	-1157
▁рес	-1158
▁ектеп	-1159
сык	-1160
▁зы	-1161
▁ру	-1162
▁берди	-1163
▁арма	-1164
▁ишке	-1165
өлө	-1166
▁алы	-1167
▁бүл	-1168
▁тургу	-1169
▁Европ	-1170
▁му	-1171
пу	-1172
гин	-1173
▁Азия	-1174
▁ем	-1175
▁инен	-1176
▁сүн	-1177
▁шумча	-1178
▁жай	-1179
▁карат	-1180
▁жаб	-1181
▁пол	-1182
▁ады	-1183
▁мал	-1184
▁бүлө	-1185
▁беш	-1186
▁өс	-1187
▁оол	-1188
ңг	-1189
део	-1190
▁лгон	-1191
▁рат	-1192
▁арыз	-1193
ран	-1194
▁арын	-1195
▁Эл	-1196
▁төрт	-1197
лика	-1198
▁январ	-1199
гус	-1200
▁блика	-1201
жы	-1202
▁июн	-1203
▁аев	-1204
▁тааны	-1205
▁басма	-1206
▁ылган	-1207
▁аба	-1208
▁али	-1209
▁алыш	-1210
▁уктан	-1211
юл	-1212
▁Ак	-1213
▁авгус	-1214
▁грам	-1215
▁мун	-1216
▁төлө	-1217
▁айтым	-1218
▁Ма	-1219
▁ышты	-1220
▁лект	-1221
▁син	-1222
▁эр	-1223
▁сура	-1224
▁ц	-1225
ом	-1226
▁за	-1227
упц	-1228
▁рр	-1229
▁алт	-1230
▁жолуг	-1231
▁УК	-1232
▁ррупц	-1233
▁там	-1234
▁лу	-1235
▁гын	-1236
▁жаран	-1237
көн	-1238
буш	-1239
▁добуш	-1240
▁актив	-1241
▁нояб	-1242
▁УКМК	-1243
▁тек	-1244
▁акц	-1245
дай	-1246
▁эсепт	-1247
▁жылга	-1248
▁бак	-1249
рат	-1250
▁доо	-1251
▁суроо	-1252
▁майда	-1253
▁маани	-1254
▁лидер	-1255
лөр	-1256
▁аткен	-1257
▁теле	-1258
▁өкүлд	-1259
▁дуу	-1260
▁ири	-1261
▁сыр	-1262
▁док	-1263
▁көбү	-1264
▁пл	-1265
▁макул	-1266
огу	-1267
▁мек	-1268
▁озго	-1269
▁еле	-1270
▁жый	-1271
▁Кара	-1272
▁докум	-1273
▁айлан	-1274
▁Би	-1275
▁каны	-1276
▁түзүл	-1277
▁сында	-1278
▁олушу	-1279
▁коюл	-1280
▁ишен	-1281
▁наара	-1282
▁омдук	-1283
▁Анда	-1284
▁Мамле	-1285
▁салуу	-1286
▁толук	-1287
▁канча	-1288
▁жең	-1289
▁юш	-1290
▁бүт	-1291
ене	-1292
▁баган	-1293
▁чүлүк	-1294
▁декаб	-1295
▁юштур	-1296
▁Ант	-1297
▁амиле	-1298
▁соту	-1299
▁лектр	-1300
▁саат	-1301
▁сан	-1302
▁ах	-1303
▁акы	-1304
▁көбөй	-1305
▁бет	-1306
▁нанын	-1307
мь	-1308
▁Аб	-1309
▁өтүп	-1310
▁каз	-1311
▁кайта	-1312
▁кой	-1313
▁жетиш	-1314
шо	-1315
▁ерене	-1316
▁түл	-1317
▁банк	-1318
илд	-1319
▁лерди	-1320
▁ылтыр	-1321
▁зар	-1322
▁даярд	-1323
▁зүн	-1324
▁рам	-1325
▁асар	-1326
▁абуул	-1327
▁истем	-1328
▁Абад	-1329
юу	-1330
▁армак	-1331
▁талк	-1332
▁жарат	-1333
▁гөчө	-1334
▁өөнөт	-1335
▁карал	-1336
▁ишкан	-1337
▁ууну	-1338
▁бр	-1339
▁Пут	-1340
▁ыбыз	-1341
▁Путин	-1342
▁тынч	-1343
▁кыр	-1344
ел	-1345
▁лик	-1346
▁тий	-1347
▁олбо	-1348
▁видео	-1349
▁калык	-1350
▁Ү	-1351
еке	-1352
▁дейт	-1353
▁билим	-1354
▁ыра	-1355
▁өнд	-1356
▁ортос	-1357
▁атчы	-1358
▁бере	-1359
▁жаша	-1360
▁себ	-1361
▁улутт	-1362
по	-1363
▁тарых	-1364
▁жазыл	-1365
▁C	-1366
▁барып	-1367
▁иев	-1368
▁үүчү	-1369
дет	-1370
▁чог	-1371
гент	-1372
▁айг	-1373
▁ура	-1374
▁сент	-1375
еше	-1376
▁кинчи	-1377
▁камак	-1378
сү	-1379
▁июл	-1380
▁аттал	-1381
ий	-1382
▁үнкү	-1383
▁айым	-1384
▁сп	-1385
▁агент	-1386
▁экени	-1387
▁сентя	-1388
▁лды	-1389
▁алдуу	-1390
▁сыякт	-1391
▁айлар	-1392
▁карап	-1393
▁нерсе	-1394
▁себеп	-1395
▁тарда	-1396
▁жүрүп	-1397
▁артыл	-1398
▁илген	-1399
▁иргиз	-1400
▁бы	-1401
▁нен	-1402
тет	-1403
▁ация	-1404
▁кеч	-1405
▁ыкка	-1406
▁ндар	-1407
▁чү	-1408
▁окуу	-1409
▁чилик	-1410
▁ылмы	-1411
▁аттык	-1412
▁андан	-1413
▁Нур	-1414
оку	-1415
▁премь	-1416
це	-1417
▁күт	-1418
үнү	-1419
▁аас	-1420
▁Андан	-1421
▁үндүр	-1422
▁арган	-1423
▁көм	-1424
жа	-1425
▁ндук	-1426
▁тиги	-1427
▁укугу	-1428
▁йгон	-1429
▁ылдан	-1430
▁башкы	-1431
▁теген	-1432
▁чыкты	-1433
▁тажик	-1434
▁ушунд	-1435
▁нов	-1436
▁тов	-1437
▁па	-1438
▁өкүлү	-1439
▁мо	-1440
▁ман	-1441
▁нерг	-1442
▁ана	-1443
▁уулу	-1444
▁унаа	-1445
▁тарат	-1446
▁ого	-1447
▁тиеше	-1448
иц	-1449
▁зарыл	-1450
▁жүз	-1451
▁улан	-1452
▁ошонд	-1453
ари	-1454
▁Ага	-1455
▁ойло	-1456
▁ылыш	-1457
▁жаса	-1458
▁ашуун	-1459
▁илдет	-1460
▁түшүн	-1461
▁фор	-1462
▁шта	-1463
▁кий	-1464
▁үнүн	-1465
▁алык	-1466
▁аат	-1467
▁болбо	-1468
▁ең	-1469
▁соңку	-1470
▁эскер	-1471
па	-1472
екс	-1473
▁аасир	-1474
▁быйыл	-1475
▁тта	-1476
лар	-1477
▁Кон	-1478
▁тташ	-1479
▁млн	-1480
▁кайсы	-1481
▁ски	-1482
▁еш	-1483
▁урал	-1484
▁чылар	-1485
▁алк	-1486
▁жогор	-1487
ума	-1488
▁Көл	-1489
▁текше	-1490
▁үнү	-1491
нын	-1492
▁ишкер	-1493
▁кирги	-1494
уна	-1495
▁ээн	-1496
▁ички	-1497
▁сатып	-1498
▁ло	-1499
▁ынча	-1500
▁улуш	-1501
▁үндүз	-1502
▁иб	-1503
▁келди	-1504
тан	-1505
▁үшү	-1506
▁жаза	-1507
▁сынан	-1508
гек	-1509
▁жеке	-1510
▁олбой	-1511
▁тең	-1512
▁арга	-1513
▁грамм	-1514
▁кезде	-1515
▁кызык	-1516
▁тиз	-1517
▁Антке	-1518
▁айгаш	-1519
▁шт	-1520
▁төрү	-1521
▁итети	-1522
дон	-1523
▁10	-1524
▁титу	-1525
▁урм	-1526
▁деги	-1527
▁соо	-1528
дын	-1529
мө	-1530
▁ачыл	-1531
бө	-1532
▁бериш	-1533
▁отт	-1534
▁жыйын	-1535
▁айылы	-1536
▁даш	-1537
▁уюму	-1538
▁перт	-1539
▁өндүр	-1540
▁канда	-1541
▁аяс	-1542
▁Минис	-1543
▁нттар	-1544
▁алат	-1545
▁титуц	-1546
▁ратур	-1547
▁жасал	-1548
же	-1549
▁калк	-1550
▁леди	-1551
▁барат	-1552
▁ради	-1553
▁тышк	-1554
▁рип	-1555
▁зүнүн	-1556
▁ыкты	-1557
▁инс	-1558
▁Уш	-1559
▁ияга	-1560
▁нөн	-1561
▁уула	-1562
▁ылуу	-1563
▁Кор	-1564
▁ебеби	-1565
▁Мо	-1566
▁суна	-1567
▁ели	-1568
▁шаард	-1569
▁Оо	-1570
▁мур	-1571
▁бүгүн	-1572
▁тай	-1573
▁рак	-1574
▁нды	-1575
▁оскв	-1576
▁мир	-1577
▁осква	-1578
▁соода	-1579
▁берет	-1580
гер	-1581
▁аялд	-1582
▁өнү	-1583
▁дир	-1584
▁ес	-1585
▁Ооган	-1586
▁КШ	-1587
▁КШнын	-1588
▁олу	-1589
▁убакт	-1590
▁Жал	-1591
▁леп	-1592
▁медиц	-1593
▁ашык	-1594
▁Ат	-1595
▁үүлөр	-1596
▁уба	-1597
▁сызд	-1598
▁диги	-1599
ера	-1600
ңүл	-1601
▁жашоо	-1602
мин	-1603
▁уюмд	-1604
▁деш	-1605
▁ания	-1606
▁еген	-1607
▁мия	-1608
▁кач	-1609
▁бой	-1610
▁зра	-1611
▁өлүгү	-1612
▁Ата	-1613
▁тыюу	-1614
▁зраил	-1615
▁фи	-1616
▁салын	-1617
▁рун	-1618
▁сүй	-1619
▁агдай	-1620
▁көңүл	-1621
▁Де	-1622
▁проку	-1623
▁багы	-1624
▁эне	-1625
▁аштап	-1626
▁мет	-1627
▁эт	-1628
кта	-1629
▁үйү	-1630
▁догу	-1631
▁Жалал	-1632
▁опера	-1633
▁тизме	-1634
▁тынын	-1635
▁брда	-1636
▁илер	-1637
▁июнда	-1638
▁кап	-1639
▁деңг	-1640
▁бөлүм	-1641
▁илим	-1642
мер	-1643
▁абак	-1644
▁деңгэ	-1645
▁табыл	-1646
▁тон	-1647
▁!	-1648
▁сырт	-1649
▁кала	-1650
▁жөнөт	-1651
▁имов	-1652
▁багыт	-1653
▁кең	-1654
▁жарым	-1655
▁N	-1656
▁кетти	-1657
▁вак	-1658
▁айда	-1659
▁сүрөт	-1660
▁ышкан	-1661
▁дарды	-1662
▁чал	-1663
▁иц	-1664
▁ыйыны	-1665
▁кама	-1666
▁кайт	-1667
▁урук	-1668
▁үүнү	-1669
▁куну	-1670
▁алкуу	-1671
▁рин	-1672
▁дөй	-1673
▁ишин	-1674
▁алты	-1675
▁тас	-1676
▁ерин	-1677
▁ушуу	-1678
▁изилд	-1679
▁ларын	-1680
▁во	-1681
▁үст	-1682
▁ократ	-1683
▁котор	-1684
▁мигра	-1685
▁ыс	-1686
▁Абд	-1687
▁дүк	-1688
▁унан	-1689
▁%	-1690
▁алда	-1691
▁төн	-1692
▁жазды	-1693
жо	-1694
▁алм	-1695
▁;	-1696
▁Ысык	-1697
▁ерлер	-1698
▁кетиш	-1699
анс	-1700
▁Ар	-1701
▁Вла	-1702
▁кунуч	-1703
▁аа	-1704
▁адис	-1705
ылм	-1706
▁украи	-1707
▁актал	-1708
▁рмалы	-1709
үй	-1710
▁илиги	-1711
▁сотто	-1712
▁тем	-1713
▁лай	-1714
▁Нар	-1715
▁чын	-1716
▁элдик	-1717
▁өнүкт	-1718
▁сту	-1719
▁Влади	-1720
▁милде	-1721
▁каг	-1722
▁бүз	-1723
▁Башкы	-1724
▁ула	-1725
▁ишмер	-1726
▁нада	-1727
▁ою	-1728
бүз	-1729
поз	-1730
▁өнө	-1731
▁асып	-1732
▁алмаш	-1733
▁кыс	-1734
▁сок	-1735
▁ех	-1736
бер	-1737
▁түп	-1738
▁болуу	-1739
инг	-1740
▁казак	-1741
▁полиц	-1742
▁лы	-1743
▁ибиз	-1744
▁нага	-1745
▁I	-1746
▁нал	-1747
▁логия	-1748
▁истра	-1749
▁тышкы	-1750
▁тараб	-1751
▁ууган	-1752
▁Конс	-1753
түр	-1754
▁гач	-1755
▁армия	-1756
▁огору	-1757
▁алка	-1758
▁өлүм	-1759
▁ирим	-1760
▁урукс	-1761
▁үрүү	-1762
▁азар	-1763
▁бейт	-1764
▁Иран	-1765
▁эмгек	-1766
▁анд	-1767
ару	-1768
▁Атам	-1769
▁ска	-1770
евр	-1771
▁февр	-1772
▁алкаг	-1773
унун	-1774
▁елару	-1775
▁жабыр	-1776
▁жерге	-1777
▁ос	-1778
▁ова	-1779
▁трлер	-1780
▁Дү	-1781
▁лөрү	-1782
▁ейт	-1783
▁нча	-1784
▁Москв	-1785
▁дал	-1786
▁лып	-1787
▁Ис	-1788
▁каев	-1789
▁мд	-1790
▁мэ	-1791
▁T	-1792
▁суз	-1793
▁админ	-1794
▁аар	-1795
▁өрт	-1796
лам	-1797
▁ион	-1798
▁Чүй	-1799
уучу	-1800
▁ков	-1801
▁чулар	-1802
▁уг	-1803
▁шкан	-1804
▁алдын	-1805
▁бакыт	-1806
▁жибер	-1807
▁абалы	-1808
▁депут	-1809
▁июлда	-1810
▁айынд	-1811
▁абдан	-1812
▁өлтүр	-1813
▁өш	-1814
▁Си	-1815
▁салам	-1816
▁бөй	-1817
▁ылды	-1818
▁тарга	-1819
▁катуу	-1820
▁жог	-1821
▁тый	-1822
▁апкан	-1823
▁армаг	-1824
▁улган	-1825
▁радио	-1826
▁Дүйнө	-1827
▁үлг	-1828
▁караш	-1829
▁умт	-1830
▁ейтап	-1831
▁иң	-1832
▁спорт	-1833
▁15	-1834
▁санал	-1835
▁жан	-1836
▁азык	-1837
▁лим	-1838
▁пи	-1839
▁гөнүн	-1840
▁кетип	-1841
▁өг	-1842
▁тобу	-1843
▁көч	-1844
▁20	-1845
▁нет	-1846
▁шек	-1847
▁гачкы	-1848
▁сапар	-1849
▁Атамб	-1850
йгө	-1851
▁каруу	-1852
▁көл	-1853
▁зыл	-1854
▁зылык	-1855
▁лап	-1856
▁элдин	-1857
▁алыс	-1858
теп	-1859
▁ский	-1860
▁күй	-1861
▁имара	-1862
▁үлүп	-1863
▁таж	-1864
▁алтын	-1865
▁таг	-1866
▁ака	-1867
▁аль	-1868
▁матов	-1869
▁Эми	-1870
▁саба	-1871
▁шект	-1872
▁чылыг	-1873
▁муну	-1874
▁ыкча	-1875
▁изге	-1876
▁лерин	-1877
▁пайыз	-1878
▁исалы	-1879
▁форма	-1880
дж	-1881
▁Ушул	-1882
▁ама	-1883
▁жетки	-1884
▁гин	-1885
▁Тал	-1886
▁ль	-1887
▁байт	-1888
▁сине	-1889
▁өнөкт	-1890
▁сүз	-1891
▁шев	-1892
▁кеси	-1893
▁гем	-1894
▁үнчү	-1895
▁лд	-1896
▁гер	-1897
▁леген	-1898
▁ыктар	-1899
ни	-1900
▁илке	-1901
▁келин	-1902
▁аман	-1903
▁тапшы	-1904
▁өттү	-1905
▁елт	-1906
▁Маал	-1907
▁ултан	-1908
▁ажыр	-1909
вес	-1910
▁итинг	-1911
▁сайын	-1912
▁оппоз	-1913
▁каржы	-1914
▁сотко	-1915
▁төм	-1916
▁кыска	-1917
▁елтир	-1918
▁тарын	-1919
▁езек	-1920
▁жети	-1921
▁газ	-1922
▁жаг	-1923
▁азай	-1924
▁чурда	-1925
▁курул	-1926
▁сокку	-1927
▁ттуу	-1928
▁ланды	-1929
▁ере	-1930
▁нып	-1931
▁би	-1932
▁Бат	-1933
▁елген	-1934
мо	-1935
▁төмөн	-1936
▁ндеги	-1937
▁ире	-1938
▁одо	-1939
джет	-1940
▁Рес	-1941
▁риш	-1942
▁терди	-1943
▁юджет	-1944
▁рма	-1945
▁тыйжа	-1946
▁Респу	-1947
▁учак	-1948
▁чогул	-1949
▁йм	-1950
▁буз	-1951
▁чект	-1952
түк	-1953
▁басым	-1954
▁үштүк	-1955
▁мин	-1956
▁млрд	-1957
▁орду	-1958
▁үк	-1959
▁пей	-1960
▁бө	-1961
▁ндор	-1962
▁Ю	-1963
▁актан	-1964
▁мурун	-1965
▁уд	-1966
▁ткери	-1967
▁Сал	-1968
▁Батыш	-1969
▁көрүп	-1970
▁азуу	-1971
еси	-1972
▁уза	-1973
▁нтари	-1974
▁четке	-1975
▁эске	-1976
VI	-1977
▁аян	-1978
▁тигин	-1979
▁күндө	-1980
▁акынд	-1981
▁башчы	-1982
▁реж	-1983
▁Нарын	-1984
▁ск	-1985
▁аштар	-1986
▁зом	-1987
▁аният	-1988
▁асылм	-1989
▁чулук	-1990
▁30	-1991
▁ларда	-1992
▁ив	-1993
▁сый	-1994
▁панде	-1995
▁рган	-1996
▁арада	-1997
▁Гер	-1998
▁зомбу	-1999
▁рып	-2000
▁ашыр	-2001
▁ың	-2002
▁апта	-2003
▁тут	-2004
▁эрте	-2005
▁комме	-2006
▁вир	-2007
▁туш	-2008
▁олог	-2009
▁ажыра	-2010
▁актап	-2011
▁ттер	-2012
▁иримд	-2013
▁талаш	-2014
▁ыч	-2015
▁айына	-2016
▁көчө	-2017
▁кетүү	-2018
▁Бүгүн	-2019
▁дирек	-2020
▁респу	-2021
▁Аны	-2022
▁мае	-2023
▁сек	-2024
▁рси	-2025
▁инвес	-2026
лө	-2027
дөө	-2028
▁адыр	-2029
▁санк	-2030
рл	-2031
▁ондо	-2032
▁ткү	-2033
▁уулар	-2034
▁рил	-2035
▁рамп	-2036
▁генин	-2037
▁митет	-2038
▁санкц	-2039
▁нг	-2040
▁дым	-2041
▁орт	-2042
▁Эгер	-2043
▁топто	-2044
▁үгү	-2045
▁жеңил	-2046
ама	-2047
▁аал	-2048
▁таза	-2049
▁рсите	-2050
▁мед	-2051
▁улант	-2052
реже	-2053
▁скер	-2054
▁эреже	-2055
▁баа	-2056
▁инети	-2057
▁кыйын	-2058
▁тез	-2059
▁лануу	-2060
▁штаб	-2061
▁Ич	-2062
▁Герма	-2063
▁акция	-2064
▁келат	-2065
▁вакц	-2066
▁их	-2067
▁гал	-2068
▁кеп	-2069
▁То	-2070
▁тул	-2071
▁өнүг	-2072
▁ест	-2073
▁ети	-2074
▁китеп	-2075
▁олдоо	-2076
▁терге	-2077
▁пе	-2078
▁үндүк	-2079
▁Киев	-2080
▁ракет	-2081
▁өң	-2082
лы	-2083
▁кта	-2084
▁нунда	-2085
▁обо	-2086
▁бирөө	-2087
▁11	-2088
▁аяг	-2089
▁каала	-2090
▁турук	-2091
▁еки	-2092
▁инф	-2093
▁товар	-2094
▁анат	-2095
▁өөчү	-2096
▁иал	-2097
▁декси	-2098
▁кулов	-2099
▁сүйлө	-2100
иве	-2101
▁униве	-2102
▁ткөн	-2103
▁ишти	-2104
▁A	-2105
▁баз	-2106
▁езгил	-2107
▁түрдө	-2108
▁тору	-2109
▁ттан	-2110
▁Бри	-2111
▁игра	-2112
▁урам	-2113
▁Өк	-2114
▁арба	-2115
▁метр	-2116
▁Брита	-2117
▁трлик	-2118
▁туп	-2119
▁жазып	-2120
▁умтөр	-2121
▁ыктын	-2122
▁Эки	-2123
▁ыктан	-2124
▁Ро	-2125
▁Газ	-2126
▁ебиз	-2127
▁12	-2128
▁антип	-2129
▁Ички	-2130
▁алтыр	-2131
▁дээ	-2132
▁анит	-2133
▁баасы	-2134
▁дат	-2135
▁рдук	-2136
▁өзбек	-2137
▁түк	-2138
▁сөзд	-2139
жан	-2140
▁шон	-2141
▁зыян	-2142
▁Евро	-2143
on	-2144
▁бошо	-2145
▁базар	-2146
▁кирип	-2147
▁ери	-2148
▁аякта	-2149
▁Өкмөт	-2150
▁иштей	-2151
▁пу	-2152
▁лен	-2153
▁конс	-2154
▁стун	-2155
▁вирус	-2156
▁дээрл	-2157
▁Жа	-2158
▁болуш	-2159
▁сынд	-2160
▁аки	-2161
▁n	-2162
▁CO	-2163
сыз	-2164
▁ау	-2165
▁рь	-2166
▁баала	-2167
▁c	-2168
▁Мурда	-2169
▁бур	-2170
▁орунд	-2171
▁элч	-2172
▁асыз	-2173
▁екен	-2174
▁здар	-2175
▁овет	-2176
▁ток	-2177
▁катта	-2178
▁Талас	-2179
▁армап	-2180
▁s	-2181
▁мби	-2182
▁коюш	-2183
▁шайла	-2184
▁гүл	-2185
▁Салам	-2186
▁даяр	-2187
гын	-2188
▁ония	-2189
▁күнөө	-2190
▁дам	-2191
▁ург	-2192
▁матер	-2193
▁што	-2194
▁куруу	-2195
▁оолуу	-2196
▁жума	-2197
▁Жаңы	-2198
бы	-2199
▁күчөт	-2200
▁туруш	-2201
▁Жо	-2202
▁чем	-2203
▁станд	-2204
▁ырт	-2205
▁аракч	-2206
▁беген	-2207
▁эсеби	-2208
▁евр	-2209
▁анал	-2210
▁зүү	-2211
▁узду	-2212
▁кесип	-2213
▁койду	-2214
▁титут	-2215
▁күнд	-2216
▁бош	-2217
▁ыраст	-2218
▁мад	-2219
▁рыл	-2220
ту	-2221
▁олдо	-2222
▁улар	-2223
▁ланып	-2224
▁Кө	-2225
▁аянт	-2226
▁Алекс	-2227
VID	-2228
▁окшо	-2229
▁лукка	-2230
▁өмүрү	-2231
▁өч	-2232
▁пул	-2233
▁кошул	-2234
▁турум	-2235
▁сайты	-2236
▁инг	-2237
▁ымб	-2238
▁муз	-2239
▁калат	-2240
▁ус	-2241
▁S	-2242
▁зор	-2243
▁мүнө	-2244
▁телеф	-2245
▁ари	-2246
▁илди	-2247
лор	-2248
▁узуу	-2249
▁диний	-2250
ста	-2251
▁ырсык	-2252
▁No	-2253
▁гу	-2254
▁кээ	-2255
▁коюп	-2256
▁лүгү	-2257
▁кын	-2258
▁тамак	-2259
▁атра	-2260
▁айден	-2261
▁гемен	-2262
▁ишени	-2263
▁канал	-2264
▁циясы	-2265
сс	-2266
▁сунда	-2267
маз	-2268
▁нунун	-2269
нес	-2270
▁атыл	-2271
▁нтин	-2272
▁өзүн	-2273
▁ег	-2274
▁уктур	-2275
▁ңыз	-2276
▁ирет	-2277
▁COVID	-2278
▁Быйыл	-2279
▁изнес	-2280
▁лмаз	-2281
▁үлк	-2282
▁орно	-2283
▁ашиев	-2284
▁кадам	-2285
▁урс	-2286
▁терин	-2287
▁байка	-2288
▁туруп	-2289
▁айтыш	-2290
▁Анан	-2291
▁ыгын	-2292
▁ектөө	-2293
▁курч	-2294
▁галим	-2295
▁иялар	-2296
▁имди	-2297
▁сана	-2298
йр	-2299
▁рын	-2300
▁келти	-2301
▁Кам	-2302
▁аза	-2303
▁изд	-2304
▁оро	-2305
▁өөк	-2306
▁аттуу	-2307
▁дарыг	-2308
▁бетте	-2309
▁бөлүн	-2310
▁етте	-2311
▁Сүрөт	-2312
▁маш	-2313
▁мок	-2314
▁түзүү	-2315
▁сакта	-2316
▁сеп	-2317
▁мас	-2318
▁кылды	-2319
ШК	-2320
▁жолдо	-2321
▁калаа	-2322
ИМ	-2323
▁БШК	-2324
▁фон	-2325
▁оттун	-2326
▁планд	-2327
▁үт	-2328
▁играц	-2329
▁гында	-2330
▁убада	-2331
▁баян	-2332
▁лиги	-2333
▁шы	-2334
▁ондон	-2335
▁урман	-2336
▁еск	-2337
▁үстү	-2338
▁уур	-2339
▁көздө	-2340
▁кс	-2341
▁ндия	-2342
▁эли	-2343
▁сыртк	-2344
▁ушу	-2345
▁фак	-2346
▁танд	-2347
▁факты	-2348
▁Айт	-2349
▁ылд	-2350
▁лаш	-2351
▁мэри	-2352
▁етика	-2353
▁көлөм	-2354
▁транс	-2355
▁аан	-2356
▁күбө	-2357
пө	-2358
▁енко	-2359
▁зи	-2360
▁режим	-2361
пар	-2362
▁таян	-2363
▁үнүш	-2364
▁астан	-2365
▁Ц	-2366
▁100	-2367
▁баса	-2368
▁үйлөр	-2369
жал	-2370
▁ериш	-2371
▁куучу	-2372
▁бара	-2373
шө	-2374
▁Зел	-2375
тик	-2376
▁үйшө	-2377
▁кийи	-2378
▁арай	-2379
ва	-2380
▁Тыш	-2381
▁бою	-2382
▁амат	-2383
▁айжан	-2384
▁Тышкы	-2385
▁тасма	-2386
▁арала	-2387
▁булак	-2388
▁тапта	-2389
▁уздуг	-2390
▁Айрым	-2391
▁ран	-2392
▁узак	-2393
▁бирге	-2394
▁Суу	-2395
▁ткүч	-2396
▁чемпи	-2397
▁ыйм	-2398
▁аткан	-2399
▁ымбат	-2400
▁өөсү	-2401
▁жакта	-2402
▁Но	-2403
▁зат	-2404
ья	-2405
лет	-2406
▁чук	-2407
▁үзөт	-2408
▁амсыз	-2409
▁нул	-2410
▁ийи	-2411
▁i	-2412
▁Ор	-2413
▁ылдыр	-2414
▁айко	-2415
▁ызыл	-2416
▁Ала	-2417
сөт	-2418
▁Зелен	-2419
▁студе	-2420
▁өрсөт	-2421
▁Со	-2422
▁комп	-2423
▁иза	-2424
▁егиз	-2425
▁жокко	-2426
▁тирүү	-2427
▁талд	-2428
түү	-2429
▁чө	-2430
▁сөзү	-2431
▁арх	-2432
▁түрк	-2433
▁олдор	-2434
▁ира	-2435
▁дөрү	-2436
▁улуу	-2437
доо	-2438
▁Мад	-2439
▁луп	-2440
▁ору	-2441
▁калы	-2442
▁аңжал	-2443
▁сс	-2444
▁ачан	-2445
▁таган	-2446
▁түшүп	-2447
▁Рос	-2448
▁Чек	-2449
▁орлор	-2450
▁жиг	-2451
▁ред	-2452
▁арна	-2453
▁Ки	-2454
▁Газа	-2455
▁Орус	-2456
▁14	-2457
▁Сот	-2458
▁кызы	-2459
▁айылд	-2460
туу	-2461
▁еңиш	-2462
▁атр	-2463
▁50	-2464
▁иг	-2465
▁дип	-2466
▁дыгы	-2467
▁таң	-2468
▁дро	-2469
▁дипло	-2470
▁түрү	-2471
▁13	-2472
▁сия	-2473
▁етект	-2474
▁Сир	-2475
▁изм	-2476
▁өзүнө	-2477
▁арг	-2478
▁Сирия	-2479
▁+	-2480
▁еткен	-2481
▁Бек	-2482
▁ИИМ	-2483
▁Ошо	-2484
▁аппар	-2485
▁курор	-2486
▁чүлүг	-2487
▁олго	-2488
▁нууда	-2489
▁үбүз	-2490
▁ошо	-2491
▁ааты	-2492
▁шент	-2493
▁иреше	-2494
йру	-2495
▁лас	-2496
▁Камчы	-2497
▁ылбек	-2498
▁доочу	-2499
▁r	-2500
▁пас	-2501
▁өнөр	-2502
сб	-2503
шу	-2504
▁оок	-2505
▁имдиг	-2506
▁штуу	-2507
▁ылып	-2508
▁жабыл	-2509
▁ленге	-2510
▁мб	-2511
▁сте	-2512
▁алаа	-2513
▁дигин	-2514
▁орд	-2515
▁тыл	-2516
▁план	-2517
▁атаал	-2518
▁жарал	-2519
▁ван	-2520
▁медиа	-2521
▁атыш	-2522
▁акиев	-2523
▁пир	-2524
▁екит	-2525
▁ерр	-2526
▁жара	-2527
▁арыл	-2528
▁экөө	-2529
▁Кийин	-2530
▁жылда	-2531
▁лыш	-2532
▁Ам	-2533
▁ци	-2534
▁Таш	-2535
▁мык	-2536
▁сез	-2537
▁ыптыр	-2538
▁рек	-2539
▁тив	-2540
▁Евроб	-2541
▁араат	-2542
▁жүзү	-2543
▁жогот	-2544
▁Амери	-2545
▁менин	-2546
▁кли	-2547
▁апат	-2548
▁ыштыр	-2549
гар	-2550
▁иштет	-2551
,5	-2552
тай	-2553
ейсб	-2554
өлөр	-2555
▁лей	-2556
▁шты	-2557
▁оңшу	-2558
▁Фейсб	-2559
▁түрмө	-2560
▁рө	-2561
▁огул	-2562
▁үнүч	-2563
анас	-2564
▁Манас	-2565
▁муни	-2566
▁ейше	-2567
▁зама	-2568
▁рия	-2569
▁унт	-2570
▁арыш	-2571
▁Тем	-2572
▁тыгы	-2573
▁интер	-2574
▁тиция	-2575
▁урмуш	-2576
▁иалд	-2577
▁ашине	-2578
▁Өт	-2579
▁ысы	-2580
▁коно	-2581
▁нбай	-2582
▁айлык	-2583
▁кароо	-2584
▁од	-2585
▁урамы	-2586
▁Гүл	-2587
шыр	-2588
▁өйгө	-2589
▁баянд	-2590
▁ылдык	-2591
ерб	-2592
▁Корон	-2593
▁ндөгү	-2594
▁едер	-2595
▁Азерб	-2596
▁синин	-2597
▁Шай	-2598
▁терро	-2599
▁фр	-2600
▁өп	-2601
▁лла	-2602
▁жайыл	-2603
▁каган	-2604
▁жоо	-2605
▁темир	-2606
▁Темир	-2607
▁милге	-2608
▁ыйгар	-2609
▁кем	-2610
▁ъ	-2611
▁сөө	-2612
▁тонна	-2613
▁өйгөй	-2614
er	-2615
▁тасы	-2616
▁гинде	-2617
▁проце	-2618
▁сомго	-2619
ma	-2620
▁мыкты	-2621
▁колог	-2622
▁кес	-2623
▁оттук	-2624
▁25	-2625
▁Фран	-2626
▁абаг	-2627
▁оци	-2628
▁чаг	-2629
▁сурак	-2630
▁аманд	-2631
▁маалы	-2632
▁огуз	-2633
▁бизди	-2634
▁риз	-2635
▁чөй	-2636
▁апшыр	-2637
▁сттик	-2638
▁шондо	-2639
▁Токто	-2640
▁тарта	-2641
▁Ле	-2642
▁ерс	-2643
▁зия	-2644
▁ңар	-2645
▁өкүм	-2646
▁Жума	-2647
▁чогуу	-2648
▁нат	-2649
▁утб	-2650
▁герде	-2651
мүр	-2652
▁ойно	-2653
▁төрө	-2654
▁Өмүр	-2655
▁бошот	-2656
▁өөлөр	-2657
▁ино	-2658
▁ардыг	-2659
▁жетти	-2660
оро	-2661
▁зм	-2662
▁элде	-2663
▁демия	-2664
▁еди	-2665
▁өкт	-2666
▁тали	-2667
▁гынын	-2668
▁дерди	-2669
▁жери	-2670
▁Франц	-2671
▁амери	-2672
чик	-2673
▁анк	-2674
▁тех	-2675
▁жасап	-2676
▁коюу	-2677
▁удья	-2678
▁ыңг	-2679
▁бирик	-2680
▁алиба	-2681
▁чукул	-2682
▁16	-2683
мит	-2684
▁ыт	-2685
▁хам	-2686
▁өтөт	-2687
▁Мунун	-2688
▁ика	-2689
▁айма	-2690
▁жолун	-2691
▁вице	-2692
▁бекем	-2693
▁ескин	-2694
инч	-2695
▁шо	-2696
▁леш	-2697
▁узуп	-2698
▁зит	-2699
▁ник	-2700
▁оптор	-2701
▁Ком	-2702
▁гре	-2703
▁ерден	-2704
▁датта	-2705
▁чыгыш	-2706
▁оли	-2707
ея	-2708
рө	-2709
▁чөйрө	-2710
▁вал	-2711
▁ият	-2712
▁буйру	-2713
▁сөөгү	-2714
▁абы	-2715
▁енин	-2716
▁убан	-2717
▁жашап	-2718
▁пал	-2719
▁айдан	-2720
▁алгыз	-2721
▁оомчу	-2722
▁чыр	-2723
▁Расми	-2724
▁бажы	-2725
▁Өткөн	-2726
▁Арм	-2727
▁кун	-2728
▁оюз	-2729
▁рем	-2730
▁смо	-2731
▁нстан	-2732
▁камс	-2733
▁ыздоо	-2734
▁олот	-2735
▁нция	-2736
▁тере	-2737
▁ерект	-2738
▁УУ	-2739
▁рый	-2740
▁үнөн	-2741
▁кыркы	-2742
иг	-2743
▁Өл	-2744
ого	-2745
▁18	-2746
▁оюнд	-2747
▁мөн	-2748
▁анан	-2749
▁егия	-2750
▁өгөт	-2751
▁ве	-2752
▁күл	-2753
▁атка	-2754
▁гресс	-2755
▁ркек	-2756
▁жакка	-2757
▁оч	-2758
▁аммит	-2759
▁едера	-2760
▁Көп	-2761
▁пози	-2762
▁чыга	-2763
▁өрүн	-2764
▁төө	-2765
▁турак	-2766
▁олку	-2767
▁лимпи	-2768
вок	-2769
▁айта	-2770
▁рыйба	-2771
▁төгөн	-2772
▁сегиз	-2773
▁тууга	-2774
▁ароо	-2775
▁баруу	-2776
▁башал	-2777
▁иңде	-2778
▁аэ	-2779
▁кл	-2780
▁сен	-2781
▁ийгиз	-2782
▁лөрдү	-2783
▁сум	-2784
▁тып	-2785
▁эсе	-2786
▁олтур	-2787
чар	-2788
▁тара	-2789
▁Ислам	-2790
▁карыз	-2791
▁утбол	-2792
▁бөлүш	-2793
▁кытай	-2794
▁ъект	-2795
▁Жалпы	-2796
▁енчик	-2797
▁Кош	-2798
▁лет	-2799
▁сел	-2800
▁Башка	-2801
▁Корея	-2802
▁Шайло	-2803
▁ризис	-2804
▁жанд	-2805
▁ыкма	-2806
▁ани	-2807
▁гра	-2808
▁оль	-2809
▁ения	-2810
▁ткан	-2811
▁/	-2812
маты	-2813
▁эрки	-2814
▁өтпө	-2815
▁асына	-2816
▁лматы	-2817
▁мбиде	-2818
▁ный	-2819
▁ктор	-2820
▁олжо	-2821
▁ошон	-2822
▁ыраа	-2823
▁огулт	-2824
▁таап	-2825
▁Му	-2826
▁аст	-2827
▁шар	-2828
▁убак	-2829
▁үнчө	-2830
▁аттам	-2831
▁Коо	-2832
▁фонд	-2833
▁ью	-2834
▁үмү	-2835
▁чыкпа	-2836
▁R	-2837
▁оңдо	-2838
▁начар	-2839
▁чечүү	-2840
▁адвок	-2841
▁оокер	-2842
▁ласс	-2843
▁лыгы	-2844
дүү	-2845
▁нуп	-2846
▁B	-2847
▁калыб	-2848
▁кете	-2849
▁оолу	-2850
▁ыгыш	-2851
▁Өлкө	-2852
ЭБ	-2853
нун	-2854
▁мага	-2855
▁үрөт	-2856
▁оңку	-2857
▁акты	-2858
▁УУнун	-2859
▁вод	-2860
▁На	-2861
▁катто	-2862
▁ыймыл	-2863
▁еми	-2864
▁улу	-2865
▁кеми	-2866
▁узул	-2867
▁жүк	-2868
▁мер	-2869
▁чилиг	-2870
▁енс	-2871
▁кил	-2872
▁алса	-2873
▁ишине	-2874
▁агым	-2875
▁атор	-2876
▁күнгө	-2877
▁ажы	-2878
▁арам	-2879
▁убат	-2880
▁ста	-2881
▁туруу	-2882
▁иж	-2883
АТ	-2884
▁орма	-2885
▁иштүү	-2886
иза	-2887
▁жу	-2888
үшү	-2889
▁ыма	-2890
▁ашыг	-2891
▁андат	-2892
▁күр	-2893
▁17	-2894
▁түштү	-2895
▁иккен	-2896
▁ээк	-2897
▁туул	-2898
▁уулук	-2899
▁үлгөн	-2900
▁нтер	-2901
▁уккан	-2902
▁гүн	-2903
▁згө	-2904
▁лыг	-2905
▁укта	-2906
▁унай	-2907
▁До	-2908
▁умш	-2909
▁алга	-2910
▁салык	-2911
▁кириш	-2912
▁көнүн	-2913
▁нуш	-2914
▁баева	-2915
▁далил	-2916
тт	-2917
▁ion	-2918
▁гум	-2919
▁стат	-2920
▁Жак	-2921
▁сам	-2922
▁күчт	-2923
пс	-2924
▁атып	-2925
▁рл	-2926
▁рдо	-2927
▁азия	-2928
▁арык	-2929
▁тте	-2930
▁Кем	-2931
▁Муну	-2932
▁адан	-2933
▁Коопс	-2934
▁илери	-2935
▁мей	-2936
▁рас	-2937
▁шунд	-2938
АС	-2939
▁октом	-2940
▁Я	-2941
▁мар	-2942
▁түй	-2943
▁ңиз	-2944
▁уусу	-2945
▁ынга	-2946
▁арлык	-2947
▁ганы	-2948
▁жаны	-2949
▁раак	-2950
▁техни	-2951
▁дыгын	-2952
▁они	-2953
▁алым	-2954
▁таан	-2955
▁пор	-2956
▁чечил	-2957
▁анча	-2958
▁чынд	-2959
▁ыны	-2960
▁ларга	-2961
▁арат	-2962
▁инче	-2963
▁одон	-2964
▁Сооро	-2965
▁анция	-2966
▁рол	-2967
▁инте	-2968
▁лду	-2969
▁еме	-2970
▁ууг	-2971
▁ланга	-2972
▁рүүдө	-2973
ge	-2974
▁түлү	-2975
▁араш	-2976
▁ашкан	-2977
▁октот	-2978
▁ехно	-2979
▁абд	-2980
▁нар	-2981
▁убай	-2982
▁тация	-2983
▁үркмө	-2984
▁мол	-2985
▁атуу	-2986
▁ышына	-2987
▁рей	-2988
▁оско	-2989
▁скар	-2990
▁Жакын	-2991
▁фонду	-2992
▁орг	-2993
▁нттер	-2994
▁фер	-2995
▁дөө	-2996
▁жүрүш	-2997
▁андаш	-2998
▁жуг	-2999
▁еңиз	-3000
▁ндон	-3001
▁үрүшү	-3002
▁жам	-3003
▁арку	-3004
▁утка	-3005
▁тыкта	-3006
▁40	-3007
▁Ад	-3008
▁ыздар	-3009
▁мы	-3010
▁сепет	-3011
▁гран	-3012
▁улма	-3013
▁андыр	-3014
▁акын	-3015
▁ийги	-3016
▁үтү	-3017
бей	-3018
▁бат	-3019
▁атты	-3020
▁как	-3021
▁згөчө	-3022
▁гыл	-3023
▁убуз	-3024
▁лгөн	-3025
▁улут	-3026
▁сүндө	-3027
▁уунун	-3028
▁нф	-3029
▁күчө	-3030
▁илими	-3031
▁район	-3032
▁скерт	-3033
▁изде	-3034
▁штар	-3035
▁улду	-3036
▁оочу	-3037
▁олугу	-3038
▁аласы	-3039
▁иян	-3040
▁оога	-3041
▁сези	-3042
▁иде	-3043
▁ожо	-3044
▁шуу	-3045
▁позиц	-3046
▁дөгөн	-3047
▁пс	-3048
▁еги	-3049
▁кмат	-3050
▁ника	-3051
▁аттоо	-3052
▁екция	-3053
▁руз	-3054
▁кула	-3055
АТО	-3056
▁аап	-3057
▁арлам	-3058
▁кация	-3059
▁алаб	-3060
▁акан	-3061
▁НАТО	-3062
▁артип	-3063
▁ерт	-3064
▁ализ	-3065
▁чыгуу	-3066
▁ноо	-3067
▁диа	-3068
▁асын	-3069
му	-3070
▁зо	-3071
▁ави	-3072
▁агытт	-3073
▁ектеш	-3074
▁раф	-3075
▁анов	-3076
▁кени	-3077
▁утуу	-3078
▁ед	-3079
▁нго	-3080
▁тос	-3081
▁айга	-3082
▁салды	-3083
▁G	-3084
▁өбүз	-3085
иси	-3086
▁каш	-3087
▁илип	-3088
▁нден	-3089
▁үүсү	-3090
▁аша	-3091
▁зал	-3092
▁ктуу	-3093
▁онат	-3094
▁жатыш	-3095
КУ	-3096
▁Кур	-3097
пе	-3098
▁айыр	-3099
▁гөнү	-3100
▁өлүп	-3101
▁Ок	-3102
▁лам	-3103
▁аттан	-3104
▁теш	-3105
▁ерге	-3106
▁алабы	-3107
▁иби	-3108
▁укукт	-3109
▁пт	-3110
▁Абду	-3111
▁пасы	-3112
▁ене	-3113
▁жап	-3114
▁урул	-3115
▁еев	-3116
▁мын	-3117
▁үкт	-3118
▁елип	-3119
▁иден	-3120
▁акала	-3121
▁яр	-3122
▁сың	-3123
▁рманд	-3124
▁Бал	-3125
▁ткен	-3126
▁үрө	-3127
▁екше	-3128
▁кага	-3129
▁пара	-3130
▁артуу	-3131
▁келүү	-3132
▁тти	-3133
▁нц	-3134
▁асым	-3135
▁оого	-3136
▁Али	-3137
▁вок	-3138
▁тат	-3139
ЭС	-3140
▁M	-3141
▁апты	-3142
▁урна	-3143
▁жарак	-3144
▁талга	-3145
▁терде	-3146
мы	-3147
▁лө	-3148
▁дашуу	-3149
▁бизде	-3150
▁аалым	-3151
▁рыг	-3152
▁ашты	-3153
▁Бо	-3154
▁десе	-3155
▁тийиш	-3156
▁арыя	-3157
▁реги	-3158
▁ооз	-3159
▁ото	-3160
▁шат	-3161
▁окту	-3162
▁өтүү	-3163
▁бес	-3164
▁бия	-3165
▁Ток	-3166
▁сүнө	-3167
▁умуш	-3168
▁исти	-3169
▁луна	-3170
▁Ас	-3171
▁мне	-3172
▁ачуу	-3173
пай	-3174
▁ыды	-3175
▁арына	-3176
▁лт	-3177
▁дап	-3178
▁лю	-3179
▁Анд	-3180
▁ерв	-3181
▁оргоо	-3182
▁ести	-3183
▁сттер	-3184
▁карт	-3185
▁мдөө	-3186
▁гек	-3187
▁ута	-3188
▁ортто	-3189
▁лөө	-3190
▁ткар	-3191
▁аку	-3192
▁лын	-3193
▁тей	-3194
▁арбы	-3195
▁дукт	-3196
▁дарын	-3197
▁ттар	-3198
▁атар	-3199
▁йлөр	-3200
▁ферен	-3201
▁ca	-3202
▁Түр	-3203
▁үйө	-3204
▁ашыл	-3205
▁Жап	-3206
▁За	-3207
▁руг	-3208
▁сла	-3209
▁ыка	-3210
▁күчү	-3211
▁рга	-3212
▁мени	-3213
▁айтуу	-3214
▁грант	-3215
▁вокат	-3216
▁рыгер	-3217
▁страт	-3218
▁зан	-3219
▁оптуу	-3220
АМ	-3221
▁апа	-3222
▁жөнө	-3223
▁азасы	-3224
▁ттери	-3225
▁Лу	-3226
▁але	-3227
▁көй	-3228
▁илет	-3229
▁корку	-3230
ну	-3231
▁P	-3232
▁ендер	-3233
▁оло	-3234
▁оолор	-3235
▁эг	-3236
▁айын	-3237
▁рлер	-3238
▁ылдар	-3239
▁сим	-3240
▁Ми	-3241
▁дум	-3242
▁уран	-3243
СС	-3244
▁руу	-3245
▁мака	-3246
▁F	-3247
▁йыл	-3248
▁амб	-3249
▁удай	-3250
▁атыр	-3251
▁чыны	-3252
▁жашыр	-3253
▁ркинд	-3254
▁ож	-3255
▁дис	-3256
▁нба	-3257
▁раб	-3258
▁ыйы	-3259
▁арта	-3260
▁арты	-3261
▁ац	-3262
▁агына	-3263
▁мекен	-3264
▁a	-3265
▁Мам	-3266
▁гыла	-3267
АМАС	-3268
▁ХАМАС	-3269
▁Ру	-3270
▁боо	-3271
▁ичи	-3272
▁Түрк	-3273
▁кирүү	-3274
▁хн	-3275
▁Й	-3276
▁өлг	-3277
▁хника	-3278
▁алиб	-3279
▁еврал	-3280
▁келеч	-3281
▁өнгө	-3282
▁19	-3283
▁рий	-3284
▁ичине	-3285
▁еч	-3286
▁кр	-3287
▁рег	-3288
▁ыбек	-3289
▁Тоо	-3290
▁абык	-3291
▁мон	-3292
▁егизи	-3293
▁екени	-3294
▁ону	-3295
▁фил	-3296
▁кети	-3297
хан	-3298
▁окум	-3299
▁артыш	-3300
▁алышы	-3301
▁урт	-3302
▁аров	-3303
▁арым	-3304
▁Иш	-3305
▁ныш	-3306
▁улат	-3307
▁андуу	-3308
▁ынган	-3309
▁улаг	-3310
▁лөрдө	-3311
▁атат	-3312
▁жин	-3313
▁мел	-3314
▁тип	-3315
▁чеги	-3316
▁ондук	-3317
лү	-3318
▁аф	-3319
▁таанд	-3320
▁анган	-3321
▁рс	-3322
▁аткы	-3323
▁анып	-3324
▁демил	-3325
▁көргө	-3326
бе	-3327
▁лин	-3328
▁ория	-3329
▁олдук	-3330
▁апар	-3331
▁төрүн	-3332
▁ашк	-3333
▁факт	-3334
▁көйгө	-3335
at	-3336
▁гыс	-3337
▁юму	-3338
▁екке	-3339
▁ртуу	-3340
▁ырма	-3341
▁армоо	-3342
▁k	-3343
стр	-3344
▁адани	-3345
mage	-3346
▁юри	-3347
▁Image	-3348
▁курам	-3349
▁тоочу	-3350
▁ля	-3351
▁мыл	-3352
▁уудан	-3353
▁маз	-3354
▁арака	-3355
▁дүүлү	-3356
▁рист	-3357
▁уруу	-3358
▁бал	-3359
▁виру	-3360
▁элди	-3361
▁ирд	-3362
▁мыр	-3363
▁тады	-3364
▁улуп	-3365
▁ё	-3366
▁ыд	-3367
▁60	-3368
▁тег	-3369
▁ымды	-3370
▁үлдү	-3371
▁фе	-3372
▁аяк	-3373
▁көзү	-3374
▁көрө	-3375
▁эпи	-3376
▁иринч	-3377
▁Дон	-3378
▁ария	-3379
▁ияны	-3380
▁тури	-3381
▁атасы	-3382
▁көрдү	-3383
▁малуу	-3384
▁Жан	-3385
▁ивдүү	-3386
▁ануу	-3387
▁ынып	-3388
▁стук	-3389
▁үтүн	-3390
▁төгү	-3391
▁издөө	-3392
▁олдон	-3393
▁уң	-3394
▁шу	-3395
▁дим	-3396
▁лле	-3397
▁спи	-3398
▁ңкы	-3399
▁лукта	-3400
▁тайын	-3401
▁ктар	-3402
▁ресс	-3403
▁синде	-3404
▁ют	-3405
▁Кар	-3406
▁нск	-3407
▁22	-3408
▁КМ	-3409
▁эси	-3410
▁тогу	-3411
ra	-3412
▁Жер	-3413
▁егер	-3414
▁луг	-3415
▁оңо	-3416
▁көрүн	-3417
▁гун	-3418
▁кук	-3419
▁атта	-3420
▁лиц	-3421
▁шкер	-3422
▁24	-3423
▁кас	-3424
▁геси	-3425
▁бл	-3426
▁хан	-3427
▁абия	-3428
▁алам	-3429
▁лтын	-3430
▁нстр	-3431
ви	-3432
▁200	-3433
▁H	-3434
▁демо	-3435
▁нип	-3436
▁корк	-3437
ман	-3438
▁лаг	-3439
▁ешет	-3440
▁Тил	-3441
▁рды	-3442
▁виза	-3443
▁Ую	-3444
▁кч	-3445
▁дос	-3446
▁эксп	-3447
▁нек	-3448
▁лекс	-3449
▁онал	-3450
▁нүп	-3451
▁W	-3452
▁аралы	-3453
▁пө	-3454
▁үмд	-3455
▁айр	-3456
▁лорду	-3457
▁мба	-3458
▁ыгым	-3459
▁уун	-3460
▁тууну	-3461
▁гыр	-3462
▁өбө	-3463
▁олду	-3464
▁еррор	-3465
▁баг	-3466
▁араба	-3467
▁такта	-3468
▁кынд	-3469
▁ылкы	-3470
▁өктү	-3471
▁көө	-3472
▁ерал	-3473
▁еске	-3474
▁сиң	-3475
▁улак	-3476
▁чилер	-3477
▁деми	-3478
▁мине	-3479
▁тург	-3480
▁ио	-3481
▁мылы	-3482
▁бызды	-3483
▁лат	-3484
▁айге	-3485
▁80	-3486
▁үң	-3487
▁вер	-3488
▁ерн	-3489
▁атын	-3490
▁алгач	-3491
▁колун	-3492
▁Z	-3493
▁ңг	-3494
▁ришти	-3495
▁илин	-3496
▁тема	-3497
▁руучу	-3498
УУ	-3499
▁опс	-3500
▁дыры	-3501
▁өтүн	-3502
▁өлгөн	-3503
▁лег	-3504
▁үндө	-3505
▁айра	-3506
▁дыкка	-3507
▁бра	-3508
▁пүр	-3509
▁шып	-3510
▁арыг	-3511
▁колу	-3512
▁караб	-3513
▁опсуз	-3514
en	-3515
▁нансы	-3516
▁уну	-3517
▁ттен	-3518
▁БУУ	-3519
▁рым	-3520
▁сып	-3521
▁тори	-3522
▁тинин	-3523
▁жого	-3524
▁мэр	-3525
▁шан	-3526
▁етк	-3527
▁терг	-3528
▁аск	-3529
▁рис	-3530
▁21	-3531
▁дүгү	-3532
▁коро	-3533
▁өчүр	-3534
▁алары	-3535
▁°	-3536
▁шка	-3537
▁өрө	-3538
▁маши	-3539
▁дил	-3540
▁елг	-3541
▁кире	-3542
es	-3543
pt	-3544
ККУ	-3545
▁шү	-3546
▁ишет	-3547
▁нууга	-3548
▁Эр	-3549
▁юн	-3550
▁хе	-3551
▁ера	-3552
▁кад	-3553
▁ттү	-3554
▁елег	-3555
▁ташта	-3556
▁сар	-3557
▁акыт	-3558
▁ирге	-3559
▁лышы	-3560
▁еткир	-3561
▁тыкты	-3562
▁пон	-3563
▁асма	-3564
▁ши	-3565
▁артка	-3566
▁Ре	-3567
▁capt	-3568
▁кило	-3569
▁нь	-3570
▁анг	-3571
▁был	-3572
▁кыла	-3573
▁гул	-3574
▁алба	-3575
▁рика	-3576
бү	-3577
▁70	-3578
▁елек	-3579
▁той	-3580
▁чөл	-3581
▁жүрө	-3582
▁t	-3583
▁ГЭС	-3584
▁сым	-3585
▁ачып	-3586
▁ысым	-3587
▁рында	-3588
▁бан	-3589
▁йбыз	-3590
▁ыйка	-3591
▁Каб	-3592
▁имп	-3593
▁штыр	-3594
▁шуна	-3595
▁аштыр	-3596
▁дус	-3597
▁наб	-3598
▁нка	-3599
▁урма	-3600
▁ыган	-3601
▁L	-3602
▁Мас	-3603
▁амы	-3604
▁нүү	-3605
▁алап	-3606
▁K	-3607
▁сма	-3608
▁сайт	-3609
▁елбей	-3610
▁ати	-3611
▁нген	-3612
▁лерге	-3613
▁Мак	-3614
▁кыймы	-3615
▁лия	-3616
▁ттүү	-3617
▁Эң	-3618
▁рв	-3619
▁ыйлы	-3620
▁o	-3621
▁Ли	-3622
▁аңг	-3623
лга	-3624
▁ора	-3625
▁тика	-3626
дун	-3627
▁ял	-3628
▁ече	-3629
▁перат	-3630
▁алан	-3631
▁үлүш	-3632
▁ңү	-3633
▁тамб	-3634
▁ереги	-3635
ССР	-3636
▁арлар	-3637
▁ылдыг	-3638
▁пы	-3639
▁маан	-3640
▁чи	-3641
▁здө	-3642
▁ирзи	-3643
▁бирин	-3644
▁лоого	-3645
▁аи	-3646
▁айла	-3647
▁исал	-3648
▁спе	-3649
▁дерге	-3650
▁рев	-3651
▁l	-3652
▁ечи	-3653
▁нап	-3654
▁есс	-3655
▁атак	-3656
▁үктө	-3657
▁ылышы	-3658
▁27	-3659
▁нче	-3660
▁азала	-3661
▁мына	-3662
▁гүндө	-3663
▁көпчү	-3664
▁23	-3665
▁абыр	-3666
▁адим	-3667
▁ачка	-3668
▁сунун	-3669
▁35	-3670
▁лугу	-3671
▁токо	-3672
▁неси	-3673
▁уруп	-3674
▁үйдө	-3675
▁ыруун	-3676
▁жал	-3677
▁ико	-3678
▁салыш	-3679
теш	-3680
▁26	-3681
▁аков	-3682
▁пост	-3683
▁инт	-3684
▁мис	-3685
▁осу	-3686
▁атына	-3687
▁мунун	-3688
▁ЕА	-3689
▁500	-3690
▁шип	-3691
▁етер	-3692
▁уа	-3693
▁ечит	-3694
▁луучу	-3695
▁рет	-3696
▁менти	-3697
▁айд	-3698
▁нор	-3699
▁умушт	-3700
ia	-3701
▁еси	-3702
▁жүрг	-3703
▁ката	-3704
▁жы	-3705
▁Ушу	-3706
▁мдүү	-3707
▁өлүк	-3708
▁күм	-3709
▁шун	-3710
▁кылы	-3711
▁чам	-3712
▁абар	-3713
▁кырсы	-3714
▁ганд	-3715
ябр	-3716
▁коло	-3717
сын	-3718
▁налык	-3719
▁үсү	-3720
▁ашып	-3721
▁ец	-3722
▁ырып	-3723
кинч	-3724
▁Сай	-3725
▁лиев	-3726
▁Экинч	-3727
▁кус	-3728
▁ЕАЭБ	-3729
▁абат	-3730
▁илек	-3731
▁ва	-3732
▁ита	-3733
▁екет	-3734
▁иясы	-3735
▁улда	-3736
▁арман	-3737
▁кри	-3738
кту	-3739
▁лов	-3740
▁ойн	-3741
▁шыл	-3742
▁икке	-3743
▁иргел	-3744
▁тым	-3745
▁лукту	-3746
▁үдө	-3747
▁ешкен	-3748
▁башы	-3749
▁акыры	-3750
▁кция	-3751
▁90	-3752
▁ерб	-3753
▁адагы	-3754
▁ирзиё	-3755
▁СССР	-3756
▁лга	-3757
▁арад	-3758
▁уча	-3759
▁арка	-3760
▁ндер	-3761
▁ылык	-3762
▁түүгө	-3763
▁пов	-3764
▁иги	-3765
▁куя	-3766
▁наа	-3767
▁ынч	-3768
▁үрт	-3769
▁етип	-3770
▁ынды	-3771
ула	-3772
▁Уюм	-3773
▁лорго	-3774
▁раган	-3775
▁сунан	-3776
▁пат	-3777
▁рон	-3778
▁ыгып	-3779
▁дыруу	-3780
▁иктин	-3781
▁Фи	-3782
▁оно	-3783
▁өлөм	-3784
▁арш	-3785
▁отч	-3786
▁чат	-3787
▁жете	-3788
▁арызд	-3789
▁D	-3790
▁асты	-3791
▁урат	-3792
▁мор	-3793
▁алп	-3794
▁арда	-3795
▁Пар	-3796
▁дур	-3797
▁йым	-3798
▁дика	-3799
▁рте	-3800
▁тили	-3801
▁ета	-3802
▁оюу	-3803
▁өзд	-3804
▁өлө	-3805
▁нтип	-3806
▁анада	-3807
ябрь	-3808
▁гуна	-3809
▁тябрь	-3810
▁жаң	-3811
▁e	-3812
▁ылт	-3813
▁ахм	-3814
▁улов	-3815
▁лбо	-3816
▁мит	-3817
▁куба	-3818
▁ылат	-3819
▁Сул	-3820
▁уру	-3821
▁база	-3822
▁кере	-3823
▁ыздын	-3824
▁оф	-3825
▁Сар	-3826
▁енди	-3827
▁муна	-3828
▁лиз	-3829
▁суп	-3830
▁инци	-3831
▁ндөй	-3832
▁рыла	-3833
▁аттын	-3834
▁Ne	-3835
▁идео	-3836
▁үлөт	-3837
▁28	-3838
▁Ким	-3839
▁еним	-3840
▁лдык	-3841
▁ид	-3842
▁риг	-3843
▁барды	-3844
▁Жу	-3845
▁ритан	-3846
▁ылына	-3847
▁g	-3848
▁зе	-3849
▁оюл	-3850
▁ауд	-3851
▁ити	-3852
▁рим	-3853
▁рмат	-3854
▁нуучу	-3855
во	-3856
▁нкт	-3857
▁нчө	-3858
▁уган	-3859
▁артык	-3860
▁тынан	-3861
▁геле	-3862
▁гөндө	-3863
▁ыртка	-3864
▁ух	-3865
▁аңд	-3866
▁ини	-3867
▁узга	-3868
▁бад	-3869
▁ерек	-3870
▁окат	-3871
▁алилд	-3872
▁аала	-3873
▁ирөө	-3874
▁коопт	-3875
▁ушкан	-3876
▁лоб	-3877
▁рах	-3878
▁алай	-3879
▁урду	-3880
▁ыя	-3881
▁ашы	-3882
▁реп	-3883
▁шүү	-3884
▁лдик	-3885
▁катчы	-3886
▁рге	-3887
▁урн	-3888
▁уя	-3889
▁кка	-3890
▁роз	-3891
in	-3892
сүн	-3893
▁утт	-3894
ве	-3895
▁ордо	-3896
▁лынын	-3897
▁Кан	-3898
▁усу	-3899
▁едиа	-3900
▁өрүл	-3901
▁Жол	-3902
▁чен	-3903
▁урасы	-3904
▁вс	-3905
▁ель	-3906
▁улд	-3907
▁өра	-3908
▁угуп	-3909
oo	-3910
▁зак	-3911
▁стана	-3912
▁опа	-3913
▁фт	-3914
▁бөйт	-3915
▁ердик	-3916
▁Дем	-3917
▁рап	-3918
▁амал	-3919
▁жо	-3920
▁льт	-3921
▁нти	-3922
▁мдун	-3923
▁дөп	-3924
▁зин	-3925
▁овду	-3926
▁жатты	-3927
▁үшкөн	-3928
▁өрага	-3929
ху	-3930
ut	-3931
▁йман	-3932
▁ртыл	-3933
▁рто	-3934
▁кла	-3935
▁елет	-3936
▁ырга	-3937
▁чүлөр	-3938
he	-3939
▁Иса	-3940
▁бакт	-3941
▁кылыш	-3942
▁er	-3943
▁кти	-3944
▁кыш	-3945
▁дугу	-3946
▁елги	-3947
▁онго	-3948
▁таты	-3949
▁ышын	-3950
▁штары	-3951
▁рчу	-3952
▁урда	-3953
▁Сам	-3954
▁коо	-3955
▁мгек	-3956
▁карыл	-3957
▁ров	-3958
▁ентяб	-3959
▁иктен	-3960
▁рк	-3961
▁ье	-3962
▁рбек	-3963
▁реа	-3964
▁тту	-3965
▁үйөө	-3966
▁үрдү	-3967
▁өөнү	-3968
▁вка	-3969
▁гени	-3970
▁үнүп	-3971
▁алдан	-3972
▁45	-3973
▁тро	-3974
▁имдик	-3975
▁шам	-3976
▁кташ	-3977
▁ндан	-3978
▁уста	-3979
▁рация	-3980
▁ымдар	-3981
▁ава	-3982
▁ейи	-3983
▁уюш	-3984
▁агып	-3985
▁көнү	-3986
▁Кыз	-3987
▁лаб	-3988
▁сер	-3989
▁иров	-3990
▁шунда	-3991
эл	-3992
▁m	-3993
▁Ге	-3994
▁илдик	-3995
▁це	-3996
▁300	-3997
▁мдө	-3998
▁жашы	-3999
▁калд	-4000
▁ндай	-4001
▁овго	-4002
▁арызы	-4003
▁дарга	-4004
Ko	-4005
▁ZKo	-4006
▁зун	-4007
▁үшүнө	-4008
▁нду	-4009
▁ним	-4010
▁екети	-4011
▁Ви	-4012
▁Тала	-4013
▁ардар	-4014
▁жайын	-4015
▁лууда	-4016
▁төрдү	-4017
ou	-4018
▁уруш	-4019
▁E	-4020
▁км	-4021
▁зим	-4022
▁өгө	-4023
▁утуп	-4024
▁лип	-4025
▁гиз	-4026
▁ева	-4027
▁аса	-4028
▁поз	-4029
▁лдуу	-4030
▁бю	-4031
▁хи	-4032
▁гай	-4033
▁ыры	-4034
▁ыша	-4035
▁акай	-4036
▁тунд	-4037
▁урас	-4038
▁андар	-4039
▁ато	-4040
▁ерм	-4041
▁кча	-4042
▁ыно	-4043
▁берки	-4044
▁Жон	-4045
▁арь	-4046
▁еде	-4047
▁тилин	-4048
▁ЖЭБ	-4049
▁скө	-4050
▁36	-4051
▁аде	-4052
▁акс	-4053
▁инал	-4054
▁пөй	-4055
▁ука	-4056
▁ЖККУ	-4057
▁дайын	-4058
▁33	-4059
▁Үч	-4060
▁вет	-4061
▁анде	-4062
▁ранда	-4063
▁тет	-4064
▁байла	-4065
▁d	-4066
▁кг	-4067
▁анти	-4068
▁рит	-4069
▁лдер	-4070
▁ттык	-4071
▁аштык	-4072
▁лис	-4073
▁ртүү	-4074
▁ылбай	-4075
▁O	-4076
▁Эм	-4077
▁фа	-4078
▁лкө	-4079
▁ирди	-4080
▁инанс	-4081
▁рд	-4082
▁ейм	-4083
▁нам	-4084
▁рчы	-4085
▁екте	-4086
▁Сиз	-4087
▁шил	-4088
▁енция	-4089
▁b	-4090
▁оби	-4091
▁вари	-4092
▁дөрүн	-4093
▁уттук	-4094
▁X	-4095
▁еби	-4096
▁ккан	-4097
▁уй	-4098
▁сто	-4099
▁ашына	-4100
▁уулан	-4101
▁алия	-4102
▁рдын	-4103
▁акал	-4104
▁тапт	-4105
▁тект	-4106
▁йка	-4107
▁тим	-4108
▁ндүр	-4109
▁32	-4110
ылмы	-4111
▁кты	-4112
▁лым	-4113
▁каба	-4114
▁Кылмы	-4115
▁норма	-4116
▁сей	-4117
▁ясы	-4118
▁аард	-4119
▁күрө	-4120
▁орук	-4121
or	-4122
▁йле	-4123
▁кчил	-4124
ед	-4125
ону	-4126
▁сти	-4127
▁тиш	-4128
▁нис	-4129
▁иева	-4130
▁көмү	-4131
▁ликт	-4132
▁үрүл	-4133
▁өөдө	-4134
▁In	-4135
▁сон	-4136
▁баал	-4137
▁ипло	-4138
▁имдер	-4139
▁иясын	-4140
▁1,5	-4141
▁аам	-4142
▁нбек	-4143
▁ынчы	-4144
▁зү	-4145
▁орон	-4146
▁айдын	-4147
▁стиц	-4148
▁ушту	-4149
▁атив	-4150
▁нышы	-4151
▁аланы	-4152
▁манов	-4153
▁улушу	-4154
▁ебе	-4155
▁лди	-4156
▁абыл	-4157
▁енде	-4158
▁лыгын	-4159
▁Ку	-4160
▁рид	-4161
▁кыйк	-4162
▁талат	-4163
ce	-4164
▁мда	-4165
▁етин	-4166
▁илиш	-4167
▁берб	-4168
▁енен	-4169
▁манк	-4170
▁зд	-4171
▁Мир	-4172
▁кей	-4173
▁куб	-4174
▁лав	-4175
▁улга	-4176
▁автор	-4177
▁одекс	-4178
▁чаб	-4179
▁етет	-4180
▁ктеш	-4181
▁теби	-4182
▁тыгын	-4183
ха	-4184
▁мды	-4185
▁төт	-4186
▁өгү	-4187
▁беке	-4188
▁стика	-4189
▁үүсүн	-4190
▁жд	-4191
▁лиш	-4192
▁акта	-4193
▁шону	-4194
▁елгил	-4195
▁ате	-4196
▁ост	-4197
▁рул	-4198
▁Каза	-4199
▁ойго	-4200
▁Го	-4201
сун	-4202
▁йн	-4203
▁үндөр	-4204
▁Эч	-4205
▁емо	-4206
▁уст	-4207
▁кады	-4208
▁оодо	-4209
▁социа	-4210
ov	-4211
▁75	-4212
▁птө	-4213
▁ткы	-4214
▁ууп	-4215
▁ериле	-4216
▁kg	-4217
▁Кээ	-4218
▁кут	-4219
▁ндын	-4220
▁табы	-4221
▁тист	-4222
▁ква	-4223
▁оба	-4224
▁жашта	-4225
▁сөзүн	-4226
▁нс	-4227
▁огу	-4228
▁чан	-4229
▁Жам	-4230
▁коё	-4231
▁ном	-4232
▁ышт	-4233
▁кчы	-4234
▁рен	-4235
▁гиле	-4236
▁танды	-4237
▁айк	-4238
▁аныб	-4239
▁били	-4240
▁үд	-4241
▁омдо	-4242
▁аатта	-4243
▁абай	-4244
▁аркы	-4245
▁тала	-4246
▁ектүү	-4247
▁отчет	-4248
▁йг	-4249
▁рч	-4250
▁арб	-4251
▁тка	-4252
▁ште	-4253
▁өнүк	-4254
▁V	-4255
нев	-4256
▁Te	-4257
▁кысы	-4258
le	-4259
▁29	-4260
▁янс	-4261
▁арлы	-4262
▁туру	-4263
▁Re	-4264
▁инд	-4265
▁ууд	-4266
▁онуу	-4267
▁режи	-4268
▁этно	-4269
▁өктөш	-4270
ина	-4271
▁31	-4272
▁34	-4273
▁ека	-4274
▁кармо	-4275
▁мелер	-4276
▁тышуу	-4277
зы	-4278
▁ице	-4279
▁ума	-4280
▁ирүү	-4281
▁капи	-4282
▁лдин	-4283
▁1,	-4284
▁мп	-4285
▁арс	-4286
▁око	-4287
▁алил	-4288
▁чекте	-4289
▁урак	-4290
ta	-4291
▁орк	-4292
▁ынты	-4293
▁өндө	-4294
▁макта	-4295
▁ео	-4296
▁анс	-4297
▁бий	-4298
▁ракт	-4299
▁лыкка	-4300
▁зч	-4301
невм	-4302
▁вич	-4303
▁өзгө	-4304
▁ое	-4305
▁New	-4306
▁гам	-4307
▁року	-4308
▁чиси	-4309
▁урган	-4310
ch	-4311
▁Y	-4312
▁аныш	-4313
▁иреш	-4314
▁мдын	-4315
▁ранс	-4316
▁u	-4317
▁48	-4318
▁ени	-4319
▁ндү	-4320
▁аада	-4321
▁рдин	-4322
▁сыйл	-4323
▁ордун	-4324
▁уусун	-4325
▁Май	-4326
▁ыргы	-4327
▁рал	-4328
▁логи	-4329
▁поли	-4330
▁алмак	-4331
ДП	-4332
▁44	-4333
▁уга	-4334
▁екст	-4335
▁здын	-4336
▁крим	-4337
▁ндык	-4338
▁экинч	-4339
▁йд	-4340
▁Фин	-4341
▁енг	-4342
▁зиз	-4343
▁онд	-4344
▁эмге	-4345
▁оциал	-4346
▁агын	-4347
▁тыны	-4348
▁дилет	-4349
▁рмасы	-4350
▁нч	-4351
▁150	-4352
▁былга	-4353
▁ng	-4354
▁иф	-4355
▁хм	-4356
аси	-4357
▁чки	-4358
▁айык	-4359
▁арап	-4360
▁атам	-4361
▁гиси	-4362
▁наны	-4363
▁лугун	-4364
▁түндү	-4365
▁йс	-4366
▁сыл	-4367
▁лү	-4368
▁бут	-4369
▁гуу	-4370
▁яна	-4371
▁иктер	-4372
▁кту	-4373
▁лгө	-4374
▁рде	-4375
▁тра	-4376
▁үштү	-4377
▁нбаев	-4378
▁аягы	-4379
▁38	-4380
▁От	-4381
▁Бак	-4382
▁лда	-4383
▁дери	-4384
▁майы	-4385
▁стор	-4386
▁дерин	-4387
▁ИМ	-4388
▁шаш	-4389
▁аржы	-4390
▁боор	-4391
▁Тай	-4392
▁ойдо	-4393
▁парк	-4394
▁ектор	-4395
▁лот	-4396
▁стө	-4397
▁ймак	-4398
▁кинд	-4399
▁нуна	-4400
▁рман	-4401
al	-4402
▁үг	-4403
▁кым	-4404
▁овдун	-4405
▁тырып	-4406
▁КМШ	-4407
▁айсы	-4408
▁лкөдө	-4409
▁лөрүн	-4410
▁өрүнө	-4411
▁йин	-4412
▁олиц	-4413
▁слав	-4414
▁тайт	-4415
▁аалар	-4416
▁700	-4417
▁мам	-4418
▁мчу	-4419
▁онг	-4420
▁алиц	-4421
▁рлары	-4422
▁55	-4423
▁лм	-4424
▁пин	-4425
▁үчө	-4426
▁аяна	-4427
▁ктив	-4428
▁гонун	-4429
▁дорду	-4430
ад	-4431
оз	-4432
ияз	-4433
она	-4434
▁Су	-4435
▁осо	-4436
▁пет	-4437
▁акто	-4438
▁атке	-4439
▁рлар	-4440
▁башын	-4441
▁олору	-4442
▁пневм	-4443
ийи	-4444
▁ңд	-4445
▁онт	-4446
▁тинг	-4447
▁шамал	-4448
▁аил	-4449
▁ырд	-4450
▁гына	-4451
▁мдуу	-4452
▁Те	-4453
▁дың	-4454
▁үзө	-4455
▁оода	-4456
▁өрүш	-4457
▁айс	-4458
▁жыр	-4459
▁сүр	-4460
▁лдук	-4461
хта	-4462
▁65	-4463
▁дия	-4464
▁мди	-4465
▁унд	-4466
▁нгөн	-4467
▁ража	-4468
▁37	-4469
▁ят	-4470
▁лүп	-4471
▁нвар	-4472
▁рама	-4473
▁угуш	-4474
▁атпай	-4475
▁урнал	-4476
▁эн	-4477
▁арч	-4478
▁өбү	-4479
▁акул	-4480
▁кеме	-4481
▁ессия	-4482
▁ыгына	-4483
▁ете	-4484
▁менд	-4485
▁сыны	-4486
▁шташ	-4487
▁ыйла	-4488
ТР	-4489
▁нж	-4490
▁рево	-4491
▁Жыл	-4492
▁нак	-4493
▁андал	-4494
▁отург	-4495
▁очула	-4496
уб	-4497
▁U	-4498
ында	-4499
▁агыл	-4500
▁арал	-4501
▁жыйы	-4502
▁коом	-4503
▁лбоор	-4504
▁лигин	-4505
▁чакта	-4506
▁ув	-4507
▁уштуу	-4508
жи	-4509
▁пч	-4510
▁кунд	-4511
▁машы	-4512
▁тура	-4513
▁дахан	-4514
▁уюшту	-4515
▁Кал	-4516
▁Алма	-4517
▁ырка	-4518
ура	-4519
▁Чет	-4520
▁рки	-4521
▁акка	-4522
▁сузд	-4523
▁ыйна	-4524
▁даган	-4525
ах	-4526
▁41	-4527
▁тма	-4528
▁шер	-4529
▁ашат	-4530
▁плат	-4531
▁МК	-4532
▁ры	-4533
▁гүү	-4534
▁лерде	-4535
▁налда	-4536
▁эш	-4537
▁лиг	-4538
▁жайы	-4539
▁кенем	-4540
өз	-4541
▁400	-4542
▁оорон	-4543
▁түүнү	-4544
▁верд	-4545
▁үмдү	-4546
▁иплом	-4547
▁енб	-4548
▁эмд	-4549
▁анар	-4550
▁Ti	-4551
▁Чо	-4552
▁Наз	-4553
▁мов	-4554
▁ашин	-4555
▁Нияз	-4556
▁екси	-4557
▁лини	-4558
▁түшү	-4559
▁чир	-4560
▁ызы	-4561
▁акшы	-4562
▁ктан	-4563
▁расы	-4564
▁шери	-4565
▁салма	-4566
▁ченем	-4567
ард	-4568
▁ганга	-4569
Вт	-4570
▁rn	-4571
▁юу	-4572
▁араб	-4573
▁рг	-4574
▁тыя	-4575
▁айпа	-4576
▁прел	-4577
▁сизд	-4578
▁өндөр	-4579
▁42	-4580
▁масы	-4581
▁ликте	-4582
▁мекте	-4583
▁улугу	-4584
▁The	-4585
▁раш	-4586
▁Кийи	-4587
▁згөн	-4588
▁уура	-4589
▁үрүм	-4590
▁рилди	-4591
▁аак	-4592
▁йдө	-4593
▁чүн	-4594
▁үгө	-4595
▁инди	-4596
▁тыруу	-4597
▁рю	-4598
▁чуу	-4599
▁арых	-4600
▁жуму	-4601
▁ураг	-4602
▁урсу	-4603
▁генде	-4604
▁коомч	-4605
▁чүнчү	-4606
ty	-4607
▁ers	-4608
▁чур	-4609
▁үбү	-4610
▁амир	-4611
▁нес	-4612
▁род	-4613
▁шен	-4614
▁айсал	-4615
▁актоо	-4616
▁ургак	-4617
▁бло	-4618
▁мпа	-4619
▁ске	-4620
▁форм	-4621
▁ылда	-4622
▁зона	-4623
▁рдүү	-4624
▁тааси	-4625
▁Бай	-4626
▁йла	-4627
▁оне	-4628
▁рад	-4629
▁грац	-4630
▁идин	-4631
▁ринде	-4632
▁лк	-4633
▁айн	-4634
▁мдөр	-4635
▁Мында	-4636
▁айтар	-4637
▁ялдар	-4638
te	-4639
▁43	-4640
▁аби	-4641
▁окко	-4642
▁эшик	-4643
▁көрүш	-4644
▁еже	-4645
▁мөк	-4646
▁чин	-4647
▁ьер	-4648
▁сиял	-4649
▁кырыл	-4650
▁Жоо	-4651
▁рке	-4652
▁укту	-4653
▁лл	-4654
▁аим	-4655
▁ппоз	-4656
▁рамы	-4657
▁пп	-4658
▁Дал	-4659
▁рез	-4660
▁уда	-4661
▁кмөн	-4662
▁ктөр	-4663
▁39	-4664
▁жөө	-4665
▁алаш	-4666
▁амак	-4667
▁билд	-4668
▁гүнө	-4669
▁ерли	-4670
▁етүү	-4671
▁оюнч	-4672
ha	-4673
re	-4674
▁47	-4675
▁бел	-4676
▁анды	-4677
▁ешти	-4678
▁имде	-4679
▁етине	-4680
▁ача	-4681
▁ерг	-4682
▁угу	-4683
▁өңү	-4684
▁лүгүн	-4685
▁тында	-4686
▁Reut	-4687
▁көрү	-4688
▁таба	-4689
▁кесеп	-4690
▁нз	-4691
▁бун	-4692
▁лак	-4693
▁өшө	-4694
▁Токт	-4695
▁клуб	-4696
▁мдук	-4697
▁бри	-4698
▁муш	-4699
▁нко	-4700
▁бюро	-4701
▁ектел	-4702
▁ектен	-4703
▁калыш	-4704
▁иңи	-4705
▁лея	-4706
▁тпө	-4707
▁олуг	-4708
▁лыкты	-4709
▁Ил	-4710
▁Ошон	-4711
▁акси	-4712
▁аркат	-4713
▁ату	-4714
▁мду	-4715
▁мик	-4716
▁ыбы	-4717
▁ялы	-4718
▁амил	-4719
▁икте	-4720
▁птер	-4721
▁ырыл	-4722
▁үлөр	-4723
▁йк	-4724
▁Лит	-4725
▁дио	-4726
▁бойт	-4727
▁түрүү	-4728
▁тты	-4729
▁блус	-4730
▁босо	-4731
▁йдар	-4732
▁кпай	-4733
▁тран	-4734
▁Мур	-4735
▁алг	-4736
▁етр	-4737
▁өлү	-4738
▁етпе	-4739
▁жагы	-4740
▁меси	-4741
▁олуп	-4742
▁омго	-4743
▁актар	-4744
▁арага	-4745
▁учуру	-4746
▁еф	-4747
▁йлы	-4748
▁арти	-4749
▁ирде	-4750
зо	-4751
▁юл	-4752
▁ний	-4753
▁нте	-4754
▁урд	-4755
▁чий	-4756
▁идея	-4757
▁гор	-4758
▁пад	-4759
▁анас	-4760
▁ариу	-4761
▁ремь	-4762
▁улук	-4763
▁үйлө	-4764
▁ктагы	-4765
li	-4766
тө	-4767
▁шык	-4768
▁өчү	-4769
▁айкы	-4770
▁кура	-4771
▁үрөө	-4772
▁ида	-4773
▁еков	-4774
▁ыймы	-4775
▁85	-4776
▁иви	-4777
▁шем	-4778
▁адио	-4779
▁кезе	-4780
▁отуз	-4781
▁шуун	-4782
▁ерине	-4783
▁йна	-4784
▁пыс	-4785
▁сул	-4786
▁ыда	-4787
▁ранц	-4788
▁штур	-4789
▁аарын	-4790
▁үмдөр	-4791
юр	-4792
▁Ин	-4793
▁ипот	-4794
ёр	-4795
▁рп	-4796
▁орис	-4797
▁чыкк	-4798
▁агасы	-4799
▁зу	-4800
▁хо	-4801
▁арл	-4802
▁йып	-4803
▁раа	-4804
▁езде	-4805
▁кери	-4806
▁ыпты	-4807
▁еттүү	-4808
▁апо	-4809
▁араң	-4810
▁дини	-4811
▁лгач	-4812
▁ранды	-4813
st	-4814
▁кко	-4815
▁алма	-4816
▁енип	-4817
▁ышкы	-4818
▁Он	-4819
▁Шар	-4820
▁жек	-4821
▁кое	-4822
▁ачар	-4823
▁Литва	-4824
▁шемби	-4825
▁ох	-4826
▁гно	-4827
▁есе	-4828
▁берг	-4829
▁стик	-4830
▁үйүн	-4831
▁устар	-4832
▁al	-4833
▁ажи	-4834
▁тиг	-4835
▁үбө	-4836
▁жазы	-4837
▁ипте	-4838
▁Кыл	-4839
▁ром	-4840
▁емби	-4841
▁уса	-4842
▁Мени	-4843
▁елди	-4844
▁уман	-4845
▁упай	-4846
▁тирил	-4847
▁54	-4848
▁йч	-4849
▁ше	-4850
▁отто	-4851
▁тага	-4852
▁ыктал	-4853
et	-4854
фа	-4855
▁гынд	-4856
▁кырк	-4857
▁талы	-4858
▁диц	-4859
▁ерд	-4860
▁куу	-4861
▁оюп	-4862
▁рсу	-4863
▁тац	-4864
▁ынб	-4865
▁ээр	-4866
▁анкт	-4867
▁арчы	-4868
▁ексу	-4869
▁өрбө	-4870
▁зүндө	-4871
▁2,5	-4872
▁ако	-4873
▁дүң	-4874
▁рав	-4875
▁сси	-4876
▁балы	-4877
▁бөгө	-4878
▁рина	-4879
▁циал	-4880
▁ишкен	-4881
▁лоочу	-4882
▁on	-4883
▁КС	-4884
▁оц	-4885
▁Айр	-4886
▁Тур	-4887
▁урч	-4888
▁чүү	-4889
▁ыгер	-4890
▁мпани	-4891
om	-4892
▁[	-4893
▁ынд	-4894
▁Отун	-4895
▁акти	-4896
▁рста	-4897
▁ыкчы	-4898
▁атайы	-4899
▁ондой	-4900
▁тыкка	-4901
BC	-4902
▁кб	-4903
▁ья	-4904
▁иле	-4905
▁унуш	-4906
▁гынан	-4907
▁мыш	-4908
▁рба	-4909
▁түг	-4910
▁атег	-4911
▁геме	-4912
▁идер	-4913
▁ктүү	-4914
▁мини	-4915
▁рлору	-4916
▁тайы	-4917
▁рш	-4918
▁нты	-4919
▁ног	-4920
▁акту	-4921
▁асыл	-4922
▁үзүл	-4923
▁айрыл	-4924
▁сумма	-4925
▁]	-4926
▁вто	-4927
▁лес	-4928
▁лит	-4929
▁моо	-4930
▁мтө	-4931
▁обс	-4932
▁элге	-4933
▁элчи	-4934
▁өтүш	-4935
▁атура	-4936
▁торду	-4937
mi	-4938
▁600	-4939
▁вге	-4940
▁ена	-4941
▁мга	-4942
▁News	-4943
▁Тали	-4944
▁урун	-4945
▁часы	-4946
▁тарма	-4947
ht	-4948
рис	-4949
▁өй	-4950
▁гил	-4951
▁омо	-4952
▁рчи	-4953
▁КСДП	-4954
▁енже	-4955
▁артия	-4956
▁басыл	-4957
▁вид	-4958
▁таз	-4959
▁фин	-4960
▁лине	-4961
▁ндаш	-4962
▁ыгыл	-4963
▁күчтө	-4964
▁септе	-4965
фи	-4966
▁62	-4967
▁мүн	-4968
▁шуп	-4969
▁ртка	-4970
▁верси	-4971
▁2,	-4972
▁58	-4973
▁ха	-4974
▁боз	-4975
▁илг	-4976
▁ксы	-4977
▁пто	-4978
▁чус	-4979
▁яны	-4980
▁елүү	-4981
▁нелер	-4982
▁сх	-4983
▁кайд	-4984
▁окку	-4985
▁рази	-4986
▁ранд	-4987
▁кирге	-4988
▁коман	-4989
▁Бей	-4990
▁дес	-4991
▁алим	-4992
▁анты	-4993
▁берд	-4994
▁кант	-4995
▁лиши	-4996
▁мсыз	-4997
юс	-4998
▁52	-4999
▁Не	-5000
▁кра	-5001
▁рча	-5002
▁алыгы	-5003
▁калем	-5004
эн	-5005
зин	-5006
▁46	-5007
▁Же	-5008
▁Сөз	-5009
▁амга	-5010
▁орго	-5011
▁сары	-5012
▁үрүп	-5013
▁налар	-5014
зел	-5015
кел	-5016
▁53	-5017
▁мм	-5018
▁дуг	-5019
▁ндо	-5020
▁эпо	-5021
▁асык	-5022
▁ыштар	-5023
▁49	-5024
▁57	-5025
▁Чоң	-5026
▁бог	-5027
▁сап	-5028
▁уту	-5029
▁гине	-5030
▁екчи	-5031
▁мада	-5032
▁рюсс	-5033
▁жанын	-5034
▁чинов	-5035
be	-5036
▁J	-5037
▁63	-5038
▁зө	-5039
▁Tim	-5040
▁пак	-5041
▁цен	-5042
▁елиш	-5043
▁енти	-5044
▁игине	-5045
▁инара	-5046
▁лышын	-5047
▁реван	-5048
▁талды	-5049
▁120	-5050
▁рыш	-5051
▁лими	-5052
▁ызма	-5053
▁Шам	-5054
▁соц	-5055
▁өчө	-5056
▁сала	-5057
▁терн	-5058
▁үзүп	-5059
▁оорло	-5060
▁v	-5061
▁68	-5062
▁рү	-5063
▁Инд	-5064
▁йли	-5065
▁Inte	-5066
▁азак	-5067
▁лана	-5068
▁пция	-5069
▁өрсө	-5070
▁ардаг	-5071
▁лгону	-5072
▁пта	-5073
▁шир	-5074
▁ахна	-5075
▁кадр	-5076
▁ктын	-5077
▁лашы	-5078
▁туту	-5079
▁үрмө	-5080
▁кенди	-5081
▁отста	-5082
▁нас	-5083
▁тес	-5084
▁эри	-5085
▁исте	-5086
▁чусу	-5087
▁абзел	-5088
▁51	-5089
▁рж	-5090
▁езд	-5091
▁узд	-5092
▁Роза	-5093
▁рхан	-5094
▁айлоо	-5095
▁лоодо	-5096
ri	-5097
▁Ла	-5098
▁яд	-5099
▁елис	-5100
▁күйө	-5101
▁лара	-5102
▁истан	-5103
▁лкала	-5104
▁лоону	-5105
▁шө	-5106
▁енд	-5107
▁ерч	-5108
▁уши	-5109
▁Меке	-5110
▁спор	-5111
▁ымда	-5112
▁калар	-5113
▁ойгон	-5114
▁нве	-5115
▁ңде	-5116
▁рати	-5117
▁Шарше	-5118
▁рунда	-5119
тел	-5120
▁Көз	-5121
▁пот	-5122
▁поэ	-5123
▁сип	-5124
▁ттын	-5125
▁уроо	-5126
▁штын	-5127
▁ордук	-5128
ёт	-5129
лан	-5130
▁Дин	-5131
▁лөп	-5132
▁тада	-5133
▁ышта	-5134
▁Бизди	-5135
▁абалд	-5136
▁шарке	-5137
▁Кы	-5138
▁АЭС	-5139
▁аши	-5140
▁көк	-5141
▁эст	-5142
▁инст	-5143
▁лүкт	-5144
▁угат	-5145
▁ургун	-5146
▁77	-5147
▁Беш	-5148
▁над	-5149
▁ярд	-5150
▁алгы	-5151
▁нста	-5152
▁ШКУ	-5153
▁азы	-5154
▁зди	-5155
▁иет	-5156
▁лса	-5157
▁үрб	-5158
▁асса	-5159
▁ерим	-5160
Эл	-5161
▁нк	-5162
▁нга	-5163
▁алоо	-5164
▁ерти	-5165
▁Times	-5166
▁дарда	-5167
Ак	-5168
▁56	-5169
▁кц	-5170
▁ело	-5171
▁иан	-5172
▁куп	-5173
▁айке	-5174
▁емин	-5175
▁импе	-5176
▁санд	-5177
▁трат	-5178
▁амбар	-5179
ТРК	-5180
▁асп	-5181
▁гат	-5182
▁мча	-5183
▁уни	-5184
▁айка	-5185
▁гноз	-5186
▁мдер	-5187
▁ылым	-5188
▁дикти	-5189
▁ижара	-5190
сан	-5191
▁ачы	-5192
▁көт	-5193
▁мбе	-5194
▁нот	-5195
▁ЕККУ	-5196
▁стык	-5197
▁ылга	-5198
▁ензин	-5199
▁идерл	-5200
▁лли	-5201
▁нөт	-5202
▁ови	-5203
▁илге	-5204
▁каал	-5205
▁ндун	-5206
▁ндуу	-5207
▁доого	-5208
▁лүктү	-5209
▁оодон	-5210
▁рүүчү	-5211
▁шууда	-5212
id	-5213
▁наш	-5214
▁тел	-5215
▁амас	-5216
▁схак	-5217
▁аарла	-5218
▁ердин	-5219
▁Hu	-5220
▁фу	-5221
▁екс	-5222
▁иге	-5223
▁кВт	-5224
▁ори	-5225
▁роф	-5226
▁ырч	-5227
▁адах	-5228
▁лген	-5229
▁мене	-5230
▁птал	-5231
▁аптар	-5232
оло	-5233
▁gra	-5234
▁анц	-5235
▁бин	-5236
▁вард	-5237
▁рези	-5238
▁утту	-5239
▁анали	-5240
▁тк	-5241
▁кво	-5242
▁едиц	-5243
▁жалд	-5244
▁номи	-5245
▁олук	-5246
▁оюнда	-5247
▁потен	-5248
▁250	-5249
▁буюр	-5250
▁збек	-5251
▁окто	-5252
▁оону	-5253
▁оосу	-5254
▁отун	-5255
▁птыр	-5256
▁анына	-5257
▁болор	-5258
▁73	-5259
▁ЖА	-5260
▁улг	-5261
▁шет	-5262
▁үлө	-5263
▁дети	-5264
▁доза	-5265
▁канд	-5266
▁куру	-5267
▁обуш	-5268
▁сага	-5269
▁ышып	-5270
▁дарыл	-5271
▁ликке	-5272
▁Ра	-5273
▁BBC	-5274
▁анч	-5275
▁йыр	-5276
▁итет	-5277
▁каты	-5278
▁келд	-5279
▁мара	-5280
▁ашкар	-5281
▁тисти	-5282
▁IT	-5283
үнүн	-5284
▁Кол	-5285
▁коз	-5286
▁алли	-5287
▁егин	-5288
▁мист	-5289
▁тбек	-5290
▁унду	-5291
▁ымдуу	-5292
▁үүнүн	-5293
▁Ri	-5294
▁айо	-5295
▁алл	-5296
▁ике	-5297
▁омп	-5298
▁шот	-5299
▁елин	-5300
▁етал	-5301
▁рлик	-5302
▁тымы	-5303
▁квота	-5304
КМ	-5305
▁тпа	-5306
▁арий	-5307
▁ыкыр	-5308
▁анари	-5309
▁жерин	-5310
▁өөнүн	-5311
▁61	-5312
▁You	-5313
▁кич	-5314
▁маг	-5315
▁рса	-5316
▁урб	-5317
▁зоди	-5318
▁ганды	-5319
▁лөргө	-5320
▁мбаев	-5321
man	-5322
▁59	-5323
▁67	-5324
▁еа	-5325
▁гол	-5326
▁лдо	-5327
▁мөт	-5328
▁ыба	-5329
▁десса	-5330
▁ирлер	-5331
ИЧ	-5332
loo	-5333
оля	-5334
▁дж	-5335
▁эж	-5336
▁аке	-5337
▁ттө	-5338
▁яху	-5339
▁ашуу	-5340
▁ктер	-5341
▁дугун	-5342
ace	-5343
ent	-5344
▁ЦА	-5345
▁мдү	-5346
▁айры	-5347
▁апел	-5348
▁енат	-5349
▁ента	-5350
▁мисс	-5351
▁ртып	-5352
▁Талиб	-5353
▁жагын	-5354
▁ВИЧ	-5355
▁Топ	-5356
▁ики	-5357
▁раге	-5358
ir	-5359
▁̆	-5360
▁72	-5361
▁гар	-5362
▁лты	-5363
▁рик	-5364
▁шти	-5365
▁арынд	-5366
▁мында	-5367
▁ондор	-5368
АЛ	-5369
ере	-5370
шиг	-5371
▁асс	-5372
▁гым	-5373
▁ега	-5374
▁зүм	-5375
▁чта	-5376
▁итеп	-5377
▁ниет	-5378
▁птеш	-5379
▁андык	-5380
▁енген	-5381
ol	-5382
хоз	-5383
▁3,	-5384
▁Ри	-5385
▁изи	-5386
▁либ	-5387
▁етик	-5388
▁ндин	-5389
▁ташы	-5390
▁армал	-5391
▁елери	-5392
ша	-5393
эр	-5394
ube	-5395
▁64	-5396
▁Кир	-5397
▁ЦАХ	-5398
▁нөк	-5399
▁она	-5400
▁ырл	-5401
▁ыкта	-5402
▁луусу	-5403
▁резид	-5404
▁Кү	-5405
▁Мед	-5406
▁гүз	-5407
▁йза	-5408
▁най	-5409
▁rnat	-5410
▁аршы	-5411
▁крат	-5412
▁лдар	-5413
▁76	-5414
▁елд	-5415
▁нна	-5416
▁чей	-5417
▁апса	-5418
▁атов	-5419
▁изди	-5420
▁рага	-5421
▁ЦАХАЛ	-5422
▁айдоо	-5423
▁жеп	-5424
▁жою	-5425
▁тчы	-5426
▁ыла	-5427
▁маны	-5428
▁стон	-5429
▁андын	-5430
▁жөнүн	-5431
▁ыккан	-5432
ав	-5433
▁w	-5434
▁зын	-5435
▁гону	-5436
▁жард	-5437
▁лимп	-5438
▁мани	-5439
▁нова	-5440
▁шкен	-5441
▁ептел	-5442
▁4-	-5443
▁or	-5444
▁Лю	-5445
▁йб	-5446
▁сф	-5447
▁800	-5448
▁дел	-5449
▁үрд	-5450
▁алал	-5451
▁згөр	-5452
▁рдун	-5453
▁өкмө	-5454
ИБ	-5455
мен	-5456
▁71	-5457
▁95	-5458
▁мн	-5459
▁ДСС	-5460
▁ела	-5461
▁рел	-5462
▁чкы	-5463
▁нике	-5464
▁штаг	-5465
▁налга	-5466
▁урсан	-5467
ar	-5468
▁80%	-5469
▁Сан	-5470
▁гус	-5471
▁лчу	-5472
▁ДССУ	-5473
▁араз	-5474
▁онун	-5475
▁аррис	-5476
▁улары	-5477
ve	-5478
▁z	-5479
▁ѳ	-5480
▁78	-5481
▁II	-5482
▁Да	-5483
▁абр	-5484
▁рея	-5485
▁стү	-5486
▁айыт	-5487
▁пате	-5488
▁ылба	-5489
▁ыска	-5490
▁өткү	-5491
▁парат	-5492
▁раилд	-5493
▁текте	-5494
▁рз	-5495
▁ирс	-5496
▁нчи	-5497
▁оон	-5498
▁сүт	-5499
▁күлд	-5500
▁эпос	-5501
▁үлдө	-5502
▁индер	-5503
▁кинди	-5504
▁Пр	-5505
▁Уч	-5506
▁ано	-5507
▁иль	-5508
▁кис	-5509
▁лад	-5510
▁Сады	-5511
▁өөлө	-5512
▁дөрдү	-5513
▁курма	-5514
ro	-5515
ess	-5516
▁Ту	-5517
▁илб	-5518
▁теп	-5519
▁уду	-5520
▁азап	-5521
▁елим	-5522
▁зала	-5523
▁цион	-5524
▁айыны	-5525
▁артта	-5526
▁ериал	-5527
ne	-5528
ght	-5529
▁VI	-5530
▁РИ	-5531
▁Ти	-5532
▁ваг	-5533
▁даг	-5534
▁ейб	-5535
▁уму	-5536
▁адат	-5537
▁азып	-5538
▁ерди	-5539
▁рлор	-5540
▁сман	-5541
▁увере	-5542
▁уулун	-5543
▁66	-5544
▁ае	-5545
▁Кли	-5546
▁алч	-5547
▁амг	-5548
▁gram	-5549
▁дикт	-5550
▁опту	-5551
▁отор	-5552
▁ырын	-5553
▁элин	-5554
▁Human	-5555
▁Wat	-5556
▁Чыг	-5557
▁ици	-5558
▁шин	-5559
▁Өзү	-5560
▁аева	-5561
▁жазд	-5562
▁ирус	-5563
▁лдаш	-5564
▁Right	-5565
▁чынын	-5566
▁69	-5567
▁As	-5568
▁Хи	-5569
▁уль	-5570
▁ыял	-5571
▁азыл	-5572
▁алыг	-5573
▁лдын	-5574
▁чогу	-5575
▁изоля	-5576
▁ындап	-5577
el	-5578
бун	-5579
▁84	-5580
▁Cov	-5581
▁Хан	-5582
▁үзү	-5583
▁айни	-5584
▁амын	-5585
▁етро	-5586
▁ибер	-5587
▁лайы	-5588
▁оомду	-5589
▁урнир	-5590
▁шайке	-5591
▁ынчыл	-5592
fi	-5593
хай	-5594
▁имм	-5595
▁мүр	-5596
▁неп	-5597
▁грек	-5598
▁ияда	-5599
▁кова	-5600
▁куту	-5601
▁мдан	-5602
▁ресе	-5603
▁ттөр	-5604
▁индин	-5605
▁кымба	-5606
▁отчёт	-5607
▁тобун	-5608
▁тоого	-5609
▁Ша	-5610
▁Акы	-5611
▁код	-5612
▁кте	-5613
▁ржа	-5614
▁том	-5615
▁ирич	-5616
▁мдин	-5617
▁оман	-5618
▁пайы	-5619
▁Watch	-5620
▁ндыгы	-5621
▁тинде	-5622
▁үлөрү	-5623
ed	-5624
▁3-	-5625
▁ие	-5626
▁чт	-5627
▁30%	-5628
▁йүн	-5629
▁ыму	-5630
▁втор	-5631
▁зилд	-5632
▁иеше	-5633
▁көлө	-5634
▁мана	-5635
▁манб	-5636
▁Sp	-5637
▁50%	-5638
▁зил	-5639
▁нди	-5640
▁узи	-5641
▁чар	-5642
▁икти	-5643
▁ланд	-5644
▁ентте	-5645
▁илдер	-5646
▁күчүн	-5647
▁раван	-5648
pp	-5649
▁2-	-5650
▁гд	-5651
▁йи	-5652
▁000	-5653
▁Жаш	-5654
▁аси	-5655
▁ктө	-5656
▁кум	-5657
▁нел	-5658
▁шак	-5659
▁үрү	-5660
▁амен	-5661
▁арып	-5662
▁кечи	-5663
▁лова	-5664
▁ойду	-5665
▁шала	-5666
▁берге	-5667
▁малды	-5668
▁олуна	-5669
▁ржава	-5670
▁Раз	-5671
▁теб	-5672
▁беге	-5673
▁ласы	-5674
▁рпус	-5675
▁абылд	-5676
▁ФС	-5677
▁Лат	-5678
▁аме	-5679
▁мма	-5680
▁ода	-5681
▁КТРК	-5682
▁айды	-5683
▁здөр	-5684
▁опто	-5685
▁рлан	-5686
▁ртыш	-5687
▁студ	-5688
▁өлүү	-5689
▁ионат	-5690
▁пахта	-5691
il	-5692
▁ӊ	-5693
▁жем	-5694
▁стр	-5695
▁зиза	-5696
▁кыры	-5697
▁онуп	-5698
▁ошто	-5699
▁укум	-5700
▁барак	-5701
▁ламан	-5702
▁тунда	-5703
▁­	-5704
ook	-5705
▁97	-5706
▁оё	-5707
▁брь	-5708
▁олл	-5709
▁шей	-5710
▁Tube	-5711
▁аанд	-5712
▁болг	-5713
▁елде	-5714
▁лушу	-5715
▁омбу	-5716
▁алдыг	-5717
▁иянын	-5718
▁ңк	-5719
▁өд	-5720
▁лон	-5721
▁нса	-5722
▁уял	-5723
▁шко	-5724
▁ыст	-5725
▁ктур	-5726
▁манд	-5727
▁отко	-5728
▁ттик	-5729
▁үктү	-5730
▁h	-5731
▁87	-5732
▁Тү	-5733
▁ФСБ	-5734
▁бле	-5735
▁озг	-5736
▁тот	-5737
▁уук	-5738
▁өкү	-5739
▁аало	-5740
▁изин	-5741
▁ньян	-5742
▁пера	-5743
▁Covid	-5744
▁аимов	-5745
▁айдал	-5746
▁енден	-5747
an	-5748
рой	-5749
▁79	-5750
▁аво	-5751
▁мүт	-5752
▁рго	-5753
▁риб	-5754
▁анаг	-5755
▁лига	-5756
▁нвес	-5757
▁омун	-5758
▁рбай	-5759
▁тууд	-5760
▁түзө	-5761
▁үчүл	-5762
▁өткө	-5763
▁аразы	-5764
ват	-5765
ета	-5766
▁КЭ	-5767
▁Се	-5768
▁уэ	-5769
▁3,5	-5770
▁зги	-5771
▁кто	-5772
▁лжо	-5773
▁руп	-5774
▁тоз	-5775
▁өкө	-5776
▁адаш	-5777
▁ерик	-5778
▁карг	-5779
▁чата	-5780
▁ылыт	-5781
▁үгүн	-5782
▁өдөн	-5783
▁өөнө	-5784
▁ратор	-5785
▁4,	-5786
▁дс	-5787
▁рх	-5788
▁бды	-5789
▁иро	-5790
▁оги	-5791
▁рмо	-5792
▁роо	-5793
▁ааны	-5794
▁илли	-5795
▁түгү	-5796
▁урса	-5797
▁эшиг	-5798
▁ардак	-5799
▁блема	-5800
▁егизг	-5801
▁еттик	-5802
▁TV	-5803
▁Жар	-5804
▁зам	-5805
▁ынт	-5806
▁ерде	-5807
▁меле	-5808
▁нинг	-5809
▁нүгү	-5810
▁розо	-5811
▁стин	-5812
▁ысын	-5813
▁ааныш	-5814
▁бизге	-5815
▁малар	-5816
hat	-5817
▁74	-5818
▁AF	-5819
▁По	-5820
▁10%	-5821
▁180	-5822
▁ахр	-5823
▁зыя	-5824
▁иди	-5825
▁кия	-5826
▁зинф	-5827
▁кани	-5828
▁лдет	-5829
▁артып	-5830
▁чийки	-5831
ря	-5832
ют	-5833
йрө	-5834
ник	-5835
▁ЖК	-5836
▁асе	-5837
▁йык	-5838
▁пти	-5839
▁ьян	-5840
▁алет	-5841
▁асал	-5842
▁өйрө	-5843
жен	-5844
▁st	-5845
▁як	-5846
▁110	-5847
▁90%	-5848
▁нсу	-5849
▁ойг	-5850
▁раз	-5851
▁чег	-5852
▁араг	-5853
▁истр	-5854
▁наты	-5855
▁нуэл	-5856
ево	-5857
▁Күн	-5858
▁лго	-5859
▁лөш	-5860
▁ЖАМК	-5861
▁лхоз	-5862
▁магы	-5863
▁пайг	-5864
▁риал	-5865
▁тари	-5866
▁Латви	-5867
ГБ	-5868
али	-5869
пич	-5870
раф	-5871
рид	-5872
▁шк	-5873
▁рыз	-5874
▁суб	-5875
▁ңдо	-5876
▁ауди	-5877
▁илде	-5878
▁касы	-5879
▁мдар	-5880
▁нист	-5881
▁стра	-5882
▁укка	-5883
▁чечи	-5884
▁ттары	-5885
▁ni	-5886
▁Ка	-5887
▁ога	-5888
▁book	-5889
▁болу	-5890
▁койг	-5891
▁ренд	-5892
▁улжа	-5893
▁өөгө	-5894
▁81	-5895
▁2-3	-5896
▁Чен	-5897
▁Шир	-5898
▁ило	-5899
▁абир	-5900
▁астык	-5901
az	-5902
лас	-5903
▁Li	-5904
▁убу	-5905
▁ыты	-5906
▁кине	-5907
▁алист	-5908
▁нкция	-5909
AR	-5910
SA	-5911
▁82	-5912
▁86	-5913
▁аё	-5914
▁лчи	-5915
▁ооч	-5916
▁оту	-5917
▁етке	-5918
▁малы	-5919
▁түнү	-5920
▁рылды	-5921
ила	-5922
▁гөй	-5923
▁хак	-5924
▁балд	-5925
▁гент	-5926
▁гонд	-5927
▁дады	-5928
▁лдор	-5929
▁ачылы	-5930
▁осуна	-5931
ИС	-5932
СР	-5933
йт	-5934
ами	-5935
▁Bi	-5936
▁Пе	-5937
▁Ст	-5938
▁Жаз	-5939
▁авл	-5940
▁даа	-5941
▁шын	-5942
▁Бири	-5943
▁бине	-5944
▁дашты	-5945
▁рбаев	-5946
▁рунун	-5947
▁83	-5948
▁130	-5949
▁Бар	-5950
▁зас	-5951
▁янд	-5952
▁ишим	-5953
▁онов	-5954
▁ртты	-5955
▁това	-5956
▁анхай	-5957
▁бербе	-5958
▁ерина	-5959
▁латын	-5960
▁менчи	-5961
▁патри	-5962
СК	-5963
▁Po	-5964
▁лг	-5965
▁екц	-5966
▁лаа	-5967
▁нгө	-5968
▁нык	-5969
▁амчы	-5970
▁ндик	-5971
▁орту	-5972
▁тама	-5973
▁еркен	-5974
▁келбе	-5975
▁нияда	-5976
▁шахта	-5977
уд	-5978
▁kz	-5979
▁Ха	-5980
▁зб	-5981
дина	-5982
▁rov	-5983
▁эко	-5984
▁өмө	-5985
▁амба	-5986
▁ерма	-5987
▁лбай	-5988
▁литр	-5989
▁урба	-5990
▁евдин	-5991
▁рүүнү	-5992
▁урлар	-5993
RW	-5994
ЧР	-5995
ид	-5996
нов	-5997
▁AFP	-5998
▁ПЧР	-5999
▁нүш	-6000
▁опк	-6001
▁яга	-6002
▁Face	-6003
▁аалы	-6004
▁аида	-6005
▁арла	-6006
▁аброй	-6007
▁амагы	-6008
▁еринб	-6009
▁инжен	-6010
▁скери	-6011
ak	-6012
яз	-6013
ряд	-6014
▁LI	-6015
▁Түп	-6016
▁аци	-6017
▁дад	-6018
▁амаг	-6019
▁орой	-6020
▁тети	-6021
▁удан	-6022
▁актер	-6023
▁рынан	-6024
жар	-6025
лем	-6026
▁БА	-6027
▁Па	-6028
▁Чы	-6029
▁үс	-6030
▁Так	-6031
▁дак	-6032
▁зым	-6033
▁ашал	-6034
▁лбек	-6035
▁муру	-6036
▁урга	-6037
▁ырды	-6038
▁үзгө	-6039
▁мдери	-6040
▁ьянма	-6041
sh	-6042
▁98	-6043
▁Am	-6044
▁St	-6045
▁еж	-6046
▁йл	-6047
▁3-4	-6048
▁Air	-6049
▁nce	-6050
▁етт	-6051
▁луш	-6052
▁ско	-6053
▁сов	-6054
▁ахар	-6055
▁бюрос	-6056
▁ерген	-6057
▁еркел	-6058
▁ерниз	-6059
АСС	-6060
▁88	-6061
▁дог	-6062
▁йло	-6063
▁нүг	-6064
▁роза	-6065
▁үндү	-6066
▁ариат	-6067
▁бакты	-6068
la	-6069
op	-6070
мал	-6071
▁ЕБ	-6072
▁лб	-6073
▁900	-6074
▁Бор	-6075
▁ТИМ	-6076
▁аре	-6077
▁пла	-6078
▁рык	-6079
▁урп	-6080
▁Пара	-6081
▁ТАСС	-6082
▁апур	-6083
▁бдан	-6084
▁дири	-6085
▁иний	-6086
▁имсан	-6087
▁умент	-6088
▁Оп	-6089
▁Күч	-6090
▁бок	-6091
▁илл	-6092
▁нөө	-6093
▁тре	-6094
▁чай	-6095
▁алян	-6096
▁бада	-6097
▁ктап	-6098
▁руна	-6099
▁агынд	-6100
▁балды	-6101
▁өрүнү	-6102
ct	-6103
ева	-6104
▁Фр	-6105
▁ее	-6106
▁20%	-6107
▁гия	-6108
▁иру	-6109
▁улы	-6110
▁эти	-6111
▁ариф	-6112
▁ренб	-6113
▁урап	-6114
▁ылты	-6115
▁дсмен	-6116
▁жүзүн	-6117
▁убара	-6118
▁ындар	-6119
Ал	-6120
▁рб	-6121
▁40%	-6122
▁70%	-6123
▁уят	-6124
▁Temi	-6125
▁Ширш	-6126
▁ербе	-6127
▁ирип	-6128
▁скат	-6129
▁ороон	-6130
▁хакер	-6131
loop	-6132
▁lin	-6133
▁ЖМК	-6134
▁Кеп	-6135
▁ажа	-6136
▁инч	-6137
▁есип	-6138
▁ирия	-6139
▁лтай	-6140
▁оста	-6141
▁тели	-6142
▁упер	-6143
▁чагы	-6144
▁ээрл	-6145
▁айкуш	-6146
МУ	-6147
ца	-6148
▁f	-6149
▁--	-6150
▁li	-6151
▁илк	-6152
▁ули	-6153
▁шке	-6154
▁эск	-6155
▁алас	-6156
▁ийне	-6157
▁инге	-6158
▁лбой	-6159
▁оппо	-6160
▁уйку	-6161
▁пикет	-6162
▁шкана	-6163
▁экспо	-6164
еро	-6165
▁ar	-6166
▁us	-6167
▁Get	-6168
▁Сен	-6169
▁аид	-6170
▁акк	-6171
▁аха	-6172
▁лөт	-6173
▁умг	-6174
▁чок	-6175
▁чөп	-6176
▁Зама	-6177
▁айна	-6178
▁алак	-6179
▁гали	-6180
▁дмин	-6181
▁лабы	-6182
▁линг	-6183
▁паки	-6184
▁елиши	-6185
▁ухтар	-6186
КС	-6187
ье	-6188
▁5%	-6189
▁99	-6190
▁эй	-6191
▁140	-6192
▁айз	-6193
▁зык	-6194
▁рка	-6195
▁шха	-6196
▁эро	-6197
▁Tele	-6198
▁апка	-6199
▁аңга	-6200
▁итан	-6201
▁рома	-6202
▁сени	-6203
▁тпай	-6204
▁уйру	-6205
▁ышка	-6206
▁алкак	-6207
▁боору	-6208
▁мдары	-6209
▁нүгүү	-6210
▁93	-6211
▁иа	-6212
▁юз	-6213
▁ящ	-6214
▁Гор	-6215
▁кот	-6216
▁оңу	-6217
▁шел	-6218
▁ырг	-6219
▁алиф	-6220
▁ивер	-6221
▁мдик	-6222
▁ссёр	-6223
▁Getty	-6224
▁анасы	-6225
▁илбей	-6226
▁иттер	-6227
▁комис	-6228
▁марке	-6229
▁ткөнү	-6230
ck	-6231
us	-6232
▁p	-6233
ипе	-6234
уля	-6235
хаз	-6236
▁CN	-6237
▁Pr	-6238
▁XI	-6239
▁nd	-6240
▁ССР	-6241
▁ало	-6242
▁нку	-6243
▁пиа	-6244
▁шиш	-6245
▁үлү	-6246
▁азды	-6247
▁анкц	-6248
▁ашоо	-6249
▁ашын	-6250
▁бары	-6251
▁ллеж	-6252
▁нанс	-6253
▁Kloop	-6254
▁гондо	-6255
▁импич	-6256
▁үктөр	-6257
VE	-6258
ЕФ	-6259
ork	-6260
▁To	-6261
▁вр	-6262
▁рн	-6263
▁HRW	-6264
▁Пан	-6265
▁вив	-6266
▁еат	-6267
▁еге	-6268
▁лой	-6269
▁мум	-6270
▁нсы	-6271
▁улп	-6272
▁авел	-6273
▁армо	-6274
▁лдоо	-6275
▁лена	-6276
▁нети	-6277
▁шкөн	-6278
▁шраф	-6279
▁үмүн	-6280
▁амдар	-6281
▁засын	-6282
▁номер	-6283
▁ованы	-6284
ны	-6285
фт	-6286
ial	-6287
бир	-6288
рем	-6289
цов	-6290
▁5,	-6291
▁Бе	-6292
▁вт	-6293
▁гап	-6294
▁York	-6295
▁олит	-6296
▁рбей	-6297
▁ялык	-6298
▁азган	-6299
▁ордер	-6300
▁тайда	-6301
▁өтөрү	-6302
▁'	-6303
ерт	-6304
ира	-6305
кур	-6306
урт	-6307
үлк	-6308
▁Ma	-6309
▁ed	-6310
▁et	-6311
▁тм	-6312
▁Ван	-6313
▁Түш	-6314
▁ема	-6315
▁ива	-6316
▁нол	-6317
▁нур	-6318
▁ози	-6319
▁опо	-6320
▁роп	-6321
▁LIVE	-6322
▁What	-6323
▁Тажи	-6324
▁аңыл	-6325
▁ктал	-6326
▁мато	-6327
▁мүлк	-6328
▁омат	-6329
▁разы	-6330
▁риле	-6331
▁чала	-6332
▁боорд	-6333
▁ванын	-6334
▁дыкат	-6335
▁оргон	-6336
▁отряд	-6337
▁отуру	-6338
▁эркин	-6339
:0	-6340
ич	-6341
кем	-6342
рим	-6343
▁уф	-6344
▁Гар	-6345
▁лья	-6346
▁оме	-6347
▁паж	-6348
▁рта	-6349
▁шту	-6350
▁Улут	-6351
▁аска	-6352
▁атай	-6353
▁афах	-6354
▁ашка	-6355
▁лаур	-6356
▁овар	-6357
▁рдык	-6358
▁ырым	-6359
▁үлүк	-6360
ос	-6361
рав	-6362
▁92	-6363
▁ge	-6364
▁оу	-6365
▁ыб	-6366
▁Үй	-6367
▁CNN	-6368
▁алб	-6369
▁ндр	-6370
▁рот	-6371
▁шал	-6372
▁ибир	-6373
▁ирик	-6374
▁лант	-6375
▁став	-6376
▁ураб	-6377
▁шиев	-6378
▁сибир	-6379
▁талып	-6380
▁турму	-6381
▁тылды	-6382
▁угуна	-6383
▁элект	-6384
ят	-6385
бли	-6386
ерг	-6387
▁5-	-6388
▁XX	-6389
▁Эс	-6390
▁sty	-6391
▁Рим	-6392
▁ибе	-6393
▁ише	-6394
▁наз	-6395
▁нге	-6396
▁туб	-6397
▁эрк	-6398
▁Акыл	-6399
▁акса	-6400
▁дайы	-6401
▁дара	-6402
▁риса	-6403
▁рына	-6404
▁умше	-6405
▁штир	-6406
▁Press	-6407
▁Корго	-6408
▁килем	-6409
▁нолог	-6410
▁пайду	-6411
▁энерг	-6412
зан	-6413
▁Гол	-6414
▁авт	-6415
▁нег	-6416
▁ому	-6417
▁пил	-6418
▁уан	-6419
▁яче	-6420
▁абын	-6421
▁аруу	-6422
▁вист	-6423
▁емпи	-6424
▁изме	-6425
▁көрг	-6426
▁тыры	-6427
▁ушун	-6428
▁фган	-6429
▁ырас	-6430
▁өлгө	-6431
▁аңгак	-6432
▁гунда	-6433
ot	-6434
ьв	-6435
ата	-6436
▁Бу	-6437
▁тп	-6438
ИСЕФ	-6439
▁Ака	-6440
▁еңе	-6441
▁зер	-6442
▁има	-6443
▁рме	-6444
▁ыюу	-6445
▁үзг	-6446
▁ӨКМ	-6447
▁Amne	-6448
▁аажы	-6449
▁атте	-6450
▁НИСЕФ	-6451
▁рымда	-6452
▁шеним	-6453
кес	-6454
▁91	-6455
▁94	-6456
▁zer	-6457
▁апы	-6458
▁быш	-6459
▁ейр	-6460
▁ешт	-6461
▁нем	-6462
▁очо	-6463
▁авло	-6464
▁емир	-6465
▁плак	-6466
▁ейтер	-6467
▁рткан	-6468
▁үнгөн	-6469
зю	-6470
▁96	-6471
▁ДН	-6472
▁кв	-6473
▁Pfi	-6474
▁виз	-6475
▁ууч	-6476
▁вело	-6477
▁дерг	-6478
▁илег	-6479
▁рунт	-6480
▁ттин	-6481
▁аркын	-6482
▁арыны	-6483
▁емеси	-6484
▁идент	-6485
▁тетин	-6486
▁чабал	-6487
▁шарше	-6488
is	-6489
ял	-6490
▁Q	-6491
ene	-6492
▁ңа	-6493
▁Ins	-6494
▁Рай	-6495
▁Рас	-6496
▁анн	-6497
▁сол	-6498
▁ыңа	-6499
▁Шайл	-6500
▁айне	-6501
▁засы	-6502
▁күлү	-6503
▁ургу	-6504
▁ызык	-6505
▁згөрт	-6506
▁уктун	-6507
ДК	-6508
▁ыж	-6509
edia	-6510
густ	-6511
ууну	-6512
▁350	-6513
▁Пол	-6514
▁иңд	-6515
▁кпа	-6516
▁нит	-6517
▁ууш	-6518
▁учу	-6519
▁чка	-6520
▁шыр	-6521
▁өнт	-6522
▁атер	-6523
▁ашар	-6524
▁бхаз	-6525
▁ирек	-6526
▁насы	-6527
▁полк	-6528
▁ткөр	-6529
▁ттоо	-6530
▁ямин	-6531
▁алына	-6532
▁вгуст	-6533
▁нткен	-6534
▁постс	-6535
▁рууну	-6536
уж	-6537
App	-6538
▁6,	-6539
▁me	-6540
▁аӊ	-6541
▁еӊ	-6542
▁рэ	-6543
▁4-5	-6544
▁Кап	-6545
▁Ста	-6546
▁вис	-6547
▁икс	-6548
▁нөр	-6549
▁туз	-6550
▁өрг	-6551
▁өсү	-6552
▁sApp	-6553
▁Ного	-6554
▁асир	-6555
▁вест	-6556
▁күсү	-6557
▁лифи	-6558
▁ндей	-6559
▁осни	-6560
▁угун	-6561
▁айбыз	-6562
▁актёр	-6563
▁ахрир	-6564
▁имдин	-6565
▁ктары	-6566
▁оонун	-6567
▁публи	-6568
lo	-6569
вит	-6570
мос	-6571
ьвов	-6572
▁Кең	-6573
▁Эли	-6574
▁көг	-6575
▁Азат	-6576
▁азал	-6577
▁амду	-6578
▁арпа	-6579
▁асул	-6580
▁аянд	-6581
▁капа	-6582
▁ооке	-6583
▁угар	-6584
▁ыйыл	-6585
▁ымын	-6586
▁Львов	-6587
▁авлод	-6588
▁аршав	-6589
▁ахман	-6590
▁еттен	-6591
▁оберт	-6592
од	-6593
үйш	-6594
▁Ast	-6595
▁Nex	-6596
▁оре	-6597
▁рсе	-6598
▁уро	-6599
▁шим	-6600
▁шпе	-6601
▁Доха	-6602
▁Дүйш	-6603
▁бокс	-6604
▁гант	-6605
▁етки	-6606
▁нүкт	-6607
▁улло	-6608
▁шыкт	-6609
▁ейрут	-6610
▁емасы	-6611
▁ыплас	-6612
нак	-6613
▁ne	-6614
▁ru	-6615
▁юп	-6616
▁com	-6617
▁гим	-6618
▁ези	-6619
▁лги	-6620
▁лку	-6621
▁ная	-6622
▁нци	-6623
▁ьет	-6624
▁Live	-6625
▁Коро	-6626
▁анга	-6627
▁асфа	-6628
▁клан	-6629
▁мира	-6630
▁ниве	-6631
▁рест	-6632
▁рине	-6633
▁ртем	-6634
▁сүрө	-6635
▁уулд	-6636
▁ардан	-6637
▁аттес	-6638
▁есине	-6639
▁жазуу	-6640
▁мдиги	-6641
▁номур	-6642
▁ылыкт	-6643
▁этнос	-6644
se	-6645
▁ci	-6646
▁ha	-6647
▁Жи	-6648
▁НЕ	-6649
▁вд	-6650
▁мк	-6651
▁160	-6652
▁Кас	-6653
▁инк	-6654
▁шоо	-6655
▁ялд	-6656
▁Tech	-6657
▁Кири	-6658
▁арим	-6659
▁арыб	-6660
▁окур	-6661
▁реже	-6662
▁ынак	-6663
▁үмдө	-6664
▁Astra	-6665
▁артты	-6666
▁лгиле	-6667
▁рганы	-6668
▁уштар	-6669
▁ылдый	-6670
▁y	-6671
хар	-6672
▁Eu	-6673
▁КР	-6674
▁4,5	-6675
▁60%	-6676
▁саб	-6677
▁чик	-6678
▁Zene	-6679
▁анду	-6680
▁аным	-6681
▁емен	-6682
▁ктяб	-6683
▁кызд	-6684
▁лдөр	-6685
▁мурд	-6686
▁нота	-6687
▁нски	-6688
▁рдик	-6689
▁ушак	-6690
▁этти	-6691
▁өндү	-6692
▁амзан	-6693
▁иммун	-6694
▁лууну	-6695
▁фавит	-6696
ie	-6697
юк	-6698
ina	-6699
ИИБ	-6700
ена	-6701
ремя	-6702
▁ККМ	-6703
▁веб	-6704
▁зып	-6705
▁ома	-6706
▁рок	-6707
▁рос	-6708
▁шах	-6709
▁шор	-6710
▁шөт	-6711
▁ечим	-6712
▁лман	-6713
▁шпай	-6714
▁адина	-6715
▁аркар	-6716
▁время	-6717
▁иннов	-6718
▁сфана	-6719
▁түшкө	-6720
▁чурка	-6721
IM	-6722
жу	-6723
▁89	-6724
▁см	-6725
▁зав	-6726
▁при	-6727
▁Рада	-6728
▁аасы	-6729
▁жабд	-6730
▁пуля	-6731
▁стал	-6732
▁түнө	-6733
▁шине	-6734
▁Ногой	-6735
▁ентке	-6736
▁лорун	-6737
▁пакет	-6738
▁урпак	-6739
эй	-6740
▁(6	-6741
▁ma	-6742
зюдо	-6743
▁вра	-6744
▁ппа	-6745
▁Next	-6746
▁алик	-6747
▁генц	-6748
▁есси	-6749
▁мина	-6750
▁ство	-6751
▁талг	-6752
▁урах	-6753
▁утун	-6754
▁ызда	-6755
▁ырба	-6756
▁өгөн	-6757
▁толго	-6758
▁узаху	-6759
CC	-6760
ИД	-6761
▁Ё	-6762
▁De	-6763
▁mb	-6764
▁ТВ	-6765
▁тс	-6766
▁юм	-6767
▁Goo	-6768
▁вар	-6769
▁зоо	-6770
▁чеб	-6771
▁шоу	-6772
▁ирил	-6773
▁сист	-6774
▁тоют	-6775
▁ыйыт	-6776
▁ымал	-6777
▁ептер	-6778
▁сомдо	-6779
▁үзгөн	-6780
-8	-6781
ic	-6782
▁*	-6783
▁5-6	-6784
▁Бел	-6785
▁Той	-6786
▁рты	-6787
▁тог	-6788
▁штү	-6789
▁алта	-6790
▁бода	-6791
▁йлар	-6792
▁лтүр	-6793
▁мора	-6794
▁мран	-6795
▁рабы	-6796
▁татт	-6797
▁тиви	-6798
▁тизм	-6799
▁үздү	-6800
▁Конст	-6801
▁акета	-6802
▁алымд	-6803
▁амира	-6804
▁естан	-6805
▁иверс	-6806
▁оркес	-6807
▁рахма	-6808
so	-6809
СКО	-6810
▁Ше	-6811
▁Ын	-6812
▁gle	-6813
▁жон	-6814
▁лдү	-6815
▁руш	-6816
▁тиц	-6817
▁елеч	-6818
▁лика	-6819
▁лору	-6820
▁осун	-6821
▁үздө	-6822
▁НЕСКО	-6823
▁атема	-6824
▁опурт	-6825
▁рслан	-6826
▁тоодо	-6827
▁улпук	-6828
:1	-6829
дл	-6830
ой	-6831
akt	-6832
all	-6833
▁АГ	-6834
▁йү	-6835
▁nik	-6836
▁Оор	-6837
▁вде	-6838
▁дра	-6839
▁кку	-6840
▁мдо	-6841
▁озу	-6842
▁олк	-6843
▁роб	-6844
▁төп	-6845
▁уша	-6846
▁ымы	-6847
▁ңир	-6848
▁арид	-6849
▁зоок	-6850
▁исин	-6851
▁налы	-6852
▁очул	-6853
▁стар	-6854
▁чоро	-6855
▁аасын	-6856
▁антин	-6857
▁көндө	-6858
▁несин	-6859
▁рланд	-6860
de	-6861
АТЭ	-6862
итм	-6863
▁7,	-6864
▁dia	-6865
▁нүк	-6866
▁оос	-6867
▁дашы	-6868
▁исси	-6869
▁келб	-6870
▁льга	-6871
▁сант	-6872
▁тана	-6873
▁тилк	-6874
▁тири	-6875
▁урус	-6876
▁утта	-6877
▁үшүн	-6878
▁өргө	-6879
▁АГАТЭ	-6880
▁амара	-6881
▁бакта	-6882
▁табыз	-6883
▁өөсүн	-6884
ИЗ	-6885
ру	-6886
ино	-6887
чак	-6888
▁Da	-6889
▁Le	-6890
▁in	-6891
▁nc	-6892
▁гыз	-6893
▁имо	-6894
▁кке	-6895
▁лге	-6896
▁ойт	-6897
▁рук	-6898
▁сса	-6899
▁тке	-6900
▁ури	-6901
▁шпа	-6902
▁Cent	-6903
▁апит	-6904
▁кого	-6905
▁марк	-6906
▁орос	-6907
▁рада	-6908
▁тпөй	-6909
▁туде	-6910
▁умун	-6911
▁үзүү	-6912
▁амала	-6913
▁елеви	-6914
▁елоси	-6915
▁лавян	-6916
▁роман	-6917
RP	-6918
▁175	-6919
▁Bio	-6920
▁Абу	-6921
▁Том	-6922
▁Тоң	-6923
▁гис	-6924
▁зде	-6925
▁ктү	-6926
▁мөө	-6927
▁раж	-6928
▁айчы	-6929
▁башт	-6930
▁елеф	-6931
▁жазг	-6932
▁зодл	-6933
▁көлү	-6934
▁олла	-6935
▁рант	-6936
▁чака	-6937
▁шүнө	-6938
▁орозо	-6939
ДӨ	-6940
яни	-6941
▁пү	-6942
▁ИДӨ	-6943
▁гри	-6944
▁зүп	-6945
▁йта	-6946
▁лүм	-6947
▁уси	-6948
▁шаа	-6949
▁өшү	-6950
▁Asso	-6951
▁Post	-6952
▁Баки	-6953
▁када	-6954
▁крит	-6955
▁нейт	-6956
▁непр	-6957
▁осту	-6958
▁рейс	-6959
▁тына	-6960
▁юнча	-6961
▁алина	-6962
▁анжар	-6963
▁еверо	-6964
▁ермет	-6965
▁ондун	-6966
▁орват	-6967
▁ринен	-6968
▁стема	-6969
эч	-6970
▁1-	-6971
▁GM	-6972
▁15%	-6973
▁170	-6974
▁ДНК	-6975
▁аяр	-6976
▁зду	-6977
▁нид	-6978
▁рту	-6979
▁тия	-6980
▁тээ	-6981
▁усе	-6982
▁шаг	-6983
▁ciat	-6984
▁ахат	-6985
▁вада	-6986
▁екаб	-6987
▁икар	-6988
▁рден	-6989
▁рота	-6990
▁циви	-6991
▁ылай	-6992
▁аалда	-6993
▁араби	-6994
▁индик	-6995
▁октон	-6996
▁оритм	-6997
▁пилот	-6998
▁стипе	-6999
▁уюмда	-7000
▁мс	-7001
▁яй	-7002
CCRP	-7003
▁айм	-7004
▁вай	-7005
▁ето	-7006
▁жел	-7007
▁Өтө	-7008
▁BioN	-7009
▁ЭлТР	-7010
▁ерип	-7011
▁раса	-7012
▁ртур	-7013
▁тиле	-7014
▁улин	-7015
▁ырак	-7016
▁Media	-7017
▁OCCRP	-7018
▁актын	-7019
▁антта	-7020
▁анышы	-7021
▁ельта	-7022
▁ериси	-7023
▁зияда	-7024
▁рууга	-7025
▁умкар	-7026
▁ураху	-7027
AT	-7028
ВД	-7029
ФА	-7030
рт	-7031
хо	-7032
erg	-7033
ван	-7034
ейт	-7035
IMAR	-7036
▁260	-7037
▁БАЭ	-7038
▁Шад	-7039
▁айя	-7040
▁дюс	-7041
▁ерл	-7042
▁яба	-7043
▁үчт	-7044
▁Kakt	-7045
▁атто	-7046
▁ачкы	-7047
▁гасы	-7048
▁дасы	-7049
▁ерни	-7050
▁етме	-7051
▁йдан	-7052
▁йнер	-7053
▁йылд	-7054
▁лбей	-7055
▁леге	-7056
▁лира	-7057
▁монт	-7058
▁росс	-7059
▁тота	-7060
▁чоку	-7061
▁ырда	-7062
▁HIMAR	-7063
▁аталь	-7064
▁карга	-7065
▁сипед	-7066
▁тылып	-7067
▁увейт	-7068
▁шериг	-7069
ws	-7070
ЧК	-7071
old	-7072
дит	-7073
▁Кер	-7074
▁Руз	-7075
▁айб	-7076
▁еба	-7077
▁ирб	-7078
▁лка	-7079
▁пте	-7080
▁Sput	-7081
▁веде	-7082
▁врач	-7083
▁илүү	-7084
▁огот	-7085
▁орда	-7086
▁тани	-7087
▁аалим	-7088
▁дзюдо	-7089
▁йылда	-7090
▁ллион	-7091
▁рсула	-7092
▁шуусу	-7093
▁үлүкт	-7094
pa	-7095
үт	-7096
ИЗО	-7097
рам	-7098
▁CA	-7099
▁Тө	-7100
▁4-9	-7101
▁450	-7102
▁III	-7103
▁Жок	-7104
▁еру	-7105
▁жей	-7106
▁зад	-7107
▁ког	-7108
▁неф	-7109
▁рум	-7110
▁умд	-7111
▁шүг	-7112
▁эте	-7113
▁Гуля	-7114
▁аара	-7115
▁аиси	-7116
▁амин	-7117
▁елге	-7118
▁ичин	-7119
▁пред	-7120
▁ралд	-7121
▁аштан	-7122
▁берүү	-7123
▁номин	-7124
ash	-7125
они	-7126
▁ЖО	-7127
▁Ой	-7128
▁Хо	-7129
▁Цз	-7130
▁Шү	-7131
▁бж	-7132
▁7-8	-7133
▁Tik	-7134
▁Tok	-7135
▁Tra	-7136
▁КГБ	-7137
▁Көк	-7138
▁вен	-7139
▁нөл	-7140
▁оти	-7141
▁төш	-7142
▁шап	-7143
▁Bloo	-7144
▁абас	-7145
▁айби	-7146
▁анжа	-7147
▁апык	-7148
▁вето	-7149
▁евди	-7150
▁ейин	-7151
▁онду	-7152
▁укса	-7153
▁Захар	-7154
▁актык	-7155
▁дюсер	-7156
▁кагыл	-7157
▁непро	-7158
▁унган	-7159
▁урбан	-7160
ay	-7161
ld	-7162
un	-7163
нал	-7164
▁ss	-7165
▁Ве	-7166
▁йр	-7167
▁Гум	-7168
▁Сох	-7169
▁Түл	-7170
▁аге	-7171
▁ежи	-7172
▁ечү	-7173
▁мег	-7174
▁под	-7175
▁узу	-7176
▁унг	-7177
▁rnal	-7178
▁аксы	-7179
▁дист	-7180
▁неге	-7181
▁нтон	-7182
▁расс	-7183
▁шаки	-7184
▁штей	-7185
▁ыкер	-7186
▁яйен	-7187
▁mberg	-7188
▁игнал	-7189
▁ковду	-7190
▁ктери	-7191
▁обяни	-7192
▁сотту	-7193
▁#	-7194
rou	-7195
▁Co	-7196
▁KG	-7197
▁бб	-7198
▁бс	-7199
▁ям	-7200
▁GMT	-7201
▁VII	-7202
▁XVI	-7203
▁КДК	-7204
▁КЭР	-7205
▁Мэр	-7206
▁Нов	-7207
▁РИА	-7208
▁абс	-7209
▁ваз	-7210
▁гру	-7211
▁еше	-7212
▁йра	-7213
▁нчү	-7214
▁оңд	-7215
▁ыяс	-7216
▁ягы	-7217
▁айыш	-7218
▁енес	-7219
▁ешик	-7220
▁еңил	-7221
▁здер	-7222
▁йыпт	-7223
▁озеп	-7224
▁прав	-7225
▁рлык	-7226
▁рмия	-7227
▁улум	-7228
▁ырах	-7229
▁өгүн	-7230
▁АКШны	-7231
▁аамай	-7232
▁ердар	-7233
▁ктиги	-7234
▁магын	-7235
▁перац	-7236
▁ракта	-7237
▁тылат	-7238
▁экспе	-7239
ti	-7240
ая	-7241
вах	-7242
кат	-7243
▁СУ	-7244
▁Ши	-7245
▁230	-7246
▁6,5	-7247
▁Jou	-7248
▁Кип	-7249
▁Кум	-7250
▁Эль	-7251
▁аут	-7252
▁бык	-7253
▁зуу	-7254
▁изг	-7255
▁лсо	-7256
▁мбу	-7257
▁нфо	-7258
▁рду	-7259
▁акед	-7260
▁аңги	-7261
▁лина	-7262
▁мино	-7263
▁мола	-7264
▁омас	-7265
▁тишт	-7266
▁удин	-7267
▁уэла	-7268
▁өнүн	-7269
▁аратк	-7270
▁йлана	-7271
▁килов	-7272
▁олитК	-7273
▁рийне	-7274
▁ылары	-7275
ua	-7276
ИА	-7277
ЭК	-7278
ter	-7279
ГБТ	-7280
лаз	-7281
▁na	-7282
▁of	-7283
▁яг	-7284
▁115	-7285
▁ngt	-7286
▁ЖЧК	-7287
▁Жөн	-7288
▁Пас	-7289
▁Ула	-7290
▁Фил	-7291
▁зуп	-7292
▁ишу	-7293
▁ние	-7294
▁тко	-7295
▁Өрт	-7296
▁ЛГБТ	-7297
▁анбе	-7298
▁аппа	-7299
▁кчан	-7300
▁ралы	-7301
▁ттук	-7302
▁шага	-7303
▁Insta	-7304
▁ыгыны	-7305
ni	-7306
wi	-7307
ree	-7308
▁7%	-7309
▁La	-7310
▁Пс	-7311
▁ых	-7312
ashi	-7313
▁7,5	-7314
▁Бах	-7315
▁Боо	-7316
▁Кад	-7317
▁епт	-7318
▁ккө	-7319
▁лыс	-7320
▁нус	-7321
▁ппо	-7322
▁рку	-7323
▁тие	-7324
▁чач	-7325
▁Stre	-7326
▁Кнын	-7327
▁асыя	-7328
▁едел	-7329
▁здөө	-7330
▁орло	-7331
▁усту	-7332
▁эмки	-7333
▁ийкем	-7334
▁келер	-7335
▁ранын	-7336
▁росси	-7337
▁сфара	-7338
▁уюмун	-7339
TA	-7340
ei	-7341
ТТ	-7342
ори	-7343
▁ёв	-7344
roup	-7345
алии	-7346
▁Sin	-7347
▁ЖОЖ	-7348
▁ару	-7349
▁диз	-7350
▁дүр	-7351
▁зел	-7352
▁кса	-7353
▁нбе	-7354
▁нси	-7355
▁окм	-7356
▁рец	-7357
▁сло	-7358
▁тая	-7359
▁үлд	-7360
▁Кипр	-7361
▁СИЗО	-7362
▁ерия	-7363
▁инай	-7364
▁мала	-7365
▁ойку	-7366
▁олат	-7367
▁стер	-7368
▁тилд	-7369
▁усуб	-7370
▁этин	-7371
▁өзөм	-7372
▁агыла	-7373
▁амиля	-7374
▁еалии	-7375
▁жайла	-7376
▁жаңыл	-7377
▁тууда	-7378
яр	-7379
ири	-7380
кти	-7381
ора	-7382
роз	-7383
цак	-7384
үнд	-7385
▁1/	-7386
▁8,	-7387
▁Ca	-7388
▁Ян	-7389
▁мч	-7390
▁ху	-7391
▁эв	-7392
▁125	-7393
▁137	-7394
▁220	-7395
▁МВт	-7396
▁Пир	-7397
▁Шым	-7398
▁жыш	-7399
▁ияд	-7400
▁йде	-7401
▁йне	-7402
▁күз	-7403
▁миз	-7404
▁ове	-7405
▁тыг	-7406
▁уум	-7407
▁Free	-7408
▁Глаз	-7409
▁айон	-7410
▁денд	-7411
▁екин	-7412
▁енне	-7413
▁идиш	-7414
▁ксен	-7415
▁неги	-7416
▁ница	-7417
▁обол	-7418
▁ылан	-7419
▁Washi	-7420
▁абылг	-7421
▁иштер	-7422
▁марат	-7423
▁ратып	-7424
▁уңкур	-7425
▁ыпчак	-7426
ga	-7427
ОН	-7428
кс	-7429
ью	-7430
▁жө	-7431
▁118	-7432
▁XIX	-7433
▁gen	-7434
▁Аял	-7435
▁Боб	-7436
▁Ири	-7437
▁Ред	-7438
▁наг	-7439
▁олс	-7440
▁саг	-7441
▁ыйк	-7442
▁өйү	-7443
▁Gold	-7444
▁ажаб	-7445
▁акуп	-7446
▁атпа	-7447
▁ахре	-7448
▁вита	-7449
▁жаат	-7450
▁иман	-7451
▁кбар	-7452
▁кесе	-7453
▁лүшү	-7454
▁ооло	-7455
▁раси	-7456
▁ртык	-7457
▁удап	-7458
▁фтан	-7459
▁шамы	-7460
▁алаба	-7461
▁алкар	-7462
▁амаза	-7463
▁анага	-7464
▁андит	-7465
▁калга	-7466
▁манын	-7467
▁полис	-7468
▁псула	-7469
▁расын	-7470
▁рилге	-7471
▁чарба	-7472
▁ынтык	-7473
rm	-7474
дат	-7475
иса	-7476
ово	-7477
▁Di	-7478
▁Mo	-7479
▁лж	-7480
▁ңе	-7481
пост	-7482
▁Sta	-7483
▁Ана	-7484
▁Соң	-7485
▁Эне	-7486
▁бли	-7487
▁елб	-7488
▁емб	-7489
▁жик	-7490
▁ите	-7491
▁лаф	-7492
▁оми	-7493
▁оюш	-7494
▁ргү	-7495
▁тах	-7496
▁Wall	-7497
▁амши	-7498
▁атма	-7499
▁аяны	-7500
▁ирке	-7501
▁ирээ	-7502
▁лапт	-7503
▁маты	-7504
▁орни	-7505
▁орош	-7506
▁өшкө	-7507
▁Group	-7508
▁анкер	-7509
▁аудит	-7510
▁макка	-7511
▁мушту	-7512
▁оллар	-7513
cy	-7514
ur	-7515
рос	-7516
▁AX	-7517
▁uz	-7518
▁тч	-7519
▁яб	-7520
▁1-2	-7521
▁ЭТТ	-7522
▁Эрк	-7523
▁вро	-7524
▁дже	-7525
▁лба	-7526
▁лий	-7527
▁орм	-7528
▁фен	-7529
▁чүр	-7530
▁Топч	-7531
▁Шымк	-7532
▁абит	-7533
▁абыш	-7534
▁аран	-7535
▁ббас	-7536
▁иана	-7537
▁ирзо	-7538
▁керт	-7539
▁кран	-7540
▁лыжа	-7541
▁нжер	-7542
▁синд	-7543
▁туар	-7544
▁убси	-7545
▁утат	-7546
▁ьево	-7547
▁андыг	-7548
▁асалг	-7549
▁атмос	-7550
▁визит	-7551
▁ерман	-7552
▁йыпта	-7553
▁кпост	-7554
▁манды	-7555
▁машин	-7556
▁накай	-7557
▁үзүнд	-7558
▁үлдөр	-7559
ID	-7560
юм	-7561
▁(1	-7562
▁So	-7563
▁Ги	-7564
▁Гр	-7565
▁Ло	-7566
▁ъе	-7567
orld	-7568
▁COV	-7569
▁екч	-7570
▁еул	-7571
▁оце	-7572
▁паг	-7573
▁сая	-7574
▁ызг	-7575
▁ыйр	-7576
▁ядр	-7577
▁Парт	-7578
▁адаг	-7579
▁азая	-7580
▁арса	-7581
▁бейп	-7582
▁емел	-7583
▁енед	-7584
▁көзд	-7585
▁ывах	-7586
▁арига	-7587
▁атцак	-7588
▁дизел	-7589
▁кенде	-7590
▁луата	-7591
▁шахма	-7592
47	-7593
СУ	-7594
ӨБ	-7595
зги	-7596
риг	-7597
сто	-7598
▁2%	-7599
▁Bo	-7600
▁ID	-7601
▁ns	-7602
▁СП	-7603
▁750	-7604
▁Sha	-7605
▁USA	-7606
▁быр	-7607
▁гел	-7608
▁емп	-7609
▁ксф	-7610
▁рян	-7611
▁уло	-7612
▁ылы	-7613
▁ырк	-7614
▁ыян	-7615
▁tter	-7616
▁Байд	-7617
▁аама	-7618
▁апыр	-7619
▁атас	-7620
▁етон	-7621
▁желе	-7622
▁жыра	-7623
▁ийин	-7624
▁имиш	-7625
▁ирин	-7626
▁крам	-7627
▁күнө	-7628
▁пами	-7629
▁учич	-7630
▁хсан	-7631
▁чкан	-7632
▁шыбы	-7633
▁ээнб	-7634
▁алады	-7635
▁страц	-7636
▁тозок	-7637
БК	-7638
ДР	-7639
Ош	-7640
жах	-7641
улу	-7642
▁Ch	-7643
▁rd	-7644
▁Ху	-7645
▁лч	-7646
▁пь	-7647
▁Hou	-7648
▁net	-7649
▁sta	-7650
▁Бүт	-7651
▁Шей	-7652
▁зыр	-7653
▁ила	-7654
▁мпо	-7655
▁ным	-7656
▁тео	-7657
▁түт	-7658
▁ьев	-7659
▁news	-7660
▁ШИИБ	-7661
▁амды	-7662
▁атан	-7663
▁ахти	-7664
▁ейте	-7665
▁елен	-7666
▁енси	-7667
▁инет	-7668
▁мери	-7669
▁мите	-7670
▁такт	-7671
▁өпчү	-7672
▁ативд	-7673
▁койго	-7674
▁ктору	-7675
▁мания	-7676
▁мезги	-7677
▁рянск	-7678
▁торун	-7679
▁ыйынд	-7680
ЭР	-7681
эң	-7682
лин	-7683
▁(7	-7684
▁ti	-7685
▁ЭК	-7686
▁MAT	-7687
▁Twi	-7688
▁ard	-7689
▁Чын	-7690
▁йма	-7691
▁лдө	-7692
▁чех	-7693
▁эже	-7694
▁cial	-7695
▁айду	-7696
▁акып	-7697
▁алпы	-7698
▁елбе	-7699
▁епки	-7700
▁ижан	-7701
▁имге	-7702
▁квор	-7703
▁нүнө	-7704
▁рига	-7705
▁терр	-7706
▁улун	-7707
▁House	-7708
▁араза	-7709
▁еннед	-7710
▁ерниг	-7711
▁ирээт	-7712
▁лганы	-7713
▁ттагы	-7714
▁чабуу	-7715
NA	-7716
me	-7717
▁4%	-7718
▁Me	-7719
▁le	-7720
▁Фе	-7721
▁Ят	-7722
▁1,4	-7723
▁Лев	-7724
▁апт	-7725
▁зур	-7726
▁кси	-7727
▁кци	-7728
▁мст	-7729
▁ниг	-7730
▁нта	-7731
▁риф	-7732
▁руд	-7733
▁ссо	-7734
▁шМУ	-7735
▁үрг	-7736
▁Fina	-7737
▁OVID	-7738
▁Мара	-7739
▁даро	-7740
▁ерно	-7741
▁лица	-7742
▁онна	-7743
▁пага	-7744
▁ржан	-7745
▁World	-7746
▁ийрим	-7747
▁иналы	-7748
▁миним	-7749
▁нышты	-7750
▁тозот	-7751
▁уралд	-7752
▁чтеке	-7753
▁ялары	-7754
ki	-7755
na	-7756
АГ	-7757
РТ	-7758
аке	-7759
лов	-7760
▁1%	-7761
▁9,	-7762
▁IS	-7763
▁RK	-7764
▁яс	-7765
▁1/8	-7766
▁650	-7767
▁dom	-7768
▁Кри	-7769
▁Тез	-7770
▁гуз	-7771
▁ерк	-7772
▁ими	-7773
▁ирг	-7774
▁йды	-7775
▁ксп	-7776
▁хун	-7777
▁шаң	-7778
▁ызд	-7779
▁эни	-7780
▁Опум	-7781
▁Отуз	-7782
▁РИИБ	-7783
▁СПИД	-7784
▁азиз	-7785
▁ахим	-7786
▁йдын	-7787
▁отив	-7788
▁раба	-7789
▁уржу	-7790
▁ыркы	-7791
▁ясын	-7792
▁аптуу	-7793
▁лбайт	-7794
▁чөлөр	-7795
ээл	-7796
▁Sh	-7797
▁2,3	-7798
▁25%	-7799
▁ану	-7800
▁аур	-7801
▁дда	-7802
▁лде	-7803
▁рли	-7804
▁таа	-7805
▁чоӊ	-7806
▁шок	-7807
▁АССР	-7808
▁Гроз	-7809
▁аалд	-7810
▁авай	-7811
▁алих	-7812
▁ахма	-7813
▁ейит	-7814
▁ерги	-7815
▁игин	-7816
▁икит	-7817
▁йжан	-7818
▁кары	-7819
▁неме	-7820
▁ольк	-7821
▁рсал	-7822
▁шары	-7823
▁шире	-7824
▁айгак	-7825
▁амила	-7826
▁аргам	-7827
▁ермин	-7828
▁жатта	-7829
▁териш	-7830
▁тынчт	-7831
ВФ	-7832
ТО	-7833
ЦР	-7834
эт	-7835
act	-7836
ian	-7837
еса	-7838
цег	-7839
яби	-7840
▁IV	-7841
▁ФИ	-7842
▁1,3	-7843
▁102	-7844
▁105	-7845
▁190	-7846
▁Cha	-7847
▁Ках	-7848
▁ПЦР	-7849
▁Пад	-7850
▁Там	-7851
▁афа	-7852
▁бид	-7853
▁зай	-7854
▁оле	-7855
▁үчү	-7856
▁Шари	-7857
▁айыз	-7858
▁арья	-7859
▁басы	-7860
▁далы	-7861
▁ерил	-7862
▁ечер	-7863
▁кыны	-7864
▁ндыр	-7865
▁ниги	-7866
▁одол	-7867
▁пейи	-7868
▁сери	-7869
▁тикт	-7870
▁аркан	-7871
▁арход	-7872
▁болго	-7873
▁енева	-7874
▁ерцег	-7875
▁итлер	-7876
▁касын	-7877
▁оопту	-7878
▁поэма	-7879
▁рдеги	-7880
▁тышка	-7881
▁утман	-7882
IF	-7883
nd	-7884
ля	-7885
▁$	-7886
лей	-7887
рон	-7888
▁"1	-7889
▁Ro	-7890
▁de	-7891
▁1,2	-7892
▁1,7	-7893
▁5,5	-7894
▁ЖАК	-7895
▁Тог	-7896
▁Шот	-7897
▁ЭВФ	-7898
▁алх	-7899
▁гип	-7900
▁куш	-7901
▁мде	-7902
▁пло	-7903
▁цин	-7904
▁чаң	-7905
▁ылг	-7906
▁өрд	-7907
▁КЭДР	-7908
▁Моди	-7909
▁Сток	-7910
▁УТРК	-7911
▁амда	-7912
▁ариб	-7913
▁бага	-7914
▁дору	-7915
▁елуж	-7916
▁епке	-7917
▁здуг	-7918
▁изел	-7919
▁омик	-7920
▁тоод	-7921
▁ттор	-7922
▁укул	-7923
▁чыла	-7924
▁якта	-7925
▁үнөө	-7926
▁USAID	-7927
▁ncial	-7928
▁аборт	-7929
▁вести	-7930
▁дейре	-7931
▁исича	-7932
▁ормал	-7933
▁ргени	-7934
▁сталь	-7935
▁урага	-7936
▁ургаб	-7937
▁ургат	-7938
▁ухара	-7939
▁шишик	-7940
▁ымкат	-7941
ЕК	-7942
цк	-7943
ён	-7944
нат	-7945
ови	-7946
▁Ar	-7947
▁Ду	-7948
▁Шо	-7949
▁114	-7950
▁360	-7951
▁COP	-7952
▁XXI	-7953
▁Гал	-7954
▁Жүк	-7955
▁Рад	-7956
▁гас	-7957
▁йгө	-7958
▁лиф	-7959
▁лич	-7960
▁ной	-7961
▁рац	-7962
▁реб	-7963
▁тум	-7964
▁шчу	-7965
▁Asia	-7966
▁XVII	-7967
▁ФИФА	-7968
▁анта	-7969
▁арас	-7970
▁бляз	-7971
▁елес	-7972
▁ессе	-7973
▁олид	-7974
▁рави	-7975
▁сабо	-7976
▁тиби	-7977
▁трац	-7978
▁ялар	-7979
▁өңүл	-7980
▁ациял	-7981
▁басар	-7982
▁етоди	-7983
▁зурпа	-7984
▁ирзие	-7985
▁канды	-7986
▁майер	-7987
▁ндекс	-7988
▁рттер	-7989
▁өрдүн	-7990
:2	-7991
АП	-7992
ьз	-7993
ули	-7994
ург	-7995
▁(5	-7996
▁sc	-7997
▁ИВ	-7998
▁эӊ	-7999
▁ҮР	-8000
heck	-8001
▁240	-8002
▁omi	-8003
▁алу	-8004
▁лаз	-8005
▁лти	-8006
▁мми	-8007
▁нтр	-8008
▁окр	-8009
▁шур	-8010
▁Отан	-8011
▁Шейх	-8012
▁афар	-8013
▁ашид	-8014
▁венг	-8015
▁змир	-8016
▁ийиш	-8017
▁ирза	-8018
▁итар	-8019
▁котт	-8020
▁крет	-8021
▁орку	-8022
▁пкин	-8023
▁рдак	-8024
▁ртип	-8025
▁ызды	-8026
▁ышык	-8027
▁өктө	-8028
▁абына	-8029
▁агари	-8030
▁арльз	-8031
▁артын	-8032
▁ектер	-8033
▁лесни	-8034
▁ликти	-8035
▁позит	-8036
▁радан	-8037
▁риман	-8038
▁терео	-8039
▁урдур	-8040
PA	-8041
ww	-8042
КК	-8043
анж	-8044
уло	-8045
▁3%	-8046
▁6-	-8047
▁Sa	-8048
▁nt	-8049
▁re	-8050
▁Нэ	-8051
▁ФЕ	-8052
▁155	-8053
▁850	-8054
▁Bel	-8055
▁Com	-8056
▁gov	-8057
▁www	-8058
▁Ато	-8059
▁ДСУ	-8060
▁ази	-8061
▁арв	-8062
▁епа	-8063
▁ито	-8064
▁йду	-8065
▁оке	-8066
▁онс	-8067
▁оод	-8068
▁пав	-8069
▁рар	-8070
▁шым	-8071
▁ыза	-8072
▁ңда	-8073
▁Eura	-8074
▁Прид	-8075
▁Учур	-8076
▁арко	-8077
▁барг	-8078
▁берт	-8079
▁втан	-8080
▁дина	-8081
▁йтап	-8082
▁клас	-8083
▁ктоо	-8084
▁лдун	-8085
▁педо	-8086
▁ропо	-8087
▁руху	-8088
▁упян	-8089
▁усун	-8090
▁фина	-8091
▁штин	-8092
▁өмөн	-8093
▁Стокг	-8094
▁аксыт	-8095
▁архат	-8096
▁енера	-8097
▁калуу	-8098
▁кетин	-8099
▁ндиги	-8100
▁нефте	-8101
▁нодар	-8102
:3	-8103
ya	-8104
как	-8105
хаб	-8106
чык	-8107
▁",	-8108
▁6%	-8109
▁Al	-8110
▁rg	-8111
▁sa	-8112
▁Йо	-8113
▁Ты	-8114
▁оӊ	-8115
▁103	-8116
▁106	-8117
▁145	-8118
▁210	-8119
▁280	-8120
▁cat	-8121
▁org	-8122
▁Ден	-8123
▁Мал	-8124
▁Тик	-8125
▁Цой	-8126
▁Шев	-8127
▁Шри	-8128
▁айж	-8129
▁аун	-8130
▁аӊы	-8131
▁буу	-8132
▁еши	-8133
▁ивд	-8134
▁йге	-8135
▁лсе	-8136
▁ное	-8137
▁пап	-8138
▁рно	-8139
▁шве	-8140
▁өсө	-8141
▁РИКС	-8142
▁Сайп	-8143
▁айти	-8144
▁арик	-8145
▁арин	-8146
▁атаң	-8147
▁вока	-8148
▁зник	-8149
▁кайр	-8150
▁моди	-8151
▁нсул	-8152
▁рдан	-8153
▁уугу	-8154
▁шыпы	-8155
▁ыбын	-8156
▁өөгү	-8157
▁Гарри	-8158
▁Элиза	-8159
▁адрид	-8160
▁иллер	-8161
▁иркел	-8162
▁мумин	-8163
▁нвест	-8164
▁оруна	-8165
▁полит	-8166
▁ролев	-8167
▁ырмал	-8168
▁ңгээл	-8169
AL	-8170
IC	-8171
ёв	-8172
▁j	-8173
АСА	-8174
КСО	-8175
вой	-8176
пер	-8177
сте	-8178
▁..	-8179
▁IR	-8180
▁el	-8181
▁ow	-8182
▁ro	-8183
▁te	-8184
▁Пл	-8185
▁ХХ	-8186
алат	-8187
▁1,8	-8188
▁24"	-8189
▁270	-8190
▁For	-8191
▁ren	-8192
▁sia	-8193
▁Таң	-8194
▁Уши	-8195
▁Шер	-8196
▁аро	-8197
▁аус	-8198
▁олт	-8199
▁тпе	-8200
▁ыга	-8201
▁ытт	-8202
▁ажай	-8203
▁айло	-8204
▁айты	-8205
▁аста	-8206
▁илеп	-8207
▁йтыл	-8208
▁кета	-8209
▁кырд	-8210
▁лоте	-8211
▁оорд	-8212
▁оран	-8213
▁рукс	-8214
▁стен	-8215
▁суну	-8216
▁тажи	-8217
▁укур	-8218
▁ыйым	-8219
▁еляби	-8220
▁зыркы	-8221
▁матка	-8222
▁осток	-8223
▁пьеса	-8224
▁ссанж	-8225
▁ташты	-8226
▁уктар	-8227
▁ҮРКСО	-8228
FC	-8229
MA	-8230
lu	-8231
АЗ	-8232
ИК	-8233
жон	-8234
кай	-8235
▁AI	-8236
▁SW	-8237
▁нх	-8238
▁эп	-8239
▁ңу	-8240
▁...	-8241
▁107	-8242
▁112	-8243
▁135	-8244
▁App	-8245
▁Glo	-8246
▁Gua	-8247
▁bal	-8248
▁lli	-8249
▁Ник	-8250
▁ПЕК	-8251
▁Пен	-8252
▁Таж	-8253
▁алс	-8254
▁жид	-8255
▁ишп	-8256
▁лсу	-8257
▁нац	-8258
▁олч	-8259
▁пен	-8260
▁риж	-8261
▁чап	-8262
▁чып	-8263
▁юнд	-8264
▁өмү	-8265
▁Star	-8266
▁ress	-8267
▁Акыр	-8268
▁НАСА	-8269
▁ФЕТО	-8270
▁Шевч	-8271
▁аани	-8272
▁аким	-8273
▁апчы	-8274
▁арпы	-8275
▁бама	-8276
▁виде	-8277
▁йлык	-8278
▁йтыш	-8279
▁кири	-8280
▁ктай	-8281
▁ктун	-8282
▁льян	-8283
▁ндөр	-8284
▁норм	-8285
▁поль	-8286
▁сара	-8287
▁укан	-8288
▁уумп	-8289
▁шард	-8290
▁авлян	-8291
▁андаг	-8292
▁ерчил	-8293
▁лейте	-8294
▁нтген	-8295
▁рылып	-8296
▁синки	-8297
▁тасын	-8298
▁шекер	-8299
▁ырама	-8300
ER	-8301
da	-8302
ek	-8303
ез	-8304
ini	-8305
ыра	-8306
▁RE	-8307
▁Sc	-8308
▁КП	-8309
▁ои	-8310
▁ёр	-8311
▁ure	-8312
▁ИВЛ	-8313
▁Лаг	-8314
▁Эко	-8315
▁бах	-8316
▁гөч	-8317
▁ейс	-8318
▁жаа	-8319
▁йке	-8320
▁мпе	-8321
▁опт	-8322
▁рүм	-8323
▁сми	-8324
▁сык	-8325
▁фит	-8326
▁хор	-8327
▁erra	-8328
▁Жара	-8329
▁Прот	-8330
▁арки	-8331
▁ахса	-8332
▁беки	-8333
▁бого	-8334
▁енеш	-8335
▁здан	-8336
▁зооп	-8337
▁икро	-8338
▁ктин	-8339
▁мчек	-8340
▁огор	-8341
▁плюс	-8342
▁през	-8343
▁риан	-8344
▁рөөн	-8345
▁унук	-8346
▁өрдө	-8347
▁аркак	-8348
▁арыла	-8349
▁афаэл	-8350
▁врора	-8351
▁грамо	-8352
▁ергек	-8353
▁ибирь	-8354
▁имент	-8355
▁оорун	-8356
▁ораса	-8357
▁орден	-8358
▁робот	-8359
▁угушу	-8360
▁ысына	-8361
MS	-8362
fe	-8363
ьс	-8364
IFT	-8365
▁2"	-8366
▁Ec	-8367
▁RT	-8368
▁Ra	-8369
▁ba	-8370
▁бд	-8371
▁лс	-8372
▁фо	-8373
▁юр	-8374
▁1,6	-8375
▁109	-8376
▁134	-8377
▁Pro	-8378
▁ral	-8379
▁ver	-8380
▁ИДП	-8381
▁Люд	-8382
▁Оюн	-8383
▁Сом	-8384
▁Чав	-8385
▁гей	-8386
▁күб	-8387
▁мго	-8388
▁рох	-8389
▁рти	-8390
▁суф	-8391
▁тад	-8392
▁уле	-8393
▁шик	-8394
▁энб	-8395
▁ңку	-8396
▁Fact	-8397
▁Голо	-8398
▁Кали	-8399
▁Крим	-8400
▁Пост	-8401
▁алуж	-8402
▁ауна	-8403
▁генд	-8404
▁дона	-8405
▁ейми	-8406
▁емси	-8407
▁етху	-8408
▁икир	-8409
▁лони	-8410
▁нтро	-8411
▁олун	-8412
▁ольф	-8413
▁онуш	-8414
▁оябр	-8415
▁рызд	-8416
▁тиши	-8417
▁үрүш	-8418
▁SWIFT	-8419
▁lines	-8420
▁Голов	-8421
▁аллон	-8422
▁арина	-8423
▁арнак	-8424
▁афтар	-8425
▁ахрам	-8426
▁едрос	-8427
▁екист	-8428
▁ирриг	-8429
▁личко	-8430
▁лушун	-8431
▁макты	-8432
▁матты	-8433
▁ойрон	-8434
▁рлиги	-8435
▁рүүгө	-8436
▁станц	-8437
▁ургап	-8438
▁урхан	-8439
▁уучул	-8440
▁юндар	-8441
АР	-8442
БР	-8443
гм	-8444
ех	-8445
як	-8446
pen	-8447
име	-8448
нит	-8449
отч	-8450
▁(4	-8451
▁TA	-8452
▁ak	-8453
▁en	-8454
▁ht	-8455
▁Бл	-8456
▁МА	-8457
▁Ни	-8458
▁Об	-8459
▁Эт	-8460
▁154	-8461
▁550	-8462
▁6-7	-8463
▁Пай	-8464
▁ФАП	-8465
▁йдо	-8466
▁йты	-8467
▁спо	-8468
▁Euro	-8469
▁Open	-8470
▁harm	-8471
▁Кана	-8472
▁Рево	-8473
▁дата	-8474
▁елит	-8475
▁енск	-8476
▁ерап	-8477
▁ерме	-8478
▁ечик	-8479
▁еште	-8480
▁иним	-8481
▁лбас	-8482
▁лчил	-8483
▁нура	-8484
▁ньюс	-8485
▁раил	-8486
▁рмак	-8487
▁тоор	-8488
▁удук	-8489
▁Sinop	-8490
▁аганы	-8491
▁аниил	-8492
▁аннер	-8493
▁батта	-8494
▁герим	-8495
▁ексен	-8496
▁елито	-8497
▁етеор	-8498
▁игини	-8499
▁истер	-8500
▁лдары	-8501
▁назик	-8502
▁пкини	-8503
▁уттуу	-8504
▁шагыл	-8505
21	-8506
27	-8507
ky	-8508
um	-8509
РУ	-8510
еф	-8511
зе	-8512
фу	-8513
нер	-8514
уза	-8515
▁8%	-8516
▁Do	-8517
▁si	-8518
▁Жы	-8519
▁гл	-8520
▁зг	-8521
илан	-8522
▁108	-8523
▁330	-8524
▁Fra	-8525
▁Кай	-8526
▁Шах	-8527
▁ачу	-8528
▁вин	-8529
▁гир	-8530
▁лок	-8531
▁нст	-8532
▁ово	-8533
▁окс	-8534
▁опе	-8535
▁рзы	-8536
▁рст	-8537
▁рүп	-8538
▁ынг	-8539
▁Боло	-8540
▁Любо	-8541
▁Люкс	-8542
▁авид	-8543
▁акап	-8544
▁арис	-8545
▁була	-8546
▁дека	-8547
▁едор	-8548
▁екир	-8549
▁енго	-8550
▁ерна	-8551
▁имми	-8552
▁итте	-8553
▁итти	-8554
▁кабы	-8555
▁кава	-8556
▁ктук	-8557
▁олсо	-8558
▁ооро	-8559
▁раке	-8560
▁реку	-8561
▁улпу	-8562
▁упик	-8563
▁урят	-8564
▁ыпар	-8565
▁эпид	-8566
▁Apple	-8567
▁Belli	-8568
▁аганд	-8569
▁айдар	-8570
▁алага	-8571
▁аркти	-8572
▁гинек	-8573
▁гност	-8574
▁едина	-8575
▁ештин	-8576
▁йткан	-8577
▁кески	-8578
▁митен	-8579
▁нганд	-8580
▁олиси	-8581
▁ортту	-8582
▁ректи	-8583
▁тайды	-8584
ca	-8585
КП	-8586
Эң	-8587
хг	-8588
үч	-8589
▁&	-8590
▁q	-8591
enz	-8592
ily	-8593
кас	-8594
рет	-8595
уше	-8596
▁CP	-8597
▁Ha	-8598
▁Ja	-8599
▁Pa	-8600
▁Ta	-8601
▁ri	-8602
▁Ум	-8603
▁Юн	-8604
▁164	-8605
▁2,2	-8606
▁26%	-8607
▁420	-8608
▁85%	-8609
▁95%	-8610
▁Ган	-8611
▁ЖРТ	-8612
▁Жай	-8613
▁Мун	-8614
▁Рио	-8615
▁Сел	-8616
▁адд	-8617
▁бук	-8618
▁вор	-8619
▁йга	-8620
▁нук	-8621
▁оош	-8622
▁оси	-8623
▁рой	-8624
▁ссе	-8625
▁чер	-8626
▁Econ	-8627
▁link	-8628
▁Пами	-8629
▁План	-8630
▁Рича	-8631
▁Ушак	-8632
▁Шифа	-8633
▁абиш	-8634
▁ажеп	-8635
▁алем	-8636
▁аргы	-8637
▁ачин	-8638
▁аяша	-8639
▁байл	-8640
▁гарм	-8641
▁гори	-8642
▁лкан	-8643
▁мила	-8644
▁мүрү	-8645
▁налд	-8646
▁нгер	-8647
▁нефт	-8648
▁обин	-8649
▁райс	-8650
▁райы	-8651
▁текш	-8652
▁уард	-8653
▁ужах	-8654
▁үргө	-8655
▁Чавуш	-8656
▁аркап	-8657
▁аткер	-8658
▁ахмат	-8659
▁елеси	-8660
▁икита	-8661
▁патру	-8662
▁тышты	-8663
▁улкан	-8664
▁шууга	-8665
20	-8666
FA	-8667
МС	-8668
ль	-8669
эм	-8670
est	-8671
ака	-8672
амо	-8673
аре	-8674
ати	-8675
цки	-8676
▁AP	-8677
▁NA	-8678
▁Su	-8679
▁дд	-8680
▁уж	-8681
▁өӊ	-8682
▁124	-8683
▁138	-8684
▁146	-8685
▁163	-8686
▁176	-8687
▁275	-8688
▁ATA	-8689
▁Mon	-8690
▁UFC	-8691
▁nge	-8692
▁rgy	-8693
▁Бен	-8694
▁Лиз	-8695
▁ОВД	-8696
▁Рак	-8697
▁акч	-8698
▁вол	-8699
▁лке	-8700
▁миӊ	-8701
▁нно	-8702
▁ноя	-8703
▁рбе	-8704
▁рна	-8705
▁рущ	-8706
▁тою	-8707
▁тто	-8708
▁тыб	-8709
▁унк	-8710
▁stan	-8711
▁Виза	-8712
▁Жакы	-8713
▁Тыва	-8714
▁азил	-8715
▁аиса	-8716
▁амыр	-8717
▁анки	-8718
▁дуло	-8719
▁ейда	-8720
▁есна	-8721
▁куул	-8722
▁нали	-8723
▁нтти	-8724
▁нөкт	-8725
▁олта	-8726
▁рита	-8727
▁слан	-8728
▁удум	-8729
▁храм	-8730
▁Daily	-8731
▁rdian	-8732
▁вайде	-8733
▁гаруу	-8734
▁емцов	-8735
▁ермез	-8736
▁когол	-8737
▁ланын	-8738
▁манке	-8739
▁овхоз	-8740
▁ржант	-8741
▁усуна	-8742
▁уулда	-8743
▁шыкак	-8744
▁ыйнак	-8745
▁ыраха	-8746
di	-8747
kA	-8748
tp	-8749
ul	-8750
vi	-8751
ТА	-8752
лу	-8753
ine	-8754
енж	-8755
ирк	-8756
▁Se	-8757
▁Wi	-8758
▁di	-8759
▁to	-8760
▁Ва	-8761
▁рц	-8762
▁ңо	-8763
нест	-8764
▁104	-8765
▁117	-8766
▁165	-8767
▁BkA	-8768
▁CMS	-8769
▁Net	-8770
▁Wel	-8771
▁mat	-8772
▁Але	-8773
▁Лос	-8774
▁РБК	-8775
▁РСК	-8776
▁ТМУ	-8777
▁Тек	-8778
▁ааб	-8779
▁бор	-8780
▁гуп	-8781
▁зма	-8782
▁ийч	-8783
▁көң	-8784
▁ней	-8785
▁нюс	-8786
▁оюм	-8787
▁пра	-8788
▁ргы	-8789
▁реш	-8790
▁рле	-8791
▁суд	-8792
▁хаб	-8793
▁чон	-8794
▁Poli	-8795
▁http	-8796
▁ment	-8797
▁nspa	-8798
▁sche	-8799
▁Моск	-8800
▁Ради	-8801
▁ЭТТК	-8802
▁абур	-8803
▁адал	-8804
▁акеш	-8805
▁амар	-8806
▁арке	-8807
▁аске	-8808
▁ахта	-8809
▁аңгы	-8810
▁гриф	-8811
▁ерро	-8812
▁жатк	-8813
▁инка	-8814
▁итко	-8815
▁йдай	-8816
▁лама	-8817
▁лифт	-8818
▁льев	-8819
▁олов	-8820
▁риши	-8821
▁ркад	-8822
▁рула	-8823
▁рылд	-8824
▁трав	-8825
▁тышы	-8826
▁чийи	-8827
▁ыдай	-8828
▁ытта	-8829
▁ыңыр	-8830
▁үшүп	-8831
▁rency	-8832
▁Милан	-8833
▁Новая	-8834
▁айкем	-8835
▁алкон	-8836
▁лазиз	-8837
▁лешмо	-8838
▁лобби	-8839
▁новду	-8840
▁олбос	-8841
▁ракон	-8842
▁рнест	-8843
▁ташка	-8844
▁тетти	-8845
▁улпар	-8846
▁уркан	-8847
▁ыйрак	-8848
26	-8849
DA	-8850
SS	-8851
ox	-8852
pi	-8853
ru	-8854
ЕА	-8855
рь	-8856
бол	-8857
вен	-8858
вер	-8859
жоу	-8860
кул	-8861
лиф	-8862
опи	-8863
сел	-8864
ска	-8865
чуг	-8866
▁(3	-8867
▁Mi	-8868
▁SO	-8869
▁ny	-8870
▁ot	-8871
▁ta	-8872
▁Зи	-8873
▁НК	-8874
▁Оң	-8875
▁Яр	-8876
▁гэ	-8877
▁111	-8878
▁113	-8879
▁13%	-8880
▁136	-8881
▁18%	-8882
▁3,2	-8883
▁65%	-8884
▁CPJ	-8885
▁Kaz	-8886
▁rna	-8887
▁Цин	-8888
▁амс	-8889
▁ахи	-8890
▁гаш	-8891
▁енц	-8892
▁жим	-8893
▁зир	-8894
▁йго	-8895
▁пка	-8896
▁уми	-8897
▁урл	-8898
▁урш	-8899
▁хоз	-8900
▁янт	-8901
▁үшө	-8902
▁Meta	-8903
▁Mini	-8904
▁Mode	-8905
▁Stor	-8906
▁Золо	-8907
▁ОИИБ	-8908
▁Плюс	-8909
▁акен	-8910
▁аучи	-8911
▁бухг	-8912
▁ведо	-8913
▁елли	-8914
▁етан	-8915
▁инве	-8916
▁йтым	-8917
▁конф	-8918
▁ктык	-8919
▁лкөн	-8920
▁олто	-8921
▁оңур	-8922
▁пант	-8923
▁пута	-8924
▁пысы	-8925
▁рагы	-8926
▁ремя	-8927
▁рини	-8928
▁сток	-8929
▁тарм	-8930
▁усул	-8931
▁ылый	-8932
▁ышаа	-8933
▁ыязы	-8934
▁ябрь	-8935
▁ялда	-8936
▁Space	-8937
▁алкан	-8938
▁альма	-8939
▁анаке	-8940
▁андем	-8941
▁аниме	-8942
▁антер	-8943
▁бийке	-8944
▁гарни	-8945
▁гасын	-8946
▁дасын	-8947
▁езник	-8948
▁изель	-8949
▁наама	-8950
▁нефть	-8951
▁онент	-8952
▁остер	-8953
▁правд	-8954
▁рабыз	-8955
▁радар	-8956
▁рафик	-8957
▁ремон	-8958
▁тканы	-8959
▁усейн	-8960
▁шарап	-8961
gi	-8962
ly	-8963
УЛ	-8964
яж	-8965
ild	-8966
пол	-8967
шан	-8968
▁UN	-8969
▁ЕР	-8970
▁эз	-8971
▁1,1	-8972
▁101	-8973
▁11%	-8974
▁12%	-8975
▁122	-8976
▁2,6	-8977
▁8,5	-8978
▁Боз	-8979
▁Кен	-8980
▁Сок	-8981
▁амд	-8982
▁арж	-8983
▁аят	-8984
▁беп	-8985
▁дас	-8986
▁дов	-8987
▁еду	-8988
▁ешк	-8989
▁лгы	-8990
▁мөл	-8991
▁ота	-8992
▁рби	-8993
▁рүн	-8994
▁скв	-8995
▁сты	-8996
▁тың	-8997
▁уал	-8998
▁өөл	-8999
▁Зила	-9000
▁Кадр	-9001
▁НКВД	-9002
▁агер	-9003
▁айип	-9004
▁айте	-9005
▁акар	-9006
▁акет	-9007
▁алпу	-9008
▁анжы	-9009
▁вага	-9010
▁евер	-9011
▁елик	-9012
▁епил	-9013
▁жаал	-9014
▁илаш	-9015
▁инне	-9016
▁ирме	-9017
▁квад	-9018
▁киев	-9019
▁курт	-9020
▁нкул	-9021
▁огуу	-9022
▁опол	-9023
▁пард	-9024
▁птоо	-9025
▁раве	-9026
▁резе	-9027
▁рене	-9028
▁ришт	-9029
▁стын	-9030
▁тест	-9031
▁ттеж	-9032
▁угал	-9033
▁укар	-9034
▁унак	-9035
▁урут	-9036
▁усан	-9037
▁цирк	-9038
▁штеп	-9039
▁этек	-9040
▁абали	-9041
▁айкал	-9042
▁алпыс	-9043
▁андер	-9044
▁илдөө	-9045
▁нуэль	-9046
▁олтав	-9047
▁расса	-9048
▁тозог	-9049
▁урукт	-9050
▁чийме	-9051
▁шында	-9052
▁ырган	-9053
ТВ	-9054
аа	-9055
дел	-9056
пыл	-9057
щик	-9058
▁(8	-9059
▁(9	-9060
▁Ex	-9061
▁Ru	-9062
▁Фу	-9063
▁йж	-9064
▁нн	-9065
▁215	-9066
▁225	-9067
▁9,5	-9068
▁Con	-9069
▁EPA	-9070
▁Sun	-9071
▁Uni	-9072
▁men	-9073
▁Аты	-9074
▁Жүз	-9075
▁Лай	-9076
▁Сма	-9077
▁Тээ	-9078
▁Түн	-9079
▁азу	-9080
▁атч	-9081
▁ачк	-9082
▁етх	-9083
▁зүл	-9084
▁итт	-9085
▁иче	-9086
▁йги	-9087
▁йкы	-9088
▁күү	-9089
▁маң	-9090
▁пис	-9091
▁рпа	-9092
▁сир	-9093
▁сог	-9094
▁шүп	-9095
▁Chat	-9096
▁Deut	-9097
▁Цзян	-9098
▁Шарт	-9099
▁акаш	-9100
▁анте	-9101
▁анян	-9102
▁асап	-9103
▁ахир	-9104
▁ахри	-9105
▁бакы	-9106
▁егич	-9107
▁едия	-9108
▁елиз	-9109
▁ерат	-9110
▁ерсе	-9111
▁етра	-9112
▁иске	-9113
▁нушу	-9114
▁ороп	-9115
▁педи	-9116
▁ронд	-9117
▁роце	-9118
▁рсен	-9119
▁тозо	-9120
▁үккө	-9121
▁Пневм	-9122
▁абсол	-9123
▁актай	-9124
▁алама	-9125
▁алмай	-9126
▁аниел	-9127
▁анынд	-9128
▁арыял	-9129
▁аулет	-9130
▁балын	-9131
▁бейпи	-9132
▁жалат	-9133
▁ирмем	-9134
▁мадан	-9135
▁отоци	-9136
▁тивен	-9137
▁тимул	-9138
▁шевик	-9139
▁юмдар	-9140
BS	-9141
mo	-9142
Ар	-9143
фо	-9144
aza	-9145
ива	-9146
ист	-9147
кал	-9148
лав	-9149
ола	-9150
▁IP	-9151
▁Ky	-9152
▁SA	-9153
▁КИ	-9154
▁Шу	-9155
▁ңж	-9156
▁10,	-9157
▁132	-9158
▁144	-9159
▁177	-9160
▁193	-9161
▁20,	-9162
▁33%	-9163
▁35%	-9164
▁IAL	-9165
▁Nat	-9166
▁Pri	-9167
▁Sky	-9168
▁der	-9169
▁tic	-9170
▁ЕЭК	-9171
▁Зил	-9172
▁Зоо	-9173
▁МОН	-9174
▁УИА	-9175
▁Хат	-9176
▁арз	-9177
▁бен	-9178
▁еко	-9179
▁енч	-9180
▁жип	-9181
▁инц	-9182
▁йлө	-9183
▁лек	-9184
▁нья	-9185
▁оог	-9186
▁осе	-9187
▁очи	-9188
▁рбо	-9189
▁ткө	-9190
▁тса	-9191
▁умч	-9192
▁упу	-9193
▁цев	-9194
▁шыб	-9195
▁юнх	-9196
▁ңүл	-9197
▁Insi	-9198
▁Shad	-9199
▁Сард	-9200
▁Уотч	-9201
▁азат	-9202
▁азын	-9203
▁акер	-9204
▁апал	-9205
▁асми	-9206
▁атва	-9207
▁аяке	-9208
▁брид	-9209
▁гене	-9210
▁елпи	-9211
▁есте	-9212
▁еӊеш	-9213
▁зинг	-9214
▁ктеп	-9215
▁куль	-9216
▁куро	-9217
▁лдан	-9218
▁онте	-9219
▁парз	-9220
▁перс	-9221
▁плей	-9222
▁пляж	-9223
▁ппак	-9224
▁раун	-9225
▁рекс	-9226
▁рена	-9227
▁ренс	-9228
▁рукт	-9229
▁тини	-9230
▁упул	-9231
▁урму	-9232
▁чакт	-9233
▁чеке	-9234
▁check	-9235
▁ардин	-9236
▁артин	-9237
▁ахаба	-9238
▁едуза	-9239
▁ерали	-9240
▁йдана	-9241
▁ксено	-9242
▁льван	-9243
▁ляска	-9244
▁малга	-9245
▁ожент	-9246
▁павло	-9247
▁равма	-9248
▁раунд	-9249
▁халат	-9250
▁ыганы	-9251
FF	-9252
ba	-9253
hi	-9254
ry	-9255
фе	-9256
urk	-9257
бат	-9258
вод	-9259
ини	-9260
ица	-9261
кут	-9262
сти	-9263
▁2.	-9264
▁Of	-9265
▁ay	-9266
▁АФ	-9267
▁Ди	-9268
▁лн	-9269
отса	-9270
▁116	-9271
▁127	-9272
▁162	-9273
▁195	-9274
▁75%	-9275
▁Ana	-9276
▁ght	-9277
▁Аяз	-9278
▁Лиц	-9279
▁МАИ	-9280
▁Отч	-9281
▁Риш	-9282
▁Сер	-9283
▁Түз	-9284
▁Хам	-9285
▁ань	-9286
▁афи	-9287
▁гео	-9288
▁гыш	-9289
▁еңи	-9290
▁зек	-9291
▁зиц	-9292
▁йса	-9293
▁убо	-9294
▁уде	-9295
▁янь	-9296
▁tube	-9297
▁Грин	-9298
▁Исла	-9299
▁ажар	-9300
▁айлы	-9301
▁аксу	-9302
▁аксү	-9303
▁анил	-9304
▁анна	-9305
▁арго	-9306
▁арзы	-9307
▁арян	-9308
▁атру	-9309
▁ахту	-9310
▁ашир	-9311
▁аярд	-9312
▁биле	-9313
▁гинд	-9314
▁глиф	-9315
▁дамд	-9316
▁даре	-9317
▁дпол	-9318
▁евин	-9319
▁ейро	-9320
▁екер	-9321
▁ельс	-9322
▁енчи	-9323
▁ерез	-9324
▁ехни	-9325
▁замб	-9326
▁зелт	-9327
▁зион	-9328
▁зулу	-9329
▁камо	-9330
▁кукт	-9331
▁кулд	-9332
▁лмаш	-9333
▁лург	-9334
▁мото	-9335
▁нтке	-9336
▁онде	-9337
▁орци	-9338
▁рдаг	-9339
▁респ	-9340
▁эвэн	-9341
▁Storm	-9342
▁аадан	-9343
▁айбер	-9344
▁алифа	-9345
▁архад	-9346
▁архан	-9347
▁астры	-9348
▁енеси	-9349
▁ентин	-9350
▁ерапе	-9351
▁еркас	-9352
▁ирена	-9353
▁лакта	-9354
▁лбейт	-9355
▁лдөрү	-9356
▁лифат	-9357
▁мство	-9358
▁нецов	-9359
▁остон	-9360
▁ратуу	-9361
▁убнов	-9362
▁ульмо	-9363
▁уршаб	-9364
▁ухрат	-9365
▁хосте	-9366
▁чабан	-9367
▁ырмак	-9368
▁үчтөр	-9369
29	-9370
31	-9371
do	-9372
va	-9373
СФ	-9374
ня	-9375
olo	-9376
вей	-9377
раб	-9378
рио	-9379
фар	-9380
элл	-9381
▁TU	-9382
▁ly	-9383
▁no	-9384
▁Ээ	-9385
▁11,	-9386
▁148	-9387
▁185	-9388
▁320	-9389
▁34%	-9390
▁560	-9391
▁99%	-9392
▁akh	-9393
▁Аза	-9394
▁Лах	-9395
▁Обс	-9396
▁Тол	-9397
▁Фиц	-9398
▁вад	-9399
▁еит	-9400
▁еро	-9401
▁жык	-9402
▁илу	-9403
▁иос	-9404
▁иса	-9405
▁йбы	-9406
▁йша	-9407
▁ктр	-9408
▁лео	-9409
▁леу	-9410
▁лом	-9411
▁низ	-9412
▁обу	-9413
▁оде	-9414
▁сть	-9415
▁уар	-9416
▁ырм	-9417
▁үнх	-9418
▁үшк	-9419
▁Scie	-9420
▁Влад	-9421
▁Кари	-9422
▁Уила	-9423
▁адап	-9424
▁айме	-9425
▁айфу	-9426
▁алпа	-9427
▁амис	-9428
▁атык	-9429
▁афур	-9430
▁ашта	-9431
▁даны	-9432
▁двок	-9433
▁ебин	-9434
▁енге	-9435
▁ешип	-9436
▁ешке	-9437
▁лден	-9438
▁льяс	-9439
▁мжон	-9440
▁нхва	-9441
▁оинг	-9442
▁рдөн	-9443
▁роне	-9444
▁рюдо	-9445
▁сеит	-9446
▁смет	-9447
▁тбол	-9448
▁өлөр	-9449
▁Голла	-9450
▁абари	-9451
▁айран	-9452
▁арант	-9453
▁аргун	-9454
▁астар	-9455
▁атташ	-9456
▁берен	-9457
▁ераси	-9458
▁истон	-9459
▁кетте	-9460
▁лапта	-9461
▁рантт	-9462
▁рэпер	-9463
▁сумка	-9464
▁өздөр	-9465
EX	-9466
SF	-9467
bi	-9468
Эч	-9469
хи	-9470
эк	-9471
Өз	-9472
УАР	-9473
дак	-9474
зио	-9475
зод	-9476
кет	-9477
лес	-9478
ная	-9479
ное	-9480
уса	-9481
хам	-9482
▁1"	-9483
▁Is	-9484
▁Ph	-9485
▁QR	-9486
▁so	-9487
▁Аг	-9488
▁лп	-9489
atri	-9490
▁1,9	-9491
▁123	-9492
▁142	-9493
▁143	-9494
▁16%	-9495
▁167	-9496
▁198	-9497
▁242	-9498
▁261	-9499
▁Dip	-9500
▁Mer	-9501
▁OFF	-9502
▁hen	-9503
▁ГУЛ	-9504
▁Гам	-9505
▁Дол	-9506
▁Жен	-9507
▁Зак	-9508
▁ЛДП	-9509
▁Либ	-9510
▁Мао	-9511
▁Мар	-9512
▁Сын	-9513
▁ФБР	-9514
▁Хон	-9515
▁аяз	-9516
▁биш	-9517
▁бро	-9518
▁бүр	-9519
▁ейп	-9520
▁йнө	-9521
▁луя	-9522
▁нчы	-9523
▁нша	-9524
▁омб	-9525
▁пек	-9526
▁пиц	-9527
▁рдө	-9528
▁рко	-9529
▁удс	-9530
▁ыпт	-9531
▁ычы	-9532
▁CASA	-9533
▁ЕРӨБ	-9534
▁Сага	-9535
▁Трав	-9536
▁ШУАР	-9537
▁ЭТТН	-9538
▁акас	-9539
▁акро	-9540
▁араа	-9541
▁арип	-9542
▁арсе	-9543
▁афиз	-9544
▁боюн	-9545
▁брон	-9546
▁верс	-9547
▁визу	-9548
▁влов	-9549
▁грин	-9550
▁екти	-9551
▁емиз	-9552
▁етиш	-9553
▁жооп	-9554
▁кино	-9555
▁лове	-9556
▁лтон	-9557
▁нгар	-9558
▁ноза	-9559
▁нора	-9560
▁ороз	-9561
▁осто	-9562
▁отте	-9563
▁расн	-9564
▁рата	-9565
▁салд	-9566
▁тина	-9567
▁толе	-9568
▁узаг	-9569
▁улик	-9570
▁чтөр	-9571
▁ыйыр	-9572
▁ылма	-9573
▁үшкө	-9574
▁China	-9575
▁Patri	-9576
▁Постс	-9577
▁адага	-9578
▁айзак	-9579
▁анчес	-9580
▁бланк	-9581
▁ереза	-9582
▁естер	-9583
▁зелки	-9584
▁кинем	-9585
▁кутер	-9586
▁лакап	-9587
▁лимит	-9588
▁ллект	-9589
▁милиц	-9590
▁олдат	-9591
▁орадо	-9592
▁ордай	-9593
▁прагм	-9594
▁ралык	-9595
▁ригор	-9596
▁рууда	-9597
▁слави	-9598
▁упара	-9599
▁хунта	-9600
▁ымынд	-9601
-9	-9602
ue	-9603
АК	-9604
ТС	-9605
цы	-9606
Үч	-9607
бод	-9608
жаш	-9609
иво	-9610
меч	-9611
ова	-9612
рал	-9613
рин	-9614
сар	-9615
тон	-9616
хат	-9617
цит	-9618
чер	-9619
шак	-9620
▁1)	-9621
▁1.	-9622
▁3.	-9623
▁4.	-9624
▁9%	-9625
▁GP	-9626
▁Lt	-9627
▁Na	-9628
▁Or	-9629
▁Pe	-9630
▁TB	-9631
▁gi	-9632
▁ov	-9633
▁Гу	-9634
▁Ча	-9635
▁Чу	-9636
▁йе	-9637
▁шл	-9638
азар	-9639
дикц	-9640
▁128	-9641
▁131	-9642
▁147	-9643
▁151	-9644
▁156	-9645
▁159	-9646
▁161	-9647
▁19,	-9648
▁207	-9649
▁Cor	-9650
▁Inc	-9651
▁NBC	-9652
▁gel	-9653
▁one	-9654
▁win	-9655
▁Гай	-9656
▁ДЭР	-9657
▁Дэн	-9658
▁Кыш	-9659
▁Мин	-9660
▁Рой	-9661
▁Тын	-9662
▁Чех	-9663
▁арн	-9664
▁даб	-9665
▁елл	-9666
▁еля	-9667
▁епе	-9668
▁кыт	-9669
▁рму	-9670
▁рош	-9671
▁сой	-9672
▁сян	-9673
▁тиб	-9674
▁TASS	-9675
▁rgyz	-9676
▁Зард	-9677
▁Крис	-9678
▁Риши	-9679
▁абиу	-9680
▁айан	-9681
▁алча	-9682
▁анка	-9683
▁арыт	-9684
▁асра	-9685
▁асте	-9686
▁асыр	-9687
▁варт	-9688
▁вила	-9689
▁гард	-9690
▁диум	-9691
▁дээр	-9692
▁ерри	-9693
▁етри	-9694
▁ечил	-9695
▁ешиг	-9696
▁заар	-9697
▁илал	-9698
▁ишви	-9699
▁каби	-9700
▁лева	-9701
▁ленд	-9702
▁лецк	-9703
▁ллек	-9704
▁мили	-9705
▁окоп	-9706
▁пинг	-9707
▁пион	-9708
▁ппар	-9709
▁рели	-9710
▁рмен	-9711
▁рмон	-9712
▁симе	-9713
▁таны	-9714
▁тино	-9715
▁ткус	-9716
▁току	-9717
▁толу	-9718
▁удур	-9719
▁улла	-9720
▁унар	-9721
▁чаль	-9722
▁чжоу	-9723
▁чыкт	-9724
▁шейх	-9725
▁ыгуу	-9726
▁	-9727
а	-9728
н	-9729
к	-9730
р	-9731
т	-9732
ы	-9733
е	-9734
и	-9735
л	-9736
д	-9737
у	-9738
о	-9739
г	-9740
м	-9741
б	-9742
с	-9743
ү	-9744
ө	-9745
ш	-9746
п	-9747
й	-9748
ж	-9749
з	-9750
ч	-9751
.	-9752
,	-9753
э	-9754
я	-9755
-	-9756
в	-9757
"	-9758
А	-9759
К	-9760
Б	-9761
ң	-9762
1	-9763
ю	-9764
М	-9765
0	-9766
2	-9767
ц	-9768
С	-9769
Т	-9770
О	-9771
Ж	-9772
У	-9773
ф	-9774
Э	-9775
3	-9776
5	-9777
х	-9778
И	-9779
ь	-9780
9	-9781
4	-9782
Д	-9783
П	-9784
Ш	-9785
7	-9786
6	-9787
8	-9788
Н	-9789
:	-9790
Р	-9791
Ө	-9792
)	-9793
(	-9794
Ч	-9795
Г	-9796
?	-9797
e	-9798
В	-9799
a	-9800
Е	-9801
o	-9802
Ф	-9803
Л	-9804
Х	-9805
i	-9806
t	-9807
n	-9808
r	-9809
%	-9810
I	-9811
З	-9812
s	-9813
Ы	-9814
C	-9815
l	-9816
c	-9817
m	-9818
Ү	-9819
A	-9820
u	-9821
N	-9822
g	-9823
T	-9824
ё	-9825
V	-9826
D	-9827
!	-9828
;	-9829
O	-9830
h	-9831
p	-9832
k	-9833
S	-9834
d	-9835
Ю	-9836
R	-9837
B	-9838
P	-9839
Ц	-9840
M	-9841
y	-9842
F	-9843
K	-9844
+	-9845
ъ	-9846
/	-9847
G	-9848
b	-9849
E	-9850
v	-9851
W	-9852
Я	-9853
w	-9854
L	-9855
H	-9856
Й	-9857
z	-9858
Z	-9859
X	-9860
ӊ	-9861
°	-9862
f	-9863
U	-9864
Y	-9865
щ	-9866
ѳ	-9867
x	-9868
J	-9869
[	-9870
]	-9871
̆	-9872
­	-9873
Q	-9874
*	-9875
'	-9876
j	-9877
Ё	-9878
#	-9879
q	-9880
$	-9881
і	-9882
&	-9883
қ	-9884
ı	-9885
ɵ	-9886
\	-9887
Ѳ	-9888
І	-9889
_	-9890
Қ	-9891
@	-9892
ü	-9893
Ş	-9894
ş	-9895
Ɵ	-9896
Щ	-9897
−	-9898
ә	-9899
`	-9900
ғ	-9901
·	-9902
ا	-9903
=	-9904
ç	-9905
é	-9906
İ	-9907
⠀	-9908
️	-9909
¬	-9910
ə	-9911
ұ	-9912
•	-9913
▪	-9914
ö	-9915
ğ	-9916
Ң	-9917
©	-9918
́	-9919
ل	-9920
Ü	-9921
á	-9922
ʙ	-9923
Ь	-9924
ҳ	-9925
ق	-9926
⁄	-9927
→	-9928
昆	-9929
Ç	-9930
Ö	-9931
â	-9932
í	-9933
ï	-9934
љ	-9935
Ұ	-9936
ҷ	-9937
ӏ	-9938
Ә	-9939
ح	-9940
و	-9941
ُ	-9942
―	-9943
⁣	-9944
●	-9945
堅	-9946
鄄	-9947
韓	-9948
鬲	-9949
{	-9950
}	-9951
£	-9952
§	-9953
Ñ	-9954
ß	-9955
ã	-9956
ä	-9957
è	-9958
ñ	-9959
ā	-9960
ą	-9961
Ŋ	-9962
Š	-9963
ū	-9964
ƚ	-9965
Ƣ	-9966
ƣ	-9967
ʼ	-9968
̧	-9969
Ђ	-9970
Ъ	-9971
ђ	-9972
ї	-9973
ћ	-9974
ў	-9975
һ	-9976
ӯ	-9977
خ	-9978
د	-9979
ر	-9980
ز	-9981
ص	-9982
ط	-9983
ظ	-9984
ع	-9985
غ	-9986
ك	-9987
م	-9988
ن	-9989
ه	-9990
ي	-9991
ِ	-9992
‒	-9993
⁠	-9994
回	-9995
族	-9996
