<unk>	0
<s>	0
</s>	0
▁к	-0
ан	-1
ар	-2
▁б	-3
ын	-4
ал	-5
▁ж	-6
ен	-7
да	-8
ин	-9
ат	-10
▁т	-11
ер	-12
▁м	-13
ай	-14
уу	-15
кт	-16
ол	-17
▁с	-18
ыл	-19
ган	-20
▁э	-21
үн	-22
ун	-23
де	-24
ир	-25
ор	-26
ды	-27
▁а	-28
гы	-29
он	-30
ур	-31
ил	-32
ст	-33
ия	-34
ет	-35
▁ч	-36
га	-37
▁А	-38
ек	-39
ул	-40
шт	-41
▁ө	-42
ыр	-43
▁ал	-44
ам	-45
▁Б	-46
ел	-47
▁К	-48
ык	-49
ак	-50
ас	-51
өр	-52
ып	-53
ди	-54
оо	-55
өн	-56
▁ай	-57
▁бол	-58
үү	-59
▁де	-60
дар	-61
шк	-62
тт	-63
▁и	-64
дын	-65
▁о	-66
ген	-67
ап	-68
▁"	-69
ик	-70
ыз	-71
ында	-72
ук	-73
▁ба	-74
▁мен	-75
▁п	-76
ана	-77
үр	-78
аб	-79
▁менен	-80
из	-81
ым	-82
▁М	-83
▁ар	-84
ий	-85
▁кар	-86
дан	-87
▁жана	-88
ок	-89
атт	-90
▁бир	-91
▁жа	-92
▁эл	-93
ов	-94
кан	-95
дө	-96
▁ко	-97
▁да	-98
▁у	-99
▁бер	-100
стан	-101
ары	-102
ес	-103
ый	-104
ог	-105
▁жат	-106
им	-107
ей	-108
үч	-109
▁кө	-110
▁О	-111
ус	-112
▁Ж	-113
ча	-114
ция	-115
▁эк	-116
үл	-117
▁Т	-118
▁кел	-119
▁С	-120
▁2	-121
өл	-122
уп	-123
▁1	-124
▁д	-125
ына	-126
гыз	-127
аны	-128
ра	-129
лар	-130
ыргыз	-131
ев	-132
▁ш	-133
▁деп	-134
▁ма	-135
ист	-136
ма	-137
тк	-138
ду	-139
ге	-140
ре	-141
дин	-142
ынын	-143
ип	-144
ден	-145
гө	-146
▁тур	-147
дагы	-148
үй	-149
▁бар	-150
ги	-151
ка	-152
ыш	-153
ект	-154
алган	-155
▁бо	-156
юн	-157
дык	-158
ба	-159
гон	-160
▁кыз	-161
ли	-162
▁тар	-163
▁бил	-164
етт	-165
▁айт	-166
үз	-167
▁жар	-168
▁өз	-169
▁ат	-170
▁со	-171
▁эм	-172
нын	-173
аз	-174
ск	-175
▁н	-176
үп	-177
дам	-178
▁У	-179
өт	-180
▁эле	-181
▁үч	-182
аган	-183
ем	-184
ку	-185
еп	-186
ит	-187
анын	-188
▁чы	-189
сы	-190
иш	-191
айл	-192
ыргызстан	-193
▁Ал	-194
бек	-195
уш	-196
гөн	-197
▁кат	-198
▁кыл	-199
алык	-200
▁ишт	-201
алуу	-202
▁-	-203
дир	-204
▁өл	-205
зи	-206
ери	-207
ум	-208
▁боюн	-209
инин	-210
алым	-211
▁ор	-212
▁та	-213
▁боюнча	-214
▁бул	-215
уз	-216
дай	-217
мат	-218
жыл	-219
▁билдир	-220
▁Э	-221
▁Кыргызстан	-222
инде	-223
▁болгон	-224
үм	-225
от	-226
▁туу	-227
▁үчүн	-228
▁20	-229
▁кай	-230
▁маалым	-231
го	-232
ең	-233
▁көр	-234
до	-235
еч	-236
▁кал	-237
▁жаткан	-238
▁кор	-239
▁жыл	-240
▁р	-241
▁И	-242
▁са	-243
шы	-244
▁кол	-245
лек	-246
ктар	-247
▁то	-248
▁иш	-249
инист	-250
▁жол	-251
рези	-252
резиден	-253
дун	-254
▁өлк	-255
амлек	-256
ут	-257
гил	-258
дук	-259
ом	-260
▁каб	-261
үк	-262
ерл	-263
ег	-264
▁Ор	-265
ине	-266
инистр	-267
▁адам	-268
▁жет	-269
▁ком	-270
үш	-271
аар	-272
▁Бул	-273
▁тал	-274
усия	-275
▁күн	-276
ады	-277
▁башк	-278
▁деген	-279
▁жүр	-280
▁экен	-281
▁ак	-282
бай	-283
▁Бир	-284
ылган	-285
▁Д	-286
ынан	-287
чу	-288
еш	-289
чи	-290
▁П	-291
▁кызмат	-292
аш	-293
▁кур	-294
алар	-295
▁жок	-296
лык	-297
▁кер	-298
▁болуп	-299
▁кет	-300
▁кий	-301
▁кан	-302
зам	-303
унун	-304
ерди	-305
▁мамлек	-306
ейин	-307
▁өк	-308
ооп	-309
ууга	-310
▁баш	-311
▁Орусия	-312
чы	-313
▁ми	-314
өө	-315
▁чейин	-316
үндө	-317
шкан	-318
үг	-319
кы	-320
▁туур	-321
та	-322
▁Н	-323
асы	-324
▁тууралуу	-325
▁президен	-326
лан	-327
▁Ош	-328
ав	-329
уг	-330
▁уч	-331
▁бел	-332
▁аз	-333
уна	-334
▁Ан	-335
▁жер	-336
чыл	-337
арт	-338
▁жаз	-339
▁турган	-340
ыйзам	-341
унда	-342
▁ф	-343
▁эмес	-344
дон	-345
дары	-346
▁кийин	-347
ян	-348
еб	-349
бл	-350
",	-351
ишк	-352
▁кир	-353
агы	-354
ыкт	-355
кен	-356
дү	-357
▁жак	-358
▁жатат	-359
ез	-360
икт	-361
чул	-362
ага	-363
▁бас	-364
бо	-365
дер	-366
▁керек	-367
▁ул	-368
▁чыг	-369
▁башт	-370
уун	-371
▁(	-372
▁мыйзам	-373
▁шаар	-374
үнө	-375
▁өт	-376
ки	-377
▁Ө	-378
▁сал	-379
▁министр	-380
яс	-381
ардын	-382
▁алып	-383
▁бий	-384
..	-385
▁3	-386
дөр	-387
укт	-388
▁өтк	-389
▁мамлекетт	-390
сыз	-391
▁учур	-392
ерлер	-393
ке	-394
ээ	-395
бр	-396
▁Р	-397
▁маалымат	-398
▁мил	-399
өз	-400
▁дагы	-401
уул	-402
өм	-403
▁көп	-404
▁үй	-405
▁ан	-406
▁эки	-407
▁алган	-408
ман	-409
▁байл	-410
▁кам	-411
ент	-412
үнүн	-413
▁белгил	-414
ябр	-415
▁бал	-416
▁ук	-417
ору	-418
ро	-419
раин	-420
аж	-421
▁тарт	-422
▁шайл	-423
ушт	-424
жылы	-425
▁аны	-426
дардын	-427
▁жай	-428
▁көз	-429
ышт	-430
аттар	-431
арл	-432
▁байланы	-433
▁мур	-434
▁миң	-435
өлөр	-436
▁күч	-437
▁Г	-438
▁түз	-439
ял	-440
▁ош	-441
▁Ч	-442
тер	-443
▁биз	-444
▁ую	-445
иши	-446
ындагы	-447
уст	-448
▁з	-449
▁ка	-450
▁в	-451
ылуу	-452
▁анын	-453
ис	-454
▁мас	-455
▁дол	-456
▁чеч	-457
▁келген	-458
▁ич	-459
өй	-460
егиз	-461
▁Бирок	-462
чил	-463
инчи	-464
▁чыгар	-465
▁Аз	-466
дик	-467
▁айма	-468
▁Бишк	-469
ран	-470
▁сөз	-471
▁саяс	-472
▁билдирди	-473
утт	-474
▁президент	-475
алы	-476
▁экенин	-477
ыт	-478
▁жаш	-479
▁Ук	-480
ыйын	-481
иев	-482
ос	-483
баев	-484
▁оку	-485
▁жаң	-486
▁өн	-487
үүгө	-488
төр	-489
▁өлкө	-490
күн	-491
ты	-492
▁жөн	-493
оом	-494
▁Ш	-495
▁обл	-496
▁жаран	-497
ууда	-498
мө	-499
▁каршы	-500
▁ок	-501
ив	-502
▁чык	-503
00	-504
▁масел	-505
гү	-506
▁аб	-507
огор	-508
ктан	-509
▁Украин	-510
дөн	-511
иянын	-512
доо	-513
▁башка	-514
▁көрс	-515
▁бөл	-516
▁уш	-517
орб	-518
▁түш	-519
уга	-520
▁аш	-521
суз	-522
аттык	-523
акыр	-524
инен	-525
▁ин	-526
со	-527
▁төр	-528
икалык	-529
үмкүн	-530
ада	-531
▁ил	-532
▁оор	-533
▁Алар	-534
азак	-535
▁мүмкүн	-536
өш	-537
аров	-538
сынын	-539
са	-540
▁байланышт	-541
ышк	-542
еген	-543
▁чыгы	-544
▁эс	-545
▁бери	-546
▁болду	-547
▁кандай	-548
ейт	-549
▁шайлоо	-550
алды	-551
си	-552
алдык	-553
гында	-554
▁иштер	-555
▁карм	-556
йт	-557
еси	-558
айон	-559
▁ре	-560
арын	-561
дуу	-562
лик	-563
▁аск	-564
гын	-565
▁калган	-566
огорку	-567
▁же	-568
ация	-569
▁мамлекеттик	-570
үт	-571
акт	-572
быз	-573
▁сур	-574
▁негиз	-575
дор	-576
дыр	-577
▁мак	-578
▁район	-579
▁кош	-580
дүн	-581
▁талап	-582
▁жары	-583
▁4	-584
▁5	-585
орбор	-586
алып	-587
гана	-588
▁коом	-589
өнүн	-590
0-	-591
иция	-592
об	-593
▁202	-594
ыркы	-595
▁кыргыз	-596
чү	-597
▁болот	-598
окт	-599
лөр	-600
▁гана	-601
иб	-602
оң	-603
иялык	-604
▁В	-605
▁Е	-606
еди	-607
тур	-608
айын	-609
арды	-610
▁эми	-611
сп	-612
аза	-613
үйн	-614
▁чек	-615
▁министрли	-616
▁түр	-617
▁алын	-618
▁ач	-619
▁кооп	-620
▁чакыр	-621
▁бийли	-622
▁тап	-623
▁тер	-624
айт	-625
иг	-626
▁201	-627
▁эр	-628
ентт	-629
уну	-630
▁чыккан	-631
▁киши	-632
үнү	-633
чүл	-634
▁пр	-635
гиз	-636
▁жас	-637
▁арак	-638
▁кабыл	-639
▁жыйын	-640
▁Жап	-641
ындай	-642
▁айып	-643
▁байланыштуу	-644
▁сакт	-645
▁кою	-646
▁катт	-647
▁жатканын	-648
дүү	-649
▁ав	-650
▁Биз	-651
▁айтып	-652
▁токт	-653
▁катары	-654
ара	-655
▁жооп	-656
▁жаңы	-657
епт	-658
ания	-659
▁уюм	-660
ашт	-661
▁Кыргызстандын	-662
ци	-663
елер	-664
▁топ	-665
▁аралык	-666
ондо	-667
КШ	-668
асын	-669
▁сүй	-670
▁депут	-671
мөт	-672
ешт	-673
▁жал	-674
▁Казак	-675
ябрда	-676
чө	-677
▁тарап	-678
сү	-679
▁кылм	-680
▁алдын	-681
▁өткөр	-682
рам	-683
дарды	-684
тты	-685
▁АКШ	-686
▁Ак	-687
▁кең	-688
рым	-689
ыс	-690
ууну	-691
▁өкүл	-692
▁Өз	-693
▁берген	-694
гоо	-695
уб	-696
▁ишк	-697
▁кызм	-698
▁кыр	-699
▁парт	-700
ени	-701
асында	-702
▁берил	-703
▁Ф	-704
▁сот	-705
▁19	-706
▁милли	-707
▁сом	-708
ылып	-709
▁кызматк	-710
▁пай	-711
уттук	-712
▁айыл	-713
үкт	-714
▁кый	-715
кин	-716
▁кеткен	-717
▁облус	-718
чысы	-719
беков	-720
▁жум	-721
▁комп	-722
▁Орусиянын	-723
▁атк	-724
асм	-725
▁Жапаров	-726
аты	-727
▁болсо	-728
ла	-729
▁сан	-730
онав	-731
▁айткан	-732
▁ыл	-733
...	-734
▁көб	-735
үгүн	-736
▁тил	-737
▁Л	-738
1-	-739
▁Казакстан	-740
сия	-741
ест	-742
үүдө	-743
оном	-744
▁чечим	-745
▁Жогорку	-746
▁тол	-747
арлам	-748
онавир	-749
еги	-750
▁сог	-751
▁долбо	-752
▁сүйл	-753
▁Анын	-754
абыз	-755
▁Кыргызстанда	-756
▁коопсуз	-757
гына	-758
яр	-759
▁эск	-760
▁ошол	-761
нал	-762
▁кез	-763
▁ур	-764
▁кайр	-765
▁кой	-766
▁6	-767
▁жетек	-768
то	-769
▁көрсөт	-770
үлгөн	-771
▁кайра	-772
Аз	-773
▁караган	-774
▁билдирген	-775
8-	-776
иде	-777
▁Ай	-778
дүр	-779
▁жардам	-780
▁7	-781
▁чет	-782
▁Ул	-783
▁деди	-784
тыр	-785
▁сун	-786
ышат	-787
ышы	-788
▁Х	-789
▁окуя	-790
үрк	-791
▁Бишкект	-792
тан	-793
ытай	-794
▁Ев	-795
▁ой	-796
▁алар	-797
тор	-798
адыр	-799
ылды	-800
гер	-801
▁дүйн	-802
не	-803
урнал	-804
▁ылай	-805
оого	-806
▁коргоо	-807
мар	-808
▁кон	-809
▁жакын	-810
▁мурдагы	-811
▁жашт	-812
▁партия	-813
▁алуу	-814
огон	-815
▁кызматт	-816
▁жүрг	-817
ика	-818
кү	-819
дарга	-820
ой	-821
▁эч	-822
▁уба	-823
тар	-824
▁жолу	-825
се	-826
асмий	-827
▁жаб	-828
ушу	-829
▁өткөн	-830
▁дел	-831
улган	-832
▁киргиз	-833
▁Ар	-834
урналист	-835
2-	-836
▁Кең	-837
▁учурда	-838
▁өлкөлөр	-839
▁ыр	-840
▁сат	-841
гөр	-842
▁колдон	-843
ердин	-844
тын	-845
алда	-846
орт	-847
▁өкмөт	-848
▁албай	-849
▁Аб	-850
▁Бат	-851
кты	-852
▁ылайык	-853
кта	-854
роп	-855
олог	-856
▁азыр	-857
чулар	-858
дей	-859
▁бири	-860
ыгы	-861
өп	-862
екем	-863
▁айтты	-864
▁отур	-865
▁башкар	-866
▁өзгөр	-867
ондой	-868
▁Кытай	-869
▁ап	-870
үүлөр	-871
▁улам	-872
▁алды	-873
▁ара	-874
9-	-875
үшт	-876
дөрү	-877
туу	-878
▁парлам	-879
▁чыгып	-880
но	-881
рем	-882
гун	-883
ата	-884
▁соң	-885
▁талк	-886
▁президентт	-887
▁ичинде	-888
▁ушул	-889
▁коронавир	-890
ети	-891
▁Ба	-892
▁аныкт	-893
▁жүргүз	-894
▁Мен	-895
▁дем	-896
анда	-897
▁арк	-898
▁түшүн	-899
сүн	-900
▁орун	-901
▁келиш	-902
▁аба	-903
ышкан	-904
▁аял	-905
ундагы	-906
▁сотт	-907
мия	-908
▁таб	-909
▁Түрк	-910
▁акт	-911
▁бирок	-912
атты	-913
иги	-914
5-	-915
▁долбоор	-916
▁берүү	-917
▁кес	-918
дөө	-919
▁из	-920
▁келет	-921
▁бай	-922
▁чоң	-923
ону	-924
дек	-925
▁караганда	-926
▁дар	-927
▁г	-928
изм	-929
алиев	-930
▁Мо	-931
сат	-932
▁караж	-933
кер	-934
▁жалп	-935
ышты	-936
▁калды	-937
▁алардын	-938
уус	-939
▁Ат	-940
▁май	-941
үүнү	-942
ири	-943
▁саясий	-944
▁жөнүндө	-945
▁жарыял	-946
▁өзү	-947
өөн	-948
▁мындай	-949
▁З	-950
▁Бишкек	-951
ерин	-952
уучу	-953
иктүү	-954
▁элек	-955
шка	-956
аткан	-957
▁компания	-958
▁миллион	-959
▁чар	-960
▁тышк	-961
ече	-962
тта	-963
▁каза	-964
ындан	-965
мүр	-966
▁журналист	-967
асынын	-968
акка	-969
олор	-970
өк	-971
▁даяр	-972
▁аркылуу	-973
сиз	-974
рел	-975
▁болбо	-976
▁тарма	-977
алан	-978
▁оп	-979
▁айрым	-980
4-	-981
ыкты	-982
ко	-983
угу	-984
скв	-985
▁президенти	-986
▁доллар	-987
▁бийлик	-988
▁Эл	-989
▁ая	-990
цин	-991
сын	-992
ердик	-993
▁ээ	-994
ова	-995
▁турат	-996
▁мл	-997
▁деле	-998
бекстан	-999
▁борбор	-1000
аң	-1001
3-	-1002
▁ад	-1003
▁күр	-1004
▁ли	-1005
өгөн	-1006
асына	-1007
▁саясат	-1008
▁Эм	-1009
▁эконом	-1010
жылдын	-1011
▁Москв	-1012
деги	-1013
▁келип	-1014
ганын	-1015
▁катар	-1016
онун	-1017
▁ага	-1018
үгү	-1019
▁орус	-1020
гиликтүү	-1021
▁кабар	-1022
▁мүч	-1023
ерлери	-1024
▁эң	-1025
▁көтөр	-1026
7-	-1027
▁Буга	-1028
▁нече	-1029
▁расмий	-1030
▁биринчи	-1031
инг	-1032
ех	-1033
бүз	-1034
ишт	-1035
овдун	-1036
дөгү	-1037
▁Ма	-1038
▁Садыр	-1039
мер	-1040
илген	-1041
циялык	-1042
▁катыш	-1043
▁аткар	-1044
өлүк	-1045
▁себ	-1046
лор	-1047
ыйыл	-1048
▁кырда	-1049
▁чект	-1050
▁кылып	-1051
▁берип	-1052
▁ким	-1053
циалдык	-1054
убл	-1055
▁Таж	-1056
ерт	-1057
▁иштеп	-1058
гандар	-1059
Азаттык	-1060
өтк	-1061
▁комит	-1062
6-	-1063
▁айыпт	-1064
шыр	-1065
стит	-1066
вар	-1067
▁ст	-1068
бей	-1069
▁турганын	-1070
гөө	-1071
▁Кор	-1072
▁жакшы	-1073
▁жүргөн	-1074
▁коопсуздук	-1075
▁тий	-1076
▁Кар	-1077
юл	-1078
анды	-1079
▁буз	-1080
МК	-1081
икстан	-1082
▁суу	-1083
▁чог	-1084
▁кылмыш	-1085
гыл	-1086
▁эсепт	-1087
▁күнү	-1088
▁Өзбекстан	-1089
▁жең	-1090
өмөл	-1091
ларды	-1092
▁буга	-1093
тин	-1094
▁он	-1095
енин	-1096
▁маан	-1097
▁атайын	-1098
▁Кеңешт	-1099
алат	-1100
окур	-1101
▁төл	-1102
дикт	-1103
ңг	-1104
▁түн	-1105
▁орт	-1106
▁төрага	-1107
▁кызматы	-1108
тир	-1109
етти	-1110
▁министрлиги	-1111
▁миг	-1112
өтт	-1113
гинин	-1114
▁жалпы	-1115
▁көзөмөл	-1116
▁сүйлөш	-1117
▁эмне	-1118
▁пик	-1119
ала	-1120
ганы	-1121
штур	-1122
май	-1123
үшк	-1124
оп	-1125
унан	-1126
ерг	-1127
еттик	-1128
▁8	-1129
▁өлкөнүн	-1130
дүк	-1131
▁дүйнө	-1132
▁Улуттук	-1133
▁кабарл	-1134
▁жерде	-1135
▁мамлекет	-1136
▁сыр	-1137
окум	-1138
▁дары	-1139
▁аракет	-1140
▁иши	-1141
ны	-1142
▁бардык	-1143
▁Ошол	-1144
▁коронавирус	-1145
▁ты	-1146
пай	-1147
еке	-1148
▁Кыргыз	-1149
огу	-1150
▁комис	-1151
ктуу	-1152
▁Жал	-1153
екш	-1154
есп	-1155
▁иликт	-1156
мөтт	-1157
▁туура	-1158
▁сын	-1159
▁курул	-1160
▁меди	-1161
ымында	-1162
▁Тажикстан	-1163
руп	-1164
▁ишке	-1165
пи	-1166
рат	-1167
гөчө	-1168
густ	-1169
▁берди	-1170
▁Борбор	-1171
▁болчу	-1172
амил	-1173
ерс	-1174
▁Президен	-1175
▁мект	-1176
▁кеңеш	-1177
▁улан	-1178
▁коз	-1179
ах	-1180
лер	-1181
▁башчысы	-1182
▁акча	-1183
▁Со	-1184
▁келишим	-1185
▁карата	-1186
дуктан	-1187
▁бийликт	-1188
▁дай	-1189
▁багы	-1190
▁эксп	-1191
министр	-1192
▁Уш	-1193
▁Алардын	-1194
▁Европ	-1195
▁сактоо	-1196
▁кач	-1197
▁сунушт	-1198
бы	-1199
▁жаг	-1200
▁ачык	-1201
абр	-1202
еспубл	-1203
ланган	-1204
▁тын	-1205
ыя	-1206
бүл	-1207
ылык	-1208
▁беш	-1209
▁жатышат	-1210
▁прокур	-1211
чылык	-1212
▁элект	-1213
▁аймактар	-1214
▁Ы	-1215
▁социалдык	-1216
▁Азыр	-1217
лардын	-1218
атур	-1219
▁арыз	-1220
ыктар	-1221
▁кошум	-1222
▁саны	-1223
▁абал	-1224
олгон	-1225
▁айтымында	-1226
январ	-1227
▁баштаган	-1228
▁оорук	-1229
ылат	-1230
▁жаштагы	-1231
▁уюштур	-1232
аараз	-1233
ундай	-1234
▁салуу	-1235
КМК	-1236
▁басма	-1237
▁кылган	-1238
етинин	-1239
▁жан	-1240
▁доб	-1241
▁киш	-1242
▁баары	-1243
▁парламентт	-1244
▁пикир	-1245
ылм	-1246
ерге	-1247
▁курал	-1248
аларды	-1249
▁жог	-1250
▁уул	-1251
▁чаб	-1252
▁Эк	-1253
▁сап	-1254
▁токтот	-1255
▁эн	-1256
арых	-1257
▁10	-1258
сына	-1259
чиси	-1260
▁актив	-1261
түү	-1262
ози	-1263
ттар	-1264
▁эркин	-1265
ри	-1266
апрел	-1267
▁ди	-1268
▁камсыз	-1269
▁облуст	-1270
▁төрт	-1271
▁кырдаал	-1272
мен	-1273
▁докум	-1274
▁тергөө	-1275
▁наараз	-1276
өкт	-1277
▁өтө	-1278
дим	-1279
▁жергиликтүү	-1280
кө	-1281
▁макул	-1282
▁ти	-1283
▁Азия	-1284
есин	-1285
▁тел	-1286
▁келтир	-1287
ьер	-1288
▁Нур	-1289
▁арасында	-1290
▁9	-1291
▁мурда	-1292
▁жолуг	-1293
▁Баткен	-1294
▁белгилүү	-1295
▁көбөй	-1296
▁бан	-1297
▁шаарында	-1298
▁мамил	-1299
▁кы	-1300
▁өтүп	-1301
биз	-1302
бад	-1303
▁алынган	-1304
▁коюл	-1305
▁Кеңештин	-1306
гин	-1307
еби	-1308
тка	-1309
▁күчтөр	-1310
ама	-1311
▁Ин	-1312
евр	-1313
▁мекем	-1314
▁министри	-1315
алам	-1316
▁кеч	-1317
▁Анда	-1318
▁жүз	-1319
гач	-1320
▁ишен	-1321
Абад	-1322
▁милде	-1323
▁кармалган	-1324
▁дал	-1325
▁маалыматтар	-1326
▁айында	-1327
утин	-1328
рация	-1329
▁адамдар	-1330
▁биздин	-1331
аль	-1332
▁жайга	-1333
▁Мамлек	-1334
▁күрөш	-1335
▁таас	-1336
▁тапшыр	-1337
▁Ошон	-1338
бул	-1339
аттуу	-1340
▁бош	-1341
ед	-1342
▁сист	-1343
▁мөөн	-1344
сан	-1345
▁ортос	-1346
үшү	-1347
▁кыргызстан	-1348
оз	-1349
тик	-1350
▁кайт	-1351
▁сыя	-1352
▁маселе	-1353
▁Украина	-1354
су	-1355
▁Эр	-1356
үлүп	-1357
▁барып	-1358
ремьер	-1359
▁200	-1360
▁аскердик	-1361
юу	-1362
▁Украинанын	-1363
уунун	-1364
▁ата	-1365
▁Кон	-1366
▁жетекчил	-1367
дарын	-1368
▁сүр	-1369
▁өкмөтт	-1370
▁милиция	-1371
▁таж	-1372
ардык	-1373
▁билим	-1374
▁карап	-1375
▁аталган	-1376
▁жүрүп	-1377
▁аген	-1378
▁Путин	-1379
ктын	-1380
▁тарых	-1381
▁акция	-1382
ишкен	-1383
▁сп	-1384
▁сыяктуу	-1385
ортт	-1386
ехн	-1387
сык	-1388
▁тартып	-1389
▁окуу	-1390
▁андан	-1391
чылар	-1392
үшкөн	-1393
ткени	-1394
▁толук	-1395
уд	-1396
ияда	-1397
▁таан	-1398
▁жатканы	-1399
▁тынч	-1400
▁Андан	-1401
▁болушу	-1402
▁ашык	-1403
▁корк	-1404
үнөн	-1405
▁бүт	-1406
▁зар	-1407
▁виде	-1408
▁койгон	-1409
ерен	-1410
штыр	-1411
▁алдында	-1412
август	-1413
▁жылдан	-1414
▁коомдук	-1415
дап	-1416
ынча	-1417
июн	-1418
▁ун	-1419
кат	-1420
▁түшүндүр	-1421
▁иштеген	-1422
▁комиссия	-1423
▁Ага	-1424
▁Оо	-1425
▁кем	-1426
тык	-1427
▁чабуул	-1428
бир	-1429
▁басары	-1430
▁өр	-1431
▁лид	-1432
▁тиеш	-1433
▁башкы	-1434
сун	-1435
үрүү	-1436
-1	-1437
алары	-1438
▁Ү	-1439
▁жарыя	-1440
▁электр	-1441
▁ойл	-1442
▁төрагасы	-1443
▁болгонун	-1444
екшер	-1445
▁соңку	-1446
▁быйыл	-1447
▁так	-1448
▁түнкү	-1449
аев	-1450
▁млн	-1451
▁Кур	-1452
▁шар	-1453
▁Бел	-1454
▁корруп	-1455
▁15	-1456
▁укук	-1457
▁мигран	-1458
деп	-1459
▁эт	-1460
▁Из	-1461
▁райондук	-1462
▁оюн	-1463
▁агентт	-1464
▁пол	-1465
▁жара	-1466
декабр	-1467
▁мыйзамсыз	-1468
ош	-1469
дүз	-1470
ээн	-1471
▁сатып	-1472
▁чыкты	-1473
▁айтылган	-1474
сент	-1475
жан	-1476
▁салын	-1477
20	-1478
улуп	-1479
▁жетк	-1480
▁экинчи	-1481
▁тургун	-1482
▁ра	-1483
▁өлкөдө	-1484
▁Са	-1485
догон	-1486
▁бийлиги	-1487
кын	-1488
уулар	-1489
ылтыр	-1490
▁ички	-1491
▁ушундай	-1492
▁колдоо	-1493
▁тең	-1494
▁өмүр	-1495
▁билдирүү	-1496
раил	-1497
атта	-1498
▁көрсөтк	-1499
▁уз	-1500
демия	-1501
▁аракетт	-1502
▁жыйынты	-1503
ститу	-1504
▁өзгөчө	-1505
▁текшер	-1506
▁дин	-1507
▁Мындан	-1508
екен	-1509
▁про	-1510
мак	-1511
▁добуш	-1512
▁козг	-1513
▁акыркы	-1514
▁илим	-1515
▁коомчул	-1516
▁тоб	-1517
▁C	-1518
ланды	-1519
▁улуттук	-1520
усу	-1521
кул	-1522
▁ашуун	-1523
▁Бай	-1524
октябрда	-1525
ич	-1526
▁Мар	-1527
дөй	-1528
индеги	-1529
▁соо	-1530
▁аж	-1531
▁там	-1532
▁Министр	-1533
чал	-1534
ыктын	-1535
▁мүчө	-1536
▁дейт	-1537
▁министрлигинин	-1538
аст	-1539
үст	-1540
игин	-1541
▁Мур	-1542
гынын	-1543
▁өндүр	-1544
▁азыркы	-1545
▁жеке	-1546
▁укукт	-1547
емир	-1548
▁тышкары	-1549
др	-1550
▁баз	-1551
▁Ошондой	-1552
ограм	-1553
▁берет	-1554
▁башталган	-1555
▁алгач	-1556
▁Иран	-1557
▁өкүлү	-1558
▁маалыматына	-1559
▁бүгүн	-1560
тко	-1561
▁күт	-1562
▁оң	-1563
▁мүмкүнчүл	-1564
▁керект	-1565
ост	-1566
▁техн	-1567
ктылуу	-1568
▁Бишкекте	-1569
▁ишкан	-1570
ңүл	-1571
▁такт	-1572
▁ала	-1573
▁АКШнын	-1574
▁берилген	-1575
бак	-1576
сак	-1577
атка	-1578
▁бур	-1579
▁Европа	-1580
▁Эгер	-1581
ерлердин	-1582
▁жумуш	-1583
▁күндүз	-1584
озиция	-1585
июл	-1586
▁жылга	-1587
▁өзүнүн	-1588
▁ошондой	-1589
▁Ооган	-1590
аттын	-1591
▁таасир	-1592
▁кайсы	-1593
▁шаардык	-1594
▁көч	-1595
▁жеткир	-1596
дыктар	-1597
▁Башк	-1598
мыл	-1599
дыгы	-1600
▁түнкүсүн	-1601
тип	-1602
▁анда	-1603
▁экени	-1604
тон	-1605
▁согуш	-1606
▁тааны	-1607
шты	-1608
айым	-1609
алап	-1610
▁белгиледи	-1611
▁көңүл	-1612
ңгээ	-1613
▁Москва	-1614
▁УКМК	-1615
ттү	-1616
▁өкүлдөрү	-1617
▁прокуратур	-1618
▁деңгээ	-1619
▁кл	-1620
иц	-1621
догу	-1622
▁тизм	-1623
▁маалымда	-1624
аттары	-1625
▁Бак	-1626
дердин	-1627
елүү	-1628
▁активист	-1629
фор	-1630
",-	-1631
юм	-1632
▁жагдай	-1633
▁Мындай	-1634
▁вир	-1635
рит	-1636
▁Президент	-1637
▁ге	-1638
▁л	-1639
тке	-1640
▁11	-1641
▁сый	-1642
▁президенттик	-1643
абай	-1644
▁келди	-1645
▁жазды	-1646
▁Жалал	-1647
▁негизги	-1648
▁систем	-1649
етте	-1650
▁тыюу	-1651
▁Жээн	-1652
▁соода	-1653
▁бала	-1654
▁кезде	-1655
чар	-1656
на	-1657
▁бек	-1658
деген	-1659
▁Анткени	-1660
▁Кыргызстанга	-1661
▁Израил	-1662
▁медицин	-1663
▁Ооганстан	-1664
өрү	-1665
укка	-1666
сүндө	-1667
▁1-	-1668
эн	-1669
ээр	-1670
▁зарыл	-1671
эр	-1672
▁бөлүм	-1673
▁жатабыз	-1674
▁жетекчиси	-1675
▁ишин	-1676
▁пайд	-1677
ти	-1678
ттер	-1679
елен	-1680
▁өзүн	-1681
ушка	-1682
▁таш	-1683
ткөн	-1684
▁кайтар	-1685
утк	-1686
▁пайда	-1687
▁барган	-1688
▁кыймыл	-1689
▁экономикалык	-1690
▁салган	-1691
▁энерг	-1692
▁комм	-1693
▁учурунда	-1694
▁жолугуш	-1695
▁күй	-1696
дж	-1697
▁бере	-1698
▁кен	-1699
оолор	-1700
▁дайын	-1701
▁алууга	-1702
гел	-1703
нун	-1704
кция	-1705
▁бошот	-1706
▁авто	-1707
▁айлан	-1708
дум	-1709
алардын	-1710
▁бу	-1711
▁оо	-1712
▁алма	-1713
▁фон	-1714
бол	-1715
▁100	-1716
▁башкарм	-1717
▁өнүкт	-1718
▁30	-1719
▁жазган	-1720
аг	-1721
▁Вла	-1722
▁Мамлекеттик	-1723
лам	-1724
Көл	-1725
▁изил	-1726
▁2020-	-1727
оол	-1728
терн	-1729
ларга	-1730
▁жарым	-1731
илүү	-1732
▁кетти	-1733
▁котор	-1734
гөй	-1735
имов	-1736
ият	-1737
түр	-1738
мартта	-1739
▁жогорку	-1740
▁кирген	-1741
▁максат	-1742
▁х	-1743
▁колдо	-1744
▁балдар	-1745
▁ади	-1746
▁коркуну	-1747
▁иштери	-1748
▁алка	-1749
имди	-1750
аса	-1751
▁арал	-1752
▁жоопкер	-1753
▁урук	-1754
▁саб	-1755
майда	-1756
рес	-1757
▁ир	-1758
▁алат	-1759
▁мөөнөт	-1760
▁уулу	-1761
ограмм	-1762
▁ири	-1763
▁орган	-1764
▁тараб	-1765
ологиялык	-1766
▁Ошондуктан	-1767
▁мектеп	-1768
▁облусунун	-1769
▁согушт	-1770
▁Ысык	-1771
▁жазылган	-1772
▁эскер	-1773
▁чын	-1774
егинде	-1775
▁опер	-1776
ология	-1777
февр	-1778
өнү	-1779
▁басып	-1780
димир	-1781
▁жарандык	-1782
▁Башкы	-1783
▁12	-1784
▁документт	-1785
▁N	-1786
▁тышкы	-1787
даш	-1788
▁шт	-1789
▁Тал	-1790
алдуу	-1791
▁өлүм	-1792
▁облусунда	-1793
▁Владимир	-1794
гине	-1795
▁себеп	-1796
▁убактылуу	-1797
рд	-1798
үб	-1799
▁жабыр	-1800
▁кит	-1801
▁полиция	-1802
▁түшкөн	-1803
орун	-1804
▁факт	-1805
▁Украинага	-1806
▁белги	-1807
▁жиб	-1808
▁ажыр	-1809
▁алты	-1810
▁канча	-1811
▁Биринчи	-1812
августта	-1813
▁топт	-1814
▁кызматынын	-1815
▁депутат	-1816
аларын	-1817
▁Атам	-1818
▁украин	-1819
▁белгилен	-1820
▁кызык	-1821
бүлө	-1822
бөй	-1823
▁кылмышт	-1824
абы	-1825
▁жоопкерчил	-1826
оону	-1827
▁оорукана	-1828
би	-1829
▁убак	-1830
▁маанилүү	-1831
мон	-1832
▁шект	-1833
▁премьер	-1834
гар	-1835
▁кодек	-1836
▁башкармалы	-1837
чүлөр	-1838
▁миңден	-1839
▁Чүй	-1840
▁байк	-1841
▁кап	-1842
еф	-1843
апрелде	-1844
▁салам	-1845
че	-1846
▁үст	-1847
▁кийинки	-1848
▁бейт	-1849
▁кошумчал	-1850
акет	-1851
бейт	-1852
▁көй	-1853
▁жый	-1854
уктар	-1855
▁аскер	-1856
▁Жээнбеков	-1857
▁жакт	-1858
▁шарт	-1859
лары	-1860
январда	-1861
▁Уч	-1862
▁армия	-1863
арга	-1864
Азаттыкка	-1865
▁иликтөө	-1866
асындагы	-1867
▁аларды	-1868
▁коррупция	-1869
андемия	-1870
угун	-1871
рор	-1872
▁Кан	-1873
▁чейинки	-1874
▁жоо	-1875
▁катуу	-1876
▁болгону	-1877
баган	-1878
▁саат	-1879
итардык	-1880
▁негизинде	-1881
▁башында	-1882
▁эрк	-1883
арий	-1884
ияга	-1885
ттан	-1886
▁сок	-1887
етр	-1888
▁калып	-1889
▁кетип	-1890
ябрь	-1891
ноябрда	-1892
▁алкагында	-1893
▁опп	-1894
▁келе	-1895
▁президенттин	-1896
рон	-1897
▁сунуш	-1898
▁ол	-1899
▁Кыргызстандагы	-1900
синин	-1901
▁бю	-1902
▁план	-1903
▁деңгээл	-1904
▁Дүйн	-1905
▁акч	-1906
▁имар	-1907
ард	-1908
▁кызматкерлер	-1909
ский	-1910
▁орусия	-1911
ишти	-1912
▁кала	-1913
,5	-1914
вок	-1915
▁Казакстандын	-1916
▁кайрылуу	-1917
▁элдин	-1918
▁Конститу	-1919
урда	-1920
▁2021-	-1921
▁элдик	-1922
▁ий	-1923
вест	-1924
▁журналисттер	-1925
ократ	-1926
син	-1927
июнда	-1928
▁ради	-1929
▁Бал	-1930
▁пайыз	-1931
▁куб	-1932
өшт	-1933
▁арт	-1934
▁I	-1935
▁абдан	-1936
▁уруксат	-1937
▁жашоо	-1938
▁Атамбаев	-1939
▁көйгөй	-1940
акч	-1941
▁бат	-1942
▁мун	-1943
сул	-1944
▁Ушул	-1945
▁баштады	-1946
ого	-1947
үштүк	-1948
▁шайлоого	-1949
▁13	-1950
▁мындан	-1951
ымал	-1952
▁дарыл	-1953
▁көл	-1954
▁маш	-1955
оонун	-1956
▁өнөкт	-1957
▁Орусияда	-1958
▁2022-	-1959
ума	-1960
ың	-1961
өмөн	-1962
чулардын	-1963
сүз	-1964
▁сез	-1965
сө	-1966
▁бейтап	-1967
▁адамдын	-1968
▁айтылат	-1969
▁ташт	-1970
▁катышкан	-1971
есине	-1972
▁мадан	-1973
дарына	-1974
▁жарат	-1975
үүчү	-1976
▁Гер	-1977
▁кабарлады	-1978
андык	-1979
▁ыкт	-1980
▁каал	-1981
▁сотко	-1982
▁кыргызстандык	-1983
ух	-1984
дыктан	-1985
▁сайын	-1986
▁ый	-1987
омбул	-1988
▁14	-1989
▁Кам	-1990
дарынын	-1991
жы	-1992
▁Эми	-1993
▁Маалым	-1994
▁жарыялаган	-1995
ерсе	-1996
мөн	-1997
атый	-1998
газ	-1999
үүнүн	-2000
декабрда	-2001
▁берен	-2002
▁көрүн	-2003
атор	-2004
уусу	-2005
▁кызматкерлери	-2006
атыйж	-2007
ебиз	-2008
реж	-2009
▁ык	-2010
▁жатып	-2011
▁катчысы	-2012
▁уу	-2013
▁өттү	-2014
▁Мам	-2015
өөлөр	-2016
▁жашаган	-2017
▁тез	-2018
актар	-2019
▁камакка	-2020
ешк	-2021
▁төмөн	-2022
▁алтын	-2023
УУ	-2024
гек	-2025
▁млрд	-2026
итинг	-2027
▁талапкер	-2028
▁Өк	-2029
акцин	-2030
▁пайдалан	-2031
далган	-2032
амм	-2033
▁жайгашкан	-2034
▁мурун	-2035
▁көпчүл	-2036
дерди	-2037
еспублик	-2038
орон	-2039
▁басым	-2040
од	-2041
▁Брит	-2042
▁ашыр	-2043
▁көрүп	-2044
▁нерсе	-2045
▁четке	-2046
стр	-2047
▁Таш	-2048
еттин	-2049
▁эске	-2050
VI	-2051
ылыш	-2052
▁өзгөрт	-2053
▁авт	-2054
▁салып	-2055
▁илде	-2056
▁ордун	-2057
мо	-2058
өг	-2059
үйш	-2060
иштүү	-2061
▁жеңил	-2062
▁199	-2063
ентарий	-2064
сентябрда	-2065
▁коркунуч	-2066
▁жап	-2067
▁органдар	-2068
▁тиешелүү	-2069
елерди	-2070
▁Ис	-2071
иверс	-2072
▁арада	-2073
өгө	-2074
▁Аны	-2075
▁тарабынан	-2076
▁алгачкы	-2077
▁уча	-2078
▁Учурда	-2079
▁соту	-2080
▁шек	-2081
▁жөнөт	-2082
алим	-2083
▁туш	-2084
▁өткөрүп	-2085
ыгын	-2086
▁катталган	-2087
▁Ст	-2088
▁Белар	-2089
▁дир	-2090
өрүн	-2091
▁аймагында	-2092
▁Ток	-2093
▁чогул	-2094
▁кр	-2095
▁муну	-2096
▁операция	-2097
▁кабин	-2098
▁күндө	-2099
▁комментарий	-2100
▁ары	-2101
ач	-2102
байт	-2103
▁каз	-2104
▁фор	-2105
▁талкуу	-2106
ИМ	-2107
▁автоуна	-2108
ибиз	-2109
арынын	-2110
▁белгисиз	-2111
ээрлик	-2112
▁милдетт	-2113
▁ачыл	-2114
ари	-2115
▁Мак	-2116
▁демил	-2117
аттан	-2118
рамп	-2119
▁депутаты	-2120
▁оору	-2121
беген	-2122
▁Мат	-2123
иверсит	-2124
▁азырынча	-2125
езгил	-2126
▁инвест	-2127
▁тармактар	-2128
▁нааразылык	-2129
▁18	-2130
ья	-2131
бур	-2132
▁Ич	-2133
▁эреж	-2134
▁Трамп	-2135
▁жактан	-2136
лоо	-2137
июлда	-2138
▁башчы	-2139
▁коопсузду	-2140
ашы	-2141
▁Бол	-2142
▁турукт	-2143
-19	-2144
▁тапкан	-2145
▁мат	-2146
▁реж	-2147
есинин	-2148
▁казак	-2149
▁жерге	-2150
▁об	-2151
▁Бүгүн	-2152
▁Абд	-2153
▁ден	-2154
устун	-2155
▁бет	-2156
▁вакцин	-2157
▁Бишкектин	-2158
пл	-2159
▁от	-2160
▁жазып	-2161
▁Герман	-2162
on	-2163
▁миллиард	-2164
▁зы	-2165
▁бюдж	-2166
▁директ	-2167
ийин	-2168
ктагы	-2169
▁кыйын	-2170
ылганын	-2171
сүнө	-2172
▁чакырды	-2173
▁Киев	-2174
▁тов	-2175
▁ичинен	-2176
▁кеп	-2177
пар	-2178
үлдү	-2179
дөгөн	-2180
▁пандемия	-2181
▁жыйынында	-2182
▁ракет	-2183
▁Кара	-2184
ңиз	-2185
▁10-	-2186
▁эрт	-2187
уулук	-2188
пөй	-2189
▁2019-	-2190
▁баштап	-2191
▁чыгарып	-2192
умтөр	-2193
▁түрдө	-2194
емп	-2195
дыгын	-2196
▁университ	-2197
▁Жак	-2198
аларга	-2199
герлер	-2200
▁сүйлөшүүлөр	-2201
▁каражат	-2202
▁каранды	-2203
▁мезгил	-2204
▁тан	-2205
▁Кыз	-2206
▁жибер	-2207
▁былтыр	-2208
улат	-2209
▁автор	-2210
жылдан	-2211
▁санкция	-2212
▁орто	-2213
▁окуялар	-2214
мок	-2215
▁16	-2216
▁Орусияга	-2217
Би	-2218
▁Би	-2219
▁муз	-2220
гүл	-2221
▁жылдын	-2222
ирүү	-2223
ттин	-2224
▁Ю	-2225
▁өс	-2226
▁сыртк	-2227
▁түзүлгөн	-2228
▁Тажикстандын	-2229
бү	-2230
илер	-2231
▁чыга	-2232
▁калтыр	-2233
▁Ички	-2234
▁тург	-2235
▁инф	-2236
диги	-2237
▁Тур	-2238
▁тилк	-2239
▁ыраст	-2240
▁карашт	-2241
▁Кытайдын	-2242
▁Мис	-2243
▁Бишкектеги	-2244
▁кирип	-2245
▁Аск	-2246
алында	-2247
▁лидери	-2248
аңы	-2249
▁аякт	-2250
алууда	-2251
▁медициналык	-2252
▁адист	-2253
үштү	-2254
▁кызматтан	-2255
ышкы	-2256
▁кым	-2257
Азатт	-2258
▁аян	-2259
▁укугу	-2260
▁митинг	-2261
тти	-2262
▁дээрлик	-2263
шу	-2264
хан	-2265
▁өтүн	-2266
▁билдирип	-2267
▁таг	-2268
▁коюлган	-2269
▁50	-2270
▁кармап	-2271
▁Баш	-2272
уучулар	-2273
▁кошумчалады	-2274
▁элчил	-2275
▁түрк	-2276
еге	-2277
аман	-2278
▁Жол	-2279
▁куу	-2280
▁17	-2281
▁4-	-2282
елери	-2283
▁программ	-2284
ид	-2285
▁учурлар	-2286
er	-2287
маз	-2288
▁шаарынын	-2289
▁Министрлер	-2290
▁курам	-2291
▁Токт	-2292
уктур	-2293
▁им	-2294
▁тарткан	-2295
▁спорт	-2296
▁суроо	-2297
▁Биздин	-2298
▁адвок	-2299
▁далил	-2300
жол	-2301
▁боло	-2302
▁матери	-2303
▁дипл	-2304
▁депутаттар	-2305
▁Эки	-2306
▁маселеси	-2307
▁Өл	-2308
▁ортосундагы	-2309
▁террор	-2310
▁макс	-2311
▁орусиялык	-2312
▁CO	-2313
азар	-2314
исттик	-2315
ина	-2316
атив	-2317
ашты	-2318
▁мүчөлөр	-2319
▁көбү	-2320
ликт	-2321
▁бой	-2322
▁Кылм	-2323
▁зыян	-2324
▁Салам	-2325
▁жетиш	-2326
аттардын	-2327
▁маселелер	-2328
▁радиос	-2329
▁иштет	-2330
еришт	-2331
укту	-2332
▁Кийин	-2333
▁2-	-2334
▁өлтүр	-2335
▁өнүктүрүү	-2336
▁окш	-2337
VID	-2338
▁сөө	-2339
Ата	-2340
айн	-2341
▁жо	-2342
дордун	-2343
▁кесип	-2344
▁газ	-2345
▁кантип	-2346
▁Бек	-2347
▁Та	-2348
▁талкуул	-2349
▁Нарын	-2350
▁25	-2351
▁аскерлер	-2352
уудан	-2353
▁тран	-2354
▁чыгарган	-2355
евдин	-2356
▁Алек	-2357
▁калат	-2358
▁БУУ	-2359
▁видео	-2360
орлор	-2361
циянын	-2362
▁Мисалы	-2363
▁баарын	-2364
▁5-	-2365
▁өнүг	-2366
чулары	-2367
ысынан	-2368
▁15-	-2369
Азаттыктын	-2370
егер	-2371
▁баракч	-2372
дүүл	-2373
▁жети	-2374
▁телеф	-2375
▁кайрадан	-2376
ктык	-2377
▁коюп	-2378
▁жасаган	-2379
ШК	-2380
▁кээ	-2381
өөгө	-2382
▁Жар	-2383
гемен	-2384
илип	-2385
февралда	-2386
▁ада	-2387
▁каражаттар	-2388
▁Байден	-2389
▁көргөн	-2390
ейс	-2391
уден	-2392
▁Түркия	-2393
▁Ол	-2394
▁районунун	-2395
▁Сул	-2396
▁мар	-2397
▁өкмөттүн	-2398
асынан	-2399
▁болбойт	-2400
▁парламенттик	-2401
оочу	-2402
ырм	-2403
акта	-2404
▁20-	-2405
▁таң	-2406
▁7-	-2407
чалык	-2408
▁тон	-2409
▁диний	-2410
ейш	-2411
▁жылы	-2412
▁кымб	-2413
▁ас	-2414
илет	-2415
▁үл	-2416
▁парламент	-2417
емпи	-2418
▁3-	-2419
▁Быйыл	-2420
▁кадам	-2421
▁жогору	-2422
▁инстит	-2423
▁экономик	-2424
▁Алмаз	-2425
ылбек	-2426
▁сында	-2427
▁эскерт	-2428
▁кул	-2429
▁туруп	-2430
оль	-2431
▁Сүр	-2432
▁адм	-2433
▁белгилеп	-2434
▁Ком	-2435
▁Анан	-2436
▁натыйж	-2437
буз	-2438
ткен	-2439
▁басылм	-2440
ырып	-2441
▁мекен	-2442
▁No	-2443
▁каран	-2444
▁аттуу	-2445
ерлерди	-2446
▁Ташиев	-2447
▁кошумча	-2448
ея	-2449
бетте	-2450
гындагы	-2451
▁Мир	-2452
дел	-2453
▁9-	-2454
▁COVID	-2455
▁Айт	-2456
▁райондор	-2457
▁кылуу	-2458
▁күндөрү	-2459
▁баян	-2460
▁жарыялады	-2461
▁те	-2462
▁мамлекеттер	-2463
▁мис	-2464
ыб	-2465
▁T	-2466
▁партиясынын	-2467
гынан	-2468
кар	-2469
▁фин	-2470
▁күб	-2471
▁Евро	-2472
▁Матра	-2473
ыны	-2474
▁банк	-2475
чусу	-2476
▁кыс	-2477
угалим	-2478
▁бөлүн	-2479
ини	-2480
▁өкмөтү	-2481
▁курулуш	-2482
▁макулдаш	-2483
инистрация	-2484
Си	-2485
▁мэр	-2486
▁мамиле	-2487
▁соттун	-2488
астан	-2489
гу	-2490
▁11-	-2491
▁ирет	-2492
▁багытт	-2493
▁сырткары	-2494
▁көлөм	-2495
▁ыктымал	-2496
▁максатында	-2497
▁шаарындагы	-2498
▁Жер	-2499
▁долбоору	-2500
▁аныкталган	-2501
▁таян	-2502
сында	-2503
едер	-2504
▁кызматкери	-2505
▁аларга	-2506
олд	-2507
▁үйлөр	-2508
▁администрация	-2509
асп	-2510
ербай	-2511
▁Дон	-2512
▁мүл	-2513
▁бийликтин	-2514
▁Уюм	-2515
▁зомбул	-2516
▁каттоо	-2517
▁айтканда	-2518
берен	-2519
▁жерлер	-2520
▁облустук	-2521
▁айынан	-2522
бия	-2523
тай	-2524
▁каржыл	-2525
▁карабай	-2526
▁тажик	-2527
▁улант	-2528
▁Мас	-2529
▁Тышкы	-2530
▁кылды	-2531
▁оорукан	-2532
▁Өзбекстандын	-2533
андын	-2534
▁Зелен	-2535
атр	-2536
▁чемпи	-2537
▁сай	-2538
▁миңдей	-2539
анас	-2540
суна	-2541
▁адамдардын	-2542
▁Айрым	-2543
▁Бий	-2544
▁кызы	-2545
▁Сүрөтт	-2546
▁товар	-2547
▁кишинин	-2548
ушту	-2549
▁өч	-2550
▁дүйнөлүк	-2551
▁Жаңы	-2552
есинде	-2553
мин	-2554
▁вирус	-2555
таж	-2556
матов	-2557
▁демократ	-2558
▁ортосунда	-2559
▁жарыяланган	-2560
жар	-2561
улду	-2562
кор	-2563
▁апта	-2564
▁мамлекеттин	-2565
өөл	-2566
▁Сир	-2567
▁абалы	-2568
▁мүчөсү	-2569
▁студен	-2570
▁бизге	-2571
▁болуш	-2572
▁аг	-2573
▁Себ	-2574
▁жокко	-2575
▁теришт	-2576
▁көрсөткүч	-2577
йр	-2578
▁талапк	-2579
▁укуктар	-2580
көм	-2581
▁бү	-2582
олду	-2583
уман	-2584
▁Дем	-2585
▁жуг	-2586
▁тапта	-2587
▁чечими	-2588
▁Зеленский	-2589
▁6-	-2590
▁Украинадагы	-2591
үндөгү	-2592
▁кызыкчыл	-2593
ева	-2594
▁түшүп	-2595
▁эмгек	-2596
▁кырсы	-2597
▁телефон	-2598
▁ээл	-2599
▁түзгөн	-2600
пей	-2601
акция	-2602
▁көпт	-2603
▁айдоо	-2604
туп	-2605
▁Соорон	-2606
анган	-2607
▁8-	-2608
▁бараткан	-2609
▁салынган	-2610
Ал	-2611
▁метр	-2612
бар	-2613
илди	-2614
цион	-2615
▁бизн	-2616
▁алганын	-2617
▁бийликке	-2618
олуп	-2619
өйр	-2620
▁козголгон	-2621
▁кызматташт	-2622
▁жакта	-2623
▁тартылган	-2624
▁кодексинин	-2625
▁уг	-2626
атып	-2627
маты	-2628
▁Себеби	-2629
тал	-2630
ларын	-2631
▁телек	-2632
иясы	-2633
▁режим	-2634
мун	-2635
▁сиз	-2636
▁сайт	-2637
▁Ав	-2638
баева	-2639
ылт	-2640
▁жетект	-2641
▁көчө	-2642
▁ю	-2643
▁Борбордук	-2644
▁Саламаттык	-2645
▁өзүнө	-2646
▁берүүгө	-2647
▁оппозиция	-2648
▁маалымдады	-2649
▁Сүрөттүн	-2650
ице	-2651
оопсуз	-2652
▁салык	-2653
аниянын	-2654
▁белгилеген	-2655
▁рефор	-2656
▁жеткен	-2657
▁өлкөдөгү	-2658
▁эп	-2659
▁24-	-2660
▁мугалим	-2661
мушт	-2662
".	-2663
▁кабарлаган	-2664
укул	-2665
▁уюмдар	-2666
▁маалыматты	-2667
орду	-2668
▁башкаруу	-2669
акты	-2670
▁эсеб	-2671
ашып	-2672
ti	-2673
▁кесеп	-2674
▁жабырка	-2675
▁аппар	-2676
▁Кай	-2677
▁алыш	-2678
▁Кош	-2679
ад	-2680
▁эксперт	-2681
сек	-2682
▁18-	-2683
арына	-2684
бирим	-2685
▁ишеним	-2686
ңыз	-2687
▁25-	-2688
▁зам	-2689
▁байланыш	-2690
алоо	-2691
▁комитетинин	-2692
ербайжан	-2693
ейсб	-2694
▁Республик	-2695
▁мигранттар	-2696
),	-2697
раз	-2698
▁Кеңеш	-2699
▁калганын	-2700
дия	-2701
▁бою	-2702
▁карма	-2703
▁киреш	-2704
▁Экинчи	-2705
дөп	-2706
истан	-2707
октябр	-2708
▁кармалып	-2709
алдар	-2710
дешт	-2711
▁Тер	-2712
▁болорун	-2713
▁китеп	-2714
игине	-2715
▁мүнө	-2716
жылдары	-2717
айы	-2718
▁куралдуу	-2719
ков	-2720
▁кыск	-2721
▁келин	-2722
▁өлкөгө	-2723
▁кабылган	-2724
▁пл	-2725
ешкен	-2726
▁уюмунун	-2727
▁болбой	-2728
▁жараны	-2729
▁Евробирим	-2730
▁чыр	-2731
ларда	-2732
үктөр	-2733
▁Фран	-2734
▁жаңж	-2735
сиянын	-2736
▁күчөт	-2737
▁маалда	-2738
▁Камчы	-2739
▁суроолор	-2740
емб	-2741
икке	-2742
ферен	-2743
▁качан	-2744
▁Казакстанда	-2745
▁курч	-2746
▁кеңешинин	-2747
▁40	-2748
▁Чек	-2749
үлөт	-2750
▁сокку	-2751
алга	-2752
дерге	-2753
▁отурган	-2754
▁калк	-2755
▁сегиз	-2756
ma	-2757
иккен	-2758
▁кезект	-2759
ашкан	-2760
огуз	-2761
▁кыйн	-2762
▁сомго	-2763
юз	-2764
▁албайт	-2765
▁согушка	-2766
▁жарандар	-2767
▁бут	-2768
▁салышт	-2769
▁жүрүш	-2770
▁A	-2771
али	-2772
алай	-2773
▁ишм	-2774
▁эмге	-2775
▁шайлоодо	-2776
▁долбоорун	-2777
▁бей	-2778
▁ордуна	-2779
▁28-	-2780
▁30-	-2781
▁белгиленген	-2782
ью	-2783
исттер	-2784
баевдин	-2785
▁жакында	-2786
▁Коронавир	-2787
кел	-2788
атыр	-2789
▁17-	-2790
▁кабинетинин	-2791
асс	-2792
▁жылда	-2793
▁Гүл	-2794
▁жасап	-2795
▁мектепт	-2796
дыруу	-2797
▁Мыйзам	-2798
өөк	-2799
етке	-2800
▁айтылып	-2801
алышы	-2802
▁нерс	-2803
▁койду	-2804
▁чогуу	-2805
▁бөлүгү	-2806
▁команда	-2807
сынан	-2808
үндүк	-2809
▁ыйгар	-2810
алдын	-2811
▁Талас	-2812
▁изилдөө	-2813
▁кайрылган	-2814
▁саламаттык	-2815
▁Ад	-2816
▁убакыт	-2817
▁ыс	-2818
орбору	-2819
▁республ	-2820
▁курман	-2821
▁топтор	-2822
▁өтөт	-2823
▁бериш	-2824
▁аялдар	-2825
▁жума	-2826
▁өкүм	-2827
▁чукул	-2828
ож	-2829
▁Шайл	-2830
▁2023-	-2831
▁токто	-2832
▁14-	-2833
уттар	-2834
иси	-2835
▁борбору	-2836
▁бекем	-2837
дөрүнүн	-2838
▁Көп	-2839
▁Мунун	-2840
▁сомдон	-2841
уктун	-2842
жылдагы	-2843
▁Акылбек	-2844
▁убада	-2845
▁эсептейт	-2846
адан	-2847
▁жашап	-2848
▁жетти	-2849
▁Кылмыш	-2850
▁керектигин	-2851
▁үз	-2852
▁айда	-2853
▁Өткөн	-2854
▁Расмий	-2855
▁биргел	-2856
▁кескин	-2857
▁алынып	-2858
▁жерден	-2859
▁интерн	-2860
...1	-2861
▁жолдо	-2862
Тал	-2863
▁ката	-2864
▁эгемен	-2865
▁16-	-2866
▁корго	-2867
▁директору	-2868
аша	-2869
дигин	-2870
▁буйр	-2871
▁тарта	-2872
▁23-	-2873
уусун	-2874
▁кайрыл	-2875
▁барат	-2876
▁телекан	-2877
▁("	-2878
▁БШК	-2879
▁Амер	-2880
▁жараат	-2881
▁билдиргендей	-2882
агыл	-2883
ъект	-2884
▁уюму	-2885
▁иштерин	-2886
екке	-2887
▁тараткан	-2888
▁киргизилген	-2889
анып	-2890
ттик	-2891
▁жакка	-2892
рый	-2893
акан	-2894
тажик	-2895
▁Азыркы	-2896
▁башкармалыгынын	-2897
▁24	-2898
▁жылдык	-2899
▁Ил	-2900
оюн	-2901
оңку	-2902
▁12-	-2903
▁ишти	-2904
▁проц	-2905
▁Ас	-2906
овду	-2907
▁элге	-2908
▁Түркиянын	-2909
▁Өмүр	-2910
▁жашыр	-2911
▁алынды	-2912
дери	-2913
еттер	-2914
▁турак	-2915
аттарды	-2916
руз	-2917
раф	-2918
▁мыкты	-2919
кап	-2920
▁окт	-2921
утбол	-2922
▁вице	-2923
▁карантин	-2924
есс	-2925
▁Дүйш	-2926
▁Темир	-2927
▁карыз	-2928
Кыргыз	-2929
▁мигрантт	-2930
▁туруктуу	-2931
▁көрсөткөн	-2932
▁Түштүк	-2933
▁бөгө	-2934
▁Батыш	-2935
▁Мекем	-2936
бөл	-2937
▁Жум	-2938
▁S	-2939
▁келеч	-2940
▁маселени	-2941
ный	-2942
▁22-	-2943
▁андай	-2944
▁анан	-2945
▁таап	-2946
▁ооруканага	-2947
▁коронавируска	-2948
▁эст	-2949
▁инвестиция	-2950
аак	-2951
ема	-2952
▁күнөөл	-2953
▁отурум	-2954
▁темир	-2955
▁айтылды	-2956
▁башалам	-2957
▁жарандары	-2958
▁кошт	-2959
үң	-2960
ырт	-2961
бет	-2962
▁күм	-2963
▁каттам	-2964
▁19-	-2965
▁жыйынтыгы	-2966
▁мекемелер	-2967
▁аракети	-2968
▁жылдары	-2969
▁маалыматка	-2970
▁үм	-2971
▁Май	-2972
иктер	-2973
▁калыб	-2974
▁жасалган	-2975
цияга	-2976
▁амер	-2977
▁сүрөт	-2978
▁Жапаровдун	-2979
кум	-2980
▁бл	-2981
убуз	-2982
▁Тил	-2983
▁азай	-2984
▁жүрөт	-2985
▁тууган	-2986
▁Корея	-2987
▁турганы	-2988
▁Акыркы	-2989
▁ошон	-2990
ембиде	-2991
▁арасындагы	-2992
шти	-2993
асыз	-2994
уттуу	-2995
▁сөздөр	-2996
уккан	-2997
▁өнөр	-2998
▁Алмазбек	-2999
АТ	-3000
▁коң	-3001
аганын	-3002
атында	-3003
масы	-3004
омат	-3005
▁акын	-3006
елип	-3007
оопсуздук	-3008
▁саясатчы	-3009
▁БУУнун	-3010
дем	-3011
дырып	-3012
▁тажрый	-3013
▁Дүйнөлүк	-3014
ерв	-3015
луу	-3016
импи	-3017
▁тобу	-3018
▁Азербайжан	-3019
ткан	-3020
удья	-3021
▁акы	-3022
▁чыгыш	-3023
▁каралган	-3024
es	-3025
жин	-3026
▁аты	-3027
▁тартип	-3028
ЭБ	-3029
оор	-3030
атын	-3031
ларында	-3032
Кыргызстан	-3033
ализ	-3034
те	-3035
▁27-	-3036
▁атындагы	-3037
▁на	-3038
▁стат	-3039
▁Армен	-3040
▁калыбына	-3041
▁Ошент	-3042
сам	-3043
▁Деп	-3044
▁баасы	-3045
▁кайрылып	-3046
▁агенттиги	-3047
бан	-3048
▁туул	-3049
▁аэ	-3050
асым	-3051
▁тут	-3052
▁чара	-3053
арында	-3054
▁2018-	-3055
▁түзөт	-3056
▁кайтып	-3057
▁Матраимов	-3058
▁Иш	-3059
▁Былтыр	-3060
▁жагынан	-3061
▁мага	-3062
▁ондогон	-3063
түл	-3064
өшк	-3065
▁Ака	-3066
▁жаан	-3067
▁адамга	-3068
▁тийгиз	-3069
иң	-3070
алыш	-3071
ттуу	-3072
▁штаб	-3073
▁Соңку	-3074
in	-3075
игинин	-3076
▁укуктары	-3077
▁бара	-3078
▁карш	-3079
▁бирге	-3080
▁Британия	-3081
▁кабарланды	-3082
АС	-3083
УКМК	-3084
▁менин	-3085
▁уна	-3086
▁арга	-3087
▁чемпион	-3088
мек	-3089
сыздан	-3090
акистан	-3091
▁соттук	-3092
▁насы	-3093
▁жогор	-3094
▁чакырым	-3095
▁мыйзамга	-3096
▁көрсөтүп	-3097
▁камсыздоо	-3098
▁жүргүзүп	-3099
▁кармалды	-3100
▁стан	-3101
▁манда	-3102
▁тараптуу	-3103
ылууда	-3104
▁коргон	-3105
▁аң	-3106
▁ку	-3107
▁Сан	-3108
▁чарба	-3109
Бир	-3110
▁айл	-3111
▁ишине	-3112
ңар	-3113
▁сум	-3114
▁айта	-3115
▁Куб	-3116
елген	-3117
за	-3118
пайт	-3119
▁бажы	-3120
▁мүмкүнчүлүк	-3121
еде	-3122
▁Шт	-3123
▁жалгыз	-3124
▁бак	-3125
бөгөн	-3126
даган	-3127
▁ишмер	-3128
▁кеминде	-3129
▁комитети	-3130
▁Маалыматка	-3131
▁тай	-3132
▁Жалп	-3133
▁тоск	-3134
ышка	-3135
устан	-3136
▁сыйл	-3137
иядагы	-3138
▁көпчүлүк	-3139
иза	-3140
ремл	-3141
▁кагыл	-3142
▁тогуз	-3143
▁чектөө	-3144
▁башынан	-3145
▁Сооронбай	-3146
▁жүк	-3147
сүнүн	-3148
Талиб	-3149
▁күнгө	-3150
нот	-3151
▁таза	-3152
▁күндөн	-3153
▁түзүп	-3154
▁берүүнү	-3155
▁өтүнүч	-3156
ыч	-3157
аларда	-3158
▁түрмө	-3159
▁аскерлери	-3160
▁машы	-3161
▁бийликти	-3162
▁Али	-3163
▁институт	-3164
▁21	-3165
▁13-	-3166
▁ажырат	-3167
сунда	-3168
гунт	-3169
▁чыгым	-3170
▁катышуу	-3171
▁Депут	-3172
▁тиешеси	-3173
▁өлкөлөрдүн	-3174
ээк	-3175
чынын	-3176
▁аябай	-3177
▁көбүр	-3178
▁Мил	-3179
▁зав	-3180
стыкт	-3181
▁дароо	-3182
президен	-3183
▁чыгаруу	-3184
▁миңдеген	-3185
▁Ошт	-3186
▁сүрөтт	-3187
▁компаниясы	-3188
")	-3189
▁ы	-3190
▁Муну	-3191
▁алганы	-3192
▁жолдор	-3193
дур	-3194
▁жатканда	-3195
▁22	-3196
▁21-	-3197
▁табылган	-3198
▁Коопсуздук	-3199
tion	-3200
▁экс	-3201
▁жумш	-3202
▁түшүр	-3203
эк	-3204
▁тамак	-3205
▁түзүү	-3206
иф	-3207
лиги	-3208
оодо	-3209
убай	-3210
▁күчтөрү	-3211
▁булактар	-3212
бу	-3213
▁Ку	-3214
ясий	-3215
▁Өлкө	-3216
▁куруу	-3217
▁Алматы	-3218
▁прокуратура	-3219
▁29-	-3220
етин	-3221
▁криз	-3222
▁министринин	-3223
▁коё	-3224
▁Өкмөт	-3225
▁Камчыбек	-3226
цен	-3227
өөнүн	-3228
▁жасал	-3229
▁Бириккен	-3230
▁өзгөртүү	-3231
ыма	-3232
жылга	-3233
▁демилг	-3234
▁самм	-3235
▁кеткенин	-3236
▁500	-3237
уктаж	-3238
▁нааразы	-3239
ентке	-3240
ыктан	-3241
▁тынчтык	-3242
▁парламенттин	-3243
эл	-3244
укта	-3245
улуш	-3246
екция	-3247
▁көмө	-3248
▁мүнөз	-3249
▁тоскоол	-3250
▁энергет	-3251
▁өлкөдөн	-3252
яны	-3253
▁жакшыр	-3254
▁Албетте	-3255
▁карандысыз	-3256
усул	-3257
▁УКМКнын	-3258
▁үйр	-3259
▁экөө	-3260
▁берилди	-3261
▁шайлоонун	-3262
▁арн	-3263
еск	-3264
▁катышып	-3265
▁караштуу	-3266
АТО	-3267
▁соз	-3268
▁куугунт	-3269
слам	-3270
▁көрсөтүлгөн	-3271
овго	-3272
▁жогот	-3273
▁сактап	-3274
лайн	-3275
▁баа	-3276
усулман	-3277
▁26-	-3278
▁ИИМ	-3279
▁Нав	-3280
▁кеңешт	-3281
▁муктаж	-3282
▁киргизүү	-3283
▁маселесин	-3284
уманитардык	-3285
▁экспер	-3286
▁позиция	-3287
▁мүчөлөрү	-3288
изация	-3289
▁өткөрүү	-3290
▁алмаштыр	-3291
ыла	-3292
▁Каб	-3293
ланып	-3294
▁дегенде	-3295
▁көптөгөн	-3296
▁облусундагы	-3297
деди	-3298
олуу	-3299
үнчү	-3300
өөнү	-3301
▁Кремл	-3302
▁олуттуу	-3303
ca	-3304
ратег	-3305
▁трансп	-3306
▁Өзгөчө	-3307
▁органдары	-3308
▁билдирүүдө	-3309
▁60	-3310
▁Асан	-3311
▁окуп	-3312
▁аэроп	-3313
▁көмүр	-3314
чам	-3315
▁эгер	-3316
▁Бил	-3317
▁азык	-3318
▁соол	-3319
▁күйөө	-3320
чылары	-3321
▁үчүнчү	-3322
▁объект	-3323
▁колдогон	-3324
▁кызматташ	-3325
ылышы	-3326
▁энергия	-3327
▁айылында	-3328
▁документ	-3329
▁маалыматтарды	-3330
▁пасп	-3331
▁аткаруу	-3332
▁жылды	-3333
ашинг	-3334
▁тараптан	-3335
▁чың	-3336
▁толугу	-3337
▁футбол	-3338
▁балдардын	-3339
▁каражаттары	-3340
кл	-3341
сих	-3342
арак	-3343
▁таз	-3344
ондук	-3345
▁Парлам	-3346
▁атаанда	-3347
en	-3348
▁Я	-3349
есе	-3350
ктардын	-3351
▁илимий	-3352
▁жалпысынан	-3353
▁миңге	-3354
ордун	-3355
▁сынга	-3356
▁бербей	-3357
▁Сот	-3358
▁жокт	-3359
▁жарак	-3360
▁Эконом	-3361
▁жаштар	-3362
атынын	-3363
▁маалыматы	-3364
?"	-3365
▁НАТО	-3366
▁маж	-3367
▁уур	-3368
▁2017-	-3369
▁салды	-3370
▁тагдыр	-3371
▁Рос	-3372
▁дек	-3373
▁болууда	-3374
▁ака	-3375
емпир	-3376
▁бойдон	-3377
▁чечимин	-3378
▁көбүрөөк	-3379
▁партиясы	-3380
▁судья	-3381
▁Вашинг	-3382
▁Султан	-3383
▁жуктур	-3384
▁шектүү	-3385
гым	-3386
ушк	-3387
▁чал	-3388
▁Түндүк	-3389
▁кама	-3390
▁мамлекетке	-3391
ыйкат	-3392
▁Адам	-3393
мөнстан	-3394
▁армиясы	-3395
▁пикирин	-3396
▁комитет	-3397
▁миграция	-3398
арк	-3399
▁Жаз	-3400
▁өтпөй	-3401
▁Коронавирус	-3402
рад	-3403
▁жаңыл	-3404
▁мед	-3405
▁колдонуу	-3406
бө	-3407
▁Ц	-3408
ким	-3409
▁мунай	-3410
▁токтом	-3411
▁маегинде	-3412
▁доо	-3413
▁түнү	-3414
▁аткан	-3415
▁чөйр	-3416
▁эсеп	-3417
▁тургуну	-3418
анд	-3419
▁Үч	-3420
▁машин	-3421
▁таянып	-3422
▁канчалык	-3423
▁текшерүү	-3424
кон	-3425
▁тир	-3426
▁Орусиядагы	-3427
өттү	-3428
альный	-3429
▁аймактарда	-3430
al	-3431
аныш	-3432
ышууда	-3433
▁болмок	-3434
▁сүйлөшүү	-3435
▁долбоорлор	-3436
▁ген	-3437
▁кылат	-3438
▁камалган	-3439
▁активисттер	-3440
КУ	-3441
гул	-3442
▁өң	-3443
ектер	-3444
ыктуу	-3445
▁ооган	-3446
өлгөн	-3447
▁Аталган	-3448
▁районунда	-3449
гыр	-3450
ьян	-3451
▁турм	-3452
▁орнот	-3453
▁түрдүү	-3454
▁ишкерлер	-3455
▁айдан	-3456
▁келгенин	-3457
▁23	-3458
▁корку	-3459
▁тонна	-3460
▁Коргоо	-3461
▁адамды	-3462
▁Жан	-3463
▁иде	-3464
▁насыя	-3465
▁мөөнөтү	-3466
▁Пакистан	-3467
ойт	-3468
▁Төр	-3469
▁айга	-3470
▁кызматка	-3471
▁америкалык	-3472
бой	-3473
богон	-3474
▁Кадыр	-3475
▁милдетин	-3476
▁дарыгерлер	-3477
▁27	-3478
▁кин	-3479
▁театр	-3480
▁жетекчи	-3481
▁болгондуктан	-3482
▁кил	-3483
▁тоо	-3484
▁Орус	-3485
▁базар	-3486
▁Бакиев	-3487
▁чектөөлөр	-3488
СС	-3489
лап	-3490
▁кийим	-3491
үүлөрдү	-3492
сен	-3493
▁тастыкт	-3494
АМ	-3495
ттын	-3496
▁атып	-3497
▁билген	-3498
ерн	-3499
▁Эн	-3500
▁ооз	-3501
▁Башка	-3502
▁укугун	-3503
▁300	-3504
▁маалында	-3505
an	-3506
▁Токаев	-3507
▁издөө	-3508
▁калса	-3509
▁тоолуу	-3510
▁жүй	-3511
▁айлык	-3512
▁талаш	-3513
▁Эгерде	-3514
обил	-3515
дардан	-3516
ативдик	-3517
▁айтууда	-3518
▁сар	-3519
▁кара	-3520
▁берилет	-3521
▁Биримди	-3522
▁аргасыз	-3523
▁Навальный	-3524
▁түшүндүрмө	-3525
▁26	-3526
▁80	-3527
▁күз	-3528
▁кошо	-3529
▁аткыл	-3530
▁келат	-3531
ЭС	-3532
еж	-3533
агаз	-3534
▁убакы	-3535
▁эркинен	-3536
өбүз	-3537
ырган	-3538
▁апрел	-3539
▁качып	-3540
▁кетет	-3541
▁Курман	-3542
▁себепт	-3543
▁2010-	-3544
▁тартуу	-3545
ектен	-3546
▁Негиз	-3547
▁бирөө	-3548
▁өзбек	-3549
▁себеби	-3550
▁фр	-3551
▁Касым	-3552
▁жакындары	-3553
▁партиянын	-3554
▁иштей	-3555
▁көтөрүп	-3556
▁мей	-3557
угуна	-3558
▁эртең	-3559
▁адамдарды	-3560
50	-3561
▁тала	-3562
ктарды	-3563
ити	-3564
▁ави	-3565
▁бөгөт	-3566
еринин	-3567
▁калуу	-3568
▁ойлой	-3569
▁бизнес	-3570
▁алдынча	-3571
▁тынчсыздан	-3572
есур	-3573
▁түп	-3574
▁кабарланган	-3575
ушкан	-3576
▁жаза	-3577
▁экст	-3578
▁онлайн	-3579
▁Улуттар	-3580
▁баракчасына	-3581
▁коррупцияга	-3582
▁тийиш	-3583
▁дипломат	-3584
▁0	-3585
▁Үй	-3586
дөрүн	-3587
▁2016-	-3588
▁бүгүнкү	-3589
АМАС	-3590
▁ыра	-3591
▁Чыгы	-3592
▁көрсөтүү	-3593
▁төрагасынын	-3594
▁мектептер	-3595
▁маалыматта	-3596
рист	-3597
амир	-3598
▁сөөгү	-3599
▁колдоп	-3600
▁башталды	-3601
кай	-3602
▁кылын	-3603
▁мажбур	-3604
▁катышты	-3605
▁тарапта	-3606
▁чакырган	-3607
▁Республикасынын	-3608
▁дрон	-3609
▁Кошмо	-3610
▁Орусиядан	-3611
▁Сиз	-3612
▁жугуз	-3613
▁өзүнчө	-3614
▁болбосо	-3615
▁Улуу	-3616
▁болжол	-3617
амин	-3618
малар	-3619
▁алмаш	-3620
▁чыгат	-3621
ван	-3622
асст	-3623
▁мени	-3624
▁салма	-3625
▁коргоочу	-3626
▁70	-3627
өмбү	-3628
ктары	-3629
▁өзүм	-3630
▁түзүм	-3631
▁баалуу	-3632
▁эскертти	-3633
▁деңгээлде	-3634
▁кандайдыр	-3635
▁маалымдаган	-3636
▁сел	-3637
▁акыр	-3638
▁кагаз	-3639
ми	-3640
зак	-3641
▁менч	-3642
▁өртт	-3643
▁ресур	-3644
▁тийиштүү	-3645
▁компаниясынын	-3646
Суу	-3647
асма	-3648
енко	-3649
▁мел	-3650
ышканын	-3651
▁өнөктөшт	-3652
сей	-3653
▁ХАМАС	-3654
▁деңиз	-3655
▁стратег	-3656
▁аймактык	-3657
▁Вашингтон	-3658
емби	-3659
▁Бейш	-3660
▁Кумтөр	-3661
өгү	-3662
▁имп	-3663
▁пул	-3664
чилик	-3665
▁караб	-3666
▁аягына	-3667
▁Мурдагы	-3668
бызды	-3669
▁салым	-3670
▁жараша	-3671
ель	-3672
▁Рах	-3673
үктү	-3674
▁Менин	-3675
▁эмгект	-3676
▁R	-3677
▁тос	-3678
гөнүн	-3679
▁бары	-3680
бекова	-3681
ларынын	-3682
гөз	-3683
Кумтөр	-3684
▁чыгуу	-3685
▁майрам	-3686
▁Ирандын	-3687
▁Фин	-3688
артам	-3689
кулов	-3690
▁жандан	-3691
19	-3692
уң	-3693
амат	-3694
▁го	-3695
▁Мына	-3696
импиада	-3697
▁азайт	-3698
▁жөнгө	-3699
▁аныкталды	-3700
анс	-3701
▁Сар	-3702
▁Түркмөнстан	-3703
өң	-3704
▁өмүрүн	-3705
▁кырдаалдар	-3706
алаган	-3707
▁гектар	-3708
▁гуманитардык	-3709
▁Жо	-3710
▁сек	-3711
▁терең	-3712
үгүнө	-3713
▁багыт	-3714
▁убагында	-3715
ейл	-3716
▁Алексан	-3717
▁ни	-3718
ешет	-3719
▁Кел	-3720
терди	-3721
▁кана	-3722
уктагы	-3723
▁Жапон	-3724
▁ыкчам	-3725
▁таандык	-3726
▁мусулман	-3727
жаза	-3728
▁түй	-3729
▁жараткан	-3730
▁келгенде	-3731
Ак	-3732
ларына	-3733
▁фондун	-3734
▁камт	-3735
▁тутк	-3736
▁укуктук	-3737
▁чыгарма	-3738
▁келаткан	-3739
▁террордук	-3740
▁аймактарында	-3741
ge	-3742
ша	-3743
▁28	-3744
▁мин	-3745
▁Дагы	-3746
▁кылмыштуу	-3747
▁Газа	-3748
▁псих	-3749
▁Ошентип	-3750
▁Ima	-3751
▁ишкер	-3752
тен	-3753
▁жокп	-3754
▁талиб	-3755
▁кооптуу	-3756
ну	-3757
дикке	-3758
иктин	-3759
▁макам	-3760
ырмалуу	-3761
икация	-3762
▁кыйла	-3763
▁төлөп	-3764
▁өздөрү	-3765
▁облустарынын	-3766
▁Ос	-3767
▁Кул	-3768
▁конц	-3769
▁жаман	-3770
Талибан	-3771
▁кеңири	-3772
▁тарыхый	-3773
▁ла	-3774
тация	-3775
▁учак	-3776
▁Назар	-3777
▁билбей	-3778
▁өзүбүз	-3779
▁аймагына	-3780
▁материал	-3781
▁жарандардын	-3782
▁жем	-3783
▁эсе	-3784
▁атат	-3785
чылардын	-3786
▁чакырып	-3787
▁мыйзамды	-3788
шат	-3789
▁Ап	-3790
ишин	-3791
▁атыш	-3792
▁аянт	-3793
▁фракция	-3794
▁укуктарын	-3795
▁багытталган	-3796
ирип	-3797
▁төлөм	-3798
▁туулган	-3799
омол	-3800
▁Дүйнө	-3801
▁чагыл	-3802
ура	-3803
▁Ка	-3804
ыгына	-3805
▁кетүү	-3806
▁кишиге	-3807
▁аймакта	-3808
олю	-3809
тун	-3810
далды	-3811
▁элди	-3812
▁бузуу	-3813
▁тартиб	-3814
▁өлкөлүк	-3815
▁районундагы	-3816
▁Араб	-3817
▁Коом	-3818
елерин	-3819
▁Журналист	-3820
▁болгондор	-3821
▁март	-3822
▁айынын	-3823
▁анализ	-3824
▁Израилдин	-3825
▁B	-3826
еттен	-3827
▁абакта	-3828
▁кетүүгө	-3829
▁мыйзамдын	-3830
▁жиги	-3831
▁көйгөйлөр	-3832
түлүк	-3833
уусуна	-3834
▁күтүп	-3835
▁Ошондо	-3836
ферендум	-3837
▁Александр	-3838
▁кызматына	-3839
▁G	-3840
тым	-3841
диктин	-3842
▁бөлүмүнүн	-3843
оч	-3844
▁окр	-3845
рессия	-3846
▁долларга	-3847
▁жабыркаган	-3848
▁акыл	-3849
▁мал	-3850
▁кагы	-3851
мб	-3852
▁Оку	-3853
▁арх	-3854
▁өлч	-3855
▁Груз	-3856
▁шартт	-3857
▁Интерн	-3858
▁максаты	-3859
укаш	-3860
▁Бор	-3861
▁күчтүү	-3862
дой	-3863
▁өрт	-3864
алына	-3865
үшүнө	-3866
▁сурап	-3867
▁Пр	-3868
▁Кол	-3869
▁статист	-3870
▁Беларус	-3871
▁калганы	-3872
маны	-3873
үтүн	-3874
ерине	-3875
▁чакан	-3876
▁сотунун	-3877
▁кармалганын	-3878
Биз	-3879
тып	-3880
арип	-3881
үнчө	-3882
▁31-	-3883
▁каралып	-3884
▁жел	-3885
уткар	-3886
▁кылым	-3887
▁токтотуу	-3888
лери	-3889
▁жабык	-3890
▁отуруп	-3891
ивдүү	-3892
▁аким	-3893
▁2015-	-3894
▁Атайын	-3895
▁Тергөө	-3896
▁тарбия	-3897
министри	-3898
▁каалаган	-3899
▁техникалык	-3900
▁Кыргызстандан	-3901
тту	-3902
чын	-3903
▁Бээ	-3904
▁Тай	-3905
▁ток	-3906
▁кездеги	-3907
▁беренеси	-3908
ушат	-3909
▁Кат	-3910
▁үндө	-3911
▁бекит	-3912
▁тарат	-3913
▁негизинен	-3914
▁республикалык	-3915
урт	-3916
▁капт	-3917
▁өнүгүү	-3918
▁жетиштүү	-3919
▁борборунун	-3920
▁Мух	-3921
▁пен	-3922
Манас	-3923
дарда	-3924
▁Кал	-3925
▁Чын	-3926
▁Ташк	-3927
▁түзүл	-3928
дарында	-3929
ашат	-3930
онст	-3931
▁Эмне	-3932
▁иштейт	-3933
▁таасирин	-3934
▁референдум	-3935
▁салыштырмалуу	-3936
▁ша	-3937
ткон	-3938
▁болоб	-3939
рык	-3940
доган	-3941
өктүк	-3942
▁Сотт	-3943
▁абалда	-3944
▁жалган	-3945
▁көрүнүш	-3946
▁жатканына	-3947
Ор	-3948
егин	-3949
▁блог	-3950
▁барды	-3951
▁кароо	-3952
▁жүзүндө	-3953
▁Конституция	-3954
▁Президенттин	-3955
хм	-3956
▁аптада	-3957
▁жапырт	-3958
рек	-3959
▁фил	-3960
▁алганда	-3961
▁департам	-3962
дөрдүн	-3963
▁Болот	-3964
▁Кемпир	-3965
▁билдирүүсүндө	-3966
▁арз	-3967
сентябр	-3968
▁топтун	-3969
▁эмнеге	-3970
▁Эрдоган	-3971
▁ыйгарым	-3972
▁Москвада	-3973
▁калышы	-3974
▁комитеттин	-3975
▁Ким	-3976
▁зор	-3977
▁жасалма	-3978
▁камакта	-3979
▁тармактарда	-3980
▁33	-3981
▁проф	-3982
жай	-3983
▁Демек	-3984
▁бизде	-3985
▁адистер	-3986
▁жаап	-3987
▁фонд	-3988
▁чалдык	-3989
▁ишмерди	-3990
баш	-3991
пайбы	-3992
▁чыгарды	-3993
▁90	-3994
▁кич	-3995
анада	-3996
келин	-3997
▁тегер	-3998
▁алышкан	-3999
▁Бизде	-4000
▁жарык	-4001
▁технология	-4002
зин	-4003
ансы	-4004
ноябр	-4005
икти	-4006
▁сов	-4007
▁алыс	-4008
▁жүргүзгөн	-4009
чет	-4010
▁жыйында	-4011
▁окумушт	-4012
202	-4013
▁уланып	-4014
▁айыптап	-4015
▁система	-4016
ter	-4017
пон	-4018
ыск	-4019
▁алак	-4020
▁көлөмү	-4021
▁уюмдун	-4022
ымды	-4023
үрүм	-4024
▁июн	-4025
▁коюу	-4026
▁илдет	-4027
▁кишини	-4028
▁Бүгүнкү	-4029
министративдик	-4030
ник	-4031
▁су	-4032
▁көргөз	-4033
▁кырдаалды	-4034
усту	-4035
▁Шаар	-4036
▁оорул	-4037
▁кайтарып	-4038
▁Хар	-4039
▁кызматтар	-4040
итт	-4041
ктарга	-4042
▁өлчөм	-4043
▁жумушчу	-4044
▁тажрыйб	-4045
▁коргонуу	-4046
▁төг	-4047
тарды	-4048
▁элем	-4049
ец	-4050
201	-4051
ани	-4052
доого	-4053
▁жумушт	-4054
▁айтышты	-4055
▁алектен	-4056
▁Жергиликтүү	-4057
дуул	-4058
▁убакта	-4059
үгүр	-4060
алиева	-4061
едерация	-4062
▁болбогон	-4063
кыр	-4064
...-	-4065
ергей	-4066
естин	-4067
спүрүм	-4068
▁батир	-4069
премьер	-4070
▁чалдыккан	-4071
▁билдиришти	-4072
▁темп	-4073
▁февр	-4074
диктүү	-4075
ыктыяр	-4076
▁Караб	-4077
▁менчик	-4078
кыл	-4079
▁Тел	-4080
дерин	-4081
чунун	-4082
▁тасм	-4083
▁Бийлик	-4084
▁Путиндин	-4085
лин	-4086
уусунда	-4087
▁паспорт	-4088
▁маданият	-4089
▁карабастан	-4090
▁Карак	-4091
▁эмдөө	-4092
▁өнүктүр	-4093
▁катталды	-4094
ейсбуктагы	-4095
▁Украинада	-4096
оолуу	-4097
▁Лукаш	-4098
▁ачылган	-4099
▁арналган	-4100
▁прокурор	-4101
▁жарыяланды	-4102
алю	-4103
айбыз	-4104
▁өчүр	-4105
▁атасы	-4106
▁Шайлоо	-4107
иров	-4108
улла	-4109
▁жоок	-4110
▁узарт	-4111
▁алууну	-4112
▁Сай	-4113
ирген	-4114
▁заман	-4115
үбүз	-4116
өткө	-4117
далып	-4118
еттүү	-4119
оро	-4120
чулук	-4121
атбек	-4122
▁толк	-4123
▁Сергей	-4124
▁дайындалган	-4125
ККУ	-4126
еев	-4127
▁Ата	-4128
ограф	-4129
▁милдеттен	-4130
▁бетт	-4131
▁коңшу	-4132
▁таштап	-4133
or	-4134
▁P	-4135
ант	-4136
дору	-4137
▁чалгын	-4138
ресс	-4139
ценз	-4140
иядан	-4141
▁Молд	-4142
бра	-4143
▁ca	-4144
▁Мекеменин	-4145
▁университетинин	-4146
азы	-4147
өрдү	-4148
▁Жыл	-4149
▁Укук	-4150
бүлөлүк	-4151
▁дарыгер	-4152
▁келишет	-4153
▁курултай	-4154
дүм	-4155
▁мон	-4156
▁конт	-4157
ованын	-4158
▁Акаев	-4159
▁палат	-4160
▁чогулган	-4161
▁Конституциялык	-4162
зат	-4163
абыт	-4164
бург	-4165
кара	-4166
▁сент	-4167
▁колго	-4168
▁август	-4169
▁рез	-4170
ption	-4171
▁теск	-4172
▁бериши	-4173
▁кымбат	-4174
▁жетекчилери	-4175
▁35	-4176
олоң	-4177
▁Ада	-4178
▁зал	-4179
▁моюн	-4180
▁көрүү	-4181
▁ыктыяр	-4182
▁териштирүү	-4183
▁электрондук	-4184
их	-4185
▁чөл	-4186
рыкча	-4187
▁Image	-4188
▁чыгарылган	-4189
▁жүкт	-4190
елердин	-4191
▁толтур	-4192
▁caption	-4193
▁Ушундай	-4194
▁кийлиги	-4195
▁негизде	-4196
▁башаламандык	-4197
шан	-4198
гази	-4199
▁Чол	-4200
аштыр	-4201
▁киргизген	-4202
▁тургундар	-4203
өнүп	-4204
чилер	-4205
▁мыйзамдуу	-4206
▁жетекчилиги	-4207
▁коопсуздугун	-4208
30	-4209
дый	-4210
шет	-4211
паган	-4212
чо	-4213
ткө	-4214
үтт	-4215
▁но	-4216
үгүт	-4217
▁реда	-4218
▁ойлон	-4219
▁баласы	-4220
▁курган	-4221
▁көрүүгө	-4222
▁Эң	-4223
▁Газ	-4224
▁түшт	-4225
▁2014-	-4226
▁суракка	-4227
▁саясатчылар	-4228
▁райондорунда	-4229
огул	-4230
дырган	-4231
▁артка	-4232
▁көрүнү	-4233
▁талдоо	-4234
▁саналат	-4235
▁чыгышты	-4236
▁экономика	-4237
▁сутк	-4238
▁Ислам	-4239
▁кошул	-4240
▁Тоолуу	-4241
▁Милиция	-4242
▁кызматтын	-4243
ar	-4244
ме	-4245
лов	-4246
▁32	-4247
▁Жең	-4248
▁аткамин	-4249
▁биринде	-4250
ияны	-4251
▁Окт	-4252
▁үгүт	-4253
▁кишил	-4254
▁ойлойм	-4255
▁Москванын	-4256
лыктар	-4257
орттук	-4258
▁издеп	-4259
Таш	-4260
альд	-4261
▁иштеш	-4262
▁кыска	-4263
▁мобил	-4264
аланган	-4265
▁куткар	-4266
▁чөйрө	-4267
▁саясаты	-4268
▁өзөктүк	-4269
▁уюмдардын	-4270
▁чечил	-4271
▁шаары	-4272
▁маркум	-4273
▁кишилер	-4274
▁камагына	-4275
▁колдонуп	-4276
айман	-4277
▁үмүт	-4278
▁процес	-4279
▁туткун	-4280
▁комплек	-4281
▁кооптон	-4282
▁күрөшүү	-4283
▁Ала	-4284
▁Сов	-4285
▁жатам	-4286
▁Депутат	-4287
▁демонст	-4288
▁F	-4289
▁M	-4290
▁набыт	-4291
▁облусу	-4292
▁тобунун	-4293
аф	-4294
▁Ник	-4295
ератур	-4296
▁бөлүп	-4297
▁тапты	-4298
кал	-4299
▁шартта	-4300
▁Алексей	-4301
▁коррупциялык	-4302
кту	-4303
▁берб	-4304
▁фактыл	-4305
▁болгондордун	-4306
арда	-4307
штары	-4308
▁алба	-4309
▁Аскар	-4310
▁үйүнө	-4311
▁өмүрү	-4312
▁комиссиясынын	-4313
▁тест	-4314
▁форм	-4315
▁ысым	-4316
▁кымбатт	-4317
▁маданий	-4318
▁автордук	-4319
▁Аф	-4320
▁күбө	-4321
▁Чолпон	-4322
▁сүйлөп	-4323
▁өлкөлөрү	-4324
▁Вен	-4325
▁сак	-4326
тардын	-4327
▁консул	-4328
▁арадагы	-4329
▁келтирген	-4330
▁пара	-4331
▁дарыг	-4332
▁танда	-4333
▁жоопко	-4334
▁Атамбаевдин	-4335
▁байланышкан	-4336
▁Сур	-4337
▁сып	-4338
▁ачып	-4339
▁жараян	-4340
▁аныктоо	-4341
▁табылды	-4342
▁экстрем	-4343
▁өткөргөн	-4344
▁улут	-4345
▁Райым	-4346
▁алышы	-4347
иясынын	-4348
агым	-4349
▁сына	-4350
▁Сал	-4351
▁инт	-4352
▁кадр	-4353
▁прот	-4354
▁аткаруучу	-4355
▁департамент	-4356
уф	-4357
ыкта	-4358
адагы	-4359
▁Стам	-4360
▁алабыз	-4361
▁башкача	-4362
▁уюштуруу	-4363
▁милдеттүү	-4364
▁Өзбекстанда	-4365
ком	-4366
мур	-4367
▁36	-4368
...2	-4369
▁союз	-4370
▁округ	-4371
▁байкоо	-4372
▁мүмкүнчүлүгү	-4373
▁Ибра	-4374
▁терс	-4375
▁келтирүү	-4376
▁үн	-4377
▁үлгү	-4378
▁Мирзи	-4379
▁Мамлекет	-4380
▁автоунаа	-4381
▁температур	-4382
▁Бейшен	-4383
▁Бээжин	-4384
▁вакцина	-4385
▁аяктаган	-4386
▁башталгандан	-4387
▁доор	-4388
▁жери	-4389
▁Уюмунун	-4390
▁Түркияда	-4391
▁ишмердүүл	-4392
үккө	-4393
▁198	-4394
▁Нар	-4395
пания	-4396
▁көрө	-4397
▁учуп	-4398
аланып	-4399
▁таасири	-4400
▁сүйлөшүп	-4401
▁тургундары	-4402
▁кызматташтык	-4403
▁министрлигине	-4404
ида	-4405
ттык	-4406
▁Поль	-4407
думаров	-4408
at	-4409
Ар	-4410
▁Пол	-4411
▁аст	-4412
▁рубл	-4413
▁кагып	-4414
▁Аман	-4415
▁ачкан	-4416
▁сөзсүз	-4417
▁өспүрүм	-4418
гандардын	-4419
▁өлкөлөрдө	-4420
имин	-4421
үкөн	-4422
▁Жам	-4423
▁жуу	-4424
▁көк	-4425
▁Ороз	-4426
▁клим	-4427
актагы	-4428
▁Кызыл	-4429
▁күнөөлүү	-4430
▁Мадумаров	-4431
▁аялдардын	-4432
▁күчтөрүнүн	-4433
Эр	-4434
мир	-4435
▁аймагындагы	-4436
бап	-4437
▁нач	-4438
▁масс	-4439
▁күнөө	-4440
чылыктар	-4441
▁аягында	-4442
▁келбейт	-4443
лору	-4444
өкөй	-4445
▁автоб	-4446
▁жашка	-4447
▁жубай	-4448
КМ	-4449
▁жам	-4450
үктүн	-4451
▁кеңс	-4452
▁Бакыт	-4453
▁Франция	-4454
ели	-4455
▁жээ	-4456
▁Жакын	-4457
▁келсе	-4458
▁факты	-4459
▁коммер	-4460
▁чаралар	-4461
▁айылынын	-4462
▁медицина	-4463
▁жетектеген	-4464
▁мамлекеттердин	-4465
▁Дин	-4466
▁диплом	-4467
▁карама	-4468
▁чөлкөм	-4469
▁Дональд	-4470
▁жайгаштыр	-4471
▁Парламентт	-4472
▁муун	-4473
▁Өмүрбек	-4474
▁алдындагы	-4475
▁башкармалыгы	-4476
ССР	-4477
▁Билим	-4478
▁медиа	-4479
деринин	-4480
▁Ошондон	-4481
▁кечинде	-4482
▁ресурст	-4483
▁жүргүзүү	-4484
▁коомчулук	-4485
▁эркиндиги	-4486
гол	-4487
анов	-4488
үшүн	-4489
▁узак	-4490
▁Евраз	-4491
▁жарыялап	-4492
▁соттолгон	-4493
инц	-4494
▁реп	-4495
өшкөн	-4496
▁айтат	-4497
▁Маселен	-4498
▁адамдан	-4499
▁сактагы	-4500
▁шаарына	-4501
▁катталып	-4502
чер	-4503
ырма	-4504
▁үйдө	-4505
▁келиши	-4506
▁жаракат	-4507
▁нааразыл	-4508
▁коргоочулар	-4509
көн	-4510
шту	-4511
шкон	-4512
макка	-4513
▁өлүмү	-4514
▁болобу	-4515
▁дүйнөдө	-4516
▁как	-4517
▁рын	-4518
▁завод	-4519
▁акчаны	-4520
▁жыйынт	-4521
▁салууга	-4522
▁тр	-4523
аныч	-4524
▁ээси	-4525
▁жуккан	-4526
▁кандуу	-4527
▁ойно	-4528
▁Осмон	-4529
▁эпиде	-4530
▁келбей	-4531
▁окшойт	-4532
▁келатат	-4533
▁кеткени	-4534
▁Азиядагы	-4535
▁өкмөтүнүн	-4536
олу	-4537
түз	-4538
еграм	-4539
ордукт	-4540
▁бизди	-4541
▁күрөшт	-4542
▁калктын	-4543
агн	-4544
ттагы	-4545
чылыкка	-4546
▁кетиши	-4547
▁партиялар	-4548
▁комиссиянын	-4549
АЭБ	-4550
кыз	-4551
▁ГЭС	-4552
▁жүйө	-4553
▁зомбулук	-4554
үлө	-4555
▁Кээ	-4556
үгүндө	-4557
▁оппози	-4558
▁сыпатт	-4559
▁W	-4560
ишет	-4561
ышып	-4562
▁карай	-4563
▁окуяс	-4564
▁сапары	-4565
▁бардыгы	-4566
▁коомдун	-4567
▁станция	-4568
атына	-4569
азаров	-4570
▁жүгүр	-4571
▁саналып	-4572
▁Москвага	-4573
▁талкууга	-4574
ыгып	-4575
▁кыскарт	-4576
▁тараптын	-4577
▁Олимпиада	-4578
деш	-4579
гинен	-4580
радус	-4581
▁берсе	-4582
▁кысым	-4583
▁кезекте	-4584
▁кылууга	-4585
▁дүйнөдөгү	-4586
▁маалыматтарга	-4587
▁коронавирустун	-4588
ындап	-4589
▁ашты	-4590
▁кете	-4591
▁иштеб	-4592
▁берилип	-4593
▁бийлигинин	-4594
шып	-4595
▁айым	-4596
▁мүлкт	-4597
▁градус	-4598
▁айыпталып	-4599
ебин	-4600
▁аралы	-4601
▁күчөп	-4602
▁алдына	-4603
▁элчиси	-4604
дет	-4605
▁эш	-4606
абек	-4607
▁музык	-4608
▁качкын	-4609
▁арасынан	-4610
▁кийлигиш	-4611
▁аймактагы	-4612
▁ооруканада	-4613
Эл	-4614
па	-4615
овин	-4616
▁көм	-4617
▁сапар	-4618
▁Стамбул	-4619
▁чыгууга	-4620
▁Көл	-4621
▁ыңг	-4622
▁жама	-4623
▁өсүп	-4624
оратор	-4625
▁Бишкекке	-4626
▁Кой	-4627
▁Айыл	-4628
алынын	-4629
олюция	-4630
▁музей	-4631
▁Азырынча	-4632
▁делген	-4633
▁каршылык	-4634
▁парламентте	-4635
▁органдарынын	-4636
дейт	-4637
пейт	-4638
унду	-4639
▁оңой	-4640
▁пост	-4641
▁атаган	-4642
▁H	-4643
Бул	-4644
ажы	-4645
имче	-4646
▁Улан	-4647
▁тейл	-4648
▁алышат	-4649
▁жүздөгөн	-4650
▁байланышы	-4651
).	-4652
ra	-4653
еме	-4654
ысын	-4655
▁Акт	-4656
▁Крым	-4657
үлүүдө	-4658
▁АКШда	-4659
▁сотто	-4660
▁Мирзиё	-4661
гуу	-4662
иканын	-4663
▁ачыкка	-4664
▁Сам	-4665
▁Меди	-4666
▁кечир	-4667
▁кирет	-4668
▁балдарды	-4669
▁болбосун	-4670
▁аракеттен	-4671
▁көзөмөлдөө	-4672
тим	-4673
эри	-4674
айлык	-4675
ылбай	-4676
▁дост	-4677
дуулук	-4678
▁Кудай	-4679
▁Өкмөтт	-4680
▁жанында	-4681
▁дүйнөнүн	-4682
▁чам	-4683
▁Теке	-4684
▁атап	-4685
▁дүкөн	-4686
▁тасма	-4687
▁инфекция	-4688
":	-4689
▁жетпей	-4690
▁катаал	-4691
▁жугузуп	-4692
▁меч	-4693
▁мыр	-4694
▁өлгөн	-4695
▁иштерди	-4696
▁Британиянын	-4697
▁журналисттерге	-4698
▁400	-4699
чуларды	-4700
▁мекеме	-4701
▁балдары	-4702
▁адвокаты	-4703
▁депутаттык	-4704
▁дипломатиялык	-4705
ло	-4706
рий	-4707
▁Св	-4708
▁Сог	-4709
▁Итал	-4710
▁сана	-4711
▁сындап	-4712
▁чыкпай	-4713
▁тараган	-4714
▁31	-4715
апар	-4716
▁ийгил	-4717
▁академия	-4718
▁экспортт	-4719
▁айрымдары	-4720
▁бирдиктүү	-4721
▁маселелерди	-4722
▁Шар	-4723
▁мына	-4724
▁жыйынтык	-4725
ияз	-4726
лав	-4727
▁	-4728
а	-4729
н	-4730
к	-4731
р	-4732
т	-4733
ы	-4734
е	-4735
и	-4736
л	-4737
д	-4738
у	-4739
о	-4740
г	-4741
м	-4742
б	-4743
с	-4744
ү	-4745
ө	-4746
ш	-4747
п	-4748
й	-4749
ж	-4750
з	-4751
ч	-4752
.	-4753
,	-4754
э	-4755
я	-4756
-	-4757
в	-4758
"	-4759
А	-4760
К	-4761
Б	-4762
ң	-4763
1	-4764
ю	-4765
М	-4766
0	-4767
2	-4768
ц	-4769
С	-4770
Т	-4771
О	-4772
Ж	-4773
У	-4774
ф	-4775
Э	-4776
3	-4777
5	-4778
х	-4779
И	-4780
ь	-4781
9	-4782
4	-4783
Д	-4784
П	-4785
Ш	-4786
7	-4787
6	-4788
8	-4789
Н	-4790
:	-4791
Р	-4792
Ө	-4793
)	-4794
(	-4795
Ч	-4796
Г	-4797
?	-4798
e	-4799
В	-4800
a	-4801
Е	-4802
o	-4803
Ф	-4804
Л	-4805
Х	-4806
i	-4807
t	-4808
n	-4809
r	-4810
%	-4811
I	-4812
З	-4813
s	-4814
Ы	-4815
C	-4816
l	-4817
c	-4818
m	-4819
Ү	-4820
A	-4821
u	-4822
N	-4823
g	-4824
T	-4825
ё	-4826
V	-4827
D	-4828
!	-4829
;	-4830
O	-4831
h	-4832
p	-4833
k	-4834
S	-4835
d	-4836
Ю	-4837
R	-4838
B	-4839
P	-4840
Ц	-4841
M	-4842
y	-4843
F	-4844
K	-4845
+	-4846
ъ	-4847
/	-4848
G	-4849
b	-4850
E	-4851
v	-4852
W	-4853
Я	-4854
w	-4855
L	-4856
H	-4857
Й	-4858
z	-4859
Z	-4860
X	-4861
ӊ	-4862
°	-4863
f	-4864
U	-4865
Y	-4866
щ	-4867
ѳ	-4868
x	-4869
J	-4870
[	-4871
]	-4872
­	-4873
Q	-4874
*	-4875
'	-4876
j	-4877
Ё	-4878
#	-4879
q	-4880
$	-4881
і	-4882
&	-4883
қ	-4884
ı	-4885
ɵ	-4886
\	-4887
Ѳ	-4888
І	-4889
_	-4890
Қ	-4891
@	-4892
ü	-4893
Ş	-4894
ş	-4895
Ɵ	-4896
Щ	-4897
−	-4898
ә	-4899
`	-4900
ғ	-4901
·	-4902
ا	-4903
=	-4904
ç	-4905
é	-4906
İ	-4907
⠀	-4908
️	-4909
¬	-4910
ə	-4911
ұ	-4912
•	-4913
▪	-4914
ö	-4915
ğ	-4916
Ң	-4917
©	-4918
́	-4919
ل	-4920
Ü	-4921
á	-4922
ʙ	-4923
Ь	-4924
ҳ	-4925
ق	-4926
⁄	-4927
→	-4928
昆	-4929
Ç	-4930
Ö	-4931
â	-4932
í	-4933
ï	-4934
љ	-4935
Ұ	-4936
ҷ	-4937
ӏ	-4938
Ә	-4939
ح	-4940
و	-4941
ُ	-4942
―	-4943
⁣	-4944
●	-4945
堅	-4946
鄄	-4947
韓	-4948
鬲	-4949
{	-4950
}	-4951
£	-4952
§	-4953
Ñ	-4954
ß	-4955
ã	-4956
ä	-4957
è	-4958
ñ	-4959
ā	-4960
ą	-4961
Ŋ	-4962
Š	-4963
ū	-4964
ƚ	-4965
Ƣ	-4966
ƣ	-4967
ʼ	-4968
̧	-4969
Ђ	-4970
Ъ	-4971
ђ	-4972
ї	-4973
ћ	-4974
ў	-4975
һ	-4976
ӯ	-4977
خ	-4978
د	-4979
ر	-4980
ز	-4981
ص	-4982
ط	-4983
ظ	-4984
ع	-4985
غ	-4986
ك	-4987
م	-4988
ن	-4989
ه	-4990
ي	-4991
ِ	-4992
‒	-4993
⁠	-4994
回	-4995
族	-4996
