[UNK]	0
[CLS]	1
[SEP]	2
[PAD]	3
[MASK]	4
!	5
"	6
#	7
$	8
%	9
&	10
'	11
(	12
)	13
*	14
+	15
,	16
-	17
.	18
/	19
0	20
1	21
2	22
3	23
4	24
5	25
6	26
7	27
8	28
9	29
:	30
;	31
=	32
?	33
@	34
[	35
\	36
]	37
_	38
`	39
a	40
b	41
c	42
d	43
e	44
f	45
g	46
h	47
i	48
j	49
k	50
l	51
m	52
n	53
o	54
p	55
q	56
r	57
s	58
t	59
u	60
v	61
w	62
x	63
y	64
z	65
{	66
}	67
£	68
§	69
©	70
¬	71
­	72
°	73
·	74
ß	75
á	76
â	77
ã	78
ä	79
ç	80
è	81
é	82
í	83
ï	84
ñ	85
ö	86
ü	87
ā	88
ą	89
ğ	90
ı	91
ŋ	92
ş	93
š	94
ū	95
ƚ	96
ƣ	97
ə	98
ɵ	99
ʙ	100
ʼ	101
́	102
̇	103
̧	104
а	105
б	106
в	107
г	108
д	109
е	110
ж	111
з	112
и	113
й	114
к	115
л	116
м	117
н	118
о	119
п	120
р	121
с	122
т	123
у	124
ф	125
х	126
ц	127
ч	128
ш	129
щ	130
ъ	131
ы	132
ь	133
э	134
ю	135
я	136
ё	137
ђ	138
і	139
ї	140
љ	141
ћ	142
ў	143
ѳ	144
ғ	145
қ	146
ң	147
ү	148
ұ	149
ҳ	150
ҷ	151
һ	152
ӊ	153
ӏ	154
ә	155
ө	156
ӯ	157
ا	158
ح	159
خ	160
د	161
ر	162
ز	163
ص	164
ط	165
ظ	166
ع	167
غ	168
ق	169
ك	170
ل	171
م	172
ن	173
ه	174
و	175
ي	176
ُ	177
ِ	178
‎	179
‒	180
―	181
•	182
⁄	183
⁠	184
⁣	185
→	186
−	187
▪	188
●	189
⠀	190
回	191
堅	192
族	193
昆	194
鄄	195
韓	196
鬲	197
	198
️	199
##и	200
##л	201
##к	202
##е	203
##р	204
##2	205
##5	206
##ч	207
##у	208
##н	209
##г	210
##ы	211
##м	212
##а	213
##ж	214
##й	215
##ш	216
##т	217
##о	218
##д	219
##ь	220
##з	221
##ү	222
##ө	223
##с	224
##х	225
##ц	226
##б	227
##в	228
##п	229
##ю	230
##я	231
##o	232
##m	233
##a	234
##d	235
##ё	236
##e	237
##c	238
##r	239
##t	240
##i	241
##6	242
##ф	243
##y	244
##s	245
##n	246
##l	247
##ң	248
##v	249
##ӊ	250
##b	251
##u	252
##p	253
##э	254
##g	255
##1	256
##h	257
##4	258
##7	259
##z	260
##k	261
##f	262
##8	263
##ü	264
##щ	265
##w	266
##ұ	267
##0	268
##9	269
##q	270
##.	271
##3	272
##ғ	273
##:	274
##j	275
##x	276
##ъ	277
##ѳ	278
##ə	279
##ɵ	280
##ğ	281
##ı	282
##ş	283
##)	284
##,	285
##"	286
##á	287
##[	288
##/	289
##́	290
##]	291
##_	292
##‎	293
##ç	294
##ә	295
##і	296
##қ	297
##ą	298
##ū	299
##ä	300
##!	301
##â	302
##ӏ	303
##­	304
##ҳ	305
##ñ	306
##$	307
##̇	308
##-	309
##ï	310
##ã	311
##ß	312
##昆	313
##?	314
##;	315
###	316
##+	317
##é	318
##&	319
##ö	320
##韓	321
##í	322
##è	323
##ї	324
##族	325
##}	326
##ُ	327
##و	328
##ِ	329
##ز	330
##ā	331
##ل	332
##ع	333
##ا	334
##ص	335
##ي	336
##ђ	337
##ӯ	338
##ҷ	339
##ƚ	340
##ў	341
##ط	342
##ق	343
##ن	344
##ك	345
##ح	346
##*	347
##م	348
##د	349
##⁣	350
##ƣ	351
##©	352
##(	353
##ʼ	354
##ћ	355
##ه	356
##ر	357
##ʙ	358
##љ	359
##ан	360
##ар	361
##ын	362
##ен	363
##ал	364
##ин	365
##ат	366
##ер	367
##да	368
##уу	369
##ол	370
##кт	371
##ыл	372
##ай	373
##үн	374
##ган	375
##ир	376
##ун	377
ал	378
##ды	379
##гы	380
##ор	381
##он	382
##ур	383
##ет	384
##ст	385
##ия	386
##ек	387
##ил	388
##шт	389
##га	390
##ел	391
##ам	392
##ул	393
##ыр	394
##ык	395
ба	396
жа	397
##өр	398
ай	399
##ып	400
##оо	401
##ик	402
бол	403
##өн	404
де	405
##үү	406
##шк	407
##ак	408
##ана	409
##тт	410
##дын	411
бир	412
мен	413
##ген	414
##ди	415
##ас	416
##ыз	417
##де	418
##ары	419
##ында	420
ар	421
кар	422
##үр	423
менен	424
##из	425
да	426
##ап	427
эл	428
ко	429
##ук	430
##дар	431
##ий	432
ан	433
##аб	434
жана	435
##ок	436
##атт	437
##ым	438
бер	439
##тк	440
кө	441
##ов	442
##дө	443
##стан	444
##дан	445
эк	446
##ес	447
##ог	448
##им	449
##ый	450
жат	451
##ей	452
кыр	453
##ус	454
ор	455
ма	456
кел	457
##ча	458
##ция	459
жыл	460
бул	461
##кан	462
##уп	463
##үл	464
##гыз	465
деп	466
##ына	467
##ра	468
кыргыз	469
##өл	470
өз	471
та	472
##ист	473
##ма	474
тур	475
##ип	476
##ыш	477
##ев	478
со	479
##ду	480
бар	481
##ез	482
эм	483
##ку	484
тар	485
##ект	486
пр	487
кыз	488
##гө	489
##ги	490
ак	491
бо	492
##ден	493
##ынын	494
##ем	495
##алган	496
ка	497
##етт	498
бил	499
##юн	500
##дык	501
##дин	502
##гон	503
ат	504
аз	505
##аган	506
##ск	507
жар	508
##лан	509
##дагы	510
##үз	511
##ли	512
чы	513
үч	514
са	515
##ге	516
##лар	517
##үп	518
##дам	519
##ба	520
##өт	521
кыл	522
эле	523
##ка	524
##ит	525
##сы	526
кат	527
##еп	528
өл	529
##иш	530
кыргызстан	531
айт	532
##уш	533
маал	534
ош	535
##бек	536
##гөн	537
кор	538
ишт	539
##алык	540
##дир	541
##алуу	542
##ери	543
боюн	544
мам	545
боюнча	546
##ум	547
20	548
##уз	549
кызм	550
то	551
маалым	552
кай	553
##нын	554
билдир	555
орус	556
##инин	557
болгон	558
туу	559
кал	560
тал	561
##дай	562
үчүн	563
##үй	564
көр	565
##инде	566
кол	567
жол	568
иш	569
жаткан	570
##еч	571
##ең	572
алар	573
##үм	574
##иден	575
##от	576
башк	577
##до	578
өлк	579
##лек	580
##ыкт	581
биз	582
каб	583
ком	584
##инист	585
кан	586
бай	587
##ышт	588
##шы	589
##езиден	590
адам	591
кур	592
мамлек	593
президен	594
жет	595
##го	596
##гил	597
##дук	598
##үк	599
##ут	600
күн	601
##ег	602
ук	603
жер	604
ми	605
##инистр	606
##ине	607
өк	608
##үш	609
деген	610
орусия	611
жүр	612
кий	613
##үч	614
##ом	615
министр	616
баш	617
бел	618
экен	619
коо	620
анын	621
##лер	622
##аар	623
##ылган	624
кызмат	625
##чу	626
кер	627
##еш	628
##дун	629
уч	630
жок	631
дагы	632
##лык	633
##бай	634
жаз	635
кет	636
болуп	637
ул	638
сал	639
##ейин	640
##шкан	641
##чи	642
##өө	643
##дер	644
##унун	645
кийин	646
чейин	647
##кы	648
ин	649
##ууга	650
туур	651
каз	652
жак	653
тууралуу	654
##ынан	655
##чы	656
мамлекетт	657
бирок	658
аб	659
##ктар	660
турган	661
##үг	662
##зам	663
##алар	664
пар	665
##асы	666
мый	667
мыйзам	668
##үндө	669
би	670
кир	671
эмес	672
бал	673
##дик	674
бий	675
учур	676
##унда	677
##бл	678
##чыл	679
кам	680
шаар	681
##еб	682
##уун	683
бас	684
жатат	685
##дү	686
өтк	687
##уна	688
##аны	689
мур	690
өт	691
керек	692
##кен	693
эки	694
чыг	695
башт	696
##анын	697
маалымат	698
##дон	699
##бо	700
мил	701
көп	702
##та	703
шай	704
##дыр	705
президент	706
##кта	707
жай	708
түр	709
алып	710
үй	711
##чул	712
##яс	713
жылы	714
##үнө	715
эр	716
жог	717
##уг	718
уш	719
ую	720
",	721
ич	722
##ээ	723
мас	724
##ке	725
##аттар	726
##лоо	727
##ент	728
##дөр	729
алган	730
белгил	731
##скер	732
азыр	733
##бр	734
##ав	735
##сыз	736
##ору	737
кең	738
##ки	739
кы	740
##өм	741
##кер	742
ая	743
##ябр	744
##ман	745
##ады	746
көз	747
түз	748
укра	749
украин	750
##ага	751
##тер	752
жаң	753
саяс	754
ав	755
##аз	756
күч	757
миң	758
байлан	759
бу	760
##дары	761
дол	762
##ушт	763
чеч	764
сө	765
ошон	766
##үнүн	767
##ран	768
##өлөр	769
##ылуу	770
киш	771
##иция	772
жаш	773
келген	774
сөз	775
айма	776
өлкө	777
жал	778
##аш	779
##уст	780
бишк	781
аш	782
##өй	783
тарт	784
тер	785
оку	786
ты	787
өн	788
мамлекеттик	789
чыгар	790
##егиз	791
##еле	792
бор	793
жары	794
төр	795
жаран	796
өкм	797
##дардын	798
башка	799
жөн	800
##икт	801
##гү	802
##чил	803
билдирди	804
ок	805
##си	806
мак	807
##иев	808
экенин	809
жый	810
##утт	811
##ындагы	812
кара	813
обл	814
ошол	815
чыгы	816
бөл	817
каршы	818
##ян	819
##инчи	820
эми	821
чык	822
##ты	823
жоо	824
##ос	825
##ив	826
көрс	827
шайлоо	828
##үүгө	829
кош	830
##төр	831
май	832
##күн	833
эс	834
түш	835
##дуу	836
##айын	837
##баев	838
бери	839
оор	840
жогор	841
##доо	842
рай	843
ап	844
##ткан	845
##оп	846
борб	847
иштер	848
чек	849
жап	850
##ктан	851
##аттык	852
негиз	853
##сынын	854
же	855
кандай	856
дүй	857
дар	858
казак	859
##иянын	860
кон	861
мүм	862
кооп	863
##ликт	864
мүмкүн	865
чак	866
19	867
сур	868
коом	869
##алы	870
##суз	871
##икалык	872
##ууда	873
##со	874
карм	875
калган	876
##лик	877
##өш	878
##об	879
жаңы	880
аскер	881
байланышт	882
токт	883
##са	884
##аров	885
болот	886
202	887
болду	888
аны	889
аба	890
мар	891
##еси	892
##агы	893
кый	894
##арын	895
талап	896
кылм	897
##елер	898
ач	899
район	900
##ейт	901
##алдык	902
##гын	903
уюм	904
жогорку	905
кабар	906
##гында	907
ишк	908
##дөн	909
##гер	910
##лам	911
##алды	912
##ация	913
алардын	914
##00	915
буга	916
депут	917
201	918
##еген	919
борбор	920
##инен	921
##ада	922
таж	923
ре	924
##еди	925
арак	926
из	927
гана	928
##ис	929
жыйын	930
##алып	931
чакыр	932
##кты	933
##чү	934
чар	935
бат	936
##тай	937
тап	938
дүйн	939
алын	940
улутт	941
##аты	942
##үт	943
##иб	944
##өнүн	945
##дүн	946
##иялык	947
сот	948
от	949
айып	950
##дор	951
тил	952
чыккан	953
кабыл	954
##ябрда	955
ага	956
жум	957
сүй	958
топ	959
катт	960
##лай	961
мында	962
##лөр	963
##уну	964
##гиз	965
жарыя	966
##сп	967
ст	968
сан	969
кою	970
жооп	971
байланыштуу	972
масел	973
жатканын	974
##лиги	975
коопсуз	976
##өтт	977
айтып	978
##ышы	979
киши	980
жас	981
##ентт	982
га	983
катары	984
##уул	985
айыл	986
##ардын	987
кыргызстандын	988
ев	989
учурда	990
##дүү	991
дем	992
##оз	993
комп	994
алдын	995
##чүл	996
##үнү	997
тарап	998
##ания	999
аралык	1000
мындай	1001
сог	1002
акш	1003
корг	1004
парт	1005
мек	1006
##ци	1007
атк	1008
өкүл	1009
ушул	1010
өткөр	1011
##рам	1012
казакстан	1013
##тты	1014
чет	1015
##йт	1016
##рым	1017
пай	1018
##чө	1019
##ешт	1020
түрк	1021
деди	1022
##епт	1023
ил	1024
берген	1025
##арды	1026
##асын	1027
тол	1028
##ышкан	1029
милли	1030
дин	1031
уку	1032
сом	1033
##сү	1034
жур	1035
берил	1036
##ууну	1037
кой	1038
тажик	1039
ад	1040
өткөн	1041
долбо	1042
мо	1043
окуя	1044
сакт	1045
##ылып	1046
көб	1047
коргоо	1048
облус	1049
кытай	1050
мурдагы	1051
##иг	1052
орусиянын	1053
кеткен	1054
##айт	1055
кайра	1056
эн	1057
##..	1058
кез	1059
кайр	1060
##чысы	1061
чо	1062
##укт	1063
улуттук	1064
эрк	1065
жапаров	1066
сун	1067
##ени	1068
болсо	1069
тү	1070
сүйл	1071
##үкт	1072
чечим	1073
президентт	1074
##асм	1075
##ла	1076
жакын	1077
##онав	1078
өкмөт	1079
##уб	1080
##сия	1081
##үгүн	1082
ур	1083
##дарды	1084
##оном	1085
кыргызстанда	1086
коронав	1087
коронавир	1088
ой	1089
##дой	1090
##еги	1091
соң	1092
##ест	1093
караган	1094
жетек	1095
жардам	1096
парлам	1097
эч	1098
##нал	1099
##гына	1100
##быз	1101
биринчи	1102
көрсөт	1103
##ика	1104
...	1105
##гун	1106
билдирген	1107
##үлгөн	1108
авт	1109
##яр	1110
жылдын	1111
##үүдө	1112
тышк	1113
##пы	1114
##тыр	1115
бишкект	1116
сат	1117
##беков	1118
уба	1119
жаб	1120
##ышат	1121
орт	1122
##дүр	1123
жашт	1124
айрым	1125
айткан	1126
өзбек	1127
келиш	1128
##асында	1129
партия	1130
##огон	1131
евр	1132
эконом	1133
##лиг	1134
жалпы	1135
алуу	1136
##иде	1137
ылай	1138
##ушу	1139
журнал	1140
андан	1141
чоң	1142
жолу	1143
##се	1144
сотт	1145
бири	1146
шар	1147
окт	1148
##туу	1149
жүрг	1150
##абыз	1151
алды	1152
орун	1153
кызматт	1154
суу	1155
акт	1156
##кү	1157
аял	1158
##мө	1159
бек	1160
албай	1161
##асмий	1162
##мер	1163
киргиз	1164
анда	1165
10	1166
##улган	1167
##ылды	1168
себ	1169
журналист	1170
өлкөлөр	1171
колдон	1172
өзү	1173
саясий	1174
ара	1175
##орт	1176
улам	1177
расмий	1178
##иги	1179
ылайык	1180
талк	1181
ата	1182
##гөр	1183
кызматкер	1184
башкар	1185
бийлик	1186
дан	1187
оп	1188
таб	1189
өзгөр	1190
айтты	1191
##тар	1192
мын	1193
долбоор	1194
түн	1195
отур	1196
##ышты	1197
##ата	1198
аныкт	1199
тын	1200
чыгып	1201
##ри	1202
##чулар	1203
##олог	1204
##ети	1205
кес	1206
кылмыш	1207
##лери	1208
эмн	1209
##дөрү	1210
түшүн	1211
ичинде	1212
сы	1213
##оого	1214
жүргүз	1215
##атты	1216
арк	1217
эң	1218
миллион	1219
ун	1220
берүү	1221
коопсуздук	1222
бишкек	1223
саясат	1224
ким	1225
жан	1226
##мия	1227
буз	1228
каза	1229
компания	1230
биздин	1231
##дөө	1232
таш	1233
күр	1234
##дей	1235
ошондой	1236
келет	1237
караганда	1238
караж	1239
башкы	1240
##мүр	1241
##тын	1242
##сын	1243
кеңеш	1244
кеңешт	1245
те	1246
он	1247
##иктүү	1248
болбо	1249
президенти	1250
калды	1251
дары	1252
##изм	1253
##дарга	1254
катар	1255
##үүнү	1256
##уучу	1257
атайын	1258
##ече	1259
ээ	1260
жөнүндө	1261
##шкен	1262
ли	1263
##сүн	1264
эмне	1265
элек	1266
жең	1267
##шка	1268
##өөн	1269
##үүлөр	1270
15	1271
акыр	1272
##су	1273
даяр	1274
дүйнө	1275
коронавирус	1276
соци	1277
көл	1278
тарма	1279
доллар	1280
##ундагы	1281
аркылуу	1282
турат	1283
##тта	1284
моск	1285
сын	1286
##рел	1287
##сат	1288
ра	1289
меди	1290
##ктуу	1291
деле	1292
москв	1293
##аткан	1294
мл	1295
ын	1296
##цин	1297
мамлекет	1298
##тан	1299
##ыгы	1300
мындан	1301
##гиликтүү	1302
өзбекстан	1303
##акка	1304
аткар	1305
келип	1306
рес	1307
##өтк	1308
ти	1309
өлкөдө	1310
##ой	1311
##алиев	1312
улан	1313
сүр	1314
катыш	1315
##өгөн	1316
тергө	1317
жылдан	1318
##үгү	1319
апрел	1320
мүч	1321
нече	1322
##инг	1323
көтөр	1324
##ылык	1325
жакшы	1326
им	1327
##ко	1328
кырда	1329
миг	1330
садыр	1331
төл	1332
эркин	1333
##ланган	1334
комит	1335
таан	1336
##вар	1337
нын	1338
жерде	1339
пик	1340
абал	1341
ички	1342
##сиз	1343
тек	1344
чект	1345
##ңг	1346
сыр	1347
бүгүн	1348
азаттык	1349
өлкөнүн	1350
##ыйыл	1351
мекем	1352
##өлүк	1353
бардык	1354
эксп	1355
##мат	1356
##оол	1357
иштеп	1358
кылып	1359
чог	1360
берип	1361
ушун	1362
быйыл	1363
##убл	1364
пол	1365
##ердин	1366
социалдык	1367
кылган	1368
кр	1369
кем	1370
##өп	1371
##илген	1372
турганын	1373
жергиликтүү	1374
тий	1375
күнү	1376
оо	1377
пикир	1378
##стит	1379
бийликт	1380
орган	1381
беш	1382
##лор	1383
##бей	1384
тергөө	1385
өзгө	1386
сап	1387
жарыял	1388
иликт	1389
жүргөн	1390
##етти	1391
сүйлөш	1392
##сун	1393
11	1394
эсепт	1395
айыпт	1396
курул	1397
уул	1398
##аман	1399
##ерди	1400
тажикстан	1401
##өк	1402
ян	1403
маан	1404
төрага	1405
комис	1406
парламентт	1407
мект	1408
##асына	1409
##өмөл	1410
##шыр	1411
30	1412
##алан	1413
##ишт	1414
##юл	1415
кызматы	1416
##ерин	1417
аракет	1418
алынган	1419
##шты	1420
көзөмөл	1421
жек	1422
##ыкты	1423
12	1424
док	1425
##окур	1426
туура	1427
##оон	1428
##тир	1429
##ова	1430
иши	1431
европ	1432
курал	1433
##тор	1434
##ктагы	1435
кач	1436
министрлиги	1437
##мк	1438
министри	1439
ачык	1440
акча	1441
су	1442
элект	1443
прокур	1444
ден	1445
аталган	1446
но	1447
өмүр	1448
келишим	1449
төрт	1450
бан	1451
соңку	1452
##пай	1453
баары	1454
дек	1455
азыркы	1456
кеч	1457
##алат	1458
коз	1459
докум	1460
на	1461
берди	1462
ишке	1463
ас	1464
алма	1465
##ерг	1466
##ларды	1467
июн	1468
акыркы	1469
бүл	1470
ала	1471
жолуг	1472
эскер	1473
##дүк	1474
январ	1475
##штур	1476
билим	1477
дал	1478
сп	1479
##аев	1480
##сына	1481
##түү	1482
өзгөчө	1483
##шкөн	1484
арыз	1485
актив	1486
оорук	1487
милиция	1488
ди	1489
карата	1490
##руп	1491
кырдаал	1492
болчу	1493
мурда	1494
доб	1495
##густ	1496
респ	1497
август	1498
багы	1499
##циялык	1500
башчысы	1501
кошум	1502
так	1503
ыр	1504
тары	1505
жаг	1506
##огу	1507
аймактар	1508
мат	1509
кеңештин	1510
##асынын	1511
салам	1512
эгер	1513
##пи	1514
##ымында	1515
##чылык	1516
ге	1517
сунушт	1518
нур	1519
өкмөтт	1520
сактоо	1521
тем	1522
министрлиг	1523
республ	1524
укук	1525
##атур	1526
##уунун	1527
уюштур	1528
##ерс	1529
##абр	1530
жатышат	1531
##дуктан	1532
ыс	1533
басма	1534
##ед	1535
ишен	1536
саны	1537
айтымында	1538
үн	1539
экинчи	1540
тышкы	1541
сент	1542
##дикт	1543
ол	1544
кен	1545
ис	1546
чаб	1547
өтө	1548
облуст	1549
##екс	1550
##деги	1551
жаштагы	1552
баштаган	1553
бүт	1554
ооган	1555
макул	1556
##ама	1557
наар	1558
##рал	1559
азия	1560
##анда	1561
##гыл	1562
##етинин	1563
салуу	1564
наараз	1565
укмк	1566
кабарл	1567
жылга	1568
##бүз	1569
маалыматтар	1570
##ьер	1571
корруп	1572
##ылат	1573
арасында	1574
200	1575
жо	1576
##рат	1577
тынч	1578
токтот	1579
белгилүү	1580
баткен	1581
ушундай	1582
кармалган	1583
тарых	1584
жүз	1585
##ны	1586
##чиси	1587
камсыз	1588
декабр	1589
##ттар	1590
14	1591
келтир	1592
окуу	1593
коомдук	1594
##эр	1595
алга	1596
##юу	1597
өтүп	1598
ку	1599
до	1600
адамдар	1601
18	1602
каран	1603
аскердик	1604
өр	1605
виде	1606
мамил	1607
электр	1608
антк	1609
газ	1610
көбөй	1611
##ктын	1612
##асир	1613
аж	1614
жээ	1615
прем	1616
##хн	1617
шаарында	1618
милд	1619
13	1620
##атта	1621
зар	1622
күчтөр	1623
коюл	1624
маселе	1625
##дим	1626
эт	1627
ча	1628
был	1629
украина	1630
абад	1631
шт	1632
күрөш	1633
берен	1634
бр	1635
##ерлер	1636
##есин	1637
сист	1638
акция	1639
##угу	1640
баз	1641
экономикалык	1642
кл	1643
##диг	1644
былтыр	1645
жара	1646
чын	1647
##үшү	1648
16	1649
жайга	1650
бош	1651
айында	1652
талапкер	1653
##утин	1654
##еби	1655
##олгон	1656
##рация	1657
##штыр	1658
путин	1659
##өкт	1660
таасир	1661
мөөн	1662
июл	1663
тапшыр	1664
премьер	1665
17	1666
аген	1667
мис	1668
октябрда	1669
##тка	1670
украинанын	1671
сыя	1672
мигран	1673
жетекчил	1674
##енин	1675
барып	1676
карап	1677
куб	1678
уз	1679
##аларды	1680
ортос	1681
##озиция	1682
толук	1683
дейт	1684
комиссия	1685
##үлүп	1686
##гу	1687
аракетт	1688
тиеш	1689
25	1690
оюн	1691
##овдун	1692
корк	1693
мыйзамсыз	1694
##арт	1695
түшт	1696
алгач	1697
жүрүп	1698
##анд	1699
бур	1700
депутат	1701
нат	1702
##дарын	1703
##шер	1704
там	1705
фев	1706
ашык	1707
сыяктуу	1708
тартып	1709
алб	1710
чабуул	1711
тургун	1712
##иши	1713
болушу	1714
илим	1715
феврал	1716
арал	1717
быз	1718
дай	1719
соо	1720
арт	1721
жатканы	1722
##чылар	1723
ток	1724
койгон	1725
##дап	1726
райондук	1727
жеке	1728
түнкү	1729
анткени	1730
иран	1731
##тик	1732
техн	1733
иштеген	1734
си	1735
про	1736
ойл	1737
түшүндүр	1738
алдында	1739
##унан	1740
бала	1741
тең	1742
барган	1743
басары	1744
төрагасы	1745
##үрүү	1746
коомчул	1747
эск	1748
##кир	1749
президенттин	1750
текшер	1751
караб	1752
агентт	1753
добуш	1754
президенттик	1755
кул	1756
##алары	1757
##ыт	1758
кайсы	1759
муну	1760
болгонун	1761
##лардын	1762
сатып	1763
согуш	1764
млн	1765
өндүр	1766
##оолор	1767
бей	1768
айтылган	1769
вир	1770
##ортт	1771
саб	1772
козг	1773
чыкты	1774
топт	1775
жарандык	1776
оорукана	1777
сый	1778
майда	1779
жыйынты	1780
күнд	1781
го	1782
план	1783
күндүз	1784
активист	1785
медицин	1786
##дыктар	1787
өзүн	1788
шаардык	1789
экспер	1790
билдирүү	1791
ади	1792
##догон	1793
бийлиги	1794
салын	1795
сиз	1796
кайт	1797
жумуш	1798
энерг	1799
му	1800
колдоо	1801
##бу	1802
оң	1803
##ынча	1804
көч	1805
##усу	1806
##лары	1807
##тин	1808
##раил	1809
көрсөтк	1810
##улуп	1811
##демия	1812
##ланды	1813
##ияда	1814
##ститу	1815
##за	1816
##дөгү	1817
эмг	1818
пан	1819
алтын	1820
мүчө	1821
соода	1822
##тип	1823
израил	1824
максат	1825
коррупция	1826
өзүнүн	1827
24	1828
##дери	1829
интер	1830
прокуратур	1831
европа	1832
кап	1833
ашуун	1834
талкуу	1835
ыра	1836
##игин	1837
аларды	1838
ды	1839
##бул	1840
##ерге	1841
##ишкен	1842
саат	1843
конститу	1844
атам	1845
журналисттер	1846
мартта	1847
министрлигинин	1848
мадан	1849
##ыктар	1850
күт	1851
мектеп	1852
жолугуш	1853
##чал	1854
тышкары	1855
күй	1856
##бы	1857
мүмкүнчүл	1858
кызматкерлер	1859
өкүлү	1860
анан	1861
негизги	1862
берет	1863
башталган	1864
дун	1865
маалыматына	1866
##ктылуу	1867
##жан	1868
ысык	1869
комм	1870
##жы	1871
##ограм	1872
керект	1873
акшнын	1874
жу	1875
лар	1876
такт	1877
көң	1878
келди	1879
берилген	1880
##дарынын	1881
ир	1882
сай	1883
ошондуктан	1884
бишкекте	1885
тизм	1886
уб	1887
октябр	1888
москва	1889
##өрү	1890
##акт	1891
маш	1892
жазган	1893
түнкүсүн	1894
элдик	1895
##тко	1896
##ардык	1897
жеткир	1898
##аль	1899
көңүл	1900
##кын	1901
полиция	1902
жарым	1903
фон	1904
жээн	1905
ов	1906
изил	1907
саламаттык	1908
##стр	1909
##ттү	1910
экени	1911
2020	1912
##мыл	1913
##дарына	1914
дарыгер	1915
жагдай	1916
ноябрда	1917
белгиледи	1918
тыюу	1919
дон	1920
авто	1921
деңг	1922
##кери	1923
мун	1924
мекен	1925
августта	1926
##кул	1927
дүйнөлүк	1928
деңгээ	1929
өкүлдөрү	1930
##ордук	1931
жалал	1932
ооганстан	1933
сок	1934
##мак	1935
дын	1936
##үнөн	1937
маалымда	1938
документт	1939
100	1940
кылмышт	1941
##ич	1942
##елүү	1943
систем	1944
бөлүм	1945
жазды	1946
атт	1947
кийинки	1948
##ушка	1949
##етте	1950
апрелде	1951
зарыл	1952
кыймыл	1953
согушт	1954
##сынан	1955
алты	1956
фин	1957
кезде	1958
убактылуу	1959
##иц	1960
##гынын	1961
опер	1962
амер	1963
##од	1964
##аттары	1965
тез	1966
##дөй	1967
ишин	1968
##егинде	1969
кыргызстанга	1970
ири	1971
кит	1972
өнүкт	1973
жабыр	1974
##диги	1975
бере	1976
##тон	1977
пайда	1978
сүрөтт	1979
дайын	1980
тан	1981
азырынча	1982
##еж	1983
иликтөө	1984
опп	1985
байк	1986
22	1987
жетекчиси	1988
##ыктын	1989
канча	1990
шект	1991
реф	1992
сентябрда	1993
##орм	1994
тел	1995
жатабыз	1996
учурунда	1997
темир	1998
##ала	1999
жылдары	2000
код	2001
##дыгы	2002
июнда	2003
##ият	2004
пайд	2005
котор	2006
салган	2007
алууга	2008
кум	2009
сул	2010
сез	2011
демок	2012
декабрда	2013
кайтар	2014
январда	2015
##даш	2016
бошот	2017
болгону	2018
башкарм	2019
башында	2020
##имов	2021
урук	2022
сам	2023
алат	2024
вла	2025
##кция	2026
##ээр	2027
жоопкер	2028
##кат	2029
##уулар	2030
элдин	2031
ду	2032
кү	2033
катышкан	2034
коркуну	2035
өлүм	2036
уулу	2037
##кин	2038
##аса	2039
бейт	2040
кетти	2041
мөөнөт	2042
кирген	2043
адм	2044
депутаттар	2045
##тык	2046
иштери	2047
кыргызстандык	2048
ый	2049
брит	2050
бю	2051
##дж	2052
ташт	2053
##мо	2054
белги	2055
##етр	2056
##илүү	2057
##ганы	2058
##укка	2059
##аттын	2060
##гөй	2061
ишмер	2062
тараб	2063
бүлө	2064
23	2065
басып	2066
##сүндө	2067
калы	2068
алка	2069
облусунун	2070
жазылган	2071
##ология	2072
2021	2073
себеп	2074
себеби	2075
##анас	2076
##үшт	2077
##ара	2078
гер	2079
##ттер	2080
##дум	2081
кала	2082
ий	2083
тай	2084
үст	2085
##димир	2086
##хан	2087
акыл	2088
катуу	2089
акч	2090
##емб	2091
түшкөн	2092
кызык	2093
талиб	2094
кайрылуу	2095
убак	2096
украинага	2097
владимир	2098
келин	2099
укукт	2100
ажыр	2101
жоопкерчил	2102
шайл	2103
облусунда	2104
белар	2105
28	2106
чүй	2107
2022	2108
маанилүү	2109
көй	2110
балдар	2111
жаза	2112
##рес	2113
армия	2114
co	2115
маселелер	2116
##ограмм	2117
21	2118
кызматынын	2119
кээ	2120
абдан	2121
көпчүл	2122
белгилен	2123
##кө	2124
##на	2125
##етин	2126
маалыматка	2127
жашоо	2128
##бол	2129
миңден	2130
жээнбеков	2131
кыск	2132
реж	2133
шайлоого	2134
аскерлер	2135
жиб	2136
##тур	2137
келе	2138
кошумчал	2139
бирим	2140
эрт	2141
ради	2142
курман	2143
имар	2144
27	2145
##ганын	2146
",-	2147
ту	2148
##түр	2149
каал	2150
##ологиялык	2151
кыргызстандагы	2152
кама	2153
##деген	2154
оппозиция	2155
башкармалы	2156
тала	2157
##баган	2158
##ого	2159
сунуш	2160
азаттыкка	2161
бү	2162
бейтап	2163
адист	2164
##индеги	2165
кетип	2166
пандемия	2167
ары	2168
чейинки	2169
##оону	2170
июлда	2171
менин	2172
казакстандын	2173
ык	2174
дарыл	2175
оору	2176
калып	2177
негизинде	2178
жарат	2179
адамдын	2180
##мон	2181
##итардык	2182
мит	2183
жети	2184
атамбаев	2185
##бөй	2186
сотко	2187
тран	2188
##че	2189
алкагында	2190
тоол	2191
инв	2192
уруксат	2193
##арий	2194
мурун	2195
##др	2196
##елген	2197
деңгээл	2198
адв	2199
көйгөй	2200
бизге	2201
илд	2202
##ард	2203
##тке	2204
интерн	2205
окуялар	2206
тиешелүү	2207
адвок	2208
##дердин	2209
пайыз	2210
26	2211
гр	2212
##фон	2213
50	2214
министрлер	2215
##аттуу	2216
өнөкт	2217
##ишти	2218
теле	2219
алгачкы	2220
рак	2221
инвест	2222
терр	2223
##ти	2224
##бейт	2225
орусияда	2226
дө	2227
##мөн	2228
##ах	2229
баштады	2230
өкмөттүн	2231
199	2232
нер	2233
дир	2234
макс	2235
төм	2236
орто	2237
эске	2238
төмөн	2239
ыкт	2240
##сул	2241
кызматта	2242
айтылат	2243
февралда	2244
##орун	2245
орусиялык	2246
тоо	2247
##өшт	2248
вак	2249
жерлер	2250
колдо	2251
ашыр	2252
кабарлады	2253
медициналык	2254
##аларын	2255
катышуу	2256
##vi	2257
сайын	2258
көрүн	2259
зом	2260
катчысы	2261
жеңил	2262
түркия	2263
мисалы	2264
муз	2265
камакка	2266
видео	2267
##үүчү	2268
##ымал	2269
жайгашкан	2270
##далган	2271
басым	2272
пайдалан	2273
зомбул	2274
өттү	2275
шек	2276
##есине	2277
жарыялаган	2278
##онун	2279
об	2280
гы	2281
##аттан	2282
жатып	2283
борбордук	2284
кеп	2285
кызматкерлери	2286
чыгыш	2287
бюдж	2288
##син	2289
##ыйж	2290
жашаган	2291
натыйж	2292
нерсе	2293
##өнү	2294
уюмунун	2295
көрүп	2296
уча	2297
жерге	2298
басыл	2299
операция	2300
бет	2301
инф	2302
демил	2303
аларга	2304
##чүлөр	2305
нааразылык	2306
##рд	2307
##рон	2308
ордун	2309
млрд	2310
коркунуч	2311
туш	2312
##абы	2313
эмгек	2314
мэр	2315
##газ	2316
митинг	2317
вакцин	2318
##иверс	2319
##орлор	2320
автоуна	2321
эреж	2322
базар	2323
зы	2324
четке	2325
арас	2326
өзгөрт	2327
демократ	2328
##сак	2329
кабин	2330
салып	2331
милдетт	2332
соту	2333
##иштүү	2334
күндө	2335
##дөгөн	2336
##ский	2337
белгисиз	2338
##суна	2339
2019	2340
эг	2341
##ош	2342
каражат	2343
лидер	2344
тир	2345
айл	2346
ишкана	2347
герман	2348
##ентарий	2349
арада	2350
депутаты	2351
чогул	2352
тарабынан	2353
универс	2354
сар	2355
катталган	2356
##лом	2357
кыйын	2358
элчил	2359
##өөлөр	2360
өткөрүп	2361
бак	2362
##актар	2363
республик	2364
комментарий	2365
парламент	2366
ачыл	2367
гүл	2368
өс	2369
аймагында	2370
баштап	2371
##ыштыр	2372
дээр	2373
##ья	2374
бы	2375
мунун	2376
арм	2377
тов	2378
трам	2379
жакт	2380
абд	2381
дип	2382
сүйлөшүүлөр	2383
ракет	2384
санкция	2385
мин	2386
чыга	2387
спорт	2388
түштүк	2389
диплом	2390
шарт	2391
##ону	2392
трамп	2393
мез	2394
дээрлик	2395
тууган	2396
улуу	2397
мезгил	2398
салык	2399
##аг	2400
башчы	2401
тармактар	2402
университ	2403
тери	2404
##сүз	2405
##алим	2406
тапкан	2407
директ	2408
жөнөт	2409
куу	2410
жактан	2411
коопсузду	2412
##алдуу	2413
жогору	2414
##алап	2415
парламенттик	2416
тон	2417
бишкектин	2418
киев	2419
##оонун	2420
миллиард	2421
##өрүн	2422
##vid	2423
кас	2424
##ылыш	2425
сында	2426
##алардын	2427
##өгө	2428
жазып	2429
аг	2430
##чулардын	2431
##деп	2432
жума	2433
чакырды	2434
кым	2435
##беген	2436
бирик	2437
бийлиг	2438
бл	2439
##еттин	2440
29	2441
кодекс	2442
соттун	2443
матери	2444
##сө	2445
кадам	2446
ичинен	2447
жыйынында	2448
##орду	2449
кесип	2450
##бө	2451
батыш	2452
##шу	2453
сыртк	2454
тажикстандын	2455
таг	2456
тург	2457
##арга	2458
куралдуу	2459
орусияга	2460
чыгарып	2461
##илер	2462
кытайдын	2463
жакында	2464
каранды	2465
жибер	2466
түрдө	2467
ислам	2468
сөө	2469
##ыгын	2470
##арым	2471
үл	2472
бой	2473
өнүг	2474
##үлдү	2475
кирип	2476
суроо	2477
##дерди	2478
түзүлгөн	2479
##ирим	2480
көбү	2481
кызматтан	2482
##емен	2483
кумтөр	2484
диний	2485
##on	2486
өнүктүрүү	2487
андай	2488
covid	2489
ны	2490
##ина	2491
бишкектеги	2492
түндүк	2493
##устун	2494
барак	2495
калтыр	2496
##пөй	2497
##ост	2498
##елен	2499
аян	2500
далил	2501
лидери	2502
##догу	2503
укугу	2504
ыраст	2505
##үүнүн	2506
баарын	2507
боло	2508
доо	2509
алы	2510
курулуш	2511
##шемб	2512
коюлган	2513
эп	2514
тилк	2515
##елери	2516
банк	2517
өтүн	2518
азатт	2519
тоб	2520
фран	2521
таң	2522
программ	2523
##бур	2524
билдирип	2525
бизде	2526
кармап	2527
кыйн	2528
учурлар	2529
##айым	2530
кошумчалады	2531
зыян	2532
кантип	2533
##ылганын	2534
курам	2535
телефон	2536
нарын	2537
фей	2538
бүгүнкү	2539
кошумча	2540
баян	2541
##есинин	2542
##дия	2543
шаарынын	2544
сту	2545
каражаттар	2546
##чулары	2547
##гүл	2548
тоолуу	2549
факт	2550
дарыгерлер	2551
маселеси	2552
ортосундагы	2553
##ланып	2554
нар	2555
##ерен	2556
##ебиз	2557
жетиш	2558
жолдо	2559
##укту	2560
мамиле	2561
вирус	2562
акы	2563
өлтүр	2564
наз	2565
##сунда	2566
радиос	2567
##сүнө	2568
##er	2569
сир	2570
иштет	2571
мүчөлөр	2572
турукт	2573
окш	2574
басылм	2575
##ид	2576
чыгарган	2577
no	2578
мүл	2579
кайрадан	2580
##алууда	2581
бийликтин	2582
##ларга	2583
##бү	2584
кымб	2585
##атор	2586
бажы	2587
чың	2588
сер	2589
туруп	2590
көргөн	2591
инстит	2592
40	2593
##биз	2594
##атив	2595
кылуу	2596
##арынын	2597
калат	2598
##пар	2599
сегиз	2600
мир	2601
##ея	2602
китеп	2603
тө	2604
алекс	2605
облустук	2606
жасаган	2607
жабырк	2608
коюп	2609
экономик	2610
##штир	2611
азаттыктын	2612
ни	2613
кызы	2614
##егер	2615
байден	2616
көпт	2617
эгемен	2618
мамлекеттин	2619
районунун	2620
баракч	2621
райондор	2622
##дыруу	2623
мал	2624
мамлекеттер	2625
алмаз	2626
мына	2627
##уктур	2628
болбойт	2629
сов	2630
акын	2631
##ибиз	2632
##дыгын	2633
орн	2634
аттуу	2635
##чалык	2636
мага	2637
бизн	2638
матра	2639
##орон	2640
өлкөдөгү	2641
жарыяланган	2642
ташиев	2643
##исттик	2644
белгилеп	2645
муг	2646
каттоо	2647
макулдаш	2648
чем	2649
жашыр	2650
товар	2651
айдоо	2652
метр	2653
башкаруу	2654
мугалим	2655
##ктык	2656
ишеним	2657
нун	2658
күндөрү	2659
ишкерлер	2660
##алоо	2661
уг	2662
султан	2663
тин	2664
үм	2665
үйлөр	2666
кырсы	2667
албетте	2668
көчө	2669
бөлүн	2670
чыр	2671
чара	2672
студен	2673
өч	2674
бшк	2675
31	2676
аск	2677
жарыялады	2678
админист	2679
##илет	2680
партиясынын	2681
апта	2682
ыктымал	2683
ирет	2684
чемпи	2685
адамдардын	2686
жалпысынан	2687
коронавируска	2688
##орма	2689
болгондор	2690
##лап	2691
##аң	2692
карж	2693
көлөм	2694
жылдар	2695
маалыматты	2696
##өөгө	2697
кадыр	2698
өкмөтү	2699
##дыктан	2700
кеңешинин	2701
канал	2702
долбоору	2703
режим	2704
##еге	2705
администрация	2706
бийликке	2707
ада	2708
##бия	2709
таян	2710
##чусу	2711
##ңиз	2712
шаарындагы	2713
сырткары	2714
өзбекстандын	2715
максатында	2716
##илип	2717
абалы	2718
аныкталган	2719
жам	2720
##едер	2721
##йр	2722
##олд	2723
кызматкери	2724
##гындагы	2725
##мок	2726
конституция	2727
##улат	2728
дүйш	2729
кылды	2730
аль	2731
##елип	2732
айынан	2733
карабай	2734
##акция	2735
мигранттар	2736
азер	2737
териштир	2738
энергет	2739
бут	2740
жарак	2741
токто	2742
зелен	2743
айтканда	2744
азербай	2745
##анов	2746
кишинин	2747
кана	2748
жуг	2749
##матов	2750
беренеси	2751
мыкты	2752
тапта	2753
багытт	2754
изилдөө	2755
ла	2756
алыш	2757
мед	2758
##штуу	2759
##еттик	2760
##дигин	2761
миңдей	2762
##жол	2763
турм	2764
##ыктан	2765
украинадагы	2766
сайт	2767
##луу	2768
##дөп	2769
коргон	2770
камчы	2771
көрсөткүч	2772
түшүп	2773
жакта	2774
##ma	2775
аякт	2776
манас	2777
ортосунда	2778
мүчөсү	2779
ишкер	2780
ишкан	2781
болуш	2782
##тти	2783
качан	2784
##атр	2785
жокко	2786
жылдагы	2787
эксперт	2788
##пей	2789
өзүнө	2790
##зия	2791
март	2792
телек	2793
чечими	2794
зеленский	2795
укуктар	2796
жаңж	2797
алганын	2798
аялдар	2799
кызыкчыл	2800
уур	2801
##укта	2802
тог	2803
эст	2804
##атып	2805
алм	2806
##ыла	2807
соорон	2808
түзгөн	2809
##сында	2810
##улду	2811
стан	2812
ката	2813
##ттан	2814
улант	2815
кызыл	2816
##дүүл	2817
козголгон	2818
салынган	2819
тегер	2820
түркмөн	2821
согушка	2822
коң	2823
##туп	2824
##уусу	2825
##аларга	2826
трансп	2827
##байт	2828
кодексинин	2829
##етке	2830
сүрөттүн	2831
бара	2832
бараткан	2833
уюму	2834
отурган	2835
##өйр	2836
аппар	2837
тартылган	2838
##иси	2839
##цион	2840
азербайжан	2841
бериш	2842
байланыш	2843
карантин	2844
мүнө	2845
ишти	2846
бою	2847
калк	2848
2023	2849
бөлүгү	2850
##елерди	2851
##ице	2852
мел	2853
үз	2854
берүүгө	2855
##игине	2856
##олду	2857
карма	2858
үчүнчү	2859
иим	2860
уюмдар	2861
##есинде	2862
##ева	2863
жеткен	2864
маалымдады	2865
кесеп	2866
вице	2867
ген	2868
чук	2869
тарткан	2870
жетект	2871
уна	2872
белгилеген	2873
калганын	2874
мус	2875
келеч	2876
албайт	2877
түл	2878
##көм	2879
##ад	2880
киреш	2881
##олуп	2882
комитетинин	2883
бийликти	2884
кабарлаган	2885
олим	2886
##юз	2887
##ектен	2888
жайлар	2889
жарандар	2890
ошент	2891
##уман	2892
саясатчы	2893
##асп	2894
өлкөгө	2895
шайлоодо	2896
кызматташт	2897
##өрдү	2898
эсеб	2899
энергия	2900
фейс	2901
##алышы	2902
##ини	2903
курч	2904
кармалып	2905
сокку	2906
##өөл	2907
##атын	2908
кезект	2909
болбой	2910
маданият	2911
материал	2912
экс	2913
суроолор	2914
##анды	2915
##обирим	2916
евробирим	2917
##оочу	2918
жараны	2919
көпчүлүк	2920
болорун	2921
аты	2922
##аниянын	2923
көк	2924
тынчтык	2925
проц	2926
##ti	2927
##илди	2928
казакстанда	2929
##уучулар	2930
кабылган	2931
мигрантт	2932
убакыт	2933
бирг	2934
##ушту	2935
маалда	2936
жылды	2937
рос	2938
##тал	2939
бирин	2940
стат	2941
инвестиция	2942
парламенттин	2943
аст	2944
##истан	2945
##есс	2946
чукул	2947
сапар	2948
элге	2949
жүрүш	2950
ыйг	2951
өкүм	2952
##иф	2953
##мит	2954
##оло	2955
прокуратура	2956
кабинетинин	2957
пак	2958
конституциялык	2959
##екция	2960
жабыркаган	2961
корея	2962
сомго	2963
убада	2964
демилг	2965
деги	2966
жылда	2967
талас	2968
чогуу	2969
белгиленген	2970
команда	2971
буйр	2972
аэр	2973
өнөр	2974
буу	2975
түй	2976
жараат	2977
ордуна	2978
соттук	2979
мектепт	2980
таза	2981
койду	2982
ына	2983
60	2984
жаман	2985
##ью	2986
долбоорун	2987
##сиянын	2988
тартип	2989
октябрь	2990
айтылып	2991
ошондо	2992
кайрылган	2993
сүрөт	2994
карш	2995
турак	2996
сен	2997
##иза	2998
салыштыр	2999
##ков	3000
эгерде	3001
жасап	3002
пен	3003
ойн	3004
мекеменин	3005
фр	3006
тогуз	3007
##сек	3008
суд	3009
##арына	3010
##атыр	3011
заман	3012
айта	3013
мени	3014
тарта	3015
өтөт	3016
топтор	3017
телекан	3018
##ушкан	3019
##хам	3020
тилек	3021
##андын	3022
сентябр	3023
карыз	3024
күчөт	3025
##өткө	3026
күм	3027
##даган	3028
бекем	3029
туруктуу	3030
мыйзамга	3031
##гынан	3032
##ант	3033
##үндөгү	3034
2018	3035
акылбек	3036
тен	3037
##үлөт	3038
кыргызстандыктар	3039
жерден	3040
##угун	3041
борбору	3042
кескин	3043
жаңжал	3044
##ема	3045
##ияга	3046
##аламан	3047
корго	3048
сомдон	3049
аракети	3050
мон	3051
жашап	3052
##шти	3053
алынып	3054
маселени	3055
жетти	3056
жылдык	3057
өкүлдөр	3058
талкуул	3059
эсептейт	3060
##гып	3061
жалгыз	3062
##мин	3063
##аков	3064
араб	3065
экөө	3066
##өөк	3067
керектигин	3068
барат	3069
аман	3070
ме	3071
ооруканага	3072
башаламан	3073
иштерин	3074
директору	3075
отурум	3076
финан	3077
жакка	3078
нерс	3079
насы	3080
##уулук	3081
америкалык	3082
фут	3083
сум	3084
##итт	3085
экономика	3086
бөгө	3087
билдиргендей	3088
жыйынтыгы	3089
чарба	3090
жүк	3091
киргизилген	3092
ондогон	3093
башкармалыгынын	3094
##ъект	3095
тараткан	3096
күйөө	3097
гө	3098
документ	3099
тамак	3100
чөйр	3101
80	3102
зав	3103
##иктер	3104
##рый	3105
түркиянын	3106
мекемелер	3107
жолдор	3108
штаб	3109
##ордун	3110
##аша	3111
маж	3112
тажрый	3113
алынды	3114
##ларын	3115
каттам	3116
активисттер	3117
ке	3118
##амат	3119
ша	3120
##чар	3121
жаштар	3122
түрмө	3123
федер	3124
күнөөл	3125
сөздөр	3126
бириккен	3127
көптөгөн	3128
дей	3129
көрсөткөн	3130
футбол	3131
көмүр	3132
##ылышы	3133
анал	3134
##баева	3135
70	3136
арга	3137
маалыматта	3138
туул	3139
жарандары	3140
судья	3141
турганы	3142
##ткөн	3143
акый	3144
чакырым	3145
ноябр	3146
кин	3147
##бөл	3148
таап	3149
айтылды	3150
алмазбек	3151
манд	3152
таз	3153
чемпион	3154
балдардын	3155
жаан	3156
бизди	3157
жапаровдун	3158
матраимов	3159
500	3160
##исттер	3161
токтом	3162
армен	3163
ээл	3164
калыб	3165
##эб	3166
##раф	3167
тобу	3168
аябай	3169
##уд	3170
миңдеген	3171
коррупцияга	3172
##ири	3173
баасы	3174
эртең	3175
##шке	3176
кошт	3177
жасалган	3178
талаш	3179
жасал	3180
клас	3181
мектептер	3182
##анып	3183
кеминде	3184
агенттиги	3185
жүрөт	3186
шайлоонун	3187
зал	3188
арасындагы	3189
##ный	3190
азык	3191
буунун	3192
##аганын	3193
мер	3194
атындагы	3195
түнү	3196
күнгө	3197
адистер	3198
калыбына	3199
чал	3200
беларус	3201
##анган	3202
##жин	3203
каралган	3204
жапон	3205
##па	3206
тааны	3207
кайтып	3208
бирге	3209
дароо	3210
груз	3211
институт	3212
олимпи	3213
##es	3214
соол	3215
түзөт	3216
айда	3217
##уттуу	3218
демек	3219
британия	3220
##салык	3221
##уккан	3222
ишине	3223
начар	3224
шам	3225
##дырып	3226
шектүү	3227
кайрылып	3228
укуктары	3229
жем	3230
болбосо	3231
##ышка	3232
азай	3233
криз	3234
тийгиз	3235
жагынан	3236
сел	3237
адамга	3238
##штыруу	3239
караба	3240
башынан	3241
крем	3242
өзүм	3243
кабарланды	3244
тараптуу	3245
медиа	3246
...-	3247
кызматташ	3248
##игинин	3249
кемп	3250
баа	3251
##кум	3252
кагыл	3253
чектөө	3254
гуман	3255
тут	3256
аткаруу	3257
миграция	3258
камсыздоо	3259
мүмкүнчүлүк	3260
пакистан	3261
##пер	3262
##ткен	3263
чыгым	3264
коюу	3265
көрсөтүп	3266
мекеме	3267
түп	3268
##ңыз	3269
кармалды	3270
жүргүзүп	3271
камчыбек	3272
насыя	3273
бирөө	3274
тоск	3275
##икке	3276
##аак	3277
улуттар	3278
комитети	3279
мей	3280
ник	3281
ыбыз	3282
алганы	3283
куугун	3284
союз	3285
нааразы	3286
35	3287
чыгаруу	3288
франция	3289
республикалык	3290
күндөн	3291
##аттарды	3292
жумш	3293
нав	3294
ошт	3295
сооронбай	3296
билдирүүдө	3297
инин	3298
эсеп	3299
өтүнүч	3300
берүүнү	3301
министринин	3302
2017	3303
##те	3304
кремл	3305
укугун	3306
компаниясы	3307
аэроп	3308
кемпир	3309
пасп	3310
түзүп	3311
олуттуу	3312
ака	3313
тиешеси	3314
мунай	3315
алматы	3316
##атында	3317
кайрыл	3318
##уктун	3319
##ашкан	3320
аскерлери	3321
300	3322
сыз	3323
комитет	3324
##үштү	3325
бизнес	3326
катышты	3327
көбүр	3328
өлкөлөрдүн	3329
мүнөз	3330
эмнеге	3331
##ро	3332
куруу	3333
башкача	3334
лук	3335
чу	3336
чаралар	3337
жолугушуу	3338
куугунт	3339
мыйзамдуу	3340
колдонуу	3341
хан	3342
##ектер	3343
илимий	3344
тес	3345
айдан	3346
шартт	3347
өзгөртүү	3348
күчтөрү	3349
шаарлар	3350
өлкөдөн	3351
бүз	3352
##евдин	3353
жатканда	3354
түзүү	3355
ажырат	3356
##мек	3357
өткөрүү	3358
табылган	3359
##сс	3360
коё	3361
булактар	3362
уюмдун	3363
атаанда	3364
көмө	3365
иде	3366
лык	3367
##сер	3368
##ондук	3369
өздөр	3370
позиция	3371
##сам	3372
##стыкт	3373
мамлекетке	3374
тагдыр	3375
тоскоол	3376
үйр	3377
текшерүү	3378
##бан	3379
##оро	3380
жогот	3381
партиянын	3382
укмкнын	3383
тик	3384
##мушт	3385
атып	3386
жакындары	3387
театр	3388
90	3389
##есе	3390
аймактык	3391
кеткенин	3392
чач	3393
##атка	3394
ошондон	3395
акаев	3396
маркум	3397
мукта	3398
сына	3399
күз	3400
##ырт	3401
##шен	3402
муктаж	3403
##бар	3404
жоокер	3405
көрсөтүлгөн	3406
карандысыз	3407
пикирин	3408
террор	3409
##ойт	3410
соз	3411
берилди	3412
канчалык	3413
дегенде	3414
караштуу	3415
киргизүү	3416
катышып	3417
дайым	3418
##tion	3419
ум	3420
##дешт	3421
арн	3422
сактап	3423
##дур	3424
айга	3425
ави	3426
окуп	3427
страт	3428
объект	3429
##улман	3430
толугу	3431
лардын	3432
юр	3433
майрам	3434
2010	3435
мүчөлөрү	3436
мусулман	3437
".	3438
кылым	3439
түшүр	3440
укуктук	3441
айлан	3442
##сыздан	3443
маселесин	3444
гуманитардык	3445
##ша	3446
##бет	3447
##лайн	3448
ошентип	3449
##яны	3450
облусундагы	3451
##өөнү	3452
сынга	3453
##масы	3454
##бөгөн	3455
##алай	3456
##еттер	3457
тартуу	3458
маалыматтарды	3459
органдары	3460
ваш	3461
##акты	3462
##богон	3463
колдогон	3464
жалган	3465
салды	3466
стратег	3467
кил	3468
рах	3469
дипломат	3470
##изация	3471
айр	3472
##еттен	3473
##ыктуу	3474
издөө	3475
айлык	3476
чыгуу	3477
дүйшөм	3478
билген	3479
дрон	3480
сак	3481
тараптан	3482
##ингтон	3483
аймактарда	3484
ооз	3485
деңиз	3486
телеканал	3487
##устан	3488
өтпөй	3489
каражаттары	3490
миңге	3491
##өттү	3492
сүйлөшүү	3493
вашингтон	3494
ым	3495
##al	3496
##абай	3497
корку	3498
адамды	3499
жаңыл	3500
##сих	3501
негизинен	3502
айылында	3503
техникалык	3504
##чам	3505
##иясы	3506
бербей	3507
сана	3508
##гым	3509
мөөнөтү	3510
##шембиде	3511
көбүрөөк	3512
арх	3513
тр	3514
##ыс	3515
болжол	3516
маалыматы	3517
аң	3518
##чынын	3519
баки	3520
жакшыр	3521
партиясы	3522
түрдүү	3523
бойдон	3524
каржыл	3525
акыйкат	3526
наваль	3527
камалган	3528
чечимин	3529
болууда	3530
фил	3531
талапкерлер	3532
##ула	3533
##en	3534
##in	3535
чыгарма	3536
долбоорлор	3537
##кулов	3538
##ырып	3539
кийим	3540
##мун	3541
##ышына	3542
онлайн	3543
жокт	3544
##ста	3545
маегинде	3546
жетекчи	3547
арз	3548
аким	3549
бую	3550
өзүнчө	3551
армиясы	3552
псих	3553
өң	3554
орусиядагы	3555
чектөөлөр	3556
дост	3557
ыкчам	3558
тургуну	3559
##рад	3560
кызматка	3561
##дерге	3562
бөгөт	3563
##ура	3564
жыйында	3565
##өөнүн	3566
жакынкы	3567
түркмөнстан	3568
талибан	3569
##кап	3570
##ылууда	3571
машин	3572
террордук	3573
тас	3574
өзүбүз	3575
анк	3576
кандайдыр	3577
штаттар	3578
сыйл	3579
таянып	3580
вал	3581
кошо	3582
2016	3583
убагында	3584
тийиштүү	3585
тарыхый	3586
окумушт	3587
апрель	3588
кылмыштуу	3589
болмок	3590
кылат	3591
##чылары	3592
келгенин	3593
оорукан	3594
демократиялык	3595
##чиден	3596
##ңк	3597
районунда	3598
орнот	3599
навальный	3600
түшүндүрмө	3601
тонна	3602
##ме	3603
##ap	3604
милдетин	3605
алышкан	3606
##ээк	3607
кыс	3608
кошмо	3609
##үктү	3610
жуктур	3611
ларды	3612
##лук	3613
иштей	3614
энергетика	3615
статист	3616
##дет	3617
качып	3618
жиги	3619
токаев	3620
республикасынын	3621
болгондуктан	3622
салым	3623
сөөгү	3624
ам	3625
фор	3626
тастыкт	3627
менч	3628
айыр	3629
##дигине	3630
касым	3631
үгү	3632
##сан	3633
атат	3634
атыш	3635
айтууда	3636
этн	3637
аргасыз	3638
")	3639
гект	3640
жүй	3641
жаны	3642
##штары	3643
калса	3644
абакта	3645
өртт	3646
мыр	3647
тат	3648
маалында	3649
массалык	3650
негизде	3651
конц	3652
##лав	3653
##сүнүн	3654
##айы	3655
##кор	3656
##гыр	3657
ушу	3658
блог	3659
пул	3660
##ми	3661
мыйзамдын	3662
көрсөтүү	3663
##бой	3664
аф	3665
##енко	3666
адамдарды	3667
берилет	3668
нин	3669
коңшу	3670
фракция	3671
##ари	3672
баалуу	3673
кагаз	3674
##обил	3675
эпиде	3676
назар	3677
("	3678
экстр	3679
жараткан	3680
кетет	3681
эркинен	3682
##ктары	3683
өрт	3684
жасалма	3685
ос	3686
кабарланган	3687
чакырган	3688
убакы	3689
деңгээлде	3690
калуу	3691
##атынын	3692
өнүгүү	3693
##окт	3694
ресур	3695
проф	3696
жүрө	3697
алдынча	3698
тийиш	3699
зомбулук	3700
##ыч	3701
талдоо	3702
көтөрүп	3703
автор	3704
гез	3705
коргоочу	3706
анализ	3707
кич	3708
##өлгөн	3709
баракчасына	3710
үмүт	3711
нан	3712
карак	3713
мыйзамды	3714
тарапта	3715
ойлой	3716
##ель	3717
айтыш	3718
министрлик	3719
жайы	3720
аткыл	3721
себепт	3722
мажбур	3723
башы	3724
тарбия	3725
учак	3726
##баевдин	3727
аракеттер	3728
##ерендум	3729
бары	3730
##цен	3731
##алда	3732
##үктөр	3733
),	3734
балдары	3735
ошону	3736
төрагасынын	3737
##ативдик	3738
элди	3739
жарандардын	3740
референдум	3741
кооптуу	3742
чакан	3743
фонд	3744
айтк	3745
аймакта	3746
июнь	3747
сезим	3748
форм	3749
билбей	3750
төлөм	3751
тынчсыздан	3752
өнөктөшт	3753
экстрем	3754
ну	3755
кылын	3756
салма	3757
башталды	3758
компаниясынын	3759
колдоп	3760
33	3761
эш	3762
үр	3763
##an	3764
орусиядан	3765
жапырт	3766
аягына	3767
түзүм	3768
балк	3769
чыгат	3770
кудай	3771
сол	3772
тун	3773
##ентке	3774
жокп	3775
алмаш	3776
ирандын	3777
жугуз	3778
тос	3779
эскертти	3780
фейсбу	3781
келат	3782
терең	3783
сек	3784
жараша	3785
маалымдаган	3786
өздөрү	3787
олимпиада	3788
хам	3789
##ңар	3790
##амир	3791
дүйшөмбү	3792
күчтүү	3793
кырдаалдар	3794
атасы	3795
тутк	3796
##ех	3797
кызматтар	3798
рез	3799
көргө	3800
республика	3801
улут	3802
калганы	3803
жандан	3804
фондун	3805
тест	3806
жөнгө	3807
2015	3808
кароо	3809
кут	3810
##амин	3811
бузуу	3812
ер	3813
коммер	3814
кыйла	3815
багыт	3816
##артам	3817
кеңири	3818
жабык	3819
аныкталды	3820
##агн	3821
##пайт	3822
##ерн	3823
##үгүнө	3824
келгенде	3825
өмүрүн	3826
александ	3827
ташк	3828
##тация	3829
##малуу	3830
таандык	3831
чогулган	3832
рол	3833
##омол	3834
кыя	3835
эсе	3836
коргонуу	3837
##ткар	3838
туулган	3839
пал	3840
##тр	3841
##ылт	3842
##тту	3843
ине	3844
транспорт	3845
келаткан	3846
##хм	3847
##гандар	3848
##асыз	3849
көрө	3850
жама	3851
бийик	3852
конф	3853
кетир	3854
макам	3855
толк	3856
дүйнөдө	3857
курултай	3858
##mag	3859
imag	3860
бээ	3861
##иж	3862
энелер	3863
аймактарында	3864
газа	3865
түлүк	3866
балким	3867
бирине	3868
##ешет	3869
комитеттин	3870
министрликт	3871
төлөп	3872
ыл	3873
камт	3874
32	3875
##буз	3876
максаты	3877
св	3878
##еев	3879
чакырып	3880
облустарынын	3881
система	3882
станция	3883
александр	3884
кетүү	3885
аймагына	3886
эне	3887
эксперттер	3888
көйгөйлөр	3889
районундагы	3890
куткар	3891
маданий	3892
бөлүмүнүн	3893
аянт	3894
жумушчу	3895
израилдин	3896
дер	3897
жыйынт	3898
топтун	3899
реформ	3900
укуктарын	3901
дү	3902
##гуу	3903
өлкөлүк	3904
окр	3905
оорул	3906
электрондук	3907
күтүп	3908
кыска	3909
багытталган	3910
болбогон	3911
интернет	3912
өлч	3913
тартиб	3914
##үүлөрдү	3915
токтотуу	3916
кишиге	3917
көбүн	3918
чагыл	3919
аралаш	3920
жел	3921
##тым	3922
##олю	3923
##аларда	3924
пикирлер	3925
пл	3926
##ну	3927
айынын	3928
технология	3929
алак	3930
кетүүгө	3931
##дикке	3932
прокурор	3933
медицина	3934
камакта	3935
##жо	3936
кыргызстандан	3937
##ктыяр	3938
чалгын	3939
кызматына	3940
долларга	3941
##үшкөн	3942
өзөкт	3943
##икти	3944
көргөз	3945
эмдөө	3946
чыгарм	3947
##рессия	3948
кымбат	3949
департам	3950
кармалганын	3951
серг	3952
##ыгына	3953
жарык	3954
жүргүзгөн	3955
каалаган	3956
тасм	3957
сурап	3958
##убуз	3959
администр	3960
салыштырмалуу	3961
##лу	3962
өлгөн	3963
батир	3964
##иядагы	3965
жубай	3966
жи	3967
##ашты	3968
кетиш	3969
сотунун	3970
сүйлө	3971
паспорт	3972
менчик	3973
36	3974
##кана	3975
##икация	3976
жетиштүү	3977
качкын	3978
вакцина	3979
дөн	3980
ман	3981
ыктыяр	3982
ңыз	3983
##ник	3984
каралып	3985
бүтүн	3986
ыйгарым	3987
##ткон	3988
бекит	3989
отуруп	3990
молд	3991
##фт	3992
коммун	3993
кездеги	3994
өсп	3995
##шат	3996
демон	3997
клим	3998
хар	3999
борборунун	4000
айрымдары	4001
көрүнүш	4002
##ец	4003
##улуш	4004
иштейт	4005
калышы	4006
кырдаалды	4007
чөл	4008
бирдикт	4009
той	4010
таасирин	4011
бетт	4012
дүк	4013
мобил	4014
##чилик	4015
##ска	4016
жеңиш	4017
москвада	4018
тасма	4019
демонст	4020
болоб	4021
барды	4022
##аганы	4023
алганда	4024
чен	4025
жатканына	4026
##доган	4027
жүзүндө	4028
жыйынтыгында	4029
эрдоган	4030
коронавирустун	4031
аялдардын	4032
путиндин	4033
инфекция	4034
наб	4035
ант	4036
прот	4037
аптада	4038
00	4039
лөр	4040
##пон	4041
жумушт	4042
мирз	4043
аткан	4044
дардын	4045
дүйнөдөгү	4046
сиң	4047
байкоо	4048
кысым	4049
суз	4050
##ut	4051
консул	4052
##лов	4053
##дарында	4054
абалда	4055
билдирүүсүндө	4056
үгүт	4057
##зин	4058
уланып	4059
45	4060
вен	4061
жүкт	4062
жаап	4063
каржы	4064
тармактарда	4065
көлөмү	4066
##шкон	4067
машы	4068
инд	4069
өлчөм	4070
кв	4071
не	4072
инт	4073
түзүл	4074
узак	4075
##далды	4076
##үшүнө	4077
баса	4078
чыгарды	4079
макал	4080
##бас	4081
##егин	4082
##елерин	4083
маселен	4084
тургундар	4085
чөйрө	4086
чалдык	4087
ороз	4088
колго	4089
өзөктүк	4090
сей	4091
##дат	4092
##улов	4093
тагы	4094
айтышты	4095
айыптап	4096
ашты	4097
чол	4098
##зат	4099
2014	4100
автоунаа	4101
өчүр	4102
кишини	4103
##чилер	4104
эв	4105
маалыматтарга	4106
процес	4107
башаламандык	4108
административдик	4109
сып	4110
##дырган	4111
реп	4112
үйдө	4113
кайтарып	4114
саммит	4115
илдет	4116
гэ	4117
палат	4118
##алаган	4119
деш	4120
элем	4121
кадр	4122
бакы	4123
көрүү	4124
убакта	4125
компаниялар	4126
катаал	4127
бардыгы	4128
төг	4129
##ейл	4130
реда	4131
саясатчылар	4132
январь	4133
териштирүү	4134
тим	4135
##дору	4136
алектен	4137
күнөө	4138
украинада	4139
комиссиянын	4140
өмүрү	4141
ашкан	4142
алууну	4143
тарат	4144
##ктарды	4145
##диктин	4146
лагер	4147
финансы	4148
##үрүм	4149
билдиришти	4150
абанын	4151
кечээ	4152
өспүрүм	4153
чалдыккан	4154
жон	4155
##атбек	4156
##раз	4157
##усту	4158
аткамин	4159
сотто	4160
##пайбы	4161
лукаш	4162
гектар	4163
рын	4164
факты	4165
артка	4166
ачылган	4167
дүйнөнүн	4168
партиялар	4169
иб	4170
карабастан	4171
как	4172
##at	4173
карай	4174
катталды	4175
өткөргөн	4176
уюштуруу	4177
кызматташтык	4178
фейсбуктагы	4179
курган	4180
жарыяланды	4181
ысым	4182
өнүктүр	4183
милдеттүү	4184
арналган	4185
дос	4186
##ar	4187
##ылар	4188
сөзсүз	4189
эски	4190
каршылык	4191
завод	4192
бирдиктүү	4193
тор	4194
комплек	4195
парламентте	4196
университетинин	4197
##би	4198
##манов	4199
бүлөлүк	4200
##али	4201
##шкө	4202
тилекке	4203
сергей	4204
cap	4205
##ити	4206
коррупциялык	4207
син	4208
суракка	4209
мисал	4210
дайындалган	4211
таштап	4212
мурунку	4213
тажрыйб	4214
департамент	4215
##кту	4216
##ышын	4217
азайт	4218
##үгүр	4219
ойлон	4220
музык	4221
музей	4222
жаракат	4223
баласы	4224
балдарды	4225
байланышкан	4226
милдеттен	4227
туткун	4228
өзүң	4229
крим	4230
коопсуздугун	4231
айым	4232
жатышкан	4233
ошого	4234
кийлиги	4235
имп	4236
##кон	4237
##аж	4238
##ыкча	4239
кандуу	4240
келишет	4241
поль	4242
сутк	4243
мэ	4244
кишилер	4245
негизи	4246
аныктоо	4247
милициянын	4248
күбө	4249
алыс	4250
##чо	4251
##улла	4252
##ушат	4253
жетекчилери	4254
##ттын	4255
##ышып	4256
тескери	4257
##кыр	4258
##еме	4259
экспортт	4260
акчаны	4261
##шкер	4262
көрүүгө	4263
##угуна	4264
чыгарылган	4265
айрыкча	4266
image	4267
чөлкөм	4268
моюн	4269
москванын	4270
федерация	4271
caption	4272
алышы	4273
кооптон	4274
кызматтын	4275
киргизген	4276
талкууга	4277
табылды	4278
жетекчилиги	4279
##газиев	4280
##олюция	4281
##олор	4282
берб	4283
чыгышты	4284
чараларды	4285
набыт	4286
400	4287
##арип	4288
дый	4289
##еттүү	4290
бөлүп	4291
крым	4292
##сык	4293
жылкы	4294
198	4295
теке	4296
коомчулукта	4297
реформа	4298
райондорунда	4299
пост	4300
сары	4301
иштеш	4302
көрүнү	4303
издеп	4304
саналат	4305
##естин	4306
автоб	4307
аткаруучу	4308
ne	4309
чечил	4310
тапты	4311
облустар	4312
атамбаевдин	4313
чолпон	4314
дыйкан	4315
шартта	4316
жараян	4317
артык	4318
коомчулук	4319
мүмкүнчүлүгү	4320
##альд	4321
камагына	4322
калктын	4323
үйүнө	4324
2024	4325
уюмдардын	4326
дипломатиялык	4327
ойлойм	4328
итал	4329
көн	4330
##лору	4331
##далып	4332
америк	4333
үлгү	4334
аскар	4335
##тө	4336
айлар	4337
биринде	4338
көм	4339
райым	4340
бакыт	4341
нам	4342
аягында	4343
аймактагы	4344
шаары	4345
жк	4346
али	4347
##ели	4348
терс	4349
кылмышка	4350
облусу	4351
көбөйгөн	4352
ки	4353
порт	4354
колдонуп	4355
алексей	4356
күнөөлүү	4357
уй	4358
шв	4359
кишил	4360
стам	4361
автордук	4362
өлкөлөрү	4363
жатам	4364
атап	4365
лидерлер	4366
бээжин	4367
##ограф	4368
ынан	4369
комиссиясынын	4370
тобунун	4371
##олоң	4372
дүкөн	4373
ибра	4374
рубл	4375
өндүрүш	4376
##шан	4377
##ыкта	4378
адилет	4379
##бекова	4380
##ида	4381
атал	4382
саясаты	4383
жоопко	4384
арадагы	4385
темпер	4386
германия	4387
болгондордун	4388
учуп	4389
##иктин	4390
талапт	4391
кечинде	4392
температур	4393
жуу	4394
уу	4395
ачып	4396
жүздөгөн	4397
келтирген	4398
күрөшүү	4399
34	4400
##синин	4401
алабыз	4402
анг	4403
сүйлөп	4404
клин	4405
таасири	4406
адвокат	4407
россия	4408
жери	4409
##ыктарды	4410
тараптар	4411
##бург	4412
округ	4413
##көн	4414
##мөт	4415
толтур	4416
сүйлөшүп	4417
ырааз	4418
санарип	4419
соттолгон	4420
по	4421
танда	4422
##ыны	4423
өзбекстанда	4424
ресурст	4425
мирзи	4426
ооруканада	4427
айыпта	4428
акшда	4429
бейшен	4430
тандоо	4431
келсе	4432
алмаштыр	4433
адаб	4434
келтирүү	4435
стратегиялык	4436
##чулук	4437
##иктир	4438
кезек	4439
төлөн	4440
күчтөрүнүн	4441
биргел	4442
##гүн	4443
##ылап	4444
жазуу	4445
түркияда	4446
өмүрбек	4447
кышт	4448
муун	4449
мамлекеттердин	4450
башталгандан	4451
ишмердүүл	4452
дор	4453
өск	4454
коомдун	4455
мигранттардын	4456
##чер	4457
карама	4458
кете	4459
учурдагы	4460
депутаттык	4461
министрлигине	4462
ыңг	4463
мадум	4464
кагып	4465
алдындагы	4466
тургундары	4467
жашыруун	4468
академия	4469
мадумаров	4470
ом	4471
##стын	4472
быйылкы	4473
чыныгы	4474
башкармалыгы	4475
?"	4476
ачкан	4477
адил	4478
өлкөлөрдө	4479
телег	4480
##шемби	4481
рей	4482
ут	4483
президентке	4484
шаардын	4485
майдан	4486
меч	4487
келбейт	4488
аймагындагы	4489
жыйынтык	4490
жашка	4491
батышт	4492
тв	4493
##ха	4494
пара	4495
ээси	4496
эркиндиги	4497
журналисттерге	4498
шак	4499
##тен	4500
үйдүн	4501
##өкөй	4502
дональд	4503
кыскар	4504
айланас	4505
жетектеген	4506
град	4507
мор	4508
баск	4509
келбей	4510
турду	4511
айылынын	4512
кеткени	4513
күрөшт	4514
осмон	4515
кырсык	4516
еа	4517
жом	4518
##шту	4519
дастан	4520
айтуу	4521
##аныч	4522
өкмөтүнүн	4523
өлүмү	4524
отч	4525
органдар	4526
доор	4527
##үнчү	4528
кос	4529
маң	4530
пров	4531
жөнөкөй	4532
жарыялап	4533
айтат	4534
адамдан	4535
жазык	4536
шаарына	4537
кеңс	4538
катталып	4539
сапары	4540
айыпталып	4541
банктар	4542
кымбатт	4543
in	4544
##деш	4545
камер	4546
санитардык	4547
##аланган	4548
асан	4549
##ешкен	4550
сактагы	4551
журт	4552
коргоочулар	4553
адвокаты	4554
кезекте	4555
форум	4556
жүйө	4557
болобу	4558
жуккан	4559
тыр	4560
##ашы	4561
азиядагы	4562
салууга	4563
стамбул	4564
!"	4565
жакыр	4566
өкмөттүк	4567
келатат	4568
хамас	4569
ыңгай	4570
прин	4571
коронавирустан	4572
ынтым	4573
окшойт	4574
ру	4575
алышат	4576
кыргыздар	4577
мыйзамда	4578
байланышы	4579
жүргүзүү	4580
эскерт	4581
мүлкт	4582
зап	4583
ооруп	4584
москвага	4585
арасынан	4586
кийлигиш	4587
дык	4588
##елди	4589
чыгууга	4590
шайланган	4591
өсүп	4592
##иттер	4593
алса	4594
берсе	4595
градус	4596
еаэб	4597
делген	4598
жүгүр	4599
##исти	4600
карапайым	4601
аяктаган	4602
бакиев	4603
телеграм	4604
##макка	4605
##үккө	4606
окуяс	4607
##елешкен	4608
саналып	4609
тараптын	4610
журналисттердин	4611
ста	4612
шер	4613
##тып	4614
иштеб	4615
кошул	4616
ийгил	4617
демилге	4618
сыпатт	4619
гл	4620
чат	4621
##эн	4622
##стин	4623
кылууга	4624
берилип	4625
нааразыл	4626
чам	4627
баланын	4628
келиши	4629
көзөмөлдөө	4630
ачыкка	4631
оңой	4632
бийлигинин	4633
дөгү	4634
биргелешкен	4635
элчиси	4636
булар	4637
атаган	4638
кетиши	4639
күчөп	4640
реги	4641
алдына	4642
37	4643
тейл	4644
##оодо	4645
капт	4646
турмуш	4647
зорду	4648
ссс	4649
##ылбай	4650
##ындап	4651
бишкекке	4652
албаган	4653
канааттан	4654
проток	4655
мирзиё	4656
ссср	4657
##дүм	4658
келишкен	4659
сырттан	4660
жыйынтыкт	4661
алышты	4662
жерди	4663
##ебин	4664
көрсөтмө	4665
##елет	4666
жанында	4667
150	4668
органдарынын	4669
капит	4670
көпчүлүгү	4671
доом	4672
кары	4673
##уусун	4674
жетпей	4675
иштерди	4676
түштү	4677
##дем	4678
аралы	4679
##имче	4680
айтышкан	4681
жашыл	4682
жарандарды	4683
энеси	4684
##ыгып	4685
ракета	4686
кезектеги	4687
##үтт	4688
##унду	4689
андыктан	4690
талибдер	4691
принц	4692
##ra	4693
кирет	4694
мой	4695
күмөн	4696
нов	4697
##гар	4698
##паган	4699
##гация	4700
бериши	4701
бож	4702
иштин	4703
чыкпай	4704
болбосун	4705
келишимге	4706
кепил	4707
38	4708
##ңкы	4709
##ияз	4710
жетишкен	4711
чыгышкан	4712
алдыга	4713
эрте	4714
рус	4715
##ля	4716
козго	4717
британ	4718
британиянын	4719
валю	4720
мырза	4721
лер	4722
##ван	4723
##унов	4724
алам	4725
лицен	4726
тактап	4727
америка	4728
беткап	4729
жугузуп	4730
мэри	4731
зордукт	4732
комиссиясы	4733
мухам	4734
сындап	4735
чачын	4736
кайрылды	4737
вагн	4738
ган	4739
лаб	4740
абалды	4741
аракеттен	4742
маселелерди	4743
түйүн	4744
пра	4745
##абек	4746
окуяга	4747
аракетин	4748
такыр	4749
ыкм	4750
басымдуу	4751
туугандары	4752
ою	4753
юри	4754
баб	4755
айланып	4756
булагы	4757
##дигинин	4758
күб	4759
себептер	4760
демократия	4761
аэропорт	4762
сүз	4763
##гак	4764
##үлүүдө	4765
##үгүндө	4766
талаптар	4767
саналган	4768
өрөөн	4769
жетекчилер	4770
фонду	4771
системасы	4772
басылмасы	4773
дайыма	4774
юридик	4775
жетип	4776
укуктуу	4777
##аланып	4778
токой	4779
ырастады	4780
эсебинде	4781
75	4782
##or	4783
көзү	4784
багытта	4785
фер	4786
чагы	4787
##чунун	4788
##гуна	4789
##атына	4790
алым	4791
##чылыгы	4792
уюшкан	4793
ташып	4794
ыраазы	4795
эф	4796
кадим	4797
жолун	4798
банктын	4799
согушту	4800
кесипт	4801
адамдарга	4802
##чылардын	4803
##өшү	4804
кеңеште	4805
пайдалануу	4806
жиберген	4807
советтик	4808
##бап	4809
дарды	4810
керектүү	4811
машине	4812
калаа	4813
голд	4814
теги	4815
тата	4816
келүү	4817
тараган	4818
кыздын	4819
кийинчер	4820
отурат	4821
##гыла	4822
тегерегинде	4823
кино	4824
кг	4825
пун	4826
##наз	4827
##ырган	4828
эмил	4829
коло	4830
##дөрдүн	4831
##ивдүү	4832
кагылыш	4833
регион	4834
ия	4835
карт	4836
мыйзамдар	4837
токтоп	4838
кеңеши	4839
кубаныч	4840
оппозициялык	4841
сим	4842
айланган	4843
балдарга	4844
беришти	4845
мадания	4846
мекенине	4847
ишканасынын	4848
чыңгыз	4849
атын	4850
миллиондон	4851
техник	4852
бийлигин	4853
болгондо	4854
##ешип	4855
абагында	4856
жумду	4857
эскертүү	4858
професс	4859
райымбек	4860
кабул	4861
##дерин	4862
жыйынтыгын	4863
радиосуна	4864
чечимди	4865
алынганын	4866
менимче	4867
ооганстандын	4868
палестин	4869
##пт	4870
маалыматында	4871
өлкөлөргө	4872
спик	4873
москвадагы	4874
##ло	4875
жыйынга	4876
активдүү	4877
акциялар	4878
коммерциялык	4879
божомол	4880
жор	4881
тый	4882
##данып	4883
көркөм	4884
көчүр	4885
кээде	4886
биримдиги	4887
угуп	4888
келечект	4889
##кал	4890
##ира	4891
баатыр	4892
ашып	4893
##доого	4894
ачуу	4895
колдонгон	4896
долбоорунун	4897
сыртка	4898
мол	4899
өст	4900
##oo	4901
жарл	4902
алдыңкы	4903
тит	4904
##аку	4905
кыла	4906
кызматынан	4907
бергенин	4908
тизме	4909
кадимки	4910
44	4911
##жар	4912
##илов	4913
##ашат	4914
окуган	4915
##икте	4916
компаниянын	4917
жарадар	4918
лидерлери	4919
германиянын	4920
жактоо	4921
генер	4922
кызматын	4923
беришкен	4924
суунун	4925
ура	4926
##чан	4927
##ch	4928
##онов	4929
баарына	4930
маалымдоо	4931
кире	4932
##өйт	4933
майып	4934
сатуу	4935
жолугуп	4936
лицензия	4937
##ят	4938
##данын	4939
келбеген	4940
колу	4941
дегенди	4942
алгандар	4943
##синче	4944
эваку	4945
кылууда	4946
бөлүнгөн	4947
киреше	4948
##өгү	4949
сауд	4950
билдирүүлөр	4951
жолку	4952
күчүнө	4953
уланууда	4954
илимдер	4955
кыял	4956
тескерисинче	4957
агым	4958
айтылууда	4959
индия	4960
саламатты	4961
көбөйүп	4962
эпидеми	4963
оз	4964
##ва	4965
##st	4966
туруу	4967
##чүсү	4968
албайбыз	4969
##орттук	4970
жетишсиз	4971
акыйкатчы	4972
##кай	4973
##мед	4974
маз	4975
жылына	4976
таратып	4977
кайда	4978
сурак	4979
эскерткен	4980
жы	4981
##ko	4982
сунуштаган	4983
ооганстандагы	4984
провин	4985
эж	4986
десе	4987
талабы	4988
эвакуация	4989
лог	4990
сх	4991
бирдей	4992
жолду	4993
өлкөнү	4994
баштайт	4995
казакстанга	4996
радиосунун	4997
уран	4998
анча	4999
кытайлык	5000
маанай	5001
кыймылынын	5002
мейман	5003
министрликтин	5004
провинция	5005
дел	5006
##сон	5007
##иясынын	5008
##рах	5009
ташы	5010
бом	5011
билет	5012
талант	5013
эмеспи	5014
чыкканын	5015
июль	5016
мөөнөтүн	5017
ном	5018
фар	5019
колуна	5020
окуяны	5021
апасы	5022
радик	5023
кырдаалга	5024
нияз	5025
баар	5026
куруп	5027
жердеги	5028
документтер	5029
(+	5030
үйүндө	5031
делегация	5032
токтотуп	5033
700	5034
алиев	5035
##ттуу	5036
түрү	5037
ошонун	5038
жооптуу	5039
соңунда	5040
уюштурган	5041
протокол	5042
кийинчерээк	5043
##шев	5044
##оль	5045
##ото	5046
бөлүгүн	5047
жалпыга	5048
айыпталган	5049
зарылды	5050
изилдө	5051
##ецк	5052
үйрөн	5053
55	5054
гран	5055
лары	5056
##эл	5057
бакты	5058
##өрдүн	5059
жолго	5060
пайызга	5061
студентт	5062
килограмм	5063
тама	5064
муфт	5065
келиндер	5066
сил	5067
##пейт	5068
##як	5069
##доп	5070
байыр	5071
бейөк	5072
ошто	5073
шей	5074
атынан	5075
абадан	5076
##сүндөгү	5077
тоскоолдук	5078
бейөкмөт	5079
иман	5080
лан	5081
лив	5082
болууга	5083
беребиз	5084
боз	5085
аракеттери	5086
жерлерде	5087
лабор	5088
балык	5089
км	5090
##гам	5091
кошкон	5092
иштен	5093
чечүү	5094
кармоо	5095
маселелери	5096
казакстандык	5097
калдым	5098
көтөрүл	5099
жигит	5100
мойн	5101
##ешке	5102
##тим	5103
##ed	5104
##иров	5105
күнүнө	5106
кеңейт	5107
коомчулуктун	5108
дарылан	5109
армения	5110
температурасы	5111
иск	5112
сү	5113
бириктир	5114
улук	5115
өтүү	5116
юридикалык	5117
дыктан	5118
токтог	5119
маани	5120
сабак	5121
армиясынын	5122
##гүлт	5123
48	5124
##гор	5125
ушуну	5126
даярдык	5127
нурлан	5128
##раттар	5129
##гин	5130
жашы	5131
араны	5132
##разия	5133
кетишкен	5134
париж	5135
үзгүлт	5136
жылуулук	5137
учку	5138
масшт	5139
түзүлүп	5140
согушта	5141
көбүнчө	5142
##ушта	5143
##улганын	5144
натыйжада	5145
астана	5146
ры	5147
марат	5148
сүйлөгөн	5149
күйөөсү	5150
кичи	5151
##штык	5152
болуу	5153
##имовдун	5154
орунда	5155
жете	5156
жазуучу	5157
чыгары	5158
тилинде	5159
##үлгөнүн	5160
колдонууга	5161
жүрүшүндө	5162
рек	5163
абыл	5164
токтолду	5165
беларуст	5166
жылдыз	5167
мерт	5168
шин	5169
сөзү	5170
жарандарга	5171
жардамы	5172
берене	5173
душ	5174
жус	5175
шил	5176
##ьян	5177
##алдын	5178
депутаттары	5179
тийген	5180
кызматкерлеринин	5181
статистика	5182
лу	5183
##тардын	5184
##чылыкка	5185
совет	5186
ги	5187
зордук	5188
мээ	5189
нем	5190
##жаң	5191
биринин	5192
атады	5193
евразия	5194
өзгөрүүлөр	5195
көтөргөн	5196
##атору	5197
жумушка	5198
татаал	5199
дуб	5200
лон	5201
баал	5202
жаатында	5203
жокпу	5204
мет	5205
туризм	5206
жеринен	5207
##еши	5208
кириш	5209
көрсөттү	5210
айыптаган	5211
кыймылы	5212
китептер	5213
өңдүү	5214
учкуч	5215
zko	5216
##el	5217
##стык	5218
айдын	5219
берки	5220
чарб	5221
көтөрүлүп	5222
асыл	5223
бүтк	5224
бирикм	5225
унаа	5226
шах	5227
алууда	5228
балл	5229
жайын	5230
##оза	5231
##ресс	5232
кабарлагандай	5233
суткада	5234
токтогул	5235
губ	5236
##ту	5237
193	5238
кытайга	5239
##үктүн	5240
жабдуу	5241
чогулуп	5242
докт	5243
көбөйт	5244
жеңилдет	5245
фир	5246
##төн	5247
үйгө	5248
алгандан	5249
өкүлчүл	5250
социал	5251
баарыбыз	5252
үстүнө	5253
жоопкерчилик	5254
бүткөн	5255
мезгилде	5256
экин	5257
өкмөткө	5258
бергени	5259
парламентке	5260
коюлду	5261
былтыркы	5262
##серв	5263
түт	5264
алдык	5265
##ттык	5266
кызуу	5267
абды	5268
##ктардын	5269
тартыш	5270
иштерине	5271
бузган	5272
тамыр	5273
евробиримдик	5274
kg	5275
##дама	5276
караш	5277
##гиле	5278
шайлоодон	5279
тармагында	5280
жайгаштыр	5281
артында	5282
мектепке	5283
руслан	5284
лаборатор	5285
##став	5286
аймак	5287
##аттагы	5288
каар	5289
сыдык	5290
ташуучу	5291
жоюу	5292
эмгектен	5293
эгемендик	5294
барым	5295
дуу	5296
лей	5297
ноо	5298
##иск	5299
##өбүз	5300
##улук	5301
баң	5302
кеңешке	5303
каттоого	5304
арадан	5305
прокуратуранын	5306
каракол	5307
##гай	5308
##мен	5309
##жа	5310
##ье	5311
кылышкан	5312
көпүр	5313
аткарып	5314
узарт	5315
демократтар	5316
депутаттардын	5317
пенсия	5318
буюм	5319
губерн	5320
даттан	5321
##тери	5322
кура	5323
##алиева	5324
көбөйдү	5325
агенттигинин	5326
мелдешт	5327
виз	5328
жэб	5329
чата	5330
камп	5331
экстремисттик	5332
дешет	5333
42	5334
##нек	5335
тың	5336
үндө	5337
глоб	5338
пет	5339
##мөлөр	5340
##поз	5341
##окел	5342
##аттыкты	5343
кошуп	5344
кытайдан	5345
чынды	5346
жолугушууда	5347
армян	5348
тобокел	5349
кутт	5350
турабыз	5351
##ебер	5352
көздөп	5353
жыйн	5354
алынат	5355
унут	5356
бшкнын	5357
##итор	5358
президентинин	5359
##ашып	5360
##ациялык	5361
айыпталуу	5362
асман	5363
түшүндүрдү	5364
текшерип	5365
өскөн	5366
).	5367
##кар	5368
карман	5369
жатса	5370
кылышты	5371
шаарда	5372
жашайт	5373
келгени	5374
айлана	5375
ээлеп	5376
экинчиден	5377
600	5378
##кр	5379
эли	5380
кыздар	5381
калдык	5382
клуб	5383
ашыруу	5384
сумма	5385
чагым	5386
тык	5387
##ыбек	5388
##оосу	5389
конг	5390
сураган	5391
тапт	5392
эркек	5393
түшүнүк	5394
##ерсон	5395
баштапкы	5396
мүлк	5397
эпидемиологиялык	5398
65	5399
жик	5400
лит	5401
силер	5402
##елеп	5403
##ектор	5404
уккан	5405
абактан	5406
##өткөн	5407
добушт	5408
бүлөсү	5409
no1	5410
өздөрүнүн	5411
жубайы	5412
аралыгында	5413
кей	5414
пат	5415
##маны	5416
##атов	5417
токтотууга	5418
кубатт	5419
төмөндө	5420
көрүнүшт	5421
айбек	5422
азамат	5423
байл	5424
байге	5425
беле	5426
##дордун	5427
##ештир	5428
исма	5429
шайлоону	5430
текебаев	5431
облустарында	5432
39	5433
бри	5434
четт	5435
берүүдө	5436
##ейн	5437
тилин	5438
трамптын	5439
студенттер	5440
ах	5441
##сем	5442
##оран	5443
##ыктары	5444
мамлекети	5445
министрдин	5446
күчү	5447
##матова	5448
##султан	5449
титир	5450
##et	5451
башкалар	5452
##егине	5453
көздөгөн	5454
негиздөө	5455
ушундан	5456
вари	5457
күл	5458
##делген	5459
##фа	5460
##акыр	5461
корп	5462
иштөө	5463
##ыктыр	5464
жогорул	5465
чаралары	5466
окуясы	5467
төлөө	5468
##диктер	5469
ашыкча	5470
зомбулукка	5471
бакча	5472
институтт	5473
жомарт	5474
re	5475
ленин	5476
санын	5477
утуп	5478
##стер	5479
белгилейт	5480
ачка	5481
отун	5482
долбоорду	5483
ип	5484
кабылып	5485
кезинде	5486
февраль	5487
жаратып	5488
пайдаланып	5489
митингге	5490
рахмон	5491
демонстран	5492
дмит	5493
сем	5494
десек	5495
андагы	5496
##дөм	5497
башына	5498
тажикстанда	5499
көмөк	5500
шинжаң	5501
##или	5502
экологиялык	5503
курама	5504
турганда	5505
жасады	5506
...+	5507
шарттар	5508
калыс	5509
натыйжалуу	5510
толкун	5511
new	5512
мө	5513
##гал	5514
арб	5515
##ктарга	5516
көрсө	5517
абалга	5518
саламаттыкты	5519
афр	5520
айыптады	5521
пункт	5522
жыр	5523
чыл	5524
##гандардын	5525
##амж	5526
##асынан	5527
жарандыгын	5528
реакция	5529
сырт	5530
каржылык	5531
эстел	5532
мойнуна	5533
##штар	5534
тартты	5535
катарында	5536
көчүп	5537
##структур	5538
согуштун	5539
жылуу	5540
жогорулат	5541
автоном	5542
беларустун	5543
##ционер	5544
барымта	5545
дмитр	5546
цент	5547
##дүгүн	5548
##есинен	5549
боор	5550
##осу	5551
өткөрүүгө	5552
убакты	5553
окшош	5554
күмүш	5555
мобилизация	5556
утур	5557
орду	5558
2012	5559
өзбекстанга	5560
сунуштады	5561
келтирилген	5562
мөөнөткө	5563
төмөнкү	5564
47	5565
##алга	5566
билип	5567
күндүн	5568
саткан	5569
тушунда	5570
бөлүнүп	5571
арзан	5572
43	5573
дания	5574
оф	5575
чоо	5576
юст	5577
##өдү	5578
##айбыз	5579
азиз	5580
иштелип	5581
##үгүндөгү	5582
өткөрмө	5583
##естив	5584
өлкөлөрүнүн	5585
экспорт	5586
бызды	5587
адис	5588
өлүмүнө	5589
акчасын	5590
заманбап	5591
арда	5592
бербейт	5593
билдиришкен	5594
башкарган	5595
бузуп	5596
аткаминерлер	5597
##ьт	5598
##сок	5599
##улушу	5600
##скө	5601
ишинин	5602
балбан	5603
кошуна	5604
бийликтен	5605
коомчулукка	5606
жээнбековдун	5607
санкциялар	5608
мирзиёев	5609
масштаб	5610
шилт	5611
юстиция	5612
рав	5613
мурдар	5614
197	5615
айылындагы	5616
муниц	5617
кармаган	5618
ыйгар	5619
никол	5620
ңиз	5621
чочул	5622
эсептей	5623
милицияга	5624
жеткирүү	5625
кодек	5626
баяндама	5627
энергиясын	5628
вер	5629
##гери	5630
##пиз	5631
##етинен	5632
инсан	5633
башталып	5634
алдыда	5635
көчөлөр	5636
деңгээли	5637
темиров	5638
каттоодон	5639
демилгеси	5640
бейшеналиев	5641
лондон	5642
##нев	5643
##гр	5644
кирди	5645
эмесмин	5646
баланы	5647
башталат	5648
үнө	5649
курманбек	5650
экендигин	5651
кереги	5652
ассо	5653
экспертт	5654
үстүнөн	5655
эсебинен	5656
муницип	5657
41	5658
жөө	5659
жатты	5660
өп	5661
##ro	5662
алай	5663
турушат	5664
таратты	5665
партиялардын	5666
арызын	5667
көмү	5668
таптакыр	5669
догу	5670
чех	5671
корут	5672
көтөрүлгөн	5673
күтүү	5674
кайрылуусунда	5675
фондунун	5676
принцип	5677
тыйын	5678
жикчил	5679
нью	5680
таалай	5681
тарды	5682
кылабыз	5683
үйдөн	5684
##чуларды	5685
окутуу	5686
кошулган	5687
##ограмма	5688
дайынсыз	5689
инфра	5690
сентябрь	5691
каккан	5692
көздө	5693
көздөй	5694
чечимине	5695
соттор	5696
тармагындагы	5697
кечир	5698
кенен	5699
коргоп	5700
атай	5701
жетет	5702
балам	5703
түздү	5704
тартууга	5705
конт	5706
##естр	5707
мурдараак	5708
дүр	5709
рев	5710
чок	5711
##откон	5712
##шкөнүн	5713
буларды	5714
мамыт	5715
беренесинин	5716
ойлоп	5717
документтерди	5718
пайызы	5719
азербайжандын	5720
##ром	5721
##ушк	5722
##ипов	5723
реалдуу	5724
таанылган	5725
тааныштыр	5726
##еренция	5727
болушун	5728
блогер	5729
дмитрий	5730
юн	5731
##сылык	5732
алсак	5733
берерин	5734
жайында	5735
жалаң	5736
жеңип	5737
экспертиза	5738
себептен	5739
чап	5740
колл	5741
сөзүн	5742
баткенде	5743
октябрдагы	5744
тирүү	5745
сүйлөшүүлөрдү	5746
инфраструктур	5747
ау	5748
айына	5749
адатта	5750
ичиндеги	5751
саясатын	5752
ова	5753
буйрук	5754
өтүнүчү	5755
##гул	5756
барбы	5757
##ктады	5758
чыгышы	5759
окуядан	5760
долларды	5761
чындык	5762
агенттигине	5763
белгиленди	5764
инвесторлор	5765
биринчиден	5766
сүйлөшкөн	5767
виза	5768
тиг	5769
чай	5770
алба	5771
жерг	5772
коомдо	5773
жеткирилген	5774
жусуп	5775
дыгы	5776
чир	5777
айкын	5778
колунда	5779
бүлөлөр	5780
чынында	5781
сулай	5782
натыйжасында	5783
тагдыры	5784
концер	5785
фракциясынын	5786
замир	5787
##циялоо	5788
абакка	5789
##иктен	5790
койсо	5791
сунушу	5792
уюштуруп	5793
түшүндүрүү	5794
ассоци	5795
көмүскө	5796
иса	5797
элинин	5798
элчи	5799
при	5800
кыргызстанды	5801
##ыктардын	5802
күндүк	5803
өнүк	5804
салууну	5805
окуучулар	5806
бошотулган	5807
ишканасы	5808
фейсб	5809
харь	5810
глобалдык	5811
бен	5812
##кил	5813
бөлмө	5814
ооба	5815
мамилеси	5816
миссия	5817
ишканалар	5818
85	5819
лы	5820
нүн	5821
жатпайбы	5822
төрайым	5823
түшүнү	5824
себебин	5825
аралашкан	5826
коркунучу	5827
сайтына	5828
иимдин	5829
тажрыйба	5830
салмакта	5831
адабият	5832
кыш	5833
жакш	5834
194	5835
жоюл	5836
федералдык	5837
ассоциация	5838
##ио	5839
##албаган	5840
жашта	5841
исаков	5842
системасын	5843
энергетикалык	5844
мектепте	5845
бекемдөө	5846
баратат	5847
достук	5848
кызматтык	5849
түздөн	5850
негизсиз	5851
чыкканы	5852
тарапка	5853
коргоого	5854
киргизип	5855
тааныш	5856
бүтүр	5857
мөөнөтт	5858
жактыр	5859
райондордо	5860
умт	5861
изилдөөлөр	5862
##ce	5863
##сты	5864
##үгүнүн	5865
сурады	5866
дене	5867
жобо	5868
мөөнөтүнөн	5869
ийгиликтүү	5870
баяндам	5871
жамгыр	5872
юрист	5873
буюр	5874
назарбаев	5875
чү	5876
баасын	5877
экология	5878
кылыш	5879
жолуккан	5880
кемчил	5881
жагдайлар	5882
радиосу	5883
сирия	5884
куугунтук	5885
тум	5886
##гап	5887
аймакка	5888
##истикалык	5889
программа	5890
каф	5891
жарылуу	5892
##үшүн	5893
коюшкан	5894
апрелге	5895
токмок	5896
мекендешт	5897
түйш	5898
жуктуруп	5899
тосуп	5900
венгр	5901
генерал	5902
баңгиз	5903
##оф	5904
эмест	5905
жарлык	5906
чакыруу	5907
тыны	5908
иликтеп	5909
курулушу	5910
экинчиси	5911
китепт	5912
гезит	5913
херсон	5914
акмат	5915
##үмдүк	5916
кыян	5917
майга	5918
пикири	5919
ооганстанда	5920
##бөйт	5921
түпт	5922
радикал	5923
":	5924
##ңуз	5925
##ашуу	5926
жарандарын	5927
калганда	5928
чарасы	5929
наам	5930
акцияга	5931
узар	5932
тактоо	5933
фактыл	5934
альян	5935
жоокерлер	5936
гон	5937
ром	5938
##пак	5939
баруу	5940
үйү	5941
майн	5942
сурамж	5943
кармоочу	5944
орточо	5945
киевге	5946
евробиримдиктин	5947
айтышууда	5948
вагнер	5949
сурамжыл	5950
ордо	5951
башчылары	5952
дарга	5953
козголуп	5954
##макчы	5955
калыптан	5956
кесиптик	5957
нерсени	5958
чегинде	5959
##аа	5960
##ткү	5961
коман	5962
бөлүшт	5963
2005	5964
абдрах	5965
жолдош	5966
чыгармачыл	5967
##кус	5968
##абайт	5969
##лис	5970
шайлоочулардын	5971
кабарчысы	5972
##иссер	5973
тили	5974
жөнүндөгү	5975
тапшырган	5976
сындаган	5977
макулдашуу	5978
ишенимдүү	5979
финансылык	5980
армениянын	5981
муниципалдык	5982
ира	5983
##адык	5984
##дил	5985
##екей	5986
андр	5987
##рациялык	5988
өкүн	5989
күчөгөн	5990
аймактын	5991
абагына	5992
аялдарга	5993
жүргөнүн	5994
кесепети	5995
конференция	5996
дик	5997
хол	5998
##гур	5999
##дым	6000
эмге	6001
талаб	6002
колон	6003
чыгарууга	6004
эсен	6005
коюшту	6006
##сүнөн	6007
кызматкерлерине	6008
##одогу	6009
оппозициячыл	6010
көмөкт	6011
ылдам	6012
пнев	6013
##атындагы	6014
##ортация	6015
баев	6016
жаайт	6017
депортация	6018
түрлөр	6019
жыйыр	6020
аткез	6021
албайм	6022
мигрант	6023
көчмөн	6024
тизмесине	6025
элчилиги	6026
тра	6027
##енк	6028
жаралган	6029
сөзүнө	6030
##ациялоо	6031
сотунда	6032
автом	6033
органдарына	6034
күйүүчү	6035
согуштук	6036
талаштуу	6037
кызматташуу	6038
кремлдин	6039
атабыз	6040
төлө	6041
кечирим	6042
үнүн	6043
бошотуу	6044
жаратылыш	6045
эреже	6046
мухаммед	6047
айыгып	6048
коор	6049
келерин	6050
ишемб	6051
##герлер	6052
жыйыны	6053
кытайда	6054
уруп	6055
катарына	6056
акыры	6057
ырайы	6058
аскерлерин	6059
ноябрь	6060
равшан	6061
түшүнүкт	6062
##лин	6063
##еф	6064
##инче	6065
##унд	6066
кетсе	6067
кирүү	6068
##осун	6069
долбоордун	6070
дүйнөгө	6071
эсептелет	6072
командасы	6073
сактагыч	6074
душман	6075
жмк	6076
##дп	6077
баг	6078
какты	6079
канат	6080
##омп	6081
балдарын	6082
чечен	6083
харьков	6084
##тууга	6085
##тарды	6086
бос	6087
азиянын	6088
кайн	6089
киргизилди	6090
абалын	6091
бийликте	6092
уулунун	6093
качкан	6094
ачылды	6095
кичин	6096
аал	6097
ашы	6098
##ia	6099
##асак	6100
турсун	6101
казакстандагы	6102
башкарып	6103
кимге	6104
чектеш	6105
тарыхы	6106
заво	6107
##лет	6108
борборлор	6109
ойдо	6110
европадагы	6111
минск	6112
бийлигине	6113
сереп	6114
жылдыгына	6115
валюта	6116
##лыктар	6117
##бал	6118
##пин	6119
билиш	6120
##чылыктар	6121
аялы	6122
диал	6123
жетектеп	6124
нерселер	6125
айырм	6126
абылгазиев	6127
мүн	6128
##гол	6129
##пеген	6130
отуз	6131
айылда	6132
бузуулар	6133
интерв	6134
кызматкерлердин	6135
участ	6136
штабдын	6137
пневмон	6138
координ	6139
жоб	6140
фото	6141
##кий	6142
##чак	6143
катчы	6144
салтан	6145
2011	6146
биримдик	6147
ракеталык	6148
бутага	6149
медал	6150
шилтеме	6151
.)	6152
кардар	6153
##умун	6154
аймагы	6155
төрөлгөн	6156
апт	6157
##ибер	6158
күчтөрдүн	6159
ларга	6160
репрессия	6161
редакция	6162
##he	6163
билдирет	6164
кант	6165
башын	6166
##ктарын	6167
бекеш	6168
пикиринде	6169
механ	6170
шаарларында	6171
центер	6172
54	6173
мү	6174
##еция	6175
##сал	6176
анык	6177
жаткыр	6178
курууга	6179
кирүүгө	6180
чечип	6181
чыккандар	6182
сакталып	6183
өзгөрүү	6184
сың	6185
##суалдык	6186
түркияга	6187
окумуштуулар	6188
сууга	6189
укт	6190
##инов	6191
окууда	6192
суроого	6193
өкмөттү	6194
аракеттерин	6195
артынан	6196
кыскарт	6197
жоктугун	6198
##аст	6199
##бир	6200
##баса	6201
##албай	6202
жайкын	6203
окуяларды	6204
даярдап	6205
жээг	6206
полициясы	6207
донецк	6208
матраимовдун	6209
тегеран	6210
келечекте	6211
гол	6212
тук	6213
ус	6214
##екти	6215
катм	6216
##үшөт	6217
экенине	6218
келгенден	6219
окуучу	6220
##дуулук	6221
чыккандан	6222
урмат	6223
орунду	6224
пикирде	6225
жекшембиде	6226
коңш	6227
созулган	6228
##алса	6229
дармек	6230
тармагы	6231
иликтөөлөр	6232
жабырлан	6233
жемкор	6234
49	6235
##асындагы	6236
аза	6237
башчынын	6238
##ылганы	6239
жазылып	6240
шаардагы	6241
өтүүгө	6242
аймагынан	6243
##сион	6244
тополоң	6245
баштаганын	6246
сыйлык	6247
башчысынын	6248
коопсуздугу	6249
кризист	6250
жатышканын	6251
күбөлөр	6252
ауди	6253
##us	6254
кыргыздын	6255
##өлөк	6256
тартышты	6257
доллардан	6258
асанов	6259
сиге	6260
бюджет	6261
материалдык	6262
программасы	6263
айдоочулар	6264
администрациясы	6265
жапония	6266
идея	6267
талдоочу	6268
асп	6269
фестив	6270
менчи	6271
азим	6272
колунан	6273
192	6274
эркектер	6275
##диктен	6276
бейтаптар	6277
суроолоруна	6278
мүнөздө	6279
мээр	6280
коч	6281
булак	6282
том	6283
жүрүшү	6284
кетишти	6285
шаарынан	6286
өтүшү	6287
##устар	6288
миллионго	6289
макулда	6290
колдоого	6291
прокуратурасы	6292
кмш	6293
быш	6294
исп	6295
раз	6296
ха	6297
##рек	6298
2000	6299
көрбөгөн	6300
курулган	6301
күндөр	6302
илин	6303
облусуна	6304
кризис	6305
маркумдун	6306
лукашенко	6307
кесиптешт	6308
поп	6309
##ter	6310
##дукт	6311
каст	6312
##ита	6313
коюш	6314
өзгөч	6315
коюлуп	6316
согуштан	6317
аэропортт	6318
алмашуу	6319
ташыган	6320
58	6321
куп	6322
##олук	6323
болору	6324
болсун	6325
кызды	6326
##аттардын	6327
чакты	6328
бакч	6329
институту	6330
польш	6331
бүткүл	6332
се	6333
##мад	6334
туристтер	6335
жаратты	6336
2013	6337
борборунда	6338
ортом	6339
миллиондогон	6340
тапшырды	6341
шектүүлөр	6342
биримдигинин	6343
көрүнүп	6344
кабинети	6345
санкцияларды	6346
блин	6347
сайтында	6348
академ	6349
түшүндүрмөсү	6350
иштебей	6351
мамытов	6352
абай	6353
пады	6354
##дел	6355
өткөрүлүп	6356
анткен	6357
сабыр	6358
тизмеге	6359
соккул	6360
аскерлеринин	6361
университет	6362
кримин	6363
блинкен	6364
ti	6365
##урман	6366
##абил	6367
тардын	6368
үчөө	6369
##үмдү	6370
жеринде	6371
алгандардын	6372
##лашкан	6373
жүргүн	6374
киргизил	6375
нурсултан	6376
кайтаруу	6377
жоопкерчилиги	6378
интернетке	6379
тонн	6380
лор	6381
ро	6382
рас	6383
##алиция	6384
келер	6385
келишти	6386
турууга	6387
##дайт	6388
кабаттуу	6389
эркиндигин	6390
тизмесин	6391
үстөм	6392
мектептин	6393
шав	6394
үс	6395
195	6396
мындайча	6397
дарыя	6398
деклар	6399
кенин	6400
акциялары	6401
барганда	6402
тургай	6403
студент	6404
тарапташтары	6405
эфир	6406
гор	6407
##кем	6408
##кунун	6409
бая	6410
айн	6411
аннек	6412
маян	6413
дегендей	6414
иштерге	6415
реестр	6416
##дорду	6417
өткөрдү	6418
жүргүзүлгөн	6419
директор	6420
##бетов	6421
чагылдыр	6422
өрөөнүндө	6423
лейлек	6424
52	6425
паш	6426
шылт	6427
##ишке	6428
##ани	6429
кыргызча	6430
калышты	6431
жайылыш	6432
түрткү	6433
суук	6434
үмүтт	6435
стандар	6436
өкүлдөрүнүн	6437
институтунун	6438
окумуштуу	6439
плат	6440
айларында	6441
##лаган	6442
айланды	6443
кожо	6444
евро	6445
кеңешчиси	6446
вирустун	6447
сайма	6448
кездеш	6449
мугалимдер	6450
аннексия	6451
##чк	6452
##пул	6453
##юк	6454
коалиция	6455
##уштук	6456
дараж	6457
мари	6458
таануу	6459
спект	6460
дарыгерлердин	6461
##ers	6462
көчөгө	6463
мигранттарды	6464
архив	6465
камтылган	6466
автобус	6467
профессор	6468
каарман	6469
четтет	6470
кичинекей	6471
46	6472
57	6473
хор	6474
##ортко	6475
айы	6476
катышат	6477
окуянын	6478
бекер	6479
жүргүзүлүп	6480
жоопкерчиликти	6481
беришет	6482
франциянын	6483
түзүмдөр	6484
сузак	6485
өнүктүрүүгө	6486
департаментинин	6487
кубанычбек	6488
the	6489
##шып	6490
берүүнүн	6491
жүрдү	6492
башчылар	6493
кишиден	6494
сомду	6495
сактоого	6496
кенем	6497
дайындалды	6498
советтер	6499
кореянын	6500
өзгөчөл	6501
суна	6502
##ров	6503
##юп	6504
жактагы	6505
маг	6506
сагын	6507
айтышат	6508
болгондон	6509
аларын	6510
##ыктарын	6511
камалды	6512
байланышта	6513
##лигин	6514
абдулла	6515
талапкерлердин	6516
баалуулу	6517
пер	6518
чий	6519
##сең	6520
##ектин	6521
196	6522
европанын	6523
##штырып	6524
окуяларга	6525
мирлан	6526
жайларда	6527
каршыл	6528
машыгуу	6529
##назаров	6530
жыйырма	6531
бук	6532
ел	6533
норм	6534
ынын	6535
алдам	6536
##ета	6537
##икасы	6538
арасын	6539
##ыйт	6540
маек	6541
кызым	6542
##гожин	6543
жумур	6544
аныктап	6545
эркиндик	6546
120	6547
арызы	6548
иранда	6549
техника	6550
жумушсуз	6551
жазгандай	6552
ортодо	6553
буудай	6554
өздөрүн	6555
отчет	6556
жун	6557
жардыр	6558
жокмун	6559
жазасын	6560
украиналык	6561
чыгышт	6562
чыкса	6563
алдыдагы	6564
журналисттик	6565
ээр	6566
сунушун	6567
адахан	6568
ээлеген	6569
жокпуз	6570
68	6571
теп	6572
чур	6573
##ьм	6574
##сине	6575
##арх	6576
##ств	6577
даана	6578
##ессия	6579
калкы	6580
чарасын	6581
түшүнүп	6582
кимдер	6583
бурм	6584
инвестициялык	6585
анкара	6586
ченем	6587
деб	6588
келүүдө	6589
##дугу	6590
жолунун	6591
жайыл	6592
абактагы	6593
марк	6594
##ешти	6595
өткөндөн	6596
##сунан	6597
##дикти	6598
##оолорду	6599
спортчу	6600
иштетүү	6601
астында	6602
##орож	6603
петер	6604
##ерд	6605
жөндөм	6606
борбордун	6607
күрө	6608
президенттикке	6609
керектөө	6610
финалда	6611
##тони	6612
1990	6613
айланасындагы	6614
ыңгайлуу	6615
вариан	6616
фрон	6617
##ком	6618
келб	6619
тема	6620
авиак	6621
##хаил	6622
##боо	6623
##na	6624
##ыларын	6625
ансыз	6626
кетсек	6627
мурас	6628
күчүндө	6629
жарандарына	6630
рест	6631
чараларын	6632
жапаровго	6633
даярдоо	6634
тармагына	6635
натонун	6636
өндүрүү	6637
салынат	6638
шавкат	6639
53	6640
##гысы	6641
орусияны	6642
##үндөй	6643
келгендер	6644
чыкп	6645
кылмы	6646
колдонулган	6647
долбооруна	6648
жанындагы	6649
үнү	6650
мүмкүнчүлүкт	6651
берилгенин	6652
##чүлөрдүн	6653
тагылган	6654
адабия	6655
аппарат	6656
жаныбар	6657
дүң	6658
пригожин	6659
ыз	6660
жүрөк	6661
аягы	6662
уюмга	6663
аракеттерди	6664
салынды	6665
##ханов	6666
пандемиясы	6667
шартында	6668
төлөмдөр	6669
үзгүлтүккө	6670
зон	6671
кече	6672
танд	6673
##диев	6674
##баш	6675
##бызды	6676
кесилген	6677
сыноо	6678
уюштурулган	6679
агай	6680
айтканы	6681
сверд	6682
революция	6683
хим	6684
##инян	6685
бардыгын	6686
жарн	6687
тартылып	6688
төраг	6689
ред	6690
көлбаев	6691
курулуп	6692
комисс	6693
тарыхында	6694
саатка	6695
ташкентт	6696
англис	6697
##ёр	6698
жагы	6699
##ттагы	6700
##дарда	6701
турса	6702
марттан	6703
уруш	6704
жеңишке	6705
күтүлүүдө	6706
жогоруда	6707
кесепетт	6708
тааныган	6709
жигер	6710
интел	6711
түйүндөр	6712
зарылдыгын	6713
декларация	6714
62	6715
77	6716
зор	6717
рим	6718
хама	6719
##хаб	6720
дешти	6721
үйл	6722
шайлоочулар	6723
##игип	6724
тигил	6725
көзөмөлдө	6726
ырайым	6727
сиздин	6728
кызыкдар	6729
агрессия	6730
калтырды	6731
улантып	6732
мандаттуу	6733
азайып	6734
үйрөт	6735
уйгур	6736
запорож	6737
пашинян	6738
платф	6739
тагын	6740
тура	6741
##башы	6742
көрү	6743
аралыкта	6744
эрежелер	6745
өрттөн	6746
чалып	6747
##жыр	6748
##ig	6749
тергөөнүн	6750
эсептелген	6751
чогултуп	6752
кыйноого	6753
кепилдик	6754
немис	6755
##орд	6756
##еки	6757
бирден	6758
тартк	6759
мыйзамдарды	6760
жайына	6761
оорунун	6762
контр	6763
суран	6764
жумган	6765
ойлор	6766
өлкөлөрдөн	6767
келишимди	6768
уюштурууга	6769
чыгышындагы	6770
чыңалуу	6771
чемпиону	6772
түрмөдө	6773
мандат	6774
ымыр	6775
резолюция	6776
намаз	6777
центерра	6778
800	6779
йор	6780
төк	6781
##бер	6782
##арат	6783
арага	6784
кое	6785
колдой	6786
абак	6787
сөзүндө	6788
стал	6789
сүйлөшт	6790
урм	6791
таанымал	6792
планы	6793
калтырган	6794
бакиевдин	6795
лукашенк	6796
спектак	6797
ларын	6798
##идин	6799
##гуз	6800
##ty	6801
алда	6802
##ланд	6803
михаил	6804
апа	6805
конушт	6806
түнд	6807
эскерүү	6808
келтирип	6809
милдеттендир	6810
рубль	6811
свердлов	6812
тет	6813
##нов	6814
##сен	6815
##атуу	6816
##стөн	6817
##данган	6818
##ланат	6819
айтматов	6820
маалыматтык	6821
жетим	6822
маселесине	6823
бериле	6824
аныкталып	6825
көтөрүлдү	6826
которгон	6827
камактагы	6828
##дегенде	6829
сарпт	6830
көчөдө	6831
жолдорун	6832
биргеликте	6833
твиттер	6834
мүлктү	6835
диалог	6836
бөрү	6837
чуу	6838
##шар	6839
##ынып	6840
##акунов	6841
өзгөн	6842
белгилери	6843
байланыштыр	6844
##лашты	6845
шарты	6846
кылганын	6847
##актары	6848
имарат	6849
төңк	6850
суроолорго	6851
##ификация	6852
топтордун	6853
жакшыртуу	6854
тейлөө	6855
төрайымы	6856
ижар	6857
сынын	6858
сүт	6859
цзин	6860
##цар	6861
жардыруу	6862
жүрүм	6863
өтөп	6864
коронавирусту	6865
көрсөтүүгө	6866
ээн	6867
2009	6868
мигранттарга	6869
көргөзмө	6870
тандап	6871
кепт	6872
##өбаев	6873
соц	6874
түзүүгө	6875
авст	6876
сүйүн	6877
мурдагыдай	6878
сатылып	6879
орунга	6880
аткарган	6881
иликтен	6882
аймактарга	6883
талапкерлигин	6884
тапшырып	6885
айтылгандай	6886
прокуратурага	6887
овдун	6888
сириянын	6889
no2	6890
архит	6891
өнүккөн	6892
жердин	6893
жашында	6894
жашоого	6895
##иктерди	6896
аныктаган	6897
катыша	6898
көзөмөлдөп	6899
төртүнчү	6900
сунушталган	6901
2008	6902
тоолор	6903
экспертиз	6904
болбогонун	6905
моралдык	6906
байыркы	6907
мээрим	6908
56	6909
51	6910
63	6911
адегенде	6912
жору	6913
суб	6914
чө	6915
шери	6916
##не	6917
##as	6918
жаатта	6919
болушкан	6920
##үлө	6921
адамдары	6922
жайылып	6923
журналисттин	6924
колдоосу	6925
дарыланып	6926
белгилегендей	6927
улукбек	6928
кочкор	6929
австрал	6930
мик	6931
алк	6932
алим	6933
##гый	6934
##ория	6935
##улар	6936
жаатындагы	6937
дег	6938
билин	6939
шаарын	6940
түшөт	6941
тилдүү	6942
табуу	6943
оңдоп	6944
машина	6945
машыктыр	6946
радио	6947
кызыкчылыгы	6948
өзүбүздүн	6949
татыктуу	6950
куттукт	6951
механизм	6952
шир	6953
##күр	6954
жолдун	6955
белгилей	6956
жыйынын	6957
жакындарына	6958
опуз	6959
таба	6960
долларлык	6961
койгонун	6962
тизмеси	6963
кошумчалаган	6964
максим	6965
коркунучтуу	6966
анклав	6967
көпүрө	6968
мем	6969
##зел	6970
##ерв	6971
баку	6972
жаса	6973
атом	6974
украинаны	6975
##измге	6976
дайында	6977
күйүп	6978
которулган	6979
акчанын	6980
коопсуздукту	6981
запорожье	6982
фун	6983
##шай	6984
##алыктар	6985
##олот	6986
##ург	6987
болушту	6988
аксы	6989
каныбек	6990
##ыштар	6991
##уштуу	6992
чечүүгө	6993
тилект	6994
чечимге	6995
кимдин	6996
таштанды	6997
жугуштуу	6998
ушуга	6999
жумуштан	7000
биргелешип	7001
беларуста	7002
кож	7003
кыргыздардын	7004
кори	7005
алардан	7006
чыгара	7007
жарандарынын	7008
жөнөткөн	7009
##уулары	7010
өткөрүүнү	7011
толукт	7012
сомдук	7013
каражатты	7014
узун	7015
сайты	7016
октябрга	7017
тайма	7018
##аматов	7019
жетекчисинин	7020
психологиялык	7021
этникалык	7022
билбейм	7023
негиздөөчүсү	7024
жөлөк	7025
калууда	7026
ңар	7027
барууга	7028
калбай	7029
талан	7030
өндүрүшт	7031
конституциянын	7032
жкку	7033
швей	7034
мазм	7035
news	7036
кенемте	7037
петербург	7038
рейт	7039
##но	7040
##тыл	7041
##тун	7042
азап	7043
көрдү	7044
камалып	7045
өнүм	7046
таби	7047
талкууланып	7048
пайдалуу	7049
интернетте	7050
мейкин	7051
коркутуп	7052
батыштын	7053
арбын	7054
көмөктөш	7055
пневмония	7056
үсөн	7057
ик	7058
мушт	7059
рам	7060
##чук	7061
##улова	7062
##лоого	7063
кошулуп	7064
төлөгөн	7065
айыптоо	7066
эскертип	7067
нурбек	7068
декабрь	7069
тапшырма	7070
нато	7071
бюджеттен	7072
курчуп	7073
объектил	7074
ынтымак	7075
##абеков	7076
молдо	7077
ачкачылык	7078
андрей	7079
швейцар	7080
дөй	7081
пав	7082
##дак	7083
##ульт	7084
##үүсү	7085
кылыч	7086
өткөнүн	7087
терге	7088
жарандын	7089
макрон	7090
борборуна	7091
кимдир	7092
мааниси	7093
көзөмөлдөгөн	7094
камсыздан	7095
оорудан	7096
сөздөрдү	7097
баскыч	7098
интервью	7099
жеп	7100
зулуш	7101
##вид	7102
өзүндө	7103
калай	7104
жаткандар	7105
кабылганын	7106
жоголгон	7107
сотуна	7108
кеткенден	7109
кечки	7110
вирусту	7111
козгогон	7112
донбас	7113
талаа	7114
таңкы	7115
акысыз	7116
администрациясынын	7117
монгол	7118
грузин	7119
редакт	7120
reut	7121
76	7122
дил	7123
лин	7124
##лүк	7125
##пой	7126
өлт	7127
комен	7128
жүргөнү	7129
деңгээлдеги	7130
жумада	7131
тазалоо	7132
булактарына	7133
навальныйдын	7134
татар	7135
польша	7136
сыдыков	7137
reuters	7138
сессия	7139
арасына	7140
маект	7141
##отек	7142
##ышта	7143
окууга	7144
берүүдөн	7145
көзөмөлгө	7146
документке	7147
мамилелер	7148
полициянын	7149
мэрия	7150
ошентсе	7151
каржылоо	7152
ымыркай	7153
чатыр	7154
##часы	7155
тариф	7156
аймагынын	7157
эсеби	7158
курмандыктар	7159
ачылып	7160
каражаттарынын	7161
тамактан	7162
##ештирүү	7163
табигый	7164
67	7165
чалды	7166
##көө	7167
##мур	7168
бакир	7169
иште	7170
тууганы	7171
тургандай	7172
##аларына	7173
түзүлдү	7174
чыгарылып	7175
кыйр	7176
миграциялык	7177
банкы	7178
бүтүп	7179
##гылар	7180
топтоп	7181
транс	7182
ыктым	7183
курамы	7184
курамына	7185
байдендин	7186
кызыкчылыгын	7187
авторитардык	7188
тагыра	7189
ипотек	7190
мук	7191
нү	7192
маар	7193
махм	7194
иштөөгө	7195
салат	7196
учуру	7197
кыдырып	7198
мекемесинин	7199
таасирдүү	7200
илимпоз	7201
режеп	7202
куур	7203
өлтүрүлгөн	7204
метрге	7205
кызматташтыкты	7206
азайтуу	7207
дуушар	7208
данияр	7209
драм	7210
рат	7211
хал	7212
##май	7213
##ыккан	7214
турчу	7215
бөлүш	7216
дарм	7217
кабылды	7218
жасай	7219
чектелген	7220
##ңгүл	7221
аймактарды	7222
олтур	7223
бүтүндөй	7224
жыйынтыгына	7225
1000	7226
имараттар	7227
элчилик	7228
жөнөтүлгөн	7229
макулдашууга	7230
калкынын	7231
ойноп	7232
пакистандын	7233
интег	7234
учкучсуз	7235
исмаил	7236
форма	7237
##ci	7238
##арбек	7239
айлам	7240
##ттарды	7241
##ектүү	7242
салгыл	7243
##ясынын	7244
келишимдин	7245
бюджетке	7246
жогорудагы	7247
аянты	7248
коюуга	7249
адилеттүү	7250
..	7251
шаш	7252
##усуна	7253
барбай	7254
атыр	7255
кылышы	7256
инде	7257
тыян	7258
жасоо	7259
толгон	7260
төлөй	7261
далай	7262
маселеге	7263
тапшырм	7264
мунап	7265
суроосуна	7266
кыйналып	7267
сириядагы	7268
##ативдүү	7269
айдоочу	7270
режими	7271
оштогу	7272
атышуу	7273
##ская	7274
каптаган	7275
оч	7276
##ни	7277
##ота	7278
##бойт	7279
чечкен	7280
##тыгы	7281
коомго	7282
стр	7283
аялдын	7284
текст	7285
парламенттеги	7286
транз	7287
доомат	7288
жылдардан	7289
багытында	7290
машыг	7291
конгрес	7292
өлтүрүү	7293
66	7294
##еде	7295
##re	7296
айсул	7297
десем	7298
каг	7299
өлүп	7300
жазага	7301
автору	7302
##мөк	7303
саясатка	7304
өзбекстандык	7305
сутка	7306
документти	7307
грек	7308
схем	7309
бекешев	7310
архитект	7311
##мир	7312
##арк	7313
айдар	7314
каралат	7315
турам	7316
азгыр	7317
маалымдалды	7318
жайдын	7319
өлкөбүз	7320
чыгарууну	7321
марш	7322
акшга	7323
жүргүзүүгө	7324
органдардын	7325
алмаштыруу	7326
күрөшүп	7327
##орттун	7328
бөлүмү	7329
сөөкт	7330
канада	7331
ишкананын	7332
материалдар	7333
фактысы	7334
кезексиз	7335
демонстранттар	7336
жигердүү	7337
ижарага	7338
95	7339
li	7340
хак	7341
##пөгөн	7342
##le	7343
##өлүп	7344
билебиз	7345
кетп	7346
жайылт	7347
тыгыз	7348
окурман	7349
ачыкт	7350
бузду	7351
250	7352
билдирүүсү	7353
оңдоо	7354
кылмыштар	7355
ыйык	7356
акчасы	7357
эртеси	7358
нарк	7359
долбоорлорду	7360
акими	7361
демонстрация	7362
чындыгында	7363
таалайбек	7364
көчмөндөр	7365
ва	7366
нор	7367
синин	7368
шан	7369
баалап	7370
эмир	7371
депутаттын	7372
сынак	7373
башталганын	7374
начарлап	7375
эместигин	7376
теб	7377
##чун	7378
##орация	7379
##стагы	7380
жатак	7381
билдириш	7382
күнүмдүк	7383
чечм	7384
жооб	7385
кезегинде	7386
жабылган	7387
бузулган	7388
имам	7389
тажикстандык	7390
колдоду	7391
чогулт	7392
франц	7393
экономикасы	7394
көрсөткүчтөр	7395
кремль	7396
64	7397
##ху	7398
##шкы	7399
##генин	7400
маалымдалган	7401
##ктарда	7402
түрүндө	7403
ичип	7404
карашт	7405
191	7406
##лайт	7407
толуп	7408
көрсөтөт	7409
сыйм	7410
кайтыш	7411
штаттардын	7412
ташкент	7413
моюнга	7414
дүн	7415
нас	7416
ого	7417
төш	7418
эб	7419
булардын	7420
турушу	7421
атышат	7422
жартыл	7423
калем	7424
авар	7425
токтогон	7426
акшдагы	7427
тармагын	7428
эркиндикке	7429
##тиф	7430
акысы	7431
аныкталганын	7432
##самбл	7433
рыск	7434
махмуд	7435
жартылай	7436
упай	7437
ңуз	7438
##гип	7439
##вол	7440
жатышты	7441
турум	7442
боронов	7443
негизделген	7444
мартка	7445
айрымдар	7446
көлдө	7447
европага	7448
ыргы	7449
изилдеп	7450
сүрөттөр	7451
кесепетинен	7452
ажыратылган	7453
швеция	7454
айланасында	7455
59	7456
73	7457
##мос	7458
аркы	7459
##абаган	7460
жайда	7461
белгилешет	7462
кошуун	7463
конуш	7464
жардамга	7465
сатылган	7466
##идеги	7467
козголоң	7468
шектелип	7469
аскерлердин	7470
калыптыр	7471
обсерв	7472
соолугу	7473
соолугуна	7474
мусулмандар	7475
##конг	7476
луган	7477
мариуп	7478
ыктымалды	7479
чындап	7480
бирөөлөр	7481
кайс	7482
##уулугу	7483
жабылып	7484
тыным	7485
таануучу	7486
келишими	7487
такси	7488
кубатбек	7489
күткөн	7490
дарылоо	7491
өзгөртүүлөрдү	7492
карантинге	7493
келечеги	7494
коркутуу	7495
этност	7496
жүгүртүү	7497
жергесинде	7498
чөп	7499
ыңк	7500
##үшкө	7501
##имде	7502
жасалып	7503
сатууга	7504
ташуу	7505
тажикстанга	7506
июлга	7507
ойлогон	7508
тайып	7509
сөөгүн	7510
өнүгүп	7511
экономиканы	7512
ишкерлердин	7513
аскаров	7514
климаттын	7515
ноокат	7516
гонконг	7517
##вили	7518
##пест	7519
жылдыр	7520
байсал	7521
кургак	7522
дегендер	7523
##уулукту	7524
колдонул	7525
тургундардын	7526
бюр	7527
абдул	7528
түрмөгө	7529
рыног	7530
коридор	7531
айсулуу	7532
луганск	7533
гал	7534
##бест	7535
##ганда	7536
болсок	7537
элибиз	7538
районуна	7539
тилке	7540
киргизилип	7541
атактуу	7542
отургуз	7543
европалык	7544
бөлүмүндө	7545
монитор	7546
санап	7547
тартиби	7548
61	7549
72	7550
дн	7551
жыны	7552
##лян	7553
арча	7554
карга	7555
карта	7556
##есиндеги	7557
өтүүдө	7558
жапа	7559
жабуу	7560
бекет	7561
өзгөрүп	7562
кылганы	7563
июнга	7564
милдети	7565
түшүндүргөн	7566
топтолгон	7567
журналисттерди	7568
бөлүмүнө	7569
калың	7570
үстүндө	7571
коопсуздугуна	7572
мүлкүн	7573
аяктап	7574
атаандаш	7575
позициясын	7576
куткаруу	7577
фирм	7578
##ol	7579
##it	7580
##иллер	7581
мамлекетте	7582
борис	7583
уюмуна	7584
топко	7585
беки	7586
##алиевдин	7587
абалынан	7588
көбөйтүү	7589
талкууланды	7590
тактаган	7591
иликтөөчү	7592
күбөл	7593
ырастаган	7594
токтоткон	7595
энергиясы	7596
тоскоолду	7597
лагерлер	7598
тажрыйбасы	7599
титирөө	7600
попул	7601
келерки	7602
ашкер	7603
егип	7604
небер	7605
үү	7606
айтууга	7607
кабатыр	7608
##омали	7609
ушин	7610
бөлүгүндө	7611
##оса	7612
апам	7613
компью	7614
бузулуп	7615
эркиндигине	7616
мекемеси	7617
жетекчилик	7618
которуу	7619
катышуучулар	7620
гүлн	7621
өзүңүз	7622
##ляция	7623
баалады	7624
француз	7625
79	7626
суг	7627
##адыр	7628
##иков	7629
##динов	7630
ашат	7631
карашы	7632
жарыяланып	7633
жоопкерчиликке	7634
режиссер	7635
1991	7636
жерлеринде	7637
турмушка	7638
жүрүшөт	7639
офиц	7640
ресторан	7641
туруштук	7642
проп	7643
үйдү	7644
үйүнүн	7645
чечкин	7646
айылына	7647
августка	7648
коркуп	7649
маселелерин	7650
бетер	7651
өзгөртүп	7652
фактылар	7653
жылдардагы	7654
процесс	7655
тутум	7656
федерациясынын	7657
жарлыкка	7658
кк	7659
кс	7660
##bc	7661
билем	7662
байма	7663
балага	7664
түшкөнүн	7665
чечимдер	7666
компаниялардын	7667
тергөөчү	7668
артиллер	7669
көчкү	7670
коррупцияны	7671
жагдайды	7672
түркиядагы	7673
өзгөртүүлөр	7674
товарлар	7675
##иттин	7676
аралашып	7677
академиясынын	7678
губернатору	7679
африка	7680
роман	7681
гар	7682
пес	7683
##иль	7684
жакыны	7685
көрсөтө	7686
доллардын	7687
импер	7688
милициясы	7689
сунуштап	7690
бүтүрүү	7691
түшүндүрүп	7692
өнөктөш	7693
тинтүү	7694
баратканын	7695
резерв	7696
бекитилген	7697
маңзат	7698
кыянаттык	7699
атомдук	7700
викт	7701
чор	7702
##лект	7703
##дүгү	7704
##ынган	7705
##үлүшү	7706
эмомали	7707
##ланууда	7708
калышкан	7709
балалуу	7710
тыгын	7711
чакырылган	7712
партиялык	7713
сапаты	7714
брю	7715
ишмерлер	7716
басылма	7717
эрежелерин	7718
блогерлер	7719
97	7720
шык	7721
##күл	7722
##дыгер	7723
карайт	7724
##есиз	7725
кав	7726
кайдыгер	7727
##дукция	7728
сөздү	7729
##опол	7730
ойло	7731
курамында	7732
конституцияга	7733
сентябрга	7734
атышууну	7735
илимдеринин	7736
84	7737
нус	7738
пи	7739
петр	7740
ри	7741
##өң	7742
##алышына	7743
кыздардын	7744
команд	7745
жерине	7746
сала	7747
шаарга	7748
конкр	7749
санкт	7750
казакстандан	7751
партиясынан	7752
кырдаалда	7753
кармалганы	7754
документте	7755
которуп	7756
учурларда	7757
медет	7758
буйругу	7759
беттешт	7760
сиңир	7761
үлгүсүндөгү	7762
нааразылыгын	7763
мониторинг	7764
жоро	7765
сууну	7766
кырк	7767
азем	7768
##үгүл	7769
##терди	7770
чакырык	7771
чыкканда	7772
тарапкер	7773
алдым	7774
катардагы	7775
күчтөрүн	7776
ооруган	7777
илдетке	7778
аскери	7779
көлөмүн	7780
фильм	7781
мырз	7782
эпидемия	7783
тынчсыздануусун	7784
ролу	7785
качкындар	7786
италия	7787
дүкөндөр	7788
үйлөн	7789
аңг	7790
бект	7791
##алышын	7792
даң	7793
салыш	7794
терди	7795
чыгарылды	7796
жаштан	7797
жаштардын	7798
компаниясына	7799
тийип	7800
уулан	7801
өкмөттөр	7802
тынчт	7803
жерлерди	7804
тилкесинде	7805
басылмалар	7806
класс	7807
назарбаевдин	7808
каракал	7809
импортт	7810
рейд	7811
лаборатория	7812
майнап	7813
өй	7814
##лы	7815
##бил	7816
##пол	7817
##ub	7818
##енция	7819
##айн	7820
акжол	7821
##кадыр	7822
айтор	7823
иниси	7824
жайларды	7825
жаранды	7826
##сив	7827
чыккын	7828
авторлор	7829
сариев	7830
тармактарга	7831
бойлуу	7832
милдеттенм	7833
чатак	7834
спикер	7835
бомба	7836
ашыгы	7837
маарак	7838
ушинтип	7839
ек	7840
тиз	7841
##жай	7842
##то	7843
##ve	7844
##ендер	7845
##емет	7846
##каз	7847
калкты	7848
жайларга	7849
болбошу	7850
көлдүн	7851
уланта	7852
иммун	7853
сунуштар	7854
сырткы	7855
товарларды	7856
күчөтүү	7857
кылымдын	7858
символ	7859
спектакл	7860
лав	7861
##уң	7862
##берг	7863
элден	7864
кызыктуу	7865
катег	7866
абдык	7867
жайкы	7868
жөнү	7869
чакырыктар	7870
согушк	7871
өлкөлөрүндө	7872
табылып	7873
кеңештеги	7874
ээлик	7875
поли	7876
ассамбл	7877
ишенип	7878
кенж	7879
кулап	7880
минтип	7881
ажыратуу	7882
айырма	7883
өнөктөштөр	7884
бөлүштүр	7885
камсыздандыруу	7886
vi	7887
аэ	7888
##оди	7889
алчу	7890
##ттик	7891
##езд	7892
билбеген	7893
##скы	7894
##гөнү	7895
##ометр	7896
экендиги	7897
терез	7898
айткандай	7899
жүргөндө	7900
спут	7901
жеткирип	7902
элчилигинин	7903
кыргызстандыктардын	7904
алектенген	7905
ыраазычылык	7906
корпорация	7907
өпкө	7908
сталин	7909
69	7910
клоо	7911
мом	7912
памир	7913
сектор	7914
##финг	7915
турукта	7916
каналы	7917
жапаровду	7918
декабрга	7919
акциясы	7920
сиздер	7921
кыймылсыз	7922
талибдердин	7923
ыкма	7924
деңгээлге	7925
өлтүрүүгө	7926
талкуулап	7927
ноябрга	7928
куугунтукт	7929
беттеш	7930
кримтө	7931
ресурстары	7932
козгоп	7933
фейсбук	7934
хамастын	7935
кримтөбөл	7936
жанын	7937
физ	7938
##ктер	7939
##ырап	7940
катышы	7941
мамбет	7942
мамлекетти	7943
көзүн	7944
евген	7945
берилерин	7946
сатык	7947
апрелдеги	7948
продукция	7949
адистердин	7950
бюджеттин	7951
германияда	7952
үйлөрдүн	7953
сулайманов	7954
заводун	7955
ксдп	7956
78	7957
аса	7958
доз	7959
пе	7960
чинов	7961
##боого	7962
##стүү	7963
бергиле	7964
##станция	7965
##ске	7966
катышууга	7967
катышууда	7968
европада	7969
электигин	7970
мамилени	7971
натого	7972
алтынбек	7973
мүмкүнчүлүгүн	7974
сарай	7975
далилдер	7976
күзүндө	7977
кетишин	7978
молдок	7979
балыкчы	7980
түтүн	7981
төңкөр	7982
зулушев	7983
ичи	7984
ле	7985
лат	7986
##уктан	7987
##поо	7988
##артуу	7989
бах	7990
атылган	7991
##баштык	7992
түзүүнү	7993
терг	7994
##осп	7995
сомдун	7996
##ести	7997
мынча	7998
##матовдун	7999
алынганы	8000
беренелер	8001
өндүрүлгөн	8002
##оолорго	8003
такталган	8004
кылмыштарга	8005
кыйноо	8006
каражаттарын	8007
экономиканын	8008
ниетин	8009
клиник	8010
бактыбек	8011
версия	8012
үмүттөн	8013
конкреттүү	8014
st	8015
дук	8016
чөн	8017
##өрман	8018
берем	8019
берчү	8020
аксак	8021
көрдүк	8022
өлкөл	8023
салышкан	8024
жалдан	8025
##иктери	8026
билимдүү	8027
геоса	8028
салынып	8029
##баганы	8030
учактар	8031
өкүмү	8032
күнөөсү	8033
талаптарды	8034
оюм	8035
брифинг	8036
барымтага	8037
геосаяс	8038
чег	8039
##нун	8040
##сунун	8041
##ылда	8042
алсыз	8043
бирөөнүн	8044
тоң	8045
кайткан	8046
кайрым	8047
бөлтүр	8048
##цид	8049
өткөнү	8050
президентти	8051
табыш	8052
жүзөгө	8053
видеолор	8054
күрөшү	8055
койгону	8056
жарымы	8057
киргенден	8058
келечек	8059
##ing	8060
молдов	8061
кишилердин	8062
чамасында	8063
номур	8064
күтүүсүз	8065
tim	8066
интеграция	8067
ккм	8068
сас	8069
##куп	8070
##ылса	8071
##айм	8072
элине	8073
##динг	8074
мамат	8075
орусча	8076
бизден	8077
белек	8078
казына	8079
бөлүштү	8080
коопер	8081
аскерге	8082
чарчы	8083
чарага	8084
дедим	8085
эсептешет	8086
алмашкан	8087
бүтүм	8088
бурул	8089
чабуулдар	8090
кызматкерлерин	8091
келиндин	8092
##баганын	8093
мэриясы	8094
ташиевдин	8095
ишкерлерге	8096
көрсөткүчү	8097
мектептерде	8098
ымды	8099
поэ	8100
өстү	8101
масштабдуу	8102
тынымсыз	8103
fa	8104
браз	8105
ван	8106
саты	8107
чи	8108
##уя	8109
##тү	8110
##ырбек	8111
##овду	8112
жатабы	8113
кылса	8114
тоз	8115
кайдан	8116
##чиев	8117
саясатта	8118
чекит	8119
коомунун	8120
тармакта	8121
токио	8122
сабактар	8123
жолугушуусу	8124
сайттар	8125
ооганстандан	8126
кыйынчылыктар	8127
кичине	8128
коммунисттик	8129
алымкадыр	8130
##калый	8131
гидр	8132
жүргүнчүлөр	8133
комендан	8134
кайсыл	8135
74	8136
аида	8137
пот	8138
##алл	8139
бахм	8140
айдап	8141
бербеген	8142
жолдон	8143
жаткандай	8144
жазуучулар	8145
салттуу	8146
көтөрдү	8147
токтотулган	8148
самм	8149
катышуучулары	8150
тири	8151
өлтүрүп	8152
көптөн	8153
тартипте	8154
судьясы	8155
жоготуулар	8156
оорукананын	8157
импорт	8158
баңгизат	8159
под	8160
айды	8161
##дугун	8162
айтса	8163
мамлекеттен	8164
боршай	8165
эсеге	8166
мария	8167
айылдык	8168
бийликтеги	8169
аракеттерге	8170
кулак	8171
экөөбүз	8172
коёт	8173
акаевдин	8174
жаныбек	8175
палатасынын	8176
соцтар	8177
клар	8178
ңүз	8179
##зе	8180
алек	8181
жагым	8182
арасы	8183
келүүгө	8184
коргогон	8185
сапат	8186
жекшемби	8187
планын	8188
пландалган	8189
жаратат	8190
илдеттен	8191
мэриянын	8192
аппараттын	8193
сексуалдык	8194
ерев	8195
жамааттык	8196
жонсон	8197
жүгүрт	8198
майыптыгы	8199
төңкөрүш	8200
бразил	8201
боршайком	8202
##она	8203
артт	8204
##ымдар	8205
##дөшт	8206
өздөшт	8207
каж	8208
жолукту	8209
жүрүү	8210
кооз	8211
учкан	8212
жазылат	8213
инсп	8214
жайлардын	8215
ошолор	8216
президенттер	8217
колдонулуп	8218
миллиондой	8219
көтөрүү	8220
ларынын	8221
1992	8222
эрежелерди	8223
мезгилинде	8224
иштетип	8225
иретинде	8226
каналына	8227
россиянын	8228
ойногон	8229
убактысы	8230
компьютер	8231
брюсс	8232
пир	8233
##пө	8234
##яд	8235
##ur	8236
бирот	8237
үчтөн	8238
көрөт	8239
башкаларга	8240
киришкен	8241
алынышы	8242
журналисти	8243
долбоорго	8244
ырчы	8245
эпт	8246
тилкелер	8247
ысымы	8248
стацион	8249
саламаттыгы	8250
биротоло	8251
зат	8252
ист	8253
роза	8254
ши	8255
##чаб	8256
##ыгынын	8257
##ңер	8258
болдук	8259
##усун	8260
туристтик	8261
##еттеги	8262
короо	8263
башташты	8264
отстав	8265
агасы	8266
кайрат	8267
ишмердигин	8268
тайп	8269
биримдигине	8270
пайдаланууга	8271
мүчөлөрүнүн	8272
отурумунда	8273
##итте	8274
грузия	8275
юристтер	8276
сакай	8277
көрүнүштөр	8278
командир	8279
тилектешт	8280
обсервация	8281
дым	8282
па	8283
хир	8284
чегин	8285
болгар	8286
##укаев	8287
жаткандыктан	8288
камап	8289
иштеринин	8290
уюмдарга	8291
кабарчы	8292
киргизүүнү	8293
араң	8294
баштаганда	8295
баткендеги	8296
чакта	8297
акциясына	8298
израилге	8299
жагдайда	8300
мекеним	8301
адистери	8302
##ахта	8303
программасынын	8304
дүйшөн	8305
##дүүлүк	8306
мекемелердин	8307
жоготуп	8308
орнотуу	8309
айтканын	8310
технологиялар	8311
##ография	8312
##ографиялык	8313
шакир	8314
байсалов	8315
гүлнара	8316
гул	8317
см	8318
түндө	8319
фак	8320
##лукка	8321
##көй	8322
##гулов	8323
##омет	8324
эмеспиз	8325
##терн	8326
компани	8327
##үктөн	8328
келишпест	8329
абадда	8330
спортчулар	8331
серб	8332
үйлөрдү	8333
түркмөнстандын	8334
төгүндө	8335
ураан	8336
чагымчыл	8337
талабын	8338
эдил	8339
##хак	8340
##бөө	8341
##mi	8342
##ена	8343
##ори	8344
##стаг	8345
##иясын	8346
карас	8347
келдим	8348
туруш	8349
абзел	8350
мурат	8351
ичим	8352
##арова	8353
батукаев	8354
жабдыктар	8355
өлкөлөрүнө	8356
унун	8357
эсептеп	8358
курулушт	8359
милициясынын	8360
кулу	8361
калаанын	8362
республикасы	8363
сындады	8364
убакыттан	8365
бербөө	8366
клиникалык	8367
көздөйт	8368
болушунча	8369
кастыкты	8370
каракалпак	8371
мана	8372
обо	8373
##мент	8374
##ерине	8375
баалан	8376
жатыш	8377
##өлү	8378
##епция	8379
көрбөй	8380
ачууга	8381
##иби	8382
түб	8383
бекназаров	8384
пландап	8385
ашырууга	8386
укуктарынын	8387
башаламандыктар	8388
күзөт	8389
мобилдик	8390
кеңсеси	8391
схема	8392
согушкерлер	8393
сасык	8394
кооператив	8395
рыс	8396
фабр	8397
##үлөрүн	8398
сах	8399
аларда	8400
жазында	8401
теракт	8402
##ламент	8403
берүүчү	8404
багып	8405
азияда	8406
көңүлүн	8407
документтери	8408
документтерин	8409
телефондон	8410
мүнөтт	8411
өтүнүчүн	8412
макамын	8413
газадагы	8414
өстүр	8415
корутунд	8416
айламп	8417
клара	8418
бок	8419
өбөл	8420
##дах	8421
арты	8422
##ымды	8423
##ович	8424
##өлөт	8425
айтпай	8426
көрдүм	8427
колдуу	8428
канатбек	8429
учурга	8430
камбар	8431
ооруну	8432
орток	8433
жүргүнчү	8434
аткарууга	8435
кеме	8436
жолугушту	8437
спорттук	8438
путинге	8439
буруп	8440
бошотууну	8441
жоопкерчилигине	8442
демилгесин	8443
грузиянын	8444
шарттары	8445
квт	8446
баскын	8447
жогорулатуу	8448
эмгеги	8449
шерикт	8450
жалданма	8451
өбөлгө	8452
сцен	8453
##хай	8454
##хоз	8455
##алдар	8456
арстан	8457
баласын	8458
динара	8459
энтони	8460
аялдарды	8461
күркүр	8462
кеңешме	8463
уулум	8464
диагн	8465
кармалгандардын	8466
жумушчулар	8467
инфляция	8468
тиреш	8469
республиканын	8470
каражаттарына	8471
жолдомо	8472
вируска	8473
тийгизген	8474
аткылоо	8475
фонддун	8476
ыктыярчылар	8477
коммуникация	8478
американын	8479
жабырлануучу	8480
реестрине	8481
авиакомп	8482
дөр	8483
##заков	8484
##енци	8485
жылдардын	8486
жазышты	8487
##асыңар	8488
аяктады	8489
аймагын	8490
оккуп	8491
кошун	8492
дарегине	8493
жаңыдан	8494
кыйра	8495
көзөмөлүндө	8496
тапшыруу	8497
талкууланган	8498
дайынд	8499
аскерлерди	8500
администрациянын	8501
тартипти	8502
тендер	8503
британияда	8504
микро	8505
рейтинг	8506
чечкиндүү	8507
жен	8508
оке	8509
##лугу	8510
##ухам	8511
##олорду	8512
багын	8513
##ттин	8514
биринен	8515
кайг	8516
жолдору	8517
шайланып	8518
ичине	8519
##аттарын	8520
киргизди	8521
кеңешине	8522
таанышып	8523
жолугушкан	8524
##диктерди	8525
белгиленет	8526
катышуусу	8527
кадамжай	8528
улантууда	8529
телеканалы	8530
чектөөлөрдү	8531
осмонов	8532
эптеп	8533
##кеч	8534
##гим	8535
##ерго	8536
алдыр	8537
##дес	8538
##имит	8539
##усств	8540
каш	8541
мамлекеттерге	8542
баскан	8543
термин	8544
макала	8545
таппай	8546
айыппул	8547
соттон	8548
диасп	8549
ишенем	8550
тарыхта	8551
агент	8552
козголду	8553
дыгын	8554
эсепке	8555
талаптарын	8556
адабий	8557
жарлыгы	8558
искусств	8559
чеченстан	8560
менчикт	8561
испания	8562
даңаз	8563
диаспор	8564
нет	8565
рег	8566
##лен	8567
бирибиз	8568
##абаев	8569
дегени	8570
кетүүнү	8571
айылга	8572
жакындарынын	8573
талкалан	8574
уланат	8575
сунушталды	8576
100дөн	8577
бошотууга	8578
адвокаттары	8579
өнөктөшү	8580
нидер	8581
уурдап	8582
кирешеси	8583
концепция	8584
кылынган	8585
макамы	8586
чалгындоо	8587
шакиев	8588
мейманкана	8589
башчыларынын	8590
мариупол	8591
песков	8592
times	8593
it	8594
зил	8595
кени	8596
квар	8597
рум	8598
тиги	8599
уят	8600
хаб	8601
##бин	8602
##гыч	8603
##гасы	8604
баам	8605
пресс	8606
айтыла	8607
курск	8608
инен	8609
парк	8610
басаң	8611
майк	8612
чараларга	8613
жасоого	8614
##чүлөрү	8615
даярдалган	8616
сапарга	8617
асел	8618
январга	8619
жүзү	8620
беренелери	8621
бейр	8622
курманкул	8623
жерлерге	8624
блок	8625
ырастап	8626
алыскы	8627
жетишпей	8628
токтотту	8629
багыттагы	8630
шамал	8631
аянтында	8632
паспортун	8633
орозо	8634
музыка	8635
дордой	8636
спикери	8637
аткезчилик	8638
тагыраагы	8639
##сивдүү	8640
98	8641
бөт	8642
гим	8643
хез	8644
##ктап	8645
буларга	8646
айтсак	8647
жүрүүдө	8648
инстаг	8649
##асың	8650
күчөдү	8651
жеген	8652
мекс	8653
илгер	8654
##бековдун	8655
##ңгу	8656
ишендир	8657
ирандык	8658
барганын	8659
кадамга	8660
товарлардын	8661
суммасы	8662
бабанов	8663
инстаграм	8664
жей	8665
##стар	8666
##гада	8667
##икага	8668
сая	8669
##итет	8670
салышты	8671
тердин	8672
убад	8673
партиясын	8674
башкарууга	8675
саясатчылардын	8676
токтотууну	8677
финлян	8678
котормо	8679
ыйман	8680
жоопкерчилигин	8681
адвокаттар	8682
үлүшү	8683
калтырып	8684
нарист	8685
мелис	8686
материалдарды	8687
чемпионатында	8688
шаарларда	8689
дрондор	8690
кырсыкка	8691
практ	8692
үндөдү	8693
мухаммедкалый	8694
платформ	8695
дегеле	8696
live	8697
кенже	8698
брюссел	8699
факульт	8700
хезбол	8701
000	8702
71	8703
87	8704
руст	8705
##отту	8706
##аркан	8707
жазасына	8708
##чылыгын	8709
кыдыр	8710
түшүнө	8711
каражаты	8712
сапатын	8713
агенттик	8714
бошотулду	8715
##болот	8716
туңгу	8717
өлтүргөн	8718
##трк	8719
оорулар	8720
эмдөөдөн	8721
санариптик	8722
шейшембиде	8723
көрүстөн	8724
лавров	8725
вет	8726
одон	8727
##үдүн	8728
жаабайт	8729
##имди	8730
жетүү	8731
шаарды	8732
басар	8733
кеңей	8734
борборун	8735
алынса	8736
жабылды	8737
талкаланган	8738
өзгөргөн	8739
эмнени	8740
ээлери	8741
бешинчи	8742
130	8743
##кулова	8744
таласта	8745
бүттү	8746
түркиядан	8747
жактаган	8748
жабыркагандар	8749
түрмөдөн	8750
шарттарды	8751
сссрдин	8752
кагылышуу	8753
бышыкт	8754
ит	8755
лен	8756
резиден	8757
##түп	8758
элдер	8759
турук	8760
абдир	8761
реабил	8762
тилине	8763
берилбей	8764
сакталган	8765
эркект	8766
жеңүүчү	8767
акырын	8768
иликтеген	8769
кечке	8770
тапшырмасы	8771
аралыктан	8772
учагы	8773
ракеталар	8774
жөнөтүп	8775
##ылышын	8776
программасын	8777
ишканалардын	8778
кармаш	8779
дубан	8780
бензин	8781
мүнөт	8782
виктор	8783
асад	8784
med	8785
лап	8786
леги	8787
чер	8788
##кей	8789
##олл	8790
алуунун	8791
алабы	8792
келдик	8793
билүү	8794
сааттан	8795
кийип	8796
жазат	8797
аша	8798
оорусу	8799
иштердин	8800
өкмөтүнө	8801
бишкектен	8802
ушунчалык	8803
исхак	8804
видеого	8805
оюндарына	8806
соодагерлер	8807
капчы	8808
талибандын	8809
үлг	8810
болоч	8811
тилкеси	8812
кырсыгы	8813
өчүрүү	8814
альтерн	8815
аналит	8816
амал	8817
моюнуна	8818
эмгектенген	8819
эсептейм	8820
ратификация	8821
өлкөлүктөр	8822
авиакомпания	8823
реабилит	8824
99	8825
900	8826
##янын	8827
##ердик	8828
##дыкты	8829
айтт	8830
элест	8831
жеткил	8832
балта	8833
учурлары	8834
окуй	8835
коюшу	8836
кырдаалдан	8837
окуялардан	8838
каражаттарды	8839
акысын	8840
сертиф	8841
мелдеш	8842
индиянын	8843
толтура	8844
канааттандыр	8845
тигүү	8846
көрбөгөндөй	8847
жыныстык	8848
пропаган	8849
потенци	8850
одоно	8851
уя	8852
##гем	8853
##сындагы	8854
##хен	8855
##гыс	8856
жатасыз	8857
булуң	8858
##ларынын	8859
##кыч	8860
мамлекеттери	8861
азыраак	8862
аймакты	8863
ашпай	8864
тартууну	8865
окут	8866
чыгарат	8867
төрөт	8868
калгандары	8869
чечимдерди	8870
##ологдор	8871
билими	8872
өзүнөн	8873
сокулук	8874
кесипкөй	8875
жиберип	8876
нерселерди	8877
коштолгон	8878
союзунун	8879
мажбурлап	8880
өнөктөштөрү	8881
байкоочулар	8882
гэс	8883
аламүдүн	8884
лукашенконун	8885
мунапыс	8886
евгений	8887
bbc	8888
hu	8889
##мыр	8890
##ak	8891
##ri	8892
##эк	8893
##ht	8894
##стон	8895
бадах	8896
кароого	8897
сахн	8898
кылдат	8899
##ишер	8900
колум	8901
чыгууда	8902
##орух	8903
2025	8904
болдум	8905
марипов	8906
башкаруучу	8907
сыңар	8908
аткара	8909
акчага	8910
кармалгандар	8911
##чалай	8912
керектиги	8913
ишмердиги	8914
тургуз	8915
акыны	8916
сайтындагы	8917
талдоочулар	8918
дүйшөмбүдө	8919
эмилбек	8920
коллег	8921
туруксуз	8922
ворух	8923
зам	8924
иж	8925
##яция	8926
жагын	8927
акционер	8928
акчалай	8929
колун	8930
дегенге	8931
жазышкан	8932
ашууну	8933
жардамчысы	8934
келтирди	8935
мамилесин	8936
албаса	8937
барганы	8938
сабап	8939
билдирүүсүн	8940
байкалган	8941
инвестор	8942
вакцинаны	8943
парламенти	8944
киевдин	8945
фейк	8946
намы	8947
стади	8948
##кусунан	8949
баягы	8950
геосаясий	8951
диз	8952
лик	8953
##лүү	8954
##акта	8955
##енов	8956
##ирээк	8957
##штан	8958
болор	8959
каримов	8960
##өлүү	8961
##евич	8962
барса	8963
корот	8964
абу	8965
балан	8966
##угунан	8967
жыйынына	8968
тараптардын	8969
өткөрүлгөн	8970
адал	8971
алуучу	8972
акту	8973
үнөм	8974
декабрында	8975
180	8976
этап	8977
бурч	8978
агенттиктин	8979
жеткенин	8980
талкуулады	8981
##tional	8982
лөрдүн	8983
көбөйгөнүн	8984
иманалиев	8985
өкүнүч	8986
редактору	8987
кайрымдуулук	8988
хирург	8989
абдирас	8990
86	8991
yo	8992
агып	8993
чей	8994
##дыл	8995
билбейт	8996
жетпеген	8997
казакбаев	8998
айылдын	8999
110	9000
мектеб	9001
көзөмөлүнө	9002
дале	9003
баштаганы	9004
артисти	9005
вирустан	9006
күйөрман	9007
максатта	9008
архе	9009
үрөй	9010
адилетсиз	9011
дүрбөл	9012
чындыкка	9013
чиновн	9014
хр	9015
хас	9016
##анек	9017
##елик	9018
орхан	9019
өтчү	9020
үйүнөн	9021
доллары	9022
апел	9023
түркиялык	9024
тиханов	9025
абалына	9026
##дикте	9027
2006	9028
оюндары	9029
өндүргөн	9030
ович	9031
дайындоо	9032
сезген	9033
жиберди	9034
атамбаевди	9035
##man	9036
байланышып	9037
##иттик	9038
идеология	9039
убакытта	9040
барышы	9041
грант	9042
рекорд	9043
жеңилдетилген	9044
маршр	9045
үлгүр	9046
92	9047
бин	9048
чуул	9049
##гог	9050
##оси	9051
##ec	9052
##ir	9053
##loo	9054
##стра	9055
арав	9056
бердик	9057
кызын	9058
акка	9059
##ишет	9060
маалы	9061
мыйзамы	9062
көпкө	9063
суранган	9064
кабарлашты	9065
өзбекстандан	9066
сүрөткө	9067
арыздан	9068
2007	9069
ишмердигине	9070
илдети	9071
өзгөртүүгө	9072
тиркем	9073
мамлекеттерде	9074
активисттердин	9075
ооруканалар	9076
##октор	9077
себептүү	9078
өлчөмдө	9079
ойлонуп	9080
кишилерди	9081
маданияты	9082
делег	9083
атайылап	9084
чиркөө	9085
альянс	9086
##ight	9087
архитектура	9088
жеткиликтүү	9089
адеп	9090
латын	9091
мүр	9092
роб	9093
##eg	9094
кыларын	9095
##доону	9096
жерин	9097
коюшат	9098
кызматтары	9099
жанына	9100
сүйлөшүүгө	9101
такай	9102
калаасы	9103
деңгээлин	9104
автоунаалар	9105
чогултуу	9106
кызыкчылыгына	9107
баарынан	9108
жунуш	9109
драма	9110
айдың	9111
##чабуул	9112
румын	9113
дүрбөлөң	9114
дог	9115
чүл	9116
ып	9117
##тоо	9118
##пром	9119
тармак	9120
өлдү	9121
калп	9122
көрүүнү	9123
жаткандардын	9124
байг	9125
жөнүн	9126
түшүм	9127
##исс	9128
стол	9129
окуялардын	9130
жүргөндөр	9131
төртөө	9132
ишенбей	9133
байкоочу	9134
имараттын	9135
назаров	9136
кадыров	9137
машинелер	9138
маалымдагандай	9139
башаламандыкка	9140
inter	9141
рух	9142
кийлигишүү	9143
бомб	9144
саймаити	9145
ызы	9146
тынчтыкты	9147
соцтарма	9148
нетан	9149
дэ	9150
фл	9151
булган	9152
турарын	9153
тарга	9154
алганга	9155
арачылар	9156
түшүнбөй	9157
адиси	9158
күтүлүп	9159
системасына	9160
дубай	9161
##ошуп	9162
тапканын	9163
далилден	9164
тобуна	9165
куткаруучулар	9166
дооматтарды	9167
муфтий	9168
мөңгүл	9169
купуя	9170
##сти	9171
каралууда	9172
##даны	9173
келчү	9174
турбай	9175
кылууну	9176
куран	9177
бийикт	9178
учураган	9179
үйүн	9180
айыптар	9181
президенттери	9182
урулган	9183
даярданып	9184
ушунча	9185
аймактардагы	9186
2003	9187
эмгект	9188
москвадан	9189
тездет	9190
бюджеттик	9191
##дүүлүгү	9192
көйгөйлөрдү	9193
өспүрүмдөр	9194
чөлкөмдөгү	9195
айтуусунда	9196
вич	9197
луу	9198
ноб	9199
туз	9200
##лия	9201
##il	9202
алишер	9203
болгонуна	9204
кызматында	9205
эрки	9206
белгилеш	9207
белгилешти	9208
кышкы	9209
калгандар	9210
тилдер	9211
коопсуздукка	9212
ондон	9213
сапаттуу	9214
эсептеген	9215
маанис	9216
газанын	9217
кулов	9218
мух	9219
октябрында	9220
##струк	9221
имаратынын	9222
каалоо	9223
бейтаптардын	9224
ооруга	9225
нерсеге	9226
зыяндуу	9227
олимп	9228
карызды	9229
##ess	9230
анкар	9231
себептери	9232
ролун	9233
тыкыр	9234
баяндамасында	9235
°,	9236
дум	9237
лөрдү	9238
олиг	9239
сүнө	9240
тым	9241
ыш	9242
##тов	9243
##арка	9244
##иле	9245
##гедия	9246
##ларда	9247
кайта	9248
талдап	9249
балт	9250
жаңыр	9251
күчт	9252
жашай	9253
дарык	9254
айылы	9255
колдонулат	9256
табылганын	9257
милдет	9258
жолугушуулар	9259
иликтөөдө	9260
бошотуп	9261
бүлөсүнө	9262
чүйдө	9263
жашоосу	9264
вакцинанын	9265
экономикага	9266
конституцияны	9267
климаттык	9268
жүктөлгөн	9269
музыкалык	9270
исаев	9271
трагедия	9272
шылтоо	9273
өйдө	9274
клооп	9275
сценарий	9276
ижара	9277
акционердик	9278
актуалдуу	9279
нетанья	9280
дам	9281
див	9282
жук	9283
##агына	9284
##зада	9285
##дый	9286
##амбет	9287
турушкан	9288
акматов	9289
##бады	9290
кетерин	9291
##терин	9292
конв	9293
мүмкүндүгүн	9294
чакырыл	9295
батыр	9296
берилбейт	9297
кесил	9298
кимди	9299
компанияга	9300
сув	9301
козут	9302
аймактарына	9303
жараяны	9304
катышканы	9305
кодексине	9306
гендер	9307
атаандаштык	9308
формат	9309
убакытка	9310
доктору	9311
бука	9312
гидро	9313
арттыр	9314
резиденция	9315
элестет	9316
кибер	9317
нда	9318
туман	9319
##далык	9320
##хр	9321
карим	9322
экөөнүн	9323
прог	9324
көрүлүп	9325
курчу	9326
жүрүшт	9327
баштал	9328
тартылды	9329
бөлүкт	9330
кыйылды	9331
району	9332
киргизүүгө	9333
өлкөлөрдөгү	9334
түшүнгөн	9335
жүргүзүлөт	9336
негизгиси	9337
мекенчил	9338
сезип	9339
самат	9340
пандемияга	9341
айлыгы	9342
элчиликтин	9343
ишкердик	9344
сүрөтүн	9345
өкүлдөрүнө	9346
шарттуу	9347
коммерция	9348
индияда	9349
валют	9350
чуркап	9351
стадион	9352
олигарх	9353
81	9354
уткан	9355
чел	9356
##чем	9357
##мын	9358
##бак	9359
##fi	9360
айк	9361
##ттук	9362
калктуу	9363
министрлери	9364
камты	9365
чыгууну	9366
##ашына	9367
байланыштырган	9368
евраз	9369
жардамды	9370
кеңешм	9371
газада	9372
билдирүүсүнө	9373
оппозициянын	9374
өнөктүгү	9375
басылмасынын	9376
транспорттук	9377
мектепти	9378
заманда	9379
жаңжалда	9380
балдарым	9381
тыныбекова	9382
химиялык	9383
кавказ	9384
бектур	9385
##ube	9386
өздөштүр	9387
82	9388
за	9389
миш	9390
цах	9391
##маматов	9392
##амм	9393
##абад	9394
орчун	9395
тарады	9396
казан	9397
баштан	9398
масалиев	9399
саясатты	9400
сүйүү	9401
энерго	9402
берилгени	9403
бөлүмдөр	9404
залкар	9405
мерчем	9406
секунда	9407
свет	9408
алака	9409
департаменти	9410
портал	9411
лидерлеринин	9412
аталышт	9413
кадимкидей	9414
жактоочусу	9415
эже	9416
логистикалык	9417
буюрса	9418
тукум	9419
макулдашкан	9420
88	9421
шы	9422
##шта	9423
жааган	9424
бошт	9425
##итер	9426
иштеди	9427
канц	9428
абду	9429
кабарчылар	9430
кызматты	9431
жүргүзүүдө	9432
арызды	9433
шайлоолор	9434
пандемиясына	9435
видеодо	9436
сүрөтү	9437
бөгөтт	9438
паспортт	9439
позициясы	9440
чагылдырган	9441
ибраев	9442
мааниге	9443
диагноз	9444
лердин	9445
мык	9446
сн	9447
тбил	9448
##шек	9449
##дана	9450
##вег	9451
##ңүз	9452
##дыктары	9453
таркат	9454
адамз	9455
башпа	9456
керемет	9457
жаңылык	9458
жашар	9459
жалаа	9460
оорл	9461
урду	9462
шаршен	9463
башкарууну	9464
тармактагы	9465
украинадан	9466
жетекчилигине	9467
жолугушууга	9468
жеткирилди	9469
ооганстанга	9470
кайрылууда	9471
бычак	9472
окшогон	9473
токтобой	9474
коргой	9475
коштоп	9476
жаңылыктар	9477
болжолдуу	9478
консулдук	9479
жорж	9480
алдамчылык	9481
сиңирген	9482
сертифик	9483
ашк	9484
дердин	9485
лаган	9486
хай	9487
шала	9488
##уэл	9489
##жиги	9490
##дыра	9491
##ияттын	9492
##окко	9493
жатышы	9494
турн	9495
кылышат	9496
болгондой	9497
куру	9498
көзгө	9499
токтакунов	9500
чакырылыш	9501
айылдагы	9502
демарка	9503
илгери	9504
табы	9505
келишимине	9506
жүздөн	9507
оюндар	9508
сизге	9509
кайталап	9510
машинен	9511
иликтөөгө	9512
бейтаптын	9513
жаратууда	9514
тилкесин	9515
иштетүүгө	9516
акындын	9517
орно	9518
жараксыз	9519
өкүлдөрүн	9520
жоготуу	9521
телеканалынын	9522
каптап	9523
ферган	9524
озоди	9525
жыг	9526
студенттердин	9527
ипотекалык	9528
норвег	9529
оккупация	9530
шалаак	9531
te	9532
ахм	9533
зоо	9534
игор	9535
руз	9536
суп	9537
устав	9538
цех	9539
##шов	9540
##штын	9541
баалаган	9542
##шкени	9543
##кады	9544
комуз	9545
курсан	9546
кетчү	9547
казуу	9548
түзүлөт	9549
жарандыгы	9550
жапкан	9551
башкысы	9552
багыты	9553
багыттар	9554
теңге	9555
кулаган	9556
жеткирген	9557
көйгөйү	9558
пайыздык	9559
ниет	9560
баракчасында	9561
ишкерлерди	9562
жапониянын	9563
азайган	9564
тийгизип	9565
шарттарын	9566
авиация	9567
ылдый	9568
соккулар	9569
билдиришинче	9570
брифингде	9571
каракалпакстан	9572
агыз	9573
норма	9574
оок	9575
тээ	9576
##кам	9577
##агын	9578
алына	9579
##ызын	9580
арын	9581
кая	9582
атасынын	9583
калчу	9584
учурган	9585
коомдогу	9586
изол	9587
тилде	9588
жарыялоо	9589
даярдан	9590
дүйнөдөн	9591
чектел	9592
качуу	9593
газпром	9594
түштүгүндөгү	9595
сооронкулова	9596
союзда	9597
куугунтукка	9598
ооздукт	9599
толкуну	9600
##utube	9601
сейил	9602
айларда	9603
##ram	9604
асылбек	9605
падыш	9606
ээрч	9607
##national	9608
кылмышк	9609
интеллект	9610
түндүгүндөгү	9611
media	9612
абдирасулова	9613
youtube	9614
аккаун	9615
догдур	9616
international	9617
pr	9618
сүн	9619
уст	9620
##лукту	9621
##гүз	9622
##гелди	9623
##дс	9624
##алоого	9625
##иканын	9626
артта	9627
айтматовдун	9628
##ыштык	9629
башчыл	9630
жайды	9631
түшпөй	9632
өкүлүнүн	9633
бекеттер	9634
өзгөрдү	9635
азыркыга	9636
сунушталып	9637
уюштуруучулар	9638
кубог	9639
темирлан	9640
калаада	9641
образ	9642
ачылат	9643
агартуу	9644
чыңдоо	9645
чыгармачылык	9646
артыкчылык	9647
жетекчилеринин	9648
жоромол	9649
искендер	9650
ылдамдыгы	9651
түрлөрү	9652
чөг	9653
махмудов	9654
апелля	9655
тымызын	9656
ii	9657
дур	9658
ив	9659
карым	9660
ың	9661
##мира	9662
##ау	9663
##ьев	9664
##эй	9665
##ектору	9666
кылбай	9667
калыш	9668
калышат	9669
абий	9670
түрмөлөр	9671
тартылат	9672
жарыгы	9673
негиздеген	9674
##сация	9675
четиндеги	9676
даярдалып	9677
##ойгон	9678
өмүрүнө	9679
иштегендер	9680
тизмесинде	9681
финалга	9682
көрүнөт	9683
ниети	9684
фрун	9685
жолдорду	9686
жоктугу	9687
формасын	9688
сейрек	9689
поезд	9690
делимит	9691
кожоюн	9692
нидерланд	9693
орчундуу	9694
апелляциялык	9695
зул	9696
ланган	9697
сонун	9698
чылык	9699
##кырып	9700
##ic	9701
##дады	9702
келебиз	9703
жолдогон	9704
кабат	9705
мыйзамдарына	9706
жоочулар	9707
байланышты	9708
кабарланууда	9709
креди	9710
алмашты	9711
карант	9712
коюлат	9713
штамм	9714
акциясын	9715
кубат	9716
урукс	9717
ажыраткан	9718
окуяларынан	9719
катталганын	9720
мамлекеттеринин	9721
суроолорду	9722
чемпионатынын	9723
токтому	9724
тийгизет	9725
салымы	9726
гезити	9727
аракеттерине	9728
батирлер	9729
металл	9730
шинжаңдагы	9731
ишемби	9732
үстөмдүк	9733
83	9734
лю	9735
##ср	9736
##аним	9737
##унова	9738
саак	9739
жоголуп	9740
кычк	9741
мүмкүндүк	9742
абактар	9743
реаним	9744
##ярдуу	9745
каражаттын	9746
сүрүп	9747
төлөөгө	9748
чектешкен	9749
келишимин	9750
келишимдер	9751
окуудан	9752
ажылык	9753
сабалган	9754
башталганда	9755
нарматова	9756
сирияда	9757
алматыда	9758
чалдыккандардын	9759
мээн	9760
сугат	9761
айттым	9762
башпаанек	9763
sp	9764
вол	9765
ен	9766
кус	9767
чул	9768
##гула	9769
##мет	9770
##фил	9771
##алады	9772
##дид	9773
каралды	9774
##ово	9775
кашк	9776
салт	9777
инстанция	9778
казын	9779
##уста	9780
##ософ	9781
майдын	9782
коому	9783
##ози	9784
ойго	9785
саясатчынын	9786
электе	9787
ажы	9788
##дигинен	9789
чабуулунан	9790
оңд	9791
системаны	9792
митингдер	9793
уурдалган	9794
күчөтүлгөн	9795
терроризм	9796
күрөштү	9797
түшүнүктүү	9798
польшанын	9799
шашылыш	9800
ch	9801
вит	9802
##лас	9803
##ot	9804
баарынын	9805
биригип	9806
экстра	9807
##лиц	9808
улана	9809
мыйзамдарын	9810
##дүкт	9811
өтсө	9812
чече	9813
##елеген	9814
##чилиги	9815
жообу	9816
издеген	9817
чарч	9818
берилиши	9819
бүтө	9820
видеону	9821
чаап	9822
албаганын	9823
февралында	9824
кылмыштын	9825
кыймылдын	9826
салгандан	9827
колдойт	9828
катышуусунда	9829
эрежесин	9830
өтүнгөн	9831
нарында	9832
кызматташууга	9833
философ	9834
тартибин	9835
таратуу	9836
артыкчыл	9837
отчё	9838
сүзүп	9839
фермер	9840
мекендештер	9841
этностук	9842
аңгем	9843
игорь	9844
вар	9845
куш	9846
чил	9847
##берди	9848
алмак	9849
атуу	9850
садык	9851
каларын	9852
көрүш	9853
улгай	9854
өткүн	9855
ушунун	9856
ортого	9857
дарыгери	9858
макулдук	9859
чабуулга	9860
топту	9861
планда	9862
ирина	9863
белгиси	9864
кыйынчылык	9865
агр	9866
назгүл	9867
каналдар	9868
харр	9869
санарипт	9870
космос	9871
аалам	9872
human	9873
суверен	9874
right	9875
ация	9876
бюл	9877
##ода	9878
##дагог	9879
##кталай	9880
арген	9881
келери	9882
аталып	9883
ишинде	9884
орусиялыктар	9885
парад	9886
мыйзамына	9887
##сыздык	9888
эсимде	9889
коомду	9890
мара	9891
илбир	9892
биринчиси	9893
крас	9894
крок	9895
организм	9896
тергөөгө	9897
уулун	9898
накталай	9899
январында	9900
уюштурулуп	9901
140	9902
оюндарынын	9903
технологиялык	9904
капта	9905
китеби	9906
үстү	9907
натыйжа	9908
наркы	9909
жашырып	9910
аяктайт	9911
чөйрөнү	9912
калууга	9913
карамагына	9914
педагог	9915
зилз	9916
тихановская	9917
саакаш	9918
экстради	9919
бюллет	9920
wat	9921
екат	9922
иван	9923
нөш	9924
утту	9925
##жен	9926
##жав	9927
##сб	9928
##сов	9929
##ылбаган	9930
орустар	9931
кыздары	9932
##гидр	9933
кетпей	9934
абр	9935
жайлоо	9936
австр	9937
19га	9938
өткөндө	9939
өкмөтүн	9940
##илгени	9941
олжо	9942
азияга	9943
этият	9944
карабак	9945
сизди	9946
максатын	9947
пайыздан	9948
кызыгуу	9949
режимде	9950
козголгонун	9951
кесепетин	9952
коргош	9953
арабия	9954
отурумда	9955
туулуп	9956
класста	9957
жемиш	9958
атаандашт	9959
##ent	9960
авторлору	9961
литв	9962
түзүмдөрүнүн	9963
твиттердеги	9964
тарапкерлери	9965
легитим	9966
камтыган	9967
rights	9968
екатерин	9969
нөшөр	9970
as	9971
төө	9972
чегер	9973
үбүз	9974
##ео	9975
##гум	9976
##жи	9977
бактылуу	9978
##ттары	9979
аранын	9980
бермек	9981
жылып	9982
турушту	9983
##дира	9984
казып	9985
##енти	9986
күчүн	9987
бөлгөн	9988
чыккандардын	9989
каттаган	9990
саналуу	9991
көрсөтүлүп	9992
ылайыкт	9993
түшүнүү	9994
айыптарды	9995
сунуштарды	9996
токтото	9997
тарыхын	9998
тургундарды	9999
ооруканадан	10000
пайызын	10001
1994	10002
өсүшү	10003
иштеткен	10004
буту	10005
жарандарыбыз	10006
атаандашы	10007
роль	10008
корутунду	10009
евразиялык	10010
грам	10011
дикт	10012
үш	10013
##рем	10014
##өөр	10015
айла	10016
айыгы	10017
менде	10018
бараб	10019
##егей	10020
абро	10021
жайылган	10022
ашуу	10023
окко	10024
суранып	10025
##...	10026
арачылары	10027
акырындап	10028
өмүрүнүн	10029
исф	10030
ажал	10031
этектер	10032
коомчулукту	10033
топтогон	10034
ооруканасынын	10035
кайталан	10036
##ханий	10037
зомбулукту	10038
тобун	10039
алышып	10040
евробиримдикке	10041
процед	10042
мектептердин	10043
тааныбай	10044
тагдырын	10045
тарбиялоо	10046
аткаминер	10047
жууп	10048
ууда	10049
космо	10050
кымбаттап	10051
ассоциациясынын	10052
серепчилер	10053
тилектештик	10054
граф	10055
##кур	10056
##дз	10057
##ion	10058
##аторлор	10059
##айз	10060
аласыз	10061
##ияны	10062
айындагы	10063
##үүл	10064
##аковдун	10065
элин	10066
##ткө	10067
##емат	10068
##ларына	10069
билдирүүлөрдү	10070
жолунда	10071
инанды	10072
басмыр	10073
керекпи	10074
күчөттү	10075
улуттун	10076
каттап	10077
тынбай	10078
тармактык	10079
улантуу	10080
кабарлап	10081
штабы	10082
буруу	10083
курмандыгы	10084
пандемиясынан	10085
атамбаевге	10086
көйгөйдү	10087
кырсыктар	10088
аптадан	10089
азайды	10090
саммити	10091
рынокт	10092
саламаттыгына	10093
##город	10094
губернатор	10095
патри	10096
жыргал	10097
цзинпин	10098
популярдуу	10099
спутник	10100
стационар	10101
рустам	10102
am	10103
чым	10104
шум	10105
##кеш	10106
##az	10107
жада	10108
##диева	10109
жаркын	10110
күнүндө	10111
шайлан	10112
консерв	10113
ачар	10114
##енттин	10115
пайгам	10116
шаршембиде	10117
унчук	10118
компаниялары	10119
сапарынын	10120
иликтөөнүн	10121
диск	10122
салуудан	10123
тарыхчы	10124
базасы	10125
кайтарылган	10126
жатыптыр	10127
мэриясынын	10128
мандатын	10129
##алдаштыруу	10130
багытындагы	10131
макалада	10132
иштеши	10133
руханий	10134
талаптарына	10135
профессору	10136
айыпталуучу	10137
йоркт	10138
жообуна	10139
нетаньяху	10140
уруксаты	10141
watch	10142
сенин	10143
##ль	10144
##бе	10145
жаашы	10146
карында	10147
бердым	10148
жылдай	10149
##үлбөгөн	10150
##денция	10151
каат	10152
##еттери	10153
жаралып	10154
##ландия	10155
жолуна	10156
##таев	10157
чакыртып	10158
дүйнөнү	10159
тарапты	10160
##үктүү	10161
бузууга	10162
тажикстандагы	10163
опера	10164
шектелген	10165
кайтарган	10166
банкынын	10167
no3	10168
жабыркап	10169
айдоочусу	10170
мугалимдердин	10171
медрес	10172
кызыкчылыктар	10173
калкалап	10174
түркмөнстанда	10175
барышкан	10176
илдетине	10177
капитал	10178
кыялы	10179
түшүнүксүз	10180
сыртынан	10181
кесиптештери	10182
фергана	10183
бердымухам	10184
94	10185
шаб	10186
##ad	10187
жактарга	10188
тармакка	10189
сага	10190
сакта	10191
канчасы	10192
##угарт	10193
сөзгө	10194
жөнөттү	10195
кармалышы	10196
уюмдары	10197
аялды	10198
жеңген	10199
олег	10200
кенди	10201
##ратүз	10202
кубаттуу	10203
пайдасы	10204
байкап	10205
ыйлап	10206
##рессивдүү	10207
зомбулуктун	10208
инфратүз	10209
директорлор	10210
дарыгерлерге	10211
мүлкү	10212
мелде	10213
гено	10214
жүрөгү	10215
барыш	10216
улутчул	10217
держав	10218
00дө	10219
күнөөсүн	10220
торугарт	10221
ийгилик	10222
козгоду	10223
иялык	10224
опузалап	10225
af	10226
гур	10227
заттар	10228
##ушкер	10229
##ния	10230
##адагы	10231
##енд	10232
##етей	10233
баалар	10234
берели	10235
эмо	10236
##кут	10237
учурап	10238
маалыматын	10239
##тагон	10240
дарба	10241
калганына	10242
жыйындын	10243
жумабеков	10244
согушкер	10245
энем	10246
колдоно	10247
долбоорунда	10248
жанынан	10249
аракетине	10250
көзөмөлдү	10251
2001	10252
күчтөрдү	10253
кубан	10254
тамеки	10255
аралыкты	10256
кызматкерлерди	10257
чыгышында	10258
чогулду	10259
султанбеков	10260
##ционерлер	10261
түшүргөн	10262
ыктыяры	10263
зордуктоо	10264
зарылдыгы	10265
жоруктардын	10266
ыктымалдыгын	10267
чордон	10268
кулубаев	10269
бадахшан	10270
93	10271
ск	10272
хус	10273
##далууда	10274
##анс	10275
##ино	10276
##стук	10277
мыйзамдарга	10278
аймактан	10279
##иктердин	10280
ошолордун	10281
тапса	10282
атканын	10283
кеткенде	10284
жеңүү	10285
уланды	10286
эсептөө	10287
тажикстандан	10288
козу	10289
үндөгөн	10290
токтотулду	10291
талапкердин	10292
##штырылган	10293
февралга	10294
бейшембиде	10295
жолугушуп	10296
мекендик	10297
пайдасына	10298
самми	10299
келинген	10300
чүйдүн	10301
интернеттеги	10302
факторлор	10303
кадырбеков	10304
талкуулашты	10305
тазалап	10306
телеканалына	10307
тролл	10308
токаевдин	10309
тастыктаган	10310
алмашып	10311
чогулгандар	10312
кыскартуу	10313
градуска	10314
гани	10315
##ook	10316
баарл	10317
үзгүлтүк	10318
бирикмесинин	10319
жайылтуу	10320
субъект	10321
дайындаган	10322
жатакана	10323
89	10324
боо	10325
ктрк	10326
лери	10327
штыр	10328
##олон	10329
##олдук	10330
##үлбөй	10331
биздеги	10332
кандид	10333
кирил	10334
##таж	10335
отор	10336
демөөр	10337
бүлөнүн	10338
окуучулары	10339
иранга	10340
добушун	10341
пансион	10342
жагдайга	10343
жашоочулар	10344
дарыларды	10345
ачылыш	10346
абдылда	10347
сүйлөшүүлөрдүн	10348
кырсыктан	10349
режимин	10350
талкуулаган	10351
штабынын	10352
жүрөг	10353
күрөштө	10354
исмаилов	10355
концерт	10356
аудио	10357
жарнам	10358
сүйлөштү	10359
регламент	10360
чейрек	10361
tv	10362
динин	10363
кеси	10364
ланып	10365
##ысы	10366
##un	10367
##сте	10368
##гач	10369
##ыраак	10370
мах	10371
азиза	10372
калабыз	10373
байка	10374
##чыларды	10375
күчкө	10376
келгендердин	10377
бөлүгүнүн	10378
түркстан	10379
койбойт	10380
партияга	10381
табууга	10382
ташылып	10383
өкмөттөн	10384
##едов	10385
2002	10386
узакка	10387
бейбаштык	10388
алтынчы	10389
китеб	10390
депутаттарын	10391
имараты	10392
пандемиядан	10393
дарылар	10394
төмөндөп	10395
##ибизди	10396
эсебине	10397
күчөтүп	10398
##иттерге	10399
францияда	10400
текшерүүдөн	10401
тынчсыздануу	10402
экстремизм	10403
ишмердүүлүгү	10404
прав	10405
провинциясында	10406
тартыштыгы	10407
күрөшкөн	10408
эбегей	10409
чыккынчылык	10410
гендердик	10411
?!	10412
зай	10413
кэ	10414
лерди	10415
черн	10416
##рим	10417
##актын	10418
баалоо	10419
ошо	10420
дарам	10421
топур	10422
##енттер	10423
согушу	10424
аткары	10425
мохам	10426
соңуна	10427
күрд	10428
даярдаган	10429
көлбаевдин	10430
айыптоолорду	10431
бердим	10432
акцияларын	10433
топтолуп	10434
системасынын	10435
жаздым	10436
кассалык	10437
үйлөрүнө	10438
пентагон	10439
достор	10440
орнотулган	10441
молдова	10442
туткундарды	10443
округунан	10444
нурланбек	10445
чындыкты	10446
face	10447
ереван	10448
нобел	10449
эбегейсиз	10450
пап	10451
пахта	10452
төн	10453
шыл	10454
##гунун	10455
##ади	10456
##сом	10457
##фф	10458
##ерт	10459
##ктүү	10460
##гандуу	10461
алары	10462
аламан	10463
таарын	10464
тарж	10465
атагы	10466
чечет	10467
чыгарбай	10468
төрө	10469
сураб	10470
##уулукка	10471
модер	10472
кылгандар	10473
прокурорлор	10474
кырдаалдын	10475
облустун	10476
200дөн	10477
видеосу	10478
коюлганын	10479
акциянын	10480
путинди	10481
талкуулар	10482
##жанов	10483
##анасында	10484
ыкмасы	10485
1996	10486
максаттар	10487
операциясы	10488
жөнөтүү	10489
серв	10490
токтотк	10491
карантиндик	10492
350	10493
авиа	10494
рахмат	10495
жуктурган	10496
энелердин	10497
ысымын	10498
мечит	10499
күрөштүн	10500
доорунда	10501
жакшылап	10502
буюрт	10503
коңшул	10504
чийки	10505
саякат	10506
чуулгандуу	10507
турнир	10508
нук	10509
одес	10510
фсб	10511
ыңыз	10512
##лана	10513
##песе	10514
арс	10515
##дардан	10516
тарын	10517
каты	10518
жетишти	10519
жетпейт	10520
##өмө	10521
жаранга	10522
кошулду	10523
жапайы	10524
айыптуу	10525
койчу	10526
окуялары	10527
көрсөтүүнү	10528
өзгөрүшү	10529
лиц	10530
тергөөчүлөр	10531
куралчан	10532
прокурору	10533
комиссиясына	10534
артып	10535
проба	10536
полицияга	10537
соккусунан	10538
документтердин	10539
##мокт	10540
батышындагы	10541
өнүгүшүнө	10542
эстон	10543
карызы	10544
монопол	10545
сумм	10546
аталыш	10547
рекон	10548
##иске	10549
конгресс	10550
сулайман	10551
университетинде	10552
жагымдуу	10553
одесса	10554
96	10555
бед	10556
чебер	10557
ысы	10558
##мана	10559
##паев	10560
##ктым	10561
##епр	10562
туудур	10563
балдарынын	10564
түрүн	10565
жоготкон	10566
токтоо	10567
ачты	10568
кытайдагы	10569
ортодогу	10570
жаштарды	10571
еврош	10572
соттордун	10573
чектен	10574
бешөө	10575
##өкөт	10576
аймактардан	10577
газдын	10578
кылмыштуулук	10579
##дашып	10580
жумадан	10581
канадалык	10582
баратканда	10583
кызматташууну	10584
террорчул	10585
өнөктөштүк	10586
өлчөмүндө	10587
семетей	10588
замирбек	10589
умтул	10590
кылышууда	10591
##берген	10592
бакиров	10593
трансф	10594
днепр	10595
тергелип	10596
коменданттык	10597
бюллетен	10598
еврошарк	10599
слов	10600
хиж	10601
шо	10602
жака	10603
бирде	10604
коңг	10605
##ократ	10606
маңыз	10607
##үлүшт	10608
##сың	10609
киришти	10610
белгилешкен	10611
өлкөсү	10612
##сиң	10613
борборундагы	10614
окуяда	10615
энесинин	10616
дарыясынын	10617
мүчүлүшт	10618
куй	10619
ырааттуу	10620
кызматкерлерге	10621
жээнбек	10622
өлүмүн	10623
тарабында	10624
тайван	10625
акылга	10626
түшкөнү	10627
автоунаалардын	10628
тутанган	10629
союзу	10630
ооруканаларда	10631
афган	10632
кетишине	10633
жактоочулары	10634
жабдуулар	10635
отунбаева	10636
тааныштырган	10637
жээгинде	10638
айнура	10639
чыгыштагы	10640
алког	10641
тбилиси	10642
крокус	10643
коңгур	10644
бө	10645
зак	10646
шой	10647
##делип	10648
##is	10649
эмман	10650
куралды	10651
учурундагы	10652
шайкеш	10653
эрге	10654
ичкен	10655
бөлүгүнө	10656
##ослав	10657
көрсөтүүдө	10658
актер	10659
бийликчил	10660
сынына	10661
өзбекстандагы	10662
пикирге	10663
органы	10664
прокурордун	10665
спорттун	10666
салууда	10667
күрөшүнөн	10668
##үшүбүз	10669
чабуулуна	10670
кайтарды	10671
кылмыштардын	10672
кайрылуусу	10673
басымы	10674
тапканы	10675
өтүндү	10676
экономикасына	10677
дейм	10678
беларуска	10679
##пашы	10680
ыбызга	10681
түшүрүлгөн	10682
пикирлерди	10683
чыгармалар	10684
жакырчыл	10685
чочулап	10686
кризистик	10687
фронтт	10688
кесепеттерин	10689
бөлтүрүк	10690
финляндия	10691
секундасына	10692
мыкаа	10693
айыгышкан	10694
геноцид	10695
"...	10696
атты	10697
бетин	10698
гу	10699
геп	10700
жөр	10701
##фект	10702
##олу	10703
##урах	10704
булактары	10705
күнүн	10706
жазасы	10707
болуптур	10708
жайыт	10709
жайлары	10710
уюш	10711
чыгарганын	10712
##осунун	10713
райондун	10714
кабардар	10715
тилди	10716
жасалды	10717
түгөн	10718
кимиси	10719
болбоду	10720
ээлер	10721
ында	10722
чектелүү	10723
тарыхындагы	10724
токмокт	10725
кулжа	10726
колдоосун	10727
самаркан	10728
белгиленип	10729
жибери	10730
илдетти	10731
базарда	10732
парламентинин	10733
жакындап	10734
кырсыгынан	10735
турмушу	10736
каттамы	10737
өзүмдү	10738
колдонуучулары	10739
фили	10740
кудайберген	10741
##истиан	10742
сыпаттады	10743
дооматтар	10744
ливан	10745
эксперттердин	10746
юнис	10747
айырмаланып	10748
салгылаш	10749
ыңкылап	10750
ашкере	10751
ача	10752
##енз	10753
алс	10754
бирлери	10755
бирөөгө	10756
анж	10757
жатасыңар	10758
атаз	10759
кылам	10760
кайгы	10761
укугуна	10762
кызматкеринин	10763
табыл	10764
дүйнөсү	10765
чектеген	10766
узунду	10767
тамга	10768
кумар	10769
таштаган	10770
1999	10771
чыгышына	10772
туугандар	10773
султанбаев	10774
талашып	10775
түзөтүү	10776
карабактагы	10777
өзүмдүн	10778
жолугушуусунда	10779
референдумга	10780
жандандыруу	10781
00гө	10782
палатасы	10783
кеңейтүү	10784
босого	10785
төкмө	10786
реконструк	10787
жө	10788
жоол	10789
кине	10790
ский	10791
##арлык	10792
##штү	10793
карам	10794
кароону	10795
##аба	10796
##оком	10797
орден	10798
атуул	10799
кылдык	10800
эрн	10801
жарыш	10802
##янск	10803
шайлоочу	10804
түшө	10805
кыйылган	10806
##дорун	10807
катта	10808
жабдык	10809
экономист	10810
колдонуучулар	10811
таанып	10812
куда	10813
түшүндүрөт	10814
такталбаган	10815
дайыны	10816
өсүш	10817
мезгили	10818
##бөсө	10819
жолдошу	10820
жашырган	10821
болушат	10822
грузияда	10823
шамалдын	10824
кризиске	10825
комитетинде	10826
тастыктады	10827
конфиск	10828
чагылдырып	10829
досу	10830
мейманкан	10831
дарылануу	10832
баллга	10833
абдрахманов	10834
аспек	10835
латв	10836
оюмча	10837
дамир	10838
доза	10839
портт	10840
ху	10841
##ач	10842
##book	10843
жагына	10844
кызынын	10845
каны	10846
канаттуу	10847
кыйыр	10848
өткөрөт	10849
эненин	10850
уруу	10851
эмнеден	10852
апрелдин	10853
денис	10854
ыры	10855
ишенген	10856
окуучулардын	10857
жээкт	10858
беренесине	10859
база	10860
оюндарында	10861
пробл	10862
кызматташты	10863
бюджетти	10864
вакцинасын	10865
жөнөтүлдү	10866
киевде	10867
зеленскийдин	10868
кыргызстандыктарды	10869
көрсөткөндөй	10870
камсыздоого	10871
издөөдө	10872
тасмада	10873
кадрлар	10874
көрүүчүлөр	10875
комплекс	10876
жуук	10877
зордуктоого	10878
вагнердин	10879
тизмеде	10880
мүдөө	10881
жарнама	10882
урматт	10883
урматтуу	10884
таланттуу	10885
тоскоолдуктар	10886
унчукпай	10887
эммануэл	10888
гут	10889
сунун	10890
өгүз	10891
##хад	10892
##был	10893
##ik	10894
##олушу	10895
##оруз	10896
дезин	10897
кыргызгидр	10898
##гиси	10899
колхоз	10900
жазалоо	10901
инандын	10902
инжен	10903
аяк	10904
##тердик	10905
##иевдин	10906
бөлүктөр	10907
даректүү	10908
талкаланып	10909
нооруз	10910
добушу	10911
ырыс	10912
иштегени	10913
документтерге	10914
кетиптир	10915
зыяр	10916
ачылышы	10917
тармактардагы	10918
окшоп	10919
китепкана	10920
жамал	10921
залак	10922
театрынын	10923
навальныйды	10924
үрк	10925
кысымга	10926
жккунун	10927
бүткөндөн	10928
патент	10929
жакшылык	10930
фактылары	10931
транзиттик	10932
молдокматов	10933
бокс	10934
facebook	10935
дезинф	10936
кыргызгидромет	10937
бети	10938
кун	10939
кунду	10940
пхен	10941
##чолук	10942
##ьв	10943
##ңгы	10944
##арап	10945
##усунун	10946
куралы	10947
жүрүүгө	10948
ина	10949
тургандыгын	10950
ошончолук	10951
борбордо	10952
чаралардын	10953
сандагы	10954
мынчалык	10955
онк	10956
сыртта	10957
2004	10958
согушуп	10959
пандем	10960
салганын	10961
бейтарап	10962
кыскасы	10963
илдеттин	10964
1995	10965
көрүнгөн	10966
пайдаланган	10967
жактоочу	10968
мүчөлөрүн	10969
начарл	10970
ыбыздын	10971
айланат	10972
форматта	10973
эшик	10974
кетирген	10975
желим	10976
ыктыярдуу	10977
##даткыч	10978
төгүп	10979
күбөлүк	10980
тегерегиндеги	10981
ишембиде	10982
төрагалык	10983
контрчабуул	10984
искусство	10985
чөгүп	10986
чарчап	10987
аргентин	10988
аброй	10989
сурабал	10990
кундуз	10991
миз	10992
сити	10993
##гат	10994
##сөк	10995
##am	10996
болом	10997
карьер	10998
берсин	10999
турууну	11000
жаранын	11001
айтп	11002
айтсам	11003
203	11004
белгород	11005
өтөрүн	11006
кеңсе	11007
түзө	11008
сөздөрү	11009
конок	11010
маселесинде	11011
атка	11012
актө	11013
актыл	11014
##илгенин	11015
аймактардын	11016
##пич	11017
жабыркады	11018
үстөк	11019
жашоосун	11020
вакцинасы	11021
кууп	11022
зыяны	11023
жылдарда	11024
уурдоо	11025
тенгиз	11026
тенденция	11027
ресурс	11028
ишмердүүлүгүнө	11029
баяндамада	11030
мөөнөттүү	11031
кылмышкер	11032
тартканы	11033
австралия	11034
машыктыруучу	11035
мемори	11036
поэзия	11037
мексика	11038
боштондук	11039
самарканд	11040
%)	11041
сени	11042
телер	11043
##тикалык	11044
##оя	11045
##юс	11046
##овка	11047
келсек	11048
##үлөрү	11049
преп	11050
##дина	11051
атылып	11052
орусиячыл	11053
камоо	11054
шайланды	11055
талапка	11056
соттолуп	11057
беков	11058
оптим	11059
жанар	11060
жеңди	11061
көлөк	11062
аткарбай	11063
аймактарын	11064
эти	11065
этет	11066
160	11067
оңдо	11068
октябрдын	11069
каалоосу	11070
сөздөрүн	11071
пакистанда	11072
жуктургандардын	11073
чыгармалары	11074
процесси	11075
саммитинде	11076
кооптонуу	11077
дыйкандар	11078
утулуп	11079
##орандум	11080
саммитте	11081
өкүнүчтүү	11082
улгайган	11083
барабар	11084
телеради	11085
бүр	11086
ценз	11087
##лугун	11088
##касын	11089
##юм	11090
##ют	11091
##алана	11092
##инги	11093
##олий	11094
арка	11095
##име	11096
##дыкка	11097
##ыктык	11098
кабыр	11099
##ясын	11100
чыгарын	11101
суроону	11102
##алыгы	11103
айыпка	11104
орундуу	11105
жүргүзөт	11106
саясатына	11107
компанияларга	11108
раф	11109
медианын	11110
күнүгө	11111
бийликтери	11112
азыркыдай	11113
сунушту	11114
үндөп	11115
баткендин	11116
бошоткон	11117
лардан	11118
ирак	11119
оппози	11120
өлүмгө	11121
биримдиктин	11122
камактан	11123
германияга	11124
дипломаттар	11125
сербия	11126
таянсак	11127
транспортт	11128
матраимовду	11129
булактардан	11130
тарапташт	11131
##ников	11132
эрдогандын	11133
жүктөп	11134
чөйрөдө	11135
процесст	11136
италиянын	11137
сүң	11138
кемчиликтер	11139
акматалиев	11140
абдрахматова	11141
усуб	11142
директорунун	11143
жайылышына	11144
меморандум	11145
шериктешт	11146
квартал	11147
араван	11148
жунушалиев	11149
коңгуроо	11150
госп	11151
дат	11152
дордун	11153
жукту	11154
сор	11155
түм	11156
##ши	11157
##далат	11158
##id	11159
##фия	11160
алалы	11161
алдап	11162
##ора	11163
##урт	11164
##оосунда	11165
##икасын	11166
жылдыгы	11167
өзөн	11168
тараз	11169
кызыгып	11170
##ишине	11171
адамдык	11172
башындагы	11173
көптөр	11174
токтон	11175
##уулугун	11176
кеткендер	11177
жанарбек	11178
көтөрө	11179
органдарга	11180
коррупциянын	11181
башталганы	11182
##структ	11183
каражатын	11184
сөөк	11185
өтүнүп	11186
көлөмдө	11187
алышпайт	11188
мерк	11189
өздөрүнө	11190
стратегия	11191
өңүтт	11192
мадумаровдун	11193
стамбулда	11194
регионалдык	11195
беларустагы	11196
визасыз	11197
холдинг	11198
талабына	11199
мазмуну	11200
түбөлүк	11201
кылмышкерлер	11202
##гелдиев	11203
абийир	11204
олжобай	11205
лицей	11206
пхеньян	11207
түмөн	11208
дс	11209
дет	11210
дыр	11211
дүктөн	11212
сынан	11213
хо	11214
шу	11215
##тары	11216
##ене	11217
баева	11218
элде	11219
жылдарга	11220
##итар	11221
кызматтарды	11222
байы	11223
##угунун	11224
терек	11225
чыгарылат	11226
##иева	11227
райондо	11228
койдук	11229
жардамдын	11230
жаштарга	11231
алуудан	11232
актаган	11233
жүргүзө	11234
кеңештерге	11235
тааный	11236
маалыматтарын	11237
тапшырылды	11238
текшерүүлөр	11239
ооруканасына	11240
израилдик	11241
салганы	11242
акылдуу	11243
com	11244
бүбү	11245
деңгээлинде	11246
эгин	11247
кумтөрдүн	11248
бажыдагы	11249
каттамдар	11250
майрамы	11251
концент	11252
кыскача	11253
каалагандай	11254
кыштактар	11255
осмоналиев	11256
маңдай	11257
эффект	11258
калаадагы	11259
билдирүүлөрү	11260
тумоо	11261
жемкорлук	11262
йорк	11263
экспертизанын	11264
кагууда	11265
артиллериялык	11266
сакайып	11267
кыйраган	11268
үзгүлтүксүз	11269
госпит	11270
груп	11271
обол	11272
сери	11273
##цев	11274
##пери	11275
##аряд	11276
алтай	11277
##ила	11278
жакты	11279
аралар	11280
карала	11281
элит	11282
##дөөнү	11283
##има	11284
##канов	11285
сох	11286
кызыгы	11287
мыйзамдагы	11288
балет	11289
өтөгөн	11290
баштоо	11291
белгилөө	11292
ачат	11293
чакырат	11294
берилбеген	11295
энелери	11296
партияны	11297
бузганы	11298
тармагынын	11299
тийбест	11300
айыпталууда	11301
министрлигинен	11302
маалыматтардын	11303
жою	11304
күрөшүүгө	11305
бурган	11306
автожол	11307
таштады	11308
имаратына	11309
кызматташкан	11310
эрежелери	11311
##аторий	11312
айдоочулук	11313
калкка	11314
салыштырганда	11315
идеологиялык	11316
салмагы	11317
түзүмдөрү	11318
келатканын	11319
оорулуу	11320
түзүлүш	11321
алектенип	11322
чалдыккандар	11323
стамбулдагы	11324
сыпаттаган	11325
чаткал	11326
эксперттик	11327
макулдашты	11328
илинген	11329
кесиптештер	11330
тартканын	11331
өндүрүштүк	11332
чөнтө	11333
карасарт	11334
снаряд	11335
гутер	11336
сурабалдиева	11337
дссу	11338
акты	11339
еб	11340
зым	11341
мот	11342
пас	11343
ролду	11344
уда	11345
шал	11346
шку	11347
эгиз	11348
##иан	11349
##ажы	11350
##апар	11351
##абын	11352
жылыш	11353
атпайбы	11354
азери	11355
ишени	11356
кийген	11357
абс	11358
бух	11359
##устук	11360
бөлөк	11361
жоошев	11362
сандар	11363
маселенин	11364
##игинде	11365
##игинен	11366
киргизилет	11367
жүргүзүүнү	11368
раим	11369
таанышт	11370
тергөөдө	11371
көбөйөт	11372
бызга	11373
текшерүүгө	11374
вирусу	11375
мүмкүнчүлүктөр	11376
темировдун	11377
курмандыктары	11378
имаратын	11379
башкармалыгына	11380
жаратыл	11381
университети	11382
no4	11383
күйөөсүнүн	11384
акыйк	11385
алматыдагы	11386
комитетине	11387
түшүрүп	11388
чыгармаларын	11389
дыйканчылык	11390
окуясын	11391
кошулуу	11392
көчүрүп	11393
китептерди	11394
мелдештер	11395
шанхай	11396
категория	11397
океан	11398
күчтөп	11399
конвенция	11400
светлана	11401
бедел	11402
kz	11403
либер	11404
мды	11405
помп	11406
уга	11407
##чоро	11408
##гунда	11409
##быр	11410
##басын	11411
##аныш	11412
баган	11413
айыкты	11414
каралышы	11415
орой	11416
барс	11417
##үмүн	11418
##ыктагы	11419
орусиял	11420
жүрөм	11421
тургандар	11422
кириши	11423
кыжыр	11424
сөг	11425
ошончо	11426
##ашынча	11427
##өйүн	11428
шайлообек	11429
уюмдарды	11430
адыл	11431
кеткенине	11432
##лад	11433
суусун	11434
кескен	11435
банг	11436
этегинде	11437
күндүзгү	11438
финалдык	11439
1997	11440
##сула	11441
обон	11442
курамындагы	11443
мүчөлөрүнө	11444
орнош	11445
кызматташтыгы	11446
сүрөтчү	11447
ноябрында	11448
сезими	11449
жамаат	11450
өлгөндөрдүн	11451
бээжиндин	11452
ибраимов	11453
ишмердүүлүгүн	11454
күмөндүү	11455
себептерин	11456
агымы	11457
силерге	11458
парижде	11459
кампания	11460
толкундо	11461
утурлай	11462
азимжан	11463
академиялык	11464
цзинь	11465
икрам	11466
##cial	11467
хижаб	11468
узундугу	11469
көлөкө	11470
po	11471
мди	11472
##ще	11473
##ера	11474
болж	11475
##аназ	11476
арык	11477
карасак	11478
берл	11479
өздүк	11480
атуучу	11481
айтылуу	11482
өтүүчү	11483
мили	11484
эрке	11485
чыгаруучу	11486
чакырышты	11487
алынбай	11488
урун	11489
кызматкерин	11490
табият	11491
маселеде	11492
дарыгердин	11493
келинди	11494
көйгөйүн	11495
1998	11496
туугандарынын	11497
мамиледе	11498
иштетүүчү	11499
каттоодо	11500
бөлүнөт	11501
болушуна	11502
мүнөздөгү	11503
вашингтондун	11504
олимпиадага	11505
конфликт	11506
тартибине	11507
жуккандардын	11508
ийгиликке	11509
британиялык	11510
доктор	11511
өкүлчүлүгү	11512
узартуу	11513
сурамжылоо	11514
аннексиялап	11515
байланыштырды	11516
капчыгай	11517
марафон	11518
оболу	11519
жатт	11520
кетт	11521
пч	11522
##кциялык	11523
##нөк	11524
##там	11525
##rw	11526
##дыгына	11527
##еке	11528
бааны	11529
каралоо	11530
сой	11531
кыздарды	11532
аталышы	11533
жаралды	11534
##ланын	11535
сактан	11536
##итов	11537
айтышы	11538
20дан	11539
көрүүдө	11540
абдук	11541
мыйзамын	11542
мыйзамдык	11543
эрлан	11544
чечилип	11545
өлкөсүндө	11546
жөнөп	11547
##чилердин	11548
кандайча	11549
суранды	11550
аскерий	11551
байланыштырып	11552
кыйкырып	11553
жарыялан	11554
айылдар	11555
урган	11556
##бызда	11557
талкалап	11558
элекпиз	11559
тармактын	11560
августунда	11561
көбөйүшү	11562
жетекчилигинин	11563
##гуч	11564
##алья	11565
##одром	11566
келиндердин	11567
өнөктүк	11568
ишкерлик	11569
кайрылышкан	11570
юрий	11571
кылымда	11572
фондуна	11573
климат	11574
маданиятын	11575
шейшемби	11576
криминалдык	11577
күрөшкө	11578
каргаш	11579
бекиткен	11580
тиричилик	11581
фрунзе	11582
екатеринбург	11583
afp	11584
модерн	11585
жөрөл	11586
пчр	11587
of	11588
sh	11589
вел	11590
диктен	11591
ид	11592
сев	11593
ухан	11594
##чыны	11595
##гала	11596
##сап	11597
##ag	11598
##инация	11599
##еркен	11600
##етине	11601
##ыкеев	11602
айеркен	11603
болууну	11604
##шко	11605
берсең	11606
турист	11607
аталат	11608
жарылып	11609
колубуз	11610
байт	11611
инду	11612
баштадык	11613
уюл	11614
чечти	11615
##осо	11616
талапты	11617
борборго	11618
##чүлүк	11619
билдиргени	11620
кызматтагы	11621
крип	11622
иликтөөнү	11623
мааниде	11624
качууга	11625
укмкга	11626
келтирүүгө	11627
пландалып	11628
донорлор	11629
шектүүнүн	11630
сезон	11631
катышканын	11632
депутаттарынын	11633
1993	11634
операциясын	11635
сүйлөшүүлөргө	11636
трампты	11637
тилкесине	11638
бизнести	11639
жамк	11640
териштирип	11641
нике	11642
укугунан	11643
муктаждык	11644
үмүтү	11645
кылынат	11646
камтыйт	11647
куткаруучу	11648
твиттерге	11649
ниязов	11650
ниязбеков	11651
литва	11652
барымтада	11653
токмокко	11654
катчысынын	11655
ортомчу	11656
шектүүлөрдүн	11657
абакиров	11658
функция	11659
цахал	11660
карантинде	11661
саммитке	11662
вас	11663
гвар	11664
диги	11665
дерди	11666
мьян	11667
тыш	11668
##итке	11669
##чес	11670
##op	11671
##дабай	11672
##олору	11673
менден	11674
арам	11675
анти	11676
жанагы	11677
берейин	11678
##оглу	11679
боё	11680
кагы	11681
азов	11682
адамы	11683
бель	11684
баласынын	11685
учурду	11686
мурасы	11687
саясаттын	11688
терап	11689
##едитация	11690
жасайт	11691
компаниясын	11692
кемсин	11693
үнөн	11694
200дөй	11695
мамилелерди	11696
түштөн	11697
бурууга	11698
аттанган	11699
которулуп	11700
бүлөдө	11701
##газы	11702
каражаттарында	11703
фактор	11704
ойно	11705
ойнойт	11706
медай	11707
күйөөм	11708
мектептерди	11709
келатышат	11710
жамааты	11711
ңыздар	11712
##улушуна	11713
1989	11714
посттор	11715
алмаштырып	11716
мечиттер	11717
муфтият	11718
силердин	11719
бөлүштүрүү	11720
ирактын	11721
жемкорлукка	11722
маяна	11723
тепки	11724
тыянак	11725
ассамблея	11726
болочок	11727
канцлери	11728
демаркациялоо	11729
реанимация	11730
tel	11731
лай	11732
түк	11733
##чумун	11734
##зов	11735
##сип	11736
##ктоо	11737
##оним	11738
бааланган	11739
дебей	11740
келем	11741
айталы	11742
##ушев	11743
тууну	11744
##оте	11745
##утуп	11746
инсул	11747
мыйзамдары	11748
шайлоодогу	11749
190	11750
калгандыктан	11751
бергенге	11752
отурду	11753
маанидеги	11754
жүзүндөгү	11755
аралап	11756
талкуулоо	11757
оператор	11758
маселелердин	11759
ашырып	11760
катышуучусу	11761
өсүмдү	11762
жактырган	11763
калтыруу	11764
тилкесиндеги	11765
жамбыл	11766
мартында	11767
командасынын	11768
тартипке	11769
отуруму	11770
мекемелерге	11771
психикалык	11772
тасс	11773
тоннадан	11774
көрөбүз	11775
процессуалдык	11776
##тенберг	11777
##ork	11778
кабулдагы	11779
суммадагы	11780
боордо	11781
николаев	11782
китепти	11783
багда	11784
кездешет	11785
тете	11786
машыгуулар	11787
сыймык	11788
козутуу	11789
санариптештирүү	11790
этектеринде	11791
шылуун	11792
гепат	11793
өсүмдүкт	11794
бөйр	11795
врем	11796
нен	11797
нөө	11798
пла	11799
түү	11800
түгүл	11801
##кыз	11802
##чинин	11803
##гусу	11804
##хат	11805
##енсация	11806
баардык	11807
айгин	11808
айыккан	11809
элмир	11810
ташкен	11811
таяк	11812
##иптер	11813
барабыз	11814
акм	11815
##ыштан	11816
##омат	11817
мурза	11818
чечилет	11819
талапкери	11820
компенсация	11821
илип	11822
койдум	11823
сактаган	11824
партиядан	11825
башкаруунун	11826
абалында	11827
полков	11828
видеолорду	11829
чабуулу	11830
тургундарынын	11831
кызыккан	11832
таңга	11833
угуу	11834
манасчы	11835
объектилер	11836
##изациялоо	11837
достору	11838
үгүтт	11839
аянтч	11840
постсов	11841
кышта	11842
омбу	11843
окуясына	11844
канааттандырган	11845
мирзиёевдин	11846
себептерден	11847
##rov	11848
бекемдөөгө	11849
жумушсуздук	11850
казынага	11851
кажет	11852
аброюн	11853
буюртма	11854
жөөт	11855
пандемиянын	11856
постсоветтик	11857
91	11858
al	11859
get	11860
иден	11861
лег	11862
филип	11863
чеги	11864
чулар	11865
ыдык	11866
##чек	11867
##бесе	11868
##енбург	11869
##ирл	11870
алык	11871
##етикалык	11872
##ыров	11873
айгүл	11874
антик	11875
##ымда	11876
чыктым	11877
калам	11878
түрүнө	11879
бөлүү	11880
дарын	11881
депутатты	11882
айыпты	11883
бергенден	11884
журналисттери	11885
табия	11886
уник	11887
ташууга	11888
даярбыз	11889
апрелден	11890
апрелинде	11891
төлөйт	11892
абалдын	11893
##диктери	11894
талапкерди	11895
ооруканасында	11896
көңүлү	11897
жагдайларды	11898
учактын	11899
митингчилер	11900
базарынын	11901
тирк	11902
миним	11903
басылманын	11904
басылмасына	11905
сегизбаев	11906
унаалар	11907
росс	11908
сенатор	11909
жаңжалдан	11910
шамш	11911
кайрылууга	11912
километр	11913
жоктугунан	11914
штаттарда	11915
тастыкталган	11916
кылынганын	11917
болобуз	11918
чечиле	11919
чечилбей	11920
көнүп	11921
поч	11922
кыскарып	11923
кагылышуулар	11924
ардактуу	11925
кышында	11926
венгрия	11927
автоматтык	11928
заводу	11929
тоннага	11930
ырайымсыз	11931
исмаилова	11932
екку	11933
сатыбал	11934
күркүрөйт	11935
христиан	11936
столтенберг	11937
##жигит	11938
омбудс	11939
air	11940
жул	11941
лоо	11942
мөмө	11943
оол	11944
сууда	11945
таты	11946
эси	11947
##ле	11948
##нам	11949
##диянын	11950
##бат	11951
##ват	11952
##ктаган	11953
##иян	11954
баада	11955
##ттардын	11956
антон	11957
кыргын	11958
махаб	11959
айтайын	11960
каймана	11961
калбайт	11962
белг	11963
индон	11964
чыкпайт	11965
чакырууда	11966
катталуу	11967
аралыкка	11968
соттол	11969
долбоордо	11970
казактар	11971
жеңиши	11972
импич	11973
европар	11974
##едж	11975
жүзүн	11976
камсыздап	11977
декабрдын	11978
чыны	11979
##чалаган	11980
байкалууда	11981
чогулткан	11982
кыйынчыл	11983
курамын	11984
кырсыктын	11985
каналынын	11986
изилдөөгө	11987
##адалык	11988
демилгелер	11989
сентябрдын	11990
тасмасы	11991
автобустар	11992
палестиналык	11993
кошкондо	11994
дарыланууда	11995
фейсбукка	11996
венгриянын	11997
жайылышын	11998
калайман	11999
##mirov	12000
делимитациялоо	12001
дезинфекция	12002
ишенич	12003
уникалдуу	12004
индонез	12005
импичмент	12006
de	12007
kloo	12008
кын	12009
##коо	12010
##өгүн	12011
##вил	12012
##ay	12013
##уре	12014
##урация	12015
##гаев	12016
баст	12017
##икл	12018
бирөөнү	12019
турдук	12020
тарк	12021
атүгүл	12022
чыктык	12023
учкай	12024
салыктык	12025
турганына	12026
мыйзамдардын	12027
балдарына	12028
##кташ	12029
##уштун	12030
чечиш	12031
кармоого	12032
кабарлар	12033
##дорго	12034
жуманаз	12035
жасалат	12036
көрсөтүлөт	12037
бекети	12038
журналистика	12039
тийди	12040
пикирди	12041
келишимде	12042
макулдугун	12043
коюлганы	12044
наталья	12045
быздын	12046
текшерген	12047
кулат	12048
тактала	12049
##ная	12050
дөбө	12051
жеңилдик	12052
мезгилине	12053
мигранттары	12054
оштун	12055
бизнесмен	12056
террористтик	12057
тасманы	12058
паспорту	12059
индиялык	12060
депутаттыкка	12061
добуштардын	12062
аалымдар	12063
жоболор	12064
азимбек	12065
даражалуу	12066
бөтөн	12067
время	12068
kloop	12069
дой	12070
пил	12071
фаз	12072
##көнү	12073
##енс	12074
##алаш	12075
##оров	12076
##елей	12077
оренбург	12078
азчыл	12079
азиялык	12080
байлап	12081
##кент	12082
башталышы	12083
2026	12084
койбой	12085
кездери	12086
шаршемби	12087
жанкеч	12088
уулуна	12089
чабуулдан	12090
израилди	12091
финал	12092
кайрылуусун	12093
имаратты	12094
автоунааларды	12095
туугандарына	12096
кыйнап	12097
макулдашылган	12098
бшкга	12099
укуктарына	12100
##уктады	12101
жайларында	12102
көкб	12103
класстын	12104
тосмо	12105
тестирл	12106
сингап	12107
алышыбыз	12108
еаэбдин	12109
ливандын	12110
чарбалык	12111
байлыгы	12112
координациялык	12113
жаткырылган	12114
комиссари	12115
үүдө	12116
абдыкадыр	12117
обоч	12118
temirov	12119
фермерлер	12120
кандидаты	12121
xi	12122
дж	12123
##март	12124
##ияр	12125
айпери	12126
##икада	12127
##деев	12128
арап	12129
коет	12130
ковид	12131
##ыма	12132
каада	12133
маалыматтары	12134
байку	12135
##егим	12136
##обуз	12137
кыйкыр	12138
чартердик	12139
тилиндеги	12140
демилгени	12141
алуусу	12142
киргизбей	12143
жанр	12144
мамлекетинин	12145
1200	12146
эскерип	12147
диаб	12148
мурдакы	12149
ырлары	12150
нуржан	12151
министрлигинде	12152
текшерилип	12153
топто	12154
колдоосуна	12155
системалары	12156
дайындалып	12157
депутаттарга	12158
бүлөсүнүн	12159
ооругандар	12160
зомбулуктан	12161
армиянын	12162
тапкандардын	12163
##ылышына	12164
экономикасын	12165
метрден	12166
аскат	12167
энергиясынын	12168
ңызды	12169
саммитине	12170
талаптары	12171
жакырчылык	12172
дубал	12173
жоюлуп	12174
жамгырчиев	12175
саймаит	12176
иликтенип	12177
монголия	12178
айдарбеков	12179
пирам	12180
супер	12181
press	12182
кашкар	12183
мыкаачылык	12184
помпео	12185
бельг	12186
сингапур	12187
ast	12188
on	12189
ачы	12190
дом	12191
пор	12192
рем	12193
тул	12194
уил	12195
##заев	12196
##бара	12197
##ov	12198
##ran	12199
##фаль	12200
##олорун	12201
дав	12202
берлин	12203
##раж	12204
маалыматтын	12205
байлык	12206
жетиши	12207
жүрсө	12208
##үчө	12209
басын	12210
сөздүн	12211
ашхаб	12212
окутуп	12213
өнөкөт	12214
чеккен	12215
токтой	12216
марттын	12217
изде	12218
өткөрө	12219
койбо	12220
коргоочулардын	12221
##лашы	12222
евроком	12223
күрөө	12224
эмнеде	12225
эркиндигинин	12226
таанышты	12227
кечигип	12228
албаганы	12229
ирандагы	12230
сабаган	12231
алтынды	12232
тезирээк	12233
сулей	12234
сайтынын	12235
эстеп	12236
топторго	12237
сентябрында	12238
оозеки	12239
сүйлөшүүсү	12240
психолог	12241
негиздем	12242
кароосуна	12243
курултайдын	12244
консулду	12245
өчүрүп	12246
заводдун	12247
тажрыйбалуу	12248
өзүңөр	12249
кооптонуп	12250
округдан	12251
тандаган	12252
камера	12253
үйрөнүп	12254
мөөнөттө	12255
күбөлөрдүн	12256
тоолордо	12257
египет	12258
отставка	12259
харрис	12260
карасартова	12261
гутерр	12262
ашхабад	12263
еврокомис	12264
гү	12265
рита	12266
сект	12267
тектүү	12268
фиг	12269
ют	12270
##лүгү	12271
##om	12272
##амбетов	12273
##дий	12274
элдикт	12275
курсу	12276
##ому	12277
##ебей	12278
муратбек	12279
тартыл	12280
төрөбаев	12281
##гүсү	12282
жоомарт	12283
контин	12284
##үктөрдү	12285
жакындан	12286
шарк	12287
актоо	12288
өлкөлөрдү	12289
аныкталат	12290
бузул	12291
кечең	12292
наст	12293
келтире	12294
өрк	12295
күрөшүүдө	12296
талапкерлиги	12297
170	12298
документтин	12299
кыймылын	12300
сүрөттөрдү	12301
байкалат	12302
бейтаптарды	12303
университеттин	12304
төгү	12305
макулдашууну	12306
кармады	12307
өкүмүн	12308
чакырымга	12309
нааразычылык	12310
менчикке	12311
республикачылар	12312
реформалар	12313
окуясынан	12314
жашылча	12315
токойлор	12316
фирма	12317
бригада	12318
кечирип	12319
чапкан	12320
билишет	12321
кризистен	12322
швейцария	12323
ассамбле	12324
батукаевдин	12325
бейрасмий	12326
дэвид	12327
словак	12328
филиал	12329
бангла	12330
##щее	12331
teleg	12332
getty	12333
аё	12334
аалы	12335
медер	12336
мушта	12337
тушта	12338
шып	12339
##отк	12340
##вардын	12341
##nn	12342
##up	12343
##алия	12344
саид	12345
кайым	12346
жүрүшкөн	12347
улай	12348
салса	12349
кирбей	12350
өтмөк	12351
##азан	12352
миңи	12353
кошуу	12354
токтол	12355
анысы	12356
марттагы	12357
чакырабыз	12358
##озит	12359
илхам	12360
урп	12361
аныктай	12362
аткарылышы	12363
аткарылбай	12364
суван	12365
сунуштарын	12366
##атура	12367
уюштурулду	12368
##диктерин	12369
активисттин	12370
кайтарууга	12371
маселелерге	12372
ооругандардын	12373
милдеттерин	12374
гүлен	12375
##ционалдык	12376
пенс	12377
мекемелерде	12378
каттамдары	12379
судьялар	12380
таанышкан	12381
олимпиадалык	12382
миграцияга	12383
авиаб	12384
айырмасы	12385
резон	12386
фондунан	12387
кутул	12388
пикирлерин	12389
өлгөнүн	12390
федерациясы	12391
көрүнүктүү	12392
батыштагы	12393
сактагычынын	12394
жыгач	12395
бириктирген	12396
көбөйтүп	12397
тамыры	12398
лабораториялык	12399
бакчага	12400
криминал	12401
расалык	12402
ташкентте	12403
мушташ	12404
ыңкыл	12405
турбайбы	12406
трансформа	12407
зыярат	12408
малды	12409
че	12410
ңарды	12411
##ычы	12412
##хаз	12413
алдырып	12414
##дыкта	12415
##етнам	12416
арман	12417
антал	12418
##гом	12419
салян	12420
салыкты	12421
салмак	12422
биологиялык	12423
башташкан	12424
үйдөгү	12425
##дөрүн	12426
чечүүчү	12427
өлкөсүнүн	12428
ашраф	12429
караңгы	12430
конгон	12431
абага	12432
##есиң	12433
тилинин	12434
чыккандарды	12435
айылынан	12436
облусунан	12437
партиясына	12438
алынгандан	12439
ырас	12440
нуру	12441
маалыматтарда	12442
чаң	12443
коомчулугу	12444
капа	12445
күйгөн	12446
ларында	12447
такталып	12448
оппон	12449
киргени	12450
ийне	12451
армияга	12452
ишканасына	12453
абдил	12454
өнүгүшү	12455
банкка	12456
мамлекеттерден	12457
кичүү	12458
фейсбукта	12459
кызматтарда	12460
кетирип	12461
бекитип	12462
жыйынтыкка	12463
аяктагандан	12464
астанада	12465
ардагер	12466
бүтүргөн	12467
китептин	12468
салтанат	12469
машыктыруу	12470
атырау	12471
офицер	12472
ууландыр	12473
полигон	12474
коммуникациялар	12475
акырындык	12476
чиновниктер	12477
##иссёр	12478
дурус	12479
север	12480
гутерриш	12481
өркүндө	12482
wh	12483
бөк	12484
кеттик	12485
##чен	12486
##тору	12487
##см	12488
##елек	12489
##икул	12490
арасынын	12491
коку	12492
берсек	12493
келүүнү	12494
барууну	12495
акун	12496
жаралат	12497
иштешет	12498
салышы	12499
учурларды	12500
шаарч	12501
башташы	12502
жоокери	12503
токтолуп	12504
отр	12505
жумушу	12506
жабд	12507
айткандарын	12508
келишин	12509
дарыяс	12510
##өөнө	12511
долларын	12512
кемелер	12513
ырдап	12514
баштагандан	12515
газды	12516
жетекчилердин	12517
бейшемби	12518
пландары	12519
жеткире	12520
маалымдаш	12521
50дөн	12522
натыйжасы	12523
санкцияларга	12524
кадамы	12525
түзүлгөнүн	12526
тилкелери	12527
программасына	12528
##иддин	12529
биринчилер	12530
сапарында	12531
статистикалык	12532
секир	12533
кызматтарынын	12534
курултайда	12535
системага	12536
округу	12537
ооруларды	12538
илдетинен	12539
азайтып	12540
батыштан	12541
иштебейт	12542
аракеттенүү	12543
уранды	12544
көтөрүлүш	12545
баллистикалык	12546
участк	12547
магист	12548
беттеште	12549
аэс	12550
ветерин	12551
инауг	12552
биринчилерден	12553
hrw	12554
вь	12555
нак	12556
ыдыр	12557
ңер	12558
##иатр	12559
##чуну	12560
##уж	12561
##нит	12562
##гине	12563
##түүгө	12564
##үгө	12565
##поого	12566
##арда	12567
айзада	12568
##иман	12569
атына	12570
корей	12571
канчалаган	12572
күндү	12573
абхаз	12574
мурдат	12575
авив	12576
күчтөн	12577
майлуу	12578
кылмышты	12579
изи	12580
стабил	12581
айылдан	12582
мекени	12583
четинен	12584
караганды	12585
көрсөтмөлөр	12586
айткандар	12587
кеңешинде	12588
бийликтер	12589
судан	12590
январдагы	12591
макулдугу	12592
премь	12593
чабуулдарын	12594
салынганын	12595
оңдоого	12596
жеткирүүгө	12597
системанын	12598
телев	12599
кайтарылды	12600
бүлөсүн	12601
жашоочулары	12602
жетиген	12603
ордунда	12604
базарында	12605
санкциялардын	12606
үлүш	12607
курулушуна	12608
таңында	12609
кыйналган	12610
алмамбет	12611
улантат	12612
##дүүлүгүн	12613
кабылгандардын	12614
мектептен	12615
документи	12616
күнөөлөп	12617
позицияны	12618
театрында	12619
бербейбиз	12620
жүрөбүз	12621
аткылап	12622
билбейбиз	12623
экстремизмге	12624
images	12625
аянтча	12626
реформаларды	12627
технологияларды	12628
жибек	12629
орозбек	12630
экспорттоого	12631
коллеж	12632
абдуллаев	12633
баалуулуктар	12634
туруму	12635
сатыкка	12636
дозасын	12637
аксакал	12638
хасан	12639
маанисин	12640
мелдешке	12641
цзиньпин	12642
абдукадыр	12643
көкбөрү	12644
обочолон	12645
инаугурация	12646
мурдатан	12647
york	12648
ибиз	12649
пей	12650
тикт	12651
фан	12652
чынын	12653
чуб	12654
эй	12655
этти	12656
##ченко	12657
##мей	12658
##актан	12659
##зан	12660
##хов	12661
##zer	12662
##алыктын	12663
айдай	12664
экип	12665
барк	12666
##лиген	12667
иштеч	12668
кайтты	12669
байке	12670
курс	12671
кирсе	12672
өткөөл	12673
##иктерге	12674
алынарын	12675
сүйр	12676
өткөрүүдө	12677
динге	12678
урганын	12679
ойду	12680
талкууда	12681
аткарылган	12682
##ойд	12683
эсепте	12684
такс	12685
нурбаев	12686
куча	12687
этип	12688
##дигинде	12689
түштүгүндө	12690
чабуулун	12691
тургундарга	12692
сабат	12693
аттан	12694
бүлөдөгү	12695
адистерди	12696
демократияга	12697
чыгабыз	12698
альфа	12699
токтогазиев	12700
миңдейи	12701
түлүктүн	12702
кедей	12703
500дөн	12704
бизнеске	12705
килем	12706
рахман	12707
жакшыртууга	12708
өзүбүздү	12709
амир	12710
коммуналдык	12711
##ats	12712
комплекстүү	12713
ибрагим	12714
талантбек	12715
тоскоолдуксуз	12716
унутуп	12717
добуштарды	12718
кодекстин	12719
майнинг	12720
аннексияланган	12721
аскаровдун	12722
категор	12723
момбеков	12724
физикалык	12725
бахмут	12726
ашкана	12727
зулп	12728
ютуб	12729
вьетнам	12730
xx	12731
бе	12732
ве	12733
ло	12734
леген	12735
лугу	12736
птыр	12737
рды	12738
##чев	12739
##нер	12740
##гүнө	12741
##ви	12742
##юдо	12743
##nes	12744
##va	12745
##ури	12746
карал	12747
даав	12748
##тканы	12749
##овск	12750
маза	12751
тактады	12752
##ышууда	12753
барууда	12754
айтмакчы	12755
экенбиз	12756
кетейин	12757
тартылышы	12758
окуйт	12759
өнүгө	12760
төрөк	12761
бөлүк	12762
чыкпаган	12763
дарыны	12764
айылдарында	12765
айылдарда	12766
ева	12767
тараптарды	12768
ойгон	12769
орундарын	12770
актёр	12771
аялын	12772
колдонууну	12773
отура	12774
саясатынын	12775
кеңешин	12776
1500	12777
өкмөттө	12778
азиядан	12779
көбөйүүдө	12780
тургундарына	12781
максатына	12782
жолугушуунун	12783
системалуу	12784
тездик	12785
сулуу	12786
катышкандардын	12787
жоопкерчиликтүү	12788
учактары	12789
коркунучтар	12790
тапкандар	12791
каси	12792
кадамдар	12793
кумтөрдү	12794
көргөнүн	12795
лауре	12796
медаль	12797
жаңжалды	12798
пенсион	12799
мега	12800
көмүрдүн	12801
чемпионаты	12802
кызматташып	12803
дүйшөмб	12804
##app	12805
куту	12806
бээж	12807
жихад	12808
лөргө	12809
кадрларды	12810
мухаммад	12811
аэропортунун	12812
вариант	12813
жикчилдер	12814
стандарттар	12815
илимпоздор	12816
молдованын	12817
кайгылуу	12818
альтернативдүү	12819
мектебинин	12820
рекорддук	12821
дүрбөлөңгө	12822
шалаакылык	12823
кычкылт	12824
##дзор	12825
атагысы	12826
##оящее	12827
настоящее	12828
whats	12829
вин	12830
гам	12831
кедер	12832
сср	12833
тоого	12834
шиш	12835
##кун	12836
##рин	12837
##жу	12838
##rs	12839
##етов	12840
##илиши	12841
баалай	12842
жылдыруу	12843
кызыктыр	12844
учурады	12845
шаардан	12846
өтөрү	12847
түзүүдө	12848
ашынган	12849
кошулат	12850
аскерин	12851
кыйгап	12852
чаранын	12853
кези	12854
кайрылганын	12855
урап	12856
отурабыз	12857
аныктайт	12858
кесилди	12859
жаныш	12860
даярдыгы	12861
тармакты	12862
эсептел	12863
келишимдерге	12864
убара	12865
жазганына	12866
жарымынан	12867
кылмыштуулукка	12868
которулду	12869
базарга	12870
ачылышына	12871
трампка	12872
тагылып	12873
жиберилген	12874
зыяндын	12875
жетишилген	12876
сирияга	12877
акындар	12878
угуз	12879
каналында	12880
таянуу	12881
ууру	12882
жайларына	12883
топторду	12884
амангелдиев	12885
жапонияда	12886
издөөгө	12887
телеканалдар	12888
сыйлыгы	12889
министрликке	12890
тынчсызданып	12891
оорулардын	12892
америкалыктар	12893
банктардын	12894
форуму	12895
талаптарга	12896
килограммга	12897
ыйгарылган	12898
ассоциациясы	12899
түйшүк	12900
жээгиндеги	12901
айыбы	12902
интеллиген	12903
тамактануу	12904
очогу	12905
хезболла	12906
пропаганда	12907
мухтар	12908
изоляция	12909
падышалык	12910
шойгу	12911
орусиялыктардын	12912
кеттим	12913
cnn	12914
жит	12915
хандын	12916
чала	12917
##ыгынан	12918
##оев	12919
##по	12920
##te	12921
##ирт	12922
алтым	12923
дешкен	12924
бириг	12925
анчалык	12926
##ыйн	12927
кырт	12928
баратып	12929
кызга	12930
биле	12931
##итети	12932
##ушуна	12933
өтөө	12934
байланышка	12935
##утта	12936
чекке	12937
ишкерди	12938
чети	12939
толду	12940
##естен	12941
30дан	12942
жекшен	12943
штаттары	12944
жайгаштыруу	12945
##өктү	12946
175	12947
оюнда	12948
чабуулду	12949
кулматов	12950
прокуратурасынын	12951
соккон	12952
зарылчылыгы	12953
танк	12954
баштадым	12955
учактарды	12956
инфек	12957
жашыруу	12958
көчөсүндө	12959
токтоду	12960
инвестициялар	12961
кагылышта	12962
мейли	12963
колдогондор	12964
коркуткан	12965
арзанда	12966
валер	12967
камтама	12968
кетишет	12969
бүтүндүгүн	12970
##ard	12971
окуясында	12972
жетекчилерине	12973
институттун	12974
контейн	12975
жактырды	12976
баалуулуктарды	12977
сыноодон	12978
салгылашуу	12979
демонстрациялар	12980
рыскелди	12981
ыктымалдыгы	12982
дубандарында	12983
уял	12984
шаршенбеков	12985
зилзала	12986
токтоосуз	12987
омбудсмен	12988
суваналиев	12989
маалымдашынча	12990
whatsapp	12991
дз	12992
дөрдүн	12993
хат	12994
четте	12995
ыма	12996
##вира	12997
##ёв	12998
##so	12999
##ber	13000
##армон	13001
##ола	13002
элвира	13003
баркы	13004
азат	13005
саяк	13006
айтам	13007
билдирүүгө	13008
жоламан	13009
комбин	13010
күнкү	13011
##ешүү	13012
##ебр	13013
##анышкан	13014
баштоого	13015
жайн	13016
##дөрдү	13017
тартыларын	13018
##айынча	13019
дарынын	13020
сүйгөн	13021
өткөрүштү	13022
пайт	13023
пайду	13024
##үктөрү	13025
жардамын	13026
көрсөтүлдү	13027
##рид	13028
кеңешбек	13029
көлгө	13030
уланбек	13031
##едия	13032
чабал	13033
жоюп	13034
жүздөй	13035
штатында	13036
бызда	13037
топтоо	13038
күтүлөт	13039
ларына	13040
убуз	13041
полициясынын	13042
жарымын	13043
кумшек	13044
демократиянын	13045
быча	13046
ракеталарды	13047
улуусу	13048
миллиарддаган	13049
##гүлө	13050
акыб	13051
малай	13052
канаданын	13053
эсте	13054
улантууга	13055
келечегин	13056
көкүр	13057
матраимовго	13058
мектептерге	13059
селден	13060
пакистандык	13061
бүздү	13062
ашканын	13063
nex	13064
турмушун	13065
аэропортунда	13066
симпт	13067
протоколго	13068
чатактар	13069
рахмондун	13070
инфраструктура	13071
холл	13072
түрлөрүн	13073
аспап	13074
раззаков	13075
түйүндөрдө	13076
татарстан	13077
##едев	13078
авария	13079
шыкмаматов	13080
кайгуул	13081
брюсселде	13082
аталыштагы	13083
үркүт	13084
аук	13085
пов	13086
пуб	13087
учу	13088
##миг	13089
##жүр	13090
##гыста	13091
##амдуу	13092
##асам	13093
элдердин	13094
##ымын	13095
##ейб	13096
барлар	13097
кызам	13098
кыздарга	13099
билесиз	13100
калмак	13101
каникул	13102
жүрүшкө	13103
##аарын	13104
керб	13105
кетем	13106
иннов	13107
мураст	13108
өтпөгөн	13109
жайылышы	13110
көзүм	13111
жаңылыш	13112
боррел	13113
төрөгөн	13114
##ивдик	13115
конкур	13116
токтош	13117
кабарчылары	13118
##исинин	13119
жарыялай	13120
койгула	13121
сакталышы	13122
келишине	13123
шарап	13124
бекмур	13125
##ингв	13126
чектеп	13127
чектелип	13128
экспон	13129
январдын	13130
арызынын	13131
кендер	13132
облуста	13133
баткенге	13134
жээк	13135
этабы	13136
узатуу	13137
комиссияга	13138
албасын	13139
өндүрүм	13140
алтынай	13141
ларда	13142
жеткирилип	13143
системасында	13144
депутаттарды	13145
ажырап	13146
бүдөм	13147
ашыра	13148
автоунаанын	13149
өсөт	13150
сүйлөшүүлөрдө	13151
аянтка	13152
студия	13153
туруктуулук	13154
телеком	13155
аппараты	13156
түлөбаев	13157
кореяда	13158
3000	13159
көмөгү	13160
созулат	13161
триб	13162
филармон	13163
талапкерлерди	13164
окумуштуулары	13165
квота	13166
тимур	13167
күнөөсүз	13168
музыкант	13169
текебаевдин	13170
академиясы	13171
сыпаттап	13172
эжеси	13173
бирикмеси	13174
куттуктады	13175
бүтүрүп	13176
жолдошум	13177
төлөбөй	13178
катмар	13179
илинип	13180
өзгөчөлүгү	13181
жумурия	13182
объектилерди	13183
павел	13184
кеңешменин	13185
##лицист	13186
абдылдаев	13187
атазов	13188
абройлуу	13189
групп	13190
саймаитинин	13191
публицист	13192
бүдөмүк	13193
гин	13194
заттарды	13195
иор	13196
лев	13197
##хал	13198
##юта	13199
##sa	13200
жагында	13201
десең	13202
элүү	13203
антони	13204
ормон	13205
таажы	13206
##ектерди	13207
атууну	13208
катып	13209
айтыл	13210
көрүлгөн	13211
курса	13212
мамлекеттүүл	13213
камк	13214
эрмек	13215
##устардын	13216
бороон	13217
төртт	13218
бөлүшкөн	13219
мүмкүнбү	13220
чакырылып	13221
санкциялык	13222
алдынан	13223
кезге	13224
жакындарын	13225
##дүрүү	13226
актап	13227
кызматкердин	13228
өзгөрткөн	13229
аныктоого	13230
онго	13231
сапардын	13232
##аева	13233
августтун	13234
кудур	13235
пландалууда	13236
алтындын	13237
фонунда	13238
сүрөттөрү	13239
киргенде	13240
жашоосуна	13241
жерлерин	13242
бюджети	13243
кадамдарга	13244
малдын	13245
аппаратынын	13246
жетектейт	13247
олимпиа	13248
арзанд	13249
реформалоо	13250
орозайым	13251
италияда	13252
кишилерге	13253
нааразылыктар	13254
новоси	13255
баатыры	13256
маанайда	13257
муфтияттын	13258
чыгарыш	13259
курагында	13260
лондондогу	13261
принциптер	13262
команданын	13263
аткезчил	13264
кардарлар	13265
варианты	13266
мүмкүнчүлүктөрдү	13267
аксакалдар	13268
маматалиев	13269
жатышпайбы	13270
эркектердин	13271
чакырылышт	13272
каптады	13273
экстрадиция	13274
процедур	13275
amnes	13276
юнисеф	13277
реконструкциялоо	13278
жоолук	13279
удаа	13280
байкуш	13281
аукцион	13282
##гыстау	13283
антониу	13284
новосибир	13285
amnesty	13286
ma	13287
иң	13288
лүк	13289
ооп	13290
##олла	13291
##ела	13292
атлет	13293
маалыматтан	13294
##дос	13295
биздик	13296
кабары	13297
курст	13298
жетинчи	13299
жазм	13300
келгенбиз	13301
аймактары	13302
##уттук	13303
чараны	13304
бергенбиз	13305
адаттагы	13306
облусун	13307
партиялары	13308
аялга	13309
кызматкерине	13310
долбоорлору	13311
отурушат	13312
дүйнөсүнүн	13313
иммиг	13314
айыптоолор	13315
асфаль	13316
ырлар	13317
күчтөрүнө	13318
текшерүүнүн	13319
өндүрүп	13320
изилдеген	13321
мунаса	13322
таштагы	13323
жээнбековго	13324
жеңилип	13325
арасыз	13326
туруктуулукту	13327
көргөндө	13328
мугалими	13329
муса	13330
кореялык	13331
кайрылгандар	13332
жаңжалга	13333
дейбиз	13334
футболчу	13335
чыгымдарды	13336
майрамдык	13337
плак	13338
жубайлар	13339
450	13340
өлчөмү	13341
көмүлгөн	13342
жазуучунун	13343
дыкат	13344
новиков	13345
эмгектенип	13346
литр	13347
сыртында	13348
аткаминерлердин	13349
гезитинин	13350
колония	13351
милдеттенмелерин	13352
сталиндик	13353
ыплас	13354
телерадио	13355
next	13356
иордан	13357
новосибирск	13358
pfi	13359
ля	13360
нес	13361
сеп	13362
сиб	13363
таттуу	13364
эз	13365
юлия	13366
##еева	13367
##төк	13368
##обо	13369
##пил	13370
##стыгы	13371
##амил	13372
##өргө	13373
дача	13374
барам	13375
сааттын	13376
катна	13377
жүрчү	13378
кетебиз	13379
шаарлардын	13380
аяр	13381
өткөрүлөт	13382
түст	13383
чечимдерин	13384
акталган	13385
колдонот	13386
эмнеси	13387
катышпай	13388
курулат	13389
надира	13390
##гылардын	13391
тамаш	13392
аттест	13393
көпчүлүктүн	13394
биримдикке	13395
өзгөртүүнү	13396
каражатка	13397
чыгаш	13398
жөнөтүлөт	13399
жумагулов	13400
жолдоп	13401
экономикасынын	13402
ишенимин	13403
кадыресе	13404
каналдын	13405
түзгөнүн	13406
беришибиз	13407
материалдары	13408
материалдарын	13409
коргоону	13410
арабиясы	13411
ноябрдагы	13412
терроризмге	13413
сакчылар	13414
##all	13415
убакытты	13416
барышты	13417
формасы	13418
кутман	13419
гэсин	13420
рейтер	13421
кымбаттады	13422
ыкмалар	13423
айыпталуучулардын	13424
карманган	13425
өпкөнү	13426
чехия	13427
салтанаттуу	13428
падыша	13429
эфирде	13430
платформа	13431
павло	13432
чогултулган	13433
дарыкан	13434
инфратүзүм	13435
тепкич	13436
жуманазарова	13437
сулейман	13438
валерий	13439
дүү	13440
ет	13441
жыш	13442
кып	13443
нө	13444
пел	13445
стер	13446
тип	13447
##чүнүн	13448
##өшкөн	13449
##сейн	13450
##lo	13451
##алюта	13452
##олок	13453
баюу	13454
айдаган	13455
болсом	13456
##ттарын	13457
анна	13458
##аттам	13459
##мада	13460
баруучу	13461
катын	13462
кордук	13463
адамзат	13464
дегенден	13465
ини	13466
бийл	13467
камалышы	13468
кампа	13469
түрүнөн	13470
##керлер	13471
чечилген	13472
жашоонун	13473
калгандай	13474
уюмду	13475
чакырышкан	13476
коюуну	13477
кайрыла	13478
түшкө	13479
президенттердин	13480
чоңойгон	13481
отурукта	13482
аныктады	13483
лига	13484
даярдоого	13485
органдарында	13486
курулушка	13487
исаковдун	13488
облустагы	13489
өрүк	13490
көбөйө	13491
жараянын	13492
агенттиктер	13493
оңчул	13494
тизмесинен	13495
ажырым	13496
ажыраган	13497
каалайт	13498
кааласа	13499
ордунан	13500
өсүү	13501
##бөст	13502
далилдеп	13503
баракчасы	13504
ташиевге	13505
кызыкчылыктарын	13506
тартылганы	13507
буйру	13508
салыштырып	13509
чакырымдай	13510
залынан	13511
соолук	13512
соолукка	13513
соолугун	13514
жумшак	13515
мүнөзү	13516
##дуруп	13517
телеканалдын	13518
убакыттын	13519
кызматтарга	13520
кызматтардын	13521
толкунун	13522
экспорттук	13523
чөлкөмдө	13524
крымды	13525
1980	13526
ресурстарын	13527
еаэбге	13528
акцияларына	13529
провинциясынын	13530
силкин	13531
кейиштүү	13532
семир	13533
николай	13534
эсептейбиз	13535
үсөнбаев	13536
бөлүшүп	13537
котормочу	13538
туңгуч	13539
##товалюта	13540
ооздуктоо	13541
оппозиционер	13542
криптовалюта	13543
махабат	13544
telegram	13545
pfizer	13546
беч	13547
зыйн	13548
ног	13549
нот	13550
рост	13551
тып	13552
тей	13553
фиск	13554
шым	13555
##иди	13556
##мамат	13557
##дк	13558
##пе	13559
болтур	13560
кароол	13561
каралбай	13562
эко	13563
##каналар	13564
##рав	13565
кыргыздарга	13566
##истер	13567
соп	13568
билиши	13569
атууга	13570
боюнда	13571
курб	13572
##утация	13573
казы	13574
башта	13575
баштай	13576
ашса	13577
тартат	13578
макчы	13579
түшүрүү	13580
иштеринде	13581
эркеч	13582
түстүү	13583
айткандары	13584
бекен	13585
арачы	13586
бузулушу	13587
компанияны	13588
көлдөгү	13589
сынып	13590
бүлөнү	13591
бүтөт	13592
салуунун	13593
базасын	13594
чынара	13595
##штырууга	13596
кубатын	13597
көчмө	13598
овду	13599
шайлда	13600
режиссёр	13601
интернеттен	13602
кепке	13603
тармактардын	13604
тилкелерин	13605
медкыз	13606
##mat	13607
уурулук	13608
жабыркаганын	13609
жабыркагандардын	13610
буйрукка	13611
киргизилгенин	13612
активисттерди	13613
түпкү	13614
300дөн	13615
жолугушууларды	13616
оозун	13617
каржылоого	13618
алышканын	13619
профил	13620
анализи	13621
палатанын	13622
чолпонбаев	13623
төлөнүп	13624
карманып	13625
өлкөбүздүн	13626
авариялык	13627
бразилия	13628
троллейб	13629
православ	13630
таржым	13631
уюлдук	13632
резонанс	13633
павлодар	13634
медкызмат	13635
07	13636
вя	13637
жү	13638
зах	13639
замат	13640
ошко	13641
сон	13642
флор	13643
фамил	13644
##их	13645
алф	13646
алиги	13647
анар	13648
жатпай	13649
тахр	13650
эмделген	13651
азыктарын	13652
көрүшөт	13653
башкалары	13654
канын	13655
жерлери	13656
баласа	13657
ашир	13658
терин	13659
чыгарылганын	13660
дарактар	13661
марлен	13662
кабарлашкан	13663
борборлору	13664
каттала	13665
жарыялашкан	13666
гаага	13667
койсок	13668
кайрылат	13669
шартын	13670
албайсың	13671
өзгөрүшүнө	13672
аркалаган	13673
мамлекетибиз	13674
кемин	13675
30дай	13676
нац	13677
өрг	13678
арала	13679
пландоо	13680
##дыктарды	13681
##активдүү	13682
байкаган	13683
тель	13684
##дашуу	13685
өсүшүнө	13686
университеттер	13687
далили	13688
курулушун	13689
жетишүү	13690
жолдоду	13691
китепке	13692
айдоочулардын	13693
султанда	13694
конституцияда	13695
турмушта	13696
кабылганы	13697
сентябрдагы	13698
чөйрөгө	13699
матраимовдордун	13700
ээледи	13701
чыгымы	13702
сакал	13703
болмокчу	13704
салымын	13705
айымдар	13706
көбөйгөнү	13707
жазуучусу	13708
!",	13709
жыйынтыкталды	13710
аракеттенген	13711
көчүрмө	13712
дарыланууга	13713
##ьяна	13714
институттар	13715
албады	13716
миссиясы	13717
жоокерлердин	13718
босог	13719
аптанын	13720
фестивал	13721
абайдын	13722
арстанбек	13723
коргошун	13724
грамм	13725
2030	13726
тахрир	13727
баласагын	13728
гиги	13729
льв	13730
чалган	13731
шоль	13732
##лаш	13733
##утка	13734
##шав	13735
##rp	13736
##ыкка	13737
жаа	13738
айнек	13739
##икрон	13740
##ттор	13741
##уса	13742
баркын	13743
эмд	13744
аккр	13745
боол	13746
##ско	13747
саатта	13748
индеги	13749
экиге	13750
эрбол	13751
көзүнө	13752
##ашев	13753
конс	13754
байланыштарды	13755
чарада	13756
бата	13757
катты	13758
өткөрүлдү	13759
бергенде	13760
##естина	13761
аялуу	13762
дани	13763
аныкталса	13764
сынган	13765
жергиликтүүлөр	13766
өмүрзаков	13767
келишимден	13768
багытын	13769
сунуштары	13770
ишенет	13771
аракеттердин	13772
сыйын	13773
жазганы	13774
кылмыштарды	13775
туюн	13776
сунушуна	13777
айласы	13778
ачыла	13779
##ьямин	13780
бойл	13781
алыстыкт	13782
нигер	13783
ниеттен	13784
өчүп	13785
мигранттарынын	13786
баратканы	13787
курчоого	13788
##ифа	13789
буура	13790
кыргызстандыктарга	13791
кризисти	13792
чараларынын	13793
тагдырына	13794
жоокерлери	13795
жаңылоо	13796
долбоорлорун	13797
сыйлыгынын	13798
валент	13799
татьяна	13800
кудайга	13801
солгун	13802
тасмалар	13803
тасманын	13804
намыс	13805
омикрон	13806
кыскарган	13807
асановдун	13808
саламаттыгын	13809
каарманы	13810
жоюуга	13811
тыңш	13812
эстелик	13813
тыныгуу	13814
кыянат	13815
айырмалан	13816
авиакаттам	13817
строй	13818
леон	13819
кыйынчылыктарга	13820
роберт	13821
варшав	13822
дарбаз	13823
согушкерлери	13824
кызматташтыгын	13825
токтонас	13826
сөгүш	13827
пирамида	13828
da	13829
желе	13830
жүктү	13831
клан	13832
лөрү	13833
лингв	13834
мыл	13835
неге	13836
перс	13837
слав	13838
төп	13839
якут	13840
##гус	13841
##аф	13842
##тарын	13843
##далиев	13844
##ятор	13845
##фи	13846
##шкыр	13847
##акс	13848
бирж	13849
арипов	13850
карады	13851
##маш	13852
кызыкт	13853
жаралуу	13854
##бастан	13855
##умду	13856
маалымдап	13857
курууну	13858
кереб	13859
жазаны	13860
##дерде	13861
басылып	13862
жайдан	13863
түзөө	13864
чечүүнү	13865
келгенсип	13866
##иктерин	13867
ошолорду	13868
##ивил	13869
оорусуна	13870
##союз	13871
чыкканга	13872
берилб	13873
ууланып	13874
июндагы	13875
нурболот	13876
темасы	13877
акцияларды	13878
баргандар	13879
бейпил	13880
талкууланат	13881
изилден	13882
сүрөттөрүн	13883
байкалып	13884
пайдалана	13885
күжүр	13886
бүлөгө	13887
имаратка	13888
каалап	13889
ашырган	13890
дипломаты	13891
тоноо	13892
райондорунун	13893
уурдаган	13894
калкалоо	13895
үчүнчүсү	13896
жабыркагандарга	13897
жоокердин	13898
санаган	13899
болжолдон	13900
өрттөп	13901
кароодон	13902
палестина	13903
кетирүү	13904
аянтына	13905
таратылган	13906
англ	13907
бейшенбек	13908
чамалуу	13909
жетишсиздиги	13910
##элект	13911
карашын	13912
лондондо	13913
кафе	13914
акматбек	13915
ирактагы	13916
мүмкүнчүлүктөрүн	13917
өрттөнүп	13918
көргөзмөсү	13919
олтуруп	13920
бюрократ	13921
бекетинде	13922
шабдан	13923
анжиян	13924
меркел	13925
оолак	13926
бастырып	13927
сибир	13928
эркечтам	13929
аккредитация	13930
күжүрмөн	13931
ar	13932
hi	13933
вик	13934
дөрдү	13935
дель	13936
жин	13937
яр	13938
##чтуу	13939
##муш	13940
##адан	13941
##арман	13942
##алификация	13943
##стери	13944
аруу	13945
караса	13946
кели	13947
саз	13948
саам	13949
##ишвили	13950
кайгыр	13951
ишарат	13952
жүрдүм	13953
майында	13954
майдагы	13955
агам	13956
катталууда	13957
берилчү	13958
модел	13959
энесине	13960
келишинче	13961
өлкөлөрүнөн	13962
отурганын	13963
жүргүздү	13964
чектөөнү	13965
мекемеге	13966
сүйлөшүүдө	13967
115	13968
кечиктир	13969
аймактарынын	13970
күрөшөт	13971
базасында	13972
оюнчулар	13973
муң	13974
жеткирүүнү	13975
##надзор	13976
талаада	13977
таластагы	13978
бейтапкана	13979
өзгөртүлгөн	13980
жактап	13981
бийлигинен	13982
кумтөргө	13983
аянтта	13984
программалар	13985
мамилеге	13986
режимди	13987
байланышын	13988
кабылгандар	13989
мекемелеринин	13990
класска	13991
демекчи	13992
каржылаган	13993
тастыктап	13994
айтышып	13995
ыктыярчы	13996
консуль	13997
квот	13998
досум	13999
бакытбек	14000
температура	14001
толтуруу	14002
төлөнөт	14003
кеңсесинин	14004
бириктирип	14005
##ell	14006
ыйгарылды	14007
кодекси	14008
жобосун	14009
серепчи	14010
уктап	14011
бакчалар	14012
даражадагы	14013
мүмкүнчүлүктөрү	14014
жөлөкпул	14015
дармектер	14016
транзит	14017
символу	14018
чөнтөк	14019
бомбалоо	14020
эмгектери	14021
арттыруу	14022
##дүктөн	14023
афганистан	14024
индустр	14025
##чеслав	14026
багдад	14027
кычкылтек	14028
таржымалы	14029
вячеслав	14030
шольц	14031
вра	14032
жөт	14033
насир	14034
түг	14035
усул	14036
фаш	14037
шыктан	14038
##кусу	14039
##оттук	14040
##дүгүнө	14041
##вах	14042
##ok	14043
##ian	14044
##иканы	14045
##асс	14046
даңк	14047
##ымдуу	14048
келгиле	14049
туру	14050
барбайт	14051
калбады	14052
башчылыкка	14053
жазылды	14054
кетели	14055
жашоону	14056
тартууда	14057
терм	14058
караштырып	14059
апасынын	14060
марс	14061
жыйынды	14062
атканы	14063
өткөрбөй	14064
орунбеков	14065
бекболот	14066
аркасында	14067
##кожо	14068
крист	14069
органдарын	14070
арыздар	14071
оогандык	14072
келтирет	14073
адамдардан	14074
газага	14075
оюндарын	14076
соодагер	14077
күтүлгөн	14078
жагдайларга	14079
230	14080
жаратуу	14081
дөөлөт	14082
колдобой	14083
элчиликке	14084
өсүмдүк	14085
чыгаша	14086
кадамын	14087
тилкесинин	14088
кыйноолорго	14089
жарыялангандан	14090
макулдашуулар	14091
кырсыгына	14092
жүрүшүнө	14093
мерген	14094
тийгизди	14095
чыгымдар	14096
карандысыздыгын	14097
акимчил	14098
сыйлыктар	14099
ооруканаларга	14100
өнүгүүсүнө	14101
профсоюз	14102
тереңдет	14103
чыгармаларды	14104
сейит	14105
аракеттенип	14106
демократияны	14107
узартылды	14108
ахмад	14109
фактыларды	14110
трав	14111
координатору	14112
сабырдуу	14113
каршылыгын	14114
ойлорун	14115
донбасстагы	14116
чечмелеп	14117
командири	14118
astra	14119
иштечү	14120
симптом	14121
ногой	14122
an	14123
eu	14124
гум	14125
дерге	14126
йемен	14127
ланды	14128
наса	14129
сю	14130
цивил	14131
чот	14132
чылар	14133
шат	14134
шылды	14135
##иге	14136
##ниги	14137
##гир	14138
##мал	14139
##od	14140
##kt	14141
##атордук	14142
алгысы	14143
алтоо	14144
##илли	14145
басты	14146
жактын	14147
араз	14148
экөөнү	14149
##ышев	14150
##гис	14151
кайын	14152
##үкүр	14153
казат	14154
##босун	14155
көздөн	14156
жарыяланат	14157
саналууда	14158
казакстанды	14159
иль	14160
берилсе	14161
сакталат	14162
кезеги	14163
ортолук	14164
ылайыктуу	14165
киргизе	14166
журналистти	14167
медиага	14168
аткарыл	14169
суюл	14170
келишимдерди	14171
арыздарды	14172
электро	14173
газын	14174
бурду	14175
артем	14176
жумушчулардын	14177
көрсөткөнү	14178
##заада	14179
илдетин	14180
бетке	14181
гүлбара	14182
университетте	14183
агрессивдүү	14184
no5	14185
макулдашуунун	14186
медв	14187
ишканаларды	14188
кирешелерди	14189
кызматташтыктын	14190
тазалык	14191
мусулмандардын	14192
дүйшөмбүгө	14193
сүйлөдү	14194
кадрдык	14195
толтуруп	14196
прага	14197
маанайдагы	14198
студенттерге	14199
көтөрүлүшү	14200
жеңилдетүү	14201
пенсияга	14202
айыпталуучулар	14203
бийликтегил	14204
горба	14205
чагылдырылган	14206
жунус	14207
жаныбарлар	14208
комиссары	14209
көмөктөшүү	14210
рамзан	14211
тапшырмасын	14212
ресторандар	14213
сахаров	14214
чеченстандын	14215
мүрз	14216
оккупацияланган	14217
саакашвили	14218
алсыр	14219
толкундоолор	14220
жаттым	14221
сатыбалдиев	14222
ru	14223
бег	14224
кэр	14225
мес	14226
пы	14227
хоп	14228
чеб	14229
##лон	14230
##cc	14231
##арев	14232
##алтын	14233
##онт	14234
##уруп	14235
##илик	14236
##шкү	14237
##ттун	14238
элита	14239
сааттык	14240
иштешкен	14241
жазалан	14242
балб	14243
##уштар	14244
жаранынын	14245
##енттери	14246
коргол	14247
сому	14248
чоңдор	14249
сотторду	14250
өзгөрөт	14251
тынчы	14252
эңс	14253
кеңештердин	14254
комитетте	14255
курула	14256
көзөмөлдөн	14257
добушка	14258
оль	14259
эксперим	14260
ыраак	14261
кайтарууну	14262
үстөл	14263
муздаткыч	14264
кептер	14265
учагын	14266
коркунучуна	14267
өзгөртүлдү	14268
абдра	14269
эгемендиктин	14270
мыктыбек	14271
күчөтүүгө	14272
күчөтүүнү	14273
класстар	14274
камалгандардын	14275
сезимин	14276
солтон	14277
өлчөмдөгү	14278
туткунга	14279
адилеттик	14280
запасы	14281
карыя	14282
ыкмасын	14283
кесиптеши	14284
чыгарышы	14285
көбөйтүүгө	14286
кейип	14287
инсандар	14288
жобосу	14289
сириядан	14290
күчөгөнүн	14291
апталарда	14292
мүнөздөдү	14293
разаков	14294
академик	14295
төрагалы	14296
кесепеттери	14297
түндүгүндө	14298
кажети	14299
обсервацияга	14300
канааттандырарлык	14301
мүрт	14302
машиненин	14303
оокат	14304
исфана	14305
элмирбек	14306
аброюна	14307
алфав	14308
ap	14309
is	14310
un	14311
дөө	14312
зөөк	14313
лейл	14314
сүл	14315
фет	14316
##кас	14317
##касы	14318
##актуу	14319
##тук	14320
##ох	14321
##илери	14322
##уларын	14323
баасына	14324
##тте	14325
элдиктер	14326
##имбаев	14327
орке	14328
кыргызалтын	14329
##өлдү	14330
жарыл	14331
тотал	14332
жазгы	14333
салышат	14334
казууга	14335
жаккан	14336
##угунда	14337
аят	14338
окс	14339
ачары	14340
тапан	14341
жумгал	14342
компет	14343
чечимдери	14344
партияларга	14345
өзгөрүүлөрдү	14346
даярдыгын	14347
комитетке	14348
органдын	14349
125	14350
аймактарындагы	14351
видеок	14352
базары	14353
базардын	14354
өндүрүшкө	14355
сиздердин	14356
согуштагы	14357
келинч	14358
ажыратты	14359
жашоодо	14360
нааразылыкка	14361
баккан	14362
вирусуна	14363
сириялык	14364
мирбек	14365
изилдөөчүлөр	14366
үзө	14367
жайларын	14368
кайрылганы	14369
чемпионат	14370
500дөй	14371
кошту	14372
чыгымды	14373
никеге	14374
катыштыгы	14375
түшүрүлгөнүн	14376
##ine	14377
өңүт	14378
жыйынтыктар	14379
алакасы	14380
бекитүү	14381
сиңер	14382
компанияларынын	14383
комплексин	14384
мисалдар	14385
жатышканы	14386
уйку	14387
сактагычы	14388
эскертүүдө	14389
көрсөтмөсү	14390
кабулда	14391
киришине	14392
буюмдарды	14393
даттанган	14394
жыйнап	14395
асманга	14396
пункттар	14397
баламды	14398
ченемдик	14399
##ash	14400
сербиянын	14401
бөтөл	14402
адалдоо	14403
машинени	14404
ахмед	14405
соккуларынан	14406
бердымухамедов	14407
ташкентке	14408
дзюдо	14409
олимпиаданын	14410
зөөкүр	14411
le	14412
актан	14413
гип	14414
дис	14415
дорду	14416
жез	14417
иди	14418
күү	14419
рул	14420
цз	14421
чалуу	14422
##идж	14423
##лүгүн	14424
##уалдык	14425
##гүм	14426
##му	14427
##паса	14428
##атом	14429
##еринин	14430
##ктун	14431
мененки	14432
берери	14433
каган	14434
чыдам	14435
катында	14436
##ушубуз	14437
билдирүүнү	14438
колундагы	14439
##омо	14440
башар	14441
улак	14442
тургандыгы	14443
кирбеген	14444
эсинде	14445
эсине	14446
казакпаев	14447
кыйган	14448
өткөрүшкөн	14449
бергендер	14450
##үктөрүн	14451
айрымдарын	14452
айтканына	14453
алуусуна	14454
опурт	14455
табышкан	14456
оодар	14457
арызданган	14458
аймактарынан	14459
сактоочу	14460
ишене	14461
жүзгө	14462
абаддагы	14463
бурулуп	14464
артисттер	14465
агенттер	14466
дыгына	14467
ийген	14468
##емберди	14469
туй	14470
видеодон	14471
операциянын	14472
бакай	14473
башчысын	14474
жумага	14475
##бөз	14476
болоорун	14477
алыст	14478
аппараттар	14479
үчүнчүдөн	14480
соккудан	14481
ойной	14482
күмбөз	14483
##иттердин	14484
жумшап	14485
шаарларына	14486
табылганы	14487
сынактын	14488
умаров	14489
вашингтондо	14490
аңчылык	14491
психиатр	14492
жанданды	14493
квалификация	14494
түзүлүшү	14495
##датуу	14496
ыңгайсыз	14497
кесиптеш	14498
логист	14499
баарында	14500
добуштан	14501
жогорулап	14502
участог	14503
координация	14504
аэропортто	14505
расул	14506
жөндөмдүү	14507
пневмониядан	14508
артиллерия	14509
сапатсыз	14510
боршайкомдун	14511
туңгуюк	14512
рузах	14513
космостук	14514
проблем	14515
##структивдүү	14516
эффективдүү	14517
отставкага	14518
ассамблеясынын	14519
малайзия	14520
опурталдуу	14521
%,	14522
goo	14523
бугу	14524
гем	14525
дүгү	14526
их	14527
нейт	14528
рот	14529
файз	14530
четтен	14531
##люз	14532
##rg	14533
##алыктардын	14534
##стерди	14535
##акун	14536
карын	14537
##изав	14538
##ымы	14539
береби	14540
мав	14541
маеги	14542
##ипен	14543
барарын	14544
##емир	14545
##либ	14546
##башт	14547
иштесе	14548
мамбетов	14549
калиф	14550
жаткандыгы	14551
##отуп	14552
байра	14553
укпай	14554
жүрбөй	14555
балбак	14556
##чуларын	14557
саясаттагы	14558
күчөткөн	14559
##өлөрдү	14560
тартылганын	14561
окутууга	14562
кармалышын	14563
районунан	14564
чакырт	14565
жумгандардын	14566
##спорт	14567
акшдан	14568
сомдой	14569
адат	14570
чоч	14571
миллиону	14572
унда	14573
сынакка	14574
экспортко	14575
эсептелип	14576
30га	14577
тарыхчылар	14578
137	14579
штатынын	14580
июлунда	14581
тамаша	14582
израилде	14583
кыймылына	14584
финпол	14585
тезинен	14586
танып	14587
байкалды	14588
которууга	14589
бошотулуп	14590
тайв	14591
имаратында	14592
дарылоого	14593
операцияны	14594
мэрдин	14595
автоунаасы	14596
республикасында	14597
сүйлөшүүлөрү	14598
исламабад	14599
метрлик	14600
мугалимдин	14601
статусу	14602
мектептеги	14603
ноябрдын	14604
мүнөздүү	14605
санаа	14606
санаала	14607
долбоорлорго	14608
чектөөлөргө	14609
гектарга	14610
свобо	14611
батирде	14612
азайтууга	14613
аталышын	14614
кийлигишип	14615
окуясынын	14616
тейлеген	14617
иманкулов	14618
ноокен	14619
ңиздер	14620
жеткирилгенин	14621
елизав	14622
очог	14623
тебелен	14624
1916	14625
классикалык	14626
дарыкана	14627
ыңды	14628
казынасын	14629
арслан	14630
аргентина	14631
препар	14632
абдыкадыров	14633
##халилов	14634
калифор	14635
jo	14636
кип	14637
калык	14638
кис	14639
лерге	14640
нык	14641
рт	14642
укту	14643
шор	14644
##мп	14645
##шуу	14646
##одон	14647
##вт	14648
##гант	14649
алмат	14650
##гыча	14651
жактар	14652
##ткыч	14653
эмки	14654
аке	14655
тоонун	14656
калабы	14657
жолундагы	14658
жолтоо	14659
жаткандыгын	14660
башкалардын	14661
жетки	14662
туурасында	14663
баласына	14664
камала	14665
##дырууга	14666
чыгарганы	14667
жөнөтк	14668
##чилери	14669
бөлм	14670
##осуз	14671
калгандан	14672
токтолгон	14673
болдубу	14674
тажи	14675
жыйындар	14676
чарча	14677
баткан	14678
жумасына	14679
жарыялашты	14680
евдин	14681
бергендердин	14682
кеткендиктен	14683
##риса	14684
түшүнбөст	14685
кеңешип	14686
катарда	14687
элекмин	14688
сапарын	14689
парламентти	14690
сунушталууда	14691
бүтпөй	14692
маалыматтарына	14693
кув	14694
өрттү	14695
коркпой	14696
бурбай	14697
текшерүүнү	14698
##дыктардын	14699
сайып	14700
жазганын	14701
мекенге	14702
##кинс	14703
киргенин	14704
түшкөндө	14705
жээнбековду	14706
имараттарды	14707
оппозициясы	14708
260	14709
максаттары	14710
ыктаган	14711
жеңилдиктер	14712
эгемберди	14713
германиядагы	14714
жиберүү	14715
калтырбай	14716
далилдеген	14717
далилдерди	14718
төбөл	14719
бизнеси	14720
бутактар	14721
лашкан	14722
коргонуучу	14723
байланыша	14724
жеткени	14725
каттамдарын	14726
класст	14727
умра	14728
жакшыраак	14729
##enec	14730
формалдуу	14731
кылынды	14732
тартибинде	14733
кымбатчылык	14734
өлгөнү	14735
антпесе	14736
сейсм	14737
чолпонбек	14738
португ	14739
россияга	14740
мораторий	14741
капиталдык	14742
карышкыр	14743
бабалары	14744
техникасын	14745
кетишкенин	14746
жабдууларды	14747
тыңчылык	14748
укканда	14749
кубаттуулугу	14750
балбандар	14751
##албаганын	14752
наамы	14753
конференцияда	14754
уктум	14755
фестивалы	14756
темада	14757
көзөмөлдөйт	14758
чыңалууну	14759
караштагы	14760
элибиздин	14761
командалары	14762
мырзак	14763
заводунун	14764
смарт	14765
##akt	14766
биньямин	14767
белгилешүүдө	14768
белгилешинче	14769
думанын	14770
каримова	14771
красно	14772
латвия	14773
##eneca	14774
без	14775
жоз	14776
зур	14777
нде	14778
пыз	14779
сиг	14780
сымал	14781
түнө	14782
хок	14783
##ига	14784
##нел	14785
##ше	14786
##шеев	14787
##тат	14788
##вай	14789
##паганын	14790
##nik	14791
##la	14792
алсын	14793
##уль	14794
жады	14795
##изор	14796
элдар	14797
##ипул	14798
##евр	14799
соб	14800
азам	14801
азабын	14802
##башев	14803
башкыр	14804
куралган	14805
бассейн	14806
чыгуунун	14807
баштала	14808
түртүп	14809
##чулугу	14810
эртер	14811
алганбыз	14812
келгенине	14813
жалил	14814
коноктор	14815
стипен	14816
сүйлөй	14817
жабууга	14818
суусу	14819
журналистке	14820
саясатчыларды	14821
##инград	14822
имран	14823
абалдан	14824
өмүралиев	14825
##штуруу	14826
дала	14827
ырга	14828
математ	14829
уюштурду	14830
уюштурууну	14831
окуучусу	14832
жетекчилерин	14833
артист	14834
эскир	14835
текшере	14836
өндүрүштү	14837
максатка	14838
донор	14839
бөлүмүн	14840
кийинкиге	14841
алкагындагы	14842
пандемияда	14843
касп	14844
вирусун	14845
чыңдоого	14846
мира	14847
кырсыгында	14848
козголгону	14849
тегерек	14850
үзүр	14851
үзүлгөн	14852
аэродром	14853
түйүнү	14854
замандын	14855
аманбаев	14856
чакырымы	14857
ыбызды	14858
жумшалган	14859
террорчулар	14860
каржыланган	14861
сыйлыгын	14862
этно	14863
кызматтарын	14864
кутум	14865
станциялары	14866
жарыкка	14867
чөйрөсүндө	14868
400дөн	14869
америкада	14870
##назар	14871
картасын	14872
бозгун	14873
ноок	14874
курактагы	14875
мелдеште	14876
сотторго	14877
юнес	14878
жолукканда	14879
мекендештери	14880
баруудан	14881
сурамжылоолор	14882
күндөрдө	14883
жумуртка	14884
чыгышта	14885
мандатынан	14886
швециянын	14887
нуска	14888
авторлорунун	14889
келишпестик	14890
үнөмдөө	14891
курчуган	14892
артыкчылыктуу	14893
салгылашуулар	14894
каргашалуу	14895
ухань	14896
экипаж	14897
кедерги	14898
интеллигенция	14899
асфальт	14900
ростов	14901
львов	14902
елизавета	14903
эртерээк	14904
акта	14905
асын	14906
беген	14907
веб	14908
гав	14909
дели	14910
иер	14911
лам	14912
тегиз	14913
хиз	14914
##конун	14915
##рет	14916
##чын	14917
##гүч	14918
##бор	14919
##погон	14920
##ek	14921
##фер	14922
алгыл	14923
алданып	14924
##гыдай	14925
жактуу	14926
##икасына	14927
болчумун	14928
араларын	14929
карып	14930
##оков	14931
##станай	14932
экск	14933
орб	14934
жылдыгын	14935
##упова	14936
акрам	14937
кылалы	14938
кылсак	14939
##кая	14940
##итип	14941
катардын	14942
боюндагы	14943
мамай	14944
адамгер	14945
укмуш	14946
экенсиң	14947
жайып	14948
эрдик	14949
авдеев	14950
чечүүдө	14951
өлкөсүнө	14952
##ашууда	14953
сура	14954
байланыштар	14955
уюмдарынын	14956
чакырам	14957
##доруна	14958
сата	14959
жаштары	14960
соттолду	14961
бекеттери	14962
жүргүзүлүүдө	14963
москваны	14964
аткарылып	14965
көтөрүлөт	14966
чектөөгө	14967
мекемелерди	14968
##оолору	14969
уулуу	14970
банктык	14971
ырай	14972
эте	14973
оюндун	14974
аралыктагы	14975
топтору	14976
капы	14977
талкуулай	14978
ириде	14979
кылмыштары	14980
дума	14981
##ганыч	14982
себепкер	14983
акчасына	14984
каалабай	14985
камагында	14986
окуяларда	14987
окуяларына	14988
митингде	14989
базарлар	14990
сарп	14991
алыска	14992
жасаганын	14993
##штирүү	14994
үйлөргө	14995
бөлүндү	14996
таянган	14997
жугуп	14998
ишканаларга	14999
жүрүшүн	15000
өкүмдү	15001
карызга	15002
арабаев	15003
мунайды	15004
кайрылса	15005
рахат	15006
вашингтондогу	15007
акыйкатчынын	15008
тосм	15009
кароосуз	15010
##улушун	15011
суткага	15012
чечилиши	15013
өскөнүн	15014
күрөштөн	15015
камералар	15016
форумда	15017
басымдуулук	15018
келечектеги	15019
эвакуацияланган	15020
байырлаган	15021
жарылуудан	15022
түптөгөн	15023
окумуштуулардын	15024
фронт	15025
сүйлөштүк	15026
интервьюсунда	15027
вагон	15028
сыймыктан	15029
жоробеков	15030
политк	15031
болгария	15032
талкаланды	15033
балтика	15034
балтабай	15035
прогресс	15036
башчылыгына	15037
баарлашуу	15038
конфискация	15039
аспеков	15040
идлиб	15041
мурзахалилов	15042
полковник	15043
тиркеме	15044
шамшиев	15045
ветеринардык	15046
абхазия	15047
зулпук	15048
фискалдык	15049
бөтөлкө	15050
##aktus	15051
ho	15052
uz	15053
аттар	15054
йт	15055
патр	15056
##итти	15057
##еден	15058
##манын	15059
##фикация	15060
##алий	15061
алп	15062
дедик	15063
##ттүк	15064
даарат	15065
костанай	15066
##тканын	15067
##стантин	15068
орбан	15069
кыргыздарды	15070
тариз	15071
пред	15072
маалындагы	15073
башкала	15074
жазма	15075
салкын	15076
өтүш	15077
баштаса	15078
шайман	15079
жайынын	15080
##кестан	15081
жарышка	15082
област	15083
##есиңер	15084
ишкердин	15085
илья	15086
динам	15087
мод	15088
сактай	15089
сактоону	15090
октон	15091
орундары	15092
табылбай	15093
бузулганын	15094
аткарат	15095
полит	15096
аракетинен	15097
геор	15098
##диктеги	15099
видеосун	15100
технолог	15101
теңир	15102
кайтпай	15103
максатбек	15104
капаров	15105
талкуулан	15106
280	15107
талаага	15108
төмөндөгөн	15109
коркунучка	15110
базардагы	15111
чыгаан	15112
эпиз	15113
кыйноолор	15114
сегизи	15115
эгемендигин	15116
режимине	15117
эстен	15118
азербайжанга	15119
астындагы	15120
бекемдеп	15121
британияга	15122
тикелей	15123
театрдын	15124
билгенден	15125
аңдап	15126
кийимчен	15127
жигиттин	15128
##окто	15129
330	15130
манипул	15131
нефт	15132
процессин	15133
таратууга	15134
тажрыйбасын	15135
иштешип	15136
жуур	15137
англия	15138
ангела	15139
карамагында	15140
адилетт	15141
асанбек	15142
ынтымагы	15143
ыкмалары	15144
пункту	15145
божомолдор	15146
жолдубаева	15147
изилдөөнүн	15148
бириктирүү	15149
өкүлчүлүгүнүн	15150
тамырынан	15151
ардагерлер	15152
тыйындан	15153
тыныстан	15154
эмгегин	15155
ойдомун	15156
бейтаптарга	15157
рож	15158
хорог	15159
магат	15160
елена	15161
келбесе	15162
куттуктап	15163
тапшырмалар	15164
эбак	15165
кошуундар	15166
командалар	15167
инспекция	15168
майкл	15169
рухий	15170
норвегия	15171
агрардык	15172
илбирс	15173
пайгамб	15174
аткарышы	15175
пробация	15176
терапия	15177
почта	15178
татыган	15179
инфекциялык	15180
astraz	15181
шылдың	15182
свобода	15183
жаттык	15184
зер	15185
мыш	15186
муста	15187
нота	15188
сатты	15189
теш	15190
фат	15191
эткен	15192
өгөй	15193
##риз	15194
##чык	15195
##санов	15196
##ход	15197
##бий	15198
##ul	15199
##арлар	15200
бааланып	15201
даам	15202
көө	15203
экзам	15204
келгем	15205
жылдап	15206
##гөм	15207
жарган	15208
айтчу	15209
болгондугу	15210
калбашы	15211
көрүлөрүн	15212
учуу	15213
инс	15214
жакып	15215
камил	15216
караштыр	15217
майы	15218
бериңиз	15219
константин	15220
кабарды	15221
издей	15222
тилинен	15223
коюла	15224
көрсөтпөй	15225
билдиргенине	15226
айткандарына	15227
келишип	15228
табат	15229
аныктам	15230
түшүнүш	15231
кимден	15232
доклад	15233
денеси	15234
министрлигин	15235
тарыхты	15236
доору	15237
клет	15238
ортосуна	15239
бурулуш	15240
февралдын	15241
козгол	15242
пландаган	15243
жумушун	15244
эмгектер	15245
системалар	15246
китебин	15247
салгандар	15248
ыйл	15249
калаасында	15250
кызыкчылык	15251
армиясына	15252
каалайбыз	15253
катышуудан	15254
учакты	15255
эрежеси	15256
ишканага	15257
өсүүдө	15258
санкцияга	15259
өнүгүүгө	15260
зыянды	15261
курамасы	15262
баяндап	15263
наргиз	15264
султанов	15265
чыры	15266
кадыровдун	15267
токтойт	15268
унаалардын	15269
убадасын	15270
60тан	15271
замандаш	15272
киноте	15273
селдин	15274
созулуп	15275
юристи	15276
кылымдар	15277
жаңылан	15278
камалганын	15279
өрттүн	15280
барышат	15281
үркүн	15282
ташкын	15283
көйгөйлөрү	15284
бардым	15285
музейдин	15286
иштешине	15287
италиялык	15288
кезекке	15289
камерага	15290
тизмеден	15291
озод	15292
фарид	15293
делегациясы	15294
##якка	15295
өзгөрүүлөргө	15296
буюмдар	15297
көрүнүштөрдү	15298
автономия	15299
умтулган	15300
урматына	15301
архивдик	15302
тандалып	15303
ээнбаштык	15304
тергеп	15305
ыргытып	15306
тарапкерлер	15307
өпкөсү	15308
саммиттин	15309
компьютердик	15310
манастын	15311
алдыруучу	15312
баамында	15313
күйөрмандар	15314
агызып	15315
виталий	15316
отчёт	15317
гурбан	15318
зайырбек	15319
дарамети	15320
актөбө	15321
post	15322
филипп	15323
ыңкылаб	15324
##tech	15325
врач	15326
ольга	15327
нейтрал	15328
кинотеатр	15329
ву	15330
гай	15331
гит	15332
кн	15333
лукка	15334
ммк	15335
ректору	15336
сындагы	15337
##килер	15338
##уэ	15339
##пинист	15340
##алма	15341
##ерлик	15342
бабан	15343
туралы	15344
барчу	15345
барсам	15346
##екте	15347
атпай	15348
саатт	15349
катыштыр	15350
##умдук	15351
кайтуу	15352
башкаларды	15353
##доонун	15354
курьер	15355
учакка	15356
жазууга	15357
кетпейт	15358
салыгын	15359
салыктан	15360
абит	15361
парак	15362
жайылуу	15363
жоготту	15364
күчөйт	15365
жарыгын	15366
ачууну	15367
изин	15368
чакырылды	15369
батпай	15370
батышка	15371
көрсөтүшү	15372
актриса	15373
106	15374
берүүсүн	15375
катышарын	15376
мүчөл	15377
эркиндигинен	15378
ууланган	15379
географиялык	15380
ажым	15381
абаддын	15382
корккон	15383
мушкер	15384
тактай	15385
октябрдан	15386
жарымында	15387
күң	15388
герц	15389
беларустан	15390
илдетинин	15391
пайызды	15392
жерлердин	15393
мэринин	15394
касса	15395
агро	15396
программанын	15397
жасаганы	15398
бизнестин	15399
дүйшөбаев	15400
альпинист	15401
уурдалып	15402
матраимовдор	15403
залал	15404
тутуу	15405
союздук	15406
300дөй	15407
ажыратууну	15408
театры	15409
оозу	15410
сыйлыгына	15411
жигиттер	15412
фракциясы	15413
ойлойсуз	15414
салмакт	15415
сүйлөшкөнүн	15416
антис	15417
##utnik	15418
индекс	15419
чөйрөсүндөгү	15420
комплекси	15421
жараянына	15422
жерибиз	15423
отчетт	15424
маңз	15425
капитолий	15426
лицензиясы	15427
провинциясындагы	15428
мээси	15429
социалисттик	15430
абдыж	15431
төмөндөдү	15432
##гулы	15433
тигип	15434
жмклар	15435
босния	15436
редакциясынын	15437
сеул	15438
академиянын	15439
алдамчылыкка	15440
пригожиндин	15441
үйрөтүү	15442
милдеттендирген	15443
эмираттар	15444
фирмалар	15445
##old	15446
жүргүнчүлөрдү	15447
обсервацияда	15448
адамзаттын	15449
мээнет	15450
sputnik	15451
эргеш	15452
жанкечти	15453
машыктыруучусу	15454
төрттөн	15455
стипендия	15456
бабановдун	15457
bion	15458
gm	15459
kaktus	15460
диссер	15461
йенс	15462
касм	15463
мдын	15464
сүндө	15465
сейт	15466
чоп	15467
этүү	15468
##лак	15469
##чүмүн	15470
##мөтт	15471
##жаб	15472
##дал	15473
##датып	15474
##ький	15475
##ct	15476
##ылары	15477
алгор	15478
##стор	15479
боль	15480
менеж	15481
арыл	15482
араларды	15483
элтр	15484
элмира	15485
##укер	15486
##ипед	15487
жарата	15488
чыдабай	15489
көрүлөт	15490
дегеним	15491
жүрүүчү	15492
жазасыз	15493
иним	15494
казин	15495
казган	15496
абасы	15497
тургандардын	15498
шайланат	15499
үйүм	15500
алганына	15501
борт	15502
түшсө	15503
сурашты	15504
кармай	15505
кабарланып	15506
согд	15507
толо	15508
берилери	15509
партияларды	15510
шариф	15511
отурам	15512
кимсанов	15513
калдыктары	15514
даярдыктан	15515
аткарылышын	15516
төлөш	15517
аракетинде	15518
куралдан	15519
банктан	15520
спирт	15521
ырын	15522
кендин	15523
салуучу	15524
куюу	15525
чынчыл	15526
чынжыр	15527
бошотту	15528
кулагы	15529
израиль	15530
шектен	15531
сезе	15532
ажыратып	15533
адвокаттын	15534
дөңг	15535
ашырууда	15536
көрүнүшү	15537
муздак	15538
учакта	15539
автоунааны	15540
элчилигине	15541
гүлмира	15542
үлгүл	15543
##ости	15544
телефону	15545
баяндаган	15546
ишеними	15547
көлөмдөгү	15548
тегерандын	15549
курчут	15550
карызын	15551
мегак	15552
кайрылышты	15553
жолугушуудан	15554
шаарларынын	15555
болжолу	15556
филология	15557
фракциясынан	15558
тарбиялап	15559
процесстер	15560
көрүнүшкө	15561
айыпташкан	15562
муундун	15563
косов	15564
бакиевди	15565
демилгечи	15566
демилгечилер	15567
фарма	15568
радикалдуу	15569
жылдызы	15570
туризмди	15571
1938	15572
1930	15573
бөлмөдө	15574
гезитине	15575
жардыргыч	15576
вариантын	15577
кептелген	15578
редактор	15579
кыйрап	15580
тапшырмаларды	15581
структур	15582
титирөөдөн	15583
небереси	15584
сугар	15585
империя	15586
жороев	15587
vii	15588
диаспорасынын	15589
намысын	15590
делегат	15591
айкөл	15592
штаммы	15593
asso	15594
дискрим	15595
эмоция	15596
карамушк	15597
мизин	15598
цензура	15599
лауреаты	15600
валентина	15601
бийликтегилер	15602
хопкинс	15603
хоккей	15604
каспий	15605
алгылыктуу	15606
политклин	15607
зулпукаров	15608
гурбангулы	15609
абитури	15610
алгорит	15611
мегаком	15612
occ	15613
лг	15614
рин	15615
рон	15616
штир	15617
##мс	15618
##хол	15619
##фар	15620
##gle	15621
##улбай	15622
баалардын	15623
арабыз	15624
ков	15625
көш	15626
каякка	15627
атлан	15628
көрүшкөн	15629
курду	15630
жүрөкт	15631
казино	15632
жакынын	15633
басуу	15634
түркестан	15635
байланган	15636
ашпайт	15637
бөлөт	15638
чыкмак	15639
жоочулары	15640
абагынын	15641
батып	15642
илмия	15643
мурдагыдан	15644
шартка	15645
суудан	15646
берүүлөр	15647
даярда	15648
кемеси	15649
118	15650
асран	15651
теманы	15652
олку	15653
кенине	15654
куюл	15655
жетекчилигин	15656
тургундарын	15657
артур	15658
прод	15659
ойлору	15660
ойлош	15661
топтогу	15662
көчүрүү	15663
интерф	15664
жээнчоро	15665
100дөй	15666
шектүүнү	15667
маселелерде	15668
кыскарды	15669
бүтөр	15670
бетине	15671
бетме	15672
базарына	15673
базарбеков	15674
лидеринин	15675
комментарийинде	15676
баяндалат	15677
товарларын	15678
аныкталганы	15679
жамынып	15680
жайларынын	15681
өнөрпоз	15682
миграцияда	15683
чараларына	15684
ажыратылды	15685
долбоорлордун	15686
сыйлаган	15687
орнотууга	15688
айткым	15689
макаланын	15690
лагерде	15691
##ated	15692
америкага	15693
үлгүсү	15694
омур	15695
албаганда	15696
жыйынтыктары	15697
киришип	15698
чарбасы	15699
демократтардын	15700
даттануу	15701
шарттарда	15702
1970	15703
чехиянын	15704
эсенгул	15705
жаткырылды	15706
катмары	15707
тополоңдо	15708
аудитор	15709
ортомчулугу	15710
эфирге	15711
горький	15712
тандалма	15713
химия	15714
кошумчалагандай	15715
курмандыктарын	15716
днк	15717
лагерлерде	15718
бүтүрүүчүлөр	15719
еккунун	15720
жагымсыз	15721
менчиктештирүү	15722
наристе	15723
элдеринин	15724
альтернатив	15725
абактарында	15726
легитимдүү	15727
пайгамбар	15728
йоркто	15729
чордонунда	15730
мохаммад	15731
жаздымда	15732
шоу	15733
уюшулган	15734
трансформация	15735
кумшекер	15736
бекмурзаев	15737
токтонасыров	15738
түгөл	15739
цивилизация	15740
google	15741
biontech	15742
occrp	15743
жээнчороев	15744
09	15745
gro	15746
дэн	15747
каттар	15748
күлүп	15749
рэ	15750
тег	15751
фу	15752
шүгүр	15753
##нес	15754
##пөө	15755
##ip	15756
##ld	15757
##lin	15758
##унчу	15759
##иля	15760
##елүүдө	15761
##ико	15762
##ткич	15763
##ованын	15764
##истин	15765
эмдиги	15766
през	15767
азыктар	15768
ошурах	15769
тоют	15770
[...]
