{
  "version": "1.0",
  "truncation": null,
  "padding": null,
  "added_tokens": [
    {
      "id": 10000,
      "content": "[UNK]",
      "single_word": false,
      "lstrip": false,
      "rstrip": false,
      "normalized": false,
      "special": true
    }
  ],
  "normalizer": null,
  "pre_tokenizer": {
    "type": "Sequence",
    "pretokenizers": [
      {
        "type": "Split",
        "pattern": {
          "Regex": "\\p{N}{1,3}| ?[^\\s\\p{L}\\p{N}]{2,}[\\r\\n/]*| +(?!\\S)"
        },
        "behavior": "Isolated",
        "invert": false
      }
    ]
  },
  "post_processor": null,
  "decoder": null,
  "model": {
    "type": "BPE",
    "dropout": null,
    "unk_token": null,
    "continuing_subword_prefix": null,
    "end_of_word_suffix": null,
    "fuse_unk": false,
    "byte_fallback": false,
    "ignore_merges": false,
    "vocab": {
      "\n": 0,
      " ": 1,
      "!": 2,
      "\"": 3,
      "#": 4,
      "$": 5,
      "%": 6,
      "&": 7,
      "'": 8,
      "(": 9,
      ")": 10,
      "*": 11,
      "+": 12,
      ",": 13,
      "-": 14,
      ".": 15,
      "/": 16,
      "0": 17,
      "1": 18,
      "2": 19,
      "3": 20,
      "4": 21,
      "5": 22,
      "6": 23,
      "7": 24,
      "8": 25,
      "9": 26,
      ":": 27,
      ";": 28,
      "=": 29,
      "?": 30,
      "@": 31,
      "A": 32,
      "B": 33,
      "C": 34,
      "D": 35,
      "E": 36,
      "F": 37,
      "G": 38,
      "H": 39,
      "I": 40,
      "J": 41,
      "K": 42,
      "L": 43,
      "M": 44,
      "N": 45,
      "O": 46,
      "P": 47,
      "Q": 48,
      "R": 49,
      "S": 50,
      "T": 51,
      "U": 52,
      "V": 53,
      "W": 54,
      "X": 55,
      "Y": 56,
      "Z": 57,
      "[": 58,
      "\\": 59,
      "]": 60,
      "_": 61,
      "`": 62,
      "a": 63,
      "b": 64,
      "c": 65,
      "d": 66,
      "e": 67,
      "f": 68,
      "g": 69,
      "h": 70,
      "i": 71,
      "j": 72,
      "k": 73,
      "l": 74,
      "m": 75,
      "n": 76,
      "o": 77,
      "p": 78,
      "q": 79,
      "r": 80,
      "s": 81,
      "t": 82,
      "u": 83,
      "v": 84,
      "w": 85,
      "x": 86,
      "y": 87,
      "z": 88,
      "{": 89,
      "}": 90,
      "£": 91,
      "§": 92,
      "©": 93,
      "¬": 94,
      "­": 95,
      "°": 96,
      "²": 97,
      "³": 98,
      "·": 99,
      "¸": 100,
      "º": 101,
      "¼": 102,
      "Ç": 103,
      "Ñ": 104,
      "Ö": 105,
      "Ü": 106,
      "ß": 107,
      "á": 108,
      "â": 109,
      "ã": 110,
      "ä": 111,
      "ç": 112,
      "è": 113,
      "é": 114,
      "í": 115,
      "ï": 116,
      "ñ": 117,
      "ö": 118,
      "ü": 119,
      "ā": 120,
      "ą": 121,
      "ğ": 122,
      "İ": 123,
      "ı": 124,
      "Ŋ": 125,
      "Ş": 126,
      "ş": 127,
      "Š": 128,
      "ū": 129,
      "ƚ": 130,
      "Ɵ": 131,
      "Ƣ": 132,
      "ƣ": 133,
      "ə": 134,
      "ɵ": 135,
      "ʙ": 136,
      "ʼ": 137,
      "́": 138,
      "̆": 139,
      "Ё": 140,
      "Ђ": 141,
      "І": 142,
      "А": 143,
      "Б": 144,
      "В": 145,
      "Г": 146,
      "Д": 147,
      "Е": 148,
      "Ж": 149,
      "З": 150,
      "И": 151,
      "Й": 152,
      "К": 153,
      "Л": 154,
      "М": 155,
      "Н": 156,
      "О": 157,
      "П": 158,
      "Р": 159,
      "С": 160,
      "Т": 161,
      "У": 162,
      "Ф": 163,
      "Х": 164,
      "Ц": 165,
      "Ч": 166,
      "Ш": 167,
      "Щ": 168,
      "Ъ": 169,
      "Ы": 170,
      "Ь": 171,
      "Э": 172,
      "Ю": 173,
      "Я": 174,
      "а": 175,
      "б": 176,
      "в": 177,
      "г": 178,
      "д": 179,
      "е": 180,
      "ж": 181,
      "з": 182,
      "и": 183,
      "й": 184,
      "к": 185,
      "л": 186,
      "м": 187,
      "н": 188,
      "о": 189,
      "п": 190,
      "р": 191,
      "с": 192,
      "т": 193,
      "у": 194,
      "ф": 195,
      "х": 196,
      "ц": 197,
      "ч": 198,
      "ш": 199,
      "щ": 200,
      "ъ": 201,
      "ы": 202,
      "ь": 203,
      "э": 204,
      "ю": 205,
      "я": 206,
      "ё": 207,
      "ђ": 208,
      "і": 209,
      "ї": 210,
      "љ": 211,
      "ћ": 212,
      "ў": 213,
      "Ѳ": 214,
      "ѳ": 215,
      "ғ": 216,
      "Қ": 217,
      "қ": 218,
      "Ң": 219,
      "ң": 220,
      "Ү": 221,
      "ү": 222,
      "Ұ": 223,
      "ұ": 224,
      "ҳ": 225,
      "ҷ": 226,
      "һ": 227,
      "ӊ": 228,
      "ӏ": 229,
      "Ә": 230,
      "ә": 231,
      "Ө": 232,
      "ө": 233,
      "ӯ": 234,
      "ا": 235,
      "ح": 236,
      "خ": 237,
      "د": 238,
      "ر": 239,
      "ز": 240,
      "ص": 241,
      "ط": 242,
      "ظ": 243,
      "ع": 244,
      "غ": 245,
      "ق": 246,
      "ك": 247,
      "ل": 248,
      "م": 249,
      "ن": 250,
      "ه": 251,
      "و": 252,
      "ي": 253,
      "ُ": 254,
      "ِ": 255,
      "‎": 256,
      "‒": 257,
      "―": 258,
      "•": 259,
      "⁠": 260,
      "⁣": 261,
      "⁰": 262,
      "№": 263,
      "→": 264,
      "−": 265,
      "▪": 266,
      "●": 267,
      "⠀": 268,
      "回": 269,
      "堅": 270,
      "族": 271,
      "昆": 272,
      "鄄": 273,
      "韓": 274,
      "鬲": 275,
      "": 276,
      "️": 277,
      "н ": 278,
      "ар": 279,
      "а ": 280,
      "ан": 281,
      " к": 282,
      "ал": 283,
      ".\n": 284,
      "ат": 285,
      " б": 286,
      " ж": 287,
      "ер": 288,
      "ай": 289,
      "ын ": 290,
      "нд": 291,
      "ы ": 292,
      "уу": 293,
      "ан ": 294,
      "ен": 295,
      "кт": 296,
      "ол": 297,
      ", ": 298,
      "ыл": 299,
      "к ": 300,
      "аг": 301,
      "ир": 302,
      "ор": 303,
      "ин ": 304,
      " м": 305,
      " т": 306,
      "де": 307,
      "ин": 308,
      "ын": 309,
      "ам": 310,
      "ур": 311,
      "ст": 312,
      "ил": 313,
      "ия": 314,
      "ыр": 315,
      "ен ": 316,
      "ет": 317,
      "аш": 318,
      "анд": 319,
      "ул": 320,
      "ас": 321,
      "ыз": 322,
      "и ": 323,
      "ел": 324,
      "ак": 325,
      "иш": 326,
      "ып": 327,
      "ард": 328,
      "өр": 329,
      "а к": 330,
      "оо": 331,
      "ад": 332,
      "ек": 333,
      "үү": 334,
      "ынд": 335,
      "ап": 336,
      " э": 337,
      "аб": 338,
      "үн ": 339,
      "тт": 340,
      "ыш": 341,
      " с": 342,
      "ык": 343,
      "он": 344,
      "ун ": 345,
      "га ": 346,
      "өл": 347,
      "аз": 348,
      "е ": 349,
      "из": 350,
      "ун": 351,
      "ган": 352,
      "үр": 353,
      "ым": 354,
      " бол": 355,
      "өт": 356,
      "да ": 357,
      "енен ": 358,
      "үн": 359,
      "ди": 360,
      "гө": 361,
      "ык ": 362,
      "ий": 363,
      "ок": 364,
      "атт": 365,
      "ган ": 366,
      "өз": 367,
      "алд": 368,
      "ов": 369,
      " де": 370,
      "ик": 371,
      "им": 372,
      "ана ": 373,
      "уш": 374,
      "ы.\n": 375,
      "ыг": 376,
      "акт": 377,
      "ый": 378,
      "атк": 379,
      "ес": 380,
      "ей": 381,
      "ог": 382,
      "ы к": 383,
      "ук": 384,
      "айт": 385,
      "у ": 386,
      "кө": 387,
      "ом": 388,
      "үч": 389,
      "агы ": 390,
      "ус": 391,
      "ция": 392,
      " ч": 393,
      " менен ": 394,
      "үл": 395,
      "уп": 396,
      "ег": 397,
      "а б": 398,
      "от": 399,
      "ист": 400,
      "ырг": 401,
      "ою": 402,
      "ыргыз": 403,
      "дө": 404,
      " ал": 405,
      "ев": 406,
      "уу ": 407,
      "тер": 408,
      "Ал": 409,
      "го": 410,
      "анын ": 411,
      "ында ": 412,
      "ем": 413,
      "аал": 414,
      "ип": 415,
      " жана ": 416,
      "ли": 417,
      "айл": 418,
      "ынын ": 419,
      " бер": 420,
      "ез": 421,
      "ект": 422,
      "ардын ": 423,
      "үй": 424,
      "ат.\n": 425,
      "ек ": 426,
      "ду": 427,
      "ыкт": 428,
      " бир": 429,
      "ая": 430,
      "ашт": 431,
      "ген ": 432,
      "е к": 433,
      "ар ": 434,
      "арт": 435,
      "дин ": 436,
      "станд": 437,
      "үз": 438,
      "пр": 439,
      "ум": 440,
      "ылд": 441,
      "үнд": 442,
      "эл": 443,
      "инд": 444,
      "ой": 445,
      "нын ": 446,
      ", к": 447,
      "ча ": 448,
      "өн": 449,
      "үп": 450,
      "ашк": 451,
      "ит": 452,
      "ү ": 453,
      "унд": 454,
      "Кыргыз": 455,
      "ош": 456,
      "кен": 457,
      " эл": 458,
      "еп": 459,
      "ары ": 460,
      "үш": 461,
      "ары": 462,
      "ент": 463,
      "-ж": 464,
      " кел": 465,
      "уз": 466,
      "оюн": 467,
      "еш": 468,
      "дир": 469,
      "ган.\n": 470,
      "об": 471,
      " д": 472,
      "ут": 473,
      "ан к": 474,
      " деп": 475,
      "20": 476,
      "етт": 477,
      "а ж": 478,
      "ид": 479,
      "инин ": 480,
      " жат": 481,
      "ызм": 482,
      "онд": 483,
      "кер": 484,
      "аалым": 485,
      " боюн": 486,
      "илдир": 487,
      "арм": 488,
      " тур": 489,
      "и к": 490,
      "ав": 491,
      "он ": 492,
      "үм": 493,
      "а, ": 494,
      "лер": 495,
      "ач": 496,
      "ген": 497,
      "ра": 498,
      "оп": 499,
      "иг": 500,
      "ы ж": 501,
      "еч": 502,
      "ең": 503,
      "ышт": 504,
      "а т": 505,
      " бар": 506,
      "ис": 507,
      "үчүн ": 508,
      "уур": 509,
      " жатк": 510,
      "өк": 511,
      "ишт": 512,
      "лек": 513,
      "адам": 514,
      "кан": 515,
      "уч": 516,
      "со": 517,
      "инист": 518,
      "аж": 519,
      "ыс": 520,
      "оор": 521,
      "бир": 522,
      "енд": 523,
      "езид": 524,
      "ып, ": 525,
      "Ор": 526,
      "амлек": 527,
      "уул": 528,
      "эк": 529,
      "уб": 530,
      "\" ": 531,
      "гил": 532,
      "Бул": 533,
      "олд": 534,
      "айр": 535,
      "ганд": 536,
      "инистр": 537,
      "алуу": 538,
      "аң": 539,
      "ик ": 540,
      "менен ": 541,
      "укт": 542,
      "Бир": 543,
      ", б": 544,
      "усия": 545,
      "үндө": 546,
      "арл": 547,
      "ос": 548,
      " боюнча ": 549,
      "ди.\n": 550,
      "уг": 551,
      "ына ": 552,
      " ар": 553,
      "дар": 554,
      "алган ": 555,
      "ан б": 556,
      "үнө": 557,
      "ентт": 558,
      "а кар": 559,
      "ы б": 560,
      " кыл": 561,
      "ы т": 562,
      "Ош": 563,
      "эм": 564,
      "унун ": 565,
      "Аз": 566,
      "Орусия": 567,
      " ай": 568,
      "Кыргызстанд": 569,
      "ооп": 570,
      "презид": 571,
      "зам": 572,
      "ык к": 573,
      "ын к": 574,
      "гон": 575,
      "окт": 576,
      "ок ": 577,
      "өм": 578,
      "үг": 579,
      "деп": 580,
      "ишк": 581,
      "аар": 582,
      "и ж": 583,
      "еб": 584,
      "икт": 585,
      "да": 586,
      "дагы ": 587,
      "дун ": 588,
      " кал": 589,
      "айлан": 590,
      " -": 591,
      "аев": 592,
      "алык ": 593,
      " \"": 594,
      "ыйзам": 595,
      "бек ": 596,
      "бай": 597,
      "ич": 598,
      "өп": 599,
      "ук ": 600,
      " эм": 601,
      "өлкө": 602,
      " кар": 603,
      "ди ": 604,
      " болуп": 605,
      " кат": 606,
      "\",": 607,
      ", ж": 608,
      "е ж": 609,
      "дер": 610,
      "ын б": 611,
      "ейин ": 612,
      "ияс": 613,
      "маалым": 614,
      "чыг": 615,
      "алып": 616,
      " туур": 617,
      "чул": 618,
      "иң": 619,
      "тур": 620,
      "өө": 621,
      "сат": 622,
      "айд": 623,
      "ууга ": 624,
      "иял": 625,
      "-жыл": 626,
      "дү": 627,
      "гөн ": 628,
      "лиг": 629,
      "төр": 630,
      "аны ": 631,
      "амлекетт": 632,
      "арды ": 633,
      "ийин ": 634,
      "ген.\n": 635,
      "апт": 636,
      "учур": 637,
      "ую": 638,
      "бр": 639,
      "акыр": 640,
      "ка ": 641,
      "үү ": 642,
      "циял": 643,
      "уст": 644,
      "орк": 645,
      "гон ": 646,
      "арга ": 647,
      "инч": 648,
      "оң": 649,
      "елгил": 650,
      " кет": 651,
      "бек": 652,
      "чейин ": 653,
      "өй": 654,
      "ет.\n": 655,
      "ынан ": 656,
      "ай ": 657,
      " жар": 658,
      "ыт": 659,
      "ял": 660,
      "ээ": 661,
      " жүр": 662,
      "ябр": 663,
      "ат ": 664,
      "аган ": 665,
      "чу": 666,
      " кызм": 667,
      " бул": 668,
      "өш": 669,
      "ады.\n": 670,
      "иев": 671,
      "ушт": 672,
      "президент": 673,
      "орт": 674,
      "абыл": 675,
      "иштер": 676,
      "жана ": 677,
      "айлоо": 678,
      "өлөр": 679,
      " деген ": 680,
      " кер": 681,
      "..": 682,
      "кы ": 683,
      "даг": 684,
      "оз": 685,
      "гөн": 686,
      "га к": 687,
      "бол": 688,
      "-м": 689,
      "асм": 690,
      "мө": 691,
      " ш": 692,
      "чыл": 693,
      " п": 694,
      "ин б": 695,
      "ден ": 696,
      "көр": 697,
      "айм": 698,
      "елер": 699,
      "Бишк": 700,
      "сыз": 701,
      "бор": 702,
      " экен": 703,
      " министр": 704,
      "егиз": 705,
      " К": 706,
      "ду.\n": 707,
      ", м": 708,
      "ерлер": 709,
      "утт": 710,
      "Ук": 711,
      "ан.\n": 712,
      " ком": 713,
      "асел": 714,
      "асы ": 715,
      "үнүн ": 716,
      " жатат.\n": 717,
      "арын ": 718,
      " н": 719,
      "кан.\n": 720,
      "эмес": 721,
      " миң": 722,
      "ов ": 723,
      "оом": 724,
      "ек.\n": 725,
      "еңеш": 726,
      "чил": 727,
      "е т": 728,
      "кан ": 729,
      "үүгө": 730,
      "обл": 731,
      " көр": 732,
      "уун": 733,
      "ы, ": 734,
      " Ж": 735,
      "инде ": 736,
      "ы\n": 737,
      "ив": 738,
      "аан": 739,
      " чыг": 740,
      "Укра": 741,
      "үт": 742,
      "ак ": 743,
      "тал": 744,
      "иция": 745,
      "а с": 746,
      "ин к": 747,
      "аганд": 748,
      "үк ": 749,
      "ре": 750,
      "?\n": 751,
      "ки ": 752,
      "ге ": 753,
      "и т": 754,
      "да.\n": 755,
      "ант": 756,
      "иб": 757,
      "иянын ": 758,
      "19": 759,
      "дан ": 760,
      "алды.\n": 761,
      "алуу ": 762,
      "суз": 763,
      "сп": 764,
      "Украин": 765,
      "-жылд": 766,
      "е б": 767,
      "акет": 768,
      "и б": 769,
      "Аб": 770,
      "үмк": 771,
      "етк": 772,
      "и.\n": 773,
      "о ": 774,
      "өткө": 775,
      "а бол": 776,
      "ылуу": 777,
      "-жылы ": 778,
      "уга ": 779,
      "айланышт": 780,
      " болгон": 781,
      "202": 782,
      "ейт": 783,
      "инен ": 784,
      "алар": 785,
      "дөр": 786,
      "баев": 787,
      "стан": 788,
      " маалым": 789,
      "шайлоо": 790,
      "аскер": 791,
      "стан ": 792,
      "илдирди.\n": 793,
      "эс": 794,
      "рай": 795,
      "\" деп": 796,
      " С": 797,
      "ын ж": 798,
      ", бир": 799,
      "огорк": 800,
      "Ан": 801,
      "ындагы ": 802,
      "ук к": 803,
      "эр": 804,
      "ү к": 805,
      "генд": 806,
      "ери ": 807,
      " жер": 808,
      "201": 809,
      "а м": 810,
      "оку": 811,
      " сал": 812,
      "ек ар": 813,
      "10": 814,
      "да к": 815,
      "дем": 816,
      "азак": 817,
      "үк": 818,
      " жаз": 819,
      "ыйын": 820,
      "ылм": 821,
      "андай": 822,
      " мил": 823,
      "Ак": 824,
      " иш": 825,
      "өс": 826,
      "үйл": 827,
      "Биз": 828,
      "азыр": 829,
      "орбор": 830,
      "Ай": 831,
      "быз": 832,
      "үйн": 833,
      "лик": 834,
      "ар к": 835,
      ", т": 836,
      "ун б": 837,
      " жол": 838,
      "атыш": 839,
      "дук ": 840,
      "уюм": 841,
      " менен к": 842,
      "апар": 843,
      "Ат": 844,
      " адам": 845,
      "чүл": 846,
      "у к": 847,
      "сөт": 848,
      "гиз": 849,
      "ыя": 850,
      "арыял": 851,
      "оопсуз": 852,
      "дүн ": 853,
      "маалымат": 854,
      "үкт": 855,
      "орг": 856,
      "-б": 857,
      "Анд": 858,
      "ага ": 859,
      "ына к": 860,
      "олб": 861,
      ", ал": 862,
      " жыл": 863,
      "бул": 864,
      "алк": 865,
      "Өз": 866,
      "үүдө": 867,
      "ран": 868,
      "үүл": 869,
      "АК": 870,
      "чыс": 871,
      "арк": 872,
      "оого": 873,
      " ат": 874,
      "Бирок ": 875,
      "унда ": 876,
      " эле ": 877,
      "ок.\n": 878,
      "и м": 879,
      "негиз": 880,
      "АКШ": 881,
      "ың": 882,
      "Ул": 883,
      "ко": 884,
      "ация": 885,
      "пан": 886,
      "арынын ": 887,
      " Б": 888,
      " Т": 889,
      "жет": 890,
      "сая": 891,
      "өткөр": 892,
      "нүн ": 893,
      "ан кийин ": 894,
      "мөт": 895,
      "ын т": 896,
      " баш": 897,
      "айып": 898,
      "өкүл": 899,
      " тар": 900,
      "ыкк": 901,
      " үчүн ": 902,
      "орон": 903,
      "жар": 904,
      "айтып": 905,
      " эк": 906,
      "ы м": 907,
      "ци": 908,
      "ийли": 909,
      "иде": 910,
      " М": 911,
      "ерг": 912,
      "уу к": 913,
      " эс": 914,
      "өб": 915,
      " тууралуу": 916,
      "сал": 917,
      "абыз": 918,
      "ест": 919,
      "дук": 920,
      "олбоор": 921,
      "мур": 922,
      " жаткан ": 923,
      "чө": 924,
      "дик": 925,
      "экен": 926,
      "епт": 927,
      "ада ": 928,
      "ылган ": 929,
      "облус": 930,
      " киш": 931,
      "овдун ": 932,
      "кар": 933,
      "өлк": 934,
      "Орусиянын ": 935,
      "чеч": 936,
      "акч": 937,
      " мыйзам": 938,
      "рд": 939,
      "аган.\n": 940,
      "амлекет": 941,
      "а-": 942,
      "агы": 943,
      "алп": 944,
      " башт": 945,
      "үрк": 946,
      " жатканын ": 947,
      "нал": 948,
      " министрлиг": 949,
      "ию": 950,
      "оргоо": 951,
      "Ар": 952,
      "дай": 953,
      " өз": 954,
      "оном": 955,
      "Анын ": 956,
      "ерс": 957,
      "авир": 958,
      "огорку ": 959,
      "алап": 960,
      "сан": 961,
      "адыр": 962,
      "арлам": 963,
      " болгон ": 964,
      "оронавир": 965,
      "шы ": 966,
      "илим": 967,
      "сот": 968,
      " башк": 969,
      "аст": 970,
      " боюнч": 971,
      "ябрда ": 972,
      "ардам": 973,
      "ан т": 974,
      "ине ": 975,
      " болот": 976,
      "дик ": 977,
      "ошол": 978,
      "агы к": 979,
      "ман": 980,
      "ардык ": 981,
      ":\n": 982,
      "артт": 983,
      "абарл": 984,
      "Ев": 985,
      "ылай": 986,
      "алган.\n": 987,
      "Казак": 988,
      " милли": 989,
      "баш": 990,
      "ин ж": 991,
      "ууда.\n": 992,
      "дын ": 993,
      "амлекеттик ": 994,
      "Бишкект": 995,
      "Ошонд": 996,
      "рам": 997,
      " тууралуу ": 998,
      "өкмөт": 999,
      "тыр": 1000,
      " кир": 1001,
      " масел": 1002,
      "ана к": 1003,
      " жылд": 1004,
      "орд": 1005,
      "башк": 1006,
      " бөл": 1007,
      "ганын ": 1008,
      "Евр": 1009,
      " кур": 1010,
      "ип, ": 1011,
      "абыл ал": 1012,
      "урнал": 1013,
      "дөн ": 1014,
      "ында к": 1015,
      "олл": 1016,
      "чек ар": 1017,
      "мыйзам": 1018,
      "оол": 1019,
      "уна ": 1020,
      "арыл": 1021,
      "өт.\n": 1022,
      "Азатт": 1023,
      "сий": 1024,
      "үмкүн": 1025,
      "алык": 1026,
      "өтт": 1027,
      "е, ": 1028,
      "авт": 1029,
      "асынын ": 1030,
      "Пр": 1031,
      "аты ": 1032,
      "ине к": 1033,
      " бар.\n": 1034,
      "сакт": 1035,
      "абал": 1036,
      "деген ": 1037,
      "ономик": 1038,
      "ян": 1039,
      "мил": 1040,
      " айт": 1041,
      "инг": 1042,
      "еди": 1043,
      "ах": 1044,
      "асмий": 1045,
      "чү": 1046,
      " түз": 1047,
      "де ": 1048,
      "га кар": 1049,
      "-т": 1050,
      "урналист": 1051,
      "алдык ": 1052,
      "өлкөлөр": 1053,
      "ынч": 1054,
      "30": 1055,
      "гөр": 1056,
      "арды к": 1057,
      "Кыргызстандын ": 1058,
      "ындай": 1059,
      "айтт": 1060,
      "улам": 1061,
      "дек": 1062,
      "депут": 1063,
      "олдон": 1064,
      "олог": 1065,
      "Кеңеш": 1066,
      "гү": 1067,
      "е.\n": 1068,
      "президентт": 1069,
      "отур": 1070,
      "кен ": 1071,
      "арда ": 1072,
      "айда ": 1073,
      " сом": 1074,
      "уд": 1075,
      "үүлөр": 1076,
      "иялык ": 1077,
      "гүз": 1078,
      "жол": 1079,
      "е с": 1080,
      "аныкт": 1081,
      " да ": 1082,
      "уус": 1083,
      "а.\n": 1084,
      "ап, ": 1085,
      "армал": 1086,
      "-ию": 1087,
      "айт.\n": 1088,
      "үшт": 1089,
      " кою": 1090,
      "уга чейин ": 1091,
      "ск": 1092,
      "өнүндө": 1093,
      "ушул": 1094,
      " тарт": 1095,
      "Эл": 1096,
      "еги ": 1097,
      "аял": 1098,
      "үп, ": 1099,
      "шаар": 1100,
      "асында ": 1101,
      "ин т": 1102,
      "парт": 1103,
      "и-": 1104,
      " берил": 1105,
      "ун к": 1106,
      "а ал": 1107,
      "исс": 1108,
      "гөн.\n": 1109,
      " кой": 1110,
      "ып ал": 1111,
      "\" деген ": 1112,
      "екем": 1113,
      "чысы ": 1114,
      "е м": 1115,
      " жак": 1116,
      "тир": 1117,
      "өн ": 1118,
      "итет": 1119,
      " керек.\n": 1120,
      "Кар": 1121,
      "ке ": 1122,
      " эмес": 1123,
      "амлекеттик": 1124,
      "огорку Кеңеш": 1125,
      "и менен ": 1126,
      "ийлиг": 1127,
      "од": 1128,
      " - де": 1129,
      "...": 1130,
      " турган ": 1131,
      "уу ж": 1132,
      "канд": 1133,
      "ө ": 1134,
      "15": 1135,
      "у т": 1136,
      "алык к": 1137,
      "аймакт": 1138,
      "ылган.\n": 1139,
      "бар": 1140,
      "тин ": 1141,
      "үүн": 1142,
      "айрым": 1143,
      "изм": 1144,
      "ге к": 1145,
      "үйлөш": 1146,
      "-к": 1147,
      "ылып": 1148,
      "оск": 1149,
      "аттар": 1150,
      "аракет": 1151,
      "Улутт": 1152,
      " эми ": 1153,
      "кен.\n": 1154,
      " жет": 1155,
      "Кыт": 1156,
      " болду.\n": 1157,
      "чу ": 1158,
      "цияс": 1159,
      "ажик": 1160,
      "и, ": 1161,
      "ердин ": 1162,
      " (": 1163,
      "ышат.\n": 1164,
      " болсо": 1165,
      "өтөр": 1166,
      "учурда ": 1167,
      "уп, ": 1168,
      "алиев": 1169,
      "у с": 1170,
      "гиликт": 1171,
      "өнд": 1172,
      "ын, ": 1173,
      "ү.\n": 1174,
      "орус": 1175,
      "оронавирус": 1176,
      "түр": 1177,
      "ырд": 1178,
      "Азыр": 1179,
      " аралык ": 1180,
      "аас": 1181,
      "огуш": 1182,
      "чыгар": 1183,
      "ырт": 1184,
      "агында ": 1185,
      "ы бир": 1186,
      "еген ": 1187,
      " чеч": 1188,
      "мат": 1189,
      "ышк": 1190,
      "эмес.\n": 1191,
      "ылайык": 1192,
      "айыл": 1193,
      "дел": 1194,
      "стандын ": 1195,
      "оскв": 1196,
      "ылды.\n": 1197,
      "ышты.\n": 1198,
      "районд": 1199,
      "иясынын ": 1200,
      "кү": 1201,
      "алг": 1202,
      "аңы ": 1203,
      "ы менен ": 1204,
      " Жапар": 1205,
      "цин": 1206,
      " мл": 1207,
      "өткөн ": 1208,
      "ер ": 1209,
      "окум": 1210,
      "пл": 1211,
      "- ": 1212,
      "расмий": 1213,
      "Жогорку Кеңеш": 1214,
      "чакыр": 1215,
      " жашт": 1216,
      "ылмыш": 1217,
      "өзгөр": 1218,
      "лор": 1219,
      "арал": 1220,
      "гонд": 1221,
      " билдир": 1222,
      "ашуу": 1223,
      "\"Азатт": 1224,
      "соң": 1225,
      "Түрк": 1226,
      "бей": 1227,
      " неч": 1228,
      " топ": 1229,
      "ыйыл": 1230,
      "аткерлер": 1231,
      " болгон.\n": 1232,
      "ч к": 1233,
      " түш": 1234,
      "у менен ": 1235,
      "ызматт": 1236,
      "дон ": 1237,
      " жаш": 1238,
      "үүс": 1239,
      "ех": 1240,
      "ия ": 1241,
      "т.\n": 1242,
      "рел": 1243,
      "жер": 1244,
      "мак": 1245,
      "Өзбек": 1246,
      "парлам": 1247,
      "тар": 1248,
      "ары к": 1249,
      "президенти ": 1250,
      "КМ": 1251,
      "дүйн": 1252,
      " биз": 1253,
      "а бер": 1254,
      "Эк": 1255,
      "\"К": 1256,
      "инчи ": 1257,
      "ша": 1258,
      "сун": 1259,
      "эн": 1260,
      " өлкө": 1261,
      "окур": 1262,
      " жас": 1263,
      "иштеп": 1264,
      "сур": 1265,
      "алан": 1266,
      "дег": 1267,
      " мак": 1268,
      "00": 1269,
      "ан бери ": 1270,
      " болб": 1271,
      "Эм": 1272,
      "икир": 1273,
      "а бир": 1274,
      "ына кар": 1275,
      " жакт": 1276,
      "айг": 1277,
      "ганын б": 1278,
      ", бул": 1279,
      "беков": 1280,
      "окуя": 1281,
      "ийликт": 1282,
      "урул": 1283,
      "үрөш": 1284,
      "сөз": 1285,
      "ып кел": 1286,
      "апрел": 1287,
      "стит": 1288,
      "айын ": 1289,
      "рес": 1290,
      "адыр Жапар": 1291,
      " кызмат": 1292,
      "дү.\n": 1293,
      "дардын ": 1294,
      "но": 1295,
      "ыйынт": 1296,
      "өч": 1297,
      "до": 1298,
      "дей": 1299,
      "иликт": 1300,
      "алардын ": 1301,
      "ишим": 1302,
      " болот.\n": 1303,
      "ына ж": 1304,
      "ып кет": 1305,
      "өмөл": 1306,
      "жок.\n": 1307,
      "өң": 1308,
      " көрсөт": 1309,
      "\" к": 1310,
      "өзөмөл": 1311,
      "Москв": 1312,
      "чык": 1313,
      "уюш": 1314,
      "фор": 1315,
      "Кыргызстан": 1316,
      "үүдө.\n": 1317,
      "дүү": 1318,
      "-с": 1319,
      "-окт": 1320,
      "укукт": 1321,
      "үб": 1322,
      "Ошол": 1323,
      "өнөт": 1324,
      "мер": 1325,
      "айк": 1326,
      "кийин ": 1327,
      "ачыл": 1328,
      "рк": 1329,
      "чет": 1330,
      "ациял": 1331,
      "ушу": 1332,
      "анал": 1333,
      "11": 1334,
      "ундагы ": 1335,
      "аткар": 1336,
      "дөө": 1337,
      "-жылдын ": 1338,
      "Мен ": 1339,
      "аян": 1340,
      "пи": 1341,
      "үн к": 1342,
      "аттык ": 1343,
      "адагы ": 1344,
      " жум": 1345,
      " долбоор": 1346,
      "керлер": 1347,
      "Кыргызстан ": 1348,
      "чис": 1349,
      "чу.\n": 1350,
      "ында, ": 1351,
      "аат": 1352,
      "эки ": 1353,
      "ал ": 1354,
      "октот": 1355,
      "гана ": 1356,
      "тарт": 1357,
      "енин ": 1358,
      "абыз.\n": 1359,
      "район": 1360,
      "алын": 1361,
      "ед": 1362,
      "Ал ": 1363,
      "ошум": 1364,
      "да ж": 1365,
      "көн ": 1366,
      "эле ": 1367,
      "рад": 1368,
      "нун ": 1369,
      "оо ": 1370,
      "Презид": 1371,
      "у ж": 1372,
      "түш": 1373,
      "уучул": 1374,
      "евр": 1375,
      "екш": 1376,
      "200": 1377,
      "ейт.\n": 1378,
      " жаткан": 1379,
      "Бирок": 1380,
      "а сөз": 1381,
      "абр": 1382,
      "рат": 1383,
      " жатат": 1384,
      "огул": 1385,
      "Европ": 1386,
      "-ч": 1387,
      "гер": 1388,
      "өкт": 1389,
      "гөчө": 1390,
      "пуб": 1391,
      "пай": 1392,
      " мур": 1393,
      "густ": 1394,
      "руп": 1395,
      " сур": 1396,
      "сиз": 1397,
      "мөтт": 1398,
      "амил": 1399,
      "пикир": 1400,
      "айыпт": 1401,
      "12": 1402,
      " берүү": 1403,
      "Уш": 1404,
      "бас": 1405,
      "биз": 1406,
      "ке к": 1407,
      "уу т": 1408,
      " маалымат": 1409,
      "орун б": 1410,
      "ошонд": 1411,
      "жыл": 1412,
      "адан ": 1413,
      "үнөн ": 1414,
      "ания": 1415,
      "Алардын ": 1416,
      "жетек": 1417,
      "атур": 1418,
      " күч": 1419,
      "арат": 1420,
      " чакыр": 1421,
      "янв": 1422,
      "Бул ": 1423,
      "а\"": 1424,
      "публик": 1425,
      "Тажик": 1426,
      "ка к": 1427,
      "прокур": 1428,
      "оорук": 1429,
      " боюнча к": 1430,
      " көп": 1431,
      "төраг": 1432,
      "жак": 1433,
      "август": 1434,
      "өмүр": 1435,
      "-бүл": 1436,
      " кам": 1437,
      "реж": 1438,
      "ери": 1439,
      "огон ": 1440,
      "поз": 1441,
      "аль": 1442,
      "кат": 1443,
      " ор": 1444,
      "аган": 1445,
      "ору": 1446,
      "илдирген.\n": 1447,
      "ызмат": 1448,
      "а тур": 1449,
      "айтым": 1450,
      "ыгы ": 1451,
      "актив": 1452,
      " сая": 1453,
      "Мынд": 1454,
      " бас": 1455,
      "Бишкек ": 1456,
      " чык": 1457,
      "шт": 1458,
      " бал": 1459,
      "сотт": 1460,
      "аза бол": 1461,
      " - деди ": 1462,
      " кайр": 1463,
      " шаар": 1464,
      "алт": 1465,
      "Ал эми ": 1466,
      "үгүн ": 1467,
      "орруп": 1468,
      "14": 1469,
      "экономик": 1470,
      "Тал": 1471,
      "айс": 1472,
      "убакт": 1473,
      "айтты.\n": 1474,
      "уюштур": 1475,
      "аараз": 1476,
      "га чейин ": 1477,
      "гиликтүү": 1478,
      "КМК": 1479,
      "УКМК": 1480,
      "Нур": 1481,
      "ге": 1482,
      "ымд": 1483,
      "ойл": 1484,
      " компан": 1485,
      "Борбор": 1486,
      "18": 1487,
      " жаранд": 1488,
      ", бирок ": 1489,
      "ордун ": 1490,
      "гү ": 1491,
      "асын ": 1492,
      "лидер": 1493,
      ": ": 1494,
      "ышкан.\n": 1495,
      "өкүлдөр": 1496,
      "ына б": 1497,
      " облус": 1498,
      "саясий": 1499,
      "бер": 1500,
      "ектр": 1501,
      "көп": 1502,
      "асма сөз": 1503,
      "алдар": 1504,
      "Кыргызстанда ": 1505,
      "арых": 1506,
      "отт": 1507,
      "алам": 1508,
      "облуст": 1509,
      "аштыр": 1510,
      "чечим": 1511,
      "Бул тууралуу ": 1512,
      "сызд": 1513,
      "эң": 1514,
      "дая": 1515,
      "ына т": 1516,
      "циялык ": 1517,
      "ы жана ": 1518,
      "ып ": 1519,
      "-апрел": 1520,
      "ды.\n": 1521,
      "акка ": 1522,
      "16": 1523,
      "17": 1524,
      "уу с": 1525,
      "ьер": 1526,
      "анын к": 1527,
      "агы ж": 1528,
      "н.\n": 1529,
      " миллион ": 1530,
      "иргиз": 1531,
      "дин к": 1532,
      "айланыштуу ": 1533,
      "истем": 1534,
      "рантт": 1535,
      "у.\n": 1536,
      "үй-бүл": 1537,
      "ганы ": 1538,
      "-К": 1539,
      "Ант": 1540,
      "арында ": 1541,
      "ушунд": 1542,
      "улутт": 1543,
      "Ир": 1544,
      "Ис": 1545,
      "шы к": 1546,
      "чы ": 1547,
      "оопсуздук": 1548,
      "Башк": 1549,
      "эрк": 1550,
      "циалдык ": 1551,
      " тил": 1552,
      "чоң": 1553,
      "-Аб": 1554,
      "25": 1555,
      " чечим": 1556,
      "гөнд": 1557,
      "чилиг": 1558,
      "ага к": 1559,
      "ышкы ": 1560,
      "ылтыр": 1561,
      " эсепт": 1562,
      "ин, ": 1563,
      "абуул": 1564,
      "тол": 1565,
      "ыб": 1566,
      "ардан ": 1567,
      "ыбыз": 1568,
      "ектеп": 1569,
      " жүргүз": 1570,
      "-Абад": 1571,
      "дө ": 1572,
      " борбор": 1573,
      "виде": 1574,
      "мун": 1575,
      "арыз": 1576,
      "апш": 1577,
      "аасир": 1578,
      " айм": 1579,
      "орун бас": 1580,
      "аганда, ": 1581,
      "алганд": 1582,
      "Пут": 1583,
      " - деп": 1584,
      "дет": 1585,
      " экенин ": 1586,
      "анда ": 1587,
      "13": 1588,
      "үнкү": 1589,
      " түр": 1590,
      " жөнүндө": 1591,
      "алм": 1592,
      "обуш": 1593,
      "сүн ": 1594,
      "үмкүн ": 1595,
      " жарыял": 1596,
      "уу үчүн ": 1597,
      " алд": 1598,
      " чар": 1599,
      " долл": 1600,
      "ку": 1601,
      "сүйлөш": 1602,
      "ңг": 1603,
      "ыргызстанд": 1604,
      "ортос": 1605,
      "ээл": 1606,
      "жаранд": 1607,
      "ылайык, ": 1608,
      "кел": 1609,
      "өкмөтт": 1610,
      "Батк": 1611,
      "айым": 1612,
      "емьер": 1613,
      "чект": 1614,
      "иеш": 1615,
      " жатышат.\n": 1616,
      " жана к": 1617,
      "аткан ": 1618,
      "ыякт": 1619,
      "сактоо": 1620,
      " жооп": 1621,
      " каб": 1622,
      "ырк": 1623,
      "өлкөнүн ": 1624,
      "ыч": 1625,
      "ырм": 1626,
      "икалык ": 1627,
      " чыгар": 1628,
      "форм": 1629,
      " жардам": 1630,
      "аскерлер": 1631,
      "м.\n": 1632,
      "өлүк ": 1633,
      "өтүп": 1634,
      "ехн": 1635,
      "үндүр": 1636,
      "декабр": 1637,
      " кыз": 1638,
      " катары ": 1639,
      "иясы ": 1640,
      "\"М": 1641,
      "елгилүү": 1642,
      "ды ": 1643,
      "ортт": 1644,
      "озг": 1645,
      "Би-": 1646,
      "еген": 1647,
      "ки иштер": 1648,
      "Ад": 1649,
      "армакт": 1650,
      "оорукан": 1651,
      "саясат": 1652,
      "аранд": 1653,
      "орго": 1654,
      "гон.\n": 1655,
      " караж": 1656,
      "үүнү": 1657,
      "кул": 1658,
      "укуг": 1659,
      "өтө": 1660,
      " турат.\n": 1661,
      "дикт": 1662,
      "дар ": 1663,
      " мамлекет": 1664,
      "-август": 1665,
      "угуш": 1666,
      "-но": 1667,
      "ашыр": 1668,
      "-янв": 1669,
      "дагы к": 1670,
      "өндүр": 1671,
      "ибиз": 1672,
      " берип": 1673,
      "екшер": 1674,
      "Буга чейин ": 1675,
      "Украинанын ": 1676,
      "оомчул": 1677,
      " катт": 1678,
      "мамлекеттик": 1679,
      "екс": 1680,
      " г": 1681,
      "согуш": 1682,
      "февр": 1683,
      "парламентт": 1684,
      "Из": 1685,
      "-министр": 1686,
      "-мартт": 1687,
      "алал": 1688,
      "ыйл": 1689,
      "арды т": 1690,
      " Аз": 1691,
      "ку ": 1692,
      "ээн": 1693,
      "өлүм": 1694,
      "алып кел": 1695,
      "өг": 1696,
      "ук коргоо": 1697,
      " керек": 1698,
      "чы": 1699,
      "ыйм": 1700,
      " - ": 1701,
      "ийлик ": 1702,
      " күн": 1703,
      "илер": 1704,
      " алып": 1705,
      "наараз": 1706,
      "диг": 1707,
      " кез": 1708,
      "агентт": 1709,
      "ында б": 1710,
      "масел": 1711,
      "үлгөн ": 1712,
      "түз": 1713,
      "емьер-министр": 1714,
      "адим": 1715,
      "24": 1716,
      "анды.\n": 1717,
      "ийин": 1718,
      "өз кар": 1719,
      "аны к": 1720,
      "ун ж": 1721,
      "итт": 1722,
      "сын": 1723,
      "айланыштуу": 1724,
      "ылыш": 1725,
      "пайд": 1726,
      "ийлик": 1727,
      "га ж": 1728,
      "мурдагы ": 1729,
      "спер": 1730,
      " сөз": 1731,
      "ылуу ": 1732,
      "үндүз": 1733,
      " ишт": 1734,
      "ичинде ": 1735,
      "едицин": 1736,
      "көб": 1737,
      "есс": 1738,
      "талап": 1739,
      "алдын ": 1740,
      "инде": 1741,
      "окуял": 1742,
      "урналисттер": 1743,
      " мүмкүн": 1744,
      "-сент": 1745,
      "фонд": 1746,
      "омпан": 1747,
      "ы туур": 1748,
      "ишке ": 1749,
      "чал": 1750,
      "эле.\n": 1751,
      " карм": 1752,
      "эмн": 1753,
      "рамм": 1754,
      "түү": 1755,
      "эч к": 1756,
      "игрантт": 1757,
      "гандар": 1758,
      "раил": 1759,
      " бийлиг": 1760,
      "Ас": 1761,
      "айланыш": 1762,
      "а жана ": 1763,
      "алпы ": 1764,
      " эле к": 1765,
      "өбөй": 1766,
      "ошот": 1767,
      "-декабр": 1768,
      "оос": 1769,
      "ыктар": 1770,
      "ба": 1771,
      "анк": 1772,
      "агы б": 1773,
      " кылм": 1774,
      "илген ": 1775,
      "гун": 1776,
      "ститу": 1777,
      "а, к": 1778,
      "алган": 1779,
      "өнүн ": 1780,
      "үгү": 1781,
      "ияда ": 1782,
      "өрсөт": 1783,
      "өгөн ": 1784,
      "иц": 1785,
      "елг": 1786,
      "эскер": 1787,
      "дин": 1788,
      "ынан к": 1789,
      "долбоор": 1790,
      "ебеб": 1791,
      "уучу": 1792,
      "Абд": 1793,
      "кон": 1794,
      " аракет": 1795,
      "оочул": 1796,
      " Р": 1797,
      "ору ": 1798,
      "вир": 1799,
      "үст": 1800,
      "емир": 1801,
      "райондук ": 1802,
      "елип": 1803,
      "ашуун ": 1804,
      "детт": 1805,
      "анып": 1806,
      "ыю": 1807,
      "енес": 1808,
      "Ошондой": 1809,
      "ан бер": 1810,
      "сык": 1811,
      " бир ": 1812,
      "50": 1813,
      "орду": 1814,
      "ээр": 1815,
      "стр": 1816,
      "оррупция": 1817,
      "Кон": 1818,
      "ап ": 1819,
      "ызматкерлер": 1820,
      "Оо": 1821,
      "манд": 1822,
      "пол": 1823,
      "алыш": 1824,
      "өрт": 1825,
      "премьер-министр": 1826,
      " келет.\n": 1827,
      " калды.\n": 1828,
      "айтымында, ": 1829,
      "агд": 1830,
      "алып, ": 1831,
      "Жогорку Кеңештин ": 1832,
      "Президент": 1833,
      " уюм": 1834,
      "ограмм": 1835,
      "исттер": 1836,
      "еткир": 1837,
      "ейин": 1838,
      " жай": 1839,
      "үнкүсүн ": 1840,
      " эрк": 1841,
      ", с": 1842,
      "ык.\n": 1843,
      "өздө": 1844,
      "АКШнын ": 1845,
      "ошондой": 1846,
      "ган к": 1847,
      "гунд": 1848,
      "-июл": 1849,
      "абакт": 1850,
      " дел": 1851,
      "спорт": 1852,
      "оон": 1853,
      "билдир": 1854,
      "Министр": 1855,
      "жүр": 1856,
      "елген ": 1857,
      "саны ": 1858,
      " киргиз": 1859,
      "адамдар": 1860,
      "еле": 1861,
      "чиси ": 1862,
      "Мур": 1863,
      "Бр": 1864,
      "ир ": 1865,
      "ы кер": 1866,
      "иши ": 1867,
      "отор": 1868,
      "унан ": 1869,
      "азар": 1870,
      " жаштагы ": 1871,
      " айында ": 1872,
      "ишкан": 1873,
      "ачк": 1874,
      "окументт": 1875,
      "прокуратур": 1876,
      "уй": 1877,
      "чабуул": 1878,
      "е ал": 1879,
      "мен": 1880,
      " кол": 1881,
      " сун": 1882,
      "огушт": 1883,
      "ыйынтыг": 1884,
      "исал": 1885,
      "жок": 1886,
      "мүч": 1887,
      "ашка ": 1888,
      "ырдаал": 1889,
      " кыр": 1890,
      " кызматт": 1891,
      ") ": 1892,
      " берген ": 1893,
      "\",-": 1894,
      "үндө ": 1895,
      "ик шайлоо": 1896,
      "Ин": 1897,
      " маалыматт": 1898,
      "Таш": 1899,
      "үчтөр": 1900,
      "ге ж": 1901,
      "Израил": 1902,
      "са, ": 1903,
      "улт": 1904,
      "100": 1905,
      "Ооган": 1906,
      "изил": 1907,
      "Алар ": 1908,
      "е эл": 1909,
      " катыш": 1910,
      " кабыл ал": 1911,
      " салуу": 1912,
      "ебеп": 1913,
      "ду ": 1914,
      "ыкты ": 1915,
      "үрөтт": 1916,
      "ен, ": 1917,
      "үлүп": 1918,
      "оомдук ": 1919,
      "-октябрда ": 1920,
      "га б": 1921,
      "-июнд": 1922,
      "еди.\n": 1923,
      "Анткен": 1924,
      "про": 1925,
      "инде к": 1926,
      "топ": 1927,
      "ышкы иштер": 1928,
      "жаз": 1929,
      "ү менен ": 1930,
      "өзгөчө": 1931,
      "еси ": 1932,
      "озгол": 1933,
      "үктүр": 1934,
      "22": 1935,
      "акча ": 1936,
      "алал-Абад": 1937,
      " кылып": 1938,
      " жерде": 1939,
      "а менен ": 1940,
      "арды ж": 1941,
      " тер": 1942,
      ", биз": 1943,
      "а эл": 1944,
      "етке к": 1945,
      "ост": 1946,
      " жок": 1947,
      " болгонд": 1948,
      "етти.\n": 1949,
      "вак": 1950,
      " министри ": 1951,
      "үндөр": 1952,
      "ибер": 1953,
      "даярд": 1954,
      "арш": 1955,
      "ынча ": 1956,
      "чүлөр": 1957,
      "-августт": 1958,
      "зарыл": 1959,
      "ий ": 1960,
      "арым": 1961,
      "у б": 1962,
      "терн": 1963,
      "Вл": 1964,
      "анч": 1965,
      "үгүн": 1966,
      "унуч": 1967,
      "өлөм": 1968,
      "Алм": 1969,
      " керек ": 1970,
      "тергө": 1971,
      "факт": 1972,
      "талк": 1973,
      "андай ": 1974,
      "оркунуч": 1975,
      " Садыр Жапар": 1976,
      "дүйнө": 1977,
      "укра": 1978,
      "маалымд": 1979,
      " министрлигинин ": 1980,
      "ь ": 1981,
      "аатт": 1982,
      "укук коргоо": 1983,
      "27": 1984,
      "Ысык": 1985,
      " талап": 1986,
      "өнүктүр": 1987,
      "андыр": 1988,
      "өлкөдө": 1989,
      "урук": 1990,
      "етр": 1991,
      "28": 1992,
      "23": 1993,
      "жаш": 1994,
      "ишен": 1995,
      "орлор": 1996,
      "ипт": 1997,
      " учур": 1998,
      "гөй": 1999,
      "айын к": 2000,
      "орун басары ": 2001,
      "ашин": 2002,
      "иши к": 2003,
      "опер": 2004,
      "Казакстанд": 2005,
      "алар ": 2006,
      "умуш": 2007,
      "андын ": 2008,
      "Атам": 2009,
      " калган ": 2010,
      " жаң": 2011,
      "өзү": 2012,
      "Ошондукт": 2013,
      "ыгын ": 2014,
      "дү ": 2015,
      "туу": 2016,
      " комисс": 2017,
      "ишти.\n": 2018,
      "дан к": 2019,
      "алды\n": 2020,
      "агытт": 2021,
      "асы": 2022,
      "Бел": 2023,
      "мит": 2024,
      " айып": 2025,
      "гандардын ": 2026,
      "Уч": 2027,
      "ацияс": 2028,
      "Эгер": 2029,
      "төрт": 2030,
      "анган ": 2031,
      "ада к": 2032,
      "деги ": 2033,
      "-Көл": 2034,
      "ылык ": 2035,
      "-февр": 2036,
      "улд": 2037,
      "убак": 2038,
      "дал": 2039,
      "ар бир": 2040,
      "аанил": 2041,
      "ыкты.\n": 2042,
      "Владим": 2043,
      "из.\n": 2044,
      " комитет": 2045,
      "адм": 2046,
      "Жалал-Абад": 2047,
      "ажыр": 2048,
      "а\" ": 2049,
      "ага ж": 2050,
      "айдын ": 2051,
      "26": 2052,
      "асына ": 2053,
      "ашкан ": 2054,
      "уруксат": 2055,
      "гем": 2056,
      "электр": 2057,
      "ова ": 2058,
      "ыйн": 2059,
      "атка ": 2060,
      "арына ": 2061,
      "сырт": 2062,
      "уунун ": 2063,
      "позиция": 2064,
      "\" де": 2065,
      "Ысык-Көл": 2066,
      "\"Т": 2067,
      "ради": 2068,
      "Жапар": 2069,
      "иликтөө": 2070,
      "гө ": 2071,
      "алда ": 2072,
      "Чүй": 2073,
      " эле": 2074,
      "емб": 2075,
      "ары менен ": 2076,
      "өлтүр": 2077,
      "анын б": 2078,
      "ияга ": 2079,
      "одек": 2080,
      "үү үчүн ": 2081,
      " укукт": 2082,
      "ып, к": 2083,
      " экенин б": 2084,
      " берди.\n": 2085,
      "эл аралык ": 2086,
      " Г": 2087,
      "порт": 2088,
      "ушундай": 2089,
      "аяг": 2090,
      "асыз": 2091,
      " билдирди.\n": 2092,
      "да, ": 2093,
      "чү ": 2094,
      "Дүйн": 2095,
      "анкт": 2096,
      "аанд": 2097,
      "ди к": 2098,
      "үбүз": 2099,
      "оюл": 2100,
      "елгис": 2101,
      "туур": 2102,
      "ан тышк": 2103,
      "оч": 2104,
      " келишим": 2105,
      "маалыматт": 2106,
      "ыкка ": 2107,
      " айыл": 2108,
      " ша": 2109,
      "өңүл": 2110,
      "ошумчал": 2111,
      "и жана ": 2112,
      "омисс": 2113,
      "ажик ": 2114,
      "сак": 2115,
      "дагы бир": 2116,
      "мент": 2117,
      "Кур": 2118,
      "ашты.\n": 2119,
      "вок": 2120,
      "алды": 2121,
      "ары б": 2122,
      "аттык сактоо": 2123,
      "төрагасы ": 2124,
      "их": 2125,
      "кур": 2126,
      "а бар": 2127,
      ", күндүз": 2128,
      " турган": 2129,
      "лим": 2130,
      "акш": 2131,
      "деш": 2132,
      "айтар": 2133,
      "ан, ": 2134,
      "лам": 2135,
      "Бак": 2136,
      "Атамбаев": 2137,
      "там": 2138,
      " дагы ": 2139,
      " министрлиги ": 2140,
      "ыкчыл": 2141,
      "агенттиг": 2142,
      "ени ": 2143,
      "ңгээл": 2144,
      "у, ": 2145,
      "абай": 2146,
      " кыргыз": 2147,
      "ын\"": 2148,
      "авто": 2149,
      "урда ": 2150,
      "тил": 2151,
      "Кытай": 2152,
      "арап": 2153,
      "ине": 2154,
      "айткан.\n": 2155,
      "башт": 2156,
      "мамлекеттик ": 2157,
      "циалдык т": 2158,
      "арий": 2159,
      "иешел": 2160,
      "еңил": 2161,
      " максат": 2162,
      "ата ": 2163,
      "ор ": 2164,
      "орун ": 2165,
      "Анда ": 2166,
      "21": 2167,
      "чогул": 2168,
      "а кел": 2169,
      "Борбор Аз": 2170,
      "вест": 2171,
      "гөнүн ": 2172,
      "жаң": 2173,
      "199": 2174,
      "добуш": 2175,
      "юд": 2176,
      "ам.\n": 2177,
      "Ушул": 2178,
      "ма": 2179,
      "өнөкт": 2180,
      " бул ": 2181,
      "алдында ": 2182,
      "Улуттук к": 2183,
      "елгиледи.\n": 2184,
      " салын": 2185,
      " кызматкерлер": 2186,
      "ишкен.\n": 2187,
      "ардык": 2188,
      "адамд": 2189,
      "нат": 2190,
      "рор": 2191,
      "Владимир ": 2192,
      "тең": 2193,
      " болду": 2194,
      "Садыр Жапар": 2195,
      "үктөр": 2196,
      "иян": 2197,
      "ди\n": 2198,
      "ылмыш иш": 2199,
      "андан ": 2200,
      "өзүнүн ": 2201,
      "а башт": 2202,
      "ууну ": 2203,
      "кес": 2204,
      "-майда ": 2205,
      "үшү": 2206,
      "бири ": 2207,
      "ократ": 2208,
      "чар": 2209,
      "и жол": 2210,
      "Алар": 2211,
      "бөй": 2212,
      "ари": 2213,
      "ыймыл": 2214,
      "Кр": 2215,
      "Өк": 2216,
      "алдык": 2217,
      "рация": 2218,
      " миңден ": 2219,
      "\"Б": 2220,
      "ы боюнча ": 2221,
      "уучу ": 2222,
      " депут": 2223,
      ";\n": 2224,
      " чоң": 2225,
      "\"С": 2226,
      "абар": 2227,
      "ух": 2228,
      "ыд": 2229,
      "программ": 2230,
      "усиял": 2231,
      "гел": 2232,
      "ым.\n": 2233,
      "алат.\n": 2234,
      "лар": 2235,
      "имов": 2236,
      "омбул": 2237,
      "Ага ": 2238,
      "анган.\n": 2239,
      " же ": 2240,
      " чейин ": 2241,
      "ымал": 2242,
      "ого": 2243,
      "арыбыз": 2244,
      " парт": 2245,
      " сыякт": 2246,
      "аймаг": 2247,
      " алган ": 2248,
      "Маалым": 2249,
      "ыйж": 2250,
      "өттү.\n": 2251,
      "ындан ": 2252,
      "еспублик": 2253,
      "мамлекет": 2254,
      "негизг": 2255,
      "газ": 2256,
      "мон": 2257,
      "үлгөн.\n": 2258,
      "өкүлү ": 2259,
      "эт": 2260,
      "екен": 2261,
      " деп ": 2262,
      "аякт": 2263,
      "башка ": 2264,
      "фер": 2265,
      "атайын ": 2266,
      "долл": 2267,
      "29": 2268,
      "УУ": 2269,
      "гүл": 2270,
      "милиция": 2271,
      "ож": 2272,
      "депутатт": 2273,
      "\" парт": 2274,
      " коюл": 2275,
      " болбой": 2276,
      " жүрүп": 2277,
      "өөлөр": 2278,
      "фр": 2279,
      "иктер": 2280,
      "полиция": 2281,
      " арк": 2282,
      " эн": 2283,
      "ылат.\n": 2284,
      "ыйыл ": 2285,
      " млрд": 2286,
      "апшыр": 2287,
      " тол": 2288,
      ", анын ": 2289,
      "елек": 2290,
      "уна к": 2291,
      "емп": 2292,
      "гендей": 2293,
      "VI": 2294,
      "тик ": 2295,
      "алкуул": 2296,
      "йт": 2297,
      "алб": 2298,
      "ан бол": 2299,
      " менен б": 2300,
      "абарлады.\n": 2301,
      "убактылуу": 2302,
      "ИМ": 2303,
      "имдер": 2304,
      "шартт": 2305,
      "агыл": 2306,
      "Гер": 2307,
      "и боюнча ": 2308,
      "үйш": 2309,
      "улант": 2310,
      " болчу.\n": 2311,
      "таан": 2312,
      "аталган ": 2313,
      "инф": 2314,
      "адания": 2315,
      "лик ": 2316,
      "үнү": 2317,
      "дарыг": 2318,
      "-ноябрда ": 2319,
      "күч": 2320,
      "инет": 2321,
      "оюнд": 2322,
      "жардам": 2323,
      "зомбул": 2324,
      " нерс": 2325,
      "улган ": 2326,
      "дагы ж": 2327,
      "зыя": 2328,
      "анс": 2329,
      "үнү ": 2330,
      "иверс": 2331,
      "орус ": 2332,
      " саясат": 2333,
      " кош": 2334,
      "өзгөрт": 2335,
      "басма сөз": 2336,
      "анча ": 2337,
      "Баш": 2338,
      "мамил": 2339,
      " келген ": 2340,
      "утк": 2341,
      " эмн": 2342,
      "ири ": 2343,
      "арапт": 2344,
      "оопсузду": 2345,
      "аркылуу": 2346,
      "ине т": 2347,
      "ыкканд": 2348,
      " ок": 2349,
      "жооп": 2350,
      "огон": 2351,
      "Башкы ": 2352,
      "ментарий": 2353,
      " Н": 2354,
      "уу м": 2355,
      "автоун": 2356,
      "инвест": 2357,
      "амсызд": 2358,
      "одекс": 2359,
      " жаб": 2360,
      "Ич": 2361,
      " сат": 2362,
      "ы?\n": 2363,
      "орунд": 2364,
      "инт": 2365,
      "республик": 2366,
      "а бул": 2367,
      "ашкан.\n": 2368,
      "ка кар": 2369,
      " буз": 2370,
      "пар": 2371,
      " колдон": 2372,
      "быз.\n": 2373,
      "экенин ": 2374,
      "рамп": 2375,
      " бөлүм": 2376,
      "ыгынын ": 2377,
      "ектиг": 2378,
      " бүт": 2379,
      "бур": 2380,
      "аракеттер": 2381,
      " тал": 2382,
      "езгил": 2383,
      "ыктан ": 2384,
      "а-эн": 2385,
      "инде ж": 2386,
      "инин к": 2387,
      "оронавируст": 2388,
      " А": 2389,
      "арасында ": 2390,
      " жаг": 2391,
      " дүйн": 2392,
      " ач": 2393,
      " маселес": 2394,
      "аскердик ": 2395,
      "шарт": 2396,
      "вакцин": 2397,
      "ья": 2398,
      "айрыл": 2399,
      "ы тууралуу": 2400,
      " топт": 2401,
      "Конститу": 2402,
      "алат": 2403,
      "анов": 2404,
      " өт": 2405,
      " жатабыз.\n": 2406,
      "\"к": 2407,
      "Кам": 2408,
      "ракет": 2409,
      "от.\n": 2410,
      "үчүн": 2411,
      "пайдалан": 2412,
      "ен к": 2413,
      "уулар": 2414,
      "эмг": 2415,
      "чейин": 2416,
      "улуп": 2417,
      "аза т": 2418,
      "директ": 2419,
      "экспер": 2420,
      "елгилен": 2421,
      " кызматк": 2422,
      "ке": 2423,
      "акцияс": 2424,
      "Брит": 2425,
      "on": 2426,
      "өнүг": 2427,
      "салам": 2428,
      "универс": 2429,
      "үнө ": 2430,
      " таан": 2431,
      "аат ": 2432,
      " бил": 2433,
      "сом": 2434,
      " болуш": 2435,
      "аянд": 2436,
      "ындагы к": 2437,
      " башкар": 2438,
      "сам": 2439,
      "ойн": 2440,
      "ШК": 2441,
      "-октябр": 2442,
      "40": 2443,
      "ууда ": 2444,
      "адист": 2445,
      "Ую": 2446,
      "ардын к": 2447,
      "Иш": 2448,
      "олдоо": 2449,
      "Белар": 2450,
      " кабинет": 2451,
      " болушу": 2452,
      " аймакт": 2453,
      "ирим": 2454,
      "индиг": 2455,
      "пөй": 2456,
      "Эр": 2457,
      "умтөр": 2458,
      "иялык": 2459,
      "ылмышт": 2460,
      "ичинен ": 2461,
      "дагы б": 2462,
      "айыз": 2463,
      "ын\" ": 2464,
      "ымб": 2465,
      "Өл": 2466,
      " эки ": 2467,
      " экен.\n": 2468,
      " жок.\n": 2469,
      "огу ": 2470,
      "Орусия ": 2471,
      " нече ": 2472,
      "мигрантт": 2473,
      "ү, ": 2474,
      "га т": 2475,
      "лер кабинет": 2476,
      "чилер": 2477,
      "ары, ": 2478,
      "Биринч": 2479,
      " миң сом": 2480,
      "амд": 2481,
      " кылмыш": 2482,
      "ыюу": 2483,
      "үшкө": 2484,
      "Айр": 2485,
      "Улуттук коопсуздук": 2486,
      "Бишкек": 2487,
      "шект": 2488,
      "еск": 2489,
      "айтып, ": 2490,
      "Баткен ": 2491,
      "маалыматына кар": 2492,
      " тоб": 2493,
      "өйгөй": 2494,
      "өз каранд": 2495,
      "ы бар": 2496,
      " өлкөлөр": 2497,
      "акция": 2498,
      "айра ": 2499,
      "плом": 2500,
      "Кан": 2501,
      "ыраст": 2502,
      " иштер": 2503,
      " башкармал": 2504,
      "да т": 2505,
      "үргүз": 2506,
      "аанилүү": 2507,
      "ергиликтүү": 2508,
      " ба": 2509,
      "аданият": 2510,
      "иф": 2511,
      "e ": 2512,
      "-сентябрда ": 2513,
      "Учурда ": 2514,
      "орусиял": 2515,
      ", күндүз ": 2516,
      "CO": 2517,
      " жатканд": 2518,
      "диплом": 2519,
      " жатканын б": 2520,
      "елен": 2521,
      "ип ": 2522,
      "БУУ": 2523,
      "дарыл": 2524,
      " пайыз": 2525,
      "ы:\n": 2526,
      "юр": 2527,
      "абдан ": 2528,
      " тарапт": 2529,
      "документт": 2530,
      "-С": 2531,
      "үнчө": 2532,
      "...\n": 2533,
      "уктур": 2534,
      " жүргөн ": 2535,
      " катар": 2536,
      "өздөр": 2537,
      "угал": 2538,
      "-декабрда ": 2539,
      "ине б": 2540,
      "\"Азаттык": 2541,
      "Мындай": 2542,
      "чус": 2543,
      "сүз": 2544,
      "Герман": 2545,
      "Бай": 2546,
      "er": 2547,
      "индеги ": 2548,
      "Айт": 2549,
      "дөгү": 2550,
      "ынчт": 2551,
      "ага т": 2552,
      "иешелүү": 2553,
      "ия, ": 2554,
      "экен.\n": 2555,
      "ардагы ": 2556,
      "аф": 2557,
      "сок": 2558,
      "а турган ": 2559,
      "сө": 2560,
      "адвок": 2561,
      "илим берүү": 2562,
      " миллиард": 2563,
      " мамлекеттик ": 2564,
      "акыркы ": 2565,
      "парламент": 2566,
      " жүз": 2567,
      "ашык ": 2568,
      " кылган ": 2569,
      "лан ": 2570,
      "ап к": 2571,
      "атып": 2572,
      "итеп": 2573,
      "Кыргызстандагы ": 2574,
      "райондук сот": 2575,
      "илип": 2576,
      "мыйзамсыз": 2577,
      "сап": 2578,
      "ирет": 2579,
      "чыккан ": 2580,
      "Мисал": 2581,
      "радиос": 2582,
      " аз": 2583,
      "ликт": 2584,
      "убуз": 2585,
      "СС": 2586,
      "ейс": 2587,
      "Би-С": 2588,
      "асым": 2589,
      "президент ": 2590,
      "атив": 2591,
      "еген.\n": 2592,
      "Бишкектин ": 2593,
      "урулуш": 2594,
      "башчысы ": 2595,
      "шаарында ": 2596,
      "сатт": 2597,
      "ырл": 2598,
      "амер": 2599,
      "соо": 2600,
      "арды б": 2601,
      "VID": 2602,
      " өкмөт": 2603,
      "айтканд": 2604,
      "Алекс": 2605,
      " шайлоо": 2606,
      ")\n": 2607,
      "четке к": 2608,
      "мүр": 2609,
      "Биздин ": 2610,
      "\" деп ат": 2611,
      "га, ": 2612,
      "ыра": 2613,
      "ачык ": 2614,
      "үрүп": 2615,
      "егер": 2616,
      " бийликт": 2617,
      "мөөнөт": 2618,
      ", бирок": 2619,
      "ендер": 2620,
      "а албай": 2621,
      "согушт": 2622,
      "фин": 2623,
      "ан улам": 2624,
      "вирус": 2625,
      "VID-": 2626,
      "ар менен ": 2627,
      " каражатт": 2628,
      "Ав": 2629,
      "дөй": 2630,
      "Путин ": 2631,
      "\"Азаттыкк": 2632,
      "да б": 2633,
      "ирип": 2634,
      "Ички иштер": 2635,
      "Кор": 2636,
      "инстит": 2637,
      ", \"": 2638,
      "ехник": 2639,
      "Мар": 2640,
      "им ": 2641,
      "ады\n": 2642,
      "ишмер": 2643,
      "өлүк": 2644,
      "и\n": 2645,
      "уу боюнча ": 2646,
      "мындай": 2647,
      "асс": 2648,
      "атра": 2649,
      "ызматк": 2650,
      "Дон": 2651,
      "атр": 2652,
      "унда к": 2653,
      " келген.\n": 2654,
      "оолор": 2655,
      "е-": 2656,
      "ка ж": 2657,
      "лөр": 2658,
      " катчысы ": 2659,
      "жыйынтыг": 2660,
      "са ": 2661,
      "үүнүн ": 2662,
      "ов.\n": 2663,
      "алкагында ": 2664,
      "елтир": 2665,
      " келип": 2666,
      "баар": 2667,
      "ея": 2668,
      "Алмаз": 2669,
      "студ": 2670,
      "районунун ": 2671,
      "илген.\n": 2672,
      "оомчулукт": 2673,
      "!\n": 2674,
      "бетт": 2675,
      "ектер": 2676,
      "армаг": 2677,
      "оолуу ": 2678,
      " жетек": 2679,
      "Салам": 2680,
      "арга к": 2681,
      ", алардын ": 2682,
      "алпыс": 2683,
      " эле.\n": 2684,
      "елгилеп": 2685,
      " киши ": 2686,
      "огору": 2687,
      " экономик": 2688,
      "-мартта ": 2689,
      "\"Ж": 2690,
      "борбор": 2691,
      "иштүү": 2692,
      "аларды ": 2693,
      "дүү ": 2694,
      "таб": 2695,
      "андем": 2696,
      "акциял": 2697,
      " дая": 2698,
      "улуттук ": 2699,
      "аап": 2700,
      "аттуу ": 2701,
      "үндүк ": 2702,
      "ички иштер": 2703,
      "ергет": 2704,
      "ишке ашыр": 2705,
      "-бер": 2706,
      "COVID-": 2707,
      "иядагы ": 2708,
      "ызд": 2709,
      "арын б": 2710,
      "спортт": 2711,
      " жолд": 2712,
      "н.": 2713,
      "амакка ": 2714,
      "арас": 2715,
      " турганын ": 2716,
      "Ооганстанд": 2717,
      "оочу": 2718,
      "алды ": 2719,
      ": \"": 2720,
      "Дем": 2721,
      "жан ": 2722,
      " кон": 2723,
      "айн": 2724,
      " үй": 2725,
      " мүмкүн ": 2726,
      "Киев": 2727,
      "арын к": 2728,
      "еттер": 2729,
      "уну ": 2730,
      "штаб": 2731,
      "өткөрүп": 2732,
      " мамлекеттер": 2733,
      "ууга к": 2734,
      "емпи": 2735,
      "сул": 2736,
      " бур": 2737,
      "ейш": 2738,
      " саясий": 2739,
      "осо": 2740,
      "ай, ": 2741,
      "ов, ": 2742,
      "байт.\n": 2743,
      "Казакстандын ": 2744,
      "ский": 2745,
      "ошумчалады.\n": 2746,
      "ан ж": 2747,
      "овго": 2748,
      "түшүндүр": 2749,
      "аганын ": 2750,
      "үүчү": 2751,
      "соци": 2752,
      "асы к": 2753,
      " мүч": 2754,
      " млн.": 2755,
      "Министрлер кабинет": 2756,
      " баал": 2757,
      "Ташиев": 2758,
      "Өт": 2759,
      " боюнча мамлекеттик": 2760,
      "\" радиос": 2761,
      "Пол": 2762,
      "өтүн": 2763,
      "админист": 2764,
      "циалдык тармакт": 2765,
      "Би-Би-С": 2766,
      "тизм": 2767,
      "ара ": 2768,
      "уп ал": 2769,
      "аскердик": 2770,
      "чек арас": 2771,
      "окумент": 2772,
      "сыртк": 2773,
      "Жак": 2774,
      "ашып": 2775,
      "Өзбекстанд": 2776,
      "Мамлекеттик ": 2777,
      "а, б": 2778,
      "\" жана ": 2779,
      "Орусияда ": 2780,
      "үмкүн.\n": 2781,
      "лин": 2782,
      "ондогон ": 2783,
      " негиз": 2784,
      "мекем": 2785,
      " басылм": 2786,
      "үйлөр": 2787,
      "азыркы ": 2788,
      "тын ": 2789,
      "имдиг": 2790,
      " облуст": 2791,
      "ыйг": 2792,
      "ардык к": 2793,
      "индег": 2794,
      " калган.\n": 2795,
      "\" т": 2796,
      "өөн": 2797,
      "ылбек ": 2798,
      " аралык к": 2799,
      "дээр": 2800,
      "анас": 2801,
      "ишет.\n": 2802,
      " берген.\n": 2803,
      "ганын билдирди.\n": 2804,
      "уу, ": 2805,
      "ойт.\n": 2806,
      "а, ж": 2807,
      "едер": 2808,
      "олуг": 2809,
      "ап кет": 2810,
      "ынын к": 2811,
      " жибер": 2812,
      "президенттин ": 2813,
      "ербай": 2814,
      " мекем": 2815,
      "дук к": 2816,
      " эт": 2817,
      "убакыт": 2818,
      "атат.\n": 2819,
      "ан тышкары ": 2820,
      "айрылуу": 2821,
      "алууда.\n": 2822,
      "Зелен": 2823,
      "Өлкө": 2824,
      "нес": 2825,
      "а көр": 2826,
      "болгон ": 2827,
      "активист": 2828,
      "60": 2829,
      "генин ": 2830,
      "шы күрөш": 2831,
      "Мам": 2832,
      " баракч": 2833,
      "чилик": 2834,
      " сунушт": 2835,
      "жарыял": 2836,
      " сот": 2837,
      "үгү ": 2838,
      "университет": 2839,
      " багытт": 2840,
      "дегенд": 2841,
      " айыпт": 2842,
      "ият": 2843,
      ",\n": 2844,
      " систем": 2845,
      "көй": 2846,
      "Бол": 2847,
      "пей": 2848,
      "оорон": 2849,
      "эки ж": 2850,
      "ууну т": 2851,
      "\"Азаттыкт": 2852,
      "бал": 2853,
      "ине ж": 2854,
      "-июлда ": 2855,
      "ыктымал": 2856,
      "өнөр": 2857,
      "ынган ": 2858,
      " оор": 2859,
      "Тур": 2860,
      "сек": 2861,
      "экинч": 2862,
      "Ал эм": 2863,
      "үүгө ": 2864,
      "чыгып кет": 2865,
      "етек": 2866,
      "Буга ": 2867,
      "Сүрөтт": 2868,
      " көрүн": 2869,
      "сунушт": 2870,
      "енс": 2871,
      " келтир": 2872,
      "ан тарт": 2873,
      "планд": 2874,
      "Гр": 2875,
      "ылды\n": 2876,
      "Бишкекте ": 2877,
      "Талиб": 2878,
      " кызматы ": 2879,
      " кеңеш": 2880,
      " отур": 2881,
      "до ": 2882,
      "аган к": 2883,
      "арламентт": 2884,
      "амсыз": 2885,
      "улан": 2886,
      "Уюм": 2887,
      " күн ": 2888,
      "жан": 2889,
      "ге т": 2890,
      "лог": 2891,
      "сатып ал": 2892,
      "үштүк ": 2893,
      "эле": 2894,
      "үчүн к": 2895,
      "31": 2896,
      "Мак": 2897,
      " жатыш": 2898,
      "өнөктөш": 2899,
      "азырк": 2900,
      " мен": 2901,
      "окш": 2902,
      "дары": 2903,
      "-июнда ": 2904,
      "тарых": 2905,
      " маселелер": 2906,
      "Кыргызстанга ": 2907,
      "дүүл": 2908,
      "абынан ": 2909,
      " деп эсепт": 2910,
      "жолугуш": 2911,
      "орн": 2912,
      " ак": 2913,
      "кү к": 2914,
      "Себеб": 2915,
      "арб": 2916,
      "ууга чакыр": 2917,
      "өсү": 2918,
      "Эрк": 2919,
      " жый": 2920,
      "беков ": 2921,
      "орду ": 2922,
      "тон": 2923,
      "аттын ": 2924,
      "уу жана ": 2925,
      "алдуу к": 2926,
      "итетт": 2927,
      "сөө": 2928,
      "чүлүк ": 2929,
      "режим": 2930,
      "арак": 2931,
      "натыйж": 2932,
      "ылган": 2933,
      "Чек ар": 2934,
      "менен к": 2935,
      "циянын ": 2936,
      "БШК": 2937,
      "үрөт": 2938,
      "оппозиция": 2939,
      "ысым": 2940,
      "Европа ": 2941,
      "ийинк": 2942,
      "одексинин ": 2943,
      "Фран": 2944,
      "аларга ": 2945,
      "иш-ч": 2946,
      "өкмөттүн ": 2947,
      "елишим": 2948,
      "атты.\n": 2949,
      "ИИМ": 2950,
      "өйр": 2951,
      "ыст": 2952,
      "ы кабарл": 2953,
      "тарапт": 2954,
      "лидери ": 2955,
      "-февралда ": 2956,
      "илет": 2957,
      "Бек": 2958,
      "мэр": 2959,
      " чек ар": 2960,
      "-августта ": 2961,
      " эч к": 2962,
      "иштир": 2963,
      "урам": 2964,
      " миңдей": 2965,
      "70": 2966,
      " кандай": 2967,
      "ууну к": 2968,
      "-январда ": 2969,
      "кор": 2970,
      "пас": 2971,
      "юдж": 2972,
      " чыкты.\n": 2973,
      " катары к": 2974,
      "ашкар": 2975,
      "жаңы ": 2976,
      "сынд": 2977,
      "ата-эн": 2978,
      "ыск": 2979,
      "Улуттук ": 2980,
      "-апрелде": 2981,
      "Сүрөттүн ": 2982,
      "ti": 2983,
      "эч": 2984,
      "илдет": 2985,
      "Президентт": 2986,
      " чыккан.\n": 2987,
      "алпысынан ": 2988,
      "ардын бир": 2989,
      "уйр": 2990,
      "ду\n": 2991,
      "емпион": 2992,
      "омитет": 2993,
      "Биз ": 2994,
      "Ошондуктан ": 2995,
      "уман": 2996,
      "уң": 2997,
      "алдык к": 2998,
      "жаб": 2999,
      "ынан б": 3000,
      " албай": 3001,
      " да к": 3002,
      "огот": 3003,
      "обирим": 3004,
      "санк": 3005,
      "ерт": 3006,
      "индин ": 3007,
      "ындай ": 3008,
      "ын баш": 3009,
      "ейсб": 3010,
      "тургунд": 3011,
      "Евробирим": 3012,
      "сы ": 3013,
      "жетекчиси ": 3014,
      "Мир": 3015,
      "ы болуп": 3016,
      "иштеген ": 3017,
      " органд": 3018,
      "Казакстан ": 3019,
      "Ошондой эле ": 3020,
      "Токт": 3021,
      "ыга ": 3022,
      "көн": 3023,
      "оңш": 3024,
      "Фейсб": 3025,
      "иси ": 3026,
      " арал": 3027,
      "себеп": 3028,
      "ь айында ": 3029,
      "атары ": 3030,
      "атор": 3031,
      "улуш": 3032,
      "оманд": 3033,
      " облусунун ": 3034,
      "Башкы прокуратур": 3035,
      "алган к": 3036,
      " Л": 3037,
      "ун, ": 3038,
      "ин билдир": 3039,
      "чиликт": 3040,
      "огор": 3041,
      "истик": 3042,
      "реформ": 3043,
      "көнд": 3044,
      "гана к": 3045,
      "иштет": 3046,
      "өтөрүл": 3047,
      "Тер": 3048,
      "Газ": 3049,
      "цион": 3050,
      "ине кар": 3051,
      " баз": 3052,
      " тий": 3053,
      "ектен": 3054,
      "шаардык ": 3055,
      "иреш": 3056,
      " күчтөр": 3057,
      "оңд": 3058,
      "өбүз": 3059,
      "бет": 3060,
      "аялдар": 3061,
      "Тажикстандын ": 3062,
      "видео": 3063,
      "маалыматына караганда, ": 3064,
      "се": 3065,
      "өз жум": 3066,
      "эки к": 3067,
      "өткөн.\n": 3068,
      "депутаты ": 3069,
      "төл": 3070,
      " жакш": 3071,
      "нерс": 3072,
      "дөгү ": 3073,
      "үшүн": 3074,
      "80": 3075,
      "Тышкы иштер": 3076,
      " жайл": 3077,
      "арх": 3078,
      " мындай": 3079,
      " Ш": 3080,
      "Инд": 3081,
      "макт": 3082,
      "огуз": 3083,
      "ыкч": 3084,
      "автор": 3085,
      "Анткени ": 3086,
      "мен ": 3087,
      "ди:\n": 3088,
      " калган": 3089,
      "ma": 3090,
      "Мыйзам": 3091,
      "бейт": 3092,
      "ар, ": 3093,
      "ат\n": 3094,
      "и бар": 3095,
      "агым": 3096,
      "исттик ": 3097,
      "ью": 3098,
      "дайынд": 3099,
      "проц": 3100,
      "уна т": 3101,
      "систем": 3102,
      "өөгө": 3103,
      "болсо": 3104,
      "ыңг": 3105,
      "е элек.\n": 3106,
      "Жээн": 3107,
      "интерн": 3108,
      "аянт": 3109,
      "Кыз": 3110,
      " балд": 3111,
      "ерин ": 3112,
      "ерди": 3113,
      "аркылуу ": 3114,
      "кы ж": 3115,
      "сү": 3116,
      "амакт": 3117,
      "ологиялык ": 3118,
      "далил": 3119,
      "турган ": 3120,
      "ошумча ": 3121,
      "Нарын ": 3122,
      "Ток": 3123,
      "бейт.\n": 3124,
      "гандар ": 3125,
      " Жээн": 3126,
      "Кара-": 3127,
      "Улуттук коопсуздук боюнча мамлекеттик": 3128,
      "ендиг": 3129,
      " эмес.\n": 3130,
      " таасир": 3131,
      "өкүм": 3132,
      " токт": 3133,
      " р": 3134,
      "),": 3135,
      "Амер": 3136,
      "Жаз": 3137,
      "укул": 3138,
      "айылд": 3139,
      "иялык к": 3140,
      "лидерлер": 3141,
      "тий": 3142,
      "ыйынында ": 3143,
      "чүлүк": 3144,
      "үүнү ": 3145,
      "и болуп": 3146,
      "ы, к": 3147,
      " эң": 3148,
      "ылтыр ": 3149,
      " эркиндиг": 3150,
      " кырда": 3151,
      "Украинадагы ": 3152,
      "ден": 3153,
      "оодо": 3154,
      " чект": 3155,
      "буз": 3156,
      "жылд": 3157,
      "жакынд": 3158,
      "өнүктүрүү": 3159,
      "Саламаттык сактоо": 3160,
      " берет.\n": 3161,
      "ектепт": 3162,
      "иши кер": 3163,
      "виц": 3164,
      "ырып": 3165,
      "атайын к": 3166,
      "ууд": 3167,
      "ага б": 3168,
      "урал": 3169,
      "ия жана ": 3170,
      " сүйлөш": 3171,
      "атка кар": 3172,
      "адам ": 3173,
      "Матра": 3174,
      "Өмүр": 3175,
      "агыт": 3176,
      "учурл": 3177,
      "олук ": 3178,
      "ишкер": 3179,
      "ап, к": 3180,
      "ууну": 3181,
      "президенти Владимир ": 3182,
      "анын т": 3183,
      "ортосундагы ": 3184,
      "өзү ": 3185,
      "\".\n": 3186,
      "оё": 3187,
      " таб": 3188,
      "Бишкектеги ": 3189,
      "Айрым": 3190,
      "мин": 3191,
      "ылып, ": 3192,
      "ишкерлер": 3193,
      "окко": 3194,
      "оодон ": 3195,
      " эл аралык ": 3196,
      "төгөн ": 3197,
      "асын к": 3198,
      "езект": 3199,
      "адамдардын ": 3200,
      "өчүр": 3201,
      "ергетик": 3202,
      "Мунун ": 3203,
      "Расмий": 3204,
      "ооз": 3205,
      "унда т": 3206,
      " нече ж": 3207,
      " берген": 3208,
      "Көп": 3209,
      "азак ": 3210,
      "еге ": 3211,
      "оюз": 3212,
      "антип": 3213,
      "Эл аралык ": 3214,
      " бек": 3215,
      "уулу ": 3216,
      " өткөр": 3217,
      "Азербай": 3218,
      " жок ": 3219,
      "Эми ": 3220,
      "Сир": 3221,
      "арды.\n": 3222,
      " чет": 3223,
      "а эмес": 3224,
      "ирген ": 3225,
      " чыккан ": 3226,
      "арда к": 3227,
      " жатканы ": 3228,
      "чыгыш": 3229,
      "айгашкан ": 3230,
      " абал": 3231,
      "ызыкчыл": 3232,
      "адан к": 3233,
      "иккен ": 3234,
      "Акылбек ": 3235,
      "экономикалык ": 3236,
      "президент Садыр Жапар": 3237,
      "ен кийин ": 3238,
      "онн": 3239,
      "улдаш": 3240,
      "эле к": 3241,
      "уулукт": 3242,
      "айда бол": 3243,
      "ийинки ": 3244,
      "-беренес": 3245,
      "\" компан": 3246,
      "ынды.\n": 3247,
      " эскер": 3248,
      " (\"": 3249,
      "фил": 3250,
      " киши к": 3251,
      "ажр": 3252,
      "апта ": 3253,
      "мөн": 3254,
      "агына ": 3255,
      "осс": 3256,
      "чылык": 3257,
      "Дүйш": 3258,
      "еке ": 3259,
      "үнөөл": 3260,
      "издин ": 3261,
      "аны т": 3262,
      " аркылуу": 3263,
      "ажрый": 3264,
      "үнө кар": 3265,
      "үгүнкү к": 3266,
      "инде т": 3267,
      "Гүл": 3268,
      "ар кандай": 3269,
      "ыргызстандык ": 3270,
      "Жан": 3271,
      "ахм": 3272,
      "Тажикстанд": 3273,
      "сүйлөшүүлөр": 3274,
      "тергөө": 3275,
      "ъект": 3276,
      "уна ж": 3277,
      " эле ж": 3278,
      "эскерт": 3279,
      "Ислам": 3280,
      "\" бер": 3281,
      "гр": 3282,
      " журналист": 3283,
      "айтыш": 3284,
      " з": 3285,
      "алгыз": 3286,
      "ектептер": 3287,
      "бөл": 3288,
      "министр": 3289,
      "мыйзамд": 3290,
      "Өзбекстандын ": 3291,
      "ага кар": 3292,
      "үрө": 3293,
      "гөө": 3294,
      "дарыгерлер": 3295,
      "ем.\n": 3296,
      "беш": 3297,
      "оопсуздуг": 3298,
      "Мекем": 3299,
      "Чыг": 3300,
      "элдин ": 3301,
      "ысыз": 3302,
      "операция": 3303,
      "бүз": 3304,
      "оф": 3305,
      "риз": 3306,
      "имар": 3307,
      " катар ": 3308,
      "активисттер": 3309,
      "амм": 3310,
      "итинг": 3311,
      "албай": 3312,
      "ейл": 3313,
      "алгач": 3314,
      "аламанд": 3315,
      "-ноябр": 3316,
      "украин ": 3317,
      "ача ": 3318,
      "шыл": 3319,
      "ук б": 3320,
      "демократ": 3321,
      "чет эл": 3322,
      "-сентябр": 3323,
      "% ": 3324,
      "улган.\n": 3325,
      "ный": 3326,
      "окр": 3327,
      "ун т": 3328,
      "ө аб": 3329,
      "аэр": 3330,
      " бейт": 3331,
      "раф": 3332,
      "Батыш": 3333,
      "муш": 3334,
      "акын ": 3335,
      "көрсөт": 3336,
      "Тил": 3337,
      "өзүн ": 3338,
      " коюш": 3339,
      "ыюу салын": 3340,
      "Соң": 3341,
      "байт": 3342,
      "ь ай": 3343,
      "и айт": 3344,
      "...-": 3345,
      "ЭБ": 3346,
      " белгил": 3347,
      "елеф": 3348,
      "АТ": 3349,
      "Ст": 3350,
      " кетти.\n": 3351,
      "эки т": 3352,
      " биздин ": 3353,
      "Өткөн ": 3354,
      "Шайлоо": 3355,
      "ошон": 3356,
      "чыгып": 3357,
      "эске ": 3358,
      " жана ж": 3359,
      "өкүлдөрү": 3360,
      "стат": 3361,
      "нааразылык ": 3362,
      "деп ": 3363,
      "эсеб": 3364,
      "астыкт": 3365,
      "үштү.\n": 3366,
      "Алмазбек ": 3367,
      "ке ж": 3368,
      "ны ": 3369,
      "илиция": 3370,
      "ондон ": 3371,
      " калыш": 3372,
      "ембиде": 3373,
      "медицин": 3374,
      "гендер": 3375,
      "агы бир": 3376,
      "сотко": 3377,
      "Кош": 3378,
      "арын": 3379,
      "деңгээл": 3380,
      "уулук": 3381,
      "чын": 3382,
      " кала": 3383,
      "өңүл бур": 3384,
      "еев": 3385,
      "ууда": 3386,
      " шаарында ": 3387,
      "Түркия": 3388,
      "учакт": 3389,
      "и\"": 3390,
      "есин ": 3391,
      "с-": 3392,
      " маал": 3393,
      "президенттик шайлоо": 3394,
      " кырс": 3395,
      "ат, ": 3396,
      "ерв": 3397,
      " жылга ": 3398,
      " максатында ": 3399,
      "es": 3400,
      "ка б": 3401,
      "Ошент": 3402,
      "ада ж": 3403,
      "айлык ": 3404,
      "шайлоого": 3405,
      "Өзбекстан ": 3406,
      "Деп": 3407,
      " бою": 3408,
      "жас": 3409,
      "кал": 3410,
      " буга чейин ": 3411,
      "ыкм": 3412,
      "аясий": 3413,
      "Армен": 3414,
      "өзөмөлдө": 3415,
      "Корея": 3416,
      "ка т": 3417,
      "-тажик ": 3418,
      "Кытайдын ": 3419,
      "Жогорку Кеңешт": 3420,
      "ыбына к": 3421,
      "баары ": 3422,
      "Талас": 3423,
      "эч ким": 3424,
      "90": 3425,
      "Андан ": 3426,
      "га каршы ": 3427,
      "депутат ": 3428,
      "арг": 3429,
      "террор": 3430,
      " каза бол": 3431,
      "Жол": 3432,
      "акынд": 3433,
      "дүк": 3434,
      "ажырат": 3435,
      "миг": 3436,
      "ебиз": 3437,
      "Борбордук ": 3438,
      " энерг": 3439,
      "in": 3440,
      "и бул": 3441,
      "омментарий": 3442,
      "егенд": 3443,
      "эмес, ": 3444,
      " метр": 3445,
      "үмдөр": 3446,
      " тең": 3447,
      " кызматынын ": 3448,
      "чог": 3449,
      "асы ж": 3450,
      "утбол": 3451,
      "ганда ": 3452,
      " айд": 3453,
      "ХА": 3454,
      "акист": 3455,
      "ээ бир": 3456,
      "уугун": 3457,
      "ыктар ": 3458,
      "талкуул": 3459,
      "усул": 3460,
      "институт": 3461,
      "аевдин ": 3462,
      "аганда ": 3463,
      " \"Азатт": 3464,
      "даяр": 3465,
      " мүмкүн.\n": 3466,
      " өлк": 3467,
      "500": 3468,
      "маан": 3469,
      "ытт": 3470,
      "ала": 3471,
      " жаңы ": 3472,
      "азырынча ": 3473,
      "гөндөр": 3474,
      "айтып кел": 3475,
      " тургунд": 3476,
      "Америк": 3477,
      " төл": 3478,
      "адем": 3479,
      "Бириккен ": 3480,
      " жумуш": 3481,
      "Кылмыш": 3482,
      "ге б": 3483,
      "уулуг": 3484,
      "\"Ал": 3485,
      "үндөн ": 3486,
      "ин билдирди.\n": 3487,
      "Ушунд": 3488,
      " калд": 3489,
      "үйөө": 3490,
      " айтыл": 3491,
      "мүмкүн": 3492,
      "ск ": 3493,
      " мун": 3494,
      "емл": 3495,
      ", башк": 3496,
      " пандем": 3497,
      "ооронбай": 3498,
      "бө": 3499,
      "ко ": 3500,
      " табыл": 3501,
      "ык-т": 3502,
      "\"Д": 3503,
      "тр": 3504,
      "эреж": 3505,
      "гандан кийин ": 3506,
      "чыбек ": 3507,
      "ы керек.\n": 3508,
      "айткан ": 3509,
      "ыктардын ": 3510,
      "оско": 3511,
      "ына чейин ": 3512,
      " I": 3513,
      "ишин ": 3514,
      " жана башк": 3515,
      "емпир": 3516,
      "Сот": 3517,
      "атын ": 3518,
      "унун к": 3519,
      "еткен ": 3520,
      "оопсуздук ": 3521,
      "эксперт": 3522,
      "Министрлер кабинетинин ": 3523,
      "\"Р": 3524,
      " кырдаал": 3525,
      " алыш": 3526,
      " дар": 3527,
      " болуп, ": 3528,
      "ред": 3529,
      "Анан ": 3530,
      "негизинде ": 3531,
      "Мындан ": 3532,
      "ойдон ": 3533,
      "ешт": 3534,
      "ан баш": 3535,
      "үүдөн ": 3536,
      " млн ": 3537,
      "Адам": 3538,
      "и бир": 3539,
      "и-бир": 3540,
      "токт": 3541,
      "өрүн": 3542,
      "Депут": 3543,
      " тонн": 3544,
      "Бул тууралуу": 3545,
      "ошондой эле ": 3546,
      " со": 3547,
      "мурда ": 3548,
      "арн": 3549,
      "үрт": 3550,
      "деп эсепт": 3551,
      "Жаң": 3552,
      "аябай": 3553,
      "гиликтүү ": 3554,
      "ызматташт": 3555,
      "олутт": 3556,
      "үйр": 3557,
      " коюп": 3558,
      "автоуна": 3559,
      "ык-түл": 3560,
      "дор": 3561,
      "уугунт": 3562,
      "өрө": 3563,
      "иешес": 3564,
      "ишеним": 3565,
      "оо үчүн ": 3566,
      "ооронбай Жээн": 3567,
      "\")": 3568,
      "ак-": 3569,
      "өз ": 3570,
      "Жум": 3571,
      "ыбек ": 3572,
      "огу": 3573,
      "Ошт": 3574,
      "лай": 3575,
      "оргон": 3576,
      "илбей": 3577,
      " жана т": 3578,
      " эле м": 3579,
      "аттар ": 3580,
      "парламенттик шайлоо": 3581,
      "окуу ж": 3582,
      "бар.\n": 3583,
      "Өкмөт": 3584,
      " сотт": 3585,
      "огорул": 3586,
      " П": 3587,
      "бери ": 3588,
      " мамил": 3589,
      "Түркиянын ": 3590,
      "елгисиз": 3591,
      "tion": 3592,
      "енз": 3593,
      "маселелер": 3594,
      "еде": 3595,
      "унушт": 3596,
      " чарб": 3597,
      "биринчи ": 3598,
      "дары ": 3599,
      "урт": 3600,
      "уп, к": 3601,
      " берүүгө": 3602,
      " кеткен": 3603,
      "адан": 3604,
      " сын": 3605,
      "аза к": 3606,
      "орусиялык ": 3607,
      "МА": 3608,
      "маш": 3609,
      "аштап": 3610,
      "ылдыр": 3611,
      " Казак": 3612,
      "аркум": 3613,
      "жалпы ": 3614,
      "кан к": 3615,
      "ушун": 3616,
      " мыйзам долбоор": 3617,
      " миллион долл": 3618,
      "киш": 3619,
      "үтт": 3620,
      " коронавирус": 3621,
      "оопсуздук к": 3622,
      "диний": 3623,
      "юджетт": 3624,
      "балд": 3625,
      "алы ": 3626,
      "алыс": 3627,
      " алын": 3628,
      "Өзгөчө": 3629,
      "ек сан": 3630,
      "ан кет": 3631,
      "уктаж": 3632,
      "Эн": 3633,
      "ала ": 3634,
      "ди т": 3635,
      "Албетт": 3636,
      "ачык": 3637,
      "ке т": 3638,
      "саб": 3639,
      " көч": 3640,
      "ол кой": 3641,
      "илди.\n": 3642,
      "иясын ": 3643,
      "инде б": 3644,
      "ештер": 3645,
      "УКМКнын ": 3646,
      "амсыз кыл": 3647,
      "вице-": 3648,
      "ол салуу": 3649,
      " деди ": 3650,
      "-жылы к": 3651,
      " керектиг": 3652,
      "Камчыбек ": 3653,
      " бийлик": 3654,
      "ында бол": 3655,
      "омп": 3656,
      "рацияс": 3657,
      "етке ": 3658,
      " болгонун ": 3659,
      "сү ": 3660,
      " чогул": 3661,
      "егинде ": 3662,
      "ден к": 3663,
      " көрс": 3664,
      "стан, ": 3665,
      " боюнча б": 3666,
      "300": 3667,
      "көн.\n": 3668,
      "абыл алын": 3669,
      "еатр": 3670,
      "ы\"": 3671,
      " коом": 3672,
      " кеткен ": 3673,
      " алып бар": 3674,
      "Акылбек Жапар": 3675,
      "АТО": 3676,
      "кы к": 3677,
      " жолу ": 3678,
      "өкмөт баш": 3679,
      "ү\n": 3680,
      " добуш": 3681,
      "олдоп": 3682,
      " жактан ": 3683,
      "ратег": 3684,
      "ехнолог": 3685,
      "сырткары ": 3686,
      "аттардын ": 3687,
      "инчи к": 3688,
      "уманит": 3689,
      "ешкен ": 3690,
      " жатып": 3691,
      "өмб": 3692,
      "демил": 3693,
      "ошт": 3694,
      "айдыр": 3695,
      "Жап": 3696,
      "Кийин ": 3697,
      " сан": 3698,
      "угуз": 3699,
      " доллар": 3700,
      "-жылдагы ": 3701,
      "ресс": 3702,
      "ca": 3703,
      "Шт": 3704,
      "үң": 3705,
      " дай": 3706,
      "нааразыл": 3707,
      "арына к": 3708,
      "өртт": 3709,
      "үү боюнча ": 3710,
      "огол": 3711,
      "ыктын ": 3712,
      "Со": 3713,
      "уу менен ": 3714,
      " калып": 3715,
      " дүйнө": 3716,
      "аэроп": 3717,
      "атышт": 3718,
      "аймагында ": 3719,
      "асы менен ": 3720,
      "үнкүсүн -": 3721,
      "оюнча ": 3722,
      "инфек": 3723,
      "Орус": 3724,
      "огорку с": 3725,
      "айсы бир": 3726,
      "е турган ": 3727,
      "а М": 3728,
      "ажат": 3729,
      "Кыргызстанда к": 3730,
      " мурда ": 3731,
      "портт": 3732,
      "үгүндө": 3733,
      "кенд": 3734,
      "аны ж": 3735,
      " бийлик ": 3736,
      "ия менен ": 3737,
      "еги": 3738,
      "биз.\n": 3739,
      "е албай": 3740,
      "Ваш": 3741,
      "ман ": 3742,
      " боюнча, ": 3743,
      "Кытайд": 3744,
      "студентт": 3745,
      "Ил": 3746,
      "сих": 3747,
      "өзүнө": 3748,
      "есинин ": 3749,
      "Вашинг": 3750,
      "en": 3751,
      " деңгээл": 3752,
      "объект": 3753,
      "шаарл": 3754,
      "анг": 3755,
      "аган т": 3756,
      "ов менен ": 3757,
      "аштуу ": 3758,
      "-жылдары ": 3759,
      "станга ": 3760,
      "се ": 3761,
      "дукт": 3762,
      "аваль": 3763,
      "бек С": 3764,
      " мыйзамд": 3765,
      "Беларуст": 3766,
      "?\"": 3767,
      "Үй": 3768,
      "өрүн ": 3769,
      "азды.\n": 3770,
      " боло": 3771,
      " Республик": 3772,
      "рим": 3773,
      " күндөр": 3774,
      "улл": 3775,
      "ойт": 3776,
      "-Т": 3777,
      "урм": 3778,
      "оварл": 3779,
      "есеп": 3780,
      "дердин ": 3781,
      "олго": 3782,
      " миллион сом": 3783,
      "маалымдады.\n": 3784,
      "себеб": 3785,
      "алап кыл": 3786,
      "виз": 3787,
      " жерлер": 3788,
      " демил": 3789,
      "е башт": 3790,
      "агаз": 3791,
      "илген": 3792,
      " жарат": 3793,
      "Бишкек шаар": 3794,
      " бийлиги ": 3795,
      " туу": 3796,
      "шайлоо комисс": 3797,
      "ордо": 3798,
      "өчө": 3799,
      "өсү ": 3800,
      "иши м": 3801,
      "и козгол": 3802,
      " жарым": 3803,
      "Олим": 3804,
      "ал.\n": 3805,
      "ызмат ": 3806,
      "ави": 3807,
      "өткөнд": 3808,
      "сез": 3809,
      "се, ": 3810,
      "а ч": 3811,
      "инен к": 3812,
      "уюмдар": 3813,
      "имарат": 3814,
      "өнө": 3815,
      "учурунда ": 3816,
      "эч кандай": 3817,
      "азал": 3818,
      "35": 3819,
      "ултан ": 3820,
      "топт": 3821,
      "Зеленский": 3822,
      "агн": 3823,
      "иядан ": 3824,
      "үлдү.\n": 3825,
      "изилдө": 3826,
      "уна б": 3827,
      "ылууда.\n": 3828,
      "облусунун ": 3829,
      "al": 3830,
      "гач": 3831,
      "мо ": 3832,
      "арда ж": 3833,
      "өзүм": 3834,
      "овду": 3835,
      "өмөнд": 3836,
      " сунуш": 3837,
      "унда ж": 3838,
      " алган": 3839,
      "Коронавирус": 3840,
      "ырз": 3841,
      "адаб": 3842,
      "ыгын б": 3843,
      " келген": 3844,
      "өн кийин ": 3845,
      "авальный": 3846,
      "гес": 3847,
      "аш ": 3848,
      "агдыр": 3849,
      "Фин": 3850,
      "зав": 3851,
      "уудан ": 3852,
      " алып кел": 3853,
      " бере элек.\n": 3854,
      "олдо": 3855,
      "өгөт": 3856,
      "лав": 3857,
      " куб": 3858,
      " төр": 3859,
      "у жана ": 3860,
      "умм": 3861,
      "амлекеттин ": 3862,
      "аракет кыл": 3863,
      "ойлой": 3864,
      " токтот": 3865,
      " өлкөнүн ": 3866,
      "үй-бүлө": 3867,
      "Мен": 3868,
      "аны б": 3869,
      "тты.\n": 3870,
      "уна кар": 3871,
      " Д": 3872,
      "Түштүк ": 3873,
      "Улуттар ": 3874,
      " кылмышт": 3875,
      "ңиз": 3876,
      "ина ": 3877,
      "үү к": 3878,
      "инистрлиг": 3879,
      "аев ": 3880,
      "у менен к": 3881,
      "лиц": 3882,
      "ызматынын ": 3883,
      "НАТО": 3884,
      "миң": 3885,
      "сыйл": 3886,
      "пидем": 3887,
      "Негиз": 3888,
      "агын": 3889,
      " сакт": 3890,
      "окут": 3891,
      "есипт": 3892,
      "чылар": 3893,
      "футбол": 3894,
      " күт": 3895,
      "аганы ": 3896,
      "урч": 3897,
      "аттуу": 3898,
      "ы мүмкүн.\n": 3899,
      "Москва ": 3900,
      "нач": 3901,
      "аткыл": 3902,
      " ишен": 3903,
      "депутат": 3904,
      "Эмн": 3905,
      "геменд": 3906,
      " Ал": 3907,
      "-д": 3908,
      "Трамп": 3909,
      "беген ": 3910,
      "и менен к": 3911,
      "лас": 3912,
      "ырда": 3913,
      "оонун ": 3914,
      " калтыр": 3915,
      " - дейт": 3916,
      "мүчөлөр": 3917,
      "Үч": 3918,
      "оочу ": 3919,
      "алдуу": 3920,
      "ыгына ": 3921,
      "уулук ": 3922,
      "ынчсызд": 3923,
      " болсо, ": 3924,
      "талапкер": 3925,
      "Мисалы, ": 3926,
      "\"Азаттыкка\"": 3927,
      "\"А": 3928,
      "an": 3929,
      "ля": 3930,
      "асыя": 3931,
      " миң ": 3932,
      "Экономик": 3933,
      "таасир": 3934,
      "атери": 3935,
      "ашат.\n": 3936,
      "\" партиясынын ": 3937,
      "ыбына келтир": 3938,
      "детин ": 3939,
      "Пакист": 3940,
      "йт.\n": 3941,
      " тарап": 3942,
      "ганын билдирген.\n": 3943,
      "директору ": 3944,
      "Фейсбукт": 3945,
      "Мун": 3946,
      "май": 3947,
      " сайт": 3948,
      "ыйкат": 3949,
      "обил": 3950,
      "чыгарм": 3951,
      "өткөн": 3952,
      "эсепт": 3953,
      "Вашингт": 3954,
      "ерди ": 3955,
      "Биримдиг": 3956,
      " милдетт": 3957,
      " өзгөр": 3958,
      "Экинч": 3959,
      " жоопкер": 3960,
      "\"Талиб": 3961,
      "Са": 3962,
      "экинчи ": 3963,
      "чулардын ": 3964,
      "-май": 3965,
      " эмес, ": 3966,
      " байк": 3967,
      "ийгиз": 3968,
      " - деп жаз": 3969,
      "гендей, ": 3970,
      "Алмазбек Атамбаев": 3971,
      "лайн ": 3972,
      "чынын ": 3973,
      "алып, к": 3974,
      "ранспорт": 3975,
      "вируст": 3976,
      "өнгө": 3977,
      "ге чейин ": 3978,
      "милдетт": 3979,
      "стратег": 3980,
      "ырды.\n": 3981,
      "каны ": 3982,
      " эмг": 3983,
      "азыр ": 3984,
      "отурум": 3985,
      "ник": 3986,
      "ы тур": 3987,
      "еңешинин ": 3988,
      "баевдин ": 3989,
      "тыр.\n": 3990,
      "өлкөлөрдүн ": 3991,
      "үүнү к": 3992,
      "етип": 3993,
      "да бол": 3994,
      "ошул": 3995,
      " элек.\n": 3996,
      "талапт": 3997,
      "уп ": 3998,
      "ебиз.\n": 3999,
      " млрд.": 4000,
      " дайынд": 4001,
      "Британия": 4002,
      "дүйнөлүк ": 4003,
      "Кремл": 4004,
      "хан ": 4005,
      "ек, ": 4006,
      "абалд": 4007,
      "убад": 4008,
      " Трамп": 4009,
      "ресур": 4010,
      "стрем": 4011,
      "зарыл.\n": 4012,
      "аларын ": 4013,
      "ар үчүн ": 4014,
      "ажбур": 4015,
      "ендум": 4016,
      "сунуш": 4017,
      "зомбулук": 4018,
      "мо Шт": 4019,
      " беш": 4020,
      "азык-түл": 4021,
      "өз алд": 4022,
      "Орусияга ": 4023,
      "ай райондук сот": 4024,
      "ушту.\n": 4025,
      "айсы ": 4026,
      "негизги ": 4027,
      "Байден ": 4028,
      "Коргоо": 4029,
      "сынын ": 4030,
      " согуш": 4031,
      "иялар": 4032,
      "жергиликтүү": 4033,
      "ферендум": 4034,
      "аяндам": 4035,
      " бериш": 4036,
      " туруш": 4037,
      "дайым": 4038,
      "дейт": 4039,
      "еж": 4040,
      " келди.\n": 4041,
      " да.\n": 4042,
      "ганын билдир": 4043,
      "арандык ": 4044,
      "ХАМА": 4045,
      "олу ": 4046,
      "органд": 4047,
      " мезгил": 4048,
      "ыгында ": 4049,
      " алган.\n": 4050,
      "авк": 4051,
      " башка ": 4052,
      "Камчыбек Ташиев": 4053,
      "ыртт": 4054,
      "андр": 4055,
      " булакт": 4056,
      "макул": 4057,
      "Груз": 4058,
      "орнот": 4059,
      "экө": 4060,
      " жа": 4061,
      "айтымынд": 4062,
      "Быйыл": 4063,
      "гуманит": 4064,
      "үндүк": 4065,
      "пози": 4066,
      "Назар": 4067,
      "Ос": 4068,
      "апшырм": 4069,
      "Президент Садыр Жапар": 4070,
      "ян ": 4071,
      "ысы к": 4072,
      "Аны ": 4073,
      "удья": 4074,
      "Интерн": 4075,
      "оркут": 4076,
      "бековдун ": 4077,
      "түшүн": 4078,
      "сел": 4079,
      "суроо": 4080,
      " жеткир": 4081,
      " чемпион": 4082,
      "Түркмөн": 4083,
      "тизмес": 4084,
      "пресс": 4085,
      "огорку": 4086,
      "ыңыз": 4087,
      "турукт": 4088,
      "ышы ": 4089,
      " электр": 4090,
      "айра к": 4091,
      "анализ": 4092,
      " мүмкүнчүл": 4093,
      "\"Кыргыз": 4094,
      "үлөт.\n": 4095,
      "изилдөө": 4096,
      "ын.\n": 4097,
      "ациялоо": 4098,
      " башкармалыгынын ": 4099,
      "уу.\n": 4100,
      " арыз": 4101,
      "гөнү": 4102,
      "өк ": 4103,
      "алак": 4104,
      "үчт": 4105,
      "елгисиз.\n": 4106,
      "еге к": 4107,
      "и жыл": 4108,
      "елердин ": 4109,
      "АКШ ": 4110,
      "арынын к": 4111,
      "үүлөрдү": 4112,
      "артам": 4113,
      "КК": 4114,
      "ЭС": 4115,
      "алынган ": 4116,
      "оюн ": 4117,
      "матов": 4118,
      "өлч": 4119,
      "еминде ": 4120,
      " калат.\n": 4121,
      "бардык ": 4122,
      "чак": 4123,
      "асы т": 4124,
      "елег": 4125,
      " соң": 4126,
      "үчөт": 4127,
      "уурд": 4128,
      "үк т": 4129,
      "га карата ": 4130,
      "Кал": 4131,
      "чыкк": 4132,
      "чыкканд": 4133,
      "уткар": 4134,
      " кишинин ": 4135,
      "а элек.\n": 4136,
      "зыян ": 4137,
      "емпир-Абад": 4138,
      "сегиз": 4139,
      "апырт": 4140,
      "оору": 4141,
      "инчи жол": 4142,
      "-апрелде ": 4143,
      " күнү": 4144,
      " сатып ал": 4145,
      "ыкчам": 4146,
      "Жам": 4147,
      "эст": 4148,
      "атай": 4149,
      " берет": 4150,
      "митинг": 4151,
      "елеканал": 4152,
      "аза тап": 4153,
      "маал": 4154,
      " тап": 4155,
      "амир": 4156,
      " аймаг": 4157,
      " кор": 4158,
      " там": 4159,
      " эр": 4160,
      "онго": 4161,
      "Масел": 4162,
      "са бол": 4163,
      " көтөр": 4164,
      "өрү": 4165,
      "өө ": 4166,
      " Кыт": 4167,
      "Араб": 4168,
      "опт": 4169,
      " милиция": 4170,
      "улам ": 4171,
      "администрацияс": 4172,
      "ыкча ": 4173,
      "аткан.\n": 4174,
      "матери": 4175,
      "Александр": 4176,
      "ы белгилүү": 4177,
      "Ошол эле ": 4178,
      "фир": 4179,
      "атаал": 4180,
      "онун ": 4181,
      "ички ": 4182,
      "Кумтөр": 4183,
      "сыякт": 4184,
      "агы, ": 4185,
      "үүчүлөр": 4186,
      "өзүнчө": 4187,
      "айтты:\n": 4188,
      " гект": 4189,
      "четке каг": 4190,
      "ец": 4191,
      " ээ": 4192,
      "дипломат": 4193,
      "ар.\n": 4194,
      "үшүндүр": 4195,
      " жергиликтүү": 4196,
      "mag": 4197,
      "алай": 4198,
      " келе": 4199,
      " жаткан к": 4200,
      "аңж": 4201,
      "баев ": 4202,
      "иттер": 4203,
      "ка каршы ": 4204,
      "санкциял": 4205,
      "гү к": 4206,
      "ык коом": 4207,
      " каршы ": 4208,
      "иевдин ": 4209,
      "чейинк": 4210,
      "иет": 4211,
      "андан кийин ": 4212,
      "арды": 4213,
      " күнү ": 4214,
      "Биринчи м": 4215,
      "алары ": 4216,
      "елеч": 4217,
      "екке к": 4218,
      "еңиш": 4219,
      "салышт": 4220,
      "деле ": 4221,
      "Эс": 4222,
      "араб": 4223,
      "андайдыр": 4224,
      "ондук ": 4225,
      "социалдык ": 4226,
      "астан ": 4227,
      "етер": 4228,
      "екенд": 4229,
      "үлүш": 4230,
      "үздө": 4231,
      " аралык": 4232,
      "чыгарыл": 4233,
      "расмий ": 4234,
      "үүсүндө": 4235,
      "Кыргызстан менен ": 4236,
      "документ": 4237,
      "у\n": 4238,
      "андагы ": 4239,
      "үрк ": 4240,
      "Мындай ": 4241,
      "лаг": 4242,
      "ыган ": 4243,
      "айтылган.\n": 4244,
      "көбөй": 4245,
      "үгүн, ": 4246,
      " тарых": 4247,
      "Улуу ": 4248,
      "гана ж": 4249,
      "өкүлдөрү ": 4250,
      "чукул": 4251,
      "Алт": 4252,
      "\" ишкан": 4253,
      "бек Б": 4254,
      "ин басма сөз": 4255,
      " министринин ": 4256,
      "үнүн к": 4257,
      "төрагасынын ": 4258,
      "жана к": 4259,
      "деди ": 4260,
      "олю": 4261,
      "акка к": 4262,
      "ттер": 4263,
      "онлайн ": 4264,
      "у үчүн ": 4265,
      "ары ж": 4266,
      "тургун": 4267,
      "айланыштуу к": 4268,
      " даярд": 4269,
      "аясат": 4270,
      "гандай": 4271,
      "алууга ": 4272,
      "пандем": 4273,
      " талап кыл": 4274,
      "Республик": 4275,
      "алил": 4276,
      "ап жатат.\n": 4277,
      " жана б": 4278,
      "Ош, ": 4279,
      " мыйзамсыз": 4280,
      " чакырым": 4281,
      "Борбор Азия": 4282,
      "кыл": 4283,
      "аппар": 4284,
      "дээрлик ": 4285,
      "елинд": 4286,
      "гөз": 4287,
      "еттик ": 4288,
      "ээж": 4289,
      " болбосо": 4290,
      " кырдаалдар": 4291,
      "ырс": 4292,
      "ишп": 4293,
      "диев": 4294,
      "Аталган ": 4295,
      "өзгөртүү": 4296,
      " түрдө": 4297,
      "адистер": 4298,
      "БУУнун ": 4299,
      "Улуттар Уюм": 4300,
      "арынан ": 4301,
      " бардык ": 4302,
      " - деген ": 4303,
      "ууну с": 4304,
      "илимий": 4305,
      "башкы ": 4306,
      "Баткенд": 4307,
      "Дүйнө": 4308,
      "Жогорку с": 4309,
      "мел": 4310,
      "ьш": 4311,
      "илет.\n": 4312,
      "ындагы ж": 4313,
      "үн, ": 4314,
      "оого ": 4315,
      "Сам": 4316,
      "ерек": 4317,
      " деп айт": 4318,
      "уюмунун ": 4319,
      "УКМК)": 4320,
      "\" беренес": 4321,
      " бербей": 4322,
      "референдум": 4323,
      "Акыр": 4324,
      "сайт": 4325,
      " көбөй": 4326,
      " ээл": 4327,
      "онт": 4328,
      "октябр": 4329,
      "үү иштер": 4330,
      "атка караганда, ": 4331,
      "и тууралуу": 4332,
      "ында бир": 4333,
      "өзбек ": 4334,
      "ектүү": 4335,
      " тарабынан ": 4336,
      "чейинки ": 4337,
      "Росс": 4338,
      "псих": 4339,
      "чың": 4340,
      "болб": 4341,
      "ерге к": 4342,
      " нече к": 4343,
      "ланд": 4344,
      "ашы ": 4345,
      "оюп": 4346,
      "узак ": 4347,
      "ылайык ": 4348,
      "итеттин ": 4349,
      " окуя": 4350,
      "ург": 4351,
      " болм": 4352,
      "дү\n": 4353,
      "33": 4354,
      "нам": 4355,
      " сез": 4356,
      "октуг": 4357,
      "арламент": 4358,
      "соңку": 4359,
      "аам": 4360,
      "жумуш": 4361,
      "канын ": 4362,
      " кый": 4363,
      "ип, к": 4364,
      "агдайл": 4365,
      " болгондукт": 4366,
      "мүл": 4367,
      "алдар ": 4368,
      "иялардын ": 4369,
      "социалдык тармакт": 4370,
      "елефон ": 4371,
      "күл": 4372,
      "пайда бол": 4373,
      "ын, к": 4374,
      "гө чейин ": 4375,
      "ажрыйб": 4376,
      "Эрд": 4377,
      "др": 4378,
      "териштир": 4379,
      "анб": 4380,
      "амин": 4381,
      "абырк": 4382,
      " баштаган ": 4383,
      "Түндүк ": 4384,
      "-жай": 4385,
      " деп ат": 4386,
      "бек К": 4387,
      "гер ": 4388,
      "тем": 4389,
      "көм": 4390,
      "игит": 4391,
      "соолуг": 4392,
      "омиссия": 4393,
      "фт": 4394,
      "илдетт": 4395,
      "чулар": 4396,
      "Кошмо Шт": 4397,
      "Мамлекеттик": 4398,
      "меди": 4399,
      " журналисттер": 4400,
      "акс": 4401,
      " да, ": 4402,
      " болуп жатат.\n": 4403,
      "ескин ": 4404,
      "аткарыл": 4405,
      " тург": 4406,
      "алгачк": 4407,
      "бийлиг": 4408,
      "\"В": 4409,
      "чаг": 4410,
      "атир": 4411,
      "абылган ": 4412,
      " жыл ": 4413,
      "пикирлер": 4414,
      "суу": 4415,
      " кармал": 4416,
      "айрадан ": 4417,
      "үнө к": 4418,
      "алып бар": 4419,
      "автоб": 4420,
      "Чоң": 4421,
      "елгенд": 4422,
      "укаш": 4423,
      "ы бул": 4424,
      "Сотт": 4425,
      "ель": 4426,
      "ээс": 4427,
      ", ал эми ": 4428,
      "-Ат": 4429,
      "рей": 4430,
      "та ": 4431,
      "умар": 4432,
      " талапкер": 4433,
      "ияны ": 4434,
      "ымбатт": 4435,
      ". (": 4436,
      "оло": 4437,
      " миңден ашуун ": 4438,
      "алгачкы ": 4439,
      "уучус": 4440,
      "ууга т": 4441,
      " кызматкер": 4442,
      "Беларус": 4443,
      " мамлекеттик": 4444,
      "урдагы ": 4445,
      "айтууда.\n": 4446,
      "-жаза к": 4447,
      "чет өлк": 4448,
      " комитетинин ": 4449,
      "Матраимов": 4450,
      "ованын ": 4451,
      "айтыл": 4452,
      "президенттик": 4453,
      "пиад": 4454,
      "саламатт": 4455,
      "кон ": 4456,
      "маанилүү": 4457,
      " себеп": 4458,
      "гон к": 4459,
      "окумушт": 4460,
      "соңку ": 4461,
      "ыйгарым": 4462,
      "анан ": 4463,
      "үп жатат.\n": 4464,
      "еңир": 4465,
      "дагы": 4466,
      "ар көп": 4467,
      "Бишкек шаардык ": 4468,
      "зор": 4469,
      ", мыйзам": 4470,
      "алты ": 4471,
      "атаанд": 4472,
      "издөө": 4473,
      "атканд": 4474,
      "орто": 4475,
      "сөздөр": 4476,
      " учурда ": 4477,
      "асындагы ": 4478,
      "соттол": 4479,
      "ХАМАС": 4480,
      " Х": 4481,
      "арь": 4482,
      "актап": 4483,
      "кенин ": 4484,
      "ан бул": 4485,
      " кеткен.\n": 4486,
      "ерге": 4487,
      "пайб": 4488,
      "алмаштыр": 4489,
      "өлчөм": 4490,
      "Жер": 4491,
      "Мад": 4492,
      "инен ажырат": 4493,
      " менен кош": 4494,
      "алапкер": 4495,
      " жоо": 4496,
      "акыл": 4497,
      " комментарий": 4498,
      "ошол кез": 4499,
      "соттун ": 4500,
      " тергө": 4501,
      "аданий": 4502,
      "пон": 4503,
      "өөнөт": 4504,
      "аршы ": 4505,
      " медицин": 4506,
      " дегенд": 4507,
      " алт": 4508,
      "ы тууралуу ": 4509,
      "Эң": 4510,
      " тармаг": 4511,
      "Кыргызстанга к": 4512,
      "антт": 4513,
      " салып": 4514,
      " санал": 4515,
      "мыйзам долбоор": 4516,
      " сомго": 4517,
      "ыйынтыкт": 4518,
      "Израилдин ": 4519,
      "Дүйнөлүк ": 4520,
      "Ур": 4521,
      "сүрөт": 4522,
      "түк": 4523,
      " канча ": 4524,
      "ов \"": 4525,
      "емир жол": 4526,
      " кабыл алын": 4527,
      "ter": 4528,
      " эреж": 4529,
      "актоо": 4530,
      "азырынч": 4531,
      "өз карандысыз": 4532,
      "завод": 4533,
      "уун ": 4534,
      " берип, ": 4535,
      "узарт": 4536,
      "үмүт": 4537,
      "чилик ": 4538,
      " жылдын ": 4539,
      "милдетин ": 4540,
      "аниянын ": 4541,
      "36": 4542,
      "алю": 4543,
      " жам": 4544,
      "асың": 4545,
      "адагы к": 4546,
      "ыгы к": 4547,
      "ыктыя": 4548,
      "эми ": 4549,
      "чү.\n": 4550,
      "ыюу с": 4551,
      "айтылган ": 4552,
      "үй кам": 4553,
      "өмүрүн ": 4554,
      "угалимдер": 4555,
      "Асан": 4556,
      "ини ": 4557,
      "асына ж": 4558,
      "ууга б": 4559,
      " адам ": 4560,
      " адамдын ": 4561,
      "ергей": 4562,
      "улду.\n": 4563,
      "асын": 4564,
      " дем": 4565,
      "ишке к": 4566,
      "Анын айтымында, ": 4567,
      "ку ур": 4568,
      "s ": 4569,
      "алганын ": 4570,
      "ыгы ж": 4571,
      "адамдын ": 4572,
      "айрам": 4573,
      "150": 4574,
      "абыт": 4575,
      "өнү": 4576,
      "еңс": 4577,
      " маалыматтар": 4578,
      ", -": 4579,
      " алып, ": 4580,
      "укугу ": 4581,
      "чыга ": 4582,
      "Куб": 4583,
      "улут": 4584,
      "ийим": 4585,
      "адамдар ": 4586,
      "маалыматтар": 4587,
      "спүр": 4588,
      " жерде ": 4589,
      "тым": 4590,
      "ып жатат.\n": 4591,
      " сап": 4592,
      "укка ": 4593,
      "еги ж": 4594,
      "езде": 4595,
      " аял": 4596,
      "аты": 4597,
      "ынан бери ": 4598,
      "тти.\n": 4599,
      "үрөө": 4600,
      "мөс": 4601,
      "жоопкер": 4602,
      "статистик": 4603,
      "алтыр": 4604,
      "агылыш": 4605,
      "тердин ": 4606,
      " түшүндүр": 4607,
      "чыккан.\n": 4608,
      " иштеп": 4609,
      "ох": 4610,
      "соз": 4611,
      " арада ": 4612,
      "оопкер": 4613,
      "арга б": 4614,
      " чыгып, ": 4615,
      " көрүнүш": 4616,
      " Республикасынын ": 4617,
      "ку к": 4618,
      "муз": 4619,
      "ык б": 4620,
      "ешет.\n": 4621,
      " каз": 4622,
      " күрөш": 4623,
      "анды ": 4624,
      "оммун": 4625,
      "инде с": 4626,
      "алдын алуу": 4627,
      " кил": 4628,
      "орун": 4629,
      "адам укукт": 4630,
      "байк": 4631,
      "198": 4632,
      "артамент": 4633,
      "or": 4634,
      "чыкты.\n": 4635,
      "олу": 4636,
      "е үчүн ": 4637,
      "икалык": 4638,
      "аңыз": 4639,
      "ык көр": 4640,
      "арга т": 4641,
      "Окт": 4642,
      "онститу": 4643,
      "өлкөм": 4644,
      "жетекчис": 4645,
      "ышкы иштер министри ": 4646,
      "Франция": 4647,
      "Азербайж": 4648,
      "пт": 4649,
      "ып, ж": 4650,
      "алдардын ": 4651,
      " сыяктуу ": 4652,
      "чылык ": 4653,
      "Тажикстан ": 4654,
      "Конституция": 4655,
      "Европа Биримдиг": 4656,
      "ККУ": 4657,
      "укашен": 4658,
      "үү, ": 4659,
      " сүйл": 4660,
      "үндөгү": 4661,
      "угалим": 4662,
      "ан баш тарт": 4663,
      "Чол": 4664,
      "гыр": 4665,
      "атыр": 4666,
      "ограф": 4667,
      "инде, ": 4668,
      "үп тур": 4669,
      "үй-бүлөс": 4670,
      "ан бери к": 4671,
      "он к": 4672,
      "экс-": 4673,
      " башталганд": 4674,
      "Борбордук шайлоо комисс": 4675,
      "аары ": 4676,
      " сыяктуу": 4677,
      "\" б": 4678,
      " кетт": 4679,
      "ол сал": 4680,
      "үгүт": 4681,
      "уусу ": 4682,
      "и, к": 4683,
      "ескер": 4684,
      "үүгө чакыр": 4685,
      "машин": 4686,
      "тик": 4687,
      "анк ": 4688,
      " эч": 4689,
      "Орусия менен ": 4690,
      "оолорго": 4691,
      "Улуттук б": 4692,
      " түшүн": 4693,
      "\"Кумтөр": 4694,
      "алдуу күчтөр": 4695,
      "ption": 4696,
      "Бер": 4697,
      " билим": 4698,
      "атта ": 4699,
      "атты ": 4700,
      "еги к": 4701,
      ", бул ": 4702,
      "насыя": 4703,
      "текшер": 4704,
      "анып, ": 4705,
      "амт": 4706,
      "өтөт.\n": 4707,
      " болсо ": 4708,
      "шайлан": 4709,
      "аныч": 4710,
      "га бар": 4711,
      "унуш": 4712,
      "ысы ": 4713,
      "убай": 4714,
      "тарап": 4715,
      "районундагы ": 4716,
      "Жапон": 4717,
      "Акт": 4718,
      "алким": 4719,
      "e ca": 4720,
      "mage ca": 4721,
      "mage caption": 4722,
      "жолд": 4723,
      "тоб": 4724,
      "учк": 4725,
      "экенин б": 4726,
      "Карак": 4727,
      "-келинд": 4728,
      "ортосунд": 4729,
      " деле ": 4730,
      "45": 4731,
      " кеп": 4732,
      "ени к": 4733,
      "стер": 4734,
      "арды, ": 4735,
      "аткамин": 4736,
      "айтылат.\n": 4737,
      "Былтыр": 4738,
      "ар т": 4739,
      "ын көр": 4740,
      "циялык к": 4741,
      "абарлаган.\n": 4742,
      "Эгерде": 4743,
      "баган ": 4744,
      "ги ": 4745,
      "гүн": 4746,
      "Орусиядагы ": 4747,
      "чилиги ": 4748,
      "оону ": 4749,
      " аркылуу ": 4750,
      " даяр": 4751,
      "Сиз": 4752,
      "ын бол": 4753,
      " маалымд": 4754,
      " жерден ": 4755,
      "эмгек ": 4756,
      "\" жана \"": 4757,
      "Бириккен Улуттар Уюм": 4758,
      "иё": 4759,
      "иштей": 4760,
      " мурдагы ": 4761,
      "чектөө": 4762,
      "үйө": 4763,
      "убл": 4764,
      "Украина ": 4765,
      " жылда ": 4766,
      "ултан": 4767,
      "ифик": 4768,
      "ar": 4769,
      "ьт": 4770,
      "аза ": 4771,
      "ары жана ": 4772,
      "оопт": 4773,
      "ыян": 4774,
      " көрсөткүч": 4775,
      "улуттук к": 4776,
      "убакытт": 4777,
      "аким": 4778,
      " сайын ": 4779,
      "армиясы ": 4780,
      "администр": 4781,
      "америкалык ": 4782,
      "Мирз": 4783,
      " байланыш": 4784,
      " чабуул": 4785,
      " Ток": 4786,
      "үүсү": 4787,
      "чогулт": 4788,
      "ө абаг": 4789,
      "Ол": 4790,
      "лан": 4791,
      "акын": 4792,
      "адр": 4793,
      "стандык ": 4794,
      "ечээ": 4795,
      "ына ылайык, ": 4796,
      "амсыздоо": 4797,
      "ыктымал.\n": 4798,
      "\"Ат": 4799,
      "иден ": 4800,
      "Евраз": 4801,
      "президенттик ": 4802,
      "-дарм": 4803,
      "Милиция": 4804,
      "ды к": 4805,
      "атуу": 4806,
      "өмөн": 4807,
      " башчысы ": 4808,
      "Дүйшөмб": 4809,
      "Эки ": 4810,
      "жек": 4811,
      "алест": 4812,
      "улов": 4813,
      "Алексей": 4814,
      " жыйын": 4815,
      "ардыр": 4816,
      "прот": 4817,
      " жүрөт.\n": 4818,
      "\" деп ": 4819,
      "альд": 4820,
      "ордукт": 4821,
      "фактыл": 4822,
      "бы?\n": 4823,
      "доо": 4824,
      " багыт": 4825,
      "елет.\n": 4826,
      "ардан к": 4827,
      " эле б": 4828,
      "ы түз": 4829,
      "энергетик": 4830,
      " өлкөдө": 4831,
      "талап кыл": 4832,
      " аракеттер": 4833,
      "\" м": 4834,
      "ЕА": 4835,
      "бл": 4836,
      "аган б": 4837,
      "еге": 4838,
      "ачып": 4839,
      "маалымдаг": 4840,
      "емпер": 4841,
      "үшкөн.\n": 4842,
      "финанс": 4843,
      " көйгөй": 4844,
      " бай": 4845,
      "ебепт": 4846,
      "ылмыш иши козгол": 4847,
      "бург": 4848,
      "\"Азаттык\" радиос": 4849,
      "-Ж": 4850,
      "пост": 4851,
      "атындагы ": 4852,
      "апп": 4853,
      "үп, к": 4854,
      "ары бир": 4855,
      "-март": 4856,
      "жакш": 4857,
      "елгиленген.\n": 4858,
      "-жаза кодексинин ": 4859,
      " илдет": 4860,
      "кус": 4861,
      "окуп": 4862,
      "жарым": 4863,
      " град": 4864,
      "ыйгарым укукт": 4865,
      "жум": 4866,
      "у боюнча ": 4867,
      "удай": 4868,
      "еттен": 4869,
      "эсеп": 4870,
      "оого чакыр": 4871,
      "ко тарт": 4872,
      "емператур": 4873,
      "Мамлекет": 4874,
      "жай": 4875,
      " ташт": 4876,
      "инц": 4877,
      "гө к": 4878,
      "ийик ": 4879,
      "ылдын ": 4880,
      "дарга ": 4881,
      "Азия": 4882,
      " башаламанд": 4883,
      "баш тарт": 4884,
      "проф": 4885,
      "Бүгүн ": 4886,
      " соо": 4887,
      "үмдү": 4888,
      " жүрүш": 4889,
      " каражаттар": 4890,
      "университетинин ": 4891,
      "саат ": 4892,
      "ачан ": 4893,
      "осм": 4894,
      "отурган ": 4895,
      "премьер-министри ": 4896,
      "ациясынын ": 4897,
      "оңшу ": 4898,
      "\"Талибан": 4899,
      "Ташк": 4900,
      "пер": 4901,
      "ча к": 4902,
      "ына, ": 4903,
      "елерди ": 4904,
      "400": 4905,
      "Бээж": 4906,
      "екит": 4907,
      "угу менен ": 4908,
      "аскерлери ": 4909,
      "ырааз": 4910,
      "Касым": 4911,
      "еден ": 4912,
      "инс": 4913,
      "унан к": 4914,
      "окуу": 4915,
      "эл аралык к": 4916,
      "олдогон ": 4917,
      "дароо": 4918,
      "Андан кийин ": 4919,
      "ин жана ": 4920,
      "ган, ": 4921,
      "угуп": 4922,
      "гонун ": 4923,
      "ожом": 4924,
      "журналисттер": 4925,
      " жан": 4926,
      " жең": 4927,
      "айырм": 4928,
      "ети ": 4929,
      "издеп": 4930,
      "айтылды.\n": 4931,
      "ыргыз-тажик ": 4932,
      " туруп": 4933,
      "аза болгонд": 4934,
      "34": 4935,
      "аныш": 4936,
      " кылды.\n": 4937,
      " менен т": 4938,
      " менен бир": 4939,
      "үлгү": 4940,
      "он кийин ": 4941,
      " берилген.\n": 4942,
      "уу сакт": 4943,
      "автордук ": 4944,
      "Сергей": 4945,
      "рек": 4946,
      "аттам": 4947,
      "армалган ": 4948,
      "оомдук": 4949,
      " жакын ": 4950,
      "ортосунда ": 4951,
      "ейшен": 4952,
      "вер": 4953,
      "алыбына келтир": 4954,
      " маанилүү": 4955,
      " текшер": 4956,
      "ыз ": 4957,
      "индик": 4958,
      "Ороз": 4959,
      "ырдаалд": 4960,
      "андайдыр бир": 4961,
      "ы\" ": 4962,
      "өөнүн ": 4963,
      "алектен": 4964,
      "асынан ": 4965,
      "уна": 4966,
      "мөөн": 4967,
      " парламентт": 4968,
      " сомдон ": 4969,
      "оев": 4970,
      "рах": 4971,
      "пул": 4972,
      "ром": 4973,
      "өспүр": 4974,
      "Биринчи ": 4975,
      "өлкөдөн ": 4976,
      "Акаев": 4977,
      "Жогорку Кеңештин депутаты ": 4978,
      "билдирди.\n": 4979,
      "айынан ": 4980,
      "енем": 4981,
      " карап": 4982,
      "уучулар": 4983,
      "Октябр": 4984,
      "ков": 4985,
      "кем": 4986,
      "сүрөтт": 4987,
      "чыр": 4988,
      "ын бер": 4989,
      "арыялады.\n": 4990,
      "көбү ": 4991,
      "Польш": 4992,
      "ресурст": 4993,
      "at": 4994,
      "орм": 4995,
      "ашкы ": 4996,
      "ооптон": 4997,
      ", мен ": 4998,
      "сот ": 4999,
      " жылдан бери ": 5000,
      " кылмыш иш": 5001,
      "Фейсбуктагы": 5002,
      "МК": 5003,
      "а\n": 5004,
      "гыл": 5005,
      "и\" ": 5006,
      "ып жаткан ": 5007,
      " болуп калды.\n": 5008,
      "\" деп айт": 5009,
      "га каршы күрөш": 5010,
      "өтүнүч": 5011,
      "аэропорт": 5012,
      "тоо": 5013,
      " алардын ": 5014,
      "Азыр ": 5015,
      "ушундай ": 5016,
      "\"Манас": 5017,
      "өндүрүш": 5018,
      "эки тарапт": 5019,
      "федер": 5020,
      " мүн": 5021,
      "аштар": 5022,
      "ы башт": 5023,
      "алынган.\n": 5024,
      "дарды ": 5025,
      "чалг": 5026,
      "атакт": 5027,
      "дик.\n": 5028,
      "одо": 5029,
      "анчалык ": 5030,
      "ласст": 5031,
      "Биринчи май райондук сот": 5032,
      "Молд": 5033,
      "Парламентт": 5034,
      "сүйл": 5035,
      " жөнөт": 5036,
      "өзбек": 5037,
      "алдуу ": 5038,
      "го ": 5039,
      "учурлар": 5040,
      "ызматташ": 5041,
      "Эркин ": 5042,
      "Чын": 5043,
      "аткан": 5044,
      "Дональд": 5045,
      "Сал": 5046,
      "үс": 5047,
      " кан": 5048,
      "өлгөн ": 5049,
      "өзүбүз": 5050,
      "үтүн ": 5051,
      "айтып бер": 5052,
      "Азыркы ": 5053,
      "Мурдагы ": 5054,
      " өтпөй": 5055,
      "ыскарт": 5056,
      "чет элдик ": 5057,
      " алды.\n": 5058,
      "Ша": 5059,
      "атар": 5060,
      "изация": 5061,
      " түзүл": 5062,
      " түшүр": 5063,
      "административ": 5064,
      "Быйыл ": 5065,
      "араш": 5066,
      " жолугуш": 5067,
      "үштүк": 5068,
      "ына байланыштуу ": 5069,
      "өнөкөй": 5070,
      "зар": 5071,
      " жеңил": 5072,
      " пандемияс": 5073,
      "дан кийин ": 5074,
      "милдетин аткар": 5075,
      "Аш": 5076,
      "Ок": 5077,
      "и үчүн ": 5078,
      "азайт": 5079,
      " болууда.\n": 5080,
      "өзөкт": 5081,
      " шарт": 5082,
      " маалымат ": 5083,
      "ы менен к": 5084,
      "ишмердиг": 5085,
      "Каб": 5086,
      "алкт": 5087,
      "аларды к": 5088,
      "өлүп": 5089,
      " эле т": 5090,
      " бөлүмүнүн ": 5091,
      "Райым": 5092,
      "рез": 5093,
      "ындагы б": 5094,
      "үндөгү ": 5095,
      "үгүнө": 5096,
      "процесс": 5097,
      "үнөөлүү": 5098,
      "орунун ": 5099,
      "итардык ": 5100,
      "үшүнө": 5101,
      "Садыр Жапаров": 5102,
      "же ": 5103,
      "ыпатт": 5104,
      " Сооронбай Жээн": 5105,
      " үчүн к": 5106,
      " берилген ": 5107,
      "Иран ": 5108,
      "тууралуу": 5109,
      "тамбул": 5110,
      "Тек": 5111,
      " машин": 5112,
      " жана башка ": 5113,
      "болуп": 5114,
      " жылдык ": 5115,
      "атка ылайык, ": 5116,
      "Бор": 5117,
      "мас": 5118,
      " турукт": 5119,
      "ошол ": 5120,
      " каражат": 5121,
      "огон.\n": 5122,
      "\"т": 5123,
      "бард": 5124,
      " коркунуч": 5125,
      "оппози": 5126,
      "иге ": 5127,
      "бай ": 5128,
      "фракцияс": 5129,
      "енч": 5130,
      "иш.\n": 5131,
      "үүчү ": 5132,
      "анын ичинде ": 5133,
      "пров": 5134,
      "арыя": 5135,
      "үм.\n": 5136,
      "елгилеген.\n": 5137,
      "ээк ": 5138,
      "Өзгөчө кырдаалдар": 5139,
      "ЕАЭБ": 5140,
      "Кемпир-Абад": 5141,
      "и?\n": 5142,
      "чалд": 5143,
      "өст": 5144,
      " бар экен": 5145,
      "чулар ": 5146,
      "эртең": 5147,
      "ып келет.\n": 5148,
      "Кызыл": 5149,
      "СР": 5150,
      "иятт": 5151,
      "көч": 5152,
      " чейин": 5153,
      "уу аракет": 5154,
      " жатабыз": 5155,
      "аңд": 5156,
      "деп айт": 5157,
      "овдун к": 5158,
      "Мындан тышкары ": 5159,
      "ызматкер": 5160,
      "сын ": 5161,
      "чунун ": 5162,
      "ымбат": 5163,
      "ынчсыздан": 5164,
      "Жыл": 5165,
      "а кет": 5166,
      "Алмат": 5167,
      " эле, ": 5168,
      "ызматы ": 5169,
      " тарат": 5170,
      "уу сактагы": 5171,
      "37": 5172,
      " маан": 5173,
      "оосун": 5174,
      "ап кал": 5175,
      "да бар.\n": 5176,
      "алда к": 5177,
      "ыкты к": 5178,
      " бөлүн": 5179,
      "экономикалык": 5180,
      "юджет": 5181,
      "документтер": 5182,
      "Темир": 5183,
      " ким": 5184,
      "амал": 5185,
      "езит": 5186,
      "ондун ": 5187,
      "Ош шаар": 5188,
      "автордук укугу ": 5189,
      " аб": 5190,
      "Жергиликтүү": 5191,
      " берүү ": 5192,
      " болуп кал": 5193,
      "чыгып, ": 5194,
      "гелешкен ": 5195,
      "сиң": 5196,
      " кадам": 5197,
      "ыктарды ": 5198,
      "а болуп": 5199,
      "ынчтык ": 5200,
      "Оку": 5201,
      "у?\n": 5202,
      "четт": 5203,
      "ьян": 5204,
      "үбө": 5205,
      "Өкмөтт": 5206,
      "инвестиция": 5207,
      "е бир": 5208,
      "а С": 5209,
      " берб": 5210,
      " баштады.\n": 5211,
      "ордуна ": 5212,
      "алма ": 5213,
      "иёев": 5214,
      "мушт": 5215,
      "ерб": 5216,
      "асын т": 5217,
      "алып кет": 5218,
      "окко чыгар": 5219,
      "Вен": 5220,
      "Кадыр": 5221,
      "сим": 5222,
      "оратор": 5223,
      "апит": 5224,
      " болчу": 5225,
      "оммер": 5226,
      "иштеш": 5227,
      "партиянын ": 5228,
      " койгон ": 5229,
      "-Таш": 5230,
      "38": 5231,
      "ага с": 5232,
      "а масел": 5233,
      "ип жатат.\n": 5234,
      " жаткан.\n": 5235,
      "убагында ": 5236,
      "оңой": 5237,
      "уусу": 5238,
      "ойлон": 5239,
      "Баш мыйзам": 5240,
      "Евробиримдикт": 5241,
      " градус": 5242,
      "жый": 5243,
      "нар": 5244,
      "сов": 5245,
      "эгер": 5246,
      " тапшыр": 5247,
      "Орусиядан ": 5248,
      "ууга м": 5249,
      "өбөл": 5250,
      " курал": 5251,
      " облустук ": 5252,
      "екке карш": 5253,
      "ra": 5254,
      "сумм": 5255,
      "арз": 5256,
      "асына к": 5257,
      "огонд": 5258,
      " турган.\n": 5259,
      "үнө кир": 5260,
      " Мам": 5261,
      "ин тийгиз": 5262,
      "ишке аш": 5263,
      " маалыматты ": 5264,
      "дээрлик": 5265,
      "үчө": 5266,
      "иялар ": 5267,
      "-жылдан бери ": 5268,
      "Кытай ": 5269,
      "оль": 5270,
      " дейт": 5271,
      " пул": 5272,
      "манкул": 5273,
      "Сүрөттүн автордук укугу ": 5274,
      " гана ": 5275,
      "Итал": 5276,
      "кү ": 5277,
      "ойлор": 5278,
      " келгенд": 5279,
      "ебаев": 5280,
      "өлкөдө ": 5281,
      "озго": 5282,
      " Москв": 5283,
      "гөндө": 5284,
      "32": 5285,
      "От": 5286,
      "учуп": 5287,
      " экспер": 5288,
      "оррупциялык ": 5289,
      "Бакыт": 5290,
      "мектеп": 5291,
      "шек сан": 5292,
      " тармакт": 5293,
      "асы, ": 5294,
      "анын ж": 5295,
      "ыктыр": 5296,
      " бар экенин ": 5297,
      "Укук коргоо": 5298,
      "Украинага к": 5299,
      " берилди.\n": 5300,
      "автоунаал": 5301,
      "Чыгыш": 5302,
      "зат": 5303,
      "ниет": 5304,
      "аттарды ": 5305,
      "уусун ": 5306,
      "\":": 5307,
      ").\n": 5308,
      " талд": 5309,
      "айтылып": 5310,
      "Ош ша": 5311,
      "айгаштыр": 5312,
      " жагдай": 5313,
      "иш-чар": 5314,
      "(УКМК)": 5315,
      "бүт": 5316,
      " манд": 5317,
      "ияз": 5318,
      "улган": 5319,
      "ызыл": 5320,
      "дим.\n": 5321,
      "башчыс": 5322,
      "абалы ": 5323,
      "Садыр Жапаров ": 5324,
      "\" мыйзам": 5325,
      "март": 5326,
      "уруп": 5327,
      "улат.\n": 5328,
      "ка чейин ": 5329,
      "Атайын к": 5330,
      "салык": 5331,
      "алиев ": 5332,
      "\"Бир": 5333,
      "Мас": 5334,
      "ишсиз": 5335,
      "өз ар": 5336,
      "ыгын к": 5337,
      "үүсүн ": 5338,
      "өнөктөштөр": 5339,
      "ыктыяр": 5340,
      "Бүгүнкү к": 5341,
      "Жет": 5342,
      "пор": 5343,
      "чөйр": 5344,
      "акул": 5345,
      "ажы к": 5346,
      "оорул": 5347,
      "бир нече ": 5348,
      " аракет кыл": 5349,
      "Акыркы ": 5350,
      "Эрдо": 5351,
      "мындан ": 5352,
      " коё": 5353,
      " төрт": 5354,
      "академ": 5355,
      "үшкөн ": 5356,
      "и жар": 5357,
      "эрт": 5358,
      "үктүн ": 5359,
      " өзүнүн ": 5360,
      "аныкталган.\n": 5361,
      "ал ушул": 5362,
      "\" ж": 5363,
      "Сов": 5364,
      "атыйж": 5365,
      " муз": 5366,
      "өлүн": 5367,
      "принц": 5368,
      "Кыргызстандан ": 5369,
      "аптада ": 5370,
      "Чыңг": 5371,
      "жерлер": 5372,
      "пайт.\n": 5373,
      "уя": 5374,
      " тасм": 5375,
      "Ала-": 5376,
      " документт": 5377,
      "мир": 5378,
      "арда т": 5379,
      "а боюнча ": 5380,
      "болчу.\n": 5381,
      "-майд": 5382,
      "Акырк": 5383,
      "\" кыймыл": 5384,
      "ухамм": 5385,
      "журналист": 5386,
      "рын": 5387,
      "атов": 5388,
      "иш алып бар": 5389,
      "ийинч": 5390,
      "дуг": 5391,
      "ичк": 5392,
      "ский ": 5393,
      " билдирген.\n": 5394,
      "ийликтин ": 5395,
      "мезгил": 5396,
      "серв": 5397,
      "онст": 5398,
      " чыкк": 5399,
      ", кыргыз": 5400,
      "октол": 5401,
      "ына таян": 5402,
      " мүчөлөр": 5403,
      "айрылуус": 5404,
      "Дональд Трамп": 5405,
      "иңиз": 5406,
      "ы мүмкүн ": 5407,
      "-чач": 5408,
      " кайрылуу": 5409,
      "чектөөлөр": 5410,
      "проток": 5411,
      "Жаңы ": 5412,
      "андык ": 5413,
      "гана т": 5414,
      " чөйр": 5415,
      "кени ": 5416,
      " чыгып": 5417,
      "ибдер": 5418,
      " менен күрөш": 5419,
      "ин жүргүз": 5420,
      "ача айтканд": 5421,
      "ойлойм.\n": 5422,
      "професс": 5423,
      "Дар": 5424,
      "Эмил": 5425,
      "байланыш": 5426,
      " байланышт": 5427,
      "илердин ": 5428,
      "икм": 5429,
      "айткан": 5430,
      " команд": 5431,
      "а болгон ": 5432,
      " жашаган ": 5433,
      "Жээнбеков": 5434,
      "Улуттук коопсуздук боюнча мамлекеттик ком": 5435,
      "Коопсуздук к": 5436,
      "гл": 5437,
      "рев": 5438,
      "техник": 5439,
      "имч": 5440,
      "ы жаз": 5441,
      "уулар ": 5442,
      "олдоос": 5443,
      " карант": 5444,
      "аткаруу": 5445,
      "Мадумар": 5446,
      "Бал": 5447,
      "Көл": 5448,
      "Мына ": 5449,
      "гур": 5450,
      "дын к": 5451,
      "ну ": 5452,
      "Кыргыз Республикасынын ": 5453,
      "ыштыр": 5454,
      "бул ": 5455,
      "макулдаш": 5456,
      "облустук ": 5457,
      "ы керек": 5458,
      "Ne": 5459,
      "ы, ж": 5460,
      "анга ": 5461,
      "ак жай": 5462,
      "уз.\n": 5463,
      "ислам": 5464,
      "атышкан ": 5465,
      " өзү": 5466,
      " Аб": 5467,
      "ат деп": 5468,
      "ында.\n": 5469,
      "үч ": 5470,
      "ооптуу": 5471,
      "Ирандын ": 5472,
      "ыргызстандык": 5473,
      " болоб": 5474,
      "ендир": 5475,
      "Кыргызстанда ж": 5476,
      " жакта ": 5477,
      "жетекчилер": 5478,
      "улуттук": 5479,
      "ы керек ": 5480,
      "оолуу районд": 5481,
      "Ак ": 5482,
      "мал": 5483,
      "очул": 5484,
      "пенс": 5485,
      "илин": 5486,
      "ашык к": 5487,
      "уланып": 5488,
      "еңейт": 5489,
      "Кыргызстандын ж": 5490,
      "иев ": 5491,
      "июн": 5492,
      "аялдардын ": 5493,
      "енция": 5494,
      "ол коюл": 5495,
      "турат.\n": 5496,
      "ийлигиш": 5497,
      "эркинен ажырат": 5498,
      "эмне": 5499,
      "саламаттык сактоо": 5500,
      "Тергөө": 5501,
      "Осмон": 5502,
      "анууда.\n": 5503,
      " мамлекетт": 5504,
      "ын\" к": 5505,
      " борборунун ": 5506,
      "оюлган ": 5507,
      "елеграм": 5508,
      "Ник": 5509,
      "доом": 5510,
      " бойдон ": 5511,
      " талк": 5512,
      "ункт": 5513,
      "убада к": 5514,
      "абылган.\n": 5515,
      "Айыл": 5516,
      "өздөп": 5517,
      " \"Азаттыкк": 5518,
      "лиценз": 5519,
      "\"ж": 5520,
      "сайын ": 5521,
      " кеч": 5522,
      "уунд": 5523,
      "акшы ": 5524,
      "ейк": 5525,
      "ы мыйзам": 5526,
      "максат": 5527,
      "керлердин ": 5528,
      "жүрүш": 5529,
      "ишмердүүл": 5530,
      "администрация": 5531,
      "усулманд": 5532,
      "пайбы.\n": 5533,
      "ийинчер": 5534,
      "Шв": 5535,
      "чынд": 5536,
      "анн": 5537,
      " матери": 5538,
      "ооган ": 5539,
      "уу иштер": 5540,
      "армап": 5541,
      "ачыкка ": 5542,
      "ден соолуг": 5543,
      " жылдан ": 5544,
      " облусунда ": 5545,
      " З": 5546,
      "Кат": 5547,
      "рол": 5548,
      " тарм": 5549,
      "деңиз": 5550,
      " алат.\n": 5551,
      "елерин ": 5552,
      "уюмдун ": 5553,
      "соту ": 5554,
      "-түз": 5555,
      "аныкталды.\n": 5556,
      "толук ": 5557,
      "укук коргоо органд": 5558,
      "ассалык ": 5559,
      "дегенде ": 5560,
      "кыргыз": 5561,
      " тапт": 5562,
      " талкуул": 5563,
      " элдин ": 5564,
      "ы бар ": 5565,
      "эск": 5566,
      "тартып": 5567,
      " жатканын билдирди.\n": 5568,
      "Украинадагы согуш": 5569,
      "экспертиз": 5570,
      "ескерис": 5571,
      "тышк": 5572,
      "ыял": 5573,
      "уу тууралуу": 5574,
      "үргөн ": 5575,
      " барып": 5576,
      "олдук": 5577,
      "Анкар": 5578,
      " жол менен ": 5579,
      "окуялар": 5580,
      "ваку": 5581,
      "Менин ": 5582,
      "ары боюнча ": 5583,
      "ентябр": 5584,
      "аан-чач": 5585,
      "форум": 5586,
      "сынга ": 5587,
      "\" партияс": 5588,
      "осун ": 5589,
      "ичинде к": 5590,
      "Ош, Жалал-Абад": 5591,
      "oo": 5592,
      "ктөр": 5593,
      "ейман": 5594,
      "а бакч": 5595,
      "саясатт": 5596,
      "милли": 5597,
      "интернет": 5598,
      "ууда\n": 5599,
      "Жо ": 5600,
      "Тоолуу ": 5601,
      "ат?\n": 5602,
      " турганд": 5603,
      "Ошон": 5604,
      "айдоочул": 5605,
      " тараб": 5606,
      "Исак": 5607,
      "кон.\n": 5608,
      "окуу жайл": 5609,
      "Окуя": 5610,
      ".k": 5611,
      "ы бар.\n": 5612,
      "е кыл": 5613,
      "өнүп": 5614,
      "учурда к": 5615,
      " чыгыш": 5616,
      " болгонун б": 5617,
      "естр": 5618,
      " койду.\n": 5619,
      "Чолпон": 5620,
      "ескерисинч": 5621,
      "!\"": 5622,
      "\"Х": 5623,
      "шек": 5624,
      "абы?\n": 5625,
      "ү үчүн ": 5626,
      " жазып": 5627,
      "пидеми": 5628,
      "44": 5629,
      "st": 5630,
      " быйыл": 5631,
      "үү жана ": 5632,
      " сыйл": 5633,
      "ыгерлер": 5634,
      "и кар": 5635,
      "Бирок бул": 5636,
      " мурун ": 5637,
      "Иранд": 5638,
      "структур": 5639,
      "агнер": 5640,
      "үрөөк ": 5641,
      "мөлөр": 5642,
      "аск": 5643,
      "ишинин ": 5644,
      "эскертти.\n": 5645,
      "Казакстанда ": 5646,
      "басма сөз кызмат": 5647,
      "үй камагына ": 5648,
      "тармакт": 5649,
      "чарал": 5650,
      " козгол": 5651,
      " мындан ": 5652,
      " таг": 5653,
      "асып ал": 5654,
      "ы жет": 5655,
      "чүлүгү": 5656,
      " жүзүндө": 5657,
      "рит": 5658,
      "хем": 5659,
      " кыймыл": 5660,
      "айыр": 5661,
      " мен ": 5662,
      "ардын саны ": 5663,
      ", кар": 5664,
      "унда б": 5665,
      "ок ат": 5666,
      "Украинага ": 5667,
      "ыкка к": 5668,
      "оо иштер": 5669,
      "Ага ылайык, ": 5670,
      "Мирзиёев": 5671,
      " уч": 5672,
      "валю": 5673,
      "идик": 5674,
      "агасы ": 5675,
      "гандай, ": 5676,
      "июл": 5677,
      "ына байланыштуу": 5678,
      "емби к": 5679,
      "\"Азаттыкка\" ": 5680,
      "Навальный": 5681,
      "амп": 5682,
      "ык т": 5683,
      "у - ": 5684,
      "Кыргызст": 5685,
      "ештир": 5686,
      " - деп айтыл": 5687,
      "электр энерг": 5688,
      "75": 5689,
      "Батышт": 5690,
      "лаб": 5691,
      "анды\n": 5692,
      "акк": 5693,
      "омб": 5694,
      ", көп": 5695,
      "алып жатат.\n": 5696,
      "Ички иштер министрлигинин ": 5697,
      "мекемелер": 5698,
      "мүн": 5699,
      "судья": 5700,
      " ко": 5701,
      "адил": 5702,
      "онг": 5703,
      "овду ": 5704,
      "Бизде": 5705,
      "негизинен ": 5706,
      " (+": 5707,
      " жатат\n": 5708,
      "саясий ": 5709,
      "сак, ": 5710,
      "ылмыштуу": 5711,
      "бил": 5712,
      " суу": 5713,
      "ичинде": 5714,
      "естиг": 5715,
      "биздин ": 5716,
      "ch": 5717,
      "кызматкерлер": 5718,
      " танд": 5719,
      "ырай": 5720,
      "адис": 5721,
      "өт\n": 5722,
      "ачкынд": 5723,
      "өгөт чар": 5724,
      "Аск": 5725,
      "Стамбул": 5726,
      "Чет": 5727,
      "анган": 5728,
      "өтө ": 5729,
      "ризис": 5730,
      "зарылд": 5731,
      "икал": 5732,
      "ында т": 5733,
      "экстрем": 5734,
      "чылар ": 5735,
      "чара көр": 5736,
      "басма сөз катчысы ": 5737,
      "\"Азаттыктын\" ": 5738,
      "үк ташуу": 5739,
      "чагылдыр": 5740,
      "өлүктөр": 5741,
      "терең": 5742,
      " айылд": 5743,
      " наараз": 5744,
      "агенттиги ": 5745,
      " жабд": 5746,
      "республикалык ": 5747,
      " уюштур": 5748,
      "набыт": 5749,
      "рант": 5750,
      "илкес": 5751,
      "Эмг": 5752,
      " саналат.\n": 5753,
      "маалымдаган.\n": 5754,
      "Федер": 5755,
      " көб": 5756,
      "алаң": 5757,
      " буга ": 5758,
      "өтүү": 5759,
      "обушт": 5760,
      "армалган.\n": 5761,
      "аарын ": 5762,
      "и жок ": 5763,
      "акыркы ж": 5764,
      "инвести": 5765,
      "ou": 5766,
      " чыкт": 5767,
      "үшүп": 5768,
      "чыгым": 5769,
      "ошол эле ": 5770,
      " жакшы ": 5771,
      "көбү": 5772,
      "Британиянын ": 5773,
      "иш-чарал": 5774,
      "ак-аш": 5775,
      "Түштүк Корея": 5776,
      "үздөгөн ": 5777,
      "провин": 5778,
      "ov": 5779,
      "Нар": 5780,
      "онсул": 5781,
      "ди, ": 5782,
      "Улуттук коопсуздук боюнча мамлекеттик комитет": 5783,
      "миграция": 5784,
      "Оор": 5785,
      "дес": 5786,
      "арды жана ": 5787,
      "инде м": 5788,
      "уга к": 5789,
      "үтүп": 5790,
      "а мамлекет": 5791,
      "негизде": 5792,
      " экендиг": 5793,
      "-июн": 5794,
      "шайл": 5795,
      "амат ": 5796,
      "асып": 5797,
      "үзгүл": 5798,
      " калк": 5799,
      "курам": 5800,
      "ыюу сал": 5801,
      "Кылмыш-жаза кодексинин ": 5802,
      "Албетте": 5803,
      "ион": 5804,
      "ы, м": 5805,
      "олк": 5806,
      "асын ж": 5807,
      "өтүп, ": 5808,
      "ык менен ": 5809,
      "өзгө": 5810,
      "үмүш": 5811,
      " айтты.\n": 5812,
      "-жылга чейин ": 5813,
      "атышат.\n": 5814,
      "дүн к": 5815,
      " жаштагы к": 5816,
      "дост": 5817,
      " кезде": 5818,
      "елефонд": 5819,
      "мамлекеттер": 5820,
      "Кара-С": 5821,
      "иши керек.\n": 5822,
      "аппарат": 5823,
      " былтыр": 5824,
      "агдай": 5825,
      "аба ": 5826,
      "Кыргыз ": 5827,
      " келет": 5828,
      "арга ж": 5829,
      "сактоо ": 5830,
      "га карат": 5831,
      "үүсүнө": 5832,
      "уучулардын ": 5833,
      "Конституциялык ": 5834,
      "итептер": 5835,
      "оскоол": 5836,
      " В": 5837,
      "48": 5838,
      "55": 5839,
      "Кой": 5840,
      " котор": 5841,
      "олтур": 5842,
      "андар": 5843,
      "атканын ": 5844,
      " катары б": 5845,
      "делег": 5846,
      "Би-Би-Си": 5847,
      "Ko": 5848,
      "ау": 5849,
      "ижар": 5850,
      "ы болгон ": 5851,
      " кабыл": 5852,
      "эле ж": 5853,
      "ошо": 5854,
      "маил": 5855,
      " болду\n": 5856,
      "ыдыр": 5857,
      "али ": 5858,
      "атынан ": 5859,
      "армиясынын ": 5860,
      " жатканын к": 5861,
      "Ар бир": 5862,
      " - деди ал.\n": 5863,
      "омиссиянын ": 5864,
      "ариж": 5865,
      "Финанс": 5866,
      "ed": 5867,
      "а, бул": 5868,
      " банк": 5869,
      "урган ": 5870,
      "үү.\n": 5871,
      "азд": 5872,
      "өп, ": 5873,
      "айды ": 5874,
      "ин кар": 5875,
      "193": 5876,
      " Түрк": 5877,
      " башчыс": 5878,
      "тартиб": 5879,
      "долбоорлор": 5880,
      ", биздин ": 5881,
      "ыдык": 5882,
      "СССР": 5883,
      "Депутат ": 5884,
      "Аял": 5885,
      " салган ": 5886,
      "үлгөн": 5887,
      "ында ж": 5888,
      ", алар ": 5889,
      "алпыга ": 5890,
      "активдүү": 5891,
      "ооруканага ж": 5892,
      " Image caption": 5893,
      " T": 5894,
      "такт": 5895,
      "оо боюнча ": 5896,
      "гана б": 5897,
      " болорун ": 5898,
      "олдор": 5899,
      " арг": 5900,
      "өлкөгө": 5901,
      " Кар": 5902,
      "окуян": 5903,
      "өкмөт уюм": 5904,
      " маселе": 5905,
      "ө иштер": 5906,
      "ына жана ": 5907,
      "Аскер": 5908,
      " жагынан ": 5909,
      "Болот": 5910,
      "el": 5911,
      "зордукт": 5912,
      "и \"": 5913,
      "абек": 5914,
      "ганын к": 5915,
      "укканд": 5916,
      "ашкан": 5917,
      "утум": 5918,
      "и кат": 5919,
      "ивдүү": 5920,
      "дайын": 5921,
      "дөн ашуун ": 5922,
      "ология": 5923,
      "Москванын ": 5924,
      "Ушундай": 5925,
      "аак ": 5926,
      "шан ": 5927,
      " көзөмөл": 5928,
      "атынын ": 5929,
      "ул ": 5930,
      "бир бөл": 5931,
      "убер": 5932,
      "аны менен ": 5933,
      " жаран ": 5934,
      "маалыматы": 5935,
      " билдирүү": 5936,
      "егерег": 5937,
      "паспорт": 5938,
      "Бириккен Улуттар Уюмунун ": 5939,
      " арт": 5940,
      ". ": 5941,
      "Иб": 5942,
      " кабарл": 5943,
      " чарал": 5944,
      "үлүүдө.\n": 5945,
      "бир топ": 5946,
      " Жогорку Кеңеш": 5947,
      "миңдеген ": 5948,
      "енелер": 5949,
      "ыгынан ": 5950,
      "а жол": 5951,
      " \"К": 5952,
      "ырастады.\n": 5953,
      "Вашингтон ": 5954,
      "Ошол эле учурда ": 5955,
      "Райымбек ": 5956,
      "кыз": 5957,
      "маданият": 5958,
      "тен ": 5959,
      " жаат": 5960,
      "ык, ": 5961,
      "Бул жерде": 5962,
      "ебер": 5963,
      "агандай": 5964,
      "соттук ": 5965,
      "Чек ара к": 5966,
      "Саясат": 5967,
      "жоо": 5968,
      ", жаш": 5969,
      " жазды.\n": 5970,
      "га байланыштуу ": 5971,
      "шектүү": 5972,
      " мөөнөт": 5973,
      "аттары ": 5974,
      " берүүнү": 5975,
      "ыктарын ": 5976,
      " дин": 5977,
      " айтканд": 5978,
      "дары-дарм": 5979,
      "мындай ": 5980,
      "елген.\n": 5981,
      "ыйр": 5982,
      "айтышты.\n": 5983,
      "ыскар": 5984,
      " жолу": 5985,
      "айрым ": 5986,
      "сөз эркиндиг": 5987,
      "Нур-С": 5988,
      "Путиндин ": 5989,
      "адвокаты ": 5990,
      "Соңку": 5991,
      "\"О": 5992,
      "инов": 5993,
      "орус тил": 5994,
      "омпания": 5995,
      "Германиянын ": 5996,
      "үзгүлтүк": 5997,
      "ZKo": 5998,
      "айга ": 5999,
      "элчилиг": 6000,
      "дарын ": 6001,
      "ышканын ": 6002,
      "өлкөдөгү": 6003,
      "маег": 6004,
      "Президенттин ": 6005,
      " күндөрү ": 6006,
      "адабият": 6007,
      "чакт": 6008,
      "ү боюнча ": 6009,
      "агресс": 6010,
      "имовдун ": 6011,
      "олдош": 6012,
      "алып жаткан ": 6013,
      " салмакт": 6014,
      "алкаг": 6015,
      "илимдер": 6016,
      "уд ": 6017,
      "маалымдоо": 6018,
      "дин т": 6019,
      " Кур": 6020,
      "и тер": 6021,
      "и билдир": 6022,
      " атат.\n": 6023,
      "деги к": 6024,
      "эң ": 6025,
      " млн. сом": 6026,
      "120": 6027,
      "мөткө": 6028,
      " кем": 6029,
      "\" фракцияс": 6030,
      "ебей": 6031,
      " болгону ": 6032,
      " жазылган.\n": 6033,
      "облусунда ": 6034,
      "акча к": 6035,
      "Ошондо": 6036,
      " койгон": 6037,
      "жүргүз": 6038,
      "рордук ": 6039,
      "генер": 6040,
      " Темир": 6041,
      " миллиондон ": 6042,
      "га карш": 6043,
      " кайрыл": 6044,
      " эч кандай": 6045,
      "мамлекетт": 6046,
      "чег": 6047,
      "алаш": 6048,
      "аганын б": 6049,
      " тез": 6050,
      "играция": 6051,
      "ы министрлиг": 6052,
      "а \"": 6053,
      "олор": 6054,
      "итир": 6055,
      "и жок": 6056,
      "ордон ": 6057,
      "нааразылык акциял": 6058,
      "учкуч": 6059,
      "дан": 6060,
      " кылд": 6061,
      " балдар": 6062,
      "елген": 6063,
      " жана анын ": 6064,
      "ынчтык": 6065,
      "чыгармачыл": 6066,
      " килограмм": 6067,
      "ZKo)\n": 6068,
      "Билим берүү": 6069,
      "мед": 6070,
      " митинг": 6071,
      "азай": 6072,
      "үлө": 6073,
      "үндүн ": 6074,
      " эле с": 6075,
      "ын жаз": 6076,
      "жетекчилиг": 6077,
      "омитетинин ": 6078,
      "700": 6079,
      " бошот": 6080,
      "уля": 6081,
      "унут": 6082,
      "көң": 6083,
      "ектур": 6084,
      "ыска ": 6085,
      "мөн ": 6086,
      "үктү": 6087,
      "дөн к": 6088,
      "ызматтан кет": 6089,
      "айкын ": 6090,
      " болбойт": 6091,
      "есепет": 6092,
      "ашыг": 6093,
      "алдың": 6094,
      "иптер": 6095,
      "арт Ток": 6096,
      "елерди": 6097,
      "АКШда ": 6098,
      " башчы ": 6099,
      " эсеб": 6100,
      "ологиялык": 6101,
      "у токтот": 6102,
      "ийликке к": 6103,
      "бү": 6104,
      "юс": 6105,
      " же к": 6106,
      "елар": 6107,
      "ика ": 6108,
      "дөн": 6109,
      "бир катар": 6110,
      "ичин": 6111,
      " болуп жаткан ": 6112,
      "ымды ": 6113,
      "уткунд": 6114,
      "өбүз.\n": 6115,
      "аткаминерлер": 6116,
      "Эрдоган ": 6117,
      "\" долбоор": 6118,
      "ы деп": 6119,
      "олук": 6120,
      "акир": 6121,
      "ейр": 6122,
      " чыкканд": 6123,
      "ы жылд": 6124,
      " пикир": 6125,
      "а министр": 6126,
      "айрылып, ": 6127,
      "47": 6128,
      "луб": 6129,
      "не": 6130,
      "а көп": 6131,
      " согушт": 6132,
      "ы жыл": 6133,
      "ээ бир ": 6134,
      "чылардын ": 6135,
      "ин билдирген.\n": 6136,
      "өкүлү": 6137,
      " баштаган.\n": 6138,
      "оомчулук ": 6139,
      "арды түз": 6140,
      "убернат": 6141,
      "чи ": 6142,
      "ович": 6143,
      "иги ": 6144,
      " барган ": 6145,
      "ан башт": 6146,
      "генден кийин ": 6147,
      " башында ": 6148,
      "пикирин ": 6149,
      "Маалыматка караганда, ": 6150,
      ", анын ичинде ": 6151,
      "Министрлер кабинетинин төрагасы ": 6152,
      "ГЭС": 6153,
      "Эгер ": 6154,
      "улуп, ": 6155,
      "адар": 6156,
      "ектеген ": 6157,
      "лекс": 6158,
      "бир ": 6159,
      "бири.\n": 6160,
      "\" (": 6161,
      " салыш": 6162,
      "арыялаган.\n": 6163,
      "шаарындагы ": 6164,
      "белгил": 6165,
      "муктаж": 6166,
      " жашка ": 6167,
      ", К": 6168,
      "ин.\n": 6169,
      "ашып, ": 6170,
      " жатып, ": 6171,
      "шайлоонун ": 6172,
      " адамдар": 6173,
      "жолуг": 6174,
      " органдар": 6175,
      " жабырк": 6176,
      " министринин орун басары ": 6177,
      "Октябрь ": 6178,
      "алпыга маалымдоо": 6179,
      "39": 6180,
      "догу ": 6181,
      " май": 6182,
      " тапта ": 6183,
      "армияс": 6184,
      " туура эмес": 6185,
      "ууга уруксат": 6186,
      "жакын ": 6187,
      "арналган ": 6188,
      "начарл": 6189,
      "Былтыр ": 6190,
      "тан": 6191,
      "атбек ": 6192,
      "иден": 6193,
      "Орт": 6194,
      "убатт": 6195,
      " чыгып кет": 6196,
      "и биз": 6197,
      "уучулары ": 6198,
      "прокурор": 6199,
      "зомбулукт": 6200,
      "үчүнчү ": 6201,
      "оопсуздугун к": 6202,
      "аргасыз": 6203,
      "Ага чейин ": 6204,
      "Маданият": 6205,
      "Париж": 6206,
      "кы т": 6207,
      "ы, б": 6208,
      " быйыл ": 6209,
      " мигрантт": 6210,
      "иш-": 6211,
      "үрмө": 6212,
      "да-": 6213,
      "өлкө ": 6214,
      "аларынын ": 6215,
      "өз караш": 6216,
      "ааттандыр": 6217,
      "юридик": 6218,
      "салыштырм": 6219,
      "Ади": 6220,
      "Иман": 6221,
      "эгеменд": 6222,
      "ене": 6223,
      "экспортт": 6224,
      " карш": 6225,
      "дук-": 6226,
      "Жогорку ": 6227,
      "Им": 6228,
      " банкт": 6229,
      "ин\"": 6230,
      " дагы к": 6231,
      "иктир": 6232,
      "агандар": 6233,
      "циясынын ": 6234,
      "Алматы ": 6235,
      "Тегер": 6236,
      "чыкт": 6237,
      " жуктур": 6238,
      "ерде": 6239,
      "емет": 6240,
      " бир топ": 6241,
      "-жылы т": 6242,
      " кызмат ": 6243,
      "агандай, ": 6244,
      "шайлоо ": 6245,
      "келишим": 6246,
      ". - ": 6247,
      "и боюнча к": 6248,
      "ндөр": 6249,
      "агын ": 6250,
      "көнүн ": 6251,
      "үчтүү": 6252,
      " чынд": 6253,
      " дарыл": 6254,
      "и кабарл": 6255,
      " деген к": 6256,
      " пол": 6257,
      " иш-ч": 6258,
      "циал": 6259,
      "автом": 6260,
      "Мындан улам": 6261,
      "президент Алмазбек Атамбаев": 6262,
      "көңүл": 6263,
      "et": 6264,
      " кг": 6265,
      "олот": 6266,
      "денд": 6267,
      "ияга к": 6268,
      "абад": 6269,
      "аалай": 6270,
      "197": 6271,
      "баева ": 6272,
      "караж": 6273,
      "Экспер": 6274,
      " тилк": 6275,
      "-январд": 6276,
      "парламенттин ": 6277,
      "аягына чейин ": 6278,
      "оскоолдук": 6279,
      "вари": 6280,
      "мерлер": 6281,
      "өгү": 6282,
      "иге ж": 6283,
      "биринч": 6284,
      "бир катар ": 6285,
      "и жүрүп": 6286,
      "ээг": 6287,
      "Акыйкат": 6288,
      "ымдуу": 6289,
      "шарт түз": 6290,
      "өйгөйлөр": 6291,
      "-Жом": 6292,
      "лаборатор": 6293,
      "Уб": 6294,
      "ге м": 6295,
      "ө ал": 6296,
      " канал": 6297,
      "ынкы ": 6298,
      "ишкен": 6299,
      "окус": 6300,
      "демонст": 6301,
      " берилет.\n": 6302,
      " койгон.\n": 6303,
      "...+": 6304,
      "өтөрүп": 6305,
      " макул": 6306,
      "районунда ": 6307,
      "жабырк": 6308,
      "бүз.\n": 6309,
      "Рыс": 6310,
      " менен ж": 6311,
      "умушт": 6312,
      "шаарынын ": 6313,
      "жокп": 6314,
      "-Жомарт Ток": 6315,
      "аарм": 6316,
      "өгө": 6317,
      " көз": 6318,
      "уу жар": 6319,
      "инжаң": 6320,
      "и Б": 6321,
      "аксат": 6322,
      "үү тууралуу": 6323,
      " саат ": 6324,
      "ы кат": 6325,
      " биринчи ": 6326,
      "ан бошот": 6327,
      " кетип": 6328,
      "и башт": 6329,
      "маалыматына ылайык, ": 6330,
      "ушул ": 6331,
      "Исмаил": 6332,
      "митр": 6333,
      "чаралар": 6334,
      "ардык кеңеш": 6335,
      "Бийлик ": 6336,
      "онц": 6337,
      "дум": 6338,
      "утур": 6339,
      "дерди": 6340,
      "ээли": 6341,
      "уучулар ": 6342,
      "уу систем": 6343,
      "укугун к": 6344,
      "Бишкек шаарынын ": 6345,
      "65": 6346,
      "байланышт": 6347,
      "мет": 6348,
      "адык.\n": 6349,
      "ыгып": 6350,
      "артыкчыл": 6351,
      " жатам.\n": 6352,
      "уттукт": 6353,
      "ыйынчыл": 6354,
      "аандык ": 6355,
      "үскө": 6356,
      ".б": 6357,
      "ны к": 6358,
      " күндөн ": 6359,
      "ашаган ": 6360,
      " сынд": 6361,
      " ал ": 6362,
      "үйүн": 6363,
      "ахт": 6364,
      "соода ": 6365,
      "институтт": 6366,
      "мин.\n": 6367,
      "өз алдынча ": 6368,
      "аап, ": 6369,
      "төн ": 6370,
      "шар": 6371,
      " бюджетт": 6372,
      " мектепт": 6373,
      " саб": 6374,
      "үлүп, ": 6375,
      "и катары ": 6376,
      "өкмөткө": 6377,
      "амлекетке ": 6378,
      "турмуш": 6379,
      " адамд": 6380,
      "ранспортт": 6381,
      "дук.\n": 6382,
      "өмүрү к": 6383,
      "тааныш": 6384,
      "\"Азаттыктын\"": 6385,
      " аргасыз": 6386,
      "реги": 6387,
      " буйр": 6388,
      "имов ": 6389,
      "ев ": 6390,
      "ардын т": 6391,
      "Кыргызстандын т": 6392,
      "ишкен ": 6393,
      "Андан тышкары ": 6394,
      " жаңыл": 6395,
      "Мекеменин ": 6396,
      " жек": 6397,
      "ин көр": 6398,
      "ине с": 6399,
      " спорт": 6400,
      "аттан": 6401,
      " миң долл": 6402,
      "аймактар": 6403,
      "ойлоп": 6404,
      "интип": 6405,
      "өөнү": 6406,
      "Олимпиад": 6407,
      " Абд": 6408,
      "аак": 6409,
      "бес": 6410,
      " таш": 6411,
      "ыгер": 6412,
      "атка к": 6413,
      "репресс": 6414,
      "алпы к": 6415,
      "укуктук ": 6416,
      "үй-бүлөлүк ": 6417,
      " деп эсептейт.\n": 6418,
      "абай ": 6419,
      "эки б": 6420,
      " калганын ": 6421,
      " миңге ж": 6422,
      "естив": 6423,
      "ыбыз керек.\n": 6424,
      "аягында ": 6425,
      "саммит": 6426,
      "көндөр": 6427,
      "Жогорку сот": 6428,
      "Журналист": 6429,
      "Рус": 6430,
      "мектептер": 6431,
      "нев": 6432,
      "пайт": 6433,
      "ади": 6434,
      "үүгө болот.\n": 6435,
      "Тилекке карш": 6436,
      "дүк.\n": 6437,
      "Ибра": 6438,
      "ге с": 6439,
      "ды\n": 6440,
      "ымдын ": 6441,
      "икчил": 6442,
      "обой": 6443,
      "игер": 6444,
      "өзөмөлдөө": 6445,
      "Путинд": 6446,
      "үрөөк": 6447,
      "студенттер": 6448,
      "доор": 6449,
      " мед": 6450,
      "стиция": 6451,
      "иси": 6452,
      "ууларды ": 6453,
      "айдан ": 6454,
      " жарак": 6455,
      "айыл чарб": 6456,
      "кулов": 6457,
      "чек арасындагы ": 6458,
      "ууга чакырды.\n": 6459,
      "ыңгайл": 6460,
      "гуманитардык": 6461,
      "есип": 6462,
      "алуу үчүн ": 6463,
      "өсүп": 6464,
      "алиевдин ": 6465,
      "жарандык ": 6466,
      " катышкан ": 6467,
      "чогуу ": 6468,
      "Чеч": 6469,
      "вил": 6470,
      "гар": 6471,
      "е бул": 6472,
      " бут": 6473,
      "органдар": 6474,
      "езим": 6475,
      "аңыл": 6476,
      "Орусиянын президенти Владимир ": 6477,
      "га караган т": 6478,
      "айылыш": 6479,
      "Бирок к": 6480,
      "гөндөй": 6481,
      "ицип": 6482,
      " болбойт.\n": 6483,
      "бийликт": 6484,
      "ыйынд": 6485,
      "терр": 6486,
      "үүгө т": 6487,
      " чыгарыл": 6488,
      "өсүн ": 6489,
      "башында ": 6490,
      "аза болгон ": 6491,
      "эркин ": 6492,
      "үчүнчү": 6493,
      "ата-энелер": 6494,
      "округ": 6495,
      "Өкмөттүн ": 6496,
      "Дмитр": 6497,
      "Султан": 6498,
      "дур": 6499,
      "атталган.\n": 6500,
      "актын ": 6501,
      "езек": 6502,
      "ыктарга ": 6503,
      "-жар": 6504,
      "Кыргызстанда б": 6505,
      "чүлүктөр": 6506,
      " кайра ": 6507,
      ". (ZKo)\n": 6508,
      "Кабул": 6509,
      "Улуттук коопсуздук боюнча мамлекеттик комитеттин ": 6510,
      "күчтөр": 6511,
      "палат": 6512,
      "аман ": 6513,
      "оо-": 6514,
      "итеб": 6515,
      "утунд": 6516,
      " жатканда ": 6517,
      "194": 6518,
      "Ак-": 6519,
      "Акмат": 6520,
      " чыккан": 6521,
      "ңгээли": 6522,
      "үстүнөн ": 6523,
      "Зеленский ": 6524,
      " эле маал": 6525,
      "токтот": 6526,
      "алл": 6527,
      "алга ": 6528,
      " байланыштуу ": 6529,
      "ага бар": 6530,
      "окел": 6531,
      " алууга ": 6532,
      "терс": 6533,
      "иштөө": 6534,
      "ейтапт": 6535,
      "ологиялык к": 6536,
      "делген ": 6537,
      "арипт": 6538,
      "онс": 6539,
      "аштары ": 6540,
      " \"к": 6541,
      " Борбор": 6542,
      "суроолор": 6543,
      "өздөй": 6544,
      "украин": 6545,
      "елгилеп, ": 6546,
      "ын башында ": 6547,
      " Ф": 6548,
      " аскер": 6549,
      "Ким": 6550,
      "дос": 6551,
      " каржыл": 6552,
      "мыйзамдар": 6553,
      "айгашкан.\n": 6554,
      "менч": 6555,
      "ырлан": 6556,
      "баарын ": 6557,
      " оюнд": 6558,
      "жок ": 6559,
      "алында ": 6560,
      "олугуш": 6561,
      "ада т": 6562,
      "епил": 6563,
      ", ал ": 6564,
      " курулуш": 6565,
      "иштеп чыг": 6566,
      "аатыр": 6567,
      " орунд": 6568,
      "оргоп": 6569,
      "елгиленген ": 6570,
      "ууну талап кыл": 6571,
      "ы кабарланды.\n": 6572,
      "Ошентип": 6573,
      "пандемия": 6574,
      "ыраазы": 6575,
      "600": 6576,
      "тез": 6577,
      "агынан ": 6578,
      "интер": 6579,
      "эле б": 6580,
      "раструктур": 6581,
      "үгүнүн ": 6582,
      " башчыл": 6583,
      "чечими менен ": 6584,
      " жүргүзүп": 6585,
      "өлөмү ": 6586,
      "Австр": 6587,
      "ухаммед": 6588,
      "ЖЭБ": 6589,
      "Шер": 6590,
      "айтат.\n": 6591,
      ", кийин ": 6592,
      " арасында ": 6593,
      "рест": 6594,
      "негиздөө": 6595,
      " курч": 6596,
      "Азырынча ": 6597,
      "өнүгүү": 6598,
      "Тышкы иштер министрлиги ": 6599,
      "өнгө салуу": 6600,
      "Кол": 6601,
      "а-б": 6602,
      "ыны ": 6603,
      "имдик": 6604,
      "ыктан": 6605,
      "иден, ": 6606,
      " салым": 6607,
      "аил": 6608,
      "дым": 6609,
      " коррупция": 6610,
      "алард": 6611,
      " мектеп": 6612,
      " жана илим": 6613,
      "лис": 6614,
      "ы жок": 6615,
      "арлык ": 6616,
      " жүргөн": 6617,
      "талаб": 6618,
      "уюмдардын ": 6619,
      "уу жөнүндө": 6620,
      "чыгарып": 6621,
      "Баткен, ": 6622,
      "сокку ур": 6623,
      "ЖККУ": 6624,
      "Лив": 6625,
      "Ноо": 6626,
      "гуз": 6627,
      " байланыштуу": 6628,
      "илип, ": 6629,
      "асында к": 6630,
      "асына т": 6631,
      "акыс": 6632,
      "уккан ": 6633,
      "элдик ": 6634,
      " катышты.\n": 6635,
      " аймагында ": 6636,
      "өлөмдөр": 6637,
      " толук ": 6638,
      "линик": 6639,
      "тек": 6640,
      "абд": 6641,
      "еси к": 6642,
      " алм": 6643,
      "ичи ": 6644,
      "автоном": 6645,
      "Ошол эле к": 6646,
      "эч нерс": 6647,
      " ий": 6648,
      "жыйын": 6649,
      "катт": 6650,
      " бүгүн ": 6651,
      "уруш": 6652,
      "и да ": 6653,
      "дуб": 6654,
      "ы жөнүндө": 6655,
      "алуун": 6656,
      " өлкөгө": 6657,
      "Адвок": 6658,
      "ыймылд": 6659,
      " сөздөр": 6660,
      "ууну токтот": 6661,
      "Президент Садыр Жапаров ": 6662,
      "уу сактагыч": 6663,
      "алышт": 6664,
      "улайм": 6665,
      "оо, ": 6666,
      "үндөй": 6667,
      "ооп берип": 6668,
      " түзүмдөр": 6669,
      "дүйнөнүн ": 6670,
      "Сауд ": 6671,
      "Ыр": 6672,
      "да кар": 6673,
      " титир": 6674,
      "Ошондон ": 6675,
      " жасап": 6676,
      "урулт": 6677,
      "келтир": 6678,
      " кызматташт": 6679,
      "ан тартып": 6680,
      " эскерт": 6681,
      "тургуну ": 6682,
      "административдик ": 6683,
      "Мин": 6684,
      "Сан": 6685,
      "амб": 6686,
      "ада б": 6687,
      "индик ": 6688,
      "ээде": 6689,
      "ин буз": 6690,
      "жол менен ": 6691,
      "Түркияда ": 6692,
      "убактылуу карм": 6693,
      "инфраструктур": 6694,
      "Жакында ": 6695,
      "римин": 6696,
      "стратегиялык ": 6697,
      "-келиндер": 6698,
      "Ап": 6699,
      "дил": 6700,
      "норм": 6701,
      "диал": 6702,
      " алуу": 6703,
      "ыктуу": 6704,
      "ишкенд": 6705,
      "е менч": 6706,
      "агенттигинин ": 6707,
      "Менимч": 6708,
      " гектар": 6709,
      "так ": 6710,
      " кул": 6711,
      " экө": 6712,
      "ык жана ": 6713,
      " бир нече ": 6714,
      "ан башка ": 6715,
      " болуп жатканын ": 6716,
      " комп": 6717,
      "чиликтер": 6718,
      "манбек ": 6719,
      " берилген": 6720,
      "Аскар": 6721,
      " каражаттары ": 6722,
      "социалдык": 6723,
      " режим": 6724,
      "зак": 6725,
      "саат": 6726,
      "алдарды ": 6727,
      "ду, ": 6728,
      " кылып, ": 6729,
      " болуп ": 6730,
      "уюр": 6731,
      "Бирок ал": 6732,
      " эки т": 6733,
      "үүсү ": 6734,
      "Бакиев": 6735,
      "зыянд": 6736,
      "олдоо көрсөт": 6737,
      "Донец": 6738,
      "Себеби ": 6739,
      "сөөгү": 6740,
      "\"Эл": 6741,
      "Оп": 6742,
      "Шинжаң": 6743,
      "түнкүсүн ": 6744,
      " кайт": 6745,
      " белгилүү": 6746,
      "үлгөнүн ": 6747,
      "ооруп": 6748,
      "алган эмес.\n": 6749,
      " эки ж": 6750,
      "партия": 6751,
      "соң ": 6752,
      "диктүү ": 6753,
      "өлүмүнө": 6754,
      "ыкты сактоо": 6755,
      "өз жумду.\n": 6756,
      " керектигин ": 6757,
      "бег": 6758,
      "дүр": 6759,
      "дог": 6760,
      "нур": 6761,
      "танд": 6762,
      " мүл": 6763,
      " меди": 6764,
      "ада с": 6765,
      "гож": 6766,
      "үйдүн ": 6767,
      "ок атыш": 6768,
      "бай, ": 6769,
      "иясына ": 6770,
      " мыйзам буз": 6771,
      "деп эсептейт.\n": 6772,
      "ийик т": 6773,
      "\" менен ": 6774,
      "Натыйж": 6775,
      "кол": 6776,
      "күн ": 6777,
      "мо": 6778,
      "эш": 6779,
      " коронавируст": 6780,
      ", анд": 6781,
      "ишти ": 6782,
      "ин кошумчалады.\n": 6783,
      "уюму ": 6784,
      "мүчөсү ": 6785,
      "ойнуна ": 6786,
      "уугунтукт": 6787,
      " \"Азаттыкка\"": 6788,
      "Цз": 6789,
      "по": 6790,
      "тор": 6791,
      "шайк": 6792,
      "ы\" деп": 6793,
      " кандай ": 6794,
      " жалпы ": 6795,
      " бере ал": 6796,
      "үгүрт": 6797,
      "иктен ": 6798,
      "Украин ": 6799,
      "окуяс": 6800,
      "чыкпай": 6801,
      " облусундагы ": 6802,
      "үй-бүлөлөр": 6803,
      " тилкес": 6804,
      " керек деген ": 6805,
      "ажбурл": 6806,
      " ф": 6807,
      "Көр": 6808,
      "ээк": 6809,
      "ады:\n": 6810,
      "енди.\n": 6811,
      "аңгиз": 6812,
      "и жаз": 6813,
      "өзүң": 6814,
      "студент": 6815,
      "атайын кызматт": 6816,
      "ризист": 6817,
      "Бакт": 6818,
      "дый": 6819,
      "ерек.\n": 6820,
      "ы деген ": 6821,
      "елет": 6822,
      "Ал арада ": 6823,
      "үшөт.\n": 6824,
      "и жөнүндө": 6825,
      "иктин ": 6826,
      " калганд": 6827,
      ", жер": 6828,
      "агандан кийин ": 6829,
      "алар менен ": 6830,
      "Бирок, ": 6831,
      "Өлкөнүн ": 6832,
      "Маселен, ": 6833,
      "екендештер": 6834,
      "-П": 6835,
      "түп": 6836,
      "үдө": 6837,
      "элчиси ": 6838,
      "ошуп": 6839,
      "ондор": 6840,
      "уулардын ": 6841,
      "ан биз": 6842,
      "гону ": 6843,
      "ытай": 6844,
      "идей": 6845,
      " тууралуу маалымат": 6846,
      "диктер": 6847,
      " бийлигинин ": 6848,
      "оопсуздукт": 6849,
      "Ал эми к": 6850,
      "е тур": 6851,
      "мек": 6852,
      "эгем": 6853,
      " көм": 6854,
      "уну": 6855,
      "өптөгөн ": 6856,
      "Улан ": 6857,
      "ерге ж": 6858,
      " маселе ": 6859,
      "келген ": 6860,
      "акшырт": 6861,
      "Демек": 6862,
      "БШКнын ": 6863,
      "угузуп ал": 6864,
      "%,": 6865,
      "Беш": 6866,
      "Жеңиш": 6867,
      "беген": 6868,
      "ьм": 6869,
      "ошого": 6870,
      " калкт": 6871,
      "ууга аракет кыл": 6872,
      "үүлөрдүн ": 6873,
      "одо ": 6874,
      "оронавирус ": 6875,
      "а берген ": 6876,
      "иликтеп": 6877,
      "уу түр": 6878,
      "ехникалык ": 6879,
      "омпаниял": 6880,
      " тобунун ": 6881,
      "Токтогул": 6882,
      "террордук ": 6883,
      "Ах": 6884,
      "Харь": 6885,
      "дуу": 6886,
      "рон ": 6887,
      "сыр": 6888,
      " такт": 6889,
      " бирикм": 6890,
      "эле т": 6891,
      "аңы к": 6892,
      "спик": 6893,
      "атышуус": 6894,
      " өзгөчө": 6895,
      "аралаш": 6896,
      "үүсүз": 6897,
      "өктөш": 6898,
      "алтын ": 6899,
      " экенин билдирди.\n": 6900,
      "машыг": 6901,
      "Афр": 6902,
      "Жаш": 6903,
      "губернат": 6904,
      "ро": 6905,
      "сар": 6906,
      "сың": 6907,
      "чоо": 6908,
      " коргоо": 6909,
      " таң": 6910,
      "а команд": 6911,
      "гө кар": 6912,
      "үйүнө": 6913,
      "президент Сооронбай Жээн": 6914,
      "а министрлиг": 6915,
      "ар кандай ": 6916,
      " эки к": 6917,
      "ына бар": 6918,
      "өз карашт": 6919,
      "гандардын саны ": 6920,
      "өздөрү": 6921,
      "Пандем": 6922,
      "бой": 6923,
      "баган": 6924,
      " кайтар": 6925,
      "акун": 6926,
      " сутк": 6927,
      "ейөкмөт уюм": 6928,
      "умт": 6929,
      "ан бери": 6930,
      "эмдөө": 6931,
      ", мамлекеттик ": 6932,
      " боюнча бир": 6933,
      " курулт": 6934,
      "Албетте, ": 6935,
      "Рав": 6936,
      "илиш": 6937,
      "ык\" радиос": 6938,
      "чыгарган ": 6939,
      " камакка ": 6940,
      "үйөөс": 6941,
      "вице-премьер-министр": 6942,
      "өспүрүм": 6943,
      "ийинчерээк ": 6944,
      "Жо Байден ": 6945,
      ".kg": 6946,
      "аалд": 6947,
      "сый": 6948,
      "ыж": 6949,
      "де.\n": 6950,
      "актан ": 6951,
      "опол": 6952,
      "айтты\n": 6953,
      "аймактык ": 6954,
      " жүрүп жатат.\n": 6955,
      " менен байланыш": 6956,
      "инвесторлор": 6957,
      "ине каршы ": 6958,
      "а\" к": 6959,
      "ка бар": 6960,
      "тан ": 6961,
      "ап кел": 6962,
      " алгач": 6963,
      "итардык": 6964,
      " барып, ": 6965,
      " болуп ишт": 6966,
      ", жаранд": 6967,
      "дүң": 6968,
      "облусундагы ": 6969,
      "макам": 6970,
      "Чүй, ": 6971,
      "эрежелер": 6972,
      "Текебаев": 6973,
      "адилетт": 6974,
      "ir": 6975,
      "мекен": 6976,
      ", ант": 6977,
      "ото": 6978,
      " документ": 6979,
      "уулу": 6980,
      "аларга к": 6981,
      "ар көбөй": 6982,
      "тир.\n": 6983,
      "өкмөттүк ": 6984,
      "социалдык к": 6985,
      "изилдөөлөр": 6986,
      "фирм": 6987,
      "үтүн Кыргызстан": 6988,
      "Лейл": 6989,
      "Манас": 6990,
      "Нияз": 6991,
      "кандай": 6992,
      "моюн": 6993,
      " колд": 6994,
      "аса, ": 6995,
      "өрүп": 6996,
      "екей": 6997,
      "ганга ": 6998,
      "заманб": 6999,
      " маселени ": 7000,
      "ына каршы ": 7001,
      " жаңы к": 7002,
      "\" компаниясынын ": 7003,
      " маалында ": 7004,
      "дипломатиялык ": 7005,
      "Чыңгыз ": 7006,
      "New": 7007,
      "Аскар ": 7008,
      " эле маалда ": 7009,
      "Дагы бир": 7010,
      "Жалпысынан ": 7011,
      " кагаз": 7012,
      " жогору": 7013,
      "илтем": 7014,
      "елл": 7015,
      " сапар": 7016,
      "Кыргызстандын к": 7017,
      "дун к": 7018,
      "алпы ж": 7019,
      " өзү ": 7020,
      " макулд": 7021,
      "эки өлкөнүн ": 7022,
      "еңилдет": 7023,
      "а баштады.\n": 7024,
      "Ички иштер министрлиг": 7025,
      "өрөөнүндө": 7026,
      ": К": 7027,
      "сем": 7028,
      "союз": 7029,
      "емкор": 7030,
      "үйүндөр": 7031,
      "Азиз": 7032,
      "акчаны ": 7033,
      "ачылыш": 7034,
      "ациялык ": 7035,
      "Өмүрбек ": 7036,
      "имаратт": 7037,
      "ДП": 7038,
      "Көк": 7039,
      "Нов": 7040,
      "Юр": 7041,
      "гезит": 7042,
      "назар": 7043,
      "алганы ": 7044,
      "етиш": 7045,
      "елип, ": 7046,
      "окк": 7047,
      "артка к": 7048,
      "өнүк": 7049,
      " келип, ": 7050,
      "ажы": 7051,
      "алган жок.\n": 7052,
      "ун баш": 7053,
      "өттү\n": 7054,
      " жумш": 7055,
      "ашыруун ": 7056,
      "сө, ": 7057,
      "ейманкан": 7058,
      "Кул": 7059,
      "аит": 7060,
      "кр": 7061,
      "деген": 7062,
      "адым.\n": 7063,
      "өлөп": 7064,
      "унаал": 7065,
      "үйүүчү": 7066,
      " шек сан": 7067,
      "ия өлкөлөр": 7068,
      "ИИМдин ": 7069,
      "Армениянын ": 7070,
      "Мындан сырткары ": 7071,
      "экөө": 7072,
      "олюция": 7073,
      "Никол": 7074,
      "Руслан ": 7075,
      "Ом": 7076,
      "Рахм": 7077,
      "макч": 7078,
      "чемпион": 7079,
      "аларда ": 7080,
      " жөн": 7081,
      "ине м": 7082,
      "ыргыз ": 7083,
      "үйдө": 7084,
      "ешип": 7085,
      "иге": 7086,
      "уктан ": 7087,
      " чыгарм": 7088,
      "192": 7089,
      " Бак": 7090,
      "өткөрүү": 7091,
      "акка чакыр": 7092,
      " жооп бер": 7093,
      "Айтмат": 7094,
      "Акылбек Жапаров": 7095,
      "Дания": 7096,
      "Дастан ": 7097,
      "баз": 7098,
      "ге, ": 7099,
      "ереп": 7100,
      " тизм": 7101,
      "акын ж": 7102,
      "ышкан ": 7103,
      " себепт": 7104,
      "үнчү": 7105,
      "өткөнүн ": 7106,
      "өтүп жатат.\n": 7107,
      "саясатчы ": 7108,
      "түзүлгөн ": 7109,
      "ы тууралуу маалымат": 7110,
      "окшойт.\n": 7111,
      "инчи кезект": 7112,
      "Re": 7113,
      "Коррупция": 7114,
      "Сооронбай Жээн": 7115,
      "Херс": 7116,
      "ном": 7117,
      "чү к": 7118,
      "ылгаз": 7119,
      "амбет": 7120,
      "оо жана ": 7121,
      "овар": 7122,
      "актар": 7123,
      "ектөө": 7124,
      " далил": 7125,
      "оордин": 7126,
      "Кыргызстандын б": 7127,
      "абыл алынган ": 7128,
      "депутаттар": 7129,
      "\" деген к": 7130,
      "аймактарында ": 7131,
      " уюмунун ": 7132,
      "иешелүү ": 7133,
      "иешеси бар": 7134,
      "Наз": 7135,
      "Төрт": 7136,
      "сапар": 7137,
      "эли": 7138,
      "айбыз.\n": 7139,
      "ассоци": 7140,
      "ып, б": 7141,
      "ганын, ": 7142,
      "алдан": 7143,
      "артыл": 7144,
      "дарынын ": 7145,
      " Тур": 7146,
      "деле к": 7147,
      "жылы ": 7148,
      " балл": 7149,
      " - деп билдир": 7150,
      "кесеп": 7151,
      " депутат": 7152,
      "\" деп аталган ": 7153,
      " менен": 7154,
      " бейтап": 7155,
      "токтом": 7156,
      "азык-түлүк": 7157,
      "зыян келтир": 7158,
      " S": 7159,
      "ia": 7160,
      "Нью": 7161,
      "и бар.\n": 7162,
      "окм": 7163,
      "өлкөн": 7164,
      "демокр": 7165,
      "үүдө\n": 7166,
      " Бай": 7167,
      "чыкп": 7168,
      "Бишкек шаарында ": 7169,
      " мекемелер": 7170,
      " чемпионат": 7171,
      "ылмыштуу топт": 7172,
      "невмон": 7173,
      "А.": 7174,
      "Дин": 7175,
      "Шарш": 7176,
      "атуу ": 7177,
      " жыйынында ": 7178,
      "усу": 7179,
      "өнү ": 7180,
      "айрылып": 7181,
      "ы билдир": 7182,
      "ы билдирди.\n": 7183,
      "ык кодексинин ": 7184,
      "айылт": 7185,
      "ехан": 7186,
      "ып келген ": 7187,
      " рубл": 7188,
      " млрд. сом": 7189,
      "чакан ": 7190,
      "ы белгилүү болду.\n": 7191,
      "Кудай": 7192,
      "салык ": 7193,
      "эпидеми": 7194,
      "абил": 7195,
      "ийин, ": 7196,
      "ыгы менен ": 7197,
      "ы жок ": 7198,
      "орточ": 7199,
      " пайд": 7200,
      "талаш": 7201,
      "авторлор": 7202,
      "айрымдары ": 7203,
      " компаниясынын ": 7204,
      "аанилүү ": 7205,
      "сапат": 7206,
      "-беренеси": 7207,
      "49": 7208,
      "Цен": 7209,
      "су": 7210,
      "сен": 7211,
      " коомчул": 7212,
      "ууп": 7213,
      " тем": 7214,
      "ыйын ": 7215,
      "айтышкан.\n": 7216,
      "усуп": 7217,
      " чыр": 7218,
      "Алар к": 7219,
      "ыкта ": 7220,
      " \"Т": 7221,
      "196": 7222,
      "и мыйзам": 7223,
      "Талант": 7224,
      "облустарынын ": 7225,
      "укук коргоочу ": 7226,
      "маегинде ": 7227,
      "адамдарды ": 7228,
      " миллиард долл": 7229,
      "ликтин ": 7230,
      "четке как": 7231,
      "85": 7232,
      "дон": 7233,
      "султан ": 7234,
      "олим": 7235,
      "ино": 7236,
      "и (": 7237,
      "ымт": 7238,
      "Алд": 7239,
      "унда, ": 7240,
      "үмөн ": 7241,
      " Токт": 7242,
      " бизнес": 7243,
      "экономикалык к": 7244,
      "омпаниянын ": 7245,
      "елекан": 7246,
      "олугу менен ": 7247,
      " баракчасына ж": 7248,
      "оодо.\n": 7249,
      "убактылуу кармоочу": 7250,
      "ласс": 7251,
      "мисал": 7252,
      "Алым": 7253,
      "ондо": 7254,
      "лери ": 7255,
      " болгону": 7256,
      "кен менен ": 7257,
      "алестин": 7258,
      "Тоолуу Кар": 7259,
      " Ч": 7260,
      "мектепт": 7261,
      "ар боюнча ": 7262,
      " жабыл": 7263,
      " саатт": 7264,
      "үрүш": 7265,
      "да бир": 7266,
      "ийгил": 7267,
      "үч менен ": 7268,
      "уп жатат.\n": 7269,
      "осун": 7270,
      "елгиледи": 7271,
      " парламент": 7272,
      "195": 7273,
      "Бул окуя": 7274,
      "фондунун ": 7275,
      "Ички иштер министрлиги ": 7276,
      "уланууда.\n": 7277,
      " эч ким": 7278,
      "инчи жолу ": 7279,
      "мөөнөтт": 7280,
      " стан": 7281,
      "Бар": 7282,
      "Замир": 7283,
      "ида ": 7284,
      "сыртт": 7285,
      " каал": 7286,
      " жаатт": 7287,
      "ишилер": 7288,
      " бири-бир": 7289,
      " да": 7290,
      "еңиз": 7291,
      "иштелип": 7292,
      " жүргөн.\n": 7293,
      " шект": 7294,
      " чыгышты.\n": 7295,
      "и белгилүү": 7296,
      "ун билдир": 7297,
      " жылдары ": 7298,
      "ан бери ж": 7299,
      "дүйнөдө": 7300,
      " депутатт": 7301,
      "Назарбаев": 7302,
      "интерв": 7303,
      " вирус": 7304,
      "Жаранд": 7305,
      "жыйынт": 7306,
      "ы \"": 7307,
      "уп жаткан ": 7308,
      "үмүтт": 7309,
      " бараткан ": 7310,
      "учак": 7311,
      "экспорт": 7312,
      "уюл": 7313,
      "ылган к": 7314,
      " макулдаш": 7315,
      "адимк": 7316,
      "оону": 7317,
      "Ооганстандын ": 7318,
      " жокко": 7319,
      "добуш берүү": 7320,
      "Крым": 7321,
      "көйгөй": 7322,
      "Бекеш": 7323,
      "зордук-": 7324,
      "алынды.\n": 7325,
      "аман": 7326,
      "акыйкат": 7327,
      "апар ": 7328,
      " элдик ": 7329,
      " департамент": 7330,
      "е жок": 7331,
      "дерди ": 7332,
      "президентинин ": 7333,
      "АКШ менен ": 7334,
      "ийлиги ": 7335,
      "мак.\n": 7336,
      " шаарындагы ": 7337,
      "оочулар": 7338,
      "мөөнөтүн ": 7339,
      " болмок.\n": 7340,
      "ТИМ": 7341,
      "сүр": 7342,
      "тогуз": 7343,
      "товарл": 7344,
      "айп": 7345,
      " мындай ": 7346,
      " так": 7347,
      "андан к": 7348,
      "алдына ": 7349,
      " Куб": 7350,
      "чүлүгү ": 7351,
      " жакка ": 7352,
      "Экинчи ": 7353,
      "ност": 7354,
      "чектеш": 7355,
      " кабар": 7356,
      " Навальный": 7357,
      " болушу мүмкүн.\n": 7358,
      "егендей": 7359,
      "убада бер": 7360,
      "емкорл": 7361,
      "сай": 7362,
      "анат.\n": 7363,
      "аталыш": 7364,
      ", С": 7365,
      "ызы ": 7366,
      "абайт.\n": 7367,
      "окул": 7368,
      "иштейт.\n": 7369,
      "реестр": 7370,
      " түшүп": 7371,
      "уюшкан к": 7372,
      "өтө турган ": 7373,
      " эмне": 7374,
      "чусу ": 7375,
      "ейшембиде": 7376,
      "индеги к": 7377,
      "ы кабарланган.\n": 7378,
      "Евробиримдик ": 7379,
      " кен": 7380,
      "алоо": 7381,
      "Алгач": 7382,
      "а жана к": 7383,
      " турат": 7384,
      "угу ": 7385,
      "түрмө": 7386,
      "айсы ж": 7387,
      " компанияс": 7388,
      "үстөм": 7389,
      "Дүйнөлүк": 7390,
      "Марат ": 7391,
      "интернетт": 7392,
      "маалыматы боюнча, ": 7393,
      "схем": 7394,
      "арында к": 7395,
      " тир": 7396,
      "амат": 7397,
      "ез жардам": 7398,
      "элек.\n": 7399,
      "уулган ": 7400,
      " шартт": 7401,
      "еткап": 7402,
      "шайлоодо": 7403,
      " ишкан": 7404,
      " макам": 7405,
      "иргизилген ": 7406,
      " болушу ": 7407,
      " бийликтин ": 7408,
      "омментарий бере элек.\n": 7409,
      "аты-ж": 7410,
      " У": 7411,
      "са": 7412,
      " жайгашкан ": 7413,
      "ы -": 7414,
      "урманд": 7415,
      "ов жана ": 7416,
      "ыктым": 7417,
      " элек": 7418,
      " шайлан": 7419,
      "ыйын.\n": 7420,
      "оомчулуктун ": 7421,
      "өнөр жай": 7422,
      "онституциялык ": 7423,
      "Венгр": 7424,
      "ап жаткан ": 7425,
      "болот.\n": 7426,
      " болгон к": 7427,
      "өкмөтү ": 7428,
      "га каршы к": 7429,
      "чыккан": 7430,
      "үстүнө": 7431,
      "себептер": 7432,
      ": М": 7433,
      "Балким": 7434,
      "араж": 7435,
      "ундагы к": 7436,
      "утуп": 7437,
      "армалып": 7438,
      "өмөн ": 7439,
      " көрүп": 7440,
      " адамдан ": 7441,
      " жумушт": 7442,
      " чаралар": 7443,
      "үндүз ": 7444,
      " баа бер": 7445,
      "Ислам мамлекет": 7446,
      "урман бол": 7447,
      "Интернетт": 7448,
      "Юстиция": 7449,
      "лет": 7450,
      "пункт": 7451,
      "Өн": 7452,
      "олду": 7453,
      " телеканал": 7454,
      " саат": 7455,
      "аткез": 7456,
      "а биз": 7457,
      " берди\n": 7458,
      "эки м": 7459,
      "эки жол": 7460,
      "болот": 7461,
      " жатканын билдир": 7462,
      "үштүр": 7463,
      "өзгөрүүлөр": 7464,
      "Москвадагы ": 7465,
      "екшембиде": 7466,
      "оочулар ": 7467,
      "Алматы": 7468,
      "Муну ": 7469,
      "Ре": 7470,
      "ТР": 7471,
      "шек ": 7472,
      "ыгын ж": 7473,
      "есине ": 7474,
      " менен сүйлөш": 7475,
      " менен жолугуш": 7476,
      "ашкармал": 7477,
      " түшкөн.\n": 7478,
      "ганы үчүн ": 7479,
      "өкмөттөр": 7480,
      "Мурда ": 7481,
      "операцияс": 7482,
      "мөөнөтү ": 7483,
      "Полиция": 7484,
      "демилг": 7485,
      "төрагасынын орун басары ": 7486,
      "жалгыз": 7487,
      " кыйн": 7488,
      "аба": 7489,
      "ону ": 7490,
      "динд": 7491,
      "импортт": 7492,
      " чам": 7493,
      "учак ": 7494,
      "-тарт": 7495,
      "ге кар": 7496,
      "иликтөөлөр": 7497,
      " тобу ": 7498,
      "эки жыл": 7499,
      "тарыхый": 7500,
      " Казакстанд": 7501,
      " деңгээлде": 7502,
      "Долбоор": 7503,
      "Кеч": 7504,
      "е бер": 7505,
      "нест": 7506,
      "уфт": 7507,
      "ууг": 7508,
      "дешт": 7509,
      "апыс": 7510,
      "ушу ": 7511,
      " туура ": 7512,
      " жараат": 7513,
      " миң тонн": 7514,
      " коюшт": 7515,
      "ылмыш ишин к": 7516,
      "басма сөз кызматы ": 7517,
      "процес": 7518,
      "үңүз": 7519,
      "гуманитардык жардам": 7520,
      "\" с": 7521,
      "-өзбек ": 7522,
      "Лукашен": 7523,
      "докт": 7524,
      " жогот": 7525,
      "ынтым": 7526,
      "евдин ": 7527,
      "айра ж": 7528,
      " жолу менен ": 7529,
      "өткөрмө": 7530,
      "өттү": 7531,
      " болбогон": 7532,
      " талапт": 7533,
      "түшүндүрмөс": 7534,
      "Өзбекстанда ": 7535,
      "окшош": 7536,
      "Сүрөттүн бул": 7537,
      "Ошто": 7538,
      "Мел": 7539,
      "баас": 7540,
      "дордун ": 7541,
      "эваку": 7542,
      "араткан ": 7543,
      " кач": 7544,
      ", ошол": 7545,
      "урк": 7546,
      "ств": 7547,
      "апасы ": 7548,
      "рациял": 7549,
      "-жылкы ": 7550,
      " салышт": 7551,
      "олдонул": 7552,
      " каттам": 7553,
      "үшү керек.\n": 7554,
      "дарыгер": 7555,
      "аза тапт": 7556,
      "ирим сур": 7557,
      "\"Вагнер": 7558,
      " демократ": 7559,
      "Ооб": 7560,
      "Сайм": 7561,
      "гид": 7562,
      "лов": 7563,
      "чек": 7564,
      "ап жатышат.\n": 7565,
      "итепт": 7566,
      "үгүн к": 7567,
      "оза ": 7568,
      "мурдагы ж": 7569,
      "армалып, ": 7570,
      " басым": 7571,
      " компаниял": 7572,
      "250": 7573,
      "анча к": 7574,
      " болушу керек.\n": 7575,
      "мелдеш": 7576,
      "Түндүк Корея": 7577,
      "Коопсуздук кеңешинин ": 7578,
      "Сүрөттүн булагы, ": 7579,
      "байланыштуу ": 7580,
      "бошот": 7581,
      "руг": 7582,
      "сун ": 7583,
      "а кызматкерлер": 7584,
      "апор": 7585,
      "үн ж": 7586,
      "ишке ж": 7587,
      "-жылы ж": 7588,
      "өйт.\n": 7589,
      " жараны ": 7590,
      "ортом": 7591,
      "аттык сактоо ": 7592,
      " тергөө": 7593,
      "маалыматына караганд": 7594,
      "ызматкери ": 7595,
      "Максат": 7596,
      "Акылбек Жапаров ": 7597,
      "Алтын": 7598,
      "ошол кездеги ": 7599,
      "олон": 7600,
      "илли": 7601,
      " жана м": 7602,
      " айтт": 7603,
      "арын ж": 7604,
      " негизг": 7605,
      " жыйынд": 7606,
      "ционер": 7607,
      "эскерткен.\n": 7608,
      "\" ишканасынын ": 7609,
      "салык башаламанд": 7610,
      " P": 7611,
      "Сур": 7612,
      "янд": 7613,
      " деген": 7614,
      " катары": 7615,
      " жараян": 7616,
      "антин ": 7617,
      " Тажик": 7618,
      "айтып берди.\n": 7619,
      "чечил": 7620,
      "партиясынын ": 7621,
      "Нурсултан ": 7622,
      "үндөрү ": 7623,
      "президент Садыр Жапаров": 7624,
      "уучусу ": 7625,
      "оппозициялык ": 7626,
      "it": 7627,
      "Жор": 7628,
      "Согуш": 7629,
      "дүм.\n": 7630,
      "наам": 7631,
      "тасм": 7632,
      "Үс": 7633,
      "ашык": 7634,
      "ганын": 7635,
      "да м": 7636,
      "ыгы бар": 7637,
      "исттик": 7638,
      "айрылган.\n": 7639,
      "айып пул": 7640,
      " эмесп": 7641,
      "туура кел": 7642,
      "юрист": 7643,
      "арасынан ": 7644,
      "оппозициячыл": 7645,
      "анын температур": 7646,
      "ага каршы ": 7647,
      "эсебинен ": 7648,
      "аркумдун ": 7649,
      "ичинекей": 7650,
      " ушул": 7651,
      "юн": 7652,
      " мырз": 7653,
      "анда к": 7654,
      "ап, ж": 7655,
      " алтын ": 7656,
      "аңг": 7657,
      "дахан ": 7658,
      " курул": 7659,
      " жетиштүү": 7660,
      "иштеп жатат.\n": 7661,
      "Москвада ": 7662,
      "Мындан тышк": 7663,
      " шаарынын ": 7664,
      "толгон ": 7665,
      " менен байланышт": 7666,
      "айтышууда.\n": 7667,
      "иши мүмкүн.\n": 7668,
      "үнөөлүү деп": 7669,
      "ауди": 7670,
      "41": 7671,
      "Май": 7672,
      "ма ": 7673,
      "тышкы иштер министри ": 7674,
      "ыздар": 7675,
      "өзү к": 7676,
      " кылын": 7677,
      "е жас": 7678,
      "иясында ": 7679,
      " экенин": 7680,
      "уунун к": 7681,
      "Улук": 7682,
      "салым": 7683,
      "ин жаз": 7684,
      "При": 7685,
      "ская": 7686,
      "урулган ": 7687,
      "абай, ": 7688,
      "Тышкы иштер министрлиг": 7689,
      "ейшеналиев": 7690,
      "Рах": 7691,
      "билдирген.\n": 7692,
      "тиешелүү": 7693,
      "ат деген ": 7694,
      "орл": 7695,
      "еткен": 7696,
      "адык": 7697,
      "имдикт": 7698,
      "ыгын т": 7699,
      "актагы ": 7700,
      " бир катар": 7701,
      "а жаш": 7702,
      "инин т": 7703,
      "а түз": 7704,
      "ы мүмкүн": 7705,
      "өндөм": 7706,
      "өчүп": 7707,
      " жатканын, ": 7708,
      " деп ойлойм.\n": 7709,
      " маселесин ": 7710,
      "аракеттен": 7711,
      "уугунтук": 7712,
      "Орус ": 7713,
      " - деп айтылат": 7714,
      " A": 7715,
      "\"кар": 7716,
      "77": 7717,
      "Лу": 7718,
      "виттер": 7719,
      "санын ": 7720,
      " жагд": 7721,
      "уралдуу к": 7722,
      "андуу ": 7723,
      "ызык": 7724,
      "окой": 7725,
      "кө учур": 7726,
      "го катыш": 7727,
      "итор": 7728,
      "а жас": 7729,
      "деп ат": 7730,
      " жазган.\n": 7731,
      "ып келген.\n": 7732,
      "көпчүлүк ": 7733,
      "орун басары": 7734,
      ", күндүз -": 7735,
      "авиак": 7736,
      "om": 7737,
      "хан": 7738,
      "аржыл": 7739,
      " бел": 7740,
      "абыр": 7741,
      "актаган ": 7742,
      " доор": 7743,
      " ар бир": 7744,
      "ага чейин ": 7745,
      " кирип": 7746,
      "отурат.\n": 7747,
      " млн.\n": 7748,
      "уу тал": 7749,
      "ооруканал": 7750,
      "убактылуу ": 7751,
      "Башкача айтканд": 7752,
      " деле к": 7753,
      "Ишен": 7754,
      " жатканын билдирген.\n": 7755,
      "сек, ": 7756,
      "а Мекен": 7757,
      "Сауд Араб": 7758,
      "Журт": 7759,
      "и тууралуу ": 7760,
      " мэр": 7761,
      "акта ": 7762,
      "а баш": 7763,
      "уулунун ": 7764,
      "мөндөр": 7765,
      "ак т": 7766,
      " маселеси ": 7767,
      "уусуна ": 7768,
      "убакта ": 7769,
      "озголгон к": 7770,
      " учурунда ": 7771,
      "обилизация": 7772,
      "автобус": 7773,
      " полиция": 7774,
      "he ": 7775,
      "Ян": 7776,
      "гип": 7777,
      "жоб": 7778,
      "маз": 7779,
      "уалдык ": 7780,
      "чөлкөм": 7781,
      "енко": 7782,
      "стин ": 7783,
      "еткен.\n": 7784,
      "асылм": 7785,
      " са": 7786,
      "ыгына к": 7787,
      "айра кар": 7788,
      "өлкөлөрдө": 7789,
      "үштү": 7790,
      " жашыр": 7791,
      "тартипт": 7792,
      "Мунун алдында ": 7793,
      "демократиялык ": 7794,
      " социалдык тармакт": 7795,
      " ич": 7796,
      "-кан": 7797,
      "46": 7798,
      "Ба": 7799,
      "Каз": 7800,
      "Меди": 7801,
      "Тын": 7802,
      "Чех": 7803,
      "верс": 7804,
      "пайда ": 7805,
      " жогол": 7806,
      "айында ": 7807,
      "ага м": 7808,
      "үч ай": 7809,
      ", башка ": 7810,
      "ууга даяр": 7811,
      "төрайым": 7812,
      " чыгышкан.\n": 7813,
      "е башк": 7814,
      "еткенд": 7815,
      "станга к": 7816,
      " жатканын": 7817,
      "анкциял": 7818,
      "мүчөсү": 7819,
      "тергөө абаг": 7820,
      " Лукашен": 7821,
      "Азербайжан ": 7822,
      "чалдыкканд": 7823,
      "аннекс": 7824,
      "зал": 7825,
      "шер": 7826,
      "атасы ": 7827,
      "аммит": 7828,
      "уралд": 7829,
      "асы б": 7830,
      "ак, ": 7831,
      "ады ": 7832,
      "ап тур": 7833,
      "абдан к": 7834,
      " сар": 7835,
      "ойгон ": 7836,
      "авр": 7837,
      "иштүү ": 7838,
      "дараак ": 7839,
      "Орусиял": 7840,
      "тур.\n": 7841,
      " салам": 7842,
      "Аймакт": 7843,
      "мурдагы б": 7844,
      "отуруп": 7845,
      "укугу": 7846,
      " кызматкерлери ": 7847,
      "ь айынын ": 7848,
      "авкат ": 7849,
      "маалда ": 7850,
      "Равшан ": 7851,
      "Пригож": 7852,
      "чы к": 7853,
      " коомдук ": 7854,
      "айга к": 7855,
      ", маалымат": 7856,
      "илл": 7857,
      " деш": 7858,
      "Ал \"": 7859,
      "артылган ": 7860,
      "ан келген ": 7861,
      "иштин ": 7862,
      "ууга тий": 7863,
      "реди": 7864,
      "өсө": 7865,
      "алык жардам": 7866,
      " түзөт.\n": 7867,
      "чоң ": 7868,
      "едициналык ": 7869,
      "га байланыштуу": 7870,
      "мигранттар": 7871,
      "Бишкектин Биринчи май райондук сот": 7872,
      " калдым.\n": 7873,
      "дайынсыз": 7874,
      "гор": 7875,
      "и, ж": 7876,
      "и, м": 7877,
      "ат жана ": 7878,
      "уу максатында ": 7879,
      "ектин ": 7880,
      "ыктары ": 7881,
      "арың": 7882,
      "иге к": 7883,
      "бир неч": 7884,
      "ан башк": 7885,
      "-жылы б": 7886,
      " шт": 7887,
      "ейтинг": 7888,
      " атындагы ": 7889,
      " миллионго": 7890,
      " түшкөн ": 7891,
      "арыхый": 7892,
      "абакта ": 7893,
      "добуш бер": 7894,
      "Ооганстандагы ": 7895,
      " басылмасы ": 7896,
      "ажрыйбас": 7897,
      "чогуу": 7898,
      "Касым-Жомарт Ток": 7899,
      "верд": 7900,
      "үзгүлтүккө учур": 7901,
      "\"б": 7902,
      "бөгөн ": 7903,
      "ар бир ": 7904,
      "ы үчүн ": 7905,
      "енм": 7906,
      "ийиштүү": 7907,
      "үйүп": 7908,
      "проп": 7909,
      "умш": 7910,
      "иск": 7911,
      "Азамат ": 7912,
      "Орусияга к": 7913,
      "ууга аракет": 7914,
      " жаран": 7915,
      "болду.\n": 7916,
      " Батк": 7917,
      "партиял": 7918,
      "аягына ": 7919,
      "Нарын облус": 7920,
      " турушат.\n": 7921,
      "глоб": 7922,
      "\" фракциясынын ": 7923,
      "ымдуу бөл": 7924,
      "Нью-": 7925,
      "КС": 7926,
      " байл": 7927,
      "ет ": 7928,
      "истикалык ": 7929,
      "\" -": 7930,
      "үктөн ": 7931,
      "ы министр": 7932,
      "чыгарып кет": 7933,
      "Абдулл": 7934,
      "өздөрүнүн ": 7935,
      "амакка алын": 7936,
      " Борбор Аз": 7937,
      " Ай": 7938,
      "68": 7939,
      "а: ": 7940,
      "са к": 7941,
      "и -": 7942,
      "үү менен ": 7943,
      "да бар": 7944,
      "ектеб": 7945,
      "еттеш": 7946,
      "бир туу": 7947,
      "ан баштап": 7948,
      "бекем": 7949,
      "өсүндө": 7950,
      "айтып жатышат.\n": 7951,
      " маселе к": 7952,
      "ызматтан ": 7953,
      " партия": 7954,
      "Расмий маалым": 7955,
      "Кубаныч": 7956,
      "советтик ": 7957,
      "ажы кызматынын ": 7958,
      "апорож": 7959,
      "дахан Мадумар": 7960,
      "ac": 7961,
      "юл": 7962,
      "елди.\n": 7963,
      "ишине ": 7964,
      "ышы керек.\n": 7965,
      "ун\"": 7966,
      "ыгы": 7967,
      "аштар ": 7968,
      "ошу": 7969,
      "ечинде ": 7970,
      "аңы т": 7971,
      ", бал": 7972,
      "191": 7973,
      " кишилер": 7974,
      "чек арачыл": 7975,
      "арды көр": 7976,
      "чыгарган.\n": 7977,
      "план": 7978,
      "режисс": 7979,
      "ычт": 7980,
      " Голд": 7981,
      " кызматкери ": 7982,
      "Франциянын ": 7983,
      "-Ата ": 7984,
      "гүнчүлөр": 7985,
      "Сөз": 7986,
      "Эч к": 7987,
      "ке б": 7988,
      "тап": 7989,
      "а К": 7990,
      "ектак": 7991,
      " бир нече ж": 7992,
      "айрыкча ": 7993,
      "угушт": 7994,
      " кылган.\n": 7995,
      " болуп жатат": 7996,
      " эсеп": 7997,
      "чек арасында ": 7998,
      "шаардын ": 7999,
      "чет өлкөлөр": 8000,
      "Таласт": 8001,
      "өтүп жаткан ": 8002,
      "ыйла ": 8003,
      "уудан баш тарт": 8004,
      "есиптештер": 8005,
      "Алексей Навальный": 8006,
      " анын ": 8007,
      "(ИИМ": 8008,
      ") жана ": 8009,
      "Журналисттер": 8010,
      "ац": 8011,
      "догу": 8012,
      " көзөмөлдө": 8013,
      "атом": 8014,
      " бард": 8015,
      " муну ": 8016,
      "ушат.\n": 8017,
      " жатпайбы.\n": 8018,
      " кеткенд": 8019,
      "га катыш": 8020,
      ", аларды ": 8021,
      "олдонуп": 8022,
      "өңкөр": 8023,
      "өңдүү": 8024,
      "Анткен менен ": 8025,
      " мүмкүнчүлүк": 8026,
      " экенин билдир": 8027,
      "Фейсбук": 8028,
      "өрүнүш": 8029,
      " аны ": 8030,
      " өрөөнүндө": 8031,
      "\"Биз": 8032,
      "57": 8033,
      "ig": 8034,
      "Кээ бир": 8035,
      "ы\" деген ": 8036,
      "ууга, ": 8037,
      "ап ал": 8038,
      "ийип": 8039,
      "үлөр": 8040,
      "ачыкт": 8041,
      " кылат.\n": 8042,
      " пайда бол": 8043,
      "АКШ, ": 8044,
      " жакынд": 8045,
      "га туш": 8046,
      "санкция": 8047,
      "валют": 8048,
      " катары баал": 8049,
      "апорожь": 8050,
      "ol": 8051,
      "Ун": 8052,
      "жигит": 8053,
      "ай ал": 8054,
      "ияда к": 8055,
      "алдындагы ": 8056,
      "эле с": 8057,
      "унда м": 8058,
      "олдон ": 8059,
      ", баш": 8060,
      "ин түз": 8061,
      "маселес": 8062,
      "өзгөчө абал": 8063,
      "ихаил": 8064,
      "Садыр Жапаровдун ": 8065,
      "геликт": 8066,
      " округ": 8067,
      " млн. долл": 8068,
      "ө абагында ": 8069,
      "ысы кел": 8070,
      "атаандашт": 8071,
      "өзгөч": 8072,
      "түшүндүрмөсү, ": 8073,
      "°,": 8074,
      "ти ": 8075,
      " карт": 8076,
      "иллер": 8077,
      "елеп": 8078,
      "адилет": 8079,
      " эст": 8080,
      "артында ": 8081,
      " болуп саналат.\n": 8082,
      " миңдеген ": 8083,
      " көргөз": 8084,
      " жазылган ": 8085,
      "удь": 8086,
      "аланган ": 8087,
      "арата ": 8088,
      "Адилет": 8089,
      "ачкачыл": 8090,
      " жатышат": 8091,
      "Сүрөттүн түшүндүрмөсү, ": 8092,
      " чектөөлөр": 8093,
      " гектар жер": 8094,
      "ыктымалд": 8095,
      "ув": 8096,
      "ыбеков": 8097,
      "атформ": 8098,
      "иров": 8099,
      " ма": 8100,
      " түнкүсүн -": 8101,
      "ам ": 8102,
      "ыйында ": 8103,
      "айтарыл": 8104,
      "ылдамд": 8105,
      " деп к": 8106,
      "бир нече ж": 8107,
      "арлар": 8108,
      "турум": 8109,
      "Украинага б": 8110,
      "оргоого": 8111,
      "ранс": 8112,
      "өбүнчө": 8113,
      " жатканын айтты.\n": 8114,
      "чек ара ": 8115,
      "жакшы ": 8116,
      "оттун ": 8117,
      "чечимдер": 8118,
      "өлкөдөгү ": 8119,
      "-октябрдагы ": 8120,
      "Саламаттык сактоо министрлиг": 8121,
      "үйрөн": 8122,
      "58": 8123,
      "Парламент": 8124,
      "Саясий": 8125,
      "Шам": 8126,
      " жөн ": 8127,
      "аманд": 8128,
      "ырайым": 8129,
      "аткан к": 8130,
      "отуз": 8131,
      "емис": 8132,
      "иштен ": 8133,
      "өсүнүн ": 8134,
      "Андай": 8135,
      "мурдагы к": 8136,
      "Байденд": 8137,
      "буз.\n": 8138,
      "чет өлкөлүк ": 8139,
      "добушт": 8140,
      "зел": 8141,
      "чи": 8142,
      "ине, ": 8143,
      "асп": 8144,
      "ишкана ": 8145,
      "өпкө": 8146,
      "ууга жана ": 8147,
      "агандар ": 8148,
      "Нурлан ": 8149,
      "Президент ": 8150,
      "өзгөчө кырдаал": 8151,
      "фильм": 8152,
      "ууну сунушт": 8153,
      "сүрөттөр": 8154,
      "диалог": 8155,
      "42": 8156,
      "II": 8157,
      "Аж": 8158,
      "Парт": 8159,
      "дал ушул": 8160,
      "саң": 8161,
      "ёр": 8162,
      "ӨКМ": 8163,
      " калды": 8164,
      " китеп": 8165,
      "орунда ": 8166,
      " майрам": 8167,
      " салды.\n": 8168,
      " алк": 8169,
      " биринч": 8170,
      "кант": 8171,
      "ажы ": 8172,
      "эки": 8173,
      "өп ": 8174,
      "негизсиз": 8175,
      " башкы ": 8176,
      " билдиргендей, ": 8177,
      "га чейин к": 8178,
      "ээлеп": 8179,
      "жокмун": 8180,
      " жетекчилер": 8181,
      " токтом": 8182,
      "ейлөө": 8183,
      "институтунун ": 8184,
      "Беларустун ": 8185,
      "Үй-бүл": 8186,
      " төрагасы ": 8187,
      "Түркмөнстанд": 8188,
      "Вир": 8189,
      "Шавкат ": 8190,
      "дин, ": 8191,
      "тагдыр": 8192,
      "чагым": 8193,
      "арабынан ": 8194,
      " тажик": 8195,
      "өтпөй": 8196,
      "дим": 8197,
      " чег": 8198,
      "айда к": 8199,
      "и түз": 8200,
      " жылга к": 8201,
      "одон": 8202,
      " суроо": 8203,
      " алдында ": 8204,
      "февраль": 8205,
      "мурдагы орун басары ": 8206,
      "ан бери б": 8207,
      "ыйынтыгында ": 8208,
      " айылынын ": 8209,
      " академ": 8210,
      "президенти Владимир Зеленский": 8211,
      "нааразылык акцияс": 8212,
      " жоопкерчилиг": 8213,
      "өзөктүк": 8214,
      "Цзин": 8215,
      "еханизм": 8216,
      "Вт": 8217,
      "ЖМК": 8218,
      "Ленин ": 8219,
      "билим": 8220,
      "мар": 8221,
      "нот": 8222,
      " мекен": 8223,
      " мамлекеттин ": 8224,
      "гана с": 8225,
      " болор": 8226,
      "актыр": 8227,
      "аткыр": 8228,
      " каралган.\n": 8229,
      "ынан улам": 8230,
      " экен ": 8231,
      " болгон эмес.\n": 8232,
      "өкмөт ": 8233,
      " делген ": 8234,
      "\"Бүтүн Кыргызстан": 8235,
      "огорулат": 8236,
      "аэропортт": 8237,
      "Евразия": 8238,
      "еларус": 8239,
      "удьял": 8240,
      "Түрк ": 8241,
      "дын б": 8242,
      "ата к": 8243,
      "ууганд": 8244,
      "ылышт": 8245,
      "деңгээли": 8246,
      "абастан ": 8247,
      "отчет": 8248,
      "айланды.\n": 8249,
      "үйүндө": 8250,
      " экенин, ": 8251,
      "ов атындагы ": 8252,
      "үүгө аракет кыл": 8253,
      "генден ": 8254,
      " курам": 8255,
      " өлкөдөн ": 8256,
      "урулушт": 8257,
      "аянтт": 8258,
      "четке какт": 8259,
      " мамлекеттердин ": 8260,
      "натыйжасында ": 8261,
      " таасирин тийгиз": 8262,
      "жакындары ": 8263,
      " бейтапт": 8264,
      "мүмкүнчүлүк": 8265,
      "Коргоо министрлиги ": 8266,
      "елечект": 8267,
      "Адахан Мадумар": 8268,
      "таң": 8269,
      "ай турган ": 8270,
      "андар ": 8271,
      " сыпатт": 8272,
      "дум.\n": 8273,
      "еңешм": 8274,
      "ан кийин к": 8275,
      " өздөр": 8276,
      " болгон жок.\n": 8277,
      "Прокур": 8278,
      "иликтен": 8279,
      "Атамбаевдин ": 8280,
      "андан ары ": 8281,
      "орус аскерлер": 8282,
      "Жакынкы ": 8283,
      "оңшул": 8284,
      "өз алдынч": 8285,
      "дагыдай": 8286,
      "вариант": 8287,
      "43": 8288,
      "Иран": 8289,
      "Реж": 8290,
      "ар жана ": 8291,
      " мектептер": 8292,
      "алдыр": 8293,
      "эмес уюм": 8294,
      "ун билдирди.\n": 8295,
      "арынын бир": 8296,
      "агыдай": 8297,
      " башталды.\n": 8298,
      "саны к": 8299,
      "өлкөлөргө": 8300,
      "скиде": 8301,
      "аялдар ": 8302,
      "ыгы үчүн ": 8303,
      " газ": 8304,
      "саламаттык сактоо ": 8305,
      "Демократ": 8306,
      " кеңешинин ": 8307,
      " чектөө": 8308,
      " демилгес": 8309,
      "са болот.\n": 8310,
      ", - деди ": 8311,
      "Кара-Суу ": 8312,
      "\"Цен": 8313,
      "Жалпы ": 8314,
      "мөк": 8315,
      "өгө ": 8316,
      "а Г": 8317,
      "алас": 8318,
      "ерн": 8319,
      "адатт": 8320,
      "аба м": 8321,
      " сиз": 8322,
      " сырт": 8323,
      "айт\n": 8324,
      " \"Б": 8325,
      " экени айт": 8326,
      "а болот.\n": 8327,
      "мурун": 8328,
      "асынын к": 8329,
      "айрым жерлер": 8330,
      "алганда ": 8331,
      " чара көр": 8332,
      "ында бул": 8333,
      "оосун ": 8334,
      "Израил ": 8335,
      "электрондук ": 8336,
      "маалыматта.\n": 8337,
      "милициянын ": 8338,
      "аза тилкес": 8339,
      "атып түшүр": 8340,
      " сотко": 8341,
      "талапкерлиг": 8342,
      "өзгөртүү киргиз": 8343,
      "автобуст": 8344,
      "Ташкент": 8345,
      "im": 8346,
      "Жарандык ": 8347,
      "дык ": 8348,
      "идин ": 8349,
      "цар": 8350,
      "аражат": 8351,
      "ат ал": 8352,
      " жанд": 8353,
      ", эл": 8354,
      "ышууда.\n": 8355,
      "өлгөн.\n": 8356,
      "окс": 8357,
      "аттуу к": 8358,
      "айтылууда.\n": 8359,
      "у (": 8360,
      "ин башт": 8361,
      "түшкөн ": 8362,
      "айыпталуу": 8363,
      "видеол": 8364,
      "ине байланыштуу ": 8365,
      "Путин менен ": 8366,
      "Тышкы иштер министрлигинин ": 8367,
      "Жаза ": 8368,
      "олуттуу": 8369,
      "Энергетик": 8370,
      "етербург": 8371,
      " ирет": 8372,
      ".)": 8373,
      "Исп": 8374,
      "ада, ": 8375,
      "ада м": 8376,
      "ыгы т": 8377,
      "үшү ": 8378,
      "енттер": 8379,
      "аптакыр": 8380,
      " салып, ": 8381,
      " таратты.\n": 8382,
      "Өзбекстанга ": 8383,
      "сөзсүз": 8384,
      "ып кеткен ": 8385,
      "аганга ": 8386,
      " түрмө": 8387,
      " жарыялаган.\n": 8388,
      "Жапаров ": 8389,
      "тууралуу ": 8390,
      "эксперттер": 8391,
      "оңдоп": 8392,
      " млн долл": 8393,
      "Кремлдин ": 8394,
      "Улуу Британия": 8395,
      " болгондуктан ": 8396,
      "провинцияс": 8397,
      "өмүрү кый": 8398,
      "The ": 8399,
      "Запорожь": 8400,
      "Иликт": 8401,
      "ла": 8402,
      " же ж": 8403,
      " союз": 8404,
      "ейцар": 8405,
      "аалаган ": 8406,
      "суз ": 8407,
      "Андрей": 8408,
      " көп.\n": 8409,
      "ору, ": 8410,
      "тууганд": 8411,
      "экспертт": 8412,
      "сөөгү ": 8413,
      " бекет": 8414,
      " - деп жазылган ": 8415,
      "Азербайжандын ": 8416,
      "Кемпир-Абад иш": 8417,
      "асып кир": 8418,
      "Телеграм": 8419,
      "гул": 8420,
      "зат ": 8421,
      "рух": 8422,
      "са, к": 8423,
      "чук": 8424,
      "олгон ": 8425,
      "ириш": 8426,
      "ак ж": 8427,
      "ышын ": 8428,
      "өкүн": 8429,
      "Азим": 8430,
      "депорт": 8431,
      "айыптал": 8432,
      "өбүрөөк ": 8433,
      "одон ": 8434,
      "алдын ал": 8435,
      "Куралдуу күчтөр": 8436,
      "чарб": 8437,
      "интег": 8438,
      "ка каршы күрөш": 8439,
      "ине байланыштуу": 8440,
      "ыйгар": 8441,
      "Жазык кодексинин ": 8442,
      "объектилер": 8443,
      "айтымында, к": 8444,
      "Борбордук шайлоо комиссиясынын ": 8445,
      "а мамлекеттер": 8446,
      "рестор": 8447,
      "негиздөөчү": 8448,
      " G": 8449,
      "uter": 8450,
      "Иск": 8451,
      "Кел": 8452,
      "зо": 8453,
      "сүй": 8454,
      "шилтем": 8455,
      "ыдан ": 8456,
      "ан жана ": 8457,
      "олук к": 8458,
      "ылык": 8459,
      "өтөп": 8460,
      "арман": 8461,
      "департамент": 8462,
      "чилери ": 8463,
      " салган.\n": 8464,
      " адам каза бол": 8465,
      " койсо": 8466,
      "үбөлөр": 8467,
      "аза болду.\n": 8468,
      "Борбор Азиядагы ": 8469,
      "ияны к": 8470,
      "Башкы прокуратура ": 8471,
      "Саламаттык сактоо министрлигинин ": 8472,
      "азырынча б": 8473,
      "Лонд": 8474,
      "рем": 8475,
      "өгөн": 8476,
      "енин басма сөз": 8477,
      " техник": 8478,
      "үн т": 8479,
      "атталган ": 8480,
      "отек": 8481,
      "Ал к": 8482,
      "Аларга ": 8483,
      "үйдөн ": 8484,
      "иштеген": 8485,
      "да\n": 8486,
      "оолорду": 8487,
      "ердин к": 8488,
      "оронавирус ж": 8489,
      "ка кабыл": 8490,
      "-Сай": 8491,
      "-беренесинин ": 8492,
      "үгүндөгү ": 8493,
      "үлгүс": 8494,
      "Reuter": 8495,
      "пад": 8496,
      "түрк": 8497,
      " жатты.\n": 8498,
      " жагдайл": 8499,
      "агыра": 8500,
      "арда м": 8501,
      "аттоого": 8502,
      "ейн": 8503,
      "ечирим сур": 8504,
      "Ош шаарында ": 8505,
      "а болсо": 8506,
      "айып ": 8507,
      " жылдыг": 8508,
      "ноябр": 8509,
      "ышкы саясат": 8510,
      "талапкерлер": 8511,
      "өздөш": 8512,
      "оону к": 8513,
      "алдыга ": 8514,
      "\"Азаттыктын\" к": 8515,
      "редакт": 8516,
      "музык": 8517,
      "убайы ": 8518,
      "\"Н": 8519,
      "Мэр": 8520,
      "сайтт": 8521,
      "ты ": 8522,
      " көңүл бур": 8523,
      "ин\" ": 8524,
      "и Цзин": 8525,
      "үү жөнүндө": 8526,
      "аба к": 8527,
      "аза с": 8528,
      "укук": 8529,
      " чукул": 8530,
      "ип, ж": 8531,
      "игый": 8532,
      " аталган ": 8533,
      "каржыл": 8534,
      "Бишкектег": 8535,
      "башкар": 8536,
      "аныктал": 8537,
      "райондорунд": 8538,
      "КМШ": 8539,
      "энерг": 8540,
      "Ошол эле маалда ": 8541,
      "абактагы ": 8542,
      "мүчө": 8543,
      "Соңку ": 8544,
      "елгиледи:\n": 8545,
      "id": 8546,
      "а, бир": 8547,
      "жал": 8548,
      "ет, ": 8549,
      "ишинч": 8550,
      "өрс": 8551,
      "ун.\n": 8552,
      "ун\" ": 8553,
      "Ал жерде": 8554,
      "аяк": 8555,
      "олдой": 8556,
      "и жылд": 8557,
      "ичинде ж": 8558,
      "көрс": 8559,
      "Украина менен ": 8560,
      "станция": 8561,
      " балб": 8562,
      " болушу мүмкүн ": 8563,
      "Донбас": 8564,
      " баракчасына ": 8565,
      "етекчиси ": 8566,
      "Украинадагы согушт": 8567,
      "шайлоого катыш": 8568,
      " миллион доллар": 8569,
      " көрсөткөн ": 8570,
      "англис": 8571,
      "Александр Лукашен": 8572,
      "Каракол": 8573,
      "ооптуу ": 8574,
      "\"Талибан\" кыймыл": 8575,
      "95": 8576,
      "гай": 8577,
      "даң": 8578,
      "жам": 8579,
      "п, ": 8580,
      "алиция": 8581,
      "алыст": 8582,
      " жогорку": 8583,
      "уу, к": 8584,
      "орган": 8585,
      "имде": 8586,
      "итв": 8587,
      " турмуш": 8588,
      "ык көрсөт": 8589,
      "айдоо": 8590,
      "уунун ж": 8591,
      " кишиге ж": 8592,
      "ылайыкт": 8593,
      "оолорду ": 8594,
      "соңку к": 8595,
      "шаардык кеңеш": 8596,
      " жактан к": 8597,
      "укуктук": 8598,
      "ушу мүмкүн ": 8599,
      "ошондо": 8600,
      "өз каранды ": 8601,
      "Себеби, ": 8602,
      "жалпы саны ": 8603,
      "Африк": 8604,
      " президент": 8605,
      " ошол": 8606,
      "na": 8607,
      "ке с": 8608,
      "ар кыл": 8609,
      " кыргызстанд": 8610,
      "атышты.\n": 8611,
      " бурул": 8612,
      " былтыр ": 8613,
      " тапшырм": 8614,
      "онушт": 8615,
      "өлүгү": 8616,
      "аттоодон ": 8617,
      "ы кабарлады.\n": 8618,
      "емор": 8619,
      "айларында ": 8620,
      " туура кел": 8621,
      "Украинада ": 8622,
      "Андыктан ": 8623,
      " экинчи ": 8624,
      "айылынын ": 8625,
      "бөйт.\n": 8626,
      " өкмөтүнүн ": 8627,
      " мандаттуу ": 8628,
      "аба ырай": 8629,
      "аннексиял": 8630,
      "вердл": 8631,
      "Кайр": 8632,
      "уф": 8633,
      "енен": 8634,
      "иркө": 8635,
      "ардын, ": 8636,
      "реакция": 8637,
      " түзгөн ": 8638,
      "га караганда, ": 8639,
      " кызыкчыл": 8640,
      "анклав": 8641,
      "\" беренеси менен ": 8642,
      " чейинк": 8643,
      "Евробиримдиктин ": 8644,
      "убактылуу кармоочу жай": 8645,
      " аг": 8646,
      "Кечээ": 8647,
      "Салык к": 8648,
      "ацион": 8649,
      "вет": 8650,
      "сыпатт": 8651,
      "ыбай": 8652,
      "яд": 8653,
      "алары": 8654,
      "инге ": 8655,
      "ардагы к": 8656,
      "унт": 8657,
      "егендер": 8658,
      " бир к": 8659,
      "ары да ": 8660,
      " келатат.\n": 8661,
      "алган ж": 8662,
      "чыгарды.\n": 8663,
      "арызд": 8664,
      "нааразы": 8665,
      "ээрим": 8666,
      "өнүктүрүүгө": 8667,
      "азыркы к": 8668,
      "Токи": 8669,
      "\" компанияс": 8670,
      " чогулт": 8671,
      " электр энерг": 8672,
      "Билим берүү жана илим": 8673,
      " акча ": 8674,
      "800": 8675,
      "душ": 8676,
      "ка, ": 8677,
      "ник ": 8678,
      " сок": 8679,
      "азил": 8680,
      "арыяланган ": 8681,
      "ранз": 8682,
      " Мак": 8683,
      "дөн ашык ": 8684,
      "аялд": 8685,
      "ошумч": 8686,
      " борборлор": 8687,
      "конг": 8688,
      "конун ": 8689,
      "болсо, ": 8690,
      "Актив": 8691,
      "Ош шаардык ": 8692,
      "Дарыгерлер": 8693,
      "окуяны ": 8694,
      "-орунд": 8695,
      "67": 8696,
      "балдар": 8697,
      "кы б": 8698,
      "ири к": 8699,
      "ап, т": 8700,
      "ыктан, ": 8701,
      "ары үчүн ": 8702,
      " келбей": 8703,
      "инин бир": 8704,
      " бар, ": 8705,
      "партияс": 8706,
      "жерде": 8707,
      " жасаган ": 8708,
      " жарыялады.\n": 8709,
      "үүнү сунушт": 8710,
      "Жапаров": 8711,
      "ракеталык ": 8712,
      "ыгын билдир": 8713,
      "эстел": 8714,
      "Кой-Таш": 8715,
      "интервью": 8716,
      " өткөн ": 8717,
      "Сен": 8718,
      "төбөл": 8719,
      "фран": 8720,
      "чач": 8721,
      "ира ": 8722,
      "ып бер": 8723,
      "ында кар": 8724,
      "алды, ": 8725,
      "ондой": 8726,
      "он үчүн ": 8727,
      "ы бил": 8728,
      ", жаз": 8729,
      "өткөрүлүп": 8730,
      "башчыл": 8731,
      "Ошондо ": 8732,
      "ылайык, к": 8733,
      "айылында ": 8734,
      "расмий маалымат": 8735,
      "өкүлдөрүнүн ": 8736,
      "саясий к": 8737,
      "өздөгөн ": 8738,
      "адамдарга ": 8739,
      "-февралд": 8740,
      "аягы ": 8741,
      "мигранттардын ": 8742,
      "Евробиримдик": 8743,
      "ыюу салынган ": 8744,
      "инфекция": 8745,
      "лагерлер": 8746,
      "Обл": 8747,
      "Сар": 8748,
      "белгилүү": 8749,
      "жүз": 8750,
      "лег": 8751,
      "айлар": 8752,
      "ездеш": 8753,
      "инде.\n": 8754,
      "амлекетке к": 8755,
      "гандарга ": 8756,
      "учурдагы ": 8757,
      " штаб": 8758,
      " Кр": 8759,
      ", мындай": 8760,
      " чыгат.\n": 8761,
      "аттык менен ": 8762,
      "Европанын ": 8763,
      " орусиял": 8764,
      "өнүктүрүү ": 8765,
      "зомбулук ": 8766,
      "ойноп": 8767,
      "үк ташуучу ": 8768,
      "\"Э": 8769,
      "бы": 8770,
      "пик": 8771,
      "син": 8772,
      "ы боюнча к": 8773,
      " баар": 8774,
      " бойл": 8775,
      " тос": 8776,
      "иш ": 8777,
      "адагы ж": 8778,
      " эли": 8779,
      "ова.\n": 8780,
      "унда с": 8781,
      "илдирүү": 8782,
      "олдун ": 8783,
      "үгүнкү": 8784,
      "елгиленди.\n": 8785,
      "үүгө аргасыз": 8786,
      "талибдер": 8787,
      "салык к": 8788,
      "алиева ": 8789,
      " бала ": 8790,
      "оомчулук": 8791,
      "баасы ": 8792,
      "зыян": 8793,
      "Авт": 8794,
      "Чыгышт": 8795,
      "Адам укукт": 8796,
      " эртең": 8797,
      " башталгандан бери ": 8798,
      "тышкары ": 8799,
      "Акыйкатчы ": 8800,
      "Саймаит": 8801,
      "Бардык ": 8802,
      "Гон": 8803,
      "гачк": 8804,
      " кыргызстандык ": 8805,
      " бет": 8806,
      "орукт": 8807,
      " тр": 8808,
      "ын-": 8809,
      "ама-": 8810,
      "үү аракет": 8811,
      "ымырк": 8812,
      "икалык к": 8813,
      "оюм": 8814,
      "Аларды ": 8815,
      "ойго": 8816,
      "еп Т": 8817,
      "иштебей": 8818,
      "бирге ": 8819,
      "чыгармал": 8820,
      "да көп": 8821,
      "арыяланды.\n": 8822,
      " жыл мур": 8823,
      " болот?\n": 8824,
      " жакында ": 8825,
      "сөөг": 8826,
      "иши керек ": 8827,
      "ахмуд": 8828,
      " эч нерс": 8829,
      "аза болгондордун ": 8830,
      "аасы ": 8831,
      "жең": 8832,
      "кин": 8833,
      "чы, ": 8834,
      "ь-": 8835,
      " бий": 8836,
      "акысыз": 8837,
      "ымсыз": 8838,
      "артынан ": 8839,
      "а жаз": 8840,
      "Ош облусунун ": 8841,
      "Орусия, ": 8842,
      "арын т": 8843,
      "үтүр": 8844,
      " жергес": 8845,
      "мурун ": 8846,
      "уу жана к": 8847,
      " өлкөс": 8848,
      "европ": 8849,
      "гөндөн кийин ": 8850,
      "айланышкан ": 8851,
      "оомдук т": 8852,
      "-феврал": 8853,
      "акшы": 8854,
      "депутаттар ": 8855,
      "көнү": 8856,
      "Тергө": 8857,
      "Батыш өлкөлөр": 8858,
      "есепеттер": 8859,
      ".б.": 8860,
      "Лейлек ": 8861,
      "130": 8862,
      "кинд": 8863,
      "сентябр": 8864,
      "арына ж": 8865,
      " кес": 8866,
      " товарл": 8867,
      "ыш үчүн ": 8868,
      "есиз": 8869,
      "аштуу": 8870,
      " жазган ": 8871,
      "жергиликтүү ": 8872,
      "-сезим": 8873,
      "Бирок биз": 8874,
      "муну ": 8875,
      " экенин айтты.\n": 8876,
      " түрдүү": 8877,
      "алып келген ": 8878,
      "аймагына ": 8879,
      " миң сомдон ": 8880,
      "нааразылык": 8881,
      " тергөө абаг": 8882,
      "азырынча к": 8883,
      "ыргыз-тажик чек арас": 8884,
      "(БШК": 8885,
      "пневмон": 8886,
      " батир": 8887,
      "аман к": 8888,
      "ганын ж": 8889,
      "да \"": 8890,
      "егор": 8891,
      "эл аралык": 8892,
      " турганын билдирди.\n": 8893,
      " бара ж": 8894,
      "ааныш": 8895,
      "ин көтөр": 8896,
      "и талкуул": 8897,
      "Арт": 8898,
      "мыйзам буз": 8899,
      "өмүр бою": 8900,
      " жарандык ": 8901,
      "а элек": 8902,
      "мамилес": 8903,
      "оронавирустун ": 8904,
      "акцияга ": 8905,
      "дарылан": 8906,
      "арын билдирди.\n": 8907,
      "арасында к": 8908,
      " жоокер": 8909,
      "оскоолдукт": 8910,
      " коюшту.\n": 8911,
      " R": 8912,
      " айтып": 8913,
      "Бүгүн, ": 8914,
      "буйр": 8915,
      "бөгөт чар": 8916,
      "кадыр": 8917,
      "киши ": 8918,
      "өгү ": 8919,
      "арр": 8920,
      " жалгыз": 8921,
      "айынын ": 8922,
      "орв": 8923,
      "амжыл": 8924,
      "етп": 8925,
      "аткан б": 8926,
      "ипотек": 8927,
      "үйгө": 8928,
      "айрамд": 8929,
      " арак": 8930,
      "акырынд": 8931,
      "елгилей": 8932,
      "дагерлер": 8933,
      " киши ж": 8934,
      "аймактык": 8935,
      "айрымд": 8936,
      "деги ж": 8937,
      "өбөйт": 8938,
      "тергөө ": 8939,
      "ариуп": 8940,
      " партиянын ": 8941,
      "аймагындагы ": 8942,
      "үйшөмб": 8943,
      "Демек, ": 8944,
      " бекит": 8945,
      "ing": 8946,
      " демилг": 8947,
      "соттун чечим": 8948,
      "Бүгүнкү күндө": 8949,
      "Ел": 8950,
      "Шак": 8951,
      "о-": 8952,
      "сол": 8953,
      "те ": 8954,
      "тажик": 8955,
      "енцияс": 8956,
      "ирет.\n": 8957,
      "етпей": 8958,
      "улуу ": 8959,
      "га жет": 8960,
      "езде ": 8961,
      "ектеш": 8962,
      " турганын б": 8963,
      "ысын ": 8964,
      ", бийликт": 8965,
      "Кыргызстанда м": 8966,
      "да, к": 8967,
      "туризм": 8968,
      "арга бар": 8969,
      "елгилейт.\n": 8970,
      "га кабыл": 8971,
      "айм.\n": 8972,
      " жылы ": 8973,
      "ганын айтты.\n": 8974,
      "айрымдар": 8975,
      "ушу керек.\n": 8976,
      "тартып ": 8977,
      "Ошондой эле": 8978,
      " комиссия": 8979,
      "\" деди.\n": 8980,
      "Германия": 8981,
      "айнап": 8982,
      "администрациясынын ": 8983,
      "сыяктуу": 8984,
      "Ташкентт": 8985,
      "Нью-Й": 8986,
      ": Ж": 8987,
      "Жар": 8988,
      "Илим": 8989,
      "Фр": 8990,
      ", Б": 8991,
      ", Нарын ": 8992,
      "ок-": 8993,
      "ушунда ": 8994,
      "есиң": 8995,
      "ашты\n": 8996,
      "еттик": 8997,
      "армалды\n": 8998,
      "негизинде к": 8999,
      " тараткан ": 9000,
      "Бишкекте к": 9001,
      "ацияланган ": 9002,
      "катарында ": 9003,
      "эркиндик": 9004,
      "изилдеп": 9005,
      "Учур": 9006,
      "а баштаган.\n": 9007,
      " башкаруу ": 9008,
      "жарыялады.\n": 9009,
      "Мирлан ": 9010,
      "деңгээлде": 9011,
      "Жолугуш": 9012,
      "Дүйнөлүк саламаттык сактоо ": 9013,
      "Ала-Т": 9014,
      "Көлбаев": 9015,
      " азыр": 9016,
      "62": 9017,
      "жыйынында ": 9018,
      "наз": 9019,
      "суу ": 9020,
      "уу чечим": 9021,
      "ылыч": 9022,
      "ынан": 9023,
      "аспорт": 9024,
      "ызуу т": 9025,
      "ишин к": 9026,
      "оош": 9027,
      "онфер": 9028,
      "атталды.\n": 9029,
      "атталып, ": 9030,
      "ыкты ж": 9031,
      "ойдо": 9032,
      " элем.\n": 9033,
      "авар": 9034,
      "а тарт": 9035,
      ", жергиликтүү": 9036,
      "уштук": 9037,
      "арын жана ": 9038,
      "Абанын температур": 9039,
      "Айбек ": 9040,
      "Айсул": 9041,
      ", ал эм": 9042,
      " жылга чейин ": 9043,
      " бөлүп": 9044,
      "аныктоо": 9045,
      "и-үч": 9046,
      "үнөн к": 9047,
      "көптөгөн ": 9048,
      "ациясы ": 9049,
      "баштап": 9050,
      "ички иштер башкармал": 9051,
      "езектеги ": 9052,
      "ачык-": 9053,
      "ыйгарым укуктуу ": 9054,
      "Улуттук коопсуздук боюнча мамлекеттик комитет (": 9055,
      "Райымбек Матраимов": 9056,
      "вердлов ": 9057,
      "BC": 9058,
      "Тай": 9059,
      "анов ": 9060,
      " көңүл": 9061,
      "ына бир": 9062,
      "ып жатканын ": 9063,
      "үнгө": 9064,
      "ыгыз": 9065,
      "укук ": 9066,
      "игип": 9067,
      "оорус": 9068,
      "маалымат ": 9069,
      "айдан": 9070,
      "ациянын ": 9071,
      " жакка к": 9072,
      "аймактагы ": 9073,
      "ына карата ": 9074,
      "өкүлдөрү менен ": 9075,
      "эң көп": 9076,
      " айылында ": 9077,
      "ички иштер башкармалыгынын ": 9078,
      "мэри ": 9079,
      " фин": 9080,
      "Апр": 9081,
      "Вал": 9082,
      " маданият": 9083,
      "ырган ": 9084,
      "арда б": 9085,
      "ектүү ": 9086,
      "индер": 9087,
      "ашкер": 9088,
      " турду.\n": 9089,
      "и жок.\n": 9090,
      "ытайл": 9091,
      "көрүп": 9092,
      " адам к": 9093,
      "өткөрүп, ": 9094,
      "сотунун ": 9095,
      "түрк ": 9096,
      "деле": 9097,
      " миңден ашык ": 9098,
      " талаш": 9099,
      "Уюш": 9100,
      "активист ": 9101,
      "чиликке т": 9102,
      "дарыя": 9103,
      "Матраимовдун ": 9104,
      "\" компаниясы ": 9105,
      "гөндөрдүн ": 9106,
      "аппаратт": 9107,
      " себептер": 9108,
      "статистика к": 9109,
      "\"м": 9110,
      "\"Ак": 9111,
      "Ын": 9112,
      "пой": 9113,
      "өдү.\n": 9114,
      " кий": 9115,
      "ынды\n": 9116,
      "ыйк": 9117,
      "үч түзүмдөр": 9118,
      "ыргыз жаранд": 9119,
      " барат": 9120,
      " кылым": 9121,
      "гону": 9122,
      "октоп": 9123,
      " \"М": 9124,
      "шайлоочулардын ": 9125,
      " Союз": 9126,
      " адамга ж": 9127,
      "президенти Жо Байден ": 9128,
      " кабаттуу ": 9129,
      "туура эмес": 9130,
      " деп ойл": 9131,
      " экономикалык": 9132,
      "нерселер": 9133,
      " млн сом": 9134,
      "Шавкат Мирзиёев": 9135,
      "re": 9136,
      "Ком": 9137,
      "Ус": 9138,
[...]
