<unk>	0
<s>	0
</s>	0
.	-2.9529
,	-3.29322
н	-4.08249
-	-4.52961
▁"	-4.60644
"	-4.67745
▁менен	-4.75438
▁жана	-4.87586
▁бир	-5.43402
га	-5.43833
▁да	-5.45665
▁деп	-5.49053
▁эле	-5.57365
▁	-5.62142
▁боюнча	-5.69414
▁-	-5.72237
▁үчүн	-5.83814
▁бул	-5.86352
нын	-5.94154
▁Бул	-6.02281
▁Ал	-6.03038
▁болуп	-6.09816
▁бар	-6.13885
▁деген	-6.14974
ка	-6.16624
▁ал	-6.16694
▁тууралуу	-6.17616
▁болгон	-6.19585
:	-6.21078
▁жок	-6.2258
да	-6.24492
▁чейин	-6.27228
▁жатат	-6.28302
▁эмес	-6.29992
▁керек	-6.30481
▁алып	-6.36632
к	-6.38126
▁кийин	-6.39926
▁дагы	-6.41019
дан	-6.42944
▁эки	-6.43273
м	-6.45915
жылы	-6.4802
)	-6.49067
▁(	-6.50156
ы	-6.52467
▁анын	-6.55559
гы	-6.55932
▁Бирок	-6.57706
ге	-6.58784
▁билдирди	-6.60171
▁экенин	-6.62302
?	-6.62666
▁каршы	-6.66363
",	-6.66803
а	-6.67134
▁жаткан	-6.72194
▁башка	-6.72572
ке	-6.74176
▁турган	-6.74517
▁же	-6.75271
▁көп	-6.76577
▁адам	-6.77482
т	-6.78024
▁болду	-6.80673
▁мамлекеттик	-6.81545
▁бери	-6.8243
го	-6.83323
и	-6.85595
дин	-6.8571
▁болот	-6.85886
▁эми	-6.86623
▁гана	-6.86753
▁өз	-6.87351
▁эл	-6.87705
▁иш	-6.87771
▁маалымат	-6.88784
▁кандай	-6.88865
▁алган	-6.91327
▁келген	-6.93491
▁байланыштуу	-6.94696
▁чек	-6.94701
▁катары	-6.95079
▁жатканын	-6.95444
▁жаңы	-6.96142
▁айтып	-6.9646
лык	-6.9805
▁Кыргызстандын	-6.98397
▁аралык	-7.00421
▁ар	-7.01148
ын	-7.02393
дын	-7.03203
на	-7.03498
дагы	-7.03954
п	-7.04005
▁кабыл	-7.0402
▁сөз	-7.05044
▁кол	-7.05927
▁кыргыз	-7.07637
▁аны	-7.07786
▁киши	-7.07929
▁Орусиянын	-7.08925
▁болсо	-7.09341
▁Жогорку	-7.10911
▁Кыргызстанда	-7.11309
▁иштер	-7.11542
▁миң	-7.12663
▁Анын	-7.13032
▁мүмкүн	-7.15375
гө	-7.17373
▁жолу	-7.18344
▁ошол	-7.19007
▁деди	-7.19155
р	-7.21358
▁чет	-7.22552
▁чыккан	-7.23241
▁үй	-7.23669
ды	-7.23709
▁учурда	-7.23882
▁ылайык	-7.25544
▁эч	-7.26192
▁жыл	-7.26579
▁бири	-7.26608
▁үч	-7.26649
▁мурдагы	-7.27033
▁Кыргызстан	-7.27066
▁айтты	-7.27372
▁президент	-7.27533
й	-7.28296
▁жол	-7.28483
▁баш	-7.29311
▁калган	-7.2947
ди	-7.29572
▁улам	-7.30754
▁чыгып	-7.3177
▁берген	-7.33608
▁мыйзам	-7.34583
▁алуу	-7.34736
▁ушул	-7.34815
▁бирок	-7.35254
▁келет	-7.36803
▁караганда	-7.36935
▁Жапаров	-7.37185
▁өткөн	-7.37529
дун	-7.38227
▁көз	-7.38394
▁билдирген	-7.38577
▁кайра	-7.39416
▁алардын	-7.39675
▁саясий	-7.39874
▁ичинде	-7.40381
▁Орусия	-7.40464
▁каза	-7.4112
у	-7.41217
▁жооп	-7.42062
▁президенти	-7.42302
▁жардам	-7.42564
▁экен	-7.42578
▁аркылуу	-7.42876
▁элек	-7.44399
▁Алар	-7.44479
▁турат	-7.45023
▁чоң	-7.45423
▁мындай	-7.46424
жылдын	-7.46836
▁шайлоо	-7.4749
▁жакшы	-7.47863
▁нече	-7.48089
▁жөнүндө	-7.48291
▁Биз	-7.48491
нун	-7.48581
ден	-7.48844
▁келип	-7.49197
▁Буга	-7.49291
▁биринчи	-7.49809
▁эң	-7.50806
▁расмий	-7.50881
▁алар	-7.51088
▁Садыр	-7.51143
▁орус	-7.51332
▁ага	-7.52132
де	-7.52335
▁биз	-7.52472
▁берүү	-7.52897
▁кылып	-7.5296
▁Бишкек	-7.53016
ин	-7.53029
▁иштеп	-7.53612
▁кеткен	-7.53887
▁кылмыш	-7.54594
▁берип	-7.54625
▁Ош	-7.55281
▁күнү	-7.55364
▁турганын	-7.55741
▁деле	-7.56003
▁калды	-7.56314
▁орун	-7.575
▁буга	-7.57965
▁кызматы	-7.58377
▁министрлиги	-7.5856
с	-7.59152
▁атайын	-7.5929
▁жалпы	-7.5974
▁коопсуздук	-7.60351
▁талап	-7.60751
▁ара	-7.60883
▁иши	-7.61548
ны	-7.62256
▁өлкөнүн	-7.63073
▁Улуттук	-7.63083
тан	-7.63167
▁туура	-7.63344
▁алды	-7.63484
▁Мен	-7.63514
▁коронавирус	-7.63588
▁жерде	-7.63723
▁Ошол	-7.64042
▁айткан	-7.64114
чу	-7.64148
▁бардык	-7.64294
▁айрым	-7.649
▁коргоо	-7.65096
нин	-7.65188
▁башчысы	-7.65821
▁миллион	-7.66315
▁ишке	-7.66808
▁өзү	-7.66892
▁акча	-7.67533
▁сот	-7.6756
ги	-7.67809
▁саны	-7.67922
▁карата	-7.68975
быз	-7.6991
л	-7.70069
▁Алардын	-7.70176
▁болчу	-7.70714
▁азыр	-7.70788
▁берди	-7.71034
▁жатышат	-7.7111
▁жакын	-7.71333
▁суу	-7.71434
▁социалдык	-7.71639
лар	-7.71788
▁сактоо	-7.71861
та	-7.72295
▁басма	-7.72539
▁айтымында	-7.72574
▁жаштагы	-7.72783
▁күн	-7.72865
▁Кыргыз	-7.73259
▁өтө	-7.74803
▁Бир	-7.75112
▁катар	-7.75255
▁сом	-7.76203
▁жер	-7.76695
ду	-7.76943
▁албай	-7.77527
сы	-7.77596
▁өлкө	-7.77626
▁АКШ	-7.7804
▁жергиликтүү	-7.78452
▁оор	-7.78665
ов	-7.7941
▁кылган	-7.79428
▁бийлик	-7.79432
▁беш	-7.7957
▁арасында	-7.7986
▁Анда	-7.80544
▁белгилүү	-7.80726
▁шаарында	-7.8103
▁ачык	-7.81158
▁министри	-7.81576
▁өтүп	-7.82181
▁Кеңештин	-7.82252
дөн	-7.83283
▁баары	-7.83339
▁мурда	-7.83442
▁айында	-7.83549
дар	-7.83977
▁биздин	-7.84686
бек	-7.85024
▁алынган	-7.85205
▁өкмөт	-7.85722
▁толук	-7.87252
▁аракет	-7.8728
▁аскердик	-7.87359
▁болушу	-7.87399
▁барып	-7.87407
▁эмне	-7.87828
▁Украинанын	-7.87981
ң	-7.88819
▁аталган	-7.89027
ына	-7.89241
▁сыяктуу	-7.89769
тын	-7.89886
▁Азыр	-7.89993
▁Мында	-7.90137
▁тартып	-7.90316
▁жүрүп	-7.90351
▁басары	-7.90584
▁төрт	-7.91203
▁жатканы	-7.91421
▁Эл	-7.91731
▁андан	-7.92065
▁Би	-7.92229
дай	-7.92609
▁коомдук	-7.92619
▁алдында	-7.92626
▁ата	-7.93196
▁Андан	-7.93227
▁Ага	-7.93296
ат	-7.93428
▁төрагасы	-7.93539
▁адамдар	-7.93664
▁жүргөн	-7.93773
▁жылдан	-7.9379
▁укук	-7.9432
инин	-7.94421
▁күч	-7.94436
октябрда	-7.95103
▁мен	-7.95115
▁соңку	-7.9513
ү	-7.95433
▁топ	-7.95488
▁млн	-7.95739
бай	-7.96039
Абад	-7.96242
▁болгонун	-7.96339
ты	-7.96446
▁райондук	-7.96498
▁маселе	-7.96823
▁бийлиги	-7.97106
▁өлкөдө	-7.97216
▁аз	-7.97465
▁чыкты	-7.97518
▁сатып	-7.97662
▁ички	-7.97892
▁башкы	-7.99141
▁өзгөчө	-7.99289
▁ушундай	-7.99624
▁жетекчиси	-7.99674
▁мыйзамсыз	-7.99728
▁кыргызстандык	-8.00897
▁А	-8.00946
▁акыркы	-8.01434
ти	-8.01808
▁улуттук	-8.02051
▁ашуун	-8.02201
▁өкүлү	-8.02242
нүн	-8.02452
▁мамлекет	-8.02677
▁азыркы	-8.03169
▁тергөө	-8.03369
▁бала	-8.03373
▁дейт	-8.03536
▁жеке	-8.0375
▁ким	-8.03753
▁министрлигинин	-8.03831
▁ала	-8.04025
▁Баткен	-8.04058
▁тышкары	-8.04185
▁Бишкекте	-8.04258
▁Ошондой	-8.04512
▁берет	-8.04773
▁маалыматына	-8.0493
▁жылга	-8.05196
▁баштаган	-8.05694
до	-8.05899
▁шаардык	-8.0602
▁ашык	-8.06449
▁кайсы	-8.06566
ш	-8.06602
▁АКШнын	-8.06724
▁күндүз	-8.0692
▁анда	-8.07104
са	-8.07298
▁10	-8.0732
▁ошондой	-8.07327
▁өзүнүн	-8.07395
▁экени	-8.07472
▁кызмат	-8.07612
▁добуш	-8.07682
▁өкүлдөрү	-8.07992
▁20	-8.08239
▁билим	-8.08535
▁белгиледи	-8.0872
▁түнкүсүн	-8.08818
▁К	-8.08844
▁карап	-8.09047
▁тыюу	-8.09222
дык	-8.09733
▁так	-8.09869
▁Борбор	-8.10042
▁чечим	-8.10154
▁президенттик	-8.10599
майда	-8.10843
тар	-8.10904
б	-8.1111
▁Мындай	-8.11153
▁Президент	-8.11238
▁келди	-8.11577
▁к	-8.11603
ко	-8.11889
▁бере	-8.12128
▁Жалал	-8.1221
▁экинчи	-8.12416
▁доллар	-8.12462
▁быйыл	-8.12813
бы	-8.13513
Азаттык	-8.13607
▁Анткени	-8.13692
дө	-8.14017
▁жазды	-8.14277
;	-8.14549
▁жатабыз	-8.1469
▁Кыргызстанга	-8.14769
▁учурунда	-8.1569
▁экономикалык	-8.15761
▁Кытай	-8.15883
ноябрда	-8.1592
▁айтылган	-8.16822
мартта	-8.16823
тин	-8.16831
▁алууга	-8.1754
",-	-8.17593
▁ишин	-8.17611
▁кетти	-8.17732
▁уулу	-8.17897
▁Мамлекеттик	-8.17975
▁иштеген	-8.18106
▁жогорку	-8.18451
▁иштери	-8.18612
▁ири	-8.18803
▁жарандык	-8.19393
▁1-	-8.19451
▁2020-	-8.19601
▁негизги	-8.19895
июнда	-8.19934
▁саат	-8.20644
▁алты	-8.20744
▁Ысык	-8.20879
▁Ошондуктан	-8.20923
▁облусунун	-8.21001
▁Башкы	-8.21324
▁алат	-8.21507
▁басып	-8.21837
августта	-8.22202
▁канча	-8.22302
▁премьер	-8.22452
▁Азия	-8.22457
▁тышкы	-8.22476
▁келе	-8.225
▁облусунда	-8.22578
▁айып	-8.22794
▁Владимир	-8.22817
▁убактылуу	-8.22935
декабрда	-8.23081
▁тарап	-8.23162
▁айыл	-8.23449
▁депутат	-8.235
▁тең	-8.23771
апрелде	-8.23775
▁мында	-8.23878
▁Украинага	-8.24019
▁Европа	-8.24138
▁май	-8.24245
туу	-8.24258
▁зарыл	-8.2458
ине	-8.2467
деги	-8.24686
▁алкагында	-8.24691
▁кызматынын	-8.24834
▁аларды	-8.24895
ма	-8.25146
▁кийинки	-8.25221
▁болгону	-8.25256
▁30	-8.25258
ну	-8.25436
ларды	-8.25623
▁миңден	-8.25937
гү	-8.25961
▁катуу	-8.26437
сын	-8.26676
▁соода	-8.27212
Азаттыкка	-8.27447
▁көңүл	-8.27461
▁чейинки	-8.27614
▁негизинде	-8.27667
▁жазылган	-8.27715
▁согуш	-8.27787
▁электр	-8.28128
▁ок	-8.28263
сентябрда	-8.28357
▁Путин	-8.28659
▁койгон	-8.28869
▁жай	-8.28956
лардын	-8.29037
▁Казакстан	-8.29109
▁катчысы	-8.29355
▁президенттин	-8.29387
▁алдын	-8.29436
▁маанилүү	-8.29461
▁берилген	-8.29952
▁Кыргызстандагы	-8.3016
▁элдик	-8.30352
▁Казакстандын	-8.30591
▁башында	-8.31129
▁уруксат	-8.31284
дардын	-8.3136
те	-8.31575
▁кызматкерлери	-8.31818
▁элдин	-8.31843
▁абдан	-8.31923
▁Орусияда	-8.3206
▁Эми	-8.32133
▁аскер	-8.32509
январда	-8.32907
ь	-8.33191
▁шайлоого	-8.33199
▁он	-8.33341
▁2022-	-8.33506
▁өттү	-8.33527
▁2021-	-8.33553
▁ай	-8.34015
▁айтылат	-8.34122
▁окуу	-8.34481
▁кабарлады	-8.34629
▁сайын	-8.34924
▁сотко	-8.35079
▁Ушул	-8.35145
▁Кара	-8.35318
▁адамдын	-8.35339
▁жайгашкан	-8.35355
▁эске	-8.35592
▁жарыялаган	-8.35821
▁пайда	-8.35995
▁ары	-8.36412
би	-8.36465
▁кетип	-8.36735
▁кезде	-8.36796
▁арыз	-8.36803
▁абал	-8.36882
▁барган	-8.36905
▁Учурда	-8.37012
▁алгачкы	-8.37219
дон	-8.37384
▁камакка	-8.3748
▁1	-8.37497
▁окуя	-8.37528
кө	-8.37593
▁млрд	-8.37813
си	-8.381
▁100	-8.38223
▁баштады	-8.38236
▁ээ	-8.38519
▁муну	-8.38661
е	-8.38836
▁көрүп	-8.38903
з	-8.38918
▁арада	-8.39124
▁Аны	-8.3928
▁балдар	-8.39639
Би	-8.39688
▁депутаты	-8.39748
▁тапта	-8.39824
▁тиешелүү	-8.39856
▁соту	-8.39901
▁аба	-8.39901
су	-8.3991
▁жазган	-8.39912
-19	-8.40028
А	-8.40588
▁тарабынан	-8.40596
министр	-8.40625
▁салып	-8.41096
▁соң	-8.41118
д	-8.41214
▁өткөрүп	-8.41311
▁аймагында	-8.41688
▁түшкөн	-8.41702
▁Т	-8.42132
▁кармалган	-8.42783
▁шек	-8.42828
июлда	-8.42868
▁белгисиз	-8.42938
▁Ак	-8.43501
▁күндө	-8.43524
▁азырынча	-8.43786
▁жерге	-8.43833
▁катышкан	-8.4419
▁Чүй	-8.44351
▁жашаган	-8.44423
▁Москва	-8.44627
февралда	-8.44789
▁салган	-8.44866
▁миллиард	-8.44939
▁жарым	-8.44948
▁лидери	-8.44973
▁колдоо	-8.45239
▁бүгүн	-8.45262
▁Биринчи	-8.45684
▁жактан	-8.45695
▁чакырды	-8.45902
▁укугу	-8.46063
▁кырдаал	-8.46072
▁нааразылык	-8.46088
▁курал	-8.46165
▁Бишкектин	-8.46257
▁салуу	-8.46424
▁С	-8.46795
▁жатып	-8.46831
▁жыйынында	-8.47222
1	-8.47316
▁түрдө	-8.47339
▁ичинен	-8.47575
▁районунда	-8.47893
▁кыз	-8.48091
нда	-8.4828
▁жазып	-8.48473
▁чыгарып	-8.48515
▁дүйнө	-8.48599
биз	-8.48821
чү	-8.48951
▁жаш	-8.48983
▁Эгер	-8.49042
тен	-8.49092
жылдан	-8.49205
▁былтыр	-8.49215
нан	-8.49226
ча	-8.49229
▁жети	-8.49777
сыз	-8.49954
▁Тажикстандын	-8.50316
▁Ички	-8.50369
▁көбү	-8.5049
▁2019-	-8.5055
▁комментарий	-8.50701
▁нерсе	-8.50759
▁кирип	-8.50982
▁Орусияга	-8.50985
▁Бишкектеги	-8.51007
▁Кытайдын	-8.51041
тер	-8.51072
▁медициналык	-8.51367
▁жылдын	-8.51379
инде	-8.51461
▁жылы	-8.5158
▁дээрлик	-8.51906
▁украин	-8.51915
▁кызматтан	-8.51938
ун	-8.52079
▁маселеси	-8.5217
▁билдирип	-8.52216
кан	-8.52277
дөй	-8.52327
▁коюлган	-8.52395
▁кошумчалады	-8.52608
▁кармап	-8.52619
▁Украина	-8.52666
▁орусиялык	-8.52789
▁Министрлер	-8.52934
▁сунуш	-8.53198
▁кирген	-8.53544
▁шаарынын	-8.53689
▁15	-8.53742
▁Эки	-8.54053
▁ортосундагы	-8.54782
▁Биздин	-8.54845
▁Нарын	-8.54886
▁тез	-8.55341
не	-8.55419
▁өнүктүрүү	-8.55649
▁кошумча	-8.56095
▁чыгарган	-8.56206
Көл	-8.56439
▁катталган	-8.56584
▁кызматкери	-8.56783
▁кантип	-8.57168
!	-8.57178
▁2	-8.57188
▁калат	-8.57418
▁бирге	-8.57559
%	-8.57642
үн	-8.57961
тун	-8.58148
▁Мисалы	-8.58163
▁даяр	-8.58178
Азаттыктын	-8.58416
▁жаза	-8.58512
▁күндөрү	-8.58763
▁каражат	-8.59136
о	-8.59191
▁милиция	-8.59339
▁кайрадан	-8.59523
▁5	-8.59656
▁шарт	-8.59729
▁кылуу	-8.59752
▁районунун	-8.59827
Ата	-8.59997
▁парламенттик	-8.60095
▁болбойт	-8.60244
г	-8.60297
▁өкмөттүн	-8.60325
догу	-8.60542
▁диний	-8.60674
луу	-8.60683
дуу	-8.60794
▁50	-8.60943
▁баарын	-8.61482
▁Ар	-8.61543
▁мүчөсү	-8.61649
▁12	-8.6183
▁белгилеп	-8.61857
▁камсыз	-8.61945
▁аттуу	-8.62218
▁алтын	-8.62279
▁11	-8.62706
▁No	-8.6286
▁COVID	-8.62895
▁жарыялады	-8.62903
▁Анан	-8.62986
ту	-8.63105
▁өзүн	-8.63146
▁Жээнбеков	-8.63151
▁өкмөтү	-8.63409
▁ыктымал	-8.63422
ган	-8.63605
▁долбоору	-8.63627
▁10-	-8.63687
▁коюп	-8.63842
К	-8.63894
▁туруп	-8.63954
я	-8.6404
ри	-8.64083
бүз	-8.64118
▁убакыт	-8.64148
▁партиясынын	-8.64318
▁Жаңы	-8.64531
▁максатында	-8.64588
▁карабай	-8.64671
▁айтканда	-8.64689
▁себеп	-8.6501
ла	-8.6519
▁Ошондо	-8.65224
▁аял	-8.65238
▁соттун	-8.65389
▁сырткары	-8.65521
▁шаарындагы	-8.65874
▁жакта	-8.6595
ра	-8.65999
▁чечими	-8.66194
▁жарыяланган	-8.66406
тардын	-8.66527
▁түзүлгөн	-8.66721
▁талапкер	-8.6682
▁абалы	-8.66911
▁полиция	-8.67019
▁тажик	-8.67024
▁жаран	-8.67241
ынын	-8.67316
ып	-8.67333
▁облустук	-8.67409
дер	-8.67763
чы	-8.67805
▁Тышк	-8.67862
▁4-	-8.67865
▁айынан	-8.68016
▁Өзбекстандын	-8.68098
▁аларга	-8.681
▁бийликтин	-8.68469
▁Да	-8.68526
▁11-	-8.68623
▁3	-8.68658
▁9-	-8.68706
▁кара	-8.6878
▁2-	-8.68927
▁дүйнөлүк	-8.68961
лары	-8.68981
▁журналист	-8.69031
▁ортосунда	-8.69094
▁Кылмыш	-8.6912
▁мамлекеттин	-8.69675
▁кишинин	-8.6985
▁адамдардын	-8.69856
▁5-	-8.7005
▁бизге	-8.70171
▁жокко	-8.70235
▁жараны	-8.70306
▁директору	-8.70668
▁Украинадагы	-8.70749
▁түшүп	-8.70815
▁Маалымат	-8.70918
▁калып	-8.70986
▁7-	-8.71108
▁кылды	-8.71153
дик	-8.71397
ев	-8.7158
▁Себеби	-8.71662
ан	-8.71751
▁эмгек	-8.7176
▁аты	-8.71782
▁вирус	-8.72067
▁өзүнө	-8.72072
▁салык	-8.72083
▁бою	-8.72098
▁салынган	-8.72277
▁баштап	-8.7254
▁бийликке	-8.72817
2	-8.72822
▁кодексинин	-8.72906
▁мамиле	-8.72923
ова	-8.73001
▁комиссия	-8.73142
▁маалыматты	-8.73306
▁сокку	-8.73587
▁Сүрөттү	-8.73593
▁учурлар	-8.73603
▁Саламаттык	-8.73606
тарды	-8.73704
▁видео	-8.73708
▁таасир	-8.73719
▁15-	-8.73733
▁алганын	-8.73872
▁Борбордук	-8.73893
▁Быйыл	-8.73948
▁маалымдады	-8.74055
▁маалыматтар	-8.74154
▁берүүгө	-8.74217
▁Баш	-8.74242
▁саясат	-8.74447
▁башталган	-8.74497
▁өлкөдөгү	-8.74535
жылдары	-8.74582
▁согушка	-8.74617
▁УКМК	-8.74743
▁6-	-8.75173
▁жасаган	-8.75175
▁Б	-8.75201
▁кар	-8.75263
▁туш	-8.75277
▁3-	-8.75347
▁баа	-8.75522
▁20-	-8.75661
▁Нур	-8.75697
▁маалда	-8.75951
▁суроо	-8.7605
▁комитетинин	-8.76768
▁караган	-8.7678
▁койду	-8.7692
▁мурун	-8.77183
▁миңдей	-8.77265
▁боло	-8.77484
▁Казакстанда	-8.77492
▁кармалып	-8.77505
▁У	-8.77802
▁калганын	-8.77814
▁8-	-8.77833
▁болорун	-8.77876
▁Чек	-8.77986
▁24-	-8.78071
▁казак	-8.78085
▁иликтөө	-8.78172
▁уюму	-8.78239
▁өлкөгө	-8.78317
▁уюмунун	-8.78475
▁кызы	-8.78774
▁башчы	-8.78868
▁жетти	-8.7891
▁18-	-8.78936
▁жакка	-8.79052
▁Талас	-8.79146
▁Өзбекстан	-8.79206
▁кеңешинин	-8.79269
ч	-8.79323
▁Зеленский	-8.7949
▁шайлоодо	-8.79572
▁ордуна	-8.7963
ик	-8.79801
▁а	-8.79814
▁маселени	-8.80071
▁орто	-8.80237
▁ирет	-8.80258
▁долбоорун	-8.80293
▁уюмдар	-8.80608
▁бөлүгү	-8.80608
ө	-8.80623
▁билдирүү	-8.8071
▁сомго	-8.8076
▁жылда	-8.80812
▁таза	-8.8092
▁албайт	-8.80978
▁тарта	-8.8115
▁партия	-8.81251
▁эс	-8.81302
▁качан	-8.81339
ынан	-8.814
▁мүчө	-8.81547
▁кабинетинин	-8.81719
▁жараат	-8.8172
▁14	-8.81767
▁аялдар	-8.81802
▁болбой	-8.81813
▁25-	-8.81946
▁чогуу	-8.8212
▁жасап	-8.82244
▁200	-8.82362
▁ат	-8.82432
▁айтылып	-8.8244
▁Акылбек	-8.82465
▁борбору	-8.82514
▁чыга	-8.82606
▁мыкты	-8.82647
сына	-8.82648
▁саламаттык	-8.82999
▁башкаруу	-8.83142
сиз	-8.83273
▁тартылган	-8.83405
▁керектигин	-8.83479
баев	-8.83562
се	-8.83794
ар	-8.83845
жылдагы	-8.83917
▁өтөт	-8.83938
ман	-8.84222
▁2023-	-8.84301
▁тарткан	-8.84503
▁жылдык	-8.84581
▁сомдон	-8.84634
куралдуу	-8.84686
▁эсептейт	-8.849
3	-8.84998
▁жашап	-8.85006
▁17-	-8.85161
▁курулуш	-8.85163
▁Расмий	-8.8532
▁кескин	-8.8532
▁көзөмөл	-8.85399
▁алынып	-8.85539
▁каттоо	-8.85634
▁күрөш	-8.85872
ал	-8.85896
▁дары	-8.85925
▁активист	-8.85931
▁Мунун	-8.86194
тажик	-8.86376
▁баасы	-8.86403
▁ишти	-8.86516
▁кыйын	-8.86554
▁28-	-8.86587
▁кээ	-8.86692
▁белгиленген	-8.86727
▁эркин	-8.86784
▁билдиргендей	-8.86791
дү	-8.86806
▁түзгөн	-8.86836
гу	-8.86857
▁Азыркы	-8.87009
▁сурак	-8.87132
▁18	-8.8726
▁жыйынтыгы	-8.87411
▁Түштүк	-8.87422
▁аракети	-8.87475
▁башкармалыгынын	-8.87668
ж	-8.87763
▁4	-8.87899
▁вице	-8.87973
▁тапкан	-8.88117
▁алынды	-8.8818
▁турак	-8.88241
▁кабар	-8.88347
▁Түркиянын	-8.8838
▁Байден	-8.88435
ли	-8.88667
▁туруктуу	-8.88701
▁жарандар	-8.88719
▁Батыш	-8.88722
▁айда	-8.88918
▁жылдары	-8.8893
▁элге	-8.89094
▁жогору	-8.8911
▁чара	-8.89206
▁30-	-8.89216
▁саясатчы	-8.89235
ни	-8.89366
▁23-	-8.89476
▁16-	-8.896
лер	-8.89653
▁анан	-8.89857
▁таап	-8.89868
▁андай	-8.89927
▁40	-8.89945
▁иштерин	-8.90078
▁ооруканага	-8.90085
▁түз	-8.90134
▁убада	-8.90264
▁айта	-8.90302
▁айтылды	-8.90325
▁темир	-8.9034
▁бара	-8.90428
Си	-8.90445
▁тобу	-8.90536
▁22-	-8.90558
дөгү	-8.90675
▁Өткөн	-8.90796
▁Алмазбек	-8.90852
▁чарба	-8.91013
▁25	-8.91025
▁макул	-8.91109
▁ишине	-8.9134
▁Акыркы	-8.9137
▁тараткан	-8.91585
▁жаан	-8.9161
▁жерден	-8.91616
▁жүрөт	-8.9162
▁агенттиги	-8.92035
▁сын	-8.92104
▁жүк	-8.9214
▁Жапаровдун	-8.92169
▁Иран	-8.92275
▁комитети	-8.9232
▁арасындагы	-8.92408
▁көргөн	-8.92425
▁маалыматка	-8.92492
▁14-	-8.92527
▁укуктары	-8.92529
▁БУУнун	-8.92645
дарды	-8.92671
▁Дүйнөлүк	-8.92752
▁калыбына	-8.93094
▁маалыматтарды	-8.93305
▁12-	-8.93339
▁Ташиев	-8.93491
▁13	-8.93645
▁турганы	-8.9365
▁19-	-8.93665
▁сегиз	-8.93676
▁келишим	-8.93679
▁атындагы	-8.93727
▁тамак	-8.93905
▁кайрылып	-8.94044
▁кайтып	-8.94275
▁Былтыр	-8.9438
▁шаар	-8.94389
▁дал	-8.94479
▁ондогон	-8.94511
▁мага	-8.94531
▁Соңку	-8.94633
▁жагынан	-8.94651
▁чабуул	-8.94651
УКМК	-8.94742
▁кабарланды	-8.9475
▁мүмкүнчүлүк	-8.94752
▁парламент	-8.94948
▁өлкөлөр	-8.94956
▁куруу	-8.94982
▁тараптуу	-8.95121
▁О	-8.95143
▁азык	-8.95147
▁тонна	-8.95297
▁козголгон	-8.95426
риккен	-8.95496
▁соттук	-8.955
▁чукул	-8.95521
▁Муну	-8.95533
▁аныкталган	-8.9555
▁документ	-8.95572
▁прокуратура	-8.95601
▁отурган	-8.95617
▁көрсөтүп	-8.95706
С	-8.95741
▁жүргүзүп	-8.95826
▁кармалды	-8.9583
Т	-8.95859
тагы	-8.95877
▁27-	-8.96063
▁көпчүлүк	-8.96064
▁16	-8.96078
х	-8.96103
▁берүүнү	-8.96476
▁менин	-8.96562
▁Жо	-8.9666
ларга	-8.96747
▁Трамп	-8.9676
▁экс	-8.96891
▁Сооронба	-8.96914
▁бийликти	-8.96976
лап	-8.97051
▁жалгыз	-8.97053
▁Израил	-8.97078
▁чектөө	-8.97145
▁жатканда	-8.97171
▁Камчыбек	-8.97174
▁("	-8.97181
▁аскерлери	-8.97198
▁сынга	-8.97259
▁компаниясы	-8.97283
▁чыгаруу	-8.97287
▁17	-8.97396
март	-8.97712
▁мыйзамга	-8.97786
▁Өкмөт	-8.97812
▁күнгө	-8.97814
6	-8.97835
▁түрк	-8.97959
▁күчтөрү	-8.98087
дук	-8.98112
▁түзүп	-8.98146
▁зыян	-8.98206
▁жагдай	-8.98272
▁тиешеси	-8.98388
▁башынан	-8.98486
▁Коопсуздук	-8.98511
▁аябай	-8.98512
▁адамга	-8.98521
▁түзүү	-8.98571
▁2018-	-8.98581
▁кеп	-8.98705
▁салды	-8.98718
▁армиясы	-8.99224
▁борбор	-8.99236
▁жасалган	-8.99267
▁басым	-8.99421
▁Айрым	-8.99462
▁өлкөлөрдүн	-8.99489
▁дароо	-8.99505
▁миңдеген	-8.99531
сун	-8.99632
▁19	-8.99727
▁тынчтык	-8.99742
▁Түркия	-9.00052
▁тургуну	-9.00167
▁13-	-9.00184
▁алганы	-9.00264
▁Бүгүн	-9.0027
ия	-9.00285
ында	-9.00304
▁депутаттар	-9.00618
▁кан	-9.00622
▁жан	-9.00699
▁Тажикстан	-9.00707
ай	-9.00739
▁тартуу	-9.00768
▁6	-9.00918
▁каралган	-9.00958
ым	-9.01052
▁күндөн	-9.01127
жылга	-9.01341
▁министринин	-9.01348
▁коркунуч	-9.01445
▁уюм	-9.01548
▁мүчөлөрү	-9.01566
▁билдирүүдө	-9.01652
▁шектүү	-9.01764
▁парламенттин	-9.01872
▁чыр	-9.02111
▁жөн	-9.02191
▁21-	-9.02351
▁органдары	-9.02362
▁Албетте	-9.02424
буз	-9.02485
▁киргизилген	-9.02593
▁Кийин	-9.026
▁белгилеген	-9.02671
▁берилди	-9.02678
▁кеткенин	-9.02684
▁кайрылуу	-9.02812
▁караштуу	-9.02821
▁дегенде	-9.02897
▁УКМКнын	-9.02901
▁катышып	-9.02973
▁болууда	-9.03044
▁олуттуу	-9.03209
/	-9.03223
▁сактап	-9.03345
▁банк	-9.0357
арын	-9.03593
▁киргизүү	-9.03594
▁шайлоонун	-9.03661
▁29-	-9.03748
▁каражаттары	-9.03817
")	-9.03919
▁тогуз	-9.04018
▁өзгөртүү	-9.04063
▁жаштар	-9.04084
▁Коронавирус	-9.04164
ба	-9.0421
▁26-	-9.04211
▁көптөгөн	-9.04241
▁Өзгөчө	-9.04247
▁партиясы	-9.04257
▁ден	-9.04318
▁облусундагы	-9.04439
▁маселесин	-9.04669
▁окуп	-9.0467
▁жашоо	-9.04705
теги	-9.04729
▁толугу	-9.04763
ен	-9.0484
дей	-9.0494
▁долбоор	-9.05009
▁7	-9.05108
▁мөөнөтү	-9.05189
▁жакында	-9.05241
▁айтууда	-9.05245
▁Атамбаев	-9.05407
▁маалыматы	-9.05466
▁аткаруу	-9.0548
сынын	-9.05737
▁газ	-9.05759
ф	-9.05782
▁Сот	-9.05811
▁айылында	-9.05857
▁өткөрүү	-9.05862
▁аптада	-9.05957
▁илимий	-9.06236
▁жалпысынан	-9.06244
▁тараптан	-9.06246
?"	-9.06454
▁көрсөтүлгөн	-9.06473
▁Түндүк	-9.06965
▁сотто	-9.0706
▁жакындары	-9.07188
▁балдардын	-9.07214
▁2017-	-9.07219
▁көбүрөөк	-9.07298
▁миңге	-9.07316
▁кат	-9.07323
▁кармоо	-9.07352
▁өлкөдөн	-9.07406
▁жарандары	-9.07419
▁аймактарда	-9.07424
▁бойдон	-9.07437
▁ак	-9.07525
▁компания	-9.07579
бу	-9.07612
▁чечимин	-9.07871
▁түрдүү	-9.08074
▁мамлекетке	-9.08176
▁маегинде	-9.08247
▁кошо	-9.08263
▁менчик	-9.08263
▁пикирин	-9.08461
▁калса	-9.08578
8	-9.08644
▁түнү	-9.08694
▁миграция	-9.0879
▁бажы	-9.08845
инен	-9.08863
▁мектеп	-9.08929
▁үстүнө	-9.08931
▁америкалык	-9.09096
4	-9.09245
▁таянып	-9.09344
▁коргоочу	-9.09367
▁окуялар	-9.09406
▁адамды	-9.09496
▁канчалык	-9.09565
▁айга	-9.09718
▁себеби	-9.0989
▁милдетин	-9.09933
▁кылат	-9.10008
▁Орус	-9.10023
▁табылган	-9.10132
▁Орусиядагы	-9.10181
▁Аталган	-9.10183
▁үчүнчү	-9.10417
▁Коргоо	-9.10591
▁талаш	-9.10634
▁500	-9.10654
▁көрсөткөн	-9.10873
▁учак	-9.1091
▁алдынча	-9.10921
▁катышты	-9.11032
▁айлык	-9.11138
тик	-9.11245
▁болгондуктан	-9.11447
деп	-9.11478
▁келгенин	-9.11595
▁кызматка	-9.11604
▁жумуш	-9.11714
▁баракчасына	-9.11736
Суу	-9.11754
▁оору	-9.11765
▁кабылган	-9.11796
▁жеткен	-9.118
▁нааразы	-9.11826
▁эркине	-9.11839
▁60	-9.1189
▁өзбек	-9.11983
▁Кеңеш	-9.1208
▁тил	-9.1209
▁сөөгү	-9.12097
сү	-9.12194
▁24	-9.12222
▁тоо	-9.12277
▁маалында	-9.12374
▁чакырган	-9.12416
▁тийиш	-9.12706
ларын	-9.12825
▁тоолуу	-9.12868
уу	-9.12915
▁айдан	-9.12936
▁адамдарды	-9.12947
▁Эгерде	-9.13111
▁атып	-9.13116
▁аргасыз	-9.1326
овдун	-9.13314
▁берилет	-9.13351
00	-9.13367
мак	-9.13378
аш	-9.13499
▁коронавирусту	-9.13499
нө	-9.13573
▁качып	-9.13857
дыр	-9.13863
▁кетет	-9.13939
▁кабарланган	-9.14007
▁деңгээлде	-9.14112
▁түзөт	-9.14176
▁маалыматта	-9.14198
▁облустары	-9.14283
▁телефон	-9.14334
▁бөгөт	-9.14344
▁өмүрүн	-9.14375
деди	-9.14376
ил	-9.14518
▁көтөрүп	-9.14578
▁өтпөй	-9.14608
ет	-9.14732
▁аягына	-9.1475
▁эсеп	-9.1475
жа	-9.14795
▁камсыздоо	-9.14841
▁кайрылган	-9.14849
▁ж	-9.14859
▁укугун	-9.14925
▁8	-9.14951
▁бейтап	-9.14967
▁партиянын	-9.15068
▁Улуу	-9.15111
▁өнөр	-9.15312
▁Улуттар	-9.15342
▁жараша	-9.15353
▁кырдаалдар	-9.1538
▁бүгүнкү	-9.15534
▁онлайн	-9.15599
▁болбосо	-9.156
нү	-9.15608
▁мени	-9.15911
▁коррупцияга	-9.15988
▁2016-	-9.16065
s	-9.16153
▁парламентте	-9.16217
▁2010-	-9.16222
▁учур	-9.1627
▁Кошмо	-9.16496
▁көрсөтүү	-9.16634
сында	-9.16635
▁башталды	-9.16636
▁колдоп	-9.16644
▁Республикасынын	-9.16854
▁эсе	-9.16867
▁маселелер	-9.16941
▁өзүнчө	-9.16971
▁журналисттер	-9.16981
▁Ка	-9.1707
▁төрагасынын	-9.17103
▁кыл	-9.17298
че	-9.17374
▁чыгуу	-9.1747
▁убагында	-9.1753
▁эскертти	-9.17531
▁чыгат	-9.17536
▁токтотуу	-9.17632
▁илим	-9.17633
▁бирөө	-9.17757
▁жеңил	-9.17923
▁кандайдыр	-9.17932
▁тийиштүү	-9.17984
▁мигранттар	-9.18
үнө	-9.18457
▁компаниясынын	-9.18479
▁жөнгө	-9.18517
▁аймактык	-9.18576
чи	-9.18631
▁Мурдагы	-9.18656
им	-9.18724
▁Мына	-9.19069
▁22	-9.19236
▁камакта	-9.19484
жаза	-9.19601
▁бербей	-9.19665
▁негиз	-9.19673
▁Ирандын	-9.19742
▁келгенде	-9.19851
▁жүз	-9.19854
▁метр	-9.19883
▁Менин	-9.19999
▁абалда	-9.2015
▁аныкталды	-9.20257
▁колдогон	-9.20292
▁убакта	-9.20375
тарга	-9.20617
▁коргонуу	-9.20636
▁кыйла	-9.20661
▁адистер	-9.20684
▁таандык	-9.20717
▁гуманитардык	-9.20756
▁автоунаа	-9.2077
▁ой	-9.20819
▁өздөрү	-9.21012
a	-9.21106
▁М	-9.21146
▁болмок	-9.21288
в	-9.21335
▁Киев	-9.21389
▁ыкчам	-9.21505
▁аймактарында	-9.21566
▁жараткан	-9.21676
▁аймагына	-9.21715
унун	-9.21919
▁Орусиядан	-9.21971
▁террордук	-9.22004
▁укуктук	-9.22052
▁мыйзамды	-9.22121
▁сапары	-9.22183
▁кооптуу	-9.22215
▁маалым	-9.22224
▁жума	-9.22225
▁Александр	-9.2228
Кыргыз	-9.22368
▁негизде	-9.2241
▁кылмыштуу	-9.22414
▁Ошентип	-9.2243
▁бүт	-9.2254
▁аймакта	-9.22595
▁эртең	-9.22605
▁жаман	-9.22614
▁өмүрү	-9.22638
▁тынч	-9.22678
Талибан	-9.22709
▁ишкер	-9.22768
▁спорт	-9.22931
▁кеңири	-9.22953
▁таң	-9.23048
▁төлөп	-9.23081
▁беренеси	-9.23175
▁өлкөлүк	-9.23212
▁Тилек	-9.23255
тай	-9.23269
▁тарыхый	-9.23274
▁чакырып	-9.23567
лы	-9.23649
▁мунай	-9.23794
▁кабарлаган	-9.23986
▁атат	-9.24014
▁операция	-9.24016
дары	-9.24062
анын	-9.24169
▁элди	-9.24171
▁кызматына	-9.24256
кыр	-9.24316
▁калганы	-9.24446
▁жатканына	-9.24486
▁калышы	-9.24635
▁администрациясы	-9.24703
▁жарандардын	-9.24797
▁өрт	-9.24847
5	-9.249
9	-9.24918
▁айынын	-9.24926
▁жасалма	-9.24991
▁чыгарды	-9.25019
▁кетүүгө	-9.25045
ша	-9.25053
лук	-9.25099
Манас	-9.251
▁тармактарда	-9.25127
▁экөө	-9.25159
▁вакцина	-9.25167
ыбыз	-9.2517
▁Бизде	-9.25198
▁Израилдин	-9.25243
▁күтүп	-9.253
▁бөлүмүнүн	-9.25326
▁300	-9.25328
▁насыя	-9.25454
▁кишиге	-9.25541
түлүк	-9.25585
▁укуктарын	-9.25587
▁жумушчу	-9.25623
i	-9.25746
он	-9.25753
ле	-9.25754
▁жыйында	-9.2592
▁кош	-9.25988
▁жабык	-9.26111
▁күчтүү	-9.26134
▁март	-9.26157
▁Путинди	-9.26326
▁туулган	-9.26428
▁таасирин	-9.26461
▁алышкан	-9.2648
ло	-9.26543
премьер	-9.26565
▁чакан	-9.26613
▁сурап	-9.26627
▁оюн	-9.26775
министри	-9.26852
▁долларга	-9.26982
Б	-9.27094
▁кармалганын	-9.27103
▁коррупция	-9.27108
кы	-9.27174
▁көлөмү	-9.27229
▁каралып	-9.27265
▁сотунун	-9.27279
▁каранды	-9.27334
▁мыйзамдын	-9.27347
▁отуруп	-9.2759
▁текшерүү	-9.27659
▁бай	-9.27709
▁31-	-9.2779
▁2015-	-9.27856
▁техникалык	-9.27882
▁бизде	-9.27976
▁Атайы	-9.27985
▁кездеги	-9.28041
▁негизинен	-9.28099
▁21	-9.28113
▁өмүр	-9.28119
▁республикалык	-9.2812
▁коңшу	-9.28183
май	-9.28303
▁көрүнүш	-9.28333
▁Москвада	-9.28339
▁борборунун	-9.28361
▁көмүр	-9.28395
▁Мурда	-9.28409
tion	-9.28499
▁кадам	-9.28531
тык	-9.28545
▁70	-9.2855
▁салыштырмалуу	-9.28753
▁бузуу	-9.28778
то	-9.2881
▁иштейт	-9.28874
▁Ата	-9.28927
бүлө	-9.29163
▁жалган	-9.29166
▁жүзүндө	-9.29242
▁бериши	-9.29296
▁Президенттин	-9.29351
▁жапырт	-9.29438
▁алганда	-9.29439
жан	-9.2945
▁Ай	-9.29497
дүн	-9.29516
за	-9.29655
▁9	-9.2973
▁артка	-9.29891
▁бараткан	-9.29967
▁билдирүүсүндө	-9.2997
йт	-9.30023
Кыргызстан	-9.30052
e	-9.30095
▁ыйгарым	-9.30106
▁максаты	-9.3011
▁комитеттин	-9.30128
▁Кемпир	-9.30159
▁Газа	-9.30173
▁кишини	-9.30199
o	-9.30249
▁ошону	-9.30307
▁экономика	-9.30544
▁кем	-9.30552
▁топтун	-9.30584
▁өлкөлөрү	-9.306
▁дарыгерлер	-9.30781
▁Демек	-9.30784
▁абакта	-9.30809
▁айтышты	-9.30825
▁Бийлик	-9.30932
▁жаап	-9.30975
тор	-9.30982
▁атасы	-9.31002
▁кырдаалды	-9.31007
тары	-9.31147
▁медиа	-9.312
▁мамлекеттер	-9.31206
▁байланыш	-9.31236
▁коюу	-9.31346
суз	-9.31423
▁багытталган	-9.31551
▁80	-9.31555
▁иштей	-9.3167
лик	-9.31718
▁Укук	-9.31838
▁карандысыз	-9.31899
▁мал	-9.32075
▁Кеңеште	-9.3208
▁уланып	-9.32163
▁айыптап	-9.32172
тү	-9.32273
▁жетиштүү	-9.32324
лөр	-9.32389
▁Бүгүнкү	-9.32517
▁Жергиликтүү	-9.32526
▁кымбат	-9.32576
▁уюмдун	-9.32652
▁кайтарып	-9.32856
▁Токаев	-9.32921
ки	-9.32969
▁үгүт	-9.33025
▁курган	-9.33092
▁Украинада	-9.33095
▁алгач	-9.33173
▁Мыйзам	-9.33225
▁шартта	-9.33225
▁ооган	-9.33431
▁гектар	-9.33435
▁тапты	-9.33576
▁алууну	-9.3368
▁райондорунда	-9.33739
▁билдиришти	-9.34081
▁иштерди	-9.34418
▁карабастан	-9.34616
▁Мамлекет	-9.34658
▁катталды	-9.34791
▁аткаруучу	-9.34936
▁арналган	-9.34968
▁жарыяланды	-9.34968
уна	-9.34971
▁дем	-9.35258
▁бизнес	-9.35341
Таш	-9.35352
▁пикир	-9.35459
▁медицина	-9.3567
бүлөлүк	-9.35686
ме	-9.35798
7	-9.3587
▁футбол	-9.3594
▁тургундар	-9.35951
▁эгер	-9.36019
▁санкция	-9.36037
▁Сергей	-9.36042
▁Ала	-9.36149
▁жетекчилери	-9.3615
▁баласы	-9.3618
абыт	-9.36278
▁териштирүү	-9.36326
▁таштап	-9.3642
▁Болот	-9.36499
▁карантин	-9.36534
▁жетекчилиги	-9.36621
▁колдонуу	-9.36633
ро	-9.3691
▁кетүү	-9.36943
▁изилдөө	-9.36972
▁Мекеменин	-9.36976
▁университетинин	-9.36997
▁келишет	-9.37136
▁Конституциялык	-9.37375
▁Депутат	-9.3741
па	-9.37634
▁күрөшүү	-9.37667
▁Та	-9.37729
▁пул	-9.37784
ц	-9.37856
▁электрондук	-9.37885
▁элчиси	-9.37912
▁Image	-9.38031
▁cap	-9.38042
▁байланышкан	-9.38049
▁деңиз	-9.38068
▁Ушундай	-9.38261
▁комитет	-9.38264
▁Көп	-9.38267
▁чыгарылган	-9.38268
түү	-9.38354
▁ээси	-9.38368
▁колго	-9.38407
▁ойлойм	-9.38437
▁эмнеге	-9.38476
▁мыйзамдуу	-9.38535
▁чыгышты	-9.3881
▁облусу	-9.38881
▁акын	-9.38932
▁Ж	-9.38945
▁Акаев	-9.3896
▁күбө	-9.3897
▁көрүүгө	-9.39016
▁2014-	-9.39173
▁Эң	-9.39213
▁саналат	-9.39341
▁коом	-9.39462
▁Тоолуу	-9.39526
▁Милиция	-9.39529
▁жоопкерчилик	-9.39576
▁жаракат	-9.39583
▁кызматкерлер	-9.39629
▁Вашингтон	-9.39706
▁камагына	-9.39709
И	-9.39847
▁кетиши	-9.39895
▁го	-9.39992
ва	-9.40009
▁издеп	-9.40096
▁27	-9.40113
▁кызматтын	-9.40163
▁шаары	-9.40234
▁Британия	-9.40253
▁биринде	-9.40378
▁башкармалыгы	-9.40467
▁үйүнө	-9.40553
еминде	-9.40585
▁саясаты	-9.40602
▁Алматы	-9.40615
▁министр	-9.40639
▁өзөктүк	-9.40657
▁келтирүү	-9.40668
▁активисттер	-9.40717
Кумтөр	-9.40772
▁Москванын	-9.4081
▁колдонуп	-9.40838
ип	-9.4084
▁Адам	-9.40896
▁Иш	-9.40919
▁кишилер	-9.41031
▁катаал	-9.41048
бү	-9.41059
дыгы	-9.41155
▁уюмдардын	-9.412
▁маани	-9.41212
▁аягында	-9.41236
▁жатам	-9.41245
▁Экинчи	-9.41316
▁жашта	-9.41472
▁Украин	-9.41482
▁тобунун	-9.41503
▁айрымдары	-9.41523
▁бөлүп	-9.41595
▁с	-9.41698
▁башкача	-9.41718
▁Алексей	-9.41788
▁коррупциялык	-9.4191
▁коомчулукта	-9.41935
тыр	-9.42007
▁таасири	-9.42026
▁Өзбекстанда	-9.42146
▁ачылган	-9.42199
▁болгондордун	-9.42328
дыктан	-9.42346
▁автордук	-9.42373
▁коргоочулар	-9.42396
▁келсе	-9.42417
▁маданий	-9.42419
▁комиссиясынын	-9.42433
▁сүйлөп	-9.42569
▁дайындалган	-9.42638
▁аныктоо	-9.42705
▁28	-9.42733
терди	-9.42765
▁сел	-9.42768
▁сүйлөшүү	-9.42842
▁маалымдаган	-9.42904
▁өлкөлөрдө	-9.42915
▁көрө	-9.4294
▁И	-9.43056
▁тургундары	-9.43059
▁кечинде	-9.43063
▁илдет	-9.43124
▁табылды	-9.43129
▁ачып	-9.43148
▁көрсөткүч	-9.43162
▁долларды	-9.43185
▁оң	-9.43334
▁келиши	-9.43365
ер	-9.43365
▁Түркияда	-9.43412
▁министрлигине	-9.43488
▁арадагы	-9.43497
▁дин	-9.43573
▁Атамбаевдин	-9.43627
мо	-9.43681
▁зомбулук	-9.43685
▁жүргүзгөн	-9.4385
▁узак	-9.43889
ре	-9.43915
▁терс	-9.43924
▁берсе	-9.43948
▁ооруканада	-9.43977
▁калкы	-9.44006
▁23	-9.44068
▁кала	-9.44071
▁кете	-9.44127
▁багытта	-9.44226
▁Ма	-9.44265
▁кызматкер	-9.44273
лоо	-9.4434
▁коопсуздугун	-9.44384
дор	-9.44422
▁прокурор	-9.44495
▁күнөөлүү	-9.44791
▁кезекте	-9.4486
▁Ошону	-9.44888
▁эркиндиги	-9.44895
▁Уюмунун	-9.44901
▁Си	-9.45021
ууда	-9.45078
▁сүйлөшүп	-9.4508
▁калк	-9.45089
▁учуп	-9.45094
кен	-9.45106
▁кыска	-9.45144
▁Кыргызстандан	-9.45194
▁жыйын	-9.45259
▁көпчүлүгү	-9.45281
▁партиялар	-9.45372
▁алыс	-9.45418
▁өлүмү	-9.45442
▁кагып	-9.45474
▁адвокаты	-9.45483
▁ракета	-9.45487
▁Касым	-9.45498
▁башталгандан	-9.45513
▁Билим	-9.45515
▁болгондор	-9.45519
▁Өмүрбек	-9.45573
▁градус	-9.45622
▁коомчулук	-9.45681
▁сөзсүз	-9.45735
▁күчтөрүнүн	-9.45937
▁алыш	-9.4596
▁эски	-9.45978
▁алдындагы	-9.46251
▁кандуу	-9.46273
▁каржы	-9.463
▁саясатчылар	-9.46375
президент	-9.46379
▁келбейт	-9.4638
▁шаарына	-9.46385
▁кеңеш	-9.46395
▁аймагындагы	-9.46506
▁дүйнөдө	-9.46593
▁талкуу	-9.4669
▁Шайлоо	-9.46704
▁аялдардын	-9.46728
▁инвестиция	-9.46744
▁пайдалануу	-9.46774
тып	-9.4683
▁кезек	-9.46832
▁жетектеген	-9.46871
▁каршылык	-9.46925
▁кеткени	-9.4693
▁жыйынтык	-9.46962
М	-9.46991
▁Тергөө	-9.47003
О	-9.47022
▁айылынын	-9.47023
▁жашка	-9.47029
▁Дональд	-9.47069
▁акчаны	-9.47094
▁булагы	-9.47144
▁карай	-9.47193
▁мамлекеттердин	-9.47202
▁милдеттүү	-9.47254
▁кыла	-9.47269
▁чакырым	-9.47296
▁Маселен	-9.47376
административдик	-9.47472
дарга	-9.47622
▁Май	-9.47692
▁жарыялап	-9.47696
▁лидерлери	-9.47851
▁катталып	-9.47879
▁ишкерлер	-9.47936
▁мүмкүнчүлүгү	-9.4801
▁коммерция	-9.48079
▁байланышы	-9.48102
▁айтат	-9.48109
▁Э	-9.4828
▁болобу	-9.48283
▁Евразия	-9.48309
▁жүргүзүү	-9.48427
▁вирусту	-9.485
Р	-9.48594
▁кызматташтык	-9.48611
ор	-9.48661
суна	-9.48713
▁издөө	-9.48745
▁келбей	-9.48786
▁келаткан	-9.48868
▁келатат	-9.48895
▁окшойт	-9.48895
▁өкмөтүнүн	-9.49007
ак	-9.49246
▁Азиядагы	-9.49261
▁жарык	-9.49369
▁маданият	-9.49385
▁35	-9.49391
▁укуктуу	-9.49403
▁Матраимов	-9.49432
▁баса	-9.49475
▁салууга	-9.49703
▁калктын	-9.4971
▁бардыгы	-9.49746
▁БШК	-9.49819
▁комиссиянын	-9.49849
У	-9.49941
▁Д	-9.4998
▁пандемия	-9.50021
▁үйдө	-9.50022
▁калаа	-9.50044
▁ашты	-9.5005
▁билген	-9.50078
▁өнүгүү	-9.501
▁келтирген	-9.50119
▁саналып	-9.50134
Ак	-9.50233
▁өлүм	-9.50246
▁улуу	-9.50256
▁адамдан	-9.50357
▁алдына	-9.50364
▁начар	-9.50384
▁дүйнөдөгү	-9.50402
▁коомдун	-9.50447
▁энергетика	-9.50462
▁аскерлер	-9.50536
▁аймактагы	-9.50542
▁талкууга	-9.50582
▁берилип	-9.50796
▁түштү	-9.50916
▁айыпталып	-9.50968
▁тараптын	-9.5099
▁комиссиясы	-9.50991
▁бийлигинин	-9.51033
▁кире	-9.5108
▁шайланган	-9.51173
▁күчөп	-9.51178
▁алабыз	-9.51204
),	-9.51236
▁фонду	-9.51348
▁Москвага	-9.51389
▁болжол	-9.51506
▁терең	-9.51564
▁басылмасы	-9.51581
▁балдарды	-9.51593
▁маалыматтарга	-9.51625
▁кылууга	-9.51636
▁Эрдоган	-9.51713
▁өсүп	-9.51803
оо	-9.51943
▁Дүйнө	-9.51966
▁өкүм	-9.51982
▁Азырынча	-9.52013
▁ыр	-9.52025
син	-9.5208
▁баарына	-9.52096
▁чыгууга	-9.52206
▁делген	-9.52226
▁мурунку	-9.52267
▁тараган	-9.52268
▁АКШда	-9.52291
▁арасынан	-9.52305
▁китеп	-9.52434
▁оңой	-9.52473
▁товар	-9.52535
▁жүздөгөн	-9.52662
▁Бишкекке	-9.52669
▁органдарынын	-9.52689
▁айтышкан	-9.52746
▁алышат	-9.52756
▁Германия	-9.52758
▁атаган	-9.52774
▁анча	-9.53085
▁барат	-9.53093
▁мына	-9.53098
▁Са	-9.53194
▁маселелерди	-9.532
▁Башка	-9.53274
▁Жер	-9.53276
▁болбосун	-9.5329
▁камалган	-9.53345
▁чыгышкан	-9.5336
▁кирет	-9.5341
▁депутаттык	-9.5342
▁араны	-9.53486
▁сүйлөшүүлөр	-9.5358
▁90	-9.53587
мин	-9.53597
байт	-9.5366
▁жетпей	-9.53834
▁ачыкка	-9.53852
▁туруу	-9.53896
▁интернет	-9.53915
▁жугузуп	-9.53933
y	-9.53979
▁дүйнөнүн	-9.54018
▁чыкпай	-9.54044
▁Эмне	-9.54056
▁бизди	-9.54112
▁атап	-9.5418
беков	-9.54226
▁Азербайжан	-9.54334
▁журналисттерге	-9.54358
▁дипломатиялык	-9.54395
▁Британиянын	-9.54454
▁системасы	-9.54474
▁апта	-9.5449
▁билет	-9.54541
▁жарандарды	-9.54575
▁сындап	-9.54592
▁эсебинде	-9.5469
▁бирдиктүү	-9.54798
беренеси	-9.54951
ап	-9.55073
Тоо	-9.55084
▁кылууда	-9.55085
ий	-9.5512
▁доо	-9.552
▁Беларус	-9.55233
▁жабыркаган	-9.55255
▁сайтында	-9.55447
▁система	-9.55452
▁ырастады	-9.5546
▁б	-9.55493
▁статистика	-9.55511
▁Үч	-9.55608
▁пара	-9.55625
▁беле	-9.55667
▁На	-9.55699
түн	-9.55722
▁жетип	-9.55785
▁демократиялык	-9.558
▁жете	-9.55848
t	-9.55856
▁Окуя	-9.55891
▁калуу	-9.559
▁байге	-9.55916
▁Социалдык	-9.55923
▁айланып	-9.56122
алы	-9.56142
▁Ошто	-9.56163
▁күчтөр	-9.56175
ары	-9.56205
▁Же	-9.56238
▁кен	-9.56307
ланган	-9.56316
▁алышы	-9.56486
▁алышты	-9.56527
▁киргизген	-9.56593
▁Кызыл	-9.56674
▁сабак	-9.56692
▁окуган	-9.56715
▁муктаж	-9.56816
▁мекеме	-9.56851
▁эксперттер	-9.5694
▁отурат	-9.57027
▁абалды	-9.57088
▁жанында	-9.57089
▁киреше	-9.57154
▁ооруп	-9.57195
чачын	-9.57417
ңыз	-9.57573
▁НАТО	-9.57604
▁эскерткен	-9.57663
▁массалык	-9.57714
▁чечимди	-9.57833
▁сүйлөшүүлөрдү	-9.57878
▁ишканасынын	-9.57923
▁беришти	-9.57933
▁абагында	-9.57964
▁учурдагы	-9.5801
▁миллиондон	-9.58045
▁S	-9.58088
▁жумду	-9.58113
▁сиз	-9.58146
▁жайкы	-9.58155
▁үйдүн	-9.58277
▁Жыл	-9.58284
▁сунуштаган	-9.58298
▁26	-9.58306
▁анткени	-9.58333
▁алынганын	-9.58385
▁ачуу	-9.58435
лешкен	-9.58572
▁мекенине	-9.58575
▁маалыматында	-9.58593
сө	-9.58613
▁радиосуна	-9.58643
▁жолку	-9.58802
▁алгандар	-9.58822
▁окуяларды	-9.58866
▁адамдарга	-9.58925
▁Чыңгыз	-9.59015
▁Октябрь	-9.59029
▁кезектеги	-9.59079
▁үмүт	-9.59085
▁мэри	-9.59168
▁өлкөлөргө	-9.59175
▁Сиз	-9.59198
ру	-9.59253
▁токтоп	-9.5926
▁борбордук	-9.59279
▁150	-9.59296
▁дегенди	-9.59298
▁жашы	-9.59298
хан	-9.59311
тердин	-9.59429
иялык	-9.5945
▁түрү	-9.59461
▁чыныгы	-9.59477
▁Райымбек	-9.59479
▁жерди	-9.59662
▁Аскар	-9.59743
▁жайга	-9.59896
▁өткөргөн	-9.59922
▁бийик	-9.59934
▁Москвадагы	-9.59967
▁алдыга	-9.60064
▁мезгилде	-9.60069
▁карапайым	-9.60157
лүү	-9.6016
▁коло	-9.60169
▁2024-	-9.60177
▁Ооганстандын	-9.60201
▁долбоорунун	-9.60363
Жо	-9.60366
▁жүйө	-9.60393
▁көзү	-9.60426
▁чын	-9.60478
▁реформа	-9.60536
▁келишкен	-9.60582
▁түштүк	-9.60587
▁жолугуп	-9.60613
▁уюштурган	-9.60732
▁керектүү	-9.60837
▁акы	-9.61142
▁Кой	-9.61149
▁өкмөттүк	-9.61209
▁36	-9.61294
▁такыр	-9.61335
▁аймакты	-9.61372
▁үн	-9.61382
лай	-9.61391
▁ишеним	-9.61393
▁Кумтөр	-9.61404
▁мунун	-9.61467
▁жери	-9.61479
!"	-9.61479
алиев	-9.61599
▁дайыма	-9.61625
▁чогулган	-9.61747
▁мигранттардын	-9.61748
▁уланууда	-9.61769
▁эне	-9.61772
▁маалымдоо	-9.61787
▁санитардык	-9.61788
▁стратегиялык	-9.61803
▁уюштуруу	-9.61831
▁жыйынтыгын	-9.61876
▁кыргыздар	-9.61941
▁жыйынтыгында	-9.61998
▁көбөйүп	-9.62
▁компаниялар	-9.62003
▁айтылууда	-9.62038
▁күчүнө	-9.62081
▁таратып	-9.62235
▁иштерине	-9.62249
▁келишимге	-9.62273
▁Германиянын	-9.62291
▁бергенин	-9.62295
▁Бакыт	-9.62327
▁Г	-9.62347
▁жашыруун	-9.62415
▁дарыгер	-9.62433
▁журналисттердин	-9.62442
мен	-9.62476
▁аяктаган	-9.62485
▁Жалпы	-9.6253
▁Ислам	-9.62582
▁кайрылды	-9.62619
▁мырза	-9.62706
▁эксперт	-9.62735
▁даярдык	-9.62893
▁Голд	-9.62921
▁баштайт	-9.62967
▁албайбыз	-9.6302
▁Үй	-9.63048
▁тартты	-9.63076
▁болгондо	-9.63094
▁тасма	-9.63109
▁командасы	-9.63217
▁радиосунун	-9.63222
▁бийлигин	-9.63237
▁бирдей	-9.6325
▁Ооганстандагы	-9.63344
▁сырттан	-9.63365
▁аткан	-9.63429
▁температурасы	-9.63443
▁кыймылынын	-9.63456
▁эмеспи	-9.63532
▁Чыгыш	-9.63591
ол	-9.63789
мын	-9.64033
▁Олимпиада	-9.64034
▁колуна	-9.64083
▁токтотуп	-9.64123
▁эрте	-9.64123
▁куруп	-9.64188
▁мажбур	-9.64271
▁32	-9.64297
▁активдүү	-9.6435
▁коопсуз	-9.64358
▁көрсөттү	-9.64388
▁апасы	-9.64394
▁президентке	-9.64428
▁митинг	-9.64431
▁саналган	-9.6447
▁транспорт	-9.64522
▁сапар	-9.64542
ку	-9.64564
▁соңунда	-9.64611
▁таш	-9.64615
▁милициянын	-9.64642
▁жердеги	-9.64643
▁буйрук	-9.64747
▁суткада	-9.64806
лор	-9.64807
▁маселелери	-9.64839
▁угуп	-9.64891
▁курман	-9.64896
▁мөөнөтүн	-9.64928
▁окуяга	-9.64963
▁десе	-9.64966
▁аң	-9.6506
▁сыртка	-9.65111
▁түндүк	-9.65178
▁фракциясы	-9.65229
▁беришкен	-9.65296
▁Казакстанга	-9.65333
▁чаралар	-9.65358
▁ХАМАС	-9.65423
▁400	-9.65435
▁кызматынан	-9.65491
▁Евробиримдик	-9.65499
▁чыкканын	-9.65548
▁кырсык	-9.65579
лан	-9.65586
ибиз	-9.65594
▁пайызга	-9.65612
бул	-9.65632
Э	-9.65659
▁Ө	-9.65716
▁барды	-9.65743
▁Ким	-9.65776
▁жатса	-9.65787
▁Жарандык	-9.6586
шы	-9.65917
кара	-9.66063
▁Марат	-9.66107
▁чараларды	-9.66144
▁беребиз	-9.66149
▁унаа	-9.66167
▁кайда	-9.66237
▁баланын	-9.66238
▁катышуу	-9.66427
▁чечүү	-9.6643
▁болууга	-9.66458
▁талабы	-9.66466
тери	-9.66663
ткан	-9.6673
дердин	-9.66779
▁кысым	-9.66832
▁элем	-9.66921
П	-9.66926
▁токтолду	-9.67049
▁аракетин	-9.67113
▁судья	-9.67136
▁июнь	-9.6714
▁окуяны	-9.67233
▁салым	-9.67344
▁шаардын	-9.67406
▁Корея	-9.67465
▁атынан	-9.67499
▁депутаттары	-9.67515
▁коё	-9.67531
▁армиясынын	-9.67553
▁жүрүшүндө	-9.67619
▁эмдөө	-9.67664
▁түзүлүп	-9.67767
▁Айыл	-9.67789
▁калдым	-9.67828
октябрдагы	-9.6794
тө	-9.67965
чө	-9.68032
▁Маданият	-9.68035
▁өлкөнү	-9.68056
▁жооптуу	-9.68073
ры	-9.68195
ум	-9.68236
▁башаламандык	-9.68268
▁балдары	-9.68507
▁көркөм	-9.68508
өт	-9.68537
▁буларды	-9.68545
▁тилинде	-9.68614
▁Өлкөдө	-9.68638
▁талибдер	-9.68749
лаган	-9.68904
▁Аларды	-9.68931
ис	-9.69
▁айыптаган	-9.69018
▁Жол	-9.6907
▁алса	-9.69177
▁кырдаалга	-9.69252
▁Сауд	-9.69261
▁үйүндө	-9.69297
▁эскертүү	-9.69302
▁колдонууга	-9.69362
▁согушта	-9.69415
▁Негизи	-9.69519
экономикалык	-9.69654
▁туугандары	-9.69719
▁мекеменин	-9.69755
▁45	-9.69772
▁бергени	-9.69804
▁кабарлагандай	-9.69818
со	-9.69854
▁иштин	-9.69859
из	-9.69882
▁топтор	-9.69923
▁Ха	-9.69936
ит	-9.69938
▁кыймылы	-9.69951
дөр	-9.69975
▁байкоо	-9.69995
▁Жазык	-9.70017
кул	-9.70047
▁жардамы	-9.70111
▁жаатында	-9.70126
▁ташып	-9.70133
үү	-9.70168
баган	-9.70203
▁балдарга	-9.70357
▁зордук	-9.70386
▁жылына	-9.70422
▁курама	-9.70475
▁өңдүү	-9.70521
▁мерт	-9.70526
▁Түрк	-9.70553
▁көйгөй	-9.70592
▁коронавирустан	-9.70656
тук	-9.70672
▁29	-9.70676
▁түшүндүрмө	-9.70703
▁илимдер	-9.70727
ZKo	-9.70775
▁көтөрүлүп	-9.70775
▁кароо	-9.7082
▁атады	-9.70827
▁артында	-9.70863
бе	-9.70875
▁келин	-9.70875
▁Азиз	-9.7094
дой	-9.71018
▁иштен	-9.71126
үч	-9.71267
▁ташуучу	-9.71284
▁кеңеши	-9.71359
▁ашыруу	-9.71414
▁жигит	-9.7145
▁33	-9.71467
▁жолго	-9.71486
▁сүрөт	-9.71514
гөн	-9.71522
▁тууган	-9.71533
▁алдыңкы	-9.71568
▁кылмышка	-9.71587
▁каалаган	-9.71588
▁банктын	-9.71786
▁коюлду	-9.71807
▁түшүндүрдү	-9.71811
▁соттолгон	-9.71865
түз	-9.72248
20	-9.72254
▁Жакында	-9.72275
▁аралыгында	-9.72325
▁сөзү	-9.72454
▁Армения	-9.72474
▁Улан	-9.72507
▁жеринен	-9.72514
▁Чоң	-9.72547
▁тармагында	-9.72562
▁чогулуп	-9.72575
▁болуу	-9.72624
▁согушту	-9.72678
▁чечимине	-9.72792
▁кыздын	-9.72812
▁келгени	-9.72835
▁Жалпысынан	-9.7284
▁мыйзамдар	-9.72891
▁прокуратурасы	-9.72963
иш	-9.73031
▁ачкан	-9.73143
▁өзүм	-9.73297
▁күнүнө	-9.73328
▁көбөйдү	-9.73358
▁аткарып	-9.73396
▁Көк	-9.73397
▁экспертиза	-9.7351
▁тажрыйба	-9.7356
Биз	-9.73577
август	-9.73583
▁жасады	-9.73593
▁оппозициялык	-9.73708
▁татаал	-9.7371
▁абадан	-9.73718
▁суунун	-9.73742
r	-9.73758
▁жарадар	-9.73764
Бир	-9.73767
▁күчү	-9.73817
▁Андай	-9.73876
▁Руслан	-9.7388
▁кызуу	-9.73928
▁44	-9.73973
▁кызматын	-9.74032
▁жарандарга	-9.74135
▁берки	-9.7415
уп	-9.74284
▁бөлүнгөн	-9.74285
▁көздөп	-9.74407
▁Кытайга	-9.74432
▁конституциялык	-9.74433
▁түздү	-9.74452
ул	-9.74472
▁жашайт	-9.74472
▁жубайы	-9.74476
▁бөлүгүн	-9.74572
▁айланган	-9.74743
▁агенттигинин	-9.74796
▁чыгышы	-9.74886
▁кошуп	-9.74947
дейт	-9.74976
▁кылышты	-9.74978
▁кармаган	-9.74985
▁ашып	-9.75021
тарын	-9.75041
▁жеткирүү	-9.75056
▁мамлекети	-9.75079
▁атын	-9.75093
▁жайы	-9.7526
▁коомчулуктун	-9.75281
▁болуш	-9.7529
▁окуясы	-9.75321
▁Экономика	-9.75391
бүлөсү	-9.75414
▁команда	-9.75457
▁абагына	-9.75471
▁Андыктан	-9.75476
▁акция	-9.75497
▁машине	-9.75501
рган	-9.75536
▁тараптар	-9.75572
▁1,5	-9.75575
▁келүү	-9.75579
лардан	-9.75615
дүү	-9.7563
▁текшерип	-9.75739
▁калдык	-9.75888
▁Мирзиёев	-9.75902
▁тандоо	-9.75912
▁Жа	-9.7595
▁ээлеп	-9.76012
▁алынат	-9.76052
▁облустарында	-9.76176
▁ишкана	-9.76193
▁сайтына	-9.76204
индеги	-9.76298
зи	-9.76332
▁эли	-9.76349
0	-9.76383
▁жолун	-9.76391
▁Өлкө	-9.76407
▁сый	-9.76507
▁жылуу	-9.76541
30	-9.76564
▁турду	-9.76582
▁жерлерде	-9.76622
▁Айбек	-9.76637
▁токтотууга	-9.76789
▁дешет	-9.76816
▁оппозиция	-9.76829
▁кеңештин	-9.76853
▁турабыз	-9.76853
▁демилгеси	-9.76854
▁сөздөр	-9.76868
▁Кытайдан	-9.76889
▁жумада	-9.76904
▁аракеттери	-9.76929
▁бута	-9.76958
жылкы	-9.77
▁сунуштады	-9.77013
Д	-9.7713
▁кг	-9.77185
ала	-9.77301
▁тилин	-9.77321
▁Бай	-9.77363
▁Токтогул	-9.77424
сүз	-9.77478
▁башчылары	-9.77491
▁максат	-9.77495
▁катарында	-9.77514
▁алгандан	-9.77566
▁белгилейт	-9.77657
▁Тажикстанда	-9.77732
▁Өз	-9.77749
▁каражатты	-9.77776
n	-9.77779
▁кирди	-9.77818
▁жаратып	-9.77913
▁пайдаланып	-9.77918
▁Трамптын	-9.77931
▁виза	-9.77972
▁жумушка	-9.78036
▁апрель	-9.78067
▁жетекчи	-9.78086
дап	-9.78159
▁кабылып	-9.78161
үнүн	-9.78204
ян	-9.78209
▁кыймыл	-9.78233
▁сөзүнө	-9.783
ык	-9.7835
▁Али	-9.78638
рин	-9.78655
c	-9.78679
▁көзөмөлдөө	-9.78706
▁айыптады	-9.78726
▁жарандыгын	-9.7873
беренесинин	-9.78773
▁де	-9.78843
▁өндүрүш	-9.78857
▁жакынкы	-9.78889
▁өлүмүнө	-9.78986
▁албетте	-9.79002
▁бейөкмөт	-9.79003
▁сунушу	-9.79042
▁адис	-9.79049
жи	-9.79103
▁алууда	-9.79158
▁төмөн	-9.7919
по	-9.79236
▁мойнуна	-9.79301
▁кызматкерлерине	-9.79308
▁далил	-9.79338
ыр	-9.79357
▁курч	-9.79379
▁аймак	-9.79402
баева	-9.79414
▁ишмер	-9.79528
Сай	-9.79543
▁юридикалык	-9.79565
▁жолугушуу	-9.79609
▁көрүү	-9.79622
▁системасын	-9.79652
▁президентинин	-9.79692
▁өкмөткө	-9.79718
▁тушунда	-9.79763
башы	-9.79778
▁кытайлык	-9.79815
▁арызын	-9.79816
▁Өкмөттүн	-9.79852
▁Баткенде	-9.79915
▁жокпу	-9.79939
▁быйылкы	-9.79941
▁Франция	-9.79966
▁өткөрүүгө	-9.79998
▁мөөнөткө	-9.80129
▁куугунтук	-9.80218
▁Эч	-9.80268
▁ИИМ	-9.80289
Ислам	-9.80312
▁жөнөкөй	-9.80405
▁күйөөсү	-9.80511
▁Эр	-9.80515
▁кой	-9.80525
▁мисал	-9.80535
▁тагдыры	-9.8055
▁мугалим	-9.80583
▁34	-9.80586
▁катарына	-9.80715
▁башына	-9.80719
▁чыгыш	-9.80727
▁кино	-9.80728
▁өлкөлөрүнүн	-9.80753
▁тарых	-9.80773
раак	-9.8085
▁мектепке	-9.80919
▁бузуп	-9.80958
▁иштелип	-9.8096
▁деңгээли	-9.80963
▁кытай	-9.80973
▁Бала	-9.80999
ков	-9.81092
▁шаарларында	-9.811
лердин	-9.81122
▁өтүү	-9.81124
▁администрация	-9.81131
▁бербейт	-9.81169
▁башкарган	-9.81197
▁парламентке	-9.81237
▁Бээжин	-9.81403
▁Жан	-9.81406
▁Чолпон	-9.81408
▁майда	-9.81438
▁десек	-9.81442
▁Ли	-9.81524
▁өтүшү	-9.81526
▁утуп	-9.81527
▁өздөрүнүн	-9.81598
▁Өзбекстанга	-9.81609
▁октябрь	-9.81673
ю	-9.81682
▁абалга	-9.81685
изм	-9.81698
▁турганда	-9.81799
▁көчүп	-9.81815
▁айылындагы	-9.81863
▁пайызы	-9.81889
▁чакыруу	-9.81915
▁шайлоону	-9.81945
▁экендигин	-9.81992
▁эркек	-9.82005
сүнө	-9.82024
Бүтүн	-9.82091
▁башталып	-9.82111
▁прокуратуранын	-9.82152
гысы	-9.82181
ларынын	-9.82342
▁эмесмин	-9.82343
▁48	-9.82367
▁көтөргөн	-9.82407
▁чалгын	-9.82409
▁жиберген	-9.82448
сүн	-9.82454
▁түшүндүрүү	-9.82456
▁кийим	-9.82487
ир	-9.82504
▁тапшырган	-9.82505
▁кылышкан	-9.82633
ек	-9.82646
▁Менимче	-9.82665
▁бөлүнүп	-9.82665
▁таратты	-9.82671
▁сураган	-9.82691
▁башталат	-9.82698
▁каккан	-9.82714
▁Эмгек	-9.82724
▁Ку	-9.82761
▁көрсөтмө	-9.82838
▁энергиясын	-9.82848
▁Мекен	-9.829
▁Жакынкы	-9.82954
▁ката	-9.83064
▁советтик	-9.83117
▁Навальныйды	-9.83159
келиндер	-9.83164
▁Ко	-9.83182
▁жатты	-9.83224
▁бет	-9.83245
▁таанылган	-9.83247
▁700	-9.83268
▁эсебинен	-9.83319
▁экономиканы	-9.83457
▁министрлик	-9.83498
▁Жээнбековдун	-9.83519
▁күмүш	-9.83531
▁Азамат	-9.83535
▁радиосу	-9.8357
▁кылабыз	-9.83599
жарак	-9.83615
үп	-9.83669
▁жазуучу	-9.83685
▁элчилиги	-9.83712
▁ур	-9.83766
▁долбоорду	-9.83808
▁т	-9.83812
ск	-9.83921
эпидемиологиялык	-9.83925
Ж	-9.83934
▁компаниянын	-9.83937
▁көздөй	-9.83938
ңар	-9.84003
▁Беларустун	-9.84026
▁ишинин	-9.84057
▁күмөн	-9.84104
аны	-9.84108
▁кереги	-9.8411
▁турушат	-9.84124
▁өтүнүчү	-9.84126
▁салмакта	-9.84131
▁берүүдө	-9.84134
19	-9.84137
▁органдар	-9.84168
▁жетет	-9.84288
бир	-9.84314
▁Балким	-9.84413
ст	-9.84422
▁убакытта	-9.84422
▁коргоп	-9.84438
▁акчасын	-9.84546
▁тармагындагы	-9.84641
▁Дмитрий	-9.84694
▁сутка	-9.8473
▁ишканасы	-9.84759
▁курулушу	-9.84857
▁Эркин	-9.84858
▁Ч	-9.84886
чара	-9.84905
▁тургун	-9.84964
▁аракеттер	-9.84965
▁коомчулукка	-9.85005
▁тактап	-9.85039
▁себептен	-9.85056
▁Кээ	-9.85246
мат	-9.85276
▁Акыйкатчы	-9.85283
▁куб	-9.85289
▁басымдуу	-9.85292
▁берерин	-9.85319
баса	-9.85367
▁тартууга	-9.85415
▁каржылык	-9.8542
":	-9.85437
▁салууну	-9.85482
▁кайрылуусунда	-9.85559
▁жеңип	-9.85578
▁кабарчысы	-9.8559
▁Ленин	-9.85601
▁чыкканда	-9.85627
▁жайында	-9.85631
▁мөөнөтүнө	-9.85641
▁мамилеси	-9.85653
▁Кремлди	-9.85699
ошого	-9.85699
▁ырайы	-9.8571
▁үйгө	-9.85747
▁пандемиясы	-9.85775
C	-9.85792
▁Су	-9.85841
▁белгиленди	-9.85872
▁ошондо	-9.85876
▁Бизге	-9.85915
▁агенттигине	-9.85923
▁37	-9.85965
▁Курманбек	-9.86002
▁ашыкча	-9.86028
төн	-9.86136
В	-9.86174
алдык	-9.86265
▁кызматкерлерини	-9.86288
▁коркунучу	-9.86307
▁фондунун	-9.86316
лу	-9.86334
ич	-9.86337
▁маал	-9.86387
▁барбы	-9.86455
▁натыйжасында	-9.86486
▁келбеген	-9.86492
▁Жеңиш	-9.86502
▁жыйынга	-9.86528
▁депутаттардын	-9.86621
▁уюштуруп	-9.86766
▁айым	-9.86785
kg	-9.86787
▁райондордо	-9.86822
ой	-9.86875
▁Азербайжандын	-9.86889
d	-9.8689
▁шайлоодон	-9.86895
▁кетишкен	-9.86907
эки	-9.86988
▁Мекеме	-9.87015
▁абактан	-9.87064
▁0	-9.87068
▁орунда	-9.87079
▁окшош	-9.87137
▁Экинчиден	-9.87154
▁Дастан	-9.87157
▁Интернет	-9.87197
p	-9.87205
дерди	-9.87272
▁Өлкөнү	-9.87327
▁кам	-9.87418
▁күндүк	-9.87443
▁сатуу	-9.87457
▁бирине	-9.87551
▁мыйзамдарды	-9.87595
▁ичиндеги	-9.87635
▁сөзүн	-9.87651
▁калыс	-9.87654
▁инфраструктура	-9.87666
от	-9.87769
▁штаб	-9.87789
▁студенттер	-9.8784
▁элинин	-9.87847
▁саясатын	-9.87876
тон	-9.87902
▁Салык	-9.87999
▁ИИМдин	-9.88083
▁орду	-9.88186
саясий	-9.88211
▁айрыкча	-9.88271
чет	-9.8828
▁каттоодон	-9.88303
▁арзан	-9.88316
▁баратат	-9.88331
,5	-9.88343
▁кырдаалда	-9.88417
▁эреже	-9.88475
▁38	-9.88569
▁киргизип	-9.88576
▁2012-	-9.88596
ок	-9.88621
▁айдын	-9.8869
▁адвокат	-9.88813
▁жатпайбы	-9.88883
пи	-9.88937
▁тили	-9.89077
▁таба	-9.89087
жыл	-9.89091
өгө	-9.89125
▁кошуна	-9.8916
▁жарлык	-9.892
▁жолду	-9.89219
▁арадан	-9.89219
▁санын	-9.89225
▁бак	-9.89286
▁Казак	-9.89287
▁абакка	-9.89295
▁полициясы	-9.89313
тир	-9.89365
▁нерсени	-9.8938
ль	-9.89429
▁партиялардын	-9.89441
тур	-9.89472
▁тосуп	-9.89493
▁жуктуруп	-9.89493
▁дайынсыз	-9.89501
мө	-9.89537
▁беткап	-9.89539
▁тарапташтары	-9.89557
▁тик	-9.89559
ция	-9.89615
▁чыкса	-9.89666
▁Ооганстанда	-9.89672
апрелге	-9.89747
▁арызы	-9.89773
стан	-9.89775
▁БШКны	-9.8988
▁сотунда	-9.89887
сынан	-9.89942
▁Жаза	-9.90004
▁Кар	-9.90029
▁күндүн	-9.90055
▁айыпталган	-9.90073
▁валюта	-9.9009
▁ушуну	-9.90156
▁ойлоп	-9.90161
▁коргоого	-9.90208
▁январь	-9.90213
▁коопсуздугу	-9.90227
пай	-9.90257
A	-9.90272
▁килограмм	-9.9029
▁тактоо	-9.90297
▁тарапка	-9.90299
▁тегерегинде	-9.90336
▁документтерди	-9.90349
▁жолдо	-9.90391
даган	-9.90392
Н	-9.90409
▁билип	-9.90448
но	-9.90462
▁Текебаев	-9.90494
▁айына	-9.90495
▁Га	-9.90509
▁Кол	-9.90629
▁ашкан	-9.9069
▁калганда	-9.90757
▁колу	-9.90763
▁чыкканы	-9.90899
▁тизмесине	-9.90932
▁Республика	-9.9097
▁Телеграм	-9.90973
▁карыз	-9.90983
▁тоскоолдук	-9.90995
▁козголуп	-9.91041
▁талапкерлер	-9.91052
▁келерин	-9.91055
▁уюшкан	-9.91065
▁Бардык	-9.91087
▁моюн	-9.91121
▁улут	-9.9113
▁дрон	-9.91147
▁чаралары	-9.91178
l	-9.91324
▁токтом	-9.91329
▁кетсе	-9.91337
▁айтышууда	-9.91359
▁тийген	-9.91422
▁түздөн	-9.91463
▁органдарына	-9.91493
▁Америка	-9.91563
▁Киевге	-9.91631
▁билдиришкен	-9.91654
▁Нью	-9.91667
▁Евробиримдиктин	-9.91704
▁жылуулук	-9.91758
▁жүрүшү	-9.9176
▁бийликтен	-9.91765
ам	-9.91791
▁Индия	-9.91801
▁биринин	-9.91823
ви	-9.91884
тип	-9.91891
▁жөнүндөгү	-9.91965
▁тартип	-9.91972
▁кесепети	-9.92089
▁колунда	-9.92173
▁жаатта	-9.92197
▁Аларга	-9.92259
▁көбүнчө	-9.92299
▁Армениянын	-9.92303
▁экенине	-9.92309
▁коюшту	-9.9231
▁Бажы	-9.9233
▁чектөөлөр	-9.92419
▁кеткенде	-9.92527
мды	-9.92577
▁жаайт	-9.92617
▁иликтеп	-9.92627
▁кошулган	-9.92668
▁көмөк	-9.92738
▁Чет	-9.92772
Султан	-9.92843
▁Иранда	-9.92933
u	-9.92957
▁Ба	-9.92969
ус	-9.92976
энеси	-9.93028
▁аймакка	-9.93172
чылык	-9.93173
▁жыйыны	-9.93177
▁демилге	-9.932
▁орган	-9.93305
рак	-9.9343
▁Р	-9.93501
▁жүргөнүн	-9.93502
▁кезинде	-9.93533
ымды	-9.93577
▁бийлигине	-9.93633
▁кыздар	-9.93638
▁Анкара	-9.93647
▁эгемендик	-9.9369
лерди	-9.93699
▁анализ	-9.9372
энелер	-9.93749
▁чыгарууга	-9.93756
Эркин	-9.93805
▁Хан	-9.9383
▁коомдо	-9.93849
өзбек	-9.93864
▁заманбап	-9.93889
▁эсептелет	-9.93891
Г	-9.93896
▁шаарда	-9.93972
▁бошотуу	-9.93974
▁митингге	-9.94074
ыбызды	-9.94078
▁чегинде	-9.9418
▁себебин	-9.94221
▁ийгиликтүү	-9.94225
▁Жапония	-9.94231
▁экологиялык	-9.94273
▁Экономикалык	-9.94323
▁Президенттик	-9.94388
▁билбей	-9.94417
▁алдык	-9.94419
▁За	-9.94421
▁чыккандар	-9.94443
▁кайтаруу	-9.94449
▁ордун	-9.9445
▁В	-9.94508
▁шилтеме	-9.94537
▁киргизилди	-9.94542
▁былтыркы	-9.94574
▁Кытайда	-9.94581
▁милицияга	-9.94601
▁кошкон	-9.94646
▁башкалар	-9.94671
▁бош	-9.94672
▁жарандарын	-9.94691
лат	-9.94696
Бул	-9.94717
ышы	-9.94787
▁белгилери	-9.94788
сың	-9.94856
▁камтылган	-9.94876
▁курулган	-9.94914
▁башкарып	-9.94952
▁тапшырды	-9.95081
▁кичи	-9.95095
▁өткөрмө	-9.95146
▁Равшан	-9.95181
▁ачылды	-9.95182
▁Натыйжада	-9.95194
▁Н	-9.95231
▁мүлктү	-9.95263
▁баланы	-9.95267
▁кеч	-9.95282
чыл	-9.95288
▁жатышканын	-9.95358
▁дайым	-9.95381
Мен	-9.95424
▁согуштун	-9.95456
▁казакстандык	-9.95494
▁айлана	-9.95508
▁пикирде	-9.95509
▁Фейсбуктагы	-9.95515
▁жетектеп	-9.95517
▁какты	-9.95538
▁албайм	-9.95569
▁тура	-9.95642
▁кабинети	-9.95645
▁референдум	-9.9567
▁75	-9.95706
▁ислам	-9.95821
▁Навальный	-9.95841
лери	-9.95852
▁чектеш	-9.95858
өө	-9.95885
▁негизсиз	-9.95892
▁тууганы	-9.96181
▁сүйлөгөн	-9.96188
▁Кандай	-9.96197
▁жоюу	-9.96231
▁барганда	-9.96274
▁аймагы	-9.96375
ович	-9.96376
▁машина	-9.96382
▁жайларда	-9.96454
бирине	-9.96457
рт	-9.96585
▁Мадумаров	-9.96605
▁Азиянын	-9.96629
▁окуядан	-9.96686
▁аман	-9.96697
▁блогер	-9.96727
▁П	-9.96761
▁дене	-9.96762
тап	-9.96766
▁маек	-9.96798
▁билдирет	-9.96848
▁келүүдө	-9.96848
уш	-9.96877
▁эркектер	-9.96881
▁мигрант	-9.9698
▁пикиринде	-9.96988
▁C	-9.97014
эл	-9.9703
S	-9.97093
▁генерал	-9.97136
▁программасы	-9.97138
Центерра	-9.97151
▁сакталып	-9.97153
▁чечип	-9.97154
▁Мухаммед	-9.97164
ңиз	-9.97181
▁айланды	-9.97242
▁кызматташуу	-9.97255
▁жактагы	-9.97369
▁ишенимдүү	-9.97373
кулов	-9.97452
Ф	-9.97456
▁айыгып	-9.97484
▁уулунун	-9.97506
▁эт	-9.97518
▁түшүндүрмөсү	-9.97572
▁аянты	-9.97605
▁баасын	-9.97653
▁төрайымы	-9.97674
▁документтер	-9.97678
▁сумма	-9.97738
▁Лукашенко	-9.97751
майга	-9.97781
▁Коомдук	-9.97839
▁пикири	-9.9784
▁суроого	-9.97848
▁жагдайлар	-9.97874
▁Европадагы	-9.97887
▁чоо	-9.97888
▁тарбия	-9.97908
▁Казакстандагы	-9.97924
▁жылдыгына	-9.97924
▁41	-9.97963
▁Алмаз	-9.98016
▁31	-9.9815
▁созулган	-9.98152
▁кечирим	-9.98155
▁орточо	-9.98162
▁даярдап	-9.98175
▁маселесине	-9.98304
▁табы	-9.98306
▁аскерлерин	-9.98321
▁тармагы	-9.98323
▁согуштук	-9.98405
▁тескерисинче	-9.98487
▁үйдөн	-9.98506
▁Россия	-9.98509
▁Сузак	-9.98553
▁имарат	-9.98592
ева	-9.98608
▁келишти	-9.98616
ес	-9.9864
▁облусуна	-9.98666
▁курууга	-9.98708
▁өткөндө	-9.98779
күл	-9.98781
Бишкек	-9.98798
▁кызыл	-9.98886
▁жаңжал	-9.98927
▁аппарат	-9.98938
▁сындаган	-9.98952
▁Кыргызстандык	-9.99099
▁байланышта	-9.99104
▁Элдик	-9.9912
төр	-9.99139
▁иште	-9.99207
▁кирүүгө	-9.99222
▁бакча	-9.99252
▁Ооганстан	-9.99263
ларда	-9.99277
▁Таш	-9.99306
▁көтөрүлгөн	-9.99308
▁Түркияга	-9.99321
▁кызматкерлердин	-9.99363
Сиге	-9.99374
▁бериш	-9.99399
▁август	-9.99446
▁та	-9.9958
үндө	-9.99582
▁болору	-9.996
▁күчтөрдүн	-9.99634
▁мезгил	-9.99661
▁жоктугун	-9.99694
▁Ан	-9.99723
▁ташыган	-9.99724
▁кесип	-9.99742
ос	-9.99826
▁программа	-9.99841
▁колдонгон	-9.99845
▁кетишти	-9.99853
▁айларында	-9.99856
▁тармагына	-9.99867
▁кеңешчиси	-9.99891
▁сайты	-9.99988
▁өткөрдү	-10.0001
▁баштаганын	-10.0002
жайын	-10.0012
▁жолдор	-10.0013
▁натыйжалуу	-10.0015
▁берене	-10.0017
▁муниципалдык	-10.0018
▁жолугушууда	-10.0023
▁доллардан	-10.0023
▁акциялары	-10.003
▁жоопкерчилиги	-10.0032
▁колдоого	-10.0037
▁Ат	-10.0044
▁көк	-10.0044
▁жарандарына	-10.005
▁Биримдиги	-10.0051
▁күйүүчү	-10.0053
▁600	-10.0057
▁уюштурулган	-10.0057
▁окууда	-10.0058
▁башчынын	-10.0066
▁паспорт	-10.0066
▁Лейлек	-10.0077
▁акыл	-10.0077
өзү	-10.0078
▁бекем	-10.0083
▁пандемиясына	-10.0086
бызды	-10.0092
▁автобус	-10.0093
▁тизмесин	-10.01
оз	-10.0102
▁ту	-10.0103
▁жылдар	-10.0103
▁чарасы	-10.0111
▁мобилизация	-10.0112
▁койсо	-10.0117
▁көздөгөн	-10.0121
▁бузган	-10.0122
▁жаратты	-10.0124
▁миллионго	-10.0131
▁тилкесинде	-10.014
▁чыгара	-10.0151
кер	-10.0156
▁коюлуп	-10.0156
ха	-10.0158
▁борборунда	-10.0161
▁башчысынын	-10.0163
▁өтүүгө	-10.0165
▁Бейшеналиев	-10.0166
▁Матраимовдун	-10.0168
дармек	-10.018
▁өкмөттү	-10.0184
Эл	-10.0189
▁Блинкен	-10.0191
▁өткөрүлүп	-10.0191
▁катышуучулары	-10.0197
▁мисалы	-10.0198
▁кызматтык	-10.0206
▁аскерлеринин	-10.0217
▁үзгүлтүк	-10.0225
▁болсун	-10.0226
▁коюшкан	-10.0226
▁дүйнөгө	-10.0226
▁Бакиев	-10.023
▁жар	-10.0233
▁жалаң	-10.0236
рат	-10.0238
▁Министрлик	-10.0239
▁жагы	-10.0239
▁баалуу	-10.0239
▁айт	-10.0242
▁кээде	-10.0243
▁мектепте	-10.0245
▁айтуу	-10.0245
үй	-10.0251
▁төмөнкү	-10.0251
▁тарыхы	-10.0254
▁абалын	-10.0259
▁Юстиция	-10.026
▁долбооруна	-10.0261
▁кенен	-10.0263
I	-10.0266
b	-10.0266
▁аймагынан	-10.0266
▁55	-10.0271
▁Бу	-10.0279
▁турса	-10.0284
▁шаарынан	-10.0288
▁Дал	-10.0289
▁долбоорлорду	-10.0289
▁Ра	-10.029
доо	-10.0293
бо	-10.0295
▁Нурсултан	-10.0296
▁кабаттуу	-10.0297
▁уруп	-10.0298
▁Мо	-10.0299
▁баштапкы	-10.0299
▁жакындарына	-10.0303
▁борборуна	-10.0311
дерге	-10.0314
▁келгенден	-10.0318
▁иштебей	-10.032
▁студент	-10.0321
▁өрөөнүндө	-10.0328
▁түрткү	-10.0331
▁калышты	-10.0333
▁аныктаган	-10.0334
▁Башкача	-10.0334
▁кимдер	-10.0337
▁сурады	-10.0337
▁маркум	-10.0338
▁Коррупция	-10.0345
▁таануу	-10.0347
▁өкүлдөрүнүн	-10.0355
▁келтирилген	-10.0356
▁Кубанычбек	-10.0357
ындагы	-10.0359
▁өткөрүүнү	-10.0361
▁кимге	-10.0362
▁окуучу	-10.0365
▁БУУ	-10.0371
▁институтунун	-10.0372
▁кайтыш	-10.0375
▁тааныган	-10.0376
▁планы	-10.038
▁сомду	-10.0383
▁катыша	-10.0386
▁Мамытов	-10.039
▁ошондон	-10.0392
▁Кеңешке	-10.0396
▁мыйзамда	-10.0397
терге	-10.0401
▁шартында	-10.0402
▁тагылган	-10.0403
▁шайлоочулардын	-10.0404
▁оппозициячыл	-10.0406
▁дегендей	-10.0407
▁Максат	-10.0411
▁колунан	-10.0417
▁аракеттерин	-10.0418
▁нерселер	-10.0419
▁учуру	-10.043
▁факты	-10.043
▁көрүнүп	-10.0437
▁Орто	-10.0438
▁жүрдү	-10.0441
▁тургай	-10.0442
▁катышат	-10.0451
▁өзгөрүүлөр	-10.0455
ar	-10.0455
▁жүрө	-10.0457
▁үйлөр	-10.0463
▁Анткен	-10.0463
▁бошотулган	-10.0464
▁мусулман	-10.0464
▁Франциянын	-10.0471
▁балким	-10.0473
▁жүргүзүлүп	-10.0473
▁камалды	-10.0474
▁дайындалды	-10.0476
ем	-10.0476
▁2005-	-10.0477
▁жумушта	-10.0478
▁беришет	-10.0479
▁экстремисттик	-10.0483
▁ушу	-10.0483
in	-10.0487
▁атабыз	-10.0491
унда	-10.0494
▁кызыкчылыгын	-10.0498
▁артынан	-10.05
▁коопсуздукту	-10.05
▁Адаха	-10.0509
▁кызды	-10.0515
▁талаштуу	-10.0515
▁штабдын	-10.0519
▁келечекте	-10.0521
▁Тегеран	-10.0522
▁Министр	-10.0524
▁техника	-10.0529
▁Ла	-10.0536
▁алам	-10.0541
▁өнүктүрүүгө	-10.0543
▁алгандардын	-10.0544
▁пайыз	-10.0544
▁түнкү	-10.0544
▁ошондуктан	-10.0545
▁департаментинин	-10.0548
▁аялы	-10.055
▁Назарбаев	-10.0551
ыш	-10.0552
m	-10.0555
▁эркиндигин	-10.0559
▁39	-10.0559
▁акцияга	-10.0567
▁Финансы	-10.0581
▁Кореянын	-10.0584
▁кишиден	-10.0584
▁аныктап	-10.0584
▁сактоого	-10.0584
▁курамына	-10.0586
▁жайына	-10.0592
▁жазгандай	-10.06
▁жокмун	-10.06
▁47	-10.0613
▁демонстранттар	-10.0614
▁жокпуз	-10.062
▁төрөлгөн	-10.062
▁зарылдыгын	-10.062
кс	-10.0621
▁аялдарга	-10.0626
▁Булар	-10.0629
жай	-10.0633
▁Мирлан	-10.0654
▁турууга	-10.0655
▁Жума	-10.0655
▁Темир	-10.0655
лаш	-10.0659
▁балдарын	-10.0661
▁институту	-10.0664
▁окуяларга	-10.0666
▁Ту	-10.0667
▁жазасын	-10.0669
▁Де	-10.0676
▁санкцияларды	-10.0678
ӊ	-10.0687
▁Ооба	-10.0692
▁үйү	-10.0695
▁Султан	-10.0701
▁Мага	-10.0703
▁тирүү	-10.0706
▁арасын	-10.0709
сак	-10.0711
▁алдыда	-10.0712
▁жайлар	-10.0719
▁айтышат	-10.073
▁фактысы	-10.0737
▁сөздөрдү	-10.0739
▁күчүндө	-10.0739
▁айланасындагы	-10.0739
▁Манас	-10.0749
▁астында	-10.0749
▁кепилдик	-10.0751
▁план	-10.0752
чулар	-10.0753
▁жазылып	-10.0763
▁миллиондогон	-10.0764
▁пикирлер	-10.0772
▁чыгар	-10.0774
▁Талант	-10.0775
ларына	-10.0777
▁жаралган	-10.0778
▁Исаков	-10.078
▁чемпионаты	-10.0781
▁Ча	-10.0791
▁Түркмөнстан	-10.0796
▁тар	-10.0796
▁Конституция	-10.0799
▁Х	-10.0801
▁салынат	-10.0803
▁жүргүзүлгөн	-10.0805
▁жолукту	-10.0806
▁тапшырма	-10.0811
▁жолунун	-10.0812
▁лидер	-10.0818
▁иштерге	-10.082
▁кетсек	-10.082
▁Каракол	-10.0822
▁Эмил	-10.0823
▁жаратылыш	-10.0832
марттан	-10.0834
ыл	-10.0836
▁Шавкат	-10.0837
▁сунушун	-10.0837
▁түшүнүп	-10.0837
▁айтыш	-10.0839
▁Сапар	-10.0841
▁Европанын	-10.0841
▁Жети	-10.0841
▁43	-10.0846
▁Ушунда	-10.0846
▁сууга	-10.0846
▁албаган	-10.0847
э	-10.0851
▁калтырды	-10.0855
▁болушту	-10.0856
макчы	-10.0857
▁ракеталык	-10.0858
▁курамы	-10.0865
▁берилгенин	-10.0866
▁Крым	-10.0867
▁киргенде	-10.0868
бей	-10.0875
▁салынды	-10.0877
▁НАТОнун	-10.0884
▁болгондон	-10.0885
▁аткарган	-10.0888
Ош	-10.0889
▁жеринде	-10.0892
▁даана	-10.0895
▁жолдорун	-10.0895
▁туризм	-10.09
▁аралаш	-10.0904
▁э	-10.0906
▁кесилген	-10.0912
гүл	-10.0915
▁жанындагы	-10.0917
▁жашында	-10.0918
кыргызстандыктар	-10.092
▁тинтүү	-10.0925
▁аралашкан	-10.0927
▁пенсия	-10.0927
▁Кайсы	-10.0927
▁башын	-10.0929
▁лицензия	-10.0935
▁жөө	-10.0937
▁Абаны	-10.0943
▁калтырган	-10.0943
▁кадыр	-10.0948
▁тарыхында	-10.0949
▁тартылып	-10.0949
▁тизмеге	-10.096
▁зомбулукка	-10.0963
▁жара	-10.0967
▁аралыкта	-10.0969
▁сыйлык	-10.0976
уралдуу	-10.0986
▁иштетүү	-10.0987
▁күтүлүүдө	-10.0987
▁ыңгайлуу	-10.0987
ИИМ	-10.0988
кар	-10.0988
▁азайып	-10.099
▁реакция	-10.0991
▁Ю	-10.0991
▁жумган	-10.0992
▁Тажик	-10.0993
▁аракеттерди	-10.0997
▁Жапаровго	-10.1001
▁Рахмон	-10.1006
▁42	-10.1023
▁келгендер	-10.1027
▁каптаган	-10.1027
▁мандаттуу	-10.1027
▁бериле	-10.1028
Ал	-10.1028
▁материалдык	-10.1029
▁Орусияны	-10.1042
үүдө	-10.1043
▁жоопкерчиликти	-10.1044
жайы	-10.1048
▁кызыкдар	-10.1065
▁калууда	-10.1066
▁берүүнүн	-10.1068
T	-10.107
▁санкциялар	-10.1076
▁кое	-10.1077
▁чыгарууну	-10.1078
▁чарасын	-10.1087
▁туу	-10.1087
▁1990-	-10.11
▁табуу	-10.11
▁чогултуп	-10.11
▁ээлеген	-10.1101
Кара	-10.1105
▁Саясий	-10.1106
▁колдон	-10.1109
дарын	-10.111
мун	-10.1111
шкан	-10.1113
▁Штаттар	-10.1113
▁чалып	-10.1115
M	-10.1116
▁саткан	-10.1116
▁тизмеси	-10.1118
▁бардыгын	-10.1118
▁энергетикалык	-10.1124
▁кызматта	-10.1126
▁катышууда	-10.1127
▁тек	-10.1134
▁Донецк	-10.1137
▁сынак	-10.114
▁Советтер	-10.1142
▁ортодо	-10.1146
▁чемпиону	-10.1146
▁финансылык	-10.1148
▁кыргызча	-10.1148
▁Нурлан	-10.1151
▁июль	-10.1154
ага	-10.1156
▁сөзүндө	-10.1162
▁Аба	-10.1166
▁эсептелген	-10.1175
▁Запорожье	-10.1177
▁глобалдык	-10.1177
баш	-10.1177
▁120	-10.1179
▁тартыш	-10.1187
▁инфекция	-10.1188
▁Журналист	-10.1188
▁реалдуу	-10.1199
▁булактарына	-10.1199
▁каражаттар	-10.12
▁жакшыртуу	-10.1202
g	-10.1207
▁орнотуу	-10.1207
▁уюштурууга	-10.121
▁Михаил	-10.1215
▁келтирип	-10.1215
▁Асанов	-10.1216
▁Абылгазиев	-10.1223
▁талапкерлигин	-10.1224
чылар	-10.1227
▁факт	-10.1228
▁колдоосу	-10.1234
▁тилдүү	-10.124
шат	-10.1242
▁суроолор	-10.1245
▁кенин	-10.1246
▁Балдар	-10.1248
▁айтканы	-10.1249
▁демократия	-10.1251
▁Свердлов	-10.1254
▁биргеликте	-10.1254
▁көтөрүлдү	-10.1254
▁курулуп	-10.1254
▁улантып	-10.1255
лин	-10.1255
▁аныкталып	-10.1258
▁талдоочу	-10.1267
▁кирешеси	-10.1268
▁кызыкчылыгы	-10.127
▁батир	-10.1271
▁жаткандар	-10.1278
сунун	-10.1279
▁көйгөйлөр	-10.128
▁суук	-10.1282
▁чакты	-10.1287
▁акыры	-10.1292
▁иниси	-10.1293
▁2013-	-10.1297
▁Нурбек	-10.1301
▁Му	-10.1304
▁иштөө	-10.1305
▁спортчу	-10.1306
▁Ша	-10.1309
▁алмашуу	-10.131
▁өскөн	-10.1313
▁мектептин	-10.1314
евдин	-10.1321
▁келишимди	-10.1323
▁жергесинде	-10.1334
▁үчөө	-10.1334
▁түшүнүк	-10.1334
Тез	-10.1335
▁жеңишке	-10.1337
фи	-10.1338
▁Те	-10.1345
▁адамдары	-10.1349
▁көрсөтүүгө	-10.1352
▁65	-10.1365
▁Энергетика	-10.1371
лөрдү	-10.1373
▁үстүндө	-10.1374
Фейсбуктагы	-10.1377
▁Дүйшөмбү	-10.1377
▁кризис	-10.1381
10	-10.1387
▁Бакиевдин	-10.1387
▁жыйынтыгына	-10.1389
▁мекемелер	-10.139
▁кылганын	-10.1391
Ма	-10.1396
▁өспүрүм	-10.1396
▁түзүүгө	-10.1396
▁айтылгандай	-10.1397
Вагнер	-10.1399
▁Бекешев	-10.141
▁тандап	-10.1413
▁кесиптик	-10.1415
▁кагаз	-10.1417
▁тапшыруу	-10.142
▁тапшырып	-10.1423
▁Сирия	-10.1427
▁өтөп	-10.1427
▁кечээ	-10.1431
▁мэр	-10.1431
▁казуу	-10.1431
°	-10.1432
▁финалда	-10.1433
▁абанын	-10.1433
▁M	-10.1437
▁жөнөткөн	-10.1444
▁бат	-10.1448
▁бекер	-10.1449
▁жайылып	-10.1451
▁топтордун	-10.1452
▁белгилегендей	-10.1453
▁көчөгө	-10.1453
▁көзөмөлдөп	-10.1454
▁дарыланып	-10.1455
▁багыт	-10.1456
ый	-10.1458
▁февраль	-10.1459
▁болбогонун	-10.146
▁инвестициялык	-10.1468
▁Аскер	-10.1469
▁эгемен	-10.147
▁шаардагы	-10.1472
▁Беларуста	-10.1472
▁вакцинаны	-10.1484
▁таанымал	-10.1489
▁Улукбек	-10.1489
▁Кыргызстанды	-10.1492
▁сатылып	-10.1494
▁өлкөлөрдөн	-10.1494
▁Херсон	-10.1495
▁мигранттарды	-10.1498
▁суроолорго	-10.1501
▁жоокер	-10.1506
▁мас	-10.1506
▁жаатындагы	-10.1511
▁прокуратурага	-10.1514
▁Бек	-10.1514
▁эр	-10.1515
▁жаз	-10.152
▁бузуулар	-10.1524
▁талапкерлердин	-10.1525
▁сен	-10.1532
▁коопсуздугуна	-10.1535
▁Шер	-10.1542
▁тейлөө	-10.1546
▁Сыдыков	-10.1554
сентябр	-10.1555
▁аларын	-10.1562
▁Темиров	-10.1562
ел	-10.1566
▁рубль	-10.1569
▁суроолорун	-10.1571
▁мамилени	-10.1572
▁са	-10.1578
▁Астана	-10.1581
▁сотуна	-10.1582
ноябр	-10.1587
▁үлгү	-10.1594
▁карама	-10.1596
Көлдө	-10.1596
▁долларлык	-10.1599
▁өзүндө	-10.16
▁Төрт	-10.1608
▁2011-	-10.1608
▁отуз	-10.161
▁Кечээ	-10.161
▁банкы	-10.1611
▁министрликтин	-10.1612
▁Стамбул	-10.1616
▁мугалимдер	-10.1616
▁той	-10.1618
▁чечүүгө	-10.1621
▁кенемте	-10.1624
▁алда	-10.1625
▁Харьков	-10.1635
▁аймактарга	-10.1635
айып	-10.1637
▁Биринчиден	-10.164
▁мааниси	-10.1642
▁кадимки	-10.1647
октябрга	-10.1648
▁койгонун	-10.1651
▁негиздөөчүсү	-10.1652
▁дегендер	-10.1655
▁алсак	-10.1659
▁эскерүү	-10.1659
▁уюмга	-10.1665
▁эсеби	-10.1668
▁Не	-10.1675
▁P	-10.1675
▁сомдук	-10.1682
уучу	-10.1691
▁бомба	-10.1691
▁качкан	-10.1697
▁өзүбүз	-10.1702
ас	-10.1712
▁жуккан	-10.1724
чараларды	-10.1725
▁радикал	-10.1726
▁камалып	-10.173
▁талкууланып	-10.173
▁маңзат	-10.1731
же	-10.174
▁Араб	-10.1743
▁медал	-10.1743
▁бей	-10.1745
▁барууга	-10.1745
▁жарандарынын	-10.1747
▁V	-10.1747
▁кабылганын	-10.175
▁согуштан	-10.1752
▁турмуш	-10.1758
▁жашоого	-10.1763
▁азайтуу	-10.1765
P	-10.1767
▁Беш	-10.177
▁кошулуп	-10.1771
▁курчуп	-10.1771
▁акысы	-10.1776
▁көмүскө	-10.1783
E	-10.1792
▁пост	-10.1793
▁Байденди	-10.1797
▁профессор	-10.1805
▁Баары	-10.1807
▁турушу	-10.1807
июн	-10.1807
дыгын	-10.1808
▁биргелешип	-10.1811
▁Андрей	-10.1811
▁Каныбек	-10.1811
▁арбын	-10.1812
▁сунушталган	-10.1815
▁түштүгүндө	-10.1816
▁арага	-10.182
▁кир	-10.1824
▁жүргөнү	-10.1827
▁тур	-10.1834
▁Бол	-10.1837
рып	-10.185
▁имаратты	-10.1852
▁козгогон	-10.1853
▁көзөмөлдөгөн	-10.1855
деген	-10.1856
▁бөлүмүнө	-10.1857
▁акими	-10.1857
▁ачкачылык	-10.1857
▁Украинаны	-10.1863
ми	-10.1866
▁Пандемия	-10.1879
▁B	-10.188
▁отурум	-10.1883
▁ысык	-10.1884
▁арасына	-10.1888
үнөн	-10.189
▁эместигин	-10.1891
▁татыктуу	-10.1893
▁эскертип	-10.1893
▁кызматташтыкты	-10.1894
▁өлтүрүү	-10.1898
▁Италия	-10.1908
▁даярдоо	-10.191
ууга	-10.1913
рим	-10.1914
▁бүткөн	-10.1923
▁өздөрүн	-10.1929
▁протокол	-10.1931
▁өлчөмдө	-10.1935
тал	-10.1935
▁тест	-10.194
▁пайдалуу	-10.1946
▁автору	-10.1959
лөрдүн	-10.1967
▁үнү	-10.1975
▁ачылып	-10.1976
▁ажыратылган	-10.1978
▁жасай	-10.1981
▁түшөт	-10.1982
▁бөлүм	-10.1983
▁төрага	-10.1986
▁башы	-10.1988
диги	-10.1988
▁деңгээлдеги	-10.199
▁Кан	-10.1991
▁жарылуу	-10.1998
▁билдирүүсү	-10.2004
▁соолугуна	-10.2005
▁көзөмөлгө	-10.2005
▁мүлк	-10.201
▁аймагынын	-10.2016
▁коркутуп	-10.2017
▁саатка	-10.2018
▁түзүлдү	-10.2018
▁бүтүп	-10.2019
▁топтоп	-10.2022
БШК	-10.2023
▁режими	-10.2028
▁андагы	-10.2034
▁тилине	-10.2038
▁фактылар	-10.2045
▁көрсөтө	-10.2053
▁бирин	-10.2054
▁дуушар	-10.2059
▁Режеп	-10.2059
▁кыдырып	-10.206
▁бирден	-10.206
▁чыгарылып	-10.206
▁Алиев	-10.2062
▁мекемесинин	-10.2065
▁дешти	-10.2067
▁колдонулган	-10.207
▁каражаттарынын	-10.2071
▁өкүл	-10.2073
▁Парламент	-10.2077
▁өткөнүн	-10.2079
▁адатта	-10.2088
▁мындайча	-10.2091
▁жөнөтүлгөн	-10.2099
кор	-10.2101
▁жигердүү	-10.2101
▁күйүп	-10.2102
▁оңдоп	-10.2105
▁м	-10.2105
▁акысыз	-10.2107
▁Пакистандын	-10.211
▁саатта	-10.2118
овду	-10.2122
▁шаарын	-10.2124
▁салат	-10.2125
▁анык	-10.2127
▁жеткирилген	-10.2128
▁тыйын	-10.2139
▁кабылды	-10.2139
▁метрге	-10.2139
дүк	-10.214
▁Адистер	-10.2143
▁тургандай	-10.2144
▁украиналык	-10.215
▁иштөөгө	-10.2152
▁Конституциянын	-10.2157
▁борбордун	-10.2158
▁Полиция	-10.2159
▁Париж	-10.2167
▁банктар	-10.2177
▁54	-10.2179
хи	-10.2181
▁До	-10.2182
▁A	-10.2184
▁чектелген	-10.2187
▁57	-10.219
▁суроосуна	-10.2191
▁Сөз	-10.2191
▁Оштогу	-10.2192
ом	-10.2194
▁акциясы	-10.2196
▁чалдыккан	-10.2201
▁Адвокат	-10.2207
▁экономикасы	-10.2208
ист	-10.2209
▁жетишсиз	-10.2211
казак	-10.2211
▁алмаштыруу	-10.2213
▁Медиа	-10.2213
▁2,5	-10.2214
▁тааныш	-10.2218
▁Ми	-10.2222
▁багытында	-10.2224
▁мигранттарга	-10.2225
▁беларус	-10.223
▁жарандын	-10.2234
▁Кур	-10.2244
▁атышуу	-10.2244
▁жасоо	-10.2251
▁коюуга	-10.2251
▁компаниясына	-10.2259
▁көчөдө	-10.227
инг	-10.227
▁милдети	-10.2271
▁Айсулуу	-10.2271
▁ашыгы	-10.2271
ышты	-10.2275
▁базар	-10.2279
▁берүүдөн	-10.228
▁жаңжалда	-10.2283
▁мандат	-10.2284
▁Ш	-10.2286
▁Кубатбек	-10.23
▁бюджеттен	-10.23
▁чараларын	-10.2304
▁Пакистан	-10.2305
▁эсепте	-10.2307
▁дарылоо	-10.2308
▁токтому	-10.2309
ци	-10.2314
▁маалымдалды	-10.2314
▁учкучсуз	-10.2314
▁маселеге	-10.2318
▁ойноп	-10.2318
▁түрмөдө	-10.232
▁Данияр	-10.2321
▁каралат	-10.2322
▁күрөшүп	-10.2325
▁далай	-10.2327
▁катчы	-10.2327
▁жүргүзүүгө	-10.233
▁төлөө	-10.2334
▁жагдайды	-10.2335
▁талаа	-10.2336
▁Кийинки	-10.2339
▁дарыгерлердин	-10.234
▁десем	-10.2342
▁Саясат	-10.2346
▁кризисти	-10.2347
ѳ	-10.2354
декабр	-10.2357
тей	-10.2357
▁жайда	-10.2358
▁билебиз	-10.2359
▁Таалайбек	-10.2367
гыла	-10.2367
▁судьясы	-10.237
▁камактагы	-10.2375
▁Сириядагы	-10.2376
▁басылмалар	-10.2385
▁мекемеси	-10.2387
▁энергия	-10.239
▁49	-10.2391
унан	-10.2392
▁тартиби	-10.2399
▁тыгыз	-10.24
▁Ушу	-10.2401
▁начарлап	-10.2403
сындагы	-10.2405
▁жардыруу	-10.2406
▁бүтүн	-10.2406
▁жолугушуусу	-10.2407
▁Со	-10.2408
▁коркунучтуу	-10.2412
▁ажыратуу	-10.242
▁түрүндө	-10.2421
▁сала	-10.2421
▁Орусиялык	-10.2425
▁туткун	-10.2427
▁таасирдүү	-10.2428
▁СССР	-10.2431
▁курултай	-10.2433
▁балбан	-10.2433
уз	-10.2437
▁Премьер	-10.2444
▁күрөшү	-10.2446
▁калыптыр	-10.2448
▁колдоду	-10.2448
▁баалап	-10.2449
▁окумуштуулар	-10.2452
ши	-10.2464
▁сентябрда	-10.2465
▁сунуштар	-10.2465
бар	-10.2466
▁T	-10.2467
24	-10.2467
▁атам	-10.2471
▁шарты	-10.2473
▁таштанды	-10.2478
▁талаптарды	-10.2481
▁ресурстары	-10.2481
▁Бийик	-10.2487
▁маалымдалган	-10.2488
▁Ду	-10.249
▁кыйноого	-10.2496
▁көрсөтөт	-10.25
▁аймактарды	-10.2501
▁башталганын	-10.2512
▁турам	-10.2517
▁мурдагыдай	-10.2518
50	-10.2519
▁узун	-10.253
жартылай	-10.2531
▁этникалык	-10.2531
▁кичинекей	-10.2531
▁буйругу	-10.2532
▁барбай	-10.2534
рма	-10.2534
▁кыйналып	-10.2538
▁жабыр	-10.2538
▁айланасында	-10.2563
лбай	-10.2566
▁Базар	-10.2569
▁окууга	-10.257
убуз	-10.2575
▁жатышты	-10.2576
▁негизделген	-10.2576
▁кесепетинен	-10.2576
▁2009-	-10.2579
▁уланта	-10.2582
Чоң	-10.2583
иши	-10.2584
Са	-10.2586
во	-10.2589
▁58	-10.259
▁жүргөндө	-10.2591
▁Польша	-10.2603
▁Канат	-10.2604
▁ишканалар	-10.2605
▁каржылоо	-10.2607
▁батыш	-10.2614
▁оңдоо	-10.2615
▁Суу	-10.2617
▁билбейм	-10.2617
▁шектелип	-10.262
▁белгилешет	-10.262
▁изилдеп	-10.2621
сине	-10.2627
▁жабылган	-10.2627
▁бюджетке	-10.263
▁долбоордун	-10.2634
▁районуна	-10.2636
▁байма	-10.264
▁Ноокат	-10.2641
▁Боронов	-10.2645
▁акчасы	-10.2647
▁саламаттыкты	-10.2649
▁түзүүнү	-10.2653
▁кыргыздардын	-10.266
▁бекемдөө	-10.2663
▁моралдык	-10.2664
▁сөздү	-10.2665
▁таануучу	-10.2667
сен	-10.2669
▁жагдайда	-10.2669
▁ролу	-10.267
▁катышуусу	-10.2681
▁бейтаптарды	-10.2683
▁жеп	-10.2688
▁кылганы	-10.269
▁дүң	-10.2691
▁материалдар	-10.2691
▁оорусу	-10.2696
▁D	-10.2697
▁кырсыгы	-10.2698
▁өнүккөн	-10.2709
▁кезегинде	-10.2709
▁жасалып	-10.2709
▁бөлүмүндө	-10.2712
▁өзгөртүүлөрдү	-10.2715
орус	-10.2724
▁оорунун	-10.2729
▁аныкталганын	-10.274
▁ижарага	-10.274
▁көбөйгөн	-10.2745
вер	-10.2748
▁макулдашууга	-10.2748
▁Ташкент	-10.2751
июлга	-10.2754
▁жайдын	-10.2754
▁алака	-10.2755
▁органдардын	-10.2758
▁губернатору	-10.2759
▁жабуу	-10.2759
▁болушкан	-10.276
▁сан	-10.2761
▁жерлеринде	-10.2762
бөй	-10.2763
▁АКШдагы	-10.2764
▁Ушуну	-10.2764
▁Калган	-10.2764
▁көрсөткүчү	-10.2767
▁жүрөк	-10.2767
▁ТИМ	-10.2768
▁коюшу	-10.277
▁эркиндигине	-10.277
▁ш	-10.2773
сон	-10.2775
дери	-10.2777
▁тажрыйбасы	-10.2777
ут	-10.2779
▁тармагын	-10.2783
▁кирүү	-10.2784
▁энергиясы	-10.2785
▁бийликте	-10.2795
▁жугуштуу	-10.2799
▁санап	-10.2799
▁мөөнөт	-10.2806
h	-10.2808
▁журналисттик	-10.281
▁сөөгүн	-10.2812
▁Айтматов	-10.2815
er	-10.2816
лүк	-10.2818
▁сатууга	-10.2819
терин	-10.2828
▁Алгач	-10.2834
▁тартипте	-10.2836
▁аянтында	-10.2843
▁өзгөрүп	-10.2844
▁упай	-10.2844
▁түшүндүргөн	-10.2845
▁Кремль	-10.2845
▁жабылып	-10.2847
▁2008-	-10.2848
▁токтоткон	-10.285
▁жакыны	-10.2852
▁компаниялары	-10.2854
▁укугуна	-10.2862
кка	-10.2866
▁келечеги	-10.2868
▁евро	-10.2868
▁коомго	-10.287
▁көбөйтүү	-10.2874
▁чектөөлөрдү	-10.2875
гер	-10.2877
▁Дин	-10.2877
▁позициясын	-10.2877
▁милициясы	-10.2884
▁киргизилип	-10.289
▁талкууланды	-10.289
▁аяктап	-10.2892
▁айылына	-10.2894
▁Соттун	-10.2896
▁тактаган	-10.2896
▁эркиндикке	-10.29
▁сүйлөшкөн	-10.2902
▁фонд	-10.2905
▁Сирияны	-10.2908
▁250	-10.291
үр	-10.291
▁Грузия	-10.2916
сам	-10.2917
▁кайткан	-10.2919
олог	-10.292
▁Кудай	-10.2929
▁тармакта	-10.2931
▁баалады	-10.2936
▁Я	-10.2937
чаралар	-10.2938
▁каттам	-10.2945
ого	-10.2947
▁бел	-10.2947
▁62	-10.2951
▁Европага	-10.2954
▁маселелерин	-10.2958
▁кылса	-10.2959
▁кеңсеси	-10.2962
▁өндүрүү	-10.2963
ланып	-10.2963
▁Согуш	-10.2966
▁сыр	-10.2967
▁Бар	-10.2968
▁долбоорлор	-10.2974
ров	-10.2979
▁Кийинчерээк	-10.2981
▁авторитардык	-10.2981
▁жарыяланып	-10.2981
▁жүрүшөт	-10.2981
▁күрөштө	-10.2983
▁республика	-10.2985
тоо	-10.2993
▁Па	-10.2996
▁айдоочу	-10.2998
▁ичи	-10.2999
▁өзүбүздүн	-10.3
Башы	-10.3001
▁Гүл	-10.3005
▁сапаты	-10.3013
▁АКШга	-10.3016
▁алек	-10.3016
▁68	-10.3017
▁финансы	-10.3019
руу	-10.302
▁окуянын	-10.302
▁киргизүүнү	-10.3022
▁ого	-10.3023
▁өзгөртүп	-10.3027
▁бузулуп	-10.3027
▁турчу	-10.303
▁Сулайманов	-10.3036
▁ичип	-10.3037
▁Интернетте	-10.3037
▁туруштук	-10.3039
▁аскери	-10.304
▁Тай	-10.304
Биримдик	-10.3043
▁абалынан	-10.3044
▁ЖЭБ	-10.3049
▁Ин	-10.3054
▁Көз	-10.3057
▁которуу	-10.306
▁кыргыздын	-10.3068
эне	-10.3071
▁учурларда	-10.3071
▁келишими	-10.3072
▁өнүгүп	-10.3073
▁алектенген	-10.3073
▁Борис	-10.3073
▁аралашып	-10.3078
▁уккан	-10.3078
БУУ	-10.3083
▁айтууга	-10.3087
▁жылдарда	-10.3088
▁топко	-10.3105
апрелдеги	-10.3116
▁түшүндүрүп	-10.312
▁кыянаттык	-10.312
▁сунуштап	-10.3126
▁илдетти	-10.3131
▁көрдү	-10.3132
▁кармалганы	-10.3134
▁салыкты	-10.3135
▁ф	-10.3138
▁баратканын	-10.314
▁Тажикстанга	-10.3141
▁өкмөтүнө	-10.3143
▁немис	-10.3145
▁жатышы	-10.3148
▁ташуу	-10.3149
▁агасы	-10.3151
▁өтүүдө	-10.3152
▁ХАМАСты	-10.3155
бет	-10.3162
Орусия	-10.3162
▁бойлуу	-10.3168
▁чөлкөмдө	-10.3169
▁тилде	-10.3173
ыбызда	-10.3173
▁F	-10.3176
▁Батыштын	-10.3176
▁зор	-10.3176
▁Кай	-10.3183
▁кур	-10.3183
▁муун	-10.3192
▁түркмөн	-10.3194
▁көйгөйлөрдү	-10.3195
▁эрежелерин	-10.3196
D	-10.3197
▁убактысы	-10.3198
▁климатты	-10.3203
▁оорукана	-10.3205
▁машыгуу	-10.3206
▁совет	-10.3212
▁Эмомали	-10.3213
▁толуп	-10.3214
▁күнүмдүк	-10.3214
▁аркы	-10.3215
▁бетер	-10.3215
▁түрмөгө	-10.3217
▁болсок	-10.3219
▁психологиялык	-10.3219
▁соолугу	-10.322
▁оорудан	-10.3221
▁ыкма	-10.3227
▁чакырык	-10.3227
▁норма	-10.3228
▁далилдер	-10.3231
▁Уюмду	-10.3233
мек	-10.3234
▁чекит	-10.3239
▁экендиги	-10.3239
▁кадр	-10.3241
рам	-10.3246
▁окуяларына	-10.3259
▁чечимдерди	-10.3259
▁тургундардын	-10.326
▁которуп	-10.3261
▁үлгүсүндөгү	-10.3261
▁нааразылыгын	-10.3266
▁документти	-10.3274
▁ниетин	-10.3278
▁Түркиядагы	-10.3281
айкын	-10.3282
▁көлөмүн	-10.3283
▁жаса	-10.3284
өрүн	-10.329
▁карайт	-10.3293
▁адистери	-10.3294
Ч	-10.3296
▁жакыр	-10.3297
▁материалдарды	-10.3299
▁коркуп	-10.3308
▁чакырылган	-10.3309
▁топтолгон	-10.3309
▁бергиле	-10.3311
▁мечит	-10.3312
▁Reuters	-10.3313
▁52	-10.3314
▁кал	-10.3317
▁Кыз	-10.3319
▁тынчсыздануусун	-10.3321
▁жолдун	-10.3324
▁атышууну	-10.3325
▁бу	-10.333
рай	-10.3331
ля	-10.3333
▁кетүүнү	-10.3335
▁токтотууну	-10.3338
▁автоунааларды	-10.3341
▁каражаттарына	-10.3342
▁карантинге	-10.3344
▁элине	-10.3348
▁Мар	-10.3348
▁баңгизат	-10.335
▁Айрыкча	-10.3356
▁байыркы	-10.3356
▁тийип	-10.3356
▁Макрон	-10.3358
▁жыйырма	-10.336
▁нерселерди	-10.3364
▁жоопкерчилигине	-10.3367
▁көчкү	-10.3373
ңуз	-10.338
▁Совет	-10.3383
▁мамлекетте	-10.3384
▁театр	-10.3388
▁800	-10.3388
▁энеси	-10.3389
▁учурлары	-10.3392
▁экинчиси	-10.3394
▁там	-10.3395
▁жазуу	-10.3397
▁Алтынбек	-10.3397
▁партиясынан	-10.3398
▁түн	-10.3399
▁министрлер	-10.34
▁качкындар	-10.3403
▁Ошентсе	-10.3403
▁Транспорт	-10.3403
▁бекитилген	-10.3403
▁Санкт	-10.3403
▁чыгарылды	-10.3404
▁мигранттары	-10.3407
▁тазалоо	-10.3414
▁койгону	-10.3415
▁Британияда	-10.3426
лөрү	-10.3426
▁Бактыбек	-10.3428
▁кылыш	-10.3428
жы	-10.3429
▁сүт	-10.3429
▁тармактарга	-10.3441
▁Лукашенкону	-10.3445
▁өзгөртүүлөр	-10.3447
▁күчөтүү	-10.3448
▁Замир	-10.345
▁район	-10.3452
▁Федерал	-10.3452
▁теле	-10.3456
▁эмгеги	-10.3457
▁жетекчилик	-10.3459
▁Жапаровду	-10.3461
▁экология	-10.3464
▁ишмердигин	-10.3464
▁болбошу	-10.3467
▁шаарларда	-10.3476
Абадда	-10.3479
▁КМШ	-10.3479
▁жүрүм	-10.3487
▁которулган	-10.3491
▁Германияда	-10.3491
▁калбай	-10.3492
▁па	-10.3494
▁адвокаттары	-10.3496
▁ойдо	-10.3498
▁курамында	-10.3499
]	-10.35
▁камсыздандыруу	-10.35
▁табигый	-10.35
▁табылып	-10.35
икалык	-10.3503
▁көтөрдү	-10.3508
ста	-10.3508
▁Конституцияга	-10.3509
▁юрист	-10.3509
▁баяндама	-10.3509
▁жарымы	-10.3512
▁академиясынын	-10.3515
▁өлкөлөрүндө	-10.3518
ээ	-10.3518
▁жайларга	-10.3519
▁району	-10.3519
▁кулак	-10.3523
пы	-10.3523
▁күчтөрүн	-10.3523
▁Зулушев	-10.3527
▁жетишкен	-10.3527
▁калың	-10.3527
▁аскерлердин	-10.3529
али	-10.3531
▁түшкөнүн	-10.3531
▁өкүмү	-10.3533
an	-10.3537
дордун	-10.3538
Ала	-10.3541
▁зат	-10.3542
▁өнөктөш	-10.3549
▁учурга	-10.3553
чо	-10.3553
▁жөнөтүү	-10.3554
▁кимдир	-10.3556
▁ээлик	-10.3556
▁өлүп	-10.3556
▁элчилигинин	-10.3557
▁келишимдин	-10.3561
▁оорулар	-10.3563
▁талаптар	-10.3565
▁Маалыматта	-10.3568
▁компаниялардын	-10.3572
▁ноябрда	-10.3583
O	-10.3584
ндө	-10.3584
▁үйүнүн	-10.3592
▁тарапкерлери	-10.3597
▁жеткирип	-10.3597
▁ыраазычылык	-10.3598
▁деңгээлге	-10.3599
▁атышат	-10.36
ур	-10.3601
▁талкуулап	-10.3603
▁Алымка	-10.3603
▁жээгинде	-10.3605
кана	-10.3605
▁Канча	-10.3606
▁The	-10.3607
▁тизме	-10.3609
ах	-10.361
▁кагылышуу	-10.3611
ткен	-10.3611
▁козгоп	-10.3612
▁аялдын	-10.3612
▁уюмуна	-10.3614
▁баарыбыз	-10.3614
▁Штаттарды	-10.3614
▁көзөмөлүндө	-10.3615
▁жу	-10.3615
▁балалуу	-10.3616
▁жолуккан	-10.3618
▁журналисттин	-10.3626
▁кыш	-10.3631
лса	-10.3634
үүгө	-10.3638
▁бөлүмү	-10.3646
▁и	-10.3652
▁саясатка	-10.3654
▁өлтүрүүгө	-10.3655
▁Башында	-10.3659
▁берчү	-10.366
▁маалыматтык	-10.3665
▁турмушка	-10.3672
▁63	-10.3682
▁чыгым	-10.3685
▁имараттар	-10.3686
▁акциясына	-10.3687
▁ырчы	-10.369
▁электигин	-10.3698
▁шарттар	-10.3704
▁кап	-10.3705
паган	-10.3706
▁макулдашуу	-10.3709
▁Назарбаевдин	-10.371
ыңыз	-10.371
▁Өзгөн	-10.3712
▁планын	-10.3714
▁эгерде	-10.3714
▁жерине	-10.3715
▁акчанын	-10.3715
▁инсан	-10.3717
▁46	-10.3727
▁документтерин	-10.3731
▁жерлерди	-10.3736
▁өткөнү	-10.3738
▁эрежелерди	-10.3742
▁иретинде	-10.3743
▁ун	-10.3743
калый	-10.3745
▁жолдору	-10.3746
F	-10.3748
▁кетишин	-10.3748
▁мектептер	-10.3749
▁Ц	-10.3751
▁тартууну	-10.3752
▁токтотту	-10.3754
▁Аксы	-10.3757
▁берүүчү	-10.3757
▁карызды	-10.3769
▁кабат	-10.377
▁арасы	-10.3775
тат	-10.3778
▁Асел	-10.3784
▁катышууга	-10.3784
▁алынганы	-10.3785
▁бүттү	-10.3785
▁берилерин	-10.3786
▁мүнөт	-10.3786
▁жүзү	-10.3786
▁товарларды	-10.3786
рды	-10.3789
▁алынышы	-10.3789
▁тема	-10.3795
▁кары	-10.3795
▁кулап	-10.3797
▁системасына	-10.3798
▁кылмыштарга	-10.3798
▁бөлүштү	-10.38
▁салынып	-10.38
▁билдирүүсүнө	-10.3803
▁пайызды	-10.3803
▁жарлыгы	-10.3806
▁үйлөрдүн	-10.3809
▁абактагы	-10.381
▁салышкан	-10.3812
▁көрдүк	-10.3813
▁кел	-10.3815
▁Адилет	-10.3816
▁арты	-10.3822
бирин	-10.3823
▁учагы	-10.3826
▁мэриясы	-10.3831
▁октябрда	-10.3832
▁казына	-10.3834
▁тартипти	-10.3837
▁ишкерлердин	-10.3841
▁чакта	-10.3842
▁артиллерия	-10.3846
▁чамасында	-10.3847
▁өндүрүлгөн	-10.3847
al	-10.3849
▁түп	-10.3855
▁бюджет	-10.3861
▁жердин	-10.3863
▁окутуу	-10.3868
▁бейтаптар	-10.3871
▁чечимдер	-10.3883
▁өзбекстандык	-10.3887
▁алдым	-10.3888
▁берем	-10.3891
▁провинциясында	-10.3891
тыгы	-10.3893
▁күнөөсү	-10.3895
▁салтанат	-10.3895
▁мониторинг	-10.3895
▁эсептешет	-10.3895
▁чарчы	-10.3896
рын	-10.3896
▁муз	-10.3901
▁баруу	-10.3907
талап	-10.3917
▁Европада	-10.3919
▁коалиция	-10.3919
▁акыны	-10.392
▁жараян	-10.392
-1	-10.3923
▁53	-10.3923
▁маркумду	-10.3925
▁макала	-10.3927
▁Африка	-10.3929
▁ант	-10.3937
▁англис	-10.3944
▁жатабы	-10.3944
▁Песков	-10.3945
▁Кал	-10.3948
▁ич	-10.3948
пайт	-10.3953
▁коомунун	-10.3954
▁кызыктуу	-10.3956
ав	-10.3961
▁Айт	-10.3961
▁кыялы	-10.3964
▁токтотулган	-10.3965
▁п	-10.3966
▁чече	-10.3971
▁өлгөн	-10.3972
▁Ошон	-10.3976
▁жерлер	-10.3978
▁мусулмандар	-10.3979
▁телеканалы	-10.3985
▁булар	-10.3988
▁караш	-10.3988
ей	-10.3991
▁Пашинян	-10.3992
▁лидерлер	-10.3993
▁тийгизген	-10.3998
▁Жаныбек	-10.3999
бүлөсүнө	-10.4002
▁эсте	-10.401
▁каражаты	-10.4014
▁кылымды	-10.4019
▁Канатбек	-10.4024
▁кимдин	-10.403
▁кишилердин	-10.4033
тартыш	-10.4033
▁саламаттыгы	-10.4035
▁автоунаалар	-10.4036
бири	-10.4042
▁ре	-10.4047
▁1991-	-10.4047
on	-10.4047
ад	-10.4048
15	-10.4049
▁ээлери	-10.4052
тикалык	-10.4055
елерки	-10.4056
лөргө	-10.4058
▁жайларды	-10.4066
▁кеңешме	-10.4067
▁Осмонов	-10.4068
▁үйдү	-10.407
▁музыка	-10.407
▁коёт	-10.4071
үшү	-10.4073
ван	-10.4078
▁репрессия	-10.4079
▁тармакты	-10.408
фа	-10.4087
ред	-10.4092
▁армян	-10.4094
▁калаасы	-10.4096
▁эсеге	-10.4096
▁кийинчерээк	-10.4099
▁1000	-10.4099
▁ишкананын	-10.41
▁ырастаган	-10.4101
▁жаратат	-10.4106
▁көпүрө	-10.4107
▁жардамчысы	-10.412
▁Ташиевдин	-10.4121
▁документтери	-10.4123
▁Стамбулда	-10.4127
▁су	-10.4128
▁жардамга	-10.4138
дегенде	-10.4141
▁чыккандарды	-10.4142
▁Кайра	-10.4144
▁жазылат	-10.415
▁колдонулуп	-10.4151
▁иштетип	-10.4151
▁Ре	-10.4151
▁мезгилинде	-10.4151
▁коргогон	-10.4151
▁жыйынына	-10.4152
▁отурумунда	-10.4158
▁карма	-10.416
▁келүүгө	-10.4165
▁паспортун	-10.4168
▁саммити	-10.4169
▁аппараттын	-10.4169
▁баштаганда	-10.4171
▁боз	-10.4178
▁бөлүгүндө	-10.4179
▁жек	-10.4182
▁Шаардык	-10.4196
▁Пригожин	-10.4202
▁суранган	-10.4202
▁Акжол	-10.4203
▁тарапта	-10.4204
түр	-10.4204
▁өлтүргөн	-10.4205
▁Эксперттер	-10.4206
▁ойногон	-10.4207
▁Дарыгерлер	-10.421
лет	-10.421
▁көрөт	-10.421
B	-10.4213
▁Жон	-10.4216
басын	-10.422
▁жаткандай	-10.4223
▁журналисти	-10.4225
дору	-10.4227
▁орунду	-10.4234
▁Парламентти	-10.4236
▁өлтүрүлгөн	-10.4246
▁өлкөлөрүнө	-10.4249
▁шарттары	-10.4253
▁айылда	-10.4254
▁конкреттүү	-10.4254
▁Аида	-10.4254
▁жолдомо	-10.4256
▁News	-10.4258
▁[	-10.4258
▁башташты	-10.4258
▁Биримдигинин	-10.4263
чуу	-10.4265
▁мүчөлөрүнүн	-10.4269
▁Таласта	-10.4271
▁51	-10.4276
°,	-10.4278
▁жетекчилер	-10.428
▁арачылары	-10.4282
▁акыйкат	-10.4283
кү	-10.4284
▁Казакстандан	-10.4286
имди	-10.429
▁жанын	-10.4292
▁Саясатчы	-10.4295
▁айдап	-10.43
▁Байсалов	-10.43
▁сууну	-10.4306
▁Ооганстандан	-10.4306
▁атактуу	-10.4306
▁Динара	-10.4307
▁Күндүз	-10.4307
▁Максим	-10.431
▁Мария	-10.4311
▁ма	-10.4314
▁Демократия	-10.4315
k	-10.4318
▁иликтөөнү	-10.4319
▁бюджеттин	-10.432
▁эркиндик	-10.4321
▁нике	-10.4321
▁толкуну	-10.4323
▁Сокулук	-10.4326
▁61	-10.4329
▁Индияда	-10.433
▁диалог	-10.4331
▁Кабул	-10.4335
▁ба	-10.4337
▁жаткандыктан	-10.434
▁Баткендеги	-10.4344
▁суммасы	-10.435
▁жаштардын	-10.4354
▁Гүлнара	-10.4359
▁тынымсыз	-10.4359
лыгы	-10.4361
боого	-10.4362
▁Сооронкулова	-10.4364
▁ысымы	-10.4364
▁бербөө	-10.4366
▁кечки	-10.4366
▁кыймылсыз	-10.4366
▁пайдаланууга	-10.4368
▁Канада	-10.4369
▁эмеспиз	-10.4369
▁жетекчилигине	-10.4372
▁наркы	-10.4386
▁шайлоочулар	-10.4392
▁ишкерлерге	-10.4396
▁оюндарына	-10.4396
▁айткандай	-10.4407
▁завод	-10.441
▁жайлардын	-10.441
▁абзел	-10.4412
▁жоготуп	-10.4412
▁сындады	-10.4412
▁кошумчалаган	-10.4412
▁өтүнүч	-10.4418
▁жолугушту	-10.4419
▁Россиянын	-10.4427
▁көтөрүү	-10.4428
аз	-10.4428
▁айыптоо	-10.4429
▁жогорулатуу	-10.443
▁чемпионатында	-10.443
▁көзөмөлүнө	-10.443
▁кыйноо	-10.4432
▁көздөйт	-10.4433
▁Хо	-10.4434
▁Курманкул	-10.4437
▁мектептерде	-10.4439
▁күтүү	-10.4445
▁милициясынын	-10.445
▁калаада	-10.4451
▁мамилесин	-10.4453
▁белек	-10.4454
▁шарттарды	-10.4463
▁ыраазы	-10.4464
▁августта	-10.4464
▁Фото	-10.4466
▁автор	-10.4466
▁программасынын	-10.4467
сунда	-10.447
▁салышты	-10.4471
▁пландап	-10.4471
▁Күн	-10.4474
▁күзүндө	-10.4476
▁үчтөн	-10.4478
▁чыгууда	-10.4479
▁мекемелердин	-10.4479
төрү	-10.448
▁от	-10.4483
▁85	-10.4485
▁Бо	-10.4485
▁толтура	-10.4489
▁жа	-10.4498
тарына	-10.4498
▁тажикстандык	-10.45
▁Мени	-10.4504
▁чечкен	-10.4508
▁көрбөй	-10.4509
▁Азияда	-10.4511
▁позиция	-10.4511
▁партиялык	-10.4513
▁барышы	-10.4513
▁полициянын	-10.4516
▁биротоло	-10.4519
▁өлтүрүп	-10.4519
▁Акаевдин	-10.4521
▁өткөрүлгөн	-10.4522
аев	-10.4523
▁Ор	-10.4524
▁төлөм	-10.4525
▁көңүлүн	-10.4525
▁камап	-10.4528
▁сыноо	-10.4534
Республика	-10.4536
▁өнөктүгү	-10.4536
▁демилгесин	-10.454
▁беренелери	-10.4544
▁Ро	-10.4545
▁сомдун	-10.4546
▁орунга	-10.4554
▁ашырууга	-10.4556
▁Газадагы	-10.4559
▁улантууда	-10.4563
бас	-10.4572
▁Энтон	-10.4572
▁Болгону	-10.4575
▁тилек	-10.4579
▁иштеринин	-10.458
▁коррупцияны	-10.458
▁аскерге	-10.4581
лип	-10.4582
Е	-10.4584
▁коому	-10.4585
▁Ху	-10.4586
ид	-10.459
Кабар	-10.459
▁көрдүм	-10.459
▁палатасынын	-10.4591
шу	-10.4591
▁бошотууну	-10.4594
▁чалгындоо	-10.4594
▁жашыл	-10.4595
▁иштеши	-10.4601
▁ойго	-10.4601
70	-10.4602
▁макам	-10.4603
35	-10.4609
▁атаандаш	-10.4616
▁мамлекеттери	-10.4619
▁укуктарынын	-10.4622
▁Лавров	-10.4626
▁масштабдуу	-10.4626
▁Эдил	-10.4627
▁буруп	-10.4627
алдуу	-10.4627
▁талаптарын	-10.4628
▁келдим	-10.4628
▁реестрине	-10.4628
▁жагын	-10.463
▁таппай	-10.4632
▁Балыкчы	-10.4635
▁бузулган	-10.4637
▁күнөө	-10.4638
▁ушуга	-10.4638
40	-10.4639
▁кыздардын	-10.4644
▁Ы	-10.4645
▁талибдерди	-10.4646
▁көптөн	-10.4648
▁Көлбаев	-10.4649
▁56	-10.465
▁болбогон	-10.4652
▁77	-10.4654
ком	-10.4658
▁макамын	-10.4666
▁Сары	-10.4667
▁белгиси	-10.4674
▁илдети	-10.4675
11	-10.4677
▁ачууга	-10.4677
▁дооматтарды	-10.4678
▁чөп	-10.4679
▁өбөлгө	-10.4681
▁Адатта	-10.4681
▁тыянак	-10.4681
▁дарегине	-10.4682
▁жазышты	-10.4683
▁багып	-10.4684
▁Израилге	-10.4688
▁аяктады	-10.4691
▁уруу	-10.4692
▁Түркмөнстандын	-10.4694
▁ишенем	-10.4696
▁жетүү	-10.4696
▁күчөгөн	-10.4697
▁эмнеде	-10.47
▁жоопкерчилигин	-10.47
▁эсептейм	-10.4703
▁журналисттерди	-10.4705
▁кеңешине	-10.4705
үүчү	-10.4711
▁Грузиянын	-10.4712
▁мунапыс	-10.4716
чарага	-10.4718
▁чай	-10.4721
▁күткөн	-10.4723
▁аткара	-10.4726
▁ыктыярчылар	-10.4729
f	-10.4733
▁барымтага	-10.4735
▁шайланып	-10.4735
▁кабатыр	-10.4736
▁белгиленет	-10.4737
▁ишенип	-10.4737
▁заман	-10.4739
лорду	-10.4743
▁тапшырмасы	-10.4744
▁эсептеп	-10.4747
▁жапа	-10.4747
үбүз	-10.4748
▁аткарууга	-10.4751
▁айтыла	-10.4752
▁Шаар	-10.4752
▁каражаттарын	-10.4754
ышкан	-10.4756
▁чыгышындагы	-10.4759
▁Жыйын	-10.4759
ганы	-10.4759
▁жүргүнчү	-10.4761
лукту	-10.4762
▁элчи	-10.4763
▁уран	-10.4765
марттагы	-10.4768
▁67	-10.4775
▁макамы	-10.4775
▁максатта	-10.4776
▁көрсөтүүнү	-10.4786
▁төртүнчү	-10.4787
▁1992-	-10.479
▁козголду	-10.479
▁айыппул	-10.479
▁кай	-10.4791
▁минтип	-10.4791
▁Катар	-10.4793
▁Документ	-10.4795
▁бычак	-10.4798
▁үйлөрдү	-10.4798
▁талабын	-10.4801
ылган	-10.4802
?!	-10.4802
▁уюмдарга	-10.4806
▁кылынган	-10.4806
ина	-10.4807
▁карашы	-10.4813
▁Кон	-10.4813
▁уланат	-10.4815
▁Кочкор	-10.4817
▁айдоочулар	-10.4817
▁кама	-10.4818
▁Чо	-10.4822
▁аракеттерге	-10.4822
▁Ф	-10.4823
▁радио	-10.4824
▁сатылган	-10.4825
▁түтүн	-10.4825
▁шаарга	-10.4828
лон	-10.483
▁буудай	-10.483
▁токтогон	-10.4833
▁фактылары	-10.4839
▁Чын	-10.484
▁мамлекеттерге	-10.484
Ко	-10.4841
▁майнап	-10.4844
▁мамлекеттен	-10.4845
▁Шакиев	-10.4846
▁сунушталды	-10.4846
▁болушунча	-10.4849
▁Он	-10.485
▁китептер	-10.4852
▁араң	-10.4854
эн	-10.4855
▁ч	-10.4858
▁сал	-10.4859
ини	-10.4861
▁катышы	-10.4867
Ш	-10.4869
▁Жаш	-10.4873
▁окумуштуу	-10.4878
▁тынчсыздануу	-10.488
▁атаандашы	-10.488
▁Кадыров	-10.4881
▁ою	-10.4884
▁киргизди	-10.4886
▁себептер	-10.4889
▁жетишпей	-10.489
▁жикчил	-10.4897
▁у	-10.49
стр	-10.49
январга	-10.4901
Дордой	-10.4901
▁Мелис	-10.4902
▁өстү	-10.4903
▁ансыз	-10.4903
▁ырастап	-10.4904
▁Экс	-10.4905
▁даярдалган	-10.4907
▁болдук	-10.491
вар	-10.4912
▁жарнама	-10.4912
▁мамлекетти	-10.4912
▁жасоого	-10.4915
▁учураган	-10.4915
▁баскан	-10.4917
чылыгы	-10.4919
▁таанышып	-10.4919
▁төңкөрүш	-10.492
▁бошотууга	-10.4921
▁колдой	-10.4922
мди	-10.4924
▁бут	-10.4927
▁Жусуп	-10.4928
▁сентябрь	-10.4929
▁өнөктөшү	-10.4934
▁дедим	-10.4936
ский	-10.4937
▁ишмердиги	-10.494
▁четте	-10.4941
▁багыттагы	-10.4944
▁айтпай	-10.4952
▁Кадамжай	-10.4957
▁күчөдү	-10.4957
▁башчыларынын	-10.4959
▁жүрүүдө	-10.4961
▁коркутуу	-10.4962
▁аймагын	-10.4969
демократтар	-10.4977
Масса	-10.4981
14	-10.4983
▁Кор	-10.4985
▁технологиялар	-10.4985
▁сап	-10.4987
▁K	-10.499
▁сура	-10.4993
▁орток	-10.4994
дөрдүн	-10.4999
▁качуу	-10.4999
▁Америкалык	-10.5002
▁сапарга	-10.5003
▁Азим	-10.5004
оп	-10.5006
йын	-10.5007
кеев	-10.5007
▁барганын	-10.5009
▁жөнөтүп	-10.5013
▁тилкесин	-10.5013
▁сырткы	-10.5015
▁билдирүүлөр	-10.5017
▁G	-10.5019
▁аткезчилик	-10.5019
▁балага	-10.5021
▁кастыкты	-10.5022
▁окуучулар	-10.5022
▁карта	-10.5023
▁баатыр	-10.5024
иев	-10.5026
▁Путинге	-10.5027
▁өсүшү	-10.5027
▁кайдан	-10.5029
бизди	-10.5031
▁аскерлерди	-10.5035
▁калтырып	-10.5037
▁76	-10.5037
жо	-10.5039
жар	-10.5039
▁президенттери	-10.5041
▁чечкиндүү	-10.5044
▁атомду	-10.5045
▁Оору	-10.5048
▁хан	-10.5052
▁айтканын	-10.5056
▁калгандар	-10.5057
▁аткылоо	-10.5057
▁2000-	-10.5057
▁агенттик	-10.506
▁Уюм	-10.506
▁учактар	-10.5063
▁Марипов	-10.5063
▁тилкеси	-10.5064
ндай	-10.5064
▁Жеке	-10.5069
▁мобилд	-10.5069
▁жашоосу	-10.5069
▁драма	-10.507
▁үндөдү	-10.507
▁бошотулду	-10.5071
▁салттуу	-10.5072
жөнү	-10.5072
▁уурдап	-10.5074
бекова	-10.5076
▁телефондон	-10.5079
▁кылышы	-10.508
лган	-10.5081
▁облус	-10.5088
▁сапатын	-10.5092
▁керектиги	-10.5094
▁кайтарган	-10.5095
▁Алай	-10.5096
▁Дүйнөдө	-10.5099
▁редактору	-10.5101
▁ий	-10.5103
▁кеме	-10.5106
▁доллары	-10.5107
▁негизи	-10.5109
▁уят	-10.511
▁өтүнүчүн	-10.5112
▁консулдук	-10.5113
▁аялдарды	-10.5114
▁Токио	-10.5114
▁башаламандыктар	-10.5116
▁акциялар	-10.5118
▁суроолорду	-10.5119
▁Сар	-10.512
▁жазасына	-10.5125
тты	-10.5126
▁Times	-10.5126
▁жаабайт	-10.5127
▁тармактар	-10.5127
▁февралда	-10.5128
▁которгон	-10.5128
▁жабылды	-10.5129
▁толгон	-10.5129
▁байланышты	-10.513
▁көлөмдө	-10.5132
▁изилдөөлөр	-10.5139
▁өч	-10.5142
▁көчмөндөр	-10.5145
Мекеним	-10.5151
▁Л	-10.5163
▁товарлардын	-10.5165
▁майрамы	-10.5166
▁токой	-10.5167
лууда	-10.517
▁жараяны	-10.5172
▁күз	-10.5174
▁тобуна	-10.5174
▁Луганск	-10.5174
▁калышкан	-10.5174
▁булактар	-10.5177
▁ишмерлер	-10.5181
▁кызматкерлерин	-10.5183
▁чыгармачыл	-10.5183
▁ыйык	-10.5184
▁натыйжа	-10.5187
▁сакталган	-10.5188
▁чынында	-10.519
▁илдеттен	-10.519
▁ашууну	-10.519
▁ичине	-10.5192
синде	-10.5198
▁Элдин	-10.5201
▁сыртына	-10.5203
17	-10.5206
▁аша	-10.5208
▁партиясын	-10.5209
лерге	-10.5209
▁көрүүнү	-10.5216
▁ко	-10.5222
▁Ди	-10.5223
▁чыгарма	-10.523
баганын	-10.5237
▁себептери	-10.5239
▁майрам	-10.524
▁Көрсө	-10.5241
▁эмгектенген	-10.5241
▁алынса	-10.5241
▁кийип	-10.5241
▁иликтеген	-10.5243
▁элден	-10.5244
үм	-10.5245
▁Министрликтин	-10.5246
▁моюнуна	-10.5246
▁келтирди	-10.525
ран	-10.5252
▁силер	-10.5253
▁жогорудагы	-10.5254
▁жазында	-10.5261
▁артыкчылык	-10.5267
▁такси	-10.5273
▁учуу	-10.5274
Көлдүн	-10.5274
▁форма	-10.5277
▁депутаттын	-10.5283
▁Тур	-10.5284
▁көл	-10.5286
▁Республикасы	-10.5288
▁өкмөттөр	-10.5288
▁Американын	-10.5291
▁оорукананы	-10.5291
▁берилбей	-10.5292
▁араб	-10.5296
▁аракетине	-10.5297
▁кВт	-10.5299
▁француз	-10.5299
▁экспорт	-10.5299
▁көрбөгөндөй	-10.53
▁башкарууга	-10.5311
▁куру	-10.5312
▁Жонсон	-10.5312
▁ӨКМ	-10.5316
▁балам	-10.5318
жылдарды	-10.532
▁билимдүү	-10.5323
▁жазат	-10.5326
▁кырсыкта	-10.533
▁кы	-10.5333
▁өзгөрүү	-10.534
▁жүрүү	-10.5343
z	-10.5343
Синин	-10.5355
▁ушинтип	-10.5357
▁сексуалдык	-10.5357
▁жиберип	-10.5357
▁Көпчүлүк	-10.5357
▁кабарлашты	-10.5358
Л	-10.5359
▁келишимине	-10.536
▁акысын	-10.536
▁ЕАЭБ	-10.5361
ушу	-10.5364
▁Ибраев	-10.5364
Бука	-10.5365
▁тагдыр	-10.5365
кин	-10.5369
▁айтсак	-10.5373
▁Ара	-10.5377
▁башкаруучу	-10.5379
▁айылдык	-10.5383
▁каражаттарды	-10.5384
▁чыгарат	-10.5384
лерден	-10.5384
Талибандын	-10.539
▁бой	-10.539
ованын	-10.5397
▁Иманалиев	-10.5398
анов	-10.54
На	-10.5403
▁шылтоо	-10.541
▁Бабанов	-10.5411
Коргон	-10.5412
зомбулук	-10.5413
▁Виктор	-10.5414
▁байланыштырган	-10.5416
▁кайрымдуулук	-10.5418
▁сезген	-10.5418
▁эмнени	-10.542
▁кичине	-10.5423
▁Карабак	-10.5426
▁келишин	-10.5427
▁жарыгы	-10.5429
▁Компани	-10.5429
L	-10.5431
▁Токмок	-10.5431
▁баракчасында	-10.5434
▁келдик	-10.5434
мер	-10.5436
кыргыз	-10.5438
▁кароого	-10.544
▁жолдорду	-10.5442
▁мамлекеттерде	-10.5444
▁окуялардан	-10.5444
▁токтото	-10.5445
үмдү	-10.5446
▁Самат	-10.5448
кай	-10.5448
▁депортация	-10.5448
▁Кадыр	-10.5452
ук	-10.5452
▁министрлери	-10.5453
▁бекети	-10.5453
▁аткаминерлер	-10.5455
▁атуу	-10.5458
▁балык	-10.5463
▁пландалган	-10.5465
▁кармаш	-10.5469
▁Евгений	-10.5474
▁Курулуш	-10.5475
▁66	-10.5476
▁59	-10.5478
▁Роза	-10.548
кур	-10.5481
▁жыйынын	-10.5481
▁жазышкан	-10.5483
▁гүл	-10.5489
▁кайсыл	-10.5491
▁башкаларга	-10.5495
en	-10.5496
▁Жок	-10.5497
▁Түркмөнстанда	-10.5506
▁мэрия	-10.5507
▁түрлөрү	-10.5507
▁европалык	-10.5508
▁бүтө	-10.5508
▁билүү	-10.5514
▁кенди	-10.5517
18	-10.552
▁агент	-10.5522
президенти	-10.5522
▁Индиянын	-10.5524
▁ишкердик	-10.5524
ылып	-10.5525
▁тал	-10.5529
бак	-10.553
▁чагымчыл	-10.5533
▁одоно	-10.5533
▁ача	-10.5535
шты	-10.5536
▁кетерин	-10.5537
▁Клара	-10.5537
▁уткан	-10.5547
декабрында	-10.555
▁учкан	-10.5553
▁мүмкүнчүлүгүн	-10.5553
▁оюндары	-10.5557
сиң	-10.5564
▁өнөктөштөрү	-10.5566
▁революция	-10.5571
▁ооз	-10.5575
▁тигүү	-10.5576
▁кишилерди	-10.5579
өн	-10.558
▁сол	-10.5581
▁Бел	-10.5582
▁атылган	-10.5584
жылдардагы	-10.5585
▁Газада	-10.5585
▁кооз	-10.5585
▁барганы	-10.5586
төрдү	-10.5587
▁такталган	-10.5587
▁атаандаштык	-10.5587
▁Эмилбек	-10.5589
▁Исхак	-10.5593
▁жалданма	-10.5593
▁жеткенин	-10.5593
▁орусча	-10.5594
▁туристтик	-10.5594
▁азыраак	-10.5595
▁программасын	-10.5595
▁абалына	-10.5596
▁мажбурлап	-10.5596
▁айыптар	-10.5596
▁берилиши	-10.5598
▁артисти	-10.5602
▁жогоруда	-10.5604
лиги	-10.5605
▁талкаланган	-10.5606
▁73	-10.5607
▁бий	-10.5612
ше	-10.5613
▁билбейт	-10.5614
▁кыларын	-10.5615
▁кызматтары	-10.5617
▁көбөйгөнүн	-10.5618
▁64	-10.5619
▁чогултуу	-10.5623
▁парламенти	-10.5626
ая	-10.5629
▁эмдөөдө	-10.563
▁84	-10.563
▁жатышкан	-10.5634
▁чында	-10.5637
▁жат	-10.5638
▁жиберди	-10.5639
Клооп	-10.5651
▁турарын	-10.5656
▁сакта	-10.5661
▁чагылдырган	-10.5661
▁материал	-10.5662
▁Мээрим	-10.5663
▁Бизди	-10.5666
▁буруу	-10.5668
▁чындыкка	-10.567
түп	-10.567
▁уу	-10.5671
таш	-10.5675
▁титирөө	-10.5676
ибизди	-10.5676
ңер	-10.5682
▁мүлкүн	-10.5682
иянын	-10.5683
▁дайындоо	-10.5684
▁байланышып	-10.5685
уусу	-10.5685
▁коомчулугу	-10.5686
▁эрки	-10.5688
▁79	-10.5698
▁процесс	-10.57
▁ролун	-10.5701
▁макулдашууну	-10.5703
▁каналына	-10.5704
12	-10.5706
▁Баку	-10.5707
▁130	-10.5713
▁Жыйынтыгында	-10.5714
▁товарлар	-10.5714
▁майыптыгы	-10.5714
▁кримтөбөл	-10.5715
▁Камчы	-10.5715
▁жеген	-10.5715
▁клиникалык	-10.5717
▁Абды	-10.5718
▁себептүү	-10.5719
▁Аман	-10.572
▁биле	-10.5724
▁маалымдагандай	-10.5725
▁жашар	-10.5725
▁үлүшү	-10.5729
▁Казакбаев	-10.5731
▁автоном	-10.5734
▁жекшембиде	-10.5737
▁жерлерге	-10.5737
▁шаарды	-10.5737
▁маанай	-10.5739
▁тынчтыкты	-10.5742
▁Мал	-10.5744
Ка	-10.5749
Ар	-10.575
▁болгонуна	-10.5751
▁дарылануу	-10.5751
▁жекшемби	-10.5752
▁Киевдин	-10.5758
▁жанына	-10.5763
▁Медет	-10.5765
▁акциясын	-10.5767
тардан	-10.5767
▁гезити	-10.5767
▁айырма	-10.5771
▁агай	-10.5771
▁Аламүдүн	-10.5775
▁демек	-10.5775
▁добуштарды	-10.5777
▁баласын	-10.5777
▁коюшат	-10.5777
▁Түркиядан	-10.5778
▁мурдараак	-10.5782
▁ишмердигине	-10.5785
▁спорттук	-10.5789
▁СССРдин	-10.5789
▁катышуусунда	-10.5795
ика	-10.5797
▁ооруну	-10.58
▁кылдат	-10.5803
▁кылмыштар	-10.5803
▁мыйзамы	-10.5806
▁кылууну	-10.5806
▁калкты	-10.5807
чил	-10.5808
▁алардан	-10.5808
▁өзгөртүүгө	-10.581
▁Акча	-10.5811
▁ишканалардын	-10.5812
▁көрүнүштөр	-10.5815
▁катыш	-10.5818
▁Атамбаевди	-10.5819
▁Жу	-10.5824
▁чыңдоо	-10.5824
▁кармалгандарды	-10.5825
▁жем	-10.583
илген	-10.5834
Озоди	-10.5835
▁кызык	-10.584
▁80%	-10.5841
алык	-10.5842
сан	-10.5844
▁британ	-10.5844
▁чыгармачылык	-10.5845
25	-10.5845
29	-10.5846
лып	-10.5847
▁айылы	-10.5849
▁президентти	-10.5852
▁уруш	-10.5853
апрель	-10.586
▁Сариев	-10.586
Арча	-10.5861
яр	-10.5865
▁база	-10.5865
▁мамилелер	-10.5865
▁каналы	-10.5866
өр	-10.587
▁тармак	-10.5871
Петербург	-10.5872
январдагы	-10.5873
▁грант	-10.5874
▁схема	-10.5884
▁тор	-10.5884
▁ашпай	-10.5885
▁айыптарды	-10.5886
▁формасын	-10.5886
▁кызыкчылыгына	-10.5888
▁78	-10.5889
▁Ру	-10.589
▁алабы	-10.5891
▁күтүүсүз	-10.5893
▁ачты	-10.5895
▁Абдирасулова	-10.5896
▁Соода	-10.5896
▁Орхан	-10.5897
▁арызды	-10.5899
уд	-10.59
▁IT	-10.5901
лору	-10.5901
▁алыскы	-10.5903
▁видеого	-10.5904
▁Алматыда	-10.5909
▁Өзбек	-10.5909
▁72	-10.5917
▁ГЭС	-10.5918
зы	-10.5919
▁көзөмөлдү	-10.5923
▁электе	-10.5927
▁ниети	-10.5931
▁баяндамасында	-10.5931
▁окуялары	-10.5932
тору	-10.5933
▁180	-10.5934
▁Нарында	-10.5935
бады	-10.5937
▁угуу	-10.594
▁отчет	-10.594
▁талкуулады	-10.5944
▁баштаганы	-10.5947
▁Кабулда	-10.5948
▁ооруган	-10.5952
▁Комиссия	-10.5954
▁технология	-10.5956
▁адабият	-10.5957
▁тапканын	-10.5957
▁күтүлүп	-10.5958
▁Болбосо	-10.5958
▁Масалиев	-10.5958
▁айтуусунда	-10.5958
▁даярданып	-10.5959
▁жетпеген	-10.5959
▁күчөтүлгөн	-10.596
▁алуунун	-10.596
▁төлөй	-10.5961
▁баалаган	-10.5962
руп	-10.5962
R	-10.5965
тарынын	-10.5969
▁акчалай	-10.597
тарда	-10.5971
ларында	-10.5975
▁Парламенттик	-10.598
▁аракеттерине	-10.598
K	-10.5981
Журт	-10.5983
▁жоголгон	-10.5985
▁кечке	-10.5988
▁өзгөрүшү	-10.5991
▁аймактарына	-10.5991
▁катта	-10.5992
▁Ле	-10.5994
▁теги	-10.6002
▁мүмкүнчүлүктөрү	-10.6006
▁өчүрүү	-10.6012
▁төрөт	-10.6015
▁иликтөөчү	-10.6016
▁белгилешти	-10.602
▁агып	-10.602
▁ойлонуп	-10.602
▁вакцинасы	-10.6021
▁каралууда	-10.6022
▁Аль	-10.6022
▁жеткирген	-10.6024
лов	-10.6024
▁түшүнгөн	-10.6025
+	-10.6031
▁болдум	-10.6032
▁катышканы	-10.6037
▁Абдулла	-10.6039
▁Өзү	-10.6043
▁билими	-10.6043
▁келчү	-10.6045
▁өмүрүнө	-10.6047
▁ноябрь	-10.6049
▁өкүлдөрүнө	-10.6052
▁имаратынын	-10.6052
▁адиси	-10.6052
▁ижара	-10.6055
▁калааны	-10.6056
үл	-10.6057
▁спортчулар	-10.6061
▁албаса	-10.6063
▁чагым	-10.6064
▁бер	-10.6068
▁Киевде	-10.607
▁башаламандыкка	-10.6073
ара	-10.6075
▁Нарматова	-10.6077
▁саясатчылардын	-10.6078
▁чар	-10.6078
▁жарыя	-10.6079
▁тартыштыгы	-10.6079
▁ан	-10.6079
▁келишимде	-10.608
▁бийликтеги	-10.608
▁Одесса	-10.6082
▁ызы	-10.6083
▁прокурору	-10.6085
▁колдонулат	-10.6089
▁билдирүүсүн	-10.6091
пу	-10.6093
▁айларда	-10.6093
▁мүмкүндүгүн	-10.6096
▁борборун	-10.61
Кытай	-10.61
▁110	-10.6103
▁апрелде	-10.6106
▁Кайрат	-10.6111
▁чыгууну	-10.6112
каршы	-10.6121
▁бирөөлөр	-10.613
сүндө	-10.6131
▁намаз	-10.6131
▁Ас	-10.6131
▁нерсеге	-10.6133
▁штабы	-10.6135
▁мазмуну	-10.6138
кол	-10.6139
▁түрмөдөн	-10.6144
▁дале	-10.6145
▁бошотуп	-10.6145
▁Алишер	-10.6146
аль	-10.6147
▁кодексине	-10.6148
▁жаңыдан	-10.6148
▁өтсө	-10.6149
▁доктору	-10.6149
▁саясатта	-10.615
▁сүрөтү	-10.615
▁Каржы	-10.6151
чүлөр	-10.6152
▁жал	-10.6157
лей	-10.6158
▁өтчү	-10.616
▁билем	-10.6161
ят	-10.6161
▁күбөлүк	-10.6163
▁эвакуация	-10.6174
▁эрежесин	-10.6179
▁кызматты	-10.6179
депутат	-10.618
▁айла	-10.618
Ай	-10.6184
▁айтса	-10.6186
▁авто	-10.6187
Ба	-10.6188
▁өткү	-10.6188
ве	-10.6188
каны	-10.6191
▁Белгиле	-10.6193
▁чыңалуу	-10.6198
лө	-10.6198
▁багыты	-10.6201
жыныстык	-10.6203
▁бүткөндө	-10.6205
маалы	-10.6207
▁айдоо	-10.6208
▁BBC	-10.6209
▁тартылды	-10.6209
▁кыйылды	-10.6209
▁сезип	-10.6209
▁Ме	-10.6209
▁Добуш	-10.6211
▁жүргүзүлөт	-10.6211
▁мурас	-10.6214
▁деңгээлин	-10.6215
тиги	-10.6216
▁Апрель	-10.6217
▁берилбейт	-10.6221
▁үйлөрүнө	-10.6222
▁түндө	-10.6222
▁жүрөгү	-10.6222
▁өлкөлөрдөгү	-10.6224
Өзбекстан	-10.6227
▁Кош	-10.623
абы	-10.6231
▁талкуулар	-10.6233
алиева	-10.6233
G	-10.6235
чек	-10.6236
шууда	-10.6239
▁видеону	-10.624
▁экономикага	-10.6244
ед	-10.6244
▁киргизүүгө	-10.6246
▁жоокерлер	-10.625
▁берилгени	-10.6251
▁каалоосу	-10.6251
▁алчу	-10.6263
▁саясатты	-10.6265
▁бирөөнүн	-10.6268
▁кылымда	-10.6269
▁тоскоол	-10.627
бара	-10.6271
▁апелляция	-10.6272
▁аудио	-10.6272
▁жөнөттү	-10.6272
▁адабий	-10.6273
▁талдап	-10.6273
▁Тыныбекова	-10.6273
▁жүктөлгөн	-10.6274
▁жардамды	-10.6276
▁Банк	-10.6278
▁апа	-10.6281
Х	-10.6282
▁тергөөнүн	-10.6285
▁үйүнөн	-10.6286
▁келиндин	-10.6292
▁ирандык	-10.6296
▁Ни	-10.6298
▁негиздеген	-10.6301
кайра	-10.6305
▁мекендештер	-10.6308
▁жолуна	-10.6313
▁башкарууну	-10.6313
▁олимпиада	-10.6321
▁тарыхта	-10.6323
▁тасмасы	-10.6328
мур	-10.6332
21	-10.6332
▁Молдо	-10.6335
▁жеңилдетилген	-10.6337
▁2007-	-10.6337
▁сүрөткө	-10.6342
▁жактоочулары	-10.6348
▁тарады	-10.6349
таган	-10.635
Кыя	-10.6357
▁лидерлеринин	-10.6357
▁Ло	-10.6357
▁учурган	-10.6358
дыктар	-10.6361
▁тартибине	-10.6362
▁колдонуучулары	-10.6366
▁Өзбекстандан	-10.6368
22	-10.6368
▁табылганын	-10.6368
лугу	-10.6369
▁элчилик	-10.6371
▁I	-10.6373
▁Минск	-10.6374
Нур	-10.6376
▁чалдыккандарды	-10.6378
▁мыйзамына	-10.638
▁өлчөмүндө	-10.6381
▁Сен	-10.6381
▁кайта	-10.6382
му	-10.6391
▁жактоочусу	-10.6393
▁учакты	-10.6398
▁ВИЧ	-10.6401
▁геосаясий	-10.6401
▁көрүлүп	-10.6401
▁көйгөйү	-10.6401
▁өндүргөн	-10.6402
▁кармалышы	-10.6405
▁ушунчалык	-10.6409
▁соттор	-10.641
▁Жакшы	-10.6413
80	-10.6413
▁жарандыгы	-10.6416
▁тартибин	-10.6416
▁мамилелерди	-10.6417
▁жүргүзүүдө	-10.6417
▁басылмасынын	-10.6419
,4	-10.6421
талган	-10.6422
бер	-10.6423
▁көйгөйдү	-10.6427
60	-10.6429
▁убакытты	-10.643
жөнүн	-10.6432
▁курмандыктары	-10.6435
▁интернетке	-10.6436
ланды	-10.6439
▁Ри	-10.6439
▁божомол	-10.6443
Алай	-10.6447
▁Журналисттер	-10.6451
▁жообу	-10.6455
▁позициясы	-10.6457
▁акыйкатчы	-10.6458
▁кармалгандар	-10.646
▁кубаттуу	-10.646
▁Ошо	-10.6462
▁кырк	-10.6464
▁окшогон	-10.6466
▁өйдө	-10.6466
▁чакырыктар	-10.6467
▁69	-10.6467
▁коргой	-10.6469
▁чуркап	-10.6469
асы	-10.6471
▁эже	-10.6473
▁жашай	-10.6473
▁сүрөтүн	-10.6475
▁сиздин	-10.6479
▁айы	-10.648
▁Айрымдары	-10.6482
▁тармактагы	-10.6488
▁Францияда	-10.6489
▁жаңылыктар	-10.6494
Алтын	-10.6501
▁Конституцияны	-10.6505
▁башта	-10.6506
U	-10.6507
▁жаратууда	-10.6508
ыбызга	-10.6511
▁жүрүш	-10.6512
▁куралы	-10.6516
▁курмандыгы	-10.6517
▁декларация	-10.652
▁токтобой	-10.652
иб	-10.6521
өл	-10.6524
рүн	-10.653
Газпром	-10.6531
▁Тихановская	-10.6531
▁сиңирген	-10.6531
ология	-10.6531
▁жеткирилди	-10.6533
▁кайталап	-10.6535
▁кылышат	-10.6537
▁чыгармалары	-10.6538
▁тергөөчү	-10.6542
▁жааган	-10.6542
▁өзүнөн	-10.6545
ация	-10.6546
▁компанияга	-10.6546
▁коштолгон	-10.6548
▁Бийликти	-10.6549
▁Ооганстанга	-10.655
▁келинген	-10.6556
теринин	-10.6556
▁салымы	-10.6558
▁ракеталар	-10.6562
▁телеканалынын	-10.6567
▁кызматында	-10.6567
▁алсыз	-10.6568
▁соңуна	-10.6569
▁айылга	-10.657
▁авторлору	-10.6571
ада	-10.6574
бастан	-10.6577
▁колун	-10.6579
▁Эмнеге	-10.6579
бөгөн	-10.658
бой	-10.6582
ышат	-10.6585
▁Абдул	-10.6587
▁тааны	-10.6589
▁шамал	-10.6591
▁режиссер	-10.6592
▁инвестор	-10.6596
▁поезд	-10.6597
▁тийгизип	-10.6597
▁Игор	-10.6597
▁коштоп	-10.6598
▁булактары	-10.6598
▁атайылап	-10.6599
▁жарыялоо	-10.66
w	-10.6601
▁түзүлөт	-10.6602
ель	-10.6602
▁кылгандар	-10.6603
▁бөлгөн	-10.6603
▁буларга	-10.6604
▁пневмония	-10.6608
▁иштетүүгө	-10.6611
▁Исаев	-10.6613
▁иштегендер	-10.6613
▁көр	-10.6616
▁биримдиги	-10.6617
▁жылкы	-10.6619
▁аш	-10.6621
▁билдирүүлөрдү	-10.6621
▁Жыйында	-10.6621
мда	-10.6622
▁сүйлөшүүгө	-10.6624
▁нарк	-10.6624
советтик	-10.6627
▁кыр	-10.6627
▁жайды	-10.6628
лен	-10.663
▁режим	-10.6634
▁Мак	-10.6637
▁соккусуна	-10.6644
▁катардагы	-10.6646
▁интернетте	-10.6646
▁иликтөөгө	-10.6648
▁коопсуздукка	-10.6649
▁Молдова	-10.6649
▁департаменти	-10.6652
▁ойлогон	-10.6653
▁бердик	-10.666
▁Лондон	-10.6662
жон	-10.6662
▁жөлөк	-10.6663
▁Январь	-10.6663
▁билдиришинче	-10.6663
▁дүрбөлөң	-10.6663
▁2003-	-10.6663
▁өлдү	-10.6664
▁түндүгүндөгү	-10.6665
▁министрдин	-10.6665
▁жылды	-10.6666
▁жапкан	-10.6672
▁жүздө	-10.6673
▁келишимдер	-10.6676
матов	-10.6677
▁тамыр	-10.6678
мал	-10.6679
▁Кеңешинин	-10.6682
бат	-10.6686
▁кант	-10.6686
▁жаңылык	-10.6688
▁аралыктан	-10.669
▁утур	-10.669
Ордо	-10.6693
Түндүк	-10.6693
▁кыйынчылык	-10.6696
▁урду	-10.6703
▁көпкө	-10.6708
лү	-10.6714
▁жакты	-10.672
▁кооптонуу	-10.6721
▁юристтер	-10.6722
▁коюш	-10.6722
▁ашат	-10.6726
▁Токто	-10.6727
ура	-10.6728
▁жоктугу	-10.6728
лыгын	-10.6728
▁Искендер	-10.673
▁өзгөрдү	-10.673
▁каптап	-10.6732
▁000	-10.6732
▁сапаттуу	-10.6732
▁өтүнгөн	-10.6733
▁тилди	-10.6733
▁түркиялык	-10.6734
▁Чүйдө	-10.6734
▁талдоо	-10.6734
▁дыйкандар	-10.6736
▁болгондой	-10.6736
▁жакындарынын	-10.6737
▁кетчү	-10.6741
▁жайылган	-10.6741
▁чал	-10.6746
▁жерин	-10.6748
▁өзгөргөн	-10.6748
еги	-10.675
▁кыскартуу	-10.6753
▁W	-10.6753
▁жетекчилеринин	-10.6755
күлдөр	-10.6759
▁Лу	-10.6759
▁азап	-10.6761
кат	-10.6762
▁жайылтуу	-10.6766
▁Келишим	-10.6777
▁Сай	-10.6778
аб	-10.6778
▁E	-10.678
▁куугунтукка	-10.678
▁900	-10.6781
▁өкүлүнүн	-10.6783
27	-10.6786
▁Курск	-10.6786
▁H	-10.6786
▁буту	-10.6791
▁Кулубаев	-10.6797
▁жараксыз	-10.6797
▁акционердик	-10.6797
▁каралды	-10.68
▁Инанды	-10.68
▁тендер	-10.6801
▁тартылат	-10.6801
▁көрүнөт	-10.6802
▁ишмердүүлүгү	-10.6803
▁ылдамдыгы	-10.6803
▁ачылат	-10.6803
▁басылма	-10.6805
▁колдоно	-10.6811
абыз	-10.6812
ушту	-10.6812
▁башталганда	-10.6822
▁Акматов	-10.6822
▁Москвадан	-10.6829
▁шарттарын	-10.6829
▁инфекциясы	-10.6836
▁жумушчулар	-10.6851
▁ит	-10.6855
▁маданияты	-10.6855
гар	-10.6857
▁кылбай	-10.6861
▁87	-10.6863
▁Никол	-10.6863
▁дегени	-10.6863
▁Басылма	-10.6865
▁кабарланууда	-10.6865
▁ажыраткан	-10.6865
▁Деген	-10.6865
▁Темирлан	-10.6866
▁Эртең	-10.6866
▁тигил	-10.6867
▁тийгизет	-10.6868
▁агенттиктин	-10.6868
▁тизмесинде	-10.6871
▁коюлат	-10.6872
▁Шах	-10.6875
▁Ван	-10.6876
▁камоо	-10.6877
▁азайган	-10.6878
▁50%	-10.6879
кты	-10.6884
▁четиндеги	-10.6885
▁окуучулары	-10.6886
▁тыкы	-10.6886
диктен	-10.6888
▁мушташ	-10.6888
атты	-10.6889
▁Махмудов	-10.6889
▁мамлекеттеринин	-10.689
▁Асылбек	-10.6891
▁тилкесине	-10.6892
▁жарыш	-10.6892
▁тополоң	-10.6892
медициналык	-10.6897
▁карызы	-10.6897
шев	-10.6898
▁айылдын	-10.6901
▁мыйзамдарына	-10.6907
▁жамаат	-10.6908
▁катталганын	-10.6909
▁брифингде	-10.6909
▁сапат	-10.6917
▁Гани	-10.6917
▁Сирияда	-10.6917
▁жаткандарды	-10.6918
▁Чы	-10.6918
жылдар	-10.6918
▁Алтын	-10.6921
чараны	-10.6922
▁байкалган	-10.6923
▁кириши	-10.6924
▁аймактар	-10.6926
▁алына	-10.6928
▁сунуштарды	-10.693
▁төлө	-10.6931
▁По	-10.6931
▁тарапты	-10.6932
▁бузганы	-10.6932
▁башпаанек	-10.6933
▁эптеп	-10.6933
▁сүрүп	-10.6933
▁чектешкен	-10.6935
▁калышат	-10.6935
▁активисттердин	-10.6937
▁2006-	-10.6937
▁түшпөй	-10.6937
▁муктаждык	-10.6938
▁даярдалып	-10.6938
▁жолдогон	-10.6941
▁Бектур	-10.6942
▁аймактардагы	-10.6945
▁мүмкүндүк	-10.6945
▁төлөөгө	-10.6945
▁улана	-10.6947
▁түзүмдөрү	-10.6948
▁келишимин	-10.6951
▁доомат	-10.6951
▁заттар	-10.6954
▁30%	-10.6954
нер	-10.6956
▁келебиз	-10.6958
▁зыяндуу	-10.6959
рдык	-10.6961
▁январда	-10.6967
▁кайтарылган	-10.6968
▁97	-10.6976
пер	-10.6983
тогу	-10.6983
▁Долбоор	-10.6992
▁ЖМК	-10.6994
▁үйүн	-10.6996
▁Жылдыз	-10.7001
▁Абдрахматова	-10.7001
▁бешинчи	-10.7001
енко	-10.7002
▁Курсан	-10.7002
▁Прокуратура	-10.7003
▁суроону	-10.7003
▁үстөмдүк	-10.7004
▁ипотекалык	-10.7006
▁дарыгери	-10.7006
▁эртеси	-10.7009
▁келери	-10.7012
▁тараптардын	-10.7017
алар	-10.7024
▁То	-10.7024
▁пайызын	-10.7029
▁университетинде	-10.7029
исттик	-10.7033
▁Мэрия	-10.7033
октябрь	-10.7034
▁достук	-10.7037
▁Е	-10.7039
▁жабырлануучу	-10.7039
▁теракт	-10.704
▁Польшанын	-10.7042
▁комиссиясына	-10.7044
▁корго	-10.7048
▁тоскоолдуктар	-10.7049
чылардын	-10.705
▁сүрөттөр	-10.7054
түк	-10.7056
▁Аб	-10.7058
▁урулган	-10.7061
▁башкармалыгына	-10.7065
▁Ке	-10.7065
▁билбеген	-10.7066
▁көчөсүндө	-10.7068
▁уюмдары	-10.7069
▁сүзүп	-10.707
▁Олимп	-10.707
▁биригип	-10.707
▁ээн	-10.707
▁чаап	-10.7071
▁акчага	-10.7074
▁абак	-10.7075
▁администрацияны	-10.7076
лды	-10.7078
▁Кээде	-10.7083
▁бюджеттик	-10.7085
▁колдойт	-10.7085
▁жабыркагандар	-10.7085
▁инвесторлор	-10.7092
▁негизгиси	-10.7099
▁КСДП	-10.71
▁өткөрө	-10.7107
ент	-10.7108
▁алуучу	-10.7109
▁республиканын	-10.7111
▁тапса	-10.7127
▁актуалдуу	-10.7129
▁талкууланган	-10.7133
▁жандандыруу	-10.7134
Бел	-10.7137
иешелүү	-10.7139
▁жалаа	-10.714
▁ажал	-10.7141
▁сунушталып	-10.7141
▁кадимкидей	-10.7142
▁Ирина	-10.7144
▁макулдук	-10.7147
▁уруксаты	-10.7148
▁Мырза	-10.7152
▁музыкалык	-10.7152
▁көрсөтүүдө	-10.7154
аягы	-10.7154
дүгү	-10.7155
▁чабуулунан	-10.7156
▁Каза	-10.7161
▁кызматташууга	-10.7162
там	-10.7164
▁режимде	-10.7169
▁мааниде	-10.7169
▁кетишине	-10.7169
▁таратуу	-10.7172
▁кошуу	-10.7176
▁төртөө	-10.7179
төгү	-10.718
N	-10.7181
▁гол	-10.7181
▁жаратуу	-10.7185
▁кимди	-10.7187
▁оку	-10.7187
ё	-10.7188
▁баштан	-10.7193
сыңар	-10.7195
▁системаны	-10.7195
▁бур	-10.7196
▁ооруга	-10.7204
▁пайдасына	-10.7205
▁Марк	-10.7209
▁мунаса	-10.7209
▁карамагына	-10.7209
▁Талкуу	-10.721
▁тутанган	-10.721
▁уюштурулуп	-10.721
▁дайындаган	-10.721
▁чыккынчылык	-10.7212
▁аяктайт	-10.7214
▁аталып	-10.7215
Реформа	-10.7216
▁күрөштү	-10.7217
▁маяна	-10.7219
▁финалга	-10.722
▁майып	-10.7221
▁Шинжаңдагы	-10.7226
▁ыкмасы	-10.7229
▁кор	-10.7231
шып	-10.7235
▁топту	-10.7235
бол	-10.7238
тка	-10.7241
▁Грузияда	-10.7242
майдан	-10.7243
өз	-10.7244
▁калгандары	-10.7247
▁оюндарынын	-10.7247
▁кургак	-10.7257
▁кабарчылар	-10.7259
▁сүйлөштү	-10.7264
▁кызын	-10.7264
▁чач	-10.7265
▁форматта	-10.7265
▁кетпей	-10.7269
▁чыгармаларын	-10.7269
▁мыйзамдарын	-10.7269
23	-10.727
▁апам	-10.7275
▁Rights	-10.728
▁Назгүл	-10.728
▁орчундуу	-10.728
▁ыктыяры	-10.728
▁күчөттү	-10.728
▁Негизинен	-10.728
▁кайдыгер	-10.7281
▁дүйнөдөн	-10.7282
▁тургундарды	-10.7283
Твиттердеги	-10.7283
▁камтыган	-10.7283
▁козутуу	-10.7285
дым	-10.7285
▁Быйылкы	-10.7287
дугу	-10.7288
▁артта	-10.7289
▁Чынында	-10.729
▁фонддун	-10.729
▁көзөмөлдө	-10.7293
▁төлөгөн	-10.7299
▁эрежелер	-10.73
▁таштаган	-10.7301
▁студенттердин	-10.7303
техникалык	-10.7312
▁пайыздан	-10.7312
▁байкоочулар	-10.7315
▁делегация	-10.7318
жер	-10.732
▁интеграция	-10.7323
rk	-10.7326
▁блогерлер	-10.7326
▁ишинде	-10.7328
▁ачылышы	-10.7333
▁кум	-10.7336
▁каттамы	-10.7336
▁Ок	-10.7339
мдын	-10.734
▁шектүүлөр	-10.7343
▁Сан	-10.7346
чулардын	-10.7347
▁Бер	-10.7349
▁калууга	-10.7351
▁сейрек	-10.7351
▁көрсөтүлүп	-10.7351
▁иштеткен	-10.7351
▁туулуп	-10.7352
▁роль	-10.7352
▁Конгресс	-10.7353
▁International	-10.7353
▁корутунду	-10.7355
▁бюджети	-10.7357
▁качкын	-10.7357
▁алдамчылык	-10.7358
▁жатыптыр	-10.7359
▁чогулду	-10.7361
▁куткаруу	-10.7363
▁71	-10.7364
видео	-10.7365
▁кый	-10.7365
▁миссиясы	-10.7366
▁Экинчиси	-10.7366
▁федерациясынын	-10.7367
▁зарылдыгы	-10.7368
▁бал	-10.7369
▁декабрда	-10.7369
боо	-10.737
▁каттаган	-10.7372
ья	-10.7374
▁отун	-10.7375
▁адеп	-10.7377
▁калп	-10.7385
▁китеби	-10.7387
▁Жай	-10.7388
▁жоруктарды	-10.7391
ууну	-10.7406
16	-10.7406
▁турушту	-10.7406
▁калганына	-10.7411
▁жашоосун	-10.7414
▁буюм	-10.7416
▁жүргүзүүнү	-10.7416
▁базасы	-10.7418
▁тымызын	-10.7422
▁этектеринде	-10.7422
▁суранып	-10.7422
▁кымбаттап	-10.7424
▁айттым	-10.7424
▁Каракалпакстан	-10.7425
▁топтогон	-10.7425
▁ишкерлерди	-10.7425
▁түзүмдөрүнүн	-10.7426
▁даярдаган	-10.7427
▁куралды	-10.7427
▁сабап	-10.743
▁козголгонун	-10.7433
▁ооруканасынын	-10.7433
▁жашоону	-10.7435
▁тарыхын	-10.7439
▁китептерди	-10.7446
▁козгоду	-10.7446
▁мөөнөттө	-10.7461
▁кесепетин	-10.7463
▁Кадырбеков	-10.7464
▁концерт	-10.7465
циялык	-10.7466
▁базарында	-10.7473
▁жылып	-10.7473
▁98	-10.7474
▁илдетине	-10.7482
▁Украинадан	-10.7482
үлгөн	-10.7485
▁делегациясы	-10.7486
Биздин	-10.7487
▁Жаштар	-10.7489
▁отуруму	-10.7491
▁резолюция	-10.7492
▁Керек	-10.7493
луп	-10.7493
▁утту	-10.7494
▁азайды	-10.7494
▁салмагы	-10.7494
▁накталай	-10.7494
▁парад	-10.7495
▁түшүнүктүү	-10.7497
▁өтүндү	-10.7497
▁сынына	-10.7499
▁орнотулган	-10.75
▁баратканда	-10.7502
▁кабарлап	-10.7502
▁казып	-10.7503
▁мектепти	-10.7505
▁каттап	-10.7507
▁тааныбай	-10.7507
сунан	-10.751
▁аягы	-10.751
▁Фи	-10.7515
▁ондон	-10.7521
▁климаттык	-10.7521
▁армия	-10.7521
▁бейтаптын	-10.7523
▁интервью	-10.7525
▁сай	-10.7527
▁саммит	-10.7528
▁түшүнүү	-10.7529
▁Евробиримдикке	-10.753
жерлерде	-10.7531
Адам	-10.7532
▁штатында	-10.7535
▁керекпи	-10.7538
дүктөн	-10.754
даш	-10.7541
▁долбоорунда	-10.7541
▁каларын	-10.7546
▁Саймаити	-10.7548
туруму	-10.7548
▁козго	-10.7551
▁улан	-10.7552
▁Силер	-10.7558
▁Уюму	-10.7561
▁3,5	-10.7564
▁дарыланууда	-10.7565
чулук	-10.7565
▁Рустам	-10.7567
▁Фергана	-10.7567
▁жоголуп	-10.7567
▁кесиптештери	-10.7568
▁коридор	-10.7568
▁ооруканаларда	-10.7569
▁күнүндө	-10.7571
▁доза	-10.7573
▁баалоо	-10.7576
▁таанышты	-10.7576
▁на	-10.7577
▁2-3	-10.7578
▁каттамдар	-10.7583
▁саясатына	-10.7585
▁мандатын	-10.7585
чатак	-10.7588
▁жообуна	-10.7594
▁профессору	-10.7595
▁багытындагы	-10.7597
▁бөлүштүрүү	-10.7601
Ынтымак	-10.7603
▁Иса	-10.7603
▁айылдары	-10.7604
▁мэриясынын	-10.7607
адам	-10.7607
▁көрсө	-10.7608
▁чабуулга	-10.7615
лордун	-10.7616
▁Компания	-10.7616
▁жобо	-10.7618
▁пайдасы	-10.7624
▁эсептөө	-10.7627
пар	-10.763
▁жүргөндөр	-10.7635
▁Watch	-10.764
▁Негизги	-10.764
▁чакыртып	-10.764
▁шектелген	-10.764
▁жаашы	-10.764
төрдүн	-10.7641
▁жаралып	-10.7641
▁Бишкектен	-10.7644
▁жабыркап	-10.7644
▁ресторан	-10.7646
▁Австралия	-10.7646
юк	-10.7646
▁Айрымдар	-10.7649
▁Айтматовдун	-10.765
▁Султанбеков	-10.765
▁музей	-10.7651
▁көзүн	-10.7653
▁мо	-10.7657
▁бөлүгүнө	-10.7659
рбай	-10.7662
▁Нетаньяху	-10.7664
▁чабуулду	-10.7666
▁кызматташтыгы	-10.7666
умду	-10.7667
мар	-10.7668
▁кароону	-10.767
▁карым	-10.7672
▁саламаттыгына	-10.7673
▁Күч	-10.7673
▁айылдагы	-10.7679
▁талаптарына	-10.7682
▁жыйынды	-10.7683
26	-10.7686
▁Саламаттыкты	-10.7688
▁төлөмдөр	-10.7689
▁башталышы	-10.7692
▁айдоочусу	-10.7697
▁мартта	-10.7697
▁аза	-10.7699
▁күчтөрдү	-10.77
▁алмашты	-10.7702
▁Нурланбек	-10.7703
▁органы	-10.7709
▁аялды	-10.7711
▁жукту	-10.7712
▁түйшүк	-10.7712
▁шайкеш	-10.7713
▁ылдый	-10.7713
▁байкап	-10.7713
▁калкалап	-10.7714
▁жактарга	-10.7714
▁имараты	-10.7714
▁көрсөткүчтөр	-10.7715
▁эн	-10.7719
▁Финляндия	-10.7721
▁жууп	-10.7722
▁Бекназаров	-10.7722
▁мүчөлөрүнө	-10.7724
▁Мексика	-10.7727
мир	-10.7728
▁айындагы	-10.773
▁кулаган	-10.7731
▁Крымды	-10.7731
▁ассоциациясынын	-10.7733
▁туристтер	-10.7734
тпай	-10.7739
▁канчасы	-10.7741
ене	-10.7741
баевдин	-10.7742
▁уул	-10.7743
лүгү	-10.7744
▁президенттер	-10.7748
▁10%	-10.7752
▁көтөрө	-10.7755
▁Маркумду	-10.7757
▁камера	-10.7761
▁каты	-10.7763
▁N	-10.7768
лөрүн	-10.7772
▁банкынын	-10.7772
▁жабдуулар	-10.7776
▁пайдаланган	-10.7776
▁жолунда	-10.7779
▁керектөө	-10.7779
▁Ворух	-10.7782
▁арал	-10.7785
▁улантуу	-10.7786
▁көбөйүшү	-10.7786
▁Буларды	-10.7787
Крокус	-10.7787
▁Коңшу	-10.7787
▁грек	-10.7787
▁жумушсуз	-10.7788
▁Олег	-10.7788
об	-10.7789
фе	-10.7789
▁Атамбаевге	-10.779
терде	-10.7791
лас	-10.7792
▁киришкен	-10.7794
▁чыгары	-10.7794
▁учурап	-10.7799
▁Депутаттар	-10.78
▁жайгаштыруу	-10.7802
▁мин	-10.7802
үткүл	-10.7802
щ	-10.7803
Жа	-10.7804
рүү	-10.7805
▁аралыкты	-10.7806
▁дайыны	-10.7808
▁жылдай	-10.781
▁тармакка	-10.7813
▁жаңжалды	-10.7813
▁Азияга	-10.7828
▁учурду	-10.7829
▁түзүлүш	-10.783
▁Токтакунов	-10.783
▁жаа	-10.7831
Улуу	-10.7832
▁бузууга	-10.7832
▁китепкана	-10.7834
▁айлыгы	-10.7834
▁дрондор	-10.7834
▁түш	-10.7837
суу	-10.7844
▁Жамаатты	-10.7845
▁шектүүнү	-10.7846
▁эсебине	-10.7846
рип	-10.7849
,5%	-10.785
ез	-10.7853
февралга	-10.7862
▁жолугушуп	-10.7862
▁үндөгөн	-10.7862
▁токтотулду	-10.7863
▁кө	-10.7863
▁талкуулашты	-10.7863
▁тастыктаган	-10.7865
▁этностук	-10.7865
▁химиялык	-10.7865
▁бирикмесинин	-10.7866
гыдай	-10.7867
▁спикер	-10.787
▁видеолор	-10.7871
▁шашылыш	-10.7872
▁аткаминер	-10.7875
▁жылдагы	-10.7879
▁калабыз	-10.7881
▁Вирус	-10.7882
▁туру	-10.7884
▁сак	-10.7885
▁милдет	-10.7887
▁телеканалына	-10.789
▁салуудан	-10.789
13	-10.7892
тыгын	-10.7893
▁жеткиликтүү	-10.7893
▁сөздөрү	-10.7893
Балта	-10.7894
▁иликтөөдө	-10.7898
▁талкуулаган	-10.7898
▁чатак	-10.7898
▁жеңген	-10.7909
▁Футбол	-10.791
▁Отунбаева	-10.791
▁140	-10.7913
▁Тажикстандагы	-10.7915
▁аталышта	-10.7915
▁Ибраимов	-10.7918
▁х	-10.7919
▁конок	-10.7921
▁экөөбүз	-10.7923
▁айыпталуучу	-10.7927
▁комитетине	-10.7928
▁аракеттенүү	-10.793
рон	-10.7934
ың	-10.7935
▁Жунушалиев	-10.7937
▁Чаткал	-10.7937
▁сугат	-10.7937
▁алмашып	-10.7937
▁Се	-10.7937
▁берели	-10.7937
туп	-10.7938
▁кызматтар	-10.7941
▁зарылчылыгы	-10.7941
дарынын	-10.7941
▁кени	-10.7941
▁2025-	-10.7942
▁манасчы	-10.7944
▁Кавказ	-10.7944
▁Чүйдүн	-10.7947
▁имаратына	-10.7947
тердик	-10.7947
▁макулдашылган	-10.7948
▁агымы	-10.7949
▁согушу	-10.7949
▁операциясы	-10.7951
▁тарбиялоо	-10.7954
es	-10.7959
▁алганга	-10.7959
ттар	-10.796
▁Абу	-10.7962
▁тагдырын	-10.7963
▁бол	-10.7965
▁басымы	-10.7965
▁жайылышына	-10.7972
▁штабынын	-10.7973
▁ыктымалдыгын	-10.7976
▁күчүн	-10.7978
сентябрь	-10.7981
▁максатын	-10.7982
▁тарыхчы	-10.7987
▁зордуктоо	-10.7989
▁74	-10.7992
▁каш	-10.8002
▁ушунча	-10.8004
▁унаалар	-10.8004
топ	-10.8007
▁Журт	-10.8008
▁видеосу	-10.801
▁Активист	-10.801
▁күчөтүп	-10.8013
▁ташылып	-10.8014
▁Июнь	-10.8015
▁Аскердик	-10.8016
▁төмөндөп	-10.8017
▁жетишти	-10.8019
▁Кен	-10.802
▁Кант	-10.8021
▁койбойт	-10.8022
▁беренелер	-10.8023
АКШ	-10.8024
▁ошолорду	-10.8029
▁министрлигинде	-10.8031
▁келишимдерди	-10.8033
▁чындык	-10.8037
Украина	-10.8038
▁казы	-10.8045
▁класс	-10.8048
▁Убакты	-10.8051
жанов	-10.8054
▁кези	-10.8055
▁тергөөгө	-10.806
бүлөнүн	-10.8062
▁бешөө	-10.8068
▁Март	-10.8072
▁добушун	-10.8072
▁Эсен	-10.8072
▁доорунда	-10.8074
▁Жумабеков	-10.8076
▁аэропортто	-10.8078
бал	-10.808
▁Донбасста	-10.8081
▁жака	-10.8083
еш	-10.8084
▁айыкты	-10.8085
▁Ооган	-10.8086
▁Бөлтүрүк	-10.8087
▁жанынан	-10.8088
▁талапкердин	-10.8088
ттер	-10.8088
­	-10.8089
▁Тескерисинче	-10.8089
▁Комитет	-10.8089
▁залкар	-10.8089
▁топтолуп	-10.8089
▁мыйзамдарга	-10.8089
▁ырааттуу	-10.809
▁жашырып	-10.809
▁жуктурган	-10.809
▁округунан	-10.8091
▁уурдалган	-10.8093
▁ме	-10.8093
▁Биримдигине	-10.8094
еге	-10.8094
▁ресурс	-10.8095
▁ты	-10.8096
▁көзгө	-10.8096
▁айыпты	-10.8099
▁чечилген	-10.81
▁жолугушуусунда	-10.8104
▁чөйрөдө	-10.8104
▁вакцинасын	-10.8111
it	-10.8112
▁айыптоолорду	-10.8113
▁86	-10.8115
▁Ге	-10.8115
▁оппозициясы	-10.8118
▁талдоочулар	-10.8119
▁кеңейтүү	-10.812
▁салыш	-10.812
▁пландары	-10.8122
З	-10.8124
▁жолдон	-10.8125
▁окуудан	-10.8126
тууга	-10.8127
▁албаганын	-10.8137
▁бурган	-10.8139
▁түшүнбөй	-10.8139
▁ЖККУ	-10.814
▁жүр	-10.8144
Хезболла	-10.8145
▁Эгемендик	-10.8147
саат	-10.8149
ректүү	-10.8151
▁башкысы	-10.8151
▁текшерүүдөн	-10.8155
▁кызматташууну	-10.8156
▁ошо	-10.8156
▁коомчулукту	-10.8158
▁кайтарды	-10.8158
▁өкүлчүлүгү	-10.8161
▁сасык	-10.8166
▁тилектештик	-10.8168
▁83	-10.817
▁ыйлап	-10.8172
▁инстанция	-10.8172
▁ЖК	-10.8174
▁дүйшөмбү	-10.8176
▁табууга	-10.8178
▁Алдын	-10.8182
▁жылдыгы	-10.8183
▁чечет	-10.8184
▁белги	-10.8185
▁рубл	-10.8185
▁объектилер	-10.8186
теш	-10.8187
▁чыгарбай	-10.8187
▁көбүн	-10.8187
▁кимиси	-10.8187
▁Тоо	-10.8189
▁объект	-10.819
▁тармактык	-10.8193
▁коомду	-10.8195
евич	-10.8196
рек	-10.8197
▁макулдашты	-10.8198
▁мамиледе	-10.8199
▁адилеттүү	-10.82
▁тарт	-10.8201
▁элин	-10.8206
▁күчкө	-10.8207
▁акынды	-10.8207
лим	-10.821
овго	-10.8211
▁объектилерди	-10.8211
дөрү	-10.8211
июнь	-10.8212
▁барса	-10.8214
▁Ис	-10.8221
▁Исмаилов	-10.8222
▁системасынын	-10.8223
иде	-10.8224
▁саналуу	-10.8225
чан	-10.8228
▁айыпталуучулар	-10.8231
дж	-10.8232
лады	-10.8233
▁аль	-10.8236
▁зыянды	-10.8236
ерлер	-10.8237
▁оппозициянын	-10.8237
▁ракеталарды	-10.8238
майынча	-10.8244
▁өлкөсү	-10.8246
▁тынбай	-10.8246
рей	-10.8248
▁15-20	-10.8248
▁сонун	-10.825
сал	-10.825
▁карала	-10.8253
▁чектелүү	-10.8253
▁Ва	-10.8258
▁Аз	-10.8259
ыптыр	-10.8259
▁келиш	-10.826
▁кошулду	-10.826
▁Алгачкы	-10.8262
▁отурумда	-10.8265
быздын	-10.8265
▁регион	-10.8269
▁Фе	-10.8273
▁Тил	-10.8279
▁комитетинде	-10.8282
▁салганда	-10.8284
▁көрсөтмөсү	-10.8284
▁жетпейт	-10.8285
мит	-10.8288
▁фейк	-10.8291
▁Токаевдин	-10.8291
▁дос	-10.8292
▁жарымына	-10.8294
апрелден	-10.8295
дардан	-10.8297
аба	-10.83
▁шайлоочу	-10.83
▁Иранга	-10.8303
▁ошолор	-10.8313
▁ра	-10.8314
бери	-10.8316
▁адамзат	-10.8318
▁бербеген	-10.832
▁пахта	-10.8322
▁төкмө	-10.8322
▁түшүнүксүз	-10.8323
▁кылышууда	-10.8323
зу	-10.8324
▁мектептердин	-10.8327
▁түшө	-10.833
▁сүйлөшүүсү	-10.8331
▁чабуулуна	-10.8333
▁(19	-10.8334
▁Ачык	-10.8337
▁жатасыз	-10.834
▁кура	-10.8341
28	-10.8343
▁кайрылуусу	-10.8344
▁Социал	-10.8345
орунду	-10.8348
▁процесси	-10.8352
жу	-10.8358
беш	-10.836
▁нан	-10.8363
▁Жээнбек	-10.8367
▁режимин	-10.8367
▁ыш	-10.8371
▁Рим	-10.8373
▁коюлганын	-10.8374
▁окуяда	-10.8375
▁анти	-10.8376
▁түр	-10.8377
▁турууну	-10.8379
ңүз	-10.838
пей	-10.8381
▁Көлбаевдин	-10.8385
▁баштоо	-10.8386
▁өнөктүк	-10.8392
▁учура	-10.8399
▁эбегейсиз	-10.84
▁белгилешкен	-10.8401
▁Ман	-10.8402
▁Замирбек	-10.8403
▁Айнура	-10.8403
▁тааныштырган	-10.8403
▁өнүгүшү	-10.8404
▁как	-10.8404
▁тамаша	-10.8405
▁90%	-10.8407
▁үмүтү	-10.8411
▁Осмоналиев	-10.8413
▁дарыясынын	-10.8413
▁киришти	-10.8413
▁жактаган	-10.8414
▁ооруканасына	-10.8416
▁лаборатория	-10.8416
орун	-10.8417
▁Осмон	-10.8417
▁ысымын	-10.8421
▁дейм	-10.8424
▁д	-10.8425
▁жайыт	-10.8426
▁маселеде	-10.8427
▁дарыларды	-10.8428
▁кылмыштарды	-10.8429
бызга	-10.8429
Тал	-10.8432
▁Оппозиция	-10.8433
▁тасманы	-10.844
ктар	-10.8442
Достук	-10.8443
▁салууда	-10.8444
▁күрөшкөн	-10.8445
▁борборундагы	-10.8446
▁ашкере	-10.8447
еп	-10.8448
▁жаранды	-10.8448
▁агым	-10.8451
▁акцияларын	-10.8452
▁телеканал	-10.8453
▁оюндарында	-10.8453
дүр	-10.8454
▁тургандыгын	-10.8455
▁тиги	-10.846
Булак	-10.8465
өрү	-10.8465
▁күнөөсүн	-10.8466
дорду	-10.8469
▁өнөктөштүк	-10.847
▁Бадахшан	-10.8474
▁Ши	-10.8474
▁илгери	-10.848
▁коңгуроо	-10.848
▁чейрек	-10.848
▁Араван	-10.848
▁баягы	-10.8481
▁системалары	-10.8481
▁улуттун	-10.8485
▁чочулап	-10.8485
▁жүргүзө	-10.8488
▁базарда	-10.8489
▁натыйжасы	-10.849
▁калчу	-10.8491
зо	-10.8492
▁талашып	-10.8492
▁видеодо	-10.8493
сатык	-10.8493
▁партияга	-10.8494
▁карантинди	-10.8498
▁түшүрүлгөн	-10.8501
▁атканын	-10.8502
тта	-10.8503
▁ишенбей	-10.8504
▁кыйынчылыктар	-10.8508
▁көргөндө	-10.8509
▁Чен	-10.8509
Сапат	-10.851
▁күрөшүнөн	-10.8512
▁Ер	-10.8514
▁Так	-10.8515
▁шык	-10.8516
▁искусство	-10.8518
▁экономикасына	-10.8521
▁Тажикстандан	-10.8522
▁сандар	-10.8523
Чек	-10.8524
ноябрь	-10.8528
расмий	-10.8528
▁пресс	-10.8531
мей	-10.8532
кеч	-10.8538
▁пикирге	-10.8541
▁Швейцария	-10.8544
▁залына	-10.8545
▁эфир	-10.8545
▁дарыгерлерге	-10.8545
▁координация	-10.8545
▁тарабында	-10.8547
▁бирлери	-10.8547
дир	-10.855
▁палатасы	-10.8555
▁жагдайларды	-10.8555
▁туткундарды	-10.8556
рап	-10.8558
▁тобун	-10.8559
▁күчөткөн	-10.856
▁сыпаттады	-10.856
▁белгиленип	-10.856
▁жагымдуу	-10.856
▁жасалды	-10.856
▁айырмаланып	-10.856
▁айыбы	-10.8561
▁сөздөрүн	-10.8562
▁Коронавирусту	-10.8565
министрдин	-10.8566
мдү	-10.857
▁коомдогу	-10.8571
▁режимди	-10.8571
▁таңкы	-10.8572
▁машинелер	-10.8572
леп	-10.8573
▁тазалап	-10.8575
▁танк	-10.8577
▁Сотто	-10.8582
мил	-10.8583
▁кыйылган	-10.8586
▁кылмыштуулук	-10.8587
▁ырайым	-10.8588
▁парламентинин	-10.859
▁Бакиров	-10.8596
▁кылам	-10.8599
▁окко	-10.8599
▁тарыхындагы	-10.8602
▁Талибдер	-10.8603
▁толтуруу	-10.8603
▁АЭС	-10.8603
▁жолугушууга	-10.8606
кытай	-10.8609
▁тамеки	-10.8612
▁асман	-10.8615
▁өрттөн	-10.8616
▁издөөдө	-10.8617
сто	-10.8617
▁өспүрүмдөр	-10.8617
▁жайлары	-10.8618
▁кызматкерлерге	-10.8621
түнү	-10.8621
▁жакындап	-10.8627
▁жаранга	-10.8628
▁ишмердүүлүгүн	-10.8629
▁депутаттарын	-10.8629
терине	-10.8629
▁аталышын	-10.8629
▁жазасы	-10.8632
▁нормалар	-10.8632
V	-10.8636
▁Беларуска	-10.8638
▁L	-10.8638
▁Covid	-10.864
▁Жоошев	-10.864
▁буюртма	-10.864
▁2001-	-10.8644
▁салмак	-10.8644
▁чектеген	-10.8647
▁Фрунзе	-10.8647
▁жүгүртүү	-10.8649
▁жатасыңар	-10.8658
▁түшкөнү	-10.8667
▁бактылуу	-10.8668
-1"	-10.8668
▁кабардар	-10.8669
▁кырсыгынан	-10.8671
▁округу	-10.8677
▁жагына	-10.8682
▁машинени	-10.8682
▁Султанбаев	-10.8683
Жаңы	-10.8685
Кызмат	-10.8685
▁талапкери	-10.8689
▁Лондондо	-10.8689
▁артып	-10.8692
47	-10.8692
▁бийликтери	-10.8694
▁сарай	-10.8698
▁операциясын	-10.8698
▁конференция	-10.8699
▁серепчилер	-10.87
▁жеңиш	-10.8701
▁тапканы	-10.8701
▁кызым	-10.871
▁Дүйшөмбүдө	-10.8714
▁Ниязов	-10.872
январына	-10.8722
▁ошентип	-10.8722
▁кыйраган	-10.8722
▁чийки	-10.8722
▁оюмча	-10.8723
▁чындыгында	-10.8723
85	-10.8726
▁түшүндүрөт	-10.8728
жылдарда	-10.8728
▁Карабактагы	-10.873
▁ЦАХАЛ	-10.8731
▁болушат	-10.8733
▁чагылдырып	-10.8733
▁тастыктады	-10.8735
▁Абай	-10.8737
▁Роман	-10.874
▁эм	-10.8741
▁издеген	-10.8741
▁3-4	-10.8741
▁алуусу	-10.8743
▁100%	-10.8744
▁чыгарганын	-10.8745
▁жашырган	-10.8746
▁билдирүүлөрү	-10.8747
▁күзөт	-10.875
▁Экөө	-10.875
▁жолдошу	-10.8751
▁декабрь	-10.8752
▁кесепеттерин	-10.8752
▁бензин	-10.8753
▁импорт	-10.8754
▁кесиптеши	-10.8756
▁келтире	-10.8756
▁өткөрүүдө	-10.8759
мент	-10.8759
▁баян	-10.8759
▁сабаган	-10.8759
▁булак	-10.8762
▁журналисттери	-10.8762
▁өкмөтүн	-10.8764
▁тосмо	-10.8764
▁баллга	-10.8765
▁бердим	-10.8766
октябрында	-10.8767
▁бетин	-10.8769
▁тургандар	-10.8771
▁кызматкерине	-10.8773
▁жетишсиздиги	-10.8778
орунда	-10.8778
эр	-10.8789
▁атасынын	-10.879
▁Федерациясы	-10.879
кысы	-10.8791
ама	-10.8792
▁текшер	-10.8792
▁чыгышына	-10.8794
▁камалышы	-10.8795
дарына	-10.8796
▁Кумтөрдү	-10.8798
Ха	-10.8801
▁аймактан	-10.8803
▁Эммануэл	-10.8804
▁жөнөтүлдү	-10.8804
▁тергелип	-10.8804
▁түшүнүгү	-10.8804
▁дүйнөсү	-10.8805
▁заттарды	-10.8805
▁Денис	-10.8805
▁1994-	-10.8807
▁суранды	-10.8809
▁чогулткан	-10.881
▁кетиптир	-10.881
▁пандемияга	-10.8813
▁бөрү	-10.8813
зе	-10.8813
▁демонстрациялар	-10.8814
▁көрсөткөндөй	-10.8815
▁кудай	-10.8816
▁уга	-10.8817
▁өткөрөт	-10.8818
▁Өзбекстандагы	-10.8821
▁камты	-10.8822
▁опера	-10.8822
кече	-10.8823
▁арачылар	-10.8824
▁калтыруу	-10.8825
Вагнердин	-10.8826
▁көргөзмө	-10.8827
тти	-10.8827
▁толкун	-10.8833
▁бузду	-10.8837
▁Астанада	-10.8837
▁жеңүүчү	-10.8841
▁айыптуу	-10.8842
▁досу	-10.8846
январында	-10.8849
эркин	-10.885
▁укуктарына	-10.8852
▁келгендердин	-10.8854
▁ишканасына	-10.8856
▁кызматтагы	-10.8856
▁урган	-10.8861
▁кылмыштын	-10.8862
▁Кытайдагы	-10.8864
▁со	-10.8864
▁камсыздоого	-10.8866
▁балл	-10.8867
▁ымыркай	-10.8868
▁Ишкер	-10.8868
сия	-10.8869
▁Иван	-10.8872
▁мүлкү	-10.8873
▁автобустар	-10.8874
саң	-10.8876
▁алмашкан	-10.8876
▁З	-10.8877
▁чыгарын	-10.8879
▁салганын	-10.888
гым	-10.8883
▁бошоткон	-10.8884
▁этият	-10.8885
▁окшоп	-10.8886
▁федералдык	-10.8886
▁талкаланып	-10.8887
шин	-10.8888
▁абийир	-10.8889
▁Соттук	-10.889
▁Батукаевди	-10.8892
▁тартканы	-10.8893
▁Испания	-10.8899
▁Матраимовду	-10.8901
▁жуук	-10.8904
▁Кеп	-10.8904
▁иштегени	-10.8905
▁түрүн	-10.8906
▁Ви	-10.8906
▁уулуна	-10.8909
▁агрессия	-10.891
лайт	-10.8912
▁маселесинде	-10.8912
▁жоокери	-10.8913
▁95	-10.8913
▁секундасын	-10.8916
▁реформалоо	-10.8918
▁учурундагы	-10.8922
түрк	-10.8922
▁жоготуулар	-10.8923
▁документтерге	-10.8924
Де	-10.8924
▁эмгектери	-10.8928
▁табыш	-10.8932
Мамлекеттик	-10.8934
▁спортту	-10.894
▁жуу	-10.894
▁айткы	-10.8949
▁өтөрүн	-10.8949
▁аянтта	-10.8955
▁клиникасы	-10.8964
▁байкоочу	-10.8965
▁кеткендер	-10.8966
▁туруш	-10.8969
▁Тогуз	-10.897
▁руханий	-10.897
▁төгүп	-10.897
▁себептерин	-10.897
▁канал	-10.897
▁Тенг	-10.897
▁өнүгүшүнө	-10.8971
▁ошончолук	-10.8971
▁ут	-10.8971
▁кылдык	-10.8971
чилик	-10.8973
▁тармактардагы	-10.8973
▁жактырган	-10.8974
▁ЖККУнун	-10.8976
▁отур	-10.8978
дигин	-10.8979
▁бааны	-10.8979
▁добушу	-10.8981
▁жүрүүгө	-10.8981
am	-10.8981
▁өздөрүнө	-10.8983
▁кетирген	-10.8983
▁Пакистанда	-10.8989
▁өлүмүн	-10.8989
or	-10.899
▁тегерегиндеги	-10.8992
▁болууну	-10.8993
▁болгу	-10.8995
▁согушуп	-10.8996
▁Парламентте	-10.8996
▁сүйлөш	-10.8997
▁сөзгө	-10.8997
▁сандагы	-10.8997
▁туугандарына	-10.8998
▁сурамжылоо	-10.8999
▁айланат	-10.9
ээрлик	-10.9001
▁кадрлар	-10.9003
рда	-10.9004
ологиялык	-10.9005
31	-10.9011
▁жарат	-10.9014
ланышы	-10.9016
Фейсбук	-10.9017
Коррупция	-10.9017
украин	-10.9017
▁заводду	-10.9019
▁чалдыккандар	-10.9027
▁Фу	-10.9027
▁коркунучуна	-10.9029
▁элита	-10.9032
▁ооруканасында	-10.9033
▁саммитинде	-10.904
▁уурдоо	-10.9043
Жер	-10.9044
мынча	-10.9046
▁уйгур	-10.9046
дөрдү	-10.9049
▁доору	-10.9052
▁сезе	-10.9053
▁Үчүнчү	-10.9053
▁Латвия	-10.9054
▁1996-	-10.9054
маш	-10.9054
▁мөөнөттүү	-10.9057
▁ишмердүүлүгүнө	-10.9058
▁акырындап	-10.9059
хар	-10.9063
▁аттанган	-10.9065
▁таанып	-10.9065
▁жабыркады	-10.9066
▁талабына	-10.907
▁се	-10.9071
бүлөлөр	-10.9071
▁350	-10.9072
▁айтсам	-10.9076
▁райондо	-10.9077
төрт	-10.9079
▁күбөлөр	-10.9079
▁чындыкты	-10.908
▁фракция	-10.908
▁туугандар	-10.9083
▁Долбоорду	-10.9083
бала	-10.9086
▁Тү	-10.9086
▁станция	-10.9086
Жар	-10.9087
▁мүмкүнчүлүктөр	-10.9087
▁паспорту	-10.9088
▁келүүнү	-10.9091
▁көчө	-10.9092
▁Ташкентте	-10.9093
▁өсүш	-10.9096
так	-10.9097
▁катмары	-10.9103
Чет	-10.9104
▁күйөө	-10.9105
▁кине	-10.9108
▁кызматкерлерди	-10.9112
▁салганы	-10.9114
▁болуптур	-10.9116
▁колдоосун	-10.9118
▁түзөтүү	-10.9123
▁Британ	-10.9123
▁жаштарды	-10.9124
▁асыл	-10.9126
▁Арыз	-10.9127
▁кеткенине	-10.913
зат	-10.9132
▁популярдуу	-10.9137
▁кеңей	-10.9138
▁Белгород	-10.9138
▁чөгүп	-10.9138
▁шайланды	-10.9139
▁соттолуп	-10.914
мүн	-10.914
▁барабар	-10.9141
▁кыймылдын	-10.9142
▁соодагерлер	-10.9145
▁жамгыр	-10.9146
▁Алты	-10.9148
▁авиация	-10.9148
▁этет	-10.9149
▁Абдрахманов	-10.9151
▁учурларды	-10.9155
▁болом	-10.9155
▁каналдар	-10.9156
▁жоготуу	-10.9158
▁станциялары	-10.9158
▁ас	-10.916
▁академиясы	-10.9163
▁кризиске	-10.9164
▁аткарбай	-10.9166
▁аткарылган	-10.9166
▁Брюсселде	-10.9167
▁алтынчы	-10.9169
▁мурасы	-10.9173
▁Ереван	-10.9175
▁Чехия	-10.9177
▁жаздым	-10.9177
лануу	-10.9179
▁ичкен	-10.9181
us	-10.9186
▁алышып	-10.9187
▁балдарынын	-10.9188
болот	-10.9188
▁бил	-10.9189
▁сизге	-10.9191
▁турушкан	-10.9192
▁Мурат	-10.9195
▁Шо	-10.9196
▁жазма	-10.9196
ыбыздын	-10.9202
▁ук	-10.9203
▁Курал	-10.9203
▁O	-10.9204
▁этти	-10.9205
Бу	-10.9208
алты	-10.9209
▁82	-10.921
▁Бээжинди	-10.921
▁келсек	-10.9215
▁көрүнгөн	-10.9216
▁илинген	-10.9224
▁Жамбыл	-10.9224
▁үндөп	-10.9224
▁бекиткен	-10.9224
▁таянсак	-10.9224
▁жүктөп	-10.9224
▁берсин	-10.9225
▁куралчан	-10.9227
▁кышкы	-10.9229
▁орусиялыктар	-10.9231
Альянс	-10.9232
синин	-10.9233
▁жемкорлук	-10.9234
▁Берлин	-10.9234
▁аталышы	-10.9234
▁жүргүзөт	-10.9236
берене	-10.9237
▁Штаттары	-10.924
▁Ирак	-10.9243
▁бүтүм	-10.9243
▁эрежелери	-10.9246
▁ачары	-10.9247
▁чектен	-10.925
▁жоокерлери	-10.925
▁81	-10.9254
▁мекени	-10.9254
▁өзгөчөлүгү	-10.9255
▁эшик	-10.9255
▁башталганы	-10.9257
▁бейтапкана	-10.9261
▁реформаларды	-10.9266
▁келатканын	-10.9267
▁көрүш	-10.9268
Улуттук	-10.9274
▁ниет	-10.9275
▁(1	-10.9279
▁Италиянын	-10.9279
алган	-10.9281
▁чеккен	-10.9281
▁орундуу	-10.9286
▁апаат	-10.9288
▁иштеди	-10.9291
▁Курман	-10.9294
▁колдонууну	-10.9298
▁өкүлдөрүн	-10.9298
▁аймактарын	-10.93
▁койчу	-10.9306
▁тамактануу	-10.9307
▁кыздары	-10.9308
▁гендердик	-10.931
▁орусиячыл	-10.931
▁айыгышкан	-10.931
▁өтүнүп	-10.931
▁каргаша	-10.9311
▁жүрсө	-10.9314
▁жумушсуздук	-10.9315
▁кызыгып	-10.9316
▁Жанарбек	-10.9317
▁Миң	-10.9318
ундагы	-10.9319
▁кароосуна	-10.9319
▁жеңди	-10.9324
▁булактардан	-10.9325
▁стандарт	-10.9325
рү	-10.9325
▁дүйнөнү	-10.9327
▁биринен	-10.9328
▁чеги	-10.9328
▁фирма	-10.933
▁деңгээлинде	-10.9331
▁Атыр	-10.9331
сүнүн	-10.9333
▁Түркстан	-10.9334
лукка	-10.9335
▁болушуна	-10.9335
▁мугалимдердин	-10.9336
То	-10.9339
▁сүрөттөрдү	-10.934
▁Тынчтык	-10.9345
▁короо	-10.9348
мду	-10.9349
▁кызматтарды	-10.935
▁жамааты	-10.9353
▁Антони	-10.9354
лоону	-10.9359
июль	-10.9361
▁Шакир	-10.9361
онун	-10.9363
▁арачы	-10.9365
▁тара	-10.9368
%)	-10.9371
▁Евробиримдикте	-10.9371
▁жакырчылык	-10.9372
аа	-10.9373
▁Районду	-10.9377
лорго	-10.9382
▁аймактардан	-10.9383
▁баалар	-10.9385
▁жетишүү	-10.9388
▁байке	-10.939
▁криминал	-10.9391
▁чап	-10.9395
▁маеги	-10.9397
▁Бердымухамедов	-10.9397
▁Көптөгөн	-10.9397
▁каатчылык	-10.9397
▁салыштырганда	-10.9397
▁Абакиров	-10.9397
▁чуулгандуу	-10.9397
▁байланыштырды	-10.9398
▁тапшырылды	-10.94
тро	-10.94
▁чыгарылат	-10.9401
▁Германияга	-10.9402
▁учактары	-10.9403
el	-10.9403
▁университети	-10.9403
▁Акматалиев	-10.9404
▁кагууда	-10.9405
▁силерди	-10.9408
▁каалагандай	-10.9409
▁бөлөк	-10.941
▁кеңештерге	-10.941
▁Мадумаровдун	-10.9412
сек	-10.9415
▁инсандар	-10.9417
▁транспорттук	-10.9417
▁жуктургандарды	-10.9417
жок	-10.9421
▁театрынын	-10.9422
▁аталыш	-10.9423
▁R	-10.9423
▁Египет	-10.9425
▁каралоо	-10.9425
▁гезит	-10.9427
▁20%	-10.943
▁жылыш	-10.943
▁согушкерлер	-10.943
▁тактала	-10.9431
▁окуй	-10.9431
▁тартылышы	-10.9433
▁Эрдогандын	-10.9434
▁барышкан	-10.9435
▁Жекшембиде	-10.9438
▁сүйлө	-10.944
▁кызыкчылыктарын	-10.9441
▁беттеште	-10.9441
▁түзө	-10.9443
од	-10.9446
▁климат	-10.9449
келиндердин	-10.9454
чаралары	-10.9455
▁ортосуна	-10.9459
▁ашыра	-10.946
▁планда	-10.9462
сер	-10.9462
▁вирусуна	-10.9465
▁Ки	-10.9467
▁турмушу	-10.9468
▁про	-10.9468
үз	-10.9468
кызыл	-10.9469
▁үнүн	-10.9472
▁тууну	-10.9473
▁салт	-10.9478
▁комендантты	-10.948
▁барыш	-10.9482
▁компанияларга	-10.9482
▁каражаттарында	-10.9484
▁израилдик	-10.9484
▁Белгилүү	-10.9485
▁айыпталууда	-10.9485
▁алектенип	-10.9485
▁сыпаттаган	-10.9485
▁Мектеп	-10.9485
Ыйман	-10.9485
▁сакайып	-10.9485
▁чарчап	-10.9488
▁али	-10.9488
▁вирусу	-10.9489
▁курсу	-10.9491
▁убак	-10.9491
▁кууп	-10.9492
▁орустар	-10.9492
▁узакка	-10.9492
▁чакырат	-10.9493
▁бааланган	-10.9494
▁Тарых	-10.9496
ана	-10.9497
▁жоготкон	-10.9499
▁газдын	-10.9499
▁инфляция	-10.95
▁желим	-10.9503
▁акцияларына	-10.9504
лот	-10.9506
▁мезгилине	-10.951
зода	-10.9511
▁оорусуна	-10.9512
▁прокурордун	-10.9513
▁адистердин	-10.9513
▁ишканалары	-10.9514
▁аэропортунда	-10.9516
▁Орозо	-10.9518
▁тартканын	-10.9519
▁таштады	-10.9519
▁байланышуу	-10.9521
▁кызматташкан	-10.9522
▁күрөшүүгө	-10.9525
▁жел	-10.9525
▁кул	-10.9526
▁күрөштүн	-10.9528
пикирлер	-10.953
▁органдарга	-10.9531
▁Исмаил	-10.9532
Ө	-10.9534
▁милдеттерин	-10.9538
Кыргызстанда	-10.9539
▁жайларына	-10.9539
▁Беларустагы	-10.9542
аң	-10.9545
▁кагылышта	-10.9548
▁жолугушкан	-10.9549
▁Жапонияны	-10.9551
▁койдук	-10.9552
▁Исмаилова	-10.9553
▁каражатын	-10.9554
▁куткаруучулар	-10.9555
▁Өмүр	-10.9555
▁кет	-10.9557
▁заманда	-10.956
▁чөлкөм	-10.956
▁Кас	-10.9565
▁кесипкөй	-10.9565
▁көмөктөшүү	-10.9568
▁кызынын	-10.9572
▁Жанар	-10.9573
▁Светлана	-10.9573
▁1999-	-10.9573
▁Айпери	-10.9573
▁латын	-10.9574
▁түшүрүп	-10.9574
▁Кундуз	-10.9574
as	-10.9574
▁үзгүлтүксүз	-10.9575
▁Сурабалдиева	-10.9576
▁Сер	-10.9576
бүлөдө	-10.9576
▁жээк	-10.9579
▁ойно	-10.9579
▁унут	-10.958
▁аймактардын	-10.958
▁ооруканадан	-10.9581
▁киргизилет	-10.9581
kz	-10.9584
▁көбөйөт	-10.9584
▁куткаруучу	-10.9585
▁санариптештирүү	-10.9587
▁кийген	-10.959
▁тааный	-10.9591
торду	-10.9591
▁уулун	-10.9592
▁Жетим	-10.9592
▁каралышы	-10.9598
▁патент	-10.96
▁биримдикти	-10.9601
▁атпайбы	-10.9603
▁көрүшү	-10.9604
▁Турсун	-10.9605
▁баруучу	-10.9616
at	-10.9616
▁кайрылууда	-10.9616
▁Гу	-10.9619
▁чечен	-10.9622
▁ураан	-10.9622
▁атты	-10.9622
▁мүнөздө	-10.9623
▁өкмөттөн	-10.9623
Биринчи	-10.9626
▁пикирлерди	-10.9628
▁директор	-10.963
Элдик	-10.963
▁айылдарында	-10.9631
▁спикери	-10.9632
▁Алматыдагы	-10.9636
эй	-10.9636
▁Фа	-10.9636
▁Бак	-10.9638
Йорк	-10.9641
▁ооругандар	-10.9645
еркен	-10.9651
▁баарынын	-10.9651
исттер	-10.9653
▁практика	-10.9653
▁Темировдун	-10.9656
▁жетиши	-10.9656
▁кез	-10.9657
▁алалы	-10.9657
▁тармагынын	-10.9662
▁кескен	-10.9663
▁улгайган	-10.9663
▁этегинде	-10.9663
▁көчүрүп	-10.9663
▁Туура	-10.9663
▁утурлай	-10.9663
▁Азимжан	-10.9664
хо	-10.9665
▁ишенген	-10.9668
▁ооруканалар	-10.9669
▁сезим	-10.9671
▁кемчиликтер	-10.9672
▁актаган	-10.9674
▁каттоодо	-10.9675
▁Акция	-10.9681
▁кардарлар	-10.9681
▁ачат	-10.9683
▁сунушту	-10.9683
▁каттамдары	-10.9684
энелери	-10.969
▁кирсе	-10.9691
▁чечиле	-10.9691
▁келинди	-10.9691
▁макулдашкан	-10.9691
▁Парижде	-10.9693
▁өнөктөштөр	-10.9693
▁экөөнүн	-10.9694
▁маалыматын	-10.9695
▁чечти	-10.9696
лыктар	-10.9697
▁курамындагы	-10.9698
▁багын	-10.9698
▁тандаган	-10.9702
▁талапкерлиги	-10.9702
▁жүрөм	-10.9703
▁Шинжаң	-10.9703
▁төрагалык	-10.9706
▁зыяны	-10.9706
▁уранды	-10.9706
▁жылдыруу	-10.9707
▁узартуу	-10.9707
▁жүргүнчүлөрдү	-10.9707
▁санарип	-10.9709
▁бети	-10.9711
▁жуккандарды	-10.9713
чилер	-10.9714
▁жашоочулары	-10.9715
▁чыгымды	-10.9718
▁Шайлообек	-10.972
▁айыпка	-10.972
▁дарылар	-10.9722
ликке	-10.9726
▁талаптары	-10.9726
▁Бразилия	-10.9727
▁кошулуу	-10.9727
▁ажы	-10.9727
▁жапон	-10.973
▁Но	-10.9733
дорго	-10.9736
▁кыйган	-10.9736
▁Венгрия	-10.9737
▁алынбай	-10.9742
беген	-10.9745
▁уюмдарды	-10.9745
вен	-10.9745
шуу	-10.975
▁коркуткан	-10.9753
▁көлөкө	-10.9753
▁контрчабуул	-10.9753
▁унчукпай	-10.9753
▁Тараптар	-10.9753
▁аппараты	-10.9754
▁Тактап	-10.9755
▁океан	-10.9755
▁бөлүнөт	-10.9755
▁чакырышты	-10.9755
▁мүнөздөгү	-10.9756
▁жайларында	-10.9757
▁айылдарда	-10.976
▁институттар	-10.976
▁ролду	-10.976
▁кыйыр	-10.9761
▁карасак	-10.9762
▁оюнда	-10.9766
дыгына	-10.9767
▁диплом	-10.977
чак	-10.9771
▁технологиялык	-10.9772
ски	-10.9774
ылды	-10.9774
▁Ишен	-10.9774
▁40%	-10.9775
▁таймаш	-10.9776
ic	-10.9776
▁барууну	-10.9778
et	-10.978
▁тай	-10.9782
▁93	-10.9783
▁университеттер	-10.9784
▁Жаз	-10.9793
▁митингдер	-10.9795
92	-10.9797
▁бирөөгө	-10.98
▁Ам	-10.98
мэр	-10.9803
▁рейд	-10.9806
мамлекет	-10.9806
чараларга	-10.9806
▁душман	-10.9808
▁эркектерди	-10.9811
▁кон	-10.9812
▁фондуна	-10.9812
▁күрөшкө	-10.9812
▁бюджетти	-10.9814
▁Акын	-10.9814
өй	-10.9815
▁редакция	-10.982
▁журт	-10.9821
▁түшүнө	-10.9822
▁саясатчынын	-10.9823
▁квота	-10.9823
▁курула	-10.9824
ани	-10.9827
▁борборлору	-10.983
▁документтердин	-10.9831
▁Тайван	-10.9833
ch	-10.9836
▁архитектура	-10.984
▁Ой	-10.9841
улам	-10.9841
▁Гутерриш	-10.9844
▁Помпео	-10.9844
▁Юрий	-10.9844
▁чечилип	-10.9844
▁аннексиялап	-10.9844
▁колдоосуна	-10.9844
▁жөнөп	-10.9844
▁байланыштырып	-10.9844
▁чиновниктер	-10.9845
▁карманган	-10.9845
▁күмөндүү	-10.9845
▁элекпиз	-10.9846
▁кайрылышкан	-10.9847
▁өлкөсүндө	-10.9849
▁жаралды	-10.9849
ата	-10.985
▁визасыз	-10.9851
▁аталат	-10.9854
▁балдарына	-10.9855
▁кошкондо	-10.9857
▁сабагы	-10.9858
▁кырдаалдын	-10.9859
аж	-10.986
▁демилгени	-10.9869
▁колония	-10.9871
▁кармады	-10.9872
▁жетекчилигинин	-10.9872
▁кайтты	-10.9875
▁иштетүүчү	-10.9876
энесинин	-10.9877
▁ишемби	-10.9877
▁Палестина	-10.9878
шип	-10.9879
▁Маркум	-10.9883
▁документте	-10.9883
▁күчтөрүнө	-10.9886
▁көрүүдө	-10.9886
▁дебей	-10.9888
граф	-10.9889
▁өтөгөн	-10.9894
▁Андагы	-10.9901
▁деңгээлине	-10.9906
▁Дания	-10.9916
▁кас	-10.9917
ыма	-10.9917
▁Ишти	-10.9919
Па	-10.992
▁кеңешке	-10.992
▁кызматтарда	-10.9921
▁чыгымдар	-10.9923
▁болушун	-10.9923
▁не	-10.9924
▁экстремизм	-10.9928
▁адвокаттар	-10.9928
▁айтышы	-10.9931
▁Инандыны	-10.9932
▁чабуулу	-10.9933
▁Карасартова	-10.9935
▁Шанхай	-10.9935
▁кылынат	-10.9935
▁териштирип	-10.9936
▁пландалып	-10.9936
▁камтыйт	-10.9936
▁бакчалар	-10.9937
▁улук	-10.9938
▁Олжобай	-10.9938
▁элчиликтин	-10.994
▁небереси	-10.994
▁базары	-10.994
▁талкалап	-10.994
▁атылып	-10.994
▁ыдык	-10.9941
▁мынчалык	-10.9941
▁TV	-10.9944
▁кеңештерди	-10.9946
▁баракчасы	-10.9947
рет	-10.9948
сти	-10.9955
▁Швеция	-10.9957
▁Муса	-10.9957
▁мыйзамдары	-10.9961
▁мэрияны	-10.9962
▁чакырууда	-10.9966
▁кандайча	-10.9968
▁достору	-10.9969
▁жоочулар	-10.9969
▁өлүмгө	-10.997
▁сүйлөшүүлөргө	-10.997
▁келтирүүгө	-10.9973
мед	-10.9983
▁сактаган	-10.9985
▁Карантин	-10.9986
90	-10.9987
шо	-10.999
Коопсуз	-10.9991
▁көйгөйүн	-10.9992
кызмат	-10.9992
▁Газаны	-10.9993
▁баада	-10.9995
бузду	-10.9995
▁партияны	-10.9998
▁баалуулуктарды	-11.0006
▁тир	-11.0006
▁Сизди	-11.0007
▁качууга	-11.0007
▁Шу	-11.0013
биздин	-11.0014
▁максаттары	-11.0022
▁жүктү	-11.0022
▁туруктуулук	-11.0024
▁эсептеген	-11.0024
▁палата	-11.0025
▁саммитте	-11.0026
▁Миграция	-11.0028
▁Нооруз	-11.0028
▁Чындыгында	-11.0028
▁келатышат	-11.0028
▁жапайы	-11.0028
▁фото	-11.0028
▁которулуп	-11.0028
▁алышпайт	-11.0029
▁башындагы	-11.003
▁Эрлан	-11.003
▁ГЭСин	-11.0031
▁дооматтар	-11.0031
үүнү	-11.0031
▁күчтөп	-11.0032
▁бийликчил	-11.0034
▁киргизбей	-11.0035
▁жактоочу	-11.0036
▁ойнойт	-11.0037
▁Адил	-11.0037
▁алмаштырып	-11.0038
▁70%	-11.0038
▁катышуучусу	-11.0039
лек	-11.0041
▁сессия	-11.0044
Орусиянын	-11.0045
▁сертификат	-11.0048
ыз	-11.0051
▁июнда	-11.0051
дашкан	-11.0054
▁жасайт	-11.0055
▁акцияларды	-11.0056
▁160	-11.0058
▁референдумга	-11.0059
▁баскыч	-11.0062
▁депутаттарынын	-11.0063
▁түпкү	-11.0066
▁Аскаров	-11.0067
re	-11.0067
▁кылмыштары	-11.0068
▁Кырсык	-11.0071
▁Сох	-11.0074
▁тиреш	-11.0077
▁Түп	-11.0078
▁өзгөрүүлөрдү	-11.0084
▁Дары	-11.0085
▁Майк	-11.0085
▁Кат	-11.0088
▁отурду	-11.0093
тез	-11.0093
▁бурууга	-11.0097
▁маалыматтарын	-11.0097
▁жеңилдик	-11.0099
▁актоо	-11.01
мок	-11.0106
▁окуясына	-11.0108
▁курултайды	-11.0112
▁адамдык	-11.0112
иза	-11.0113
лоого	-11.0115
▁аныктай	-11.0115
▁о	-11.0115
лыш	-11.0115
▁Бахмут	-11.0117
▁Момбеков	-11.0121
▁литр	-11.0121
▁регионалдык	-11.0122
▁тескери	-11.0122
▁транзиттик	-11.0122
▁2002-	-11.0122
▁2004-	-11.0123
▁кездешет	-11.0123
▁такталбаган	-11.0124
▁боштондук	-11.0125
▁орой	-11.0125
▁демаркациялоо	-11.0125
кет	-11.0125
▁1995-	-11.0126
▁тилке	-11.0127
▁дыйканчылык	-11.0128
▁калкка	-11.0129
▁тушта	-11.013
▁абалында	-11.0133
▁дүкөндөр	-11.0134
▁ортомчу	-11.0135
▁резерв	-11.0135
▁ойлон	-11.0136
▁жүзүндөгү	-11.0138
▁программасына	-11.0139
▁чыгаруучу	-11.0139
▁мекемелерде	-11.014
▁коюуну	-11.0141
▁Төрөбаев	-11.0142
▁өкүлдөр	-11.0146
▁түшүн	-11.0147
▁Памир	-11.0147
▁калгандыктан	-11.0155
▁мектептерди	-11.0158
▁партиялары	-11.016
оммунисттик	-11.0162
▁талапкерди	-11.0163
▁топтоо	-11.0163
▁ашырууну	-11.0163
сиңер	-11.0165
▁козголоң	-11.0167
▁Трампты	-11.0167
▁сүйүү	-11.0169
▁канцлери	-11.017
▁Жапонияда	-11.0173
▁баштадык	-11.0175
▁пикирди	-11.0178
▁экономикасын	-11.018
▁Мама	-11.018
иңиз	-11.0182
▁ую	-11.0184
гандар	-11.0185
Сары	-11.0186
▁ток	-11.0187
▁кадамдар	-11.0188
▁Бири	-11.0188
▁салса	-11.0191
др	-11.0191
▁билдиргени	-11.0192
▁Казакстандык	-11.0192
▁технологияларды	-11.0192
▁талкуулоо	-11.0193
фер	-11.0193
▁чабуулун	-11.0196
▁тыш	-11.0197
▁кажет	-11.0197
▁райондун	-11.0198
▁түйүндөрдө	-11.0201
инди	-11.0202
▁жак	-11.0204
▁баласынын	-11.0204
▁шамалды	-11.0212
▁университет	-11.0215
▁фактор	-11.0215
▁канааттандырган	-11.0216
▁кыйкырып	-11.0216
▁пробация	-11.0216
▁берейин	-11.0216
▁айнек	-11.0216
▁утулуп	-11.0216
▁цензура	-11.0217
жал	-11.0219
▁Ирактын	-11.022
▁грузин	-11.022
▁милдеттенмелери	-11.0221
▁Тамак	-11.0221
▁имаратын	-11.0223
▁айдоочулук	-11.0223
▁Митинг	-11.0223
▁статусу	-11.0224
▁прокурорлор	-11.0224
▁сыртта	-11.0224
▁чы	-11.0224
▁себептерден	-11.0225
▁алакасы	-11.0227
▁ашырып	-11.0228
▁айткандар	-11.0228
▁туристтерди	-11.0228
▁чечилет	-11.0228
▁балет	-11.0229
▁боор	-11.0229
▁тумоо	-11.0229
лий	-11.023
Кыргызстандын	-11.023
▁мунайды	-11.0231
▁бекемдөөгө	-11.0232
▁Бен	-11.0232
▁болор	-11.0233
▁Израилди	-11.0234
▁телеканалдар	-11.0236
▁чыкпаган	-11.0238
95	-11.0239
▁салышы	-11.024
дарда	-11.0243
▁кызыгуу	-11.025
▁түйүнү	-11.0254
▁жүзүн	-11.0255
▁бизден	-11.0256
▁организм	-11.0262
▁чечиш	-11.0262
▁бөлүгүнүн	-11.0262
▁катышканын	-11.0265
▁тилкелери	-11.0267
▁курагында	-11.0267
▁курамасы	-11.0268
▁Бүт	-11.0269
ери	-11.0272
Камбар	-11.0275
▁жаткырылган	-11.0276
▁байлыгы	-11.0276
▁идея	-11.0278
▁Бей	-11.0281
▁барабыз	-11.0285
▁борбордо	-11.0285
▁Фейсбук	-11.0288
лчу	-11.029
▁министрлигинен	-11.0291
▁өзгөртүүнү	-11.0294
паса	-11.0296
▁саясаттын	-11.0298
▁жагында	-11.03
▁Сити	-11.03
▁унааларды	-11.0302
▁Акыры	-11.0303
▁системасында	-11.0305
▁белгилөө	-11.0308
▁аралар	-11.0308
▁чыгымдарды	-11.0311
лерин	-11.0311
▁бейтарап	-11.0311
▁Сатыбалдиев	-11.0311
▁Столтенберг	-11.0311
▁күркүрөйт	-11.0311
▁Николаев	-11.0312
▁алдап	-11.0312
▁таланттуу	-11.0313
▁бөлүү	-11.0313
▁кыскарып	-11.0313
▁Аялдар	-11.0314
▁капа	-11.0314
▁соттордун	-11.0315
▁маданиятын	-11.0316
▁Молдокматов	-11.0317
▁Чу	-11.0319
▁көрөбүз	-11.032
▁кыскача	-11.0321
Кур	-11.0321
▁Yo	-11.0325
бүлөсүнүн	-11.0326
Да	-11.0326
▁айтор	-11.0326
▁Дос	-11.0328
▁төлөйт	-11.033
▁болобуз	-11.0333
▁Ве	-11.0336
▁аскерий	-11.0336
▁түгүл	-11.0338
▁жүргүздү	-11.0338
▁Кел	-11.0339
▁көңүлү	-11.0344
▁Норвегия	-11.0344
▁түрүнө	-11.0346
▁Саид	-11.035
▁аралап	-11.0351
▁дипломат	-11.0353
лген	-11.0354
▁Хар	-11.0356
▁Вашингтонду	-11.0356
▁текшерүүгө	-11.0356
лиши	-11.0358
▁тургундарынын	-11.0362
▁түшүргөн	-11.0364
▁даярбыз	-11.0364
▁басылмасына	-11.0365
▁Жумуш	-11.0366
▁койдум	-11.0367
▁видеолорду	-11.0368
▁мүчөлөрүн	-11.037
X	-11.037
укуктук	-11.0371
ибизде	-11.0379
▁Айзада	-11.038
▁форум	-11.0382
▁жеңиши	-11.0383
класс	-11.0384
▁кору	-11.0384
чатактар	-11.0385
▁заводу	-11.0387
▁жоктугунан	-11.0393
▁Мыйзамды	-11.0395
▁чечилбей	-11.0396
эс	-11.0398
жалган	-11.0398
▁ор	-11.0399
▁Го	-11.0405
▁сейил	-11.0406
▁курамын	-11.0406
▁байкалууда	-11.0407
▁меморандум	-11.0407
▁Статистика	-11.0407
▁канадалык	-11.0407
▁өзгөрткөн	-11.0407
▁жарылып	-11.0408
▁делимитациялоо	-11.0409
▁тастыкталган	-11.041
▁ыктыярдуу	-11.041
▁сиздер	-11.0411
▁кадрларды	-11.0411
▁Харрис	-11.0411
▁камсыздап	-11.0414
▁Айтор	-11.0414
аймана	-11.0414
▁жаныбарлар	-11.0415
▁коюлганы	-11.0415
▁кылынганын	-11.0416
▁бекитүү	-11.0416
рылып	-11.0418
▁жардамдын	-11.0418
▁республикачылар	-11.0418
гем	-11.0419
▁ДССУ	-11.0423
▁сага	-11.0424
▁Чыгыштагы	-11.0425
▁биримдик	-11.0427
▁жикчилдер	-11.0433
▁тергөөдө	-11.0434
▁Сал	-11.0435
▁Үсөнбаев	-11.0439
▁куну	-11.0442
▁мекемелерге	-11.0442
▁провинциясы	-11.0445
▁кабарлар	-11.0446
!",	-11.0453
▁УКМКга	-11.0455
▁архив	-11.0457
▁чыкпайт	-11.0459
▁Пер	-11.046
▁Мэр	-11.0461
▁бекетинде	-11.0461
ибизге	-11.0461
▁курууну	-11.0463
▁маалыматтарда	-11.0465
▁мыйзамын	-11.0465
▁танда	-11.0465
▁оорулуу	-11.0468
▁жабдуу	-11.0469
ияда	-11.0475
▁Аш	-11.0477
▁Австрия	-11.0477
▁институт	-11.0482
▁маалыматтары	-11.0482
▁Аскаровду	-11.0482
▁ийгилик	-11.0486
▁реформалар	-11.0487
▁укканда	-11.0489
▁борборго	-11.0492
▁бириктирүү	-11.0492
юр	-11.0492
▁жайылышын	-11.0492
▁кошул	-11.0495
▁жумушу	-11.0496
▁келечек	-11.0498
▁Италияда	-11.0502
▁1993-	-11.0504
▁Наталья	-11.0504
▁ПЧР	-11.0504
▁даражалуу	-11.0504
▁километр	-11.0504
▁учкай	-11.0504
▁Облустук	-11.0505
▁Жарым	-11.0505
▁көнүп	-11.0505
процессуалдык	-11.0506
▁кыргын	-11.0506
кум	-11.0507
▁көрсөтүлөт	-11.0507
▁жасалат	-11.051
▁кемпир	-11.051
▁айырмасы	-11.0512
▁күйгөн	-11.0512
лөрдө	-11.0515
▁күйөөсүнүн	-11.0517
▁процесстер	-11.0521
▁машыктыруучу	-11.0522
▁ККМ	-11.0522
▁илимпоз	-11.0525
ңыздар	-11.0527
"...	-11.0527
▁талкууда	-11.0528
▁калбайт	-11.0529
иге	-11.0532
▁Венгриянын	-11.0533
▁бекетине	-11.0534
▁базарынын	-11.0538
▁4-5	-11.0539
▁Еврошаркет	-11.054
▁тартипке	-11.0541
чүлөрдүн	-11.0543
улган	-11.0543
лог	-11.0547
▁көзүнө	-11.0548
▁Дүйшөн	-11.0549
▁каналынын	-11.055
▁кетиш	-11.0553
▁акындар	-11.0554
▁түшкөндө	-11.0557
▁варианты	-11.0557
▁казактар	-11.0558
Казакстан	-11.056
аракеттер	-11.0562
▁театрында	-11.0562
Ташта	-11.0562
өсү	-11.0563
▁сизди	-11.0563
▁Жерге	-11.0568
▁платформа	-11.0569
▁Нобел	-11.057
4-	-11.0573
▁мелдеш	-11.0573
▁бузулушу	-11.0574
▁кармоого	-11.0583
▁жолугушуулар	-11.059
▁жаранын	-11.0591
бийликти	-11.0592
▁кайгы	-11.0593
▁тынчы	-11.0593
▁уланды	-11.0597
J	-11.0597
▁койбой	-11.0599
атуучу	-11.0602
▁компенсация	-11.0602
▁оппозиционер	-11.0602
▁ооздуктоо	-11.0602
Өгүз	-11.0602
▁1989-	-11.0602
▁тете	-11.0602
мет	-11.0603
▁алуудан	-11.0603
▁тектүү	-11.0604
▁ком	-11.0605
▁тийди	-11.0606
▁жарыяла	-11.0611
▁жеткире	-11.0611
▁ийгиликке	-11.0614
▁Кам	-11.0616
▁үрөй	-11.0617
▁даттануу	-11.062
▁ЕАЭБдин	-11.062
▁макулдугун	-11.0622
▁ишкерлик	-11.0623
▁ырлары	-11.0623
▁Дар	-11.0624
▁Бюджет	-11.0626
аф	-11.0627
▁отставка	-11.0627
ченко	-11.0629
▁турмушта	-11.063
▁ажылык	-11.0633
▁мүнөттө	-11.0637
▁Аким	-11.0638
▁трагедия	-11.0639
▁5%	-11.0643
▁турганына	-11.0647
▁чыктым	-11.0651
▁материалдарын	-11.0653
▁жыйынтыктары	-11.0653
▁космос	-11.0654
▁майдын	-11.0656
▁дүкөн	-11.0656
ЕАЭБ	-11.0665
▁өкүмүн	-11.067
▁зомбулуктун	-11.067
▁кыздарды	-11.067
декабрь	-11.067
▁текст	-11.0672
▁өзүмдү	-11.0673
▁тамга	-11.0678
▁журналистика	-11.0678
▁күрөө	-11.0678
атайын	-11.0679
▁чагы	-11.0679
▁бергенден	-11.0681
▁бергенге	-11.0683
▁чак	-11.0686
▁адилетсиз	-11.0688
▁босого	-11.0689
▁муфтият	-11.0689
▁бирөөнү	-11.0691
бөйт	-11.0691
алуу	-11.0692
▁турнир	-11.0697
▁окуучулардын	-11.0698
▁потенциалы	-11.0699
▁кийлигишүү	-11.0699
▁Сүйүн	-11.0701
▁ТАСС	-11.0701
▁Эстония	-11.0701
▁түйшүгү	-11.0701
▁өнөкөт	-11.0701
▁мөмө	-11.0701
▁узатуу	-11.0701
▁каада	-11.0701
▁тездетүү	-11.0701
▁текшерилип	-11.0701
▁чечилиши	-11.0701
▁жоюлуп	-11.0702
▁Аскат	-11.0702
▁ассамблеясы	-11.0702
▁дайындалып	-11.0702
▁Тагыраагы	-11.0703
▁Айдарбеков	-11.0703
▁түрмө	-11.0704
▁эскерип	-11.0704
▁1998-	-11.0705
▁экспертизанын	-11.0705
токмокко	-11.0705
▁Каримова	-11.0705
үбүздү	-11.0705
▁кандидаты	-11.0706
▁академиялык	-11.0706
▁мугалимди	-11.0707
▁кездери	-11.0709
▁туугандарынын	-11.071
бөгөнү	-11.0711
▁наам	-11.0712
лашкан	-11.0712
▁каралбай	-11.0712
улуп	-11.0712
▁байлап	-11.0714
▁саммитине	-11.0716
▁жиберүү	-11.072
▁саякат	-11.072
▁Кашкар	-11.072
▁адат	-11.0721
▁маянасы	-11.0721
йыр	-11.0722
▁шар	-11.0723
▁улай	-11.073
▁88	-11.0732
▁тапкандардын	-11.0732
баганы	-11.0732
▁Элчилик	-11.0732
▁окуясын	-11.0732
▁коет	-11.0733
тел	-11.0735
▁июлда	-11.0736
▁Литва	-11.0737
▁облустун	-11.0742
▁Назаров	-11.0745
▁турист	-11.0748
▁Нар	-11.075
▁керемет	-11.0751
▁аларда	-11.0757
лак	-11.076
▁өлкөлөрдү	-11.0761
▁өлгөндөрдү	-11.0762
▁мина	-11.0762
ларынан	-11.0763
Борбор	-11.0764
▁Маселе	-11.0764
▁ыры	-11.0764
▁ша	-11.0769
▁көбөйө	-11.0769
▁эп	-11.077
▁Талантбек	-11.0771
▁башкаларды	-11.0772
улла	-11.0772
▁капитал	-11.0772
▁Аймакта	-11.0776
▁тилиндеги	-11.0781
▁баштай	-11.0784
▁уй	-11.0788
▁чабуулдар	-11.0789
рүп	-11.0789
▁факультетин	-11.0789
ула	-11.079
мы	-11.079
▁жүргүнчүлөр	-11.0792
▁шейшембиде	-11.0795
▁ташууга	-11.0796
▁мамлекетинин	-11.0798
▁бүтүргөн	-11.0799
▁1200	-11.08
▁этабы	-11.08
▁Урмат	-11.0801
▁карындашы	-11.0801
ымда	-11.0802
▁жанданды	-11.0802
▁эфирде	-11.0803
Альфа	-11.0806
ографиялык	-11.0807
рдиктүү	-11.0807
▁оозун	-11.0807
▁таңында	-11.0808
чук	-11.0809
▁фактыларды	-11.0811
▁БШКга	-11.0813
▁жиберилген	-11.0815
▁Төрө	-11.0817
▁өлгөнүн	-11.0817
йм	-11.0823
▁Жамгырчиев	-11.0823
▁Кир	-11.0828
өм	-11.083
▁миңи	-11.0833
ант	-11.0834
▁энергиясынын	-11.0835
▁салуусуна	-11.084
▁авиа	-11.0842
▁эркиндигинин	-11.0842
▁чапкан	-11.0844
▁алышыбыз	-11.0844
▁чегине	-11.0844
▁топторго	-11.0844
▁Нуржан	-11.0845
▁тукум	-11.0849
▁Жогоруда	-11.0855
▁баасына	-11.0857
▁Эс	-11.0858
ing	-11.0861
▁округдан	-11.0862
▁түзүлгөнүн	-11.0865
H	-11.0866
▁Хи	-11.0867
мамлекеттик	-11.0867
▁сабактар	-11.0872
Ме	-11.0873
▁коргоочулардын	-11.0874
▁сата	-11.0876
▁жигиттер	-11.0877
▁ушундан	-11.088
▁чыктык	-11.0881
▁сайтынын	-11.0883
▁жолугушууларды	-11.0883
изация	-11.0886
▁Ү	-11.0896
▁өсүү	-11.0896
▁оюндар	-11.0898
гусу	-11.0899
▁үстөк	-11.09
▁кабылгандар	-11.09
кут	-11.0901
щее	-11.0902
▁иликтенип	-11.0902
▁окутуп	-11.0903
▁өчүрүп	-11.0903
▁таржымалы	-11.0903
▁билишет	-11.0903
▁санариптик	-11.0904
▁мүнөзү	-11.0904
ed	-11.0904
▁Айгүл	-11.0905
▁узундугу	-11.0905
▁байкалат	-11.0906
▁мыкаачылык	-11.0908
▁аныкталат	-11.0909
▁Рита	-11.091
▁жайын	-11.0911
▁тыгын	-11.0917
▁акцияны	-11.0919
▁башкаруунун	-11.0922
▁Ад	-11.0923
▁логистикалык	-11.0924
▁Электр	-11.0927
▁Абдан	-11.0928
▁ашырган	-11.0928
ru	-11.093
▁турбайбы	-11.093
▁өздүк	-11.0932
▁кемеси	-11.0933
▁аткарылышы	-11.0934
түзөө	-11.0936
айым	-11.0938
пак	-11.0938
▁калка	-11.0938
▁миссия	-11.0939
▁мыйзамдык	-11.0939
▁суммада	-11.094
▁метрден	-11.094
▁учакта	-11.094
▁алынарын	-11.0944
▁Бе	-11.0945
▁табият	-11.0951
▁Рахмонду	-11.0953
▁пикет	-11.0954
▁туруктуулукту	-11.0957
▁түбөлүк	-11.0961
бөлүгү	-11.0961
имов	-11.0962
▁элдер	-11.0962
36	-11.0964
▁ЖМКлар	-11.0965
▁компаниясын	-11.0968
▁ойлор	-11.0968
Азия	-11.0971
▁Алдыда	-11.0973
▁кызматкерин	-11.0973
▁дипломаты	-11.0976
▁өзүмдүн	-11.0979
▁кампа	-11.0981
▁салынганын	-11.0983
▁маселелердин	-11.0985
▁Дүйнөнү	-11.0986
▁Тер	-11.0987
▁сунуштарын	-11.0987
▁Ти	-11.0988
▁Пе	-11.0989
▁өт	-11.0992
бор	-11.0997
▁купуя	-11.0997
▁доктор	-11.0998
▁токтой	-11.0998
▁эпидемия	-11.0999
▁Атасы	-11.1
▁Кожо	-11.1002
▁мээ	-11.1003
▁уникалдуу	-11.1004
▁дегеле	-11.1004
▁үйрөнүп	-11.1005
▁көбөйтүп	-11.1005
▁жетишилген	-11.1005
▁ассоциациясы	-11.1006
▁Диний	-11.1006
▁кооптонуп	-11.1006
▁чакырабыз	-11.1007
▁уюштурулду	-11.1007
▁Кореяда	-11.1009
▁караңгы	-11.1009
▁ийне	-11.1009
▁ыйгарылган	-11.1012
▁Муратбек	-11.1012
▁сени	-11.1016
7-	-11.1017
▁Пол	-11.1017
▁чыгышында	-11.1018
▁Human	-11.1021
мөк	-11.1029
▁жемкорлукка	-11.103
▁Мухтар	-11.103
▁Абдылдаев	-11.103
▁теңге	-11.1032
▁сактагычынын	-11.1032
▁бо	-11.1032
▁ачка	-11.1034
юн	-11.1034
▁жары	-11.1034
▁жаны	-11.1034
▁чыгармаларды	-11.1034
ыраак	-11.1035
▁аткарылбай	-11.1038
▁акылга	-11.1043
▁стадион	-11.1044
▁ча	-11.1044
▁Документте	-11.1045
▁Жи	-11.1046
▁катты	-11.1047
▁байлык	-11.1048
▁келем	-11.1049
▁орундарын	-11.1052
▁Цзинпин	-11.1052
▁аянтча	-11.1053
▁адамы	-11.1054
▁бизнести	-11.1058
▁Алтай	-11.1059
дашты	-11.106
▁кабары	-11.1061
▁азыктарын	-11.1063
▁Вашингтондо	-11.1064
▁Сербия	-11.1066
тоого	-11.1069
▁депутаттарга	-11.107
▁Израилде	-11.107
W	-11.1071
Кызыл	-11.1071
▁жоочулары	-11.1072
▁таанышкан	-11.1073
▁шаарларына	-11.1082
утур	-11.1083
ави	-11.1084
▁пропаганда	-11.1088
ог	-11.1089
▁тергөөчүлөр	-11.109
▁этап	-11.109
▁палестин	-11.1091
▁беттеш	-11.1091
▁бирикмеси	-11.1091
шү	-11.1094
▁бергенбиз	-11.1095
▁кааласа	-11.1096
гула	-11.1098
▁куран	-11.1098
▁жазалоо	-11.11
▁доордо	-11.1101
▁чакыр	-11.1102
бел	-11.1102
▁айрымдар	-11.1104
▁Кремл	-11.1105
▁маселелерге	-11.1106
▁окуясынан	-11.1107
▁Шыкмаматов	-11.1107
▁психикалык	-11.1107
▁Атырау	-11.1107
▁Ашраф	-11.1107
▁оолак	-11.1108
▁кетирип	-11.1108
▁Маматалиев	-11.1108
▁автоматтык	-11.1108
▁бириктирген	-11.1109
▁Бейшенбек	-11.1109
▁Ливанды	-11.111
▁такталып	-11.111
▁Илдет	-11.1111
▁AFP	-11.1112
▁1997-	-11.1113
июндан	-11.1113
▁Окуу	-11.1114
▁тайпа	-11.1114
▁идеологиялык	-11.1116
▁биримдигинин	-11.1118
▁Зе	-11.1123
▁чакырымга	-11.1125
▁кеңешинде	-11.1127
▁башташкан	-11.1129
▁өлкөсүнүн	-11.113
▁дарыя	-11.1138
▁муфтий	-11.1138
▁сатык	-11.114
▁Биринчиси	-11.1142
▁сапарында	-11.1143
▁кайтарууга	-11.1144
▁чабуулдарын	-11.1146
▁байланышка	-11.1147
▁партиясына	-11.1149
ье	-11.115
▁карандысыздыгын	-11.1151
▁Жаратылыш	-11.1151
▁Мигранттарды	-11.1153
▁калыш	-11.1158
▁чабал	-11.116
Менин	-11.1162
▁койгула	-11.1166
▁Ниязбеков	-11.1167
▁оокат	-11.117
▁конушунда	-11.117
Америка	-11.1175
Баткен	-11.1176
демократиялык	-11.1178
лоп	-11.1178
▁даярдыгы	-11.1182
чөйрөнү	-11.1183
▁кызматташ	-11.1183
айын	-11.1183
▁божомолдор	-11.1183
▁Англия	-11.1185
is	-11.1186
▁кетирүү	-11.1188
▁альянс	-11.119
▁Жолугушуу	-11.119
лашып	-11.1191
▁айткандарын	-11.1193
▁Жорж	-11.1197
өлкө	-11.1197
▁жолугушууну	-11.1198
▁макулдугу	-11.1198
▁Дем	-11.1198
▁эмгегин	-11.12
▁рекордду	-11.1202
▁сахна	-11.1204
▁Үйдө	-11.1205
▁Абдил	-11.1208
▁Анталия	-11.1212
▁Дэвид	-11.1212
▁көмүлгөн	-11.1212
▁хижаб	-11.1212
▁импичмент	-11.1212
▁кыйнап	-11.1212
▁эгин	-11.1212
▁капиталды	-11.1212
▁багуу	-11.1212
▁бекитип	-11.1212
▁токтолуп	-11.1212
▁абалдын	-11.1212
▁Оренбург	-11.1214
▁Адамдар	-11.1214
▁жаралат	-11.1215
▁92	-11.1217
▁иштешет	-11.1217
▁жашоодо	-11.1217
▁чагылдыруу	-11.1219
▁отура	-11.122
бейт	-11.122
▁жарандарыбыз	-11.1221
▁жазуучулар	-11.1222
▁диагноз	-11.1223
▁автоунаасы	-11.1227
Кулжа	-11.1228
▁эстеп	-11.123
▁өрттү	-11.1232
▁союз	-11.1237
▁баргандар	-11.1241
▁оо	-11.1243
▁мүнөз	-11.1245
▁иштебейт	-11.1246
▁коо	-11.1247
▁натыйжада	-11.1247
▁сүйлөшүүдө	-11.1253
▁Мирзиёевди	-11.1254
аяк	-11.1255
▁атка	-11.1256
-16	-11.1256
вин	-11.1257
▁маанайда	-11.1259
Кан	-11.1262
иясы	-11.1265
▁Сегизбаев	-11.1266
▁Ол	-11.1268
▁X	-11.1269
▁роман	-11.1269
түлүктүн	-11.127
ону	-11.127
▁киргизе	-11.1271
▁түштөн	-11.1272
▁кызматтарынын	-11.1272
▁кардар	-11.1274
▁сулуу	-11.1276
▁тилинин	-11.1276
▁ташы	-11.1277
▁тилкелерин	-11.1279
Грузин	-11.128
▁Бирөө	-11.1282
▁жеңилдетүү	-11.1283
▁очогу	-11.1288
▁коммуникациялар	-11.1292
▁адистерди	-11.1301
▁барууда	-11.1302
▁порталы	-11.1303
▁Орозбек	-11.1304
▁берсек	-11.1304
чүлүк	-11.1306
▁аянтына	-11.1307
бүбү	-11.1308
▁жазда	-11.1308
▁журналы	-11.1315
▁саноо	-11.1316
Авив	-11.1317
▁Цзиньпин	-11.1317
▁пакистандык	-11.1317
▁Караганды	-11.1317
▁Илхам	-11.1317
▁күнөөлөп	-11.1317
▁Азык	-11.1318
▁азайтып	-11.1318
▁кенже	-11.1319
▁кайтарылды	-11.1319
▁окуясында	-11.132
▁ордунда	-11.1321
▁аткылап	-11.1321
ra	-11.1322
▁жүрөбүз	-11.1322
▁койгондо	-11.1323
▁билбейбиз	-11.1324
▁Кыргызгидромет	-11.1324
▁геноцид	-11.1329
▁YouTube	-11.1329
▁Абактагы	-11.1329
тил	-11.133
Мекенчил	-11.133
раган	-11.1331
▁тап	-11.1331
▁Бал	-11.1332
иф	-11.1334
Жол	-11.1335
▁алыста	-11.1336
▁миграцияга	-11.1336
▁эркиндикти	-11.1337
лорун	-11.1338
аракет	-11.1339
торлор	-11.1341
▁төлөбөй	-11.1342
▁палестиналык	-11.1342
▁оңдоого	-11.1344
▁кабылгандардын	-11.1345
▁жеткирүүгө	-11.1348
▁булуң	-11.1349
▁тармактары	-11.1353
▁Өзүм	-11.1353
▁көтөр	-11.1355
▁тааныштары	-11.1358
▁энергияны	-11.136
январдан	-11.1364
▁Алмамбет	-11.1366
▁кылмышкер	-11.137
▁сунушуна	-11.1372
▁арасынын	-11.1372
▁Ток	-11.1376
▁татар	-11.1378
▁Шайлоону	-11.1379
▁демократтар	-11.138
бүлөсүн	-11.138
▁сүрөтчү	-11.1381
▁байланыштары	-11.1386
Кемпир	-11.1387
мб	-11.1387
▁сенатор	-11.1393
жемиш	-11.1393
▁Шар	-11.1395
▁кемелер	-11.1398
▁коррупциянын	-11.1399
төө	-11.1401
▁облуста	-11.1404
▁текшерүүлөр	-11.1404
▁дүйшөмбүдө	-11.1409
еев	-11.1413
▁кирбей	-11.1413
▁курулушуна	-11.1413
▁масштабда	-11.1415
▁калам	-11.1415
▁тенденция	-11.1416
▁жетекчилердин	-11.1417
иддин	-11.1418
▁тараптарды	-11.1418
▁солгун	-11.1422
▁Вице	-11.1423
'	-11.1423
▁кечигип	-11.1423
▁баюу	-11.1424
▁кечирип	-11.1424
▁унутуп	-11.1424
▁комплекстүү	-11.1424
▁бокс	-11.1424
стоя	-11.1426
▁тоскоолдуксуз	-11.1426
▁адилет	-11.1426
▁капыс	-11.1428
▁сыйлыгы	-11.1431
▁криминалдык	-11.1432
▁эстелиги	-11.1434
бүлөдөгү	-11.1435
▁карашын	-11.1435
▁этип	-11.1436
▁конгон	-11.1437
▁бербейбиз	-11.1438
▁автомат	-11.1438
▁бурду	-11.144
▁болочок	-11.144
▁Мамлекеттин	-11.1441
▁таңга	-11.1441
▁согушкерлери	-11.1446
▁санкцияларга	-11.1447
▁мамлекеттерден	-11.1448
▁сактагычында	-11.1458
▁190	-11.146
▁кодекси	-11.1462
38	-11.1466
▁топторду	-11.1468
▁чыгабыз	-11.147
▁жада	-11.1471
▁чуу	-11.1473
▁жүрүшкөн	-11.1476
▁Мыйзамга	-11.1477
▁Атам	-11.1477
▁пандемиядан	-11.148
▁Балдардын	-11.148
▁көргөнүн	-11.1482
леген	-11.1482
▁символу	-11.1482
▁тапкандар	-11.1482
▁позицияны	-11.1485
▁алмак	-11.1486
ишке	-11.1489
▁Коом	-11.149
▁тутумун	-11.149
Торугарт	-11.1494
январь	-11.1494
▁комиссары	-11.1495
үмдө	-11.1496
▁цех	-11.15
ердин	-11.1503
▁финалды	-11.1503
▁өңүттө	-11.1504
чоң	-11.1504
беренесине	-11.1504
▁акылдуу	-11.1507
▁Каримов	-11.1513
▁арыздар	-11.1514
▁тоолордо	-11.1517
▁качкындарды	-11.1518
▁жи	-11.1519
▁му	-11.1521
рия	-11.1521
▁актер	-11.1521
лышы	-11.1526
▁Хасан	-11.1527
Спутник	-11.1528
▁Кул	-11.153
▁миңдейи	-11.153
▁LIVE	-11.1531
▁Жумгал	-11.1531
▁индиялык	-11.1531
▁көрүнүктүү	-11.1531
▁Өндүрүш	-11.1531
▁кетейин	-11.1531
▁байкаган	-11.1531
▁коллеж	-11.1531
▁Тартип	-11.1531
▁көбөйүүдө	-11.1531
▁тезирээк	-11.1532
▁үлүш	-11.1533
▁Temirov	-11.1534
▁айылынан	-11.1536
▁кызматташып	-11.1536
▁аэропортунун	-11.1536
▁медаль	-11.1537
▁Көбү	-11.1538
▁1500	-11.1539
▁ишарат	-11.154
▁чыгарыш	-11.154
▁c	-11.1541
▁бакты	-11.1542
▁талаада	-11.1543
▁ойду	-11.1545
▁алынгандан	-11.1545
▁жакшыртууга	-11.1546
▁тапшыр	-11.1546
▁окуйт	-11.1546
▁жашоочулар	-11.1549
▁өндүрүштүк	-11.1549
▁Тергөөнү	-11.155
▁ажыраган	-11.155
▁ачылыш	-11.1553
▁салгылашуу	-11.1554
овка	-11.1555
▁оңдо	-11.1557
▁шайла	-11.1558
▁рак	-11.1561
▁улантат	-11.1561
▁Катарда	-11.1561
▁мелдеште	-11.1561
▁(2	-11.1562
▁келечегин	-11.1563
▁иштеш	-11.1563
▁салын	-11.1569
▁Зеленскийди	-11.1571
үндөй	-11.1573
ov	-11.1573
▁Молдованын	-11.1574
▁машинелерди	-11.1576
v	-11.1577
▁экенбиз	-11.1578
▁долларын	-11.1578
▁таштоо	-11.1579
Түрк	-11.158
▁тизмеде	-11.1584
▁ууру	-11.1585
▁күндү	-11.1588
▁тактады	-11.1591
▁анализи	-11.1592
абад	-11.1596
Социал	-11.16
▁каны	-11.16
▁компьютер	-11.1604
▁учактарды	-11.1604
le	-11.1607
▁тер	-11.1607
▁жабдыктар	-11.1608
▁түзүүдө	-11.1608
▁көтөрүлүшү	-11.1608
▁сактагычы	-11.1609
-2	-11.161
▁энелер	-11.1612
▁ырайымсыз	-11.1612
▁Шойгу	-11.1617
энелердин	-11.1618
▁улуттар	-11.1622
▁Бах	-11.1623
шкон	-11.1623
▁түрлөрүн	-11.1623
▁Про	-11.1624
▁пункт	-11.1625
▁сүрөттө	-11.1632
▁ыкмалар	-11.1633
▁колдо	-11.1635
▁баалай	-11.1635
▁өкүн	-11.1638
▁ийгиликтер	-11.1639
▁Новиков	-11.1639
▁оозеки	-11.1639
▁кесилди	-11.1639
▁баллистикалык	-11.1639
▁которулду	-11.1639
▁Амангелдиев	-11.164
▁тагылып	-11.164
▁көмөгү	-11.164
▁тынчсызданып	-11.1641
▁отурабыз	-11.1644
▁Кыскасы	-11.1645
▁Кары	-11.1647
▁даттанган	-11.1648
▁экспорттоого	-11.1648
▁кошулат	-11.165
▁Амир	-11.1651
▁аныктайт	-11.1653
▁сактай	-11.1656
▁Фарид	-11.1657
▁дипломаттар	-11.1657
▁Бардыгы	-11.1659
▁Сиздер	-11.1659
сем	-11.1661
▁облусунан	-11.1661
▁таянуу	-11.1662
▁ачылышына	-11.1663
▁Сотко	-11.1664
▁175	-11.1664
дил	-11.1667
▁кабарчылары	-11.1667
▁Америкада	-11.1671
▁тасмада	-11.1671
▁чыңалууну	-11.1672
▁аскерин	-11.1672
▁тургундарына	-11.1674
▁170	-11.1674
▁дозасын	-11.1674
▁ыктымалдыгы	-11.1675
▁көчөлөрү	-11.1676
▁катмар	-11.1679
сип	-11.168
▁жүрчү	-11.1681
▁Анна	-11.1681
стра	-11.1688
▁планды	-11.1689
▁толкундоолор	-11.1689
▁тургундарга	-11.169
▁кеңсе	-11.1691
ская	-11.1691
▁жаштарга	-11.1692
▁карантинде	-11.1692
▁чалды	-11.1695
▁кафе	-11.1698
▁кайрылганын	-11.1699
▁талапты	-11.17
▁бергендер	-11.17
▁басуу	-11.1702
▁китепти	-11.1706
лю	-11.1707
▁эжеси	-11.1708
▁падыша	-11.1708
▁колдогондор	-11.1708
жаңы	-11.1713
▁Талибан	-11.1716
сай	-11.1717
▁кече	-11.1721
▁санаган	-11.1721
▁бөлмөдө	-11.1721
▁Эне	-11.1724
▁Элчи	-11.1726
рав	-11.1728
агы	-11.1728
▁такта	-11.1731
▁орундар	-11.1734
▁Кубат	-11.1734
▁комуз	-11.1735
▁демонстрация	-11.1735
батышында	-11.1737
лүктү	-11.1737
▁саясатынын	-11.1738
▁жүгүртүүсү	-11.1738
ңызды	-11.174
үлүп	-11.1741
▁жайылышы	-11.1742
▁уча	-11.1747
▁жазганына	-11.1747
▁көрбөгөн	-11.1748
▁Нурбаев	-11.1749
▁Мухаммад	-11.1749
▁дубандарында	-11.1749
▁маалымдашынча	-11.1749
▁марафон	-11.1749
▁резонанс	-11.1749
▁Рыскелди	-11.1749
▁кыйгап	-11.1749
▁театры	-11.1749
▁болбоду	-11.1749
▁билиши	-11.1749
▁өзгөртө	-11.175
▁убара	-11.175
▁дешкен	-11.1751
▁кетишет	-11.1751
бөсө	-11.1753
▁коммунисттик	-11.1754
▁мектебинин	-11.1754
▁сыноодон	-11.1754
▁жоопкерчиликтүү	-11.1754
▁эксперттик	-11.1755
▁жактырды	-11.1755
▁баратып	-11.1755
▁Илим	-11.1755
▁дыкат	-11.1755
▁Images	-11.1756
▁Тар	-11.1757
▁адабияты	-11.1758
▁учурады	-11.1759
министрлик	-11.176
▁Шаршенбеков	-11.176
▁урганын	-11.1762
▁сүйгөн	-11.1763
▁жүрүшүнө	-11.1763
▁долбоордо	-11.1763
▁демократияга	-11.1764
ели	-11.1766
▁кадамы	-11.1767
▁Чыгышта	-11.1768
▁токтоду	-11.1769
▁талаптарга	-11.1774
назаров	-11.1776
▁келишимдерге	-11.1776
▁өлчөмү	-11.1779
▁Шектүү	-11.1779
▁Өзүн	-11.1779
еси	-11.1783
▁билсе	-11.1784
▁жетекчилерине	-11.1786
акырындык	-11.179
▁издөөгө	-11.1791
▁Гонконг	-11.1792
▁аралыкка	-11.1793
▁нааразычылык	-11.1795
▁килограммга	-11.1795
▁бийликтер	-11.1795
▁изилдөөгө	-11.1796
▁кошту	-11.1799
▁регламент	-11.18
шкен	-11.18
▁курду	-11.1801
чул	-11.1803
▁жоокерлерди	-11.1804
▁айткандары	-11.1804
▁туз	-11.1808
▁көчүрүү	-11.1809
▁сакталышы	-11.181
ol	-11.181
▁кеңештер	-11.1811
▁ач	-11.1811
той	-11.1813
▁көргөзмөсү	-11.1813
▁айымдар	-11.1815
▁жерлерин	-11.1817
▁азиялык	-11.182
Кылмыш	-11.1821
▁тарыхты	-11.1822
▁Алсак	-11.1823
▁майы	-11.1824
▁жүзүнө	-11.1825
▁өзүң	-11.1826
▁бузгандар	-11.1828
▁ооругандарды	-11.1833
▁жабдууларды	-11.1835
▁талапкерлерди	-11.1835
▁Сел	-11.1835
▁Акыл	-11.1842
▁Партияны	-11.1843
рди	-11.1844
▁сары	-11.1845
▁жеткирүүнү	-11.1846
▁алтоо	-11.1848
8-	-11.1859
▁фондунан	-11.186
▁CNN	-11.186
▁дурус	-11.186
▁каникул	-11.186
▁күтүлөт	-11.186
▁Жоламан	-11.1861
▁Юлия	-11.1861
▁өткөрүштү	-11.1861
▁көрсөтүлдү	-11.1861
Элвира	-11.1861
▁Валери	-11.1861
▁ЕБ	-11.1862
▁андыктан	-11.1862
аштапкы	-11.1863
дашы	-11.1863
▁изи	-11.1867
▁20-30	-11.1867
▁ырдап	-11.1869
▁кайрылуусун	-11.187
▁күнкү	-11.187
▁чаң	-11.187
▁эткен	-11.1871
▁амалдары	-11.1871
▁буюмдарды	-11.1872
▁Сирияга	-11.1873
▁мекендик	-11.1873
▁Жаныш	-11.1873
▁кызматкерди	-11.1874
токтоосуз	-11.1875
▁фестивалы	-11.1877
▁отургандар	-11.1879
▁баштоого	-11.1883
▁Нааразылык	-11.1883
▁чектөөнү	-11.1885
▁жүздөй	-11.1887
▁бузул	-11.1888
▁Шаарды	-11.1888
▁чабуулдан	-11.1888
маз	-11.189
▁бакчага	-11.1892
тест	-11.1894
▁келгенбиз	-11.1896
▁депутаттарды	-11.1897
▁окумуштуулары	-11.1899
▁шахта	-11.1899
▁аласыз	-11.1902
▁мелдештер	-11.1902
▁U	-11.1904
▁эти	-11.1905
▁90-	-11.1907
▁пикирлерин	-11.1908
▁кыйналган	-11.1911
▁Атазов	-11.1912
Твиттер	-11.1916
▁чеч	-11.1918
▁максатына	-11.1919
▁кымбатчылык	-11.192
▁мекен	-11.1921
▁иликтөөлөр	-11.1921
▁күрөшө	-11.1926
▁киргени	-11.1926
▁улантууга	-11.1927
▁тартыларын	-11.1929
▁кызматташтыгын	-11.1933
▁баштагандан	-11.1934
маданий	-11.1936
Москва	-11.1937
шет	-11.1937
▁жибер	-11.1938
▁Партия	-11.194
ганда	-11.1941
▁сынды	-11.1941
▁Трампка	-11.1943
▁карашты	-11.1945
▁Арал	-11.1946
▁г	-11.1948
Аль	-11.1952
▁далилдерди	-11.1953
▁Боршайком	-11.1955
июлдагы	-11.1958
ur	-11.196
▁уюштурууну	-11.1961
▁акт	-11.1962
Ке	-11.1963
▁Мигранттар	-11.1966
▁Маалыматтар	-11.1966
▁сүрөттөрү	-11.1968
▁транзит	-11.1972
▁көрсөтүшү	-11.1972
▁полициясынын	-11.1973
▁Бельгия	-11.1973
▁Суваналиев	-11.1973
▁Түлөбаев	-11.1973
▁куттуктады	-11.1973
▁соккон	-11.1973
▁чектелип	-11.1973
▁планета	-11.1973
▁оболу	-11.1973
▁Боррел	-11.1973
▁сыпаттап	-11.1973
▁чектеп	-11.1973
▁килем	-11.1973
▁жеткирилип	-11.1973
esty	-11.1973
▁бүтүрүп	-11.1973
▁чети	-11.1974
▁британиялык	-11.1974
▁дипломаттары	-11.1974
▁мусулмандарды	-11.1975
▁созулат	-11.1975
▁Алтынай	-11.1975
▁Getty	-11.1976
▁маанисин	-11.1977
▁санкциялардын	-11.1978
Ми	-11.1978
▁ажырап	-11.1978
▁союзунун	-11.1979
▁жоюп	-11.198
▁инфекцияны	-11.1981
▁аке	-11.1981
▁билдирүүнү	-11.1983
Өзөн	-11.1984
▁өткөрбөй	-11.1984
▁кабарчы	-11.1984
Дөбө	-11.1985
▁Бизнес	-11.1986
▁канаттуу	-11.199
дашып	-11.1992
▁башташы	-11.1992
▁фирмасы	-11.1993
▁Кеңешбек	-11.1993
▁идеология	-11.1994
▁келишине	-11.1998
▁демилгелер	-11.1999
▁силерге	-11.2
▁делегат	-11.2
▁кетем	-11.2001
▁алдырып	-11.2003
тация	-11.2004
▁Коомчулукта	-11.2005
ыя	-11.2005
▁баштадым	-11.201
чумун	-11.2011
▁Көр	-11.2011
▁кайрылгандар	-11.2012
▁комплекс	-11.2013
▁кайрылууга	-11.2017
▁сыймыктан	-11.2018
▁териштирүүнү	-11.2021
▁илдетинен	-11.2022
▁сум	-11.2028
▁Канаданын	-11.203
▁мейманкана	-11.2032
▁атаандаштары	-11.2032
▁чакырылышы	-11.2033
▁авария	-11.2033
▁элдердин	-11.2033
▁губернатор	-11.2033
▁четинен	-11.2035
ашка	-11.2037
55	-11.2038
▁урмат	-11.204
пикир	-11.2042
▁комитетте	-11.2043
▁бизнеске	-11.2048
Адилет	-11.2049
кеңеш	-11.205
▁жогорулат	-11.2054
өтүүчү	-11.2056
▁кызыкчылыктар	-11.2057
▁үйдөгү	-11.206
▁талапка	-11.2061
▁бурбай	-11.2064
▁шайлоодогу	-11.2065
▁Шам	-11.2065
▁чарбалык	-11.2065
▁базасында	-11.2068
▁Марс	-11.2069
▁кеттим	-11.207
▁материалдары	-11.207
▁айтканына	-11.2077
▁кылым	-11.2078
▁4,5	-11.2079
▁өчүр	-11.208
▁директорлор	-11.208
▁Дума	-11.2081
▁кайрыла	-11.2082
▁агенттер	-11.2084
▁механизми	-11.2084
▁жатышпайбы	-11.2086
▁менимче	-11.2086
▁системага	-11.2087
▁Орозайым	-11.2087
▁Павел	-11.2087
▁бөлүшкөн	-11.2087
▁пландалууда	-11.2087
▁Жылуулук	-11.2087
▁командалары	-11.2087
▁Тимур	-11.2087
иц	-11.2088
▁Уланбек	-11.2088
▁Эски	-11.2089
▁каптады	-11.2089
▁элементтер	-11.2089
▁ШКУ	-11.2093
▁өсөт	-11.2094
ямин	-11.2094
▁Саймаитинин	-11.2094
аты	-11.2094
▁тажрыйбалуу	-11.2094
▁биримдигине	-11.2095
▁газды	-11.2096
▁куу	-11.2096
▁Өзүнүн	-11.2097
▁кордук	-11.2097
▁стратегия	-11.2098
▁кырсыкты	-11.21
лашы	-11.21
Султанда	-11.2101
▁жарыялай	-11.2102
9-	-11.2104
▁таяк	-11.2107
▁чекке	-11.2108
▁Акматбек	-11.211
▁кезге	-11.2113
▁бүтүндүгүн	-11.2114
▁Арстанбек	-11.2114
▁жеңилдиктер	-11.2115
▁Абдуллаев	-11.2116
▁жетиш	-11.2117
▁атына	-11.2119
▁четтетүү	-11.2119
▁ратификация	-11.212
ir	-11.212
ив	-11.212
штыруу	-11.2121
▁жылдыгын	-11.2121
▁дубал	-11.2122
▁кыймылын	-11.2124
▁аппаратынын	-11.2126
ңды	-11.2126
▁абага	-11.2127
▁дарыны	-11.2128
расында	-11.2129
▁96	-11.2132
пол	-11.2133
▁мүмкүнбү	-11.2134
▁аким	-11.2135
▁социал	-11.2136
▁унаасы	-11.2136
▁ташта	-11.2136
▁кыздарга	-11.214
▁чакырылып	-11.214
тыкты	-11.2143
▁кадамдарга	-11.2145
▁калмак	-11.2148
▁дебат	-11.2151
▁убакты	-11.2151
▁кесе	-11.2151
▁аныктоого	-11.2151
▁өтөрү	-11.2153
▁Ибрагим	-11.2153
▁армияга	-11.2156
Бийлик	-11.2156
▁кызыкчылык	-11.2162
▁диаспора	-11.2165
▁базасын	-11.2166
▁ыкмасын	-11.2167
▁күрөшүүдө	-11.2167
күнөө	-11.2168
▁Мариупол	-11.2168
ткөн	-11.2169
▁тирешүү	-11.2174
▁чечимдерин	-11.2175
▁жашоосуна	-11.2176
талып	-11.2181
▁аймактары	-11.2184
▁сенин	-11.2185
▁мектеби	-11.2186
▁кишилерге	-11.2187
▁сыртында	-11.2188
тивдик	-11.2188
▁үйрөтүү	-11.219
▁тарабы	-11.2192
▁сунушта	-11.2193
▁платформасы	-11.2194
▁замат	-11.2197
▁Словакия	-11.2201
▁эмгектенип	-11.2201
▁калайман	-11.2201
▁ийгилиги	-11.2201
▁телерадио	-11.2201
▁удаа	-11.2202
▁фонунда	-11.2202
▁ардактуу	-11.2202
▁отурушат	-11.2203
▁изилдеген	-11.2203
▁Учак	-11.2204
▁кореялык	-11.2205
▁Азиядан	-11.2205
▁каржылаган	-11.2205
▁жетектейт	-11.2207
▁жеңилип	-11.2208
андар	-11.2208
▁эстеликтер	-11.2209
▁жашылча	-11.2209
▁долбоорлору	-11.221
▁дүйнөсүнүн	-11.221
▁поэзия	-11.2211
▁системалуу	-11.2211
▁Абду	-11.2211
▁ооп	-11.2212
▁майданда	-11.2212
▁Семетей	-11.2217
▁бекеттери	-11.2218
▁мугалими	-11.2218
▁Арабия	-11.2219
▁гезитинин	-11.222
▁саммитке	-11.222
▁450	-11.2221
▁чала	-11.2221
▁маселелерде	-11.2222
чарада	-11.2222
▁фронт	-11.2223
▁кууру	-11.2226
▁илимпоздор	-11.2228
▁кызга	-11.2231
▁кайтарууну	-11.2231
com	-11.2232
▁айтам	-11.2233
▁интеллект	-11.2234
▁Арабиясы	-11.2234
▁Ырыс	-11.2236
▁чыгымы	-11.2236
ia	-11.2238
▁арызданган	-11.224
▁...	-11.2242
▁89	-11.2242
рса	-11.2243
ташып	-11.2244
▁Рай	-11.2246
▁алтынды	-11.2246
▁термин	-11.2247
өгү	-11.2247
▁төш	-11.2249
▁оорулары	-11.225
▁дарыгердин	-11.2254
уусуна	-11.2259
▁Матраимовго	-11.2262
▁сындагандар	-11.2264
▁командири	-11.2264
▁укпай	-11.2265
▁туруксуз	-11.2267
▁камалгандарды	-11.2272
▁кенине	-11.2275
Ас	-11.2281
Мекен	-11.2281
өскөн	-11.2281
▁вариант	-11.2281
ТИМ	-11.2282
▁азабын	-11.2286
мас	-11.2286
▁сөөк	-11.2288
▁тасмалар	-11.2289
бүздү	-11.229
▁зомбулукту	-11.2291
▁каттамдарды	-11.2294
▁Өрт	-11.2296
▁чиркөө	-11.2297
лия	-11.2297
▁сүйлөшүүлөрү	-11.2299
▁армиясына	-11.2299
кей	-11.23
▁топто	-11.2302
▁реакциясы	-11.2305
▁катышпай	-11.2307
▁факторлор	-11.2308
▁окуучусу	-11.2309
▁протоколду	-11.231
▁ыктыярчы	-11.2312
сезим	-11.2314
▁форуму	-11.2316
▁ошончо	-11.2316
media	-11.2318
▁Жуманазарова	-11.2318
▁Көбүнчө	-11.2318
▁кымбаттады	-11.2318
▁кычкылтек	-11.2318
▁Самарканд	-11.2318
лөө	-11.2318
▁Эртеси	-11.2319
▁белгилей	-11.2319
▁кайгылуу	-11.232
▁жөнөтүлөт	-11.232
▁толду	-11.232
▁өткөрүлөт	-11.2322
адыресе	-11.2322
▁араларын	-11.2323
▁алма	-11.2323
▁тим	-11.2324
▁карыя	-11.2324
▁машиналар	-11.2324
▁кризистен	-11.2324
▁New	-11.2324
мартында	-11.2324
▁жоолук	-11.2325
▁футболчу	-11.2326
▁Медициналык	-11.2326
▁урап	-11.2327
ташкан	-11.2328
▁чечүүчү	-11.2328
▁ферма	-11.2328
▁дыйкан	-11.2329
тов	-11.2331
▁кетебиз	-11.2331
▁куту	-11.2332
▁Жолугушууда	-11.2335
▁курулат	-11.2335
▁Бээжинде	-11.2335
бактылуу	-11.2339
▁колдонот	-11.2339
▁темада	-11.2343
▁Жээнбековго	-11.2347
▁телефондор	-11.2349
▁сүрөттөрүн	-11.2349
сып	-11.235
▁курулушун	-11.235
▁кылмыштуулукка	-11.235
▁Кер	-11.235
Кече	-11.2351
тек	-11.2351
▁жолдоп	-11.2351
▁топтору	-11.2351
▁араларды	-11.2352
▁компанияны	-11.2352
▁төлөмдөрдү	-11.2353
лам	-11.2356
▁Текебаевдин	-11.2358
▁госпитал	-11.236
▁көрүнүштөрдү	-11.236
▁Камбар	-11.2363
теген	-11.2364
▁би	-11.2366
▁күндөр	-11.2368
▁этно	-11.2369
▁штаммы	-11.237
дигине	-11.2372
енов	-11.2375
мага	-11.2377
99	-11.2379
▁Монголия	-11.2379
▁эвакуациялоо	-11.2381
▁алтындын	-11.2381
▁түзгөнүн	-11.2382
▁контр	-11.2385
▁сентябр	-11.2386
▁Асад	-11.2387
▁медиасы	-11.2387
▁барышты	-11.2389
дармектер	-11.239
▁күнүгө	-11.239
бүлөнү	-11.2391
▁аткаминерлердин	-11.2391
▁уюштуруучулары	-11.2392
▁тартат	-11.2393
▁Казан	-11.2396
▁ынан	-11.2398
апрелинде	-11.2399
дүйнө	-11.2399
▁арттыруу	-11.24
февралында	-11.24
▁нота	-11.2401
▁аныктама	-11.2407
▁экономикасынын	-11.2411
▁Чыны	-11.2413
▁ресурстарын	-11.2413
▁автономия	-11.2417
▁формасы	-11.242
▁ред	-11.2421
▁аныктады	-11.2422
ху	-11.2425
▁жолукканда	-11.2427
▁байланыштар	-11.2427
▁арыздарды	-11.2429
▁армиянын	-11.2431
▁чөйрө	-11.2431
▁Министрди	-11.2433
ge	-11.2433
▁активисттерди	-11.2434
▁илинип	-11.2435
▁туңгуюк	-11.2435
▁Надира	-11.2435
▁чоңойгон	-11.2435
▁Татарстан	-11.2435
▁альтернативдүү	-11.2435
▁Капаров	-11.2435
▁укмуш	-11.2435
▁өндүрүп	-11.2435
▁бөлүшүп	-11.2436
▁1980-	-11.2436
▁чалган	-11.2437
▁эсимде	-11.2437
▁болуусу	-11.2437
▁эсептейбиз	-11.2437
▁Николай	-11.2437
▁кодекстин	-11.2438
▁азери	-11.244
▁өткөөл	-11.244
▁далилдеп	-11.244
▁котормочу	-11.2442
шту	-11.2444
▁Союзу	-11.2444
▁Жамал	-11.2445
▁айыптоолор	-11.2446
аг	-11.2446
▁Мамбет	-11.2447
▁запасы	-11.2447
ашы	-11.2448
▁өлкөлүктөр	-11.245
▁чакырышкан	-11.2451
▁түшүм	-11.2454
▁ажырым	-11.2456
▁чакырымдай	-11.2457
▁жактарда	-11.2458
▁фон	-11.2458
▁катышкандарды	-11.2459
обо	-11.2459
▁федерациясы	-11.246
▁сактоону	-11.2461
ноябрында	-11.2462
▁мамилелери	-11.2462
▁органдарында	-11.2463
▁ЕАЭБге	-11.2463
аган	-11.2467
▁даярдоого	-11.2468
34	-11.2469
▁судьялар	-11.247
▁чатыр	-11.2471
▁тартылганы	-11.2472
▁Фонд	-11.2476
▁з	-11.2481
▁Ыр	-11.2482
▁атууну	-11.2488
▁басарлары	-11.2488
▁91	-11.2494
▁өкмөттө	-11.2495
▁иштесе	-11.2497
▁кодекстер	-11.2497
▁жазы	-11.2497
▁Бур	-11.2498
▁порт	-11.2499
▁чогулгандар	-11.2503
▁курулуштар	-11.2503
▁жүрбөй	-11.2503
▁курагы	-11.2504
▁бөлүк	-11.2506
▁чыгаша	-11.2507
▁мезгили	-11.2511
▁көбөйгөнү	-11.2512
75	-11.2513
итет	-11.2517
чыгыш	-11.2517
ЖККУ	-11.2518
одо	-11.2519
▁барлар	-11.252
▁Пхеньян	-11.2527
▁дайын	-11.2529
▁Африкада	-11.2529
үшкөн	-11.2532
▁соолук	-11.2533
▁шаарлардын	-11.2538
Баш	-11.254
бизге	-11.2541
▁кабылганы	-11.2542
▁кылмышты	-11.2544
▁аксакал	-11.2544
▁фильм	-11.2545
▁айтылуу	-11.2547
▁Аспеков	-11.2548
32	-11.2548
▁Шайлдабекова	-11.2554
▁бороон	-11.2554
▁өтпөгөн	-11.2554
▁карманып	-11.2555
▁корккон	-11.2555
керлер	-11.2555
▁төлөнүп	-11.2555
▁Чынара	-11.2555
▁апталарда	-11.2558
▁каалайт	-11.2559
▁Тбилисиде	-11.2561
штырып	-11.2563
▁кайым	-11.2563
▁элчилигине	-11.2564
▁киргизилгенин	-11.2565
▁тарыхчылар	-11.2566
сел	-11.2566
▁лабораториялык	-11.2568
▁албайсың	-11.2569
▁сумманы	-11.2569
▁сабалган	-11.2569
▁агрессиясы	-11.257
ыкты	-11.2574
▁3000	-11.258
▁орно	-11.2581
▁60%	-11.2581
боону	-11.2582
▁бүтөт	-11.2582
▁Уюштуруучулар	-11.2582
la	-11.2583
▁каржылоого	-11.2585
▁жабыркаганын	-11.2587
▁жаңжалга	-11.259
▁жоболор	-11.259
▁Марле	-11.2591
▁жатакана	-11.2593
▁окурман	-11.2594
ех	-11.2595
▁жумша	-11.2595
▁банктардын	-11.2596
жылдарга	-11.2597
▁Баарына	-11.26
Петербургда	-11.2602
▁Болгария	-11.2603
▁Ком	-11.2604
▁Кызмат	-11.2604
далып	-11.2605
стин	-11.2608
▁жолдоду	-11.2612
▁жарата	-11.2612
▁түшүрүү	-11.2613
▁Тал	-11.2618
▁Кармалган	-11.2618
▁каражатка	-11.2618
▁в	-11.262
▁кагылышуулар	-11.262
▁отчёт	-11.262
имдин	-11.2623
▁вариантын	-11.2623
▁ыйла	-11.2628
▁темалар	-11.2633
▁кыскарган	-11.2635
▁калтыр	-11.2636
▁каттала	-11.2637
▁майрамды	-11.2642
▁нөшөр	-11.2644
▁Исаковдун	-11.2645
▁чыгарылганын	-11.2648
▁түрүнөн	-11.2649
▁кызматтарга	-11.2649
▁эмдөөнү	-11.2649
▁паркы	-11.265
ибиздин	-11.2651
▁отурумдар	-11.2652
▁эсине	-11.2653
▁калгандай	-11.2654
ио	-11.2654
▁мурдакы	-11.2654
мор	-11.2654
▁куугунтуктоо	-11.2655
▁+	-11.2658
▁фабрика	-11.2663
▁эте	-11.2665
▁Берлинде	-11.2666
▁реестр	-11.2667
▁тармактардын	-11.2667
тордун	-11.2667
мэри	-11.2668
луучу	-11.2668
▁баласына	-11.2669
▁айлампасы	-11.2669
▁жумшал	-11.2669
▁аракеттенген	-11.2669
▁ачарчылык	-11.267
▁ишенимин	-11.267
▁агартуу	-11.2672
▁кесиби	-11.2673
▁орусиялыктарды	-11.2674
▁Курултай	-11.2675
▁Павлодар	-11.2675
▁жумуртка	-11.2675
Кыргызалтын	-11.2675
▁аркалаган	-11.2675
ный	-11.2675
▁жыйынтыкталды	-11.2675
▁аннексияланган	-11.2675
▁көрүшөт	-11.2676
▁өзгөрүшүнө	-11.2677
▁айтайын	-11.2678
▁10-15	-11.2679
▁жарыялашкан	-11.2679
▁митингчилер	-11.268
▁Мари	-11.2681
▁Союзунун	-11.2682
li	-11.2682
▁баратканы	-11.2684
▁кубаттуулугу	-11.2687
▁аянтка	-11.2688
▁кеттик	-11.2689
▁кайрылат	-11.269
▁бергенде	-11.269
▁Мыктыбек	-11.269
▁жеткенде	-11.2692
▁чачы	-11.2693
▁тиричилик	-11.2693
еле	-11.2693
▁митингди	-11.2695
▁жараянын	-11.27
▁Токиодо	-11.2701
▁эскертүүдө	-11.2702
кир	-11.2702
▁5-6	-11.2704
▁шаршембиде	-11.2704
▁өпкөнү	-11.2706
▁Кулов	-11.2709
иң	-11.271
▁VI	-11.271
Көлдөгү	-11.2712
▁болмокчу	-11.2713
▁жүйөсү	-11.2715
▁колдонуучулар	-11.2715
▁жетим	-11.2716
▁дарт	-11.2717
▁илдетин	-11.2722
▁мандатына	-11.2723
▁Изилдөө	-11.2723
37	-11.2723
▁тартибинде	-11.2724
▁кызматтардын	-11.2727
▁Калкты	-11.2731
▁Штаттарда	-11.2734
▁койсок	-11.2735
▁фирмалар	-11.2738
▁ысым	-11.2738
▁Карабакты	-11.2739
▁мамилесине	-11.274
▁өпкө	-11.2742
▁аппараттарды	-11.2742
▁зыярат	-11.2745
▁университеттин	-11.2747
▁белгилер	-11.2747
▁жый	-11.2748
▁уурулук	-11.2751
▁банкка	-11.2751
▁Разаков	-11.2752
▁системанын	-11.2754
▁уурда	-11.2754
рем	-11.2758
▁бата	-11.2759
ӨКМ	-11.276
Медиа	-11.276
▁документи	-11.2761
▁бейшембиде	-11.2763
▁тиркеме	-11.2765
▁тандоосу	-11.2767
▁текшерген	-11.2768
▁жазуучусу	-11.2769
▁жазаны	-11.2769
▁Чи	-11.277
▁картасын	-11.2772
цио	-11.2773
▁шектүүлөрдүн	-11.2774
▁Биримдигинде	-11.2774
▁Ус	-11.2774
▁Тынч	-11.2776
▁Чеченстанды	-11.2778
▁борборлор	-11.2782
▁ишмердик	-11.2784
▁Эм	-11.2785
▁изилдөөлөрдү	-11.2788
▁дей	-11.2788
▁катып	-11.2788
▁Жарандар	-11.2791
▁темасы	-11.2791
▁конфликт	-11.2792
▁барымтада	-11.2794
▁ачыла	-11.2795
,8%	-11.2795
талкуу	-11.2796
▁Мохаммад	-11.2797
▁Татьяна	-11.2797
▁байкалып	-11.2797
▁ээледи	-11.2797
▁Роберт	-11.2797
▁кезеги	-11.2797
▁отурганын	-11.2797
▁Жолдубаева	-11.2797
▁контейнер	-11.2797
▁өткөрүлдү	-11.2797
▁Эрбол	-11.2798
▁аныкталса	-11.2798
▁Айтмакчы	-11.2798
▁абактарында	-11.2798
▁Мира	-11.2799
▁биологиялык	-11.2799
Буура	-11.2803
▁Тель	-11.2803
зомбулукка	-11.2805
зар	-11.2805
▁шейшемби	-11.2805
басы	-11.281
▁кооператив	-11.2811
багыла	-11.2814
шер	-11.2815
▁Мьянма	-11.2815
▁Кый	-11.2816
лугун	-11.2817
▁мүмкүнчүлүгүнө	-11.2817
▁Асановдун	-11.2818
▁Ташиевге	-11.2819
▁курс	-11.2819
▁Мамат	-11.2821
▁штатты	-11.2823
▁класстар	-11.2823
датып	-11.2825
кулова	-11.2828
▁Талаш	-11.283
▁бейшемби	-11.2831
▁Тоң	-11.2832
▁Батыштагы	-11.2834
▁сыйлыгынын	-11.2835
▁модел	-11.2839
▁чарбасы	-11.284
рал	-11.2841
чусу	-11.2843
▁коргоону	-11.2844
банк	-11.2845
▁түшүү	-11.2845
▁тери	-11.2846
▁институттун	-11.2846
▁Матраимовдорду	-11.2848
▁жарымын	-11.2849
▁видеосун	-11.285
▁беки	-11.2851
▁титирөөдө	-11.2856
космостук	-11.2856
▁кыймылына	-11.2857
▁болоорун	-11.2857
Бай	-11.286
▁Гүлша	-11.2864
▁чегин	-11.2865
▁барам	-11.2865
▁сыйла	-11.2865
нча	-11.2865
ош	-11.2866
▁кыйынчылыктарга	-11.2866
▁жаткандыгы	-11.2868
▁тартууда	-11.287
▁ишенет	-11.287
▁көчмө	-11.2873
▁эстелик	-11.2874
▁чемпион	-11.2877
▁Акмат	-11.2877
▁кең	-11.2877
лерде	-11.2878
▁чечүүнү	-11.2879
▁Эркиндик	-11.288
▁аскерлерине	-11.2887
▁ачууну	-11.2889
▁алары	-11.2894
мыйзамсыз	-11.2895
августтан	-11.2895
▁жоокерди	-11.2897
▁көчөсү	-11.2899
▁программалар	-11.2902
▁99	-11.2903
▁багытын	-11.2904
ышына	-11.2906
▁аялга	-11.2912
▁Ороз	-11.2913
▁тагдырына	-11.2915
ино	-11.2917
▁соолугун	-11.2917
▁кыянат	-11.2919
▁Меркел	-11.292
▁Абхазия	-11.292
▁курчоого	-11.292
▁спирт	-11.292
Эркечтам	-11.292
▁алыстыкта	-11.292
▁камагында	-11.292
▁бекен	-11.292
▁олтуруп	-11.2921
▁Расул	-11.2922
▁чамалуу	-11.2922
▁Качан	-11.2922
▁базарга	-11.2923
▁чыгарылышы	-11.2923
▁мектептен	-11.2923
▁райондорунун	-11.2924
▁талкууланат	-11.2924
ттын	-11.2924
▁физикалык	-11.2925
▁маалымдап	-11.2925
▁мыйзамдаштыруу	-11.2926
▁Иманкулов	-11.2926
▁Кичи	-11.2927
▁Хе	-11.2927
▁Жоомарт	-11.2928
▁өрттөп	-11.2928
▁террористтик	-11.2929
▁бура	-11.293
▁таратылган	-11.293
▁төмөндөтүү	-11.293
▁келгенсип	-11.2932
▁Баарын	-11.2932
көй	-11.2936
▁Ше	-11.2937
▁салымын	-11.2938
▁басылып	-11.294
▁Үмүт	-11.2942
▁Ирактагы	-11.2942
▁адамзатты	-11.2942
▁өнүм	-11.2945
▁байланыштарды	-11.2945
▁биздеги	-11.2945
▁км	-11.2951
▁Холл	-11.2954
өтө	-11.2955
▁соккуларына	-11.2956
▁анысы	-11.2957
▁экстрадиция	-11.2958
▁мектептерге	-11.2959
▁Минскиде	-11.2961
▁жоюуга	-11.2962
▁Өмүрзаков	-11.2964
▁дер	-11.2964
▁сому	-11.2965
▁бекет	-11.2967
▁уюмду	-11.2969
▁Анкарада	-11.297
▁миллиону	-11.2972
▁малдын	-11.2973
▁кичүү	-11.2973
бүлөгө	-11.2978
▁линиясы	-11.2978
▁куралдарды	-11.2981
▁уюштурду	-11.2982
▁карады	-11.2987
▁Кырдаал	-11.2993
▁далили	-11.2993
▁өсүмдүк	-11.2993
▁Бакытбек	-11.2995
▁кетели	-11.2995
июлдан	-11.3001
▁жабыркагандарга	-11.3003
▁эсептей	-11.3005
▁онкология	-11.301
кассалык	-11.3012
▁кошуундар	-11.3013
33	-11.3017
Бийликти	-11.3019
был	-11.3021
▁кароодон	-11.3022
▁Аял	-11.3026
президенттин	-11.3027
▁рейтинги	-11.3027
майында	-11.3029
▁Ын	-11.303
▁өзүбүздү	-11.303
▁Абакта	-11.303
▁өзүлөрү	-11.3032
▁пайдалана	-11.3033
сыңбы	-11.3034
▁албасын	-11.3034
▁Медицина	-11.3036
▁залал	-11.3036
▁жээкте	-11.3037
un	-11.3039
▁буюмдар	-11.3039
▁умтулуу	-11.304
▁кепке	-11.304
▁акчасына	-11.3041
▁аэропорту	-11.3042
▁чатагы	-11.3043
▁экспорту	-11.3045
▁Вячеслав	-11.3045
▁аккредитация	-11.3045
Административдик	-11.3045
▁Шабдан	-11.3045
▁жөлөкпул	-11.3045
▁Блогер	-11.3045
▁Шольц	-11.3045
▁бүдөмүк	-11.3045
▁жаркын	-11.3045
▁2030-	-11.3045
▁бириктирип	-11.3046
▁бастырып	-11.3046
▁өрттөнүп	-11.3046
▁Арипов	-11.3046
▁өчүп	-11.3046
▁камералар	-11.3047
▁демекчи	-11.3048
▁ыйгарылды	-11.3048
▁төлөнөт	-11.3049
ең	-11.305
▁тастыктап	-11.305
▁учу	-11.3051
▁зал	-11.3051
масы	-11.3053
▁Юрист	-11.3054
▁жоюлган	-11.3055
▁айылдан	-11.3056
▁Из	-11.3057
▁жүрүшкө	-11.3058
▁катталууда	-11.3058
▁кеңсесинин	-11.3059
▁мекемелеринин	-11.3062
▁боюнда	-11.3063
▁жумуштар	-11.3064
рууга	-11.3065
▁күрөшөт	-11.3065
▁Рыскулов	-11.3067
▁өпкөсү	-11.3069
▁Апам	-11.3069
▁кесепеттери	-11.3071
иңди	-11.3075
кубат	-11.3076
▁Эсенгул	-11.3077
кандай	-11.3079
▁угу	-11.3081
▁санал	-11.3081
лис	-11.3083
▁илип	-11.3083
▁билиш	-11.3088
сентябрында	-11.3088
▁лицей	-11.3088
аракеттерди	-11.3088
августунда	-11.3089
▁талаасында	-11.3089
▁олигарх	-11.3093
▁аткарууда	-11.3098
▁Йо	-11.3099
▁жеңе	-11.3101
▁жүрдүм	-11.3101
▁октябрында	-11.3101
▁Кулматов	-11.3102
▁күчөгөнүн	-11.3103
▁Маалыматты	-11.3104
▁жоо	-11.3106
▁түзүлүшү	-11.3108
▁тизмесинен	-11.3109
▁Таластагы	-11.3111
▁Саакашвили	-11.3112
▁түйүндөр	-11.3115
мыйзам	-11.3116
поого	-11.3118
гандан	-11.3118
▁көрүнүшү	-11.3124
▁орундары	-11.3125
▁Махмуд	-11.3125
▁кайтар	-11.3126
▁кызыккан	-11.3126
▁пункту	-11.3128
▁оңчул	-11.3129
анд	-11.3132
Жалпы	-11.3136
Европа	-11.3136
азыркы	-11.3136
▁авиакомпаниясы	-11.3137
тет	-11.3138
▁мүдөөсү	-11.3138
▁динге	-11.314
▁билдирүүгө	-11.314
энем	-11.3142
▁союздаштары	-11.3143
▁жатышканы	-11.3144
▁саламаттыгын	-11.3144
▁каршылыгын	-11.3144
▁кечир	-11.3144
ңарды	-11.3147
▁жообун	-11.3147
x	-11.3147
Талаа	-11.3152
▁Ги	-11.3153
▁кер	-11.3153
▁Мир	-11.3153
ыңды	-11.3155
▁жөөт	-11.3155
▁көрсөткөнү	-11.3159
чубуз	-11.316
▁Тажи	-11.3161
▁Кеч	-11.3162
▁ипотека	-11.3162
▁Аргентина	-11.3163
▁ишканаларды	-11.3164
▁Спорт	-11.3164
▁аяктаганда	-11.3165
▁Түркмөн	-11.3166
▁иштеринде	-11.3166
дуулук	-11.3168
▁өспүрүмдү	-11.3171
▁багыттары	-11.3171
▁Баяндама	-11.3172
▁Львов	-11.3172
▁асфальт	-11.3172
▁сөгүш	-11.3172
▁аракеттенип	-11.3172
▁зыйнаты	-11.3172
▁берилчү	-11.3172
▁Live	-11.3172
▁Орунбеков	-11.3172
▁Келечекте	-11.3172
▁уюлду	-11.3172
▁жазылды	-11.3173
▁салыштырып	-11.3173
▁улак	-11.3173
▁координатору	-11.3173
▁публицист	-11.3173
▁аркасында	-11.3174
▁жетсе	-11.3174
▁караштырып	-11.3174
▁узартылды	-11.3175
▁ишембиде	-11.3175
▁өнүгүүсүнө	-11.3176
▁чечмелеп	-11.3177
▁каалап	-11.3177
▁биринчиден	-11.3177
▁сызыгы	-11.3177
ңиздер	-11.3177
▁өсүшүнө	-11.3178
▁тийгизди	-11.3178
▁кышында	-11.3185
▁облусун	-11.3186
▁калем	-11.3187
▁башчылыкка	-11.3188
▁аялуу	-11.3188
▁боюна	-11.3189
▁келтирет	-11.319
▁олимпиадалык	-11.319
▁кырсыктар	-11.3193
ебе	-11.3193
▁тилкесинин	-11.3196
▁тапшырмасын	-11.3196
▁иштете	-11.3196
оф	-11.3197
▁алдынан	-11.3198
▁кармай	-11.3198
▁аңчылык	-11.3198
▁сценарий	-11.3199
▁Шайлоодо	-11.3201
▁пар	-11.3202
▁куур	-11.3206
үмө	-11.3207
▁капиталы	-11.3208
▁табууну	-11.3208
▁сөөктөрү	-11.3208
▁кыргыздарга	-11.3211
▁жабдыктарды	-11.3214
▁тарата	-11.3216
▁(+1	-11.3216
▁Батыштан	-11.3216
▁режимине	-11.3217
▁Ошолорду	-11.3218
▁Дене	-11.3218
▁аймактарынын	-11.3219
▁ЖЭБди	-11.322
кысым	-11.322
▁курултайда	-11.3221
▁тарткандар	-11.3223
▁кайрылса	-11.3224
▁Раззаков	-11.3225
▁Республикасында	-11.3226
▁Асадды	-11.3226
▁Ошко	-11.3227
▁жазгы	-11.3231
▁Атай	-11.3234
,7%	-11.3237
▁карталар	-11.3238
▁өкүмдү	-11.3238
▁катын	-11.3241
дүгүн	-11.3241
▁баяны	-11.3242
▁Турду	-11.3243
тура	-11.3245
ээр	-11.3246
илип	-11.3248
Бейит	-11.3251
▁мекемеге	-11.3252
▁толо	-11.3255
▁азыктары	-11.3256
тылган	-11.3256
▁түшкө	-11.3258
өнү	-11.3259
▁бас	-11.3259
чик	-11.326
▁имаратында	-11.3261
▁Петр	-11.3262
▁чечимдери	-11.3262
▁ойлорун	-11.3262
▁Пар	-11.3263
▁Салим	-11.3264
▁базарына	-11.3265
▁Автор	-11.3265
рыш	-11.3265
▁баалуулуктар	-11.3266
▁маалыматтын	-11.3268
Кар	-11.3269
бирөө	-11.3271
▁уч	-11.3271
▁Сталин	-11.3274
түгүл	-11.3275
▁алышканын	-11.3275
▁жыйындар	-11.3276
▁Польшада	-11.3276
алып	-11.3279
▁тамагы	-11.3281
▁токтомду	-11.3281
▁даярдыгын	-11.3283
▁жардамын	-11.3286
▁жазганы	-11.3288
▁кий	-11.3288
▁колдобой	-11.3289
▁Казакстанды	-11.3289
▁Эсеп	-11.329
лбайт	-11.3291
▁Малайзия	-11.3291
▁алганбыз	-11.3291
▁долбоорлорун	-11.3294
▁жайларын	-11.3294
▁Окумуштуулар	-11.3294
▁кырсыгына	-11.3295
▁Майрам	-11.3298
▁эрежеси	-11.3299
▁тургандыгы	-11.33
▁куттуктоо	-11.33
▁Мүмкүн	-11.33
▁Вьетнам	-11.33
▁7...12	-11.33
▁Дегеле	-11.33
▁байкалды	-11.33
▁Гүлбара	-11.3301
бузга	-11.3301
▁эбак	-11.3301
▁ашынган	-11.3301
▁абройлуу	-11.3301
▁калаасында	-11.3302
▁Эш	-11.3303
▁акталган	-11.3303
▁аяр	-11.3303
▁ушак	-11.3304
▁чагылдырылган	-11.3304
▁чакырымы	-11.3304
▁сакталат	-11.3304
▁сүйлөдү	-11.3306
▁кенинде	-11.3307
▁иштечү	-11.3308
▁күрд	-11.3309
▁жарыяланат	-11.3309
▁ылайыктуу	-11.3309
өлү	-11.331
▁Facebook	-11.3311
▁Санду	-11.3311
▁Жал	-11.3311
ким	-11.3312
▁үзүлгөн	-11.3313
▁Am	-11.3314
▁таб	-11.332
▁салам	-11.3322
род	-11.3323
▁келишпестик	-11.3325
▁үнөмдөө	-11.3325
ылда	-11.3326
▁мисалдар	-11.3327
▁модернизациялоо	-11.3328
▁Сам	-11.3328
▁душманы	-11.3328
▁чогулуш	-11.3331
▁ишене	-11.3333
▁Адистерди	-11.3333
▁саналууда	-11.3333
жол	-11.3334
▁барбайт	-11.3335
▁түзүмүн	-11.3337
▁жаралуу	-11.3337
▁Кудайберген	-11.3339
▁референдумду	-11.334
▁маанайдагы	-11.3341
▁Пи	-11.3345
▁жагдайларга	-11.3353
▁реформаны	-11.3354
▁кайрылуусуна	-11.3355
▁болсом	-11.3356
▁өндүрүүнү	-11.3356
▁кирешелерди	-11.3358
▁студенттерге	-11.3361
▁230	-11.3361
▁салуунун	-11.3361
▁сунуштары	-11.3362
еми	-11.3364
▁басты	-11.3365
▁ооруканаларга	-11.3367
▁учагын	-11.3367
▁кана	-11.3369
▁багыттар	-11.337
▁жаттым	-11.3371
ерин	-11.3372
▁Жакындары	-11.3375
▁жаңылыш	-11.3376
▁Журналистти	-11.338
▁мекемелери	-11.338
▁аткар	-11.3381
▁баштаса	-11.3384
ец	-11.3385
▁референдумда	-11.3385
▁филиалы	-11.3386
алды	-11.3386
юшкан	-11.3387
▁мушкер	-11.339
▁тамыры	-11.339
▁шаардан	-11.339
Тур	-11.3391
▁зым	-11.3392
эсен	-11.3392
▁суусу	-11.3392
▁эшигин	-11.3393
▁арам	-11.3394
ёр	-11.3394
Айыл	-11.3396
▁автоунаанын	-11.3398
▁сынагы	-11.3402
▁бажыдагы	-11.3403
▁жерлери	-11.3403
▁137	-11.3404
▁Азербайжанда	-11.3406
▁демократияны	-11.3407
▁кадамдары	-11.3408
▁баяндамада	-11.341
▁микро	-11.3411
▁каттамдарын	-11.3412
▁сүйлөшүүлөрдө	-11.3414
▁Сырт	-11.3416
▁жоопкер	-11.3417
▁кырсыктары	-11.3419
ымдын	-11.342
▁газын	-11.342
▁Судья	-11.3422
▁кызыгы	-11.3422
үндөгү	-11.3425
▁Конституцияда	-11.3425
▁түндүгүндө	-11.3427
▁Видео	-11.3429
башка	-11.3429
▁Рамзан	-11.343
▁время	-11.343
▁Артем	-11.343
▁пенде	-11.343
▁курчуган	-11.343
▁толтуруп	-11.343
▁өзгөртүлдү	-11.3431
▁Карим	-11.3431
▁Кабыл	-11.3431
▁көрүшкөн	-11.3431
▁мүнөздөдү	-11.3432
▁иштешкен	-11.3432
▁Абайды	-11.3434
анааттандырарлык	-11.3436
▁өзгөрөт	-11.3436
▁бурмалоо	-11.3437
▁сүзүү	-11.3437
▁аброюна	-11.3437
▁жогорулаган	-11.3437
▁басылмалары	-11.3438
▁Айдар	-11.3438
▁грамм	-11.3439
▁күчөтүүнү	-11.344
▁өндүрүшкө	-11.3441
▁Былтыркы	-11.3442
▁активисттин	-11.3443
▁этүү	-11.3445
▁бригада	-11.3446
▁мелдешке	-11.3447
▁ачылбай	-11.3447
▁чагылдыр	-11.3448
▁Жумалиев	-11.3448
▁кадамын	-11.3449
▁күчөтүүгө	-11.3451
▁тапшырылган	-11.3451
Ре	-11.3452
▁адалдоо	-11.3452
▁көбөйтүүгө	-11.3452
даштыруу	-11.3452
▁кажети	-11.3455
▁обсервацияга	-11.3456
тарында	-11.3457
▁баккан	-11.3458
▁жетекчилигин	-11.3462
▁баштала	-11.3462
▁камсыздоону	-11.3463
▁номуру	-11.3463
▁намыс	-11.3463
▁жандантуу	-11.3465
▁бөлө	-11.3466
▁II	-11.3467
▁сааттык	-11.3467
▁өлкөлөрүнөн	-11.3469
▁империя	-11.347
▁коммун	-11.3473
▁нуска	-11.3479
▁пландаган	-11.3479
класстын	-11.348
гүлө	-11.3484
▁ордо	-11.3484
▁төлөөдө	-11.3488
▁мамилеге	-11.3489
▁Нидерланд	-11.3491
▁сыз	-11.3491
Бала	-11.3492
▁эксперттердин	-11.3497
▁Газ	-11.35
террордук	-11.35
▁команданы	-11.3503
▁эскерт	-11.3504
▁музейи	-11.3507
▁каарман	-11.3508
гиле	-11.351
▁өнүгүүсү	-11.351
До	-11.3511
▁декларациясы	-11.3511
▁тосуу	-11.3516
▁союзу	-11.3525
▁препарат	-11.3525
Чыгыш	-11.3525
▁Сенат	-11.3525
экстремисттик	-11.3525
01	-11.3526
▁мөңгү	-11.3526
▁түшүрүлгөнүн	-11.3527
▁Кылмыштар	-11.3527
▁Ур	-11.3528
▁терроризм	-11.3529
▁сынып	-11.3537
▁музейди	-11.3538
▁албаганда	-11.3538
улу	-11.3541
▁нааразылыктар	-11.3542
▁аяк	-11.3542
▁чама	-11.3543
▁соккулар	-11.3545
▁албаганы	-11.3548
▁сыйлыктар	-11.355
каналдар	-11.3551
▁жашагандар	-11.3555
▁касса	-11.3558
▁бомбалоо	-11.3558
▁Press	-11.3561
▁Баласагын	-11.3561
▁Буюрса	-11.3561
▁бөтөлкө	-11.3561
▁кейиштүү	-11.3561
▁ажыратты	-11.3562
▁буюрса	-11.3563
▁Эрмек	-11.3563
▁ууланган	-11.3563
▁карга	-11.3563
▁Жашоо	-11.3564
▁ашканын	-11.3565
▁буюмдары	-11.3567
көз	-11.3568
▁салышат	-11.3568
▁көчөт	-11.3569
▁Мирбек	-11.3571
▁Вита	-11.3572
▁жоготту	-11.3574
-2"	-11.3576
▁чыгарууда	-11.3576
▁элдиктер	-11.3584
▁жээгине	-11.3585
▁тактай	-11.3585
,2%	-11.3585
▁жакпай	-11.3587
▁жакындарын	-11.3591
лөрүнүн	-11.3591
▁парк	-11.3593
▁Чолпонбаев	-11.3594
▁л	-11.3595
▁табылбай	-11.3595
гра	-11.3597
▁табылганы	-11.3599
▁органдын	-11.3599
▁жөндөмү	-11.3599
кыш	-11.3599
▁барарын	-11.3604
▁кийлигишүүсү	-11.3604
▁эрк	-11.3606
▁төлөн	-11.3614
▁баштык	-11.3615
лбаса	-11.3621
▁батышында	-11.3626
▁чыгарышы	-11.3627
күч	-11.3627
Каз	-11.3634
▁тапшырмалар	-11.3636
ташты	-11.3637
▁көрүнүштү	-11.3638
▁Бакты	-11.3638
унчу	-11.3638
▁жазык	-11.3642
▁колдонул	-11.3644
▁сезими	-11.3645
зоок	-11.3648
▁өлкөбүздү	-11.3648
ишти	-11.365
▁алдыруу	-11.3652
▁чабуулдары	-11.3654
кун	-11.3655
Эгер	-11.3655
na	-11.3656
▁жумушун	-11.3658
▁абасы	-11.3658
▁Арменияда	-11.3658
Электр	-11.3661
▁схемалар	-11.3664
рэ	-11.3666
энесине	-11.3668
▁корпорациясы	-11.367
нып	-11.3673
▁эсинде	-11.3675
ланат	-11.3676
▁Куран	-11.3678
беренесинде	-11.3678
▁тынчсыздан	-11.3678
▁Мамбетов	-11.3681
▁журналистти	-11.3688
▁уурдаган	-11.3689
▁адамдардан	-11.3689
▁эффективдүү	-11.3691
67	-11.3693
▁жылдардагы	-11.3693
▁ашкана	-11.3694
▁бермек	-11.3694
▁алфавит	-11.3695
▁шылуундар	-11.3695
▁мүрт	-11.3695
▁белгилешүүдө	-11.3695
▁берилсе	-11.3695
▁киргизилиши	-11.3695
▁өткөрүшкөн	-11.3695
▁Пригожинди	-11.3695
▁Убагын	-11.3695
▁Төлөгөн	-11.3695
▁чөнтөгүнө	-11.3695
▁ууланып	-11.3696
▁бурулуп	-11.3696
▁Өздөрү	-11.3696
▁Бинь	-11.3697
▁укту	-11.3697
▁далилдеген	-11.3697
▁элде	-11.3698
▁катыштыгы	-11.3699
Кылым	-11.37
▁из	-11.37
▁Үчүнчүдөн	-11.3701
▁күнөөсүз	-11.3702
▁Боршайкомдун	-11.3702
▁өзгөртүлгөн	-11.3703
▁көтөрүлүш	-11.3704
▁жумшап	-11.3704
▁чогултулган	-11.3704
▁көпчүлүктүн	-11.3705
▁киришине	-11.3705
▁сактоочу	-11.3706
▁кредит	-11.3709
▁жогорулап	-11.371
▁чакырам	-11.3711
▁Сингапур	-11.3712
▁ысы	-11.3712
▁жарылган	-11.3712
▁каалагандар	-11.3713
▁туман	-11.3714
▁кубатын	-11.3715
▁кирешени	-11.3715
▁Рада	-11.3716
▁Элмирбек	-11.3717
катнаш	-11.3717
▁мушташка	-11.372
ңөр	-11.3725
▁сат	-11.3725
▁чоңдор	-11.3726
▁салышууда	-11.3727
▁Мыйзамсыз	-11.3734
▁ил	-11.3734
▁Ташкентти	-11.3735
▁башкалары	-11.3738
▁жабдык	-11.3738
▁донорлор	-11.3739
▁сөздүн	-11.3742
ардын	-11.3744
▁Чечим	-11.3747
▁клиника	-11.3748
эт	-11.375
▁эмделген	-11.375
▁Абди	-11.3751
▁Облус	-11.3752
▁туткундар	-11.3753
▁табышкан	-11.3754
акта	-11.3754
▁таян	-11.3755
▁версия	-11.3758
▁но	-11.3759
▁кылмыштуулукту	-11.3759
▁оюнчу	-11.3759
▁менден	-11.3761
▁кайтара	-11.3761
▁Мур	-11.3762
төргө	-11.3762
▁жүзгө	-11.3762
▁казино	-11.3763
▁жарышта	-11.3765
▁Август	-11.3766
▁көрү	-11.3766
▁штатыны	-11.3767
▁асманга	-11.3768
▁Иманов	-11.3768
▁техникасы	-11.3768
өп	-11.3769
▁бюджетине	-11.377
▁милдеттерди	-11.3773
-200	-11.3779
лоодо	-11.3779
▁бурулуш	-11.378
▁бетине	-11.378
▁бутагы	-11.3781
үңүз	-11.3782
▁донор	-11.3784
▁беттештер	-11.3784
▁парламентти	-11.3784
▁Асан	-11.3785
▁баламды	-11.3786
сыздык	-11.3787
▁Екатеринбург	-11.3788
▁Түш	-11.3792
▁Шейшембиде	-11.3792
▁лабораториялар	-11.3794
ью	-11.3795
▁класста	-11.3796
▁ичүү	-11.3796
▁кеңешин	-11.3797
▁агенттиктери	-11.38
ованы	-11.38
чыгышындагы	-11.3801
▁айтышып	-11.3802
▁эмнеси	-11.3802
▁текшерүүнү	-11.3804
▁товарларын	-11.3807
▁115	-11.3808
▁Башар	-11.3808
▁Оор	-11.3808
▁көмүрдүн	-11.3809
,9%	-11.381
▁балбандар	-11.3811
▁температура	-11.3812
▁укуктар	-11.3814
▁системада	-11.3814
▁Сегиз	-11.3815
▁бирикме	-11.3815
▁талант	-11.3816
▁Сириядан	-11.3819
▁аялын	-11.382
зордуктоого	-11.3822
▁жөндөмдүү	-11.3822
▁чыры	-11.3823
▁идеясы	-11.3824
▁күү	-11.3826
данып	-11.3826
▁Активисттер	-11.3826
▁Филипп	-11.3826
▁экономист	-11.3827
▁өтмөк	-11.3828
▁канаты	-11.3829
▁добуштан	-11.3829
▁кулагы	-11.3829
▁жактап	-11.383
июлунда	-11.383
январдын	-11.383
▁Пелоси	-11.383
▁белгилешинче	-11.383
▁кайгуул	-11.383
▁криптовалюта	-11.383
▁тагыраагы	-11.383
▁Арслан	-11.383
▁көкбөрү	-11.383
▁майнинг	-11.383
▁күтүлгөн	-11.383
▁кийлигишип	-11.383
▁кедей	-11.383
▁бошотулуп	-11.383
▁Исламабад	-11.3831
▁байкуш	-11.3831
▁(+2	-11.3832
▁өтүүнү	-11.3832
▁тейлеген	-11.3833
▁Румыния	-11.3833
▁берери	-11.3834
▁жыйнап	-11.3835
▁терапия	-11.3837
▁2026-	-11.3837
▁кеңсесине	-11.3837
▁тун	-11.3837
▁Ангел	-11.3838
▁аймактарындагы	-11.3839
▁ойной	-11.3839
▁уктап	-11.384
▁тутум	-11.384
лашты	-11.384
▁тармактарында	-11.3842
▁Майлуу	-11.3842
▁терроризмге	-11.3844
▁тестирлөө	-11.3845
▁фа	-11.3846
▁биримдикке	-11.3847
▁Ста	-11.3852
▁сомдой	-11.3853
▁ишкерлери	-11.3855
▁алуусуна	-11.3857
ттин	-11.3858
▁согушуна	-11.3858
▁Вирусту	-11.3859
▁кайталан	-11.3861
▁укта	-11.3861
▁тартса	-11.3861
▁медиктер	-11.3862
▁өлгөнү	-11.3863
сур	-11.3863
▁пневмониядан	-11.3864
▁Рыс	-11.3866
▁Ташкентке	-11.3866
▁чектөөлөргө	-11.3867
▁Жар	-11.3867
▁наамы	-11.3868
ad	-11.3873
▁Умаров	-11.3874
▁билги	-11.3875
▁партияларга	-11.3876
▁Таң	-11.3881
▁тажрыйбасын	-11.3881
▁залында	-11.3883
▁бийлигинен	-11.3883
▁94	-11.3888
▁береби	-11.3889
▁баткан	-11.3891
хон	-11.3892
▁Шаарда	-11.3897
▁батирде	-11.3899
▁аппараттар	-11.3899
ныкы	-11.3901
рус	-11.3901
,3%	-11.3902
▁чыкмак	-11.3903
▁жеткирилгенин	-11.3908
▁байланыша	-11.3908
ологдор	-11.3909
▁жапты	-11.3909
баптыр	-11.3911
▁камаган	-11.3912
▁журнал	-11.3914
▁кармалышын	-11.3919
кел	-11.3921
▁китептин	-11.3924
▁Абдыкадыров	-11.3925
07	-11.3925
▁колундагы	-11.3927
▁кубогу	-11.3927
▁ракетасы	-11.3928
▁оюндарды	-11.3928
ттик	-11.3928
▁университетте	-11.393
▁кездеме	-11.3931
▁казынасын	-11.3931
билим	-11.3935
▁уюштуруучулар	-11.3936
▁редакциясы	-11.3939
шкөн	-11.3943
▁Кабулду	-11.3944
▁мөңгүлөр	-11.3946
▁аземи	-11.3946
▁батирлер	-11.3947
▁куралган	-11.3949
▁окутууга	-11.395
▁жагдайы	-11.3951
▁жарал	-11.3956
▁чыкпоо	-11.3956
том	-11.3957
▁которууга	-11.396
▁калыстык	-11.3961
рген	-11.3963
▁алкак	-11.3966
▁баарлашуу	-11.3967
▁Telegram	-11.3967
▁Эреже	-11.3967
▁мораторий	-11.3967
▁муздаткыч	-11.3967
▁почта	-11.3967
▁режиссёр	-11.3967
▁1916-	-11.3967
▁кылынды	-11.3967
▁ыдыра	-11.3967
▁сунушталууда	-11.3967
▁түптөө	-11.3968
▁мүнөздүү	-11.3968
▁эсептелип	-11.3968
▁жарыялашты	-11.3969
▁чемпионатына	-11.3969
▁көзүм	-11.3969
▁Эрнис	-11.397
▁элибиз	-11.397
▁токтолгон	-11.3971
▁жаткандыгын	-11.3973
▁каналында	-11.3973
▁Матраимовдор	-11.3974
▁өркүндөтүү	-11.3974
окто	-11.3976
▁Индонезия	-11.3976
▁азайтууга	-11.3978
▁кеткендиктен	-11.3978
▁оп	-11.3978
▁кирбеген	-11.3978
▁операцияны	-11.3978
▁көзөмөлдөйт	-11.3979
▁заводунун	-11.3979
▁караштагы	-11.3979
▁Соттор	-11.3983
▁куш	-11.3984
▁Чолпонбек	-11.3986
▁жолтоо	-11.3988
▁облустагы	-11.3989
▁оюнчулар	-11.3989
▁добушка	-11.399
▁келечегине	-11.3991
▁козголгону	-11.3992
▁тутуу	-11.3993
▁Бара	-11.3993
▁Ошту	-11.3994
▁жакшыраак	-11.3995
▁долбоорлорго	-11.4001
▁Жээнбековду	-11.4003
леринин	-11.4004
▁окуясынын	-11.4004
▁дарылоого	-11.4004
▁бөлмө	-11.4005
▁коммуникация	-11.4006
▁элекмин	-11.4006
▁зона	-11.4007
▁текшере	-11.4008
▁то	-11.4011
▁кызматташтыктын	-11.4011
▁сурай	-11.4012
▁туурасында	-11.4013
▁ыкмалары	-11.4013
сүң	-11.4015
▁саясатчыларды	-11.4017
лордо	-11.4017
лав	-11.4017
▁бергендердин	-11.4018
▁жыт	-11.4018
▁кеңешип	-11.402
урмат	-11.4021
▁тартылганын	-11.4024
шов	-11.4026
▁рыногунда	-11.4026
▁кагылыш	-11.4027
▁көзөмөлдөн	-11.4027
июнунда	-11.403
каналы	-11.4033
▁каттоосун	-11.4036
▁оорулардын	-11.4038
рес	-11.4039
▁экспорттоо	-11.404
▁Алыкул	-11.404
▁китепке	-11.4044
▁Во	-11.4048
ro	-11.4052
▁өрттө	-11.4055
▁техникасын	-11.406
сентябрдан	-11.406
▁жолундагы	-11.406
▁калтырбай	-11.4061
▁көчүр	-11.4062
▁Садыков	-11.4064
▁камалганын	-11.4066
Финансы	-11.4069
Ысык	-11.4069
▁кетишкенин	-11.407
▁митингде	-11.407
▁коргонуучу	-11.4071
▁Баарыбыз	-11.4075
▁сайтты	-11.4076
▁кемчиликтери	-11.4077
▁Дамир	-11.4078
▁баарында	-11.4078
▁аймактарынан	-11.4079
▁жумага	-11.4079
▁көрүүчүлөр	-11.4079
▁болдубу	-11.4081
▁чыгарганы	-11.4083
▁табияты	-11.4083
▁бөгөттө	-11.4086
▁демократ	-11.409
▁трансформация	-11.4094
▁ордени	-11.4095
▁өлкөсүнө	-11.4097
▁Сабыр	-11.4102
▁булактарын	-11.4102
▁тоют	-11.4103
▁чөйрөсүндө	-11.4104
▁чечүүдө	-11.4105
▁психолог	-11.4105
▁куда	-11.4105
▁Калифорния	-11.4106
▁Ухань	-11.4106
▁агрессивдүү	-11.4106
▁оркестр	-11.4106
▁Өнүктүрүү	-11.4106
▁аэродром	-11.4106
▁доклад	-11.4106
▁сымал	-11.4106
▁Махабат	-11.4106
▁Имран	-11.4106
▁күжүрмөн	-11.4106
▁оккупацияланган	-11.4106
▁ойдомун	-11.4107
▁телеграм	-11.4108
▁Мурунку	-11.411
▁сүйлөй	-11.411
▁Аалы	-11.411
▁кейип	-11.411
▁каржыланган	-11.4111
▁салгылашуулар	-11.4111
▁маалыматтан	-11.4112
▁артыкчылыктуу	-11.4112
▁өзүңүз	-11.4113
▁даражадагы	-11.4114
▁Адегенде	-11.4115
▁көтөрүлө	-11.4115
▁байланышын	-11.4116
▁жобосу	-11.4118
▁аксакалдар	-11.4118
▁авторлорунун	-11.4119
▁түшүр	-11.4119
▁кылалы	-11.4119
▁канчалаган	-11.4121
▁казган	-11.4122
▁Бая	-11.4122
▁кабинетине	-11.4123
▁төп	-11.4124
▁жаңылоо	-11.4124
▁за	-11.4125
▁калабы	-11.4125
▁ийген	-11.4128
хат	-11.4128
▁замандын	-11.4129
▁күндөрдө	-11.413
▁альянсы	-11.413
▁чыңдоого	-11.4131
▁экенсиң	-11.4131
▁Иликтөө	-11.4132
▁элчиликке	-11.4132
▁Германиядагы	-11.4132
▁жүрүштү	-11.4133
далган	-11.4135
▁дарыкана	-11.4135
▁маалыматтарына	-11.4137
▁окуяларда	-11.414
▁15%	-11.4141
▁Сербиянын	-11.4142
сар	-11.4148
▁улуту	-11.4151
▁Кино	-11.4152
▁Аг	-11.4157
▁сайттар	-11.4157
▁жабыркагандарды	-11.4157
▁жүрүүчү	-11.4157
теле	-11.416
▁жоготуулары	-11.4162
▁өзгөчөлүктөрү	-11.4163
кыч	-11.4166
▁коюл	-11.4168
олку	-11.4169
▁президенттердин	-11.417
▁жүгүртүүнү	-11.417
▁шал	-11.417
имде	-11.4174
▁киргизиле	-11.4176
▁гектарга	-11.4176
▁артты	-11.4176
▁жөндөм	-11.4176
▁Санарип	-11.4182
▁сириялык	-11.4182
ром	-11.4183
▁талкаланды	-11.4188
▁кабарды	-11.4193
бектин	-11.4193
▁квартал	-11.4193
доого	-11.4197
▁Фо	-11.4198
▁журту	-11.4198
▁Гор	-11.4198
АК	-11.4198
▁Союз	-11.42
▁учкуч	-11.4201
газ	-11.4203
▁жаранына	-11.4204
журт	-11.4205
бегени	-11.4205
▁Сулайман	-11.4208
Тилек	-11.421
лгон	-11.4211
▁фермерлер	-11.4211
▁кыялдан	-11.4212
▁досум	-11.4214
▁изде	-11.4216
▁бюллетен	-11.4219
▁офицерлер	-11.4222
лыкты	-11.4222
▁курам	-11.4223
намыс	-11.4223
▁Бас	-11.4225
▁катында	-11.4226
▁убактысын	-11.4231
▁үстү	-11.4232
пасын	-11.4232
стер	-11.4232
иктер	-11.4233
▁багыттарын	-11.4233
▁операциянын	-11.4234
▁Кубан	-11.4235
▁кириш	-11.4236
▁Элдар	-11.4237
▁Ливия	-11.4238
▁тээ	-11.424
▁Жоробеков	-11.424
▁жарымында	-11.424
чев	-11.4242
пек	-11.4243
▁Ростов	-11.4247
▁стресс	-11.4247
▁Авдеевка	-11.4247
▁Мамдума	-11.4247
▁Мурзахалилов	-11.4247
▁ЮНЕСКО	-11.4247
▁мылтык	-11.4247
▁православ	-11.4247
▁түптөгөн	-11.4247
▁башчылыгына	-11.4247
▁дизел	-11.4247
▁жүргүзүлүүдө	-11.4247
▁Балбак	-11.4247
▁жетинчи	-11.4247
▁жугуп	-11.4247
▁түртүп	-11.4247
▁соттолду	-11.4248
▁наристе	-11.4248
▁зордуктаган	-11.4248
▁эвакуацияланган	-11.4248
▁өкүнүчтүү	-11.4249
▁диплому	-11.4249
▁Жозе	-11.425
берг	-11.425
▁актриса	-11.4251
▁жактуу	-11.4251
▁бөлүндү	-11.4251
▁катышуучулар	-11.4251
▁титире	-11.4251
▁жарыкка	-11.4251
▁айдоочулардын	-11.4253
▁байырлаган	-11.4253
▁Акрам	-11.4253
▁мөөнөттү	-11.4255
▁Керим	-11.4255
▁Бор	-11.4256
▁Айла	-11.4257
▁өлчөмүн	-11.4257
▁топтому	-11.4258
▁көтөрүлөт	-11.4258
октябрды	-11.426
▁опузалап	-11.4262
▁соз	-11.4262
▁кайык	-11.4263
▁албады	-11.4263
▁азайт	-11.4263
▁болчумун	-11.4264
▁ыкмаларды	-11.4265
▁боюндагы	-11.4265
▁тизмени	-11.4265
▁чыгарса	-11.4268
▁Өмүралиев	-11.4269
▁суукта	-11.4269
лбаганы	-11.427
▁бизнеси	-11.4271
▁жыйнагы	-11.4273
▁медианын	-11.4275
▁процессин	-11.4276
▁айласы	-11.4277
▁Тегеранды	-11.4278
▁сүйлөштүк	-11.4281
тугу	-11.4283
▁падышалык	-11.4283
▁Ырас	-11.4284
кыз	-11.4285
тра	-11.4286
▁Катардын	-11.4287
▁суроолору	-11.4288
▁Швециянын	-11.4288
▁коюла	-11.4289
▁Россияга	-11.429
▁түшүнүктөр	-11.4295
▁өкүлүнө	-11.4295
▁жумгандарды	-11.4296
▁тергөөчүсү	-11.4298
арат	-11.4298
▁бетке	-11.4298
▁сактагыч	-11.4301
▁салыгы	-11.4303
▁кылсак	-11.4304
класста	-11.4304
▁асманда	-11.4306
ото	-11.4307
▁арак	-11.4307
▁сыйлыгын	-11.4308
▁Макалада	-11.4313
▁көйгөйлөрү	-11.4313
▁басымдуулук	-11.4314
▁Мусулмандар	-11.4314
▁дрондору	-11.4316
▁ашырууда	-11.4317
76	-11.4317
▁өскөнүн	-11.4318
▁студенттери	-11.4319
эч	-11.4319
▁жомок	-11.432
▁уланган	-11.432
▁Москваны	-11.432
▁жою	-11.4322
▁метрлик	-11.4323
▁Дж	-11.4323
▁Гонконгдо	-11.4324
▁Оюн	-11.4328
▁уюмдарынын	-11.4328
▁заманында	-11.4329
88	-11.4329
алымдар	-11.4331
▁улуусу	-11.4332
сөз	-11.4333
▁жайдан	-11.4335
▁менде	-11.4337
▁жайып	-11.4337
▁чектөөгө	-11.4337
▁жасаганын	-11.4338
▁жазганын	-11.434
ташы	-11.4341
▁бөлүмүн	-11.4342
▁себепкер	-11.4343
▁уулум	-11.4344
▁пакет	-11.4344
▁Оорукана	-11.4346
▁чыгармалар	-11.4348
▁Китеп	-11.4348
лбей	-11.4349
▁оюндарын	-11.435
февраль	-11.4353
гул	-11.4353
гуманитардык	-11.4353
▁бутуна	-11.4355
▁бүтпөй	-11.4355
▁үлгүсү	-11.4355
▁карызын	-11.4356
▁кетүүдө	-11.4356
Дастан	-11.4356
▁кайна	-11.4357
▁котор	-11.4357
▁Ант	-11.4358
▁Жактоочу	-11.4359
▁ир	-11.436
▁Сенатта	-11.436
▁вирусун	-11.4362
▁турум	-11.4362
▁корутундусу	-11.4363
▁калайык	-11.4366
▁карамагында	-11.4366
▁кыргыздарды	-11.4366
▁дооматы	-11.4374
▁салгылаш	-11.4375
▁кыймылда	-11.4375
▁акыр	-11.4376
▁телеканалды	-11.4376
▁макта	-11.4377
▁тилкеде	-11.438
ak	-11.438
▁көрсөткүчтө	-11.4381
▁Вол	-11.4381
▁курулушка	-11.4383
▁баруудан	-11.4384
мурдагы	-11.4384
гиси	-11.4388
▁жөнөтө	-11.4388
j	-11.4389
▁Идлиб	-11.4389
▁эксперимент	-11.4389
Свобода	-11.439
▁Елена	-11.439
▁Кошумча	-11.439
▁Марокко	-11.439
▁Ноокен	-11.439
▁далаалат	-11.439
▁куттуктап	-11.439
▁опурталдуу	-11.439
▁тапанча	-11.439
▁Салтанат	-11.439
▁татыган	-11.439
▁демократиянын	-11.439
▁Хорог	-11.439
▁кийимчен	-11.439
▁ыктаган	-11.439
▁алаамат	-11.439
▁интервьюсунда	-11.439
▁аткарылып	-11.4392
▁тегерек	-11.4395
▁чакырыш	-11.4395
▁өкүлчүлүгүнүн	-11.4396
▁макалада	-11.4396
▁Ян	-11.4397
▁баам	-11.4398
яз	-11.4399
▁Илья	-11.4399
дуулугу	-11.4399
▁Жумагулов	-11.44
▁бекемдеп	-11.44
▁авариялык	-11.4401
▁тилкат	-11.4402
▁мененки	-11.4402
▁Майкл	-11.4403
▁китебин	-11.4404
▁бербесе	-11.4405
▁анклавы	-11.4406
▁нес	-11.4407
ие	-11.4408
▁аралыктагы	-11.4409
▁чарбасын	-11.441
▁терезе	-11.4411
▁кыскартылган	-11.4411
▁КР	-11.4412
▁ойлойсуз	-11.4414
▁сотторго	-11.4414
▁кадамдарды	-11.4414
▁иштешип	-11.4415
▁тажа	-11.4417
▁денеси	-11.4418
▁маанайы	-11.4419
▁кайтуу	-11.4421
Му	-11.4422
▁курмандыктарын	-11.4422
▁салыгын	-11.4423
ликтен	-11.4423
▁аткарат	-11.4424
▁оогандык	-11.4424
65	-11.4425
▁реформасы	-11.4426
▁өткөр	-11.4427
▁согуштагы	-11.4428
▁жалын	-11.443
▁рыногуна	-11.4431
▁аткарыл	-11.4432
чык	-11.4433
▁болгондугу	-11.4435
▁Шамшиев	-11.4437
▁чараларга	-11.4438
45	-11.4438
улло	-11.4441
▁Сын	-11.4443
▁260	-11.4443
,6%	-11.4445
▁Султанов	-11.4445
▁астындагы	-11.4446
▁тыйындан	-11.4446
▁күнөөнү	-11.4447
▁карызга	-11.4448
▁мөңгүлөрдү	-11.445
▁салгандар	-11.445
▁Тегеранда	-11.445
▁максаттар	-11.4451
▁калууну	-11.4454
кова	-11.4456
▁Хай	-11.4456
▁Пентагон	-11.4456
▁Сак	-11.4457
▁2000	-11.4465
вал	-11.4469
ита	-11.4471
▁командасын	-11.4471
▁Гар	-11.4472
▁1...6,	-11.4472
▁жетишкендиктер	-11.4474
иңер	-11.4475
▁жабырка	-11.4478
▁көздөн	-11.4479
▁кептер	-11.448
▁Баа	-11.4484
▁картасы	-11.4487
▁сайып	-11.449
▁Мер	-11.4491
▁Калгандары	-11.4491
эк	-11.4497
▁кеңешмени	-11.4497
Ц	-11.4498
▁окуяларында	-11.4499
[...]
