<unk>	0
<s>	0
</s>	0
▁к	-0
ан	-1
ар	-2
▁б	-3
ын	-4
ал	-5
▁ж	-6
да	-7
ен	-8
ат	-9
ин	-10
▁т	-11
ер	-12
▁м	-13
ай	-14
уу	-15
▁с	-16
ол	-17
кт	-18
ыл	-19
▁э	-20
ган	-21
үн	-22
▁д	-23
ор	-24
ир	-25
ун	-26
▁а	-27
ды	-28
гы	-29
ур	-30
он	-31
ил	-32
ет	-33
ия	-34
ст	-35
▁ч	-36
ек	-37
▁А	-38
га	-39
ул	-40
▁ө	-41
шт	-42
ыр	-43
▁ал	-44
ел	-45
ам	-46
▁Б	-47
▁К	-48
ык	-49
▁"	-50
ак	-51
өр	-52
ас	-53
ып	-54
оо	-55
ик	-56
▁ай	-57
өн	-58
▁,	-59
▁бол	-60
▁и	-61
үү	-62
шк	-63
▁де	-64
▁о	-65
ары	-66
дын	-67
тт	-68
ген	-69
ап	-70
ди	-71
де	-72
▁п	-73
▁ба	-74
ук	-75
▁мен	-76
ында	-77
ыз	-78
▁да	-79
ана	-80
үр	-81
▁менен	-82
из	-83
аб	-84
▁М	-85
дар	-86
▁н	-87
ий	-88
▁жана	-89
▁кар	-90
▁бир	-91
ок	-92
▁жа	-93
ым	-94
атт	-95
▁эл	-96
▁ар	-97
▁у	-98
▁ко	-99
кан	-100
ов	-101
▁бер	-102
дө	-103
стан	-104
дан	-105
ый	-106
ес	-107
▁ү	-108
ог	-109
▁жат	-110
ей	-111
▁О	-112
▁кө	-113
▁Ж	-114
им	-115
ус	-116
▁2	-117
ча	-118
▁Т	-119
▁1	-120
ция	-121
▁эк	-122
▁С	-123
▁кел	-124
лар	-125
уп	-126
үл	-127
гыз	-128
өл	-129
ына	-130
ра	-131
аны	-132
▁ш	-133
ыргыз	-134
▁ма	-135
▁деп	-136
ев	-137
ма	-138
ист	-139
ип	-140
ге	-141
тк	-142
ре	-143
ду	-144
▁тур	-145
гө	-146
ги	-147
▁-	-148
▁бар	-149
ынын	-150
ыш	-151
ден	-152
▁тар	-153
алган	-154
▁бо	-155
етт	-156
ект	-157
ка	-158
юн	-159
▁кыз	-160
гон	-161
дин	-162
дык	-163
▁ат	-164
ли	-165
▁бил	-166
▁айт	-167
ба	-168
▁өз	-169
▁со	-170
▁эм	-171
дагы	-172
үз	-173
аз	-174
нын	-175
ск	-176
▁У	-177
үп	-178
▁жар	-179
дам	-180
▁эле	-181
өт	-182
▁үч	-183
▁чы	-184
аган	-185
ку	-186
ит	-187
еп	-188
ем	-189
сы	-190
иш	-191
▁Ал	-192
▁Кыргыз	-193
уш	-194
анын	-195
айл	-196
▁кат	-197
гөн	-198
бек	-199
▁та	-200
▁кыл	-201
▁өл	-202
▁ишт	-203
алык	-204
▁ор	-205
дир	-206
алуу	-207
зи	-208
ери	-209
▁боюн	-210
алым	-211
▁боюнча	-212
ум	-213
▁р	-214
▁бул	-215
инин	-216
уз	-217
мат	-218
▁Э	-219
▁билдир	-220
▁Кыргызстан	-221
▁20	-222
▁.	-223
▁болгон	-224
▁туу	-225
▁жыл	-226
дай	-227
үй	-228
от	-229
▁үчүн	-230
инде	-231
го	-232
▁кай	-233
▁маалым	-234
жыл	-235
▁көр	-236
▁кор	-237
▁кал	-238
▁И	-239
▁жаткан	-240
ең	-241
еч	-242
шы	-243
үм	-244
▁са	-245
до	-246
▁кол	-247
лек	-248
▁то	-249
▁иш	-250
инист	-251
▁жол	-252
рези	-253
▁мам	-254
резиден	-255
▁өлк	-256
ут	-257
гил	-258
ктар	-259
дук	-260
ине	-261
▁каб	-262
үк	-263
▁Ор	-264
ег	-265
▁адам	-266
▁ком	-267
ерл	-268
инистр	-269
▁жет	-270
ом	-271
▁тал	-272
үш	-273
▁Бул	-274
▁күн	-275
үч	-276
усия	-277
аар	-278
▁деген	-279
ады	-280
▁башк	-281
▁жүр	-282
▁ак	-283
▁Д	-284
▁экен	-285
▁Бир	-286
▁П	-287
ылган	-288
чу	-289
еш	-290
лык	-291
▁кан	-292
дун	-293
чи	-294
▁кызмат	-295
▁кур	-296
бай	-297
▁жок	-298
▁кер	-299
▁кет	-300
▁болуп	-301
▁мамлек	-302
▁кий	-303
аш	-304
зам	-305
▁өк	-306
▁баш	-307
ейин	-308
▁дагы	-309
ооп	-310
өө	-311
▁Орусия	-312
▁ми	-313
чы	-314
▁чейин	-315
унун	-316
та	-317
▁Н	-318
ынан	-319
кы	-320
шкан	-321
ууга	-322
лан	-323
▁туур	-324
▁президен	-325
үндө	-326
▁жер	-327
асы	-328
▁тууралуу	-329
▁Ош	-330
уг	-331
▁ф	-332
▁уч	-333
▁аз	-334
▁бел	-335
▁Ан	-336
үг	-337
ав	-338
▁жаз	-339
алар	-340
уна	-341
▁турган	-342
арт	-343
ыйзам	-344
дер	-345
▁эмес	-346
▁кийин	-347
ян	-348
дик	-349
унда	-350
бл	-351
▁кир	-352
чыл	-353
ишк	-354
▁ул	-355
▁жак	-356
▁3	-357
▁бас	-358
кен	-359
дү	-360
▁жатат	-361
▁ка	-362
ез	-363
еб	-364
ыкт	-365
ерлер	-366
▁керек	-367
дон	-368
▁өт	-369
▁чыг	-370
икт	-371
▁башт	-372
бо	-373
▁Ө	-374
▁мыйзам	-375
үнө	-376
▁(	-377
▁шаар	-378
▁сал	-379
▁министр	-380
агы	-381
ки	-382
▁алып	-383
чул	-384
яс	-385
▁алар	-386
▁бий	-387
уун	-388
▁биз	-389
▁мамлекетт	-390
▁Р	-391
▁өтк	-392
▁учур	-393
▁ан	-394
бр	-395
▁мил	-396
аттар	-397
▁маалымат	-398
ээ	-399
ке	-400
укт	-401
ент	-402
▁көп	-403
дөр	-404
▁үй	-405
▁алган	-406
сыз	-407
▁эки	-408
ору	-409
ага	-410
▁бал	-411
▁кам	-412
өм	-413
▁ук	-414
▁байл	-415
өз	-416
▁белгил	-417
ро	-418
ман	-419
ябр	-420
▁аны	-421
▁анын	-422
уул	-423
▁л	-424
раин	-425
тер	-426
▁тарт	-427
▁шайл	-428
▁жай	-429
дары	-430
аж	-431
▁з	-432
жылы	-433
▁Г	-434
▁көз	-435
үнүн	-436
▁Ч	-437
▁мур	-438
▁в	-439
▁күч	-440
▁байланы	-441
▁миң	-442
▁ош	-443
▁түз	-444
ушт	-445
ял	-446
арл	-447
▁ую	-448
иши	-449
ышт	-450
▁ич	-451
▁кыргыз	-452
..	-453
өлөр	-454
ис	-455
ылуу	-456
▁мас	-457
▁дол	-458
уст	-459
▁чеч	-460
өй	-461
▁келген	-462
▁Аз	-463
еле	-464
егиз	-465
▁Бирок	-466
инчи	-467
▁чыгар	-468
▁Бишк	-469
▁айма	-470
▁сөз	-471
▁ин	-472
дардын	-473
гү	-474
▁саяс	-475
▁президент	-476
ран	-477
▁жары	-478
чил	-479
▁Ук	-480
▁билдирди	-481
утт	-482
ындагы	-483
▁жаш	-484
▁экенин	-485
▁өн	-486
ыт	-487
ыйын	-488
▁жаң	-489
▁оку	-490
иев	-491
▁Ш	-492
▁өлкө	-493
алы	-494
▁жөн	-495
▁ок	-496
▁жаран	-497
то	-498
ив	-499
▁обл	-500
төр	-501
ты	-502
оом	-503
үүгө	-504
▁каршы	-505
күн	-506
мө	-507
▁чык	-508
▁Украин	-509
▁аб	-510
▁төр	-511
▁башка	-512
▁аш	-513
скер	-514
▁уш	-515
огор	-516
баев	-517
▁бөл	-518
▁көрс	-519
доо	-520
▁түш	-521
орб	-522
▁ты	-523
00	-524
▁5	-525
▁тер	-526
со	-527
▁4	-528
▁ил	-529
▁иштер	-530
уга	-531
аттык	-532
иянын	-533
акыр	-534
са	-535
ууда	-536
суз	-537
үмкүн	-538
▁оор	-539
икалык	-540
азак	-541
▁Алар	-542
өш	-543
▁мүмкүн	-544
▁байланышт	-545
▁эс	-546
▁же	-547
ктан	-548
▁чыгы	-549
▁кандай	-550
аров	-551
▁бери	-552
си	-553
▁шайлоо	-554
▁болду	-555
▁ре	-556
еси	-557
елер	-558
▁карм	-559
▁мак	-560
айон	-561
гын	-562
▁га	-563
алдык	-564
ейт	-565
▁мамлекеттик	-566
ада	-567
▁калган	-568
сынын	-569
алды	-570
дуу	-571
огорку	-572
▁202	-573
гында	-574
лик	-575
йт	-576
дөн	-577
еген	-578
▁кош	-579
▁сур	-580
▁негиз	-581
▁район	-582
▁ган	-583
▁талап	-584
ация	-585
▁коом	-586
орбор	-587
инен	-588
▁В	-589
ыркы	-590
аза	-591
иция	-592
▁болот	-593
▁Е	-594
▁гана	-595
▁201	-596
арын	-597
▁түр	-598
алып	-599
чү	-600
▁эми	-601
▁чек	-602
акт	-603
▁ач	-604
өнүн	-605
▁чакыр	-606
еди	-607
сп	-608
▁кооп	-609
оң	-610
үйн	-611
0-	-612
иялык	-613
▁алын	-614
▁министрли	-615
айын	-616
▁тап	-617
үт	-618
дыр	-619
▁бийли	-620
▁эр	-621
дүн	-622
тур	-623
▁ав	-624
дор	-625
▁пр	-626
ябрда	-627
▁киши	-628
▁дар	-629
▁чыккан	-630
окт	-631
▁жас	-632
иг	-633
үнү	-634
▁арак	-635
лөр	-636
▁кабыл	-637
гиз	-638
уну	-639
ара	-640
▁Жап	-641
▁айып	-642
▁жыйын	-643
▁жаңы	-644
▁байланыштуу	-645
▁жатканын	-646
▁кою	-647
▁катт	-648
▁сакт	-649
▁Биз	-650
▁токт	-651
▁айтып	-652
ентт	-653
▁катары	-654
об	-655
▁жооп	-656
ындай	-657
айт	-658
▁Кыргызстандын	-659
ци	-660
чулар	-661
дүү	-662
▁уюм	-663
▁топ	-664
",	-665
чүл	-666
ания	-667
▁19	-668
▁жал	-669
▁аралык	-670
иб	-671
▁Казак	-672
▁6	-673
▁депут	-674
КШ	-675
▁сүй	-676
мөт	-677
▁кылм	-678
▁7	-679
ондо	-680
▁алдын	-681
▁тарап	-682
▁Өз	-683
▁Ак	-684
чө	-685
асын	-686
▁АКШ	-687
▁кең	-688
ыс	-689
▁өткөр	-690
рам	-691
▁ишк	-692
ешт	-693
епт	-694
тар	-695
рым	-696
▁берген	-697
тты	-698
▁Ф	-699
▁өкүл	-700
▁кыр	-701
▁кызм	-702
гоо	-703
▁парт	-704
▁сот	-705
сү	-706
ууну	-707
▁масел	-708
▁берил	-709
▁милли	-710
▁сом	-711
ени	-712
ашт	-713
▁пай	-714
▁кызматк	-715
ылып	-716
▁айыл	-717
▁комп	-718
уттук	-719
▁кый	-720
аты	-721
▁кеткен	-722
▁сан	-723
▁облус	-724
▁Л	-725
чысы	-726
▁ыл	-727
кин	-728
▁Жапаров	-729
▁атк	-730
▁жум	-731
▁Орусиянын	-732
▁тол	-733
▁тил	-734
▁болсо	-735
үкт	-736
▁Казакстан	-737
▁айткан	-738
асм	-739
асында	-740
▁ур	-741
▁көб	-742
онав	-743
уб	-744
▁Жогорку	-745
сия	-746
▁сун	-747
үгүн	-748
▁сог	-749
еги	-750
▁чечим	-751
дарды	-752
оном	-753
ышы	-754
▁долбо	-755
арлам	-756
онавир	-757
▁Анын	-758
▁сүйл	-759
▁:	-760
не	-761
▁Кыргызстанда	-762
▁коопсуз	-763
▁Ай	-764
▁ошол	-765
▁кайра	-766
▁кайр	-767
яр	-768
▁кез	-769
▁кой	-770
үүдө	-771
ика	-772
▁дин	-773
▁жетек	-774
сун	-775
гына	-776
▁деди	-777
быз	-778
▁Х	-779
▁көрсөт	-780
нал	-781
▁караган	-782
▁билдирген	-783
үлгөн	-784
▁Ул	-785
▁жардам	-786
▁чет	-787
▁ой	-788
1-	-789
ыгы	-790
▁Ев	-791
беков	-792
▁Бишкект	-793
▁окуя	-794
▁8	-795
ытай	-796
дүр	-797
Аз	-798
▁кон	-799
▁г	-800
ышат	-801
иде	-802
▁дүйн	-803
үрк	-804
▁",	-805
адыр	-806
тан	-807
ест	-808
ушу	-809
▁ылай	-810
урнал	-811
шкы	-812
▁алуу	-813
тор	-814
▁коргоо	-815
ылды	-816
▁жакын	-817
▁мурдагы	-818
се	-819
▁жашт	-820
▁партия	-821
гер	-822
ети	-823
▁ыр	-824
абыз	-825
мар	-826
шка	-827
ла	-828
▁жолу	-829
огон	-830
▁Ар	-831
▁жүрг	-832
тыр	-833
кү	-834
▁уба	-835
ой	-836
▁өткөн	-837
▁эч	-838
▁жаб	-839
▁ап	-840
асмий	-841
▁албай	-842
орт	-843
▁киргиз	-844
▁кызматт	-845
улган	-846
су	-847
оого	-848
урналист	-849
▁бай	-850
▁сат	-851
▁учурда	-852
▁Кең	-853
▁өлкөлөр	-854
▁аскер	-855
▁ары	-856
▁Аб	-857
▁колдон	-858
▁өкмөт	-859
▁9	-860
▁ылайык	-861
▁Бат	-862
гөр	-863
кта	-864
▁бири	-865
▁алды	-866
▁азыр	-867
алда	-868
▁Кытай	-869
роп	-870
▁айтты	-871
▁ара	-872
екем	-873
кты	-874
олог	-875
▁өзгөр	-876
▁отур	-877
▁улам	-878
▁башкар	-879
иги	-880
тын	-881
өп	-882
▁парлам	-883
ондой	-884
▁орун	-885
ерди	-886
▁дем	-887
2-	-888
туу	-889
▁чыгып	-890
▁ге	-891
▁аба	-892
▁тү	-893
▁Ба	-894
дөрү	-895
▁акт	-896
рем	-897
▁из	-898
ата	-899
▁соң	-900
▁ушул	-901
▁коронавир	-902
▁президентт	-903
▁талк	-904
▁ичинде	-905
▁дан	-906
гун	-907
но	-908
▁Мен	-909
▁аныкт	-910
▁Түрк	-911
▁түшүн	-912
▁жүргүз	-913
▁аял	-914
кер	-915
▁берүү	-916
▁келиш	-917
▁май	-918
ышкан	-919
▁арк	-920
▁таб	-921
▁бирок	-922
▁кес	-923
▁сотт	-924
мия	-925
▁Мам	-926
▁долбоор	-927
ларды	-928
▁чоң	-929
тта	-930
▁дай	-931
атты	-932
▁алардын	-933
дөө	-934
▁келет	-935
анда	-936
▁Мо	-937
дей	-938
ышты	-939
▁караганда	-940
▁буз	-941
угу	-942
уучу	-943
...	-944
ттар	-945
▁ли	-946
дек	-947
сат	-948
▁Ат	-949
▁жалп	-950
иктүү	-951
▁караж	-952
▁З	-953
▁ага	-954
ири	-955
▁өзү	-956
▁калды	-957
ону	-958
▁компания	-959
дарга	-960
изм	-961
▁Бишкек	-962
▁мындай	-963
үүнү	-964
▁саясий	-965
▁ы	-966
▁каза	-967
ече	-968
▁жөнүндө	-969
▁жарыял	-970
сүн	-971
▁элек	-972
өөн	-973
▁журналист	-974
▁миллион	-975
үүлөр	-976
▁чар	-977
мүр	-978
▁оп	-979
өк	-980
алиев	-981
▁орто	-982
▁даяр	-983
▁ээ	-984
ындан	-985
▁айрым	-986
5-	-987
▁бийлик	-988
▁Эл	-989
▁тарма	-990
▁аркылуу	-991
▁болбо	-992
рел	-993
▁президенти	-994
▁сы	-995
ыкты	-996
▁ая	-997
▁ад	-998
аткан	-999
скв	-1000
▁борбор	-1001
акка	-1002
▁турат	-1003
▁деле	-1004
цин	-1005
8-	-1006
▁мл	-1007
▁эконом	-1008
ко	-1009
бекстан	-1010
гиликтүү	-1011
▁күр	-1012
ердин	-1013
▁Ма	-1014
▁саясат	-1015
▁кабар	-1016
▁Москв	-1017
▁тын	-1018
▁Эм	-1019
▁орус	-1020
▁катар	-1021
ос	-1022
▁келип	-1023
мер	-1024
өгөн	-1025
үгү	-1026
▁эң	-1027
ант	-1028
▁те	-1029
▁суу	-1030
▁сын	-1031
▁нече	-1032
▁мүч	-1033
▁Буга	-1034
▁расмий	-1035
▁биринчи	-1036
асына	-1037
▁көтөр	-1038
ерин	-1039
олор	-1040
▁Садыр	-1041
4-	-1042
▁он	-1043
асынын	-1044
инг	-1045
ерлери	-1046
▁аткар	-1047
▁нын	-1048
▁ст	-1049
сиз	-1050
▁катыш	-1051
▁Таж	-1052
▁жерде	-1053
▁ким	-1054
▁себ	-1055
3-	-1056
өлүк	-1057
жылдын	-1058
ыйыл	-1059
сын	-1060
▁кырда	-1061
вар	-1062
▁кылып	-1063
▁берип	-1064
▁чект	-1065
▁доллар	-1066
илген	-1067
убл	-1068
циалдык	-1069
▁иштеп	-1070
▁Кор	-1071
циялык	-1072
▁жакшы	-1073
▁дары	-1074
▁комит	-1075
Азаттык	-1076
▁кылган	-1077
▁турганын	-1078
бей	-1079
стит	-1080
▁коопсуздук	-1081
▁түн	-1082
етти	-1083
анды	-1084
гөө	-1085
өтк	-1086
▁Тажик	-1087
▁Өзбекстан	-1088
▁орган	-1089
▁күнү	-1090
▁жүргөн	-1091
▁кылмыш	-1092
шыр	-1093
▁жең	-1094
▁тий	-1095
ишт	-1096
▁буга	-1097
дөгү	-1098
▁чог	-1099
7-	-1100
МК	-1101
юл	-1102
ланган	-1103
▁эсепт	-1104
өмөл	-1105
аң	-1106
лор	-1107
▁Кар	-1108
▁төл	-1109
▁маан	-1110
▁)	-1111
▁атайын	-1112
▁алынган	-1113
▁ти	-1114
▁төрага	-1115
▁Кеңешт	-1116
ова	-1117
окур	-1118
▁эмне	-1119
ңг	-1120
▁жалпы	-1121
▁миг	-1122
▁кызматы	-1123
▁айыпт	-1124
▁көзөмөл	-1125
▁министрлиги	-1126
▁дүйнө	-1127
▁сүйлөш	-1128
▁иши	-1129
▁мамлекет	-1130
▁пик	-1131
▁сыр	-1132
▁өлкөнүн	-1133
онун	-1134
гинин	-1135
6-	-1136
▁бардык	-1137
▁Улуттук	-1138
алат	-1139
енин	-1140
▁кабарл	-1141
тир	-1142
өтт	-1143
▁Ошол	-1144
▁коронавирус	-1145
▁туура	-1146
пай	-1147
окум	-1148
ерг	-1149
▁Жал	-1150
▁аракет	-1151
ала	-1152
ылык	-1153
огу	-1154
еке	-1155
▁Тажикстан	-1156
аг	-1157
▁комис	-1158
▁иликт	-1159
▁Со	-1160
▁ишке	-1161
▁меди	-1162
лардын	-1163
▁курул	-1164
штур	-1165
дүк	-1166
▁Президен	-1167
шкөн	-1168
екш	-1169
▁берди	-1170
▁Борбор	-1171
алан	-1172
есп	-1173
түү	-1174
гөчө	-1175
еттик	-1176
▁акча	-1177
▁ң	-1178
руп	-1179
▁мект	-1180
мөтт	-1181
ктуу	-1182
▁кеңеш	-1183
▁болчу	-1184
густ	-1185
▁эксп	-1186
9-	-1187
▁ачык	-1188
▁башчысы	-1189
оп	-1190
▁эскер	-1191
▁коз	-1192
май	-1193
▁Уш	-1194
▁бийликт	-1195
рат	-1196
▁келишим	-1197
▁Ы	-1198
▁жан	-1199
▁Европ	-1200
▁карата	-1201
▁беш	-1202
▁багы	-1203
чылар	-1204
чылык	-1205
пи	-1206
▁Алардын	-1207
ымында	-1208
▁элект	-1209
▁кач	-1210
лер	-1211
январ	-1212
▁кы	-1213
▁жаг	-1214
▁сактоо	-1215
▁социалдык	-1216
ерс	-1217
абр	-1218
еспубл	-1219
▁сунушт	-1220
▁прокур	-1221
▁Азыр	-1222
министр	-1223
бүл	-1224
▁аймактар	-1225
▁жатышат	-1226
ах	-1227
дуктан	-1228
▁кошум	-1229
▁арыз	-1230
▁саны	-1231
▁абал	-1232
ед	-1233
▁10	-1234
▁ден	-1235
▁айтымында	-1236
атур	-1237
▁оорук	-1238
▁басма	-1239
▁жаштагы	-1240
дикт	-1241
▁баштаган	-1242
олгон	-1243
▁ди	-1244
▁курал	-1245
▁Эк	-1246
▁доб	-1247
▁баары	-1248
етинин	-1249
▁салуу	-1250
▁парламентт	-1251
аараз	-1252
КМК	-1253
▁уюштур	-1254
▁жог	-1255
ылат	-1256
▁сап	-1257
үшт	-1258
▁уул	-1259
бүз	-1260
▁киш	-1261
▁пикир	-1262
▁эн	-1263
▁жергиликтүү	-1264
▁чаб	-1265
ундай	-1266
▁актив	-1267
▁токтот	-1268
ри	-1269
деги	-1270
▁бан	-1271
▁эркин	-1272
арых	-1273
▁биздин	-1274
▁төрт	-1275
▁тергөө	-1276
▁ун	-1277
▁өтө	-1278
чиси	-1279
ьер	-1280
▁докум	-1281
▁кырдаал	-1282
▁камсыз	-1283
ны	-1284
▁Нур	-1285
▁облуст	-1286
ози	-1287
▁наараз	-1288
▁макул	-1289
▁маалыматтар	-1290
▁аск	-1291
▁200	-1292
ыктар	-1293
▁Азия	-1294
▁өтүп	-1295
▁Ин	-1296
▁мурда	-1297
▁арасында	-1298
▁Баткен	-1299
▁келтир	-1300
ылм	-1301
▁жолуг	-1302
▁белгилүү	-1303
▁мамил	-1304
▁көбөй	-1305
▁шаарында	-1306
тка	-1307
▁министри	-1308
дим	-1309
сына	-1310
мен	-1311
бад	-1312
▁мекем	-1313
▁Кеңештин	-1314
▁ишен	-1315
▁коюл	-1316
▁күчтөр	-1317
▁кеч	-1318
▁дал	-1319
▁Анда	-1320
есин	-1321
▁жүз	-1322
евр	-1323
үшү	-1324
▁милд	-1325
хн	-1326
▁адамдар	-1327
Абад	-1328
▁кармалган	-1329
▁Мамлек	-1330
гач	-1331
▁айында	-1332
▁жайга	-1333
еби	-1334
утин	-1335
рация	-1336
өкт	-1337
▁күрөш	-1338
ама	-1339
аттуу	-1340
ундагы	-1341
▁Кон	-1342
▁окуу	-1343
▁сист	-1344
▁Эр	-1345
▁таас	-1346
▁бош	-1347
▁Украина	-1348
▁аскердик	-1349
алам	-1350
юу	-1351
▁тапшыр	-1352
▁Ошон	-1353
▁маселе	-1354
апрел	-1355
▁Украинанын	-1356
▁ата	-1357
▁мөөн	-1358
ремьер	-1359
▁жылдан	-1360
аларды	-1361
▁сүр	-1362
аль	-1363
▁кыргызстан	-1364
кө	-1365
▁су	-1366
▁сыя	-1367
▁барып	-1368
оз	-1369
гин	-1370
▁таж	-1371
▁авто	-1372
▁милиция	-1373
▁өкмөтт	-1374
үлүп	-1375
▁Путин	-1376
▁жетекчил	-1377
арды	-1378
▁сп	-1379
▁билим	-1380
▁өр	-1381
ганын	-1382
▁на	-1383
▁бек	-1384
▁аген	-1385
▁тарых	-1386
овдун	-1387
бул	-1388
▁эт	-1389
▁аталган	-1390
▁акция	-1391
▁карап	-1392
▁жүрүп	-1393
▁толук	-1394
▁андан	-1395
дарын	-1396
сык	-1397
▁тынч	-1398
▁ра	-1399
▁сыяктуу	-1400
ганы	-1401
▁бүт	-1402
▁тартып	-1403
▁болушу	-1404
▁таан	-1405
▁ашык	-1406
▁зар	-1407
▁Андан	-1408
▁быз	-1409
ткени	-1410
▁корк	-1411
▁коомдук	-1412
▁Оо	-1413
▁кем	-1414
▁виде	-1415
▁жатканы	-1416
сунда	-1417
▁Ү	-1418
ардык	-1419
▁койгон	-1420
сан	-1421
▁15	-1422
ынча	-1423
ишкен	-1424
▁Ага	-1425
▁чабуул	-1426
▁кайт	-1427
штыр	-1428
▁алдында	-1429
тык	-1430
үрүү	-1431
▁иштеген	-1432
▁так	-1433
▁басары	-1434
▁комиссия	-1435
тик	-1436
ранттар	-1437
▁Кур	-1438
▁электр	-1439
▁башкы	-1440
▁түшүндүр	-1441
▁го	-1442
▁Бел	-1443
екшер	-1444
▁ойл	-1445
▁корруп	-1446
▁оюн	-1447
▁тиеш	-1448
ктын	-1449
алары	-1450
октябрда	-1451
▁төрагасы	-1452
▁лид	-1453
▁жарыя	-1454
▁болгонун	-1455
▁Из	-1456
▁пол	-1457
▁соңку	-1458
дап	-1459
▁быйыл	-1460
▁шар	-1461
ортт	-1462
▁лар	-1463
▁түнкү	-1464
▁млн	-1465
▁C	-1466
▁укук	-1467
ерге	-1468
унан	-1469
▁жара	-1470
▁Тал	-1471
▁райондук	-1472
▁агентт	-1473
▁сатып	-1474
▁Са	-1475
үнөн	-1476
▁айтылган	-1477
▁мыйзамсыз	-1478
▁чыкты	-1479
▁экинчи	-1480
ош	-1481
дүз	-1482
кат	-1483
ээн	-1484
▁өлкөдө	-1485
▁уз	-1486
▁текшер	-1487
кын	-1488
▁ички	-1489
▁бу	-1490
▁тургун	-1491
ерт	-1492
догон	-1493
ланды	-1494
▁жетк	-1495
▁салын	-1496
▁ушундай	-1497
▁про	-1498
▁бийлиги	-1499
ияда	-1500
▁өзгөчө	-1501
атта	-1502
▁х	-1503
▁тең	-1504
ылтыр	-1505
июн	-1506
▁өмүр	-1507
▁колдоо	-1508
▁билдирүү	-1509
улуп	-1510
▁там	-1511
▁эск	-1512
▁улуттук	-1513
раил	-1514
август	-1515
▁Мындан	-1516
▁Бай	-1517
▁добуш	-1518
▁аракетт	-1519
▁жыйынты	-1520
-1	-1521
демия	-1522
▁акыркы	-1523
▁илим	-1524
▁коомчул	-1525
▁техн	-1526
▁көрсөтк	-1527
ститу	-1528
аев	-1529
усу	-1530
▁өндүр	-1531
▁Мар	-1532
▁жылга	-1533
оода	-1534
▁ала	-1535
▁козг	-1536
▁тоб	-1537
▁ашуун	-1538
бир	-1539
▁мүчө	-1540
▁жеке	-1541
▁Министр	-1542
▁Мур	-1543
▁азыркы	-1544
▁аж	-1545
▁дейт	-1546
ерен	-1547
▁тышк	-1548
▁укукт	-1549
▁Иран	-1550
▁баз	-1551
шты	-1552
▁ды	-1553
декабр	-1554
▁оң	-1555
▁12	-1556
игин	-1557
▁министрлигинин	-1558
▁тышкары	-1559
▁бүгүн	-1560
▁Ошондой	-1561
емир	-1562
бы	-1563
тип	-1564
▁алгач	-1565
▁өкүлү	-1566
▁1-	-1567
▁кл	-1568
▁берет	-1569
▁күт	-1570
▁башталган	-1571
▁маалыматына	-1572
▁тан	-1573
др	-1574
ограм	-1575
чал	-1576
▁Ооган	-1577
▁Европа	-1578
▁АКШнын	-1579
▁бур	-1580
ктылуу	-1581
▁мүмкүнчүл	-1582
дарынын	-1583
▁Бишкекте	-1584
▁такт	-1585
▁ишкан	-1586
▁өзүнүн	-1587
▁анда	-1588
▁кызматкерлер	-1589
▁берилген	-1590
ңүл	-1591
▁дун	-1592
тко	-1593
екен	-1594
▁ыра	-1595
▁Эгер	-1596
▁жумуш	-1597
▁кайсы	-1598
▁күндүз	-1599
▁керект	-1600
▁таш	-1601
уунун	-1602
жан	-1603
озиция	-1604
▁ошондой	-1605
өрү	-1606
▁шаардык	-1607
▁согуш	-1608
бак	-1609
▁таасир	-1610
мак	-1611
ост	-1612
ттү	-1613
▁Москва	-1614
сент	-1615
▁экени	-1616
▁жеткир	-1617
▁Президент	-1618
▁Бак	-1619
▁тааны	-1620
▁УКМК	-1621
мыл	-1622
уулар	-1623
дарына	-1624
▁11	-1625
▁түнкүсүн	-1626
▁көч	-1627
▁бала	-1628
▁көңүл	-1629
▁активист	-1630
▁белгиледи	-1631
▁вир	-1632
▁Мындай	-1633
▁деңг	-1634
▁прокуратур	-1635
▁деңгээ	-1636
▁кен	-1637
▁президенттик	-1638
аттары	-1639
▁өкүлдөрү	-1640
▁тизм	-1641
ептер	-1642
▁соода	-1643
▁Жалал	-1644
▁маалымда	-1645
▁дын	-1646
▁жагдай	-1647
▁сый	-1648
мартта	-1649
етте	-1650
елүү	-1651
▁келди	-1652
иц	-1653
рит	-1654
▁тыюу	-1655
▁жазды	-1656
кул	-1657
▁барган	-1658
тон	-1659
атка	-1660
▁30	-1661
айым	-1662
▁негизги	-1663
▁систем	-1664
▁Жээн	-1665
▁ов	-1666
сак	-1667
▁Израил	-1668
▁Ооганстан	-1669
ардын	-1670
▁кайтар	-1671
▁медицин	-1672
деп	-1673
▁Кыргызстанга	-1674
▁экономикалык	-1675
▁100	-1676
егинде	-1677
чар	-1678
▁кезде	-1679
▁бөлүм	-1680
▁Анткени	-1681
дөй	-1682
▁ишин	-1683
абай	-1684
ылыш	-1685
▁улан	-1686
▁бере	-1687
фор	-1688
▁оо	-1689
юм	-1690
июл	-1691
▁пайда	-1692
▁зарыл	-1693
▁жарым	-1694
▁жетекчиси	-1695
▁комм	-1696
▁арал	-1697
ыктын	-1698
▁өзүн	-1699
майда	-1700
ушка	-1701
▁күй	-1702
▁жазган	-1703
▁жатабыз	-1704
дыктар	-1705
▁дайын	-1706
▁энерг	-1707
ият	-1708
▁кыймыл	-1709
▁шт	-1710
▁фон	-1711
▁пайд	-1712
▁алууга	-1713
▁салган	-1714
ткөн	-1715
▁жолугуш	-1716
▁2020-	-1717
▁учурунда	-1718
гынын	-1719
▁алма	-1720
имов	-1721
▁бошот	-1722
▁ир	-1723
▁алат	-1724
дж	-1725
елен	-1726
кция	-1727
терн	-1728
ээр	-1729
▁өнүкт	-1730
▁жогорку	-1731
▁изил	-1732
январда	-1733
▁Вла	-1734
▁ири	-1735
▁башкарм	-1736
▁Мамлекеттик	-1737
аттын	-1738
▁саб	-1739
▁котор	-1740
нун	-1741
▁чын	-1742
▁N	-1743
▁кетти	-1744
▁ади	-1745
▁Ысык	-1746
▁кирген	-1747
лам	-1748
ология	-1749
Көл	-1750
▁урук	-1751
▁иштери	-1752
▁коркуну	-1753
илүү	-1754
▁опер	-1755
▁журналисттер	-1756
гөй	-1757
▁жоопкер	-1758
▁уулу	-1759
▁максат	-1760
▁колдо	-1761
ич	-1762
аса	-1763
ттер	-1764
укка	-1765
ноябрда	-1766
▁Ошондуктан	-1767
дыгы	-1768
▁мөөнөт	-1769
эн	-1770
эр	-1771
августта	-1772
сүндө	-1773
▁жарандык	-1774
▁алка	-1775
оол	-1776
▁согушт	-1777
▁облусунун	-1778
▁тараб	-1779
▁жазылган	-1780
етин	-1781
▁Башкы	-1782
оолор	-1783
▁өлүм	-1784
▁басып	-1785
▁тышкы	-1786
дум	-1787
июнда	-1788
апрелде	-1789
▁белги	-1790
димир	-1791
▁канча	-1792
рес	-1793
гине	-1794
од	-1795
индеги	-1796
▁убактылуу	-1797
на	-1798
▁документт	-1799
▁украин	-1800
▁Владимир	-1801
▁Украинага	-1802
рд	-1803
▁түшкөн	-1804
▁Атам	-1805
▁факт	-1806
▁кылмышт	-1807
▁полиция	-1808
▁облусунда	-1809
диги	-1810
▁кит	-1811
деген	-1812
▁берен	-1813
▁айлан	-1814
▁жабыр	-1815
▁алты	-1816
▁Биринчи	-1817
▁мигранттар	-1818
бол	-1819
▁аларды	-1820
▁мун	-1821
▁депутат	-1822
▁маселелер	-1823
▁ажыр	-1824
ограмм	-1825
▁кү	-1826
бүлө	-1827
▁кызматынын	-1828
▁маанилүү	-1829
▁кызык	-1830
▁кийинки	-1831
▁оорукана	-1832
▁кап	-1833
▁бейт	-1834
▁уу	-1835
▁жоопкерчил	-1836
▁Чүй	-1837
елген	-1838
▁ын	-1839
▁белгилен	-1840
▁убак	-1841
▁шект	-1842
▁жый	-1843
▁премьер	-1844
▁?	-1845
▁салам	-1846
▁коррупция	-1847
даш	-1848
▁Уч	-1849
декабрда	-1850
▁ий	-1851
өнү	-1852
▁көй	-1853
▁кодек	-1854
▁ол	-1855
алдуу	-1856
▁шарт	-1857
хан	-1858
▁миңден	-1859
▁үст	-1860
▁Жээнбеков	-1861
▁башкармалы	-1862
▁келе	-1863
▁топт	-1864
▁катуу	-1865
▁иликтөө	-1866
▁саат	-1867
▁армия	-1868
ологиялык	-1869
▁кошумчал	-1870
мон	-1871
▁жоо	-1872
▁Кыргызстандагы	-1873
▁кала	-1874
емб	-1875
түр	-1876
▁Кам	-1877
▁2021-	-1878
▁Конститу	-1879
▁I	-1880
▁орусия	-1881
▁байк	-1882
▁жиб	-1883
Азаттыкка	-1884
▁сок	-1885
андемия	-1886
▁болгону	-1887
▁чейинки	-1888
угун	-1889
▁Дүйн	-1890
▁президенттин	-1891
▁Казакстандын	-1892
алап	-1893
▁план	-1894
▁кайрылуу	-1895
▁акч	-1896
▁сунуш	-1897
сентябрда	-1898
▁негизинде	-1899
баган	-1900
▁опп	-1901
▁калып	-1902
рор	-1903
▁кетип	-1904
итардык	-1905
▁башында	-1906
бөй	-1907
▁эрк	-1908
▁талапкер	-1909
▁бю	-1910
▁элдик	-1911
лары	-1912
орун	-1913
че	-1914
ябрь	-1915
▁элдин	-1916
▁13	-1917
арий	-1918
▁алкагында	-1919
▁аскерлер	-1920
▁деңгээл	-1921
▁Бал	-1922
▁имар	-1923
оону	-1924
етр	-1925
▁Атамбаев	-1926
ард	-1927
▁депутаттар	-1928
▁арт	-1929
ктагы	-1930
тке	-1931
▁окуялар	-1932
вок	-1933
акет	-1934
жы	-1935
▁куб	-1936
▁абдан	-1937
▁14	-1938
▁ку	-1939
▁ради	-1940
▁уруксат	-1941
ократ	-1942
дердин	-1943
▁2022-	-1944
▁бат	-1945
вест	-1946
рон	-1947
▁пайыз	-1948
▁мындан	-1949
▁жашоо	-1950
уучулар	-1951
▁сез	-1952
▁көйгөй	-1953
биз	-1954
▁Ушул	-1955
мо	-1956
аларын	-1957
▁көл	-1958
бейт	-1959
ишти	-1960
▁мадан	-1961
▁маш	-1962
▁ташт	-1963
▁Орусияда	-1964
,5	-1965
сө	-1966
ума	-1967
герлер	-1968
▁баштады	-1969
▁шайлоого	-1970
▁ый	-1971
▁өнөкт	-1972
▁ыкт	-1973
февр	-1974
▁Гер	-1975
▁адамдын	-1976
▁199	-1977
▁нер	-1978
сул	-1979
▁Учур	-1980
▁ык	-1981
өмөн	-1982
суна	-1983
▁айтылат	-1984
ымал	-1985
өшт	-1986
синин	-1987
▁бейтап	-1988
▁катышкан	-1989
▁каал	-1990
▁талкуу	-1991
үүчү	-1992
ти	-1993
▁дарыл	-1994
▁кыргызстандык	-1995
▁кабарлады	-1996
▁Эми	-1997
▁гы	-1998
▁сотко	-1999
▁сайын	-2000
андык	-2001
июлда	-2002
уктар	-2003
▁Маалым	-2004
омбул	-2005
▁Түркия	-2006
▁тез	-2007
▁өттү	-2008
есине	-2009
▁катчысы	-2010
▁жарат	-2011
▁жарыялаган	-2012
атый	-2013
▁көрүн	-2014
дет	-2015
мөн	-2016
▁алтын	-2017
стр	-2018
▁кызматкерлери	-2019
ого	-2020
▁18	-2021
атыйж	-2022
▁нерсе	-2023
▁Өк	-2024
▁жатып	-2025
▁кул	-2026
▁Таш	-2027
▁төмөн	-2028
ина	-2029
акч	-2030
▁Кан	-2031
гек	-2032
▁камакка	-2033
▁жашаган	-2034
реж	-2035
чүлөр	-2036
▁видео	-2037
▁эске	-2038
▁дир	-2039
▁көрүп	-2040
УУ	-2041
▁ашыр	-2042
▁млрд	-2043
▁мурун	-2044
▁жылдын	-2045
абы	-2046
▁мат	-2047
▁басым	-2048
итинг	-2049
асындагы	-2050
▁ордун	-2051
▁балдар	-2052
алим	-2053
акцин	-2054
иверс	-2055
▁көпчүл	-2056
▁им	-2057
▁Брит	-2058
▁жайгашкан	-2059
▁теле	-2060
догу	-2061
арым	-2062
▁Ис	-2063
▁Аны	-2064
▁туш	-2065
▁Учурда	-2066
▁жап	-2067
еттин	-2068
▁Кара	-2069
▁четке	-2070
▁фор	-2071
▁Ст	-2072
▁жеңил	-2073
VI	-2074
▁кр	-2075
амм	-2076
▁салып	-2077
▁тиешелүү	-2078
атор	-2079
▁өзгөрт	-2080
син	-2081
орон	-2082
▁уча	-2083
иштүү	-2084
ский	-2085
▁коркунуч	-2086
үйш	-2087
▁муну	-2088
лоо	-2089
▁Ток	-2090
ттан	-2091
▁Белар	-2092
ентарий	-2093
▁алгачкы	-2094
далган	-2095
▁арада	-2096
ашы	-2097
▁шек	-2098
▁тарабынан	-2099
▁от	-2100
▁Мат	-2101
▁зы	-2102
▁пайдалан	-2103
▁соту	-2104
▁оору	-2105
▁операция	-2106
▁50	-2107
▁өткөрүп	-2108
▁бү	-2109
▁катталган	-2110
еспублик	-2111
өөлөр	-2112
▁күндө	-2113
актар	-2114
▁белгисиз	-2115
▁аймагында	-2116
▁Мак	-2117
▁комментарий	-2118
ыла	-2119
▁түшт	-2120
ирүү	-2121
▁чогул	-2122
ари	-2123
Кыргыз	-2124
▁автоуна	-2125
▁милдетт	-2126
▁ачыл	-2127
▁инвест	-2128
▁демил	-2129
▁кабин	-2130
ИМ	-2131
▁ду	-2132
ээрлик	-2133
ипл	-2134
▁депутаты	-2135
▁нааразылык	-2136
▁Абд	-2137
▁азырынча	-2138
▁Тур	-2139
өгө	-2140
▁ту	-2141
рамп	-2142
▁Бол	-2143
▁казак	-2144
▁Трамп	-2145
өг	-2146
▁16	-2147
шкен	-2148
езгил	-2149
те	-2150
▁эреж	-2151
▁башчы	-2152
▁тармактар	-2153
иверсит	-2154
▁турукт	-2155
фон	-2156
▁Ич	-2157
ыгын	-2158
өрүн	-2159
▁реж	-2160
сүз	-2161
ья	-2162
уулук	-2163
▁до	-2164
▁дө	-2165
▁жөнөт	-2166
▁об	-2167
▁сиз	-2168
▁жактан	-2169
▁жерге	-2170
▁Герман	-2171
▁2019-	-2172
арга	-2173
▁Бүгүн	-2174
▁жерлер	-2175
▁вакцин	-2176
▁коопсузду	-2177
▁4-	-2178
уусу	-2179
▁Бишкектин	-2180
шу	-2181
▁бы	-2182
▁тапкан	-2183
▁2-	-2184
▁кыйын	-2185
▁Кыз	-2186
алардын	-2187
▁Киев	-2188
▁тов	-2189
▁тажик	-2190
▁бюдж	-2191
▁жазып	-2192
▁миллиард	-2193
▁10-	-2194
оонун	-2195
-19	-2196
▁каз	-2197
▁директ	-2198
▁чыга	-2199
▁чакырды	-2200
беген	-2201
▁тери	-2202
▁Жак	-2203
▁террор	-2204
▁7-	-2205
▁ичинен	-2206
▁пандемия	-2207
▁жыйынында	-2208
▁ракет	-2209
▁өс	-2210
on	-2211
▁Тажикстандын	-2212
бур	-2213
▁муз	-2214
устун	-2215
▁сында	-2216
▁баштап	-2217
▁Ю	-2218
▁Би	-2219
▁чыгарып	-2220
▁Орусияга	-2221
▁17	-2222
февралда	-2223
▁инф	-2224
▁жибер	-2225
▁каранды	-2226
умтөр	-2227
▁автор	-2228
▁түрдө	-2229
▁каражат	-2230
дерди	-2231
▁сүйлөшүүлөр	-2232
▁5-	-2233
▁мезгил	-2234
үлдү	-2235
▁санкция	-2236
▁университ	-2237
уд	-2238
▁калы	-2239
▁тург	-2240
▁түрк	-2241
▁былтыр	-2242
▁Кытайдын	-2243
▁Баш	-2244
▁Мис	-2245
пар	-2246
дөгөн	-2247
▁Ички	-2248
▁тууган	-2249
елек	-2250
▁жакт	-2251
илер	-2252
▁таг	-2253
▁боло	-2254
▁сыртк	-2255
▁медициналык	-2256
емп	-2257
▁кым	-2258
▁кирип	-2259
▁Бишкектеги	-2260
ид	-2261
▁ортосун	-2262
▁түзүлгөн	-2263
▁митинг	-2264
пөй	-2265
▁калтыр	-2266
▁Жол	-2267
▁орусиялык	-2268
ийин	-2269
Би	-2270
▁3-	-2271
▁лидери	-2272
▁ыраст	-2273
▁ны	-2274
үүнүн	-2275
▁",-	-2276
▁адист	-2277
▁карашт	-2278
▁аян	-2279
▁тилк	-2280
▁дээрлик	-2281
елери	-2282
бү	-2283
▁укугу	-2284
▁кызматтан	-2285
▁Жаң	-2286
▁бет	-2287
▁Министрлер	-2288
аман	-2289
▁Кылм	-2290
▁аякт	-2291
▁матери	-2292
▁25	-2293
▁үл	-2294
▁кеп	-2295
▁Токт	-2296
▁тран	-2297
▁өтүн	-2298
мок	-2299
▁жо	-2300
▁бой	-2301
Азатт	-2302
▁куу	-2303
алында	-2304
▁билдирип	-2305
▁Өл	-2306
▁элчил	-2307
▁CO	-2308
арынын	-2309
▁учурлар	-2310
▁спорт	-2311
▁кармап	-2312
▁коюлган	-2313
▁кошумчалады	-2314
▁себеп	-2315
ылганын	-2316
▁дипл	-2317
▁суроо	-2318
▁программ	-2319
есинин	-2320
▁далил	-2321
▁шаарынын	-2322
▁газ	-2323
▁макс	-2324
▁каражаттар	-2325
бө	-2326
▁тон	-2327
чулары	-2328
▁тарткан	-2329
▁Эки	-2330
маз	-2331
▁мар	-2332
▁адвок	-2333
▁Биздин	-2334
ух	-2335
азар	-2336
укту	-2337
▁жылы	-2338
▁зыян	-2339
ебиз	-2340
керлер	-2341
▁Салам	-2342
▁маселеси	-2343
▁ортосундагы	-2344
▁көбү	-2345
▁9-	-2346
▁Та	-2347
▁курам	-2348
▁сөө	-2349
аттан	-2350
▁Кийин	-2351
er	-2352
▁кесип	-2353
▁жети	-2354
сүнө	-2355
▁жетиш	-2356
▁өнүктүрүү	-2357
▁мүчөлөр	-2358
▁T	-2359
▁Бек	-2360
▁окш	-2361
▁Мисалы	-2362
VID	-2363
▁ас	-2364
▁Алек	-2365
▁иштет	-2366
▁мамиле	-2367
алууда	-2368
▁чыгарган	-2369
▁6-	-2370
▁Нарын	-2371
▁өлтүр	-2372
▁кантип	-2373
▁өнүг	-2374
▁кары	-2375
▁БУУ	-2376
атив	-2377
▁20-	-2378
ева	-2379
▁калат	-2380
▁баарын	-2381
ышк	-2382
ашты	-2383
▁туруп	-2384
Ата	-2385
▁15-	-2386
▁диний	-2387
▁жайлар	-2388
▁кылуу	-2389
▁көргөн	-2390
▁Ол	-2391
уктур	-2392
▁жогору	-2393
▁Сул	-2394
▁кээ	-2395
▁талкуул	-2396
▁Ком	-2397
▁коюп	-2398
▁парламенттик	-2399
гүл	-2400
ейс	-2401
▁таң	-2402
▁жасаган	-2403
▁кошумча	-2404
▁кайрадан	-2405
▁өкмөттүн	-2406
Азаттыктын	-2407
егер	-2408
▁ада	-2409
айн	-2410
оочу	-2411
▁бизге	-2412
▁Байден	-2413
ШК	-2414
гемен	-2415
▁баракч	-2416
▁парламент	-2417
▁районунун	-2418
▁бей	-2419
▁райондор	-2420
ктык	-2421
ылбек	-2422
▁болбойт	-2423
▁No	-2424
уден	-2425
ысынан	-2426
ея	-2427
дыруу	-2428
▁аг	-2429
▁Ты	-2430
▁кымб	-2431
дия	-2432
▁COVID	-2433
▁...	-2434
чалык	-2435
▁Алмаз	-2436
▁Быйыл	-2437
▁аттуу	-2438
емпи	-2439
▁Айт	-2440
▁кыс	-2441
▁инстит	-2442
исттик	-2443
▁Матра	-2444
▁банк	-2445
▁Ташиев	-2446
▁адм	-2447
▁басылм	-2448
▁Евро	-2449
угалим	-2450
▁натыйж	-2451
▁Анан	-2452
▁Мир	-2453
▁кадам	-2454
▁белгилеп	-2455
▁экономик	-2456
▁курулуш	-2457
▁күндөрү	-2458
▁Сүр	-2459
▁фин	-2460
▁жарыяланган	-2461
дыгын	-2462
▁нун	-2463
▁баян	-2464
елип	-2465
илет	-2466
жылдан	-2467
▁мекен	-2468
▁8-	-2469
ырм	-2470
бетте	-2471
▁аларга	-2472
▁мис	-2473
▁кызы	-2474
▁демократ	-2475
үштүк	-2476
▁уг	-2477
ырып	-2478
▁жарыялады	-2479
▁жылдары	-2480
▁мамлекеттер	-2481
илип	-2482
▁партиясынын	-2483
орду	-2484
▁ирет	-2485
▁!	-2486
оль	-2487
▁болгондор	-2488
▁Жер	-2489
▁бөлүн	-2490
тти	-2491
улат	-2492
өөгө	-2493
▁Жар	-2494
орлор	-2495
еге	-2496
▁өкмөтү	-2497
▁админист	-2498
▁бийликтин	-2499
▁мэр	-2500
▁окт	-2501
▁Дон	-2502
▁соттун	-2503
▁долбоору	-2504
иясы	-2505
▁көлөм	-2506
▁ыктымал	-2507
чусу	-2508
▁сырткары	-2509
▁шаарындагы	-2510
анас	-2511
▁тин	-2512
▁максатында	-2513
▁Өзбекстандын	-2514
Си	-2515
▁аныкталган	-2516
▁мүл	-2517
▁макулдаш	-2518
▁зомбул	-2519
▁кызматкери	-2520
▁таян	-2521
▁каттоо	-2522
▁Дем	-2523
▁режим	-2524
ткен	-2525
▁кылды	-2526
бия	-2527
▁Жаңы	-2528
▁администрация	-2529
▁11-	-2530
▁Бий	-2531
▁вирус	-2532
▁үйлөр	-2533
▁айынан	-2534
едер	-2535
▁Мас	-2536
матов	-2537
акция	-2538
▁Уюм	-2539
▁улант	-2540
олд	-2541
▁Тышкы	-2542
ербай	-2543
▁карабай	-2544
▁айтканда	-2545
▁өч	-2546
▁адамдардын	-2547
▁облустук	-2548
жол	-2549
▁сай	-2550
▁Айрым	-2551
▁Зелен	-2552
▁башкаруу	-2553
ликт	-2554
▁Сир	-2555
дыктан	-2556
▁товар	-2557
астан	-2558
▁апта	-2559
▁мамлекеттин	-2560
асп	-2561
▁чемпи	-2562
арак	-2563
▁мектеп	-2564
▁миңдей	-2565
▁дүйнөлүк	-2566
▁Украинадагы	-2567
атр	-2568
ттин	-2569
▁кишинин	-2570
▁A	-2571
▁абалы	-2572
акта	-2573
▁Сүрөтт	-2574
▁ю	-2575
▁мүчөсү	-2576
▁оорукан	-2577
▁ортосунда	-2578
▁тапта	-2579
▁түшүп	-2580
▁студен	-2581
▁теришт	-2582
гу	-2583
▁эмгек	-2584
пей	-2585
▁Себ	-2586
▁жакта	-2587
▁жокко	-2588
▁ишеним	-2589
▁каржыл	-2590
▁кырсы	-2591
▁көрсөткүч	-2592
чулардын	-2593
▁Конституция	-2594
▁чечими	-2595
▁Зеленский	-2596
ңиз	-2597
▁каг	-2598
▁укуктар	-2599
▁жуг	-2600
▁ээл	-2601
анган	-2602
▁алганын	-2603
айы	-2604
өөл	-2605
▁айдоо	-2606
▁болуш	-2607
▁мугалим	-2608
йр	-2609
▁көпт	-2610
▁метр	-2611
▁40	-2612
▁ишкерлер	-2613
ини	-2614
▁катышуу	-2615
▁телефон	-2616
▁алыш	-2617
▁Соорон	-2618
▁түзгөн	-2619
▁Тер	-2620
▁багытт	-2621
▁бийликке	-2622
уман	-2623
улду	-2624
▁Кош	-2625
▁салык	-2626
▁кызыкчыл	-2627
дүүл	-2628
ушту	-2629
▁салынган	-2630
20	-2631
туп	-2632
антин	-2633
гындагы	-2634
аларга	-2635
бөл	-2636
байт	-2637
▁Борбордук	-2638
өйр	-2639
▁Ав	-2640
маты	-2641
▁Себеби	-2642
▁отурган	-2643
▁бараткан	-2644
▁кызматташт	-2645
▁эп	-2646
▁козголгон	-2647
олду	-2648
ферен	-2649
▁сайт	-2650
▁өзүнө	-2651
▁тартылган	-2652
▁Саламаттык	-2653
▁кодексинин	-2654
▁көчө	-2655
цион	-2656
алоо	-2657
▁оппозиция	-2658
көм	-2659
▁акын	-2660
▁эксперт	-2661
▁өлкөдөгү	-2662
▁рефор	-2663
ице	-2664
таж	-2665
елерди	-2666
▁берүүгө	-2667
▁уюмдар	-2668
есинде	-2669
▁маалымдады	-2670
▁Сүрөттүн	-2671
▁жетект	-2672
▁белгилеген	-2673
ылт	-2674
▁албайт	-2675
▁жеткен	-2676
▁маалыматты	-2677
олуп	-2678
▁аппар	-2679
▁жабырка	-2680
▁зам	-2681
өрдү	-2682
▁Кай	-2683
тин	-2684
▁24-	-2685
▁кабарлаган	-2686
▁кесеп	-2687
▁үн	-2688
▁байланыш	-2689
▁куралдуу	-2690
игине	-2691
аниянын	-2692
▁Экинчи	-2693
ыктан	-2694
мушт	-2695
укул	-2696
▁келин	-2697
шти	-2698
▁пл	-2699
илди	-2700
ейш	-2701
▁карма	-2702
▁дарыгерлер	-2703
акты	-2704
▁25-	-2705
▁комитетинин	-2706
алышы	-2707
▁эсеб	-2708
▁мүнө	-2709
▁бою	-2710
ербайжан	-2711
▁киреш	-2712
бирим	-2713
▁Кеңеш	-2714
▁калганын	-2715
ейсб	-2716
▁30-	-2717
за	-2718
суздук	-2719
ияга	-2720
▁чыр	-2721
▁ката	-2722
▁жараны	-2723
▁кармалып	-2724
▁Евробирим	-2725
▁Ка	-2726
▁18-	-2727
▁жаңж	-2728
▁качан	-2729
▁болорун	-2730
ti	-2731
▁Фран	-2732
▁курч	-2733
▁тарат	-2734
▁өлкөгө	-2735
▁Ад	-2736
▁Камчы	-2737
▁акы	-2738
▁Казакстанда	-2739
▁Чек	-2740
▁сокку	-2741
▁болбой	-2742
▁кабылган	-2743
андын	-2744
▁телек	-2745
▁уюмунун	-2746
истан	-2747
▁маалда	-2748
бар	-2749
раз	-2750
ларга	-2751
▁Мыйзам	-2752
▁Республик	-2753
▁кыйн	-2754
аша	-2755
▁согушка	-2756
▁суроолор	-2757
тай	-2758
▁тай	-2759
▁стан	-2760
▁кеңешинин	-2761
▁ке	-2762
▁сегиз	-2763
▁кезект	-2764
▁Коронавир	-2765
▁калк	-2766
дөп	-2767
▁бут	-2768
ибиз	-2769
▁24	-2770
▁жүрүш	-2771
▁республ	-2772
алдар	-2773
ью	-2774
▁ыйг	-2775
▁шайлоодо	-2776
▁сомго	-2777
огуз	-2778
▁жарандар	-2779
▁Шайл	-2780
ma	-2781
▁Гүл	-2782
▁демилг	-2783
юз	-2784
▁үз	-2785
▁ына	-2786
▁жума	-2787
▁койду	-2788
сек	-2789
имди	-2790
▁28-	-2791
▁эмге	-2792
▁долбоорун	-2793
▁ишти	-2794
сиянын	-2795
▁белгиленген	-2796
ашкан	-2797
иккен	-2798
▁Талас	-2799
▁ордуна	-2800
▁убакыт	-2801
▁2023-	-2802
▁изилдөө	-2803
али	-2804
өөк	-2805
▁кыск	-2806
▁жылда	-2807
▁команда	-2808
уттар	-2809
▁токто	-2810
▁кабинетинин	-2811
ков	-2812
▁үм	-2813
▁убада	-2814
▁Кылмыш	-2815
▁бөлүгү	-2816
▁жасап	-2817
▁чогуу	-2818
иси	-2819
алай	-2820
▁17-	-2821
▁барат	-2822
▁Көп	-2823
исттер	-2824
▁ыс	-2825
атыр	-2826
▁айтылып	-2827
▁саламаттык	-2828
▁аялдар	-2829
иза	-2830
▁уна	-2831
▁өтөт	-2832
▁тарта	-2833
▁топтор	-2834
▁кайрылган	-2835
▁курман	-2836
▁жакында	-2837
▁0	-2838
гып	-2839
үлөт	-2840
▁бериш	-2841
▁чукул	-2842
▁күчөт	-2843
▁S	-2844
▁мыкты	-2845
▁Ку	-2846
ылышы	-2847
▁Мунун	-2848
үндүк	-2849
▁Амер	-2850
▁өкүм	-2851
▁борб	-2852
үндөгү	-2853
▁жолдо	-2854
▁Акылбек	-2855
мин	-2856
▁бекем	-2857
ема	-2858
▁интерн	-2859
▁борбору	-2860
▁жараат	-2861
▁сомдон	-2862
ад	-2863
▁эгемен	-2864
▁жашап	-2865
▁айда	-2866
▁алынып	-2867
▁Өткөн	-2868
асс	-2869
гынан	-2870
▁бирг	-2871
▁жетти	-2872
▁жерден	-2873
▁салышт	-2874
▁эсептейт	-2875
▁Ас	-2876
▁эрт	-2877
▁корго	-2878
▁Ил	-2879
▁кескин	-2880
▁керектигин	-2881
евдин	-2882
▁буйр	-2883
▁Расмий	-2884
▁БШК	-2885
▁андай	-2886
тал	-2887
▁аң	-2888
▁дек	-2889
еттер	-2890
▁жылдык	-2891
▁Ко	-2892
▁14-	-2893
▁Аск	-2894
▁Батыш	-2895
▁иштерин	-2896
▁директору	-2897
▁вице	-2898
икке	-2899
сында	-2900
газ	-2901
▁гө	-2902
▁нерс	-2903
▁Өмүр	-2904
▁жакка	-2905
▁коомчулукт	-2906
▁проц	-2907
гандар	-2908
кар	-2909
▁телекан	-2910
Тал	-2911
нес	-2912
▁аты	-2913
▁уюму	-2914
▁элге	-2915
▁Азыркы	-2916
▁билдиргендей	-2917
▁карантин	-2918
▁Кооп	-2919
дөрүнүн	-2920
▁башкармалыгынын	-2921
...1	-2922
ъект	-2923
▁амер	-2924
▁тараткан	-2925
▁12-	-2926
▁деги	-2927
▁Гр	-2928
▁киргизилген	-2929
▁ишмер	-2930
рый	-2931
▁дей	-2932
▁Дүйш	-2933
▁турак	-2934
▁Түштүк	-2935
▁Түркиянын	-2936
мун	-2937
ашып	-2938
▁Май	-2939
▁;	-2940
ылар	-2941
▁16-	-2942
▁Соң	-2943
▁туруктуу	-2944
▁алынды	-2945
ларын	-2946
▁карыз	-2947
▁би	-2948
▁Темир	-2949
▁анан	-2950
асынан	-2951
▁23-	-2952
иктер	-2953
▁бл	-2954
▁темир	-2955
есс	-2956
утбол	-2957
▁башалам	-2958
▁көрсөткөн	-2959
▁инвестиция	-2960
баева	-2961
▁жашыр	-2962
▁Азербайжан	-2963
▁базар	-2964
▁сүрөт	-2965
▁маселени	-2966
раф	-2967
алга	-2968
▁бөгө	-2969
▁радиос	-2970
▁аракети	-2971
▁мекемелер	-2972
▁ооруканага	-2973
▁Мекем	-2974
▁отурум	-2975
▁күм	-2976
берен	-2977
▁турганы	-2978
▁ишм	-2979
▁тоо	-2980
▁2018-	-2981
▁каттам	-2982
▁коронавируска	-2983
иң	-2984
▁таап	-2985
▁апрел	-2986
▁айтылды	-2987
▁Алмазбек	-2988
▁Тил	-2989
▁авт	-2990
тажик	-2991
▁келеч	-2992
▁күнөөл	-2993
ембиде	-2994
оро	-2995
▁22-	-2996
екция	-2997
▁жарандары	-2998
▁Жапаровдун	-2999
▁Жум	-3000
▁айта	-3001
▁Корея	-3002
▁Матраимов	-3003
▁жыйынтыгы	-3004
кап	-3005
▁чакырым	-3006
▁Дүйнөлүк	-3007
▁маалыматка	-3008
етке	-3009
уттуу	-3010
▁Кас	-3011
▁жасалган	-3012
▁бара	-3013
▁калыб	-3014
▁19-	-3015
▁арга	-3016
▁Акыркы	-3017
▁ни	-3018
▁эст	-3019
▁кошт	-3020
▁таза	-3021
▁туул	-3022
▁жүрөт	-3023
▁бак	-3024
▁ген	-3025
▁ошон	-3026
▁тажрый	-3027
▁тартип	-3028
▁арасындагы	-3029
ный	-3030
▁Сан	-3031
▁коң	-3032
▁ажырат	-3033
▁сөздөр	-3034
▁БУУнун	-3035
▁жолдор	-3036
▁саясатчы	-3037
▁тобу	-3038
▁чыгыш	-3039
▁агенттиги	-3040
▁атындагы	-3041
масы	-3042
▁мага	-3043
АТ	-3044
кум	-3045
▁стат	-3046
▁Армен	-3047
▁Иш	-3048
▁чара	-3049
▁аэ	-3050
▁Деп	-3051
▁мин	-3052
▁калыбына	-3053
▁500	-3054
▁тир	-3055
▁өнөр	-3056
▁каралган	-3057
▁прокуратура	-3058
дешт	-3059
▁насы	-3060
бет	-3061
▁мектепт	-3062
ЭБ	-3063
импи	-3064
▁Ака	-3065
▁Ошент	-3066
▁Соңку	-3067
екке	-3068
▁менин	-3069
▁коргон	-3070
▁ондогон	-3071
жин	-3072
кери	-3073
▁тут	-3074
▁баасы	-3075
уккан	-3076
▁жаан	-3077
▁ишине	-3078
▁чарба	-3079
омат	-3080
▁Былтыр	-3081
анып	-3082
аттарды	-3083
▁кайрылып	-3084
ттик	-3085
▁түзөт	-3086
▁кайтып	-3087
▁жагынан	-3088
акан	-3089
▁азай	-3090
▁бажы	-3091
▁штаб	-3092
▁адамга	-3093
▁тийгиз	-3094
▁Британия	-3095
ырт	-3096
ттуу	-3097
▁бирге	-3098
▁укуктары	-3099
ура	-3100
▁соттук	-3101
▁мыйзамга	-3102
▁тараптуу	-3103
▁кабарланды	-3104
оюн	-3105
дырып	-3106
▁жылдар	-3107
▁27-	-3108
түл	-3109
▁жүк	-3110
▁чемпион	-3111
АС	-3112
▁60	-3113
акистан	-3114
▁көпчүлүк	-3115
▁камсыздоо	-3116
▁22	-3117
▁манда	-3118
▁жалгыз	-3119
кор	-3120
▁көрсөтүп	-3121
дигин	-3122
етика	-3123
▁жүргүзүп	-3124
▁кармалды	-3125
es	-3126
in	-3127
▁айл	-3128
▁суд	-3129
▁ыбыз	-3130
▁сум	-3131
▁Жалп	-3132
▁алганы	-3133
▁Куб	-3134
▁тогуз	-3135
ша	-3136
▁Али	-3137
ланып	-3138
ордун	-3139
▁тоск	-3140
▁чыгаруу	-3141
▁мүмкүнчүлүк	-3142
үштү	-3143
▁экс	-3144
▁кеминде	-3145
▁комитети	-3146
▁активисттер	-3147
ех	-3148
▁21	-3149
▁Маалыматка	-3150
игинин	-3151
▁Коопсуздук	-3152
сам	-3153
ализ	-3154
атын	-3155
▁күнгө	-3156
▁чектөө	-3157
▁Франция	-3158
▁Сооронбай	-3159
▁баа	-3160
▁зав	-3161
▁түрмө	-3162
ремл	-3163
▁карш	-3164
есе	-3165
дери	-3166
▁Муну	-3167
▁машы	-3168
▁тамак	-3169
▁башынан	-3170
▁институт	-3171
даган	-3172
▁компаниясы	-3173
УКМК	-3174
▁доо	-3175
▁сыйл	-3176
▁Өлкө	-3177
▁аябай	-3178
▁күндөн	-3179
▁өтүнүч	-3180
▁түзүп	-3181
▁берүүнү	-3182
▁миңдеген	-3183
▁инин	-3184
▁Депут	-3185
▁Алматы	-3186
▁бийликти	-3187
▁Шт	-3188
▁Мил	-3189
атында	-3190
▁дароо	-3191
▁тиешеси	-3192
▁аскерлери	-3193
▁чыгым	-3194
▁сүрөтт	-3195
▁өлкөлөрдүн	-3196
ерв	-3197
ээк	-3198
▁13-	-3199
▁Ошт	-3200
▁аткан	-3201
▁куруу	-3202
гунт	-3203
нот	-3204
▁ишкер	-3205
▁аткаруу	-3206
анд	-3207
▁сыз	-3208
Талиб	-3209
алдын	-3210
▁кара	-3211
▁көбүр	-3212
жылдагы	-3213
▁Өкмөт	-3214
▁трансп	-3215
ель	-3216
▁криз	-3217
▁самм	-3218
▁шаарлар	-3219
▁Камчыбек	-3220
▁түзүү	-3221
▁жатканда	-3222
▁мектептер	-3223
луу	-3224
▁бүз	-3225
ыны	-3226
устан	-3227
▁күчтөрү	-3228
▁Нав	-3229
▁лык	-3230
▁жогор	-3231
▁табылган	-3232
елин	-3233
стыкт	-3234
лиги	-3235
▁парламенттин	-3236
▁УКМКнын	-3237
▁тынчтык	-3238
▁булактар	-3239
▁коё	-3240
▁нааразы	-3241
▁Бириккен	-3242
▁экөө	-3243
▁жылды	-3244
▁министринин	-3245
▁көмө	-3246
▁Албетте	-3247
▁кеткенин	-3248
слам	-3249
▁документ	-3250
▁өзгөртүү	-3251
▁үйр	-3252
▁Кремл	-3253
▁Өзгөчө	-3254
▁тоскоол	-3255
мек	-3256
▁атып	-3257
▁үчүнчү	-3258
енз	-3259
уктаж	-3260
▁жаза	-3261
▁кайрыл	-3262
▁экспер	-3263
▁куугунт	-3264
▁өлкөдөн	-3265
аак	-3266
▁илд	-3267
▁позиция	-3268
▁шайлоонун	-3269
▁карандысыз	-3270
сыздан	-3271
▁күйөө	-3272
▁саясатчылар	-3273
алма	-3274
▁көмүр	-3275
▁мүнөз	-3276
▁Асан	-3277
убай	-3278
▁26-	-3279
▁берилди	-3280
▁ИИМ	-3281
▁кеңешт	-3282
▁дегенде	-3283
▁караштуу	-3284
▁киргизүү	-3285
▁21-	-3286
▁катышып	-3287
АТО	-3288
▁соз	-3289
▁жогот	-3290
▁олуттуу	-3291
▁өткөрүү	-3292
▁көптөгөн	-3293
усул	-3294
▁арн	-3295
▁сактап	-3296
▁көрсөтүлгөн	-3297
ме	-3298
ылууда	-3299
▁муктаж	-3300
▁ым	-3301
tion	-3302
▁жумш	-3303
▁2017-	-3304
усулман	-3305
▁лардын	-3306
▁мүчөлөрү	-3307
▁23	-3308
лайн	-3309
еттен	-3310
▁пасп	-3311
▁түшүр	-3312
▁колдонуу	-3313
▁сент	-3314
▁маселесин	-3315
уманитардык	-3316
өөнү	-3317
▁29-	-3318
бөгөн	-3319
▁эгер	-3320
арына	-3321
▁азык	-3322
▁облусундагы	-3323
▁Я	-3324
ясий	-3325
▁НАТО	-3326
▁энергия	-3327
▁Бил	-3328
▁окуп	-3329
▁Эконом	-3330
▁органдары	-3331
бан	-3332
ратег	-3333
▁Парлам	-3334
▁балдардын	-3335
▁иде	-3336
▁салды	-3337
▁сынга	-3338
▁тен	-3339
▁толугу	-3340
ca	-3341
Ал	-3342
▁80	-3343
▁кин	-3344
▁чың	-3345
▁колдогон	-3346
▁билдирүүдө	-3347
▁мамлекетке	-3348
▁Каб	-3349
▁соол	-3350
▁аэроп	-3351
чам	-3352
▁Ваш	-3353
▁маж	-3354
▁жаштар	-3355
▁Түркмөн	-3356
▁Коронавирус	-3357
▁маалыматтарды	-3358
▁Рос	-3359
▁ака	-3360
▁Адам	-3361
▁илимий	-3362
▁объект	-3363
олуу	-3364
▁300	-3365
▁Сот	-3366
▁комитет	-3367
▁тараптан	-3368
Бир	-3369
елег	-3370
▁жарак	-3371
▁футбол	-3372
▁февр	-3373
▁жалпысынан	-3374
▁дон	-3375
▁шектүү	-3376
▁атаанда	-3377
▁каражаттары	-3378
иф	-3379
▁70	-3380
ашуу	-3381
▁мед	-3382
▁уур	-3383
▁миңге	-3384
сих	-3385
яны	-3386
▁Вашинг	-3387
▁Түндүк	-3388
▁тагдыр	-3389
▁айылында	-3390
дур	-3391
▁ча	-3392
▁Султан	-3393
▁бербей	-3394
ткан	-3395
улуш	-3396
үнчү	-3397
▁алмаштыр	-3398
▁америкалык	-3399
▁маалыматы	-3400
чынын	-3401
▁дайым	-3402
▁жакшыр	-3403
▁партиясы	-3404
алыш	-3405
енко	-3406
ыйкат	-3407
▁өтпөй	-3408
▁Наваль	-3409
▁Үч	-3410
өттү	-3411
дерге	-3412
▁көбүрөөк	-3413
▁миграция	-3414
▁Ц	-3415
▁27	-3416
ондук	-3417
▁насыя	-3418
▁болууда	-3419
▁чечимин	-3420
арк	-3421
буз	-3422
▁сына	-3423
▁2010-	-3424
▁айга	-3425
▁судья	-3426
▁бойдон	-3427
▁пикирин	-3428
▁токтом	-3429
en	-3430
агыл	-3431
▁мунай	-3432
▁тартуу	-3433
ыктуу	-3434
▁чөйр	-3435
▁чыгуу	-3436
аттардын	-3437
▁маегинде	-3438
▁текшерүү	-3439
▁Жаз	-3440
▁жокт	-3441
▁ооган	-3442
▁армиясы	-3443
▁жолугушуу	-3444
асыз	-3445
▁түнү	-3446
▁тургуну	-3447
▁Орусиядагы	-3448
рад	-3449
▁26	-3450
өөнүн	-3451
▁Башка	-3452
чилик	-3453
▁кама	-3454
ектер	-3455
▁театр	-3456
▁долбоорлор	-3457
▁Төр	-3458
▁таз	-3459
емпир	-3460
▁айдан	-3461
▁мөөнөтү	-3462
▁Пакистан	-3463
▁корку	-3464
▁Бакиев	-3465
▁Аталган	-3466
▁канчалык	-3467
▁чал	-3468
▁өзбек	-3469
▁билген	-3470
▁сүйлөшүү	-3471
▁35	-3472
▁өң	-3473
▁июн	-3474
▁таянып	-3475
▁жакындары	-3476
▁аймактарда	-3477
▁сар	-3478
▁адамды	-3479
▁түрдүү	-3480
▁камалган	-3481
▁кил	-3482
▁турм	-3483
▁август	-3484
▁болмок	-3485
үң	-3486
▁но	-3487
чылары	-3488
▁айлык	-3489
▁кылат	-3490
▁келгенин	-3491
▁март	-3492
▁Кадыр	-3493
▁бизнес	-3494
▁Навальный	-3495
▁районунда	-3496
▁тонна	-3497
жылдары	-3498
КУ	-3499
▁китеп	-3500
▁орнот	-3501
▁Коргоо	-3502
▁жетекчи	-3503
▁Үй	-3504
▁Орус	-3505
▁кошо	-3506
▁милдетин	-3507
ьян	-3508
▁2016-	-3509
▁кызматка	-3510
үктү	-3511
▁ларды	-3512
▁жуктур	-3513
ушк	-3514
▁ев	-3515
деди	-3516
▁ооз	-3517
▁Жан	-3518
▁Токаев	-3519
▁мей	-3520
▁тик	-3521
аганын	-3522
октябр	-3523
▁чектөөлөр	-3524
al	-3525
бой	-3526
кулов	-3527
▁болгондуктан	-3528
▁ави	-3529
ңыз	-3530
богон	-3531
▁бөгөт	-3532
▁түшүндүрмө	-3533
лав	-3534
▁Негиз	-3535
▁издөө	-3536
▁кийим	-3537
▁R	-3538
▁мени	-3539
▁айтууда	-3540
▁тастыкт	-3541
ула	-3542
▁калса	-3543
▁укугун	-3544
АМ	-3545
▁түп	-3546
▁Касым	-3547
▁Курман	-3548
▁күз	-3549
▁бирөө	-3550
▁маалында	-3551
ерн	-3552
сынан	-3553
сүнүн	-3554
▁машин	-3555
▁себеби	-3556
гым	-3557
гыр	-3558
арында	-3559
▁илдет	-3560
▁жүй	-3561
▁кана	-3562
▁Эгерде	-3563
▁тоолуу	-3564
Суу	-3565
▁тала	-3566
▁иштей	-3567
▁аргасыз	-3568
▁көрсөтүү	-3569
ити	-3570
▁экст	-3571
▁качып	-3572
▁келат	-3573
▁эртең	-3574
▁чу	-3575
изация	-3576
▁бизди	-3577
▁берилет	-3578
▁рес	-3579
ракция	-3580
▁коррупцияга	-3581
өгү	-3582
обил	-3583
▁("	-3584
ышка	-3585
▁Кошмо	-3586
▁кетет	-3587
▁эркинен	-3588
ЭС	-3589
▁катышты	-3590
▁деңгээлде	-3591
▁кабарланган	-3592
▁менч	-3593
▁өзүм	-3594
▁калуу	-3595
улов	-3596
▁дипломат	-3597
▁партиянын	-3598
▁Эн	-3599
баевдин	-3600
ейсбукт	-3601
▁алдынча	-3602
▁стратег	-3603
▁тийиш	-3604
▁көтөрүп	-3605
▁адамдарды	-3606
▁Жо	-3607
өлгөн	-3608
▁талаптар	-3609
▁Улуу	-3610
▁атыш	-3611
▁талапкерлер	-3612
an	-3613
▁Сиз	-3614
▁гектар	-3615
СС	-3616
ким	-3617
▁аткыл	-3618
▁ресур	-3619
▁онлайн	-3620
▁баракчасына	-3621
▁Чыгы	-3622
атынын	-3623
▁ойлой	-3624
▁Улуттар	-3625
▁бүгүнкү	-3626
сен	-3627
▁себепт	-3628
▁болбосо	-3629
▁28	-3630
▁дрон	-3631
▁маалыматта	-3632
ырган	-3633
үктөр	-3634
▁убакы	-3635
ферендум	-3636
▁фракция	-3637
▁B	-3638
ативдик	-3639
▁төрагасынын	-3640
па	-3641
▁имп	-3642
▁сел	-3643
▁коргоочу	-3644
АМАС	-3645
▁орт	-3646
▁ХАМАС	-3647
▁сөөгү	-3648
▁Мына	-3649
▁мажбур	-3650
▁тарапта	-3651
▁аймактык	-3652
анов	-3653
оодо	-3654
▁акыр	-3655
▁үндө	-3656
▁талаш	-3657
ңк	-3658
▁пул	-3659
▁кылын	-3660
▁колдоп	-3661
▁башталды	-3662
▁компаниясынын	-3663
амир	-3664
▁Орусиядан	-3665
▁кандайдыр	-3666
▁Түркмөнстан	-3667
▁Республикасынын	-3668
▁Фин	-3669
▁түзүм	-3670
▁болжол	-3671
▁өзүнчө	-3672
▁укуктук	-3673
▁Вашингтон	-3674
ткар	-3675
▁жаман	-3676
▁кагаз	-3677
▁чыгат	-3678
▁тынчсыздан	-3679
▁деңиз	-3680
▁жугуз	-3681
▁баалуу	-3682
▁Ирандын	-3683
▁тийиштүү	-3684
▁G	-3685
рист	-3686
өмбү	-3687
▁бизде	-3688
▁Кумтөр	-3689
▁Мурдагы	-3690
▁чакырган	-3691
▁эскертти	-3692
▁мел	-3693
угуна	-3694
▁салма	-3695
▁негизде	-3696
▁тараптар	-3697
▁өнөктөшт	-3698
асст	-3699
▁жараша	-3700
асма	-3701
▁Рах	-3702
▁үгү	-3703
ентке	-3704
▁маалымдаган	-3705
▁нин	-3706
▁Бейш	-3707
амин	-3708
импиада	-3709
▁гуманитардык	-3710
▁псих	-3711
▁салым	-3712
▁аягына	-3713
▁майрам	-3714
▁материал	-3715
▁кырдаалдар	-3716
▁Журналист	-3717
▁кызматкер	-3718
емби	-3719
▁атат	-3720
▁Интерн	-3721
▁кылмыштуу	-3722
▁тос	-3723
ктары	-3724
▁Менин	-3725
президен	-3726
▁Сам	-3727
▁өртт	-3728
▁терең	-3729
▁мусулман	-3730
▁техникалык	-3731
▁сек	-3732
▁жандан	-3733
▁Алексан	-3734
▁ну	-3735
▁жөнгө	-3736
жылга	-3737
▁эмгект	-3738
гөз	-3739
аларда	-3740
▁Жапон	-3741
ну	-3742
▁ине	-3743
артам	-3744
▁Коом	-3745
▁кооптуу	-3746
сей	-3747
▁Сар	-3748
▁аныкталды	-3749
▁террордук	-3750
пайт	-3751
үгүнө	-3752
▁бузуу	-3753
▁кылым	-3754
▁өзүбүз	-3755
▁өмүрүн	-3756
еж	-3757
тация	-3758
▁Назар	-3759
▁чыгарма	-3760
▁убагында	-3761
▁жокп	-3762
Кумтөр	-3763
▁алмаш	-3764
▁ыкчам	-3765
▁таандык	-3766
▁ц	-3767
анс	-3768
лап	-3769
▁90	-3770
▁Чы	-3771
ттын	-3772
ыруу	-3773
▁эсе	-3774
▁бары	-3775
▁конц	-3776
▁айтыш	-3777
зак	-3778
▁багыт	-3779
ушкан	-3780
▁жаңыл	-3781
ойт	-3782
дөрүн	-3783
▁Дагы	-3784
▁мал	-3785
▁жараткан	-3786
▁Ос	-3787
▁фондун	-3788
▁Ошентип	-3789
▁келгенде	-3790
ge	-3791
▁жиги	-3792
▁Дүйнө	-3793
▁кыйла	-3794
▁талиб	-3795
▁кеңири	-3796
тым	-3797
▁Ап	-3798
▁нан	-3799
▁Газа	-3800
▁тарыхый	-3801
▁келаткан	-3802
▁аймактарында	-3803
ешет	-3804
ектен	-3805
▁макам	-3806
▁өздөрү	-3807
тту	-3808
▁Кол	-3809
жаза	-3810
▁Ima	-3811
▁жем	-3812
▁камт	-3813
▁тутк	-3814
түлүк	-3815
▁учак	-3816
▁караб	-3817
▁январ	-3818
▁билбей	-3819
▁жарандардын	-3820
урт	-3821
▁арх	-3822
▁түй	-3823
иядагы	-3824
▁төлөп	-3825
ырмалуу	-3826
▁мыйзамды	-3827
атов	-3828
▁фил	-3829
▁Араб	-3830
▁анализ	-3831
▁күчтүү	-3832
▁Александр	-3833
▁облустарынын	-3834
омол	-3835
▁пен	-3836
▁кетүү	-3837
▁аймагына	-3838
ми	-3839
▁өрт	-3840
малар	-3841
▁аянт	-3842
▁көрө	-3843
▁районундагы	-3844
▁Пр	-3845
▁акыл	-3846
▁жасалма	-3847
▁туулган	-3848
▁чакырып	-3849
▁Израилдин	-3850
гуу	-3851
▁ша	-3852
▁мыйзамдын	-3853
▁укуктарын	-3854
▁2015-	-3855
▁төлөм	-3856
▁абакта	-3857
▁өлкөлүк	-3858
▁багытталган	-3859
чын	-3860
▁элди	-3861
Талибан	-3862
▁Оку	-3863
▁күтүп	-3864
үүлөрдү	-3865
▁тартиб	-3866
▁Беларус	-3867
▁максаты	-3868
▁токтотуу	-3869
▁көйгөйлөр	-3870
▁Груз	-3871
▁кишиге	-3872
▁аймакта	-3873
би	-3874
олю	-3875
▁коргонуу	-3876
ван	-3877
▁ток	-3878
үшкөн	-3879
▁Ошондо	-3880
▁айынын	-3881
▁бөлүмүнүн	-3882
дикке	-3883
▁чагыл	-3884
▁кетүүгө	-3885
▁Тергөө	-3886
ңар	-3887
▁чакан	-3888
▁Кыргызстандан	-3889
▁окр	-3890
▁долларга	-3891
▁кызматына	-3892
▁Чын	-3893
▁33	-3894
▁зор	-3895
▁эсеп	-3896
рессия	-3897
▁кечир	-3898
▁тарбия	-3899
▁адистер	-3900
▁станция	-3901
▁жабыркаган	-3902
▁референдум	-3903
▁Бээ	-3904
▁Ким	-3905
▁кармалганын	-3906
ник	-3907
▁Кал	-3908
▁Тай	-3909
ыгына	-3910
▁Атайын	-3911
▁жүргүзгөн	-3912
▁Президенттин	-3913
▁ме	-3914
аныш	-3915
убуз	-3916
укаш	-3917
▁алы	-3918
▁тес	-3919
▁өлч	-3920
▁жабык	-3921
▁сурап	-3922
▁өнүгүү	-3923
▁сак	-3924
▁Мух	-3925
▁калганы	-3926
үтүн	-3927
▁блог	-3928
▁сотунун	-3929
иров	-3930
икация	-3931
▁эмнеге	-3932
▁статист	-3933
▁республикалык	-3934
▁Ата	-3935
▁ңыз	-3936
▁аким	-3937
▁каралып	-3938
▁дөн	-3939
▁баал	-3940
▁сов	-3941
▁отуруп	-3942
▁жетиштүү	-3943
арип	-3944
ткон	-3945
Манас	-3946
▁Сотт	-3947
▁Эмне	-3948
▁P	-3949
чилер	-3950
▁Болот	-3951
▁кездеги	-3952
▁беренеси	-3953
▁негизинен	-3954
шке	-3955
▁Кат	-3956
▁зал	-3957
▁кароо	-3958
рык	-3959
стандык	-3960
▁көрүнүш	-3961
▁каалаган	-3962
▁борборунун	-3963
▁Жергиликтүү	-3964
хм	-3965
▁бекит	-3966
▁жалган	-3967
▁иштейт	-3968
▁калышы	-3969
▁алышкан	-3970
▁департам	-3971
▁31-	-3972
▁таасирин	-3973
икти	-3974
▁проф	-3975
▁Кемпир	-3976
▁салыштырмалуу	-3977
онст	-3978
ивдүү	-3979
▁Шайлоо	-3980
▁ыйгарым	-3981
▁Москвада	-3982
елди	-3983
▁алыс	-3984
▁фонд	-3985
▁барды	-3986
▁болоб	-3987
▁алганда	-3988
▁технология	-3989
Биз	-3990
доган	-3991
▁жүзүндө	-3992
▁жатканына	-3993
кон	-3994
▁Бор	-3995
ктарды	-3996
▁сүйлө	-3997
ышканын	-3998
▁жапырт	-3999
▁Эрдоган	-4000
далды	-4001
өктүк	-4002
▁Шаар	-4003
▁Демек	-4004
▁аптада	-4005
▁топтун	-4006
жар	-4007
үлө	-4008
▁лөр	-4009
атбек	-4010
▁жарык	-4011
▁менчик	-4012
үнчө	-4013
▁коюу	-4014
▁кетиш	-4015
▁дардын	-4016
министри	-4017
▁система	-4018
▁комитеттин	-4019
ейл	-4020
▁1,	-4021
▁арз	-4022
▁абалда	-4023
▁Бүгүнкү	-4024
▁билдирүүсүндө	-4025
▁M	-4026
▁капт	-4027
▁уланып	-4028
▁окумушт	-4029
үшүнө	-4030
▁жаап	-4031
▁канал	-4032
▁тегер	-4033
▁маданият	-4034
▁тармактарда	-4035
эл	-4036
дой	-4037
▁жүкт	-4038
жо	-4039
ансы	-4040
▁өлгөн	-4041
▁Путиндин	-4042
▁Жыл	-4043
▁атасы	-4044
ыч	-4045
маны	-4046
▁коңшу	-4047
▁чыгарды	-4048
▁тун	-4049
▁кыска	-4050
▁кырдаалды	-4051
▁F	-4052
мам	-4053
еттүү	-4054
▁алба	-4055
▁тасм	-4056
елерин	-4057
▁Бизде	-4058
▁уюмдун	-4059
▁балдары	-4060
▁Хар	-4061
▁алак	-4062
▁көргөз	-4063
▁чалдык	-4064
▁органдар	-4065
фт	-4066
▁дарыгер	-4067
▁жумушчу	-4068
▁жыйында	-4069
ели	-4070
▁кымбат	-4071
▁көлөмү	-4072
▁айтышты	-4073
▁айыптап	-4074
▁ишмерди	-4075
▁Конституциялык	-4076
зат	-4077
пон	-4078
чет	-4079
▁кишини	-4080
▁прокурор	-4081
стер	-4082
премьер	-4083
министративдик	-4084
▁чалгын	-4085
▁кызматтар	-4086
▁Жам	-4087
▁ыкты	-4088
▁2014-	-4089
▁оорул	-4090
▁өлчөм	-4091
▁кайтарып	-4092
мб	-4093
келин	-4094
▁заман	-4095
▁алектен	-4096
лери	-4097
▁мон	-4098
▁батир	-4099
▁эмдөө	-4100
▁жумушт	-4101
▁убакта	-4102
▁паспорт	-4103
▁деш	-4104
манов	-4105
▁ынан	-4106
▁элем	-4107
▁өчүр	-4108
▁Бийлик	-4109
▁талдоо	-4110
▁болбогон	-4111
Ак	-4112
үрүм	-4113
дырган	-4114
ter	-4115
ресс	-4116
▁Украинада	-4117
▁аракеттер	-4118
едерация	-4119
▁Серг	-4120
спүрүм	-4121
▁чалдыккан	-4122
▁билдиришти	-4123
усту	-4124
▁сып	-4125
пайбы	-4126
▁Лукаш	-4127
▁ыктыяр	-4128
диктүү	-4129
▁экономика	-4130
▁электрондук	-4131
▁инт	-4132
▁темп	-4133
▁карабастан	-4134
▁компаниялар	-4135
▁Ра	-4136
дору	-4137
▁дер	-4138
▁толк	-4139
▁инфекция	-4140
▁катталды	-4141
▁өткөргөн	-4142
ейсбуктагы	-4143
азы	-4144
гар	-4145
кай	-4146
▁),	-4147
▁конт	-4148
▁радио	-4149
▁алууну	-4150
▁ачылган	-4151
▁өнүктүр	-4152
▁арналган	-4153
Кыргызстан	-4154
▁жарыяланды	-4155
алю	-4156
▁кич	-4157
диктин	-4158
эк	-4159
▁рез	-4160
▁төг	-4161
▁Караб	-4162
▁кетир	-4163
ец	-4164
чо	-4165
▁Жең	-4166
▁Сай	-4167
▁сиң	-4168
▁Укук	-4169
бра	-4170
еев	-4171
шкө	-4172
оолуу	-4173
▁узарт	-4174
▁Сергей	-4175
▁мигран	-4176
бу	-4177
▁ca	-4178
▁Чол	-4179
▁июл	-4180
▁рын	-4181
▁ашты	-4182
▁Акаев	-4183
▁башаламандык	-4184
ККУ	-4185
▁Кул	-4186
▁лиц	-4187
▁бетт	-4188
▁пара	-4189
▁таштап	-4190
▁Ушундай	-4191
▁шарттар	-4192
▁мыйзамдуу	-4193
▁дайындалган	-4194
үгүр	-4195
▁Газ	-4196
▁Карак	-4197
▁азайт	-4198
▁медиа	-4199
ктардын	-4200
▁бериши	-4201
▁териштирүү	-4202
өткө	-4203
▁артка	-4204
▁милдеттен	-4205
шат	-4206
▁дүк	-4207
▁колго	-4208
▁маданий	-4209
▁автоунаа	-4210
▁чогулган	-4211
▁Мекеменин	-4212
▁тургундар	-4213
▁университетинин	-4214
▁36	-4215
абыт	-4216
▁Ала	-4217
▁Молд	-4218
▁үгүт	-4219
▁көрүү	-4220
бүлөлүк	-4221
▁келишет	-4222
▁тажрыйб	-4223
дем	-4224
лов	-4225
тун	-4226
зиев	-4227
ушат	-4228
▁Ада	-4229
▁мобил	-4230
▁Милиция	-4231
▁жетекчилери	-4232
▁32	-4233
...-	-4234
улла	-4235
ption	-4236
штары	-4237
▁экстрем	-4238
▁Сов	-4239
▁чөл	-4240
▁камакта	-4241
▁кийлиги	-4242
▁өзөктүк	-4243
▁коопсуздугун	-4244
рыкча	-4245
▁Image	-4246
▁Ислам	-4247
▁курган	-4248
▁куткар	-4249
▁комплек	-4250
▁көрүүгө	-4251
▁чыгарылган	-4252
▁чөйрө	-4253
▁caption	-4254
▁вакцина	-4255
▁Москванын	-4256
Таш	-4257
шан	-4258
олюция	-4259
▁алышы	-4260
▁өмүрү	-4261
▁баласы	-4262
▁суракка	-4263
▁киргизген	-4264
▁партиялар	-4265
▁жетекчилиги	-4266
жай	-4267
кту	-4268
▁чо	-4269
олоң	-4270
▁Окт	-4271
▁улут	-4272
▁үмүт	-4273
▁ойлон	-4274
▁чыгышты	-4275
▁тест	-4276
▁аткамин	-4277
▁45	-4278
далып	-4279
▁күбө	-4280
▁моюн	-4281
▁реда	-4282
▁медицина	-4283
▁департамент	-4284
их	-4285
кара	-4286
анада	-4287
▁палат	-4288
▁райондорунда	-4289
▁Эң	-4290
чулук	-4291
▁издеп	-4292
▁иштеш	-4293
▁түзүл	-4294
▁Тоолуу	-4295
▁саналат	-4296
▁аткаруучу	-4297
ыйкан	-4298
▁тапты	-4299
▁процес	-4300
▁Депутат	-4301
▁кызматтын	-4302
альд	-4303
▁декабр	-4304
▁консул	-4305
▁шартта	-4306
▁камагына	-4307
▁маркум	-4308
▁ойлойм	-4309
▁Мамлекет	-4310
▁уюмдардын	-4311
▁198	-4312
▁сутк	-4313
▁ысым	-4314
▁чечил	-4315
▁Чолпон	-4316
▁коррупциялык	-4317
▁Вен	-4318
▁айлар	-4319
▁көрүнү	-4320
▁биринде	-4321
▁демонст	-4322
▁кооптон	-4323
тып	-4324
▁шаары	-4325
▁Ник	-4326
▁облусу	-4327
ани	-4328
▁бөлүп	-4329
▁туткун	-4330
▁Алексей	-4331
▁кишилер	-4332
▁колдонуп	-4333
ar	-4334
▁Аф	-4335
егин	-4336
лору	-4337
өнүп	-4338
▁кишил	-4339
▁күнөө	-4340
▁териштир	-4341
▁өлкөлөрү	-4342
▁Атамбаевдин	-4343
ткө	-4344
алест	-4345
масын	-4346
▁берб	-4347
▁үлгү	-4348
▁Аскар	-4349
▁жатам	-4350
▁карай	-4351
▁көбөйгөн	-4352
▁Стам	-4353
▁набыт	-4354
▁тобунун	-4355
▁комиссиясынын	-4356
лин	-4357
ограф	-4358
ератур	-4359
аст	-4360
▁тр	-4361
▁прот	-4362
бекова	-4363
▁милдеттүү	-4364
▁байланышкан	-4365
or	-4366
▁үйүнө	-4367
▁арадагы	-4368
▁саясаты	-4369
▁Германия	-4370
▁болгондордун	-4371
▁Кызыл	-4372
▁Бээжин	-4373
▁автордук	-4374
▁мүмкүнчүлүгү	-4375
паган	-4376
▁айым	-4377
▁баса	-4378
▁Райым	-4379
▁жаракат	-4380
▁күрөшүү	-4381
ырма	-4382
▁кадр	-4383
▁союз	-4384
▁алабыз	-4385
▁байкоо	-4386
▁жараян	-4387
▁жоопко	-4388
▁сүйлөп	-4389
▁келтирген	-4390
▁ачып	-4391
▁терс	-4392
ССР	-4393
бург	-4394
▁толтур	-4395
▁Мирзи	-4396
▁башкача	-4397
▁табылды	-4398
▁күнөөлүү	-4399
▁курултай	-4400
▁Өзбекстанда	-4401
▁Дин	-4402
▁Сур	-4403
▁Жакын	-4404
▁аныктоо	-4405
▁таасири	-4406
гыл	-4407
тен	-4408
▁ла	-4409
▁Сал	-4410
▁көк	-4411
▁үнө	-4412
▁Ибра	-4413
▁автоб	-4414
▁округ	-4415
▁танда	-4416
▁Бейшен	-4417
▁ресурст	-4418
▁лидерлер	-4419
▁кызматташтык	-4420
▁Пол	-4421
орттук	-4422
▁сөзсүз	-4423
")	-4424
еме	-4425
▁жери	-4426
▁келтирүү	-4427
▁Ороз	-4428
▁Поль	-4429
▁мекеме	-4430
▁W	-4431
ида	-4432
чер	-4433
ылап	-4434
▁клим	-4435
▁ойно	-4436
▁Билим	-4437
▁коммер	-4438
▁кымбатт	-4439
▁Өмүрбек	-4440
▁Түркияда	-4441
▁зомбулук	-4442
▁температур	-4443
▁жуу	-4444
▁реп	-4445
▁учуп	-4446
▁аяктаган	-4447
▁сүйлөшүп	-4448
▁ишмердүүл	-4449
▁коомчулук	-4450
▁коргоочулар	-4451
▁башталгандан	-4452
ашат	-4453
▁узак	-4454
▁Бакыт	-4455
▁Евраз	-4456
▁Уюмунун	-4457
▁өспүрүм	-4458
▁келсе	-4459
▁кысым	-4460
▁биргел	-4461
▁аялдардын	-4462
▁министрлигине	-4463
...2	-4464
▁аст	-4465
▁Ташк	-4466
▁Мадум	-4467
▁Мадумаров	-4468
▁алдындагы	-4469
▁тургундары	-4470
▁завод	-4471
▁кагып	-4472
▁факты	-4473
▁акчаны	-4474
▁кете	-4475
▁рубл	-4476
▁ачкан	-4477
▁эпиде	-4478
▁өлкөлөрдө	-4479
▁үйдө	-4480
▁диплом	-4481
▁күчтөрүнүн	-4482
at	-4483
иктин	-4484
▁катаал	-4485
▁келбейт	-4486
▁аймагындагы	-4487
деш	-4488
▁Аман	-4489
▁жашка	-4490
▁кандуу	-4491
▁аягында	-4492
▁бейтаптар	-4493
▁31	-4494
▁масс	-4495
▁чаралар	-4496
▁H	-4497
кыр	-4498
өкөй	-4499
▁сапар	-4500
▁чөлкөм	-4501
▁Дональд	-4502
▁эркиндиги	-4503
▁мамлекеттердин	-4504
рек	-4505
үккө	-4506
▁400	-4507
▁ээси	-4508
▁келиши	-4509
▁кеткени	-4510
▁айылынын	-4511
▁жетектеген	-4512
▁жубай	-4513
беренеси	-4514
▁дүйнөдө	-4515
▁башкармалыгы	-4516
олу	-4517
▁муун	-4518
▁айтуу	-4519
▁өлүмү	-4520
▁Маселен	-4521
▁соттолгон	-4522
▁29	-4523
▁жээ	-4524
▁пост	-4525
▁кетиши	-4526
▁тандоо	-4527
▁Ошондон	-4528
▁кечинде	-4529
▁каршылык	-4530
▁уюштуруу	-4531
КМ	-4532
мир	-4533
▁нач	-4534
▁келбей	-4535
▁жарыялап	-4536
▁Кээ	-4537
▁Осмон	-4538
▁айтат	-4539
▁адамдан	-4540
▁шаарына	-4541
▁катталып	-4542
▁Парламентт	-4543
▁как	-4544
▁бирим	-4545
аланган	-4546
▁калктын	-4547
өбүз	-4548
▁Кой	-4549
ешкен	-4550
ылбай	-4551
▁град	-4552
▁жүйө	-4553
▁болобу	-4554
▁сактагы	-4555
▁дүйнөдөгү	-4556
▁комиссиянын	-4557
▁демократиялык	-4558
▁жуккан	-4559
▁салууга	-4560
▁Азиядагы	-4561
▁аймактагы	-4562
көн	-4563
агым	-4564
▁кеңс	-4565
актагы	-4566
▁келатат	-4567
▁окшойт	-4568
▁Стамбул	-4569
▁бардыгы	-4570
▁өкмөтүнүн	-4571
ыкта	-4572
▁Көл	-4573
▁жам	-4574
▁көм	-4575
▁Кудай	-4576
▁алышат	-4577
▁эскерт	-4578
▁кезекте	-4579
▁жүргүзүү	-4580
▁байланышы	-4581
▁ГЭС	-4582
▁Комп	-4583
▁Улан	-4584
▁оппози	-4585
▁сыпатт	-4586
▁Москвага	-4587
агн	-4588
▁эш	-4589
▁мыр	-4590
елеграм	-4591
▁сапары	-4592
▁коомдун	-4593
▁коронавирустун	-4594
АЭБ	-4595
▁дык	-4596
▁алса	-4597
▁Олимпиада	-4598
бап	-4599
▁ги	-4600
аныч	-4601
▁тат	-4602
▁ыңг	-4603
▁музык	-4604
▁градус	-4605
▁делген	-4606
▁качкын	-4607
▁күрөшт	-4608
▁кагылыш	-4609
▁балдарды	-4610
▁талкууга	-4611
ви	-4612
▁Айыл	-4613
▁Теке	-4614
▁дүкөн	-4615
▁жүгүр	-4616
▁музей	-4617
▁мүлкт	-4618
▁окуяс	-4619
▁тасма	-4620
елешкен	-4621
▁саналып	-4622
▁тараптын	-4623
ста	-4624
шкон	-4625
макка	-4626
энелер	-4627
▁берсе	-4628
▁кошул	-4629
▁кийлигиш	-4630
унду	-4631
ердик	-4632
▁Крым	-4633
▁улуу	-4634
▁берилип	-4635
▁кылууга	-4636
▁Азырынча	-4637
▁маалыматтарга	-4638
▁Меди	-4639
▁жама	-4640
азаров	-4641
▁атаган	-4642
▁бийлигинин	-4643
▁ооруканада	-4644
▁по	-4645
▁дөгү	-4646
▁пров	-4647
▁мунун	-4648
▁айыпталып	-4649
▁ум	-4650
▁Нар	-4651
▁июнь	-4652
▁өсүп	-4653
▁иштеб	-4654
▁күчөп	-4655
▁алдына	-4656
▁элчиси	-4657
▁арасынан	-4658
▁жайгаштыр	-4659
ажы	-4660
▁дост	-4661
▁жаңжал	-4662
▁жыйынт	-4663
▁34	-4664
▁Кы	-4665
▁ут	-4666
▁тек	-4667
ындап	-4668
ордукт	-4669
▁Мирзиё	-4670
▁албаган	-4671
▁мурунку	-4672
▁чыгууга	-4673
▁Бишкекке	-4674
▁парламентте	-4675
ra	-4676
дүм	-4677
▁Аш	-4678
елет	-4679
▁СССР	-4680
▁сотто	-4681
▁тааныш	-4682
▁жыйынтык	-4683
▁жүздөгөн	-4684
▁телеканал	-4685
▁депутаттык	-4686
Тоо	-4687
үтт	-4688
ебин	-4689
стин	-4690
▁мына	-4691
▁эски	-4692
▁алышты	-4693
▁Өкмөтт	-4694
▁көзөмөлдөө	-4695
▁энергетика	-4696
як	-4697
ыгып	-4698
▁мын	-4699
▁доор	-4700
▁оңой	-4701
▁дүйнөнүн	-4702
▁органдарынын	-4703
шту	-4704
эри	-4705
▁Кө	-4706
апар	-4707
▁2024-	-4708
▁түштү	-4709
дарында	-4710
▁ачыкка	-4711
▁иштерди	-4712
▁нааразыл	-4713
имче	-4714
циал	-4715
▁Саяс	-4716
оратор	-4717
▁АКШда	-4718
▁аралы	-4719
▁Россия	-4720
▁академия	-4721
▁дипломатиялык	-4722
гол	-4723
▁Жыйын	-4724
▁топто	-4725
▁кыскарт	-4726
▁адвокаты	-4727
▁	-4728
а	-4729
н	-4730
к	-4731
р	-4732
т	-4733
ы	-4734
е	-4735
и	-4736
л	-4737
д	-4738
у	-4739
о	-4740
г	-4741
м	-4742
б	-4743
с	-4744
ү	-4745
ө	-4746
ш	-4747
п	-4748
й	-4749
ж	-4750
з	-4751
ч	-4752
.	-4753
,	-4754
э	-4755
я	-4756
-	-4757
в	-4758
"	-4759
А	-4760
К	-4761
Б	-4762
ң	-4763
1	-4764
ю	-4765
М	-4766
0	-4767
2	-4768
ц	-4769
С	-4770
Т	-4771
О	-4772
Ж	-4773
У	-4774
ф	-4775
Э	-4776
3	-4777
5	-4778
х	-4779
И	-4780
ь	-4781
9	-4782
4	-4783
Д	-4784
П	-4785
Ш	-4786
7	-4787
6	-4788
8	-4789
Н	-4790
:	-4791
Р	-4792
Ө	-4793
)	-4794
(	-4795
Ч	-4796
Г	-4797
?	-4798
e	-4799
В	-4800
a	-4801
Е	-4802
o	-4803
Ф	-4804
Л	-4805
Х	-4806
i	-4807
t	-4808
n	-4809
r	-4810
%	-4811
I	-4812
З	-4813
s	-4814
Ы	-4815
C	-4816
l	-4817
c	-4818
m	-4819
Ү	-4820
A	-4821
u	-4822
N	-4823
g	-4824
T	-4825
ё	-4826
V	-4827
D	-4828
!	-4829
;	-4830
O	-4831
h	-4832
p	-4833
k	-4834
S	-4835
d	-4836
Ю	-4837
R	-4838
B	-4839
P	-4840
Ц	-4841
M	-4842
y	-4843
F	-4844
K	-4845
+	-4846
ъ	-4847
/	-4848
G	-4849
b	-4850
E	-4851
v	-4852
W	-4853
Я	-4854
w	-4855
L	-4856
H	-4857
Й	-4858
z	-4859
Z	-4860
X	-4861
ӊ	-4862
°	-4863
f	-4864
U	-4865
Y	-4866
щ	-4867
ѳ	-4868
x	-4869
J	-4870
[	-4871
]	-4872
­	-4873
Q	-4874
*	-4875
'	-4876
j	-4877
Ё	-4878
#	-4879
q	-4880
$	-4881
і	-4882
&	-4883
қ	-4884
ı	-4885
ɵ	-4886
\	-4887
Ѳ	-4888
І	-4889
_	-4890
Қ	-4891
@	-4892
ü	-4893
Ş	-4894
ş	-4895
Ɵ	-4896
Щ	-4897
−	-4898
ә	-4899
`	-4900
ғ	-4901
·	-4902
ا	-4903
=	-4904
ç	-4905
é	-4906
İ	-4907
⠀	-4908
️	-4909
¬	-4910
ə	-4911
ұ	-4912
•	-4913
▪	-4914
ö	-4915
ğ	-4916
Ң	-4917
©	-4918
́	-4919
ل	-4920
Ü	-4921
á	-4922
ʙ	-4923
Ь	-4924
ҳ	-4925
ق	-4926
⁄	-4927
→	-4928
昆	-4929
Ç	-4930
Ö	-4931
â	-4932
í	-4933
ï	-4934
љ	-4935
Ұ	-4936
ҷ	-4937
ӏ	-4938
Ә	-4939
ح	-4940
و	-4941
ُ	-4942
―	-4943
⁣	-4944
●	-4945
堅	-4946
鄄	-4947
韓	-4948
鬲	-4949
{	-4950
}	-4951
£	-4952
§	-4953
Ñ	-4954
ß	-4955
ã	-4956
ä	-4957
è	-4958
ñ	-4959
ā	-4960
ą	-4961
Ŋ	-4962
Š	-4963
ū	-4964
ƚ	-4965
Ƣ	-4966
ƣ	-4967
ʼ	-4968
̧	-4969
Ђ	-4970
Ъ	-4971
ђ	-4972
ї	-4973
ћ	-4974
ў	-4975
һ	-4976
ӯ	-4977
خ	-4978
د	-4979
ر	-4980
ز	-4981
ص	-4982
ط	-4983
ظ	-4984
ع	-4985
غ	-4986
ك	-4987
م	-4988
ن	-4989
ه	-4990
ي	-4991
ِ	-4992
‒	-4993
⁠	-4994
回	-4995
族	-4996
