<unk>	0
<s>	0
</s>	0
.	-2.94682
്	-3.79567
ും	-4.21017
്‍	-4.41304
▁	-4.52393
ം	-4.73845
▁,	-4.8646
െ	-4.91396
ാണ്	-5.01654
,	-5.05348
ു	-5.09487
▁.	-5.18468
ി	-5.24927
ത്	-5.61892
ിൽ	-5.67173
യുടെ	-5.70899
▁ഒരു	-5.72197
ിന്റെ	-5.72738
ില്‍	-5.77308
ുള്ള	-5.78982
▁ഈ	-5.79206
ാ	-5.88383
യും	-5.89535
ക്ക്	-5.96595
ൻ	-6.07667
ർ	-6.09647
ര്‍	-6.11395
▁പറഞ്ഞു	-6.11433
▁യും	-6.13684
▁എന്ന	-6.16074
ുടെ	-6.20467
ൽ	-6.21402
യ	-6.24598
▁തന്നെ	-6.25226
ന്‍	-6.31065
▁-	-6.31876
▁ത്	-6.33399
▁സ്	-6.35096
:	-6.35583
▁നിന്ന്	-6.36
▁പി	-6.38316
ിരുന്നു	-6.41428
യാണ്	-6.44794
ല്‍	-6.46771
▁സി	-6.4919
▁ക	-6.5329
▁കഴിഞ്ഞ	-6.58118
സ്	-6.60397
വും	-6.6044
യെ	-6.61546
▁അദ്ദേഹം	-6.6606
▁ആ	-6.66985
▁അതേസമയം	-6.67286
▁എന്നാല്‍	-6.68956
▁കെ	-6.71925
▁യാണ്	-6.74896
▁ത	-6.75566
യില്‍	-6.75871
ുന്ന	-6.76544
യിൽ	-6.76688
▁ഇത്	-6.79501
▁വലിയ	-6.79759
ായിരുന്നു	-6.80496
മ	-6.80586
ായി	-6.80877
▁എന്ന്	-6.80939
ിട്ടുണ്ട്	-6.81061
▁ന	-6.82218
▁മുഖ്യമന്ത്രി	-6.84532
ോ	-6.87041
▁ക്ക്	-6.87423
▁എ	-6.87648
ത	-6.87842
▁വരെ	-6.8866
▁നിന്നും	-6.89866
▁ബിജെപി	-6.90666
▁യുടെ	-6.91027
▁ബി	-6.91067
▁കോണ്‍ഗ്രസ്	-6.91637
ിന്	-6.91933
▁മ	-6.92394
▁സംസ്ഥാന	-6.93031
▁ഇ	-6.93391
മായി	-6.93454
▁യ	-6.9387
മാണ്	-6.94166
ക്	-6.94529
ത്തെ	-6.94696
▁അ	-6.95472
▁കേന്ദ്ര	-6.95904
▁വി	-6.97585
▁'	-6.99391
േ	-7.00464
ത്തിൽ	-7.00868
▁മന്ത്രി	-7.0115
▁എം	-7.02739
ക	-7.03538
▁വ	-7.03931
ത്തിന്റെ	-7.04492
റ	-7.05092
▁അത്	-7.06534
വ	-7.0711
▁ു	-7.07129
▁സ്വദേശി	-7.07141
▁ഇന്ത്യ	-7.07569
▁രൂപ	-7.07759
▁(	-7.0881
ത്തില്‍	-7.09114
▁രണ്ട്	-7.09641
ീ	-7.10731
▁പുതിയ	-7.11657
▁ഇന്ന്	-7.11749
▁സ	-7.13314
ന	-7.1349
▁ചെയ്ത	-7.13929
▁എസ്	-7.1398
▁ശേഷം	-7.15389
ായ	-7.15442
▁ഡി	-7.17271
▁പോലീസ്	-7.17417
▁പറയുന്നു	-7.17815
ാൻ	-7.17822
▁എന്നാണ്	-7.17919
ല	-7.18602
▁എല്ലാ	-7.19234
മായ	-7.20556
സ	-7.21897
ുക	-7.22002
ങ്ങൾ	-7.22152
▁ആണ്	-7.2301
▁ഏറ്റവ	-7.24872
ക്ക	-7.2497
ുണ്ട്	-7.26648
▁ക്കും	-7.27563
▁ചെയ്തു	-7.28714
ിലെ	-7.29908
ര	-7.30702
▁അത	-7.31378
▁സര്‍ക്കാര്‍	-7.31821
ന്	-7.31852
▁;	-7.32274
ച്ച	-7.3346
കൾ	-7.33467
▁കോടതി	-7.34258
▁കൊവിഡ്	-7.34279
▁ദിവസം	-7.34425
▁ഐ	-7.35324
▁നേരത്തെ	-7.3536
ുമായി	-7.36228
▁യെ	-7.36438
▁കേരള	-7.36474
▁വന്ന	-7.36679
▁പാര്‍ട്ടി	-7.37373
ിനെ	-7.37498
▁ജെ	-7.37581
▁ന്	-7.3834
▁തിരുവനന്തപുരം	-7.38809
▁കോവിഡ്	-7.38956
▁ല	-7.39351
സി	-7.39399
▁ജില്ലാ	-7.40327
▁എന്നാൽ	-7.40395
ിരിക്കുന്നത്	-7.40456
▁നടത്തിയ	-7.41333
-	-7.41396
▁യില്‍	-7.41879
ക്കുന്ന	-7.42387
ില്ല	-7.4256
▁മറ്റ	-7.43151
▁എന്നും	-7.43477
▁രാഷ്ട്രീയ	-7.43964
ാന്‍	-7.44552
▁കോടി	-7.45817
▁കൂടി	-7.45933
▁ടി	-7.47024
യുള്ള	-7.4745
▁പേര്‍	-7.47922
▁ചില	-7.49831
▁ം	-7.50963
ത്തിന്	-7.52046
യായ	-7.52129
▁വില	-7.52493
▁മൂന്ന്	-7.5427
▁കൂടുതല്‍	-7.54607
▁കൊണ്ട്	-7.55033
▁ക്ക	-7.55349
▁:	-7.56187
▁പാർട്ടി	-7.56619
▁ആരോഗ്യ	-7.56945
▁ല്‍	-7.56953
▁റ	-7.57041
പി	-7.57775
▁രോഗം	-7.57784
▁വേണ്ടി	-7.58057
▁ിരുന്നു	-7.58062
▁പ	-7.58973
▁ജോലി	-7.59939
▁പിന്നാലെ	-7.60126
▁തുടര്‍ന്ന	-7.6021
▁താണ്	-7.60493
▁പോലും	-7.60526
▁യു	-7.60612
▁തിരഞ്ഞെടുപ്പ്	-7.60775
▁അറിയിച്ചു	-7.60839
▁വ്യക്തമാക്കി	-7.60881
ണ	-7.61331
ന്റെ	-7.62629
▁സർക്കാർ	-7.63105
▁പറയുന്നത്	-7.63411
▁തെന്ന	-7.63625
▁"	-7.64248
്റെ	-7.64286
▁പ്രധാനമന്ത്രി	-7.64399
)	-7.64689
▁കോൺഗ്രസ്	-7.65111
ുകൾ	-7.65335
യ്ക്ക്	-7.65461
▁നടന്ന	-7.66767
▁ആദ്യ	-7.67015
▁പദ്ധതി	-7.6804
▁വും	-7.68052
▁പൊലീസ്	-7.68182
റി	-7.69054
▁മുതല്‍	-7.70082
▁മാ	-7.70497
▁ഇവിടെ	-7.70593
▁അടുത്ത	-7.7089
▁ഇത	-7.71021
▁എന്നിവ	-7.71189
ടി	-7.71546
▁ഇപ്പോള്‍	-7.71617
▁വഴി	-7.72033
ത്ത	-7.72122
▁മോദി	-7.723
കള്‍	-7.7232
▁സെക്രട്ടറി	-7.72583
▁കാരണം	-7.73091
▁നടപടി	-7.73192
ട	-7.73281
▁10	-7.74375
▁ഇനി	-7.74411
▁പരാതി	-7.74555
▁മാത്രം	-7.75938
;	-7.76011
▁ജി	-7.76179
പ്പെട്ട	-7.76337
പ്	-7.76421
▁നല്‍കിയ	-7.76563
പ്പ	-7.76661
▁മാണ്	-7.76918
യിലെ	-7.77208
ന്ന	-7.77438
▁തന്റെ	-7.77603
ൂ	-7.78055
ങ്ങള്‍	-7.78492
▁ഇതുവരെ	-7.7857
▁യായിരുന്നു	-7.78687
ൾ	-7.80401
▁ൽ	-7.80454
ഡ്	-7.80674
ക്കും	-7.80898
▁പല	-7.80899
▁ഇതോടെ	-7.80906
▁ശതമാനം	-7.81125
ൊരു	-7.82203
▁കോഴിക്കോട്	-7.82236
▁റിപ്പോര്‍ട്ട്	-7.82411
▁യിൽ	-7.82798
▁അവര്‍	-7.82907
▁അഞ്ച	-7.82984
▁പറഞ്ഞ	-7.83235
▁വീണ്ടും	-7.8342
▁ഗ	-7.83734
▁ത്ത	-7.8378
▁ലക്ഷം	-7.84063
▁നേതാവ്	-7.84816
▁ര	-7.84875
പ	-7.84877
▁ിട്ടുണ്ട്	-7.84973
▁നിരവധി	-7.85309
ാം	-7.85446
ള	-7.85565
പ്പോൾ	-7.86319
▁ി	-7.86544
▁ില്ല	-7.87474
▁തിന്	-7.87816
▁ഇത്തവണ	-7.88563
ാല്‍	-7.88876
▁നിന്നുള്ള	-7.89109
▁ഗാന്ധി	-7.89341
▁വിവിധ	-7.89402
ോട്	-7.89483
▁അദ്ദേഹത്ത	-7.89794
ിലേക്ക്	-7.89794
▁വളരെ	-7.8981
▁പ്രതിപക്ഷ	-7.90101
െന്നും	-7.90184
▁ക്	-7.90282
ത്ത്	-7.90426
▁സംസ്ഥാനത്ത്	-7.90792
▁ാണ്	-7.90819
ുകള്‍	-7.91147
▁ദേശീയ	-7.91641
▁യ്ക്ക്	-7.91729
▁ട	-7.92031
▁ഞാന്‍	-7.9249
▁ജില്ലയില്‍	-7.92792
ുന്നത്	-7.92829
▁20	-7.93006
▁പിന്നീട്	-7.93071
ിക്കുന്ന	-7.9327
▁വകുപ്പ്	-7.93347
▁മാത്രമാണ്	-7.93725
ാൽ	-7.93853
▁15	-7.94089
▁പിണറായി	-7.94153
▁എത്തിയ	-7.94239
െല്ലാം	-7.94318
▁നിലവില	-7.9463
▁സാധ്യത	-7.95337
▁ശക്തമായ	-7.95475
▁ഇതിന്	-7.95724
▁പ്രത്യേക	-7.9575
▁വരും	-7.95778
▁കേസ്	-7.96566
▁ബ	-7.96616
▁ത്തിന്റെ	-7.96795
▁തും	-7.96818
▁?	-7.96999
▁കള	-7.97013
5	-7.97157
ാത്ത	-7.9754
▁പ്രശ്	-7.9755
0	-7.97734
▁പ്രതി	-7.9818
▁ആവശ്യപ്പെട്ട	-7.99164
ല്ല	-7.99456
ൺ	-7.99558
▁അവരുടെ	-7.99677
ഡ	-7.99876
▁തുടങ്ങിയ	-8.00563
▁ചോദ്യം	-8.00882
4	-8.00947
▁രാഹുല്‍	-8.00976
7	-8.0105
6	-8.011
▁യിലെ	-8.01226
ിയ	-8.01494
▁നല്ല	-8.01528
▁ലഭിച്ച	-8.01546
▁ചെയ്തത്	-8.01875
▁സിപിഎം	-8.01994
ണം	-8.02058
▁ക്കാന	-8.02103
▁ലെ	-8.02316
▁ക്കെതിരെ	-8.0245
?	-8.02779
▁പരിശോധന	-8.03298
▁12	-8.0343
ാതെ	-8.036
▁യോ	-8.0362
െങ്കിലും	-8.03823
1	-8.03953
▁മികച്ച	-8.04041
▁പറഞ്ഞത്	-8.04259
ഡി	-8.04414
▁വാക്	-8.04601
▁സാമ്പത്തിക	-8.04702
▁5	-8.04808
▁ചെയ്യുന്ന	-8.04911
▁യെന്ന	-8.0504
▁നാല്	-8.05061
▁ുവെന്ന	-8.05087
▁11	-8.0532
▁ാ	-8.05579
▁മുന്‍	-8.05697
▁മായ	-8.05899
▁കള്‍	-8.05918
▁വരുന്ന	-8.06117
▁മുതൽ	-8.06274
▁വീഡിയോ	-8.06314
▁തിരഞ്ഞെടുപ്പില	-8.06402
▁കൊറോണ	-8.0684
▁...	-8.07127
▁പോലെ	-8.07309
▁ഇവര്‍	-8.07587
▁നി	-8.07804
▁പണം	-8.08084
▁മറുപടി	-8.08173
▁24	-8.08301
തിന്	-8.08466
▁വിവരം	-8.0856
▁യാത്ര	-8.08594
▁ുണ്ട്	-8.08601
▁പക്ഷേ	-8.08613
റ്റ്	-8.08864
▁ത്തിന്	-8.08897
▁ഇത്തര	-8.08952
▁എന്റെ	-8.09279
▁പുറത്ത്	-8.0962
ിരിക്കുകയാണ്	-8.09767
▁തവണ	-8.09779
8	-8.09836
▁സമയം	-8.10006
▁പ്രഖ്യാപിച്ച	-8.10248
▁തന്നെയാണ്	-8.10337
▁വര	-8.10713
▁നിയമ	-8.10772
▁ഞാൻ	-8.109
▁ഇങ്ങനെ	-8.11262
▁ിരിക്കുകയാണ്	-8.11296
▁ബന്ധപ്പെട്ട	-8.1163
▁സ്ഥിരീകരിച്ച	-8.11658
▁ചൈന	-8.11681
▁)	-8.11695
▁മായി	-8.12122
▁തീരുമാനം	-8.12188
▁പ്രധാന	-8.12493
▁സ്വദേശിനി	-8.12512
യായി	-8.12528
▁കൈ	-8.12617
▁പ്രസിഡന്റ്	-8.12629
▁സിനിമ	-8.1274
9	-8.12844
▁ചര്‍ച്ച	-8.12929
വി	-8.12966
▁ജ	-8.13561
▁കൂടുതൽ	-8.1374
നി	-8.13762
▁അന്വേഷണ	-8.13777
ിന്‍റെ	-8.15388
തായി	-8.15496
▁ക്കു	-8.1565
▁എന്നിവര	-8.15721
▁രാവിലെ	-8.15795
▁സീറ്റ്	-8.16005
▁ായിരുന്നു	-8.16015
▁കണ്ണൂര്‍	-8.16172
▁കൾ	-8.16333
േണ്ട	-8.16595
▁നടത്തി	-8.17089
▁പേര്‍ക്ക്	-8.17582
▁വോട്ട്	-8.17813
ലി	-8.17928
▁നേതാക്കള്‍	-8.18132
▁ഡോ	-8.18282
▁അവർ	-8.1835
▁റിപ്പോർട്ട്	-8.18423
രി	-8.18449
3	-8.18456
▁ജില്ലയിലെ	-8.18535
▁ത്തി	-8.18786
ക്കാൻ	-8.18909
േക്ക്	-8.18981
ജി	-8.19034
▁ത്തെ	-8.19075
▁നിയമസഭാ	-8.19208
▁3	-8.19209
▁ര്‍	-8.19297
റ്റ	-8.19302
▁കളും	-8.1951
▁പ്ര	-8.19717
കളുടെ	-8.20206
▁അന്വേഷണം	-8.20243
▁14	-8.20287
2	-8.20392
▁ദില്ലി	-8.20561
▁ഒ	-8.20907
▁ആയിരുന്നു	-8.20959
▁രാജ്യത്ത	-8.21075
▁സുരക്ഷ	-8.21378
▁കണ്ട	-8.2167
▁ആര്‍	-8.21686
▁2	-8.21903
▁നേതൃത്വം	-8.21968
▁30	-8.22251
▁പിന്തുണ	-8.22375
▁എണ്ണം	-8.22464
ഷ	-8.22966
▁ിരിക്കുന്നത്	-8.23004
▁എഫ്	-8.23013
▁ഉള്ള	-8.23153
▁നല്‍കി	-8.23885
▁ില്ലെന്ന	-8.23978
▁നും	-8.2404
ിലൂടെ	-8.24242
▁ത്തില്‍	-8.24443
തി	-8.24638
▁താന	-8.24882
▁കൊണ്ട	-8.24896
▁കമ്മിറ്റി	-8.24932
ഗ	-8.25297
▁നടി	-8.25338
▁അവിടെ	-8.25441
ബ	-8.25659
▁അമേരിക്ക	-8.25663
▁18	-8.25685
ക്കാന്‍	-8.25744
ിംഗ്	-8.26225
▁എനിക്ക്	-8.26318
▁ബിഗ്	-8.26425
മുള്ള	-8.26674
▁സു	-8.26739
▁സിംഗ്	-8.27178
▁അതിന്	-8.27461
▁ആകെ	-8.27501
▁കാര്യം	-8.27506
▁ങ്ങള	-8.27642
▁പൊതു	-8.27814
▁സാഹചര്യത്തില	-8.27822
▁ഒന്ന	-8.28013
▁അതുകൊണ്ട	-8.28067
▁ഓരോ	-8.28218
▁കൊച്ചി	-8.28333
തോടെ	-8.28387
▁മുമ്പ്	-8.28574
▁തെന്ന്	-8.28644
▁ആയി	-8.2873
▁തായി	-8.28734
എസ്	-8.28905
▁രണ്ടാം	-8.28933
▁നെ	-8.29089
▁ച്ച	-8.29254
▁ന്റെ	-8.29347
ട്ട	-8.29834
▁ഇവര	-8.29859
യുമായി	-8.29876
▁നൽകിയ	-8.30652
▁വര്‍ഷം	-8.30959
▁25	-8.31064
▁13	-8.31101
▁മാത്രമല്ല	-8.31203
▁അറസ്റ്റ്	-8.31475
▁യാ	-8.31482
▁കോട്ടയം	-8.31495
▁ഷാ	-8.31759
▁നടക്കുന്ന	-8.31854
▁ആർ	-8.32008
▁മഴ	-8.32251
▁ആലപ്പുഴ	-8.32595
ക്കെതിരെ	-8.32815
▁യി	-8.33223
▁ച	-8.33399
വുമായി	-8.3355
▁50	-8.33698
▁ഇന്ത്യന്‍	-8.34044
▁മാസം	-8.34158
ിങ്	-8.34488
ദ	-8.34687
▁സംഭവം	-8.34715
▁റെ	-8.34717
ഹ	-8.34907
▁കാര്യങ്ങള്‍	-8.35084
▁വിജയ	-8.35147
▁ഏറെ	-8.35243
▁കുറിച്ച്	-8.3538
▁പാലക്കാട്	-8.35386
▁ആദ്യം	-8.35477
▁ഉപയോഗിച്ച	-8.35507
▁കേരളത്തില്‍	-8.35538
▁യുഡിഎഫ്	-8.35572
▁ഹ	-8.35583
ജ	-8.35651
എ	-8.35696
▁എറണാകുളം	-8.35884
▁പേർ	-8.35907
ൈ	-8.36108
▁സ്ഥാനാര്‍ത്ഥി	-8.36256
▁കോ	-8.36812
നെ	-8.36844
▁ന്‍	-8.36952
▁ും	-8.3698
ശ	-8.37115
▁മറ്റൊര	-8.37664
▁4	-8.3781
▁16	-8.37993
▁രംഗത്ത്	-8.38093
▁ങ്ങള്‍	-8.38378
▁തനിക്ക	-8.38457
▁പ്രതിരോധ	-8.38608
▁സംഘടന	-8.38802
▁പോയ	-8.39021
▁എടുത്ത	-8.39217
മാ	-8.39396
▁ആര	-8.3947
ുളള	-8.39493
▁വെച്ച	-8.39559
▁സംബന്ധിച്ച്	-8.39576
▁ഹൈക്കോടതി	-8.39585
▁എന്‍	-8.39664
ിരുന്ന	-8.39752
▁പേരാണ്	-8.39762
▁കൊല്ലം	-8.39846
▁നാ	-8.39847
▁ഇതില്‍	-8.4003
▁തി	-8.40138
▁സമിതി	-8.4036
▁യുള്ള	-8.40532
▁നിലപാട്	-8.40668
▁17	-8.40973
▁വിട്ട	-8.41075
▁രണ്ടു	-8.41119
▁അനുമതി	-8.41132
▁സ്വകാര്യ	-8.41239
▁കേസില്‍	-8.41307
▁ആശുപത്രി	-8.41491
▁21	-8.41498
▁െന്ന്	-8.41589
▁അന്ന്	-8.4168
▁കമ്പനി	-8.41934
▁9	-8.42122
കെ	-8.42141
▁പറഞ്ഞിരുന്നു	-8.42371
▁ന്ന	-8.42423
▁19	-8.42435
▁നിന്ന	-8.42449
▁6	-8.42876
▁എത്തി	-8.43026
▁അവസാന	-8.43035
▁സംഘം	-8.43314
▁പ്രകാരം	-8.43329
▁ദ	-8.43336
▁നീക്കം	-8.43456
▁ോ	-8.4349
▁മാറ്റി	-8.43536
ത്തി	-8.43538
▁െന്നും	-8.43877
▁അങ്ങനെ	-8.44124
▁1	-8.44231
▁വ്യക്തമാക്കുന്ന	-8.44259
▁ചെയ്തിരുന്നു	-8.4431
▁സൗദി	-8.44346
ുമാണ്	-8.44547
▁നടത്തുന്ന	-8.44622
്ര	-8.44794
▁പത്തനംതിട്ട	-8.44806
▁കൂടാതെ	-8.45023
▁രാത്രി	-8.45044
ുകയും	-8.45366
▁നമ്മുടെ	-8.45377
▁സമയത്ത്	-8.45567
▁നില	-8.45619
▁എല്‍	-8.46031
▁എല്ലാവര	-8.46086
▁അപേക്ഷ	-8.46296
▁മോ	-8.46367
െന്ന്	-8.46738
▁ർ	-8.46795
▁കേരളത്തിലെ	-8.4696
യോ	-8.4697
▁റഷ്യ	-8.47033
▁യാണെന്ന	-8.47254
▁യുമായി	-8.47295
▁തു	-8.4746
▁ബന്ധപ്പെട്ട്	-8.48067
▁ആവശ്യം	-8.48305
▁ഫലം	-8.48468
▁ഇക്കാര്യം	-8.48505
▁ത്തിൽ	-8.48742
▁ജന	-8.4883
▁രീതിയില	-8.48947
▁സുരേഷ്	-8.48964
▁ഭാഗമായി	-8.4904
▁പേരെ	-8.49041
▁സ്വന്തം	-8.49043
▁വര്‍	-8.49056
▁തോടെ	-8.4913
▁സൂചന	-8.49381
▁രോഗ	-8.49507
▁തല	-8.49815
▁വച്ച	-8.49881
▁സ്ത്രീ	-8.49912
ാന	-8.50014
ൂര്‍	-8.50088
▁മു	-8.50103
▁തദ്ദേശ	-8.50199
മെഡിക്കല്‍	-8.50285
ൊക്കെ	-8.50398
▁കട	-8.50493
▁ഇട	-8.50508
▁മുൻ	-8.50549
▁എക്	-8.50707
▁റ്റ	-8.51295
ിനെതിരെ	-8.51643
ക്കി	-8.51811
▁മാത്രമേ	-8.51901
▁/	-8.52186
▁കളുടെ	-8.52585
▁വനിത	-8.52663
▁നരേന്ദ്ര	-8.52866
▁ആറ്	-8.52887
േയും	-8.53156
▁വന്‍	-8.53188
▁ചെയ്യുന്നത്	-8.53262
▁തിന്റെ	-8.53325
ക്കുകയും	-8.5335
▁22	-8.53508
▁ിട്ടില്ല	-8.53517
▁ഓഫ്	-8.53615
ഫ	-8.53782
▁രാജ്യത്തെ	-8.5379
▁ൻ	-8.538
▁ചികിത്സ	-8.53953
▁പ്രതിഷേധ	-8.53953
▁വെ	-8.54006
▁8	-8.54341
▁നേടിയ	-8.54556
▁കുട്ടി	-8.5456
▁പ്രതികരണം	-8.54657
▁ഉ	-8.54694
▁7	-8.54757
▁ഉണ്ട്	-8.54794
▁മലപ്പുറം	-8.5486
യ്	-8.54884
▁ാല്‍	-8.54952
ങ്ങ	-8.54953
▁അറിയിച്ച	-8.55088
▁സോഷ്യല	-8.55216
▁ഭരണ	-8.55312
▁അടക്കം	-8.55334
▁സംബന്ധിച്ച	-8.55349
▁പേരും	-8.55429
▁യിലും	-8.55447
▁ട്ട	-8.55542
▁വെച്ച്	-8.55644
▁വാ	-8.55704
എം	-8.55798
▁ആയ	-8.55899
കളിൽ	-8.5594
▁ലഭിക്കും	-8.56374
▁ഇന്നലെ	-8.56467
▁ങ്ങളും	-8.56631
▁ലോക്	-8.56667
▁ഉയര്‍ന്ന	-8.56758
▁ഇടുക്കി	-8.56882
▁കാ	-8.56886
ബി	-8.57419
ുമ്പോള്‍	-8.57492
▁വിഭാഗം	-8.57509
▁വർ	-8.57802
▁പ്രതിസന്ധി	-8.57841
ൊന്നും	-8.57912
ുമ്പോൾ	-8.57913
▁െങ്കിലും	-8.58155
▁കളില്‍	-8.58168
▁മാറ്റ	-8.58243
യിലേക്ക്	-8.58313
▁കടുത്ത	-8.58359
▁വിജയം	-8.58485
▁ആശുപത്രിയില്‍	-8.58526
മി	-8.58557
▁മുന്നോട്ട്	-8.58642
▁പോയി	-8.58643
▁പേര്	-8.5868
▁മുഹമ്മദ്	-8.58719
▁ഡ	-8.5874
▁കുമാര്‍	-8.58767
▁തുടർന്ന്	-8.58968
▁വിദ്യാഭ്യാസ	-8.59246
▁വ്യക്തി	-8.59333
▁40	-8.59419
▁കണ്ടെത്തിയ	-8.59541
▁എന്നത്	-8.59668
▁പ്രതീക്ഷ	-8.59723
▁ആശങ്ക	-8.59999
▁കേരളം	-8.60039
▁മത	-8.60161
▁ിട്ടുണ്ടെന്ന	-8.6017
▁കുറഞ്ഞ	-8.60525
▁തായ	-8.6063
▁മരിച്ച	-8.60732
▁വ്യക്തമാക്കിയ	-8.60737
▁പ്പ	-8.60946
▁മേഖല	-8.61001
ങ്ങളുടെ	-8.61007
ിച്ച	-8.61127
▁ിരുന്ന	-8.6116
▁മറ്റു	-8.61172
▁ശക്തി	-8.61496
▁അമ്മ	-8.61672
▁ഷ	-8.61738
▁മരണ	-8.6193
▁വിധി	-8.62046
▁ഉണ്ടായ	-8.6221
▁23	-8.62342
ുന്നു	-8.62359
നായ	-8.62529
ാലും	-8.6258
പ്പോള്‍	-8.62772
ൊ	-8.63438
▁പരിപാടി	-8.63478
▁കൃത്യമായ	-8.63551
താണ്	-8.63702
▁ബിജെപിയുടെ	-8.63819
▁അതേ	-8.6401
▁നടത്തിയത്	-8.64046
▁മാറി	-8.64056
▁ലി	-8.64282
▁വൈറസ്	-8.64463
യാ	-8.64465
▁!	-8.64743
ക്കുക	-8.64955
▁ലീഗ്	-8.64992
▁ലോക	-8.65038
▁കുറച്ച	-8.65039
▁പത്ത	-8.65071
▁മായിരുന്നു	-8.65284
▁നാണ്	-8.65661
ിലും	-8.65674
ലെ	-8.65719
▁വീട്ടില്‍	-8.65863
▁ചർച്ച	-8.65967
▁മുന്നണി	-8.65993
▁ആരോപണം	-8.66047
▁വികസന	-8.66291
വര്‍	-8.6631
▁ബാധിച്ച	-8.66774
▁ചെയ്യും	-8.66875
▁പാല	-8.66967
▁യോഗം	-8.66992
▁യിലേക്ക്	-8.67644
ഷ്	-8.67856
▁െന്ന	-8.67921
▁ആവശ്യപ്പെട്ടു	-8.67937
▁ഭൂമി	-8.6801
▁ങ്ങൾ	-8.68092
▁തൃശൂര്‍	-8.68235
ിൻ്റെ	-8.68237
▁ബോസ്	-8.68438
▁എല്ലാം	-8.68618
▁തുടങ്ങി	-8.68653
▁എന്നതാണ്	-8.68744
▁പ്രിയങ്ക	-8.69279
ുമെന്ന്	-8.69416
▁ഭാര്യ	-8.69537
▁കാല	-8.69565
▁എണ്ണ	-8.69597
▁എന്നായിരുന്നു	-8.69629
▁ശ്രീ	-8.69728
▁കു	-8.69754
▁ക്കാ	-8.69851
▁എന്ത്	-8.69973
ഐ	-8.70107
▁മാണി	-8.70115
ധികം	-8.70122
▁താ	-8.70129
▁ക്കായി	-8.70527
▁തില്‍	-8.70579
▁ഇന്ന	-8.70591
▁ടെ	-8.70818
▁യുവതി	-8.70876
ുകയായിരുന്നു	-8.70972
▁ങ്ങ	-8.71078
▁എൻ	-8.71156
▁പറയുന്ന	-8.71206
▁തുക	-8.71336
▁ആരംഭിച്ച	-8.71358
▁തുറന്ന	-8.71368
▁പ്രവര്‍ത്തനങ്ങള	-8.71614
▁ഇല്ല	-8.71639
▁നിലവ	-8.71826
▁നല്‍കുന്ന	-8.71827
,000	-8.71881
▁മുന്നില്‍	-8.71883
▁26	-8.72068
▁ണ	-8.7236
▁ലും	-8.72429
യില	-8.72457
▁കേസ	-8.72528
▁എംഎല്‍എ	-8.7261
▁യായി	-8.72836
▁ഷോ	-8.72997
▁എത്ര	-8.73069
▁തിനെ	-8.7332
▁കൂട്ട	-8.73377
ില	-8.73462
▁കാര	-8.73636
▁വയനാട്	-8.73977
▁കേന്ദ്രം	-8.74077
▁മുസ്ലിം	-8.74229
),	-8.74316
▁സംഭവ	-8.74488
▁നിയമസഭ	-8.74514
▁ഇതിന്റെ	-8.74563
▁സമ്പർക്കം	-8.74798
▁എങ്ങനെ	-8.74811
▁ഞങ്ങള്‍	-8.75053
▁വിവാഹ	-8.75057
▁പഞ്ചായത്ത്	-8.7506
▁പ്രവര്‍ത്തകര്‍	-8.75162
▁യ്	-8.75178
▁താണെന്ന	-8.75229
▁മണി	-8.75332
▁ആഭ്യന്തര	-8.75471
▁എംപി	-8.75506
▁31	-8.75521
ദ്	-8.75581
▁വന്നു	-8.75607
'	-8.7566
▁28	-8.7581
▁ഇതേ	-8.75826
▁മൊഴി	-8.76314
▁മെ	-8.76401
ണ്ട	-8.76622
▁27	-8.76751
▁ചുമതല	-8.76863
▁കര	-8.76921
▁പ്പോള്‍	-8.77102
▁വർഷം	-8.77202
▁എന്നെ	-8.77284
▁കാലത്ത്	-8.77396
▁മെഡിക്ക	-8.77455
▁വേണ്ട	-8.77639
▁മാധ്യമ	-8.77739
▁കളാണ്	-8.77809
▁കളെ	-8.78107
▁സ്വീകരിച്ച	-8.78111
ള്‍	-8.78151
▁വന്നത്	-8.78192
▁നേതാക്കൾ	-8.78332
▁മി	-8.78361
▁ഉള്ളത്	-8.7838
▁വുമായി	-8.78487
▁തോമസ്	-8.78638
▁ഒരിക്കല	-8.78744
▁ക്കുള്ള	-8.78757
▁ചെയ്യാന്‍	-8.7889
▁കൂടെ	-8.78939
▁റി	-8.7905
▁വൈ	-8.79152
▁തിരിച്ചു	-8.79214
▁കഴിയുന്ന	-8.79337
▁താരം	-8.79368
▁നടന്നത്	-8.79446
ഴ	-8.79591
▁തരത്തില	-8.79615
▁സ്ഥിതി	-8.79623
▁നമുക്ക	-8.79692
▁ചിത്രം	-8.79716
▁സ്ഥിരീകരിച്ചത്	-8.79725
▁ക്കണമെന്ന	-8.79866
▁അമിത്	-8.79934
▁സമര	-8.79966
▁അവ	-8.80189
▁60	-8.80233
▁ഉയർന്ന	-8.80262
▁പലര	-8.80279
▁മുംബൈ	-8.80474
▁ഇരു	-8.80634
▁അവരെ	-8.8072
വാ	-8.81099
▁നിരക്ക്	-8.81217
▁ലഭിച്ചത്	-8.81283
▁മീഡിയ	-8.81333
▁ത്തിനും	-8.81449
▁തമ്മില	-8.81657
മ്മ	-8.81687
▁ഇപ്പോഴും	-8.8179
ിക	-8.81925
ാനുള്ള	-8.81963
▁നേതൃത്വത്ത	-8.82084
▁രി	-8.82174
▁കേരളത്തിൽ	-8.82317
ത്തിനായി	-8.82339
▁പരീക്ഷ	-8.82521
▁മലയാള	-8.82651
▁സര്‍ക്കാരിന്റെ	-8.8269
▁ചെറിയ	-8.82713
▁കോണ്‍ഗ്രസിന്	-8.82728
▁ജാഗ്രത	-8.82777
▁പറഞ്ഞ്	-8.83115
▁നേടി	-8.83343
▁കേസില	-8.83346
▁പങ്കെടുത്ത	-8.83366
▁നിന്നാണ്	-8.83367
▁തമിഴ്	-8.83454
▁കൊണ്ടാണ്	-8.83458
▁സ്വയം	-8.83479
▁യുഎഇ	-8.83606
▁രജിസ്റ്റ	-8.83698
▁ജോസ്	-8.83728
▁നേരെ	-8.83729
▁സംസ്ഥാനത്ത	-8.83746
റു	-8.8387
വ്	-8.83918
▁രു	-8.84015
▁ചേര്‍ന്ന	-8.84182
▁ബാ	-8.84234
▁എൽ	-8.84251
▁തോ	-8.84307
▁ഞങ്ങൾ	-8.84524
▁കി	-8.84564
ീസ്	-8.84575
▁കാണാന	-8.84586
ണമെന്ന	-8.84601
കര	-8.84624
യി	-8.848
▁ശ	-8.8493
▁േ	-8.85012
▁നൽകി	-8.85044
▁സിന്‍	-8.85156
▁ജോ	-8.85402
ോടൊപ്പം	-8.85738
▁പോസ്റ്റ്	-8.85753
▁കോണ്‍ഗ്രസിന്റെ	-8.85765
▁സഭാ	-8.85851
▁മമത	-8.86082
▁മെയ്	-8.86143
▁ഭീഷണി	-8.86276
▁നല്‍കിയത്	-8.86518
▁ജില്ല	-8.86628
▁നേരിട്ട്	-8.86737
മ്പ	-8.86739
▁ക്കാന്‍	-8.86816
ോളം	-8.86863
▁ഉന്നത	-8.86922
▁കൊടുത്ത	-8.86948
▁നികുതി	-8.86998
▁സാ	-8.87066
▁വിദേശ	-8.8715
▁നാളെ	-8.87157
ധ	-8.8724
▁വിമാന	-8.87344
▁ഔദ്യോഗിക	-8.87537
▁സുപ്രീം	-8.87642
▁മെന്റ്	-8.87726
▁സാധിക്കും	-8.87755
▁വരുടെ	-8.87799
▁രംഗത്തെത്തിയ	-8.87832
▁നിങ്ങളുട	-8.88093
▁ഇവരെ	-8.88248
▁ചെന്നിത്തല	-8.88355
▁കാര്യ	-8.88381
ലാ	-8.88436
▁യെന്ന്	-8.88452
▁ഇവ	-8.8858
▁പാ	-8.88634
▁തീരുമാനിച്ച	-8.88725
▁വേണം	-8.88739
▁ഏഴ്	-8.88793
▁പ്രവര്‍ത്തിക്ക	-8.88875
▁ചാണ്ടി	-8.89249
▁പദവി	-8.89319
▁ലക്ഷ്യം	-8.89341
▁കണ്ണൂർ	-8.89364
▁സാധാരണ	-8.89448
▁മൂന്നാം	-8.89448
▁2019	-8.89463
▁ക്കൊപ്പം	-8.8948
▁29	-8.89703
▁രൂപയാണ്	-8.89908
▁യായ	-8.90059
▁ലഭിക്കുന്ന	-8.90066
▁ജോസഫ്	-8.90124
▁വര്‍ക്ക്	-8.90261
▁അടി	-8.9048
▁സ്ഥാനം	-8.90529
▁യോഗ്യത	-8.90532
▁മാറ്റം	-8.9057
▁ഇയാള്‍	-8.90593
▁രാഹുൽ	-8.9089
▁കേസിൽ	-8.91069
▁ബിജെപിക്ക്	-8.91146
▁വരുന്നത്	-8.91229
▁ടു	-8.9131
▁കോണ്‍ഗ്രസില	-8.91471
▁പകരം	-8.91608
▁രാജ	-8.91781
▁നല്‍കാന	-8.91931
ിട്ടില്ല	-8.91977
▁1,	-8.92186
▁ഗോപി	-8.92211
▁ഇരുവര	-8.92233
ങ്	-8.92468
ുമോ	-8.92592
▁പേരില്‍	-8.92595
▁ല്ല	-8.926
▁രാജി	-8.92707
▁ുണ്ടെന്ന	-8.92713
000	-8.92799
പ്പ്	-8.92867
ട്	-8.92882
▁വ്യാജ	-8.92908
▁പ്രതിഷേധം	-8.92928
▁ജനാധിപത്യ	-8.93201
▁ഒന്നാം	-8.93284
▁ക്കാണ്	-8.93349
▁ഫ	-8.93362
ങ്ക	-8.93369
▁ഇവർ	-8.9338
▁മത്സര	-8.93459
▁ജൂണ	-8.93593
▁ിട്ടുള്ളത്	-8.9363
▁പിസി	-8.93662
▁എത്തിയത്	-8.937
▁ചേർന്ന	-8.93705
▁ആരോപിച്ചു	-8.93753
▁അടിസ്ഥാനത്തില	-8.93824
▁നടത്താന	-8.9383
▁യിലാണ്	-8.93913
▁വിട്ടു	-8.94016
ളി	-8.94149
▁സെ	-8.94207
▁ശ്രദ്ധ	-8.94294
▁കുടുംബ	-8.94432
▁തിരുവനന്തപുരത്ത	-8.94452
ച്ച്	-8.94592
റ്റി	-8.94612
▁ബന്ധം	-8.9462
▁ശ്രമം	-8.94621
▁താഴെ	-8.94684
▁കനത്ത	-8.94801
▁ഖ	-8.95058
▁മാറിയ	-8.95226
▁എട്ട്	-8.95289
▁പോകുന്ന	-8.953
ങ്ങളിൽ	-8.95372
▁വിവരങ്ങള്‍	-8.95436
▁മുസ്ലീം	-8.9556
▁രമേശ്	-8.95633
▁35	-8.95737
▁മുന്നറിയിപ്പ്	-8.95797
▁മണ്ഡലം	-8.95937
▁തിരഞ്ഞെടുപ്പിൽ	-8.95975
▁നിയമം	-8.96021
▁മേഖലയില്‍	-8.9612
▁അംഗ	-8.96227
▁വീതം	-8.96282
▁നോ	-8.96349
▁നടക്കുന്നത്	-8.96414
▁ങ്ങളുടെ	-8.96563
▁അവസരം	-8.96612
▁ശ്രമിച്ച	-8.96627
ക്കാനുള്ള	-8.96776
▁ഏത്	-8.97008
▁മാര്‍ച്ച	-8.97044
▁45	-8.9712
▁താൻ	-8.97271
▁കൂടിയാണ്	-8.9732
▁ചോദിച്ചു	-8.97439
▁കൊണ്ടു	-8.97502
▁ഓ	-8.97561
▁സോണിയ	-8.97668
▁ഒരുപാട	-8.97681
▁ബാല	-8.97787
യായിരുന്നു	-8.97934
▁മുള്ള	-8.98045
ന്ത	-8.98087
▁മുമ്പ	-8.98114
▁യോട്	-8.98131
▁അധ്യക്ഷ	-8.98153
▁െന്നാണ്	-8.98166
ൂർ	-8.98166
▁തിനു	-8.9818
▁ശേഷമാണ	-8.98221
▁യോഗത്തില്‍	-8.98484
▁വിതരണം	-8.98488
▁ള	-8.98507
▁ഇത്രയ	-8.98512
▁വരാണ്	-8.98549
▁വിരുദ്ധ	-8.98722
▁ചെയ്യാന	-8.98965
▁മത്സരിച്ച	-8.9899
▁പോ	-8.99022
▁ചെയ്യ	-8.9905
▁സമരം	-8.99088
▁കളി	-8.99096
ന്റ്	-8.991
▁സാഹചര്യം	-8.99187
ട്ടി	-8.99259
▁നിന്നു	-8.99284
▁എന്താണ്	-8.99387
▁വാഹന	-8.99421
▁മരണം	-8.9943
▁ലോ	-8.9961
▁പ്രസ്താവന	-8.99787
▁ങ്ങളെ	-8.99856
ഫ്	-8.99858
താ	-8.99994
▁അധ്യക്ഷന്‍	-9.00137
▁ക്കുന്ന	-9.00163
▁100	-9.00357
▁വീട്	-9.00377
▁ചെ	-9.00458
▁മേഖലയില	-9.00652
▁ത്തിലെ	-9.00753
▁തിന	-9.00772
ക്കാ	-9.00796
▁പരിശോധിച്ച	-9.00819
▁കഴിഞ്ഞു	-9.00865
▁യാതൊരു	-9.00898
▁ഫേസ്ബുക്ക്	-9.01285
▁മാര	-9.01569
▁കടന്ന	-9.01591
റെ	-9.01766
▁ലക്ഷ	-9.01787
ിട	-9.01804
▁തിനാല്‍	-9.01861
ാവ	-9.02296
▁ക്കുക	-9.02495
▁തീരുമാന	-9.02601
▁ചെയ്തിട്ടുണ്ട്	-9.0269
തെന്നും	-9.02704
ുകളും	-9.02709
▁2021	-9.02736
▁തീ	-9.02787
▁യില	-9.02815
▁നു	-9.02941
▁അല്ല	-9.02961
▁ഒറ്റ	-9.02989
▁കേസുകള	-9.0306
ത്ര	-9.03073
▁വേ	-9.03082
▁നടത്തുന്നത്	-9.0314
▁മണ്ഡലത്തില്‍	-9.0319
▁അഴിമതി	-9.03226
▁പട്ടിക	-9.03251
▁സ്ഥാനാർത്ഥി	-9.03289
▁കോടതിയില്‍	-9.03327
▁വിഷയത്തില	-9.03348
▁പുറത്തു	-9.03451
▁പിന്നെ	-9.03485
▁പൊലീസ	-9.03496
▁സാഹചര്യത്ത	-9.03666
▁എന്നത	-9.03715
▁യൂത്ത	-9.03783
▁റിപ്പോര്‍ട്ടുകള	-9.03802
യു	-9.03863
▁രാജ്യ	-9.04116
▁ദിലീപ്	-9.04147
▁വിവാഹം	-9.04266
▁കുറിച്ച	-9.0428
▁സ്ഥാപന	-9.04297
▁ഇനിയ	-9.04349
▁മുഴുവന്‍	-9.04448
ഭ	-9.04461
▁സ്ഥിരീകരിച്ചു	-9.04507
▁മെന്ന	-9.04509
▁ിരുന്നത്	-9.04519
▁സഹ	-9.04828
രാ	-9.05089
▁മെന്ന്	-9.05089
▁ശോഭ	-9.05232
▁പേര	-9.05253
▁മുണ്ട്	-9.05289
▁എതിരെ	-9.05401
▁ചൂണ്ടിക്കാട്ടി	-9.05454
▁മേധാവി	-9.05483
▁ഞാന	-9.05549
▁യുഎസ്	-9.05584
▁കാര്യത്തില്‍	-9.05666
▁ചെയ്	-9.05672
▁പശ്ചാത്തലത്തില	-9.05674
▁ഡോസ്	-9.05718
ച	-9.05864
▁കിട്ടിയ	-9.06099
▁ഒന്ന്	-9.06167
▁കാര്യങ്ങൾ	-9.06207
▁വോട്ട	-9.0631
ഞ്ഞ	-9.06341
▁നൽകുന്ന	-9.06546
▁ലാ	-9.0658
▁നിങ്ങള്‍	-9.06698
▁നീതി	-9.0672
▁ആരോപണ	-9.06767
▁വർക്ക്	-9.06816
▁റോഡ്	-9.06834
▁സ്റ്റേഷന	-9.06892
▁തിരിച്ചടി	-9.06897
ംഗ	-9.06994
%	-9.07003
▁നേതൃത്വത്തില	-9.07065
▁എന്നിവര്‍	-9.07403
വരുടെ	-9.07465
▁പ്പോൾ	-9.07477
▁ചീഫ്	-9.07536
▁നേരിട്ട	-9.07611
▁80	-9.07736
▁പ്രാദേശിക	-9.07793
▁രാ	-9.07832
▁ചെയ്യുന്നു	-9.07842
െടുത്ത	-9.07866
▁ആവശ്യ	-9.07868
▁ങ്ങളില്‍	-9.07948
▁ഉണ്ടായിരുന്നു	-9.07955
ാക്കി	-9.08224
▁നിങ്ങൾ	-9.08342
▁േക്കും	-9.08402
തും	-9.08457
▁ജീവിത	-9.08465
▁സേന	-9.08468
വർ	-9.08527
▁നിര്‍ദേശം	-9.0867
▁സഹായം	-9.08674
▁സംഭവത്തില്‍	-9.08726
▁ഒപ്പം	-9.08791
▁ക്കാൻ	-9.08846
▁ഉന്നയിച്ച	-9.08926
െത്തിയ	-9.09046
ിനും	-9.09097
▁പള്ളി	-9.09122
▁വിജയ്	-9.0913
▁പെണ്‍കുട്ടി	-9.09221
▁ലോട്ടറി	-9.09236
▁തിരെ	-9.09264
▁വിസ	-9.09474
▁കെപിസിസി	-9.09495
▁മതി	-9.09519
▁ഗ്രൂപ്പ്	-9.09847
ഗ്	-9.10118
▁രാജ്	-9.10205
▁ില്ലെന്ന്	-9.1035
▁സീറ്റുകള്‍	-9.10372
▁ഫോണ്‍	-9.10578
▁നടപടികള്‍	-9.10625
▁ബന്ധ	-9.10656
▁അതിനിടെ	-9.10669
▁ജനുവരി	-9.10707
▁ജനറ	-9.10739
ത്തോടെ	-9.10775
കം	-9.10816
▁രേഖപ്പെടുത്തിയ	-9.10911
▁മാണെന്നും	-9.10943
▁പഴയ	-9.112
▁അവസ്ഥ	-9.11201
▁ജില്ലയിൽ	-9.11239
▁രീതി	-9.11329
ുമായ	-9.11339
▁ദുരന്ത	-9.11426
▁ജൂലൈ	-9.11512
▁മാണെന്ന്	-9.11546
▁വാര്‍ത്ത	-9.11742
▁നേതൃത്വത്തില്‍	-9.11756
▁അടക്കമുള്ള	-9.1189
▁ബാങ്ക്	-9.11966
ിനോട്	-9.12044
▁ഇന്ത്യയില്‍	-9.12259
▁ിട്ടുള്ള	-9.12294
▁സഭ	-9.1231
▁ത്തിലും	-9.12391
▁വിളിച്ച	-9.12414
▁സമൂഹ	-9.12423
▁ത്തില	-9.12464
▁ജയ	-9.12515
ഥ	-9.1268
ുമെന്നും	-9.12721
രു	-9.12792
▁ലാണ്	-9.1284
▁ശിക്ഷ	-9.12895
▁ദിന	-9.13006
▁കാര്യങ്ങള	-9.13077
ക്കര	-9.13166
▁നിലയില്‍	-9.13244
▁ഭരണം	-9.13325
i	-9.13435
▁നിരീക്ഷണത്തില	-9.13649
▁കേസുകള്‍	-9.13708
▁സിപിഐ	-9.13791
▁ാൽ	-9.13965
▁നായ	-9.1401
▁തെരഞ്ഞെടുപ്പ്	-9.14042
▁കോട്ട	-9.14054
▁വാദം	-9.14059
▁ജനങ്ങള്‍	-9.14087
▁അദ്ദേഹത്തിന്	-9.14095
▁ള്ള	-9.14186
▁സോ	-9.14241
▁ഇതിനിടെ	-9.14297
▁കോളേജ്	-9.14317
▁യുവ	-9.14327
▁ഇന്ത്യയിലെ	-9.14359
▁വിജയിച്ച	-9.14392
നാ	-9.14456
▁ഏക	-9.14477
▁രാജ്യം	-9.14652
▁അനുവദിച്ച	-9.14786
▁കാലാവസ്ഥ	-9.14787
▁ഉള്‍പ്പെടെ	-9.14862
▁ചെയ്യാൻ	-9.14866
▁പിടി	-9.14923
▁പ്രമുഖ	-9.15035
▁അഭിപ്രായ	-9.15048
▁മൃതദേഹം	-9.15074
▁മീഡിയയില	-9.15091
▁36	-9.15146
▁ഗ്രാമ	-9.15222
o	-9.15263
▁ഉൾപ്പെടെ	-9.15421
▁തിൽ	-9.15504
▁ചിത്ര	-9.15772
▁കൂടിയ	-9.15825
▁സംവിധാനം	-9.15838
▁പേരിൽ	-9.15855
എഫ്	-9.15868
▁അന്ന	-9.15873
▁അനുകൂല	-9.15897
▁വിചാരണ	-9.16046
▁ക്കുമെന്ന	-9.16048
ണ്‍	-9.16058
ക്കാര	-9.16164
▁പ്	-9.16177
▁പോകാന	-9.16182
▁ബസ്	-9.16185
▁സൂര്യ	-9.16247
ഞ്ച	-9.16271
▁യ്ക്കും	-9.16393
▁ത്തിലാണ്	-9.1642
▁ജോര്‍ജ്	-9.16468
▁സാമൂഹിക	-9.16748
▁അപകട	-9.16751
▁പ്രതീക്ഷിക്ക	-9.16815
▁അടിസ്ഥാന	-9.16869
▁അതി	-9.16881
▁കുറിച്ചു	-9.16953
▁യാണെന്ന്	-9.17075
▁ുവെന്ന്	-9.17128
▁നേതാക്കളെ	-9.17192
▁മലയാളി	-9.17251
▁കൂടിക്കാഴ്ച	-9.17456
▁പിടിച്ച	-9.17462
▁ആക്രമണം	-9.17511
▁പണി	-9.17724
▁ബാബു	-9.17902
▁എത്തുന്ന	-9.17953
ിരുന്നത്	-9.18237
▁തിരികെ	-9.18324
▁ടിക്കറ്റ്	-9.18343
▁കയറി	-9.18366
▁വീട്ടിൽ	-9.18387
▁പ്രചാരണ	-9.18437
▁70	-9.18579
▁വയസ്സ	-9.18744
▁കേസെടുത്ത	-9.18755
▁വര്‍ക്ക	-9.18803
▁വിവാദ	-9.18965
▁പേര്‍ക്ക	-9.19019
▁കണ്ടു	-9.1902
▁ആളുകള്‍	-9.1917
▁സത്യ	-9.19248
്യൂ	-9.19331
▁ശേഷമ	-9.19344
▁കോൺഗ്രസ	-9.19427
▁ജീവിതം	-9.19438
▁55	-9.19592
▁ദിലീപ	-9.19688
▁ിരിക്കുന്ന	-9.19859
പ്ര	-9.19963
ിനു	-9.19971
▁അധിക	-9.2001
▁സ്വപ്ന	-9.20016
▁കൊലപാതക	-9.20102
▁വിഷയം	-9.20155
▁ങ്ങളാണ്	-9.20261
▁ുള്ള	-9.20341
▁വിട	-9.20343
▁നീ	-9.20368
ത്തിലേക്ക്	-9.2041
▁അധികം	-9.20513
▁ത്തിനു	-9.20589
▁മല്ല	-9.20636
▁ഉദ്യോഗസ്ഥര്‍	-9.20664
▁ചെറു	-9.20682
ണി	-9.20695
ന്റ	-9.20739
▁പേര്‍ക്കും	-9.20783
▁അയച്ച	-9.20799
▁ലോക്സഭ	-9.20807
▁വെള്ള	-9.20846
▁മേ	-9.20861
▁ഉമ്മന്‍	-9.20881
▁പെ	-9.20985
ോടെ	-9.21038
▁പുറത്തുവന്ന	-9.21181
▁പങ്കുവെച്ച	-9.21267
നാണ്	-9.21302
/	-9.21341
▁പ്രതികരിച്ച	-9.21354
▁തള്ളി	-9.21395
▁ത്തിന	-9.21449
▁ഉണ്ടായിരുന്ന	-9.21519
▁മഹാ	-9.21521
ത്തോളം	-9.21537
▁34	-9.21639
▁എന്നിവിടങ്ങളില	-9.21679
മോ	-9.21794
▁ത്തിലേക്ക്	-9.21846
▁സിറ്റി	-9.21877
▁ഹൗസ	-9.21986
▁2020	-9.22021
▁കളിലും	-9.2204
▁മൂലം	-9.22046
▁പക്ഷെ	-9.2205
▁സംഭവിച്ച	-9.22091
▁വെല്ലുവിളി	-9.22176
പ്പി	-9.22178
▁ജാമ്യം	-9.22238
▁2016	-9.22443
ജെ	-9.22497
▁പ്രവര്‍ത്തന	-9.22604
▁ഉണ്ടാകും	-9.22608
കളായ	-9.22635
▁സര്‍ക്കാര	-9.22707
▁32	-9.22711
▁),	-9.22718
▁തമ്മില്‍	-9.22808
▁പോകുന്നത്	-9.2285
▁പ്രതികരിച്ചു	-9.22895
▁ിട്ടും	-9.23001
▁പേരുടെ	-9.23006
▁നങ്ങള്‍	-9.23024
▁കാലം	-9.23031
▁ജല	-9.23072
▁കാര്‍	-9.23113
▁വകുപ്പ	-9.23123
▁വീടുകളില	-9.23194
രായ	-9.23309
▁സാഹചര്യ	-9.2339
▁മാര്‍	-9.23396
▁ഏതെങ്കിലു	-9.23398
▁ിരുന്നുവെന്ന	-9.23434
▁അധികൃതര്‍	-9.23467
▁മരിച്ചത്	-9.23575
▁ഏ	-9.23589
▁അടിയന്തര	-9.23648
▁കുമാർ	-9.23767
▁സുരേന്ദ്രന്‍	-9.23769
▁ഫ്	-9.23875
▁അന്താരാഷ്ട	-9.23907
നും	-9.24064
▁പെൺകുട്ടി	-9.24264
▁വർഷ	-9.24299
▁കാണ	-9.24384
ട്ട്	-9.24386
▁സം	-9.24627
▁ഹാ	-9.24724
▁ക്ഷേത്ര	-9.24811
▁പെട്ടെന്ന	-9.24813
▁കൊ	-9.24901
ൗ	-9.24983
▁ണ്	-9.25049
▁ഫെബ്രുവരി	-9.25068
▁ചോദിച്ച	-9.25254
ുണ്ടായ	-9.2526
▁എച്ച്	-9.25353
▁മാറ്റിയ	-9.25502
▁സാധിച്ച	-9.25532
യോടെ	-9.25588
▁മുതിര്‍	-9.25595
▁പു	-9.25634
▁പേർക്ക്	-9.25651
ഖ	-9.25757
▁ഭ	-9.25758
▁സംഘ	-9.2579
▁കുറ്റപ്പെടുത്തി	-9.25827
▁മാർ	-9.25875
ിട്ടുള്ളത്	-9.26047
▁ഗോ	-9.2605
▁താര	-9.26227
▁ഇന്‍	-9.26229
▁മില്ല	-9.26245
▁കണ്ട്	-9.26319
ബ്	-9.26431
▁അടുത്തിടെ	-9.26443
▁ക്കുകയായിരുന്നു	-9.26591
▁നേരത്തേ	-9.26705
▁വിജയന്‍	-9.26866
▁നം	-9.26887
▁ഡൽഹി	-9.2689
▁ഉടന്‍	-9.26931
▁ഇടത്	-9.27043
▁സിനിമാ	-9.27067
▁പര	-9.27084
▁സ്ഥിര	-9.27402
▁ശ്രമ	-9.27496
ിരിക്കുന്ന	-9.27556
▁മരിച്ചു	-9.27767
▁പൗരത്വ	-9.2787
▁2,	-9.27945
▁സിന്ധ്യ	-9.28005
▁പാര്‍ലമെന്റ	-9.28015
▁പറയ	-9.28033
▁വൈസ	-9.28091
▁സീറ്റ	-9.281
▁റോ	-9.28106
▁നിലപാട	-9.28132
▁നേരിടുന്ന	-9.28184
▁പരി	-9.28238
▁നമ്മള്‍	-9.28248
▁ആവശ്യമായ	-9.28284
▁ജനങ്ങളുടെ	-9.28357
▁ഇത്തരത്തില	-9.28404
▁കേട്ട	-9.28478
▁കണക്ക്	-9.28488
▁ഉദ്ഘാടനം	-9.28551
▁വെള്ളം	-9.28628
▁ആത്മഹത്യ	-9.28642
▁കണ്ടെത്തി	-9.2865
▁മല	-9.28694
▁ിരിക്കുന്നു	-9.28724
ൂട്ടിച്ചേര്‍ത്തു	-9.28753
സ്റ്റ്	-9.28885
▁തര	-9.29088
▁ഭാഗത്ത്	-9.29089
▁വോട്ടുകള്‍	-9.29107
▁പുറമെ	-9.29283
▁പ്രചാരണം	-9.29296
▁രോഗികള	-9.29542
▁തിരഞ്ഞെടുപ്പ	-9.29572
▁ിരുന്നില്ല	-9.29598
▁നിര്‍ണായക	-9.29605
▁33	-9.29657
ഇ	-9.29659
▁മൂന്നു	-9.29717
ായിരിക്കും	-9.30019
▁വര്‍ഷത്ത	-9.301
▁ഭാ	-9.30107
▁ത്തിലൂടെ	-9.30124
▁സ്വതന്ത്ര	-9.30209
▁ഭാരത	-9.30276
▁സമയ	-9.30288
▁ഫോട്ടോ	-9.30297
▁ജില്ലകളില	-9.30321
കളും	-9.30349
▁',	-9.30364
▁നായി	-9.30399
▁കളില	-9.30409
▁കണ്ണ	-9.30442
▁കെട്ടിട	-9.30448
യോട്	-9.30632
ിത	-9.3066
▁നീക്ക	-9.30684
▁നടത്തിയിരുന്നു	-9.30693
▁ഒരാള്‍	-9.30711
▁തൃണമൂല	-9.30742
ാരോഗ്യ	-9.30742
▁നഗരസഭ	-9.30827
▁മറ	-9.3083
▁ട്രംപ്	-9.30836
▁സൈനിക	-9.30859
▁യുദ്ധ	-9.30876
▁നിരീക്ഷണ	-9.3088
▁മനുഷ്യ	-9.30891
▁ഓണ്‍ലൈന	-9.30905
▁ഡിസംബ	-9.30956
▁ബാധ	-9.30981
▁സ്വാതന്ത്ര്യ	-9.31007
▁‍	-9.3101
▁എല്‍ഡിഎഫ്	-9.31171
▁ഡല്‍ഹി	-9.31229
▁75	-9.31385
▁വ്യക്തമായ	-9.31476
▁ഓഫീസര്‍	-9.31493
▁അവര	-9.31566
▁നേതാവ	-9.31572
▁37	-9.31911
▁കൊല്ലപ്പെട്ട	-9.31936
▁44	-9.31961
▁സബ്	-9.32018
▁സംശയ	-9.32019
▁ആന്റണി	-9.32064
▁യോഗി	-9.32239
▁നില്‍ക്കുന്ന	-9.32305
▁തൊഴില്‍	-9.32374
▁അധികാര	-9.32405
▁ഇതാണ്	-9.32424
▁ആശുപത്രിയിൽ	-9.3251
▁ഇൻ	-9.32521
▁പൊ	-9.32542
▁ചെയ്യുക	-9.32549
▁ശ്രമിക്കുന്ന	-9.32592
ഭരണ	-9.32659
▁ഓഫീസ്	-9.32671
വേ	-9.32733
▁ജാ	-9.32749
▁ഇതു	-9.32789
▁മഹാരാഷ്ട്ര	-9.3282
▁നേതാക്കള	-9.32824
▁ുണ്ടായിരുന്നു	-9.32869
▁ഏകദേശ	-9.32936
▁ദി	-9.33014
▁സന്തോഷ	-9.33108
▁എസ്പി	-9.33189
▁2022	-9.33227
▁48	-9.33328
മുണ്ട്	-9.33384
▁നഗര	-9.33473
▁ഹിന്ദു	-9.33481
▁പരിശോധനയ്ക്ക	-9.33588
▁കള്ള	-9.33809
▁കൃഷ്ണ	-9.33818
▁വൈദ്യുതി	-9.33827
▁കല	-9.3384
ിരുന്നില്ല	-9.3385
▁അറിയിച്ചത്	-9.33851
▁ഒക്കെ	-9.33898
ലോ	-9.33949
▁യുമാണ്	-9.34
▁നന്ദി	-9.34041
▁ചേര്‍ന്ന്	-9.34058
▁പരമാവധി	-9.34062
വെ	-9.34138
▁നിയമനം	-9.34223
▁റിപ്പോർട്ട	-9.34231
ണമെന്ന്	-9.34269
▁രാഹുല	-9.34361
▁സംസാരിച്ച	-9.34474
▁ജില്ലകളില്‍	-9.3453
▁പോലുള്ള	-9.34656
മില്ല	-9.3466
▁അനു	-9.34672
▁വേണമെന്ന	-9.34711
e	-9.34714
▁കുറിപ്പ	-9.34814
▁ആദ്യമായി	-9.34907
▁സിന്റെ	-9.34911
▁മന്ത്രാലയം	-9.34912
▁വിശ്വാസ	-9.35078
▁ഫോണ	-9.35094
▁കർണാടക	-9.35113
▁കൃഷി	-9.35132
▁തായിരുന്നു	-9.35135
▁ത്തോടെ	-9.35157
▁കോണ്‍ഗ്രസ	-9.35295
▁കണ്ടെത്തിയത്	-9.35354
▁മാനസിക	-9.35423
▁പട	-9.35536
▁സുധാകരന്‍	-9.35736
▁പ്രതിപക്ഷം	-9.35743
▁സമാധാന	-9.35839
▁യോഗ	-9.35854
▁ബെ	-9.35872
▁തിരഞ്ഞെടുക്ക	-9.35916
▁മൊത്ത	-9.35939
ായിരുന്ന	-9.35954
▁കുടുംബം	-9.36055
▁ഗതാഗത	-9.36141
▁വിവര	-9.36152
▁റിപ്പോര്‍ട്ട	-9.36166
▁മെന്നും	-9.36173
▁ഇതിനെ	-9.36192
▁മുന്നിൽ	-9.36206
▁38	-9.36207
▁സ്ഥാനത്ത്	-9.36212
▁വാക്സിൻ	-9.36281
▁ധ	-9.36328
▁അതിനെ	-9.36351
ിലാണ്	-9.36368
ിക്	-9.3638
▁നിര	-9.36416
▁2018	-9.36453
▁പ്രകടന	-9.3646
▁വീണ	-9.36563
▁ദിവസത്ത	-9.36604
▁90	-9.36699
▁ചരിത്ര	-9.36715
▁ആളുകൾ	-9.36842
▁മണിക്കൂറ	-9.36847
യുമായ	-9.36856
▁ഘട്ട	-9.37142
▁!!	-9.37152
▁അറിയാം	-9.37261
▁സർക്കാര	-9.37294
▁സൗജന്യ	-9.37321
▁ബാക്കി	-9.37341
▁ജനറല	-9.37377
▁വിളിച്ച്	-9.3744
▁സഖ്യം	-9.37477
▁പെട്ട	-9.37546
▁തല്ല	-9.37625
▁ഫല	-9.37663
ക്ഷ	-9.37668
ുകയാണ്	-9.37697
-19	-9.37731
▁കാരി	-9.37744
▁39	-9.37768
▁തിരഞ്ഞെടുപ്പിന്	-9.37961
▁ങ്ങളില	-9.38011
▁ാലും	-9.38057
▁കേ	-9.38063
വില	-9.38088
▁ഇല്ലാത്ത	-9.38257
▁സാമൂഹ്യ	-9.38373
▁ഇക്കാര്യത്തില്‍	-9.38422
▁നയ	-9.38507
ത്തു	-9.38571
▁രോഗമുക്തി	-9.38586
േരി	-9.38586
▁ശമ്പളം	-9.38606
▁അവധി	-9.38649
▁ചെന്നൈ	-9.38902
േറിയ	-9.39011
ആര്‍	-9.39055
▁പഠന	-9.39061
▁ഇവര്‍ക്ക്	-9.39084
▁തേടി	-9.39092
തിനെ	-9.39098
▁ഗ്	-9.39142
▁യല്ല	-9.39144
ക്കു	-9.39173
▁ജനങ്ങളെ	-9.39351
▁പോലീസ	-9.39398
രുത്	-9.394
▁200	-9.39597
▁രൂപയും	-9.39599
▁മുതിർന്ന	-9.39605
▁സഖ്യ	-9.39675
▁സമീപ	-9.39747
▁സർക്കാരിന്റെ	-9.39784
▁ഭക്ഷണം	-9.39968
▁നിക്ഷേപ	-9.39972
ുള്ളത്	-9.40016
▁പ്രാഥമിക	-9.4015
▁കണ്ടെത്താന	-9.40154
വര്‍ക്ക്	-9.40309
▁കൂട്ടിച്ചേർത്തു	-9.40332
▁തീര	-9.40387
▁തങ്ങള്‍	-9.40436
▁ക്കി	-9.40495
▁തിങ്കളാഴ്ച	-9.40606
▁ിച്ച	-9.40627
പ്പള്ളി	-9.40656
ടക്കം	-9.40671
ച്ചു	-9.40678
▁നാട്	-9.40805
▁നേതാക്കളുടെ	-9.40805
കളില്‍	-9.40845
▁ചിന്ത	-9.4085
▁നടപടികൾ	-9.40859
▁മുഖ	-9.40883
▁ക്കണം	-9.40889
ങ്ങളും	-9.40915
▁വാർത്ത	-9.41092
▁കര്‍ഷക	-9.41141
▁വിദ്യാര്‍ത്ഥികള	-9.41262
▁റോഡ	-9.41313
▁വാങ്ങി	-9.41333
▁വിളി	-9.41335
▁രാശി	-9.41402
▁വര്‍ഷ	-9.41475
▁വന്നിരുന്നു	-9.41513
▁യില്ല	-9.41571
▁കാണുന്ന	-9.41631
▁അംഗങ്ങള	-9.41651
▁അനുഭവ	-9.41678
ല്ലോ	-9.41784
ുമെന്ന	-9.41934
▁മണ്ഡല	-9.41962
▁ടെക്	-9.41963
▁സ്ഥാന	-9.41976
▁നാട	-9.41983
▁കഥ	-9.42129
▁വിവരങ്ങൾ	-9.42144
▁43	-9.42146
▁ചര്‍ച്ചകള്‍	-9.42226
▁ഭൂരിപക്ഷം	-9.42272
▁രാശിക്കാര്‍ക്ക	-9.4229
▁ധാരണ	-9.42324
▁പേ	-9.42331
▁പൂര്‍ണമായ	-9.42362
▁ജൂ	-9.42434
▁സ്വ	-9.42447
െത്തി	-9.42487
▁പൂ	-9.42529
റിയ	-9.42538
▁യിലൂടെ	-9.4263
▁2017	-9.42694
▁ലഭിച്ചു	-9.42723
▁നടത്തും	-9.42788
▁തങ്ങള	-9.4279
▁മുൻപ്	-9.42791
▁സ്വപ്	-9.42832
▁യുപി	-9.42838
▁ആഴ്ച	-9.42885
▁പോയത്	-9.42915
▁കാഴ്ച	-9.42988
▁സിങ്	-9.43043
▁നേട്ടം	-9.43056
▁അത്ര	-9.43155
തിനുള്ള	-9.43169
▁ദേവ	-9.43233
▁നിലയിൽ	-9.43244
▁ഏറ്റെടുത്ത	-9.43272
▁സംസ്ഥാനങ്ങളില്‍	-9.43364
▁മുണ്ടെന്ന	-9.43398
▁ടെസ്റ്റ്	-9.4346
▁നവംബ	-9.43465
▁രഹസ്യ	-9.43519
▁ശബരിമല	-9.43583
▁കുമാറ	-9.4361
▁ക്കുന്നത്	-9.43676
▁ഉപ	-9.43954
▁കുഞ്ഞ	-9.43961
▁ഉത്തരവ്	-9.44136
▁41	-9.44231
▁നായിരുന്നു	-9.44267
▁സ്ഥലം	-9.44287
▁റ്റ്	-9.44288
▁തുടക്കം	-9.44316
▁ലേക്ക്	-9.44336
▁ക്കോ	-9.44362
▁കോളേജ	-9.44564
▁ഉള്‍പ്പെടെയുള്ള	-9.44628
▁സിപിഎമ്മ	-9.44634
▁ക്കുറിച്ച	-9.44735
▁നേതാക്കളും	-9.44741
▁പിഴ	-9.44751
▁റിയ	-9.44775
▁മുഴുവ	-9.4488
▁സാധ്യതയുണ്ട്	-9.44927
▁ലോക്ക്	-9.44945
▁അത്തര	-9.45065
▁യ്ക്ക	-9.45138
▁വെള്ളിയാഴ്ച	-9.45201
ന്ദ	-9.45401
▁ആളുകള	-9.45517
▁പ്രദേശ	-9.45541
▁മണ്ഡലത്തിൽ	-9.45586
▁മണ്ണ	-9.45592
ജനറല്‍	-9.45605
▁അതു	-9.45636
▁ശനിയാഴ്ച	-9.45649
▁ഹര്‍ജി	-9.45703
▁അഭി	-9.45714
▁അധികാരം	-9.45735
▁കടന്നു	-9.4577
കള്‍ക്ക്	-9.45819
െന്ന	-9.45827
▁അറേബ്യ	-9.45851
▁ഉറപ്പ്	-9.4588
▁ഇഡി	-9.45905
ക്കണം	-9.45933
▁എത്തിച്ച	-9.46045
ഒ	-9.4611
▁ലീഗ	-9.46166
▁ച്ചു	-9.46206
ാണെന്നും	-9.46267
▁ബിജെപിയെ	-9.46282
▁മുറി	-9.46325
▁മത്സരം	-9.46417
ടു	-9.46417
▁ഗവര്‍ണര്‍	-9.46443
▁നേര	-9.46473
▁ചെയ്യുകയ	-9.46595
▁നടന്നു	-9.46601
എല്‍	-9.46623
▁പ്രഖ്യാപനം	-9.46627
▁കര്‍ണാടക	-9.46629
▁കളക്ടര്‍	-9.46634
▁വന	-9.46669
▁പരിക്കേറ്റ	-9.46696
▁ഉത്തരവ	-9.4678
▁നിര്‍ദേശിച്ച	-9.46807
▁സംസ്	-9.46814
▁46	-9.46926
▁തിരിച്ച്	-9.46981
▁രീതിയിൽ	-9.46991
വര	-9.47005
▁സംവിധാന	-9.47039
ജ്	-9.47062
▁പിടിച്ചു	-9.47299
▁ടീം	-9.47367
▁കാറ	-9.47378
▁ഫി	-9.4743
▁അറിയിച്ചിരുന്നു	-9.4743
▁പിന്നില്‍	-9.47434
▁ഉടൻ	-9.47446
▁കോളേജില	-9.47545
മല്ല	-9.47551
▁47	-9.47697
▁തുറന്നു	-9.47741
▁നല്‍കിയിരുന്നു	-9.47924
▁പരസ്യ	-9.4799
െയും	-9.48033
▁മാസ	-9.48046
▁പറയാന്‍	-9.48075
▁അല	-9.48102
▁മുതല	-9.48214
▁സമര്‍പ്പിച്ച	-9.48219
▁49	-9.48268
▁ഭാഷ	-9.48333
▁ആള	-9.48462
െടു	-9.48472
▁വ്യവസായ	-9.48555
▁പ്പെട്ട	-9.48589
ിട്ട്	-9.48611
▁നടത്ത	-9.48638
▁പ്രവര്‍ത്തി	-9.4866
▁േക്കുമെന്ന	-9.48767
▁വാഗ്ദാനം	-9.48838
▁മണ്ഡലത്തില	-9.48846
മെന്റ്	-9.48938
▁ഞായറാഴ്ച	-9.48953
▁പുറമേ	-9.48959
▁സോഷ്യൽ	-9.4896
▁ജാതി	-9.4899
▁ആഗ്രഹിക്കുന്ന	-9.49051
▁പഞ്ചായത്തില	-9.49094
▁സിന	-9.49161
▁കുറിപ്പ്	-9.49193
ൃ	-9.49291
▁യുണ്ട്	-9.49314
▁ഷാജി	-9.4935
▁2023	-9.49364
കാര്യം	-9.494
▁വാങ്ങിയ	-9.49424
▁ചിലര്‍	-9.49438
▁യുമായ	-9.49473
▁ജസ്റ്റിസ്	-9.49512
▁എന്നു	-9.49574
▁പരിഗണിച്ച	-9.49575
▁അട	-9.49582
▁സീറ്റില്‍	-9.49781
▁ഒരേ	-9.49861
▁പത്ര	-9.49991
▁ജില്ലകളിൽ	-9.50015
▁രാമ	-9.50025
▁ിട്ടില്ലെന്ന	-9.50086
▁പ്രവര്‍ത്തനം	-9.50102
▁എന്‍ഡിഎ	-9.5014
▁തൊഴിലാളി	-9.50146
▁നല്‍കുന്നത്	-9.50166
▁65	-9.50243
▁യിലുള്ള	-9.50386
▁സൗകര്യ	-9.50574
▁ഫാ	-9.50686
▁വൻ	-9.50786
▁ടൂറിസം	-9.50836
‍	-9.50855
▁ിന	-9.5091
▁വിളിച്ചു	-9.50979
▁അനുസരിച്ച്	-9.51092
സ്റ്റ	-9.51159
കു	-9.51192
▁ആക്രമണ	-9.5128
▁നോട്ടീസ്	-9.51291
ാവുന്ന	-9.51335
▁ആന	-9.51362
ുമ	-9.5142
▁വ്യവസ്ഥ	-9.51422
▁ആക്രമിച്ച	-9.51469
▁നോക്കി	-9.51472
▁രാജ്യത്തിന്റെ	-9.51477
▁യുഡിഎഫ	-9.51509
തു	-9.51523
▁ഹർജി	-9.51542
▁കിലോ	-9.51581
▁നവ	-9.51643
▁സമീപത്ത	-9.51749
▁ഡെ	-9.51846
േഷന്‍	-9.51861
▁പിന്തുണച്ച	-9.5201
▁വ്യാപനം	-9.52027
▁സമയത്ത	-9.52055
▁ശക്തമായി	-9.52074
▁വേഗ	-9.52086
▁ക്കുമെന്നും	-9.52172
▁പുതുതായ	-9.52211
▁ിട്ട്	-9.52233
▁പങ്കെടുത്തു	-9.52314
▁2024	-9.52352
▁അഭിപ്രായം	-9.52402
▁ഓണ	-9.52441
▁തിനാൽ	-9.5251
▁അഡ്വ	-9.5255
▁മാണെന്ന	-9.52551
▁സിബിഐ	-9.52552
▁സഹായ	-9.52563
▁ഗുരുതരമായ	-9.52618
▁ക്കെതിരായ	-9.52625
▁ലേ	-9.52762
▁രേഖ	-9.52851
▁മെന്റ	-9.52855
▁ത്തിനുള്ള	-9.52864
▁നടക്കും	-9.52953
▁പഞ്ചാബ്	-9.53018
▁അല്ലെങ്കില	-9.53069
▁പൊലിസ്	-9.53078
▁മോശം	-9.53096
▁ബ്ലോക്ക്	-9.53104
▁അല്‍	-9.53137
▁ടീമ	-9.53172
▁ത്തിയ	-9.53185
ാര്‍	-9.53252
▁തുടർന്ന	-9.53298
▁ഏപ്രില്‍	-9.53363
▁കാണുന്നത്	-9.5341
▁തീയതി	-9.53432
▁കാസര്‍ഗോഡ്	-9.53568
▁തലത്തില്‍	-9.53606
തെന്ന്	-9.53686
ിച്ച്	-9.53743
▁പ്രശ്ന	-9.53771
നാട്	-9.53776
▁തെ	-9.538
▁ഇടതുപക്ഷ	-9.53856
▁ഞങ്ങളുട	-9.53914
▁നേടാന	-9.53914
▁ക്കുമെന്ന്	-9.53939
▁സ്ഥലത്ത്	-9.53961
ക്കിയ	-9.53967
▁പ്രകടനം	-9.53994
ശ്ശേരി	-9.54139
തുപോലെ	-9.54243
▁ഗാന്ധിയുടെ	-9.54263
േക്കും	-9.54264
▁വകുപ്പിന്റെ	-9.54428
മാർ	-9.54489
▁സഹകരണ	-9.54541
▁സെപ്റ്റംബ	-9.54599
▁നിറഞ്ഞ	-9.54619
▁ഒക്ടോബ	-9.54623
▁വിമര്‍ശനം	-9.54669
▁നിയന്ത്രണ	-9.54745
▁ഉയര	-9.54768
▁വ്യാഴാഴ്ച	-9.54806
▁മുട്ട	-9.54902
▁അറിഞ്ഞ	-9.54918
▁സമ്പര്‍ക്കം	-9.55063
▁കൊണ്ടുവന്ന	-9.55068
▁ഗ്രൂപ്പ	-9.55114
▁നല്‍കിയിട്ടുണ്ട	-9.55216
▁പോര	-9.55256
▁സുപ്രീംകോടതി	-9.55296
▁മേഖലയിൽ	-9.55309
▁കളുമായി	-9.55439
▁സൈറ്റ	-9.55552
▁വിശദീകരണം	-9.55592
▁പാലാ	-9.5562
▁നിയന്ത്രണം	-9.55685
▁കളോട	-9.55755
ക്കുന്നത്	-9.55839
▁ട്വീറ്റ്	-9.55947
▁ആഘോഷ	-9.55958
റ്	-9.56039
ക്കേണ്ട	-9.56056
▁52	-9.56106
▁വീട	-9.56187
▁മകന്‍	-9.56278
▁മൂ	-9.56353
▁സീസണ	-9.56368
▁ശിവ	-9.56408
▁വരെയാണ്	-9.56493
തല	-9.56522
▁പ്രഖ്യാപിച്ചു	-9.56573
▁ഇന്ത്യയിൽ	-9.56611
▁കമ്മീഷന്‍	-9.56646
▁ഇത്ര	-9.56741
▁വാഹനം	-9.56764
▁വരുമാന	-9.56779
▁തില	-9.56818
▁ഒമ്പത	-9.56856
▁ിക്കാന	-9.56873
േണ്ടി	-9.569
▁മുല്ലപ്പള്ളി	-9.56906
▁വർഷത്ത	-9.56916
▁ഭേദഗതി	-9.56917
▁റ്റി	-9.56934
▁സമ്മാനം	-9.56972
▁സ്ഥാനാര്‍ഥി	-9.57007
▁ബിസിനസ്	-9.57022
▁കണ്ടത്	-9.57035
▁ധന	-9.57055
▁കളിലെ	-9.57071
▁നിതീഷ്	-9.57073
▁ആഗോള	-9.57114
▁നട	-9.57132
▁തന്ന	-9.57134
▁വരുമാനം	-9.57144
▁ബാങ്ക	-9.57155
▁ആരോപിച്ച	-9.57238
▁ഓള	-9.57241
▁മൊബൈല	-9.5733
▁സ്ഥാനത്ത	-9.57338
▁അന്തിമ	-9.57344
ാണെങ്കില്‍	-9.57361
▁പാത	-9.57426
▁സ്വര്‍ണം	-9.57532
▁ന്ന്	-9.57561
▁എങ്കിലും	-9.57589
▁സംഭവത്ത	-9.57625
▁നാലു	-9.57744
▁ധനമന്ത്രി	-9.57763
▁രാശിക്കാര	-9.57821
▁കാര്യമാണ്	-9.57861
▁വ്യക്തമാക്കിയത്	-9.57899
▁51	-9.57912
▁ിനെ	-9.57943
▁ണ്ട	-9.5795
▁തിനായി	-9.57966
▁സംഘടിപ്പിച്ച	-9.58027
▁സര്‍വീസ്	-9.58051
▁ഇത്തരമൊര	-9.58229
▁നഷ്ടപ്പെട്ട	-9.58299
▁ബാധിച്ചത്	-9.5845
▁തോടെയാണ്	-9.58453
▁യോട	-9.58493
▁ദിവസവും	-9.5852
▁ള്‍	-9.58526
▁അഭിപ്രായപ്പെട്ട	-9.58671
▁സമ	-9.5869
▁അര	-9.58813
▁അശോക	-9.58832
▁രണ്ടാമത്ത	-9.58857
t	-9.58963
▁ക്കുകയാണ്	-9.58986
▁മാധ്യമങ്ങള്‍	-9.59011
▁പ്രവൃത്തി	-9.59031
കാല	-9.59077
▁ന്യൂ	-9.5912
▁സാമ്പിളുകള	-9.59128
▁മുഖ്യ	-9.59473
▁ഇയാൾ	-9.59483
▁പണ	-9.59499
▁ഫിറോസ്	-9.59606
▁ഉയരുന്ന	-9.59645
▁സമാനമായ	-9.5965
▁വുമായ	-9.59673
▁എംഎൽഎ	-9.59706
▁നടപടികള	-9.59722
▁യേയും	-9.59758
▁ചിത്രങ്ങള്‍	-9.59771
▁ആളുകളെ	-9.59848
▁ഇതിനായി	-9.59918
▁വെബ്	-9.59942
▁വെട്ടി	-9.59988
▁എവിടെ	-9.60006
▁ഭാഗമായ	-9.60072
▁ഭരണഘടന	-9.60078
▁ശിവസേന	-9.60139
ിട്ട	-9.60167
▁54	-9.60189
▁ത്തിൻ്റെ	-9.60264
▁തൊഴിൽ	-9.60357
▁സര്‍ക്കാരിന്	-9.60363
▁അസിസ്റ്റന്റ്	-9.60363
▁രൂക്ഷ	-9.60406
▁ഭക്ഷണ	-9.60409
▁വേദന	-9.60411
▁അക്രമ	-9.60477
കളെ	-9.60501
▁ഒരുക്കിയ	-9.60508
▁പാര്‍ട്ടിയില്‍	-9.60557
▁57	-9.60737
▁അതിനാല	-9.60792
▁കാലാവധി	-9.60797
േഴ്	-9.60829
▁എയര്‍	-9.60876
▁ക്രിക്കറ്റ	-9.61033
▁പോക	-9.61037
മേ	-9.61162
▁മണിക്ക്	-9.61192
▁കരുതുന്നത്	-9.61213
▁അഭിമാന	-9.61227
▁ഇന്ധന	-9.61239
റില്‍	-9.61256
▁ക്ലാസ്	-9.61268
▁ന്നു	-9.61342
▁സ്വര്‍ണ	-9.61374
▁ശശി	-9.61401
▁ഇന്നത്ത	-9.61444
▁42	-9.61446
▁സാങ്കേതിക	-9.61461
ാർ	-9.61492
▁കേരളത്ത	-9.61544
▁തേ	-9.61597
▁ആം	-9.61646
▁വിജയൻ	-9.61649
▁വാങ്ങ	-9.6179
▁പാട	-9.61791
▁അവകാശ	-9.61825
▁ഫോറ	-9.6188
▁പലപ്പോഴ	-9.61896
▁താമസ	-9.62042
▁നല്‍കും	-9.62107
▁റീ	-9.62116
▁മാരുടെ	-9.62163
▁ഫോൺ	-9.62206
▁പുറത്ത	-9.62238
▁പ്രതികളെ	-9.62272
▁സുനി	-9.62285
▁വിദേശകാര്യ	-9.62356
▁ഉപയോഗിക്കുന്ന	-9.62368
▁സംസാരിക്കുകയ	-9.62434
▁വേണ്ടിയാണ്	-9.6247
▁കുറവ	-9.6252
▁മാസ്	-9.62529
▁പ്രദേശങ്ങളില	-9.6258
▁മന്ത്രിസഭ	-9.62659
ാണെന്ന്	-9.6266
▁വേദി	-9.62675
▁56	-9.6274
▁അഞ്ചു	-9.62779
▁ക്കാര	-9.62827
▁അതിന	-9.62834
▁പ്രവേശിപ്പിച്ച	-9.62869
നു	-9.62879
▁ഭാവി	-9.62957
▁എന്നിവരെ	-9.62988
▁ഇപ്പോഴത്ത	-9.63032
▁ബിരുദ	-9.63035
▁മാധ്യമങ്ങള	-9.63056
▁ചാ	-9.63078
▁സജീവ	-9.63115
▁പോസ്റ്റ	-9.63126
▁താലൂക്ക	-9.63196
▁അതില	-9.63247
▁നേതൃത്വ	-9.63291
▁തോന്നിയ	-9.63298
▁ചെലവ	-9.63349
▁പ്രതീക്ഷിച്ച	-9.63362
▁കാരണ	-9.63365
വിന്റെ	-9.63418
▁യാത്രക്കാര	-9.63421
▁പ്രസിഡന്റ	-9.63439
▁പ്രതികള്‍	-9.63461
▁ചൊവ്വാഴ്ച	-9.63475
▁അവര്‍ക്ക	-9.63518
▁അബ്ദു	-9.63534
▁ഇയാള	-9.63611
▁പ്രവർത്തകർ	-9.63741
▁പ്രതികരിച്ചത്	-9.63808
▁പട്ടികയില്‍	-9.63916
▁സച്ചിന്‍	-9.63939
▁ഹെ	-9.63947
s	-9.63947
▁നൽകിയത്	-9.63961
▁റാലി	-9.63971
▁കാണാം	-9.63993
▁ലക്ഷ്യ	-9.64015
▁നീണ്ട	-9.64048
▁രാഷ്ട്രീയം	-9.64071
റാ	-9.64082
▁ക്ഷേമ	-9.64242
▁58	-9.64307
▁അതാണ്	-9.64359
▁നിരന്തര	-9.64381
ിക്കുക	-9.64387
▁വിമാനത്താവള	-9.64558
▁നോട്ട	-9.64612
യര്‍	-9.64639
▁ഘട്ടത്തില്‍	-9.64667
▁ജനങ്ങൾ	-9.64683
▁കാണിച്ച	-9.64727
▁കേസുകൾ	-9.64737
ാവകാശ	-9.64755
പരമായ	-9.64768
ണ്ണ	-9.64792
▁തുടര്‍ച്ചയായ	-9.64814
▁500	-9.64836
▁സൂപ്പര്‍	-9.64847
▁കോടിയേരി	-9.64847
▁കോടതിയിൽ	-9.64862
▁മനസ്സ	-9.6489
▁മുന്നറിയിപ്പ	-9.64892
▁സംഘടനാ	-9.6491
▁ചികിത്സയില	-9.6506
▁മത്സരിക്കാന	-9.6508
ോള	-9.65224
▁സ്ഥാപിച്ച	-9.65225
ാര്‍ഷിക	-9.65229
▁ബിജെപിയില്‍	-9.65268
▁ക്കേണ്ട	-9.65292
▁53	-9.65316
▁പത്രിക	-9.65325
▁റു	-9.65341
▁എന്തായ	-9.65439
▁സ്വാധീന	-9.65451
▁ിന്റെ	-9.65458
▁വാര്‍ഡ്	-9.6546
▁തിരിച്ച	-9.65472
▁3,	-9.65502
▁ഡെപ്യൂട്ട	-9.65538
▁ഭാഗ്യ	-9.65591
▁സമുദായ	-9.65634
ഞ്ചേരി	-9.65692
▁മേയ	-9.65718
▁പോരാട്ട	-9.6572
▁ഓഫീസ	-9.65743
▁രണ്ട	-9.65746
▁സാധ്യതയുണ്ടെന്ന	-9.65771
▁പ്രസംഗ	-9.65813
▁ില്ലെങ്കില്‍	-9.65819
▁നിര്‍ത്തി	-9.65839
▁വാദ	-9.65857
രം	-9.65947
ിന	-9.661
▁തുടങ്ങിയവ	-9.66119
▁വിഷയത്തിൽ	-9.66134
▁പരിധി	-9.6621
00	-9.66232
▁തുടരുകയാണ്	-9.66342
▁ചെയ്യപ്പെട്ട	-9.6646
▁വീഴ്ച	-9.66466
ിറ്റി	-9.66491
▁കടുവ	-9.66599
▁മര	-9.6663
▁നേടിയത്	-9.66662
▁ബുധനാഴ്ച	-9.66697
▁പ്രണയ	-9.66761
▁ക്കാം	-9.66782
▁അറസ്റ്റിലായ	-9.66874
ുവ	-9.66901
▁പങ്കുവച്ച	-9.66936
▁നിര്‍ദേശ	-9.66943
▁പ്രതിഷേധിച്ച	-9.66946
▁5,	-9.6696
▁കുറ്റ	-9.6698
▁അതോറിറ്റി	-9.6717
▁ഒടുവില്‍	-9.67207
▁ഉണ്ടെന്ന	-9.67426
▁ഭൂരിപക്ഷ	-9.67504
▁പ്രവർത്തന	-9.67528
▁ദിവസങ്ങളില്‍	-9.67537
▁ഉണ്ടാക്കിയ	-9.67559
▁അധികൃതർ	-9.67641
▁അന	-9.67718
പ്പുഴ	-9.67735
▁വേറെ	-9.67902
▁റാ	-9.67924
▁ഇതര	-9.6793
▁പ്രതികരണ	-9.67983
▁ക്ര	-9.68083
▁പാസ്	-9.68091
▁പറയുന്നുണ്ട്	-9.68122
▁അയ	-9.68138
▁ആര്‍ക്ക	-9.68143
▁ടിവി	-9.68155
▁ഇര	-9.68182
▁ഇതിനോട	-9.68184
േഷ്	-9.68196
▁സില്‍	-9.68208
▁പാടില്ല	-9.68234
▁ഉൾപ്പെടെയുള്ള	-9.68234
▁അധ്യാപക	-9.68255
▁മാര്‍ക്ക	-9.68365
▁സര്‍വേ	-9.68506
▁ലേക്ക	-9.68525
▁പ്രഖ്യാപിച്ചത്	-9.68694
▁കമ്മീഷന	-9.68819
▁സ്നേഹ	-9.68824
▁മമ്മൂട്ടി	-9.68829
▁ചേര്‍ത്ത	-9.68834
▁ത്ത്	-9.68854
▁സഹോദരന	-9.68907
▁ക്കാമെന്ന	-9.6898
▁ഗവ	-9.69041
▁നാട്ടുകാര	-9.69042
▁ഓഗസ്റ്റ	-9.69068
▁ഗുജറാത്ത്	-9.69127
▁പുരോഗതി	-9.69308
▁ലഹരി	-9.69319
▁ന്യൂസ്	-9.69339
▁എമ്മ	-9.69403
▁അംഗം	-9.69457
ാണോ	-9.6948
▁വീ	-9.69481
▁ഇദ്ദേഹം	-9.69482
ക്കാട്	-9.69497
പുരം	-9.69559
▁കത്ത്	-9.69599
▁കെട്ടി	-9.69652
▁ഒട്ടേറ	-9.69665
▁സജി	-9.69673
▁കോൺഗ്രസിന്	-9.69763
▁ലഭിക്കുമെന്ന	-9.69769
▁നമ്മൾ	-9.69801
▁മുന്‍പ്	-9.6981
▁പ്രവർത്തനങ്ങൾ	-9.69864
▁തയ്യാറായ	-9.69871
▁സ്ഥല	-9.69911
▁പ്രവാസി	-9.69919
▁ഫേസ്ബുക്ക	-9.69925
▁യുഡിഎഫിന്	-9.69976
▁ജമ്മു	-9.70032
▁കാനഡ	-9.70037
▁എന്‍സിപി	-9.70038
▁മധ്യ	-9.70093
▁സ്ഥാനത്തേക്ക്	-9.70105
▁രാജീവ്	-9.70138
▁വിഷയ	-9.70179
▁റേ	-9.70231
ഷി	-9.70317
▁ഉണ്ടായത്	-9.70376
▁കക്ഷി	-9.70411
▁കോള	-9.70411
▁ട്ടാണ്	-9.70453
▁നടന്‍	-9.70509
▁നുള്ള	-9.70521
▁ശേഷി	-9.70523
▁തുടരുന്ന	-9.70627
േഷൻ	-9.70662
ഫി	-9.70695
▁ബംഗാളില	-9.70699
▁എനിക്ക	-9.70716
ാണുള്ളത്	-9.70747
▁ഭക്ഷ്യ	-9.70759
▁ദൃശ്യങ്ങള്‍	-9.70765
▁എഎപി	-9.70771
▁മദ്യ	-9.70823
▁നഷ്ട	-9.70894
പ്പെടുന്ന	-9.70931
▁ഭയ	-9.70938
▁ഗുണം	-9.70958
▁ആന്‍ഡ്	-9.70969
▁സൂചിപ്പിക്കുന്ന	-9.71013
▁സ്റ്റ	-9.71029
▁നിൽക്കുന്ന	-9.71079
▁ഡ്	-9.71088
▁വരെയും	-9.7112
▁തയ്യാറാക്കിയ	-9.71123
▁ാണെന്ന	-9.7113
▁സിംഗ	-9.71174
▁ട്ടി	-9.71262
എന്തെങ്കിലും	-9.71358
▁68	-9.71359
▁ജീവിതത്തില്‍	-9.71363
▁വിഭാഗ	-9.71484
▁ദിവസ	-9.7149
▁റിപ്പോര്‍ട്ടില	-9.71525
▁ത്തോട്	-9.71547
▁ഗൂഢാലോചന	-9.71549
▁പ്പി	-9.7167
▁ചന്ദ്ര	-9.7172
▁മഹാരാഷ്ട്രയില	-9.7184
▁കാലത്ത	-9.71897
▁പരസ്പര	-9.71985
▁ഇയാളെ	-9.71991
▁കരാര്‍	-9.72006
▁കെസി	-9.72047
▁എന്നിവർ	-9.72084
▁ത്തും	-9.72093
▁നിമിഷ	-9.72096
▁ത്തു	-9.72175
▁ഒരുമിച്ച്	-9.72203
▁കൊടുക്ക	-9.72221
▁ധരിച്ച	-9.72264
▁തര്‍ക്ക	-9.72265
ാകും	-9.72328
▁യോഗത്തിൽ	-9.72362
▁മറിച്ച	-9.72366
▁അലി	-9.72415
▁കാർ	-9.7251
▁മേല്‍	-9.72578
▁അന്വേഷിച്ച	-9.72614
▁ജീവനക്കാര	-9.72629
▁ഉദ്യോഗസ്ഥര	-9.72679
▁തേടിയ	-9.72719
▁ഗാ	-9.72841
▁സംശയം	-9.72847
▁വിപണി	-9.7289
▁ഉടമ	-9.72892
▁ഹി	-9.72983
▁വൈക	-9.72999
▁കഴിയും	-9.73051
ാല	-9.73135
▁ജീവിതത്ത	-9.73139
▁ച്ച്	-9.73174
▁തെളിവ	-9.73213
▁വിള	-9.73219
▁വിദേശത്ത്	-9.73229
▁ചൂണ്ടിക്കാണിക്ക	-9.73238
ഴി	-9.73239
▁കെഎസ്	-9.73244
▁കൂള്‍	-9.73256
▁ഒരാൾ	-9.73305
ഷ്യ	-9.73391
▁ക്കുമ്പോള്‍	-9.73393
▁യോടെ	-9.73394
▁ങ്ങളിലും	-9.73426
▁സസ്	-9.73451
▁പിതാവ്	-9.73462
▁പാർലമെന്റ	-9.73486
▁തുടങ്ങിയത്	-9.73539
▁വിമാനം	-9.73545
▁സീറ്റുകൾ	-9.73568
▁ബു	-9.7367
▁എടുത്തു	-9.73804
▁ന്യൂനപക്ഷ	-9.7383
േന്ദ്ര	-9.73872
യിലൂടെ	-9.7393
20	-9.73946
▁ജനങ്ങള	-9.74094
▁സംഘര്‍ഷ	-9.74107
▁ബൈക്ക	-9.74213
ാകെ	-9.74217
▁കൂട്ടി	-9.74238
▁വിലയിരുത്തല്‍	-9.74269
▁കൊല്ല	-9.74273
▁കളിച്ച	-9.74287
▁മുൻപ	-9.74294
▁കര്‍ഷകര	-9.74347
▁ആറു	-9.74351
ക്ട	-9.74401
▁പരാതിയില്‍	-9.74402
ിക്കാന്‍	-9.74419
ട്ര	-9.74423
▁പ്രദേശങ്ങള	-9.74465
മന്ത്രി	-9.74486
▁കീഴില	-9.74498
▁ഗുരുതര	-9.74516
കാര	-9.74563
ക്കായി	-9.74633
റേയും	-9.74644
▁കത്തി	-9.74655
റോ	-9.74698
▁അധ്യക്ഷൻ	-9.74727
▁കലാപ	-9.74783
▁59	-9.74898
▁ഹൈ	-9.75086
▁ഓക്	-9.75132
▁ബോസ	-9.75178
▁ന്‍റെ	-9.75343
▁ഇസ്രായേല്‍	-9.75352
▁ുണ്ടെന്ന്	-9.75444
▁പിടിച്ച്	-9.75452
ന്‍സ്	-9.75515
▁കുന്ന	-9.75516
നം	-9.75525
▁താമസിക്കുന്ന	-9.75547
▁ടോ	-9.75569
യം	-9.75654
▁വേണ്ടത്	-9.75672
▁വിദ്യാര്‍ത്ഥി	-9.75682
▁അടിച്ച	-9.75722
▁ദീപ	-9.7575
▁നേതാവും	-9.75768
▁മാർച്ച്	-9.75778
▁നിറ	-9.75818
▁ആന്റ	-9.75847
▁രംഗത്തെത്തി	-9.75863
▁പ്രചരണ	-9.75867
▁ബജറ്റ്	-9.75881
▁കൂട	-9.76202
▁അജിത്	-9.76207
▁4,	-9.76241
▁മാര്‍ഗ	-9.76242
▁ക്കൊണ്ട	-9.76269
▁‍റെ	-9.76289
▁രെ	-9.76316
▁ഏര്‍പ്പെടുത്തിയ	-9.76323
▁സ്വർണ	-9.76325
▁വിജയി	-9.76353
▁വരുമെന്ന	-9.76355
ൻസ്	-9.7638
▁അല്ലാതെ	-9.7641
പ്രവർത്തിക്കുന്ന	-9.76427
▁നേഹ	-9.76468
▁എന്നിങ്ങനെ	-9.76503
u	-9.76639
▁സാധിക്കില്ല	-9.76692
▁യുവാവ്	-9.76719
▁കോണ്‍ഗ്രസിനെ	-9.76742
▁ന്യൂഡല്‍ഹി	-9.76783
▁അതായത്	-9.76787
▁ഭവന	-9.76809
▁അനില്‍	-9.76813
▁നേ	-9.76878
ിട്ടും	-9.76894
▁എന്ത	-9.76916
▁പുതു	-9.76924
▁നിങ്ങളെ	-9.76949
▁നാട്ടില്‍	-9.76962
▁മഹ	-9.76976
ട്ടെ	-9.7723
▁ആക	-9.77257
▁പ്രതിദിന	-9.77319
▁ഉള്‍	-9.77374
▁ഇറങ്ങിയ	-9.77413
▁ഉദ്യോഗസ്ഥർ	-9.77463
സ്ഥ	-9.77542
▁തമ്മ	-9.77557
▁2014	-9.77563
▁ളി	-9.77613
▁ജയിലില്‍	-9.7762
▁മാതൃക	-9.7767
▁രോഗി	-9.77722
▁ത്തിനെതിരെ	-9.77753
▁കാലയളവ	-9.77777
▁ആഗസ്റ്റ	-9.77826
▁കൊണ്ടിരിക്കുന്ന	-9.77828
▁വിഷമ	-9.77844
a	-9.7787
▁സുരേന്ദ്രൻ	-9.77938
▁നിർദ്ദേശം	-9.77961
▁രാഷ്ട്രപതി	-9.78031
▁നമ്പര്‍	-9.78092
▁പറ	-9.78094
▁സൈന്യം	-9.78115
▁നിങ്ങള	-9.78148
▁ക്ഷ	-9.78152
▁മാരെ	-9.78156
▁കോവിഡ	-9.78164
▁കൂ	-9.78172
▁നോട്	-9.78256
▁മുന്നോട്ടു	-9.78359
കോ	-9.78371
▁അട്ടിമറി	-9.78382
▁സിനിമയില	-9.78397
▁പ്രവേശനം	-9.78412
▁സര്‍	-9.78484
▁കൗണ്‍സില	-9.78494
▁അല്ലെങ്കിൽ	-9.78616
▁ആസ്തി	-9.7862
▁ഒരാള	-9.78642
▁ശമ്പള	-9.78652
▁കണ്ടെത്ത	-9.78656
▁പൂജ	-9.78666
▁നിയന്ത്രണങ്ങള്‍	-9.78678
▁വീതവും	-9.78685
▁വിമത	-9.78731
▁സമീപിച്ച	-9.78767
ദി	-9.78783
പ്പു	-9.788
▁വിഷ്ണു	-9.78834
▁വൈകിട്ട	-9.78836
▁ഷി	-9.78881
▁ബസ	-9.78975
▁പങ്കെടുക്ക	-9.7899
▁നടത്താ	-9.78996
▁യുടേയ	-9.79157
▁അപകടം	-9.79173
▁കൂടിയായ	-9.79198
മല	-9.79325
▁തുമായ	-9.7933
ൂരി	-9.79404
▁ദുബായ്	-9.79405
▁മാത്രമ	-9.7941
▁വരികയാണ്	-9.79413
▁ിട്ട	-9.79421
ആർ	-9.79497
▁ക്കണമെന്ന്	-9.795
▁തീരുമാനിച്ചത്	-9.7951
▁അറിയില്ല	-9.79664
▁തൃശൂർ	-9.79671
▁ലൈംഗിക	-9.79671
▁മായിരിക്കും	-9.79675
ില്ലാത്ത	-9.79691
▁മിനി	-9.79694
▁എസ	-9.79749
▁രൂക്ഷമായ	-9.7977
▁വുമാണ്	-9.80066
മായിരുന്നു	-9.80073
▁ഉപതിരഞ്ഞെടുപ്പ	-9.80087
▁രാജ്യങ്ങള	-9.80253
▁മുരളീധരന്‍	-9.80313
▁െടുത്ത	-9.80336
▁വിശദമായ	-9.80526
▁അംഗീകരിക്ക	-9.80531
▁എത്തുന്നത്	-9.80642
ത്വ	-9.80703
▁ഇറക്കുമതി	-9.80742
▁ആദ്മി	-9.80742
▁സൃഷ്ടിച്ച	-9.80753
▁അതിജീവിത	-9.80761
▁സ്ഥാപനങ്ങള	-9.80772
▁യാദവ്	-9.80794
▁ഓടി	-9.80798
▁വീടുകള	-9.8082
▁എൽഡിഎഫ്	-9.80836
▁കരി	-9.80872
▁വീട്ടിലേക്ക്	-9.81002
ുമുള്ള	-9.81026
▁ചെയര്‍മാന്‍	-9.8111
▁സുഹൃത്തുക്കള	-9.81118
▁മൊ	-9.81119
▁തീവ്ര	-9.81175
▁പ്രവേശന	-9.81234
▁ഭാഗം	-9.81285
▁റെയില്‍വേ	-9.81286
േക്ക	-9.81306
▁വ്യത്യസ്ത	-9.8132
▁പ്രധാനപ്പെട്ട	-9.81357
▁പുറത്തിറക്കിയ	-9.81359
▁ൾ	-9.81414
▁ണം	-9.81417
▁അംബാനി	-9.8149
വു	-9.81516
▁ശര്‍മ	-9.81554
▁നേരിടേണ്ടി	-9.81556
▁ഡയറക്ടര്‍	-9.81594
▁അച്ഛന	-9.81646
ിനൊപ്പം	-9.8177
▁നന്നായി	-9.81807
▁ധോണി	-9.81826
▁രൂപീകരിച്ച	-9.81829
▁നിങ്ങള്‍ക്ക	-9.8185
▁ചോദ്യ	-9.81852
▁തടസ്സ	-9.81958
വരെ	-9.81969
വിൽ	-9.81991
▁സുരക്ഷിത	-9.82036
▁സമീപം	-9.82067
▁കാന	-9.82115
▁കുറവ്	-9.82116
▁നൽകാൻ	-9.82156
▁ഗു	-9.82187
▁മാസത്ത	-9.82213
▁ശാസ്ത്ര	-9.82244
▁രാജിവെച്ച	-9.82283
▁യുണ്ടെന്ന	-9.82292
▁കല്ല	-9.82296
▁പ്രിയ	-9.82369
▁പ്രളയ	-9.82371
▁ഘ	-9.82376
▁ആനന്ദ	-9.82408
▁ൊരു	-9.82411
▁തെറ്റായ	-9.82446
▁തങ്ങൾ	-9.82577
▁ലക്ഷ്യമിട്ട	-9.82644
▁കുട്ടികളെ	-9.82657
▁66	-9.82781
▁എപ്പോഴും	-9.82786
▁പ്രത്യേകിച്ച	-9.82797
▁കോണ്‍ഗ്രസും	-9.82807
▁പ്രതിയെ	-9.82887
▁ബിജെപിയും	-9.82889
▁ഇക്കുറി	-9.82919
▁സര്‍ക്കാരിനെ	-9.82931
▁ശരിക്കു	-9.8295
▁സിന്	-9.82951
▁തോന്ന	-9.82965
ുകൊണ്ട്	-9.83023
▁നിൽക്ക	-9.83106
▁മഴയ്ക്ക	-9.83108
"	-9.83118
▁സതീശന്‍	-9.83134
▁സാംസ്	-9.83154
▁വിഭാഗത്തില്‍	-9.83157
▁പഠനം	-9.83174
▁64	-9.83178
▁എയർ	-9.83183
▁വാര്‍ത്തകള്‍	-9.83197
▁സെന്റ	-9.83198
ഹ്	-9.83214
▁സൗകര്യങ്ങള	-9.83222
▁പ്രവർത്തി	-9.83255
▁സാക്ഷി	-9.8343
▁മുഖം	-9.8343
▁മത്സരിക്കുന്ന	-9.83446
▁കേരളത്തിന്	-9.83451
▁ിന്	-9.83463
▁കഴിയ	-9.835
▁പാട്ട	-9.83518
▁മാപ്പ്	-9.83591
▁മീ	-9.83598
▁തീരുമാനിച്ചു	-9.83667
▁സ്വാധീനം	-9.83677
▁ജഡ്ജി	-9.83689
▁അതിര്‍ത്തി	-9.83704
▁പമ്പ	-9.83726
▁എഫ	-9.83808
▁എന്തു	-9.83837
▁ഒട്ട	-9.83905
▁പശ്ചിമ	-9.84024
▁തയ്യാറാ	-9.84037
▁പരിഗണന	-9.84047
▁പാറ	-9.84053
ില്ലെന്ന്	-9.84056
▁ബോധ	-9.8406
▁കിടക്കുന്ന	-9.84062
▁തട്ടിപ്പ്	-9.84138
▁ജയിച്ച	-9.84188
▁ചോദ്യത്തിന	-9.84212
▁മില്ലാത്ത	-9.84223
▁വ്യക്തമല്ല	-9.8427
▁വ്യാപാര	-9.84278
▁അതിനു	-9.84279
▁മുഖേന	-9.84309
▁വോട്ടു	-9.84333
▁പങ്കെടുക്കുന്ന	-9.84375
▁സേവന	-9.84381
▁ശതമാനവും	-9.8439
▁72	-9.84416
▁സൗകര്യം	-9.84417
▁രം	-9.8444
▁എത്രയ	-9.84479
▁ചടങ്ങില	-9.8452
ണ്ഡ	-9.84534
▁ജനകീയ	-9.84583
▁ചൂണ്ടിക്കാട്ട	-9.84586
▁അവർക്ക	-9.84623
▁കാര്യമായ	-9.84696
▁തുടരും	-9.84741
▁പുരസ്	-9.84763
▁ഇറാന	-9.84805
▁പോരാട്ടം	-9.84841
▁ആണെന്ന്	-9.84844
▁തൃ	-9.84935
▁നിന്നെത്തിയ	-9.84944
▁ഗ്ര	-9.85026
▁വു	-9.85081
▁സഹോദരി	-9.85083
▁അതൃപ്തി	-9.85135
▁കലാ	-9.85207
▁ഫേസ്ബുക്കില	-9.85221
▁തിരിച്ചറിയ	-9.85332
ഷന്‍	-9.85384
▁ഒന്നു	-9.85411
▁കര്‍ഷകര്‍	-9.85466
▁നിരക്ക	-9.85501
▁റിപ്പോർട്ടുകൾ	-9.85505
▁രോഹിത്	-9.85506
ൂടെ	-9.85575
▁ഇല്ലാതെ	-9.85611
▁സമ്പര്‍ക്ക	-9.85664
▁കെകെ	-9.85673
▁സഹിതം	-9.85709
▁തകര്‍ന്ന	-9.85949
▁പരസ്യമായ	-9.85964
▁അതിർത്തി	-9.85997
തീവ	-9.86021
▁ഖാന്‍	-9.86073
▁77	-9.86076
▁ലോകത്തെ	-9.86085
▁ായ	-9.86128
▁ഹൃദയ	-9.86177
▁ബുദ്ധിമുട്ട	-9.86186
▁സംരക്ഷണ	-9.86232
▁കൊലപ്പെടുത്തിയ	-9.86237
▁ഇടതുമുന്നണി	-9.86276
▁മയക്കുമരുന്ന	-9.8628
▁ആരംഭിച്ചത്	-9.86287
▁69	-9.86307
▁നാട്ടുകാര്‍	-9.86308
▁സ്ഥലങ്ങളില	-9.86483
▁s	-9.8651
▁കാരന്‍	-9.86556
▁ജനത	-9.86572
▁ിലേക്ക്	-9.86629
▁കൊള്ള	-9.86642
▁ഡോളറ	-9.86666
▁ുമായി	-9.86678
പ്പെട	-9.86678
▁ഉണ്ടാക	-9.8669
▁ങ്ങളോട	-9.86756
▁കിഴക്ക	-9.8679
▁കര്‍ശന	-9.86793
▁മുണ്ടായ	-9.86822
▁വിപണിയില	-9.86834
▁അംഗീകരിച്ച	-9.86835
▁സ്പ	-9.86836
▁നേട്ടങ്ങള്‍	-9.86846
▁കായിക	-9.86902
▁പറ്റിയ	-9.86902
▁കുറച്ചു	-9.86921
ാര	-9.86923
▁പോലീസിന്	-9.86961
▁ഐടി	-9.86987
▁ഇല്ലെന്ന	-9.87028
▁ആര്യ	-9.87034
▁എഴുതി	-9.87036
▁പുറത്തുവിട്ട	-9.87061
ോട	-9.87061
കി	-9.87173
▁ആയിരുന്ന	-9.87219
വെറും	-9.87231
▁74	-9.8726
▁ക്കാതെ	-9.87313
▁രാഷ്ട്ര	-9.87346
▁കുറ്റം	-9.87348
▁വീട്ടില	-9.87428
▁രോ	-9.87468
അ	-9.87472
▁സും	-9.87627
▁പ്രദേശത്ത	-9.87637
▁സംയുക്ത	-9.87708
▁അരി	-9.87742
ിക്കാൻ	-9.87787
▁ബെഞ്ച	-9.87804
സു	-9.87848
▁62	-9.8785
▁അപ്പ	-9.87852
▁ബുക്ക	-9.87893
▁ഡൗണ്‍	-9.87897
ക്കോ	-9.87908
▁ങ്ങളുമായി	-9.87909
▁പ്രകാരമ	-9.87924
r	-9.87936
▁തെരഞ്ഞെടുപ്പില	-9.87967
▁പോലീസിന്റെ	-9.87973
▁ദൈവ	-9.87998
▁പ്രദേശത്ത്	-9.88011
▁ക്കല്‍	-9.88027
▁വിനോദ	-9.88054
▁ട്ട്	-9.88179
▁ഗ്യ	-9.88187
▁ല്ലാ	-9.88194
▁പന്ത	-9.88218
▁ശരിയായ	-9.88246
▁വിഡി	-9.88281
▁സേവനം	-9.8833
▁ാണെന്ന്	-9.88361
▁ശനി	-9.88371
▁ചർച്ചകൾ	-9.88509
▁ലഭിക്കുക	-9.88511
▁അതിഥി	-9.8855
▁യഥാര്‍ത്ഥ	-9.88578
ങ്ങള	-9.88598
▁സായി	-9.88623
▁വ്യക്തിപരമായ	-9.8869
▁തൃക്കാക്കര	-9.88692
▁നോക്കിയ	-9.88707
▁ഉദ്യോഗസ്ഥ	-9.88707
▁ആയിരിക്കും	-9.88712
▁പഞ്ചാബില	-9.88713
▁കിലോമീറ്റര്‍	-9.88721
▁ഏജൻസി	-9.88774
▁വോട്ടെടുപ്പ്	-9.88803
▁രാജ്യങ്ങളില്‍	-9.88807
▁പ്രധാനമായ	-9.88854
▁യ്ക്കു	-9.88876
െക്കുറിച്ച്	-9.88886
▁നിര്‍ദ്ദേശം	-9.88951
▁പഞ്ചായത്ത	-9.88994
▁പ്രവര്‍ത്തിച്ച	-9.89031
▁സിനേഷന്‍	-9.89032
▁ആരംഭിച്ചു	-9.89091
▁....	-9.89092
▁മരുന്ന്	-9.89128
▁സീനിയര്‍	-9.89206
▁99	-9.89237
▁കോര്‍പ്പറേഷന്‍	-9.89314
▁താരങ്ങള	-9.89327
ാള	-9.89357
▁മുകളില്‍	-9.89396
▁നിലനില്‍ക്കുന്ന	-9.89431
▁പുരുഷന്‍	-9.89435
പ്പുറം	-9.89436
▁ദുരിതാശ്വാസ	-9.89455
▁തർക്ക	-9.89467
▁ഇളവ്	-9.89478
▁മക്കള	-9.89576
കുന്ന	-9.89583
▁നല്‍കണമെന്ന	-9.89592
ാണ	-9.8962
ാറ	-9.89623
▁നമ്പറ	-9.89649
▁ജോർജ്	-9.89808
▁ഫണ്ട്	-9.8982
▁കോൺഗ്രസിന്റെ	-9.89832
▁ചി	-9.89833
▁എന്തുകൊണ്ട്	-9.89835
▁രാജ്യസഭാ	-9.89874
▁പറയാൻ	-9.89887
▁നേട്ട	-9.89955
▁വായ്പ	-9.89969
▁നഗരത്തില	-9.89979
ചി	-9.89983
▁പരാജയപ്പെട്ട	-9.90007
▁ല്ലോ	-9.90039
▁പ്രഖ്യാപന	-9.90058
▁റിയാസ്	-9.90075
▁ലക്ഷ്മി	-9.90086
▁വിദ്യാർത്ഥികൾ	-9.90098
▁ശ്രമിക്കുന്നത്	-9.90118
▁85	-9.90163
▁അപ്പോഴ	-9.90185
▁മാള	-9.90237
▁കണക്ക	-9.90257
▁സ്വീകരിക്കുന്ന	-9.90266
▁വിമർശനം	-9.90283
▁സീ	-9.90291
▁ബഹുമാന	-9.90305
▁സമ്പര്‍ക്കത്തില	-9.90317
▁ആൻഡ്	-9.90343
▁കഴിച്ച	-9.90356
▁സമ്മേളനം	-9.90369
▁പേരില	-9.9042
▁കള്‍ക്ക്	-9.90442
ുണ്ടെങ്കിലും	-9.90482
▁മൂന്ന	-9.90555
▁ഇരുന്ന	-9.90557
▁പ്രവർത്തകര	-9.9056
▁ട്രംപ	-9.90568
▁കാലാവസ്ഥാ	-9.90637
▁സത്യപ്രതിജ്ഞ	-9.90637
▁സുപ്രധാന	-9.90637
▁പ്രസ്ഥാന	-9.9065
▁ബല	-9.90651
▁ഭരണകൂടം	-9.90677
▁പഴ	-9.90762
▁ഗണേഷ	-9.90764
▁പഠിച്ച	-9.90765
▁പുഴ	-9.90769
▁67	-9.90785
▁പ്രശാന്ത്	-9.90794
▁മഞ്ഞ	-9.90822
▁സുഖ	-9.90863
▁യത്	-9.90899
▁നെഗറ്റീവ്	-9.90901
▁എന്നൊക്കെ	-9.90902
▁പ്രകടിപ്പിച്ച	-9.9093
▁രാജസ്ഥാനില	-9.90947
▁ക്കുന്നത	-9.91006
▁സ്ഥാപനങ്ങളില	-9.91065
▁യിലേക്ക	-9.91069
▁കാണാൻ	-9.9108
▁കോൺ	-9.91091
▁എന്നിങ്ങനെയാണ്	-9.9112
▁പൊളി	-9.91144
▁8,	-9.91176
▁വൈകീട്ട്	-9.91193
▁സാധാരണക്കാര	-9.91263
ലു	-9.91289
നില	-9.91301
▁6,	-9.91304
▁തൊട്ട	-9.91329
▁കേന്ദ്രമന്ത്രി	-9.91346
▁ക്കുമ്പോൾ	-9.91433
▁യേ	-9.91456
▁ഭാഗങ്ങളില	-9.91473
▁ദേവസ്വ	-9.91537
▁കണക്കുകള്‍	-9.91613
▁78	-9.91654
▁ഗെയിം	-9.9167
▁എകെ	-9.91708
▁ഇടതു	-9.91746
▁7,	-9.9177
▁സന്ദേശ	-9.91817
▁നല്‍ക	-9.91899
▁ചെയ്യണം	-9.91914
▁കുട	-9.91927
▁കോലി	-9.91931
▁മന	-9.91948
▁ട്ര	-9.91958
▁ലോകം	-9.91971
▁പരാജയ	-9.91999
സിസി	-9.92032
▁മുകേഷ്	-9.92067
▁ഷെ	-9.92133
▁നിർണായക	-9.92134
▁പോളിംഗ്	-9.92152
▁നാലാം	-9.92173
▁കാറ്റ	-9.92178
▁മകന	-9.92182
▁വെന്ന	-9.92224
▁സമർപ്പിച്ച	-9.92227
മീ	-9.92341
▁കാണാതായ	-9.92417
▁പരിശീലനം	-9.92418
▁ഉള്‍പ്പടെ	-9.92439
▁സൈബ	-9.92466
▁ഏജന്‍സി	-9.92652
യെങ്കിലും	-9.92681
▁വിതരണ	-9.92682
ക്കട	-9.92682
▁യാത്രാ	-9.92694
▁തലസ്ഥാന	-9.9271
▁രാജ്യങ്ങള്‍	-9.92712
▁ഡോളര്‍	-9.9274
▁വൈകുന്നേര	-9.9274
▁സിവില്‍	-9.92752
▁ഹോട്ട്	-9.9276
▁സംഭവങ്ങള	-9.92767
ംഗ്	-9.9277
▁കമ്മീഷൻ	-9.92787
▁ഉം	-9.92867
▁ദിനം	-9.92882
ിപ്പി	-9.9291
▁ാന	-9.93051
▁തീരത്ത	-9.93073
▁അടച്ച	-9.9308
▁മാരായ	-9.93091
ത്തിലാണ്	-9.93118
▁പുറപ്പെടുവിച്ച	-9.93126
▁ദിവസമാണ്	-9.93163
ച്	-9.93166
▁പിള്ള	-9.93169
▁നിർദേശം	-9.93175
▁നടക്ക	-9.93231
▁ഗി	-9.93234
▁ായിരിക്കും	-9.93278
▁അരവിന്ദ	-9.93348
▁നല്‍കുക	-9.93366
▁രാജേഷ്	-9.93502
▁കല്യാണ	-9.93503
▁അവസര	-9.93532
▁കളായ	-9.93675
▁പീഡന	-9.93742
▁ായി	-9.93824
▁ചിലർ	-9.93824
▁ഞ്ഞ	-9.93892
▁കുറയ	-9.93927
▁സമ്മേളനത്തില	-9.93928
▁വക്താവ്	-9.9396
▁ശൈലജ	-9.93962
▁ദു	-9.93963
▁ഭീതി	-9.93972
▁നല്‍കുമെന്ന	-9.93992
▁പനി	-9.94002
▁യ്ക്കുള്ള	-9.94005
▁വടകര	-9.94005
▁സൂക്ഷിച്ച	-9.9405
▁തെളിയിക്കുന്ന	-9.94055
▁അംഗീകാരം	-9.94073
▁ലോകത്ത്	-9.94073
▁ഉത്തര	-9.94111
▁കുറഞ്ഞത്	-9.94115
▁സിനെ	-9.94116
▁പ്രചരണം	-9.9414
▁ഇന്ത്യക്കാര	-9.94145
▁ത്തിലേക്ക	-9.94159
▁ജീവന	-9.94191
▁പറ്റി	-9.94195
▁കാര്യത്തിൽ	-9.94222
▁കഴിവ	-9.9428
▁കൂളില	-9.94349
▁സെന്ററ	-9.94378
▁സീറ്റുകളില്‍	-9.9441
▁മനസ്സിലാ	-9.94451
▁ഇട്ട	-9.94474
▁ആവശ്യമാണ്	-9.94499
▁ില	-9.94533
▁ആരെയ	-9.94587
▁സ്ത്രീകള്‍	-9.94608
▁ഒരാളെ	-9.94649
▁എല്ലാവര്‍ക്കും	-9.94665
▁എടുക്ക	-9.94667
▁ചെയ്യുമെന്ന	-9.94672
▁കുത്തി	-9.94674
▁പൂര്‍ത്തിയാക്കി	-9.9469
▁നിയമന	-9.948
▁കയറിയ	-9.94854
▁ഭരിക്കുന്ന	-9.94858
h	-9.94884
▁ജയ്	-9.94895
▁കുട്ടികളുടെ	-9.94902
▁ഓഹരി	-9.94918
▁കഴിയാത്ത	-9.94924
▁ആരാണ്	-9.94943
▁പ്രായം	-9.94945
▁ഇറാന്‍	-9.94975
▁കാണിക്ക	-9.94995
▁വിദ്യാർത്ഥികള	-9.95007
▁ഇതൊക്കെ	-9.95077
▁എഴുതിയ	-9.95103
▁ഹോം	-9.95133
c	-9.9518
▁പടിഞ്ഞാറ	-9.95195
▁നിലവിലുള്ള	-9.95195
▁കെട്ട	-9.95214
▁വാര്‍ത്താ	-9.95216
▁ഭീകര	-9.95274
▁ണ്ടാ	-9.95287
!	-9.95288
ഖ്	-9.95346
ഠ	-9.95357
തിനായി	-9.9537
▁രൂപം	-9.95457
▁ഇഷ്ട	-9.95466
▁കേന്ദ്രസർക്കാർ	-9.95508
▁തൊഴില	-9.95533
▁ആരോഗ്യമന്ത്രി	-9.95572
▁പോസിറ്റീവ്	-9.95588
▁ഉറവിടം	-9.95634
േറ്റ	-9.95638
തായ	-9.95655
ാപ	-9.95658
▁ഗുരു	-9.95669
▁വാഴ	-9.95742
▁സത്യം	-9.95825
▁ചെലവ്	-9.9583
▁ചരിത്രം	-9.95835
▁ഉയര്‍ന്നു	-9.9584
▁ഷന	-9.95845
▁കൊല	-9.95855
▁ക്യാമറ	-9.95884
▁വര്‍ധിച്ച	-9.95892
ിപ്പിക്കുന്ന	-9.9593
രോ	-9.95938
▁പ്രശ്നം	-9.9595
െന്നാണ്	-9.95981
▁കീഴ	-9.96035
▁ഒര	-9.96133
▁സർവീസ്	-9.96139
▁സ്വര്‍ണവില	-9.96147
▁ഉറച്ച	-9.96153
▁2000	-9.96173
▁വയനാട്ടില	-9.96184
▁നിശ്ചയിച്ച	-9.96218
▁നടക്കുക	-9.96269
▁സ്ഥാനാര്‍ത്ഥികള	-9.9627
ുവെന്ന	-9.96388
▁മാറും	-9.96405
▁യായിരുന്ന	-9.96418
▁അപേക്ഷിച്ച	-9.96425
▁ബാനര്‍ജി	-9.96449
ശി	-9.96465
കരമായ	-9.96497
▁വെറു	-9.96548
▁മുന്‍പ	-9.96552
▁ഗോവ	-9.966
▁തെക്ക	-9.96607
▁വൈറസ	-9.96633
▁ചെന്ന	-9.96655
▁വേഗത്തില	-9.96662
▁ചുമത്തിയ	-9.96678
▁വേളയില്‍	-9.96687
രുടെ	-9.96694
ച്ചി	-9.96718
ടേയും	-9.96722
▁സംഗീത	-9.96745
ിക്കല്‍	-9.96763
ത്വം	-9.96794
▁10,	-9.96809
▁എതിര്‍	-9.9682
▁300	-9.96841
▁ഹോ	-9.96873
▁ത്താ	-9.96875
▁മടങ്ങി	-9.96881
▁തിലൂടെ	-9.96901
▁പൈസ	-9.96913
▁ഉണ്ടായിരുന്നത്	-9.96946
▁വാദി	-9.97007
▁ബെംഗളൂരു	-9.97031
▁ഡോക്ടറ	-9.97081
▁കൊടു	-9.97115
▁നടത്തുക	-9.97156
▁മേഖലകള	-9.97182
▁സന്തോഷം	-9.97194
▁94	-9.9724
▁ലീഡ്	-9.97271
▁മാക്കി	-9.97332
▁വന്നതോടെ	-9.97426
▁നിയോഗിച്ച	-9.97434
മെന്ന	-9.9748
▁ഉത്തരവാദിത്ത	-9.97492
▁സംഭാവന	-9.97548
▁മണിക്കൂറിനിട	-9.97548
ിനി	-9.97567
▁രാം	-9.97657
▁വാക്സിന	-9.97674
▁ഇടപെട്ട	-9.97723
▁നേതാവാണ്	-9.97727
▁ഉണ്ടാവും	-9.97745
▁ദില്ലിയില്‍	-9.97761
▁ലൈഫ	-9.97777
▁മേൽ	-9.97821
▁ചേ	-9.97829
▁അതുകൊണ്ടാണ്	-9.97839
▁ആളാണ്	-9.97853
▁ശേഖരിച്ച	-9.9786
▁പ്രശ്നങ്ങൾ	-9.97889
▁യൂ	-9.97917
ബാ	-9.9792
▁തിരഞ്ഞെടുപ്പിന	-9.97978
▁കഴിയുന്നത്	-9.97983
▁ഘടക	-9.98025
▁മുന്നോടിയായ	-9.98037
▁അപേക്ഷിക്കാം	-9.9805
ിട്ടുള്ള	-9.98111
▁ശബ്ദ	-9.98118
▁സൗഹൃദ	-9.98119
▁11,	-9.98159
▁76	-9.98178
▁96	-9.98197
എച്ച്	-9.9825
ാനി	-9.98275
▁ശ്രദ്ധേയ	-9.983
▁സാധിക്കുമെന്ന	-9.98306
▁മിശ്ര	-9.98368
മെന്ന്	-9.98389
▁നടത്തുമെന്ന	-9.98486
▁ക്കൂ	-9.98502
▁നങ്ങള	-9.9853
യൊരു	-9.98532
▁കളിലേക്ക്	-9.98565
▁രവി	-9.98616
▁കുറവാണ്	-9.98665
▁തോല്‍വി	-9.98678
▁കൊവിഡ	-9.98715
▁തിരിച്ചറിഞ്ഞ	-9.98718
▁പ്രിയപ്പെട്ട	-9.98729
▁പദ്ധതികള	-9.98758
യിലാണ്	-9.98784
▁ജീവന്‍	-9.98794
▁തുടര	-9.98811
▁കീ	-9.98827
▁സംസ്ഥാനം	-9.98866
▁ഗുണ	-9.98912
▁പ്രമേയം	-9.98939
▁സന്ദേശം	-9.98973
▁ലോകകപ്പ	-9.98973
▁കളക്ടർ	-9.99001
▁അധികൃതര	-9.99071
▁രാജസ്ഥാന്‍	-9.99089
▁നല്‍കുകയ	-9.99196
▁സർക്കാരിന്	-9.99206
▁ഒഴിവാക്കിയ	-9.99237
▁ജനങ്ങള്‍ക്ക്	-9.99287
▁ഉദ്യോഗാര്‍ത്ഥി	-9.99325
▁കുറിച്ചും	-9.99354
▁ഓഫീസില്‍	-9.99358
ുണ്ടായിരുന്ന	-9.99363
ക്കുമെന്ന	-9.99366
▁ഉദ്യോഗസ്ഥരെ	-9.99395
▁ജില്ലകളിലും	-9.99395
▁ിക്ക	-9.99408
വാസ	-9.99445
▁നാല	-9.9946
ആക്രമിക്കപ്പെട്ട	-9.99516
▁കുട്ടികള്‍	-9.99522
▁അടിസ്ഥാനത്തിൽ	-9.99531
്ച	-9.99583
▁ചികിത്സയില്‍	-9.99598
▁കോര്‍	-9.99619
▁ഖത്തര്‍	-9.9965
▁നിയമസഭയില്‍	-9.99655
▁ആല	-9.9966
▁ഇപ്പോഴിത	-9.99672
▁കണക്കുകൾ	-9.99728
▁കുഞ്ഞിനെ	-9.9977
▁ഉറപ്പാണ്	-9.9981
▁നില്‍ക്ക	-9.99824
▁പ്രഖ്യാപിക്ക	-9.99836
▁ഉണ്ടെന്ന്	-9.9984
▁വന്നാല്‍	-9.99849
ഹി	-9.99854
▁പൂര	-9.99859
▁കരുത്ത	-9.99872
▁ഇന്ത്യാ	-9.99924
▁വിദ്വേഷ	-9.99975
▁കഴിയില്ല	-9.99977
▁മാരും	-10.0001
▁കാണിക്കുന്ന	-10.0004
▁സ്വീകരിക്ക	-10.0004
▁വെളിപ്പെടുത്തിയ	-10.0005
▁വികസനം	-10.0005
▁വാങ്ങുന്ന	-10.0006
ല്ലാതെ	-10.0006
▁നാഗ	-10.001
▁197	-10.0014
▁മണിയോടെ	-10.0017
▁സ്ഥലങ്ങള	-10.002
ട്ടു	-10.0021
▁ഭാഗ	-10.0027
▁നോക്ക	-10.003
▁ക്രൈംബ്രാഞ്ച്	-10.0031
▁സ്വാമി	-10.0032
▁ചോദിക്ക	-10.0034
▁നിര്‍മാണ	-10.0035
ള്ള	-10.0039
▁73	-10.0045
▁പരിശോധിക്ക	-10.0046
▁തോതില	-10.0046
നോ	-10.0046
▁ബംഗാള്‍	-10.0048
▁വാർത്താ	-10.0048
▁ലൈന്‍	-10.0057
▁സംസ്ഥാനങ്ങള	-10.0057
▁ജനസംഖ്യ	-10.0058
ഗോ	-10.0059
തില്‍	-10.006
▁വരാന്‍	-10.006
▁അദ്ദേഹ	-10.0061
▁മെട്രോ	-10.0063
▁വയസ	-10.0064
▁പ്ലസ്	-10.0064
ക്കാർ	-10.0065
▁തടഞ്ഞ	-10.0068
▁ചോദിക്കുന്നു	-10.0071
▁തള്ളിയ	-10.0082
▁ദളിത്	-10.0082
യത്	-10.0085
▁പ്രതിനിധി	-10.0085
▁വീഴ	-10.0086
▁ഉച്ചയ്ക്ക്	-10.009
▁ഇന്ത്യയെ	-10.0091
ുമെന്നാണ്	-10.0093
▁ൻ്റെ	-10.0096
▁വള	-10.0099
▁ലാഭം	-10.01
▁എംഎല്‍എമാര്‍	-10.0104
▁നിങ്ങൾക്ക	-10.0107
▁ലു	-10.0123
▁71	-10.0125
▁പൈലറ്റ്	-10.0129
▁തലശേരി	-10.013
▁പ്രവർത്തിക്ക	-10.0143
▁കൈമാറിയ	-10.0143
▁വാര	-10.0143
▁ദിവസങ്ങളില	-10.0157
▁ബ്ര	-10.0159
▁രോഗബാധ	-10.0161
▁പ്രതിയായ	-10.0163
▁നടൻ	-10.0166
▁ഉത്തരവിട്ട	-10.0166
▁ഒന്നര	-10.0166
▁ക്കരുതെന്ന	-10.0167
▁ശതമാനമാണ്	-10.0169
▁തൊഴിലാളികള	-10.017
▁പ്രത്യേകത	-10.0171
▁എന്തിനാണ	-10.0173
▁പോകാൻ	-10.0173
▁ബുദ്ധി	-10.0174
▁രക്ഷ	-10.0178
▁മണ്ഡലങ്ങള	-10.018
ീയ	-10.0182
രണ	-10.0183
▁വെളിപ്പെടുത്തല	-10.0184
▁കാരനായ	-10.0188
▁",	-10.0189
▁മറിയ	-10.019
▁നടത്തുകയും	-10.0195
▁കണ്‍ട്രോള്‍	-10.0195
മന	-10.0195
▁വസ്തുക്കള	-10.0195
▁വേണ്ടെന്ന	-10.0196
▁തുടക്ക	-10.0205
രെ	-10.0209
▁ഉദ്ധരിച്ച	-10.0211
ഹാ	-10.0213
▁ഫോ	-10.022
▁മാണിത്	-10.0223
ഷന	-10.0225
▁തെലങ്കാന	-10.0227
▁ഏപ്രിൽ	-10.0229
▁പരിഹരിക്ക	-10.023
▁സ്റ്റേറ്റ്	-10.0231
▁വരുത്തിയ	-10.0232
▁മാധ്യമങ്ങളോട്	-10.0234
▁പകര	-10.0239
▁മാകും	-10.0244
▁സൂ	-10.0245
ാണു	-10.0246
▁നൽകിയിട്ടുണ്ട്	-10.0251
▁കിടന്ന	-10.0254
▁മടങ്ങ	-10.0254
▁പദ	-10.0256
▁ത്ര	-10.0259
▁അദാനി	-10.0262
▁തിരക്ക	-10.0267
▁ഇടയില	-10.027
▁യുദ്ധം	-10.0274
▁ഇതിന	-10.0276
▁രാശിയില	-10.0278
▁ഇറങ്ങ	-10.0278
▁നിയമിച്ച	-10.0279
യിലെത്തിയ	-10.0292
▁വല	-10.0294
▁ഉറപ്പിച്ച	-10.0295
▁തിരിക്കാന	-10.0298
▁തന്ത്ര	-10.0298
ത്തിലൂടെ	-10.0301
▁ഓസ്	-10.0304
▁ഗുജറാത്തില	-10.0306
▁ലക്ഷദ്വീപ	-10.0308
▁79	-10.0309
▁ദേശ	-10.0314
▁ലായിരുന്നു	-10.0324
▁സന	-10.0327
▁നെതിരെ	-10.0329
▁കാസര്‍കോട്	-10.0329
ാനന്തര	-10.0329
ുതന്നെ	-10.0329
▁അഖിൽ	-10.0329
▁രേഖപ്പെടുത്ത	-10.0333
▁കർഷക	-10.0333
▁നിർത്തി	-10.0338
▁പ്പോഴും	-10.0344
പ്പിച്ച	-10.0345
▁വിജയിച്ചത്	-10.035
▁സംസാരിക്ക	-10.0355
സര്‍ക്കാര്‍	-10.0355
ഗാ	-10.0359
▁ശരാശരി	-10.0363
▁2015	-10.0365
▁എല്‍ഡിഎഫ	-10.0376
▁കാസർഗോഡ്	-10.0377
▁97	-10.038
▁63	-10.038
▁ൂ	-10.0384
▁ഇതിനക	-10.0384
▁നഴ്	-10.0384
കരാർ	-10.039
▁ഭാഗ്യം	-10.039
▁ബില്ല	-10.0397
▁ഉൾ	-10.0399
▁ബാധിക്കുന്ന	-10.0405
▁സീറ്റുകളില	-10.0406
ക്കഴിഞ്ഞ	-10.0406
▁രാജ്യങ്ങളില	-10.0408
▁മാന	-10.041
▁ആയിര	-10.041
▁89	-10.041
▁പ്രവർത്തനങ്ങള	-10.0416
▁ചാനല	-10.0422
▁ക്കാത്ത	-10.0424
▁ത്തിലായിരുന്നു	-10.0431
▁വളര്‍ച്ച	-10.0431
▁വ്യക്തിയാണ്	-10.0431
▁യഥാർത്ഥ	-10.0431
▁വര്‍ഗീയ	-10.0431
▁ലോക്ക	-10.0438
▁തകര്‍ത്ത	-10.0438
▁ദ്വീപ	-10.044
▁ഉള്‍പ്പെടുന്ന	-10.044
▁പരിഹാരം	-10.0441
▁കേന്ദ്രങ്ങളില	-10.0446
▁പങ്ക്	-10.0449
▁ത്രി	-10.0454
▁സാധിക്കുന്ന	-10.0461
▁2011	-10.0465
▁ശിശു	-10.0465
യാന	-10.0471
▁ആശുപത്രികളില	-10.0473
▁നൽക	-10.0474
▁ബിഎസ്പി	-10.0484
▁പരിഗണിക്ക	-10.0486
▁ദിവസങ്ങളിൽ	-10.0492
▁വാക്ക്	-10.0494
▁യുകെ	-10.0495
▁കടല	-10.0495
▁കൊടുക്കുന്ന	-10.0496
▁േഴ്	-10.0498
▁കോട്ടയത്ത	-10.0502
in	-10.0508
▁കാരണമായ	-10.0511
ുമൊക്കെ	-10.0512
▁കര്‍	-10.0512
▁നിരീക്ഷണത്തില്‍	-10.0513
▁82	-10.0524
▁ദേവി	-10.0526
▁ഉപേക്ഷിച്ച	-10.0538
▁ആശുപത്രിയിലേക്ക	-10.054
▁നേരിയ	-10.054
ശാല	-10.055
▁സന്തോഷ്	-10.0551
▁ആരോപണങ്ങള	-10.0557
▁ഉറപ്പു	-10.0559
▁തുടർച്ചയായ	-10.0559
സാ	-10.0561
▁മരുന്ന	-10.0561
▁ടാ	-10.0568
▁ദുബായില	-10.0572
▁ആവശ്യപ്പെട്ടത്	-10.0579
എന്‍	-10.0582
▁ില്ലേ	-10.0584
▁തേട	-10.0584
ാണി	-10.0586
▁ദൃശ്യ	-10.0587
▁യാണോ	-10.0591
▁പേടി	-10.0595
▁അപ്പോള	-10.0597
▁സുരേന്ദ്ര	-10.0597
▁അധ്യക്ഷത	-10.0598
▁ലീ	-10.06
▁പോസിറ്റിവ	-10.0603
▁ആർക്ക	-10.0605
▁വിദഗ്ധ	-10.0606
▁താലിബാന്‍	-10.0611
▁തോട്ട	-10.0619
▁വിലക്ക്	-10.062
▁നിർദ്ദേശ	-10.0621
▁വോ	-10.0622
▁പക	-10.0623
▁അഹമ്മദ്	-10.0623
▁ജീവി	-10.0629
ിച്ചു	-10.0629
▁ത്തിലുള്ള	-10.063
ന്‍റെ	-10.0631
▁കളിലൂടെ	-10.0634
▁പൂർത്തിയാ	-10.0635
▁വാക്സിന്‍	-10.0635
നിശ്ചിത	-10.0637
▁കുറ	-10.0638
▁ചെയ്തിട്ടില്ല	-10.0638
▁പരിശോധനാ	-10.064
ുന്നുണ്ട്	-10.0642
▁പരിചയ	-10.0642
▁സുധാകരൻ	-10.0644
▁ആശുപത്രിയിലെ	-10.0645
▁വക	-10.0647
▁വഹിച്ച	-10.065
▁വട്ട	-10.0652
▁കൊന്ന	-10.0653
▁ിലും	-10.0658
▁അമിത	-10.0659
ക്കല്‍	-10.066
▁പോകും	-10.0661
▁ഉമ്മ	-10.0666
▁എറണാകുളത്ത	-10.0668
▁പരീക്ഷണ	-10.0671
▁ല്ലേ	-10.0674
▁നിലപാടാണ്	-10.0676
▁പരാമര്‍ശം	-10.068
▁ഞങ്ങള	-10.0686
▁അറിയ	-10.0687
ിപ്പ	-10.0688
ഗ്ര	-10.069
▁രേഖകള്‍	-10.0693
▁സംസ്ഥാനങ്ങളില	-10.0693
▁പക്ഷം	-10.0694
▁ഗ്രഹ	-10.0694
നാഥ്	-10.0699
▁ഐക്യ	-10.0705
▁കഴിയുമെന്ന	-10.0705
▁ക്ലാസ	-10.0707
▁നാട്ടിലേക്ക്	-10.0709
▁വിധ	-10.0709
▁വിശ്വാസം	-10.0711
▁തിരുത്ത	-10.0712
▁യുണ്ടായ	-10.0715
ത്തിനിടെ	-10.0717
▁വണ്ടി	-10.0718
▁പ്പോഴാണ്	-10.0723
▁വർക്ക	-10.0726
▁61	-10.0727
▁കെഎം	-10.0728
▁ക്കിടയില	-10.0728
▁പദ്ധതികള്‍	-10.0734
▁പ്രവര്‍ത്തക	-10.0735
▁പ്രസാദ്	-10.0735
S	-10.0738
▁മാറ്റങ്ങള്‍	-10.074
▁തുടരുമെന്ന	-10.0744
▁ആയുധ	-10.075
▁ഉയര്‍ത്തി	-10.0755
▁ഗാന	-10.0758
▁വര്‍ഷമായി	-10.0767
▁തമിഴ്നാട്	-10.0772
▁കമല	-10.0772
▁അംഗങ്ങള്‍	-10.0774
▁കൊലപാതകം	-10.0776
▁വയസ്	-10.0777
▁സംസാരിക്കുന്ന	-10.0777
▁പ്രകൃതി	-10.0778
▁ബീ	-10.078
▁ഫോണില	-10.078
ുകള	-10.0782
▁മേല	-10.0789
ശ്	-10.0789
▁വെയ്	-10.0805
▁യെയും	-10.0808
▁ങ	-10.0813
▁ചലച്ചിത	-10.0813
▁സ്പീക്കര്‍	-10.0813
▁പ്രതികള	-10.0819
▁അനുവദിക്ക	-10.082
▁ബോര്‍ഡ്	-10.0822
▁ജനം	-10.0824
▁എടുക്കുന്ന	-10.0826
▁പ്പെട	-10.0839
▁കൊണ്ടുവരാന	-10.0843
▁ത്തിയത്	-10.0844
▁ിക്കുമെന്ന	-10.0845
▁പുലര്‍ച്ചെ	-10.0848
▁ചട്ട	-10.0863
▁മാവ	-10.0863
ുമായിരുന്നു	-10.0866
▁ഇസ്രായേല	-10.0867
▁തസ്തിക	-10.0868
▁പുന	-10.0869
▁ഗവർണർ	-10.0884
▁മത്സ്യ	-10.0884
▁എംബസി	-10.0884
▁പലിശ	-10.0884
▁പ്രകാശ്	-10.0891
▁198	-10.0893
ര്യ	-10.0901
▁മാനേജ്	-10.0903
ാവസ്ഥ	-10.091
▁വില്‍	-10.0912
▁കരാറ	-10.0914
റും	-10.0915
▁സാധിച്ചു	-10.0915
▁ഇറങ്ങി	-10.0918
▁മാത്യു	-10.0918
▁താല്‍പര്യ	-10.0918
▁പൊലീസിന്	-10.0922
▁ഇരട്ട	-10.0926
▁ചൂണ്ടിക്കാണിച്ച	-10.0928
യ്ക്ക	-10.0939
▁മാധ്യമങ്ങൾ	-10.0947
▁മറ്റുള്ളവര	-10.0949
▁ക്ല	-10.0953
▁സാധനങ്ങള	-10.0954
▁കുടിയേറ്റ	-10.0955
▁ഗവേഷണ	-10.0955
▁പിന്നിൽ	-10.0956
▁സഹായത്തോടെ	-10.0957
ുണ്ടാ	-10.0959
▁ആശുപത്രികളില്‍	-10.0961
േര	-10.0963
▁രാജു	-10.0964
▁അഭിനയ	-10.0969
▁വ്യാപക	-10.0969
▁പീഡിപ്പിച്ച	-10.0972
▁മന്ത്രാലയ	-10.0972
▁കേസുകളില്‍	-10.0974
▁വ്യാപന	-10.0975
▁ഉദ്ഘാടന	-10.0976
▁ഇതിനെതിരെ	-10.0977
▁നൗ	-10.0979
▁അഖില്‍	-10.0979
▁വിന്	-10.0979
▁നിർദേശ	-10.0983
▁ചു	-10.099
▁ജയരാജന്‍	-10.0993
▁വെറുതെ	-10.1002
▁മഞ്ജു	-10.1004
▁വിദ്യാർത്ഥി	-10.1004
▁കഴിഞ്ഞാല്‍	-10.1011
▁പങ്കാളി	-10.1011
▁ആര്‍എസ്എസ്	-10.1012
▁അബുദാബി	-10.1016
▁ഓഫീസർ	-10.1017
▁ലഭിക്ക	-10.1024
▁ഇടം	-10.1024
ലാണ്	-10.1026
▁മനോരമ	-10.1028
▁പറഞ്ഞാല്‍	-10.1028
▁ക്രമ	-10.1031
▁ഡയറക്ടർ	-10.1033
▁അതിനാൽ	-10.1038
▁199	-10.104
▁പ്രാ	-10.1045
▁മകള്‍	-10.1046
ാതിരുന്ന	-10.1047
ണ്ട്	-10.1047
▁വിദ്യ	-10.1051
▁ബാധിതര	-10.1051
▁സ്വീകരിച്ചത്	-10.1056
ബോ	-10.1057
▁ഡ്യൂട്ടി	-10.1064
▁ബ്ല	-10.1064
▁ഫണ്ട	-10.1073
▁അനുകൂലമായ	-10.1073
▁ഡോക്ടര്‍	-10.1083
▁ഇതിനു	-10.1084
▁തോമസ	-10.1087
മാക്കി	-10.1089
▁പ്രവർത്തനം	-10.109
▁മുണ്ട	-10.109
▁ആര്	-10.1097
▁ശസ്ത്രക്രിയ	-10.11
▁വരുന്നു	-10.1101
▁സ്ഥാപനങ്ങള്‍	-10.1101
▁ിലെ	-10.1103
▁പരിഷ്	-10.1103
▁ആശയ	-10.1104
▁പൂർണമായ	-10.1105
▁പ്പെടുന്ന	-10.1108
▁ഡാറ്റ	-10.1113
▁വേണമെന്ന്	-10.1113
റേ	-10.1113
▁86	-10.1116
▁അവതരിപ്പിച്ച	-10.1117
▁തീവ്രവാദ	-10.1119
രിയ	-10.1119
▁അപകടത്തില്‍	-10.1121
▁കൃത്യ	-10.1121
▁അനുവദിക്കില്ല	-10.1127
▁യോഗത്തില	-10.1128
▁വസ്തുത	-10.1132
▁ഴ	-10.1133
▁ിക്കാൻ	-10.1133
▁തരം	-10.1134
▁കുട്ടിയ	-10.1135
▁നായര്‍	-10.1135
▁ന്നും	-10.1139
▁ഏഷ്യാനെറ്റ	-10.1141
▁സീറ്റുകള	-10.1145
▁ആറ	-10.1151
▁ഉയർത്തിയ	-10.1158
▁ഉണ്ടാകുന്ന	-10.1165
▁88	-10.1167
കാ	-10.1167
▁ബൂത്ത	-10.117
▁ഭര്‍ത്താവ്	-10.117
▁നിര്‍മ്മാണ	-10.1171
▁മുംബൈയില	-10.1175
▁ചെയ്യുന്നത	-10.1177
▁പച്ച	-10.1183
▁രായ	-10.119
▁98	-10.119
▁ഇദ്ദേഹത്ത	-10.1191
▁പ്രക്ഷോഭ	-10.1196
▁വോട്ടുകൾ	-10.1203
▁കളെല്ലാം	-10.1203
▁നേതാവായ	-10.1205
▁തിരിച്ചെത്തിയ	-10.1205
▁അൽ	-10.1208
▁ശാരീരിക	-10.121
▁സംസ്ഥാനങ്ങള്‍	-10.1213
▁മണ	-10.1215
▁കുറഞ്ഞു	-10.1215
▁പുറത്തേക്ക്	-10.1215
▁400	-10.1216
▁വുമ	-10.122
▁പോള്‍	-10.1227
▁ലഭിക്കുന്നത്	-10.1227
ിലേറെ	-10.1237
▁അഖിലേഷ്	-10.1241
▁കോണ്‍ഗ്രസിന	-10.1245
▁ഒടുവിൽ	-10.1247
▁ക്യാമ്പ	-10.125
ങ്ങി	-10.1251
▁മൂല്യം	-10.1251
▁മിക്ക	-10.1253
▁ഉണ്ടാവ	-10.1259
▁ചെയ്യാം	-10.1259
മാര്‍	-10.126
▁നേതാവിനെ	-10.1261
▁അസം	-10.1264
▁ചെയ്യുന്നുണ്ട്	-10.1268
▁കാരം	-10.1271
റിൽ	-10.1271
▁വ്യാപകമായ	-10.1272
▁ജോസഫ	-10.1272
▁ഡാ	-10.1273
യാണെന്ന്	-10.1276
യേ	-10.1277
▁പാര്‍ട്ടിക്ക്	-10.1282
▁സൈബര	-10.1283
▁ുണ്ടോ	-10.1283
▁അയാൾ	-10.1284
▁സ്വന്തമായ	-10.1284
▁നിൽ	-10.1287
▁പശ്ചാത്തലത്തിൽ	-10.1289
▁അകലം	-10.1292
െങ്കില്‍	-10.13
▁ആരോപിക്കുന്നു	-10.1304
▁ഗൗരവ	-10.1305
▁വിവാദമായ	-10.1306
▁ഉത്തരം	-10.1316
▁ടെസ്റ്റ	-10.1319
▁ബാധ്യത	-10.1321
▁അജയ്	-10.1325
▁ഭരണഘടനാ	-10.1331
▁നേരിടാന	-10.1331
▁പവന്‍	-10.1332
▁ട്	-10.1333
▁താരങ്ങള്‍	-10.1338
▁നയം	-10.1339
▁അഭിമുഖ	-10.1339
▁കാണുന്നു	-10.1342
സെ	-10.1347
▁തൊഴിലാളികള്‍	-10.1351
▁പ്രസ്താവനയ	-10.1354
▁ഇതെല്ലാ	-10.1356
ൊപ്പം	-10.1356
▁ദുരിത	-10.1359
▁ലംഘിച്ച	-10.1359
▁യൊക്കെ	-10.136
▁നേതൃത്വത്തിന്	-10.1363
▁വിമര്‍ശന	-10.1365
▁ആണ	-10.1366
▁നയിക്കുന്ന	-10.1367
▁ആഹ്വാനം	-10.1375
പാ	-10.1377
▁പ്രതികൾ	-10.1378
ത്തോട്	-10.138
▁ധാരാളം	-10.1386
▁മുഖ്യമന്ത്രിയെ	-10.1387
തിനിടെ	-10.1387
ീകൃത	-10.14
▁ക്ഷണിച്ച	-10.1412
▁കസ്റ്റംസ്	-10.1418
▁ശര	-10.1421
▁ആക്ഷേപ	-10.1421
▁ുളള	-10.1423
▁കരുതി	-10.1425
▁സ്വാഗതം	-10.1428
▁അവസാനിച്ച	-10.143
▁കസ്റ്റഡിയില്‍	-10.143
▁വയസുള്ള	-10.1431
▁പട്ടികയിൽ	-10.1431
▁ദക്ഷിണ	-10.1434
▁പതാക	-10.1434
▁ബാഗ	-10.1439
▁സ്ഥിരീകരിച്ചവര	-10.1439
▁ആരാധകര്‍	-10.1441
പ്പന	-10.1445
▁തയ്യാറായില്ല	-10.1446
▁വീട്ടിലെ	-10.1456
▁ണ്ട്	-10.1457
▁കാട്ട	-10.1457
▁മഹാമാരി	-10.1458
▁ഉയര്‍ത്തിയ	-10.146
▁83	-10.1461
പോലെ	-10.1463
▁റോഡില	-10.1466
▁ഒഴിവാക്കി	-10.147
▁ിക്കുക	-10.1471
▁ലോറി	-10.1471
▁കേവല	-10.1472
ഘ	-10.148
▁നാണെന്ന	-10.148
ദാ	-10.1485
▁ഭാഗമാ	-10.1486
▁വാഹനങ്ങള	-10.1486
▁ഗാന്ധിയെ	-10.1487
▁ലക്ഷ്യമിടുന്നത്	-10.1489
▁92	-10.1495
പ്പെടുത്തുന്ന	-10.15
▁മണ്ഡലങ്ങളില്‍	-10.1503
▁ആരോപണങ്ങള്‍	-10.1504
▁നയതന്ത്ര	-10.1509
▁പേർക്ക	-10.1519
▁എന്തുകൊണ്ടാണ	-10.1519
▁പക്ഷത്ത	-10.1525
▁പരിപാടിയില	-10.1527
▁യുമായിരുന്നു	-10.1527
▁ആഗ്രഹ	-10.1533
▁സമ്മാന	-10.1538
▁അക്കൗണ്ട്	-10.1539
▁ിക്കുന്ന	-10.1542
ങ്ങാട്	-10.1543
▁അവസാനം	-10.1543
▁കിട്ടുന്ന	-10.1546
▁ഒരാഴ്ച	-10.1547
▁സാറ	-10.1551
▁തുറക്ക	-10.1554
▁മിനിറ്റ	-10.156
▁എത്തുക	-10.1563
▁ചിത്രങ്ങൾ	-10.1567
സര്‍ട്ടിഫിക്കറ്റ	-10.157
▁സൈ	-10.1573
▁റൂമ	-10.1573
▁നില്‍	-10.1573
▁വീണാ	-10.1578
ക്കുന്നു	-10.1583
▁മുന്നേറ്റം	-10.1583
▁അവസാനിപ്പിക്ക	-10.1585
▁എല്ലാവർക്കു	-10.1586
▁പ്രായമുള്ള	-10.1588
▁പിന്നീട	-10.159
▁സർവ്വേ	-10.159
▁പരിഹാര	-10.1602
▁സംസാരിച്ചു	-10.1609
▁റദ്ദാക്കിയ	-10.1609
▁വോട്ടുകള	-10.1611
▁അസ	-10.1612
മീറ്റര്‍	-10.1616
▁ഞെട്ടിച്ച	-10.1619
▁ഭൂരിഭാഗ	-10.1624
▁വിവാദം	-10.1625
▁ആണെന്ന	-10.1626
കുഞ്ഞാലിക്കുട്ടി	-10.1626
▁ഗ്രാം	-10.1626
▁ഓട്ടോ	-10.1627
▁ജോണ്‍	-10.1628
▁നിര്‍ദ്ദേശ	-10.1628
▁വിലയിരുത്ത	-10.1637
▁അവസാനിപ്പിച്ച	-10.1639
▁ബിജു	-10.1642
▁നേതാവുമായ	-10.1647
▁തിനാണ്	-10.1648
▁ണമെന്ന	-10.1649
▁ഫോര്‍	-10.165
▁ഉപയോഗിക്ക	-10.165
▁സംഘർഷ	-10.1651
▁കീഴില്‍	-10.1656
▁കിട്ട	-10.1665
▁കണ്ണൂരില്‍	-10.1669
മെന്നും	-10.1669
▁ഇല്ലാതാ	-10.167
▁ലഖ്	-10.167
▁ഗതി	-10.1671
▁കുടി	-10.1673
▁രാജ്യസഭ	-10.1674
ദ്ദ	-10.1674
▁ആദിവാസി	-10.1675
▁സഞ്ചരിച്ച	-10.1679
▁നിമിഷം	-10.1683
▁ബോ	-10.1683
▁നൂറ്	-10.1686
▁ജീവനക്കാരെ	-10.1692
ജ്ഞ	-10.1693
▁പ്രവർത്തിച്ച	-10.1694
▁സന്ദീപ്	-10.1697
▁ഉമ്മന്‍ചാണ്ടി	-10.1701
▁പരാമര്‍ശ	-10.1707
▁വാക്കുകള്‍	-10.1707
▁ബിന്ദു	-10.1708
▁വീടിന്	-10.171
▁കളായി	-10.1711
▁അമ	-10.1713
യ്യ	-10.1715
▁ാം	-10.172
▁രാശിക്കാർക്ക	-10.1721
▁സ്റ്റോ	-10.1722
▁കാർഡ്	-10.1728
▁നടത്തണമെന്ന	-10.1732
▁നാഥ്	-10.1737
▁വള്ള	-10.1738
▁അനൂപ്	-10.1739
▁പാമ്പ	-10.174
▁തലശ്ശേരി	-10.1743
▁നടന	-10.1745
▁ശി	-10.1745
▁പാര്‍ട്ടികള്‍	-10.1747
▁എത്ത	-10.1747
▁പിന്നില	-10.1752
▁അക്കൗണ്ട	-10.1753
▁അധികാരത്തിലെത്ത	-10.1753
▁മൈ	-10.1757
▁ഡിഎംകെ	-10.1763
▁ക്യൂ	-10.1764
▁തിര	-10.177
▁യുവാവ	-10.1773
▁ബന്ധുക്കള്‍	-10.1776
▁മസ്	-10.1779
▁വിഷയങ്ങള	-10.1781
▁തെറ്റ	-10.1785
▁കാരണമെന്ന	-10.1787
▁മോഹന്‍ലാല്‍	-10.1795
▁മണിക്കൂര്‍	-10.1797
ോളി	-10.1799
▁േക്കാം	-10.1806
▁ചിലര	-10.181
▁വാടക	-10.1813
▁ചെയർമാ	-10.1813
▁തെരുവ	-10.1814
▁ബൈജു	-10.1818
▁ങ്ക	-10.182
▁വിൽ	-10.1821
▁മരണങ്ങള	-10.1826
▁പറയാന	-10.183
▁ിരിക്കുകയാണെന്ന	-10.1833
▁സഹായിച്ച	-10.1834
▁ിലാണ്	-10.1837
▁റെഡ്	-10.184
▁വെച്ചു	-10.1842
▁ിട്ടില്ലെന്ന്	-10.1845
▁കൂള	-10.185
▁ബിരുദം	-10.1852
▁മുള	-10.1855
▁പുറത്താക്ക	-10.1856
▁ഗള്‍ഫ്	-10.1857
▁ദശലക്ഷ	-10.1857
▁രേഖപ്പെടുത്തി	-10.1857
▁ജീവനക്കാര്‍	-10.1857
▁സൗത്ത്	-10.186
രുതെന്ന	-10.1863
▁യാണെങ്കില്‍	-10.1872
▁നുണ	-10.1873
▁84	-10.1874
▁ചരിത്രത്തില	-10.1875
▁പോകുമെന്ന	-10.1877
▁ങ്ങളിലൂടെ	-10.1883
▁നൽകിയിരുന്നു	-10.1886
▁ഇടപെട	-10.1897
▁അറിയപ്പെടുന്ന	-10.1903
▁ക്കിടയില്‍	-10.1907
▁പ്പോ	-10.1915
▁ശരത്	-10.1921
▁ചിത്രത്ത	-10.1927
▁സന്ദര്‍ശിച്ച	-10.1927
▁ത്തോട	-10.1932
▁മാർക്ക	-10.1934
▁പോവ	-10.1939
▁അഭിമുഖത്തില	-10.1943
▁നാടക	-10.1945
▁റ്റോ	-10.1953
▁87	-10.1953
▁എന്നിട്ടും	-10.196
▁ചിരി	-10.196
▁സംഘത്തെ	-10.1961
▁ആരെങ്കിലും	-10.1962
▁റിലീസ്	-10.1964
▁നാള	-10.1965
ൌ	-10.1975
▁അഭയ	-10.1975
▁ബേബി	-10.1977
▁ഡികെ	-10.1983
▁കാര്‍ഡ്	-10.1983
ാസ്	-10.1984
d	-10.1984
▁സ്കൂള	-10.1998
▁ഉടനെ	-10.2001
▁ക്കുറിച്ച്	-10.2003
▁മനുഷ്യര	-10.2008
▁ദൂര	-10.2009
▁ത്തുന്ന	-10.2026
▁പെരു	-10.2029
▁ജലനിരപ്പ്	-10.2031
▁കർശന	-10.2032
▁ഇടപെടല	-10.2033
▁പേരു	-10.2035
▁കരുതിയ	-10.2039
▁കളിലേക്ക	-10.204
▁ഹോട്ടല	-10.2041
▁ശബ്ദം	-10.2045
▁നിയന്ത്രണങ്ങള	-10.2047
▁എന്നിവിടങ്ങളി	-10.205
▁ബില്‍	-10.2054
▁ഉത്തര്‍	-10.2055
▁കാർഷിക	-10.2055
▁തേജസ്വി	-10.2055
▁വിമാനത്താവളത്തി	-10.2055
▁കഞ്ചാവ	-10.2055
▁ലാല്‍	-10.2057
▁കമ്പനികള	-10.2058
▁സ്റ്റാ	-10.2066
▁150	-10.2069
▁അക്കാദമി	-10.2072
▁പേജ	-10.2076
▁നഷ്ടം	-10.2079
▁ക്ഷണിച്ചു	-10.208
▁അക്കാര്യ	-10.2081
▁ക്കിയ	-10.2088
▁വരാനിരിക്കുന്ന	-10.2093
▁ുമായ	-10.2096
▁തലത്തില	-10.2098
▁അത്തരമൊര	-10.21
▁കത്ത	-10.21
▁സാഹചര്യങ്ങള	-10.2104
▁മാറ	-10.2107
▁സമാന	-10.2109
▁എന്തൊക്കെ	-10.2109
▁കുറേ	-10.2111
▁ജോര്‍ജ	-10.2113
▁യുവതിയെ	-10.2116
▁ടാസ്	-10.2126
▁പ്ലാന്‍	-10.2127
▁മേഖലകളില്‍	-10.2128
ാട	-10.2133
▁കരുതുന്നു	-10.2135
▁ദാസ്	-10.2142
▁ശക്തമാണ്	-10.2145
▁പ്രാധാന്യം	-10.2147
കൂൾ	-10.2147
▁റൈ	-10.2149
▁ഉണ്ടായി	-10.215
▁പ്രീ	-10.2158
▁ഉയർന്നു	-10.216
▁കറ	-10.2165
ങ്ങളെ	-10.2168
▁എത്തും	-10.2168
▁തരംഗ	-10.2169
▁95	-10.2171
▁തിരഞ്ഞെടുത്ത	-10.2171
▁മലയോര	-10.2176
▁മകൻ	-10.2177
▁റെഡ്ഡി	-10.218
▁യിലായിരുന്നു	-10.2181
▁നാഷണല	-10.2192
▁പ്രായ	-10.2194
▁കളുടേ	-10.2197
നെതിരെ	-10.2202
▁വിശ്വസിക്കുന്ന	-10.2215
▁കലക്ടര്‍	-10.2217
▁പ്രവചിച്ച	-10.2217
▁ബീഹാറില	-10.2218
▁പ്രോ	-10.2226
▁ഫെ	-10.2227
▁വരുത്തി	-10.2227
▁മുകളിൽ	-10.2228
▁നോട	-10.2233
▁ജീവൻ	-10.2237
▁പ്രശസ്ത	-10.2241
▁9,	-10.2245
▁തെരഞ്ഞെടുപ്പിൽ	-10.2246
മാക	-10.2246
▁പ്രദേശ്	-10.225
▁ിക്കും	-10.2252
▁ഇടിച്ച	-10.2252
▁ആശ്വാസ	-10.2254
▁സംസ്ഥാനങ്ങളിൽ	-10.2254
ടക്കമുള്ള	-10.2255
▁കിടക്ക	-10.2255
▁കുമെന്ന	-10.2256
▁ഉപമുഖ്യമന്ത്രി	-10.2258
▁വായിക്കാം	-10.2258
▁ലുലു	-10.2258
▁അയാള	-10.2258
▁കാര്യത്തിലും	-10.2259
▁മനസിലാ	-10.2259
▁ഒറ്റയ്ക്ക	-10.226
▁നല്‍കണം	-10.2262
▁പോലീസിനെ	-10.2265
▁നാരായണ	-10.2265
രിക്ക	-10.227
▁ശരീര	-10.2272
▁തെളിവുകള്‍	-10.2276
▁കണക്കിലെടുത്ത്	-10.2277
▁കാരന	-10.2279
▁ആരംഭിക്കുന്ന	-10.2286
▁അന്വേഷിക്കുന്ന	-10.2287
▁പ്രസംഗം	-10.2289
▁താല്‍ക്കാലിക	-10.2298
▁മില്യണ	-10.2298
▁മൊബൈൽ	-10.2298
▁ആകാശ	-10.2299
▁മേയര്‍	-10.2299
▁വിശദമായി	-10.23
▁മാനേജര്‍	-10.2301
▁അടക്കമുളള	-10.2303
▁വാക്കുകൾ	-10.2304
▁വലുത	-10.2305
▁രമ	-10.2306
ത്തിനു	-10.2308
▁പാലിച്ച	-10.2311
▁വരുമ്പോള്‍	-10.2314
▁യാക	-10.2317
▁ക്കുന്നതിന	-10.2319
▁ബേ	-10.2324
തിനാല്‍	-10.2326
▁വന്നപ്പോള്‍	-10.233
▁എംവി	-10.2332
▁നയിച്ച	-10.2338
▁തുറ	-10.2338
▁ടൗണ	-10.234
▁നാഷണ	-10.234
▁വാന	-10.2341
▁ഏതാന	-10.2342
ീന	-10.2342
▁ില്ലെങ്കിൽ	-10.2342
▁പൂര്‍ണ	-10.2344
▁ആപ്പ്	-10.2347
▁ഊ	-10.2347
▁എങ്ങനെയാണ	-10.2348
▁ഉറപ്പായ	-10.2351
▁മത്സരിക്കുന്നത്	-10.2355
▁12,	-10.2357
.30	-10.2361
▁സർക്കാറ	-10.2361
▁മൂല്യ	-10.2362
▁ലാഭ	-10.2364
▁ഭരണകൂട	-10.2369
▁അധികാരത്തില്‍	-10.2371
▁പ്രതിഫല	-10.2373
▁ആവശ്യപ്പെടുന്ന	-10.2378
▁പാഠ	-10.238
▁നരേന്ദ്രമോദി	-10.2381
▁ഗൃഹ	-10.2381
▁വില്‍പ്പന	-10.2382
▁ക്കാനായി	-10.2387
▁ദൃശ്യങ്ങൾ	-10.239
▁ഹരിത	-10.2391
▁സംസ്ഥാനങ്ങളിലെ	-10.2391
▁ഏഴു	-10.2393
▁കുള	-10.2394
▁വൃത്തങ്ങള	-10.2395
▁വിഭാഗത്തില	-10.2396
▁മൃതദേഹ	-10.2399
▁കഴിയില്ലെന്ന	-10.24
▁വിട്ടത്	-10.2401
▁എടുത്തത്	-10.2405
▁പേർക്കും	-10.2405
▁യാളാണ്	-10.2405
▁പിടിച്ചെടുത്ത	-10.2411
▁ചായ	-10.2412
▁ങ്	-10.2412
ക്കുളം	-10.2422
▁ചൗധരി	-10.2422
▁താക്കറെ	-10.2422
▁ഫോടന	-10.2422
ിരിക്കെ	-10.2423
മീറ്റർ	-10.2426
▁പറ്റ	-10.243
▁കൊടുത്തു	-10.2432
▁നാട്ടിലെ	-10.2433
▁മാത്രമായിരുന്നു	-10.244
▁സംഭവിച്ചത്	-10.2441
▁യായിരിക്കും	-10.2449
▁13,	-10.2449
▁സമ്മേളന	-10.2452
▁പ്രവര്‍ത്തകര	-10.2462
▁രാജിവച്ച	-10.2465
▁മ്പ	-10.2468
▁ഗം	-10.2469
▁സ്വർണ്ണ	-10.2472
▁കർഷകര	-10.2473
▁പറയാം	-10.2475
▁പ്രവചനം	-10.2478
▁ചേര	-10.2478
▁പലതും	-10.2479
▁സാന്നിധ്യം	-10.2479
ക്കണമെന്ന	-10.2481
▁ആലോചിച്ച	-10.2481
▁മാര്‍ക്കറ്റ	-10.2483
▁കളുണ്ട്	-10.249
▁നടത്തിയെന്ന	-10.2493
േഴ്സ്	-10.2498
▁ഓഫീസറ	-10.2498
▁തെറ്റ്	-10.2501
▁നൽകുന്നത്	-10.2504
ജ്ജ	-10.2504
▁ഐശ്വര്യ	-10.2506
▁പെട	-10.2506
▁നിലയില	-10.2506
▁സാധ്യതയുള്ള	-10.251
▁മാല	-10.2514
▁ദില്ലിയിലെ	-10.2517
ന്നു	-10.2517
▁ക്കുന്നു	-10.252
▁അഭിനയിച്ച	-10.2522
ലിയ	-10.2523
▁ാണിത്	-10.2526
▁ബൈഡന്‍	-10.254
▁ലൂടെ	-10.2542
▁യാള	-10.2544
▁സംഘടിപ്പിക്ക	-10.2545
▁സെക്രട്ടറിയേറ്റ	-10.2551
▁ശേഷവും	-10.2552
▁കേന്ദ്രീകരിച്ച	-10.2553
▁പാവ	-10.2554
▁മാകുമെന്ന	-10.2555
▁മാറ്റിയത്	-10.2566
▁നിയമപരമായ	-10.2567
▁ശക്ത	-10.2573
▁സ്ഥാനാർത്ഥികള	-10.2577
വന	-10.2578
▁ശ്രമിച്ചു	-10.2582
▁കരണ	-10.2588
▁പ്രവർത്തക	-10.259
▁നമ്പർ	-10.259
▁റെയിൽവേ	-10.2591
ീവ്	-10.2593
▁മനോജ്	-10.2593
തിരി	-10.2597
ില്ലെന്ന	-10.2598
ംബ	-10.2602
▁ഭാഗമാണ്	-10.2603
▁യ്ക്കെതിരെ	-10.2603
▁കാര്യങ്ങളില്‍	-10.2604
▁കുട്ടികള്‍ക്ക	-10.2605
▁കോളനി	-10.2606
p	-10.2608
▁സംവിധായകന്‍	-10.2609
നുസരിച്ച്	-10.261
ഷൻ	-10.2611
▁91	-10.2611
▁തൃശൂരില	-10.2611
▁ശതമാനത്ത	-10.2611
▁ഉറപ്പ	-10.2612
▁വരിക	-10.2617
▁തിനെതിരെ	-10.2618
ക്ത	-10.2622
▁സമ്മതിച്ച	-10.2624
യന്‍	-10.2625
▁ക്രിമിനല	-10.2627
▁ക്ഷമ	-10.2627
▁ഓറഞ്ച്	-10.2633
▁സഞ്ജയ	-10.2633
ദ്ധ	-10.2634
▁ിരിക്കെ	-10.2634
ിക്കുകയായിരുന്നു	-10.2634
▁ഘട്ടം	-10.2635
ാന്തര	-10.2642
ടുത്ത	-10.2643
ുറ	-10.2646
▁വാഹനങ്ങള്‍	-10.2649
▁പ്രവേശിപ്പിക്ക	-10.2651
ുണ്ടെന്ന്	-10.2655
▁വരവ്	-10.2656
ക്ര	-10.2657
▁നിഷേധിച്ച	-10.2661
ിപ്പിച്ച	-10.2663
▁ബോർഡ്	-10.2665
▁പൂര്‍ത്തിയാ	-10.2666
▁വഴിയാണ്	-10.2666
▁ഹെല്‍	-10.2667
▁ദാ	-10.267
റിഞ്ഞ	-10.267
ുടെയും	-10.2673
▁നടക്കാന	-10.2675
▁പിന്നിട്ട	-10.2678
തര	-10.2679
▁ക്കുമ്പോഴ	-10.2679
▁മാനദണ്ഡ	-10.2681
▁ആരോപിക്കുന്നത്	-10.2685
▁സർക്കാരിനെ	-10.2685
▁എത്തുമെന്ന	-10.2691
▁രൂക്ഷമായി	-10.2693
▁കൊടി	-10.2696
▁കോഡ	-10.2697
▁ക്കില്ല	-10.2698
▁ബോര്‍ഡ	-10.27
▁വരുന്നുണ്ട്	-10.27
▁പിടികൂടിയത്	-10.2702
▁മുരളീധരൻ	-10.2705
▁ക്രൂരമായ	-10.2706
▁ജനങ്ങൾക്ക	-10.2707
▁രക്ഷാ	-10.2711
▁ആരാധകര	-10.2713
▁ആപ്പ	-10.2714
▁ലൂ	-10.2715
▁കോഴ്	-10.2717
▁1000	-10.272
▁ിക്കാന്‍	-10.2724
▁യായിരുന്നുവെന്ന	-10.2726
▁ിട്ടുണ്ടോ	-10.2731
▁മുന്‍കൂ	-10.2732
▁ശരി	-10.2734
▁ഇടപെടല്‍	-10.2736
▁മുഖത്ത	-10.2737
▁ധരിക്ക	-10.2741
▁ഓടെ	-10.2744
▁ഷോപ്പ	-10.2746
▁തള്ള	-10.2747
ദാന	-10.2752
▁ാവ	-10.2753
▁ചെയ്യണമെന്ന	-10.2755
▁സഹോദര	-10.276
▁കരുത	-10.2762
▁സമ്പന്ന	-10.2762
▁കാവ്യ	-10.2766
▁തിരു	-10.2768
▁ഉന്നയിക്കുന്ന	-10.2768
▁ചൂട	-10.2769
▁കഴിക്ക	-10.2769
▁നിർത്ത	-10.2771
▁വില്ല	-10.2772
▁നടപ്പാക്കിയ	-10.2777
▁ിരിക്കുന്നതെന്ന	-10.2778
▁പിന്‍വലിച്ച	-10.2782
▁വൈകിയ	-10.2783
▁കമന്റ്	-10.2784
▁കാട്ടാന	-10.2786
▁പരിചയം	-10.2795
▁മില്ലാതെ	-10.2799
▁പിൻവലി	-10.2801
▁വെളിപ്പെടുത്തി	-10.2802
▁മധ്യപ്രദേശ്	-10.2802
▁എസ്ഡിപിഐ	-10.2804
▁സതീശൻ	-10.2804
▁യാദവ	-10.2807
▁കൈമാറി	-10.2811
▁സണ്‍	-10.2822
▁ചടങ്ങ	-10.2825
▁ംഗ	-10.2835
▁മുങ്ങി	-10.2841
▁യാകും	-10.2842
▁മൃഗ	-10.2844
േഷ	-10.2848
വ്യ	-10.2848
▁പ്രശ്നങ്ങള	-10.2856
▁ആത്മ	-10.286
▁ക്കരുത്	-10.286
▁നൽകും	-10.2861
▁കുഴി	-10.2862
▁ജു	-10.2866
▁വിറ്റ	-10.2868
▁ഫീ	-10.2874
▁ട്ടു	-10.2876
▁പിടിക്ക	-10.2881
▁രും	-10.2882
ഡോ	-10.2883
▁ില്ലെങ്കിലും	-10.2884
▁മണിക്കൂറിനുള്ള	-10.2887
▁വാട്	-10.2888
▁പവന്	-10.2888
▁ആഡംബര	-10.2891
▁കമ്മറ്റി	-10.2891
▁നടക്കുന്നുണ്ട്	-10.2891
▁സ്ഥാനാർഥി	-10.2891
ക്കുറിച്ച്	-10.2892
▁നീട്ടി	-10.2892
▁അവന	-10.2897
▁ബൈഡന	-10.29
▁സ്ത്രീകളെ	-10.291
തിനിടെയാണ്	-10.2915
▁ആള്‍	-10.2915
▁ക്കാര്‍	-10.2918
▁വണ്‍	-10.292
▁സുനില്‍	-10.2921
ക്കപ്പെട്ട	-10.2923
▁വനം	-10.2923
▁രജിസ്	-10.2925
ദ്ര	-10.2925
▁ഒഴിവ്	-10.2925
▁സുഹൃത്ത	-10.2932
▁അപ്	-10.2933
▁അടിയന്തിര	-10.2934
▁സ്വര്‍ണക്കടത്ത	-10.2934
▁ആരിഫ	-10.2937
ോണ്‍	-10.2937
ഗി	-10.2939
▁നാട്ടിൽ	-10.2941
▁ടിക്കറ്റ	-10.2945
▁എന്തിന	-10.2946
▁അങ്ങ	-10.2947
▁സുഹൃത്ത്	-10.295
വൈ	-10.2955
▁കൂട്ടു	-10.2961
▁അനിൽ	-10.2963
ദിത്യ	-10.2968
▁തകര	-10.2968
▁കെയര്‍	-10.2974
ധി	-10.2977
▁ആണെന്നും	-10.2978
▁രംഗത്തുവന്ന	-10.2978
▁തൊട്ടടുത്ത	-10.2979
▁ജീ	-10.2979
▁ിനൊപ്പം	-10.2979
ോധന	-10.298
▁മോഹന്‍	-10.2983
▁സതീശന	-10.2988
റിന്	-10.2989
ദ്യ	-10.2989
▁അതിനുള്ള	-10.2991
▁ധി	-10.2992
▁തീര്‍	-10.2997
▁ബൈ	-10.3
▁അസോസിയേഷന	-10.3001
▁സ്വീകരിച്ചു	-10.3004
▁യ്ക്കായി	-10.3007
▁നിലയിലാണ്	-10.3008
▁കന	-10.3014
▁വയസ്സ്	-10.3019
▁ബംഗാൾ	-10.3022
▁സംബന്ധമായ	-10.3022
▁ഹിന്ദി	-10.3022
▁മുദ്രാവാക്യം	-10.3024
▁പദ്ധതികൾ	-10.3024
▁വാസ	-10.3024
▁ദേ	-10.3027
▁ട്രോള	-10.3028
▁സൗ	-10.3028
▁ജെഡിയു	-10.303
▁പ്രൊ	-10.3034
▁വിനെ	-10.3035
സംബ	-10.3042
▁ാന്‍	-10.3042
▁ശ്രമങ്ങള	-10.3042
▁രുടെ	-10.3049
▁തീര്‍ത്ത	-10.3059
▁ഭാര	-10.306
എൽ	-10.3061
▁ആറാ	-10.3064
ാണിത്	-10.3064
പക്ഷ	-10.3064
▁ക്കാർ	-10.3065
▁ചൊവ്വ	-10.3066
▁ന്യൂഡൽഹി	-10.3066
▁ചന്ദ്രശേഖര	-10.3067
▁തുറമുഖ	-10.3067
▁എഐസിസി	-10.3067
▁ആര്‍ജെഡി	-10.3067
▁റണ്‍സ	-10.3067
▁നടത്തുന്നുണ്ട്	-10.3068
▁ശ്രമിച്ചത്	-10.3073
▁പിടിക്കാന്‍	-10.3073
▁ഉളള	-10.3074
ന്തി	-10.3075
▁സംഘത്ത	-10.3076
▁പോളി	-10.3077
▁അമ്പല	-10.3078
▁ചേരുന്ന	-10.3081
▁അനാവശ്യ	-10.3083
▁തോന്നി	-10.3083
▁കളോ	-10.3085
ര്‍ത്ത	-10.3098
▁മണിക്കൂറില്‍	-10.3101
▁ഉള്‍പ്പെടുത്തിയ	-10.3102
മില്ലാതെ	-10.3106
െയര്‍	-10.3106
▁ലോകത്തില	-10.3107
▁പുതുപ്പള്ളി	-10.3107
▁ശതമാന	-10.3109
▁ഒറ്റപ്പെട്ട	-10.311
▁അവലോകന	-10.3111
▁ട്രാന്‍സ്	-10.3111
▁ഹാജരായ	-10.3113
▁അറിവ	-10.3115
നീ	-10.3115
▁സര്‍ക്കാറ	-10.3116
▁ഹരീഷ	-10.3116
▁S	-10.3116
▁പതി	-10.3121
▁പാലിക്കണമെന്ന	-10.3122
▁(3	-10.3122
▁പുറത്തിറങ്ങിയ	-10.3123
▁മിഷന്‍	-10.3124
▁ആരംഭിക്കും	-10.3127
േന	-10.3127
മാന	-10.3132
▁ഘട്ടത്തിൽ	-10.3134
▁സീസ	-10.3135
▁ന്ത	-10.3137
▁ഫോർ	-10.3139
▁ഡോക്ടര്‍മാര്‍	-10.3141
▁കുടുംബത്തില	-10.3141
y	-10.3148
▁സര്‍വ	-10.3153
▁പട്ടികജാതി	-10.3156
▁വർധിച്ച	-10.3156
▁താഴ്ന്ന	-10.3156
ക്കാതെ	-10.3159
▁ആധുനിക	-10.316
▁പ്രയാസ	-10.3161
▁ഹരി	-10.3164
▁ഭാഗങ്ങള	-10.3169
▁ബ്രിട്ടീഷ	-10.3171
▁െന്നുമ	-10.3171
▁ബിന്‍	-10.3173
ാട്	-10.3177
▁ഫ്ര	-10.318
▁കണ	-10.3181
ുവഴി	-10.3182
▁ഫീസ്	-10.3182
▁വോട്ടര്‍മാര	-10.3183
▁സൃഷ്ടിക്കുന്ന	-10.3185
▁കർ	-10.319
▁ചെയ്യേണ്ട	-10.319
▁മാനദണ്ഡങ്ങള	-10.3191
▁ആലുവ	-10.3191
▁വികാര	-10.3192
▁ബോട്ട	-10.3192
▁നിക്ഷേപം	-10.3196
▁വ്യത്യാസ	-10.32
▁ക്രിസ്ത്യ	-10.32
▁അമൃത	-10.3201
ാകട്ടെ	-10.3203
▁വിഹിതം	-10.3205
▁സര്‍വ്വേ	-10.3205
▁യുവാവിനെ	-10.3208
▁ചൂണ്ടിക്കാട്ടിയ	-10.321
▁യില്ലാത്ത	-10.3214
▁വീട്ടുകാര	-10.3215
▁മരണപ്പെട്ട	-10.3216
▁നിയന്ത്രണങ്ങൾ	-10.3216
▁വേണുഗോപാല്‍	-10.3219
മുണ്ടാ	-10.3221
▁പതിവ്	-10.3223
ിക്കാത്ത	-10.3225
▁പ്രവേശിച്ച	-10.3228
▁മുന്നേറ്റ	-10.3228
▁ആശുപത്രിയില	-10.3234
▁പാര്‍ട്ടിയെ	-10.3234
ുള്‍പ്പെടെ	-10.3235
▁ുണ്ടായ	-10.3236
▁ിച്ചു	-10.3237
▁പരിശീലന	-10.3237
▁കാണിച്ച്	-10.3241
m	-10.3242
▁രോഗവ്യാപന	-10.3245
▁ജുഡീഷ്യ	-10.3245
▁ജില്ലയിലും	-10.3246
▁600	-10.3246
ിനേക്കാള്‍	-10.3251
▁തടവ	-10.3252
▁വില്ലേജ	-10.3253
▁മുക്ത	-10.3253
▁A	-10.3253
▁പറഞ്ഞത	-10.3254
▁നഷ്ടമായ	-10.3259
▁വീര	-10.3266
ൂടെയാണ്	-10.3271
▁മദ്യം	-10.3272
▁കെടി	-10.3277
▁ജോയി	-10.3277
▁വിഭാഗത്തിന്	-10.3279
▁ചാര	-10.328
▁സംസ്ഥാനത്തിന്	-10.3281
▁ഉണ്ണി	-10.3284
▁കാര്യങ്ങളാണ്	-10.3284
എൻ	-10.3285
തിക	-10.3286
▁പുറപ്പെട്ട	-10.3288
▁കുട്ടികൾ	-10.3291
▁അവള	-10.3291
▁അജണ്ട	-10.3292
▁വഴക്ക	-10.3296
▁ഇടതുപക്ഷം	-10.3302
▁പഞ്ചായത്തുകള	-10.3313
▁196	-10.3313
▁പിതാവ	-10.3315
▁കരുതുന്ന	-10.3315
▁തട്ടി	-10.3317
▁മുകളില	-10.332
▁കുടുംബത്തെ	-10.3329
▁സില	-10.3331
▁കുറിച്ചത്	-10.3332
▁എതിരായ	-10.3333
▁തൊഴിലാളികളെ	-10.3333
▁വിദ്യാഭ്യാസം	-10.3335
▁ഫ്രണ്ട്	-10.3336
▁മ്മ	-10.3336
▁അവശ്യ	-10.3337
▁ശ്രദ്ധയില്‍	-10.3338
▁വിജിലന്‍സ്	-10.3339
▁രിക്കുമെന്ന	-10.3339
▁വ്യക്തമാണ്	-10.334
▁ആദ്യഘട്ട	-10.334
▁റോബിന്‍	-10.3341
▁സംഘമാണ	-10.3341
▁ദിനത്തില്‍	-10.3348
▁ിനോട	-10.3348
▁മത്സരിപ്പിക്ക	-10.3349
▁വാർത്തകൾ	-10.3353
▁ഇടവേള	-10.3358
▁സജീവമായി	-10.3359
▁ഭര്‍ത്താവ	-10.3359
ൻ്റെ	-10.336
പുര	-10.3361
ക്കം	-10.3362
▁പ്പിച്ച	-10.3367
▁ആരോപിച്ച്	-10.3368
ിക്കാനുള്ള	-10.337
▁മേടം	-10.337
▁മത്സരത്തില	-10.3375
▁പോയിന്റ	-10.3378
▁പോപ്പുല	-10.3382
▁പലയിടത്ത	-10.3382
▁ട്രേലിയ	-10.3382
▁കൊട്ടാരക്കര	-10.3382
▁സന്ദര്‍ശന	-10.3386
▁പ്രസിഡണ്ട്	-10.3387
▁നര	-10.3388
▁മീഡിയയിൽ	-10.3389
▁സായ്	-10.3396
▁പരിഗണിക്കുന്ന	-10.3398
▁ഇന്നു	-10.3398
▁അവൾ	-10.3401
▁കഥാപാത്ര	-10.3402
▁കുടുംബത്തിന്	-10.3404
▁ഭൂ	-10.3409
▁റും	-10.3412
▁സൃഷ്ടി	-10.3413
▁ക്രൂഡ	-10.3414
▁സുരേഷ	-10.3414
▁കൊണ്ടിരിക്കുക	-10.3414
വാര	-10.3416
▁നാസ	-10.3419
▁കേരളത്തില	-10.3422
▁താമസം	-10.3424
▁മന്‍	-10.3425
ഞ്ഞു	-10.3426
▁ഏർപ്പെടുത്തിയ	-10.343
▁പ്പെ	-10.3431
▁അമ്മയുടെ	-10.3431
▁ആത്മവിശ്വാസ	-10.3432
▁നേടുന്ന	-10.3435
▁അഖില	-10.3436
▁പറയും	-10.3439
▁മോഷണം	-10.344
▁ലഭിച്ചിട്ടുണ്ട്	-10.3442
▁സെല്ല	-10.3443
▁സംഘത്തിന്	-10.3445
▁സിദ്ദു	-10.3445
▁ജീവനക്കാരുടെ	-10.3446
▁പ്രവര്‍ത്തകരെ	-10.3449
▁ദിവസമായി	-10.3456
▁നടപ്പാക്കുന്ന	-10.3456
▁തുമാണ്	-10.3458
ഗത	-10.3459
▁സിജന	-10.3462
▁തടസ	-10.3462
▁തടഞ്ഞു	-10.3467
▁സഭയില്‍	-10.3467
▁ഡ്ര	-10.347
▁തുടരാന	-10.3471
▁ഏരിയ	-10.3478
▁തോറ്റ	-10.3479
രാജ്	-10.3485
▁ചെയ്തത	-10.3493
▁നടത്തുന്നു	-10.3497
▁പൂർ	-10.3501
▁അപ്രതീക്ഷിത	-10.3503
▁പീ	-10.3507
▁ിലൂടെ	-10.3508
▁ലഭ്യമായ	-10.351
ക്കിടെ	-10.3512
▁ഖാന	-10.3514
▁ങ്ങളോ	-10.3518
▁യൂണിറ്റ	-10.3523
ാറുണ്ട്	-10.3523
▁പടി	-10.3524
▁ആശ്വാസം	-10.3527
▁വരുമെന്ന്	-10.3527
▁അസുഖ	-10.3529
▁ജ്യോതിഷ	-10.3529
▁പുരുഷൻ	-10.3536
▁ഓൺലൈ	-10.3538
▁ശക്തിപ്പെടുത്ത	-10.3538
▁വിധം	-10.3543
▁വൈറലായ	-10.3544
മംഗലം	-10.3546
ലീ	-10.3547
▁കേരളത്തിലേക്ക്	-10.3551
▁ഇതില	-10.3552
▁ഉത്തരവാദിത്തം	-10.3555
ാനന്ദ	-10.3557
▁ബലാത്സംഗ	-10.356
▁വായി	-10.3561
▁കാറ്റിന	-10.3564
▁തെളിവ്	-10.3567
▁തരംഗം	-10.3574
വരും	-10.3575
▁വിജയിക്കാന	-10.3575
▁സജീവമായ	-10.358
പതി	-10.3581
▁രാജ്യങ്ങളും	-10.3583
▁അത്തരത്തില	-10.3585
▁ഇടപാട	-10.3593
▁രാഷ്ട്രീയത്തില	-10.3593
പ്പെടുന്നത്	-10.3594
പിന്തുണയ്ക്കുന്ന	-10.3596
▁വരുത്ത	-10.3596
▁കിട്ടി	-10.3597
▁അന്തരീക്ഷ	-10.3598
▁പ്രവേശിപ്പിച്ചു	-10.36
▁ദിവസങ്ങള	-10.36
ീഷ്	-10.3601
▁മുന്നില	-10.3601
▁ഡിജിപി	-10.3601
ിനായി	-10.3603
▁സമരത്ത	-10.3606
▁വിഭാഗങ്ങള	-10.3607
▁എന്നിവര്‍ക്ക	-10.361
▁എംപിമാര	-10.3612
▁കൊച്ചിയില്‍	-10.3612
▁ഉത്സവ	-10.3613
ണ്ണി	-10.3613
▁കോർപ്പറേഷൻ	-10.3613
▁തികച്ച	-10.3614
▁ലോക്ക്ഡൗണ്‍	-10.3617
▁സംഘടനകള	-10.3618
▁തരൂര്‍	-10.3629
▁മോഹ	-10.3633
▁81	-10.3634
▁പാടില്ലെന്ന	-10.3634
▁കാത്തിരിക്കുന്ന	-10.3638
▁തെങ്ക	-10.3643
▁വീടുകള്‍	-10.3644
▁നിർദ്ദേശിച്ച	-10.3646
▁നേട്ടങ്ങള	-10.3648
വിനെ	-10.3649
▁സെന്റര്‍	-10.3651
▁സർ	-10.3654
▁രമ്യ	-10.3662
▁ഫസ്റ്റ്	-10.3664
▁ട്രേറ്റ	-10.3666
▁യുപിയില്‍	-10.3667
▁വീണു	-10.3669
▁195	-10.367
▁കൊല്ലപ്പെട്ടത്	-10.367
ാണെങ്കിലും	-10.3675
▁ഒഴിവ	-10.3677
▁പോലീസും	-10.3678
▁ശക്തമാക്കിയ	-10.3679
▁ഷാഫ	-10.3683
▁ബാലചന്ദ്ര	-10.3688
▁ഇപ്പോഴ	-10.3689
▁മാണോ	-10.3689
▁ഴി	-10.3689
▁കിലോമീറ്റ	-10.3696
▁യാണിത്	-10.3698
▁സാക്ഷികള	-10.3704
▁മത്സരങ്ങള	-10.3706
സ്ഥിതി	-10.3708
▁വളര്‍ത്ത	-10.3712
▁ക്കാരന	-10.3713
▁അന്വേഷിക്ക	-10.3713
▁ബോർഡ	-10.3718
▁കന്നി	-10.3722
▁സൈസ്	-10.3724
▁കൂടുതലായി	-10.3726
▁ഇടി	-10.3727
▁പ്രദീപ	-10.3732
▁അനുവദിക്കുന്ന	-10.3734
▁വാങ്ങാന്‍	-10.3736
▁ജീവിതത്തില	-10.3737
▁നന്ദ	-10.3741
▁ശ്രീലങ്ക	-10.3743
▁സീറ്റിലും	-10.3749
▁റില്‍	-10.3754
▁കിഫ്ബി	-10.3755
▁മത്സ്യബന്ധന	-10.3755
വട്ടം	-10.3758
▁ഒന്നിന്	-10.3761
▁നാട്ടില	-10.3763
▁ഉണ്ടായിട്ടില്ല	-10.3763
▁നിയമങ്ങള്‍	-10.3763
w	-10.3764
▁അപമാനിക്ക	-10.3764
മെങ്കിലും	-10.3768
▁സംഘടനകള്‍	-10.3768
▁വസ്ത്ര	-10.3768
▁തെരഞ്ഞെടുപ്പ	-10.377
▁ജീവ	-10.3773
▁പ്ലാന്റ	-10.3775
▁പാകിസ്താന്‍	-10.3776
▁കട്ട	-10.3777
▁ബോധ്യ	-10.3783
മണി	-10.3784
റ്റീവ്	-10.3785
▁നിരീക്ഷണം	-10.3788
▁യുളള	-10.3788
▁കളയ	-10.3789
▁ഡോക്ടർ	-10.3792
ചികിത്സയിലുള്ളത്	-10.3793
▁എട	-10.3796
▁അയാള്‍	-10.3802
ര്‍ട്ട്	-10.3802
▁തൃശ്ശൂർ	-10.3802
▁സിദ്ധരാമയ്യ	-10.3802
▁വളർച്ച	-10.3802
▁അറിയിക്കുകയ	-10.3806
▁കോളജ്	-10.3807
▁രണ്ടര	-10.3816
▁സഹായി	-10.3822
▁വിളിക്കുന്ന	-10.3823
▁ക്രൈം	-10.3824
▁രോഗികള്‍	-10.3834
ാലി	-10.3836
▁എതിര്‍പ്പ	-10.3838
▁കുടുംബത്തിന്റെ	-10.3844
▁ചിത്രത്തില്‍	-10.3845
മായിട്ടാണ്	-10.3847
▁എൻഡിഎ	-10.385
▁ചൊല്ലി	-10.385
▁മോദിയെ	-10.3853
▁സാധിച്ചില്ല	-10.3853
▁മലയാളികള്‍	-10.3855
ക്കൽ	-10.3855
▁ലൈ	-10.3855
▁സർവേ	-10.3855
▁ചെയ്തതെന്ന	-10.3858
▁അയച്ചത്	-10.3875
▁അന്വേഷണത്തില	-10.3877
▁നിരോധിച്ച	-10.3879
▁വർഗീയ	-10.3888
േറെ	-10.3888
▁സീറ്റുകളാണ്	-10.389
▁ഇക്കാര്യത്ത	-10.3893
▁ആത്മവിശ്വാസം	-10.3894
ണോ	-10.3894
▁സർവകലാശാല	-10.3898
▁പുനഃ	-10.3898
▁പബ്ലിക്	-10.39
▁ിയ	-10.3903
▁വിരാട	-10.3904
▁ചെയ്യുമ്പോള്‍	-10.3906
▁അഭിഭാഷക	-10.3908
ഹിത	-10.3912
▁വർഷങ്ങള	-10.3912
േല	-10.3913
▁നിര്‍മ്മിച്ച	-10.3914
▁ചിറ	-10.3914
▁യുക്രൈന	-10.3915
▁എന്നിങ്ങന	-10.3921
▁പുറത്താക്കിയ	-10.3923
▁ടീ	-10.3927
ത്തേക്ക്	-10.3936
▁വെളിപ്പെടുത്ത	-10.394
▁ഹേമ	-10.3946
▁സിസിടിവി	-10.3947
▁ജിഹാദ	-10.3948
▁വിലയിരുത്തി	-10.395
▁മോശമായി	-10.3951
▁പ്രമേയ	-10.3953
േണ	-10.3954
▁ന്യായ	-10.3957
▁മലയാളികള	-10.3958
▁ചോദ്യങ്ങള്‍	-10.3961
▁ആഗ്രഹം	-10.3961
▁രക്ത	-10.3962
▁0	-10.3965
▁സഖ്യത്തിന്	-10.3968
▁കുട്ടികള	-10.3968
▁നമ്മള	-10.3969
▁മീറ്ററ	-10.397
▁ഡിസി	-10.397
▁തുടര്‍	-10.3979
സോ	-10.398
പ്രവര്‍ത്തകര്‍	-10.3983
▁സേവനങ്ങള	-10.3983
▁സൈന്യത്ത	-10.3988
▁പുലർത്ത	-10.3992
▁ഞങ്ങളെ	-10.3994
▁പതിനായിര	-10.3995
▁എന്‍ഐഎ	-10.3995
▁കയറ്റുമതി	-10.3995
▁മൂന്നാമത്ത	-10.3996
▁വിമർശന	-10.3996
▁കൊറിയ	-10.3998
▁ശാല	-10.3998
▁തങ്ങളെ	-10.4
▁നൽകാന	-10.4001
▁കളഞ്ഞ	-10.4001
▁പന	-10.4001
▁എങ്കില	-10.4002
▁ജന്മ	-10.4003
▁റണ്‍സ്	-10.4005
▁സിപിഎമ്മിന്	-10.4005
▁അഭിനന്ദിച്ച	-10.4006
▁പേരിലാണ്	-10.4011
▁ചെലവഴിച്ച	-10.4012
▁ിട്ടു	-10.4014
▁ട്രെയിന്‍	-10.4016
▁നിര്‍ബന്ധ	-10.4016
▁സഞ്ചാര	-10.402
▁റില	-10.4027
▁െങ്കില്‍	-10.4027
▁ചാനല്‍	-10.4032
▁ലിറ്റ	-10.4044
▁വിവരങ്ങളും	-10.4044
▁അതിക്രമ	-10.4045
▁അടുപ്പ	-10.4051
▁പെരുമാറ്റ	-10.4051
▁ധനകാര്യ	-10.4052
▁വീട്ടു	-10.4052
▁കെജ്രിവാള്‍	-10.4053
▁ആഗ്രഹിച്ച	-10.4054
▁നെഞ്ച	-10.4056
▁ഇന	-10.4058
ലേ	-10.4058
▁കേന്ദ്രീകരിച്ച്	-10.4063
▁അത്ഭുത	-10.4064
▁ജയം	-10.4071
▁വകുപ്പുകള	-10.4074
▁വിടാന	-10.4075
▁ചിത്രത്തില	-10.4077
▁പരാമർശ	-10.4077
▁എടുക്കാന	-10.4078
▁പ്രസ്	-10.4079
▁ഏത	-10.4081
▁നീല	-10.4086
▁സംഘവും	-10.4087
▁മില്ലെന്ന	-10.4087
▁ചിറ്റ	-10.4092
▁ബ്രാഞ്ച്	-10.4092
▁യൂണിവേഴ്	-10.4093
▁ഡിഗ്രി	-10.4093
▁നേമത്ത	-10.4094
▁അവിശ്വാസ	-10.4095
േണ്ടതുണ്ട്	-10.4096
▁ിരുന്നെങ്കില	-10.4103
▁ട്രെയിന	-10.4104
▁ഗ്രാമപഞ്ചായത്ത്	-10.4105
▁ങ്ങളിലൊന്ന	-10.4108
▁റാം	-10.4108
▁മകൾ	-10.4111
▁പത്താം	-10.4117
▁താരത്ത	-10.4117
▁വിജയിച്ചു	-10.4117
▁ബോംബ്	-10.4118
▁മണിക്കൂ	-10.4119
▁ഓഫിസ	-10.4121
▁ജയരാജൻ	-10.4122
▁നിരാശ	-10.4125
▁ചോ	-10.4134
▁വ്	-10.4136
▁പോളിങ്	-10.4137
▁അന്വേഷണത്തിന്	-10.4141
▁ആലോചന	-10.4142
▁ഗവര്‍ണറ	-10.4142
▁കത്തയച്ച	-10.4142
▁കേന്ദ്രങ്ങള്‍	-10.4145
▁പിടിക്കുന്ന	-10.4146
▁ഹൈക്കമാന്‍ഡ്	-10.4149
▁കളുമാണ്	-10.4151
▁കാലയളവില്‍	-10.4151
▁വ്യക്തമായി	-10.4156
▁എത്താന	-10.4168
▁അനുസരിച്ച	-10.4172
▁ഹരിയാന	-10.4173
▁നിര്‍ത്ത	-10.4174
▁തുടങ്ങിയവര്‍	-10.4179
▁സ്വഭാവ	-10.418
▁ബജറ്റ	-10.4186
ിനിടെ	-10.4191
▁വിഭാഗത്തിൽ	-10.4191
▁യൂട്യൂബ	-10.4192
▁ശൈലി	-10.4194
ങ്ങാടി	-10.4195
▁ഇല്ലെന്ന്	-10.4198
▁വികാരം	-10.4207
▁ിട	-10.4208
▁ടേ	-10.4209
▁പുര	-10.4211
▁മാസങ്ങള	-10.4213
▁ക്കൽ	-10.4214
▁ബഹു	-10.4214
▁കണ്ണു	-10.4217
▁കമന്റ	-10.422
▁C	-10.422
▁കാർഡ	-10.4225
▁നടക്കാനിരിക്ക	-10.4228
▁ചേരാന	-10.4229
▁ഉറപ്പുവരുത്ത	-10.4231
▁സന്നദ്ധ	-10.4231
▁വെട്ട	-10.4236
▁ഏഷ്യ	-10.4241
▁ഒറ്റക്കെട്ടായ	-10.4242
▁പ്രക്രിയ	-10.4242
▁ദക്ഷിണാഫ്രിക്ക	-10.4242
▁ബന്ധു	-10.4242
▁സെറീന	-10.4242
റുത്ത	-10.4243
യുളള	-10.4244
▁ിരുന്നുവെങ്കില	-10.4244
▁പറ്റില്ല	-10.4246
▁നല്‍കേണ്ട	-10.4246
▁പ്രതിഫലം	-10.4247
▁അക്രമം	-10.4249
▁തെളിഞ്ഞ	-10.4249
▁വിടുന്ന	-10.425
പ്പെടുത്തിയ	-10.4252
▁ഞ്ച	-10.4253
▁പറയുകയ	-10.4253
▁ദൗത്യ	-10.4254
▁കുറ്റകൃത്യ	-10.4257
▁സഞ്ജു	-10.4258
▁ഇപി	-10.4261
▁നിര്‍ത്തിയ	-10.4262
▁പ്രചാരണത്തിന്	-10.4262
▁ശക്തമാ	-10.4263
▁പഞ്ചായത്തുകളില	-10.4263
▁ചിങ്ങം	-10.4264
▁കാരിക	-10.4267
▁ുമുണ്ട്	-10.4269
▁തടയ	-10.4271
▁പൂര്‍	-10.4273
▁സംവരണം	-10.4275
▁സ്റ്റേ	-10.4277
▁ിരിക്ക	-10.4279
I	-10.4281
▁ജലീല്‍	-10.4282
▁ഒഴിവാക്കാന	-10.4283
▁14,	-10.4286
▁രംഗത്തെ	-10.4286
▁കോണ്‍	-10.4289
▁സീറ്റുകളിൽ	-10.429
▁ജനവിധി	-10.4292
▁പതിനൊന്ന	-10.4292
▁ആയിരക്കണക്കിന	-10.4292
▁നൽകുകയ	-10.4292
▁പവാര്‍	-10.4292
▁വിക്കറ്റ്	-10.4293
▁മന്ത്രാലയത്ത	-10.4293
▁ൊക്കെ	-10.4294
▁ബാക്കിയുള്ള	-10.4295
▁ആരോഗ്യവകുപ്പ്	-10.4299
▁അയച്ചു	-10.4299
▁നിര്‍	-10.4301
▁മുസ്	-10.4305
▁നീക്കങ്ങള്‍	-10.4307
▁പകുതി	-10.4308
▁ആക്ഷേപം	-10.4308
▁ട്വീറ്റ	-10.431
്യം	-10.4311
▁ഒഴിവുകള	-10.4311
▁93	-10.4313
▁ഉപതിരഞ്ഞെടുപ്പ്	-10.4314
▁യിരുന്നു	-10.4315
▁വരോട	-10.4316
▁ലൈന	-10.4317
▁-1	-10.4318
▁നേതൃ	-10.4329
A	-10.4333
േശ	-10.4336
ാവൂ	-10.4338
ിടെ	-10.4339
▁കേന്ദ്രങ്ങള	-10.434
▁റൂ	-10.4342
▁കുടുംബശ്രീ	-10.4342
▁വ്യക്തത	-10.4345
▁പ്പോഴ	-10.4348
▁കോഴ	-10.435
ജന	-10.4351
▁പൂര്‍ണ്ണമായ	-10.4354
▁പതിവ	-10.4358
▁ങ്ങളിലെ	-10.4359
▁തിരുവല്ല	-10.4362
▁എന്നിവർക്ക	-10.4364
▁നടപടിയെടുക്ക	-10.4364
▁ഒമൈക്രോണ	-10.4366
▁വിവരങ്ങള	-10.4372
▁ുമായിരുന്നു	-10.4384
▁ത്തേയും	-10.4386
▁കാലഘട്ട	-10.4387
▁സുരക്ഷിതമായ	-10.4391
▁റെക്കോർഡ	-10.4392
▁സ്ത്രീകളും	-10.4393
യില്ല	-10.4395
▁തടയാന്‍	-10.4396
▁വേള	-10.4397
വിള	-10.4398
▁പരിപാടികള്‍	-10.44
ക്കാനാണ്	-10.4401
▁നിര്‍മിച്ച	-10.4405
▁വരാന	-10.4406
ഞ്ച്	-10.4406
▁വമ്പന	-10.4408
▁ജയില്‍	-10.4413
▁ഉദ്ധവ്	-10.4413
▁ആദ്യമായ	-10.4415
ശേഷം	-10.4418
▁വേണുഗോപാല	-10.4422
▁പൈ	-10.4423
▁പരിശോധനയില	-10.4425
▁കുമാറിനെ	-10.4427
▁കണ്ടെടുത്ത	-10.4432
▁വല്ല	-10.4436
▁യെക്കുറിച്ച്	-10.4443
▁ബഹിരാകാശ	-10.4443
▁പെന്‍ഷന്‍	-10.4443
▁പുസ്തക	-10.4448
▁മന്ത്രിമാര്‍	-10.4454
▁അഭിപ്രായപ്പെട	-10.4455
▁മതിയെന്ന	-10.4456
യാസ	-10.4459
▁ഒന്നാണ്	-10.4461
▁മൊക്കെ	-10.4461
▁അധ്യക്ഷന	-10.4464
▁അമ്പ	-10.4466
▁ചെയ്തുവെന്ന	-10.4466
▁സംഖ്യ	-10.4467
ഞ്ജ	-10.4468
▁ധാ	-10.4477
▁ഗെയിമ	-10.4478
▁അതിശക്തമായ	-10.4478
▁പ്ലാന	-10.4481
l	-10.4487
▁ക്കല	-10.4493
▁ഒന്‍പത	-10.4494
▁സങ്കട	-10.4494
▁ഹൈദരാബാദ്	-10.4494
▁അനധികൃത	-10.4495
▁പരിധിയില	-10.4497
ണ്ടി	-10.4499
▁കര്‍ണാടകയില	-10.4499
▁ക്കപ്പെടുന്ന	-10.45
▁c	-10.45
▁സിൽ	-10.4501
▁മാർക്കറ്റ	-10.4505
▁മുക്ക	-10.4511
▁അവകാശപ്പെട്ട	-10.4513
▁ഓഫീസിൽ	-10.4519
▁അധിക്ഷേപ	-10.4525
▁സന്ദർശിച്ച	-10.4527
▁'-	-10.4533
▁വര്‍ധിപ്പിക്ക	-10.4535
▁റെക്കോര്‍ഡ്	-10.4536
▁തിരായ	-10.4537
▁ങ്ങളിലേക്ക്	-10.4538
▁തട്ടിപ്പ	-10.4541
▁പെട്രോള്‍	-10.4547
▁കുത്തനെ	-10.4548
▁നറുക്കെടുപ്പ	-10.4549
▁നിർ	-10.4553
▁ഉച്ച	-10.4557
▁തലത്തിൽ	-10.4559
െഴു	-10.4562
▁വരിൽ	-10.4562
▁വെള്ളി	-10.4564
▁മനസ	-10.4568
▁മാന്‍	-10.4569
ത്തിനെതിരെ	-10.4579
▁തിയതി	-10.4579
▁തട്ട	-10.458
പ്പോഴാണ്	-10.4581
▁കൊല്‍ക്കത്ത	-10.4582
▁നിപ	-10.4582
▁ബാബുവ	-10.4584
▁വകുപ്പുകള്‍	-10.4586
▁മോശ	-10.4588
▁നൽകുമെന്ന	-10.4588
▁മരണത്തിന്	-10.4588
▁വച്ചു	-10.4589
P	-10.459
െല്ലാ	-10.459
▁പേരുടെയും	-10.4591
വല	-10.4595
മത്സ്യത്തൊഴിലാളി	-10.4597
▁താരതമ്യം	-10.4597
▁സ്വീകരിക്കും	-10.4599
▁അടങ്ങിയ	-10.4603
▁ഒപ്പ	-10.4607
▁ഷൂട്ട	-10.4608
▁പാകിസ്താന	-10.4609
▁തിരി	-10.461
▁റിക്രൂട്ട്	-10.4616
▁നിലനിൽക്കുന്ന	-10.4618
▁ണി	-10.4625
▁സ്വദേശികള്‍	-10.4625
▁മുറ	-10.463
▁കൗ	-10.463
▁നിധി	-10.4631
▁സര്‍വീസ	-10.4633
▁കുത്ത	-10.4636
▁ങ്ങളൊന്നു	-10.464
ച്ഛ	-10.4642
▁മന്ദിര	-10.4645
▁കാത്ത	-10.4646
▁യഥാ	-10.4646
▁ഔട്ട്	-10.4649
▁പ്രിൻസിപ്പ	-10.4649
▁(1	-10.4649
▁മാർഗ്ഗ	-10.4649
▁പ്പോലെ	-10.465
▁കയ്യ	-10.4653
▁5000	-10.4653
▁പുലി	-10.466
▁മന്ത്രിസഭാ	-10.4661
വിധ	-10.4662
പ്പോ	-10.4666
▁പൊടി	-10.4667
▁സഹായിക്കുന്ന	-10.4675
▁തെറ്റി	-10.4677
▁നെറ്റ്	-10.4677
▁ക്കുണ്ട്	-10.4679
▁അപകടത്തിൽ	-10.4682
ക്കൂട്ട	-10.4682
ുമ്പോഴ	-10.4683
▁നില്‍ക്കുകയാണ്	-10.4685
▁പോലീസുകാര	-10.4689
▁ചടങ്ങിൽ	-10.4689
▁ശേഖര	-10.4689
റ്റിക്	-10.4692
▁ഉപകരണങ്ങള	-10.4693
▁തന്നോട	-10.4694
▁തുടങ്ങ	-10.4694
▁പോകേണ്ട	-10.4695
▁ച്ചി	-10.4695
സീ	-10.4698
▁നിയോജക	-10.4699
▁ഉചിത	-10.4701
▁വാണിജ്യ	-10.4701
▁ഹിജാബ	-10.4701
▁കൂട്ടായ്മ	-10.4701
▁താപനില	-10.4701
▁അച്ചടക്ക	-10.4701
▁ചെയ്താല്‍	-10.4702
ിറങ്ങി	-10.4707
▁സ്ഥലത്ത	-10.4707
▁വെടി	-10.4711
▁ഡേ	-10.4712
▁ഏതു	-10.4717
ഭി	-10.4718
▁സംവരണ	-10.4718
▁കൊച്ചു	-10.4719
▁കൂട്ടം	-10.4723
▁ദിലീപിനെ	-10.4723
ാന്ത	-10.4724
▁ഇവർക്ക്	-10.4725
▁പണ്ട	-10.4726
▁താഴ	-10.4728
▁കുര	-10.4731
▁നേടാ	-10.4735
▁അപ	-10.4736
▁റാവു	-10.4736
▁മുകളിലുള്ള	-10.4736
▁ാല	-10.4741
▁അനുഭവിച്ച	-10.4742
▁മത്സരിക്കുമെന്ന	-10.4742
▁ഉണ്ടാക്കുന്ന	-10.4745
▁ല്ലെന്ന	-10.4747
▁ശങ്കര	-10.4749
▁സിക്	-10.475
ന്‍സി	-10.4752
▁ട്വന്റി	-10.4753
▁www	-10.4753
▁എന്നിരുന്നാലും	-10.4753
▁റോബിൻ	-10.4753
▁കമ്പ്യൂട്ട	-10.4753
▁തലമുറ	-10.4754
▁ഡാമ	-10.4755
▁ഇരയായ	-10.4755
വയ്	-10.4755
▁കമ	-10.4756
▁തനിക്കെതിരെ	-10.4756
▁ഡ്രൈവറ	-10.4756
▁രണ്ടാഴ്ച	-10.4759
▁മേള	-10.476
▁മാർഗ	-10.4762
▁മുടി	-10.4763
▁ബസ്സ	-10.4763
▁സുധാകര	-10.4765
▁തിരിച്ചടിയാണ്	-10.4766
▁പ്രസിദ്ധീകരിച്ച	-10.4767
▁ഉത്ര	-10.4767
രൂ	-10.4767
▁കാപ്പന്‍	-10.477
▁ചേരി	-10.4772
▁ഉപയോഗ	-10.4773
▁ഏറ്റെടുക്ക	-10.4773
▁കളേയും	-10.4777
▁പ്രയോഗ	-10.4778
▁എല്‍ഡിഎഫിന്	-10.4778
▁തിനാലാണ	-10.4778
▁എംഎം	-10.4779
▁കമല്‍നാഥ്	-10.4779
▁അപ്പോൾ	-10.4779
മ്മി	-10.4784
▁ടൈം	-10.4793
▁തുല്യ	-10.4795
ദിന	-10.4796
▁നില്‍ക്കാന	-10.4796
▁റെയില്‍	-10.4797
▁വിധിച്ച	-10.4799
▁പരാജയം	-10.4801
▁അവകാശം	-10.4802
▁വ്യോമ	-10.4806
▁ലോക്ഡൗണ	-10.4806
▁നിവാരണ	-10.4806
ർത്ത	-10.4806
ുവെന്ന്	-10.4808
▁ആവശ്യപ്പെട	-10.4813
▁സ്ഥാപനങ്ങൾ	-10.4814
▁ആരോ	-10.4816
▁പട്ട	-10.4822
▁നില്‍ക്കുന്നത്	-10.4823
ക്കുകയാണ്	-10.4824
▁ഡിസ്	-10.4824
▁ആഴ	-10.4825
▁മല്ലെന്ന	-10.4825
▁പോലെയാണ്	-10.4826
▁പരാതിയിൽ	-10.4826
▁ക്കിടെ	-10.483
മല്ലാത്ത	-10.483
▁മന്ത്രിസഭയില	-10.4832
▁അമേരിക്കയില്‍	-10.4833
▁ഡ്രൈവർ	-10.4835
▁വഹിക്കുന്ന	-10.4835
▁നെല്ല	-10.4837
▁തീരുമാനിക്ക	-10.4842
▁എന്താണെന്ന്	-10.4846
ക്കാനും	-10.4846
▁പൗരന്മാര	-10.4848
▁ജനങ്ങളോട	-10.485
▁സൂചിപ്പിച്ച	-10.4851
▁സ്റ്റാഫ്	-10.4853
▁കണ്‍	-10.4856
▁ശ്ര	-10.4857
▁കയറ്റ	-10.4857
▁വെബ്സൈറ്റ	-10.4859
▁മരണമടഞ്ഞ	-10.4859
▁ആവശ്യമില്ല	-10.4862
▁ഭാരവാഹി	-10.4863
▁പഠിക്ക	-10.4865
▁മിസ്	-10.4866
▁കേള്‍ക്ക	-10.487
▁രാജ്യത്തിന്	-10.487
▁മക്കള്‍	-10.4871
▁ക്കാരെ	-10.4874
പ്പെടുത്തി	-10.4874
▁വായിച്ച	-10.4876
▁വര്‍ധിപ്പിച്ച	-10.4876
▁ആരാധകർ	-10.4877
▁താല്‍പര്യം	-10.4883
▁വസതി	-10.4884
▁നിരോധനം	-10.4884
▁തുടരുന്നു	-10.4887
▁പെടുത്ത	-10.4887
വിട്ട	-10.4888
▁സ്റ്റാര്‍	-10.4893
▁അമ്മയെ	-10.4894
▁പൂർണ്ണ	-10.4899
▁യിലേക്കും	-10.4902
▁സംശയിക്കുന്ന	-10.4903
▁സ്ത്രീകളുടെ	-10.4904
▁സമ്പത്ത്	-10.4904
▁ഡിപ്ലോമ	-10.4905
കിട	-10.4909
▁തുറന്നടിച്ച	-10.491
▁ജാമ്യ	-10.491
▁മാലിന്യ	-10.491
▁വിവേചന	-10.4912
▁ശ്രമങ്ങള്‍	-10.4914
▁തിനിടെ	-10.4914
▁തെളിവുകള	-10.4916
▁ദോഷ	-10.4917
▁പരിശോധിക്കുന്ന	-10.492
▁മാറുന്ന	-10.4923
▁വിശാല	-10.4927
▁കശ്മീരില	-10.4935
▁തെളിയിച്ച	-10.4936
▁നേയും	-10.4941
▁പോള	-10.4945
▁വനംവകുപ്പ്	-10.4947
▁വിലയില്‍	-10.4947
▁കുറയുന്ന	-10.4949
▁ആസാദ്	-10.4953
▁ആളുകള്‍ക്ക്	-10.4954
ിനോ	-10.4957
▁ഒളി	-10.4964
▁ആംബുലന്‍സ	-10.4965
▁ജൂലായ	-10.4966
▁അടച്ചിട	-10.4967
▁റാണ	-10.4969
▁പൊട്ട	-10.497
▁ആവ	-10.497
▁നീങ്ങ	-10.4973
ുകാർ	-10.4974
▁കേരളത്തിലും	-10.4979
▁വരവ	-10.498
▁നദ്ദ	-10.4981
▁ഗ്രഹങ്ങള	-10.4981
▁ഞ	-10.4985
▁പ്ലേ	-10.4987
സമ്പർക്കത്തിലൂടെ	-10.4987
▁M	-10.4987
▁പിടിയിലായ	-10.4997
▁തന്ത്രം	-10.4997
▁റൂം	-10.5006
▁നിര്‍ദേശങ്ങള്‍	-10.5006
യുണ്ടായ	-10.5009
▁നഷ്ടപ്പെട	-10.501
യായിരുന്ന	-10.5013
▁ക്കാരുടെ	-10.5015
▁കാപ്പന	-10.5016
▁വടക്ക	-10.5016
▁ചേർത്ത	-10.5017
▁പാരമ്പര്യ	-10.5019
▁പൊതുമരാമത്ത്	-10.5019
▁സെക്യൂരിറ്റി	-10.5019
▁രാമക്ഷേത്ര	-10.5019
▁കാഞ്ഞിരപ്പള്ളി	-10.5019
യ്ക്കും	-10.5021
▁മാരാർ	-10.5022
▁ിരിക്കണം	-10.5023
▁വെളിച്ച	-10.5023
▁ബിജെപിയിലേക്ക്	-10.5034
▁അബ്ദുള	-10.5042
്യൂറോ	-10.5045
▁ത്തിനെ	-10.5046
▁എടുക്കാ	-10.5052
▁മത്സരാർത്ഥി	-10.5054
▁ക്കാരനായ	-10.5054
ിക്കണം	-10.5054
▁നിര്‍ദ്ദേശിച്ച	-10.5056
▁കർഷകർ	-10.5059
▁ശുപാര്‍ശ	-10.5073
▁ഡൗൺ	-10.5074
ന്നി	-10.5075
▁കുടുംബാംഗങ്ങള	-10.5076
ജു	-10.5076
▁ജോഷി	-10.5076
▁സംരക്ഷണം	-10.5078
▁വരി	-10.5079
▁ഞെട്ടിക്കുന്ന	-10.5081
ഡെ	-10.5089
▁പൂർണ്ണമായ	-10.509
▁ചാടി	-10.509
▁അഭിഭാഷകന്‍	-10.5093
▁പങ്കെടുക്കാന	-10.5094
▁മാട	-10.5099
▁വധ	-10.5101
▁തര്‍ക്കം	-10.5103
▁സ്ത്രീകൾ	-10.5103
▁ിട്ടുണ്ടെങ്കില	-10.5106
▁നേരിട	-10.5109
▁കക്ഷികള	-10.5115
▁ഒരാള്‍ക്ക	-10.5117
▁ിടത്ത	-10.512
▁നിലനിർത്ത	-10.512
രക്ഷാപ്രവര്‍ത്തന	-10.5128
▁പുലർച്ചെ	-10.5128
▁ഇരിട്ടി	-10.5128
▁സമ്പദ്	-10.5128
▁ഒഴികെ	-10.5128
▁വിചാരിച്ച	-10.5129
▁നേടുമെന്ന	-10.5131
▁നടന്നിരുന്നു	-10.5138
ങ്കി	-10.5138
▁അഭിമുഖം	-10.5146
▁കൂട്ടിയ	-10.5148
▁മുണ്ടാ	-10.5149
▁ങ്ങളുമ	-10.515
▁നീക്കി	-10.5153
▁ആൾ	-10.5155
▁പ്രചരിപ്പിച്ച	-10.5156
▁സീറ്റില	-10.5157
▁ലൈൻ	-10.5159
▁തോന്നുന്ന	-10.5159
▁പുലര്‍ത്ത	-10.5161
▁കുടുങ്ങി	-10.5163
▁ത്താന	-10.5165
▁ഡല്‍ഹിയില്‍	-10.5166
▁ചുമ	-10.5169
▁പുറത്തിറ	-10.5169
▁ന്മാര	-10.5172
▁120	-10.5173
▁വികാസ	-10.5173
▁മിഷന	-10.5177
▁തുടർ	-10.518
▁പരിമിത	-10.5182
▁യെഡിയൂരപ്പ	-10.5182
▁കളമശ്ശേരി	-10.5182
സമിതി	-10.5182
▁സംഘത്തില	-10.5185
▁ഇടപെട്ട്	-10.5186
▁ഷെയ	-10.5188
▁സംഭവത്തെ	-10.5188
▁ചുറ്റ	-10.519
ങ്ങളില്‍	-10.5191
▁അറിയാതെ	-10.5191
▁സീറ്റിൽ	-10.5191
▁വ്യക്തമാ	-10.5192
▁കയറ്റി	-10.5194
▁നിര്‍ണയ	-10.5196
▁ഏറ്റുമുട്ടല	-10.5197
▁പാര്‍ക്ക	-10.5198
േജ്	-10.52
▁ചെയ്യണമെന്ന്	-10.52
▁സമ്മത	-10.5202
▁ഉണ്ടാവുക	-10.5211
▁ചികിത്സയിൽ	-10.5211
▁ഫൈസ	-10.5215
▁തുടക്കത്തില്‍	-10.5216
▁ഇടപാടുകള	-10.5217
▁യാണ	-10.5217
▁യൂണിറ്റ്	-10.5225
▁അതോ	-10.5227
▁ിലേക്ക	-10.523
▁കിട്ടിയത്	-10.523
പൂർവ്വ	-10.5234
▁കമ്മീഷണര്‍	-10.5237
▁താത്കാലിക	-10.5237
▁ഫാത്തിമ	-10.5237
▁വഷളാ	-10.5237
▁ക്കിടയിൽ	-10.5237
▁വിവേക	-10.5238
▁നിർമ്മാണ	-10.5241
വെച്ച	-10.5243
▁കാര്യമില്ല	-10.5243
▁യുണ്ടായി	-10.5249
▁വിധേയമാ	-10.525
ുണ്ടോ	-10.5251
▁ത്തുമെന്ന	-10.5256
▁ഉമ	-10.5259
തുവരെ	-10.5259
▁ലുക്ക	-10.5262
▁കളുമായ	-10.5264
▁ട്വിറ്ററില്‍	-10.5264
▁വെക്കുന്ന	-10.5266
▁എട്ടാ	-10.5269
▁പങ്കെടുക്കും	-10.5272
▁യാത്രയ്ക്ക	-10.5274
▁വിശ്വ	-10.5278
▁യുണ്ടാ	-10.5282
▁എംഎല്‍എമാര	-10.5288
▁ഭീഷണിപ്പെടുത്തി	-10.5289
▁കാരണമായി	-10.529
▁ഹാള	-10.529
▁എത്തിച്ചത്	-10.5291
▁യുവാക്കള	-10.5291
ക്കേണ്ടി	-10.5291
▁കൈയ്യില	-10.5292
▁നോക്കാം	-10.5299
▁ഫിലിപ്പ	-10.5303
ത്തിലെ	-10.5305
▁കളിക്കുന്ന	-10.5305
▁മാത്രമായി	-10.5311
▁നുമായി	-10.5312
▁വ്യ	-10.5315
▁അറിയിക്ക	-10.5317
▁മറു	-10.5317
▁മെച്ച	-10.5317
▁വിഭാഗത്ത	-10.5317
▁റ്റു	-10.5319
▁നിയമങ്ങൾ	-10.5319
▁തരൂര	-10.5323
▁യ്ക്കാണ്	-10.5325
▁സമയമാണ്	-10.5325
▁ത്തിനിടെ	-10.5326
▁കൂടുന്ന	-10.5331
▁ഡീ	-10.5331
െണ്ണ	-10.5332
പ്പോയ	-10.5334
േശ്വര	-10.5336
▁നിയമനടപടി	-10.5348
▁പതിനഞ്ച	-10.5348
▁പരിശ്രമ	-10.5348
▁ചാലക്കുടി	-10.5348
▁ഉദയ	-10.5349
▁ഡിജിറ്റല	-10.535
▁ആദായ	-10.5351
▁ക്കുവാന	-10.5352
ത്തിലേറെ	-10.5353
▁റോള	-10.5353
▁കരിച്ച	-10.5355
▁നടപ്പിലാക്കുന്ന	-10.5356
▁പാസാക്കിയ	-10.5362
▁യാക്കി	-10.5362
▁നായര	-10.5366
▁ആശ	-10.5368
▁സമാജ്	-10.5369
▁സർട്ടിഫിക്കറ്റു	-10.537
▁സ്വർണം	-10.537
▁പിടിച്ചത്	-10.5379
▁അന്യ	-10.5382
▁ഖാ	-10.5384
െത്തുന്ന	-10.5385
▁അറ്റ	-10.5386
▁ക്ഷേത്രം	-10.5386
▁തന്നെയായിരുന്നു	-10.5388
▁ട്രോ	-10.5391
▁ക്കേണ്ടതുണ്ട	-10.5393
▁പൈലറ്റ	-10.5394
▁ടാസ്ക	-10.5395
പെൻഷൻ	-10.5396
▁പത	-10.5396
▁ലഭ്യമാ	-10.5398
▁ലൈവ	-10.5399
ല്യ	-10.5401
▁അവരോട	-10.5403
▁സൂപ്പർ	-10.5404
▁പലതവണ	-10.5404
▁കല്‍പ്പറ്റ	-10.5405
▁ില്ലാത്ത	-10.5405
ണ്	-10.5406
▁ിരിക്കും	-10.5406
▁പ്രതീക്ഷയിലാണ്	-10.5407
▁പിന്തുണയും	-10.5408
▁ക്കില്ലെന്ന	-10.5408
▁ുമ്പോഴ	-10.5409
▁പാർക്ക	-10.541
▁പക്ഷ	-10.541
▁ചോദിക്കുന്ന	-10.5411
▁ഓട	-10.5412
▁പിടികൂടി	-10.5414
▁അക്രമി	-10.5416
▁കാറില	-10.5419
▁ആവശ്യങ്ങള്‍	-10.5422
▁സേവ	-10.5425
▁ലഭ്യമാക	-10.5427
മാരായ	-10.5428
ീസ	-10.5435
▁വയല	-10.5441
▁ഏറ്റുമുട്ട	-10.5441
▁ജൂനിയ	-10.5444
▁ചേര്‍ന്നു	-10.5445
▁ലിം	-10.5445
▁18,	-10.5445
▁പൂര്‍ത്തിയായ	-10.5448
▁ബിസിനസ്സ	-10.5451
▁കളുടെയും	-10.5454
▁കടത്ത	-10.5457
▁മലബാ	-10.5457
▁നിലനിര്‍ത്ത	-10.5458
▁യാഥാര്‍ത്ഥ്യ	-10.546
▁മുന്‍ഗണന	-10.546
▁സമുദ്ര	-10.5463
▁നടപ്പാക്ക	-10.5463
▁പ്രചരിച്ച	-10.5465
▁ചാക്കോ	-10.5466
▁വോട്ടെണ്ണല്‍	-10.5471
▁സംഭവത്തിന്	-10.5471
▁ക്വാറന്റൈന	-10.5477
▁പ്രവര്‍ത്തകരും	-10.5484
▁മിഥുന	-10.5485
ക്രമം	-10.5487
▁മുണ്ടാകും	-10.5487
▁സിറ്റിംഗ	-10.5488
ിഷ്ട	-10.5489
k	-10.5489
▁അടിച്ചു	-10.5491
ാനാകില്ല	-10.5492
▁മനോ	-10.5496
ര്‍ത്തി	-10.5497
▁നിർബന്ധ	-10.5498
▁റെയ്ഡ്	-10.5502
▁ചെയ്യേണ്ടത്	-10.5506
▁ഐപിഎല്ലില	-10.5512
മുളള	-10.5512
▁വ്യവസായി	-10.5513
▁ഡ്രൈവര്‍	-10.5513
25	-10.5513
വിരുദ്ധ	-10.5515
▁അണക്കെട്ട	-10.5516
▁ക്രമസമാധാന	-10.5516
ുൾപ്പെടെ	-10.5516
▁ഷിജു	-10.5517
▁ഡിവൈഎഫ്ഐ	-10.5518
▁നായകന	-10.5518
▁ജഗ	-10.5518
▁അധ്യാപകര	-10.552
ക്ഷേമ	-10.552
▁ഉപദേശ	-10.5522
▁അറിയാത്ത	-10.5524
▁ഇന്‍സ്	-10.5529
▁ജയിലിൽ	-10.553
▁ഭരണാധികാരി	-10.553
▁ഗസ്റ്റ്	-10.5531
▁അപമാനിച്ച	-10.5531
▁പറയുക	-10.5537
▁അറിയുന്ന	-10.5537
▁ിംഗ	-10.5538
▁തൃശൂര	-10.5538
▁വലിച്ച	-10.5539
▁വര്‍ധന	-10.554
▁സീസണില്‍	-10.5542
▁വ്യാപനത്ത	-10.5544
▁സാധിക്കില്ലെന്ന	-10.5547
▁ഒഴിവുകള്‍	-10.5548
▁പെഷ്യല	-10.5548
▁ഇടയിൽ	-10.5549
▁പിന്‍വലിക്ക	-10.5557
▁ുണ്ടായിരുന്ന	-10.5557
▁ക്കെ	-10.5558
▁നേരിട്ടത്	-10.5563
▁ഉയരുന്നത്	-10.5565
▁നേട	-10.5565
▁ുമ്പോള്‍	-10.5568
▁ഒവൈസി	-10.5573
▁ജ്വല്ലറി	-10.5573
▁ഭിന്നത	-10.5573
▁സൊസൈറ്റി	-10.5573
▁സ്ഫോടന	-10.5573
▁ഒടിടി	-10.5573
▁നിഷ്	-10.5574
▁ലിസ്റ്റ്	-10.5574
രാജ	-10.5576
▁ടാറ്റ	-10.5578
രേഖ	-10.5578
▁നിയന്ത്രിക്ക	-10.5581
▁റഫ	-10.5583
ശേരി	-10.5583
▁വിധത്തില	-10.5586
▁അജ	-10.5587
▁അതെ	-10.5587
ണൽ	-10.5589
▁വിന	-10.5596
▁പുക	-10.5598
▁ചെയ്യുമെന്ന്	-10.5599
ഘട്ട	-10.5601
▁ചികിത്സയ്ക്ക	-10.5601
▁ചെയ്യുകയാണ്	-10.5605
▁പ്രേക്ഷകര	-10.5605
▁ടീമിനെ	-10.5609
▁ലൈറ്റ	-10.561
▁മാധവ	-10.5612
▁ചികിത്സയിലുള്ള	-10.5615
▁ഉന്നയിച്ചത്	-10.5618
▁കൂടുതലാണ്	-10.5623
▁സംവിധാനങ്ങള	-10.5624
▁ഇക്കാര്യ	-10.5627
▁ജാമ്യാപേക്ഷ	-10.563
▁പള്‍സ	-10.5631
▁രാജാവ	-10.5632
▁പ്രസിഡന്‍റ്	-10.5632
▁കോന്നി	-10.5633
▁ശ്രദ്ധിക്കണം	-10.5635
▁ക്യാമ്പ്	-10.5636
▁യുഎഇയില്‍	-10.5636
▁പരമായ	-10.5637
▁വരാ	-10.5641
▁വിഷ	-10.5642
▁പറ്റുന്ന	-10.5643
▁വാള	-10.5647
▁പിന്	-10.5648
v	-10.5649
▁സമീപിച്ചത്	-10.5652
▁വീണ്	-10.5654
▁സൂരജ്	-10.5654
▁കിറ്റ	-10.5654
▁േണ്ട	-10.5656
▁ചിഹ്ന	-10.5657
▁ഇരിക്കുന്ന	-10.5661
▁ഗുരുവായൂര	-10.5662
▁പരിപാടികള	-10.5662
▁വകുപ്പിന്	-10.5666
▁വിമർശിച്ച	-10.5671
▁ഉത്തര്‍പ്രദേശില	-10.5672
▁250	-10.5679
▁ഗണ	-10.5679
▁കോൺഗ്രസും	-10.5681
ാധ്യമപ്രവര്‍ത്തക	-10.5683
ഞ	-10.5686
▁വിസ്മയ	-10.5688
▁ഇരട്ടി	-10.5688
▁റവന്യൂ	-10.569
▁വിമര്‍ശിച്ച	-10.5691
▁അതോടെ	-10.5692
▁പിന്തുണയ്ക്ക	-10.5693
▁ഒന്നാമ	-10.5693
▁ഉറപ്പാക്കുന്ന	-10.5693
▁നല്ലത്	-10.5696
ണല്‍	-10.5698
▁ദിവസങ്ങള്‍ക്ക	-10.5699
▁ിക്കേണ്ട	-10.5703
▁വാക്സിനേഷന	-10.5703
▁ഉത്തരവാദിത്വ	-10.5704
▁പരാതിക്കാരി	-10.5705
▁വാർഡ	-10.5705
ാണല്ലോ	-10.5707
▁വൈറല്‍	-10.5708
▁അയ്യ	-10.5708
ുറപ്പ	-10.5709
▁ഇറക്കി	-10.5711
▁എട്ടു	-10.5714
▁സംഭാഷണ	-10.5715
▁വകഭേദ	-10.5716
▁ആവശ്യത്തിന	-10.5717
▁വിലയിരുത്തപ്പെട	-10.572
▁മറന്ന	-10.5721
▁p	-10.5721
▁മല്‍സര	-10.5721
▁ഗത്ത	-10.5721
▁രേ	-10.5723
▁നായിക	-10.5724
▁മോശമായ	-10.5725
▁ക്കുമോ	-10.5726
▁തകർത്ത	-10.5729
▁പ്രൊഫ	-10.573
ാദ	-10.5735
▁സൈനികര്‍	-10.5737
▁ഗെലോട്ട്	-10.5737
▁കുടുങ്ങിയ	-10.574
വ്യാപകമായി	-10.5741
▁രാണ്	-10.5741
▁ിട്ടുമ	-10.5743
▁തകർന്ന	-10.5745
▁പൊതുജന	-10.5746
▁അനുപമ	-10.5746
▁മൂവാറ്റുപുഴ	-10.5746
▁ലേഖന	-10.5746
▁ഒരിക്കൽ	-10.5746
▁സുധീര	-10.5746
▁സർട്ടിഫിക്കറ്റ്	-10.5747
▁യൊന്നും	-10.5747
▁റിയാദ്	-10.5747
▁ബാധിച്ചു	-10.5751
▁ഇലക്ട്രോണിക്	-10.5753
▁ഒരുമിച്ച	-10.5756
▁ലിസ്റ്റ	-10.5757
▁അംഗമായ	-10.5764
▁ഭയന്ന	-10.5768
സ്റ്റിറ്റ്യൂട്ട്	-10.5768
▁വരികയായിരുന്നു	-10.577
▁ദിലീപിന്	-10.5771
▁ഉദ്	-10.5776
▁ത്തിച്ച	-10.5777
▁പാവപ്പെട്ട	-10.5778
▁റോബിന	-10.578
▁തിരച്ചില്‍	-10.5786
▁ഫ്ല	-10.5789
▁ഉണ്ടാകുമെന്ന	-10.5789
പര	-10.5793
▁അരുണ്‍	-10.5796
▁മനസ്സിലായ	-10.5797
▁പ്പെടുത്തുന്ന	-10.58
▁മരുന്നുകള	-10.58
▁ഡിജിറ്റ	-10.5801
▁ഓര്‍	-10.5802
▁ഹെഡ	-10.5802
പിടി	-10.5807
▁അര്‍ജുന	-10.5808
▁വാട്ട	-10.5814
▁I	-10.5815
▁സെഞ്ച്വറി	-10.5817
▁കാത്തിരുന്ന	-10.582
▁ലക്ഷ്യത്തോടെ	-10.5822
▁ക്കാനോ	-10.5825
ജോ	-10.5825
▁പ്രചരിക്കുന്ന	-10.5827
▁ഓഫ	-10.5829
▁നാവ	-10.583
▁തെക്ക്	-10.5831
▁റ്റേഷന	-10.5831
▁ധൈര്യ	-10.5833
▁എതിരാളി	-10.5835
▁മകളെ	-10.5838
▁എല്ല	-10.5838
▁നേതാക്കളുമായി	-10.5844
▁വശത്ത	-10.5844
▁ങ്ങളിലേക്ക	-10.5845
▁ചോദിക്കുന്നത്	-10.5849
▁ചൊ	-10.5851
▁അനുഭവം	-10.5851
ല്ലേ	-10.5852
ധ്യ	-10.5854
▁വൃത്ത	-10.5855
▁വിശദീകരിച്ചു	-10.5857
▁അവതാരക	-10.5862
▁ഉറക്ക	-10.5862
▁അക്ഷയ	-10.5863
▁വാതക	-10.5863
▁പുള്ളി	-10.5866
▁മാറ്റാന്‍	-10.5866
▁കുവൈത്ത്	-10.5867
ാനാവില്ല	-10.5873
▁അവകാശപ്പെട്ടു	-10.5874
മം	-10.5875
▁പത്തു	-10.5879
▁മോഡല	-10.588
▁അനുഗ്രഹ	-10.588
▁നിഗമനം	-10.5881
ാവാത്ത	-10.5882
▁നിർമ്മിച്ച	-10.5883
▁കിട്ടും	-10.5884
▁ആശുപത്രികള്‍	-10.5885
▁പ്പെടുത്താന	-10.589
▁കയറ	-10.5892
കാരിക	-10.5895
▁അന്ത	-10.5895
▁കരയ	-10.5896
▁ചീ	-10.5899
▁അംഗങ്ങൾ	-10.59
▁ഭയം	-10.59
ിൻറ	-10.5902
▁ഏജന്‍സികള്‍	-10.5903
▁ക്യാപ്റ്റന്‍	-10.5903
▁റിപ്പബ്ലിക്	-10.5903
▁സമ്പത്ത	-10.5906
▁ഉള്‍പ്പെടുത്തി	-10.5906
▁പരീക്ഷാ	-10.5907
▁പറഞ്ഞിട്ടുണ്ട്	-10.5908
▁മാറുകയ	-10.5911
▁ഗേറ്റ	-10.5912
▁വാങ്ങാന	-10.5913
സര	-10.5913
▁കൈവശം	-10.5919
▁സര്‍വകലാശാല	-10.5921
▁ഇബ്രാഹി	-10.5921
▁റെനീഷ	-10.5923
▁വിനയ	-10.5925
▁മനുഷ്യന	-10.5929
▁വെസ്റ്റ്	-10.5929
▁ആവശ്യമുള്ള	-10.5933
▁കുടുംബവും	-10.5933
▁ഇടക്കാല	-10.5933
▁ഇന്ത്യയിലേക്ക	-10.5935
▁റേഷന്‍	-10.5938
▁രോഗമുക്തരായി	-10.5938
▁മൊന്ന	-10.5942
▁മണ്ഡലങ്ങളിലും	-10.5943
▁നൽകണമെന്ന	-10.5946
ണമ	-10.5948
മേറ്റ	-10.5949
▁കയ്യില	-10.5953
▁വെച്ചത്	-10.5955
▁ഇടവം	-10.5963
▁ഖത്തറ	-10.5965
▁ഛ	-10.5966
▁വയ്ക്ക	-10.5966
▁വാക്കുകള	-10.5967
▁പിടികൂടിയ	-10.5967
▁കാശ്	-10.5972
▁കരുത്ത്	-10.598
▁ഉച്ചകോടി	-10.598
▁തീരദേശ	-10.5981
▁ഭരണകക്ഷി	-10.5982
▁വേഗത	-10.5983
▁നിരോധന	-10.5983
▁ഉപയോഗിക്കാ	-10.5983
▁സറ	-10.5985
▁പറ്റാത്ത	-10.5985
▁എതിര്‍ത്ത	-10.5986
▁തൂങ്ങി	-10.5987
▁സ്റ്റോറി	-10.5988
▁പറയണം	-10.5992
▁16,	-10.5993
▁കാര്‍ഡ	-10.5994
▁പ്രസാദ	-10.5994
▁ആയിട്ട	-10.5996
▁കണ്ടെത്താൻ	-10.5997
▁പ്രസക്ത	-10.5999
▁അസ്	-10.6001
▁ചോര	-10.6002
▁ഇല്ലെങ്കില	-10.6005
▁അമ്മയും	-10.6005
▁ഉയർത്തി	-10.6006
▁നീക്കങ്ങള	-10.6006
▁മനീഷ	-10.6008
▁ചെക്ക	-10.6009
▁അച്ഛന്‍	-10.6011
▁പിൻ	-10.6014
മുണ്ടായ	-10.6014
▁സംരംഭ	-10.6017
▁ആലോചിക്കുന്ന	-10.6018
▁വരില്ല	-10.6018
▁മാസങ്ങള്‍	-10.602
▁ഉമ്മൻ	-10.602
▁നഗരസഭാ	-10.6022
ടാ	-10.6023
▁വീട്ടിലെത്തി	-10.6034
▁മാകുന്ന	-10.6038
▁മതം	-10.6039
▁ഇന്ത്യയും	-10.6039
▁ക്രൈസ്ത	-10.604
▁ഗ്രാമീണ	-10.604
ാവുന്നതാണ്	-10.604
▁ഫുട്	-10.6041
▁മുരളി	-10.6041
▁കാമ	-10.6041
▁രുന്നു	-10.6042
▁രാജയോഗം	-10.6044
▁01	-10.6044
▁ലീഗിന്	-10.6044
▁P	-10.6047
▁ആക്രമണത്ത	-10.6049
er	-10.6049
▁വോട്ടെടുപ്പ	-10.6053
സ്വ	-10.6057
▁വന്നതിന്	-10.6057
▁ഗോവിന്ദ	-10.6058
▁സ്വീകരിക്കുക	-10.6061
▁വാര്‍ഷിക	-10.6063
▁അറ	-10.6064
▁അടക്കമുള്ളവര	-10.6066
▁പറയുന്നത	-10.6066
ുണ്ടാകും	-10.6067
▁നബി	-10.6068
▁കൊള	-10.6069
▁ഒരാളാണ്	-10.607
▁ചിത്രങ്ങള	-10.6072
▁ശ്രദ്ധിക്ക	-10.6076
▁ബിൽ	-10.6077
▁വളരെയ	-10.608
▁ക്കപ്പെട്ട	-10.6089
▁പണമ	-10.6092
▁കുറ്റപത്രം	-10.6092
▁ഉമ്മൻചാണ്ടി	-10.61
▁പരമ്പരാഗത	-10.61
▁അടിസ്ഥാനമാക്കി	-10.61
▁സംവാദ	-10.61
▁മത്സരിക്ക	-10.6101
▁വസ്തു	-10.6101
കാത്ത	-10.6104
▁കളിലൊന്ന	-10.6104
▁മല്‍സരിച്ച	-10.6105
▁കസ്റ്റഡിയിൽ	-10.6105
▁സാധിച്ചിട്ടില്ല	-10.6105
▁കാട	-10.6106
▁സംഘപരിവാ	-10.6109
ഡിപി	-10.6109
▁മെമ്മ	-10.6109
▁ക്ലിനിക്ക	-10.6109
റായി	-10.611
▁2006	-10.6111
▁ഏഴ	-10.6118
▁നാളുകള	-10.6126
▁സഞ്ചരി	-10.6127
ാറുള്ളത്	-10.6128
സബ്	-10.6128
തോ	-10.6128
▁മാറ്റുന്ന	-10.613
മ്പി	-10.6133
▁എഡിറ്റ	-10.6138
▁പഞ്ച	-10.6139
▁ിക്കുകയ	-10.6141
▁15,	-10.6147
▁പഠിക്കുന്ന	-10.6153
▁മധ്യപ്രദേശില്‍	-10.6154
▁പാകിസ്ഥാന	-10.6157
▁കമ്മ്യൂണിസ്റ്റ്	-10.616
▁തമാശ	-10.616
▁അദ്ധ്യക്ഷ	-10.616
▁താമര	-10.616
▁വകുപ്പു	-10.6162
▁നാഥ	-10.6162
െങ്കിൽ	-10.6163
▁സ്ഥാ	-10.6163
▁ഓടിച്ച	-10.6165
▁ഉണ്ടാക്കി	-10.6167
കക്ഷി	-10.6167
▁ുണ്ടെങ്കില്‍	-10.6171
ദിവസം	-10.6171
▁കേസുകളും	-10.6172
▁ഫോമ	-10.6174
▁സെന്ററില	-10.618
▁കോഴിക്കോട്ട	-10.6182
▁റിപ്പോർട്ടുകള	-10.6187
▁മാക്കുന്ന	-10.6188
കൃത	-10.6189
മാണെന്ന്	-10.619
▁അല്ലാത്ത	-10.619
▁രക്ഷപ്പെട	-10.6191
▁വിഷയങ്ങളില	-10.6194
▁ബാറ്റ്	-10.6198
▁സാണ്	-10.6199
കൊണ്ട	-10.6199
▁മതേതര	-10.62
▁പാര്‍	-10.6201
ുവരുന്ന	-10.6202
▁അലർട്ട്	-10.6203
▁അര്‍ഹ	-10.6209
▁പ്ല	-10.6209
▁അവകാശവാദം	-10.6212
▁ബോള്‍	-10.6213
▁ഖാദ	-10.6215
▁സന്ദര്‍ശനം	-10.6216
▁തൂക്ക	-10.6218
ില്ലാതെ	-10.6218
▁തിരഞ്ഞ	-10.6218
▁മാനന്തവാടി	-10.6221
▁നാശനഷ്ട	-10.6221
▁മാതൃഭൂമി	-10.6221
▁മാസ്റ്റര്‍	-10.6224
▁പ്ലാറ്റ്	-10.6224
▁നേട്ടമുണ്ടാ	-10.6224
▁ഖേദ	-10.6226
▁ക്വാഡ	-10.6226
▁നിശ്ചയ	-10.6229
▁ആഫ്രിക്ക	-10.623
▁രാമചന്ദ്രന്‍	-10.623
▁പട്ടേല്‍	-10.6236
▁പോല	-10.6239
▁മധു	-10.6241
▁മനസ്സില	-10.6248
▁ഇറ്റലി	-10.6249
g	-10.6251
▁മിഥുനം	-10.6254
▁തൃശ്ശൂര്‍	-10.6258
▁ആളെ	-10.6264
▁യിട	-10.6264
▁അനുഭവപ്പെട്ട	-10.6265
▁അന്തരിച്ചു	-10.6266
▁നഷ്ടപരിഹാരം	-10.627
▁മണിക്കുട്ടന	-10.627
▁കുരു	-10.6272
▁തിരുത്തി	-10.6275
▁ത്വ	-10.6276
▁ജയിലില	-10.6278
▁ജനിച്ച	-10.6279
▁മജിസ്	-10.6279
▁ക്യാംപ	-10.6281
▁ഉള്‍പ്പടേയുള്ള	-10.6282
▁വിശ്രമ	-10.6282
▁2013	-10.6282
▁എൻസിപി	-10.6282
▁ഡെവലപ്	-10.6282
▁വേട്ടയാട	-10.6282
▁റോഡുകള	-10.6289
▁റോയ്	-10.6291
▁പ്രവചിക്കുന്നത്	-10.6292
▁ബോളിവുഡ	-10.6293
▁പുറത്താ	-10.6293
T	-10.6294
▁താലിബാന	-10.6295
▁പ്രദേശില	-10.6297
▁രോഗികൾ	-10.6297
▁സുധ	-10.6302
ട്രി	-10.6307
▁വ്യാ	-10.6309
▁മാറുമെന്ന	-10.6312
▁ഐസക്	-10.6313
▁കൈയ്യ	-10.6315
▁എട്ട	-10.6321
▁പാലിക്ക	-10.6321
▁സെമി	-10.6322
വയ	-10.6327
ന്‍മെന്റ്	-10.6329
▁അളവ	-10.6332
▁അതിര്‍ത്തിയില	-10.6332
▁പ്ലാ	-10.6333
▁മനസിലാക്കി	-10.6335
യേറ്റ	-10.6337
▁ഓർ	-10.6338
ദീപ്	-10.6339
▁ചിന്തിച്ച	-10.6339
▁എംഎൽഎമാര	-10.6339
▁ഉൾപ്പെടുന്ന	-10.6341
ര്‍ഗ	-10.6342
▁ഡെമോക്രാറ്റ	-10.6343
▁ആഘാത	-10.6343
▁ദിവ്യ	-10.6344
▁ഫ്രീ	-10.6344
▁അഭ്യര്‍ത്ഥിച്ച	-10.6346
▁ചക്ര	-10.6346
▁മണിപ്പൂരില	-10.6348
▁ചടങ്ങ്	-10.6349
▁പരിസര	-10.6352
▁ക്കുന്നതിന്	-10.6354
▁ഇതൊന്ന	-10.6355
▁ഇടയാക്കിയ	-10.6355
▁ശാന്ത	-10.6356
▁അണികള	-10.6356
▁ജോയ്	-10.6357
യിട	-10.6358
▁സിക്യൂട്ടീവ്	-10.6358
▁താമസിച്ച	-10.6358
▁ഭാഗത്ത	-10.6358
മുനിസിപ്പാലിറ്റി	-10.6358
▁വരികയ	-10.6358
▁സച്ചിൻ	-10.636
▁ജീവനക്കാർ	-10.6361
▁നടപ്പിലാ	-10.6361
▁സാധിച്ചത്	-10.6365
▁തുകൊണ്ട്	-10.6369
▁കാരണമാണ്	-10.6369
▁ഉദ്ദേശിക്കുന്ന	-10.637
ബ്ര	-10.6373
▁ശ്രദ്ധിച്ച	-10.6373
▁ഉറപ്പാക്കാന	-10.6375
▁കടുവയെ	-10.6379
▁ഇറക്കിയ	-10.6381
▁പണവും	-10.6382
▁തീരുമാനങ്ങള	-10.6384
മിന	-10.639
▁അറിയാന്‍	-10.6391
▁അത്യാ	-10.6394
▁വര്‍ധനവ	-10.64
▁ഉത്തർപ്രദേശ്	-10.6402
▁കളക്ടറ	-10.6404
▁എപ്പിസോഡ	-10.6405
▁നാദിറ	-10.6405
▁കള്ളപ്പണ	-10.6405
▁ഷെയ്ഖ	-10.6405
▁കേട്ട്	-10.6406
▁04	-10.6406
▁വാക്സിനേഷൻ	-10.6407
▁ദേഷ്യ	-10.6407
▁സ്റ്റാന്‍ഡ	-10.6409
▁ിക്കാനും	-10.6411
▁പരിഹസിച്ച	-10.6413
▁ഭാര്യയും	-10.6415
▁സിദ്ദിഖ്	-10.6422
▁സന്ദര്‍ശി	-10.6422
▁രൂപയ്ക്ക്	-10.6422
▁യുഡിഎഫും	-10.6426
▁മാനേജർ	-10.6427
ൻ്റ	-10.6427
▁കൊച്ചിയിലെ	-10.6428
▁നോര്‍ത്ത	-10.6429
▁ആവേശ	-10.6431
▁ശീല	-10.6432
▁നീള	-10.6432
രിസ്ഥിതി	-10.6433
▁ഇസ്	-10.6439
▁ലഭ്യമാക്ക	-10.6439
▁പങ്കെടുത്തത്	-10.6441
▁ദിവസങ്ങള്‍	-10.6441
▁തീർത്ത	-10.6443
▁തൊടുപുഴ	-10.6444
▁ചെയ്യുന്നതിന്	-10.6444
മൊരു	-10.6448
ന്‍ഡ്	-10.6448
▁അത്യാവശ്യ	-10.6452
▁ദീ	-10.6453
▁മടങ്ങിയ	-10.6454
▁ട്ടെ	-10.6455
▁േറ്റ	-10.6457
▁രാഹുലിന്	-10.6459
രാമ	-10.6466
▁തിനാല	-10.6466
▁സാഹിത്യ	-10.6467
▁ബത്തേരി	-10.6467
▁സ്ഥിതിഗതി	-10.6467
▁സ്റ്റേഡിയ	-10.6467
▁രംഗ	-10.6469
▁അടങ്ങുന്ന	-10.6469
▁മത്സരിച്ചത്	-10.6471
▁അധ്യക്ഷനായ	-10.6471
▁സെക്	-10.6472
▁മാക്കിയ	-10.6472
▁കാവ	-10.6476
▁ിരിക്കുക	-10.6477
▁കൗണ്ട	-10.6478
▁പരാതികള്‍	-10.648
▁നേട്ടങ്ങൾ	-10.6482
▁അഡീഷണ	-10.6483
▁എതിര	-10.6483
▁തങ്ങള്‍ക്ക	-10.6485
ൊപ്പ	-10.6489
▁പൊലിസ	-10.6492
▁യുമില്ല	-10.6492
▁കൊടുത്തത്	-10.6496
▁ട്വിറ്ററ	-10.6496
സ്ഥാന	-10.6496
▁യുള്ളൂ	-10.6498
പരമായി	-10.6499
▁വിലയിരുത്തൽ	-10.6499
▁ചെയ്തിരുന്ന	-10.65
▁ഓഫീസര്‍മാര	-10.65
▁സര്‍വീസുകള്‍	-10.6501
▁പൊളിച്ച	-10.6505
▁ജിയോ	-10.6505
ായിട്ടാണ്	-10.6507
▁സഖ്യത്ത	-10.6513
▁കോച്ച	-10.6516
▁ജീവിക്കുന്ന	-10.6517
വർക്ക്	-10.6518
▁രംഗത്ത	-10.6523
▁സഖ്യകക്ഷി	-10.6525
▁കച്ചവട	-10.6526
▁വിട്ടുവീഴ്ച	-10.6529
▁അബദ്ധ	-10.6529
▁സ്പീക്കർ	-10.6529
▁പ്രിന്‍സിപ്പല	-10.6529
▁ഫിലിം	-10.6529
▁ഉയർത്ത	-10.653
▁അടിത്തറ	-10.653
▁വിരമിച്ച	-10.6531
▁കാഴ്ച്ച	-10.6532
▁സ്ഥാപിക്കുന്ന	-10.6534
▁വിധേയ	-10.6535
ുന്നതിന്	-10.6538
▁നമ്മളെ	-10.6545
▁നൂറ	-10.6545
▁ഷഹ	-10.6545
▁പ്രോത്സാഹിപ്പി	-10.6547
▁ലഭിച്ചിട്ടില്ല	-10.6548
▁എത്തിച്ചു	-10.6551
▁ഹിന്ദുത്വ	-10.6551
▁ഉദ്യോഗസ്ഥന്‍	-10.6552
▁ുള്ളൂ	-10.6553
▁സഹകരിച്ച	-10.6556
▁പുറത്തുവരുന്ന	-10.6557
▁കലാപം	-10.6558
▁ഉത്	-10.6562
▁പാക്	-10.6565
▁ഫിറോസ	-10.6566
▁സ്വാഭാവിക	-10.6567
▁വിജയകരമായ	-10.6569
▁ദ്	-10.6571
▁പങ്കാളിത്ത	-10.6575
▁വോട്ടര്‍മാര്‍	-10.6576
▁തസ്തികയിലേക്ക	-10.6577
▁ഹൈക്കോടതിയില്‍	-10.6578
▁സംരക്ഷിക്കുന്ന	-10.6582
▁പ്രകോപന	-10.6585
▁പോയത	-10.6588
▁ധനു	-10.6589
▁വാഗ്ദാന	-10.659
▁പ്രൈവറ്റ	-10.6592
▁വിശേഷിപ്പിച്ച	-10.6592
▁പ്രായപരിധി	-10.6592
▁ട്രീറ്റ്	-10.6593
▁പ്രേമ	-10.6594
▁പരിഹസിച്ചു	-10.6595
▁ദേവ്	-10.6597
▁ബന്ധുക്കള	-10.6599
▁പച്ചക്കറി	-10.6601
ൊടി	-10.6604
▁സൂചനയാണ്	-10.6606
E	-10.6608
▁ചേര്‍	-10.6609
കളിലായി	-10.6615
▁യൂണിയന്‍	-10.6617
▁ഇംഗ്ലീഷ്	-10.6618
▁കെവി	-10.6622
▁സമീപനം	-10.6623
▁ാകും	-10.6623
ാലിറ്റി	-10.6623
▁നിലപാടിലാണ്	-10.6627
ങ്ങനെ	-10.6628
▁പ്രകടിപ്പിക്ക	-10.6629
▁കേന്ദ്രീകരി	-10.6631
n	-10.6631
▁കുമാറിന്	-10.664
▁മാത്ര	-10.664
▁ഭൂരിപക്ഷത്തില	-10.6642
▁ഗാസ	-10.6643
▁ഭർത്താവ	-10.6643
▁ാണോ	-10.6644
ാണെന്ന	-10.6644
▁തുടങ്ങും	-10.6645
▁നിര്‍മാണം	-10.6649
▁നിയ	-10.6651
ക്കേ	-10.6651
▁റിനെ	-10.6653
▁2012	-10.6655
▁ലഭ്യത	-10.6655
▁വിലക്കയറ്റ	-10.6655
▁പങ്കിട	-10.6656
▁മകനെ	-10.6657
▁സമ്പൂര്‍ണ	-10.6657
▁തെറ്റു	-10.6657
▁ഡീസല	-10.6657
ാത്മക	-10.6658
▁നഴ്സ	-10.6658
▁വർദ്ധിപ്പി	-10.6659
കുളങ്ങര	-10.666
▁ബോഡി	-10.6661
▁നോക്കൂ	-10.6663
▁കൊടുക്കാ	-10.6664
▁ഓർമ്മ	-10.6664
▁അമരീന്ദര്‍	-10.6669
▁n	-10.667
▁മറിഞ്ഞ	-10.6671
▁സ്വാ	-10.6671
▁അറിയിപ്പ്	-10.6671
▁സോളാ	-10.6676
▁ചോദിച്ചത്	-10.6678
▁ഒരുങ്ങുന്നത്	-10.6682
▁വിശ്വസിച്ച	-10.6685
ഭാരതീയ	-10.6689
▁യിലുണ്ട്	-10.6691
▁അറസ്റ്റിലായത്	-10.6691
▁വാഹനങ്ങൾ	-10.6694
കെട്ട	-10.6697
▁സ്വന്തമാക്കിയ	-10.6697
▁ജോർജ	-10.6697
▁മാത്രമാണെന്ന	-10.6697
▁പ്രമുഖര	-10.6698
▁മാനേജ	-10.6699
▁സ്ത്രീകള്‍ക്ക	-10.67
▁വഹിച്ചു	-10.6704
▁വൃത്തി	-10.6704
▁ഇളവു	-10.6705
▁അസമില	-10.6706
▁17,	-10.6706
യെന്ന്	-10.6709
▁വാങ്ങിയത്	-10.6712
ുണ്ടാവും	-10.6713
▁ജേക്കബ്	-10.6715
▁വിമാനത്തില്‍	-10.6715
▁കടം	-10.6718
▁നാട്ടുകാർ	-10.6719
▁പൊതുമേഖല	-10.6719
▁നക്ഷത്ര	-10.6719
▁പ്രഥമ	-10.6719
▁യെച്ചൂരി	-10.6719
▁നൃത്ത	-10.6719
▁വന്ദേഭാരത	-10.6719
▁സമസ്ത	-10.6719
▁അധ്യക്ഷനായി	-10.6721
▁ദേശീയപാത	-10.6722
▁റോഷ	-10.6723
വായ	-10.6723
▁സേ	-10.6727
▁ഗോവയില	-10.6727
▁ന്യൂസ	-10.6728
▁ചെമ്പ	-10.6728
▁തളിപ്പറമ്പ്	-10.6732
▁കിട്ടാന	-10.6737
▁പ്രേക്ഷകർ	-10.6737
▁കുറിച്ചാണ്	-10.674
▁കൈവിട്ട	-10.674
▁ത്താന്‍	-10.6742
▁ഭർത്താവ്	-10.6754
▁രക്ഷപ്പെട്ട	-10.6758
▁അംഗീകാര	-10.676
▁നുമായ	-10.676
▁സഹായവും	-10.6762
▁സോണ	-10.677
▁സംഭവിക്കുന്ന	-10.6772
▁ദൃശ്യങ്ങള	-10.6773
▁കുഞ്ഞു	-10.6774
തോതില്‍	-10.6775
▁യുക്രൈന്‍	-10.6776
▁ബീച്ച	-10.6776
▁മുന്ന	-10.6778
▁സംസാരിക്കാന	-10.6783
▁കുമ്മനം	-10.6783
▁ലോകായുക്ത	-10.6783
▁ആകെയുള്ള	-10.6783
▁വര്‍ഷങ്ങളായ	-10.6784
▁വൈദ്യ	-10.6785
▁പാലിക്കണം	-10.6789
C	-10.6792
▁കരുതല	-10.6793
▁യന്ത്ര	-10.6793
▁സിറ്റിങ്	-10.6803
▁കുട്ട	-10.6809
റിലെ	-10.6813
▁ഇറാനി	-10.6813
ുണ്ടാക്കിയ	-10.6814
▁19,	-10.6816
▁യോഗ്യതയുള്ള	-10.6817
▁തീർ	-10.6817
▁ളു	-10.6819
▁കുറയ്ക്കാന	-10.6821
▁നിലയ്ക്ക	-10.6821
▁പരു	-10.6825
▁ഉണ്ടാക്കാന	-10.6825
▁വ്യത്യസ്തമായ	-10.6834
▁പരിഗണനയില	-10.6843
▁വിവാഹത്തിന	-10.6845
▁ദുരുപയോഗ	-10.6848
▁സ്പീക്കറ	-10.6848
▁കങ്കണ	-10.6848
▁എക്സിക്യൂട്ടീവ്	-10.6848
▁ബില്യണ	-10.6848
▁ഡൊണാള്‍ഡ	-10.6849
▁ശ്രമത്തിലാണ്	-10.685
▁എന്നയാള	-10.685
▁അംഗത്വം	-10.6852
▁നൂ	-10.6853
ട്ടം	-10.6855
▁ജസ്	-10.6855
▁എംബി	-10.6856
▁നടത്തണം	-10.6858
▁തിരഞ്ഞെടു	-10.6858
▁2009	-10.6858
▁അസി	-10.6859
▁സാന്നിധ്യ	-10.6861
▁എതിർ	-10.6861
യൊക്കെ	-10.6861
▁സെറ്റ	-10.6862
▁ലധിക	-10.6862
നാഥ	-10.6864
▁ിരുന്നതായ	-10.6864
▁ടീമില	-10.6866
▁സമഗ്ര	-10.6868
രാത്രി	-10.6869
▁മണ്ഡലങ്ങളില	-10.6869
▁കളുള്ള	-10.6871
▁യുടേത്	-10.6872
▁സ്പ്രസ്	-10.6875
▁പൊന്ന	-10.6876
▁രോഗബാധിതര	-10.6876
▁ആരോപണങ്ങൾ	-10.6885
▁മികവ	-10.6886
▁അനുബന്ധ	-10.6888
▁ബിഹാറില	-10.6892
▁ചിത്രമാണ്	-10.6893
▁വിമാനത്താവളം	-10.6895
▁ആസൂത്രണം	-10.6895
▁സംഭവിക്കാ	-10.6902
▁പങ്ക	-10.6904
തിനും	-10.6906
ക്കുട്ടി	-10.6906
വാള	-10.6909
▁അരു	-10.6909
▁നഗർ	-10.6913
▁ജ്യോതി	-10.6913
▁യുവജന	-10.6914
▁മില്ലെന്ന്	-10.6918
▁ിനേയും	-10.6919
▁രൂപീകരണ	-10.6919
▁സീറ്റുകളും	-10.6924
▁മാക്	-10.6927
▁ഗംഭീര	-10.6927
▁പുറത്തായ	-10.6928
▁തൊട	-10.6928
▁പ്രതിഭ	-10.693
റായ	-10.6931
▁വിപുലമായ	-10.6931
▁സ്വര്‍ണത്തിന്	-10.6931
മാന്‍	-10.6934
▁പശ്ചാത്തല	-10.6936
പു	-10.6938
ന്ത്ര	-10.6943
▁മണിയോടെയാണ്	-10.6945
▁വിടുകയ	-10.6945
▁നദി	-10.6946
കുമാർ	-10.6948
▁പ്രവചന	-10.6952
▁കണക്കിലെടുത്ത	-10.6954
▁ആരാധക	-10.6956
▁മൂക്ക	-10.6957
▁പ്രണയം	-10.6962
▁പുരുഷ	-10.6964
▁ദുര്‍ബല	-10.6964
we	-10.6966
▁ബിസിനസ	-10.6966
▁മൂല	-10.6969
▁വേഷ	-10.6971
ല്ലൂർ	-10.6973
▁ഓരോരുത്തര	-10.6974
▁സമ്മര്‍ദ	-10.6978
▁സർവ്വകലാശാല	-10.6978
▁ബീഹാര്‍	-10.6978
പിജെ	-10.6979
▁സര്‍ക്കാരിന	-10.698
▁വാര്‍ഡില്‍	-10.6982
▁ഇവിട	-10.6985
▁നെഗറ്റീവായ	-10.6986
കട	-10.6987
▁ലിമിറ്റഡ്	-10.6989
കൂട്ടി	-10.6994
ശ്യ	-10.6995
▁അഞ്ചാ	-10.6997
▁നഗര്‍	-10.6998
▁ജയിച്ചത്	-10.6998
R	-10.6999
▁ദ്യ	-10.7
▁നേരിടുന്നത്	-10.7001
▁പറഞ്ഞിട്ട	-10.7002
▁റ്ററ	-10.7005
▁രൂപപ്പെട്ട	-10.7006
▁മൃതദേഹങ്ങള്‍	-10.7012
▁റേത്	-10.7012
▁എസി	-10.7015
േയ	-10.7019
▁ട്രാ	-10.7022
ജെപി	-10.7024
▁സ്ഥലത്തെത്തി	-10.7026
▁രൂപയായിരുന്നു	-10.7028
▁ബാധിത	-10.7028
▁ധീര	-10.7028
▁ഭേദ	-10.7029
▁ഇടങ്ങളില	-10.703
▁വസ്ത്രം	-10.7033
▁പ്രതിനിധികള്‍	-10.7035
▁സ്റ്റ്	-10.7035
▁അക്രമികള	-10.7037
ബ്ല	-10.7037
▁ട്രാവ	-10.7038
▁യൂണിയ	-10.7039
▁സര	-10.7044
▁എല്ലായിടത്ത	-10.7044
▁ഉണ്ടായിട്ടുണ്ട്	-10.7044
▁സെന്‍ട്രല	-10.7044
▁ട്രെയിൻ	-10.7044
▁ട്രാൻസ്	-10.7044
▁അനുവാദ	-10.7045
▁ചേച്ചി	-10.7045
▁ജ്യോതിരാ	-10.7045
▁ചന്നി	-10.7047
▁സംരക്ഷിക്ക	-10.7051
▁സുന്ദര	-10.7055
ുകളിലും	-10.7056
▁ചര്‍ച്ചയായ	-10.7056
▁കുറ്റപ്പെടുത്ത	-10.7056
▁ജയരാജന	-10.706
▁പരിഹരിച്ച	-10.706
▁ലുള്ള	-10.7063
▁കാണിച്ചു	-10.7065
▁രേഖകൾ	-10.7065
▁തിരിച്ചടിയായ	-10.7065
സംസ്ഥാന	-10.7066
▁കാത്തു	-10.7066
▁സ്വാഭാവികമായ	-10.707
▁ഭാവ	-10.7071
▁സമ്മാനിച്ച	-10.7071
ൂട്ട	-10.7073
▁യുഡിഎഫില	-10.7075
▁സംഘര്‍ഷം	-10.7076
▁പ്രോസിക്യൂഷന്‍	-10.7077
▁അധികാരത്തിൽ	-10.708
കുളം	-10.7081
▁കിടക്കകള	-10.7081
▁നിലവാര	-10.7082
▁വീടു	-10.7084
▁പ്രതികരണവു	-10.7084
▁കാസർകോട്	-10.7086
▁ക്ഷേത്രത്തില	-10.7088
▁ദത്ത	-10.7093
▁ഡബ്ല്യു	-10.7099
▁കുട്ടികൾക്ക	-10.71
▁നിരക്കില്‍	-10.7102
▁ഖു	-10.7103
▁വളര	-10.7103
▁ഇംഗ്ലണ്ട	-10.711
▁ചലന	-10.711
▁നന്മ	-10.711
▁കുഴപ്പ	-10.7112
▁പോവുന്ന	-10.7113
▁കുഞ്ഞി	-10.7116
ണ്ടെന്നും	-10.7116
▁വുമില്ല	-10.7117
▁പൊട്ടി	-10.7117
ർത്തി	-10.7118
▁നശിപ്പിച്ച	-10.7119
▁കോൺഗ്രസിനെ	-10.7121
▁പ്രവർത്തകരെ	-10.7123
▁സമൂഹത്ത	-10.7124
▁തീരുമാനമെടുക്ക	-10.7126
▁ജോൺ	-10.7126
▁എത്രത്തോളം	-10.7128
▁നിയോഗിക്ക	-10.7129
പൂര്‍	-10.7131
▁മുത്ത	-10.7132
▁കൊടുക്കാന	-10.7133
▁പുരം	-10.7137
▁ക്കേ	-10.7138
▁മടി	-10.7141
ാള്‍	-10.7142
ത്രി	-10.7144
▁മനസിലായ	-10.7148
▁അനുവദിച്ചത്	-10.7151
▁പോവുകയാണ്	-10.7152
▁സമീപന	-10.7152
ബിയ	-10.7153
▁ബാംഗ്ലൂര	-10.7154
ോട്ട്	-10.7155
▁ജെയ്	-10.7156
▁പരാജയപ്പെടുത്തി	-10.7158
▁ഉപയോഗിക്കുന്നത്	-10.7159
ാകുന്ന	-10.716
ാബ്	-10.7163
▁ണ്‍	-10.7168
▁ഒഡീഷ	-10.7171
▁തിരുമാനം	-10.7172
▁താല്പര്യ	-10.7177
▁സോഫ്റ്റ്	-10.7177
▁അശ്ലീല	-10.7177
▁നൂറ്റാണ്ട	-10.7177
gov	-10.7177
▁ഭാഗ്യലക്ഷ്മി	-10.7177
▁എംഎല്‍എമാരെ	-10.7177
▁ദീര്‍ഘകാല	-10.7177
▁പ്രശ്നങ്ങള്‍	-10.7178
കുമാര്‍	-10.718
▁അടച്ചിട്ട	-10.7183
▁പുരുഷന്മാര	-10.7183
▁പവ	-10.7184
▁പ്പ്	-10.7184
▁മാധ്യമങ്ങളില്‍	-10.7189
▁ഐപിഎല്‍	-10.719
രിഞ്ഞ	-10.719
▁യെടുത്ത	-10.7193
ാരും	-10.7197
▁തെളിയിക്ക	-10.7198
▁മാരാണ്	-10.7199
ൊഴു	-10.7204
▁എൽഡിഎഫ	-10.7205
▁കസ്റ്റഡിയില	-10.7206
▁പൂർത്തിയാക്കിയ	-10.7206
▁അവസരങ്ങള	-10.7208
▁താലിബാ	-10.7213
▁അവസാനിക്കുന്ന	-10.7215
▁സാക്ഷ്യ	-10.7216
▁ക്രിമിന	-10.7219
▁സച്ചിന	-10.722
▁കോഴി	-10.7222
▁പിടിക്കാന	-10.7227
ാഴ്ച	-10.7228
▁കുടു	-10.7228
▁എംഎ	-10.7231
▁മാസത്തില്‍	-10.7231
▁അധികാരി	-10.7232
▁വിരുദ്ധമായ	-10.7233
▁അറസ്റ്റു	-10.7238
▁വ്യക്തിത്വ	-10.7242
▁ത്തുക	-10.7243
▁പന്ത്രണ്ട	-10.7244
▁An	-10.7244
▁വിൽപ്പന	-10.7245
▁റാന്നി	-10.7245
▁ഉച്ചയോടെ	-10.7245
▁യാത്രക്കാരെ	-10.7249
▁സഹായിക്കും	-10.725
▁വിന്യസിച്ച	-10.725
▁തിനെക്കുറിച്ച	-10.7252
▁ടൈറ്റ	-10.7252
▁മന്ത്രിമാരും	-10.7256
▁ദിവസത്തേക്ക്	-10.7256
▁ക്കുമെതിരെ	-10.7256
▁കേസെടുത്തു	-10.7258
▁രോഗികളെ	-10.7258
▁വിശദീകരിച്ച	-10.7258
▁ബാബ	-10.7262
ാകണം	-10.7263
▁പാർട്ടികൾ	-10.7263
▁ഗോവിന്ദന്‍	-10.7264
▁കണ്‍വീന	-10.7265
▁ചാല	-10.7266
▁ഏതൊക്കെ	-10.7268
▁ായിരുന്ന	-10.7268
▁നടപ്പാ	-10.7269
ഭ്യ	-10.727
▁ബാലകൃഷ്ണ	-10.727
▁നിരോധി	-10.7271
▁പ്രചരിപ്പിക്ക	-10.7273
▁കണ്ണൂരിലെ	-10.7274
▁(4	-10.7276
▁കഴുത്ത	-10.7277
ക്കാണ്	-10.7279
▁ആക്രമി	-10.728
▁താണോ	-10.7285
▁മെച്ചപ്പെടുത്ത	-10.7289
▁വിഭജന	-10.7291
▁നസീ	-10.7292
▁എന്നിവയ്ക്ക	-10.7294
▁ഇറാഖ	-10.7294
▁എക്സ്പ്രസ്	-10.7295
▁ഫൈനല	-10.7295
▁d	-10.7296
▁ബദ	-10.73
▁ന്നാ	-10.7303
▁ശ്രമിക്ക	-10.7304
▁നടത്തിയതെന്ന	-10.7306
▁സ്ഥാപിക്ക	-10.7311
▁താൽക്കാലിക	-10.7311
▁പിന്നാക്ക	-10.7311
▁അര്‍ധ	-10.7312
▁തിരക്കഥ	-10.7314
▁ഫുഡ്	-10.7314
▁മോഹന	-10.7315
▁ജലീല	-10.7319
▁ആശുപത്രികള	-10.732
ഉണ്ടായിരുന്നില്ല	-10.7321
▁പേരുകള	-10.7324
▁ലഭിക്കാന	-10.7325
▁താങ്കള	-10.7325
▁എന്നുളള	-10.7326
▁വെക്കാന	-10.7327
▁വരു	-10.7327
▁കപ്പല	-10.7329
▁തട്ടിയെടുത്ത	-10.7333
▁ലാന്‍ഡ	-10.7334
▁ആരുടെ	-10.7335
പ്പാട	-10.7335
▁കാണാത	-10.7344
▁പറഞ്ഞിട്ടില്ല	-10.7345
▁അഷ്	-10.7346
▁യുപിഎ	-10.7353
▁തുണ്ടെന്ന	-10.7355
െതിരെ	-10.7358
▁പ്രതികരിക്ക	-10.7359
▁കുടുംബങ്ങള	-10.7361
▁വാന്‍	-10.7362
▁െങ്കിൽ	-10.7363
▁െടുക്ക	-10.7365
▁കളാണെന്ന	-10.7365
▁കഴിയുക	-10.7366
▁വിഭാഗങ്ങള്‍	-10.7367
▁ബാലറ്റ	-10.7368
▁ലളിത	-10.7369
▁സമ്മേളനത്തിൽ	-10.7371
▁ചികിത്സയിലാണ്	-10.7376
▁ഗീത	-10.7377
▁ങ്ങളായ	-10.7377
▁അവസരങ്ങള്‍	-10.7377
▁ുമ്പോൾ	-10.7378
▁ക്കാരി	-10.7378
▁വിരോധ	-10.7379
▁പാചക	-10.7379
▁ഏതാണ്ട	-10.738
▁തലവേദന	-10.738
▁വികസിപ്പിച്ച	-10.7384
▁ഒഴിഞ്ഞ	-10.7384
▁ഗവണ്‍മെന്റ്	-10.7386
▁ചലഞ്ച	-10.7386
▁ക്രമീകരണ	-10.7387
▁800	-10.7388
▁ങ്ങളുണ്ട്	-10.7393
▁ക്യാപ്റ്റന	-10.7394
▁ആവിഷ്	-10.7396
▁ശത്രു	-10.7396
▁ചോദ്യങ്ങൾ	-10.7398
▁വാക്ക	-10.7398
▁നടപ്പിലാക്കിയ	-10.7398
▁പൗര	-10.7401
▁സ്ഥാനാർത്ഥിയായ	-10.7402
തിലും	-10.7404
▁കണ്ണൂരിൽ	-10.7404
▁പ്രസവ	-10.7406
▁ഭി	-10.7414
▁ൂരില	-10.7414
▁വായ	-10.7416
▁പൊട്ടിത്തെറി	-10.742
▁കഷ്ട	-10.7423
▁പ്രാധാന്യ	-10.7424
▁അടൂര	-10.7425
▁സിസ്റ്റ	-10.7425
▁ഞെട്ടി	-10.7426
ദ്ധ്യ	-10.7427
▁പ്രഖ്യാപി	-10.7438
▁നല്‍കുന്നു	-10.7439
▁പറയാത	-10.7444
▁ഫൈ	-10.7444
▁കൗൺസ	-10.7446
▁കിം	-10.7448
sha	-10.7448
▁മഹിള	-10.7448
▁അധ്യാപിക	-10.7448
▁ശുഭകരമായ	-10.7449
▁രജിത്	-10.7449
▁എഴുത	-10.7451
ഹാര	-10.7457
▁വശ	-10.7464
ദാസ	-10.7467
▁ിലുള്ള	-10.7468
വുമായ	-10.747
▁ഇഷ	-10.747
▁ഉപ്പ	-10.7474
▁എക്സൈസ്	-10.7479
▁ഒമാന	-10.7482
▁പ്രതിരോധം	-10.7483
നെതിരായ	-10.7486
▁പ്രോജക്ട	-10.7489
സണ്‍	-10.7489
▁പദ്ധതിയില്‍	-10.7491
▁ചർച്ചകള	-10.7492
▁ിക്കുകയാണ്	-10.7494
▁കമ്പനികള്‍	-10.7494
▁ഡോസ	-10.7495
▁വിളിച്ചത്	-10.7495
▁ഉദ്യോഗസ്ഥന	-10.7496
▁മോഷണ	-10.7498
▁ല്ലാതെ	-10.7499
▁രാജ്യങ്ങളുടെ	-10.75
▁രാഹുലിനെ	-10.7503
▁പരീക്ഷണം	-10.7506
▁കുല	-10.7506
▁ഹൗസില	-10.7509
മുടി	-10.7511
▁സമര്‍പ്പിക്ക	-10.7512
▁പുടിന	-10.7514
▁തർക്കം	-10.7515
▁കമ്പനികൾ	-10.7515
▁ഉപരോധം	-10.7516
▁നേര്‍	-10.7516
▁ഡിസൈന	-10.7517
▁സ്മൃതി	-10.7517
▁തൃപ്പൂണിത്തുറ	-10.7517
▁സന്ധ്യ	-10.7517
nam	-10.7517
▁നവകേരള	-10.7517
▁ലക്ഷക്കണക്കിന	-10.7517
▁പെട്രോൾ	-10.7518
▁ലൈസന്‍സ്	-10.7519
▁ഉദ്യോഗസ്ഥരും	-10.7519
▁സ്വദേശിനിയായ	-10.7523
അവകാശപ്പെടുന്നത്	-10.7524
▁സ്വര്‍ണ്ണ	-10.7525
ുകളെ	-10.7527
▁ക്കാറുണ്ട്	-10.7528
▁പൊലീസുകാര	-10.7529
▁എറിഞ്ഞ	-10.7534
▁നീട്ട	-10.754
▁സ്വാതന്ത്ര്യം	-10.7542
▁അറസ്റ്റില്‍	-10.7542
▁വയസിന	-10.7543
▁ഉയർത്തുന്ന	-10.7548
പ്പൊ	-10.755
▁പ്രി	-10.7551
▁ഞെട്ട	-10.7554
▁ഏറ്റെടുക്കുന്ന	-10.7556
▁രക്ഷിക്കാന	-10.7556
▁രാജ്യങ്ങൾ	-10.7558
▁കഴിക്കുന്ന	-10.7562
▁എംപിമാര്‍	-10.7563
▁ാണ	-10.7565
▁തിരഞ്ഞെടുപ്പുകള	-10.7566
▁പ്രവര്‍ത്തകന്‍	-10.757
▁പലര്‍ക്കു	-10.7574
▁സൂപ്രണ്ട്	-10.7575
▁കാര്യമായി	-10.7577
▁ജോണി	-10.7583
▁സ്വത്ത്	-10.7584
▁വിമാനങ്ങള	-10.7585
▁താൽപര്യ	-10.7586
▁വാർഷിക	-10.7586
▁സ്ഥാപക	-10.7586
▁നിര്‍ബന്ധമാ	-10.7586
▁വൈറൽ	-10.7586
▁അയോധ്യ	-10.7588
▁യാണെങ്കിൽ	-10.7589
▁റായ്	-10.7595
▁ആസ്ഥാനത്ത	-10.7596
ക്രി	-10.7597
▁പിന്തുണയോടെ	-10.7598
▁ബന്ധമുള്ള	-10.76
▁ലയ	-10.7602
▁സെക്കന്‍ഡ	-10.7603
▁വിലയിരുത്തല	-10.7606
▁പറഞ്ഞിരുന്ന	-10.7609
▁ാക	-10.761
▁തടയാന	-10.7611
▁സാരി	-10.7614
▁പോരാട്ടമാണ്	-10.7615
▁യില്ലാതെ	-10.7616
പരിധി	-10.7616
▁കൊണ്ടുവരുന്ന	-10.7623
▁മോഡി	-10.7623
▁മണ്ഡലമാണ്	-10.7623
▁രജ	-10.7624
▁അറബ	-10.7626
▁അകത്ത്	-10.7627
▁പാലിച്ച്	-10.7627
യാണിത്	-10.7628
▁ങ്കി	-10.763
ദീ	-10.763
▁ചെയ്യുന്നതിന	-10.763
▁ഒപ്പമ	-10.7637
▁ക്വാ	-10.7637
▁ശ്വാസ	-10.7638
▁തയ്യാറാണ്	-10.7639
▁ലഭിക്കാത്ത	-10.7643
▁ഉപയോഗപ്പെടുത്ത	-10.7647
▁മുരളീധര	-10.7647
▁ശതമാനത്തില	-10.7647
▁ത്തുന്നത്	-10.7647
▁താനും	-10.7648
▁വിദഗ്ധര	-10.7648
▁പരിഗണിക്കുന്നത്	-10.7649
ാര്‍ത്ഥ	-10.7651
▁ഭീ	-10.7652
▁പകരുന്ന	-10.7655
▁കെഎസ്ആർടിസി	-10.7656
▁പേരാമ്പ്ര	-10.7656
▁ലഭ്യമാണ്	-10.7657
▁ലക്ഷത്തിലധിക	-10.7657
▁വിജയിക്കുമെന്ന	-10.7658
▁പരാജയപ്പെട്ടു	-10.7658
▁കഴുക	-10.7663
▁യില്ലെന്ന	-10.7664
▁പവാറ	-10.7665
▁പ്രതികാര	-10.7666
▁സമൂഹത്തിന്റെ	-10.7667
▁ആന്റി	-10.7667
ാംഗ	-10.7667
▁വിദ്യാര്‍ഥികള്‍	-10.7669
▁അതിവേഗം	-10.767
▁ഇടഞ്ഞ	-10.7672
▁ഘട്ടത്തില	-10.7674
▁കാട്ടി	-10.7676
▁എളുപ്പ	-10.7678
▁യാള്‍	-10.7679
▁ഇതാ	-10.768
▁നാട്ടിലെത്തി	-10.7681
▁വലതു	-10.7681
▁അനിയ	-10.7682
▁വോട്ടര്‍	-10.7684
▁തിരക്ക്	-10.7685
▁ക്രെഡിറ്റ്	-10.7685
▁ഷൻ	-10.7685
▁ിട്ടില്ലെന്നാണ്	-10.7686
▁സ്ഥാപനങ്ങളുടെ	-10.7692
▁ലംഘന	-10.7692
▁അശ്വിന	-10.7694
▁ഭാര്യയെ	-10.7695
▁ചിത്രങ്ങളും	-10.7695
▁കൊണ്ടുപോയി	-10.7695
▁വിഎസ്	-10.7698
▁പൂര്‍ത്തിയാക്ക	-10.7699
▁കിംഗ്	-10.77
▁വന്നിട്ടില്ല	-10.7701
▁ധനസഹായം	-10.7702
▁സാമ്പിളുകള്‍	-10.7703
▁പിടിയിലായത്	-10.7704
▁കടവ	-10.7705
▁രാജ്യമാണ്	-10.7711
▁വിനോദ്	-10.7713
▁പൊലീസിനെ	-10.7714
വാല	-10.7715
▁വരികയാണെന്ന	-10.7716
▁പ്രചരിപ്പി	-10.7717
▁പ്രതിഷേധക്കാര	-10.7719
▁പ്രകാശ	-10.7721
▁B	-10.7722
▁മോള	-10.7723
തിനാൽ	-10.7723
▁അടയ്ക്ക	-10.7724
▁മോഹൻ	-10.7725
▁നടക്കുമെന്ന	-10.7726
▁നാണക്കേട	-10.7727
▁വിപ്ലവ	-10.7727
▁ജിഎസ്ടി	-10.7727
▁ഒരുപക്ഷേ	-10.7727
▁ഡോളർ	-10.7727
▁പാലിക്കുന്ന	-10.7727
▁ഓഡിയോ	-10.7727
▁ഷന്‍	-10.7728
▁ട്രേഡ്	-10.7728
▁മീന	-10.773
▁മാഫിയ	-10.773
▁ഫോഴ്	-10.7732
▁പോകുന്നു	-10.7734
▁ശാ	-10.7735
▁പാസാ	-10.7735
▁പങ്കു	-10.7738
▁പൊതുവെ	-10.7738
▁റൗണ്ട	-10.7744
▁യോഗത്തിന്	-10.7746
▁അടിമ	-10.7749
▁ജെഡിഎസ്	-10.775
▁മുണ്ടായി	-10.7752
▁സെല്‍	-10.7752
▁ആന്ധ്ര	-10.7754
▁ിക്കുന്നത്	-10.7754
▁പ്രതിനിധികള	-10.7755
▁നിത	-10.7756
▁ളും	-10.776
▁കശ്മീര്‍	-10.7767
▁ഓപ്പറേഷന്‍	-10.7768
▁ഒരാളുട	-10.7768
▁നിർദേശിച്ച	-10.7769
▁ക്കെതിരേ	-10.777
▁പറയുകയാണ്	-10.7775
▁ആവശ്യപ്പെടുകയ	-10.7777
▁കാണും	-10.7778
▁ഇവിടെയുള്ള	-10.7781
ന്ധ	-10.7783
▁യുവാക്കളെ	-10.7784
▁അവള്‍	-10.7786
▁നിഷേധിക്ക	-10.7788
▁ക്കര	-10.7789
▁ശുഭ	-10.7793
▁ഷ്	-10.7795
▁ണമെങ്കില്‍	-10.7795
▁മറികടന്ന	-10.7795
▁പതിച്ച	-10.7796
▁നഗ്ന	-10.7798
▁അഭിഷേക്	-10.7798
▁ബാധിക്കും	-10.7798
▁ആന്റിജന	-10.7798
▁പിറന്ന	-10.7798
റിനെ	-10.78
▁പെരുമാറ	-10.7802
▁ഷീ	-10.7804
▁കിരീടം	-10.7804
▁തുടങ്ങുന്ന	-10.7806
▁മാഹി	-10.7808
▁തകര്‍ന്നു	-10.7808
▁ആഞ്ഞടിച്ച	-10.7814
സമയം	-10.7816
വേണ്ടി	-10.7816
ബു	-10.7819
▁ഉണ്ടാകാ	-10.7819
▁നിത്യ	-10.7821
▁നയങ്ങള	-10.7824
വട്ടെ	-10.7825
▁തൊട്ടു	-10.7829
ർട്ട	-10.783
▁ഒന്നില	-10.7831
▁20,	-10.7833
▁ഗ്രാമിന്	-10.7838
▁ബോസില	-10.7842
▁ആദിത്യനാഥ്	-10.7842
▁മോട്ടോ	-10.7846
പ്രതീക്ഷിക്കുന്ന	-10.7849
▁സിഐ	-10.7849
▁ടാക്	-10.785
▁തായിരിക്കും	-10.7851
▁കണക്കിന	-10.7854
ത്തര	-10.7856
▁ചെയ്തിട്ടുള്ളത്	-10.7858
▁മലപ്പുറത്ത്	-10.7858
▁റെയിൽ	-10.7861
▁പിന്തുണയ്	-10.7862
▁വൈറ്റ	-10.7862
▁സാഹചര്യമാണ്	-10.7864
▁700	-10.7865
▁തിയ്യതി	-10.7869
▁സുഭാഷ്	-10.7869
▁തകര്‍ച്ച	-10.7869
▁ഭാഗത്തു	-10.7869
▁കൂട്ടുകെട്ട	-10.7869
▁കൈക്കൊള്ള	-10.787
▁ഇസ്ലാമി	-10.787
▁റാണ്	-10.7871
▁പുരോഗമിക്കുകയാണ	-10.7871
ഷണല്‍	-10.7872
▁അഭിനന്ദന	-10.7874
▁തോന്നുന്നു	-10.7878
▁പെക്ടര്‍	-10.7878
▁പോലുമില്ല	-10.788
▁എത്തിച്ചേര	-10.788
▁ാവശ്യപ്പെട്ട	-10.7885
▁സഫ	-10.7888
▁ആദിത്യ	-10.7889
▁ചെയ്യാത്ത	-10.7889
▁നൊപ്പം	-10.7891
▁നിഷേധ	-10.7891
▁തിരിച്ചെത്ത	-10.7891
▁അങ്ങനെയാണ്	-10.7893
▁വളർത്ത	-10.7894
▁യിട്ട	-10.7903
▁ിട്ടാണ്	-10.7909
▁ആസ്ഥാനമായ	-10.791
▁അപ്രതീക്ഷിതമായി	-10.7915
▁ആക്രമണത്തിന്	-10.7916
▁ആയത്	-10.7916
▁നഗറില	-10.7919
▁വോട്ടുകളാണ്	-10.7923
▁ഒഴിവാ	-10.7923
▁ടൂ	-10.7928
▁മരിക്കുന്ന	-10.7929
▁ഹമാസ്	-10.793
▁സർവ്വ	-10.7931
▁പീഡനം	-10.7931
ല്ലൂര്‍	-10.7931
▁യുണ്ടായിരുന്നു	-10.794
▁തൊഴിലില്ലായ്മ	-10.7941
▁മര്യാദ	-10.7941
▁മോഹൻലാൽ	-10.7941
▁ആകര്‍ഷി	-10.7941
▁നേപ്പാള	-10.7941
▁വെള്ളപ്പൊക്ക	-10.7941
▁യൂറോപ്യ	-10.7941
▁മന്ത്രിസ്ഥാനം	-10.7941
▁തങ്ക	-10.7941
▁ഡയറക്ടറേറ്റ	-10.7942
▁ജപ്പാന	-10.7942
▁ഉദ്ദേശിച്ച	-10.7942
തന	-10.7942
▁വോട്ടുകളും	-10.7943
▁ഗ്രൗണ്ട	-10.7943
വേലി	-10.7943
▁അഥവ	-10.7944
▁ഉണ്ടാക്ക	-10.7944
▁സാധ്യതകള്‍	-10.7944
▁മോഡല്‍	-10.7947
▁പൂർണ	-10.7948
▁അകല	-10.7948
▁മണിക്കുട്ടന്‍	-10.7949
▁തെറ്റിദ്ധരിപ്പി	-10.7949
പ്പാട്	-10.7951
▁അങ്ങോട്ട	-10.7952
▁എപി	-10.7952
▁പുത്തന്‍	-10.7952
▁പരമ്പര	-10.7956
▁മിന	-10.7956
▁സംവിധായകൻ	-10.7957
▁ഡേറ്റ	-10.7957
▁എന്തിന്	-10.7958
▁പ്രയോജന	-10.7958
▁ിംഗ്	-10.7959
▁ആക്	-10.7959
▁സംഘടനകളുടെ	-10.7962
▁കോടിയില	-10.7966
▁സ്ത്രീകൾക്ക	-10.7967
▁ജനപ്രതിനിധികള	-10.7969
▁പൂരില	-10.7969
▁സിറ്റ്	-10.797
ഷ്ണ	-10.7971
▁ഗ്രാമപഞ്ചായത്ത	-10.7971
ണിയ	-10.7971
▁26,	-10.7974
▁മധുര	-10.7976
▁റോബ	-10.7978
▁തിരിച്ചെത്തി	-10.7978
▁ഇതെന്ന	-10.7978
ഢ	-10.7979
▁ഒഴിയ	-10.7979
▁നടത്തുകയാണ്	-10.7981
▁വിഷം	-10.7981
▁സിബി	-10.7989
താര	-10.799
▁ഭക്ത	-10.7995
▁കൊണ്ടുവന്നത്	-10.7996
▁അനുകൂലമായി	-10.7997
▁കിട	-10.7998
▁സാധിക്ക	-10.7998
▁നിർമാണ	-10.7998
▁കഴിഞ്ഞത്	-10.8
▁പന്തില	-10.8
▁അനുവദിക്കുക	-10.8
▁ബഹ്	-10.8004
▁രൂപീകരിക്ക	-10.8004
▁ശിവശങ്കറ	-10.8005
യാക്കി	-10.8006
▁ഗ്രൂപ്പുകള	-10.8009
▁വ്യത്യാസം	-10.801
▁ഓക്സിജൻ	-10.8013
▁പ്രവണത	-10.8013
▁ട്രാഫിക്	-10.8014
▁തുലാം	-10.8014
മാണിത്	-10.8014
▁പ്രോഗ്രാം	-10.8014
▁ചെറുപ്പക്കാര	-10.8014
▁പട്ടിണി	-10.8014
▁എസ്എഫ്ഐ	-10.8015
▁ഫാക്ടറി	-10.8015
പ്പെട്ടത്	-10.8017
▁കോളജ	-10.8021
▁തീര്‍ച്ച	-10.8025
▁വാര്‍ത്തകള	-10.8028
▁കുടുംബത്തിന	-10.8028
▁ടാങ്ക	-10.8029
▁എതിർപ്പ	-10.8031
▁മാറിയത്	-10.8032
▁അഴിച്ചു	-10.8032
▁ആരൊക്കെ	-10.8036
▁110	-10.8036
ംബര	-10.8036
▁ലൗ	-10.8043
ുടമ	-10.8045
▁വാങ്ങാ	-10.8045
▁തെറി	-10.8051
▁ഇക്കാര്യങ്ങള്‍	-10.8053
▁ആഭരണ	-10.8054
▁നാക	-10.8056
▁പ്പെടുത്തി	-10.8057
▁എന്തെങ്കിലു	-10.806
▁ഏക്ക	-10.8061
▁കവിത	-10.8061
ക്കൊടി	-10.8062
▁ഏതൊര	-10.8062
▁ചടങ്ങുകള്‍	-10.8063
▁അവന്‍	-10.8064
▁എങ്ക	-10.807
▁ഡയറക്ടറ	-10.8071
▁സംഭവങ്ങൾ	-10.8071
▁പ്രതിമാസം	-10.8074
▁റാവത്ത്	-10.8075
▁സമൂഹത്തില്‍	-10.8076
▁യുവാക്കള്‍	-10.8076
▁ആരെ	-10.8077
▁ക്കാരും	-10.8079
▁23,	-10.8079
▁ലിനെ	-10.8079
▁മാറ്റുക	-10.8086
▁ഉത്തര്‍പ്രദേശ്	-10.8086
▁അങ്ങേയറ്റ	-10.8086
▁ഇതുപോലെ	-10.8088
▁സ്ത്രീധന	-10.8088
▁സ്വപ്നം	-10.8088
▁പ്രസ	-10.809
▁രുചി	-10.8091
▁ഗൗത	-10.8091
▁ത്തിനായ	-10.8092
▁കസ്റ്റഡിയിലെടു	-10.8092
▁ലേബ	-10.8092
▁ഹെൽത്	-10.8093
▁..!	-10.8094
▁വിമാനങ്ങള്‍	-10.8098
▁യാവ	-10.8098
▁യാകുന്ന	-10.81
▁മരം	-10.8101
▁വൈറലായി	-10.8105
▁ടൈംസ്	-10.8106
▁22,	-10.8106
▁രണ്‍	-10.8112
▁കച്ചവടം	-10.8116
▁ലിന്	-10.8116
▁തൊഴിലാളികൾ	-10.8116
▁തറ	-10.8117
▁മാതാപിതാക്കള	-10.8118
▁ഗൂഗിള	-10.8123
▁ചെലുത്ത	-10.8123
▁താല്‍പര്യമില്ല	-10.8125
▁ഇതിനിടയില	-10.8126
▁എടുക്കേണ്ട	-10.8126
▁പരിശോധനകള്‍	-10.8127
▁നിരീക്ഷണത്തിൽ	-10.8127
ഗിരി	-10.8128
▁അതിവേഗ	-10.8129
ാർത്ഥ	-10.8129
യാത്ര	-10.8132
വര്‍ക്കെതിരെ	-10.8135
പ്പടി	-10.8135
▁ലൈസൻസ	-10.8136
▁െടുക്കുന്ന	-10.8137
▁മുണ്ടായിരുന്നു	-10.8139
▁വ്യക്തികള്‍	-10.814
▁പോസ്	-10.8141
▁തടയുന്നതിന	-10.8142
ങ്ക്	-10.8142
▁ഏർപ്പെടുത്ത	-10.8143
▁ഡോക്ടര്‍മാര	-10.8145
▁കോള്‍	-10.8145
▁വൈകി	-10.8147
▁ബയോ	-10.8147
▁നൈ	-10.8148
▁തൈ	-10.8148
▁ഒരുക്ക	-10.8149
▁ഉള്ളവർ	-10.815
▁കുഴ	-10.8153
▁ഈസ്റ്റ്	-10.8156
പാത	-10.8159
▁കൂട്ടിച്ചേർ	-10.8159
▁ബഹിഷ്	-10.816
▁പാണ്ഡ്യ	-10.816
▁സപ്ലൈ	-10.816
▁താങ്കൾ	-10.816
▁മറുവശത്ത്	-10.816
▁അന്‍വര്‍	-10.816
▁പടരുന്ന	-10.8161
▁ഉണ്ടോ	-10.8162
▁ശ്രദ്ധയിൽ	-10.8162
▁ളാ	-10.8167
▁സംസാരിച്ചത്	-10.8171
▁മറികടന്ന്	-10.8173
▁സജ്ജമാക്ക	-10.8175
▁ജോസ	-10.818
▁ഹാജരാക്കിയ	-10.8185
▁ഡൗണ	-10.8186
▁പരിഗണിക്കും	-10.8186
▁നിര്‍മ്മാണം	-10.8189
▁യുമ	-10.8194
▁യാകുമെന്ന	-10.82
▁ഫോം	-10.8207
▁ക്കപ്പെട	-10.821
▁തേടുന്ന	-10.8211
▁നീക്കിയ	-10.8213
▁അല്ലേ	-10.8215
▁ോട	-10.8216
▁അപമാന	-10.8219
▁ഇഷ്ടം	-10.8222
▁3000	-10.8224
▁കുരുക്ക	-10.8225
▁െത്തിയ	-10.8228
▁പാക്കേജ	-10.8231
▁വർധനവ	-10.8233
▁ഇസ്ലാമിക	-10.8233
▁കേട്ടു	-10.8233
▁പ്രചോദന	-10.8234
▁രാജ്യദ്രോഹ	-10.8234
▁മിഷൻ	-10.8237
▁ഹോട്ടല്‍	-10.8237
കരണ	-10.8238
▁ഓപ്പണ	-10.8242
▁ാൻ	-10.8242
▁വോട്ടിംഗ	-10.8242
▁ലഭിക്കാന്‍	-10.8245
▁പയ്യ	-10.8245
▁തൊണ്ട	-10.8246
▁സോണ്‍	-10.8247
▁ശ്രദ്ധേയമായ	-10.8249
റ്റുകള്‍	-10.825
▁അംബാനിയുടെ	-10.8251
▁ക്കെല്ലാം	-10.8254
▁ചന്ദ്രന	-10.8257
▁എന്തോ	-10.8264
▁പാലിക്കുക	-10.8265
▁കോട	-10.8265
▁േക്ക	-10.8267
▁കൊല്ലത്ത്	-10.8267
▁മന്ത്രിയായ	-10.8268
▁മണിക്ക	-10.8269
▁പറയാനുള്ളത്	-10.827
▁സമ്മാനമായ	-10.8273
വിദ്യാഭ്യാസ	-10.8274
▁ിരുന്നെങ്കില്‍	-10.8275
▁പ്പു	-10.8277
▁ഇഷ്ടമ	-10.8277
▁ഹിന്ദുക്കള	-10.828
പ്രകാരം	-10.8284
▁ആചാര	-10.8293
▁കരഞ്ഞ	-10.8299
▁ഫോണുകള	-10.8301
▁പൂച്ച	-10.8302
▁വിനു	-10.8303
▁സ്വീകരിക്കാന്‍	-10.8304
▁കേള്‍ക്കുന്ന	-10.8304
▁പത്മ	-10.8306
&	-10.8309
ദുരന്തനിവാരണ	-10.8309
▁ഇസ്രയേല	-10.8309
▁ബന്ധമുണ്ടെന്ന	-10.8309
▁തുര്‍ക്കി	-10.8309
ഗുസ്തി	-10.831
▁ശർമ്മ	-10.831
▁ബെന്നി	-10.8311
▁പ്രതാപ	-10.8311
▁തമിഴ്നാട്ടില	-10.8312
▁നാമ	-10.8312
▁കോടിയോളം	-10.8312
▁സാധിക്കാത്ത	-10.8313
▁കുമാറും	-10.8313
▁09	-10.8314
▁വാഹനത്തില്‍	-10.8316
▁വിമര്‍ശനവു	-10.8318
▁പാര്‍ട്ടികളുടെ	-10.8322
▁25,	-10.8322
▁കേരളീയ	-10.8323
▁കവി	-10.8325
▁പെണ്ണ	-10.8326
▁സഹായിക്കാന	-10.8328
▁കോപ്പി	-10.833
▁റിനോഷ്	-10.833
പ്രകാരമാണ്	-10.8333
▁ജീവനക്കാരന	-10.8334
▁തില്ലെന്ന	-10.8335
സിപ്പാലിറ്റി	-10.8336
▁വിലക്ക	-10.8336
▁മനസ്സിലാക്കിയ	-10.8337
▁വേട്ട	-10.8337
▁140	-10.8338
▁സാഹ	-10.8338
▁ക്കേണ്ടത്	-10.834
▁യിലേ	-10.8342
▁പ്രതികൂല	-10.8345
▁ഉണ്ടാവുമെന്ന	-10.8346
▁ടിപി	-10.8347
▁കൈമാറ	-10.8348
▁നിറയ	-10.8351
▁പ്രവാസികള്‍	-10.8351
ഖി	-10.8356
▁നീണ്ടു	-10.8359
an	-10.8359
▁വീട്ടുകാര്‍	-10.8363
▁വീട്ട	-10.8364
സംഖ്യ	-10.8368
▁പരാമർശം	-10.8368
▁കുറ്റി	-10.8375
▁മൂടി	-10.8376
▁പുറത്തെടുത്ത	-10.8376
▁സിപിഎമ്മും	-10.8377
▁വിലയ	-10.8378
▁ബജറ്റില	-10.8379
▁യുഡിഎഫിന	-10.838
▁ട്വിറ്റര്‍	-10.8384
▁ബ്രാഹ്മണ	-10.8384
▁സെൻട്ര	-10.8384
▁നവീകരണ	-10.8385
▁റാങ്ക്	-10.8385
വേലിക്കര	-10.8385
▁റെയില്‍വെ	-10.8385
▁ബ്രാന്‍ഡ	-10.8388
▁സംഭരണ	-10.8389
▁ചെയ്യലിന	-10.8389
▁മദ്യപിച്ച	-10.8391
▁ങ്ങൾക്ക്	-10.8391
▁റദ്ദാക്കി	-10.8392
▁തുറക്കുന്ന	-10.8392
▁ിക്കാം	-10.8394
മത	-10.8398
▁വാര്‍	-10.8399
▁പക്ഷി	-10.84
▁പ്രസിദ്ധീകരി	-10.8404
▁നിയമത്തില	-10.8405
ക്കാലം	-10.8406
▁ലിംഗ	-10.8408
▁അലര്‍ട്ട്	-10.8408
▁രക്ഷപ്പെടാന	-10.8409
▁രാധാകൃഷ്ണന്‍	-10.8409
▁അള	-10.8409
▁ബാന	-10.8412
▁യായിട്ട	-10.8414
▁അപ്പീല	-10.842
▁മധ്യപ്രദേശില	-10.842
സര്‍ക്കാരിനെതിരെ	-10.8428
▁സംരക്ഷിക്കാന	-10.8428
▁പിതാവിന	-10.8429
▁മുറിയില്‍	-10.843
▁ഭരണത്ത	-10.8436
▁യുമായും	-10.8441
▁ദൗത്യം	-10.8441
▁ഉണ്ടാവില്ല	-10.8444
ദു	-10.8448
തിനൊപ്പം	-10.845
▁ട്രെയിനി	-10.8452
▁ബുദ്ധിമുട്ട്	-10.8453
▁സ്പെഷ്യ	-10.8454
▁നിബന്ധന	-10.8455
▁കൺട്രോ	-10.8456
▁മാറ്റണമെന്ന	-10.8458
▁കൊട്ടാര	-10.8459
▁കൃത്രിമ	-10.846
▁തിരുവമ്പാടി	-10.846
▁സ്രവ	-10.846
▁ത്തന്നെ	-10.846
▁സേഫ്	-10.8461
▁എല്‍ജെപി	-10.8462
ിപ്പോള്‍	-10.8466
▁റദ്ദാക്ക	-10.8466
▁സംസാരിക്കുന്നത്	-10.847
ിറങ്ങിയ	-10.8471
▁മത്സരിക്കും	-10.8473
▁തെളിവുകൾ	-10.8474
ഏഴാം	-10.8475
ുണ്ടായിരുന്നു	-10.8476
▁നിയമസഭയിൽ	-10.8478
▁വിഷയങ്ങള്‍	-10.8482
▁ബന്ദ	-10.8484
വച്ച	-10.8485
▁സ്ഥ	-10.8485
▁സീരിയല	-10.8487
▁സംഘപരിവാര്‍	-10.8488
▁അനുവദിച്ചു	-10.8489
▁പ്രതികരിക്കുന്ന	-10.8492
▁ലോകത്ത	-10.8497
▁കശ്മീര	-10.8497
▁പഠിപ്പിക്ക	-10.8498
യാട്	-10.85
▁പ്രകട	-10.8505
പ്പാറ	-10.8508
▁ക്കാള	-10.8511
▁സല്‍മാന്‍	-10.8511
▁മാതാപിതാക്കള്‍	-10.8522
▁കൂടുതല	-10.8526
▁ഉപയോഗിക്കാന	-10.8532
▁ഇന്ത്യക്കാര്‍	-10.8536
▁കൂത്തുപറമ്പ	-10.8536
▁ത്തുടര്‍ന്ന	-10.8536
▁യൂണിവേഴ്സിറ്റി	-10.8536
▁സൂചിക	-10.8536
▁അണിയറ	-10.8536
▁പതിനെട്ട	-10.8536
▁ഇമേജ	-10.8537
▁പറയണമെന്ന	-10.8537
on	-10.8537
ിക്കുമോ	-10.8539
▁മറച്ചു	-10.8539
▁ഹര്‍ജിയില	-10.854
▁പാനല	-10.854
▁സര്‍ട്ടിഫിക്ക	-10.8542
▁നോക്കുന്ന	-10.8543
▁ഖാൻ	-10.8545
▁l	-10.8547
▁അവഗണിച്ച	-10.8547
▁പോര്‍ട്ട	-10.8548
▁അം	-10.8549
▁രാജന്‍	-10.8551
▁in	-10.8551
▁ഗ്രീ	-10.8553
▁ുവ	-10.8556
കളാണ്	-10.8557
▁24,	-10.8565
▁തീവ്രത	-10.8565
▁പ്രക്ഷോഭം	-10.8566
▁ഉള്ളതെന്ന	-10.8566
▁ഇള	-10.8567
▁പറമ്പില്‍	-10.8567
▁കഴിഞ്ഞിരുന്ന	-10.8574
ഫോർട്ട്	-10.8574
▁പോയിരുന്നു	-10.8576
▁കോർ	-10.8576
▁വ്യക്തമാകുന്ന	-10.8578
▁ബാര്‍	-10.8578
▁കണ്ടെത്തല്‍	-10.8581
▁ഫലപ്രദമായ	-10.8581
▁പെണ്‍കുട്ടികള്‍	-10.8583
▁കുറയും	-10.8584
▁െത്ത	-10.859
▁ാണു	-10.8593
▁ശ്രമമാണ	-10.8594
ാകുമെന്ന	-10.8594
▁ഒത്തു	-10.8595
▁റിയാസ	-10.8595
▁മിസൈ	-10.8597
ക്കഴിഞ്ഞു	-10.8598
▁അർഹ	-10.8599
▁സാധിക്കുക	-10.8599
▁സമയവും	-10.8601
▁പിഎസ്	-10.8604
പ്തി	-10.8605
▁അനുഭവപ്പെട	-10.861
▁തൃണമൂൽ	-10.8613
▁ദുഃഖ	-10.8613
▁കോണ്‍സുലേറ്റ	-10.8613
▁2010	-10.8613
▁തിരിച്ചുവരവ	-10.8613
▁ശ്രുതി	-10.8613
▁കണ്ടിട്ട	-10.8614
▁ഗ്യാസ്	-10.8614
▁യൂസഫലി	-10.8614
▁ട്രേഷന്‍	-10.8615
▁എന്നിവിടങ്ങളിലെ	-10.8616
▁വിളിപ്പിച്ച	-10.8616
▁ചര്‍ച്ചകള	-10.862
മായിരിക്കും	-10.8623
കളുമായി	-10.8625
▁പ്പറ്റി	-10.8626
േക്കാള്‍	-10.8626
▁അവസ്ഥയാണ്	-10.8628
▁ശതമാനമായി	-10.863
▁ഇന്ദിരാ	-10.8631
▁സഹകരണം	-10.8631
▁അവകാശപ്പെടുന്ന	-10.8641
▁ചന്ദ്രന്‍	-10.8643
▁നടു	-10.8643
▁െടുക്കാന	-10.865
ൻസി	-10.8651
പ്പെടു	-10.8654
▁എഞ്ചിനീയറിംഗ	-10.8654
▁പ്രതിമ	-10.8655
▁പരിസരത്ത്	-10.8657
▁(5	-10.8658
▁വിവാദങ്ങള	-10.8658
▁അക്	-10.866
▁നിന്നായി	-10.8662
▁കടിച്ച	-10.8662
സ്ഥിരീകരണ	-10.8662
▁ഗ്രാമത്തില	-10.8664
▁പറമ്പ	-10.8664
▁വന്നാലും	-10.8673
▁വര്‍ഷങ്ങള്‍ക്ക	-10.8674
ങ്ങിയ	-10.8674
ar	-10.8676
▁കട്ടി	-10.8676
▁നയിച്ചത്	-10.8682
▁ഒഴിഞ്ഞു	-10.8686
▁ിക്കപ്പെട്ട	-10.8687
▁നല്ക	-10.8687
▁കുടുംബാംഗ	-10.8688
▁പരിശോധിക്കാന	-10.8688
▁ഡിവൈഎഫ്	-10.8689
▁ഓട്ടോറിക്ഷ	-10.869
▁രാജസ്ഥാൻ	-10.869
▁അച്ഛൻ	-10.869
▁ഡോക്ടർമാർ	-10.8692
▁ശക്തികള	-10.8696
മാരുടെ	-10.8705
ൂൺ	-10.8706
▁ബാഗ്	-10.8707
▁നടന്നതെന്ന	-10.8707
▁ആക്രമണങ്ങള	-10.8713
കുല	-10.8714
▁ഗ്രൂപ്പുകള്‍	-10.8722
▁ിക്കണം	-10.8724
വാദി	-10.8724
▁നീക്കങ്ങൾ	-10.8725
▁ഇതിനുള്ള	-10.8726
▁കുടുംബത്തില്‍	-10.8728
▁ചുഴലിക്കാറ്റ്	-10.8732
▁ചേരും	-10.8732
▁മുഹമ്മദ	-10.8734
▁ഇടിവ	-10.8736
M	-10.8737
▁മന്ത്രിയെ	-10.8737
▁യാത്രക്കാര്‍	-10.874
▁നെഗറ്റീവ	-10.8741
▁പൂരം	-10.8744
▁നായർ	-10.8744
▁കിരണ്‍	-10.8748
▁വര്‍ഷവും	-10.8748
▁വർക്കും	-10.8753
▁താത്പര്യ	-10.8755
▁വേണമെങ്കിലും	-10.8755
നിര	-10.8756
▁വിലയിരുത്തുന്നത	-10.8756
ക്കാല	-10.8757
▁അവാര്‍ഡ്	-10.8761
▁വേലി	-10.8762
▁ഷോട്ട	-10.8764
▁മൂത്ത	-10.8764
▁ബന്ധപ്പെട	-10.8766
▁ചര്‍ച്ചയില	-10.8766
▁റ്റില്‍	-10.8767
▁മീറ്റ	-10.8767
▁വികസനത്തിന്	-10.8768
▁അണുബാധ	-10.8768
▁ഷാരൂഖ	-10.8768
▁വെല്‍ഫ	-10.8769
▁ആവശ്യകത	-10.8769
▁ഗണ്യമായ	-10.8769
▁പകർപ്പ	-10.8769
▁ഉടലെടുത്ത	-10.8772
▁കണ്ടാല	-10.8772
▁പിൻവലിച്ച	-10.8773
▁ഉണ്ടെങ്കില്‍	-10.8774
▁ബാദ	-10.8775
▁ക്വാറന്റൈനില	-10.8775
▁ക്രൂരത	-10.8777
▁റോയി	-10.8777
▁കൂലി	-10.8777
▁വീണത്	-10.8777
▁സ്ഥാനാര്‍ഥികള	-10.8778
തയ്യാറായിട്ടില്ല	-10.8778
▁ഓപ്ഷന	-10.8779
▁പ്രവാസികള	-10.878
▁ഉത്തരാഖണ്ഡ്	-10.8784
▁സ്റ്റാഫ	-10.8784
▁പൊതുജനങ്ങള്‍	-10.8784
▁സ്റ്റി	-10.8785
നിര്‍ദ്ദേശങ്ങള്‍	-10.8787
▁D	-10.8787
ുയര്‍ന്ന	-10.8789
▁ബോക്	-10.8789
▁നടത്തേണ്ട	-10.879
▁പിടിച്ചെടുക്ക	-10.8791
▁ചേരുമെന്ന	-10.8791
▁സൈന്യ	-10.8792
▁പ്പോല	-10.8792
▁മണ്ഡലമായ	-10.8796
▁തായ്	-10.8796
▁തുപോലെ	-10.8798
▁സിപിഎമ്മിന	-10.8802
▁എതിരാളികള	-10.8804
▁മലയാളികൾ	-10.8805
േണ്ടതില്ല	-10.8808
▁പേഴ്	-10.8809
▁വകഭേദം	-10.8809
▁ട്രേ	-10.881
▁ലക്ഷ്യമിടുന്ന	-10.8811
▁ആശാ	-10.8822
▁കാശ	-10.8824
ീരിയ	-10.8825
▁പ്രേക്ഷക	-10.8825
▁ലാബ്	-10.8827
ല്യൺ	-10.8828
▁ആരാണെന്ന	-10.8828
കാവ്	-10.8828
▁നൽകേണ്ട	-10.8828
▁ശുക്രന	-10.8841
മൂല	-10.8841
▁ആണ്‍കുട്ടി	-10.8842
▁താമസിച്ചിരുന്ന	-10.8842
▁ഏർ	-10.8845
▁m	-10.8845
▁മേഖലകളിലും	-10.8845
▁കണ്ടിരുന്നു	-10.8846
▁ദീര്‍ഘ	-10.8847
▁യാഥാർത്ഥ്യ	-10.8847
▁വിഴിഞ്ഞ	-10.8847
▁തോൽവി	-10.8847
▁പരുക്കേറ്റ	-10.8847
▁റോയല്‍	-10.8847
▁ക്ലസ്റ്റര്‍	-10.8848
▁കുറുപ്പ	-10.8848
▁മാര്‍ഗ്ഗ	-10.8848
▁അംഗങ്ങളായ	-10.8849
▁കയറുന്ന	-10.8849
▁സാബു	-10.8852
▁ജോജു	-10.8853
▁ദുരൂഹത	-10.8854
▁ചൂട്	-10.8857
▁അനന്ത	-10.8857
▁ഹാഷ്	-10.8858
▁ഗോള്‍ഡ	-10.8858
▁കാലത്തും	-10.8858
▁പൈലറ്റിന	-10.8859
▁സ്വദേശിയാണ്	-10.8862
▁കമ്പനിയായ	-10.8865
▁ഒഴിവാക്കുക	-10.8866
▁ചിദംബരം	-10.8867
▁സ്ത്രീകള	-10.8868
▁തീരുമാനമെടുത്ത	-10.8868
▁ഒഴിച്ച	-10.8868
▁ബാലകൃഷ്ണന്‍	-10.8869
▁വിദേശത്തു	-10.887
▁കിസാ	-10.8873
▁പാര	-10.8875
▁ക്യു	-10.8878
വ്വ	-10.888
▁മന്ത്രിമാരുടെ	-10.888
▁കീഴ്	-10.8885
▁മികവ്	-10.8885
▁ഇപ്പോഴുള്ള	-10.8885
▁സമ്മതി	-10.8887
▁പോസ്റ്റിൽ	-10.8888
▁പുറത്തും	-10.8895
▁വമ്പ	-10.8895
▁ചെയ്യുന്നതെന്ന	-10.8898
ആര്‍ടിസ	-10.8899
▁തുറക്കാന	-10.8907
▁പൂര്‍ണ്ണ	-10.8908
▁വോട്ടെണ്ണ	-10.8913
▁ഡിവിഷന്‍	-10.8914
▁പെണ്‍കുട്ടിയ	-10.8917
▁പരിഹാസ	-10.8918
▁നെടു	-10.892
▁കുതിര	-10.8922
▁മൈക്ക	-10.8924
▁കണക്കു	-10.8924
▁കോര്‍പ്പറേഷന	-10.8925
▁ബാറ്റിംഗ	-10.8927
▁തള്ളിക്കളയ	-10.8927
▁തൊട്ടുപിന്നാലെ	-10.8927
▁എന്‍ഫോഴ്	-10.8927
▁മുൻഗണന	-10.8927
▁ശുപാർശ	-10.8927
▁നിറവേറ്റ	-10.8927
▁വര്‍ധിക്കും	-10.8929
▁പാക്കേജ്	-10.893
▁രുതെന്ന	-10.8931
ിക്കപ്പെട്ട	-10.8932
നിധി	-10.8932
വാദ	-10.8935
▁ഇവിടുത്ത	-10.8936
▁കൂട്ടത്തോടെ	-10.8936
▁നാലാമ	-10.8938
സ്വീകരിക്കണമെന്ന	-10.8941
▁ട്രി	-10.8941
▁ഒഴിവാക്കണമെന്ന	-10.8941
▁എതിർത്ത	-10.8942
ക്ഷൻ	-10.8945
▁കോടിയാണ്	-10.8946
▁ആവശ്യമാണെന്ന	-10.8952
▁ച്ചത്	-10.8953
▁ങ്ങി	-10.8957
▁തൊ	-10.8957
▁നീക്കമാണ	-10.8959
▁പയ്യന്നൂര്‍	-10.896
▁പറയാനുള്ള	-10.896
▁മറ്റാര	-10.896
▁പിഎം	-10.8961
▁ഗുണ്ടാ	-10.8961
▁തയ്യാറാക്കുന്ന	-10.8962
▁കേൾക്ക	-10.8963
▁ുമെല്ലാ	-10.8964
▁ഹോട്ടലില്‍	-10.8964
▁പ്രവാസികള്‍ക്ക	-10.8966
▁വാണ്	-10.8967
▁പൈപ്പ	-10.8969
വസ്തു	-10.8977
▁യുക്രൈ	-10.8977
▁ലഭ്യമാക്കുന്ന	-10.8982
ക്കാവുന്ന	-10.8982
▁ഐസി	-10.8983
▁ചവിട്ടി	-10.8987
▁സമരത്തിന്	-10.8994
▁വിവാദങ്ങള്‍	-10.8996
ക്കുകയായിരുന്നു	-10.8996
▁സിഖ	-10.8999
▁കിരീട	-10.8999
▁മാധ്യമപ്രവർത്തക	-10.9
▁വേളയില	-10.9002
▁നേതാക്കളാണ്	-10.9005
▁ശരിയല്ല	-10.9005
▁റിസ്	-10.9006
15	-10.9006
▁ജനപ്രീതി	-10.9007
▁എന്‍ജിനീയര്‍	-10.9007
▁കൊയിലാണ്ടി	-10.9007
▁സൗന്ദര്യ	-10.9007
▁കേന്ദ്രസർക്കാര	-10.9007
▁സിഇഒ	-10.9007
▁തിവാരി	-10.9007
▁റിമാന്‍ഡ	-10.9007
▁ഉള്‍ക്കൊള്ള	-10.9007
▁നശിച്ച	-10.9007
▁ഷിബു	-10.9007
▁വളര്‍ന്ന	-10.9007
▁ശര്‍മ്മ	-10.9007
▁സോമ	-10.9008
▁ഗുലാം	-10.9008
▁മഹേഷ്	-10.9009
ാലോചന	-10.9009
▁മേഘ	-10.9009
▁രംഗത്തു	-10.9009
▁ത്തിലാ	-10.9009
▁ഷിപ്പ	-10.901
▁അറിയിക്കുന്നു	-10.901
▁സുരേന്ദ്രനെ	-10.9012
▁ചൂഷണ	-10.9013
▁നൽകണം	-10.9014
▁സൂചനയുണ്ട	-10.9014
▁വിഹിത	-10.9015
▁വിവാഹിത	-10.9015
▁ഹിറ്റ്	-10.9017
▁ഹജ്ജ	-10.9017
▁ശരീരം	-10.9018
▁ഒന്നിച്ച്	-10.9019
▁വയ്	-10.9021
▁ദമ്പതികള	-10.9022
▁യിലെത്തി	-10.9023
▁ക്കൊപ്പമ	-10.9023
▁രാജ്യസഭയില	-10.9023
▁സിസ്റ്റം	-10.903
▁സതീഷ	-10.9033
▁സംവിധാനങ്ങള്‍	-10.9035
▁അറിയില്ലെന്ന	-10.9038
▁വിദഗ്ധര്‍	-10.9038
▁വടക്ക്	-10.9038
▁ചാര്‍ജ്	-10.904
▁വകുപ്പുകൾ	-10.9041
പള്ളി	-10.9042
▁അഴീക്കോട്	-10.9043
▁സിനേഷന	-10.9046
▁സംഘങ്ങള	-10.9046
▁എഐ	-10.9046
▁സോറ	-10.9049
▁പ്രധാനം	-10.9049
▁ആണോ	-10.905
▁കുമ	-10.9052
▁മൗനം	-10.9053
▁യുണ്ടാവ	-10.9055
▁ബലി	-10.9055
▁തസ്തികകളിലേക്ക	-10.9057
▁വെന്ന്	-10.9058
▁തിരുവ	-10.9062
▁ഗോപിക	-10.9068
▁അയ്യപ്പ	-10.9071
▁രാജിവെക്ക	-10.9072
▁പോട്ട	-10.9073
▁ബിജെപിയിൽ	-10.9075
▁കടത്തി	-10.9084
▁(28)	-10.9087
▁വയസുകാരി	-10.9087
▁ദിൽഷ	-10.9087
▁ചുരുങ്ങിയ	-10.9087
▁ഫ്ലാറ്റ	-10.9087
▁യോജിച്ച	-10.9088
▁ഏകദിന	-10.9089
▁സ്വാധീനമ	-10.909
▁സജ്ജമാക്കിയ	-10.9091
▁ജോര്‍ജ്ജ്	-10.9092
ക്കടവ്	-10.9092
ആ	-10.9094
▁പരാജയപ്പെടുത്ത	-10.9094
▁ശിവന്‍കുട്ടി	-10.9095
▁വാര്‍ഡുകള	-10.9097
▁ഐഡി	-10.9097
ോളജി	-10.9098
▁പരിയാരം	-10.9099
യെടു	-10.91
▁വിശദീകരിക്കുന്ന	-10.9101
▁അഭ്യൂഹ	-10.9103
▁കുട്ടികളും	-10.9104
▁മുകേഷ	-10.9105
▁കിറ്റ്	-10.9107
▁കീഴടങ്ങ	-10.9108
▁മുഖ്യമന്ത്രിയായ	-10.9108
▁പരിശോധനാഫലം	-10.9108
▁ഘടകങ്ങള	-10.911
▁ഹര്‍	-10.9112
▁രണ്ടാമത	-10.9113
▁ൂര്‍	-10.9114
▁സമർപ്പി	-10.9116
▁കണക്കാക്കുന്നത്	-10.9119
▁ഉള്ളൂ	-10.912
▁ഇമ്രാന	-10.9123
▁ജയരാജ	-10.9124
▁അസോസിയേഷ	-10.9125
▁രോഗങ്ങള	-10.9125
▁ബാരല	-10.9128
പടി	-10.9131
▁നഷ്ടമായി	-10.9133
▁അല്ലെന്ന	-10.9135
െയിൻ	-10.9138
ാരംഭ	-10.9138
▁നല്‍കിയെന്ന	-10.9138
▁മറവ	-10.9138
▁വന്നപ്പോൾ	-10.914
▁കര്‍ശനമായ	-10.9142
▁ജനതാ	-10.9142
▁വിജയനും	-10.9143
▁കാണേണ്ട	-10.9143
▁കൊല്ലപ്പെട്ടു	-10.9143
▁എക്സ്	-10.9143
▁ഏര്‍പ്പെടുത്ത	-10.9145
▁സൗഹൃദം	-10.9147
▁പ്രൊഫഷണല	-10.9149
ാകാം	-10.915
വിട	-10.915
▁ശാസ്ത്രീയ	-10.915
▁രൂപയായി	-10.9151
▁നഷ്ടമായത്	-10.9153
▁നല്‍കുന്നതിന	-10.9154
▁ത്തേ	-10.9155
▁ശ്രീജിത്ത	-10.9156
പ്രതി	-10.9156
▁മുപ്പത്	-10.9156
▁ഐപിഎ	-10.9157
▁രഘു	-10.9157
▁ജെഡിയുവ	-10.9158
▁സുനിൽ	-10.9161
▁ശുദ്ധ	-10.9165
▁ബ്ലോക്ക	-10.9168
·	-10.9169
▁അനുശോചന	-10.9169
▁പ്ലാസ്റ്റിക്	-10.9169
▁തുരങ്ക	-10.9169
▁കൊണ്ടുപോകുന്ന	-10.917
▁വീട്ടമ്മ	-10.917
ാറില്ല	-10.917
▁ൺ	-10.917
▁അത്രയ	-10.917
▁സംക്രമണം	-10.9171
▁അവൻ	-10.9172
▁ബ്രാ	-10.9173
▁സ്ഥാനത്താണ്	-10.9175
▁ബോട്ട്	-10.9178
▁അസ്വസ്ഥത	-10.9179
▁വരുത്താന	-10.918
▁ക്കാർക്ക	-10.9183
▁പരിഹരിക്കാന്‍	-10.9183
▁അകാലിദള	-10.9185
▁പേരുകള്‍	-10.9186
▁പറയേണ്ട	-10.9186
▁ഇങ്ങനെയാണ്	-10.9189
▁അന്തരിച്ച	-10.9189
▁ബിനു	-10.919
▁നിലയിലായിരുന്നു	-10.9191
▁റായി	-10.9192
▁കൊണ്ടിരുന്ന	-10.9194
▁യുമൊക്കെ	-10.9194
▁കുറെ	-10.9194
▁വീടുകൾ	-10.9196
▁അക്കൗണ്ടുകള	-10.9197
▁ഇല	-10.9198
ീകരണ	-10.9201
▁വർധിപ്പിച്ച	-10.9206
▁ദാസ	-10.9209
▁അവിട	-10.9209
▁പൂന്ത	-10.9211
▁ഇരുപത്	-10.9211
▁സമൂഹത്തിന്	-10.9212
▁കാഴ്ചപ്പാട	-10.9213
സീനിയർ	-10.9214
▁രൂപീകരി	-10.9215
▁ക്ഷാമം	-10.9215
▁പരിഹരിക്കുന്ന	-10.9215
▁രാഷ്ട്രീയത്തിൽ	-10.9218
▁പരിക്ക്	-10.9219
▁നിര്‍മ്മി	-10.9219
▁130	-10.9219
▁പൂട്ടി	-10.922
ത്തേ	-10.922
▁കയ്യില്‍	-10.9224
▁നിയന്ത്രണത്തില	-10.9225
▁വിഭാഗത്തെ	-10.9229
▁ആക്രമണത്തില	-10.923
▁കാലി	-10.9231
▁തുടങ്ങാന	-10.9244
▁ആരംഭിക്കുന്നത്	-10.9245
▁സ്വത്ത	-10.9245
▁സ്വീകരണ	-10.9246
▁എണ്ണത്തില	-10.9248
▁ആയുധങ്ങള	-10.9249
▁ഓയില്‍	-10.925
▁കുറ്റ്യാടി	-10.925
▁വക്കീല	-10.9251
▁മരണനിരക്ക	-10.9251
▁തേടിയെത്തും	-10.9251
▁ത്യാഗ	-10.9251
▁സംഘടനകൾ	-10.9251
▁പ്പെടുത്തുക	-10.9251
▁പ്രമോദ്	-10.9251
▁സാധ്യമാ	-10.9252
▁ഹു	-10.9254
▁കൈവരിച്ച	-10.9259
▁വിശ്വനാഥ	-10.926
▁ബോധം	-10.9261
▁കണ്ടിട്ടില്ല	-10.9262
▁വ്യാപാരം	-10.9263
▁ആക്കി	-10.9264
▁പര്‍	-10.9264
▁27,	-10.9267
▁കത്തിച്ച	-10.9268
▁യുപിയില	-10.9269
ന്ത്	-10.9271
▁പ്രവാസികൾ	-10.9274
▁അകന്ന	-10.9276
▁ചെറിയാന്‍	-10.9278
▁കഴ	-10.9279
▁പെരുമാറിയ	-10.928
വശാല	-10.9281
▁പുരി	-10.9282
▁വെട്ടിക്	-10.9288
▁ാലോ	-10.9289
▁കിഴക്കന	-10.929
▁മനസ്	-10.9292
▁പായ	-10.9295
▁മുഹ	-10.9299
▁സജ്ജ	-10.9302
▁നശിപ്പിക്ക	-10.9307
▁സൗദിയില	-10.9307
▁ഉപയോഗം	-10.9307
▁മുണ്ടാക	-10.931
ത്തിലാ	-10.9312
▁പൗരന	-10.9312
▁സൈനികര	-10.9317
▁സാധ്യമാക	-10.9321
▁പിന്നിലെ	-10.9322
▁സന്ദർശനം	-10.9322
▁ഇടിവ്	-10.9327
▁കര്‍ഷകര്‍ക്ക്	-10.9328
▁രാജയോഗ	-10.9328
ഡിയ	-10.9332
▁ഊര്‍ജ	-10.9333
▁അഖിലേന്ത്യ	-10.9333
▁കനേഡിയ	-10.9333
▁സര്‍വ്വകലാശാല	-10.9333
▁കുമ്പള	-10.9333
▁പാലാരിവട്ട	-10.9333
▁സിഎഎ	-10.9333
▁ബിനീഷ്	-10.9333
▁ആള്‍ക്കൂട്ട	-10.9334
ഖല	-10.9334
▁ഉല്‍പ്പാദന	-10.9338
▁കാരണമായത്	-10.9338
▁വിമര്‍ശിച്ചു	-10.9338
▁ഡീസലിന്	-10.934
▁നാവിക	-10.9341
▁തീർച്ച	-10.9342
▁പങ്കിട്ട	-10.9342
ാബാദ്	-10.9342
▁പരിശോധനയും	-10.9344
▁പങ്കുണ്ടെന്ന	-10.9344
▁അതൊന്ന	-10.9344
▁മര്‍ദ്ദന	-10.9344
▁സീറ്റാണ്	-10.9347
▁കെയർ	-10.9348
▁കോമ	-10.935
▁വരാണെന്ന	-10.9351
▁നോട്ടീസ	-10.9358
▁ഫയല്‍	-10.9359
▁ടാഗ	-10.9364
▁ചൗഹാന്‍	-10.9364
▁റെയ്ഡ	-10.9365
▁ശരീരത്തില	-10.9368
▁സ്ഥിരീകരി	-10.9374
▁പൂനെ	-10.9375
▁ത്തിൻ	-10.9378
▁പോയെന്ന	-10.9378
▁നടക്കുകയാണ്	-10.9379
▁വിഭവ	-10.9381
▁തയ്യാറാക്കി	-10.9385
▁പോവുന്നത്	-10.9386
▁പ്രോസിക്യൂഷന	-10.9392
▁രേഖകളും	-10.9393
▁രോഗലക്ഷണങ്ങള	-10.9396
▁സ്വഭാവം	-10.9397
▁റെയ്	-10.9407
▁ബില്ലുകള	-10.941
▁ചെയ്തിട്ടുണ്ട	-10.941
▁തീരം	-10.9411
▁ശശീന്ദ്രന്‍	-10.9411
▁ഉടമകള്‍	-10.9412
▁അടച്ചു	-10.9413
▁അവഗണന	-10.9416
▁മുല്ലപ്പെരിയാ	-10.9416
▁മൈക്രോ	-10.9416
▁ഒബിസി	-10.9418
▁പത്മജ	-10.9419
▁കേസെടുക്ക	-10.9419
▁ദുഷ്	-10.9421
▁തീവ്രവാദി	-10.9422
▁194	-10.9422
▁ദിഗ്	-10.9423
▁തരൂർ	-10.9423
▁പൂഞ്ഞാര്‍	-10.9424
▁ഒപ്പിട്ട	-10.9424
▁കുപ്പി	-10.9427
▁അനാ	-10.9427
▁വിമര്‍ശനങ്ങള്‍	-10.9428
▁അലക്	-10.9429
▁പോസിറ്റീവായ	-10.9429
▁പന്നി	-10.943
▁വോട്ടർമാര	-10.9431
▁ണെന്ന	-10.9432
▁നീട്ടിയ	-10.9434
▁ജീവിച്ച	-10.9434
ോല	-10.9435
▁ഫ്രാന്‍സി	-10.9436
▁ഭാരവാഹികള	-10.9437
▁നടപടിയെടുത്ത	-10.9437
▁ഇന്ത്യക്കാർ	-10.9438
▁വാര്‍ഡ	-10.9442
▁ജുനൈസ്	-10.9444
▁ആര്‍മി	-10.9447
▁സഖാവ്	-10.9448
▁താഴേ	-10.9449
▁കടുപ്പ	-10.9449
▁മഞ്ചേരി	-10.9453
▁നേടിയിട്ടുണ്ട്	-10.9455
▁സ്വര	-10.9455
▁നിഷ	-10.9457
▁രാജ്യങ്ങളിലേക്ക	-10.9458
▁ഇടപെടൽ	-10.9459
യിന്‍	-10.9459
▁ചേര്‍ന്നത്	-10.9464
▁കടത്തിയ	-10.9465
നീയ	-10.9468
▁കളൊന്നു	-10.9469
▁യല്ലേ	-10.9474
▁മന്ത്രിമാരായ	-10.9474
▁റേറ്റ	-10.9479
▁നീക്കത്ത	-10.9479
▁വിശ്വാസികള	-10.948
മുഖ	-10.9482
▁ട്രാക്ക	-10.9482
▁വിശേഷിപ്പിക്ക	-10.9483
▁വെക്കുന്നത്	-10.9484
▁അറസ്റ്റ	-10.9488
▁അവകാശപ്പെടുന്നു	-10.9488
കൊണ്ടിരിക്കുന്ന	-10.9489
▁എമാര	-10.9489
▁കടകള്‍	-10.9492
▁താരമായ	-10.9493
▁പെന്‍	-10.9494
ങ	-10.9495
▁നോബി	-10.9495
▁പാർട്ടികള	-10.95
▁അഡ്മിനിസ്	-10.95
▁ഋതു	-10.9501
▁തെറ്റിദ്ധാരണ	-10.9501
▁േക്കാമെന്ന	-10.9501
▁പൊന്നാനി	-10.9501
▁സില്‍വര്‍	-10.9507
▁റിതു	-10.9509
▁മനോഹര	-10.9509
▁യേക്കാള	-10.9509
▁കഴിയാതെ	-10.951
▁രാത്രിയോടെ	-10.9512
▁ഉപേക്ഷിക്ക	-10.9513
▁സച്ചി	-10.9516
മ്പുഴ	-10.9516
▁കയറിയത്	-10.9519
▁ജയിച്ചു	-10.9519
▁പെട്ടി	-10.952
ക്കൊണ്ട	-10.9521
▁കാണിക്കുന്നത്	-10.9521
▁ബോണ്ട	-10.9521
▁എത്തിക്കുന്ന	-10.9522
▁വാങ്ങുന്നത്	-10.9524
▁രക്ഷിതാക്കള	-10.9527
▁ഹൃദയം	-10.953
▁തിലക	-10.9531
▁നിന്നോ	-10.9534
▁യാണു	-10.9535
▁ചെയ്യപ്പെടുന്ന	-10.9536
▁ഉൾപ്പെടുത്തിയ	-10.9536
▁പ്പിക്കുന്ന	-10.9542
▁വ്യാപിക്കുന്ന	-10.9542
▁അണി	-10.9545
▁ംഗ്	-10.9545
▁ടീമിന്	-10.9548
▁ഗിരി	-10.9551
▁ആശംസ	-10.9552
▁ഏല്‍പ്പി	-10.9555
▁പാര്‍ട്ടികളും	-10.9556
▁അമേരിക്കയില	-10.9557
▁എലി	-10.9558
▁എത്തിക്കാന്‍	-10.956
▁..?	-10.9561
▁ുണ്ടെങ്കി	-10.9561
▁ആരോഗ്യം	-10.9562
▁ഏറ്റുമാനൂര	-10.9566
▁കെട്ടിയ	-10.9568
▁പരിചയമ	-10.9569
▁ഉദാഹരണ	-10.957
▁പള്ള	-10.9573
ോവ	-10.9575
▁വിദ്യാര്‍ഥി	-10.9576
▁ുകൾ	-10.9579
▁രാശിക്കാര്‍	-10.9579
▁ഉറച്ചു	-10.9581
▁മുദ്രാവാക്യ	-10.9583
കള്‍ക്കും	-10.9583
▁കുറിക്കുന്ന	-10.9583
▁ഇന്റര്‍വ്യൂ	-10.9585
▁ഇരിങ്ങാലക്കുട	-10.9585
▁ദാമ്പത്യ	-10.9585
▁വധശിക്ഷ	-10.9585
▁ആറ്റിങ്ങ	-10.9585
▁(30)	-10.9585
▁നൂതന	-10.9586
▁പട്ടാള	-10.9586
▁കോർപ്പറേഷന	-10.9586
▁ഉണ്ടായിരിക്കണം	-10.9587
▁പ്രസ്തു	-10.9587
▁ശു	-10.9587
▁നമസ്	-10.9588
▁പെട്രോളിയ	-10.9588
▁കോണ	-10.9589
▁ആവശ്യമായി	-10.959
▁ആരംഭിക്കാന	-10.959
▁08	-10.9591
▁തെരുവു	-10.9593
▁കിട്ടാത്ത	-10.9593
▁നവീന	-10.9594
▁ലാൽ	-10.9596
▁ചെയ്തിരുന്നത്	-10.9597
▁ദില്ലിയിൽ	-10.9598
▁ചേർത്ത്	-10.9598
▁ക്കാതിരുന്ന	-10.9599
ന്‍സിക്	-10.9602
▁ചെയ്തതിന്	-10.9603
▁രുമായ	-10.9606
▁ഫലങ്ങള്‍	-10.9607
▁പിരിഞ്ഞ	-10.9608
▁ചെയ്യാതെ	-10.9608
▁എന്നിട്ട	-10.9608
▁തിരഞ്ഞെടുപ്പി	-10.9609
▁സെക്രട്ടേറിയറ്റ	-10.9611
▁റോള്‍	-10.9611
▁ലാലു	-10.9612
▁കൊമ്പ	-10.9613
▁ആർഎസ്എസ്	-10.9613
▁മോഹന്‍ലാല	-10.9614
▁സിപി	-10.9614
▁സൂചനകള്‍	-10.9615
▁ഏറ്റവുമ	-10.9618
▁ക്കാരായ	-10.962
▁ബിഷപ്പ്	-10.9621
ഞ്ഞി	-10.9623
▁മന്ത്രിമാർ	-10.9623
▁വിദേശത്ത	-10.9623
▁വികെ	-10.9624
▁വിദ്യാർഥി	-10.9626
▁ിറങ്ങ	-10.9627
▁ഉഷ	-10.9628
▁വരണമെന്ന	-10.963
▁കാല്‍	-10.9634
▁ത്തേക്ക്	-10.9636
▁ആവര്‍ത്തിച്ച	-10.9637
▁ുകയാണ്	-10.9638
▁പോർട്ട	-10.964
b	-10.9646
▁രവീന്ദ്ര	-10.9648
▁വാരി	-10.9648
▁സംഘാടക	-10.9648
▁ടുത്ത	-10.9649
▁നിശബ്ദ	-10.965
▁മാസ്ക്	-10.9651
▁പോവുക	-10.9651
▁യാത്രകള്‍	-10.9651
▁07	-10.9658
മാകുന്ന	-10.9658
▁മകനും	-10.9658
▁ളോ	-10.966
▁202	-10.9661
▁വിശ്വസിക്കാ	-10.9662
▁തൊഴിലവസര	-10.9663
▁മയ	-10.9666
ുവാൻ	-10.9666
▁ഗര്‍ഭിണി	-10.9666
▁തിരഞ്ഞെടുപ്പു	-10.9667
ച്ചിറ	-10.9668
▁ത്തിലുണ്ടായ	-10.9669
▁റിയാ	-10.9669
▁പിന്‍	-10.9671
▁ആംആദ്	-10.9671
▁ആപ്ലിക്കേഷ	-10.9671
▁ഇസ്രായേൽ	-10.9671
▁ചങ്ങനാശേരി	-10.9671
▁ശിഹാബ	-10.9671
▁ഒരുങ്ങുകയാണ്	-10.9671
▁നോര്‍ക്ക	-10.9671
▁നിർത്തിയ	-10.9671
▁ചാന	-10.9672
▁പരേഡ	-10.9672
▁വൺ	-10.9672
▁അംഗത്വ	-10.9673
▁കഠിന	-10.9673
▁ബ്ലാക്ക്	-10.9674
▁വരേയും	-10.9674
▁ലംഘിച്ച്	-10.9675
▁കെപി	-10.9675
▁പാല്‍	-10.9676
▁ഗുണ്ട	-10.9676
▁ഇളവുകള്‍	-10.9677
▁ചതി	-10.9677
▁05	-10.9677
▁ഉപയോ	-10.9678
▁ിച്ചത്	-10.9678
▁മണിക്കൂറോളം	-10.9678
▁മത്സരിക്കുക	-10.968
▁അഫ്ഗാന്‍	-10.9681
▁മാധ്യമങ്ങളിലൂടെ	-10.9681
▁സംസ്കാര	-10.9684
റിംഗ്	-10.9684
▁ഒന്നുമില്ല	-10.9685
▁മറികടക്കാന	-10.9685
▁പതിറ്റാണ്ട	-10.9687
▁ലുകള	-10.9688
▁വ്യാപാരി	-10.9688
▁ചിന്തിക്കുന്ന	-10.9689
▁പഠനത്തിന	-10.9695
▁ദര്‍ശന	-10.9703
▁ആദിത്യനാഥ	-10.9703
പാറ	-10.9704
▁ചാനലുകള	-10.9705
▁സംരംഭക	-10.9709
▁ടൈ	-10.9712
▁അഭിഭാഷകൻ	-10.9712
▁നഗരങ്ങളില	-10.9714
▁നിർദ്ദേശങ്ങൾ	-10.9714
▁ചട്ടം	-10.9715
▁പരിശോധിക്കും	-10.9717
▁ഉയര്‍ത്തുന്ന	-10.9718
▁മാർച്ചി	-10.9719
▁പിന്നിലെന്ന	-10.9719
▁സംസ്ഥാനങ്ങൾ	-10.9721
ൃക്ക	-10.9722
▁ഒരുങ്ങുന്ന	-10.9726
▁മകള	-10.9728
▁ങ്ങളുടേ	-10.9729
▁തയ്യാറാണെന്ന	-10.9731
▁ആക്ട	-10.9734
ത്തിലെത്തിയ	-10.9735
▁ഹര്‍ദിക്	-10.9736
▁പ്രവിശ്യ	-10.9736
▁പന്ത്	-10.9737
▁ശേഷമായിരുന്നു	-10.9738
▁അനുകൂലിച്ച	-10.9742
▁സരിത	-10.9745
▁ആഗ്രഹിക്കുന്നു	-10.9745
▁ക്കൊപ്പ	-10.9753
ക്കുള്ളില്‍	-10.9754
▁1/4	-10.9757
▁അസാധാരണ	-10.9757
▁ആശയവിനിമയ	-10.9757
▁തൃത്താല	-10.9757
▁വിശ്വാസ്യത	-10.9757
▁ബന്ധുക്കൾ	-10.9757
▁ചൊടിപ്പിച്ച	-10.9757
▁റംസാന	-10.9757
▁ദില്‍ഷ	-10.9757
▁ഹൃദയാഘാത	-10.9757
▁മകരം	-10.9758
▁മായാവതി	-10.9758
▁അരങ്ങേറ	-10.9759
▁കര്‍മ്മ	-10.9761
▁മേയറ	-10.9761
പ്പുര	-10.9764
▁മര്‍ദ്ദിച്ച	-10.9766
▁ആവശ്യപ്പെടുന്നു	-10.9768
▁പരിശോധിച്ചത	-10.977
ാന്വേഷണ	-10.9771
ുരുത്തി	-10.9772
▁പിന്‍വലി	-10.9772
▁ക്ലബ്ബ	-10.9777
▁ഡ്രോ	-10.9778
▁ജോലികള്‍	-10.9781
▁കൂട്ടുകാര	-10.9782
▁കാര്യമല്ല	-10.9782
▁സാക്ഷ്യം	-10.9784
▁പുല്ല	-10.9785
▁റിന്	-10.9789
▁പകല	-10.9793
▁തീരുമാനത്തില	-10.9793
▁മുൻകൂ	-10.9794
▁നെടുമ്പാശ	-10.9798
▁കാണി	-10.9798
▁തീരുമാനിക്കുന്ന	-10.9799
▁ഹൈക്കമാന്റ്	-10.9799
▁നൂറു	-10.98
▁സംസ്ഥാനങ്ങളുടെ	-10.9802
▁ഇവയ	-10.9802
▁ഭാരവാഹികള്‍	-10.9804
ed	-10.9807
മുന	-10.9808
▁ഉറപ്പി	-10.9808
▁ഒരോ	-10.9811
▁താരതമ്യ	-10.9812
▁മഴയാണ്	-10.9812
▁ഡിസംബറില	-10.9812
▁വയസ്സിന	-10.9813
▁ആകുന്ന	-10.9813
▁കേന്ദ്രങ്ങൾ	-10.9818
▁പറയപ്പെടുന്ന	-10.982
▁കോറ	-10.9821
▁കൂടുതലുള്ള	-10.9822
▁മുനിസിപ്പ	-10.9823
▁റ്റേ	-10.9824
▁പ്പെടുക	-10.9824
▁T	-10.9826
▁ഷേ	-10.9826
▁റൂമില	-10.9831
▁ഒഴിവാക്ക	-10.9836
▁പ്രദേശവാസികള	-10.9837
▁ത്തിനൊപ്പം	-10.9839
▁മെറ്റ	-10.9843
▁അവതരിപ്പിക്ക	-10.9843
ാക്രമണ	-10.9844
▁പട്ടാമ്പി	-10.9844
▁ഭൂകമ്പ	-10.9844
▁സ്മാരക	-10.9844
▁കാരണമാകും	-10.9844
▁മെസേജ	-10.9844
▁വേണുഗോപാൽ	-10.9844
▁പാർടി	-10.9844
▁ലിംഗായത്ത	-10.9844
▁മോചിപ്പി	-10.9844
▁ശിവകുമാര്‍	-10.9845
▁നേമം	-10.9845
▁അയാളുട	-10.9846
▁1.5	-10.9846
▁എംഎൽഎമാർ	-10.9847
▁മാറ്റിവെച്ച	-10.9847
▁എയർപോർട്ട	-10.985
▁06	-10.985
▁നടക്കുന്നു	-10.9851
ദേവ	-10.9856
▁ണ്ടായ	-10.9859
▁ഹാജി	-10.986
▁പുനര്‍	-10.986
വാർ	-10.9861
▁അപേക്ഷിക്ക	-10.9863
▁ലംഘനം	-10.9866
▁സർക്കാരിനെതിരെ	-10.9868
▁പുരാ	-10.9868
▁രാണെന്ന	-10.987
ട്ടിക്	-10.9873
▁ദിവസത്തിനുള്ളില	-10.9873
▁ഡോളറാണ്	-10.9873
▁മാറ്റങ്ങള	-10.9873
▁ക്യാമ്പയിന	-10.9875
▁തടയാ	-10.9876
▁നിലയിലേക്ക്	-10.9877
▁ഭാഷയില	-10.9877
▁വിലയിരുത്തിയ	-10.9878
▁നുമാണ്	-10.9882
▁പ്രവ	-10.9882
▁വര്‍ദ്ധിച്ച	-10.9884
▁അനുവദിക്കണമെന്ന	-10.9886
▁മുണ്ടായിരുന്ന	-10.9887
▁ഉണ്ടാ	-10.9888
▁കാരൻ	-10.9891
▁എണ്ണവും	-10.9892
▁ലാബ	-10.9893
▁തുടങ്ങിയവര	-10.9894
▁വെറുപ്പ	-10.9894
▁റെസ്	-10.9895
▁േക്കുമെന്ന്	-10.9896
▁പ്രതികരിക്കാ	-10.9899
▁മുഴ	-10.99
▁ചാവ	-10.9903
നീഷ	-10.9906
സിയ	-10.9907
▁അകലെ	-10.9909
▁വൈദ്യുത	-10.9912
▁മരി	-10.9914
▁രക്തം	-10.9915
▁മരണപ്പെട്ടത്	-10.9917
▁സഭയിൽ	-10.9919
▁േഷ	-10.9922
▁ചൂ	-10.9924
▁നമ്മ	-10.9925
▁കക്ഷികള്‍	-10.9926
▁ഹാര്‍	-10.9929
▁അയോധ്യയില	-10.9929
▁കുംഭം	-10.9931
▁ഏജന്റ	-10.9931
▁കുടിവെള്ള	-10.9932
▁അധിനിവേശ	-10.9932
▁ആശയക്കുഴപ്പ	-10.9932
▁ഇന്റലിജന്‍സ	-10.9932
▁കാറ്റഗറി	-10.9932
▁താൽപ്പര്യ	-10.9932
▁പിന്നോക്ക	-10.9932
▁വൈവിധ്യ	-10.9932
▁ബിസിസിഐ	-10.9932
▁പുനഃസംഘടന	-10.9932
▁ജന്മദിന	-10.9932
▁ഇന്റ	-10.9932
ുസൃത	-10.9932
▁സമവായ	-10.9933
▁അടുക്കള	-10.9934
▁പൊള്ള	-10.9934
▁പുഷ്പ	-10.9934
▁ഹാജരാകണം	-10.9934
▁വർധനവ്	-10.9935
▁ദുര	-10.9936
മണ്ണ	-10.9937
▁തടവുകാര	-10.9937
▁അക്ഷര	-10.9938
▁കുറ്റവാളി	-10.9942
▁രംഗത്തുണ്ട്	-10.9942
▁വേദിയില്‍	-10.9942
▁ത്തിലാണെന്ന	-10.9947
▁ഡയറ	-10.9949
▁കാന്‍	-10.9955
▁സമര്‍പ്പി	-10.9956
▁അതത്	-10.9957
▁സൗര	-10.9959
▁ചേർന്നു	-10.9961
▁െത്തുന്ന	-10.9961
▁ഇടിഞ്ഞ	-10.9961
▁സ്ഥാപിക്കാന	-10.9962
▁വേഷം	-10.9962
▁നോളജി	-10.9963
▁തയ്യാറ	-10.9963
▁കൃത	-10.9964
▁നിന്നത്	-10.9966
▁ണമെന്ന്	-10.9968
▁കോഴിക്കോട	-10.9972
▁ൊന്ന	-10.9974
▁എന്താ	-10.9976
▁നാള്‍	-10.9976
▁തില്ല	-10.9977
▁ഗ്രി	-10.9979
▁മുഴക്കി	-10.9979
▁ജനപ്രതിനിധി	-10.998
▁പരസ്യം	-10.9981
▁വിമർശിച്ചു	-10.9981
▁ആയാല	-10.9983
▁ഇരുപത	-10.9984
▁ശാന്തി	-10.9985
▁ശല്യം	-10.9986
▁കിലോമീറ്ററ	-10.9987
▁വരണം	-10.999
▁-2	-10.999
▁ഉള്‍പ്പെടു	-10.9992
▁ടോം	-10.9995
▁ഉല	-10.9996
▁ഘടന	-10.9996
D	-10.9999
▁ക്കുന്നുണ്ട്	-11
▁മേരി	-11.0001
റ്റം	-11.0002
▁പൂട്ട	-11.0007
▁നൽകുക	-11.0008
▁ആഗ്രഹിക്കുന്നത്	-11.0008
സാമ	-11.0009
▁കേന്ദ്രത്തിന്	-11.0012
▁സര്‍വ്വീസ്	-11.0013
▁മര്‍	-11.0013
▁പുനരാരംഭി	-11.0014
▁കരു	-11.0014
▁പുരോഗമിക്കുന്ന	-11.0014
▁ആസ്	-11.0015
▁വിശ്വസ്ത	-11.0017
▁ഗോപാല	-11.0018
▁വെക്ക	-11.0018
▁നോക്കിയാല	-11.002
▁ക്കായിരുന്നു	-11.002
▁(24)	-11.002
▁അനുയോജ്യ	-11.002
▁കാഞ്ഞങ്ങാട്	-11.002
▁മ്പോഴ	-11.002
▁(32)	-11.002
▁(38)	-11.002
▁തുടക്കമിട്ട	-11.002
▁ഗൾഫ	-11.0021
▁മക്കൾ	-11.0021
▁ഈശ്വര	-11.0021
▁വേണു	-11.0021
▁ജനപ്രിയ	-11.0021
▁സ്വർണ്ണക്കട	-11.0021
▁കുംഭ	-11.0023
▁ുവാന	-11.0023
▁ഹൈവേ	-11.0023
▁ഗോപാലകൃഷ്ണ	-11.0027
▁ക്കാനാവില്ല	-11.0028
▁സന്ദർശി	-11.0029
▁ബിഎസ്	-11.0032
▁അബു	-11.0033
▁സംഗമ	-11.0037
▁മായിരുന്ന	-11.0037
▁പലസ്തീന്‍	-11.0038
▁വില്‍ക്കുന്ന	-11.0039
▁യിലേക്കാണ്	-11.0041
▁കിട്ടാത	-11.0045
▁മുണ്ടായത്	-11.0047
▁ബാങ്കുകള	-11.0048
▁വ്യക്തികള	-11.0049
▁പൂർത്തിയായ	-11.0049
▁മോദിയും	-11.0052
▁ഒമ	-11.0053
▁പിടിക്കാൻ	-11.0054
▁രംഗം	-11.0057
▁പെട്രോളിന്	-11.0057
▁കൗൺസില	-11.0058
ായിക	-11.0058
▁പിവി	-11.006
▁ചുഴലിക്കാറ്റ	-11.0062
▁സംസാര	-11.0064
▁ആരോട	-11.0065
▁370	-11.0065
▁ഭാഗവ	-11.0066
▁പോര്‍ട്ട്	-11.007
▁സ്വന്തമാക്കിയത്	-11.0072
▁വരുത്തുന്ന	-11.0073
▁ചെന്നിത്തലയും	-11.0076
▁ചൗഹാന	-11.0076
▁ഉപരോധ	-11.0078
▁സഖ്യത്തില്‍	-11.0084
▁പെരുമ	-11.0085
▁e	-11.0085
▁വ്യക്തിയെ	-11.0087
▁തെരഞ്ഞെടുപ്പിന്	-11.0091
▁കായംകുള	-11.0091
ാദി	-11.0092
▁വീടിന	-11.0092
▁പറയുന്നില്ല	-11.0095
▁ദർശന	-11.0096
▁ചുമത്തി	-11.0098
▁അകത്ത	-11.0098
▁കൈവശ	-11.0099
▁രേഖകള	-11.0099
▁മുന്നണിയില	-11.0099
▁ഭാഗത്തേക്ക	-11.01
▁കടമ	-11.0101
▁മരിച്ചവര	-11.0102
▁സിനിമകള്‍	-11.0103
▁മണിക്കൂറുകള്‍	-11.0105
▁കുറ്റക്കാര	-11.0106
▁വിഭാ	-11.0107
▁യിലുണ്ടായ	-11.0107
▁പ്രവര്‍ത്തകരുട	-11.0108
▁ഗവർണറ	-11.0109
▁വാഷിംഗ്ടണ്‍	-11.0109
▁ഷിന്‍ഡെ	-11.0109
▁വ്യോമസേന	-11.011
▁ഓഫീസിന്	-11.0112
▁വിവാദത്തില്‍	-11.0113
▁ചെയര്‍മാന	-11.0114
▁പ്രമേയത്ത	-11.0115
▁അനീതി	-11.0116
▁മട്ടാ	-11.0117
▁ശ്രീധരന്‍	-11.0119
▁പ്രതീക	-11.012
▁അഭിഭാഷകര	-11.012
▁കൈമാറിയത്	-11.012
ടങ്ങിയ	-11.0127
▁ക്കട്ടെ	-11.0128
▁ക്ലിക്ക	-11.0128
▁അറബി	-11.0128
▁നിര്‍ത്താന്‍	-11.0128
▁സാധന	-11.013
▁ഇറക്ക	-11.013
▁അഗ്	-11.0137
▁യാവും	-11.014
▁സുഹൃത്തുക്	-11.0141
വന്ന	-11.0141
▁ലക്ഷണങ്ങള്‍	-11.0146
▁നേരിട്ടു	-11.0146
▁മുണ്ടാവും	-11.0146
▁വഞ്ചി	-11.0154
▁ിറങ്ങിയ	-11.0154
▁യെക്കുറിച്ച	-11.0154
ടെക്	-11.0154
▁(8	-11.0158
▁ഭാവന	-11.0158
ഗ്രസ്	-11.016
ായിരിക്കണം	-11.0164
ാതിരിക്കാന്‍	-11.0165
▁കമല്‍നാഥ	-11.0167
▁അറിയാവുന്ന	-11.0169
▁ശിവരാജ	-11.0169
▁ബോംബ	-11.017
▁മാസത്തോള	-11.0171
▁കോര്‍പറേഷന്‍	-11.0174
▁അഭ്യൂഹങ്ങള	-11.0174
▁അതിക്രമിച്ച	-11.0175
▁പെയ്ത	-11.0177
▁കോളജില	-11.0178
▁പുറം	-11.0178
L	-11.0179
മുക്തി	-11.0181
▁നഗരസഭയില	-11.0181
ിറക്കി	-11.0183
▁പോര്	-11.0184
▁ജയിൽ	-11.0185
▁നടനും	-11.0185
▁ബഹളം	-11.0185
▁പറന്ന	-11.0189
▁കാപ്പ	-11.0189
▁ലക്ഷണങ്ങള	-11.0189
▁വൈറല	-11.0191
ൗൺ	-11.0192
▁പ്പാ	-11.0197
▁കാട്ടിയ	-11.0198
▁പാട്	-11.0199
▁കമ്മിഷണ	-11.0199
▁(25)	-11.02
▁വന്നവരാണ്	-11.02
▁ശരണ്യ	-11.02
▁ഡ്രൈവ	-11.0201
സഭ	-11.0202
ൊന്നുമല്ല	-11.0204
▁കൂടിക്കാഴ്ച്ച	-11.0205
▁ഉത്തരവാദി	-11.0206
▁മത്സരിപ്പിക്കാന	-11.0208
▁ഉൾപ്പെടുത്തി	-11.021
▁ബാധിക്കുമെന്ന	-11.0211
▁മത്സരിക്കാൻ	-11.0214
▁(1)	-11.0215
▁ഓർമ	-11.0217
▁കേഡ	-11.0217
▁പോയാല്‍	-11.0218
▁മൂന്നര	-11.022
▁സുഹൃത്തുക്കള്‍	-11.0223
▁ഭരിച്ച	-11.0223
▁പാപ്പ	-11.0228
▁പടര്‍ന്ന	-11.023
▁നാടിനെ	-11.0231
ിക്കാവുന്ന	-11.0232
▁മാപ്പു	-11.0234
▁തുടർന്നു	-11.0235
▁ഉദ്യോ	-11.0235
▁തത്	-11.0244
▁ദുരന്തം	-11.0247
▁ിനു	-11.0248
▁പിന്തുടരുന്ന	-11.0248
▁സഹോദരൻ	-11.0248
▁മണ്ണിടിച്ചില	-11.0249
▁ആധാര	-11.0251
▁കേന്ദ്രത്തിലെ	-11.0254
▁ലീഡ	-11.0256
▁പഠി	-11.0257
▁ലില്‍	-11.0265
▁-3	-11.0265
▁വിദഗ്ദ	-11.0269
▁കൂടാ	-11.0269
▁കിടിലം	-11.027
കാരി	-11.0271
▁125	-11.0272
▁പ്പെടുത്തിയ	-11.0272
▁പലസ്തീ	-11.0272
▁വോട്ടിന്	-11.0274
ാവശ്യപ്പെട്ട	-11.0274
▁മെന	-11.0275
▁പ്രകടമായ	-11.0276
▁ഒന്നിന	-11.0276
▁ചരക്ക	-11.0278
ദല്‍ഹി	-11.0282
▁രഹിത	-11.0282
▁പ്രധാനമാണ്	-11.0285
▁പഠിക്കാന	-11.0288
െത്തിയത്	-11.029
▁പതിനാല	-11.029
▁പുരോഗമന	-11.029
▁വ്യതിയാന	-11.029
▁ഗുപ്ത	-11.029
▁(34)	-11.029
▁ബാനർജി	-11.0291
▁ചെയ്യാമെന്ന	-11.0291
തുര	-11.0292
▁കാരണങ്ങള	-11.0292
▁നിഖില	-11.0293
▁ഫൈന	-11.0296
▁03	-11.0296
▁അന്ത്യ	-11.0296
▁സര്‍ക്കാരുകള്‍	-11.0298
▁കാര്യങ്ങളെ	-11.03
▁#	-11.0301
ിക്കൽ	-11.0301
▁അനുവദിക്കും	-11.0303
▁പ്രതിഷേധത്തിന്	-11.0304
മ്പല	-11.0305
▁വീതി	-11.0305
▁കൊണ്ടുവരാ	-11.0306
▁വിലാസ	-11.0308
▁ആറിന്	-11.0311
▁മത്സരാർത്ഥികള	-11.0312
▁തുടര്‍ന്നു	-11.0314
▁േനെ	-11.0315
▁കുന്നു	-11.0315
▁റിസ	-11.0319
ചാ	-11.0325
ൃത	-11.0326
▁വഴിയും	-11.0327
▁പോരാട	-11.0327
▁ചത്ത	-11.0328
ദേശ	-11.0328
▁താമസിക്കുന്നത്	-11.033
▁താരങ്ങൾ	-11.0334
▁വാൻ	-11.0335
▁ബിപി	-11.0335
▁ോടെ	-11.0335
▁എഫിന്	-11.0337
▁സംസാരിക്കാ	-11.0338
▁വീടും	-11.0342
▁ഇടപെടുന്ന	-11.0342
വെയ്	-11.0343
▁പഞ്ചാബ	-11.0345
▁തുടരുന്നത്	-11.0347
▁രാശിയിൽ	-11.0349
▁രാധാകൃഷ്ണന	-11.0352
▁യില്ലെന്ന്	-11.0353
▁അവളുട	-11.0355
▁ഘടകം	-11.0358
കഞ്ഞ	-11.0359
▁പെടുന്ന	-11.036
ശേഷി	-11.0362
▁പരിപാടികൾ	-11.0362
▁സൂര്യന	-11.0363
▁രുത്	-11.0363
▁കൂൾ	-11.0371
▁കരുതിയത്	-11.0376
▁ക്കാവുന്ന	-11.0379
▁മെഹ	-11.038
▁പതിപ്പ	-11.038
▁ഡിവൈഎസ്	-11.0381
▁റിഞ്ഞ	-11.0381
വാര്‍ത്താസമ്മേളന	-11.0382
▁എഡിജിപി	-11.0382
▁റഹീം	-11.0382
▁സ്ട്രാറ്റജി	-11.0382
ഇന്‍സ്റ്റിറ്റിയൂ	-11.0382
▁പ്രാപിച്ച	-11.0382
▁(36)	-11.0382
▁നിരസിച്ച	-11.0382
▁ഫിഷറീ	-11.0382
▁വെടിയേറ്റ	-11.0383
▁ശ്രീരാമ	-11.0383
▁എത്തിയവര	-11.0383
▁ചെറുകിട	-11.0384
▁മിടുക്ക	-11.0384
▁കസേര	-11.0384
▁റേഡിയോ	-11.0384
▁ചിത്രീകരിച്ച	-11.0384
▁നിയമപ്രകാര	-11.0385
▁എൻട്രി	-11.0385
പൂർ	-11.0385
▁ഫാമില	-11.0386
▁ഒഴിവാക്കണം	-11.0387
▁പഞ്ചാബി	-11.0387
▁റദ്ദ	-11.0388
▁തല്ലി	-11.0389
▁കണ്ടെയ്	-11.0391
▁എയര്‍പോര്‍ട്ട	-11.0391
▁ഉണ്ടെങ്കി	-11.0392
▁പട്	-11.0393
▁സര്‍വ്വ	-11.0394
▁ഹിമാചല	-11.0394
▁കളെക്കുറിച്ച	-11.0397
▁ങ്ങളായിരുന്നു	-11.0397
▁കടകം	-11.0397
▁ശ്രദ്ധിക്കുക	-11.0398
▁മേഖലയ്ക്ക	-11.0399
▁ാനാക	-11.0401
▁ഭട്ട	-11.0402
▁നിയമങ്ങള	-11.0402
▁സാന്നിധ്യത്തില	-11.0403
▁ഇളയ	-11.0403
സിറ്റ്	-11.0404
▁പ്രതീക്ഷിക്കാം	-11.0409
▁ആര്‍എസ്	-11.0409
▁ഭൂമിയില്‍	-11.0413
▁ിട്ടുളള	-11.0416
▁അന്തർ	-11.0417
▁V	-11.042
▁നീങ്ങുന്ന	-11.0423
▁അനുബന്ധിച്ച	-11.0424
▁നാലിന്	-11.0425
▁നേടും	-11.0426
▁കരിയ	-11.0427
▁വര്‍ധിപ്പിക്കാന	-11.0428
▁ധൈര്യം	-11.0429
▁മറ്റൊന്ന	-11.0429
▁തെരഞ്ഞെടുപ്പു	-11.043
▁പുറത്തുവരുന്നത്	-11.0436
▁പദം	-11.044
▁ഭയപ്പെടുത്ത	-11.044
▁ഗെഹ്ലോട്ട്	-11.0443
▁പറഞ്ഞതെന്ന	-11.0445
▁സമഗ്രമായ	-11.0448
▁കുതിച്ച	-11.0448
▁ചിട്ട	-11.0449
▁സംവിധായകന	-11.0452
▁ാര	-11.0455
▁ഉദ്ദേശ	-11.0455
▁വിജയന്	-11.0457
മാറ്റം	-11.046
▁സീറ്റു	-11.046
▁നടപ്പാക്കുന്നത്	-11.0462
▁വിഷു	-11.0464
▁പാര്‍ട്ടിയും	-11.0464
▁സേനാ	-11.0466
▁ബീന	-11.0466
▁പോസ്റ്റു	-11.0468
▁അംഗീകരിക്കുന്ന	-11.047
▁ഇന്റർവ്യൂ	-11.0475
▁കര്‍ക്കടക	-11.0475
▁ഒൻപത	-11.0475
▁ഗൂഡ	-11.0475
▁ഉടമസ്ഥതയില	-11.0475
▁നല്‍കാമെന്ന	-11.0475
▁തിയേറ്ററുകള	-11.0475
▁തൊഴിലുറപ്പ	-11.0476
▁കനയ്യ	-11.0476
▁വിന്‍	-11.0476
▁അപൂര്‍വ	-11.0478
▁യാത്രക്കാർ	-11.0479
▁റൺസ	-11.048
▁മോഷ്ടിച്ച	-11.0481
▁സായുധ	-11.0481
▁ഉപകരണ	-11.0482
▁10.30	-11.0485
ോപ	-11.0486
▁പരിശോധിക്കാം	-11.0486
▁മത്സരാര്‍ത്ഥി	-11.0487
▁വാഗ്	-11.0489
▁ഇരുട്ട	-11.049
▁ശ്രീനിവാസ	-11.049
▁കൈമാറുന്ന	-11.049
▁2008	-11.0491
▁2004	-11.0492
▁ാവുന്ന	-11.0493
യുമുണ്ട്	-11.0499
▁വെളി	-11.05
▁നിലവാരം	-11.0505
▁28,	-11.0505
▁ക്ഷണ	-11.0506
▁അറിയാൻ	-11.0508
▁ഇതാദ്യമായ	-11.0508
▁ഫയല	-11.0509
▁കൂട്ടുന്ന	-11.0511
▁ഉപയോഗിക്കുക	-11.0511
▁ആവേശം	-11.0513
▁വഹി	-11.0514
▁കാണുന്നുണ്ട്	-11.0514
▁അക	-11.0515
ർട്ട്	-11.0518
മൊഴി	-11.0518
▁കപില	-11.052
▁യുമെല്ലാ	-11.0522
▁ിട്ടുണ്ട	-11.0523
ക്കാലത്ത	-11.0523
▁സീറ്റുകളിലേക്ക	-11.0529
▁രാജീവ	-11.0532
▁എത്തിയതോടെ	-11.0532
▁കണ്ടെത്തുന്ന	-11.0534
▁ങ്ങളായി	-11.0536
▁ചിത്രത്തിന്	-11.0536
▁മാറ്റാന	-11.0536
▁അയയ്	-11.0538
▁എംജി	-11.0539
സ്റ്റഡിയിലെടുത്ത	-11.0542
▁ആവർത്തിക്ക	-11.0542
▁വര്‍ദ്ധിപ്പി	-11.0544
▁R	-11.0545
▁മീര	-11.0545
▁പരിശോധിച്ചു	-11.0546
ിക്കോട്	-11.0548
▁കപ്പല്‍	-11.0549
▁ബുദ്ധിമുട്ടു	-11.0549
▁ാവും	-11.055
▁തെരഞ്ഞെടുക്ക	-11.0555
▁ആലോചിക്ക	-11.0555
▁ഉദ	-11.0556
▁ക്രീ	-11.056
▁കൂളുകള്‍	-11.0563
▁നേരിടാ	-11.0564
▁ലക്ഷ്യമെന്ന	-11.0568
▁ഉൾപ്പടെ	-11.0568
▁കമ്മ്യൂണിറ്റി	-11.0568
▁തീപിടുത്ത	-11.0568
▁ദുർബല	-11.0568
▁വന്നുചേരും	-11.0568
▁സമ്പാദ്യ	-11.0568
▁സുസ്ഥിര	-11.0568
▁പ്രായോഗിക	-11.0568
▁ബ്ലെസ്ലി	-11.0568
▁വിജിലൻസ	-11.0568
▁അങ്കമാലി	-11.0568
▁രൂപയുമാണ്	-11.0568
▁ശത്രുക്കള	-11.0569
▁നിര്‍മല	-11.057
▁അപകടകരമായ	-11.0572
▁കാവി	-11.0573
▁മുണ്ടോ	-11.0573
▁വിഡിയോ	-11.0575
▁നിയമത്തിനെതിര	-11.058
▁മണിക്കുട്ടൻ	-11.0581
▁പ്രായമായ	-11.0586
▁പട്ടണ	-11.0586
▁എത്തിക്കാന	-11.0587
▁നഷ്	-11.0589
▁സ്വീകരിക്കാൻ	-11.059
▁ശ്രമിക്കുക	-11.059
▁ഇല്ലായിരുന്നു	-11.0591
▁ുള്ളത്	-11.0597
▁തയ്യാറായി	-11.0598
▁നിരത്തി	-11.0601
▁പോകുന്നില്ല	-11.0605
▁വ്യാപിച്ച	-11.0608
രിവാള	-11.0609
ല്ലായ്മ	-11.0616
യിലുണ്ടായിരുന്ന	-11.0616
▁കുമാരി	-11.0617
▁ചരിത്രത്തിൽ	-11.0618
▁കണ്ണൂര	-11.0618
ശ്രീറാം	-11.0619
▁റിസര്‍വ്	-11.0619
▁വിടി	-11.062
▁പുരുഷന്‍മാര	-11.0626
▁രമേശ	-11.0628
▁ാതിരുന്ന	-11.0629
▁കാറുകള	-11.0631
ിരിക്കും	-11.0637
▁ഡിംപല്‍	-11.0637
▁മാനി	-11.0639
കോശ	-11.064
▁എട്ടിന്	-11.0641
▁സ്റ്റാർ	-11.0644
▁തിയേറ്റ	-11.0644
▁ക്ലാസുകള	-11.0646
ൊടു	-11.0646
▁160	-11.0647
▁നിയന്ത്രി	-11.0648
▁പിന്മാറ	-11.0648
▁കോണ്‍ഫറന്‍സ	-11.0649
▁ഒമാന്‍	-11.0649
▁മാതാവ്	-11.065
▁കാര്‍ത്തിക	-11.0651
ാമത്	-11.0653
ര്‍ഡ്	-11.0653
▁ജീവനക്കാര്‍ക്ക	-11.0656
▁ിനായി	-11.0656
▁കൂടിയായിരുന്നു	-11.0656
▁വായു	-11.0657
▁ില്ലായിരുന്നു	-11.0657
▁വിറ്റു	-11.0657
▁അമല	-11.0659
▁വഴങ്ങിയ	-11.0659
▁ജയറാ	-11.0661
▁നൂറുകണക്കിന	-11.0662
▁ഉപഭോക്ത	-11.0662
▁ശുചിത്വ	-11.0663
▁അതിതീവ്ര	-11.0663
▁ഈരാറ്റുപേട്ട	-11.0663
▁എസ്റ്റേറ്റ	-11.0663
▁ഗ്ലോബ	-11.0663
▁ഡിസ്ചാര്‍ജ്	-11.0663
▁വില്‍പന	-11.0663
▁ടീച്ചര്‍	-11.0663
▁തക്കാളി	-11.0663
▁കവര്‍ച്ച	-11.0663
▁ഭാഗികമായ	-11.0663
▁സലാം	-11.0663
▁വര്‍ഗ	-11.0664
▁തിരുമാന	-11.0665
▁ഏര്‍പ്പെട	-11.0665
▁സ്ഥാപനങ്ങള്‍ക്ക	-11.0665
▁മാണ	-11.0666
▁തേജ	-11.0666
▁വര്‍ഷത്തിനിടെ	-11.0666
▁മെഗാ	-11.0667
▁തിരൂര	-11.0669
▁എത്തിക്കുക	-11.0669
▁കൊണ്ടുപോയ	-11.067
ക്കോടി	-11.067
സ്റ്റര്‍	-11.067
▁വാതില	-11.0673
▁ദോ	-11.0675
ഗണ	-11.0679
▁32,	-11.068
▁അധികാരത്തില	-11.0682
▁അഭ്യർത്ഥിച്ച	-11.0682
▁സേവനങ്ങൾ	-11.0687
▁ജീവിതത്തിലേക്ക്	-11.069
▁പരാതിയില	-11.069
▁കണക്കാക്ക	-11.0693
▁പോൾ	-11.0695
▁രാജസ്ഥാന	-11.0696
▁പിന്‍വലിക്കാന	-11.0696
ച്ചേരി	-11.0696
▁കാനഡയില	-11.0697
▁അന്തര്‍	-11.0698
▁വ്യാപാരികള്‍	-11.0699
▁രണ്ടിന്	-11.0701
▁തീര്‍ന്ന	-11.0702
ത്തിലുള്ള	-11.0703
▁ഹോട്ടലുകള	-11.0703
▁ബിൻ	-11.0705
▁അഭിമുഖീകരി	-11.0709
ഭീഷണിപ്പെടുത്തിയ	-11.0713
▁താരത്തിന്	-11.0713
▁മനു	-11.0718
▁വിജ്ഞാപനം	-11.0719
▁ചെലവാ	-11.0719
▁നേതൃത്വവും	-11.072
▁ഭേദമായ	-11.0721
▁പ്പാറ	-11.0721
▁ഭക്ഷണവും	-11.0722
▁തയ്യാറാണെന്ന്	-11.0722
ങ്കോ	-11.0723
▁യിലാണെന്ന	-11.0724
▁ഉന്നയിച്ചു	-11.0724
▁പോകണമെന്ന	-11.0726
▁വാർഡ്	-11.0733
▁റുകള്‍	-11.0734
▁സുധാകരന	-11.0736
▁ഇവിടേക്ക	-11.0736
കുമാരി	-11.0738
▁വേതനം	-11.0738
▁രാജേന്ദ്രന്‍	-11.0741
▁തെളിഞ്ഞു	-11.0744
▁ഗ്രാ	-11.0744
▁അസ്വസ്ഥ	-11.0748
▁ദള	-11.0748
കാന്ത	-11.075
▁ഓര്‍മ്മ	-11.0751
▁നഗരങ്ങള	-11.0752
▁വാറ	-11.0752
▁റോക്കറ്	-11.0753
▁വാച്ച	-11.0755
▁സ്വീകരിക്കുന്നത	-11.0756
▁ഉപാധി	-11.0758
▁എൻഐഎ	-11.0758
▁നിയമലംഘന	-11.0758
▁സൗമ്യ	-11.0758
▁ടൊവ	-11.0758
▁ശൃം	-11.0758
▁പ്രാതിനിധ്യം	-11.0758
▁ശ്രീലേഖ	-11.0759
▁വേര്‍	-11.076
▁നന്നാ	-11.0762
▁ലക്ഷണ	-11.0762
ഖ്യ	-11.0763
▁അഴ	-11.0763
▁ബഷീര്‍	-11.0764
▁സ്വീകാര്യത	-11.0765
▁സീന	-11.0765
▁നിരീക്ഷിച്ച	-11.0766
▁നിർമ്മി	-11.0767
▁മറ്റേത	-11.0767
▁സൃഷ്ടിക്കാന	-11.0769
▁പ്രവൃത്തിപരിചയ	-11.0769
▁ത്രിപുര	-11.077
▁ശേ	-11.0772
▁മിഡ	-11.0772
▁സുകള	-11.0773
▁വീട്ടിലെത്തിയ	-11.0773
▁2001	-11.0775
▁ചവറ	-11.0776
▁ഖത്തറില്‍	-11.0778
▁രാകേഷ	-11.0779
▁ക്രൂര	-11.078
ാനുമതി	-11.0783
▁സിയാ	-11.0783
ല്യം	-11.0784
▁യോഗ്യ	-11.0784
▁രോഗബാധിത	-11.0786
▁ലിറ്ററിന്	-11.0789
▁വടക്കന്‍	-11.079
▁ഗ്രൂപ്പു	-11.0795
▁ഞ്ഞു	-11.0801
▁ഉറങ്ങ	-11.0804
▁അങ്ക	-11.0805
▁പാര്‍ക്ക്	-11.0806
▁വിവാദങ്ങൾ	-11.0806
▁കഴിഞ്ഞിട്ടും	-11.081
▁ഗാര്‍ഡ	-11.0811
▁ഏറ്റു	-11.0812
▁വാഷ	-11.0814
▁പിടികൂട	-11.0815
▁ആക്ട്	-11.0816
▁താരമാണ്	-11.0818
▁മണിപ്പൂര	-11.082
▁കയ്യിൽ	-11.0822
പ്രവര്‍ത്തക	-11.0823
▁ചാർജ്	-11.0825
▁ബൂത്തുകള	-11.0828
▁യാളെ	-11.0832
▁മറ്റൊരാള	-11.0835
രാഷ്ട്ര	-11.0836
▁ഉയര്‍ത്ത	-11.0836
▁നിയമവിരുദ്ധ	-11.0837
▁വഴങ്ങ	-11.0839
▁തസ്തികകള	-11.0839
▁വര്‍ഷത്തിന്	-11.084
▁വിശ്വസിക്ക	-11.0841
▁ദക്ഷിണേന്ത്യ	-11.0841
▁കുന്നത്	-11.0845
▁വര്‍ധിച്ചു	-11.0846
▁ക്വാറന്റീന	-11.0854
▁യുവാക്കൾ	-11.0854
▁സമവാക്യ	-11.0854
▁വെള്ളാപ്പള്ളി	-11.0854
▁ഒളിവില്‍	-11.0854
▁ഉത്തമ	-11.0854
▁സലീം	-11.0854
▁ഉൾക്കൊള്ള	-11.0854
▁തിരുവോണ	-11.0854
▁വീഴ്ച്ച	-11.0856
▁കൈമാറ്റ	-11.0857
▁മെഡിസി	-11.0857
▁ഡീസ	-11.0859
▁രാജകുമാര	-11.0859
▁സെഷന്‍	-11.0859
▁ആലോചി	-11.0863
▁കുത്തിയ	-11.0864
▁കമ്മിഷന്‍	-11.0864
▁എഞ്ചി	-11.0864
▁എല്ലാവരോടു	-11.0866
▁ഇല്ലാതായ	-11.0868
▁കലാകാരന	-11.0868
▁യുണ്ടാകും	-11.087
▁ന്ദ്ര	-11.087
പ്പിള്ള	-11.0871
▁സ്വന്തമാക്കി	-11.0872
▁അല്‍പ	-11.0873
▁ബിഹാര	-11.0874
▁വോട്ടാണ്	-11.0875
▁പുരുഷന	-11.0876
▁കാത്തിരിക്കുക	-11.0878
▁പുറത്തുവിട്ടത്	-11.0881
▁സിഡി	-11.0881
▁പട്ടേല	-11.0883
al	-11.0885
▁മടക്കി	-11.0885
▁കായ	-11.0886
▁വരില	-11.0888
പ്പെട്ടയിടങ്ങളി	-11.0889
ധാര	-11.089
▁ചെയ്തതോടെ	-11.0891
▁കൂടും	-11.0891
▁നടക്കുന്നതെന്ന	-11.0892
▁ഉണ്ടായേക്ക	-11.0898
പ്രത്യക്ഷപ്പെട്ട	-11.0901
▁ചെയ്തിട്ട	-11.0901
▁രാശിക്കാർ	-11.0902
▁ശരീരത്ത	-11.0903
▁പ്രയോഗിച്ച	-11.0905
▁സാധ്യതയെന്ന	-11.0907
▁വിഭാഗവും	-11.0908
▁രുന്ന	-11.0908
▁വിദ്യാ	-11.0908
▁രോട	-11.0913
▁റിലയന്‍സ്	-11.0918
▁അയല്‍	-11.0919
▁ജെഡിഎസ	-11.092
▁ിട്ടുള്ളതെന്ന	-11.092
▁സഞ്ചാരികള	-11.092
▁സാമ്പത്തികമായ	-11.0921
▁ജീവിക്കാന	-11.0925
▁ഭാര്യയുടെ	-11.0929
▁അബ്ദുള്ള	-11.0932
▁40,	-11.0934
▁ചെറുത	-11.0936
▁ആശ്രയ	-11.0937
▁നടത്തുന്നതെന്ന	-11.0939
▁പ്രകാശന	-11.0941
▁എക്കാലത്ത	-11.0942
▁റുകള	-11.0944
▁ണ്ടി	-11.0944
▁അന്ത്യം	-11.0948
▁നീര	-11.0948
▁ങ്ങളു	-11.0949
▁ഘട്ടത്തിലാണ്	-11.0949
▁വർധന	-11.0951
▁ആസ്വദി	-11.0951
▁ജമാഅത്ത	-11.0951
▁പുനരധിവാസ	-11.0951
▁പ്രദര്‍ശന	-11.0951
▁റഷീദ	-11.0951
▁സംപ്രേഷണ	-11.0951
▁(60)	-11.0951
▁വളർന്ന	-11.0951
▁കൂറുമാറിയ	-11.0952
▁നിര്‍ബന്ധിത	-11.0953
▁റൂറല	-11.0953
▁തകരാറ	-11.0953
▁സിൽവർ	-11.0954
▁കള്ളക്കടത്ത	-11.0955
▁കുണ്ടറ	-11.0958
▁നെഹ്	-11.0959
▁ഊന്ന	-11.0959
▁എണ്ണവില	-11.0961
▁സമ്മർദ്ദ	-11.0961
▁ചടങ്ങുകൾ	-11.0962
▁വേഗതയില	-11.0966
▁വരേണ്ട	-11.0966
▁രോഗലക്ഷണ	-11.0968
▁പീഡിപ്പിക്ക	-11.0968
▁ഗ്രൂപ്പില	-11.097
▁വടക്കേ	-11.097
▁ഇടതുപക്ഷത്തിന്	-11.0973
ുലൈ	-11.0974
▁കടലില്‍	-11.0974
▁ഓവറ	-11.0975
▁സൈനികരെ	-11.0977
ടുക്ക	-11.0977
▁kerala	-11.0978
ിലായിരുന്നു	-11.098
▁എളമ	-11.098
▁പോവുകയായിരുന്നു	-11.0982
▁അന്വേഷി	-11.0982
▁വർഗ	-11.0984
▁ദ്രോഹ	-11.0985
▁വയ്ക്കുന്ന	-11.099
▁രക്ഷിച്ച	-11.0991
▁ഇറങ്ങിയത്	-11.0992
▁നിയമസഭയിലേക്ക	-11.0993
▁ടോപ്	-11.0994
▁ക്വട്ടേഷന	-11.0999
▁മന്ത്ര	-11.1002
▁നടത്തിപ്പ	-11.1003
▁സഹായങ്ങള	-11.1004
കിയ	-11.1005
▁തോതി	-11.1009
▁തോറ	-11.1014
▁മാലിന്യം	-11.1014
▁വിദഗ്ധർ	-11.1015
വണ്ടി	-11.1017
▁എതിര്‍പ്പ്	-11.1022
▁മനസ്സിലാക്കി	-11.1022
▁പ്രവര്‍ത്തകന	-11.1022
▁ബൂ	-11.1023
റേഷൻ	-11.1023
▁ദിശ	-11.1026
▁അഞ്ചര	-11.1027
▁ഹൈക്കോടതിയിൽ	-11.1027
▁ലേക്കാണ്	-11.1028
▁തയ്യാറെടുപ്പ	-11.103
▁ഇടത്ത	-11.103
▁കൊടുക്കേണ്ട	-11.103
▁സഹോദരങ്ങള	-11.1031
▁N	-11.1032
▁ബോധ്യപ്പെടുത്ത	-11.1033
▁നടുത്ത	-11.1033
▁ടെലി	-11.1036
▁തയ്യാറെടു	-11.1036
മില്ലാത്ത	-11.1039
കാര്യ	-11.1043
▁ചെയ്താലും	-11.1046
ിനറി	-11.1047
▁ുണ്ടാവും	-11.1047
▁ഇൻഷുറൻ	-11.1049
▁പ്രേരിപ്പിച്ച	-11.1049
▁വധശ്രമ	-11.1049
▁ക്യാബിന	-11.1049
▁പോഷക	-11.1049
▁തുടരന്വേഷണ	-11.1049
▁പൊളിച്ചു	-11.105
ബിലിറ്റി	-11.1051
▁ടൂറിസ്റ്റ	-11.1051
▁കാമുകന	-11.1052
▁വൃത്തിയാ	-11.1052
▁ഭീമ	-11.1053
▁ജീവനക്കാരി	-11.1054
▁പ്രകടിപ്പിച്ചു	-11.1054
▁സാധിക്കൂ	-11.1055
▁സദസ	-11.1055
▁താങ്ങ	-11.1055
▁കളിക്ക	-11.1059
▁കുടുംബങ്ങള്‍	-11.1059
▁ഹയര്‍	-11.1061
▁കുറ്റപത്ര	-11.1061
▁ആശ്രയിച്ച	-11.1063
ചിത്ര	-11.1063
▁യുഎന്‍	-11.1064
▁1,0	-11.1065
▁പ്രൊഡക്ഷ	-11.1066
▁രീ	-11.1067
യിലോ	-11.1071
▁തത്വ	-11.1071
▁വിജയന	-11.1074
▁സിംഗിനെ	-11.1074
▁ഗോഡ്	-11.1075
▁മണിക്കൂറുകൾ	-11.1076
▁വിഷയങ്ങൾ	-11.1079
▁വേഗത്തിലാ	-11.1081
▁തുണി	-11.1082
▁തികയ	-11.1082
▁മുന	-11.1085
▁ദിവസമായ	-11.1085
▁കുട്ടിക്ക്	-11.1087
▁അധിക്ഷേപിച്ച	-11.1087
▁സാധ്യമായ	-11.1088
▁പ്രേക്ഷകര്‍	-11.1092
▁തീവ്രവാദികള	-11.1092
ില്ലെങ്കില്‍	-11.1093
▁കിട്ടുമെന്ന	-11.1093
▁ക്കുള്ളില്‍	-11.1096
▁900	-11.1098
▁പ്പിക്കാന	-11.1099
▁വാവ	-11.1099
▁പ്രഖ്യാപിക്കും	-11.1105
▁ഏജന്‍സികള	-11.1109
▁ബര്‍	-11.1112
▁ഷെഡ്യൂ	-11.1112
▁ഷമി	-11.1116
▁ദാനം	-11.1117
▁പ്രതിയാണ്	-11.1119
▁റൂട്ട്	-11.1121
▁സിദ്ദിഖ	-11.1121
▁തൂ	-11.1124
▁ടീമുകള	-11.1126
▁നോക്കുക	-11.113
▁കരിപ്പൂര	-11.1133
▁സര്‍ക്കാരില	-11.1133
▁യുടേ	-11.1133
▁നകം	-11.1136
▁തരംഗത്ത	-11.1138
▁ആലപ്പുഴയില്‍	-11.1138
ക്കുഴ	-11.1145
കണ്ഠ	-11.1145
▁ഉണ്ടാകില്ല	-11.1146
▁അനധികൃതമായ	-11.1146
▁വന്നിട്ട	-11.1146
▁അവന്	-11.1147
▁അപേക്ഷാ	-11.1147
▁വന്ദേ	-11.1148
▁ഓക്സിജന	-11.1148
▁കിഷോര്‍	-11.1148
▁ഐസിഎംആ	-11.1148
▁സാമന്ത	-11.1148
▁തിരച്ചിൽ	-11.1148
▁സയൻസ്	-11.1148
▁ഡിലീറ്റ	-11.1148
▁സംഭവിക്കും	-11.1148
▁(2,	-11.1149
▁ഭാഗമായിട്ടാണ്	-11.1149
▁ചേട്ടന	-11.115
ന്റോ	-11.1151
▁ചെല്ല	-11.1152
▁കുഞ്ഞുങ്ങള	-11.1153
▁ധാരണയായ	-11.1156
23	-11.1156
▁വിയോജിപ്പ	-11.1158
▁ചികിത്സയിലുളള	-11.1159
▁ഭാരതി	-11.1159
▁മാസത്തില	-11.1162
▁സെപ്തംബര്‍	-11.1167
▁ആഘോഷിക്കുന്ന	-11.1167
▁പുത്തൻ	-11.1168
▁ദൂരം	-11.1169
▁വുമുണ്ട്	-11.1171
▁സംഘർഷം	-11.1176
ക്കൂടി	-11.1177
▁സമാധാനപരമായ	-11.1178
▁പ്പെട്ടു	-11.1179
▁നേട്ടമാണ്	-11.1181
▁കണ്ണി	-11.1181
▁മാവോയിസ്റ്റ	-11.1182
▁ഷൂട്ട്	-11.1186
▁കിട്ടിയില്ല	-11.1188
▁ഒളിച്ച	-11.1191
▁സെന്ററുകള	-11.1194
▁വന്നതെന്ന	-11.1195
▁മസ്ജിദ്	-11.1195
▁കൊല്ലത്ത	-11.1197
▁ചുമത്ത	-11.1198
▁മൂന്നിന്	-11.1198
▁നിയമനത്തിന	-11.12
▁കാത്തിരി	-11.1201
▁വണ്ണ	-11.1201
▁പോസിറ്റീവ	-11.1203
▁വിജയിപ്പി	-11.1205
▁ആദ്യമായിട്ട	-11.1206
▁വാല	-11.1209
▁മുകളിലേക്ക	-11.1211
▁റ്റിൽ	-11.1211
▁പൂർത്തിയാക്കി	-11.1212
മിത്ര	-11.1213
▁വര്‍ഗീസ്	-11.1214
▁മുമ്പും	-11.1219
ക്കിള്‍	-11.1219
▁ഗോപ	-11.1221
▁പോക്	-11.1222
▁പൊളിഞ്ഞ	-11.1224
▁ങ്ങല്‍	-11.1225
▁മേനോന്‍	-11.1226
▁മരിക്കുകയ	-11.1226
ത്തരം	-11.1226
▁അനിത	-11.1227
▁അറിയിപ്പ	-11.1235
▁ക്രമീകരണങ്ങള	-11.1238
▁മണ്ഡലങ്ങള്‍	-11.1239
▁നടത്തുന്നതിന്	-11.1242
▁നിറഞ്ഞു	-11.1244
▁ആവശ്യങ്ങൾ	-11.1244
▁സാമുദ	-11.1245
▁ശക്തമാക്കി	-11.1246
ഓ	-11.1247
▁സംഭവിക്കുക	-11.1248
▁അലേർട്ട്	-11.1248
▁കൊൽക്കത്ത	-11.1248
▁മഞ്ചേശ്വരം	-11.1248
▁മഞ്ചേശ്വരത്ത	-11.1248
▁മാര്‍ഗനിര്‍ദേശ	-11.1248
▁സമുച്ചയ	-11.1248
▁കമ്മീഷണർ	-11.1248
▁ഗ്രേഡ്	-11.1248
▁ട്വിസ്റ്റ	-11.1248
▁വഴിത്തിരിവ	-11.1248
▁സീതാറാ	-11.1248
▁കോണ്‍ഗ്രസുകാര	-11.1248
▁ബിനോയ	-11.1249
▁സാഹിബ	-11.1249
▁ശിരോ	-11.1249
▁ഓര്‍മ	-11.125
ഞ്ചു	-11.1251
▁(14	-11.1255
▁വെല്ലുവിളിയാണ്	-11.1255
▁ഇടതുപക്ഷത്ത	-11.1258
▁പരാമര്‍ശങ്ങള്‍	-11.1259
▁പാതി	-11.1261
▁നിലപാടുകള്‍	-11.1261
▁അർഹത	-11.1261
▁വർദ്ധിച്ച	-11.1263
▁ഹൈദരാബാദില	-11.1263
▁കഴിയൂ	-11.1263
▁കൊവിഡിനെ	-11.1267
▁ലാല	-11.1271
▁സീറ്റിന	-11.1272
▁വിഭാഗങ്ങൾ	-11.1281
▁ഓഫര്‍	-11.1287
▁കോൺഗ്രസിന	-11.1292
▁നൽകുന്നു	-11.1292
യുണ്ടായിരുന്ന	-11.1296
▁മരുമക	-11.1298
▁ഹാജരാക	-11.1302
▁ഷിപ്പ്	-11.1303
▁എസ്എഫ്	-11.1304
▁പറയേണ്ടി	-11.1306
▁ചിരിച്ച	-11.1312
ഗു	-11.1314
▁തൊഴിലാളികള്‍ക്ക	-11.1315
▁ആവശ്യമെങ്കി	-11.1316
▁നടപ്പാക്കാന	-11.1317
▁അതിനോട	-11.1319
▁സെറ്റ്	-11.1321
▁സാം	-11.1324
▁ഷാജ	-11.1324
▁ഭേദമായി	-11.1326
▁മൈല	-11.1327
▁എപ്പോഴ	-11.1329
▁ത്തേക്ക	-11.1331
▁സെൽ	-11.1332
▁ജനാധിപത്യം	-11.1332
▁സണ	-11.1334
▁നിലനില്‍ക്ക	-11.1334
▁മാസമായി	-11.1335
▁എംഎസ്	-11.1336
▁108	-11.1338
▁അതിര	-11.1341
ഷ്യൽ	-11.1342
▁പവര്‍	-11.1343
▁അന്നേ	-11.1343
ക്കൂറ	-11.1346
▁കടന്നുപോകുന്ന	-11.1349
▁ടെക്നോളജി	-11.1349
▁പെർമിറ്റ	-11.1349
▁ബംഗ്ലാദേശ്	-11.1349
▁തലക്കെട്ട	-11.1349
▁പ്രതിച്ഛായ	-11.1349
▁കൃഷ്ണദാസ്	-11.1349
▁ദുബെ	-11.1349
▁ഇങ്ങോട്ട	-11.1349
▁തിളങ്ങി	-11.1349
▁വെടിവെച്ച	-11.135
▁പുതുച്ചേരി	-11.135
▁സന്ദർശന	-11.135
▁ഒളിപ്പിച്ച	-11.135
▁ദിവസത്തിനകം	-11.135
▁റ്റർ	-11.1354
▁മൻ	-11.1355
▁ഉര	-11.1357
ുണ്ടായിരുന്നില്ല	-11.1358
▁അഞ്ചിന്	-11.1358
▁സ്റ്റൈ	-11.1359
▁പേസ്	-11.1362
▁ഹാജരാക്കി	-11.1362
▁അവകാശവാദ	-11.1364
▁കഥകള	-11.1364
▁ക്യാ	-11.1364
▁പുതുക്കിയ	-11.1365
▁തനിച്ച്	-11.1365
▁മാറാന്‍	-11.1367
▁ഹരിപ്പാട	-11.1368
▁ഹാളില	-11.1369
▁ിക്കാതെ	-11.1369
▁മെഷീന	-11.1371
",	-11.1372
▁നഗരം	-11.1372
▁അവശേഷിക്കുന്ന	-11.1375
▁അവതരിപ്പി	-11.1379
▁ഫ്രഞ്ച	-11.1381
▁ചെന്നൈയില്‍	-11.1384
▁പിടിക്കുമെന്ന	-11.1385
▁ഗ്രൂപ്പിന്	-11.1387
▁താഴെയാണ്	-11.1391
▁മാര്‍ഗം	-11.1392
▁സജീവമാണ്	-11.1393
▁വര്‍ധിക്കുന്ന	-11.1398
▁മടങ്ങിയത്	-11.1411
പ്പറഞ്ഞ	-11.1416
▁നേരിടും	-11.1418
രൂപ	-11.1419
▁കടല്‍	-11.142
▁സുധാകരനെ	-11.1424
▁സിദ്ധ	-11.1424
▁ശേഷിയ	-11.1428
▁മുമ്പേ	-11.1428
▁ല്ലെ	-11.1428
▁തെരഞ്ഞെടു	-11.143
▁ആനുകൂല്യം	-11.1432
▁t	-11.1434
▁സുന്ദരി	-11.1435
▁മത്സരാര്‍ത്ഥികള	-11.1437
▁മടങ്ങുന്ന	-11.1439
▁വിദ്യാര്‍ഥികള	-11.144
▁ബന്ധിപ്പി	-11.1441
▁മനോഹരമായ	-11.1441
▁ചെറുപ്പ	-11.1445
▁വിനോദസഞ്ചാര	-11.1447
▁കെജ്രിവാള	-11.1451
▁അസോസിയേറ്റ്	-11.1451
▁ഉരുൾപൊട്ട	-11.1451
▁ഖാര്‍ഗെ	-11.1451
▁ഡെലിവറി	-11.1451
▁നാമനിര്‍ദേശ	-11.1451
▁രക്ഷാപ്രവർത്തന	-11.1451
▁താക്കീത	-11.1451
▁സന്നിധാനത്ത	-11.1451
▁സമ്മാനിക്കും	-11.1451
▁കന്നഡ	-11.1451
▁അവതരിപ്പിച്ചത്	-11.1451
▁രേഷ്മ	-11.1451
▁പദ്ധതിയാണ്	-11.1451
▁കൊടുവള്ളി	-11.1451
▁വിജയനെ	-11.1452
ജ്യോത്	-11.1452
▁സയന്‍സ്	-11.1452
▁105	-11.1452
▁പ്രവീണ	-11.1453
▁സ്വരാജ്	-11.1454
▁കണ്ണീര	-11.1454
പ്പാടി	-11.1455
▁സ്ഥലത്തേക്ക്	-11.1458
▁50,	-11.1459
▁ബ്ലൂ	-11.1463
▁ചൗ	-11.1463
▁പുളി	-11.1463
▁ഒക്	-11.1465
▁ബാബുവിനെ	-11.1466
▁എടുക്കുന്നത്	-11.1467
▁ഗുഡ്	-11.1467
▁ബന്ധുവ	-11.1468
ദര	-11.147
▁കാണണം	-11.1473
അബ്ദുള്ളക്കുട്ടി	-11.1473
കൊണ്ടിരിക്കുകയാണ	-11.1474
▁പാത്ര	-11.1477
▁ശ്വാസം	-11.1477
▁സർവ്വീസ്	-11.1478
▁നേടുകയ	-11.1478
▁ഭരണത്തില	-11.1479
▁കേസിന്	-11.1484
▁നാടിന്	-11.1488
▁നമ്പറുകള	-11.1488
▁ന്യായീകരിക്ക	-11.149
▁പ്രവർത്തകർക്ക	-11.149
▁പരിചരണ	-11.1491
▁വന്നതാണ്	-11.1491
▁എമിറേറ്റ്	-11.1493
▁സമ്മര്‍ദ്ദ	-11.1495
▁മുന്നിലാണ്	-11.1496
▁മാലിക്	-11.1497
▁43,	-11.1498
▁പുറത്തുവന്നത്	-11.1499
▁കാണിക്കാന	-11.1499
▁അതിലെ	-11.15
ർദ്ദ	-11.15
▁അവകാശങ്ങള	-11.1504
▁എന്നുള്ളതാണ്	-11.1507
ത്തറ	-11.1511
▁രഞ്ജി	-11.1514
▁ലക്ഷത്തി	-11.1516
▁കോം	-11.1516
▁ആരംഭിക്കുമെന്ന	-11.1518
▁ലിങ്ക്	-11.1525
▁ദ്ധ	-11.1527
▁അറിയുന്നത്	-11.1528
▁ഡാറ്റാ	-11.153
▁കൊന്നു	-11.1531
▁ഫീല്‍ഡ	-11.1532
▁താല്‍പ്പര്യ	-11.1532
▁ധ്യ	-11.1533
▁ചികില്‍സ	-11.1533
ാവോ	-11.1533
▁വിളിക്കുന്നത്	-11.1534
▁പോക്ക	-11.1535
▁കൾക്കും	-11.1535
▁സന്തോഷവും	-11.1536
▁കുവൈത്തില	-11.154
▁a	-11.154
▁തടി	-11.154
ക്ഷണ	-11.1541
▁മതനിരപേക്ഷ	-11.1544
▁പരാതിപ്പെട്ട	-11.1545
▁വിമര്‍ശിച്ച്	-11.1547
ഭേദഗതി	-11.1548
▁ബീഹാറ	-11.155
▁നിയന്ത്രിക്കാന	-11.1551
▁കൊച്ചിയിൽ	-11.1553
▁അപ്പുറ	-11.1554
▁അങ്കണവാടി	-11.1554
▁അസംബ്ലി	-11.1554
▁ഏകോപന	-11.1554
▁ഗുണനിലവാര	-11.1554
▁നിരോധനാജ്ഞ	-11.1554
▁സ്ഥാനക്കയറ്റ	-11.1554
▁ഭയങ്കര	-11.1554
▁കുമാരസ്വാമി	-11.1554
▁നാണയ	-11.1555
▁പേപ്പറ	-11.1555
▁അഫ്	-11.1555
▁എല്‍ജെഡി	-11.1556
▁പൂര്‍ത്തീകരി	-11.1556
▁ഉദ്യോഗാർത്ഥികൾ	-11.1557
▁ഘട്ടങ്ങള	-11.1557
നിയന്ത്രിക്കുന്ന	-11.1559
▁നഷ്ടമാക	-11.1559
▁ശാഖ	-11.1559
▁പുല്‍	-11.156
▁ലംഘിക്കുന്ന	-11.156
▁ശതമാനത്തോളം	-11.156
▁ചില്ലറ	-11.1562
ന്മാര	-11.1562
▁സ്വീകരിക്കേണ്ട	-11.1563
▁ബുദ്ധിമുട്ടി	-11.1565
▁സപ്പോര്‍ട്	-11.1565
▁സെന്‍സ	-11.1565
▁വായന	-11.1567
ദൂര	-11.1568
▁സ്വാഗത	-11.1571
▁ഉണ്ടായില്ല	-11.1572
ആരോഗ്യമന്ത്രാലയം	-11.1573
▁മുന്‍തൂക്കം	-11.1574
▁വൈറസിനെ	-11.1575
ത്തുകയായിരുന്നു	-11.1575
▁തെറ്റായി	-11.1575
▁ഉറ്റുനോക്ക	-11.1578
▁ബാഗേജ	-11.1578
▁ചരക്കു	-11.1579
▁മെക്കാനിക്ക	-11.158
▁ഉപദ്രവ	-11.1582
▁ത്തിലേ	-11.1584
▁ആരംഭിക്ക	-11.1584
▁വടി	-11.1585
▁വിരല	-11.1587
▁ബിഹാറ	-11.1588
▁ബാര	-11.1588
ഹാനി	-11.1589
▁മുന്നിലുള്ളത്	-11.1592
▁നിയമത്തിന്	-11.1592
▁ഡു	-11.1594
▁ഇപ്പോ	-11.1595
▁ിക്കപ്പെടുന്ന	-11.1597
▁വാദിക്കുന്ന	-11.1602
▁ഉട	-11.1602
▁എടുക്കുക	-11.1603
▁പ്രിന്റ	-11.1603
▁അമര	-11.1605
ിനകത്ത്	-11.1606
▁നടത്തിയത	-11.1606
▁പോത്ത	-11.1607
‍ർ	-11.1608
▁കാരണങ്ങള്‍	-11.1609
▁പേരുകൾ	-11.161
▁വാദിച്ചു	-11.1614
▁സംഘടിപ്പി	-11.1615
▁പുറക	-11.1618
▁നാൾ	-11.162
▁W	-11.1622
▁വോട്ടിന	-11.1624
ത്തേക്കാള്‍	-11.1626
▁നമ്മു	-11.1627
▁കൊണ്ടിരിക്ക	-11.1628
▁മക്കളെ	-11.163
തിനെതിരായ	-11.1632
▁പ്രശംസ	-11.1634
▁പ്പെടാന	-11.1635
▁ആയിരിക്ക	-11.1639
▁തീരുമാനമായ	-11.1641
▁ലിമിറ്റഡ	-11.1642
▁മരണങ്ങൾ	-11.1647
▁നൈറ്റ	-11.1648
▁കേട	-11.1649
ക്കണ്ടി	-11.165
ലേറെ	-11.1651
▁വയ്ക്കാന	-11.1652
▁തീരുമാനിക്കുകയ	-11.1654
▁ഥാ	-11.1657
ാധികാര	-11.1658
▁നമ്പൂതിരി	-11.1658
▁നൗഷാദ	-11.1658
▁മ്യൂസിയ	-11.1658
▁പെരുന്നാള	-11.1658
▁അനിശ്ചിതത്വ	-11.1658
▁മട്ടന്നൂര്‍	-11.1658
▁പന്തളം	-11.1658
▁പഠിപ്പിച്ച	-11.1659
▁നിഴല	-11.166
▁എംഡി	-11.1661
▁മയ്യ	-11.1661
▁!!!	-11.1661
▁പോലൊര	-11.1663
▁പുലര്‍ത്തിയ	-11.1665
▁സമീപകാലത്ത	-11.1668
▁വിദ്യാലയ	-11.167
▁ധര	-11.1673
▁അംഗീകരിച്ചു	-11.1673
▁വയ്യ	-11.1673
▁മാംസ	-11.1674
▁ആനി	-11.1674
▁പൊട്ടിച്ച	-11.1674
▁ആംബുലൻസ	-11.1675
▁പ്രതിമാസ	-11.1676
▁മകനാണ്	-11.1676
▁സംവിധായക	-11.1677
▁പരിക്കേറ്റു	-11.1678
▁ബഹള	-11.1678
▁ചുരു	-11.1679
▁മൈസൂര	-11.168
▁പാദ	-11.1681
▁സിന്‍ഹ	-11.1683
▁ബസുകള്‍	-11.1684
▁തരുന്ന	-11.1684
▁കുതിപ്പ	-11.1685
ാടന	-11.1686
▁ടണ്‍	-11.1688
▁തട്ടിക്കൊണ്ടു	-11.169
▁10000	-11.169
ലേറ്റ	-11.1695
▁വാതില്‍	-11.1696
▁െന്നു	-11.1705
ായിരുന്നില്ല	-11.1707
▁കര്‍മ	-11.1707
▁പണിയ	-11.1708
▁ശക്തമാക്കാന	-11.1709
▁ാനും	-11.1711
▁ഫീസ	-11.1712
▁താരങ്ങളെ	-11.1717
▁തേടുന്നത്	-11.1721
▁തനി	-11.1724
▁അപേക്ഷിക്കുന്ന	-11.1726
▁കൂട്ടായ	-11.1734
പൂര	-11.1734
▁സംവിധാനത്ത	-11.1734
▁E	-11.1736
▁വാശി	-11.1739
▁ഷൂട്ടിംഗ	-11.1741
▁ബിജെപിക്കും	-11.1742
▁സംഘങ്ങള്‍	-11.1742
▁മുള്ളത്	-11.1742
▁പ്രത്യക്ഷ	-11.1743
▁വനിതകള	-11.1743
▁ലഭിച്ചില്ല	-11.1746
▁ഒടുവില	-11.1747
▁കാറിൽ	-11.1747
▁തന്നെയാണെന്ന	-11.1748
▁ബോബ	-11.1748
▁പോസ്റ്റില്‍	-11.1748
▁കൗണ്‍സിലര്‍	-11.175
▁ഉന്നയിക്കുന്നത്	-11.1751
▁പെരുമാറുന്ന	-11.1752
▁ഒഴിപ്പിക്ക	-11.1753
▁വിപ്പ്	-11.1754
▁മണിക്കൂറുകള	-11.1756
സ്വാമി	-11.1759
ാഘോഷ	-11.1762
▁കണക്കാക്കപ്പെട	-11.1763
▁ജഡേജ	-11.1764
▁പരിരക്ഷ	-11.1764
▁വിഭാഗീയത	-11.1764
▁വേരിയന്റ	-11.1764
▁കാശ്മീര	-11.1764
▁(42)	-11.1764
▁പാണ്ഡെ	-11.1764
▁മനഃ	-11.1764
▁തിരമാല	-11.1764
▁അവസാനിക്കും	-11.1764
▁വെടിവച്ച	-11.1764
▁ഭീകരാക്രമണ	-11.1764
▁മന്ത്രിമാരെ	-11.1764
▁ചോര്‍ന്ന	-11.1764
▁മേപ്പാടി	-11.1765
▁കടുത്തുരുത്തി	-11.1766
▁വിമാനത്തില	-11.1767
▁മത്സരിപ്പിച്ച	-11.1767
▁ഇറങ്ങുന്ന	-11.1767
▁കൈക്കൊണ്ട	-11.1767
▁അവസ്ഥയിലാണ്	-11.1767
▁ക്രിസ്	-11.1768
▁ട്രൈ	-11.1769
▁ആശങ്കയിലാണ്	-11.177
▁കുവൈത്ത	-11.1771
▁പൊട്ടിപ്	-11.1771
ലേഖ	-11.1771
▁മറന്നു	-11.1772
▁ഇഷ്ടപ്പെട്ട	-11.1779
▁വിമർശനങ്ങൾ	-11.178
▁എക്സ	-11.1781
▁ലോഡ്	-11.1782
▁മാറ്റത്തിന്	-11.1783
▁പുരസ്കാര	-11.1784
▁പൂര്‍വ	-11.1785
▁ചെങ്ക	-11.1786
▁മജ്	-11.1787
▁പ്പെടും	-11.1788
▁യുക്രൈനില	-11.179
▁കമ്മി	-11.1791
▁കടുപ്പിച്ച	-11.1795
▁-1,	-11.1796
▁മൊഴിയെടു	-11.1796
▁ബംഗ	-11.1796
▁തോറ്റു	-11.1798
▁കുറി	-11.18
▁ഇടയ്ക്കിട	-11.18
വധി	-11.1802
▁പങ്കെടു	-11.1803
▁മൂലമാണെന്ന	-11.1806
▁മൂട	-11.1807
▁ഗര	-11.1811
▁വൃദ്ധ	-11.1812
▁അമരീന്ദ	-11.1814
▁നിര്‍മിക്കുന്ന	-11.1817
▁ളെ	-11.1819
▁വയാണ്	-11.1822
▁ഉരുള്‍പൊട്ടല	-11.1833
▁സ്ഥിരത	-11.1833
▁മേഖലകളിലെ	-11.1833
▁പാലത്ത	-11.1836
▁കശ്മീരി	-11.1836
▁ലവ്	-11.1837
30	-11.1838
▁ചോദ്യങ്ങള	-11.1838
▁മുദ്ര	-11.1839
▁സമ്പർക്ക	-11.1846
▁കൊലപാതകത്തിന്	-11.1848
▁ചിരാഗ്	-11.1849
▁കണ്ടെത്തുക	-11.1851
▁ന്റെയും	-11.1854
മുണ്ടാക്കിയ	-11.1856
▁കണക്കാക്കുന്ന	-11.1858
▁ഇല്ലാതാക്കാന	-11.1858
▁പ്രസിഡണ്ട	-11.1858
▁രാജേന്ദ്ര	-11.1858
▁സമ്മർദ്ദം	-11.1859
▁ബാലന്‍	-11.186
▁ഒരുക്കി	-11.1861
▁പ്രവർത്തകന	-11.1861
എസ്പി	-11.1862
ശ്രീ	-11.1865
്യജീവി	-11.187
▁വാസ്തവ	-11.187
▁ഓസ്ട്രേലിയ	-11.187
▁കഠിനാധ്വാന	-11.187
▁ഫോര്‍മുല	-11.187
▁ഹോട്ടൽ	-11.187
▁ഒരിടത്ത	-11.187
▁(65)	-11.187
▁(49)	-11.187
▁(55)	-11.187
▁കന്യാ	-11.187
െയർ	-11.187
▁ഊർജ്ജ	-11.187
▁സുരേന്ദ്രന്	-11.1871
▁തെങ്ങ	-11.1871
▁പ്രേം	-11.1872
▁ഭദ്ര	-11.1872
▁ഉടമസ്ഥ	-11.1872
▁സീമ	-11.1873
▁അഗ്നി	-11.1874
▁2.5	-11.1874
▁ഞായറാഴ്ച്ച	-11.1874
▁മാരാര	-11.1875
▁പെന്‍ഡ്	-11.1877
▁സാധനങ്ങൾ	-11.1879
ആവശ്യപ്പെടുന്നത്	-11.1879
▁ലാൻഡ	-11.1881
▁അറബിക്കടല	-11.1883
▁സമൃദ്ധി	-11.1884
▁സർക്കാരിന	-11.1886
▁പ്രസിഡന്റുമാര	-11.1886
▁ചന്ത	-11.1887
▁വളഞ്ഞ	-11.1889
▁വാർ	-11.1891
▁അശ്വതി	-11.1897
▁സെക്കന്റ	-11.1897
▁ിരി	-11.1897
▁മണിപ്പൂര്‍	-11.1898
▁ഉറപ്പാ	-11.1899
▁യുഎസ	-11.1901
▁കേന്ദ്രമായ	-11.1902
▁മുന്നിലുള്ള	-11.1904
▁വരുമോ	-11.1906
▁(27)	-11.1906
▁സാധ്യതയില്ല	-11.1912
▁യുവാവിന്	-11.1913
▁സ്ഥാപനങ്ങൾക്ക	-11.1916
മാത്രമായിരിക്കും	-11.1917
▁ക്കാട്	-11.1919
▁ക്രൂ	-11.1922
▁ചിത്രമായ	-11.1923
▁മറ്റൊന്ന്	-11.1923
▁ഹാരിസ്	-11.1927
▁ആളുകളാണ്	-11.1927
▁നടത്തിയിട്ടില്ല	-11.1929
▁മോചനം	-11.1929
▁ൊന്നുമില്ല	-11.193
കോട്ട	-11.193
▁പ്രോട്ടോക്കോള	-11.1931
റാം	-11.1932
▁വഞ്ചിച്ച	-11.1934
▁വിശേഷ	-11.1936
▁ഉദ്യോഗസ്ഥര്‍ക്ക	-11.1939
ുകൂടി	-11.194
▁പ്രദേശങ്ങള്‍	-11.1941
▁ഏറ്റ	-11.1942
▁ജംഗ്ഷന	-11.1942
▁വിടുമെന്ന	-11.1947
▁കുളി	-11.1948
▁പുറപ്പെടുവി	-11.1952
▁ഉളളത്	-11.1959
▁ഓപ്പറേറ്റ	-11.196
സൂക്ഷ്മ	-11.196
▁നഷ്ടപ്പെട്ടു	-11.196
▁വിരുദ്ധത	-11.1964
▁ശേഷിക്കുന്ന	-11.1964
▁പിടിച്ചെടുത്തത്	-11.1966
▁ഓഹരികള	-11.1968
▁എല്‍ഡിഎഫില്‍	-11.1968
ത്തിരി	-11.1968
▁ഇടയ്ക്ക	-11.1969
▁ത്രെ	-11.197
▁ചാലി	-11.1971
▁കൂടുതലും	-11.1973
▁കളു	-11.1974
▁നിലനിര്‍ത്താന	-11.1975
ങ്കിലും	-11.1975
▁പരീക്ഷകള്‍	-11.1975
▁ടോക്	-11.1975
▁ചങ്ങനാശ്ശേരി	-11.1978
▁തള്ളിക്കളഞ്ഞ	-11.1978
▁വസുന്ധര	-11.1978
▁വൈരാഗ്യ	-11.1978
▁ബൈഡൻ	-11.1978
▁ഷാര്‍ജ	-11.1978
▁വീട്ടുകാർ	-11.1978
▁മിനുട്ട	-11.1979
▁ദോഹ	-11.1979
▁സജ്ജീകരിച്ച	-11.1981
▁സർവ	-11.1983
▁പോസ്റ്റിന്	-11.1984
▁നടക്കുമ്പോള്‍	-11.1984
▁പോലിസ	-11.1984
▁യോജന	-11.1985
▁മുടക്ക	-11.1985
▁ചീത്ത	-11.1986
▁മിണ്ട	-11.1986
▁നീക്കത്തിന്	-11.1986
▁പ്രാധാന്യമ	-11.1987
▁1996	-11.1987
▁വോട്ടുകള്‍ക്ക	-11.1989
▁മനസില	-11.199
▁താത്പര്യം	-11.1991
▁35,	-11.1991
▁ആനുകൂല്യ	-11.1993
▁ദിവസങ്ങൾ	-11.1993
▁ഭരണകൂടത്ത	-11.1993
▁ക്കേസ	-11.1993
▁റിന	-11.1994
▁അവസാനത്തോടെ	-11.1995
▁നഷ്ടപരിഹാര	-11.1998
▁സൂക്ഷിക്കുന്ന	-11.1999
▁പത്രസമ്മേളന	-11.2001
▁അതിജീവിച്ച	-11.2004
ലീന	-11.2005
▁സിപിഎമ്മിനെ	-11.2008
▁കവിഞ്ഞ	-11.2009
▁ബ്രിട്ടനില	-11.2011
▁കൃഷ്ണന്‍	-11.2011
▁കിടക്കുകയാണ്	-11.2012
▁മോട്ടോർ	-11.2012
▁തിന്‍റെ	-11.2014
▁1500	-11.2014
▁ബന്ധപ്പെടാ	-11.2016
▁സികെ	-11.2016
▁സര്‍ക്കാരിനോട	-11.2017
ബ്ബ	-11.2018
▁ാണെങ്കിൽ	-11.202
ന്ത്രി	-11.2021
▁കണ്ടില്ല	-11.2021
ല്‍ഡ്	-11.2021
▁സ്റ്റേഷനുകള	-11.2022
▁മതില	-11.2027
▁നിര്‍മി	-11.2028
▁മറ്റുള്ളവര്‍	-11.2031
▁ഖാനെ	-11.2034
▁അലയ	-11.2035
▁ആരംഭിക്കുക	-11.2037
▁ബാങ്കുകള്‍	-11.2038
ിക്കട്ടെ	-11.2039
▁പ്രദേശം	-11.2043
▁റിട്ട	-11.2043
▁യൂണിയന	-11.2047
ത്തിലധിക	-11.2049
▁ഉൾപ്പെടുത്ത	-11.2052
▁പാനൂര	-11.2052
▁തിരിഞ്ഞ്	-11.2052
▁ദുബായി	-11.2053
▁പുസ്തകം	-11.2056
▁പൊതുജനങ്ങള	-11.2057
▁യാത്രക്കാര്‍ക്ക	-11.206
▁നിക്ഷേപിച്ച	-11.2062
▁ക്കുളള	-11.2065
▁ജയിക്കാന	-11.2065
▁സിംഗപ്പൂ	-11.2066
ബീ	-11.2069
▁മാത്രമാണ	-11.2073
▁തിരിയ	-11.2073
▁പേടിച്ച	-11.2073
▁ബില്ല്	-11.2074
▁വിമർശനവു	-11.2074
▁വർധിപ്പി	-11.2075
▁സഖാക്കള	-11.208
യാത്രിക	-11.2083
പയോഗ	-11.2084
വരി	-11.2085
▁മനസ്സിലാക്കുന്ന	-11.2085
▁പൂവ	-11.2085
▁മുന്നേ	-11.2086
▁ഇതുസംബന്ധിച്ച	-11.2086
▁കടന്നാക്രമി	-11.2086
▁ഘോഷയാത്ര	-11.2086
▁പ്രത്യയശാസ്ത്ര	-11.2086
▁യുട്യൂബ	-11.2086
▁ശൂന്യ	-11.2086
▁സാനിറ്റൈസ	-11.2086
▁ബാലുശ്ശേരി	-11.2086
▁കിഷോറ	-11.2086
▁വാചക	-11.2086
▁അത്യന്ത	-11.2086
▁അവയവ	-11.2086
▁പലർക്കും	-11.2087
▁അറുപത	-11.2087
▁കാസിം	-11.2087
▁അതാത	-11.2088
▁ശരിയല്ലെന്ന	-11.2088
▁സർവീസുകൾ	-11.2089
▁സമ്പൂർണ	-11.2089
▁തിരിച്ചടിയായി	-11.2089
▁ആശ്രയിക്കുന്ന	-11.2091
▁നീളുന്ന	-11.2091
ഗ്രാം	-11.2093
▁ഫയര്‍	-11.2093
▁സുകള്‍	-11.2093
ലോഡ്	-11.2097
▁സഹകരി	-11.2098
ംകുളം	-11.2098
▁തിരിക്കാൻ	-11.2098
▁ക്വാറന്റൈനില്‍	-11.2099
▁നിരീക്ഷിക്കുന്ന	-11.2099
ഹ്യ	-11.21
▁ലഭിക്കാ	-11.21
▁നിന്നുമാണ്	-11.2103
▁സഞ്ജുവിന	-11.2103
▁എഐഎ	-11.2104
▁തകര്‍ക്ക	-11.2107
▁മൃഗങ്ങള	-11.2109
▁നിക്	-11.2109
ുമെതിരെ	-11.2111
▁ഒഴുക്ക	-11.2113
▁ചൈ	-11.2113
▁രഞ്ജിത്ത്	-11.2115
▁ആരാധ	-11.2115
▁ജ്യോതിഷത്തില	-11.2116
▁ഷോയില്‍	-11.2116
▁നാടകം	-11.2117
▁മൂലമ	-11.212
▁കേസെടു	-11.212
▁ക്ലബ്	-11.212
▁പട്ടി	-11.2121
▁എത്താ	-11.2121
▁ധാര	-11.2123
▁കഴിവ്	-11.2123
▁വരാം	-11.2124
▁ദില്ലിയിലേക്ക്	-11.2124
▁ചർച്ചയിൽ	-11.2126
▁സംവിധാനങ്ങൾ	-11.2128
▁ശ്യ	-11.2129
▁ിരിക്കുമെന്ന	-11.2129
▁നീങ്ങിയ	-11.213
▁പ്രശസ്തി	-11.2131
▁ഫലമായി	-11.2131
▁വരുണ്ട്	-11.2132
▁വര്‍ദ്ധന	-11.2134
▁എന്‍ജി	-11.2134
യില്ലാതെ	-11.2134
▁സല്‍	-11.2136
▁കിടപ്പ	-11.2137
▁വെല്ല	-11.2139
ോണി	-11.214
▁വാള്‍	-11.2142
▁കോര്‍പ്പറേഷനില	-11.2142
▁സോണി	-11.2142
▁നേതാക്കള്‍ക്ക	-11.2145
▁ചേര്‍ത്തു	-11.2146
▁വരുന്നതോടെ	-11.2146
▁നിർമ്മാണം	-11.2151
▁സിഎസ്	-11.2152
▁ഹോസ്റ്റല	-11.2153
ക്കോട്ട	-11.2158
▁സ്ഥാപനമായ	-11.2159
▁വര്‍ധനവ്	-11.2162
▁വാലി	-11.2162
▁ബ്രിജ	-11.2167
▁റൂട്ട	-11.2167
കൈക്കൂലി	-11.2168
▁സ്ഥാനവും	-11.2169
▁തകർ	-11.2171
▁സ്പീ	-11.2174
▁കേസിന	-11.2176
▁അവസാനിപ്പിക്കാന	-11.2176
▁ശ്രീനിവാസന	-11.2178
▁പ്രവേശിക്ക	-11.2179
▁ഒതു	-11.218
▁പ്രസിഡന്റായി	-11.2183
▁ബാങ്കില	-11.2187
ത്തൂര്‍	-11.2188
ാനാവില്ലെന്ന	-11.2194
▁ബ്രി	-11.2195
▁യൂറോപ്പ്	-11.2196
▁അഹങ്കാര	-11.2196
▁ഗൗരിയമ്മ	-11.2196
▁ചതുരശ്ര	-11.2196
▁നിർണ്ണായക	-11.2196
▁ഇന്റര്‍നെറ്റ	-11.2196
▁ക്യാപ്റ്റൻ	-11.2196
▁നട്ടെല്ല	-11.2196
▁പ്രാര്‍ത്ഥന	-11.2196
▁ദിര്‍ഹ	-11.2196
ഒരൊറ്റ	-11.2196
▁ിനൊപ്പമ	-11.2196
▁ഫേസ്	-11.2196
▁പിരിച്ചുവിട്ട	-11.2197
▁1)	-11.2197
▁ബേപ്പൂ	-11.2197
▁തിലേക്ക്	-11.2198
▁ഇരുപത്തി	-11.22
▁എന്‍ട്രി	-11.22
▁തട്ടിപ്പു	-11.2201
ക്കോയ	-11.2201
ഞ്ജലി	-11.2202
വില്ല	-11.2203
▁ശേഖരിക്കുന്ന	-11.2204
▁കണക്കുകൂട്ട	-11.2207
▁ഇരിക്കൂര്‍	-11.2212
▁നിന്നുണ്ടായ	-11.2212
▁മിന്ന	-11.2212
▁ഉല്‍പ്പന്നങ്ങള	-11.2213
▁അര്‍ഹത	-11.2215
▁വേതന	-11.2216
▁തിനേക്കാ	-11.2216
▁ഹസന	-11.2217
▁കഴിക്കാന	-11.2222
▁എഎ	-11.2224
▁കഴിഞ്ഞിട്ടില്ല	-11.2225
▁(21)	-11.2228
▁ഒമിക്രോണ	-11.2229
▁വന്നത	-11.2233
▁ചോദ്യമാണ്	-11.2236
▁ബംഗാളി	-11.2239
▁വടക്കാഞ്ച	-11.2239
▁സര്‍ക്കാരാണ്	-11.224
ഭവ	-11.2241
▁ക്കാരന്‍	-11.2243
▁അടിച്ചത്	-11.2244
▁അഫ്ഗാനില	-11.2245
▁180	-11.2247
▁പിരിച്ച	-11.2248
▁K	-11.2251
▁ഫലമാണ്	-11.2258
▁ജോസിന	-11.2258
▁ജീപ്പ	-11.2263
▁ബുദ്ധിമുട്ടുകള	-11.2264
▁യിലുമാണ്	-11.2265
▁നിര്‍ത്തുന്ന	-11.2265
▁യൂറോപ്പില	-11.2267
▁സ്നേഹം	-11.2267
▁നില്‍ക്കുക	-11.2269
▁സുരക്ഷയ്ക്ക	-11.2274
▁ഇടപാട്	-11.2275
▁ബസുകള	-11.2276
▁ഇതുകൂട	-11.2277
▁അപ്രതീക്ഷിതമായ	-11.2278
ൾഡ്	-11.2281
▁സ്വദേശികൾ	-11.2281
▁വിശ്വസി	-11.2282
▁കമ്പി	-11.2284
▁മേത്ത	-11.2285
▁സ്മാര്‍ട്	-11.2287
▁ലീഗും	-11.2288
▁സൺ	-11.2288
എപിഎ	-11.229
▁റിയാസിന	-11.2291
▁ശാസ്ത്രജ്ഞ	-11.2291
▁റോസ്	-11.2293
▁ഒന്നിച്ച	-11.2293
▁കമ്മിഷന	-11.2297
▁നിലയ	-11.2298
▁ഭയപ്പെടുന്ന	-11.2299
ഫ്ര	-11.23
▁ഫെഡറ	-11.2302
▁വാർത്തകള	-11.2305
▁ഡിവിഷ	-11.2307
▁ഇന്‍ഷുറന്‍സ	-11.2307
▁ഫിനാലെ	-11.2307
▁മനോഭാവ	-11.2307
▁വെടിവെപ്പ	-11.2307
▁സയ്യിദ	-11.2307
▁റാഷിദ	-11.2307
▁രാജ്ഞി	-11.2307
▁(48)	-11.2307
▁ഓപ്പറേഷൻ	-11.2307
▁(31)	-11.2307
▁ജലീൽ	-11.2307
▁ഫിനാൻ	-11.2307
▁കുടിശ്ശി	-11.2308
▁നിയമിക്കുന്നു	-11.2308
▁അസഭ്യ	-11.2308
▁മലേഷ്യ	-11.2308
▁ങിന	-11.2309
▁എണ്ണി	-11.231
▁നിന്നുമെത്തി	-11.2311
▁കടക്കുന്ന	-11.2312
▁അടഞ്ഞ	-11.2313
▁മാൻ	-11.2314
▁തകർന്നു	-11.2314
▁ലോകത്തിന്	-11.2315
▁ഇലക്ട്രിക്	-11.2316
▁പോകുക	-11.2317
▁വന്നിരുന്ന	-11.2318
▁തൂണ	-11.2319
▁വിദ്യാര്‍ത്ഥിനി	-11.232
▁പ്രതീക്ഷയോടെ	-11.2321
▁സംഭവിച്ചു	-11.2321
▁ഉദ്യോഗസ്ഥനെ	-11.2322
▁പേജില്‍	-11.2323
▁അജി	-11.2323
മോർട്ട	-11.2324
▁ദിവസങ്ങൾക്ക	-11.2324
▁ങ്ങളുണ്ടായ	-11.2326
▁തോമസിനെ	-11.2326
▁വിശദ	-11.2327
▁സാധ്യമല്ല	-11.2328
▁കണ്ടെത്തുകയ	-11.233
▁സാന്നിധ്യമ	-11.2332
▁നിസ്	-11.2333
ൊന്ന്	-11.2334
▁ഭഗ	-11.2337
▁പുറത്തേക്ക	-11.2337
▁സ്വതന്ത്രര	-11.2337
▁കിടില	-11.2347
▁പോലീസുകാര്‍	-11.2347
▁എഴുത്തു	-11.2353
▁കണക്കുകള	-11.2353
▁നാരായണന്‍	-11.2357
▁ടോക്ക	-11.2358
▁വിനായക	-11.2358
ദാര്‍	-11.236
▁വിശ്വാസികള്‍	-11.2361
▁മോര്‍ച്ച	-11.2363
▁പല്ല	-11.2367
▁രസകരമായ	-11.2368
▁ബ്രെ	-11.237
▁ദയനീയ	-11.237
▁വിജയത്തിന്	-11.2371
▁ആര്‍ട്ടി	-11.2374
▁നിര്‍ത്താന	-11.2374
▁ഇദ്ദേഹത്തിന്	-11.2381
രേയും	-11.2381
▁രാമചന്ദ്രന	-11.2385
▁മുറിച്ച	-11.2387
▁സഹിക്ക	-11.2388
ൊട്ട	-11.2389
▁ണ്ടെന്ന	-11.2391
▁വിക്കറ്റ	-11.2392
▁അറിഞ്ഞത്	-11.2392
▁ഉറ്റുനോക്കുന്ന	-11.2394
ണ്ടാകുന്ന	-11.2394
▁പാക	-11.2397
▁ബിജെപിയിലെ	-11.2397
▁ഗോപിനാഥ്	-11.2399
▁ജോഡ	-11.24
▁കോൾ	-11.2401
▁രക്ഷിക്ക	-11.2402
▁കളാ	-11.2402
▁തടസം	-11.2408
▁മലയാളത്തില	-11.2411
▁ഒരാളായ	-11.2416
▁തടവ്	-11.242
▁പ്രതിബദ്ധത	-11.242
▁പ്രതിഷ്ഠ	-11.242
▁ലൊക്കേഷന	-11.242
▁അഭിവാദ്യ	-11.242
▁കശ്മീർ	-11.242
▁കോതമംഗലം	-11.242
▁ഹൂഡ	-11.242
▁ഡെല്‍റ്റ	-11.242
▁തുകൊണ്ടാണ്	-11.242
▁ആചരി	-11.242
▁മദ്രാസ	-11.242
▁അര്‍ത്ഥ	-11.242
▁ഒപ്ട	-11.242
▁തമിഴ്നാട്ടിൽ	-11.242
പരിചിത	-11.242
▁കുട്ടനാട്	-11.242
▁ശോ	-11.242
▁പുനസംഘടന	-11.242
▁യേശു	-11.242
▁ത്രികോണ	-11.242
▁വയനാട്ടിൽ	-11.242
▁വഹാബ	-11.242
▁പുത്ത	-11.242
▁കൊമേഴ്	-11.242
▁ഹൈദര	-11.242
▁കരീം	-11.242
▁പുതുമുഖ	-11.242
▁ചുവടു	-11.2421
▁നിതീഷിന	-11.2421
▁ഭിന്നി	-11.2421
▁അധികാരമേറ്റ	-11.2421
▁ശ്രീകണ്ഠ	-11.2421
▁കൈവിട	-11.2423
നാമി	-11.2423
▁കോടിക്കണക്കിന	-11.2423
▁സീതാരാമന്‍	-11.2424
▁നടപ്പിലാക്ക	-11.2426
▁02	-11.2427
▁ലുമായി	-11.2427
▁മുമ്പില	-11.2428
▁കടയ്ക്ക	-11.2429
▁പരിഹാസം	-11.2431
നാഴി	-11.2432
ാങ്ക	-11.2432
▁നസ്	-11.2432
▁ഗവൺമെന്റ	-11.2433
്ശേരി	-11.2433
▁തയ്യാറാകണമെന്ന	-11.2435
▁*	-11.2435
▁വിലയിരുത്തുന്ന	-11.2436
▁കുത്തക	-11.2439
▁മാസത്തേക്ക	-11.244
▁താള	-11.2445
▁രാജാ	-11.2446
▁ചെയ്തിട്ടുള്ള	-11.2447
▁അറിയിക്കുന്ന	-11.2451
▁ഹേ	-11.2452
▁ജില്ലാതല	-11.2453
▁വിഭജനം	-11.2454
▁ഡല്‍ഹിയിലെ	-11.2455
വലി	-11.2455
▁സ്ഥലത്തെത്തിയ	-11.2456
യ്ക്കുന്ന	-11.2456
▁ബ്രിട്ടന	-11.2458
▁ഉള്‍പ്പെടുത്ത	-11.2459
▁സംക്രമ	-11.246
▁ഫലങ്ങൾ	-11.2467
▁എത്തിയപ്പോള്‍	-11.2468
യാക്കിയ	-11.2471
▁മേഖലയിലേക്ക്	-11.2473
▁വിധേയമായ	-11.2474
▁ഉണ്ടാവുന്ന	-11.2475
▁പേട്ട	-11.2476
▁റിസോര്‍ട്ട	-11.2479
▁സംഭാഷണം	-11.2479
▁നാശ	-11.2479
▁അനുയായി	-11.2479
▁അസ്സ	-11.2479
▁സ്ഥാനാർത്ഥികൾ	-11.248
▁ബുദ്ധ	-11.248
▁അനൂപ	-11.248
▁പ്രതിഷേധങ്ങള	-11.248
▁കുറിപ്പില	-11.2481
▁പ്രവർത്തകൻ	-11.2482
▁വ്യാഴം	-11.2484
▁സുഹൃത്തായ	-11.2487
ടിപിസിആ	-11.2492
▁മധ്യപ്രദേശ	-11.2494
▁1.2	-11.2496
▁കുറ്റകൃത്യങ്ങള	-11.2497
▁ഇടിഞ്ഞു	-11.2499
▁ഹര	-11.2502
▁ഓം	-11.2502
▁കോടികള്‍	-11.2503
▁എവിടെയാണ്	-11.2503
▁നൊ	-11.2505
▁സമിതിയില്‍	-11.2506
▁ഡാന്‍സ	-11.2506
▁വിശദീകരണ	-11.2507
ഫിയ	-11.2511
▁102	-11.2511
മിര്‍	-11.2511
തുണ	-11.2516
▁ആശയങ്ങള	-11.2516
▁ഹൈദരാബാദി	-11.2516
▁കുതി	-11.2518
▁പാലായില്‍	-11.2519
▁കാണുക	-11.2519
▁ട്രസ്റ്റ്	-11.2521
▁ലോക്ക്ഡൗണ	-11.2528
▁1/2	-11.2528
▁സിംഹ	-11.2529
▁പ്രവാസികളെ	-11.253
▁പെരിയ	-11.2531
▁തെലുങ്ക	-11.2533
▁പരിശീലക	-11.2533
▁പ്രദർശിപ്പ	-11.2533
▁സമയബന്ധിത	-11.2533
▁സമ്പ്രദായ	-11.2533
▁കരുനാഗപ്പള്ളി	-11.2533
▁അനുരാഗ	-11.2533
▁രണ്ടിടത്ത	-11.2533
▁സിദ്ധിഖ	-11.2533
▁സകല	-11.2534
▁ഊർജ	-11.2534
▁പ്രചരണങ്ങള	-11.2534
കാട്	-11.2535
▁അപകടമുണ്ടായ	-11.2535
▁ആര്‍സിബി	-11.2536
▁മെൻ്റ	-11.2536
▁ഉറപ്പാക്കാൻ	-11.2536
▁കൈവശമുള്ള	-11.2537
▁തയ്യാറാകണം	-11.2537
▁വിശദാംശങ്ങൾ	-11.2537
▁വൈക്കം	-11.2538
ദേശീയ	-11.2539
▁പരിക്ക	-11.254
▁ഹോസ്പിറ്റല്‍	-11.2541
▁ഹരിയാനയില	-11.2542
▁കാലമായി	-11.2544
▁രജിസ്ട്രേഷൻ	-11.2544
▁ഓര്‍ത്ത	-11.2544
▁സൂക്ഷി	-11.2545
▁ആറള	-11.2545
▁ചോദിച്ചപ്പോള്‍	-11.2547
▁വിപുലീകരി	-11.2548
▁ബ്രാഞ്ച	-11.2548
▁ശുചീകരണ	-11.2548
▁ഹണി	-11.2552
▁നിർണയ	-11.2553
▁നിരപരാധി	-11.2553
▁ശിവശങ്കര്‍	-11.2554
▁ആഘോഷം	-11.2554
▁പുറത്താക്കി	-11.2556
▁രൂപീകരിക്കാന	-11.2556
▁കുറവാണെന്ന	-11.2556
▁ഏറ്റെടുക്കാന	-11.2556
▁നിരീക്ഷക	-11.2557
▁സിങ	-11.2558
▁മരിയ	-11.2558
▁എന്നിവയെല്ലാ	-11.2559
▁350	-11.2561
▁സമര്‍പ്പിക്കാന	-11.2562
▁മീനം	-11.2564
▁സാധ്യതയുള്ളതിനാ	-11.2565
▁ഫൈസല്‍	-11.2566
▁കാര്യമ	-11.2568
▁33,	-11.2571
▁ആണെങ്കിലും	-11.2571
▁ധന്യ	-11.2572
▁മറ്റൊരാള്‍	-11.2572
▁ഓടുന്ന	-11.2575
▁വായ്	-11.2577
▁സ്വീകരിക്കുമ	-11.2582
▁സുധാകരനും	-11.2582
▁ട്രേഡ	-11.2583
▁വിശദീകരണവു	-11.2586
▁തീരുമാനമെടു	-11.2591
▁തേടിയത്	-11.2591
▁സിങ്ങ	-11.2593
▁യാവുന്ന	-11.2593
▁വിമാനത്താവളങ്ങള	-11.2595
ബിൾ	-11.2597
▁ആധിപത്യം	-11.2597
▁തിരക്കില	-11.26
▁ന്യൂനപക്ഷങ്ങള	-11.2601
▁കരിയറ	-11.2601
▁റിക്രൂട്ട്മെന്റ	-11.2606
▁പിടിക്കുകയ	-11.2606
▁സോണുകള	-11.2606
▁നിൽക്കുന്നത്	-11.2608
▁ഡോസുകള	-11.261
▁വാക്കു	-11.261
▁ഉത്തർപ്രദേശ	-11.2618
ണമെങ്കില്‍	-11.2619
▁ഹാജരാ	-11.2621
▁അവസാനിപ്പിക്കണ	-11.2625
▁പുറ	-11.2626
▁എഫിന	-11.2626
▁സിറിയ	-11.263
▁അനിവാര്യ	-11.2633
▁എവി	-11.2634
▁മുഖ്യമന്ത്രിമാര	-11.2634
▁ുണ്ടാവ	-11.2637
വേല	-11.2638
▁രാഘവ	-11.2639
▁കര്‍ണാടകത്തില	-11.2639
▁ഹെലികോപ്റ്റ	-11.264
▁രണ്ടാമത്	-11.2641
▁മുമ്പായി	-11.2642
▁ലായ	-11.2643
▁തയ്യാറാക	-11.2645
ർജി	-11.2645
▁ട്രെ	-11.2645
▁പ്രതാപ്	-11.2645
▁ഉപദേഷ്ടാ	-11.2648
▁ഛിന്നഗ്രഹ	-11.2648
▁ജയസൂര്യ	-11.2648
▁ലൈംഗികാതിക്രമ	-11.2648
▁കലക്ടർ	-11.2648
▁അർജുന	-11.2648
▁ഉഭയ	-11.2648
▁തിളങ്ങ	-11.2648
▁അഭിലാഷ	-11.2648
▁ശശികല	-11.2648
▁ദിനേശ്	-11.2648
▁ഛത്തീസ്ഗഡ്	-11.2648
▁രാജശേഖരന	-11.2648
▁പദ്ധതിയിട്ട	-11.2648
▁അഹമ്മദാബാദ്	-11.2648
▁അപകീര്‍ത്തി	-11.2648
▁തയ്യാറല്ല	-11.2648
▁ദീർഘകാല	-11.2649
ഫോടക	-11.2649
▁ധർമ്മ	-11.2649
▁റിസർവ	-11.2649
▁ഷാജഹാ	-11.2649
▁മലമ്പുഴ	-11.2649
▁കൊണ്ടുവരും	-11.2651
ുണ്യ	-11.2652
▁റിപ്പോ	-11.2653
O	-11.2653
ക്കെതിരായ	-11.2654
▁വല്ലാത്ത	-11.2656
▁വലയ	-11.2656
▁വർധിക്ക	-11.2656
▁പെണ്‍	-11.2657
▁എഴുത്തുകാര	-11.2657
▁രൂ	-11.2658
േഷ്യ	-11.266
▁വയറ	-11.2662
▁ഗോള	-11.2662
▁മരട	-11.2664
▁കലഹ	-11.2665
▁ഓവര്‍	-11.2666
▁2002	-11.2666
▁ലഡാക്ക	-11.2668
▁പുറപ്പെടുന്ന	-11.2668
▁അസീസ	-11.2669
▁2007	-11.267
▁ആണവ	-11.2675
▁കടമ്പ	-11.2679
▁അണിനിര	-11.268
▁പേരിട്ട	-11.2682
▁വടക്കു	-11.2682
▁വിയോഗ	-11.2685
▁വേഗതയ	-11.2686
▁29,	-11.2686
▁തെരഞ്ഞെടുത്ത	-11.2687
▁ളള	-11.2688
▁രൂപപ്പെടുന്ന	-11.269
▁മരണപ്പെട്ടു	-11.269
▁പരിചയവും	-11.2694
മ്പു	-11.2696
▁ആശയം	-11.2697
ൊഴിഞ്ഞ	-11.2698
▁മദ	-11.2698
▁ആവശ്യമില്ലെന്ന	-11.2701
▁കല്യാ	-11.2706
▁ഓട്ട	-11.2707
▁ഠ	-11.2709
▁തോക്കു	-11.2709
▁അംഗീകരിക്കാന	-11.2713
തിങ്കളാഴ്ച്ച	-11.2714
▁തുണ്ട്	-11.2715
▁പോകുകയാണ്	-11.2717
ഉണ്ടാക്കാൻ	-11.2717
▁ആകും	-11.272
▁നടപടിക്രമങ്ങള	-11.2723
▁170	-11.2729
▁ഫു	-11.2731
▁ജീവനക്കാർക്ക	-11.2732
▁ലക്ഷ്യത്തോടെയ	-11.2733
▁വാദിച്ച	-11.2737
▁സഞ്ചരിക്കുന്ന	-11.2739
▁ജിതി	-11.2742
▁യൂറോ	-11.2744
▁കാക്ക	-11.2745
▁എഴു	-11.2749
സിഡി	-11.2751
▁കുറ്റവാളികള	-11.2751
ബിസി	-11.2751
▁3)	-11.2756
ായുധ	-11.2759
▁ഭക്തര	-11.2761
▁ബലം	-11.2762
▁വാരണാസി	-11.2764
ദേശാഭിമാനി	-11.2764
ൊരിക്കലും	-11.2764
▁അയല്‍വാസി	-11.2764
▁ക്ഷീര	-11.2764
▁പ്രൊഫസര്‍	-11.2764
▁അൻവർ	-11.2765
▁തെലങ്കാനയില്‍	-11.2765
▁ഉറപ്പാക്കണം	-11.2765
▁വഞ്ചന	-11.2765
▁പാളയ	-11.2766
▁കച്ചവടക്കാര	-11.2767
▁വിശദാംശങ്ങള്‍	-11.2767
▁വംശജ	-11.2767
▁ഹരജി	-11.2767
▁മുന്‍നിര	-11.2769
▁തിനിടയില	-11.277
▁പശു	-11.2771
▁റഹ്മാന	-11.2771
▁പ്രൈമ	-11.2772
▁വിദ്യാർഥികൾ	-11.2773
▁ക്ഷണം	-11.2774
▁ഉള്ളവര	-11.2777
▁നേതാവായി	-11.2777
▁ജിദ്ദ	-11.2778
▁ക്വാട്ട	-11.2778
▁മത്സരാർത്ഥികൾ	-11.2779
▁സെല	-11.278
▁ഇന്ത്യയില	-11.278
▁യാക്കിയ	-11.2781
▁ലതിക	-11.2781
▁സൂചിപ്പിച്ചു	-11.2783
▁ചാക്ക	-11.2787
▁ക്കുമായി	-11.2788
ദ്വാര	-11.279
▁ലോണ	-11.2791
▁സഹായിക്കാ	-11.2793
▁ഇത്തരക്കാര	-11.2793
▁കൂളുകളില	-11.2793
▁തൃപ്തി	-11.2795
ലോക	-11.2795
▁പോലീസിന	-11.2796
▁b	-11.2798
▁നോഡ	-11.2799
▁മാരോട്	-11.28
▁ഏറ്റെടുത്തു	-11.28
▁എബി	-11.2801
▁മേട	-11.2803
▁കപ്പലുകള	-11.2806
▁ഭീകരവാദ	-11.2808
▁രാഷ്	-11.2809
▁ത്തോടൊപ്പം	-11.281
▁മനസിലാക്കുന്ന	-11.2811
▁ഉറ്റ	-11.2813
▁പാടി	-11.2814
▁ിക്കപ്പെട	-11.2817
മണ്‍	-11.2818
▁ര്യ	-11.2818
▁വീഴ്ത്തിയ	-11.2821
en	-11.2822
▁സെപ്തംബ	-11.2823
▁കൊയ്യ	-11.2824
▁ചിഹ്നം	-11.2827
▁നിറച്ച	-11.2829
സാഹ	-11.283
▁രക്ഷപ്പെട്ടത്	-11.2832
▁പെട്രോള	-11.2834
▁ഇഷ്ടപ്പെട	-11.2835
▁നിരീക്ഷി	-11.2836
▁ഇരിക്കുക	-11.2836
▁ക്കാര്‍ക്ക്	-11.2837
▁ഫ്ള	-11.2838
▁കളുമ	-11.2839
▁പുനർ	-11.2839
▁അനുയായികള	-11.2841
▁മാക്കും	-11.2843
▁ജോബ	-11.2844
▁സൗകര്യവും	-11.2846
▁മിന്നല	-11.2846
▁ആവർത്തിച്ച	-11.2847
▁കോല	-11.2848
▁മാതൃ	-11.285
▁റായ	-11.2851
▁ചെറിയാൻ	-11.2852
▁സീരിയ	-11.2854
▁കടൽ	-11.2854
▁ഇന്ദിര	-11.2854
▁മനുഷ്യത്വ	-11.2856
▁കാത്തിരിപ്പ	-11.2859
▁താങ്ങു	-11.2859
▁പാമ്പിന	-11.286
▁മില്ലി	-11.2862
▁മാകാ	-11.2862
▁സമൂഹമാധ്യമങ്ങളി	-11.2864
▁നില്‍ക്കുമെന്ന	-11.2865
▁ഫലപ്രദ	-11.2867
▁പരാമര്‍ശത്ത	-11.287
▁സിനിമകള	-11.2876
▁വായ്പാ	-11.2876
▁ജാസ്മിന	-11.2877
▁ലിയ	-11.2878
▁ശുക്ര	-11.2881
▁പണപ്പെരുപ്പ	-11.2882
▁സംഭരി	-11.2882
▁ഇടംപിടിച്ച	-11.2882
▁ഉദ്യോഗാർഥിക	-11.2882
▁കംപ്യൂട്ട	-11.2882
▁രാജ്യത്തുടനീള	-11.2882
▁രേവതി	-11.2882
▁വരണാധികാരി	-11.2882
▁ആര്‍എംപി	-11.2882
▁(43)	-11.2882
▁ചന്ദ്രയാന്‍	-11.2882
▁ബിഹാർ	-11.2882
▁കൂറുമാറ്റ	-11.2882
▁നാവികസേന	-11.2882
▁വർഗ്ഗീയ	-11.2882
▁ശബ്ദരേഖ	-11.2883
െയിന	-11.2883
▁സഹായിക്കുമെന്ന	-11.2883
▁പൂക്കള	-11.2883
▁ഒരാഴ്ച്ച	-11.2884
▁അധീ	-11.2884
രളി	-11.2884
▁മാനേജ്മെന്റ്	-11.2885
▁ചൊവ്വാഴ്ച്ച	-11.2885
▁3/4)	-11.2885
▁ശ്രേയ	-11.2886
▁വാളയാ	-11.2887
▁(10	-11.2888
▁പ്രസിഡന്റായ	-11.2889
▁വിശുദ്ധ	-11.2889
B	-11.2891
▁പ്രതിസന്ധികള്‍	-11.2891
▁ടാക്സി	-11.2893
▁അവിടുത്ത	-11.2893
▁സര്‍വ്വീസ	-11.2893
▁സന്ദീപ	-11.2894
ര്‍ഡിനേറ്റര്‍	-11.2894
▁%)	-11.2895
▁നേരിട്ടെത്തി	-11.2895
▁പ്രോസിക്യൂട്ട	-11.2896
▁കോർപ്പറേറ്റ	-11.2898
▁അന്ധ	-11.2898
▁പ്രവര്‍ത്തിച്ചു	-11.2898
▁പ്രതിസന്ധിയിലായ	-11.2902
ാകുമോ	-11.2906
▁നാലര	-11.2907
▁കർമ്മ	-11.2908
▁മഴയെ	-11.2909
▁ഉത്തരേന്ത്യ	-11.291
▁ചെവി	-11.2912
▁ണ്ടെ	-11.2918
▁ഉടന	-11.2919
▁ന്മാർ	-11.292
▁ഭീകരത	-11.2921
▁ട്രംപിന്	-11.2923
▁ഉള്ളവര്‍	-11.2926
▁വിമര്‍ശിക്കുന്ന	-11.2929
▁സൈഡ	-11.2929
്പന	-11.2931
▁സുഹൃത്തിന	-11.2931
ന്തു	-11.2933
▁രാവ	-11.2935
▁കാര്യങ്ങളില	-11.2938
▁ളാറ്റ	-11.294
▁ഐക്യം	-11.2943
▁ത്തിലായ	-11.2943
▁ലയന	-11.2944
▁കീപ്പ	-11.2945
▁സുധാകരന്	-11.2949
▁നിർമ്മിക്കുന്ന	-11.2949
▁ആവര്‍ത്തിക്ക	-11.2951
▁രാശിമാറ്റ	-11.2963
ാഹാര	-11.2965
▁പ്പിക്കുക	-11.2971
▁പ്രദേശങ്ങളിലെ	-11.2976
▁ക്കാനാകും	-11.2979
▁ബോംബെ	-11.298
▁പരീക്ഷിച്ച	-11.2982
▁പത്രം	-11.2983
▁സമ്മര്‍ദ്ദം	-11.2983
പതിനായിരം	-11.2988
▁നിരയില	-11.2989
▁തിരഞ്ഞെടുത്തത്	-11.299
▁വരുമായി	-11.2991
▁സാമ്പ	-11.2992
ിക്കുമ്പോള്‍	-11.2993
▁തുമ്പ	-11.2994
▁ഉണ്ടായതെന്ന	-11.2995
▁വിദേശികള	-11.2999
▁നമ്പര	-11.3
െൻറ	-11.3
▁ക്കുവാ	-11.3
▁പ്പെടുത്തണമെന്ന	-11.3001
▁ഇതിഹാസ	-11.3001
▁എരുമേലി	-11.3001
▁കൺവീന	-11.3001
▁ഛത്തീസ്ഗഡില	-11.3001
▁ബയോഡാറ്റ	-11.3001
▁സംവദി	-11.3001
▁സ്വമേധയ	-11.3001
▁വയസ്സുകാരി	-11.3001
▁നെടുമങ്ങാട	-11.3001
▁പിന്തുടര്‍ന്ന	-11.3001
▁സൈക്കോളജി	-11.3001
▁വെളള	-11.3001
▁പിടികൂടാന	-11.3001
▁അപേക്ഷകര്‍	-11.3002
▁ദുബൈ	-11.3002
▁ട്രോഫി	-11.3003
▁അഫ്ഗാനിസ്ഥാനില	-11.3003
▁പണിയെടു	-11.3005
▁ചുമതലയേറ്റ	-11.3006
▁ഉറപ്പാക്കും	-11.3006
▁ജനക്കൂട്ട	-11.3006
▁ഷെട്ടി	-11.3006
▁സഹകരണത്തോടെ	-11.3008
▁പ്രതിജ്ഞ	-11.3012
▁സ്വീകരി	-11.3012
▁ങ്ങളിലേ	-11.3012
▁കൊഴിഞ്ഞ	-11.3016
▁പാൽ	-11.3018
▁മത്സരത്തിന്	-11.3018
ചുമതലപ്പെടുത്തിയ	-11.3019
▁ജര്‍മനി	-11.3021
▁അവാർഡ്	-11.3022
▁ഗാസയില	-11.3023
▁വിരമിക്ക	-11.3024
▁മാറിയെന്ന	-11.3024
▁ക്ലാ	-11.3025
▁സന്നദ്ധത	-11.3026
▁തരണം	-11.3026
▁മാരാര്‍	-11.3027
▁നിരക്കിൽ	-11.3028
▁തുടരാൻ	-11.3029
▁മെട്രിക്	-11.303
▁അത്യാവശ്യമാണ	-11.303
▁മാണെങ്കിലും	-11.3031
▁കെണി	-11.3034
▁ധാരാള	-11.3034
▁ആസൂത്രണ	-11.3035
▁കോളേജുകള	-11.3036
▁ഈടാക്ക	-11.3036
വകാശ	-11.3041
▁ഉൾപ്പെടുന്നു	-11.3041
▁സ്തംഭ	-11.3043
▁ഫലങ്ങള	-11.3044
▁സൈക്കിള	-11.3044
▁സംഘി	-11.3045
യാകും	-11.3047
▁പങ്കാളിത്തം	-11.3049
▁കാണുകയ	-11.305
ക്രമ	-11.305
മോഹന്‍	-11.3054
▁വിജയിക്കുന്ന	-11.3056
▁റേഞ്ച	-11.3056
▁ത്തിനിടയില	-11.3057
▁തേടിയെത്തിയ	-11.3057
▁തല്ലെന്ന	-11.3058
▁കമ്പ	-11.306
▁00	-11.3064
▁കേന്ദ്രങ്ങളിൽ	-11.3064
▁മിച്ച	-11.3067
▁നില്‍ക്കുന്നു	-11.3067
ധന	-11.307
▁പുറത്തായത്	-11.307
▁കണ്ടെത്തുന്നതിന	-11.3072
▁നഷ്ടപ്പെടുന്ന	-11.3074
▁ആണെങ്കില	-11.3076
▁ിക്കണമെന്ന്	-11.3078
▁പരിശോധി	-11.3078
▁യിരുന്ന	-11.308
▁സെൻസ	-11.3081
▁പൊളിച്ച്	-11.3082
▁വരുന്നതിന	-11.3082
ിണി	-11.3082
▁പ്രവേശി	-11.3084
▁തെറ്റാണ്	-11.3085
▁വിസി	-11.3085
▁വിമര്‍ശനമ	-11.3087
▁ബന്ധമാണ്	-11.3088
▁വരുമ	-11.309
▁ഇരുമ്പ	-11.309
▁പരാ	-11.309
പ്പെടുത്താൻ	-11.3091
ഭാഷ	-11.3092
▁പ്പുകള	-11.3094
▁റണ്‍	-11.3097
റോളജി	-11.3097
▁ഇന്ദ്ര	-11.3099
▁4000	-11.3105
▁മൂന്നാ	-11.3108
▁ണു	-11.3109
ധുനിക	-11.3109
▁രാജ്യങ്ങളെ	-11.311
▁സ്വന്തമാക്കാന്‍	-11.311
▁അറിഞ്ഞു	-11.3111
▁ധര്‍മ	-11.3116
▁ഉണ്ടാകുമെന്ന്	-11.3116
▁ഫ്രാന്‍സ	-11.3117
▁പൂര്‍ത്തിയായി	-11.3118
▁നയിക്കുന്നത്	-11.3119
▁പൗ	-11.312
▁ദീർഘ	-11.3121
▁ആഴത്തില	-11.3121
▁ഓഡിറ്റോറിയ	-11.3122
▁തീര്‍ഥാടന	-11.3122
▁നിര്‍ണ്ണായക	-11.3122
▁വോട്ടുബാങ്ക	-11.3122
▁സാങ്കേതികവിദ്യ	-11.3122
ത്രമാത്രം	-11.3122
▁ഗർഭിണി	-11.3122
▁കൊതുക	-11.3122
▁ക്രിസ്മസ	-11.3122
▁ിനുള്ള	-11.3122
▁പുകഴ്ത്തി	-11.3123
▁ഫാസിസ്റ്റ	-11.3123
▁പകര്‍ന്ന	-11.3123
▁വിള്ളല	-11.3124
▁മാതാപിതാക്കൾ	-11.3124
ിരുന്നെങ്കിൽ	-11.3125
▁താവള	-11.3125
▁നിസാര	-11.3125
മോണി	-11.3127
വിനിയോഗ	-11.3127
is	-11.3127
▁മാനദണ്ഡം	-11.3129
▁മാറ്റുന്നത്	-11.3129
നികുതി	-11.3133
▁ടെലിവിഷന്‍	-11.3134
▁ഉപഭോക്താക്കള്‍	-11.3135
▁കേസുകളില	-11.3135
▁ദാരിദ്ര്യ	-11.3138
▁സുശാന്ത	-11.3138
▁വെല്ലുവിളിച്ച	-11.3139
ിരിപ്പ	-11.3139
യോഗ്യ	-11.314
▁ജോര്‍ജിനെ	-11.314
▁വ്യാപി	-11.3141
▁ട്രസ്റ്റ	-11.3142
▁ആവശ്യങ്ങള	-11.3143
▁ചിക്ക	-11.3145
▁അട്ടിമറിക്കാന	-11.3148
▁തെന്ത	-11.3148
▁പറഞ്ഞില്ല	-11.315
▁റദ്ദാക്കണമെന്ന	-11.315
▁മുട	-11.3155
▁പ്രതിനിധീകരിച്ച	-11.3155
▁കരുതല്‍	-11.3155
▁അയ്യപ്പന	-11.3156
▁യുഡിഎഫിനെ	-11.3158
▁രാക	-11.316
▁ഹര്‍ഷ	-11.316
▁മൊരു	-11.3161
▁യുട	-11.3161
യോളം	-11.3165
▁സാദ	-11.3166
▁ഗെലോട്ട	-11.3167
▁കാൻ	-11.3168
▁നകത്ത	-11.3168
▁മോർച്ച	-11.3169
▁റ്റില	-11.3169
ൊഴ	-11.3174
▁കെട്ടിടങ്ങള	-11.3175
▁ചോര്‍ത്ത	-11.3177
▁പിറകെ	-11.3178
▁പിടിച്ചെടുത്തു	-11.3179
▁സുല്‍ത്താന്‍	-11.318
ന്നൂർ	-11.3181
▁1.3	-11.3191
▁സ്കൂളുകള	-11.3191
▁ഒഴിവുകളിലേക്ക	-11.3191
▁സംസാരി	-11.3192
▁കുറയുകയ	-11.3193
▁പ്രത്യാഘാത	-11.3194
▁ഹമാസ	-11.3196
▁പറമ്പില	-11.3196
ദേവി	-11.3201
▁ത്രീ	-11.3203
▁ഉണ്ടാവാ	-11.3203
▁ഓഫീസുകള	-11.3206
▁ഫാം	-11.3209
▁സ്റ്റേജ	-11.3212
▁കാപ്പി	-11.3213
▁ഭീഷണിപ്പെടുത്ത	-11.3214
യേറെ	-11.3215
▁ക്കൊ	-11.3216
പിള്ള	-11.3221
▁നൽകിയിട്ടുള്ള	-11.3221
▁വർഷത്തേക്ക	-11.3222
▁അവഗണിക്ക	-11.3222
▁കുതിച്ചുയര	-11.3227
▁നടത്തുന്നത	-11.3231
എന്‍എ	-11.3231
▁പൃഥ്വിരാജ്	-11.3231
▁ക്കേണ്ടത	-11.3231
▁പിന്നോട്ട്	-11.3233
▁ദുരൂഹ	-11.3233
▁(20)	-11.3234
▁പിപി	-11.3234
▁തടയുന്ന	-11.3235
▁പേര്‍ക്കെതിരെ	-11.3237
▁ക്രമീകരി	-11.3237
▁ഭാവിയില	-11.3238
▁സ്റ്റാലിന്‍	-11.3238
▁104	-11.3241
▁കാഞ്ഞിര	-11.3243
▁പോസ്റ്റര്‍	-11.3243
▁തീപിടിത്ത	-11.3244
▁റായ്ബറേലി	-11.3244
▁അംബേദ്ക	-11.3244
▁ദേവഗൗഡ	-11.3244
▁ന്യൂയോര്‍ക്ക്	-11.3244
▁ശിവൻകുട്ടി	-11.3244
▁ശുചിമുറി	-11.3244
▁ജയിക്കുമെന്ന	-11.3244
▁സഞ്ജീവ	-11.3244
▁(33)	-11.3244
▁ആണെങ്കിൽ	-11.3244
▁ഇന്റര്‍നാഷ	-11.3244
▁കയ്യേറ്റ	-11.3245
▁പാണക്കാട്	-11.3245
▁വംശ	-11.3246
സംഘടിത	-11.3247
▁ആള്‍ക്കാര	-11.3247
▁അതല്ലെങ്കി	-11.3248
▁സംഗ	-11.3248
▁സ്വീ	-11.3249
▁കൺ	-11.3249
▁ജില്ലയിലാണ്	-11.3249
ഞ്ജന	-11.3249
▁കൊടുക്കുക	-11.3252
▁ക്രോസ്	-11.3252
▁മർദ്ദിച്ച	-11.3253
െടുത്തത്	-11.3253
▁കിട്ടില്ല	-11.3254
▁രാജ്യസഭയിലേക്ക്	-11.3254
▁പരിഗണിക്കാന	-11.3254
▁അയക്കുന്ന	-11.3256
▁വെള്ളക്കെട്ട	-11.3257
▁എളുപ്പത്തില്‍	-11.3259
▁ഉറപ്പാക്കിയ	-11.3259
▁ഒഴിവുകൾ	-11.3262
▁ഖേ	-11.3263
▁സൂപ്രണ്ട	-11.3264
▁അഖിലേഷ	-11.3265
▁കളോടെ	-11.3265
വിറ്റി	-11.3267
▁കൊട്ട	-11.3268
▁തെളിയിക്കാന	-11.3269
▁കൊടുക്കുന്നത്	-11.3272
ഹത്യ	-11.3273
▁വിശ്വസിക്കുന്നു	-11.3274
▁വാരിയ	-11.3274
▁തെളിയ	-11.3274
▁സാധ	-11.3275
▁തുമ	-11.3277
▁വധുവ	-11.3277
▁വർദ്ധനവ	-11.3281
▁ക്കാനുമ	-11.3282
▁അനി	-11.3283
▁ആര്‍ടി	-11.3286
▁പിടിക്കുക	-11.3288
▁രമണ	-11.3293
▁യിലേയ്ക്ക	-11.3293
▁സൂര്യന്റെ	-11.3294
▁നേർ	-11.3296
▁യാര്‍	-11.3298
▁തിരിഞ്ഞു	-11.3301
▁ണ്ണ	-11.3302
▁വിരുന്ന	-11.3303
▁ഹാജരാക്ക	-11.3304
▁ഇഞ്ച	-11.3305
▁കരുതിയിരുന്ന	-11.3308
▁മലപ്പുറത്ത	-11.3309
▁അവശ	-11.3309
▁യൊ	-11.3309
▁വര്‍ഷത്തേക്ക	-11.3314
▁ഭര്‍ത്താവിന	-11.3316
▁കുടിച്ച	-11.3317
▁കയറാന	-11.3319
▁ലഭിക്കുന്നതിന	-11.332
▁നാളായ	-11.3326
▁പുഷ്	-11.3329
▁കിറ്റുകള	-11.3331
▁ന്ദ	-11.3333
[...]
