<unk>	0
<s>	0
</s>	0
ന്	-0
ക്	-1
ത്	-2
്‍	-3
▁പ	-4
ന്ന	-5
ക്ക	-6
തി	-7
▁ക	-8
്ട	-9
▁സ	-10
ില	-11
▁വ	-12
ും	-13
▁ന	-14
▁മ	-15
▁അ	-16
ര്‍	-17
്ര	-18
ച്	-19
്പ	-20
ിയ	-21
ുന്ന	-22
്യ	-23
ായ	-24
ാണ	-25
ട്ട	-26
ത്തി	-27
ങ്	-28
പ്പ	-29
▁എ	-30
ിക്ക	-31
റ്	-32
ാണ്	-33
ത്ത	-34
സ്	-35
ച്ച	-36
▁ത	-37
▁ഇ	-38
ണ്ട	-39
ങ്ങ	-40
ല്‍	-41
▁ആ	-42
രി	-43
ായി	-44
ുക	-45
്ല	-46
ടെ	-47
▁ച	-48
ില്‍	-49
ന്‍	-50
ാന	-51
▁പ്ര	-52
രു	-53
റ്റ	-54
ള്‍	-55
▁ര	-56
ഞ്	-57
▁വി	-58
ിച്ച	-59
ുന്നു	-60
ക്ക്	-61
▁ബ	-62
ന്ന്	-63
ുമ	-64
െയ	-65
ാര	-66
്ള	-67
▁ജ	-68
ള്ള	-69
▁സ്	-70
ടു	-71
▁ഉ	-72
▁നി	-73
ന്റ	-74
ിക	-75
ക്ഷ	-76
ഞ്ഞ	-77
െന്ന	-78
വി	-79
ുള്ള	-80
▁എന്ന	-81
ിൽ	-82
▁ഒ	-83
ില്ല	-84
ുടെ	-85
ന്റെ	-86
രുന്നു	-87
ത്ര	-88
▁ശ	-89
▁കോ	-90
ദ്	-91
▁ല	-92
ങ്ങള	-93
ദേ	-94
ാക്ക	-95
ിന	-96
ല്ല	-97
▁സം	-98
ണ്ട്	-99
പ്പെ	-100
ാല	-101
രിക്ക	-102
ാര്‍	-103
ുന്നത്	-104
▁പറ	-105
▁മു	-106
▁നട	-107
ാവ	-108
▁യ	-109
▁പി	-110
ടി	-111
▁നേ	-112
▁മാ	-113
ാന്‍	-114
▁കേ	-115
▁ചെയ	-116
റി	-117
്മ	-118
സി	-119
ങ്ക	-120
▁പോ	-121
▁രാ	-122
ണം	-123
▁ഗ	-124
െന്ന്	-125
▁കു	-126
ോഗ	-127
ിലെ	-128
ുകയ	-129
ത്ത്	-130
ന്ത്	-131
ിവ	-132
▁ദ	-133
ുവ	-134
▁കൊ	-135
▁ഭ	-136
േഷ	-137
ച്ച്	-138
ിട്ട	-139
ട്	-140
തിര	-141
ദേശ	-142
െന്നും	-143
▁1	-144
മ്മ	-145
സ്ഥ	-146
ായിരുന്നു	-147
ത്തിയ	-148
ന്ത	-149
▁സ്വ	-150
ങ്ങള്‍	-151
ന്ദ	-152
ത്തില്‍	-153
ണ്	-154
്യമ	-155
▁പു	-156
പി	-157
ംഗ	-158
തിയ	-159
▁സാ	-160
രാ	-161
ത്തെ	-162
റ്റ്	-163
ത്തില	-164
▁ഡ	-165
െടു	-166
▁2	-167
▁ഒരു	-168
ാർ	-169
പ്പോ	-170
ണ്‍	-171
ഡ്	-172
ുകള	-173
റിയ	-174
▁സി	-175
▁കൂ	-176
മ്പ	-177
▁അവ	-178
യം	-179
▁പറഞ്ഞ	-180
നി	-181
തമ	-182
്യാ	-183
▁ബി	-184
▁പേ	-185
രിച്ച	-186
▁ഫ	-187
ുണ്ട്	-188
ഗ്ര	-189
▁ഈ	-190
▁ഹ	-191
ാം	-192
ട്ട്	-193
രം	-194
▁തു	-195
യും	-196
വും	-197
▁റ	-198
▁ഏ	-199
ാക	-200
ന്ധ	-201
▁സ്ഥ	-202
വാ	-203
ട്ടി	-204
ിലും	-205
ീക	-206
ാൻ	-207
യ്	-208
ാല്‍	-209
▁സമ	-210
രെ	-211
ദ്യ	-212
യില്‍	-213
ുപ	-214
▁പ്രതി	-215
വര്‍	-216
ഴി	-217
സ്ഥാന	-218
ിച്ചു	-219
നെ	-220
ിരുന്നു	-221
മായി	-222
ന്ദ്ര	-223
ങ്ങൾ	-224
ുണ്ട	-225
▁ചെയ്	-226
▁വീ	-227
▁അത	-228
ശ്	-229
▁ഓ	-230
ര്‍ക്ക	-231
▁പരി	-232
മാണ്	-233
ക്ര	-234
▁തി	-235
ടിയ	-236
ന്ത്രി	-237
ദ്ധ	-238
നം	-239
▁തുട	-240
▁നേത	-241
ഴ്	-242
കള	-243
▁കാര	-244
മായ	-245
▁ട	-246
▁തന്ന	-247
▁രാജ	-248
പ്പ്	-249
േക്ക്	-250
▁വാ	-251
ികള	-252
ത്തിൽ	-253
േണ്ട	-254
▁പറഞ്ഞു	-255
ദേഹ	-256
▁വ്യ	-257
▁വെ	-258
ിക്കുന്ന	-259
ാത	-260
ാമ	-261
ഡി	-262
ലീ	-263
ത്തിന്	-264
▁പറയ	-265
രുന്ന	-266
പ്പെട്ട	-267
ുകള്‍	-268
്യം	-269
ഷ്ട	-270
ാഗ	-271
▁ചെയ്യ	-272
ണമ	-273
െങ്ക	-274
യുടെ	-275
▁അന	-276
ിയുടെ	-277
ോടെ	-278
ദ്ദേഹ	-279
തിന	-280
▁നിന്ന	-281
സം	-282
▁സു	-283
▁നിയ	-284
ക്തമ	-285
ുമായി	-286
ർക്ക	-287
ത്യ	-288
ല്‍ക	-289
ിരിക്ക	-290
ഫ്	-291
▁(	-292
▁കെ	-293
മാന	-294
രള	-295
ലി	-296
▁സംസ്ഥാന	-297
▁ജില്ല	-298
▁നല്‍ക	-299
▁ആര	-300
ടുത്ത	-301
ജെ	-302
രണ	-303
▁നില	-304
തു	-305
ൂര്‍	-306
പ്ര	-307
റ്റി	-308
ത്തിന്റെ	-309
▁അദ്ദേഹ	-310
രുടെ	-311
▁തന്നെ	-312
ഞ്ഞെടു	-313
ാള	-314
▁കോണ്‍	-315
ീയ	-316
00	-317
ന്ത്ര	-318
ോട്	-319
െന്നാണ്	-320
ഴിഞ്ഞ	-321
ന്ത്യ	-322
▁പൊ	-323
വ്	-324
ോധ	-325
സമ	-326
..	-327
ോട്ട	-328
ിനെ	-329
▁കോണ്‍ഗ്ര	-330
ഞ്ച	-331
▁എം	-332
ണ്ണ	-333
ാധ	-334
ത്സ	-335
▁നിന്ന്	-336
▁തിര	-337
▁ജന	-338
▁ഉണ്ട	-339
ക്കും	-340
യാണ്	-341
▁ഇത	-342
▁സാധ	-343
▁കേരള	-344
▁തീ	-345
▁ശ്ര	-346
ജി	-347
▁രൂ	-348
▁ഇന്ത്യ	-349
▁റി	-350
ിച്ച്	-351
തിന്	-352
▁ലഭ	-353
▁ബിജെ	-354
ിച്ചത്	-355
കു	-356
യില	-357
വർ	-358
▁ജോ	-359
ുകയാണ്	-360
െയും	-361
▁യു	-362
▁അറിയ	-363
ിട്ടുണ്ട്	-364
▁കഴിഞ്ഞ	-365
▁പുറ	-366
▁സെ	-367
റെ	-368
വശ	-369
യിൽ	-370
ജ്	-371
▁ഞ	-372
ാൽ	-373
വര	-374
ിപ്പ	-375
▁അധ	-376
▁കേന്ദ്ര	-377
ലിയ	-378
▁നിയമ	-379
പ്	-380
▁മുഖ	-381
ാട	-382
▁ക്	-383
▁ഷ	-384
▁3	-385
▁അതേ	-386
ത്ഥ	-387
▁മാത്ര	-388
▁രൂപ	-389
▁മൂ	-390
േഖ	-391
വന	-392
▁സീ	-393
സ്റ്റ	-394
ിര	-395
▁ആവശ	-396
ഷ്	-397
▁നിര	-398
▁കാ	-399
ുകയും	-400
▁തിരഞ്ഞെടു	-401
▁20	-402
മി	-403
▁തെ	-404
▁പിന്ന	-405
ാക്കിയ	-406
ോദ	-407
▁ദിവ	-408
ിന്	-409
▁കുറ	-410
ുകൾ	-411
്യാപ	-412
▁ഇട	-413
തിരെ	-414
ുമ്പ	-415
▁കണ്ട	-416
മു	-417
സമയം	-418
ാട്	-419
ഭവ	-420
▁എല്ല	-421
ാത്ത	-422
വിഡ്	-423
▁വിജ	-424
▁സംഘ	-425
പ്പെട	-426
ികള്‍	-427
▁അദ്ദേഹം	-428
▁ആശ	-429
ധാന	-430
▁വ്യക്തമ	-431
മാ	-432
ക്കുന്ന	-433
▁രോഗ	-434
▁മുന്ന	-435
യി	-436
ീക്ഷ	-437
ത്വ	-438
▁സ്വദേശ	-439
▁വേ	-440
▁നിര്‍	-441
▁അതേസമയം	-442
▁എന്നാല്‍	-443
ലീസ്	-444
രും	-445
െയാണ്	-446
▁അതി	-447
ാരി	-448
ിയില്‍	-449
ണി	-450
കള്‍	-451
▁വന്ന	-452
ോള	-453
ക്കെ	-454
വേ	-455
▁പെ	-456
ിലേക്ക്	-457
▁സര്‍ക്ക	-458
യിലെ	-459
ാക്കി	-460
▁ഡി	-461
▁ലോ	-462
▁വൈ	-463
ത്തു	-464
ിനി	-465
പു	-466
▁ഉപ	-467
മേ	-468
ത്തിന	-469
▁കേസ	-470
▁അഭ	-471
▁എന്ന്	-472
കാര	-473
ൊരു	-474
▁റിപ്പോ	-475
ോപ	-476
ിയും	-477
▁മുഖ്യമ	-478
കര	-479
ിക്കും	-480
▁രാജ്യ	-481
▁വലിയ	-482
ന്റ്	-483
▁ഇത്	-484
ഷ്ട്ര	-485
▁ലക്ഷ	-486
▁ഐ	-487
▁എന്നിവ	-488
▁സ്ഥാന	-489
▁ശേഷ	-490
രുമാന	-491
ഗ്	-492
ടക്ക	-493
ങ്ങിയ	-494
▁നീ	-495
ിന്റെ	-496
▁കാണ	-497
▁ബന്ധ	-498
താണ്	-499
ക്കാര	-500
▁പാര്‍	-501
ൂർ	-502
ൽക	-503
▁4	-504
ീകരിച്ച	-505
▁സഹ	-506
▁5	-507
സഭ	-508
യ്ക്ക്	-509
▁പരാ	-510
▁നടത്ത	-511
▁വര്‍	-512
ിയെ	-513
ോട	-514
▁ഏറ്റ	-515
ക്രമ	-516
ാതെ	-517
ഷ്യ	-518
▁നൽക	-519
ഴ്ച	-520
തല്‍	-521
ബ്	-522
ാപ	-523
െങ്കിലും	-524
▁തിരു	-525
▁ഇപ്പോ	-526
▁പരിശ	-527
ങ്ങളുടെ	-528
ിക്കുന്നത്	-529
വേഷ	-530
▁മന്ത്രി	-531
▁മത്സ	-532
ന്യ	-533
▁മെ	-534
ഡിയ	-535
▁ജീ	-536
ക്കു	-537
▁സംഭവ	-538
▁ചെയ്ത	-539
▁വില	-540
▁കോണ്‍ഗ്രസ്	-541
▁നിന്നും	-542
സ്റ്റ്	-543
ക്ട	-544
്യത	-545
ാറ	-546
ങ്ങളും	-547
ങ്ങളില്‍	-548
ത്തിലെ	-549
▁നടത്തിയ	-550
▁അപ	-551
യെ	-552
▁ചി	-553
▁ബിജെപി	-554
▁ധ	-555
▁പ്രവര്‍	-556
▁കൂടു	-557
▁ട്ര	-558
ലം	-559
▁ഉയ	-560
പ്പെടു	-561
ൂടെ	-562
ക്ഷേ	-563
എസ്	-564
▁പോല	-565
▁കോട	-566
▁സൂ	-567
▁ഇതി	-568
ാനുള്ള	-569
▁ചേ	-570
ധി	-571
നാ	-572
ഡിഎ	-573
▁പ്രധാന	-574
▁വിജയ	-575
▁-	-576
▁അന്	-577
▁തീരുമാന	-578
▁മന	-579
ിക്കുന്നു	-580
ുകൊ	-581
▁പങ്ക	-582
▁സുര	-583
▁അത്	-584
േക്ക	-585
ണ്ഡ	-586
▁കാല	-587
▁കഴ	-588
ളി	-589
▁ആവശ്യ	-590
▁കാര്യ	-591
ംഗ്	-592
ര്യ	-593
വിടെ	-594
ര്‍ന്ന	-595
ാവ്	-596
▁പരിശോധ	-597
▁ഇത്ത	-598
പ്പു	-599
▁നേതാക്ക	-600
▁ചെ	-601
▁ഭാഗ	-602
),	-603
▁പേര	-604
ുകയായിരുന്നു	-605
▁നേര	-606
▁പറയുന്നു	-607
യാ	-608
▁ഗ്ര	-609
▁കോൺ	-610
▁കൈ	-611
▁സർക്ക	-612
▁പര	-613
▁വേണ്ട	-614
▁പേര്‍	-615
▁രണ്ട്	-616
പക്ഷ	-617
▁മോ	-618
▁നടപ	-619
എം	-620
ാനം	-621
ിട	-622
▁പല	-623
▁രണ്ട	-624
▁നാ	-625
▁ആയ	-626
▁നേതൃ	-627
▁ഇന്ന്	-628
▁അന്വേഷ	-629
▁പുതിയ	-630
▁തോ	-631
ിലാണ്	-632
ോണ	-633
▁രാഷ്ട്ര	-634
▁എസ്	-635
ബന്ധ	-636
േയും	-637
ബി	-638
ുംബ	-639
ാണെന്ന്	-640
▁യാ	-641
▁മല	-642
ന്തപു	-643
ുള	-644
ികൾ	-645
കൾ	-646
▁എന്നാണ്	-647
▁നിർ	-648
ടുക്ക	-649
ുമ്പോ	-650
▁ആശുപ	-651
ഹി	-652
▁ശ്രമ	-653
ിക്കാന്‍	-654
▁നേതൃത്വ	-655
▁മറ്റ	-656
ാസ്	-657
▁ചില	-658
▁പോലീസ്	-659
ൈന	-660
ുമെന്ന്	-661
ര്‍ച്ച	-662
▁നല്‍കിയ	-663
യോഗ	-664
വണ	-665
വനന്തപു	-666
ത്രി	-667
▁കോൺഗ്ര	-668
ഭാഗ	-669
▁കട	-670
▁പാല	-671
▁അധിക	-672
ാനും	-673
▁മുഖ്യമന്ത്രി	-674
▁യോഗ	-675
▁അവസ	-676
▁തിരുവനന്തപു	-677
േറ്റ	-678
▁കൊണ്ട	-679
ാസ	-680
യ്ക്ക	-681
▁ശേഷം	-682
ുള്ളത്	-683
▁നടന്ന	-684
▁വർ	-685
പ്പം	-686
▁മാറ്റ	-687
കെ	-688
ീകരിക്ക	-689
▁സ്ഥിര	-690
▁തൊ	-691
ോട്ട്	-692
▁ആണ്	-693
ന്നും	-694
▁പാർ	-695
്യൂ	-696
▁വര	-697
▁ഉറ	-698
▁സൗ	-699
▁ഏറ്റവും	-700
▁ജെ	-701
▁ആദ്യ	-702
▁സാഹ	-703
▁അംഗ	-704
ട്ടിയ	-705
വീ	-706
▁പ്രഖ	-707
▁എല്ലാ	-708
ിരിക്കുന്നത്	-709
▁തിരഞ്ഞെടുപ്പ	-710
▁6	-711
ങ്ങളെ	-712
ര്‍ശ	-713
▁കണ്ണ	-714
പ്പെടുത്ത	-715
▁സീറ്റ	-716
ഹു	-717
ുന്നത	-718
േഖല	-719
▁ആരോപ	-720
രണം	-721
ദ്യോഗ	-722
▁തിരിച്ച	-723
▁മണ	-724
▁വരെ	-725
▁അഭി	-726
▁പോക	-727
▁മണ്ഡ	-728
▁വള	-729
▁മറ	-730
▁കമ്മ	-731
▁വയ	-732
▁സാഹച	-733
▁മേ	-734
ാശ	-735
ാരണ	-736
ിച്ചിരുന്നു	-737
ത്തക	-738
ീഷ	-739
▁റിപ്പോര്‍	-740
വാദ	-741
ാര്‍ത്ഥ	-742
യാള	-743
▁തൃ	-744
▁ഉത്ത	-745
▁സ്റ്റ	-746
ടന	-747
രിയ	-748
▁സര്‍ക്കാര്‍	-749
▁ചെയ്തു	-750
▁പ്രഖ്യാപ	-751
ാണെന്നും	-752
മുള്ള	-753
സ്ത	-754
▁ദു	-755
▁ഗു	-756
▁കൊവിഡ്	-757
▁സ്വദേശി	-758
▁ബാ	-759
▁കുട	-760
▁ചോ	-761
▁ശതമ	-762
തായി	-763
▁ദിവസ	-764
▁വകു	-765
േന്ദ്ര	-766
ഷം	-767
ംബ	-768
▁ആരോഗ	-769
▁കണ്ടെ	-770
▁സിപി	-771
തൽ	-772
ന്തു	-773
▁വോട്ട	-774
തോടെ	-775
▁ദിവസം	-776
▁രംഗ	-777
▁പദ്ധ	-778
▁7	-779
▁ബാധ	-780
▁ബോ	-781
ൂര	-782
സ്സ	-783
മാര	-784
▁അറ	-785
ുമാണ്	-786
ദ്ദേശ	-787
▁എന്നും	-788
▁ഡോ	-789
ുവി	-790
▁ബിജെപ	-791
▁രാഷ്ട്രീയ	-792
▁ചിത്ര	-793
തല	-794
േക്ഷ	-795
▁സാധ്യത	-796
▁കോവിഡ്	-797
▁നേരി	-798
▁തിരുവനന്തപുരം	-799
▁നേരത്തെ	-800
ാരം	-801
▁രാഹു	-802
▁201	-803
ുമായ	-804
▁മേഖല	-805
▁പ്രവർ	-806
▁അനു	-807
▁വീട്ട	-808
ങ്ങനെ	-809
മെ	-810
▁തല	-811
▁.	-812
ങ്ങളിൽ	-813
▁ശക്തമ	-814
ുകളും	-815
ഷേ	-816
ത്തിലാണ്	-817
▁എന്നാൽ	-818
സിന്റെ	-819
ഞ്ച്	-820
▁സമ്പ	-821
ലെ	-822
ക്തി	-823
▁എന്ത	-824
ായിരുന്ന	-825
ുമെന്നും	-826
െയ്	-827
▁റോ	-828
ിത	-829
െങ്കില്‍	-830
ിട്ടില്ല	-831
▁പ്രസി	-832
▁കള	-833
▁ജില്ലാ	-834
▁ഓഫ	-835
▁കൂട്ട	-836
▁ചെയ്തി	-837
നും	-838
▁വിഷ	-839
▁എത്തിയ	-840
ാദ	-841
വിധ	-842
േഷ്	-843
ീപ	-844
▁പിട	-845
▁കുടുംബ	-846
ർന്ന	-847
ീസ	-848
ണക്ക	-849
സിന്	-850
▁പ്രച	-851
▁യുവ	-852
▁വിഭാഗ	-853
രിച്ച്	-854
▁സമ്മ	-855
യുള്ള	-856
▁നോ	-857
▁തയ	-858
▁സ്ഥിരീകരിച്ച	-859
▁മുന്‍	-860
ഷേധ	-861
ല്ലാം	-862
▁നാല	-863
▁ടി	-864
രുത	-865
▁വാക്	-866
ക്ത	-867
▁ആള	-868
വാസ	-869
▁ഹൈ	-870
▁പ്രശ്	-871
ായിരിക്ക	-872
പ്പെടുത്തിയ	-873
ങ്ങി	-874
ൊപ്പം	-875
▁വിമ	-876
▁പ്രത്യ	-877
▁ഇല്ല	-878
▁മണ്ഡല	-879
▁ഒന്ന	-880
▁വിള	-881
ങ്ങള്‍ക്ക്	-882
▁ഒഴ	-883
▁കഴിയ	-884
ാഴ്ച	-885
▁ആരോഗ്യ	-886
ുക്ക	-887
മന്ത്രി	-888
ിരുന്ന	-889
▁പിന്തു	-890
ാകും	-891
ത്തും	-892
▁'	-893
▁യാത്ര	-894
ദ്ദ	-895
സിന	-896
െടുക്ക	-897
▁ഖ	-898
ക്രട്ട	-899
▁പഞ്ച	-900
▁ഇറ	-901
▁ഉള്ള	-902
ാന്ധ	-903
▁കൂടുതല്‍	-904
കം	-905
▁ഉപയോഗ	-906
▁മൂന്ന്	-907
തും	-908
ത്തിക്ക	-909
▁മീ	-910
ീസ്	-911
▁നിയമസഭ	-912
▁ഉദ്യോഗ	-913
ര്‍ന്ന്	-914
▁വിശ	-915
▁പ്രസിഡ	-916
്യാറ	-917
▁കി	-918
▁സെക്രട്ട	-919
ൃത	-920
ൂല	-921
തീക്ഷ	-922
വില്‍	-923
ിയിൽ	-924
ുകളില്‍	-925
▁8	-926
ർച്ച	-927
മുണ്ട	-928
ിരിക്കുകയാണ്	-929
▁ഭൂ	-930
▁10	-931
ണമെന്ന്	-932
▁തുടങ്ങിയ	-933
▁രോഗം	-934
▁സ്ഥാപ	-935
▁തയ്യാറ	-936
താ	-937
▁സിനി	-938
ച്ചു	-939
ൂറ	-940
▁പിന്നാല	-941
ാനാണ്	-942
▁സര്‍	-943
▁19	-944
▁ചോദ്യ	-945
▁താ	-946
▁നീക്ക	-947
പ്പോള്‍	-948
ഴിക്ക	-949
▁കൂടി	-950
▁എന്‍	-951
▁തിരഞ്ഞെടുപ്പ്	-952
വിത	-953
ായത്	-954
▁തൊഴ	-955
്യക്ഷ	-956
▁അറിയിച്ചു	-957
▁കൃ	-958
ാർത്ഥ	-959
ുപോ	-960
ചന	-961
▁ഉള്‍	-962
▁അടി	-963
▁ആല	-964
രംഭ	-965
▁തട	-966
▁ഗാന്ധ	-967
▁ഭരണ	-968
▁മോദ	-969
▁വ്യക്തമാക്കി	-970
േരി	-971
▁ഇവ	-972
ത്തന	-973
നിക്ക്	-974
ികളുടെ	-975
▁സോ	-976
▁അട	-977
▁9	-978
▁ചിക	-979
▁പറയുന്നത്	-980
▁പുറത്ത	-981
ൂഹ	-982
▁മാധ	-983
▁ന്യ	-984
▁സാഹചര്യ	-985
▁ഇവിടെ	-986
ിയാണ്	-987
ന്‍റെ	-988
▁മി	-989
ിക്കാൻ	-990
▁സർക്കാർ	-991
ുന്നുണ്ട്	-992
ർശ	-993
▁കൊല്ല	-994
▁പരിശോധന	-995
▁പ്രക	-996
▁മഹ	-997
ൊക്കെ	-998
▁നടക്ക	-999
▁പിന്തുണ	-1000
▁ആക്രമ	-1001
▁ചോദ	-1002
▁കൂട	-1003
▁ജയ	-1004
ശ്ച	-1005
▁പോലും	-1006
▁പ്രതിക	-1007
ഞ്ഞ്	-1008
▁കോള	-1009
▁വിദ്യ	-1010
റിച്ച്	-1011
▁ഘ	-1012
▁പ്രതിപക്ഷ	-1013
▁ഫോ	-1014
▁പൊലീസ്	-1015
ഷക	-1016
തിയില്‍	-1017
ിത്സ	-1018
▁സമയ	-1019
▁കോൺഗ്രസ്	-1020
▁ടെ	-1021
▁പ്രതിഷേധ	-1022
നിടെ	-1023
നിയ	-1024
▁സാമ്പ	-1025
▁കോടതി	-1026
▁ചര്‍ച്ച	-1027
▁ആശുപത്ര	-1028
▁ചികിത്സ	-1029
▁റിപ്പോർ	-1030
▁മൊ	-1031
...	-1032
▁സ്ത്ര	-1033
▁യുഡിഎ	-1034
ഗണ	-1035
▁നമ്മ	-1036
▁കുമ	-1037
▁സംബന്ധ	-1038
വുമായി	-1039
▁പ്രത്യേ	-1040
▁കോടി	-1041
▁അയ	-1042
ിലുള്ള	-1043
ിച്ചിട്ടുണ്ട്	-1044
ജീ	-1045
▁പാ	-1046
ച്ചി	-1047
ുവരെ	-1048
▁മാധ്യമ	-1049
▁നിലപ	-1050
▁ഇപ്പോള്‍	-1051
രുത്ത	-1052
▁അവസാന	-1053
രിപ്പ	-1054
ോഷ	-1055
▁കോഴിക്ക	-1056
▁ദേശ	-1057
▁അധ്യക്ഷ	-1058
▁മുതല്‍	-1059
േഷന്‍	-1060
▁കുട്ട	-1061
▁പ്രതീക്ഷ	-1062
പ്പെടെ	-1063
ൻ്	-1064
ിലൂടെ	-1065
000	-1066
മല്ല	-1067
▁ആരംഭ	-1068
▁കയ	-1069
▁ഭാര	-1070
▁വിമാന	-1071
ഷ്ണ	-1072
▁കുറ്റ	-1073
▁കൊണ്ട്	-1074
ന്തര	-1075
▁പരാതി	-1076
▁തുറ	-1077
ുമെന്നാണ്	-1078
▁മറ്റ്	-1079
▁കാരണം	-1080
▁ആര്‍	-1081
സ്പ	-1082
ണ്ടും	-1083
െടുത്ത	-1084
▁202	-1085
▁മണിക്ക	-1086
▁അവര്‍	-1087
ികളെ	-1088
കാശ	-1089
ണറ	-1090
പര	-1091
▁പട്ട	-1092
പ്പെട്ടു	-1093
▁ഉദ്യോഗസ്ഥ	-1094
ാലും	-1095
▁ജി	-1096
ലും	-1097
എല്‍	-1098
▁വാര്‍	-1099
ായിട്ട	-1100
▁യൂ	-1101
▁ചൂ	-1102
ാവി	-1103
▁മുൻ	-1104
▁സംസ	-1105
ര്‍ത്ത	-1106
ില്ലെന്ന്	-1107
▁ലീ	-1108
▁മാത്രം	-1109
▁കല	-1110
▁സഹായ	-1111
▁മുമ്പ	-1112
വാഹ	-1113
▁മാന	-1114
ള്ളി	-1115
ുകൊണ്ട്	-1116
▁സിനിമ	-1117
▁അടക്ക	-1118
ാണി	-1119
ിയിലെ	-1120
▁തന്റെ	-1121
ില്ലെന്നും	-1122
േജ	-1123
▁എല്‍	-1124
▁പോയ	-1125
ണമെന്നും	-1126
▁ഉത്തര	-1127
▁ഉറപ്പ	-1128
ട്ര	-1129
ഴും	-1130
▁12	-1131
▁മൂന്ന	-1132
മാര്‍	-1133
▁കര്‍	-1134
▁രീ	-1135
▁11	-1136
▁ലോക	-1137
▁സൈ	-1138
▁നൽകിയ	-1139
▁വ്യാപ	-1140
▁ഒരാ	-1141
▁ഒഴിവ	-1142
▁ഇവര്‍	-1143
വേശ	-1144
▁പ്രദേശ	-1145
▁ഇരു	-1146
സില്‍	-1147
ദി	-1148
▁പൂ	-1149
▁നേതാക്കള	-1150
▁പദ്ധതി	-1151
▁റിപ്പോര്‍ട്ട്	-1152
ുളള	-1153
▁അടുത്ത	-1154
▁പാര്‍ട്ടി	-1155
▁ശതമാനം	-1156
ക്കി	-1157
▁വേണ്ടി	-1158
▁ഇതോടെ	-1159
വിട	-1160
▁അനുവ	-1161
പ്പെട്ട്	-1162
ഭാ	-1163
▁ഇന്ന	-1164
▁വീണ്ടും	-1165
▁ഇക്കാര	-1166
▁കോഴിക്കോട്	-1167
▁സമീപ	-1168
▁പിന്നീ	-1169
▁15	-1170
▁വിശ്	-1171
▁നെ	-1172
▁പ്രത്യേക	-1173
ഡിയോ	-1174
▁ഉന്ന	-1175
പെ	-1176
ോളം	-1177
റും	-1178
▁നേതാവ്	-1179
ളം	-1180
വധി	-1181
▁അപേക്ഷ	-1182
രോ	-1183
▁ഇതുവരെ	-1184
ബു	-1185
യോ	-1186
മുഖ	-1187
ങ്ങളാണ്	-1188
▁കമ്പ	-1189
ിയായ	-1190
തെന്ന്	-1191
ട്ടം	-1192
ുകളുടെ	-1193
ീം	-1194
▁രാശ	-1195
തില്‍	-1196
▁ഓഫീസ	-1197
▁ദില്ല	-1198
▁മരിച്ച	-1199
ാവും	-1200
▁ന്യൂ	-1201
ാലി	-1202
നായ	-1203
▁കോട്ട	-1204
▁ദേശീയ	-1205
തെന്നും	-1206
ിക്കാ	-1207
▁ലക്ഷം	-1208
▁ചെയ്യുന്ന	-1209
▁ഉട	-1210
ുകൊണ്ട	-1211
▁സുരക്ഷ	-1212
ത്തിക	-1213
▁നിന്നുള്ള	-1214
▁രേഖ	-1215
▁വൈറ	-1216
ഡിക്ക	-1217
▁നാട്ട	-1218
▁നിരീക്ഷ	-1219
▁കിട്ട	-1220
തം	-1221
▁വിവിധ	-1222
▁ഇത്തവണ	-1223
▁മുസ്	-1224
▁ബു	-1225
▁നഗ	-1226
▁നിരവധി	-1227
▁അല്ല	-1228
▁വിദ	-1229
▁അനുവദ	-1230
▁വിഷയ	-1231
ങ്ങൾക്ക്	-1232
▁നഷ്ട	-1233
▁മുഖ്യമന്ത്ര	-1234
▁ഗോ	-1235
▁ശ്രദ്ധ	-1236
ത്തോടെ	-1237
▁പൂര്‍	-1238
ത്തനം	-1239
▁പ്രധാനമന്ത്രി	-1240
ുമ്പോള്‍	-1241
ിതി	-1242
▁സേ	-1243
ങ്ങന	-1244
▁സംസ്ഥാനത്ത്	-1245
ത്തിലും	-1246
▁മിക	-1247
▁മരണ	-1248
▁ഉൾ	-1249
▁വിവര	-1250
▁സർ	-1251
ുത	-1252
▁ലഭിച്ച	-1253
▁സഖ	-1254
▁ഹൈക്ക	-1255
▁വളരെ	-1256
ക്കിയ	-1257
ന്‍സ്	-1258
▁ജീവിത	-1259
▁ക്ര	-1260
▁ഞാന്‍	-1261
വെ	-1262
ിക്കുകയും	-1263
▁എത്ത	-1264
▁ജില്ലയില്‍	-1265
▁തര	-1266
▁വെള്ള	-1267
▁ന്	-1268
▁ബ്ര	-1269
▁തക	-1270
▁പിന്നീട്	-1271
െങ്കിൽ	-1272
ക്യ	-1273
▁മാത്രമാണ്	-1274
തിനെ	-1275
പ്പുറ	-1276
▁നിയന്ത്ര	-1277
▁ശ്രീ	-1278
ുമെന്ന	-1279
▁സ്വന്ത	-1280
▁പിണറ	-1281
ര്‍പ്പ	-1282
▁കണക്ക	-1283
▁തെള	-1284
▁തേ	-1285
▁പിന്നാലെ	-1286
▁ലി	-1287
▁നല്ല	-1288
വരം	-1289
▁സെക്രട്ടറി	-1290
▁പഠ	-1291
▁വാഹ	-1292
▁മെഡിക്ക	-1293
▁മന്ത്ര	-1294
നില്‍	-1295
▁വകുപ്പ്	-1296
▁ഇതിന്	-1297
കട	-1298
▁എത്തി	-1299
▁അന്വേഷണ	-1300
േറ്റ്	-1301
▁വര്‍ഷ	-1302
▁ജോലി	-1303
▁പ്രവേശ	-1304
▁സര്‍ക്കാരി	-1305
▁ഇനി	-1306
വിൽ	-1307
▁മഴ	-1308
▁തുടര്‍ന്ന്	-1309
▁പാര്‍ട്ട	-1310
▁കേസ്	-1311
▁കൂടിയ	-1312
ാണ്ട	-1313
▁വിട്ട	-1314
▁പഞ്ചായ	-1315
▁രക്ഷ	-1316
ൊന്നും	-1317
▁വഴി	-1318
ിക്കുക	-1319
▁മലയാള	-1320
▁മാര്‍	-1321
രിക	-1322
▁എല്ലാവ	-1323
▁ചൂണ്ട	-1324
ുപ്ര	-1325
ത്മ	-1326
▁,	-1327
ുകളാണ്	-1328
േക്കും	-1329
കാരം	-1330
▁അവരുടെ	-1331
▁വൈക	-1332
തിയുടെ	-1333
▁വിദേശ	-1334
കാര്യ	-1335
▁വിശദ	-1336
ർക്ക്	-1337
യിലാണ്	-1338
▁പരിഗണ	-1339
ാടക	-1340
രഞ്ഞെടു	-1341
▁ചോദ്യം	-1342
▁പോലീ	-1343
▁രാഹുല്‍	-1344
▁വിക	-1345
▁ചെയ്തത്	-1346
ദേശം	-1347
ികളും	-1348
െയുള്ള	-1349
▁ലൈ	-1350
ിത്ത	-1351
▁കമ്മി	-1352
▁സാമ്പത്തിക	-1353
്യമായ	-1354
▁പക	-1355
▁അടിസ്ഥാന	-1356
ത്തിലേക്ക്	-1357
▁മാസ	-1358
കളില്‍	-1359
▁സ്ഥാപന	-1360
ക്കെതിരെ	-1361
ായക	-1362
▁ആയി	-1363
▁വരുന്ന	-1364
▁വീഡിയോ	-1365
കളും	-1366
▁താര	-1367
റിന്റെ	-1368
ത്തിലുള്ള	-1369
ഗ്രഹ	-1370
മോ	-1371
▁നടപടി	-1372
തീ	-1373
രിൽ	-1374
റോണ	-1375
ൻ്റെ	-1376
▁സിപിഎം	-1377
ിനും	-1378
▁തൊഴില	-1379
▁സംഘടന	-1380
ന്നു	-1381
▁പറഞ്ഞത്	-1382
ധിക	-1383
ക്ടര്‍	-1384
തിയെ	-1385
▁പിണറായി	-1386
▁പരിഹ	-1387
ണ്ണം	-1388
ർത്ത	-1389
▁മോദി	-1390
▁സന്ദ	-1391
▁മികച്ച	-1392
പ്പുഴ	-1393
ണമെന്ന	-1394
ത്തിയത്	-1395
ടിപ്പ	-1396
▁അമേ	-1397
▁അതിന	-1398
▁കൊറോണ	-1399
▁ലോക്	-1400
േസ്	-1401
ുകാര	-1402
മായിരുന്നു	-1403
▁ഹി	-1404
▁വ്യാ	-1405
നെതിരെ	-1406
ൂട്ട	-1407
▁സ്പ	-1408
▁ജീവന	-1409
െല്ലാം	-1410
▁നടപ്പ	-1411
▁ശക്തമായ	-1412
▁നയ	-1413
ുന്നതിന	-1414
▁നാല്	-1415
ണാക	-1416
▁അഞ്ച്	-1417
ായും	-1418
▁മറുപ	-1419
▁ആശുപത്രി	-1420
ാരാ	-1421
▁ചുമ	-1422
ഞ്ഞു	-1423
ുകളിൽ	-1424
പ്പെടുത്തി	-1425
േയ	-1426
ാള്‍	-1427
▁എക്	-1428
ശ്യ	-1429
▁വഴ	-1430
▁എന്നി	-1431
▁ആദ	-1432
▁തെരഞ്ഞെടു	-1433
ശ്ശ	-1434
െതിരെ	-1435
നാട്	-1436
ാനി	-1437
റില്‍	-1438
▁ക്ല	-1439
▁14	-1440
യിലേക്ക്	-1441
▁ഇതിന	-1442
രമ	-1443
▁പണം	-1444
ടങ്ങ	-1445
▁ചെന്ന	-1446
ഷന്‍	-1447
▁സ്ഥല	-1448
▁വിവരം	-1449
ജന	-1450
പ്രായ	-1451
വരുടെ	-1452
▁തമ്മ	-1453
▁24	-1454
വസ	-1455
പ്പോൾ	-1456
▁"	-1457
▁നേടിയ	-1458
▁പ്രവര്‍ത്തക	-1459
ർന്ന്	-1460
▁നടപട	-1461
്യമാണ്	-1462
▁പക്ഷേ	-1463
▁ചൈന	-1464
▁വിവാഹ	-1465
▁പൊതു	-1466
ുമോ	-1467
▁മുതൽ	-1468
സും	-1469
ിക്കേണ്ട	-1470
▁പരിപ	-1471
ിട്ടുണ്ട	-1472
ക്ഷണ	-1473
ക്ഷേപ	-1474
▁കൊല	-1475
▁പുറത്ത്	-1476
▁അമേരിക്ക	-1477
യിലും	-1478
▁രാവ	-1479
ിട്ട്	-1480
▁അമ്മ	-1481
ീവ്	-1482
ക്കാട്	-1483
▁നടത്തി	-1484
മായും	-1485
രിക്കുന്നത്	-1486
▁ഞാൻ	-1487
മാണ	-1488
▁എന്റെ	-1489
▁തീരുമാനം	-1490
▁ബാല	-1491
▁നഗര	-1492
▁സമയം	-1493
▁പ്രസിഡന്റ്	-1494
▁നേരിട	-1495
ാതി	-1496
▁തന്നെയാണ്	-1497
സര്‍	-1498
▁സുപ്ര	-1499
▁ഗ്രൂ	-1500
▁സ്ഥാനാര്‍ത്ഥ	-1501
ന്റെയും	-1502
▁റെ	-1503
▁തവണ	-1504
▁ഓരോ	-1505
▁പ്ല	-1506
▁എറ	-1507
▁കൂടുതൽ	-1508
ണാകുള	-1509
▁അപകട	-1510
ര്‍ക്കും	-1511
ഹമ്മ	-1512
▁നേതാക്കള്‍	-1513
▁സ്വീകരിക്ക	-1514
ാബ	-1515
▁ഇടപെ	-1516
ത്തേക്ക്	-1517
▁ദില	-1518
▁ശിവ	-1519
▁വിധ	-1520
തിന്റെ	-1521
▁സീറ്റ്	-1522
ന്നി	-1523
▁തൃശ	-1524
കൂ	-1525
സില	-1526
ിക്കാന	-1527
▁എറണാകുള	-1528
▁13	-1529
ങ്ങളിലും	-1530
▁ദേ	-1531
▁അഭിപ്രായ	-1532
കുമ	-1533
ധാക	-1534
▁വിവാദ	-1535
▁സ്വദേശിനി	-1536
▁പാർട്ടി	-1537
▁നില്‍	-1538
▁ഗാന്ധി	-1539
▁സ്വര്‍	-1540
ബ്ദ	-1541
▁സോഷ്യ	-1542
ഷി	-1543
▁കമ	-1544
▁പേര്‍ക്ക്	-1545
▁വോട്ട്	-1546
ുമതി	-1547
▁റിപ്പോർട്ട്	-1548
▁കണ്ണൂര്‍	-1549
▁മീഡിയ	-1550
ജു	-1551
ീന	-1552
▁വകുപ്പ	-1553
പ്പെട്ടി	-1554
സിനെ	-1555
രന്‍	-1556
ായ്	-1557
▁അവകാശ	-1558
തിരോധ	-1559
▁18	-1560
▁കീ	-1561
▁ജില്ലയിലെ	-1562
നാണ്	-1563
▁കരു	-1564
ഖ്	-1565
ണിയ	-1566
▁ആർ	-1567
▁അന്വേഷണം	-1568
▁ബെ	-1569
യായി	-1570
ജന്‍	-1571
▁താമ	-1572
▁വിലയി	-1573
▁ആയിരുന്നു	-1574
ഴു	-1575
▁പട്ടിക	-1576
വല	-1577
▁വീട	-1578
▁എൻ	-1579
▁ജനറ	-1580
▁നിയമസഭാ	-1581
▁നര	-1582
▁വാഹന	-1583
▁പ്രിയ	-1584
ോമ	-1585
▁എംഎല്‍	-1586
▁കര	-1587
▁പരീക്ഷ	-1588
രുമ	-1589
▁ബന്ധപ്പെട്ട	-1590
▁സൂചന	-1591
▁ഷാ	-1592
പരി	-1593
മാർ	-1594
▁എണ്ണം	-1595
യ്യ	-1596
ിറ	-1597
ദ്ര	-1598
▁ട്	-1599
ുട	-1600
▁വ്യക്തമാക്ക	-1601
▁മറ്റൊരു	-1602
▁നേതൃത്വം	-1603
▁എന്നീ	-1604
വരെ	-1605
▁ഏക	-1606
ഹൃ	-1607
▁ചർച്ച	-1608
▁എംഎല്‍എ	-1609
ിക്കണം	-1610
▁മണിക്കൂറ	-1611
ാക്കിയത്	-1612
യായ	-1613
▁പ്രതിരോധ	-1614
▁ക്യാ	-1615
▁ഒറ്റ	-1616
്യമായി	-1617
▁ഹൈക്കോട	-1618
പ്പെടുന്ന	-1619
ങ്ങളില	-1620
▁വര്‍ധ	-1621
▁കണ്ടെത്ത	-1622
ുവന്ന	-1623
സന്ധ	-1624
കളുടെ	-1625
▁25	-1626
ച്ചത്	-1627
യുണ്ട	-1628
▁പശ്ച	-1629
▁പ്രസ	-1630
▁വ്യക്തി	-1631
▁ജൂ	-1632
▁അവിടെ	-1633
നു	-1634
േഷൻ	-1635
▁ഫേസ്	-1636
▁അല	-1637
▁മുഴ	-1638
▁സംസാര	-1639
▁രാവിലെ	-1640
േദ	-1641
▁കർ	-1642
▁ഹാ	-1643
ാദ്	-1644
രിക്കുന്ന	-1645
▁പൂർ	-1646
ത്തിനും	-1647
പ്രദേശ	-1648
രിക്കും	-1649
ഹ്	-1650
ിരുന്നത്	-1651
തിക	-1652
ക്കോ	-1653
▁ബിഗ്	-1654
▁വിമര്‍ശ	-1655
ബ്ര	-1656
ുകൂല	-1657
വിധാന	-1658
ിക്കുകയായിരുന്നു	-1659
തിയിൽ	-1660
ാവന	-1661
▁എനിക്ക്	-1662
േണ്ടി	-1663
▁ആലപ്പുഴ	-1664
ക്കാ	-1665
▁യുഎ	-1666
ജയ	-1667
▁നിരീക്ഷണ	-1668
ൗര	-1669
▁ലെ	-1670
▁വാർ	-1671
ക്കാര്‍	-1672
▁പ്രവ	-1673
ായിരിക്കും	-1674
കാല	-1675
▁ദില്ലി	-1676
റു	-1677
▁രണ്ടാം	-1678
വം	-1679
ാരാഷ്ട്ര	-1680
രീ	-1681
▁മുമ്പ്	-1682
ഭ്യാ	-1683
ാവസ്ഥ	-1684
▁ഇങ്ങനെ	-1685
പ്പെട്ടത്	-1686
▁റിപ്പോര്‍ട്ട	-1687
▁ആകെ	-1688
▁കാര്യം	-1689
▁സാമ	-1690
ങ്ക്	-1691
▁ഇപ്പോൾ	-1692
▁അസ	-1693
▁വരും	-1694
▁അതിന്	-1695
▁പ്രവര്‍ത്തന	-1696
രുദ്ധ	-1697
▁ചെല	-1698
പ്പി	-1699
▁എത്ര	-1700
▁(2	-1701
▁നിലവില്‍	-1702
േള	-1703
▁അറസ്റ്റ്	-1704
മാക്ക	-1705
ുമ്പോൾ	-1706
പ്പുറം	-1707
▁പോലെ	-1708
രിച്ചു	-1709
▁ജീവ	-1710
▁സംവിധാന	-1711
ീപ്	-1712
▁വർഷ	-1713
മില്ല	-1714
▁വാങ്ങ	-1715
▁രജി	-1716
േജ്	-1717
▁നല്‍കി	-1718
▁16	-1719
ാറ്റ	-1720
▁അധികാര	-1721
സിസി	-1722
▁നടക്കുന്ന	-1723
▁പീ	-1724
എഫ്	-1725
സ്റ്റി	-1726
സിൽ	-1727
▁മാത്രമല്ല	-1728
ർപ്പ	-1729
▁താന്‍	-1730
്ട്ര	-1731
▁കോട്ടയം	-1732
ത്രം	-1733
വരും	-1734
രുന്നത്	-1735
▁എഫ്	-1736
▁തമി	-1737
ിച്ചേ	-1738
▁ചെയ്തിട്ട	-1739
▁വികസ	-1740
▁ഇത്തരം	-1741
്യാഭ്യാ	-1742
▁സ്ത്രീക	-1743
▁17	-1744
▁ആശങ്ക	-1745
▁ഏത	-1746
▁വാര്‍ത്ത	-1747
▁സുരേന്ദ്ര	-1748
▁അവർ	-1749
▁പുര	-1750
▁ബംഗ	-1751
െയി	-1752
േന	-1753
▁ആദ്യം	-1754
▁ശതമാന	-1755
▁സിംഗ്	-1756
▁ഉന്നയ	-1757
▁പ്രതിസന്ധ	-1758
▁ആണ	-1759
കളിൽ	-1760
ഷണ	-1761
▁ഘട്ട	-1762
▁മക	-1763
കരണം	-1764
ക്കാല	-1765
കളെ	-1766
▁കമ്മീഷ	-1767
▁രംഗത്തെ	-1768
▁കേരളത്തില്‍	-1769
വര്‍ക്ക്	-1770
▁സംഭവം	-1771
ടുത്തി	-1772
▁കുറിച്ച്	-1773
▁ല്‍	-1774
ഹമ്മദ്	-1775
▁പ്രാ	-1776
▁സർക്കാരി	-1777
ിക്കാം	-1778
േഴ്	-1779
▁സംശ	-1780
▁യുഡിഎഫ്	-1781
ിക്കാനുള്ള	-1782
▁ഉമ്മ	-1783
▁മത	-1784
▁വര്‍ഷം	-1785
▁നരേന്ദ്ര	-1786
ക്ഷി	-1787
▁ഏറെ	-1788
▁ബൈ	-1789
▁സന്ത	-1790
▁പാലക്കാട്	-1791
▁എറണാകുളം	-1792
▁ഇന്ത്യന്‍	-1793
▁അക	-1794
▁സംബന്ധിച്ച്	-1795
ളെ	-1796
ര്‍മ	-1797
▁മത്സര	-1798
ത്തിലൂടെ	-1799
ികള്‍ക്ക്	-1800
▁30	-1801
▁ഭാഗമായി	-1802
▁മധ	-1803
▁എണ്ണ	-1804
▁നിലവ	-1805
▁പുന	-1806
▁മനസ്സ	-1807
▁ഉണ്ടാക	-1808
റാ	-1809
▁നേട	-1810
ധികം	-1811
▁രാജ്യത്ത്	-1812
▁ൽ	-1813
▁ടീ	-1814
▁മാസം	-1815
▁കാര്യങ്ങള്‍	-1816
▁ഡെ	-1817
▁പക്ഷ	-1818
▁ഇതില്‍	-1819
ൗണ്‍	-1820
▁കാര്‍	-1821
▁ജാ	-1822
▁തമിഴ്	-1823
▁ആത്മ	-1824
▁വാദ	-1825
▁ആഗ്രഹ	-1826
▁നിലപാട്	-1827
▁തോമ	-1828
▁പോരാ	-1829
ുന്നതിന്	-1830
▁നവ	-1831
ുല	-1832
▁ഭൂരി	-1833
ളള	-1834
▁പേരാണ്	-1835
ട്ടെ	-1836
▁കൊല്ലം	-1837
ാടി	-1838
▁പറഞ്ഞിരുന്നു	-1839
▁അന്ന്	-1840
▁ആക	-1841
20	-1842
ആര്‍	-1843
▁ചെയ്തിരുന്നു	-1844
▁കേസില്‍	-1845
▁സുപ്രീം	-1846
▁എൽ	-1847
ീല	-1848
▁ക്ഷേ	-1849
ബര്‍	-1850
കുട്ട	-1851
തിട്ട	-1852
ങ്ങളിലെ	-1853
▁തൊഴിലാള	-1854
▁സമൂഹ	-1855
ടം	-1856
▁വിലയിരുത്ത	-1857
▁യുഡിഎഫ	-1858
▁ശി	-1859
▁രംഗത്ത്	-1860
▁ഗ്രാമ	-1861
▁ഭാര്യ	-1862
▁ഡ്ര	-1863
▁കുറഞ്ഞ	-1864
▁മറുപടി	-1865
▁നേട്ട	-1866
▁പുതു	-1867
▁സാധിക്ക	-1868
ളുടെ	-1869
ർക്കും	-1870
▁മെഡിക്കല്‍	-1871
യര്‍	-1872
▁ദിന	-1873
ഥ്	-1874
▁അഞ്ച	-1875
▁അന്ത	-1876
ാഹ	-1877
▁ഉയര്‍ന്ന	-1878
▁പൊലീ	-1879
ത്തനംതിട്ട	-1880
▁പദ	-1881
▁പങ്കുവ	-1882
▁ഔ	-1883
▁നാള	-1884
പ്പെടുന്നത്	-1885
ൈല	-1886
▁വിദ്യാഭ്യാ	-1887
▁ബന്ധപ്പെട്ട്	-1888
▁നീക്കം	-1889
എമ്മ	-1890
മാക	-1891
ണാടക	-1892
കോ	-1893
▁കൃത്യ	-1894
പാത	-1895
▁തദ്ദേശ	-1896
▁പങ്കെടു	-1897
▁മനു	-1898
▁മുഴുവ	-1899
ജ്ഞ	-1900
ിട്ടും	-1901
▁സുധാക	-1902
േഷന	-1903
▁പേർ	-1904
ീര്‍	-1905
▁കൊച്ചി	-1906
ക്കം	-1907
യായിരുന്നു	-1908
▁സ്വീകരിച്ച	-1909
▁പത്തനംതിട്ട	-1910
▁വനി	-1911
▁വിത	-1912
ിപ	-1913
▁പരാജയ	-1914
▁ചു	-1915
ിച്ചാണ്	-1916
▁ജോര്‍	-1917
ര്‍ക്ക്	-1918
▁നമ്മുടെ	-1919
▁സ്വകാര്യ	-1920
ടുത്ത്	-1921
▁ഫെ	-1922
▁എതി	-1923
▁കന	-1924
ാര്‍ഥ	-1925
▁അധികൃത	-1926
▁കൂടാതെ	-1927
▁ചെയ്യാ	-1928
ജീവ	-1929
▁കേരളത്തിലെ	-1930
▁മോഹ	-1931
▁റഷ്യ	-1932
▁ഇന്‍	-1933
▁സംഘം	-1934
▁ആവശ്യം	-1935
▁അദ്ദേഹത്തിന്റെ	-1936
▁പറ്റ	-1937
▁ഇര	-1938
ുറ	-1939
▁ജോസ	-1940
ാവുന്ന	-1941
ിട്ടുള്ളത്	-1942
▁അതുകൊണ്ട്	-1943
▁ഇക്കാര്യം	-1944
▁ധന	-1945
ല്ലോ	-1946
▁ചൂണ്ടിക്കാ	-1947
ക്കൊ	-1948
സിപ്പ	-1949
▁വെച്ച	-1950
ാണോ	-1951
▁50	-1952
▁ഇടത	-1953
▁സമര	-1954
▁സമയത്ത്	-1955
ത്തിറ	-1956
▁ഇയാ	-1957
റിഞ്ഞ	-1958
ിരിക്കുന്ന	-1959
▁ആഭ	-1960
▁ഷോ	-1961
▁കാരണ	-1962
▁തെളിവ	-1963
▁സ്വന്തം	-1964
▁അമി	-1965
▁ഇടപെട	-1966
▁സുരേഷ്	-1967
▁പ്രായ	-1968
വെന്നും	-1969
▁അക്ക	-1970
▁കൂട്ടിച്ചേ	-1971
▁നിയന്ത്രണ	-1972
▁എടുത്ത	-1973
▁കോടിയ	-1974
▁പ്രകാരം	-1975
ിച്ചിരിക്കുന്നത്	-1976
▁അനുകൂല	-1977
▁ആരോപണ	-1978
ാണിത്	-1979
▁ഇത്ര	-1980
▁ഡയ	-1981
▁മാറ	-1982
മല	-1983
പ്പള്ളി	-1984
വൈ	-1985
റിന്	-1986
▁നിറ	-1987
▁സത്യ	-1988
ുമില്ല	-1989
▁മനുഷ്യ	-1990
▁സ്ഥാനാർത്ഥ	-1991
▁താമസ	-1992
▁മത്സരിക്ക	-1993
▁ദൃ	-1994
രക്ഷ	-1995
▁കടുത്ത	-1996
▁ചെയ്ത്	-1997
▁ഭീഷ	-1998
▁ഫലം	-1999
▁സ്വപ്	-2000
പ്പില്‍	-2001
▁മാത്രമേ	-2002
▁സമ്പർക്ക	-2003
ശ്ര	-2004
▁അഖ	-2005
▁നമ്പ	-2006
▁ചെയ്യുന്നത്	-2007
▁ആന	-2008
▁അനുഭവ	-2009
▁കര്‍ഷക	-2010
▁ഇടുക്ക	-2011
ിക്കറ്റ്	-2012
▁കരുത	-2013
ത്തിനായി	-2014
▁200	-2015
▁ചുമതല	-2016
േത	-2017
സർ	-2018
ഴ്ച്ച	-2019
▁സാധാരണ	-2020
▁തോന്ന	-2021
▁തനിക്ക്	-2022
ാഭ	-2023
ക്കുന്നത്	-2024
ിയിലേക്ക്	-2025
ച്ഛ	-2026
തിരായ	-2027
തിൽ	-2028
▁ഹെ	-2029
▁കസ്റ്റ	-2030
▁(3	-2031
▁എന്നത്	-2032
▁പ്രതികരണം	-2033
▁ചരി	-2034
ൃഷ്ട	-2035
▁താഴ	-2036
ിയായി	-2037
▁കൈമാ	-2038
▁ഉണ്ട്	-2039
▁സാഹചര	-2040
ാക്കാന്‍	-2041
▁21	-2042
▁എടുക്ക	-2043
ഗോ	-2044
ുന	-2045
▁മുന്നറിയ	-2046
▁ഓഫ്	-2047
ുവര	-2048
▁ആറ്	-2049
വരാണ്	-2050
▁സൗകര	-2051
മാരുടെ	-2052
▁അടക്കം	-2053
മുണ്ട്	-2054
▁ശു	-2055
ലില്‍	-2056
ക്കായി	-2057
ിക്കൊ	-2058
ലിന്റെ	-2059
▁ദുര	-2060
ുകളിലും	-2061
▁മലപ്പുറം	-2062
▁കീഴ	-2063
▁ഫ്ര	-2064
ാന്	-2065
▁പ്രൊ	-2066
▁പേരും	-2067
▁രാശിക്ക	-2068
രുത്	-2069
▁ലഭിക്കും	-2070
ുംബൈ	-2071
▁കുഞ്ഞ	-2072
രാജ	-2073
ട്ടു	-2074
ിക്കുകയ	-2075
▁സാഹചര്യത്തില്‍	-2076
ക്കേ	-2077
▁രാജ്യത്തെ	-2078
▁(1	-2079
ുകളെ	-2080
▁വികസന	-2081
▁അഭിന	-2082
മെന്റ്	-2083
▁നടപടിയ	-2084
▁സുഹൃ	-2085
,000	-2086
ീകരണ	-2087
വില	-2088
ിയോ	-2089
ൻസ്	-2090
▁സഖ്യ	-2091
േര	-2092
▁യുഎഇ	-2093
▁നിലപാട	-2094
▁അടിയ	-2095
▁വിമർശ	-2096
▁സോഷ്യല്‍	-2097
യോടെ	-2098
പ്പോഴ	-2099
▁കമ്പന	-2100
▁മുംബൈ	-2101
ിനെതിരെ	-2102
▁ബ്ല	-2103
ോഭ	-2104
െന്നായിരുന്നു	-2105
▁ആരാ	-2106
▁നിര്‍ദേശ	-2107
പോ	-2108
ത്തോളം	-2109
▁ആശുപത്രിയില്‍	-2110
ൃഷ്ണ	-2111
▁മുന്നോട്ട്	-2112
▁ചൊ	-2113
ുണ്ടായ	-2114
▁എല്‍ഡിഎ	-2115
നിര	-2116
▁വിജയം	-2117
യുമായി	-2118
▁മുസ്ലി	-2119
▁ഉള്‍പ്പെടെ	-2120
▁ജാമ	-2121
▁ചെറിയ	-2122
▁കണ്ടെത്തിയ	-2123
തൃ	-2124
▁വ്യക്തമാക്കിയ	-2125
സ്ര	-2126
പ്റ്റ	-2127
▁പരാമ	-2128
▁പേര്	-2129
▁സാമൂഹ	-2130
▁വസ്	-2131
▁കേരളം	-2132
▁റ്റ	-2133
▁നടത്തുന്ന	-2134
▁22	-2135
ൂരില്‍	-2136
െത്തിയ	-2137
വ്വ	-2138
▁വേഗ	-2139
ിപ്പ്	-2140
▁രൂക്ഷ	-2141
▁നേതാവ	-2142
തമായ	-2143
ുമായിരുന്നു	-2144
▁തെറ്റ	-2145
▁അനുമതി	-2146
▁സഹോദ	-2147
ല്‍പ്പ	-2148
ുമുള്ള	-2149
▁ഭൂരിപക്ഷ	-2150
▁വന്‍	-2151
ിക്കുകയാണ്	-2152
ക്ടർ	-2153
▁തുടർന്ന്	-2154
▁മുഹമ്മദ്	-2155
▁ചേര്‍ന്ന	-2156
▁പശ്ചാത്ത	-2157
▁വെളി	-2158
▁ശക്തി	-2159
▁ക്രി	-2160
ബ്ല	-2161
▁പ്രസ്ത	-2162
സ്റ്റര്‍	-2163
▁ബിജെപിയുടെ	-2164
യ്ക്കും	-2165
▁പോയി	-2166
▁എന്നിവര	-2167
▁ചന്ദ്ര	-2168
ുന്നില്ല	-2169
▁അത്ത	-2170
▁തുടര	-2171
ക്കുറിച്ച്	-2172
▁വരു	-2173
▁വായ	-2174
ുവരി	-2175
▁മുതി	-2176
▁നടത്തിയത്	-2177
▁ഫല	-2178
▁ഹാജ	-2179
▁സംസ്ഥാനത്തെ	-2180
ൗണ്ട	-2181
▁ഇക്കാര്യ	-2182
ാധിപ	-2183
▁പുല	-2184
▁ഒരിക്ക	-2185
▁ഉൾപ്പെടെ	-2186
▁പ്രവര്‍ത്തി	-2187
ൈന്‍	-2188
േണ്ടത്	-2189
▁പെണ്‍	-2190
▁സൃഷ്ട	-2191
ിക്കെതിരെ	-2192
▁വൈറസ്	-2193
എൽ	-2194
▁ക്യ	-2195
▁റിയ	-2196
ദ്ധി	-2197
▁വിഭാഗം	-2198
▁വിദ്യാഭ്യാസ	-2199
▁പതി	-2200
പ്പോഴും	-2201
ംസ	-2202
െച്ച	-2203
ോള്‍	-2204
▁ഉയർന്ന	-2205
ിക്കുന്നുണ്ട്	-2206
ണു	-2207
ോടും	-2208
▁മൃത	-2209
▁സിപിഎമ്മ	-2210
ൽക്ക	-2211
▁കില	-2212
ിച്ചും	-2213
▁ഹിന്ദ	-2214
▁പാർട്ട	-2215
▁23	-2216
▁എല്ലാം	-2217
▁വെച്ച്	-2218
▁സ്ത്രീ	-2219
▁ഒന്നും	-2220
ജ്ജ	-2221
▁ലീഗ്	-2222
െയില്‍	-2223
▁ആരോപണം	-2224
ത്തിനുള്ള	-2225
▁സെന്റ	-2226
▁ഉണ്ടായ	-2227
▁എംപി	-2228
▁പ്രോ	-2229
▁ബോധ	-2230
▁രാത്രി	-2231
ലോ	-2232
▁പ്രവർത്തക	-2233
▁ഇൻ	-2234
▁സോണ	-2235
തന്ത്ര	-2236
▁മാറ്റി	-2237
▁പശ്ചാത്തല	-2238
▁രാമ	-2239
▁ചെയ്യും	-2240
യുണ്ട്	-2241
▁ഇന്നലെ	-2242
▁അമ	-2243
▁പിടിച്ച	-2244
▁പൗര	-2245
വർക്ക്	-2246
▁സമ്പര്‍ക്ക	-2247
ഷൻ	-2248
▁ക്വാ	-2249
ുട്ട	-2250
▁അര്‍	-2251
തിനാല്‍	-2252
സ്ട്ര	-2253
▁പ്രസ്താവന	-2254
ശേഷ	-2255
റ്റര്‍	-2256
▁പ്രശ്ന	-2257
ോടൊപ്പം	-2258
ാടിയ	-2259
നിധ	-2260
▁എന്നതാണ്	-2261
▁തള്ള	-2262
▁ഇത്തര	-2263
രിച്ചത്	-2264
▁ആവശ്യപ്പെട്ടു	-2265
▁ഇന	-2266
▁കുറി	-2267
▁അക്രമ	-2268
▁തൃശൂര്‍	-2269
▁പുറത്തിറ	-2270
ിക്	-2271
▁വീട്ടില്‍	-2272
▁നോക്ക	-2273
ക്കാർ	-2274
▁വാർത്ത	-2275
മിന	-2276
തിയാണ്	-2277
▁ട്രം	-2278
▁മൃതദേഹ	-2279
തില	-2280
▁പഴ	-2281
▁ഇടുക്കി	-2282
▁എന്നായിരുന്നു	-2283
▁വേദ	-2284
▁മധ്യ	-2285
▁പ്രിയങ്ക	-2286
ബാധ	-2287
▁സഭ	-2288
▁കോളേജ	-2289
മത	-2290
▁ഭക്ഷ	-2291
▁പോസ്റ്റ	-2292
▁വിച	-2293
▁എന്ത്	-2294
േക്കുള്ള	-2295
▁തുടര്‍ന്ന	-2296
▁ചെന്നിത്ത	-2297
ീവ	-2298
വ്ര	-2299
▁ചെന്നിത്തല	-2300
കല	-2301
▁അവത	-2302
ില്ലാത്ത	-2303
സിയ	-2304
▁താല്‍	-2305
ണമെന്നാണ്	-2306
േറെ	-2307
▁അങ്ങനെ	-2308
▁എന്നിവിട	-2309
തായും	-2310
ോട്ടോ	-2311
▁ഹര്‍	-2312
▁മാറിയ	-2313
▁ആഘ	-2314
▁വിട	-2315
▁ബോസ്	-2316
ഷിക	-2317
ശ്വാസ	-2318
▁പുരു	-2319
▁മുരള	-2320
▁മറ്റു	-2321
പ്ല	-2322
രായ	-2323
▁എന്നെ	-2324
നത്തിന്	-2325
▁വല	-2326
▁സൈന	-2327
▁ഇന്ത്യൻ	-2328
ടിച്ച്	-2329
ിച്ചുവ	-2330
▁40	-2331
2,	-2332
▁ള	-2333
▁ആരാധ	-2334
▁ലഭിക്ക	-2335
മ്പ്	-2336
▁മുന്നില്‍	-2337
▁ജനറല്‍	-2338
▁ക്ഷ	-2339
▁സിന്‍	-2340
▁അറസ്റ്റ	-2341
▁(4	-2342
▁സംശയ	-2343
▁സ്വർ	-2344
▁കുമാര്‍	-2345
▁സ്വാധ	-2346
▁ഹൈക്കോടതി	-2347
▁ഊ	-2348
▁പെരു	-2349
▁ചടങ്ങ	-2350
▁പ്രഖ്യാപിച്ച	-2351
യർ	-2352
ുന്നുണ്ട	-2353
▁വ്യത്യ	-2354
▁ഇസ്ര	-2355
▁കടന്ന	-2356
ിട്ടുള്ള	-2357
▁യോഗം	-2358
ക്ടറ	-2359
ത്വം	-2360
▁നിക്ഷേപ	-2361
▁കമ്മിറ്റി	-2362
ിക്കുന്നതിന	-2363
▁പൂര്‍ത്തിയ	-2364
▁സംബന്ധിച്ച	-2365
▁പുറത്തു	-2366
ത്തേ	-2367
▁പ്രവർത്തന	-2368
ക്കുറ	-2369
ാക്കുന്ന	-2370
▁മോശ	-2371
▁മനസ്സില	-2372
്യന്തര	-2373
കരണ	-2374
▁ഗ്രൂപ്പ	-2375
▁റിപ്പോർട്ട	-2376
▁മണി	-2377
▁മൂല	-2378
ാബ്	-2379
ുപോക	-2380
▁തടയ	-2381
▁സമ്മേള	-2382
▁കിട്ടിയ	-2383
▁അമിത്	-2384
യു	-2385
▁ഇതേ	-2386
തമായി	-2387
▁നിങ്ങളുടെ	-2388
ലക്ഷ	-2389
▁മുസ്ലീ	-2390
▁ബീ	-2391
▁കേന്ദ്രം	-2392
1,	-2393
▁സമ്പർക്കം	-2394
▁നമു	-2395
റിൽ	-2396
▁ചീ	-2397
ൊന്ന	-2398
▁നില്‍ക്ക	-2399
ുകളില	-2400
▁മുസ്ലിം	-2401
▁ഡയറ	-2402
▁ഭാ	-2403
▁പരസ	-2404
4,	-2405
▁കാർ	-2406
തിയും	-2407
▁ഇതിന്റെ	-2408
▁മര	-2409
റ്റില്‍	-2410
▁കിട	-2411
▁യോഗ്യത	-2412
ീഷ്	-2413
▁വയനാട്	-2414
ടക	-2415
▁ഗുരുത	-2416
▁ആഭ്യന്തര	-2417
▁സൈനിക	-2418
സൂ	-2419
ംസ്	-2420
▁പഞ്ചായത്ത്	-2421
▁കൊലപാത	-2422
തെന്നാണ്	-2423
▁27	-2424
▁അതിന്റെ	-2425
സ്വ	-2426
ാലയ	-2427
മാന്‍	-2428
▁മാറി	-2429
19	-2430
▁പണ	-2431
▁കാലാവസ്ഥ	-2432
▁28	-2433
▁ഒരുപ	-2434
▁സൗദി	-2435
▁ഉള്ളത്	-2436
▁നടന്നത്	-2437
▁അര	-2438
ചന്ദ്ര	-2439
മന്ത്ര	-2440
▁രാജിവ	-2441
പ്രവര്‍	-2442
ിച്ചിരുന്ന	-2443
▁സ്ഥിരീകരിച്ചത്	-2444
▁പരിച	-2445
▁വന്നു	-2446
.3	-2447
ൊക്ക	-2448
▁ചികിത്സയില	-2449
▁പിന്‍	-2450
▁രണ്ടു	-2451
▁ലഭ്യമ	-2452
▁സൂര്യ	-2453
പ്പെട്ടിരുന്നു	-2454
ലിന്	-2455
▁വിദ്യാര്‍ത്ഥ	-2456
ര്‍ത്തി	-2457
സഭാ	-2458
നായി	-2459
ീകരിച്ച്	-2460
▁26	-2461
വീസ്	-2462
▁ചെയ്യാന്‍	-2463
ിയില	-2464
നോ	-2465
▁വൃ	-2466
▁എഴു	-2467
ീകരണം	-2468
ുപക്ഷ	-2469
▁തുടങ്ങി	-2470
രത്ത്	-2471
▁തോമസ്	-2472
▁പ്രചാരണ	-2473
▁നേതാക്കൾ	-2474
ദിന	-2475
ളും	-2476
▁ആന്റ	-2477
▁വെല്ല	-2478
ിക്കല്‍	-2479
▁ഇവരുടെ	-2480
ിക്കാനും	-2481
▁ജില്ലകള	-2482
▁നിർദ്ദേശ	-2483
▁ലഭിച്ചത്	-2484
ോസ്	-2485
ുകാര്‍	-2486
▁പറഞ്ഞ്	-2487
▁ഉച്ച	-2488
മാണെന്ന്	-2489
▁ഡോള	-2490
രുമായി	-2491
ാണെന്ന	-2492
ക്കുള്ള	-2493
▁കെട്ടി	-2494
ീധ	-2495
▁ദുബ	-2496
▁അവസ്ഥ	-2497
▁വിദ്യാർത്ഥ	-2498
ബർ	-2499
▁ജനാധിപ	-2500
നില	-2501
▁സന്ദര്‍ശ	-2502
▁ചിത്രം	-2503
▁സജീവ	-2504
▁ഇപ്പോഴും	-2505
▁ശേഷമാണ്	-2506
▁ശമ്പ	-2507
▁താരം	-2508
3,	-2509
▁പൊത	-2510
▁വർഷം	-2511
ദ്യോഗിക	-2512
▁വ്യാജ	-2513
▁കൂടെ	-2514
ആർ	-2515
ല്‍ക്ക	-2516
സോ	-2517
ദ്ഘ	-2518
ാവധി	-2519
▁ആക്രമണ	-2520
▁മഹാരാഷ്ട്ര	-2521
▁ഹോ	-2522
▁ദൃശ്യ	-2523
▁വിരുദ്ധ	-2524
മാരെ	-2525
▁വർധ	-2526
▁നിരക്ക്	-2527
ശി	-2528
സ്പി	-2529
ുകള്‍ക്ക്	-2530
▁അടക്കമുള്ള	-2531
ത്താവ	-2532
▁കേന്ദ്രസ	-2533
▁വാക്ക	-2534
.5	-2535
▁കേരളത്തിൽ	-2536
▁ആഗ	-2537
▁ഭയ	-2538
▁ഇന്റ	-2539
▁തുറന്ന	-2540
▁വന്നത്	-2541
സു	-2542
▁ആവശ്യമ	-2543
ിപ്പിച്ച	-2544
▁യി	-2545
▁നടി	-2546
▁അവരെ	-2547
▁ലക്ഷ്യമ	-2548
ർത്ഥ	-2549
▁ദേവ	-2550
▁മാർ	-2551
▁ചരിത്ര	-2552
▁ജോസ്	-2553
ികൾക്ക്	-2554
▁നോട്ട	-2555
▁കൊടുക്ക	-2556
▁തീവ്ര	-2557
▁സഞ്ച	-2558
ങ്കിലും	-2559
▁ക്രമ	-2560
▁ഉണ്ടാവ	-2561
▁നേരിട്ട്	-2562
▁കോണ്‍ഗ്രസിന്	-2563
▁ഒര	-2564
▁നായ	-2565
▁രമേ	-2566
ല്‍ഹി	-2567
ുണ്ടായിരുന്നു	-2568
ഫോ	-2569
ിനു	-2570
▁പേരെ	-2571
▁സ്വയം	-2572
▁ഇന്ത്യയുടെ	-2573
പ്രതി	-2574
▁ഇള	-2575
▁ഡ്രൈ	-2576
▁ജാഗ്ര	-2577
ടുവ	-2578
▁തിരി	-2579
▁വരുമാന	-2580
▁എല്ലാവരും	-2581
5,	-2582
▁കള്ള	-2583
▁സതീ	-2584
രുന്ന്	-2585
▁നിര്‍മ്മ	-2586
▁പട	-2587
▁പാട	-2588
ൈസ	-2589
ികളാണ്	-2590
▁നിന്നാണ്	-2591
▁കണ	-2592
▁പ്രശ	-2593
▁സര്‍ക്കാരിന്റെ	-2594
▁സമര്‍പ്പ	-2595
ഗ്ദ	-2596
▁നല്‍കിയത്	-2597
▁1,	-2598
ട്ടിഫ	-2599
▁പെട്ട	-2600
ിക്കപ്പെട്ട	-2601
▁ഇവരെ	-2602
▁പോസി	-2603
▁പോസ്റ്റ്	-2604
▁ഞെ	-2605
▁വിപ	-2606
ായേ	-2607
ീക്ക	-2608
▁കണ്‍	-2609
▁ദുരന്ത	-2610
▁ആവശ്യപ്പെട്ട	-2611
ങ്ങനെയ	-2612
▁മദ്യ	-2613
പ്പെടുന്നു	-2614
▁സാധിക്കും	-2615
മം	-2616
റോ	-2617
ദ്ഘാട	-2618
▁കെപി	-2619
▁ഇനിയും	-2620
▁ഗോപ	-2621
ുകൊണ്ടാണ്	-2622
▁ഔദ്യോഗിക	-2623
▁അബ്ദ	-2624
ാലോ	-2625
▁സീസ	-2626
ങ്ങനെയാണ്	-2627
▁സമിതി	-2628
▁ജയില	-2629
ില്ലെന്ന	-2630
സൈ	-2631
▁ഗുരുതര	-2632
▁വീണ	-2633
വെന്ന്	-2634
ശ്ശേരി	-2635
കുട്ടി	-2636
▁ഉമ്മന്‍	-2637
▁ഫോണ	-2638
▁ചാണ്ട	-2639
▁പ്രമുഖ	-2640
ഡില്‍	-2641
ത്തോട്	-2642
▁തെളിയ	-2643
▁മുരളീധ	-2644
▁വെല്ലുവി	-2645
ഘടന	-2646
▁കാലത്ത്	-2647
▁ഏഴ്	-2648
▁സഭാ	-2649
ുവിന്റെ	-2650
▁പരിക്ക	-2651
▁ലോക്ക്	-2652
▁വിമാനത്താവ	-2653
മാരും	-2654
▁മെയ്	-2655
ിക്കറ്റ	-2656
▁ബിജെപിക്ക്	-2657
▁നികു	-2658
സരിച്ച്	-2659
▁കോണ്‍ഗ്രസിന്റെ	-2660
മെന്റ	-2661
▁സംരക്ഷ	-2662
ാൾ	-2663
▁രൂപയാണ്	-2664
▁(5	-2665
▁ജൂല	-2666
▁ഏപ്ര	-2667
ാനാവ	-2668
▁ഇയാള്‍	-2669
▁ലക്ഷ്യം	-2670
ീര	-2671
▁ചാന	-2672
▁ലീഗ	-2673
▁ഇടതുപക്ഷ	-2674
നേ	-2675
വിന്	-2676
▁ലം	-2677
▁ദി	-2678
ക്കട	-2679
▁സ്വര്‍ണ	-2680
ത്താണ്	-2681
▁സെക്രട്ടറിയ	-2682
ികെ	-2683
ണായക	-2684
▁ആരും	-2685
▁ബിസിന	-2686
ളു	-2687
്രാ	-2688
▁സംസാ	-2689
ക്കാണ്	-2690
▁ബുദ്ധി	-2691
▁മൂന്നാം	-2692
കൊ	-2693
വാസം	-2694
▁ജോസഫ്	-2695
▁ഉദ്ഘാട	-2696
▁തങ്ങളുടെ	-2697
ിലി	-2698
ുതി	-2699
ഞ്ജ	-2700
▁ഇഷ്ട	-2701
▁നിശ്ച	-2702
ികളില്‍	-2703
▁പ്രതിഷേധം	-2704
രാമ	-2705
ികൂ	-2706
▁പങ്കെടുക്ക	-2707
▁വഹ	-2708
▁2019	-2709
ര്‍ത്തു	-2710
ൽപ്പ	-2711
▁സൂച	-2712
▁ഉന്നത	-2713
▁ഇസ്രായേ	-2714
▁എത്തിയത്	-2715
▁വേണം	-2716
▁കണ്ണൂർ	-2717
ിച്ചുള്ള	-2718
ിക്കുമെന്ന്	-2719
ൂരി	-2720
വന്‍	-2721
▁ഗുജ	-2722
ചി	-2723
ാനെ	-2724
▁തുടങ്ങ	-2725
▁നിലവിൽ	-2726
ര്‍ത്തിയ	-2727
▁ജനാധിപത്യ	-2728
സിലെ	-2729
പരമായ	-2730
ിള	-2731
▁മനോ	-2732
ംഗം	-2733
ത്തിനെ	-2734
▁രാഹുൽ	-2735
രിക്കാന്‍	-2736
▁കേസിൽ	-2737
ാസ്ത്ര	-2738
▁സാക്ഷ	-2739
▁ഒന്നാം	-2740
▁പകരം	-2741
ബുക്ക്	-2742
6,	-2743
▁അഴി	-2744
▁മാറ്റിയ	-2745
▁ആരോപിച്ചു	-2746
കള്‍ക്ക്	-2747
ത്യം	-2748
റ്റം	-2749
▁യാത	-2750
▁സമു	-2751
▁വൈദ്യ	-2752
▁ഉണ്ടായിരുന്നു	-2753
▁സമ്മാന	-2754
▁പേരില്‍	-2755
ഖ്യ	-2756
▁പറയുന്ന	-2757
▁മെഡിക്കൽ	-2758
▁യഥ	-2759
ത്തിനു	-2760
▁സ്ഥിതി	-2761
രൻ	-2762
ിയ്	-2763
▁ഒഴിവാക്ക	-2764
▁റാ	-2765
ണര്‍	-2766
ബുക്ക	-2767
▁സ്ഥാനം	-2768
▁മമത	-2769
8,	-2770
ാമത്തെ	-2771
കരമായ	-2772
▁മുന്നറിയിപ്പ്	-2773
രുവ	-2774
▁നേടി	-2775
ിനുള്ള	-2776
▁പ്രവർത്തി	-2777
▁പുരോഗ	-2778
▁കുറച്ച്	-2779
▁നിര്‍ദ്ദേശ	-2780
▁റൂ	-2781
▁നൽകി	-2782
ബൈ	-2783
▁ഭീഷണി	-2784
▁സംഘടിപ്പ	-2785
ശ്മ	-2786
▁ഗുജറാ	-2787
▁ബാങ്ക	-2788
▁നടക്കുന്നത്	-2789
▁നിയമം	-2790
▁കഥ	-2791
▁ശരിയ	-2792
▁എട്ട്	-2793
▁രമേശ്	-2794
▁മാറ്റം	-2795
▁ഉത്തരവാദ	-2796
▁ജീവനക്കാര	-2797
വരില്‍	-2798
▁ലംഘ	-2799
▁അവസരം	-2800
▁യുദ്ധ	-2801
▁സന്തോഷ	-2802
▁ഞങ്ങള്‍	-2803
▁പെൺ	-2804
ുടേയും	-2805
▁തിരഞ്ഞെടുപ്പിൽ	-2806
▁തസ്	-2807
▁പ്രവച	-2808
▁അധ്യക്ഷന്‍	-2809
ഗോപ	-2810
▁പോവ	-2811
ഗോഡ്	-2812
വിട്ട	-2813
▁വയസ്സ	-2814
▁മുസ്ലീം	-2815
▁വിശ്വാസ	-2816
പിച്ച്	-2817
▁ശ്രമം	-2818
▁വാക്സി	-2819
െടുത്തി	-2820
▁പിടികൂ	-2821
ത്തിനെതിരെ	-2822
ർത്തി	-2823
▁പത്ത്	-2824
▁ഇദ്ദേഹ	-2825
കളാണ്	-2826
▁കനത്ത	-2827
▁കൃഷ്ണ	-2828
▁ജോര്‍ജ്	-2829
▁ഭേദ	-2830
▁അഭിമുഖ	-2831
ിച്ചാല്‍	-2832
▁മണ്ഡലം	-2833
ില്ലെന്നാണ്	-2834
ീന്‍	-2835
▁തീയ	-2836
▁സിന	-2837
▁കൊച്ച	-2838
▁വധ	-2839
▁ക്ഷേത്ര	-2840
ന്നെ	-2841
കര്‍	-2842
▁സോണിയ	-2843
▁കാസര്‍	-2844
ര്‍ക്കാണ്	-2845
▁ഏത്	-2846
▁പിസി	-2847
▁വീതം	-2848
ിക്കുന്നതിന്	-2849
▁ആഘോഷ	-2850
▁ക്രൈ	-2851
ാക്കും	-2852
റ്റർ	-2853
▁ഉടമ	-2854
▁സാഹചര്യം	-2855
▁അതില്‍	-2856
▁വരുന്നത്	-2857
ടക്കം	-2858
ട്ടാണ്	-2859
▁യുഎസ്	-2860
▁ആലോ	-2861
▁നിരോധ	-2862
▁100	-2863
▁ഇയാള	-2864
െടുത്തത്	-2865
▁എന്താണ്	-2866
നിക്ക	-2867
▁വരിക	-2868
▁രൂപയുടെ	-2869
▁ചെയ്യുന്നു	-2870
്യോ	-2871
▁31	-2872
▁താൻ	-2873
▁പോളി	-2874
ല്ലേ	-2875
!!	-2876
▁മരണം	-2877
ുമായുള്ള	-2878
വുമ	-2879
ര്‍ഷ	-2880
▁ബന്ധം	-2881
▁കൂടുതല	-2882
▁നമുക്ക്	-2883
▁കൂടിയാണ്	-2884
ന്‍സ	-2885
▁സൂക്ഷ	-2886
▁ഫേസ്ബുക്ക	-2887
▁ഫേസ്ബുക്ക്	-2888
ഫി	-2889
▁ജല	-2890
▁തട്ടി	-2891
മാണെന്നും	-2892
▁രീതിയില്‍	-2893
▁ചോദിച്ചു	-2894
ിച്ചിട്ടില്ല	-2895
7,	-2896
9,	-2897
▁മട	-2898
▁യെ	-2899
▁യാതൊരു	-2900
▁സതീശ	-2901
▁അധ്യാപ	-2902
രുദ	-2903
ങ്ങ്	-2904
ിയുമായി	-2905
▁പേരുടെ	-2906
▁അഴിമ	-2907
ള്‍ക്ക്	-2908
▁നടത്തുന്നത്	-2909
സാ	-2910
▁രോഗമു	-2911
▁ചെയ്തിട്ടുണ്ട്	-2912
▁മനസില	-2913
ക്കാന്‍	-2914
▁സ്ഥാനാര്‍ത്ഥി	-2915
നാട്ട	-2916
▁കുറവ	-2917
▁വിശ്വസ	-2918
നിൽ	-2919
▁ബജ	-2920
ാലയം	-2921
▁വിതരണം	-2922
▁കൊടുത്ത	-2923
▁ഹൗ	-2924
▁കൂള	-2925
▁വിന	-2926
േണ്ടത	-2927
▁സമരം	-2928
▁പലരും	-2929
▁പിന്നാലെയാണ്	-2930
▁ലോട്ട	-2931
▁ബുധ	-2932
▁തിയ	-2933
▁അവസര	-2934
▁പതിന	-2935
▁വീട്	-2936
▁കാത്തി	-2937
നാഥ്	-2938
▁ജാഗ്രത	-2939
▁അവതരിപ്പ	-2940
▁വിവരങ്ങള്‍	-2941
▁ക്ക	-2942
▁പാക	-2943
▁ഒട്ട	-2944
▁ഒന്ന്	-2945
▁മുതല	-2946
▁പരിപാടിയ	-2947
▁സമാന	-2948
▁വോ	-2949
▁ഏര്‍	-2950
▁ഹോട്ട	-2951
▁കോടതിയില്‍	-2952
▁സ്ഥിരീകരിച്ചു	-2953
റന്റ	-2954
▁മേഖലയില്‍	-2955
ങ്ങളായി	-2956
ങ്ങളോട്	-2957
മാക്കിയ	-2958
▁എങ്ങനെ	-2959
▁ദിലീപ്	-2960
▁സിറ്റി	-2961
നത്തില്‍	-2962
▁യോഗത്തില്‍	-2963
ാക്	-2964
ടുള്ള	-2965
▁ശിക്ഷ	-2966
▁തന്നെയ	-2967
▁ടോ	-2968
പ്പറ	-2969
▁ഇവർ	-2970
▁മാതൃ	-2971
▁വ്യക്	-2972
▁നേരിട്ട	-2973
▁മുഴുവന്‍	-2974
▁ആറ	-2975
െടുത്ത്	-2976
▁വിവാഹം	-2977
▁അംബ	-2978
ികളായ	-2979
▁നന്ദ	-2980
തിനിടെ	-2981
▁കാഴ്ച	-2982
▁സ്വാത	-2983
▁നല്‍കുന്ന	-2984
0,	-2985
എന്‍	-2986
ത്തിനിടെ	-2987
▁ഗൂ	-2988
▁മണ്ഡലത്തില്‍	-2989
▁മേധ	-2990
ുപോലെ	-2991
▁പ്രസിഡന്റ	-2992
▁പാര്‍ട്ടിയ	-2993
സേന	-2994
ാക്കുന്നത്	-2995
▁വനിതാ	-2996
▁കേസിലെ	-2997
▁കര്‍ണാടക	-2998
▁പരാമര്‍ശ	-2999
ലാ	-3000
ഹരി	-3001
ാക്കാൻ	-3002
ിക്കാണ	-3003
▁സുരക്ഷാ	-3004
▁തിരിച്ചടിയ	-3005
ങ്ങിയത്	-3006
▁യൂത്ത്	-3007
വകു	-3008
▁അദ്ദേഹത്തെ	-3009
▁ശേഖ	-3010
▁നാളെ	-3011
ുന്നതും	-3012
▁തസ്തിക	-3013
▁ഒരുപാട്	-3014
▁ക്യാമ്പ	-3015
▁പിഴ	-3016
ത്തം	-3017
▁മെന്റ്	-3018
ഭാവ	-3019
പ്പെടുത്തിയത്	-3020
ജൻ	-3021
▁രു	-3022
▁സിപിഐ	-3023
▁ഇപ്പോഴ	-3024
▁തുക	-3025
▁ഞങ്ങൾ	-3026
▁ബിരുദ	-3027
▁വിജയ്	-3028
▁35	-3029
▁ഗവര്‍	-3030
▁കൊണ്ടാണ്	-3031
▁ബുദ്ധിമു	-3032
▁ഒരിക്കലും	-3033
ിനോട്	-3034
▁നേരെ	-3035
ാണെങ്കില്‍	-3036
ദേശിക	-3037
ന്ധ്യ	-3038
ുന്നതെന്നും	-3039
ായം	-3040
▁അമ്പ	-3041
▁സ്വാതന്ത്ര	-3042
ിമ	-3043
തോടെയാണ്	-3044
േറിയ	-3045
പ്പിൽ	-3046
▁മക്ക	-3047
ൂരിലെ	-3048
▁ഡിസം	-3049
▁തിരുവ	-3050
ിക്കാനാണ്	-3051
ത്തിയിരുന്നു	-3052
പിട	-3053
രമൊരു	-3054
▁കാര്യമ	-3055
▁എന്	-3056
ായാണ്	-3057
ത്തിന്‍റെ	-3058
▁വിമാനത്താവള	-3059
ഡോ	-3060
▁ഡോസ്	-3061
▁നിര്‍ദേശം	-3062
ൊഴ	-3063
▁അശ	-3064
▁ബഹ	-3065
▁നടപ്പില	-3066
▁പ്രാദേശിക	-3067
രാജ്	-3068
▁രാജ്	-3069
▁പൂര്‍ണ	-3070
മിക	-3071
ല്‍സ	-3072
ിംഗ്	-3073
▁റോഡ	-3074
▁ഒപ്പം	-3075
▁റദ്ദ	-3076
ംപ	-3077
ണയ	-3078
നിട	-3079
്മി	-3080
▁ഒടു	-3081
▁കരാ	-3082
▁ചീഫ്	-3083
▁എത്തിക്ക	-3084
▁നികുതി	-3085
▁സംഭവത്തില്‍	-3086
ഹത്യ	-3087
▁ഉപയോഗിച്ച്	-3088
ായാലും	-3089
▁അഭിഭാ	-3090
▁നിർമ്മ	-3091
തെ	-3092
▁ഷി	-3093
▁അച്ഛ	-3094
▁അത്ര	-3095
▁അതിനിടെ	-3096
▁ഗ്രൂപ്പ്	-3097
ുമു	-3098
▁നേതൃത്വത്തില്‍	-3099
▁രോ	-3100
▁ശബ	-3101
▁വസ്തു	-3102
▁വാഗ്ദ	-3103
ാണെന്നാണ്	-3104
▁0	-3105
വസ്ഥ	-3106
▁ന്ന	-3107
ിച്ചില്ല	-3108
▁കൊലപാതക	-3109
▁എംഎൽ	-3110
▁റോഡ്	-3111
ുണ്ടെന്നും	-3112
▁സര്‍ക്കാര	-3113
▁കാര്യത്തില്‍	-3114
▁ർ	-3115
സ്സ്	-3116
ായിക	-3117
ർത്തു	-3118
▁യുവതി	-3119
▁സഹായം	-3120
▁കഴിഞ്ഞു	-3121
▁ഇല	-3122
ഘട്ട	-3123
▁പ്രവാസ	-3124
▁ഇത്രയും	-3125
▁സൗകര്യ	-3126
▁വിഷയത്തില്‍	-3127
ീർ	-3128
▁നിലവിലെ	-3129
ഹസ	-3130
കോട	-3131
▁ഉദ	-3132
റ്റീവ്	-3133
▁സീറ്റുകള്‍	-3134
▁പ്രചാര	-3135
പാട	-3136
ലിൽ	-3137
▁കർഷക	-3138
▁ട്വി	-3139
▁എന്നിവരാണ്	-3140
▁ലഭിക്കുന്ന	-3141
▁ടെക്	-3142
പിന്റെ	-3143
▁സ്വതന്ത്ര	-3144
▁അണ	-3145
▁ടീമ	-3146
▁താല	-3147
ർട്ട്	-3148
▁പൂർത്തിയ	-3149
▁തൃണമ	-3150
▁ഓഫീസര്‍	-3151
▁കഴിയുന്ന	-3152
▁ജില്ലയിൽ	-3153
േബ	-3154
ങ്ങളുമായി	-3155
▁കാര്യങ്ങൾ	-3156
▁നിങ്ങള്‍	-3157
ാശാല	-3158
';	-3159
ഗീയ	-3160
സിക്യ	-3161
▁പ്രകട	-3162
▁വിദഗ്	-3163
▁അടിയന്തര	-3164
▁പ്രവേശിപ്പ	-3165
▁ഫാ	-3166
▁മത്സരിച്ച	-3167
ലാണ്	-3168
▁അംഗീകരിക്ക	-3169
▁ഇന്ത്യയില്‍	-3170
ളൂ	-3171
▁സംസ്	-3172
ിയുള്ള	-3173
ഗതി	-3174
▁ടൂ	-3175
▁ചെലവ	-3176
▁എംഎൽഎ	-3177
▁ഫോണ്‍	-3178
▁വിധി	-3179
▁ബാങ്ക്	-3180
ത്തിലായിരുന്നു	-3181
ഹിത	-3182
ങ്കള	-3183
▁ഇന്ത്യയിലെ	-3184
▁29	-3185
▁സിദ്ദ	-3186
▁പഴയ	-3187
▁സേന	-3188
ത്രിക	-3189
ിക്കു	-3190
▁ചൂണ്ടിക്കാണ	-3191
▁ജൂലൈ	-3192
▁തേടിയ	-3193
▁കോളേജ്	-3194
▁പെണ്‍കുട്ട	-3195
▁ഇടി	-3196
▁സിംഗ	-3197
▁നടപടികള്‍	-3198
ിക്കുമെന്നും	-3199
സെ	-3200
▁വിസ	-3201
ംബര്‍	-3202
▁അഭ്യ	-3203
▁എതിര	-3204
▁ഭരണം	-3205
▁ഉണ്ടായിരുന്ന	-3206
',	-3207
▁ചല	-3208
ശ്വര	-3209
യിട	-3210
ോറി	-3211
▁ട്വീ	-3212
ുകളിലെ	-3213
▁ജൂണ്‍	-3214
കുമാര്‍	-3215
▁പരിശീല	-3216
▁മാണി	-3217
▁നഗരസഭ	-3218
▁പുറത്തുവന്ന	-3219
▁60	-3220
ീല്‍	-3221
െയിൽ	-3222
▁ക്ഷണ	-3223
▁പാകി	-3224
▁ഇതിനിടെ	-3225
ക്കിട	-3226
ന്‍ഡ്	-3227
▁രീതിയ	-3228
▁തുടക്ക	-3229
▁കമ്മിറ്റ	-3230
▁കയ്യ	-3231
▁തെരഞ്ഞെടുപ്പ്	-3232
ാർഥ	-3233
ർമ്മ	-3234
ുണ്ടാക	-3235
ോമീ	-3236
ാനായി	-3237
കലാശാല	-3238
▁നിലനി	-3239
▁കെപിസിസി	-3240
▁യാദ	-3241
തിനാൽ	-3242
ത്തെയും	-3243
▁മൃതദേഹം	-3244
▁അടുത്തി	-3245
▁കേസുകള്‍	-3246
▁ജനങ്ങള്‍	-3247
▁നിലയില്‍	-3248
▁പാർട്ടിയ	-3249
▁തമ്മിലുള്ള	-3250
രാശ	-3251
▁45	-3252
▁ര്‍	-3253
▁റണ്‍	-3254
▁ഫെബ്ര	-3255
▁വ്യവസ	-3256
▁പാര്‍ല	-3257
▁അഭിഭാഷക	-3258
ഫ്ര	-3259
▁പിന്നെ	-3260
▁രോഗബാധ	-3261
ട്ടുണ്ട്	-3262
▁സാഹചര്യത്തിൽ	-3263
▁നിമി	-3264
▁ചെന്നൈ	-3265
▁കൂടിക്ക	-3266
ിരിക്കുന്നു	-3267
ുണ്ടായിരുന്ന	-3268
▁സ്വാധീന	-3269
▁പ്രധാനമന്ത്ര	-3270
▁തന്ത്ര	-3271
▁ആക്രമണം	-3272
▁രാജ്യം	-3273
▁ചൂണ്ടിക്കാട്ടി	-3274
േക്കാള്‍	-3275
▁അവസാനിപ്പ	-3276
രിക്കുകയാണ്	-3277
ന്‍ഡ	-3278
പുരം	-3279
ാരായ	-3280
കൃഷ്ണ	-3281
പ്പര്‍	-3282
▁കല്ല	-3283
▁സ്കൂ	-3284
▁കൂടിക്കാഴ്ച	-3285
▁ത്തി	-3286
▁ദുരി	-3287
ുന്നതെന്ന്	-3288
ുധ	-3289
▁പേരിൽ	-3290
ത്തുക്ക	-3291
▁ഇല്ലാത	-3292
▁റില	-3293
ുകൾക്ക്	-3294
▁ചെയ്യാൻ	-3295
▁അസി	-3296
▁സന്	-3297
▁ഖത്ത	-3298
▁ബ്രിട്ട	-3299
▁സംവിധാനം	-3300
രാക	-3301
▁അന്ന	-3302
▁നിങ്ങൾ	-3303
താഗ	-3304
സിക	-3305
▁ഫിറ	-3306
▁അപ്ര	-3307
▁വാദം	-3308
▁വ്യാപക	-3309
▁മുല്ല	-3310
▁ആളുകള്‍	-3311
തിരഞ്ഞെടു	-3312
▁ഗണ	-3313
ിയോടെ	-3314
▁വ്യാഴ	-3315
▁കിലോമീ	-3316
▁പ്രവര്‍ത്തിക്ക	-3317
▁പ്രവര്‍ത്തകര്‍	-3318
വറ	-3319
ുകൂ	-3320
▁സേവന	-3321
▁കൊണ്ടുവ	-3322
ഭരണ	-3323
ദ്വീ	-3324
▁ബന്ധുക്ക	-3325
▁യോ	-3326
▁ധാരണ	-3327
▁സമാധ	-3328
▁പെട്ര	-3329
▁മോഹന്‍	-3330
ിക്ക്	-3331
▁അഖില	-3332
പ്പോഴാണ്	-3333
ുണ്ടായി	-3334
▁വിചാരണ	-3335
ുണ്ടെന്ന്	-3336
ിലായിരുന്നു	-3337
ിട്ടുണ്ടെന്നും	-3338
▁ഡൽ	-3339
മാക്കി	-3340
▁ടിക്കറ്റ്	-3341
▁അദ്ദേഹത്തിന്	-3342
▁അധികം	-3343
ിലെത്തി	-3344
▁റെയില്‍	-3345
ക്കര	-3346
ലങ്ക	-3347
▁പരമ	-3348
ക്കുമ	-3349
▁ഓണ്‍	-3350
▁സാമൂഹിക	-3351
ാനാക	-3352
ൂരിൽ	-3353
▁മൊഴി	-3354
▁ശബ്ദ	-3355
▁2021	-3356
▁വിധേയ	-3357
െടുത്തു	-3358
ക്കാരുടെ	-3359
നവും	-3360
▁പെരുമാ	-3361
▁തമ്മില്‍	-3362
▁എന്നിവര്‍	-3363
▁പള്ള	-3364
▁പൊലി	-3365
▁വിഷയം	-3366
ര്‍ട്ട്	-3367
ാര്‍ക്ക്	-3368
യള	-3369
▁ഷെ	-3370
▁യുക്ര	-3371
പ്പെടും	-3372
▁പ്രകടിപ്പ	-3373
▁ബസ്	-3374
▁സാമ്പിള	-3375
▁കുറിച്ചു	-3376
▁പ്രതിനിധ	-3377
▁നശ	-3378
▁അഡ്	-3379
....	-3380
കളിലും	-3381
▁തിരികെ	-3382
▁വീട്ടിൽ	-3383
ൃദ	-3384
ൗൺ	-3385
▁ചേർന്ന	-3386
▁ഹിന്ദു	-3387
▁ഉണ്ടാകും	-3388
മായിരിക്കും	-3389
▁(6	-3390
▁അർ	-3391
▁ഗവ	-3392
ില്യ	-3393
▁ഞായ	-3394
ില്ലാതെ	-3395
▁ശ്രമിച്ച	-3396
ായില്ല	-3397
▁കുഴ	-3398
▁ശബരി	-3399
മെന്ന്	-3400
▁പോകുന്ന	-3401
▁ആവശ്യപ്പെട്ട്	-3402
▁കോണ്‍ഗ്രസില്‍	-3403
▁നീണ്ട	-3404
നങ്ങള്‍	-3405
▁പ്രതികരിച്ചു	-3406
ർമ	-3407
▁അഫ്	-3408
▁ഗുണ	-3409
▁ഒരുമ	-3410
▁മരിച്ചത്	-3411
▁പേര്‍ക്കും	-3412
▁മുക	-3413
ഡിന്റെ	-3414
പ്രദേശ്	-3415
▁പരിപാട	-3416
ിക്കണമെന്ന്	-3417
▁അവര	-3418
ോക്ക്	-3419
റുകള്‍	-3420
▁ജാമ്യം	-3421
▁വോട്ടുകള്‍	-3422
ിക്കാത്ത	-3423
▁മീഡിയയില്‍	-3424
▁അല്‍	-3425
▁ആഴ്ച	-3426
▁ന്യൂന	-3427
▁സന്ദർശ	-3428
▁സമർപ്പ	-3429
▁അന്താരാഷ്ട്ര	-3430
▁ചൗ	-3431
വിന്റെ	-3432
▁അയച്ച	-3433
▁സൂചിപ്പ	-3434
തിയായ	-3435
▁ഭരണകൂ	-3436
▁സ്ഥാനാര്‍ഥ	-3437
▁ജസ്റ്റി	-3438
▁അഡ	-3439
▁എവിടെ	-3440
▁തിങ്കള	-3441
ോഗ്യ	-3442
▁സജ്ജ	-3443
▁ഇതിനെ	-3444
്യമുള്ള	-3445
▁ജീവിതം	-3446
▁അജ	-3447
ക്ടോ	-3448
ാന്ത്	-3449
ര്‍മ്മ	-3450
▁കൗണ്‍	-3451
▁നെഗ	-3452
▁പ്രമേ	-3453
▁ക്വാറന്റ	-3454
പറ	-3455
പ്രവർ	-3456
▁ഒപ്പ	-3457
▁അംഗീക	-3458
▁കണ്ടു	-3459
▁മാനേജ	-3460
ിക്കൊണ്ട	-3461
▁വട	-3462
▁പാസ	-3463
ര്‍ശന	-3464
▁ബാബു	-3465
▁2016	-3466
▁ഹാജര	-3467
▁നിരക്ക	-3468
▁പോരാട്ട	-3469
നിന്ന്	-3470
േക്കാണ്	-3471
ത്തിൻ്റെ	-3472
.4	-3473
▁തീര	-3474
▁ടൂറി	-3475
്യൂട്ടി	-3476
ിച്ചിരിക്കുകയാണ്	-3477
▁ഇതിൽ	-3478
▁കശ്മ	-3479
▁മണ്ണ	-3480
▁പക്ഷെ	-3481
▁പ്പ	-3482
▁മാര്‍ച്ച്	-3483
രുട	-3484
ാകെ	-3485
▁ജ്യോ	-3486
▁വൈസ്	-3487
▁കേട്ട	-3488
▁സംവിധ	-3489
▁ശോഭ	-3490
▁എയര്‍	-3491
▁വില്‍	-3492
▁വാക്സിന	-3493
പ്രവര്‍ത്തക	-3494
▁വെളിപ്പെടുത്ത	-3495
ലൂടെ	-3496
ീകര	-3497
▁2,	-3498
▁എതിരെ	-3499
▁കാട്ട	-3500
▁സുരേന്ദ്രന്‍	-3501
▁കോര്‍പ്പ	-3502
▁മന്ത്രിസഭ	-3503
▁നം	-3504
▁ബൂ	-3505
▁രി	-3506
ശങ്ക	-3507
ുവിനെ	-3508
ിന്ന	-3509
▁കണ്ട്	-3510
ബിഐ	-3511
ുകാർ	-3512
▁പിന്‍വല	-3513
യിലൂടെ	-3514
ാറിന്റെ	-3515
തായിരുന്നു	-3516
േത്	-3517
്മെ	-3518
▁മൈ	-3519
▁വനിത	-3520
▁ഉടന്‍	-3521
ാമെന്ന്	-3522
▁അവി	-3523
▁ഭാഷ	-3524
▁മല്‍സ	-3525
▁സിന്ധ്യ	-3526
▁നടത്തിയിരുന്നു	-3527
▁നാട	-3528
▁ട്രെയ	-3529
▁വിദഗ്ധ	-3530
▁അടുത്തിടെ	-3531
▁കോര്‍പ്പറ	-3532
▁വെല്ലുവിള	-3533
▁തേട	-3534
▁വെബ്	-3535
▁ഇരുവരും	-3536
▁മറ്റുള്ള	-3537
▁പോകുന്നത്	-3538
▁ഏതെങ്കിലും	-3539
▁മൊബൈ	-3540
▁പരിചയ	-3541
▁ജനുവരി	-3542
ുപേ	-3543
ര്‍ഡ്	-3544
▁ഒരാള്‍	-3545
പിത	-3546
▁മുതിര്‍ന്ന	-3547
.1	-3548
മന	-3549
ടനാ	-3550
▁നൂ	-3551
ുപോയ	-3552
▁ആലോച	-3553
▁തര്‍ക്ക	-3554
▁സ്വദേശിയായ	-3555
കർ	-3556
▁ടു	-3557
▁കുറയ	-3558
▁ഡിജി	-3559
▁നിഷേധ	-3560
▁സച്ചി	-3561
▁നേതാവി	-3562
▁പേർക്ക്	-3563
▁ഉദ്ഘാടനം	-3564
▁സ്വപ്ന	-3565
ദായ	-3566
▁ചെറ	-3567
ിയിലും	-3568
▁ഡോക്ടര്‍	-3569
ിക്കണമെന്നും	-3570
▁ജോല	-3571
ക്ഷിണ	-3572
▁താലി	-3573
▁വിജയന്‍	-3574
ുകയാണെന്നും	-3575
▁കാന	-3576
ത്തുന്ന	-3577
ുമുണ്ട്	-3578
ിനീയ	-3579
▁രഹസ	-3580
▁തിരഞ്ഞെടുക്ക	-3581
▁വയസ	-3582
▁ജനറൽ	-3583
▁എൽഡിഎ	-3584
▁ആത്മഹത്യ	-3585
▁വക	-3586
മായത്	-3587
▁താഴെ	-3588
▁ഇതാണ്	-3589
ടുക്കുന്ന	-3590
ങ്ങളിലേക്ക്	-3591
ാന്റെ	-3592
▁മൂലം	-3593
▁കണക്ക്	-3594
▁അധികൃതര്‍	-3595
▁പൈല	-3596
▁ഓണ്‍ല	-3597
▁കർണാടക	-3598
▁ട്രംപ്	-3599
▁സാന്നി	-3600
▁അറസ്റ്റില	-3601
▁നങ്ങള്‍	-3602
▁പരിക്കേറ്റ	-3603
.2	-3604
ത്തുള്ള	-3605
▁റെക്കോ	-3606
▁യുവാക്ക	-3607
▁ഉപതിരഞ്ഞെടു	-3608
▁കലാപ	-3609
▁ഏജന്‍	-3610
▁ന്യൂഡ	-3611
ട്ടിക്ക	-3612
▁രജിസ്റ്റര്‍	-3613
▁ഗെ	-3614
റിനെ	-3615
▁പണി	-3616
▁പീഡ	-3617
▁അടച്ച	-3618
▁സന്തോ	-3619
▁പ്രസംഗ	-3620
▁ഇല്ലാത്ത	-3621
▁കണ്ടെത്തി	-3622
▁പിറ	-3623
ികളിൽ	-3624
▁എല്‍ഡിഎഫ	-3625
▁എല്‍ഡിഎഫ്	-3626
▁ജനങ്ങളുടെ	-3627
ളയ	-3628
▁മാല	-3629
തിക്ക	-3630
▁തൊഴില്‍	-3631
▁നമ്മള്‍	-3632
▁പ്രചാരണം	-3633
േബ്യ	-3634
റ്റിൽ	-3635
ലൈ	-3636
യിലുള്ള	-3637
▁കമ്പനി	-3638
▁ഹർ	-3639
ംഗ്ല	-3640
നോട്	-3641
▁ശനിയ	-3642
▁വോട്ടി	-3643
▁സ്പീക്ക	-3644
പ്തി	-3645
ുഴ	-3646
▁2020	-3647
▁പ്രകടന	-3648
▁സ്റ്റേഷന	-3649
▁തുടര്‍ന്നാണ്	-3650
ൾക്ക്	-3651
▁വിപണ	-3652
▁ചേര്‍ന്ന്	-3653
▁അറിയിച്ചത്	-3654
▁ആശുപത്രിയിൽ	-3655
ാലോചന	-3656
െയര്‍	-3657
▁പ്രദ	-3658
▁സഹോദര	-3659
▁അറേബ്യ	-3660
▁കൃത്യമായി	-3661
ത്തിന്റെയും	-3662
▁പ്രതിസന്ധി	-3663
ാസം	-3664
▁ശരീ	-3665
▁ബംഗാള	-3666
▁ദക്ഷിണ	-3667
▁ശബരിമല	-3668
വീസ	-3669
റ്ററ	-3670
ലിനെ	-3671
▁ഓഫീസ്	-3672
▁താലിബ	-3673
▁തൃണമൂ	-3674
▁പഞ്ചാബ	-3675
▁കൃത്യമായ	-3676
▁നിര്‍ണായക	-3677
▁അറിഞ്ഞ	-3678
▁മരിച്ചു	-3679
▁പ്രതിപക്ഷം	-3680
ശേഖ	-3681
▁ഓക്	-3682
▁ദിലീ	-3683
▁പങ്കാള	-3684
▁വെള്ളം	-3685
▁മുന്നോട്ട	-3686
ഹം	-3687
▁പവ	-3688
▁പദവ	-3689
▁മാര	-3690
ണക്കിന്	-3691
▁ജില്ലകളില്‍	-3692
യോട്	-3693
▁കഴി	-3694
▁സമി	-3695
ുമ്പോഴ	-3696
▁നിലനില്‍	-3697
▁ആം	-3698
▁യൂണി	-3699
▁വേണു	-3700
▁അപമാന	-3701
▁ഉത്തര്‍	-3702
▁പ്രതികരണ	-3703
▁സംവിധായക	-3704
ോൾ	-3705
▁ഫി	-3706
ജന്യ	-3707
▁പ്രവൃ	-3708
▁ഞെട്ട	-3709
ാറുണ്ട്	-3710
▁കിടക്ക	-3711
▁കണ്ടെത്തിയത്	-3712
▁നീതി	-3713
▁മാസ്	-3714
▁മുന്നണി	-3715
തീഷ്	-3716
▁ഭൂമ	-3717
ാവശ്യ	-3718
വിരുദ്ധ	-3719
▁വെള്ളിയ	-3720
ായിട്ടില്ല	-3721
▁അവര്‍ക്ക്	-3722
▁പിൻ	-3723
▁ഗതാഗ	-3724
▁വച്ച്	-3725
െടുപ്പ്	-3726
ീത	-3727
ഗ്ഗ	-3728
▁ആവശ്യമായ	-3729
നാഥ	-3730
▁ആശയ	-3731
▁തൂ	-3732
▁മത്സ്യ	-3733
▁സുഹൃത്തുക്ക	-3734
▁ടൈ	-3735
ങ്കേ	-3736
ഴക്ക	-3737
▁ഉദ്ധ	-3738
ര്‍ദ്ദ	-3739
▁അതിനെ	-3740
▁ജോലിയ	-3741
▁മറുപടിയ	-3742
ായിട്ടുണ്ട്	-3743
കേ	-3744
▁ജോർ	-3745
▁നിയമനം	-3746
).	-3747
▁മയ	-3748
▁ഹൃദ	-3749
▁പ്രി	-3750
▁മിനി	-3751
▁അഭിനയ	-3752
▁കെട്ടിട	-3753
▁ശാസ്ത്ര	-3754
▁ഉറപ്പാക്ക	-3755
മറ	-3756
▁ഹരി	-3757
▁മറിക	-3758
കൾക്ക്	-3759
▁കുടുംബം	-3760
▁ആയിരിക്ക	-3761
ഫല	-3762
▁താത്	-3763
▁വടക്ക	-3764
▁മാനസിക	-3765
▁ഭാഗത്ത്	-3766
▁പുറമെ	-3767
▁ഭര്‍ത്ത	-3768
ഹാറ	-3769
ക്ട്ര	-3770
▁പത്ര	-3771
▁ഒക്ടോ	-3772
▁കെഎസ്	-3773
േഷനില്‍	-3774
▁കാണാന്‍	-3775
േശ	-3776
ംഗളൂ	-3777
വ്വാ	-3778
▁പരമാവധി	-3779
▁ആദ്യമായി	-3780
▁വിളിച്ച്	-3781
▁ഘടക	-3782
▁ബാബ	-3783
ളുപ്പ	-3784
▁അബ്ദു	-3785
▁ലക്ഷ്യ	-3786
▁വരുത്ത	-3787
ുകളിലേക്ക്	-3788
ഷന	-3789
ൈവ	-3790
ിനാണ്	-3791
▁എന്തിന	-3792
▁രൂപയും	-3793
▁നൽകുന്ന	-3794
▁വരെയുള്ള	-3795
വയ	-3796
▁ഇടത്	-3797
ക്കാരെ	-3798
▁കാപ്പ	-3799
▁പ്രൊഫ	-3800
▁വെറും	-3801
▁നിശ്ചയ	-3802
▁വാക്സിൻ	-3803
▁വ്യവസ്ഥ	-3804
▁അസിസ്റ്റ	-3805
▁സുധാകരന്‍	-3806
▁നഴ്	-3807
▁ബൈഡ	-3808
▁അറിയാം	-3809
▁ഏകദേശം	-3810
▁ആരംഭിച്ച	-3811
ംബർ	-3812
പൂര്‍	-3813
▁വന്ന്	-3814
ത്താന്‍	-3815
▁കാലം	-3816
▁മുന്നിൽ	-3817
▁അഫ്ഗ	-3818
▁ഇക്കാര്യത്തില്‍	-3819
പതി	-3820
ൊപ്പ	-3821
▁സബ്	-3822
എച്ച്	-3823
റ്റിന്	-3824
▁സഖ്യം	-3825
▁ഇവര്‍ക്ക്	-3826
▁അത്യ	-3827
▁ഒള	-3828
ഥമിക	-3829
▁കയറി	-3830
▁പിടിയ	-3831
▁മുന്നണ	-3832
▁ഐപി	-3833
▁പഠന	-3834
▁പോലുള്ള	-3835
▁കസ്റ്റഡിയ	-3836
രുക്ക	-3837
▁ഗോപി	-3838
യെന്ന്	-3839
▁നിൽക്ക	-3840
▁സാന്നിധ	-3841
സ്തി	-3842
▁സ്ഥി	-3843
▁പ്രേക്ഷ	-3844
▁കേരളത്തിന്റെ	-3845
ശ്വ	-3846
മാരായ	-3847
റ്റീവ	-3848
പരമായി	-3849
ർത്തിയ	-3850
പ്പിച്ച	-3851
▁ഉണ്ടായി	-3852
▁വന്നിരുന്നു	-3853
▁ശമ്പളം	-3854
▁മുതിർന്ന	-3855
▁പങ്കെടുത്ത	-3856
▁മന്ത്രാലയം	-3857
ാവിക	-3858
▁ബാന	-3859
ായുള്ള	-3860
▁സ്ഥാനത്ത്	-3861
▁2018	-3862
▁അഡ്വ	-3863
▁വര്‍ദ്ധ	-3864
ന്മ	-3865
▁പൊള	-3866
▁നിര്‍മ	-3867
▁പദ്ധതിയ	-3868
▁ഇന്നത്തെ	-3869
▁തിരഞ്ഞെടുപ്പിന്	-3870
ണ്ടി	-3871
▁ഉദ്ദേശ	-3872
്വ	-3873
▁കടുവ	-3874
▁അഴിമതി	-3875
▁പ്രാഥമിക	-3876
▁ലാ	-3877
▁കാലയള	-3878
▁ഫോട്ടോ	-3879
▁ലോട്ടറി	-3880
യ്ക്കുന്ന	-3881
▁നേതാക്കളെ	-3882
▁കുറ്റപ്പെടുത്തി	-3883
▁കൂട്ടിച്ചേർത്തു	-3884
സ്മ	-3885
ക്സ്	-3886
▁199	-3887
▁മാതൃക	-3888
▁പേര്‍ക്കാണ്	-3889
ജീവിത	-3890
ായിട്ടാണ്	-3891
ഞ്ചേരി	-3892
▁അട്ടി	-3893
ോളജി	-3894
▁വേള	-3895
്യൂണി	-3896
▁കോവി	-3897
▁സമുദായ	-3898
▁തിങ്കളാഴ്ച	-3899
ീയം	-3900
▁എഴ	-3901
ക്രോ	-3902
ദണ്ഡ	-3903
▁കുടു	-3904
സ്റ്റർ	-3905
▁നടത്തും	-3906
▁സുപ്രീംകോട	-3907
▁ലാഭ	-3908
ത്തകര	-3909
വുമായ	-3910
ിനിടെ	-3911
▁വച്ച	-3912
ുവെന്നും	-3913
ര്‍ഡ	-3914
▁എച്ച്	-3915
▁ഭക്ഷണം	-3916
▁സോഷ്യൽ	-3917
▁ഉത്തരവ്	-3918
.30	-3919
▁ഇക്ക	-3920
▁ചിന്	-3921
▁ചെറു	-3922
▁ഭൂമി	-3923
ര്‍ത്ഥ	-3924
ുപറ	-3925
▁ഇറങ്ങ	-3926
▁താക്ക	-3927
▁മുൻപ്	-3928
-2	-3929
മാകും	-3930
▁സൗജന്യ	-3931
▁എത്തിച്ച	-3932
രുത്തി	-3933
ാന്‍സ്	-3934
ിരുന്നില്ല	-3935
▁ഭൂരിപക്ഷം	-3936
ങ്ങള്‍ക്കും	-3937
ബോധ	-3938
▁32	-3939
▁തുറന്ന്	-3940
ർഷ	-3941
▁ഞങ്ങളുടെ	-3942
▁ഉദ്യോഗസ്ഥര്‍	-3943
▁തട്ട	-3944
▁തൃക്ക	-3945
▁വിട്ട്	-3946
▁അനുവദിക്ക	-3947
▁തിരിച്ചറിയ	-3948
▁അറിയിച്ചിരുന്നു	-3949
ാവശ	-3950
▁നു	-3951
തില്ല	-3952
▁സുധാകര	-3953
▁സംസ്ഥാനങ്ങളില്‍	-3954
േമ	-3955
▁ഛ	-3956
▁ഗെയി	-3957
▁മുഖ്യ	-3958
▁മാര്‍ഗ	-3959
്യമന്ത്രി	-3960
താര	-3961
▁ഐസ	-3962
▁ചൊവ്വാ	-3963
▁വിളിച്ച	-3964
ിക്കൽ	-3965
▁മാനദണ്ഡ	-3966
▁നേതാക്കളുടെ	-3967
▁എഎ	-3968
സ്വാ	-3969
▁സംഭ	-3970
▁പത്ത	-3971
▁കുമാർ	-3972
സ്ഥാന്‍	-3973
▁അഭിനന്ദ	-3974
▁തുടക്കം	-3975
▁നല്‍കിയിരുന്നു	-3976
മുളള	-3977
▁ആഗോള	-3978
▁തള്ളി	-3979
▁നേരത്തേ	-3980
▁വാങ്ങിയ	-3981
▁ടെസ്റ്റ്	-3982
▁ണ	-3983
െയോ	-3984
▁രമ	-3985
പ്പിന്	-3986
▁കാരണമ	-3987
ങ്കേതിക	-3988
ുന്നതിനായി	-3989
▁ഉള്‍പ്പെടെയുള്ള	-3990
▁വൈദ്യുതി	-3991
▁ഫെബ്രുവരി	-3992
നട	-3993
▁ഭീ	-3994
തല്ല	-3995
▁എയർ	-3996
പ്പടെ	-3997
ഷണല്‍	-3998
▁മമ്മ	-3999
▁അക്കൗണ്ട	-4000
▁നേതാക്കളും	-4001
മൂ	-4002
ക്കൂ	-4003
ല്‍ഹ	-4004
▁ഭാഗ്യ	-4005
▁ഉറപ്പ്	-4006
▁അധികാരം	-4007
ൂപ	-4008
വ്വേ	-4009
ർദ്ദ	-4010
ക്രിയ	-4011
▁കാസർ	-4012
▁സഹകരണ	-4013
▁കുട്ടി	-4014
▁വിവരങ്ങൾ	-4015
▁നല്‍കാന്‍	-4016
▁സ്വാതന്ത്ര്യ	-4017
ഞ്ചായ	-4018
റ്റിയ	-4019
▁2022	-4020
▁കൊവി	-4021
▁പ്രചരണ	-4022
▁സിനിമാ	-4023
▁ബാധിച്ച	-4024
രുന്നുണ്ട്	-4025
ിക്കുന്നുണ്ട	-4026
▁സർക്കാരിന്റെ	-4027
തോ	-4028
▁പരിഹരിക്ക	-4029
▁സാധ്യതയുണ്ട്	-4030
ാറ്റ്	-4031
▁ഒക്കെ	-4032
▁ബുദ്ധിമുട്ട	-4033
▁ഉത്തരവാദിത്ത	-4034
.6	-4035
രാൻ	-4036
ാസി	-4037
▁യുപി	-4038
▁ലഭിച്ചു	-4039
▁സംഭവത്തിൽ	-4040
ജ്ര	-4041
ൊരാ	-4042
▁2017	-4043
▁താലൂ	-4044
▁നന്ന	-4045
▁മേധാവി	-4046
▁വിട്ടു	-4047
പൊ	-4048
▁ഫ്	-4049
▁കപ്പ	-4050
▁ഒരുക്ക	-4051
▁വേണുഗോപ	-4052
▁പ്രവർത്തിക്ക	-4053
▁മടങ്ങ	-4054
▁മത്സരം	-4055
ബല	-4056
▁ലേ	-4057
രായി	-4058
▁തുടർന്ന	-4059
യെന്ന	-4060
▁സീനിയ	-4061
▁പഞ്ചായത്ത	-4062
▁പെട്ടെന്ന്	-4063
▁മുഖ്യമന്ത്രിയ	-4064
▁37	-4065
▁ഡിവ	-4066
▁മുറ	-4067
ഷ്യല്‍	-4068
▁സിദ്ധ	-4069
▁ചാണ്ടി	-4070
▁തിരിച്ച്	-4071
വഹ	-4072
ാമ്പ	-4073
ടുപ്പ	-4074
▁കുവൈ	-4075
▁അന്തി	-4076
ുമെല്ലാം	-4077
▁നടപടികൾ	-4078
▁മണ്ഡലത്തിൽ	-4079
ാട്ട	-4080
▁മോഡ	-4081
▁സംസാരിച്ച	-4082
ചേ	-4083
താവ്	-4084
▁സൗദ	-4085
▁സങ്ക	-4086
കാര്യം	-4087
▁പിന്നില്‍	-4088
▁ഓട	-4089
▁ഉടൻ	-4090
്യൂട്ട	-4091
▁നിലയിൽ	-4092
▁തോന്നിയ	-4093
▁പ്രഖ്യാപനം	-4094
▁നല്‍കുന്നത്	-4095
ൻഡ്	-4096
▁കക്ഷ	-4097
▁വരുമ	-4098
▁വിമത	-4099
ിനെയും	-4100
▁ചൈനീസ്	-4101
▁സമാധാന	-4102
പ്പിന്റെ	-4103
ിലെത്തിയ	-4104
▁80	-4105
ുവും	-4106
റാഴ്ച	-4107
ിക്കെ	-4108
▁സ്ഥലം	-4109
▁മുഴുവൻ	-4110
▁പ്രചരിപ്പ	-4111
▁മുന്നേറ്റ	-4112
▁വര്‍ധിപ്പ	-4113
▁എന്തെങ്കിലും	-4114
ാണം	-4115
▁ടീം	-4116
ിനായി	-4117
ക്കൊപ്പം	-4118
▁ഒമ്പ	-4119
▁പദവി	-4120
രുടെയും	-4121
▁പ്രോസിക്യ	-4122
▁സാങ്കേതിക	-4123
ാണു	-4124
കോട്	-4125
▁അങ്ങ	-4126
▁പുരസ്	-4127
▁പാകിസ്ത	-4128
▁പ്രവൃത്തി	-4129
▁നില്‍ക്കുന്ന	-4130
സ്ല	-4131
▁ഭീകര	-4132
ടിന്റെ	-4133
വകുപ്പ്	-4134
▁അധ്യാപക	-4135
▁ജനങ്ങളെ	-4136
▁കുറിപ്പ്	-4137
▁ഭക്ഷണ	-4138
▁വിഷ്ണ	-4139
▁നേട്ടം	-4140
റ്റിന്റെ	-4141
▁കളക്ടര്‍	-4142
▁ബിജെപിയെ	-4143
▁ഐക്യ	-4144
▁താല്‍പര	-4145
▁പുതുതായി	-4146
▁ശക്തമായി	-4147
▁സംഭവിച്ച	-4148
ുമാന	-4149
▁പുറമേ	-4150
▁പോയത്	-4151
▁പശ്ചിമ	-4152
▁സീറ്റില്‍	-4153
ിക്കുന്നില്ല	-4154
80	-4155
േറ	-4156
ുകെ	-4157
ൂട്ടി	-4158
▁കാനഡ	-4159
▁രീതി	-4160
▁ദിലീപ	-4161
▁നിയോഗ	-4162
ുന്നതാണ്	-4163
▁ഞായറാഴ്ച	-4164
ോക്	-4165
▁ബില്ല	-4166
▁കോടതിയെ	-4167
▁രീതിയിൽ	-4168
▁വ്യവസായ	-4169
▁വാഗ്ദാനം	-4170
▁പാര്‍ട്ടിയുടെ	-4171
ങ്ങാട്	-4172
▁നോട്ടീസ്	-4173
▁ജസ്റ്റിസ്	-4174
▁ജില്ലകളിൽ	-4175
▁നിര്‍ബന്ധ	-4176
▁അനുസരിച്ച്	-4177
in	-4178
റുടെ	-4179
ായ്മ	-4180
ുകയോ	-4181
▁രാജി	-4182
▁ബുധനാ	-4183
▁ക്ലാസ്	-4184
▁യുവാവി	-4185
ാമെന്നും	-4186
▁ജഡ്	-4187
െത്തി	-4188
ശ്വാസം	-4189
▁കര്‍ശന	-4190
▁എന്‍ഡിഎ	-4191
▁സാമൂഹ്യ	-4192
▁അറിയിച്ച	-4193
▁ബാധിച്ച്	-4194
▁വോട്ടര്‍	-4195
.7	-4196
▁33	-4197
▁ബസ	-4198
▁ഭരണഘടന	-4199
▁തുടര്‍ച്ച	-4200
▁പീഡി	-4201
ാണുള്ളത്	-4202
▁അഭിപ്രായം	-4203
െയായിരുന്നു	-4204
വേദ	-4205
ാനോ	-4206
▁ബേ	-4207
ശേരി	-4208
▁പറയാന്‍	-4209
▁നടപ്പാക്ക	-4210
പ്ത	-4211
ൗണ്ട്	-4212
ക്കെതിര	-4213
-1	-4214
ടിഞ്ഞ	-4215
▁തേടി	-4216
▁പ്രാധ	-4217
ര്‍ത്ത്	-4218
▁ഇരിക്ക	-4219
▁ബെംഗളൂ	-4220
▁കൊല്ലപ്പെട്ട	-4221
▁രേഖപ്പെടുത്തിയ	-4222
▁കൺ	-4223
കളില	-4224
നമാണ്	-4225
ീറ്റ്	-4226
▁ട്രേ	-4227
▁നടക്കും	-4228
▁മേഖലയിലെ	-4229
▁അസം	-4230
▁ജലീ	-4231
രുടേയും	-4232
▁നിന്നു	-4233
▁ശനിയാഴ്ച	-4234
▁വെള്ളിയാഴ്ച	-4235
ജിത്	-4236
▁കുതി	-4237
▁രോഗമുക്തി	-4238
▁പ്രവര്‍ത്തനം	-4239
ംഗലം	-4240
പ്പന	-4241
▁തുല	-4242
▁ബാഗ	-4243
▁രോഹി	-4244
▁ഇറക്ക	-4245
▁എന്‍സി	-4246
ക്ട്	-4247
▁പരിധ	-4248
▁വൈറല	-4249
▁പൗരത്വ	-4250
▁പങ്കെടുത്തു	-4251
▁രാശിക്കാര്‍ക്ക്	-4252
ദാ	-4253
▁36	-4254
എസ്എസ്	-4255
▁കാണുന്നത്	-4256
▁കേന്ദ്രസർക്ക	-4257
▁സിബിഐ	-4258
യുടെയും	-4259
▁ടൂറിസം	-4260
▁എടുത്തി	-4261
▁പഞ്ചാബ്	-4262
കക്ഷ	-4263
▁ഗൗര	-4264
▁പാത	-4265
▁വാര	-4266
▁തള	-4267
യോഗം	-4268
▁പരിഗണന	-4269
▁രാജ്യത്തിന്റെ	-4270
▁സാഹചര്യത്തിലാണ്	-4271
ാമറ	-4272
ിനോ	-4273
▁യുപ	-4274
യ്ക്കായി	-4275
ത്തോടെയാണ്	-4276
റ്റും	-4277
▁ഒരാള	-4278
▁ഗ്രഹ	-4279
▁മോശം	-4280
▁ഏപ്രില്‍	-4281
▁പെൺകുട്ട	-4282
▁70	-4283
ംഗിക	-4284
▁ഇതു	-4285
▁വനം	-4286
▁ഉപേക്ഷ	-4287
▁ബ്ലോക്ക്	-4288
ന്‍റ	-4289
▁ഭാവ	-4290
▁രക്ത	-4291
ാകുന്നത്	-4292
▁തങ്ങള്‍	-4293
▁കാസര്‍ഗോഡ്	-4294
▁ഉൾപ്പെടെയുള്ള	-4295
ുമാ	-4296
▁വായ്പ	-4297
▁തീവ്രവാദ	-4298
50	-4299
ഹൃദ	-4300
▁ണ്	-4301
▁അതിൽ	-4302
▁പൊതുജന	-4303
▁സെപ്റ്റ	-4304
▁വിമര്‍ശനം	-4305
നീ	-4306
▁34	-4307
▁അസോ	-4308
▁ഹൈദ	-4309
▁മാതാ	-4310
ുമായും	-4311
▁കൈമാറ	-4312
▁പൊലിസ്	-4313
▁വ്യാപനം	-4314
▁ട്വീറ്റ്	-4315
ാധിക	-4316
▁അരു	-4317
▁ഏഷ്യ	-4318
വെന്നാണ്	-4319
▁സമ്പര്‍ക്കം	-4320
ഭോ	-4321
-19	-4322
▁ഏർ	-4323
▁സീസണ	-4324
▁പോലീസ	-4325
▁ഒരുക്കിയ	-4326
ാംഗ	-4327
▁സഹക	-4328
ജിത്ത്	-4329
▁തീയതി	-4330
▁വിശദീകരണം	-4331
▁വ്യക്തമാക്കിയത്	-4332
്യു	-4333
െന്നു	-4334
ര്‍ട്ട	-4335
▁ഡല്‍ഹി	-4336
▁സ്റ്റാ	-4337
▁ചോദിച്ച	-4338
ബാ	-4339
▁ശര	-4340
▁എംപ	-4341
▁പച്ച	-4342
നത്തിൽ	-4343
▁വാഹനം	-4344
▁ഗാന്ധിയുടെ	-4345
ാക്കിയിട്ടുണ്ട്	-4346
▁ഗം	-4347
▁റെഡ്	-4348
▁വെടി	-4349
▁കുടിയ	-4350
ുകയാണെന്ന്	-4351
വിള	-4352
ോണി	-4353
വേഷണ	-4354
ശേഷം	-4355
▁കാവ	-4356
▁നിർദേശ	-4357
▁പ്രകടനം	-4358
▁സ്വര്‍ണം	-4359
▁ഇന്ത്യയിൽ	-4360
▁ത്	-4361
▁ദൗ	-4362
▁അയാ	-4363
▁പിടി	-4364
▁തെറ്റി	-4365
▁നിതീഷ്	-4366
▁നിര്‍മാണ	-4367
▁മോദിയുടെ	-4368
▁ബാധിച്ചത്	-4369
▁കേന്ദ്രസര്‍ക്ക	-4370
വാള	-4371
▁സേവ	-4372
ത്തുട	-4373
▁ഡിവൈ	-4374
▁കണക്കിലെ	-4375
▁സൂപ്പര്‍	-4376
▁നിയന്ത്രണം	-4377
▁സ്ഥാനാർത്ഥി	-4378
ഭേദ	-4379
▁ഏഴ	-4380
ാരും	-4381
▁ഒരേ	-4382
ൊന്ന്	-4383
ക്കെട്ട	-4384
തിരുന്ന	-4385
▁കണ്ടത്	-4386
▁സമ്മാനം	-4387
▁രാജസ്ഥാന	-4388
▁ഇത്തരമൊരു	-4389
▁കൊണ്ടുവന്ന	-4390
ോഹ	-4391
രോധ	-4392
▁അഭിമാന	-4393
▁അസോസിയ	-4394
▁എങ്കിലും	-4395
▁സ്ഥലത്ത്	-4396
▁ചര്‍ച്ചകള്‍	-4397
▁ആധ	-4398
▁സ്നേ	-4399
▁കേള്‍	-4400
.8	-4401
ർഡ്	-4402
▁പാർല	-4403
▁രക്ഷാ	-4404
ക്കാലിക	-4405
▁ജനങ്ങൾ	-4406
▁കോണ്‍ഗ്രസ	-4407
▁അഴ	-4408
▁ഗൂഢ	-4409
ിയോട്	-4410
▁നാട്	-4411
▁വർദ്ധ	-4412
ിക്കാതെ	-4413
ഭി	-4414
▁മാവ	-4415
▁ഓട്ട	-4416
▁ന്യൂനപക്ഷ	-4417
മുറ	-4418
ിള്‍	-4419
▁തിക	-4420
ക്കാൻ	-4421
▁രാജ്യസഭ	-4422
▁മണിക്കുട്ട	-4423
5),	-4424
ഷണം	-4425
▁കിര	-4426
ജിന്റെ	-4427
ലുകള്‍	-4428
ാത്തത്	-4429
▁ഒരുങ്ങ	-4430
▁വരുമാനം	-4431
െടുക്കുന്ന	-4432
▁കാര്യമാണ്	-4433
▁ഇപ്പോഴത്തെ	-4434
▁പരിശോധനയ്ക്ക്	-4435
ൂട്ട്	-4436
▁തർക്ക	-4437
▁എളുപ്പ	-4438
▁നിരീക്ഷണത്തില	-4439
േയുള്ള	-4440
ന്നൂര്‍	-4441
ാതിരിക്ക	-4442
▁എല്ലാവര	-4443
▁ആദ്യത്തെ	-4444
▁സര്‍വീസ്	-4445
▁സാധ്യതയുണ്ട	-4446
ർശന	-4447
റാണ്	-4448
▁ശരീര	-4449
▁മുദ്ര	-4450
▁അന്തിമ	-4451
ഫലം	-4452
െയ്യ	-4453
▁തൊട്ട	-4454
▁ആന്റണി	-4455
▁ക്യാപ്റ്റ	-4456
▁പ്രഖ്യാപിച്ചു	-4457
ാവകാശ	-4458
▁2023	-4459
പഞ്ചായ	-4460
▁ക്രൂര	-4461
▁രംഗത്ത	-4462
▁ലൈംഗിക	-4463
▁ദിവസത്തെ	-4464
▁അല്ലെങ്കില്‍	-4465
▁നൗ	-4466
▁മൗ	-4467
ച്ചവ	-4468
ുവെന്ന്	-4469
▁ആക്ഷേപ	-4470
▁നോക്കിയ	-4471
▁ഏറ്റെടുക്ക	-4472
▁കോണ്‍ഗ്രസിന	-4473
▁പാര്‍ട്ടിയില്‍	-4474
ുവെ	-4475
▁യൂറ	-4476
▁റാവ	-4477
▁സംഗ	-4478
▁ആയുധ	-4479
▁മകന്‍	-4480
▁പരാതിയ	-4481
▁അപ്രതീക്ഷ	-4482
തവും	-4483
▁ഗോവ	-4484
▁സിങ്	-4485
ിയ്ക്ക്	-4486
▁അസിസ്റ്റന്റ്	-4487
വ്യാപ	-4488
▁അതാണ്	-4489
▁കയറിയ	-4490
▁വിതരണ	-4491
▁വലിയൊരു	-4492
▁കമ്മീഷന്‍	-4493
▁ഗവര്‍ണര്‍	-4494
▁സര്‍ട്ടിഫ	-4495
▁കരുതുന്നത്	-4496
▁രാഷ്ട്രീയം	-4497
ന്റി	-4498
▁നിൽ	-4499
യാത്ര	-4500
ാക്കര	-4501
▁വൈകീ	-4502
▁ചിന്ത	-4503
ിലുണ്ട്	-4504
▁മണിപ്പ	-4505
▁ക്രിക്ക	-4506
▁ക്രിമിന	-4507
▁കൈകാര്യം	-4508
▁നടത്താന്‍	-4509
ിയായിരുന്നു	-4510
▁ശശ	-4511
ാരിക	-4512
▁ഗവർ	-4513
▁നൂറ	-4514
▁അയ്യ	-4515
▁പൂർണ	-4516
വുമാണ്	-4517
▁ക്ലാസ	-4518
ക്താക്ക	-4519
▁ഭക്ഷ്യ	-4520
▁ഇതിനായി	-4521
▁വിജയിച്ച	-4522
പുര	-4523
്രമ	-4524
▁75	-4525
ുവിന്	-4526
▁എട്ട	-4527
▁ആളുകൾ	-4528
▁ഏജന്‍സ	-4529
ങ്ങളെയും	-4530
▁തിരിച്ചടി	-4531
0),	-4532
▁എഐ	-4533
▁ഗ്	-4534
▁റീ	-4535
േല്‍	-4536
▁മസ്	-4537
▁2024	-4538
▁ഉണ്ടാക്ക	-4539
▁അമേരിക്കന്‍	-4540
മീ	-4541
▁(7	-4542
നങ്ങൾ	-4543
ന്‍സി	-4544
▁ഇന്ധ	-4545
▁തൃശ്ശ	-4546
▁ഫിറോസ്	-4547
▁മോഹന്‍ല	-4548
എൻ	-4549
▁യാഥ	-4550
▁പാസ്	-4551
▁നന്ദി	-4552
▁വിശേഷ	-4553
▁മേഖലയിൽ	-4554
▁അപ്പ	-4555
▁നൽകിയത്	-4556
ുകാ	-4557
▁ജനത	-4558
മായാണ്	-4559
ീകരിച്ചു	-4560
▁ട്രെയിന	-4561
ലിക	-4562
▁എമ്മ	-4563
▁തൊഴിൽ	-4564
വകലാശാല	-4565
▁മൊത്തം	-4566
രുതെന്ന്	-4567
▁ബാക്കിയ	-4568
▁തരത്തിലുള്ള	-4569
▁പ്രതികരിച്ചത്	-4570
ഭൂ	-4571
സ്ഥാപ	-4572
▁വിനോദ	-4573
▁ദിവസവും	-4574
ങ്ങളിലൂടെ	-4575
ിക്കുന്നത	-4576
റാം	-4577
ിടെ	-4578
ക്ഷോഭ	-4579
മാണിത്	-4580
▁സ്വർണ	-4581
▁അവർക്ക്	-4582
▁ഇലക്ട്ര	-4583
▁നല്‍കും	-4584
▁പങ്കുവെച്ച	-4585
▁രണ്ടാമത്തെ	-4586
▁ഉണ്ടായിരിക്ക	-4587
യില്ല	-4588
▁ത്രി	-4589
▁ന്യായ	-4590
▁പരിശോധനാ	-4591
▁ബിജെപിയില്‍	-4592
▁അദ	-4593
ടിന്	-4594
▁ഡെപ	-4595
ജ്രിവ	-4596
സംഖ്യ	-4597
▁ഭിന്ന	-4598
▁ശിവസേന	-4599
▁അതുപോലെ	-4600
▁55	-4601
ഞ്ജു	-4602
ര്‍ജ	-4603
ായിര	-4604
▁കരി	-4605
ർപ്പറ	-4606
▁ടാസ്	-4607
ലങ്കാന	-4608
▁തിരിച്ചു	-4609
▁ഗ്രാമപഞ്ചായ	-4610
ബോ	-4611
ചാര	-4612
▁ഫു	-4613
േട്ട	-4614
▁കാണാം	-4615
▁നിര്‍ത്തി	-4616
▁മത്സരിപ്പ	-4617
▁വേണ്ടിയാണ്	-4618
ൃതി	-4619
▁48	-4620
കുമാർ	-4621
ാലാണ്	-4622
▁ആള്‍	-4623
▁യൂണിയ	-4624
▁കോടതിയിൽ	-4625
▁അതോറി	-4626
▁മെച്ച	-4627
ച്ചില്‍	-4628
ങ്ങളിലാണ്	-4629
▁തലത്തില്‍	-4630
ണർ	-4631
ീൻ	-4632
ാമി	-4633
ന്തരം	-4634
▁യോഗി	-4635
▁കൈയ്യ	-4636
▁ശമ്പള	-4637
▁നേടിയത്	-4638
▁ചൊവ്വാഴ്ച	-4639
▁ബാലചന്ദ്ര	-4640
▁തൃക്കാക്കര	-4641
▁പ്രതികരിച്ച	-4642
▁വൻ	-4643
▁പൂജ	-4644
▁മിഥ	-4645
▁പരാമർശ	-4646
▁കോർപ്പറ	-4647
▁സച്ചിന്‍	-4648
ന്യം	-4649
ോക്ക	-4650
▁പാവ	-4651
ുണ്ടാവ	-4652
▁കേസുകൾ	-4653
▁എത്തുന്ന	-4654
▁തെലങ്കാന	-4655
▁വിദ്യാര്‍ഥ	-4656
ന്ദ്	-4657
▁അതൃ	-4658
▁മതി	-4659
നിര്‍	-4660
▁കോര്‍	-4661
▁വിജയൻ	-4662
▁സമാനമായ	-4663
എല്ല	-4664
വിനെ	-4665
▁കുമാറ	-4666
▁ആത്മവി	-4667
▁തിരക്ക	-4668
▁പുരുഷന്‍	-4669
▁ചിത്രങ്ങള്‍	-4670
നയ	-4671
▁43	-4672
ർട്ട	-4673
▁അറി	-4674
▁ആദി	-4675
ന്‍റ്	-4676
▁പുരുഷ	-4677
▁മൂന്നു	-4678
▁പ്രഖ്യാപിച്ചത്	-4679
▁ഒമ	-4680
▁ഓഗ	-4681
ചാണ്ട	-4682
▁മതിയ	-4683
▁കരുതിയ	-4684
▁ജ്യോതി	-4685
▁തീരുമാനമ	-4686
പ്പെടുകയും	-4687
ക്കാര്‍ക്ക്	-4688
▁തുടരുകയാണ്	-4689
8),	-4690
▁ഉയര	-4691
▁പ്രണയ	-4692
▁അനില്‍	-4693
▁44	-4694
▁കറ	-4695
വെന്ന	-4696
▁നേരിടുന്ന	-4697
ിച്ചിരുന്നത്	-4698
്	-4699
▁	-4700
ി	-4701
ന	-4702
ക	-4703
ത	-4704
ു	-4705
ാ	-4706
ര	-4707
യ	-4708
ട	-4709
പ	-4710
ല	-4711
െ	-4712
മ	-4713
വ	-4714
ം	-4715
സ	-4716
‍	-4717
റ	-4718
ണ	-4719
ച	-4720
ള	-4721
.	-4722
ോ	-4723
േ	-4724
ങ	-4725
ദ	-4726
അ	-4727
ീ	-4728
എ	-4729
ഷ	-4730
ശ	-4731
ജ	-4732
ഗ	-4733
ഞ	-4734
ൂ	-4735
ർ	-4736
ധ	-4737
ഇ	-4738
ബ	-4739
ൽ	-4740
ആ	-4741
,	-4742
ഡ	-4743
ഹ	-4744
ഭ	-4745
ൊ	-4746
ഴ	-4747
ഥ	-4748
ഉ	-4749
ൻ	-4750
ൾ	-4751
ഒ	-4752
ഫ	-4753
0	-4754
ൈ	-4755
1	-4756
2	-4757
ഖ	-4758
ൃ	-4759
5	-4760
3	-4761
4	-4762
ഈ	-4763
ഏ	-4764
ഘ	-4765
-	-4766
9	-4767
ഓ	-4768
6	-4769
7	-4770
ൗ	-4771
8	-4772
:	-4773
)	-4774
(	-4775
ൺ	-4776
ഐ	-4777
'	-4778
;	-4779
?	-4780
ഠ	-4781
"	-4782
!	-4783
/	-4784
a	-4785
e	-4786
ഛ	-4787
i	-4788
n	-4789
o	-4790
ഔ	-4791
t	-4792
r	-4793
s	-4794
ഊ	-4795
ഢ	-4796
l	-4797
w	-4798
c	-4799
%	-4800
m	-4801
ൌ	-4802
d	-4803
ഃ	-4804
h	-4805
A	-4806
I	-4807
g	-4808
p	-4809
S	-4810
u	-4811
C	-4812
P	-4813
v	-4814
k	-4815
M	-4816
R	-4817
y	-4818
T	-4819
D	-4820
E	-4821
B	-4822
f	-4823
L	-4824
ഋ	-4825
b	-4826
N	-4827
F	-4828
O	-4829
V	-4830
W	-4831
K	-4832
&	-4833
G	-4834
·	-4835
#	-4836
U	-4837
H	-4838
*	-4839
ഝ	-4840
J	-4841
+	-4842
x	-4843
ൡ	-4844
@	-4845
=	-4846
]	-4847
[	-4848
∙	-4849
j	-4850
Y	-4851
X	-4852
•	-4853
_	-4854
൪	-4855
൯	-4856
️	-4857
z	-4858
q	-4859
$	-4860
ा	-4861
Q	-4862
Z	-4863
क	-4864
′	-4865
°	-4866
₹	-4867
र	-4868
े	-4869
‐	-4870
ि	-4871
्	-4872
൦	-4873
🔘	-4874
न	-4875
்	-4876
\	-4877
य	-4878
स	-4879
ब	-4880
व	-4881
⁄	-4882
❤	-4883
>	-4884
म	-4885
ൿ	-4886
⃣	-4887
▪	-4888
द	-4889
ह	-4890
ட	-4891
ഌ	-4892
👉	-4893
}	-4894
ग	-4895
♥	-4896
£	-4897
ډ	-4898
ं	-4899
ए	-4900
त	-4901
थ	-4902
प	-4903
ल	-4904
ी	-4905
❓	-4906
⬛	-4907
︎	-4908
🏻	-4909
🙏	-4910
{	-4911
ڇ	-4912
ڈ	-4913
अ	-4914
औ	-4915
ज	-4916
ट	-4917
ण	-4918
ध	-4919
भ	-4920
श	-4921
ष	-4922
ो	-4923
ौ	-4924
া	-4925
க	-4926
ப	-4927
ம	-4928
ய	-4929
ி	-4930
€	-4931
👌	-4932
👏	-4933
💎	-4934
💚	-4935
🔥	-4936
🔸	-4937
😍	-4938
😘	-4939
🚩	-4940
🤝	-4941
<	-4942
`	-4943
	-4944
¥	-4945
×	-4946
â	-4947
ñ	-4948
आ	-4949
इ	-4950
च	-4951
ठ	-4952
।	-4953
ং	-4954
ব	-4955
ল	-4956
அ	-4957
ஆ	-4958
ச	-4959
ண	-4960
த	-4961
ன	-4962
ல	-4963
வ	-4964
ீ	-4965
ு	-4966
ெ	-4967
ை	-4968
‟	-4969
◼	-4970
◾	-4971
♀	-4972
✌	-4973
✨	-4974
➡	-4975
ブ	-4976
ム	-4977
ラ	-4978
ル	-4979
ー	-4980
南	-4981
容	-4982
湘	-4983
美	-4984
	-4985
🎖	-4986
🐟	-4987
👇	-4988
🖤	-4989
🗃	-4990
😄	-4991
🙄	-4992
🤔	-4993
🤣	-4994
🤦	-4995
🥛	-4996
