{
  "version": "1.0",
  "truncation": null,
  "padding": null,
  "added_tokens": [
    {
      "id": 10000,
      "content": "[UNK]",
      "single_word": false,
      "lstrip": false,
      "rstrip": false,
      "normalized": false,
      "special": true
    }
  ],
  "normalizer": null,
  "pre_tokenizer": {
    "type": "Sequence",
    "pretokenizers": [
      {
        "type": "Split",
        "pattern": {
          "Regex": "\\p{N}{1,3}| ?[^\\s\\p{L}\\p{N}]{2,}[\\r\\n/]*| +(?!\\S)"
        },
        "behavior": "Isolated",
        "invert": false
      }
    ]
  },
  "post_processor": null,
  "decoder": null,
  "model": {
    "type": "BPE",
    "dropout": null,
    "unk_token": null,
    "continuing_subword_prefix": null,
    "end_of_word_suffix": null,
    "fuse_unk": false,
    "byte_fallback": false,
    "ignore_merges": false,
    "vocab": {
      "\n": 0,
      " ": 1,
      "!": 2,
      "\"": 3,
      "#": 4,
      "$": 5,
      "%": 6,
      "&": 7,
      "'": 8,
      "(": 9,
      ")": 10,
      "*": 11,
      "+": 12,
      ",": 13,
      "-": 14,
      ".": 15,
      "/": 16,
      "0": 17,
      "1": 18,
      "2": 19,
      "3": 20,
      "4": 21,
      "5": 22,
      "6": 23,
      "7": 24,
      "8": 25,
      "9": 26,
      ":": 27,
      ";": 28,
      "<": 29,
      "=": 30,
      ">": 31,
      "?": 32,
      "@": 33,
      "A": 34,
      "B": 35,
      "C": 36,
      "D": 37,
      "E": 38,
      "F": 39,
      "G": 40,
      "H": 41,
      "I": 42,
      "J": 43,
      "K": 44,
      "L": 45,
      "M": 46,
      "N": 47,
      "O": 48,
      "P": 49,
      "Q": 50,
      "R": 51,
      "S": 52,
      "T": 53,
      "U": 54,
      "V": 55,
      "W": 56,
      "X": 57,
      "Y": 58,
      "Z": 59,
      "[": 60,
      "\\": 61,
      "]": 62,
      "_": 63,
      "`": 64,
      "a": 65,
      "b": 66,
      "c": 67,
      "d": 68,
      "e": 69,
      "f": 70,
      "g": 71,
      "h": 72,
      "i": 73,
      "j": 74,
      "k": 75,
      "l": 76,
      "m": 77,
      "n": 78,
      "o": 79,
      "p": 80,
      "q": 81,
      "r": 82,
      "s": 83,
      "t": 84,
      "u": 85,
      "v": 86,
      "w": 87,
      "x": 88,
      "y": 89,
      "z": 90,
      "{": 91,
      "}": 92,
      "": 93,
      "£": 94,
      "¥": 95,
      "°": 96,
      "³": 97,
      "·": 98,
      "¼": 99,
      "½": 100,
      "¾": 101,
      "×": 102,
      "â": 103,
      "ñ": 104,
      "ڇ": 105,
      "ڈ": 106,
      "ډ": 107,
      "ं": 108,
      "अ": 109,
      "आ": 110,
      "इ": 111,
      "ए": 112,
      "औ": 113,
      "क": 114,
      "ग": 115,
      "च": 116,
      "ज": 117,
      "ट": 118,
      "ठ": 119,
      "ण": 120,
      "त": 121,
      "थ": 122,
      "द": 123,
      "ध": 124,
      "न": 125,
      "प": 126,
      "ब": 127,
      "भ": 128,
      "म": 129,
      "य": 130,
      "र": 131,
      "ल": 132,
      "व": 133,
      "श": 134,
      "ष": 135,
      "स": 136,
      "ह": 137,
      "ा": 138,
      "ि": 139,
      "ी": 140,
      "े": 141,
      "ो": 142,
      "ौ": 143,
      "्": 144,
      "।": 145,
      "ং": 146,
      "ব": 147,
      "ল": 148,
      "া": 149,
      "அ": 150,
      "ஆ": 151,
      "க": 152,
      "ச": 153,
      "ட": 154,
      "ண": 155,
      "த": 156,
      "ன": 157,
      "ப": 158,
      "ம": 159,
      "ய": 160,
      "ல": 161,
      "வ": 162,
      "ி": 163,
      "ீ": 164,
      "ு": 165,
      "ெ": 166,
      "ை": 167,
      "்": 168,
      "ം": 169,
      "ഃ": 170,
      "അ": 171,
      "ആ": 172,
      "ഇ": 173,
      "ഈ": 174,
      "ഉ": 175,
      "ഊ": 176,
      "ഋ": 177,
      "ഌ": 178,
      "എ": 179,
      "ഏ": 180,
      "ഐ": 181,
      "ഒ": 182,
      "ഓ": 183,
      "ഔ": 184,
      "ക": 185,
      "ഖ": 186,
      "ഗ": 187,
      "ഘ": 188,
      "ങ": 189,
      "ച": 190,
      "ഛ": 191,
      "ജ": 192,
      "ഝ": 193,
      "ഞ": 194,
      "ട": 195,
      "ഠ": 196,
      "ഡ": 197,
      "ഢ": 198,
      "ണ": 199,
      "ത": 200,
      "ഥ": 201,
      "ദ": 202,
      "ധ": 203,
      "ന": 204,
      "പ": 205,
      "ഫ": 206,
      "ബ": 207,
      "ഭ": 208,
      "മ": 209,
      "യ": 210,
      "ര": 211,
      "റ": 212,
      "ല": 213,
      "ള": 214,
      "ഴ": 215,
      "വ": 216,
      "ശ": 217,
      "ഷ": 218,
      "സ": 219,
      "ഹ": 220,
      "ാ": 221,
      "ി": 222,
      "ീ": 223,
      "ു": 224,
      "ൂ": 225,
      "ൃ": 226,
      "െ": 227,
      "േ": 228,
      "ൈ": 229,
      "ൊ": 230,
      "ോ": 231,
      "ൌ": 232,
      "്": 233,
      "ൗ": 234,
      "ൡ": 235,
      "൦": 236,
      "൪": 237,
      "൯": 238,
      "ൺ": 239,
      "ൻ": 240,
      "ർ": 241,
      "ൽ": 242,
      "ൾ": 243,
      "ൿ": 244,
      "‌": 245,
      "‍": 246,
      "‐": 247,
      "‑": 248,
      "‟": 249,
      "•": 250,
      "″": 251,
      "€": 252,
      "₹": 253,
      "⃣": 254,
      "∙": 255,
      "▪": 256,
      "◼": 257,
      "◾": 258,
      "♀": 259,
      "♥": 260,
      "✌": 261,
      "✨": 262,
      "❓": 263,
      "❤": 264,
      "➡": 265,
      "⬛": 266,
      "ブ": 267,
      "ム": 268,
      "ラ": 269,
      "ル": 270,
      "ー": 271,
      "南": 272,
      "容": 273,
      "湘": 274,
      "美": 275,
      "": 276,
      "︎": 277,
      "️": 278,
      "🌹": 279,
      "🎖": 280,
      "🏻": 281,
      "🐟": 282,
      "👇": 283,
      "👉": 284,
      "👌": 285,
      "👏": 286,
      "💎": 287,
      "💚": 288,
      "🔘": 289,
      "🔥": 290,
      "🔸": 291,
      "🖤": 292,
      "🗃": 293,
      "😄": 294,
      "😍": 295,
      "😘": 296,
      "🙄": 297,
      "🙏": 298,
      "🚩": 299,
      "🤔": 300,
      "🤝": 301,
      "🤣": 302,
      "🤦": 303,
      "🥛": 304,
      "🥦": 305,
      "ന്": 306,
      "ക്": 307,
      "്‍": 308,
      "ത്": 309,
      "ന്ന": 310,
      "് ": 311,
      "ക്ക": 312,
      ".\n": 313,
      "ില": 314,
      "െ ": 315,
      "്ട": 316,
      "ത്ത": 317,
      " പ": 318,
      "ും": 319,
      "ിയ": 320,
      "ി ": 321,
      "പ്": 322,
      " ക": 323,
      "മാ": 324,
      "ുന്ന": 325,
      "്യ": 326,
      "്ച": 327,
      " സ": 328,
      " വ": 329,
      "ട്ട": 330,
      "ിര": 331,
      "ച്ച": 332,
      " ന": 333,
      "്ര": 334,
      "ിക്ക": 335,
      "ങ്": 336,
      "പ്പ": 337,
      "ാണ": 338,
      "്റ": 339,
      "്.\n": 340,
      "ം ": 341,
      "ിച്ച": 342,
      "ണ്ട": 343,
      "ങ്ങ": 344,
      "ായ": 345,
      " മ": 346,
      " അ": 347,
      "ാര": 348,
      "ാന": 349,
      "ിന്": 350,
      "ുക": 351,
      "്ല": 352,
      "ാണ് ": 353,
      "ിന": 354,
      "ുട": 355,
      " ത": 356,
      "ു.\n": 357,
      "റ്റ": 358,
      "ിക": 359,
      "െയ": 360,
      " എ": 361,
      "സ്": 362,
      "ിൽ": 363,
      "ങ്ങള": 364,
      "ക്ക്": 365,
      "വര": 366,
      "ത്ര": 367,
      "്ള": 368,
      "ള്ള": 369,
      "വി": 370,
      " പ്ര": 371,
      "ടു": 372,
      "മായ": 373,
      "ഞ്": 374,
      "രു": 375,
      "ിരുന്ന": 376,
      "ഞ്ഞ": 377,
      " ആ": 378,
      "മ്": 379,
      "ന്ന്": 380,
      "രാ": 381,
      "ക്ഷ": 382,
      "ുടെ ": 383,
      "ാല": 384,
      "െന്ന": 385,
      "റെ ": 386,
      " ഇ": 387,
      "സ് ": 388,
      "ുള്ള": 389,
      " ച": 390,
      "േര": 391,
      "ില്ല": 392,
      "ത്തില": 393,
      "്‌": 394,
      "ുന്നത": 395,
      "ുണ്ട": 396,
      "ദേ": 397,
      "പ്ര": 398,
      "ോട": 399,
      "ല്ല": 400,
      " വി": 401,
      "പ്പെ": 402,
      "ദ്": 403,
      "ിട്ട": 404,
      "ിന്റെ ": 405,
      "യില": 406,
      "കര": 407,
      "ുകള": 408,
      "വാ": 409,
      " ഉ": 410,
      " ബ": 411,
      " സ്": 412,
      "സ്ഥ": 413,
      "ുറ": 414,
      " ജ": 415,
      "ിപ്പ": 416,
      "ുമ": 417,
      " ശ": 418,
      "ങ്ക": 419,
      "തിര": 420,
      "ുവ": 421,
      " പറ": 422,
      "െന്ന്": 423,
      "മാണ": 424,
      "മ്പ": 425,
      "ുകയ": 426,
      "ികള": 427,
      " ഒ": 428,
      "ാവ": 429,
      "ിവ": 430,
      " ര": 431,
      "ാക്ക": 432,
      "േഷ": 433,
      "ത്ത്": 434,
      "ദേശ": 435,
      "ോഗ": 436,
      "ന്ത്ര": 437,
      "ായിരുന്ന": 438,
      " സം": 439,
      "ത്തിയ": 440,
      "രി": 441,
      " ല": 442,
      "ഗ്ര": 443,
      "ം.\n": 444,
      " എന്ന": 445,
      "മായി ": 446,
      " നട": 447,
      "െടു": 448,
      "മു": 449,
      "എന്ന": 450,
      "ന്ത": 451,
      "ത്യ": 452,
      "മ്മ": 453,
      "ിന്ന": 454,
      "ിയില": 455,
      "ന്ദ": 456,
      "മാന": 457,
      "സം": 458,
      "ി.\n": 459,
      "ിക്കുന്ന": 460,
      "ും.\n": 461,
      "ിട": 462,
      "്റ്റ": 463,
      "് ക": 464,
      "്യാ": 465,
      " മാ": 466,
      "ായി ": 467,
      "റിയ": 468,
      "ോള": 469,
      "ാട": 470,
      "തി": 471,
      "െ ക": 472,
      "സ്ഥാന": 473,
      " മു": 474,
      " പോ": 475,
      "് പ": 476,
      "സി": 477,
      "ം ക": 478,
      "ക്ത": 479,
      "ൂര": 480,
      "ണ്": 481,
      "ോണ": 482,
      "െ പ": 483,
      "സ്റ്റ": 484,
      "ക്കാര": 485,
      "അത": 486,
      "ോട്ട": 487,
      "ാം": 488,
      " യ": 489,
      "ചെയ": 490,
      "ൂട": 491,
      "ാധ": 492,
      "രാജ": 493,
      "ന്ധ": 494,
      "കള": 495,
      "േത": 496,
      " പറഞ്ഞ": 497,
      "ദ്യ": 498,
      "ാർ": 499,
      "ിക്കുന്നത": 500,
      "പ്പെട്ട": 501,
      "ിച്ചത": 502,
      "ാൻ": 503,
      "ുര": 504,
      "തിയ": 505,
      "േസ": 506,
      " ദ": 507,
      "മയ": 508,
      "സര": 509,
      "ി ന": 510,
      "ഭാ": 511,
      "ന്ദ്ര": 512,
      "ങ്ങൾ": 513,
      "ുപ": 514,
      "ക്ര": 515,
      "കു": 516,
      "ത്തെ ": 517,
      " റ": 518,
      "ിത": 519,
      "ന്റ": 520,
      "്യമ": 521,
      "ിച്ച് ": 522,
      "ഇത": 523,
      "ിഞ്ഞ": 524,
      "ദ്ധ": 525,
      "ീകര": 526,
      " ഗ": 527,
      "ഡ് ": 528,
      "ടുത്ത": 529,
      "വർ": 530,
      "്ത": 531,
      "ത്തിൽ": 532,
      "യ്": 533,
      "ഞ്ച": 534,
      "രണ": 535,
      "ാള": 536,
      "ൊണ്ട": 537,
      "േക്ക്": 538,
      " വര": 539,
      "്,": 540,
      "ാത": 541,
      "ം ന": 542,
      "ത്തിന്": 543,
      "ിട്ടുണ്ട": 544,
      "ാമ": 545,
      "േണ്ട": 546,
      " ചെയ": 547,
      "ി പ": 548,
      "ദേഹ": 549,
      " ഒരു": 550,
      "ിക്കാന": 551,
      "ിജ": 552,
      "െങ്ക": 553,
      "ിലെ ": 554,
      "ംഗ": 555,
      "ില്ല.\n": 556,
      "േന്ദ്ര": 557,
      "ാര്യ": 558,
      "ി ക": 559,
      " ഡ": 560,
      "ലീ": 561,
      "ഷ്ട": 562,
      "ിയുടെ ": 563,
      "ാക": 564,
      "ം പ": 565,
      "ണ്ണ": 566,
      " തിര": 567,
      "് ന": 568,
      " സ്ഥ": 569,
      " ട": 570,
      "ിഎ": 571,
      "ിക്കുകയ": 572,
      "ദ്ദേഹ": 573,
      "മാര": 574,
      "തു": 575,
      "തല": 576,
      "20": 577,
      "ം വ": 578,
      "ീയ": 579,
      " സ്വ": 580,
      "മാക്ക": 581,
      "ോര": 582,
      "യുടെ ": 583,
      "മാണ് ": 584,
      " ഭ": 585,
      "ഴിഞ്ഞ": 586,
      " നിന്ന": 587,
      "ത്തിന്റെ ": 588,
      "ങ്ങളില": 589,
      "െപ": 590,
      "ഞ്ഞെടു": 591,
      "ായിരുന്നു": 592,
      "ണമ": 593,
      "ത്തിന": 594,
      "ുമായി ": 595,
      "വീ": 596,
      "ന്ത്യ": 597,
      " പറയ": 598,
      "ിന്ന്": 599,
      "ിം": 600,
      "ം,": 601,
      "റ്റ് ": 602,
      " ഹ": 603,
      "െങ്കില": 604,
      " ഫ": 605,
      "ശ്യ": 606,
      "ോധ": 607,
      "െന്നാണ് ": 608,
      "േരള": 609,
      "െ ന": 610,
      "ശ്": 611,
      "തി ": 612,
      "പ്പെട": 613,
      "െയാണ് ": 614,
      "ജയ": 615,
      "്‍,": 616,
      " ആര": 617,
      "െതിര": 618,
      "ഭാഗ": 619,
      "ന്റെ ": 620,
      " പേര": 621,
      "ഞ്ഞെടുപ്പ": 622,
      "ിജെപ": 623,
      "ം അ": 624,
      "െ അ": 625,
      "്യക്ത": 626,
      "ൂപ": 627,
      "േയ": 628,
      " ഏ": 629,
      " നിന്ന്": 630,
      "ൂട്ട": 631,
      " രാ": 632,
      "ിക്ക്": 633,
      "തീ": 634,
      "സിന": 635,
      "ഒരു": 636,
      " കൊ": 637,
      "ർക്ക": 638,
      "ആര": 639,
      "ോ": 640,
      "ാരണ": 641,
      "മര": 642,
      " നിര": 643,
      "ി അ": 644,
      "തുട": 645,
      "ബന്ധ": 646,
      "ാത്ത": 647,
      "ാൽ": 648,
      "ോഴ": 649,
      " പരി": 650,
      "ിയമ": 651,
      "വേ": 652,
      "സ്വ": 653,
      "യിൽ": 654,
      "ത്ഥ": 655,
      "ീവ": 656,
      "ധാന": 657,
      "േക്ക": 658,
      " വീ": 659,
      " നി": 660,
      "േഖ": 661,
      "ലിയ": 662,
      "്യാപ": 663,
      "നങ്ങള": 664,
      " സാധ": 665,
      " കു": 666,
      "വിട": 667,
      "ഭവ": 668,
      "നില": 669,
      "ചെയ്യ": 670,
      "ി സ": 671,
      "ോദ": 672,
      "വില": 673,
      "ത്തര": 674,
      " ഓ": 675,
      "ി.": 676,
      "ന്നെ ": 677,
      "രാജ്യ": 678,
      "ുകൾ": 679,
      "ഗ്രസ് ": 680,
      "നു": 681,
      "വശ്യ": 682,
      "ിറ്റ": 683,
      "ിയത": 684,
      "ോപ": 685,
      "ി,": 686,
      "ാഹ": 687,
      "േസമയ": 688,
      "െത്ത": 689,
      "ാഴ": 690,
      "് അ": 691,
      "്യമന്ത്ര": 692,
      "ോല": 693,
      " ഈ": 694,
      "അതേസമയ": 695,
      "ടക്ക": 696,
      " അദ്ദേഹ": 697,
      "ത്വ": 698,
      "തിന": 699,
      "ുല": 700,
      "എന്നാല": 701,
      "് സ": 702,
      "ിസ": 703,
      "യു": 704,
      "ിമ": 705,
      "ടിയ": 706,
      " നേത": 707,
      "ാപ": 708,
      "പക്ഷ": 709,
      "സില": 710,
      "ീറ്റ": 711,
      "ഖ്യമന്ത്ര": 712,
      "ോക": 713,
      " അവ": 714,
      "ലീസ് ": 715,
      "ാട്ട": 716,
      " വെ": 717,
      "ൊരു": 718,
      "ിവസ": 719,
      "ിച്ചിരുന്ന": 720,
      "ി എ": 721,
      " കോട": 722,
      "ം ത": 723,
      "ി വ": 724,
      "ചെയ്ത": 725,
      "ാറ": 726,
      "ിപ": 727,
      "ം ഉ": 728,
      " കോ": 729,
      "ാദ": 730,
      "ഷ്ട്ര": 731,
      "ധിക": 732,
      "ം നട": 733,
      " നില": 734,
      "ക്ട": 735,
      "െ സ": 736,
      "00": 737,
      "മന്ത്ര": 738,
      " ചെയ്ത": 739,
      "മെ": 740,
      "ക്കുന്ന": 741,
      "ുകളില": 742,
      "യോഗ": 743,
      "ല്ലാ": 744,
      "ൂർ": 745,
      " സര": 746,
      " ശ്ര": 747,
      "ൽക": 748,
      "ചര": 749,
      "ഷ്യ": 750,
      " ഉണ്ട": 751,
      "ി ജ": 752,
      "ക്രമ": 753,
      " സംസ്ഥാന": 754,
      "ന്യ": 755,
      " ശേഷ": 756,
      "തിക": 757,
      "്‍.\n": 758,
      "ാസ": 759,
      "ും,": 760,
      "ോടെ ": 761,
      "മൂ": 762,
      "പ്പെടുത്ത": 763,
      " പ്രതി": 764,
      "യ്ക്ക്": 765,
      "െട്ട": 766,
      "്യക്തമാക്ക": 767,
      " കോണ": 768,
      "വേഷ": 769,
      "ങ്ങന": 770,
      "മി": 771,
      "യ്ക്ക": 772,
      " തുട": 773,
      "മേ": 774,
      "ോർ": 775,
      "ോട് ": 776,
      "പാട": 777,
      "രുമാന": 778,
      " പു": 779,
      "ൂടു": 780,
      "കൊ": 781,
      "ിച്ചു": 782,
      "ടന": 783,
      "കാര": 784,
      "ൈന": 785,
      "ഡിയ": 786,
      "െത്തിയ": 787,
      " സെ": 788,
      "ുമെന്ന": 789,
      " കാര്യ": 790,
      "ജന": 791,
      "ഡിഎ": 792,
      "്യത": 793,
      "ജില്ല": 794,
      "ീപ": 795,
      "ോൾ": 796,
      " മന്ത്ര": 797,
      "ുറത്ത": 798,
      "േറ്റ": 799,
      "ീഷ": 800,
      "ണ്ഡ": 801,
      "ുവന": 802,
      "വിഡ് ": 803,
      "ോയ": 804,
      "പ്പോള": 805,
      "ഫ് ": 806,
      "ാശ": 807,
      "..": 808,
      "പുര": 809,
      " പറയുന്ന": 810,
      " സംഘ": 811,
      "ാക്കള": 812,
      " കേന്ദ്ര": 813,
      "ശോധ": 814,
      "ധ്യ": 815,
      "ം സ": 816,
      "ട്ര": 817,
      " പിന്ന": 818,
      "ിനെ ": 819,
      " പൊ": 820,
      "ിരിക്ക": 821,
      "െടുത്ത": 822,
      "ുള്ളത": 823,
      "ക്ഷണ": 824,
      "സംസ്ഥാന": 825,
      "ട്ട് ": 826,
      "ം എ": 827,
      " രണ്ട": 828,
      "ശ്ര": 829,
      "ിരിക്കുന്നത": 830,
      "പര": 831,
      "ീര": 832,
      "നി": 833,
      "),": 834,
      "ശന": 835,
      "ങ്ങിയ": 836,
      " ജില്ല": 837,
      " ഇട": 838,
      "ാണ് ക": 839,
      "ന്വേഷ": 840,
      "ാഴ്ച": 841,
      "ഗ് ": 842,
      "യാള": 843,
      "ഴിയ": 844,
      "ികൾ": 845,
      "ന്നത": 846,
      " മാത്ര": 847,
      "ത്സര": 848,
      "ം ആ": 849,
      " തിരഞ്ഞെടുപ്പ": 850,
      " ലഭ": 851,
      "ക്യ": 852,
      "യര": 853,
      " നിയമ": 854,
      " അന": 855,
      " യു": 856,
      "ാണ് ഇ": 857,
      " ദിവസ": 858,
      "ുമായ": 859,
      "നിര": 860,
      "റഞ്ഞ": 861,
      "വാസ": 862,
      "വരുടെ ": 863,
      " സ്വദേശ": 864,
      "വാദ": 865,
      "യിലെ ": 866,
      " കുറ": 867,
      " തെ": 868,
      "വണ": 869,
      " ബിജെപ": 870,
      " ഷ": 871,
      " ഇന്ത്യ": 872,
      "ശുപ": 873,
      "ിക്കുകയാണ": 874,
      "ുകൊണ്ട": 875,
      "ബിജെപ": 876,
      " വലിയ": 877,
      " (": 878,
      "ം ഇ": 879,
      "ത്സ": 880,
      "െല്ല": 881,
      "ാബ": 882,
      "ന്തപുര": 883,
      " ചെയ്യ": 884,
      " നല": 885,
      "ൃത്വ": 886,
      "ശുപത്ര": 887,
      "ിറ": 888,
      "ഭി": 889,
      " അത": 890,
      "രണ്ട": 891,
      "േജ": 892,
      "ലഭ": 893,
      "റ്റവ": 894,
      "പട": 895,
      "ങ്ങളുടെ ": 896,
      "മുണ്ട": 897,
      "ഗ്രസ": 898,
      "ൂറ": 899,
      "ർത്ത": 900,
      "വർത്ത": 901,
      "ി പ്ര": 902,
      "ാണ് പ": 903,
      "കുപ്പ": 904,
      "ുവര": 905,
      "് വ": 906,
      "ുവനന്തപുര": 907,
      "ൊഴ": 908,
      "െക്ക": 909,
      " നേര": 910,
      "ി ത": 911,
      "ാമ്പ": 912,
      " അറിയ": 913,
      " കേരള": 914,
      " മുന്ന": 915,
      "് ത": 916,
      " വൈ": 917,
      "െതിരെ ": 918,
      "ൂല": 919,
      "േട": 920,
      "ം മ": 921,
      " എന്ന്": 922,
      "ടുക്ക": 923,
      "സ്ത": 924,
      " രൂപ": 925,
      "ോഷ": 926,
      "ുമെന്ന്": 927,
      " ആവശ്യ": 928,
      "ണമെന്ന": 929,
      "ില്ലെന്ന": 930,
      " ലക്ഷ": 931,
      "ീകരിച്ച": 932,
      "ിത്ര": 933,
      "ഖ്യാപ": 934,
      "ുക്ക": 935,
      " ഞ": 936,
      "ുന": 937,
      "ി (": 938,
      "ിരു": 939,
      "െ ത": 940,
      "തുടര": 941,
      "വിധ": 942,
      " പോല": 943,
      "ഷ്ട്രീയ": 944,
      " കണ്ട": 945,
      "ം\n": 946,
      " വേണ്ട": 947,
      " കൂട": 948,
      "രൂപ": 949,
      "ഇന്ത്യ": 950,
      "രിക്ക": 951,
      "ുമ്പ": 952,
      "മാറ": 953,
      "േഖല": 954,
      "ണ്ഡല": 955,
      "ാത്ര": 956,
      "ീന": 957,
      " കേസ": 958,
      "മല": 959,
      "ീക്ക": 960,
      "ാഹചര": 961,
      "്വ": 962,
      "ോഗ്യ": 963,
      "രുത": 964,
      " പങ്ക": 965,
      "ന്വേഷണ": 966,
      "19": 967,
      "ാണ് അ": 968,
      " ജന": 969,
      "ുന്നത്": 970,
      "മുള്ള": 971,
      "പ്പോഴ": 972,
      "ിപ്പോര": 973,
      "നേത": 974,
      "ൊപ്പ": 975,
      " തീ": 976,
      "ംഭ": 977,
      "െല": 978,
      "ക്ഷേ": 979,
      "ളള": 980,
      " രാജ്യ": 981,
      "തിയില": 982,
      "കഴിഞ്ഞ": 983,
      "പ്പെടു": 984,
      "ിയായ": 985,
      "കിയ": 986,
      "ിയിൽ": 987,
      " കൊണ്ട": 988,
      " മുഖ്യമന്ത്ര": 989,
      "ൂടുതല": 990,
      "തമാന": 991,
      "്.": 992,
      "ിൻ": 993,
      "വിജയ": 994,
      "െടുക്ക": 995,
      "ാഹചര്യ": 996,
      "േഷന": 997,
      "ഷ്": 998,
      " ഉപ": 999,
      "ി മ": 1000,
      "ത്തിയത": 1001,
      "ൊക്ക": 1002,
      " എത്ത": 1003,
      " തന്നെ ": 1004,
      "10": 1005,
      "സഭ": 1006,
      " സമയ": 1007,
      "സ്റ്റ് ": 1008,
      "കാര്യ": 1009,
      "െ വ": 1010,
      " സു": 1011,
      " സംഭവ": 1012,
      "ണിക്ക": 1013,
      " ആയ": 1014,
      " രോഗ": 1015,
      "രോഗ": 1016,
      "ണക്ക": 1017,
      "ിവര": 1018,
      "?\n": 1019,
      "201": 1020,
      "ദ്ദേശ": 1021,
      " വേ": 1022,
      "തൽ": 1023,
      "ിക്കാൻ": 1024,
      " വില": 1025,
      "പെ": 1026,
      " ആണ": 1027,
      "ി ആ": 1028,
      " നടത്ത": 1029,
      "ിത്ത": 1030,
      " പ്രവര": 1031,
      "ാർട്ട": 1032,
      "േക്ഷ": 1033,
      "ുക.\n": 1034,
      "ിലേക്ക്": 1035,
      " പാര": 1036,
      " സീറ്റ": 1037,
      "ം ച": 1038,
      "ബാധ": 1039,
      "ോക്ക": 1040,
      "ാം.\n": 1041,
      " വോട്ട": 1042,
      " തന്ന": 1043,
      " ശ്രമ": 1044,
      "കട": 1045,
      " കഴിഞ്ഞ": 1046,
      "ുത": 1047,
      "െ ആ": 1048,
      "ഷേ": 1049,
      "ഇത്": 1050,
      "ുകയാണ": 1051,
      "വാഹ": 1052,
      "ുഴ": 1053,
      "മാത്ര": 1054,
      "ന്റ് ": 1055,
      "വസ": 1056,
      "െയുള്ള": 1057,
      "വന": 1058,
      "മാറ്റ": 1059,
      "ംബ": 1060,
      " ശതമാന": 1061,
      "ിച്ചിട്ടുണ്ട": 1062,
      "സിഡ": 1063,
      " സ്ഥാന": 1064,
      "ഫീ": 1065,
      "ർഷ": 1066,
      "ൃത": 1067,
      "ളര": 1068,
      "പ്രതി": 1069,
      " വിജയ": 1070,
      "കൾ": 1071,
      "േർ": 1072,
      "ോമ": 1073,
      " സഹ": 1074,
      "കന": 1075,
      "വിത": 1076,
      "കേരള": 1077,
      " വന്ന": 1078,
      "നട": 1079,
      " മൂ": 1080,
      "ാനുള്ള": 1081,
      "ബി": 1082,
      " ധ": 1083,
      "ം ചെയ്യ": 1084,
      "േട്ട": 1085,
      "എന്നാൽ": 1086,
      " തീരുമാന": 1087,
      "െച്ച": 1088,
      "വധ": 1089,
      "ാക്കിയ": 1090,
      "ൊന്ന": 1091,
      "ശോധന": 1092,
      " കാല": 1093,
      "ഗ്": 1094,
      "ജ്": 1095,
      "ചന": 1096,
      "ം എന്ന": 1097,
      " ഇത": 1098,
      "എല": 1099,
      "ം പ്ര": 1100,
      "ന്തര": 1101,
      "ൈക്ക": 1102,
      "ർച്ച": 1103,
      "തിരുവനന്തപുര": 1104,
      "ഷേധ": 1105,
      "മായിരുന്ന": 1106,
      " സാഹചര്യ": 1107,
      "ിരിക്കുകയാണ": 1108,
      " പര": 1109,
      "ങ്ങളിൽ": 1110,
      "ം:": 1111,
      "ുതിയ": 1112,
      "ുടെയ": 1113,
      "വിഡ": 1114,
      "് മ": 1115,
      "ിണ": 1116,
      "ദ്ദ": 1117,
      "ികളുടെ ": 1118,
      "റപ്പ": 1119,
      "െ എ": 1120,
      " കഴിയ": 1121,
      "ത്തന": 1122,
      "സ്സ": 1123,
      " സ്ഥിര": 1124,
      "ുകാര": 1125,
      "ോസ": 1126,
      "െ മ": 1127,
      "യ്യാ": 1128,
      "റയ": 1129,
      "ുന്നുണ്ട": 1130,
      " -": 1131,
      "ർക്കാർ": 1132,
      "ംപ": 1133,
      "ക്രട്ട": 1134,
      "ാന്ധ": 1135,
      "ോസ് ": 1136,
      "മല്ല": 1137,
      "ജി": 1138,
      "മാക": 1139,
      "ഖ്യ": 1140,
      "പ്പോൾ": 1141,
      " വ്യക്തമാക്ക": 1142,
      "്‍\n": 1143,
      "ുന്നതിന": 1144,
      "ോൺ": 1145,
      "ോദ്യ": 1146,
      "മുഖ്യമന്ത്ര": 1147,
      "ഷയ": 1148,
      "ീം": 1149,
      " പെ": 1150,
      "കളില": 1151,
      "നിയ": 1152,
      " വയ": 1153,
      " രാജ": 1154,
      "ാട് ": 1155,
      "കുട്ട": 1156,
      " സുര": 1157,
      " സാധ്യത": 1158,
      "തീക്ഷ": 1159,
      "ൂണ": 1160,
      "ടി": 1161,
      "ിപ്പിച്ച": 1162,
      "േണ്ടത": 1163,
      "ഡിഎഫ": 1164,
      "ജീവ": 1165,
      " വകുപ്പ": 1166,
      " പോക": 1167,
      " കാണ": 1168,
      "റെയ": 1169,
      "യ്യാറ": 1170,
      " മാറ്റ": 1171,
      " പുറത്ത": 1172,
      "ധ്യമ": 1173,
      " വാ": 1174,
      " സമ": 1175,
      "സഭാ": 1176,
      "ുകയായിരുന്ന": 1177,
      "തുണ": 1178,
      "ാറ്റ": 1179,
      "ായത": 1180,
      ", ": 1181,
      "ോഡ": 1182,
      " മത്സര": 1183,
      "കാശ": 1184,
      " കാരണ": 1185,
      " എല്ലാ": 1186,
      "േക": 1187,
      "15": 1188,
      "റില": 1189,
      "പരി": 1190,
      " പരാ": 1191,
      " കോൺ": 1192,
      " ഗ്ര": 1193,
      " മറ്റ": 1194,
      "202": 1195,
      " മല": 1196,
      "ണമെന്ന്": 1197,
      "ാണെന്ന": 1198,
      "ാജ": 1199,
      "ിന്തുണ": 1200,
      "ട്ടില": 1201,
      " മേഖല": 1202,
      "ാണ് സ": 1203,
      "ധാനമന്ത്ര": 1204,
      "ീട": 1205,
      "നേര": 1206,
      " അപ": 1207,
      " പോലീസ് ": 1208,
      "സാര": 1209,
      "ഹുല": 1210,
      "ഗര": 1211,
      "നിക്ക്": 1212,
      "ലക്ഷ": 1213,
      "ബ്ര": 1214,
      "ോഹ": 1215,
      "ി:": 1216,
      "തികള": 1217,
      "സംഘ": 1218,
      "ില്ലെന്ന്": 1219,
      "ൊഴില": 1220,
      " കുട": 1221,
      "12": 1222,
      " ഐ": 1223,
      "സ്ല": 1224,
      "ാണെന്ന്": 1225,
      "ത്തിലെ ": 1226,
      "ിരിക്കുന്ന": 1227,
      "ികി": 1228,
      ", ക": 1229,
      "ശ്ച": 1230,
      "ി ഉ": 1231,
      "തിരഞ്ഞെടുപ്പ": 1232,
      "ികിത്സ": 1233,
      " നടപട": 1234,
      "ീവിത": 1235,
      " സൗ": 1236,
      "ഷന": 1237,
      "മുഖ": 1238,
      " ക്": 1239,
      "് ആ": 1240,
      "ുമായി ബന്ധ": 1241,
      "വാക്ക": 1242,
      "െഡ": 1243,
      "ോറ": 1244,
      "ത്യേക": 1245,
      "മന": 1246,
      "ദ്യാ": 1247,
      "ാതെ ": 1248,
      "േല": 1249,
      "സ്വദേശ": 1250,
      "േന": 1251,
      " ട്ര": 1252,
      "മാർ": 1253,
      " ആശുപത്ര": 1254,
      "ി വി": 1255,
      "ഇട": 1256,
      "ധ്യക്ഷ": 1257,
      " പോയ": 1258,
      "ലീസ": 1259,
      "ളുകള": 1260,
      "ോഴിക്ക": 1261,
      "ി പറഞ്ഞ": 1262,
      "രംഗ": 1263,
      " അത്": 1264,
      "ം നല": 1265,
      "ം നടത്ത": 1266,
      "ുവെന്ന": 1267,
      " പദ്ധ": 1268,
      "യ്യ": 1269,
      " കര": 1270,
      "ിപ്പോർ": 1271,
      "ിട്ടില്ല.\n": 1272,
      "െറ": 1273,
      " അധിക": 1274,
      "കാല": 1275,
      "ക്കാര്യ": 1276,
      "ീല": 1277,
      " പല": 1278,
      " പാല": 1279,
      " ശക്ത": 1280,
      "ഷ്ണ": 1281,
      " പിന്നാല": 1282,
      "ബ്": 1283,
      "യാണ് ": 1284,
      "ർന്ന": 1285,
      "ൂപ്പ": 1286,
      " ഗാന്ധ": 1287,
      "ിക്കല": 1288,
      "ി ച": 1289,
      "ഏറ്റവ": 1290,
      " മണ്ഡല": 1291,
      " പുറ": 1292,
      " നൽക": 1293,
      " മന": 1294,
      " സ്ഥാപ": 1295,
      "് എ": 1296,
      " വിവര": 1297,
      "30": 1298,
      " ആരോപ": 1299,
      "തി ന": 1300,
      "ാഥ": 1301,
      "െ കുറ": 1302,
      "ഞ്ചായ": 1303,
      "സ്ത്ര": 1304,
      "ദു": 1305,
      " ഒന്ന": 1306,
      " ചില": 1307,
      " സർ": 1308,
      " കൂടുതല": 1309,
      "വല": 1310,
      "രിച്ച": 1311,
      "യായ": 1312,
      "് പറഞ്ഞ": 1313,
      "തൃ": 1314,
      "11": 1315,
      "ബു": 1316,
      "ലോ": 1317,
      "ന്യൂ": 1318,
      "ം വി": 1319,
      "് പ്ര": 1320,
      "കെ ": 1321,
      " കട": 1322,
      "പേര": 1323,
      "് ച": 1324,
      "ു,": 1325,
      "ഹാര": 1326,
      "ുളള": 1327,
      "ണ്ണൂര": 1328,
      "ുമെന്നാണ് ": 1329,
      "കൂട": 1330,
      " തിരിച്ച": 1331,
      "ടങ്ങ": 1332,
      "ണാ": 1333,
      " യോഗ": 1334,
      " വ്യക്ത": 1335,
      "വിള": 1336,
      "ഇതിന": 1337,
      "ഗണ": 1338,
      " നേതാവ": 1339,
      " രാഷ്ട്രീയ": 1340,
      "ശ്വാസ": 1341,
      "പ്പെടുത്തിയ": 1342,
      "ശക്ത": 1343,
      "സു": 1344,
      " അവര": 1345,
      "ം പറഞ്ഞ": 1346,
      "ദേശീയ": 1347,
      "ം ഉണ്ട": 1348,
      "എല്ലാ": 1349,
      "എസ് ": 1350,
      "ധന": 1351,
      "ഘട്ട": 1352,
      "െ.": 1353,
      "ഭരണ": 1354,
      " ചിത്ര": 1355,
      "കോണ": 1356,
      "കല": 1357,
      "എസ്": 1358,
      "ം മു": 1359,
      " സമ്പ": 1360,
      " നിർ": 1361,
      "ത്തവണ": 1362,
      "ഹര": 1363,
      "സിപ": 1364,
      " തല": 1365,
      "ത്തിക": 1366,
      " മറ": 1367,
      " വിഭാഗ": 1368,
      "ുട്ട": 1369,
      "ി എന്ന": 1370,
      "ിക്കുന്നത്": 1371,
      "ി ജെ പ": 1372,
      " ബന്ധ": 1373,
      "ുമായി ബന്ധപ്പെട്ട": 1374,
      "സംഭവ": 1375,
      "24": 1376,
      " പുതിയ": 1377,
      "ാഗ": 1378,
      "യുണ്ട": 1379,
      " കൈ": 1380,
      " വ്യ": 1381,
      "വെ": 1382,
      "ം ചെയ്ത": 1383,
      "50": 1384,
      " സെക്രട്ട": 1385,
      "കുള": 1386,
      "പ്പെടുന്ന": 1387,
      "പ്രവര": 1388,
      "ലോക": 1389,
      "ുവദ": 1390,
      " നേതാക്കള": 1391,
      "ായിരിക്ക": 1392,
      " അഭി": 1393,
      " അംഗ": 1394,
      "പ്രായ": 1395,
      "ൈല": 1396,
      "രാള": 1397,
      "ിയെ ": 1398,
      " നടത്തിയ": 1399,
      "ആദ്യ": 1400,
      " മാസ": 1401,
      "ി വര": 1402,
      "മർ": 1403,
      " ആദ്യ": 1404,
      "മത": 1405,
      " നിന്നുള്ള": 1406,
      "14": 1407,
      "മെന്റ": 1408,
      "ിക്": 1409,
      " രീ": 1410,
      "ു.": 1411,
      "ീക്ഷ": 1412,
      " കമ്മ": 1413,
      "യറ": 1414,
      " ഉള": 1415,
      "ീക്ഷണ": 1416,
      " അന്വേഷണ": 1417,
      "അതിന": 1418,
      " പ്രവർത്ത": 1419,
      "ിണറ": 1420,
      "ശയ": 1421,
      "മ്പന": 1422,
      "ുത്ത": 1423,
      " കള": 1424,
      " തയ്യാറ": 1425,
      "സന": 1426,
      "േള": 1427,
      "സഹ": 1428,
      "ി ബ": 1429,
      "ൊ": 1430,
      "വിലെ ": 1431,
      " കാര": 1432,
      "ി\n": 1433,
      "ഴ്ച": 1434,
      "ചാരണ": 1435,
      "ഫല": 1436,
      " മുതല": 1437,
      "ിയാണ് ": 1438,
      "നായ": 1439,
      " ഗു": 1440,
      "െങ്കിൽ": 1441,
      "ങ്ങൾക്ക്": 1442,
      " ഇന്ന്": 1443,
      " വിഷയ": 1444,
      " തൃ": 1445,
      "ാങ്ക": 1446,
      " അനു": 1447,
      "ഗ്രഹ": 1448,
      "ിക്കാര": 1449,
      " യാത്ര": 1450,
      "ഴ്": 1451,
      "വിട്ട": 1452,
      "ഇന്ന്": 1453,
      " സാധിക്ക": 1454,
      " കോള": 1455,
      "പ്പെട്ടത": 1456,
      " എന്ത": 1457,
      "ിലൂട": 1458,
      "് എന്ന": 1459,
      "ം ലഭ": 1460,
      "ാടക": 1461,
      "ഇവര": 1462,
      " എന്നിവ": 1463,
      "...\n": 1464,
      "േടിയ": 1465,
      "ക്രമണ": 1466,
      "്യൂ": 1467,
      "േസ് ": 1468,
      "ോടെയാണ് ": 1469,
      "ൂണ്ട": 1470,
      " നീക്ക": 1471,
      " ഭരണ": 1472,
      "18": 1473,
      "പിന്ന": 1474,
      "ികച്ച": 1475,
      "നേതൃത്വ": 1476,
      "ിച്ച് ക": 1477,
      " മുന": 1478,
      " ഇല്ല": 1479,
      "ീകരണ": 1480,
      "മുന്ന": 1481,
      "് നട": 1482,
      "ാണ്ട": 1483,
      "ിപ്പിക്ക": 1484,
      "ത്തകര": 1485,
      "ന്ത്": 1486,
      "ടിസ്ഥാന": 1487,
      " കൂട്ട": 1488,
      " എം": 1489,
      "രോ": 1490,
      "ഡിയോ": 1491,
      "ിച്ചത്": 1492,
      " മോദ": 1493,
      " ഇത്": 1494,
      "ാമ്പത്തിക": 1495,
      "ീസ": 1496,
      "ശദ": 1497,
      "ന്നു": 1498,
      " സിപ": 1499,
      "ച്ച് ": 1500,
      "റിപ്പോര": 1501,
      "ിൽ ": 1502,
      "എസ": 1503,
      " മണിക്ക": 1504,
      "ുമാണ് ": 1505,
      "13": 1506,
      "വ് ": 1507,
      "ൂക്ഷ": 1508,
      " റിപ്പോര": 1509,
      "ിങ": 1510,
      " അട": 1511,
      " എന്നാണ് ": 1512,
      "ീസ് ": 1513,
      " ഉറപ്പ": 1514,
      "കോ": 1515,
      " പ്രതിക": 1516,
      "ൗര": 1517,
      " പണ": 1518,
      "ഉപ": 1519,
      "വൈ": 1520,
      "ത്തിലുള്ള": 1521,
      " സ്റ്റ": 1522,
      "തീരുമാന": 1523,
      "റല": 1524,
      "ജില്ലയില": 1525,
      "കൂ": 1526,
      "!\n": 1527,
      "ം.": 1528,
      " പ്രതിഷേധ": 1529,
      " പറയുന്നത": 1530,
      " പ്രഖ്യാപ": 1531,
      " വാര": 1532,
      "ധര": 1533,
      "ത്ഥികള": 1534,
      "ക്ടര": 1535,
      "ഇന": 1536,
      "റോണ": 1537,
      "മേര": 1538,
      "ോബ": 1539,
      "്:": 1540,
      " ന്": 1541,
      "ിരുന്നു": 1542,
      "ഗു": 1543,
      " ഒഴ": 1544,
      " കുട്ട": 1545,
      " വഴ": 1546,
      "ഉണ്ട": 1547,
      " പ്രദേശ": 1548,
      " രംഗ": 1549,
      "ുമ്പോള": 1550,
      " പ്രസിഡ": 1551,
      "യെ ": 1552,
      " ഉദ്യ": 1553,
      "25": 1554,
      "കർ": 1555,
      "ിക്കുന്നുണ്ട": 1556,
      " ലോക": 1557,
      " ആരോഗ്യ": 1558,
      "ഹൃ": 1559,
      "റിയിച്ച": 1560,
      " പിട": 1561,
      " ചര": 1562,
      "ൂണ്ടിക്ക": 1563,
      "എണ്ണ": 1564,
      "ത്തിലേക്ക്": 1565,
      "ശ്ശ": 1566,
      " സിന": 1567,
      " സ്ത്ര": 1568,
      " എത്തിയ": 1569,
      " പരിശോധന": 1570,
      "ട്ടിക": 1571,
      "പ്പുഴ": 1572,
      "സ്പ": 1573,
      "പ്രതിക": 1574,
      "ൃഷ്ണ": 1575,
      "ാസ് ": 1576,
      " തര": 1577,
      "ുകളുടെ ": 1578,
      " എന്നിവര": 1579,
      "ി രൂപ": 1580,
      " വന": 1581,
      "ികളില": 1582,
      " ഇറ": 1583,
      "ശങ്ക": 1584,
      "ത്തിലാണ് ": 1585,
      " സമര": 1586,
      "തന്ത്ര": 1587,
      "ിയിരുന്ന": 1588,
      "ിടെ ": 1589,
      "സിറ്റ": 1590,
      "് ബ": 1591,
      " എന": 1592,
      "ക്കാന": 1593,
      "പ്രദേശ": 1594,
      " വർഷ": 1595,
      "എന": 1596,
      "അത്": 1597,
      "ിണറായി ": 1598,
      "മേരിക്ക": 1599,
      "വരെ ": 1600,
      "ി നേത": 1601,
      "ാലയ": 1602,
      "16": 1603,
      "നിയമ": 1604,
      " തുടര": 1605,
      "ക്ഷേപ": 1606,
      "യാണ": 1607,
      " സ്ഥല": 1608,
      "ആവശ്യ": 1609,
      "ഒന്ന": 1610,
      "ിന് ശേഷ": 1611,
      "17": 1612,
      "ും\n": 1613,
      "ിക്കാനുള്ള": 1614,
      " ഏറ്റവ": 1615,
      " ഉള്ള": 1616,
      " മുമ്പ": 1617,
      "ിഫ": 1618,
      "ീഡിയ": 1619,
      "ുന്നതിന്": 1620,
      "ോട്ടയ": 1621,
      " ചേര": 1622,
      "പ്പുറ": 1623,
      "്\n": 1624,
      "ീകരിക്ക": 1625,
      "യിലേക്ക്": 1626,
      " നടന്ന": 1627,
      " ജില്ലാ": 1628,
      "കോട": 1629,
      "േദ": 1630,
      "ുണ്ടായ": 1631,
      "വുമായി ": 1632,
      "െയ്": 1633,
      "ഗോപ": 1634,
      "രാഷ്ട്രീയ": 1635,
      "ഷ്യല": 1636,
      " നാല": 1637,
      "വേശ": 1638,
      "ശേഷ": 1639,
      " ഉത്തര": 1640,
      "ഭാവ": 1641,
      "രക്ഷ": 1642,
      "തിയുടെ ": 1643,
      " ജോല": 1644,
      "ധാ": 1645,
      " ലീ": 1646,
      "ക്കു": 1647,
      "അതേസമയം ": 1648,
      " സംബന്ധ": 1649,
      "ിന് പിന്നാല": 1650,
      " ഉപയോഗ": 1651,
      " പാർട്ട": 1652,
      "ആരോപ": 1653,
      "ാൾ": 1654,
      " നേതൃത്വ": 1655,
      "ൗണ": 1656,
      " പ്രശ": 1657,
      "ൂടുതൽ": 1658,
      "ചില": 1659,
      " ഖ": 1660,
      "അദ്ദേഹ": 1661,
      " തമ്മ": 1662,
      "ിയന്ത്ര": 1663,
      "ണാകുള": 1664,
      "ദ്ര": 1665,
      "ഹമ്മ": 1666,
      "െ,": 1667,
      " മാധ്യമ": 1668,
      "്മ": 1669,
      " ഭാഗ": 1670,
      "റണാകുള": 1671,
      "ീഷണ": 1672,
      "ദില്ല": 1673,
      "ിഷ": 1674,
      " അഞ്ച": 1675,
      " പ്രതിപക്ഷ": 1676,
      "പൊ": 1677,
      "ഭാഷ": 1678,
      " തോ": 1679,
      "രഞ്ഞെടുപ്പ": 1680,
      "ഓഫീ": 1681,
      "ിട്ടുള്ളത": 1682,
      "ാപ്പ": 1683,
      "യിരു": 1684,
      "ി ഇ": 1685,
      "കേന്ദ്ര": 1686,
      "ിക്കറ്റ": 1687,
      "ഭൂ": 1688,
      "ിലീപ": 1689,
      "ഹമ്മദ": 1690,
      " ആവശ്യപ്പെട്ട": 1691,
      "ഞാന": 1692,
      " നീ": 1693,
      "ുണ്ടായിരുന്ന": 1694,
      " ജീവ": 1695,
      "ജീവിത": 1696,
      "വിവര": 1697,
      " വിള": 1698,
      "െക്കുറ": 1699,
      "ഭ്യ": 1700,
      "ിയിലെ ": 1701,
      "്-": 1702,
      "ൃത്യ": 1703,
      "ിക്കുന്നതിന": 1704,
      "ീകരിച്ചത": 1705,
      " കാര്യങ്ങള": 1706,
      "ുകളിൽ": 1707,
      "ം സ്ഥിര": 1708,
      "ത്മ": 1709,
      " സർക്കാർ": 1710,
      " അറ": 1711,
      "ിള": 1712,
      " ഇന": 1713,
      "ിവസം": 1714,
      "വിൽ": 1715,
      " വിദ്യാ": 1716,
      "സ്വാ": 1717,
      " വളര": 1718,
      " താര": 1719,
      "ിലുള്ള": 1720,
      " സംഘടന": 1721,
      "തിരോധ": 1722,
      "ബൈ": 1723,
      " പ്രത്യേക": 1724,
      " നിലപാട": 1725,
      "ൂചന": 1726,
      "ത്തോട": 1727,
      " സി": 1728,
      "രിയ": 1729,
      " കൊല്ല": 1730,
      "തെ": 1731,
      " ചോദ്യ": 1732,
      "ിന്റെ പ": 1733,
      "ത്തേക്ക്": 1734,
      "മോ": 1735,
      "ക്കുന്നത": 1736,
      "മാസ": 1737,
      "പ്രധാന": 1738,
      "ിക്കണ": 1739,
      "ം വര": 1740,
      "്പ": 1741,
      "ക്കെതിര": 1742,
      "മറ്റ": 1743,
      "ത്രയ": 1744,
      " വിമാന": 1745,
      "വസാന": 1746,
      "ാർത്ഥ": 1747,
      " വിധ": 1748,
      " കല": 1749,
      "ിന്റെ അ": 1750,
      "ാമസ": 1751,
      "ലപ്പുഴ": 1752,
      "സ്യ": 1753,
      "പ്പറ": 1754,
      "സെ": 1755,
      " ചികിത്സ": 1756,
      " ഭൂ": 1757,
      "സ്ഥര": 1758,
      " ഉൾ": 1759,
      "സന്ധ": 1760,
      " അടക്ക": 1761,
      " ഉയര": 1762,
      "സാന": 1763,
      " സെക്രട്ടറ": 1764,
      "ി ല": 1765,
      "ിയിലേക്ക്": 1766,
      "വിടെ ": 1767,
      "എന്ത": 1768,
      " മൂന്ന്": 1769,
      "ുകൂല": 1770,
      " പ്രധാനമന്ത്ര": 1771,
      "അതുകൊണ്ട": 1772,
      " സ്വാ": 1773,
      "ൊഴിലാള": 1774,
      "ിസി": 1775,
      "േസ്": 1776,
      " ഇതു": 1777,
      "താര": 1778,
      " മഴ": 1779,
      "ൈക്കോട": 1780,
      " തട": 1781,
      "ോം": 1782,
      "ന്ദര": 1783,
      "സർ": 1784,
      "സ്ഥിര": 1785,
      " തുറ": 1786,
      "േഷൻ": 1787,
      " എതിര": 1788,
      "മെന്ന": 1789,
      "ം രൂപ": 1790,
      "എം": 1791,
      "നാട്ട": 1792,
      "ശ്രമ": 1793,
      " അദ്ദേഹം പറഞ്ഞ": 1794,
      " സിപിഎ": 1795,
      " തിരഞ്ഞെടുപ്പില": 1796,
      "ോവ": 1797,
      "ീമ": 1798,
      "ജ്ജ": 1799,
      " തുടങ്ങിയ": 1800,
      "യിരുത്ത": 1801,
      "40": 1802,
      "െത്തിയത": 1803,
      " കുറ്റ": 1804,
      "യാത്ര": 1805,
      "ളി": 1806,
      "കുന്ന": 1807,
      "മ്പര": 1808,
      "ാക്കാന": 1809,
      "വിധാന": 1810,
      "ിഴ": 1811,
      "ിമാര": 1812,
      "ൗണ്ട": 1813,
      " വീട": 1814,
      " സഹായ": 1815,
      "ഭ്യാ": 1816,
      "ലില": 1817,
      " മാര": 1818,
      "ഹു": 1819,
      "മൂന്ന്": 1820,
      "ജില്ലാ": 1821,
      "ദാന": 1822,
      " മീഡിയ": 1823,
      " പ്രതീക്ഷ": 1824,
      " അറിയിച്ച": 1825,
      "പാര": 1826,
      " തെള": 1827,
      "മുന": 1828,
      "പോ": 1829,
      "ില്ലാത്ത": 1830,
      "ആരോഗ്യ": 1831,
      "വാര": 1832,
      "ിപ്പോർട്ട": 1833,
      "സൈ": 1834,
      "ികസന": 1835,
      "മായി പ": 1836,
      "ിസ് ": 1837,
      "മാണെന്ന": 1838,
      "23": 1839,
      " മണ": 1840,
      "വ്വ": 1841,
      "നയ": 1842,
      "200": 1843,
      "് കു": 1844,
      "ജനങ്ങള": 1845,
      "ാഷ്ട്ര": 1846,
      "പ്ല": 1847,
      "ിന്ദ": 1848,
      "പല": 1849,
      "ത് ": 1850,
      "നം ": 1851,
      "രാജയ": 1852,
      "െയാണ": 1853,
      "ം നൽക": 1854,
      "ഗ് ബ": 1855,
      "മൂഹ": 1856,
      "ുപ്പ": 1857,
      "കുട": 1858,
      " എന്നത": 1859,
      " മുൻ": 1860,
      " സമ്മ": 1861,
      "നേരത്തെ ": 1862,
      " എന്നി": 1863,
      "ശാ": 1864,
      "ിയാണ": 1865,
      "നക്കാര": 1866,
      "ന്നയ": 1867,
      " പഞ്ചായ": 1868,
      "പണ": 1869,
      " ആള": 1870,
      "തിയിൽ": 1871,
      "രാഹുല": 1872,
      "േഷ് ": 1873,
      "വശ": 1874,
      "പ്പള്ള": 1875,
      "ത്തെ പ": 1876,
      "മരണ": 1877,
      "ർത്ഥ": 1878,
      "ൂഹ": 1879,
      "22": 1880,
      "ോജ": 1881,
      " ചോദ": 1882,
      "വ്": 1883,
      "്ട്ര": 1884,
      "ത്തെ ക": 1885,
      "തയ": 1886,
      "ട്ടിയ": 1887,
      " ബി": 1888,
      "ഭ്യാസ": 1889,
      "ബ്ല": 1890,
      "രേന്ദ്ര": 1891,
      "ദിവസ": 1892,
      "ത്താവ": 1893,
      "ിണറായി വിജയ": 1894,
      "തര": 1895,
      " മരണ": 1896,
      " ക്യ": 1897,
      "വർക്ക്": 1898,
      "ിരുദ്ധ": 1899,
      "ംത": 1900,
      "പേക്ഷ": 1901,
      "ായക": 1902,
      " മര": 1903,
      "ി ഡ": 1904,
      "മാറിയ": 1905,
      "ുക്കള": 1906,
      " ദിവസം": 1907,
      " അയ": 1908,
      " കോൺഗ്രസ് ": 1909,
      "ിവാക്ക": 1910,
      " വീണ്ട": 1911,
      "ഡിഎഫ് ": 1912,
      "ണങ്ങള": 1913,
      "ശൂര": 1914,
      "ി മു": 1915,
      " സുരക്ഷ": 1916,
      "ിൽ നിന്ന്": 1917,
      "് ഇ": 1918,
      "സാ": 1919,
      "േറ്റ് ": 1920,
      " കൊവിഡ് ": 1921,
      "നവ": 1922,
      "ആർ": 1923,
      "പ്പില": 1924,
      "വയ": 1925,
      "ുമാണ": 1926,
      "ിക്കുകയായിരുന്ന": 1927,
      "എൽ": 1928,
      "എഫ": 1929,
      "ർന്ന്": 1930,
      " ജയ": 1931,
      "ക്കിയ": 1932,
      "ത്തിലൂട": 1933,
      "ഇതോടെ ": 1934,
      " മണിക്കൂറ": 1935,
      " സ്ത്രീ": 1936,
      "ക്തി": 1937,
      "ം സ്വദേശ": 1938,
      "നാട": 1939,
      " നേട്ട": 1940,
      " രാഹുല": 1941,
      "തായി ": 1942,
      "ഒഴ": 1943,
      " അവസര": 1944,
      "കേസ": 1945,
      "ിൽ നിന്ന": 1946,
      "ി യ": 1947,
      " ആരംഭ": 1948,
      "ത്തു": 1949,
      " കോവിഡ് ": 1950,
      " വരെ ": 1951,
      "പാത": 1952,
      "പ്രവർത്ത": 1953,
      "ീഴ": 1954,
      " കെ": 1955,
      "വിന": 1956,
      "ൻ്റ": 1957,
      "പ്പെടുന്നത": 1958,
      " വ്യാപ": 1959,
      "അന": 1960,
      "രാശ": 1961,
      "സിപിഎ": 1962,
      " ഇവര": 1963,
      " എല": 1964,
      " കോടി രൂപ": 1965,
      "ധാകര": 1966,
      " ഘട്ട": 1967,
      "ചിത്ര": 1968,
      "വോട്ട": 1969,
      "ങ്ങൾക്ക": 1970,
      " ക്ര": 1971,
      "ങ്ക്": 1972,
      "ങ്ങനെ ": 1973,
      " കോളേജ": 1974,
      "് വര": 1975,
      "ുവന്ന": 1976,
      "ം ബ": 1977,
      "സ്ഥാനാര": 1978,
      "ഉത്തര": 1979,
      "ിന് ": 1980,
      "ൈം": 1981,
      "ല്ല.\n": 1982,
      "ന്തോഷ": 1983,
      ", പ": 1984,
      " പേർ": 1985,
      "അടുത്ത": 1986,
      "ദിന": 1987,
      "ൈസ": 1988,
      "ദ്യാര": 1989,
      "ഗത": 1990,
      " രാശ": 1991,
      "ിച്ച് പ": 1992,
      "ിക്കൽ": 1993,
      " ഞാന": 1994,
      "െ കണ്ട": 1995,
      "..\n": 1996,
      "മറ": 1997,
      "ാവസ്ഥ": 1998,
      "മായിരുന്നു": 1999,
      "ക്കര": 2000,
      " സംസാര": 2001,
      "ന്നല": 2002,
      "ത്തോള": 2003,
      "പെട": 2004,
      "ോഴിക്കോട് ": 2005,
      "ൻസ": 2006,
      "ി സ്വദേശ": 2007,
      " പിന്തുണ": 2008,
      " പൊലീസ് ": 2009,
      "ൊല": 2010,
      "ിട്ടുള്ള": 2011,
      "ോ?\n": 2012,
      "ദേവ": 2013,
      "വിവിധ": 2014,
      " നിയന്ത്ര": 2015,
      " വാഹ": 2016,
      " അര": 2017,
      "ണാടക": 2018,
      "ത്തനംത": 2019,
      "ത്തനംതിട്ട": 2020,
      "26": 2021,
      " അതി": 2022,
      "ിരുന്നത": 2023,
      "സംഗ": 2024,
      " അവസാന": 2025,
      " ശ്രദ്ധ": 2026,
      "ോഡ് ": 2027,
      " പഠ": 2028,
      " അല": 2029,
      "പാല": 2030,
      "28": 2031,
      "ാഷ": 2032,
      "െറിയ": 2033,
      "ാണ് ഈ": 2034,
      "ിൻ്റ": 2035,
      " മാന": 2036,
      "പുതിയ": 2037,
      "വലിയ": 2038,
      " ഓഫീ": 2039,
      " നമ്മ": 2040,
      " വെള്ള": 2041,
      " അപേക്ഷ": 2042,
      "27": 2043,
      " സമീപ": 2044,
      " വെച്ച": 2045,
      "ുവെന്ന്": 2046,
      " സാഹചര്യത്തില": 2047,
      "ിബ": 2048,
      "സ്സില": 2049,
      " നഷ്ട": 2050,
      " ബി ജെ പ": 2051,
      " പ്രകാര": 2052,
      " പ്രവേശ": 2053,
      "ഇത്തര": 2054,
      "കാന": 2055,
      " നല്ല": 2056,
      "തിനാല": 2057,
      " തവണ": 2058,
      " ലഭിക്ക": 2059,
      "സാധ": 2060,
      " മറ്റ് ": 2061,
      "ആരംഭ": 2062,
      "ിച്ചാല": 2063,
      "ക്കാരിന്റെ ": 2064,
      "ൂ.\n": 2065,
      "മ്മാന": 2066,
      "വ്യാപ": 2067,
      "മെഡ": 2068,
      "് പേര": 2069,
      " രീതിയില": 2070,
      " ക്ല": 2071,
      "കൂള": 2072,
      "്‍:": 2073,
      "പ്രതീക്ഷ": 2074,
      "ഇതില": 2075,
      "ുടേയ": 2076,
      " താല": 2077,
      " അനുവദ": 2078,
      "മെന്ന്": 2079,
      "ിയായി ": 2080,
      "അവ": 2081,
      "ീഡ": 2082,
      "ിനി (": 2083,
      " വൈറ": 2084,
      " മറുപ": 2085,
      "താന": 2086,
      "ി ട": 2087,
      "ഇതുവര": 2088,
      " മുതൽ": 2089,
      "ൂണ്ടിക്കാട്ട": 2090,
      "െ ച": 2091,
      "ാക്കൾ": 2092,
      " രേഖ": 2093,
      "ബ്ദ": 2094,
      "ക്കള": 2095,
      " പൂര": 2096,
      "രേഖ": 2097,
      "ം ഏ": 2098,
      " ഒരാള": 2099,
      " - ": 2100,
      "ഡ്": 2101,
      "നുഷ്യ": 2102,
      "്‌.\n": 2103,
      "ൊട്ട": 2104,
      "ചെയ്തത": 2105,
      "ിർ": 2106,
      "ഘോഷ": 2107,
      "ീത": 2108,
      " കോടതി ": 2109,
      "സുര": 2110,
      " തിരുവനന്തപുര": 2111,
      "ിപ്പിച്ചത": 2112,
      "ുമ്പോൾ": 2113,
      "പ്പ് ": 2114,
      " അവരുടെ ": 2115,
      "നേ": 2116,
      "വാറ": 2117,
      "മത്സര": 2118,
      "000": 2119,
      " അഭ": 2120,
      "രംഗത്ത": 2121,
      "ബര": 2122,
      "ിസ്റ്റ": 2123,
      " മത": 2124,
      " ശക്തമായ": 2125,
      "- ": 2126,
      "ീറ്റ് ": 2127,
      "മൂല": 2128,
      " സ്വര": 2129,
      "കുറ": 2130,
      "റിയിപ്പ": 2131,
      " പരിപാട": 2132,
      " ഫല": 2133,
      "21": 2134,
      "അവര": 2135,
      "സംസാര": 2136,
      "ക്ക് ": 2137,
      "മാണെന്ന്": 2138,
      " ബ്ര": 2139,
      "ോഷ്യല": 2140,
      "വ്യ": 2141,
      "ഗ്രസിന": 2142,
      "ി നിര": 2143,
      "ുമതല": 2144,
      "പൂര": 2145,
      "ഗ്രസിന്": 2146,
      " നയ": 2147,
      " മികച്ച": 2148,
      "ച്": 2149,
      "ം ഒരു": 2150,
      " പങ്കെടുത്ത": 2151,
      " നിരീക്ഷണ": 2152,
      "ൃഷ്ട": 2153,
      "നത്തില": 2154,
      "രിത്ര": 2155,
      "നാട് ": 2156,
      "െന": 2157,
      "മാധ്യമ": 2158,
      "ങ്ങിയത": 2159,
      "ുള്ളവര": 2160,
      "ാഫ": 2161,
      "ചന്ദ്ര": 2162,
      "് നല": 2163,
      "ു\n": 2164,
      " ഇര": 2165,
      " എസ് ": 2166,
      " ബു": 2167,
      "മൂന്ന": 2168,
      "മീപ": 2169,
      "യർ": 2170,
      " അല്ല": 2171,
      " പ്രധാന": 2172,
      " ആറ": 2173,
      "ഉദ്യ": 2174,
      " നഗര": 2175,
      "നങ്ങൾ": 2176,
      "്ത്": 2177,
      " ഇത്തര": 2178,
      "ഡി": 2179,
      " അധ്യക്ഷ": 2180,
      "ച്ഛ": 2181,
      " '": 2182,
      "പ്റ്റ": 2183,
      "ോഴിക്കോട": 2184,
      "എഇ": 2185,
      "രള": 2186,
      "െ നട": 2187,
      "ാവ് ": 2188,
      "നിർ": 2189,
      "വീട": 2190,
      "ദവ": 2191,
      "ജ്ഞ": 2192,
      "സ്ര": 2193,
      "ാമൂഹ": 2194,
      " സ്വന്ത": 2195,
      "രിപക്ഷ": 2196,
      "സംസ്ഥാനത്ത്": 2197,
      " സംവിധാന": 2198,
      "വാള": 2199,
      "പക്ഷേ": 2200,
      "ം;": 2201,
      "ിലാണ് ": 2202,
      "ിക്കുമെന്ന": 2203,
      "നിലവില": 2204,
      "തന്നെ ": 2205,
      "കരണ": 2206,
      " കിട്ട": 2207,
      " വർ": 2208,
      "ക്ഷേത്ര": 2209,
      "നല": 2210,
      "കിയത": 2211,
      "ാ ": 2212,
      "കര്യ": 2213,
      "പിന്നീട": 2214,
      "ിപത്യ": 2215,
      "ുന്നവര": 2216,
      " അധികാര": 2217,
      "നാല": 2218,
      " അടുത്ത": 2219,
      "ക്കാല": 2220,
      "ബല": 2221,
      "ിന്റ": 2222,
      " മുസ്ല": 2223,
      "ക്കാരിന": 2224,
      "ക്ടർ": 2225,
      " രണ്ട് ": 2226,
      "ഗസ്ഥര": 2227,
      " ബാധ": 2228,
      "സംബന്ധ": 2229,
      "ക്ല": 2230,
      "മാണ് ക": 2231,
      " മെഡ": 2232,
      " പോസ്റ്റ": 2233,
      " മോ": 2234,
      "ിച്ചിരിക്കുന്നത": 2235,
      " നിലയില": 2236,
      "തില": 2237,
      "െ.\n": 2238,
      "വഴ": 2239,
      "ാക്കിയത": 2240,
      "രായ": 2241,
      "ശ്രീ": 2242,
      "60": 2243,
      " സാമ്പത്തിക": 2244,
      " നിരവധ": 2245,
      "റാ": 2246,
      "് പോ": 2247,
      "രാധ": 2248,
      "പ്രതികരണ": 2249,
      "ശ്ശേര": 2250,
      "റസ്റ്റ് ": 2251,
      "സിന്": 2252,
      " കൂടുതൽ": 2253,
      "ധികാര": 2254,
      " തന്റെ ": 2255,
      "കൊച്ച": 2256,
      "ിക്കേണ്ട": 2257,
      "ാത്തല": 2258,
      " ഉണ്ടാക": 2259,
      " പ്ല": 2260,
      "ുമുണ്ട": 2261,
      "തുപ": 2262,
      "തിരിച്ച": 2263,
      " എറണാകുള": 2264,
      " ആരോപണ": 2265,
      "ിയിട്ടുണ്ട": 2266,
      "സ്താവ": 2267,
      "പ്യ": 2268,
      "ോക്ക്": 2269,
      "പ്രാ": 2270,
      "രേന്ദ്ര മോദ": 2271,
      " പോലീസ": 2272,
      "പ്രതിപക്ഷ": 2273,
      " സാ": 2274,
      " മൂന്ന": 2275,
      " ഗ്രൂപ്പ": 2276,
      "ത്താന": 2277,
      "ർ ": 2278,
      "ുകയാണ് ": 2279,
      "പടിയ": 2280,
      "ിമാ": 2281,
      "േഴ": 2282,
      "ോ എന്ന": 2283,
      "വീട്ട": 2284,
      "ൃശ്യ": 2285,
      "ിപ്പിക്കാന": 2286,
      "റിഞ്ഞ": 2287,
      " വിട്ട": 2288,
      "മിന": 2289,
      " കരു": 2290,
      " വിദേശ": 2291,
      "ൊക്കെ ": 2292,
      " ഉണ്ടായിരുന്ന": 2293,
      " മഹ": 2294,
      " ജനങ്ങള": 2295,
      "ിട്ട് ": 2296,
      "ശ്ചാത്തല": 2297,
      "ംബര": 2298,
      "ൃത്ത": 2299,
      "ം കണ്ട": 2300,
      "കൈ": 2301,
      "ിതാ": 2302,
      "തുടങ്ങിയ": 2303,
      " സമ്പർക്ക": 2304,
      "29": 2305,
      "െറ്റ": 2306,
      "ഖില": 2307,
      " കമ്പന": 2308,
      "ം കൂട": 2309,
      " കേരളത്തില": 2310,
      "തിനി": 2311,
      " ലഭിച്ച": 2312,
      "വിറ്റ": 2313,
      " നേരത്തെ ": 2314,
      "ിഐ": 2315,
      "്‍-": 2316,
      "ക്ടറ": 2317,
      "െയിന": 2318,
      "വാക": 2319,
      "കുമാര": 2320,
      " പറ്റ": 2321,
      " വാർ": 2322,
      " താഴ": 2323,
      "ഇരു": 2324,
      " തെരഞ്ഞെടുപ്പ": 2325,
      " യുവ": 2326,
      "മ്മന": 2327,
      " സമയത്ത്": 2328,
      "ആശുപത്ര": 2329,
      "നാഥ": 2330,
      "ുരു": 2331,
      "ശ്രദ്ധ": 2332,
      "മെന്റ് ": 2333,
      " ശര": 2334,
      "ശക്തമായ": 2335,
      "ുതി ": 2336,
      "സി ": 2337,
      "ക്സി": 2338,
      "െ കാണ": 2339,
      "ിക്കുക.\n": 2340,
      " പരിശോധ": 2341,
      "െടുത്ത്": 2342,
      "ം നടത്തിയ": 2343,
      "െ പ്ര": 2344,
      "ായി ക": 2345,
      "പ്പെടെയുള്ള": 2346,
      "േന്ദ്രന": 2347,
      "രിക്കല": 2348,
      "ിപ്പോർട്ട് ": 2349,
      "വീട്ടില": 2350,
      " സംസ്ഥാനത്ത്": 2351,
      "ാഞ്ച": 2352,
      "ചരണ": 2353,
      "ഞ്ജ": 2354,
      " വീഡിയോ": 2355,
      " സ്ഥാനാര": 2356,
      " എല്ല": 2357,
      "ു എന്ന": 2358,
      " പേ": 2359,
      "ത്തിനുള്ള": 2360,
      " പുര": 2361,
      "െയില": 2362,
      " പറഞ്ഞത": 2363,
      "ി നല": 2364,
      "ണയ": 2365,
      "യോ": 2366,
      "ാത്": 2367,
      "ൈവ": 2368,
      "35": 2369,
      "ം കുറ": 2370,
      "ഉള്ള": 2371,
      "റിന": 2372,
      "ോദര": 2373,
      " പുറത്ത്": 2374,
      "ജിസ്റ്റ": 2375,
      " തീര": 2376,
      "ികാര": 2377,
      " രക്ഷ": 2378,
      " കണക്ക": 2379,
      " ചർച്ച": 2380,
      "ക്കുമ": 2381,
      " മലയാള": 2382,
      " ആളുകള": 2383,
      "ൂര്യ": 2384,
      "ണിയ": 2385,
      " കമ്മിറ്റ": 2386,
      "വിവാഹ": 2387,
      " സംശയ": 2388,
      " ഡി എ": 2389,
      "ം പേര": 2390,
      "ി-": 2391,
      " ആശങ്ക": 2392,
      "രിത": 2393,
      "ിക്ഷ": 2394,
      "ർജ": 2395,
      "ൃതദേഹ": 2396,
      "മ്പള": 2397,
      " ജീവിത": 2398,
      "റുകള": 2399,
      "വകുപ്പ": 2400,
      "കളുടെ ": 2401,
      "ിക്കുന്നവര": 2402,
      "തീര": 2403,
      "ിപ്പിക്കുന്നത": 2404,
      " പൊതു": 2405,
      "് പറയ": 2406,
      "ചാര": 2407,
      "ധീന": 2408,
      "ം മാത്ര": 2409,
      "ില്ലെന്നാണ് ": 2410,
      " പ്രതിസന്ധ": 2411,
      "ിത്തല": 2412,
      "ീധര": 2413,
      "ക്കാർ": 2414,
      "ിയങ്ക": 2415,
      " അവകാശ": 2416,
      "ഇക്കാര്യ": 2417,
      " ഇരു": 2418,
      "കളിൽ": 2419,
      "ഞ്ചാബ": 2420,
      "സിന്റെ ": 2421,
      "ന്മാര": 2422,
      "ഭാഗമായി ": 2423,
      "ചോദ്യ": 2424,
      "യർന്ന": 2425,
      "സൗ": 2426,
      "ോക്": 2427,
      "സ്തു": 2428,
      " .\n": 2429,
      "100": 2430,
      "യുള്ള": 2431,
      "െ നിര": 2432,
      "ചയ": 2433,
      "െന്നിത്തല": 2434,
      "ശ്വര": 2435,
      "േക്കുള്ള": 2436,
      "ഗ്രസിന്റെ ": 2437,
      "െ കുറിച്ച് ": 2438,
      "45": 2439,
      "ിടിച്ച": 2440,
      "ാടന": 2441,
      " ജില്ലയില": 2442,
      " ഉണ്ടായ": 2443,
      "ോഭ": 2444,
      " ഇപ്പോള": 2445,
      " ഡി": 2446,
      "ചെയ്യുന്ന": 2447,
      "തന്റെ ": 2448,
      " വീത": 2449,
      "്ക്ക്": 2450,
      " ഡോ": 2451,
      " ലീഗ": 2452,
      " പകര": 2453,
      "ാധിപത്യ": 2454,
      "ക്കെതിരെ ": 2455,
      "ിമയ": 2456,
      "് കമ്മ": 2457,
      " തെറ്റ": 2458,
      "ശു": 2459,
      "ഞാൻ": 2460,
      "ജോല": 2461,
      " \"": 2462,
      "യുഡിഎഫ": 2463,
      "ദയ": 2464,
      " സിനിമ": 2465,
      "ിക്കുകയാണ് ": 2466,
      "ശ്വസ": 2467,
      "തുടർന്ന്": 2468,
      "ഇത്തവണ": 2469,
      "ണല": 2470,
      "ിപ്പിക്കുന്ന": 2471,
      "സ്വന്ത": 2472,
      "രാട്ട": 2473,
      "മലയാള": 2474,
      " കേസില": 2475,
      "്;": 2476,
      "്‍.": 2477,
      "ിക്കൊണ്ട": 2478,
      " മാത്രമാണ് ": 2479,
      "ായി പ": 2480,
      "് വി": 2481,
      ")\n": 2482,
      "ചേര": 2483,
      "ാഗ്ര": 2484,
      "നീ": 2485,
      "ിന്ത": 2486,
      "ുകളാണ് ": 2487,
      "ിച്ചുള്ള": 2488,
      "ങ്ങളാണ് ": 2489,
      " ഇതിന": 2490,
      "വീണ്ട": 2491,
      "ിടയില": 2492,
      "േറെ ": 2493,
      " വിശദ": 2494,
      "ഭ്യന്തര": 2495,
      "പാതക": 2496,
      " ആഗ്രഹ": 2497,
      "സ്ഥാപ": 2498,
      "ം കൊണ്ട": 2499,
      "ത് എന്ന": 2500,
      " പൂ": 2501,
      " അതിന": 2502,
      "ഓരോ": 2503,
      " മുന്നില": 2504,
      "ഷൻ": 2505,
      " സൈ": 2506,
      " അഭിപ്രായ": 2507,
      "കടന": 2508,
      "ൈനിക": 2509,
      " അനുമ": 2510,
      "മോദ": 2511,
      "ി റ": 2512,
      "ച്ചയ": 2513,
      " സഖ്യ": 2514,
      " വിവാദ": 2515,
      " രംഗത്ത": 2516,
      "മുക്ത": 2517,
      "മിഴ": 2518,
      "ുള": 2519,
      "സംഘടന": 2520,
      "സ്താവന": 2521,
      " നോക്ക": 2522,
      " മാറ": 2523,
      " ദു": 2524,
      " പ്രസിഡന്റ": 2525,
      "ങ്ങളെ ": 2526,
      "ാവശ്യ": 2527,
      "ോൺഗ്രസ് ": 2528,
      "ഉയര": 2529,
      "അന്വേഷണ": 2530,
      "ത്തിനായി ": 2531,
      "ത്തോടെ ": 2532,
      " എണ്ണ": 2533,
      "ോ,": 2534,
      "ക്കട": 2535,
      " മൊ": 2536,
      "മിത്": 2537,
      "പകട": 2538,
      " വരു": 2539,
      "ി നട": 2540,
      "കൊവിഡ് ": 2541,
      " ,": 2542,
      "ലൈ": 2543,
      " കണ്ടെത്ത": 2544,
      " നടപടികള": 2545,
      "മായത": 2546,
      " ഇത്തവണ": 2547,
      "ുറ്റ": 2548,
      "ക്കാട് ": 2549,
      "ംഘ": 2550,
      "ണമെന്നാണ് ": 2551,
      " കൊറോണ": 2552,
      "ദായ": 2553,
      "ടുത്ത്": 2554,
      "െടുപ്പ": 2555,
      " തുടങ്ങ": 2556,
      "ം കൊ": 2557,
      " യുഡിഎഫ": 2558,
      "ഇവിട": 2559,
      "നമ്മ": 2560,
      " കാ": 2561,
      "ുപോക": 2562,
      "ഫേസ്": 2563,
      "ഷിക": 2564,
      "സ് പ": 2565,
      "് നിര": 2566,
      "തി നല": 2567,
      " ദിന": 2568,
      "ഇപ്പോള": 2569,
      "ലൈന": 2570,
      "ോഹന": 2571,
      " എല്ലാവര": 2572,
      "എൻ": 2573,
      " മെ": 2574,
      "ോണിയ": 2575,
      " വാക": 2576,
      "ിക്കുമെന്ന്": 2577,
      "ത്തനങ്ങള": 2578,
      "ം പരി": 2579,
      "രാമ": 2580,
      "ം നില": 2581,
      "ബുക്ക": 2582,
      " താമസ": 2583,
      " വ്യാ": 2584,
      "ട്ടുകള": 2585,
      "ിക്കുക": 2586,
      "ോടൊപ്പ": 2587,
      " ബാല": 2588,
      "ടെ": 2589,
      "സഹായ": 2590,
      "ുവിള": 2591,
      " കേസ് ": 2592,
      "പരാ": 2593,
      "മാവ": 2594,
      " സ്വദേശി (": 2595,
      " എന്റെ ": 2596,
      "ുമുള്ള": 2597,
      "31": 2598,
      "ം നിര": 2599,
      "സഭാ തിരഞ്ഞെടുപ്പ": 2600,
      " മേഖലയില": 2601,
      " അമേരിക്ക": 2602,
      "ിനു": 2603,
      "െടുത്തത": 2604,
      "ിന്റെയ": 2605,
      "പരമായ": 2606,
      "സ് ക": 2607,
      " വിവാഹ": 2608,
      "ആയ": 2609,
      "ക്കാണ് ": 2610,
      "ിക്കപ്പെട്ട": 2611,
      "ിക്കറ്റ് ": 2612,
      " ടെ": 2613,
      "തന്ന": 2614,
      "ദി": 2615,
      "ിക്കണമെന്ന": 2616,
      "പ്രസിഡ": 2617,
      " ദേശീയ": 2618,
      " അവർ": 2619,
      " ചെയ്തിരുന്ന": 2620,
      "കേരളത്തില": 2621,
      " ൽ": 2622,
      "ില്ല എന്ന": 2623,
      "ഹാരാഷ്ട്ര": 2624,
      "മിത": 2625,
      " താന": 2626,
      " ചൈന": 2627,
      "തുപക്ഷ": 2628,
      "ണം എന്ന": 2629,
      " പ്രശ്": 2630,
      "ൂരില": 2631,
      "ം വ്യക്തമാക്ക": 2632,
      "ചികിത്സ": 2633,
      "ശര": 2634,
      "െ\n": 2635,
      "തിനിധ": 2636,
      "ദിലീപ": 2637,
      "ില്ലെങ്കില": 2638,
      " ഹര": 2639,
      "അഭി": 2640,
      " ഒറ്റ": 2641,
      " നടക്കുന്ന": 2642,
      "ാമ്യ": 2643,
      "ോ.": 2644,
      " ആക്രമണ": 2645,
      "രണ്ട് ": 2646,
      "രുടെ ": 2647,
      " നാട്ട": 2648,
      "വർണ": 2649,
      "ബുക്ക്": 2650,
      " കില": 2651,
      "ിവെച്ച": 2652,
      "ികൾക്ക്": 2653,
      "ഉപയോഗ": 2654,
      "ളവ": 2655,
      "ഇതിന്": 2656,
      " രാവിലെ ": 2657,
      " ദിവസം ": 2658,
      "വായ": 2659,
      "മേയ": 2660,
      "മുസ്ല": 2661,
      "തരണ": 2662,
      "ിനെ പ": 2663,
      "മായിരിക്ക": 2664,
      "മേശ": 2665,
      "വസ്ഥ": 2666,
      "് കേസ": 2667,
      "കണ്ണൂര": 2668,
      "ഗിക": 2669,
      "ൊലീസ് ": 2670,
      "ിക്കെതിര": 2671,
      " എടുത്ത": 2672,
      "റിന്റെ ": 2673,
      "പ്രധാനമന്ത്ര": 2674,
      "സ്റ്റില": 2675,
      "ിച്ചിട്ട": 2676,
      " കണ്ണൂര": 2677,
      "ങ്ങളിലെ ": 2678,
      "ദ്ഘ": 2679,
      "ം സ്ഥിരീകരിച്ച": 2680,
      "പ്രഖ്യാപ": 2681,
      " എന്നീ": 2682,
      "ഡ്ര": 2683,
      "ക്സിന": 2684,
      " എൻ": 2685,
      "ുരന്ത": 2686,
      " എംഎല": 2687,
      "സർക്കാർ": 2688,
      "വിശ്വാസ": 2689,
      "ി പരി": 2690,
      " ശേഷം ": 2691,
      " ആന": 2692,
      " ഏറ്റ": 2693,
      " കണ്ണ": 2694,
      " കുറഞ്ഞ": 2695,
      "ഫ്": 2696,
      " എഴ": 2697,
      " ആലപ്പുഴ": 2698,
      " ഇപ്പോഴ": 2699,
      "ഗ്രസില": 2700,
      "ായാല": 2701,
      " ആശുപത്രിയില": 2702,
      "േബ": 2703,
      "തുമ": 2704,
      "ലാല": 2705,
      " വിവിധ": 2706,
      "രുതര": 2707,
      "ാതിര": 2708,
      "ക്കാട": 2709,
      "ിയാഴ്ച": 2710,
      "ബി ജെ പ": 2711,
      "ഔദ്യ": 2712,
      "ാവുന്ന": 2713,
      "കാരണ": 2714,
      "ഭാര്യ": 2715,
      " സ്ഥാപന": 2716,
      " സാധ്യതയുണ്ട": 2717,
      "എമാര": 2718,
      "ഭാര": 2719,
      "ാമെന്ന": 2720,
      "പ്പട": 2721,
      "രളീധര": 2722,
      "ൽഹ": 2723,
      " ചടങ്ങ": 2724,
      " പിന്നീട": 2725,
      "മർശ": 2726,
      " ള": 2727,
      "ഗ്രാമ": 2728,
      "പ്പെടുത്തിയത": 2729,
      " നടക്ക": 2730,
      "80": 2731,
      "ുപോല": 2732,
      "70": 2733,
      "ഫ്ര": 2734,
      " അപകട": 2735,
      "ക്കുള്ള": 2736,
      "എന്ന്": 2737,
      "ന്നി": 2738,
      "സ്വര": 2739,
      "മുക്ക്": 2740,
      " പങ്കെടുക്ക": 2741,
      "പ്പിച്ച": 2742,
      "ി പിണറായി വിജയ": 2743,
      " ഞാൻ": 2744,
      " പങ്കുവ": 2745,
      "നടപട": 2746,
      "ി ഹ": 2747,
      "േരിട": 2748,
      "േഷനില": 2749,
      "ംഗാള": 2750,
      "രാജ്യത്ത്": 2751,
      "ണായക": 2752,
      "ശിവ": 2753,
      " വാങ്ങ": 2754,
      "ി;": 2755,
      " പാ": 2756,
      " സന്തോഷ": 2757,
      "ിനെതിര": 2758,
      "െയായിരുന്നു": 2759,
      "വിഭാഗ": 2760,
      "ഇറ": 2761,
      "ൂത്ത്": 2762,
      "െ നിയമ": 2763,
      "ത്താവള": 2764,
      " കിട": 2765,
      "പ്പാക്ക": 2766,
      " ആണ് ": 2767,
      "ംസ": 2768,
      " സമ്മാന": 2769,
      "േഖര": 2770,
      "ാറില": 2771,
      "ുണ്ടാക": 2772,
      "ുപോയ": 2773,
      "ണു": 2774,
      "ദഗ്": 2775,
      "പു": 2776,
      "ഭര": 2777,
      " രാത്ര": 2778,
      "റ്റില": 2779,
      "ി വന്ന": 2780,
      " സൗകര്യ": 2781,
      "ഴുവന": 2782,
      " കെട്ട": 2783,
      " ഭാര": 2784,
      "സ്ത്രീ": 2785,
      "ൂച": 2786,
      "ലുകള": 2787,
      "ം തന്നെ ": 2788,
      " നിയമസഭ": 2789,
      "ടക": 2790,
      "ട്": 2791,
      " നായ": 2792,
      "ം ബാധ": 2793,
      " ലക്ഷം രൂപ": 2794,
      " പ്രവ": 2795,
      "മുൻ": 2796,
      "നത്ത": 2797,
      "നത്തിന്": 2798,
      " നിങ്ങള": 2799,
      "ന്ദർ": 2800,
      "മൊരു": 2801,
      " വിമര": 2802,
      "ിക്കുന്നതിന്": 2803,
      " അനുകൂല": 2804,
      " വിദ്യാഭ്യാസ": 2805,
      "വിലയിരുത്ത": 2806,
      "ഹിത": 2807,
      "ി രാജ": 2808,
      " ഏക": 2809,
      "ധികൃത": 2810,
      "ണര": 2811,
      "യറ്റ": 2812,
      "സ്രായ": 2813,
      "ക്കായി ": 2814,
      " വികസന": 2815,
      " തെളിവ": 2816,
      "ആറ": 2817,
      "ിമു": 2818,
      " വരുന്ന": 2819,
      "ഫോണ": 2820,
      "ച്ചത": 2821,
      " പട്ടിക": 2822,
      "പ്പെടെ ": 2823,
      "ട്ടിഫ": 2824,
      " മനുഷ്യ": 2825,
      " മലപ്പുറ": 2826,
      "ദര": 2827,
      "ം തന്ന": 2828,
      "ൊഴിലാളികള": 2829,
      "മിത് ഷ": 2830,
      "ഹുൽ": 2831,
      "ശീല": 2832,
      "പെട്ട": 2833,
      "വിദേശ": 2834,
      "ച്ചു": 2835,
      " ദിലീപ": 2836,
      " വാദ": 2837,
      " പറഞ്ഞിരുന്ന": 2838,
      "ജിസ": 2839,
      "ഡല": 2840,
      " ഒഴിവാക്ക": 2841,
      "കാ": 2842,
      "െ പോ": 2843,
      " ഇക്കാര്യ": 2844,
      "ത്ത് നിന്ന്": 2845,
      "ത്തെ അ": 2846,
      "തുടങ്ങ": 2847,
      "ആണ": 2848,
      "രൂക്ഷ": 2849,
      "വശ്യപ്പെട്ട": 2850,
      "ികളായ": 2851,
      "ശ്മ": 2852,
      "ധാകരന": 2853,
      "കെ": 2854,
      "നുവദ": 2855,
      "്'": 2856,
      "വളര": 2857,
      "നേഹ": 2858,
      "ഘടന": 2859,
      "ടിച്ച": 2860,
      "ിങ്ങ": 2861,
      " കൃത്യ": 2862,
      "ൂട്ടിച്ച": 2863,
      "ി സ്വ": 2864,
      " സമൂഹ": 2865,
      "ട്ടിപ്പ": 2866,
      "കരമായ": 2867,
      "ുവിന്റെ ": 2868,
      "് തന്നെ ": 2869,
      "ബിഗ് ബ": 2870,
      "െ പരി": 2871,
      " വൈക": 2872,
      "െന്റ": 2873,
      "മാല": 2874,
      "ാണ് മ": 2875,
      " അധ": 2876,
      " പുരു": 2877,
      " ഇടുക്ക": 2878,
      " കീഴ": 2879,
      " സുപ്ര": 2880,
      " സീറ്റുകള": 2881,
      " തന്നെയാണ് ": 2882,
      "ഷകര": 2883,
      "ിൽക്ക": 2884,
      "പര്യ": 2885,
      "പ്രതിഷേധ": 2886,
      "ാഗ്രത": 2887,
      "മാധാന": 2888,
      "ിറങ്ങ": 2889,
      "െക്കുറിച്ച് ": 2890,
      " പ്രചാരണ": 2891,
      "ം കാണ": 2892,
      "ാങ്ക്": 2893,
      " എംപ": 2894,
      "്ഡ": 2895,
      "ികയ": 2896,
      "ഴയ": 2897,
      "വ്യാ": 2898,
      " നേട": 2899,
      " വകുപ്പ് ": 2900,
      "ചൈന": 2901,
      "ികൂട": 2902,
      "സ് അ": 2903,
      "നേതാക്കള": 2904,
      "ാജരാ": 2905,
      "ി വ്യക്തമാക്ക": 2906,
      "ളയ": 2907,
      " ഓരോ": 2908,
      "ങ്ങനെയ": 2909,
      "യുവ": 2910,
      " പാട": 2911,
      "ി അധ്യക്ഷ": 2912,
      "ാവാ": 2913,
      "ിക്കെതിരെ ": 2914,
      "് കൊ": 2915,
      "ളിപ്പെടുത്ത": 2916,
      "ുമാന": 2917,
      " റിപ്പോർട്ട": 2918,
      " ലക്ഷ്യ": 2919,
      "ിസ്ഥാന": 2920,
      "ി ഐ": 2921,
      "ീകരിച്ച് ": 2922,
      " ഹൈക്കോട": 2923,
      "ഴിമ": 2924,
      "ിന്ദു": 2925,
      "കൃഷ്ണ": 2926,
      "സാദ": 2927,
      "് പരി": 2928,
      "ത്തിനു": 2929,
      "ൺകുട്ട": 2930,
      " മേ": 2931,
      " വീട്ട": 2932,
      "ഹൃത്ത": 2933,
      "ബായ": 2934,
      "സുകള": 2935,
      "ട്ടി ": 2936,
      "ം ഗ": 2937,
      "മരിച്ച": 2938,
      "ുണ്ടെന്ന": 2939,
      "ബിജെപി ": 2940,
      " തോന്ന": 2941,
      "36": 2942,
      "േറിയ": 2943,
      "ം ജ": 2944,
      "ം അറിയ": 2945,
      " കഴ": 2946,
      " എനിക്ക്": 2947,
      " ഇവിട": 2948,
      " തമ്മില": 2949,
      " ത്ത": 2950,
      "സിൽ": 2951,
      "സൂചന": 2952,
      "മാത": 2953,
      "ാനാണ് ": 2954,
      "വിശദ": 2955,
      " ഒപ്പ": 2956,
      "ഗണന": 2957,
      "മൊ": 2958,
      "ലപാതക": 2959,
      " മറ്റൊരു": 2960,
      " വിവരങ്ങള": 2961,
      " ചികിത്സയില": 2962,
      "ാണ് അദ്ദേഹ": 2963,
      " ധന": 2964,
      "മ്യ": 2965,
      "ചെയ്ത്": 2966,
      "വേദ": 2967,
      " സ്ഥാപനങ്ങള": 2968,
      "അഞ്ച": 2969,
      " ഫോണ": 2970,
      " ചെയ്യുന്ന": 2971,
      "േവന": 2972,
      " അമ്മ": 2973,
      "േണ്ടി വര": 2974,
      " ഇന്ത്യന": 2975,
      "വെള്ള": 2976,
      " ന്ന": 2977,
      "48": 2978,
      "ല്ലാത": 2979,
      "െ സു": 2980,
      " ശ്രീ": 2981,
      "ഡില": 2982,
      " പട": 2983,
      "സ്ഥല": 2984,
      "ക്കൊപ്പ": 2985,
      "കൊല്ല": 2986,
      "ഡോ": 2987,
      "േർത്ത": 2988,
      "വിദ്യാ": 2989,
      "വീസ് ": 2990,
      " ബിജെപി ": 2991,
      "പിഎ": 2992,
      "് റ": 2993,
      "ലക്ഷ്യ": 2994,
      "ലമെന്റ": 2995,
      " ചൂണ്ടിക്കാട്ട": 2996,
      "ത്തിലാണ": 2997,
      " കൊവിഡ": 2998,
      " അനുഭവ": 2999,
      "ിനുള്ള": 3000,
      " സത്യ": 3001,
      "പ്പന": 3002,
      "ില്ല,": 3003,
      " ഇതുവര": 3004,
      "ഹായ": 3005,
      " നെ": 3006,
      "ുലര": 3007,
      "ത്തേ": 3008,
      "ത്തുന്ന": 3009,
      "ം ഒ": 3010,
      "വുമായ": 3011,
      " കരുത": 3012,
      "ം എന്ന്": 3013,
      "ം റ": 3014,
      "ങ്കില": 3015,
      " വിന": 3016,
      "കണ്ണ": 3017,
      " സൂചന": 3018,
      " ചെല": 3019,
      " പരാജയ": 3020,
      " ഏഴ": 3021,
      " വിദ്യാര": 3022,
      " മന്ത്രാലയ": 3023,
      " ന്യൂ": 3024,
      "കരു": 3025,
      " ബൈ": 3026,
      "് നടക്ക": 3027,
      "ചെയ്യുന്നത": 3028,
      " സമ്മേള": 3029,
      " വൈറസ് ": 3030,
      "ത് കൊണ്ട": 3031,
      "ത്തെയ": 3032,
      " പ്രായ": 3033,
      "ുവെന്നാണ് ": 3034,
      "ികളെ ": 3035,
      "ഷ്യൽ": 3036,
      "മണ്ഡല": 3037,
      "വിമാന": 3038,
      "മായിട്ട": 3039,
      " ജില്ലകളില": 3040,
      " പത": 3041,
      "ആരോപണ": 3042,
      "ാങ്ങ": 3043,
      "േക്കാള": 3044,
      " സമിത": 3045,
      " ആക": 3046,
      " വിതരണ": 3047,
      "ഞ്ഞെടുക്ക": 3048,
      "നേതൃത്വത്തില": 3049,
      " വന്നത": 3050,
      " കുഞ്ഞ": 3051,
      "നുവര": 3052,
      "ിനെതിരെ ": 3053,
      " ഉദ്യോഗ": 3054,
      "ോപ്പ": 3055,
      "ായിര": 3056,
      "െ കൊ": 3057,
      " ജോലി ": 3058,
      "34": 3059,
      "ഭയ": 3060,
      "ിദ": 3061,
      "െത്തിയിരുന്ന": 3062,
      " മാത്രമേ": 3063,
      "മർശന": 3064,
      "ൃഷ": 3065,
      " ചാണ്ട": 3066,
      "പ്രത്യേക": 3067,
      "ി നരേന്ദ്ര മോദ": 3068,
      " അന്ത": 3069,
      "പ്രശ": 3070,
      "ഇയാള": 3071,
      "എന്റെ ": 3072,
      "ാതൊരു": 3073,
      "ിലൂടെ ": 3074,
      "ടയ": 3075,
      "മിക": 3076,
      "ക്കൗണ്ട": 3077,
      "ിക്കാഴ്ച": 3078,
      " അസ": 3079,
      "കുറ്റ": 3080,
      " ഫ്ര": 3081,
      "ഏക": 3082,
      "ഗള": 3083,
      "റൽ": 3084,
      "്യൂട്ട": 3085,
      "രാത്ര": 3086,
      "ി കൊ": 3087,
      "ഭൂമ": 3088,
      " വാർത്ത": 3089,
      " പരീക്ഷ": 3090,
      "േറ": 3091,
      "ിച്ചിരുന്നത": 3092,
      "ോസഫ": 3093,
      " മീഡിയയില": 3094,
      "സ്രായേല": 3095,
      "വ്യക്തമാക്ക": 3096,
      "ത്തിയാക്ക": 3097,
      "രംഗത്ത്": 3098,
      "നിലപാട": 3099,
      " തൃശൂര": 3100,
      "കണ്ട": 3101,
      " തൊഴില": 3102,
      "മണ": 3103,
      "സ്തിക": 3104,
      "പ്രതിരോധ": 3105,
      "ോട്ട് പ": 3106,
      "യർത്ത": 3107,
      "വിഷ": 3108,
      " പ്രതിരോധ": 3109,
      "നുസര": 3110,
      "ടി ": 3111,
      " സി പ": 3112,
      " ഇന്ന": 3113,
      " ഉറ": 3114,
      "സിസ്റ്റ": 3115,
      "ം നി": 3116,
      "കൊറോണ": 3117,
      "സാമ്പത്തിക": 3118,
      "ിക്കാത്ത": 3119,
      " മി": 3120,
      " ആർ": 3121,
      "ലീസിന": 3122,
      "ളിയ": 3123,
      "തീവ": 3124,
      " പിന്നില": 3125,
      "ചോദ": 3126,
      " പൂർ": 3127,
      "്യമാക്ക": 3128,
      "ായിട്ട": 3129,
      " നേരിട്ട": 3130,
      " മുകളില": 3131,
      " അവസ്ഥ": 3132,
      " കോവിഡ": 3133,
      "ണമായ": 3134,
      "ഭേദ": 3135,
      "അതേ": 3136,
      "ീകരിക്കാന": 3137,
      "സ്വകാര്യ": 3138,
      " സാധിച്ച": 3139,
      "ഏഴ": 3140,
      "മ്മാണ": 3141,
      "മാത്രമല്ല": 3142,
      "ച്ചില": 3143,
      "തിക്ക്": 3144,
      "െ സമീപ": 3145,
      "38": 3146,
      "മെഡിക്കല": 3147,
      "അന്ന്": 3148,
      "ബോധ": 3149,
      "ങ്കര": 3150,
      "ോളജ": 3151,
      " വയസ്സ": 3152,
      "75": 3153,
      " എത്തിയത": 3154,
      "സിദ്ധ": 3155,
      " യൂണ": 3156,
      " ഭീഷണ": 3157,
      " ഗ്രാമ": 3158,
      " അധികൃത": 3159,
      "െപ്പ": 3160,
      "െ സുര": 3161,
      "32": 3162,
      "ദീപ": 3163,
      "നല്ല": 3164,
      "േവ": 3165,
      "ടുള്ള": 3166,
      " ബോധ": 3167,
      " സജീവ": 3168,
      " മുഖ": 3169,
      "ാഭ": 3170,
      " അടിസ്ഥാന": 3171,
      " ചെയ്തത": 3172,
      "കൂട്ട": 3173,
      " മാത്രമല്ല": 3174,
      "ോട്ടയം ": 3175,
      "ിയുമായ": 3176,
      "ക്ഷ്യ": 3177,
      " ശു": 3178,
      "ാക്കുന്ന": 3179,
      "ദ്ധിമു": 3180,
      " വേണ്ടി ": 3181,
      "േഷ് ഗോപ": 3182,
      "നീക്ക": 3183,
      "ദേശിക": 3184,
      " പറയാന": 3185,
      " സംബന്ധിച്ച": 3186,
      "വശ്യമ": 3187,
      "39": 3188,
      "ൻസ് ": 3189,
      "ുമ്പോഴ": 3190,
      "അടിസ്ഥാന": 3191,
      "കക്ഷ": 3192,
      " ജീവനക്കാര": 3193,
      "മഹ": 3194,
      "ക്കുറ": 3195,
      "ില്ല\n": 3196,
      "േതാക്കള": 3197,
      "നാട്ടില": 3198,
      "ഇര": 3199,
      "േ,": 3200,
      "പ്രകാര": 3201,
      "്?\n": 3202,
      "സ്റ്റഡ": 3203,
      " ഏറെ ": 3204,
      "ിയുമായി ": 3205,
      "ുന്നതെന്ന": 3206,
      "െ അറിയ": 3207,
      "ജറാ": 3208,
      "ഹമ്മദ് ": 3209,
      " നിയന്ത്രണ": 3210,
      "്യാൻ": 3211,
      " സൗദ": 3212,
      "േമ": 3213,
      "െയ് ": 3214,
      " വോട്ടുകള": 3215,
      " കണ": 3216,
      "ഗ്രൂപ്പ": 3217,
      "വാസികള": 3218,
      "ഗ്ദാന": 3219,
      " വ്യത്യ": 3220,
      "യിട": 3221,
      "ി ഗ": 3222,
      "ങ്ങനെയാണ് ": 3223,
      " വിരുദ്ധ": 3224,
      "ാനല": 3225,
      "ില്ലാത": 3226,
      " നേരിട": 3227,
      "ി സ്ഥാന": 3228,
      "തന്ത്ര്യ": 3229,
      " ശാ": 3230,
      " ഇടപെട": 3231,
      " കുറിപ്പ": 3232,
      "പയോഗ": 3233,
      "യായി ": 3234,
      "ക്കില": 3235,
      " പെട്ട": 3236,
      " മൂല": 3237,
      " മുന്നറിയിപ്പ": 3238,
      "പ്യൂട്ട": 3239,
      "ബാല": 3240,
      "െപിസി": 3241,
      "എണ്ണം ": 3242,
      " പൗര": 3243,
      "വിടങ്ങളില": 3244,
      "ഗോപാല": 3245,
      "ഞങ്ങള": 3246,
      "ിയോ": 3247,
      " സംബന്ധിച്ച് ": 3248,
      "ോട് പറഞ്ഞ": 3249,
      "് കൂട": 3250,
      "ഹത്യ": 3251,
      "തെങ്കില": 3252,
      "ിച്ചാണ് ": 3253,
      " മത്സ": 3254,
      " മരിച്ച": 3255,
      "വേശന": 3256,
      " പെണ": 3257,
      " രാശിക്കാര": 3258,
      "ിയുള്ള": 3259,
      "ീഷന": 3260,
      "െബ്ര": 3261,
      " പുതു": 3262,
      "ോചന": 3263,
      " എസ": 3264,
      "ി പ്രഖ്യാപ": 3265,
      "ീർ": 3266,
      "ിയോഗ": 3267,
      "വാങ്ങ": 3268,
      "ശ്വ": 3269,
      "കണ": 3270,
      "ടുവില": 3271,
      "ുറത്ത്": 3272,
      "ളിവ": 3273,
      "പ്ത": 3274,
      "ുന്നതാണ": 3275,
      " സ്പ": 3276,
      "ജില്ലയിലെ ": 3277,
      "ദ്ഘാടന": 3278,
      "ിഹ": 3279,
      " പത്ര": 3280,
      "ിക്കേണ്ടത": 3281,
      "ോടെ ക": 3282,
      " വിശ്വാസ": 3283,
      "ൂലൈ": 3284,
      "സുരക്ഷ": 3285,
      "55": 3286,
      " പദവ": 3287,
      " തദ്ദേശ": 3288,
      "ങ്കള": 3289,
      "ം ഉറപ്പ": 3290,
      "പേരില": 3291,
      "ീസണ": 3292,
      "അമ്മ": 3293,
      "ജ് ": 3294,
      " സ്വയ": 3295,
      "ഇപ്പോഴ": 3296,
      "ൻ,": 3297,
      " മനസ്സില": 3298,
      "തോ": 3299,
      "ച്ചകള": 3300,
      "ംഗല": 3301,
      " സ്വകാര്യ": 3302,
      "ഗീയ": 3303,
      "താണ": 3304,
      "പറഞ്ഞ": 3305,
      "സമ്മ": 3306,
      " വായ": 3307,
      "ക്യൂ": 3308,
      "ീട്ട": 3309,
      " ഡ്ര": 3310,
      "സ്സ് ": 3311,
      "ക്കുന്നത്": 3312,
      " ചേർ": 3313,
      " പോരാട്ട": 3314,
      " കൊച്ച": 3315,
      "സ്ഥിരീകരിച്ച": 3316,
      "37": 3317,
      "ർപ്പ": 3318,
      " തള്ള": 3319,
      "അതില": 3320,
      "കലാശ": 3321,
      " കുട്ടികള": 3322,
      "ജിന": 3323,
      "താണ് ": 3324,
      "സൂ": 3325,
      "െരു": 3326,
      " നാള": 3327,
      "ൂണ്ടിക്കാണ": 3328,
      " വാഹന": 3329,
      "ഇതിന് പിന്നാല": 3330,
      " ആയിരുന്ന": 3331,
      "കോവിഡ് ": 3332,
      "റിൽ": 3333,
      " ഉട": 3334,
      "ൂടെ ": 3335,
      "ോമസ് ": 3336,
      "വിമര": 3337,
      "സിനിമ": 3338,
      " നൽകിയ": 3339,
      "ഹൈക്കോട": 3340,
      "ന്നിരുന്ന": 3341,
      "ം രാശ": 3342,
      " വീട്ടില": 3343,
      " പുന": 3344,
      " വേദ": 3345,
      "49": 3346,
      "യിലാണ് ": 3347,
      "െ പോല": 3348,
      "കോഴിക്കോട": 3349,
      "് നൽക": 3350,
      " സ്ത്രീകള": 3351,
      "ൻ.\n": 3352,
      "സഭാ തിരഞ്ഞെടുപ്പില": 3353,
      "നെ ": 3354,
      "സിയ": 3355,
      "െബ്രുവര": 3356,
      " സാമൂഹ": 3357,
      " നടപടിയ": 3358,
      "ോട്ട് ": 3359,
      "ബാധിത": 3360,
      "ഇന്നല": 3361,
      "ഏറ്റ": 3362,
      "ഒറ്റ": 3363,
      "ികെ ": 3364,
      "ം ഉയര": 3365,
      "ക്കാരിന്": 3366,
      "ഗണിക്ക": 3367,
      "ന്ദേശ": 3368,
      " കർ": 3369,
      "ം (": 3370,
      " അടിയ": 3371,
      " ബ്ല": 3372,
      "എല്ലാവര": 3373,
      " കേ": 3374,
      "മുദായ": 3375,
      " കഴിയുന്ന": 3376,
      " നിക": 3377,
      " ചരിത്ര": 3378,
      " തമ്മിലുള്ള": 3379,
      " അദ്ദേഹത്തിന്റെ ": 3380,
      " പഞ്ചായത്ത്": 3381,
      " പട്ട": 3382,
      " സാധാരണ": 3383,
      " ഒഴിവ": 3384,
      "ഘടക": 3385,
      " കടുത്ത": 3386,
      " സീറ്റ് ": 3387,
      "പ്പെട്ടിരുന്ന": 3388,
      " റഷ്യ": 3389,
      "് സീറ്റ": 3390,
      "ക്കൂട്ട": 3391,
      " ഭക്ഷണ": 3392,
      " കാലാവസ്ഥ": 3393,
      "ാഗത": 3394,
      "ി സര": 3395,
      " നവ": 3396,
      "ല്ലുവിള": 3397,
      "ാമത്തെ ": 3398,
      "ബിജെപിയുടെ ": 3399,
      "ോമീറ്റ": 3400,
      " മെഡിക്കല": 3401,
      "47": 3402,
      "ഗാന": 3403,
      "നേതാവ": 3404,
      "ിനെയ": 3405,
      " എക": 3406,
      "അതിന്": 3407,
      " ബിജെപിയ": 3408,
      " രൂപയ": 3409,
      "യുഎഇ": 3410,
      " സംസ്ഥാനങ്ങളില": 3411,
      "ിച്ചുവര": 3412,
      "െടുക്കാന": 3413,
      " ണ": 3414,
      " സോഷ്യല": 3415,
      "് നില": 3416,
      " വയസ": 3417,
      "മല്ല.\n": 3418,
      "റുടെ ": 3419,
      "വീഡിയോ": 3420,
      "പത്ര": 3421,
      " ട്": 3422,
      "ംഗ്ല": 3423,
      "ാറുണ്ട": 3424,
      " ഭൂരിപക്ഷ": 3425,
      "ഗറ്റ": 3426,
      "ഗോഡ് ": 3427,
      "മുറ": 3428,
      " ആത്മ": 3429,
      "കലാശാല": 3430,
      "മാരുടെ ": 3431,
      "േഴ്": 3432,
      "ുണ്ടാവ": 3433,
      "തിനെ ": 3434,
      "െ തന്നെ ": 3435,
      " തിരിച്ചടിയ": 3436,
      "താല": 3437,
      " തകര": 3438,
      "െം": 3439,
      "ഇന്ന": 3440,
      "ിശ": 3441,
      "ദ്വീ": 3442,
      "ം ആണ": 3443,
      "നിരവധ": 3444,
      "!!\n": 3445,
      "് ജ": 3446,
      "ത്തിൻ്റ": 3447,
      " മുറ": 3448,
      " പക്ഷ": 3449,
      "മ്പോള": 3450,
      " ഞങ്ങള": 3451,
      " അഭിന": 3452,
      "ധാവ": 3453,
      " മുൻപ": 3454,
      "നിന്ന": 3455,
      "സല": 3456,
      "ം ആരംഭ": 3457,
      " നിക്ഷേപ": 3458,
      "വാന": 3459,
      " ഇങ്ങന": 3460,
      "വുമ": 3461,
      "പ്ന": 3462,
      "തിയായ": 3463,
      "ഇതിന്റെ ": 3464,
      " അദ്ദേഹം ക": 3465,
      "പ്പറേഷന": 3466,
      "മേഖല": 3467,
      " തീയ": 3468,
      "ത്തിന് ശേഷ": 3469,
      "ദ്വീപ": 3470,
      " സൈനിക": 3471,
      "വാവ": 3472,
      "ഗസ്റ്റ് ": 3473,
      "പറയ": 3474,
      " നോട്ട": 3475,
      " ആഭ്യന്തര": 3476,
      "ാക്കുന്നത": 3477,
      " നിലവില": 3478,
      "ഇന്ത്യന": 3479,
      "33": 3480,
      " ജാഗ്രത": 3481,
      "ായി അ": 3482,
      "പ്പെടുത്താന": 3483,
      "സിക": 3484,
      " വെല്ലുവിള": 3485,
      " മടങ്ങ": 3486,
      " ചെയ്യാന": 3487,
      " പോകുന്ന": 3488,
      "ശ്ചാത്തലത്തില": 3489,
      "500": 3490,
      "വട": 3491,
      " വല": 3492,
      "ാണ് ആ": 3493,
      "സിസ": 3494,
      "ം പിട": 3495,
      "സഭയില": 3496,
      " പ്രതികരണ": 3497,
      " ഉന്നയ": 3498,
      "ം നേട": 3499,
      "വാറന്റ": 3500,
      "ൗൺ": 3501,
      "ിടെയാണ് ": 3502,
      " ഭയ": 3503,
      "ിനെ ക": 3504,
      " ടീമ": 3505,
      "തെന്ന": 3506,
      "പൂർ": 3507,
      "പിന്തുണ": 3508,
      "മകള": 3509,
      "യുമായി ": 3510,
      "യാൾ": 3511,
      "ോ എന്ന്": 3512,
      "ില്യ": 3513,
      "ാരാഷ്ട്ര": 3514,
      "മേല": 3515,
      " മാധ്യമങ്ങള": 3516,
      "റമ്പ": 3517,
      "സിപ്പ": 3518,
      " റിപ്പോർട്ട് ": 3519,
      "വർഷ": 3520,
      "ക്കുകയ": 3521,
      "മാൻ": 3522,
      " അഡ": 3523,
      "ഹാന": 3524,
      "ിഖ": 3525,
      "രാജ്യത്തെ ": 3526,
      "െക്രട്ട": 3527,
      " സേന": 3528,
      "ാഴ്ച്ച": 3529,
      "ി പ്രവര": 3530,
      " വിധേയ": 3531,
      "സ്റ്റഡിയില": 3532,
      " കയറ": 3533,
      " വഴിയ": 3534,
      "് കോട": 3535,
      " ദില്ല": 3536,
      "ടക്കമുള്ള": 3537,
      "നാള": 3538,
      "ഹസ": 3539,
      "ൽപ്പ": 3540,
      "ാബു": 3541,
      " നമ്മുടെ ": 3542,
      " പ്രചര": 3543,
      "ക്കുന്നുണ്ട": 3544,
      " സംഘട": 3545,
      "അമേരിക്ക": 3546,
      "യന": 3547,
      "ളിച്ച": 3548,
      "ി ര": 3549,
      "ി ജയ": 3550,
      "ട്ടികള": 3551,
      "ുകൾക്ക്": 3552,
      "മാണ് പ": 3553,
      " മുന്നണ": 3554,
      "ഡയറ": 3555,
      "ക്രി": 3556,
      "ട്ടിയില": 3557,
      "രാർ": 3558,
      "ക്ഷന": 3559,
      "മിഷ": 3560,
      " ഇതുവരെ ": 3561,
      "െള്ള": 3562,
      "്വാന": 3563,
      "വസായ": 3564,
      " യോഗ്യത": 3565,
      "െഡിയ": 3566,
      "ി നില": 3567,
      " സീറ്റില": 3568,
      "ശ്മീര": 3569,
      "90": 3570,
      "ഇപ്പോൾ": 3571,
      "ഉട": 3572,
      "ജ്യ": 3573,
      " സാമ്പ": 3574,
      "പ്രില": 3575,
      "സിറ്റീവ": 3576,
      "കുന്നത": 3577,
      "സംസ്ഥാനത്തെ ": 3578,
      "ുമായിരുന്ന": 3579,
      "ഇതുവരെ ": 3580,
      "ടുവ": 3581,
      " ഇനിയ": 3582,
      "ിതമായ": 3583,
      "ിതാവ": 3584,
      "ിക്കുകയായിരുന്നു": 3585,
      "ബിഐ": 3586,
      "ു;": 3587,
      " ഡോള": 3588,
      "ി അറ": 3589,
      " തുടക്ക": 3590,
      "റിപ്പോർട്ട": 3591,
      "േണ": 3592,
      " ഉണ്ടാവ": 3593,
      " ഇറങ്ങ": 3594,
      "46": 3595,
      "പാർട്ട": 3596,
      "വുമായി ബന്ധപ്പെട്ട": 3597,
      "ം ഈ": 3598,
      " ഫേസ്": 3599,
      "ാണ് കോണ": 3600,
      "പരിശോധന": 3601,
      "ര്യ": 3602,
      " റോഡ": 3603,
      " മണ്ഡലത്തില": 3604,
      "മറ്റ് ": 3605,
      "് ചെന്നിത്തല": 3606,
      " ക്ഷ": 3607,
      "ൊട": 3608,
      "ണ്ട് ": 3609,
      "മായി അ": 3610,
      "ോട്ടറ": 3611,
      "ത്തുന്നത": 3612,
      "ി ഫ": 3613,
      "ി ശ": 3614,
      "ിക്കണമെന്ന്": 3615,
      "ി അംഗ": 3616,
      "ി നേതാക്കള": 3617,
      "ിളുകള": 3618,
      "ണക്കിന്": 3619,
      "കൻ": 3620,
      "െ ജ": 3621,
      " അവിട": 3622,
      " നടത്തിയത": 3623,
      " നമ്പ": 3624,
      "ിതീഷ": 3625,
      "ിങ് ": 3626,
      "നാ": 3627,
      " സഞ്ച": 3628,
      "കുമാറ": 3629,
      "് തന്ന": 3630,
      "ശ്ചയ": 3631,
      "സമയ": 3632,
      "ിന്യ": 3633,
      " ചെറിയ": 3634,
      " ഹാജരാ": 3635,
      "ിസഭ": 3636,
      "ക്ഷേമ": 3637,
      " രംഗത്ത്": 3638,
      "്)": 3639,
      "ുകാർ": 3640,
      " പോള": 3641,
      "ഒഴിവാക്ക": 3642,
      "ചുമതല": 3643,
      " കോഴിക്കോട് ": 3644,
      "ിട്ടുണ്ടെന്ന": 3645,
      "ി ജോര": 3646,
      "ട്രംപ": 3647,
      " രാജ്യങ്ങള": 3648,
      "െ കുറിച്ച": 3649,
      "ിയര": 3650,
      "ം പുറത്ത": 3651,
      "നുഭവ": 3652,
      " ആയിരുന്നു": 3653,
      " പുറമ": 3654,
      "എനിക്ക്": 3655,
      "പ്പാട": 3656,
      "ായറ": 3657,
      "മേശ് ചെന്നിത്തല": 3658,
      "ിഡ": 3659,
      "രുന്ന്": 3660,
      "ക്ഷിണ": 3661,
      " റണ": 3662,
      "ത്തിന്റെയ": 3663,
      " പേരാണ് ": 3664,
      "െണ്ണ": 3665,
      "ിച്ചുകൊണ്ട": 3666,
      " സംര": 3667,
      " അദ്ദേഹം ": 3668,
      "ലോച": 3669,
      " ഒര": 3670,
      " മറ്റു": 3671,
      "ോവിഡ് ": 3672,
      " ആന്റ": 3673,
      "ിമറ": 3674,
      " മറുപട": 3675,
      "ജിസ്റ്റര": 3676,
      "ം കഴിഞ്ഞ": 3677,
      "െ പിട": 3678,
      "മാക്കിയ": 3679,
      " കേസുകള": 3680,
      "റഷ്യ": 3681,
      "ിയേറ്റ": 3682,
      " ക്രി": 3683,
      " പലര": 3684,
      "മറ്റൊരു": 3685,
      "സമ്പ": 3686,
      "ൂരു": 3687,
      "ോ.\n": 3688,
      " ദിവസങ്ങളില": 3689,
      "സാധാരണ": 3690,
      "ഗറ്റീവ": 3691,
      "ം പോല": 3692,
      "ം ശക്ത": 3693,
      " സെന്റ": 3694,
      " പൊലീസ": 3695,
      "ി നേതാവ": 3696,
      "ഗോള": 3697,
      "ല്ലാത്ത": 3698,
      "ം എന്നിവ": 3699,
      "ജീവനക്കാര": 3700,
      " സമ്പര": 3701,
      "ബരി": 3702,
      "ടുപ്പ": 3703,
      "േരിട്ട": 3704,
      "് കൊണ്ട": 3705,
      " ചെറ": 3706,
      "ത്ത് നിന്ന": 3707,
      "ം നടന്ന": 3708,
      "ധ്യപ്രദേശ": 3709,
      "ആലപ്പുഴ": 3710,
      "ഡുകള": 3711,
      "മൃതദേഹ": 3712,
      "ഇതേ": 3713,
      " പാലക്കാട് ": 3714,
      "തൃശൂര": 3715,
      " കടന്ന": 3716,
      "ജന്യ": 3717,
      " തനിക്ക്": 3718,
      " എടുക്ക": 3719,
      " പ്രകടന": 3720,
      "തികൾ": 3721,
      ", മ": 3722,
      "അംഗ": 3723,
      "ഭിന": 3724,
      "ട്ടിക്ക": 3725,
      " തീവ": 3726,
      "മാണിത": 3727,
      " ദൃശ്യ": 3728,
      "ിച്ചു\n": 3729,
      " സിപിഎമ്മ": 3730,
      "ഡൽഹ": 3731,
      "ിത്വ": 3732,
      "ാമെന്ന്": 3733,
      "ണമൂല": 3734,
      "ം ഉന്നയ": 3735,
      "42": 3736,
      "നാണ് ": 3737,
      "ൂക്ക": 3738,
      " തുക": 3739,
      "ം കഴ": 3740,
      " ഭൂമ": 3741,
      "ി)": 3742,
      " സമാന": 3743,
      " സ്വദേശിനി (": 3744,
      "ൈറ്റ": 3745,
      " ഇപ്പോൾ": 3746,
      "ം അവസാന": 3747,
      "ട്ടിഫിക്കറ്റ": 3748,
      "ി യോഗ": 3749,
      " എന്ത്": 3750,
      " വിലയിരുത്ത": 3751,
      " ശ്രമിച്ച": 3752,
      " നിർദ്ദേശ": 3753,
      " ഇൻ": 3754,
      "തുടക്ക": 3755,
      "ബരിമല": 3756,
      "ഭീഷണ": 3757,
      " ഇയാള": 3758,
      " ഹോട്ട": 3759,
      " സെക്രട്ടറിയ": 3760,
      "ക്സിൻ": 3761,
      "ശേഖര": 3762,
      "സൂചന.\n": 3763,
      "തി ക": 3764,
      "ഹൈ": 3765,
      " പരിക്ക": 3766,
      " പറയുന്നത്": 3767,
      " ജനറല": 3768,
      "കിയിരുന്ന": 3769,
      " സാഹചര്യത്തിൽ": 3770,
      "േബ്യ": 3771,
      "ളുപ്പ": 3772,
      " കത്ത": 3773,
      " ദുരന്ത": 3774,
      " കുറവ": 3775,
      " വിശ്വസ": 3776,
      "ി ഒ": 3777,
      " വച്ച": 3778,
      " നേടിയ": 3779,
      " സുരേഷ": 3780,
      " കക്ഷ": 3781,
      " സ്ഥിരീകരിച്ച": 3782,
      " ചോദിച്ച": 3783,
      " കിലോമീറ്റ": 3784,
      " തസ്തിക": 3785,
      "65": 3786,
      "എഫ് ": 3787,
      "എല്ല": 3788,
      "എറണാകുള": 3789,
      "വന്ന": 3790,
      " ആഴ്ച": 3791,
      "ക്ടോബ": 3792,
      "ലര": 3793,
      "ഷക": 3794,
      "്തിര": 3795,
      "ാലോചന": 3796,
      " യുഎഇ": 3797,
      "199": 3798,
      "തന": 3799,
      "ുക എന്ന": 3800,
      " വിപണ": 3801,
      "കരുടെ ": 3802,
      "ി നേട": 3803,
      "തിനാൽ": 3804,
      "ം-": 3805,
      "ാസ്": 3806,
      " കുമാര": 3807,
      " ഗുണ": 3808,
      "ിസ്ത": 3809,
      "മാവധ": 3810,
      "െ പറഞ്ഞ": 3811,
      " പ്രസിഡന്റ് ": 3812,
      "തദ്ദേശ": 3813,
      "ശാല": 3814,
      "്യമായ": 3815,
      " ഡെ": 3816,
      "ന്യായ": 3817,
      "തിരഞ്ഞെടുപ്പില": 3818,
      "ന്നാണ് ": 3819,
      " എൽ": 3820,
      " രോഗം സ്ഥിരീകരിച്ച": 3821,
      " ദേവ": 3822,
      "';": 3823,
      " വിര": 3824,
      "ി നൽക": 3825,
      " ജനാധിപത്യ": 3826,
      " കോൺഗ്രസ": 3827,
      " കോര": 3828,
      "െയര": 3829,
      " ചെ": 3830,
      "മായി ക": 3831,
      "ം പാല": 3832,
      "പഞ്ചായ": 3833,
      "രോഗം സ്ഥിര": 3834,
      "ദൃശ്യ": 3835,
      "രാൾ": 3836,
      "മുതല": 3837,
      "മുളള": 3838,
      "ഭാഗ്യ": 3839,
      "നിയന്ത്ര": 3840,
      " ഊ": 3841,
      "പിട": 3842,
      " ഇന്റ": 3843,
      " പ്രതികര": 3844,
      "യച്ച": 3845,
      " പിന": 3846,
      "വർക്ക": 3847,
      " കുറിച്ച": 3848,
      "ഗ്ഗ": 3849,
      "തൃക": 3850,
      "ിറ്റ് ": 3851,
      " കനത്ത": 3852,
      "ാസർ": 3853,
      " ഗുരുതര": 3854,
      "ഭൂരിപക്ഷ": 3855,
      "തിക്ക": 3856,
      "ബ് ": 3857,
      "ൊള്ള": 3858,
      "ം കൈ": 3859,
      "ലോക്": 3860,
      "ത്തിലൂടെ ": 3861,
      "ഓഫ് ": 3862,
      "സമര": 3863,
      "ക്രിയ": 3864,
      " വ്യാജ": 3865,
      "നെ": 3866,
      "ീണ": 3867,
      "വിഷയ": 3868,
      " കൈമാറ": 3869,
      "മകന": 3870,
      "ക്സ": 3871,
      "ം വോട്ട": 3872,
      "ഇന്ത്യയില": 3873,
      "വ്യാപന": 3874,
      "ിരിക്കുകയാണ് ": 3875,
      " വീണ": 3876,
      "കുട്ടികള": 3877,
      "്ക്ക": 3878,
      " സൂച": 3879,
      " എത്ര": 3880,
      " ഉടന": 3881,
      " ശമ്പള": 3882,
      " അടക്കമുള്ള": 3883,
      "നഷ്ട": 3884,
      "യിലില": 3885,
      "സണ": 3886,
      "ുമാര": 3887,
      "േശ": 3888,
      "ി സതീ": 3889,
      " രണ്ടു": 3890,
      "ാണിത": 3891,
      " അക്രമ": 3892,
      "ങ്ങളായി ": 3893,
      " ലംഘ": 3894,
      "ചെയ്യാന": 3895,
      " അധ്യക്ഷന": 3896,
      "ഥികള": 3897,
      "ബാദ": 3898,
      "ീഫ": 3899,
      "ി മാറ്റ": 3900,
      " പ്രതികള": 3901,
      "ക്ട്ര": 3902,
      "പര്യമ": 3903,
      "കിയിട്ടുണ്ട": 3904,
      " സ്വാധീന": 3905,
      "ിള്ള": 3906,
      "ർക്ക്": 3907,
      " സൃഷ്ട": 3908,
      "ിഴക്ക": 3909,
      "ആന": 3910,
      "രാവിലെ ": 3911,
      "ത്തിനെതിരെ ": 3912,
      "ർമ്മ": 3913,
      "ക്യൂട്ട": 3914,
      "43": 3915,
      "വികസന": 3916,
      " പ്രിയങ്ക": 3917,
      " സ്വീകരിച്ച": 3918,
      "...": 3919,
      " പരസ്യ": 3920,
      " വിഷയത്തില": 3921,
      "എൽഎ": 3922,
      "െ കണ്ടെത്ത": 3923,
      "ം സംഭവ": 3924,
      "ഹൗ": 3925,
      " വിദഗ്": 3926,
      "വാഴ്ച": 3927,
      " അഭിമുഖ": 3928,
      "അറ": 3929,
      " സോ": 3930,
      "ഇവിടെ ": 3931,
      "ഡൗണ": 3932,
      "ജിത്": 3933,
      "ഇനിയ": 3934,
      "പട്ടിക": 3935,
      " സന്ദര": 3936,
      "മിഴ്": 3937,
      " മോശ": 3938,
      " ഓണ": 3939,
      "വള": 3940,
      "വഹ": 3941,
      "ീച്ച": 3942,
      "ീഫ് ": 3943,
      " തമിഴ": 3944,
      " ജാമ്യ": 3945,
      " ഒരിക്കല": 3946,
      "ാം\n": 3947,
      "കുഞ്ഞ": 3948,
      " ഏര": 3949,
      " വെറ": 3950,
      "സമ": 3951,
      "ായകന": 3952,
      " ബിരു": 3953,
      "ാക്കാൻ": 3954,
      "മുണ്ടാക": 3955,
      "ം ചെയ്യുന്ന": 3956,
      "ജീവന": 3957,
      "ഉള്ളത": 3958,
      "ൂത്ത": 3959,
      "ിച്ചിരിക്കുകയാണ": 3960,
      "ോഗിക": 3961,
      " നടത്തുന്ന": 3962,
      " ക്ഷണ": 3963,
      "കമായ": 3964,
      " മദ്യ": 3965,
      " ചിന്ത": 3966,
      " ഭാര്യ": 3967,
      "ത്തിനെതിര": 3968,
      "കൃത്യ": 3969,
      "ിയായിരുന്ന": 3970,
      " എം എ": 3971,
      "അതേസമയം ക": 3972,
      " വേഗ": 3973,
      " പ്രതിപക്ഷ നേതാവ": 3974,
      "ശാസ്ത്ര": 3975,
      " മുതൽ ": 3976,
      "ി അറേബ്യ": 3977,
      "സ്ട്ര": 3978,
      "തിർന്ന": 3979,
      "ം വന്ന": 3980,
      " തെളിയ": 3981,
      "തീവ്ര": 3982,
      "ഓണ": 3983,
      "ജില": 3984,
      "രോഗം ബാധ": 3985,
      "അതി": 3986,
      "യുപ": 3987,
      "ാണെങ്കില": 3988,
      "ിനൊപ്പ": 3989,
      "ിറക്ക": 3990,
      "ദണ്ഡ": 3991,
      "ുണ": 3992,
      "െര": 3993,
      " മീറ്റ": 3994,
      "ോസഫ് ": 3995,
      " മനസില": 3996,
      "സംബന്ധിച്ച് ": 3997,
      "െ ഉ": 3998,
      " കെ ": 3999,
      "ി ജന": 4000,
      "ടവ": 4001,
      "പൂ": 4002,
      "ൊവ്": 4003,
      "ിയന": 4004,
      " പോവ": 4005,
      " പുരോഗ": 4006,
      " പത്തനംതിട്ട": 4007,
      " വഹ": 4008,
      "ം തിര": 4009,
      "ായുള്ള": 4010,
      "ുകൂട": 4011,
      " പ്രസ്താവന": 4012,
      "ാണ് ഇപ്പോള": 4013,
      "ാണ് പരി": 4014,
      "മലപ്പുറ": 4015,
      "യല": 4016,
      " പിഴ": 4017,
      " കഥ": 4018,
      ", അ": 4019,
      "ിത്": 4020,
      " സീറ്റുകളില": 4021,
      " വോട്ട് ": 4022,
      "സത്യ": 4023,
      "ന്നൂര": 4024,
      " പാർ": 4025,
      "പ്രതികള": 4026,
      "സ്ഥിത": 4027,
      " യുദ്ധ": 4028,
      " ഇന്ത്യൻ": 4029,
      "നമ്മുടെ ": 4030,
      "ഫേസ്ബുക്ക്": 4031,
      "ങ്കളാഴ്ച": 4032,
      "എംപ": 4033,
      "കർക്ക": 4034,
      "സേന": 4035,
      " നിമിഷ": 4036,
      "ഇടപെട": 4037,
      " അയച്ച": 4038,
      "വാർ": 4039,
      " കോടതിയില": 4040,
      "ം ചേര": 4041,
      "ലക്ഷ്യമ": 4042,
      " പദ്ധതികള": 4043,
      "ടന്ന": 4044,
      "മില്ല.\n": 4045,
      "സ്കാര": 4046,
      " എറണാകുളം ": 4047,
      "അധ്യക്ഷ": 4048,
      "ഡന": 4049,
      " സൂര്യ": 4050,
      "ോട് അ": 4051,
      " ഹൈ": 4052,
      " ബിജെപിക്ക്": 4053,
      " ക്യാമ്പ": 4054,
      " പി എ": 4055,
      " വരുമാന": 4056,
      "ി കഴിഞ്ഞ": 4057,
      "വാക്സിന": 4058,
      "ങ്ങളിലേക്ക്": 4059,
      "് കുമാര": 4060,
      "കമ്മ": 4061,
      "മംഗല": 4062,
      "വിവാദ": 4063,
      "െന്നൈ": 4064,
      "ില്ലാതെ ": 4065,
      " നിന്ന് ": 4066,
      " ചെയ്തിട്ടുണ്ട": 4067,
      "ട്ട് ചെയ്ത": 4068,
      " സുഹൃത്ത": 4069,
      "44": 4070,
      " ബാങ്ക": 4071,
      " കണ്ടെത്തിയ": 4072,
      " യോഗത്തില": 4073,
      "നത്തിൽ": 4074,
      " എസ്": 4075,
      "വാദിത്ത": 4076,
      "ം മുതല": 4077,
      " സിനിമയ": 4078,
      " തീവ്ര": 4079,
      "ഒപ്പ": 4080,
      "പ്രിയ": 4081,
      "ിപ്പിച്ച് ": 4082,
      " പുറത്തു": 4083,
      " തുറന്ന": 4084,
      "മരിച്ചത": 4085,
      "ുമായിരുന്നു": 4086,
      " ബിഗ് ബ": 4087,
      "ം സംസ്ഥാന": 4088,
      "ധാര": 4089,
      "ഴുവ": 4090,
      "ം ല": 4091,
      " അഖില": 4092,
      "ാണ് എന്ന": 4093,
      " പ്രകട": 4094,
      "ദ്മ": 4095,
      "ിവച്ച": 4096,
      " യാതൊരു": 4097,
      "ുപട": 4098,
      " നിന്നുള്ള ": 4099,
      "ഹുൽ ഗാന്ധ": 4100,
      "ദ്ധിമുട്ട": 4101,
      "മന്റ": 4102,
      " ആല": 4103,
      "ുണ്ടെന്ന്": 4104,
      "മാനേജ": 4105,
      "േതിക": 4106,
      " വയനാട് ": 4107,
      " തലത്തില": 4108,
      "ന്നിധ്യ": 4109,
      "പാ": 4110,
      "വരാണ": 4111,
      " ജോര": 4112,
      "ത്തിയിരുന്ന": 4113,
      "ഡ്ജ": 4114,
      "ബിഗ് ബോസ് ": 4115,
      "കൃത": 4116,
      " പ്രാ": 4117,
      "ുമെല്ല": 4118,
      "രാജന": 4119,
      "ലിൽ": 4120,
      " പീഡ": 4121,
      "സ്പ്ര": 4122,
      "പ്രതിനിധ": 4123,
      "തി നൽക": 4124,
      "ഗസ്ഥ": 4125,
      "വിരുദ്ധ": 4126,
      "്ബ": 4127,
      "ം അനുവദ": 4128,
      " ഓട": 4129,
      "ടഞ്ഞ": 4130,
      "ി - ": 4131,
      "ായിക": 4132,
      "രാഷ്ട്ര": 4133,
      "േരളത്തില": 4134,
      "ോർട്ട": 4135,
      "ം ആയ": 4136,
      "െന്നായിരുന്നു": 4137,
      "പ്രവ": 4138,
      " ലൈ": 4139,
      "െടുക്കുന്ന": 4140,
      "ാദവ": 4141,
      " പദ്ധതിയ": 4142,
      " സർക്കാര": 4143,
      " ഭാഗ്യ": 4144,
      "ആക": 4145,
      "ാന്റെ ": 4146,
      " മുഖ്യമന്ത്രി പിണറായി വിജയ": 4147,
      "ാങ്കേതിക": 4148,
      "ി ജില്ല": 4149,
      " വേള": 4150,
      " ഇന്ന് ": 4151,
      "രളീധരന": 4152,
      "താപ": 4153,
      "ലിന": 4154,
      "സമൂഹ": 4155,
      "ച്ചിന": 4156,
      " ചന്ദ്ര": 4157,
      " ബജ": 4158,
      " ലഭിച്ചത": 4159,
      "ം പ്രഖ്യാപ": 4160,
      "ഡെ": 4161,
      "മികച്ച": 4162,
      "ം ഫ": 4163,
      " ഭേദ": 4164,
      " ഏജന": 4165,
      "ജു": 4166,
      " വസ്തു": 4167,
      " ചല": 4168,
      "ല്ല,": 4169,
      " വിഷ": 4170,
      " സ്വീകര": 4171,
      "കാര്യത്തില": 4172,
      "ീറ": 4173,
      " ചുമതല": 4174,
      "സൗദ": 4175,
      "പ്പെടുകയ": 4176,
      "പോലീസ് ": 4177,
      "കോൺ": 4178,
      "ൊതു": 4179,
      " ഉച്ച": 4180,
      "വാക്കള": 4181,
      "് നടത്ത": 4182,
      "ൂഢ": 4183,
      "ം ശ": 4184,
      "േണ്ടത്": 4185,
      "ീകാര": 4186,
      "ാരായ": 4187,
      " ബഹ": 4188,
      "ാം,": 4189,
      "േണ്ടി വന്ന": 4190,
      "ാകിസ്ത": 4191,
      "കൊവിഡ": 4192,
      " വേണ": 4193,
      " ലീഗ് ": 4194,
      "തെരഞ്ഞെടുപ്പ": 4195,
      " ക്ഷേത്ര": 4196,
      "ൻ പറഞ്ഞ": 4197,
      " മിന": 4198,
      "ുന്നതില": 4199,
      "െ നില": 4200,
      " വൈറല": 4201,
      " ഡി എഫ": 4202,
      " സന്ദേശ": 4203,
      " ബംഗാള": 4204,
      " ഇടതുപക്ഷ": 4205,
      " രാജ്യത്ത്": 4206,
      "അതേ സമയ": 4207,
      "ാന്റ": 4208,
      "തിയെ സമീപ": 4209,
      "ിസി ജോര": 4210,
      "യറിയ": 4211,
      " കാർ": 4212,
      "െ കോണ": 4213,
      "സോ": 4214,
      "ൻഡ": 4215,
      "വരില": 4216,
      "ി വിട്ട": 4217,
      "ഫ്ഗാന": 4218,
      "ഭാഗമായ": 4219,
      " കാര്യത്തില": 4220,
      "സ്\n": 4221,
      " നേതാക്കൾ": 4222,
      " കാലയ": 4223,
      "ൊവ്വാഴ്ച": 4224,
      "തുറ": 4225,
      "ിട്ടില്ലെന്ന": 4226,
      "ദേശം ": 4227,
      "സ്റ്റര": 4228,
      "ം നടത്തിയത": 4229,
      " പ്രതികരിച്ച": 4230,
      "ല്യ": 4231,
      " കള്ള": 4232,
      "െ സഹായ": 4233,
      "എന്നാൽ,": 4234,
      " സാധ്യതയ": 4235,
      "ശ്ചിമ": 4236,
      " എന്നതാണ് ": 4237,
      "ജ്ര": 4238,
      " പ്രസംഗ": 4239,
      "നിങ്ങള": 4240,
      " കേസിൽ": 4241,
      "ം ഉണ്ടാക": 4242,
      "ായറാഴ്ച": 4243,
      "ായില്ല.\n": 4244,
      "നിലവിൽ": 4245,
      "ഘാത": 4246,
      "ാണോ": 4247,
      " ഉയർന്ന": 4248,
      "ക്കാരന": 4249,
      "ത്തിനിട": 4250,
      " പഞ്ചായത്ത": 4251,
      "വിദ്യാഭ്യാസ": 4252,
      "ിൽക്കുന്ന": 4253,
      "െ തന്ന": 4254,
      "ശീലന": 4255,
      "ിലേക്ക": 4256,
      "ിനെ അ": 4257,
      "േരത്തെ ": 4258,
      "ിവൈ": 4259,
      " കാര്യങ്ങൾ": 4260,
      " പെൺകുട്ട": 4261,
      "ഇവരുടെ ": 4262,
      "സാഹചര്യ": 4263,
      "ഹാസ": 4264,
      "ി ഷ": 4265,
      "ാണ് ന": 4266,
      "ിനോട് ": 4267,
      " പ്രചരണ": 4268,
      " വിമർശന": 4269,
      " എന്നായിരുന്നു": 4270,
      "ജില്ലകളില": 4271,
      "ംബാന": 4272,
      " ഘട്ടത്തില": 4273,
      " പഠന": 4274,
      "നുവരി ": 4275,
      "ഴുവൻ": 4276,
      "',": 4277,
      ").\n": 4278,
      "ചാണ്ട": 4279,
      "തനിക്ക്": 4280,
      "പദ്ധ": 4281,
      " കേട്ട": 4282,
      " നന്ദ": 4283,
      "ിച്ചേക്ക": 4284,
      "െയിൽ": 4285,
      " മന്ത്രി പറഞ്ഞ": 4286,
      " വിമാനത്താവള": 4287,
      "ഫോട": 4288,
      "ട്ടിയുടെ ": 4289,
      "ട്ടിമറ": 4290,
      "ോടെ പ": 4291,
      "ാൻ കഴിയ": 4292,
      " മുന്നോട്ട": 4293,
      "ഗങ്ങള": 4294,
      "ബർ": 4295,
      "മെന്നാണ് ": 4296,
      "വകാശ": 4297,
      "്ന": 4298,
      " ജോ": 4299,
      "ങ്കുവ": 4300,
      " ഇന്ത്യയില": 4301,
      "് ആയ": 4302,
      "എഫ്": 4303,
      "കോട്ടയ": 4304,
      "ഗാന്ധ": 4305,
      " ജല": 4306,
      "െ നി": 4307,
      " കൂടി ": 4308,
      "ലോക്ക്": 4309,
      "in": 4310,
      "ഐഎ": 4311,
      "നപക്ഷ": 4312,
      "യൂണ": 4313,
      "െ കൊണ്ട": 4314,
      " പേരുടെ ": 4315,
      "സ്വാധീന": 4316,
      "ചരിത്ര": 4317,
      "ിക്കാത": 4318,
      " ഇല": 4319,
      " ബെ": 4320,
      " നിങ്ങളുടെ ": 4321,
      "ഇന്ത്യൻ": 4322,
      " പിടിച്ച": 4323,
      "ചികിത്സയില": 4324,
      "ടച്ച": 4325,
      "ീണ്ട": 4326,
      "ം ചെയ": 4327,
      "സ്റ്റിസ് ": 4328,
      " സൈന്യ": 4329,
      "അവസാന": 4330,
      "ിയെന്ന": 4331,
      " വള": 4332,
      " ഒരുമ": 4333,
      "ം വാങ്ങ": 4334,
      " സ്വീകരിക്ക": 4335,
      "തുടർന്ന": 4336,
      "ുമായുള്ള": 4337,
      " ട്രെയിന": 4338,
      " ക്രമ": 4339,
      "അവരുടെ ": 4340,
      " അന്വേഷ": 4341,
      " സുരക്ഷാ": 4342,
      "െ പോലീസ് ": 4343,
      " ബാന": 4344,
      "ുവൈ": 4345,
      "സ്ഥാനാർത്ഥ": 4346,
      "ൂർ,": 4347,
      "ബിസിന": 4348,
      "പിന്നീട് ": 4349,
      "ഏറെ ": 4350,
      "പ്പണ": 4351,
      " വൈദ്യ": 4352,
      "തുവ": 4353,
      "ളവില": 4354,
      "ത്തി ": 4355,
      "ങ്ങാട": 4356,
      "കുമാർ": 4357,
      "പ്പെടുത്തുന്ന": 4358,
      "41": 4359,
      "കൂടുതല": 4360,
      "പോല": 4361,
      "ോന്ന": 4362,
      " ഉന്നത": 4363,
      " ധാരണ": 4364,
      " മറുപടിയ": 4365,
      "അപകട": 4366,
      " കെട്ടിട": 4367,
      "ം പറയുന്ന": 4368,
      "ഗാര": 4369,
      "ു:": 4370,
      "ത്തിക്ക": 4371,
      " പള്ള": 4372,
      " പൈല": 4373,
      " അന്ന്": 4374,
      " എട്ട": 4375,
      "ാലിറ്റ": 4376,
      "ുമുട്ട": 4377,
      "ം പൂര": 4378,
      " അഞ്ച് ": 4379,
      "മെഡിക്കൽ": 4380,
      "56": 4381,
      "57": 4382,
      " അക": 4383,
      " ലോക്": 4384,
      " നിലയിൽ": 4385,
      "58": 4386,
      "ഹസ്യ": 4387,
      "ുന്നതിനായി ": 4388,
      "ൂപ്പര": 4389,
      "നിന്ന്": 4390,
      "ിയെ പ": 4391,
      " സീസണ": 4392,
      "ഞ്ചിന": 4393,
      " പരിഹാര": 4394,
      "ച്ഛന": 4395,
      " പഞ്ചാബ": 4396,
      " സമി": 4397,
      "ല്ലപ്പള്ള": 4398,
      "് കാല": 4399,
      "ത്തെ തുടര": 4400,
      "യഥ": 4401,
      " ജില്ലയിലെ ": 4402,
      " അധ്യാപ": 4403,
      "പത": 4404,
      "ഫ്റ്റ": 4405,
      "ബൈല": 4406,
      "ശിച്ച": 4407,
      "് ഉ": 4408,
      "ത്തല": 4409,
      "ിക്കുമെന്നാണ് ": 4410,
      " ശിക്ഷ": 4411,
      " പരിഗണ": 4412,
      "കഴിഞ്ഞ ": 4413,
      "ആക്രമണ": 4414,
      "എച്ച": 4415,
      "സഖ്യ": 4416,
      "ല്ലെന്ന": 4417,
      "ി കൂട": 4418,
      "മാക്കാന": 4419,
      "പൊതു": 4420,
      "ഇരുവര": 4421,
      "ശേര": 4422,
      "ാപ്റ്റ": 4423,
      "േതാവ": 4424,
      " അതിന്റെ ": 4425,
      "ുകയാണെന്ന": 4426,
      " ട്രംപ": 4427,
      " തടയ": 4428,
      "ംക": 4429,
      "ത്തകള": 4430,
      " ഇന്നല": 4431,
      "തായ": 4432,
      "ിസ്റ്റ് ": 4433,
      "ിലെത്ത": 4434,
      "ിച്ചാൽ": 4435,
      "ാരോഗ്യ": 4436,
      "രുവ": 4437,
      " ഇഷ്ട": 4438,
      "ി പാര": 4439,
      " ഇന്ത്യയുടെ ": 4440,
      " വ്യക്തി": 4441,
      " യാത്രക്കാര": 4442,
      " ഘടക": 4443,
      "അറിയ": 4444,
      "എപ": 4445,
      "ഡിന": 4446,
      "ോ ഗ": 4447,
      " നമുക്ക്": 4448,
      "ികയാണ": 4449,
      " ഡോസ് ": 4450,
      "ി സു": 4451,
      "യുഡിഎഫ് ": 4452,
      "പ്രതിസന്ധ": 4453,
      " ഭരണകൂട": 4454,
      " അദ്ദേഹം കൂട്ടിച്ച": 4455,
      " സാമ്പിളുകള": 4456,
      "ക്കെട്ട": 4457,
      "ൻഡ് ": 4458,
      "ത്തോട് ": 4459,
      " തങ്ങളുടെ ": 4460,
      " വരുന്നത": 4461,
      " നിയമന": 4462,
      "ൂറോ": 4463,
      "ം മുന്ന": 4464,
      "രുതെന്ന": 4465,
      "സഹോദര": 4466,
      "അറസ്റ്റ് ": 4467,
      "ദരാ": 4468,
      "സമ്പര": 4469,
      " കുറച്ച": 4470,
      " അതിന്": 4471,
      "ദുബായ": 4472,
      " രീതിയിൽ": 4473,
      "കണക്ക": 4474,
      "ുന്നു": 4475,
      " ഒക്ക": 4476,
      "ിവില": 4477,
      "പ്പെടാന": 4478,
      "ിയാല": 4479,
      "്യൂണ": 4480,
      "ിക്കാർ": 4481,
      "ായത്": 4482,
      "ി പേര": 4483,
      "ി കൊണ്ട": 4484,
      "മേധാവ": 4485,
      " തിരഞ്ഞെടുപ്പിൽ": 4486,
      " സഹോദര": 4487,
      "റെയില": 4488,
      "ഉദ്യോഗ": 4489,
      "ഫേസ്ബുക്ക": 4490,
      "അര": 4491,
      "ം കോട": 4492,
      " സ്ഥിരീകരിച്ചത": 4493,
      " വീടുകളില": 4494,
      "അപേക്ഷ": 4495,
      "ഓര": 4496,
      "പുല": 4497,
      "ീദ": 4498,
      "ാക്കര": 4499,
      " സ്വതന്ത്ര": 4500,
      "രണ്ടു": 4501,
      " മണ്ഡലങ്ങളില": 4502,
      " കൂട്ടിച്ച": 4503,
      " വിദ്യാർത്ഥ": 4504,
      "പ്രസിഡന്റ": 4505,
      "ടിവ": 4506,
      "ഷണ": 4507,
      "ിയായിരുന്നു": 4508,
      " മോഹന": 4509,
      " നിരോധ": 4510,
      " പരിധ": 4511,
      " ബിജെപിയുടെ ": 4512,
      " ധര": 4513,
      " വാഗ്ദാന": 4514,
      "യോട": 4515,
      "റോഡ": 4516,
      "ച്ചയായ": 4517,
      "ികളിൽ": 4518,
      "െ കേസ": 4519,
      "സ്റ്റിറ്റ": 4520,
      " വന്നിരുന്ന": 4521,
      " പദ്ധതി ": 4522,
      " പ്രഖ്യാപിച്ച": 4523,
      " ക്ക": 4524,
      " തന": 4525,
      "യ്ക്കുന്ന": 4526,
      " സ്ഥാനത്ത": 4527,
      "വിതരണ": 4528,
      " നിർദേശ": 4529,
      "തോടെ ": 4530,
      "് കോണ": 4531,
      "ാര്യങ്ങള": 4532,
      "വീണ": 4533,
      "ിനെ തുടര": 4534,
      "സിപിഎമ്മ": 4535,
      "മൈ": 4536,
      "ൊടുക്ക": 4537,
      "ോവിഡ": 4538,
      "ടുക്കുന്ന": 4539,
      " ആശയ": 4540,
      "ുമില്ല.\n": 4541,
      "ി നി": 4542,
      "ിതാക്കള": 4543,
      " ഒരുപാട": 4544,
      "ുന്നതിനുള്ള": 4545,
      " ആരോപിച്ച": 4546,
      "എംഎല": 4547,
      " ത്ര": 4548,
      "ൽക്ക": 4549,
      "ുവന്നത": 4550,
      "ാവധ": 4551,
      "സംഖ്യ": 4552,
      "ുപേര": 4553,
      " തരത്തില": 4554,
      " അക്കൗണ്ട": 4555,
      "ല്ലേ": 4556,
      " രാഷ്ട്ര": 4557,
      "ം മുമ്പ": 4558,
      "േഗ": 4559,
      " സൂക്ഷ": 4560,
      "ിന്ധ്യ": 4561,
      "സ്പര": 4562,
      " ആഘോഷ": 4563,
      "വാഹന": 4564,
      " നമ്മള": 4565,
      " പേർക്ക": 4566,
      "സ്പെ": 4567,
      "ല്ലെങ്കില": 4568,
      "ാതെ പ": 4569,
      " യുഡിഎഫ് ": 4570,
      " കേസിലെ ": 4571,
      "മെന്റ് സ": 4572,
      "ക്കാലിക": 4573,
      "ഒരാള": 4574,
      "ിനാണ് ": 4575,
      " രാജ്യങ്ങളില": 4576,
      " കാലത്ത്": 4577,
      "കെ മാണ": 4578,
      " അനുസര": 4579,
      "ാരായണ": 4580,
      "ഡിജ": 4581,
      "ൂൺ": 4582,
      "ൊള": 4583,
      " സഭ": 4584,
      " തൊഴിലാളികള": 4585,
      "വിദ്യാര": 4586,
      "ത്തിലെത്ത": 4587,
      "ബന്ധപ്പെട്ട": 4588,
      "ി പ്രവർത്ത": 4589,
      " കൊണ്ടുവര": 4590,
      "പരിധ": 4591,
      "ി നേതൃത്വ": 4592,
      "നോട്ട": 4593,
      "ിയാക": 4594,
      "ി ഒരു": 4595,
      " തങ്ങള": 4596,
      "ിക്കാനാണ് ": 4597,
      "ി കുറ": 4598,
      " ഓഫ": 4599,
      "യോഗ്യത": 4600,
      "െക്കുറിച്ച": 4601,
      "ഈ സാഹചര്യത്തില": 4602,
      "ക്കല": 4603,
      " വിക": 4604,
      " തന്ത്ര": 4605,
      "ങ്കാന": 4606,
      "ുവിന്": 4607,
      " കൊടുത്ത": 4608,
      "ഭിപ്രായ": 4609,
      " ആവശ്യമായ": 4610,
      "കൂടാതെ ": 4611,
      "ം സ്വദേശി (": 4612,
      "നഗര": 4613,
      "്...\n": 4614,
      "മ്പല": 4615,
      " കേന്ദ്ര സര": 4616,
      "ിറങ്ങിയ": 4617,
      "എസ്പ": 4618,
      "അവിട": 4619,
      " ഒട്ട": 4620,
      "ോഗ്യമന്ത്ര": 4621,
      "യ്ക്കാന": 4622,
      " രോഗമുക്ത": 4623,
      " എന്നിവിടങ്ങളില": 4624,
      " നിരീക്ഷണത്തില": 4625,
      " അധികൃതര": 4626,
      "ലിക്ക": 4627,
      "വന്": 4628,
      "ക്കിടയില": 4629,
      "ാവകാശ": 4630,
      "യുധ": 4631,
      "ിവസേന": 4632,
      "ം ചെയ്യാന": 4633,
      "തിനെ തുടര": 4634,
      "68": 4635,
      "ം മാറ്റ": 4636,
      " കുഴ": 4637,
      " ഓര": 4638,
      " അദ്ദേഹം വ്യക്തമാക്ക": 4639,
      " വ്യക്തമാക്കുന്ന": 4640,
      "ബ്രാഞ്ച": 4641,
      "ആരോപിച്ച": 4642,
      "സാക്ഷ": 4643,
      "പന": 4644,
      "റായ": 4645,
      " പന്ത": 4646,
      "ുകേഷ": 4647,
      "ോയെന്ന": 4648,
      "ുകൊണ്ട് ": 4649,
      "ുനിന്ന": 4650,
      "തകള": 4651,
      "ത്തക": 4652,
      " സോണിയ": 4653,
      " അകല": 4654,
      " ചിത്രങ്ങള": 4655,
      " സി പി എ": 4656,
      "െപിസിസ": 4657,
      "59": 4658,
      "ടങ്ങിയ": 4659,
      "ോക്ത": 4660,
      "ത്തോടെയാണ് ": 4661,
      " കോട്ടയ": 4662,
      "വാസം": 4663,
      " മന്ത്രിമാര": 4664,
      "ി സ്വദേശി (": 4665,
      "ഇത്രയ": 4666,
      "െന്ത": 4667,
      " പ്പ": 4668,
      " മമത": 4669,
      "െ കൂട": 4670,
      "ണമെങ്കില": 4671,
      "ോസ് കെ മാണ": 4672,
      " മാനേജ": 4673,
      " മലപ്പുറം ": 4674,
      "ഡര": 4675,
      "െയോ": 4676,
      " വിസ": 4677,
      "് പോല": 4678,
      "ാധ്യത": 4679,
      " തിരിച്ചട": 4680,
      " കൊല്ലം ": 4681,
      " പേർക്ക്": 4682,
      "ുന്നതെന്ന്": 4683,
      "ഞ്ച് ": 4684,
      " ഒരുക്ക": 4685,
      "ി അറിയിച്ച": 4686,
      "ഗുണ": 4687,
      "അധികാര": 4688,
      "ിയേര": 4689,
      " കാറ്റ": 4690,
      " കോഴിക്കോട": 4691,
      " വാക്ക": 4692,
      "ം തുടര": 4693,
      "ം കിട്ട": 4694,
      "േതൃത്വ": 4695,
      "വേള": 4696,
      " ഞെട്ട": 4697,
      " പരാമര": 4698,
      " വ്യാപാര": 4699,
      " പങ്കുവെച്ച": 4700,
      "ൂലൈ ": 4701,
      ", സ": 4702,
      "ഴുത": 4703,
      "ൃപ്": 4704,
      " സമുദായ": 4705,
      "ായി": 4706,
      " മഹാരാഷ്ട്ര": 4707,
      "ുപിട": 4708,
      " വെളിപ്പെടുത്ത": 4709,
      "ി വിഭാഗ": 4710,
      "യ്യില": 4711,
      "അഭിപ്രായ": 4712,
      "എത്ത": 4713,
      "എം ": 4714,
      " മേല": 4715,
      " ശിവ": 4716,
      "വീസ": 4717,
      "് വ്യക്തമാക്ക": 4718,
      " സ്ഥാനാർത്ഥ": 4719,
      " ജീവന": 4720,
      "ജൻസ": 4721,
      "പറ": 4722,
      "ഭക്ഷണ": 4723,
      "ത്തർ": 4724,
      " യുപ": 4725,
      "ൗരവ": 4726,
      "കോടതി ": 4727,
      "ഐസ": 4728,
      "ജാത": 4729,
      " തരംഗ": 4730,
      " ലോക്ക്": 4731,
      "ലീല": 4732,
      "നടത്ത": 4733,
      "വ്വേ": 4734,
      "െക്രട്ടറ": 4735,
      "52": 4736,
      "ജല": 4737,
      "ുതു": 4738,
      "െഹ": 4739,
      " അഴിമ": 4740,
      "ം ഇന്ത്യ": 4741,
      " പെരു": 4742,
      "പത്തനംതിട്ട": 4743,
      "വട്ട": 4744,
      "ുന്നില്ല.\n": 4745,
      " ലെ ": 4746,
      " ചെയ്ത്": 4747,
      "ോറിറ്റ": 4748,
      "ഒഴിവ": 4749,
      " പുരുഷന": 4750,
      " വകുപ്പ് മന്ത്ര": 4751,
      "െബ്രുവരി ": 4752,
      "തള്ള": 4753,
      "തെന്ന്": 4754,
      "ിയ്ക്ക്": 4755,
      " പ്രമേയ": 4756,
      " സ്ഥിത": 4757,
      "ി വൈ": 4758,
      "നിങ്ങളുടെ ": 4759,
      "കഴിഞ്ഞ ദിവസ": 4760,
      " മാസം ": 4761,
      "ത് എന്ന്": 4762,
      "ക്കാക്കര": 4763,
      " പ്രവേശന": 4764,
      " ചൂണ്ടിക്കാണ": 4765,
      "െ പറയ": 4766,
      " കൊടുക്ക": 4767,
      "ം നടന്നത": 4768,
      "ാക്ക്": 4769,
      " വിട": 4770,
      "മുഖ്യമന്ത്രിയുടെ ": 4771,
      "ബ്ദു": 4772,
      " ഇല്ലാത": 4773,
      "വരണ": 4774,
      " ആരാധ": 4775,
      "ിവെക്ക": 4776,
      " അതില": 4777,
      "ജിസ്ട്ര": 4778,
      "്‍;": 4779,
      "ക്കണ": 4780,
      " കൃഷ്ണ": 4781,
      "ാണ് ത": 4782,
      " തട്ടിപ്പ": 4783,
      "ങ്ങളായ": 4784,
      " നടപ്പാക്ക": 4785,
      "േയുള്ള": 4786,
      " പ്രശ്ന": 4787,
      "ഭോക്ത": 4788,
      "ലെ ": 4789,
      "വൻ": 4790,
      "ിത്യ": 4791,
      " പ്രമുഖ": 4792,
      "രാറ": 4793,
      " പോര": 4794,
      " ഗത": 4795,
      " കുറയ": 4796,
      "ാനുള്ള ശ്രമ": 4797,
      "മിത് ഷാ": 4798,
      "300": 4799,
      "ഡിറ്റ": 4800,
      " പത്ത്": 4801,
      "ും;": 4802,
      " അത്തര": 4803,
      "ക്ഷോഭ": 4804,
      " ഉമ്മന": 4805,
      "ന്ദിര": 4806,
      "ദ്ധര": 4807,
      "മുണ്ടായിരുന്ന": 4808,
      "ഠന": 4809,
      "ൂമ": 4810,
      " സേവന": 4811,
      "ിക്കുമ്പോള": 4812,
      "െ അറസ്റ്റ് ": 4813,
      " സ്വദേശിന": 4814,
      "അന്ത": 4815,
      "െൽ": 4816,
      "്..\n": 4817,
      "സൈറ്റ": 4818,
      "മൃ": 4819,
      " സജ്ജ": 4820,
      "വേണു": 4821,
      "ഹൃദ": 4822,
      "ം ഏറ്റ": 4823,
      " ഉദ്യോഗസ്ഥ": 4824,
      "ഞെട്ട": 4825,
      "നാണ": 4826,
      "ബീ": 4827,
      "ൂവ": 4828,
      "്\"": 4829,
      " മൊഴ": 4830,
      "ോസിയ": 4831,
      " വനിത": 4832,
      "േശ്വര": 4833,
      "ുമോ": 4834,
      "ീവ് ": 4835,
      " ഓഫ് ": 4836,
      " പങ്കാള": 4837,
      " വനിതാ": 4838,
      "കോൺഗ്രസ് ": 4839,
      " ജൂണ": 4840,
      "ോളേജ": 4841,
      "ം ആവശ്യപ്പെട്ട": 4842,
      "ശുപത്രിയില": 4843,
      "ൊഴിൽ": 4844,
      " നടപടികൾ": 4845,
      "നേതൃത്വത്തിലുള്ള": 4846,
      " അടച്ച": 4847,
      "ുന്നണ": 4848,
      "്യമാക": 4849,
      " സുന": 4850,
      "അതിന്റെ ": 4851,
      "് അല": 4852,
      " ബിസിന": 4853,
      "എക": 4854,
      "വകലാശാല": 4855,
      "ഷോ": 4856,
      " കാത്ത": 4857,
      "ിനെ ന": 4858,
      "ോടെ അ": 4859,
      " കൊലപാതക": 4860,
      " സമ്പർക്കം\n": 4861,
      "ചർച്ച": 4862,
      "ർട്ട": 4863,
      " അന്തര": 4864,
      "ജില്ലയിൽ": 4865,
      " സംഭവത്തില": 4866,
      "ോട്ട് പോക": 4867,
      "നുസരിച്ച് ": 4868,
      "എ.": 4869,
      "ീൻ": 4870,
      "വാട": 4871,
      "ിടയിൽ": 4872,
      "ചെയര": 4873,
      "ധനാഴ്ച": 4874,
      " ഉള്ളത": 4875,
      " വളരെ ": 4876,
      "ി അധ്യക്ഷന": 4877,
      " മത്സ്യ": 4878,
      "ഴാഴ്ച": 4879,
      "ിവാള": 4880,
      "ോടുള്ള": 4881,
      " കാട്ട": 4882,
      "ിച്ചതെന്ന": 4883,
      " റി": 4884,
      "വീന": 4885,
      "ദിത്യ": 4886,
      "ൂഢാലോചന": 4887,
      " റിയ": 4888,
      "69": 4889,
      "ww": 4890,
      "മഹാരാഷ്ട്ര": 4891,
      " കാഴ്ച": 4892,
      "ില്ല എന്ന്": 4893,
      "ാക്കി ": 4894,
      "ാമറ": 4895,
      "ആവശ്യപ്പെട്ട": 4896,
      "ജോ": 4897,
      "ത്\n": 4898,
      "ത്തൂര": 4899,
      "ുടേത": 4900,
      "എന്നിവ": 4901,
      "സംവിധാന": 4902,
      "ി ആയ": 4903,
      " തരത്തിലുള്ള": 4904,
      " അതിര": 4905,
      "ിവാര": 4906,
      "ഔദ്യോഗിക": 4907,
      "അത്തര": 4908,
      "റിന്": 4909,
      "ന്മ": 4910,
      " റെക്ക": 4911,
      " ഭാവ": 4912,
      " ശേഷമാണ് ": 4913,
      " ശതമാനം പേര": 4914,
      " സിപിഐ": 4915,
      "സ്ത്രീകള": 4916,
      "ാകിസ്താന": 4917,
      "ത്തുള്ള": 4918,
      "ിയുടെയ": 4919,
      "മ്മു": 4920,
      " ഇവിടെ ": 4921,
      "യുമായ": 4922,
      "ക്യാമ്പ": 4923,
      "രുതെന്ന്": 4924,
      "കൾക്ക്": 4925,
      "ഭ്യര": 4926,
      "ഗോ": 4927,
      "തിന്": 4928,
      "നടക്ക": 4929,
      " പുല": 4930,
      "ാവില്ല.\n": 4931,
      "െ പുറത്ത": 4932,
      "ീകരിക്കുന്ന": 4933,
      "െ നിന്ന": 4934,
      " അനുവദിക്ക": 4935,
      " ഡിസം": 4936,
      "ഡ് ക": 4937,
      "സമീപ": 4938,
      " കർഷ": 4939,
      "മ്പോൾ": 4940,
      "മ്മൂട്ട": 4941,
      "ോട്ടോ": 4942,
      "െ എസ് ": 4943,
      " സുരേഷ് ഗോപ": 4944,
      " കുടു": 4945,
      " നാല് ": 4946,
      "ോവിന്ദ": 4947,
      "ഓട": 4948,
      "ശതമാന": 4949,
      "ുവാ": 4950,
      "െട": 4951,
      "പ്രമുഖ": 4952,
      "ിക്കുന്നതെന്ന": 4953,
      " അവതര": 4954,
      "ികൾക്ക": 4955,
      "െ ആക്രമ": 4956,
      "ഗ്ന": 4957,
      " നടപടി സ്വ": 4958,
      " മുമ്പ് ": 4959,
      "ശബ്ദ": 4960,
      "ാനാക": 4961,
      "സംശയ": 4962,
      "ക്രൈ": 4963,
      " റോബ": 4964,
      "വർണ്ണ": 4965,
      "പ്പെടുവ": 4966,
      "ഫോഴ": 4967,
      "ുകളിലെ ": 4968,
      "സ്റ്റേഷന": 4969,
      "രാജസ്ഥാന": 4970,
      " ഗവര": 4971,
      "ോഹൻ": 4972,
      " അറസ്റ്റില": 4973,
      " രേഖകള": 4974,
      "സൂത്ര": 4975,
      "അല": 4976,
      "ആകെ ": 4977,
      "ആത്മ": 4978,
      "ചല": 4979,
      "ാസര": 4980,
      " വക": 4981,
      " ആശുപത്രികളില": 4982,
      " കളക്ടര": 4983,
      "കീയ": 4984,
      "മണിക്ക": 4985,
      "ിക്കൊപ്പ": 4986,
      " ആകെ ": 4987,
      "ുമോ എന്ന": 4988,
      "ന്ധന": 4989,
      "ഞ്ചേര": 4990,
      " ഇതില": 4991,
      "എതിര": 4992,
      "നൽക": 4993,
      "ും.": 4994,
      "ിപ്പിക്കാൻ": 4995,
      " ക്വാറന്റ": 4996,
      "് കുമാറ": 4997,
      "ൊന്ന്": 4998,
      " സിറ്റ": 4999,
      "ത്തിലധിക": 5000,
      "ി നിയമ": 5001,
      "ുകൾ.\n": 5002,
      " സംസ്ഥാനങ്ങള": 5003,
      "ാണ് ഇവര": 5004,
      "നടത്തിയ": 5005,
      "തിരുവനന്തപുരം ": 5006,
      "ി ഉണ്ട": 5007,
      "അങ്ങന": 5008,
      " പിന്": 5009,
      "ി ൽ": 5010,
      "ാണുള്ളത": 5011,
      "ിച്ചെങ്കില": 5012,
      " പ്രത്യ": 5013,
      "പ്രചാരണ": 5014,
      " മാല": 5015,
      "നിലവിലെ ": 5016,
      " യുവാവ": 5017,
      "ഇന്ത്യയുടെ ": 5018,
      " മേഖലകളില": 5019,
      "അദ്ദേഹത്തിന്റെ ": 5020,
      "ില്യണ": 5021,
      "ശ്ചിത": 5022,
      "എസ്എസ് ": 5023,
      "ഗുജറാ": 5024,
      "ഭാവന": 5025,
      " നിയന്ത്രണങ്ങള": 5026,
      "മൊഴ": 5027,
      "ച്ചവട": 5028,
      " പ്രതിയ": 5029,
      " ആക്രമ": 5030,
      " ചേ": 5031,
      "െ പിന്തുണ": 5032,
      "ം അറിയിച്ച": 5033,
      "ം ചെല": 5034,
      "േണ്ടതുണ്ട": 5035,
      " പരാതി നല": 5036,
      " പുറമേ": 5037,
      "ം ലഭിക്ക": 5038,
      "സാധ്യത": 5039,
      "ത്സവ": 5040,
      "ആശുപത്രിയില": 5041,
      " പ്രവച": 5042,
      "67": 5043,
      "തയ്യാറ": 5044,
      "ിപ്പോയ": 5045,
      "ുവാന": 5046,
      " അവധ": 5047,
      " കൂടിക്കാഴ്ച": 5048,
      " മുഖ്യമന്ത്രിയുടെ ": 5049,
      "െ ആണ": 5050,
      " പ്രദേശങ്ങളില": 5051,
      " സ്വാതന്ത്ര്യ": 5052,
      " സാക്ഷ": 5053,
      "തിക്കാര": 5054,
      "യിലുള്ള": 5055,
      "സിദ്ദ": 5056,
      " കൂടിയ": 5057,
      "കൂടാത": 5058,
      "ഭാവിക": 5059,
      "്തിരിക്കുന്നത": 5060,
      " തൊഴിലാള": 5061,
      " നടപ്പില": 5062,
      "ാപുര": 5063,
      "സഭാ തെരഞ്ഞെടുപ്പ": 5064,
      "ശാന്ത": 5065,
      "ഞ്ജു": 5066,
      "് പറയുന്ന": 5067,
      "ാ യ": 5068,
      "്രാ": 5069,
      " തൊട്ട": 5070,
      "ത്തിൽ ": 5071,
      "ി കുട": 5072,
      "ാണ് പോ": 5073,
      " അഭിഭാഷ": 5074,
      "അവർ": 5075,
      "ഖണ്ഡ": 5076,
      "സൂര്യ": 5077,
      "ി ച്ച": 5078,
      " സമാധാന": 5079,
      "ിച്ചിട്ടില്ല.\n": 5080,
      " മണ്ണ": 5081,
      "ി കേന്ദ്ര": 5082,
      "ം വ്യക്ത": 5083,
      "....\n": 5084,
      "ാണ് പുതിയ": 5085,
      " കാര്യമ": 5086,
      "യോര": 5087,
      " പതിന": 5088,
      "പ്രശ്": 5089,
      "ുകളിലേക്ക്": 5090,
      "ലഭിക്ക": 5091,
      " മുന്നേറ്റ": 5092,
      " വാക്സിന": 5093,
      " സംഘടനകള": 5094,
      "ിബാന": 5095,
      " മെഡിക്കൽ": 5096,
      " ണ്ട": 5097,
      "ൊല്ല": 5098,
      "ായു": 5099,
      " ആവശ്യമ": 5100,
      " തിരുവ": 5101,
      " നിരക്ക": 5102,
      "കൊലപാതക": 5103,
      "സ്തക": 5104,
      "ബുദ": 5105,
      " അറിഞ്ഞ": 5106,
      "എങ്കില": 5107,
      "വ്യക്ത": 5108,
      "േന്ത്യ": 5109,
      "ക്കുകയാണ": 5110,
      "െ ഇ": 5111,
      "ത്തകന": 5112,
      " ശരിയ": 5113,
      "് പാര": 5114,
      "ാധികാര": 5115,
      "ശ്വാസം": 5116,
      "ംഎല": 5117,
      "അനു": 5118,
      "ഹരിക്ക": 5119,
      "ാർഥ": 5120,
      " ഡിജ": 5121,
      "ി എസ് ": 5122,
      "ക്ഷണങ്ങള": 5123,
      "മുഖ്യമന്ത്രി പിണറായി വിജയ": 5124,
      " പെട്ര": 5125,
      "ക്കുട": 5126,
      "ക്ക് വേണ്ട": 5127,
      "ത്തിൽ നിന്ന്": 5128,
      "് നിയമ": 5129,
      " കൊണ്ട് ": 5130,
      " വ്യവസായ": 5131,
      " ഓഫീസര": 5132,
      "ഷ്യൽ മീഡിയ": 5133,
      "ദാര": 5134,
      "ശിക്ഷ": 5135,
      "യിലാണ": 5136,
      "ം വൈ": 5137,
      "198": 5138,
      " രാജ്യത്തെ ": 5139,
      " ഭാഷ": 5140,
      "നിക": 5141,
      "പോര": 5142,
      " കൗണ": 5143,
      "ിരിക്കുകയ": 5144,
      " ടിക്കറ്റ": 5145,
      " ദിവസവ": 5146,
      " പോകുന്നത": 5147,
      " ചിലര": 5148,
      "ൂത്ത് കോണ": 5149,
      " ങ്ങ": 5150,
      "ടീമ": 5151,
      "സാമൂഹ": 5152,
      "ിയോട": 5153,
      " സല": 5154,
      " സംവിധ": 5155,
      "ം നേടിയ": 5156,
      "യിൽ നിന്ന": 5157,
      " തന്നെ ക": 5158,
      " സുരേന്ദ്രന": 5159,
      "150": 5160,
      "സംബന്ധിച്ച": 5161,
      "െ സുരേന്ദ്രന": 5162,
      "51": 5163,
      " ലഭിക്കുന്ന": 5164,
      "ൻ്റെ ": 5165,
      "ചന്ദ്രന": 5166,
      "ാ ണ": 5167,
      "ജോലി ": 5168,
      "ർ,": 5169,
      "ക്കേസ": 5170,
      " വധ": 5171,
      "സിക്യൂ": 5172,
      "ക്രൈന": 5173,
      " ഭര": 5174,
      " ഏത്": 5175,
      "ോർജ": 5176,
      "ീരിയ": 5177,
      "ാണ് ഇന്ത്യ": 5178,
      "കാലത്ത്": 5179,
      "മാധ്യമങ്ങള": 5180,
      "ഓഫ": 5181,
      "ിഗ": 5182,
      "ിൾ": 5183,
      "ക്കാൻ": 5184,
      " കറ": 5185,
      " ഡൗണ": 5186,
      " വൈസ് ": 5187,
      " നടത്തിയിരുന്ന": 5188,
      " എന്നിവയ": 5189,
      "ഉറ": 5190,
      "രീക്ഷ": 5191,
      " പാത": 5192,
      " കടക്ക": 5193,
      " ഇസ്രായേല": 5194,
      "ില്ലായിരുന്ന": 5195,
      " ടൂറ": 5196,
      "സിനേഷന": 5197,
      "നിരീക്ഷണ": 5198,
      "സംഘട": 5199,
      "ധനവ": 5200,
      " പ്രധാനമന്ത്രി നരേന്ദ്ര മോദ": 5201,
      " കൃത്യമായ": 5202,
      "കോപ": 5203,
      "ശശ": 5204,
      "ൊരാള": 5205,
      " മാർ": 5206,
      "റ്റ് ചെയ്ത": 5207,
      "ം എന്ത": 5208,
      "കോവിഡ": 5209,
      "വൈറ": 5210,
      " ഫേസ്ബുക്ക": 5211,
      "ഏത്": 5212,
      "ഷത്തില": 5213,
      " ഒന്ന്": 5214,
      "ാക്കുകയ": 5215,
      "മുഖ്യ": 5216,
      "ിടുന്നത": 5217,
      "ഗ്രസ് നേതാക്കള": 5218,
      "ജനാധിപത്യ": 5219,
      " ഐക്യ": 5220,
      " സൗജന്യ": 5221,
      "ബി ": 5222,
      "റി ": 5223,
      "േ.\n": 5224,
      "ർമ": 5225,
      "ം തുടങ്ങിയ": 5226,
      "് കണ്ട": 5227,
      " ഒരുങ്ങ": 5228,
      "ി തന്ന": 5229,
      " വ്യക്തമാക്കുന്നത": 5230,
      " പോയത": 5231,
      "ദരാബാദ": 5232,
      "ചെറ": 5233,
      " മകന": 5234,
      "ഞ്ഞെടുത്ത": 5235,
      "നുമായ": 5236,
      "ിറ്റല": 5237,
      "ഗുരുതര": 5238,
      " വ്യത്യസ്ത": 5239,
      " സാമൂഹിക": 5240,
      "77": 5241,
      "അട": 5242,
      "ി പറയുന്ന": 5243,
      " താൻ": 5244,
      " കൊല": 5245,
      "പരമായി ": 5246,
      "മുണ്ടായ": 5247,
      "ഓഫീസ": 5248,
      " പിന്നീട് ": 5249,
      ", ആലപ്പുഴ": 5250,
      "പുറത്ത": 5251,
      " സന്ദർ": 5252,
      "ം ഹ": 5253,
      "ിച്ച് വര": 5254,
      " പൊല": 5255,
      "ി തര": 5256,
      "ം മറ": 5257,
      " ഇതേ": 5258,
      "ിച്ച് കൊണ്ട": 5259,
      "ോ ": 5260,
      "ൽ എ": 5261,
      " യഥ": 5262,
      " തന്നെയ": 5263,
      "് ആണ": 5264,
      "അതിനാല": 5265,
      " ഇല്ലാത്ത": 5266,
      "മുന്നണ": 5267,
      "പുതു": 5268,
      "ം പറയ": 5269,
      "ഇടുക്ക": 5270,
      "ഗ്ല": 5271,
      "േൽ": 5272,
      "ത്തിക്കുന്ന": 5273,
      "ത്തേക്ക": 5274,
      " ഇവർ": 5275,
      " റെ": 5276,
      " സുരക്ഷിത": 5277,
      "ശരീര": 5278,
      " ഹൈക്കോടതി ": 5279,
      "ഐ.": 5280,
      "ഡിപ": 5281,
      "പമാന": 5282,
      "ബിഎ": 5283,
      "വിയ": 5284,
      "ിയെ അ": 5285,
      " കല്ല": 5286,
      " ചുമ": 5287,
      " സംരക്ഷ": 5288,
      " എന്നത്": 5289,
      " ഞങ്ങൾ": 5290,
      "പ്പെടുത്തിയിരുന്ന": 5291,
      "ുമായി ബന്ധപ്പെട്ട് ": 5292,
      "മാർക്ക": 5293,
      "ായാണ് ": 5294,
      "പ്രിയങ്ക": 5295,
      " ശശ": 5296,
      "മ്പത്": 5297,
      "ം കേന്ദ്ര": 5298,
      "ം നഷ്ട": 5299,
      " മാത്രമാണ": 5300,
      " മുന്നിൽ": 5301,
      "ഷ്ഠ": 5302,
      "ം വിള": 5303,
      " വ്യക്തമായ": 5304,
      "അതുകൊണ്ട് തന്നെ ": 5305,
      " നാട്ടുകാര": 5306,
      "ടിസ": 5307,
      " എ.": 5308,
      "് കഴിഞ്ഞ": 5309,
      "സിങ": 5310,
      "ലഭിച്ചത": 5311,
      "െ സുധാകരന": 5312,
      " രു": 5313,
      "കോഴിക്കോട് ": 5314,
      "ദർ": 5315,
      "ക്കണക്കിന്": 5316,
      " ഇളവ": 5317,
      "യിലൂട": 5318,
      " മാറിയ": 5319,
      " റദ്ദ": 5320,
      " ഗണ": 5321,
      " പ്രതിഫല": 5322,
      "േറ്റര": 5323,
      " നേട്ടങ്ങള": 5324,
      " തിരുവനന്തപുരം ": 5325,
      " കിട്ടിയ": 5326,
      "കണ്ണൂർ": 5327,
      "ഭാ ഗ": 5328,
      " പേരില": 5329,
      "െ മറ്റ": 5330,
      "ി എന്നിവര": 5331,
      "മറ്റു": 5332,
      "ജ്രിവാള": 5333,
      "ഞങ്ങൾ": 5334,
      "ശമ്പള": 5335,
      "ർദ്ദ": 5336,
      " നാട": 5337,
      "ലീഗ": 5338,
      " അദ്ദേഹത്തിന്": 5339,
      " സംസ്ഥാന സര": 5340,
      "ിന് പിന്നാലെ ": 5341,
      "ുഡ": 5342,
      " മേയ": 5343,
      "മുദ്ര": 5344,
      " പോസ്റ്റ് ": 5345,
      " നിയമസഭാ തിരഞ്ഞെടുപ്പ": 5346,
      " വിജയിച്ച": 5347,
      "കൃഷ്ണന": 5348,
      " ഗതാഗത": 5349,
      "ധ്യാപ": 5350,
      "മസ": 5351,
      "േലിയ": 5352,
      "പ്പര": 5353,
      "ിപ്പിച്ചിരുന്ന": 5354,
      "് കേന്ദ്ര": 5355,
      "ിഞ്ഞാറ": 5356,
      " ഡല": 5357,
      "വരുടെ എണ്ണം ": 5358,
      "ന്യൂഡല": 5359,
      "er": 5360,
      "കോട്ട": 5361,
      "ിയാന": 5362,
      " അന്ന": 5363,
      " ബല": 5364,
      "സംര": 5365,
      "ിറക്കിയ": 5366,
      " ഗ്രഹ": 5367,
      "ബ്ബ": 5368,
      "രേഖപ്പെടുത്ത": 5369,
      "േഡ": 5370,
      "് (": 5371,
      "ത്താല": 5372,
      "ം ഡ": 5373,
      "ുവിന": 5374,
      "ം ചെയ്തത": 5375,
      " പ്രവർത്തന": 5376,
      "ഹുമാന": 5377,
      " മണിക്കൂറിന": 5378,
      "മറുപട": 5379,
      " ദേ": 5380,
      "പതി ": 5381,
      "മില്ലാത്ത": 5382,
      "റി": 5383,
      "വി ": 5384,
      "് ഫ": 5385,
      " പക്ഷേ": 5386,
      " ലാഭ": 5387,
      "് അറിയിച്ച": 5388,
      "ശനിയാഴ്ച": 5389,
      "ിറോസ് ": 5390,
      " കേരളത്തിൽ": 5391,
      " പോലെ ": 5392,
      " ഇല്ല.\n": 5393,
      "ധികൃതര": 5394,
      "99": 5395,
      "ദുരന്ത": 5396,
      "ിതി": 5397,
      " എവിട": 5398,
      "തിരുവ": 5399,
      "് തവണ": 5400,
      " ബിരുദ": 5401,
      "പത്": 5402,
      "ുവെങ്കില": 5403,
      "ന്ദന": 5404,
      "യിൽ നിന്ന്": 5405,
      "ശ്രയ": 5406,
      "പേരിൽ": 5407,
      "പ്പെടുത്തിയിട്ടുണ്ട": 5408,
      "സംഭവത്തില": 5409,
      "ഓഫീസര": 5410,
      "ി സംസ്ഥാന": 5411,
      " കമല": 5412,
      " ആശ": 5413,
      "ത്തിനിടെ ": 5414,
      "രാജ്യങ്ങള": 5415,
      " വിദ്യാർ": 5416,
      "ഖാന": 5417,
      "്/": 5418,
      "് പുറത്ത": 5419,
      "ം കേരള": 5420,
      "കഴിഞ്ഞ ദിവസം": 5421,
      " തന്നെ അ": 5422,
      "ജിത്ത്": 5423,
      "ഉണ്ടായ": 5424,
      "കൃ": 5425,
      "മഴ": 5426,
      " തേട": 5427,
      "ിപ്പൂര": 5428,
      "േഷ്യ": 5429,
      "സംരക്ഷ": 5430,
      "ം വില": 5431,
      "ം അദ്ദേഹ": 5432,
      "ം ആദ്മ": 5433,
      " മുഖ്യമന്ത്രി പറഞ്ഞ": 5434,
      "ുകാരന": 5435,
      "മുന്നോട്ട": 5436,
      "പ്രതീക്ഷിത": 5437,
      "മിത് ഷായ": 5438,
      "ാ ന": 5439,
      "ക്കാറ": 5440,
      " കാറ": 5441,
      "ം മൂല": 5442,
      " കുത": 5443,
      "ംകുള": 5444,
      "താമസ": 5445,
      "ബംഗാള": 5446,
      "യുടെയ": 5447,
      "വസര": 5448,
      "സീറ്റ": 5449,
      "ൗത്യ": 5450,
      "ി ആര": 5451,
      " സിന്ധ്യ": 5452,
      "റ്റാണ്ട": 5453,
      " ഗോപ": 5454,
      "ി കാണ": 5455,
      "ം നടത്തുന്ന": 5456,
      "ഭരണഘടന": 5457,
      "് കമ്മിറ്റ": 5458,
      " ആഗ്രഹിക്കുന്ന": 5459,
      "അറിയിച്ച": 5460,
      "ജെ": 5461,
      "വെച്ച": 5462,
      "ീന്ദ്ര": 5463,
      " കമ്പ": 5464,
      "ിന് വേണ്ട": 5465,
      "വരുമാന": 5466,
      " റെയില": 5467,
      "് നി": 5468,
      "ത്തിന്റെ പ": 5469,
      " സംഘര": 5470,
      " ഇടയ": 5471,
      " ലഭ്യമാക്ക": 5472,
      "ം ഇങ്ങന": 5473,
      "പ്രതിജ്ഞ": 5474,
      " അന്വേഷണ സംഘ": 5475,
      " ശാസ്ത്ര": 5476,
      " പരിക്കേറ്റ": 5477,
      "െ ഡ": 5478,
      "ിക്കുട്ട": 5479,
      " ഇദ്ദേഹ": 5480,
      "സാന്നിധ്യ": 5481,
      " ഇരുവര": 5482,
      " ഡോക്ടര": 5483,
      "ിലെ ക": 5484,
      " പുലര": 5485,
      "സ് ആ": 5486,
      "ക്കാരുടെ ": 5487,
      " വരെയുള്ള": 5488,
      "യുക്ത": 5489,
      "ൊരുക്ക": 5490,
      "ോഷണ": 5491,
      " വീതവ": 5492,
      "വിലയിരുത്തല": 5493,
      "54": 5494,
      "കേസ് ": 5495,
      "ജിയ": 5496,
      "തകര": 5497,
      "ബിന": 5498,
      "രുന്ന": 5499,
      " ഉദ്ദേശ": 5500,
      " നടന": 5501,
      "ിച്ചതായി ": 5502,
      " റില": 5503,
      " ഇടപാട": 5504,
      " വിനോദ": 5505,
      "53": 5506,
      "ം രാജ": 5507,
      "ക്ക് നല": 5508,
      "പ്രസ്താവന": 5509,
      "ിപ്പിക്കുകയ": 5510,
      "മ്മേള": 5511,
      "നിർത്ത": 5512,
      "ബിജെപിക്ക്": 5513,
      "ിൻവല": 5514,
      " അംഗങ്ങള": 5515,
      " പ്രഖ്യാപന": 5516,
      "കരുത": 5517,
      "ചക": 5518,
      "തൊഴില": 5519,
      " മുതിര": 5520,
      "ം കോണ": 5521,
      "മാക്കിയത": 5522,
      " ലക്ഷ്യമ": 5523,
      " ഭരണഘടന": 5524,
      "ഇറാന": 5525,
      "തമിഴ": 5526,
      "രാൻ": 5527,
      " ശബ്ദ": 5528,
      "തിരഞ്ഞെടുക്ക": 5529,
      " മുഖ്യമന്ത്രിയ": 5530,
      " ഗാന്ധിയ": 5531,
      " വിവരങ്ങൾ": 5532,
      "ം ലഭിച്ച": 5533,
      "പിന്നാല": 5534,
      "വിവരങ്ങള": 5535,
      "ി സതീശന": 5536,
      "തികളുടെ ": 5537,
      "നുകൂല": 5538,
      "ബാങ്ക": 5539,
      "ൂക്ക്": 5540,
      " കാന": 5541,
      " എക്": 5542,
      " എയര": 5543,
      "ന്ദീപ": 5544,
      " കുത്ത": 5545,
      "ദുരിത": 5546,
      " ഗുജറാ": 5547,
      " ബുദ്ധിമുട്ട": 5548,
      "-ല": 5549,
      "ം)": 5550,
      "ഉന്നത": 5551,
      "ജൂണ": 5552,
      "േർക്ക": 5553,
      "ിനായി ": 5554,
      "െ പല": 5555,
      " ദുര": 5556,
      "ം പാര": 5557,
      " കാണാന": 5558,
      "മാർക്ക്": 5559,
      "ഓഫീസില": 5560,
      " കൊല്ലപ്പെട്ട": 5561,
      "al": 5562,
      " കയറ്റ": 5563,
      " പ്രിയ": 5564,
      " പരിഗണിക്ക": 5565,
      " നിറ": 5566,
      "അവകാശ": 5567,
      "ടെസ്റ്റ": 5568,
      "വു": 5569,
      " മൃതദേഹ": 5570,
      "ത്ത് ": 5571,
      " മുഴുവന": 5572,
      " പോലീസിന": 5573,
      " ഓള": 5574,
      "ാദന": 5575,
      "ാണ് കേന്ദ്ര": 5576,
      " രാജസ്ഥാന": 5577,
      " ഉറപ്പാക്ക": 5578,
      " എന്നിങ്ങന": 5579,
      "ാഷണല": 5580,
      "പ്രാദേശിക": 5581,
      "് പരിശോധന": 5582,
      "എഫ്ഐ": 5583,
      "ദുര": 5584,
      "ഹിയില": 5585,
      "ഹോട്ട": 5586,
      "ിവിറ്റ": 5587,
      "ായിക്ക": 5588,
      " മോഡ": 5589,
      "ദേശം നല": 5590,
      "തിങ്കളാഴ്ച": 5591,
      "െ പാര": 5592,
      " ഹെല": 5593,
      "മരീ": 5594,
      "ലഭിച്ച": 5595,
      "കഴിഞ്ഞ തവണ": 5596,
      "ബ്രിട്ട": 5597,
      "സുഖ": 5598,
      "് നടത്തിയ": 5599,
      " ബ്രിട്ട": 5600,
      "ഡിസം": 5601,
      " കരുതിയ": 5602,
      " സ്പീക്ക": 5603,
      " അടിയന്തര": 5604,
      "ുള്ളില": 5605,
      "ുറപ്പ": 5606,
      "ിന്നീട": 5607,
      "ിടത്ത": 5608,
      "ദ്ധ്യ": 5609,
      "യുദ്ധ": 5610,
      "ം തേട": 5611,
      " ശതമാനവ": 5612,
      "ജീവിതത്തില": 5613,
      " വാഹനങ്ങള": 5614,
      " ദുബായ": 5615,
      "പ്രസിഡന്റ് ": 5616,
      " കണ്ണൂർ": 5617,
      "400": 5618,
      "പഞ്ചാബ": 5619,
      "ലിന്റെ ": 5620,
      "ി പോലീസ് ": 5621,
      "േഡ് ": 5622,
      " പഴയ": 5623,
      " കോഴ": 5624,
      "ായി പ്ര": 5625,
      " അണ": 5626,
      "ുണ്ടായത": 5627,
      " ലാല": 5628,
      "ഇതിൽ": 5629,
      "ം വലിയ": 5630,
      "ുകൾ,": 5631,
      " സ്വദേശി ": 5632,
      "ജനങ്ങളുടെ ": 5633,
      "ബുദാബ": 5634,
      "-ാം": 5635,
      "തമ്യ": 5636,
      "വറ": 5637,
      "സമാധാന": 5638,
      " നൂറ": 5639,
      "ം മാറ": 5640,
      " ശോഭ": 5641,
      "പ്പെട്ടവര": 5642,
      " അതേ": 5643,
      "കേരളത്തിലെ ": 5644,
      " തീരുമാനിച്ച": 5645,
      "അതിനിട": 5646,
      "നിയന്ത്രണ": 5647,
      "തിൽ": 5648,
      "ഴി ": 5649,
      "സോഷ്യല": 5650,
      " പിണറായി വിജയ": 5651,
      "ഇതോടെയാണ് ": 5652,
      " വീഴ്ച": 5653,
      "ാബാദ": 5654,
      "ം ചോദ": 5655,
      " നീണ്ട": 5656,
      "ഒര": 5657,
      "കീഴ": 5658,
      "പ് ": 5659,
      " നന്ന": 5660,
      "രാഴ്ച": 5661,
      "ത്തിലായിരുന്നു": 5662,
      "ാകുന്ന": 5663,
      " രാമ": 5664,
      " പരിചയ": 5665,
      "ിച്ചിരുന്നില്ല.\n": 5666,
      "ാണ് കേരള": 5667,
      "സെക്രട്ട": 5668,
      "സ്ഥിരീകരിച്ചത": 5669,
      "ബ്ലിക്": 5670,
      " വർധ": 5671,
      " ദുരിത": 5672,
      " അഭിനയ": 5673,
      "ദാസ": 5674,
      "ഫിയ": 5675,
      "ങ്ങോട്ട": 5676,
      "പ്രകടന": 5677,
      " ബാ": 5678,
      "ോഗ്ര": 5679,
      "വേണ": 5680,
      " കുമാറ": 5681,
      "ചെയ്തിരുന്ന": 5682,
      " കാര്യമാണ": 5683,
      " പോകാന": 5684,
      "് എന്ന്": 5685,
      "ം ഉണ്ടായ": 5686,
      "ിന്റെ അടിസ്ഥാന": 5687,
      "72": 5688,
      "ിയിട്ട": 5689,
      " യുഎസ് ": 5690,
      "ീനിയര": 5691,
      "ണമെന്ന് ആവശ്യപ്പെട്ട": 5692,
      "ലക്ഷ്മ": 5693,
      " പാലക്കാട": 5694,
      "ാപ്പന": 5695,
      " ആരംഭിച്ച": 5696,
      " സംരക്ഷണ": 5697,
      " പാസ": 5698,
      " സ്വർണ": 5699,
      " ജെ": 5700,
      "െ കേരള": 5701,
      "ോട്ടുകള": 5702,
      "കളിലെ ": 5703,
      "െ നിന്ന്": 5704,
      "പാലക്കാട": 5705,
      "ാവാക്യ": 5706,
      "ഇവ": 5707,
      "റെ": 5708,
      "ോന": 5709,
      " പിറ": 5710,
      " സാങ്കേതിക": 5711,
      " ബാങ്ക്": 5712,
      " മുഹമ്മദ": 5713,
      "ിച്ചതെന്ന്": 5714,
      "ിച്ചതോടെ ": 5715,
      " ജനത": 5716,
      "കേരളത്തിൽ": 5717,
      "മാകുന്ന": 5718,
      " ഗാന്ധിയുടെ ": 5719,
      "ഉള": 5720,
      "ബില": 5721,
      "വിന്ദ": 5722,
      "ാന്യ": 5723,
      " അപ്പ": 5724,
      "വാർത്ത": 5725,
      " എന്നാല": 5726,
      "ം തെ": 5727,
      " മാത്രം ": 5728,
      " സമയത്ത": 5729,
      " കാസര": 5730,
      "ഉമ്മന": 5731,
      "ടത്ത": 5732,
      "ണൽ": 5733,
      " പ്രവാസ": 5734,
      " ഇവരുടെ ": 5735,
      "് കുറ": 5736,
      "അതിന് ശേഷ": 5737,
      "ം ആദ്യ": 5738,
      "ാണ് സാധ്യത": 5739,
      " തടസ്സ": 5740,
      " സമ്മത": 5741,
      "66": 5742,
      "റി ക": 5743,
      "ശബരിമല": 5744,
      "ാശ്വാസ": 5745,
      "െ ഒരു": 5746,
      "പ്പ്": 5747,
      " വടക്ക": 5748,
      "െയർ": 5749,
      "വിശേഷ": 5750,
      " സ്വപ്ന": 5751,
      "െ ആയ": 5752,
      " സഹകരണ": 5753,
      "തെറ്റ": 5754,
      "തെളിവ": 5755,
      "കേസില": 5756,
      "78": 5757,
      "പകര": 5758,
      "ഷാജ": 5759,
      "ു പറഞ്ഞ": 5760,
      "ു എന്ന്": 5761,
      " താത്": 5762,
      "വിചാരണ": 5763,
      " രൂക്ഷ": 5764,
      "ി സി സ": 5765,
      " കലാപ": 5766,
      " പ്രാദേശിക": 5767,
      "റു": 5768,
      "ുക,": 5769,
      "വിഷന": 5770,
      "് പോയ": 5771,
      " പരിശീലന": 5772,
      " മന്ത്രിസഭ": 5773,
      "ൈക്കമാന": 5774,
      "സുപ്ര": 5775,
      "ഉറപ്പ": 5776,
      "എടുത്ത": 5777,
      "ഏത": 5778,
      "ധി": 5779,
      "ബാ": 5780,
      " മയ": 5781,
      "രുക്ക": 5782,
      "ത്തിന് ": 5783,
      " ഭീ": 5784,
      "ംബർ ": 5785,
      "കൂൾ": 5786,
      "പൊലീസ് ": 5787,
      "ഒരിക്കല": 5788,
      "ചെല": 5789,
      "ൻ ക": 5790,
      "ക്കേട": 5791,
      "ത്താ": 5792,
      " ആശ്വാസ": 5793,
      " വരാന": 5794,
      "ാക്കിയിരുന്ന": 5795,
      " കാണുന്ന": 5796,
      " മാറ്റങ്ങള": 5797,
      "സ്വദേശി (": 5798,
      "ായിരിക്കണ": 5799,
      "ദില്ലിയില": 5800,
      " ഉൾപ്പെട": 5801,
      "കാണ": 5802,
      "ചിത": 5803,
      "ഷങ്ങള": 5804,
      " കൃഷ": 5805,
      " അശ": 5806,
      " അത്യ": 5807,
      " തർക്ക": 5808,
      " മാസം": 5809,
      "ം വരു": 5810,
      "ജനറല": 5811,
      " ആയിരിക്ക": 5812,
      "വിട്ടത": 5813,
      " എംഎൽഎ": 5814,
      "ഗളൂരു": 5815,
      " വേളയില": 5816,
      "ദക്ഷിണ": 5817,
      "മോഹന": 5818,
      "ൈസ് ": 5819,
      "ത്തെത്ത": 5820,
      "ിയത്": 5821,
      " എംബ": 5822,
      " എളുപ്പ": 5823,
      " പ്രതിനിധ": 5824,
      " ലോട്ടറ": 5825,
      "ാകൃഷ്ണ": 5826,
      "ി സർ": 5827,
      "കാരിക": 5828,
      "െ എല്ലാ": 5829,
      "മുഖ്യമന്ത്രിയ": 5830,
      " തിരിച്ചറിയ": 5831,
      "സിപിഐ": 5832,
      "ത്തിനുള്ളില": 5833,
      "ഇതിന് പിന്നാലെയാണ് ": 5834,
      "ത്തേയ": 5835,
      "ല്ലോ": 5836,
      " ഒരാൾ": 5837,
      " സംഗ": 5838,
      " ഗവ": 5839,
      "ം വളര": 5840,
      "ം നടക്ക": 5841,
      " പറയുന്നുണ്ട": 5842,
      "ം ഇട": 5843,
      " പരമാവധ": 5844,
      " ആരോപണങ്ങള": 5845,
      "ഇതിനിട": 5846,
      "ിക്കുന്നതിനുള്ള": 5847,
      " മഹാ": 5848,
      " സമ്മേളന": 5849,
      " ർ": 5850,
      "an": 5851,
      "മെയ് ": 5852,
      "ൈ:": 5853,
      "രാവ": 5854,
      "ുമു": 5855,
      "ാവുന്നത": 5856,
      "മുമ്പ": 5857,
      " റിസ": 5858,
      " ഗെയ": 5859,
      "ത്തിന് പിന്നാല": 5860,
      " ഡിസ": 5861,
      "ം വേ": 5862,
      " ബിഗ് ബോസ് ": 5863,
      "ഭുത": 5864,
      "ശൈല": 5865,
      "സികള": 5866,
      " നടക്കുന്നത": 5867,
      "അതുപോല": 5868,
      "മയുടെ ": 5869,
      "്യമുണ്ട": 5870,
      "ത്തിന് വേണ്ട": 5871,
      " ഹിന്ദു": 5872,
      " സംസ്ഥാനത്തെ ": 5873,
      "യ്ക്ക് ": 5874,
      " വിലക്ക": 5875,
      " വ്യവസ്ഥ": 5876,
      "്യൂഹ": 5877,
      "ത്തിലൂടെയാണ് ": 5878,
      "ഇന്നലെ ": 5879,
      " പൈലറ്റ": 5880,
      "കത്ത്": 5881,
      "ഷത്തെ ": 5882,
      "ിസം": 5883,
      "രുമായി ": 5884,
      "് കാണ": 5885,
      "യിൽ ": 5886,
      " മന്ത്രി ": 5887,
      "മാത്രമേ": 5888,
      "പരിഹാര": 5889,
      " വയസ്സുള്ള": 5890,
      "ചെ": 5891,
      "ഷം ": 5892,
      "ക്കാദ": 5893,
      "ദ്വേഷ": 5894,
      "മ്മൻ": 5895,
      "് കെ": 5896,
      " ഏതെങ്കില": 5897,
      "ി അറിയ": 5898,
      "തികര": 5899,
      " തന്നെയാണ": 5900,
      "മാത്രമാണ് ": 5901,
      "മുന്നില": 5902,
      "ഉണ്ടായിരുന്ന": 5903,
      "പോസ്റ്റ": 5904,
      "് കേസുകള": 5905,
      " അന്താരാഷ്ട്ര": 5906,
      " പെട്ടെന്ന്": 5907,
      "ഖിൽ": 5908,
      " അർ": 5909,
      "ുകയോ": 5910,
      "ിവാരണ": 5911,
      " മാതൃക": 5912,
      "്യമുള്ള": 5913,
      "ീഷൻ": 5914,
      " സുരേന്ദ്ര": 5915,
      "തിരഞ്ഞെടുപ്പ് ": 5916,
      " വിഭാഗത്തില": 5917,
      "ട്വീ": 5918,
      " സുഹൃത്തുക്കള": 5919,
      "മണ്ണ": 5920,
      "റിപ്പോർട്ട് ": 5921,
      "ളിത": 5922,
      "ൊലീസ": 5923,
      "ോറിയ": 5924,
      "്യങ്ങള": 5925,
      " വി ": 5926,
      " നശ": 5927,
      "ം തുടങ്ങ": 5928,
      "ായ്മ": 5929,
      " മെയ് ": 5930,
      " ചാനല": 5931,
      "ോടക": 5932,
      "ുവിനെ ": 5933,
      "ിക്കുന്നതെന്ന്": 5934,
      " ഏജൻസ": 5935,
      " പുറത്തുവന്ന": 5936,
      "ജിസ്റ്റർ": 5937,
      " ട്വീ": 5938,
      " സമാനമായ": 5939,
      ", ച": 5940,
      "കോര": 5941,
      "ഹിന്ദു": 5942,
      " സമാ": 5943,
      " തി": 5944,
      "ദേശങ്ങള": 5945,
      " ഡയറ": 5946,
      "് സു": 5947,
      "ം ഉപയോഗ": 5948,
      "യ്ക്കായി ": 5949,
      "മുണ്ടെന്ന": 5950,
      " കാരണമായ": 5951,
      "ൗരത്വ": 5952,
      " കുറ്റപ്പെടുത്ത": 5953,
      "കുന്നേര": 5954,
      " മണിക്ക്": 5955,
      " ഓഫീസ": 5956,
      " ഡി എഫ് ": 5957,
      "വേദന": 5958,
      ", ഇടുക്ക": 5959,
      "ജി ": 5960,
      "ടിക്ക": 5961,
      "ൂള": 5962,
      "ാണെന്നാണ് ": 5963,
      "വാക്സിൻ": 5964,
      "ന്റെയ": 5965,
      "ം വെച്ച": 5966,
      "പെഷ്യല": 5967,
      " കഴിഞ്ഞ ദിവസം": 5968,
      "വൈദ്യ": 5969,
      "എന്തായാല": 5970,
      "ം കണ്ടെത്ത": 5971,
      "െ നിരവധ": 5972,
      "െപ്പോല": 5973,
      "62": 5974,
      "വെറ": 5975,
      " കശ്മീര": 5976,
      " സങ്ക": 5977,
      "ട്ടാര": 5978,
      "ായ്": 5979,
      "ിനിര": 5980,
      " ഉയർത്ത": 5981,
      "ികളാണ് ": 5982,
      "സിക്യൂട്ട": 5983,
      "ം വെ": 5984,
      "ബന്ധന": 5985,
      "പ്പോഴാണ് ": 5986,
      "് നടന്ന": 5987,
      " സ്ഥലങ്ങളില": 5988,
      " ധനമന്ത്ര": 5989,
      ", ന": 5990,
      "നിൽ": 5991,
      " വന്ന്": 5992,
      "ാണു": 5993,
      "ല്ലാതെ ": 5994,
      " നടന്നത": 5995,
      "ം കര": 5996,
      " ആരോഗ്യമന്ത്ര": 5997,
      "ി എന്ന്": 5998,
      "ം സു": 5999,
      " ചെയ്യുന്നത": 6000,
      " ധാര": 6001,
      "ിരിക്കുന്നത്": 6002,
      "ഇടതുപക്ഷ": 6003,
      "ഹൃദയ": 6004,
      "സ്വാതന്ത്ര്യ": 6005,
      " വ്യാപക": 6006,
      "ലൈൻ": 6007,
      "ഞ്ചിനീയ": 6008,
      "കപ്പ": 6009,
      "ഗവര": 6010,
      "തുക": 6011,
      "ബാര": 6012,
      "ോശ": 6013,
      " കപ്പ": 6014,
      " തിയ": 6015,
      " ബീ": 6016,
      "ുമൊക്ക": 6017,
      " ശേഖര": 6018,
      "ഇതു": 6019,
      "യുടെ പ": 6020,
      "മുന്നറിയിപ്പ": 6021,
      "ത്തർപ്രദേശ": 6022,
      "ഏതെങ്കില": 6023,
      "ജെഡ": 6024,
      "രമേശ് ചെന്നിത്തല": 6025,
      "സുല": 6026,
      "േത്": 6027,
      "ി യു": 6028,
      "ണ്ണമായ": 6029,
      " ഹൃ": 6030,
      "ം ഇന്ന്": 6031,
      "ംഭരണ": 6032,
      "ിക്കുന്നതിനായി ": 6033,
      "സ്വാമ": 6034,
      "െ കാണാന": 6035,
      "64": 6036,
      "ഹ്വാന": 6037,
      "്യു": 6038,
      "ുകയായിരുന്നു": 6039,
      " സെക്ക": 6040,
      " പൊട്ട": 6041,
      "ോഹിത്": 6042,
      "ഇവരില": 6043,
      " ഉത്തരവ": 6044,
      " സൗകര്യങ്ങള": 6045,
      " കർണാടക": 6046,
      " ഭേദഗ": 6047,
      "യായിരുന്ന": 6048,
      "േപ്പ": 6049,
      "ി നിർ": 6050,
      "ി കണ്ട": 6051,
      "ം അംഗ": 6052,
      "ി തന്നെ ": 6053,
      " കണ്ടെത്തിയത": 6054,
      "ർച്ച് ": 6055,
      "ഴു": 6056,
      "സേവന": 6057,
      "ഹാറില": 6058,
      "ൂസ": 6059,
      "ൾക്ക": 6060,
      "സ് എന്ന": 6061,
      "ിക്കുന്നില്ല.\n": 6062,
      "തിയെ ": 6063,
      "ം സൃഷ്ട": 6064,
      " ജനറൽ": 6065,
      " തമ്മിൽ": 6066,
      "പ്രാഥ": 6067,
      "ാതിരിക്കാന": 6068,
      "ണവില": 6069,
      "രസ്യ": 6070,
      "ൻറ": 6071,
      "്യന": 6072,
      "ിക്കപ്പെട": 6073,
      "ിവേഗ": 6074,
      "ത്തിയായ": 6075,
      "ം പൂർ": 6076,
      "െല്ലോ": 6077,
      "ൊന്നുമ": 6078,
      " വ്യക്തമാക്കിയിരുന്ന": 6079,
      " എന്തെങ്കില": 6080,
      "വെള്ളിയാഴ്ച": 6081,
      "ം രാശിക്കാര": 6082,
      "രോഗം ബാധിച്ചത": 6083,
      "ഞായറാഴ്ച": 6084,
      "മുട": 6085,
      " തക": 6086,
      "സ്ത്യ": 6087,
      " ഉല": 6088,
      "മാണ് ന": 6089,
      "മ്പോഴ": 6090,
      "എന്നിട്ട": 6091,
      "ൂർ ": 6092,
      "ീഷ് ": 6093,
      " തിരഞ്ഞെടുപ്പ് ": 6094,
      "രോഗം സ്ഥിരീകരിച്ച": 6095,
      " സഹിത": 6096,
      " കോളേജില": 6097,
      "വീട്ടിൽ": 6098,
      "മൊത്ത": 6099,
      " ബാനര": 6100,
      "ഖ് ": 6101,
      "പുഴ": 6102,
      "ടുവിൽ": 6103,
      " ചൗ": 6104,
      "ുമതി ": 6105,
      "ോർഡ": 6106,
      "ംബുല": 6107,
      "ം മുന": 6108,
      " കമ്മീഷന": 6109,
      "നമ്മള": 6110,
      "ംശ": 6111,
      "കൊണ്ട": 6112,
      "ച്ചയില": 6113,
      " ചെന്നിത്തല": 6114,
      " വിദ്യ": 6115,
      "മുക്ക": 6116,
      " പോസിറ്റീവ": 6117,
      "ം കുട": 6118,
      "സ്റ്റം": 6119,
      "ാർത്ഥികള": 6120,
      "സ്വയ": 6121,
      " വീഴ": 6122,
      "ുകൾക്ക": 6123,
      "ണമെന്ന ആവശ്യ": 6124,
      "രോഗമുക്ത": 6125,
      " നടത്താന": 6126,
      " തീരുമാനിച്ചത": 6127,
      " പരാതിയില": 6128,
      " കൈമാറിയ": 6129,
      "് എന്നിവര": 6130,
      " മതിയ": 6131,
      " ബില്ല": 6132,
      "സി പി എ": 6133,
      " സാഹചര്യത്തിലാണ് ": 6134,
      " ടെസ്റ്റ": 6135,
      "ഗ് സ": 6136,
      "വിര": 6137,
      "ിവിട": 6138,
      "ങ്ങളെയ": 6139,
      "് പിട": 6140,
      "ംഗള": 6141,
      "യോഗത്തില": 6142,
      "കൊല": 6143,
      " അതോറിറ്റ": 6144,
      " പോലുള്ള": 6145,
      " ഇതിന്": 6146,
      " നഗരസഭ": 6147,
      "ഇന്റ": 6148,
      "ഉയർന്ന": 6149,
      "ജാമ്യ": 6150,
      "േം": 6151,
      "ിനാല": 6152,
      "ഞ്ഞു": 6153,
      " ആയുധ": 6154,
      "ാലക്കുട": 6155,
      "ിക്കുന്നതില": 6156,
      " തൃണമൂല": 6157,
      "വേണുഗോപാല": 6158,
      "ഫറ": 6159,
      " ആധ": 6160,
      " നിറഞ്ഞ": 6161,
      "സംസ്ഥാന സര": 6162,
      " ആശുപത്രിയിൽ": 6163,
      " മണിയ": 6164,
      " പ്രവേശിപ്പിച്ച": 6165,
      "് പോലീസ് ": 6166,
      " വ്യത്യാസ": 6167,
      "ഹൈക്കോടതി ": 6168,
      "ാപ്റ്റന": 6169,
      "സ്റ്റിറ്റ്യൂട്ട": 6170,
      "\",": 6171,
      "63": 6172,
      "ബാങ്ക്": 6173,
      "ലംഘ": 6174,
      "ട്ടയ": 6175,
      "ിച്ചവര": 6176,
      " തുല": 6177,
      " പ്രതി ": 6178,
      " നിന്നാണ് ": 6179,
      " ഹിന്ദ": 6180,
      "ോർഡ് ": 6181,
      " സെപ്റ്റ": 6182,
      " രണ്ട് പേര": 6183,
      "ബാധിച്ച് ": 6184,
      "ി ബാല": 6185,
      " സ്ഥലത്ത്": 6186,
      " നിലപാട് ": 6187,
      ", പത്തനംതിട്ട": 6188,
      "ി'": 6189,
      "ിപ്പെടുത്ത": 6190,
      " വൃ": 6191,
      "ട്ടെ ": 6192,
      "പ്പറ്റ": 6193,
      "റ്റുപ": 6194,
      " എസ്പ": 6195,
      " ഇത്രയ": 6196,
      "ാധാന്യ": 6197,
      "ിയുടെ പ": 6198,
      "മാരായ": 6199,
      "ത്തിന്റെ ഭാഗ": 6200,
      "ങ്ങളിലൂട": 6201,
      " നിരക്ക്": 6202,
      "ാക്കിയിട്ടുണ്ട": 6203,
      " സ്ത്രീയ": 6204,
      " വിശദീകരണ": 6205,
      "അടിസ്ഥാനത്തില": 6206,
      "മൈക്ര": 6207,
      "എട്ട": 6208,
      "ഏപ്രില": 6209,
      "താൻ": 6210,
      "ഥുന": 6211,
      "ീകൃത": 6212,
      " ആലോച": 6213,
      " ഭക്ഷ്യ": 6214,
      "െ നടക്ക": 6215,
      "ബിജെപിയില": 6216,
      "ർത്താവ": 6217,
      "ത്തിലെ ഏറ്റവ": 6218,
      " അനുമതി നല": 6219,
      "വ്യാജ": 6220,
      "നേട്ട": 6221,
      "ൈവര": 6222,
      "്സ": 6223,
      "ൗദ": 6224,
      " വട": 6225,
      "ിക്കു": 6226,
      " അങ്ങന": 6227,
      " തു": 6228,
      "വരുന്ന": 6229,
      " പ്രസ": 6230,
      " വിചാരണ": 6231,
      "മുഴുവന": 6232,
      "െ കേന്ദ്ര": 6233,
      "ി കോണ": 6234,
      " മുന്നോട": 6235,
      "ം പ്രകട": 6236,
      " നേതാവ് ": 6237,
      "അതിനിടെ ": 6238,
      " ഉപയോഗിച്ച് ": 6239,
      "പ്പറേഷൻ": 6240,
      " ചേർന്ന": 6241,
      "എത്തിയ": 6242,
      "കഥ": 6243,
      "ടത്ത്": 6244,
      "ശങ്കര": 6245,
      "ഹാറ": 6246,
      "െയുടെ ": 6247,
      "ല്ലെന്ന്": 6248,
      "ുകയെന്ന": 6249,
      "െ അറിയിച്ച": 6250,
      " നിരീക്ഷ": 6251,
      "ുനിക": 6252,
      "കഴിഞ്ഞ ദിവസം ": 6253,
      " പരീക്ഷണ": 6254,
      "പ്രതികര": 6255,
      "വകുപ്പ് ": 6256,
      "ഇസ്രായേല": 6257,
      "ചെറിയ": 6258,
      "യെയ": 6259,
      "റോബ": 6260,
      " പ്രയ": 6261,
      " പ്രണയ": 6262,
      "മ്പ്ര": 6263,
      " സെല": 6264,
      "ഗരസഭ": 6265,
      "തി നട": 6266,
      "ഗതാഗത": 6267,
      " തമിഴ്": 6268,
      "ിജു": 6269,
      "മാണ് എന്ന": 6270,
      "െതിരായ": 6271,
      " നിങ്ങൾ": 6272,
      " നിർത്ത": 6273,
      "ത്സാഹ": 6274,
      " പത്രിക": 6275,
      "പ്രാഥമിക": 6276,
      "ദൂര": 6277,
      "ൈനില": 6278,
      "മായാണ് ": 6279,
      " രമേശ് ചെന്നിത്തല": 6280,
      " ഭീകര": 6281,
      "സിനെ ": 6282,
      "സംസ്ഥാനങ്ങളില": 6283,
      "ൂറു": 6284,
      " നൽകുന്ന": 6285,
      " അംഗീകാര": 6286,
      "കർക്ക്": 6287,
      " ഉൾപ്പെടെയുള്ള": 6288,
      "െ പിടികൂട": 6289,
      "88": 6290,
      "ഠിന": 6291,
      "യോടെ ": 6292,
      "റുക്ക": 6293,
      "ക്രാ": 6294,
      " നമ്പര": 6295,
      "ങ്ങാട് ": 6296,
      " മുട": 6297,
      " അയാള": 6298,
      "പ്രദ": 6299,
      "ാവുന്നതാണ": 6300,
      " റാല": 6301,
      "ബന്ധുക്കള": 6302,
      "മന്ത്രിമാര": 6303,
      "ം മന": 6304,
      "197": 6305,
      "അന്വേഷ": 6306,
      "ആരാധ": 6307,
      "ിയോട് ": 6308,
      "്യാണ": 6309,
      "ച്ചക്ക": 6310,
      "ിനോട": 6311,
      " തോമ": 6312,
      " രാവില": 6313,
      "ഗ്രസ് നേതാവ": 6314,
      "ട്രെയിന": 6315,
      " ഇടപെട്ട": 6316,
      "ം ആവശ്യ": 6317,
      "ികളുടെ എണ്ണ": 6318,
      "േണ്ടതാണ": 6319,
      "നേതൃത്വത്തിൽ": 6320,
      "ി മുതല": 6321,
      "തുമുന്നണ": 6322,
      " പീഡന": 6323,
      "ഇവർ": 6324,
      "വിക": 6325,
      " സഖ": 6326,
      "ികടക്ക": 6327,
      "ാവല": 6328,
      " മുതിർന്ന": 6329,
      "ത്തിനൊപ്പ": 6330,
      "ോധ്യ": 6331,
      "ാണ് ഇന്ന്": 6332,
      " തയ്യാറാക": 6333,
      " പൗരത്വ": 6334,
      " കിലോമീറ്റര": 6335,
      "ജുന": 6336,
      "ളിപ്പ": 6337,
      "ഴക്ക": 6338,
      "െണ": 6339,
      " പേജ": 6340,
      "മാപ്പ": 6341,
      " മകള": 6342,
      " അസിസ്റ്റ": 6343,
      "സ്ക": 6344,
      "ടിയന്തര": 6345,
      "യ്ക്കു": 6346,
      " പൊള": 6347,
      "ി തോമ": 6348,
      "ി ആവശ്യപ്പെട്ട": 6349,
      " സിനിമാ": 6350,
      " സിദ്ദ": 6351,
      " കമ്പനികള": 6352,
      "യോജന": 6353,
      "അങ്ങനെ ": 6354,
      "കോട് ": 6355,
      "ൽ.\n": 6356,
      " കമന്റ": 6357,
      "ം ട": 6358,
      " എങ്ങന": 6359,
      " പ്രാധാന്യ": 6360,
      " ആക്ഷേപ": 6361,
      "മുതിര": 6362,
      "തി\n": 6363,
      " റോയ": 6364,
      "് നേതാക്കള": 6365,
      "ം വാ": 6366,
      "ത്ഥിയ": 6367,
      "ം ഉള്ള": 6368,
      "ഷ്യാന": 6369,
      " കേരള കോണ": 6370,
      "സ്ലാമ": 6371,
      " തെളിവുകള": 6372,
      " ആത്മഹത്യ": 6373,
      ", ജ": 6374,
      "ശങ്ങള": 6375,
      "േഡിയ": 6376,
      "ി ക്ക": 6377,
      " പ്രസാദ": 6378,
      " ബസ് ": 6379,
      " ഫണ്ട": 6380,
      "സ്വപ്ന": 6381,
      " ഷോ": 6382,
      " തന്നെ പ": 6383,
      " ഇറാന": 6384,
      " താരങ്ങള": 6385,
      " തുറന്ന്": 6386,
      " രാത്രി ": 6387,
      " പ്രവൃത്ത": 6388,
      " സാമൂഹ്യ": 6389,
      "ഇൻ": 6390,
      "ബഹ": 6391,
      "മിച്ച": 6392,
      "രജിസ്റ്റര": 6393,
      "ൂ എന്ന": 6394,
      "ം തീരുമാന": 6395,
      "ുകു": 6396,
      "പ്രതി ": 6397,
      " ജയില": 6398,
      "ിടക്കുന്ന": 6399,
      " ഭിന്ന": 6400,
      " വെച്ച് ": 6401,
      " രോഗികള": 6402,
      "ഇതിനായി ": 6403,
      "ക്കെതിരായ": 6404,
      " ക്ലാസ": 6405,
      "ം'": 6406,
      "ആളുകള": 6407,
      "്സ് ": 6408,
      "ക്കഴിഞ്ഞ": 6409,
      "ിയോജ": 6410,
      "ച്ചിത്ര": 6411,
      "ം ചെയ്ത്": 6412,
      "ിരുന്നില്ല.\n": 6413,
      " ജോസഫ": 6414,
      " രജിസ്റ്റര": 6415,
      "ത്തിൽ നിന്ന": 6416,
      "ം വർ": 6417,
      "വേഷണ": 6418,
      "ബിള": 6419,
      "ം മുതൽ": 6420,
      " അധികാരത്തില": 6421,
      "യെന്ന": 6422,
      "ത്തെ കുറിച്ച് ": 6423,
      " വൻ": 6424,
      "രാട": 6425,
      " ഇവ": 6426,
      "ക്രൂട്ട": 6427,
      " ഹർജ": 6428,
      "വേഗ": 6429,
      " മുഖ്യമന്ത്രി ": 6430,
      "ം ചെയ്യുന്നത": 6431,
      " സംസാരിക്കുകയായിരുന്നു": 6432,
      "ക്കാർക്ക്": 6433,
      " ഇലക്ട്ര": 6434,
      "എത്ര": 6435,
      "ദല": 6436,
      " തിരിക": 6437,
      " ഓട്ട": 6438,
      "ം എല്ലാ": 6439,
      " സ്വദേശിയായ": 6440,
      "് വന്ന": 6441,
      "ുകയാണെന്ന്": 6442,
      "ം വിട്ട": 6443,
      "ധാന്യ": 6444,
      " തോതില": 6445,
      "നിർദ്ദേശ": 6446,
      "ജിനീയ": 6447,
      " മുഖ്യമന്ത്രി പിണറായി വിജയന": 6448,
      "es": 6449,
      "ഇദ്ദേഹ": 6450,
      "മമത": 6451,
      "മക്കള": 6452,
      "റക്ക": 6453,
      "ശൂർ": 6454,
      "ക്കത്ത": 6455,
      " പിര": 6456,
      "ിഎസ": 6457,
      "ർക്കാറ": 6458,
      "ം തോന്ന": 6459,
      "പരോധ": 6460,
      "ാണ് ഇക്കാര്യ": 6461,
      "ോൺഗ്രസ": 6462,
      "ട്വിറ്റ": 6463,
      " അഡ്വ": 6464,
      "െല്ലോ അല": 6465,
      "ആശങ്ക": 6466,
      "ഇല": 6467,
      "ഒട്ട": 6468,
      "മദ്യ": 6469,
      "യിന": 6470,
      "ാന്": 6471,
      "േടു": 6472,
      "്യമാണ": 6473,
      " സംസ": 6474,
      "ക്താവ": 6475,
      " പറഞ്ഞത്": 6476,
      "ലീസില": 6477,
      "യുടെ അ": 6478,
      "െ അദ്ദേഹ": 6479,
      " ഏർ": 6480,
      "ി വെച്ച": 6481,
      " മന്ത്രി അ": 6482,
      "ീരിക": 6483,
      "ിണറായ": 6484,
      " ഉത്തരവാദിത്ത": 6485,
      " സിദ്ധ": 6486,
      "സെന്റ": 6487,
      "ൂൺ ": 6488,
      "250": 6489,
      "ഉദ്ഘാടന": 6490,
      "തുര": 6491,
      "ധാരണ": 6492,
      "ാറ്റ് ": 6493,
      "ങ്ങല": 6494,
      "ാരംഭ": 6495,
      " ഏത": 6496,
      " പരിഗണന": 6497,
      " കോർ": 6498,
      "മന്ത്രിസഭ": 6499,
      " സ്ഥാപനങ്ങളില": 6500,
      "89": 6501,
      "ദാസ് ": 6502,
      "വത്": 6503,
      "ിരീട": 6504,
      "രാഹുൽ ഗാന്ധ": 6505,
      "ിവയ്ക്ക": 6506,
      "ക്രൂര": 6507,
      ", കണ്ണൂര": 6508,
      " ബന്ധപ്പെട്ട": 6509,
      "ു..\n": 6510,
      "ം സ്വദേശിനി (": 6511,
      " മാനസിക": 6512,
      "ാത്സംഗ": 6513,
      "എമ്മ": 6514,
      "എന്ത്": 6515,
      "സഞ്ച": 6516,
      " സീ": 6517,
      "ട്ടിക്ക്": 6518,
      "ിച്ചപ്പോള": 6519,
      "ാവർക്ക": 6520,
      " പരാതിയ": 6521,
      "ബ്രാഹ": 6522,
      ", എ": 6523,
      "ിച്ചിട്ടുള്ളത": 6524,
      "ാണ് സംഭവ": 6525,
      " മുദ്ര": 6526,
      " മുല്ലപ്പള്ള": 6527,
      "് പദ്ധ": 6528,
      " ഫില": 6529,
      "സിനിമയ": 6530,
      "ാണ് ഇത്തര": 6531,
      "കിയിരിക്കുന്നത": 6532,
      ", കോട്ടയം ": 6533,
      " മൊബൈല": 6534,
      " കിലോ": 6535,
      " കഴിവ": 6536,
      " സൗദി അറേബ്യ": 6537,
      " തീവ്രവാദ": 6538,
      "ത്പ": 6539,
      " പ്രക്ഷോഭ": 6540,
      " ദശ": 6541,
      "ഇതെല്ല": 6542,
      " വരെയ": 6543,
      " ചെയ്യാൻ": 6544,
      "ി കോട": 6545,
      " ഡൽഹ": 6546,
      "വീസുകള": 6547,
      " തെല": 6548,
      "മുഖ്യമന്ത്രി ": 6549,
      " മേഖലയിൽ": 6550,
      "ഗുരു": 6551,
      "പ്രധാനമന്ത്രി നരേന്ദ്ര മോദ": 6552,
      "ആള": 6553,
      "ലിന്": 6554,
      " സാഹ": 6555,
      " വസ്ത്ര": 6556,
      " പ്രകാശ": 6557,
      " ബാബ": 6558,
      " ദക്ഷിണ": 6559,
      " നിശ്ചയ": 6560,
      "െ കുറിച്ചുള്ള": 6561,
      "മൂല്യ": 6562,
      " ആറ് ": 6563,
      "നീള": 6564,
      "ാവശ്യപ്പെട്ട": 6565,
      "ദിവസം": 6566,
      "ധീര": 6567,
      "ാഘാത": 6568,
      "ീത്": 6569,
      "ി രാമ": 6570,
      " നിതീഷ": 6571,
      "സ്തീ": 6572,
      "രുണ": 6573,
      "ം കൂടുതല": 6574,
      "യ്ക്കുള്ള": 6575,
      "ം മണ്ഡല": 6576,
      "നിയമസഭ": 6577,
      "ഇക്കാര്യത്തില": 6578,
      "ഗർ": 6579,
      "താഴ": 6580,
      "മനുഷ്യ": 6581,
      "ൂം": 6582,
      "ത്തറ": 6583,
      " അത്ര": 6584,
      "രാഘ": 6585,
      " ചാര": 6586,
      "ത്തിയില": 6587,
      "ിച്ചു എന്ന": 6588,
      "ിന് പിന്നാലെയാണ് ": 6589,
      " ക്ലാസ് ": 6590,
      "വിശദീകരണ": 6591,
      " നെഗറ്റീവ": 6592,
      "ഇന്നത്തെ ": 6593,
      "ഉദ്യോഗസ്ഥ": 6594,
      ") ": 6595,
      "അന്ന": 6596,
      "ആഭ്യന്തര": 6597,
      "ിച്ചെന്ന": 6598,
      "സ്തി ": 6599,
      "ത്തിലേക്ക": 6600,
      " രക്ത": 6601,
      "േതര": 6602,
      "ം എല": 6603,
      "പരീക്ഷ": 6604,
      "ം നടത്താന": 6605,
      " എഴുതിയ": 6606,
      "ചിന്ത": 6607,
      "ഞങ്ങളുടെ ": 6608,
      "തക": 6609,
      "ബജ": 6610,
      "മെടുക്ക": 6611,
      "ാഡ": 6612,
      "ൃഹ": 6613,
      " സൂപ്പര": 6614,
      "ായ് ": 6615,
      " അജ": 6616,
      "സ്ഥത": 6617,
      " ഡീസ": 6618,
      "ിസിപ്പ": 6619,
      "ാപാത്ര": 6620,
      " ഷാജ": 6621,
      "ോമിന": 6622,
      " വിഷയത്തിൽ": 6623,
      "ഭാഷണ": 6624,
      " ചോദ്യം ചെയ്യ": 6625,
      " വായ്പ": 6626,
      ", വയനാട് ": 6627,
      "79": 6628,
      "ണം എന്ന്": 6629,
      "പട്ട": 6630,
      "ൂഡ": 6631,
      "ൊടുത്ത": 6632,
      "ം ഓ": 6633,
      "ം ആര": 6634,
      "ിട്ടില്ല": 6635,
      "ം നിർ": 6636,
      "ി വന്നത": 6637,
      "ിക്കുകയാണെന്ന": 6638,
      " അഭിമാന": 6639,
      " ട്വിറ്റ": 6640,
      " നോട്ടീസ് ": 6641,
      "120": 6642,
      "യോജ": 6643,
      "ാദ്യ": 6644,
      "ീൽ": 6645,
      "േയ്ക്ക്": 6646,
      "ത്തിക്കാന": 6647,
      " പിസി ജോര": 6648,
      "ാണ്ഡ": 6649,
      "സംവിധ": 6650,
      "മയ്യ": 6651,
      "ം നിയമ": 6652,
      " ചെയ്യാ": 6653,
      " ഏപ്രില": 6654,
      "ിരുന്ന്": 6655,
      " വോട്ടര": 6656,
      " അതിക്രമ": 6657,
      "കൂളില": 6658,
      "മിനല": 6659,
      " വരുത്ത": 6660,
      "നോക്ക": 6661,
      "ിവിടങ്ങളില": 6662,
      "ു ക": 6663,
      "വിടു": 6664,
      "വിമർശന": 6665,
      " ജ്യ": 6666,
      "സിക്": 6667,
      "െ നേരിട": 6668,
      " നിയമസഭാ": 6669,
      "നേതാവ് ": 6670,
      "ി മത്സര": 6671,
      "െ മറ": 6672,
      "കുട്ടിയുടെ ": 6673,
      " സമർപ്പ": 6674,
      " സാധിക്കില്ല.\n": 6675,
      " പ്ലാന": 6676,
      " നായര": 6677,
      " ഒരേ": 6678,
      " ഛ": 6679,
      "റുകളില": 6680,
      "വരെയ": 6681,
      "ഞ്ഞിര": 6682,
      "ചെയ്യാൻ": 6683,
      " അതൃപ്": 6684,
      "മുണ്ടായത": 6685,
      "ഇനി ": 6686,
      " എന്നിവരാണ് ": 6687,
      "സിറ്റിവിറ്റ": 6688,
      " ദൃശ്യങ്ങള": 6689,
      ", പാലക്കാട് ": 6690,
      "തവണ": 6691,
      "ഭജന": 6692,
      "െറ്റ് ": 6693,
      "ോടു": 6694,
      " പാക്ക": 6695,
      " പിണറായി ": 6696,
      "ിക്കുമ": 6697,
      " എതി": 6698,
      " എയർ": 6699,
      "സ്ഗ": 6700,
      "ക്ഷൻ": 6701,
      "പ്രതിയ": 6702,
      "യിലെത്ത": 6703,
      "തി പറഞ്ഞ": 6704,
      "ന്റണ": 6705,
      "ിജന": 6706,
      "ം തടയ": 6707,
      " പരസ്പര": 6708,
      " വഴി ": 6709,
      " മരുന്ന": 6710,
      " ചെലവ": 6711,
      "61": 6712,
      " കേള": 6713,
      " ജാത": 6714,
      "ാത്തത": 6715,
      " വെബ": 6716,
      " യുവാക്കള": 6717,
      " എത്തിച്ച": 6718,
      "സ്ത്രക്രിയ": 6719,
      "കുറഞ്ഞ": 6720,
      "ആല": 6721,
      "മത്സ": 6722,
      "റ്റിൽ": 6723,
      " ബിന": 6724,
      "ുറപ്പെടുവ": 6725,
      " ഗൂഢാലോചന": 6726,
      " ഹോ": 6727,
      "അതേസമയം സ": 6728,
      " തുടങ്ങിയത": 6729,
      "ഇന്ത്യയിലെ ": 6730,
      " വകുപ്പിന്റെ ": 6731,
      " എത്തിയിരുന്ന": 6732,
      "പ്പ്\n": 6733,
      ", തൃശൂര": 6734,
      "റെക്ക": 6735,
      "ൂനിയ": 6736,
      "ിക്കര": 6737,
      "ില്ലെങ്കിൽ": 6738,
      " ഒക്ടോബ": 6739,
      "മുള": 6740,
      "സ്ഥാനത്ത്": 6741,
      "ീകരിക്കുന്നത": 6742,
      "ം നേരിട": 6743,
      "നുബന്ധ": 6744,
      "് അംഗ": 6745,
      " നിലനില": 6746,
      " കേന്ദ്രങ്ങളില": 6747,
      "ബ്രഹ": 6748,
      " കരാര": 6749,
      " ബന്ധുക്കള": 6750,
      "കൂളുകള": 6751,
      "കോടതിയില": 6752,
      "െക്കുറിച്ചുള്ള": 6753,
      " മാനദണ്ഡ": 6754,
      "നി ": 6755,
      "ാകു": 6756,
      "ിഷ്ട": 6757,
      "ക്വാ": 6758,
      "ന്നദ്ധ": 6759,
      " എത്രയ": 6760,
      "രുമെന്ന": 6761,
      "ിന്റെ ഭാഗമായി ": 6762,
      " നടപ്പ": 6763,
      "ചെയർ": 6764,
      "ി കേരള": 6765,
      "സ്തവ": 6766,
      " തുറക്ക": 6767,
      "ളിത്": 6768,
      "െ നടന്ന": 6769,
      " കരുതുന്ന": 6770,
      " മാത്രമല്ല,": 6771,
      "ദൃശ്യങ്ങള": 6772,
      "600": 6773,
      "പതിന": 6774,
      "ു കൊണ്ട": 6775,
      "് ല": 6776,
      " വികാര": 6777,
      "സ് സ": 6778,
      "തിഷ": 6779,
      " ഹൗ": 6780,
      " കാര്യമായ": 6781,
      "മാകുന്നത": 6782,
      "ി സ്വദേശിനി (": 6783,
      " കിടക്ക": 6784,
      "ിനുള്ളില": 6785,
      " സഞ്ചാര": 6786,
      "71": 6787,
      "അപ്പോള": 6788,
      "ഗ് ക": 6789,
      "നായി ": 6790,
      "യാറ": 6791,
      "ഷിപ്പ": 6792,
      "ു ": 6793,
      "ക്കോ": 6794,
      " ചുറ്റ": 6795,
      " ജയിലില": 6796,
      "ിക്കുന്നുവെന്ന": 6797,
      "യുഎസ് ": 6798,
      "ാണ് ഇത്": 6799,
      ", കാസര": 6800,
      "ബുധനാഴ്ച": 6801,
      "ം ഉണ്ടായിരുന്ന": 6802,
      "ുട്ടന": 6803,
      "സ്പീക്ക": 6804,
      " അറസ്റ്റ് ": 6805,
      "ഭാരത്": 6806,
      "മഹാ": 6807,
      " നികുതി ": 6808,
      " മണിക്കൂറിനിടെ ": 6809,
      " ഹൃദയ": 6810,
      "74": 6811,
      "ത്തീ": 6812,
      " പി": 6813,
      " നാണ": 6814,
      "രാക": 6815,
      " ജനുവരി ": 6816,
      "ിടിവ": 6817,
      " റഹ": 6818,
      " കേന്ദ്രങ്ങള": 6819,
      "ബിജെപിയ": 6820,
      "ി മുന്ന": 6821,
      " സുധാകരന": 6822,
      " വോട്ടെടുപ്പ": 6823,
      "പരിപാട": 6824,
      " സർക്കാരിന്റെ ": 6825,
      " ഭാഗങ്ങളില": 6826,
      " പതിവ": 6827,
      ", കൊല്ലം ": 6828,
      "ചൊവ്വാഴ്ച": 6829,
      "ജസ്റ്റിസ് ": 6830,
      "തങ്ങള": 6831,
      "ബങ്ങള": 6832,
      "ശോഭ": 6833,
      " പാട്ട": 6834,
      " കയറിയ": 6835,
      "ിക്കുമ്പോൾ": 6836,
      " പ്രേക്ഷ": 6837,
      " എന്നാൽ": 6838,
      "ാതിരുന്ന": 6839,
      " കുള": 6840,
      "അതേസമയം അ": 6841,
      " ബിജെപിയില": 6842,
      " എത്തുന്ന": 6843,
      "െ മത്സര": 6844,
      "കൂടിക്കാഴ്ച": 6845,
      " പ്രകാരം ": 6846,
      "വ്യക്തി": 6847,
      " പ്രശ്നങ്ങള": 6848,
      "മാതാവ": 6849,
      "ഭിനയ": 6850,
      "ഭിനന്ദ": 6851,
      "രോഗം സ്ഥിരീകരിച്ചത": 6852,
      "തീയ": 6853,
      "രമായ": 6854,
      "സൈനിക": 6855,
      " പ്രൊ": 6856,
      " പ്രസിദ്ധ": 6857,
      "ുവെച്ച": 6858,
      "ൂരപ്പ": 6859,
      "ി പാർട്ട": 6860,
      "പ്പെടുന്നുണ്ട": 6861,
      "ബന്ധിത": 6862,
      "െത്തിയിട്ടുണ്ട": 6863,
      " ഇടത്": 6864,
      "മുള്ളവര": 6865,
      "െഡ്ഡ": 6866,
      " എന്തുകൊണ്ട": 6867,
      "െയ്ന": 6868,
      " ജനങ്ങളുടെ ": 6869,
      " ഇടപെടല": 6870,
      "സമ്മേള": 6871,
      "രോഗം സ്ഥിരീകരിച്ച് ": 6872,
      "85": 6873,
      "ഇഷ്ട": 6874,
      "തങ്ങളുടെ ": 6875,
      "ബോള": 6876,
      "വ്യൂ": 6877,
      "ിയർ": 6878,
      "ം തുട": 6879,
      "ാരീരിക": 6880,
      "ാനാവ": 6881,
      "ങ്കണ": 6882,
      "െ കൈ": 6883,
      "ാകെ ": 6884,
      " തിരക്ക": 6885,
      " തിരഞ്ഞെടുക്ക": 6886,
      "ഒരുപാട": 6887,
      "ി ജീവ": 6888,
      "ട്ട് ചെയ്യ": 6889,
      "രോഗികള": 6890,
      " മേഖലയിലെ ": 6891,
      ", കോഴിക്കോട് ": 6892,
      "ന്യൂനപക്ഷ": 6893,
      " ഇറങ്ങിയ": 6894,
      "ഭ്യർത്ഥ": 6895,
      "ബൈയില": 6896,
      " ശ്രദ്ധേയ": 6897,
      " നടപടി സ്വീകരിക്ക": 6898,
      "ബദ്ധ": 6899,
      "യാതൊരു": 6900,
      "വതര": 6901,
      "്്": 6902,
      "ത്തിച്ച": 6903,
      "വിദഗ്": 6904,
      "ഞ്ജയ": 6905,
      " ചെന്നൈ": 6906,
      "ാകുന്നത": 6907,
      "സ്വപ": 6908,
      "ഗ്രസ് പ്രവര": 6909,
      " സാധ്യതയുള്ള": 6910,
      "ശ്ചാത്തലത്തിൽ": 6911,
      "സംരക്ഷണ": 6912,
      "ദാഹ": 6913,
      "ിക്കില്ല.\n": 6914,
      "ം -": 6915,
      " മധ്യപ്രദേശ": 6916,
      " സ്നേഹ": 6917,
      "സ്ഥാൻ": 6918,
      "മാനദണ്ഡ": 6919,
      "മേട": 6920,
      " ദിവസത്തെ ": 6921,
      " എതിരെ ": 6922,
      "പോലീസ": 6923,
      " ചടങ്ങില": 6924,
      "പറയുന്നത": 6925,
      "ി ജയരാജന": 6926,
      "-ന്": 6927,
      "ഗമന": 6928,
      "ഡോള": 6929,
      "ഭീകര": 6930,
      "്‍)": 6931,
      "െയിൻ": 6932,
      " ചിര": 6933,
      "പ്രസംഗ": 6934,
      "ുവില": 6935,
      "രിഭാഗ": 6936,
      "വേല": 6937,
      "അതേസമയം പ": 6938,
      "സിലേക്ക്": 6939,
      "ുവരുന്ന": 6940,
      "ചിലര": 6941,
      "ഓഫീസ് ": 6942,
      "വ്വകലാശാല": 6943,
      " കൊറോണ വൈറസ് ": 6944,
      "ജിലന": 6945,
      "അക്രമ": 6946,
      "ഫില": 6947,
      "ി വിജയ": 6948,
      " മധ്യ": 6949,
      "ാലിക്കുട്ട": 6950,
      " സ്വപ": 6951,
      "വീന്ദ്ര": 6952,
      "ിമിറ്റ": 6953,
      "ഷ്യന": 6954,
      "ം ആളുകള": 6955,
      " ഞങ്ങളുടെ ": 6956,
      " നടത്തുന്നത": 6957,
      "വനിതാ": 6958,
      " വകുപ്പുകള": 6959,
      " പരാതി ": 6960,
      "ാണ് സു": 6961,
      "നേരത്തേ": 6962,
      "വൈക": 6963,
      " കണക്കില": 6964,
      "ഡിസ": 6965,
      "സബ": 6966,
      "ീപ്പ": 6967,
      "ത്തരാ": 6968,
      "ി വീ": 6969,
      "വിസ": 6970,
      "വിശ്വസ": 6971,
      "ുള്ളത്": 6972,
      " രഹസ്യ": 6973,
      " മുഹമ്മദ് ": 6974,
      "ീകരിക്കാൻ": 6975,
      "ടക്കം ": 6976,
      "് സെക്രട്ടറ": 6977,
      " കോടതിയ": 6978,
      "് വാര": 6979,
      "െ വൈ": 6980,
      "് പ്രഖ്യാപ": 6981,
      "ഘട്ടത്തില": 6982,
      " ഖാന": 6983,
      "അതുകൊണ്ട് ": 6984,
      " ശരീര": 6985,
      " പരാജയപ്പെട്ട": 6986,
      "സമ്മത": 6987,
      "ഒക്ടോബ": 6988,
      "ഫര": 6989,
      "യോട് ": 6990,
      "വിമത": 6991,
      " ബോര": 6992,
      " റോഡ് ": 6993,
      "രാജ്യത്തിന്റെ ": 6994,
      " ആയിര": 6995,
      "വെളിപ്പെടുത്ത": 6996,
      " തയ്യാറായ": 6997,
      "് കുമാർ": 6998,
      " ബൈഡന": 6999,
      " പൊലിസ് ": 7000,
      "ാണ് സാധ്യത.\n": 7001,
      ", പത്തനംതിട്ട ": 7002,
      "ടിപ": 7003,
      "ഷാദ": 7004,
      "െല്ലാ": 7005,
      "ർത്തിയ": 7006,
      " വാത": 7007,
      " അമ": 7008,
      "ിനേയ": 7009,
      " വിചാര": 7010,
      "െ കൊല": 7011,
      "നങ്ങളുടെ ": 7012,
      " പരാമർശ": 7013,
      "ിസിസ": 7014,
      " പരിപാടികള": 7015,
      " കീഴില": 7016,
      "പറയുന്ന": 7017,
      "ാരോഗ്യ സംഘടന": 7018,
      "കടുത്ത": 7019,
      "ഗില": 7020,
      "ാക്": 7021,
      "രാർത്ഥ": 7022,
      "ിന്റെ ഭാഗ": 7023,
      " ഉദ്ഘാടന": 7024,
      "ിയിലായ": 7025,
      "ാതായ": 7026,
      " പരിഹര": 7027,
      "് മണ്ഡല": 7028,
      " ആരോഗ്യ പ്രവര": 7029,
      " എന്നിവരുടെ ": 7030,
      " വ്യാപന": 7031,
      "ം സര": 7032,
      "ഉടന": 7033,
      "കർഷ": 7034,
      "ജയില": 7035,
      "തൊട്ട": 7036,
      "യാദവ": 7037,
      "വെട്ട": 7038,
      "ാ,": 7039,
      "ി -": 7040,
      " കോട്ട": 7041,
      "ിച്ചുവെന്ന": 7042,
      " അങ്ങ": 7043,
      "മുഹമ്മദ": 7044,
      "് കിട്ട": 7045,
      "ഇതോട": 7046,
      "ി സുര": 7047,
      " നിയമങ്ങള": 7048,
      " രൂപയുടെ ": 7049,
      " സംഭവത്തിൽ": 7050,
      "ി എന്നിവ": 7051,
      " കളക്ടർ": 7052,
      "മായിട്ടാണ് ": 7053,
      " ആന്റണ": 7054,
      " അദ്ദേഹം കൂട്ടിച്ചേര": 7055,
      "ഇങ്ങന": 7056,
      "കൂടുതൽ": 7057,
      "ടന്ന്": 7058,
      "ൻ\n": 7059,
      "ന്തിര": 7060,
      "ുകെട്ട": 7061,
      " പ്രവാസികള": 7062,
      "ില്ലേ": 7063,
      " വിശേഷ": 7064,
      "ായി മാറ": 7065,
      " ദീപ": 7066,
      " അവള": 7067,
      " സീറ്റുകൾ": 7068,
      " വന്നിട്ടുണ്ട": 7069,
      " മത്സരിക്കാന": 7070,
      "രംഗത്തെത്ത": 7071,
      "കുറിപ്പ": 7072,
      "ം കുറഞ്ഞ": 7073,
      "ശുദ്ധ": 7074,
      " പട്ടികയില": 7075,
      "ദിത്യനാഥ": 7076,
      "ഒന്ന്": 7077,
      "ുസ": 7078,
      "ക്ഷയ": 7079,
      "ുവേണ്ട": 7080,
      "സ്ഥാനമായ": 7081,
      "ങ്ങൾ,": 7082,
      "ഇതാണ് ": 7083,
      "ീകരിച്ചിരുന്ന": 7084,
      "് അറിയ": 7085,
      " പൊതുമ": 7086,
      "നിക്ഷേപ": 7087,
      " അനൂപ": 7088,
      "െല്ലുവിള": 7089,
      "ുവരുത്ത": 7090,
      "് വെച്ച": 7091,
      " തൃശ്ശ": 7092,
      "മായി പരി": 7093,
      "ഉത്തരവ": 7094,
      " വർദ്ധ": 7095,
      " എഴുത": 7096,
      " അന്തിമ": 7097,
      "ആഗ്രഹ": 7098,
      "ഴുതിയ": 7099,
      "ൈര്യ": 7100,
      "ത്തെക്കുറിച്ച് ": 7101,
      " സിഎ": 7102,
      "ട്ടിക്കൊണ്ട": 7103,
      " അനില": 7104,
      "ത്തിന്റെ അ": 7105,
      "ിമുട": 7106,
      "ിച്ചു കൊണ്ട": 7107,
      "കാരന": 7108,
      " ഇന്ത്യക്കാര": 7109,
      "തിരുവനന്തപുരത്ത്": 7110,
      "ി ഉയര": 7111,
      " തുടങ്ങിയവര": 7112,
      "പലര": 7113,
      "ിൻ്റെ ": 7114,
      "രീ": 7115,
      "ലോട്ടറ": 7116,
      "വസ്തു": 7117,
      " സതീ": 7118,
      " എപ്പോഴ": 7119,
      "രുണ്ട": 7120,
      "ായിരുന്നില്ല.\n": 7121,
      "മുഹമ്മദ് ": 7122,
      "് പാർട്ട": 7123,
      "കനായ": 7124,
      "ഇന്ന് ": 7125,
      "സൈസ് ": 7126,
      "ക്കുമരുന്ന്": 7127,
      "ഇടപെടല": 7128,
      "ത്തീസ്ഗ": 7129,
      "ഒടുവില": 7130,
      "ഗന": 7131,
      "ഗെയ": 7132,
      "ബാബ": 7133,
      "വടക്ക": 7134,
      "സോസിയ": 7135,
      "ഹോ": 7136,
      " സജ": 7137,
      " നാടക": 7138,
      "ം തിരിച്ച": 7139,
      " തൊഴിൽ": 7140,
      "ങ്ങളുമായി ": 7141,
      "െത്തുന്ന": 7142,
      " വലിയൊരു": 7143,
      " എത്തുന്നത": 7144,
      " മൂന്നു": 7145,
      "ർച്ചയായ": 7146,
      "കുട്ടിയ": 7147,
      "ഴ്ത്ത": 7148,
      " അപേക്ഷിക്ക": 7149,
      "ചോദ്യം ചെയ്യ": 7150,
      " പുതുതായി ": 7151,
      "അഖില": 7152,
      "ആക്രമ": 7153,
      "ഉൾ": 7154,
      "യായിരുന്നു": 7155,
      "വാണ": 7156,
      "്!\n": 7157,
      "ിയാര": 7158,
      " തോമസ് ": 7159,
      "സ്നേഹ": 7160,
      "ദേശിച്ച": 7161,
      "് കേരള": 7162,
      "ം കാരണ": 7163,
      "ം നടക്കുന്ന": 7164,
      " കാര്യങ്ങളില": 7165,
      "െടുത്തിട്ടുണ്ട": 7166,
      " ജില്ലകളിൽ": 7167,
      "മുണ്ടെന്ന്": 7168,
      "ി തോമസ് ": 7169,
      "ം ചില": 7170,
      "െ ആദ്യ": 7171,
      "ദ്ദീന": 7172,
      " സർക്കാരിന": 7173,
      "രാശര": 7174,
      " കോടി രൂപയുടെ ": 7175,
      "ി ജനറല": 7176,
      "ിക്കാർക്ക്": 7177,
      " ക്ഷേമ": 7178,
      ") -": 7179,
      "കിട": 7180,
      "താ": 7181,
      "വിമർശ": 7182,
      "ിട്ടാണ് ": 7183,
      "യിലേക്ക": 7184,
      " ബിഎ": 7185,
      "മാണി സ": 7186,
      "എന്നിവര": 7187,
      "ി പുറത്ത": 7188,
      "ംഗാൾ": 7189,
      " രാഹുൽ ഗാന്ധ": 7190,
      "സ്വതന്ത്ര": 7191,
      " സെന": 7192,
      "ുതന്നെ ": 7193,
      "ുകാരുടെ ": 7194,
      " കടല": 7195,
      " കോളജ": 7196,
      " അനുമതി ": 7197,
      "മാത്രമല്ല,": 7198,
      "73": 7199,
      "ഐപിഎ": 7200,
      "കമ്പ": 7201,
      "ചേർ": 7202,
      "ഡ്വ": 7203,
      "ണം\n": 7204,
      "നൗ": 7205,
      "്..": 7206,
      "ക്കിട": 7207,
      "ല്ലൂര": 7208,
      " വിഷ്ണ": 7209,
      "ിന്റെ പ്രതികരണ": 7210,
      " ഒടുവില": 7211,
      " മാപ്പ": 7212,
      " രാധ": 7213,
      "േക്കാൾ": 7214,
      "് അംബാന": 7215,
      "ട്ട് പ്രഖ്യാപ": 7216,
      " കഴിയുന്നത": 7217,
      " താമസിക്കുന്ന": 7218,
      " ഭാരവാഹ": 7219,
      " സാമ്പിളുകളാണ് പരി": 7220,
      ", ഇടുക്കി ": 7221,
      ".in": 7222,
      "സന്തോഷ": 7223,
      "ിങ്ക": 7224,
      "ുത്തിയ": 7225,
      "ത്തുട": 7226,
      " നാശ": 7227,
      " അഴ": 7228,
      "ിൽ ഒരു": 7229,
      "മ്പാട": 7230,
      "ക്കാരിനെ ": 7231,
      " ഗോ": 7232,
      " നിഷേധ": 7233,
      " അദ്ദേഹത്തെ ": 7234,
      "ഭിമാന": 7235,
      "് വെ": 7236,
      " വാക്സിൻ": 7237,
      " പദ്ധതിയുടെ ": 7238,
      "ാഷണൽ": 7239,
      " നഷ്ടപ്പെട്ട": 7240,
      "വ്യത്യ": 7241,
      " ഏറ്റുമുട്ട": 7242,
      "ഭരിക്കുന്ന": 7243,
      "ഉടമ": 7244,
      "ഫോടന": 7245,
      ", ആലപ്പുഴ ": 7246,
      " റ്റ": 7247,
      "കസ്റ്റഡിയില": 7248,
      "മിക്ക": 7249,
      "ാക്ഷ": 7250,
      "ൽ ": 7251,
      " കോട്ടയം ": 7252,
      " കിഴക്ക": 7253,
      " വൃത്ത": 7254,
      "ം ജന": 7255,
      "റ്റുകള": 7256,
      "ാകുമെന്ന": 7257,
      "നിശ്ചിത": 7258,
      " കേരളത്തിലെ ": 7259,
      "ിയിൽ നിന്ന്": 7260,
      "ണക്കില": 7261,
      " ഗുരു": 7262,
      " എന്നിങ്ങനെയാണ് ": 7263,
      "വോട്ട് ": 7264,
      " രംഗത്തെത്ത": 7265,
      " ബ്ലോക്ക്": 7266,
      " ഫേസ്ബുക്ക്": 7267,
      "ഗസ്റ്റ": 7268,
      "വുമാണ": 7269,
      "ഹിന്ദ": 7270,
      "ൻഷൻ": 7271,
      "ക്കുട്ട": 7272,
      "ി ഈ": 7273,
      " കെ സുരേന്ദ്രന": 7274,
      "പ്പുകള": 7275,
      "സ്വർണ": 7276,
      "ാകാര": 7277,
      " കോടതിയിൽ": 7278,
      "വ്യാപാര": 7279,
      "ി നടത്തിയ": 7280,
      " ഇക്കാര്യത്തില": 7281,
      " ഗ്രാമപഞ്ചായ": 7282,
      "യഥാര": 7283,
      "ം സ്വന്ത": 7284,
      "ിലധിക": 7285,
      " ശബരിമല": 7286,
      " റാവ": 7287,
      " ഫാ": 7288,
      "െട്ടിട": 7289,
      "ാണ് അവര": 7290,
      "പെന": 7291,
      "ി ആക്രമ": 7292,
      " ആദ്യമായി ": 7293,
      "െയ്ക്ക": 7294,
      " നീതി ": 7295,
      "ശാന്ത്": 7296,
      " കൃത്യമായി ": 7297,
      " പുരുഷ": 7298,
      " ബോധ്യ": 7299,
      "മധ്യപ്രദേശ": 7300,
      "ക്വാറന്റ": 7301,
      "ച്ചയ്ക്ക്": 7302,
      " മൃ": 7303,
      "ങ്കാള": 7304,
      " സംഭാവന": 7305,
      "ങ്ങൾ.\n": 7306,
      "ം വീണ്ട": 7307,
      "ത്തിന്റെ ഭാഗമായി ": 7308,
      " കൊട്ടാര": 7309,
      "ുഴലിക്ക": 7310,
      "് ബാബ": 7311,
      "ബൈൽ": 7312,
      "പ്രധാനമായ": 7313,
      " ഉൾപ്പെടെ ": 7314,
      " പരിപാടിയില": 7315,
      " അല്ലെങ്കില": 7316,
      "ക്ടറുടെ ": 7317,
      "മാതാപ": 7318,
      " ഡെപ്യൂട്ട": 7319,
      "ം വിജയ": 7320,
      "കില": 7321,
      "ിക്കട": 7322,
      "ിന്നാല": 7323,
      " രൂപയാണ് ": 7324,
      " അഭ്യൂഹ": 7325,
      " ചൈനീസ് ": 7326,
      "ഭാരവാഹ": 7327,
      " ബെഞ്ച": 7328,
      "കുകയ": 7329,
      "തിന്റെ ": 7330,
      "റിലെ ": 7331,
      "ൂഡ് ": 7332,
      " പൈസ": 7333,
      " സിവില": 7334,
      "ിച്ചിരിക്കുന്ന": 7335,
      "ിന് സമീപ": 7336,
      "മാനസിക": 7337,
      " പറഞ്ഞു": 7338,
      " റിപ്പ": 7339,
      "ാഥാര": 7340,
      "സംഭവത്തിൽ": 7341,
      " എനിക്ക": 7342,
      "രക്ഷാ": 7343,
      "പൊട്ട": 7344,
      "ത്തിൻ്റെ ": 7345,
      "ക്കാദമ": 7346,
      "ദാഹരണ": 7347,
      "തട": 7348,
      "നോ": 7349,
      "ബത്തില": 7350,
      "ിക്കാറ": 7351,
      " താൽ": 7352,
      " എങ്കില": 7353,
      " ആസൂത്ര": 7354,
      "ാവിക": 7355,
      "പ്പെട്ടിട്ടുണ്ട": 7356,
      "ിക്കാനാവ": 7357,
      "ി കെ ": 7358,
      "ത്തിനക": 7359,
      " കുമാർ": 7360,
      "െത്തുട": 7361,
      "ുക്കൾ": 7362,
      "കാലിക": 7363,
      "ുമെന്നാണ് പ്രതീക്ഷ": 7364,
      "ഇതിനിടെ ": 7365,
      "രേന്ദ്രമോദ": 7366,
      "് കമ്മീഷന": 7367,
      "ച്ചയായി ": 7368,
      "പ്രഖ്യാപന": 7369,
      " സൈനികര": 7370,
      " വേഗത്തില": 7371,
      "ജെപ": 7372,
      "ഫോമ": 7373,
      "മിട്ട": 7374,
      "റായി ": 7375,
      "ുഡ് ": 7376,
      " പാവ": 7377,
      " കാവ": 7378,
      " ശക്തി": 7379,
      "സ്റ്റേഷനില": 7380,
      "ാൻ ശ്രമ": 7381,
      "ം നേതാക്കള": 7382,
      "ാമെന്നാണ് ": 7383,
      "ം പിടിച്ച": 7384,
      "യ്ക്കല": 7385,
      " മന്ത്രിയ": 7386,
      "െടുത്തിരുന്ന": 7387,
      "ം എടുക്ക": 7388,
      "ി ആദിത്യനാഥ": 7389,
      " കഴിഞ്ഞ ദിവസ": 7390,
      "തി നിര": 7391,
      "ം ലഭിച്ചത": 7392,
      " ഉറപ്പാണ": 7393,
      " ഇറക്കുമ": 7394,
      "യാത്രക്കാര": 7395,
      " ഭാരത്": 7396,
      "ആഗോള": 7397,
      "കന്റെ ": 7398,
      "ഗവ": 7399,
      "ഗിര": 7400,
      "ഗുല": 7401,
      "പി": 7402,
      "ഷണല": 7403,
      "ങ്ങര": 7404,
      "ുണ്ടാക്ക": 7405,
      "ുണ്ടെങ്കില": 7406,
      "കരണങ്ങള": 7407,
      " സംവരണ": 7408,
      "ി നേടിയ": 7409,
      "ിച്ച് അ": 7410,
      " നിന്ന് വന്ന": 7411,
      " പരിസര": 7412,
      "ം തുറ": 7413,
      "മുണ്ടാക്ക": 7414,
      " വേണ്ടിയ": 7415,
      " കാരണമാക": 7416,
      " സൗഹൃദ": 7417,
      "്യൂബ": 7418,
      "ക്കുള": 7419,
      "നാല് ": 7420,
      "ഡോക്ടര": 7421,
      " സംരംഭ": 7422,
      "ഹൈദരാബാദ": 7423,
      "മെന്റ് സോണ": 7424,
      "ഡിപിഐ": 7425,
      "സോണിയ": 7426,
      "ാതി": 7427,
      " പാമ്പ": 7428,
      "ച്ച നടത്ത": 7429,
      "ം റിപ്പോര": 7430,
      " മക്കള": 7431,
      " അഫ്ഗാന": 7432,
      "സ് ബ": 7433,
      " ചോര": 7434,
      "ല്ലെങ്കിൽ": 7435,
      "േഷന്റെ ": 7436,
      "മുതൽ": 7437,
      "ാൻഡ": 7438,
      "ക്ട് ": 7439,
      "െ സാധ": 7440,
      " വൈകുന്നേര": 7441,
      "ടങ്ങുന്ന": 7442,
      " ഉടൻ": 7443,
      "ഘകാല": 7444,
      "മുള്ളത": 7445,
      "ഷമായി ": 7446,
      "ാന്ത": 7447,
      "വിദ്യ": 7448,
      " ശനിയ": 7449,
      "െ കോട": 7450,
      "സിഐ": 7451,
      "െ പരാ": 7452,
      "ം വഹ": 7453,
      "േജ് ": 7454,
      "െലോട്ട": 7455,
      "ി മറ": 7456,
      " ശതമാനം വോട്ട": 7457,
      " വിളിച്ച": 7458,
      "മോശ": 7459,
      "ാഞ്ചേര": 7460,
      "ി പരിചയ": 7461,
      " മുദ്രാവാക്യ": 7462,
      "ടൂറ": 7463,
      "ീബ": 7464,
      "മുതിർന്ന": 7465,
      "ീകരിക്കുകയ": 7466,
      "െ നാല": 7467,
      "സിനിമാ": 7468,
      "അതേസമയം ഇ": 7469,
      "മേറ്റ": 7470,
      " ജില്ലയിൽ": 7471,
      "െ വന്ന": 7472,
      "ം ചൂണ്ടിക്കാട്ട": 7473,
      "് മുന്ന": 7474,
      " തുടരുകയാണ": 7475,
      " നേതൃത്വം നല": 7476,
      " പുരസ": 7477,
      "കള്ള": 7478,
      "കമ്പന": 7479,
      "ജൻ": 7480,
      "പേ": 7481,
      "മില്ലെന്ന": 7482,
      "ലഖ": 7483,
      "ലക്ഷണങ്ങള": 7484,
      "സിലെ ": 7485,
      "ാന്ത്": 7486,
      "ു വര": 7487,
      "േ?\n": 7488,
      "ത്തിര": 7489,
      " പശ്ചാത്തലത്തില": 7490,
      " ചട്ട": 7491,
      " സംയുക്ത": 7492,
      "െ കഴിഞ്ഞ": 7493,
      "് നിർ": 7494,
      " നിന്നെത്തിയ": 7495,
      "് സർ": 7496,
      "തികരിച്ച": 7497,
      " നേരെ ": 7498,
      "ീലങ്ക": 7499,
      " ചിത്രത്തില": 7500,
      "െ നടപട": 7501,
      "നിർദേശ": 7502,
      " പോലീസിന്": 7503,
      ", മലപ്പുറം ": 7504,
      "യെ അ": 7505,
      "റിസ": 7506,
      "ട്ടര": 7507,
      "മ്പില": 7508,
      "ിവേഴ": 7509,
      " ദൂര": 7510,
      "ിതര": 7511,
      " ടെല": 7512,
      "േയാണ് ": 7513,
      "ോയെന്ന്": 7514,
      " കേന്ദ്രസര": 7515,
      " കേന്ദ്ര കാലാവസ്ഥ": 7516,
      "നിങ്ങൾ": 7517,
      "ി മണ്ഡല": 7518,
      " കോൺഗ്രസിന്": 7519,
      "സുഹൃത്ത": 7520,
      " പരിശോധനയ്ക്ക്": 7521,
      "ിന് ശേഷം ": 7522,
      "അഞ്ച് ": 7523,
      "ഭോക്താക്കള": 7524,
      ", എറണാകുളം ": 7525,
      "am": 7526,
      "or": 7527,
      "ഈ വര": 7528,
      "യാ": 7529,
      "പ്പിക്കാന": 7530,
      "ം - ": 7531,
      " തൊ": 7532,
      " ആർക്ക": 7533,
      "ിന്റെ ആ": 7534,
      "കരമാണ": 7535,
      " ബാഗ": 7536,
      "ിപ്പിച്ചിട്ടുണ്ട": 7537,
      "് കള": 7538,
      "െ പൊലീസ് ": 7539,
      " ഡിഎ": 7540,
      "യുവാക്കള": 7541,
      "പ്രവർത്തന": 7542,
      "ഫേസ്ബുക്കില": 7543,
      " കുടുങ്ങ": 7544,
      "എടുക്ക": 7545,
      "നീയ": 7546,
      "ുഞ്ഞ": 7547,
      "െ വിള": 7548,
      "ിയെന്ന്": 7549,
      " കത്ത്": 7550,
      " കൈക്ക": 7551,
      "ിരാജ": 7552,
      "ക്ക് മുമ്പ": 7553,
      "മുരളീധരന": 7554,
      "് പോക": 7555,
      " ദൗത്യ": 7556,
      " കൊട": 7557,
      "കഴിഞ്ഞ വര": 7558,
      "പ്പറേറ്റ": 7559,
      "ക്കടത്ത്": 7560,
      "ം പരിശോധ": 7561,
      " ഏകദേശം ": 7562,
      "പ്രതിനിധികള": 7563,
      "ഉന്നയ": 7564,
      "ചടങ്ങ": 7565,
      "പള്ള": 7566,
      "ാമായിരുന്ന": 7567,
      "ിഷന": 7568,
      "െഗറ്റീവ": 7569,
      "ി ദ": 7570,
      " അവിടെ ": 7571,
      " അവർക്ക്": 7572,
      "ാലത്ത്": 7573,
      " ഇള": 7574,
      "ിപ്പിക്കാനുള്ള": 7575,
      "േസില": 7576,
      "ിയുടെ അ": 7577,
      " കോടിയ": 7578,
      " സ്റ്റേഷന": 7579,
      " പ്രഖ്യാപിച്ചത": 7580,
      " ബ്രാഞ്ച": 7581,
      "ധികാരത്തില": 7582,
      " പങ്കുവച്ച": 7583,
      " പടിഞ്ഞാറ": 7584,
      " സ്വയംഭരണ": 7585,
      " വിപണിയില": 7586,
      " പ്രതികരിച്ചത": 7587,
      "മെഡിക്കൽ കോളേജ": 7588,
      "സഞ്ചാര": 7589,
      "ം പ്രവര": 7590,
      "ഗോഡ": 7591,
      "പില": 7592,
      "റഞ്ച": 7593,
      "റുകൾ": 7594,
      "റദ്ദ": 7595,
      "വൃ": 7596,
      " പക": 7597,
      "ി രു": 7598,
      "ം ശ്രദ്ധ": 7599,
      " പ്രസ്ഥാന": 7600,
      " ഇരിക്ക": 7601,
      " മുക്ത": 7602,
      "ക്കാരില": 7603,
      " ഗവർണ": 7604,
      "ം വ്യാപ": 7605,
      " പരിഷ": 7606,
      " ഇടയില": 7607,
      "െ വലിയ": 7608,
      " സ്ഥാനത്ത്": 7609,
      " രാജിവെച്ച": 7610,
      " സിബിഐ": 7611,
      " സംവിധാനങ്ങള": 7612,
      " അമേരിക്കന": 7613,
      "ദിവാസ": 7614,
      " വിഷമ": 7615,
      " ദശലക്ഷ": 7616,
      "കൂര": 7617,
      "ഡംബര": 7618,
      "പക": 7619,
      "രമ": 7620,
      "ലയ": 7621,
      " അയ്യ": 7622,
      "ുകൊടുക്ക": 7623,
      " എട്ട് ": 7624,
      " ഉണ്ണ": 7625,
      "ചെയ്തിരിക്കുന്നത": 7626,
      "ുരോഗ": 7627,
      " റൂമ": 7628,
      " ഗോവ": 7629,
      " വരെയാണ് ": 7630,
      "െ നേര": 7631,
      "ം തയ്യാറ": 7632,
      " സുഹൃ": 7633,
      " സ്ഥാനത്തേക്ക്": 7634,
      "ാനുള്ള സാധ്യത": 7635,
      " ഐപിഎ": 7636,
      "ാങ്കള": 7637,
      "ിക്കണം എന്ന": 7638,
      " സമീപന": 7639,
      "വീട്ടിലേക്ക്": 7640,
      " വിദേശകാര്യ": 7641,
      " ർ ": 7642,
      "പോള": 7643,
      "പൗരത്വ": 7644,
      "വാല": 7645,
      "സ്സിന": 7646,
      "വരവ": 7647,
      "സംസ": 7648,
      "ൂരജ": 7649,
      "ാമത": 7650,
      "ം പുന": 7651,
      " അദ്ദേഹം അ": 7652,
      "ട്ട് ചെയ്യുന്ന": 7653,
      " കേരളത്തിന്റെ ": 7654,
      "ി ആർ": 7655,
      " മത്സരിച്ച": 7656,
      "ി ഉള": 7657,
      "തിരഞ്ഞെടുപ്പിൽ": 7658,
      " പലപ്പോഴ": 7659,
      "ബുദ്ധ": 7660,
      " എന്നിവർ": 7661,
      " നീങ്ങ": 7662,
      "ദിവസങ്ങള": 7663,
      "ഉത്തരവാദിത്ത": 7664,
      "് പോസിറ്റീവ": 7665,
      " ന്യൂനപക്ഷ": 7666,
      " വേദന": 7667,
      "മേഖലയില": 7668,
      "ആലപ്പുഴ:": 7669,
      " സമിതിയ": 7670,
      "83": 7671,
      "യാന": 7672,
      "ഹാർ": 7673,
      "ൂ,": 7674,
      "മായി പ്ര": 7675,
      " ബസ": 7676,
      " ശിവസേന": 7677,
      "ിവെള്ള": 7678,
      " ലിറ്റ": 7679,
      "ം കട": 7680,
      "ൂരിലെ ": 7681,
      " ചെയര": 7682,
      "ം പല": 7683,
      " നിരന്തര": 7684,
      " പുസ്തക": 7685,
      " സംഘർഷ": 7686,
      " തെക്ക": 7687,
      " കൂടി ക": 7688,
      " വയനാട": 7689,
      "ോറന": 7690,
      " സ്ഥലത്ത": 7691,
      "എന്തുകൊണ്ട": 7692,
      "താരതമ്യ": 7693,
      " കണ്ടെത്താന": 7694,
      " കാലയളവില": 7695,
      " ധാരാള": 7696,
      "സിറ്റിവിറ്റി നിര": 7697,
      "ാക്രമ": 7698,
      "മാത്യ": 7699,
      "ാണ് പ്ര": 7700,
      "ക്ക് കൂട്ട": 7701,
      "ാൻ സാധിക്ക": 7702,
      " സ്വഭാവ": 7703,
      "മാണ് ഈ": 7704,
      "മെച്ച": 7705,
      " യുവാ": 7706,
      "േജസ്വ": 7707,
      "ം മുഴുവന": 7708,
      "്മണ": 7709,
      " ഇരട്ട": 7710,
      " ഇന്നലെ ": 7711,
      " കൂട്ടിച്ചേര": 7712,
      "ചെന്നൈ": 7713,
      "ജിയില": 7714,
      "പഴയ": 7715,
      "ു-": 7716,
      "ി വാ": 7717,
      "ം അത": 7718,
      "ിനി": 7719,
      " പ്രോ": 7720,
      " ആവേശ": 7721,
      " ആഗോള": 7722,
      " മുഖ്യ": 7723,
      "െ പുതിയ": 7724,
      "ന്ധ്ര": 7725,
      "ിക്ക് ": 7726,
      " കൊള്ള": 7727,
      "ാണ് ഇപ്പോൾ": 7728,
      "ാണ് പാര": 7729,
      "െക്കാന": 7730,
      " രാജയോഗ": 7731,
      " പരാതി നൽക": 7732,
      "ഇടത്": 7733,
      "തൃണമൂല": 7734,
      "നാട്ടിൽ": 7735,
      "അനുവദ": 7736,
      " മെട്ര": 7737,
      "ബോധന": 7738,
      " പുനര": 7739,
      " ഒരുമിച്ച് ": 7740,
      "ശൈലജ": 7741,
      "84": 7742,
      "നെയ": 7743,
      "ീട്ട് ": 7744,
      "ൊണ": 7745,
      "െ യ": 7746,
      " നിൽക്ക": 7747,
      "ിക്കപ്പെടുന്ന": 7748,
      "ിക്കാമെന്ന": 7749,
      " അമിത് ഷാ": 7750,
      " ഇന്ധന": 7751,
      "ിട്ടില്ലെന്ന്": 7752,
      " ജോസ് ": 7753,
      "തിരക്ക": 7754,
      "രിറ്റ": 7755,
      " ലെ": 7756,
      "മായി മാറ": 7757,
      "സിബിഐ": 7758,
      "ം വീ": 7759,
      "ഒരു വിഭാഗ": 7760,
      "മിഷന": 7761,
      " പിന്നിൽ": 7762,
      "് താക്ക": 7763,
      " സുഖ": 7764,
      "ിത്തിര": 7765,
      "ാനുള്ള നീക്ക": 7766,
      " കാലത്ത": 7767,
      "പ്രവർത്തകര": 7768,
      "ശ്വര്യ": 7769,
      "യിടത്ത": 7770,
      "76": 7771,
      "കാർ": 7772,
      "ളിഞ്ഞ": 7773,
      "ഹരി": 7774,
      " പാറ": 7775,
      "ി മാറ": 7776,
      "ം ചര": 7777,
      " അബ്ദ": 7778,
      " തുകയ": 7779,
      "ക്ക് ഒരു": 7780,
      "വിപണ": 7781,
      "രുള": 7782,
      "് പല": 7783,
      "ം കൂട്ട": 7784,
      "ക്കാരായ": 7785,
      "െ നാട്ട": 7786,
      "സ്വീകരിച്ച": 7787,
      "സിഡന്റ": 7788,
      " കോൺഗ്രസിന": 7789,
      " സർട്ടിഫിക്കറ്റ": 7790,
      " സമ്മേളനത്തില": 7791,
      "െപിസിസി": 7792,
      " വസ്തുക്കള": 7793,
      " ൾ": 7794,
      "റ് ": 7795,
      "സമാ": 7796,
      "ിടു": 7797,
      "്മാന": 7798,
      "ൽപ": 7799,
      "് സ്വദേശ": 7800,
      "ിയെയ": 7801,
      "ം ഒന്ന": 7802,
      "ക്ഷമ": 7803,
      "ിപ്പിട": 7804,
      " ഗൗരവ": 7805,
      " ഡോസ": 7806,
      " ഡാറ്റ": 7807,
      "െലങ്കാന": 7808,
      "രോഗബാധിത": 7809,
      "ഉണ്ടാക": 7810,
      " രക്ഷാ": 7811,
      " ചർച്ചകൾ": 7812,
      " ബാലചന്ദ്ര": 7813,
      "ിക്കെതിരായ": 7814,
      " ഉദ്യോഗസ്ഥര": 7815,
      "ങ്കുവെച്ച": 7816,
      "ഡോസ് ": 7817,
      "ഭീ": 7818,
      " മൈ": 7819,
      "ുകൂട്ട": 7820,
      "ിനാഥ": 7821,
      "ില്ല;": 7822,
      " ജൂലൈ ": 7823,
      "് കാര": 7824,
      "െ കൂടുതല": 7825,
      "ഭാസ": 7826,
      " ഓൺ": 7827,
      "ം എടുത്ത": 7828,
      "ാണ് ഇവിട": 7829,
      " തെര": 7830,
      " മണ്ഡലത്തിൽ": 7831,
      " പിടികൂട": 7832,
      "ിനെതിരായ": 7833,
      "് നടക്കുന്നത": 7834,
      "ഡിന്റെ ": 7835,
      "ത.\n": 7836,
      "നിക്ക": 7837,
      "മോഷ": 7838,
      "റസ്റ്റില": 7839,
      "ശക്തി": 7840,
      "ാസില": 7841,
      "ിതിയ": 7842,
      "ുനില": 7843,
      " വില്ല": 7844,
      " മാ യ": 7845,
      " റെയിൽ": 7846,
      "ി കെ": 7847,
      " ടി": 7848,
      " ഹാര": 7849,
      "ം അവര": 7850,
      "് അദ്ദേഹ": 7851,
      "ി മന": 7852,
      " രോഗം ബാധ": 7853,
      " സ്വാഭാവിക": 7854,
      " കുറ്റകൃത്യ": 7855,
      "സൈന്യ": 7856,
      " അപേക്ഷ ക്ഷണ": 7857,
      "രംഗത്തെത്തിയിരുന്ന": 7858,
      " സിനിമയില": 7859,
      "ാവാത്ത": 7860,
      " കൊച്ചിയില": 7861,
      " കർശന": 7862,
      " അനുസരിച്ച് ": 7863,
      "ളിപ്പറമ്പ": 7864,
      "നോളജ": 7865,
      "ിയൻ": 7866,
      " മില്യണ": 7867,
      " അതു": 7868,
      "ാരോപ": 7869,
      "ാനു": 7870,
      " തോല": 7871,
      "മായ ഒരു": 7872,
      " ആവര": 7873,
      "പ്രണയ": 7874,
      "എന്നീ": 7875,
      "ി നേരിട": 7876,
      "ിലെ അ": 7877,
      " ടിക്കറ്റ് ": 7878,
      "ൊരുങ്ങ": 7879,
      "ട്രോള": 7880,
      "ട്രേലിയ": 7881,
      " രാജ്യത്തിന്റെ ": 7882,
      " ഇതര": 7883,
      "ുന്നുണ്ടെന്ന": 7884,
      " വ്യക്തമാക്കിയത": 7885,
      " പരിശോധന നടത്ത": 7886,
      "ം വരുന്ന": 7887,
      " ക്രൂര": 7888,
      "ാഫ്ര": 7889,
      "ശ്ശേരി ": 7890,
      " ഡോക്ടർ": 7891,
      "ചൈനീസ് ": 7892,
      " വീട്ടിൽ": 7893,
      "എഫ് ഐ": 7894,
      "വൈറസ് ": 7895,
      "അങ്ങനെയ": 7896,
      "എട്ട് ": 7897,
      "ബെ": 7898,
      "ലാണ് ": 7899,
      "ൃഥ": 7900,
      "ക്കിയത": 7901,
      "ങ്ങളുടെയ": 7902,
      "ിരുന്നാല": 7903,
      "രാഗ": 7904,
      "രാമയ്യ": 7905,
      "പ്രചരണ": 7906,
      "സിജന": 7907,
      "ി പട്ടിക": 7908,
      " ഡിവൈ": 7909,
      " ഫോൺ": 7910,
      "െ നോക്ക": 7911,
      "ി അന": 7912,
      "േക്കുമെന്ന": 7913,
      "ി സർക്കാർ": 7914,
      " ഈട": 7915,
      " നിലവാര": 7916,
      "മെന": 7917,
      "196": 7918,
      "നേതാക്കൾ": 7919,
      "െ ആകെ ": 7920,
      "േട്ടന": 7921,
      " വാങ്ങിയ": 7922,
      " ആശുപത്രികള": 7923,
      "ം ഉണ്ടാവ": 7924,
      " എന്തിന": 7925,
      " ഉത്തരവാദ": 7926,
      "കൈവശ": 7927,
      " താഴെ ": 7928,
      "സ്ഥാപന": 7929,
      "രൂക്ഷമായ": 7930,
      " ഉറവിട": 7931,
      "േവനങ്ങള": 7932,
      "ിന്യസ": 7933,
      " ഇന്റര": 7934,
      " ട്ട": 7935,
      " പവന": 7936,
      " കായിക": 7937,
      "ിച്ചിട്ടുള്ള": 7938,
      "മ്മാ": 7939,
      " ചീഫ് ": 7940,
      "പ്രസ": 7941,
      " വിറ്റ": 7942,
      "ങ്കിൽ": 7943,
      "ാമില": 7944,
      " ഫോര": 7945,
      "െ അപേക്ഷ": 7946,
      "ി എടുക്ക": 7947,
      "ുനോക്ക": 7948,
      " ശ്രമങ്ങള": 7949,
      "ി ഉപയോഗ": 7950,
      "ം നടത്തുന്നത": 7951,
      "ലോചന": 7952,
      "് പ്രചാരണ": 7953,
      " നേതാക്കളുടെ ": 7954,
      "് എന്നാണ് ": 7955,
      "ധാകരൻ": 7956,
      "ഇത്തരത്തില": 7957,
      " കണക്കുകള": 7958,
      "്',": 7959,
      "സുരക്ഷാ": 7960,
      " ങ്ങ ള": 7961,
      "സാമൂഹിക": 7962,
      "കരുതുന്നത": 7963,
      ", ബ": 7964,
      "കാസർ": 7965,
      "ജറ": 7966,
      "ജെഡിയ": 7967,
      "ാദേശ": 7968,
      "ൈറ്റ് ": 7969,
      "് സര": 7970,
      " പ്രേര": 7971,
      "ിന്റെ ക": 7972,
      "ിച്ചതായ": 7973,
      "ിച്ചതിന്": 7974,
      "ദ്ധവ": 7975,
      " തിരുത്ത": 7976,
      "് നേട": 7977,
      " സ്വീകരിച്ചത": 7978,
      "ാത്തവര": 7979,
      "അതേസമയം": 7980,
      "ി എം": 7981,
      "ി വകുപ്പ": 7982,
      " കുറച്ച് ": 7983,
      "ുവരുന്നത": 7984,
      "കേരളത്തിന്റെ ": 7985,
      " അപമാന": 7986,
      "വാക്കുകള": 7987,
      "മനസ്സില": 7988,
      "നിയമന": 7989,
      " മഴയ്ക്ക്": 7990,
      " ഉറച്ച": 7991,
      " ഇങ്ങനെ\n": 7992,
      " രോഗമുക്തി നേട": 7993,
      "95": 7994,
      "അയ": 7995,
      "ടിക്കറ്റ": 7996,
      "നൂറ": 7997,
      "പത്ത്": 7998,
      "ക്കൾ": 7999,
      " പയ്യ": 8000,
      " സാമ": 8001,
      " സ്ട്ര": 8002,
      "ം ഭേദ": 8003,
      " ഇഡ": 8004,
      " വിവേ": 8005,
      "വാൻ": 8006,
      "സ്ഥിതി": 8007,
      "് പേർ": 8008,
      "ം നേതാവ": 8009,
      "ിജെ ജ": 8010,
      " ടിവ": 8011,
      " ഉണ്ടാക്ക": 8012,
      "ാസമ്മേള": 8013,
      "ം മറ്റ": 8014,
      " മനസ്സ": 8015,
      "ം ചെയ്തിരുന്ന": 8016,
      "സഹകര": 8017,
      "് നടന്നത": 8018,
      " പരിശോധനയില": 8019,
      " ചോദ്യത്തിന്": 8020,
      " സമ്മര": 8021,
      "െ ചോദ്യ": 8022,
      " നിരവധി ": 8023,
      "ോക് ഗ": 8024,
      "ട്ടിഫിക്കറ്റ് ": 8025,
      "് കാലത്ത്": 8026,
      " തെലങ്കാന": 8027,
      "ജോസ് കെ മാണ": 8028,
      "ബിസ": 8029,
      "മറിയ": 8030,
      "ശേഖ": 8031,
      "ൗല": 8032,
      " സില": 8033,
      " സച്ചിന": 8034,
      " നോ": 8035,
      " മട്ട": 8036,
      "ാണ് എന്ന്": 8037,
      "യിലെ ക": 8038,
      " ബാബു": 8039,
      "റിയാദ": 8040,
      "ം കേസ": 8041,
      " ഈ രാശിക്കാര": 8042,
      "ജനങ്ങൾ": 8043,
      "പെണ": 8044,
      "ംബർ": 8045,
      "െ എത്ത": 8046,
      " നടപടി ": 8047,
      " ഉപയോഗിച്ച": 8048,
      " തോറ്റ": 8049,
      " അതിഥ": 8050,
      " തെറ്റായ": 8051,
      " പ്രതിപക്ഷ നേതാവ് ": 8052,
      " ഡിസംബ": 8053,
      "ി തരൂര": 8054,
      " മുന്നോടിയായി ": 8055,
      "ഡിവൈ": 8056,
      "ഫോൺ": 8057,
      "രഹസ്യ": 8058,
      "റേറ്റ": 8059,
      " പത്ത": 8060,
      " പമ്പ": 8061,
      "ം ദ": 8062,
      "ാണ് ഇത": 8063,
      "ങ്ങളാണ": 8064,
      " ആവ": 8065,
      "ിടുന്ന": 8066,
      "അതിൽ": 8067,
      "ം വഴ": 8068,
      "മാക്കിയിട്ടുണ്ട": 8069,
      " കോടതിയുടെ ": 8070,
      "ം ഉള": 8071,
      " മന്ത്രി വ്യക്തമാക്ക": 8072,
      " ഇന്ത്യയ": 8073,
      " അതുകൊണ്ട": 8074,
      "ിച്ചിട്ടുണ്ടെന്ന": 8075,
      " പെന": 8076,
      "ൂപ്പർ": 8077,
      "ന്യൂഡൽഹ": 8078,
      " തിരിച്ചെത്ത": 8079,
      " നിർണായക": 8080,
      "ത് .\n": 8081,
      " ചോദിക്കുന്ന": 8082,
      "ിന്റേയ": 8083,
      "വ്യാഴാഴ്ച": 8084,
      " ചേർന്ന്": 8085,
      "ഷ്യൽ മീഡിയയിൽ": 8086,
      "മാണി സി ക": 8087,
      " .": 8088,
      "ഫെബ്രുവരി ": 8089,
      "മ്ര": 8090,
      "സറ": 8091,
      "ാടു": 8092,
      "ാസ്റ്റ": 8093,
      "െക്": 8094,
      " സാഹചര": 8095,
      " അറ്റ": 8096,
      "മ്പ്യൂട്ട": 8097,
      "മാണെന്നാണ് ": 8098,
      "രിങ്ങ": 8099,
      "സംബോധന": 8100,
      " യെല്ലോ അല": 8101,
      " ഫ്ല": 8102,
      "െ നല": 8103,
      "ഗ്രസ് നേതൃത്വ": 8104,
      "പ്പെടുത്താൻ": 8105,
      " കേന്ദ്രമന്ത്ര": 8106,
      "ാണ് ഇയാള": 8107,
      "ിറോസ": 8108,
      " കേസുകൾ": 8109,
      "195": 8110,
      "ിത്തുറ": 8111,
      " ഐ.": 8112,
      " പ്രവർത്തനങ്ങൾ": 8113,
      "ദ്രവ": 8114,
      " നീട്ട": 8115,
      " നമ്മൾ": 8116,
      " മൊത്ത": 8117,
      " ടെക്": 8118,
      " ആനുകൂല": 8119,
      " മുഖേന": 8120,
      "ംഗ്ലാദേശ": 8121,
      " ഗുരുതരമായ": 8122,
      "ഗസ്ഥന": 8123,
      "www": 8124,
      " ആശംസ": 8125,
      "82": 8126,
      "മധ്യ": 8127,
      "റങ്ങ": 8128,
      "ശനങ്ങള": 8129,
      "ഷാര": 8130,
      "ൂബ": 8131,
      "ക്കുഴ": 8132,
      "ിയാൽ": 8133,
      "ി സി": 8134,
      "ക്ക് ശേഷ": 8135,
      " ജോർജ": 8136,
      "മ്മുടെ ": 8137,
      "ഞ്ചേശ്വര": 8138,
      "ാമന": 8139,
      "പ്പെടുകയായിരുന്ന": 8140,
      "യുക്രൈന": 8141,
      "ം തള്ള": 8142,
      "ിപുര": 8143,
      "ിപിഎ": 8144,
      "പ്പെടുത്തുന്നത": 8145,
      "എസ്ആര": 8146,
      " അന്വേഷണം നടത്ത": 8147,
      "ീസൺ": 8148,
      " അടക്കമുളള": 8149,
      " ആളുകൾ": 8150,
      " നിരീക്ഷണത്തിലാണ": 8151,
      " ബാധ്യത": 8152,
      " ജീവിതത്തില": 8153,
      "സിപ്പല": 8154,
      " എം എല": 8155,
      "മുഖ്യമന്ത്രി പിണറായി വിജയന": 8156,
      "ടര": 8157,
      "ലാപ": 8158,
      "ശിവസേന": 8159,
      "ി/": 8160,
      "ിയെ ത": 8161,
      "ിക്കന": 8162,
      " എഐ": 8163,
      " എച്ച": 8164,
      " പ്രാഥ": 8165,
      "രാത": 8166,
      "ുള്ളവർ": 8167,
      "ില്ല.": 8168,
      "മ്മള": 8169,
      "ാട് ക": 8170,
      "െ കോവിഡ് ": 8171,
      "അതായത്": 8172,
      "െ നയ": 8173,
      " നിന്ന് പുറത്ത": 8174,
      " കോടിയുടെ ": 8175,
      " ദിവസങ്ങളിൽ": 8176,
      " ഇന്ത്യയിലെ ": 8177,
      "ൊക്കെയാണ് ": 8178,
      " പോകുന്നത്": 8179,
      "ഇടപെട്ട": 8180,
      "ുമെന്നാണ് സൂചന.\n": 8181,
      "നാട്ടിലെ ": 8182,
      " ബുദ്ധ": 8183,
      "ത്തിനുള്ളിൽ": 8184,
      " ഒറ്റപ്പെട്ട": 8185,
      "വിമാനത്താവള": 8186,
      " യൂണിറ്റ": 8187,
      " എൽഡിഎഫ": 8188,
      " സ്ഥിതി ": 8189,
      " കാനഡ": 8190,
      " ഔ": 8191,
      "on": 8192,
      "ജന്റ": 8193,
      "്മെന്റ": 8194,
      " സിങ": 8195,
      " വേര": 8196,
      "ിരിപ്പ": 8197,
      "ിരാക": 8198,
      " നെടു": 8199,
      " വിമർശ": 8200,
      "വാഷ": 8201,
      " ജോസ് കെ മാണ": 8202,
      "ാവൂര": 8203,
      "ത്തിയിട്ടുണ്ട": 8204,
      "െന്നാണ് സൂചന.\n": 8205,
      " പേരെയാണ് ": 8206,
      "ാണ് കഴിഞ്ഞ": 8207,
      "ുമായി പ": 8208,
      " എന്ന് പറഞ്ഞ": 8209,
      "തുടരുന്ന": 8210,
      "ി ആണ": 8211,
      "പ്യന": 8212,
      "ി രാജേഷ": 8213,
      "കരുതല": 8214,
      " വയസുള്ള": 8215,
      " വകഭേദ": 8216,
      "സിക്യൂഷന": 8217,
      "ചുമ": 8218,
      "ജോര": 8219,
      "യാക്ക": 8220,
      "ലാൽ": 8221,
      "വച": 8222,
      "ഹെല": 8223,
      "ാ ഫല": 8224,
      "ിമാർ": 8225,
      "ു...\n": 8226,
      "െ-": 8227,
      "ിലാണ": 8228,
      "ി ഓ": 8229,
      " കെ എസ് ": 8230,
      "പ്പിച്ചത": 8231,
      " മെച്ച": 8232,
      " ഇത്ര": 8233,
      " വിമത": 8234,
      "് നേതൃത്വ": 8235,
      " അറിയിച്ചിരുന്ന": 8236,
      "ിൻറെ ": 8237,
      "് മണിക്ക": 8238,
      "ിഫ്ബ": 8239,
      " താഴ്": 8240,
      " പൂജ": 8241,
      " എംപിമാര": 8242,
      " അധികൃതർ": 8243,
      "ൽ,": 8244,
      " സൂ": 8245,
      " വാടക": 8246,
      "ിന് മുമ്പ": 8247,
      "ിപ്പോള": 8248,
      "രിചയ": 8249,
      " ലാബ": 8250,
      "ഇതര": 8251,
      "ുലു": 8252,
      "മെട്ര": 8253,
      "ോട് സംസാര": 8254,
      "ഗ്രസിലെ ": 8255,
      "െടുക്കാൻ": 8256,
      "ങ്ങളിൽ നിന്ന്": 8257,
      "ഞ്ചായത്ത്": 8258,
      " പ്രവർത്തിക്കുന്ന": 8259,
      "പ്രതികരിച്ച": 8260,
      " സംഘടനാ": 8261,
      "ഇപ്പോഴത്തെ ": 8262,
      "തീവ്രവാദ": 8263,
      "സ്പ്രസ് ": 8264,
      "ശ്ചിമ ബംഗാള": 8265,
      "െഹ്ല": 8266,
      " സംഗീത": 8267,
      "www.": 8268,
      "ി പറയ": 8269,
      "ുതി": 8270,
      "ിച്ചില്ല.\n": 8271,
      "റ്റല": 8272,
      "ികില": 8273,
      " എഎപ": 8274,
      "ുള്ള ഒരു": 8275,
      " ജി": 8276,
      "മ്പുഴ": 8277,
      "േഷന്": 8278,
      "മായി ബന്ധപ്പെട്ട": 8279,
      "ിച്ചതില": 8280,
      "ത്തിന്റ": 8281,
      "് നിന്ന": 8282,
      "ം മല": 8283,
      "ം പ്രതീക്ഷ": 8284,
      "ുന്നതിനിട": 8285,
      "ം ഉണ്ടായത": 8286,
      "്മിന": 8287,
      " എന്നിവിട": 8288,
      "ിച്ച് പറയ": 8289,
      "സുരേഷ് ഗോപ": 8290,
      " നിയമസഭയില": 8291,
      " പുറമെ ": 8292,
      " ഹോട്ടല": 8293,
      " വിദഗ്ധ": 8294,
      " കഥാപാത്ര": 8295,
      "91": 8296,
      "എയ": 8297,
      "ഡീഷ": 8298,
      "ഹാജരാ": 8299,
      "ോണ്ട": 8300,
      " കുവൈ": 8301,
      " നൂ": 8302,
      " നാമ": 8303,
      "ം ജില്ലാ": 8304,
      " അതീവ": 8305,
      "ില്ല എന്നാണ് ": 8306,
      "ത്തിന് ശേഷം ": 8307,
      " ഫോട്ടോ": 8308,
      "ം അനുഭവ": 8309,
      " കാര്യവ": 8310,
      " കണ്ടത": 8311,
      " കാരണം ": 8312,
      "നാട്ടുകാര": 8313,
      " തവണയ": 8314,
      "വീടുകളില": 8315,
      "ദ്ഘാട": 8316,
      "ഫേസ്ബുക്ക് പോസ്റ്റ": 8317,
      "ചീഫ് ": 8318,
      "റിപ്പ": 8319,
      "ിക്രമ": 8320,
      " പിഎ": 8321,
      "ിയിരിക്കുന്നത": 8322,
      " കിഷ": 8323,
      " ജോയ": 8324,
      "എന്നാണ് ": 8325,
      "ിയിലേക്ക": 8326,
      "െ പോയ": 8327,
      "കളാണ് ": 8328,
      "ിക്കുന്നതാണ": 8329,
      " ഹരിയ": 8330,
      "െ അംഗ": 8331,
      " രാഹുൽ": 8332,
      "വേറ്റ": 8333,
      " നേരിയ": 8334,
      " ഉപേക്ഷ": 8335,
      "പെരു": 8336,
      "ങ്ങളിൽ നിന്ന": 8337,
      "ുളളത": 8338,
      "സഹകരണ": 8339,
      "കേന്ദ്ര സര": 8340,
      " മലയാളികള": 8341,
      "അഭിഭാഷ": 8342,
      "മായി കാണ": 8343,
      " ഒട്ടേറെ ": 8344,
      "വിന്ദ് കെ": 8345,
      "ഗാസ": 8346,
      "ഗിള": 8347,
      "ജിത": 8348,
      "പിതാവ": 8349,
      "്),": 8350,
      "ക്കൊള്ള": 8351,
      " കൺ": 8352,
      " കെപിസിസ": 8353,
      " വേഷ": 8354,
      "ിക്കഴിഞ്ഞ": 8355,
      "ുക എന്നത": 8356,
      "െന്നു": 8357,
      "തിരിക": 8358,
      "ാണ് കാണ": 8359,
      " ദിവസങ്ങള": 8360,
      "ില്ലെന്നായിരുന്നു": 8361,
      "ിത്തെറ": 8362,
      "തൃക്കാക്കര": 8363,
      " കൈകാര്യ": 8364,
      " പ്രവർത്തകര": 8365,
      " ആവശ്യപ്പെട്ടിരുന്ന": 8366,
      " തെളിഞ്ഞ": 8367,
      " മരണങ്ങള": 8368,
      "ടെക്": 8369,
      "ഏകദേശം ": 8370,
      "ി ജില്ലാ": 8371,
      " അദ്ദേഹം കൂട്ടിച്ചേർത്ത": 8372,
      " വിദ്യാർത്ഥികള": 8373,
      "കോള": 8374,
      "തമിഴ്": 8375,
      "നാഗ": 8376,
      "മെങ്കില": 8377,
      "യുട": 8378,
      "റാണ": 8379,
      "റോഡ് ": 8380,
      "ിണ്ട": 8381,
      "ി പോ": 8382,
      "ക്വ": 8383,
      " പെയ": 8384,
      " കൂ": 8385,
      " സബ": 8386,
      "ിരണ": 8387,
      "ം ഭ": 8388,
      " മുണ്ട": 8389,
      " അട്ടിമറ": 8390,
      "ത്തിയാക": 8391,
      "് പോള": 8392,
      " ഗവേഷണ": 8393,
      "് നാല": 8394,
      " നിരക്കില": 8395,
      "പക്ഷെ ": 8396,
      "ം തകര": 8397,
      "ി വോട്ട": 8398,
      "ം സീറ്റ": 8399,
      "ിയിൽ നിന്ന": 8400,
      "െറിഞ്ഞ": 8401,
      "ലോഡ് ": 8402,
      "ം വരെ ": 8403,
      "ശാഖ": 8404,
      " മണിക്കൂറില": 8405,
      "അനുമ": 8406,
      " പിന്തുണയ": 8407,
      " യുവതിയ": 8408,
      "സി വേണുഗോപാല": 8409,
      "ടെക": 8410,
      "ില്യൺ": 8411,
      " വൈദ്യുതി ": 8412,
      " രാധാകൃഷ്ണ": 8413,
      "ar": 8414,
      "നന": 8415,
      "നടന": 8416,
      "െ മാറ്റ": 8417,
      "ിയ്ക്ക": 8418,
      "ച്ച ചെയ്യ": 8419,
      " മിസ": 8420,
      "ിനി ": 8421,
      "വിശ്വാസം": 8422,
      "ഞ്ജന": 8423,
      " ബഹുമാന": 8424,
      "തിറ്റാണ്ട": 8425,
      "െ കുട": 8426,
      " മുഴുവൻ": 8427,
      "ൂരിൽ": 8428,
      "ാം:": 8429,
      "ി കൂട്ടിച്ച": 8430,
      "ോരമ": 8431,
      "മൂന്നു": 8432,
      "ിരിക്കണ": 8433,
      "ാണ് കേസ": 8434,
      "്വന്റ": 8435,
      "ിലേക്ക് മാറ്റ": 8436,
      "കൾക്ക": 8437,
      "ിക്കുന്നുണ്ടെന്ന": 8438,
      "ിയിലേക്ക് മാറ്റ": 8439,
      "ണാടകയില": 8440,
      " പ്രവേശിപ്പിച്ചത": 8441,
      " റിപ്പോർട്ട് ചെയ്ത": 8442,
      "ി ജയരാജ": 8443,
      " മറുപടി നല": 8444,
      "ഷ്യാനെറ്റ് ": 8445,
      "81": 8446,
      "ഇക്കഴിഞ്ഞ": 8447,
      "ഐക്യ": 8448,
      "ഫ്യൂ": 8449,
      " പിതാവ": 8450,
      " വണ്ട": 8451,
      " ആപ്പ": 8452,
      "ുള്ള ": 8453,
      "വാഗ്ദാന": 8454,
      "ുവീ": 8455,
      "മാനത്താവള": 8456,
      "ം കള": 8457,
      "തലത്തില": 8458,
      " ഫെബ്രുവരി ": 8459,
      " കോടിയേര": 8460,
      "ാദിത്യ": 8461,
      " നിലവിലെ ": 8462,
      "നടന്ന": 8463,
      "ുന്നതിനാല": 8464,
      "ി ചോദ": 8465,
      "ി ചെറിയ": 8466,
      "് എന്നിവ": 8467,
      " നീക്കങ്ങള": 8468,
      " മറുപടി": 8469,
      "കാസര": 8470,
      " പട്ടേല": 8471,
      " ദില്ലിയില": 8472,
      "െണ്ണല": 8473,
      " പ്രയാസ": 8474,
      "ആവശ്യമ": 8475,
      "കണമെന്ന": 8476,
      "ജോസഫ് ": 8477,
      "ടിച്ച് ": 8478,
      "മൊന്ന": 8479,
      "ലെ": 8480,
      "ിദ്ധ": 8481,
      "ീ.\n": 8482,
      "്‍/": 8483,
      "്‍),": 8484,
      "ക്കറ്റ": 8485,
      " സേ": 8486,
      " മരുന്ന്": 8487,
      " ആംബുല": 8488,
      " ചാട": 8489,
      " എന്ന നിലയില": 8490,
      "് കൈ": 8491,
      "െന്നാണ് വിവര": 8492,
      " നിരാശ": 8493,
      "ണക്കടത്ത്": 8494,
      "െ മരണ": 8495,
      " പലത": 8496,
      " നൽകിയത": 8497,
      "ത്തോടൊപ്പ": 8498,
      " അല്ലെങ്കിൽ": 8499,
      "ക്ടറേറ്റ": 8500,
      " നേരിടുന്ന": 8501,
      "ബിസിനസ് ": 8502,
      " ഫേസ്ബുക്കില": 8503,
      "സ്റ്റംസ് ": 8504,
      "ത്തരാഖണ്ഡ": 8505,
      "86": 8506,
      "ീള": 8507,
      "ോച": 8508,
      "ത് എന്നാണ് ": 8509,
      " നര": 8510,
      "ം ര": 8511,
      "ാനിരിക്കുന്ന": 8512,
      " ആം ആദ്മ": 8513,
      "ായിരുന്ന ": 8514,
      "ന്റില": 8515,
      " ഗര": 8516,
      "ിട്ടുണ്ടെന്ന്": 8517,
      "ം പേർ": 8518,
      "ുമെന്നായിരുന്നു": 8519,
      "ംഭീര": 8520,
      "ം എന്നീ": 8521,
      "് മണ": 8522,
      " കഴിയാത്ത": 8523,
      " പ്രവർത്തനങ്ങള": 8524,
      "പ്രതിപക്ഷ നേതാവ": 8525,
      "ചോദിച്ച": 8526,
      "െക്രട്ടറിയ": 8527,
      " കിലോമീറ്റർ": 8528,
      "ാണ് പോലീസ് ": 8529,
      " തിങ്കളാഴ്ച": 8530,
      " ന്യായ": 8531,
      "അപ്പോഴ": 8532,
      "ഓട്ട": 8533,
      " പന": 8534,
      " സച്ച": 8535,
      "ാനിയ": 8536,
      "പ്രീ": 8537,
      "പ്രിൽ ": 8538,
      "ിവിൽ": 8539,
      "മ്മിറ്റ": 8540,
      "ിന്നല": 8541,
      "ിക്കുന്ന ഒരു": 8542,
      "ണ്ഠ": 8543,
      " യൂത്ത് കോണ": 8544,
      "ത്തിന് പിന്നില": 8545,
      "ിക്കാനായി ": 8546,
      "ം വേണ്ട": 8547,
      " ഫോട്ട": 8548,
      " വീഡിയ": 8549,
      " സംഭവങ്ങള": 8550,
      "പ്രതിദിന": 8551,
      " കാലാവധ": 8552,
      "െ എന്ത": 8553,
      " ഐസ": 8554,
      "ുട്ടികള": 8555,
      " ഇനി ": 8556,
      "ഡ്രൈ": 8557,
      " പാടില്ല.\n": 8558,
      " പുരോഗമ": 8559,
      " ജോലിയ": 8560,
      "ിരാകാശ": 8561,
      " ടു": 8562,
      "ജനുവരി ": 8563,
      "തയുടെ ": 8564,
      "നിതീഷ": 8565,
      "പി ": 8566,
      "വന്നത": 8567,
      "ൊവ്വ": 8568,
      " കുന്ന": 8569,
      "മാന്റ": 8570,
      " മമ്മൂട്ട": 8571,
      " അസ്വ": 8572,
      "രാധന": 8573,
      "വാറ്റുപ": 8574,
      " സ്വർണ്ണ": 8575,
      "മായി ബാധ": 8576,
      "മ്മയ": 8577,
      "് അവസാന": 8578,
      "ജില്ലകളിൽ": 8579,
      " ഇടിവ": 8580,
      "ഇന്ത്യയിൽ": 8581,
      " ആണെന്ന": 8582,
      " പെര": 8583,
      " മറ്റുള്ളവര": 8584,
      "ഇതിനു": 8585,
      " നിർമ്മ": 8586,
      " കമ്മ്യൂണ": 8587,
      " രീതിയിലുള്ള": 8588,
      "വ്യവസ്ഥ": 8589,
      " ഇത്തരത്തില": 8590,
      "് പറയുന്നത": 8591,
      "െ സുരേന്ദ്ര": 8592,
      "ി ഗോവിന്ദ": 8593,
      " സീസണില": 8594,
      "ം മുന്നോട്ട": 8595,
      "ദ്ധരിച്ച് ": 8596,
      "പത്ത": 8597,
      "ബാക്കിയ": 8598,
      "മില്ലാത": 8599,
      "ൗഡ": 8600,
      "ർമാർ": 8601,
      "് ഷ": 8602,
      "ിക്കപ്പെട്ടത": 8603,
      "ന്ന് ": 8604,
      " ചുവ": 8605,
      " ചുരു": 8606,
      "ിട്ടത": 8607,
      "ം കാല": 8608,
      " യൂത്ത്": 8609,
      "ി നടക്ക": 8610,
      "ാമര": 8611,
      "ാമത്": 8612,
      "മാക്കുന്നത": 8613,
      " ഹാജ": 8614,
      " നിങ്ങൾക്ക്": 8615,
      "ി സഖ്യ": 8616,
      "രാജ്യസഭ": 8617,
      "് അന": 8618,
      "മേൽ": 8619,
      " ജനകീയ": 8620,
      "ജിദ": 8621,
      "് ആശുപത്ര": 8622,
      "് ചന്ദ്ര": 8623,
      "എസ്എസ": 8624,
      "എസ്ആർ": 8625,
      "അതിനാൽ": 8626,
      "ഗ്രാമപഞ്ചായ": 8627,
      " അറസ്റ്റിലായ": 8628,
      "ദുരിതാശ്വാസ": 8629,
      "ം തെളിയ": 8630,
      "ട്ടയാട": 8631,
      "ബവ": 8632,
      "സിയുടെ ": 8633,
      "ർമാര": 8634,
      " വാട": 8635,
      " മില്ല": 8636,
      " അമരീ": 8637,
      "ിൽ പറയുന്ന": 8638,
      " ഇയാൾ": 8639,
      "ത്തിലായ": 8640,
      " ശത്ര": 8641,
      "സിബ": 8642,
      " ടി സ": 8643,
      "തുമായ": 8644,
      " പരിഹരിക്ക": 8645,
      "വരുടെ എണ്ണ": 8646,
      "രണ്ട് പേര": 8647,
      " ഞായറാഴ്ച": 8648,
      "മുഖ്യമന്ത്രി സ്ഥാന": 8649,
      "പ്പെടുത്തിയിരിക്കുന്നത": 8650,
      "് നടത്തിയത": 8651,
      " മനസ്സിലാക്ക": 8652,
      "ഉടൻ": 8653,
      "ി സതീശ": 8654,
      " മീറ്റര": 8655,
      " ചലച്ചിത്ര": 8656,
      " വടകര": 8657,
      "വാറ്റുപുഴ": 8658,
      "ം പറയുന്നത": 8659,
      "ഗിന്": 8660,
      "തിവ": 8661,
      "മീഡിയ": 8662,
      "രായി ": 8663,
      "ഷുറ": 8664,
      "ാഖ": 8665,
      " പിൻവല": 8666,
      "ും?\n": 8667,
      " നരേന്ദ്ര മോദ": 8668,
      " മധ": 8669,
      " ഇംഗ്ല": 8670,
      " ചൊവ്വാഴ്ച": 8671,
      "യിലുള്ളത": 8672,
      "ത്തിയാക്കിയ": 8673,
      "ിയിലാണ് ": 8674,
      "് കണ": 8675,
      "ുപറമ്പ": 8676,
      "െത്തി ": 8677,
      "യ്ക്ക് ശേഷ": 8678,
      "സംസ്ഥാന അധ്യക്ഷന": 8679,
      " വന്നാല": 8680,
      "മാറിയത": 8681,
      " കോവിഡ് സ്ഥിരീകരിച്ച": 8682,
      "ആത്മഹത്യ": 8683,
      "94": 8684,
      ": ": 8685,
      "തയില": 8686,
      "തോല": 8687,
      "ാഫല": 8688,
      "ിമാറ്റ": 8689,
      " കന": 8690,
      " വാസ": 8691,
      "ിക്കേറ്റ": 8692,
      " എടുത്ത്": 8693,
      "ക്ക് സമ്പര": 8694,
      "രുത്തര": 8695,
      " ജോസഫ് ": 8696,
      "ാക്കോ": 8697,
      "മുഴുവൻ": 8698,
      "െ കൂട്ട": 8699,
      "ഞ്ചാവ": 8700,
      "ാമുക": 8701,
      "ിക്കാനാക": 8702,
      "ിലെ സ": 8703,
      "തിനു": 8704,
      "ി വി ": 8705,
      "ി ജലീല": 8706,
      "്വല്ല": 8707,
      "ുകയാണെങ്കില": 8708,
      "കേരള കോണ": 8709,
      " പരാതികള": 8710,
      " വ്യക്തിയ": 8711,
      "മുന്നോട്ട് പോക": 8712,
      " വർഷത്തെ ": 8713,
      " എതിരാള": 8714,
      "ബ്ല്യു": 8715,
      "ിഹാദ": 8716,
      "ഡയറക്ടര": 8717,
      " അകലം പാല": 8718,
      ") എന്നിവര": 8719,
      "92": 8720,
      "ം സ്ഥാപ": 8721,
      "ഖത്തര": 8722,
      "ടിട": 8723,
      "ഡി ": 8724,
      "പഠന": 8725,
      "ക്കോട": 8726,
      " കെ സുധാകരന": 8727,
      " വിക്കറ്റ": 8728,
      "പ്രവാസ": 8729,
      " ഉളള": 8730,
      "സിസ് ": 8731,
      "ഞ്ച്വ": 8732,
      "ിജാബ": 8733,
      "ങ്ങളിലായി ": 8734,
      " അദ്ദേഹം പറയുന്ന": 8735,
      "ിമുറ": 8736,
      " വെട്ട": 8737,
      " കൂടിയാണ് ": 8738,
      "് മത്സര": 8739,
      " കാരണങ്ങള": 8740,
      "ന്യൂസ് ": 8741,
      " തൃക്കാക്കര": 8742,
      " ശുഭ": 8743,
      "ഇതേ തുടര": 8744,
      " ആരാധകര": 8745,
      " കമ്പനിയ": 8746,
      "ൃഥ്വ": 8747,
      "at": 8748,
      "കഴ": 8749,
      "ടല": 8750,
      "താവ": 8751,
      "താത്": 8752,
      "സമിത": 8753,
      " പിള്ള": 8754,
      "ിക്കിട": 8755,
      "ിച്ച ": 8756,
      " ആഹ്വാന": 8757,
      " ജസ്റ്റിസ് ": 8758,
      "ിപ്പ് ": 8759,
      "ം കാഴ്ച": 8760,
      " യുക": 8761,
      "ി നേരിട്ട": 8762,
      "തലശേര": 8763,
      " പേരിൽ": 8764,
      "തീഷ": 8765,
      "ി തുറ": 8766,
      " അറിയിച്ചിട്ടുണ്ട": 8767,
      "ുന്നതിനു": 8768,
      " കുടിയേറ്റ": 8769,
      " വിഷയങ്ങളില": 8770,
      " തുടരുന്ന": 8771,
      "ീഷണര": 8772,
      "വ്വഹ": 8773,
      " താലിബാന": 8774,
      "െ നടപടിയ": 8775,
      " മേധാവ": 8776,
      " അമ്മയ": 8777,
      "കണ്ടെത്ത": 8778,
      "തോന്ന": 8779,
      " തീയതി ": 8780,
      " കൂട്ടിച്ചേർത്ത": 8781,
      "ുകേഷ് അംബാന": 8782,
      "ം സംബന്ധിച്ച": 8783,
      "ഫോര": 8784,
      "ബത്തിന്": 8785,
      "യൂത്ത് കോണ": 8786,
      "ിക്കട്ട": 8787,
      "ിന്റെ പേര": 8788,
      "ിപ്പിക്കുന്നത്": 8789,
      "തിരഞ്ഞെടുത്ത": 8790,
      "ാവുകയ": 8791,
      "ാടകര": 8792,
      "ം പാർട്ട": 8793,
      "ണമെങ്കിൽ": 8794,
      "ം നടക്കുന്നത": 8795,
      " കേന്ദ്രത്തില": 8796,
      "ാണ് കോട": 8797,
      " നിയമസഭാ തിരഞ്ഞെടുപ്പില": 8798,
      " നേരിട്ട് ": 8799,
      " വേണ്ടിയാണ് ": 8800,
      "കാര്യങ്ങള": 8801,
      "നടപടിയ": 8802,
      "ുന്നതിനിടെയാണ് ": 8803,
      " പിന്നാലെ ": 8804,
      "ഭരണകൂട": 8805,
      "ി എന്നീ": 8806,
      " തടഞ്ഞ": 8807,
      "ചിത്രങ്ങള": 8808,
      "കാനഡ": 8809,
      "റിഞ്ഞത": 8810,
      " മനുഷ്യര": 8811,
      " ഫ്രണ്ട": 8812,
      "രാത്രി ": 8813,
      "ലോക്സഭ": 8814,
      "പ്രവചന": 8815,
      " ലോക്സഭ": 8816,
      "ം...\n": 8817,
      "കൃഷ": 8818,
      "ചെന്ന": 8819,
      "മടഞ്ഞ": 8820,
      "ഷള": 8821,
      "ിശു": 8822,
      "ൈൻ": 8823,
      "ൻപ": 8824,
      "ക്കുകയായിരുന്ന": 8825,
      "ിയുണ്ട": 8826,
      "ി തുടങ്ങിയ": 8827,
      " വാഴ": 8828,
      "പ്പര്യ": 8829,
      "ക്ക് അനുകൂല": 8830,
      "െ കുറ്റ": 8831,
      "െ പാർട്ട": 8832,
      " വരെ സ": 8833,
      "ത്തിനാണ് ": 8834,
      "പ്പെടുത്തുകയ": 8835,
      "ഡിയിൽ": 8836,
      "ുന്നത് എന്ന": 8837,
      " ശ്രമിക്കുന്നത": 8838,
      "റെയിൽ": 8839,
      "സംഘര": 8840,
      " വിഷയങ്ങള": 8841,
      " മണിക്കൂര": 8842,
      " പഞ്ചായത്തില": 8843,
      "ആറ് ": 8844,
      "ക്യൂരിറ്റ": 8845,
      " ഡ്രൈവ": 8846,
      " കക്ഷികള": 8847,
      " ദേവസ്വ": 8848,
      "സ്ഥിതി ": 8849,
      "ഡിജിപ": 8850,
      "െ ആക്രമിച്ച": 8851,
      "്മിനിസ": 8852,
      " /": 8853,
      " ൻ": 8854,
      "എയര": 8855,
      "ഗോവ": 8856,
      "റികള": 8857,
      "ാ ഗാന്ധ": 8858,
      "ന്നുള്ള": 8859,
      "ത്തേര": 8860,
      " റൂട്ട": 8861,
      "ഡ് ട്രംപ": 8862,
      "ജയ് ": 8863,
      "േക്കാണ് ": 8864,
      "വിടെയ": 8865,
      " നിലവിൽ": 8866,
      "രണ്ടാമത്തെ ": 8867,
      " കൂടിയായ": 8868,
      "െടുക്കുന്നത": 8869,
      " രോഗം സ്ഥിര": 8870,
      " വാക്ക്": 8871,
      "് ബാബു": 8872,
      "രേഖപ്പെടുത്തിയത": 8873,
      "ി പരിഗണ": 8874,
      " സാധ്യതയുണ്ടെന്ന്": 8875,
      " ആത്മവിശ്വാസ": 8876,
      " പുറത്തുവിട്ട": 8877,
      "സ്തീന": 8878,
      "ധോണ": 8879,
      "റിനെ ": 8880,
      "ുവിട്ട": 8881,
      "ർ.\n": 8882,
      " കയ്യ": 8883,
      " നാദ": 8884,
      " മടങ്ങിയ": 8885,
      " അംബാന": 8886,
      "ാനായി ": 8887,
      " തേ": 8888,
      " ചാന": 8889,
      "പ്രേക്ഷ": 8890,
      "ിന്റെ പേരില": 8891,
      " രമേശ": 8892,
      " ഗള": 8893,
      "ി പൊലീസ് ": 8894,
      " ഒരു വിഭാഗ": 8895,
      " ഒരുപോല": 8896,
      "ി എംപ": 8897,
      " അറിയിച്ചത": 8898,
      " യോഗത്തിൽ": 8899,
      "േടിയെത്ത": 8900,
      " ചോദ്യങ്ങള": 8901,
      " കലക്ടര": 8902,
      " മൂന്ന് പേര": 8903,
      " ഉണ്ടായിരുന്നത": 8904,
      " രംഗത്തെത്തിയിരുന്ന": 8905,
      " പാഠ": 8906,
      "ഫോണില": 8907,
      " ജാഗ്രത പാല": 8908,
      "അന്താരാഷ്ട്ര": 8909,
      " ഹരിയാന": 8910,
      "ംവകുപ്പ": 8911,
      "തൂക്ക": 8912,
      "ഫ്ല": 8913,
      "ബോസ് ": 8914,
      "ഹർജ": 8915,
      "ോസില": 8916,
      "് ഒരു": 8917,
      "ി കള": 8918,
      " സദ": 8919,
      " ആവർത്ത": 8920,
      " ചീഫ": 8921,
      "പ്രത്യ": 8922,
      " ബാറ്റ": 8923,
      "ിപ്പുറ": 8924,
      " ശേഖ": 8925,
      " ലഹര": 8926,
      " മാള": 8927,
      " ഫെ": 8928,
      " നിധ": 8929,
      "ന്യാ": 8930,
      " പ്രതിദിന": 8931,
      " ഉപാധ": 8932,
      " വിലക്ക്": 8933,
      "മല്ലാത്ത": 8934,
      " കോൺഗ്ര": 8935,
      " മരിച്ചത": 8936,
      " വെള്ളിയാഴ്ച": 8937,
      "ന്നിധാന": 8938,
      "ിയോജക": 8939,
      "ഞ്ഞിരപ്പള്ള": 8940,
      " ദേശ": 8941,
      "e ": 8942,
      "ov": 8943,
      "കരാ": 8944,
      "ജൂലൈ ": 8945,
      "നടിയ": 8946,
      "ബത്തിന്റെ ": 8947,
      "വികാര": 8948,
      " പേട": 8949,
      "ച്ചേര": 8950,
      "ച്ചടക്ക": 8951,
      "ിക്കായി ": 8952,
      " അബ്ദു": 8953,
      "ക്ക് നേര": 8954,
      "വിശ്യ": 8955,
      "വിഷ്ണ": 8956,
      "ടുപുഴ": 8957,
      " ഇങ്ങനെ ": 8958,
      "ോട് പ": 8959,
      "അതാണ് ": 8960,
      "ി കിട്ട": 8961,
      "ചെയ്യുകയ": 8962,
      "ം എത്ത": 8963,
      "്വല": 8964,
      "ിൻസിപ്പ": 8965,
      "ിരിക്കുകയാണെന്ന": 8966,
      "െ മുന്ന": 8967,
      " നിർബന്ധ": 8968,
      "ക്കെതിരെയ": 8969,
      "ം നൽകിയ": 8970,
      "യോ ഗ": 8971,
      "ന്മാരുടെ ": 8972,
      "കൊറോണ വൈറസ് ": 8973,
      "ഇപ്പോഴിതാ": 8974,
      "ശശീന്ദ്ര": 8975,
      "ം പോലീസ് ": 8976,
      "എഴ": 8977,
      "നിൽക്ക": 8978,
      "ലമെന്റ് ": 8979,
      "ളവിൽ": 8980,
      "ു എന്നാണ് ": 8981,
      "ത്തുനിന്ന": 8982,
      "ിയേയ": 8983,
      " സന്ദീപ": 8984,
      " അപ്രതീക്ഷിത": 8985,
      " തിയേറ്റ": 8986,
      "രുമായ": 8987,
      " ബാക്കിയ": 8988,
      " വരെ ക": 8989,
      "ിജ്യ": 8990,
      "വീത": 8991,
      "് സമര": 8992,
      " ഉണ്ടെന്ന": 8993,
      " ഉണ്ടെന്ന്": 8994,
      " അത്ഭുത": 8995,
      "വ് വര": 8996,
      " അറസ്റ്റ": 8997,
      "ൊലപാതക": 8998,
      " വിശദമായ": 8999,
      " പുരുഷൻ": 9000,
      "ഷകരുടെ ": 9001,
      " ജോലി ചെയ്യുന്ന": 9002,
      "േഴ്സ് ": 9003,
      " ഹാജരാക്ക": 9004,
      "പ്രവൃത്ത": 9005,
      "പത്തനംതിട്ട:": 9006,
      " റെക്കോര": 9007,
      " സംവിധായകന": 9008,
      "ഉറവിട": 9009,
      " ശനിയാഴ്ച": 9010,
      "110": 9011,
      "97": 9012,
      "ം?\n": 9013,
      "അഴിമ": 9014,
      "എതി": 9015,
      "ചൗ": 9016,
      "പാർ": 9017,
      "മില്ല": 9018,
      "വേണ്ടത": 9019,
      " പാകിസ്താന": 9020,
      " കൃ": 9021,
      " കൗൺ": 9022,
      "ിക്കാതെ ": 9023,
      "ങ്ങാന": 9024,
      " മീന": 9025,
      "ാണ് ബ": 9026,
      "പ്രൊ": 9027,
      " ഉയ": 9028,
      " ബേബ": 9029,
      "മുരളീധര": 9030,
      "ിയിലൂട": 9031,
      "െ കോവിഡ": 9032,
      "കളിലേക്ക്": 9033,
      " ടീച്ച": 9034,
      "ിക്കുകയോ": 9035,
      " ആരെയ": 9036,
      "ി അര": 9037,
      " ലക്ഷദ്വീപ": 9038,
      "ബുദ്ധിമുട്ട": 9039,
      " അടിച്ച": 9040,
      " പ്രദേശങ്ങള": 9041,
      " തടസ": 9042,
      " ക്യാമറ": 9043,
      "ത്തു നിന്ന": 9044,
      "ി നടത്ത": 9045,
      "ികയായിരുന്ന": 9046,
      " പുനഃ": 9047,
      "െഡിയൂരപ്പ": 9048,
      "യഥാർത്ഥ": 9049,
      "പറേഷന": 9050,
      " സ്വദേശിനി ": 9051,
      "നികുതി ": 9052,
      "ൊണാള": 9053,
      "01": 9054,
      "05": 9055,
      "മീന": 9056,
      "ൾപ്പെടെയുള്ള": 9057,
      "മാതൃക": 9058,
      " സ്ര": 9059,
      "ച്ചിൽ": 9060,
      "ല്ലില": 9061,
      "ികളെയ": 9062,
      " സംഭാഷണ": 9063,
      "എന്നിരുന്നാല": 9064,
      " ദമ്പ": 9065,
      "ാതെ ക": 9066,
      " തിരുമാന": 9067,
      " ഭക്ത": 9068,
      "ി സെ": 9069,
      "ം തട": 9070,
      "....": 9071,
      "ട്രേറ്റ": 9072,
      " വോട്ടുകൾ": 9073,
      " സഹകര": 9074,
      "ഗോപാൽ": 9075,
      " മാധ്യമപ്രവര": 9076,
      " സംസാരിച്ച": 9077,
      "ം മാത്രമാണ് ": 9078,
      " അഭിമുഖത്തില": 9079,
      " വഹിച്ച": 9080,
      "ഫേസ്ബുക്ക് കുറിപ്പ": 9081,
      " അർഹ": 9082,
      "മാതാപിതാക്കള": 9083,
      "87": 9084,
      "എത്തിയത": 9085,
      "ജോസ് ": 9086,
      "ടിച്ചത": 9087,
      "രഹിത": 9088,
      "ി‌": 9089,
      "ി പറ": 9090,
      "് ഗ": 9091,
      " പങ്ക്": 9092,
      "ിയിട": 9093,
      " കരാറ": 9094,
      "ച്ചന": 9095,
      " ശരിക്ക": 9096,
      " ഹരി": 9097,
      "ഗ്രസ് അധ്യക്ഷ": 9098,
      "ാണ് കണ്ട": 9099,
      " കേസുകളില": 9100,
      " കൊണ്ടുവന്ന": 9101,
      " സാധ്യത.\n": 9102,
      " പരാതി": 9103,
      "നേരത്തെ ക": 9104,
      "ഹരിയാന": 9105,
      "ിച്ച് കഴിഞ്ഞ": 9106,
      " ഇല്ലെന്ന": 9107,
      "കർണാടക": 9108,
      "മാസം ": 9109,
      "കേസിൽ": 9110,
      "ക്സിക്യൂട്ട": 9111,
      " അനുമതിയ": 9112,
      "ിക്കുക എന്ന": 9113,
      " മുന്നറിയിപ്പ് നല": 9114,
      "വിഷയത്തില": 9115,
      "മ്മു കശ്മീര": 9116,
      " റദ്ദാക്ക": 9117,
      "ി ആക്രമിക്കപ്പെട്ട": 9118,
      "800": 9119,
      "96": 9120,
      "ഇല്ലാത": 9121,
      "ണം ": 9122,
      "യുക": 9123,
      "ഷൂട്ട": 9124,
      "ു പോക": 9125,
      "ോ-": 9126,
      " കുര": 9127,
      " മിക": 9128,
      " തയാറ": 9129,
      "വിഭജന": 9130,
      "രുമെന്ന്": 9131,
      " വിദ്വേഷ": 9132,
      " യോജ": 9133,
      "ചെയ്യാ": 9134,
      "ത്തിന് കാരണ": 9135,
      "ി എന": 9136,
      "ി എടുത്ത": 9137,
      "മിഥുന": 9138,
      " വകുപ്പ് അറിയിച്ച": 9139,
      " രാഷ്ട്രീയത്തില": 9140,
      " പ്രശാന്ത്": 9141,
      "സെപ്റ്റ": 9142,
      " സ്വാഗത": 9143,
      " വീടുകള": 9144,
      " കോടി രൂപയ": 9145,
      "മാതാക്കള": 9146,
      "ഗളൂര": 9147,
      "ഹൗസില": 9148,
      "സൗദി അറേബ്യ": 9149,
      "ധിക്ഷേപ": 9150,
      "ാഫ്രിക്ക": 9151,
      " പ്രാഥമിക": 9152,
      "അപ്പ": 9153,
      "ഈ മാസം ": 9154,
      "ടെല": 9155,
      "യൂത്ത്": 9156,
      "രക്ത": 9157,
      "സന്ദര": 9158,
      "ി),": 9159,
      "ി പോയ": 9160,
      "ക്കത്തിലൂടെ ": 9161,
      " പാക": 9162,
      "ിയ്": 9163,
      "ി മുഖ്യമന്ത്ര": 9164,
      "ി ക്കു": 9165,
      "ങ്മൂല": 9166,
      "ുകര": 9167,
      "സ്മയ": 9168,
      "വിപ്പ": 9169,
      "പ്രകാശ": 9170,
      "ക്കാരുകള": 9171,
      "ം നിയന്ത്ര": 9172,
      " തിരിച്ചു": 9173,
      " തിരിച്ചുവര": 9174,
      "ിറ്റൽ": 9175,
      "ശോധിച്ചത": 9176,
      "ാബിന": 9177,
      "ഭിണ": 9178,
      "ഇന്ത്യയ": 9179,
      "ണക്കെട്ട": 9180,
      "ദ്ദേശം നല": 9181,
      " സർക്കാരിന്": 9182,
      "ിന് ശേഷമാണ് ": 9183,
      "പ്ലാന": 9184,
      " നഷ്ടപരിഹാര": 9185,
      "സിന്ധ്യ": 9186,
      "ം അറിയിച്ചത": 9187,
      "മണ്ഡലത്തില": 9188,
      " പതാക": 9189,
      "ിദംബര": 9190,
      "ി കൊടുക്ക": 9191,
      " അഭിനന്ദ": 9192,
      "ഐട": 9193,
      "കി ": 9194,
      "ജയിലില": 9195,
      "തയുണ്ട": 9196,
      "ാശ്ശേര": 9197,
      "ൊസൈറ്റ": 9198,
      "ന്ദേ": 9199,
      "പ്ഷന": 9200,
      " നിവാരണ": 9201,
      "ിക്കരുത": 9202,
      " മുകളിൽ": 9203,
      " ആൾ": 9204,
      "ത്തിലേറെ ": 9205,
      "ുന്നതാണ് ": 9206,
      "കരന": 9207,
      "ിവ്യ": 9208,
      " ഒരുക്കിയ": 9209,
      "തുല": 9210,
      " നേരത്തേ": 9211,
      "ുകളുടെ എണ്ണ": 9212,
      "ം നൽകുന്ന": 9213,
      "ൊലിസ് ": 9214,
      "ീഡന": 9215,
      " ശക്തമായ കാറ്റ": 9216,
      "ജ്ഞാപ": 9217,
      "ാവശ്യമായ": 9218,
      " പ്രശ്നങ്ങൾ": 9219,
      "വളരെ ": 9220,
      "െ കൊല്ല": 9221,
      " ശുച": 9222,
      " നാളെ ": 9223,
      " മാലിന്യ": 9224,
      "ഞ്ചിനീയറ": 9225,
      "അതിര": 9226,
      "കത്ത": 9227,
      "ഫാ": 9228,
      "ൃദ്ധ": 9229,
      "ത്തുന": 9230,
      "്യവ": 9231,
      "ിക്കേഷന": 9232,
      "ം ബിജെപ": 9233,
      "ം ശക്തമായ": 9234,
      "ം തീര": 9235,
      "വരാണ് ": 9236,
      "രാവസ്ഥ": 9237,
      "ക്ഷത്ര": 9238,
      " വിപുല": 9239,
      " സ്കൂള": 9240,
      "തിരിച്ചു": 9241,
      "ുവഴ": 9242,
      "ുവച്ച": 9243,
      "റിയാസ് ": 9244,
      "സിക്ക്": 9245,
      "ങ്ങൾ\n": 9246,
      " ഗ്ല": 9247,
      "േണ്ടി വന്നത": 9248,
      " സാധനങ്ങള": 9249,
      "സിലര": 9250,
      "നിരപ്പ് ": 9251,
      "ം മണ": 9252,
      "ിരുദ": 9253,
[...]
