[UNK]	0
[CLS]	1
[SEP]	2
[PAD]	3
[MASK]	4
!	5
"	6
#	7
$	8
%	9
&	10
'	11
(	12
)	13
*	14
+	15
,	16
-	17
.	18
/	19
0	20
1	21
2	22
3	23
4	24
5	25
6	26
7	27
8	28
9	29
:	30
;	31
<	32
=	33
>	34
?	35
@	36
[	37
\	38
]	39
_	40
`	41
a	42
b	43
c	44
d	45
e	46
f	47
g	48
h	49
i	50
j	51
k	52
l	53
m	54
n	55
o	56
p	57
q	58
r	59
s	60
t	61
u	62
v	63
w	64
x	65
y	66
z	67
{	68
}	69
	70
£	71
¥	72
°	73
·	74
×	75
â	76
ñ	77
ڇ	78
ڈ	79
ډ	80
ं	81
अ	82
आ	83
इ	84
ए	85
औ	86
क	87
ग	88
च	89
ज	90
ट	91
ठ	92
ण	93
त	94
थ	95
द	96
ध	97
न	98
प	99
ब	100
भ	101
म	102
य	103
र	104
ल	105
व	106
श	107
ष	108
स	109
ह	110
ा	111
ि	112
ी	113
े	114
ो	115
ौ	116
्	117
।	118
ং	119
ব	120
ল	121
া	122
அ	123
ஆ	124
க	125
ச	126
ட	127
ண	128
த	129
ன	130
ப	131
ம	132
ய	133
ல	134
வ	135
ி	136
ீ	137
ு	138
ெ	139
ை	140
்	141
ം	142
ഃ	143
അ	144
ആ	145
ഇ	146
ഈ	147
ഉ	148
ഊ	149
ഋ	150
ഌ	151
എ	152
ഏ	153
ഐ	154
ഒ	155
ഓ	156
ഔ	157
ക	158
ഖ	159
ഗ	160
ഘ	161
ങ	162
ച	163
ഛ	164
ജ	165
ഝ	166
ഞ	167
ട	168
ഠ	169
ഡ	170
ഢ	171
ണ	172
ത	173
ഥ	174
ദ	175
ധ	176
ന	177
പ	178
ഫ	179
ബ	180
ഭ	181
മ	182
യ	183
ര	184
റ	185
ല	186
ള	187
ഴ	188
വ	189
ശ	190
ഷ	191
സ	192
ഹ	193
ാ	194
ി	195
ീ	196
ു	197
ൂ	198
ൃ	199
െ	200
േ	201
ൈ	202
ൊ	203
ോ	204
ൌ	205
്	206
ൗ	207
ൡ	208
൦	209
൪	210
൯	211
ൺ	212
ൻ	213
ർ	214
ൽ	215
ൾ	216
ൿ	217
‌	218
‍	219
‐	220
‟	221
•	222
′	223
⁄	224
€	225
₹	226
⃣	227
∙	228
▪	229
◼	230
◾	231
♀	232
♥	233
✌	234
✨	235
❓	236
❤	237
➡	238
⬛	239
ブ	240
ム	241
ラ	242
ル	243
ー	244
南	245
容	246
湘	247
美	248
	249
︎	250
️	251
🌹	252
🎖	253
🏻	254
🐟	255
👇	256
👉	257
👌	258
👏	259
💎	260
💚	261
🔘	262
🔥	263
🔸	264
🖤	265
🗃	266
😄	267
😍	268
😘	269
🙄	270
🙏	271
🚩	272
🤔	273
🤝	274
🤣	275
🤦	276
🥛	277
🥦	278
##ൂ	279
##ര	280
##ി	281
##പ	282
##ക	283
##്	284
##ഷ	285
##മ	286
##ു	287
##ണ	288
##ട	289
##വ	290
##ർ	291
##ത	292
##േ	293
##െ	294
##ന	295
##ം	296
##ാ	297
##‌	298
##സ	299
##ള	300
##‍	301
##അ	302
##ല	303
##ങ	304
##ൽ	305
##ഞ	306
##റ	307
##യ	308
##ച	309
##ോ	310
##ൊ	311
##ഴ	312
##ീ	313
##ഗ	314
##ഡ	315
##ൾ	316
##ഭ	317
##ദ	318
##ഥ	319
##ധ	320
##ജ	321
##ഹ	322
##ശ	323
##0	324
##1	325
##7	326
##6	327
##ൻ	328
##ൃ	329
##ബ	330
##എ	331
##ഫ	332
##ഘ	333
##ഖ	334
##ൈ	335
##ൗ	336
##8	337
##9	338
##2	339
##ആ	340
##3	341
##ഠ	342
##ൺ	343
##5	344
##ഐ	345
##4	346
##l	347
##u	348
##n	349
##d	350
##e	351
##r	352
##.	353
##i	354
##c	355
##k	356
##t	357
##ൌ	358
##w	359
##b	360
##o	361
##'	362
##-	363
##a	364
##s	365
##ഇ	366
##ഉ	367
##ഓ	368
##ഛ	369
##x	370
##ഢ	371
##ഃ	372
##y	373
##g	374
##ഝ	375
##ഏ	376
##p	377
##m	378
##j	379
##ഒ	380
##h	381
##ौ	382
##र	383
##;	384
##!	385
##"	386
##,	387
##?	388
##ൡ	389
##f	390
##v	391
##ഈ	392
##൦	393
##′	394
##ഊ	395
##_	396
##൯	397
##👌	398
##ñ	399
##z	400
##൪	401
##े	402
##ー	403
##ム	404
##ブ	405
##ラ	406
##ډ	407
###	408
##া	409
##ং	410
##ল	411
##ि	412
##क	413
##्	414
##ष	415
##ा	416
##:	417
##)	418
##ڈ	419
##ह	420
##त	421
##द	422
##न	423
##व	424
##स	425
##थ	426
##य	427
##q	428
##👏	429
##ഌ	430
##♥	431
##ग	432
##ठ	433
##ब	434
##ं	435
##ध	436
##\	437
##ഔ	438
##/	439
##ഋ	440
##ൿ	441
##ल	442
##🏻	443
##南	444
##美	445
##容	446
##ए	447
##>	448
##[	449
##$	450
##ज	451
##*	452
##£	453
##‐	454
##🐟	455
##🤝	456
##â	457
##ो	458
##श	459
##ம	460
##்	461
##	462
##ெ	463
##ய	464
##ப	465
##ட	466
##️	467
##⃣	468
##ी	469
##(	470
##म	471
##भ	472
##✨	473
##😍	474
##इ	475
##ण	476
##❤	477
##=	478
##&	479
##⬛	480
##ண	481
##ி	482
##ன	483
##அ	484
##த	485
##க	486
##😘	487
##प	488
##💎	489
##ு	490
##வ	491
##ீ	492
##ை	493
##]	494
##+	495
##ट	496
##·	497
##@	498
##🌹	499
##ന്	500
##ക്	501
##ത്	502
##്‍	503
##ന്ന	504
##ക്ക	505
##ില	506
##്ട	507
##ത്ത	508
##ും	509
##ിയ	510
##്ര	511
##ര്‍	512
##്യ	513
##ച്	514
##്പ	515
##ുന്ന	516
##ായ	517
##ാണ	518
##ട്ട	519
##ങ്	520
##ിക്ക	521
##പ്പ	522
##ിര	523
##റ്	524
##സ്	525
##ാണ്	526
##ച്ച	527
##ില്‍	528
##ണ്ട	529
##ങ്ങ	530
##ിന്	531
##്ല	532
##ുക	533
##ിച്ച	534
##ാന	535
##ടെ	536
പ്ര	537
##ന്‍	538
##ിക	539
##റ്റ	540
##ള്‍	541
##ുമ	542
##ാര	543
##ിന	544
##ഞ്	545
##ല്‍	546
##ിൽ	547
##ുന്നു	548
##ക്ക്	549
വി	550
##െയ	551
##ത്ര	552
##്ള	553
##ള്ള	554
##ായി	555
##ടു	556
##ുടെ	557
സ്	558
##ന്ന്	559
##റെ	560
##ഞ്ഞ	561
##െന്ന	562
##ക്ഷ	563
##ുള്ള	564
എന്ന	565
##ില്ല	566
##രു	567
##തി	568
##ിരുന്നു	569
കോ	570
##ദ്	571
##ങ്ങള	572
##ാക്ക	573
##രി	574
സം	575
##ണ്ട്	576
##വി	577
##ല്ല	578
##പ്പെ	579
##ാല	580
##ദേ	581
നി	582
##ിന്റെ	583
##ാര്‍	584
##ുന്നത്	585
##ുവ	586
പറ	587
##ാവ	588
##ിലെ	589
മു	590
നട	591
മാ	592
##ിവ	593
നേ	594
##ാന്‍	595
കേ	596
ചെയ	597
##്മ	598
##ുറ	599
##ങ്ക	600
രാ	601
പി	602
##ണം	603
##െന്ന്	604
പോ	605
##ോഗ	606
##ുകയ	607
##ത്ത്	608
##ിട്ട	609
##കര	610
കൊ	611
##ിപ്പ	612
##േഷ	613
##ച്ച്	614
##െന്നും	615
##ന്ത്ര	616
##മ്മ	617
##സ്ഥ	618
##ായിരുന്നു	619
##ത്തിയ	620
സ്വ	621
##ട്	622
##ങ്ങള്‍	623
അത	624
##ത്തില്‍	625
##ടി	626
##്യമ	627
##്യാ	628
##ണ്	629
##ദേശ	630
##ംഗ	631
##ത്യ	632
സാ	633
##ുട	634
##ത്തെ	635
##ന്ത	636
##റ്റ്	637
തിര	638
##തിയ	639
##െടു	640
##ന്ദ	641
##ണ്‍	642
ഒരു	643
##ാർ	644
##ഡ്	645
##വര	646
##ുകള	647
##ിച്ചു	648
സമ	649
##സി	650
##ിലും	651
##ുന്നത	652
പറഞ്ഞ	653
##തമ	654
##റിയ	655
ഇത	656
##രാ	657
കൂ	658
##പി	659
##ുണ്ട്	660
പേ	661
##ിരിക്ക	662
##യം	663
##ഗ്ര	664
##വര്‍	665
ബി	666
സി	667
##ട്ട്	668
##യും	669
##വും	670
##ാം	671
##ികള	672
##ിനെ	673
സ്ഥ	674
##വാ	675
##ാൻ	676
##ന്ധ	677
##ാല്‍	678
##യ്	679
##ാക	680
##യില്‍	681
##ുപ	682
##്യം	683
##മ്പ	684
##സ്ഥാന	685
##ിലേ	686
##ുണ്ട	687
##ഴി	688
##ന്ദ്ര	689
##ങ്ങൾ	690
##ുര	691
ചെയ്	692
വീ	693
##തിര	694
##ശ്	695
##മായ	696
വര	697
പരി	698
##നം	699
##ര്‍ക്ക	700
ആര	701
##ത്തി	702
##മാണ്	703
##ാത	704
തുട	705
നേത	706
##ദ്ധ	707
##ന്ത്രി	708
##പ്പെട്ട	709
അവ	710
##ത്തിന്	711
##ഴ്	712
രാജ	713
##ടിയ	714
തന്ന	715
##പ്പോ	716
കാര	717
##ത്തിൽ	718
##ീകര	719
##ിച്ച്	720
##മായി	721
വാ	722
##േണ്ട	723
##തു	724
പറഞ്ഞു	725
വെ	726
##ിച്ചത്	727
വ്യ	728
##നി	729
##ദേഹ	730
##ട്ടി	731
പറയ	732
##ലീ	733
കു	734
##ാമ	735
##ുകള്‍	736
##െങ്ക	737
##ാഗ	738
##റി	739
##ഷ്ട	740
പു	741
ചെയ്യ	742
##ണമ	743
അന	744
##ുമായി	745
##ിയുടെ	746
##ോടെ	747
##യുടെ	748
കെ	749
##ടുത്ത	750
##ക്ര	751
##ിനി	752
##ദ്ദേഹ	753
നിയ	754
നിന്ന	755
##ക്തമ	756
##ദ്യ	757
##ർക്ക	758
##പ്പ്	759
##ല്‍ക	760
##സം	761
##ഫ്	762
സംസ്ഥാന	763
ജില്ല	764
##രള	765
നല്‍ക	766
##ൂര്‍	767
##ിലേക്ക്	768
##രിക്ക	769
നില	770
##ത്തില	771
അദ്ദേഹ	772
##ത്തിന്റെ	773
തന്നെ	774
എം	775
##ഞ്ഞെടു	776
##കള	777
##ജെ	778
##ോട്ട	779
##ാള	780
കോണ്‍	781
##ഡി	782
##പ്ര	783
ഇന്	784
##ിന്ന്	785
##ീയ	786
##ോട്	787
20	788
##െന്നാണ്	789
##ഴിഞ്ഞ	790
കുറ	791
പൊ	792
##ോധ	793
##സ്റ്റ	794
##സമ	795
കോണ്‍ഗ്ര	796
##ോദ	797
ജന	798
പ്രതി	799
##വ്	800
##ഞ്ച	801
##ണ്ണ	802
നിന്ന്	803
##ാധ	804
##ത്സ	805
ഉണ്ട	806
കേരള	807
##യാണ്	808
ശ്ര	809
സാധ	810
##ികള്‍	811
തീ	812
ഇന്ത്യ	813
ബിജെ	814
രൂ	815
##ിട്ടുണ്ട്	816
പ്രത	817
ലഭ	818
##ന്റെ	819
##ാനം	820
ജോ	821
##ക്കും	822
##ിക്കുന്ന	823
##വർ	824
യു	825
കഴിഞ്ഞ	826
##ുകയാണ്	827
##െയും	828
അറിയ	829
സെ	830
പുറ	831
##ാട	832
##വശ	833
##ാത്ത	834
##യിൽ	835
##ജ്	836
##ാൽ	837
കേന്ദ്ര	838
അധ	839
നിയമ	840
##ലിയ	841
നിര	842
മുഖ	843
##ാറ	844
പേര	845
##ുമ്പ	846
അതേ	847
##പ്	848
##രണ	849
##കു	850
##ലി	851
##ത്ഥ	852
മൂ	853
രൂപ	854
മാത്ര	855
##നാ	856
##േഖ	857
സീ	858
##ജി	859
##കാര	860
ആവശ	861
##ുകയും	862
##ഷ്	863
തിരഞ്ഞെടു	864
ഇട	865
തെ	866
##നെ	867
പിന്ന	868
##രുമ	869
##ാക്കിയ	870
##്യാപ	871
ചെയ്ത	872
ദിവ	873
കണ്ട	874
##ുകൾ	875
##ഭവ	876
##തിരെ	877
എല്ല	878
##സമയം	879
ഡി	880
##00	881
വിജ	882
സംഘ	883
##വിഡ്	884
അദ്ദേഹം	885
##പ്പെട	886
##ിപ്പോ	887
##രം	888
##റ്റി	889
ആശ	890
വ്യക്തമ	891
സ്വദേശ	892
അതേസമയം	893
##ിന്‍	894
രോഗ	895
##ിക്കും	896
മുന്ന	897
##ിരുന്ന	898
##ീക്ഷ	899
എന്നാല്‍	900
വേ	901
##ിയില്‍	902
നിര്‍	903
##മി	904
##ലീസ്	905
##സഭ	906
##െയാണ്	907
##ത്വ	908
##ോള	909
വന്ന	910
##രെ	911
കേസ	912
വൈ	913
സര്‍ക്ക	914
##ക്കാര	915
##യിലെ	916
##ാക്കി	917
ലോ	918
##വേ	919
##ക്കെ	920
ഉപ	921
##്യൂ	922
##യില	923
##ോപ	924
##സ്‌	925
##ന്റ	926
##ത്തിന	927
അഭ	928
##ണി	929
എന്ന്	930
##വര്‍ത്ത	931
##ാസ	932
##ിയും	933
ആയ	934
മുഖ്യമ	935
##ടക്ക	936
##ൊരു	937
നടത്ത	938
##മേ	939
റിപ്പോ	940
രാജ്യ	941
ഇത്	942
##ധാന	943
##മു	944
വലിയ	945
##ിക്കുന്നത്	946
സു	947
##ന്റ്	948
##ക്‌	949
##ഷ്ട്ര	950
ലക്ഷ	951
എന്നിവ	952
ശേഷ	953
##ങ്ങിയ	954
പെ	955
നീ	956
കാണ	957
ബന്ധ	958
പാര്‍	959
സഹ	960
##ഗ്	961
##ൂർ	962
##ൽക	963
പരാ	964
##യ്ക്ക്	965
വര്‍	966
##െങ്കിലും	967
##ിയെ	968
##ോട	969
ഏറ്റ	970
##ാതെ	971
##ൂര	972
##ാപ	973
നൽക	974
##തല്‍	975
##ഷ്യ	976
##ബ്	977
##ഴ്ച	978
ഇപ്പോ	979
##ീവ	980
പരിശ	981
##ികൾ	982
##ങ്ങളുടെ	983
മന്ത്രി	984
##ിച്ചത	985
##വേഷ	986
..	987
##ത്തു	988
മത്സ	989
സംഭവ	990
##ഡിയ	991
വില	992
##്യത	993
##ക്ട	994
വിമ	995
കോണ്‍ഗ്രസ്	996
നിന്നും	997
##സ്റ്റ്	998
##ാട്	999
##ങ്ങളും	1000
##ങ്ങളില്‍	1001
ബിജെപി	1002
അപ	1003
നടത്തിയ	1004
##ത്തിലെ	1005
##ിക്കുന്നു	1006
ക്	1007
സ്ഥാന	1008
##യെ	1009
അന്	1010
##ിക്കാന	1011
കൂടു	1012
##ിക്കുന്നത	1013
ഉയ	1014
##ലം	1015
##കള്‍	1016
##ിരിക്കുന്നത്	1017
കോട	1018
##ൂടെ	1019
പ്രവര്‍ത്ത	1020
##പുര	1021
പോല	1022
##ഡിഎ	1023
എസ്	1024
##പ്പെടു	1025
##ിക്കാന്‍	1026
വിജയ	1027
##ധി	1028
##ക്രമ	1029
ചേ	1030
സുര	1031
##മാര	1032
തീരുമ	1033
മന	1034
തിരുവ	1035
##ിട	1036
##ടുക്ക	1037
##ിത	1038
അത്	1039
കഴ	1040
##ുകൊ	1041
പ്രധാന	1042
പങ്ക	1043
പര	1044
##യ്ക്ക	1045
കാല	1046
##ണ്ഡ	1047
ഇത്ത	1048
കാര്യ	1049
ആവശ്യ	1050
##ംഗ്	1051
ചെ	1052
##വിടെ	1053
##ുള	1054
##ര്‍ന്ന	1055
പരിശോധ	1056
നേര	1057
##ാവ്	1058
##ുമ്പോ	1059
നേതാക്ക	1060
),	1061
ഭാഗ	1062
മെ	1063
##ുകയായിരുന്നു	1064
ചി	1065
കോൺ	1066
ഗ്ര	1067
##ാശ	1068
##പക്ഷ	1069
പറയുന്നു	1070
സർക്ക	1071
കൈ	1072
രണ്ട്	1073
വേണ്ട	1074
##ിലാണ്	1075
##ോണ	1076
പേര്‍	1077
നടപ	1078
##ഷേ	1079
പല	1080
രണ്ട	1081
##ിച്ചിരുന്നു	1082
ഇന്ന്	1083
പുതിയ	1084
നേതൃ	1085
അന്വേഷ	1086
മോ	1087
ചോദ	1088
രാഷ്ട്ര	1089
തോ	1090
മല	1091
ട്ര	1092
##സ്ത	1093
##ബന്ധ	1094
##ചര	1095
##ുമെന്ന്	1096
##ുംബ	1097
##വരുടെ	1098
##ാണെന്ന്	1099
##ുള്ളത്	1100
കാ	1101
യാ	1102
##ുപത്ര	1103
നിർ	1104
എന്നാണ്	1105
##ന്തപുര	1106
##ളി	1107
ആശുപത്ര	1108
സ്ഥിര	1109
ചില	1110
മറ്റ	1111
ശ്രമ	1112
കോൺഗ്ര	1113
നേതൃത്വ	1114
പോലീസ്	1115
##ൈന	1116
പാല	1117
കട	1118
തിരുവന	1119
മുഖ്യമന്ത്രി	1120
നല്‍കിയ	1121
##ര്‍ച്ച	1122
##വണ	1123
ക്ര	1124
അധിക	1125
ജെ	1126
##ഭാഗ	1127
തിരുവനന്തപുര	1128
##യോഗ	1129
യോഗ	1130
കുട	1131
അവസ	1132
##േയും	1133
മര	1134
സാഹ	1135
##േറ്റ	1136
##ീസ	1137
കൊണ്ട	1138
##വർത്ത	1139
ശേഷം	1140
മാറ്റ	1141
എന്ത	1142
തൊ	1143
നടന്ന	1144
##മെ	1145
##ോട്ട്	1146
വർ	1147
##പ്പം	1148
ദേ	1149
##ീപ	1150
##സ്സ	1151
##ിരു	1152
ആണ്	1153
ന്	1154
പാർ	1155
ഒന്ന	1156
സൗ	1157
നടക്ക	1158
സ്‌	1159
ഉറ	1160
##പ്പെടുത്ത	1161
സൂ	1162
കണ്ണ	1163
മറ	1164
ഏറ്റവും	1165
സീറ്റ	1166
അംഗ	1167
##ട്ടിയ	1168
തിരഞ്ഞെടുപ്പ	1169
പ്രഖ	1170
കോണ്‍ഗ്രസ	1171
എല്ലാ	1172
##ര്‍ശ	1173
##ങ്ങളെ	1174
മേ	1175
##ുമായ	1176
##ക്ത	1177
വയ	1178
പ്രതിക	1179
##േഖല	1180
ആരോപ	1181
##ഹു	1182
##ക്ഷേ	1183
വിവര	1184
##ദ്യോഗ	1185
##താണ്	1186
മണ	1187
വരെ	1188
വള	1189
വോട്ട	1190
മണ്ഡ	1191
പോക	1192
കമ്മ	1193
എത്ത	1194
##വിധ	1195
സാഹചര	1196
##വാദ	1197
അഭി	1198
##ാരണ	1199
തൃ	1200
##എം	1201
അറ	1202
##ാദ	1203
റിപ്പോര്‍	1204
ഉത്ത	1205
##ീഷ	1206
##ീസ്	1207
##യാള	1208
##ാര്‍ത്ഥ	1209
##രും	1210
സര്‍ക്കാര്‍	1211
സ്റ്റ	1212
##ാസ്	1213
ചെയ്തു	1214
പ്രഖ്യാപ	1215
##ുമാണ്	1216
സ്വദേശി	1217
ആരോഗ	1218
##കട	1219
##ാണെന്നും	1220
കൊവിഡ്	1221
##ിരിക്കുകയാണ്	1222
##മുള്ള	1223
ഗു	1224
ശതമ	1225
സിപി	1226
ദിവസ	1227
##ംബ	1228
ബാ	1229
വകു	1230
##ത്തേ	1231
കണ്ടെ	1232
ടി	1233
##ഷം	1234
##തൽ	1235
##ബി	1236
##േന്ദ്ര	1237
19	1238
ദിവസം	1239
രംഗ	1240
പദ്ധ	1241
ബാധ	1242
രാഷ്ട്രീയ	1243
എന്നും	1244
201	1245
ബിജെപ	1246
ഡോ	1247
ചിത്ര	1248
##ദ്ദേശ	1249
തിരുവനന്തപുരം	1250
കോവിഡ്	1251
##േക്ഷ	1252
ആദ	1253
നേരത്തെ	1254
സാധ്യത	1255
##െടുക്ക	1256
നിലവ	1257
രാഹു	1258
##എസ്	1259
എന്നാൽ	1260
##ുമെന്നും	1261
##ിട്ടില്ല	1262
വീട്ട	1263
നേരി	1264
മേഖല	1265
##ാനുള്ള	1266
##തല	1267
തല	1268
സ്ഥിരീകര	1269
##മാ	1270
##ങ്ങനെ	1271
അനു	1272
##രിയ	1273
##സിന	1274
ശക്തമ	1275
##ങ്ങളിൽ	1276
##ാരം	1277
സമ്പ	1278
##കൾ	1279
##ുകളും	1280
തീരുമാന	1281
പോയ	1282
##ത്തിലാണ്	1283
തിരിച്ച	1284
##ഞ്ച്	1285
പിന്	1286
##ികളുടെ	1287
##ാനും	1288
##െയ്	1289
പിട	1290
ബോ	1291
പ്രവർത്ത	1292
ജില്ലാ	1293
##െങ്കില്‍	1294
റോ	1295
##ാട്ട	1296
കള	1297
##ിലൂടെ	1298
പ്രസി	1299
##ിക്കാൻ	1300
##െടുത്ത	1301
ഓഫ	1302
##ണക്ക	1303
##ുക്ക	1304
വിഷ	1305
എത്തിയ	1306
കൂട്ട	1307
യുവ	1308
##ർന്ന	1309
##േഷ്	1310
കുടുംബ	1311
ഒഴ	1312
##ിച്ചിട്ടുണ്ട്	1313
##നും	1314
10	1315
വിദ	1316
##ായിരുന്ന	1317
വിഭാഗ	1318
ജീവ	1319
സമ്മ	1320
നാല	1321
മുന്‍	1322
##യുള്ള	1323
തയ	1324
നോ	1325
##കര്‍	1326
##ഷേധ	1327
##ല്ലാം	1328
##ട്ര	1329
ആള	1330
ഹൈ	1331
##വരെ	1332
##ികളെ	1333
##വാസ	1334
പ്രശ്	1335
ആരോഗ്യ	1336
##രണം	1337
##തിന	1338
##പ്പെടുത്തിയ	1339
##ാഴ്ച	1340
പ്രത്യ	1341
##ൊപ്പം	1342
ഇല്ല	1343
മണ്ഡല	1344
വിള	1345
##രുത	1346
യാത്ര	1347
##സഭാ	1348
കി	1349
അതി	1350
##ങ്ങള്‍ക്ക്	1351
##ിനിടെ	1352
##ലെ	1353
കഴിയ	1354
അയ	1355
##ൂല	1356
ഇറ	1357
പഞ്ച	1358
സ്വീകര	1359
##ാകും	1360
##ഹി	1361
മൂന്ന്	1362
##ക്രട്ട	1363
##ുഴ	1364
മീ	1365
##ുന്നുണ്ട്	1366
##മന്ത്രി	1367
ഉള്ള	1368
##ദ്ദ	1369
കൂടുതല്‍	1370
വിശ	1371
##ാന്ധ	1372
...	1373
ഉപയോഗ	1374
##ിയിൽ	1375
##കം	1376
എന്‍	1377
സംഘട	1378
##ൃത	1379
ഉദ്യോഗ	1380
##ാള്‍	1381
പ്രസിഡ	1382
സെക്രട്ട	1383
##ൂറ	1384
##ൊന്ന	1385
##ുകളില്‍	1386
##പെ	1387
##ർച്ച	1388
ഭൂ	1389
സ്ഥാപ	1390
തുടങ്ങിയ	1391
##ണമെന്ന്	1392
തയ്യാ	1393
രോഗം	1394
##ംഭ	1395
##‌ന	1396
അട	1397
സിനി	1398
##ിനെതിരെ	1399
##ീവി	1400
##മുണ്ട	1401
##ര്‍ന്ന്	1402
നീക്ക	1403
##ങ്ങി	1404
##കെ	1405
പിന്നാല	1406
താ	1407
ആല	1408
##േക്ക	1409
തൊഴ	1410
##കൂ	1411
##പര	1412
##ിനും	1413
തിരഞ്ഞെടുപ്പ്	1414
##ായത്	1415
കൃ	1416
അറിയിച്ചു	1417
##ലീസ	1418
##്യക്ഷ	1419
മോദ	1420
##ചന	1421
ഉള്‍	1422
ഭരണ	1423
ഗാന്ധ	1424
തട	1425
സര്‍	1426
കൂടി	1427
##ത്തും	1428
വ്യക്തമാക്കി	1429
പ്രച	1430
202	1431
മാധ	1432
##നിക്ക്	1433
##ൂഹ	1434
##ഴിക്ക	1435
ചിക	1436
##ന്തര	1437
പറയുന്നത്	1438
##തുണ	1439
മഹ	1440
##ിയാണ്	1441
ഇവിടെ	1442
ജയ	1443
സാഹചര്യ	1444
കൊല്ല	1445
##ിലുള്ള	1446
സർക്കാർ	1447
##ഴ്‌	1448
കൂട	1449
ആര്‍	1450
മി	1451
പരിശോധന	1452
##ർശ	1453
##േരി	1454
##ൊക്കെ	1455
സഹായ	1456
ആദ്യ	1457
സോ	1458
ആക്രമ	1459
##ുപോ	1460
എല്‍	1461
സര്‍ക്കാര	1462
##ായിരിക്ക	1463
##പ്പോള്‍	1464
പ്രതിപക്ഷ	1465
അടി	1466
അവര്‍	1467
പോലും	1468
##രിച്ച്	1469
പിന്തുണ	1470
##തിട്ട	1471
##ഞ്ഞ്	1472
ഇന്ന	1473
കോള	1474
സ്ത്ര	1475
പൊലീസ്	1476
##തോടെ	1477
ടെ	1478
തയ്യാറ	1479
##ശ്ച	1480
സമയ	1481
സാമ്പ	1482
##സ്പ	1483
മൊ	1484
##ിത്സ	1485
നമ്മ	1486
##ുത	1487
##ര്‍ത്ത	1488
പ്രതിഷേധ	1489
യുഡിഎ	1490
12	1491
ചര്‍ച്ച	1492
##തിയില്‍	1493
റിപ്പോർ	1494
ചികിത്സ	1495
ദു	1496
ആവശ്യപ്പെട്ട	1497
പ്രത്യേ	1498
##ഗണ	1499
സംബന്ധ	1500
11	1501
##ക്തി	1502
##വാഹ	1503
മാധ്യമ	1504
##ുമെന്നാണ്	1505
കോഴിക്ക	1506
##വുമായി	1507
കോൺഗ്രസ്	1508
കുമ	1509
##സാര	1510
ഇപ്പോള്‍	1511
ഇതുവ	1512
ഭാര	1513
കോടി	1514
##േഷന്‍	1515
15	1516
കുറ്റ	1517
##ീവിത	1518
##ിയിലെ	1519
നിലപ	1520
##ോഷ	1521
ദേശ	1522
ജി	1523
കുട്ട	1524
അവസാന	1525
ഉറപ്പ	1526
മുതല്‍	1527
പ്രതീക്ഷ	1528
അധ്യക്ഷ	1529
##പ്പെടെ	1530
കയ	1531
ആരംഭ	1532
പട്ട	1533
##ഷ്ണ	1534
##ൻ്	1535
ഫോ	1536
##േജ	1537
##ായിട്ട	1538
##ില്ലെന്ന്	1539
തുറ	1540
മറ്റ്	1541
കാരണം	1542
കോടതി	1543
കൊണ്ട്	1544
പുറത്ത	1545
മത്സര	1546
##മല്ല	1547
##ണറ	1548
##കാശ	1549
വീണ്ട	1550
കല	1551
യൂ	1552
മണിക്ക	1553
വാര്‍	1554
വ്യാപ	1555
##ന്യ	1556
##ില്ലെന്നും	1557
##ാഷ	1558
ഉദ്യോഗസ്ഥ	1559
##ാലും	1560
##താ	1561
മൂന്ന	1562
സിനിമ	1563
##വിട	1564
മുൻ	1565
##ീന	1566
##ുളള	1567
മാന	1568
ചൂ	1569
##ില്‍ക്ക	1570
മുമ്പ	1571
മാത്രം	1572
അടക്ക	1573
##ുകൊണ്ട്	1574
തന്റെ	1575
വിദ്യാ	1576
##ിക്കുകയും	1577
പാ	1578
##ിയായ	1579
സ്ത്രീ	1580
ഉത്തര	1581
##ണമെന്നും	1582
അടുത്ത	1583
ലീ	1584
##ിമ	1585
എംഎ	1586
##ുമ്പോള്‍	1587
പൂ	1588
വിക	1589
##ഴും	1590
രീ	1591
ഒഴിവ	1592
ഒരാ	1593
സംസാര	1594
ഓഫീസ	1595
നൽകിയ	1596
##ികളും	1597
ഇതോടെ	1598
പ്രദേശ	1599
ഇവര്‍	1600
##ള്ളി	1601
ഉട	1602
##ുകാര	1603
##വേശ	1604
##ുല	1605
നേതാക്കള	1606
പാര്‍ട്ടി	1607
##തായി	1608
അനുവ	1609
##ക്കുറ	1610
##ര്‍മ	1611
റിപ്പോര്‍ട്ട്	1612
ലോക	1613
ശതമാനം	1614
##രിപ്പ	1615
കോഴിക്കോട്	1616
വേണ്ടി	1617
##ാണി	1618
##ാർത്ഥ	1619
പിന്നീ	1620
##്വ	1621
##പ്പെട്ട്	1622
##ിപ്പ്	1623
വീണ്ടും	1624
സമീപ	1625
വിശ്	1626
പ്രത്യേക	1627
ഇക്കാര	1628
നെ	1629
ഉന്ന	1630
ന്യൂ	1631
##ഡിയോ	1632
കമ്പ	1633
##കാരം	1634
##ോളം	1635
കോട്ട	1636
നേതാവ്	1637
അപേക്ഷ	1638
ഇതുവരെ	1639
ഇരു	1640
##വധി	1641
##ർത്ത	1642
നഗ	1643
##ങ്ങളാണ്	1644
##യോ	1645
##ുകൊണ്ട	1646
ദില്ല	1647
##ുകളുടെ	1648
##ീം	1649
ദേശീയ	1650
രാശ	1651
##ിക്കുക	1652
##ാവും	1653
വൈറ	1654
കര്‍	1655
ലക്ഷം	1656
##ബു	1657
സുരക്ഷ	1658
വിമാന	1659
##ിക്കല്‍	1660
##മുഖ	1661
രേഖ	1662
നിന്നുള്ള	1663
വിവിധ	1664
അല്ല	1665
ഇത്തവണ	1666
നിരീക്ഷ	1667
കിട്ട	1668
##നിയ	1669
നിരവധി	1670
##ക്കി	1671
##നായ	1672
മുഖ്യമന്ത്ര	1673
##ിരുന്നത്	1674
മെഡ	1675
ഗോ	1676
##ത്തിക	1677
അനുവദ	1678
തര	1679
വിഷയ	1680
##ത്തോടെ	1681
ബു	1682
##ിറ്റ	1683
ശ്രദ്ധ	1684
##ങ്ങൾക്ക്	1685
പ്രധാനമന്ത്രി	1686
നഷ്ട	1687
സംസ്ഥാനത്ത്	1688
##തിന്	1689
പൂര്‍	1690
ക്ല	1691
സേ	1692
##ുമെന്ന	1693
മിക	1694
##ങ്ങന	1695
വെള്ള	1696
##റും	1697
മരണ	1698
##ന്ത്	1699
##ട്ടം	1700
ഉൾ	1701
സർ	1702
ഞാന്‍	1703
##ളം	1704
ജീവിത	1705
വളരെ	1706
സഖ	1707
##തും	1708
ക്യാ	1709
##ക്കിയ	1710
ഹൈക്ക	1711
ശ്രീ	1712
##രോ	1713
##ാനാണ്	1714
നിയന്ത്ര	1715
മുസ്	1716
##ക്യ	1717
വിട്ട	1718
##ത്തിലും	1719
പിന്നീട്	1720
##ുന്നതിന	1721
ബ്ര	1722
ജില്ലയില്‍	1723
30	1724
##നാട്	1725
കണക്ക	1726
പിണറ	1727
##ച്ചി	1728
##െങ്കിൽ	1729
സ്വന്ത	1730
മാത്രമാണ്	1731
ഇതിന്	1732
##ുവര	1733
തെള	1734
നല്ല	1735
##ിക്കേണ്ട	1736
##ിച്ചിട്ട	1737
സെക്രട്ടറി	1738
പിന്നാലെ	1739
മന്ത്ര	1740
24	1741
വാഹ	1742
##ുപ്ര	1743
പഠ	1744
##യായ	1745
##ിത്ത	1746
ഇനി	1747
വീട	1748
വര്‍ഷ	1749
വകുപ്പ്	1750
തേ	1751
മലയാള	1752
ജോലി	1753
14	1754
അന്വേഷണ	1755
പ്രവേശ	1756
മഴ	1757
തുടര്‍ന്ന്	1758
മാര്‍	1759
##ത്മ	1760
പാര്‍ട്ട	1761
കൂടിയ	1762
##േറ്റ്	1763
രക്ഷ	1764
##ാണ്ട	1765
പഞ്ചായ	1766
എല്ലാവ	1767
വഴി	1768
##ര്‍പ്പ	1769
##ൊന്നും	1770
താര	1771
##ലും	1772
##ക്‌സ	1773
കേസ്	1774
വിദേശ	1775
ചൂണ്ട	1776
##കാര്യ	1777
അവരുടെ	1778
##ുകളാണ്	1779
സാമ്പത്തിക	1780
##ായക	1781
വിശദ	1782
##ർക്ക്	1783
##ീര	1784
##യിലാണ്	1785
രാഹുല്‍	1786
##ാലി	1787
##ിതി	1788
##തിയുടെ	1789
പരിഗണ	1790
ചോദ്യം	1791
##പ്പുറ	1792
##ുന്നതിന്	1793
##്യമായ	1794
##ദേശം	1795
##രഞ്ഞെടു	1796
ചെയ്തത്	1797
##െയുള്ള	1798
##നങ്ങള്‍	1799
##ാറ്റ	1800
സൈ	1801
വിവാഹ	1802
##െതിരെ	1803
13	1804
##്‌	1805
സിപിഎം	1806
##ാജ	1807
വീഡിയോ	1808
മാസ	1809
അടിസ്ഥാന	1810
##ത്തേക്ക്	1811
നാട്ട	1812
##ത്തിലുള്ള	1813
കൊറ	1814
##ഗ്രഹ	1815
നടപടി	1816
##ധാ	1817
കര	1818
##ത്തിലേക്ക്	1819
പരാതി	1820
തൊഴില	1821
പിണറായി	1822
##ിലേക്ക	1823
25	1824
അമേ	1825
##ൻ്റെ	1826
പറഞ്ഞത്	1827
സംഘടന	1828
##േസ്	1829
റി	1830
##ിന്ദ	1831
പരിഹ	1832
ശക്തമായ	1833
##തം	1834
സന്ദ	1835
മോദി	1836
കൊറോണ	1837
##ിച്ചേ	1838
മികച്ച	1839
##ധിക	1840
ലൈ	1841
ജില്ലകള	1842
വൈക	1843
##ണമെന്ന	1844
##പ്പുഴ	1845
അതിന	1846
##തിയെ	1847
##ീവ്	1848
##ത്തിയത്	1849
##ധ്യ	1850
##ണ്ണം	1851
18	1852
##ുമോ	1853
##െല്ലാം	1854
##ച്ചു	1855
നഗര	1856
നടപ്പ	1857
##ശ്ശ	1858
##േയ	1859
അഞ്ച്	1860
ചൂണ്ടിക്ക	1861
നയ	1862
പത്ത	1863
##ഷന്‍	1864
മറുപ	1865
നാല്	1866
ചുമ	1867
##റെയും	1868
##ുകളിൽ	1869
##േഷന	1870
##മായിരുന്നു	1871
##ശ്യ	1872
തെരഞ്ഞെടു	1873
ചൈന	1874
##ിറ	1875
ചോ	1876
എന്നി	1877
##ൂട്ട	1878
##പ്പെടുത്തി	1879
വഴ	1880
##ുതി	1881
പക്ഷേ	1882
ചെന്ന	1883
##വസ	1884
ഇതിന	1885
ജീവന	1886
##ടങ്ങ	1887
എന്റെ	1888
##കുമ	1889
ഞാൻ	1890
പണം	1891
##ിക്കണം	1892
അമ്മ	1893
##ക്കെതിരെ	1894
അമേരിക്ക	1895
##യിലേക്ക്	1896
സ്ഥല	1897
ത്	1898
##ാടക	1899
വിവരം	1900
##മെന്റ്	1901
തമ്മ	1902
ആർ	1903
നടപട	1904
നേടിയ	1905
എഫ്	1906
കരു	1907
##ർന്ന്	1908
##്യമാണ്	1909
##പ്രായ	1910
ബാല	1911
##ീഷ്	1912
മുതൽ	1913
##ഞ്ഞു	1914
##ാൾ	1915
കൊല	1916
പരിപ	1917
പൊതു	1918
##രുടെ	1919
രാവ	1920
##ക്ഷേപ	1921
വിലയ	1922
##ുളം	1923
പ്രകട	1924
പുറത്ത്	1925
##ടുവ	1926
സർക്കാര	1927
എൻ	1928
വ്യാ	1929
പോലീസ	1930
##യിലും	1931
##റണ	1932
തീരുമാനം	1933
സമയം	1934
ശിവ	1935
പ്രസിഡന്റ്	1936
തുടര	1937
##ുവന്ന	1938
നേരിട	1939
##മാണ	1940
ഓരോ	1941
ഗ്രൂ	1942
സുപ്ര	1943
തന്നെയാണ്	1944
പ്ല	1945
##ോമ	1946
##ക്കാട്	1947
അപകട	1948
സ്ഥാനാര്‍ത്ഥ	1949
തവണ	1950
##സിന്റെ	1951
##ീപ്	1952
ബന്ധപ്പെട്ട	1953
കൂടുതൽ	1954
മത്സരിക്ക	1955
ദില	1956
സ്വദേശിനി	1957
എറണ	1958
റെ	1959
##വ്വ	1960
##ഹമ്മ	1961
##പ്പോൾ	1962
##ാരാ	1963
##മോ	1964
എറണാക	1965
##ജന്‍	1966
നേതാക്കള്‍	1967
വകുപ്പ	1968
സീറ്റ്	1969
##ാബ	1970
ഇടപെ	1971
വിധ	1972
സ്ഥാപന	1973
തൃശ	1974
##ര്‍ക്കും	1975
കണ്ണൂര്‍	1976
##േത	1977
അഭിപ്രായ	1978
##ങ്ങളിലും	1979
##റില്‍	1980
##ബ്ദ	1981
സോഷ്യ	1982
വിവാദ	1983
കമ	1984
പാർട്ടി	1985
സ്വര്‍	1986
ഇന്‍	1987
തി	1988
##ിക്കുകയായിരുന്നു	1989
ഗാന്ധി	1990
പട്ടിക	1991
##വല	1992
##ക്കു	1993
യുഎ	1994
##ൗര	1995
വിദ്യ	1996
##കളും	1997
പേര്‍ക്ക്	1998
റിപ്പോർട്ട്	1999
വോട്ട്	2000
വികസ	2001
മീഡിയ	2002
##ക്ടര്‍	2003
##ിട്ട്	2004
ചെയ്യുന്ന	2005
16	2006
##ായും	2007
ജാ	2008
##ിവെ	2009
##ദ്ര	2010
ജില്ലയിലെ	2011
സ്പ	2012
അവകാശ	2013
ജനറ	2014
##ാനി	2015
പ്രിയ	2016
##ികള്‍ക്ക്	2017
##തിരോധ	2018
താമ	2019
അന്വേഷണം	2020
ബെ	2021
ആയിരുന്നു	2022
##ദി	2023
17	2024
നേതാവ	2025
നിയമസഭാ	2026
##ണിയ	2027
ലഭിച്ച	2028
നര	2029
##മായും	2030
##നു	2031
എംഎല്‍	2032
ഏക	2033
എടുത്ത	2034
പരീക്ഷ	2035
മണിക്കൂറ	2036
തിരഞ്ഞെടുപ്പില്‍	2037
ജൂ	2038
##ിന്‍റെ	2039
ക്ഷ	2040
വിലയിരു	2041
അധികാര	2042
##യ്യ	2043
പ്രവ	2044
##മാര്‍	2045
##ായിരിക്കും	2046
എണ്ണം	2047
സൂചന	2048
##ജു	2049
##ുമ്പോൾ	2050
##സിന്	2051
മറ്റൊരു	2052
##ജന	2053
പ്രതിരോധ	2054
വ്യക്തമാക്ക	2055
നേതൃത്വം	2056
ചർച്ച	2057
എംഎല്‍എ	2058
##ിക്കാനുള്ള	2059
ഒറ്റ	2060
##ുമതി	2061
##സില	2062
എന്നീ	2063
പുര	2064
##ാക്കിയത്	2065
മത	2066
##പോ	2067
മുഴ	2068
കീ	2069
ഹൈക്കോട	2070
##ഹൃ	2071
കണ്ടെത്ത	2072
അവിടെ	2073
ഇര	2074
പ്രസ	2075
ല്‍	2076
##്യമായി	2077
##ാഹ	2078
ഉണ്ടായ	2079
വര്‍ധ	2080
##ഖ്	2081
അല	2082
പശ്ച	2083
##ിച്ചാണ്	2084
രാവിലെ	2085
##നാണ്	2086
പ്രശ്‌ന	2087
നില്‍ക്ക	2088
ബിഗ്	2089
##സന്ധ	2090
##യുണ്ട	2091
ലെ	2092
##മാർ	2093
##പരി	2094
##സില്‍	2095
##ുകൂല	2096
ഫേസ്	2097
##േഷൻ	2098
##േദ	2099
കർ	2100
##കോ	2101
##ാദ്	2102
എനിക്ക്	2103
റിപ്പോര്‍ട്ട	2104
പൂർ	2105
ആലപ്പുഴ	2106
50	2107
##ുന	2108
##പ്രദേശ	2109
ലി	2110
വിമര്‍ശ	2111
വാക്	2112
സുരേന്ദ്ര	2113
അതിന്	2114
##ാരി	2115
##ാവന	2116
സാമ	2117
##ന്നി	2118
##തിയിൽ	2119
നിരീക്ഷണ	2120
##ീമ	2121
തക	2122
വാർ	2123
അസ	2124
##ിക്കാം	2125
##യായി	2126
##ബ്ര	2127
ആകെ	2128
രണ്ടാം	2129
ദില്ലി	2130
ഇപ്പോൾ	2131
നിയമസഭ	2132
##ക്കോ	2133
സത്യ	2134
##ാരാഷ്ട്ര	2135
ഇങ്ങനെ	2136
##ഭ്യാ	2137
എത്ര	2138
##ാവസ്ഥ	2139
കാര്യം	2140
##മാക്ക	2141
വരും	2142
ചെല	2143
നിലവില്‍	2144
##ീക	2145
##േണ്ടി	2146
മുമ്പ്	2147
##ുന്നില്ല	2148
##പ്പെട്ടു	2149
##ത്തിനും	2150
##ർപ്പ	2151
##ക്കാര്‍	2152
##ിച്ചിരിക്കുന്നത്	2153
##വരും	2154
കോട്ടയം	2155
##ിരിക്കുന്ന	2156
വർഷ	2157
അറസ്റ്റ്	2158
##യി	2159
##േള	2160
ഭക്ഷ	2161
നവ	2162
ഏത	2163
22	2164
സന്ത	2165
രജി	2166
##്ട്ര	2167
വാങ്ങ	2168
പോലെ	2169
##ുന്നതാണ്	2170
##കാല	2171
മാത്രമല്ല	2172
തമി	2173
നല്‍കി	2174
21	2175
##ന്‍സ്	2176
ഇത്തര	2177
താന്‍	2178
##ജയ	2179
##സിസി	2180
##നാഥ	2181
ഇത്തരം	2182
അവർ	2183
##പ്പുറം	2184
ബംഗ	2185
##ില്ലാത്ത	2186
##േജ്	2187
##ങ്ക്	2188
എൽ	2189
ആണ	2190
##ിൽക്ക	2191
ആദ്യം	2192
ചെയ്തിട്ട	2193
##േന	2194
##ികെ	2195
ആശങ്ക	2196
വാര്‍ത്ത	2197
ആയി	2198
##മാന	2199
പ്രാ	2200
##ിരുദ്ധ	2201
ശതമാന	2202
##ംപ	2203
പീ	2204
പ്രതിസന്ധ	2205
##ർത്ഥ	2206
ഉന്നയ	2207
##നത്തിന്	2208
വരുന്ന	2209
സംഭവം	2210
നടത്തി	2211
##തെന്ന്	2212
ഘട്ട	2213
##ത്രം	2214
പ്രതികര	2215
കേരളത്തില്‍	2216
മനസ്സ	2217
കമ്മീഷ	2218
പദ്ധതി	2219
##ിക്കറ്റ്	2220
രംഗത്തെ	2221
##ായ്	2222
യുഡിഎഫ്	2223
രാത്ര	2224
##ജീവ	2225
##ക്കാല	2226
##ിപ്പിച്ച	2227
എറണാകുളം	2228
ഉമ്മ	2229
##വര്‍ക്ക്	2230
പാലക്കാട്	2231
എടുക്ക	2232
##ിക്കൊ	2233
കുറിച്ച്	2234
സംശ	2235
##ഹമ്മദ്	2236
ബൈ	2237
നരേന്ദ്ര	2238
എഴ	2239
##റു	2240
ആത്മ	2241
ഇന്ത്യന്‍	2242
വര്‍ഷം	2243
##തെന്നും	2244
##ുണ്ടായ	2245
ഏറെ	2246
പക്ഷ	2247
##ീല	2248
അക	2249
സംബന്ധിച്ച്	2250
##പ്പെടുന്ന	2251
പുന	2252
##ത്തിലൂടെ	2253
എണ്ണ	2254
വെച്ച	2255
രാജ്യത്ത്	2256
സിംഗ്	2257
ഉണ്ടാക	2258
23	2259
കാര്‍	2260
നേട	2261
കാസ	2262
മാസം	2263
ഇതില്‍	2264
##ിക്കുകയ	2265
തോമ	2266
##ധികം	2267
കാര്യങ്ങള്‍	2268
##ിക്കൽ	2269
രാശിക്ക	2270
##ൗണ്‍	2271
കൊല്ലം	2272
ഡെ	2273
##ന്നു	2274
അന്ന്	2275
ആഗ്രഹ	2276
സുധാ	2277
പോരാ	2278
നിലപാട്	2279
വാദ	2280
മക	2281
ഭൂരി	2282
ജോസ	2283
പേരാണ്	2284
##കർ	2285
സുധാകര	2286
കൃത്യ	2287
പറഞ്ഞിരുന്നു	2288
ക്ഷേ	2289
കമ്മി	2290
തൊഴിലാള	2291
ചെയ്യാ	2292
കേസില്‍	2293
സുപ്രീം	2294
ഡ്ര	2295
##ിപ	2296
##വെ	2297
ചെയ്തിരുന്നു	2298
ഭാഗമായി	2299
##കൃ	2300
വിപ	2301
യുഡിഎഫ	2302
മെഡിക്കല്‍	2303
സമൂഹ	2304
##ങ്ങളിലെ	2305
ഭാര്യ	2306
##മാക	2307
ഗ്രാമ	2308
ഷാ	2309
വിലയിരുത്ത	2310
അഞ്ച	2311
##ബര്‍	2312
##രക്ഷ	2313
##ീര്‍	2314
ഇയ	2315
##ൈല	2316
പുതു	2317
രംഗത്ത്	2318
കുറഞ്ഞ	2319
##കുട്ട	2320
മറുപടി	2321
ശി	2322
##ക്ഷി	2323
നാള	2324
മനു	2325
പത്തനം	2326
##000	2327
വിത	2328
ദിന	2329
നേട്ട	2330
വായ	2331
വിദ്യാഭ്യാ	2332
##ിട്ടുണ്ട	2333
##ികളില്‍	2334
##ർക്കും	2335
തദ്ദേശ	2336
വനി	2337
പത്തനംതിട്ട	2338
ഉയര്‍ന്ന	2339
പദ	2340
##ാടി	2341
പങ്കുവ	2342
വാഹന	2343
##പ്പെടുന്നത്	2344
ബന്ധപ്പെട്ട്	2345
സ്വകാര്യ	2346
നീക്കം	2347
##ടുത്ത്	2348
##ണാടക	2349
നമ്മുടെ	2350
മുഴുവ	2351
##പാത	2352
##ിക്കുകയാണ്	2353
40	2354
##ൈസ	2355
##ജ്ഞ	2356
പേർ	2357
##ാര്‍ഥ	2358
കൊച്ചി	2359
കമ്പന	2360
ഫെ	2361
മാറ	2362
പരാജയ	2363
ഇടത	2364
##യര്‍	2365
കന	2366
##ടം	2367
##യായിരുന്നു	2368
##വിട്ട	2369
കേരളത്തിലെ	2370
ജോര്‍	2371
പറ്റ	2372
കര്‍ഷ	2373
റഷ്യ	2374
##ക്കം	2375
അതുകൊണ്ട്	2376
കൂടാതെ	2377
സമര	2378
അധികൃത	2379
അദ്ദേഹത്തിന്റെ	2380
എതി	2381
സാധിക്ക	2382
ധന	2383
താമസ	2384
സൂര	2385
ആവശ്യം	2386
സംഘം	2387
##ഷ്‌	2388
അക്ക	2389
തോന്ന	2390
മോഹ	2391
##ല്ലോ	2392
##ഷി	2393
##ിക്കെതിരെ	2394
അനുകൂല	2395
ഇക്കാര്യം	2396
##പ്പി	2397
##വം	2398
##ോഭ	2399
##ാഭ	2400
##ധര	2401
##ട്ടെ	2402
##രുവ	2403
സുരേഷ്	2404
ആഭ	2405
##സിൽ	2406
##റിന്റെ	2407
തെളിവ	2408
സ്വന്തം	2409
##ീറ്റ	2410
സമയത്ത്	2411
പ്രായ	2412
##ത്തിറ	2413
##ാണോ	2414
##റിഞ്ഞ	2415
പോസ്റ്റ	2416
കാരണ	2417
##പ്പെട്ടത്	2418
ഇത്ര	2419
അമി	2420
ഇടപെട	2421
മനുഷ്യ	2422
##വരാണ്	2423
നിയന്ത്രണ	2424
കൂട്ടിച്ചേ	2425
ഡയ	2426
##മത	2427
##ളള	2428
പ്രകാരം	2429
##ിനുള്ള	2430
##വെന്നും	2431
കോടിയ	2432
അഖ	2433
പകര	2434
ആരോപണ	2435
##ിനു	2436
ആന	2437
##ക്കൊ	2438
കടുത്ത	2439
##ാണിത്	2440
സ്വപ്	2441
##ിക്കുന്നുണ്ട്	2442
200	2443
ദൃ	2444
നിറ	2445
ഭീഷ	2446
സംവിധ	2447
സ്ഥാനാർത്ഥ	2448
ഇടുക്ക	2449
സമ്പർക്ക	2450
കരുത	2451
ഷോ	2452
ചെയ്ത്	2453
##ിക്കറ്റ	2454
നമ്പ	2455
ഫലം	2456
തട്ട	2457
##സൈ	2458
മാത്രമേ	2459
ചെയ്യുന്നത്	2460
ഹെ	2461
സാധാരണ	2462
അനുഭവ	2463
##പ്പള്ളി	2464
##ിയിലേക്ക്	2465
##എമ്മ	2466
കസ്റ്റ	2467
ചുമതല	2468
##ളവ	2469
26	2470
തനിക്ക്	2471
##ക്കള	2472
##ഴ്ച്ച	2473
##ജ്ജ	2474
ചരി	2475
##തിരായ	2476
കുഞ്ഞ	2477
ശു	2478
പ്രൊ	2479
##ിയായി	2480
എന്നത്	2481
##ങ്ങളില	2482
മലപ്പുറം	2483
താഴ	2484
##ത്തിനായി	2485
സ്‌കൂ	2486
ദുര	2487
പ്രതികരണം	2488
ആറ്	2489
##തിനെ	2490
##ച്ഛ	2491
നിലപാട	2492
മുന്നറിയ	2493
കീഴ	2494
ഉണ്ട്	2495
ഓഫ്	2496
##വുമ	2497
##ിരിക്കും	2498
ബ്ല	2499
ഫ്ര	2500
##ാക്കാന്‍	2501
##മാരുടെ	2502
സൗകര	2503
മുംബ	2504
##ിയോ	2505
എന്നിവര	2506
അടക്കം	2507
യുഎഇ	2508
##നേ	2509
നോക്ക	2510
##രുത്	2511
##ുകളിലും	2512
രാജ്യത്തെ	2513
പൊലീസ	2514
28	2515
27	2516
സാമൂഹ	2517
പേരും	2518
##ൃഷ്ട	2519
ലഭിക്കും	2520
അഭിന	2521
000	2522
സാഹചര്യത്തില്‍	2523
ചൊ	2524
തെറ്റ	2525
സുഹൃ	2526
വിന	2527
മുംബൈ	2528
##ുകളെ	2529
റെയ	2530
##ലക്ഷ	2531
സോഷ്യല്‍	2532
നടപടിയ	2533
പൗര	2534
വിമർശ	2535
അടിയ	2536
##ഗോ	2537
സഖ്യ	2538
##മില്ല	2539
##ലിം	2540
ആരാ	2541
##യോടെ	2542
##രുത്ത	2543
സര്‍വ	2544
ഇൻ	2545
##നങ്ങൾ	2546
എല്‍ഡിഎ	2547
നിര്‍ദേശ	2548
##ലില്‍	2549
ആശുപത്രിയില്‍	2550
##ഭാഷ	2551
മുന്നോട്ട്	2552
ചെറിയ	2553
അമ	2554
##േര	2555
##ംസ	2556
##െന്നായിരുന്നു	2557
##ഘട	2558
കേരളം	2559
വിജയം	2560
##തമായ	2561
##പ്റ്റ	2562
ജാമ	2563
നടക്കുന്ന	2564
കണ്ടെത്തിയ	2565
ഉള്‍പ്പെടെ	2566
വല	2567
##ശ്ര	2568
##പ്പോഴ	2569
തുടർന്ന്	2570
വ്യക്തമാക്കിയ	2571
##െത്തിയ	2572
പരാമ	2573
##സ്ര	2574
##ികളാണ്	2575
##കളുടെ	2576
##ാക്കള	2577
മുഹമ്മദ്	2578
##വിള	2579
പേര്	2580
സംരക്ഷ	2581
വേഗ	2582
##ൂരില്‍	2583
രൂക്ഷ	2584
സഹോദ	2585
##ിക്കാനും	2586
ചന്ദ്ര	2587
##ിക്കുമെന്ന്	2588
##ിച്ചും	2589
വന്‍	2590
##ല്‍പ്പ	2591
##േണ്ടത	2592
ഭൂരിപക്ഷ	2593
അന്ത	2594
വ്യക്തി	2595
സംസ്ഥാനത്തെ	2596
##ക്ടർ	2597
##ട്രോ	2598
വെളി	2599
ചേര്‍ന്ന	2600
പശ്ചാത്ത	2601
അത്ത	2602
##തീ	2603
അര	2604
പ്രസ്ത	2605
ബിജെപിയുടെ	2606
കോളേജ	2607
##ഷൻ	2608
##ിച്ചുള്ള	2609
##തൃ	2610
##യുമായി	2611
##ിട്ടും	2612
##ിരുന്നില്ല	2613
##മുണ്ട്	2614
##യ്ക്കും	2615
##ുട്ട	2616
##സും	2617
##ൗണ്ട	2618
ഹിന്ദ	2619
ഫല	2620
ഒരിക്ക	2621
പുല	2622
##ുമായിരുന്നു	2623
നടത്തിയത്	2624
അക്രമ	2625
ഹാജ	2626
മുതി	2627
രാമ	2628
##ുവരി	2629
ഇക്കാര്യ	2630
പെണ്‍	2631
##യ്‌	2632
##ക്കായി	2633
##എഫ്	2634
##കരണ	2635
##ാധിപ	2636
##ികൾക്ക്	2637
##ിക്	2638
ഉൾപ്പെടെ	2639
##ിസ്	2640
അനുമതി	2641
വിദ്യാഭ്യാസ	2642
വസ്	2643
സൃഷ്ട	2644
##ിച്ചിട്ടില്ല	2645
മൃത	2646
റിയ	2647
##ുമാന	2648
##ിക്കപ്പെട്ട	2649
##പ്പോഴും	2650
വിഭാഗം	2651
##ിക്ക്	2652
വിശദീകര	2653
എല്ലാം	2654
ഉയർന്ന	2655
പാർട്ട	2656
സിപിഎമ്മ	2657
##ബ്ല	2658
ഒന്നും	2659
##െട്ട	2660
എത്തി	2661
##ആര്‍	2662
##ക്കേ	2663
##ോടും	2664
ഇന്നലെ	2665
ഗ്രൂപ്പ	2666
ലീഗ്	2667
##ാടിയ	2668
ആരോപണം	2669
കില	2670
നിക	2671
സോണ	2672
വെച്ച്	2673
ഇവ	2674
##നാട്ട	2675
##ത്തിനുള്ള	2676
ജീവനക്കാര	2677
പ്രോ	2678
എംപി	2679
സേവ	2680
31	2681
##റാ	2682
##വർക്ക്	2683
സമ്പര്‍ക്ക	2684
കൊടുക്ക	2685
വൈറസ്	2686
പഴ	2687
പശ്ചാത്തല	2688
ബോധ	2689
ചെയ്യും	2690
അര്‍	2691
##ത്തോളം	2692
##ണു	2693
തള്ള	2694
##െടുത്തു	2695
##ലിന്റെ	2696
പങ്കെടുക്ക	2697
35	2698
##തില്‍	2699
മുരള	2700
വികസന	2701
##യുണ്ട്	2702
##ക്കുറിച്ച്	2703
പ്രസ്താവന	2704
##മല	2705
##ുമുള്ള	2706
അംഗീകര	2707
##സ്ട്ര	2708
##ക്കുള്ള	2709
##ോസ്	2710
##ോടൊപ്പം	2711
എന്നതാണ്	2712
റിപ്പോർട്ട	2713
##തന്ത്ര	2714
പുറത്തിറ	2715
തൃശൂര്‍	2716
സംശയ	2717
##ശേഷ	2718
എന്നായിരുന്നു	2719
മൃതദേഹ	2720
ആവശ്യപ്പെട്ടു	2721
അങ്ങനെ	2722
##ദ്ധി	2723
വാർത്ത	2724
ഇടുക്കി	2725
ഇന	2726
##ിനോട്	2727
##േണ്ടത്	2728
വീട്ടില്‍	2729
മധ്യ	2730
പ്രിയങ്ക	2731
##സ്റ്റര്‍	2732
##ൻസ്	2733
പുരു	2734
തടയ	2735
എന്ത്	2736
##ിനാണ്	2737
ബഹ	2738
വേദ	2739
അറസ്റ്റ	2740
വിച	2741
ശര	2742
##കല	2743
##മെന്റ	2744
##ബാധ	2745
പദ്ധത	2746
##ാധിപത്യ	2747
തുടര്‍ന്ന	2748
ചെന്നിത്ത	2749
ഇന്ത്യൻ	2750
##തിയാണ്	2751
എന്നെ	2752
ഹര്‍	2753
മറ്റു	2754
ചെന്നിത്തല	2755
അവത	2756
##രായ	2757
ചോദ്യ	2758
ടീമ	2759
##ണമെന്നാണ്	2760
താല്‍	2761
##ലൈ	2762
എന്നിവിട	2763
നായ	2764
പീഡ	2765
ആഘ	2766
ഇസ്ര	2767
##ൻസ	2768
വിട	2769
മാറിയ	2770
ദിലീപ	2771
##ുന്നുണ്ട	2772
ജനറല്‍	2773
സെന്റ	2774
സൈന	2775
##ഷിക	2776
മാറ്റി	2777
##ടിച്ച്	2778
##ക്കാർ	2779
##ശ്വാസ	2780
കേന്ദ്രം	2781
ആരാധ	2782
##യാ	2783
ഉയര	2784
കടന്ന	2785
ആക	2786
സ്വർ	2787
ഒരാള	2788
ലോക്‌	2789
നടത്തുന്ന	2790
മുസ്ലീ	2791
നിക്ഷേപ	2792
##ോട്ടോ	2793
ദേവ	2794
സ്വാധ	2795
വ്യത്യ	2796
ചടങ്ങ	2797
രാത്രി	2798
നിങ്ങളുടെ	2799
മുന്നില്‍	2800
##ിനിധ	2801
യോഗം	2802
മണി	2803
##നിര	2804
പൂര്‍ത്തിയ	2805
കമ്മിറ്റി	2806
##രാജ	2807
പുറത്തു	2808
ഹൈക്കോടതി	2809
##ാബ്	2810
മോശ	2811
##ല്‍ക്ക	2812
##തമായി	2813
29	2814
##ക്ടറ	2815
അമിത്	2816
##്യന്തര	2817
മുസ്ലിം	2818
കാർ	2819
വയനാട്	2820
മനസ്സില	2821
45	2822
##ിപ്പിച്ചു	2823
##കളില്‍	2824
പൊത	2825
മൂല	2826
സമ്പർക്കം	2827
സമ്മേള	2828
കിട്ടിയ	2829
തെരഞ്ഞെടുപ്പ	2830
##ിച്ചാല്‍	2831
കുമാര്‍	2832
നമു	2833
ഇതിന്റെ	2834
##സിയ	2835
##ല്ലു	2836
##ത്വം	2837
യോഗ്യത	2838
##യർ	2839
ഡയറ	2840
ലോക്	2841
പ്രവര്‍ത്തന	2842
അടു	2843
##കരുടെ	2844
##‌സ്	2845
പരസ	2846
ആഭ്യന്തര	2847
സൗദി	2848
പണ	2849
ഗുരുത	2850
കൊലപാത	2851
##ിക്കുമെന്നും	2852
##ാലയ	2853
##ുത്ത	2854
പഞ്ചായത്ത്	2855
സൈനിക	2856
അതിന്റെ	2857
തീവ	2858
സൂര്യ	2859
കാലാവസ്ഥ	2860
##വാറ	2861
രണ്ടു	2862
നടന്നത്	2863
ഹോ	2864
ഉള്ളത്	2865
സ്ഥിരീകരിച്ചത്	2866
##ിക്കുന്നതിന്	2867
സജീവ	2868
##മാണെന്ന്	2869
##ഫോ	2870
##ൊക്ക	2871
##ുപക്ഷ	2872
##പ്രവര്‍ത്ത	2873
പിന്‍	2874
കൊടുത്ത	2875
##മ്പ്	2876
ചികിത്സയില	2877
ദുബ	2878
##ച്ചത്	2879
##ിച്ചുവ	2880
വിദ്യാര്‍ത്ഥ	2881
##മന്ത്ര	2882
##തിയും	2883
ലഭ്യമ	2884
ഗുരുതര	2885
ഇതേ	2886
വന്നു	2887
കോണ്‍ഗ്രസിന്	2888
വൃ	2889
പോയി	2890
റോഡ	2891
##ീക്ക	2892
##ീകരിച്ച്	2893
##ുവിന്റെ	2894
ചെയ്യാന്‍	2895
നേതാക്കൾ	2896
##ടക	2897
##ലിന്	2898
##ിച്ചില്ല	2899
തുടങ്ങി	2900
ജനാധിപത്യ	2901
ഉണ്ടാവ	2902
##ുന്നതും	2903
പ്രചാരണ	2904
പങ്കെടുത്ത	2905
##ുന്നതെന്നും	2906
ഇവരുടെ	2907
ഉച്ച	2908
##ീന്‍	2909
##കളെ	2910
ഡോള	2911
##ചന്ദ്ര	2912
നിർദ്ദേശ	2913
ചിത്രം	2914
##നില്‍	2915
##ിന്ത	2916
##വിധാന	2917
ലഭിച്ചത്	2918
##ുകാര്‍	2919
വാക്‌സ	2920
വിദ്യാർത്ഥ	2921
പറഞ്ഞ്	2922
തോമസ്	2923
ചു	2924
ശമ്പ	2925
സഭ	2926
മഹാരാഷ്ട്ര	2927
ചൂണ്ടിക്കാ	2928
##ുണ്ടായിരുന്നു	2929
##ുപോക	2930
യെ	2931
പരിച	2932
##ാണെന്ന	2933
അവസ്ഥ	2934
കാത്ത	2935
##ണര്‍	2936
ഇന്റ	2937
##വില	2938
##ഘാട	2939
നേരിട്ട	2940
പത്ര	2941
##ദിന	2942
##ായേ	2943
കൂടെ	2944
സന്ദര്‍ശ	2945
വ്യാജ	2946
##ബർ	2947
ഇപ്പോഴും	2948
##ത്താവ	2949
മാറി	2950
പട	2951
പെട്ട	2952
താരം	2953
ശേഷമാണ്	2954
ട്രെയ	2955
വാക്ക	2956
##ികമായി	2957
ആഗ	2958
ചീ	2959
വർഷം	2960
ദൃശ്യ	2961
ആക്രമണ	2962
ആറ	2963
പതി	2964
ഭയ	2965
കേരളത്തിൽ	2966
##ാവധി	2967
##ഞ്ജ	2968
വിരുദ്ധ	2969
കേന്ദ്രസ	2970
ഉദ്	2971
നിരക്ക്	2972
ട്വ	2973
ബോസ്	2974
60	2975
##ീറ്റ്	2976
##ശാ	2977
##മാരെ	2978
വർധ	2979
##ുകള്‍ക്ക്	2980
അടക്കമുള്ള	2981
##ലോ	2982
##ീകരണ	2983
മാർ	2984
##വസ്ഥ	2985
ആവശ്യമ	2986
വയസ്സ	2987
മുരളീ	2988
അവരെ	2989
വന്നത്	2990
നോട്ട	2991
രമേ	2992
##ുമില്ല	2993
ചരിത്ര	2994
ഒര	2995
കള്ള	2996
യി	2997
##നായി	2998
##സര	2999
ലക്ഷ്യമ	3000
##ശ്ശേരി	3001
തീവ്ര	3002
##സിറ്റ	3003
##നാഥ്	3004
ഇന്ത്യയുടെ	3005
ക്രമ	3006
##ക്കാണ്	3007
##്രാ	3008
വാക്‌	3009
##ികളായ	3010
സ്വയം	3011
മെയ്	3012
വിര	3013
ജോസ്	3014
സഞ്ച	3015
നേരിട്ട്	3016
എല്ലാവരും	3017
ജാഗ്ര	3018
ഡ്രൈ	3019
##ല്‍ഹി	3020
ഗോപ	3021
പാട	3022
##പാട്	3023
##ുടേയും	3024
##പരമായ	3025
എക്	3026
മുരളീധര	3027
##സിക്യ	3028
നിര്‍മ്മ	3029
അബ്ദ	3030
##വിഡ	3031
ഫോണ	3032
##റിൽ	3033
തുറന്ന	3034
കണ്‍	3035
നിന്നാണ്	3036
നിൽക്ക	3037
##റോ	3038
സര്‍ക്കാരിന്റെ	3039
ഇവരെ	3040
സമര്‍പ്പ	3041
##ുണ്ടെന്നും	3042
##ഗ്ദ	3043
നല്‍കിയത്	3044
##മറ	3045
സംവിധാന	3046
പോസ്റ്റ്	3047
ദുരന്ത	3048
ഇനിയും	3049
ജൂല	3050
##ട്ടിഫ	3051
ഔദ്യോഗ	3052
##ശ്വര	3053
##േഴ്‌	3054
ആശുപത്രി	3055
സീസ	3056
##ിക്കാത്ത	3057
##ങ്ങനെയ	3058
ഏപ്ര	3059
ബീ	3060
സാധിക്കും	3061
സംബന്ധിച്ച	3062
കെപി	3063
പേരെ	3064
##ിലേക്കുള്ള	3065
##ണല്‍	3066
##ികളിൽ	3067
പിടിച്ച	3068
##ുകൊണ്ടാണ്	3069
32	3070
ജയില	3071
ലോക്ക്	3072
സഹോദര	3073
വീണ	3074
##ിക്കാനാണ്	3075
##ാലോ	3076
##ങ്ങനെയാണ്	3077
##േക്കും	3078
##ില്ലെന്ന	3079
ഉമ്മന്‍	3080
പരിക്ക	3081
##മൊരു	3082
വെല്ലു	3083
2019	3084
##ിനായി	3085
തീര	3086
##പ്പെടുന്നു	3087
വിമാനത്താവ	3088
പ്രമുഖ	3089
##കരമായ	3090
##കുട്ടി	3091
##ത്താണ്	3092
##ിക്കാര	3093
കാലത്ത്	3094
ചാണ്ട	3095
##മാന്‍	3096
##സോ	3097
തെളിയ	3098
കണ	3099
##വരില്‍	3100
ബിസിന	3101
ബിജെപിക്ക്	3102
കോണ്‍ഗ്രസിന്റെ	3103
##സര്‍	3104
##ക്കട	3105
ഇടതുപക്ഷ	3106
##സരിച്ച്	3107
ഇസ്രായേ	3108
##കാ	3109
##വെന്ന്	3110
##ത്തോട്	3111
##മാരും	3112
രൂപയാണ്	3113
##തിനാല്‍	3114
ഏഴ്	3115
##ികൂ	3116
ലീഗ	3117
ചാന	3118
ആരും	3119
ലക്ഷ്യം	3120
കണ്ണൂർ	3121
മൂന്നാം	3122
ഇയാള്‍	3123
ജോസഫ്	3124
നടി	3125
സെക്രട്ടറിയ	3126
സ്വര്‍ണ	3127
ഇഷ്ട	3128
##ിള	3129
##ണായക	3130
##ാസ്ത്ര	3131
രാഹുൽ	3132
ചിന്ത	3133
തങ്ങളുടെ	3134
ലം	3135
##ുപ്പ	3136
കെട്ടി	3137
അവസര	3138
##നീ	3139
നിശ്ച	3140
ഗുജ	3141
നിലവിൽ	3142
##ുന്നതെന്ന്	3143
ഉദ്ഘാട	3144
##മം	3145
ഒഴിവാക്ക	3146
ഉന്നത	3147
മനോ	3148
പ്രതിഷേധം	3149
##വാസം	3150
സൂച	3151
വഹ	3152
ദി	3153
##ശി	3154
മരിച്ച	3155
എത്തിയത്	3156
##നില	3157
വേണം	3158
കേസിൽ	3159
100	3160
തുടങ്ങ	3161
##ിട്ടുള്ളത്	3162
കൊച്ച	3163
##ിരിക്കുന്നു	3164
##ബുക്ക്	3165
##നേഹ	3166
ശക്തി	3167
സ്ഥിരീകരിച്ച	3168
മെഡിക്കൽ	3169
##ാനെ	3170
പകരം	3171
ഒന്നാം	3172
പവ	3173
##ംഗം	3174
അഴി	3175
യഥ	3176
##ര്‍ക്ക്	3177
ബുദ്ധി	3178
##ഘടന	3179
##്ക്ക്	3180
സമു	3181
വൈദ്യ	3182
മാറ്റിയ	3183
ആരോപിച്ചു	3184
മുസ്ലീം	3185
യാത	3186
ബാങ്ക	3187
സമ്മാന	3188
##ില്ലെന്നാണ്	3189
ഉണ്ടായിരുന്നു	3190
##ബുക്ക	3191
സ്ഥിതി	3192
പേരില്‍	3193
വാക്‌സിന്‍	3194
##ഖ്യ	3195
##െടുത്ത്	3196
സ്ഥാനം	3197
##ുമായുള്ള	3198
മുന്നറിയിപ്പ്	3199
മമത	3200
പിസി	3201
എട്ട്	3202
##ിം	3203
കുറച്ച്	3204
പുരോഗ	3205
കൃഷ്ണ	3206
കഥ	3207
##ായിര	3208
##ത്തിനു	3209
മുഖ്യമന്ത്രിയുടെ	3210
ഭീഷണി	3211
ഞങ്ങള്‍	3212
സതീ	3213
നേടി	3214
നിര്‍ദ്ദേശ	3215
നിയമം	3216
രമേശ്	3217
സാക്ഷ	3218
യുദ്ധ	3219
വാക്‌സിന	3220
ശരിയ	3221
നൽകി	3222
നടക്കുന്നത്	3223
ഉത്തരവാദ	3224
ഭേദ	3225
##നത്തില്‍	3226
##ാമത്തെ	3227
പെൺ	3228
##േക്ക്	3229
മാറ്റം	3230
വിശ്വസ	3231
സന്തോഷ	3232
വിശ്വാസ	3233
അവസരം	3234
##ിക്കൊണ്ട	3235
ലംഘ	3236
വ്യക്ത	3237
തിരഞ്ഞെടുപ്പിൽ	3238
അധ്യക്ഷന്‍	3239
കനത്ത	3240
കൂടിക്ക	3241
പ്രവച	3242
കാസര്‍	3243
പിടികൂ	3244
##ഗോഡ്	3245
ഇദ്ദേഹ	3246
പത്ത്	3247
##മാണെന്നും	3248
##ത്തിനെ	3249
പോവ	3250
മണ്ഡലം	3251
##പിച്ച്	3252
ശ്രമം	3253
##ദായ	3254
##ാവുന്ന	3255
##ങ്കള	3256
അഭിമുഖ	3257
ക്ഷേത്ര	3258
ത്ര	3259
തീയ	3260
##ത്തിനെതിരെ	3261
സോണിയ	3262
എക്‌	3263
ഏത്	3264
സർവ	3265
വധ	3266
##ഗോപ	3267
##മാറ	3268
##ാതിരിക്ക	3269
ഗോവ	3270
##ബൈ	3271
ആഘോഷ	3272
നാട	3273
അതില്‍	3274
##ൊഴ	3275
##പ്രത	3276
ഇയാള	3277
##ന്റി	3278
വീതം	3279
##ിനിട	3280
2021	3281
ഉടമ	3282
##ര്‍മാര്‍	3283
നടപ്പാക്ക	3284
താൻ	3285
എന്താണ്	3286
സാഹചര്യം	3287
##ിലായിരുന്നു	3288
##ര്‍ത്തിയ	3289
വരുന്നത്	3290
##ര്‍ക്കാണ്	3291
നമുക്ക്	3292
##്യോ	3293
നിരോധ	3294
ആലോ	3295
ചെലവ	3296
ജല	3297
##സൂ	3298
രൂപയുടെ	3299
വരിക	3300
സതീശ	3301
ട്	3302
##തിന്റെ	3303
##ാനാവ	3304
##ിപ്പിച്ചത്	3305
അധ്യാപ	3306
കാറ	3307
സമിതി	3308
നിലന	3309
ഫേസ്ബുക്ക്	3310
പോളി	3311
##ടക്കം	3312
ചോദിച്ചു	3313
മരണം	3314
സൂക്ഷ	3315
ഫേസ്ബുക്ക	3316
##പ്ല	3317
##സിനെ	3318
##ിലേക്കും	3319
കൂടുതല	3320
കൂടിയാണ്	3321
തമിഴ്	3322
തു	3323
ഹൗ	3324
ബന്ധം	3325
കിടക്ക	3326
ബുധ	3327
##സാ	3328
രീതിയില്‍	3329
രൂപീകര	3330
##ീർ	3331
യാതൊരു	3332
ഒട്ട	3333
പാക	3334
കുറവ	3335
##ര്‍ത്തു	3336
ചെയ്യുന്നു	3337
പേരുടെ	3338
രോഗമു	3339
ക്രൈ	3340
##പിട	3341
##ിച്ചതോടെ	3342
ഒന്ന്	3343
##ിയുമായി	3344
റൂ	3345
##ിലായി	3346
##ങ്ങ്	3347
##സിൻ	3348
##ിംഗ്	3349
സമരം	3350
##ിക്കണമെന്ന്	3351
##റ്റം	3352
നടത്തുന്നത്	3353
ചെയ്തിട്ടുണ്ട്	3354
ഇല	3355
എങ്ക	3356
കിട	3357
ബജ	3358
കേട്ട	3359
വിതരണം	3360
##റ്റില്‍	3361
##ുമുണ്ട്	3362
മനസില	3363
പലരും	3364
പിന്നാലെയാണ്	3365
ദിലീപ്	3366
പതിന	3367
##ാലയം	3368
##ിന്റെയും	3369
##ല്ലേ	3370
##നിന്ന	3371
തസ്ത	3372
##രാമ	3373
ജോര്‍ജ്	3374
ജാഗ്രത	3375
സ്വാത	3376
വീട്	3377
ലോട്ട	3378
##നിക്ക	3379
മുതല	3380
ഉറപ്പാക്ക	3381
അവതരിപ്പ	3382
##നവും	3383
##ിച്ചിരിക്കുകയാണ്	3384
##ങ്ങളായി	3385
സമാന	3386
വിവരങ്ങള്‍	3387
ഹോട്ട	3388
##ിരുദ	3389
നഗരസഭ	3390
പരിപാടിയ	3391
എങ്ങനെ	3392
##മാക്കിയ	3393
അംബ	3394
ഏര്‍	3395
നന്ദ	3396
##ിത്യ	3397
മേഖലയില്‍	3398
സ്ഥിരീകരിച്ചു	3399
##ആർ	3400
യോഗത്തില്‍	3401
ശിക്ഷ	3402
ഞങ്ങൾ	3403
തന്നെയ	3404
ഒരാള്‍	3405
##ങ്ങളോട്	3406
##ിച്ചതിന്	3407
കോടതിയില്‍	3408
യൂത്ത്	3409
വിവാഹം	3410
വനിതാ	3411
ഇവർ	3412
മാതൃ	3413
പിഴ	3414
അദ്ദേഹത്തിന്	3415
ഞെട്ട	3416
##ടുള്ള	3417
##ുണ്ടെന്ന്	3418
കര്‍ണാടക	3419
തിയ	3420
മട	3421
ഒടുവ	3422
ഗൂ	3423
മുഴുവന്‍	3424
##കരെ	3425
ഇരിക്ക	3426
റാ	3427
##ിച്ചിരുന്ന	3428
കാഴ്ച	3429
സ്റ്റേഷന	3430
സിപിഐ	3431
കർഷ	3432
ഇപ്പോഴ	3433
നാളെ	3434
അമ്പ	3435
മണ്ഡലത്തില്‍	3436
പ്രസിഡന്റ	3437
##ത്തിനിടെ	3438
##ുപോലെ	3439
ബിരുദ	3440
ഒരുപാട്	3441
കേസിലെ	3442
പാര്‍ട്ടിയ	3443
##ക്കര	3444
അദ്ദേഹത്തെ	3445
##സേന	3446
ഡിസം	3447
സുരക്ഷാ	3448
പരാമര്‍ശ	3449
സ്വാതന്ത്ര	3450
ശോഭ	3451
തിരിച്ചടിയ	3452
തസ്തിക	3453
പ്രവര്‍ത്തകര്‍	3454
##ങ്ങിയത്	3455
കുമാറ	3456
സ്ഥാനാര്‍ത്ഥി	3457
ഗവര്‍	3458
മാര	3459
ക്യാമ്പ	3460
##കുമാര്‍	3461
ശേഖ	3462
വ്യക്	3463
പങ്കുവെ	3464
##പ്പെടുത്തിയത്	3465
നിത	3466
തുക	3467
##പിഎ	3468
ഒരിക്കലും	3469
##ാണെങ്കില്‍	3470
##പാട	3471
##ിക്കണമെന്നും	3472
ക്വാറ	3473
ബുദ്ധിമു	3474
33	3475
##പ്പറ	3476
നേരെ	3477
36	3478
അന്ന	3479
##‍റെ	3480
##ശ്മ	3481
പ്രാദേശ	3482
##ഭാവ	3483
##ത്തിയിരുന്നു	3484
##കളിൽ	3485
##ണയ	3486
##കൊ	3487
വിമാനത്താവള	3488
അച്ഛ	3489
എച്ച്	3490
##ായാണ്	3491
##ൂരിലെ	3492
സ്‌കൂള	3493
ചീഫ്	3494
കാര്യമ	3495
അത്ര	3496
ശബ	3497
അതിനിടെ	3498
കൊണ്ടാണ്	3499
ഒപ്പം	3500
##വകു	3501
പറയുന്ന	3502
നിര്‍ദേശം	3503
ലോക്‌സഭാ	3504
ഉദ	3505
സംഭവത്തില്‍	3506
ഇത്രയും	3507
##ക്കുന്നത്	3508
പൂര്‍ണ	3509
അശ	3510
34	3511
റദ്ദ	3512
നിർമ്മ	3513
പുറത്തുവന്ന	3514
നടപ്പില	3515
താല	3516
##ഹത്യ	3517
വിജയ്	3518
അഭിഭാഷ	3519
രഹ	3520
പെരുമ	3521
ചേര	3522
ഉപയോഗിച്ച്	3523
എംഎൽ	3524
രോ	3525
##ളൂ	3526
##ിനെയും	3527
സ്വതന്ത്ര	3528
നിലവിലെ	3529
ഗ്രൂപ്പ്	3530
പ്രവാസ	3531
##ന്‍സ	3532
കൊലപാതക	3533
##ാന്	3534
##സിപ്പ	3535
മുറ	3536
കുത്ത	3537
ഡോസ്	3538
റോഡ്	3539
ജൂലൈ	3540
##ായാലും	3541
നേതൃത്വത്തില്‍	3542
രു	3543
##ചി	3544
വാഗ്ദ	3545
##ിച്ചതായി	3546
##യു	3547
##ത്തം	3548
നിങ്ങള്‍	3549
കാര്യത്തില്‍	3550
##ഘട്ട	3551
##ിക്കു	3552
കഴിഞ്ഞു	3553
നിര്‍ത്ത	3554
##ക്‌സ്	3555
##കന്‍	3556
വിസ	3557
പരിശീല	3558
സഹായം	3559
വിഷയത്തില്‍	3560
ജൂണ്‍	3561
37	3562
55	3563
ടോ	3564
##ർമ	3565
##ഡോ	3566
##ുണ്ടാക	3567
സൗകര്യ	3568
ടൂ	3569
ര്‍	3570
##ർത്തു	3571
ഇന്ത്യയില്‍	3572
സീറ്റുകള്‍	3573
തൃണമ	3574
പഴയ	3575
ട്വി	3576
##െത്ത	3577
##ലിൽ	3578
ജില്ലയിൽ	3579
പരാത	3580
ചെറ	3581
പ്രചാര	3582
സിന്	3583
കൈമാ	3584
എന്നിവരാണ്	3585
ചല	3586
##പ്പില്‍	3587
പിത	3588
ഉണ്ടാക്ക	3589
##ാണെന്നാണ്	3590
ഇന്ത്യയിലെ	3591
പരിഹരിക്ക	3592
പൂർത്തിയ	3593
##ർട്ട്	3594
##ിയുള്ള	3595
ഇതിനിടെ	3596
വസ്തു	3597
##േബ	3598
കാര്യങ്ങൾ	3599
അടിയന്തര	3600
എതിര	3601
സബ്	3602
##ാശാല	3603
ഫോണ്‍	3604
##ഗീയ	3605
സിദ്ദ	3606
വിദഗ്	3607
##മിക	3608
##റിന്	3609
##ങ്ങളുമായി	3610
എംഎൽഎ	3611
മാണി	3612
##കോട	3613
##ക്കിട	3614
##സ്സ്	3615
വിധി	3616
##ിട്ടുള്ള	3617
##കൃഷ്ണ	3618
പാകി	3619
പ്രാദേശിക	3620
നികുതി	3621
##ലാ	3622
പിന്നെ	3623
##ത്തിലായിരുന്നു	3624
കോളേജ്	3625
പെണ്‍കുട്ട	3626
##തെ	3627
##ളയ	3628
##ീല്‍	3629
ഏഴ	3630
ഒരുമ	3631
##ിരി	3632
##ന്‍ഡ്	3633
ചൂണ്ടിക്കാണ	3634
##രീ	3635
തേടിയ	3636
മദ്യ	3637
സ്കൂ	3638
നടപടികള്‍	3639
ഭരണം	3640
##ുമു	3641
റെയില്‍	3642
ഔദ്യോഗിക	3643
##ില്ലാതെ	3644
അഭ്യ	3645
##ംബര്‍	3646
##ന്നെ	3647
##ുകളിലെ	3648
തുടക്ക	3649
തിരഞ്ഞെടുക്ക	3650
ബാങ്ക്	3651
ഫെബ്ര	3652
തെരഞ്ഞെടുപ്പ്	3653
ക്ഷണ	3654
ചെന്നൈ	3655
75	3656
അജ	3657
##ലിക്ക	3658
സിംഗ	3659
##സ്‌ട്ര	3660
പാർട്ടിയ	3661
കമ്മിറ്റ	3662
രീതിയ	3663
യാദ	3664
മൃതദേഹം	3665
##നമ	3666
##ൽപ്പ	3667
ലഭിക്ക	3668
##ോമീറ്റ	3669
',	3670
##്മി	3671
ജനങ്ങള്‍	3672
കെപിസിസി	3673
സ്വാധീന	3674
##ോറി	3675
##ത്തെയും	3676
വ്യവസ	3677
കയ്യ	3678
##കലാശാല	3679
നിങ്ങൾ	3680
നിലയില്‍	3681
പാര്‍ല	3682
പ്രധാനമന്ത്ര	3683
തമ്മിലുള്ള	3684
42	3685
തന്ത്ര	3686
കേസുകള്‍	3687
പക	3688
രോഗബാധ	3689
സേന	3690
റണ്‍	3691
##ാക്കള്‍	3692
യുഎസ്	3693
സാമൂഹിക	3694
##ര്‍ഷ	3695
രാജ്യം	3696
സാഹചര്യത്തിൽ	3697
ഖത്ത	3698
##േറിയ	3699
നിമി	3700
48	3701
##ർമ്മ	3702
##ുവിനെ	3703
##മായിട്ട	3704
ബ്രിട്ട	3705
അണ	3706
ഇല്ലാത	3707
ഗത	3708
##നമാണ്	3709
##ുമാനം	3710
ആക്രമണം	3711
##ർജ	3712
വ്യാഴ	3713
ചൂണ്ടിക്കാട്ടി	3714
80	3715
നാ	3716
##ാനായി	3717
സിറ്റി	3718
യുക്ര	3719
ഫിറ	3720
സന്	3721
ദുരി	3722
കൂടിക്കാഴ്ച	3723
മുല്ല	3724
കഴിയുന്ന	3725
സംവിധാനം	3726
##ാതിര	3727
സമാധ	3728
കല്ല	3729
സച്ച	3730
##സ്വ	3731
ചെയ്‌	3732
പേരിൽ	3733
##കള്‍ക്ക്	3734
ഡൽ	3735
##ഫ്ര	3736
##ുകൾക്ക്	3737
തമിഴ്‌	3738
ചെയ്യാൻ	3739
അഡ്	3740
വ്യാപക	3741
അസി	3742
വട	3743
##ംസ്	3744
സൂപ്പ	3745
ഹിന്ദു	3746
പിന്‍വല	3747
ഗണ	3748
ആളുകള്‍	3749
സുരേന്ദ്രന്‍	3750
വാദം	3751
ആന്റ	3752
##തെന്നാണ്	3753
##ിയോടെ	3754
##ായിരുന്നില്ല	3755
യോ	3756
##ര്‍ഡ	3757
പ്രതിനിധ	3758
തൊട്ട	3759
ത്തി	3760
അവര	3761
##ിന്റ	3762
കുഴ	3763
##ൂരിൽ	3764
##ാര്‍ക്ക്	3765
വെട്ട	3766
ആയു	3767
ബന്ധുക്ക	3768
പരമ	3769
വിചാരണ	3770
ടിക്കറ്റ്	3771
##ഹിത	3772
കിലോമീറ്റ	3773
ധാരണ	3774
പള്ള	3775
##ക്കുമ	3776
ഓണ്‍	3777
##ിനോ	3778
##സ്‌ക	3779
##രിച്ച	3780
##ര്‍ത്തി	3781
ച്	3782
##മാക്കി	3783
##ലാണ്	3784
##ായം	3785
##ഴ്സ്	3786
അധികം	3787
ശബ്ദ	3788
##പറ	3789
##ലങ്ക	3790
##ഹ്	3791
##ൃദ	3792
##പ്പോഴാണ്	3793
റില	3794
വിധേയ	3795
വ്യക്തമാക്കുന്നു	3796
##യിട	3797
##ര്‍ട്ട്	3798
##നോ	3799
മൊഴി	3800
ഞായ	3801
##വറ	3802
എന്നിവര്‍	3803
സാമ്പിള	3804
തമ്മില്‍	3805
ജസ്റ്റ	3806
##ഗത	3807
വിഷയം	3808
##തിരഞ്ഞെടു	3809
കുറിച്ചു	3810
##പ്പെടും	3811
2020	3812
ഗവ	3813
##ാക്കും	3814
##ുമ്പോഴ	3815
##ംപ്	3816
##ക്കുന്ന	3817
തിരികെ	3818
വീട്ടിൽ	3819
തേട	3820
ഗുജറാ	3821
നശ	3822
മല്‍	3823
പൊലി	3824
മുക	3825
##ീത	3826
പോസിറ്റ	3827
നീണ്ട	3828
മീറ്റ	3829
38	3830
##ൗൺ	3831
ഉണ്ടാകും	3832
ചേർന്ന	3833
##െടുത്തത്	3834
അയച്ച	3835
അഫ്	3836
ഒപ്പ	3837
ഭാ	3838
മണ്ണ	3839
##ോക്ക്	3840
##ില്യ	3841
##ായില്ല	3842
##സ്പി	3843
പക്ഷെ	3844
താല്‍പര	3845
70	3846
അല്‍	3847
ഫാ	3848
കോണ്‍ഗ്രസില്‍	3849
....	3850
ആവശ്യപ്പെട്ട്	3851
43	3852
2016	3853
പ്രതികരിച്ചു	3854
ഇതിൽ	3855
മരിച്ചത്	3856
വയസ	3857
ഗുണ	3858
മാനേജ	3859
അന്താരാഷ്ട്ര	3860
ചൗ	3861
ഹി	3862
പേര്‍ക്കും	3863
കാട്ട	3864
പരിപാട	3865
ജാമ്യം	3866
അടുത്തി	3867
';	3868
ആഴ്ച	3869
എട്ട	3870
##ാറ്റ്	3871
സമർപ്പ	3872
ഇതിനെ	3873
നിരക്ക	3874
വോട്ടുകള്‍	3875
സന്ദർശ	3876
മോഹന്‍	3877
അഡ	3878
പാസ	3879
##ഷന	3880
കൊണ്ടുവര	3881
തിങ്കള	3882
മീഡിയയില്‍	3883
##ഗറ്റ	3884
##ര്‍മ്മ	3885
##രുന്ന്	3886
കോര്‍പ്പ	3887
##ുന്നതിനായി	3888
ടൂറി	3889
കൗണ്‍	3890
കശ്മ	3891
ട്ട	3892
ഭരണകൂ	3893
എവിടെ	3894
##ക്കാന്‍	3895
സ്ഥാനാര്‍ഥ	3896
ജീവിതം	3897
##പ്രദേശ്	3898
സജ്ജ	3899
നല്‍കുന്ന	3900
##രിക്കുന്ന	3901
അർ	3902
മാര്‍ച്ച്	3903
പ്രമേ	3904
##ക്ടോ	3905
കത്ത	3906
പന്ത	3907
##്യമുള്ള	3908
അവസാനിപ്പ	3909
ക്വാറന്റ	3910
കോര്‍പ്പറ	3911
!!	3912
##ബോ	3913
##ഫി	3914
##ുകൂ	3915
##ിന്ന	3916
പോരാട്ട	3917
##പ്പന	3918
##ുന്നതില്‍	3919
വെളിപ്പെടുത്ത	3920
ഹാജര	3921
ബാബു	3922
ഓഫീസര്‍	3923
എയര്‍	3924
വാക്സിന	3925
വനിത	3926
നെഗറ്റ	3927
എഎ	3928
##ിലായ	3929
ടാ	3930
ഭീകര	3931
##ത്തിൻ്റെ	3932
ബൂ	3933
ബസ്	3934
##മന	3935
##ഭരണ	3936
##ശ്വ	3937
മൂലം	3938
വിജയന്‍	3939
എതിരെ	3940
##േറെ	3941
##ാകെ	3942
ഡിജി	3943
എള	3944
മതിയ	3945
വരു	3946
ശക്ത	3947
##മെന്ന്	3948
##ുതിയ	3949
ജനുവരി	3950
വൈസ്	3951
മറ്റുള്ള	3952
##ിയിലും	3953
##ിക്കില്ല	3954
##പ്രവർത്ത	3955
മന്ത്രിസഭ	3956
##ബിഐ	3957
അടച്ച	3958
കർണാടക	3959
എല്‍ഡിഎഫ	3960
##ഴക്ക	3961
ഇരുവരും	3962
റിപ്പോര്‍ട്ടുകള്‍	3963
അടുത്തിടെ	3964
കണ്ട്	3965
ഭാഷ	3966
##പിത	3967
കണ്ടു	3968
ഏതെങ്കിലും	3969
ശബരി	3970
അവി	3971
##ുകാർ	3972
ഉടന്‍	3973
സിന്ധ്യ	3974
വെബ്	3975
അഴിമ	3976
##്മെ	3977
##ാമെന്ന്	3978
44	3979
നടത്തിയിരുന്നു	3980
വെല്ലുവിള	3981
ട്വിറ്റ	3982
##ത്തിന്‍റെ	3983
പ്രവർത്തന	3984
ജ്യോ	3985
##ുണ	3986
കുറയ	3987
##ര്‍ഡ്	3988
പോകുന്നത്	3989
പരിചയ	3990
39	3991
##നിന്ന്	3992
##ിച്ചിരുന്നത്	3993
##യിലൂടെ	3994
പ്രശ്ന	3995
നമ്മള്‍	3996
മുതിര്‍ന്ന	3997
ന്യ	3998
##ക്കൊപ്പം	3999
സ്വദേശിയായ	4000
തര്‍ക്ക	4001
##കരും	4002
##ുപേ	4003
##പ്ത	4004
മാനസ	4005
എൽഡിഎ	4006
ആലോച	4007
##സെ	4008
നിഷേധ	4009
പേർക്ക്	4010
മൊബൈ	4011
ജനറൽ	4012
ഉദ്ഘാടനം	4013
രഹസ	4014
##ാസം	4015
##്യൂട്ടി	4016
മാല	4017
ആത്മഹത്യ	4018
രാജിവെ	4019
സന്തോ	4020
കൂട്ടിച്ചേര്‍ത്തു	4021
അത്തര	4022
ഇതാണ്	4023
##ക്ഷിണ	4024
##ാരായ	4025
##ിനീയ	4026
ലഭിക്കുന്ന	4027
പൈല	4028
നിലനി	4029
സ്‌റ്റ	4030
##ര്‍ശന	4031
ഇറങ്ങ	4032
കണക്ക്	4033
വെട	4034
മരിച്ചു	4035
പണി	4036
വക	4037
##ശങ്ക	4038
##ദ്വ	4039
താലി	4040
##ങ്ങളിലേക്ക്	4041
##മായത്	4042
യുവതി	4043
കലാപ	4044
കാന	4045
##ത്തിലേ	4046
സാന്നി	4047
ട്രംപ്	4048
അധികൃതര്‍	4049
പരിക്കേറ്റ	4050
മൈ	4051
##വിന്	4052
##ാന്റെ	4053
നൂ	4054
##ീന്ദ്ര	4055
##ൈസ്	4056
##ത്തുള്ള	4057
പിറ	4058
ജനങ്ങളുടെ	4059
പ്രവര്‍ത്തക	4060
എല്‍ഡിഎഫ്	4061
തൊഴില്‍	4062
ന്യൂഡ	4063
റെക്കോ	4064
##ോഗ്യ	4065
ഉപതിരഞ്ഞെടു	4066
ഇല്ലാത്ത	4067
രജിസ്റ്റര്‍	4068
ഏജന്‍	4069
ടു	4070
##ഹാറ	4071
പ്രസംഗ	4072
ശാസ്ത്ര	4073
##ക്കള്‍	4074
പ്രദ	4075
##ാക്കുന്നത്	4076
സുധാകരന്‍	4077
ഗെ	4078
വേണു	4079
ദക്ഷിണ	4080
##ൈവ	4081
##ിക്കുന്നുണ്ട	4082
പ്രചാരണം	4083
ശബരിമല	4084
##േബ്യ	4085
ശനിയ	4086
ഷെ	4087
##റുകള്‍	4088
കണ്ടെത്തി	4089
കമ്പനി	4090
സ്പീക്ക	4091
താഴെ	4092
വരുത്ത	4093
രാജ്	4094
##യിലുള്ള	4095
##ുമായും	4096
സമുദായ	4097
##ഹരി	4098
##ായിട്ടാണ്	4099
പഞ്ചാബ	4100
##ണൽ	4101
##ംഗ്ല	4102
പദ്ധതിയ	4103
പ്രതിസന്ധി	4104
തുടര്‍ന്നാണ്	4105
ആം	4106
##ശേഖ	4107
##ുകയാണെന്നും	4108
കുറിപ്പ	4109
അറിയിച്ചത്	4110
ചേര്‍ന്ന്	4111
ആശുപത്രിയിൽ	4112
അറേബ്യ	4113
പ്രതിപക്ഷം	4114
വെള്ളിയ	4115
ബംഗാള	4116
കൃത്യമായ	4117
വിപണ	4118
താലിബ	4119
##ലിനെ	4120
##മായിരിക്കും	4121
ഏകദേശം	4122
സ്വപ്ന	4123
##ാലോചന	4124
അറിഞ്ഞ	4125
##യോട്	4126
##കളാണ്	4127
വെള്ളം	4128
ഗെയ	4129
നിര്‍ണായക	4130
41	4131
ഒക്ടോ	4132
##ുവെ	4133
മുന്നോട്ട	4134
##്യൂട്ട	4135
##സർ	4136
പങ്കാള	4137
ഉത്തര്‍	4138
2022	4139
യൂണി	4140
വ്യാപാര	4141
പദവ	4142
വടക്ക	4143
##ണക്കിന്	4144
##ായിട്ടുണ്ട്	4145
ജില്ലകളില്‍	4146
കൃത്യമായി	4147
##ഫല	4148
##ക്കൂ	4149
പ്രതികരണ	4150
ബാബ	4151
199	4152
ഓഫീസ്	4153
##ുപോയ	4154
അഡ്വ	4155
ഹൃദ	4156
##ിലെത്ത	4157
സമി	4158
ബുദ്ധിമുട്ട	4159
ഗതാഗ	4160
ഷി	4161
##ജന്യ	4162
ടൈ	4163
ഫി	4164
##ാനാക	4165
##ടിഞ്ഞ	4166
##രാക	4167
അവര്‍ക്ക്	4168
പ്രവൃ	4169
##തായും	4170
##ിപ്പിക്കുന്നത്	4171
കണ്ടെത്തിയത്	4172
ഭൂമ	4173
പത	4174
പ്പ	4175
##െയര്‍	4176
##ങ്കേത	4177
##ാറുണ്ട്	4178
ആശയ	4179
സുഹൃത്തു	4180
ഏജ	4181
ഒള	4182
##ഡില്‍	4183
തിരിച്ചു	4184
ഒരുക്ക	4185
ആവശ്യമായ	4186
##ഗ്ഗ	4187
##ായിട്ടില്ല	4188
ഓട	4189
##ാവശ്യ	4190
അതിനെ	4191
).	4192
വച്ച്	4193
മറുപടിയ	4194
ണ്	4195
മത്സ്യ	4196
2018	4197
കൊല്ലപ്പെട്ട	4198
അബ്ദു	4199
52	4200
നീതി	4201
##തോടെയാണ്	4202
##കുമാറ	4203
അഭിനയ	4204
ഉദ്ധ	4205
തൂ	4206
മയ	4207
##ര്‍ദ്ദ	4208
ജോലിയ	4209
നിയമനം	4210
പ്രൊഫ	4211
കെട്ടിട	4212
പരമാവധി	4213
ഭര്‍ത്ത	4214
##ൂപ	4215
##ത്തുട	4216
പിൻ	4217
##സിറ്റി	4218
കാപ്പ	4219
##തിനാൽ	4220
യാത്രക്കാര	4221
താത്	4222
49	4223
മിനി	4224
##ായുള്ള	4225
ഇടത്	4226
ഭാഗത്ത്	4227
മറിക	4228
കുടുംബം	4229
##ക്ട്	4230
##്യു	4231
##ിപ്പിച്ച്	4232
##വ്വാ	4233
മുന്നണ	4234
വിദഗ്ധ	4235
##ൈന്‍	4236
വെള	4237
പുറമെ	4238
അപമാന	4239
ക്ക	4240
കാണാന്‍	4241
##ക്ട്ര	4242
ആദ്യമായി	4243
വിളിച്ച്	4244
ഹരി	4245
##പൂര്‍	4246
##വില്‍	4247
##ളവ്	4248
വെറും	4249
രൂപയും	4250
മുന്നണി	4251
ലക്ഷ്യ	4252
##ിച്ചിട്ടുള്ളത്	4253
##േശ	4254
##ന്ത്യ	4255
##ുകളിലേക്ക്	4256
ന്ന	4257
കര്‍ഷക	4258
അസിസ്റ്റ	4259
ഘടക	4260
വരെയുള്ള	4261
##ത്തിന്റെയും	4262
അറിയാം	4263
പോകുന്ന	4264
##േക്കാള്‍	4265
വാക്സിൻ	4266
ബൈഡ	4267
സംവിധായക	4268
നിശ്ചയ	4269
വ്യവസായ	4270
65	4271
##ിക്കുന്നില്ല	4272
വ്യക്തമാക്കുന്നത്	4273
അഫ്ഗ	4274
തുടർന്ന	4275
കേരളത്തിന്റെ	4276
പ്രവര്‍ത്തനങ്ങള്‍	4277
കാലം	4278
##െടുപ്പ്	4279
##ംബർ	4280
അത്യ	4281
വന്ന്	4282
ഇവര്‍ക്ക്	4283
മുഖ്യമന്ത്രിയ	4284
46	4285
##വന്‍	4286
##ംഗളൂ	4287
പിന്തുണയ്ക്ക	4288
പ്രാഥ	4289
ഇക്കാര്യത്തില്‍	4290
##ിവ്	4291
സഖ്യം	4292
അഖില	4293
##ിനൊപ്പം	4294
നേരത്തേ	4295
ഇന്നത്തെ	4296
##യെന്ന്	4297
പിടിയ	4298
ശമ്പളം	4299
പ്രേക്ഷ	4300
##ഴിഞ്ഞ്	4301
പോലുള്ള	4302
കൈമാറ	4303
ഗോപി	4304
കസ്റ്റഡിയ	4305
##ക്സ്	4306
പ്രശ്‌നങ്ങള്‍	4307
47	4308
ഇക്ക	4309
മുന്നിൽ	4310
ങ്	4311
##യളവ	4312
##ര്‍ട്ട	4313
പൊള	4314
മന്ത്രാലയം	4315
മുതിർന്ന	4316
51	4317
ബാന	4318
##ിച്ചാൽ	4319
വന്നിരുന്നു	4320
കടുവ	4321
##ൊപ്പ	4322
##ിക്കാതെ	4323
സ്ഥാനത്ത്	4324
പശ്ചാത്തലത്തില്‍	4325
എമ്മ	4326
വര്‍ദ്ധ	4327
തിരഞ്ഞെടുപ്പിന്	4328
വ്യക്തമാക്കിയിരുന്നു	4329
ഏറ്റെടുക്ക	4330
##മാരായ	4331
ഉദ്ദേശ	4332
മടങ്ങ	4333
വച്ച	4334
നിര്‍മ	4335
ഞങ്ങളുടെ	4336
സിവ	4337
##പുരം	4338
നേതാക്കളെ	4339
സോഷ്യൽ	4340
കൂട്ടിച്ചേർത്തു	4341
ലോട്ടറി	4342
##ിലി	4343
##ിലുണ്ട്	4344
പേര്‍ക്കാണ്	4345
കുറ്റപ്പെടുത്തി	4346
രി	4347
##സിലെ	4348
പ്രതിയ	4349
##ഞ്ചേരി	4350
ഭക്ഷണം	4351
തിങ്കളാഴ്ച	4352
##ുവൈ	4353
##്യൂണി	4354
ഗ്രഹ	4355
തൃക്ക	4356
54	4357
ലാഭ	4358
വേള	4359
##പരമായി	4360
സുപ്രീംകോട	4361
##ദണ്ഡ	4362
കുടു	4363
##ോളജി	4364
നടത്തും	4365
ഭൂമി	4366
താക്ക	4367
##ക്രിയ	4368
##പ്രതി	4369
##സ്റ്റർ	4370
പെര	4371
സമ്മത	4372
കാസർ	4373
##ിക്കി	4374
##ുണ്ടായിരുന്ന	4375
മുൻപ്	4376
ഉത്തരവ്	4377
##മാകും	4378
##ബോധ	4379
##ിലോ	4380
##ര്‍ത്ഥ	4381
സൗജന്യ	4382
ചൊവ്വാ	4383
അട്ടി	4384
മമ്മ	4385
##ിപ്പിക്കുന്ന	4386
##ുന്നതായി	4387
ശാ	4388
##ുമെല്ലാം	4389
##ാക്കാൻ	4390
2017	4391
യുവാവ	4392
തുറന്ന്	4393
ഭൂരിപക്ഷം	4394
ഫെബ്രുവരി	4395
പ്രാഥമിക	4396
##ാതി	4397
മുഖ്യ	4398
ടെസ്റ്റ്	4399
##ാവശ	4400
രമ	4401
##േമ	4402
തിരിച്ചറിയ	4403
ഉദ്യോഗസ്ഥര്‍	4404
ആഗോള	4405
##‌നം	4406
വിട്ട്	4407
അറിയിച്ചിരുന്നു	4408
കക്ഷ	4409
##ിച്ചെങ്കിലും	4410
സംസ്ഥാനങ്ങളില്‍	4411
അക്കൗണ്ട	4412
അഭിനന്ദ	4413
സ്വാതന്ത്ര്യ	4414
അന്തര	4415
##നത്തിൽ	4416
##ാജ്	4417
##‌മെന്റ്	4418
##ാണം	4419
സംഭവത്തിൽ	4420
പ്രതികരിക്ക	4421
ഐസ	4422
ഫോട്ടോ	4423
##ന്മ	4424
##മുളള	4425
എയർ	4426
കപ്പ	4427
##തിൽ	4428
##ീയം	4429
തുടക്കം	4430
മാനദണ്ഡ	4431
മാര്‍ഗ	4432
തൃണമൂ	4433
വേണുഗോപ	4434
##ജീവിത	4435
##സ്‌ക്	4436
നല്‍കിയിരുന്നു	4437
നേതാക്കളുടെ	4438
കിര	4439
സംഭ	4440
##സ്ഥാന്‍	4441
കാരണമ	4442
വാങ്ങിയ	4443
സീനിയ	4444
##താര	4445
##െയോ	4446
സഹകര	4447
പഞ്ചായത്ത	4448
ഉള്‍പ്പെടെയുള്ള	4449
താലൂ	4450
##പ്പടെ	4451
ഉയർത്ത	4452
ഭാഗ്യ	4453
അധികാരം	4454
വിവരങ്ങൾ	4455
##ർദ്ദ	4456
സിദ്ധ	4457
##വ്വേ	4458
ആയിര	4459
സഹകരണ	4460
ഉറപ്പ്	4461
നേതാക്കളും	4462
##ധാവി	4463
##ിലേക്കാണ്	4464
കുവൈ	4465
ഡിവ	4466
##വഹ	4467
സർക്കാരിന്റെ	4468
അപ്പ	4469
നല്‍കാന്‍	4470
പ്രചരണ	4471
ഒക്കെ	4472
##സ്വാ	4473
##ന്‍ഡ	4474
##ാക്കുന്ന	4475
വൈദ്യുതി	4476
ഉത്തരവാദിത്ത	4477
സാങ്കേത	4478
##രാജ്	4479
ലഭിച്ചു	4480
സാധ്യതയുണ്ട്	4481
നന്ന	4482
ലേ	4483
##വുമായ	4484
##ർത്തിയ	4485
##ുന്നതിനിടെ	4486
കുട്ടി	4487
##കാര്യം	4488
##റിനെ	4489
കൊണ്ടുവന്ന	4490
സൗദ	4491
കുമാർ	4492
##വന	4493
##ർട്ട	4494
##ാമ്പ	4495
##ൊരാ	4496
##ജ്ര	4497
പെട്ടെന്ന്	4498
##ായിക	4499
പ്രശ	4500
##ാവിക	4501
##ഞ്ചായ	4502
മേധാവി	4503
വേദന	4504
90	4505
##20	4506
##ിലെത്തി	4507
തിരിച്ച്	4508
##സ്‌കാര	4509
മത്സരം	4510
കയറി	4511
##ാഴ്ച്ച	4512
##യെന്ന	4513
വിഷ്ണ	4514
ബസ	4515
##ങ്ങാട്	4516
##റ്റിൽ	4517
##ിലെത്തിയ	4518
ചെയര്‍മ	4519
മോഡ	4520
പാകിസ്ത	4521
നല്‍കിയിട്ടുണ്ട്	4522
##ട്രോള	4523
മണ്ഡലത്തിൽ	4524
തള്ളി	4525
വരാ	4526
##േത്	4527
##ല്‍ഹ	4528
##ക്രോ	4529
ഉടൻ	4530
നടപടികൾ	4531
ചാണ്ടി	4532
സമാധാന	4533
അങ്ങ	4534
ബേ	4535
##തായിരുന്നു	4536
##ുവെന്നും	4537
##ുപറ	4538
വിമത	4539
എന്തെങ്കിലും	4540
ടീം	4541
##കോട്	4542
##ബല	4543
നിലയിൽ	4544
പിന്നില്‍	4545
ആരോഗ്യമ	4546
റോബ	4547
##ുണ്ടായി	4548
വ്യവസ്ഥ	4549
നല്‍കുന്നത്	4550
കുറിപ്പ്	4551
പ്രഖ്യാപനം	4552
തോന്നിയ	4553
##ട്രോള്‍	4554
കാനഡ	4555
റ്	4556
##ൻഡ്	4557
##ിക്കെ	4558
##സ്ല	4559
##സ്തി	4560
പ്രചര	4561
സ്ഥലം	4562
മുന്നേറ്റ	4563
ചൈനീസ്	4564
മുഴുവൻ	4565
ഒമ്പ	4566
##റാഴ്ച	4567
##രുട	4568
തിരുവനന്തപുരത്ത്	4569
പ്രചരിപ്പ	4570
കെഎസ്	4571
ജനങ്ങളെ	4572
ബിജെപിയെ	4573
എന്‍സി	4574
പ്രോസിക്യ	4575
##ുവും	4576
##ിപ്പിക്ക	4577
##ക്കെട്ട	4578
ന്യൂന	4579
പശ്ചിമ	4580
ഭക്ഷണ	4581
പദവി	4582
ഞായറാഴ്ച	4583
സാങ്കേതിക	4584
ഐക്യ	4585
വാര	4586
##ാണു	4587
2023	4588
സാമൂഹ്യ	4589
ബുധനാ	4590
നേട്ടം	4591
കെട്ട	4592
##ഷ്യല്‍	4593
അഴ	4594
ജലീ	4595
##ർഷ	4596
##റുടെ	4597
കുറയ്ക്ക	4598
മാതൃക	4599
ബില്ല	4600
##നട	4601
##ഫോട	4602
പുറമേ	4603
ട്രംപ	4604
ശക്തമായി	4605
പോയത്	4606
സിനിമാ	4607
പുതുതായി	4608
##ീൻ	4609
##ണ്ടി	4610
സീറ്റില്‍	4611
രാശിക്കാര	4612
പൗരത്വ	4613
##വകുപ്പ്	4614
##ഹര	4615
നിയോഗ	4616
##രിക്കും	4617
കോടതിയെ	4618
എന്‍ഡിഎ	4619
പാര്‍ട്ടിയുടെ	4620
500	4621
പിര	4622
തുടര്‍ച്ച	4623
രാജി	4624
നിര്‍ബന്ധ	4625
രീതിയിൽ	4626
##്‌ള	4627
വാഗ്ദാനം	4628
##ാണുള്ളത്	4629
ഉയര്‍ത്ത	4630
അനുസരിച്ച്	4631
വെള്ളിയാഴ്ച	4632
കൺ	4633
##ായ്മ	4634
##ാമെന്നും	4635
ജില്ലകളിൽ	4636
ജസ്റ്റിസ്	4637
ജഡ്	4638
##ർത്തി	4639
##ചേ	4640
##ൃഷ്ണ	4641
ബാധിച്ച്	4642
തുറക്ക	4643
##യാത്ര	4644
നാഷ	4645
##ുവിന്	4646
##ംഗലം	4647
##ാർഥ	4648
##ശ്വാസം	4649
ബെംഗളൂ	4650
##െയായിരുന്നു	4651
അഭിപ്രായം	4652
ഗൗര	4653
തള	4654
##പതി	4655
വരുമാന	4656
പറയാന്‍	4657
##സ്പ്ര	4658
ബ്ലോക്ക്	4659
ഏപ്രില്‍	4660
ടൂറിസം	4661
തുല	4662
##ാംഗ	4663
പ്രവർത്തക	4664
ഇറക്ക	4665
നോട്ടീസ്	4666
57	4667
##ശേരി	4668
##വേദ	4669
രോഗമുക്തി	4670
53	4671
അസം	4672
##ചാര	4673
##ോഹ	4674
##ൗണ്ട്	4675
പ്രാധ	4676
വൈറല	4677
രേഖപ്പെടുത്തിയ	4678
##ര്യ	4679
##തോ	4680
##റാണ്	4681
##എന്‍	4682
നടക്കും	4683
മേഖലയിലെ	4684
സീസണ	4685
ശനിയാഴ്ച	4686
അതിൽ	4687
നിന്നു	4688
ഇന്‍സ്റ്റ	4689
ബാഗ	4690
##മുറ	4691
സിബിഐ	4692
പ്രവര്‍ത്തനം	4693
പഞ്ചാബ്	4694
2024	4695
##പ്രതീക്ഷ	4696
മാനസിക	4697
##രായി	4698
##നത്തിന്റെ	4699
##ജിത്	4700
രാജ്യത്തിന്റെ	4701
നൽകുന്ന	4702
##ിട്ടുണ്ടെന്നും	4703
കേന്ദ്രസർക്ക	4704
പാത	4705
##ിൻ	4706
##മിന	4707
##വിരുദ്ധ	4708
പരിധ	4709
പങ്കെടുത്തു	4710
സര്‍വ്വ	4711
രാശിക്കാര്‍ക്ക്	4712
കാസര്‍ഗോഡ്	4713
ഗവര്‍ണര്‍	4714
അരു	4715
കാവ	4716
##സ്മ	4717
##ിപ്പിക്കുന്നത	4718
കാണുന്നത്	4719
കളക്ടര്‍	4720
##ുന്നതിനുള്ള	4721
അസോ	4722
തങ്ങള്‍	4723
സങ്ക	4724
##ന്യം	4725
##ന്നൂര്‍	4726
സെപ്റ്റ	4727
പ്രഖ്യാപിച്ച	4728
പെൺകുട്ട	4729
കരാ	4730
##കക്ഷ	4731
##യുടെയും	4732
കാറ്റ	4733
പരിഗണന	4734
മോശം	4735
ഏഷ്യ	4736
ഭാവ	4737
യുപ	4738
##ിന്യ	4739
##ത്യം	4740
##പ്തി	4741
സാഹചര്യത്തിലാണ്	4742
കര്‍ശന	4743
രക്ത	4744
വനം	4745
ജോല	4746
##യോഗം	4747
##ത്തോടെയാണ്	4748
ലൈംഗ	4749
തകര്‍	4750
##ുന്നതോടെ	4751
സമ്പര്‍ക്കം	4752
തീവ്രവാദ	4753
ഇലക്ട്ര	4754
56	4755
പച്ച	4756
മാവ	4757
##ൽക്ക	4758
ഉപേക്ഷ	4759
അംഗീ	4760
ഹൈദ	4761
അന്തി	4762
റെഡ്	4763
വായ്പ	4764
ഉൾപ്പെടെയുള്ള	4765
ച്ച	4766
ന്‍	4767
സംഗ	4768
##യ്ക്കായി	4769
നേതൃത്വത്തിലുള്ള	4770
##ഭൂ	4771
വിമര്‍ശനം	4772
ഡല്‍ഹി	4773
ഇന്ത്യയിൽ	4774
നിർത്ത	4775
വ്യാപനം	4776
ട്വീറ്റ്	4777
നിലനില്‍ക്ക	4778
##ിയോട്	4779
##വാള	4780
##സ്‌പെ	4781
സ്റ്റാ	4782
എല്ലാവര	4783
ഏർ	4784
തന	4785
##വെന്നാണ്	4786
##ുമാര	4787
ഒരുക്കിയ	4788
##ികളുമായി	4789
##ാകുന്നത്	4790
##ാധിക	4791
വിശദീകരണം	4792
##ലൈന്‍	4793
ഓട്ട	4794
##ാക്കൾ	4795
##ജിത്ത്	4796
വ്യക്തമാക്കിയത്	4797
വാഹനം	4798
##ളെ	4799
എംപ	4800
##ിമിന	4801
കുടിയ	4802
ഭരണഘടന	4803
ഒരേ	4804
##തുട	4805
##ുകയോ	4806
##ിപ്പിക്കാന്‍	4807
രാജസ്ഥാന	4808
##ാക്കിയിട്ടുണ്ട്	4809
##ഹൃദ	4810
ന്യൂനപക്ഷ	4811
##െടുപ്പ	4812
നിര്‍മാണ	4813
അയ്യ	4814
മോദിയുടെ	4815
ഗാന്ധിയുടെ	4816
പ്രകടനം	4817
ശരീര	4818
നിതീഷ്	4819
പൊലിസ്	4820
അദ	4821
ദൗ	4822
##ൂട്ടി	4823
##ഭോ	4824
നിർദേശ	4825
സ്വര്‍ണം	4826
കേന്ദ്രസര്‍ക്ക	4827
എങ്കിലും	4828
ആധ	4829
വസ	4830
വോ	4831
##വേഷണ	4832
പാർല	4833
ബാധിച്ചത്	4834
സമ്മാനം	4835
ക്യാപ്റ്റ	4836
നിയന്ത്രണം	4837
രക്ഷാ	4838
ടിക്കറ്റ	4839
##െന്നു	4840
##ിവര	4841
ജനങ്ങൾ	4842
കണക്കിലെ	4843
ഇത്തരമൊരു	4844
സ്ഥാനാർത്ഥി	4845
അസോസിയ	4846
##ാനോ	4847
അതാണ്	4848
കണ്ടത്	4849
മണിക്കുട്ട	4850
ട്രെയിന	4851
##ർഡ്	4852
##ൊന്ന്	4853
സ്നേഹ	4854
രാജ്യസഭ	4855
ചര്‍ച്ചകള്‍	4856
ഒരാൾ	4857
സ്ഥലത്ത്	4858
ഡിവൈ	4859
കേള്‍	4860
##ഴ്സ	4861
##കുമാർ	4862
##ശേഷം	4863
നൂറ	4864
##ര്‍ജ	4865
വർദ്ധ	4866
കമ്മീഷന്‍	4867
സ്വപ്‌ന	4868
ഗൂഢ	4869
ഇപ്പോഴത്തെ	4870
മകന്‍	4871
രോഹി	4872
യൂറ	4873
##ികളിലും	4874
##ുണ്ടാവ	4875
ആദ്യത്തെ	4876
അശോ	4877
58	4878
തർക്ക	4879
ലാ	4880
##ർജി	4881
##ടുപ്പ	4882
വരുമാനം	4883
ചെറു	4884
##േഡ്	4885
ഒരുങ്ങ	4886
കാര്യമാണ്	4887
പരിശോധനയ്ക്ക്	4888
അല്ലെങ്കില്‍	4889
ക്ലാസ	4890
##ിക്കേണ്ടത്	4891
സൂപ്പര്‍	4892
ആന്റണി	4893
ആള്‍	4894
എഫ	4895
##ലുകള്‍	4896
##ോപ്പ	4897
ക്രിമിന	4898
അമേരിക്കന്‍	4899
എളുപ്പ	4900
##േയുള്ള	4901
ഇതു	4902
സാധ്യതയുണ്ട	4903
##എസ്എസ്	4904
ഇയാൾ	4905
ശശ	4906
മുദ്ര	4907
##ക്കെതിര	4908
ക്രൂര	4909
തൃശ്ശ	4910
ആക്ഷേപ	4911
##ഫലം	4912
##ിയായിരുന്നു	4913
മണിപ്പ	4914
പ്രഖ്യാപിച്ചു	4915
പഠന	4916
നിരീക്ഷണത്തില	4917
ഗവർ	4918
##ാവകാശ	4919
പരാതിയ	4920
##ിച്ചതെന്ന്	4921
ദിവസത്തെ	4922
##കൾക്ക്	4923
തേടി	4924
പാര്‍ട്ടിയില്‍	4925
ഭക്ഷ്യ	4926
വിതരണ	4927
ആയുധ	4928
അപ്രതീക്ഷ	4929
##ാസി	4930
##്രമ	4931
നോക്കിയ	4932
മത്സരിച്ച	4933
ഇതിനായി	4934
അസിസ്റ്റന്റ്	4935
എഐ	4936
റാവ	4937
##ഭേദ	4938
##ുകയാണെന്ന്	4939
##നെതിരെ	4940
രാഷ്ട്രീയം	4941
സര്‍ട്ടിഫ	4942
സര്‍വീസ്	4943
##പൊ	4944
##ണർ	4945
##റാം	4946
##ിക്കുമെന്നാണ്	4947
##ിപ്പറ	4948
വലിയൊരു	4949
ഇന്ധ	4950
##എല്‍	4951
##ിക്കണമെന്ന	4952
##ാക്കര	4953
സെക്ക	4954
ക്രിസ്	4955
കയറിയ	4956
വൈകീ	4957
കരുതുന്നത്	4958
മോഹന്‍ല	4959
വാത	4960
##പഞ്ചായ	4961
ജനത	4962
നടത്താന്‍	4963
കൈകാര്യം	4964
ആളുകൾ	4965
പൂർണ	4966
##േട്ട	4967
##ിയില	4968
##ുന്നതിനും	4969
തൊഴിൽ	4970
ശിവസേന	4971
സുരേന്ദ്രൻ	4972
ജോര്‍ജ	4973
ഏജന്‍സ	4974
അന്തിമ	4975
ഗ്	4976
ദീപ	4977
##ങ്ങളെയും	4978
രംഗത്ത	4979
തിരിച്ചടി	4980
മൊത്തം	4981
ഓപ്പറ	4982
കുന്ന	4983
##വുമാണ്	4984
പ്രണയ	4985
കൊവിഡ	4986
വ്യക്തമായ	4987
വിനോദ	4988
നന്ദി	4989
ഫിറോസ്	4990
ഭിന്ന	4991
##an	4992
കാലയളവ	4993
യാഥ	4994
മേഖലയിൽ	4995
വിളിച്ചു	4996
വിശേഷ	4997
പാവ	4998
റീ	4999
