{
  "version": "1.0",
  "truncation": null,
  "padding": null,
  "added_tokens": [
    {
      "id": 0,
      "content": "[UNK]",
      "single_word": false,
      "lstrip": false,
      "rstrip": false,
      "normalized": false,
      "special": true
    },
    {
      "id": 1,
      "content": "[CLS]",
      "single_word": false,
      "lstrip": false,
      "rstrip": false,
      "normalized": false,
      "special": true
    },
    {
      "id": 2,
      "content": "[SEP]",
      "single_word": false,
      "lstrip": false,
      "rstrip": false,
      "normalized": false,
      "special": true
    },
    {
      "id": 3,
      "content": "[PAD]",
      "single_word": false,
      "lstrip": false,
      "rstrip": false,
      "normalized": false,
      "special": true
    },
    {
      "id": 4,
      "content": "[MASK]",
      "single_word": false,
      "lstrip": false,
      "rstrip": false,
      "normalized": false,
      "special": true
    }
  ],
  "normalizer": {
    "type": "Sequence",
    "normalizers": [
      {
        "type": "NFKC"
      },
      {
        "type": "Lowercase"
      }
    ]
  },
  "pre_tokenizer": {
    "type": "Whitespace"
  },
  "post_processor": null,
  "decoder": {
    "type": "WordPiece",
    "prefix": "##",
    "cleanup": true
  },
  "model": {
    "type": "WordPiece",
    "unk_token": "[UNK]",
    "continuing_subword_prefix": "##",
    "max_input_chars_per_word": 100,
    "vocab": {
      "[UNK]": 0,
      "[CLS]": 1,
      "[SEP]": 2,
      "[PAD]": 3,
      "[MASK]": 4,
      "!": 5,
      "\"": 6,
      "#": 7,
      "$": 8,
      "%": 9,
      "&": 10,
      "'": 11,
      "(": 12,
      ")": 13,
      "*": 14,
      "+": 15,
      ",": 16,
      "-": 17,
      ".": 18,
      "/": 19,
      "0": 20,
      "1": 21,
      "2": 22,
      "3": 23,
      "4": 24,
      "5": 25,
      "6": 26,
      "7": 27,
      "8": 28,
      "9": 29,
      ":": 30,
      ";": 31,
      "<": 32,
      "=": 33,
      ">": 34,
      "?": 35,
      "@": 36,
      "[": 37,
      "\\": 38,
      "]": 39,
      "_": 40,
      "`": 41,
      "a": 42,
      "b": 43,
      "c": 44,
      "d": 45,
      "e": 46,
      "f": 47,
      "g": 48,
      "h": 49,
      "i": 50,
      "j": 51,
      "k": 52,
      "l": 53,
      "m": 54,
      "n": 55,
      "o": 56,
      "p": 57,
      "q": 58,
      "r": 59,
      "s": 60,
      "t": 61,
      "u": 62,
      "v": 63,
      "w": 64,
      "x": 65,
      "y": 66,
      "z": 67,
      "{": 68,
      "}": 69,
      "": 70,
      "£": 71,
      "¥": 72,
      "°": 73,
      "·": 74,
      "×": 75,
      "â": 76,
      "ñ": 77,
      "ڇ": 78,
      "ڈ": 79,
      "ډ": 80,
      "ं": 81,
      "अ": 82,
      "आ": 83,
      "इ": 84,
      "ए": 85,
      "औ": 86,
      "क": 87,
      "ग": 88,
      "च": 89,
      "ज": 90,
      "ट": 91,
      "ठ": 92,
      "ण": 93,
      "त": 94,
      "थ": 95,
      "द": 96,
      "ध": 97,
      "न": 98,
      "प": 99,
      "ब": 100,
      "भ": 101,
      "म": 102,
      "य": 103,
      "र": 104,
      "ल": 105,
      "व": 106,
      "श": 107,
      "ष": 108,
      "स": 109,
      "ह": 110,
      "ा": 111,
      "ि": 112,
      "ी": 113,
      "े": 114,
      "ो": 115,
      "ौ": 116,
      "्": 117,
      "।": 118,
      "ং": 119,
      "ব": 120,
      "ল": 121,
      "া": 122,
      "அ": 123,
      "ஆ": 124,
      "க": 125,
      "ச": 126,
      "ட": 127,
      "ண": 128,
      "த": 129,
      "ன": 130,
      "ப": 131,
      "ம": 132,
      "ய": 133,
      "ல": 134,
      "வ": 135,
      "ி": 136,
      "ீ": 137,
      "ு": 138,
      "ெ": 139,
      "ை": 140,
      "்": 141,
      "ം": 142,
      "ഃ": 143,
      "അ": 144,
      "ആ": 145,
      "ഇ": 146,
      "ഈ": 147,
      "ഉ": 148,
      "ഊ": 149,
      "ഋ": 150,
      "ഌ": 151,
      "എ": 152,
      "ഏ": 153,
      "ഐ": 154,
      "ഒ": 155,
      "ഓ": 156,
      "ഔ": 157,
      "ക": 158,
      "ഖ": 159,
      "ഗ": 160,
      "ഘ": 161,
      "ങ": 162,
      "ച": 163,
      "ഛ": 164,
      "ജ": 165,
      "ഝ": 166,
      "ഞ": 167,
      "ട": 168,
      "ഠ": 169,
      "ഡ": 170,
      "ഢ": 171,
      "ണ": 172,
      "ത": 173,
      "ഥ": 174,
      "ദ": 175,
      "ധ": 176,
      "ന": 177,
      "പ": 178,
      "ഫ": 179,
      "ബ": 180,
      "ഭ": 181,
      "മ": 182,
      "യ": 183,
      "ര": 184,
      "റ": 185,
      "ല": 186,
      "ള": 187,
      "ഴ": 188,
      "വ": 189,
      "ശ": 190,
      "ഷ": 191,
      "സ": 192,
      "ഹ": 193,
      "ാ": 194,
      "ി": 195,
      "ീ": 196,
      "ു": 197,
      "ൂ": 198,
      "ൃ": 199,
      "െ": 200,
      "േ": 201,
      "ൈ": 202,
      "ൊ": 203,
      "ോ": 204,
      "ൌ": 205,
      "്": 206,
      "ൗ": 207,
      "ൡ": 208,
      "൦": 209,
      "൪": 210,
      "൯": 211,
      "ൺ": 212,
      "ൻ": 213,
      "ർ": 214,
      "ൽ": 215,
      "ൾ": 216,
      "ൿ": 217,
      "‌": 218,
      "‍": 219,
      "‐": 220,
      "‟": 221,
      "•": 222,
      "′": 223,
      "⁄": 224,
      "€": 225,
      "₹": 226,
      "⃣": 227,
      "∙": 228,
      "▪": 229,
      "◼": 230,
      "◾": 231,
      "♀": 232,
      "♥": 233,
      "✌": 234,
      "✨": 235,
      "❓": 236,
      "❤": 237,
      "➡": 238,
      "⬛": 239,
      "ブ": 240,
      "ム": 241,
      "ラ": 242,
      "ル": 243,
      "ー": 244,
      "南": 245,
      "容": 246,
      "湘": 247,
      "美": 248,
      "": 249,
      "︎": 250,
      "️": 251,
      "🌹": 252,
      "🎖": 253,
      "🏻": 254,
      "🐟": 255,
      "👇": 256,
      "👉": 257,
      "👌": 258,
      "👏": 259,
      "💎": 260,
      "💚": 261,
      "🔘": 262,
      "🔥": 263,
      "🔸": 264,
      "🖤": 265,
      "🗃": 266,
      "😄": 267,
      "😍": 268,
      "😘": 269,
      "🙄": 270,
      "🙏": 271,
      "🚩": 272,
      "🤔": 273,
      "🤝": 274,
      "🤣": 275,
      "🤦": 276,
      "🥛": 277,
      "🥦": 278,
      "##െ": 279,
      "##e": 280,
      "##a": 281,
      "##d": 282,
      "##5": 283,
      "##1": 284,
      "##ര": 285,
      "##ി": 286,
      "##ാ": 287,
      "##ണ": 288,
      "##n": 289,
      "##l": 290,
      "##വ": 291,
      "##ങ": 292,
      "##്": 293,
      "##ട": 294,
      "##ഭ": 295,
      "##പ": 296,
      "##h": 297,
      "##ന": 298,
      "##ർ": 299,
      "##ഴ": 300,
      "##ച": 301,
      "##s": 302,
      "##i": 303,
      "##r": 304,
      "##u": 305,
      "##t": 306,
      "##റ": 307,
      "##8": 308,
      "##6": 309,
      "##ു": 310,
      "##സ": 311,
      "##ം": 312,
      "##g": 313,
      "##ൽ": 314,
      "##m": 315,
      "##o": 316,
      "##p": 317,
      "##ീ": 318,
      "##x": 319,
      "##b": 320,
      "##7": 321,
      "##ല": 322,
      "##അ": 323,
      "##ഷ": 324,
      "##ക": 325,
      "##ള": 326,
      "##ജ": 327,
      "##ത": 328,
      "##ധ": 329,
      "##ബ": 330,
      "##എ": 331,
      "##ോ": 332,
      "##ൾ": 333,
      "##മ": 334,
      "##യ": 335,
      "##2": 336,
      "##3": 337,
      "##ൂ": 338,
      "##േ": 339,
      "##ഘ": 340,
      "##ഹ": 341,
      "##c": 342,
      "##k": 343,
      "##f": 344,
      "##ൻ": 345,
      "##ഡ": 346,
      "##q": 347,
      "##ദ": 348,
      "##ഫ": 349,
      "##ൺ": 350,
      "##‌": 351,
      "##ഗ": 352,
      "##ഐ": 353,
      "##ശ": 354,
      "##ഥ": 355,
      "##ൊ": 356,
      "##0": 357,
      "##ഞ": 358,
      "##4": 359,
      "##ൌ": 360,
      "##9": 361,
      "##ൈ": 362,
      "##z": 363,
      "##ഠ": 364,
      "##v": 365,
      "##y": 366,
      "##ഇ": 367,
      "##!": 368,
      "##ൗ": 369,
      "##w": 370,
      "##>": 371,
      "##.": 372,
      "##ഊ": 373,
      "##j": 374,
      "##ഖ": 375,
      "##)": 376,
      "##ा": 377,
      "##थ": 378,
      "##ൃ": 379,
      "##ആ": 380,
      "##व": 381,
      "##श": 382,
      "##\"": 383,
      "##-": 384,
      "##ഉ": 385,
      "##ñ": 386,
      "##ഈ": 387,
      "##ഛ": 388,
      "##'": 389,
      "##_": 390,
      "##:": 391,
      "##ഓ": 392,
      "##‍": 393,
      "##,": 394,
      "##;": 395,
      "##😘": 396,
      "##?": 397,
      "##ब": 398,
      "##स": 399,
      "##த": 400,
      "##ഃ": 401,
      "##ഒ": 402,
      "##ि": 403,
      "##न": 404,
      "##ഢ": 405,
      "##क": 406,
      "##ज": 407,
      "##ह": 408,
      "##ഏ": 409,
      "##🐟": 410,
      "##൯": 411,
      "##प": 412,
      "##ൡ": 413,
      "##[": 414,
      "##ഌ": 415,
      "##🏻": 416,
      "##ഋ": 417,
      "##😍": 418,
      "##ए": 419,
      "##ठ": 420,
      "##′": 421,
      "##े": 422,
      "##ं": 423,
      "##र": 424,
      "##ட": 425,
      "##$": 426,
      "##ल": 427,
      "##य": 428,
      "##ौ": 429,
      "##ഝ": 430,
      "##ண": 431,
      "##भ": 432,
      "##ப": 433,
      "##💎": 434,
      "##🤝": 435,
      "##त": 436,
      "##द": 437,
      "##൪": 438,
      "##👌": 439,
      "##南": 440,
      "##美": 441,
      "##容": 442,
      "##म": 443,
      "##ー": 444,
      "##ム": 445,
      "##ブ": 446,
      "##ラ": 447,
      "##ण": 448,
      "##ന്": 449,
      "##്ക": 450,
      "##ന്ന": 451,
      "##്ത": 452,
      "##്ട": 453,
      "ക്ക": 454,
      "##്ര": 455,
      "ത്ത": 456,
      "##ില": 457,
      "##്ച": 458,
      "##ക്ക": 459,
      "##്പ": 460,
      "##്യ": 461,
      "ുന്ന": 462,
      "##ണ്": 463,
      "ും": 464,
      "##ല്": 465,
      "##ര്": 466,
      "##്റ": 467,
      "##ും": 468,
      "##ത്ത": 469,
      "##്ങ": 470,
      "##യി": 471,
      "പ്പ": 472,
      "##ണ്ട": 473,
      "##ട്ട": 474,
      "മാ": 475,
      "ച്ച": 476,
      "ന്": 477,
      "##ടെ": 478,
      "##ിന": 479,
      "##ള്": 480,
      "ങ്ങ": 481,
      "നി": 482,
      "വി": 483,
      "ുക": 484,
      "പ്ര": 485,
      "ില": 486,
      "##സ്": 487,
      "##ാര": 488,
      "ത്": 489,
      "##തി": 490,
      "##ച്ച": 491,
      "##ല്ല": 492,
      "##രു": 493,
      "ുന്നു": 494,
      "##റ്റ": 495,
      "##ക്": 496,
      "മു": 497,
      "യു": 498,
      "ാണ്": 499,
      "െന്ന": 500,
      "##ിയ": 501,
      "യാ": 502,
      "##ള്ള": 503,
      "##രി": 504,
      "യില": 505,
      "ിക്ക": 506,
      "തി": 507,
      "##ഞ്": 508,
      "്ര": 509,
      "ാന": 510,
      "##മാ": 511,
      "സ്": 512,
      "##െട": 513,
      "ങ്ങള": 514,
      "##പ്പ": 515,
      "##റെ": 516,
      "##ത്ര": 517,
      "ത്തില": 518,
      "ര്": 519,
      "എന്ന": 520,
      "ിയ": 521,
      "്യ": 522,
      "യി": 523,
      "##ക്ഷ": 524,
      "ിന": 525,
      "##ഞ്ഞ": 526,
      "സം": 527,
      "ചെ": 528,
      "ട്ട": 529,
      "രാ": 530,
      "കോ": 531,
      "##ത്": 532,
      "പറ": 533,
      "ക്ക്": 534,
      "കു": 535,
      "ിര": 536,
      "നട": 537,
      "ുള്ള": 538,
      "ത്തിന": 539,
      "##ങ്ങ": 540,
      "##യിര": 541,
      "്ട": 542,
      "##വി": 543,
      "ിച്ച": 544,
      "നേ": 545,
      "കള": 546,
      "പോ": 547,
      "പ്പെട": 548,
      "ുണ്ട": 549,
      "##ദേ": 550,
      "ില്ല": 551,
      "കേ": 552,
      "ചെയ": 553,
      "ന്ന": 554,
      "##്ല": 555,
      "ുന്നത": 556,
      "##ടി": 557,
      "ദ്": 558,
      "ിൽ": 559,
      "യും": 560,
      "റ്റ": 561,
      "##ാണ": 562,
      "പി": 563,
      "ന്ത": 564,
      "സി": 565,
      "ിട്ട": 566,
      "ത്തി": 567,
      "വര": 568,
      "വാ": 569,
      "##ാന": 570,
      "യുടെ": 571,
      "ിന്": 572,
      "പാ": 573,
      "##്മ": 574,
      "##ങ്ക": 575,
      "ടു": 576,
      "കൊ": 577,
      "സമ": 578,
      "##ോഗ": 579,
      "സാ": 580,
      "്റെ": 581,
      "നിന്ന": 582,
      "ുമ": 583,
      "##ിക": 584,
      "പേ": 585,
      "സ്വ": 586,
      "്ത്ര": 587,
      "##്യാ": 588,
      "രി": 589,
      "ഗ്ര": 590,
      "ഒരു": 591,
      "താ": 592,
      "തു": 593,
      "പറഞ്ഞ": 594,
      "ുണ്ട്": 595,
      "ാന്": 596,
      "ുകള": 597,
      "##റി": 598,
      "വെ": 599,
      "പു": 600,
      "മന": 601,
      "യെ": 602,
      "ില്": 603,
      "നാ": 604,
      "കാര": 605,
      "േക്ക": 606,
      "ണ്ട": 607,
      "ുകയ": 608,
      "ബി": 609,
      "##സ്ഥ": 610,
      "്ത്രി": 611,
      "ത്തെ": 612,
      "##ന്ന്": 613,
      "കാ": 614,
      "ന്ദ": 615,
      "ായ": 616,
      "ുടെ": 617,
      "##രെ": 618,
      "അത": 619,
      "ക്കാര": 620,
      "യാണ്": 621,
      "##ക്ത": 622,
      "ക്": 623,
      "##ഭി": 624,
      "രാജ": 625,
      "ിക": 626,
      "തിന": 627,
      "##താ": 628,
      "##ിവ": 629,
      "##രണ": 630,
      "##രാ": 631,
      "##ീസ": 632,
      "ദ്ദേ": 633,
      "##ംഗ": 634,
      "അവ": 635,
      "ന്ദ്ര": 636,
      "കൂ": 637,
      "തെ": 638,
      "##ട്": 639,
      "##ധി": 640,
      "റി": 641,
      "രു": 642,
      "ിന്റെ": 643,
      "ുറ": 644,
      "##ണി": 645,
      "ചെയ്ത": 646,
      "##ന്നെ": 647,
      "ാല": 648,
      "ായി": 649,
      "ായിര": 650,
      "യിൽ": 651,
      "ടുത്ത": 652,
      "##ന്ത": 653,
      "നടത്ത": 654,
      "തന്നെ": 655,
      "ചെയ്യ": 656,
      "കെ": 657,
      "സ്ഥ": 658,
      "##ില്ല": 659,
      "തീ": 660,
      "വീ": 661,
      "പ്പോ": 662,
      "േക്ക്": 663,
      "മാണ്": 664,
      "##ുക": 665,
      "ത്തിൽ": 666,
      "ഇത": 667,
      "പറയ": 668,
      "യില്": 669,
      "##പി": 670,
      "തുട": 671,
      "വും": 672,
      "##ളി": 673,
      "##്റ്റ": 674,
      "##മ്മ": 675,
      "##നി": 676,
      "യ്ക": 677,
      "യ്ക്ക": 678,
      "ഴി": 679,
      "##രം": 680,
      "നില": 681,
      "ാൻ": 682,
      "ണ്": 683,
      "നിയ": 684,
      "##ധ്യ": 685,
      "പോല": 686,
      "രോഗ": 687,
      "സ്റ്റ": 688,
      "എം": 689,
      "ങ്ങൾ": 690,
      "ടി": 691,
      "വേ": 692,
      "ദ്ദേഹ": 693,
      "ുമാ": 694,
      "##െടു": 695,
      "ാല്": 696,
      "തിര": 697,
      "നല്": 698,
      "സംസ്ഥ": 699,
      "േണ്ട": 700,
      "മെ": 701,
      "##ദ്യ": 702,
      "##്രമ": 703,
      "##കര": 704,
      "##ന്ധ": 705,
      "ത്ത്": 706,
      "##രള": 707,
      "മുഖ": 708,
      "##സി": 709,
      "ബാ": 710,
      "െങ്ക": 711,
      "ട്ടി": 712,
      "ുകയാണ": 713,
      "ഞെടു": 714,
      "##ന്റ": 715,
      "ുത്ത": 716,
      "രൂ": 717,
      "ക്കാ": 718,
      "കോണ്": 719,
      "ക്ഷ": 720,
      "##ുമ": 721,
      "സര്": 722,
      "ത്ര": 723,
      "ഉണ്ട": 724,
      "##ശ്യ": 725,
      "കാര്യ": 726,
      "##േഷ": 727,
      "##ായ": 728,
      "ഴിഞ്ഞ": 729,
      "##േശ": 730,
      "ന്ത്യ": 731,
      "ജന": 732,
      "ഡി": 733,
      "ക്കും": 734,
      "മ്പ": 735,
      "##വര": 736,
      "്യക്ത": 737,
      "##വാ": 738,
      "ഭാ": 739,
      "മേ": 740,
      "കേരള": 741,
      "രണ്ട": 742,
      "്പ": 743,
      "##ജെ": 744,
      "##ിര": 745,
      "ാവ": 746,
      "നേതാ": 747,
      "ിനെ": 748,
      "##ടു": 749,
      "്രതി": 750,
      "##ില്": 751,
      "ബിജെ": 752,
      "ബിജെപ": 753,
      "ിപ്പ": 754,
      "##ല്ലാ": 755,
      "ാക്ക": 756,
      "##കരി": 757,
      "്ഥ": 758,
      "പൊ": 759,
      "മായ": 760,
      "സു": 761,
      "ല്ല": 762,
      "പക്ഷ": 763,
      "വല": 764,
      "തോ": 765,
      "ഗ്രസ്": 766,
      "ള്": 767,
      "##ദി": 768,
      "തിരഞ്": 769,
      "രൂപ": 770,
      "##ഡി": 771,
      "##മ്പ": 772,
      "അതേ": 773,
      "##ോധ": 774,
      "##ാട": 775,
      "ലോ": 776,
      "എത്ത": 777,
      "##വര്": 778,
      "കണ്ട": 779,
      "ോട": 780,
      "എസ്": 781,
      "യായിര": 782,
      "ല്": 783,
      "യിലെ": 784,
      "ദിവ": 785,
      "വര്": 786,
      "സംഘ": 787,
      "പ്പ്": 788,
      "യോ": 789,
      "ിന്ന": 790,
      "വർ": 791,
      "മ്മ": 792,
      "##വിഡ": 793,
      "സീ": 794,
      "ലഭി": 795,
      "ദ്ധ": 796,
      "ാണ": 797,
      "നിര്": 798,
      "രാജ്യ": 799,
      "##ഷ്ട": 800,
      "##ട്ടി": 801,
      "ക്കള": 802,
      "വൈ": 803,
      "വന്ന": 804,
      "ദിവസ": 805,
      "ബന്ധ": 806,
      "##്വ": 807,
      "ശേഷ": 808,
      "ുകയും": 809,
      "നിര": 810,
      "##സമ": 811,
      "##ര്യ": 812,
      "ഇട": 813,
      "##മാന": 814,
      "##ണ്ണ": 815,
      "വിജ": 816,
      "മുന്ന": 817,
      "നിയമ": 818,
      "ുകൾ": 819,
      "ട്ര": 820,
      "##ദ്": 821,
      "ാത്ത": 822,
      "ആവ": 823,
      "യം": 824,
      "െതി": 825,
      "കൾ": 826,
      "ലക്ഷ": 827,
      "ജില്ല": 828,
      "അതേസമ": 829,
      "മുഖ്യ": 830,
      "ശി": 831,
      "##ോട്ട": 832,
      "##ീയ": 833,
      "സ്വദേ": 834,
      "പേര്": 835,
      "ദേശ": 836,
      "ുറത്ത": 837,
      "അന": 838,
      "ആവശ്യ": 839,
      "ിലും": 840,
      "##തെ": 841,
      "##ലി": 842,
      "ത്വ": 843,
      "ന്റ": 844,
      "##രോ": 845,
      "സർ": 846,
      "മറ്റ": 847,
      "ീകരി": 848,
      "തെന്ന": 849,
      "ജോ": 850,
      "പരി": 851,
      "ുട": 852,
      "ജീ": 853,
      "##്യാപ": 854,
      "സഭ": 855,
      "എന്": 856,
      "ആശ": 857,
      "ഞ്": 858,
      "##പടി": 859,
      "##ഴി": 860,
      "##ഞ്ച": 861,
      "റിപ്പ": 862,
      "പൂ": 863,
      "##ായി": 864,
      "ംബ": 865,
      "ലി": 866,
      "എന്ന്": 867,
      "ാം": 868,
      "##യും": 869,
      "ടുക്ക": 870,
      "ോര്": 871,
      "ണമ": 872,
      "ജി": 873,
      "െത്ത": 874,
      "ഇത്": 875,
      "##ുടെ": 876,
      "വലിയ": 877,
      "എല്ലാ": 878,
      "പേര": 879,
      "സഹ": 880,
      "നൽ": 881,
      "പാര്": 882,
      "ോടതി": 883,
      "യോഗ": 884,
      "ഞ്ച": 885,
      "##രുമ": 886,
      "പോലീസ": 887,
      "ചോ": 888,
      "##മി": 889,
      "കാണ": 890,
      "സംഭ": 891,
      "ഉപ": 892,
      "െതിരെ": 893,
      "ാർ": 894,
      "പരാ": 895,
      "ങ്ക": 896,
      "##ത്യ": 897,
      "ണം": 898,
      "ചി": 899,
      "ക്കി": 900,
      "തിരു": 901,
      "നൽക": 902,
      "യാണ": 903,
      "നീ": 904,
      "ോട്ട": 905,
      "ഉണ്ടാ": 906,
      "അറി": 907,
      "അറിയി": 908,
      "യുള്ള": 909,
      "##ണം": 910,
      "മായി": 911,
      "അറ": 912,
      "##തു": 913,
      "##ഷ്": 914,
      "്രവര്": 915,
      "##തല": 916,
      "മാത്ര": 917,
      "##ാല": 918,
      "ന്ന്": 919,
      "ംഗ": 920,
      "രീ": 921,
      "ുകള്": 922,
      "ച്ച്": 923,
      "തിരി": 924,
      "സീറ്റ": 925,
      "ിട": 926,
      "മി": 927,
      "ഭാഗ": 928,
      "ക്കു": 929,
      "ഗ്രസ": 930,
      "ധിക": 931,
      "##ദേശ": 932,
      "ന്നാ": 933,
      "മോ": 934,
      "ചേ": 935,
      "ണ്ട്": 936,
      "##യാ": 937,
      "പെ": 938,
      "##ുകള": 939,
      "വരെ": 940,
      "്റ്റ": 941,
      "വിശ": 942,
      "യിര": 943,
      "ികള": 944,
      "ൂടു": 945,
      "ഏറ്റ": 946,
      "ങ്ങന": 947,
      "ച്ചു": 948,
      "##ിനി": 949,
      "വില": 950,
      "##വേ": 951,
      "ുമായി": 952,
      "ശക്ത": 953,
      "അഭി": 954,
      "##ടന": 955,
      "പ്പോള": 956,
      "അനു": 957,
      "##വർ": 958,
      "ങ്ങനെ": 959,
      "്വ": 960,
      "##ോട": 961,
      "റെ": 962,
      "പിടി": 963,
      "േണ്ടി": 964,
      "രിശ": 965,
      "തിരുവ": 966,
      "ോള": 967,
      "തീരുമ": 968,
      "യൂ": 969,
      "വയ": 970,
      "ത്രി": 971,
      "അത്": 972,
      "ാതെ": 973,
      "രിശോധ": 974,
      "വോട്ട": 975,
      "ടക്ക": 976,
      "ാഗ": 977,
      "സ്ഥാന": 978,
      "പങ്ക": 979,
      "അന്": 980,
      "്പോ": 981,
      "##ാണ്": 982,
      "കി": 983,
      "ിത": 984,
      "ള്ള": 985,
      "നടപടി": 986,
      "ത്തന": 987,
      "ക്രമ": 988,
      "ിലെ": 989,
      "##ിത": 990,
      "മുണ്ട": 991,
      "കൈ": 992,
      "ുര": 993,
      "ജെ": 994,
      "##ങ്ങള": 995,
      "##ടിയ": 996,
      "ഡോ": 997,
      "##മായ": 998,
      "##ീപ": 999,
      "മാര": 1000,
      "##ചര": 1001,
      "രാഷ്ട": 1002,
      "പോക": 1003,
      "കോൺ": 1004,
      "ശ്രമ": 1005,
      "രണ്ട്": 1006,
      "##തിയ": 1007,
      "നേത": 1008,
      "സൂ": 1009,
      "##ുപ": 1010,
      "്ട്": 1011,
      "ിൻ": 1012,
      "ഇന്ന്": 1013,
      "നേതൃ": 1014,
      "ിറ്റ": 1015,
      "ാറ്റ": 1016,
      "പുതിയ": 1017,
      "നേര": 1018,
      "ശേഷം": 1019,
      "ഞ്ഞ": 1020,
      "ത്ഥ": 1021,
      "വെന്ന": 1022,
      "നന്ത": 1023,
      "സമയ": 1024,
      "അന്വേ": 1025,
      "ക്ര": 1026,
      "ിച്ച്": 1027,
      "##ഴ്": 1028,
      "##യില": 1029,
      "തൊ": 1030,
      "നടക്ക": 1031,
      "പല": 1032,
      "ൊരു": 1033,
      "##ക്ക്": 1034,
      "നിർ": 1035,
      "ഞാ": 1036,
      "ഓഫ": 1037,
      "ആര്": 1038,
      "സാഹ": 1039,
      "##ുംബ": 1040,
      "കള്": 1041,
      "ആശുപ": 1042,
      "കിയ": 1043,
      "ഭരണ": 1044,
      "്ഥിര": 1045,
      "പര": 1046,
      "മുത": 1047,
      "നടന്ന": 1048,
      "ക്കാർ": 1049,
      "ആണ്": 1050,
      "കുപ്പ": 1051,
      "ുള്ളത": 1052,
      "കാല": 1053,
      "വെച്ച": 1054,
      "മണി": 1055,
      "നു": 1056,
      "വിഷ": 1057,
      "ാത്ര": 1058,
      "ആരോ": 1059,
      "രോഗ്യ": 1060,
      "മണ്": 1061,
      "യായ": 1062,
      "്രീയ": 1063,
      "താണ്": 1064,
      "##വിധ": 1065,
      "നേതാവ": 1066,
      "്ല": 1067,
      "ങ്ങള്": 1068,
      "സെ": 1069,
      "കളില": 1070,
      "വിജയ": 1071,
      "ഏറ്റവ": 1072,
      "ആദ്യ": 1073,
      "കുറി": 1074,
      "തല": 1075,
      "ുവ": 1076,
      "ഷണ": 1077,
      "ിംഗ": 1078,
      "##ീകര": 1079,
      "##വിടെ": 1080,
      "കണ്ണ": 1081,
      "ശത": 1082,
      "സൗ": 1083,
      "ാധ": 1084,
      "കൂടി": 1085,
      "##വണ": 1086,
      "കൂട്ട": 1087,
      "ഖ്യാപ": 1088,
      "##പാട": 1089,
      "പുരം": 1090,
      "സംഭവ": 1091,
      "ിദ": 1092,
      "##ൈന": 1093,
      "ചില": 1094,
      "##പ്": 1095,
      "ക്കിയ": 1096,
      "മണ്ഡ": 1097,
      "##ദ്ധ": 1098,
      "##ഷ്യ": 1099,
      "പ്രവർ": 1100,
      "##സരി": 1101,
      "##സര": 1102,
      "തിക": 1103,
      "ണി": 1104,
      "##ോട്": 1105,
      "പാർ": 1106,
      "കൊവിഡ": 1107,
      "റ്റ്": 1108,
      "ീഡ": 1109,
      "മേഖ": 1110,
      "കേസ": 1111,
      "##ത്തര": 1112,
      "വിഭ": 1113,
      "മാറ്റ": 1114,
      "പ്രസ": 1115,
      "മേഖല": 1116,
      "കണ്ടെ": 1117,
      "മണ്ഡല": 1118,
      "##വന": 1119,
      "##ിൽ": 1120,
      "്ക": 1121,
      "മൊ": 1122,
      "വള": 1123,
      "കൃ": 1124,
      "ഷ്ട": 1125,
      "ാര": 1126,
      "സാഹചര": 1127,
      "##ക്ട": 1128,
      "ഗു": 1129,
      "യുണ്ട": 1130,
      "കോവിഡ": 1131,
      "ഴ്ച": 1132,
      "നെ": 1133,
      "ാക": 1134,
      "##ന്ദ": 1135,
      "ിപ്പി": 1136,
      "ഉയ": 1137,
      "ിദ്യാ": 1138,
      "റാ": 1139,
      "പ്പോഴ": 1140,
      "##ജി": 1141,
      "ിവ": 1142,
      "െയ": 1143,
      "മാക്ക": 1144,
      "കോടി": 1145,
      "തോടെ": 1146,
      "ചിത്ര": 1147,
      "സാധ്യ": 1148,
      "ഗോ": 1149,
      "ിനി": 1150,
      "സാധി": 1151,
      "പൊല": 1152,
      "ുണ്ടാ": 1153,
      "വരു": 1154,
      "ൂടുതല": 1155,
      "മൂ": 1156,
      "ശതമാന": 1157,
      "പൊലീസ": 1158,
      "##ാപ": 1159,
      "്സ": 1160,
      "യെന്ന": 1161,
      "ഫോ": 1162,
      "ജീവി": 1163,
      "##ഴിയ": 1164,
      "##േഖ": 1165,
      "ജ്": 1166,
      "ട്ടറി": 1167,
      "##ഹു": 1168,
      "മാസ": 1169,
      "ദ്ധതി": 1170,
      "പരാതി": 1171,
      "വിവാ": 1172,
      "തുടര്": 1173,
      "തും": 1174,
      "##രിട": 1175,
      "ില്ലാ": 1176,
      "ന്യ": 1177,
      "ഹി": 1178,
      "്രദേശ": 1179,
      "ാനി": 1180,
      "വിഭാ": 1181,
      "കട": 1182,
      "ദ്ദേശ": 1183,
      "യാത്ര": 1184,
      "ന്റെ": 1185,
      "ീഡിയ": 1186,
      "വരുടെ": 1187,
      "ത്യ": 1188,
      "വു": 1189,
      "രാഹു": 1190,
      "ാര്യ": 1191,
      "െത്തി": 1192,
      "വിഭാഗ": 1193,
      "##തിന്": 1194,
      "##ശ്": 1195,
      "ന്നാൽ": 1196,
      "##ത്ഥ": 1197,
      "നേരിട": 1198,
      "റോ": 1199,
      "##ിലെ": 1200,
      "##മാര": 1201,
      "നിങ്ങ": 1202,
      "ഉറ": 1203,
      "വഴി": 1204,
      "്യൂ": 1205,
      "തായി": 1206,
      "ആള": 1207,
      "കഴിയ": 1208,
      "തൃ": 1209,
      "##ാരണ": 1210,
      "ുട്ടി": 1211,
      "്ടു": 1212,
      "പ്പില": 1213,
      "ണ്ണ": 1214,
      "ഹാ": 1215,
      "ശ്ര": 1216,
      "കര്": 1217,
      "ുടുംബ": 1218,
      "തയ": 1219,
      "രുത്ത": 1220,
      "ജനങ്ങ": 1221,
      "വാക്": 1222,
      "രംഗ": 1223,
      "യുമാ": 1224,
      "ോർ": 1225,
      "അധ്യ": 1226,
      "ദു": 1227,
      "ഷന": 1228,
      "കണ": 1229,
      "ുള": 1230,
      "ാര്": 1231,
      "ങ്ങിയ": 1232,
      "വീട്ട": 1233,
      "ിപി": 1234,
      "മല": 1235,
      "മല്ല": 1236,
      "##വരെ": 1237,
      "നിലവ": 1238,
      "ഭൂ": 1239,
      "##യോഗ": 1240,
      "എല്": 1241,
      "മുന്": 1242,
      "ണ്ടു": 1243,
      "മുള്ള": 1244,
      "##ഷേ": 1245,
      "ൊക്ക": 1246,
      "ാധ്യ": 1247,
      "വിന": 1248,
      "മാറ": 1249,
      "ടെ": 1250,
      "##ഷേധ": 1251,
      "ശ്": 1252,
      "സേ": 1253,
      "ൂടെ": 1254,
      "##ശി": 1255,
      "##മേ": 1256,
      "##രേ": 1257,
      "േണ്ടത": 1258,
      "്വീകര": 1259,
      "റു": 1260,
      "##ഭ്യ": 1261,
      "##ക്ര": 1262,
      "ബ്": 1263,
      "ഇക്ക": 1264,
      "ന്തു": 1265,
      "ാള": 1266,
      "യേ": 1267,
      "ിസ": 1268,
      "##ഴ്ച": 1269,
      "തില": 1270,
      "താര": 1271,
      "ഹൈ": 1272,
      "കണ്ണൂ": 1273,
      "ിഡ": 1274,
      "മെന്റ": 1275,
      "ിറ": 1276,
      "പോയ": 1277,
      "ക്ഷേ": 1278,
      "ഇല്ല": 1279,
      "അംഗ": 1280,
      "നോ": 1281,
      "മില്ല": 1282,
      "ൂന്ന്": 1283,
      "ുകളില": 1284,
      "ഫല": 1285,
      "ജോലി": 1286,
      "പ്പോൾ": 1287,
      "ാലെ": 1288,
      "ലാ": 1289,
      "##മന": 1290,
      "പേക്ഷ": 1291,
      "ഉപയോഗ": 1292,
      "ിവര": 1293,
      "ഉറപ്പ": 1294,
      "##തിര": 1295,
      "െക്ര": 1296,
      "രിക്ക": 1297,
      "ാസ": 1298,
      "ചോദ്യ": 1299,
      "ത്സരി": 1300,
      "ാമ": 1301,
      "ക്കാന": 1302,
      "സിനി": 1303,
      "വിളി": 1304,
      "ോർട്ട": 1305,
      "ആയിര": 1306,
      "മത്": 1307,
      "കുറ": 1308,
      "##ഗ്": 1309,
      "##ഹന": 1310,
      "ാന്ധ": 1311,
      "സിനിമ": 1312,
      "ഭാര": 1313,
      "ധാന": 1314,
      "രോഗം": 1315,
      "വാര്": 1316,
      "രക്ഷ": 1317,
      "എണ്ണ": 1318,
      "ളുടെ": 1319,
      "ഉള്ള": 1320,
      "ാൽ": 1321,
      "ബ്ര": 1322,
      "മരണ": 1323,
      "##ിതി": 1324,
      "ഓഫീസ": 1325,
      "റിയ": 1326,
      "നും": 1327,
      "പ്പു": 1328,
      "##സാന": 1329,
      "വാദ": 1330,
      "തൊഴ": 1331,
      "കോഴ": 1332,
      "ൊക്കെ": 1333,
      "ഉള്": 1334,
      "##ക്ഷണ": 1335,
      "അഞ്ച": 1336,
      "ചിക": 1337,
      "യ്": 1338,
      "മഹ": 1339,
      "പോലും": 1340,
      "ന്തുണ": 1341,
      "##സ്സ": 1342,
      "ോദി": 1343,
      "ാധ്യമ": 1344,
      "യർ": 1345,
      "കര": 1346,
      "ഫ്": 1347,
      "തയ്യാ": 1348,
      "റ്റി": 1349,
      "ാനാ": 1350,
      "ശ്രീ": 1351,
      "##ധാന": 1352,
      "ഒന്ന": 1353,
      "##എം": 1354,
      "്രധാന": 1355,
      "ംബന്ധ": 1356,
      "അറിയ": 1357,
      "എത്തി": 1358,
      "ധാനമന": 1359,
      "വിട": 1360,
      "വിഷയ": 1361,
      "പ്രായ": 1362,
      "നായ": 1363,
      "ഇവിടെ": 1364,
      "്ത്രീ": 1365,
      "സ്ത": 1366,
      "ത്തോട": 1367,
      "നീക്ക": 1368,
      "നഗ": 1369,
      "അവര്": 1370,
      "രാഹുല": 1371,
      "##കള": 1372,
      "ുകാര": 1373,
      "##ാമ": 1374,
      "മായിര": 1375,
      "വ്യാപ": 1376,
      "##കട": 1377,
      "ചര്": 1378,
      "വിമ": 1379,
      "ത്യേ": 1380,
      "ശ്രമി": 1381,
      "ജീവിത": 1382,
      "യ്യ": 1383,
      "മരി": 1384,
      "ചികിത": 1385,
      "##ീഷ": 1386,
      "ക്കൂ": 1387,
      "തുടര": 1388,
      "ാറ": 1389,
      "യുഡി": 1390,
      "സാമ്പ": 1391,
      "യുഡിഎ": 1392,
      "ലൈ": 1393,
      "ലോക": 1394,
      "െല്ലാ": 1395,
      "തിഷേധ": 1396,
      "നമ്മ": 1397,
      "പങ്കെ": 1398,
      "വിശ്വ": 1399,
      "മുതല്": 1400,
      "കമ്മ": 1401,
      "ശന": 1402,
      "ന്ത്ര": 1403,
      "തന്": 1404,
      "കണക്ക": 1405,
      "ുധ": 1406,
      "സഭാ": 1407,
      "ത്യേക": 1408,
      "വരും": 1409,
      "##രുത": 1410,
      "കുറ്റ": 1411,
      "ദ്ദ": 1412,
      "്ത": 1413,
      "വിമാന": 1414,
      "പൊതു": 1415,
      "യായി": 1416,
      "പൂര്": 1417,
      "തീക്ഷ": 1418,
      "ആർ": 1419,
      "ിംഗ്": 1420,
      "ുളള": 1421,
      "വുമ": 1422,
      "പഞ്ച": 1423,
      "ത്തു": 1424,
      "ചോദി": 1425,
      "കോഴിക": 1426,
      "വാങ്ങ": 1427,
      "ലു": 1428,
      "ൊപ്പ": 1429,
      "ഇതിന": 1430,
      "െടെ": 1431,
      "##േജ": 1432,
      "##ൂഹ": 1433,
      "ന്തര": 1434,
      "ഉദ്യ": 1435,
      "ശക്തമ": 1436,
      "10": 1437,
      "ോട്": 1438,
      "ആരം": 1439,
      "സംഘടന": 1440,
      "##വിട": 1441,
      "##കാ": 1442,
      "വെള്ള": 1443,
      "നില്": 1444,
      "എന്ത": 1445,
      "തുവരെ": 1446,
      "ധികാര": 1447,
      "മറ്റ്": 1448,
      "ആരംഭി": 1449,
      "ാത്രം": 1450,
      "യത്ത": 1451,
      "കാരണം": 1452,
      "സ്ഥല": 1453,
      "ുമാണ്": 1454,
      "##ഴു": 1455,
      "വീണ്ട": 1456,
      "ിത്ത": 1457,
      "##ോടെ": 1458,
      "ശാ": 1459,
      "രേഖ": 1460,
      "പ്പി": 1461,
      "മുൻ": 1462,
      "ലക്ഷം": 1463,
      "##ോഷ": 1464,
      "മുമ്പ": 1465,
      "##ശ്ച": 1466,
      "##ങ്": 1467,
      "തേ": 1468,
      "്കോട്": 1469,
      "ൊപ്പം": 1470,
      "മാണ": 1471,
      "എന്നത": 1472,
      "##സാര": 1473,
      "തന്റെ": 1474,
      "ന്നും": 1475,
      "പഞ്ചാ": 1476,
      "വച്ച": 1477,
      "ിഡന്റ": 1478,
      "ണറ": 1479,
      "ില്ലി": 1480,
      "രീതി": 1481,
      "നൽകിയ": 1482,
      "നം": 1483,
      "പേർ": 1484,
      "ഇരു": 1485,
      "ിലാ": 1486,
      "്പോള്": 1487,
      "ബോ": 1488,
      "െന്ന്": 1489,
      "എഫ": 1490,
      "ഇനി": 1491,
      "സമീപ": 1492,
      "ഇവര്": 1493,
      "ഒഴ": 1494,
      "ഒഴിവ": 1495,
      "##പണ": 1496,
      "രണ്ടാ": 1497,
      "##യ്": 1498,
      "രാശി": 1499,
      "ആര": 1500,
      "ഇതോടെ": 1501,
      "േറ്റ": 1502,
      "ഡിഎ": 1503,
      "##മാറ": 1504,
      "െട": 1505,
      "##ക്കി": 1506,
      "ിലപാട": 1507,
      "സമ്പ": 1508,
      "എൽ": 1509,
      "വിവര": 1510,
      "മീ": 1511,
      "വളരെ": 1512,
      "തര": 1513,
      "ദേശീയ": 1514,
      "ഘട്ട": 1515,
      "വർഷ": 1516,
      "ിയത്": 1517,
      "സമ്മ": 1518,
      "ഉയര്": 1519,
      "ിനിടെ": 1520,
      "##റു": 1521,
      "അപ": 1522,
      "സൂച": 1523,
      "േസ": 1524,
      "്രദ്ധ": 1525,
      "സഖ": 1526,
      "ആരോപണ": 1527,
      "##വധ": 1528,
      "ാനാണ്": 1529,
      "നിരവധ": 1530,
      "ചേര്": 1531,
      "നല്ല": 1532,
      "ത്തവണ": 1533,
      "കരുത": 1534,
      "ഭാഗമാ": 1535,
      "##ീവ": 1536,
      "ാനും": 1537,
      "തിന്": 1538,
      "മെഡി": 1539,
      "ാണി": 1540,
      "ദേ": 1541,
      "ജോസ": 1542,
      "##ത്ത്": 1543,
      "േയും": 1544,
      "വൈറ": 1545,
      "ആഗ": 1546,
      "##പാ": 1547,
      "വിവിധ": 1548,
      "ആക": 1549,
      "മത്സര": 1550,
      "##വദ": 1551,
      "്ടിര": 1552,
      "വിജയി": 1553,
      "ദി": 1554,
      "ത്തകര": 1555,
      "അല്ല": 1556,
      "അനുവദ": 1557,
      "കുട്ട": 1558,
      "ള്ളി": 1559,
      "സിന": 1560,
      "പോലെ": 1561,
      "െടു": 1562,
      "ദ്യ": 1563,
      "്രവ": 1564,
      "ഷ്": 1565,
      "പഠ": 1566,
      "കൂട": 1567,
      "തെര": 1568,
      "എഫ്": 1569,
      "ക്കുമ": 1570,
      "ബാധ": 1571,
      "ിലൂ": 1572,
      "ക്കുറ": 1573,
      "ചൂ": 1574,
      "ത്തിക": 1575,
      "തങ്ങ": 1576,
      "വ്വ": 1577,
      "ർക്ക": 1578,
      "ഞാന്": 1579,
      "കല": 1580,
      "്യം": 1581,
      "ിലൂടെ": 1582,
      "ഹൈക്ക": 1583,
      "##കാശ": 1584,
      "തക": 1585,
      "ക്രമണ": 1586,
      "മാര്": 1587,
      "ീട്": 1588,
      "ചാ": 1589,
      "സന്": 1590,
      "വിക": 1591,
      "ഉത്തര": 1592,
      "കുള": 1593,
      "ടിസ്ഥ": 1594,
      "യുഎ": 1595,
      "ല്ലാ": 1596,
      "ളി": 1597,
      "തുടർ": 1598,
      "##ണമ": 1599,
      "യുവ": 1600,
      "വാഹന": 1601,
      "ണറായി": 1602,
      "പ്പിന": 1603,
      "ക്യാ": 1604,
      "സമര": 1605,
      "ഇതിന്": 1606,
      "##ലെ": 1607,
      "നഗര": 1608,
      "മ്പനി": 1609,
      "ക്കല്": 1610,
      "ഷന്": 1611,
      "അതി": 1612,
      "തിനെ": 1613,
      "##്റെ": 1614,
      "ത്തക": 1615,
      "സംവിധ": 1616,
      "പ്രശ്": 1617,
      "##മസ": 1618,
      "തികരി": 1619,
      "ടീ": 1620,
      "യില്ല": 1621,
      "ുത്തി": 1622,
      "എൻ": 1623,
      "നാട്ട": 1624,
      "തട": 1625,
      "കേസ്": 1626,
      "എനി": 1627,
      "്രവേശ": 1628,
      "യറ": 1629,
      "മഴ": 1630,
      "ഷക": 1631,
      "ാട": 1632,
      "താണ": 1633,
      "##ൃത": 1634,
      "ഒരാ": 1635,
      "ൂട്ട": 1636,
      "്ലാ": 1637,
      "വിവാഹ": 1638,
      "്രാ": 1639,
      "ദിന": 1640,
      "രെ": 1641,
      "ലീ": 1642,
      "സഖ്യ": 1643,
      "ഷൻ": 1644,
      "മാന": 1645,
      "തിൽ": 1646,
      "ിടെ": 1647,
      "##റോ": 1648,
      "ഗ്": 1649,
      "പാല": 1650,
      "ലോക്": 1651,
      "വിശദ": 1652,
      "നാല്": 1653,
      "ചൂണ്ട": 1654,
      "പരിഹ": 1655,
      "തവണ": 1656,
      "ുകൊ": 1657,
      "കർ": 1658,
      "അവർ": 1659,
      "പുറ": 1660,
      "ടിച്ച": 1661,
      "തൊഴില": 1662,
      "ആല": 1663,
      "പ്രാ": 1664,
      "സിംഗ": 1665,
      "ണെ": 1666,
      "രീക്ഷ": 1667,
      "തെരഞ്": 1668,
      "വൈക": 1669,
      "രുടെ": 1670,
      "ാലത്ത": 1671,
      "ിപിഎം": 1672,
      "##ികള": 1673,
      "പക്ഷേ": 1674,
      "ത്താ": 1675,
      "ബാധി": 1676,
      "സഹായ": 1677,
      "ശിനി": 1678,
      "ാർത്ഥ": 1679,
      "ആരോപി": 1680,
      "ഉൾ": 1681,
      "ന്യൂ": 1682,
      "ീഡിയോ": 1683,
      "േജ": 1684,
      "ആയ": 1685,
      "രും": 1686,
      "തിര്": 1687,
      "നവ": 1688,
      "നഷ്ട": 1689,
      "വികസ": 1690,
      "അമേ": 1691,
      "റില": 1692,
      "ജീവന": 1693,
      "നടപ്പ": 1694,
      "ഴ്": 1695,
      "ഉൾപ്പ": 1696,
      "ചെന്ന": 1697,
      "വ്യാ": 1698,
      "ക്കാട": 1699,
      "വിവ": 1700,
      "വിദേശ": 1701,
      "##ഷ്ണ": 1702,
      "ിങ്": 1703,
      "ൊച്ച": 1704,
      "അഞ്ച്": 1705,
      "##റോണ": 1706,
      "ഇറ": 1707,
      "ിറ്റി": 1708,
      "ല്ലാം": 1709,
      "കൊറോണ": 1710,
      "ഷി": 1711,
      "അന്ത": 1712,
      "ഫി": 1713,
      "പ്ല": 1714,
      "വ്യ": 1715,
      "ാപ": 1716,
      "കളെ": 1717,
      "ചൈന": 1718,
      "ികച്ച": 1719,
      "മുതൽ": 1720,
      "ീക്ഷണ": 1721,
      "ച്ചെ": 1722,
      "സ്ഥാപ": 1723,
      "റുപടി": 1724,
      "ൊച്ചി": 1725,
      "സമയം": 1726,
      "ീക": 1727,
      "ോട്ടയ": 1728,
      "എന്റെ": 1729,
      "പണം": 1730,
      "കമ്മി": 1731,
      "വിവരം": 1732,
      "തനി": 1733,
      "ലെ": 1734,
      "തിനാല": 1735,
      "എസ": 1736,
      "ിമ": 1737,
      "നേട്ട": 1738,
      "ഷം": 1739,
      "എംഎ": 1740,
      "കളുടെ": 1741,
      "ാഴ്ച": 1742,
      "ഞാൻ": 1743,
      "ദുര": 1744,
      "ക്ഷേപ": 1745,
      "അമ്മ": 1746,
      "അതുക": 1747,
      "അമേരി": 1748,
      "ത്തരം": 1749,
      "്മ": 1750,
      "ിയെ": 1751,
      "രിപാട": 1752,
      "ദില": 1753,
      "മൂല": 1754,
      "ശിവ": 1755,
      "ഭാഷ": 1756,
      "യിട്ട": 1757,
      "യൂണി": 1758,
      "ഗ്രൂ": 1759,
      "ണ്ഡ": 1760,
      "റിന": 1761,
      "അതുകൊ": 1762,
      "ണെന്ന": 1763,
      "കൃഷ്ണ": 1764,
      "##ടങ്ങ": 1765,
      "##തൽ": 1766,
      "ട്ടിക": 1767,
      "ഇടപ": 1768,
      "തമ്മ": 1769,
      "ജയ": 1770,
      "ക്ട": 1771,
      "ധന": 1772,
      "##വ്": 1773,
      "ണ്ടാണ": 1774,
      "നുമ": 1775,
      "ക്കര": 1776,
      "േഷ": 1777,
      "##റേ": 1778,
      "ക്കൊ": 1779,
      "ടക്കം": 1780,
      "ാലും": 1781,
      "കാരം": 1782,
      "സംസാര": 1783,
      "വന്": 1784,
      "അയ": 1785,
      "##ണാ": 1786,
      "്യു": 1787,
      "പ്രീ": 1788,
      "ദേവ": 1789,
      "ാവിലെ": 1790,
      "ഓരോ": 1791,
      "ാലി": 1792,
      "ാര്യം": 1793,
      "അപകട": 1794,
      "മത": 1795,
      "ക്കൂറ": 1796,
      "വന": 1797,
      "ൂടുതൽ": 1798,
      "ആളുകള": 1799,
      "തികരണ": 1800,
      "സംഭവി": 1801,
      "ടിക്ക": 1802,
      "എറ": 1803,
      "സിപി": 1804,
      "്രോ": 1805,
      "ഞ്ജ": 1806,
      "കാണി": 1807,
      "എറണാ": 1808,
      "ട്ട്": 1809,
      "ഇടപെട": 1810,
      "ധി": 1811,
      "ീകരണ": 1812,
      "തൃശ": 1813,
      "ഹമ്മ": 1814,
      "്റ്റേ": 1815,
      "ഹമ്മദ": 1816,
      "ൂര്": 1817,
      "കീ": 1818,
      "കളും": 1819,
      "ത്രണ": 1820,
      "നിയന്": 1821,
      "തൃശൂ": 1822,
      "അട": 1823,
      "ഇന്": 1824,
      "ജൂ": 1825,
      "ോളേജ": 1826,
      "ക്കൾ": 1827,
      "ദിലീപ": 1828,
      "##യാള": 1829,
      "ഷ്യ": 1830,
      "വിവാദ": 1831,
      "റിഞ്ഞ": 1832,
      "ബ്ദ": 1833,
      "ഡിഎഫ": 1834,
      "ധികം": 1835,
      "അതിന": 1836,
      "ൂർ": 1837,
      "ങ്ങി": 1838,
      "നാഥ": 1839,
      "സ്വര്": 1840,
      "സാമ": 1841,
      "ഷ്ട്ര": 1842,
      "പ്പുഴ": 1843,
      "ോസ": 1844,
      "തിരെ": 1845,
      "ുപ": 1846,
      "ഒരാള": 1847,
      "ർത്ഥ": 1848,
      "കുളം": 1849,
      "െറ്റ": 1850,
      "##റിയ": 1851,
      "ആകെ": 1852,
      "തിരോധ": 1853,
      "വരി": 1854,
      "അവകാശ": 1855,
      "ത്ഥി": 1856,
      "ൂട": 1857,
      "ഗ്രാമ": 1858,
      "ുരക്ഷ": 1859,
      "ചർ": 1860,
      "റോഡ": 1861,
      "സൂചന": 1862,
      "ുറഞ്ഞ": 1863,
      "ിയിര": 1864,
      "ൊന്ന": 1865,
      "വിലയി": 1866,
      "##ള്ളി": 1867,
      "ത്തര": 1868,
      "രാമ": 1869,
      "എംഎല്": 1870,
      "20": 1871,
      "േരി": 1872,
      "ഡ്": 1873,
      "യോടെ": 1874,
      "ോണ": 1875,
      "ഞ്ചാ": 1876,
      "രിയ": 1877,
      "ചർച്ച": 1878,
      "സന്ദ": 1879,
      "പുതു": 1880,
      "ിൻ്റെ": 1881,
      "ാതിര": 1882,
      "ീയ": 1883,
      "സമിതി": 1884,
      "##ൂല": 1885,
      "നുക": 1886,
      "ളവ": 1887,
      "15": 1888,
      "നുകൂല": 1889,
      "സൈ": 1890,
      "വേണ്ട": 1891,
      "േഷ്": 1892,
      "എന്നീ": 1893,
      "ികൾ": 1894,
      "തെറ്റ": 1895,
      "മെന്ന": 1896,
      "12": 1897,
      "നേട": 1898,
      "പക്ഷം": 1899,
      "ഫേ": 1900,
      "ുറന്ന": 1901,
      "വിമര്": 1902,
      "പാലി": 1903,
      "ഫോണ": 1904,
      "രാജി": 1905,
      "കും": 1906,
      "ാഗസ്ഥ": 1907,
      "അവസര": 1908,
      "പണി": 1909,
      "ഞങ്ങ": 1910,
      "##ത്തി": 1911,
      "ഒറ്റ": 1912,
      "നാട": 1913,
      "ഫേസ്": 1914,
      "സിന്": 1915,
      "ാനത്ത": 1916,
      "ബിഗ്": 1917,
      "മനസ്സ": 1918,
      "ടുവ": 1919,
      "മക": 1920,
      "ഴു": 1921,
      "േറെ": 1922,
      "ബാങ്ക": 1923,
      "പങ്കു": 1924,
      "കൂള": 1925,
      "ലം": 1926,
      "്പോൾ": 1927,
      "##സ്ത": 1928,
      "ിയാ": 1929,
      "രിഗ": 1930,
      "നടി": 1931,
      "ചുമ": 1932,
      "വിത": 1933,
      "ചാരണ": 1934,
      "കളി": 1935,
      "വാസി": 1936,
      "ാളി": 1937,
      "പാട": 1938,
      "വുമാ": 1939,
      "ട്വ": 1940,
      "പശ്ച": 1941,
      "ഉദ്യേ": 1942,
      "എംപി": 1943,
      "സുരേ": 1944,
      "ാകും": 1945,
      "രമ": 1946,
      "ിന്ദ": 1947,
      "രിഗണി": 1948,
      "കയ": 1949,
      "ഏത": 1950,
      "ുമോ": 1951,
      "വുന്ന": 1952,
      "ധ്യ": 1953,
      "നേടിയ": 1954,
      "ക്യ": 1955,
      "ന്നയി": 1956,
      "അതിന്": 1957,
      "െയി": 1958,
      "ാത്രി": 1959,
      "ഭ്യാ": 1960,
      "്ന": 1961,
      "ുരേഷ": 1962,
      "ഭ്യാസ": 1963,
      "##തീ": 1964,
      "ധികൃത": 1965,
      "ോടെ": 1966,
      "തുക": 1967,
      "വികസന": 1968,
      "ഏറെ": 1969,
      "കാര്": 1970,
      "11": 1971,
      "വിധി": 1972,
      "പ്പം": 1973,
      "യാക്ക": 1974,
      "കൊല്ല": 1975,
      "ബംഗ": 1976,
      "നുമതി": 1977,
      "നയി": 1978,
      "െയും": 1979,
      "ുറച്ച": 1980,
      "ട്രോ": 1981,
      "ുമായ": 1982,
      "ഫേസ്ബ": 1983,
      "ചെല": 1984,
      "അവിടെ": 1985,
      "അവസാന": 1986,
      "ാവസ്ഥ": 1987,
      "നങ്ങള": 1988,
      "േഴ്": 1989,
      "്ച": 1990,
      "സേന": 1991,
      "സമൂഹ": 1992,
      "ഏക": 1993,
      "വസാന": 1994,
      "പരാജ": 1995,
      "മ്മീഷ": 1996,
      "ോക്ക്": 1997,
      "മ്പര്": 1998,
      "ാറ്റി": 1999,
      "ധാ": 2000,
      "ഒഴിവാ": 2001,
      "ത്തിയ": 2002,
      "സന്ധി": 2003,
      "ആയി": 2004,
      "ിയുടെ": 2005,
      "ശക്തി": 2006,
      "ക്ല": 2007,
      "തമി": 2008,
      "പരാജയ": 2009,
      "ണ്ടിര": 2010,
      "ൊല്ല": 2011,
      "ഇത്തര": 2012,
      "ൂടിയ": 2013,
      "താന്": 2014,
      "മീറ്റ": 2015,
      "ളെ": 2016,
      "നോക്ക": 2017,
      "ടിയ": 2018,
      "ൈല": 2019,
      "##ക്ഷി": 2020,
      "അക്ക": 2021,
      "സംഗ": 2022,
      "ടക്കമ": 2023,
      "െഡ": 2024,
      "്താ": 2025,
      "ആത്": 2026,
      "ആത്മ": 2027,
      "യുവാ": 2028,
      "ത്തല": 2029,
      "പിന്": 2030,
      "ആദ്യം": 2031,
      "ആശങ്ക": 2032,
      "ആണ": 2033,
      "സത്യ": 2034,
      "ാത": 2035,
      "മൂന്ന": 2036,
      "ീറ്റ": 2037,
      "യര്": 2038,
      "മലപ്പ": 2039,
      "പീ": 2040,
      "മുട്ട": 2041,
      "ക്രി": 2042,
      "ഇടതു": 2043,
      "ൂടിയാ": 2044,
      "വസാനി": 2045,
      "നരേ": 2046,
      "ഗവ": 2047,
      "24": 2048,
      "പൂർ": 2049,
      "മറ്റു": 2050,
      "ബാല": 2051,
      "പദ": 2052,
      "##നാട": 2053,
      "വയനാട": 2054,
      "വില്ല": 2055,
      "ാണ്ട": 2056,
      "##റ്": 2057,
      "കക്ഷി": 2058,
      "വിരു": 2059,
      "രോഗി": 2060,
      "രജി": 2061,
      "വേഗ": 2062,
      "ാപ്പ": 2063,
      "##േരി": 2064,
      "സംശ": 2065,
      "ഭാര്യ": 2066,
      "വെളി": 2067,
      "ഭൂരി": 2068,
      "സൗദി": 2069,
      "തിനാ": 2070,
      "ൈറ്റ": 2071,
      "ാരണ": 2072,
      "ിറങ്ങ": 2073,
      "ബെ": 2074,
      "ആഗ്ര": 2075,
      "തിർ": 2076,
      "പ്പറേ": 2077,
      "ചേർ": 2078,
      "ിൽക്ക": 2079,
      "ന്തം": 2080,
      "സിംഗ്": 2081,
      "ുധാ": 2082,
      "ൂടാ": 2083,
      "സംശയ": 2084,
      "രം": 2085,
      "ക്രമി": 2086,
      "ിരി": 2087,
      "##യം": 2088,
      "ലഭ്യ": 2089,
      "മുസ്": 2090,
      "ുഴ": 2091,
      "്ഥിതി": 2092,
      "ലും": 2093,
      "പ്പിൽ": 2094,
      "ഫലം": 2095,
      "ുവരി": 2096,
      "ാരാ": 2097,
      "പുന": 2098,
      "##ഭവ": 2099,
      "രോ": 2100,
      "റിയി": 2101,
      "തമിഴ്": 2102,
      "ുഞ്ഞ": 2103,
      "്റ്റാ": 2104,
      "ാങ്ക": 2105,
      "ിസ്": 2106,
      "ഇതില്": 2107,
      "തീവ": 2108,
      "കൗ": 2109,
      "ഹരി": 2110,
      "കൊണ്ട": 2111,
      "ീന": 2112,
      "ല്‍": 2113,
      "വശ്യ": 2114,
      "കിട്ട": 2115,
      "വ്": 2116,
      "ിഴ": 2117,
      "കുന്ന": 2118,
      "ൂടാതെ": 2119,
      "അസ": 2120,
      "ുറം": 2121,
      "അന്ന്": 2122,
      "ൗണ്ട": 2123,
      "ൊല്ലം": 2124,
      "നന്ദ": 2125,
      "ഫാ": 2126,
      "വൃ": 2127,
      "ുധാകര": 2128,
      "ാക്കി": 2129,
      "കുമാര": 2130,
      "കുമ": 2131,
      "ത്തരവ": 2132,
      "ഗാ": 2133,
      "ദാ": 2134,
      "മാർ": 2135,
      "റ്റീവ": 2136,
      "പ്രീം": 2137,
      "വീസ": 2138,
      "ശരി": 2139,
      "##ത്തെ": 2140,
      "ന്തോഷ": 2141,
      "ഭൂമി": 2142,
      "ീസ്": 2143,
      "ആഗ്രഹ": 2144,
      "േസില്": 2145,
      "കില": 2146,
      "ബഹ": 2147,
      "്രക": 2148,
      "പോരാ": 2149,
      "വെക്ക": 2150,
      "മുഴു": 2151,
      "ക്ത": 2152,
      "്രശ്": 2153,
      "്രശ്ന": 2154,
      "ാധാരണ": 2155,
      "ക്രൈ": 2156,
      "എക്": 2157,
      "നൂ": 2158,
      "നിറ": 2159,
      "രണ്ടു": 2160,
      "പറ്റ": 2161,
      "ുവി": 2162,
      "താഴ": 2163,
      "യൂട്ട": 2164,
      "രജിസ്": 2165,
      "ക്കോ": 2166,
      "്രൈ": 2167,
      "്ടത്": 2168,
      "ണാട": 2169,
      "കര്യ": 2170,
      "വനി": 2171,
      "ിച്ചേ": 2172,
      "ത്തനം": 2173,
      "യോട്": 2174,
      "തിട്ട": 2175,
      "വനിത": 2176,
      "ക്കുക": 2177,
      "ണാടക": 2178,
      "പേരെ": 2179,
      "##ളന": 2180,
      "വീണ": 2181,
      "ശ്വാ": 2182,
      "പേരില": 2183,
      "ാട്ട": 2184,
      "മുഴുവ": 2185,
      "ക്കം": 2186,
      "റിസ": 2187,
      "മന്ത": 2188,
      "പൗ": 2189,
      "കുമാറ": 2190,
      "അഡ": 2191,
      "ജാ": 2192,
      "യാള": 2193,
      "നാണ്": 2194,
      "്മേ": 2195,
      "കളിൽ": 2196,
      "മായും": 2197,
      "്മേളന": 2198,
      "ഭീഷ": 2199,
      "##ർശ": 2200,
      "ൂന്ന": 2201,
      "റഷ്യ": 2202,
      "തിനി": 2203,
      "്യത": 2204,
      "വ്യവ": 2205,
      "##ബു": 2206,
      "ിങ്ങ": 2207,
      "##ളിവ": 2208,
      "ഭീഷണി": 2209,
      "ഗതി": 2210,
      "ജ്ജ": 2211,
      "ുടക്ക": 2212,
      "14": 2213,
      "ങ്ങളെ": 2214,
      "തകര്": 2215,
      "ുക്കി": 2216,
      "വീത": 2217,
      "##്പി": 2218,
      "ീഷ": 2219,
      "ത്തോ": 2220,
      "ത്തേ": 2221,
      "ശ്വാസ": 2222,
      "ചെലവ": 2223,
      "ീര": 2224,
      "നുഷ്യ": 2225,
      "യുവതി": 2226,
      "ച്": 2227,
      "നമ": 2228,
      "വാക്ക": 2229,
      "ോളം": 2230,
      "ുരേഷ്": 2231,
      "ല്ലോ": 2232,
      "വ്യവസ": 2233,
      "നോട്ട": 2234,
      "തെളിവ": 2235,
      "പേരും": 2236,
      "ജയി": 2237,
      "ദൃ": 2238,
      "ശേഖ": 2239,
      "ജ്ഞ": 2240,
      "ാധാന": 2241,
      "മഹാ": 2242,
      "ംര": 2243,
      "രണ": 2244,
      "രാജ്": 2245,
      "പോരാട": 2246,
      "സൈന": 2247,
      "പോയി": 2248,
      "സ്വപ്": 2249,
      "ഡോക്ട": 2250,
      "്ഷ": 2251,
      "ല്യ": 2252,
      "##ദര": 2253,
      "ലുള്ള": 2254,
      "വിതരണ": 2255,
      "ന്ധ": 2256,
      "ഘോഷ": 2257,
      "മുക്ത": 2258,
      "ംരക്ഷ": 2259,
      "അമി": 2260,
      "ഥാ": 2261,
      "ാസ്": 2262,
      "ാളികള": 2263,
      "ംഗത്ത": 2264,
      "ൂന്നാ": 2265,
      "ഇന്ന": 2266,
      "അനുഭവ": 2267,
      "ജോസഫ": 2268,
      "ീസ": 2269,
      "ിട്ടു": 2270,
      "സുഹ": 2271,
      "ഭേ": 2272,
      "താല": 2273,
      "ിഹ": 2274,
      "ോഷ്യ": 2275,
      "ാനം": 2276,
      "രിപ്പ": 2277,
      "50": 2278,
      "അഖ": 2279,
      "ീട": 2280,
      "30": 2281,
      "ഡല്": 2282,
      "ദ്ര": 2283,
      "ബ്ല": 2284,
      "ലയാ": 2285,
      "ോഷ്യല": 2286,
      "ായക": 2287,
      "െയ്": 2288,
      "യൊ": 2289,
      "മാറി": 2290,
      "റ്റര്": 2291,
      "##ച്ച്": 2292,
      "രിത്ര": 2293,
      "തോന്ന": 2294,
      "ലയാളി": 2295,
      "ഖാ": 2296,
      "ചുമതല": 2297,
      "ൃത": 2298,
      "പ്പമ": 2299,
      "വലി": 2300,
      "ഭേദ": 2301,
      "ക്വാ": 2302,
      "ലൈന": 2303,
      "രൂക്ഷ": 2304,
      "ഉയര": 2305,
      "ക്കൽ": 2306,
      "സഹായി": 2307,
      "ചു": 2308,
      "വിമർശ": 2309,
      "തെളി": 2310,
      "തിനിധ": 2311,
      "ലഭ്യമ": 2312,
      "സജ": 2313,
      "ഓഫ്": 2314,
      "ലിം": 2315,
      "ച്ഛ": 2316,
      "ശീ": 2317,
      "ിട്ടി": 2318,
      "ാഗത": 2319,
      "അര്": 2320,
      "കീഴ": 2321,
      "ആറ്": 2322,
      "ഞങ്ങള": 2323,
      "്റ": 2324,
      "ൃഷ്ട": 2325,
      "ഉണ്ട്": 2326,
      "ആന്റ": 2327,
      "ീടുകള": 2328,
      "മുംബ": 2329,
      "യല്ല": 2330,
      "പൗര": 2331,
      "അക": 2332,
      "ാഷ": 2333,
      "പ്പന": 2334,
      "യുഎഇ": 2335,
      "സാമൂഹ": 2336,
      "ലാല": 2337,
      "യിട": 2338,
      "ർത്ത": 2339,
      "വരിക": 2340,
      "ന്നലെ": 2341,
      "യുമ": 2342,
      "ഭാവ": 2343,
      "ോട്ട്": 2344,
      "ക്ഷേത": 2345,
      "മുംബൈ": 2346,
      "ചടങ്ങ": 2347,
      "##ോദര": 2348,
      "ന്താണ": 2349,
      "ടങ്ങ": 2350,
      "കുത്ത": 2351,
      "പതി": 2352,
      "ചേര": 2353,
      "ൻഡ": 2354,
      "ിന്ദു": 2355,
      "സുഹൃ": 2356,
      "കലാ": 2357,
      "13": 2358,
      "ിറ്റ്": 2359,
      "ോല": 2360,
      "ഡൗ": 2361,
      "വിജയം": 2362,
      "ഹാജ": 2363,
      "19": 2364,
      "ഫ്ര": 2365,
      "ഗ്രഹ": 2366,
      "യർന്ന": 2367,
      "ഹ്": 2368,
      "എതിര": 2369,
      "യോഗം": 2370,
      "ആരാ": 2371,
      "ഇൻ": 2372,
      "ബു": 2373,
      "വയസ്സ": 2374,
      "കൈമാറ": 2375,
      "ോബ": 2376,
      "നുസരി": 2377,
      "ചെറിയ": 2378,
      "പരാമ": 2379,
      "ഹര്": 2380,
      "ൃത്യ": 2381,
      "ക്കെ": 2382,
      "ളള": 2383,
      "്ലാസ": 2384,
      "മകന": 2385,
      "ഗസ്ഥ": 2386,
      "ംസ": 2387,
      "ാടക": 2388,
      "ാട്ടി": 2389,
      "ർശ": 2390,
      "ന്നി": 2391,
      "കുറവ": 2392,
      "യക്ക": 2393,
      "റ്റു": 2394,
      "മാക": 2395,
      "ഗുരു": 2396,
      "ിഷ": 2397,
      "ബീ": 2398,
      "മൊഴി": 2399,
      "കം": 2400,
      "ൃത്യമ": 2401,
      "ായ്": 2402,
      "ടാ": 2403,
      "സഹോദര": 2404,
      "കണ്": 2405,
      "രക്ഷാ": 2406,
      "സില": 2407,
      "്യാ": 2408,
      "തുറ": 2409,
      "18": 2410,
      "എഴു": 2411,
      "്രാല": 2412,
      "ിസി": 2413,
      "ട്രേ": 2414,
      "ഏറ്റെ": 2415,
      "ദൃശ്യ": 2416,
      "മല്": 2417,
      "ഹോ": 2418,
      "പ്രവ": 2419,
      "കരമാ": 2420,
      "േയ": 2421,
      "േശ": 2422,
      "##ചാര": 2423,
      "ഉള്ളത": 2424,
      "കെട്ട": 2425,
      "ഉദ്യോ": 2426,
      "ബംഗാ": 2427,
      "ജയില": 2428,
      "ഗുണ": 2429,
      "സാധ": 2430,
      "ഏജ": 2431,
      "സാക്ഷ": 2432,
      "ന്നു": 2433,
      "പശ്ചാ": 2434,
      "ിക്": 2435,
      "പെണ്": 2436,
      "പഠന": 2437,
      "നയ": 2438,
      "ുസ്": 2439,
      "##മസഭ": 2440,
      "ിയമസഭ": 2441,
      "്രാലയ": 2442,
      "ൃഷ്ടി": 2443,
      "രുത്": 2444,
      "ജനറ": 2445,
      "ലിന": 2446,
      "##ബ്": 2447,
      "ീഗ്": 2448,
      "ട്ടെ": 2449,
      "ഭക്ഷണ": 2450,
      "പെരു": 2451,
      "തായും": 2452,
      "എമാര": 2453,
      "ജാമ": 2454,
      "മുറി": 2455,
      "ജാമ്യ": 2456,
      "ാദ": 2457,
      "ടീമ": 2458,
      "ചെറു": 2459,
      "ശാല": 2460,
      "ന്ദര്": 2461,
      "ംഗീകര": 2462,
      "ഷോ": 2463,
      "്മി": 2464,
      "മിഷ": 2465,
      "സൂര്യ": 2466,
      "25": 2467,
      "ജു": 2468,
      "്യോ": 2469,
      "വൈറസ്": 2470,
      "ര്യ": 2471,
      "വന്നു": 2472,
      "കോര്": 2473,
      "വയ്": 2474,
      "##ീന": 2475,
      "പോള": 2476,
      "യോഗി": 2477,
      "്രി": 2478,
      "ിക്ഷ": 2479,
      "എന്നി": 2480,
      "പര്യ": 2481,
      "ിരക്ക": 2482,
      "ഭാഗ്യ": 2483,
      "കാസ": 2484,
      "സ്ഥാ": 2485,
      "സെന്റ": 2486,
      "ിരു": 2487,
      "തട്ടി": 2488,
      "പത്ര": 2489,
      "ിബ": 2490,
      "ുക്ക": 2491,
      "െട്ടി": 2492,
      "ഹൃ": 2493,
      "്താവന": 2494,
      "പദവി": 2495,
      "ിനായി": 2496,
      "ിഫ": 2497,
      "##ലീ": 2498,
      "##രുഷ": 2499,
      "ിടക്ക": 2500,
      "ശേഖര": 2501,
      "പുറമ": 2502,
      "എസ്പി": 2503,
      "എന്നെ": 2504,
      "സഹകര": 2505,
      "േബ": 2506,
      "മുരള": 2507,
      "പുരുഷ": 2508,
      "ീവ്": 2509,
      "പീഡ": 2510,
      "മധ്യ": 2511,
      "്യത്യ": 2512,
      "പിസി": 2513,
      "ചൊ": 2514,
      "വേണമ": 2515,
      "ാവും": 2516,
      "ത്തോള": 2517,
      "ടേ": 2518,
      "ിയങ്ക": 2519,
      "തടയ": 2520,
      "ീത": 2521,
      "##ദേഹ": 2522,
      "ശ്ശ": 2523,
      "രുത": 2524,
      "ാതാ": 2525,
      "ുദ്": 2526,
      "ൃതദേഹ": 2527,
      "ൂര": 2528,
      "യാള്": 2529,
      "െയര്": 2530,
      "ചരണ": 2531,
      "രവ": 2532,
      "ുപോ": 2533,
      "കിട": 2534,
      "യറ്റ": 2535,
      "ൻസ": 2536,
      "സിസി": 2537,
      "കിലോ": 2538,
      "ഹൃദ": 2539,
      "പ്ലാ": 2540,
      "ർഗ": 2541,
      "സോ": 2542,
      "ഫെ": 2543,
      "ബാബു": 2544,
      "വാദി": 2545,
      "താല്": 2546,
      "ജനാ": 2547,
      "പ്പൂ": 2548,
      "ഹോട്ട": 2549,
      "അയച്ച": 2550,
      "##മസി": 2551,
      "താമസി": 2552,
      "ാട്": 2553,
      "##ംപ": 2554,
      "ട്രംപ": 2555,
      "എച്ച്": 2556,
      "ഞ്ചാബ": 2557,
      "ടോ": 2558,
      "ണു": 2559,
      "സഞ്ച": 2560,
      "ാതി": 2561,
      "ിവിട": 2562,
      "ുദ്ധി": 2563,
      "ബിസി": 2564,
      "ാടി": 2565,
      "ിവി": 2566,
      "റൂ": 2567,
      "വരുമ": 2568,
      "കളക്ട": 2569,
      "ിത്തല": 2570,
      "##സ്യ": 2571,
      "എന്ത്": 2572,
      "്രൈവ": 2573,
      "ഗത": 2574,
      "ൂക്ക": 2575,
      "ഇസ": 2576,
      "നിശ്ച": 2577,
      "##പാത": 2578,
      "ഭയ": 2579,
      "ൈസ്": 2580,
      "ിറക്ക": 2581,
      "ഹാജരാ": 2582,
      "ആരാധ": 2583,
      "രില": 2584,
      "ുവന്ന": 2585,
      "ജനറല്": 2586,
      "തീവ്ര": 2587,
      "ഇസ്ര": 2588,
      "സിദ്ധ": 2589,
      "ദ്യമാ": 2590,
      "ധരി": 2591,
      "ലപാത": 2592,
      "തൊട": 2593,
      "ഭാരത": 2594,
      "ളയ": 2595,
      "േര": 2596,
      "ർജ": 2597,
      "ഇതേ": 2598,
      "സജീവ": 2599,
      "ാധീന": 2600,
      "ോട്ടോ": 2601,
      "ുസ്ലീ": 2602,
      "രക്ക്": 2603,
      "ോവ": 2604,
      "ിനോട്": 2605,
      "വരികയ": 2606,
      "ിടയില": 2607,
      "െയിന": 2608,
      "സേവന": 2609,
      "വീട": 2610,
      "മലയാള": 2611,
      "വിചാര": 2612,
      "കാശ": 2613,
      "തോമ": 2614,
      "ുരത്ത": 2615,
      "ജെഡി": 2616,
      "ഇവർ": 2617,
      "സൈനിക": 2618,
      "ലപാതക": 2619,
      "മനസ": 2620,
      "പ്റ്റ": 2621,
      "ട്രാ": 2622,
      "തിനാൽ": 2623,
      "ച്ചയാ": 2624,
      "ടെക്": 2625,
      "ടമ": 2626,
      "പോവ": 2627,
      "മോശ": 2628,
      "17": 2629,
      "കഴി": 2630,
      "്പോഴ": 2631,
      "ംപ": 2632,
      "##ാരാ": 2633,
      "തീര്": 2634,
      "ുമാര്": 2635,
      "ടൂ": 2636,
      "മര": 2637,
      "ഡോസ": 2638,
      "്രകടന": 2639,
      "ആഭ്യ": 2640,
      "ഷിക": 2641,
      "ർക്കം": 2642,
      "ഡൽ": 2643,
      "മഹാരാ": 2644,
      "ഇറങ്ങ": 2645,
      "ുകളും": 2646,
      "പണ": 2647,
      "മിന": 2648,
      "നിയമന": 2649,
      "നമു": 2650,
      "ഖ്": 2651,
      "കുടി": 2652,
      "ാവധി": 2653,
      "സംഘട": 2654,
      "ഒരി": 2655,
      "വെട": 2656,
      "##ധര": 2657,
      "കേട്ട": 2658,
      "സ്വയം": 2659,
      "ശ്വര": 2660,
      "നാല": 2661,
      "പ്രവച": 2662,
      "വില്": 2663,
      "നാണ": 2664,
      "ടന്ന": 2665,
      "ിത്": 2666,
      "പരസ്യ": 2667,
      "കമ": 2668,
      "16": 2669,
      "##മാർ": 2670,
      "കുമാർ": 2671,
      "##ചയ": 2672,
      "ഹിത": 2673,
      "ലംഘ": 2674,
      "യോട": 2675,
      "വെടി": 2676,
      "ണയ": 2677,
      "അഭ്യ": 2678,
      "പരമ": 2679,
      "ഗ്ദ": 2680,
      "ാമി": 2681,
      "ിള": 2682,
      "െന്": 2683,
      "വേണ": 2684,
      "റേ": 2685,
      "വിധ": 2686,
      "അതില": 2687,
      "ചിന്ത": 2688,
      "അക്രമ": 2689,
      "40": 2690,
      "മര്": 2691,
      "തേട": 2692,
      "താഴെ": 2693,
      "എത്ര": 2694,
      "കൂടെ": 2695,
      "ിപിഐ": 2696,
      "കരം": 2697,
      "ീകര": 2698,
      "യേറ്റ": 2699,
      "ത്തിര": 2700,
      "കാരണ": 2701,
      "അവത": 2702,
      "്വാ": 2703,
      "ദുബ": 2704,
      "വ്യാജ": 2705,
      "ലക്ട": 2706,
      "നിവ": 2707,
      "തടസ": 2708,
      "##ധിക": 2709,
      "കോട": 2710,
      "പുരോ": 2711,
      "വൃത്ത": 2712,
      "പത്യ": 2713,
      "വെറ": 2714,
      "വെല്ല": 2715,
      "ജീവ": 2716,
      "ജനാധി": 2717,
      "തോമസ്": 2718,
      "യാക": 2719,
      "##ാപി": 2720,
      "്ഥാപി": 2721,
      "നിത": 2722,
      "ചീ": 2723,
      "##്രത": 2724,
      "ശാന്ത": 2725,
      "ഘാട": 2726,
      "ബന്ധു": 2727,
      "ഇന്റ": 2728,
      "ന്തമാ": 2729,
      "##സിൽ": 2730,
      "ഞ്ച്": 2731,
      "യറക്ട": 2732,
      "അമിത്": 2733,
      "രഹ": 2734,
      "ൈക്ക": 2735,
      "ഇരുവര": 2736,
      "പത്ത": 2737,
      "ിഞ്ഞ": 2738,
      "പ്രോ": 2739,
      "പറയാന": 2740,
      "ഡോള": 2741,
      "ഒഴി": 2742,
      "പ്രകട": 2743,
      "ശാസ്ത": 2744,
      "ശമ്പ": 2745,
      "േഹ": 2746,
      "കയറ": 2747,
      "ശമ്പള": 2748,
      "ുട്ട": 2749,
      "വർധ": 2750,
      "വിസ": 2751,
      "വിട്ട": 2752,
      "##മായി": 2753,
      "ടം": 2754,
      "ണക്ക": 2755,
      "്യോഗ": 2756,
      "ഗ്രാ": 2757,
      "അഖില": 2758,
      "െല്ല": 2759,
      "അവസ്ഥ": 2760,
      "മനോ": 2761,
      "യോജ": 2762,
      "ശീല": 2763,
      "ഇവ": 2764,
      "ഗമ": 2765,
      "നിയും": 2766,
      "പരിധി": 2767,
      "ോറ": 2768,
      "കൃത": 2769,
      "ഘാടന": 2770,
      "കള്ള": 2771,
      "തള്ളി": 2772,
      "പത": 2773,
      "മിട": 2774,
      "ാഗ്രത": 2775,
      "താരം": 2776,
      "ഗൗ": 2777,
      "ലുകള": 2778,
      "സതീ": 2779,
      "ുവിട": 2780,
      "ഡൗണ": 2781,
      "്ശ": 2782,
      "ിലക്ക": 2783,
      "സമര്": 2784,
      "ുടങ്ങ": 2785,
      "ാനേജ": 2786,
      "നേരെ": 2787,
      "നമ്മള": 2788,
      "ബല": 2789,
      "ിലി": 2790,
      "മുൻപ": 2791,
      "ഒര": 2792,
      "മൊരു": 2793,
      "കാഴ്ച": 2794,
      "പ്രചര": 2795,
      "വക": 2796,
      "ുല്ല": 2797,
      "പ്രിയ": 2798,
      "തിനു": 2799,
      "ിഥ": 2800,
      "നേടി": 2801,
      "ലോച": 2802,
      "ഉദ്": 2803,
      "ന്മാര": 2804,
      "രുമാന": 2805,
      "പക": 2806,
      "അവരെ": 2807,
      "ബോധ": 2808,
      "ിഎ": 2809,
      "ന്നൂ": 2810,
      "ജല": 2811,
      "സാദ": 2812,
      "ത്രയ": 2813,
      "ൂല": 2814,
      "യുമായ": 2815,
      "ന്നത": 2816,
      "ാവള": 2817,
      "യുഎസ": 2818,
      "ാണ്ടി": 2819,
      "നീതി": 2820,
      "ള്ളൂ": 2821,
      "ഉടന": 2822,
      "ുഡ": 2823,
      "രമേശ": 2824,
      "സണ": 2825,
      "ികു": 2826,
      "കപ്പ": 2827,
      "ണായ": 2828,
      "ഡിയ": 2829,
      "ടവ": 2830,
      "െല്": 2831,
      "വയസ": 2832,
      "ീധര": 2833,
      "ീറ്റ്": 2834,
      "ിനു": 2835,
      "വശ്യമ": 2836,
      "ദീപ": 2837,
      "ുക്ക്": 2838,
      "കസ്": 2839,
      "ശ്മ": 2840,
      "ൊളി": 2841,
      "വെട്ട": 2842,
      "ലീഗ": 2843,
      "രുന്ന": 2844,
      "ാരണമാ": 2845,
      "കരി": 2846,
      "ാബ": 2847,
      "ാംഗ": 2848,
      "ുല": 2849,
      "നന്തപ": 2850,
      "വാദം": 2851,
      "പഴ": 2852,
      "ശേഷി": 2853,
      "മോഹന": 2854,
      "ഗോപി": 2855,
      "ാനല": 2856,
      "ാർഡ": 2857,
      "ത്താവ": 2858,
      "ംഭ": 2859,
      "െൻ": 2860,
      "റ്റഡി": 2861,
      "വേള": 2862,
      "പരമായ": 2863,
      "പഠി": 2864,
      "ണായക": 2865,
      "ിതാ": 2866,
      "പരമാ": 2867,
      "ോക്ക": 2868,
      "മ്മന്": 2869,
      "ാളെ": 2870,
      "വിടെ": 2871,
      "്രയും": 2872,
      "മെയ്": 2873,
      "പട": 2874,
      "ശങ്ക": 2875,
      "ശനി": 2876,
      "ഉട": 2877,
      "്ലി": 2878,
      "്ഥാന": 2879,
      "െതിരാ": 2880,
      "രീര": 2881,
      "ർട്ട": 2882,
      "രവി": 2883,
      "പ്പെ": 2884,
      "ാർത്ത": 2885,
      "ഉദ": 2886,
      "സമു": 2887,
      "്ശേരി": 2888,
      "തല്ല": 2889,
      "ലപ്പ": 2890,
      "ിഐ": 2891,
      "ാലാ": 2892,
      "ാറ്റം": 2893,
      "ികുതി": 2894,
      "ുവര": 2895,
      "ഘടന": 2896,
      "ുവിളി": 2897,
      "ന്യാ": 2898,
      "നത്ത": 2899,
      "നൽകി": 2900,
      "ന്നാം": 2901,
      "ച്ചി": 2902,
      "ട്ടാ": 2903,
      "ബ്രി": 2904,
      "കന": 2905,
      "മത്തെ": 2906,
      "്ധ": 2907,
      "ായും": 2908,
      "ോണിയ": 2909,
      "നിലന": 2910,
      "ങ്കള": 2911,
      "േത": 2912,
      "ോറി": 2913,
      "ുര്": 2914,
      "ായേ": 2915,
      "ളൂ": 2916,
      "ർവ": 2917,
      "ജറ": 2918,
      "ലയ": 2919,
      "ളു": 2920,
      "റാക്ക": 2921,
      "സ്മ": 2922,
      "ശു": 2923,
      "ശോ": 2924,
      "എമ്മ": 2925,
      "ാഹ": 2926,
      "യത്": 2927,
      "ാഭ": 2928,
      "ൂക്ഷ": 2929,
      "പാത": 2930,
      "റും": 2931,
      "ോഭ": 2932,
      "സിക്ക": 2933,
      "ഹത": 2934,
      "യിലാണ": 2935,
      "നസ": 2936,
      "മുതല": 2937,
      "ണ്ടാ": 2938,
      "കേസിൽ": 2939,
      "സിപിഎ": 2940,
      "ബസ": 2941,
      "ദര": 2942,
      "സിപ്പ": 2943,
      "റിയാ": 2944,
      "ഇവരെ": 2945,
      "ശര": 2946,
      "രായ": 2947,
      "ടഞ്ഞ": 2948,
      "ഫൈ": 2949,
      "യാദ": 2950,
      "ഏഴ്": 2951,
      "ിത്യ": 2952,
      "പെട്ട": 2953,
      "ഓട": 2954,
      "ലില": 2955,
      "സഭയില": 2956,
      "രിചയ": 2957,
      "ശ്രമം": 2958,
      "ിലവ": 2959,
      "ഡെ": 2960,
      "തിയ": 2961,
      "ബാദ": 2962,
      "21": 2963,
      "ചല": 2964,
      "ദായ": 2965,
      "ലേ": 2966,
      "ക്രൂ": 2967,
      "യാത": 2968,
      "ിസം": 2969,
      "ഞെട": 2970,
      "േല്": 2971,
      "ക്ഷണ": 2972,
      "എസ്എ": 2973,
      "മാസ്": 2974,
      "ഗോഡ": 2975,
      "ട്ടു": 2976,
      "ൂപ്പ": 2977,
      "്ഥാനം": 2978,
      "ലര്": 2979,
      "െപി": 2980,
      "സിബ": 2981,
      "സിനേ": 2982,
      "ിഹാ": 2983,
      "റെയ": 2984,
      "സല": 2985,
      "ഞ്ചി": 2986,
      "ാൾ": 2987,
      "െന്റ": 2988,
      "ിക്ക്": 2989,
      "ഫിക്ക": 2990,
      "കാർ": 2991,
      "രുങ്ങ": 2992,
      "കോപ": 2993,
      "റ്റിന": 2994,
      "തസ്": 2995,
      "ബജ": 2996,
      "ക്കാല": 2997,
      "ബൈ": 2998,
      "യല": 2999,
      "വൈദ": 3000,
      "മാറിയ": 3001,
      "നിൽ": 3002,
      "പാക": 3003,
      "22": 3004,
      "പത്ത്": 3005,
      "ിം": 3006,
      "രിച്ച": 3007,
      "ോക്കി": 3008,
      "ിടത്ത": 3009,
      "വർക്ക": 3010,
      "ളര്": 3011,
      "രജ": 3012,
      "റന്റ": 3013,
      "കുതി": 3014,
      "റമ്പ": 3015,
      "ർഡ": 3016,
      "ക്ഷി": 3017,
      "യിക്ക": 3018,
      "റാം": 3019,
      "്രാന്": 3020,
      "തീര": 3021,
      "ർപ്പ": 3022,
      "പള്ളി": 3023,
      "ിഎം": 3024,
      "ഗോപാ": 3025,
      "ഴിമ": 3026,
      "്ജ": 3027,
      "അല": 3028,
      "കേസെട": 3029,
      "സംസ്": 3030,
      "താൻ": 3031,
      "ഇയാള": 3032,
      "ാമ്പ": 3033,
      "ച്ചടി": 3034,
      "കോള": 3035,
      "ക്കാള": 3036,
      "െയില്": 3037,
      "ണ്ടി": 3038,
      "ംസാര": 3039,
      "ംസാരി": 3040,
      "ഏത്": 3041,
      "ഡാ": 3042,
      "യുപി": 3043,
      "ിഷ്": 3044,
      "ുഖ": 3045,
      "സ്വത": 3046,
      "േഡ": 3047,
      "ണ്ണി": 3048,
      "##ാപന": 3049,
      "സ്വാ": 3050,
      "ീര്": 3051,
      "്യൂസ": 3052,
      "പ്പാട": 3053,
      "ട്ടേ": 3054,
      "കരണ": 3055,
      "ഥി": 3056,
      "മകള": 3057,
      "ുരു": 3058,
      "വീട്": 3059,
      "്പര്യ": 3060,
      "തേടി": 3061,
      "രില്": 3062,
      "അടിയ": 3063,
      "പമ": 3064,
      "വശ": 3065,
      "ാരി": 3066,
      "ീർ": 3067,
      "്ഥാപന": 3068,
      "മാതാ": 3069,
      "ൂത്ത": 3070,
      "ന്റ്": 3071,
      "രിൽ": 3072,
      "തൃപ്": 3073,
      "ിന്നെ": 3074,
      "േമ": 3075,
      "ദ്വ": 3076,
      "ഹെ": 3077,
      "ാജ": 3078,
      "കൊട": 3079,
      "സ്ത്ര": 3080,
      "െക്ക": 3081,
      "ിരുദ": 3082,
      "ലാപ": 3083,
      "രാള": 3084,
      "വരില്": 3085,
      "തായിര": 3086,
      "യന": 3087,
      "ശ്വ": 3088,
      "ൊടി": 3089,
      "യർത്ത": 3090,
      "ുപോലെ": 3091,
      "പാട്": 3092,
      "പ്": 3093,
      "ദേശിക": 3094,
      "സിലെ": 3095,
      "ചെയ്": 3096,
      "രിമ": 3097,
      "കടന്ന": 3098,
      "ടേയും": 3099,
      "പെട": 3100,
      "മദ്യ": 3101,
      "ഘട": 3102,
      "വധ": 3103,
      "ാകുമ": 3104,
      "ലർ": 3105,
      "െഗ": 3106,
      "ോണ്": 3107,
      "നീയ": 3108,
      "ീപ": 3109,
      "രട്ട": 3110,
      "കുറയ": 3111,
      "ഷനില": 3112,
      "ിസംബ": 3113,
      "ത്യാ": 3114,
      "രേ": 3115,
      "ബര്": 3116,
      "വറ": 3117,
      "കുഴ": 3118,
      "ഴ്സ": 3119,
      "ടച്ച": 3120,
      "ധാരണ": 3121,
      "റുക": 3122,
      "മാന്": 3123,
      "ത്മ": 3124,
      "റ്റില": 3125,
      "ഞാന": 3126,
      "വൂ": 3127,
      "ിശ": 3128,
      "്ണ": 3129,
      "ാവശ്യ": 3130,
      "കില്ല": 3131,
      "മ്മിന": 3132,
      "േക്കു": 3133,
      "ളജി": 3134,
      "ോച": 3135,
      "ഷാ": 3136,
      "ാശ": 3137,
      "പോര": 3138,
      "ൂണ്": 3139,
      "റ്റേ": 3140,
      "ുകളിൽ": 3141,
      "്രീ": 3142,
      "ങ്കില": 3143,
      "തന": 3144,
      "ോഡ": 3145,
      "ുകളാണ": 3146,
      "ഷിക്ക": 3147,
      "ംസ്": 3148,
      "മൈ": 3149,
      "ുവാ": 3150,
      "മ്പാ": 3151,
      "ഖ്യ": 3152,
      "ാപക": 3153,
      "ഷങ്ങള": 3154,
      "തായ": 3155,
      "ലാം": 3156,
      "കത്ത്": 3157,
      "ിനും": 3158,
      "റ്റോ": 3159,
      "23": 3160,
      "സ്യ": 3161,
      "നിലനി": 3162,
      "റൽ": 3163,
      "ഹര": 3164,
      "റ്ററ": 3165,
      "ണര്": 3166,
      "തകർ": 3167,
      "ാനായി": 3168,
      "ച്ചില": 3169,
      "ച്ചകള": 3170,
      "മോഹ": 3171,
      "ടന്നു": 3172,
      "അദ": 3173,
      "നമ്പ": 3174,
      "പ്ത": 3175,
      "മടങ്ങ": 3176,
      "ട്ടോ": 3177,
      "കാന്": 3178,
      "റാന": 3179,
      "60": 3180,
      "റണ": 3181,
      "ുനി": 3182,
      "മതി": 3183,
      "ോഷ": 3184,
      "വസ്ത": 3185,
      "വസ്തു": 3186,
      "മില": 3187,
      "ോസി": 3188,
      "##ർണ": 3189,
      "സ്സ": 3190,
      "ഗണ": 3191,
      "്പീ": 3192,
      "ീണ്ട": 3193,
      "ിലായി": 3194,
      "കൂടിയ": 3195,
      "ബ്രാ": 3196,
      "ുറ്റ": 3197,
      "റ്റല": 3198,
      "കോർ": 3199,
      "നശ": 3200,
      "്ക്ക്": 3201,
      "ിനാ": 3202,
      "ശിച്ച": 3203,
      "തമ്മി": 3204,
      "ോണി": 3205,
      "ർവ്വ": 3206,
      "ഥമ": 3207,
      "അല്": 3208,
      "നിധ": 3209,
      "സ്വർണ": 3210,
      "ദേശം": 3211,
      "േര്": 3212,
      "വാസ": 3213,
      "ിഗ": 3214,
      "ുന": 3215,
      "ോധ": 3216,
      "ത്തം": 3217,
      "െന്നത": 3218,
      "ഹിക്ക": 3219,
      "കാലം": 3220,
      "പന്ത": 3221,
      "കളായ": 3222,
      "വൻ": 3223,
      "വാക്സ": 3224,
      "ധേ": 3225,
      "ുല്": 3226,
      "ക്കില": 3227,
      "ോധന": 3228,
      "യെത്ത": 3229,
      "ഖത്ത": 3230,
      "വധി": 3231,
      "േന": 3232,
      "മത്സ": 3233,
      "ിഖ": 3234,
      "ൈവ": 3235,
      "ുമെ": 3236,
      "ിയി": 3237,
      "നിക": 3238,
      "തിരാ": 3239,
      "കഥ": 3240,
      "എഴുത": 3241,
      "ുപ്പ": 3242,
      "ർഷ": 3243,
      "ടിയാ": 3244,
      "ീന്": 3245,
      "ിക്കൊ": 3246,
      "തരമാ": 3247,
      "ാലിക": 3248,
      "താമസ": 3249,
      "ളുകള": 3250,
      "േറ": 3251,
      "താത": 3252,
      "ദഗ": 3253,
      "ഒക്": 3254,
      "അങ്ങ": 3255,
      "ബിന": 3256,
      "ധേയ": 3257,
      "സര": 3258,
      "ാന്ത": 3259,
      "വിദ": 3260,
      "നന്": 3261,
      "ക്കന്": 3262,
      "ലമ": 3263,
      "ളം": 3264,
      "ുസ": 3265,
      "ിവയ": 3266,
      "ോയ്": 3267,
      "ംബര്": 3268,
      "മിച്ച": 3269,
      "സ്പ": 3270,
      "േല": 3271,
      "്ഗ": 3272,
      "മറ": 3273,
      "ിജ": 3274,
      "റിൽ": 3275,
      "ളമ": 3276,
      "ാനമാ": 3277,
      "ുണ്ടോ": 3278,
      "ഉത്": 3279,
      "ൾക്ക": 3280,
      "28": 3281,
      "കാന": 3282,
      "സന": 3283,
      "നായി": 3284,
      "മന്": 3285,
      "മിനി": 3286,
      "ഇതു": 3287,
      "ഏഴ": 3288,
      "ാജി": 3289,
      "ംബാ": 3290,
      "കൃഷ": 3291,
      "പ്രവര": 3292,
      "ലപ്പെ": 3293,
      "മറി": 3294,
      "ാഴ്": 3295,
      "ാലയ": 3296,
      "ർശന": 3297,
      "യത": 3298,
      "്ലോ": 3299,
      "ബസ്": 3300,
      "ിസ്ഥ": 3301,
      "ോക്": 3302,
      "പ്പാ": 3303,
      "വിനെ": 3304,
      "മേയ": 3305,
      "ീല": 3306,
      "്ബ": 3307,
      "ക്കെട": 3308,
      "ൂല്യ": 3309,
      "മിക": 3310,
      "ശയ": 3311,
      "##േര": 3312,
      "ഹിച്ച": 3313,
      "െച്ച": 3314,
      "സിക": 3315,
      "ിതര": 3316,
      "റവ": 3317,
      "അധിക": 3318,
      "തര്": 3319,
      "കൗണ്": 3320,
      "ിർ": 3321,
      "ട്ടര്": 3322,
      "ഉച്ച": 3323,
      "വാട": 3324,
      "്ണു": 3325,
      "മസ്": 3326,
      "ക്കറ": 3327,
      "ധു": 3328,
      "സിക്": 3329,
      "ീഷ്": 3330,
      "െബ്": 3331,
      "അംഗീ": 3332,
      "യറാ": 3333,
      "യാല": 3334,
      "ദ്യോഗ": 3335,
      "ദര്": 3336,
      "ിജി": 3337,
      "##ങ്ങി": 3338,
      "##ങ്ങൾ": 3339,
      "കാറ": 3340,
      "ളിത": 3341,
      "ൈസ": 3342,
      "സാന്": 3343,
      "27": 3344,
      "അവര": 3345,
      "ക്കണമ": 3346,
      "ര്‍": 3347,
      "കല്ല": 3348,
      "പോസി": 3349,
      "ാറ്റ്": 3350,
      "തൃക": 3351,
      "വേഷ": 3352,
      "റച്ച": 3353,
      "വായി": 3354,
      "ക്സ": 3355,
      "്രിസ": 3356,
      "ശേരി": 3357,
      "നിയന": 3358,
      "െറ്റ്": 3359,
      "ആം": 3360,
      "ടില്ല": 3361,
      "ിങ": 3362,
      "ിഷേധ": 3363,
      "വഹ": 3364,
      "ഉമ്മ": 3365,
      "ുടേ": 3366,
      "ഷ്ടമാ": 3367,
      "ുമതി": 3368,
      "ഇര": 3369,
      "ചാര": 3370,
      "സ്തി": 3371,
      "കോട്ട": 3372,
      "റ്റർ": 3373,
      "ിയോ": 3374,
      "്രു": 3375,
      "തിവ": 3376,
      "കുക": 3377,
      "ലോട്ട": 3378,
      "അത്തര": 3379,
      "ിലൊ": 3380,
      "ംശ": 3381,
      "കണം": 3382,
      "ഇറക്ക": 3383,
      "26": 3384,
      "ൽപ്പ": 3385,
      "ജഡ": 3386,
      "ീക്ഷ": 3387,
      "സ്ട": 3388,
      "നാള": 3389,
      "ശബ": 3390,
      "െല": 3391,
      "ർമ്മ": 3392,
      "കാട്ട": 3393,
      "ാർക്ക": 3394,
      "കണമ": 3395,
      "31": 3396,
      "ക്കാറ": 3397,
      "ോട്ടു": 3398,
      "കുടു": 3399,
      "ഭാവി": 3400,
      "കോടതി": 3401,
      "ൊള്ള": 3402,
      "ച്ചിര": 3403,
      "റക്ക": 3404,
      "ോക": 3405,
      "100": 3406,
      "ിസ്ഥാ": 3407,
      "റന്": 3408,
      "സിച്ച": 3409,
      "ഴാ": 3410,
      "ത്വം": 3411,
      "വാഹ": 3412,
      "ംഗ്": 3413,
      "ല്ലി": 3414,
      "ടുപ്പ": 3415,
      "ോചന": 3416,
      "ടത്": 3417,
      "വട": 3418,
      "ഭി": 3419,
      "35": 3420,
      "ക്കാണ": 3421,
      "രുണ": 3422,
      "ഐസ": 3423,
      "കിന": 3424,
      "ിനോട": 3425,
      "ിഎസ്": 3426,
      "മമ": 3427,
      "കാത്ത": 3428,
      "ങ്കിൽ": 3429,
      "നന്ദി": 3430,
      "്ഡ": 3431,
      "പ്പുറ": 3432,
      "കല്": 3433,
      "ത്തും": 3434,
      "സിറ്റ": 3435,
      "കയറി": 3436,
      "വേദ": 3437,
      "##ദ്ദ": 3438,
      "തൂ": 3439,
      "ിപ്പോ": 3440,
      "ൂട്ട്": 3441,
      "ൂവ": 3442,
      "യൊരു": 3443,
      "ലിസ്": 3444,
      "ിയില": 3445,
      "ചന": 3446,
      "ോടി": 3447,
      "യാഴ്ച": 3448,
      "രിവാ": 3449,
      "നദ": 3450,
      "റിക": 3451,
      "യാലും": 3452,
      "ുക്ത": 3453,
      "ിലായ": 3454,
      "കേഷ": 3455,
      "ിസ്ത": 3456,
      "ക്യൂ": 3457,
      "വകാശ": 3458,
      "േലി": 3459,
      "ൾക്ക്": 3460,
      "കാരി": 3461,
      "ോന്ന": 3462,
      "്രമ": 3463,
      "്രേ": 3464,
      "ുമാര": 3465,
      "േക്കാ": 3466,
      "ഴക്ക": 3467,
      "േക്ഷ": 3468,
      "വേശ": 3469,
      "്പൂ": 3470,
      "ആന്": 3471,
      "യേക്ക": 3472,
      "വിള": 3473,
      "ഔദ": 3474,
      "പൈ": 3475,
      "റുകള": 3476,
      "പ്രതി": 3477,
      "ർത്തു": 3478,
      "്ക്ക": 3479,
      "കോടിയ": 3480,
      "രസ്": 3481,
      "സോഷ്യ": 3482,
      "ദയ": 3483,
      "ിട്ട്": 3484,
      "ിതമാ": 3485,
      "മമത": 3486,
      "്യത്ത": 3487,
      "സ്ട്ര": 3488,
      "ഡ്ര": 3489,
      "ിള്": 3490,
      "ത്താന": 3491,
      "കൃത്യ": 3492,
      "ജയ്": 3493,
      "ൻ്റ": 3494,
      "ധിപ്പ": 3495,
      "ഘാ": 3496,
      "പഴയ": 3497,
      "ഗാന": 3498,
      "പകര": 3499,
      "േക്ഷക": 3500,
      "രാറ": 3501,
      "്പര": 3502,
      "ംബര": 3503,
      "ർദ്ദ": 3504,
      "നാട്": 3505,
      "ിരോധ": 3506,
      "ാവന": 3507,
      "ണിക്ക": 3508,
      "യണ": 3509,
      "ഴിവ": 3510,
      "േട്ട": 3511,
      "ൈന": 3512,
      "യുട": 3513,
      "മ്പത": 3514,
      "ഉത്ത": 3515,
      "ണല്": 3516,
      "പുഴ": 3517,
      "നഡ": 3518,
      "ന്മ": 3519,
      "ാലം": 3520,
      "്ലിക്": 3521,
      "ട്ടം": 3522,
      "ടിന": 3523,
      "ൻ്റെ": 3524,
      "ഡന": 3525,
      "ഇവര": 3526,
      "ബർ": 3527,
      "സാര": 3528,
      "പ്രശ": 3529,
      "വിടെയ": 3530,
      "രുമ": 3531,
      "കൊള്ള": 3532,
      "രിത": 3533,
      "തെല": 3534,
      "യാവ": 3535,
      "യിച്ച": 3536,
      "ഴിച്ച": 3537,
      "തമ": 3538,
      "മിക്ക": 3539,
      "റില്": 3540,
      "കരമായ": 3541,
      "ാനമ": 3542,
      "റ്റാ": 3543,
      "കാരന": 3544,
      "വാര": 3545,
      "സിഡ": 3546,
      "ല്ലേ": 3547,
      "ൂഹ": 3548,
      "െറി": 3549,
      "ോദ": 3550,
      "മഴയ": 3551,
      "ഴുക": 3552,
      "്യമാ": 3553,
      "പാറ": 3554,
      "ത്രിക": 3555,
      "പ്രതീ": 3556,
      "താക്ക": 3557,
      "ിയാന": 3558,
      "ഭക്ഷ": 3559,
      "തിരായ": 3560,
      "ിയാണ്": 3561,
      "ോടും": 3562,
      "ോളജ": 3563,
      "അതു": 3564,
      "ികളെ": 3565,
      "29": 3566,
      "വുക": 3567,
      "െസ്": 3568,
      "ക്വ": 3569,
      "ികാര": 3570,
      "കൈക": 3571,
      "റിവ": 3572,
      "##ഗണ": 3573,
      "പരിഗണ": 3574,
      "വിക്ക": 3575,
      "നാഥ്": 3576,
      "രാര്": 3577,
      "തെക്ക": 3578,
      "റീ": 3579,
      "െപ്": 3580,
      "സ്ല": 3581,
      "നൂറ": 3582,
      "ട്ടന": 3583,
      "ായത": 3584,
      "വൈറസ": 3585,
      "ിമത": 3586,
      "ഡീ": 3587,
      "ാഖ": 3588,
      "അജ": 3589,
      "റിച്ച": 3590,
      "ക്ഷിത": 3591,
      "അന്ന": 3592,
      "എയ": 3593,
      "റബ": 3594,
      "ുത": 3595,
      "ായിക": 3596,
      "ണിന": 3597,
      "മൃത": 3598,
      "ഷമ": 3599,
      "ോയി": 3600,
      "ദന": 3601,
      "േദ": 3602,
      "ക്സ്": 3603,
      "കടല": 3604,
      "സരി": 3605,
      "കൺ": 3606,
      "ഗി": 3607,
      "യ്പ": 3608,
      "രയാ": 3609,
      "വോ": 3610,
      "ീമ": 3611,
      "വിദ്യ": 3612,
      "45": 3613,
      "കത്തി": 3614,
      "ഷെ": 3615,
      "ിമാ": 3616,
      "ൽക്ക": 3617,
      "മാല": 3618,
      "ിയും": 3619,
      "ദ്ധി": 3620,
      "എന്താ": 3621,
      "ണന": 3622,
      "വണ്": 3623,
      "ോഹ": 3624,
      "താവ": 3625,
      "ഫോട": 3626,
      "ലിയ": 3627,
      "െരു": 3628,
      "##ളം": 3629,
      "െഡ്": 3630,
      "ർമ": 3631,
      "ജിത്": 3632,
      "രക്ഷി": 3633,
      "അധി": 3634,
      "ദീ": 3635,
      "ൂപ്": 3636,
      "േട": 3637,
      "ോര": 3638,
      "നായിര": 3639,
      "േതാ": 3640,
      "സർവ": 3641,
      "ട്": 3642,
      "ുള്": 3643,
      "തട്ട": 3644,
      "താന": 3645,
      "ളിവ": 3646,
      "ട്ടീ": 3647,
      "ഴുത": 3648,
      "ഡിയോ": 3649,
      "അപ്പ": 3650,
      "്യമ": 3651,
      "നാലു": 3652,
      "ർണ്ണ": 3653,
      "ിസിസി": 3654,
      "ിയായി": 3655,
      "രുവ": 3656,
      "ഉയർ": 3657,
      "ബാന": 3658,
      "ഹാര": 3659,
      "ൂറു": 3660,
      "ിയറ": 3661,
      "വരാ": 3662,
      "തുത": 3663,
      "ിർത്ത": 3664,
      "ളിന": 3665,
      "ർച്ച": 3666,
      "്രസി": 3667,
      "ഉടൻ": 3668,
      "െസ": 3669,
      "റേറ്റ": 3670,
      "ിലവില": 3671,
      "മ്മു": 3672,
      "വായ": 3673,
      "്ലീ": 3674,
      "പറ്റി": 3675,
      "ംക": 3676,
      "നക്ക": 3677,
      "േഷന": 3678,
      "80": 3679,
      "ോപ്പ": 3680,
      "അടി": 3681,
      "രപ്പ": 3682,
      "മാത": 3683,
      "സിം": 3684,
      "്രസിഡ": 3685,
      "ിയൂ": 3686,
      "ിന്റ": 3687,
      "ഡിപ": 3688,
      "ഗഡ": 3689,
      "ൂർണ": 3690,
      "ളക്ക": 3691,
      "േജ്": 3692,
      "ക്ഷമ": 3693,
      "ീകരണം": 3694,
      "ുപ്പി": 3695,
      "തന്ന": 3696,
      "പ്രകാ": 3697,
      "കൾക്ക": 3698,
      "ടീം": 3699,
      "ഇയാ": 3700,
      "ൻസ്": 3701,
      "ഞ്ഞ്": 3702,
      "ഇവിട": 3703,
      "മണ": 3704,
      "റന്ന": 3705,
      "ാധി": 3706,
      "വിന്": 3707,
      "േറിയ": 3708,
      "കോട്": 3709,
      "െഷ": 3710,
      "അഭിമ": 3711,
      "ങ്": 3712,
      "സുപ": 3713,
      "ഡുകള": 3714,
      "യെങ്ക": 3715,
      "സംവ": 3716,
      "ലൂ": 3717,
      "ജന്": 3718,
      "വിഡ": 3719,
      "മിത": 3720,
      "ടങ്ങി": 3721,
      "സികള": 3722,
      "ിയാല്": 3723,
      "രിലെ": 3724,
      "ക്കിട": 3725,
      "in": 3726,
      "ളിയ": 3727,
      "ിക്കെ": 3728,
      "ടത്ത": 3729,
      "ിനാണ": 3730,
      "മിറ്റ": 3731,
      "ീട്ട": 3732,
      "ുഷ്": 3733,
      "െട്ട": 3734,
      "വീഴ": 3735,
      "ഷീ": 3736,
      "ങ്ക്": 3737,
      "70": 3738,
      "ലാണ്": 3739,
      "പാദ": 3740,
      "ായത്": 3741,
      "വർത്ത": 3742,
      "ഭീ": 3743,
      "ാനമായ": 3744,
      "വം": 3745,
      "തിലും": 3746,
      "ുമാന": 3747,
      "പാക്ക": 3748,
      "ിഷന": 3749,
      "ിര്": 3750,
      "ലിസ": 3751,
      "ുളം": 3752,
      "ഡല": 3753,
      "ഷിന": 3754,
      "ോഗ": 3755,
      "ക്കമ": 3756,
      "ുകാ": 3757,
      "ാണോ": 3758,
      "തികള്": 3759,
      "റായ": 3760,
      "ിങ്ക": 3761,
      "ള്ളവര": 3762,
      "ഗള": 3763,
      "ലബ": 3764,
      "യിലാ": 3765,
      "ന്നുമ": 3766,
      "്പെ": 3767,
      "ഴുതി": 3768,
      "്വേഷ": 3769,
      "ോന്നി": 3770,
      "ലച": 3771,
      "ഗോപ": 3772,
      "്യസ": 3773,
      "െട്ര": 3774,
      "ാപന": 3775,
      "ക്കണം": 3776,
      "കമാ": 3777,
      "ണങ്ങള": 3778,
      "്റേ": 3779,
      "മുറ": 3780,
      "ടിവ": 3781,
      "യര": 3782,
      "ക്കുട": 3783,
      "32": 3784,
      "റാണ്": 3785,
      "ബുക്ക": 3786,
      "ച്ചവ": 3787,
      "നടന്": 3788,
      "ഞ്ഞു": 3789,
      "ഐഎ": 3790,
      "ലാസ": 3791,
      "നല": 3792,
      "രസ": 3793,
      "പരസ്": 3794,
      "അര": 3795,
      "എല്ല": 3796,
      "ഓണ": 3797,
      "െറ": 3798,
      "ചാണ്ട": 3799,
      "ഷത്തെ": 3800,
      "ട്ടില": 3801,
      "ുറപ്പ": 3802,
      "ുമാണ": 3803,
      "തോമസ": 3804,
      "റ്": 3805,
      "ാഞ്ച": 3806,
      "ാനാവ": 3807,
      "ിത്ര": 3808,
      "യിലും": 3809,
      "രിസ": 3810,
      "്സാ": 3811,
      "കത്ത": 3812,
      "ീവ": 3813,
      "താപ": 3814,
      "ികെ": 3815,
      "്യണ": 3816,
      "ധിച്ച": 3817,
      "രക്ക": 3818,
      "സഫ": 3819,
      "പന": 3820,
      "ച്ചയ": 3821,
      "തള്ള": 3822,
      "ിവേ": 3823,
      "ൂട്ടി": 3824,
      "ിക്ര": 3825,
      "ാലിന": 3826,
      "യതി": 3827,
      "ുരുത": 3828,
      "േണ": 3829,
      "എപ": 3830,
      "വിൽ": 3831,
      "പുല": 3832,
      "്ജി": 3833,
      "ിനേ": 3834,
      "ിരാ": 3835,
      "പിറ": 3836,
      "ന്നിര": 3837,
      "ഇത്ര": 3838,
      "നാമ": 3839,
      "വുമായ": 3840,
      "ലത്ത": 3841,
      "ീല്": 3842,
      "പിഎ": 3843,
      "യക്കു": 3844,
      "തം": 3845,
      "നങ്ങൾ": 3846,
      "യച്ച": 3847,
      "ളാ": 3848,
      "െമ": 3849,
      "ിനൊ": 3850,
      "നടന": 3851,
      "ാവു": 3852,
      "തലയ": 3853,
      "ഠി": 3854,
      "മലയ": 3855,
      "ുരുതര": 3856,
      "യൻ": 3857,
      "റായി": 3858,
      "ജിത": 3859,
      "വരാന": 3860,
      "ഡിസ": 3861,
      "െതിര": 3862,
      "ാരക": 3863,
      "്രകാര": 3864,
      "മറു": 3865,
      "വട്ട": 3866,
      "ോകത്ത": 3867,
      "ഫീ": 3868,
      "വരാണ്": 3869,
      "േഖ": 3870,
      "ിച്ചു": 3871,
      "ഷിച്ച": 3872,
      "കമായി": 3873,
      "ടയില": 3874,
      "ടത്ത്": 3875,
      "ർട്ടി": 3876,
      "ർട്ട്": 3877,
      "രുക്ക": 3878,
      "ബേ": 3879,
      "രണ്": 3880,
      "വത്ത": 3881,
      "സിസ": 3882,
      "ധര": 3883,
      "ൂത": 3884,
      "നിശ": 3885,
      "പിതാ": 3886,
      "വാറ": 3887,
      "ിഞ്ഞാ": 3888,
      "തയില": 3889,
      "ീന്ദ": 3890,
      "ൻസി": 3891,
      "തോട": 3892,
      "ലിച്ച": 3893,
      "്തക": 3894,
      "അല്ലെ": 3895,
      "ലായ": 3896,
      "##െന": 3897,
      "സ്ക": 3898,
      "്റി": 3899,
      "ബുദ": 3900,
      "േരിയ": 3901,
      "പതിന": 3902,
      "ചക": 3903,
      "്ധ്യ": 3904,
      "ുവിന": 3905,
      "ീണ": 3906,
      "ൊറ": 3907,
      "രൂര": 3908,
      "ദേശ്": 3909,
      "ള്ളു": 3910,
      "ഡിന": 3911,
      "യല്": 3912,
      "റക്കി": 3913,
      "ലക്": 3914,
      "ർശി": 3915,
      "ശിക്ക": 3916,
      "ണവ": 3917,
      "ിദ്ധ": 3918,
      "ക്കേ": 3919,
      "ിയായ": 3920,
      "താവ്": 3921,
      "ള്ളിയ": 3922,
      "ഞ്ഞാ": 3923,
      "ദ്ധര": 3924,
      "നിർമ": 3925,
      "ുകാര്": 3926,
      "മാരാ": 3927,
      "ന്നേ": 3928,
      "നിലെ": 3929,
      "വൽ": 3930,
      "േടി": 3931,
      "രങ്ങ": 3932,
      "ഷണം": 3933,
      "ക്ഷത": 3934,
      "രത്": 3935,
      "സംര": 3936,
      "ട്ടയ": 3937,
      "പിട": 3938,
      "വടക": 3939,
      "സവ": 3940,
      "ുറി": 3941,
      "മുദ": 3942,
      "രാം": 3943,
      "മ്പന": 3944,
      "ാധാ": 3945,
      "ക്ടറ": 3946,
      "േഷൻ": 3947,
      "ൊണ്ട": 3948,
      "ുമ്പ": 3949,
      "ാസികള": 3950,
      "ഇറാ": 3951,
      "യ്യാ": 3952,
      "തിച്ച": 3953,
      "മ്പത്": 3954,
      "ജൂൺ": 3955,
      "ിക്കേ": 3956,
      "ിയത": 3957,
      "ിനാണ്": 3958,
      "്ടില്": 3959,
      "കളില്": 3960,
      "്പ്ര": 3961,
      "റങ്ങി": 3962,
      "ൈക": 3963,
      "ുഭ": 3964,
      "സെന്": 3965,
      "ഹമാ": 3966,
      "ോൺ": 3967,
      "കാരിക": 3968,
      "ാഴ": 3969,
      "ആന": 3970,
      "വരാണ": 3971,
      "ഒരേ": 3972,
      "ുള്ളി": 3973,
      "തൊരു": 3974,
      "ഷ്യല": 3975,
      "ചാല": 3976,
      "ഫീസ": 3977,
      "ോം": 3978,
      "ുവരു": 3979,
      "പട്ട": 3980,
      "ോത്": 3981,
      "റ്റിയ": 3982,
      "്താവ": 3983,
      "ിരീ": 3984,
      "ിതമായ": 3985,
      "ക്ട്": 3986,
      "ഭവ": 3987,
      "##ൻസ": 3988,
      "പുര": 3989,
      "ടിസ": 3990,
      "വിഡി": 3991,
      "ബന്ധമ": 3992,
      "ധിക്ക": 3993,
      "തെങ്ക": 3994,
      "ദശ": 3995,
      "വതി": 3996,
      "പ്രദ": 3997,
      "നിധി": 3998,
      "കുട": 3999,
      "നാം": 4000,
      "അശ": 4001,
      "തറ": 4002,
      "ബില്": 4003,
      "്രസ്": 4004,
      "ടിമ": 4005,
      "ിക്കൽ": 4006,
      "ിയിൽ": 4007,
      "കമായ": 4008,
      "വസ": 4009,
      "ോലി": 4010,
      "##െയ": 4011,
      "ഇതര": 4012,
      "ചുവ": 4013,
      "ന്ദര": 4014,
      "ോട്ടെ": 4015,
      "33": 4016,
      "ടല": 4017,
      "ീട്ടി": 4018,
      "ത്സ": 4019,
      "ന്ത്": 4020,
      "ോബി": 4021,
      "ച്ചിട": 4022,
      "ഫോൺ": 4023,
      "34": 4024,
      "ടയാ": 4025,
      "ായാണ്": 4026,
      "ാബി": 4027,
      "സെക്": 4028,
      "തുകൊ": 4029,
      "37": 4030,
      "ൈബ": 4031,
      "പോര്": 4032,
      "ിതം": 4033,
      "മത്തി": 4034,
      "വഹി": 4035,
      "ോഡി": 4036,
      "േഷന്": 4037,
      "വസ്": 4038,
      "സസ്": 4039,
      "ട്ടിയ": 4040,
      "ശോഭ": 4041,
      "ാജ്": 4042,
      "കാണാ": 4043,
      "48": 4044,
      "ാഫ": 4045,
      "ായില": 4046,
      "റഞ്ഞ": 4047,
      "ാങ്ങ": 4048,
      "ണ്ടാക": 4049,
      "ശം": 4050,
      "െന": 4051,
      "മാരി": 4052,
      "യാസ": 4053,
      "എന്തു": 4054,
      "തരം": 4055,
      "സൺ": 4056,
      "പ്പട": 4057,
      "തുമായ": 4058,
      "ാവുമ": 4059,
      "പൊട": 4060,
      "െന്റ്": 4061,
      "േർ": 4062,
      "്രത്യ": 4063,
      "##മാണ്": 4064,
      "ിയില്": 4065,
      "മദ": 4066,
      "ചിരി": 4067,
      "ഒമ": 4068,
      "മത്ത": 4069,
      "മ്പ്": 4070,
      "രാണ്": 4071,
      "മെങ്ക": 4072,
      "്നങ്ങ": 4073,
      "യിന": 4074,
      "ഷറ": 4075,
      "ാനു": 4076,
      "ജെപി": 4077,
      "ഴിക്ക": 4078,
      "ന്റി": 4079,
      "അമിത": 4080,
      "മം": 4081,
      "യന്": 4082,
      "ലസ": 4083,
      "പ്രസ്": 4084,
      "ിയേ": 4085,
      "കാരണമ": 4086,
      "ാലു": 4087,
      "ണോ": 4088,
      "ബറ": 4089,
      "ുന്നേ": 4090,
      "ഞ്ഞി": 4091,
      "ുവില": 4092,
      "ടാക്ക": 4093,
      "36": 4094,
      "ബൂ": 4095,
      "രവ്": 4096,
      "വത്": 4097,
      "ശശി": 4098,
      "ുങ്ങ": 4099,
      "രായി": 4100,
      "ുത്തല": 4101,
      "ാഗ്": 4102,
      "ുഷ": 4103,
      "സംബ": 4104,
      "്ട്ര": 4105,
      "ികള്": 4106,
      "ക്കാൻ": 4107,
      "ഒന്നാ": 4108,
      "ട്ടും": 4109,
      "അവിട": 4110,
      "ജ്യ": 4111,
      "ണിയ": 4112,
      "മ്യ": 4113,
      "ണ്ടും": 4114,
      "ജിസ്": 4115,
      "രംഭി": 4116,
      "േയ്": 4117,
      "ർഥ": 4118,
      "ല്ലു": 4119,
      "ഹിന്ദ": 4120,
      "ംവ": 4121,
      "ച്ചത": 4122,
      "ക്സി": 4123,
      "90": 4124,
      "വഴ": 4125,
      "ച്ചേര": 4126,
      "ടങ്ങള": 4127,
      "ഥികള": 4128,
      "##al": 4129,
      "കൂല": 4130,
      "ുടര്": 4131,
      "ണാ": 4132,
      "ുബ": 4133,
      "ർപ": 4134,
      "ിലന": 4135,
      "55": 4136,
      "ുടി": 4137,
      "േൽ": 4138,
      "ുകയു": 4139,
      "മേല": 4140,
      "ഗണി": 4141,
      "ാഡ": 4142,
      "്രസ": 4143,
      "ട്ടിന": 4144,
      "ന്തോ": 4145,
      "പാസ": 4146,
      "വൈസ": 4147,
      "രെയും": 4148,
      "ാദമ": 4149,
      "75": 4150,
      "ുദ്ധ": 4151,
      "്ഡി": 4152,
      "്യന്": 4153,
      "ന്തി": 4154,
      "എട": 4155,
      "ോമ": 4156,
      "ിക്കല": 4157,
      "ധാര": 4158,
      "്യാപ": 4159,
      "ന്തിന": 4160,
      "യോഗ്യ": 4161,
      "നുമായ": 4162,
      "്കോട": 4163,
      "ഇഡി": 4164,
      "നിഷ": 4165,
      "ാണു": 4166,
      "ാരം": 4167,
      "ാകര": 4168,
      "മ്മി": 4169,
      "ാറ്റു": 4170,
      "ർഹ": 4171,
      "പ്രേ": 4172,
      "ീയത": 4173,
      "യവ": 4174,
      "ാള്": 4175,
      "ുപാ": 4176,
      "രാശ": 4177,
      "കാരന്": 4178,
      "ക്ടര്": 4179,
      "രോധ": 4180,
      "റഹ": 4181,
      "തിഷ": 4182,
      "ന്നീ": 4183,
      "റെടു": 4184,
      "ലിൽ": 4185,
      "ളിപ്പ": 4186,
      "ൊഴ": 4187,
      "്ലൂ": 4188,
      "42": 4189,
      "സസ": 4190,
      "മുട": 4191,
      "ാധ്യത": 4192,
      "െറ്റി": 4193,
      "പാടില": 4194,
      "ധീ": 4195,
      "നകള": 4196,
      "സിറ": 4197,
      "##േഷന": 4198,
      "്തീ": 4199,
      "ഗ്യ": 4200,
      "ുക്ര": 4201,
      "ദള": 4202,
      "ച്ചട": 4203,
      "നിലയ": 4204,
      "ഷത്ത": 4205,
      "വിപ": 4206,
      "ാഹി": 4207,
      "പരിഹാ": 4208,
      "ഫറ": 4209,
      "ിണ": 4210,
      "ിടി": 4211,
      "ുതെ": 4212,
      "##പത": 4213,
      "വർണ": 4214,
      "ാത്തി": 4215,
      "ാട്ടു": 4216,
      "പനി": 4217,
      "സക്": 4218,
      "പുക": 4219,
      "ധവ": 4220,
      "ശ്ശേര": 4221,
      "്മാര": 4222,
      "ഗം": 4223,
      "്ത്യ": 4224,
      "മ്പർ": 4225,
      "ലാത്": 4226,
      "്തവ": 4227,
      "ിയിട": 4228,
      "ീപ്": 4229,
      "കെയ": 4230,
      "റിനെ": 4231,
      "ചത": 4232,
      "മയ": 4233,
      "റല്": 4234,
      "സുധ": 4235,
      "്രിക്": 4236,
      "ഒപ്പ": 4237,
      "ണല": 4238,
      "രാർ": 4239,
      "പെര": 4240,
      "്യാസ": 4241,
      "രമി": 4242,
      "ർമാ": 4243,
      "വീഴ്": 4244,
      "സേവ": 4245,
      "ാക്": 4246,
      "ോന്": 4247,
      "രിന": 4248,
      "ോൾ": 4249,
      "ിപ്പ്": 4250,
      "േറ്റ്": 4251,
      "ൂപ": 4252,
      "മുള": 4253,
      "രോട്": 4254,
      "സിയ": 4255,
      "രാക": 4256,
      "എഎ": 4257,
      "രയ": 4258,
      "ൈഡ": 4259,
      "യിലായ": 4260,
      "മ്പി": 4261,
      "ിനിമ": 4262,
      "ദ്യം": 4263,
      "ൂരില": 4264,
      "ലിറ്റ": 4265,
      "ആഴ": 4266,
      "പയോഗ": 4267,
      "യൽ": 4268,
      "ലീസ": 4269,
      "ിജെ": 4270,
      "ക്കട": 4271,
      "ണിത്": 4272,
      "കാരനാ": 4273,
      "ഓളം": 4274,
      "ക്കൂട": 4275,
      "രിയായ": 4276,
      "ലമെന": 4277,
      "സമാ": 4278,
      "ാസി": 4279,
      "്തി": 4280,
      "##കെ": 4281,
      "കളാണ": 4282,
      "അണ": 4283,
      "നിസ": 4284,
      "ാനാക": 4285,
      "ാതക": 4286,
      "ലധിക": 4287,
      "ൾപ്പ": 4288,
      "##യോ": 4289,
      "##മാണ": 4290,
      "38": 4291,
      "ഥാപ": 4292,
      "മധ": 4293,
      "സിസ്": 4294,
      "ലുവ": 4295,
      "200": 4296,
      "വല്": 4297,
      "ിപ": 4298,
      "ുന്": 4299,
      "സിൽ": 4300,
      "ചിത": 4301,
      "വയസ്": 4302,
      "ജിന": 4303,
      "ന്ദ്": 4304,
      "െടി": 4305,
      "കോവ": 4306,
      "വേഷണ": 4307,
      "വെള": 4308,
      "ോഷി": 4309,
      "43": 4310,
      "്കൂ": 4311,
      "സമ്പർ": 4312,
      "ബദ": 4313,
      "ൊര": 4314,
      "യുന്ന": 4315,
      "്ലേ": 4316,
      "േസെടു": 4317,
      "്തിന": 4318,
      "യട": 4319,
      "ൂഡ": 4320,
      "സിഡന്": 4321,
      "41": 4322,
      "തയാ": 4323,
      "ാണിത്": 4324,
      "റൈ": 4325,
      "ാനിയ": 4326,
      "തീയ": 4327,
      "ിനോ": 4328,
      "താക": 4329,
      "ബാബ": 4330,
      "െയില": 4331,
      "ലിന്": 4332,
      "ബോസ": 4333,
      "ഷ്യല്": 4334,
      "ഇരി": 4335,
      "തകള": 4336,
      "ാടന": 4337,
      "ൃത്തി": 4338,
      "ൊഴി": 4339,
      "ോളി": 4340,
      "ുടർ": 4341,
      "രിയാ": 4342,
      "്ററി": 4343,
      "ന്നെ": 4344,
      "ടണ": 4345,
      "ാഷ്": 4346,
      "ന്മാ": 4347,
      "ന്ദേ": 4348,
      "കോണ": 4349,
      "യമ": 4350,
      "ലങ്ങ": 4351,
      "ാദ്": 4352,
      "ക്കോട": 4353,
      "ജനം": 4354,
      "ണിത": 4355,
      "ലക്ക": 4356,
      "െഡി": 4357,
      "നത": 4358,
      "റിലെ": 4359,
      "ീറ": 4360,
      "ിക്കാ": 4361,
      "ച്ചുവ": 4362,
      "500": 4363,
      "ൊഴില": 4364,
      "ളില്": 4365,
      "വഴിയ": 4366,
      "വാള": 4367,
      "ഇതില": 4368,
      "ട്രി": 4369,
      "കടത്ത": 4370,
      "വസത": 4371,
      "ീം": 4372,
      "ർക്ക്": 4373,
      "്യേ": 4374,
      "രാക്ക": 4375,
      "ിവ്": 4376,
      "39": 4377,
      "അവി": 4378,
      "സജി": 4379,
      "െക്": 4380,
      "ോസ്": 4381,
      "ോലെ": 4382,
      "ലിക്ക": 4383,
      "ലീസ്": 4384,
      "ഹോം": 4385,
      "െവ": 4386,
      "മായത": 4387,
      "ഭാഗം": 4388,
      "തികൾ": 4389,
      "രണമ": 4390,
      "ുലി": 4391,
      "ൂറ": 4392,
      "ിലേ": 4393,
      "പിന്ത": 4394,
      "കൊള": 4395,
      "്റ്റ്": 4396,
      "ഞ്ഞിര": 4397,
      "്മത": 4398,
      "ലധികം": 4399,
      "ൂട്": 4400,
      "ഥാന": 4401,
      "ലന": 4402,
      "ശ്ച": 4403,
      "ഇതാ": 4404,
      "ഡയ": 4405,
      "നയില": 4406,
      "്രയി": 4407,
      "ുവരെ": 4408,
      "തിയായ": 4409,
      "52": 4410,
      "സബ്": 4411,
      "നടൻ": 4412,
      "ലോക്ക": 4413,
      "ടത്തി": 4414,
      "ിഡി": 4415,
      "വാർ": 4416,
      "ാലോ": 4417,
      "ളിച്ച": 4418,
      "ന്നീട": 4419,
      "േത്": 4420,
      "ഫഷ": 4421,
      "മുകള": 4422,
      "നിയോ": 4423,
      "ബന്": 4424,
      "വസര": 4425,
      "ച്ചാ": 4426,
      "ച്ചും": 4427,
      "ിലാണ്": 4428,
      "നുണ": 4429,
      "..": 4430,
      "േന്ദ": 4431,
      "##es": 4432,
      "മേള": 4433,
      "ജക": 4434,
      "ബില": 4435,
      "ബത്ത": 4436,
      "മൃ": 4437,
      "ലത": 4438,
      "ൊടു": 4439,
      "്രൂ": 4440,
      "പേരാ": 4441,
      "സ്വീ": 4442,
      "ിനിട": 4443,
      "ുണ്": 4444,
      "റിന്": 4445,
      "ാവ്": 4446,
      "മോദി": 4447,
      "റങ്ങ": 4448,
      "ിമി": 4449,
      "കളോട": 4450,
      "ക്കാം": 4451,
      "െയ്ത": 4452,
      "പിഴ": 4453,
      "ജൻ": 4454,
      "ളോ": 4455,
      "ിളി": 4456,
      "ീഫ": 4457,
      "്റം": 4458,
      "അപ്": 4459,
      "ഐടി": 4460,
      "മർ": 4461,
      "ലാണ": 4462,
      "ന്വേ": 4463,
      "ിടങ്ങ": 4464,
      "ാധക": 4465,
      "ാമത": 4466,
      "്ലാതെ": 4467,
      "49": 4468,
      "അലി": 4469,
      "ആറ": 4470,
      "്യാപക": 4471,
      "രട": 4472,
      "ൊണ": 4473,
      "ോജ": 4474,
      "്വി": 4475,
      "ൾഡ": 4476,
      "നിച്ച": 4477,
      "കേസില": 4478,
      "ുപത": 4479,
      "47": 4480,
      "44": 4481,
      "ഉമ": 4482,
      "്മാന": 4483,
      "റ്റീ": 4484,
      "51": 4485,
      "ഉം": 4486,
      "എകെ": 4487,
      "യാര്": 4488,
      "്യങ്ങ": 4489,
      "ഉപയോ": 4490,
      "േസില": 4491,
      "നയുടെ": 4492,
      "ഇല": 4493,
      "ഷപ്പ": 4494,
      "ൗണ": 4495,
      "ണിക്": 4496,
      "ാറില": 4497,
      "രഞ്ഞ": 4498,
      "ൂണ": 4499,
      "കൊല്": 4500,
      "ുത്തു": 4501,
      "ടപ്പ": 4502,
      "നസ്സ": 4503,
      "ുൽ": 4504,
      "്ള": 4505,
      "്റ്": 4506,
      "ൽപ": 4507,
      "്ടിലെ": 4508,
      "പോലു": 4509,
      "ാരമ": 4510,
      "്ടെ": 4511,
      "ടിപ്പ": 4512,
      "നുള്ള": 4513,
      "ചുമത": 4514,
      "ീണ്ടു": 4515,
      "65": 4516,
      "തത്": 4517,
      "സ്പി": 4518,
      "ങ്ങാ": 4519,
      "നിപ": 4520,
      "മെയ": 4521,
      "ർത്ഥി": 4522,
      "രിക": 4523,
      "ലവ": 4524,
      "ളോട്": 4525,
      "ശൻ": 4526,
      "കൊല": 4527,
      "ടയ": 4528,
      "ദാന": 4529,
      "നോട്": 4530,
      "സില്": 4531,
      "ുന്ന്": 4532,
      "ുങ്ങി": 4533,
      "ക്കയ": 4534,
      "ഭിമ": 4535,
      "ഇങ്ങ": 4536,
      "ിയന്": 4537,
      "ഇതോട": 4538,
      "യൂര": 4539,
      "ാനെ": 4540,
      "യിന്": 4541,
      "കൊച്ച": 4542,
      "ഇടം": 4543,
      "നബ": 4544,
      "ഫസ": 4545,
      "##an": 4546,
      "##ാർ": 4547,
      "ഥാനാർ": 4548,
      "കരു": 4549,
      "പിള": 4550,
      "ുറവ": 4551,
      "ദർ": 4552,
      "നര": 4553,
      "ിയന്ത": 4554,
      "ൂരി": 4555,
      "മാരെ": 4556,
      "വീകര": 4557,
      "co": 4558,
      "ടര": 4559,
      "മെട": 4560,
      "യ്ത": 4561,
      "രത്ത": 4562,
      "ാശി": 4563,
      "േവ": 4564,
      "തിക്ക": 4565,
      "ടക": 4566,
      "യൺ": 4567,
      "ലപ": 4568,
      "ങ്കി": 4569,
      "ടിയില": 4570,
      "സീസ": 4571,
      "ർഘ": 4572,
      "കൗണ്ട": 4573,
      "രോട": 4574,
      "ലന്": 4575,
      "സാന": 4576,
      "െര": 4577,
      "ന്നുക": 4578,
      "ഴ്ച്ച": 4579,
      "നക": 4580,
      "മസ": 4581,
      "##am": 4582,
      "ാരു": 4583,
      "ിലുമ": 4584,
      "റയ": 4585,
      "ുദ": 4586,
      "ുരി": 4587,
      "െന്നി": 4588,
      "താവിന": 4589,
      "ആക്": 4590,
      "ടര്": 4591,
      "ശത്ത്": 4592,
      "ൈം": 4593,
      "്ടാണ്": 4594,
      "ായം": 4595,
      "്റ്റി": 4596,
      "്കെടു": 4597,
      "ാരിയ": 4598,
      "രല": 4599,
      "ൂസ": 4600,
      "കേട": 4601,
      "തുണ": 4602,
      "കാവ": 4603,
      "കമ്പ": 4604,
      "ഖില": 4605,
      "രത": 4606,
      "ൻറ": 4607,
      "തിപ്പ": 4608,
      "ട്രെയ": 4609,
      "തികള": 4610,
      "ംവി": 4611,
      "അബ": 4612,
      "പട്ടി": 4613,
      "ഹസ": 4614,
      "ുഹ": 4615,
      "്പി": 4616,
      "നെതിര": 4617,
      "ww": 4618,
      "തത്ത": 4619,
      "ച്ചറ": 4620,
      "മകൻ": 4621,
      "ൽഡ": 4622,
      "മറ്റൊ": 4623,
      "കമ്": 4624,
      "എയർ": 4625,
      "www": 4626,
      "46": 4627,
      "ുതിര": 4628,
      "ന്‍": 4629,
      "യുക": 4630,
      "വാന്": 4631,
      "ള്‍": 4632,
      "ദിക്": 4633,
      "കൽ": 4634,
      "ജഗ": 4635,
      "ടന": 4636,
      "ുച": 4637,
      "്മാ": 4638,
      "കളു": 4639,
      "##യാണ്": 4640,
      "ിശ്വ": 4641,
      "സരത്ത": 4642,
      "നയം": 4643,
      "റഫ": 4644,
      "്യപ്പ": 4645,
      "ികമാ": 4646,
      "സ്ഥിര": 4647,
      "്ഷന": 4648,
      "ഒന്": 4649,
      "ശക": 4650,
      "ാക്ഷ": 4651,
      "ന്നോട": 4652,
      "പൊട്ട": 4653,
      "സൽ": 4654,
      "ിടു": 4655,
      "ുട്": 4656,
      "ോയ": 4657,
      "വിയ": 4658,
      "റുമാ": 4659,
      "ചായ": 4660,
      "ിലോ": 4661,
      "്ലെ": 4662,
      "ാര്യമ": 4663,
      "്യമാക": 4664,
      "മാവ": 4665,
      "മ്മന": 4666,
      "്മിന": 4667,
      "കനാ": 4668,
      "54": 4669,
      "അമ": 4670,
      "കട്ട": 4671,
      "ൊല": 4672,
      "റ്റിൽ": 4673,
      "ാന്റ": 4674,
      "ക്ഷാ": 4675,
      "യൂട": 4676,
      "ഫഷണ": 4677,
      "യാര": 4678,
      "ിലയ": 4679,
      "രാണ": 4680,
      "ാങ്ക്": 4681,
      "കുമോ": 4682,
      "ിബി": 4683,
      "കൻ": 4684,
      "രണം": 4685,
      "ുള്ളവ": 4686,
      "ന്നവര": 4687,
      "വാങ്": 4688,
      "തുമ": 4689,
      "ിടയ": 4690,
      "ജയം": 4691,
      "ഗറ": 4692,
      "ടും": 4693,
      "വന്ത": 4694,
      "an": 4695,
      "നതാ": 4696,
      "ളും": 4697,
      "ല്ലായ": 4698,
      "56": 4699,
      "നിന": 4700,
      "ണ്ടോ": 4701,
      "മ്പോ": 4702,
      "ാവുക": 4703,
      "വളര": 4704,
      "ബഹള": 4705,
      "അഴ": 4706,
      "ുശ": 4707,
      "ൽഷ": 4708,
      "്രെ": 4709,
      "നേയ": 4710,
      "വെറു": 4711,
      "പലര": 4712,
      "നസ്": 4713,
      "ലറ": 4714,
      "ാസമ": 4715,
      "റ്റെ": 4716,
      "ണ്ടായ": 4717,
      "പര്": 4718,
      "മിയ": 4719,
      "ാമത്ത": 4720,
      "രയില": 4721,
      "രമായി": 4722,
      "സ്വര": 4723,
      "ിപ്പാ": 4724,
      "ഇഷ": 4725,
      "മുക": 4726,
      "പിന്ന": 4727,
      "വെല്": 4728,
      "നീട": 4729,
      "അഭ": 4730,
      "ക്കല": 4731,
      "ലുണ്ട": 4732,
      "ഫിക്": 4733,
      "പട്": 4734,
      "ൾസ": 4735,
      "വിറ്റ": 4736,
      "റ്റും": 4737,
      "72": 4738,
      "ആറു": 4739,
      "ളത്ത": 4740,
      "ുണ": 4741,
      "ോപ": 4742,
      "തിനൊ": 4743,
      "ണമായി": 4744,
      "പടി": 4745,
      "ാബ്": 4746,
      "ിപ്": 4747,
      "കൊടു": 4748,
      "വേറ": 4749,
      "ലഡ": 4750,
      "ാപ്": 4751,
      "മാസം": 4752,
      "53": 4753,
      "മ്": 4754,
      "െയാണ്": 4755,
      "റിംഗ": 4756,
      "ജമ": 4757,
      "രദേശ": 4758,
      "ീഴ്": 4759,
      "യാല്": 4760,
      "ക്ഷന്": 4761,
      "ഷ്ടി": 4762,
      "ന്നിട": 4763,
      "ജിയ": 4764,
      "തമാ": 4765,
      "പവ": 4766,
      "ലിക": 4767,
      "വാണ": 4768,
      "്സ്": 4769,
      "രിട്ട": 4770,
      "ംസാ": 4771,
      "തിയാ": 4772,
      "58": 4773,
      "റച്ച്": 4774,
      "വഷ": 4775,
      "ഷഹ": 4776,
      "ോശ": 4777,
      "നിപ്പ": 4778,
      "കാം": 4779,
      "കാലി": 4780,
      "നെന്ന": 4781,
      "ലിനെ": 4782,
      "ര്യം": 4783,
      "ണവും": 4784,
      "57": 4785,
      "തവ": 4786,
      "യയ": 4787,
      "ഴയ": 4788,
      "ിയാല": 4789,
      "പറേഷന": 4790,
      "ദിവസം": 4791,
      "ശിപ്പ": 4792,
      "ോള്": 4793,
      "ക്ടർ": 4794,
      "കങ്ങള": 4795,
      "തകര": 4796,
      "സദ": 4797,
      "ാഥ": 4798,
      "ോദ്": 4799,
      "ിലാണ": 4800,
      "തിമ": 4801,
      "യിക": 4802,
      "ാർട്ട": 4803,
      "150": 4804,
      "ജില": 4805,
      "്ഞ": 4806,
      "രാട്": 4807,
      "ചേരി": 4808,
      "െയ്യ": 4809,
      "സാരി": 4810,
      "വഷള": 4811,
      "ിയാണ": 4812,
      "ായു": 4813,
      "യതോടെ": 4814,
      "ശില": 4815,
      "ഷ്മ": 4816,
      "ഹേ": 4817,
      "ിഗ്": 4818,
      "്രിയ": 4819,
      "ക്ഷന": 4820,
      "ണ്ണൂ": 4821,
      "്മയ": 4822,
      "മരം": 4823,
      "ർദ": 4824,
      "നുസ": 4825,
      "വരുമാ": 4826,
      "300": 4827,
      "ഖല": 4828,
      "##te": 4829,
      "ങ്കു": 4830,
      "ൂർത്ത": 4831,
      "ടർ": 4832,
      "രദ്": 4833,
      "ത്തുക": 4834,
      "ിക്കര": 4835,
      "ിയു": 4836,
      "റ്റത": 4837,
      "വരില": 4838,
      "റിസ്": 4839,
      "ിനിമയ": 4840,
      "പോളി": 4841,
      "മുസ്ല": 4842,
      "അധ": 4843,
      "കവ": 4844,
      "ഗെ": 4845,
      "പള്": 4846,
      "യങ്ക": 4847,
      "റൺ": 4848,
      "ോടു": 4849,
      "നിക്": 4850,
      "്ടായി": 4851,
      "രുപ": 4852,
      "അപക": 4853,
      "സ്വീക": 4854,
      "ഗങ്ങള": 4855,
      "തർ": 4856,
      "മെന": 4857,
      "മിറ": 4858,
      "തസ": 4859,
      "സയില": 4860,
      "പറേ": 4861,
      "ിന്നാ": 4862,
      "62": 4863,
      "പക്": 4864,
      "ത്താക": 4865,
      "ഇന": 4866,
      "രുന": 4867,
      "രൂപയ": 4868,
      "പിയ": 4869,
      "സൻസ": 4870,
      "ായത്ത": 4871,
      "ടിട": 4872,
      "ചോദ": 4873,
      "ടേയ": 4874,
      "യ്യാറ": 4875,
      "ശൂ": 4876,
      "ിക്കോ": 4877,
      "മ്പു": 4878,
      "ലായിര": 4879,
      "ലായി": 4880,
      "##ഫ്": 4881,
      "ദ്ധത": 4882,
      "കടക": 4883,
      "ിറക": 4884,
      "അസം": 4885,
      "ിയയില": 4886,
      "പുത": 4887,
      "ാര്യത": 4888,
      "ീഷണ": 4889,
      "ണ്ടാവ": 4890,
      "റുകള്": 4891,
      "go": 4892,
      "ണത്ത": 4893,
      "യങ്ങള": 4894,
      "രള": 4895,
      "രഘ": 4896,
      "വിക്": 4897,
      "ിയതി": 4898,
      "്യാര": 4899,
      "റ്റം": 4900,
      "തുക്ക": 4901,
      "്പു": 4902,
      "നുഭവ": 4903,
      "വനം": 4904,
      "ദല": 4905,
      "ശവ": 4906,
      "നിക്ക": 4907,
      "പാടു": 4908,
      "രിവ": 4909,
      "ാരമാ": 4910,
      "പിയില": 4911,
      "ഡന്": 4912,
      "നങ്ങ": 4913,
      "യമാ": 4914,
      "ാങ്": 4915,
      "ീക്ക": 4916,
      "സ്ലി": 4917,
      "ട്ടറ": 4918,
      "ങ്കാ": 4919,
      "അടക്ക": 4920,
      "59": 4921,
      "കത": 4922,
      "ഡന്റ": 4923,
      "്യവ": 4924,
      "പറമ്പ": 4925,
      "ടിപ": 4926,
      "നറ": 4927,
      "മട": 4928,
      "വജ": 4929,
      "ശങ്ങള": 4930,
      "ാവി": 4931,
      "സുന": 4932,
      "മോദ": 4933,
      "ാരായ": 4934,
      "ചതി": 4935,
      "ദത്ത": 4936,
      "റേഷ": 4937,
      "സന്ത": 4938,
      "ാന്ന": 4939,
      "്ദ": 4940,
      "ക്കാവ": 4941,
      "അഡ്": 4942,
      "ണക്കു": 4943,
      "ശ്വസ": 4944,
      "്രമം": 4945,
      "##ala": 4946,
      "തരണ": 4947,
      "പ്യ": 4948,
      "മങ്ങ": 4949,
      "റൻ": 4950,
      "്ന്": 4951,
      "വാന": 4952,
      "പ്പോര": 4953,
      "ഡോക്": 4954,
      "ാമര": 4955,
      "രോപി": 4956,
      "ഖ്യാ": 4957,
      "ഗര": 4958,
      "മൻ": 4959,
      "രട്": 4960,
      "ഹം": 4961,
      "ൂണി": 4962,
      "ക്കണ": 4963,
      "ളിലെ": 4964,
      "ോന": 4965,
      "എംപ": 4966,
      "ഹേമ": 4967,
      "്പുഴ": 4968,
      "നന": 4969,
      "##ar": 4970,
      "്യൻ": 4971,
      "ട്ടമ": 4972,
      "പാക്": 4973,
      "രുടെയ": 4974,
      "മ്മാ": 4975,
      "85": 4976,
      "ഇപി": 4977,
      "ാരും": 4978,
      "ഷ്ണ": 4979,
      "അൽ": 4980,
      "സുകള": 4981,
      "്ടത്ത": 4982,
      "ുകളെ": 4983,
      "ിന്നി": 4984,
      "്നാ": 4985,
      "ൂലമ": 4986,
      "എങ്ങ": 4987,
      "സന്ധ": 4988,
      "ാച": 4989,
      "ിദ്": 4990,
      "ിച്ചത": 4991,
      "ത്യം": 4992,
      "ാറില്": 4993,
      "400": 4994,
      "ലേക്ക": 4995,
      "ചില്ല": 4996,
      "ഡില്": 4997,
      "നർ": 4998,
      "ശ്യ": 4999,
      "ശത്ത": 5000,
      "ിവാ": 5001,
      "ുൻ": 5002,
      "ർന": 5003,
      "കളുമ": 5004,
      "കാതെ": 5005,
      "മെന്": 5006,
      "വിലെ": 5007,
      "ൈക്കോ": 5008,
      "ാരിക": 5009,
      "സാനി": 5010,
      "ഇപ്പ": 5011,
      "ഓണം": 5012,
      "ഭ്യ": 5013,
      "ുതാ": 5014,
      "ൃത്ത": 5015,
      "്ടപ്പ": 5016,
      "സായ": 5017,
      "ാപിക": 5018,
      "ക്തി": 5019,
      "തല്": 5020,
      "ഭഗ": 5021,
      "പ്പര്": 5022,
      "അവൾ": 5023,
      "ke": 5024,
      "നുകള": 5025,
      "ോഷ്": 5026,
      "ിക്കു": 5027,
      "സമി": 5028,
      "രുതി": 5029,
      "##ുകള്": 5030,
      "ശ്ചി": 5031,
      "പകട": 5032,
      "സുമ": 5033,
      "പേരു": 5034,
      "കാക്ക": 5035,
      "ധിപത": 5036,
      "വിഡ്": 5037,
      "പം": 5038,
      "ൂത്ത്": 5039,
      "പരിചയ": 5040,
      "െയ്യാ": 5041,
      "കടം": 5042,
      "നവും": 5043,
      "ഗാന്ധ": 5044,
      "്യവും": 5045,
      "),": 5046,
      "്ടാ": 5047,
      "പരിച": 5048,
      "ഫറന": 5049,
      "എന്റ": 5050,
      "ിങ്ങള": 5051,
      "ാനിക്": 5052,
      "യേറ": 5053,
      "രെയ": 5054,
      "പൈസ": 5055,
      "ളിയാ": 5056,
      "ചിര": 5057,
      "ബര": 5058,
      "ലഘ": 5059,
      "്ടം": 5060,
      "്റ്റു": 5061,
      "പുറം": 5062,
      "ുമാനം": 5063,
      "63": 5064,
      "ആദ": 5065,
      "രച": 5066,
      "ഹന": 5067,
      "കണക്": 5068,
      "്ചാ": 5069,
      "gov": 5070,
      "പാണ": 5071,
      "ത്തയ": 5072,
      "ുകു": 5073,
      "തുമാ": 5074,
      "ാലിക്": 5075,
      "ിഎഫ്": 5076,
      "ഴക": 5077,
      "ാശ്": 5078,
      "ൂന": 5079,
      "എന്നാ": 5080,
      "ാധിക": 5081,
      "ബദല": 5082,
      "han": 5083,
      "ണത": 5084,
      "ദില്": 5085,
      "ിരഞ്ഞ": 5086,
      "ക്കളെ": 5087,
      "ാതിക": 5088,
      "ബന്ധി": 5089,
      "കരുടെ": 5090,
      "ഭഗവ": 5091,
      "ംപ്": 5092,
      "ഏതു": 5093,
      "വിദേ": 5094,
      "മായാ": 5095,
      "നീത": 5096,
      "പെരുമ": 5097,
      "റേഷന്": 5098,
      "തരാ": 5099,
      "രങ്ങള": 5100,
      "ലഹ": 5101,
      "മ്മയ": 5102,
      "ലാക്ക": 5103,
      "ലൈൻ": 5104,
      "േഷനില": 5105,
      "കളുമാ": 5106,
      "ലപ്": 5107,
      "സറ": 5108,
      "##on": 5109,
      "##wes": 5110,
      "അതോ": 5111,
      "തുകയ": 5112,
      "ബുദ്ധ": 5113,
      "ഉടമ": 5114,
      "anwes": 5115,
      "hanam": 5116,
      "66": 5117,
      "ഏഴു": 5118,
      "േക്": 5119,
      "്യന": 5120,
      "ടുമ": 5121,
      "ുമു": 5122,
      "കാൻ": 5123,
      "ക്കാമ": 5124,
      "്പത്ത": 5125,
      "്മദ": 5126,
      "ഗവൺ": 5127,
      "71": 5128,
      "സും": 5129,
      "ീവി": 5130,
      "##at": 5131,
      "ക്കമാ": 5132,
      "ിയല": 5133,
      "ന്നത്": 5134,
      "ബിര": 5135,
      "മ്മില": 5136,
      "കിസ": 5137,
      "ഷിന്": 5138,
      "ഓടി": 5139,
      "മൺ": 5140,
      "വഗ": 5141,
      "േസ്": 5142,
      "യാന്": 5143,
      "രിസ്": 5144,
      "ണെങ്ക": 5145,
      "േയു": 5146,
      "ാധിപത": 5147,
      "അക്": 5148,
      "ദിയ": 5149,
      "ീശ": 5150,
      "പ്രി": 5151,
      "കളാണ്": 5152,
      "ക്ഷയ": 5153,
      "64": 5154,
      "77": 5155,
      "അം": 5156,
      "തള": 5157,
      "പഥ": 5158,
      "രൊ": 5159,
      "െറിയ": 5160,
      "ച്ചത്": 5161,
      "പിഎം": 5162,
      "ന്ദു": 5163,
      "റൂം": 5164,
      "ിപ്ര": 5165,
      "ിശ്വസ": 5166,
      "ഫഷണല": 5167,
      "ഒപ": 5168,
      "കറ": 5169,
      "തങ്ങള": 5170,
      "ർണ": 5171,
      "വിര": 5172,
      "ികാ": 5173,
      "മ്പള": 5174,
      "യേല": 5175,
      "്ത്യന": 5176,
      "്തിരി": 5177,
      "68": 5178,
      "ഇഒ": 5179,
      "ടൈ": 5180,
      "ണബ": 5181,
      "ഥവ": 5182,
      "ൂഷ": 5183,
      "്നി": 5184,
      "നുമാ": 5185,
      "ാരന": 5186,
      "നഗർ": 5187,
      "ടാക്": 5188,
      "ുക്കള": 5189,
      "ോഡ്": 5190,
      "rala": 5191,
      "വൺ": 5192,
      "ൊട്ട": 5193,
      "ർബ": 5194,
      "ായാല": 5195,
      "മിന്": 5196,
      "്തര്": 5197,
      "മകൾ": 5198,
      "ടൺ": 5199,
      "ഡബ": 5200,
      "രൺ": 5201,
      "റിക്ക": 5202,
      "ല്ലെ": 5203,
      "ലോട്": 5204,
      "പോയത": 5205,
      "61": 5206,
      "ഡൻ": 5207,
      "ഭയം": 5208,
      "രക": 5209,
      "േള": 5210,
      "ൊവ": 5211,
      "##ധാ": 5212,
      "യാന": 5213,
      "സെന": 5214,
      "ആളെ": 5215,
      "അറിയാ": 5216,
      "കറ്റ": 5217,
      "ാബു": 5218,
      "ുരം": 5219,
      "ത്തത്": 5220,
      "പ്രധാ": 5221,
      "യുണ": 5222,
      "ിവെ": 5223,
      "ണങ്ങൾ": 5224,
      "ലമാ": 5225,
      "ളക": 5226,
      "ിനാല": 5227,
      "ണ്ടിയ": 5228,
      "ത്രിമ": 5229,
      "നൂര": 5230,
      "ിണറ": 5231,
      "ഖി": 5232,
      "ലെട": 5233,
      "െണ": 5234,
      "ോഴ": 5235,
      "സ്ബ": 5236,
      "രാട": 5237,
      "മേൽ": 5238,
      "്പാ": 5239,
      "തലത്ത": 5240,
      "ിവരു": 5241,
      "മതം": 5242,
      "രമണ": 5243,
      "ുപോക": 5244,
      "67": 5245,
      "കന്": 5246,
      "ചട": 5247,
      "ർന്ന": 5248,
      "##ai": 5249,
      "പോസ്": 5250,
      "ന്താ": 5251,
      "നെത": 5252,
      "കരമ": 5253,
      "ാറിന": 5254,
      "ഡൗൺ": 5255,
      "കെട": 5256,
      "ടന്": 5257,
      "റല": 5258,
      "ലയി": 5259,
      "ലില്": 5260,
      "ാനില": 5261,
      "്യാന": 5262,
      "യുമെ": 5263,
      "ടൈം": 5264,
      "രധ": 5265,
      "ിമാന": 5266,
      "കാട": 5267,
      "പാർട": 5268,
      "റുകൾ": 5269,
      "ൂഹത": 5270,
      "99": 5271,
      "ഗർ": 5272,
      "ചവ": 5273,
      "ൂള": 5274,
      "ോപ്": 5275,
      "ക്കിന": 5276,
      "തീരു": 5277,
      "ജിസ": 5278,
      "മിക്": 5279,
      "സ്തു": 5280,
      "വർഷം": 5281,
      "മാനമാ": 5282,
      "ഓടെ": 5283,
      "റേഷന": 5284,
      "ഷേ": 5285,
      "ാടിയ": 5286,
      "ോഗ്": 5287,
      "്ക്": 5288,
      "പ്പറ": 5289,
      "മാക്": 5290,
      "ിക്കി": 5291,
      "മനു": 5292,
      "്യാന്": 5293,
      "ിസിസ": 5294,
      "്യമാണ": 5295,
      "റസ്": 5296,
      "ശിയ": 5297,
      "്രെയ": 5298,
      "റ്റഡ": 5299,
      "പിക": 5300,
      "ങ്കയ": 5301,
      "ടക്കാ": 5302,
      "്സില": 5303,
      "ുപ്ര": 5304,
      "250": 5305,
      "ാകരന": 5306,
      "ംപി": 5307,
      "ഈര": 5308,
      "ലക": 5309,
      "മുഹ": 5310,
      "്രചാര": 5311,
      "ംഗി": 5312,
      "്കോ": 5313,
      "തനാ": 5314,
      "69": 5315,
      "78": 5316,
      "ഗൾ": 5317,
      "നോട": 5318,
      "വുകള": 5319,
      "രാട്ട": 5320,
      "കോഴി": 5321,
      "ുമാനി": 5322,
      "റാണ": 5323,
      "ഴിയ": 5324,
      "ച്ചേ": 5325,
      "ിക്കൂ": 5326,
      "ാനവ": 5327,
      "ന്നല": 5328,
      "വാത": 5329,
      "വെയ": 5330,
      "പൂര": 5331,
      "ചരി": 5332,
      "ത്രമ": 5333,
      "##or": 5334,
      "ാറാ": 5335,
      "600": 5336,
      "സുപ്ര": 5337,
      "95": 5338,
      "ജസ": 5339,
      "നമാണ്": 5340,
      "ളായി": 5341,
      "ൂടി": 5342,
      "നിമ": 5343,
      "്രഹ": 5344,
      "രിട": 5345,
      "റിപ": 5346,
      "ിഞ്ഞു": 5347,
      "റഞ്ഞത": 5348,
      "or": 5349,
      "ഏറ": 5350,
      "ഹക": 5351,
      "ച്ചവര": 5352,
      "പായ": 5353,
      "നാവി": 5354,
      "ായില്": 5355,
      "യോഗിക": 5356,
      "ദേഹ": 5357,
      "രണമാ": 5358,
      "വധശ": 5359,
      "74": 5360,
      "ചന്ദ": 5361,
      "നൊ": 5362,
      "ൽമ": 5363,
      "ത്രാ": 5364,
      "ാക്കള": 5365,
      "തിരുന": 5366,
      "ഫോർ": 5367,
      "രവും": 5368,
      "പത്തന": 5369,
      "ാമ്പി": 5370,
      "ാമ്പത": 5371,
      "ിയതിന": 5372,
      "ഉച": 5373,
      "യശ": 5374,
      "രമായ": 5375,
      "സള": 5376,
      "്യമായ": 5377,
      "്ടത": 5378,
      "ണ്ണം": 5379,
      "്വേഷണ": 5380,
      "തിയാക": 5381,
      "യങ്ങ": 5382,
      "റസ": 5383,
      "്രം": 5384,
      "നാവ": 5385,
      "സ്താ": 5386,
      "യ്യി": 5387,
      "...": 5388,
      "അത്ത": 5389,
      "ഫയ": 5390,
      "രതി": 5391,
      "സ്ര": 5392,
      "േസിൽ": 5393,
      "##ർമ": 5394,
      "്രന": 5395,
      "ിനായ": 5396,
      "രാവ": 5397,
      "ോടൊ": 5398,
      "ജിക്": 5399,
      "ഗൾഫ": 5400,
      "ഉഷ": 5401,
      "ഡില": 5402,
      "ണമായ": 5403,
      "നൈ": 5404,
      "ൃഷ്ണ": 5405,
      "ൽസ": 5406,
      "ികളും": 5407,
      "കിം": 5408,
      "തനം": 5409,
      "ാപനം": 5410,
      "പത്തി": 5411,
      "േരിട": 5412,
      "ച്ചതാ": 5413,
      "നികള": 5414,
      "വിച്ച": 5415,
      "്രപ": 5416,
      "ന്നോ": 5417,
      "രീത": 5418,
      "ടെയ": 5419,
      "വ്യത": 5420,
      "ion": 5421,
      "ണില": 5422,
      "മും": 5423,
      "ുജ": 5424,
      "ുപാട": 5425,
      "ോട്ടി": 5426,
      "ടുന്ന": 5427,
      "ജനത": 5428,
      "തോളം": 5429,
      "ഡാം": 5430,
      "76": 5431,
      "82": 5432,
      "ലവി": 5433,
      "ലയില": 5434,
      "ുഗ": 5435,
      "്വേ": 5436,
      "ട്ടുമ": 5437,
      "കുഞ്ഞ": 5438,
      "ിരോ": 5439,
      "റ്റക": 5440,
      "റ്റൊ": 5441,
      "ത്രീ": 5442,
      "120": 5443,
      "ുപോല": 5444,
      "ഡയറ": 5445,
      "ഇള": 5446,
      "ഗസ": 5447,
      "തില്ല": 5448,
      "തമായി": 5449,
      "പദ്ധ": 5450,
      "ഹു": 5451,
      "്രതീ": 5452,
      "കളക്": 5453,
      "കാട്": 5454,
      "ഇടത": 5455,
      "ലീം": 5456,
      "ധനു": 5457,
      "നബി": 5458,
      "്രതീക": 5459,
      "റമ": 5460,
      "ബിൽ": 5461,
      "ായിക്": 5462,
      "ാത്തത": 5463,
      "വിലയ": 5464,
      "നുഷ്": 5465,
      "ത്താൻ": 5466,
      "ഉള": 5467,
      "ജസ്": 5468,
      "നപ": 5469,
      "തുള": 5470,
      "ന്റേ": 5471,
      "ടെന്": 5472,
      "73": 5473,
      "91": 5474,
      "96": 5475,
      "കരെ": 5476,
      "ഗീ": 5477,
      "ണങ്ങ": 5478,
      "നമായ": 5479,
      "യമന": 5480,
      "ക്കന": 5481,
      "്രയ": 5482,
      "രാന": 5483,
      "ന്നൊ": 5484,
      "സ്വദ": 5485,
      "കാമ": 5486,
      "അവൻ": 5487,
      "ളിക്ക": 5488,
      "സാമ്": 5489,
      "ഗ്രഹി": 5490,
      "ുദാ": 5491,
      "അഴി": 5492,
      "ആത": 5493,
      "ഇടി": 5494,
      "പത്": 5495,
      "മള": 5496,
      "രമാണ്": 5497,
      "റപ്പ": 5498,
      "ഹങ്": 5499,
      "്വര": 5500,
      "ിലിന": 5501,
      "ിയോട": 5502,
      "ാക്കു": 5503,
      "പദ്ധത": 5504,
      "പില്": 5505,
      "ികരി": 5506,
      "ിനെയ": 5507,
      "ിപ്പു": 5508,
      "ത്യയ": 5509,
      "ാലിന്": 5510,
      "86": 5511,
      "84": 5512,
      "അനി": 5513,
      "തിലെ": 5514,
      "നറി": 5515,
      "േശ്": 5516,
      "മനസ്": 5517,
      "ക്ഷമാ": 5518,
      "മ്പര": 5519,
      "ഇബ": 5520,
      "എല": 5521,
      "ണർ": 5522,
      "ൽവർ": 5523,
      "നേക": 5524,
      "മേരി": 5525,
      "ഗോവ": 5526,
      "88": 5527,
      "83": 5528,
      "92": 5529,
      "ഒറ": 5530,
      "ടൻ": 5531,
      "തഴ": 5532,
      "യറി": 5533,
      "ുയ": 5534,
      "ൈമ": 5535,
      "്മന": 5536,
      "ത്തുമ": 5537,
      "ുന്നവ": 5538,
      "ിലീ": 5539,
      "ിച്ചി": 5540,
      "ടിന്": 5541,
      "ികളാ": 5542,
      "ിഡ്": 5543,
      "ോലും": 5544,
      "കമല": 5545,
      "79": 5546,
      "എപി": 5547,
      "ണൽ": 5548,
      "യപ്പ": 5549,
      "ഹിക": 5550,
      "ിലക": 5551,
      "കേണ്ട": 5552,
      "മാരും": 5553,
      "്കര്": 5554,
      "തമിഴ": 5555,
      "തിയെ": 5556,
      "റ്റൊര": 5557,
      "94": 5558,
      "ഡു": 5559,
      "തൽ": 5560,
      "ധ്യാ": 5561,
      "മക്ക": 5562,
      "ീരു": 5563,
      "ന്വ": 5564,
      "്രക്ക": 5565,
      "സിനെ": 5566,
      "ാടുക": 5567,
      "87": 5568,
      "അദ്": 5569,
      "ലുമ": 5570,
      "ാരെ": 5571,
      "ുതു": 5572,
      "സ്സി": 5573,
      "ജോൺ": 5574,
      "ിംഗി": 5575,
      "താവള": 5576,
      "ടയില്": 5577,
      "ഗഢ": 5578,
      "ടതി": 5579,
      "ദർശ": 5580,
      "നഷ്": 5581,
      "രദ": 5582,
      "ശുപ": 5583,
      "സഡ": 5584,
      "ത്തായ": 5585,
      "്രത": 5586,
      "ട്ടുക": 5587,
      "പദം": 5588,
      "ാക്സി": 5589,
      "89": 5590,
      "ഗ്ല": 5591,
      "ടൽ": 5592,
      "രന": 5593,
      "രന്": 5594,
      "ലങ്": 5595,
      "ിമാര": 5596,
      "േറി": 5597,
      "ിലില": 5598,
      "പോൾ": 5599,
      "വെന്": 5600,
      "നാക": 5601,
      "ുമാർ": 5602,
      "നികു": 5603,
      "േടാ": 5604,
      "pr": 5605,
      "കില്": 5606,
      "നമാണ": 5607,
      "വണ": 5608,
      "ാഹു": 5609,
      "##is": 5610,
      "ടുകള": 5611,
      "നാധ": 5612,
      "്കറ്റ": 5613,
      "ലാവ": 5614,
      "നമ്മു": 5615,
      "ടോം": 5616,
      "കാനും": 5617,
      "വുകയ": 5618,
      "നികുത": 5619,
      "അച": 5620,
      "ൈറ": 5621,
      "ൻവ": 5622,
      "റ്റന്": 5623,
      "ചാത്ത": 5624,
      "ആണോ": 5625,
      "്ഞാ": 5626,
      "93": 5627,
      "ദമായ": 5628,
      "നത്തെ": 5629,
      "ഫു": 5630,
      "ാവാ": 5631,
      "തികര": 5632,
      "്രമാ": 5633,
      "ിക്യ": 5634,
      "്പര്": 5635,
      "്വത": 5636,
      "യൂസ": 5637,
      "നുമാണ": 5638,
      "ടിയും": 5639,
      "്റില": 5640,
      "ാജന": 5641,
      "തമായ": 5642,
      "ദം": 5643,
      "മില്": 5644,
      "്ധര": 5645,
      "ൻവർ": 5646,
      "ുറന്": 5647,
      "സ്ഥിത": 5648,
      "ിന്നു": 5649,
      "പൂജ": 5650,
      "ാഗ്യ": 5651,
      "ആദ്യമ": 5652,
      "ന്ധു": 5653,
      "ഫറൻസ": 5654,
      "81": 5655,
      "ഒരോ": 5656,
      "തഫ": 5657,
      "വത": 5658,
      "ൈദ": 5659,
      "ച്ചാല": 5660,
      "്ടി": 5661,
      "ഫോം": 5662,
      "ആക്രമ": 5663,
      "രോപണ": 5664,
      "ർത്താ": 5665,
      "ുറ്റപ": 5666,
      "്ക്കു": 5667,
      "്ഞി": 5668,
      "ചൈ": 5669,
      "സുകള്": 5670,
      "പിക്": 5671,
      "രുവി": 5672,
      "ുറക": 5673,
      "വീടു": 5674,
      "ജിന്": 5675,
      "രീം": 5676,
      "തിരെയ": 5677,
      "്ത്യൻ": 5678,
      "ശ്ചാ": 5679,
      "യയുടെ": 5680,
      "റൺസ": 5681,
      "കയി": 5682,
      "ണന്": 5683,
      "തില്": 5684,
      "പില": 5685,
      "ാദി": 5686,
      "##ps": 5687,
      "െന്നു": 5688,
      "്ടുപ": 5689,
      "ടിക്": 5690,
      "നസില": 5691,
      "ോത": 5692,
      "വാഗ": 5693,
      "ബിൻ": 5694,
      "സീറ": 5695,
      "ഫിന്": 5696,
      "ഴുവ": 5697,
      "തിനിട": 5698,
      "ജനറല": 5699,
      "നാര": 5700,
      "ലൗ": 5701,
      "സൾ": 5702,
      "ത്സര": 5703,
      "രാധ": 5704,
      "റ്റുമ": 5705,
      "കാരമ": 5706,
      "്പട": 5707,
      "പരിശ": 5708,
      "ക്ലാ": 5709,
      "ടിയേ": 5710,
      "140": 5711,
      "ഇതുവര": 5712,
      "്റിൽ": 5713,
      "ജഗന": 5714,
      "റുമ": 5715,
      "റയ്": 5716,
      "േഴ": 5717,
      "ട്ടിൽ": 5718,
      "്തിനെ": 5719,
      "മൽ": 5720,
      "റൊ": 5721,
      "സത": 5722,
      "ിട്ടത": 5723,
      "ലോട": 5724,
      "ാമത്": 5725,
      "്തും": 5726,
      "മീറ": 5727,
      "ഖാൻ": 5728,
      "ഉളള": 5729,
      "97": 5730,
      "ംത": 5731,
      "ദൾ": 5732,
      "യപ": 5733,
      "ൃദ": 5734,
      "്ചര": 5735,
      "ൗര": 5736,
      "##ic": 5737,
      "യുള്": 5738,
      "വീണ്": 5739,
      "ത്തുന": 5740,
      "ുപക്ഷ": 5741,
      "ുവിള": 5742,
      "യുമെന": 5743,
      "ജഗദ": 5744,
      "യപ്ര": 5745,
      "ഒട": 5746,
      "ധയ": 5747,
      "മസി": 5748,
      "രവാ": 5749,
      "ഴിക": 5750,
      "ൈന്": 5751,
      "ങ്ങളോ": 5752,
      "്ടവ": 5753,
      "കളാ": 5754,
      "ികര": 5755,
      "ടിയു": 5756,
      "ദ്രസ": 5757,
      "ബസവ": 5758,
      "re": 5759,
      "ഭവന": 5760,
      "ാപി": 5761,
      "റ്റത്": 5762,
      "്പന": 5763,
      "തോള": 5764,
      "ക്കുള": 5765,
      "വരെയ": 5766,
      "്ലിയ": 5767,
      "ലാക": 5768,
      "സിലാ": 5769,
      "ുഖ്": 5770,
      "മയുടെ": 5771,
      "ശ്ചാത": 5772,
      "ഥന": 5773,
      "യന്ത": 5774,
      "റത്ത": 5775,
      "ൂല്": 5776,
      "െക": 5777,
      "ർത്തി": 5778,
      "##ts": 5779,
      "ച്ചുക": 5780,
      "പിച്ച": 5781,
      "ത്രം": 5782,
      "ഭരണക": 5783,
      "ൻസർ": 5784,
      "ജലം": 5785,
      "ുതര": 5786,
      "ടനാ": 5787,
      "th": 5788,
      "ത്താണ": 5789,
      "##ഞ്ഞ്": 5790,
      "രാത്ര": 5791,
      "ധാനം": 5792,
      "്തോ": 5793,
      "കൂടാ": 5794,
      "ഇന്നല": 5795,
      "െന്റി": 5796,
      "ളിക": 5797,
      "ശേ": 5798,
      "##di": 5799,
      "##ഡിയ": 5800,
      "തെറ": 5801,
      "പരിപാ": 5802,
      "മീഡിയ": 5803,
      "തൃശൂര": 5804,
      "ന്ധം": 5805,
      "ുക്കു": 5806,
      "ഡന്റ്": 5807,
      "അബ്": 5808,
      "ദമാ": 5809,
      "നുപ": 5810,
      "ബന": 5811,
      "മരു": 5812,
      "യെടു": 5813,
      "വഖ": 5814,
      "ഷമാണ്": 5815,
      "ോധിക": 5816,
      "##ഹദ": 5817,
      "ാനേ": 5818,
      "ണ്ടെ": 5819,
      "രുക": 5820,
      "പൊത": 5821,
      "ലക്ഷ്": 5822,
      "നീക": 5823,
      "അറസ്": 5824,
      "ംഗം": 5825,
      "്യാപി": 5826,
      "േഹത്ത": 5827,
      "െലവ": 5828,
      "വഖഫ": 5829,
      "ഡേ": 5830,
      "രതീ": 5831,
      "വച": 5832,
      "സൃ": 5833,
      "്റു": 5834,
      "ന്ദി": 5835,
      "രുട": 5836,
      "കൃഷ്": 5837,
      "370": 5838,
      "ചൽ": 5839,
      "ണക": 5840,
      "ഫഹദ": 5841,
      "യസ": 5842,
      "ിഞ്ഞ്": 5843,
      "ീവന": 5844,
      "##le": 5845,
      "പ്രവാ": 5846,
      "തിൻ": 5847,
      "ിന്ത": 5848,
      "ിതമ": 5849,
      "ുവന": 5850,
      "ആലപ്പ": 5851,
      "്ചറ": 5852,
      "രംഭ": 5853,
      "800": 5854,
      "ഇങ്ങന": 5855,
      "ങ്കുവ": 5856,
      "ആരെ": 5857,
      "തന്റ": 5858,
      "നയാ": 5859,
      "പദ്": 5860,
      "ഭര": 5861,
      "യതാ": 5862,
      "യമായ": 5863,
      "റത്തി": 5864,
      "േസമ": 5865,
      "##tt": 5866,
      "ങ്ങു": 5867,
      "ിനേഷ": 5868,
      "റ്റെട": 5869,
      "പിണ": 5870,
      "ംഗാ": 5871,
      "ക്തമ": 5872,
      "ീസില": 5873,
      "യതിന": 5874,
      "സദസ": 5875,
      "്രിയാ": 5876,
      "ആൾ": 5877,
      "ഉന്ന": 5878,
      "കഴ": 5879,
      "ളാണ": 5880,
      "വൾ": 5881,
      "ൻഷ": 5882,
      "രാഷ്": 5883,
      "കളോ": 5884,
      "റ്ററി": 5885,
      "ഷ്യം": 5886,
      "110": 5887,
      "ലയില്": 5888,
      "നഹ": 5889,
      "രന്റ": 5890,
      "റം": 5891,
      "ളക്": 5892,
      "ഹണി": 5893,
      "ാരോ": 5894,
      "െളി": 5895,
      "്തല": 5896,
      "##ച്": 5897,
      "ികയ": 5898,
      "നെയ": 5899,
      "്തില്": 5900,
      "ാതന": 5901,
      "130": 5902,
      "com": 5903,
      "ണത്": 5904,
      "ലഗ": 5905,
      "വദ": 5906,
      "ശാന": 5907,
      "േക": 5908,
      "േട്": 5909,
      "ിവരാ": 5910,
      "്തര": 5911,
      "പാലക": 5912,
      "ബലം": 5913,
      "കുകള്": 5914,
      "േസമയം": 5915,
      "കഫ": 5916,
      "മദ്": 5917,
      "റന": 5918,
      "ലരു": 5919,
      "േഗ": 5920,
      "ൊട": 5921,
      "ൊറോ": 5922,
      "##st": 5923,
      "##യർ": 5924,
      "യാർ": 5925,
      "യാറ": 5926,
      "കുള്": 5927,
      "പ്പോർ": 5928,
      "ുത്താ": 5929,
      "്ലക": 5930,
      "ർക്കു": 5931,
      "144": 5932,
      "ിനാല്": 5933,
      "്റിക്": 5934,
      "ഫഷണൽ": 5935,
      "ഫയൽ": 5936,
      "st": 5937,
      "ഗത്": 5938,
      "ടായി": 5939,
      "പഹ": 5940,
      "രശ": 5941,
      "വസ്ഥ": 5942,
      "കൂടു": 5943,
      "കാണു": 5944,
      "ചിക്ക": 5945,
      "ദിക്ക": 5946,
      "ിമു": 5947,
      "സജീ": 5948,
      "്രമണ": 5949,
      "ടനം": 5950,
      "എസി": 5951,
      "ടിക": 5952,
      "ലൻ": 5953,
      "ളോട": 5954,
      "ഹവ": 5955,
      "ോദര": 5956,
      "്രമാണ": 5957,
      "ാവില": 5958,
      "തോട്": 5959,
      "നെയും": 5960,
      "108": 5961,
      "്ലാവ": 5962,
      "ലീഗ്": 5963,
      "്മെ": 5964,
      "ോടെയാ": 5965,
      "കാനാ": 5966,
      "ഷറഫ": 5967,
      "നയ്": 5968,
      "രസ്യ": 5969,
      "ലകള": 5970,
      "ശപ്പ": 5971,
      "ഹർ": 5972,
      "##ve": 5973,
      "ുംബ": 5974,
      "ച്ചറി": 5975,
      "്രണ": 5976,
      "ാനില്": 5977,
      "നിയാ": 5978,
      "ല്ലം": 5979,
      "നുവ": 5980,
      "ാണിത": 5981,
      "െടുത": 5982,
      "മാനം": 5983,
      "125": 5984,
      "ടാക": 5985,
      "ുഖ്യ": 5986,
      "ക്കേറ": 5987,
      "ിപ്രാ": 5988,
      "തപ്പ": 5989,
      "ഫഡ": 5990,
      "മഡ": 5991,
      "ലെടു": 5992,
      "ഷകര": 5993,
      "സൻ": 5994,
      "ാത്": 5995,
      "ീതി": 5996,
      "െബ": 5997,
      "മാനി": 5998,
      "വിവി": 5999,
      "തിട": 6000,
      "നാസ": 6001,
      "സ്ഥി": 6002,
      "98": 6003,
      "ഭ്": 6004,
      "ൊത": 6005,
      "##re": 6006,
      "##ഖ്": 6007,
      "ുക്": 6008,
      "കളം": 6009,
      "വാവ": 6010,
      "സുര": 6011,
      "സംഘം": 6012,
      "റുണ്ട": 6013,
      "ോകു": 6014,
      "ഘവ": 6015,
      "ബഫ": 6016,
      "ലത്ത്": 6017,
      "ൽബ": 6018,
      "ാനങ്ങ": 6019,
      "ിച്ചാ": 6020,
      "പാണ്": 6021,
      "്വം": 6022,
      "്വന്ത": 6023,
      "160": 6024,
      "പടം": 6025,
      "ഗിച്ച": 6026,
      "ാകരന്": 6027,
      "ടപ്പാ": 6028,
      "ൾസർ": 6029,
      "ശൂര": 6030,
      "em": 6031,
      "ഐഷ": 6032,
      "ഓം": 6033,
      "ചന്": 6034,
      "ഥ്": 6035,
      "ലവ്": 6036,
      "ളുകള്": 6037,
      "ൊന്": 6038,
      "ാനാണ": 6039,
      "്യയില": 6040,
      "രാന്": 6041,
      "അതെ": 6042,
      "അനുമ": 6043,
      "ിടക": 6044,
      "ലുമാ": 6045,
      "പകൽ": 6046,
      "ർഡ്": 6047,
      "##ail": 6048,
      "ചന്ദ്": 6049,
      "ഹത്": 6050,
      "ൈമാ": 6051,
      "ൻപ": 6052,
      "്രമേ": 6053,
      "യിപ്പ": 6054,
      "ക്തമാ": 6055,
      "്ഷന്": 6056,
      "സോണി": 6057,
      "്ഥാനമ": 6058,
      "ോദിയ": 6059,
      "േതാവ": 6060,
      "er": 6061,
      "vi": 6062,
      "ഐഡി": 6063,
      "ണമാ": 6064,
      "ശങ്ങ": 6065,
      "ഹായ": 6066,
      "ിതി": 6067,
      "ുത്": 6068,
      "ൽവ": 6069,
      "##ce": 6070,
      "ിൻ്റ": 6071,
      "700": 6072,
      "മ്പോൾ": 6073,
      "യതായി": 6074,
      "ംവിധ": 6075,
      "മക്": 6076,
      "യങ്ങൾ": 6077,
      "സക": 6078,
      "സത്ത": 6079,
      "ോപാ": 6080,
      "##it": 6081,
      "ിയിലെ": 6082,
      "പരീ": 6083,
      "നുഷ": 6084,
      "ഫാം": 6085,
      "180": 6086,
      "്മിറ": 6087,
      "ണക്കാ": 6088,
      "കമാണ": 6089,
      "മധു": 6090,
      "കരുത്": 6091,
      "ടെയാണ": 6092,
      "ന്വേഷ": 6093,
      "htt": 6094,
      "ലാന": 6095,
      "ിപാ": 6096,
      "##er": 6097,
      "കോൾ": 6098,
      "മനം": 6099,
      "റിക്": 6100,
      "െങ്കി": 6101,
      "്പല": 6102,
      "്വദേശ": 6103,
      "ാരാണ": 6104,
      "ാസിക": 6105,
      "ത്തുവ": 6106,
      "ശാസ": 6107,
      "െയ്തി": 6108,
      "ോഴും": 6109,
      "മനുഷ്": 6110,
      "org": 6111,
      "സ്താവ": 6112,
      "സകല": 6113,
      "ഫർമ": 6114,
      "ലത്": 6115,
      "ുപ്": 6116,
      "്ബു": 6117,
      "നിങ്": 6118,
      "റ്റുക": 6119,
      "സിഐ": 6120,
      "ടുള്ള": 6121,
      "ഗ്രത": 6122,
      "റിറ്റ": 6123,
      "യ്ക്": 6124,
      "നുസര": 6125,
      "ണിച്ച": 6126,
      "രിയില": 6127,
      "രേന്ദ": 6128,
      "സ്സില": 6129,
      "ുമ്പോ": 6130,
      "രിനെ": 6131,
      "കറ്റി": 6132,
      "അരി": 6133,
      "ഇത്ത": 6134,
      "എട്ട": 6135,
      "ഥിയ": 6136,
      "ഹബ": 6137,
      "ൂണ്ട": 6138,
      "ുന്നി": 6139,
      "ഇടയ": 6140,
      "്റ്റന": 6141,
      "വിലക": 6142,
      "തിലു": 6143,
      "്ഷാ": 6144,
      "ുസ്ലി": 6145,
      "േരില്": 6146,
      "ഴിവു": 6147,
      "വസാ": 6148,
      "ാരുടെ": 6149,
      "ഇസ്": 6150,
      "കപ": 6151,
      "തപ": 6152,
      "നപ്പ": 6153,
      "യസ്": 6154,
      "ാമാ": 6155,
      "ുതി": 6156,
      "##ad": 6157,
      "##in": 6158,
      "്യക്ഷ": 6159,
      "രുദ്ധ": 6160,
      "ട്രീയ": 6161,
      "ികളായ": 6162,
      "ഞ്ഞെ": 6163,
      "സെക്ര": 6164,
      "്തൂ": 6165,
      "ളിപ": 6166,
      "ബീന": 6167,
      "തുമെ": 6168,
      "്തോളം": 6169,
      "തത": 6170,
      "സുക": 6171,
      "ഹയർ": 6172,
      "ൽഫ": 6173,
      "##ബി": 6174,
      "##ഗ്ര": 6175,
      "നിക്ഷ": 6176,
      "പ്രയ": 6177,
      "യാമ": 6178,
      "്യാമ": 6179,
      "സിൻ": 6180,
      "രുമായ": 6181,
      "തോഷ": 6182,
      "്കാ": 6183,
      "വുന": 6184,
      "ിഎമ്മ": 6185,
      "ലമെ": 6186,
      "യതോ": 6187,
      "ഡ്രൈ": 6188,
      "ഗിക്ക": 6189,
      "രക്കാ": 6190,
      "ചവറ": 6191,
      "pro": 6192,
      "ഫിന": 6193,
      "രേഷ": 6194,
      "ളര": 6195,
      "ൂറി": 6196,
      "ൊക്": 6197,
      "്റോ": 6198,
      "കേര": 6199,
      "ട്രീ": 6200,
      "റാത്ത": 6201,
      "ദ്യേ": 6202,
      "164": 6203,
      "!!": 6204,
      "ഥയ": 6205,
      "ളിൽ": 6206,
      "െറു": 6207,
      "ൈയ": 6208,
      "നിരു": 6209,
      "പോർ": 6210,
      "നാര്": 6211,
      "ഡിക്ക": 6212,
      "ആശാ": 6213,
      "ിടെയ": 6214,
      "്പിക്": 6215,
      "അമല": 6216,
      "അബു": 6217,
      "ആക്ര": 6218,
      "ദഗ്": 6219,
      "ബൽ": 6220,
      "മഥ": 6221,
      "രത്ത്": 6222,
      "ശിക": 6223,
      "ാവര": 6224,
      "ിഷേ": 6225,
      "വിറ": 6226,
      "ഒരുക": 6227,
      "ണ്‍": 6228,
      "ലാൽ": 6229,
      "്തമ": 6230,
      "105": 6231,
      "ദിച്ച": 6232,
      "ീപിന": 6233,
      "്രീം": 6234,
      "ല്ലുവ": 6235,
      "യുകയ": 6236,
      "ഇളയ": 6237,
      "ഥിയാ": 6238,
      "പോർട്": 6239,
      "ac": 6240,
      "nt": 6241,
      "res": 6242,
      "ആനി": 6243,
      "യവര": 6244,
      "രമേ": 6245,
      "രഖ്": 6246,
      "ഹത്തി": 6247,
      "ർവ്": 6248,
      "്യന്ത": 6249,
      "ിച്ചെ": 6250,
      "നേഷ": 6251,
      "ബാക്": 6252,
      "്ലായ": 6253,
      "ാമ്യ": 6254,
      "യ്യാന": 6255,
      "്തപ": 6256,
      "102": 6257,
      "ടേം": 6258,
      "മന്ത്": 6259,
      "രാവില": 6260,
      "al": 6261,
      "me": 6262,
      "എഐ": 6263,
      "പള": 6264,
      "ഭട": 6265,
      "ളില": 6266,
      "ീഴ": 6267,
      "ൂരു": 6268,
      "##ുര": 6269,
      "കൊറ": 6270,
      "സാം": 6271,
      "മിതി": 6272,
      "നുണ്ട": 6273,
      "തലം": 6274,
      "ാറു": 6275,
      "ആണവ": 6276,
      "െയ്തത": 6277,
      "##dia": 6278,
      "രേഷ്": 6279,
      "ംഭി": 6280,
      "ഉന്": 6281,
      "ഊഹ": 6282,
      "കസ": 6283,
      "ഡവ": 6284,
      "രവേ": 6285,
      "റത്ത്": 6286,
      "സത്": 6287,
      "ീരുമ": 6288,
      "ൺഗ്ര": 6289,
      "യാൻ": 6290,
      "്യുമ": 6291,
      "101": 6292,
      "മാനത": 6293,
      "അസൽ": 6294,
      "്തപുര": 6295,
      "ൺഗ്രസ": 6296,
      "ഗജ": 6297,
      "ടൗ": 6298,
      "തന്ത": 6299,
      "ബബ": 6300,
      "ാടു": 6301,
      "ുതല": 6302,
      "ൃപ": 6303,
      "്ച്ച": 6304,
      "##രുട": 6305,
      "മുക്ക": 6306,
      "വാക": 6307,
      "കാരു": 6308,
      "കായ": 6309,
      "ികയില": 6310,
      "്പം": 6311,
      "ാഗമ": 6312,
      "ുവെ": 6313,
      "റുന്ന": 6314,
      "107": 6315,
      "ദ്യോ": 6316,
      "170": 6317,
      "െട്ടാ": 6318,
      "അഭയ": 6319,
      "ക്ലാസ": 6320,
      "ഋതു": 6321,
      "ധീന": 6322,
      "മയി": 6323,
      "്ടതാ": 6324,
      "വെന": 6325,
      "അവരുട": 6326,
      "ല്ലിയ": 6327,
      "ംഗീ": 6328,
      "റാക": 6329,
      "ാരാഷ്": 6330,
      "ക്തിക": 6331,
      "്റന": 6332,
      "ൻസല": 6333,
      "ളുട": 6334,
      "യനാ": 6335,
      "ഭീം": 6336,
      "നകം": 6337,
      "ർന്നു": 6338,
      "സൃഷ്": 6339,
      "lo": 6340,
      "ടാണ്": 6341,
      "മേശ": 6342,
      "െത": 6343,
      "ൊതു": 6344,
      "##as": 6345,
      "മുന": 6346,
      "മുസ": 6347,
      "സ്ലീ": 6348,
      "ികയാ": 6349,
      "്പർ": 6350,
      "സീമ": 6351,
      "സർക്ക": 6352,
      "ചിട്ട": 6353,
      "ംഗത": 6354,
      "ാഗസ": 6355,
      "ഷ്ടമ": 6356,
      "ധിപ": 6357,
      "്നല": 6358,
      "114": 6359,
      "അങ്ങന": 6360,
      "സുധാ": 6361,
      "ഗഫ": 6362,
      "ദോ": 6363,
      "പടിയ": 6364,
      "ലമായ": 6365,
      "ാറി": 6366,
      "ത്തവ": 6367,
      "ിലപ": 6368,
      "ിട്ടാ": 6369,
      "താവന": 6370,
      "തുക്": 6371,
      "നാൾ": 6372,
      "ായിരി": 6373,
      "ലോൺ": 6374,
      "മ്മേ": 6375,
      "ികളില": 6376,
      "സെൽ": 6377,
      "ാറിയ": 6378,
      "103": 6379,
      "112": 6380,
      "്യതയ": 6381,
      "ുക്കാ": 6382,
      "350": 6383,
      "ഒമർ": 6384,
      "ഉംറ": 6385,
      "സ്രാ": 6386,
      "ഉമാ": 6387,
      "റക്": 6388,
      "ലഭ": 6389,
      "ളശ": 6390,
      "ഷൺ": 6391,
      "ാപാ": 6392,
      "##ഴവ": 6393,
      "##ൈവ": 6394,
      "തുവ": 6395,
      "ട്ടിര": 6396,
      "അനുക": 6397,
      "കൈവ": 6398,
      "ഞ്ഞത": 6399,
      "ൊന്നു": 6400,
      "ക്തിയ": 6401,
      "െട്ട്": 6402,
      "യന്ത്": 6403,
      "ലീസിന": 6404,
      "con": 6405,
      "ഇപ്പോ": 6406,
      "ii": 6407,
      "rs": 6408,
      "ണര": 6409,
      "യച": 6410,
      "വദേ": 6411,
      "വട്": 6412,
      "ട്ടര": 6413,
      "കാഴ്": 6414,
      "റിമ": 6415,
      "ാക്കൾ": 6416,
      "ശേഷമാ": 6417,
      "ചോര": 6418,
      "റോണ": 6419,
      "ളിക്": 6420,
      "േഷണ": 6421,
      "ഗാസ": 6422,
      "േശം": 6423,
      "രേന്": 6424,
      "ുപ്പു": 6425,
      "https": 6426,
      "to": 6427,
      "ആപ്": 6428,
      "ണസ": 6429,
      "പള്ള": 6430,
      "ബം": 6431,
      "ഷല": 6432,
      "ഹോദര": 6433,
      "ീഡി": 6434,
      "ീക്ഷി": 6435,
      "േത്ര": 6436,
      "ൊന": 6437,
      "##la": 6438,
      "##ഷി": 6439,
      "##cc": 6440,
      "മുള്": 6441,
      "്യപ": 6442,
      "ടുതല": 6443,
      "ദേശിന": 6444,
      "ണിയി": 6445,
      "ാരങ്ങ": 6446,
      "തയ്": 6447,
      "ലാത്ത": 6448,
      "104": 6449,
      "്മീ": 6450,
      "ധിക്": 6451,
      "111": 6452,
      "ഷീബ": 6453,
      "ോഗി": 6454,
      "ബദൽ": 6455,
      "ടൗൺ": 6456,
      "01": 6457,
      "ch": 6458,
      "ഗിന": 6459,
      "ഗിക": 6460,
      "പും": 6461,
      "യമാണ്": 6462,
      "േരാ": 6463,
      "െന്നാ": 6464,
      "പോസ": 6465,
      "ന്നതാ": 6466,
      "ായാ": 6467,
      "ക്ഷണം": 6468,
      "്പന്": 6469,
      "ആശയ": 6470,
      "െയെ": 6471,
      "ത്യക": 6472,
      "റിലാ": 6473,
      "119": 6474,
      "കൺസ": 6475,
      "്രെയി": 6476,
      "ഫയർ": 6477,
      "ct": 6478,
      "de": 6479,
      "ne": 6480,
      "അക്ര": 6481,
      "ഘോ": 6482,
      "ണൂ": 6483,
      "പവർ": 6484,
      "ലഷ": 6485,
      "ഴില": 6486,
      "ഷബ": 6487,
      "ൽക": 6488,
      "ച്ചക": 6489,
      "ട്ടയം": 6490,
      "പിഐ": 6491,
      "പാടിയ": 6492,
      "കാത": 6493,
      "ക്കായ": 6494,
      "ശേഷമ": 6495,
      "ഡോക": 6496,
      "കാലാ": 6497,
      "ഴ്ചയ": 6498,
      "സ്ത്": 6499,
      "ആലപ": 6500,
      "വധു": 6501,
      "പവൻ": 6502,
      "ar": 6503,
      "ഏര": 6504,
      "ടികള": 6505,
      "ണുക": 6506,
      "ൗദ": 6507,
      "ർച്": 6508,
      "##de": 6509,
      "##df": 6510,
      "##pe": 6511,
      "ിയൊ": 6512,
      "റ്റാണ": 6513,
      "ിന്ന്": 6514,
      "കാരാ": 6515,
      "സ്ഥര": 6516,
      "ട്ടിട": 6517,
      "ുത്ത്": 6518,
      "കേരളം": 6519,
      "്പോര്": 6520,
      "കടൽ": 6521,
      "106": 6522,
      "113": 6523,
      "240": 6524,
      "ൊണ്ടി": 6525,
      "ൊണ്ട്": 6526,
      "##are": 6527,
      "prote": 6528,
      "ce": 6529,
      "cp": 6530,
      "for": 6531,
      "ടപ": 6532,
      "ടൊ": 6533,
      "നക്": 6534,
      "വക്": 6535,
      "സ്സ്": 6536,
      "്ടോ": 6537,
      "122": 6538,
      "ഏതോ": 6539,
      "117": 6540,
      "ണ്ടാം": 6541,
      "ാരനാ": 6542,
      "രന്റെ": 6543,
      "cte": 6544,
      "ആരു": 6545,
      "എവി": 6546,
      "ഗല": 6547,
      "ഞെ": 6548,
      "തബ": 6549,
      "പരം": 6550,
      "യതു": 6551,
      "രഥ": 6552,
      "റൻസ": 6553,
      "ലഫ": 6554,
      "ലസ്": 6555,
      "##ൂഡ": 6556,
      "##ൌൺ": 6557,
      "കേറ": 6558,
      "പിൽ": 6559,
      "ടുക": 6560,
      "തുള്": 6561,
      "വന്നത": 6562,
      "ണമെ": 6563,
      "യോഗ്": 6564,
      "്റ്റഡ": 6565,
      "ാഗി": 6566,
      "്കില്": 6567,
      "230": 6568,
      "ക്കലു": 6569,
      "രഘു": 6570,
      "email": 6571,
      "ൂണ്ടി": 6572,
      "cted": 6573,
      "po": 6574,
      "എഎം": 6575,
      "മീഷ": 6576,
      "രികള": 6577,
      "ശല": 6578,
      "ാമന": 6579,
      "ൂക": 6580,
      "ൃഷ": 6581,
      "േണ്": 6582,
      "ൗണ്": 6583,
      "##im": 6584,
      "ിലര": 6585,
      "യാഴ": 6586,
      "ോടിയ": 6587,
      "ദേശിയ": 6588,
      "തൃത": 6589,
      "ഷിക്": 6590,
      "്യുന": 6591,
      "118": 6592,
      "175": 6593,
      "280": 6594,
      "മണൽ": 6595,
      "ാധിപ": 6596,
      "അഭിന": 6597,
      "ൻവറ": 6598,
      "en": 6599,
      "ks": 6600,
      "nic": 6601,
      "of": 6602,
      "ഊര": 6603,
      "ഔഷ": 6604,
      "കറി": 6605,
      "ചയി": 6606,
      "തരു": 6607,
      "ധ്": 6608,
      "ബള": 6609,
      "ഹൂഡ": 6610,
      "ുന്നോ": 6611,
      "ിലു": 6612,
      "്രാമ": 6613,
      "ാവിന": 6614,
      "ലിക്": 6615,
      "ാരന്": 6616,
      "രമം": 6617,
      "145": 6618,
      "ാനമാണ": 6619,
      "നിമയ": 6620,
      "ഗീത": 6621,
      "മ്മേള": 6622,
      "ഔഷധ": 6623,
      "ടമായ": 6624,
      "ദഹ": 6625,
      "ധമ": 6626,
      "യദ": 6627,
      "രൻ": 6628,
      "ഷമി": 6629,
      "ീതിയ": 6630,
      "േശി": 6631,
      "ൈനി": 6632,
      "ൾക": 6633,
      "##il": 6634,
      "കാൽ": 6635,
      "ാലക്ക": 6636,
      "നീല": 6637,
      "കളിലെ": 6638,
      "്താന": 6639,
      "ിയാക": 6640,
      "്ഷത": 6641,
      "135": 6642,
      "ണുന്ന": 6643,
      "കരണം": 6644,
      "ഴിവാ": 6645,
      "ഞ്ഞിട": 6646,
      "ംവിധാ": 6647,
      "ളിലും": 6648,
      "se": 6649,
      "കച്ച": 6650,
      "ഡൌൺ": 6651,
      "നഖ": 6652,
      "ബയോ": 6653,
      "യഹ": 6654,
      "യമായി": 6655,
      "രൈ": 6656,
      "രങ്ങൾ": 6657,
      "റുപ": 6658,
      "ഹല": 6659,
      "മാധ": 6660,
      "പാൻ": 6661,
      "ികമായ": 6662,
      "രുമാ": 6663,
      "്കറ": 6664,
      "124": 6665,
      "115": 6666,
      "116": 6667,
      "്റാ": 6668,
      "220": 6669,
      "450": 6670,
      "india": 6671,
      "ോഗം": 6672,
      "ൂപീ": 6673,
      "മ്പോള": 6674,
      "ഡയറക്": 6675,
      "ിമുട": 6676,
      "ri": 6677,
      "ഈന": 6678,
      "എണ്": 6679,
      "ഗൺ": 6680,
      "ചര": 6681,
      "ജര": 6682,
      "മൻസ": 6683,
      "രയും": 6684,
      "റര്": 6685,
      "ലങ്ങള": 6686,
      "ിധ": 6687,
      "##ap": 6688,
      "##ur": 6689,
      "##ut": 6690,
      "##vi": 6691,
      "ങ്ങാന": 6692,
      "്യക്ക": 6693,
      "പാൽ": 6694,
      "കാള": 6695,
      "്പ്": 6696,
      "ട്രെ": 6697,
      "കിൽ": 6698,
      "ഓഫർ": 6699,
      "തയ്യ": 6700,
      "ാമസി": 6701,
      "ുപട": 6702,
      "രേയ": 6703,
      "ൾക്കു": 6704,
      "േർന്ന": 6705,
      "900": 6706,
      "ആഴം": 6707,
      "ഫഷന": 6708,
      "ഫസർ": 6709,
      "da": 6710,
      "sh": 6711,
      "ഋഷി": 6712,
      "ഓൺ": 6713,
      "കരാ": 6714,
      "നൗ": 6715,
      "രഭ": 6716,
      "രമന": 6717,
      "ററി": 6718,
      "ലത്തെ": 6719,
      "ൂമ": 6720,
      "##ss": 6721,
      "##യിൽ": 6722,
      "സ്ബു": 6723,
      "കുന": 6724,
      "്ടര്": 6725,
      "ബിജ": 6726,
      "കൂറ": 6727,
      "ാലക": 6728,
      "ഡിക്": 6729,
      "്വയ": 6730,
      "്ലയ": 6731,
      "ാളു": 6732,
      "്തുകള": 6733,
      "ശാന്": 6734,
      "രിയും": 6735,
      "ീസിന": 6736,
      "ദ്രത": 6737,
      "്യാര്": 6738,
      "403": 6739,
      "ാഭ്": 6740,
      "ഏഴര": 6741,
      "െട്ടു": 6742,
      "ാക്സ": 6743,
      "യയെ": 6744,
      "care": 6745,
      "oo": 6746,
      "ഓവർ": 6747,
      "കങ്ങ": 6748,
      "കവി": 6749,
      "കയാ": 6750,
      "നമായി": 6751,
      "രൽ": 6752,
      "റഡ": 6753,
      "ളീ": 6754,
      "ുഷ്യ": 6755,
      "ുഴു": 6756,
      "െപ": 6757,
      "ൻമ": 6758,
      "ർട്": 6759,
      "##ne": 6760,
      "##li": 6761,
      "ക്കത": 6762,
      "ിയന": 6763,
      "ബാർ": 6764,
      "ക്ഷം": 6765,
      "ോടതിയ": 6766,
      "ിടാ": 6767,
      "്കാര": 6768,
      "ഷനു": 6769,
      "റിയില": 6770,
      "യ്യും": 6771,
      "109": 6772,
      "യത്തി": 6773,
      "ിമര": 6774,
      "്ചേ": 6775,
      "137": 6776,
      "ഷോൺ": 6777,
      "്പൂര": 6778,
      "കൺവ": 6779,
      "ing": 6780,
      "ഹംസ": 6781,
      "രനെ": 6782,
      "രവാദ": 6783,
      "the": 6784,
      "kar": 6785,
      "ഇകെ": 6786,
      "എബി": 6787,
      "ഐജി": 6788,
      "ഓൾ": 6789,
      "ണിക": 6790,
      "തടി": 6791,
      "നത്": 6792,
      "ബലി": 6793,
      "യക്": 6794,
      "രമാ": 6795,
      "ളന": 6796,
      "ളുമ": 6797,
      "ഷർ": 6798,
      "സബ": 6799,
      "ഹറ": 6800,
      "പ്പുക": 6801,
      "്രന്": 6802,
      "രാഹ": 6803,
      "്ടറ": 6804,
      "റ്റവ": 6805,
      "പിത": 6806,
      "സാക": 6807,
      "ണ്ടത": 6808,
      "ട്ടിപ": 6809,
      "ജനന": 6810,
      "അന്വ": 6811,
      "ാരവ": 6812,
      "ിഡന്": 6813,
      "ാമസ": 6814,
      "ചികി": 6815,
      "128": 6816,
      "126": 6817,
      "149": 6818,
      "132": 6819,
      "182": 6820,
      "165": 6821,
      "ഷീല": 6822,
      "ുമാനമ": 6823,
      "രയില്": 6824,
      "ുമുള്": 6825,
      "02": 6826,
      "ഇല്ലാ": 6827,
      "ജൈവ": 6828,
      "ടല്": 6829,
      "തമാണ": 6830,
      "ലര": 6831,
      "വംഗ": 6832,
      "ഹമ": 6833,
      "ഹിന": 6834,
      "ീഗ": 6835,
      "െണ്": 6836,
      "##ri": 6837,
      "ന്നറ": 6838,
      "പാടി": 6839,
      "ടുത": 6840,
      "ുമി": 6841,
      "പേരാണ": 6842,
      "ടക്കു": 6843,
      "്ലു": 6844,
      "മാറിന": 6845,
      "വിമർ": 6846,
      "ആരംഭ": 6847,
      "കലും": 6848,
      "അയൽ": 6849,
      "131": 6850,
      "136": 6851,
      "190": 6852,
      "ടോൾ": 6853,
      "ിഗണ": 6854,
      "ിർദ്ദ": 6855,
      "പനങ്ങ": 6856,
      "ഇനം": 6857,
      "യപ്പെ": 6858,
      "am": 6859,
      "ni": 6860,
      "ul": 6861,
      "ഇതി": 6862,
      "ഈസ്": 6863,
      "രളം": 6864,
      "ലഖ": 6865,
      "വമ": 6866,
      "ശർമ": 6867,
      "െളിവ": 6868,
      "ർസ": 6869,
      "്രവാ": 6870,
      "ങ്ങളാ": 6871,
      "ായമ": 6872,
      "്പമ": 6873,
      "റെയും": 6874,
      "്പോള": 6875,
      "തൊഴി": 6876,
      "ഷണത്ത": 6877,
      "നെന്": 6878,
      "ാമ്": 6879,
      "ശാസ്": 6880,
      "െടാ": 6881,
      "മീര": 6882,
      "യുവത": 6883,
      "154": 6884,
      "121": 6885,
      "129": 6886,
      "യൊര": 6887,
      "േരത്ത": 6888,
      "ശുഭ": 6889,
      "ാജ്യ": 6890,
      "ടർന്ന": 6891,
      "്രവാസ": 6892,
      "04": 6893,
      "ംഘ": 6894,
      "ഗൃ": 6895,
      "ഗസ്": 6896,
      "ചര്യ": 6897,
      "പന്": 6898,
      "പാര": 6899,
      "ഷവ": 6900,
      "ാഭ്യ": 6901,
      "ാഹന": 6902,
      "േളന": 6903,
      "ൗകര": 6904,
      "ർണാ": 6905,
      "##jp": 6906,
      "ികൃത": 6907,
      "വീഡി": 6908,
      "പറയാ": 6909,
      "മേട": 6910,
      "മ്മദ്": 6911,
      "ാർട്": 6912,
      "്വന": 6913,
      "്വത്ത": 6914,
      "്കപ്പ": 6915,
      "റുള്ള": 6916,
      "ാതിരി": 6917,
      "ിഞ്ഞത": 6918,
      "െല്ലു": 6919,
      "320": 6920,
      "ുബാ": 6921,
      "യുകയാ": 6922,
      "ഇനിയ": 6923,
      "ആദം": 6924,
      "സുധാക": 6925,
      "ണൂര്": 6926,
      "ഗൃഹ": 6927,
      "ൗകര്യ": 6928,
      "05": 6929,
      "it": 6930,
      "ss": 6931,
      "te": 6932,
      "ഇഎ": 6933,
      "ഊണ": 6934,
      "ഖോ": 6935,
      "ഗൂ": 6936,
      "ജേ": 6937,
      "ണക്കി": 6938,
      "ദ്രമ": 6939,
      "പശ": 6940,
      "ഫൻസ": 6941,
      "ശമ": 6942,
      "ഷിയ": 6943,
      "ഹങ്ങ": 6944,
      "സ്‌": 6945,
      "്യക": 6946,
      "കോര": 6947,
      "ന്നാല": 6948,
      "ന്തപ": 6949,
      "സർക": 6950,
      "ഞ്ഞാല": 6951,
      "വിജയന": 6952,
      "്കയ": 6953,
      "ത്യമാ": 6954,
      "ാളിക": 6955,
      "നോൺ": 6956,
      "്തം": 6957,
      "്തത": 6958,
      "തേക്ക": 6959,
      "മീൻ": 6960,
      "ലെന്": 6961,
      "ാരണം": 6962,
      "ുവിന്": 6963,
      "ീഷന": 6964,
      "ർത്തന": 6965,
      "194": 6966,
      "174": 6967,
      "750": 6968,
      "5ജി": 6969,
      "ip": 6970,
      "nor": 6971,
      "ra": 6972,
      "ഗഗ": 6973,
      "ഗനി": 6974,
      "തഹ": 6975,
      "ഭവി": 6976,
      "രാര": 6977,
      "രക്": 6978,
      "റഗ": 6979,
      "ളേജ": 6980,
      "ഹകര": 6981,
      "ുതൽ": 6982,
      "ോഴി": 6983,
      "##us": 6984,
      "##fi": 6985,
      "പ്പര": 6986,
      "മാധ്യ": 6987,
      "ന്ധി": 6988,
      "തിന്റ": 6989,
      "സാർ": 6990,
      "ുമ്": 6991,
      "തുണ്ട": 6992,
      "നാൽ": 6993,
      "ികം": 6994,
      "ുറന": 6995,
      "്പും": 6996,
      "്വസ": 6997,
      "റെയി": 6998,
      "ക്രട": 6999,
      "ാകാ": 7000,
      "ാകു": 7001,
      "ഹിന്": 7002,
      "റിയത": 7003,
      "യ്യു": 7004,
      "ിലാക": 7005,
      "ദിശ": 7006,
      "ദ്യമ": 7007,
      "ലെന": 7008,
      "ഷംന": 7009,
      "അമ്മയ": 7010,
      "ഡിഎഫ്": 7011,
      "243": 7012,
      "ഗാന്": 7013,
      "142": 7014,
      "139": 7015,
      "സോണ": 7016,
      "224": 7017,
      "മ്മുട": 7018,
      "സഫ്": 7019,
      "യയില്": 7020,
      "ഫുൾ": 7021,
      "കപട": 7022,
      "be": 7023,
      "bjp": 7024,
      "ed": 7025,
      "ge": 7026,
      "gm": 7027,
      "ic": 7028,
      "ആൽ": 7029,
      "ഉഴവ": 7030,
      "മടി": 7031,
      "റയാ": 7032,
      "ളുക": 7033,
      "വൃത": 7034,
      "ഷൽ": 7035,
      "ൻബ": 7036,
      "##ul": 7037,
      "##ms": 7038,
      "യിലി": 7039,
      "ിയയ": 7040,
      "ിയതാ": 7041,
      "ട്ടാണ": 7042,
      "ാണെ": 7043,
      "്കിൽ": 7044,
      "ഗുര": 7045,
      "ത്യന": 7046,
      "മീണ": 7047,
      "മീന": 7048,
      "ജാഥ": 7049,
      "146": 7050,
      "138": 7051,
      "188": 7052,
      "ൂരില്": 7053,
      "െക്കു": 7054,
      "വധഗ": 7055,
      "കൺഫ": 7056,
      "425": 7057,
      "ൾഡൻ": 7058,
      "്ലെന്": 7059,
      "്ദാ": 7060,
      "്ദ്രത": 7061,
      "സൃഷ്ട": 7062,
      "സുകാര": 7063,
      "3ന്": 7064,
      "jo": 7065,
      "ty": 7066,
      "അള": 7067,
      "ഇൽ": 7068,
      "ഊഴ": 7069,
      "ഖമ": 7070,
      "ജബ": 7071,
      "ജിവ": 7072,
      "ടറ": 7073,
      "തൻ": 7074,
      "ഭക": 7075,
      "രഗ": 7076,
      "രത്തി": 7077,
      "ഷൈ": 7078,
      "ിച": 7079,
      "ുപടി": 7080,
      "ൽപ്": 7081,
      "##ac": 7082,
      "##so": 7083,
      "്രദ": 7084,
      "രാത": 7085,
      "രാവി": 7086,
      "നേജ": 7087,
      "ന്നാണ": 7088,
      "റ്റിക": 7089,
      "വാണ്": 7090,
      "ടുതൽ": 7091,
      "രിന്": 7092,
      "ടിം": 7093,
      "ാണാ": 7094,
      "തലേ": 7095,
      "ണിപ്പ": 7096,
      "്കള": 7097,
      "്കിന": 7098,
      "153": 7099,
      "കയാണ": 7100,
      "്നില": 7101,
      "134": 7102,
      "193": 7103,
      "181": 7104,
      "സോൺ": 7105,
      "ോഗികള": 7106,
      "്ട്രീ": 7107,
      "കെടുക": 7108,
      "read": 7109,
      "കസബ": 7110,
      "യനാട്": 7111,
      "oots": 7112,
      "9ന്": 7113,
      "do": 7114,
      "is": 7115,
      "no": 7116,
      "അണി": 7117,
      "ആള്": 7118,
      "ധം": 7119,
      "നില്ല": 7120,
      "മകര": 7121,
      "റക്ട": 7122,
      "ലൊ": 7123,
      "വഡ": 7124,
      "ാങ്ങി": 7125,
      "ുരള": 7126,
      "ൊള": 7127,
      "ൻക": 7128,
      "ർധ": 7129,
      "##ha": 7130,
      "##me": 7131,
      "ിലക്": 7132,
      "യുപ": 7133,
      "തിക്": 7134,
      "കോയ": 7135,
      "ുണ്ടെ": 7136,
      "ന്നില": 7137,
      "വരൻ": 7138,
      "സാറ": 7139,
      "ാലക്": 7140,
      "്പത": 7141,
      "ഇടവ": 7142,
      "സൗര": 7143,
      "ിവസ": 7144,
      "ലൈം": 7145,
      "യത്തു": 7146,
      "ബോറ": 7147,
      "കലു": 7148,
      "ധനം": 7149,
      "വനക്ക": 7150,
      "151": 7151,
      "127": 7152,
      "123": 7153,
      "്നറ": 7154,
      "ജാഗ": 7155,
      "ിങ്ങൾ": 7156,
      "133": 7157,
      "നയില്": 7158,
      "210": 7159,
      "നിൽക": 7160,
      "വശം": 7161,
      "##alam": 7162,
      "cois": 7163,
      "covi": 7164,
      "യ്തു": 7165,
      "തുണയ": 7166,
      "ശ്യപ്": 7167,
      "്തോള": 7168,
      "ാറിന്": 7169,
      "gmail": 7170,
      "covid": 7171,
      "%,": 7172,
      "1ന്": 7173,
      "cr": 7174,
      "ldf": 7175,
      "mala": 7176,
      "ro": 7177,
      "കയാണ്": 7178,
      "ഖന": 7179,
      "ഝാ": 7180,
      "നമാ": 7181,
      "യയിൽ": 7182,
      "രപ": 7183,
      "റര": 7184,
      "റയി": 7185,
      "ലധ": 7186,
      "ലീപ": 7187,
      "ഷര": 7188,
      "ഷൂ": 7189,
      "ുടു": 7190,
      "ുങ്": 7191,
      "##ag": 7192,
      "##se": 7193,
      "##യെ": 7194,
      "യുന": 7195,
      "പാഷ": 7196,
      "ണ്ടെന": 7197,
      "നിലപാ": 7198,
      "ബാവ": 7199,
      "മിത്": 7200,
      "്വന്": 7201,
      "സൂര്": 7202,
      "നുവദ": 7203,
      "ണിച": 7204,
      "്കത്ത": 7205,
      "്കാന": 7206,
      "കടമ": 7207,
      "ിപിഎ": 7208,
      "ലീന": 7209,
      "സൈനി": 7210,
      "141": 7211,
      "രണയ": 7212,
      "സാധിക": 7213,
      "ര്യമാ": 7214,
      "176": 7215,
      "ളുണ്ട": 7216,
      "ഘടക": 7217,
      "270": 7218,
      "310": 7219,
      "അജു": 7220,
      "മണർ": 7221,
      "രസം": 7222,
      "550": 7223,
      "and": 7224,
      "also": 7225,
      "പശു": 7226,
      "ഖനന": 7227,
      "08": 7228,
      "07": 7229,
      "03": 7230,
      "8ന്": 7231,
      "ai": 7232,
      "ap": 7233,
      "cm": 7234,
      "ex": 7235,
      "he": 7236,
      "le": 7237,
      "mo": 7238,
      "mla": 7239,
      "ആൺ": 7240,
      "ഈഴവ": 7241,
      "ഐബി": 7242,
      "ഖഷ": 7243,
      "ടാന": 7244,
      "യങ്": 7245,
      "ലതാ": 7246,
      "ഹോട്": 7247,
      "ീനി": 7248,
      "േധ": 7249,
      "േറ്": 7250,
      "്ധി": 7251,
      "പ്പള": 7252,
      "വിച": 7253,
      "മുണ്": 7254,
      "തിച": 7255,
      "തിജ": 7256,
      "്രാന": 7257,
      "രാഷ": 7258,
      "കുന്": 7259,
      "ന്നവ": 7260,
      "പിക്ക": 7261,
      "ുമത": 7262,
      "സ്വയ": 7263,
      "തിനും": 7264,
      "കെഎ": 7265,
      "മുഖ്": 7266,
      "ഭാര്": 7267,
      "ാവശ": 7268,
      "ചേരു": 7269,
      "കിന്": 7270,
      "ുരത": 7271,
      "കേസു": 7272,
      "ത്യൻ": 7273,
      "ത്യന്": 7274,
      "മലയാ": 7275,
      "ാസം": 7276,
      "ലീല": 7277,
      "152": 7278,
      "143": 7279,
      "ഹാജര": 7280,
      "ബുക്": 7281,
      "183": 7282,
      "േശത്ത": 7283,
      "177": 7284,
      "കമൽ": 7285,
      "കാനാണ": 7286,
      "ംശയ": 7287,
      "നക്കാ": 7288,
      "420": 7289,
      "ധീര": 7290,
      "െരഞ്ഞ": 7291,
      "ോയെ": 7292,
      "ഇഷാ": 7293,
      "ഗീകരി": 7294,
      "ംഗീക": 7295,
      "06": 7296,
      "6ന്": 7297,
      "dr": 7298,
      "mm": 7299,
      "nb": 7300,
      "ry": 7301,
      "un": 7302,
      "ഈർ": 7303,
      "കവർ": 7304,
      "ബഗ": 7305,
      "ശമാ": 7306,
      "ഷമായി": 7307,
      "ഹൗ": 7308,
      "ിവര്": 7309,
      "ൂച": 7310,
      "ോവി": 7311,
      "##nt": 7312,
      "##pc": 7313,
      "##ശോ": 7314,
      "മാൻ": 7315,
      "ാനായ": 7316,
      "രാക്": 7317,
      "കോം": 7318,
      "ന്നതി": 7319,
      "നാഗ": 7320,
      "നാലെ": 7321,
      "അതാ": 7322,
      "പൊള": 7323,
      "രൂപീ": 7324,
      "മ്മീ": 7325,
      "രീന": 7326,
      "ാധാര": 7327,
      "ാമൂ": 7328,
      "മഴവ": 7329,
      "ആലം": 7330,
      "201": 7331,
      "156": 7332,
      "157": 7333,
      "്നത": 7334,
      "147": 7335,
      "ടാന്": 7336,
      "178": 7337,
      "173": 7338,
      "179": 7339,
      "163": 7340,
      "ഗൗഡ": 7341,
      "ലയു": 7342,
      "213": 7343,
      "ഴിയാ": 7344,
      "േരാണ്": 7345,
      "5ന്": 7346,
      "7ന്": 7347,
      "bi": 7348,
      "bo": 7349,
      "ho": 7350,
      "ma": 7351,
      "sc": 7352,
      "ti": 7353,
      "yalam": 7354,
      "അഥ": 7355,
      "ഊരി": 7356,
      "ഖര": 7357,
      "ഗികള": 7358,
      "ജമാ": 7359,
      "ഡഡ": 7360,
      "തരി": 7361,
      "ദസ": 7362,
      "ധക": 7363,
      "ധമായ": 7364,
      "ളഗ": 7365,
      "ശിന": 7366,
      "ിചാര": 7367,
      "ീരി": 7368,
      "ർഭ": 7369,
      "ർആ": 7370,
      "ൽജ": 7371,
      "##av": 7372,
      "##ys": 7373,
      "വിദ്": 7374,
      "ാനിക": 7375,
      "്ടേ": 7376,
      "നേർ": 7377,
      "ക്‌": 7378,
      "തെന": 7379,
      "ടിപ്": 7380,
      "്പിന": 7381,
      "്പള്ള": 7382,
      "പക്ഷത": 7383,
      "ദ്ധിക": 7384,
      "ാർക": 7385,
      "സൂം": 7386,
      "കരൾ": 7387,
      "്തുമ": 7388,
      "ിലൂട": 7389,
      "202": 7390,
      "158": 7391,
      "159": 7392,
      "ദ്രം": 7393,
      "198": 7394,
      "185": 7395,
      "ൻസൻ": 7396,
      "ിഎസ": 7397,
      "െൻറ": 7398,
      "പാതക": 7399,
      "216": 7400,
      "212": 7401,
      "225": 7402,
      "സ്സു": 7403,
      "272": 7404,
      "295": 7405,
      "യവു": 7406,
      "കമ്പന": 7407,
      "543": 7408,
      "ലഹള": 7409,
      "ദോഹ": 7410,
      "ടുതല്": 7411,
      "്ലുവ": 7412,
      "ipl": 7413,
      "ആൽഫ": 7414,
      "??": 7415,
      "ad": 7416,
      "at": 7417,
      "gh": 7418,
      "hi": 7419,
      "la": 7420,
      "nat": 7421,
      "udf": 7422,
      "we": 7423,
      "ആഘ": 7424,
      "ആറോ": 7425,
      "ഈസ": 7426,
      "ഈശോ": 7427,
      "ഊർ": 7428,
      "ഓർമ": 7429,
      "ഔൺ": 7430,
      "കഷ": 7431,
      "ഗദ": 7432,
      "ചില്": 7433,
      "ദ്യാ": 7434,
      "ററ": 7435,
      "വത്തി": 7436,
      "ഷഹന": 7437,
      "സപ": 7438,
      "െള്ള": 7439,
      "ൊവി": 7440,
      "ർന്ന്": 7441,
      "##ാം": 7442,
      "##ge": 7443,
      "##ഡ്": 7444,
      "ക്കള്": 7445,
      "മാള": 7446,
      "യാഴ്": 7447,
      "ിയുമ": 7448,
      "യെത": 7449,
      "നാർ": 7450,
      "ംബന": 7451,
      "്വീ": 7452,
      "യൂണ": 7453,
      "ഡോൺ": 7454,
      "തലാ": 7455,
      "്കെയ": 7456,
      "ാരത്ത": 7457,
      "തയു": 7458,
      "ാറായ": 7459,
      "ിയാക്": 7460,
      "്നിവ": 7461,
      "ടിയെ": 7462,
      "245": 7463,
      "ഫാൻ": 7464,
      "റൂൾ": 7465,
      "167": 7466,
      "162": 7467,
      "169": 7468,
      "്ധതി": 7469,
      "ലയന": 7470,
      "ലിയില": 7471,
      "ഭവൻ": 7472,
      "ജഗത": 7473,
      "രചന": 7474,
      "##ain": 7475,
      "തഴവ": 7476,
      "vir": 7477,
      "ചരൺ": 7478,
      "ഊർജ": 7479,
      "ഔൺസ": 7480,
      "09": 7481,
      "4ന്": 7482,
      "ab": 7483,
      "di": 7484,
      "ir": 7485,
      "ive": 7486,
      "li": 7487,
      "nd": 7488,
      "rat": 7489,
      "si": 7490,
      "wh": 7491,
      "ംസ്ഥ": 7492,
      "ആൻ": 7493,
      "ഇഇ": 7494,
      "ഈഴ": 7495,
      "ഐസ്": 7496,
      "ഐസി": 7497,
      "കയും": 7498,
      "ഗൽ": 7499,
      "ജില്": 7500,
      "യഥ": 7501,
      "രൾ": 7502,
      "രവര്": 7503,
      "വ്ര": 7504,
      "സ്റ": 7505,
      "ിപത": 7506,
      "ൈയി": 7507,
      "്ദി": 7508,
      "ൽഗ": 7509,
      "##sc": 7510,
      "മാൾ": 7511,
      "വിന്റ": 7512,
      "യിലേ": 7513,
      "്യല്": 7514,
      "ാലത": 7515,
      "ാവധ": 7516,
      "വർമ": 7517,
      "വർഗ": 7518,
      "ുടക്": 7519,
      "മണിക്": 7520,
      "ഷണൽ": 7521,
      "റാന്": 7522,
      "റോൾ": 7523,
      "ലാളി": 7524,
      "്തന": 7525,
      "കൗർ": 7526,
      "രണങ്ങ": 7527,
      "506": 7528,
      "േരില": 7529,
      "ർഷം": 7530,
      "275": 7531,
      "340": 7532,
      "ആറര": 7533,
      "650": 7534,
      "രികയ": 7535,
      "ർഘദ": 7536,
      "്ദു": 7537,
      "ശുപത": 7538,
      "രനായ": 7539,
      "vide": 7540,
      "cpm": 7541,
      "video": 7542,
      "ae": 7543,
      "mp": 7544,
      "mar": 7545,
      "su": 7546,
      "sp": 7547,
      "wcc": 7548,
      "ഇഖ": 7549,
      "ഈദ്": 7550,
      "എഗ": 7551,
      "എച്ച": 7552,
      "ഒപി": 7553,
      "കടി": 7554,
      "ഘർ": 7555,
      "ചയ": 7556,
      "ഡസ": 7557,
      "ദൈവ": 7558,
      "റീന": 7559,
      "ലയ്": 7560,
      "വങ്ങ": 7561,
      "വടി": 7562,
      "വസി": 7563,
      "സധ": 7564,
      "ിരുത": 7565,
      "ീടു": 7566,
      "േന്": 7567,
      "ോധി": 7568,
      "##el": 7569,
      "##ma": 7570,
      "##ct": 7571,
      "##ya": 7572,
      "ച്ചതെ": 7573,
      "പ്രസി": 7574,
      "രാല": 7575,
      "കുത": 7576,
      "ിരെ": 7577,
      "കേട്": 7578,
      "രിയി": 7579,
      "രിമാ": 7580,
      "രുഷ": 7581,
      "നിയമസ": 7582,
      "പരിപ": 7583,
      "ലിന്റ": 7584,
      "ഡോർ": 7585,
      "സൂര": 7586,
      "കിയത": 7587,
      "ുവന്": 7588,
      "ത്യമ": 7589,
      "ോർട്": 7590,
      "്തേ": 7591,
      "യത്ത്": 7592,
      "203": 7593,
      "ിയാഴ്": 7594,
      "്ചി": 7595,
      "ടിയായ": 7596,
      "മാർക്": 7597,
      "148": 7598,
      "302": 7599,
      "ർത്തക": 7600,
      "191": 7601,
      "197": 7602,
      "189": 7603,
      "ൻസൺ": 7604,
      "233": 7605,
      "239": 7606,
      "ജഡം": 7607,
      "312": 7608,
      "293": 7609,
      "323": 7610,
      "ഭവം": 7611,
      "360": 7612,
      "ടപ്പെ": 7613,
      "ലവറ": 7614,
      "്പിന്": 7615,
      "മ്പോഴ": 7616,
      "ാവിന്": 7617,
      "ിവാദ": 7618,
      "##air": 7619,
      "http": 7620,
      "ിലുള്": 7621,
      "caree": 7622,
      "--": 7623,
      "pl": 7624,
      "pm": 7625,
      "qu": 7626,
      "tr": 7627,
      "ഇക്": 7628,
      "ഇജെ": 7629,
      "ഈല": 7630,
      "ഈഡ": 7631,
      "ഉല": 7632,
      "ഉൻ": 7633,
      "ഐയെ": 7634,
      "ഖദ": 7635,
      "ഖേര": 7636,
      "ഗതാ": 7637,
      "ഘം": 7638,
      "ടവർ": 7639,
      "തൈ": 7640,
      "നജ": 7641,
      "നദി": 7642,
      "മണം": 7643,
      "മീപ": 7644,
      "രബ": 7645,
      "രന്ത": 7646,
      "ളപ": 7647,
      "ഴും": 7648,
      "ശശ്": 7649,
      "ഷമാ": 7650,
      "ഷിത": 7651,
      "േപ": 7652,
      "ൾവ": 7653,
      "മാണി": 7654,
      "ച്ചപ": 7655,
      "യിലൂ": 7656,
      "ിയപ്പ": 7657,
      "ട്ടവ": 7658,
      "പിൻ": 7659,
      "വരൂ": 7660,
      "റിഫ": 7661,
      "ുറയ": 7662,
      "അതേസ": 7663,
      "ജിഷ": 7664,
      "വയു": 7665,
      "്കു": 7666,
      "ാസ്ത": 7667,
      "േസുകള": 7668,
      "204": 7669,
      "155": 7670,
      "രമല്ല": 7671,
      "ോടെയ": 7672,
      "ീറ്റി": 7673,
      "242": 7674,
      "ഗാൾ": 7675,
      "്ഷണ": 7676,
      "ോലീ": 7677,
      "161": 7678,
      "168": 7679,
      "വകാര": 7680,
      "പഴം": 7681,
      "പെടുക": 7682,
      "സനു": 7683,
      "ിത്രം": 7684,
      "##ali": 7685,
      "്രസില": 7686,
      "്ളൂ": 7687,
      "ണ്ണൂര": 7688,
      "എങ്ങന": 7689,
      "അദ്ദേ": 7690,
      "നെയാണ": 7691,
      "ബഫർ": 7692,
      "്യതയു": 7693,
      "ടപട": 7694,
      "ഖോസ": 7695,
      "tips": 7696,
      "്തേക": 7697,
      "2ന്": 7698,
      "6e": 7699,
      "fi": 7700,
      "ix": 7701,
      "ju": 7702,
      "mk": 7703,
      "on": 7704,
      "vs": 7705,
      "yo": 7706,
      "അജി": 7707,
      "എഴ്": 7708,
      "ഐപി": 7709,
      "ഖബ": 7710,
      "ഘടി": 7711,
      "ചൗ": 7712,
      "ടില": 7713,
      "ഡൈ": 7714,
      "ദറ": 7715,
      "ന്പ": 7716,
      "നവി": 7717,
      "ബത്": 7718,
      "മയം": 7719,
      "യതിന്": 7720,
      "യസ്സ": 7721,
      "രസി": 7722,
      "ശക്": 7723,
      "ാങ": 7724,
      "ാഷ്ട": 7725,
      "േരെ": 7726,
      "ർള": 7727,
      "##ak": 7728,
      "##ll": 7729,
      "##ജ്": 7730,
      "പ്രച": 7731,
      "യുഡ": 7732,
      "്രങ്ങ": 7733,
      "ഒരുപ": 7734,
      "താഹ": 7735,
      "നാശ": 7736,
      "തീം": 7737,
      "ത്രക": 7738,
      "ത്രിയ": 7739,
      "്പനി": 7740,
      "സർഷ": 7741,
      "ലിറ": 7742,
      "കൃപ": 7743,
      "ാകി": 7744,
      "ഹിമ": 7745,
      "ഇക്കാ": 7746,
      "നോക്": 7747,
      "ണറാ": 7748,
      "ിമർ": 7749,
      "ജയന്": 7750,
      "േഷി": 7751,
      "205": 7752,
      "208": 7753,
      "കയെ": 7754,
      "്നേ": 7755,
      "ബെം": 7756,
      "രോപ": 7757,
      "304": 7758,
      "195": 7759,
      "184": 7760,
      "166": 7761,
      "്ധമാ": 7762,
      "211": 7763,
      "219": 7764,
      "228": 7765,
      "222": 7766,
      "232": 7767,
      "234": 7768,
      "288": 7769,
      "354": 7770,
      "290": 7771,
      "ലൂടെ": 7772,
      "328": 7773,
      "332": 7774,
      "330": 7775,
      "376": 7776,
      "ധവള": 7777,
      "മയത്ത": 7778,
      "മൃഗ": 7779,
      "440": 7780,
      "രതിന": 7781,
      "540": 7782,
      "ശ്യം": 7783,
      "ഉഷാ": 7784,
      "ണർവ": 7785,
      "act": 7786,
      "net": 7787,
      "ഈനല": 7788,
      "ults": 7789,
      "ഷൈൻ": 7790,
      "ght": 7791,
      "viral": 7792,
      "as": 7793,
      "ca": 7794,
      "ng": 7795,
      "ndia": 7796,
      "one": 7797,
      "sr": 7798,
      "so": 7799,
      "ve": 7800,
      "wor": 7801,
      "അർ": 7802,
      "ഊള": 7803,
      "കക്": 7804,
      "ണപ": 7805,
      "ഥല": 7806,
      "ദൽ": 7807,
      "ധിത": 7808,
      "പഴി": 7809,
      "ഫർ": 7810,
      "ബധ": 7811,
      "ബൻ": 7812,
      "ബൺ": 7813,
      "യജ": 7814,
      "ലശ": 7815,
      "ളറ": 7816,
      "ളേ": 7817,
      "ളൻ": 7818,
      "ഴഗ": 7819,
      "ശോധ": 7820,
      "ഷപ്": 7821,
      "സഥ": 7822,
      "െച്ച്": 7823,
      "ൊലീ": 7824,
      "ർക": 7825,
      "ർഫ": 7826,
      "ൾറ": 7827,
      "‌‌": 7828,
      "##um": 7829,
      "##th": 7830,
      "##pr": 7831,
      "##ci": 7832,
      "##ഗോ": 7833,
      "നിവര്": 7834,
      "്യാപന": 7835,
      "കുപ": 7836,
      "നേഹ": 7837,
      "കൊവി": 7838,
      "ുകയായ": 7839,
      "ബിഎ": 7840,
      "നിലവി": 7841,
      "ടിൽ": 7842,
      "്പില്": 7843,
      "ന്ററ": 7844,
      "ജിം": 7845,
      "മോൾ": 7846,
      "തലത": 7847,
      "ടെന്ന": 7848,
      "ഹൈക": 7849,
      "ലാഭ": 7850,
      "ലാത": 7851,
      "ാനാര്": 7852,
      "മീശ": 7853,
      "ജൂത": 7854,
      "206": 7855,
      "209": 7856,
      "രിയു": 7857,
      "കയർ": 7858,
      "കയായി": 7859,
      "ജാം": 7860,
      "ിഹാര": 7861,
      "196": 7862,
      "്യാർ": 7863,
      "187": 7864,
      "171": 7865,
      "ിഞ്ഞി": 7866,
      "214": 7867,
      "വധം": 7868,
      "236": 7869,
      "283": 7870,
      "294": 7871,
      "375": 7872,
      "365": 7873,
      "430": 7874,
      "ബദറ": 7875,
      "cop": 7876,
      "ർഘവ": 7877,
      "അമൽ": 7878,
      "560": 7879,
      "##ish": 7880,
      "ൈറസ്": 7881,
      "ഐഷി": 7882,
      "cpim": 7883,
      "##ime": 7884,
      "ഗൂഢ": 7885,
      "dis": 7886,
      "ha": 7887,
      "ko": 7888,
      "mg": 7889,
      "mb": 7890,
      "ns": 7891,
      "nce": 7892,
      "tw": 7893,
      "ആട്": 7894,
      "ഈഗോ": 7895,
      "എബ": 7896,
      "എലി": 7897,
      "ഗിൽ": 7898,
      "ദൂ": 7899,
      "ദില്ല": 7900,
      "നതു": 7901,
      "ഫഖ": 7902,
      "ബൾ": 7903,
      "ഭൗ": 7904,
      "ഭിന": 7905,
      "മഷ": 7906,
      "റപ്": 7907,
      "ളവര്": 7908,
      "ഹച": 7909,
      "ഹഖ്": 7910,
      "ാദേ": 7911,
      "ോരാ": 7912,
      "ൻച": 7913,
      "ൻഫ": 7914,
      "ൽന": 7915,
      "##et": 7916,
      "##ay": 7917,
      "##ro": 7918,
      "##ot": 7919,
      "##bi": 7920,
      "##fe": 7921,
      "##fl": 7922,
      "##ws": 7923,
      "##ആർ": 7924,
      "്രായ": 7925,
      "ിയെട": 7926,
      "്യയ": 7927,
      "കുവ": 7928,
      "കുകള": 7929,
      "നടപ": 7930,
      "്ടർ": 7931,
      "സിന്റ": 7932,
      "വാൻ": 7933,
      "സമീ": 7934,
      "രിപ": 7935,
      "ജനൽ": 7936,
      "മേഘ": 7937,
      "രൂപ്": 7938,
      "സീൽ": 7939,
      "സീൻ": 7940,
      "ക്കളു": 7941,
      "നിരീ": 7942,
      "ുടര": 7943,
      "ങ്കെ": 7944,
      "ാഗത്": 7945,
      "ിതത്": 7946,
      "തൃപ": 7947,
      "റിയു": 7948,
      "കരന": 7949,
      "യ്യുക": 7950,
      "സമ്പര": 7951,
      "ദിഷ": 7952,
      "ല്ലാത": 7953,
      "ആയോ": 7954,
      "രിയെ": 7955,
      "കയില്": 7956,
      "ടിയാണ": 7957,
      "248": 7958,
      "ബഹദ": 7959,
      "നമോ": 7960,
      "ന്ധ്": 7961,
      "301": 7962,
      "ാദം": 7963,
      "251": 7964,
      "ൻസറ": 7965,
      "വകു": 7966,
      "കരിക": 7967,
      "ശരൺ": 7968,
      "ചലോ": 7969,
      "റവു": 7970,
      "260": 7971,
      "315": 7972,
      "356": 7973,
      "ine": 7974,
      "344": 7975,
      "എടാ": 7976,
      "രയു": 7977,
      "്തിക": 7978,
      "ജഗൻ": 7979,
      "ഗീക": 7980,
      "cent": 7981,
      "ടുകയാ": 7982,
      "ent": 7983,
      "ult": 7984,
      "ഈഡൻ": 7985,
      "ചൗള": 7986,
      "അർധ": 7987,
      "ഭൗമ": 7988,
      "',": 7989,
      "ba": 7990,
      "cat": 7991,
      "dy": 7992,
      "fb": 7993,
      "hair": 7994,
      "im": 7995,
      "ka": 7996,
      "ku": 7997,
      "ms": 7998,
      "tv": 7999,
      "ur": 8000,
      "ups": 8001,
      "vo": 8002,
      "ഇദ": 8003,
      "ഇൗ": 8004,
      "ഇയർ": 8005,
      "ഈറ": 8006,
      "ഈസി": 8007,
      "എജി": 8008,
      "ഒലി": 8009,
      "ഒഫ്": 8010,
      "കെടു": 8011,
      "കടു": 8012,
      "ഖേ": 8013,
      "ഖനി": 8014,
      "ഗേ": 8015,
      "ചഭ": 8016,
      "ജൽ": 8017,
      "ണൾ": 8018,
      "ധർ": 8019,
      "ധമി": 8020,
      "നഫ": 8021,
      "ബഹു": 8022,
      "മൗ": 8023,
      "ളജ": 8024,
      "വവ": 8025,
      "ശൽ": 8026,
      "ഹള": 8027,
      "ഹബ്": 8028,
      "ഹീന": 8029,
      "ാതിയ": 8030,
      "െങ്": 8031,
      "##ace": 8032,
      "##nd": 8033,
      "##ly": 8034,
      "##hi": 8035,
      "##tc": 8036,
      "##tte": 8037,
      "##va": 8038,
      "##ഖ്യ": 8039,
      "ിക്കണ": 8040,
      "്രഖ്യ": 8041,
      "കുപ്": 8042,
      "ിരായ": 8043,
      "നടീ": 8044,
      "കളർ": 8045,
      "കേന്ദ": 8046,
      "വാൾ": 8047,
      "പാവ": 8048,
      "പേന": 8049,
      "രിയിൽ": 8050,
      "തുള്ള": 8051,
      "ബിന്": 8052,
      "ുറമ": 8053,
      "ടിഒ": 8054,
      "വർക്": 8055,
      "പെൺ": 8056,
      "്കിയ": 8057,
      "െയായി": 8058,
      "വരുത്": 8059,
      "ാറ്": 8060,
      "തേസമ": 8061,
      "ിലാക്": 8062,
      "ാണിക്": 8063,
      "്മദ്": 8064,
      "കീശ": 8065,
      "ൃതര": 8066,
      "192": 8067,
      "199": 8068,
      "258": 8069,
      "256": 8070,
      "252": 8071,
      "ിരുത്": 8072,
      "172": 8073,
      "ിളിക": 8074,
      "217": 8075,
      "227": 8076,
      "ഷാൾ": 8077,
      "ഷാൻ": 8078,
      "238": 8079,
      "281": 8080,
      "273": 8081,
      "265": 8082,
      "268": 8083,
      "266": 8084,
      "റക്കു": 8085,
      "inte": 8086,
      "ഷീജ": 8087,
      "325": 8088,
      "326": 8089,
      "ിത്രത": 8090,
      "346": 8091,
      "343": 8092,
      "480": 8093,
      "സൺസ": 8094,
      "362": 8095,
      "ണിയു": 8096,
      "527": 8097,
      "490": 8098,
      "510": 8099,
      "ടയർ": 8100,
      "റയാന": 8101,
      "ുഹമ്മ": 8102,
      "തമാക": 8103,
      "590": 8104,
      "്ദര്": 8105,
      "ശ്യപ": 8106,
      "ദിയു": 8107,
      "ഗർഭ": 8108,
      "ional": 8109,
      "ലയിലെ": 8110,
      "ാഹുല്": 8111,
      "##ice": 8112,
      "ടികൾ": 8113,
      "്കാവ": 8114,
      "ളിലാണ": 8115,
      "iii": 8116,
      "day": 8117,
      "ഇനിയു": 8118,
      "join": 8119,
      "ഹൗറ": 8120,
      "big": 8121,
      "സ്റ്": 8122,
      "കെടുത": 8123,
      "ണൾഡ": 8124,
      "00": 8125,
      "bs": 8126,
      "cit": 8127,
      "du": 8128,
      "gle": 8129,
      "iv": 8130,
      "ki": 8131,
      "my": 8132,
      "man": 8133,
      "ow": 8134,
      "pla": 8135,
      "ru": 8136,
      "sa": 8137,
      "spe": 8138,
      "sfi": 8139,
      "ure": 8140,
      "അൺ": 8141,
      "അഗ": 8142,
      "ഇവി": 8143,
      "ഈദ": 8144,
      "എച്": 8145,
      "ഐഫ": 8146,
      "ഓഖ": 8147,
      "ഓഡി": 8148,
      "ചഹ": 8149,
      "ജഖ": 8150,
      "ദവ": 8151,
      "പസ": 8152,
      "പൽ": 8153,
      "മഠ": 8154,
      "രയി": 8155,
      "ൂക്": 8156,
      "േസി": 8157,
      "ോദ്യ": 8158,
      "ോക്ട": 8159,
      "ൻഹ": 8160,
      "ർട": 8161,
      "ൾബ": 8162,
      "ൾഫ": 8163,
      "##ld": 8164,
      "##mi": 8165,
      "##pp": 8166,
      "##bt": 8167,
      "ത്തണ": 8168,
      "ിക്കറ": 8169,
      "്രദേ": 8170,
      "പറഞ": 8171,
      "പറഞ്": 8172,
      "ന്നതു": 8173,
      "വാഴ": 8174,
      "വാല": 8175,
      "പാം": 8176,
      "സാൻ": 8177,
      "്ത്രാ": 8178,
      "വീര": 8179,
      "രൂക": 8180,
      "മേര": 8181,
      "അനഘ": 8182,
      "പൂൾ": 8183,
      "ംബത്ത": 8184,
      "ംഗങ്ങ": 8185,
      "ാഗ്ര": 8186,
      "്കൊ": 8187,
      "ാരത": 8188,
      "ഗോൾ": 8189,
      "ശാഖ": 8190,
      "മാനമ": 8191,
      "ഉൾപ": 8192,
      "്നതാ": 8193,
      "്താന്": 8194,
      "ആണു": 8195,
      "246": 8196,
      "244": 8197,
      "കിലു": 8198,
      "501": 8199,
      "509": 8200,
      "306": 8201,
      "307": 8202,
      "അകം": 8203,
      "ടാതെ": 8204,
      "186": 8205,
      "േശിന": 8206,
      "259": 8207,
      "്രിമ": 8208,
      "പഴശ": 8209,
      "ബസു": 8210,
      "215": 8211,
      "218": 8212,
      "226": 8213,
      "223": 8214,
      "229": 8215,
      "235": 8216,
      "231": 8217,
      "സനൽ": 8218,
      "274": 8219,
      "262": 8220,
      "264": 8221,
      "269": 8222,
      "318": 8223,
      "297": 8224,
      "ഡീൻ": 8225,
      "എയെ": 8226,
      "റബർ": 8227,
      "ഗഡു": 8228,
      "മണിക": 8229,
      "ടത്തു": 8230,
      "ുമ്പ്": 8231,
      "336": 8232,
      "421": 8233,
      "എഎൻ": 8234,
      "385": 8235,
      "386": 8236,
      "ൊലപാത": 8237,
      "ലഡു": 8238,
      "577": 8239,
      "സദാ": 8240,
      "850": 8241,
      "ലഘു": 8242,
      "660": 8243,
      "ുമുള": 8244,
      "രവാദി": 8245,
      "##ree": 8246,
      "്കാൻ": 8247,
      "!!!": 8248,
      "love": 8249,
      "lotte": 8250,
      "pos": 8251,
      "യദു": 8252,
      "നഖം": 8253,
      "ഹലോ": 8254,
      "ഫഷനല": 8255,
      "്കാരി": 8256,
      "edu": 8257,
      "job": 8258,
      "ഊഴം": 8259,
      "app": 8260,
      "##avy": 8261,
      "ഡസൻ": 8262,
      "തേസമയ": 8263,
      "ag": 8264,
      "can": 8265,
      "est": 8266,
      "id": 8267,
      "iel": 8268,
      "ly": 8269,
      "mi": 8270,
      "mu": 8271,
      "nn": 8272,
      "nc": 8273,
      "nts": 8274,
      "ope": 8275,
      "pat": 8276,
      "sar": 8277,
      "tt": 8278,
      "ആഡ്": 8279,
      "ഇളം": 8280,
      "ഊണ്": 8281,
      "എഴ": 8282,
      "ഐഡ": 8283,
      "ഓമന": 8284,
      "ഔഫ": 8285,
      "കഡ": 8286,
      "ഗമാ": 8287,
      "ജം": 8288,
      "ടമാ": 8289,
      "ടുംബ": 8290,
      "തേജ": 8291,
      "ധരം": 8292,
      "ബദര": 8293,
      "രഫ": 8294,
      "രഞ്": 8295,
      "ലല": 8296,
      "ളികള": 8297,
      "വഫ": 8298,
      "ഷഫ": 8299,
      "ഹത്ത": 8300,
      "ഹരം": 8301,
      "്ഷ്യ": 8302,
      "ർഖ": 8303,
      "##ed": 8304,
      "##ep": 8305,
      "##ast": 8306,
      "##ds": 8307,
      "##ue": 8308,
      "##gi": 8309,
      "##om": 8310,
      "##ok": 8311,
      "##pi": 8312,
      "##pt": 8313,
      "##be": 8314,
      "##ch": 8315,
      "##ff": 8316,
      "ന്‌": 8317,
      "മുഴ": 8318,
      "യാപ": 8319,
      "യാത്": 8320,
      "തിസ": 8321,
      "്രത്ത": 8322,
      "്രമി": 8323,
      "ാനത്": 8324,
      "ന്നയ": 8325,
      "വരങ്ങ": 8326,
      "ടുക്": 8327,
      "യെന്": 8328,
      "ണ്ടിക": 8329,
      "കൂൾ": 8330,
      "രുദ": 8331,
      "ഭാൽ": 8332,
      "ാവസ്": 8333,
      "ല്ലയ": 8334,
      "ലോല": 8335,
      "ശിക്": 8336,
      "ജി7": 8337,
      "ക്കുന": 8338,
      "കിത": 8339,
      "ഡോം": 8340,
      "ഞ്ഞെട": 8341,
      "നുഭ": 8342,
      "കേസുക": 8343,
      "വളം": 8344,
      "വരുട": 8345,
      "മൂസ": 8346,
      "മൂന്": 8347,
      "ഹാൾ": 8348,
      "ടെൽ": 8349,
      "കരൺ": 8350,
      "ദിത്": 8351,
      "ഫിഫ": 8352,
      "വ്യക്": 8353,
      "ലെങ്ക": 8354,
      "ജയൻ": 8355,
      "വനഗ": 8356,
      "207": 8357,
      "രമു": 8358,
      "കയായ": 8359,
      "ധ്യമ": 8360,
      "്നു": 8361,
      "241": 8362,
      "ബെൻ": 8363,
      "504": 8364,
      "305": 8365,
      "255": 8366,
      "254": 8367,
      "ടേണ്": 8368,
      "ണുന": 8369,
      "ഗതം": 8370,
      "ചീര": 8371,
      "േഹം": 8372,
      "തിയാണ": 8373,
      "ലേല": 8374,
      "സ്വാധ": 8375,
      "237": 8376,
      "287": 8377,
      "319": 8378,
      "ഭിച": 8379,
      "353": 8380,
      "സാരിക": 8381,
      "296": 8382,
      "292": 8383,
      "ഭീമ": 8384,
      "322": 8385,
      "338": 8386,
      "337": 8387,
      "377": 8388,
      "മദൻ": 8389,
      "380": 8390,
      "418": 8391,
      "395": 8392,
      "520": 8393,
      "ഫഷൻ": 8394,
      "െയ്ത്": 8395,
      "##ame": 8396,
      "##ama": 8397,
      "നതായ": 8398,
      "720": 8399,
      "532": 8400,
      "സദറ": 8401,
      "640": 8402,
      "ഷേധ": 8403,
      "ചരിത": 8404,
      "രവാസി": 8405,
      "യാറാ": 8406,
      "sta": 8407,
      "ഇത്തവ": 8408,
      "ഷൺമ": 8409,
      "ടുകൾ": 8410,
      "poli": 8411,
      "##ild": 8412,
      "sex": 8413,
      "ഫഷനൽ": 8414,
      "nifl": 8415,
      "rate": 8416,
      "cmd": 8417,
      "live": 8418,
      "്കുള": 8419,
      "ഥലത്ത": 8420,
      "ഹചര്യ": 8421,
      "ോരാട": 8422,
      "ielts": 8423,
      "\".": 8424,
      "bh": 8425,
      "bu": 8426,
      "but": 8427,
      "ck": 8428,
      "fri": 8429,
      "gr": 8430,
      "kp": 8431,
      "ll": 8432,
      "ol": 8433,
      "ph": 8434,
      "per": 8435,
      "rn": 8436,
      "rain": 8437,
      "ser": 8438,
      "us": 8439,
      "up": 8440,
      "wi": 8441,
      "war": 8442,
      "ഇം": 8443,
      "ഇഐ": 8444,
      "ഐവി": 8445,
      "ഒറു": 8446,
      "ഓട്": 8447,
      "ഓകെ": 8448,
      "കനി": 8449,
      "കയ്": 8450,
      "ഖജ": 8451,
      "ഖത്": 8452,
      "ഗും": 8453,
      "ഗവി": 8454,
      "ടറി": 8455,
      "ണട": 8456,
      "തപ്": 8457,
      "ധർണ": 8458,
      "നസി": 8459,
      "പിന": 8460,
      "ഭജ": 8461,
      "മഗ": 8462,
      "മമാ": 8463,
      "മഷി": 8464,
      "യക്ഷ": 8465,
      "രവന": 8466,
      "റഷ": 8467,
      "ലട": 8468,
      "ഴവ": 8469,
      "ഷഡ": 8470,
      "ഷദ": 8471,
      "ഷീന": 8472,
      "സഞ്": 8473,
      "സരം": 8474,
      "ഹിൽ": 8475,
      "ഹജ്": 8476,
      "ീക്": 8477,
      "ീമി": 8478,
      "ൂര്യ": 8479,
      "ൊള്": 8480,
      "ോഹന": 8481,
      "്തിയ": 8482,
      "്സര": 8483,
      "′′": 8484,
      "##dc": 8485,
      "##ാള": 8486,
      "##na": 8487,
      "##sp": 8488,
      "##ോദ": 8489,
      "##ഘഠ": 8490,
      "ുകൂ": 8491,
      "മുക്": 8492,
      "യുള": 8493,
      "ിനീ": 8494,
      "്ടപ": 8495,
      "പോള്": 8496,
      "കേണ": 8497,
      "ിൽക": 8498,
      "പാഠ": 8499,
      "ുമതല": 8500,
      "താവാ": 8501,
      "ടിന്റ": 8502,
      "വേല": 8503,
      "്ഥാപ": 8504,
      "വലം": 8505,
      "ഇടുക": 8506,
      "സഹോദ": 8507,
      "മിന്റ": 8508,
      "സാഹച": 8509,
      "സെൻ": 8510,
      "ാധീ": 8511,
      "്കറി": 8512,
      "ിവുകള": 8513,
      "വരുത": 8514,
      "ണ്ടുവ": 8515,
      "ശ്ന": 8516,
      "നോറ": 8517,
      "ലാള": 8518,
      "കമ്മീ": 8519,
      "ചാത": 8520,
      "ലെയ": 8521,
      "ിമയ": 8522,
      "ദിലീ": 8523,
      "േഷം": 8524,
      "്നൊ": 8525,
      "247": 8526,
      "രജിസ": 8527,
      "ഭീഷണ": 8528,
      "സാധാര": 8529,
      "257": 8530,
      "ര്യമ": 8531,
      "സോന": 8532,
      "അലൻ": 8533,
      "ശ്വസി": 8534,
      "മൈൽ": 8535,
      "285": 8536,
      "278": 8537,
      "കുകയ": 8538,
      "267": 8539,
      "263": 8540,
      "298": 8541,
      "299": 8542,
      "458": 8543,
      "ind": 8544,
      "345": 8545,
      "348": 8546,
      "371": 8547,
      "481": 8548,
      "363": 8549,
      "364": 8550,
      "ണാക": 8551,
      "424": 8552,
      "ഫറല": 8553,
      "435": 8554,
      "432": 8555,
      "410": 8556,
      "419": 8557,
      "െഡിക്": 8558,
      "528": 8559,
      "526": 8560,
      "col": 8561,
      "cov": 8562,
      "ഹസൻ": 8563,
      "542": 8564,
      "570": 8565,
      "627": 8566,
      "620": 8567,
      "624": 8568,
      "593": 8569,
      "711": 8570,
      "618": 8571,
      "695": 8572,
      "781": 8573,
      "ions": 8574,
      "820": 8575,
      "രനാ": 8576,
      "വചസ": 8577,
      "ദോശ": 8578,
      "cont": 8579,
      "conte": 8580,
      "rss": 8581,
      "news": 8582,
      "ഴിലാള": 8583,
      "forms": 8584,
      "ksu": 8585,
      "ഹറം": 8586,
      "ity": 8587,
      "ഇഎഘഠ": 8588,
      "തഹ്": 8589,
      "ജബൽ": 8590,
      "ിചാ": 8591,
      "---": 8592,
      "ഓഖി": 8593,
      "ചഹല": 8594,
      "്തിയു": 8595,
      "ഇഎഘഠഇ": 8596,
      "5ൽ": 8597,
      "cas": 8598,
      "ds": 8599,
      "ele": 8600,
      "ig": 8601,
      "ial": 8602,
      "ist": 8603,
      "iss": 8604,
      "km": 8605,
      "kle": 8606,
      "md": 8607,
      "nh": 8608,
      "og": 8609,
      "ott": 8610,
      "ps": 8611,
      "por": 8612,
      "psc": 8613,
      "rr": 8614,
      "rt": 8615,
      "rcc": 8616,
      "tri": 8617,
      "ual": 8618,
      "wa": 8619,
      "wit": 8620,
      "के": 8621,
      "ംതി": 8622,
      "ആബ": 8623,
      "ആലി": 8624,
      "ഈട": 8625,
      "ഊബ": 8626,
      "എഡ്": 8627,
      "എആർ": 8628,
      "ഏക്": 8629,
      "ഓറ": 8630,
      "ഔഡി": 8631,
      "ഗംഗ": 8632,
      "ചക്": 8633,
      "തണ": 8634,
      "ധർമ": 8635,
      "പയോ": 8636,
      "ഭബ": 8637,
      "ലൌ": 8638,
      "ലോധ": 8639,
      "ലേഖ": 8640,
      "സയ": 8641,
      "ഹീ": 8642,
      "ുഡി": 8643,
      "ൂന്": 8644,
      "െത്": 8645,
      "ൊല്": 8646,
      "്ത്": 8647,
      "ൡല": 8648,
      "ൽഘ": 8649,
      "ൽഹ": 8650,
      "##ie": 8651,
      "##id": 8652,
      "##od": 8653,
      "##ol": 8654,
      "##pm": 8655,
      "##cl": 8656,
      "##ke": 8657,
      "##we": 8658,
      "##je": 8659,
      "##ൃത്": 8660,
      "##ിലാ": 8661,
      "ച്ചാണ": 8662,
      "നിട്ട": 8663,
      "വിഎ": 8664,
      "വിൻ": 8665,
      "ുകൂല": 8666,
      "യാഭ": 8667,
      "തിയിര": 8668,
      "സ്ഐ": 8669,
      "ിയവര": 8670,
      "രാസ": 8671,
      "പോൺ": 8672,
      "ന്നപ": 8673,
      "ന്തമ": 8674,
      "സിപ്": 8675,
      "ടുണ": 8676,
      "സാക്": 8677,
      "ബിഗ": 8678,
      "കാൾ": 8679,
      "കാണ്": 8680,
      "ികി": 8681,
      "ികരണ": 8682,
      "ികിത": 8683,
      "ുമാറി": 8684,
      "തിരഞ": 8685,
      "മെഡ": 8686,
      "ബാം": 8687,
      "്പിലാ": 8688,
      "തോന": 8689,
      "വർബ": 8690,
      "ശിഖ": 8691,
      "പൂരി": 8692,
      "ണമല": 8693,
      "ജിഐ": 8694,
      "കാണാന": 8695,
      "ചിക്": 8696,
      "ുവത": 8697,
      "സംഭവം": 8698,
      "മൊര": 8699,
      "ബോൾ": 8700,
      "അപു": 8701,
      "വ്യത്": 8702,
      "കീം": 8703,
      "ടിയന": 8704,
      "പദവ": 8705,
      "ിരിക": 8706,
      "ജാവ": 8707,
      "രണക": 8708,
      "രണത്ത": 8709,
      "ന്ധമ": 8710,
      "505": 8711,
      "308": 8712,
      "303": 8713,
      "309": 8714,
      "ോലു": 8715,
      "ക്കെയ": 8716,
      "നയന": 8717,
      "253": 8718,
      "ടൂർ": 8719,
      "405": 8720,
      "408": 8721,
      "കോടത": 8722,
      "ബസർ": 8723,
      "രജത": 8724,
      "608": 8725,
      "607": 8726,
      "286": 8727,
      "282": 8728,
      "ഏഴോ": 8729,
      "271": 8730,
      "276": 8731,
      "277": 8732,
      "261": 8733,
      "358": 8734,
      "്ഡല": 8735,
      "457": 8736,
      "453": 8737,
      "ഷെൽ": 8738,
      "ർമൽ": 8739,
      "ഗഡ്": 8740,
      "ലൂണ": 8741,
      "ini": 8742,
      "324": 8743,
      "ുറിച്": 8744,
      "342": 8745,
      "372": 8746,
      "484": 8747,
      "368": 8748,
      "##ale": 8749,
      "##all": 8750,
      "അണു": 8751,
      "387": 8752,
      "384": 8753,
      "437": 8754,
      "434": 8755,
      "415": 8756,
      "391": 8757,
      "390": 8758,
      "##ess": 8759,
      "ജൻമ": 8760,
      "499": 8761,
      "473": 8762,
      "516": 8763,
      "517": 8764,
      "cor": 8765,
      "ുഹൃത്": 8766,
      "്പിൽ": 8767,
      "462": 8768,
      "അമർ": 8769,
      "ant": 8770,
      "537": 8771,
      "530": 8772,
      "റൻറ": 8773,
      "അൽപ": 8774,
      "്നാം": 8775,
      "ിവാക": 8776,
      "675": 8777,
      "672": 8778,
      "ലയിൽ": 8779,
      "690": 8780,
      "950": 8781,
      "ort": 8782,
      "737": 8783,
      "888": 8784,
      "870": 8785,
      "rec": 8786,
      "റംല": 8787,
      "കഫേ": 8788,
      "ers": 8789,
      "##ind": 8790,
      "che": 8791,
      "ടുകള്": 8792,
      "post": 8793,
      "ചരമ": 8794,
      "dau": 8795,
      "date": 8796,
      "sho": 8797,
      "ഖോഡ": 8798,
      "boss": 8799,
      "book": 8800,
      "ഈഴവര": 8801,
      "tra": 8802,
      "ഉലമ": 8803,
      "just": 8804,
      "yout": 8805,
      "onei": 8806,
      "srit": 8807,
      "ദൂര": 8808,
      "ബൾബ": 8809,
      "നടപട": 8810,
      "dyfi": 8811,
      "tvm": 8812,
      "upsc": 8813,
      "spec": 8814,
      "ദവെ": 8815,
      "sars": 8816,
      "klele": 8817,
      "with": 8818,
      "ആബെ": 8819,
      "\"-": 8820,
      "\",": 8821,
      ").": 8822,
      "ay": 8823,
      "ate": 8824,
      "br": 8825,
      "bre": 8826,
      "cy": 8827,
      "ek": 8828,
      "fe": 8829,
      "fl": 8830,
      "fak": 8831,
      "her": 8832,
      "ih": 8833,
      "ips": 8834,
      "ice": 8835,
      "ivi": 8836,
      "lin": 8837,
      "mon": 8838,
      "ode": 8839,
      "oet": 8840,
      "pa": 8841,
      "pg": 8842,
      "rd": 8843,
      "ric": 8844,
      "sd": 8845,
      "ste": 8846,
      "sce": 8847,
      "ter": 8848,
      "ua": 8849,
      "vis": 8850,
      "ver": 8851,
      "vast": 8852,
      "wil": 8853,
      "അങ": 8854,
      "അ്": 8855,
      "അഞ": 8856,
      "ആഡ": 8857,
      "ആസ്": 8858,
      "ആധി": 8859,
      "ആജ്": 8860,
      "ഊര്": 8861,
      "എറെ": 8862,
      "എത്": 8863,
      "എജെ": 8864,
      "ഏറി": 8865,
      "ഐബ": 8866,
      "ഐഎം": 8867,
      "ഓല": 8868,
      "ഓജ": 8869,
      "കക്ഷ": 8870,
      "കത്": 8871,
      "ഗൈ": 8872,
      "ഗത്തെ": 8873,
      "ഘി": 8874,
      "ങള": 8875,
      "ടിലെ": 8876,
      "ഡമ": 8877,
      "ഡും": 8878,
      "ണള": 8879,
      "തഗ": 8880,
      "ഥിക": 8881,
      "ഥിര": 8882,
      "ഥിതി": 8883,
      "ദബ": 8884,
      "ദൻ": 8885,
      "നഭ": 8886,
      "നഷ": 8887,
      "പച": 8888,
      "പഗ": 8889,
      "ബത": 8890,
      "ബഡ": 8891,
      "ഭം": 8892,
      "മഴു": 8893,
      "രവധ": 8894,
      "റജ": 8895,
      "ലഫ്": 8896,
      "ളർ": 8897,
      "വബ": 8898,
      "വമാ": 8899,
      "ഷപ": 8900,
      "സതി": 8901,
      "ഹഖ": 8902,
      "ഹരേ": 8903,
      "ഹഗ്": 8904,
      "ഹാരാ": 8905,
      "ീധ": 8906,
      "ുസര": 8907,
      "െച": 8908,
      "െച്": 8909,
      "ൊക": 8910,
      "്കര": 8911,
      "ർദ്": 8912,
      "##നു": 8913,
      "##ia": 8914,
      "##rf": 8915,
      "##rtc": 8916,
      "##ust": 8917,
      "##ുന": 8918,
      "##സാ": 8919,
      "##my": 8920,
      "##ഹാ": 8921,
      "##wp": 8922,
      "മാരു": 8923,
      "നിങ": 8924,
      "വിധാന": 8925,
      "യാജ": 8926,
      "തിപ": 8927,
      "്രത്": 8928,
      "ട്ടായ": 8929,
      "ണ്ടുപ": 8930,
      "ായെ": 8931,
      "തിനാണ": 8932,
      "അവസ്": 8933,
      "തുടരു": 8934,
      "ക്ഷത്": 8935,
      "ഡിം": 8936,
      "ഭാമ": 8937,
      "തോൾ": 8938,
      "വൈൻ": 8939,
      "ജോര്": 8940,
      "ചോല": 8941,
      "നീച": 8942,
      "മോൻ": 8943,
      "ഞ്ഞത്": 8944,
      "കിയത്": 8945,
      "്കട": 8946,
      "ഷ്ട്": 8947,
      "ഗുഹ": 8948,
      "റാസ": 8949,
      "മൂന": 8950,
      "മൂല്": 8951,
      "ന്റെയ": 8952,
      "യേണ്": 8953,
      "ിറക്": 8954,
      "യ്‌": 8955,
      "ലുള": 8956,
      "ഗ്ധ": 8957,
      "വനജ": 8958,
      "അടൽ": 8959,
      "രമൺ": 8960,
      "ധ്യത": 8961,
      "ഏകെ": 8962,
      "249": 8963,
      "ബെൽ": 8964,
      "നമ്": 8965,
      "508": 8966,
      "്റീ": 8967,
      "ബുൾ": 8968,
      "്യാഭ": 8969,
      "ന്നുവ": 8970,
      "409": 8971,
      "്വാസ": 8972,
      "ഇവൻ": 8973,
      "ചലന": 8974,
      "കോളേജ": 8975,
      "284": 8976,
      "അംഗീക": 8977,
      "279": 8978,
      "ക്സിന": 8979,
      "311": 8980,
      "317": 8981,
      "314": 8982,
      "വടം": 8983,
      "355": 8984,
      "351": 8985,
      "357": 8986,
      "നദീ": 8987,
      "291": 8988,
      "451": 8989,
      "456": 8990,
      "ർമല": 8991,
      "െസ്റ": 8992,
      "indi": 8993,
      "321": 8994,
      "നലബ": 8995,
      "വൽസ": 8996,
      "ോൺഗ്ര": 8997,
      "334": 8998,
      "341": 8999,
      "483": 9000,
      "489": 9001,
      "905": 9002,
      "906": 9003,
      "മയോ": 9004,
      "389": 9005,
      "യമു": 9006,
      "..?": 9007,
      "##est": 9008,
      "498": 9009,
      "496": 9010,
      "497": 9011,
      "476": 9012,
      "477": 9013,
      "470": 9014,
      "474": 9015,
      "ഉമർ": 9016,
      "515": 9017,
      "518": 9018,
      "514": 9019,
      "ഫസൽ": 9020,
      "##and": 9021,
      "റഫർ": 9022,
      "538": 9023,
      "മ്ബ": 9024,
      "581": 9025,
      "583": 9026,
      "ാഥ്": 9027,
      "അധമ": 9028,
      "625": 9029,
      "621": 9030,
      "622": 9031,
      "623": 9032,
      "ശവം": 9033,
      "594": 9034,
      "മൻറ": 9035,
      "853": 9036,
      "638": 9037,
      "634": 9038,
      "665": 9039,
      "മൺവ": 9040,
      "647": 9041,
      "649": 9042,
      "617": 9043,
      "614": 9044,
      "619": 9045,
      "ിണറായ": 9046,
      "673": 9047,
      "999": 9048,
      "841": 9049,
      "880": 9050,
      "830": 9051,
      "941": 9052,
      "##isf": 9053,
      "##dit": 9054,
      "രുകയ": 9055,
      "eme": 9056,
      "ress": 9057,
      "ദോബ": 9058,
      "cons": 9059,
      "012": 9060,
      "chat": 9061,
      "det": 9062,
      "ൽകു": 9063,
      "kse": 9064,
      "ksrtc": 9065,
      "##app": 9066,
      "##ssc": 9067,
      "ാകുന്": 9068,
      "##act": 9069,
      "not": 9070,
      "##agr": 9071,
      "heavy": 9072,
      "moh": 9073,
      "late": 9074,
      "what": 9075,
      "plan": 9076,
      "soc": 9077,
      "two": 9078,
      "മഠം": 9079,
      "tta": 9080,
      "buty": 9081,
      "ഭജന": 9082,
      "colle": 9083,
      "ൽഘർ": 9084,
      "fake": 9085,
      "vastu": 9086,
      "will": 9087,
      "അ്ദ": 9088,
      "ആഡം": 9089,
      "2ൽ": 9090,
      "4ജി": 9091,
      "9ാം": 9092,
      "?;": 9093,
      "are": 9094,
      "aut": 9095,
      "bb": 9096,
      "b2": 9097,
      "by": 9098,
      "cn": 9099,
      "cl": 9100,
      "cb": 9101,
      "cal": 9102,
      "cle": 9103,
      "cul": 9104,
      "dh": 9105,
      "don": 9106,
      "dys": 9107,
      "es": 9108,
      "eo": 9109,
      "ect": 9110,
      "fu": 9111,
      "face": 9112,
      "gl": 9113,
      "gy": 9114,
      "gre": 9115,
      "gpt": 9116,
      "game": 9117,
      "hr": 9118,
      "hu": 9119,
      "har": 9120,
      "ie": 9121,
      "io": 9122,
      "ior": 9123,
      "ias": 9124,
      "jagr": 9125,
      "kl": 9126,
      "mv": 9127,
      "mis": 9128,
      "nk": 9129,
      "od": 9130,
      "ot": 9131,
      "oth": 9132,
      "pe": 9133,
      "pt": 9134,
      "rc": 9135,
      "ral": 9136,
      "sk": 9137,
      "son": 9138,
      "sle": 9139,
      "sime": 9140,
      "sbi": 9141,
      "sama": 9142,
      "tal": 9143,
      "tic": 9144,
      "tds": 9145,
      "vic": 9146,
      "wn": 9147,
      "wom": 9148,
      "അസി": 9149,
      "ആമ": 9150,
      "ആണി": 9151,
      "ഈണ": 9152,
      "ഈവ": 9153,
      "ഉഴ": 9154,
      "എടി": 9155,
      "എവേ": 9156,
      "ഒബ": 9157,
      "ഒകെ": 9158,
      "ഓക്": 9159,
      "കദ": 9160,
      "കലി": 9161,
      "ഗയ": 9162,
      "ഗൻ": 9163,
      "ഗത്ത്": 9164,
      "ഘല": 9165,
      "ജരാ": 9166,
      "ജൈന": 9167,
      "ടാണ": 9168,
      "ടില്": 9169,
      "ത്ക": 9170,
      "ദെ": 9171,
      "ദൈ": 9172,
      "ദോഷ": 9173,
      "ധൻ": 9174,
      "നഇ": 9175,
      "നത്തി": 9176,
      "ഫണ": 9177,
      "ബവ": 9178,
      "മൾ": 9179,
      "മതല": 9180,
      "യഗ": 9181,
      "യഷ്": 9182,
      "രഹന": 9183,
      "ററു": 9184,
      "ളാണ്": 9185,
      "ഴെ": 9186,
      "ഴല": 9187,
      "ഴൻ": 9188,
      "ഴക്": 9189,
      "ശഷ": 9190,
      "ശൈ": 9191,
      "ശഖ": 9192,
      "ശരണ": 9193,
      "ഷസ": 9194,
      "ഹഫ": 9195,
      "ഹഗ": 9196,
      "ഹൃത": 9197,
      "ൂമി": 9198,
      "െട്": 9199,
      "േരു": 9200,
      "ൈക്": 9201,
      "ൊണ്": 9202,
      "്തു": 9203,
      "ൻസമ": 9204,
      "ർമന": 9205,
      "ൾപ": 9206,
      "##ിന്": 9207,
      "##un": 9208,
      "##gh": 9209,
      "##gp": 9210,
      "##ou": 9211,
      "##po": 9212,
      "##മല": 9213,
      "##ഹ്": 9214,
      "##qu": 9215,
      "നിത്": 9216,
      "മുണ": 9217,
      "്രശ": 9218,
      "്യര": 9219,
      "രാതി": 9220,
      "ിരവ": 9221,
      "്ടന": 9222,
      "്ടീ": 9223,
      "സിഎ": 9224,
      "ഗ്രസി": 9225,
      "വെൻ": 9226,
      "ുകയാ": 9227,
      "അവശ": 9228,
      "അവസാ": 9229,
      "കൂൺ": 9230,
      "റിപ്": 9231,
      "രുതു": 9232,
      "ടിൻ": 9233,
      "ടിഐ": 9234,
      "ബാൽ": 9235,
      "ക്ഷപ": 9236,
      "ാവസ": 9237,
      "ാക്കാ": 9238,
      "സുജ": 9239,
      "സുഖ": 9240,
      "ലോറ": 9241,
      "വർല": 9242,
      "സീന": 9243,
      "സഹാ": 9244,
      "നീര": 9245,
      "മോർ": 9246,
      "ികളാണ": 9247,
      "വയല": 9248,
      "നുള്": 9249,
      "സൗദ": 9250,
      "്കിന്": 9251,
      "ഗോള": 9252,
      "ടെക": 9253,
      "റുള": 9254,
      "മഹി": 9255,
      "ഫ്‌": 9256,
      "ബോം": 9257,
      "േറ്റി": 9258,
      "മീം": 9259,
      "അപര": 9260,
      "ർക്കാ": 9261,
      "ളിം": 9262,
      "മാനേ": 9263,
      "ണെന്": 9264,
      "വനവ": 9265,
      "എറണ": 9266,
      "20ൽ": 9267,
      "സൈൻ": 9268,
      "രമദ": 9269,
      "കയു": 9270,
      "ധാം": 9271,
      "507": 9272,
      "502": 9273,
      "503": 9274,
      "സജു": 9275,
      "ിരുവ": 9276,
      "ൻസൽ": 9277,
      "സോയ": 9278,
      "ടൂൾ": 9279,
      "ഇവൾ": 9280,
      "ജലജ": 9281,
      "കനം": 9282,
      "്ധം": 9283,
      "ഫൈൻ": 9284,
      "ഓടം": 9285,
      "തിയും": 9286,
      "ലേക്": 9287,
      "സലേ": 9288,
      "221": 9289,
      "601": 9290,
      "ിനാൽ": 9291,
      "ുപ്പ്": 9292,
      "ിർദ": 9293,
      "313": 9294,
      "ഡീൽ": 9295,
      "ഗിൾ": 9296,
      "വോറ": 9297,
      "455": 9298,
      "inat": 9299,
      "701": 9300,
      "ഓണർ": 9301,
      "ളാഹ": 9302,
      "യൻസ": 9303,
      "ഫീൽ": 9304,
      "ൊണ്ടാ": 9305,
      "331": 9306,
      "339": 9307,
      "378": 9308,
      "373": 9309,
      "485": 9310,
      "488": 9311,
      "487": 9312,
      "മദർ": 9313,
      "366": 9314,
      "367": 9315,
      "ബൂം": 9316,
      "904": 9317,
      "557": 9318,
      "552": 9319,
      "553": 9320,
      "422": 9321,
      "ഫറാ": 9322,
      "ഫറസ": 9323,
      "433": 9324,
      "416": 9325,
      "412": 9326,
      "യമം": 9327,
      "396": 9328,
      "397": 9329,
      "399": 9330,
      "ിലേറ": 9331,
      "529": 9332,
      "495": 9333,
      "471": 9334,
      "446": 9335,
      "442": 9336,
      "449": 9337,
      "512": 9338,
      "656": 9339,
      "കൊലപ": 9340,
      "##ank": 9341,
      "അബി": 9342,
      "468": 9343,
      "466": 9344,
      "467": 9345,
      "460": 9346,
      "ജഗജ": 9347,
      "റഫാ": 9348,
      "549": 9349,
      "567": 9350,
      "562": 9351,
      "ലറൽ": 9352,
      "589": 9353,
      "579": 9354,
      "596": 9355,
      "സന്തോ": 9356,
      "ഭഗൽ": 9357,
      "636": 9358,
      "637": 9359,
      "633": 9360,
      "667": 9361,
      "715": 9362,
      "714": 9363,
      "##ath": 9364,
      "641": 9365,
      "680": 9366,
      "610": 9367,
      "്പാക": 9368,
      "679": 9369,
      "990": 9370,
      "692": 9371,
      "783": 9372,
      "##ore": 9373,
      "ore": 9374,
      "742": 9375,
      "740": 9376,
      "760": 9377,
      "ഹുല": 9378,
      "ഹുല്": 9379,
      "866": 9380,
      "835": 9381,
      "920": 9382,
      "തഴമ": 9383,
      "790": 9384,
      "879": 9385,
      "938": 9386,
      "814": 9387,
      "പരിശോ": 9388,
      "റൊര": 9389,
      "റത്തു": 9390,
      "tha": 9391,
      "than": 9392,
      "്തലത്": 9393,
      "കൂടുത": 9394,
      "##ing": 9395,
      "്കാര്": 9396,
      "nta": 9397,
      "ally": 9398,
      "met": 9399,
      "ളിലേ": 9400,
      "log": 9401,
      "##ass": 9402,
      "cong": 9403,
      "death": 9404,
      "ary": 9405,
      "##ils": 9406,
      "ഗൺമ": 9407,
      "##apf": 9408,
      "she": 9409,
      "ഷൈല": 9410,
      "##ach": 9411,
      "##agi": 9412,
      "ദസറ": 9413,
      "admi": 9414,
      "atha": 9415,
      "hip": 9416,
      "abha": 9417,
      "nda": 9418,
      "who": 9419,
      "യഥാ": 9420,
      "aed": 9421,
      "fiapf": 9422,
      "you": 9423,
      "dist": 9424,
      "000": 9425,
      "ruit": 9426,
      "state": 9427,
      "kpcc": 9428,
      "wipr": 9429,
      "nhs": 9430,
      "തണൽ": 9431,
      "pgwp": 9432,
      "uae": 9433,
      "sleep": 9434,
      "vices": 9435,
      "ഒബജ": 9436,
      "ശഷം": 9437,
      "'-": 9438,
      "/-": 9439,
      "?\"": 9440,
      "ass": 9441,
      "ails": 9442,
      "bl": 9443,
      "cs": 9444,
      "ci": 9445,
      "cc": 9446,
      "cap": 9447,
      "cdit": 9448,
      "dw": 9449,
      "dan": 9450,
      "ef": 9451,
      "ey": 9452,
      "eve": 9453,
      "epc": 9454,
      "fr": 9455,
      "fo": 9456,
      "fin": 9457,
      "free": 9458,
      "fall": 9459,
      "gs": 9460,
      "gu": 9461,
      "gc": 9462,
      "hy": 9463,
      "happ": 9464,
      "il": 9465,
      "ies": 9466,
      "iala": 9467,
      "ifi": 9468,
      "ima": 9469,
      "jn": 9470,
      "kr": 9471,
      "kg": 9472,
      "lg": 9473,
      "lai": 9474,
      "mc": 9475,
      "mw": 9476,
      "na": 9477,
      "nr": 9478,
      "nu": 9479,
      "nar": 9480,
      "nish": 9481,
      "os": 9482,
      "om": 9483,
      "pu": 9484,
      "pc": 9485,
      "par": 9486,
      "ple": 9487,
      "rb": 9488,
      "ran": 9489,
      "rit": 9490,
      "sm": 9491,
      "sy": 9492,
      "sw": 9493,
      "sagi": 9494,
      "ts": 9495,
      "uk": 9496,
      "vssc": 9497,
      "wc": 9498,
      "zu": 9499,
      "ആടി": 9500,
      "ആടു": 9501,
      "ആദി": 9502,
      "ആയ്": 9503,
      "ഇഡ": 9504,
      "ഇടെ": 9505,
      "ഈട്": 9506,
      "എഡി": 9507,
      "ഏണി": 9508,
      "കജ": 9509,
      "ഖം": 9510,
      "ഖൽ": 9511,
      "ഖഗ": 9512,
      "ഖൈ": 9513,
      "ഗയാ": 9514,
      "ചധ": 9515,
      "ചിയ": 9516,
      "ചാണ": 9517,
      "ടൌൺ": 9518,
      "ഡഗ": 9519,
      "ദൗ": 9520,
      "ദയാ": 9521,
      "ധപ": 9522,
      "നൻ": 9523,
      "നാന": 9524,
      "നണി": 9525,
      "പപ": 9526,
      "പർ": 9527,
      "മലി": 9528,
      "രറ": 9529,
      "രതിയ": 9530,
      "റപ": 9531,
      "റദ": 9532,
      "റൗ": 9533,
      "റഷ്": 9534,
      "റഞ്ഞ്": 9535,
      "ശശ": 9536,
      "ഷട": 9537,
      "ഷു": 9538,
      "ഷജ": 9539,
      "സൊ": 9540,
      "സഊ": 9541,
      "സരള": 9542,
      "ഹൽ": 9543,
      "ഹഡ": 9544,
      "ിച്": 9545,
      "ുരുഷ": 9546,
      "ൊറോണ": 9547,
      "്ണി": 9548,
      "്തിന്": 9549,
      "ർവർ": 9550,
      "ൾക്": 9551,
      "##np": 9552,
      "##lc": 9553,
      "##rd": 9554,
      "##സം": 9555,
      "##op": 9556,
      "##pf": 9557,
      "##bc": 9558,
      "##bai": 9559,
      "##ലം": 9560,
      "##cs": 9561,
      "##fo": 9562,
      "##fw": 9563,
      "##ju": 9564,
      "വിടു": 9565,
      "##രുന": 9566,
      "തിറ": 9567,
      "യിം": 9568,
      "യിരി": 9569,
      "യിരുന": 9570,
      "ചെറി": 9571,
      "രാഭ": 9572,
      "കുല": 9573,
      "കുണ്ട": 9574,
      "കുമ്പ": 9575,
      "പോം": 9576,
      "ന്നതെ": 9577,
      "റ്റന": 9578,
      "ത്തിട": 9579,
      "വരേ": 9580,
      "സമൂ": 9581,
      "രിക്": 9582,
      "ണ്ടത്": 9583,
      "ബി1": 9584,
      "റിം": 9585,
      "രുക്": 9586,
      "കെഇ": 9587,
      "വീർ": 9588,
      "വീസ്": 9589,
      "ഇതെ": 9590,
      "തുടങ": 9591,
      "നിലയി": 9592,
      "ജനങ": 9593,
      "മേധ": 9594,
      "്പുകള": 9595,
      "വലയ": 9596,
      "രൂപയാ": 9597,
      "ലോഹ": 9598,
      "വർട": 9599,
      "വർഹ": 9600,
      "ാണിക": 9601,
      "വൈഗ": 9602,
      "ജീൻ": 9603,
      "ലിയി": 9604,
      "ജിൻ": 9605,
      "െത്താ": 9606,
      "ചിന്": 9607,
      "നീന": 9608,
      "നീൽ": 9609,
      "മിർ": 9610,
      "കിട്": 9611,
      "ിതത്ത": 9612,
      "കൈമ": 9613,
      "ഡോണ": 9614,
      "കോൺഗ്": 9615,
      "ശതം": 9616,
      "മേഖലയ": 9617,
      "മൂൺ": 9618,
      "റോം": 9619,
      "തൃഷ": 9620,
      "ദുർ": 9621,
      "മലം": 9622,
      "യേക": 9623,
      "ിസന": 9624,
      "തിലാണ": 9625,
      "നഗല": 9626,
      "10ൽ": 9627,
      "തേക": 9628,
      "ബോൺ": 9629,
      "തരൂ": 9630,
      "തിനെത": 9631,
      "എൻ1": 9632,
      "ഴ്‌": 9633,
      "കളെയ": 9634,
      "തനിക്": 9635,
      "അയല": 9636,
      "വനസ": 9637,
      "ോസഫ": 9638,
      "സൈറ": 9639,
      "ീറ്റു": 9640,
      "രംപ": 9641,
      "കൗൾ": 9642,
      "ജാഗ്": 9643,
      "്ഷി": 9644,
      "ഥാർ": 9645,
      "അകെ": 9646,
      "ബീം": 9647,
      "ടാർ": 9648,
      "ഹോദ": 9649,
      "ൻസന": 9650,
      "സോൾ": 9651,
      "ഫെമ": 9652,
      "404": 9653,
      "്വാധ": 9654,
      "ഗൗബ": 9655,
      "ഗൗൺ": 9656,
      "ഉദയ": 9657,
      "ോചി": 9658,
      "ഖ്യമന": 9659,
      "604": 9660,
      "ർഷത": 9661,
      "ഉമ്മന": 9662,
      "316": 9663,
      "359": 9664,
      "കൺട": 9665,
      "452": 9666,
      "454": 9667,
      "ർമശ": 9668,
      "ട്‌": 9669,
      "806": 9670,
      "മണര": 9671,
      "int": 9672,
      "inst": 9673,
      "insp": 9674,
      "705": 9675,
      "707": 9676,
      "703": 9677,
      "709": 9678,
      "വംശ": 9679,
      "അരഗ": 9680,
      "335": 9681,
      "333": 9682,
      "347": 9683,
      "482": 9684,
      "ഷററ": 9685,
      "361": 9686,
      "369": 9687,
      "ർപഡ": 9688,
      "551": 9689,
      "559": 9690,
      "755": 9691,
      "426": 9692,
      "423": 9693,
      "429": 9694,
      "383": 9695,
      "436": 9696,
      "414": 9697,
      "ടണൽ": 9698,
      "393": 9699,
      "394": 9700,
      "491": 9701,
      "492": 9702,
      "472": 9703,
      "445": 9704,
      "441": 9705,
      "448": 9706,
      "444": 9707,
      "511": 9708,
      "513": 9709,
      "651": 9710,
      "652": 9711,
      "465": 9712,
      "കളുട": 9713,
      "546": 9714,
      "അമര": 9715,
      "അമൻ": 9716,
      "ൊലപാ": 9717,
      "ank": 9718,
      "568": 9719,
      "563": 9720,
      "564": 9721,
      "726": 9722,
      "727": 9723,
      "539": 9724,
      "587": 9725,
      "580": 9726,
      "575": 9727,
      "578": 9728,
      "576": 9729,
      "572": 9730,
      "കവല": 9731,
      "്പുറ": 9732,
      "സ്ലിം": 9733,
      "591": 9734,
      "598": 9735,
      "നറല്": 9736,
      "630": 9737,
      "666": 9738,
      "775": 9739,
      "776": 9740,
      "777": 9741,
      "772": 9742,
      "770": 9743,
      "774": 9744,
      "കറൻ": 9745,
      "682": 9746,
      "612": 9747,
      "യാനു": 9748,
      "676": 9749,
      "992": 9750,
      "691": 9751,
      "694": 9752,
      "699": 9753,
      "785": 9754,
      "787": 9755,
      "780": 9756,
      "784": 9757,
      "956": 9758,
      "747": 9759,
      "765": 9760,
      "821": 9761,
      "731": 9762,
      "911": 9763,
      "919": 9764,
      "965": 9765,
      "885": 9766,
      "887": 9767,
      "839": 9768,
      "799": 9769,
      "878": 9770,
      "892": 9771,
      "prd": 9772,
      "pri": 9773,
      "price": 9774,
      "press": 9775,
      "ാഹുല": 9776,
      "817": 9777,
      "813": 9778,
      "സൾഫ": 9779,
      "rem": 9780,
      "thi": 9781,
      "നഹി": 9782,
      "comp": 9783,
      "str": 9784,
      "ഹർഷ": 9785,
      "സുരേഷ": 9786,
      "ൽബൺ": 9787,
      "vie": 9788,
      "##ine": 9789,
      "##ins": 9790,
      "alp": 9791,
      "mea": 9792,
      "med": 9793,
      "ഭടൻ": 9794,
      "rsc": 9795,
      "cher": 9796,
      "art": 9797,
      "cpt": 9798,
      "fore": 9799,
      "രഥം": 9800,
      "rius": 9801,
      "sha": 9802,
      "ssb": 9803,
      "ssc": 9804,
      "sslc": 9805,
      "ted": 9806,
      "tech": 9807,
      "gem": 9808,
      "icu": 9809,
      "dom": 9810,
      "crpf": 9811,
      "air": 9812,
      "heal": 9813,
      "und": 9814,
      "unf": 9815,
      "അഥവ": 9816,
      "???": 9817,
      "weat": 9818,
      "abu": 9819,
      "ircc": 9820,
      "supe": 9821,
      "supp": 9822,
      "രാലയ": 9823,
      "quar": 9824,
      "june": 9825,
      "രസിന്": 9826,
      "work": 9827,
      "disc": 9828,
      "have": 9829,
      "ബൾഗ": 9830,
      "bsf": 9831,
      "citu": 9832,
      "dual": 9833,
      "dubai": 9834,
      "play": 9835,
      "save": 9836,
      "അഗം": 9837,
      "ോദ്യം": 9838,
      "posit": 9839,
      "nnavy": 9840,
      "ലലൻ": 9841,
      "ogya": 9842,
      "break": 9843,
      "cybe": 9844,
      "stem": 9845,
      "ങളെ": 9846,
      "kseb": 9847,
      "cbse": 9848,
      "cult": 9849,
      "dysp": 9850,
      "great": 9851,
      "mvd": 9852,
      "miss": 9853,
      "otp": 9854,
      "ഉഴല": 9855,
      "ഫണല": 9856,
      "lgbt": 9857,
      "ഖൽസ": 9858,
      "\"\"": 9859,
      "';": 9860,
      ".!": 9861,
      ".)": 9862,
      "3d": 9863,
      "4x": 9864,
      "5നു": 9865,
      "6ഇ": 9866,
      "7ാം": 9867,
      "8ാം": 9868,
      "?!": 9869,
      "a1": 9870,
      "aus": 9871,
      "ase": 9872,
      "ble": 9873,
      "ber": 9874,
      "bri": 9875,
      "bank": 9876,
      "cd": 9877,
      "car": 9878,
      "cts": 9879,
      "cer": 9880,
      "cur": 9881,
      "cut": 9882,
      "cisf": 9883,
      "cine": 9884,
      "dn": 9885,
      "dp": 9886,
      "dv": 9887,
      "dge": 9888,
      "dgp": 9889,
      "eh": 9890,
      "et": 9891,
      "eg": 9892,
      "eli": 9893,
      "eci": 9894,
      "eff": 9895,
      "fan": 9896,
      "fic": 9897,
      "fli": 9898,
      "fav": 9899,
      "fish": 9900,
      "fact": 9901,
      "gn": 9902,
      "gi": 9903,
      "g8": 9904,
      "gg": 9905,
      "gam": 9906,
      "gro": 9907,
      "gand": 9908,
      "hc": 9909,
      "hw": 9910,
      "his": 9911,
      "hav": 9912,
      "hya": 9913,
      "ian": 9914,
      "ire": 9915,
      "icc": 9916,
      "ims": 9917,
      "ium": 9918,
      "kd": 9919,
      "kas": 9920,
      "mr": 9921,
      "mer": 9922,
      "min": 9923,
      "nam": 9924,
      "non": 9925,
      "nis": 9926,
      "nst": 9927,
      "nur": 9928,
      "ning": 9929,
      "ou": 9930,
      "op": 9931,
      "ok": 9932,
      "ove": 9933,
      "out": 9934,
      "pp": 9935,
      "pte": 9936,
      "ppe": 9937,
      "pare": 9938,
      "pul": 9939,
      "pms": 9940,
      "pay": 9941,
      "qa": 9942,
      "qq": 9943,
      "ris": 9944,
      "rad": 9945,
      "rul": 9946,
      "ralam": 9947,
      "rime": 9948,
      "sl": 9949,
      "sg": 9950,
      "sv": 9951,
      "sal": 9952,
      "san": 9953,
      "sat": 9954,
      "sts": 9955,
      "sur": 9956,
      "sree": 9957,
      "tc": 9958,
      "tan": 9959,
      "tis": 9960,
      "tre": 9961,
      "time": 9962,
      "test": 9963,
      "ut": 9964,
      "ub": 9965,
      "uap": 9966,
      "uid": 9967,
      "vm": 9968,
      "vc": 9969,
      "vat": 9970,
      "vice": 9971,
      "vpm": 9972,
      "way": 9973,
      "wind": 9974,
      "xi": 9975,
      "yan": 9976,
      "yam": 9977,
      "yad": 9978,
      "za": 9979,
      "zed": 9980,
      "അഫ്": 9981,
      "ആവി": 9982,
      "ആളി": 9983,
      "ആമി": 9984,
      "ആദര": 9985,
      "ആഹ്": 9986,
      "ഇഴ": 9987,
      "ഇജ": 9988,
      "ഇയ": 9989,
      "ഇഹ": 9990,
      "ഇസി": 9991,
      "ഇഎം": 9992,
      "ഇങ്": 9993,
      "ഈണം": 9994,
      "ഊഷ": 9995,
      "ഊമ": 9996,
      "ഊതി": 9997,
      "എ6": 9998,
      "എഹ": 9999
    }
  }
}