<unk>	0
<s>	0
</s>	0
.	-3.04399
്	-3.84863
ും	-4.32808
▁	-4.42566
ം	-4.52351
്‍	-4.5975
ു	-4.72629
▁,	-4.9697
ി	-4.99697
െ	-5.07245
,	-5.07391
ാണ്	-5.0811
ത്	-5.2641
▁.	-5.29115
ാ	-5.52975
ില്‍	-5.62738
ിൽ	-5.70346
യ	-5.75421
യുടെ	-5.79912
▁ഒരു	-5.80755
ര്‍	-5.8327
ിന്റെ	-5.84567
ർ	-5.86244
▁ഈ	-5.87717
ുള്ള	-5.92802
ന്‍	-5.94474
ക്ക്	-5.97655
യും	-6.00461
മ	-6.02676
ൻ	-6.03161
വ	-6.14163
ൽ	-6.16904
ത	-6.211
▁പറഞ്ഞു	-6.21349
ല്‍	-6.22447
▁ക	-6.22749
▁എന്ന	-6.22772
▁യും	-6.24308
സ്	-6.25101
▁ത	-6.32995
▁പി	-6.3376
ുന്ന	-6.33961
▁തന്നെ	-6.34352
ോ	-6.34515
▁അ	-6.34975
ക	-6.36458
റ	-6.37342
ിന്	-6.38225
▁സ്	-6.38908
▁സി	-6.39081
യില്‍	-6.39529
▁-	-6.41055
യാണ്	-6.42522
▁മ	-6.42849
▁ത്	-6.4321
ന	-6.43326
ുടെ	-6.43702
ിരുന്നു	-6.45335
:	-6.45869
▁നിന്ന്	-6.46476
▁ആ	-6.48076
ല	-6.48298
ക്ക	-6.48407
വും	-6.49125
സ	-6.51479
േ	-6.51825
▁ന	-6.52773
ര	-6.56117
യെ	-6.59064
ാന്‍	-6.5948
ക്	-6.59625
ീ	-6.61245
▁കഴിഞ്ഞ	-6.61617
▁സ	-6.62843
▁വ	-6.65941
ുക	-6.67355
യിൽ	-6.674
മാണ്	-6.67456
▁എ	-6.70647
ായി	-6.70658
ാൻ	-6.71507
▁വി	-6.73208
▁കെ	-6.75106
▁അദ്ദേഹം	-6.76437
മായി	-6.77242
▁അതേസമയം	-6.77648
▁എന്നാല്‍	-6.79343
▁ഇ	-6.79426
ങ്ങൾ	-6.80933
▁യ	-6.81022
ിലെ	-6.81337
ണ	-6.81575
സി	-6.84249
ച്ച	-6.84544
ട	-6.85031
▁യാണ്	-6.8572
ത്തില്‍	-6.86177
ിട്ടുണ്ട്	-6.86438
മായ	-6.87345
ത്തെ	-6.88408
▁ബി	-6.88551
▁ഇത്	-6.89778
▁വലിയ	-6.90122
ത്ത	-6.90498
▁എന്ന്	-6.91233
▁മുഖ്യമന്ത്രി	-6.91986
ിനെ	-6.92065
പ്പ	-6.93126
ൂ	-6.93493
ായിരുന്നു	-6.93518
പ	-6.93645
▁സംസ്ഥാന	-6.94021
ില്ല	-6.95231
▁ബിജെപി	-6.96503
ിയ	-6.96532
▁കേന്ദ്ര	-6.96553
▁ല	-6.97024
ത്തിന്	-6.97463
ത്തിൽ	-6.9763
ായ	-6.97786
കൾ	-6.98301
▁ക്ക്	-6.99029
▁വരെ	-6.99338
▁രൂപ	-6.99575
▁നിന്നും	-7.00366
▁യുടെ	-7.01769
▁കോണ്‍ഗ്രസ്	-7.02018
ത്തിന്റെ	-7.02902
▁മന്ത്രി	-7.04454
▁(	-7.05543
▁എം	-7.07423
▁ക്ക	-7.08623
▁ചെയ്ത	-7.09641
▁'	-7.0979
▁ഇന്ത്യ	-7.101
▁ഡി	-7.10876
ങ്ങള്‍	-7.11805
ന്	-7.12374
▁സ്വദേശി	-7.1288
ള	-7.137
▁ു	-7.13847
▁പ	-7.15293
▁അത്	-7.16367
കള്‍	-7.16374
ുണ്ട്	-7.18626
ടി	-7.18703
▁റ	-7.20051
▁രണ്ട്	-7.20176
▁എസ്	-7.20248
ഡ്	-7.20734
ണം	-7.21046
പി	-7.21612
▁പുതിയ	-7.22019
▁ഇന്ന്	-7.22182
ഡ	-7.22556
ട്ട	-7.23504
▁ശേഷം	-7.25744
ക്കുന്ന	-7.26078
▁വന്ന	-7.2644
▁അത	-7.26858
ന്ന	-7.27846
▁പോലീസ്	-7.27961
▁പറയുന്നു	-7.27995
▁എന്നാണ്	-7.2823
ുന്നത്	-7.29023
▁എല്ലാ	-7.29062
ുകള്‍	-7.29317
റ്റ	-7.30434
▁വര	-7.31881
▁ഏറ്റവ	-7.32299
▁ഐ	-7.32983
ുമായി	-7.33284
ുകൾ	-7.33517
▁ആണ്	-7.33551
0	-7.33979
രി	-7.34961
▁മാ	-7.35082
▁കേരള	-7.35425
▁പാര്‍ട്ടി	-7.36775
▁ഗ	-7.36793
▁വില	-7.37805
ഹ	-7.38087
ാം	-7.38215
▁ചെയ്തു	-7.39151
▁ക്കും	-7.39175
റി	-7.3937
-	-7.39385
▁ജെ	-7.39552
യിലെ	-7.39829
ലി	-7.40215
▁ന്	-7.40811
യായ	-7.41203
▁സര്‍ക്കാര്‍	-7.42258
▁;	-7.42687
ിച്ച	-7.4307
▁കോടതി	-7.43218
തി	-7.43418
ിക്കുന്ന	-7.4371
▁ര	-7.44374
ക്കും	-7.44455
▁കൊവിഡ്	-7.44704
▁ബ	-7.44749
നി	-7.44795
▁നടത്തിയ	-7.44853
▁ദിവസം	-7.44902
ഗ	-7.45329
▁നേരത്തെ	-7.45718
▁യെ	-7.4618
വി	-7.46434
യുള്ള	-7.46565
ജ	-7.47155
ബ	-7.47319
▁കോടി	-7.47539
▁ടി	-7.47595
▁നി	-7.47958
▁ജില്ലാ	-7.48596
ഷ	-7.48721
▁തിരുവനന്തപുരം	-7.49173
▁കോവിഡ്	-7.49339
▁രാഷ്ട്രീയ	-7.49997
▁എന്നാൽ	-7.50773
ൈ	-7.5079
ിരിക്കുന്നത്	-7.50805
▁പ്ര	-7.51677
)	-7.5206
▁കൂടി	-7.52826
യ്ക്ക്	-7.53385
▁എന്നും	-7.53481
പ്	-7.53693
▁ചില	-7.54063
▁യില്‍	-7.54135
റ്റ്	-7.5455
ൾ	-7.54678
ത്ത്	-7.55263
▁ത്ത	-7.55574
ദ	-7.55661
പ്പെട്ട	-7.56322
▁പേര്‍	-7.56444
▁മറ്റ	-7.56684
ശ	-7.58824
▁യു	-7.58973
▁പാർട്ടി	-7.59521
ാന	-7.60217
ാല്‍	-7.60483
5	-7.61025
ല്ല	-7.61086
ുകയും	-7.61459
▁കള	-7.61938
ൺ	-7.62036
▁ആരോഗ്യ	-7.62867
ജി	-7.63418
▁കോ	-7.64071
ന്റെ	-7.64549
േണ്ട	-7.64757
▁മൂന്ന്	-7.64854
▁കൂടുതല്‍	-7.65108
▁ഉ	-7.6517
▁ജോലി	-7.65204
▁10	-7.65477
▁കൊണ്ട്	-7.65623
ിലും	-7.65796
മ്പ	-7.66027
മാ	-7.66031
▁വഴി	-7.66181
ഡി	-7.66741
▁വേണ്ടി	-7.66746
▁:	-7.66804
▁തുടര്‍ന്ന	-7.67374
▁നടന്ന	-7.67641
▁ിരുന്നു	-7.67844
▁പദ്ധതി	-7.67994
▁രോഗം	-7.68282
▁ം	-7.68841
▁ല്‍	-7.69624
▁ഹ	-7.6991
▁ച	-7.70266
▁പിന്നാലെ	-7.70488
▁പോലും	-7.70893
▁വ്യക്തമാക്കി	-7.71121
▁അറിയിച്ചു	-7.71312
▁തിരഞ്ഞെടുപ്പ്	-7.71383
▁ട	-7.72008
▁താണ്	-7.72047
▁ജ	-7.72588
▁ജി	-7.73033
ാത്ത	-7.73047
▁സർക്കാർ	-7.73468
▁ആദ്യ	-7.73617
▁പറയുന്നത്	-7.73794
▁ഇവിടെ	-7.7395
▁ഇത	-7.73989
▁"	-7.74667
▁പ്രധാനമന്ത്രി	-7.74761
മി	-7.74926
4	-7.75051
ക്കി	-7.75307
▁എന്നിവ	-7.75558
ാതെ	-7.75659
▁കോൺഗ്രസ്	-7.75698
▁നടപടി	-7.7582
ിലേക്ക്	-7.75843
▁പരാതി	-7.75971
ോട്	-7.76193
ബി	-7.7637
▁ഒ	-7.76507
▁അടുത്ത	-7.77652
ഫ	-7.7774
▁സെക്രട്ടറി	-7.78118
▁മോദി	-7.78376
▁പൊലീസ്	-7.78545
ങ്ങ	-7.7916
7	-7.80009
▁മുതല്‍	-7.8049
▁വും	-7.80809
▁നല്‍കിയ	-7.80833
യ്	-7.81722
▁ഇപ്പോള്‍	-7.82014
2	-7.82246
▁തെന്ന	-7.82423
▁അഞ്ച	-7.82532
തിന്	-7.83023
ൊരു	-7.83158
്റെ	-7.83474
▁കാരണം	-7.83631
▁കട	-7.84352
▁ഇനി	-7.84655
എസ്	-7.84749
▁പല	-7.84761
▁കാ	-7.84829
▁ാ	-7.85816
ങ്ക	-7.86101
▁മാത്രം	-7.86253
;	-7.86295
6	-7.86559
▁കണ്ട	-7.86768
▁ി	-7.8704
ാൽ	-7.87057
▁പ്രതി	-7.87232
▁പാ	-7.87538
▁എത്തിയ	-7.87654
▁പറഞ്ഞ	-7.87809
▁12	-7.8803
▁തന്റെ	-7.88047
ഴ	-7.88161
▁കൈ	-7.88292
െന്നും	-7.88911
▁ഇതുവരെ	-7.88936
▁യായിരുന്നു	-7.89088
▁വാ	-7.89436
3	-7.89884
▁മാണ്	-7.89888
8	-7.90081
കളുടെ	-7.9021
ൂര്‍	-7.90444
▁മു	-7.90864
പ്പോൾ	-7.90879
▁ങ്ങള	-7.91049
▁ില്ല	-7.91193
▁ഇതോടെ	-7.91315
▁ശതമാനം	-7.91566
െല്ലാം	-7.91608
▁20	-7.91836
▁ൽ	-7.92054
▁പരിശോധന	-7.92286
ില	-7.9231
▁കോഴിക്കോട്	-7.92487
▁റിപ്പോര്‍ട്ട്	-7.92792
യാ	-7.92818
▁അവര്‍	-7.93222
▁11	-7.9334
ത്തി	-7.93445
▁വീണ്ടും	-7.93782
▁യിൽ	-7.94312
▁അദ്ദേഹത്ത	-7.94343
▁ലക്ഷം	-7.94559
▁ഗാന്ധി	-7.9461
ുളള	-7.94853
▁നേതാവ്	-7.95252
▁ലഭിച്ച	-7.95297
▁15	-7.95373
▁നിന്നുള്ള	-7.95403
1	-7.95419
▁ക്	-7.95522
▁നിരവധി	-7.95671
▁ിട്ടുണ്ട്	-7.95807
▁സു	-7.9599
▁ക്കാന	-7.96566
▁പ്രതിപക്ഷ	-7.97222
▁തിന്	-7.97544
▁ശ	-7.97546
▁ഷ	-7.97903
ച	-7.98453
▁ഇത്തവണ	-7.98729
▁സാധ്യത	-7.9874
മുള്ള	-7.98846
യായി	-7.98977
▁ഒന്ന	-7.99123
ണമെന്ന	-7.99143
തോടെ	-7.99201
ണ്ട	-7.99353
▁നല്ല	-7.99443
▁ലെ	-7.99444
വാ	-7.99668
▁വിവിധ	-7.99773
▁വെ	-7.99875
ൊ	-7.99939
▁സിനിമ	-8.00052
ിംഗ്	-8.00103
▁ആര	-8.00464
▁റ്റ	-8.00842
▁സംസ്ഥാനത്ത്	-8.01122
▁വളരെ	-8.0146
െങ്കിലും	-8.0168
▁...	-8.01693
▁സാ	-8.01923
▁ദേശീയ	-8.01964
ഷ്	-8.02294
▁തുടങ്ങിയ	-8.02458
9	-8.02722
▁യ്ക്ക്	-8.02804
▁ഞാന്‍	-8.02808
▁ാണ്	-8.03058
▁ജില്ലയില്‍	-8.03185
▁പിന്നീട്	-8.03421
ിരുന്ന	-8.0348
ുകയായിരുന്നു	-8.03642
▁വകുപ്പ്	-8.03975
▁ചെയ്യുന്ന	-8.03998
▁മാത്രമാണ്	-8.04028
▁ദ	-8.04392
▁പിണറായി	-8.04516
▁?	-8.04518
▁നാ	-8.04663
?	-8.04722
▁വരുന്ന	-8.04859
▁പ്രത്യേക	-8.05496
മ്മ	-8.05615
നെ	-8.05671
ളി	-8.05748
▁ശക്തമായ	-8.05784
േക്ക്	-8.0607
▁പോയ	-8.06296
▁ഇതിന്	-8.06373
▁കേസ്	-8.07083
▁പ്പ	-8.07116
▁യോ	-8.07367
▁വരും	-8.07799
▁ത്തിന്റെ	-8.07828
ട്ടി	-8.08317
▁മുന്‍	-8.08359
▁യാ	-8.08374
▁പ്രശ്	-8.08496
▁യിലെ	-8.08726
▁യാത്ര	-8.08839
▁നിയമ	-8.09003
ഭ	-8.09028
▁14	-8.09203
▁ആവശ്യപ്പെട്ട	-8.09223
▁24	-8.09556
▁പ്രധാന	-8.09561
യോ	-8.0975
▁നിലവില	-8.09755
▁2	-8.09931
▁അവരുടെ	-8.10074
▁തും	-8.10256
▁സാമ്പത്തിക	-8.10392
▁ആര്‍	-8.10404
▁ചര്‍ച്ച	-8.10836
ിലൂടെ	-8.11051
▁രാഹുല്‍	-8.11306
▁ചോദ്യം	-8.11338
▁റെ	-8.11586
▁മെ	-8.12027
▁കൊണ്ട	-8.12041
▁വീഡിയോ	-8.1213
▁വാക്	-8.12194
▁മാറ്റ	-8.12246
▁സിപിഎം	-8.12355
▁5	-8.12785
▁ചെയ്തത്	-8.12902
▁ക്കെതിരെ	-8.12912
▁ഇത്തര	-8.12974
▁യെന്ന	-8.13009
▁കു	-8.13297
▁ഉള്ള	-8.13354
▁നിന്ന	-8.13465
ാനുള്ള	-8.13559
ള്‍	-8.13569
എ	-8.13662
▁മികച്ച	-8.14404
ങ്ങളുടെ	-8.14506
▁പറഞ്ഞത്	-8.14907
▁ക്കു	-8.15106
ിരിക്കുകയാണ്	-8.15123
▁പോലെ	-8.1523
▁ുവെന്ന	-8.15582
▁3	-8.15684
▁ഇങ്ങനെ	-8.15731
▁നാല്	-8.15817
ക്കാന്‍	-8.15899
▁സ്വദേശിനി	-8.15961
▁തു	-8.16042
▁ഇവര്‍	-8.16333
ണി	-8.16454
▁മുതൽ	-8.16636
ിക	-8.16671
ക്കാൻ	-8.16698
▁കള്‍	-8.16874
യി	-8.16875
ാവ	-8.16885
പ്ര	-8.17069
▁കൊറോണ	-8.17202
▁പിന്തുണ	-8.17311
▁വിജയ	-8.17352
▁1	-8.17414
യില	-8.17518
▁പ്രഖ്യാപിച്ച	-8.17863
നാ	-8.17868
▁18	-8.17951
▁മറുപടി	-8.18535
▁മായ	-8.18552
▁പണം	-8.18732
▁ചൈന	-8.18871
▁നില	-8.18921
▁പക്ഷേ	-8.18986
ധ	-8.19044
ംഗ	-8.19051
▁വിവരം	-8.19084
▁തവണ	-8.19451
▁എന്റെ	-8.1966
▁ുണ്ട്	-8.1967
താണ്	-8.19973
▁മോ	-8.20122
▁പുറത്ത്	-8.20401
ിന്‍റെ	-8.20457
▁ദില്ലി	-8.20492
പ്പോള്‍	-8.20553
▁സമയം	-8.20628
വര്‍	-8.20662
▁തന്നെയാണ്	-8.20694
▁സ്ഥിരീകരിച്ച	-8.20924
▁നടത്തി	-8.20928
ഞ്ഞ	-8.21217
▁ഞാൻ	-8.21276
▁ഡ	-8.21484
▁ിരിക്കുകയാണ്	-8.21787
കര	-8.21928
ദ്	-8.21986
▁ബന്ധപ്പെട്ട	-8.22132
ിങ്	-8.22206
▁ത്തിന്	-8.2229
തായി	-8.22355
▁അന്വേഷണ	-8.22407
▁)	-8.22676
▁കൂട്ട	-8.22718
▁തീരുമാനം	-8.22966
യിലേക്ക്	-8.23358
▁പ്രസിഡന്റ്	-8.2336
▁കൾ	-8.23555
▁രാവിലെ	-8.23749
▁നേതാക്കള്‍	-8.23841
▁കൂടുതൽ	-8.24102
▁കമ്പനി	-8.24208
▁ഷാ	-8.2432
▁മഴ	-8.24348
▁തിരഞ്ഞെടുപ്പില	-8.24445
പ്പ്	-8.24877
▁നെ	-8.24947
▁ത്തി	-8.24948
▁ഡോ	-8.24968
▁മായി	-8.2513
ുമെന്ന്	-8.25355
▁ഭ	-8.2546
▁എന്‍	-8.25463
▁13	-8.25554
▁ആർ	-8.25771
▁19	-8.2578
ന്ത	-8.26005
▁താ	-8.26059
▁കാണ	-8.26349
▁ായിരുന്നു	-8.26518
▁കണ്ണൂര്‍	-8.26567
▁കര	-8.26737
▁സീറ്റ്	-8.26822
▁സുരക്ഷ	-8.26911
▁ച്ച	-8.27018
ുമ്പോള്‍	-8.27069
്യൂ	-8.27111
▁രാജ്യത്ത	-8.27278
▁പൊതു	-8.27439
▁പേര്‍ക്ക്	-8.2792
▁റി	-8.27947
ുമാണ്	-8.28233
▁അവർ	-8.28283
▁ഇട	-8.28578
▁വോട്ട്	-8.28614
▁റിപ്പോർട്ട്	-8.28816
▁ജില്ലയിലെ	-8.28913
▁സെ	-8.28972
▁കമ്മിറ്റി	-8.29036
▁16	-8.29186
▁നിയമസഭാ	-8.29464
▁അമേരിക്ക	-8.2951
േയും	-8.29724
ച്ച്	-8.29963
▁ജന	-8.30039
▁ഓ	-8.3006
നായ	-8.30136
ഞ്ച	-8.30152
▁എന്നിവര	-8.30247
▁നടത്തുന്ന	-8.30379
വ്	-8.30554
▁നടക്കുന്ന	-8.30684
ിട	-8.30704
▁അന്വേഷണം	-8.30837
▁കളും	-8.31077
▁ആയിരുന്നു	-8.31317
ക്കുക	-8.31504
പ്പി	-8.31535
▁ചെയ്യ	-8.31801
▁25	-8.3183
ൂർ	-8.32372
▁17	-8.32385
▁നൽകിയ	-8.32431
▁നേതൃത്വം	-8.32459
▁അവ	-8.32483
▁പ്രതിരോധ	-8.32646
▁30	-8.32799
▁ര്‍	-8.32807
ഐ	-8.32819
▁എണ്ണം	-8.33223
▁എഫ്	-8.33551
▁കൊച്ചി	-8.33565
▁ിരിക്കുന്നത്	-8.33624
),	-8.33657
▁തല	-8.33699
▁ത്തെ	-8.33721
ുന്നു	-8.33796
▁ട്ട	-8.34087
▁ഹൈക്കോടതി	-8.34114
▁അവിടെ	-8.3425
▁ഓരോ	-8.34427
▁നല്‍കി	-8.34453
▁നടി	-8.34585
▁ന്റെ	-8.34608
▁ഉണ്ടായ	-8.34748
▁ആയി	-8.34817
▁ബിഗ്	-8.35095
▁ബാ	-8.35356
ത്ര	-8.35432
▁ില്ലെന്ന	-8.35553
ന്ദ	-8.35835
താ	-8.36142
▁ള	-8.36198
▁ഏ	-8.36319
▁വെച്ച	-8.36505
കെ	-8.36587
യുമായി	-8.36694
▁എനിക്ക്	-8.36702
▁ആലപ്പുഴ	-8.36956
▁നും	-8.37066
▁മി	-8.37147
▁ത്തില്‍	-8.3716
▁ഫ	-8.37235
▁ിക്ക	-8.37312
▁കുട്ടി	-8.37383
ക്ഷ	-8.37491
ക്കെതിരെ	-8.37838
▁സൂചന	-8.37927
▁അപേക്ഷ	-8.38034
▁സിംഗ്	-8.38089
▁ആകെ	-8.38095
ൊക്കെ	-8.38169
▁കാര്യം	-8.38184
▁പറയ	-8.38187
▁അവസാന	-8.38263
▁4	-8.38328
എം	-8.38332
▁അതിന്	-8.38554
ണ്‍	-8.38612
▁സ്ഥാനാര്‍ത്ഥി	-8.38736
▁അതുകൊണ്ട	-8.38749
▁50	-8.38831
▁തെന്ന്	-8.38928
വർ	-8.39067
▁പോക	-8.39246
▁യി	-8.39285
▁രണ്ടാം	-8.3932
▁മുമ്പ്	-8.39365
▁ചെ	-8.39555
▁തായി	-8.39755
▁വേ	-8.39791
ഗ്	-8.39955
ിട്ടില്ല	-8.39997
▁കാല	-8.40272
▁മറ്റൊര	-8.40346
രു	-8.40536
▁അങ്ങനെ	-8.40537
▁സംഘടന	-8.40691
ഥ	-8.40957
ിനെതിരെ	-8.40967
▁വര്‍	-8.41061
▁പാലക്കാട്	-8.41357
വുമായി	-8.41551
▁വര്‍ഷം	-8.41564
▁മാത്രമല്ല	-8.41575
▁മാറ്റി	-8.41685
ുകയാണ്	-8.41813
▁കോട്ടയം	-8.41862
▁അറസ്റ്റ്	-8.4212
▁യില	-8.42384
ക്കുകയും	-8.424
ന്റ	-8.42405
▁പ്രതിഷേധ	-8.42589
▁ഉപയോഗിച്ച	-8.42742
റു	-8.42778
▁സാഹചര്യത്തില	-8.42806
▁ഭരണ	-8.42903
ട്	-8.42919
▁സമിതി	-8.4302
▁ഏറെ	-8.43021
ക്കിയ	-8.43083
▁സംഭവ	-8.43143
▁അമ്മ	-8.43231
ൗ	-8.43416
▁ബന്ധ	-8.43545
▁എത്തി	-8.43611
▁കി	-8.43818
▁ജയ	-8.43903
ാലും	-8.4395
▁ലി	-8.44065
▁എടുത്ത	-8.44068
▁ന്ന	-8.44133
ച്ചു	-8.44201
ിന	-8.44375
▁മാസം	-8.44906
▁ഇന്ത്യന്‍	-8.44917
തു	-8.44951
ിനും	-8.45378
▁കാര്യങ്ങള്‍	-8.45524
▁സംഭവം	-8.45562
▁ഇവര	-8.4561
▁6	-8.45707
▁ആശുപത്രി	-8.45721
െന്ന്	-8.45801
▁9	-8.45805
▁കുറിച്ച്	-8.45912
▁കേരളത്തില്‍	-8.46004
ുകളും	-8.46132
▁എറണാകുളം	-8.46246
▁എണ്ണ	-8.46248
▁ലോക	-8.46296
▁ആദ്യം	-8.46324
▁മത	-8.46405
▁യുഡിഎഫ്	-8.4647
▁പേർ	-8.46491
▁ഭാര്യ	-8.46507
▁സ്വകാര്യ	-8.46629
▁സൗദി	-8.46693
▁വിട്ട	-8.46763
▁വ്യക്തി	-8.46816
▁തനിക്ക	-8.47162
▁മണി	-8.47483
▁പു	-8.47498
▁രോഗ	-8.47698
▁വർ	-8.48022
▁തി	-8.48115
ുമ	-8.48128
▁അനുമതി	-8.48355
ാര്‍	-8.48592
▁ന്‍	-8.48755
▁ആയ	-8.48783
▁ോ	-8.49045
▁രംഗത്ത്	-8.49153
ജ്	-8.49343
▁ങ്ങള്‍	-8.49739
▁സംബന്ധിച്ച്	-8.4984
▁22	-8.50156
▁ും	-8.50292
▁ഖ	-8.50302
▁പേരാണ്	-8.50326
▁കൊല്ലം	-8.50379
▁ടെ	-8.50432
ക്കു	-8.50508
▁ഇതില്‍	-8.50597
ിച്ച്	-8.50805
▁പ്രതിസന്ധി	-8.51228
▁ശ്രീ	-8.51338
റിയ	-8.51384
▁വച്ച	-8.51447
▁എക്	-8.5147
▁മരണ	-8.51515
ണമെന്ന്	-8.51558
▁കേസില്‍	-8.51571
▁നിലപാട്	-8.51638
▁യുള്ള	-8.51671
▁21	-8.51758
സ്റ്റ	-8.52021
ക്കാ	-8.52035
▁രാജ	-8.52089
▁അന്ന്	-8.52161
▁നേടിയ	-8.52187
▁െന്ന്	-8.52205
ഫ്	-8.5228
▁രാത്രി	-8.52503
ിക്കുക	-8.52648
▁പറഞ്ഞിരുന്നു	-8.52675
്ര	-8.52679
▁ആശങ്ക	-8.52934
▁7	-8.52968
ട്ട്	-8.53123
▁പരീക്ഷ	-8.53415
▁വിദ്യാഭ്യാസ	-8.53426
▁പ്രകാരം	-8.53784
ുമ്പോൾ	-8.53917
▁രണ്ടു	-8.53972
▁സംഘം	-8.54113
▁നീക്കം	-8.54292
ുണ്ടായ	-8.54319
▁ത്തില	-8.5432
▁ചെയ്തിരുന്നു	-8.54466
▁െന്നും	-8.54494
ുവ	-8.54513
ലാ	-8.54667
▁പറയുന്ന	-8.5473
▁വ്യക്തമാക്കുന്ന	-8.5475
▁തദ്ദേശ	-8.54824
▁എല്‍	-8.54935
ഖ	-8.55028
▁കൊ	-8.55116
▁എല്ലാവര	-8.5514
▁പത്തനംതിട്ട	-8.55169
▁മുൻ	-8.55252
▁കൂടാതെ	-8.55401
▁നമ്മുടെ	-8.55724
ുമെന്നും	-8.55781
▁സമയത്ത്	-8.55897
െത്തിയ	-8.56141
▁പ്രതീക്ഷ	-8.56201
▁തീരുമാന	-8.56276
▁23	-8.56481
▁സ്ത്രീ	-8.56484
▁40	-8.56613
തെന്നും	-8.56815
ക്കാര	-8.56833
▁പോ	-8.56956
ൃ	-8.57014
ൊന്നും	-8.57119
▁ിരുന്ന	-8.57127
െടുത്ത	-8.57168
▁റഷ്യ	-8.57241
▁കേരളത്തിലെ	-8.57384
റ്റി	-8.57568
▁ബാധിച്ച	-8.5764
ുമോ	-8.57679
കളിൽ	-8.57761
▁പെ	-8.58005
▁യുമായി	-8.58063
▁ത്തിന	-8.58211
▁ബന്ധപ്പെട്ട്	-8.58265
▁/	-8.58444
▁പരിപാടി	-8.58662
▁നോ	-8.58826
▁ഇക്കാര്യം	-8.59014
▁ആവശ്യം	-8.59063
▁ഫലം	-8.59163
▁സ്വന്തം	-8.59405
▁ഭാഗമായി	-8.59441
▁ഇന്ന	-8.59459
▁സുരേഷ്	-8.59501
നും	-8.5961
▁വനിത	-8.59784
▁ചാ	-8.59926
▁മാര	-8.59995
▁പേരെ	-8.60022
▁തോടെ	-8.60352
▁ത്തിൽ	-8.60496
▁ലോ	-8.60588
▁യാണെന്ന	-8.60638
െടു	-8.60641
ങ്ങളും	-8.60752
▁കാര	-8.61121
▁താന	-8.61582
▁പര	-8.61851
▁ജോ	-8.61905
▁ചർച്ച	-8.61975
▁ിട്ടില്ല	-8.62134
▁ഷോ	-8.62154
▁സോഷ്യല	-8.62186
▁വികസന	-8.62198
▁രീതിയില	-8.62365
▁തോ	-8.62396
▁ട്ര	-8.625
▁ങ്ങ	-8.62622
▁ഇടുക്കി	-8.62631
▁േ	-8.62646
േറ്റ	-8.62673
▁പേര	-8.6282
ിലാണ്	-8.62875
▁പത്ത	-8.62914
▁ർ	-8.62947
▁മാത്രമേ	-8.63129
മെഡിക്കല്‍	-8.63173
▁മുന്നണി	-8.63196
▁നരേന്ദ്ര	-8.63229
▁പാല	-8.63443
▁ആറ്	-8.63464
▁ഇരു	-8.63634
കളും	-8.6365
▁പോകുന്ന	-8.63667
▁കളുടെ	-8.63904
▁രാജ്യത്തെ	-8.6412
▁ചെയ്യുന്നത്	-8.64143
▁ഓഫ്	-8.64186
▁നല്‍കുന്ന	-8.64195
▁8	-8.64237
▁വന്‍	-8.64562
▁അടി	-8.64598
▁തിന്റെ	-8.64615
▁ണ	-8.64733
▁മേഖല	-8.64799
▁ൻ	-8.64813
▁ഉണ്ട്	-8.6506
▁അറിയിച്ച	-8.65112
▁പ്രതികരണം	-8.65136
▁മലപ്പുറം	-8.65198
▁വൈ	-8.65213
▁ചികിത്സ	-8.65235
ന്റ്	-8.65398
▁മരിച്ച	-8.6547
▁എൻ	-8.65702
▁അടക്കം	-8.65745
▁സംബന്ധിച്ച	-8.65829
▁കേസ	-8.6603
▁ഉയര്‍ന്ന	-8.66116
▁വെച്ച്	-8.66264
▁പേരും	-8.66369
ത്തു	-8.66466
▁പരി	-8.66472
▁അന	-8.66478
▁ഇല്ല	-8.66713
▁യിലും	-8.66785
▁ാല്‍	-8.66809
▁ഇന്നലെ	-8.66832
കാര	-8.67071
വര	-8.67209
▁ലഭിക്കും	-8.67335
▁പോയി	-8.67466
▁ലോക്	-8.67467
▁ചേര്‍ന്ന	-8.67505
▁ക്കാര	-8.67994
വേ	-8.68043
▁രാ	-8.68117
▁നിയമസഭ	-8.6812
▁വിഭാഗം	-8.68285
▁എംപി	-8.6835
▁മാറി	-8.68365
▁ങ്ങളും	-8.68486
▁സമര	-8.6857
▁വിധി	-8.68594
പ്പെട	-8.68699
മോ	-8.6878
▁കടുത്ത	-8.68799
▁െങ്കിലും	-8.68913
▁ആശുപത്രിയില്‍	-8.68928
▁മുന്നോട്ട്	-8.68933
▁ചെറിയ	-8.68961
▁മുഹമ്മദ്	-8.69125
▁ഭൂമി	-8.69337
▁കുമാര്‍	-8.69394
▁തുടർന്ന്	-8.69478
▁വിജയം	-8.69528
▁കളില്‍	-8.69562
ീസ്	-8.69683
ാല	-8.69718
▁കണ്ടെത്തിയ	-8.6989
▁പേര്	-8.69898
▁ചുമതല	-8.69979
▁തായ	-8.70051
▁വാഹന	-8.70195
▁അതേ	-8.70323
▁28	-8.70359
▁െന്ന	-8.70407
▁ശക്തി	-8.70509
▁26	-8.70603
▁മറ്റു	-8.7071
▁ിട്ടുണ്ടെന്ന	-8.7073
ക്കര	-8.70755
ാണെന്നും	-8.70784
▁ങ്ങൾ	-8.70798
ാക്കി	-8.70867
▁കുടുംബ	-8.70893
േക്ക	-8.71133
▁മേ	-8.71243
▁വ്യക്തമാക്കിയ	-8.71268
▁കുറഞ്ഞ	-8.71315
▁മുമ്പ	-8.71423
▁കേരളം	-8.71537
▁ഗ്ര	-8.71623
സ്ഥ	-8.71796
ലെ	-8.71796
▁27	-8.71989
കളെ	-8.72021
▁എന്നത്	-8.72023
▁നിലവ	-8.72268
▁ക്കാ	-8.7235
▁കാര്യ	-8.72512
രാ	-8.72931
▁വോട്ട	-8.73016
▁ഹാ	-8.73019
▁സ്വീകരിക്ക	-8.73021
▁കുറച്ച	-8.73354
ോളം	-8.73382
ിട്ട	-8.73755
▁സോ	-8.73809
ത്തോടെ	-8.73986
▁കൃത്യമായ	-8.74007
▁ബിജെപിയുടെ	-8.74101
▁പോസ്റ്റ	-8.74135
▁താര	-8.74557
ിക്	-8.74865
▁നടത്തിയത്	-8.74896
▁ലാ	-8.75073
▁വൈറസ്	-8.75088
▁!	-8.75181
▁വിരുദ്ധ	-8.75204
▁നീക്ക	-8.75317
,000	-8.75532
▁ഗോ	-8.75769
ിൻ്റെ	-8.75834
▁എന്ത	-8.75926
ുണ്ടായിരുന്ന	-8.76023
▁ലീഗ്	-8.76073
▁രു	-8.76153
▁വീട്ടില്‍	-8.76265
▁മായിരുന്നു	-8.76305
ഹ്	-8.76332
ധികം	-8.7643
▁മൂ	-8.76506
▁ആരോപണം	-8.76552
▁പ്രസ്താവന	-8.76854
മുണ്ട്	-8.76871
t	-8.7694
റാ	-8.77143
ക്കുന്നത്	-8.77475
▁ആവശ്യ	-8.77563
യു	-8.77633
▁തീര	-8.77676
▁യോഗം	-8.77884
▁വിമാന	-8.7789
▁നാണ്	-8.77899
▁പ്രിയങ്ക	-8.7799
▁നേരിട്ട	-8.78031
▁സ്വ	-8.78076
മില്ല	-8.78122
▁പങ്കെടുത്ത	-8.78171
▁തിന	-8.78214
▁ചെയ്യും	-8.78238
▁തീ	-8.78433
▁തൃശൂര്‍	-8.78583
▁ആവശ്യപ്പെട്ടു	-8.78611
▁യുവതി	-8.7866
▁സംഘ	-8.78884
രായ	-8.79047
▁ബോസ്	-8.79125
▁തുടങ്ങി	-8.79129
▁എന്നതാണ്	-8.79234
▁ബെ	-8.79281
▁പദവി	-8.79402
'	-8.79437
ിത	-8.79468
▁യിലേക്ക്	-8.7958
e	-8.79662
▁എന്നായിരുന്നു	-8.79865
▁എല്ലാം	-8.79899
▁കിട്ടിയ	-8.80143
▁രി	-8.80356
▁പണി	-8.80423
▁ഇവ	-8.80446
▁യുഎഇ	-8.80629
ിനു	-8.80632
▁മാണി	-8.80655
ത്തിനായി	-8.80668
▁ജില്ല	-8.80692
▁ചെന്നിത്തല	-8.80706
▁വിട	-8.8073
ായിരുന്ന	-8.80824
▁വിവാദ	-8.80933
▁തുറന്ന	-8.81209
▁അംഗ	-8.81212
▁ആരംഭിച്ച	-8.81274
ുകള	-8.81341
▁ക്കായി	-8.8135
നം	-8.81457
▁കൊടുത്ത	-8.81516
▁എന്ത്	-8.81664
▁പിടി	-8.81692
▁ണ്ട	-8.82126
ലോ	-8.82225
ുള്ളത്	-8.82228
ോടൊപ്പം	-8.82249
സ്റ്റ്	-8.82305
രുത്	-8.82449
▁മുന്നില്‍	-8.82679
▁പ്രദേശ	-8.82687
▁അല	-8.82752
▁വിവാഹ	-8.82787
ുമായ	-8.82968
▁വീണ	-8.82996
▁ജാ	-8.83005
▁എത്ര	-8.83037
▁മാറിയ	-8.83085
ീയ	-8.83189
▁തില്‍	-8.83265
▁ശ്രദ്ധ	-8.83356
▁എംഎല്‍എ	-8.83375
▁1,	-8.83451
▁ക്കുള്ള	-8.8362
▁തുക	-8.83714
ണ്ണ	-8.83809
▁പ്രവര്‍ത്തനങ്ങള	-8.84119
▁യ്	-8.84152
▁മത്സരിച്ച	-8.84201
▁ഒറ്റ	-8.8421
▁തിരഞ്ഞെടുപ്പ	-8.84276
▁യായി	-8.84314
▁ഇതേ	-8.84326
▁വയനാട്	-8.84365
▁വിദേശ	-8.844
▁സഹ	-8.84404
▁മത്സര	-8.84405
▁സര്‍ക്കാര	-8.84428
▁മെഡിക്ക	-8.84504
▁മുസ്ലിം	-8.84526
▁എങ്ങനെ	-8.84573
▁കഴിയുന്ന	-8.84704
▁നിലപാട	-8.84812
▁അമിത്	-8.84821
▁തിനെ	-8.84851
▁ഇതിന്റെ	-8.84895
000	-8.84983
ബ്	-8.85047
▁സമ്പർക്കം	-8.85179
ാറ	-8.85199
▁സിന്‍	-8.85295
▁ചേർന്ന	-8.85364
▁ഞങ്ങള്‍	-8.85428
▁ലും	-8.85462
രം	-8.85474
▁പഞ്ചായത്ത്	-8.8553
▁അനു	-8.85595
ിനോട്	-8.85636
▁31	-8.85717
▁ടോ	-8.85718
▁ആഭ്യന്തര	-8.85833
▁അക്രമ	-8.85855
▁സീറ്റ	-8.85889
▁പ്രവര്‍ത്തകര്‍	-8.85903
മാർ	-8.86011
i	-8.86112
വെ	-8.86129
▁200	-8.86176
▁കേന്ദ്രം	-8.86283
▁മീഡിയ	-8.86402
▁മുംബൈ	-8.86427
▁വന്നു	-8.86537
▁മൊഴി	-8.86709
▁എന്നെ	-8.86988
▁കുഞ്ഞ	-8.87145
▁കേസുകള	-8.87216
▁35	-8.8726
ിച്ചു	-8.87274
▁പരിശോധിച്ച	-8.87303
ങ്ങളിൽ	-8.87306
കം	-8.87477
▁വർഷം	-8.87764
യിലാണ്	-8.87815
▁കോൺഗ്രസ	-8.87821
▁വേണ്ട	-8.87888
▁ഉന്നയിച്ച	-8.87921
▁മാധ്യമ	-8.87939
▁ജനറല	-8.87944
▁ദിന	-8.87957
▁നേതൃത്വത്ത	-8.8812
▁സ്വീകരിച്ച	-8.88142
▁പലര	-8.88181
▁കാലത്ത്	-8.88202
▁നമുക്ക	-8.88212
▁പ്പോള്‍	-8.88496
▁നേതാക്കൾ	-8.88695
▁പോലീസ	-8.88721
ക്ട	-8.88741
▁60	-8.88926
▁മറ	-8.88929
▁സ്റ്റ	-8.8901
▁ല്ല	-8.89049
▁ഒരിക്കല	-8.89142
▁ഉള്ളത്	-8.89221
▁നായ	-8.89287
▁കളാണ്	-8.89314
▁തോമസ്	-8.89327
▁ചെയ്യാന്‍	-8.89334
▁വുമായി	-8.89357
▁ഉയർന്ന	-8.89377
▁സ്റ്റേഷന	-8.8938
▁ജനാധിപത്യ	-8.8947
▁കേട്ട	-8.8948
▁വന്നത്	-8.89494
▁ഗോപി	-8.89519
ാണെന്ന്	-8.89539
▁റാ	-8.89713
▁കൂടെ	-8.89726
▁തിരിച്ചു	-8.89972
▁സ്ഥിതി	-8.89998
▁ബാല	-8.90091
▁കളി	-8.90258
▁തമിഴ്	-8.90261
പ്പു	-8.90326
▁സ്ഥിരീകരിച്ചത്	-8.90409
▁താരം	-8.90415
▁ചിത്രം	-8.90451
▁നടന്നത്	-8.90455
▁ക്കണമെന്ന	-8.90545
▁സൂര്യ	-8.90639
ഴി	-8.9075
ാര	-8.90753
ോടെ	-8.90826
▁അവരെ	-8.91098
▁29	-8.91114
▁കളെ	-8.91344
▁ചോദിച്ച	-8.91452
▁തരത്തില	-8.91506
▁യായ	-8.91542
▁അവസ്ഥ	-8.91564
▁താണെന്ന	-8.91592
▁മലയാള	-8.91648
▁അപകട	-8.91751
▁അര	-8.9179
▁അനുവദിച്ച	-8.92033
▁ശ്രമിച്ച	-8.9208
▁നിരക്ക്	-8.92112
റില്‍	-8.92175
▁ലഭിച്ചത്	-8.92205
െങ്കില്‍	-8.92208
▁തമ്മില	-8.92209
▁ഇപ്പോഴും	-8.92291
▁വകുപ്പ	-8.92353
സാ	-8.92372
▁പൂ	-8.92378
▁കേരളത്തിൽ	-8.92584
▁കൊണ്ടു	-8.92789
▁ത്തിനും	-8.92827
▁ഫാ	-8.92888
▁സ്ഥാനാർത്ഥി	-8.92926
▁പെണ്‍കുട്ടി	-8.93071
ായിരിക്കും	-8.93115
▁ജാഗ്രത	-8.93139
▁സര്‍ക്കാരിന്റെ	-8.93154
▁ലക്ഷ	-8.93236
▁കോണ്‍ഗ്രസിന്	-8.93362
വരുടെ	-8.93448
▁പറഞ്ഞ്	-8.93504
▁സാധാരണ	-8.93522
▁രാജ്യ	-8.93528
തും	-8.93672
▁സ്വയം	-8.9386
ിരുന്നത്	-8.93886
▁അറിയ	-8.93889
▁നേടി	-8.939
▁ജോസ്	-8.93915
കള്‍ക്ക്	-8.9401
▁സമയ	-8.94027
▁കൊണ്ടാണ്	-8.94043
ള്ള	-8.9405
▁രജിസ്റ്റ	-8.94068
▁ലീഗ	-8.94103
▁നിന്നാണ്	-8.9411
▁അനുകൂല	-8.94161
▁നേരെ	-8.94261
▁നഗര	-8.94289
▁പ്രവര്‍ത്തിക്ക	-8.94306
െന്ന	-8.94372
▁താഴെ	-8.94493
കളില്‍	-8.94593
▁ടു	-8.94639
▁ിട്ട	-8.94772
▁മാസ	-8.94856
▁ഞങ്ങൾ	-8.94911
കോ	-8.95114
▁ഉണ്ടാക	-8.9512
▁വീ	-8.95145
▁എൽ	-8.95218
▁ബ്ര	-8.95366
ോള	-8.95434
▁വിജയിച്ച	-8.95524
▁ഭാ	-8.95587
▁നൽകി	-8.95652
a	-8.9583
▁വിളിച്ച	-8.95841
▁പുറത്തു	-8.96095
ങ്ങള	-8.96098
ിരിക്കുന്ന	-8.96103
▁കോണ്‍ഗ്രസിന്റെ	-8.96133
▁സഭാ	-8.96192
▁വ്യാജ	-8.96314
▁കുറിച്ച	-8.96371
▁മമത	-8.96447
▁മെയ്	-8.96535
▁കൊടുക്ക	-8.96681
▁തര	-8.96729
ക്കോ	-8.96747
▁ഭീഷണി	-8.96769
▁ക്ഷേത്ര	-8.96939
ക്കാനുള്ള	-8.97058
▁ഇരുവര	-8.97256
▁ഉന്നത	-8.97266
▁നല്‍കിയത്	-8.97272
▁ധ	-8.97351
▁നികുതി	-8.97367
▁സാഹചര്യ	-8.97393
▁സ്ഥാപന	-8.97422
പ്പെടുന്ന	-8.9776
▁പോസ്റ്റ്	-8.97768
▁നാളെ	-8.97831
▁ഉറപ്പ	-8.97833
▁നേരിട്ട്	-8.97843
▁ഔദ്യോഗിക	-8.97899
▁സഭ	-8.9797
▁സുപ്രീം	-8.98004
▁നു	-8.98054
▁രംഗത്തെത്തിയ	-8.98286
▁സാധിക്കും	-8.9829
▁ഇവരെ	-8.98421
െത്തി	-8.98516
▁മെന്റ്	-8.98532
ട്ര	-8.98571
▁ക്കാന്‍	-8.9858
▁വയസ്സ	-8.98586
▁തീരുമാനിച്ച	-8.98752
▁നാട	-8.98884
ില്ലെന്ന്	-8.98895
▁സം	-8.98899
▁യെന്ന്	-8.98932
▁യോഗ	-8.98988
▁വിട്ടു	-8.99029
▁കടന്ന	-8.99101
േണ്ടി	-8.99168
▁മര	-8.99172
▁വേണം	-8.99207
▁വരുടെ	-8.99224
o	-8.99284
▁ചിത്ര	-8.99287
റ്	-8.99314
യോടെ	-8.99321
▁എടുക്ക	-8.99335
െയും	-8.9939
ങ്	-8.99391
▁ആക	-8.99492
ഭരണ	-8.9952
▁യുഡിഎഫ	-8.99538
▁ചെറു	-8.99564
▁സേന	-8.99604
▁ചാണ്ടി	-8.99623
▁ക്ര	-8.99656
▁തിരിച്ചടി	-8.99703
▁ഏഴ്	-8.99741
▁കണ്ണൂർ	-8.99742
▁ക്കൊപ്പം	-8.99761
▁2019	-8.99825
േഷ്	-8.99827
▁ലക്ഷ്യം	-8.99898
▁ജീവിത	-8.99904
▁പിസി	-8.99914
▁മൂന്നാം	-8.99965
ിപ്പി	-9.00113
ിക്കാന്‍	-9.00117
▁45	-9.00136
▁കാണാന	-9.00219
▁തെ	-9.00266
▁ലഭിക്കുന്ന	-9.00361
▁ഏക	-9.00436
▁രൂപയാണ്	-9.005
▁പേ	-9.00518
▁പട	-9.00591
▁കാര്യങ്ങള	-9.00611
▁അയച്ച	-9.00718
▁കല	-9.00796
▁യോഗ്യത	-9.00855
▁ഇയാള്‍	-9.00865
▁ജോസഫ്	-9.00889
▁വര്‍ക്ക്	-9.00906
ിട്ട്	-9.00961
െങ്കിൽ	-9.01041
▁കണ്ണ	-9.01041
▁ക്കുന്ന	-9.01151
▁സ്ഥാനം	-9.01192
▁അയ	-9.01228
▁രാഹുൽ	-9.0124
ുമെന്ന	-9.0144
▁കേസിൽ	-9.01488
▁പ്രചാരണ	-9.01525
▁പൊ	-9.0158
▁ബിജെപിക്ക്	-9.01592
▁നിര	-9.01651
00	-9.01681
ക്കണം	-9.01748
▁പകരം	-9.02114
▁വരുന്നത്	-9.02211
▁ിട്ടില്ലെന്ന	-9.02376
▁മാറ്റം	-9.02391
▁കൃഷ്ണ	-9.02453
▁മഹാ	-9.02508
▁മുള്ള	-9.0285
▁നില്‍ക്ക	-9.02931
▁പേരില്‍	-9.0313
▁ഫല	-9.03236
ാർ	-9.03267
▁സമ	-9.03354
▁കേസില	-9.03436
രോ	-9.03452
കാല	-9.03602
▁ഗ്രാമ	-9.03737
▁ഒന്നാം	-9.03753
▁ലഭിക്ക	-9.038
▁പ്രതിഷേധം	-9.03979
▁ഇവർ	-9.03995
▁മതി	-9.04077
▁ചികിത്സയില	-9.0413
▁ിട്ടുള്ളത്	-9.04272
▁ുണ്ടെന്ന	-9.04326
▁സംസ്ഥാനത്ത	-9.04386
▁ആരോപിച്ചു	-9.04477
▁പിടിച്ച	-9.04539
നാണ്	-9.04567
▁എത്തിയത്	-9.04583
▁നൽകുന്ന	-9.04599
▁ചെയ്യാന	-9.04618
▁നിന്നു	-9.04637
ക്ര	-9.04652
▁സംശയ	-9.04691
▁വെള്ള	-9.04712
ദി	-9.04729
▁തിരുവനന്തപുരത്ത	-9.04913
▁രണ്ട	-9.04958
▁പുറത്ത	-9.05075
▁ജൂണ	-9.05081
▁രാജി	-9.05186
▁കനത്ത	-9.05193
▁ക്കാണ്	-9.05208
▁ഫി	-9.05306
▁ശ്രമം	-9.05379
▁അടിസ്ഥാനത്തില	-9.05461
എഫ്	-9.055
▁കാണിച്ച	-9.05551
▁പട്ടിക	-9.05638
▁വിവരങ്ങള്‍	-9.0579
▁മുസ്ലീം	-9.05837
▁യിലാണ്	-9.05884
▁രമേശ്	-9.05982
▁മുന്നറിയിപ്പ്	-9.06102
▁വെല്ലുവിളി	-9.0614
▁ബന്ധം	-9.06195
വില	-9.06301
ില്ലെന്ന	-9.06389
▁മേഖലയില്‍	-9.06403
▁സമൂഹ	-9.06411
ഷന്‍	-9.06458
▁തിരഞ്ഞെടുപ്പിൽ	-9.06465
ത്തിലേക്ക്	-9.06472
▁മണ്ഡലം	-9.06483
▁എട്ട്	-9.06497
▁ബോ	-9.06518
ആര്‍	-9.06585
▁വീതം	-9.06646
▁രീതി	-9.06687
ഹി	-9.06783
▁വര്‍ഷ	-9.06809
▁വീട	-9.0682
ീന	-9.06849
തെന്ന്	-9.06986
▁അധികാര	-9.07166
▁നിയമം	-9.07168
ഷ്യ	-9.07236
▁നടക്കുന്നത്	-9.07255
▁കൂട	-9.07414
▁അവസരം	-9.07453
▁അധ്യക്ഷന്‍	-9.075
▁മലയാളി	-9.0754
▁സർക്കാര	-9.07593
▁കൂടിയാണ്	-9.07786
▁സോണിയ	-9.07867
▁ദുരന്ത	-9.0793
▁മാര്‍ച്ച	-9.07955
▁നല്‍കാന	-9.08028
▁ആഘോഷ	-9.0804
▁അധ്യക്ഷ	-9.08047
▁ഒരുപാട	-9.08051
▁ദേവ	-9.08145
▁ഏത്	-9.08258
ത്തോളം	-9.0827
▁പ്രതീക്ഷിക്ക	-9.08275
▁ഗ്രൂപ്പ	-9.08315
▁ചോദിച്ചു	-9.08375
▁ഇത്രയ	-9.08391
▁പൊലീസ	-9.08499
ിരുന്നില്ല	-9.08525
▁യ്ക്ക	-9.0854
▁തെറ്റ	-9.08547
▁നേതാക്കള	-9.08555
▁യോട്	-9.08595
ങ്ങി	-9.08635
▁ങ്ങളുടെ	-9.08695
▁പള്ളി	-9.08719
യം	-9.08771
▁യോഗത്തില്‍	-9.08832
ാണോ	-9.0889
▁കേ	-9.08973
ശ്	-9.09002
▁താൻ	-9.09035
▁വിതരണം	-9.09055
▁െന്നാണ്	-9.09164
▁കോണ്‍ഗ്രസില	-9.092
ാവുന്ന	-9.09207
ദ്ധ	-9.09256
▁ആള	-9.093
▁100	-9.09319
േരി	-9.0932
▁സന്തോഷ	-9.09326
▁കേസെടുത്ത	-9.09488
▁മാറ	-9.09493
▁നിങ്ങളുട	-9.09775
▁മുറി	-9.0982
▁സമരം	-9.10021
▁സാഹചര്യം	-9.10047
▁എന്താണ്	-9.10167
▁മേഖലയില	-9.10181
▁നടത്താന	-9.10244
▁ശേഷമ	-9.1031
ന്‍സ്	-9.10338
▁വര്‍ഷത്ത	-9.10371
▁നയ	-9.10383
▁നീ	-9.10387
▁കൂടിയ	-9.1041
▁വിഭാഗ	-9.10428
▁കുമാറ	-9.10486
▁മരണം	-9.10514
▁ശ്രമ	-9.10724
▁തിനു	-9.10743
▁അഴിമതി	-9.10777
▁ഹൗസ	-9.1078
▁കണ്ടെത്ത	-9.10838
▁അനുഭവ	-9.10977
▁ക്ല	-9.10979
▁വരാണ്	-9.10985
▁റിയ	-9.11103
ജെ	-9.11103
▁യാതൊരു	-9.1126
കു	-9.11371
▁ശേഷമാണ	-9.11372
ഫി	-9.11417
▁വിഷയ	-9.11467
▁ഫ്	-9.11502
▁ശിക്ഷ	-9.11514
▁വീട്	-9.11604
നു	-9.11624
ല്ലോ	-9.11638
▁ഫേസ്ബുക്ക്	-9.11821
▁ജനുവരി	-9.11867
▁ചെയ്	-9.11872
▁അന്ന	-9.11935
▁കണക്ക	-9.11968
▁കോട്ട	-9.11982
▁സംഭവിച്ച	-9.12091
▁എന്നത	-9.12094
▁അടക്കമുള്ള	-9.12159
▁പ്പെട	-9.12231
യ്യ	-9.12269
▁സ്വപ്ന	-9.12286
▁തിനാല്‍	-9.12465
▁പിഴ	-9.12511
▁അല്ല	-9.12733
▁32	-9.12779
▁ദിവസ	-9.12813
▁എത്ത	-9.12849
▁ക്കുക	-9.12946
▁തല്ല	-9.1298
▁ത്തിലെ	-9.13037
▁ബാധ	-9.13054
▁പ്രസിഡന്റ	-9.13062
▁2021	-9.13094
▁ചെയ്തിട്ടുണ്ട്	-9.131
▁സാധിച്ച	-9.13163
▁മണിക്കൂറ	-9.13171
▁വെറു	-9.1321
▁ജനറ	-9.13226
▁സിപിഎമ്മ	-9.13275
▁മണ്ഡലത്തില്‍	-9.1345
▁ിട്ടുള്ള	-9.13739
▁ഇനിയ	-9.13759
▁പിന്നെ	-9.13848
▁നടത്തുന്നത്	-9.13856
▁കോടതിയില്‍	-9.13882
▁നടക്ക	-9.14065
ുമെന്നാണ്	-9.1416
▁കളില	-9.14181
ട്ടെ	-9.14243
▁രാജ്	-9.14304
▁ദിലീപ്	-9.14419
▁ങ്ങളെ	-9.14474
▁തന്ത്ര	-9.1451
ോട	-9.14555
▁പെൺകുട്ടി	-9.14585
▁കണ്ടു	-9.1463
▁അനുവദിക്ക	-9.14686
▁മല്ല	-9.1478
▁സാഹചര്യത്ത	-9.14786
▁മുഴുവന്‍	-9.14795
മെന്റ്	-9.14805
▁വിവാഹം	-9.14938
▁കഴിഞ്ഞു	-9.14946
▁ഡെ	-9.14977
▁പരിഗണിക്ക	-9.15101
▁നീതി	-9.15119
▁എന്നിവിടങ്ങളില	-9.15148
▁യൂത്ത	-9.15397
▁അസ	-9.15429
▁സിപിഐ	-9.15466
▁ചൂണ്ടിക്കാട്ടി	-9.15557
േഷ	-9.1556
▁സ്ഥിരീകരിച്ചു	-9.15585
▁ശോഭ	-9.15592
▁റോ	-9.15595
ങ്ങളില്‍	-9.15728
▁മെന്ന്	-9.1574
▁ിരുന്നത്	-9.15741
▁കാരണ	-9.15751
▁എതിരെ	-9.15828
▁മേധാവി	-9.15846
▁വിസ	-9.15867
▁ഞാന	-9.15904
▁ആരോപണ	-9.15953
െന്നാണ്	-9.16
▁കാര്യത്തില്‍	-9.16004
▁യുഎസ്	-9.1608
▁പരിശോധിക്ക	-9.16088
▁ലോട്ടറി	-9.161
▁സ്വാതന്ത്ര്യ	-9.1611
മല്ല	-9.16184
▁ഇര	-9.16192
▁നേരിടുന്ന	-9.16316
ട്ടു	-9.16383
▁നടത്ത	-9.16406
യ്ക്ക	-9.16417
▁ഡോസ്	-9.16424
▁ഹൈ	-9.16444
▁കാണുന്ന	-9.16479
▁80	-9.16495
▁പശ്ചാത്തലത്തില	-9.1651
ദ്ര	-9.16525
▁റിപ്പോര്‍ട്ടുകള	-9.16536
ാകും	-9.16557
▁നിങ്ങള്‍	-9.16574
▁കാറ	-9.16609
▁വിവര	-9.16626
▁ഭയ	-9.1665
▁കാര്യങ്ങൾ	-9.16654
▁ഉപ	-9.16665
▁നല്‍ക	-9.16829
▁എന്നിവര്‍	-9.17093
പരമായ	-9.17124
▁ഉണ്ടായിരുന്നു	-9.17161
▁കൊലപാതക	-9.172
▁ചടങ്ങ	-9.17245
▁റോഡ്	-9.17311
▁മെന്ന	-9.17328
%	-9.17357
▁അതി	-9.17369
▁മുതല	-9.17409
▁വർക്ക്	-9.17478
ക്കേണ്ട	-9.17505
▁കാര്‍	-9.1763
രെ	-9.17633
▁മുണ്ട്	-9.17654
മന	-9.17762
▁അവകാശ	-9.17781
▁നിക്ഷേപ	-9.178
ാദ	-9.1788
▁ചീഫ്	-9.17904
▁ആഗ്രഹിക്കുന്ന	-9.17922
▁വിഷയത്തില	-9.17952
▁പുറത്തുവന്ന	-9.18025
▁പങ്കെടുക്ക	-9.18053
▁വർഷ	-9.18112
▁അടിച്ച	-9.18116
▁ചെലവ	-9.18123
▁മകന	-9.18145
▁പ്രാദേശിക	-9.18155
▁പാട	-9.18273
േഴ്	-9.18341
▁പ്പോൾ	-9.18342
യര്‍	-9.18414
▁ഒന്ന്	-9.18422
▁നിങ്ങൾ	-9.18451
മേ	-9.18509
▁അഭിപ്രായ	-9.18548
▁മാര്‍	-9.18581
▁ചെയ്യുന്നു	-9.18659
▁ഇന്‍	-9.18764
▁സിംഗ	-9.18832
▁േക്കും	-9.18984
▁ചേര	-9.19161
▁ഇൻ	-9.19162
▁സംഭവത്തില്‍	-9.19181
▁നേതൃത്വത്തില	-9.19199
s	-9.1921
▁നിര്‍ദേശം	-9.19279
▁കഴിയ	-9.19319
ശി	-9.19371
▁ഒപ്പം	-9.19376
▁സഹായം	-9.19452
▁സ്വതന്ത്ര	-9.19461
▁രാശി	-9.19469
പാ	-9.19506
▁ചി	-9.19526
▁പ്രമുഖ	-9.19613
▁രോഗികള	-9.19729
▁പറ	-9.19742
▁ങ്ങളില്‍	-9.19818
▁കെപിസിസി	-9.19857
▁തിരെ	-9.19963
▁ള്ള	-9.20025
ാപ	-9.20069
▁മാന	-9.20091
▁മുന്നില	-9.20205
▁ആക്രമണ	-9.2024
▁സൈനിക	-9.20245
▁രാജ്യങ്ങള	-9.20281
▁നേര	-9.20411
▁ക്കാൻ	-9.20489
▁സംസാരിക്ക	-9.20503
▁തള്ളി	-9.20505
▁നടപടികള്‍	-9.20557
▁വിജയ്	-9.20583
ക്കാട്	-9.20626
▁ഫോണ്‍	-9.20887
▁സീറ്റുകള്‍	-9.20961
ത്തിലെ	-9.20994
▁പെട്ട	-9.21077
ഗ്ര	-9.21079
▁ഗ്രൂപ്പ്	-9.21183
▁ബാബു	-9.21208
▁ഒഴിവ	-9.21345
▁ില്ലെന്ന്	-9.21354
▁ചോ	-9.21372
▁മാണെന്നും	-9.21394
▁രേഖപ്പെടുത്തിയ	-9.21414
ാനി	-9.21472
ൂരി	-9.2158
▁മല	-9.21643
▁ജില്ലയിൽ	-9.21644
▁തുടര	-9.21709
▁മൂന്ന	-9.21724
▁പഴയ	-9.21767
▁ഓഫീസ	-9.21807
ുമുള്ള	-9.2184
▁ജൂലൈ	-9.21857
▁കെട്ടിട	-9.21938
▁യുവ	-9.22012
▁നേതൃത്വത്തില്‍	-9.22026
ുമ്പോഴ	-9.22044
▁സ്ഥിര	-9.22077
▁സഹായ	-9.22089
▁കുറ	-9.22231
▁മാണെന്ന്	-9.22258
▁നിരീക്ഷണത്തില	-9.22304
▁അടിയന്തര	-9.22397
▁സത്യ	-9.22465
യത്	-9.22527
▁മനുഷ്യ	-9.22604
▁ചരിത്ര	-9.22723
കുന്ന	-9.22861
▁സംവിധാന	-9.22869
▁വൈക	-9.22958
▁ഇന്ത്യയില്‍	-9.2297
▁ബാങ്ക്	-9.22973
/	-9.22993
േഷന്‍	-9.23027
ില്ലാത്ത	-9.23059
▁തുടരുന്ന	-9.23118
▁വാര്‍ത്ത	-9.23128
▁അറിഞ്ഞ	-9.232
▁അതിനിടെ	-9.23235
▁കൂ	-9.23299
▁ിരിക്ക	-9.23335
▁വേഗ	-9.23357
▁തിരികെ	-9.23363
മായിരുന്നു	-9.23404
ിപ്പിച്ച	-9.23435
ധി	-9.23499
‍	-9.23513
▁അട	-9.23536
▁കൊല്ലപ്പെട്ട	-9.2355
▁തേ	-9.23559
ത്വ	-9.23692
▁റേ	-9.23693
▁സംസാരിച്ച	-9.23757
▁നിലയില്‍	-9.23768
ഷി	-9.23935
▁ത്തിലും	-9.24064
കളായ	-9.24196
ിപ്പ	-9.24237
▁ജനങ്ങള്‍	-9.24258
▁കേസുകള്‍	-9.24281
ാണ	-9.24337
▁ഭരണം	-9.24548
▁ജൂ	-9.24561
▁വര്‍ക്ക	-9.24599
▁വാദം	-9.24704
▁നിര്‍	-9.2476
▁ഇന്ത്യയിലെ	-9.24813
▁യല്ല	-9.24891
▁കല്ല	-9.24897
▁കോളേജ്	-9.24944
▁അദ്ദേഹത്തിന്	-9.24961
▁ലാണ്	-9.24984
▁ആവശ്യമായ	-9.24985
▁യിലേക്ക	-9.25027
▁കാലാവസ്ഥ	-9.25046
▁വാങ്ങ	-9.25052
▁തെരഞ്ഞെടുപ്പ്	-9.25075
▁ഫെബ്രുവരി	-9.25142
▁പരസ്യ	-9.25215
▁ഉള്‍പ്പെടെ	-9.25224
▁37	-9.25267
▁നേതാവ	-9.25272
▁ചെന്നൈ	-9.25306
▁ചെയ്യാൻ	-9.25445
▁രാജ്യം	-9.25529
▁36	-9.25538
▁മൃതദേഹം	-9.25557
▁കരി	-9.2557
▁ഇതിനിടെ	-9.25572
▁ാൽ	-9.25622
▁2,	-9.25635
▁അടിസ്ഥാന	-9.25652
▁ഉൾപ്പെടെ	-9.25783
▁ട്രെയിന	-9.25791
▁ബാങ്ക	-9.2583
▁സിറ്റി	-9.26029
▁പന്ത	-9.26049
▁വോട്ടുകള്‍	-9.26101
▁ഭാരത	-9.26104
▁33	-9.26235
▁ബുദ്ധിമുട്ട	-9.26258
▁എച്ച്	-9.26314
▁മില്ല	-9.26352
▁വിചാരണ	-9.26414
▁പേരിൽ	-9.26464
ഇ	-9.26484
▁മത്സരിക്ക	-9.26559
▁സംവിധാനം	-9.26668
േക്കും	-9.26712
േഷൻ	-9.2681
▁കുറിച്ചു	-9.26823
▁കള്ള	-9.26835
▁ഇടതുപക്ഷ	-9.26891
യായിരുന്നു	-9.26898
▁ുള്ള	-9.26919
▁യാത്രക്കാര	-9.26921
▁മനസ്സ	-9.27098
▁സാമൂഹിക	-9.2711
▁പുതു	-9.27124
▁ചിന്ത	-9.27258
▁ുവെന്ന്	-9.27312
ിട്ടും	-9.27317
▁ജോര്‍ജ്	-9.27318
▁പോര	-9.27361
▁യാണെന്ന്	-9.27396
▁70	-9.27598
സിസി	-9.27635
▁ബസ്	-9.27666
▁യ്ക്കും	-9.2767
▁കാഴ്ച	-9.27777
▁ദിവസത്ത	-9.27807
▁ങ്ങളില	-9.27815
▁കൂടിക്കാഴ്ച	-9.27822
▁ഡല്‍ഹി	-9.27942
▁ത്തിലാണ്	-9.27962
▁തെളിവ	-9.27984
▁നേതാക്കളെ	-9.28032
▁ഹിന്ദു	-9.2811
▁വാങ്ങിയ	-9.28148
▁ബോധ	-9.28223
▁തിൽ	-9.28243
▁സഹകരണ	-9.28258
▁ആക്രമണം	-9.28389
▁ടീമ	-9.28407
▁കുറ്റ	-9.28414
▁നാല	-9.28528
▁പേര്‍ക്ക	-9.2863
▁മുഖ	-9.28655
തല	-9.28712
▁വിശ്വാസ	-9.28714
▁എത്തുന്ന	-9.28716
▁വീട്ടിൽ	-9.28765
▁വിമാനത്താവള	-9.28848
വിന്റെ	-9.28851
▁കയറി	-9.28886
▁സ്ഥാന	-9.29047
▁ആരോപിച്ച	-9.29052
▁ഡൽഹി	-9.29117
ര്യ	-9.29224
▁പ്രവര്‍ത്തന	-9.29267
▁ദിലീപ	-9.29445
▁ടിക്കറ്റ്	-9.29481
▁ക്യാമ്പ	-9.29553
▁ആളുകള്‍	-9.29589
റെ	-9.29597
ദ്ദ	-9.29689
▁ജല	-9.297
▁അധിക	-9.29776
യോട്	-9.29806
▁സ്ഥാനത്ത	-9.29808
▁ഉണ്ടായിരുന്ന	-9.29822
▁ക്കേണ്ട	-9.29867
▁നീണ്ട	-9.29913
▁തിരഞ്ഞെടുക്ക	-9.29928
▁മുണ്ടായ	-9.29995
▁55	-9.30007
▁ില	-9.301
▁ജീവിതം	-9.30281
ിക്കാൻ	-9.30317
▁കോണ്‍ഗ്രസ	-9.30327
▁നില്‍ക്കുന്ന	-9.30343
▁ഉദ്യോഗസ്ഥര്‍	-9.30363
▁ഇടപെട	-9.30395
▁സ്പ	-9.30511
▁സമീപ	-9.30729
▁ഹര്‍ജി	-9.3078
▁മാറ്റിയ	-9.30909
▁കുറിപ്പ	-9.30963
▁ിരിക്കുന്ന	-9.31032
▁പേര്‍ക്കും	-9.31119
▁ലോക്സഭ	-9.31171
▁ചാനല	-9.31199
▁ജയിച്ച	-9.31221
▁അധികം	-9.31226
▁പരാജയ	-9.31266
▁പ്രതികരിച്ച	-9.31267
▁ഉമ്മന്‍	-9.31286
▁വിഷയം	-9.31286
▁സജീവ	-9.31423
ക്കുമെന്ന	-9.31428
▁ങ്ങളാണ്	-9.31433
▁ഫോട്ടോ	-9.31462
▁അംഗീകരിക്ക	-9.31464
ര്‍ത്ത	-9.31589
വര്‍ക്ക്	-9.31627
റോ	-9.31709
▁പങ്കുവെച്ച	-9.31735
ടക്കം	-9.31777
▁ഉയര	-9.31831
▁48	-9.31856
▁ശ്രമിക്കുന്ന	-9.3187
▁ചേ	-9.31902
▁എത്തിച്ച	-9.31935
ിട്ടുള്ളത്	-9.31996
▁34	-9.32047
▁മൂലം	-9.32214
ാള	-9.32315
▁ധാരണ	-9.32355
▁2020	-9.32386
▁പക്ഷെ	-9.32468
▁സ്വാധീന	-9.32478
▁ഒരാള	-9.32519
▁ധന	-9.32528
▁ണ്	-9.32659
▁അല്‍	-9.32667
▁ത്തിലേക്ക്	-9.32688
▁പ്	-9.32717
▁കളിലും	-9.32719
▁75	-9.32768
▁2016	-9.32805
▁ജാമ്യം	-9.3281
▁കോള	-9.32835
▁തമ്മില്‍	-9.3292
▁സ്വർണ	-9.32928
▁ദി	-9.3297
▁രംഗത്ത	-9.33002
▁ഡിസംബ	-9.33005
ടു	-9.33041
▁ക്കുമെന്ന	-9.33044
▁പരിക്കേറ്റ	-9.33106
▁അറിയിക്ക	-9.33232
▁മനസ്സിലാ	-9.33301
▁മീഡിയയില	-9.33353
▁വർഷത്ത	-9.33381
▁ിരുന്നില്ല	-9.33451
▁പേരുടെ	-9.33493
▁പ്രതികരിച്ചു	-9.33526
▁ഏതെങ്കിലു	-9.33561
▁പോകുന്നത്	-9.33716
▁അധികൃതര്‍	-9.33742
▁തടയ	-9.33831
▁ിരുന്നുവെന്ന	-9.33859
▁എല്‍ഡിഎഫ	-9.33884
ഷൻ	-9.33962
തിനെ	-9.33997
▁എവിടെ	-9.34015
▁ഉണ്ടാകും	-9.3414
▁പുര	-9.34152
▁നങ്ങള്‍	-9.34202
▁മരിച്ചത്	-9.34288
▁നവംബ	-9.34332
▁സുരേന്ദ്രന്‍	-9.34361
▁‍	-9.34403
▁),	-9.34431
▁പത്ര	-9.34478
▁കുമാർ	-9.34602
ജന	-9.34605
▁ത്തിനു	-9.34665
▁കാലം	-9.34677
ടുത്ത	-9.34698
▁ഇതു	-9.3472
ച്ചി	-9.3479
▁ിട്ടും	-9.34794
തിനുള്ള	-9.34848
▁അവസര	-9.34924
▁റിപ്പോർട്ട	-9.35008
▁മാധ്യമങ്ങള	-9.35278
ാട	-9.35346
ഹാ	-9.35371
▁പെട്ടെന്ന	-9.35497
▁ചെയ്യുകയ	-9.35541
▁43	-9.35648
▁90	-9.35658
▁കോളേജ	-9.3572
ംബ	-9.35816
▁മുതിര്‍	-9.35857
▁മണ്ണ	-9.35859
▁റിപ്പോര്‍ട്ട	-9.35884
നാട്	-9.35931
▁പേർക്ക്	-9.35974
▁ഇഷ്ട	-9.36151
▁കർണാടക	-9.36167
▁രഹസ്യ	-9.36167
▁കൃഷി	-9.36168
മല	-9.36175
▁മുഴുവ	-9.36224
▁നേ	-9.36375
▁യുമായ	-9.36402
▁ണ്ടാ	-9.36419
▁മീ	-9.3651
▁കാലത്ത	-9.36516
▁ഫോണ	-9.36554
▁കുറ്റപ്പെടുത്തി	-9.36579
▁സിന്ധ്യ	-9.36638
▁തര്‍ക്ക	-9.36645
▁മാസ്	-9.36679
ക്കട	-9.36688
▁അടുത്തിടെ	-9.36791
▁സൈ	-9.36849
▁മാർ	-9.36934
▁ക്കുകയായിരുന്നു	-9.3695
രുടെ	-9.37037
▁നേരത്തേ	-9.37037
▁വീടുകളില	-9.37071
എല്‍	-9.37156
▁ഉടന്‍	-9.37225
▁നഗരസഭ	-9.37228
▁ിന	-9.37299
▁പാത	-9.37447
▁വിജയി	-9.37509
ത്തിലാണ്	-9.37513
▁രാഹുല	-9.37536
▁ിക്കാന	-9.37668
▁വ്യാപാര	-9.37718
▁കുറയ	-9.37817
▁ഗ്	-9.38016
▁സീ	-9.38099
▁വിളി	-9.38108
▁സിനിമാ	-9.38136
▁കൂടുതല	-9.38168
▁ആന	-9.3821
▁ഓണ	-9.38243
▁പൗരത്വ	-9.38249
▁ഉത്തരവ	-9.3827
▁ചു	-9.38303
▁ബാക്കി	-9.3836
▁പാര്‍ലമെന്റ	-9.38366
▁വിജയന്‍	-9.3837
▁മഹാരാഷ്ട്ര	-9.38451
▁മരിച്ചു	-9.38475
▁ഇടത്	-9.38505
▁സംഭവത്ത	-9.38564
▁ിരിക്കുന്നു	-9.38627
രിയ	-9.38674
▁അന്താരാഷ്ട	-9.38704
▁ജനങ്ങളുടെ	-9.38751
▁നമ്മള്‍	-9.38811
▁നിൽക്ക	-9.38836
ൂട്ടിച്ചേര്‍ത്തു	-9.38844
▁ഏറ്റെടുത്ത	-9.38844
▁േക്കുമെന്ന	-9.38893
▁ഉദ്ഘാടനം	-9.39005
▁ആത്മഹത്യ	-9.39005
▁രാമ	-9.39114
▁പ്പെട്ട	-9.39203
▁ബു	-9.39245
▁കിട്ട	-9.39293
തുപോലെ	-9.39322
▁പണ	-9.3936
ീകരി	-9.39408
▁കണ്ടെത്തി	-9.3941
▁സുഹൃത്ത	-9.39415
്യം	-9.3956
▁വെള്ളം	-9.39565
▁പുറമെ	-9.39645
▁ആളുകള	-9.39711
കരമായ	-9.39714
▁ആണ	-9.39724
▁മക്കള	-9.3976
▁തിരിച്ച	-9.39845
▁തൊഴില്‍	-9.39901
ല്യ	-9.39905
▁കീഴ	-9.3991
▁കണ്ട്	-9.39942
▁ഭാഗത്ത്	-9.39953
▁നിര്‍ണായക	-9.39968
ാവസ്ഥ	-9.39987
▁ശിവ	-9.40034
▁രാശിക്കാര	-9.4004
▁കൊണ്ടുവന്ന	-9.4013
▁മദ്യ	-9.40217
▁പ്രചാരണം	-9.40274
▁അച്ഛന	-9.40324
▁കണക്ക്	-9.40352
▁മണ്ഡല	-9.40353
▁പൂര	-9.40479
▁ഒരാള്‍	-9.40495
▁ത്തിലൂടെ	-9.4058
▁വടക്ക	-9.40591
▁വിവരങ്ങൾ	-9.40593
▁',	-9.40604
▁അഭി	-9.4074
▁കാട്ട	-9.40796
ണ്ടി	-9.40878
ഒ	-9.40902
▁പഠന	-9.40985
ഞ്ഞു	-9.41084
▁യുദ്ധ	-9.41087
▁നടത്തിയിരുന്നു	-9.41088
▁നന്ദി	-9.411
▁തൃണമൂല	-9.41104
ാരോഗ്യ	-9.41104
▁പ്രണയ	-9.41109
▁അവര	-9.4121
▁കലാപ	-9.41215
▁വേദി	-9.41238
▁ഓണ്‍ലൈന	-9.41267
▁ശബരിമല	-9.41267
▁നേരിട	-9.41348
▁44	-9.41391
▁റോഡ	-9.41553
▁ആദ്യമായി	-9.41557
▁ട്രംപ്	-9.41667
▁ക്ഷ	-9.41685
ഠ	-9.41704
▁ഓഫീസര്‍	-9.41717
ബാ	-9.41757
▁നായി	-9.41762
▁ഘട്ട	-9.41765
▁അവധി	-9.41789
▁പരിശോധനയ്ക്ക	-9.41857
▁വ്യക്തമായ	-9.41859
▁സമാധാന	-9.41864
▁അറേബ്യ	-9.41924
▁റണ്‍സ	-9.41932
▁നടപ്പാക്ക	-9.42033
▁തായിരുന്നു	-9.42095
▁വ്യവസ്ഥ	-9.42102
▁ജില്ലകളില	-9.42153
▁സൗകര്യ	-9.42159
▁ചെയ്യുക	-9.42175
▁സർ	-9.42192
▁നഷ്ട	-9.42205
▁ഗതാഗത	-9.42253
▁മൂന്നു	-9.42331
▁ആഴ്ച	-9.42391
▁ആന്റണി	-9.42445
ോണ്‍	-9.4262
▁നട	-9.42646
▁സാമ്പിളുകള	-9.4267
▁എല്‍ഡിഎഫ്	-9.42726
▁സബ്	-9.42758
▁ഹോ	-9.42853
▁ുണ്ടായിരുന്നു	-9.42862
▁ആശുപത്രിയിൽ	-9.42924
▁മുഖ്യ	-9.42998
▁തുടർന്ന	-9.43023
▁മേഖലകള	-9.43036
▁ഇതാണ്	-9.43046
പുരം	-9.43048
▁യോഗി	-9.43151
▁ഏകദേശ	-9.43256
▁നിരീക്ഷണ	-9.43305
▁മഹ	-9.43344
മീ	-9.43517
▁2022	-9.43583
▁വേദന	-9.43603
▁എസ്പി	-9.43618
ഖ്	-9.43869
േന	-9.43943
വിൽ	-9.43945
പ്പള്ളി	-9.43954
▁പോകാന	-9.43983
▁ഓഫീസ്	-9.44053
ക്ത	-9.44072
ക്കുകയാണ്	-9.44088
▁വൈദ്യുതി	-9.44089
▁ഒക്കെ	-9.4426
▁പരമാവധി	-9.44424
▁നേട്ട	-9.44435
▁വരുത്ത	-9.44482
▁പ്രവര്‍ത്തക	-9.44514
▁അറിയിച്ചത്	-9.44567
▁യുമാണ്	-9.44607
▁ജില്ലകളില്‍	-9.44725
▁മൊ	-9.44737
▁പങ്ക	-9.44837
▁നിയമനം	-9.44897
▁മൊത്ത	-9.44897
r	-9.44928
▁പോലുള്ള	-9.45021
▁ബോസ	-9.45096
▁ഇത്തരത്തില	-9.452
റും	-9.45239
▁വേണമെന്ന	-9.45264
▁ിച്ച	-9.45291
▁ചേര്‍ന്ന്	-9.45295
▁മന്ത്രാലയം	-9.45364
പ്പിച്ച	-9.4538
▁പാലാ	-9.45445
▁വെട്ടി	-9.45489
▁താമസ	-9.45555
▁ഭക്ഷണ	-9.45557
ന്ധ	-9.45559
േശ	-9.45671
ങ്ങളെ	-9.45744
▁ഉടമ	-9.45769
▁ഒക്ടോബ	-9.45783
▁മാനസിക	-9.45784
▁ഉപയോഗിക്കുന്ന	-9.45842
വല	-9.45917
▁പരിഗണിച്ച	-9.45954
▁അറസ്റ്റിലായ	-9.45966
▁സുധാകരന്‍	-9.46009
▁കണ്ടെത്തിയത്	-9.46058
വരെ	-9.46072
▁അത്ര	-9.46087
▁വാങ്ങി	-9.46127
▁നിറഞ്ഞ	-9.46285
വന	-9.46388
റിൽ	-9.46393
▁മുന്നിൽ	-9.46483
രിക്ക	-9.46497
▁38	-9.46609
▁യൂ	-9.46635
▁വാക്സിൻ	-9.46643
▁പ്രകടന	-9.46679
▁നേതൃത്വ	-9.4668
▁ത്തോടെ	-9.46741
▁(1	-9.46771
▁ഒഴിവാക്ക	-9.46812
▁2018	-9.46815
▁മെന്നും	-9.46865
▁ആക്രമിച്ച	-9.46878
▁സംസ്	-9.46936
▁വൈസ	-9.46947
▁നം	-9.4702
▁പ്രതിപക്ഷം	-9.4713
▁സര്‍	-9.47191
എന്‍	-9.47222
▁ഗു	-9.47226
▁ലോക്ക്	-9.47241
▁ആളുകൾ	-9.47259
▁സിന്റെ	-9.47297
▁സ്ഥാനത്ത്	-9.47347
▁ബീ	-9.47351
▁കുടുംബം	-9.47367
▁ഇതിനെ	-9.47472
മാക്കി	-9.47512
▁!!	-9.47514
▁നാട്	-9.47583
▁പുന	-9.47595
▁അറിയാം	-9.4762
ൊപ്പ	-9.47643
▁ഗുരുതര	-9.47665
▁42	-9.47668
▁ഉപതിരഞ്ഞെടുപ്പ	-9.47683
▁സൗജന്യ	-9.47683
▁തേടിയ	-9.47726
▁ഹോട്ടല	-9.47814
▁പീഡന	-9.47858
▁നിരക്ക	-9.47906
-19	-9.4792
▁നടന്നു	-9.47923
▁സഖ്യം	-9.48059
▁അതിനെ	-9.4807
▁39	-9.48157
▁മധ്യ	-9.48186
ാതിരുന്ന	-9.48267
▁ഇല്ലാത്ത	-9.48273
▁സഖ്യ	-9.48281
യുമായ	-9.48367
▁വിളിച്ച്	-9.48541
▁സുനി	-9.4856
മുണ്ടായ	-9.48682
▁തിരഞ്ഞെടുപ്പിന്	-9.48727
▁സാമൂഹ്യ	-9.48735
▁ഷി	-9.48743
▁ഇക്കാര്യത്തില്‍	-9.48749
▁ഇടപെട്ട	-9.4875
ർത്ത	-9.4881
ിറ്റി	-9.48837
വരും	-9.48884
ര്‍ത്തി	-9.48903
▁രോഗമുക്തി	-9.48911
▁ബസ	-9.49032
▁മുതിർന്ന	-9.49088
▁ശമ്പളം	-9.49239
▁ശരി	-9.49274
▁സിന	-9.49416
▁കാരി	-9.49443
▁യില്ല	-9.4947
▁സമുദായ	-9.49475
▁ഇവര്‍ക്ക്	-9.49494
ണ്ഡ	-9.4955
l	-9.49607
▁ാലും	-9.49613
▁ജനങ്ങളെ	-9.4971
▁തേടി	-9.49768
▁പ്രഖ്യാപിക്ക	-9.4981
▁കര്‍ഷക	-9.49826
▁കര്‍ണാടക	-9.49964
▁കൊല്ല	-9.49981
▁ഗവ	-9.5012
▁തിര	-9.50182
▁രൂപയും	-9.50201
▁സർക്കാരിന്റെ	-9.50247
▁തങ്ങള്‍	-9.50268
▁യുപി	-9.5032
▁നഷ്ടപ്പെട്ട	-9.50393
▁ഉണ്ടാവ	-9.50441
ജ്ഞ	-9.50451
▁രാശിക്കാര്‍ക്ക	-9.5046
▁സംരക്ഷണ	-9.50482
തിനിടെ	-9.50505
▁പ്രാഥമിക	-9.50513
▁സമൂഹത്ത	-9.50515
േറിയ	-9.50538
▁ഷെ	-9.50556
▁കൂട്ടിച്ചേർത്തു	-9.50696
▁വരുമെന്ന	-9.50698
പ്പാട	-9.50725
▁ഭക്ഷണം	-9.50751
മാര്‍	-9.50798
▁കരുത്ത	-9.50858
▁വാർത്ത	-9.50897
▁199	-9.50906
ബോ	-9.50934
ഷന	-9.50955
▁താമസിക്കുന്ന	-9.51118
▁ശക്തമാ	-9.51249
▁മാതൃക	-9.51305
▁നേതാക്കളുടെ	-9.51318
20	-9.51326
▁തിങ്കളാഴ്ച	-9.51353
ഞ്ചേരി	-9.5136
ാകെ	-9.51394
▁നടപടികൾ	-9.51404
▁കഥ	-9.51413
▁സ്ഥാനാര്‍ഥി	-9.51554
▁തിരക്ക	-9.51565
▁സീസണ	-9.51625
രുതെന്ന	-9.51661
▁ചന്ദ്ര	-9.5176
▁കക്ഷി	-9.51835
ധ്യ	-9.51886
▁രൂക്ഷ	-9.51921
▁വന്നിരുന്നു	-9.52008
▁സിങ്	-9.52096
ത്വം	-9.52108
▁സംഘര്‍ഷ	-9.5214
▁ജീവനക്കാര	-9.52153
▁ഹി	-9.52195
തില്‍	-9.52219
▁മുന്നോട്ടു	-9.52323
▁അത്തര	-9.52375
▁കണ്ടെത്താന	-9.52466
▁സുപ്രീംകോടതി	-9.52508
▁ഇല്ലെന്ന	-9.52531
▁പ്രവാസി	-9.52555
▁ഉദ്യോഗസ്ഥര	-9.52714
▁ക്കണം	-9.52818
▁പാസ്	-9.52818
▁പൂര്‍ണമായ	-9.52849
ീഷ്	-9.52852
▁ടെക്	-9.52863
▁ഭൂരിപക്ഷം	-9.52914
▁തെക്ക	-9.52939
▁സ്വപ്	-9.53006
▁താല്‍പര്യ	-9.53019
▁2017	-9.53056
ക്കാല	-9.53074
▁ചര്‍ച്ചകള്‍	-9.53129
▁മുൻപ്	-9.53226
▁ക്കോ	-9.53313
ാണെങ്കില്‍	-9.53355
ൻസ്	-9.5343
▁കുറവ	-9.53446
▁പ്രാ	-9.53465
നിര	-9.53466
ഡോ	-9.53474
▁സുരക്ഷിത	-9.53516
▁കടന്നു	-9.53608
▁യിലൂടെ	-9.53613
▁നടത്തും	-9.53627
▁തിരിച്ചറിയ	-9.53634
▁പരാജയപ്പെട്ട	-9.53673
▁തുറന്നു	-9.53715
▁നിലയിൽ	-9.53735
▁സംസ്ഥാനങ്ങളില്‍	-9.53767
▁പോയത്	-9.53865
▁വോട്ടുകള	-9.53874
▁മേയ	-9.53936
▁ബല	-9.53998
തിരി	-9.54018
▁ടെസ്റ്റ്	-9.54033
▁നേട്ടം	-9.54048
▁ഇല്ലാതാ	-9.54127
▁41	-9.54281
ുന്നുണ്ട്	-9.54329
▁സമ്മാന	-9.54387
ാലി	-9.545
▁കൈമാറ	-9.54517
▁ആല	-9.54591
▁ലഭിച്ചു	-9.54674
▁നാള	-9.54682
ക്കാർ	-9.54823
▁ഉത്തരവ്	-9.54844
▁സ്ഥലം	-9.54877
ാസ്	-9.54893
മാക	-9.54928
▁പരിഹരിക്ക	-9.54987
▁ഉള്‍പ്പെടെയുള്ള	-9.54991
▁ഭാഷ	-9.5507
▁തുടക്കം	-9.55073
▁സ്റ്റാ	-9.55074
▁നായിരുന്നു	-9.5518
▁ക്കുറിച്ച	-9.55213
▁ലേക്ക്	-9.55219
▁പ്രവര്‍ത്തകര	-9.55288
▁സാധ്യതയുണ്ട്	-9.5529
▁വാദ	-9.55344
▁പൂര്‍	-9.55454
▁പ്പി	-9.55504
▁ശശി	-9.55529
▁ന്യൂ	-9.55544
▁നേതാക്കളും	-9.55547
▁നവ	-9.55587
.30	-9.55682
നീ	-9.55711
▁സമാനമായ	-9.5572
▁നോട്ട	-9.55729
▁പ്രവര്‍ത്തി	-9.55843
▁അന്ത	-9.55867
▁മെന്റ	-9.55919
▁മണ്ഡലത്തിൽ	-9.55963
▁മാത്രമ	-9.55994
▁ഫെ	-9.56005
▁വിഷ്ണു	-9.56045
▁പോവ	-9.5609
▁പിടിക്ക	-9.56233
വാസ	-9.56252
▁കുന്ന	-9.56258
▁മുണ്ടെന്ന	-9.56321
▁വിദ്യാര്‍ത്ഥി	-9.56324
▁അംഗങ്ങള	-9.56374
▁തൊഴിലാളി	-9.56436
▁ക്കുന്നത്	-9.5646
▁തന്ന	-9.56556
▁പറയാന	-9.56586
▁ഹെ	-9.56591
▁ഇഡി	-9.56609
▁നിര്‍ദേശ	-9.56622
▁ബിജെപിയെ	-9.56789
▁ഗവര്‍ണര്‍	-9.56805
▁തകര്‍ന്ന	-9.56806
ാണു	-9.56809
▁പ്രതികരിക്ക	-9.56819
▁വല	-9.56822
▁തില	-9.56844
▁അധികാരം	-9.56852
▁പ്രചരണ	-9.56859
▁അതു	-9.569
▁ഫീ	-9.56936
▁കളക്ടര്‍	-9.56997
▁ഇറാന	-9.57001
▁ഫോ	-9.57063
▁വൻ	-9.57089
▁തോന്നിയ	-9.57135
▁ാന	-9.57148
▁കൗണ്‍സില	-9.57184
▁വധ	-9.57304
▁46	-9.57317
േണ	-9.57324
▁ക്ലാസ്	-9.57337
▁ആന്റ	-9.5737
▁താലൂക്ക	-9.5738
▁ഡോളറ	-9.57382
▁പ്രഖ്യാപനം	-9.57395
▁രീതിയിൽ	-9.57396
▁ഭാഗമായ	-9.57416
▁മത്സരം	-9.57433
▁തടസ്സ	-9.57462
▁കീ	-9.57477
▁നിര്‍ദേശിച്ച	-9.57486
ഘ	-9.57597
▁മുട്ട	-9.57707
▁അറിയിച്ചിരുന്നു	-9.57779
▁ഓടി	-9.57799
▁ടീം	-9.57805
വൈ	-9.57816
ഹിത	-9.57848
ത്തേക്ക്	-9.57887
▁ഉടൻ	-9.57903
▁ലക്ഷ്യ	-9.5791
ആർ	-9.57913
▁പക	-9.57929
റിഞ്ഞ	-9.57971
▁ലേക്ക	-9.57975
▁ആത്മ	-9.57991
▁ത്ര	-9.57995
▁തിരിച്ച്	-9.58037
▁ഓർ	-9.5806
▁പോരാട്ട	-9.58069
▁47	-9.58097
▁പ്രശ്ന	-9.58103
▁പിന്നില്‍	-9.58144
▁വാദി	-9.58208
▁നോക്കി	-9.58256
ക്കൊണ്ട	-9.58276
▁നല്‍കിയിരുന്നു	-9.5831
▁സ്നേഹ	-9.58345
▁പിടിച്ചു	-9.58354
▁വരുമാന	-9.58451
▁ഇറങ്ങ	-9.5847
▁ആറ	-9.58517
▁സമര്‍പ്പിച്ച	-9.58624
▁ശേഷി	-9.58625
▁49	-9.58651
▁പ്രസംഗ	-9.58671
▁വിപണി	-9.58761
▁വ്യവസായ	-9.58774
▁ഒമ്പത	-9.58785
▁അഭിമുഖ	-9.58824
▁കളോട	-9.58936
മാന	-9.58939
▁തുടങ്ങ	-9.58967
▁കാണിക്ക	-9.59017
ലീ	-9.59046
▁ദു	-9.59085
▁അപ	-9.59132
▁മടങ്ങ	-9.5914
▁സുധാകര	-9.59162
▁ഉറപ്പ്	-9.59163
▁പറയാന്‍	-9.59231
▁കയ്യ	-9.59254
▁ചേര്‍ത്ത	-9.59306
▁ഞായറാഴ്ച	-9.59319
▁പുറമേ	-9.5932
▁സോഷ്യൽ	-9.5932
▁പരാമര്‍ശ	-9.59426
▁ഫേസ്ബുക്ക	-9.59438
▁തയ്യാറായ	-9.59439
▁ജാതി	-9.59454
▁വാഗ്ദാനം	-9.59468
▁പീ	-9.59482
▁ഷാജി	-9.59706
▁54	-9.59706
▁2023	-9.59712
▁വന	-9.59768
▁കുറിപ്പ്	-9.59815
▁അതിന	-9.59972
▁യുണ്ട്	-9.60035
▁സൂ	-9.6007
▁ജസ്റ്റിസ്	-9.60102
▁തൊട്ട	-9.60169
▁വിദ്യാര്‍ത്ഥികള	-9.60211
▁ച്ചു	-9.60214
▁സമയത്ത	-9.60264
▁ചിലര്‍	-9.60303
▁പരിചയ	-9.60394
▁സീറ്റില്‍	-9.60399
▁ജില്ലകളിൽ	-9.60405
▁കടല	-9.60421
▁എന്‍ഡിഎ	-9.60502
▁ഒരേ	-9.60517
▁വെള്ളിയാഴ്ച	-9.60572
▁തയ്യാറാ	-9.6058
▁മണ്ഡലത്തില	-9.60658
▁65	-9.60662
▁സ്വര്‍ണ	-9.60676
കാര്യം	-9.60683
u	-9.607
▁അംബാനി	-9.607
▁നിരന്തര	-9.60701
▁സെന്റ	-9.60703
▁പ്രവര്‍ത്തനം	-9.60772
▁പ്രദേശങ്ങള	-9.60914
▁ക്കി	-9.60954
ുകൊണ്ട്	-9.61012
▁പൂജ	-9.61052
▁വായ	-9.61134
സീ	-9.61151
▁നല്‍കുന്നത്	-9.61182
▁ടൂറിസം	-9.61222
പക്ഷ	-9.61265
▁തീവ്ര	-9.61292
▁പ്രവൃത്തി	-9.61298
▁അനുസരിച്ച്	-9.61481
▁രണ്ടാമത്ത	-9.615
▁ശരീര	-9.61509
ീസ	-9.61511
▁ശനിയാഴ്ച	-9.61552
▁മന	-9.61552
▁കൊടു	-9.61562
▁പദ	-9.61563
▁നടപടികള	-9.61568
▁നോട്ടീസ്	-9.61631
ാണുള്ളത്	-9.61639
▁യുവാക്കള	-9.61699
▁കൂള	-9.6177
▁രാജ്യത്തിന്റെ	-9.6179
▁യിലുള്ള	-9.61892
▁ഹർജി	-9.619
▁നിര്‍മാണ	-9.61901
▁മാസത്ത	-9.61992
▁എളുപ്പ	-9.62101
▁സ്ഥാപിച്ച	-9.62101
ംഗ്	-9.62104
▁വിളിച്ചു	-9.6213
▁മുണ്ട	-9.62172
▁വീഴ	-9.62335
c	-9.62343
▁ക്കുമെന്നും	-9.62405
▁കടത്ത	-9.62421
ലു	-9.62445
ൊപ്പം	-9.62513
▁വ്യാപനം	-9.6255
▁ചോദ്യ	-9.62698
▁2024	-9.62707
കളാണ്	-9.62725
▁കിലോ	-9.62743
▁ഇത്ര	-9.62777
▁ടിക്കറ്റ	-9.62815
▁അബ്ദു	-9.62841
▁വായ്പ	-9.62882
ൌ	-9.62909
▁സിബിഐ	-9.6291
▁അഡ്വ	-9.6292
▁നൽക	-9.62986
▁ക്കെതിരായ	-9.63033
വിട	-9.63049
▁കലാ	-9.63056
▁മനസിലാ	-9.63091
ങ്കി	-9.63099
▁തിനാൽ	-9.63108
m	-9.63113
▁അഭിപ്രായം	-9.6317
▁ശക്തമായി	-9.63247
▁നിയന്ത്രണ	-9.63253
▁നിര്‍ത്തി	-9.63264
▁ഐക്യ	-9.63326
▁തീയതി	-9.63345
▁പ്രദേശങ്ങളില	-9.63369
d	-9.63396
▁പൊലിസ്	-9.63403
▁പതിവ	-9.63418
റിന്	-9.63431
▁ബിരുദ	-9.63461
വിനെ	-9.63469
▁പങ്കെടുത്തു	-9.63495
▁ബ്ലോക്ക്	-9.63572
▁മോശം	-9.63584
▁തൃ	-9.63587
▁വിള	-9.63589
▁രേഖ	-9.63601
▁മാണെന്ന	-9.63611
▁ട്രംപ	-9.6364
▁റ്റ്	-9.63684
ശ്ശേരി	-9.63717
▁ഏപ്രില്‍	-9.63725
▁പുതുതായ	-9.6377
▁എസ	-9.63774
▁രക്ഷ	-9.63793
▁തട്ടി	-9.63901
ോളജി	-9.63922
▁പ്രതികരണ	-9.63929
▁കാസര്‍ഗോഡ്	-9.6393
▁വിനോദ	-9.63931
▁ഭൂരിപക്ഷ	-9.63934
▁ത്തിനുള്ള	-9.63938
▁വള	-9.64032
▁ത്തിയ	-9.64033
▁തലത്തില്‍	-9.64052
▁മാര്‍ഗ	-9.64095
▁വാര	-9.64095
▁പിന്തുണച്ച	-9.64103
▁യോട	-9.64154
▁ഗുരുതരമായ	-9.64161
പ്പെടുത്തുന്ന	-9.64174
▁നിറ	-9.64196
▁ക്കുമെന്ന്	-9.64233
ുണ്ടാ	-9.64236
ക്കായി	-9.64326
▁തർക്ക	-9.64353
▁ജനത	-9.64374
ഞ്ജ	-9.64383
▁പഞ്ചാബ്	-9.64392
ത്തിനു	-9.64406
▁കാണുന്നത്	-9.64414
▁വേറെ	-9.64472
▁ാവ	-9.64496
▁നടക്കും	-9.64501
▁ഇറങ്ങിയ	-9.64538
▁ഘടക	-9.64549
▁ഗാന്ധിയുടെ	-9.64562
▁പ്രകടനം	-9.6461
ലേ	-9.64637
പ്പെടുത്തി	-9.64647
കാ	-9.64732
▁വുമ	-9.64757
▁സേവന	-9.64758
▁പ്രവർത്തകര	-9.64792
▁നിൽക്കുന്ന	-9.648
സ്ഥാന	-9.64879
▁വൈറസ	-9.64914
▁അല്ലെങ്കില	-9.64917
▁വകുപ്പിന്റെ	-9.64941
▁സെപ്റ്റംബ	-9.64961
▁ഗൗരവ	-9.64961
▁ഭൂ	-9.64979
▁ഫ്ര	-9.65011
▁ഉൾപ്പെടെയുള്ള	-9.65047
▁ചെയ്യുമെന്ന	-9.65114
ത്തിനിടെ	-9.65121
▁റ്റി	-9.65132
▁കെട്ടി	-9.65139
▁വ്യാഴാഴ്ച	-9.65168
▁സമീപത്ത	-9.65207
▁സ്ഥലത്ത്	-9.65227
▁വിമര്‍ശനം	-9.65401
▁ഊ	-9.65483
▁സമ്പര്‍ക്കം	-9.65484
▁52	-9.65561
▁ബിസിനസ്	-9.65563
ക്കുന്നു	-9.65592
▁പൊളി	-9.65602
▁മേഖലയിൽ	-9.65723
▁വിശദീകരണം	-9.65793
പ്പോ	-9.65843
▁കളുമായി	-9.66016
▁നിർ	-9.66087
▁ിട്ട്	-9.66088
ിക്കല്‍	-9.66169
ന്തി	-9.66202
▁ദാ	-9.66229
ക്കൽ	-9.66241
▁നിയന്ത്രണം	-9.66269
മ്മി	-9.66362
▁കര്‍ഷകര്‍	-9.66363
▁വിഭാഗങ്ങള	-9.66493
▁ട്വീറ്റ്	-9.66496
കി	-9.66509
▁പഴ	-9.66538
േന്ദ്ര	-9.66649
▁പിന്നില	-9.66691
▁നിര്‍ത്ത	-9.66704
▁സൈറ്റ	-9.66799
▁വസ്ത്ര	-9.66845
▁കയറിയ	-9.66869
ങ്ങിയ	-9.6687
▁വരെയാണ്	-9.66915
▁പഞ്ചായത്തില	-9.66922
▁സുഹൃത്തുക്കള	-9.66939
▁കമ്മീഷന്‍	-9.6694
▁ഭീകര	-9.66975
▁നല്‍കിയിട്ടുണ്ട	-9.67053
▁അഭിമാന	-9.67065
▁ഉപയോഗ	-9.67206
ന്നു	-9.67231
▁ഇന്ത്യയിൽ	-9.67235
▁എയര്‍	-9.67267
▁മുല്ലപ്പള്ളി	-9.67267
▁ഓള	-9.6729
▁ഭേദഗതി	-9.67295
▁എട്ട	-9.67403
▁നിതീഷ്	-9.67431
▁പ്രഖ്യാപന	-9.67462
▁ആഗോള	-9.67475
▁ഹൃദയ	-9.67478
മെന്ന്	-9.67513
▁മകന്‍	-9.67519
▁ഗ്രഹ	-9.67558
▁മന്ത്രിസഭ	-9.67636
▁51	-9.67648
▁മൊബൈല	-9.67692
▁അന്തിമ	-9.67696
▁ഞങ്ങളുട	-9.67718
▁പ്രോ	-9.67747
▁വരുമാനം	-9.6781
ട്രി	-9.67828
▁ഒരാൾ	-9.67906
▁ഉണ്ടാക്ക	-9.67917
▁എങ്കിലും	-9.67943
രണ	-9.67944
▁സമ്മാനം	-9.68058
ൻ്റ	-9.68059
▁ഒരുക്കിയ	-9.68123
▁ധനമന്ത്രി	-9.68126
▁പാട്ട	-9.6817
െക്കുറിച്ച്	-9.68172
▁ഒര	-9.68191
▁സ്വര്‍ണം	-9.6821
▁പ്രഖ്യാപിച്ചു	-9.68232
▁കാര്യമാണ്	-9.68239
ല്ലാതെ	-9.68271
▁യാള	-9.68351
▁വാഹനം	-9.68385
▁എന്നു	-9.68388
ക്കൂട്ട	-9.68398
▁ദീപ	-9.6841
▁സംഘടിപ്പിച്ച	-9.68448
▁കളിലെ	-9.68464
ാവകാശ	-9.68491
▁സര്‍വീസ്	-9.68548
▁യൂണിറ്റ	-9.68548
▁ഭാവി	-9.68588
▁ന്ന്	-9.68616
▁നേടാന	-9.68636
▁തിനായി	-9.68654
▁കശ്മീര	-9.68707
▁വ്യക്തമാക്കിയത്	-9.68723
▁സ്കൂള	-9.68763
▁അട്ടിമറി	-9.68765
▁അവസാനിപ്പിക്ക	-9.68777
▁തോടെയാണ്	-9.68829
▁അഭിപ്രായപ്പെട്ട	-9.68854
▁വിഷ	-9.68878
▁ക്ഷേമ	-9.68994
▁ദിവസവും	-9.69023
▁ഇത്തരമൊര	-9.69123
ിനായി	-9.69142
▁കണ്ടത്	-9.69181
▁തെരഞ്ഞെടുപ്പ	-9.69183
▁തോന്നുന്ന	-9.69186
▁അശോക	-9.69194
▁ലഭ്യമാക്ക	-9.69238
▁കൂട്ടി	-9.69264
"	-9.69321
▁പെട	-9.69441
▁എട	-9.69485
▁ബാധിച്ചത്	-9.69492
▁സുരേന്ദ്ര	-9.69515
▁വ്യാ	-9.6955
▁മാധ്യമങ്ങള്‍	-9.69739
▁എംഎൽഎ	-9.6982
▁ഇയാൾ	-9.69845
▁ജോര്‍ജ	-9.69884
▁കൊവിഡ	-9.699
▁ഇതിന	-9.70081
▁കാർ	-9.70152
▁മേല്‍	-9.70158
▁ഫിറോസ്	-9.70224
in	-9.70287
▁കാര്യമായ	-9.70291
▁യേയും	-9.70304
▁ഇതിനായി	-9.70315
ാറുണ്ട്	-9.70316
▁പട്ട	-9.70321
▁ഭരണഘടന	-9.70324
▁ജോസഫ	-9.70328
ാട്	-9.7035
▁നാലു	-9.70361
▁ജീവിതത്ത	-9.70376
▁ആളുകളെ	-9.70388
▁ശിവസേന	-9.705
▁ചിത്രങ്ങള്‍	-9.70587
▁ചോദിക്ക	-9.70598
▁ത്തിൻ്റെ	-9.70637
▁വെബ്	-9.70644
ീകരണ	-9.70668
▁അവള	-9.70686
▁ക്കുകയാണ്	-9.70701
▁അസിസ്റ്റന്റ്	-9.70714
▁തൊഴിൽ	-9.7072
▁ഇന്ത്യക്കാര	-9.70801
▁ഉദ്യോഗസ്ഥ	-9.70815
▁തീരുമാനിക്ക	-9.70819
▁റദ്ദാക്ക	-9.70843
▁ഉള്‍	-9.70851
▁സര്‍ക്കാരിന്	-9.70922
▁മൈ	-9.70947
▁കോളേജില	-9.70959
▁കിഴക്ക	-9.70966
▁റീ	-9.71062
നാഥ	-9.71106
▁ലേ	-9.71119
▁57	-9.71143
▁കാലാവധി	-9.71159
▁മണിക്ക്	-9.71168
സു	-9.71271
നില	-9.71331
▁വുമായ	-9.71364
▁ക്രിക്കറ്റ	-9.71381
▁പുറത്തുവിട്ട	-9.71388
▁വിജയൻ	-9.71406
ക്രമ	-9.71415
വു	-9.71448
ണോ	-9.71456
▁മനസ	-9.71504
▁പാര്‍ട്ടിയില്‍	-9.71564
▁ഇന്ധന	-9.71602
▁ായ	-9.71664
▁ഉയരുന്ന	-9.71676
▁കാരണമായ	-9.71706
▁ള്‍	-9.71712
▁അതില	-9.71805
▁കരുതുന്നത്	-9.71811
▁സാങ്കേതിക	-9.71823
▁പാലിച്ച	-9.72027
ശ്യ	-9.72033
▁പലപ്പോഴ	-9.72045
▁ബോംബ	-9.72069
▁എനിക്ക	-9.72076
▁ശമ്പള	-9.72078
▁തുടങ്ങിയവ	-9.72091
ിട്ടുള്ള	-9.72133
▁റു	-9.72246
▁വിശദ	-9.72317
നോ	-9.72337
▁പരിധി	-9.72445
▁മുണ്ടാക	-9.72496
▁കുത്തി	-9.72526
▁സമീപിച്ച	-9.72546
▁ഫോൺ	-9.72549
യിലൂടെ	-9.72618
▁വർക്ക	-9.72639
▁പ്രതികളെ	-9.72647
▁ഫോറ	-9.72686
▁ഭക്ഷ്യ	-9.72715
▁കഴിവ	-9.72724
▁വിദേശകാര്യ	-9.72725
ർത്തി	-9.72729
▁റാലി	-9.72748
▁ഭാഗ	-9.72766
▁തോമസ	-9.72827
▁പ്രവർത്തന	-9.72867
▁വേണ്ടിയാണ്	-9.72886
▁ബ്ല	-9.72894
▁അംഗീകരിച്ച	-9.72939
▁പ്രവേശിപ്പിച്ച	-9.72958
▁പ്രവർത്തകർ	-9.73125
▁സ്ഥല	-9.73131
▁56	-9.73134
ഹാര	-9.73154
▁വ്യത്യാസ	-9.73164
▁ലീ	-9.73166
▁പ്രകാരമ	-9.73193
ദാ	-9.73239
▁നഷ്ടമായ	-9.73344
▁58	-9.73352
▁എന്നിവരെ	-9.73372
▁ന്നു	-9.73413
▁ആം	-9.73448
▁മാരുടെ	-9.73467
▁കോവിഡ	-9.73508
▁കരുതിയ	-9.73538
▁ഇല	-9.73548
▁അടച്ച	-9.73584
▁നല്‍കും	-9.73642
▁വഹിച്ച	-9.73686
▁സീറ്റുകള	-9.73704
▁മാവ	-9.738
▁ആവശ്യപ്പെടുന്ന	-9.73811
▁തൃക്കാക്കര	-9.73841
▁ചൊവ്വാഴ്ച	-9.73843
▁കേന്ദ്രീകരിച്ച	-9.7393
വാദ	-9.73967
▁പ്രതീക്ഷിച്ച	-9.73992
▁പരാമർശ	-9.74068
▁തെരുവ	-9.74071
▁ഉദ്യോഗസ്ഥർ	-9.74141
▁ശേഖര	-9.74185
▁സച്ചിന്‍	-9.74231
▁ഇയാള	-9.74295
▁പുഴ	-9.74376
▁പാലിക്ക	-9.74416
▁പ്രതികരിച്ചത്	-9.74416
▁നോക്ക	-9.74425
ക്കേ	-9.74446
▁ബാഗ	-9.74509
▁തുടര്‍ച്ചയായ	-9.74525
▁കഴിക്ക	-9.74534
▁വിദഗ്ധ	-9.74566
▁500	-9.74572
▁കാണാം	-9.74578
▁പട്ടികയില്‍	-9.74593
▁3,	-9.74639
▁സൃഷ്ടിച്ച	-9.74682
▁സാക്ഷി	-9.74729
▁പ്രകടിപ്പിച്ച	-9.74758
▁തെറ്റായ	-9.74897
▁53	-9.74943
▁സര്‍വേ	-9.74986
▁ഉറച്ച	-9.74997
▁മണ	-9.74998
▁തീർ	-9.75061
▁നീങ്ങ	-9.7509
മ്പി	-9.75098
▁നൽകിയത്	-9.75113
▁കേസുകൾ	-9.75173
▁സൗഹൃദ	-9.75209
▁കോടിയേരി	-9.7521
▁സൂപ്പര്‍	-9.7521
▁അഞ്ചു	-9.75226
▁കാനഡ	-9.753
▁ഘട്ടത്തില്‍	-9.75336
▁കെസി	-9.75343
▁കോടതിയിൽ	-9.75359
▁മുന്നറിയിപ്പ	-9.75369
ണ്ട്	-9.75428
▁വീട്ടില	-9.75445
▁ദേ	-9.75557
▁ശ്രദ്ധിക്ക	-9.75566
ാര്‍ഷിക	-9.7557
▁ജനങ്ങൾ	-9.75571
▁അവതരിപ്പിച്ച	-9.75576
ജു	-9.75582
▁പെരു	-9.75583
▁വിമർശന	-9.75628
▁പ്രതികള്‍	-9.75628
h	-9.7567
▁രൂപീകരിച്ച	-9.7567
▁പത്രിക	-9.75714
▁ഭാഗ്യ	-9.75749
▁സംഘടനാ	-9.75797
▁അനില്‍	-9.75798
ിപ്പിക്കുന്ന	-9.7582
▁വ്യാപകമായ	-9.75864
▁ജീവി	-9.75892
▁ഡെപ്യൂട്ട	-9.75901
▁നിര്‍മ്മാണ	-9.75901
▁അതാണ്	-9.75912
ചി	-9.75932
ുണ്ടാകും	-9.75947
യാക്കി	-9.75949
▁ില്ലെങ്കില്‍	-9.75986
▁പറ്റ	-9.76071
▁വാര്‍ഡ്	-9.761
▁സാധ്യതയുണ്ടെന്ന	-9.76134
▁തുടക്ക	-9.76344
▁ഏഴ	-9.76362
യേറ്റ	-9.76419
▁ബുക്ക	-9.76531
▁ബിജെപിയില്‍	-9.76534
▁വിഷയത്തിൽ	-9.76542
▁സ്ഥലത്ത	-9.76562
▁കോളജ	-9.76576
▁അധ്യാപക	-9.76605
▁തുടരുകയാണ്	-9.76634
വെച്ച	-9.76637
വച്ച	-9.76641
▁രാഷ്ട്രീയം	-9.76677
▁ചുറ്റ	-9.76679
▁കര്‍	-9.76731
▁ബൈക്ക	-9.76758
ുടെയും	-9.76776
▁ചെയ്യപ്പെട്ട	-9.76813
▁വെടി	-9.76823
▁വീഴ്ച	-9.7683
▁ജമ്മു	-9.76841
▁സൃഷ്ടി	-9.76867
▁നടക്കുക	-9.76918
▁ഉൾ	-9.7696
▁യാക	-9.77009
ച്ഛ	-9.77018
▁ബുധനാഴ്ച	-9.77064
▁കടുവ	-9.77113
റേ	-9.7719
▁5,	-9.77264
േര	-9.77281
▁പങ്കുവച്ച	-9.77298
യിട	-9.77308
▁ിനെ	-9.77315
▁വിതരണ	-9.77324
▁ആയിരുന്ന	-9.77378
▁മുൻപ	-9.77423
▁എന്തായ	-9.77461
▁ഘ	-9.77481
▁ഒടുവില്‍	-9.77528
കൃത	-9.77528
▁അതോറിറ്റി	-9.77532
▁രാജിവെച്ച	-9.77544
▁പ്രവർത്തക	-9.77584
വ്യ	-9.77673
▁ിന്റെ	-9.77686
▁എമ്മ	-9.77707
▁നേടിയത്	-9.77746
▁റൂമ	-9.77753
▁കൊള്ള	-9.77813
▁ദിവസങ്ങളില്‍	-9.7785
▁ഉണ്ടാക്കിയ	-9.77872
ൂടെ	-9.77874
ക്കഴിഞ്ഞ	-9.77877
ുമൊക്കെ	-9.77881
▁ങ്ക	-9.77892
▁പൂർത്തിയാ	-9.77911
▁ഉപയോഗിക്ക	-9.77919
▁പ്രവര്‍ത്തിച്ച	-9.77922
കൊണ്ട	-9.77924
▁സഹായി	-9.77969
▁കുള	-9.77973
▁അധികൃതർ	-9.78004
▁വര്‍ധിച്ച	-9.78005
▁മന്ത്രിമാര	-9.78132
പ്പുഴ	-9.78173
▁മരണപ്പെട്ട	-9.78186
വ്വ	-9.78199
ിനൊപ്പം	-9.78257
▁കേരളത്തില	-9.78278
▁ക്കാം	-9.78599
▁ചട്ട	-9.78603
▁പറയുന്നുണ്ട്	-9.78609
▁അതിര്‍ത്തി	-9.78639
▁ധരിക്ക	-9.78818
▁ടിവി	-9.78849
▁ആറു	-9.78865
▁പ്രതിഷേധിച്ച	-9.78916
സോ	-9.78939
▁ഇതര	-9.78956
▁ഉണ്ടെന്ന	-9.78959
▁ഇതിനോട	-9.78995
▁പൊട്ടി	-9.79011
ുവെന്ന	-9.7903
▁ഇപ്പോഴത്ത	-9.79031
ണ്ടെന്നും	-9.79045
▁പഞ്ചായത്ത	-9.79063
തായ	-9.79103
▁വൈകിട്ട	-9.79113
▁തിരി	-9.79178
▁ഗുജറാത്ത്	-9.79191
▁മമ്മൂട്ടി	-9.79191
▁കറ	-9.79235
▁ക്കൊണ്ട	-9.7924
മെന്ന	-9.79275
▁വാക്സിന	-9.79285
▁ഓഗസ്റ്റ	-9.79432
▁ഗുണ	-9.795
▁ആവ	-9.7952
▁കിടക്കുന്ന	-9.79554
▁ക്കാമെന്ന	-9.79563
▁നാട്ടുകാര	-9.79589
▁കണക്കാക്ക	-9.79625
▁പുരോഗതി	-9.7967
P	-9.7967
▁ലഹരി	-9.79671
▁പിടിച്ചെടുത്ത	-9.7971
▁ഗ്യ	-9.79728
▁വിഷമ	-9.79769
▁ഡ്ര	-9.79781
▁കോൺഗ്രസിന്	-9.79839
▁പ്രഖ്യാപിച്ചത്	-9.79903
▁ഇദ്ദേഹം	-9.79907
▁എടുത്തു	-9.79964
▁വിമത	-9.80053
എച്ച്	-9.80087
▁കൂടിയായ	-9.80115
▁ന്യൂസ്	-9.80121
ദ്യ	-9.80149
▁നമ്മൾ	-9.80152
▁കൈവശ	-9.80152
ക്കല്‍	-9.80172
▁വിജയന	-9.80199
▁സ്ഥാനത്തേക്ക്	-9.80217
▁പ്രവർത്തനങ്ങൾ	-9.80269
▁സാധ	-9.80315
▁മറ്റുള്ളവര	-9.80331
▁ഒട്ടേറ	-9.80367
▁എന്‍സിപി	-9.80394
▁മുന്‍പ്	-9.80411
▁കൊന്ന	-9.8042
▁മിനി	-9.80446
▁രാജീവ്	-9.80479
▁സ്വീകരിക്കുന്ന	-9.80612
▁പാടില്ല	-9.80626
▁കൈമാറിയ	-9.80732
▁താരങ്ങള	-9.8075
▁ത്തോട്	-9.80763
▁കുര	-9.80779
▁ഒന്നു	-9.80824
▁സജി	-9.80849
▁തടസ	-9.8088
▁അംഗം	-9.80881
തിനാല്‍	-9.80905
എൻ	-9.80906
▁മാര്‍ക്ക	-9.80988
▁ഇസ്രായേല	-9.81054
ാണി	-9.8109
▁തേട	-9.81114
▁നിയമന	-9.81121
▁സൂചിപ്പിക്കുന്ന	-9.81121
▁ചൂണ്ടിക്കാണിക്ക	-9.81121
▁എഎപി	-9.81122
▁ആന്‍ഡ്	-9.81128
▁വരെയും	-9.81135
▁തട്ടിപ്പ	-9.81145
▁എംഎല്‍എമാര	-9.81167
▁നാടക	-9.81209
▁മീന	-9.81213
▁കത്ത്	-9.81282
▁ദൃശ്യങ്ങള്‍	-9.81289
▁നടന്‍	-9.81292
വയ്	-9.81297
▁അലി	-9.81306
▁കഴിച്ച	-9.81376
▁ന്യൂനപക്ഷ	-9.81483
▁പറയുകയ	-9.81512
▁ജഡ്ജി	-9.81514
▁അവര്‍ക്ക	-9.81525
▁ട്ടാണ്	-9.81527
▁യുഡിഎഫിന്	-9.81542
▁തയ്യാറാക്കിയ	-9.81569
▁വെന്ന	-9.81582
▁ബോധ്യ	-9.81625
▁അതിനാല	-9.81712
▁മണ്ഡലങ്ങള	-9.81737
▁68	-9.81758
▁ജീവിതത്തില്‍	-9.8179
ഭി	-9.81813
▁ഗുണം	-9.81843
▁എന്നിവർ	-9.81846
▁ഗൂഢാലോചന	-9.81855
▁ചെയ്യണമെന്ന	-9.81863
▁ഒളി	-9.81889
▁ഉണ്ടായത്	-9.81902
ഗാ	-9.81935
▁കാണിക്കുന്ന	-9.82046
▁ശക്ത	-9.82131
▁വിക്കറ്റ	-9.82152
▁ഇയാളെ	-9.82207
▁അപ്പ	-9.82233
▁ലഭിക്കുമെന്ന	-9.82243
▁നിമിഷ	-9.82252
▁ബംഗാളില	-9.82281
▁ആര്യ	-9.82287
▁കമ്മീഷന	-9.82326
▁പരസ്പര	-9.82347
കുമാര്‍	-9.82424
▁കരാര്‍	-9.82451
▁പുറത്താക്ക	-9.8247
▁വാങ്ങുന്ന	-9.82512
▁ഒരുമിച്ച്	-9.82519
▁ധരിച്ച	-9.82596
▁സഹോദര	-9.82671
▁വൈറല	-9.82759
▁നയിച്ച	-9.82801
▁യോഗത്തിൽ	-9.8281
▁സംഘപരിവാ	-9.82841
▁ഭരിക്കുന്ന	-9.82845
▁വിഷയങ്ങള	-9.82849
▁ജോർജ്	-9.82935
▁വിദേശത്ത്	-9.82993
▁വേഗത്തില	-9.83058
▁അന്വേഷിച്ച	-9.8306
▁കച്ചവട	-9.83089
▁പ്രക്ഷോഭ	-9.83098
▁പരീക്ഷണ	-9.83237
▁തോറ്റ	-9.8324
▁പ്രവർത്തിക്ക	-9.83317
▁സോണ	-9.83355
▁തലസ്ഥാന	-9.83368
▁വ്യക്തമല്ല	-9.83563
▁എക്സ്	-9.83585
▁ശ്രമിക്ക	-9.83595
ാനാവില്ല	-9.83609
ക്കാനാണ്	-9.83627
▁ശതമാന	-9.83739
▁ഒട്ട	-9.83766
▁കപ്പല	-9.83791
▁പിതാവ്	-9.83805
▁പാർലമെന്റ	-9.83838
▁കെഎസ്	-9.83958
▁ക്കുമ്പോള്‍	-9.83986
▁പേജ	-9.84009
▁സീറ്റുകൾ	-9.84013
▁മറിച്ച	-9.8408
▁വീടുകള	-9.84106
▁കൂള്‍	-9.8416
▁നുള്ള	-9.84178
▁ഏറ്റെടുക്ക	-9.84199
▁സംശയം	-9.8421
▁ങ്ങളിലും	-9.8427
▁പ്പോ	-9.84354
യന്‍	-9.84402
▁എന്തിന	-9.84418
▁കഴിയും	-9.84588
▁ഓര്‍	-9.8459
▁പ്രീ	-9.84592
▁വിറ്റ	-9.84653
▁സമ്മേളന	-9.84664
മന്ത്രി	-9.84746
▁വിലയിരുത്തല്‍	-9.84754
▁198	-9.84773
▁നേഹ	-9.84817
▁യോടെ	-9.84835
▁അകത്ത	-9.84847
▁ആശ	-9.8491
▁ഇന്നത്ത	-9.84914
▁പരാതിയില്‍	-9.84918
▁കൊണ്ടിരിക്കുന്ന	-9.84945
▁വിമാനം	-9.84988
▁ത്തു	-9.85022
▁തുടങ്ങിയത്	-9.85068
▁സില്‍	-9.85072
▁അധ്യക്ഷൻ	-9.85111
▁ഡിവിഷ	-9.85154
▁59	-9.85284
▁പോളി	-9.85385
▁രാജ്യങ്ങള്‍	-9.85416
▁പരിഷ്	-9.85463
▁എഴുതിയ	-9.85519
▁സൂക്ഷി	-9.85524
▁അജിത്	-9.85599
▁അതൃപ്തി	-9.85605
▁പശ്ചിമ	-9.85605
▁റില	-9.85643
▁ന്‍റെ	-9.85749
▁ലിസ്റ്റ	-9.85822
▁വേണ്ടത്	-9.85825
▁രോഗി	-9.8583
▁അവകാശപ്പെടുന്ന	-9.85866
▁ബില്ല	-9.85881
▁ക്കുന്നതിന	-9.85891
▁ുണ്ടെന്ന്	-9.85898
▁ഇസ്രായേല്‍	-9.8593
▁കരുത	-9.86008
▁ഗുരു	-9.86012
▁രംഗത്തെത്തി	-9.86025
▁ത്തും	-9.86047
▁നടന	-9.86069
▁യുക്രൈന	-9.86101
▁ബഹുമാന	-9.86123
▁ട്ടി	-9.86135
▁മാർച്ച്	-9.86163
▁മുക്ത	-9.86222
ത്തോട്	-9.86235
▁നേതാവും	-9.86286
▁ക്യാ	-9.86352
▁വിദ്യ	-9.8637
▁വടകര	-9.86373
▁വിമര്‍ശിച്ച	-9.86392
കുമാർ	-9.8646
▁തീവ്രവാദ	-9.8658
▁പിടിച്ച്	-9.86613
▁നാരായണ	-9.8663
▁‍റെ	-9.86648
▁മത്സരിക്കാന	-9.86659
▁ഏര്‍പ്പെടുത്തിയ	-9.86682
▁ബജറ്റ്	-9.8672
െഴു	-9.86744
▁വിമര്‍ശന	-9.8676
▁എന്നിങ്ങനെ	-9.86806
▁ിക്കുന്ന	-9.86809
▁4,	-9.86839
▁സന്ദേശ	-9.86839
▁സാധിക്കില്ല	-9.86846
▁ഓക്	-9.86873
▁സംസാരിക്കുന്ന	-9.869
▁യേ	-9.86905
▁അല്ലാതെ	-9.86929
▁രാഷ്ട്ര	-9.86969
ച്	-9.8701
▁ഐടി	-9.87087
▁ന്യൂഡല്‍ഹി	-9.87146
▁അതായത്	-9.87154
▁കര്‍ഷകര	-9.87177
▁തള്ളിയ	-9.87187
▁നാട്ടില്‍	-9.87204
▁ഭവന	-9.87232
▁സ്ഥാപനങ്ങള	-9.87237
▁നിങ്ങളെ	-9.8726
ഗോ	-9.87266
▁കണ്‍	-9.87271
▁തുറക്ക	-9.87279
▁പാറ	-9.87294
▁മുണ്ടാ	-9.87327
ിനി	-9.87393
▁ആര്‍ക്ക	-9.87411
▁കോണ്‍ഗ്രസിനെ	-9.87466
▁വ്യത്യസ്ത	-9.87487
▁കീഴില	-9.87489
▁യുവാവ്	-9.87547
▁ച്ച്	-9.87603
▁ലഭിക്കുക	-9.87638
▁ത്തിനെതിരെ	-9.87659
▁ലംഘിച്ച	-9.87664
▁അതിഥി	-9.87665
▁പരിസര	-9.87665
▁പ്രതിദിന	-9.87688
▁എന്തു	-9.87706
▁പ്രായ	-9.87754
▁കാന	-9.87771
ലിയ	-9.87814
▁കോണ്‍ഗ്രസിന	-9.87832
▁കളിച്ച	-9.87845
▁ജനങ്ങള	-9.8785
ിക്കുകയായിരുന്നു	-9.87863
▁അഴ	-9.87901
ശാല	-9.87915
▁സന്ദര്‍ശന	-9.87925
▁2014	-9.87925
ന്‍സി	-9.87947
േക്കാള്‍	-9.87995
▁ബെഞ്ച	-9.88
▁അനുകൂലമായ	-9.8802
▁ശ്രമങ്ങള	-9.88074
▁ബോട്ട	-9.88078
▁കാലയളവ	-9.88091
▁ജയിലില്‍	-9.88136
▁പേടി	-9.88171
▁രാഷ്ട്രപതി	-9.88191
ടേയും	-9.88191
▁വോട്ടര്‍മാര	-9.88192
▁ആഗസ്റ്റ	-9.88197
നാഥ്	-9.88233
▁69	-9.88325
▁നമ്പര്‍	-9.88417
▁സസ്	-9.8842
▁സുരേന്ദ്രൻ	-9.88431
▁രോ	-9.88446
▁അന്വേഷിക്ക	-9.88479
തീവ	-9.88484
▁നിർദ്ദേശം	-9.88638
▁ൾ	-9.88657
▁കര്‍ശന	-9.88682
▁സൈന്യം	-9.8869
▁മൂല്യ	-9.88712
▁ലോകകപ്പ	-9.88716
▁ജനസംഖ്യ	-9.88719
▁തിരിച്ചറിഞ്ഞ	-9.88722
റിനെ	-9.88762
▁നോട്	-9.8884
▁സൗ	-9.88898
▁സഹോദരന	-9.88923
▁നിയന്ത്രണങ്ങള്‍	-9.8896
▁വീതവും	-9.88974
▁ആസ്തി	-9.88977
▁പ്രവേശനം	-9.8898
▁സഹോദരി	-9.88991
▁അല്ലെങ്കിൽ	-9.88999
▁ചിലർ	-9.89045
▁തമ്മ	-9.89103
ക്കാലത്ത	-9.89124
▁പ്രിയ	-9.8915
▁െടുത്ത	-9.89171
യ്ക്കും	-9.8925
രാമ	-9.89262
യെടു	-9.89276
▁രാമചന്ദ്ര	-9.89337
▁ദൂര	-9.89493
ാഴ്ച	-9.89563
▁അരി	-9.89587
▁വു	-9.89623
▁മഹാരാഷ്ട്രയില	-9.89632
അ	-9.89635
▁64	-9.89688
▁നന്നായി	-9.89725
▁ദുബായ്	-9.89767
▁ക്കണമെന്ന്	-9.89802
▁കുട	-9.89814
!	-9.89873
▁അക്കൗണ്ട	-9.89878
▁അങ്ങ	-9.89913
▁അറിയില്ല	-9.89998
▁വരികയാണ്	-9.90022
▁തൃശൂർ	-9.90033
▁ലൈംഗിക	-9.90033
▁രൂക്ഷമായ	-9.90039
▁ചേർത്ത	-9.90054
▁കത്തി	-9.90089
▁തോന്ന	-9.90206
▁തീരുമാനിച്ചത്	-9.90272
▁പൂര്‍ത്തിയാക്കി	-9.90285
▁കുടി	-9.90291
▁ലക്ഷ്മി	-9.90294
▁നേതാവായ	-9.90369
▁അമ്പ	-9.90372
▁മായിരിക്കും	-9.90375
▁തള്ള	-9.90462
▁കോൺ	-9.90505
▁മടങ്ങിയ	-9.90523
▁ഇള	-9.90541
രാജ്	-9.90613
▁രക്ത	-9.90666
▁അതിനു	-9.90767
▁അപകടം	-9.90778
▁മുരളീധരന്‍	-9.90801
▁വിശദമായ	-9.90818
▁മാരെ	-9.90829
▁തസ്തിക	-9.90868
▁മാള	-9.90908
▁ഗാ	-9.90937
▁നേട	-9.90958
▁സിപിഎമ്മിന	-9.90978
▁ലോകത്തെ	-9.91013
▁കയറ	-9.91037
▁എടുക്കുന്ന	-9.91049
▁സമീപന	-9.91062
▁വുമാണ്	-9.91084
▁ഇറക്കുമതി	-9.91104
▁ആദ്മി	-9.91104
▁വീട്ടിലേക്ക്	-9.91161
▁എത്രയ	-9.91176
▁ഡാറ്റ	-9.91178
▁അതിജീവിത	-9.91205
▁പാമ്പ	-9.91238
▁നിയമിച്ച	-9.91329
▁എയർ	-9.91355
▁കോണ്‍	-9.91381
യേ	-9.9139
▁റൈ	-9.91408
▁എത്തുന്നത്	-9.91418
▁പ്രവേശന	-9.91443
▁പതി	-9.91483
തര	-9.91515
▁യാദവ്	-9.91519
▁വിദ്യാർത്ഥി	-9.91522
▁ചെയര്‍മാന്‍	-9.91534
▁സമ്പര്‍ക്കത്തില	-9.91572
സെ	-9.91604
▁ഇരുന്ന	-9.91649
▁തകര്‍ത്ത	-9.9165
▁റെയില്‍വേ	-9.91653
▁പുറത്തിറക്കിയ	-9.91666
▁വലിച്ച	-9.91692
▁പ്രധാനപ്പെട്ട	-9.91693
▁എൽഡിഎഫ്	-9.91792
▁പുറത്തിറ	-9.91792
റേയും	-9.91861
▁കുത്ത	-9.91867
▁മാരായ	-9.91871
▁ഡയറക്ടര്‍	-9.91915
▁ശര്‍മ	-9.91926
▁നേരിടേണ്ടി	-9.91935
യാണെന്ന്	-9.92015
▁അദ്ദേഹ	-9.92029
▁സാധിക്കുന്ന	-9.92068
▁ഭാഗം	-9.92076
▁സൈബ	-9.92102
▁നിർത്ത	-9.92185
▁ധോണി	-9.92187
▁നമ്മള	-9.92246
▁സമ്പത്ത	-9.92299
▁ആശയ	-9.92311
▁കരാറ	-9.9232
▁63	-9.92351
▁രവി	-9.92358
▁ശാസ്ത്ര	-9.92437
▁നിർത്തി	-9.92478
▁അവകാശപ്പെട്ട	-9.92567
▁സര്‍ക്കാരിനെ	-9.92597
▁നൽകാൻ	-9.92619
പ്പുറം	-9.9266
▁ഏജന്‍സി	-9.92671
ഢ	-9.92732
▁പ്രളയ	-9.92737
▁സാംസ്	-9.92757
▁ആനന്ദ	-9.92776
▁അഭിഭാഷക	-9.92807
▁നൗ	-9.92834
▁രെ	-9.92834
▁ഇപ്പോഴ	-9.92892
▁വിശ്വസിക്കുന്ന	-9.92922
▁പ്രശ്നങ്ങള	-9.92937
▁ദേശ	-9.92955
▁കുറവ്	-9.92968
▁ബിജെപിയും	-9.92972
▁പടിഞ്ഞാറ	-9.93006
▁ലക്ഷ്യമിട്ട	-9.93008
ക്കപ്പെട്ട	-9.93017
▁സമീപം	-9.93086
▁എപ്പോഴും	-9.93088
▁പരിഗണന	-9.93126
▁66	-9.93178
▁മാനേജ്	-9.93201
▁കോണ്‍ഗ്രസും	-9.93254
▁സ്വഭാവ	-9.93281
▁ഇക്കുറി	-9.93281
▁എഫ	-9.93301
▁സതീശന്‍	-9.9338
▁99	-9.93427
▁കുട്ടികളെ	-9.93441
▁മുന്‍പ	-9.93448
▁കിട	-9.93488
▁ഉദ്യോഗസ്ഥന	-9.93489
▁വാര്‍ത്തകള്‍	-9.93536
ോട്ട്	-9.9354
▁പ്രതിയെ	-9.93558
▁യുകെ	-9.93562
▁ബഹു	-9.93564
▁നടത്താ	-9.93636
▁വിഭാഗത്തില്‍	-9.93645
▁നിങ്ങള്‍ക്ക	-9.93676
▁77	-9.93728
തിനായി	-9.93738
▁ക്കുന്നത	-9.93796
▁തുമായ	-9.938
▁റിപ്പോര്‍ട്ടില	-9.9383
▁എറണാകുളത്ത	-9.93833
▁ഭർത്താവ	-9.93833
▁ക്ലാസ	-9.93856
▁കേരളത്തിന്	-9.93883
▁പ്രവർത്തി	-9.93934
▁പഠനം	-9.93991
ൊഴു	-9.94024
▁ൊരു	-9.94086
▁സംഘർഷ	-9.9411
▁ഡ്	-9.94134
▁വിന	-9.94174
▁72	-9.94175
▁ധാ	-9.94181
▁മാപ്പ്	-9.94216
▁വാഴ	-9.9424
▁പ്രതിനിധി	-9.94274
▁മേൽ	-9.94293
▁ഫോര്‍	-9.94306
▁ത്ത്	-9.94385
▁മുസ്	-9.94398
തിക	-9.94434
▁യുണ്ടെന്ന	-9.94456
▁കിറ്റ	-9.94486
▁കെട്ട	-9.94495
▁ഇറങ്ങി	-9.94501
▁തിരു	-9.9452
▁മില്ലാത്ത	-9.9452
▁നീട്ടി	-9.94521
▁മുഖം	-9.94528
▁ഇടപാട	-9.94571
▁ല്ലാ	-9.94661
▁തയ്യാറാക	-9.94661
▁പമ്പ	-9.94667
▁യാണ	-9.94668
▁ബേ	-9.9467
▁ഒഴിവുകള	-9.94679
▁മുഖേന	-9.94683
ുണ്ടെന്ന്	-9.94718
▁ചൂണ്ടിക്കാട്ട	-9.94733
▁തീരുമാനിച്ചു	-9.94792
▁ശതമാനവും	-9.94831
▁ചൂട	-9.94864
മാന്‍	-9.94865
ല്ലേ	-9.94916
▁സംഭാവന	-9.94945
▁ജനകീയ	-9.94946
▁കിടക്ക	-9.94979
▁പകര	-9.94983
▁സ്വാധീനം	-9.94989
▁യായിരുന്ന	-9.94996
▁സുഖ	-9.95004
▁ആണെന്ന്	-9.95129
▁നിങ്ങള	-9.95209
▁വാർഡ	-9.95259
▁ശബ്ദ	-9.95268
▁രോഹിത്	-9.95308
▁തങ്ങൾ	-9.95312
വാര	-9.95318
▁നിന്നെത്തിയ	-9.95341
▁സൗകര്യം	-9.95366
▁ബെംഗളൂരു	-9.95398
യൊരു	-9.95465
▁മത്സരിക്കുന്ന	-9.95477
▁വീട്ടുകാര	-9.9552
▁ആരംഭിക്കുന്ന	-9.95637
▁നിർദേശ	-9.95639
▁പോരാട്ടം	-9.95658
▁പുരസ്	-9.95659
▁പുസ്തക	-9.95672
ത്തിലാ	-9.95694
▁ഞ്ഞ	-9.95698
▁ഹാജരാക	-9.95738
▁തട്ടിപ്പ്	-9.95777
ദാസ	-9.9579
രാജ	-9.95795
▁പറ്റി	-9.95825
▁മാസങ്ങള	-9.95845
▁റിപ്പോർട്ടുകൾ	-9.9591
▁സഹിതം	-9.96073
▁ഇല്ലാതെ	-9.96092
▁അവന	-9.96096
▁കെകെ	-9.96122
▁എംപിമാര	-9.96127
▁ന്യായ	-9.96152
പ്രവർത്തിക്കുന്ന	-9.96177
▁ജീവ	-9.96224
▁മഴയ്ക്ക	-9.96264
▁മഞ്ഞ	-9.96327
▁എതിര്‍പ്പ	-9.96354
▁അതിർത്തി	-9.96368
ജ്ജ	-9.96381
▁സിന്	-9.96441
▁നാട്ടുകാര്‍	-9.9645
▁യുവാവ	-9.96481
▁കൊലപ്പെടുത്തിയ	-9.96554
▁നങ്ങള	-9.96592
▁പ്രത്യേകിച്ച	-9.96597
▁ക്വാ	-9.96605
▁തുടരും	-9.96614
▁ഇടതുമുന്നണി	-9.96638
▁മയക്കുമരുന്ന	-9.96638
▁വാസ	-9.96641
▁യുടേയ	-9.9667
▁ചെയ്യേണ്ട	-9.96708
▁62	-9.96851
▁അബുദാബി	-9.96923
▁നിർബന്ധ	-9.96923
ുകളെ	-9.96947
▁ഞ	-9.97068
▁നയിക്കുന്ന	-9.97088
▁നേട്ടങ്ങള്‍	-9.9709
▁ഇദ്ദേഹത്ത	-9.97096
▁പഞ്ചാബ	-9.97102
▁പോലീസിന്	-9.97119
▁അറസ്റ്റ	-9.97128
▁ആരംഭിച്ചത്	-9.97158
▁ശി	-9.9717
▁പാര്‍	-9.97201
▁കാരന്‍	-9.97212
▁ജെഡിയു	-9.97214
▁കായിക	-9.97221
▁ഖാന്‍	-9.97254
▁ഏജൻസി	-9.97262
▁ആശ്വാസ	-9.97273
▁അവർക്ക	-9.97301
▁പങ്കെടുക്കുന്ന	-9.97309
▁വോട്ടു	-9.97312
▁ചിരി	-9.97377
▁കൊടി	-9.97388
▁തടവ	-9.97443
▁ബാലകൃഷ്ണ	-9.97495
▁ചെയർമാ	-9.97495
▁എഴുതി	-9.97558
നുസരിച്ച്	-9.97593
▁കൊടുക്കുന്ന	-9.97594
ീവ്	-9.97596
▁ചിത്രങ്ങള	-9.97605
▁കുറച്ചു	-9.97681
▁74	-9.97683
▁ചോദ്യത്തിന	-9.97686
▁ക്യൂ	-9.97712
▁ഖാ	-9.97735
▁രേഖപ്പെടുത്ത	-9.97739
▁സെന്ററ	-9.97741
ുണ്ടാവും	-9.97805
▁നൂറ	-9.97855
▁ഡീ	-9.97961
▁ഷീ	-9.97969
▁പറ്റിയ	-9.98022
ക്കാനും	-9.98029
▁നോക്കിയ	-9.98044
▁s	-9.98045
കൂൾ	-9.98052
▁താത്പര്യ	-9.98071
▁സംയുക്ത	-9.98071
▁ദുരിത	-9.9808
▁വക	-9.98166
▁പ്രദേശത്ത്	-9.98168
▁മണ്ഡലങ്ങളില	-9.98174
▁ഡൗണ്‍	-9.98187
▁ക്കാതെ	-9.98247
▁സൗകര്യങ്ങള	-9.98269
െയർ	-9.98313
മെന്നും	-9.98324
▁ദൈവ	-9.98361
▁ങ്ങളുമായി	-9.98375
▁ഇടപെടല	-9.98406
▁ശരിക്കു	-9.98421
പതി	-9.98438
▁നിർദ്ദേശ	-9.98442
▁തൊഴില	-9.98478
▁ഇന്റ	-9.98559
▁ചെയ്യുന്നത	-9.98612
മംഗലം	-9.9865
▁ആയുധ	-9.98654
▁പോലീസിന്റെ	-9.98655
▁തിരുത്ത	-9.98668
▁ലാബ	-9.98721
▁പ്രതിഫല	-9.98738
▁കുറ്റം	-9.98793
▁ളി	-9.98833
▁ഓൺലൈ	-9.9894
▁യഥാര്‍ത്ഥ	-9.9894
▁ക്കാര്‍	-9.98966
▁നാഗ	-9.98969
▁ചർച്ചകൾ	-9.99011
▁നമ്പറ	-9.99018
▁ശനി	-9.99106
▁സുരേഷ	-9.99134
▁85	-9.99136
▁നിലനില്‍ക്കുന്ന	-9.992
▁ശരിയായ	-9.99216
▁കിലോമീറ്റര്‍	-9.99225
▁സംരംഭ	-9.99232
▁ബാബുവ	-9.9924
▁വ്യക്തിപരമായ	-9.99241
▁ആവേശ	-9.99242
▁തിരുവ	-9.99257
▁ഗി	-9.99272
▁സേവനം	-9.99273
▁വിഡി	-9.99295
▁മരുന്ന്	-9.99314
▁സിനേഷന്‍	-9.99333
▁ആയിരിക്കും	-9.99339
▁രാജ്യങ്ങളില്‍	-9.99393
േറെ	-9.99398
▁രമ	-9.99417
▁നിര്‍ദ്ദേശം	-9.99489
▁വോട്ടെടുപ്പ്	-9.99506
▁സീനിയര്‍	-9.99524
▁മിഥുന	-9.99524
▁പ്രധാനമായ	-9.99551
▁മോഡല	-9.99562
▁രാജ്യസഭാ	-9.99607
▁കോര്‍പ്പറേഷന്‍	-9.9964
▁പുരുഷന്‍	-9.99666
▁ജയ്	-9.99718
ര്‍ഗ	-9.99738
▁വേഷ	-9.99803
▁രംഗ	-9.99806
▁വിലയിരുത്ത	-9.99811
▁ദുരിതാശ്വാസ	-9.99817
▁കമല്‍നാഥ	-9.99819
▁എന്തുകൊണ്ട്	-9.99839
▁ഇളവ്	-9.9985
▁പൊളിച്ച	-9.99908
▁ിലേക്ക്	-9.9992
▁മുകളില്‍	-10.0003
▁ാണെന്ന്	-10.0007
▁-1	-10.0011
ാന്തര	-10.0015
▁ക്കല്‍	-10.0018
▁യ്ക്കു	-10.0021
▁വിധ	-10.0021
വിധ	-10.0028
▁വയസ	-10.003
▁ആരെയ	-10.0032
▁വിവാദമായ	-10.0034
▁7,	-10.0034
▁ആരംഭിച്ചു	-10.0036
▁വിഭാഗത്ത	-10.0039
▁റിയാസ്	-10.004
▁കോൺഗ്രസിന്റെ	-10.0043
▁ുമായി	-10.0043
▁വോട്ടുകൾ	-10.0044
▁ഫണ്ട്	-10.0046
▁വിദ്യാർത്ഥികൾ	-10.0051
▁ില്ലേ	-10.0051
▁അഖില	-10.0054
ുണ്ടെങ്കിലും	-10.0056
▁നാവ	-10.0057
▁നല്‍കണമെന്ന	-10.0059
പ്പെടുത്തിയ	-10.0069
▁നടു	-10.0069
▁ഗ്രാമപഞ്ചായത്ത	-10.007
▁ലക്ഷദ്വീപ	-10.007
▁ആൻഡ്	-10.0071
▁പറയാൻ	-10.0071
▁യാത്രാ	-10.0076
▁തയ്യാറ	-10.0078
▁ചിത്രത്ത	-10.0079
▁ഉയര്‍ത്തി	-10.0086
▁ശ്രമിക്കുന്നത്	-10.0094
▁സായി	-10.0096
▁വാര്‍ത്താ	-10.0096
▁കമ്പനികള	-10.0097
▁പ്രശസ്ത	-10.01
▁സത്യപ്രതിജ്ഞ	-10.01
▁സുപ്രധാന	-10.01
▁ഗണേഷ	-10.0101
▁പ്രസ്ഥാന	-10.0108
▁ിരുന്നെങ്കില	-10.0108
യായിരുന്ന	-10.0112
▁ഭരണകൂടം	-10.0118
▁67	-10.012
▁പഠിച്ച	-10.0122
▁നെഗറ്റീവ്	-10.0122
▁ഫേസ്ബുക്കില	-10.0123
▁കാലാവസ്ഥാ	-10.0125
▁ാണെന്ന	-10.0127
▁വൈകീട്ട്	-10.013
▁മഞ്ജു	-10.013
▁പ്രശാന്ത്	-10.0134
▁മുരളീധര	-10.0139
▁എന്നൊക്കെ	-10.0141
▁8,	-10.0141
▁സമ്മേളനം	-10.0143
▁വിമർശനം	-10.0148
▁എന്നിങ്ങനെയാണ്	-10.0149
▁മല്‍സര	-10.0155
▁ഇക്കാര്യ	-10.0161
▁ങ്ങളിലേക്ക	-10.0162
▁സാധാരണക്കാര	-10.0166
ൃഷ	-10.0166
▁കേന്ദ്രമന്ത്രി	-10.0171
▁ല്ലോ	-10.0174
▁പരസ്യമായ	-10.0174
▁കണക്കുകള്‍	-10.0176
▁സഹായിച്ച	-10.0181
▁6,	-10.0183
▁ഗെയിം	-10.0189
▁ദേവസ്വ	-10.019
▁സന	-10.0196
▁ക്കുമ്പോൾ	-10.0196
ുണ്ടോ	-10.0198
▁കാണാൻ	-10.0198
▁78	-10.0206
▁കന	-10.0209
▁ഉത്തര	-10.0213
▁ദൗത്യ	-10.0219
▁ങ്ങളോട	-10.022
▁അടുപ്പ	-10.022
▁എകെ	-10.0227
▁ഇടതു	-10.0232
▁ഴ	-10.0235
▁മുകേഷ്	-10.0239
▁നിശ്ചയിച്ച	-10.024
▁സംസ്ഥാനങ്ങള	-10.0242
▁കള്‍ക്ക്	-10.0242
▁ഗതി	-10.0247
▁മാനദണ്ഡ	-10.0248
▁കാണാതായ	-10.0249
▁നിർണായക	-10.025
ങ്ങാട്	-10.025
▁അര്‍ഹ	-10.0251
ഷ്ണ	-10.0252
▁പോളിംഗ്	-10.0252
▁ഓഹരി	-10.0254
▁താഴ	-10.0254
▁ടെസ്റ്റ	-10.0258
▁ചെയ്യണം	-10.026
▁ഹരി	-10.026
▁നാലാം	-10.0264
ര്‍ട്ട്	-10.0264
മാണെന്ന്	-10.0266
▁സമർപ്പിച്ച	-10.0267
▁അപ്പോഴ	-10.0269
▁തിരഞ്ഞെടുത്ത	-10.027
▁കോലി	-10.0276
പ്പെടുന്നത്	-10.0279
▁ലംഘന	-10.028
▁വാടക	-10.028
▁ഉള്‍പ്പടെ	-10.0281
▁ഗോവ	-10.0281
എന്തെങ്കിലും	-10.0286
▁സ്റ്റോ	-10.0295
▁ശതമാനത്ത	-10.0299
▁മില്ലെന്ന	-10.0299
▁ഫണ്ട	-10.031
g	-10.031
▁വൈകുന്നേര	-10.031
▁ഡോളര്‍	-10.031
▁പക്ഷത്ത	-10.0311
▁ഖത്തറ	-10.0311
ദാന	-10.0313
▁കിലോമീറ്റ	-10.0314
▁സിവില്‍	-10.0314
▁പേരു	-10.0314
▁പരിശീലനം	-10.0315
▁കമ്മീഷൻ	-10.0318
യെങ്കിലും	-10.0318
▁ഹോട്ട്	-10.0319
ോളി	-10.0322
▁സ്ഥലങ്ങളില	-10.0328
ഗത	-10.0334
▁സംഗീത	-10.0341
▁നിലനിര്‍ത്ത	-10.0341
▁പുറപ്പെടുവിച്ച	-10.0341
▁പിടിയിലായ	-10.0341
▁വാള	-10.0341
▁രജ	-10.0343
▁രാജേഷ്	-10.0346
▁കുട്ടികള	-10.0346
▁പിള്ള	-10.0362
▁ദിവസങ്ങള	-10.0363
▁ുണ്ടായ	-10.0366
▁ലോകത്ത്	-10.0368
▁ദിവസമാണ്	-10.0371
▁അരവിന്ദ	-10.0371
കാര്യ	-10.0373
ിലേറെ	-10.0375
ക്കിടെ	-10.038
▁പോവുകയ	-10.0381
▁ബൂത്ത	-10.0384
▁ഉണ്ടാകുന്ന	-10.0385
▁ഉണ്ടായി	-10.0387
▁ക്യാമറ	-10.039
▁മനുഷ്യര	-10.0392
വായ	-10.0395
▁നിർദേശം	-10.0396
▁രം	-10.0399
▁കർശന	-10.0402
▁മഹാമാരി	-10.0402
▁പോരാട	-10.0404
▁കുഴ	-10.0405
▁തുല്യ	-10.0408
▁സ്ത്രീകള്‍	-10.0409
▁പ്രവാസികള	-10.0414
▁ഉച്ച	-10.0418
▁വിധേയ	-10.0424
▁ഞങ്ങള	-10.0428
▁കോഴ	-10.0431
▁കല്യാണ	-10.0431
▁ലോകം	-10.0432
▁വക്താവ്	-10.0432
▁ശൈലജ	-10.0432
▁നല്‍കുക	-10.0433
▁ആള്‍	-10.0436
▁ഭീതി	-10.0438
▁ണം	-10.0442
▁ട്ട്	-10.0449
ാവൂ	-10.0452
▁അംഗീകാരം	-10.0453
▁അവസാനിച്ച	-10.0454
▁കിടന്ന	-10.0457
▁സന്ദര്‍ശിച്ച	-10.0457
ാന്ത	-10.0459
▁മാലിന്യ	-10.0463
▁കുടിയേറ്റ	-10.0464
▁കാര്യത്തിൽ	-10.0468
▁യ്ക്കുള്ള	-10.0469
▁തകർ	-10.0474
▁ദിനം	-10.0475
▁തെലങ്കാന	-10.0479
▁സീറ്റുകളില്‍	-10.048
▁തെളിയിക്കുന്ന	-10.048
▁ജീ	-10.048
▁ത്തിലേക്ക	-10.0482
▁ചീ	-10.0491
മാരുടെ	-10.0494
▁അക്കാദമി	-10.0494
▁ഉത്തർപ്രദേശ	-10.0494
▁എല്ലാവര്‍ക്കും	-10.0494
ശുദ്ധ	-10.0495
പ്പോയ	-10.0504
▁സൂക്ഷിച്ച	-10.0505
▁കുറഞ്ഞത്	-10.0507
▁ആവശ്യമാണ്	-10.0508
▁ായിരിക്കും	-10.0509
▁കാറ്റ	-10.051
▁പന	-10.051
▁പ്രചരണം	-10.0513
▁ആഗ്രഹ	-10.0517
▁പ്രൊ	-10.0523
▁സൈനികര	-10.0527
▁പട്ടേല	-10.0527
▁പേരില	-10.0528
▁ഹെല്‍	-10.0528
▁കാവ	-10.0535
▁കഴിയാത്ത	-10.0535
▁നിലവിലുള്ള	-10.054
▁രൂപീകരിക്ക	-10.0541
▁മുകളില	-10.0543
▁കൃത്യ	-10.0545
▁സമ്പര്‍ക്ക	-10.0548
▁ഇതൊക്കെ	-10.0548
രിഞ്ഞ	-10.0549
ദേശ	-10.0552
▁പനി	-10.0553
▁കുട്ടികളുടെ	-10.0554
▁കരുതുന്ന	-10.056
▁വാർത്താ	-10.0561
▁ബന്ധപ്പെട	-10.0562
▁രാജ്യസഭ	-10.0569
▁ഇറാന്‍	-10.0569
▁2000	-10.0572
▁ഒരാളെ	-10.0577
▁സ്ഥലങ്ങള	-10.0581
▁ഉറവിടം	-10.0587
▁കേന്ദ്രസർക്കാർ	-10.0587
▁ആരോഗ്യമന്ത്രി	-10.0593
▁പ്രായം	-10.0595
▁പോസിറ്റീവ്	-10.0596
▁ചുമത്തിയ	-10.0596
ിറങ്ങിയ	-10.06
▁ദൃശ്യ	-10.0604
▁പരിഗണിക്കുന്ന	-10.0615
▁വാട്	-10.0615
▁ഉന്നയിക്കുന്ന	-10.0616
▁പീഡിപ്പിച്ച	-10.0618
▁ടാ	-10.0622
▁തരം	-10.0628
▁എഴു	-10.0633
മൊരു	-10.0634
▁പരിഹസിച്ച	-10.0637
▁ജീവന	-10.0638
▁പ്രത്യേകത	-10.0641
▁കട്ട	-10.0643
ധാര	-10.0648
▁നല്‍കുമെന്ന	-10.0649
▁ഗെലോട്ട	-10.065
▁സർവീസ്	-10.065
▁പുലര്‍ത്ത	-10.065
▁ഉളള	-10.065
ാണെന്ന	-10.065
▁സ്വര്‍ണവില	-10.0652
▁എതിര്‍	-10.0659
▁വൃത്ത	-10.066
▁പ്രവർത്തിച്ച	-10.066
ണമ	-10.0664
▁വയനാട്ടില	-10.0665
ീകൃത	-10.0667
▁ഹോം	-10.0669
▁ഷന	-10.0674
▁ഭാഗങ്ങളില	-10.0677
▁പ്രശ്നം	-10.0679
▁സത്യം	-10.068
▁ആനുകൂല്യ	-10.0681
▁ബാനര്‍ജി	-10.0681
▁സര്‍ക്കാറ	-10.0681
▁കളായ	-10.0685
▁ചെയ്തത	-10.0685
▁രക്ഷപ്പെട്ട	-10.069
▁ലീഡ്	-10.0692
▁300	-10.0697
▁ആരാണ്	-10.0697
▁അൽ	-10.07
▁സിനെ	-10.0702
ിഷ്ട	-10.0702
▁രാം	-10.0703
▁വേളയില്‍	-10.0703
▁ചരിത്രം	-10.0707
▁വിപണിയില	-10.0708
▁ക്കൂ	-10.0721
▁അംഗങ്ങള്‍	-10.0726
▁സഞ്ചാര	-10.0729
▁ക്ഷമ	-10.0733
ബ്ര	-10.0736
▁പൈസ	-10.0739
▁ഡോക്ടറ	-10.0744
▁സംസാരിക്കുകയ	-10.0746
മിന	-10.0747
▁മുന്‍കൂ	-10.0753
▁നിലവാര	-10.0754
I	-10.0754
▁സ്ഥാപനങ്ങളില	-10.0763
▁94	-10.0766
▁ഉത്തരവാദിത്ത	-10.0767
െത്തുന്ന	-10.0769
▁ഉണ്ടായിരുന്നത്	-10.0772
ാദി	-10.0775
നിശ്ചിത	-10.0776
▁നിയോഗിച്ച	-10.0776
▁മണിക്കുട്ടന	-10.0776
R	-10.0776
▁മടങ്ങി	-10.0779
▁തിലൂടെ	-10.0787
▁കോര്‍	-10.0792
▁അതുകൊണ്ടാണ്	-10.0797
▁കൊല	-10.0798
▁വന്നതോടെ	-10.0801
ക്കണമെന്ന	-10.0801
▁സമ്മതിച്ച	-10.0805
▁മാത്യു	-10.0808
▁സ്റ്റാഫ	-10.0812
▁മികവ	-10.0813
▁ചെലവ്	-10.0818
▁വോ	-10.0819
മാകുന്ന	-10.0822
▁നേതാവാണ്	-10.0824
▁പ്രശ്നങ്ങൾ	-10.0826
▁മെട്രോ	-10.0827
▁പരിശോധനാ	-10.0829
▁ിട	-10.0832
▁ആയിര	-10.0834
▁മിക്ക	-10.0837
▁മുന്നോടിയായ	-10.084
▁ശ്രദ്ധേയ	-10.0841
▁അപേക്ഷിക്കാം	-10.0844
▁10,	-10.0848
▁മണിക്കൂറിനിട	-10.085
▁ദില്ലിയില്‍	-10.0853
▁വൈറലായ	-10.0857
▁76	-10.0859
▁96	-10.086
▁ആക്ട	-10.0865
യാന	-10.087
▁ലൈഫ	-10.087
▁ഗുജറാത്തില	-10.0872
▁മിശ്ര	-10.0872
▁തിരുമാന	-10.0873
▁സന്തോഷം	-10.0875
ദേവ	-10.0875
▁ആളാണ്	-10.0881
▁ായി	-10.0881
▁അകല	-10.0886
▁നഗരത്തില	-10.0887
▁ചെന്ന	-10.0888
▁ശേഖരിച്ച	-10.0891
▁ഉമ്മ	-10.0893
▁വീട്ടിലെത്തി	-10.0899
▁കഴിയുന്നത്	-10.09
▁ഉദ്ധരിച്ച	-10.0904
▁തോല്‍വി	-10.0904
▁കളിലേക്ക്	-10.0909
▁പ്രിയപ്പെട്ട	-10.091
▁യത്	-10.0911
▁ജീവന്‍	-10.0912
▁കുറവാണ്	-10.0917
▁സർക്കാരിന്	-10.0917
▁മാക്കി	-10.0919
▁ഉണ്ടാവും	-10.0925
▁മാറും	-10.0925
▁നിഷേധിച്ച	-10.093
▁കുറ്റപത്ര	-10.0936
▁കളക്ടർ	-10.0936
▁ജില്ലകളിലും	-10.0942
▁പ്രമേയം	-10.0945
▁കിട്ടുന്ന	-10.0945
മുണ്ടാ	-10.0946
▁നടത്തുക	-10.0946
▁സാധിക്കുമെന്ന	-10.0947
▁ശര	-10.0952
▁11,	-10.0955
▁കുടുംബത്തില	-10.0959
▁അധികൃതര	-10.0962
▁ജനങ്ങള്‍ക്ക്	-10.0965
▁അപേക്ഷിച്ച	-10.0966
▁ഉദ്യോഗാര്‍ത്ഥി	-10.0969
▁രാജസ്ഥാന്‍	-10.0972
▁കുട്ടികള്‍	-10.0972
ാർത്ഥ	-10.0974
ശേരി	-10.0974
▁സന്ദേശം	-10.0975
▁ഡാ	-10.0978
ാണെങ്കിലും	-10.0987
▁തനി	-10.0987
▁യാദവ	-10.0987
▁ഓഫീസില്‍	-10.0989
▁അടിസ്ഥാനത്തിൽ	-10.099
▁ഒപ്പ	-10.0994
▁ഉണ്ടെങ്കി	-10.0996
ുമായിരുന്നു	-10.0999
▁ഒഴിവാക്കിയ	-10.1
▁ഖത്തര്‍	-10.1001
▁ഉണ്ടെന്ന്	-10.1003
▁കൊണ്ടുപോയ	-10.1003
▁നിയമസഭയില്‍	-10.1005
▁ഇപ്പോഴിത	-10.1007
▁ക്രിമിനല	-10.1008
ആക്രമിക്കപ്പെട്ട	-10.1011
▁ചോദിക്കുന്നു	-10.1013
▁കണക്കുകൾ	-10.1019
▁73	-10.1019
▁ൻ്റെ	-10.1023
▁സമ്മേളനത്തില	-10.1025
▁കഴിയില്ല	-10.1026
▁രാശിയില	-10.1031
▁വര്‍ദ്ധി	-10.1031
▁അടക്കമുളള	-10.1034
▁വിദ്വേഷ	-10.1034
▁ഉയര്‍ന്നു	-10.1034
▁കുഞ്ഞിനെ	-10.1035
▁ഭാഗത്ത	-10.1039
▁ഉദ്യോഗസ്ഥരെ	-10.1043
▁കുറിച്ചും	-10.105
▁71	-10.1051
▁വന്നാല്‍	-10.1055
▁മണിയോടെ	-10.1056
▁197	-10.106
▁ലൈ	-10.1061
തിനിടെയാണ്	-10.1062
▁ബംഗാള്‍	-10.1066
▁തെളിഞ്ഞ	-10.1066
▁വെളിപ്പെടുത്തിയ	-10.1067
▁തടഞ്ഞ	-10.1077
▁ംഗ	-10.1078
▁നടത്തുമെന്ന	-10.1082
▁പ്ലസ്	-10.1092
▁ക്രൈംബ്രാഞ്ച്	-10.1093
▁സ്വാമി	-10.1096
▁പ്രവേശിക്ക	-10.1099
▁രാജസ്ഥാനില	-10.11
▁ഉച്ചയ്ക്ക്	-10.1105
▁ലൈന്‍	-10.1106
▁യുണ്ടാ	-10.1112
▁ഇട്ട	-10.1116
▁ജോണ്‍	-10.1118
▁മറിയ	-10.1119
▁അപ്രതീക്ഷിത	-10.112
▁ഉം	-10.1126
▁അതിവേഗ	-10.1132
▁ഖാന	-10.1134
▁ദളിത്	-10.1135
▁വിദ്യാർത്ഥികള	-10.1136
▁തീരത്ത	-10.1138
▁ചികിത്സയില്‍	-10.1138
▁വസ്തുത	-10.1147
▁പ്രകട	-10.1147
▁ത്തുന്ന	-10.1147
▁സജ്ജ	-10.1159
▁ഇന്ത്യയെ	-10.1159
▁റിസ	-10.1159
▁വ്യാപന	-10.1161
▁ഉറപ്പാണ്	-10.1161
ക്കാവുന്ന	-10.1163
▁ലാഭം	-10.1164
▁നടപ്പാക്കുന്ന	-10.1167
▁തലശേരി	-10.1168
▁ഓഫീസർ	-10.1168
ിക്കാനുള്ള	-10.1171
▁വള്ള	-10.1176
▁പൈലറ്റ്	-10.1176
▁",	-10.1177
▁രാജു	-10.1178
▁വരാന്‍	-10.1181
▁വികസനം	-10.1183
▁ഭീ	-10.1189
▁കർഷക	-10.119
▁രോഗബാധ	-10.1197
▁ബുദ്ധി	-10.1198
▁ബജറ്റ	-10.1201
▁കുവൈത്ത	-10.1204
▁ക്കാരന	-10.1204
▁മരണങ്ങള	-10.1206
▁ഉത്തരവിട്ട	-10.1207
ലേറ്റ	-10.1208
▁എംഎല്‍എമാര്‍	-10.1208
▁ക്കരുതെന്ന	-10.1214
▁കാരനായ	-10.1214
▁ശതമാനമാണ്	-10.1214
▁നടൻ	-10.1215
▁ഫൈസ	-10.122
▁ബന്ധുക്കള	-10.1227
▁പ്രതിയായ	-10.1228
കട	-10.123
▁ാല	-10.123
▁കണ്‍ട്രോള്‍	-10.1231
▁വകഭേദ	-10.1231
▁നിരാശ	-10.1231
▁വസ്തുക്കള	-10.1233
▁പാസാ	-10.1233
▁വിളിക്കുന്ന	-10.1234
▁രാജേന്ദ്ര	-10.1235
▁യുണ്ടായ	-10.1236
▁നടത്തുകയും	-10.1236
യിലെത്തിയ	-10.1237
▁തുടര്‍	-10.1245
▁ത്രി	-10.1251
▁മാരും	-10.1252
▁എന്തിനാണ	-10.1252
▁നൽകിയിട്ടുണ്ട്	-10.1261
▁പോകാൻ	-10.1265
▁ഏപ്രിൽ	-10.1265
▁സൂരജ	-10.1265
▁സ്റ്റേറ്റ്	-10.127
▁മാധ്യമങ്ങളോട്	-10.1274
▁ഇതിനു	-10.1275
▁ആക്രമി	-10.128
▁ഒന്നര	-10.1281
▁പിന്തുണയ്ക്ക	-10.1289
▁വരുത്തിയ	-10.1296
▁അദാനി	-10.1298
▁ഇന്ത്യാ	-10.1302
▁മാറുന്ന	-10.1306
▁അറ്റ	-10.1307
▁നിങ്ങൾക്ക	-10.1312
▁മാകും	-10.1313
ഗ്ഗ	-10.1315
▁ഐസക്	-10.1317
▁വേണ്ടെന്ന	-10.132
▁ഗാന	-10.1321
▁സേവ	-10.1324
ആ	-10.1325
▁400	-10.1327
▁റെയ്ഡ	-10.1333
▁പുതുപ്പള്ളി	-10.1334
▁ഫൈ	-10.1342
▁വല്ല	-10.1345
▁വിലയിരുത്തി	-10.1346
▁79	-10.1348
▁ക്കിയ	-10.135
▁യുദ്ധം	-10.1353
▁മാണിത്	-10.1353
▁അധിക്ഷേപ	-10.1365
▁ഉപരോധ	-10.1365
▁കിരീട	-10.1365
▁ആശ്രയ	-10.1365
ുതന്നെ	-10.1366
ാനന്തര	-10.1366
▁അഖിൽ	-10.1366
▁ക്രിസ്ത്യ	-10.1366
പറമ്പ	-10.1367
ിറങ്ങി	-10.1369
▁പ്രയാസ	-10.137
▁പ്പോഴും	-10.1371
▁ഓഫ	-10.1373
▁സമാന	-10.1376
▁കാസര്‍കോട്	-10.1377
▁ഷൂട്ട	-10.138
▁നെതിരെ	-10.1381
സര്‍ക്കാര്‍	-10.1383
▁ആരംഭിക്ക	-10.1387
കക്ഷി	-10.1389
▁സെക്	-10.1392
▁മ്പ	-10.1396
▁കാസർഗോഡ്	-10.1399
▁ശരാശരി	-10.1399
▁2015	-10.1399
▁വെട്ട	-10.1402
▁ദിവസങ്ങളില	-10.1405
▁ഇതിനക	-10.1407
▁നഴ്	-10.1413
▁61	-10.1419
▁ബൈ	-10.1419
▁സമര്‍പ്പിക്ക	-10.1421
▁97	-10.1422
▁ലായിരുന്നു	-10.1432
▁ഓസ്	-10.1436
ിരിക്കും	-10.144
▁വരവ	-10.1444
▁(3	-10.1446
▁89	-10.1448
▁ബാധിക്കുന്ന	-10.145
▁88	-10.145
▁ക്രമ	-10.145
▁ഭാഗ്യം	-10.1457
▁ഉട	-10.1458
ുകാർ	-10.1463
▁ഉറപ്പിച്ച	-10.1465
T	-10.1467
▁വളര്‍ച്ച	-10.1467
▁യഥാർത്ഥ	-10.1467
▁വര്‍ഗീയ	-10.1468
▁വിജയിച്ചത്	-10.1469
▁സിസ്റ്റ	-10.147
▁പ്രയോഗ	-10.1472
▁ട്രോള	-10.1478
▁ഉള്‍പ്പെടുന്ന	-10.148
▁ത്തിലായിരുന്നു	-10.1485
▁വ്യക്തിയാണ്	-10.1488
▁ദ്വീപ	-10.149
▁ഗ്രൂപ്പുകള	-10.1494
▁82	-10.1494
▁പരിഹാരം	-10.1496
▁നിർമ്മാണ	-10.1501
▁2011	-10.1501
▁ശിശു	-10.1501
▁ബിഎസ്പി	-10.1501
▁സർക്കാറ	-10.1501
▁തുടർച്ചയായ	-10.1502
മീറ്റര്‍	-10.1503
▁തിരച്ചില	-10.1506
ത്തിലൂടെ	-10.1511
▁െടുക്ക	-10.1512
▁നിരീക്ഷണത്തില്‍	-10.1512
▁മരുന്ന	-10.1518
▁വെളിപ്പെടുത്തല	-10.1525
▁കഷ്ട	-10.1527
▁പരിശീലന	-10.153
െണ്ണ	-10.1535
▁ക്കാത്ത	-10.1536
▁പ്രദേശത്ത	-10.1538
▁പ്രായമുള്ള	-10.154
▁കോട്ടയത്ത	-10.1541
▁ദിവസങ്ങളിൽ	-10.1542
▁അധ്യക്ഷനായ	-10.1547
▁തിരിക്കാന	-10.1549
▁അധ്യക്ഷന	-10.1552
▁ബാലചന്ദ്ര	-10.1559
▁നീള	-10.1559
▁ആദിവാസി	-10.157
▁ഉപേക്ഷിച്ച	-10.157
▁എന്തുകൊണ്ടാണ	-10.157
▁ബിന്ദു	-10.1571
▁തോതില	-10.1571
▁കോളനി	-10.1584
▁ങ	-10.1585
▁അജ	-10.1591
▁വയസ്	-10.1594
യെന്ന്	-10.1594
▁മസ്	-10.1596
▁നേരിയ	-10.1597
▁ബോര്‍ഡ	-10.1597
▁ത്താ	-10.1599
▁സാക്ഷ്യ	-10.1604
▁േഴ്	-10.1606
പുര	-10.1609
▁യെക്കുറിച്ച	-10.1614
▁ബിജു	-10.1622
▁പോസിറ്റിവ	-10.1639
▁പൂര്‍ത്തിയാ	-10.1641
▁താലിബാന്‍	-10.1642
▁വിലക്ക്	-10.1642
▁പഞ്ചാബില	-10.1644
▁വ്യാപക	-10.1644
▁മുറ	-10.1652
▁റൂട്ട	-10.1653
▁പാഠ	-10.1654
▁മാല	-10.1655
▁അഹമ്മദ്	-10.1656
▁അപ്	-10.166
പൂര്‍	-10.1661
▁അധ്യക്ഷത	-10.1663
▁യാണോ	-10.1664
▁റോള	-10.1664
▁വട്ട	-10.167
▁കമല	-10.1671
y	-10.1674
▁വർഗീയ	-10.1674
▁പറഞ്ഞത	-10.1677
▁സുധാകരൻ	-10.1682
▁അസം	-10.1684
▁വാക്സിന്‍	-10.1695
▁പൂര്‍ണ	-10.1697
▁രാജയോഗ	-10.17
െയിന	-10.1702
▁ത്തോട	-10.1704
▁തോട്ട	-10.1704
▁കളിലൂടെ	-10.1705
▁അമിത	-10.1706
▁ചേരുന്ന	-10.1712
▁പ്രവർത്തനങ്ങള	-10.1712
▁കത്ത	-10.1712
▁എന്തൊക്കെ	-10.1717
▁വിമർശിച്ച	-10.1726
സാര	-10.1736
▁വണ്ടി	-10.1736
▁ആവശ്യപ്പെട്ടത്	-10.1742
▁പകുതി	-10.1744
▁സന്തോഷ്	-10.1745
▁ഉപദേശ	-10.1745
▁ഡീസല	-10.1745
▁നാട്ടിലേക്ക്	-10.1746
▁ആർക്ക	-10.1749
▁പോര്‍ട്ട	-10.175
▁വരുന്നു	-10.1751
▁മറന്ന	-10.1752
▁ക്രിസ്	-10.1761
▁പ്രസാദ്	-10.1765
▁ഓട	-10.1766
S	-10.1766
▁പ്പോഴാണ്	-10.1774
▁തമിഴ്നാട്	-10.1777
▁സംഭവങ്ങള	-10.1777
▁പക്ഷം	-10.1777
▁വാക്ക്	-10.1778
▁രേഖകള്‍	-10.1778
▁സന്നദ്ധ	-10.1779
▁കെഎം	-10.1781
▁ചെയ്യുന്നതിന	-10.1782
എൽ	-10.1783
▁വെളിപ്പെടുത്ത	-10.1786
▁കൈയ്യ	-10.1788
വിള	-10.1789
▁മാണ	-10.1789
▁ക്കിടയില	-10.1791
▁പങ്ക്	-10.1795
▁നിലപാടാണ്	-10.1804
▁ല്ലേ	-10.1805
▁മാറ്റങ്ങള്‍	-10.1809
▁പ്രകൃതി	-10.1814
▁ശക്തിപ്പെടുത്ത	-10.1815
റ്റിക്	-10.1815
▁സീറ്റുകളില	-10.1819
▁വര്‍ഷമായി	-10.1821
▁തിരിച്ചെത്ത	-10.1822
ന്‍റെ	-10.1823
▁പച്ച	-10.1824
▁ആശുപത്രിയിലേക്ക	-10.1825
▁ഇതില	-10.1826
▁ആശുപത്രിയിലെ	-10.1826
▁യെയും	-10.1826
▁പരാമര്‍ശം	-10.183
▁വിശ്വാസം	-10.1831
▁ആശുപത്രികളില	-10.1832
▁നാസ	-10.1843
▁150	-10.1844
▁സ്പീക്കര്‍	-10.1849
▁ചലച്ചിത	-10.1849
▁സ്ഥാപനങ്ങൾ	-10.1851
▁സാധനങ്ങള	-10.1851
ില്ലാതെ	-10.1852
▁ആരോപണങ്ങള	-10.1857
▁ജാമ്യ	-10.1859
▁നിശ്ചയ	-10.186
ാകുന്ന	-10.1862
▁ദേവി	-10.1865
▁ചെയ്തിട്ടില്ല	-10.1872
▁ത്തിലുള്ള	-10.1875
▁പുലര്‍ച്ചെ	-10.1885
▁പോലീസുകാര	-10.1885
▁പദ്ധതികള്‍	-10.1885
▁ഘട്ടത്തില	-10.1887
▁ആവശ്യമില്ല	-10.1888
▁ഉണ്ണി	-10.1888
▁ബോര്‍ഡ്	-10.1892
▁കൊലപാതകം	-10.1899
▁തൊഴിലാളികള	-10.1899
▁കണ്ണു	-10.1901
▁മന്ത്രാലയ	-10.1903
▁ത്തിയത്	-10.1913
ടുക്ക	-10.1913
▁പ്രതിനിധികള	-10.1918
▁നേതൃ	-10.1918
▁ഗവർണർ	-10.192
▁പ്രോസിക്യൂഷന	-10.192
▁മത്സ്യ	-10.192
▁എംബസി	-10.192
▁പലിശ	-10.1921
▁വെയ്	-10.1921
കരാർ	-10.1926
▁പുറത്തായ	-10.1929
▁ഇരട്ട	-10.1932
▁ഉത്തര്‍	-10.1937
▁തുറ	-10.1938
▁വിധേയമാ	-10.1946
▁മുള	-10.1955
ാര്‍ത്ഥ	-10.1956
D	-10.1956
▁ചൂണ്ടിക്കാണിച്ച	-10.1956
▁ധൈര്യ	-10.1956
▁അത്ഭുത	-10.1956
▁ഓട്ടോ	-10.1956
▁കഴിയുമെന്ന	-10.196
▁പൊലീസിന്	-10.1961
▁സംസ്ഥാനങ്ങള്‍	-10.1963
▁സ്ഥാനാര്‍ത്ഥികള	-10.1968
▁എഴുത	-10.1971
▁അധികാരത്തിലെത്ത	-10.1972
ുവെന്ന്	-10.1977
▁നല്‍കേണ്ട	-10.1985
െല്ലാ	-10.1989
▁മാകുന്ന	-10.1991
▁ഉദ്ഘാടന	-10.1991
▁ഗവേഷണ	-10.1992
▁പിന്നിൽ	-10.1993
▁ആശുപത്രികളില്‍	-10.1994
▁സഹായത്തോടെ	-10.1996
▁കുറഞ്ഞു	-10.1997
▁മാധ്യമങ്ങൾ	-10.1997
▁പ്രകാശ്	-10.1999
മായിട്ടാണ്	-10.2003
▁ആരോ	-10.2006
▁ിക്കുകയ	-10.2007
▁ഫയല	-10.2009
▁മത്സരാർത്ഥി	-10.201
▁ഇതിനെതിരെ	-10.2018
▁കേസുകളില്‍	-10.2018
▁സ്ഥാപനങ്ങള്‍	-10.2019
ോധന	-10.202
▁സാധിക്ക	-10.2027
▁വെറുതെ	-10.2028
േണ്ടതുണ്ട്	-10.203
▁ജയരാജന്‍	-10.203
▁പങ്കാളി	-10.203
▁സംസ്ഥാനങ്ങളില	-10.2031
▁മേല	-10.2033
▁ഡോക്ടര്‍	-10.2034
നീയ	-10.2034
▁സ്വത്ത	-10.204
▁അഖില്‍	-10.2046
▁തുടരുമെന്ന	-10.2047
▁സംഘടിപ്പിക്ക	-10.2057
▁സ്ഥാ	-10.2063
▁ഡയറക്ടർ	-10.2064
▁മറികടന്ന	-10.2064
▁മനോരമ	-10.2064
▁സാധിച്ചു	-10.2064
▁ഇതെല്ലാ	-10.2066
േശ്വര	-10.2066
▁ദുബായില	-10.2066
▁കൊണ്ടുവരാന	-10.2071
േഴ്സ്	-10.2072
▁ലോക്ക	-10.2078
▁പറഞ്ഞാല്‍	-10.2079
▁വാഹനങ്ങള്‍	-10.2082
▁ആര്‍എസ്എസ്	-10.2082
▁അതിനാൽ	-10.2084
▁നടപ്പിലാക്ക	-10.2085
▁മൃതദേഹ	-10.2093
▁റെക്കോര്‍ഡ	-10.21
▁ഡ്യൂട്ടി	-10.21
▁ഒഴിഞ്ഞ	-10.21
▁കഴിഞ്ഞാല്‍	-10.2102
ർത്ഥ	-10.2114
പിടി	-10.2115
▁സ്റ്റേ	-10.2121
▁സംവിധാനങ്ങള	-10.2123
▁പൂർണമായ	-10.2126
▁വേണമെന്ന്	-10.2134
▁ശസ്ത്രക്രിയ	-10.2136
▁സൂചിപ്പിച്ച	-10.2136
▁കഥാപാത്ര	-10.2136
▁അറിയിപ്പ	-10.2142
▁അളവ	-10.215
▁പുറത്താക്കിയ	-10.2152
▁സ്വീകരിച്ചത്	-10.2152
▁86	-10.2155
▁ജനം	-10.2158
▁വെക്കുന്ന	-10.2163
▁കുഴി	-10.2164
▁പ്രവർത്തനം	-10.2165
▁അഭിനയ	-10.2168
▁പിടികൂട	-10.2169
▁ഏഷ്യാനെറ്റ	-10.2173
ുള്‍പ്പെടെ	-10.2173
▁അപകടത്തില്‍	-10.2174
▁പുറത്തേക്ക്	-10.2183
▁ലാഭ	-10.2189
ബ്ബ	-10.219
▁വകുപ്പുകള	-10.2192
▁മധ്യപ്രദേശില	-10.2193
ൂടെയാണ്	-10.2202
▁ഭര്‍ത്താവ്	-10.2204
▁ഉദയ	-10.221
▁അഖിലേഷ്	-10.2211
നെതിരായ	-10.2222
▁തിരിച്ചെത്തിയ	-10.2224
▁പൂർ	-10.2225
▁നായര്‍	-10.2225
▁അതിക്രമ	-10.2229
▁ന്നും	-10.223
▁98	-10.2232
▁സംരക്ഷിക്ക	-10.2241
▁തെരഞ്ഞെടുപ്പില	-10.2241
▁കാട്ടാന	-10.2241
▁പോകും	-10.2244
▁ശാരീരിക	-10.2246
▁അർഹ	-10.2247
▁അവസരങ്ങള	-10.225
▁റൂ	-10.2251
▁പോള്‍	-10.2257
▁ചാര	-10.2259
▁കളെല്ലാം	-10.2259
▁ആരോപിക്കുന്നു	-10.2264
▁മാര്‍ക്കറ്റ	-10.2268
▁ഉയർത്തിയ	-10.2274
▁യൂണിയന	-10.2278
▁കമന്റ	-10.2282
▁ഒടുവിൽ	-10.2283
▁ഹേമ	-10.2285
▁തൊഴിലാളികള്‍	-10.2285
ീരിയ	-10.2292
▁പാര്‍ക്ക	-10.2299
വിട്ട	-10.2302
▁ഉറപ്പു	-10.2305
▁ജയിലില	-10.2306
ദീപ്	-10.2309
▁നേതാവിനെ	-10.2309
▁ചെയ്യുന്നുണ്ട്	-10.232
▁പദ്ധതികള	-10.232
▁അയാൾ	-10.232
▁വഴങ്ങ	-10.2324
▁ആലുവ	-10.2324
▁പശ്ചാത്തലത്തിൽ	-10.2326
▁ചെയ്യാം	-10.2327
▁സ്വന്തമാക്കിയ	-10.2329
▁ലഭിക്കുന്നത്	-10.2335
സംബ	-10.2347
▁(4	-10.2348
▁യൊക്കെ	-10.2355
▁ഇടവേള	-10.2357
▁ബാധ്യത	-10.2357
▁ഇടം	-10.2358
▁പവന്‍	-10.236
▁മൂല്യം	-10.2361
▁പാര്‍ട്ടിക്ക്	-10.2363
▁സ്വന്തമായ	-10.2363
▁പക്ഷ	-10.2365
▁കുടു	-10.2366
▁മുന്നേറ്റ	-10.2368
▁അജയ്	-10.2368
▁പറയേണ്ട	-10.2369
▁ഉത്തരം	-10.2379
▁നിര്‍ദ്ദേശ	-10.2379
മൂല	-10.2385
▁ിക്കാൻ	-10.2387
▁ഭരണഘടനാ	-10.2387
▁ബാധിതര	-10.2388
▁ുണ്ടോ	-10.2391
▁ഗാസ	-10.2394
▁ആഹ്വാനം	-10.2395
▁പുറത്തുവരുന്ന	-10.2396
▁സിനിമയില	-10.2397
നെതിരെ	-10.24
▁മടി	-10.2403
▁പുക	-10.2405
▁നേതൃത്വത്തിന്	-10.2406
▁താരങ്ങള്‍	-10.2408
▁അകലം	-10.2408
േജ്	-10.2411
▁അംഗത്വ	-10.2413
▁83	-10.2414
▁തയ്യാറായില്ല	-10.2414
ാകുമെന്ന	-10.2415
കാന്ത	-10.2416
▁ക്ഷണിച്ച	-10.2419
▁കാണുന്നു	-10.242
▁പ്രവേശിച്ച	-10.2422
▁ഉമ	-10.2422
▁ഭാരവാഹി	-10.2423
▁ചരിത്രത്തില	-10.2424
▁ധാരാളം	-10.2428
▁ഉയർന്നു	-10.243
▁ആക്ഷേപ	-10.2437
▁ിക്കുമെന്ന	-10.2437
▁ഹാജരാക്ക	-10.244
▁കസ്റ്റഡിയില്‍	-10.2443
▁ഷെയ	-10.2447
▁മുഖ്യമന്ത്രിയെ	-10.2448
▁സിദ്ധ	-10.2448
▁കസ്റ്റംസ്	-10.2451
▁പ്രതികൾ	-10.2456
▁92	-10.2458
ംബര	-10.2459
മുറ	-10.2459
▁ആരാധകര്‍	-10.2465
▁വയസുള്ള	-10.2466
▁ദക്ഷിണ	-10.247
▁പതാക	-10.247
▁വസതി	-10.247
▁സ്വാഗതം	-10.2471
▁പട്ടികയിൽ	-10.2474
▁ട്രോ	-10.2481
▁പേർക്ക	-10.2488
▁ആശുപത്രികള	-10.249
ണ്ണി	-10.2496
ദര	-10.2498
▁വീട്ടിലെ	-10.2501
▁പരിഹാര	-10.2507
മീറ്റർ	-10.2507
E	-10.2507
▁പുലർത്ത	-10.2508
▁കേവല	-10.251
▁ലോറി	-10.2515
▁കാരം	-10.2521
▁ആരോപണങ്ങള്‍	-10.2529
▁ലക്ഷ്യമിടുന്നത്	-10.2533
▁ഗാന്ധിയെ	-10.2536
▁പ്പിച്ച	-10.2537
▁നയതന്ത്ര	-10.2545
▁ചലഞ്ച	-10.2545
▁അവകാശവാദ	-10.2547
▁ഉയര്‍ത്തിയ	-10.256
▁യോഗത്തില	-10.2562
▁ജനങ്ങൾക്ക	-10.2564
▁നയം	-10.257
▁പ്രേക്ഷകര	-10.2572
▁വിന്	-10.2574
▁യുമായിരുന്നു	-10.2574
▁പ്പെടുന്ന	-10.2576
▁ആവശ്യപ്പെട	-10.2579
▁സിദ്ദിഖ	-10.2583
▁ഒരാഴ്ച	-10.2584
▁സംസാര	-10.2586
▁വംശ	-10.2587
▁സമഗ്ര	-10.2587
▁സുനില്‍	-10.2589
▁കരുതി	-10.2596
▁ഒഴിവാക്കി	-10.26
▁വളര്‍ത്ത	-10.2602
ത്തര	-10.2611
▁95	-10.2614
▁ഭീഷണിപ്പെടുത്ത	-10.2616
▁നല്‍കുകയ	-10.2617
▁മണ്ഡലങ്ങളില്‍	-10.2621
▁സംഭാഷണ	-10.2622
▁റിനോഷ	-10.2622
▁തകർന്ന	-10.2622
▁ചിത്രങ്ങൾ	-10.2623
▁എല്ലാവർക്കു	-10.2624
▁സർവ്വേ	-10.2629
▁പിന്നീട	-10.2637
▁റദ്ദാക്കിയ	-10.2638
പ്പാറ	-10.264
▁തെളിയിക്ക	-10.2645
▁മുന്നേ	-10.2653
▁മുന്നേറ്റം	-10.2656
▁കേള്‍ക്ക	-10.2658
▁ഭൂരിഭാഗ	-10.266
കുഞ്ഞാലിക്കുട്ടി	-10.266
▁പാക്കേജ	-10.266
▁അക്കൗണ്ട്	-10.2661
▁കൂളില	-10.2661
▁ഓഫിസ	-10.2662
▁വനംവകുപ്പ	-10.2662
▁അവസാനിപ്പിച്ച	-10.2666
ിരിക്കെ	-10.2666
▁കക്ഷികള	-10.2668
▁വാക്ക	-10.2673
▁രാജ്യങ്ങളില	-10.2675
ാവശ്യപ്പെട്ട	-10.2679
▁നേതാവുമായ	-10.268
▁കൊള	-10.2681
▁എന്നിവിടങ്ങളി	-10.2682
▁കണ്ണൂരില്‍	-10.2682
▁അമ്പല	-10.2683
▁നാഥ്	-10.2685
▁മിനിറ്റ	-10.2689
▁വീഴ്ത്ത	-10.2695
▁സുധ	-10.2697
▁ഉത്തരാഖണ്ഡ	-10.2698
▁രവീന്ദ്ര	-10.2698
▁ചിഹ്ന	-10.2698
▁പരിഹാസ	-10.2698
▁ശ്വാസ	-10.2699
▁ഗ്രാം	-10.27
ക്കുളം	-10.2701
▁പടി	-10.2703
▁കീഴില്‍	-10.2707
▁തട്ട	-10.2711
▁കാപ്പ	-10.2715
▁എൽഡിഎഫ	-10.2716
▁തുടർ	-10.2717
മേറ്റ	-10.2719
▁ലഖ്	-10.2721
ുണ്ടാക്കിയ	-10.2725
▁മകള്‍	-10.2726
▁പിന്‍വലിക്ക	-10.2726
▁ഞെട്ടിച്ച	-10.2726
▁കൗ	-10.2727
▁സഞ്ചരിച്ച	-10.2729
▁നൂറ്	-10.273
▁കർഷകർ	-10.2731
▁നാഷണ	-10.2733
▁ഉമ്മന്‍ചാണ്ടി	-10.2737
▁ചെലുത്ത	-10.2737
▁ഗൃഹ	-10.2737
▁സന്ദീപ്	-10.274
▁ചാടി	-10.2744
▁വ്യാപി	-10.275
▁തലത്തില	-10.2751
▁നിമിഷം	-10.2752
▁ഭാഗമാ	-10.2754
▁വാക്കുകള്‍	-10.2754
▁സംസാരിച്ചു	-10.2755
യാസ	-10.2757
▁തിനാണ്	-10.2759
▁നഷ്ടപ്പെട	-10.2762
▁കാർഡ്	-10.2763
▁ഉയർത്തി	-10.2766
▁രോഗികള്‍	-10.2768
▁ലക്ഷ്യത്തോടെ	-10.2779
ഗിരി	-10.278
▁തലശ്ശേരി	-10.278
▁അറിവ	-10.2784
▁രാശിക്കാർക്ക	-10.2785
തിനൊപ്പം	-10.2787
▁അവസാനം	-10.2791
ചികിത്സയിലുള്ളത്	-10.2791
▁കരുതുന്നു	-10.2799
▁ിലും	-10.2802
▁ടേ	-10.2804
▁ഡിഎംകെ	-10.2811
▁ജീവനക്കാര്‍	-10.2811
▁പൂര്‍ത്തിയായ	-10.2814
▁നഷ്ടപരിഹാര	-10.2815
▁ശശീന്ദ്ര	-10.2815
▁േക്കാം	-10.2815
▁അനൂപ്	-10.2816
▁ആണെന്ന	-10.2821
▁ആദിത്യനാഥ	-10.2822
▁ജീവനക്കാരെ	-10.2833
▁മണിക്കൂര്‍	-10.2839
▁കളായി	-10.2841
▁c	-10.2846
▁അഫ്ഗാ	-10.2847
▁നടത്തണമെന്ന	-10.285
p	-10.2854
▁ട്രാന്‍സ്	-10.2854
▁വീണാ	-10.2854
▁ബൈജു	-10.2854
▁മോഹന്‍ലാല്‍	-10.2855
▁ബന്ധുക്കള്‍	-10.2859
▁വ്യക്തമാ	-10.2859
▁ിരിക്കുകയാണെന്ന	-10.286
▁നിര്‍ബന്ധ	-10.286
▁വാഗ്ദാന	-10.2863
▁ഒന്നിച്ച	-10.2863
▁അറബ	-10.2874
▁രായ	-10.2885
▁വിവാദം	-10.2886
▁C	-10.2886
▁ദശലക്ഷ	-10.2893
▁ഗള്‍ഫ്	-10.2893
▁അസുഖ	-10.2893
▁രഞ്ജി	-10.2893
▁രേഖപ്പെടുത്തി	-10.2893
▁പഠിക്ക	-10.2894
▁നടപടിയെടുക്ക	-10.2895
▁സൗത്ത്	-10.2901
▁യാണെങ്കില്‍	-10.2906
▁വീടിന്	-10.291
▁84	-10.2916
▁റെഡ്	-10.2917
▁വാര്‍ഡുകള	-10.2919
▁ക്കിടയില്‍	-10.2924
▁നൽകിയിരുന്നു	-10.2927
▁മോഹന്‍	-10.293
▁അനുവദിക്കുന്ന	-10.2933
▁നായകന	-10.2933
▁ലയ	-10.2934
▁സംഘത്തെ	-10.2937
▁നുണ	-10.2938
ങ്ങാടി	-10.2938
▁സാന്നിധ്യ	-10.294
▁1000	-10.2942
▁ബിരുദം	-10.2944
▁ങ്ങളിലൂടെ	-10.2949
▁എന്നിട്ടും	-10.2949
▁കേന്ദ്രങ്ങളില	-10.2956
▁അറിയപ്പെടുന്ന	-10.2961
▁ഹാള	-10.2963
▁ുളള	-10.2976
▁കേൾക്ക	-10.2977
▁തെറ്റി	-10.2979
▁ഇടിവ	-10.2981
▁വര്‍ധനവ	-10.2984
പോലെ	-10.2985
▁ബാക്കിയുള്ള	-10.2987
▁ഞെട്ട	-10.2989
▁ക്കുറിച്ച്	-10.2989
▁കാരണമെന്ന	-10.2991
▁87	-10.2994
▁സ്ഥിരീകരിച്ചവര	-10.2997
▁പിടിക്കുന്ന	-10.3
▁ആരെങ്കിലും	-10.3004
▁ശരത്	-10.3007
▁അഭയ	-10.3013
▁ഉടനെ	-10.3015
▁ബേബി	-10.3018
▁ഏഷ്യ	-10.302
▁റിലീസ്	-10.303
▁ഡികെ	-10.3032
▁I	-10.3039
▁തിരഞ്ഞെടുപ്പിന	-10.3042
▁പൊതുജന	-10.305
▁പാര്‍ട്ടികള്‍	-10.3051
▁ജലനിരപ്പ്	-10.3051
▁വരാനിരിക്കുന്ന	-10.3052
ിനിടെ	-10.3052
▁മെച്ച	-10.3053
▁പരിധിയില	-10.3053
▁ഇടയില	-10.3053
▁കാര്‍ഡ്	-10.3055
ാക്രമണ	-10.307
▁രേഖകള	-10.3073
▁ട്വീറ്റ	-10.3077
▁ഫോർ	-10.3091
▁കാർഷിക	-10.3091
▁തേജസ്വി	-10.3091
▁സന്ദർശന	-10.3091
▁കഞ്ചാവ	-10.3091
▁സുന്ദര	-10.3093
▁വെച്ചു	-10.3094
▁അക്കാര്യ	-10.3094
▁മുടക്ക	-10.3095
▁ദാസ്	-10.3099
▁തരംഗ	-10.3102
▁റ്റോ	-10.3109
▁സഖ്യത്ത	-10.3119
▁ടാസ്	-10.312
▁ശബ്ദം	-10.3125
▁മാതാപിതാക്കള	-10.3128
▁ലിമിറ്റഡ	-10.3131
കണ്ഠ	-10.3131
▁സമാജ്	-10.3132
▁ജീവനക്കാർ	-10.3132
ക്കാതെ	-10.3133
▁കളിലേക്ക	-10.3137
▁ക്ഷണിച്ചു	-10.3146
▁വർധനവ	-10.3149
▁യുവതിയെ	-10.3156
▁വേള	-10.3157
▁അത്തരമൊര	-10.3158
▁മുക്ക	-10.3167
▁ലാല്‍	-10.3172
▁പിന്നിട്ട	-10.3172
▁റാവു	-10.3176
▁വഴക്ക	-10.3177
▁കുറേ	-10.3181
▁പ്ലാന്‍	-10.3182
▁മേഖലകളില്‍	-10.3185
▁തിരിഞ്ഞ	-10.3189
▁പതിനായിര	-10.319
▁ശക്തമാണ്	-10.3193
▁കളുടേ	-10.3194
▁പ്രകാശ	-10.3204
▁ക്കാനായി	-10.3211
▁മലയോര	-10.3212
▁ഫ്രണ്ട്	-10.3214
▁മകൻ	-10.3214
▁റെഡ്ഡി	-10.3217
▁ദില്ലിയിലെ	-10.3219
▁പവന്	-10.322
▁ഉൾപ്പെടുന്ന	-10.3224
▁നിര്‍ത്തിയ	-10.3231
▁നീല	-10.3232
▁ഇവിട	-10.3234
▁പ്രാധാന്യം	-10.3236
▁നഷ്ടം	-10.3236
▁ഉണ്ടാകുമെന്ന	-10.3239
കുളം	-10.3243
▁ഗുണ്ട	-10.3244
▁ആപ്പ	-10.3244
▁നിലയില	-10.3245
▁നര	-10.3246
▁യിലായിരുന്നു	-10.3246
▁അനുബന്ധ	-10.3246
▁ചുമത്ത	-10.3253
▁പ്രവചിച്ച	-10.3253
▁കലക്ടര്‍	-10.3253
▁കാര്യത്തിലും	-10.3253
▁എഡിറ്റ	-10.3254
▁നിയന്ത്രണങ്ങള	-10.3256
▁ഹമാസ	-10.3257
പാത	-10.3264
▁(8	-10.3269
▁മുകളിൽ	-10.3275
▁ജീവൻ	-10.3288
▁കാമ	-10.3288
▁ഒമാന	-10.329
▁ഉപമുഖ്യമന്ത്രി	-10.3294
▁വായിക്കാം	-10.3294
▁വ്യോമ	-10.3294
▁ലുലു	-10.3294
▁പോലീസിനെ	-10.3294
▁ജെഡിഎസ	-10.3295
▁അടിസ്ഥാനമാക്കി	-10.3296
▁9,	-10.3298
▁കിടില	-10.3299
▁പ്രതികള	-10.3301
▁സംസ്ഥാനങ്ങളിൽ	-10.3301
▁കണക്കിലെടുത്ത്	-10.3306
▁ഞ്ച	-10.3308
▁ഏറ്റുമുട്ട	-10.3311
▁തെരഞ്ഞെടുപ്പിൽ	-10.3314
▁നല്‍കണം	-10.3317
▁പാകിസ്താന	-10.3318
▁തെളിവുകള്‍	-10.332
▁ിലാണ്	-10.332
▁മാനേജര്‍	-10.332
ണിയ	-10.3321
▁ഇടിച്ച	-10.3321
▁പയ്യ	-10.3323
▁ബാബ	-10.3328
▁കോഴ്	-10.3329
▁ക്രീ	-10.3331
▁താല്‍ക്കാലിക	-10.3335
▁അന്തരീക്ഷ	-10.3335
▁മൊബൈൽ	-10.3335
▁മില്യണ	-10.3335
▁ആകാശ	-10.3335
▁600	-10.3336
▁വരിക	-10.3338
▁ശ്രമിച്ചു	-10.3341
▁വാക്കുകൾ	-10.3342
പ്രകാരം	-10.3348
▁വിടുന്ന	-10.3352
▁ലൂ	-10.3354
▁വലുത	-10.3356
▁വരുത്തി	-10.3358
▁നോട	-10.3364
▁മേയര്‍	-10.3364
▁കൊല്‍ക്കത്ത	-10.3376
▁ടൗണ	-10.3376
▁നശിപ്പിക്ക	-10.3377
▁വിശദമായി	-10.3378
▁പുറപ്പെടു	-10.3379
▁ഏതാന	-10.3381
▁വരുമ്പോള്‍	-10.3387
▁പങ്കാളിത്ത	-10.3387
▁ില്ലെങ്കിൽ	-10.339
▁വന്നപ്പോള്‍	-10.3394
▁പോവുന്ന	-10.3397
▁പ്രസംഗം	-10.3398
▁സര്‍വ	-10.3401
▁വർദ്ധ	-10.3401
▁മാർക്ക	-10.3405
▁വേണമെങ്കി	-10.3412
▁നരേന്ദ്രമോദി	-10.3417
▁രാധാകൃഷ്ണന	-10.3417
▁വില്‍പ്പന	-10.3417
▁പബ്ലിക്	-10.3417
▁ഇറ്റലി	-10.3417
▁തുടങ്ങുന്ന	-10.3419
▁ഡ്രൈവറ	-10.342
▁വിമാനങ്ങള	-10.342
രൂപ	-10.3422
C	-10.3424
▁ഏരിയ	-10.3425
▁അധികാരത്തില്‍	-10.3425
▁ുമായ	-10.3426
▁അയാള	-10.3428
▁മത്സരിക്കുന്നത്	-10.3431
▁ദൃശ്യങ്ങൾ	-10.3432
വാല	-10.3437
▁ന്ത	-10.3438
▁പേർക്കും	-10.3439
▁ആപ്പ്	-10.3444
ടക്കമുള്ള	-10.3445
▁ഹരിത	-10.3445
▁സംസ്ഥാനങ്ങളിലെ	-10.3445
▁നാട്ടിലെ	-10.3446
ാനന്ദ	-10.3449
ൊടു	-10.3451
▁എംവി	-10.3451
▁വസ്തു	-10.3459
▁ചുഴലിക്കാറ്റ	-10.3459
▁ചൗധരി	-10.3459
▁താക്കറെ	-10.3459
▁തൃശ്ശൂര	-10.3459
▁സമ്പദ്	-10.3459
▁ഫോടന	-10.3459
▁അലർട്ട	-10.346
▁ആൾ	-10.346
▁അവശ്യ	-10.3463
▁ഭരണകൂട	-10.3465
▁അറിയുന്ന	-10.3467
▁ജു	-10.3474
▁ബില്‍	-10.3475
▁പ്രാധാന്യ	-10.3477
▁ങ്	-10.3477
▁മാത്രമായിരുന്നു	-10.348
▁സൈന്യത്ത	-10.3483
കരണ	-10.3484
▁എത്തും	-10.3484
▁സ്വാ	-10.3494
▁പോകുമെന്ന	-10.3497
▁യാളാണ്	-10.3498
▁ശാല	-10.3499
▁ഡിജിപി	-10.35
▁കളക്ടറ	-10.35
▁വൈകിയ	-10.3501
▁രാജിവച്ച	-10.3503
▁യായിരിക്കും	-10.3507
ാവുന്നതാണ്	-10.3511
▁കഴിയില്ലെന്ന	-10.3511
▁സാധ്യതയുള്ള	-10.3512
▁സ്വർണ്ണ	-10.3512
▁കൗണ്ട	-10.352
▁ഇരട്ടി	-10.352
▁പലതും	-10.352
▁ഓഫീസറ	-10.3526
▁ആലോചിച്ച	-10.353
▁വിദ്യാര്‍ഥി	-10.3533
▁നഴ്സ	-10.3535
▁മുത്ത	-10.3538
▁ഐശ്വര്യ	-10.3542
▁സെല്‍	-10.3545
▁പറയാം	-10.3547
▁പ്രവചനം	-10.3548
മില്ലാതെ	-10.3548
▁ട്വിറ്ററ	-10.3549
▁പെടുത്ത	-10.3554
▁സംഭവിച്ചത്	-10.3554
▁വിട്ടത്	-10.3557
▁13,	-10.3557
▁ബൈഡന്‍	-10.3558
▁എടുത്തത്	-10.3561
▁സാധിച്ചില്ല	-10.3565
▁ാണിത്	-10.3571
▁സാന്നിധ്യം	-10.3572
▁വീട്ടു	-10.3574
▁ഒറ്റയ്ക്ക	-10.3574
▁കളുണ്ട്	-10.3575
▁ഫോണില	-10.3576
▁തൊ	-10.3578
▁നെല്ല	-10.3579
▁അഭിനയിച്ച	-10.3581
ാനാകില്ല	-10.3582
▁ആസൂത്രണ	-10.3584
▁സര്‍വകലാശാല	-10.3584
▁ശേഷവും	-10.3584
▁മാധവ	-10.3585
▁കാരണങ്ങള	-10.3588
▁സെക്രട്ടറിയേറ്റ	-10.3592
▁മൃഗ	-10.36
ക്ഷൻ	-10.3602
▁ജന്മ	-10.3602
▁മാകുമെന്ന	-10.361
▁കൊടുത്തു	-10.3612
▁നേടുന്ന	-10.3613
▁സർക്കാരിനെ	-10.362
▁നൽകുന്നത്	-10.3624
▁നിയമപരമായ	-10.3626
▁പ്രചരിക്കുന്ന	-10.3626
▁വിഭജന	-10.3626
▁റെയിൽവേ	-10.3626
▁നിലനിർത്ത	-10.3626
▁മീറ്ററ	-10.3627
▁നമ്പർ	-10.3627
▁മനോജ്	-10.3628
▁ഉയര്‍ത്ത	-10.3629
▁എങ്കില	-10.363
യോഗ്യ	-10.3636
▁യ്ക്കെതിരെ	-10.364
▁കാര്യങ്ങളില്‍	-10.3644
ുവഴി	-10.3644
▁പ്പോഴ	-10.3648
▁സാറ	-10.3649
▁ഭാഗമാണ്	-10.365
▁91	-10.3651
▁നിരീക്ഷി	-10.3651
▁സില	-10.3651
▁എങ്ങനെയാണ	-10.3656
▁പെരുമാറ	-10.3658
▁മാറ്റിയത്	-10.3659
▁ഏഴു	-10.3664
▁ചിറ്റ	-10.3666
▁സംവിധായകന്‍	-10.3669
▁ഓറഞ്ച്	-10.3669
▁മതേതര	-10.3669
▁പുനഃ	-10.3669
▁സഞ്ജയ	-10.3669
▁അപമാനിക്ക	-10.367
▁ബീഹാറില	-10.3674
▁കേന്ദ്രങ്ങള	-10.3676
കുല	-10.3677
▁ഏജന്‍സികള	-10.3678
▁സെറ്റ	-10.3681
▁കാര്യമില്ല	-10.3682
▁ഗോവിന്ദ	-10.3685
▁ിട്ടുണ്ടോ	-10.3686
▁ഇരുപത	-10.3689
▁ബോർഡ്	-10.3691
▁അന്വേഷിക്കുന്ന	-10.3691
▁ക്രൂരമായ	-10.3691
▁ശാന്ത	-10.3695
▁പ്രവേശിപ്പിക്ക	-10.3699
▁കുടുംബങ്ങള	-10.3701
▁കയ്യില	-10.3709
▁നീര	-10.371
▁തിനെതിരെ	-10.371
▁ഉറപ്പുവരുത്ത	-10.3711
▁ശ്രീലങ്ക	-10.3711
▁അടയ്ക്ക	-10.3713
▁രുടെ	-10.3717
▁ഭേദ	-10.3719
▁സാധ്യമാ	-10.3723
▁ക്കുന്നു	-10.3724
▁ആരോപിക്കുന്നത്	-10.3725
മണി	-10.3727
▁കർഷകര	-10.3727
▁അനാവശ്യ	-10.373
ിനേക്കാള്‍	-10.3732
▁ഘട്ടം	-10.3736
▁ക്കുമ്പോഴ	-10.3738
▁വഴിയാണ്	-10.3745
▁മുരളീധരൻ	-10.3746
പ്രവര്‍ത്തകര്‍	-10.3747
▁നേരിടാന	-10.375
▁പിടികൂടിയത്	-10.375
▁കയറ്റി	-10.3752
▁ബസ്സ	-10.3753
v	-10.3754
▁ഉദാഹരണ	-10.3754
▁ബലാത്സംഗ	-10.3754
▁റിപ്പബ്ലിക്	-10.3754
▁സംഭവിക്കുന്ന	-10.3756
▁വരുന്നുണ്ട്	-10.3762
▁രൂക്ഷമായി	-10.3762
▁യായിരുന്നുവെന്ന	-10.3768
▁ദൃശ്യങ്ങള	-10.3773
▁പ്രഭാ	-10.3785
▁ചായ	-10.3788
▁ഓടെ	-10.379
▁അനുവദിക്കില്ല	-10.3792
▁രക്ഷാ	-10.3792
▁യില്ലെന്ന	-10.3795
▁പ്രതിമാസ	-10.3797
▁മോട്ടോ	-10.3797
▁സമ്പന്ന	-10.3797
▁ചൗഹാന	-10.3798
▁ജനിച്ച	-10.3798
▁പിൻവലി	-10.3799
▁വാഹനങ്ങള	-10.38
▁ഉണ്ടാക്കുന്ന	-10.3806
▁പ്ല	-10.381
▁കാവ്യ	-10.3813
മുടി	-10.3814
▁റ്റേഷന	-10.3816
▁അഭിമുഖത്തില	-10.3819
ിനോ	-10.382
▁കളിക്കുന്ന	-10.3821
▁ഇരിക്കുന്ന	-10.3823
▁നടപ്പാക്കിയ	-10.3824
▁ിരിക്കെ	-10.3825
▁സൈബര	-10.3827
▁സ്ഥലത്തെത്തി	-10.3832
▁തിരിച്ചടിയായ	-10.3835
▁പിന്‍വലിച്ച	-10.3835
▁സര്‍വീസ	-10.3836
▁ഇടപെടല്‍	-10.3837
▁വരവ്	-10.3838
▁എസ്ഡിപിഐ	-10.384
▁സതീശൻ	-10.384
▁വ്യ	-10.384
▁ലൂടെ	-10.3844
▁വെളിപ്പെടുത്തി	-10.3848
▁ആരാധകര	-10.385
മുഖ	-10.3851
▁മണിപ്പൂര	-10.3852
▁അയ്യ	-10.3852
▁സ്വന്തമാക്ക	-10.3854
▁കളയ	-10.3865
▁മധ്യപ്രദേശ്	-10.3867
▁ന്യൂസ	-10.3868
▁പ്ലാന	-10.3869
▁മില്ലാതെ	-10.387
ിനുള്ളിൽ	-10.3873
▁കുട്ടികള്‍ക്ക	-10.3873
▁കമന്റ്	-10.3874
▁കടുപ്പ	-10.3876
▁ലൈന	-10.3881
ന്ത്ര	-10.3883
▁ട്രേഡ	-10.3886
▁വോട്ടെടുപ്പ	-10.3886
▁പിതാവ	-10.3895
▁സണ്‍	-10.3896
▁ഭാഗങ്ങള	-10.3898
▁കന്നി	-10.3898
▁താങ്ങ	-10.3899
▁ിരിക്കുന്നതെന്ന	-10.3902
▁നടക്കുന്നുണ്ട്	-10.3903
▁എതിര	-10.3907
▁ഭര്‍ത്താവ	-10.3912
▁ഭാര	-10.3914
▁കൈമാറി	-10.3914
▁രജിസ്	-10.3921
▁രക്ഷപ്പെട	-10.3923
▁പാവ	-10.3923
▁ക്കരുത്	-10.3924
▁ില്ലെങ്കിലും	-10.3924
▁ആഡംബര	-10.3927
▁കമ്മറ്റി	-10.3927
▁സ്ഥാനാർഥി	-10.3927
▁കൊല്ലത്ത	-10.3944
▁പരിചയം	-10.3945
വേലി	-10.3948
▁സംശയിക്കുന്ന	-10.3951
▁ബൈഡന	-10.3958
▁സ്ത്രീകളെ	-10.3959
▁പെയ്	-10.3961
▁മടക്ക	-10.3962
▁ക്കില്ല	-10.3963
▁മത്സരിപ്പിക്ക	-10.3963
▁വൃത്തങ്ങള	-10.3969
▁ലഭ്യമാ	-10.397
▁റോഡില	-10.397
▁അടിയന്തിര	-10.3971
▁ഡിപ്ലോമ	-10.3971
▁സ്വര്‍ണക്കടത്ത	-10.3971
▁നാട്ടിൽ	-10.3971
▁ചൂണ്ട	-10.3971
ിറക്കി	-10.3975
▁ആരിഫ	-10.398
▁നീട്ട	-10.3989
▁നാഷണല	-10.3989
▁പറ്റില്ല	-10.3991
▁നൽകും	-10.3993
▁ഡാമ	-10.3994
▁സമരത്ത	-10.3999
▁ആണെന്നും	-10.4001
▁സ്ഥാപിക്ക	-10.4013
f	-10.4014
▁രംഗത്തുവന്ന	-10.4014
▁അന്ത്യ	-10.4014
▁പൗരന്മാര	-10.4016
▁പഞ്ചായത്തുകള	-10.4016
▁തൊട്ടടുത്ത	-10.4016
ദിത്യ	-10.4017
കെട്ട	-10.4017
▁ഒറ്റപ്പെട്ട	-10.4018
▁വനം	-10.4024
▁തകര്‍ക്ക	-10.4024
▁കൊലപ്പെടുത്ത	-10.4024
▁വണ്‍	-10.4027
▁പേരുകള	-10.4031
▁കെയര്‍	-10.4033
▁നദി	-10.4035
▁സമ്മതി	-10.4036
▁മണിക്കൂറിനുള്ള	-10.4037
▁സതീശന	-10.4043
▁എത്തുമെന്ന	-10.4043
▁യാകും	-10.4044
▁മുംബൈയില	-10.4045
▁കാരന	-10.405
▁നിലയിലാണ്	-10.4051
▁നടത്തിയെന്ന	-10.4054
▁ശത്രു	-10.4058
▁ബംഗാൾ	-10.4058
▁സംബന്ധമായ	-10.4058
▁ഹിന്ദി	-10.4059
er	-10.4061
▁കുംഭ	-10.4061
▁യ്ക്കായി	-10.4063
▁ിനൊപ്പം	-10.4065
▁തീര്‍ത്ത	-10.4067
▁യഥാ	-10.4068
▁മുദ്രാവാക്യം	-10.4071
25	-10.4075
ാണിത്	-10.4081
▁ക്യാപ്റ്റന്‍	-10.4081
▁ക്കേ	-10.409
▁ഷോപ്പ	-10.4095
▁അതിനുള്ള	-10.4097
▁ആര്‍ജെഡി	-10.4103
▁ന്യൂഡൽഹി	-10.4103
▁എഐസിസി	-10.4103
▁സൂപ്രണ്ട	-10.4103
▁ചൊവ്വ	-10.4103
▁തുറമുഖ	-10.4103
▁ചന്ദ്രശേഖര	-10.4103
▁ടാക്	-10.4104
▁ഫൈനല	-10.4104
▁ദിവസമായി	-10.4109
▁വര്‍ധിപ്പിക്ക	-10.411
▁പദ്ധതികൾ	-10.4111
▁ഭാരവാഹികള	-10.4113
▁അനിൽ	-10.4115
പരമായി	-10.4117
A	-10.4118
▁പിടിക്കാന്‍	-10.412
▁നടത്തുന്നുണ്ട്	-10.4123
▁സ്വീകരിച്ചു	-10.413
▁നന്ദ	-10.413
▁യുടേ	-10.414
▁ിക്കാന്‍	-10.4144
▁തകര	-10.4147
▁അവലോകന	-10.4147
▁സ്പെഷ്യ	-10.4147
ുൾപ്പെടെ	-10.4147
▁ഹരീഷ	-10.4148
▁പുറത്തിറങ്ങിയ	-10.415
▁താങ്കള	-10.4151
▁മിഷന്‍	-10.4152
▁വയല	-10.4158
▁ശ്ര	-10.4158
▁ഫീസ്	-10.4162
▁S	-10.4163
▁ഡോക്ടര്‍മാര്‍	-10.4166
▁ഉള്‍പ്പെടുത്തിയ	-10.4167
▁വിശ്വ	-10.4167
▁ഘട്ടത്തിൽ	-10.4173
േണ്ടതില്ല	-10.4176
▁ക്കാർ	-10.4181
▁ഉറപ്പായ	-10.4184
▁മണിക്കൂറില്‍	-10.4186
▁ഹാജരായ	-10.419
കളിലായി	-10.419
▁ധര്‍മ	-10.4192
▁മലപ്പുറത്ത	-10.4192
▁പട്ടികജാതി	-10.4192
▁വർധിച്ച	-10.4192
▁ദോഷ	-10.4192
▁വിഹിതം	-10.4192
▁താഴ്ന്ന	-10.4192
▁ആധുനിക	-10.4197
▁വികാര	-10.4198
▁തോന്നി	-10.42
▁ശ്രമിച്ചത്	-10.4202
▁കാത്തിരിക്കുന്ന	-10.4203
▁ഫിറോസ	-10.4203
വിരുദ്ധ	-10.4206
▁ബ്രിട്ടീഷ	-10.4217
▁പാലിക്കണമെന്ന	-10.4221
▁ആറാ	-10.4221
▁മുങ്ങി	-10.4221
െയര്‍	-10.4223
▁മോഹന	-10.4225
▁പ്രസ്	-10.4229
▁മുഖത്ത	-10.4236
▁പലസ്തീ	-10.4237
▁അമൃത	-10.4237
▁ബിഷപ്പ	-10.4238
▁വേണുഗോപാല്‍	-10.4239
▁യില്ലാത്ത	-10.4239
ായുധ	-10.4242
▁തങ്ങളെ	-10.4246
▁എത്തുക	-10.4246
▁സര്‍വ്വേ	-10.4249
▁യുവാവിനെ	-10.4252
ഡിപി	-10.4252
▁സാഹചര്യങ്ങള	-10.4256
▁ലഭിക്കാന	-10.4256
▁ചിറ	-10.4259
▁നിയന്ത്രണങ്ങൾ	-10.4261
▁സൃഷ്ടിക്കുന്ന	-10.427
▁നെടു	-10.4273
▁ആരംഭിക്കും	-10.4277
▁കളോ	-10.4278
▁ഇംഗ്ലീഷ	-10.4282
▁ജുഡീഷ്യ	-10.4282
▁രോഗവ്യാപന	-10.4282
▁ജില്ലയിലും	-10.4282
▁നാണെന്ന	-10.4283
യുണ്ടായ	-10.4285
▁ജ്യോതിഷ	-10.4288
▁കുട്ടികൾ	-10.4288
▁തിരുവല്ല	-10.4289
▁വില്ലേജ	-10.4292
▁സഹായിക്കുന്ന	-10.4298
▁ലക്ഷണങ്ങള	-10.43
▁ജോയി	-10.43
വുമായ	-10.4302
▁വാന	-10.4304
▁വില്ല	-10.4305
▁സീസ	-10.4306
▁ഡ്രൈവര്‍	-10.4307
▁പാര	-10.4309
▁A	-10.4311
▁പാര്‍ട്ടിയെ	-10.4311
സര്‍ട്ടിഫിക്കറ്റ	-10.4315
▁മാക്കുന്ന	-10.4316
▁പുറപ്പെട്ട	-10.432
ാറില്ല	-10.4324
▁പ്രൊഫ	-10.4324
▁പൊട്ടിത്തെറി	-10.4327
▁മന്ദിര	-10.4327
▁പ്രതാപ	-10.4327
ത്തിലുള്ള	-10.4328
▁കേസെടുക്ക	-10.4331
▁അജണ്ട	-10.4332
▁അധ്യാപകര	-10.4332
▁ഡോസ	-10.4334
▁ചടങ്ങില	-10.434
▁ട്രേറ്റ	-10.4344
▁ബാങ്കുകള	-10.4347
▁സിദ്ദു	-10.4357
▁റോബിന്‍	-10.436
▁196	-10.4361
▁കാര്യങ്ങളാണ്	-10.4362
▁വിദഗ്ധര	-10.4364
▁വിജിലന്‍സ്	-10.4372
▁തൊഴിലാളികളെ	-10.4373
▁ഡിംപല	-10.4373
▁മേടം	-10.4373
▁ക്രൂഡ	-10.4374
▁പറമ്പില	-10.4374
▁ചൂണ്ടിക്കാട്ടിയ	-10.4374
▁ദിനത്തില്‍	-10.4376
▁ആദ്യഘട്ട	-10.4376
▁തയ്യാറാണെന്ന	-10.4376
▁വ്യക്തമാണ്	-10.4381
▁രിക്കുമെന്ന	-10.4382
▁കുടുംബത്തെ	-10.4384
▁നിക്ഷേപം	-10.4386
▁യൂറോ	-10.4386
വിഭവ	-10.439
▁പാലിക്കുന്ന	-10.4393
▁വീര	-10.4394
▁വിശ്വസി	-10.4394
ാകട്ടെ	-10.4395
▁വിലാസ	-10.4395
▁വാർത്തകൾ	-10.4396
▁തൃശൂരില	-10.4397
▁രംഗത്തെ	-10.4397
▁കരണ	-10.4401
▁ചിലര	-10.4401
▁വ്യത്യസ്തമായ	-10.4408
▁ശ്രദ്ധയില്‍	-10.4409
▁എതിർ	-10.4411
▁ട്രേലിയ	-10.4418
▁സെപ്തംബ	-10.4418
▁പോപ്പുല	-10.4418
▁പലയിടത്ത	-10.4418
▁പ്രസിഡണ്ട്	-10.4418
▁വിമാനത്തില	-10.4418
▁ത്താന	-10.4418
▁കൊട്ടാരക്കര	-10.4419
▁പരിമിത	-10.4419
▁സജീവമായി	-10.442
▁ഫ്രാന്‍സ	-10.4421
▁െന്നുമ	-10.4431
▁മീഡിയയിൽ	-10.4433
▁എതിരായ	-10.4435
▁വിഭാഗത്തിന്	-10.4438
▁മലബാ	-10.4439
▁നെഞ്ച	-10.4442
കുമാരി	-10.4447
▁മദ്യം	-10.4447
▁ആത്മവിശ്വാസ	-10.4448
▁അസോസിയേഷന	-10.4448
▁മനുഷ്യന	-10.4452
▁ലഭിച്ചിട്ടുണ്ട്	-10.4452
▁വാതില	-10.4453
▁കെടി	-10.4454
▁അന്യ	-10.4454
▁മൂലമ	-10.4457
▁സംഘത്തിന്	-10.4459
▁അവൾ	-10.4463
▁ഫോഴ്	-10.4464
ിൻറ	-10.4465
▁കുറിച്ചത്	-10.4465
▁ഏർപ്പെടുത്തിയ	-10.447
▁കുടുംബത്തിന്	-10.4472
▁ആശുപത്രിയില	-10.4473
▁ഓർമ്മ	-10.4473
▁വഹി	-10.4473
▁സ്പ്രസ	-10.4476
▁വയ്ക്ക	-10.4477
▁നെഹ്	-10.448
▁സായ്	-10.448
▁ലോകത്തില	-10.4486
▁വാക്കുകള	-10.4487
▁പ്ലേ	-10.4487
▁പൂട്ടി	-10.4488
▁മോഷണം	-10.449
▁ഇടതുപക്ഷം	-10.449
▁ധി	-10.4491
▁പോയിന്റ	-10.4492
▁ചന്ദ്രന	-10.4493
▁സഹകരിക്ക	-10.4494
▁എതിർപ്പ	-10.4494
▁സംസ്ഥാനത്തിന്	-10.4497
▁സ്ഥാനാർത്ഥികള	-10.4504
▁അമ്മയുടെ	-10.4509
▁സെല്ല	-10.4509
ാത്മക	-10.451
▁നിർമാണ	-10.451
▁മനോഹര	-10.451
▁04	-10.4511
▁മാനേജ	-10.4513
എംഎ	-10.4515
ുണ്യ	-10.4519
▁ഹരിയാന	-10.452
▁ജീവനക്കാരുടെ	-10.4522
▁സഞ്ജു	-10.4524
ദിന	-10.453
തുവരെ	-10.4531
ാണല്ലോ	-10.4536
▁സഭയില്‍	-10.4537
▁കരുതല	-10.4539
▁തടഞ്ഞു	-10.4541
▁ഏര്‍പ്പെടുത്ത	-10.4549
ജീവ	-10.4552
▁ഷഹ	-10.4554
L	-10.4556
▁ധനസഹായ	-10.4556
▁നശിപ്പിച്ച	-10.4556
▁ശ്രീധര	-10.4556
▁ആവിഷ്	-10.4557
ുപോയ	-10.4557
▁പവാറ	-10.4558
▁പൈ	-10.4559
ുവരുന്ന	-10.4566
തിനാൽ	-10.457
▁താമസം	-10.4571
ൃത	-10.4571
▁പുരുഷൻ	-10.4577
▁മാക്കിയ	-10.4582
▁ആശംസ	-10.4583
▁ലഭ്യമായ	-10.4585
▁ഓഫീസുകള	-10.4587
▁കേരളത്തിലേക്ക്	-10.4588
▁ഇന്ദിര	-10.4603
▁ധീര	-10.4603
▁ലോക്ക്ഡൗണ്‍	-10.4604
▁സിജന	-10.4606
▁പാവപ്പെട്ട	-10.4609
▁തുമാണ്	-10.4612
▁ഉത്തരവാദിത്തം	-10.4622
▁വിനെ	-10.4632
റ്റീവ്	-10.4633
▁തരംഗം	-10.4635
▁വിധം	-10.4637
▁വീടുകള്‍	-10.4638
▁ആശ്വാസം	-10.4639
▁ചുമ	-10.4641
▁പ്രവര്‍ത്തകരെ	-10.4646
▁ബ്രിട്ടന	-10.4646
▁195	-10.4648
ർദ്ദ	-10.4649
▁ഉത്സവ	-10.465
▁കോർപ്പറേഷൻ	-10.465
▁ജുനൈസ	-10.465
▁തികച്ച	-10.465
▁വമ്പന	-10.4652
▁ക്കൊപ്പമ	-10.4653
▁ഇറക്കിയ	-10.4654
▁നടക്കാനിരിക്ക	-10.4658
▁പൊട്ട	-10.4659
▁തരൂര്‍	-10.466
▁രണ്ടാമത	-10.4662
▁വിദ്യാർഥി	-10.4663
▁ങ്ങളോ	-10.4667
▁വിവാദങ്ങള	-10.4668
▁81	-10.4672
▁മോശ	-10.4673
▁സമ്മത	-10.4678
▁പോസിറ്റീവായ	-10.468
മുണ്ട	-10.4686
▁പ്രവേശിപ്പിച്ചു	-10.4693
▁ശുഭ	-10.4696
▁കൊച്ചിയില്‍	-10.4696
▁തിയതി	-10.4697
▁നാട്ടില	-10.4698
▁യുപിയില്‍	-10.4699
▁രമ്യ	-10.4699
▁വിഭാഗത്തില	-10.4701
▁ശക്തമാക്കിയ	-10.4702
▁n	-10.4705
▁ഫസ്റ്റ്	-10.4709
ങ	-10.4717
▁സെന്റര്‍	-10.4719
ൊഴ	-10.4721
മാരായ	-10.4739
▁നിർദ്ദേശിച്ച	-10.4739
▁സെല	-10.474
▁യാണിത്	-10.474
▁കിട്ടി	-10.4741
▁ഡോക്ടർ	-10.4742
▁നിയോജക	-10.4744
▁പ്ലാ	-10.4758
▁തേടുന്ന	-10.4761
▁പാടില്ലെന്ന	-10.4762
▁ബോർഡ	-10.4766
▁മണിക്കൂ	-10.4767
▁ിച്ചു	-10.4771
▁വാങ്ങാന്‍	-10.4772
▁സീറ്റിലും	-10.4777
▁കൂടുതലായി	-10.4779
▁കൊല്ലപ്പെട്ടത്	-10.4783
▁യുളള	-10.479
▁വേട്ടയാട	-10.4791
▁കിഫ്ബി	-10.4791
▁മത്സ്യബന്ധന	-10.4791
▁തളിപ്പറമ്പ	-10.4791
▁ആചാര	-10.4791
▁പയ്യന്നൂര	-10.4791
▁ഒന്നിന്	-10.4799
▁മാണോ	-10.4799
▁പരമ	-10.4802
▁സൈസ്	-10.4803
w	-10.4804
▁മാർഗ	-10.4809
▁ഉണ്ടായിട്ടില്ല	-10.4811
▁ഫോമ	-10.4811
▁സജീവമായ	-10.4815
▁അയാള്‍	-10.4816
▁കൂട്ടിയ	-10.4817
▁ചിത്രത്തില	-10.4819
▁ആഴ	-10.482
▁എന്നിവര്‍ക്ക	-10.4822
▁തെറി	-10.4822
▁പാകിസ്താന്‍	-10.4825
▁ഉദ്ദേശ	-10.4826
▁പ്ലാന്റ	-10.4827
▁നിയമങ്ങള്‍	-10.4828
▁പ്രതിഭ	-10.4833
▁പ്രമേയ	-10.4834
▁തൃശ്ശൂർ	-10.4839
▁സിദ്ധരാമയ്യ	-10.4839
▁p	-10.4839
▁മിസൈ	-10.4839
▁വളർച്ച	-10.4839
▁ക്രൈം	-10.4839
▁കാറ്റിന	-10.4841
തിനിടയിൽ	-10.4844
▁സംഘടനകള്‍	-10.4847
▁സന്ദര്‍ശി	-10.4848
സ്ഥിതി	-10.4851
▁കാര്‍ഡ	-10.4853
▁നിരീക്ഷണം	-10.4861
▁ജീവിക്കുന്ന	-10.4874
▁പ്രകോപന	-10.4886
▁എൻഡിഎ	-10.4886
▁ചൊല്ലി	-10.4887
▁മാനദണ്ഡങ്ങള	-10.4888
▁സർവേ	-10.4892
▁കുടുംബത്തിന്റെ	-10.4894
യാത്ര	-10.4894
▁പൊതുജനങ്ങള	-10.4896
▁രണ്ടര	-10.4898
▁മോഹ	-10.4901
▁ചിത്രത്തില്‍	-10.4905
▁മോദിയെ	-10.4905
▁പൂഞ്ഞാ	-10.4917
▁ിട്ടുണ്ട	-10.4917
▁ജലീല	-10.4927
▁ട്വന്റി	-10.4935
▁സർവകലാശാല	-10.4935
▁കഠിന	-10.4935
▁ഭക്ത	-10.4935
▁വിരാട	-10.4937
▁ബന്ദ	-10.4937
▁പ്രദീപ	-10.494
▁ഉദ്ദേശിക്കുന്ന	-10.4941
▁നിരോധിച്ച	-10.4948
▁കുഴപ്പ	-10.495
▁ആത്മവിശ്വാസം	-10.4952
▁ചെയ്യുമ്പോള്‍	-10.4957
▁നിര്‍മ്മിച്ച	-10.4963
▁എന്നിങ്ങന	-10.4967
പ്പോഴാണ്	-10.4968
▁കുറ്റകൃത്യ	-10.4968
▁സീറ്റുകളാണ്	-10.4971
▁തെളിവുകള	-10.4972
▁അയച്ചത്	-10.4972
▁അവതരിപ്പിക്ക	-10.4981
▁സിസിടിവി	-10.4983
▁ബഹള	-10.4983
▁ജിഹാദ	-10.4983
▁സംഘത്തില	-10.499
▁വിശ്വാസികള	-10.4992
▁അയ്യപ്പ	-10.4994
▁രഹിത	-10.4998
▁ചരക്ക	-10.4998
▁റാവത്ത	-10.4999
▁ചോദ്യങ്ങള്‍	-10.4999
▁മോശമായി	-10.5003
പൂർ	-10.5005
▁രക്ഷിക്കാന	-10.5008
▁നിരക്കില	-10.501
▁ആധാ	-10.501
▁ദിവസങ്ങള്‍ക്ക	-10.501
▁ബിസിനസ	-10.5012
▁സഖ്യത്തിന്	-10.5025
▁ഞങ്ങളെ	-10.5027
▁രാജസ്ഥാന	-10.503
k	-10.5031
▁കയറ്റുമതി	-10.5031
▁ഗെഹ്ലോട്ട	-10.5031
▁എന്‍ഐഎ	-10.5031
▁ചെലവഴിച്ച	-10.5032
▁ശാസ്ത്രജ്ഞ	-10.5033
വട്ടം	-10.5034
▁മൂന്നാമത്ത	-10.5035
▁അത്തരത്തില	-10.5035
▁ഇറക്ക	-10.5039
▁പേരിലാണ്	-10.5045
▁കൊറിയ	-10.5046
രാഷ്ട്ര	-10.5048
▁മലയാളികള്‍	-10.505
▁-2	-10.5054
▁ആഗ്രഹം	-10.5055
▁ചേരി	-10.5064
▁ചൊ	-10.5064
▁വിവരങ്ങളും	-10.5065
▁പുത്ത	-10.5068
▁വരികയ	-10.5069
▁വ്യവസായി	-10.507
▁മറ്റൊന്ന	-10.5081
▁ഇക്കാര്യത്ത	-10.5082
▁അശ്വ	-10.5083
▁പൈലറ്റ	-10.5085
▁ജീവിതത്തില	-10.5087
▁ധനകാര്യ	-10.5089
ന്നൂർ	-10.5091
▁പെരുമാറ്റ	-10.5094
▁പ്രചരിപ്പിക്ക	-10.5097
▁അഭിനന്ദിച്ച	-10.5103
▁തൊഴിലാളികൾ	-10.5104
ല്യൺ	-10.5107
▁ആഗ്രഹിച്ച	-10.5109
▁എത്തിക്കാന	-10.5113
▁വളര	-10.5115
▁കെജ്രിവാള്‍	-10.5118
▁വഞ്ചി	-10.5121
▁ബ്രാഞ്ച്	-10.5123
▁യൂണിവേഴ്	-10.5129
▁ജയരാജൻ	-10.5129
▁ഡിഗ്രി	-10.5129
▁കോന്നി	-10.5131
▁നേമത്ത	-10.5133
▁120	-10.5135
▁അവിശ്വാസ	-10.5135
▁ഴി	-10.5145
▁വർഷങ്ങള	-10.5148
▁പഞ്ച	-10.5149
▁നിയന്ത്രി	-10.5157
▁തൂക്ക	-10.5159
മാണിത്	-10.5162
▁ങ്ങളിലൊന്ന	-10.5163
▁സംഘവും	-10.5164
▁ങ്ങളുമ	-10.5167
ഭ്യ	-10.5167
▁ത്തേക്ക	-10.5167
ല്ലൂര്‍	-10.5167
▁പത്താം	-10.5174
▁സംഘടനകള	-10.5174
▁കളുമാണ്	-10.5177
b	-10.5178
▁ആലോചന	-10.5178
▁ഗവര്‍ണറ	-10.5178
▁കത്തയച്ച	-10.5179
▁തുടങ്ങിയവര്‍	-10.518
▁കൊണ്ടുവരുന്ന	-10.5182
▁ലിറ്റ	-10.5184
▁കാലയളവില്‍	-10.5196
▁അനുസരിച്ച	-10.5212
▁ഉൾപ്പെടുത്ത	-10.5219
▁കാലഘട്ട	-10.5219
▁മധു	-10.5224
▁ചാല	-10.5226
N	-10.5228
▁യൂട്യൂബ	-10.5228
▁സൂപ്പർ	-10.5228
▁ശൈലി	-10.5228
▁അന്വേഷണത്തിന്	-10.523
▁ഇടിഞ്ഞ	-10.5232
▁മുഴ	-10.5236
▁ബാധിത	-10.5236
▁പ്രകടിപ്പിക്ക	-10.5237
▁വ്യക്തമായി	-10.5244
▁നിലയ്ക്ക	-10.5246
▁നേട്ടങ്ങള	-10.5249
▁വൈറ്റ	-10.5249
▁വികാരം	-10.525
▁ഹൈക്കമാന്‍ഡ്	-10.5259
▁മത്സരങ്ങള	-10.5263
▁കാർഡ	-10.5267
▁വിഭാഗത്തിൽ	-10.5272
▁പോളിങ്	-10.5272
▁പിന്തുടര	-10.5278
O	-10.5278
F	-10.5278
▁ഒറ്റക്കെട്ടായ	-10.5278
▁ദക്ഷിണാഫ്രിക്ക	-10.5278
▁സെറീന	-10.5278
▁പ്രക്രിയ	-10.5278
▁ചിങ്ങം	-10.5278
▁നാട്ടിലെത്തി	-10.5279
▁ിരുന്നുവെങ്കില	-10.5287
▁കളഞ്ഞ	-10.529
▁ട്രാക്ക	-10.5295
▁സാക്ഷികള	-10.5295
▁ഷാഫ	-10.5297
▁രാജാവ	-10.5306
▁5000	-10.5307
▁ശിവശങ്കറ	-10.5307
▁ഹോസ്പിറ്റ	-10.5309
▁പ്രചാരണത്തിന്	-10.5312
▁മാർക്കറ്റ	-10.5314
▁ഒപ്പമ	-10.5319
▁പുറത്താ	-10.5321
ാഘോഷ	-10.5328
▁ആയിരക്കണക്കിന	-10.5328
▁നാശനഷ്ട	-10.5328
▁നിരീക്ഷക	-10.5328
▁ബോളിവുഡ	-10.5328
▁പതിനൊന്ന	-10.5328
▁ജനവിധി	-10.5328
▁ഫിലിപ്പ	-10.5328
▁കേന്ദ്രങ്ങള്‍	-10.5328
▁പവാര്‍	-10.5328
▁സ്വീകരണ	-10.5331
▁സംവരണം	-10.5331
▁ക്വാറന്റൈന	-10.5331
▁ആരോഗ്യവകുപ്പ്	-10.5332
▁ുമുണ്ട്	-10.5333
▁ജലീല്‍	-10.5336
▁കയറ്റ	-10.5338
▁അഭിപ്രായപ്പെട	-10.5341
▁സീറ്റുകളിൽ	-10.5352
▁കാരിക	-10.5354
▁യുള്ളൂ	-10.5355
▁നീക്കങ്ങള്‍	-10.5357
▁93	-10.5358
▁നൽകുകയ	-10.5359
▁പ്രതിഫലം	-10.5364
▁പെട്രോള	-10.5366
▁ലൈറ്റ	-10.5366
▁വളരെയ	-10.537
▁പ്രവചന	-10.5371
▁ആക്ഷേപം	-10.5372
▁പൂര്‍ണ്ണമായ	-10.5374
▁ജയരാജന	-10.5377
ാലോചന	-10.5378
▁ദുര്‍ബല	-10.5378
▁പച്ചക്കറി	-10.5378
▁ഭരണാധികാരി	-10.5378
▁ശ്രീനിവാസ	-10.5378
▁കുടുംബശ്രീ	-10.5379
▁ലക്ഷണ	-10.538
▁ധനു	-10.5382
▁ശങ്കര	-10.5386
▁നൽകാന	-10.5392
▁വ്യക്തത	-10.5393
▁ഏത	-10.5398
▁കണ്ടെടുത്ത	-10.5406
▁ആദ്യമായ	-10.541
▁വെള്ളി	-10.5413
▁കുതിച്ച	-10.5423
▁വ്യാപനത്ത	-10.5424
▁സ്ത്രീകളും	-10.5424
▁വിജയിക്കാന	-10.5425
▁ത്തേയും	-10.5428
▁റെക്കോർഡ	-10.5428
▁ഉദ്ധവ്	-10.5428
▁കണ്‍വീന	-10.5429
▁രജിസ്ട്രേഷ	-10.5429
ോത്സവ	-10.5429
▁നിര്‍മിച്ച	-10.5429
▁തിയേറ്റ	-10.5433
▁ഇപി	-10.5436
▁ഒമൈക്രോണ	-10.5438
▁കുമാറിനെ	-10.5441
▁ടീ	-10.5441
▁തടയാന്‍	-10.5447
▁മന്ത്രാലയത്ത	-10.5453
▁മിസ്	-10.5453
▁നിധി	-10.5465
▁ുമായിരുന്നു	-10.5466
▁ചൗ	-10.5466
▁കോഡ	-10.5467
▁എന്തെങ്കിലു	-10.5472
▁സര്‍വ്വീസ	-10.5474
▁വേണുഗോപാല	-10.5477
▁മോഹന്‍ലാല	-10.5478
▁അതിശക്തമായ	-10.5479
▁ബഹിരാകാശ	-10.5479
▁സമ്മർദ്ദ	-10.5479
▁ഗെയിമ	-10.5479
▁പെന്‍ഷന്‍	-10.5479
▁വേതന	-10.5495
▁ങ്ങളിലെ	-10.55
▁ടാസ്ക	-10.5505
സഭ	-10.5506
▁മതിയെന്ന	-10.5507
▁സംഖ്യ	-10.5508
▁ട്രൈ	-10.5517
▁ിട്ടുമ	-10.5519
▁ഗേറ്റ	-10.5528
▁ഒഡീഷ	-10.553
▁പ്രതികൂല	-10.553
▁ഗവണ്‍മെന്റ	-10.553
▁ഹൈദരാബാദ്	-10.553
▁ഒന്‍പത	-10.553
▁സങ്കട	-10.553
▁പ്രസവ	-10.5532
▁പിറന്ന	-10.5532
▁ിക്കേണ്ട	-10.5544
▁ഉയർത്തുന്ന	-10.5544
▁മുന	-10.5546
ശേഷം	-10.5553
▁പോകുകയ	-10.5563
ാര്‍ഥ	-10.5566
▁മൊക്കെ	-10.5569
▁'-	-10.5573
ൂട്ട	-10.5575
▁ചെയ്തുവെന്ന	-10.5581
▁നറുക്കെടുപ്പ	-10.5582
▁ഇറാഖ	-10.5582
ബ്ല	-10.5582
▁കുത്തനെ	-10.5588
▁പരിപാടികള്‍	-10.5591
▁ിനോട	-10.5591
▁വിദ്യാര്‍ഥികള	-10.5593
▁അബ്ദുള	-10.5596
റുത്ത	-10.5597
▁അല്ലാത്ത	-10.56
▁നിലനിൽക്കുന്ന	-10.5604
▁ഓഫീസിൽ	-10.5606
ുറപ്പ	-10.5606
▁അഭ്യ	-10.5606
▁ക്വാറന്റൈനില	-10.5616
▁തിനാലാണ	-10.5617
▁തലത്തിൽ	-10.5618
▁സന്ദർശിച്ച	-10.562
▁പേരുടെയും	-10.562
ശ്ശ	-10.5624
▁ദുര	-10.5632
മത്സ്യത്തൊഴിലാളി	-10.5633
▁താല്‍പ്പര്യ	-10.5633
▁പരിപാടിയില	-10.5633
▁കമ്മിഷന	-10.5633
▁കീഴടങ്ങ	-10.5634
▁പെട്രോള്‍	-10.5635
▁250	-10.5635
▁അടങ്ങിയ	-10.5636
al	-10.5637
▁റിക്രൂട്ട്	-10.5637
▁പ്പോലെ	-10.5638
▁എന്നിവർക്ക	-10.5641
▁താരതമ്യം	-10.5647
▁ചര്‍ച്ചയായ	-10.5655
▁അമരീന്ദ	-10.5655
▁വകുപ്പുകള്‍	-10.5659
▁തൃശൂര	-10.5659
▁ടീമില	-10.5661
▁മന്ത്രിമാര്‍	-10.5668
▁അവിട	-10.5673
▁ബസുകള	-10.5675
▁മരണത്തിന്	-10.5679
▁ഔട്ട്	-10.5685
▁നിബന്ധന	-10.5685
▁പ്രിൻസിപ്പ	-10.5685
▁മാർഗ്ഗ	-10.5686
▁നില്‍ക്കുകയാണ്	-10.5695
▁ഉയർത്ത	-10.5696
▁നായര	-10.57
▁വാല	-10.5713
ുടമ	-10.5715
▁മന്ത്രിസഭാ	-10.5728
▁പൊടി	-10.5729
▁ിംഗ	-10.5729
▁ഛ	-10.5733
▁സംവരണ	-10.5733
▁അപകടത്തിൽ	-10.5734
▁അനധികൃത	-10.5735
▁കോര്‍പറേഷന	-10.5737
▁ഗംഭീര	-10.5737
▁പ്രോട്ടോ	-10.5737
▁കൂട്ടായ്മ	-10.5737
▁വാണിജ്യ	-10.5737
▁താപനില	-10.5737
▁ഹിജാബ	-10.5737
▁ഉചിത	-10.5737
▁അച്ചടക്ക	-10.5738
▁ക്കപ്പെടുന്ന	-10.5738
▁ഡേ	-10.5739
▁ജയില്‍	-10.5739
▁നെറ്റ്	-10.5743
▁സംസ്കാര	-10.5744
ഗ്രാം	-10.575
▁മുപ്പത	-10.5753
▁ഇവർക്ക്	-10.5753
▁കൊച്ചു	-10.5754
▁സെമി	-10.5757
▁എംഎം	-10.5765
▁ഡ്രൈവർ	-10.5765
▁സ്വദേശികള്‍	-10.5766
▁മനോ	-10.5772
▁ദിലീപിനെ	-10.5772
▁ഉത്ര	-10.5776
പിന്തുണയ്ക്കുന്ന	-10.5781
▁മുകളിലുള്ള	-10.5783
▁ലുക്ക	-10.5787
▁ഡ്രൈവ	-10.5788
▁അഭ്യൂഹ	-10.5788
▁കമ്പ്യൂട്ട	-10.5789
▁www	-10.5789
▁സെഞ്ച്വറി	-10.5789
▁എന്നിരുന്നാലും	-10.5789
▁ലൈസന്‍സ	-10.5789
▁ജഗ	-10.579
▁റോബിൻ	-10.579
▁മേള	-10.579
▁ക്യാംപ	-10.579
▁മൗന	-10.5791
മല്ലാത്ത	-10.5792
▁ലളിത	-10.5792
▁തലമുറ	-10.5793
ടെക്	-10.5794
▁തിരായ	-10.5794
▁..!	-10.5795
▁തനിക്കെതിരെ	-10.5795
▁പണമ	-10.5795
▁ചെയ്താല്‍	-10.5796
ാകാം	-10.5799
▁പ്രതീ	-10.58
▁ഏതു	-10.58
▁പുലി	-10.5803
▁പ്രസിദ്ധീകരിച്ച	-10.5812
▁ചടങ്ങിൽ	-10.5816
▁തിരിച്ചടിയാണ്	-10.5817
▁മറ്റൊരാള	-10.5825
▁നൽകുമെന്ന	-10.5825
ത്തിലേറെ	-10.5828
▁മത്സരത്തില	-10.5831
▁പുരുഷ	-10.5832
▁ചെയ്തതെന്ന	-10.5833
▁ക്കുണ്ട്	-10.5833
▁സുരക്ഷിതമായ	-10.5835
▁കളേയും	-10.5838
▁മുടി	-10.5838
▁നിർമ്മി	-10.5838
▁പോല	-10.584
▁ലോക്ഡൗണ	-10.5842
▁നിവാരണ	-10.5842
▁കാഴ്ച്ച	-10.5842
▁ഷിപ്പ	-10.5843
▁അണിനിര	-10.5843
▁തീരദേശ	-10.5845
▁വരില്ല	-10.5846
▁നിപ	-10.5847
▁അമേരിക്കയില്‍	-10.5848
ിലായിരുന്നു	-10.5854
▁തന്നോട	-10.5856
▁ടൈം	-10.5865
▁പോലെയാണ്	-10.5871
▁അലര്‍ട്ട	-10.5873
▁അതിജീവി	-10.5875
▁ഇരയായ	-10.5875
▁റെയില്‍	-10.588
▁സഖ്യത്തില	-10.5882
▁അനുഭവിച്ച	-10.5886
▁വൈദ്യ	-10.5887
▁വിലയിരുത്തല	-10.5889
▁സര്‍വ്വ	-10.5893
▁ഓപ്പറേഷന	-10.5895
▁മരണമടഞ്ഞ	-10.5895
▁വര്‍ധിപ്പിച്ച	-10.5895
▁വെബ്സൈറ്റ	-10.5895
▁ആസാദ്	-10.5895
▁തുറന്നടിച്ച	-10.5896
▁അണി	-10.5898
▁പരാതിയിൽ	-10.5898
▁ബംഗാളി	-10.5909
▁ജനങ്ങളോട	-10.5912
▁സേവനങ്ങള	-10.5914
▁പൗരന	-10.5918
▁ആരാധകർ	-10.5918
▁ദ്യ	-10.5919
▁വശ	-10.5923
▁ഞെട്ടി	-10.5925
▁വഹിക്കുന്ന	-10.5928
▁അപ്പോൾ	-10.5934
▁റാണ	-10.5935
▁എംബി	-10.5936
▁ക്കിടെ	-10.5938
▁നിരോധനം	-10.5939
ചിത്ര	-10.5946
▁വിവേചന	-10.5948
▁ഹൈദരാബാദി	-10.5948
▁സമ്മര്‍ദ്ദ	-10.5948
▁ക്ഷാമ	-10.5948
▁സ്ത്രീകളുടെ	-10.5953
ല്ലൂർ	-10.5955
▁നില്‍ക്കുന്നത്	-10.5958
▁വിവരങ്ങള	-10.5963
▁അമ്മയെ	-10.5966
▁വിശാല	-10.5974
▁റുകള	-10.5975
▁പൂർണ്ണ	-10.5976
▁കാപ്പന്‍	-10.5981
▁മെമ്മ	-10.5987
▁കഴിയുക	-10.599
▁ആളുകള്‍ക്ക്	-10.599
▁വായിച്ച	-10.599
▁പഞ്ചായത്തുകളില	-10.5992
▁ഭേദമായ	-10.5992
▁നിഷേധിക്ക	-10.5994
▁തെളിയിച്ച	-10.5998
▁ആംബുലന്‍സ	-10.6002
▁പതിറ്റാണ്ട	-10.6002
▁ആന്ധ്ര	-10.6002
▁ഡ്രോ	-10.6003
▁ജൂലായ	-10.6003
▁സല്‍മാന	-10.6006
▁അടച്ചിട	-10.6007
▁രാജ്യത്തിന്	-10.6008
▁മണിക്കൂറുകള	-10.6013
▁എഫിന	-10.6015
▁പൗര	-10.6016
▁റേറ്റ	-10.6017
സമ്പർക്കത്തിലൂടെ	-10.6019
▁ല്ലെന്ന	-10.602
▁മെച്ചപ്പെടുത്ത	-10.6023
▁നിര്‍ദേശങ്ങള്‍	-10.6023
▁നിത്യ	-10.6027
ാരംഭ	-10.6036
▁ചാര്‍ജ	-10.6036
▁M	-10.6038
▁ഡബ്ല്യു	-10.605
▁തെളിയ	-10.6051
▁പ്രമുഖര	-10.6054
▁ഉറ്റുനോക്ക	-10.6055
▁പാരമ്പര്യ	-10.6055
▁പൊതുമരാമത്ത്	-10.6055
▁രാമക്ഷേത്ര	-10.6055
▁സെക്യൂരിറ്റി	-10.6055
▁ആഫ്രിക്ക	-10.6055
▁വെളിച്ച	-10.6055
▁ആവര്‍ത്തിച്ച	-10.6056
▁കാഞ്ഞിരപ്പള്ളി	-10.6056
▁നദ്ദ	-10.6056
▁പടര്‍ന്ന	-10.6056
▁തിളങ്ങ	-10.6057
▁സ്ത്രീകൾ	-10.6061
▁നിലനില്‍	-10.6062
▁സ്റ്റാര്‍	-10.6064
▁അപമാന	-10.6064
ക്കോട്ട	-10.6065
▁മാരാർ	-10.6065
▁വിധിച്ച	-10.6066
▁പണ്ട	-10.6072
▁നേയും	-10.6074
▁മല്ലെന്ന	-10.6075
കിട	-10.6076
കാരിക	-10.6077
▁ിരിക്കണം	-10.6084
▁പൂർണ്ണമായ	-10.6086
▁ക്കുവാന	-10.6086
▁ജൂനിയ	-10.6089
▁ക്വാഡ	-10.6093
n	-10.6094
▁മത്സരിക്കുമെന്ന	-10.6103
▁ബിജെപിയിലേക്ക്	-10.6103
▁ക്കാനാക	-10.6105
▁റൂം	-10.6108
▁ഡൗൺ	-10.6109
▁ശുപാര്‍ശ	-10.6109
▁പഠിപ്പിക്ക	-10.611
▁ഉറങ്ങ	-10.6112
്യൂറോ	-10.6113
▁ജോഷി	-10.6117
▁ങ്ങളൊന്നു	-10.6118
▁ഞെട്ടിക്കുന്ന	-10.6125
▁ത്തിച്ച	-10.6134
▁ഉപകരണങ്ങള	-10.6137
▁നിര്‍ദ്ദേശിച്ച	-10.6142
▁ക്കപ്പെട്ട	-10.6143
▁കുടുങ്ങി	-10.6146
▁ണ്ടായ	-10.615
▁നടക്കാന	-10.6151
▁ദുബായി	-10.6162
▁തലവന	-10.6162
രക്ഷാപ്രവര്‍ത്തന	-10.6164
▁പുലർച്ചെ	-10.6164
▁ഒഴികെ	-10.6164
▁ഇരിട്ടി	-10.6164
▁നല്ക	-10.6164
▁പെഷ്യല	-10.6165
▁തൊട	-10.6166
▁വികാസ	-10.6168
▁വിചാരിച്ച	-10.6168
▁പോകേണ്ട	-10.617
▁പൊള്ള	-10.617
▁അഭിഭാഷകന്‍	-10.6171
സമ്മേളനത്തിൽ	-10.6176
ാക്ഷി	-10.6181
▁സമർപ്പിക്ക	-10.6182
▁അനന്ത	-10.6185
▁താരത്ത	-10.6192
▁ക്കാരനായ	-10.6192
▁ക്കാരുടെ	-10.6194
പൂർവ്വ	-10.62
▁പ്രചരിപ്പിച്ച	-10.621
സമിതി	-10.6211
▁ലൈൻ	-10.6211
▁യെഡിയൂരപ്പ	-10.6218
▁ബഹിഷ്	-10.6218
▁കളമശ്ശേരി	-10.6218
▁നിര്‍ണയ	-10.6219
▁കഴുത്ത	-10.6219
▁അഗ്നി	-10.622
▁ഇരിക്കൂ	-10.6222
▁ഡല്‍ഹിയില്‍	-10.6227
▁ദമ്പതികള	-10.623
▁വിലയിരുത്തുന്ന	-10.6239
▁അറിയാതെ	-10.6241
▁വളർത്ത	-10.6241
▁അവരോട	-10.6242
▁തുടക്കത്തില്‍	-10.6243
▁തുടരാന	-10.6245
ാധ്യമപ്രവര്‍ത്തക	-10.6254
▁ഡിജിറ്റ	-10.6254
▁മിഷന	-10.6254
▁ചികിത്സയിൽ	-10.6255
▁താത്കാലിക	-10.6273
▁തൊടുപുഴ	-10.6273
▁കമ്മീഷണര്‍	-10.6273
▁ഫാത്തിമ	-10.6273
▁ക്കിടയിൽ	-10.6273
▁വഷളാ	-10.6273
▁ചുരുക്ക	-10.6275
▁വിവേക	-10.6276
▁സംഘമാണ	-10.6281
▁ലാന്‍ഡ	-10.6287
▁യുണ്ടായി	-10.6291
▁കളുമായ	-10.6292
▁സംഘങ്ങള	-10.6293
▁പരാജയപ്പെടുത്തി	-10.6295
▁സീറ്റിൽ	-10.6304
▁ിലേക്ക	-10.6304
▁ട്വിറ്ററില്‍	-10.632
▁തെരഞ്ഞെടു	-10.6326
▁മാത്രമായി	-10.6328
▁അനിവാര്യ	-10.6329
▁സെക്കന്‍ഡ	-10.6329
▁സഖാവ	-10.6329
▁ഉപദ്രവ	-10.6329
▁രണ്ടുപേ	-10.633
▁ഐപിഎല്ലില	-10.633
▁എന്നുള്ളത	-10.6331
▁അഴിച്ചു	-10.6332
▁കുടുംബാംഗങ്ങള	-10.6334
▁മറച്ചു	-10.6342
ദ്ധ്യ	-10.6343
▁നോക്കാം	-10.6345
▁കാത്തിരുന്ന	-10.6348
▁ിറങ്ങ	-10.6348
▁സൈന്യ	-10.6356
▁നേടുമെന്ന	-10.6358
ശാന്തി	-10.6375
രാത്രി	-10.6379
▁വിമര്‍ശി	-10.638
▁വാര്‍ഡ	-10.6383
▁ചാലക്കുടി	-10.6384
▁നിയമനടപടി	-10.6384
▁പതിനഞ്ച	-10.6384
▁പരിശ്രമ	-10.6384
▁മദ	-10.6384
▁ആദായ	-10.6385
▁ഒഴിയ	-10.6385
▁സർട്ടിഫിക്കറ്റു	-10.6385
കേട	-10.6386
▁പാസാക്കിയ	-10.6388
▁പ്ലാറ്റ്	-10.6391
▁മലയാളികള	-10.6392
▁സമയമാണ്	-10.6398
▁കുറയുന്ന	-10.6403
▁തന്നെയായിരുന്നു	-10.6403
▁പറഞ്ഞിട്ട	-10.6409
▁എത്തിച്ചത്	-10.6412
▁നിയമങ്ങൾ	-10.6412
▁ിട്ടുണ്ടെങ്കില	-10.6413
▁ഐഡി	-10.6419
▁തരൂര	-10.6426
▁നസീ	-10.6427
▁അഭിനന്ദന	-10.6427
▁പ്രവചിക്ക	-10.6433
▁ആവശ്യങ്ങള്‍	-10.6434
▁കാരണമായി	-10.6437
▁രണ്ടാഴ്ച	-10.6439
▁കുടിവെള്ള	-10.644
▁പലതവണ	-10.644
▁കല്‍പ്പറ്റ	-10.6444
▁കുറ്റക്കാര	-10.6448
▁അന്വേഷണത്തില	-10.645
ിക്കാത്ത	-10.645
▁പ്രതീക്ഷയിലാണ്	-10.6451
▁ഒരാള്‍ക്ക	-10.6458
▁െത്ത	-10.6464
▁പെണ്ണ	-10.6465
▁പാർക്ക	-10.6466
▁പോള	-10.6471
▁കളുടെയും	-10.6477
▁നിരോധി	-10.6481
▁ഡയറ	-10.6489
▁ഒത്തു	-10.6496
▁നുമായ	-10.6496
▁മുന്‍ഗണന	-10.6496
▁യാഥാര്‍ത്ഥ്യ	-10.6496
▁ഗുരുവായൂര	-10.6496
▁പ്രചരിച്ച	-10.6496
▁രഘു	-10.6496
▁ഇന്‍സ്റ്റ	-10.6497
▁മെന	-10.6497
▁അനുഭവപ്പെട	-10.65
▁ഗുണകര	-10.6506
▁ചാക്കോ	-10.6506
▁സമുദ്ര	-10.6509
▁വോട്ടെണ്ണല്‍	-10.651
▁പിടികൂടി	-10.6511
ാറുള്ളത്	-10.6515
▁വരുമ	-10.652
▁പട്ടികയില	-10.6523
▁ഏറ്റുമുട്ടല	-10.6529
▁ജോൺ	-10.6534
▁വര്‍ധന	-10.6537
▁ക്കേണ്ടതുണ്ട	-10.6537
ക്ഷേമ	-10.6549
▁സീസണില്‍	-10.6551
▁മാരാര	-10.6552
▁ഉത്തര്‍പ്രദേശില	-10.6553
▁ക്രമസമാധാന	-10.6553
▁കൺട്രോ	-10.6553
▁പുനരാരംഭി	-10.6553
▁അണക്കെട്ട	-10.6553
▁ഓരോരുത്തര	-10.6553
▁ജയിലിൽ	-10.6553
▁ആർഎസ്എസ	-10.6553
യ്ക്കുന്ന	-10.6554
▁ഡിവൈഎഫ്ഐ	-10.6554
▁ഷിജു	-10.6555
ഫ്ര	-10.6558
▁മാട	-10.6562
▁ലഭ്യമാക	-10.6564
▁ലൈവ	-10.6569
▁അറിയാത്ത	-10.6577
▁അപേക്ഷിക്ക	-10.658
▁സിറ്റിംഗ	-10.6584
▁കസ്റ്റഡിയിലെടു	-10.6585
▁ഇന്‍സ്	-10.6587
▁എതിരാളി	-10.659
▁ഗസ്റ്റ്	-10.6594
▁അപമാനിച്ച	-10.6601
▁ചെയ്യേണ്ടത്	-10.6601
രേഖ	-10.6608
▁നേട്ടമുണ്ടാ	-10.6609
▁ജ്വല്ലറി	-10.6609
▁ഭിന്നത	-10.6609
▁സൊസൈറ്റി	-10.6609
▁സ്ഫോടന	-10.6609
▁ഒവൈസി	-10.6609
▁ഒടിടി	-10.661
▁കുതിപ്പ	-10.6611
▁സംഭവത്തിന്	-10.6612
▁ഉന്നയിക്ക	-10.6613
▁ഒഴിവാക്കാന	-10.6621
▁ടാറ്റ	-10.6622
▁തയാറാ	-10.6623
ൊന്ന്	-10.6625
▁ഇടയിൽ	-10.6631
▁അതിര	-10.6633
▁നടപ്പാ	-10.6642
▁ടീമിനെ	-10.6647
▁റോബ	-10.6653
▁ഉയരുന്നത്	-10.6657
▁ഗ്രഹങ്ങള	-10.6658
▁യുഎഇയില്‍	-10.6659
▁സാധിക്കില്ലെന്ന	-10.6662
▁രുന്നു	-10.6664
▁ജാമ്യാപേക്ഷ	-10.6667
▁പള്‍സ	-10.6668
തോതില്‍	-10.6668
▁പ്പെടുത്താന	-10.6669
▁ഏതൊക്കെ	-10.6669
▁ഇടത്ത	-10.6676
▁ശ്രദ്ധിക്കണം	-10.6685
▁ഇടപാടുകള	-10.6686
▁യുഡിഎഫിന	-10.6689
▁ിടത്ത	-10.672
▁വിലയിരുത്തപ്പെട	-10.6723
▁വിസ്മയ	-10.6724
▁ഉറപ്പാക്കുന്ന	-10.6724
▁പരാതിക്കാരി	-10.6724
▁ത്രിപുര	-10.6725
▁നിയമവിരുദ്ധ	-10.6728
ലേയ്ക്ക്	-10.6728
▁റവന്യൂ	-10.6728
▁വ്യാപാരികള	-10.673
▁വശത്ത	-10.673
▁ഇഷ	-10.6732
▁ഒന്നാമ	-10.6732
▁യാത്രക്കാർ	-10.6734
▁ആയിരിക്ക	-10.6741
▁സമീപിച്ചത്	-10.6744
▁മനസ്സിലായ	-10.6746
▁ഉത്തരവാദിത്വ	-10.675
▁ഇറക്കി	-10.6754
ഞ	-10.6757
▁ക്കുമോ	-10.6758
▁യൊന്നും	-10.6758
▁നോക്കുന്ന	-10.676
▁വകുപ്പിന്	-10.6762
▁പറ്റുന്ന	-10.6764
ഘട്ട	-10.6765
▁ചതി	-10.6767
▁മോശമായ	-10.6772
▁ഇലക്ട്രോണിക്	-10.6782
▁മൂവാറ്റുപുഴ	-10.6782
▁വിജ്ഞാപന	-10.6782
▁സവിശേഷ	-10.6782
▁ഒരിക്കൽ	-10.6782
▁അനുപമ	-10.6782
▁അരുണ്‍	-10.6782
▁റിയാദ്	-10.6782
▁ലേഖന	-10.6782
▁സർട്ടിഫിക്കറ്റ്	-10.6783
▁സുധീര	-10.6784
▁പുരസ്കാര	-10.6785
പെൻഷൻ	-10.6789
▁പെരിയ	-10.679
▁നടപ്പിലാക്കുന്ന	-10.6793
▁ചികിത്സയ്ക്ക	-10.6794
▁കെജ്രിവാള	-10.6795
▁വരികയായിരുന്നു	-10.6795
▁ലേബ	-10.6798
▁കുമെന്ന	-10.6803
▁കുടുങ്ങിയ	-10.6803
▁ലഭിക്കാത്ത	-10.6805
▁ക്യാമ്പുകള	-10.6809
▁വർധിപ്പി	-10.681
▁നാക	-10.6811
▁ഒരുമിച്ച	-10.6819
▁വാക്സിനേഷന	-10.6819
യാകും	-10.6826
▁ഉണ്ടാവുക	-10.6834
▁വന്നതിന്	-10.6835
▁പുടിന	-10.6837
▁ഡയറക്ടറ	-10.6838
▁അര്‍ജുന	-10.684
▁ഭയന്ന	-10.6841
▁പരിപാടികള	-10.6841
▁ചോദിക്കുന്ന	-10.6842
ങ്ങനെ	-10.6843
▁വിശേഷ	-10.6846
▁മുൻകൂ	-10.6846
▁ലിങ്ക	-10.6858
▁സിദ്ദുവ	-10.686
സര്‍ക്കാരിനെതിരെ	-10.6861
▁ശിവശങ്ക	-10.6864
▁ദിലീപിന്	-10.6866
▁നേതാക്കളുമായി	-10.6873
▁കരിച്ച	-10.6877
വാള	-10.6882
▁രാഷ്ട്രീയത്തില	-10.6893
▁നിഗമനം	-10.6899
▁അനുഗ്രഹ	-10.6899
▁അവതാരക	-10.6899
▁ക്രമക്കേട	-10.6899
▁ഉറക്ക	-10.69
▁വാതക	-10.69
▁രാജിവെക്ക	-10.69
▁അക്ഷയ	-10.6901
▁പറഞ്ഞിട്ടുണ്ട്	-10.6905
▁പുള്ളി	-10.6905
▁ചോദിക്കുന്നത്	-10.6911
ൊഴിഞ്ഞ	-10.6917
▁ജ്യോതി	-10.6917
▁വിശദീകരിച്ചു	-10.6918
▁നിരീക്ഷിച്ച	-10.6923
▁ഉള്‍പ്പെടുത്തി	-10.6933
▁തകർത്ത	-10.694
▁ദീ	-10.6949
▁മാറ്റാന്‍	-10.695
▁നടപ്പിലാ	-10.6952
▁കൊച്ചിയിലെ	-10.6955
▁ഇബ്രാഹി	-10.6957
▁രോഗമുക്തരായി	-10.6957
▁റെനീഷ	-10.6957
▁സത്യവാങ്മൂല	-10.6957
▁സോഫ്റ്റ്	-10.6957
▁സമ്പാദി	-10.6957
▁പിന്നോട്ട	-10.6958
▁ബൂത്തുകള	-10.6958
▁ഇടവം	-10.696
▁കൈവരിക്ക	-10.696
മുദ്ര	-10.6966
▁നിർമ്മിച്ച	-10.6967
▁യുമില്ല	-10.6969
▁വിവാഹിത	-10.6969
▁നിരോധന	-10.6969
▁അംഗങ്ങൾ	-10.6971
▁കെട്ടിയ	-10.6975
▁പിരിച്ച	-10.6976
▁ഡിജിറ്റല	-10.6978
▁വിധത്തില	-10.6978
▁ടാങ്ക	-10.6979
▁വെസ്റ്റ്	-10.6981
▁ആവശ്യമുള്ള	-10.6981
▁റഫ	-10.6984
▁ഇടക്കാല	-10.6995
▁റേഷന്‍	-10.6996
സബ്	-10.6998
▁മകളെ	-10.6998
▁കുടുംബവും	-10.701
▁പിടികൂടിയ	-10.7013
ായിട്ടാണ്	-10.7016
▁ഉച്ചകോടി	-10.7017
▁പ്രസക്ത	-10.7017
▁കായംകുള	-10.7017
ൊടി	-10.7017
▁തൂങ്ങി	-10.7018
▁ഭരണകക്ഷി	-10.702
▁വയസ്സിന	-10.7023
▁നായിക	-10.7024
▁ഓവറ	-10.7024
ാവാത്ത	-10.7026
▁യൂണിയ	-10.7026
▁പറ്റാത്ത	-10.7028
▁നിര്‍ത്താന	-10.7028
▁കണ്ടിട്ട	-10.7031
▁സന്ദർശി	-10.7031
▁ആരാധ	-10.7035
▁സഞ്ചരി	-10.7039
▁പ്രസാദ	-10.704
▁സംവിധായകന	-10.7041
▁ബിസിനസ്സ	-10.7046
▁സര്‍ട്ടിഫിക്ക	-10.7049
▁കര്‍ണാടകയില	-10.7052
▁പരിഹരിക്കാന	-10.7052
▁നൽകണമെന്ന	-10.7058
▁ചേരാന	-10.706
▁ഉമ്മൻ	-10.7061
▁കൂടുന്ന	-10.7062
▁വര്‍ഗ	-10.7063
സണ്‍	-10.7072
▁കണ്ടെത്താൻ	-10.7075
▁ക്രൈസ്ത	-10.7076
▁ഗ്രാമീണ	-10.7076
▁മുരളി	-10.7076
▁ഫുട്	-10.7076
▁01	-10.7077
▁മജിസ്	-10.7079
▁എതിര്‍ത്ത	-10.7083
▁നിറയ	-10.7085
▁പങ്കുവെ	-10.7088
പ്പൊ	-10.709
▁പറയണം	-10.7091
▁അപൂര്‍വ	-10.7095
▁ഗോപിനാഥ	-10.7099
▁മനീഷ	-10.7099
▁നഗരസഭാ	-10.7105
ാകണം	-10.711
▁വാര്‍ഷിക	-10.711
▁യാത്രയ്ക്ക	-10.7114
▁വീട്ട	-10.7118
▁ക്കില്ലെന്ന	-10.7122
▁ബീച്ച	-10.7123
▁ിരിക്കുക	-10.7125
▁ഫലങ്ങള	-10.7131
▁ന്മാര	-10.7134
▁പത്മ	-10.7136
▁ഉമ്മൻചാണ്ടി	-10.7136
▁താല്പര്യ	-10.7136
▁പരമ്പരാഗത	-10.7136
▁മതനിരപേക്ഷ	-10.7136
▁സംഘാടക	-10.7136
▁പരമ്പര	-10.7136
▁ക്ലിനിക്ക	-10.7136
▁അടക്കമുള്ളവര	-10.7138
ഓ	-10.7139
▁സംവാദ	-10.714
▁കസ്റ്റഡിയിൽ	-10.7142
▁നിയന്ത്രിക്ക	-10.7142
▁സാധിച്ചിട്ടില്ല	-10.7147
▁വിമർശ	-10.7149
▁സ്റ്റോറി	-10.7156
▁കളിലൊന്ന	-10.7159
▁ചോര	-10.716
▁ഫ്ല	-10.716
▁2006	-10.716
▁അസമില	-10.7163
▁മല്‍സരിച്ച	-10.7164
▁അംഗമായ	-10.7178
▁വോട്ടിന	-10.7187
▁മരുന്നുകള	-10.7188
▁ബാറ്റ്	-10.7194
▁കമ്മ്യൂണിസ്റ്റ്	-10.7196
▁മസ്ജിദ	-10.7196
▁അദ്ധ്യക്ഷ	-10.7196
▁തമാശ	-10.7196
▁B	-10.7196
▁താമര	-10.7197
ശേഷി	-10.7199
ദിവസം	-10.72
▁ട്രസ്റ്റ	-10.7203
▁ആലോചിക്കുന്ന	-10.7206
▁ുണ്ടെങ്കില്‍	-10.721
▁വിജയകരമായ	-10.7211
▁ബോള്‍	-10.7212
▁നഷ്ടമാക	-10.7216
▁രോഗബാധിതര	-10.7221
▁പോട്ട	-10.7229
▁ജീവനക്കാരന	-10.7232
▁വിനയ	-10.7232
▁മന്ത്രിസഭയില	-10.7233
▁ടൈ	-10.724
ദൂര	-10.7256
▁മാനന്തവാടി	-10.7257
▁പ്രശംസ	-10.7257
▁മാതൃഭൂമി	-10.7257
▁വിരോധ	-10.7257
▁ഖേദ	-10.7257
▁മാസ്റ്റര്‍	-10.7257
ാധികാര	-10.7257
an	-10.7258
ണ്ടാകുന്ന	-10.7259
▁വുമില്ല	-10.7261
▁പഠിക്കുന്ന	-10.7265
▁കാപ്പന	-10.7271
▁അത്യാവശ്യ	-10.7272
▁പ്രവേശ	-10.7275
▁പോർട്ട	-10.7282
▁അനുഭവപ്പെട്ട	-10.7283
▁വിമാനത്താവളത്തി	-10.7288
▁ഉപകരണ	-10.7289
▁തിരഞ്ഞ	-10.731
▁എടുക്കാന	-10.7312
▁ഉള്‍പ്പടേയുള്ള	-10.7318
▁നിയോഗിക്ക	-10.7318
▁വിശ്രമ	-10.7318
▁2013	-10.7318
▁എൻസിപി	-10.7318
▁ഡെവലപ്	-10.7319
▁മേനോന	-10.7319
▁പൂര്‍ത്തിയാക്ക	-10.732
▁ഉറപ്പാക്കാന	-10.7323
▁അന്തരിച്ചു	-10.7323
▁പ്രവചിക്കുന്നത്	-10.7325
▁വയ്ക്കുന്ന	-10.733
▁തുറക്കുന്ന	-10.7331
▁നാശ	-10.7334
▁പൂർത്തിയായ	-10.7337
▁ഉപയോഗിക്കാ	-10.7339
▁രോഗികൾ	-10.734
▁റോയ്	-10.7341
ുകൂടി	-10.7342
▁പാകിസ്ഥാന	-10.7344
▁വരോട	-10.7347
▁കണ്ണൂര	-10.7349
▁അത്യാ	-10.7356
ാലിറ്റി	-10.7359
▁സഖ്യകക്ഷി	-10.7361
▁മൂന്നാ	-10.7372
▁പരിശോധിക്കുന്ന	-10.7375
▁ഐപിഎ	-10.7376
▁എട്ടാ	-10.7377
▁അഭ്യര്‍ത്ഥിച്ച	-10.7379
▁ക്കപ്പെട	-10.7379
▁ആഘാത	-10.7379
▁ഡെമോക്രാറ്റ	-10.7379
▁തൊഴിലവസര	-10.7379
▁സിക്യൂട്ടീവ്	-10.7379
▁ഇടയാക്കിയ	-10.7379
▁സച്ചിൻ	-10.7379
▁കാര്യക്ഷമ	-10.7379
▁റോബിന	-10.738
▁ഉണ്ടാവില്ല	-10.7381
▁ദിവ്യ	-10.7382
▁ഓടിച്ച	-10.7384
▁നടത്തേണ്ട	-10.7385
▁ജിയോ	-10.7387
▁ചക്ര	-10.739
മുനിസിപ്പാലിറ്റി	-10.7392
▁കോഴിക്കോട്ട	-10.7394
ക്കുട്ടി	-10.7394
re	-10.7399
▁കൈയ്യില	-10.7401
▁എത്തിക്കുന്ന	-10.7413
▁ഇല്ലെങ്കില	-10.7415
▁കടുവയെ	-10.7416
▁ജോയ്	-10.7418
ഷിപ്പ്	-10.7421
▁ആര്‍ട്ടി	-10.7424
▁സീറ്റില	-10.7432
▁തുകൊണ്ട്	-10.7434
▁പക്ഷി	-10.7435
▁പണവും	-10.744
▁ഉദ്യോഗാർത്ഥി	-10.7441
▁എപ്പിസോഡ	-10.7441
▁പ്രവിശ്യ	-10.7441
▁സീതാരാമ	-10.7441
▁നാദിറ	-10.7441
▁കാരണമാണ്	-10.7441
▁ബാറ്റിംഗ	-10.7441
▁സ്റ്റാന്‍ഡ	-10.7442
▁ശീല	-10.7442
▁ഷെയ്ഖ	-10.7442
▁കള്ളപ്പണ	-10.7443
▁കാട	-10.7443
▁വാക്സിനേഷൻ	-10.7443
▁പിടിച്ചെടുക്ക	-10.7444
▁എംഎൽഎമാര	-10.7444
▁ശാസ്ത്രീയ	-10.7444
▁ദേഷ്യ	-10.7444
▁കൈവിട്ട	-10.7449
▁ഫ്രീ	-10.745
കാവ്	-10.7452
▁സച്ചിന	-10.7457
▁അറിയാന്‍	-10.7458
▁ട്രാവ	-10.7472
▁രോഗലക്ഷണ	-10.7477
▁കണ്ണൂരിലെ	-10.7478
▁മാനേജർ	-10.7479
▁ഖാദ	-10.7484
▁ഹെഡ	-10.7488
പള്ളി	-10.7491
▁താലിബാന	-10.7494
▁പ്രതികരണവു	-10.7495
▁കൊണ്ടിരിക്ക	-10.7496
▁ചിന്തിച്ച	-10.7501
▁സാഹിത്യ	-10.7503
▁ഹെലികോപ്റ്റ	-10.7503
▁അഡീഷണ	-10.7503
▁അടങ്ങുന്ന	-10.7503
▁ബത്തേരി	-10.7503
▁സ്ഥിതിഗതി	-10.7503
▁വിശ്വസ്ത	-10.7503
▁സ്റ്റേഡിയ	-10.7503
▁രാഹുലിന്	-10.7505
▁റോഡുകള	-10.7506
▁കൗൺസില	-10.7506
▁ഉയര്‍ത്തുന്ന	-10.7507
▁പൂട്ട	-10.7507
▁സര്‍വീസുകള്‍	-10.7514
▁പന്നി	-10.7515
▁ആണെങ്കില	-10.7516
▁നോര്‍ത്ത	-10.752
▁റോയി	-10.7527
▁800	-10.7531
യോഗം	-10.7536
▁പൊലിസ	-10.7539
▁മുഹമ്മദ	-10.7539
▁നേട്ടങ്ങൾ	-10.7544
▁ിരുന്നതായ	-10.7544
▁വിലയിരുത്തൽ	-10.7548
ാബ്	-10.7551
▁കലാകാരന	-10.7552
▁വ്യക്തികള	-10.7552
▁പ്രിന്‍സിപ്പല	-10.7565
▁വിട്ടുവീഴ്ച	-10.7565
▁വിരമിച്ച	-10.7565
▁സ്പീക്കർ	-10.7565
▁അബദ്ധ	-10.7565
▁അടിത്തറ	-10.7566
▁ഫിലിം	-10.7566
▁താമസിച്ച	-10.7567
▁പരാതികള്‍	-10.7568
▁ഈടാക്ക	-10.7572
▁സോളാ	-10.7574
▁അപ്പുറ	-10.7579
▁രംഗത്തിറ	-10.7583
▁ശ്രദ്ധിച്ച	-10.7586
▁ജനപ്രതിനിധി	-10.759
▁ഹിന്ദുത്വ	-10.7599
▁തീർത്ത	-10.7602
▁ലഭിച്ചിട്ടില്ല	-10.7604
▁സ്റ്റാലിന	-10.7607
▁സഹകരിച്ച	-10.7618
▁ആയിട്ട	-10.7619
▁ുള്ളൂ	-10.7624
▁സ്വാഭാവിക	-10.7628
▁ലാലേട്ട	-10.7628
▁പ്രൈവറ്റ	-10.7628
▁ട്രീറ്റ്	-10.7628
▁സുശാന്ത	-10.7629
▁പ്രായപരിധി	-10.7629
▁വിശേഷിപ്പിച്ച	-10.7629
▁ഓപ്പണ	-10.763
▁പ്രേമ	-10.7638
▁നാളുകള	-10.7638
▁കേന്ദ്രീകരി	-10.764
▁നിലപാടിലാണ്	-10.764
▁അഞ്ചാ	-10.7647
റ്റുകള്‍	-10.765
▁ദിശ	-10.7651
▁ഓഫീസര്‍മാര	-10.7655
▁അക്രമികള	-10.7663
▁സ്ഥാപിക്കുന്ന	-10.7669
▁തസ്തികയിലേക്ക	-10.7671
▁സംരക്ഷിക്കുന്ന	-10.7674
▁അഭിനന്ദ	-10.7676
▁നീക്കങ്ങള	-10.769
▁വിദഗ്ദ	-10.7692
▁വിലക്കയറ്റ	-10.7692
V	-10.7692
▁ജേക്കബ്	-10.7692
▁2012	-10.7692
▁ലഭ്യത	-10.7692
▁അപലപി	-10.7692
▁ചെയ്തിട്ട	-10.7692
▁സമ്പൂര്‍ണ	-10.7692
കുളങ്ങര	-10.7692
▁കാസർകോട്	-10.7692
▁ഹാരിസ	-10.7695
▁തെരഞ്ഞെടുപ്പിന	-10.7696
▁പങ്കിട	-10.77
▁വാങ്ങാന	-10.7707
▁ബോഡി	-10.7718
▁നോക്കൂ	-10.7719
ഞ്ജന	-10.7722
▁അമരീന്ദര്‍	-10.7728
▁ഒരുങ്ങുന്നത്	-10.7731
▁പിന്മാറ	-10.7731
▁തങ്ങള്‍ക്ക	-10.7731
▁പശ്ചാത്തല	-10.7732
▁ജോർജ	-10.7734
വെയ്	-10.7736
ിനേക്കാ	-10.7745
▁തീരുമാനമെടുക്ക	-10.7746
▁മറിഞ്ഞ	-10.7747
▁സാധിക്കുക	-10.775
▁ഒഴുക്ക	-10.7754
▁പൊതുമേഖല	-10.7755
▁നാട്ടുകാർ	-10.7755
▁യെച്ചൂരി	-10.7755
▁നക്ഷത്ര	-10.7755
▁വന്ദേഭാരത	-10.7755
▁നൃത്ത	-10.7755
▁പ്രഥമ	-10.7755
▁സമസ്ത	-10.7756
▁ക്രമീകരി	-10.7757
ാബാദ്	-10.7758
▁ദേശീയപാത	-10.7761
▁പോക്ക	-10.7765
▁കുമാറിന്	-10.7767
▁യിലുണ്ട്	-10.7771
▁അംഗീകാര	-10.7775
▁വാഹനങ്ങൾ	-10.7778
▁പ്രേക്ഷകർ	-10.7781
ചാർജ്	-10.7802
▁മാത്രമാണെന്ന	-10.7808
▁ചെമ്പ	-10.781
W	-10.7819
▁ലോകായുക്ത	-10.7819
▁കുമ്മനം	-10.7819
▁ഗര്‍ഭിണി	-10.7819
▁ലഡാക്ക	-10.7819
▁നിർവഹ	-10.782
▁വര്‍ഷങ്ങളായ	-10.7821
▁ആകെയുള്ള	-10.7821
▁വിശ്വസിച്ച	-10.7824
▁സഹായവും	-10.7828
▁യന്ത്ര	-10.7836
▁പാലിക്കണം	-10.784
▁സംരക്ഷി	-10.7841
▁വിദേശത്തു	-10.7846
▁യോഗ്യതയുള്ള	-10.7854
▁ശുക്രന	-10.7856
▁എത്താന	-10.7858
▁ക്ലബ	-10.7858
▁ഇതൊന്ന	-10.7859
▁ൂരില	-10.787
▁ആരാധക	-10.7871
▁മാറുമെന്ന	-10.7873
▁എക്സിക്യൂട്ടീവ്	-10.7884
▁ദുരുപയോഗ	-10.7884
▁സ്പീക്കറ	-10.7884
▁ഡൊണാള്‍ഡ	-10.7884
▁കങ്കണ	-10.7884
▁ബില്യണ	-10.7885
ാതിരിക്കാന്‍	-10.7885
▁എന്നയാള	-10.7888
മാറ്റം	-10.7888
▁ശ്രമത്തിലാണ്	-10.7888
▁രണ്‍	-10.7891
▁ഹജ്ജ	-10.7895
▁ഇഷ്ടമ	-10.7897
ക്കുള്ളില്‍	-10.7897
▁അണികള	-10.7902
▁കുട്ട	-10.7902
▁2009	-10.7906
രിസ്ഥിതി	-10.791
▁സിറ്റിങ്	-10.7917
ച്ചിറ	-10.792
▁നടത്തണം	-10.792
െൻറ	-10.7925
▁ബദ	-10.7932
▁ഉടമകള	-10.7936
▁ആരോപണങ്ങൾ	-10.794
▁ഇളവു	-10.7947
▁ദക്ഷിണേന്ത്യ	-10.7949
▁പ്രൊജക്	-10.7949
▁നഗർ	-10.795
▁പകര്‍പ്പ	-10.7951
▁യുവജന	-10.7953
▁ിനേയും	-10.796
▁യുടേത്	-10.796
▁മാലിക്	-10.7961
▁ചിത്രമാണ്	-10.7961
സ്വാമി	-10.7962
▁റിപ്പോർട്ടുകള	-10.7962
▁നെഗറ്റീവായ	-10.7972
▁ചെയര്‍മാന	-10.7975
▁രൂപീകരണ	-10.7976
▁മണിയോടെയാണ്	-10.7982
ക്കിള്‍	-10.7982
ഷണല്‍	-10.7983
▁വാര്‍ഡില്‍	-10.7991
we	-10.7996
▁അമര	-10.7999
▁കണക്കിലെടുത്ത	-10.8006
▁വിപുലമായ	-10.8007
▁ലാലു	-10.8009
▁മനസിലാക്കി	-10.801
▁തിരുത്തി	-10.8012
▁സമ്മര്‍ദ	-10.8014
▁സർവ്വകലാശാല	-10.8014
സൂക്ഷ്മ	-10.8014
▁ബീഹാര്‍	-10.8014
▁ധര്‍മ്മ	-10.8015
▁പുരുഷന്മാര	-10.8016
▁തിനാല	-10.8027
▁മൃതദേഹങ്ങള്‍	-10.8028
▁ത്തുമെന്ന	-10.8029
▁ഇന്ത്യയിലേക്ക	-10.8037
▁സ്വര്‍ണത്തിന്	-10.8041
▁വർദ്ധിപ്പി	-10.8051
▁രൂപയായിരുന്നു	-10.806
▁സർവ്വീസ	-10.8062
െതിരെ	-10.8063
▁വിടാന	-10.8063
▁ബ്ലോക്ക	-10.8064
▁നീക്കത്ത	-10.8064
▁ക്രിമിന	-10.8066
▁അല്ലേ	-10.8068
▁പരിഹരിച്ച	-10.808
▁ബാംഗ്ലൂര	-10.808
▁ആധിപത്യ	-10.808
▁സെന്‍ട്രല	-10.808
▁എല്ലായിടത്ത	-10.808
▁സ്വാഭാവികമായ	-10.808
▁ട്രാൻസ്	-10.808
▁ചന്നി	-10.8081
▁ട്രെയിൻ	-10.8082
▁പശു	-10.8082
▁ജ്യോതിരാ	-10.8082
▁താലിബാ	-10.8084
▁ചേച്ചി	-10.8084
▁അനുവാദ	-10.8084
▁കുറ്റപ്പെടുത്ത	-10.8089
▁സ്ത്രീകള്‍ക്ക	-10.8092
▁ക്രമീകരണ	-10.8092
സംസ്ഥാന	-10.8094
▁സംഭവിക്കാ	-10.8102
▁അറിയിക്കുകയ	-10.8107
▁രേഖകൾ	-10.811
▁ആവശ്യത്തിന	-10.8116
▁പൊന്ന	-10.8118
▁അയോധ്യ	-10.8119
ലൈറ്റ	-10.8122
ഭാരതീയ	-10.8123
▁രക്ഷപ്പെടുത്ത	-10.813
▁700	-10.8133
▁അധികാരത്തിൽ	-10.8133
▁മാസത്തില	-10.8142
▁ഊര്‍ജ	-10.8146
▁ഇംഗ്ലണ്ട	-10.8146
▁ഓപ്പറേറ്റ	-10.8146
▁ഉപേക്ഷിക്ക	-10.8147
▁കുതിര	-10.8147
▁പുതുമുഖ	-10.8148
▁നന്മ	-10.8148
▁കോൺഗ്രസിനെ	-10.8148
▁കാത്തിരി	-10.8148
▁ചലന	-10.8148
▁കുറയ്ക്കാന	-10.8152
▁എത്രത്തോളം	-10.8154
▁ഉപയോ	-10.8157
▁മനസിലായ	-10.8169
▁ഘട്ടങ്ങള	-10.818
▁പ്രഖ്യാപി	-10.8181
്വാന	-10.8184
▁പരിഗണനയില	-10.8184
▁ഭൂരിപക്ഷത്തില	-10.819
▁റോഷ	-10.8197
▁സമ്മാനിച്ച	-10.8209
gov	-10.8213
▁അശ്ലീല	-10.8213
▁രാജ്യദ്രോഹ	-10.8213
▁നൂറ്റാണ്ട	-10.8213
▁ഭാഗ്യലക്ഷ്മി	-10.8213
▁ദീര്‍ഘകാല	-10.8214
▁പൂച്ച	-10.8218
▁യെടുത്ത	-10.8219
▁പൂർത്തിയാക്കിയ	-10.8219
▁അടച്ചിട്ട	-10.8228
▁ഐപിഎല്‍	-10.8235
▁ഹാഷ്	-10.8241
▁കുട്ടികൾക്ക	-10.8243
▁യുക്രൈ	-10.8261
▁അത്രയ	-10.8262
▁ഹരിയാനയില	-10.8266
പുഴ	-10.8279
▁പ്രോത്സാഹിപ്പി	-10.828
▁വിൽപ്പന	-10.828
▁ഹര്‍ദിക്	-10.828
▁പന്ത്രണ്ട	-10.828
▁ഉണ്ടോ	-10.828
▁An	-10.828
▁റാന്നി	-10.828
▁ഉച്ചയോടെ	-10.8283
▁ക്കുമെതിരെ	-10.8286
▁അവസാനിക്കുന്ന	-10.8287
▁ക്ഷണിക്ക	-10.8288
വൈദ്യുത	-10.8294
▁പെരുമാറിയ	-10.8297
▁സഹായിക്കും	-10.8297
▁ബാന	-10.8298
▁വിന്യസിച്ച	-10.8299
▁ദിവസത്തേക്ക്	-10.83
▁വിശദീകരിച്ച	-10.8301
▁ടൈറ്റ	-10.8304
▁ഗോവിന്ദന്‍	-10.8321
▁തിനെക്കുറിച്ച	-10.8329
▁ദുഷ്	-10.8338
▁താൽക്കാലിക	-10.8348
▁പിന്നാക്ക	-10.8348
▁തട്ടിയെടുത്ത	-10.8348
▁ആവർത്തിച്ച	-10.8348
▁മുസ്ലീങ്ങള	-10.8348
▁ജാസ്മിന	-10.8348
▁വീണ്ടെടു	-10.8348
▁ഫുഡ്	-10.8348
▁അര്‍ധ	-10.8348
▁നഗറില	-10.835
▁വീടിന	-10.8354
▁ഗീത	-10.8355
▁തിരക്കഥ	-10.8356
▁ഓര്‍മ്മ	-10.8357
▁വ്യക്തിത്വ	-10.8359
▁പറഞ്ഞിരുന്ന	-10.8364
▁സദസ	-10.8375
▁തിരഞ്ഞെടുപ്പുകള	-10.8377
▁വ്യക്ത	-10.8382
▁താണോ	-10.8389
▁സര്‍ക്കാരിന	-10.8395
▁ഇലക്ട്ര	-10.8397
▁നിര്‍ബന്ധമാ	-10.8401
▁പറഞ്ഞിട്ടില്ല	-10.8413
▁വികസിപ്പിച്ച	-10.8416
▁പാചക	-10.8416
▁ഏതാണ്ട	-10.8417
▁തലവേദന	-10.8417
▁തടയുന്നതിന	-10.8418
▁പൃഥ്വിരാജ	-10.842
▁നിർത്തിയ	-10.843
▁നടപ്പിലാക്കിയ	-10.8436
▁വാശി	-10.8441
ജാത	-10.8443
▁യുപിഎ	-10.8444
▁ിക്കണമെന്ന	-10.8445
▁പങ്കെടുക്കാന	-10.8446
▁ക്യാപ്റ്റന	-10.8448
▁ചോദ്യങ്ങൾ	-10.8453
▁കണ്ണൂരിൽ	-10.8453
▁കേസിന	-10.8458
ഭാഷ	-10.8462
▁പുരോഗമിക്കുന്ന	-10.847
▁തൊണ്ട	-10.8472
▁കൗൺസ	-10.848
K	-10.8484
sha	-10.8484
▁അധ്യാപിക	-10.8484
▁എക്സൈസ്	-10.8484
▁പ്രോജക്ട	-10.8484
▁ഐസിയു	-10.8484
▁ഘടന	-10.8484
▁മഹിള	-10.8484
▁07	-10.8486
▁ശുഭകരമായ	-10.8486
▁ആസ്ഥാനത്ത	-10.8486
▁രജിത്	-10.8488
ടനീള	-10.8496
▁ഫെഡറ	-10.8503
▁കുരുക്ക	-10.8505
▁മോഷണ	-10.8514
▁ഹിന്ദുക്കള	-10.8515
▁റായ്	-10.8525
▁രാഹുലിനെ	-10.8527
ക്കുറിച്ച്	-10.8528
സ്റ്റിറ്റ്യൂട്ട്	-10.8541
▁നേടാ	-10.8542
▁ബിഹാറില	-10.8543
▁സീന	-10.855
nam	-10.8553
▁തൃപ്പൂണിത്തുറ	-10.8553
▁പെട്രോൾ	-10.8553
▁ലക്ഷക്കണക്കിന	-10.8553
▁സ്മൃതി	-10.8553
▁ദര്‍ശന	-10.8553
▁ഡിസൈന	-10.8553
▁സന്ധ്യ	-10.8553
▁നവകേരള	-10.8553
▁പൊലീസുകാര	-10.8554
▁ഭരിച്ച	-10.8554
▁സ്ഥാനാർത്ഥിയായ	-10.8569
▁സ്വര്‍ണ്ണ	-10.857
▁പൂന്ത	-10.8572
▁ക്കാറുണ്ട്	-10.858
▁പ്രതിഷേധക്കാര	-10.8581
▁ലേല	-10.8593
▁എറിഞ്ഞ	-10.8598
▁കുടുംബത്തിന	-10.8599
▁പതിപ്പ	-10.8599
▁യില്ലാതെ	-10.8599
▁ബുധന	-10.8612
▁ലോക്ക്ഡൗ	-10.862
പയോഗ	-10.862
▁താൽപര്യ	-10.8623
▁വാർഷിക	-10.8623
▁സ്ഥാപക	-10.8623
▁വൈറൽ	-10.8623
▁ചാനലുകള	-10.8623
▁ഹരിദാസ	-10.8624
▁പലര്‍ക്കു	-10.8624
▁യാണെങ്കിൽ	-10.8626
▁ആവര്‍ത്തിക്ക	-10.8627
▁രാജ്യങ്ങൾ	-10.8628
▁പുല്ല	-10.8638
▁അറസ്റ്റില്‍	-10.8639
▁ഇടങ്ങളില	-10.8639
▁പിന്തുണയോടെ	-10.8641
ശേഖര	-10.8643
പരിധി	-10.8643
M	-10.8645
▁അനിയ	-10.8656
▁ബന്ധമുള്ള	-10.8661
ar	-10.8666
▁പോരാട്ടമാണ്	-10.8668
▁പ്രത്യ	-10.8673
▁മണ്ഡലമാണ്	-10.8677
▁കെഎസ്ആർടിസി	-10.8692
▁ക്രെഡിറ്റ്	-10.8692
▁പേരാമ്പ്ര	-10.8692
▁വിദ്യാലയ	-10.8692
ാനുമതി	-10.8693
▁ലഭ്യമാണ്	-10.8693
▁കഴുക	-10.8693
▁ലക്ഷത്തിലധിക	-10.8694
ദല്‍ഹി	-10.8694
▁ആസ്ഥാനമായ	-10.8695
▁വിജയിക്കുമെന്ന	-10.8697
▁മോഡി	-10.8703
▁തടയാന	-10.8705
▁സയന്‍സ	-10.8705
▁സെന്ററില	-10.8707
▁രാജ്യങ്ങളുടെ	-10.8709
▁രാജ്യസഭയില	-10.8716
ക്കുറവ	-10.8723
▁മുറിച്ച	-10.8726
▁പ്രതികാര	-10.8727
▁ഉള്ളവർ	-10.8728
▁മോഹൻ	-10.8728
▁വലതു	-10.8743
▁മറികടക്ക	-10.8751
▁പൊലീസിനെ	-10.8751
ണമെങ്കിൽ	-10.8753
▁കിടക്കകള	-10.8753
▁ജോണി	-10.8756
▁അനൂപ	-10.8761
▁നാണക്കേട	-10.8763
▁വിപ്ലവ	-10.8763
▁1/2	-10.8763
▁ഓഡിയോ	-10.8763
▁ജിഎസ്ടി	-10.8763
▁ണമെങ്കില്‍	-10.8763
▁റൗണ്ട	-10.8763
▁ഒരുപക്ഷേ	-10.8763
▁പീഡിപ്പിക്ക	-10.8763
▁സ്ഥാപനങ്ങളുടെ	-10.8763
▁ഡോളർ	-10.8763
▁മാഫിയ	-10.8763
▁പോലുമില്ല	-10.8764
▁തസ്തികകള	-10.8772
▁ജോസിന	-10.8783
▁പൊതുവെ	-10.8784
▁അപ്രതീക്ഷിതമായി	-10.8788
▁തയ്യാറെടുപ്പ	-10.8793
▁ഗോവയില	-10.88
വര്‍ത്തി	-10.8803
വര്‍ക്കെതിരെ	-10.8813
▁പിളര	-10.8819
▁സ്വരാജ	-10.8824
▁ഇടഞ്ഞ	-10.8825
▁പ്രേക്ഷക	-10.8827
▁ഉപയോഗപ്പെടുത്ത	-10.8833
▁ആഞ്ഞടിച്ച	-10.8834
▁ചൂഷണ	-10.8834
▁ആന്റിജന	-10.8834
▁അഭിഷേക്	-10.8834
▁ബാധിക്കും	-10.8834
▁നഗ്ന	-10.8834
▁ഇസ്ലാമി	-10.8834
▁ൊന്നുമില്ല	-10.8835
ുരുത്തി	-10.8836
▁ചിത്രീകരണ	-10.8838
യാണിത്	-10.8841
▁പകരുന്ന	-10.8845
▁വരികയാണെന്ന	-10.8845
സമയം	-10.8853
▁ഏറ്റെടുക്കുന്ന	-10.8874
▁സ്ഥാനങ്ങള	-10.8875
▁ചെയ്തിട്ടുള്ളത്	-10.8875
▁മാഹി	-10.8876
▁മിണ്ട	-10.8878
▁എന്നിവയ്ക്ക	-10.8879
▁നിർദേശിച്ച	-10.8885
▁മറവ	-10.8888
▁കൈക്കൊള്ള	-10.8905
▁3/4	-10.8905
▁തിയ്യതി	-10.8905
▁പെക്ടര്‍	-10.8905
▁കൂട്ടുകെട്ട	-10.8905
▁സുഭാഷ്	-10.8905
▁ഉപഭോക്താക്കള	-10.8905
▁തകര്‍ച്ച	-10.8905
▁ഇതിനിടയില	-10.8906
▁എത്തിച്ചേര	-10.8911
ല്ലായ്മ	-10.8912
▁സർവ്വ	-10.8913
▁സ്ഥിരീകരി	-10.8914
▁പതിച്ച	-10.8915
▁ആദിത്യ	-10.8916
▁കഴിക്കുന്ന	-10.8917
▁സാഹചര്യമാണ്	-10.8918
▁പുരോഗമിക്കുകയാണ	-10.8922
▁കിണറ	-10.8924
▁പ്രയോജന	-10.8932
▁ബെംഗളൂരുവില	-10.8933
▁ബാലറ്റ	-10.8935
▁യുണ്ടായിരുന്നു	-10.8941
▁നടത്തിയതെന്ന	-10.8953
▁ലിംഗ	-10.8954
ായിരിക്കണം	-10.8955
▁മരിക്കുന്ന	-10.8956
▁നൊപ്പം	-10.8957
▁ആക്രമണത്തിന്	-10.8961
▁ചെയ്യാത്ത	-10.8963
▁അഫ്ഗാനിസ്ഥാ	-10.8972
▁വെള്ളപ്പൊക്ക	-10.8977
▁തൊഴിലില്ലായ്മ	-10.8977
▁നേപ്പാള	-10.8977
▁മോഹൻലാൽ	-10.8977
▁മര്യാദ	-10.8977
▁ഗ്രൗണ്ട	-10.8977
▁ആകര്‍ഷി	-10.8977
▁യൂറോപ്യ	-10.8977
▁മന്ത്രിസ്ഥാനം	-10.8977
▁ക്ഷീണ	-10.8979
▁ഡയറക്ടറേറ്റ	-10.898
▁ഉദ്ദേശിച്ച	-10.8986
▁ജപ്പാന	-10.8991
▁സംവിധായകൻ	-10.8993
▁തെറ്റിദ്ധരിപ്പി	-10.8995
▁അഥവ	-10.8995
▁തുണ്ടെന്ന	-10.8999
▁ദത്ത	-10.9001
▁പുത്തന്‍	-10.9016
▁റിയാസ	-10.9016
▁അങ്ങോട്ട	-10.9018
▁കോര്‍പ്പറേഷന	-10.9024
▁നടത്തുകയാണ്	-10.9026
▁സംഘടനകളുടെ	-10.9026
ഹത്യ	-10.9032
▁പൂർണ	-10.9042
▁ഏർപ്പെടുത്ത	-10.9044
▁പ്രത്യക്ഷ	-10.9045
▁മൂക്ക	-10.9046
▁ആസൂത്രിത	-10.905
▁ഓക്സിജൻ	-10.905
▁ട്രാഫിക്	-10.905
▁പ്രവണത	-10.905
▁എസ്എഫ്ഐ	-10.905
▁ചെറുപ്പക്കാര	-10.905
▁ഫാക്ടറി	-10.905
▁വര്‍ദ്ധന	-10.905
▁ഉപാധി	-10.905
▁ഏപ്രിലി	-10.905
▁ലൈസൻസ	-10.905
▁പട്ടിണി	-10.905
▁തുലാം	-10.905
▁വിനായക	-10.905
▁പ്രോഗ്രാം	-10.9051
▁തീര്‍ച്ച	-10.9051
▁കവിത	-10.9054
▁മാതാപിതാക്	-10.9056
▁അപ്പീല	-10.9056
▁മധുര	-10.9058
▁3000	-10.9059
▁ക്കെതിരേ	-10.9062
▁ഡേറ്റ	-10.9063
▁താല്‍പര്യമില്ല	-10.9064
▁ഇക്കാര്യങ്ങള്‍	-10.9068
▁മറ്റാര	-10.907
▁പ്രവാസികള്‍ക്ക	-10.9073
▁നോക്കുക	-10.9074
ക്കെതിരായ	-10.9078
▁ഏതൊര	-10.9089
▁ആരൊക്കെ	-10.9091
▁ചടങ്ങുകള്‍	-10.9092
▁പ്രസിദ്ധീകരി	-10.9092
▁പുരുഷന	-10.9106
ക്കൊടി	-10.9109
സിപ്പാലിറ്റി	-10.9122
▁അങ്ങേയറ്റ	-10.9123
▁ഉത്തര്‍പ്രദേശ്	-10.9123
▁ടെലിവിഷ	-10.9123
▁ഹുസൈ	-10.9123
▁ഗൗത	-10.9123
▁സ്ത്രീധന	-10.9123
▁വര്‍ഷങ്ങള്‍ക്ക	-10.9128
▁കണ്ടെത്തുന്ന	-10.9129
▁ഹെൽത്	-10.9131
▁രുചി	-10.9133
▁ഇതുപോലെ	-10.9135
▁സ്ത്രീകൾക്ക	-10.9138
ിനകത്ത്	-10.9139
▁നിഷേധ	-10.9147
▁ടൈംസ്	-10.915
ശ്രീ	-10.915
മൊഴി	-10.9151
പൂര	-10.9152
▁ഗുഡ്	-10.9158
▁നിരീക്ഷണത്തിൽ	-10.9164
▁യാക്കിയ	-10.9167
പോർട്ട്	-10.9172
▁ലധിക	-10.9179
▁വിവാഹത്തിന	-10.919
▁കൂട്ടിച്ചേർ	-10.9194
▁രാജഗോപാല	-10.9196
▁(26)	-10.9196
▁പാണ്ഡ്യ	-10.9196
▁മറുവശത്ത്	-10.9196
▁മാവോയിസ്റ്റ	-10.9196
▁സപ്ലൈ	-10.9196
▁താങ്കൾ	-10.9196
▁ഭൂഷണ	-10.9196
▁അവാർഡ	-10.9197
▁റെക്കോഡ	-10.9197
▁അന്‍വര്‍	-10.9197
▁സീരിയല	-10.9199
സീനിയർ	-10.9199
▁പടരുന്ന	-10.92
▁ഗൂഗിള	-10.9204
▁ചുരു	-10.9205
▁മനസ്സിലാക്കിയ	-10.9207
▁രോഷ	-10.9213
▁സ്വന്തമാക്കാന	-10.9213
▁ഹാജരാക്കിയ	-10.9217
▁നീക്കിയ	-10.9218
▁അതിര്‍ത്തിയില	-10.9224
ണ്ണൂ	-10.9228
ക്കുഴ	-10.9235
▁വയസിന	-10.924
▁ഡൗണ	-10.9241
▁സജ്ജമാക്ക	-10.9251
▁എടുക്കേണ്ട	-10.9266
▁മാസത്തിനുള്ളി	-10.9266
▁അശ്വിന	-10.9267
▁നടക്കുമെന്ന	-10.927
▁ചികില്‍സ	-10.927
▁പ്രചോദന	-10.927
▁ഗള്‍ഫില	-10.927
▁മോര്‍ച്ച	-10.9271
▁വ്യക്തമാകുന്ന	-10.9276
▁മെഗാ	-10.928
▁മിഷൻ	-10.9283
▁മന്ത്ര	-10.9297
വിദ്യാഭ്യാസ	-10.9302
▁ഉത്തരവാദി	-10.9304
ആര്‍ടിസ	-10.9304
▁നൽകേണ്ട	-10.9308
നിധി	-10.9331
▁ശ്രദ്ധേയമായ	-10.9342
▁ഇസ്ലാമിക	-10.9344
&	-10.9345
G	-10.9345
ദുരന്തനിവാരണ	-10.9345
▁ഇസ്രയേല	-10.9345
▁മഹാസഖ്യ	-10.9345
▁ഏകോപിപ്പി	-10.9345
▁അനുഭാവ	-10.9345
▁കോടിയോളം	-10.9345
▁തുര്‍ക്കി	-10.9345
▁ബന്ധമുണ്ടെന്ന	-10.9345
▁ശർമ്മ	-10.9346
▁കോപ്പി	-10.9346
▁മൗല	-10.9346
▁09	-10.9346
▁ബെന്നി	-10.9348
ഗുസ്തി	-10.9349
▁കളാണെന്ന	-10.935
ിക്കുമോ	-10.9352
▁തമിഴ്നാട്ടില	-10.9354
▁സാധിക്കാത്ത	-10.9355
▁പുറത്തെടുത്ത	-10.9357
▁സ്വീകരിക്കുക	-10.9363
▁ഡോക്ടര്‍മാര	-10.9376
സംഖ്യ	-10.9377
▁തരംഗത്ത	-10.9384
▁സഹായിക്കാന	-10.9388
ലേഖ	-10.939
ാവശ്യമായ	-10.9396
▁കേരളീയ	-10.9398
▁നില്‍ക്കാന	-10.9404
▁അടൂര	-10.9408
▁ആവശ്യപ്പെടുകയ	-10.9412
▁കുടുംബാംഗ	-10.9413
▁ട്വിറ്റര്‍	-10.942
▁ബ്രാഹ്മണ	-10.942
▁സെൻട്ര	-10.942
പരിചരണ	-10.942
▁മദ്യപിച്ച	-10.9421
▁റാങ്ക്	-10.9421
▁ബ്രാന്‍ഡ	-10.9422
▁റെയില്‍വെ	-10.9422
▁നവീകരണ	-10.9423
വേലിക്കര	-10.9423
▁െടുക്കുന്ന	-10.9423
▁മാറുകയ	-10.9425
▁ളാറ്റ	-10.9425
▁വാര്യര	-10.9428
▁സംഭരണ	-10.943
▁കോളേജുകള	-10.9438
▁അസോസിയേഷ	-10.9446
▁ജനപ്രതിനിധികള	-10.9447
ന്‍സിക്	-10.9463
▁സഞ്ചരിക്കുന്ന	-10.9483
▁കൊട്ടാര	-10.9494
▁കൃത്രിമ	-10.9496
▁തിരുവമ്പാടി	-10.9496
▁എല്‍ജെപി	-10.9496
▁മെഷീന	-10.9496
▁കസേര	-10.9496
▁സേഫ്	-10.9496
▁ത്തന്നെ	-10.9497
▁ഗ്രാഫ	-10.9498
▁യാകുമെന്ന	-10.9498
▁സ്രവ	-10.9499
▁ിക്കാം	-10.9501
▁സഖ്യമുണ്ടാ	-10.9503
▁കൺസ	-10.9504
▁കരുണ	-10.9505
ഴ്ത്തി	-10.9509
▁സാധ്യതയില്ല	-10.951
ത്തിലധിക	-10.9522
▁തെളിവുകൾ	-10.9531
▁രക്ഷിക്ക	-10.955
▁ഹാജരാ	-10.9551
▁ദമ്പതി	-10.9556
▁തെറ്റാണെന്ന	-10.9557
▁പിടിക്കാന	-10.9559
▁ജോജു	-10.957
▁കൂത്തുപറമ്പ	-10.9572
▁യൂണിവേഴ്സിറ്റി	-10.9572
▁സൂചിക	-10.9572
▁അവഗണിച്ച	-10.9572
▁ത്തുടര്‍ന്ന	-10.9572
▁പുഷ്പ	-10.9572
▁അണിയറ	-10.9572
▁പതിനെട്ട	-10.9572
on	-10.9574
▁ഇമേജ	-10.9575
▁പാനല	-10.9606
▁കരഞ്ഞ	-10.9628
▁വിശദീകരി	-10.9637
▁തൃണമൂൽ	-10.9649
▁ദുഃഖ	-10.9649
▁ഏറ്റുവാങ്ങ	-10.9649
▁കോണ്‍സുലേറ്റ	-10.9649
▁അവഗണിക്ക	-10.9649
▁2010	-10.9649
▁ചിരാഗ	-10.9649
▁ശ്രുതി	-10.9649
▁തിരിച്ചുവരവ	-10.9649
▁പുറക	-10.9651
▁ഗ്യാസ്	-10.9652
▁യൂസഫലി	-10.9652
▁ചെയ്യലിന	-10.9652
▁വാര്‍ത്തകള	-10.9655
▁വിളിപ്പിച്ച	-10.9657
▁ട്രേഷന്‍	-10.9659
▁വ്യക്തമാക്കണ	-10.9667
▁ഹോട്ടലുകള	-10.967
▁ഫലപ്രദമായ	-10.9672
▁ശതമാനമായി	-10.9676
▁നിക്ഷേപകര	-10.9683
▁കേള്‍ക്കുന്ന	-10.9685
▁യാകുന്ന	-10.9685
▁പ്പറ്റി	-10.9686
മായിരിക്കും	-10.9691
▁വിടുകയ	-10.9704
▁എഞ്ചിനീയറിംഗ	-10.9705
▁ആണ്‍കുട്ടി	-10.9707
▁മണിപ്പൂരില	-10.9707
▁പ്രചരിപ്പി	-10.9712
െയിൻ	-10.9717
മുട്ട	-10.972
▁ഡിവൈഎഫ്	-10.9724
▁ഓട്ടോറിക്ഷ	-10.9727
▁രാജസ്ഥാൻ	-10.9727
▁ഇമ്രാന	-10.9727
▁കിരണ്‍	-10.9727
▁അച്ഛൻ	-10.9727
▁ഓപ്ഷന	-10.9727
▁അണ്ണാ	-10.9727
▁ശ്രീജിത്ത	-10.9728
▁ഡോക്ടർമാർ	-10.9729
▁ട്രഷറ	-10.9729
▁ബദല	-10.9733
▁ലുകള	-10.9739
▁യുഎസ	-10.9748
▁കാത്തിരിക്കുക	-10.9748
▁ഉണ്ടാവുമെന്ന	-10.9752
ഫോർട്ട്	-10.9766
▁വിരല	-10.9773
▁ഉണ്ടാക്കാന	-10.9774
▁മോഷ്ട	-10.9776
▁യിട്ട	-10.978
▁നെഗറ്റീവ	-10.9797
kerala	-10.9805
▁അണുബാധ	-10.9805
▁ഗണ്യമായ	-10.9805
▁നിരപരാധി	-10.9805
▁പര്യടന	-10.9805
▁ഷാരൂഖ	-10.9805
▁ഉടലെടുത്ത	-10.9805
▁പ്രത്യാഘാത	-10.9805
▁വെല്‍ഫ	-10.9805
▁ആവശ്യകത	-10.9805
▁പകർപ്പ	-10.9806
ുയര്‍ന്ന	-10.9808
▁വിശ്വസിക്കാ	-10.9811
▁ക്ഷേത്രത്തില	-10.9813
▁ക്രൂരത	-10.9821
▁ഭക്തര	-10.9821
പിജെ	-10.9821
സ്ഥിരീകരണ	-10.9829
▁ലക്ഷ്യമിടുന്ന	-10.9831
▁അംഗങ്ങളായ	-10.9836
▁മൂന്നിന	-10.9836
▁കൂലി	-10.9843
▁(10	-10.9844
▁ഊന്ന	-10.985
▁താമസിച്ചിരുന്ന	-10.986
▁പിൻവലിച്ച	-10.9879
കള്‍ക്കും	-10.988
▁ദീര്‍ഘ	-10.9882
▁ഉപഭോക്ത	-10.9883
▁(29)	-10.9883
▁അറബിക്കടല	-10.9883
▁ആന്ധ്രാപ്രദേശ	-10.9883
▁ചിദംബരം	-10.9883
▁പരുക്കേറ്റ	-10.9883
▁യാഥാർത്ഥ്യ	-10.9883
▁വിഴിഞ്ഞ	-10.9883
▁ക്ലസ്റ്റര്‍	-10.9883
▁തോൽവി	-10.9884
▁റോയല്‍	-10.9884
▁ഗോള്‍ഡ	-10.9884
▁ചവിട്ടി	-10.9884
▁ഒഴിച്ച	-10.9884
▁ആവർത്തിക്ക	-10.9885
▁കരിപ്പൂര	-10.9885
▁കുട്ടനാട്	-10.9885
▁മാര്‍ഗ്ഗ	-10.9886
▁കുറുപ്പ	-10.9888
▁വിമര്‍ശനവു	-10.9889
▁തോല്‍പ്പി	-10.9891
▁മകള	-10.9895
▁ദുരൂഹത	-10.9896
▁ബാരല	-10.9897
▁സാബു	-10.9898
▁ക്ലാസുകള	-10.9905
▁കമന്റുകള	-10.9905
▁എമ്മിന	-10.9908
▁പേഴ്	-10.9908
കൊണ്ടിരിക്കുകയാണ	-10.9909
▁അങ്ങനെയെങ്കി	-10.991
▁സ്പോട്ട	-10.9913
▁തീരുമാനമെടുത്ത	-10.9914
▁നിരത്തി	-10.9914
▁വോട്ടിംഗ	-10.9916
▁കടകം	-10.9922
▁ക്യു	-10.9933
▁ആക്രമണത്തില	-10.9935
▁വോട്ടെണ്ണ	-10.9947
▁മാറ്റണമെന്ന	-10.9954
▁(23)	-10.9963
▁എന്‍ഫോഴ്	-10.9963
▁തള്ളിക്കളയ	-10.9963
▁തൊട്ടുപിന്നാലെ	-10.9963
▁മുൻഗണന	-10.9963
▁രക്തസാക്ഷി	-10.9963
▁ശുപാർശ	-10.9963
▁സുതാര്യ	-10.9963
▁കൊണ്ടുപോകാ	-10.9963
▁വര്‍ധിക്കും	-10.9963
▁നിറവേറ്റ	-10.9963
▁മുസ്ലിങ്ങള	-10.9964
▁കിട്ടാന	-10.997
▁അറിയിക്കുന്നു	-10.9972
▁മണ്ഡലമായ	-10.9972
▁തയ്യാറല്ല	-10.9975
▁പൂര്‍ണ്ണ	-10.9976
▁േക്കില്ല	-10.9977
▁നാലാമ	-10.9981
▁കൂട്ടത്തോടെ	-10.9988
▁ഇവിടുത്ത	-10.9989
▁യായിട്ട	-10.999
▁പറയണമെന്ന	-10.9991
▁ഹൈക്കമാന്‍ഡ	-10.9992
പ്രവർത്തക	-11.0004
▁കിസാ	-11.0004
▁വിശദീകരിക്കുന്ന	-11.0007
▁ചർച്ചകള	-11.001
കളോടെ	-11.001
വസ്തു	-11.0014
▁ശരിയല്ല	-11.0016
▁പെണ്‍കുട്ടികള്‍	-11.0017
▁മാധ്യമപ്രവർത്തക	-11.0024
▁ആവശ്യമാണെന്ന	-11.0034
▁പ്രൊഫഷണല	-11.0034
▁ഉള്‍ക്കൊള്ള	-11.0043
▁കേന്ദ്രസർക്കാര	-11.0043
▁എന്‍ജിനീയര്‍	-11.0043
▁ജനപ്രീതി	-11.0043
▁സൗന്ദര്യ	-11.0043
▁കൊയിലാണ്ടി	-11.0043
▁സിഇഒ	-11.0043
▁തിവാരി	-11.0043
▁ഗുലാം	-11.0043
▁സ്ട്രീ	-11.0043
▁റിമാന്‍ഡ	-11.0043
▁ഷിബു	-11.0043
▁വളര്‍ന്ന	-11.0044
▁ശര്‍മ്മ	-11.0045
▁നശിച്ച	-11.0047
▁സതീഷ	-11.0047
ുണ്ടാവില്ല	-11.0048
▁ുമെല്ലാ	-11.0049
▁മഹേഷ്	-11.0049
▁മേഘ	-11.005
▁സമർപ്പി	-11.0052
▁സുരേന്ദ്രനെ	-11.0053
▁വെയ്ക്കുന്ന	-11.0054
▁വേഗതയില	-11.0056
▁സൂചനയുണ്ട	-11.0058
▁നിര്‍മ്മി	-11.0067
▁ഹിറ്റ്	-11.0068
ിരട്ടി	-11.0071
ആശുപത്രിയിലെത്തി	-11.0072
▁നൽകണം	-11.0072
▁എതിർത്ത	-11.0083
▁സിനേഷന	-11.0101
▁വൃത്തിയാ	-11.0102
▁വിഷയങ്ങളില	-11.0109
▁തയ്യാറാക്കുന്ന	-11.0112
▁സമര്‍പ്പി	-11.0118
▁(28)	-11.0123
▁പരിശോധനാഫലം	-11.0123
▁ശിവന്‍കുട്ടി	-11.0123
▁പരിയാരം	-11.0123
▁വയസുകാരി	-11.0123
▁നോമിനേഷ	-11.0124
▁ദിൽഷ	-11.0124
▁ഫ്ലാറ്റ	-11.0124
▁ചുരുങ്ങിയ	-11.0124
▁പെരിങ്ങ	-11.0124
▁യോജിച്ച	-11.0125
▁ഏകദിന	-11.0126
▁അധികാരത്തില	-11.0126
▁തസ്തികകളിലേക്ക	-11.0129
▁കര്‍ശനമായ	-11.0132
▁സജ്ജമാക്കിയ	-11.0134
▁ഒഴിവാക്കണമെന്ന	-11.0135
▁ജോര്‍ജ്ജ്	-11.0136
▁ഫോണുകള	-11.014
▁വെക്കാന	-11.0141
ക്കടവ്	-11.0144
▁പൈപ്പ	-11.0148
▁മുകേഷ	-11.0153
▁ക്കാള	-11.0158
▁ുണ്ടാവ	-11.0172
▁സ്ത്രീകള	-11.0174
▁മോള	-11.0177
▁ഉള്ളതെന്ന	-11.0179
തയ്യാറായിട്ടില്ല	-11.0194
▁അന്തരിച്ച	-11.0198
▁കയറുന്ന	-11.0202
·	-11.0205
▁അകാലിദള	-11.0205
▁അനുശോചന	-11.0205
▁പ്രോസിക്യൂട്ട	-11.0205
▁സംക്രമണം	-11.0205
▁പ്ലാസ്റ്റിക്	-11.0205
▁ദിവസത്തിനുള്ളില	-11.0205
▁തുരങ്ക	-11.0205
▁മറ്റുള്ളവർ	-11.0205
▁കൊണ്ടുപോകുന്ന	-11.0207
▁വീട്ടമ്മ	-11.0209
▁കാഴ്ചപ്പാട	-11.0209
▁മൊന്ന	-11.0216
▁സാധ്യതകള	-11.0219
▁അസ്വസ്ഥത	-11.0222
പാദന	-11.0223
▁നിലയിലായിരുന്നു	-11.0225
▁നടപടിക്രമ	-11.0227
▁ശ്രമിക്കുകയാണ	-11.0232
▁എതിരാളികള	-11.0233
▁നിലനിൽ	-11.0252
വീണ	-11.0255
▁അറിയില്ലെന്ന	-11.0265
നിര്‍ദ്ദേശങ്ങള്‍	-11.0281
▁ഏറ്റുമാനൂര	-11.0287
▁കുറ്റ്യാടി	-11.0287
▁തേടിയെത്തും	-11.0287
▁പ്രമോദ്	-11.0287
▁സുല്‍ത്താന	-11.0287
▁കൈവരിച്ച	-11.0287
▁വക്കീല	-11.0287
▁ത്യാഗ	-11.0287
▁മരണനിരക്ക	-11.0288
▁പ്പെടുത്തുക	-11.029
▁പിതാവിന	-11.029
▁അകന്ന	-11.0293
▁വേളയില	-11.0299
▁വിശ്വനാഥ	-11.0302
രിവാള	-11.0323
▁നടന്നതെന്ന	-11.0326
▁വർധിപ്പിച്ച	-11.0331
▁വിധേയരാ	-11.0332
മരക്കാര്‍	-11.0335
▁അല്ലെന്ന	-11.0339
▁ജയിക്കാ	-11.0344
▁മയക്ക	-11.0356
▁ചേരുമെന്ന	-11.0357
▁പാലിക്കുക	-11.0358
▁ഡിസംബറില	-11.0361
▁ബംഗളൂരു	-11.0369
▁അഖിലേന്ത്യ	-11.0369
▁ഉല്‍പ്പാദന	-11.0369
▁സര്‍വ്വകലാശാല	-11.0369
#	-11.0369
▁കനേഡിയ	-11.0369
▁ദയനീയ	-11.0369
▁കുമ്പള	-11.0369
▁പാലാരിവട്ട	-11.0369
▁ഗവേഷക	-11.0369
▁ബിനീഷ്	-11.0369
▁സിഎഎ	-11.0369
▁ഈടാക്കുന്ന	-11.037
▁ഹോസ്റ്റല	-11.037
▁ആള്‍ക്കൂട്ട	-11.0371
▁പുനലൂ	-11.0376
▁നാവിക	-11.0378
▁ജനപക്ഷ	-11.038
▁ഇന്‍ഡ	-11.0382
▁ഏല്‍പ്പി	-11.0383
യിരിക്കണം	-11.0387
▁ഒഴു	-11.039
▁വിമര്‍ശനങ്ങള്‍	-11.0394
▁പൂനെ	-11.0396
▁ടാഗ	-11.0401
▁മര്‍ദ്ദന	-11.0402
▁വിജയരാഘവന	-11.0405
ഭീഷണിപ്പെടുത്തിയ	-11.0405
▁പരാജയപ്പെടുത്ത	-11.0408
▁പങ്കുണ്ടെന്ന	-11.0408
▁നോട്ടീസ	-11.0408
▁സംസാരിക്കാന	-11.0412
▁തയ്യാറാക്കി	-11.0416
▁പങ്കിട്ട	-11.042
▁ക്കാർക്ക	-11.0435
▁തീരുമാനങ്ങള	-11.0436
▁കത്തിച്ച	-11.0452
▁അവഗണന	-11.0453
▁പൂർത്തീകരി	-11.0453
▁മുല്ലപ്പെരിയാ	-11.0453
▁ഉത്തരേന്ത്യ	-11.0453
▁മൈക്രോ	-11.0453
▁ഒബിസി	-11.0453
▁നടപടിയെടുത്ത	-11.0453
▁(40)	-11.0453
▁വോട്ടർമാര	-11.0454
▁പാർട്ടികള	-11.0454
▁പത്മജ	-11.0461
▁ദിഗ്	-11.0466
▁വര്‍ദ്ധിപ്പി	-11.0468
▁സ്വീകരി	-11.0469
▁തരൂർ	-11.0473
▁ഒപ്പിട്ട	-11.0473
▁പരിശോധ	-11.0488
▁ശുക്ര	-11.0489
▁ഉള്‍പ്പെടുത്ത	-11.0494
▁സുഹൃത്തുക്	-11.0501
ാനാവില്ലെന്ന	-11.051
ഉണ്ടായിരുന്നില്ല	-11.0527
▁രൂപപ്പെടുന്ന	-11.0534
▁അഡ്മിനിസ്	-11.0536
▁തെറ്റിദ്ധാരണ	-11.0537
▁നൂറുകണക്കിന	-11.0537
▁ഋതു	-11.0537
▁ഒന്നുമില്ല	-11.0537
▁േക്കാമെന്ന	-11.0537
ീന്ദ്ര	-11.0537
▁പൊന്നാനി	-11.0538
▁കണ്ടെയ്	-11.0539
▁വൈകാരിക	-11.054
മ്പുഴ	-11.054
▁നികത്ത	-11.0541
നിർദ്ദേശങ്ങൾ	-11.0544
ഹാനി	-11.0546
▁സില്‍വര്‍	-11.0548
▁കേള	-11.0549
▁വിശേഷിപ്പിക്ക	-11.0549
▁രാത്രിയോടെ	-11.0552
▁സാധ്യമാക	-11.0553
▁ചെയ്യപ്പെടുന്ന	-11.0554
▁ഉൾപ്പെടുത്തിയ	-11.0555
▁നയങ്ങള	-11.0559
▁കഴിയാതെ	-11.0564
▁വിളക്ക	-11.0573
▁ഭൗ	-11.0573
▁നിയന്ത്രണത്തില	-11.0577
▁ആരാണെന്ന	-11.0581
▁കുളത്ത	-11.0582
ed	-11.0588
▁ുണ്ടെങ്കി	-11.0598
▁മുദ്രാവാക്യ	-11.0598
▁ഉണ്ടാ	-11.06
▁കാത്തിരിപ്പ	-11.06
പേക്ഷ	-11.0611
▁ശരീരത്തില	-11.0617
▁ശിവകുമാറ	-11.0621
▁ഇന്റര്‍വ്യൂ	-11.0621
▁ഇരിങ്ങാലക്കുട	-11.0621
▁കോർപ്പറേഷന	-11.0621
▁നൂതന	-11.0621
▁വധശിക്ഷ	-11.0621
▁അര്‍ത്ഥ	-11.0621
▁ദാമ്പത്യ	-11.0621
▁ആറ്റിങ്ങ	-11.0622
▁ഉണ്ടായിരിക്കണം	-11.0622
▁ചിലവഴി	-11.0622
▁(30)	-11.0622
▁08	-11.0623
▁ഗായക	-11.0625
▁പട്ടാള	-11.0625
▁പ്രസ്തു	-11.0626
കളുമായി	-11.0628
▁നമസ്	-11.0632
▁പെട്രോളിയ	-11.0639
▁നവീന	-11.0645
▁ബോണ്ട	-11.0645
▁കിട്ടാത്ത	-11.0646
▁അയാളുട	-11.0648
▁നിശബ്ദ	-11.0648
▁അധികാരത്തിലേറ	-11.065
▁ഹയര്‍	-11.0654
▁ആലോചിക്ക	-11.0654
▁ങ്ങളുടേ	-11.0658
▁ആര്‍എസ്എസ	-11.0663
▁സെക്രട്ടേറിയറ്റ	-11.0669
▁താരതമ്യ	-11.0677
▁കുറ്റവാളി	-11.0678
▁രക്ഷപ്പെടാന	-11.0679
▁ബന്ധിപ്പി	-11.0686
▁ഗത്ത	-11.0691
▁ചെയ്യുന്നതെന്ന	-11.0702
▁ആംആദ്	-11.0707
▁ആരാധനാലയ	-11.0707
▁ഇസ്രായേൽ	-11.0707
▁ചങ്ങനാശേരി	-11.0707
▁ലോകമെമ്പാട	-11.0707
▁വിനോദസഞ്ചാര	-11.0707
▁ആപ്ലിക്കേഷ	-11.0707
▁ശിഹാബ	-11.0707
▁ഒരുങ്ങുകയാണ്	-11.0707
▁ബ്ലാക്ക്	-11.0707
▁നോര്‍ക്ക	-11.0707
▁05	-11.0709
ാമത്	-11.0711
▁പരേഡ	-11.0711
▁ചെലവഴിക്ക	-11.0712
▁വ്യാപിക്കുന്ന	-11.0713
▁സംരക്ഷിക്കാന	-11.0715
▁ഇളവുകള്‍	-11.0717
▁മണിക്കൂറോളം	-11.0718
വിനിയോഗ	-11.0719
▁മാധ്യമങ്ങളിലൂടെ	-11.0724
▁രക്ഷിതാക്കള	-11.0724
വട്ടെ	-11.0724
കോടതി	-11.0725
▁ശതമാനത്തില	-11.0727
▁കശ്മീരില	-11.0729
▁സാധിക്കൂ	-11.073
▁ഒരുങ്ങുന്ന	-11.0756
▁പൈലറ്റിന	-11.0757
▁സരിത	-11.0786
▁അക്കൗണ്ടുകള	-11.079
▁ചൊടിപ്പിച്ച	-11.0793
ാന്വേഷണ	-11.0793
▁(50)	-11.0793
▁അസാധാരണ	-11.0793
▁ആശയവിനിമയ	-11.0793
▁ബന്ധുക്കൾ	-11.0793
▁ഹൈക്കമാന്റ്	-11.0793
▁1/4	-11.0793
▁തൃത്താല	-11.0793
▁വിശ്വാസ്യത	-11.0793
▁മായാവതി	-11.0793
▁ചുവടു	-11.0793
▁ദിർഹ	-11.0793
▁ദോഹ	-11.0793
▁ഹൃദയാഘാത	-11.0794
▁ദില്‍ഷ	-11.0794
▁റംസാന	-11.0794
▁കൂട്ടുകാര	-11.0794
▁നെടുമ്പാശ	-11.0795
en	-11.0796
▁നല്‍കുന്നതിന	-11.0796
▁മകരം	-11.0796
▁ക്ലബ്ബ	-11.0797
▁ഇടപെടലുകള	-11.0798
▁പരാജയപ്പെടു	-11.0803
▁കാര്യമല്ല	-11.0805
▁കര്‍മ്മ	-11.0807
▁മന്ത്രിമാരായ	-11.0807
▁അരങ്ങേറ	-11.0812
▁ചെയ്തിട്ടുണ്ട	-11.0817
▁മര്‍ദ്ദിച്ച	-11.0825
▁ഇതെന്ന	-11.0826
പ്രവര്‍ത്തക	-11.0827
▁വാദങ്ങള	-11.0831
▁ഗ്രാമത്തില	-11.085
▁ബോധ്യപ്പെടുത്ത	-11.0855
▁രോഗബാധിതരായ	-11.0856
▁പ്രസംഗിച്ച	-11.0861
▁മുനിസിപ്പ	-11.0862
▁കൊണ്ടുവരാ	-11.087
▁പിന്‍വലി	-11.0874
▁മാർച്ചി	-11.0879
▁സ്മാരക	-11.088
▁പട്ടാമ്പി	-11.088
▁റിസോര്‍ട്ട	-11.088
▁ഭൂകമ്പ	-11.088
▁കാരണമാകും	-11.088
▁വേണുഗോപാൽ	-11.088
▁വിഭജി	-11.088
▁മെസേജ	-11.088
▁ലിംഗായത്ത	-11.088
▁ഈജിപ്	-11.0881
▁പാർടി	-11.0881
പ്പളളി	-11.0881
▁നേമം	-11.0882
▁വെളള	-11.0882
▁06	-11.0882
▁മോചിപ്പി	-11.0882
▁ശിവകുമാര്‍	-11.0883
▁1.5	-11.0885
▁എംഎൽഎമാർ	-11.0886
▁മാറ്റിവെച്ച	-11.0889
▁ഉദ്യോ	-11.0893
▁എയർപോർട്ട	-11.0893
▁സർക്കാരിനെതിരെ	-11.0897
▁കൊടുക്കാന	-11.0908
▁തെലങ്കാനയില	-11.0921
▁ണെന്ന	-11.0922
ഏഴാം	-11.0931
▁രാജ്യങ്ങളിലേക്ക	-11.0936
▁ഒരാളുട	-11.0941
▁ക്യാമ്പയിന	-11.0947
▁മധ്യപ്രദേശ	-11.0951
▁ുവാന	-11.0953
▁ഘടകങ്ങള	-11.0967
▁ഏജന്റ	-11.0968
▁ഊർജ	-11.0968
▁താൽപ്പര്യ	-11.0968
▁മണ്ണിടിച്ചില	-11.0968
▁ഹിമാചല	-11.0968
▁അധിനിവേശ	-11.0968
▁ആശയക്കുഴപ്പ	-11.0968
▁ഇന്റലിജന്‍സ	-11.0968
▁കാറ്റഗറി	-11.0968
▁പിന്നോക്ക	-11.0968
▁ബിസിസിഐ	-11.0968
▁വൈവിധ്യ	-11.0968
▁അടുക്കള	-11.0968
▁തടവുകാര	-11.0968
▁പുനഃസംഘടന	-11.0968
▁പെന്‍ഡ്	-11.0968
▁(35)	-11.0968
▁രണ്ടായിര	-11.0968
▁ജന്മദിന	-11.0968
▁ഗോപാല	-11.097
ുസൃത	-11.0971
▁സമവായ	-11.0972
▁അക്ഷര	-11.0978
▁നല്‍കിയെന്ന	-11.098
▁രോഗലക്ഷണങ്ങള	-11.1004
▁ഉള്‍പ്പെടു	-11.1015
▁കോഴിക്കോട	-11.1019
▁സംഘടിപ്പി	-11.1021
ിക്കോട്	-11.103
പാഠി	-11.1038
▁കസ്റ്റഡിയില	-11.1045
ന്മാര	-11.1048
▁അനുയോജ്യ	-11.1056
▁(22)	-11.1056
▁(24)	-11.1056
▁കാഞ്ഞങ്ങാട്	-11.1056
▁ദർശന	-11.1056
▁സമാഹര	-11.1056
▁ഗോപാലകൃഷ്ണ	-11.1056
▁മേല്‍നോട്ട	-11.1056
▁ദരിദ്ര	-11.1056
▁മ്പോഴ	-11.1056
▁ജനപ്രിയ	-11.1056
▁തുടക്കമിട്ട	-11.1056
▁(38)	-11.1057
▁(32)	-11.1057
▁സംഗമ	-11.1057
▁ഗൾഫ	-11.1058
▁ന്യായീകരിക്ക	-11.1058
▁സ്വർണ്ണക്കട	-11.1058
▁മക്കൾ	-11.1059
▁ഒഴുകി	-11.1059
▁ഈശ്വര	-11.1059
▁വയറ	-11.106
▁വേണു	-11.106
▁നിവേദ	-11.1061
ക്കൂറ	-11.1062
▁അബു	-11.1064
▁ഹൈവേ	-11.1069
▁പറയപ്പെടുന്ന	-11.1074
▁സ്ഥാനാര്‍ഥികള	-11.1076
▁യുമെല്ലാ	-11.1089
▁സെന്ററുകള	-11.1094
▁മട്ടാ	-11.1102
▁പ്രദേശവാസികള	-11.1103
പ്പിള്ള	-11.1106
▁റിലീസ	-11.1113
▁പങ്കാളികള	-11.1115
▁ശ്രമമാണ	-11.1123
▁പിന്നിലെന്ന	-11.1144
▁ആയുധങ്ങള	-11.1144
▁വിഭാ	-11.1145
U	-11.1146
▁മജിസ്ട്രേറ്റ	-11.1146
▁വാഷിംഗ്ടണ്‍	-11.1146
▁വ്യോമസേന	-11.1146
▁ഷിന്‍ഡെ	-11.1146
▁അനുസ്മര	-11.1146
▁ഗവർണറ	-11.1146
▁മജീദ	-11.1146
▁അനീതി	-11.1146
▁മനഃ	-11.1146
▁നായിഡു	-11.1146
▁ഒഴിപ്പിക്ക	-11.1147
▁വഴിയൊരുക്ക	-11.115
പ്രത്യക്ഷപ്പെട്ട	-11.1154
▁നിയമത്തിനെതിര	-11.1156
▁തിരഞ്ഞെടു	-11.1156
▁സമ്മാനമായ	-11.116
▁തെരഞ്ഞെടുക്ക	-11.1161
▁മത്സരാര്‍ത്ഥി	-11.1163
▁അനുവദിക്കണമെന്ന	-11.1169
ലക്ഷ്മി	-11.1208
▁ക്ലിക്ക	-11.1212
▁എമാര	-11.1224
ത്തിലെത്തിയ	-11.1225
▁ഗ്രൂപ്പിന	-11.1228
H	-11.1236
▁എംപ്ലോയ	-11.1236
▁കമ്മിഷണ	-11.1236
▁നിര്‍വഹിച്ച	-11.1236
▁പൊതുസമൂഹ	-11.1236
▁ശരണ്യ	-11.1236
▁ഡിവൈഎസ്	-11.1236
▁ബാധിക്കുമെന്ന	-11.1236
▁(25)	-11.1236
▁കൂടിക്കാഴ്ച്ച	-11.1236
▁വന്നവരാണ്	-11.1236
▁കരസ്ഥമാ	-11.1237
ൊന്നുമല്ല	-11.1245
പ്പറഞ്ഞ	-11.1252
▁അകറ്റ	-11.1262
മോർട്ട	-11.1264
▁ശിവരാജ	-11.1272
▁മൈക്ക	-11.1293
▁അടഞ്ഞ	-11.13
ശ്രദ്ധ	-11.13
▁ാനാക	-11.1303
▁പഠനത്തിന	-11.1307
ുമെതിരെ	-11.1326
▁പെരുമ്പാവൂര	-11.1327
▁വ്യതിയാന	-11.1327
▁കോണ്‍ഫറന്‍സ	-11.1327
▁പുരോഗമന	-11.1327
▁ബംഗ്ലാദേശി	-11.1327
▁ബാനർജി	-11.1327
▁പതിനാല	-11.1327
▁ഗുപ്ത	-11.1327
▁ഇന്ദ്ര	-11.1327
▁ചെങ്ങന്നൂ	-11.1327
▁(34)	-11.1327
▁താഴേ	-11.1328
▁ചെയ്യാമെന്ന	-11.1328
▁പ്രമോഷ	-11.1328
▁03	-11.1329
▁ഐഎന്‍എ	-11.1329
▁മനുഷ്യത്വ	-11.1331
▁നിഖില	-11.1338
▁പോസ്റ്റുകള	-11.1339
▁ശക്തികള	-11.1339
▁ബില്ലുകള	-11.136
▁അവതരിപ്പി	-11.1361
വരികയാണ്	-11.1363
▁അതിക്രമിച്ച	-11.1373
▁അഭിഭാഷകന	-11.1375
▁ഭാഗത്തേക്ക	-11.1379
▁പ്രമേയത്ത	-11.1404
▁നയിക്കാന	-11.1406
▁ഫിഷറീ	-11.1418
ഇന്‍സ്റ്റിറ്റിയൂ	-11.1418
വാര്‍ത്താസമ്മേളന	-11.1418
▁എഡിജിപി	-11.1418
▁എയര്‍പോര്‍ട്ട	-11.1418
▁മുന്നൊരുക്ക	-11.1418
▁മുന്‍കരുതല	-11.1418
▁റഹീം	-11.1418
▁വിക്ഷേപ	-11.1418
▁സ്ട്രാറ്റജി	-11.1418
▁അഗസ്റ്റി	-11.1418
▁ചിത്രീകരിച്ച	-11.1418
▁(36)	-11.1419
▁പ്രാപിച്ച	-11.1419
▁നിരസിച്ച	-11.142
▁ചെറുകിട	-11.1421
▁വെടിയേറ്റ	-11.1421
▁റേഡിയോ	-11.1423
▁നഗരങ്ങളില	-11.1423
▁മിടുക്ക	-11.1425
▁ശ്രീരാമ	-11.1426
▁എൻട്രി	-11.1426
▁എന്നിവരടങ്ങ	-11.1427
ല്‍ക്കരി	-11.1432
▁ഫാമില	-11.1442
ുമോയെന്ന	-11.1444
ൊരാൾ	-11.1446
▁നോക്കിയാല	-11.1471
▁മത്സരത്തിന	-11.1475
▁തകര്‍ക്കാന	-11.1476
▁ആക്രമണങ്ങള	-11.1486
▁രോഗബാധിത	-11.1504
▁ഉടമസ്ഥതയില	-11.1511
▁എൻഫോഴ്	-11.1511
▁ഇന്റർവ്യൂ	-11.1511
▁ഇതാദ്യമായ	-11.1511
▁കര്‍ക്കടക	-11.1511
▁ഒൻപത	-11.1511
▁ബൊമ്മ	-11.1511
▁ഗൂഡ	-11.1511
▁വിശദീകരണവു	-11.1511
▁നല്‍കാമെന്ന	-11.1512
▁തൊഴിലുറപ്പ	-11.1512
▁തിയേറ്ററുകള	-11.1512
▁പിറ്റേ	-11.1512
▁കനയ്യ	-11.1515
▁െടുക്കാന	-11.1519
വകാശ	-11.152
▁അറിയാവുന്ന	-11.1521
▁മരവിപ്പി	-11.1521
▁ഇഷ്ടപ്പെട	-11.1521
▁ചര്‍ച്ചകള	-11.1526
▁മറികടക്കാന	-11.1527
▁റൺസ	-11.1528
▁മാസത്തോള	-11.1528
▁അഭിനയിക്ക	-11.153
ശ്രീറാം	-11.1544
▁മോഷ്ടിച്ച	-11.1545
▁ആയതിന	-11.1549
▁അതൊന്ന	-11.1551
മുന	-11.1557
▁മുഴക്കി	-11.1563
▁രാജീവ	-11.1586
▁നിയമപ്രകാര	-11.159
▁ബീഹാറ	-11.1593
▁ഇൻസ്റ്റിറ്റ്യൂ	-11.1601
▁ദുർബല	-11.1604
▁അങ്കമാലി	-11.1604
▁ഉൾപ്പടെ	-11.1604
▁കമ്മ്യൂണിറ്റി	-11.1604
▁പ്രായോഗിക	-11.1604
▁വന്നുചേരും	-11.1604
▁വിജിലൻസ	-11.1604
▁വിശകലന	-11.1604
▁സമ്പാദ്യ	-11.1604
▁സുസ്ഥിര	-11.1604
▁കോർപറേഷ	-11.1604
▁തീപിടുത്ത	-11.1604
▁ബ്ലെസ്ലി	-11.1604
▁രാമകൃഷ്ണ	-11.1604
▁ചാമ്പ്യ	-11.1604
▁മാതാവ്	-11.1604
▁റിസര്‍വ്	-11.1604
▁ബ്രസീല	-11.1605
▁രൂപയുമാണ്	-11.1605
▁ഫേസ്	-11.1606
ീന്ദര്‍	-11.1606
▁ശത്രുക്കള	-11.1607
▁പോസിറ്റീവ	-11.161
▁അപകടകരമായ	-11.1613
▁വിഡിയോ	-11.1614
▁നിര്‍മല	-11.1615
▁റിപ്പോ	-11.1621
▁നേടിയെടുക്ക	-11.1625
▁മാറ്റങ്ങള	-11.1625
▁തീവ്രവാദികള	-11.1626
▁ത്തിലാണെന്ന	-11.1627
▁അയോധ്യയില	-11.1644
▁ലക്ഷ്യമെന്ന	-11.1664
▁സഞ്ജുവിന	-11.1671
▁ബാധകമാ	-11.1672
▁രമേശ	-11.1676
▁നന്നാ	-11.1687
▁അതിതീവ്ര	-11.1699
▁ഡിസ്ചാര്‍ജ്	-11.1699
▁ഈരാറ്റുപേട്ട	-11.1699
▁പ്രസിഡൻ്റ	-11.1699
▁ഭിന്നശേഷി	-11.1699
▁വൃശ്ചിക	-11.1699
▁ശുചിത്വ	-11.1699
▁സ്രോതസ	-11.1699
▁ഗ്ലോബ	-11.1699
▁വില്‍പന	-11.1699
▁ടീച്ചര്‍	-11.1699
▁തക്കാളി	-11.1699
▁എസ്റ്റേറ്റ	-11.1699
▁(45)	-11.1699
▁കവര്‍ച്ച	-11.1699
▁ഭാഗികമായ	-11.17
▁സലാം	-11.1702
▁അഭിമുഖീകരി	-11.1703
▁വര്‍ഷത്തിനിടെ	-11.1707
▁കളെക്കുറിച്ച	-11.1708
▁വിപുല	-11.1708
▁ഏര്‍പ്പെട	-11.1712
▁ബിഹാറ	-11.1715
▁പോയെന്ന	-11.1737
▁പുരുഷന്‍മാര	-11.1742
▁യുപിയില	-11.1747
▁തുടരന്വേഷണ	-11.1751
▁പരിചയമ	-11.1752
▁സീറ്റുകളിലേക്ക	-11.1753
▁കുഞ്ഞുങ്ങള	-11.1758
▁അഭ്യർത്ഥിച്ച	-11.1772
▁അസ്വസ്ഥ	-11.1774
▁യാത്രക്കാര്‍ക്ക	-11.1777
▁ഗ്വാളിയ	-11.1794
▁നിയമലംഘന	-11.1794
▁പ്രവൃത്തിപരിചയ	-11.1794
▁ബഷീര്‍	-11.1794
▁എൻഐഎ	-11.1794
▁സൗമ്യ	-11.1794
▁പങ്കുവയ്	-11.1794
▁ടൊവ	-11.1794
▁പ്രാതിനിധ്യം	-11.1795
▁രാകേഷ	-11.1795
▁അഭ്യൂഹങ്ങള	-11.1796
▁ശൃം	-11.1796
▁ശ്രീലേഖ	-11.1797
▁അനധികൃതമായ	-11.1797
▁ഗാര്‍ഡ	-11.1799
▁പ്രൊമോ	-11.1799
▁കളൊന്നു	-11.1805
ാചാര	-11.1806
▁നിയമത്തില	-11.181
▁മറ്റേത	-11.1816
▁കമ്മീഷ	-11.1831
▁തുറക്കാന	-11.1832
▁വിമതര	-11.1838
▁ബജറ്റില	-11.1848
▁ലിറ്ററിന്	-11.1856
▁സോണുകള	-11.1856
▁രാശിക്കാർ	-11.1871
▁റോക്കറ്	-11.1882
▁ദ്ദേ	-11.1883
▁ക്വാറന്റീന	-11.189
▁ഉൾക്കൊള്ള	-11.189
▁യുവാക്കൾ	-11.189
▁സമവാക്യ	-11.189
▁സുകുമാര	-11.189
▁വെള്ളാപ്പള്ളി	-11.189
▁ട്രാക്ട	-11.189
▁ധർമ്മ	-11.189
▁മെഡിസി	-11.189
▁ഒളിവില്‍	-11.1891
▁സലീം	-11.1891
▁ഉത്തമ	-11.1891
▁തിയറ്റ	-11.1891
▁വീഴ്ച്ച	-11.1892
▁തിരുവോണ	-11.1892
▁പഠി	-11.1893
▁ആവശ്യമെങ്കി	-11.1907
▁എല്ലാവരോടു	-11.1908
▁മുണ്ടെങ്കി	-11.191
▁ക്രൂര	-11.1915
▁എഞ്ചി	-11.1916
▁ഇവിടേക്ക	-11.1928
▁മേഖലയ്ക്ക	-11.1943
▁വർധന	-11.1944
സ്റ്റഡിയിലെടുത്ത	-11.1947
▁ഉണര	-11.1959
▁ജീവനക്കാര്‍ക്ക	-11.1964
▁പ്രചാര	-11.1969
▁കല്‍പ്പ	-11.1969
▁തമിഴ	-11.1969
▁അബ്ദുള്ള	-11.1975
▁സ്ഥാപനങ്ങള്‍ക്ക	-11.1985
▁കൈമാറ്റ	-11.1986
▁ആസ്വദി	-11.1987
തട്ടിക്കൊണ്ടുപോയ	-11.1987
▁(60)	-11.1987
▁അമേഠി	-11.1987
▁ജമാഅത്ത	-11.1987
▁പുനരധിവാസ	-11.1987
▁പ്രദര്‍ശന	-11.1987
▁റഷീദ	-11.1987
▁സംപ്രേഷണ	-11.1987
വ്യാഖ്യാന	-11.1987
▁കുണ്ടറ	-11.1987
▁പ്രൊഡക്ഷ	-11.1987
▁വളർന്ന	-11.1988
▁ആരംഭിക്കാന	-11.1988
▁സിൽവർ	-11.1989
▁ഭീകരവാദ	-11.199
▁കൂറുമാറിയ	-11.1991
▁നിര്‍ബന്ധിത	-11.1991
▁തകരാറ	-11.1992
▁പറയാത	-11.1995
▁റൂറല	-11.1996
▁കപില	-11.2013
▁സ്ഥാപിക്കാന	-11.2029
▁രാജകുമാര	-11.2035
▁മത്സരാർത്ഥികള	-11.2036
▁എളമ	-11.2049
▁ഫെഡറേഷ	-11.2058
▁സാധ്യതയെന്ന	-11.2072
ഴുതിയ	-11.208
▁മത്സരിപ്പിക്കാന	-11.2081
ുലൈ	-11.2081
▁ഇടിമിന്ന	-11.2085
▁ഇൻഷുറൻ	-11.2085
*	-11.2085
▁ചെയര്‍പേഴ്	-11.2085
▁പ്രേരിപ്പിച്ച	-11.2085
▁വധശ്രമ	-11.2085
▁വിപരീത	-11.2085
▁ഷെഡ്യൂ	-11.2085
▁സത്യസന്ധ	-11.2085
▁ക്യാബിന	-11.2086
▁പോഷക	-11.2086
▁ടൂറിസ്റ്റ	-11.2088
ബിലിറ്റി	-11.2089
▁എഐഎ	-11.2091
▁കാമുകന	-11.2094
ക്കൂടി	-11.2096
▁ദാനം	-11.2099
▁ഭയപ്പെടുത്ത	-11.2104
പ്രതീക്ഷിക്കുന്ന	-11.2119
▁പിന്‍മാറ	-11.2124
▁തയ്യാറെടു	-11.2124
യുമുണ്ട്	-11.2125
▁സഞ്ചാരികള	-11.2134
▁ഫലപ്രദ	-11.2155
▁തൃപ്തി	-11.2165
▁പ്രശാന്ത	-11.2171
▁ആയാല	-11.2183
▁ഐസിഎംആ	-11.2184
▁കിഷോര്‍	-11.2184
▁പുനസ്ഥാപ	-11.2184
▁ബൗണ്ടറി	-11.2184
▁വിയോജിപ്പ	-11.2184
▁ഓക്സിജന	-11.2184
▁സാമന്ത	-11.2184
▁തിരച്ചിൽ	-11.2184
▁സയൻസ്	-11.2185
▁വന്ദേ	-11.2185
▁സംഭവിക്കും	-11.2185
വീശ	-11.2185
▁ഡിലീറ്റ	-11.2185
▁(2,	-11.2186
▁ലാലിന	-11.2186
▁ഭാഗമായിട്ടാണ്	-11.2186
▁ചിത്രീകരിക്ക	-11.2187
▁വര്‍ഗീസ്	-11.2187
▁സെന്ററുകളില	-11.2188
▁കുറയ്ക്കുന്ന	-11.2192
▁സാന്നിധ്യത്തില	-11.2193
▁തികയ	-11.2194
▁ചേട്ടന	-11.22
▁ിട്ടുള്ളതെന്ന	-11.2218
▁തുടങ്ങാന	-11.2219
▁സമാധാനപരമായ	-11.222
▁ഉപയോഗിക്കാന	-11.222
▁സിംഹ	-11.2232
പ്പെട്ടയിടങ്ങളി	-11.2232
വാട്ടര്‍	-11.2241
▁ചവറ	-11.2261
▁കാണാത	-11.2265
▁ശ്വ	-11.2269
മൂട്	-11.2271
ിക്കട്ടെ	-11.2284
▁അലേർട്ട്	-11.2284
▁കൊൽക്കത്ത	-11.2284
▁മഞ്ചേശ്വരം	-11.2284
▁മഞ്ചേശ്വരത്ത	-11.2284
▁മാര്‍ഗനിര്‍ദേശ	-11.2284
▁വഴിത്തിരിവ	-11.2284
▁സമുച്ചയ	-11.2284
▁സീതാറാ	-11.2284
▁ട്വിസ്റ്റ	-11.2284
▁കമ്മീഷണർ	-11.2284
▁ഗ്രേഡ്	-11.2284
▁സാഹിബ	-11.2285
▁കോണ്‍ഗ്രസുകാര	-11.2285
▁ബിനോയ	-11.2286
▁ൊന്ന	-11.2287
▁ശിരോ	-11.2289
▁നവീകരി	-11.2289
ുണ്ടാവുക	-11.2293
സുധാകരന്	-11.2309
▁നഗരങ്ങള	-11.2331
▁തിരൂര	-11.2357
▁ശനിയാഴ്	-11.2358
ാധിപത്യ	-11.2383
▁കടന്നുപോകുന്ന	-11.2385
▁ദിവസത്തിനകം	-11.2385
▁ബംഗ്ലാദേശ്	-11.2385
▁ടെക്നോളജി	-11.2385
▁പുതുച്ചേരി	-11.2385
▁പെർമിറ്റ	-11.2385
▁ഫൗണ്ടേഷ	-11.2385
▁അവശേഷിക്കുന്ന	-11.2385
▁പ്രതിച്ഛായ	-11.2385
▁തലക്കെട്ട	-11.2385
▁ബാധിക്കില്ല	-11.2385
▁കൃഷ്ണദാസ്	-11.2385
▁എലത്തൂ	-11.2385
▁ദുബെ	-11.2385
▁വര്‍ധിക്കുന്ന	-11.2385
▁ഇങ്ങോട്ട	-11.2386
▁ഊര്‍ജ്ജ	-11.2386
▁കറന്‍സി	-11.2388
▁വെടിവെച്ച	-11.2388
▁ഹരിപ്പാട	-11.2388
▁ഒളിപ്പിച്ച	-11.2389
▁യൂറോപ്പില	-11.2392
▁പറഞ്ഞതെന്ന	-11.2423
▁സൃഷ്ടിക്കാന	-11.2426
▁യേക്കാള	-11.2434
▁രാജേഷിന	-11.2439
▁മുകളിലേക്ക	-11.2445
▁സാമുദ	-11.2449
▁മരുമക	-11.2463
▁രാണെന്ന	-11.2463
▁വര്‍ധിപ്പിക്കാന	-11.247
നിയന്ത്രിക്കുന്ന	-11.2473
▁ദളിത	-11.2479
▁അഭ്യർത്ഥ	-11.2479
▁ഭാഷയില	-11.2483
▁എമിറേറ്റ്	-11.2487
▁അസോസിയേറ്റ്	-11.2487
▁കാലതാമസ	-11.2487
▁കൊടുവള്ളി	-11.2487
▁ഡെലിവറി	-11.2487
▁നാമനിര്‍ദേശ	-11.2487
▁രക്ഷാപ്രവർത്തന	-11.2487
▁വെന്റിലേറ്ററ	-11.2487
▁സന്നിധാനത്ത	-11.2487
▁ഉരുൾപൊട്ട	-11.2487
▁ഖാര്‍ഗെ	-11.2487
▁സ്തംഭ	-11.2487
▁താക്കീത	-11.2487
▁രേഷ്മ	-11.2487
▁സമ്മാനിക്കും	-11.2488
▁ശാഖ	-11.2488
▁സമീപകാലത്ത	-11.2488
ജ്യോത്	-11.2488
▁കന്നഡ	-11.2488
പ്പറമ്പ്	-11.249
▁ഫ്രാൻസ	-11.2494
ാകുമോ	-11.2494
▁പ്രവീണ	-11.2494
▁കണ്ണീര	-11.25
▁നൈറ്റ	-11.2503
അബ്ദുള്ളക്കുട്ടി	-11.2507
▁നിയമസഭയിലേക്ക	-11.2509
▁പരിഹസി	-11.2529
▁കിട്ടുമെന്ന	-11.253
▁വരാണെന്ന	-11.2538
▁നടത്തുന്നതെന്ന	-11.2557
ഭേദഗതി	-11.2577
▁തളര	-11.2582
ആരോഗ്യമന്ത്രാലയം	-11.2583
▁സന്ദീപ	-11.2583
▁സ്വാഗത	-11.2587
▁അന്വേഷി	-11.2589
പര്യാപ്ത	-11.259
▁ഏകോപന	-11.259
▁ഗുണനിലവാര	-11.259
▁ലംഘിക്കുന്ന	-11.259
▁സ്ഥാനക്കയറ്റ	-11.259
▁അങ്കണവാടി	-11.259
▁അസംബ്ലി	-11.259
▁എല്‍ജെഡി	-11.259
▁നിരോധനാജ്ഞ	-11.259
▁ഭയങ്കര	-11.2591
▁കുമാരസ്വാമി	-11.2591
▁മൈസൂര	-11.2591
▁മൈതാന	-11.2591
▁ചില്ലറ	-11.2591
▁നാണയ	-11.2592
▁പേപ്പറ	-11.2593
▁സെന്‍സ	-11.2594
▁സപ്പോര്‍ട്	-11.2598
▁ദിവസങ്ങൾക്ക	-11.2598
തോടനുബന്ധി	-11.2604
▁പ്രിന്റ	-11.2607
▁ബന്ധങ്ങള	-11.261
▁നടക്കുന്നതെന്ന	-11.2622
▁എപ്പോഴ	-11.2645
▁ബാഗേജ	-11.2645
▁യിലാണെന്ന	-11.265
കൂട്ടരും	-11.2669
▁ആലോചി	-11.267
▁ലക്ഷ്മ	-11.2676
▁തൊഴിലാളികള്‍ക്ക	-11.2693
▁വിലയിരുത്തുന്നത	-11.2694
▁ഉപയോക്താക്	-11.2695
▁തീര്‍ത്ഥാട	-11.2695
▁നമ്പൂതിരി	-11.2695
▁പെരുന്നാള	-11.2695
▁മട്ടന്നൂര്‍	-11.2695
▁മ്യൂസിയ	-11.2695
▁അനുനയിപ്പി	-11.2695
▁നൗഷാദ	-11.2695
▁ജംഗ്ഷന	-11.2695
▁അനിശ്ചിതത്വ	-11.2695
▁പന്തളം	-11.2695
▁മംഗള	-11.2695
▁പഠിപ്പിച്ച	-11.2695
▁!!!	-11.2698
▁കൂളുകളില	-11.27
പ്പെടുത്താൻ	-11.27
▁പഠിക്കാന	-11.2703
▁പോലൊര	-11.2705
▁നിഴല	-11.2706
▁സസ്പെന്	-11.2707
▁പാനൂര	-11.2715
▁വരുത്താന	-11.2722
▁അര്‍പ്പ	-11.2722
▁മാംസ	-11.2755
▁ജീവിക്കാന	-11.277
▁ക്രമീകരണങ്ങള	-11.2782
വേദന	-11.2785
▁മരിച്ചവര	-11.2796
▁കാശ്മീര	-11.28
▁ഉരുള്‍പൊട്ടല	-11.28
▁കരുണാകരന	-11.28
▁ജഡേജ	-11.28
▁മൊയ്തീ	-11.28
▁ആശ്വസി	-11.28
▁വിഭാഗീയത	-11.28
▁വേരിയന്റ	-11.28
▁പരിരക്ഷ	-11.28
▁മോചിത	-11.28
▁തിരമാല	-11.28
▁മേപ്പാടി	-11.28
▁കാസർ	-11.28
▁പാണ്ഡെ	-11.28
▁(42)	-11.28
▁സുഗമ	-11.28
▁അവസാനിക്കും	-11.2801
▁ചോര്‍ന്ന	-11.2801
▁ഭീകരാക്രമണ	-11.2802
▁ഒടുവില	-11.2802
▁കടുത്തുരുത്തി	-11.2802
▁ഇടയ്ക്കിട	-11.2803
▁വെടിവച്ച	-11.2804
▁വൃദ്ധ	-11.2817
▁ബയോടെക്	-11.2821
▁ഭരണകൂടത്ത	-11.2826
▁മൊഴിയെടു	-11.2842
▁ട്രെയിനുകള	-11.2843
▁കാറുകള	-11.287
▁സമ്പർക്ക	-11.287
▁മത്സരാര്‍ത്ഥികള	-11.2885
▁നമ്പറുകള	-11.2892
▁നീക്കമാണ	-11.2901
▁ഥാ	-11.2901
▁ആരംഭിക്കുമെന്ന	-11.2903
▁ദീർഘ	-11.2905
▁പ്രസിഡണ്ട	-11.2906
്യജീവി	-11.2906
▁ഫോര്‍മുല	-11.2906
▁(27)	-11.2906
▁(55)	-11.2906
▁(65)	-11.2906
▁ഓസ്ട്രേലിയ	-11.2906
▁കഠിനാധ്വാന	-11.2906
▁വാസ്തവ	-11.2906
▁മോചനം	-11.2906
▁പ്രോട്ടോക്കോള	-11.2906
▁ഹോട്ടൽ	-11.2906
▁ഒരിടത്ത	-11.2906
▁(49)	-11.2906
▁ഞായറാഴ്ച്ച	-11.2907
▁ഊർജ്ജ	-11.2907
▁കന്യാ	-11.2907
▁സെക്കന്റ	-11.2908
▁അഭിഭാഷകര	-11.2913
▁പ്രേം	-11.2913
▁അഫ്ഗാനില	-11.2925
▁ലാൻഡ	-11.2936
▁ഫിസിക്	-11.294
▁മൂലമാണെന്ന	-11.2943
▁സഹകരി	-11.2965
▁രോഗങ്ങള	-11.2974
എപിഎ	-11.2974
▁ഷൂട്ടിംഗ	-11.298
െതിരേ	-11.3003
▁ഭരണത്തില	-11.3012
▁പിന്നിട	-11.3013
▁സജ്ജീകരിച്ച	-11.3014
▁ചങ്ങനാശ്ശേരി	-11.3014
▁തള്ളിക്കളഞ്ഞ	-11.3014
▁വസുന്ധര	-11.3014
▁വൈരാഗ്യ	-11.3014
▁വെളുപ്പി	-11.3014
▁ബൈഡൻ	-11.3014
▁ാണെങ്കിൽ	-11.3014
▁ഷാര്‍ജ	-11.3014
▁(19)	-11.3014
▁വീട്ടുകാർ	-11.3014
▁ജസ്റ്റിസ	-11.3016
▁യോജിപ്പ	-11.3016
▁മിനുട്ട	-11.3017
▁കവിഞ്ഞ	-11.3017
▁ബ്രിജ	-11.302
തുരുത്ത്	-11.3023
▁പോലിസ	-11.3031
▁മിന്നല	-11.3031
▁തന്നെയാണെന്ന	-11.3039
▁സംവിധായക	-11.3053
▁പ്രവർത്തകർക്ക	-11.3056
▁നിയമനത്തിന	-11.3067
▁പകല	-11.3069
▁പരിശോധിക്കാന	-11.3085
ധ്യാപക	-11.3115
▁ഉല്‍പ്പന്നങ്ങള	-11.3122
▁കിഷോറ	-11.3122
▁ഇതുസംബന്ധിച്ച	-11.3122
▁ഗുണഭോക്താക്	-11.3122
▁ഘോഷയാത്ര	-11.3122
▁പ്രത്യയശാസ്ത്ര	-11.3122
▁യുട്യൂബ	-11.3122
▁ശൂന്യ	-11.3122
▁സാനിറ്റൈസ	-11.3122
▁സർവീസുകൾ	-11.3122
കൈക്കൂലി	-11.3122
▁കടന്നാക്രമി	-11.3122
▁ബാലുശ്ശേരി	-11.3123
▁സമ്പൂർണ	-11.3123
▁പലർക്കും	-11.3123
▁അത്യന്ത	-11.3123
▁വാചക	-11.3123
▁അവയവ	-11.3124
▁അറുപത	-11.3124
▁കാസിം	-11.3126
▁രാഘവ	-11.3133
▁ഇലക്ട്രിക്	-11.3149
▁ശരിയല്ലെന്ന	-11.3159
▁ഇദ്ദേഹ	-11.3167
▁ഹര്‍ജിയില	-11.3191
▁സരിത്ത	-11.3193
▁സഹോദരങ്ങള	-11.3212
മാത്രമായിരിക്കും	-11.3212
▁മരിക്കുകയ	-11.3215
മോഹന്‍	-11.3225
രംഗത്ത്	-11.3226
▁കുമാര	-11.3228
▁(21)	-11.3232
▁അഹങ്കാര	-11.3232
▁ഇന്റര്‍നെറ്റ	-11.3232
▁കണക്കുകൂട്ട	-11.3232
▁ക്യാപ്റ്റൻ	-11.3232
▁ചതുരശ്ര	-11.3232
▁നിർണ്ണായക	-11.3232
▁ഗൗരിയമ്മ	-11.3232
▁നട്ടെല്ല	-11.3232
▁മോഹൻലാല	-11.3232
▁ദിര്‍ഹ	-11.3232
▁പ്രാര്‍ത്ഥന	-11.3232
▁കൊള്ളയടി	-11.3233
▁ഇരുപത്തി	-11.3233
▁പിരിച്ചുവിട്ട	-11.3233
▁ിനൊപ്പമ	-11.3233
ഒരൊറ്റ	-11.3233
ള്ളക്കടത്ത്	-11.3234
▁ഹയർ	-11.3236
▁ബേപ്പൂ	-11.3236
▁നിയമങ്ങള	-11.3248
▁ചോദ്യങ്ങള	-11.3259
▁പത്രസമ്മേളന	-11.3266
▁കഥകള	-11.327
▁ആശംസകള	-11.3282
▁സഖാക്കള	-11.3295
▁ശക്തമാക്കാന	-11.3295
▁സംസ്ഥാനങ്ങൾക്ക	-11.3317
▁അർപ്പ	-11.3325
▁ഇതുകൂട	-11.3338
ധിഷ്ഠിത	-11.3343
▁ഇന്‍ഷുറന്‍സ	-11.3343
▁ഓപ്പറേഷൻ	-11.3343
▁ഫിനാലെ	-11.3343
▁മനോഭാവ	-11.3343
▁ഉപാധ്യക്ഷ	-11.3343
▁മുൻകരുത	-11.3343
▁സയ്യിദ	-11.3343
ടിപിസിആ	-11.3343
▁വെടിവെപ്പ	-11.3343
▁രസകരമായ	-11.3344
▁സാധ്യമല്ല	-11.3344
▁മലേഷ്യ	-11.3344
▁രാജ്ഞി	-11.3344
▁റാഷിദ	-11.3344
▁കുടിശ്ശി	-11.3344
▁(48)	-11.3344
▁(31)	-11.3344
▁ജലീൽ	-11.3344
▁ഫിനാൻ	-11.3344
▁നിയമിക്കുന്നു	-11.3345
▁അസഭ്യ	-11.3346
▁അറിയാമായിരുന്ന	-11.3347
▁തൂണ	-11.3347
▁കരിയറില	-11.3349
▁(2)	-11.3351
▁നിന്നുമെത്തി	-11.3351
▁ഹസന	-11.3371
തിങ്കളാഴ്ച്ച	-11.3381
▁പിന്‍വലിക്കാന	-11.3394
ിരിപ്പ	-11.3395
▁വടക്കാഞ്ച	-11.3405
▁ശേഷിയ	-11.3409
▁സ്മാര്‍ട്	-11.3421
▁സഹിക്ക	-11.343
▁തയാറ	-11.343
ചുമതലപ്പെടുത്തിയ	-11.3444
▁ഭിന്നി	-11.3455
▁ലൊക്കേഷന	-11.3456
▁കശ്മീർ	-11.3456
▁പ്രതിബദ്ധത	-11.3456
▁അഭിവാദ്യ	-11.3456
▁കോടിക്കണക്കിന	-11.3456
▁ത്രികോണ	-11.3456
▁പ്രതിഷ്ഠ	-11.3456
▁കോതമംഗലം	-11.3456
▁തുകൊണ്ടാണ്	-11.3456
▁ഗവൺമെന്റ	-11.3456
▁ഡെല്‍റ്റ	-11.3456
▁റെഗുല	-11.3456
▁തമിഴ്നാട്ടിൽ	-11.3456
▁ഹൂഡ	-11.3456
▁ഒപ്ട	-11.3456
▁വിരമിക്ക	-11.3456
▁മദ്രാസ	-11.3456
▁ആചരി	-11.3456
▁ഗര്‍ഭ	-11.3456
▁വയനാട്ടിൽ	-11.3456
▁പുനസംഘടന	-11.3457
പരിചിത	-11.3457
▁യേശു	-11.3457
▁ആഴ്ച്ച	-11.3457
ായിരിക്കാം	-11.3457
▁വഹാബ	-11.3458
ഗോപാൽ	-11.3458
▁കൊമേഴ്	-11.3458
▁02	-11.3458
▁കരീം	-11.3459
▁ഹൈദര	-11.346
▁ശ്രേയ	-11.3466
▁അതിനോട	-11.3483
▁കിട്ടാത	-11.3487
▁സര്‍ക്കാരിനോട	-11.3488
▁അതാത	-11.3496
▁1.2	-11.3526
▁ടീമുകള	-11.3527
▁നിലകൊള്ള	-11.3569
▁കരുനാഗപ്പള്ളി	-11.3569
▁കോയമ്പത്തൂര	-11.3569
▁പരിശീലക	-11.3569
▁പ്രദർശിപ്പ	-11.3569
▁ശുചീകരണ	-11.3569
▁സമയബന്ധിത	-11.3569
▁സമ്പ്രദായ	-11.3569
▁തെലുങ്ക	-11.3569
▁ആര്‍സിബി	-11.357
▁ഉറപ്പാക്കാൻ	-11.357
▁അനുരാഗ	-11.357
▁രണ്ടിടത്ത	-11.357
▁നിർണയ	-11.357
▁സിദ്ധിഖ	-11.357
▁വിപുലീകരി	-11.357
▁ആഘോഷങ്ങള	-11.3571
▁അനുയായികള	-11.3572
▁വൈക്കം	-11.3572
▁സകല	-11.3572
▁കല്യാ	-11.3574
▁അന്താരാഷ്	-11.3583
▁ബ്രാഞ്ച	-11.3584
▁ഉറപ്പാക്കുക	-11.3585
▁വയ്ക്കാന	-11.3587
▁ഡാന്‍സ	-11.36
▁എന്നിവയെല്ലാ	-11.3606
▁മാകാന	-11.3607
▁മൂന്നാമത	-11.3608
▁ഉദ്യോഗസ്ഥര്‍ക്ക	-11.3629
▁നഗരസഭയില	-11.3655
▁റിക്രൂട്ട്മെന്റ	-11.3676
▁രാജ്യവ്യാപക	-11.3684
▁ഛിന്നഗ്രഹ	-11.3684
▁ശാക്തീകര	-11.3684
ഝ	-11.3684
▁അപകീര്‍ത്തി	-11.3684
▁ഉപദേഷ്ടാ	-11.3684
▁എഴുത്തുകാര	-11.3684
▁ഛത്തീസ്ഗഡ്	-11.3684
▁ജയസൂര്യ	-11.3684
▁ലൈംഗികാതിക്രമ	-11.3684
▁ഷാജഹാ	-11.3684
▁കലക്ടർ	-11.3684
▁ജനിതക	-11.3684
▁കലക്ടറ	-11.3684
▁അഭിലാഷ	-11.3684
▁അർജുന	-11.3684
▁അഹമ്മദാബാദ്	-11.3685
▁ശശികല	-11.3685
▁ദിനേശ്	-11.3685
▁ഉഭയ	-11.3685
▁പദ്ധതിയിട്ട	-11.3685
▁രാജശേഖരന	-11.3685
▁ഘട്ടങ്ങളിലായ	-11.3685
▁ദീർഘകാല	-11.3686
▁മലമ്പുഴ	-11.3686
▁ശങ്കറ	-11.3686
ഫോടക	-11.369
▁റിസർവ	-11.369
▁വർധിക്ക	-11.3707
▁സാധ്യതയുള്ളതിനാ	-11.3709
പൂര്‍വ്വം	-11.3713
▁നേടുകയ	-11.374
▁ഇല്ലാതാക്കാന	-11.3752
▁വന്നതെന്ന	-11.3753
▁നിര്‍മാതാ	-11.3799
B	-11.38
ദേശാഭിമാനി	-11.3801
ൊരിക്കലും	-11.3801
▁അയല്‍വാസി	-11.3801
▁വാരണാസി	-11.3801
▁ഉറപ്പാക്കണം	-11.3801
▁ആകർഷി	-11.3801
▁പ്രൊഫസര്‍	-11.3801
▁ക്ഷീര	-11.3801
▁രാധാ	-11.3801
▁ഹരജി	-11.3801
▁റഹ്മാന	-11.3801
▁പ്രൈമ	-11.3801
▁അൻവർ	-11.3801
▁ത്തിനിടയില	-11.3804
▁കാലങ്ങളായ	-11.3805
▁വഞ്ചന	-11.3808
▁കുറവാണെന്ന	-11.3831
രാജ്യങ്ങളും	-11.3849
▁പ്രദേശില	-11.3853
▁ജ്യോതിഷത്തില	-11.386
▁മാതൃ	-11.3871
▁മൃഗങ്ങള	-11.3875
▁പ്പിക്കാന	-11.3888
▁ചാൻസ	-11.3916
▁കോർപ്പറേറ്റ	-11.3918
ര്‍ഡിനേറ്റര്‍	-11.3918
▁ഇടംപിടിച്ച	-11.3918
▁ഉദ്യോഗാർഥിക	-11.3918
▁കംപ്യൂട്ട	-11.3918
▁നാവികസേന	-11.3918
▁പണപ്പെരുപ്പ	-11.3918
▁രേവതി	-11.3918
▁വരണാധികാരി	-11.3918
▁വർഗ്ഗീയ	-11.3918
▁ടൂര്‍ണമെന്	-11.3918
▁ബന്ധവുമില്ല	-11.3918
▁രാജ്യത്തുടനീള	-11.3918
▁സംഭരി	-11.3918
▁ആര്‍എംപി	-11.3918
▁കൂറുമാറ്റ	-11.3918
▁ഒരാഴ്ച്ച	-11.3919
▁(43)	-11.3919
▁ബിഹാർ	-11.3919
▁ചന്ദ്രയാന്‍	-11.3919
വൽക്കരണ	-11.3919
▁ചൊവ്വാഴ്ച്ച	-11.3919
▁ശബ്ദരേഖ	-11.3919
▁പ്രതിസന്ധിയിലായ	-11.3919
▁പൂക്കള	-11.3926
▁അധീ	-11.3932
▁%)	-11.3939
▁ക്രൈംബ്രാഞ്ച	-11.3941
▁നിതീഷ	-11.3944
▁നിയന്ത്രിക്കാന	-11.3949
▁അവിടുത്ത	-11.3949
▁സഹായങ്ങള	-11.4003
▁ഓഹരികള	-11.402
▁രാശിമാറ്റ	-11.4033
▁പ്രസിദ്ധ	-11.4037
വിഭാഗ	-11.4037
▁ഐസൊലേഷ	-11.4037
▁കൺവീന	-11.4037
▁ഛത്തീസ്ഗഡില	-11.4037
▁ഇതിഹാസ	-11.4037
▁ഉത്പന്ന	-11.4037
▁എരുമേലി	-11.4037
▁ബയോഡാറ്റ	-11.4037
▁റിപബ്ലിക്	-11.4037
▁വയസ്സുകാരി	-11.4037
▁സൈക്കോളജി	-11.4037
▁സ്വമേധയ	-11.4037
▁ഡോക്യുമെന്	-11.4037
▁നിര്‍വഹിക്ക	-11.4037
▁പ്പെടുത്തണമെന്ന	-11.4037
▁ദുബൈ	-11.4037
▁സംവദി	-11.4037
▁നെടുമങ്ങാട	-11.4037
▁പിന്തുടര്‍ന്ന	-11.4038
▁ഉറപ്പാക്കും	-11.4038
▁നിതീഷിന	-11.4039
▁അപേക്ഷകര്‍	-11.4039
▁അഫ്ഗാനിസ്ഥാനില	-11.4046
▁ധാരാള	-11.4049
തിനെതിരായ	-11.4056
▁കാനഡയില	-11.4059
▁സമൂഹമാധ്യമങ്ങളി	-11.406
▁നമ്പര	-11.4064
യുണ്ടാകുമെന്ന	-11.4064
▁വാർത്തകള	-11.4085
▁തീര്‍ക്കാന	-11.4089
▁സെൻസ	-11.4105
▁സൈക്കിള	-11.411
▁റിയാസിന	-11.4121
ധുനിക	-11.4142
▁(52)	-11.4158
▁ഗർഭിണി	-11.4158
▁തീര്‍ഥാടന	-11.4158
▁ദാരിദ്ര്യ	-11.4158
▁നിര്‍ണ്ണായക	-11.4158
▁പ്രതിനിധീകരിച്ച	-11.4158
▁വോട്ടുബാങ്ക	-11.4158
▁സാങ്കേതികവിദ്യ	-11.4158
▁ഓഡിറ്റോറിയ	-11.4158
ത്രമാത്രം	-11.4158
▁പുകഴ്ത്തി	-11.4158
▁താവള	-11.4159
▁ഫാസിസ്റ്റ	-11.4159
▁(20)	-11.4159
▁കൊതുക	-11.416
▁പകര്‍ന്ന	-11.416
സംഘടന	-11.416
▁മാറ്റത്തിന	-11.4161
നികുതി	-11.4162
▁ഹര്‍ഷ	-11.4163
യാത്രിക	-11.4164
▁ക്രിസ്മസ	-11.4164
▁ജില്ലകള	-11.4165
▁വിള്ളല	-11.4169
▁കുറ്റവാളികള	-11.4199
▁കണ്ടെത്തുന്നതിന	-11.4213
ൂറോളം	-11.4214
▁ദുരൂഹ	-11.426
ാനിടയ	-11.4261
▁കാഞ്ഞിര	-11.4279
▁അംബേദ്ക	-11.428
▁ദേവഗൗഡ	-11.428
▁ന്യൂയോര്‍ക്ക്	-11.428
▁പത്മനാഭ	-11.428
▁റായ്ബറേലി	-11.428
▁ശിവൻകുട്ടി	-11.428
▁ശുചിമുറി	-11.428
▁സംതൃപ്ത	-11.428
▁തീപിടിത്ത	-11.428
▁വെള്ളക്കെട്ട	-11.428
▁വികസിപ്പിക്ക	-11.428
▁സഞ്ജീവ	-11.428
▁ജയിക്കുമെന്ന	-11.428
▁മർദ്ദിച്ച	-11.428
▁പാണക്കാട്	-11.428
▁ഇന്റര്‍നാഷ	-11.428
▁(33)	-11.428
▁ക്രോസ്	-11.428
▁വർദ്ധനവ	-11.428
▁സിറാജ	-11.4281
▁കുറയ്ക്കാ	-11.4283
▁പരാതിക്കാരന	-11.4295
സംഘടിത	-11.4296
വത്കരി	-11.4297
▁അതല്ലെങ്കി	-11.43
▁കുതിച്ചുയര	-11.4301
▁അവഹേള	-11.4308
▁മര്‍ദ്ദ	-11.431
▁വയനാട	-11.4312
▁കുറ്റകൃത്യങ്ങള	-11.4317
▁ഡോസുകള	-11.4335
▁നകത്ത	-11.4352
▁കണക്കാക്കപ്പെട	-11.4359
▁വിദേശികള	-11.4363
▁തീരുമാനമെടു	-11.4373
▁ഇടയ്ക്ക	-11.438
▁ങിന	-11.4383
▁നടപടിക്രമങ്ങള	-11.4393
ാധിപ	-11.4399
▁ഉപതെരഞ്ഞെടുപ്പ	-11.4403
▁ഗൊഗോയ	-11.4403
▁ചെങ്കോട്ട	-11.4403
▁തില്ലങ്കേരി	-11.4403
▁നിർവ്വഹി	-11.4403
▁ബല്‍റാം	-11.4403
▁വിളിച്ചുവരുത്തി	-11.4403
▁സന്നിധാനം	-11.4403
▁മൃദു	-11.4403
▁വയസുകാരന	-11.4403
▁മൗര്യ	-11.4403
▁ഹീറോ	-11.4403
▁പാര്‍വതി	-11.4403
▁മുതലാളി	-11.4403
▁ചുവന്ന	-11.4404
▁സ്വര്‍ണ്ണക്കടത്	-11.4404
▁കരാറുകാര	-11.4404
▁സവര്‍ക്ക	-11.4404
▁വിട്ടയച്ച	-11.4408
▁പൾസ	-11.4409
സ്വയം	-11.4411
▁തൃപ്തികരമ	-11.4427
ണ്ടായിരുന്നത്	-11.4433
ധാന്യ	-11.4477
▁പ്രയോജനപ്പെടു	-11.4481
▁അത്യാവശ്യമാണ	-11.4498
▁ആഴത്തില	-11.4503
▁ആശയങ്ങള	-11.4504
ാഘാത	-11.4527
▁ഛത്തീസ്	-11.4528
▁പൈതൃക	-11.4528
▁മുന്‍നിര്‍ത്തി	-11.4528
▁സാമ്പിള്‍	-11.4528
▁സെക്കൻഡ	-11.4528
▁പരിക്കേല്‍	-11.4528
▁ശുക്ല	-11.4528
▁ഐസൊലേഷനില്‍	-11.4528
▁കാരണമാകുമെന്ന	-11.4528
▁നാദാപുര	-11.4528
▁പ്രീമിയ	-11.4529
▁ജൈവ	-11.4529
▁ചോര്‍ച്ച	-11.4529
▁ബൂസ്റ്റ	-11.4529
▁രാജിവയ്ക്ക	-11.4529
▁ഫയൽ	-11.453
▁കുന്നംകുള	-11.453
▁നികേഷ	-11.4534
വ്യാധി	-11.4542
ഉത്രാട	-11.4545
▁എനിക്കെതിര	-11.4588
▁ഒഴിവുകളിലേക്ക	-11.4595
▁കുറയ്ക്കുക	-11.4597
▁മലബാറില	-11.4609
▁കിഴക്കന	-11.4642
▁കോര്‍പ്പറേഷനില	-11.465
സ്റ്റോറന്റ	-11.4655
▁അടിപൊളി	-11.4655
▁ദ്രാവിഡ	-11.4655
▁നിഷാദ്	-11.4655
▁ദീപാവലി	-11.4655
▁ബാലഗോപാല	-11.4655
▁വയോധിക	-11.4655
▁ക്യാപിറ്റ	-11.4655
▁മുസ്തഫ	-11.4655
▁ട്രെന്‍ഡ	-11.4655
▁ടീച്ചറ	-11.4655
▁ലഭ്യമല്ല	-11.4655
▁നോർത്ത്	-11.4655
▁പൊളിറ്റിക്ക	-11.4656
▁ഏറെക്കുറ	-11.4656
ഘാടനം	-11.4656
ഛ	-11.4664
▁മാകുക	-11.4664
സര്‍ക്കാരിന്റെ	-11.4665
ിട്ടുളളത്	-11.4672
▁വ്യാപിപ്പിക്ക	-11.4676
കണക്കിന	-11.4689
ബാലചന്ദ്രകുമാര്‍	-11.4696
▁ആരുടേ	-11.4699
▁ഉയരുകയ	-11.4704
▁യാവുകയ	-11.4725
▁ഉണ്ടായതെന്ന	-11.4745
▁വരുന്നതിന	-11.4747
▁കാര്യമാണെന്ന	-11.4763
▁റവന്യ	-11.4773
വർത്തന	-11.4781
▁അട്ടിമറിക്കാന	-11.4782
▁ഖജനാവ	-11.4783
J	-11.4783
▁ഉൽപ്പന്ന	-11.4783
▁കൊലയാളി	-11.4783
▁കർണ്ണാടക	-11.4783
▁ലബോറട്ടറ	-11.4783
▁വിജയസാധ്യത	-11.4783
▁വിദേശത്തുനിന്ന	-11.4783
▁സങ്കീര്‍ണ	-11.4783
▁സെബാസ്റ്റ്യ	-11.4783
▁വെട്ടിക്കുറ	-11.4783
▁കമ്യൂണിസ്റ്റ്	-11.4783
▁തണുപ്പ	-11.4783
▁(39)	-11.4783
▁ബസവരാജ	-11.4783
▁പകര്‍ച്ച	-11.4784
▁വേറിട്ട	-11.4784
▁അച്ചടി	-11.4785
▁വഖഫ	-11.4785
▁സ്റ്റാൻഡ	-11.4785
▁വെങ്കിട	-11.4786
▁നിവാസി	-11.4787
▁താരിഖ	-11.4787
▁എയ്ഡ	-11.479
▁നിടയ	-11.4794
ഡിഎംകെ	-11.4795
▁ലഭിക്കുന്നതിന	-11.4804
▁വിചാരിക്ക	-11.4805
നിര്‍മ്മിക്കുന്ന	-11.4808
▁മലയാളത്തില	-11.4863
▁വെള്ളിയാഴ്	-11.4867
കുടുംബങ്ങള്‍ക്ക്	-11.4882
▁ദിലീപിനെതിര	-11.4906
കലാശ	-11.4906
സിഡന്റ്	-11.4909
▁ആദരാഞ്ജലി	-11.4913
▁സെലിബ്രിറ്റി	-11.4913
▁എഞ്ചിനീയര്‍	-11.4913
▁കണ്‍സള്‍ട്ട	-11.4913
▁പുതുവത്സര	-11.4913
▁ബിഡിജെഎസ	-11.4913
▁സുര്‍ജേവാല	-11.4913
▁സുശീല	-11.4913
▁ഉത്പാദന	-11.4913
▁കാര്യാലയ	-11.4913
വിശാഖ	-11.4913
▁കാരാട്ട്	-11.4913
▁വിഐപി	-11.4913
▁ശൈഖ	-11.4914
▁ആയുഷ്	-11.4914
▁യുക്തി	-11.4914
▁ഫഹദ	-11.4914
▁അറിയാമെന്ന	-11.4914
▁ആദരവ	-11.4916
▁ഫാന്‍സ	-11.4924
ഡബ്ല്യു	-11.4926
പ്പോലുള്ള	-11.4929
▁രാജിക്കത്ത	-11.493
▁േട്ടന	-11.4955
▁കളിക്കാന	-11.4968
▁കര്‍ണാടകത്തില	-11.4975
▁ന്യൂനപക്ഷങ്ങള	-11.4981
▁ഇങ്ങന	-11.4981
ിക്കൊന്ന	-11.4984
▁പാഴാ	-11.4984
▁ഉള്ളടക്ക	-11.501
▁നേതാക്ക	-11.5028
▁സ്വന്തമാ	-11.5042
▁ലഘൂകര	-11.5044
ബാലചന്ദ്രകുമാറിന	-11.5044
▁ഇരുചക്ര	-11.5044
▁കോര്‍പ്പറേറ്റ	-11.5044
▁കോൺസുലേറ്റ	-11.5044
▁മലിനീകരണ	-11.5044
▁ആറന്മു	-11.5044
▁പെഷ്യലിസ്റ്റ്	-11.5045
ുര്‍വേദ	-11.5045
▁തളളി	-11.5045
▁കവാട	-11.5046
▁ഇതുവരേ	-11.5046
▁അഭിജിത്	-11.5047
▁ഒപ്പുവെ	-11.5058
▁വനിതകള	-11.5068
▁ക്വാറന്റൈ	-11.508
▁പ്രൊഫഷണ	-11.5084
▁ചേർക്ക	-11.5098
▁ബ്രിട്ടീഷുകാ	-11.5104
▁പിടിക്കുകയ	-11.5104
▁പോകുന്നതെന്ന	-11.5109
▁കസ്റ്റഡി	-11.5122
▁അവകാശങ്ങള	-11.5126
▁വ്യക്തമാക്കുകയ	-11.5166
▁ഓര്‍ഡിനന്‍സ	-11.5178
സഹിഷ്ണുത	-11.5178
▁ഇടനിലക്കാര	-11.5178
▁എലിസബത്ത	-11.5178
▁കെഎസ്ഇബി	-11.5178
▁മൂലധന	-11.5178
▁സുബ്രഹ്മണ്യ	-11.5178
▁അധ്വാന	-11.5178
▁കര്‍ഫ്യൂ	-11.5178
▁ന്യായീകരിച്ച	-11.5178
▁മണിപ്പൂർ	-11.5178
▁കണക്ഷന	-11.5178
▁ഹമീദ	-11.5178
▁ലഘു	-11.5178
▁നിർമിച്ച	-11.5178
▁ഖനന	-11.518
ചിത്തിര	-11.5181
ഭൂമി	-11.5195
ങ്ങളേയും	-11.5256
▁കടലാസ	-11.5258
▁എത്തിയപ്പോഴ	-11.526
▁വിചാര	-11.5267
▁ജാമ്യത്തില	-11.5272
▁സസ്പെൻ	-11.53
▁വേറൊര	-11.5308
ാർഥി	-11.5312
▁കഴക്കൂട്ടത്ത	-11.5313
▁അജ്ഞാത	-11.5313
▁അടച്ചുപൂട്ട	-11.5313
▁എഴുന്നേറ്റ	-11.5313
▁പ്ലാറ്റ്ഫോമ	-11.5313
com	-11.5313
ാരോപണ	-11.5313
▁അര്‍ണബ	-11.5313
▁ഏവിയേഷ	-11.5313
▁കോഹ്ലി	-11.5313
▁പുറത്തുനിന്ന	-11.5313
▁പ്രേരണ	-11.5313
▁ശ്രീമതി	-11.5313
▁(47)	-11.5313
▁(46)	-11.5313
▁അന്‍സാര	-11.5313
▁ബുധനാഴ്ച്ച	-11.5313
▁കോണുകളി	-11.5313
▁നായ്ക്കള	-11.5314
▁(18)	-11.5314
▁ഏതായാലു	-11.5314
പ്രാപ്തി	-11.5314
▁കല്ലേറ	-11.5315
▁രതീഷ	-11.5316
▁ണ്ടാവുമെന്ന	-11.5316
▁(7)	-11.5323
▁പ്രചരണങ്ങള	-11.5326
ഗാന്ധി	-11.5332
▁ഭൂപേ	-11.5338
ൈസേ	-11.5356
നോർക്ക	-11.5372
▁ആക്രമിക്കുകയ	-11.539
▁ജില്ലക്കാരാ	-11.5412
▁ഒരുക്കങ്ങള	-11.5434
▁വെക്കുകയ	-11.5438
▁ഇക്കാലയളവില	-11.545
▁പീപ്പിള്‍	-11.545
▁ഹൈക്കമാൻഡ	-11.545
▁ആന്റിബോഡി	-11.545
▁കേടുപാടു	-11.545
▁ചിന്താഗതി	-11.545
▁ഡയലോഗ	-11.545
▁ത്തുടർന്ന	-11.545
▁നെതന്യാഹു	-11.545
▁പണ്ഡിറ്റ്	-11.545
▁പ്രവാചക	-11.545
▁മേൽനോട്ട	-11.545
▁സാദ്ധ്യത	-11.545
വിഷബാധ	-11.545
▁ജര്‍മ്മന	-11.545
▁ടീച്ചർ	-11.545
▁ബിസിനസുകാര	-11.545
▁സുപ്രിയ	-11.545
▁മാന്ദ്യ	-11.5451
ുയർന്ന	-11.5451
▁ഏര്‍പ്പെട്ട	-11.5451
▁കണ്ടുപിടിക്ക	-11.5451
▁ബിശ്വ	-11.5451
▁മുകുള	-11.5452
▁പരത്തുന്ന	-11.5453
▁റീട്ടെയ	-11.5453
▁ഗാർഡ	-11.5454
മഹത്തായ	-11.5459
▁ആപ്പിള	-11.5463
▁മാതാവിന	-11.5465
▁പോസ്റ്ററുകള	-11.5465
▁ക്കേസില	-11.5466
ബാധിത	-11.5468
▁ജോര്‍ജ്ജിന	-11.5481
▁കൊണ്ടുവരിക	-11.5494
▁കളിയാക്ക	-11.5502
▁െങ്കില	-11.5519
▁തടസ്സപ്പെടുത്ത	-11.5531
▁അനുകൂലികള	-11.5542
▁തെറ്റിദ്ധരി	-11.5554
▁ഡ്രൈവിംഗ	-11.5569
ക്കെതിരേയും	-11.5579
▁മൊത്തത്തില	-11.5582
▁പുരോഗമി	-11.5586
▁(54)	-11.5589
▁അബൂബക്ക	-11.5589
▁അറ്റകുറ്റപ്പണി	-11.5589
▁ആൺകുട്ടി	-11.5589
▁ട്വിറ്റർ	-11.5589
▁ഭൂചലന	-11.5589
▁രജനീകാന്ത	-11.5589
▁വെടിക്കെട്ട്	-11.5589
▁ശ്മശാന	-11.5589
▁അതിരൂക്ഷ	-11.5589
▁ഉണ്ണികൃഷ്ണ	-11.5589
▁ഉപഗ്രഹ	-11.5589
▁കുടുങ്ങിക്കിട	-11.5589
▁ജാർഖണ്ഡ	-11.5589
▁ടെക്നീഷ്യ	-11.5589
▁പണിക്കൂലി	-11.5589
▁പെരിന്ത	-11.5589
▁വിസ്തരി	-11.5589
▁കൗതുക	-11.5589
ീശ്വര	-11.5589
▁അയ്യായിര	-11.5589
▁കടിയേറ്റ	-11.5589
ാശംസ	-11.5589
▁പ്രബല	-11.5589
▁സാഗർ	-11.5589
ഇസ്ലാം	-11.5589
▁റിസർച്ച	-11.559
▁ഗ്ലാസ	-11.5591
▁വജ്ര	-11.5591
▁പേരാവൂര	-11.5592
▁തുരത്ത	-11.5593
വിശ്വാസ	-11.5593
ഇന്ത്യ	-11.5611
േയുള്ളൂ	-11.5619
ക്കിടയില്‍	-11.5625
▁ഭാഗമാണെന്ന	-11.5633
▁വിമാനത്താവളങ്ങള	-11.5638
▁ജഡ്ജ	-11.5646
തന്നെയായിരിക്കും	-11.5658
▁ചിന്തിക്കാ	-11.5659
▁ലഭിക്കാനുണ്ട	-11.5663
▁അടയാളപ്പെടുത്ത	-11.567
▁ദേവികുള	-11.5676
▁വിന്യസി	-11.5689
പുറപ്പെട്ട	-11.5702
▁പ്രവര്‍ത്തകരുട	-11.5705
▁പക്കല	-11.5719
▁ഡോക്ടർമാര	-11.573
▁ദിവാകരന	-11.573
▁ന്യൂനമര്‍ദ	-11.573
▁അംബാസഡ	-11.573
▁അട്ടപ്പാടി	-11.573
▁ഇന്‍ഫര്‍മ	-11.573
▁ചാന്‍സല	-11.573
▁പ്രേമചന്ദ്ര	-11.573
▁മംഗലാപുര	-11.573
▁വിപണന	-11.573
▁സങ്കേത	-11.573
▁പ്രകോപിപ്പി	-11.573
▁അടിച്ചമർത്ത	-11.573
▁കമ്മീഷണറ	-11.573
▁പ്രതിഭാഗ	-11.573
ലൈബ്രറി	-11.573
▁പവിത്ര	-11.573
▁ഒഡിഷ	-11.573
▁തുടരുകയാണെന്ന	-11.573
▁കൊണ്ടുവരുമെന്ന	-11.573
▁ഗൗഡ	-11.573
▁വാല്യു	-11.573
▁മെമ്പര്‍	-11.573
▁മോഡൽ	-11.573
▁ആക്ഷന	-11.5732
▁ആഗോളതലത്തി	-11.5733
▁ചാണക	-11.5737
െയ്ന്‍മെന്റ്	-11.574
▁തലപ്പത്ത	-11.5744
▁ചിതറ	-11.5745
▁ആശങ്കയുണ്ട	-11.5746
▁ഹാളില	-11.575
▁നറുക്ക	-11.5752
സംരക്ഷണ	-11.5754
സുരേന്ദ്രൻ	-11.5754
▁ഹിമന്	-11.5755
▁ചക്രവാതച	-11.5764
▁മാരുടേ	-11.5765
▁എല്ലാത്തിന	-11.5798
▁ഭര്‍ത്താവിന	-11.5799
▁കസ്റ്റംസ	-11.5801
▁പാലക്കാട	-11.5801
▁കടകളില	-11.5806
▁ഇതുപോല	-11.5808
▁വെളിപ്പെടു	-11.5821
▁മാസത്തിനിട	-11.587
▁പ്രാബല്യത്തില	-11.5873
▁കോൺഫറൻസ	-11.5873
▁വട്ടിയൂര്‍ക്കാവ	-11.5873
▁സിദ്ദീഖ	-11.5873
▁ഹെലികോപ്ട	-11.5873
▁ഇന്‍സ്പെക്ട	-11.5873
▁ഋഷി	-11.5873
▁നോമിനേറ്റ	-11.5873
▁പെരുമാറ്റച്ചട്ട	-11.5873
▁മുൻനിർത്തി	-11.5873
▁വന്യമൃഗ	-11.5873
▁വിസമ്മതിച്ച	-11.5873
▁സന്ദർഭ	-11.5873
▁തലച്ചോറ	-11.5873
▁സർവീസി	-11.5873
▁ദുല്‍ഖ	-11.5873
▁കുന്ദ്ര	-11.5873
▁രാധിക	-11.5873
▁വാര്യർ	-11.5873
▁വിദഗ്ദ്ധ	-11.5873
▁ജെയിംസ	-11.5873
▁ഓര്‍മിപ്പി	-11.5873
▁പ്രോത്സാഹിപ്പ	-11.5873
ബിരിയാണി	-11.5873
▁ഉരുള	-11.5875
▁അതിശയ	-11.5875
▁സാഗറ	-11.5876
▁നിയമിക്കുന്നതിന	-11.5877
▁കോളജില	-11.5878
▁മാജിക്	-11.5892
▁പാർപ്പി	-11.5905
▁വര്‍ഷങ്ങളില	-11.5926
▁സുവര്‍ണ	-11.5928
▁യുഎസ്സില	-11.5933
▁മനസ്സിലാക്കാന	-11.5941
▁ഒഴിവിലേക്ക	-11.5941
▁സാമ്പിളുക	-11.5942
▁അഹമ്മദ	-11.5948
▁പരിചയപ്പെടുത്ത	-11.5954
▁വിമർശനവു	-11.5998
സ്വീകരിക്കണമെന്ന	-11.6003
▁ആധികാരിക	-11.6017
▁എബ്രഹാം	-11.6017
▁ഡിപ്പാര്‍ട്ട്	-11.6017
▁തീര്‍ഥാടക	-11.6017
▁പത്തനാപുരം	-11.6017
▁മഹാത്മാഗാന്ധി	-11.6017
▁വൈകീട്ടോടെ	-11.6017
▁അടിസ്ഥാനരഹിത	-11.6017
▁ജർമ്മനി	-11.6017
▁തെളിവെടുപ്പ്	-11.6017
▁സൌകര്യ	-11.6017
▁പണ്ഡിത	-11.6017
▁പുരോഹിത	-11.6017
▁രശ്മി	-11.6018
▁പിറവം	-11.6018
▁വസ്തുക്കൾ	-11.6018
▁മണ്ഡപ	-11.6018
▁അഡ്വാന്‍സ്	-11.6018
▁സെമിനാറ	-11.6018
▁റസാഖ	-11.6018
▁അവതരണ	-11.6018
▁മോന്‍സന	-11.6018
▁ഡേവിഡ	-11.6018
▁കവര്‍ന്ന	-11.6018
▁പ്രൊഫൈല	-11.6018
▁പേടക	-11.6019
▁കണ്ണാടി	-11.6019
▁രചന	-11.6019
പ്പട്ടിക	-11.6021
▁കൗണ്‍സിലര്‍മാര	-11.6021
▁റിയാദില	-11.6022
നുബന്ധിച്ച	-11.6022
▁സെനറ്റ	-11.6026
▁സംഭവിച്ചതെന്ന	-11.6027
▁ചേക്കേറ	-11.6028
▁വേണ്ടതെന്ന	-11.603
▁വിനീത	-11.604
ഭാരത	-11.6051
▁ഇന്നലത്ത	-11.6063
▁സമീപിക്കാ	-11.6068
▁നടത്തുകയാണെന്ന	-11.6068
▁ക്യാമറകള	-11.6074
▁ഗുണ്ടകള	-11.6086
▁എത്തിക്കുന്നതിന	-11.6116
▁കണക്കിലെടു	-11.6139
▁ലേലത്തില	-11.6148
▁ഭാഷകള	-11.6161
▁സുമാര	-11.6163
▁അകമ്പടി	-11.6165
▁മംഗളൂരു	-11.6165
യുണൈറ്റഡ്	-11.6165
▁എയര്‍ലൈന്‍	-11.6165
▁ഒത്തുതീര്‍പ്പ	-11.6165
▁നിലനിന്നിരുന്ന	-11.6165
▁നെയ്യാറ്റിന്‍	-11.6165
▁പരിപാലന	-11.6165
▁പ്രോഗ്രാമി	-11.6165
▁വിജയരാഘവൻ	-11.6165
▁സംഭവസ്ഥലത്ത	-11.6165
▁സാമഗ്രികള	-11.6165
▁വിനിമയ	-11.6165
▁വിസ്താര	-11.6165
▁അസാധ്യ	-11.6165
▁കൊടകര	-11.6165
▁ഗൗരി	-11.6165
▁ഫ്രാങ്ക	-11.6165
▁ഓര്‍ഡര്‍	-11.6165
▁മൾട്ടി	-11.6165
▁ഇടിമിന്നലോട	-11.6165
▁സെക്ടറ	-11.6167
▁പ്രേരിപ്പിക്കു	-11.6167
▁ടെക്നിക്ക	-11.6168
▁പേഴ്സണ	-11.6169
▁ബുദ്ധിമുട്ടുകള	-11.6169
▁കുത്തിവയ്പ്	-11.6171
▁കുടിയേറ	-11.6173
▁കാബിന	-11.6173
പതിനായിരം	-11.6176
▁ഭാവത്തില	-11.6182
▁വിളിക്കാന	-11.6186
ാണത്രെ	-11.6186
▁ബുധന്റ	-11.6191
കൂടിയ	-11.6197
▁നിർമിക്ക	-11.6217
▁പൂഞ്ഞാറില	-11.6221
രോപിച്ച്	-11.6223
▁ചുവട്	-11.623
▁വാങ്ങുന്നതിന	-11.6241
▁തോല്‍ക്കു	-11.625
▁പാകിസ്താ	-11.6269
ക്ഷോഭ	-11.631
▁വളച്ചൊട	-11.6314
▁(51)	-11.6314
▁അരിക്കൊമ്പന	-11.6314
▁കഴക്കൂട്ടം	-11.6314
▁ന്യൂനമർദ്ദ	-11.6314
▁പ്രകടനപത്രിക	-11.6314
▁പ്രദർശന	-11.6314
▁മേഘാലയ	-11.6314
▁ആമസോണ	-11.6314
▁ഷിയാസ്	-11.6314
▁ശ്വേത	-11.6314
▁സന്താന	-11.6314
▁അഡ്മിനിസ്ട്രേ	-11.6314
▁അയോഗ്യത	-11.6315
▁പടർന്ന	-11.6316
▁ആശിഷ	-11.6322
▁തത്സമയ	-11.6323
▁വർഷങ്ങൾക്ക	-11.6326
്ടോറിയ	-11.6331
▁സാഗര	-11.6362
മോര്‍ട്ടം	-11.6375
▁സുഹൃത്	-11.6375
▁മൂവായിര	-11.6465
▁അഷ്റഫ	-11.6465
+	-11.6619
x	-11.7095
ൡ	-11.7095
ഉ	-11.714
ഈ	-11.765
@	-11.7768
=	-11.7943
]	-11.7943
ഏ	-11.8185
ഃ	-11.8676
j	-11.9066
Y	-11.9266
X	-12.1779
•	-12.2876
_	-12.317
൪	-12.3473
൯	-12.3473
️	-12.4108
z	-12.5143
q	-12.5898
ഋ	-12.6715
$	-12.7604
ा	-12.8081
Q	-12.9663
Z	-13.0876
क	-13.0876
°	-13.2257
₹	-13.2257
‐	-13.3026
े	-13.3026
र	-13.3026
ि	-13.4768
्	-13.4768
൦	-13.5768
🔘	-13.5768
ഊ	-13.6761
न	-13.6879
்	-13.6879
स	-13.8129
व	-13.9558
ब	-13.9558
म	-14.1225
>	-14.1225
ൿ	-14.1225
ह	-14.3225
द	-14.3225
ட	-14.3225
👉	-14.3225
ഌ	-14.3225
ग	-14.5725
}	-14.5725
त	-14.9058
£	-14.9058
ډ	-14.9058
ं	-14.9058
ए	-14.9058
थ	-14.9058
ी	-14.9058
⬛	-14.9058
︎	-14.9058
🏻	-14.9058
प	-14.9058
ज	-15.4058
भ	-15.4058
ڇ	-15.4058
ڈ	-15.4058
औ	-15.4058
ट	-15.4058
ण	-15.4058
ध	-15.4058
श	-15.4058
ष	-15.4058
ौ	-15.4058
া	-15.4058
க	-15.4058
ப	-15.4058
ம	-15.4058
ய	-15.4058
ி	-15.4058
€	-15.4058
👌	-15.4058
👏	-15.4058
💎	-15.4058
💚	-15.4058
🔸	-15.4058
😍	-15.4058
😘	-15.4058
🤝	-15.4058
🚩	-16.4039
🔥	-16.404
ो	-16.4041
अ	-16.4042
{	-16.4043
🙏	-16.4044
❓	-16.4045
ल	-16.4046
♥	-16.4047
▪	-16.4048
⃣	-16.4049
❤	-16.405
⁄	-16.4051
य	-16.4052
\	-16.4053
′	-16.4054
∙	-16.4055
[	-16.4056
ഔ	-16.4057
ठ	-16.4058
ச	-16.4058
ெ	-16.4058
<	-16.4058
(	-16.4058
`	-16.4058
	-16.4058
¥	-16.4058
×	-16.4058
â	-16.4058
ñ	-16.4058
आ	-16.4058
इ	-16.4058
च	-16.4058
।	-16.4058
ং	-16.4058
ব	-16.4058
ল	-16.4058
அ	-16.4058
ஆ	-16.4058
ண	-16.4058
த	-16.4058
ன	-16.4058
ல	-16.4058
வ	-16.4058
ீ	-16.4058
ு	-16.4058
ை	-16.4058
‟	-16.4058
◼	-16.4058
◾	-16.4058
♀	-16.4058
✌	-16.4058
✨	-16.4058
➡	-16.4058
ブ	-16.4058
ム	-16.4058
ラ	-16.4058
ル	-16.4058
ー	-16.4058
南	-16.4058
容	-16.4058
湘	-16.4058
美	-16.4058
	-16.4058
🎖	-16.4058
🐟	-16.4058
👇	-16.4058
🖤	-16.4058
🗃	-16.4058
😄	-16.4058
🙄	-16.4058
🤔	-16.4058
🤣	-16.4058
🤦	-16.4058
🥛	-16.4058
