{
  "version": "1.0",
  "truncation": null,
  "padding": null,
  "added_tokens": [
    {
      "id": 0,
      "content": "[UNK]",
      "single_word": false,
      "lstrip": false,
      "rstrip": false,
      "normalized": false,
      "special": true
    },
    {
      "id": 1,
      "content": "[CLS]",
      "single_word": false,
      "lstrip": false,
      "rstrip": false,
      "normalized": false,
      "special": true
    },
    {
      "id": 2,
      "content": "[SEP]",
      "single_word": false,
      "lstrip": false,
      "rstrip": false,
      "normalized": false,
      "special": true
    },
    {
      "id": 3,
      "content": "[PAD]",
      "single_word": false,
      "lstrip": false,
      "rstrip": false,
      "normalized": false,
      "special": true
    },
    {
      "id": 4,
      "content": "[MASK]",
      "single_word": false,
      "lstrip": false,
      "rstrip": false,
      "normalized": false,
      "special": true
    }
  ],
  "normalizer": {
    "type": "Sequence",
    "normalizers": [
      {
        "type": "NFKC"
      },
      {
        "type": "Lowercase"
      }
    ]
  },
  "pre_tokenizer": {
    "type": "Whitespace"
  },
  "post_processor": null,
  "decoder": {
    "type": "WordPiece",
    "prefix": "##",
    "cleanup": true
  },
  "model": {
    "type": "WordPiece",
    "unk_token": "[UNK]",
    "continuing_subword_prefix": "##",
    "max_input_chars_per_word": 100,
    "vocab": {
      "[UNK]": 0,
      "[CLS]": 1,
      "[SEP]": 2,
      "[PAD]": 3,
      "[MASK]": 4,
      "!": 5,
      "\"": 6,
      "#": 7,
      "$": 8,
      "%": 9,
      "&": 10,
      "'": 11,
      "(": 12,
      ")": 13,
      "*": 14,
      "+": 15,
      ",": 16,
      "-": 17,
      ".": 18,
      "/": 19,
      "0": 20,
      "1": 21,
      "2": 22,
      "3": 23,
      "4": 24,
      "5": 25,
      "6": 26,
      "7": 27,
      "8": 28,
      "9": 29,
      ":": 30,
      ";": 31,
      "<": 32,
      "=": 33,
      ">": 34,
      "?": 35,
      "@": 36,
      "[": 37,
      "\\": 38,
      "]": 39,
      "_": 40,
      "`": 41,
      "a": 42,
      "b": 43,
      "c": 44,
      "d": 45,
      "e": 46,
      "f": 47,
      "g": 48,
      "h": 49,
      "i": 50,
      "j": 51,
      "k": 52,
      "l": 53,
      "m": 54,
      "n": 55,
      "o": 56,
      "p": 57,
      "q": 58,
      "r": 59,
      "s": 60,
      "t": 61,
      "u": 62,
      "v": 63,
      "w": 64,
      "x": 65,
      "y": 66,
      "z": 67,
      "{": 68,
      "}": 69,
      "": 70,
      "£": 71,
      "¥": 72,
      "°": 73,
      "·": 74,
      "×": 75,
      "â": 76,
      "ñ": 77,
      "ڇ": 78,
      "ڈ": 79,
      "ډ": 80,
      "ं": 81,
      "अ": 82,
      "आ": 83,
      "इ": 84,
      "ए": 85,
      "औ": 86,
      "क": 87,
      "ग": 88,
      "च": 89,
      "ज": 90,
      "ट": 91,
      "ठ": 92,
      "ण": 93,
      "त": 94,
      "थ": 95,
      "द": 96,
      "ध": 97,
      "न": 98,
      "प": 99,
      "ब": 100,
      "भ": 101,
      "म": 102,
      "य": 103,
      "र": 104,
      "ल": 105,
      "व": 106,
      "श": 107,
      "ष": 108,
      "स": 109,
      "ह": 110,
      "ा": 111,
      "ि": 112,
      "ी": 113,
      "े": 114,
      "ो": 115,
      "ौ": 116,
      "्": 117,
      "।": 118,
      "ং": 119,
      "ব": 120,
      "ল": 121,
      "া": 122,
      "அ": 123,
      "ஆ": 124,
      "க": 125,
      "ச": 126,
      "ட": 127,
      "ண": 128,
      "த": 129,
      "ன": 130,
      "ப": 131,
      "ம": 132,
      "ய": 133,
      "ல": 134,
      "வ": 135,
      "ி": 136,
      "ீ": 137,
      "ு": 138,
      "ெ": 139,
      "ை": 140,
      "்": 141,
      "ം": 142,
      "ഃ": 143,
      "അ": 144,
      "ആ": 145,
      "ഇ": 146,
      "ഈ": 147,
      "ഉ": 148,
      "ഊ": 149,
      "ഋ": 150,
      "ഌ": 151,
      "എ": 152,
      "ഏ": 153,
      "ഐ": 154,
      "ഒ": 155,
      "ഓ": 156,
      "ഔ": 157,
      "ക": 158,
      "ഖ": 159,
      "ഗ": 160,
      "ഘ": 161,
      "ങ": 162,
      "ച": 163,
      "ഛ": 164,
      "ജ": 165,
      "ഝ": 166,
      "ഞ": 167,
      "ട": 168,
      "ഠ": 169,
      "ഡ": 170,
      "ഢ": 171,
      "ണ": 172,
      "ത": 173,
      "ഥ": 174,
      "ദ": 175,
      "ധ": 176,
      "ന": 177,
      "പ": 178,
      "ഫ": 179,
      "ബ": 180,
      "ഭ": 181,
      "മ": 182,
      "യ": 183,
      "ര": 184,
      "റ": 185,
      "ല": 186,
      "ള": 187,
      "ഴ": 188,
      "വ": 189,
      "ശ": 190,
      "ഷ": 191,
      "സ": 192,
      "ഹ": 193,
      "ാ": 194,
      "ി": 195,
      "ീ": 196,
      "ു": 197,
      "ൂ": 198,
      "ൃ": 199,
      "െ": 200,
      "േ": 201,
      "ൈ": 202,
      "ൊ": 203,
      "ോ": 204,
      "ൌ": 205,
      "്": 206,
      "ൗ": 207,
      "ൡ": 208,
      "൦": 209,
      "൪": 210,
      "൯": 211,
      "ൺ": 212,
      "ൻ": 213,
      "ർ": 214,
      "ൽ": 215,
      "ൾ": 216,
      "ൿ": 217,
      "‌": 218,
      "‍": 219,
      "‐": 220,
      "‟": 221,
      "•": 222,
      "′": 223,
      "⁄": 224,
      "€": 225,
      "₹": 226,
      "⃣": 227,
      "∙": 228,
      "▪": 229,
      "◼": 230,
      "◾": 231,
      "♀": 232,
      "♥": 233,
      "✌": 234,
      "✨": 235,
      "❓": 236,
      "❤": 237,
      "➡": 238,
      "⬛": 239,
      "ブ": 240,
      "ム": 241,
      "ラ": 242,
      "ル": 243,
      "ー": 244,
      "南": 245,
      "容": 246,
      "湘": 247,
      "美": 248,
      "": 249,
      "︎": 250,
      "️": 251,
      "🌹": 252,
      "🎖": 253,
      "🏻": 254,
      "🐟": 255,
      "👇": 256,
      "👉": 257,
      "👌": 258,
      "👏": 259,
      "💎": 260,
      "💚": 261,
      "🔘": 262,
      "🔥": 263,
      "🔸": 264,
      "🖤": 265,
      "🗃": 266,
      "😄": 267,
      "😍": 268,
      "😘": 269,
      "🙄": 270,
      "🙏": 271,
      "🚩": 272,
      "🤔": 273,
      "🤝": 274,
      "🤣": 275,
      "🤦": 276,
      "🥛": 277,
      "🥦": 278,
      "##െ": 279,
      "##ര": 280,
      "##ള": 281,
      "##ശ": 282,
      "##േ": 283,
      "##ി": 284,
      "##ാ": 285,
      "##ഫ": 286,
      "##ല": 287,
      "##ഘ": 288,
      "##ട": 289,
      "##്": 290,
      "##ർ": 291,
      "##ോ": 292,
      "##ത": 293,
      "##സ": 294,
      "##ഹ": 295,
      "##ഖ": 296,
      "##യ": 297,
      "##ഴ": 298,
      "##ച": 299,
      "##ൽ": 300,
      "##ഡ": 301,
      "##ം": 302,
      "##ഗ": 303,
      "##ജ": 304,
      "##ങ": 305,
      "##ക": 306,
      "##വ": 307,
      "##ന": 308,
      "##ഷ": 309,
      "##‌": 310,
      "##ഭ": 311,
      "##ീ": 312,
      "##റ": 313,
      "##ു": 314,
      "##‍": 315,
      "##ദ": 316,
      "##ധ": 317,
      "##പ": 318,
      "##മ": 319,
      "##ഞ": 320,
      "##ഥ": 321,
      "##ൊ": 322,
      "##ൈ": 323,
      "##ൻ": 324,
      "##ൗ": 325,
      "##e": 326,
      "##d": 327,
      "##ണ": 328,
      "##ൂ": 329,
      "##ൃ": 330,
      "##o": 331,
      "##a": 332,
      "##i": 333,
      "##t": 334,
      "##z": 335,
      "##n": 336,
      "##c": 337,
      "##r": 338,
      "##ബ": 339,
      "##प": 340,
      "##न": 341,
      "##े": 342,
      "##ഐ": 343,
      "##ആ": 344,
      "##ൾ": 345,
      "##0": 346,
      "##1": 347,
      "##9": 348,
      "##b": 349,
      "##s": 350,
      "##p": 351,
      "##u": 352,
      "##എ": 353,
      "##h": 354,
      "##2": 355,
      "##ഠ": 356,
      "##4": 357,
      "##y": 358,
      "##f": 359,
      "##ൌ": 360,
      "##ൺ": 361,
      "##6": 362,
      "##5": 363,
      "##8": 364,
      "##l": 365,
      "##ഒ": 366,
      "##7": 367,
      "##m": 368,
      "##3": 369,
      "##j": 370,
      "##ഃ": 371,
      "##g": 372,
      "##.": 373,
      "##ഇ": 374,
      "##ഛ": 375,
      "##ഢ": 376,
      "##v": 377,
      "##ெ": 378,
      "##ய": 379,
      "##்": 380,
      "##ப": 381,
      "##ட": 382,
      "##k": 383,
      "##അ": 384,
      "##=": 385,
      "##ഓ": 386,
      "##w": 387,
      "##_": 388,
      "##-": 389,
      "##ഈ": 390,
      "##ഋ": 391,
      "##ഉ": 392,
      "##ा": 393,
      "##थ": 394,
      "##x": 395,
      "##ഌ": 396,
      "##൪": 397,
      "##'": 398,
      "##;": 399,
      "##ഊ": 400,
      "##â": 401,
      "##ौ": 402,
      "##क": 403,
      "##र": 404,
      "##ी": 405,
      "##ډ": 406,
      "##्": 407,
      "##व": 408,
      "##ट": 409,
      "##🏻": 410,
      "##൯": 411,
      "##ൿ": 412,
      "##?": 413,
      "##त": 414,
      "##ध": 415,
      "##ि": 416,
      "##️": 417,
      "##⃣": 418,
      "##ൡ": 419,
      "##/": 420,
      "##q": 421,
      "##🐟": 422,
      "##*": 423,
      "##\"": 424,
      "##ह": 425,
      "##ग": 426,
      "##ठ": 427,
      "##ब": 428,
      "##ं": 429,
      "##ഏ": 430,
      "##ഝ": 431,
      "##स": 432,
      "##य": 433,
      "##ो": 434,
      "##द": 435,
      "##ल": 436,
      "##@": 437,
      "###": 438,
      "##इ": 439,
      "##,": 440,
      "##൦": 441,
      "##!": 442,
      "##ज": 443,
      "##)": 444,
      "##😍": 445,
      "##ण": 446,
      "##ष": 447,
      "##ー": 448,
      "##ム": 449,
      "##ブ": 450,
      "##ラ": 451,
      "##$": 452,
      "##ए": 453,
      "##£": 454,
      "##ை": 455,
      "##க": 456,
      "##💎": 457,
      "##😘": 458,
      "##:": 459,
      "##′": 460,
      "##म": 461,
      "##ñ": 462,
      "##>": 463,
      "##া": 464,
      "##ং": 465,
      "##ল": 466,
      "##भ": 467,
      "##👌": 468,
      "##ு": 469,
      "##வ": 470,
      "##ீ": 471,
      "##ڈ": 472,
      "##🌹": 473,
      "##🤝": 474,
      "##南": 475,
      "##美": 476,
      "##容": 477,
      "##श": 478,
      "##ண": 479,
      "##ி": 480,
      "##ன": 481,
      "##அ": 482,
      "##த": 483,
      "##👏": 484,
      "##ന്": 485,
      "##ക്": 486,
      "##ത്": 487,
      "##്‍": 488,
      "##ന്ന": 489,
      "##ില": 490,
      "##ക്ക": 491,
      "##്ട": 492,
      "##ത്ത": 493,
      "##ും": 494,
      "##ിയ": 495,
      "##്ര": 496,
      "##ര്‍": 497,
      "##്യ": 498,
      "##ച്": 499,
      "##ുന്ന": 500,
      "##്പ": 501,
      "##ായ": 502,
      "##ട്ട": 503,
      "##ാണ": 504,
      "##രി": 505,
      "##പ്പ": 506,
      "##ങ്": 507,
      "##റ്": 508,
      "##സ്": 509,
      "##ാണ്": 510,
      "##ച്ച": 511,
      "##ില്‍": 512,
      "##തി": 513,
      "##ണ്ട": 514,
      "##ങ്ങ": 515,
      "##്ല": 516,
      "പ്ര": 517,
      "##ടെ": 518,
      "##ായി": 519,
      "##ന്‍": 520,
      "##ാന": 521,
      "##രു": 522,
      "##ിക്ക": 523,
      "##ുക": 524,
      "##ിന്": 525,
      "##ള്‍": 526,
      "##റ്റ": 527,
      "വി": 528,
      "##ഞ്": 529,
      "##ിച്ച": 530,
      "##ല്‍": 531,
      "##്ള": 532,
      "##രുന്ന": 533,
      "##ിൽ": 534,
      "##ള്ള": 535,
      "##ാര": 536,
      "##ക്ക്": 537,
      "സ്": 538,
      "##ടു": 539,
      "##റെ": 540,
      "##ുമ": 541,
      "ക്": 542,
      "##ന്ന്": 543,
      "##െയ": 544,
      "##ഞ്ഞ": 545,
      "##ിക": 546,
      "##ക്ഷ": 547,
      "##െന്ന": 548,
      "##ിന": 549,
      "നി": 550,
      "എന്ന": 551,
      "##ുള്ള": 552,
      "##ുടെ": 553,
      "##രുന്നു": 554,
      "കോ": 555,
      "ക്ക": 556,
      "##ല്ല": 557,
      "##ത്ര": 558,
      "##ദ്": 559,
      "മാ": 560,
      "##ില്ല": 561,
      "ത്": 562,
      "സം": 563,
      "##ണ്ട്": 564,
      "മു": 565,
      "##വി": 566,
      "##ദേ": 567,
      "പറ": 568,
      "##ാല": 569,
      "##രിക്ക": 570,
      "##ാക്ക": 571,
      "##പ്പെ": 572,
      "##ിലെ": 573,
      "നട": 574,
      "##ാര്‍": 575,
      "രാ": 576,
      "പി": 577,
      "നേ": 578,
      "കേ": 579,
      "##ങ്ങള": 580,
      "ചെയ": 581,
      "പോ": 582,
      "##ാന്‍": 583,
      "##ടി": 584,
      "കു": 585,
      "##്മ": 586,
      "കൊ": 587,
      "##ാവ": 588,
      "##ിന്റെ": 589,
      "##ങ്ക": 590,
      "##ന്ത്": 591,
      "##ണം": 592,
      "##ുന്നത്": 593,
      "##ോഗ": 594,
      "##ിവ": 595,
      "##ത്ത്": 596,
      "##െന്ന്": 597,
      "തി": 598,
      "##േഷ": 599,
      "##ണ്": 600,
      "##രെ": 601,
      "##ച്ച്": 602,
      "##മ്മ": 603,
      "##സി": 604,
      "സ്വ": 605,
      "##ട്": 606,
      "പു": 607,
      "##സ്ഥ": 608,
      "##ുവ": 609,
      "##െന്നും": 610,
      "##്യാ": 611,
      "സാ": 612,
      "##ദേശ": 613,
      "##ടുത്ത": 614,
      "##ങ്ങള്‍": 615,
      "ഒരു": 616,
      "##ംഗ": 617,
      "##രാ": 618,
      "##യും": 619,
      "##ത്തില്‍": 620,
      "##റ്റ്": 621,
      "##ന്ദ": 622,
      "##ണ്‍": 623,
      "##ായിരുന്നു": 624,
      "##മ്പ": 625,
      "##ിപ്പ": 626,
      "##ഡ്": 627,
      "##്യമ": 628,
      "##ുണ്ട്": 629,
      "##ത്തെ": 630,
      "അവ": 631,
      "ബി": 632,
      "കൂ": 633,
      "സി": 634,
      "##ന്ത": 635,
      "പറഞ്ഞ": 636,
      "##ട്ട്": 637,
      "##പി": 638,
      "##യം": 639,
      "##ാർ": 640,
      "പേ": 641,
      "തു": 642,
      "##ിലും": 643,
      "##ത്തിയ": 644,
      "##രിച്ച": 645,
      "##തിയ": 646,
      "##റി": 647,
      "##ിക്കുന്ന": 648,
      "##ഗ്ര": 649,
      "സ്ഥ": 650,
      "കള": 651,
      "##രം": 652,
      "##തമ": 653,
      "##റിയ": 654,
      "##ട്ടി": 655,
      "പ്രതി": 656,
      "##നി": 657,
      "##ാം": 658,
      "സമ": 659,
      "##തു": 660,
      "##ീക": 661,
      "##ാൻ": 662,
      "##ന്ധ": 663,
      "##വാ": 664,
      "##ഴി": 665,
      "##ിച്ചു": 666,
      "##െടു": 667,
      "അത": 668,
      "##്യം": 669,
      "##വും": 670,
      "വീ": 671,
      "##ന്റെ": 672,
      "##ത്തി": 673,
      "##ാല്‍": 674,
      "ചെയ്": 675,
      "##യാണ്": 676,
      "##സ്ഥാന": 677,
      "പരി": 678,
      "##ിട്ട": 679,
      "##ന്ദ്ര": 680,
      "##ന്ത്രി": 681,
      "##ിരുന്നു": 682,
      "##ശ്": 683,
      "വാ": 684,
      "##ര്‍ക്ക": 685,
      "കാര": 686,
      "##ാക": 687,
      "##ുകള": 688,
      "രാജ": 689,
      "ത്ത": 690,
      "##നം": 691,
      "തുട": 692,
      "നേത": 693,
      "ങ്": 694,
      "##യില്‍": 695,
      "തന്ന": 696,
      "##ങ്ങൾ": 697,
      "##ദ്ധ": 698,
      "##ിലേ": 699,
      "സു": 700,
      "##ഴ്": 701,
      "വെ": 702,
      "##മായ": 703,
      "ങ്ങ": 704,
      "പ്രവ": 705,
      "##തിന": 706,
      "##മായി": 707,
      "##ിനെ": 708,
      "യും": 709,
      "പറഞ്ഞു": 710,
      "വേ": 711,
      "വ്യ": 712,
      "##മാണ്": 713,
      "യു": 714,
      "പറയ": 715,
      "##ദേഹ": 716,
      "##യ്": 717,
      "പോല": 718,
      "കെ": 719,
      "##ടിയ": 720,
      "##ാത": 721,
      "##പ്പെട്ട": 722,
      "ചെയ്യ": 723,
      "##ത്തിൽ": 724,
      "നിന്ന": 725,
      "##ഷ്ട": 726,
      "അന": 727,
      "##ാഗ": 728,
      "##ോടെ": 729,
      "നിയ": 730,
      "##രണ": 731,
      "##ദ്ദേഹ": 732,
      "##ദ്യ": 733,
      "##ക്ര": 734,
      "ഇത": 735,
      "##ക്തമ": 736,
      "##പ്പ്": 737,
      "സംസ്ഥാന": 738,
      "##ല്‍ക": 739,
      "##ഫ്": 740,
      "##ത്യ": 741,
      "##ീസ്": 742,
      "തന്നെ": 743,
      "നില": 744,
      "നല്‍ക": 745,
      "##ുകള്‍": 746,
      "##ുന്നു": 747,
      "##ാമ": 748,
      "ജില്ല": 749,
      "##രള": 750,
      "ആര": 751,
      "##ര്‍ത്ത": 752,
      "##രഞ്ഞ": 753,
      "എം": 754,
      "##ത്തിന്": 755,
      "##മാന": 756,
      "അദ്ദേഹ": 757,
      "##പ്പോ": 758,
      "##ഡി": 759,
      "##ൂര്‍": 760,
      "##റ്റി": 761,
      "തീ": 762,
      "കോണ്‍": 763,
      "##രുടെ": 764,
      "##ജെ": 765,
      "20": 766,
      "##സം": 767,
      "##ുമായി": 768,
      "##ലി": 769,
      "##െങ്ക": 770,
      "പൊ": 771,
      "##ർക്ക": 772,
      "##ിന്ന്": 773,
      "##ോട്": 774,
      "##പ്ര": 775,
      "##രഞ്ഞെടു": 776,
      "##ിലേക്ക്": 777,
      "നിന്ന്": 778,
      "##ഴിഞ്ഞ": 779,
      "##ാള": 780,
      "##ോട്ട": 781,
      "##ന്ത്യ": 782,
      "##കള": 783,
      "##പ്": 784,
      "##ോധ": 785,
      "കോണ്‍ഗ്ര": 786,
      "ജന": 787,
      "##വ്": 788,
      "##യി": 789,
      "ശ്ര": 790,
      "##നെ": 791,
      "##ണമ": 792,
      "##ിയുടെ": 793,
      "##ണ്ണ": 794,
      "##ോദ": 795,
      "കേരള": 796,
      "##ത്സ": 797,
      "സാധ": 798,
      "ങ്ങള": 799,
      "ഉണ്ട": 800,
      "##ിലാണ്": 801,
      "##ഞ്ച": 802,
      "##ുപ": 803,
      "രൂ": 804,
      "ഇന്ത്യ": 805,
      "##ധി": 806,
      "##ീയ": 807,
      "##ികള": 808,
      "ബിജെ": 809,
      "ലഭ": 810,
      "ആവ": 811,
      "ജോ": 812,
      "കഴിഞ്ഞ": 813,
      "സെ": 814,
      "ിട്ട": 815,
      "പുറ": 816,
      "##തിന്": 817,
      "##ത്തിന്റെ": 818,
      "കാ": 819,
      "##മി": 820,
      "അറിയ": 821,
      "##ജി": 822,
      "കുറ": 823,
      "##െന്നാണ്": 824,
      "കേന്ദ്ര": 825,
      "പ്പ": 826,
      "ന്": 827,
      "##യുടെ": 828,
      "##ണി": 829,
      "##സമ": 830,
      "മുഖ": 831,
      "##ന്ത്ര": 832,
      "മൂ": 833,
      "മേ": 834,
      "##ജ്": 835,
      "##ിനി": 836,
      "അതേ": 837,
      "നിയമ": 838,
      "തെ": 839,
      "##നാ": 840,
      "##ിച്ചത്": 841,
      "##രും": 842,
      "രൂപ": 843,
      "മാത്ര": 844,
      "വര്‍": 845,
      "##ത്ഥ": 846,
      "സീ": 847,
      "നിര": 848,
      "അധ": 849,
      "##ധാന": 850,
      "ഡി": 851,
      "##ഷ്": 852,
      "ആവശ": 853,
      "ബാ": 854,
      "ദിവ": 855,
      "##മു": 856,
      "പിന്ന": 857,
      "##ാട": 858,
      "##കു": 859,
      "തിരഞ്ഞെടു": 860,
      "##ാരി": 861,
      "##ാൽ": 862,
      "സംഘ": 863,
      "##ലിയ": 864,
      "കണ്ട": 865,
      "##പ്പെടുത്ത": 866,
      "ഇട": 867,
      "##ക്കുന്ന": 868,
      "##്യാപ": 869,
      "എല്ല": 870,
      "##സ്റ്റ": 871,
      "##തിരെ": 872,
      "##വന": 873,
      "##ുകയാണ്": 874,
      "വിജ": 875,
      "##ർത്ത": 876,
      "##ഭവ": 877,
      "വന്ന": 878,
      "##സമയം": 879,
      "##വിഡ്": 880,
      "അദ്ദേഹം": 881,
      "##യിൽ": 882,
      "##ാത്ത": 883,
      "രോഗ": 884,
      "ആശ": 885,
      "##േണ്ട": 886,
      "##00": 887,
      "മുന്ന": 888,
      "വ്യക്തമ": 889,
      "അതേസമയം": 890,
      "സ്വദേശ": 891,
      "##ീക്ഷ": 892,
      "##ാക്കി": 893,
      "എന്നാല്‍": 894,
      "ലോ": 895,
      "വൈ": 896,
      "കേസ": 897,
      "പെ": 898,
      "##സഭ": 899,
      "സര്‍ക്ക": 900,
      "##ീസ": 901,
      "##ത്വ": 902,
      "##ളി": 903,
      "##ിപ്പോ": 904,
      "യാണ്": 905,
      "##ക്കും": 906,
      "##ുകയും": 907,
      "##ിട്ടുണ്ട്": 908,
      "ഉപ": 909,
      "##ുകൾ": 910,
      "##ികള്‍": 911,
      "##ാക്കിയ": 912,
      "നിര്‍": 913,
      "##്യൂ": 914,
      "ശേഷ": 915,
      "രാജ്യ": 916,
      "##ന്റ": 917,
      "അഭ": 918,
      "##മാ": 919,
      "എന്ന്": 920,
      "സ്ഥാന": 921,
      "ലക്ഷ": 922,
      "ഇവ": 923,
      "മുഖ്യമ": 924,
      "##കള്‍": 925,
      "റിപ്പോ": 926,
      "##ുമ്പ": 927,
      "ഇത്": 928,
      "##ുണ്ട": 929,
      "നീ": 930,
      "വലിയ": 931,
      "##ോപ": 932,
      "നടത്ത": 933,
      "ബന്ധ": 934,
      "##കാര": 935,
      "കാണ": 936,
      "##ഷ്ട്ര": 937,
      "പാര്‍": 938,
      "##ന്റ്": 939,
      "##ഗ്": 940,
      "സഹ": 941,
      "എന്നിവ": 942,
      "##ര്യ": 943,
      "##ിച്ച്": 944,
      "##ിരിക്ക": 945,
      "##ാതെ": 946,
      "##മേ": 947,
      "##രുമാന": 948,
      "ത്തി": 949,
      "##ൊരു": 950,
      "മന്ത്രി": 951,
      "പരാ": 952,
      "##ീകരിച്ച": 953,
      "##പു": 954,
      "ക്ക്": 955,
      "##ോള": 956,
      "നൽ": 957,
      "##പ്പെട": 958,
      "നൽക": 959,
      "##ങ്ങിയ": 960,
      "മെ": 961,
      "ഏറ്റ": 962,
      "ിരിക്ക": 963,
      "##ിയില്‍": 964,
      "എസ്": 965,
      "##ക്‌": 966,
      "ചെയ്ത": 967,
      "തിരു": 968,
      "യുടെ": 969,
      "പരിശ": 970,
      "ബിജെപി": 971,
      "##ൂർ": 972,
      "ജീ": 973,
      "##ിലുള്ള": 974,
      "വില": 975,
      "##തല്‍": 976,
      "##ഴ്ച": 977,
      "ഇപ്പോ": 978,
      "വർ": 979,
      "##ഷ്യ": 980,
      "നിന്നും": 981,
      "കൊണ്ട": 982,
      "##ബ്": 983,
      "ില്ല": 984,
      "സംഭവ": 985,
      "മത്സ": 986,
      "##യിലെ": 987,
      "##ിര": 988,
      "വര": 989,
      "കോണ്‍ഗ്രസ്": 990,
      "##വേഷ": 991,
      "##ാറ": 992,
      "##ടക്ക": 993,
      "മോ": 994,
      "##െയാണ്": 995,
      "നടത്തിയ": 996,
      "കൂടു": 997,
      "##ോട": 998,
      "കാല": 999,
      "##്യത": 1000,
      "##പക്ഷ": 1001,
      "അപ": 1002,
      "##ഡിയ": 1003,
      "അതി": 1004,
      "##ക്കെ": 1005,
      "ചി": 1006,
      "യ്": 1007,
      "ചേ": 1008,
      "##സ്റ്റ്": 1009,
      "പ്രവര്‍ത്ത": 1010,
      "##ാട്": 1011,
      "##ക്ട": 1012,
      "##സ്‌": 1013,
      "##ുകയ": 1014,
      "##േശ": 1015,
      "ഉയ": 1016,
      "സൂ": 1017,
      "കാര്യ": 1018,
      "##രണം": 1019,
      "##ലം": 1020,
      "അന്": 1021,
      "കോട": 1022,
      "മന": 1023,
      "യാ": 1024,
      "##ൂടെ": 1025,
      "##ാപ": 1026,
      "ഗ്ര": 1027,
      "സുര": 1028,
      "വരെ": 1029,
      "പ്രധാന": 1030,
      "##പ്പു": 1031,
      "##ിക്കും": 1032,
      "##ഡിഎ": 1033,
      "ഭാഗ": 1034,
      "##ിയെ": 1035,
      "അത്": 1036,
      "പര": 1037,
      "തീരുമാന": 1038,
      "കഴ": 1039,
      "പരിശോധ": 1040,
      "പങ്ക": 1041,
      "ചെ": 1042,
      "ആവശ്യ": 1043,
      "##ക്കാര": 1044,
      "വിജയ": 1045,
      "നേതാക്ക": 1046,
      "##ര്‍ന്ന": 1047,
      "##ങ്ങളുടെ": 1048,
      "##െടുത്ത": 1049,
      "##ണ്ഡ": 1050,
      "##ാനുള്ള": 1051,
      "തോ": 1052,
      "##ന്നും": 1053,
      "ഇത്ത": 1054,
      "##വിടെ": 1055,
      "##ങ്ങളില്‍": 1056,
      "വേണ്ട": 1057,
      "##ാവ്": 1058,
      "##ംഗ്": 1059,
      "സർക്ക": 1060,
      "പേര്‍": 1061,
      "നേര": 1062,
      "കൈ": 1063,
      "കോൺ": 1064,
      "ട്ര": 1065,
      "##ത്തിലെ": 1066,
      "മുഖ്യമന്ത്രി": 1067,
      "##ക്രമ": 1068,
      "##െങ്കിലും": 1069,
      "രണ്ട്": 1070,
      "##ദി": 1071,
      "നടപ": 1072,
      "##ിക്കുന്നത്": 1073,
      "),": 1074,
      "##ഷേ": 1075,
      "##ിലൂടെ": 1076,
      "##ത്തു": 1077,
      "രണ്ട": 1078,
      "##ക്കി": 1079,
      "മല": 1080,
      "പല": 1081,
      "##ഹി": 1082,
      "കട": 1083,
      "രാഷ്ട്ര": 1084,
      "ഇന്ന്": 1085,
      "നേതൃ": 1086,
      "പുതിയ": 1087,
      "അന്വേഷ": 1088,
      "യോഗ": 1089,
      "ചോദ": 1090,
      "..": 1091,
      "##ര്‍ച്ച": 1092,
      "ക്ര": 1093,
      "പേര": 1094,
      "##ോള്‍": 1095,
      "പോക": 1096,
      "നാ": 1097,
      "തൊ": 1098,
      "പാല": 1099,
      "യെ": 1100,
      "##ുംബ": 1101,
      "ജെ": 1102,
      "##യ്ക്ക്": 1103,
      "ശേഷം": 1104,
      "കി": 1105,
      "##ങ്ങളും": 1106,
      "സ്‌": 1107,
      "ശ്രമ": 1108,
      "##ാനം": 1109,
      "##ോണ": 1110,
      "എന്നാണ്": 1111,
      "##ന്തപു": 1112,
      "മറ്റ": 1113,
      "ചില": 1114,
      "നേതൃത്വ": 1115,
      "ആശുപ": 1116,
      "##ിയും": 1117,
      "പറയുന്നു": 1118,
      "പോലീസ്": 1119,
      "കോൺഗ്ര": 1120,
      "വിവ": 1121,
      "നല്‍കിയ": 1122,
      "മാറ്റ": 1123,
      "തിന": 1124,
      "തിരുവന": 1125,
      "##ബന്ധ": 1126,
      "അധിക": 1127,
      "തിരുവനന്തപു": 1128,
      "##ക്കു": 1129,
      "അവസ": 1130,
      "##ത്രി": 1131,
      "നടന്ന": 1132,
      "പാർ": 1133,
      "##ാസ": 1134,
      "##വണ": 1135,
      "നിർ": 1136,
      "##ൈന": 1137,
      "സ്ഥിര": 1138,
      "സൗ": 1139,
      "ടി": 1140,
      "എല്ലാ": 1141,
      "ആണ്": 1142,
      "##യോഗ": 1143,
      "കണ്ണ": 1144,
      "##ാണെന്ന്": 1145,
      "##േഖ": 1146,
      "##ോട്ട്": 1147,
      "##പ്പം": 1148,
      "വയ": 1149,
      "സ്റ്റ": 1150,
      "##സാ": 1151,
      "ഉറ": 1152,
      "സാഹ": 1153,
      "##േയും": 1154,
      "ത്തിന": 1155,
      "ഏറ്റവും": 1156,
      "##കൾ": 1157,
      "##ാനും": 1158,
      "പ്രഖ": 1159,
      "സീറ്റ": 1160,
      "അംഗ": 1161,
      "##ബി": 1162,
      "തിരഞ്ഞെടുപ്പ": 1163,
      "ക്കും": 1164,
      "##ഭാഗ": 1165,
      "കമ്മ": 1166,
      "##ീപ": 1167,
      "വള": 1168,
      "ഗു": 1169,
      "മണ്ഡ": 1170,
      "##യെ": 1171,
      "##ര്‍ശ": 1172,
      "##േറ്റ": 1173,
      "അഭി": 1174,
      "##ഹു": 1175,
      "##ികൾ": 1176,
      "തിരിച്ച": 1177,
      "മറ": 1178,
      "ചെയ്തു": 1179,
      "കോണ്‍ഗ്രസ": 1180,
      "ആരോപ": 1181,
      "##ഖല": 1182,
      "വോട്ട": 1183,
      "##ാരണ": 1184,
      "ിക്ക": 1185,
      "മണ": 1186,
      "##ിക്കാന്‍": 1187,
      "##ാസ്": 1188,
      "സ്വദേശി": 1189,
      "സാഹച": 1190,
      "പൊല": 1191,
      "##ളം": 1192,
      "##ുമെന്ന്": 1193,
      "##ദ്യോഗ": 1194,
      "തൃ": 1195,
      "വകു": 1196,
      "##ക്ഷേ": 1197,
      "രംഗ": 1198,
      "പ്രതിക": 1199,
      "അറ": 1200,
      "##വര്‍": 1201,
      "ദു": 1202,
      "റിപ്പോര്‍": 1203,
      "ദിവസ": 1204,
      "സര്‍ക്കാര്‍": 1205,
      "ഉത്ത": 1206,
      "ിരുന്നു": 1207,
      "##കര": 1208,
      "##ീഷ": 1209,
      "##െയും": 1210,
      "മേഖല": 1211,
      "##വേ": 1212,
      "##ാര്‍ത്ഥ": 1213,
      "തല": 1214,
      "കുട": 1215,
      "##ോഗ്യ": 1216,
      "##ാശ": 1217,
      "##ങ്ങനെ": 1218,
      "ഡോ": 1219,
      "##െതിരെ": 1220,
      "എത്ത": 1221,
      "19": 1222,
      "കൊവിഡ്": 1223,
      "ശതമ": 1224,
      "ദിവസം": 1225,
      "##ുകയായിരുന്നു": 1226,
      "പ്രഖ്യാപ": 1227,
      "##ക്തി": 1228,
      "പദ്ധ": 1229,
      "സിപി": 1230,
      "##മെ": 1231,
      "കണ്ടെ": 1232,
      "ആയ": 1233,
      "##സ്ത": 1234,
      "ചിത്ര": 1235,
      "##എം": 1236,
      "##റു": 1237,
      "രാഷ്ട്രീയ": 1238,
      "##ടന": 1239,
      "പിട": 1240,
      "##ഷം": 1241,
      "##തൽ": 1242,
      "നോ": 1243,
      "എന്ത": 1244,
      "കൂട്ട": 1245,
      "വിവാ": 1246,
      "എന്നും": 1247,
      "വീട്ട": 1248,
      "സാധ്യത": 1249,
      "നേരത്തെ": 1250,
      "201": 1251,
      "യില്‍": 1252,
      "കോവിഡ്": 1253,
      "തിരുവനന്തപുരം": 1254,
      "##ദ്ദേശ": 1255,
      "##കെ": 1256,
      "നിലവ": 1257,
      "##ങ്ങളെ": 1258,
      "##രുന്നത്": 1259,
      "##സ്സ": 1260,
      "##മുള്ള": 1261,
      "അനു": 1262,
      "##േക്ഷ": 1263,
      "നേരി": 1264,
      "രാഹു": 1265,
      "ജയ": 1266,
      "##തം": 1267,
      "##ങ്ങി": 1268,
      "ജില്ലാ": 1269,
      "എന്നാൽ": 1270,
      "ബോ": 1271,
      "പ്രവർത്ത": 1272,
      "സമ്പ": 1273,
      "കുമ": 1274,
      "റോ": 1275,
      "##ാണെന്നും": 1276,
      "പിന്": 1277,
      "##ളള": 1278,
      "ശക്തമ": 1279,
      "##ാരം": 1280,
      "വിഭാഗ": 1281,
      "വിഷ": 1282,
      "##എസ്": 1283,
      "10": 1284,
      "സമ്മ": 1285,
      "##ീകരിക്ക": 1286,
      "പ്രസി": 1287,
      "ുണ്ട": 1288,
      "##ഞ്ച്": 1289,
      "##ന്നു": 1290,
      "##േന്ദ്ര": 1291,
      "##യാള": 1292,
      "പ്രച": 1293,
      "കുടുംബ": 1294,
      "ഓഫ": 1295,
      "ചെയ്തി": 1296,
      "##ൂര": 1297,
      "വിദ": 1298,
      "എത്തിയ": 1299,
      "യുവ": 1300,
      "##തല": 1301,
      "##താണ്": 1302,
      "##ബു": 1303,
      "##ുമായ": 1304,
      "ല്‍": 1305,
      "##േരി": 1306,
      "നാല": 1307,
      "പ്രശ്": 1308,
      "##ുകൊ": 1309,
      "##േഷ്": 1310,
      "ഒഴ": 1311,
      "##േക്ക്": 1312,
      "ആരോഗ്യ": 1313,
      "ബിജെപ": 1314,
      "##ടുക്ക": 1315,
      "മീ": 1316,
      "മുന്‍": 1317,
      "തയ": 1318,
      "യാത്ര": 1319,
      "കൂടി": 1320,
      "##മന്ത്രി": 1321,
      "സ്ഥിരീകരിച്ച": 1322,
      "ജി": 1323,
      "മൊ": 1324,
      "ഹൈ": 1325,
      "##ിക്കുക": 1326,
      "മണ്ഡല": 1327,
      "##െങ്കില്‍": 1328,
      "താ": 1329,
      "വിമ": 1330,
      "##രിയ": 1331,
      "പഞ്ച": 1332,
      "##ിട": 1333,
      "ആള": 1334,
      "##ലെ": 1335,
      "പ്രത്യ": 1336,
      "##സഭാ": 1337,
      "ഗാ": 1338,
      "ഇല്ല": 1339,
      "##ായിരുന്ന": 1340,
      "എന്‍": 1341,
      "##െയ്": 1342,
      "##രിച്ച്": 1343,
      "ഭൂ": 1344,
      "കഴിയ": 1345,
      "മി": 1346,
      "ആദ": 1347,
      "പാ": 1348,
      "##രിക്കും": 1349,
      "##വിധ": 1350,
      "##ീം": 1351,
      "കൃ": 1352,
      "##ക്ത": 1353,
      "##ാഴ്ച": 1354,
      "സ്ഥാപ": 1355,
      "പിന്തു": 1356,
      "##ൊപ്പം": 1357,
      "മൂന്ന്": 1358,
      "കൊണ്ട്": 1359,
      "ഇറ": 1360,
      "##ല്ലാം": 1361,
      "സെക്ര": 1362,
      "ഉള്ള": 1363,
      "കൂടുതല്‍": 1364,
      "സെക്രട്ട": 1365,
      "ഉപയോഗ": 1366,
      "##ുമാണ്": 1367,
      "##ട്ര": 1368,
      "##ിച്ചിരുന്നു": 1369,
      "##ൃത": 1370,
      "അയ": 1371,
      "വിശ": 1372,
      "##ഷേധ": 1373,
      "പ്രസിഡ": 1374,
      "ഉദ്യോഗ": 1375,
      "കരു": 1376,
      "അടുത്ത": 1377,
      "##കര്‍": 1378,
      "##നും": 1379,
      "തുടങ്ങിയ": 1380,
      "##ള്ളി": 1381,
      "##ംബ": 1382,
      "ഭരണ": 1383,
      "തൊഴ": 1384,
      "ഒന്ന": 1385,
      "##ർച്ച": 1386,
      "കണ": 1387,
      "അടി": 1388,
      "##വാസ": 1389,
      "##തീക്ഷ": 1390,
      "രോഗം": 1391,
      "##ധ്യമ": 1392,
      "യൂ": 1393,
      "സിനി": 1394,
      "നെ": 1395,
      "തയ്യാ": 1396,
      "സര്‍": 1397,
      "##താ": 1398,
      "സോ": 1399,
      "##കം": 1400,
      "ഗാന്ധ": 1401,
      "ആര്‍": 1402,
      "താണ്": 1403,
      "##ിരിക്കുന്നത്": 1404,
      "പിന്നാല": 1405,
      "ചെയ്യുന്ന": 1406,
      "ടെ": 1407,
      "സാഹചര്യ": 1408,
      "##ങ്ങളിൽ": 1409,
      "തിരഞ്ഞെടുപ്പ്": 1410,
      "പോലും": 1411,
      "##ൂല": 1412,
      "##ര്‍ന്ന്": 1413,
      "##ുമെന്നും": 1414,
      "അറിയിച്ചു": 1415,
      "തട": 1416,
      "ആല": 1417,
      "##ോൾ": 1418,
      "##രംഭ": 1419,
      "വ്യക്തമാക്കി": 1420,
      "മോദ": 1421,
      "ബാധ": 1422,
      "പൂ": 1423,
      "മഹ": 1424,
      "ഉള്‍": 1425,
      "കൊല്ല": 1426,
      "പരിശോധന": 1427,
      "##ചന": 1428,
      "പ്രക": 1429,
      "വും": 1430,
      "##ച്ചു": 1431,
      "##്യക്ഷ": 1432,
      "ചിക": 1433,
      "കോടി": 1434,
      "##ച്ചി": 1435,
      "##ുള്ളത്": 1436,
      "##ത്തിലാണ്": 1437,
      "202": 1438,
      "എല്‍": 1439,
      "ആയി": 1440,
      "സർക്കാർ": 1441,
      "പറയുന്നത്": 1442,
      "##ൂഹ": 1443,
      "ആദ്യ": 1444,
      "കയ": 1445,
      "ഇവിടെ": 1446,
      "ച്": 1447,
      "##പ്പെടുത്തിയ": 1448,
      "കോഴ": 1449,
      "അട": 1450,
      "പിന്തുണ": 1451,
      "സമയ": 1452,
      "##നിക്ക്": 1453,
      "നീക്ക": 1454,
      "കോടതി": 1455,
      "##‌ന": 1456,
      "##ത്തിന": 1457,
      "ഫോ": 1458,
      "##ർശ": 1459,
      "കോള": 1460,
      "##ക്ഷി": 1461,
      "##ട്ടു": 1462,
      "12": 1463,
      "##ാള്‍": 1464,
      "പുറത്ത": 1465,
      "റെ": 1466,
      "പ്രതിപക്ഷ": 1467,
      "ുവ": 1468,
      "കൂട": 1469,
      "ട്ട": 1470,
      "##കൂ": 1471,
      "മാധ്യമ": 1472,
      "##ശ്ച": 1473,
      "വരു": 1474,
      "##ഴ്‌": 1475,
      "പാര്‍ട്ടി": 1476,
      "##ട്ടിയ": 1477,
      "സ്ത്ര": 1478,
      "##ർന്ന": 1479,
      "റ്": 1480,
      "##റിച്ച്": 1481,
      "പൊലീസ്": 1482,
      "ചികി": 1483,
      "##തിര": 1484,
      "പോയ": 1485,
      "സംബന്ധ": 1486,
      "11": 1487,
      "തയ്യാറ": 1488,
      "15": 1489,
      "##ുകളും": 1490,
      "സാമ്പ": 1491,
      "##യുള്ള": 1492,
      "റി": 1493,
      "##ാനാണ്": 1494,
      "മുണ്ട": 1495,
      "യുഡിഎ": 1496,
      "ചികിത്സ": 1497,
      "കോൺഗ്രസ്": 1498,
      "വിള": 1499,
      "പരാതി": 1500,
      "##ശ്വ": 1501,
      "നമ്മ": 1502,
      "ചര്‍ച്ച": 1503,
      "റിപ്പോർ": 1504,
      "മുതല്‍": 1505,
      "ഭാര": 1506,
      "യായിരുന്നു": 1507,
      "##പെ": 1508,
      "##ദ്ദ": 1509,
      "പ്രത്യേ": 1510,
      "കല": 1511,
      "ദേശ": 1512,
      "പട്ട": 1513,
      "##ൊക്കെ": 1514,
      "##പ്പി": 1515,
      "കുറ്റ": 1516,
      "ആക്രമ": 1517,
      "വാര്‍": 1518,
      "##ണമെന്ന്": 1519,
      "നിലപ": 1520,
      "...": 1521,
      "##ാകും": 1522,
      "ഇപ്പോള്‍": 1523,
      "പ്രതീക്ഷ": 1524,
      "അവര്‍": 1525,
      "കോഴിക്ക": 1526,
      "##സിന": 1527,
      "##ഞ്ഞ്": 1528,
      "തുറ": 1529,
      "പ്രദേശ": 1530,
      "വിമാന": 1531,
      "ഇതുവ": 1532,
      "അവസാന": 1533,
      "ഇതി": 1534,
      "കുട്ട": 1535,
      "ാണ്": 1536,
      "അധ്യക്ഷ": 1537,
      "മാണ്": 1538,
      "##ാധ": 1539,
      "##ഷ്ണ": 1540,
      "കാരണം": 1541,
      "വ്യാപ": 1542,
      "ലീ": 1543,
      "##പ്പെടെ": 1544,
      "പദ്ധതി": 1545,
      "ആരംഭ": 1546,
      "വേണ്ടി": 1547,
      "മാന": 1548,
      "ഇതിന": 1549,
      "##ന്തര": 1550,
      "മറ്റ്": 1551,
      "തേ": 1552,
      "മണിക്ക": 1553,
      "പ്രതിഷേധ": 1554,
      "മുമ്പ": 1555,
      "##സ്പ": 1556,
      "##പ്പിച്ച": 1557,
      "##ോഷ": 1558,
      "വീണ്ട": 1559,
      "##േഷന്‍": 1560,
      "##ിക്കുന്നു": 1561,
      "ആശുപത്ര": 1562,
      "##ാണി": 1563,
      "രീ": 1564,
      "മാത്രം": 1565,
      "ഉദ്യോഗസ്ഥ": 1566,
      "ചൂ": 1567,
      "മുൻ": 1568,
      "ബു": 1569,
      "ജീവി": 1570,
      "നടക്ക": 1571,
      "##തിയില്‍": 1572,
      "##ുകളില്‍": 1573,
      "##ങ്ങള്‍ക്ക്": 1574,
      "വിദ്യാ": 1575,
      "നഗ": 1576,
      "##കാശ": 1577,
      "ക്കു": 1578,
      "##ന്യ": 1579,
      "ഇരു": 1580,
      "##ികളെ": 1581,
      "##ികളുടെ": 1582,
      "തന്റെ": 1583,
      "ലോക": 1584,
      "##ിയിൽ": 1585,
      "##ഗണ": 1586,
      "നൽകിയ": 1587,
      "യിൽ": 1588,
      "നേതാക്കള": 1589,
      "ഉത്തര": 1590,
      "##ണറ": 1591,
      "സിനിമ": 1592,
      "കര്‍": 1593,
      "മരണ": 1594,
      "എംഎ": 1595,
      "അടക്ക": 1596,
      "ഒരാ": 1597,
      "##ിക്കാ": 1598,
      "##ായത്": 1599,
      "##ഴും": 1600,
      "അതിന": 1601,
      "##രിക്കുന്ന": 1602,
      "ഒഴിവ": 1603,
      "ഇതോടെ": 1604,
      "##ൂറ": 1605,
      "ും": 1606,
      "##ിക്കാൻ": 1607,
      "ശതമാനം": 1608,
      "യോ": 1609,
      "വഴി": 1610,
      "കമ്പ": 1611,
      "ിട്ടുണ്ട്": 1612,
      "##നു": 1613,
      "റിപ്പോര്‍ട്ട്": 1614,
      "കോഴിക്കോട്": 1615,
      "ജോലി": 1616,
      "##ജീ": 1617,
      "അനുവ": 1618,
      "ഓഫീസ": 1619,
      "##തായി": 1620,
      "പ്രധാനമന്ത്രി": 1621,
      "കോട്ട": 1622,
      "ലെ": 1623,
      "രാശ": 1624,
      "##ാലി": 1625,
      "പിന്നീ": 1626,
      "ലഭിച്ച": 1627,
      "മായി": 1628,
      "സേ": 1629,
      "ന്യൂ": 1630,
      "വീണ്ടും": 1631,
      "സമീപ": 1632,
      "##യ്ക്ക": 1633,
      "പ്രത്യേക": 1634,
      "പൂര്‍": 1635,
      "##വധി": 1636,
      "ലക്ഷം": 1637,
      "ച്ച": 1638,
      "ഇതുവരെ": 1639,
      "##തോടെ": 1640,
      "നേതാവ്": 1641,
      "ഉന്ന": 1642,
      "##ാദ": 1643,
      "ഇക്കാര": 1644,
      "##ഡിയോ": 1645,
      "രേഖ": 1646,
      "##ഴു": 1647,
      "മരിച്ച": 1648,
      "നിന്നുള്ള": 1649,
      "അപേക്ഷ": 1650,
      "കള്‍": 1651,
      "ദേശീയ": 1652,
      "##നായ": 1653,
      "ദില്ല": 1654,
      "##ഷക": 1655,
      "വൈറ": 1656,
      "##ർക്ക്": 1657,
      "ക്ല": 1658,
      "ശ്രീ": 1659,
      "നിരീക്ഷ": 1660,
      "തിന്": 1661,
      "സെക്രട്ടറി": 1662,
      "##രോ": 1663,
      "##പ്പെട്ടു": 1664,
      "ലി": 1665,
      "ഇവര്‍": 1666,
      "##ിതി": 1667,
      "##ോളം": 1668,
      "കിട്ട": 1669,
      "ഇന്ന": 1670,
      "നിരവധി": 1671,
      "##ലും": 1672,
      "##ിപ്പ്": 1673,
      "വിവിധ": 1674,
      "ിരുന്ന": 1675,
      "നല്ല": 1676,
      "##ാനി": 1677,
      "വിവര": 1678,
      "സർ": 1679,
      "##ുമെന്ന": 1680,
      "വിഷയ": 1681,
      "ഉട": 1682,
      "ഇത്തവണ": 1683,
      "അല്ല": 1684,
      "നഷ്ട": 1685,
      "##കാരം": 1686,
      "യിലെ": 1687,
      "ായ": 1688,
      "##നിയ": 1689,
      "ശ്രദ്ധ": 1690,
      "ബ്ര": 1691,
      "##ട്ടം": 1692,
      "മെഡ": 1693,
      "30": 1694,
      "##ൻ്": 1695,
      "മിക": 1696,
      "യ്ക്ക്": 1697,
      "സംസ്ഥാനത്ത്": 1698,
      "ഉറപ്പ": 1699,
      "തര": 1700,
      "സംസാ": 1701,
      "നടപടി": 1702,
      "സഖ": 1703,
      "ക്യാ": 1704,
      "##പ്പെട്ട്": 1705,
      "വര്‍ഷ": 1706,
      "##മാര": 1707,
      "##പ്പെടുന്ന": 1708,
      "അനുവദ": 1709,
      "##ക്കിയ": 1710,
      "തും": 1711,
      "##നാട്": 1712,
      "##േജ": 1713,
      "ഉൾ": 1714,
      "24": 1715,
      "വളരെ": 1716,
      "ഞാന്‍": 1717,
      "##േക്ക": 1718,
      "ല്ല": 1719,
      "വരുന്ന": 1720,
      "മുസ്": 1721,
      "##വിട": 1722,
      "വെള്ള": 1723,
      "##്വ": 1724,
      "##ത്തിക": 1725,
      "പിന്നാലെ": 1726,
      "ഇനി": 1727,
      "##പര": 1728,
      "വകുപ്പ്": 1729,
      "ജില്ലയില്‍": 1730,
      "പിന്നീട്": 1731,
      "മാര": 1732,
      "14": 1733,
      "##ുമെന്നാണ്": 1734,
      "വാഹ": 1735,
      "ഗോ": 1736,
      "എന്നി": 1737,
      "##ദം": 1738,
      "##ത്തില": 1739,
      "മാത്രമാണ്": 1740,
      "##മുഖ": 1741,
      "ത്തിന്റെ": 1742,
      "പഠ": 1743,
      "പിണറ": 1744,
      "മെഡിക്ക": 1745,
      "##ണമെന്നും": 1746,
      "ഹൈക്ക": 1747,
      "പഞ്ചായ": 1748,
      "വരും": 1749,
      "##റും": 1750,
      "സ്വന്ത": 1751,
      "നില്‍": 1752,
      "തെള": 1753,
      "പ്രവേശ": 1754,
      "##ായം": 1755,
      "താര": 1756,
      "##ണമെന്ന": 1757,
      "ഇതിന്": 1758,
      "##ിയായ": 1759,
      "സര്‍ക്കാരി": 1760,
      "മാര്‍": 1761,
      "അന്വേഷണ": 1762,
      "##ഷണ": 1763,
      "മാസ": 1764,
      "മഴ": 1765,
      "##രോധ": 1766,
      "സ്ഥാപന": 1767,
      "പൊതു": 1768,
      "##ന്‍റെ": 1769,
      "മലയാള": 1770,
      "തുടര്‍ന്ന്": 1771,
      "##പ്പെടുത്തി": 1772,
      "##ത്തും": 1773,
      "കമ്മി": 1774,
      "ന്‍": 1775,
      "സൈ": 1776,
      "കേസ്": 1777,
      "മോദി": 1778,
      "##ദു": 1779,
      "13": 1780,
      "വിക": 1781,
      "##ുകൊണ്ട്": 1782,
      "തൊഴില": 1783,
      "കണക്ക": 1784,
      "##ായക": 1785,
      "ലൈ": 1786,
      "ആശുപത്രി": 1787,
      "വീട": 1788,
      "##ക്യ": 1789,
      "മായ": 1790,
      "##ധ്യ": 1791,
      "##മല്ല": 1792,
      "##ാക്കുന്ന": 1793,
      "ചൂണ്ട": 1794,
      "പിണറായി": 1795,
      "ിട്ടില്ല": 1796,
      "വിദേശ": 1797,
      "ണ്ട": 1798,
      "##ത്മ": 1799,
      "##്യമായ": 1800,
      "25": 1801,
      "അവരുടെ": 1802,
      "നേതാവ": 1803,
      "സാമ്പത്തിക": 1804,
      "വൈക": 1805,
      "കൂടിയ": 1806,
      "##ടുവ": 1807,
      "വിശദ": 1808,
      "##ാർത്ഥ": 1809,
      "സംഘടന": 1810,
      "എഫ്": 1811,
      "തക": 1812,
      "രാഹുല്‍": 1813,
      "മൂന്ന": 1814,
      "ചോദ്യം": 1815,
      "##ശ്യ": 1816,
      "##ത്തിലുള്ള": 1817,
      "ചെയ്തത്": 1818,
      "##ിയിലെ": 1819,
      "18": 1820,
      "മന്ത്ര": 1821,
      "##ാലും": 1822,
      "##നിടെ": 1823,
      "സ്ഥല": 1824,
      "എല്ലാവ": 1825,
      "##ധിക": 1826,
      "വീഡിയോ": 1827,
      "സിപിഎം": 1828,
      "പാർട്ടി": 1829,
      "ആർ": 1830,
      "##കട": 1831,
      "##ദേശം": 1832,
      "നാട്ട": 1833,
      "അടിസ്ഥാന": 1834,
      "##ാണ്ട": 1835,
      "##െങ്കിൽ": 1836,
      "##ുമ്പോള്‍": 1837,
      "##വർ": 1838,
      "##േറ്റ്": 1839,
      "നയ": 1840,
      "കൊറ": 1841,
      "പരിഹ": 1842,
      "െന്ന": 1843,
      "അമേ": 1844,
      "പറഞ്ഞത്": 1845,
      "ചോ": 1846,
      "സന്ദ": 1847,
      "പാര്‍ട്ട": 1848,
      "ശക്തമായ": 1849,
      "പോലീസ": 1850,
      "രക്ഷ": 1851,
      "##ന്നി": 1852,
      "##ക്ടര്‍": 1853,
      "നഗര": 1854,
      "##െല്ലാം": 1855,
      "##ീന": 1856,
      "##പ്പോള്‍": 1857,
      "മികച്ച": 1858,
      "കൊറോണ": 1859,
      "##േസ്": 1860,
      "##ാടക": 1861,
      "##െടുക്ക": 1862,
      "നാല്": 1863,
      "ര്‍": 1864,
      "##ങ്കിലും": 1865,
      "##റം": 1866,
      "##ര്‍ക്കും": 1867,
      "##ജു": 1868,
      "പരിപ": 1869,
      "ത്തിന്": 1870,
      "ചുമ": 1871,
      "അഞ്ച്": 1872,
      "##കാര്യ": 1873,
      "ുണ്ട്": 1874,
      "മുതൽ": 1875,
      "ഗാന്ധി": 1876,
      "##ണ്ണം": 1877,
      "പരിഗണ": 1878,
      "##ഷന്‍": 1879,
      "ദേ": 1880,
      "##തെന്ന്": 1881,
      "##തര": 1882,
      "ജീവന": 1883,
      "##യോ": 1884,
      "##പ്പുഴ": 1885,
      "മറുപ": 1886,
      "നടപ്പ": 1887,
      "##ണാക": 1888,
      "ജില്ലകള": 1889,
      "എന്റെ": 1890,
      "പ്ല": 1891,
      "##ഞ്ഞു": 1892,
      "##ഗ്രഹ": 1893,
      "പണം": 1894,
      "ചൈന": 1895,
      "##ങ്ങന": 1896,
      "കൊല": 1897,
      "പക": 1898,
      "തിര": 1899,
      "ചെന്ന": 1900,
      "വിവരം": 1901,
      "##ുമതി": 1902,
      "##തീ": 1903,
      "വിവാഹ": 1904,
      "എൻ": 1905,
      "പക്ഷേ": 1906,
      "കര": 1907,
      "കൾ": 1908,
      "ബാല": 1909,
      "തവണ": 1910,
      "ഞാൻ": 1911,
      "##ിച്ചിട്ടുണ്ട്": 1912,
      "പുറത്ത്": 1913,
      "അമ്മ": 1914,
      "##ഷി": 1915,
      "തന്നെയാണ്": 1916,
      "തെരഞ്ഞെടു": 1917,
      "വ്യാ": 1918,
      "അമേരിക്ക": 1919,
      "##രുത്ത": 1920,
      "നേടിയ": 1921,
      "രാവ": 1922,
      "സമയം": 1923,
      "##രിപ്പ": 1924,
      "##ാരാ": 1925,
      "തമ്മ": 1926,
      "പത്ത": 1927,
      "ജാ": 1928,
      "ഷാ": 1929,
      "ിരിക്കുകയാണ്": 1930,
      "സ്വദേശിനി": 1931,
      "##ശ്വാസ": 1932,
      "##രിൽ": 1933,
      "##വുമായി": 1934,
      "##ക്കാട്": 1935,
      "ഗ്രൂ": 1936,
      "##ക്ഷേപ": 1937,
      "##ർന്ന്": 1938,
      "വാക്‌": 1939,
      "##ുളള": 1940,
      "ായിരുന്നു": 1941,
      "ശിവ": 1942,
      "തീരുമാനം": 1943,
      "##തെന്നും": 1944,
      "##മാര്‍": 1945,
      "പ്രസിഡന്റ്": 1946,
      "##ർത്ഥ": 1947,
      "ത്തെ": 1948,
      "##ീപ്": 1949,
      "പട്ടിക": 1950,
      "##റില്‍": 1951,
      "##ൻ്റെ": 1952,
      "16": 1953,
      "ഓരോ": 1954,
      "ിട്ടുണ്ട": 1955,
      "##ീവ്": 1956,
      "നേതാക്കള്‍": 1957,
      "യില": 1958,
      "##്‌": 1959,
      "##ശ്ശ": 1960,
      "സ്ഥാനാര്‍ത്ഥ": 1961,
      "സുപ്ര": 1962,
      "നടപട": 1963,
      "##തിയെ": 1964,
      "എറ": 1965,
      "അപകട": 1966,
      "##രിക": 1967,
      "കൂടുതൽ": 1968,
      "##സര്‍": 1969,
      "നടക്കുന്ന": 1970,
      "##തിയുടെ": 1971,
      "പ്രാ": 1972,
      "ദില": 1973,
      "സീറ്റ്": 1974,
      "##റോ": 1975,
      "##വ്വ": 1976,
      "##ണാകു": 1977,
      "എറണാകു": 1978,
      "##ടങ്ങ": 1979,
      "നിയന്ത്ര": 1980,
      "##ഹമ്മ": 1981,
      "17": 1982,
      "തായി": 1983,
      "കണ്ണൂര്‍": 1984,
      "ബെ": 1985,
      "വിധ": 1986,
      "മീഡിയ": 1987,
      "##ിരുന്ന": 1988,
      "തൃശ": 1989,
      "കമ": 1990,
      "അഭിപ്ര": 1991,
      "##ന്‍സ്": 1992,
      "നടത്തുന്ന": 1993,
      "പൂർ": 1994,
      "##ഭാ": 1995,
      "##ങ്ങളാണ്": 1996,
      "ഇടപെ": 1997,
      "വിദ്യ": 1998,
      "ക്കാന": 1999,
      "പേര്‍ക്ക്": 2000,
      "സോഷ്യ": 2001,
      "കീ": 2002,
      "##യായ": 2003,
      "##േണ്ടി": 2004,
      "സുരക്ഷ": 2005,
      "സ്വര്‍": 2006,
      "##ിനെതിരെ": 2007,
      "വ്യക്തി": 2008,
      "ജീവിത": 2009,
      "വോട്ട്": 2010,
      "##ത്തോടെ": 2011,
      "##ിട്ടില്ല": 2012,
      "നും": 2013,
      "സുധ": 2014,
      "##മെന്റ്": 2015,
      "കളും": 2016,
      "പ്പെ": 2017,
      "##ങ്ങൾക്ക്": 2018,
      "പ്രിയ": 2019,
      "##തും": 2020,
      "റിപ്പോർട്ട്": 2021,
      "നേരിട": 2022,
      "##ുകളുടെ": 2023,
      "പോലെ": 2024,
      "മുഖ്യമന്ത്ര": 2025,
      "വകുപ്പ": 2026,
      "##രന്‍": 2027,
      "##െയുള്ള": 2028,
      "##ദ്ര": 2029,
      "താമ": 2030,
      "ജില്ലയിലെ": 2031,
      "സ്പ": 2032,
      "##ാടി": 2033,
      "നിയമസഭാ": 2034,
      "പരീക്ഷ": 2035,
      "അവകാശ": 2036,
      "തോടെ": 2037,
      "എടുത്ത": 2038,
      "ജനറ": 2039,
      "50": 2040,
      "ബന്ധപ്പെട്ട": 2041,
      "അന്വേഷണം": 2042,
      "സ്വീകരിക്ക": 2043,
      "##ിരിക്കുകയാണ്": 2044,
      "##നില്‍": 2045,
      "ത്തില്‍": 2046,
      "എംഎല്‍": 2047,
      "നര": 2048,
      "വിലയി": 2049,
      "ഏക": 2050,
      "ാണ": 2051,
      "ജൂ": 2052,
      "മണിക്കൂറ": 2053,
      "ിരിക്കുന്നത്": 2054,
      "തിരഞ്ഞെടുപ്പില്‍": 2055,
      "ആയിരുന്നു": 2056,
      "യുണ്ട": 2057,
      "പറയുന്ന": 2058,
      "പ്രശ്‌ന": 2059,
      "##ൊന്നും": 2060,
      "കണ്ടെത്തിയ": 2061,
      "സൂചന": 2062,
      "##ില്ലെന്ന്": 2063,
      "യുഎ": 2064,
      "ന്റെ": 2065,
      "ില": 2066,
      "ഹാ": 2067,
      "കർ": 2068,
      "രാവിലെ": 2069,
      "##്യമായി": 2070,
      "ചർച്ച": 2071,
      "നേതൃത്വം": 2072,
      "##ത്തേക്ക്": 2073,
      "##രിക്കുന്നത്": 2074,
      "എണ്ണം": 2075,
      "##ട്ടുണ്ട്": 2076,
      "##ിപ്പിച്ച": 2077,
      "പ്രതിരോധ": 2078,
      "മറ്റൊരു": 2079,
      "##ുതി": 2080,
      "##മായും": 2081,
      "##പോ": 2082,
      "##രിച്ചു": 2083,
      "എംഎല്‍എ": 2084,
      "എന്നീ": 2085,
      "വാഹന": 2086,
      "ത്തില": 2087,
      "##പ്പറ": 2088,
      "മത": 2089,
      "നടത്തി": 2090,
      "##്യമാണ്": 2091,
      "വാക്": 2092,
      "ഒറ്റ": 2093,
      "##ഖ്": 2094,
      "തെന്നും": 2095,
      "മുഴ": 2096,
      "കണ്ടെത്ത": 2097,
      "ഹൈക്കോട": 2098,
      "അവിടെ": 2099,
      "ദില്ലി": 2100,
      "ഘട്ട": 2101,
      "##ാധി": 2102,
      "##ാവും": 2103,
      "വഴ": 2104,
      "വാർ": 2105,
      "ഇങ്ങനെ": 2106,
      "##ാൾ": 2107,
      "യാണ": 2108,
      "##യ്യ": 2109,
      "പുര": 2110,
      "പശ്ച": 2111,
      "##ഹൃ": 2112,
      "ബിഗ്": 2113,
      "ഫേസ്": 2114,
      "പ്രവര്‍ത്തന": 2115,
      "##ജന്‍": 2116,
      "നിരീക്ഷണ": 2117,
      "##തിക": 2118,
      "##സന്ധ": 2119,
      "##ുകളാണ്": 2120,
      "##സിസി": 2121,
      "വിമര്‍ശ": 2122,
      "22": 2123,
      "അല": 2124,
      "എനിക്ക്": 2125,
      "##സിന്റെ": 2126,
      "വർഷ": 2127,
      "കാര്‍": 2128,
      "തെന്ന്": 2129,
      "##കളും": 2130,
      "##ികളും": 2131,
      "##യിലാണ്": 2132,
      "ആലപ്പുഴ": 2133,
      "കാര്യം": 2134,
      "##ിയാണ്": 2135,
      "##ിക്കുകയും": 2136,
      "ക്കുന്ന": 2137,
      "സുരേന്ദ്ര": 2138,
      "##വിധാന": 2139,
      "നല്‍കി": 2140,
      "സാമ": 2141,
      "എൽ": 2142,
      "യുള്ള": 2143,
      "അതിന്": 2144,
      "സംവിധാന": 2145,
      "മുമ്പ്": 2146,
      "ഏറെ": 2147,
      "പീ": 2148,
      "##ിച്ചേ": 2149,
      "##ിനും": 2150,
      "##ാവന": 2151,
      "എതി": 2152,
      "വ്യക്തമാക്കിയ": 2153,
      "##ജന": 2154,
      "ആകെ": 2155,
      "##ുകൂല": 2156,
      "ചെല": 2157,
      "രണ്ടാം": 2158,
      "ഇപ്പോൾ": 2159,
      "അവർ": 2160,
      "സിംഗ്": 2161,
      "##ൂട്ട": 2162,
      "##ത്തിലും": 2163,
      "21": 2164,
      "വര്‍ധ": 2165,
      "##ൗര": 2166,
      "വികസ": 2167,
      "ഫേസ്ബു": 2168,
      "##ുമോ": 2169,
      "മക": 2170,
      "##ാരാഷ്ട്ര": 2171,
      "റിയ": 2172,
      "എത്ര": 2173,
      "##ഭ്യാ": 2174,
      "വാര്‍ത്ത": 2175,
      "സന്ത": 2176,
      "നിയമസഭ": 2177,
      "ഭക്ഷ": 2178,
      "##േഷൻ": 2179,
      "നവ": 2180,
      "താന്‍": 2181,
      "##ക്കള": 2182,
      "നിലവില്‍": 2183,
      "വര്‍ഷം": 2184,
      "##ീല": 2185,
      "യി": 2186,
      "രജി": 2187,
      "കോട്ടയം": 2188,
      "##ായും": 2189,
      "വിവാദ": 2190,
      "മാത്രമല്ല": 2191,
      "##രുദ്ധ": 2192,
      "അറസ്റ്റ്": 2193,
      "വെച്ച": 2194,
      "##േയ": 2195,
      "##മോ": 2196,
      "##സിന്": 2197,
      "ലാ": 2198,
      "പക്ഷ": 2199,
      "കമ്മീഷ": 2200,
      "ഇന്‍": 2201,
      "മത്സര": 2202,
      "ബംഗ": 2203,
      "##േജ്": 2204,
      "തമി": 2205,
      "##സില": 2206,
      "പരാജ": 2207,
      "രംഗത്തെ": 2208,
      "റിപ്പോര്‍ട്ട": 2209,
      "ദിന": 2210,
      "ഗുരു": 2211,
      "ശതമാന": 2212,
      "ഇത്തര": 2213,
      "23": 2214,
      "##ുകളിൽ": 2215,
      "ഇത്തരം": 2216,
      "മറുപടി": 2217,
      "##ോമ": 2218,
      "അധികാര": 2219,
      "ങ്ങള്‍": 2220,
      "##റാ": 2221,
      "##ില്ലെന്നും": 2222,
      "ജീവ": 2223,
      "##യായി": 2224,
      "##ങ്ക്": 2225,
      "ആദ്യം": 2226,
      "പ്രതിസന്ധ": 2227,
      "സർക്കാരി": 2228,
      "മാസം": 2229,
      "ആശങ്ക": 2230,
      "സംഭവം": 2231,
      "കുറിച്ച്": 2232,
      "ബൈ": 2233,
      "##ബ്ര": 2234,
      "##േള": 2235,
      "വാങ്ങ": 2236,
      "##യില": 2237,
      "മനസ്സ": 2238,
      "തൊഴിലാള": 2239,
      "ആണ": 2240,
      "ഏത": 2241,
      "##ുവന്ന": 2242,
      "ഗ്രാമ": 2243,
      "പാലക്കാട്": 2244,
      "യുഡിഎഫ്": 2245,
      "##സൈ": 2246,
      "ചു": 2247,
      "##െയി": 2248,
      "കേരളത്തില്‍": 2249,
      "##ിത്ത": 2250,
      "##ാവസ്ഥ": 2251,
      "ക്കെതിരെ": 2252,
      "##്ട്ര": 2253,
      "ക്ഷേ": 2254,
      "##തിയിൽ": 2255,
      "എറണാകുളം": 2256,
      "##ീമ": 2257,
      "ഉമ്മ": 2258,
      "##ിക്കറ്റ്": 2259,
      "സംശ": 2260,
      "പോരാ": 2261,
      "##ഹമ്മദ്": 2262,
      "##പ്പുറം": 2263,
      "നരേന്ദ്ര": 2264,
      "40": 2265,
      "##രീ": 2266,
      "ഇന്ത്യന്‍": 2267,
      "സ്ത്രീക": 2268,
      "##ുകാര": 2269,
      "ഡെ": 2270,
      "കൊച്ചി": 2271,
      "യായി": 2272,
      "ഭാ": 2273,
      "കാരണ": 2274,
      "ിന": 2275,
      "അക": 2276,
      "മനു": 2277,
      "എണ്ണ": 2278,
      "കാര്യങ്ങള്‍": 2279,
      "സമൂഹ": 2280,
      "ശി": 2281,
      "സംബന്ധിച്ച്": 2282,
      "ആത്മ": 2283,
      "##ര്‍ത്തി": 2284,
      "രംഗത്ത്": 2285,
      "##വെ": 2286,
      "##ായ്": 2287,
      "രാജ്യത്ത്": 2288,
      "##സില്‍": 2289,
      "##പ്പള്ളി": 2290,
      "നാള": 2291,
      "##വല": 2292,
      "##ബര്‍": 2293,
      "ഡ്ര": 2294,
      "##ിത": 2295,
      "പുന": 2296,
      "കളുടെ": 2297,
      "ഭാഗമായി": 2298,
      "െന്ന്": 2299,
      "ഉണ്ടായി": 2300,
      "##രക്ഷ": 2301,
      "ഉണ്ടാക": 2302,
      "ഇതില്‍": 2303,
      "തോമ": 2304,
      "കൊല്ലം": 2305,
      "പേരാണ്": 2306,
      "സുധാക": 2307,
      "കൗ": 2308,
      "പങ്കെടുത്ത": 2309,
      "ഭാര്യ": 2310,
      "പേർ": 2311,
      "ഭൂരി": 2312,
      "ചെയ്യാ": 2313,
      "നിലപാട്": 2314,
      "റ്റ": 2315,
      "പുതു": 2316,
      "വ്യക്തമാക്ക": 2317,
      "നേട്ട": 2318,
      "കേസില്‍": 2319,
      "അന്ന്": 2320,
      "##ങ്ങളിലും": 2321,
      "##നാഥ": 2322,
      "##ധികം": 2323,
      "ക്കാര": 2324,
      "ആഗ്രഹ": 2325,
      "െന്നും": 2326,
      "##ിക്കണം": 2327,
      "##ത്തിലേക്ക്": 2328,
      "സ്വകാര്യ": 2329,
      "പ്പോ": 2330,
      "##ടുത്ത്": 2331,
      "മെഡിക്കല്‍": 2332,
      "##ാവുന്ന": 2333,
      "##മുണ്ട": 2334,
      "യുഡിഎഫ": 2335,
      "വിത": 2336,
      "പറഞ്ഞിരുന്നു": 2337,
      "സുപ്രീം": 2338,
      "##പ്രദേശ": 2339,
      "വിലയിരുത്ത": 2340,
      "##ടം": 2341,
      "ഫി": 2342,
      "വിട്ട": 2343,
      "##ത്രം": 2344,
      "ഫെ": 2345,
      "##രാണ്": 2346,
      "##സു": 2347,
      "സമര": 2348,
      "അഞ്ച": 2349,
      "##ക്കാല": 2350,
      "സംഘം": 2351,
      "വിദ്യാഭ്യാ": 2352,
      "അന്ത": 2353,
      "യുമായി": 2354,
      "മോഹ": 2355,
      "നീക്കം": 2356,
      "##ക്കം": 2357,
      "ത്തിൽ": 2358,
      "പ്രകാരം": 2359,
      "##കളെ": 2360,
      "മില്ല": 2361,
      "ചെയ്തിരുന്നു": 2362,
      "കൃത്യ": 2363,
      "പത്തനം": 2364,
      "ജോസ": 2365,
      "ഇയ": 2366,
      "വനി": 2367,
      "##ര്‍മ": 2368,
      "##തിട്ട": 2369,
      "##േദ": 2370,
      "ലഭിക്ക": 2371,
      "സാധിക്ക": 2372,
      "തദ്ദേശ": 2373,
      "പത്തനംതിട്ട": 2374,
      "##പ്പെട്ടി": 2375,
      "##ിപ്പി": 2376,
      "ഉയര്‍ന്ന": 2377,
      "##ക്കാര്‍": 2378,
      "##ണാടക": 2379,
      "മാറ": 2380,
      "സമയത്ത്": 2381,
      "ബന്ധപ്പെട്ട്": 2382,
      "##േന": 2383,
      "ധന": 2384,
      "കൂടാതെ": 2385,
      "തട്ട": 2386,
      "കുറഞ്ഞ": 2387,
      "പരാജയ": 2388,
      "ഷോ": 2389,
      "മുഴുവ": 2390,
      "നമ്മുടെ": 2391,
      "കേരളത്തിലെ": 2392,
      "മാണ": 2393,
      "ശക്തി": 2394,
      "##ുമ്പോൾ": 2395,
      "##യിലേക്ക്": 2396,
      "പങ്കുവ": 2397,
      "കന": 2398,
      "സ്വീകരിച്ച": 2399,
      "##കളുടെ": 2400,
      "ജോര്‍": 2401,
      "മാറ്റി": 2402,
      "##ട്ടെ": 2403,
      "ഉന്നയ": 2404,
      "അഭിപ്രായ": 2405,
      "നിയന്ത്രണ": 2406,
      "റഷ്യ": 2407,
      "മാർ": 2408,
      "അതുകൊണ്ട്": 2409,
      "##ലു": 2410,
      "##സോ": 2411,
      "അദ്ദേഹത്തിന്റെ": 2412,
      "##000": 2413,
      "അധികൃത": 2414,
      "##ാറ്റ": 2415,
      "ആരോപണ": 2416,
      "പദ": 2417,
      "##ാര്‍ഥ": 2418,
      "##ുണ്ടായ": 2419,
      "പറ്റ": 2420,
      "26": 2421,
      "പൊലീസ": 2422,
      "##ംപ": 2423,
      "ആവശ്യം": 2424,
      "28": 2425,
      "ഫലം": 2426,
      "വിട": 2427,
      "ഇക്കാര്യം": 2428,
      "##പാത": 2429,
      "സുരേഷ്": 2430,
      "മനുഷ്യ": 2431,
      "അക്ക": 2432,
      "പുറത്തു": 2433,
      "##ജ്ഞ": 2434,
      "200": 2435,
      "സ്വന്തം": 2436,
      "തെളിവ": 2437,
      "നില്‍ക്ക": 2438,
      "ദൃ": 2439,
      "##വം": 2440,
      "ചൂണ്ടിക്കാ": 2441,
      "പ്രവര്‍ത്തക": 2442,
      "##മായിരുന്നു": 2443,
      "ഡയ": 2444,
      "സത്യ": 2445,
      "പ്രസ": 2446,
      "അമി": 2447,
      "ജല": 2448,
      "##ാഹ": 2449,
      "##ടേയും": 2450,
      "പോയി": 2451,
      "ആഭ": 2452,
      "എത്തി": 2453,
      "പോസ്റ്റ": 2454,
      "ഇര": 2455,
      "ഇത്ര": 2456,
      "ഭീഷ": 2457,
      "താമസ": 2458,
      "ഹെ": 2459,
      "##ദ്ധി": 2460,
      "നായ": 2461,
      "##യര്‍": 2462,
      "രു": 2463,
      "ശു": 2464,
      "ചെയ്ത്": 2465,
      "27": 2466,
      "കൂട്ടിച്ചേ": 2467,
      "നിൽ": 2468,
      "സഖ്യ": 2469,
      "സ്വപ്": 2470,
      "കടുത്ത": 2471,
      "സാധാരണ": 2472,
      "##ത്തിറ": 2473,
      "ഇടപെട": 2474,
      "അഖ": 2475,
      "തിന്റെ": 2476,
      "ഫ്ര": 2477,
      "##നാണ്": 2478,
      "വിശ്വ": 2479,
      "സ്ഥാനാർത്ഥ": 2480,
      "ദുര": 2481,
      "സമ്പർക്ക": 2482,
      "ചരി": 2483,
      "##ഷ്‌": 2484,
      "മാത്രമേ": 2485,
      "യ്ക്ക": 2486,
      "നമ്പ": 2487,
      "വന്‍": 2488,
      "അനുകൂല": 2489,
      "പ്രവർത്തക": 2490,
      "ചെയ്യുന്നത്": 2491,
      "േക്ക": 2492,
      "##സ്റ്റി": 2493,
      "ാല്‍": 2494,
      "##പരി": 2495,
      "സ്ത്രീ": 2496,
      "ചുമതല": 2497,
      "##റിഞ്ഞ": 2498,
      "മണി": 2499,
      "ങ്ങൾ": 2500,
      "##ിനിടെ": 2501,
      "സ്‌കൂ": 2502,
      "##ുകൊണ്ട": 2503,
      "വികസന": 2504,
      "##ിമ": 2505,
      "താഴ": 2506,
      "വെച്ച്": 2507,
      "കുഞ്ഞ": 2508,
      "അനുമതി": 2509,
      "വസ്": 2510,
      "ഓഫ്": 2511,
      "##ീകരണ": 2512,
      "കരുത": 2513,
      "ബ്ല": 2514,
      "##സിന്‍": 2515,
      "ആറ്": 2516,
      "##കുമ": 2517,
      "പ്രൊ": 2518,
      "##ണ്‍കു": 2519,
      "അനുഭവ": 2520,
      "പൈ": 2521,
      "തനിക്ക്": 2522,
      "##ണു": 2523,
      "##ിലായി": 2524,
      "നിറ": 2525,
      "നേട": 2526,
      "##ാന്": 2527,
      "##പ്പെട്ടത്": 2528,
      "ങ്ങളും": 2529,
      "കീഴ": 2530,
      "എന്നത്": 2531,
      "000": 2532,
      "കസ്റ്റ": 2533,
      "മലപ്പുറം": 2534,
      "ബോധ": 2535,
      "പേരും": 2536,
      "പ്രതികരണം": 2537,
      "യിലും": 2538,
      "ആന": 2539,
      "##ിലേക്ക": 2540,
      "രാജ്യത്തെ": 2541,
      "ഉണ്ട്": 2542,
      "എഴു": 2543,
      "##െതിര": 2544,
      "##ഴ്ച്ച": 2545,
      "മുന്നറിയ": 2546,
      "ഫല": 2547,
      "രാശിക്ക": 2548,
      "മുംബ": 2549,
      "##ൃഷ്ട": 2550,
      "##ർക്കും": 2551,
      "##ജീവ": 2552,
      "സുഹൃ": 2553,
      "അടക്കം": 2554,
      "വ്യവ": 2555,
      "യുഎഇ": 2556,
      "സഹായി": 2557,
      "സര്‍വ": 2558,
      "സാമൂഹ": 2559,
      "ചൊ": 2560,
      "##ീര്‍": 2561,
      "##മെന്ന്": 2562,
      "##ച്ഛ": 2563,
      "ഉണ്ടായ": 2564,
      "ലഭിക്കും": 2565,
      "##ിരിക്കുന്ന": 2566,
      "വിമർശ": 2567,
      "പണ": 2568,
      "െങ്കിലും": 2569,
      "##യിലും": 2570,
      "സാഹചര്യത്തില്‍": 2571,
      "മാക": 2572,
      "കളില്‍": 2573,
      "നല്‍കുന്ന": 2574,
      "മുംബൈ": 2575,
      "ഹിന്": 2576,
      "##രുക": 2577,
      "തോന്ന": 2578,
      "കൈമാ": 2579,
      "മുസ്ലി": 2580,
      "കമ്മിറ്റി": 2581,
      "##െത്തിയ": 2582,
      "രണ്ടു": 2583,
      "##സർ": 2584,
      "ചന്ദ്ര": 2585,
      "കേരളം": 2586,
      "പതി": 2587,
      "##ര്യം": 2588,
      "സോഷ്യല്‍": 2589,
      "വിഭാഗം": 2590,
      "##ാതി": 2591,
      "വിജയം": 2592,
      "ആരാ": 2593,
      "രാമ": 2594,
      "വേഗ": 2595,
      "##ുവരി": 2596,
      "##ടുക്കി": 2597,
      "ഇൻ": 2598,
      "##ിക്കറ്റ": 2599,
      "തുടർന്ന്": 2600,
      "നിര്‍ദേശ": 2601,
      "കോടിയ": 2602,
      "എല്‍ഡിഎ": 2603,
      "ആശുപത്രിയില്‍": 2604,
      "തിനെ": 2605,
      "സഹോദ": 2606,
      "പേര്": 2607,
      "അര്‍": 2608,
      "##ോഭ": 2609,
      "പ്രഖ്യാപിച്ച": 2610,
      "മുഹമ്മദ്": 2611,
      "മുന്നോട്ട്": 2612,
      "ചെറിയ": 2613,
      "പോകുന്ന": 2614,
      "സാധ്യതയ": 2615,
      "കുമാര്‍": 2616,
      "നിലപാട": 2617,
      "പരാമ": 2618,
      "അമ": 2619,
      "നാണ്": 2620,
      "അങ്ങനെ": 2621,
      "ജാമ": 2622,
      "##കരണ": 2623,
      "##കോ": 2624,
      "ചേര്‍ന്ന": 2625,
      "ഉള്‍പ്പെടെ": 2626,
      "മല്ല": 2627,
      "##കളില്‍": 2628,
      "##ക്കോ": 2629,
      "രാത്രി": 2630,
      "രൂക്ഷ": 2631,
      "റെയ": 2632,
      "##എമ്മ": 2633,
      "##ങ്ങളിലെ": 2634,
      "##ടിപ്പ": 2635,
      "വെളി": 2636,
      "##ക്ടർ": 2637,
      "ഭൂരിപക്ഷ": 2638,
      "തെറ്റ": 2639,
      "ഇടതു": 2640,
      "##ാബ": 2641,
      "മുതി": 2642,
      "വിദ്യാഭ്യാസ": 2643,
      "എംപി": 2644,
      "എടുക്ക": 2645,
      "##രിക്കാന്‍": 2646,
      "##കാല": 2647,
      "സംസ്ഥാനത്തെ": 2648,
      "35": 2649,
      "പുല": 2650,
      "##തമായ": 2651,
      "സംരക്ഷ": 2652,
      "ആക": 2653,
      "##ലാ": 2654,
      "##ളവ": 2655,
      "ന്ന": 2656,
      "##ഫി": 2657,
      "പ്രസ്ത": 2658,
      "##ഷൻ": 2659,
      "##ിക്കേണ്ട": 2660,
      "അഭിന": 2661,
      "പശ്ചാത്ത": 2662,
      "##ഗോ": 2663,
      "##ാക്കാന്‍": 2664,
      "##സിൽ": 2665,
      "കില": 2666,
      "##സ്ര": 2667,
      "##ജ്ജ": 2668,
      "ബിജെപിയുടെ": 2669,
      "ഇക്കാര്യ": 2670,
      "പ്രോ": 2671,
      "##ളെ": 2672,
      "##ർത്തി": 2673,
      "മാണി": 2674,
      "ഇന്നലെ": 2675,
      "അടിയ": 2676,
      "##ിനു": 2677,
      "നടത്തിയത്": 2678,
      "പിടിച്ച": 2679,
      "കാർ": 2680,
      "##ലിന്": 2681,
      "##തൃ": 2682,
      "ഒരിക്ക": 2683,
      "സംബന്ധിച്ച": 2684,
      "##െച്ച": 2685,
      "##തില്‍": 2686,
      "സൃഷ്ട": 2687,
      "31": 2688,
      "വിന": 2689,
      "പെരു": 2690,
      "##പ്റ്റ": 2691,
      "എക്‌": 2692,
      "നിക": 2693,
      "ഉൾപ്പെടെ": 2694,
      "മായിരുന്നു": 2695,
      "പ്രശ്ന": 2696,
      "ലീഗ്": 2697,
      "മാറി": 2698,
      "കുറിച്ച": 2699,
      "ഹാജ": 2700,
      "29": 2701,
      "മൃത": 2702,
      "ക്ഷ": 2703,
      "അത്ത": 2704,
      "##പ്പോൾ": 2705,
      "##ാധിപ": 2706,
      "വിരുദ്ധ": 2707,
      "##പ്രവ": 2708,
      "കോളേജ": 2709,
      "ലും": 2710,
      "കൊടുത്ത": 2711,
      "കിട": 2712,
      "എല്ലാം": 2713,
      "സ്വര്‍ണ": 2714,
      "##ലില്‍": 2715,
      "ുള്ള": 2716,
      "ക്കായി": 2717,
      "ഒന്നും": 2718,
      "##നേ": 2719,
      "സിപിഎമ്മ": 2720,
      "മധ്യ": 2721,
      "വാർത്ത": 2722,
      "ഇടുക്കി": 2723,
      "പൗര": 2724,
      "യെന്ന": 2725,
      "മറ്റു": 2726,
      "സോണ": 2727,
      "ആരോപണം": 2728,
      "വീട്ടില്‍": 2729,
      "സമ്പര്‍ക്ക": 2730,
      "സമ്മേള": 2731,
      "യിലേക്ക്": 2732,
      "##ീറ്റ": 2733,
      "ചെയ്യും": 2734,
      "മൂല": 2735,
      "##വാദി": 2736,
      "##പ്പെടുന്നത്": 2737,
      "വൈറസ്": 2738,
      "##ികള്‍ക്ക്": 2739,
      "ചോദ്യ": 2740,
      "വന്നു": 2741,
      "##ല്ലു": 2742,
      "##ുപോ": 2743,
      "കേന്ദ്രം": 2744,
      "ലേ": 2745,
      "##മാർ": 2746,
      "##ശി": 2747,
      "പശ്ചാത്തല": 2748,
      "യോഗം": 2749,
      "പ്രസ്താവന": 2750,
      "ഹൈക്കോടതി": 2751,
      "##ളു": 2752,
      "മാറിയ": 2753,
      "ആവശ്യപ്പെട്ടു": 2754,
      "##സ്പി": 2755,
      "മുരള": 2756,
      "പുരു": 2757,
      "തില്‍": 2758,
      "ായി": 2759,
      "##ബ്ല": 2760,
      "വിച": 2761,
      "##ോട്ടോ": 2762,
      "##ാരുടെ": 2763,
      "##ലൈ": 2764,
      "##ാകുന്ന": 2765,
      "##രുത്": 2766,
      "എന്നതാണ്": 2767,
      "തൃശൂര്‍": 2768,
      "മൃതദേഹ": 2769,
      "എന്നായിരുന്നു": 2770,
      "45": 2771,
      "##ാദ്": 2772,
      "പ്രവർത്തന": 2773,
      "പീഡ": 2774,
      "ഹര്‍": 2775,
      "##ക്കെതിരെ": 2776,
      "##ൃഷ്ണ": 2777,
      "തുടര്‍ന്ന": 2778,
      "പ്രിയങ്ക": 2779,
      "പുറത്തിറ": 2780,
      "##ൂരില്‍": 2781,
      "താല്‍": 2782,
      "ഇന": 2783,
      "എന്നെ": 2784,
      "പിടി": 2785,
      "ദേവ": 2786,
      "എന്ത്": 2787,
      "##റിന്റെ": 2788,
      "സൗദി": 2789,
      "കുമാറ": 2790,
      "കമ്പന": 2791,
      "##ോടും": 2792,
      "##യാ": 2793,
      "കിട്ടിയ": 2794,
      "സഹായ": 2795,
      "ബീ": 2796,
      "കൊടുക്ക": 2797,
      "ഇന്ത്യൻ": 2798,
      "വിപ": 2799,
      "നടി": 2800,
      "പെണ്‍കു": 2801,
      "ചടങ്ങ": 2802,
      "ചെന്നിത്ത": 2803,
      "അര": 2804,
      "ചെന്നിത്തല": 2805,
      "സംശയ": 2806,
      "സൈന": 2807,
      "##ക്കട": 2808,
      "60": 2809,
      "അറസ്റ്റ": 2810,
      "ഹോ": 2811,
      "പഴ": 2812,
      "എന്നിവിട": 2813,
      "വരിക": 2814,
      "##വ്ര": 2815,
      "മുസ്ല": 2816,
      "##ിപ്പിക്കുന്ന": 2817,
      "##നിക്ക": 2818,
      "ആഘ": 2819,
      "##ിട്ട്": 2820,
      "##ിയിലേക്ക്": 2821,
      "സെന്റ": 2822,
      "ജനറല്‍": 2823,
      "ഇസ്ര": 2824,
      "നു": 2825,
      "പരിച": 2826,
      "മുന്നില്‍": 2827,
      "വ്യത്യ": 2828,
      "##സ്റ്റര്‍": 2829,
      "പ്രായ": 2830,
      "പെട്ട": 2831,
      "ത്ര": 2832,
      "##ിക്കാനുള്ള": 2833,
      "വേദ": 2834,
      "നടപടിയ": 2835,
      "ആരാധ": 2836,
      "ഭീഷണി": 2837,
      "അവത": 2838,
      "##ാണ്ടി": 2839,
      "നിക്ഷേപ": 2840,
      "കോര്‍": 2841,
      "സ്വർ": 2842,
      "##ശം": 2843,
      "##മ്പ്": 2844,
      "കെട്ടി": 2845,
      "##ോടൊപ്പം": 2846,
      "ദിലീപ": 2847,
      "##ഷിക": 2848,
      "സമാ": 2849,
      "ലോക്‌": 2850,
      "നിര്‍മ": 2851,
      "##ുറ": 2852,
      "പ്രചാരണ": 2853,
      "##ുത": 2854,
      "തിരി": 2855,
      "സ്വാധ": 2856,
      "അക്രമ": 2857,
      "##വരുടെ": 2858,
      "തുടങ്ങി": 2859,
      "##സ്ട്ര": 2860,
      "പാർട്ട": 2861,
      "നിങ്ങളുടെ": 2862,
      "ഇതേ": 2863,
      "വയനാട്": 2864,
      "വൃ": 2865,
      "##സ്യ": 2866,
      "ഇതിന്റെ": 2867,
      "പൂര്‍ത്തിയ": 2868,
      "##വിന്": 2869,
      "##ത്തോളം": 2870,
      "##ത്തേ": 2871,
      "##്യന്തര": 2872,
      "സ്ഥാനാര്‍ത്ഥി": 2873,
      "അമിത്": 2874,
      "മുസ്ലിം": 2875,
      "കൊണ്ടുവ": 2876,
      "പഞ്ചായത്ത്": 2877,
      "ടു": 2878,
      "സമിതി": 2879,
      "ലോക്": 2880,
      "ടീമ": 2881,
      "##ിയായി": 2882,
      "##ുമില്ല": 2883,
      "മന്ത്രാല": 2884,
      "യോഗ്യത": 2885,
      "സമ്പർക്കം": 2886,
      "നമു": 2887,
      "തടയ": 2888,
      "സൈനിക": 2889,
      "കൊലപാത": 2890,
      "ഡയറ": 2891,
      "സൂര്യ": 2892,
      "ക്രമ": 2893,
      "##ശ്ര": 2894,
      "ആഭ്യന്തര": 2895,
      "ഗ്രൂപ്പ": 2896,
      "ദൃശ്യ": 2897,
      "##സിപ്പ": 2898,
      "തള്ള": 2899,
      "##ബർ": 2900,
      "ക്കുള്ള": 2901,
      "ദി": 2902,
      "പ്പെടുത്ത": 2903,
      "പ്പോള്‍": 2904,
      "വുമായി": 2905,
      "പേരെ": 2906,
      "കളാണ്": 2907,
      "##ിക്കപ്പെട്ട": 2908,
      "കാലത്ത്": 2909,
      "കാലാവസ്ഥ": 2910,
      "അതിന്റെ": 2911,
      "റിപ്പോർട്ട": 2912,
      "പാട": 2913,
      "വന്നത്": 2914,
      "നോക്ക": 2915,
      "##നാട്ട": 2916,
      "വർഷം": 2917,
      "ആക്രമണ": 2918,
      "##ആര്‍": 2919,
      "##ിക്കാം": 2920,
      "അബ്": 2921,
      "പറഞ്ഞ്": 2922,
      "ചീ": 2923,
      "ശേഷമാണ്": 2924,
      "##ടക": 2925,
      "##ാവധി": 2926,
      "തെരഞ്ഞെടുപ്പ": 2927,
      "##ജൻ": 2928,
      "ഉള്ളത്": 2929,
      "ചെയ്യാന്‍": 2930,
      "ചിന്": 2931,
      "##ലക്ഷ": 2932,
      "##ഴാണ്": 2933,
      "##തന്ത്ര": 2934,
      "ചിത്രം": 2935,
      "##മത": 2936,
      "പിന്‍": 2937,
      "കൂടെ": 2938,
      "വിദ്യാര്‍ത്ഥ": 2939,
      "##ീവ": 2940,
      "നേതാക്കൾ": 2941,
      "നടന്നത്": 2942,
      "ഗുരുതര": 2943,
      "കഴിയുന്ന": 2944,
      "സംസാരിക്ക": 2945,
      "നിർദ്ദേശ": 2946,
      "ദുബ": 2947,
      "##ശ്ശേരി": 2948,
      "താരം": 2949,
      "##രത്ത്": 2950,
      "##ശ്വാ": 2951,
      "ജനാധിപ": 2952,
      "സ്ഥിരീകരിച്ചത്": 2953,
      "സജീവ": 2954,
      "##എഫ്": 2955,
      "പതിന": 2956,
      "##െട്ട": 2957,
      "##ല്‍ഹി": 2958,
      "പോവ": 2959,
      "വ്യാജ": 2960,
      "##േഷന": 2961,
      "ബോസ്": 2962,
      "##ീഷ്": 2963,
      "യില്ല": 2964,
      "സിന്": 2965,
      "ത്തിനും": 2966,
      "##വൈ": 2967,
      "##ല്ലോ": 2968,
      "##രമ": 2969,
      "ബുദ്ധി": 2970,
      "തോമസ്": 2971,
      "നിര്‍മ്മ": 2972,
      "ഉച്ച": 2973,
      "ശമ്പ": 2974,
      "അവരെ": 2975,
      "##ുകളെ": 2976,
      "സന്ദര്‍ശ": 2977,
      "##‌സ്": 2978,
      "##ിലി": 2979,
      "നിരക്ക്": 2980,
      "ഇവരുടെ": 2981,
      "വാക്ക": 2982,
      "##്വി": 2983,
      "##സും": 2984,
      "ലഭിച്ചത്": 2985,
      "വിദ്യാർത്ഥ": 2986,
      "സ്ഥിതി": 2987,
      "പ്പെട": 2988,
      "മനസ്സില": 2989,
      "റോഡ": 2990,
      "കള്ള": 2991,
      "ക്വാ": 2992,
      "പട": 2993,
      "ഇരുവ": 2994,
      "അതു": 2995,
      "ഇന്റ": 2996,
      "##യോടെ": 2997,
      "മഹാരാഷ്ട്ര": 2998,
      "അവസ്ഥ": 2999,
      "##യർ": 3000,
      "##ൂരി": 3001,
      "സമര്‍": 3002,
      "##ഭാവ": 3003,
      "ഉദ്": 3004,
      "സഞ്ച": 3005,
      "ഇപ്പോഴും": 3006,
      "##ാബ്": 3007,
      "##ൗണ്ട": 3008,
      "ഡോള": 3009,
      "ക്കാന്‍": 3010,
      "കേരളത്തിൽ": 3011,
      "ഭയ": 3012,
      "##ക്കാന്‍": 3013,
      "മത്സരിക്ക": 3014,
      "കളിൽ": 3015,
      "തീവ്ര": 3016,
      "കോണ്‍ഗ്രസിന്": 3017,
      "ചരിത്ര": 3018,
      "ബാധി": 3019,
      "നോട്ട": 3020,
      "##നത്തിന്": 3021,
      "കൊണ്ടാണ്": 3022,
      "32": 3023,
      "തുക": 3024,
      "നിന്നാണ്": 3025,
      "സര്‍ക്കാരിന്റെ": 3026,
      "##ളുടെ": 3027,
      "മെയ്": 3028,
      "ഡ്രൈ": 3029,
      "##ന്റി": 3030,
      "##ച്ചത്": 3031,
      "##ദ്യോഗിക": 3032,
      "കൃഷ്ണ": 3033,
      "ജാഗ്ര": 3034,
      "റൂ": 3035,
      "##ഘാട": 3036,
      "മുരളീ": 3037,
      "റാ": 3038,
      "##ക്കേ": 3039,
      "ദുരന്ത": 3040,
      "ട്വ": 3041,
      "യെന്ന്": 3042,
      "##തമായി": 3043,
      "അടക്കമുള്ള": 3044,
      "വരുമാന": 3045,
      "ജോസ്": 3046,
      "ഇവരെ": 3047,
      "##കല": 3048,
      "സ്വയം": 3049,
      "കളെ": 3050,
      "##ീകരണം": 3051,
      "ഫോണ": 3052,
      "ആഗ": 3053,
      "എക്": 3054,
      "##മെന്നും": 3055,
      "രമേ": 3056,
      "വിട്ടു": 3057,
      "##രിച്ചത്": 3058,
      "ഇന്ത്യയുടെ": 3059,
      "വയസ്സ": 3060,
      "രാജിവ": 3061,
      "##പോലെ": 3062,
      "ലം": 3063,
      "##മല": 3064,
      "സതീ": 3065,
      "##ിക്": 3066,
      "##മാന്‍": 3067,
      "പോസ്റ്റ്": 3068,
      "##തുമ": 3069,
      "ഹിന്ദു": 3070,
      "വിധി": 3071,
      "##ീകരിച്ച്": 3072,
      "നേരിട്ട്": 3073,
      "മുരളീധ": 3074,
      "##ിടെ": 3075,
      "##ചന്ദ്ര": 3076,
      "ലഭിക്കുന്ന": 3077,
      "എല്ലാവരും": 3078,
      "##ചി": 3079,
      "##ൻസ്": 3080,
      "##ത്താവ": 3081,
      "കണ്‍": 3082,
      "നല്‍കിയത്": 3083,
      "##ുട്ട": 3084,
      "##ണര്‍": 3085,
      "കോണ്‍ഗ്രസിന്റെ": 3086,
      "##ലോ": 3087,
      "##ാക്": 3088,
      "##ത്തം": 3089,
      "##ല്ലുവി": 3090,
      "##േല്‍": 3091,
      "ലീഗ": 3092,
      "##വാദ": 3093,
      "ആം": 3094,
      "വരുടെ": 3095,
      "ലഭ്യമ": 3096,
      "##മുണ്ട്": 3097,
      "വീണ": 3098,
      "##ത്വം": 3099,
      "ക്കെതിര": 3100,
      "പോസി": 3101,
      "ഇനിയും": 3102,
      "വല": 3103,
      "##ര്‍ത്തു": 3104,
      "കടന്ന": 3105,
      "##ുകളിലും": 3106,
      "യായ": 3107,
      "##ഗ്ദ": 3108,
      "വർധ": 3109,
      "ലോക്ക്": 3110,
      "##രില്‍": 3111,
      "##ീറ്റ്": 3112,
      "പ്രമുഖ": 3113,
      "ഏപ്ര": 3114,
      "ജൂല": 3115,
      "##ഫോ": 3116,
      "##ക്കുറിച്ച്": 3117,
      "ഔദ്യോഗിക": 3118,
      "സാധിക്കും": 3119,
      "വര്‍ക്ക്": 3120,
      "ലക്ഷ്യമ": 3121,
      "ജയില": 3122,
      "രംഗത്തെത്തിയ": 3123,
      "സീസ": 3124,
      "കെപി": 3125,
      "ഉയർന്ന": 3126,
      "100": 3127,
      "##ീന്‍": 3128,
      "##രുന്ന്": 3129,
      "ഉമ്മന്‍": 3130,
      "##പാട്": 3131,
      "പിസി": 3132,
      "വിമാനത്താവ": 3133,
      "തെളിയ": 3134,
      "തിരിച്ചു": 3135,
      "വെല്ലുവി": 3136,
      "വേണം": 3137,
      "നൽകി": 3138,
      "##ങ്ങുന്ന": 3139,
      "രൂപയാണ്": 3140,
      "ലക്ഷ്യം": 3141,
      "2019": 3142,
      "##നാഥ്": 3143,
      "##പരമായ": 3144,
      "ബഹ": 3145,
      "നിശ്ച": 3146,
      "ബിസിന": 3147,
      "##നിര": 3148,
      "ബിജെപിക്ക്": 3149,
      "മാറ്റം": 3150,
      "നായി": 3151,
      "പരിക്ക": 3152,
      "##തിയാണ്": 3153,
      "മനോ": 3154,
      "കണ്ണൂർ": 3155,
      "മൂന്നാം": 3156,
      "ചാന": 3157,
      "##സൂ": 3158,
      "##ിയോ": 3159,
      "ഉണ്ടാവ": 3160,
      "ജോസഫ്": 3161,
      "ഇടതുപക്ഷ": 3162,
      "കഥ": 3163,
      "##ലിന്റെ": 3164,
      "##ക്കള്‍": 3165,
      "ിരുന്നുവ": 3166,
      "ഇസ്രായ": 3167,
      "ഏഴ്": 3168,
      "##്മി": 3169,
      "##സിക്യ": 3170,
      "ിരിക്കുന്ന": 3171,
      "തങ്ങളുടെ": 3172,
      "##സരിച്ച്": 3173,
      "നേടി": 3174,
      "##ക്ടറ": 3175,
      "മാറ്റിയ": 3176,
      "ആരും": 3177,
      "സ്ഥാനം": 3178,
      "ഇയാള്‍": 3179,
      "വരുന്നത്": 3180,
      "##ത്തിലൂടെ": 3181,
      "##്രാ": 3182,
      "ജനാധിപത്യ": 3183,
      "തെന്നാണ്": 3184,
      "വാദ": 3185,
      "##പ്പോഴും": 3186,
      "ഹി": 3187,
      "##ീല്‍": 3188,
      "##ുമുള്ള": 3189,
      "ക്കാണ്": 3190,
      "കര്‍ഷക": 3191,
      "കേസിൽ": 3192,
      "##റിൽ": 3193,
      "ഇഷ്ട": 3194,
      "ഗോപ": 3195,
      "##ണായക": 3196,
      "രാഹുൽ": 3197,
      "സമു": 3198,
      "സൂച": 3199,
      "യുദ്ധ": 3200,
      "ബാങ്ക": 3201,
      "##ങ്ങനെയാണ്": 3202,
      "ഉദ്ഘാട": 3203,
      "##വിഡ": 3204,
      "ിട്ടുള്ള": 3205,
      "നിലവിൽ": 3206,
      "വായ": 3207,
      "ഗുജ": 3208,
      "പകരം": 3209,
      "വിശ്വാസ": 3210,
      "അഴി": 3211,
      "ക്കൊ": 3212,
      "ില്ലെന്നും": 3213,
      "##ബൈ": 3214,
      "പ്രതിഷേധം": 3215,
      "##മില്ല": 3216,
      "ചെറു": 3217,
      "പേരില്‍": 3218,
      "വഹ": 3219,
      "##കര്യ": 3220,
      "##നിധ": 3221,
      "മെഡിക്കൽ": 3222,
      "എങ്ങനെ": 3223,
      "ിട്ടുള്ളത്": 3224,
      "കുറവ": 3225,
      "വൈദ്യ": 3226,
      "എത്തിയത്": 3227,
      "##റിച്ച": 3228,
      "##ുകാര്‍": 3229,
      "ക്ഷേത്ര": 3230,
      "യിലാണ്": 3231,
      "##ംസ": 3232,
      "മട": 3233,
      "##ാസ്ത്ര": 3234,
      "സഭ": 3235,
      "##രുവ": 3236,
      "ഒന്നാം": 3237,
      "ലംഘ": 3238,
      "##ീക്ക": 3239,
      "ആരോപിച്ചു": 3240,
      "##സിയ": 3241,
      "##ണിയ": 3242,
      "##ാണോ": 3243,
      "ത്തിലെ": 3244,
      "മുസ്ലീം": 3245,
      "യഥ": 3246,
      "##രൻ": 3247,
      "ബന്ധു": 3248,
      "സമ്മാന": 3249,
      "പുരോഗ": 3250,
      "പ്രതിസന്ധി": 3251,
      "മുള്ള": 3252,
      "വിളി": 3253,
      "##ാമത്തെ": 3254,
      "##ക്കില്‍": 3255,
      "ബന്ധം": 3256,
      "നാട": 3257,
      "ഭേദ": 3258,
      "യാത": 3259,
      "നിയമം": 3260,
      "ശ്രമം": 3261,
      "പോളി": 3262,
      "നിര്‍ദ്ദേശ": 3263,
      "വാക്‌സിന്‍": 3264,
      "##ക്കാർ": 3265,
      "ങ്ങളുടെ": 3266,
      "കുറച്ച്": 3267,
      "ുവെന്നും": 3268,
      "രോ": 3269,
      "##ര്‍ക്കാണ്": 3270,
      "കഴിഞ്ഞു": 3271,
      "ആളുകള്‍": 3272,
      "ാവ": 3273,
      "എച്ച്": 3274,
      "മമത": 3275,
      "##ട്ടിഫ": 3276,
      "##കരമായ": 3277,
      "മുന്നറിയിപ്പ്": 3278,
      "എട്ട്": 3279,
      "പവ": 3280,
      "മേഖലയില്‍": 3281,
      "കനത്ത": 3282,
      "ഷി": 3283,
      "ഹൗ": 3284,
      "##രായ": 3285,
      "##ടേ": 3286,
      "##ണ്ടി": 3287,
      "ആവശ്യപ്പെട്ടി": 3288,
      "##ുന": 3289,
      "കുട്ടി": 3290,
      "##ഹരി": 3291,
      "മുഖ്യമന്ത്രിയുടെ": 3292,
      "ഞങ്ങള്‍": 3293,
      "##ളൂ": 3294,
      "##ോചന": 3295,
      "##ഖ്യ": 3296,
      "മണ്ഡലം": 3297,
      "സന്തോഷ": 3298,
      "രമേശ്": 3299,
      "പത്ത്": 3300,
      "പ്രസംഗ": 3301,
      "##ൺകു": 3302,
      "പിടിക": 3303,
      "##ാടിയ": 3304,
      "തിരഞ്ഞെടുപ്പിൽ": 3305,
      "നടക്കുന്നത്": 3306,
      "##ാക്കിയത്": 3307,
      "36": 3308,
      "കൂടിയാണ്": 3309,
      "ശ്രമിച്ച": 3310,
      "വാക്‌സിന": 3311,
      "##ല്‍പ്പ": 3312,
      "സ്വാത": 3313,
      "##ുവിന്റെ": 3314,
      "താൻ": 3315,
      "യോട്": 3316,
      "വീതം": 3317,
      "കാസര്‍": 3318,
      "അവസരം": 3319,
      "ഉന്നത": 3320,
      "ഒര": 3321,
      "##റിന്": 3322,
      "##േണ്ടത്": 3323,
      "ആവശ്യമ": 3324,
      "അധ്യക്ഷന്‍": 3325,
      "ഏത്": 3326,
      "ഇവർ": 3327,
      "നികുതി": 3328,
      "വില്‍": 3329,
      "െന്നാണ്": 3330,
      "തല്ല": 3331,
      "##ക്കൊ": 3332,
      "പേരുടെ": 3333,
      "വരാണ്": 3334,
      "ചോദിച്ചു": 3335,
      "നേരിട്ട": 3336,
      "ഇദ്ദേഹ": 3337,
      "##സ്‌ക": 3338,
      "ജീവനക്കാര": 3339,
      "സുരക്ഷാ": 3340,
      "##ഗോഡ്": 3341,
      "സോണിയ": 3342,
      "പിടികൂ": 3343,
      "പ്രവര്‍ത്തകര്‍": 3344,
      "സർവ": 3345,
      "##യിലുള്ള": 3346,
      "നിരോധ": 3347,
      "അഭിമുഖ": 3348,
      "##മം": 3349,
      "##ൗണ്‍": 3350,
      "മരണം": 3351,
      "സമരം": 3352,
      "യോഗത്തില്‍": 3353,
      "രീതിയില്‍": 3354,
      "വസ്തു": 3355,
      "മൈ": 3356,
      "##ികെ": 3357,
      "ഉടമ": 3358,
      "വിതരണം": 3359,
      "ആഘോഷ": 3360,
      "ണ്": 3361,
      "സാധിച്ച": 3362,
      "മുതല": 3363,
      "അതില്‍": 3364,
      "സാഹചര്യം": 3365,
      "2021": 3366,
      "മര": 3367,
      "രൂപയുടെ": 3368,
      "മൊഴി": 3369,
      "പേരു": 3370,
      "##ത്യം": 3371,
      "ഇയാള": 3372,
      "##ാനെ": 3373,
      "എന്താണ്": 3374,
      "നമുക്ക്": 3375,
      "സ്വാതന്ത്ര": 3376,
      "##മാരുടെ": 3377,
      "ഇതു": 3378,
      "ഏര്‍": 3379,
      "തെന്ന": 3380,
      "പ്രവച": 3381,
      "##മെന്റ": 3382,
      "##ശ്മ": 3383,
      "വധ": 3384,
      "##മതി": 3385,
      "##ക്കുന്നത്": 3386,
      "നൽകുന്ന": 3387,
      "അവസര": 3388,
      "സതീശ": 3389,
      "കൂടുതല": 3390,
      "അധ്യാപ": 3391,
      "ബുധ": 3392,
      "##ാവി": 3393,
      "##തെ": 3394,
      "ക്രൈ": 3395,
      "##ിരുന്നത്": 3396,
      "##വില": 3397,
      "##കളിൽ": 3398,
      "ഫേസ്ബുക്ക്": 3399,
      "തസ്": 3400,
      "##ത്തുന്ന": 3401,
      "നാളെ": 3402,
      "ഇടി": 3403,
      "നന്ദ": 3404,
      "ജാഗ്രത": 3405,
      "തിയ": 3406,
      "വിവരങ്ങള്‍": 3407,
      "##മാരെ": 3408,
      "33": 3409,
      "വീട്": 3410,
      "##്യോ": 3411,
      "80": 3412,
      "രി": 3413,
      "ഉണ്ടായിരുന്നു": 3414,
      "എന്നിവര്‍": 3415,
      "സൗകര്യ": 3416,
      "പാക": 3417,
      "യാതൊരു": 3418,
      "ബജ": 3419,
      "##പ്പെടുത്തുന്ന": 3420,
      "##ഗോപ": 3421,
      "കാഴ്ച": 3422,
      "പിന്നാലെയാണ്": 3423,
      "ജോര്‍ജ്": 3424,
      "യാണെന്നും": 3425,
      "##ാരു": 3426,
      "മനസില": 3427,
      "തിനാല്‍": 3428,
      "വനിതാ": 3429,
      "ഒന്ന്": 3430,
      "##ീകരി": 3431,
      "കേന്ദ്രസ": 3432,
      "##സ്വ": 3433,
      "##ുള്ളില്‍": 3434,
      "പൂര്‍ണ": 3435,
      "ശേഖ": 3436,
      "##പിച്ച്": 3437,
      "രോഗമു": 3438,
      "ചെയ്തിട്ടുണ്ട്": 3439,
      "34": 3440,
      "ടോ": 3441,
      "##ിട്ടും": 3442,
      "ശരിയ": 3443,
      "##ദിന": 3444,
      "സമാന": 3445,
      "##ഥി": 3446,
      "ങ്ങളെ": 3447,
      "പലരും": 3448,
      "ദിലീപ്": 3449,
      "55": 3450,
      "മെന്ന്": 3451,
      "##ഗതി": 3452,
      "നേരെ": 3453,
      "നടത്തുന്നത്": 3454,
      "മണ്ഡലത്തില്‍": 3455,
      "##ട്ടാണ്": 3456,
      "##ഞ്ജ": 3457,
      "ക്കൊപ്പം": 3458,
      "37": 3459,
      "കോടതിയില്‍": 3460,
      "മേധ": 3461,
      "ശിക്ഷ": 3462,
      "ഹോട്ട": 3463,
      "##ോറി": 3464,
      "ഇല": 3465,
      "കല്ല": 3466,
      "##റ്റം": 3467,
      "##തിനെ": 3468,
      "സ്ഥിരീകരിച്ചു": 3469,
      "മുണ്ട്": 3470,
      "##വിട്ട": 3471,
      "വിവാഹം": 3472,
      "ഫാ": 3473,
      "ലോട്ട": 3474,
      "പ്രശ": 3475,
      "കര്‍ണാടക": 3476,
      "##നേഹ": 3477,
      "##ിള": 3478,
      "കാത്തി": 3479,
      "കേസിലെ": 3480,
      "റേ": 3481,
      "##ിലായ": 3482,
      "യൂത്ത്": 3483,
      "നഗരസഭ": 3484,
      "ഗൂ": 3485,
      "ഞങ്ങൾ": 3486,
      "യല്ല": 3487,
      "ക്കാനുള്ള": 3488,
      "മാതൃ": 3489,
      "സൂക്ഷ": 3490,
      "##ട്ടില്ല": 3491,
      "##സിൻ": 3492,
      "പ്പോൾ": 3493,
      "ഒരാള്‍": 3494,
      "ബിരു": 3495,
      "ചെലവ": 3496,
      "ചെയ്യുന്നു": 3497,
      "പെൺകു": 3498,
      "മുഴുവന്‍": 3499,
      "അംബ": 3500,
      "##ംസ്": 3501,
      "കാണുന്ന": 3502,
      "അദ്ദേഹത്തെ": 3503,
      "സിപിഐ": 3504,
      "ില്ലെന്ന്": 3505,
      "##സിനെ": 3506,
      "നിര്‍ത്ത": 3507,
      "യുവതി": 3508,
      "ഉത്തരവാദി": 3509,
      "പ്രസിഡന്റ": 3510,
      "ക്യാമ്പ": 3511,
      "പരാമര്‍ശ": 3512,
      "##ടുക്കുന്ന": 3513,
      "ഡോസ്": 3514,
      "ഒടുവ": 3515,
      "അറിയിച്ച": 3516,
      "കമ്പനി": 3517,
      "തസ്തിക": 3518,
      "സിറ്റി": 3519,
      "കൈവ": 3520,
      "നിർമ്മ": 3521,
      "48": 3522,
      "##ീര": 3523,
      "ഒരുപാട്": 3524,
      "തീയ": 3525,
      "കാര്യത്തില്‍": 3526,
      "ിരുന്നത്": 3527,
      "ക്കാൻ": 3528,
      "സാക്ഷ": 3529,
      "##ർത്തു": 3530,
      "സേന": 3531,
      "കരാ": 3532,
      "തിരുവ": 3533,
      "ഡിസം": 3534,
      "ഒട്ട": 3535,
      "കണ്ടു": 3536,
      "അമ്പ": 3537,
      "ങ്ങളില്‍": 3538,
      "റോഡ്": 3539,
      "നൂ": 3540,
      "ലാണ്": 3541,
      "##പ്രതി": 3542,
      "##ണമെന്നാണ്": 3543,
      "വിജയ്": 3544,
      "##ാണിത്": 3545,
      "ഗവര്‍": 3546,
      "പങ്കെടുക്ക": 3547,
      "മീറ്റ": 3548,
      "തുറന്ന": 3549,
      "ബുദ്ധിമു": 3550,
      "ഒരിക്കലും": 3551,
      "ാന": 3552,
      "##ാനായി": 3553,
      "##ിക്കല്‍": 3554,
      "കർഷക": 3555,
      "വർക്ക്": 3556,
      "കൊണ്ടു": 3557,
      "75": 3558,
      "അർ": 3559,
      "ത്തിയ": 3560,
      "േക്കും": 3561,
      "##ദേശിക": 3562,
      "ഉണ്ടായിരുന്ന": 3563,
      "ചീഫ്": 3564,
      "എന്": 3565,
      "ടൂ": 3566,
      "##കർ": 3567,
      "##ര്‍ത്തിയ": 3568,
      "തമിഴ്": 3569,
      "പ്രാദേശിക": 3570,
      "സ്‌കൂള": 3571,
      "വിമാനത്താവള": 3572,
      "പിഴ": 3573,
      "മുന്നണി": 3574,
      "സെക്രട്ടറിയ": 3575,
      "ഓഫീസര്‍": 3576,
      "കൊലപാതക": 3577,
      "ക്കിട": 3578,
      "സഹായം": 3579,
      "അച്ഛ": 3580,
      "ള്ള": 3581,
      "##ിപ്പിച്ചു": 3582,
      "നിര്‍ദേശം": 3583,
      "സംഭവത്തില്‍": 3584,
      "പങ്കെടു": 3585,
      "##ുകൊണ്ടാണ്": 3586,
      "ശബ": 3587,
      "സ്വതന്ത്ര": 3588,
      "വാഗ്ദ": 3589,
      "അതിനിടെ": 3590,
      "വിളിച്ച": 3591,
      "ഗ്രൂപ്പ്": 3592,
      "ലോക്‌സഭാ": 3593,
      "ഒപ്പം": 3594,
      "##പ്തി": 3595,
      "വിദഗ്": 3596,
      "എംഎൽ": 3597,
      "ഇത്രയും": 3598,
      "പണി": 3599,
      "##ഴ്‌സ്": 3600,
      "അത്ര": 3601,
      "പിന്നെ": 3602,
      "റദ്ദ": 3603,
      "വിശ്വസ": 3604,
      "##താഗ": 3605,
      "തമിഴ്‌": 3606,
      "സമ്മേളന": 3607,
      "തായും": 3608,
      "ലു": 3609,
      "##റന്റ": 3610,
      "##ടുള്ള": 3611,
      "അഭിഭാ": 3612,
      "##പ്രവര്‍ത്ത": 3613,
      "പിത": 3614,
      "നിലവിലെ": 3615,
      "ഉപയോഗിച്ച്": 3616,
      "പ്രകട": 3617,
      "ജയരാ": 3618,
      "##ശ്വാസം": 3619,
      "മാണെന്ന്": 3620,
      "ാൽ": 3621,
      "നിന്നു": 3622,
      "താല": 3623,
      "തന്ത്ര": 3624,
      "മാണെന്നും": 3625,
      "##ഘടന": 3626,
      "##ാണം": 3627,
      "കാര്യങ്ങൾ": 3628,
      "സീറ്റുകള്‍": 3629,
      "ജൂലൈ": 3630,
      "70": 3631,
      "നേതൃത്വത്തില്‍": 3632,
      "##ീർ": 3633,
      "നിങ്ങള്‍": 3634,
      "ഫോണ്‍": 3635,
      "ുവെന്ന്": 3636,
      "ഉദ": 3637,
      "നടപ്പില": 3638,
      "സബ്": 3639,
      "വിഷയത്തില്‍": 3640,
      "രാജി": 3641,
      "രേഖപ്പെടുത്തിയ": 3642,
      "ജൂണ്‍": 3643,
      "അശ": 3644,
      "##ഹത്യ": 3645,
      "രാജ്": 3646,
      "ത്തിലും": 3647,
      "##ാളി": 3648,
      "ട്വി": 3649,
      "മദ്യ": 3650,
      "##ത്താണ്": 3651,
      "സിംഗ": 3652,
      "യുഎസ്": 3653,
      "ഇന്ത്യയിലെ": 3654,
      "##ല്‍ക്ക": 3655,
      "ജില്ലയിൽ": 3656,
      "##ോച": 3657,
      "ഇന്ത്യയില്‍": 3658,
      "തൃണമ": 3659,
      "തിൽ": 3660,
      "എന്നിവരാണ്": 3661,
      "ക്ഷണ": 3662,
      "##ിക്കുന്നുണ്ട്": 3663,
      "##ാമി": 3664,
      "##ിലേക്കുള്ള": 3665,
      "ഭരണം": 3666,
      "യുമ": 3667,
      "##ഹ്": 3668,
      "##ക്കാൻ": 3669,
      "##ടക്കം": 3670,
      "മഹാ": 3671,
      "പരിപാടിയ": 3672,
      "പരിശീല": 3673,
      "ഇതിനിടെ": 3674,
      "പാകി": 3675,
      "##ഭരണ": 3676,
      "##പ്ല": 3677,
      "ബാങ്ക്": 3678,
      "അടിയന്തര": 3679,
      "അബ്ദു": 3680,
      "43": 3681,
      "ചല": 3682,
      "യാണെന്ന്": 3683,
      "നടപടികള്‍": 3684,
      "പൂർത്തിയ": 3685,
      "പഴയ": 3686,
      "കെപിസിസി": 3687,
      "##സേന": 3688,
      "കേസുകള്‍": 3689,
      "എംഎൽഎ": 3690,
      "##ഗീയ": 3691,
      "##മിക": 3692,
      "സ്കൂ": 3693,
      "##്യൂട്ടി": 3694,
      "ക്രി": 3695,
      "കോളേജ്": 3696,
      "##തിയും": 3697,
      "തുടങ്ങ": 3698,
      "നിലയില്‍": 3699,
      "##ാശാല": 3700,
      "ഞ്": 3701,
      "##ടനാ": 3702,
      "##ാണെന്ന": 3703,
      "42": 3704,
      "മത്സരിച്ച": 3705,
      "സുരക്ഷി": 3706,
      "38": 3707,
      "കേസെടുത്ത": 3708,
      "തായ": 3709,
      "സന്": 3710,
      "ജനങ്ങള്‍": 3711,
      "##ികളായ": 3712,
      "യെന്നും": 3713,
      "ഉദ്യോഗസ്ഥര്‍": 3714,
      "തെരഞ്ഞെടുപ്പ്": 3715,
      "റെയില്‍": 3716,
      "വാദം": 3717,
      "ഗുണ": 3718,
      "##ീകര": 3719,
      "രാജ്യം": 3720,
      "പ്രചാര": 3721,
      "##ത്തിനായി": 3722,
      "##ർന്നു": 3723,
      "അഭ്യ": 3724,
      "സംഭവിച്ച": 3725,
      "ചൂണ്ടിക്ക": 3726,
      "ബസ്": 3727,
      "##രാമ": 3728,
      "##ികൾക്ക്": 3729,
      "##ിച്ചാണ്": 3730,
      "വ്യക്": 3731,
      "പാര്‍ല": 3732,
      "തമ്മിലുള്ള": 3733,
      "വിധേയ": 3734,
      "',": 3735,
      "തിരിച്ചടി": 3736,
      "പുറത്തുവന്ന": 3737,
      "വ്യാപക": 3738,
      "##പ്പെടു": 3739,
      "തുടക്ക": 3740,
      "ആവശ്യപ്പെട്ട": 3741,
      "ഫെബ്ര": 3742,
      "ചൂണ്ടിക്കാട്ടി": 3743,
      "ധാരണ": 3744,
      "നിമി": 3745,
      "ബാബു": 3746,
      "യ്ക്കും": 3747,
      "യാദ": 3748,
      "വ്യവസ": 3749,
      "പ്രണ": 3750,
      "തിങ്ക": 3751,
      "വോട്ടുകള്‍": 3752,
      "കയ്യ": 3753,
      "ചെന്നൈ": 3754,
      "സാമൂഹിക": 3755,
      "##കലാശാല": 3756,
      "റണ്‍": 3757,
      "##ശേഷ": 3758,
      "##റ്റീവ്": 3759,
      "സേവന": 3760,
      "ചെയ്യാൻ": 3761,
      "മൃതദേഹം": 3762,
      "ഇപ്പോഴ": 3763,
      "##രിത": 3764,
      "സംവിധാനം": 3765,
      "ത്തിലാണ്": 3766,
      "മൊബൈ": 3767,
      "##ിനോട്": 3768,
      "##മിച്ച്": 3769,
      "പേരിൽ": 3770,
      "##ണക്ക": 3771,
      "നിങ്ങൾ": 3772,
      "##ിക്കുകയാണ്": 3773,
      "അദ്ദേഹത്തിന്": 3774,
      "പഠന": 3775,
      "യ്‌": 3776,
      "തേടിയ": 3777,
      "##ാക്കാൻ": 3778,
      "വിചാരണ": 3779,
      "സ്വാധീന": 3780,
      "സാഹചര്യത്തിൽ": 3781,
      "താഴെ": 3782,
      "സമാധാന": 3783,
      "ചെയ്‌": 3784,
      "അഡ": 3785,
      "ഖത്ത": 3786,
      "വായി": 3787,
      "അനുവദിക്ക": 3788,
      "ഗണ": 3789,
      "##യു": 3790,
      "വിസ": 3791,
      "വാങ്ങിയ": 3792,
      "ഞെട്ട": 3793,
      "##ർട്ട്": 3794,
      "##ങ്ങളായി": 3795,
      "വ്യാഴ": 3796,
      "ആദ്യമായി": 3797,
      "ആക്രമണം": 3798,
      "മണ്ണ": 3799,
      "ശബ്": 3800,
      "##ർമ": 3801,
      "##ന്‍ഡ്": 3802,
      "##നെതിരെ": 3803,
      "കുറിച്ചു": 3804,
      "ഡൽ": 3805,
      "പ്": 3806,
      "##റ്റില്‍": 3807,
      "യുക്ര": 3808,
      "അഡ്": 3809,
      "സജ്ജ": 3810,
      "##ഡു": 3811,
      "##മെന്ന": 3812,
      "##ിക്കാഴ്ച": 3813,
      "ത്‌": 3814,
      "കൂടിക്കാഴ്ച": 3815,
      "ടിക്കറ്റ്": 3816,
      "##ുമ്പോ": 3817,
      "ഫിറോ": 3818,
      "##േര": 3819,
      "മൂലം": 3820,
      "പോരാട്ട": 3821,
      "ഗുജറാ": 3822,
      "##മറ": 3823,
      "ആറ": 3824,
      "മുല്ല": 3825,
      "അസി": 3826,
      "യാക": 3827,
      "##്യു": 3828,
      "##സ്‌ട്ര": 3829,
      "ആയു": 3830,
      "വീട്ടിൽ": 3831,
      "റില": 3832,
      "ജീവിതം": 3833,
      "പൊലി": 3834,
      "ങ്ങളാണ്": 3835,
      "സൂപ്പ": 3836,
      "ഭാഷ": 3837,
      "അജ": 3838,
      "രോഗബ": 3839,
      "പെരുമാ": 3840,
      "ചൂണ്ടിക്കാണ": 3841,
      "##ന്‍ഡ": 3842,
      "ന്യൂന": 3843,
      "ബ്രിട്ട": 3844,
      "തിരികെ": 3845,
      "44": 3846,
      "ഓണ്‍": 3847,
      "##പിഎ": 3848,
      "പേര്‍ക്കും": 3849,
      "ശൈ": 3850,
      "ഭൂമി": 3851,
      "പദവി": 3852,
      "പ്രവാസ": 3853,
      "സാമ്പിള": 3854,
      "ഗവ": 3855,
      "ത്തിലേക്ക്": 3856,
      "##പ്പെടുന്നു": 3857,
      "അധികം": 3858,
      "പ്രമേ": 3859,
      "കോർ": 3860,
      "##വര്‍ക്ക്": 3861,
      "വിഷയം": 3862,
      "ശബരി": 3863,
      "അഭിഭാഷക": 3864,
      "മല്‍": 3865,
      "ആരംഭിച്ച": 3866,
      "##ജീവി": 3867,
      "ഹൃ": 3868,
      "##ായിരിക്കും": 3869,
      "രഹ": 3870,
      "പെട്ര": 3871,
      "സ്‌റ്റ": 3872,
      "മോഹന്‍": 3873,
      "പെണ്‍കുട്ട": 3874,
      "39": 3875,
      "ആന്റ": 3876,
      "##ലങ്ക": 3877,
      "കുത്ത": 3878,
      "സ്ഥാനാർത്ഥി": 3879,
      "ഇള": 3880,
      "വച്ച്": 3881,
      "സച്ചി": 3882,
      "ിന്റെ": 3883,
      "##ർപ്പ": 3884,
      "##ിക്കുമെന്ന്": 3885,
      "##ിക്കുകയായിരുന്നു": 3886,
      "സുരേന്ദ്രന്‍": 3887,
      "##സിക": 3888,
      "കളിലും": 3889,
      "വ്യക്തമാക്കുന്നു": 3890,
      "കണ്ട്": 3891,
      "ഞായ": 3892,
      "ജനുവരി": 3893,
      "വയസ": 3894,
      "##കോട": 3895,
      "##ക്കര": 3896,
      "തമ്മില്‍": 3897,
      "##ോമീറ്റ": 3898,
      "';": 3899,
      "അന്ന": 3900,
      "സംവിധ": 3901,
      "തീര": 3902,
      "ബ്ലോ": 3903,
      "അല്‍": 3904,
      "കശ്മ": 3905,
      "##ആർ": 3906,
      "അംഗീകരിക്ക": 3907,
      "ഇല്ലാത": 3908,
      "2020": 3909,
      "കയറി": 3910,
      "കിലോമീറ്റ": 3911,
      "പരിചയ": 3912,
      "തള്ളി": 3913,
      "ബൂ": 3914,
      "##ാവില്ല": 3915,
      "ിട്ടും": 3916,
      "ാം": 3917,
      "നീതി": 3918,
      "മീഡിയയില്‍": 3919,
      "ഭി": 3920,
      "മുക": 3921,
      "നീണ്ട": 3922,
      "കാലം": 3923,
      "ഭരണകൂ": 3924,
      "!!": 3925,
      "ുവെന്ന": 3926,
      "അണ": 3927,
      "##ംപ്": 3928,
      "തിരെ": 3929,
      "ഉണ്ടാകും": 3930,
      "പക്ഷെ": 3931,
      "സ്വപ്ന": 3932,
      "രാശിക്കാര്‍": 3933,
      "അഫ്": 3934,
      "##ുമായുള്ള": 3935,
      "ജാമ്യം": 3936,
      "##ടിച്ച": 3937,
      "##നിൽ": 3938,
      "##ികളാണ്": 3939,
      "പോകുന്നത്": 3940,
      "കോണ്‍ഗ്രസില്‍": 3941,
      "ചൗ": 3942,
      "നശ": 3943,
      "##ിയോടെ": 3944,
      "പ്രതികരിച്ചു": 3945,
      "ആവശ്യപ്പെട്ട്": 3946,
      "2016": 3947,
      "അന്താരാഷ്ട്ര": 3948,
      "വരാ": 3949,
      "##േറിയ": 3950,
      "സ്ഥാനാര്‍ഥ": 3951,
      "##ൂരിലെ": 3952,
      "ഇതിൽ": 3953,
      "##ബല": 3954,
      "സന്ദർശ": 3955,
      "##ശേരി": 3956,
      "##തിയായ": 3957,
      "മരിച്ചത്": 3958,
      "അധികൃതര്‍": 3959,
      "ആഴ്ച": 3960,
      "##ാക്കുന്നത്": 3961,
      "എത്തുന്ന": 3962,
      "തുടരുക": 3963,
      "മേധാവി": 3964,
      "ടൂറി": 3965,
      "തിങ്കള": 3966,
      "അപ്ര": 3967,
      "ക്കാ": 3968,
      "##ഹിത": 3969,
      "മാര്‍ച്ച്": 3970,
      "കൗണ്‍": 3971,
      "കാന": 3972,
      "ശോഭ": 3973,
      "##ില്യ": 3974,
      "ങ്ങളിൽ": 3975,
      "കുമാർ": 3976,
      "വിദഗ്ധ": 3977,
      "എവിടെ": 3978,
      "ജസ്റ്റി": 3979,
      "##തിന്റെ": 3980,
      "നിലനി": 3981,
      "അഴിമതി": 3982,
      "കൊച്ച": 3983,
      "##യിട": 3984,
      "വൈസ്": 3985,
      "എതിരെ": 3986,
      "നെഗ": 3987,
      "നവംബ": 3988,
      "കുഴ": 3989,
      "സാന്നി": 3990,
      "പേർക്ക്": 3991,
      "രീതി": 3992,
      "ശാസ്ത്ര": 3993,
      "കോര്‍പ്പറ": 3994,
      "##േബ": 3995,
      "##സ്സ്": 3996,
      "പത്ര": 3997,
      "##ലിൽ": 3998,
      "##ര്‍ശന": 3999,
      "##പ്രദേശ്": 4000,
      "##നില": 4001,
      "പരമ": 4002,
      "അംഗീക": 4003,
      "എയര്‍": 4004,
      "##ൊന്ന": 4005,
      "മന്ത്രിസഭ": 4006,
      "ബാധിച്ച": 4007,
      "ഗോപി": 4008,
      "സ്വന്തമ": 4009,
      "ക്വാറന്റ": 4010,
      "ജ്യോ": 4011,
      "##ുവിനെ": 4012,
      "##ക്ടോ": 4013,
      "##ര്‍ട്ട്": 4014,
      "മത്സ്യ": 4015,
      "മിനി": 4016,
      "##ർമ്മ": 4017,
      "##യായിരുന്നു": 4018,
      "കാട്ട": 4019,
      "ഡിജി": 4020,
      "##ാക്കള്‍": 4021,
      "##ാരിക": 4022,
      "##ോളജി": 4023,
      "പാസ": 4024,
      "വട": 4025,
      "##ങ്ങ്": 4026,
      "##ഴ്സ്": 4027,
      "##പ്പന": 4028,
      "പ്രതികരണ": 4029,
      "ലക്ഷ്യ": 4030,
      "അയച്ച": 4031,
      "മുതിര്‍ന്ന": 4032,
      "താലി": 4033,
      "##ിയുള്ള": 4034,
      "##ാക്കും": 4035,
      "മറ്റുള്ള": 4036,
      "ടൈ": 4037,
      "തര്‍ക്ക": 4038,
      "##ഭി": 4039,
      "ക്കുകയായിരുന്നു": 4040,
      "പ്രകടന": 4041,
      "രീതിയ": 4042,
      "കർണാടക": 4043,
      "സിന്ധ്യ": 4044,
      "വെബ്": 4045,
      "അടുത്തിടെ": 4046,
      "റിപ്പോര്‍ട്ടുകള്‍": 4047,
      "ഏതെങ്കിലും": 4048,
      "ഇരുവരും": 4049,
      "ചാണ്ടി": 4050,
      "വക": 4051,
      "ക്കുകയും": 4052,
      "ഗ്രഹ": 4053,
      "എമ്മ": 4054,
      "##സ്തി": 4055,
      "ട്രെയ": 4056,
      "ഉടന്‍": 4057,
      "പരിപാടി": 4058,
      "വനിത": 4059,
      "##ങ്ങനെയ": 4060,
      "##കളാണ്": 4061,
      "##ബിഐ": 4062,
      "ഡോക്ടര്‍": 4063,
      "മാനേജ": 4064,
      "പരിപാട": 4065,
      "വച്ച": 4066,
      "##പ്പില്‍": 4067,
      "കണക്ക്": 4068,
      "ന്യ": 4069,
      "ഹർ": 4070,
      "##നായി": 4071,
      "പ്രദ": 4072,
      "ശരീ": 4073,
      "##ങ്ങളോട്": 4074,
      "വിജയന്‍": 4075,
      "ട്വിറ്റ": 4076,
      "ഷെ": 4077,
      "##ഫ്ര": 4078,
      "##ർത്തിയ": 4079,
      "##ക്ഷിണ": 4080,
      "വെള്ളം": 4081,
      "49": 4082,
      "ഒപ്പ": 4083,
      "##യ്ക്കുന്ന": 4084,
      "കുറയ": 4085,
      "സ്വദേശിയായ": 4086,
      "നമ്മള്‍": 4087,
      "ലോട്ടറി": 4088,
      "ത്തു": 4089,
      "##ഞ്ചേരി": 4090,
      "സിനിമാ": 4091,
      "ജനറൽ": 4092,
      "സന്തോ": 4093,
      "എഎ": 4094,
      "##ൊക്ക": 4095,
      "##ായിക": 4096,
      "##ാക്കുക": 4097,
      "ജനങ്ങളുടെ": 4098,
      "എൽഡിഎ": 4099,
      "പൈല": 4100,
      "ഉദ്ഘാടനം": 4101,
      "ഭാഗത്ത്": 4102,
      "പ്രചാരണം": 4103,
      "41": 4104,
      "##കൃഷ്ണ": 4105,
      "##ിട്ടുള്ളത്": 4106,
      "തീരുമാനിച്ച": 4107,
      "കൂട്ടിച്ചേര്‍ത്തു": 4108,
      "ഗെ": 4109,
      "കുറിപ്പ": 4110,
      "##ത്രിക": 4111,
      "കണ്ടെത്തി": 4112,
      "ആത്മഹത്യ": 4113,
      "##ാന്ത്": 4114,
      "##ദിത്യ": 4115,
      "തൊഴില്‍": 4116,
      "വാക്സിന": 4117,
      "46": 4118,
      "ഇതാണ്": 4119,
      "മരിച്ചു": 4120,
      "നേരിടുന്ന": 4121,
      "സഹോദര": 4122,
      "സര്‍ക്കാര": 4123,
      "സ്വാതന്ത്ര്യ": 4124,
      "സംവിധായക": 4125,
      "തായിരുന്നു": 4126,
      "ദക്ഷിണ": 4127,
      "പിറ": 4128,
      "ിരിക്കുന്നു": 4129,
      "കലാപ": 4130,
      "എല്‍ഡിഎഫ": 4131,
      "തൂ": 4132,
      "##രുത്തി": 4133,
      "##ങ്കേ": 4134,
      "കാര്യമ": 4135,
      "ത്തിലൂടെ": 4136,
      "തിനും": 4137,
      "ഇല്ലാത്ത": 4138,
      "ഫോട്ടോ": 4139,
      "##പതി": 4140,
      "##പുരം": 4141,
      "നടത്തിയിരുന്നു": 4142,
      "ട്രംപ്": 4143,
      "##േക്കാള്‍": 4144,
      "പരിക്കേറ്റ": 4145,
      "47": 4146,
      "65": 4147,
      "ടാ": 4148,
      "##റുകള്‍": 4149,
      "##ിനീയ": 4150,
      "##രാജ്": 4151,
      "വരെയുള്ള": 4152,
      "##ക്കുക": 4153,
      "എല്‍ഡിഎഫ്": 4154,
      "വേണു": 4155,
      "ിരുന്നില്ല": 4156,
      "ഏജന്‍": 4157,
      "##േക്കും": 4158,
      "ക്കേണ്ട": 4159,
      "##കള്‍ക്ക്": 4160,
      "ചേര്‍ന്ന്": 4161,
      "റെക്കോ": 4162,
      "സ്പീക്ക": 4163,
      "രജിസ്റ്റര്‍": 4164,
      "സമുദ": 4165,
      "ഹൃദ": 4166,
      "കുന്ന": 4167,
      "വോ": 4168,
      "മാവ": 4169,
      "ആവശ്യമായ": 4170,
      "കിടക്ക": 4171,
      "സുധാകരന്‍": 4172,
      "##ാരായ": 4173,
      "##തിരായ": 4174,
      "ന്യൂഡ": 4175,
      "കൃത്യമായ": 4176,
      "##ര്‍ഡ്": 4177,
      "##ക്‌സ്": 4178,
      "യൂണി": 4179,
      "ശബരിമല": 4180,
      "##ീത": 4181,
      "ത്തിനായി": 4182,
      "തിരിച്ചടിയ": 4183,
      "ഓഫീസ്": 4184,
      "പ്രവര്‍ത്തനങ്ങള്‍": 4185,
      "##ടിപ്പിച്ച": 4186,
      "ആരോഗ": 4187,
      "സഹക": 4188,
      "സുഹൃത്തു": 4189,
      "തുടര്‍ന്നാണ്": 4190,
      "വിപണ": 4191,
      "കൊണ്ടുപോ": 4192,
      "അറേബ": 4193,
      "##ത്തിനും": 4194,
      "##മാരും": 4195,
      "##തിനായി": 4196,
      "ഇടത്": 4197,
      "അറേബ്യ": 4198,
      "52": 4199,
      "##ാലോചന": 4200,
      "ഗതാഗ": 4201,
      "മയ": 4202,
      "##രാശ": 4203,
      "പ്രവൃ": 4204,
      "പരസ": 4205,
      "അഡ്വ": 4206,
      "ജ്യോതി": 4207,
      "വടക്ക": 4208,
      "##ായാലും": 4209,
      "##ിലേക്കും": 4210,
      "ത്തിനു": 4211,
      "പ്രതിപക്ഷം": 4212,
      "##ര്‍ഡ": 4213,
      "##ിക്കൊ": 4214,
      "കിഴ": 4215,
      "ആശുപത്രിയിൽ": 4216,
      "അവി": 4217,
      "##റ്റു": 4218,
      "##ിപ്പിക്ക": 4219,
      "##ികളില്‍": 4220,
      "##ുണ്ടായിരുന്ന": 4221,
      "ുണ്ടായിരുന്നു": 4222,
      "ഏകദേശം": 4223,
      "താലിബ": 4224,
      "നിര്‍ണായക": 4225,
      "പാര്‍ട്ടിയ": 4226,
      "90": 4227,
      "ഒക്ടോ": 4228,
      "യുമാണ്": 4229,
      "വന്ന്": 4230,
      "ശനിയ": 4231,
      "പിൻ": 4232,
      "ത്തോടെ": 4233,
      "##യ്ക്കും": 4234,
      "##ുള്ളിൽ": 4235,
      "##െടുത്ത്": 4236,
      "അറിയിച്ചത്": 4237,
      "മുന്നോട്ട": 4238,
      "നേതാക്കളെ": 4239,
      "തരംഗ": 4240,
      "നില്‍ക്കുന്ന": 4241,
      "മെന്നും": 4242,
      "ക്കാനും": 4243,
      "അപമാന": 4244,
      "ഉത്തര്‍": 4245,
      "2022": 4246,
      "ജില്ലകളില്‍": 4247,
      "ിട്ടുണ്ടെന്നും": 4248,
      "##േറെ": 4249,
      "പ്രതിനിധ": 4250,
      "##വ്വാ": 4251,
      "199": 4252,
      "കൃത്യമായി": 4253,
      "ഘടക": 4254,
      "##ോണി": 4255,
      "##സര": 4256,
      "ചികിത്സയില": 4257,
      "54": 4258,
      "നിയമനം": 4259,
      "സമ്മതി": 4260,
      "കമ്മിറ്റ": 4261,
      "പ്രശ്‌നങ്ങള്‍": 4262,
      "കെട്ടിട": 4263,
      "ഗ്": 4264,
      "##യിച്ച": 4265,
      "##മന": 4266,
      "##ാകെ": 4267,
      "ജോർ": 4268,
      "##മന്ത്ര": 4269,
      "##ിയാ": 4270,
      "അവര്‍ക്ക്": 4271,
      "പരമാവധി": 4272,
      "കുതി": 4273,
      "വേള": 4274,
      "മോശ": 4275,
      "പ്രചരണ": 4276,
      "താത്": 4277,
      "##ര്‍മ്മ": 4278,
      "ആശയ": 4279,
      "സ്ഥാനത്ത്": 4280,
      "മന്ത്രാലയം": 4281,
      "##നിട": 4282,
      "പോലുള്ള": 4283,
      "കാലയ": 4284,
      "ചോദിച്ച": 4285,
      "കണ്ടെത്തിയത്": 4286,
      "വിളിച്ച്": 4287,
      "മുകള": 4288,
      "##ീതി": 4289,
      "##രുമായി": 4290,
      "പുറമെ": 4291,
      "വിജയിച്ച": 4292,
      "കുടുംബം": 4293,
      "ഭര്‍ത്ത": 4294,
      "ക്കുക": 4295,
      "##ംഗളൂ": 4296,
      "##്യമന്ത്രി": 4297,
      "തന്നെയ": 4298,
      "തേട": 4299,
      "ാലും": 4300,
      "##ംഗ്ല": 4301,
      "കാണാന്‍": 4302,
      "വീട്ടിലെ": 4303,
      "പള്ള": 4304,
      "##ടുപ്പ": 4305,
      "നിഷേധ": 4306,
      "മുറ": 4307,
      "മാനസിക": 4308,
      "##ത്തിനിടെ": 4309,
      "##ജിത്": 4310,
      "പിന്‍വല": 4311,
      "പന്ത": 4312,
      "##ീന്ദ്ര": 4313,
      "വിട്ട്": 4314,
      "വിമര്‍ശന": 4315,
      "##ജന്യ": 4316,
      "കുടു": 4317,
      "മറിക": 4318,
      "ബൈഡ": 4319,
      "ഉദ്ധ": 4320,
      "കേരളത്തിന്റെ": 4321,
      "മുന്നിൽ": 4322,
      "സുധാകര": 4323,
      "##ബോ": 4324,
      "##െയര്‍": 4325,
      "2018": 4326,
      "മാര്‍ഗ": 4327,
      "വാക്സിൻ": 4328,
      "അറിഞ്ഞ": 4329,
      "ഭാഗ്യ": 4330,
      "പാർട്ടിയ": 4331,
      "##ുഴ": 4332,
      "##െടുപ്പ്": 4333,
      "വെറും": 4334,
      "ഉപതി": 4335,
      "സഖ്യം": 4336,
      "അഖില": 4337,
      "കേട്ട": 4338,
      "രൂപയും": 4339,
      "ആളുകൾ": 4340,
      "ലാഭ": 4341,
      "പ്രൊഫ": 4342,
      "##ൂട്ടി": 4343,
      "ഹാജര": 4344,
      "##ണക്കിന്": 4345,
      "യാള": 4346,
      "അറിയാം": 4347,
      "അതിനെ": 4348,
      "എന്തിന": 4349,
      "പ്രി": 4350,
      "മുഖ്യ": 4351,
      "അടച്ച": 4352,
      "##തീഷ്": 4353,
      "ഉപതിരഞ്ഞെടു": 4354,
      "##ഘട്ട": 4355,
      "##ഥമിക": 4356,
      "##ന്‍സ": 4357,
      "സമി": 4358,
      "ഏറ്റുമ": 4359,
      "അഫ്ഗ": 4360,
      "ബേ": 4361,
      "ചേർന്ന": 4362,
      "തിരഞ്ഞെടുപ്പിന്": 4363,
      "ഇതിനെ": 4364,
      "ശമ്പളം": 4365,
      "കവ": 4366,
      "##ൈവ": 4367,
      "##പിത": 4368,
      "മുന്നണ": 4369,
      "നേരത്തേ": 4370,
      "ഇവര്‍ക്ക്": 4371,
      "വൈദ്യുതി": 4372,
      "ബാന": 4373,
      "##മെന്നാണ്": 4374,
      "##മൊരു": 4375,
      "പ്രേക്ഷ": 4376,
      "##കുമാര്‍": 4377,
      "ഇക്കാര്യത്തില്‍": 4378,
      "ഫെബ്രുവരി": 4379,
      "കപ്പ": 4380,
      "##വകു": 4381,
      "ഇന്നത്തെ": 4382,
      "##ര്‍ഷ": 4383,
      "കുറ്റപ്പെടുത്തി": 4384,
      "വ്യക്തമാക്കുന്നത്": 4385,
      "മുതിർന്ന": 4386,
      "അസിസ്റ്റ": 4387,
      "ഇക്ക": 4388,
      "വരുന്നു": 4389,
      "ഉപയോഗിച്ച": 4390,
      "##യുമായി": 4391,
      "##വാസി": 4392,
      "മൂന്നു": 4393,
      "പ്രാഥമിക": 4394,
      "വേദന": 4395,
      "##‌മെന്റ്": 4396,
      "ബാബ": 4397,
      "ഭീകര": 4398,
      "നിയമന": 4399,
      "സഹകരണ": 4400,
      "ഭക്ഷണം": 4401,
      "മെന്ന": 4402,
      "ുമ്പ": 4403,
      "##ശേഖ": 4404,
      "##ിക്കു": 4405,
      "##ദ്വ": 4406,
      "##ഗ്ഗ": 4407,
      "##ക്ട്ര": 4408,
      "ഭക്ഷണ": 4409,
      "സർക്കാരിന്റെ": 4410,
      "സാമൂഹ്യ": 4411,
      "ക്കണം": 4412,
      "പേര്‍ക്കാണ്": 4413,
      "രമ": 4414,
      "ുക": 4415,
      "##തിൽ": 4416,
      "എതിര്‍": 4417,
      "പശ്ചാത്തലത്തില്‍": 4418,
      "ശക്തമായി": 4419,
      "കസ്റ്റഡിയ": 4420,
      "ഒക്കെ": 4421,
      "കടുവ": 4422,
      "ഗെയി": 4423,
      "താക്ക": 4424,
      "##ളയ": 4425,
      "##ഹാറ": 4426,
      "വന്നിരുന്നു": 4427,
      "ഉദ്ദേശ": 4428,
      "തുറന്ന്": 4429,
      "കൂട്ടിച്ചേർത്തു": 4430,
      "അട്ടി": 4431,
      "ക്കുന്നത്": 4432,
      "ലഭിച്ചു": 4433,
      "പഞ്ചാബ": 4434,
      "നേതാക്കളുടെ": 4435,
      "സോഷ്യൽ": 4436,
      "വ്യക്തമാക്കിയിരുന്നു": 4437,
      "ഞങ്ങളുടെ": 4438,
      "##ാസി": 4439,
      "##ര്‍ദ്ദ": 4440,
      "സംഘടിപ്പ": 4441,
      "ുവെന്നാണ്": 4442,
      "##ഴ്‌സ": 4443,
      "സമുദായ": 4444,
      "മാതൃക": 4445,
      "##െന്റ്": 4446,
      "##ക്കിൽ": 4447,
      "##ക്കാരുടെ": 4448,
      "സംഭ": 4449,
      "##്യമുള്ള": 4450,
      "കാപ്പ": 4451,
      "ഭൂമ": 4452,
      "മുൻപ്": 4453,
      "തിങ്കളാഴ്ച": 4454,
      "യിലൂടെ": 4455,
      "##ശങ്ക": 4456,
      "##ന്മ": 4457,
      "##ില്ലാത്ത": 4458,
      "പോയത്": 4459,
      "500": 4460,
      "പാത": 4461,
      "നടത്തും": 4462,
      "തേടി": 4463,
      "വ്യവസ്ഥ": 4464,
      "സ്റ്റേഷന": 4465,
      "ഭൂരിപക്ഷം": 4466,
      "51": 4467,
      "എഫ": 4468,
      "ത്ത്": 4469,
      "കാസർ": 4470,
      "##്യൂണി": 4471,
      "മമ്മ": 4472,
      "സൗജന്യ": 4473,
      "ഉത്തരവ്": 4474,
      "ഒള": 4475,
      "ചാ": 4476,
      "ലേക്ക്": 4477,
      "##ായില്ല": 4478,
      "##സ്‌ക്": 4479,
      "സുപ്രീംകോട": 4480,
      "കത്ത": 4481,
      "ശ്": 4482,
      "##ദാ": 4483,
      "നേട്ടം": 4484,
      "കളില": 4485,
      "##ഴിഞ്ഞ്": 4486,
      "ടെസ്റ്റ്": 4487,
      "വിവരങ്ങൾ": 4488,
      "ചൊവ്വാ": 4489,
      "സമര്‍പ്പ": 4490,
      "അത്യ": 4491,
      "നായിരുന്നു": 4492,
      "##ുകാർ": 4493,
      "സംസ്ഥാനങ്ങളില്‍": 4494,
      "ആലോച": 4495,
      "##ദണ്ഡ": 4496,
      "പ്രതിഫ": 4497,
      "മേഖലയിലെ": 4498,
      "2017": 4499,
      "യുവാവ": 4500,
      "ഒരാള": 4501,
      "മലയാളി": 4502,
      "ബാഗ": 4503,
      "##റിനെ": 4504,
      "ക്കി": 4505,
      "നിലയിൽ": 4506,
      "വുമ": 4507,
      "നല്‍കാന്‍": 4508,
      "നേതാക്കളും": 4509,
      "അഭിനന്ദ": 4510,
      "ആഗോള": 4511,
      "ബിരുദ": 4512,
      "എയർ": 4513,
      "പടി": 4514,
      "##തുവ": 4515,
      "സംഭവത്തിൽ": 4516,
      "പ്രവര്‍ത്തിക്കുന്ന": 4517,
      "തിരിച്ചറിയ": 4518,
      "മാനദണ്ഡ": 4519,
      "അക്കൗണ്ട": 4520,
      "##ളുപ്പ": 4521,
      "##ാന്റെ": 4522,
      "സാങ്കേ": 4523,
      "കൃഷി": 4524,
      "##െത്തി": 4525,
      "##രെയും": 4526,
      "##ൈന്‍": 4527,
      "##ൃതി": 4528,
      "ക്കാനാണ്": 4529,
      "സ്ഥലം": 4530,
      "സൗകര": 4531,
      "ബംഗാള": 4532,
      "വെളിപ്പെടുത്ത": 4533,
      "സിവ": 4534,
      "##‌നം": 4535,
      "തുടക്കം": 4536,
      "സ്റ്റാ": 4537,
      "വൻ": 4538,
      "##േഷനില്‍": 4539,
      "57": 4540,
      "##ാലയ": 4541,
      "##ിലേറെ": 4542,
      "നിയോഗ": 4543,
      "റ്റി": 4544,
      "തൃണമൂ": 4545,
      "##ത്തിനെതിരെ": 4546,
      "എന്നു": 4547,
      "വാങ്ങി": 4548,
      "താലൂ": 4549,
      "വേണുഗോപ": 4550,
      "##കുന്ന": 4551,
      "##രിപ്പിച്ച": 4552,
      "##വാഹ": 4553,
      "പ്രധാനമന്ത്ര": 4554,
      "ഉള്‍പ്പെടെയുള്ള": 4555,
      "സ്വർണ": 4556,
      "സാങ്കേതിക": 4557,
      "സീനിയ": 4558,
      "അധികാരം": 4559,
      "സിദ്ധ": 4560,
      "മത്സരം": 4561,
      "ഉറപ്പ്": 4562,
      "സാധ്യതയുണ്ട്": 4563,
      "വെല്ലുവിളി": 4564,
      "##പ്പടെ": 4565,
      "തിരിച്ച്": 4566,
      "വര്‍ദ്ധ": 4567,
      "##സ്റ്റർ": 4568,
      "##കോട്": 4569,
      "##ന്‍സി": 4570,
      "ജനങ്ങളെ": 4571,
      "മുന്നേറ്റ": 4572,
      "തൃക്ക": 4573,
      "എന്‍സി": 4574,
      "##ഷണല്‍": 4575,
      "##ഡോ": 4576,
      "കുവൈ": 4577,
      "നിലനില്‍": 4578,
      "മണ്ഡലത്തിൽ": 4579,
      "പെട്ടെന്ന്": 4580,
      "ഐസ": 4581,
      "ഡിവ": 4582,
      "വിഷ്ണ": 4583,
      "##ില്ലെന്ന": 4584,
      "##വ്വേ": 4585,
      "ഇടപ": 4586,
      "തിനു": 4587,
      "കര്‍ഷ": 4588,
      "നടപടികൾ": 4589,
      "പ്രകാര": 4590,
      "വോട്ടര്‍": 4591,
      "കൊല്ലപ്പെട്ട": 4592,
      "##ര്‍ത്ഥ": 4593,
      "##ിക്കാനും": 4594,
      "പ്രഖ്യാപനം": 4595,
      "ആഗ്രഹിക്കുന്ന": 4596,
      "അധ്യാപക": 4597,
      "ഡല്‍ഹി": 4598,
      "##ത്തോട്": 4599,
      "##ിക്കുമെന്നും": 4600,
      "##ങ്കില്‍": 4601,
      "##സ്ഥാന്‍": 4602,
      "അന്തി": 4603,
      "അനുവദിച്ച": 4604,
      "56": 4605,
      "ശ്രമിക്കുന്ന": 4606,
      "തോന്നിയ": 4607,
      "ഇസ്രായേ": 4608,
      "ഗവര്‍ണര്‍": 4609,
      "നന്ന": 4610,
      "കളക്ടര്‍": 4611,
      "കുറിപ്പ്": 4612,
      "##പ്പുറ": 4613,
      "നല്‍കിയിട്ടുണ്ട്": 4614,
      "പഞ്ചായത്ത": 4615,
      "ചൈനീസ്": 4616,
      "58": 4617,
      "കെഎസ്": 4618,
      "പിന്നില്‍": 4619,
      "##പ്പെടും": 4620,
      "രീതിയിൽ": 4621,
      "പാകിസ്ത": 4622,
      "കാനഡ": 4623,
      "ടീം": 4624,
      "ില്‍": 4625,
      "##ജ്യ": 4626,
      "##ൂരിൽ": 4627,
      "അറിയിച്ചിരുന്നു": 4628,
      "ില്ലെന്ന": 4629,
      "നല്‍കിയിരുന്നു": 4630,
      "##സാദ്": 4631,
      "വൈറല": 4632,
      "ബാക്കി": 4633,
      "തെറ്റി": 4634,
      "ചിലര്‍": 4635,
      "ച്ചു": 4636,
      "അങ്ങ": 4637,
      "വാര": 4638,
      "##ിലാ": 4639,
      "##ിയാഴ്ച": 4640,
      "പിടിയ": 4641,
      "പറയാന്‍": 4642,
      "ുണ്ടെന്നും": 4643,
      "ഉടൻ": 4644,
      "ഐക്യ": 4645,
      "##ക്രിയ": 4646,
      "കോടതിയെ": 4647,
      "##ക്കാരെ": 4648,
      "എന്തെങ്കിലും": 4649,
      "വരുത്ത": 4650,
      "ള്‍": 4651,
      "വിന്": 4652,
      "കാറ്റ": 4653,
      "##ുണ്ടെന്ന്": 4654,
      "ക്ലാസ്": 4655,
      "പങ്കുവെച്ച": 4656,
      "അരു": 4657,
      "##ീയം": 4658,
      "വാര്‍ഡ": 4659,
      "പശ്ചിമ": 4660,
      "തള": 4661,
      "##ിക്കെതിരെ": 4662,
      "കളി": 4663,
      "തിരുവനന്തപുരത്ത്": 4664,
      "മുഴുവൻ": 4665,
      "ഒമ്പ": 4666,
      "യുണ്ട്": 4667,
      "റീ": 4668,
      "##ജ്ര": 4669,
      "##ങ്ങാട്": 4670,
      "തുടര്‍ച്ച": 4671,
      "രംഗത്ത": 4672,
      "ഗം": 4673,
      "ബില്ല": 4674,
      "##റാഴ്ച": 4675,
      "##ക്രോ": 4676,
      "ബിജെപിയെ": 4677,
      "ബുധനാ": 4678,
      "തീയതി": 4679,
      "വാഗ്ദാനം": 4680,
      "ഞായറാഴ്ച": 4681,
      "##ാക്കണം": 4682,
      "ബെംഗളൂ": 4683,
      "പുതുതായി": 4684,
      "വര്‍ക്ക": 4685,
      "##വില്‍": 4686,
      "##ഞ്ജു": 4687,
      "വെടി": 4688,
      "പുറമേ": 4689,
      "പ്രവര്‍ത്തനം": 4690,
      "യോഗി": 4691,
      "സീറ്റില്‍": 4692,
      "പിടിച്ചു": 4693,
      "2023": 4694,
      "പാര്‍ട്ടിയുടെ": 4695,
      "പ്രവൃത്തി": 4696,
      "##കി": 4697,
      "##സ്മ": 4698,
      "53": 4699,
      "ദൗ": 4700,
      "യിലുള്ള": 4701,
      "ിട്ട്": 4702,
      "##മാക്കി": 4703,
      "നല്‍കുന്നത്": 4704,
      "രോഗമുക്തി": 4705,
      "ജസ്റ്റിസ്": 4706,
      "സിങ്": 4707,
      "വെള്ളിയാഴ്ച": 4708,
      "കൺ": 4709,
      "ക്കുമെന്നും": 4710,
      "കൊള്ള": 4711,
      "ന്ന്": 4712,
      "നിര്‍ബന്ധ": 4713,
      "സംസാരിച്ച": 4714,
      "ജില്ലകളിൽ": 4715,
      "കാവ": 4716,
      "കര്‍ശന": 4717,
      "ജഡ്": 4718,
      "##ഫോട": 4719,
      "അവധി": 4720,
      "തുല": 4721,
      "രാജ്യത്തിന്റെ": 4722,
      "അനുസരിച്ച്": 4723,
      "വിമത": 4724,
      "എന്‍ഡിഎ": 4725,
      "സര്‍വ്വ": 4726,
      "##്‌ള": 4727,
      "ചിന്തി": 4728,
      "ബാധിച്ച്": 4729,
      "##രാന്‍": 4730,
      "##ർദ്ദ": 4731,
      "കളിലെ": 4732,
      "പ്രോസിക്യ": 4733,
      "അവതരിപ്പ": 4734,
      "##േമ": 4735,
      "ക്കുമെന്ന്": 4736,
      "റെഡ്": 4737,
      "##പ്റ്റംബ": 4738,
      "രോഹി": 4739,
      "തങ്ങള്‍": 4740,
      "##ട്ടും": 4741,
      "ക്കോ": 4742,
      "##രിക്കണം": 4743,
      "പരിഗണന": 4744,
      "പൗരത്വ": 4745,
      "നോട്ടീസ്": 4746,
      "ടൂറിസം": 4747,
      "##ായ്മ": 4748,
      "##ംഗലം": 4749,
      "വിൽ": 4750,
      "പ്രകടിപ്പ": 4751,
      "തുറന്നു": 4752,
      "അഭിപ്രായം": 4753,
      "പങ്കെടുത്തു": 4754,
      "ഏപ്രില്‍": 4755,
      "ബ്ലോക്ക്": 4756,
      "##ുണ്ടെന്നും": 4757,
      "മോഡ": 4758,
      "വിളിച്ചു": 4759,
      "##ഷണം": 4760,
      "വ്യാപനം": 4761,
      "വായ്പ": 4762,
      "ഒരേ": 4763,
      "നന്ദി": 4764,
      "രാശിക്കാര്‍ക്ക്": 4765,
      "ഏഴ": 4766,
      "##ൊപ്പ": 4767,
      "##ൻഡ്": 4768,
      "ചെയ്യുക": 4769,
      "സേവ": 4770,
      "ശനിയാഴ്ച": 4771,
      "വനം": 4772,
      "##ക്കൾ": 4773,
      "നടക്കും": 4774,
      "കടന്നു": 4775,
      "പ്പെട്ട": 4776,
      "കരി": 4777,
      "മൗ": 4778,
      "പ്രാധ": 4779,
      "കൊണ്ടുവന്ന": 4780,
      "തിനാൽ": 4781,
      "ആന്റണി": 4782,
      "ഡിവൈ": 4783,
      "##ടിച്ച്": 4784,
      "അതിൽ": 4785,
      "2024": 4786,
      "പൊലിസ്": 4787,
      "അസം": 4788,
      "ബസ": 4789,
      "##ശു": 4790,
      "##ഞ്ഞാറ": 4791,
      "##ിനോ": 4792,
      "സിബിഐ": 4793,
      "പഞ്ചാബ്": 4794,
      "ഗാന്ധിയുടെ": 4795,
      "മേല്‍": 4796,
      "മോശം": 4797,
      "നിർദേശ": 4798,
      "തലത്തില്‍": 4799,
      "അയ്യ": 4800,
      "ശരീര": 4801,
      "പച്ച": 4802,
      "കാണുന്നത്": 4803,
      "##ഷ്യല്‍": 4804,
      "സ്ഥലത്ത്": 4805,
      "കാസര്‍ഗോഡ്": 4806,
      "പ്രകടനം": 4807,
      "ഗൗര": 4808,
      "ഫു": 4809,
      "##റ്റീവ": 4810,
      "നടന്നു": 4811,
      "ഇറങ്ങിയ": 4812,
      "##ിട്ടുള്ള": 4813,
      "സാഹചര്യത്തിലാണ്": 4814,
      "രാശി": 4815,
      "പ്ലാ": 4816,
      "സംഗ": 4817,
      "##രിക്കാൻ": 4818,
      "സമ്പര്‍ക്കം": 4819,
      "59": 4820,
      "ഏഷ്യ": 4821,
      "##തിനിടെ": 4822,
      "സംവ": 4823,
      "ലൈംഗ": 4824,
      "സ്ത്രീകള്‍": 4825,
      "വിതരണ": 4826,
      "അസ": 4827,
      "അഴ": 4828,
      "തർക്ക": 4829,
      "വേറെ": 4830,
      "പ്രഖ്യാപിച്ചു": 4831,
      "വകുപ്പിന്റെ": 4832,
      "ന്യൂനപക്ഷ": 4833,
      "ഏർ": 4834,
      "പാറ": 4835,
      "മടങ്ങ": 4836,
      "സങ്ക": 4837,
      "##വരെ": 4838,
      "വെറു": 4839,
      "ജനങ്ങൾ": 4840,
      "വരെയാണ്": 4841,
      "ട്രംപ": 4842,
      "കയറിയ": 4843,
      "വിമര്‍ശനം": 4844,
      "റാവ": 4845,
      "##പര്യ": 4846,
      "ഉപേക്ഷ": 4847,
      "ഭക്ഷ്യ": 4848,
      "വ്യവസായ": 4849,
      "ശാ": 4850,
      "##നോ": 4851,
      "സ്ഥി": 4852,
      "കളുമായി": 4853,
      "സെപ്റ്റംബ": 4854,
      "##ാറുണ്ട്": 4855,
      "തിനുള്ള": 4856,
      "ഉൾപ്പെടെയുള്ള": 4857,
      "ഇലക്ട്ര": 4858,
      "സൂപ്പര്‍": 4859,
      "68": 4860,
      "അസോ": 4861,
      "ടീ": 4862,
      "##രിക്കുകയാണ്": 4863,
      "നേതൃത്വത്തിലുള്ള": 4864,
      "നിയന്ത്രണം": 4865,
      "ഇസ്": 4866,
      "ിട": 4867,
      "##ിറ": 4868,
      "മേഖലയിൽ": 4869,
      "രക്ഷാ": 4870,
      "ട്വീറ്റ്": 4871,
      "സൂചിപ്പ": 4872,
      "നിർത്ത": 4873,
      "ഇന്ത്യയിൽ": 4874,
      "##വേഷണ": 4875,
      "ദിവസത്തെ": 4876,
      "ഹൈദ": 4877,
      "##സ്പ്ര": 4878,
      "വാഹനം": 4879,
      "മല്‍സ": 4880,
      "കേള്‍": 4881,
      "ഉയർത്ത": 4882,
      "##ത്തിനു": 4883,
      "വിശദീകരണം": 4884,
      "പുരുഷ": 4885,
      "കിര": 4886,
      "മ്പ": 4887,
      "##ക്സ്": 4888,
      "കണ്ടത്": 4889,
      "എട്ട": 4890,
      "വർദ്ധ": 4891,
      "പാർല": 4892,
      "നോക്കി": 4893,
      "ഹര്‍ജി": 4894,
      "##കളിലും": 4895,
      "പരിശോധനയ്ക്ക്": 4896,
      "മന്ത്രാലയ": 4897,
      "ശശി": 4898,
      "വെട്ട": 4899,
      "വ്യക്തമായ": 4900,
      "ഗോവ": 4901,
      "വിമർശന": 4902,
      "വരുമാനം": 4903,
      "##ാസം": 4904,
      "രാഷ്ട്രീയം": 4905,
      "സമ്മാനം": 4906,
      "മോദിയുടെ": 4907,
      "ക്കുറിച്ച": 4908,
      "ഭേദഗതി": 4909,
      "ഓട്ട": 4910,
      "ശര": 4911,
      "##മാണെന്ന്": 4912,
      "ഒരുക്കിയ": 4913,
      "എസ്‌": 4914,
      "അഭിമാന": 4915,
      "സ്വര്‍ണം": 4916,
      "##ിമിന": 4917,
      "എങ്കിലും": 4918,
      "##എസ്പി": 4919,
      "തിനായി": 4920,
      "ക്യാപ്റ്റ": 4921,
      "വ്യക്തമാക്കിയത്": 4922,
      "ഫൈ": 4923,
      "##വറ": 4924,
      "##ക്ട്": 4925,
      "കുള": 4926,
      "പങ്കാള": 4927,
      "##ീകരിക്കുന്ന": 4928,
      "സര്‍വീസ്": 4929,
      "തനിക്ക": 4930,
      "രാജസ്ഥാന": 4931,
      "മണിക്കുട്ട": 4932,
      "കണക്കിലെ": 4933,
      "നിൽക്ക": 4934,
      "സ്വപ്‌ന": 4935,
      "##ഭോ": 4936,
      "##ീൻ": 4937,
      "സിദ്ദ": 4938,
      "അതാണ്": 4939,
      "കാര്യമാണ്": 4940,
      "##കാര്യം": 4941,
      "ബാധിച്ചത്": 4942,
      "ചര്‍ച്ചകള്‍": 4943,
      "ഒരാൾ": 4944,
      "പൂർണ": 4945,
      "മകന്‍": 4946,
      "ഇത്തരമൊരു": 4947,
      "അസോസിയ": 4948,
      "കക്ഷ": 4949,
      "മുദ്ര": 4950,
      "കുടിയ": 4951,
      "പൊളി": 4952,
      "##ർശന": 4953,
      "##ാവശ": 4954,
      "തിരഞ്ഞെടുക്ക": 4955,
      "##്യൂട്ട": 4956,
      "ഏറ്റെടുത്ത": 4957,
      "ഉയര്‍ത്ത": 4958,
      "രണ്ടാമത്തെ": 4959,
      "ക്രൂര": 4960,
      "ടെക്": 4961,
      "തോടെയാണ്": 4962,
      "ഗൂഢ": 4963,
      "ഇപ്പോഴത്തെ": 4964,
      "ആക്ഷേപ": 4965,
      "ക്കുകയാണ്": 4966,
      "##പരമായി": 4967,
      "കമ്മീഷന്‍": 4968,
      "കച്ച": 4969,
      "ദ്": 4970,
      "വു": 4971,
      "വില്ല": 4972,
      "##ഗി": 4973,
      "##ക്കൂ": 4974,
      "ക്കാമ": 4975,
      "ദിവസവും": 4976,
      "നോക്കിയ": 4977,
      "ബോർ": 4978,
      "ആദ്യത്തെ": 4979,
      "##ലൈന്‍": 4980,
      "അന്തിമ": 4981,
      "ആധ": 4982,
      "ടിക്കറ്റ": 4983,
      "ിനെ": 4984,
      "##വന്‍": 4985,
      "##സ്‌പെ": 4986,
      "##ക്കാലിക": 4987,
      "സീസണ": 4988,
      "അശോ": 4989,
      "ദീപ": 4990,
      "രാജ്യസഭ": 4991,
      "ത്തിനുള്ള": 4992,
      "ഫിറോസ്": 4993,
      "ലൈംഗിക": 4994,
      "സ്നേഹ": 4995,
      "നിതീഷ്": 4996,
      "അവര": 4997,
      "പൂജ": 4998,
      "അല്ലെങ്കില്‍": 4999
    }
  }
}