<unk>	0
<s>	0
</s>	0
.	-3.17672
്	-3.95975
▁	-4.09249
ം	-4.26515
ു	-4.4369
ും	-4.50614
ി	-4.78582
്‍	-4.9812
ത്	-5.06746
ാ	-5.10409
▁,	-5.11339
,	-5.16529
യ	-5.23347
ാണ്	-5.2391
െ	-5.29519
മ	-5.42026
ര്‍	-5.45192
▁.	-5.47259
ില്‍	-5.47424
വ	-5.60492
ർ	-5.64942
ന	-5.68464
ന്‍	-5.75854
ിൽ	-5.75912
ത	-5.75976
റ	-5.78173
ല	-5.80516
ക	-5.81707
ര	-5.83775
▁ക	-5.84071
▁അ	-5.84288
ക്ക	-5.84803
സ്	-5.85307
സ	-5.86056
ക്ക്	-5.89297
▁ത	-5.89719
▁ഒരു	-5.90655
യുടെ	-5.92517
ിന്റെ	-5.93484
ൻ	-5.93674
േ	-5.94427
ല്‍	-5.97233
▁മ	-5.97828
ോ	-5.99582
▁ഈ	-6.00497
ുള്ള	-6.0264
ീ	-6.03117
യും	-6.09642
▁ന	-6.10161
യില്‍	-6.10749
▁വ	-6.11002
▁ആ	-6.14423
ുന്ന	-6.1469
ൽ	-6.14809
▁സ	-6.15835
ത്ത	-6.16184
ിന്	-6.18864
ണ	-6.19099
ാന്‍	-6.23796
▁എന്ന	-6.27465
ിയ	-6.30974
പ	-6.31561
പ്പ	-6.34851
ട	-6.35055
▁പറഞ്ഞു	-6.35272
▁പി	-6.38026
യാണ്	-6.38361
▁യും	-6.39291
▁സി	-6.41236
ൂ	-6.41376
ങ്ങള്‍	-6.4242
▁തന്നെ	-6.45596
ട്ട	-6.45992
▁എ	-6.47896
ുക	-6.48064
ന്ന	-6.48992
ക്	-6.49509
▁സ്	-6.49517
▁പ	-6.50121
▁-	-6.50798
യെ	-6.52683
മാണ്	-6.54024
▁യ	-6.54643
ിനെ	-6.54709
സി	-6.55661
ച്ച	-6.5582
വും	-6.55922
ള	-6.56017
ിരുന്നു	-6.56496
▁ത്	-6.56653
ത്തില്‍	-6.57067
▁വി	-6.57068
▁ക്ക	-6.57076
ായി	-6.57194
:	-6.58733
ിച്ച	-6.58815
ങ്ങൾ	-6.59183
▁ഇ	-6.60258
▁നിന്ന്	-6.603
ാൻ	-6.64004
ിലെ	-6.65241
▁കഴിഞ്ഞ	-6.65307
മായി	-6.65329
▁ല	-6.66135
യിൽ	-6.6868
ായ	-6.69121
മായ	-6.69699
ത്തെ	-6.69836
▁കെ	-6.70012
ന്	-6.71767
റ്റ	-6.72504
ത്തിന്	-6.72775
ലി	-6.73133
ില്ല	-6.73394
ുടെ	-6.74405
ത്തിൽ	-6.74944
ൈ	-6.76067
ടി	-6.78286
കള്‍	-6.78295
▁ഗ	-6.78525
ഗ	-6.79164
കൾ	-6.80367
രി	-6.81307
ദ	-6.83128
▁സംസ്ഥാന	-6.835
▁പ്ര	-6.83607
ാന	-6.84518
ബ	-6.85266
ഡ	-6.85474
ഡ്	-6.87597
▁മാ	-6.88026
ശ	-6.88191
തി	-6.88309
▁അദ്ദേഹം	-6.90313
▁ബ	-6.90379
ഷ	-6.90727
ഹ	-6.90916
ിട്ടുണ്ട്	-6.90987
▁അതേസമയം	-6.91508
ിക്കുന്ന	-6.92821
▁എന്നാല്‍	-6.93237
▁ബി	-6.93503
▁(	-6.94351
▁ര	-6.95428
ണം	-6.95972
നി	-6.96053
▁ബിജെപി	-6.96518
▁റ	-6.9652
ായിരുന്നു	-6.97727
വി	-6.98112
ാം	-6.99272
0	-6.99373
▁ഇത്	-6.99896
ത്ത്	-7.00338
▁യാണ്	-7.01152
ഴ	-7.01489
▁വരെ	-7.01603
▁കേന്ദ്ര	-7.01972
ത്തിന്റെ	-7.02215
▁മുഖ്യമന്ത്രി	-7.02297
▁ചെയ്ത	-7.02734
മ്പ	-7.03164
പി	-7.03342
ുകള്‍	-7.03736
▁വലിയ	-7.0397
ജ	-7.04403
റ്റ്	-7.05006
▁എന്ന്	-7.05021
ുന്നത്	-7.05055
▁രൂപ	-7.05954
ച	-7.06103
▁കള	-7.07529
ക്കുന്ന	-7.09093
ക്കും	-7.09669
▁ത്ത	-7.10509
▁'	-7.11414
▁എം	-7.11677
ുണ്ട്	-7.13347
▁ഡി	-7.13564
▁നിന്നും	-7.14218
▁ഇന്ത്യ	-7.14229
▁മന്ത്രി	-7.14517
▁ഉ	-7.14957
▁അത	-7.15198
▁മു	-7.15493
റി	-7.15685
▁കോണ്‍ഗ്രസ്	-7.16149
▁നി	-7.16739
▁ക്ക്	-7.16979
▁യുടെ	-7.17218
▁കാ	-7.17361
▁വന്ന	-7.17964
▁വര	-7.18872
യ്	-7.18953
ങ്ക	-7.20135
▁പാ	-7.21005
ണ്ട	-7.22398
മാ	-7.22978
ല്ല	-7.23162
▁സ്വദേശി	-7.2356
യിലെ	-7.24434
ഭ	-7.24915
ൊ	-7.25476
ള്‍	-7.26657
ുമായി	-7.27126
▁ശ	-7.27211
▁അത്	-7.28108
▁പാര്‍ട്ടി	-7.28118
▁ച	-7.28334
▁ഐ	-7.2844
▁വാ	-7.28758
ജി	-7.29113
5	-7.29468
▁കോ	-7.2977
ില	-7.30378
ുകൾ	-7.31258
ഡി	-7.32235
ൾ	-7.33199
▁എസ്	-7.33552
മ്മ	-7.33632
ിലും	-7.33805
▁ഒ	-7.33882
▁രണ്ട്	-7.34225
)	-7.34482
▁കേരള	-7.35605
ാവ	-7.35771
▁പുതിയ	-7.35879
▁ഇന്ന്	-7.36163
വാ	-7.36317
മി	-7.36607
യുള്ള	-7.36609
പ്	-7.36838
▁ു	-7.36923
▁ദ	-7.37507
▁ജ	-7.37887
ുകയും	-7.38046
ാല്‍	-7.38584
യായ	-7.3891
ോട്	-7.39365
▁ശേഷം	-7.3956
പ്പെട്ട	-7.39992
▁ചില	-7.40503
ഫ	-7.4054
▁എല്ലാ	-7.40905
▁പറയുന്നു	-7.41885
▁എന്നാണ്	-7.41984
▁പോലീസ്	-7.42132
ാത്ത	-7.42669
ൗ	-7.43489
ിക	-7.43788
ങ്ങ	-7.43924
യാ	-7.44049
ൺ	-7.44234
▁ഏറ്റവ	-7.46166
▁ട	-7.46204
2	-7.46257
ക്ഷ	-7.46965
6	-7.47079
▁ആണ്	-7.47176
ഞ്ഞ	-7.47769
▁വില	-7.47916
1	-7.48264
-	-7.48556
▁പ്രതി	-7.48675
യ്ക്ക്	-7.48761
നെ	-7.49131
7	-7.49847
▁രാഷ്ട്രീയ	-7.50308
▁നടത്തിയ	-7.50581
▁യു	-7.50658
▁ജെ	-7.51936
▁ചെയ്തു	-7.52124
▁ന്	-7.5245
ണ്‍	-7.53375
▁നിയമ	-7.54152
േണ്ട	-7.54441
▁ഹ	-7.55654
െന്നും	-7.55712
▁ക്കും	-7.55914
▁കണ്ട	-7.55923
▁സര്‍ക്കാര്‍	-7.56107
▁ഇത	-7.56131
▁കോടി	-7.56373
▁യെ	-7.56606
ന്റെ	-7.56793
▁;	-7.56864
▁കോടതി	-7.56989
▁കു	-7.57928
▁ഡ	-7.58021
ൊരു	-7.58233
▁കൊവിഡ്	-7.58541
ക്കി	-7.58633
ാതെ	-7.58712
▁ദിവസം	-7.59202
ംഗ	-7.59513
▁നേരത്തെ	-7.59588
▁വെ	-7.60733
4	-7.60821
▁സാ	-7.60843
ൂര്‍	-7.6086
▁പരാതി	-7.61287
ളി	-7.61309
▁ഇട	-7.61415
),	-7.61695
ട്ടി	-7.61797
ിലേക്ക്	-7.62476
ബി	-7.62506
യോ	-7.62511
▁ജില്ലാ	-7.62535
▁ഓ	-7.6256
▁പറഞ്ഞ	-7.62959
▁തിരുവനന്തപുരം	-7.6302
▁നടന്ന	-7.63118
▁കോവിഡ്	-7.63174
ിരിക്കുന്നത്	-7.63838
ിട	-7.639
ധ	-7.64147
8	-7.64168
▁ടി	-7.64254
▁ങ്ങള	-7.64376
എ	-7.64509
▁എന്നാൽ	-7.64639
കളുടെ	-7.65052
ിച്ച്	-7.65153
ണമെന്ന	-7.65433
3	-7.66105
ത്തി	-7.66429
▁ഒന്ന	-7.66689
▁എന്നും	-7.66842
▁പദ്ധതി	-7.67375
▁സെ	-7.67429
▁9	-7.67509
ത്ര	-7.68083
▁വഴി	-7.68234
▁കൂടി	-7.6839
▁10	-7.6841
ട്ട്	-7.69882
▁പാർട്ടി	-7.70244
▁പേര്‍	-7.70258
▁8	-7.71013
െടുത്ത	-7.72495
ിലൂടെ	-7.72516
▁യില്‍	-7.73065
ന്ത	-7.73195
▁സു	-7.73518
രു	-7.74131
ഷ്	-7.74158
▁മറ്റ	-7.74717
ാര	-7.7502
9	-7.7552
യി	-7.7569
▁ആരോഗ്യ	-7.75851
പ്പ്	-7.76103
ണി	-7.76137
▁മോ	-7.76527
▁കൈ	-7.7685
ുവ	-7.76949
സ്റ്റ	-7.76962
ഞ്ച	-7.7702
തിന്	-7.77589
കര	-7.78364
▁അഞ്ച	-7.7847
▁നടപടി	-7.78813
▁മൂന്ന്	-7.78887
▁കൂടുതല്‍	-7.7895
ങ്ങള	-7.79115
▁ലഭിച്ച	-7.79134
▁ജോലി	-7.79155
▁നാ	-7.7932
▁ാ	-7.79386
▁കൊണ്ട്	-7.79485
▁"	-7.79649
▁എന്നിവ	-7.79868
▁ജി	-7.80004
താ	-7.80048
▁ില്ല	-7.8018
▁ഷ	-7.80271
ാല	-7.8043
എസ്	-7.8066
▁പോക	-7.80848
▁വേണ്ടി	-7.81121
▁തുടര്‍ന്ന	-7.81226
▁ആദ്യ	-7.81342
▁ട്ര	-7.81497
▁ഫ	-7.81594
▁ചെയ്യ	-7.81855
ധി	-7.82243
▁:	-7.82347
▁രോഗം	-7.82347
▁ഭ	-7.82582
്യൂ	-7.82939
ാര്‍	-7.83019
ഥ	-7.83183
▁കുടുംബ	-7.83289
▁മെ	-7.83394
െങ്കിലും	-7.83691
▁ിരുന്നു	-7.83725
▁അവ	-7.83746
പ്പി	-7.83765
▁പല	-7.83871
▁ജോ	-7.84041
▁പിന്നാലെ	-7.84348
▁സംഭവ	-7.84632
▁സെക്രട്ടറി	-7.84645
▁പോലും	-7.84677
▁വ്യക്തമാക്കി	-7.84778
▁അറിയിച്ചു	-7.85313
▁റെ	-7.85463
▁തിരഞ്ഞെടുപ്പ്	-7.85717
▁മോദി	-7.85783
െല്ലാം	-7.85916
ങ്ങളുടെ	-7.86208
ാനുള്ള	-7.86269
ൃ	-7.8642
േറ്റ	-7.86629
▁കട	-7.86871
വര്‍	-7.87168
തു	-7.87183
ൂർ	-7.87207
▁പ്പ	-7.87296
▁സർക്കാർ	-7.87331
▁പറയുന്നത്	-7.87757
കെ	-7.87776
▁ഇവിടെ	-7.87851
ുമെന്ന്	-7.87863
ാണെന്ന്	-7.87918
▁താണ്	-7.88022
▁ആര	-7.88412
▁ഏ	-7.88584
▁പ്രധാനമന്ത്രി	-7.88621
ത്തു	-7.88686
▁പറയ	-7.8876
▁സാധ്യത	-7.88802
▁നല്‍കിയ	-7.88942
ലാ	-7.88997
പ്പെടുന്ന	-7.89259
▁ല്‍	-7.89415
▁കോൺഗ്രസ്	-7.89783
പ്ര	-7.89834
ുളള	-7.89841
ിച്ചു	-7.90042
▁പ്രതിപക്ഷ	-7.90921
ങ്ങളും	-7.91213
ക്കിയ	-7.91319
▁തു	-7.91348
▁അടുത്ത	-7.91606
▁മുന്‍	-7.91634
ദ്	-7.91723
▁ഉറപ്പ	-7.91748
ുകയായിരുന്നു	-7.92133
ാൽ	-7.92396
കാര	-7.92455
ന്ദ	-7.92658
▁പൊലീസ്	-7.92729
ഗ്	-7.9287
▁ചെയ്യുന്ന	-7.92872
നാ	-7.93049
▁കൊ	-7.93057
▁7	-7.93487
▁റ്റ	-7.93643
ിംഗ്	-7.93878
റ്റി	-7.94125
▁മുതല്‍	-7.94283
വര	-7.943
▁പ്രത്യേക	-7.94478
▁പരിശോധന	-7.94654
ക്കാന്‍	-7.94723
▁മി	-7.94995
▁12	-7.95195
▁തല	-7.95215
ജ്	-7.95288
▁യാത്ര	-7.95645
▁മാറ്റ	-7.95665
▁അവര്‍	-7.95697
ശ്	-7.95809
▁ഇപ്പോള്‍	-7.95903
റു	-7.96051
▁11	-7.96313
▁പ്രഖ്യാപിച്ച	-7.96637
ള്ള	-7.96721
▁താ	-7.96791
▁എത്തിയ	-7.96864
മുള്ള	-7.96918
ുകള	-7.97015
▁വരുന്ന	-7.97461
ക്കുന്നത്	-7.97485
പ്പോൾ	-7.9759
▁ഉണ്ടായ	-7.97693
▁കാരണം	-7.97963
▁20	-7.98621
ൊക്കെ	-7.98867
▁ിക്ക	-7.98924
▁ഗാന്ധി	-7.98945
▁15	-7.99032
;	-7.99666
▁ി	-7.99818
▁വും	-7.99857
▁പെ	-7.99888
ിന	-7.99935
▁ഇനി	-8.00092
▁മാത്രം	-8.00115
ുമാണ്	-8.00136
തോടെ	-8.00182
▁കോഴിക്കോട്	-8.005
▁പു	-8.00723
▁നെ	-8.0077
▁തുടങ്ങിയ	-8.00917
യില	-8.00961
ണ്ണ	-8.01092
താണ്	-8.01131
യായി	-8.01361
▁നല്‍ക	-8.01657
▁കര	-8.01691
▁3	-8.01816
▁ശക്തമായ	-8.01821
▁തന്റെ	-8.02125
▁നടത്ത	-8.02132
ച്ചു	-8.02334
▁പോ	-8.02343
എം	-8.02437
കളെ	-8.0259
▁അവസാന	-8.02711
▁നൽകിയ	-8.02761
▁ഇതുവരെ	-8.02788
▁യായിരുന്നു	-8.03329
െടു	-8.0348
▁സിനിമ	-8.03496
െന്ന്	-8.04253
ീകരി	-8.04273
വ്	-8.04763
▁മാര	-8.04832
ിട്ടില്ല	-8.04906
▁ഇതോടെ	-8.05223
▁ചാ	-8.05474
ുകയാണ്	-8.05776
▁ശതമാനം	-8.05938
▁ജന	-8.05983
രാ	-8.06254
▁നില	-8.06424
തെന്നും	-8.06659
▁റിപ്പോര്‍ട്ട്	-8.06894
േയും	-8.07205
▁19	-8.07292
ുമ	-8.07312
▁ജയ	-8.07327
▁വളരെ	-8.07542
▁വീണ്ടും	-8.07642
ഖ	-8.08019
▁വോട്ട	-8.08101
▁ആവശ്യ	-8.08147
▁അദ്ദേഹത്ത	-8.08486
▁5	-8.08555
▁മാണ്	-8.08813
ക്കു	-8.08968
▁ലക്ഷം	-8.08971
ഘ	-8.09084
▁കാണ	-8.09147
▁ആര്‍	-8.09233
▁നിന്നുള്ള	-8.09252
▁പ്രധാന	-8.09274
സ്ഥ	-8.09509
▁നിരവധി	-8.0953
▁ദേശീയ	-8.09645
▁പൊതു	-8.09801
▁ഓഫീസ	-8.10096
വേ	-8.10098
▁ദില്ലി	-8.10184
▁ന്ന	-8.10193
▁നേതാവ്	-8.10212
ിരുന്ന	-8.10348
▁ൽ	-8.1047
േക്ക്	-8.106
▁സ്വ	-8.10771
▁ആവശ്യപ്പെട്ട	-8.11046
▁വൈ	-8.11087
▁യിൽ	-8.11233
▁ക്കാന	-8.11303
▁അന	-8.11455
▁ചര്‍ച്ച	-8.11735
▁വിജയ	-8.11832
▁ിട്ടുണ്ട്	-8.11847
ച്ച്	-8.1187
▁വിവിധ	-8.12118
▁ഇത്തവണ	-8.12589
▁ഉള്ള	-8.12634
▁നല്ല	-8.13334
▁രാജ	-8.1364
▁തിന്	-8.13962
ഐ	-8.13995
▁ക്	-8.14025
▁ം	-8.1422
▁ലെ	-8.14301
▁സംസ്ഥാനത്ത്	-8.14379
▁കാര	-8.14556
▁കൊണ്ട	-8.14588
▁യോ	-8.14618
▁...	-8.14631
▁പൊ	-8.14747
പ്പെട	-8.15616
▁പോയ	-8.15692
▁പരി	-8.15716
▁പിന്തുണ	-8.16038
ാലും	-8.16196
്ര	-8.16274
ുമെന്നും	-8.16494
▁ഞാന്‍	-8.1654
▁1	-8.16706
ാർ	-8.16978
▁യാ	-8.17053
▁സൈ	-8.17086
▁ജില്ലയില്‍	-8.17087
▁മത്സര	-8.17172
ഴി	-8.1724
▁പിന്നീട്	-8.17256
രം	-8.17509
യിലേക്ക്	-8.17693
▁സംഘ	-8.17756
▁വര്‍	-8.17779
ുന്നു	-8.17839
▁വകുപ്പ്	-8.17892
▁മാത്രമാണ്	-8.18015
▁കൂട്ട	-8.18067
?	-8.18092
ട്	-8.18248
▁പിണറായി	-8.18375
▁അന്വേഷണ	-8.18388
▁അറിയ	-8.18651
▁ബാ	-8.18766
▁യ്ക്ക്	-8.18824
▁?	-8.18869
ാണെന്നും	-8.18923
ുമായ	-8.19262
▁വാഹന	-8.1934
നായ	-8.19492
▁നിലവില	-8.19601
ുമ്പോള്‍	-8.19741
▁അംഗ	-8.19851
▁ഡോ	-8.20099
▁നേതാവ	-8.20234
നും	-8.20289
▁കി	-8.20796
▁പോലെ	-8.20809
▁ഇതിന്	-8.20976
ദി	-8.21016
നം	-8.2108
▁കേസ്	-8.21174
ുകളും	-8.2158
ിനെതിരെ	-8.21635
▁വാക്	-8.21657
ഫ്	-8.21717
▁വരും	-8.21743
▁എന്നിവര	-8.2178
▁സംഘടന	-8.2179
▁അപേക്ഷ	-8.21808
▁പ്രശ്	-8.21826
▁ഷാ	-8.21921
▁ലോക	-8.21927
റിയ	-8.22115
▁കണക്ക	-8.22177
▁ഇത്തര	-8.22239
വർ	-8.22426
▁സ്ഥിരീകരിച്ച	-8.22513
പ്പോള്‍	-8.22596
ിത	-8.22688
▁ച്ച	-8.22751
▁14	-8.23077
ാറ	-8.2315
ിലാണ്	-8.232
▁ഭാഗ	-8.23343
▁ആയി	-8.23368
▁24	-8.23423
കളും	-8.23539
യ്ക്ക	-8.23561
ങ്ങളെ	-8.23609
ദ്ധ	-8.23743
▁ശ്രീ	-8.2381
▁2	-8.23862
ന്റ	-8.23978
▁എടുത്ത	-8.23991
ണമെന്ന്	-8.24051
▁അവരുടെ	-8.24078
▁ത്തിന്റെ	-8.24204
▁സാമ്പത്തിക	-8.24252
▁വേ	-8.24307
▁ആർ	-8.24379
▁കുട്ടി	-8.24576
സാ	-8.24618
▁6	-8.24958
▁രാഹുല്‍	-8.25166
▁യിലെ	-8.25323
▁വ്യക്തി	-8.25347
േക്ക	-8.25426
▁ചോദ്യം	-8.25574
▁യില	-8.25584
ബ്	-8.2559
▁സ്ത്രീ	-8.25989
▁വീഡിയോ	-8.2599
▁ാണ്	-8.26023
▁സിപിഎം	-8.26215
▁ബന്ധ	-8.26496
▁ചെ	-8.2656
▁ട്ട	-8.26796
ായിരിക്കും	-8.26822
▁നിന്ന	-8.26887
▁ചെയ്തത്	-8.27188
തായി	-8.2721
▁ക്കെതിരെ	-8.27427
▁മരണ	-8.27622
▁13	-8.27859
▁ക്കാ	-8.27929
▁ചിത്ര	-8.27998
▁കൊച്ചി	-8.28102
ിരിക്കുകയാണ്	-8.28112
രെ	-8.28189
▁മികച്ച	-8.28265
ക്കാ	-8.28381
സ്റ്റ്	-8.2843
കളിൽ	-8.28503
ക്കാര	-8.28647
▁തിര	-8.2899
▁കൊറോണ	-8.29002
ക്കാൻ	-8.2901
▁പറഞ്ഞത്	-8.29028
▁രാജ്യത്ത	-8.29051
▁ഇവര്‍	-8.29219
▁നടക്കുന്ന	-8.29344
▁കഴിയ	-8.29457
▁ഇങ്ങനെ	-8.29559
ോട	-8.29858
▁സ്വദേശിനി	-8.29936
▁തി	-8.29984
▁തും	-8.30034
▁ുവെന്ന	-8.30104
▁നടത്തുന്ന	-8.30163
▁നാല്	-8.30163
▁4	-8.30293
▁ക്കു	-8.30324
▁നോ	-8.30397
▁രാ	-8.30398
്റെ	-8.30458
▁മുതൽ	-8.30498
▁കാര്യ	-8.30536
▁30	-8.30544
▁ലി	-8.3107
▁കള്‍	-8.31166
▁18	-8.31831
ിനും	-8.32022
▁തിരഞ്ഞെടുപ്പ	-8.32193
ാള	-8.32244
▁ത്തില	-8.32322
▁മറുപടി	-8.32394
▁വിളിച്ച	-8.32463
▁ചൈന	-8.32732
▁പേർ	-8.32734
▁പക്ഷേ	-8.3283
▁നടത്തി	-8.32928
▁വിവരം	-8.33077
ക്കുക	-8.33313
▁തവണ	-8.33318
▁പണം	-8.33433
ങ്ങളിൽ	-8.33507
▁വിമാന	-8.33555
▁എന്റെ	-8.33643
▁അമേരിക്ക	-8.33697
േഷ	-8.33753
ീസ്	-8.33889
▁തെന്ന	-8.34002
▁പേര	-8.34078
▁മേ	-8.3409
▁കമ്പനി	-8.34221
▁യെന്ന	-8.34389
▁ക്കാര	-8.34552
▁തന്നെയാണ്	-8.34633
▁സമയം	-8.34738
ക്കെതിരെ	-8.34857
▁ഖ	-8.34922
▁പുറത്ത്	-8.35017
▁ഞാൻ	-8.35115
▁നേടിയ	-8.35312
▁25	-8.3549
▁അമ്മ	-8.35581
ിന്‍റെ	-8.35736
▁ുണ്ട്	-8.35856
▁അതുകൊണ്ട	-8.35975
▁ിരിക്കുകയാണ്	-8.36175
▁മഴ	-8.3619
▁ബന്ധപ്പെട്ട	-8.36252
ിട്ട	-8.36457
▁അനു	-8.36561
കളില്‍	-8.36689
▁റി	-8.37048
▁എന്ത	-8.37055
▁പോലീസ	-8.37099
▁പ്രസിഡന്റ്	-8.37128
ുമോ	-8.37234
▁തീരുമാനം	-8.37301
▁അപകട	-8.37306
▁ത്തി	-8.3733
▁എന്‍	-8.374
▁രാവിലെ	-8.37609
▁നേതാക്കള്‍	-8.3781
▁കൂടുതൽ	-8.37962
▁വെച്ച	-8.3817
ിക്കാന്‍	-8.38176
▁തോ	-8.38392
െന്നാണ്	-8.38445
▁സമ	-8.38451
കള്‍ക്ക്	-8.38587
▁മറ്റൊര	-8.38785
▁)	-8.38835
യ്യ	-8.38841
▁മായ	-8.38881
ിങ്	-8.38965
ൊന്നും	-8.39008
e	-8.39135
▁ദിവസ	-8.39224
പ്പോ	-8.39254
▁ല്ല	-8.39336
▁തീര	-8.39682
ക്കുകയും	-8.39851
ുണ്ടായ	-8.39861
▁അധികാര	-8.39874
▁നിയന്ത്രണ	-8.39958
െന്ന	-8.40027
ായിരുന്ന	-8.40114
▁കണ്ണൂര്‍	-8.40625
▁എത്ത	-8.40632
▁അവർ	-8.40643
▁സുരക്ഷ	-8.4076
▁നീ	-8.40799
ഹി	-8.40804
▁സീറ്റ്	-8.40814
ത്തിലെ	-8.40893
ക്ട	-8.40978
മില്ല	-8.40997
▁ത്തിന്	-8.41155
ുണ്ടാ	-8.41286
▁പേര്‍ക്ക്	-8.41738
▁നീക്ക	-8.41755
▁ഭരണ	-8.41801
▁കൾ	-8.41849
▁എക്	-8.4227
ിക്കുക	-8.42593
▁റിപ്പോർട്ട്	-8.42758
▁ജില്ലയിലെ	-8.42785
▁ായിരുന്നു	-8.42803
▁ള	-8.42869
▁കമ്മിറ്റി	-8.42896
▁16	-8.43079
രിയ	-8.43306
▁മറ	-8.43333
▁വിട്ട	-8.43454
▁ആകെ	-8.43517
▁ചേര്‍ന്ന	-8.43538
▁നിയമസഭാ	-8.43605
▁എഫ്	-8.43842
▁വോട്ട്	-8.43876
▁ബാധിച്ച	-8.43932
▁പൂ	-8.43985
▁ഗ്ര	-8.44125
▁യ്ക്ക	-8.44241
▁ഇന്ന	-8.44292
▁മായി	-8.44364
ക്ര	-8.44424
▁ആയ	-8.44529
▁സൂചന	-8.44776
വെ	-8.45162
▁ആയിരുന്നു	-8.45178
▁അന്വേഷണം	-8.45358
ിക്	-8.45362
ഹാ	-8.45372
മോ	-8.45389
▁കുറഞ്ഞ	-8.45457
ങ്ങളില്‍	-8.45468
▁ചർച്ച	-8.46034
▁ഓരോ	-8.46127
▁കാല	-8.4613
▁17	-8.46274
ാദ	-8.46447
രുടെ	-8.46465
▁പ്രതിരോധ	-8.46472
▁നേതൃത്വം	-8.46503
▁പ്രതിഷേധ	-8.46661
ിപ്പിച്ച	-8.4679
▁ലോ	-8.46821
യോടെ	-8.46923
ിപ്പി	-8.46941
▁ആരംഭിച്ച	-8.4697
▁വർ	-8.4707
▁റോ	-8.47077
▁അങ്ങനെ	-8.47082
ുമ്പോൾ	-8.47248
ഷി	-8.47265
▁തനിക്ക	-8.47328
▁എണ്ണം	-8.47378
രായ	-8.47413
▁ലക്ഷ	-8.47446
കം	-8.47752
▁സ്ഥാനാര്‍ത്ഥി	-8.47825
▁ഹൈക്കോടതി	-8.47973
▁കളും	-8.48012
▁അവിടെ	-8.48031
▁കോണ്‍ഗ്രസ	-8.48164
വുമായി	-8.48287
▁തുടര	-8.48292
▁പുറത്ത	-8.48354
▁തീരുമാന	-8.48531
▁പിടിച്ച	-8.48642
▁ിരിക്കുന്നത്	-8.48697
ജന	-8.48851
▁മുൻ	-8.48964
▁ബിഗ്	-8.49045
ഹ്	-8.49081
▁ചികിത്സ	-8.49123
▁50	-8.49222
▁ഹാ	-8.49582
▁ആശുപത്രി	-8.49618
▁നൽക	-8.49742
▁നല്‍കി	-8.4986
ര്യ	-8.49984
▁മാറ്റി	-8.50078
▁ന്റെ	-8.50287
േഴ്	-8.50579
▁എനിക്ക്	-8.50615
▁മാറ	-8.50681
▁നടി	-8.50684
▁ആലപ്പുഴ	-8.50814
യുമായി	-8.51514
യിലാണ്	-8.51605
▁എത്തി	-8.51892
▁സിംഗ്	-8.51994
▁ഏറെ	-8.52151
ട്ര	-8.5227
▁തെന്ന്	-8.52645
▁പരിപാടി	-8.52911
▁മുമ്പ്	-8.53055
a	-8.53086
▁രോഗ	-8.53141
▁കാര്യം	-8.53189
െങ്കിൽ	-8.53236
▁രണ്ടാം	-8.53237
▁വ്യക്തമാക്കിയ	-8.53507
തെന്ന്	-8.5379
▁നിയമസഭ	-8.53959
ന്റ്	-8.5397
▁നട	-8.53973
▁ില്ലെന്ന	-8.54281
യു	-8.54306
▁ബാധ	-8.54338
▁അതിന്	-8.54542
▁പ്രതീക്ഷ	-8.54713
▁പര	-8.54841
ങ്	-8.54873
▁വര്‍ഷ	-8.549
▁പാലക്കാട്	-8.55129
യര്‍	-8.55183
െയും	-8.55221
▁എല്‍	-8.55376
▁40	-8.55453
▁മാത്രമല്ല	-8.55464
▁തീ	-8.55489
ുമെന്നാണ്	-8.55502
▁തായി	-8.55525
▁തുറന്ന	-8.55527
▁തീരുമാനിച്ച	-8.55534
▁ദിന	-8.55667
▁കോട്ടയം	-8.55718
ഗ്ര	-8.55751
▁വികസന	-8.55775
ഖ്	-8.55781
▁മണി	-8.55971
മുണ്ട്	-8.55975
ിനു	-8.55975
▁യുള്ള	-8.56163
▁അറസ്റ്റ്	-8.56182
▁റാ	-8.56206
▁നും	-8.56244
▁വര്‍ഷം	-8.56259
▁കേസ	-8.56407
▁പങ്കെടുത്ത	-8.56545
▁ത്തെ	-8.56826
▁ഉപയോഗിച്ച	-8.56867
▁സമിതി	-8.56937
▁അല	-8.5752
▁വിട	-8.57612
▁തിന	-8.57834
െത്തിയ	-8.57905
00	-8.5804
▁ആശങ്ക	-8.58188
ലെ	-8.58256
▁പ്രതിസന്ധി	-8.58289
▁ത്തില്‍	-8.58462
▁മാർ	-8.58481
▁രാത്രി	-8.58539
▁പറ്റ	-8.58657
▁ഉയര്‍ന്ന	-8.58725
▁വിവാദ	-8.58817
▁എല്ലാവര	-8.58999
ശി	-8.59009
▁ഇന്ത്യന്‍	-8.59043
▁മാസം	-8.59059
▁ിരുന്ന	-8.5907
▁എൻ	-8.59256
േഷന്‍	-8.5932
▁ഒറ്റ	-8.59402
▁സമര	-8.59508
▁കാര്യങ്ങള്‍	-8.59526
▁സാഹചര്യ	-8.59583
▁സഖ്യ	-8.59773
▁എണ്ണ	-8.59795
ീയ	-8.59968
▁കേരളത്തില്‍	-8.59973
▁എറണാകുളം	-8.60106
▁കുറിച്ച്	-8.60121
ക്ത	-8.60148
▁200	-8.60198
▁ഷോ	-8.60305
▁ഭാര്യ	-8.60373
▁സ്വകാര്യ	-8.60496
▁സൗദി	-8.60565
▁ടെ	-8.60659
്യം	-8.60674
ാവുന്ന	-8.60718
ീകരണ	-8.60834
▁താര	-8.60884
▁യുഡിഎഫ്	-8.60936
▁യി	-8.60999
▁ക്ര	-8.61013
േഷ്	-8.61038
▁ആദ്യം	-8.61049
▁നേതാക്കള	-8.6113
റാ	-8.61233
▁വാര്‍ത്ത	-8.61255
▁സംഭവം	-8.61322
ക്കോ	-8.61476
വ്യ	-8.61487
▁മത	-8.61657
▁സംശയ	-8.61829
▁നടക്ക	-8.61911
▁വീ	-8.61928
▁കിട്ട	-8.62093
▁അനുമതി	-8.62215
▁രണ്ട	-8.62287
▁ജീവനക്കാര	-8.62296
ക്കര	-8.62564
രിക്ക	-8.62616
▁കുറച്ച	-8.62624
▁കോൺഗ്രസ	-8.62697
▁സ്വീകരിച്ച	-8.62733
ക്കാനുള്ള	-8.62975
▁അടി	-8.63006
▁നേട്ട	-8.6312
▁വേണ്ട	-8.63266
▁രംഗത്ത്	-8.6339
▁സംബന്ധിച്ച്	-8.63501
▁രാജ്യങ്ങള	-8.63506
ോള	-8.63629
▁കൊണ്ടു	-8.63665
▁22	-8.63711
▁ഇന്‍	-8.63758
▁നിലപാട	-8.63767
ഠ	-8.63811
▁ത്തിന	-8.6384
▁ഫോ	-8.63916
▁യുഡിഎഫ	-8.63968
വരുടെ	-8.63992
▁സർക്കാര	-8.64056
▁ഉപ	-8.64056
▁ചേര	-8.64357
▁പേരാണ്	-8.64365
▁കൊല്ലം	-8.6463
▁ഇതില്‍	-8.64689
▁സ്റ്റ	-8.64811
▁മേഖല	-8.64855
▁ബ്ര	-8.64891
▁സം	-8.64953
▁നായ	-8.64993
▁ണ	-8.65014
▁പങ്ക	-8.65116
ാകും	-8.65303
▁കേസില്‍	-8.65308
▁അട	-8.65324
കുന്ന	-8.65408
▁അപ	-8.65488
▁സന്തോഷ	-8.65563
▁21	-8.65652
ദ്ര	-8.65748
▁ഗോ	-8.65824
ലോ	-8.65889
▁അസ	-8.65899
▁അന്ന്	-8.659
നാണ്	-8.65902
ില്ലെന്ന്	-8.65904
▁നിലപാട്	-8.65907
▁ഒഴിവാക്ക	-8.65936
▁കാരണ	-8.66086
▁സാധിച്ച	-8.66105
ക്രമ	-8.66129
▁നിലവ	-8.66162
▁പോയി	-8.66319
െങ്കില്‍	-8.6635
ഷ്യ	-8.66379
▁പറഞ്ഞിരുന്നു	-8.6643
▁പൊലീസ	-8.66961
▁ശ്രദ്ധ	-8.67115
▁പരീക്ഷ	-8.67154
▁അതി	-8.67159
▁ര്‍	-8.6722
▁വിദ്യാഭ്യാസ	-8.6733
▁ചി	-8.67558
▁കളുടെ	-8.67697
പ്പു	-8.67772
▁പ്രകാരം	-8.67837
▁ിട്ട	-8.67862
▁ക്ഷ	-8.67912
ുള്ളത്	-8.67963
▁െന്ന്	-8.67992
▁സ്വീകരിക്ക	-8.68048
▁ശ്രമിച്ച	-8.68098
▁അഭിപ്രായ	-8.68141
▁വനിത	-8.68353
▁കുഞ്ഞ	-8.68385
▁ചെയ്തിരുന്നു	-8.68394
ധ്യ	-8.68467
ോളം	-8.68525
▁തദ്ദേശ	-8.68683
▁പറയുന്ന	-8.68684
തും	-8.68748
▁പത്തനംതിട്ട	-8.69028
▁നീക്കം	-8.69134
▁രണ്ടു	-8.69225
▁കൂടാതെ	-8.69272
▁സര്‍	-8.69295
▁െന്ന	-8.69388
▁വിലയിരുത്ത	-8.69395
▁സംഘം	-8.69426
രുത്	-8.69513
▁വ്യക്തമാക്കുന്ന	-8.69543
നാഥ	-8.69554
▁നമ്മുടെ	-8.69584
▁രാജ്യ	-8.69584
▁സമയത്ത്	-8.69686
▁ലഭിക്ക	-8.69686
രോ	-8.69732
▁തെറ്റ	-8.69882
▁ക്കുമെന്ന	-8.7005
▁മാധ്യമ	-8.7013
ില്ലെന്ന	-8.7018
▁ചു	-8.70191
▁23	-8.70358
▁അടിസ്ഥാന	-8.70413
▁പോസ്റ്റ	-8.70415
▁മൂ	-8.7043
▁വിദേശ	-8.70632
▁നിര്‍	-8.70725
▁അനുവദിക്ക	-8.70913
▁റഷ്യ	-8.7116
▁കേരളത്തിലെ	-8.7117
ിക്കാൻ	-8.71193
▁െന്നും	-8.71217
▁സാഹചര്യത്തില	-8.71447
മേ	-8.7147
▁നല്‍കുന്ന	-8.71471
ിനോട്	-8.71753
▁ബന്ധപ്പെട്ട്	-8.7179
▁മീഡിയ	-8.71899
▁തിരിച്ചടി	-8.71942
▁മരിച്ച	-8.7195
▁അധ്യക്ഷ	-8.7211
▁ഇരു	-8.72202
ാക്കി	-8.72247
t	-8.7226
ാണോ	-8.72283
▁ഭാഗമായി	-8.72565
▁പോകുന്ന	-8.72754
▁ലോക്	-8.72786
രണ	-8.72812
▁മനുഷ്യ	-8.72833
▁യുവതി	-8.72908
▁പാല	-8.72913
▁യുമായി	-8.72971
▁/	-8.73012
▁വച്ച	-8.73147
▁സ്വന്തം	-8.73266
▁സുരേഷ്	-8.73304
▁ഇക്കാര്യം	-8.73307
▁ഉത്തരവ	-8.73655
▁ഫലം	-8.73677
000	-8.73947
▁വിധി	-8.74019
വ്വ	-8.74048
▁തിരഞ്ഞെടുപ്പില	-8.74076
റോ	-8.74378
▁ദി	-8.74438
▁ഇല്ല	-8.74544
▁ലാ	-8.74562
▁ങ്ങള്‍	-8.74704
▁സ്ഥാപന	-8.74716
▁ആവശ്യം	-8.74736
▁കണ്ണ	-8.74846
▁സമ്മാന	-8.74868
▁പേരെ	-8.74999
▁തെ	-8.75074
▁മുന്നണി	-8.75086
▁അനുഭവ	-8.75232
മാർ	-8.75275
ുമെന്ന	-8.75508
ട്ടു	-8.75532
ാസ്	-8.75545
▁കടുത്ത	-8.75605
▁വിവാഹ	-8.75657
▁തോടെ	-8.75663
മെഡിക്കല്‍	-8.75691
മാന	-8.76025
▁ക്കണമെന്ന	-8.76046
▁സോഷ്യല	-8.7605
സ്ഥാന	-8.76075
▁മാത്രമേ	-8.76126
▁സമീപ	-8.7618
ടുത്ത	-8.76192
പ്പിച്ച	-8.76196
▁കുറ്റ	-8.7631
ത്തോടെ	-8.76314
o	-8.76341
▁വീണ	-8.76429
▁ഇടുക്കി	-8.76495
▁കൊടുത്ത	-8.76513
▁മണിക്കൂറ	-8.76523
▁വിഭാഗ	-8.76529
ഫി	-8.76548
▁ശക്തി	-8.76704
▁പ്	-8.76759
▁കുറിച്ച	-8.76763
▁പ്രദേശ	-8.76768
▁പത്ത	-8.76836
റില്‍	-8.76875
▁ിട്ടില്ല	-8.77018
▁തര	-8.77087
▁നരേന്ദ്ര	-8.77088
▁ഉണ്ടാവ	-8.77164
▁എത്ര	-8.77261
▁ഘട്ട	-8.77278
▁ആറ്	-8.7728
▁ക്ല	-8.7747
▁കാര്യങ്ങള	-8.77523
▁ആള	-8.77585
▁ഓഫ്	-8.77627
ദ്ദ	-8.77714
▁ചടങ്ങ	-8.77736
▁കേസുകള	-8.77816
▁രാജ്യത്തെ	-8.78051
▁ഫല	-8.78111
▁ചെയ്യുന്നത്	-8.78122
▁ങ്ങ	-8.78175
▁വീട	-8.78199
▁കഴിയുന്ന	-8.78376
▁ഉണ്ടാക	-8.78448
▁ോ	-8.78471
▁നാല	-8.78484
▁പട്ടിക	-8.7855
േണ്ടി	-8.78608
കോ	-8.78662
▁ബോ	-8.78693
▁സര്‍ക്കാര	-8.78852
▁ഉണ്ട്	-8.78909
ല്ലോ	-8.78928
▁ദേവ	-8.79013
▁മലപ്പുറം	-8.79059
▁വെള്ള	-8.79065
▁പ്രതികരണം	-8.79106
▁അറിയിച്ച	-8.79128
▁ബ്ല	-8.79276
▁ബാല	-8.7929
▁കുറവ	-8.79419
പരമായ	-8.79444
ുണ്ടായിരുന്ന	-8.7945
▁കണ്ടെത്ത	-8.79458
▁സഹ	-8.79498
▁നിർ	-8.79531
▁അടക്കം	-8.79679
▁മാണി	-8.79744
വാദ	-8.79813
▁സംബന്ധിച്ച	-8.79915
ോടെ	-8.79962
▁യുഎഇ	-8.79976
ാട	-8.7998
▁സോ	-8.80102
▁ഉയർന്ന	-8.80131
ില്ലാത്ത	-8.80208
▁ശതമാന	-8.80212
▁വെച്ച്	-8.80231
▁അല്ല	-8.80234
▁പേരും	-8.80374
▁തിന്റെ	-8.80455
ല്യ	-8.80674
▁ഇന്നലെ	-8.80703
ിട്ട്	-8.80719
▁ന്‍	-8.80738
▁(3	-8.80821
▁മുംബൈ	-8.80828
▁ഇവര	-8.81015
▁നാട	-8.8114
▁വന്‍	-8.81151
▁ക്കുന്ന	-8.81298
▁യിലും	-8.8132
▁സീറ്റ	-8.81353
▁എംപി	-8.8147
▁ത്തിൽ	-8.81504
▁ലഭിക്കും	-8.81523
▁മറ്റു	-8.81708
ീന	-8.8189
▁വള	-8.81929
▁മുഖ	-8.8203
r	-8.82081
▁പങ്കെടുക്ക	-8.82254
▁ജില്ല	-8.82344
പ്പെടുത്തി	-8.82604
▁ഫി	-8.82723
▁മുന്നോട്ട്	-8.82793
▁ചെറിയ	-8.82842
▁ആശുപത്രിയില്‍	-8.82924
▁വിഭാഗം	-8.82935
▁മുഹമ്മദ്	-8.82955
ത്വ	-8.83021
ഷന്‍	-8.83138
▁ഭൂമി	-8.83158
▁സഹോദര	-8.8319
▁തുടർന്ന്	-8.83227
▁ആക	-8.83405
▁വയസ്സ	-8.83409
കാല	-8.8362
▁കുമാര്‍	-8.83635
ജെ	-8.83745
▁വിജയിച്ച	-8.83748
▁കണ്ടെത്തിയ	-8.83802
▁രക്ഷ	-8.83967
▁രാശി	-8.8407
▁രീതിയില	-8.84163
▁ചുമതല	-8.84226
▁പിടി	-8.84234
▁28	-8.84241
▁മാറി	-8.84242
കു	-8.84262
▁ഫാ	-8.8427
▁ാല്‍	-8.84366
▁വിജയം	-8.84457
▁26	-8.845
▁പുര	-8.84504
▁എടുക്ക	-8.84555
▁പട	-8.84578
▁പേര്	-8.84649
▁മര	-8.84668
▁തള്ളി	-8.84789
മല്ല	-8.84833
▁െങ്കിലും	-8.84887
▁നേതൃത്വത്ത	-8.8491
ാപ	-8.84917
▁യാണെന്ന	-8.84939
മാക്കി	-8.84977
▁ഹോ	-8.84992
തിരി	-8.85025
▁അതേ	-8.8512
▁നില്‍ക്ക	-8.85165
▁വരുത്ത	-8.85309
▁ലഭിക്കുന്ന	-8.85501
▁സമയ	-8.85589
▁വകുപ്പ	-8.85628
▁ിട്ടുണ്ടെന്ന	-8.85783
ക്കട	-8.85803
▁27	-8.85878
▁മുമ്പ	-8.85908
,000	-8.85979
▁ങ്ങളും	-8.86129
▁ഷി	-8.86227
ട്ടെ	-8.86262
▁പ്രശ്ന	-8.8628
▁കൂള	-8.86336
▁കളില്‍	-8.86429
▁ഇര	-8.86523
i	-8.8658
▁രു	-8.86707
▁മകന	-8.8684
▁അതിന	-8.87057
ത്തിലാണ്	-8.87128
▁ശ്രമ	-8.872
▁ദൃശ്യ	-8.87254
ആര്‍	-8.87288
ത്തിലേക്ക്	-8.87375
▁സംസാരിക്ക	-8.87435
▁വർഷ	-8.87469
▁കേരളം	-8.87509
▁60	-8.87533
▁ചെലവ	-8.87607
ക്കുന്നു	-8.87624
ത്തിനായി	-8.8766
▁കൃത്യമായ	-8.87674
▁സിന	-8.87706
▁ഗു	-8.87743
▁എന്നത്	-8.87913
▁ബിജെപിയുടെ	-8.87982
▁സീ	-8.88225
▁ഗോപി	-8.88291
▁ബെ	-8.88356
▁ണ്ട	-8.88356
ച്ചി	-8.88511
▁സത്യ	-8.88524
▁(1	-8.88815
▁കുമാറ	-8.88845
▁വൈറസ്	-8.88862
▁കുറിപ്പ	-8.88865
▁മാത്രമ	-8.88887
▁സ്ഥാനാർത്ഥി	-8.89069
▁തിരിച്ച	-8.89199
▁ിരിക്ക	-8.89288
▁വാർത്ത	-8.89354
▁നടത്തിയത്	-8.89362
▁വിരുദ്ധ	-8.89403
▁നടപ്പാക്ക	-8.8952
▁!	-8.89603
ിൻ്റെ	-8.89606
▁ലീഗ്	-8.8975
േഷൻ	-8.89808
▁ചെറു	-8.89879
▁വയനാട്	-8.90088
▁വീട്ടില്‍	-8.90111
▁േ	-8.90164
▁എഴു	-8.90227
കരമായ	-8.90236
▁കൂ	-8.90427
▁കളി	-8.90516
▁ുണ്ടെന്ന	-8.90521
▁പ്രസ്താവന	-8.90714
ക്കണം	-8.90742
കളായ	-8.9087
▁വിശ്വാസ	-8.90882
▁ആരോപണം	-8.90936
▁ടീമ	-8.91009
▁മല്ല	-8.91037
▁കുറ	-8.91043
▁ജാ	-8.91112
▁പണി	-8.91217
ങ്ങിയ	-8.91394
▁ങ്ങളില	-8.91453
ിരുന്നത്	-8.91592
▁മായിരുന്നു	-8.9163
▁ഹെ	-8.91736
▁പ്രിയങ്ക	-8.91838
▁യോഗം	-8.91853
▁മൊഴി	-8.91857
▁സഭ	-8.91926
െത്തി	-8.91936
▁ഭയ	-8.91987
▁തെരഞ്ഞെടുപ്പ	-8.9201
▁നേരിട്ട	-8.92225
ത്തോളം	-8.92229
ക്കുകയാണ്	-8.92252
▁താമസ	-8.92361
▁ന്യൂ	-8.92405
▁സഹായ	-8.92409
▁തൃശൂര്‍	-8.92412
യേറ്റ	-8.9257
▁ൻ	-8.92757
'	-8.92808
▁തിരിച്ചു	-8.92864
▁പഠന	-8.92886
▁മാറിയ	-8.92972
▁ങ്ങൾ	-8.93
▁ഇവ	-8.93003
▁യൂ	-8.93092
▁ബോസ്	-8.93105
▁എന്നതാണ്	-8.93151
▁ആക്രമണ	-8.93152
▁ആവശ്യപ്പെട്ടു	-8.93163
▁തുടങ്ങി	-8.93163
▁ദിലീപ	-8.93262
▁പദവി	-8.93276
▁ചെയ്യും	-8.93379
▁സംഭവിച്ച	-8.9338
▁നയ	-8.93416
യായിരുന്നു	-8.93518
▁ധ	-8.93564
▁മൂന്ന	-8.93648
▁എന്നായിരുന്നു	-8.93785
വാസ	-8.93892
▁പ്രകടന	-8.9391
▁കിട്ടിയ	-8.94026
▁ആറ	-8.9405
▁പഞ്ചാബ	-8.94209
▁നൽകുന്ന	-8.94219
▁സ്വര്‍ണ	-8.94302
▁അയച്ച	-8.94343
▁നിക്ഷേപ	-8.94387
ദ്യ	-8.94402
▁നിര	-8.94403
ോടൊപ്പം	-8.94491
▁ഇതിന	-8.94541
▁ചെന്നിത്തല	-8.94566
▁ഏക	-8.94753
▁പണ	-8.94761
/	-8.94789
▁വിമര്‍ശന	-8.94923
▁പ്രചാരണ	-8.94952
ിട്ടും	-8.94979
▁അക്രമ	-8.95003
▁പെണ്‍കുട്ടി	-8.95013
▁ഹൈ	-8.95047
▁യിലേക്ക്	-8.95071
തിനുള്ള	-8.95073
ധികം	-8.95093
▁വെളിപ്പെടുത്ത	-8.95103
ിറ്റി	-8.95122
▁ഖാ	-8.9513
▁സ്ഥാപനങ്ങള	-8.95195
▁നഗര	-8.95324
▁എല്ലാം	-8.95381
▁അവകാശ	-8.95451
▁ചരിത്ര	-8.95493
s	-8.95552
▁വിളി	-8.95564
▁ക്കായി	-8.95669
▁സ്റ്റേഷന	-8.95771
▁നേട	-8.95812
ൂരി	-8.96009
ീസ	-8.96027
▁ഒരാള	-8.96041
▁മാധ്യമങ്ങള	-8.96046
▁രംഗത്ത	-8.96092
▁സൗകര്യ	-8.96109
▁സജീവ	-8.96163
▁നാണ്	-8.9635
▁മുന്നില്‍	-8.96353
▁ക്കുള്ള	-8.96369
▁എംഎല്‍എ	-8.9642
▁വയസ	-8.96446
▁സൂര്യ	-8.96458
▁തിനെ	-8.96573
▁പാലിക്ക	-8.96659
▁ർ	-8.96795
▁എന്ത്	-8.96848
▁ചേ	-8.9688
▁ധന	-8.96998
▁അര	-8.97007
▁ബാബു	-8.97104
▁ഷെ	-8.97142
പക്ഷ	-8.97163
ിരിക്കുന്ന	-8.97317
▁1,	-8.97386
▁ചികിത്സയില	-8.97398
▁യായി	-8.97509
▁പേ	-8.97571
▁മാസ	-8.9761
▁സീറ്റുകള	-8.97637
ൂടെ	-8.97837
▁മലയാള	-8.97851
▁സ്വാധീന	-8.98016
▁എങ്ങനെ	-8.98023
▁വൈക	-8.98081
▁ഭാ	-8.98131
▁ക്ഷേത്ര	-8.98201
▁റിപ്പോര്‍ട്ട	-8.98231
▁ചോ	-8.98332
▁കല	-8.98356
▁മുസ്ലിം	-8.98386
▁സൈനിക	-8.98483
▁ഇവർ	-8.98504
▁യ്	-8.98557
▁ഫ്	-8.98562
ുന്നുണ്ട്	-8.98568
▁പിടിക്ക	-8.98593
▁അമിത്	-8.98624
▁ഗുണ	-8.98701
▁സമ്പർക്കം	-8.98944
▁ഇതേ	-8.98949
▁ഇതിന്റെ	-8.98968
▁യോഗ്യത	-8.99041
▁മത്സരിച്ച	-8.99121
▁ചേർന്ന	-8.99225
▁പരിശോധിക്ക	-8.99304
▁കുറയ	-8.99313
▁ഞങ്ങള്‍	-8.99332
ഭരണ	-8.99464
േശ	-8.99518
കളാണ്	-8.99533
▁പ്രവര്‍ത്തകര്‍	-8.99629
▁31	-8.99658
▁ആഭ്യന്തര	-8.99693
▁സേവന	-8.99774
▁(4	-8.99892
▁ടോ	-8.99998
▁ഗ്രാമ	-9.00023
▁മെഡിക്ക	-9.0005
▁കൊലപാതക	-9.00163
▁പലര	-9.00199
▁പോരാട്ട	-9.0026
▁പഞ്ചായത്ത്	-9.00362
▁ിന	-9.00379
▁കാലാവസ്ഥ	-9.00554
▁സിന്‍	-9.00836
▁രി	-9.00882
▁ചന്ദ്ര	-9.01014
ന്‍സ്	-9.01127
▁ആരോപണ	-9.01158
▁മില്ല	-9.01201
▁35	-9.01204
▁പരിശോധിച്ച	-9.0124
▁കടന്ന	-9.01243
▁നഷ്ട	-9.01248
ദേശ	-9.01273
▁തില്‍	-9.01284
ക്കുമെന്ന	-9.0151
▁എന്നെ	-9.01559
▁റോഡ	-9.01617
ണ്ഡ	-9.01668
▁വിട്ടു	-9.01691
▁സ്ഥിര	-9.01706
▁ഉന്നയിച്ച	-9.01781
▁കൊടുക്ക	-9.01859
▁മനസ്സിലാ	-9.01909
▁കാലത്ത്	-9.01912
n	-9.01959
▁നാട്ടില	-9.02034
▁നമുക്ക	-9.02081
▁താഴെ	-9.02145
ജ്ഞ	-9.02337
ാണെന്ന	-9.02406
▁വർഷം	-9.02422
ബാ	-9.02434
▁കേ	-9.02438
▁പുതു	-9.02472
▁കൂട	-9.02481
▁നേതാക്കൾ	-9.02551
▁സർ	-9.02558
▁ലും	-9.02653
▁തുക	-9.02882
ഞ്ഞു	-9.02893
▁ജനങ്ങള്‍	-9.02927
▁തോമസ്	-9.03087
▁ഒരിക്കല	-9.03103
▁ടാ	-9.03115
േര	-9.03129
▁കേന്ദ്രം	-9.03214
▁സ്റ്റാ	-9.03258
▁ചെയ്യാന്‍	-9.03286
▁വിഭാഗത്ത	-9.03296
▁പഞ്ചായത്ത	-9.03324
▁ജനാധിപത്യ	-9.03328
▁കൂടെ	-9.03373
എഫ്	-9.0344
▁യായ	-9.03478
▁കാണുന്ന	-9.03508
▁ഉള്ളത്	-9.03541
▁സാധാരണ	-9.03588
▁സ്ഥിതി	-9.0362
▁അയ	-9.03709
▁പ്പോള്‍	-9.03727
▁യുപി	-9.03763
▁വ്യാജ	-9.03765
▁കേട്ട	-9.03789
▁തമിഴ്	-9.03889
▁മുറി	-9.03906
▁വന്നു	-9.03958
▁രാജി	-9.04001
▁ഉത്തര	-9.04037
▁രീതി	-9.04167
ങ്ങി	-9.04417
▁പുറത്തു	-9.04593
▁സ്ഥിരീകരിച്ചത്	-9.04661
▁വന്നത്	-9.04786
▁നോക്ക	-9.04903
▁തായ	-9.04905
▁കാഴ്ച	-9.04963
▁വിശ്വ	-9.04981
▁29	-9.04998
▁ചോദിച്ച	-9.05004
▁ചിന്ത	-9.05008
▁വുമായി	-9.05017
▁അനുകൂല	-9.05096
▁നടന്നത്	-9.05151
▁അവരെ	-9.05213
▁താരം	-9.05293
▁അവസ്ഥ	-9.05501
▁ക്ലാസ	-9.05651
▁ഹിന്ദു	-9.05694
ഷന	-9.05733
മായിരുന്നു	-9.05739
▁ഫോണ	-9.05871
▁അനുവദിച്ച	-9.05893
▁കൃഷ്ണ	-9.05893
▁കളാണ്	-9.05926
▁നിരീക്ഷണ	-9.05953
▁ഉയര്‍ത്ത	-9.0612
ഇ	-9.06136
▁ഇപ്പോഴും	-9.0614
▁തമ്മില	-9.06207
നാട്	-9.06231
ക്കാർ	-9.06236
▁പൂര്‍	-9.06279
▁നിരക്ക്	-9.06307
▁ഉണ്ടായിരുന്ന	-9.06325
▁ചിത്രം	-9.06331
▁തെളിവ	-9.06341
▁പ്രവര്‍ത്തനങ്ങള	-9.06353
▁ചൂണ്ടിക്കാട്ടി	-9.06426
▁മദ്യ	-9.06599
▁കേരളത്തിൽ	-9.06641
▁മന	-9.06664
▁മത്സരിക്ക	-9.06873
▁ത്തിനും	-9.06908
▁പക	-9.06911
▁സര്‍ക്കാരിന്റെ	-9.06947
▁ലഭിച്ചത്	-9.06959
▁ശ്രമിക്കുന്ന	-9.06977
▁ജാഗ്രത	-9.06999
▁പുരുഷ	-9.07047
▁എന്നിവര്‍	-9.07301
▁മാനേജ	-9.07304
▁സിറ്റി	-9.07339
▁ഗ്രൂപ്പ	-9.07344
▁ഇരുവര	-9.07457
▁അടക്കമുള്ള	-9.07475
▁നേര	-9.07478
▁വരുമാന	-9.07507
▁സംസാരിച്ച	-9.07525
▁സ്വയം	-9.07627
▁വെടി	-9.0773
▁നിന്നാണ്	-9.07792
▁കോണ്‍ഗ്രസിന്	-9.07839
▁കൊണ്ടാണ്	-9.07847
▁രജിസ്റ്റ	-9.07949
തിനായി	-9.07961
▁ചോദ്യ	-9.08
▁എത്തിച്ച	-9.08053
▁മണ്ഡല	-9.08072
▁പ്രവര്‍ത്തിക്ക	-9.08095
▁ലീഗ	-9.08152
▁നിരീക്ഷണത്തില	-9.0826
▁നേരെ	-9.08303
▁സേന	-9.08385
ുമ്പോഴ	-9.08424
▁എത്തുന്ന	-9.08492
▁ജോസ്	-9.08518
▁ക്യാമ്പ	-9.08586
▁ഉയർത്ത	-9.08638
▁ഞങ്ങൾ	-9.08733
▁ഡെ	-9.08807
▁മല	-9.08882
▁ജനറ	-9.09112
▁നിർദ്ദേശ	-9.09134
▁മലയാളി	-9.09188
▁നേടി	-9.09279
▁പതി	-9.09309
▁മഹാ	-9.0934
▁പറഞ്ഞ്	-9.09343
മെന്റ്	-9.09356
േരി	-9.09524
▁എൽ	-9.09701
▁വിഷയ	-9.09941
▁യുവാവ	-9.10058
▁കോണ്‍ഗ്രസിന്റെ	-9.10252
▁മമത	-9.10375
▁സഭാ	-9.10401
▁ലേ	-9.10511
▁തരത്തില	-9.10565
▁യുവ	-9.10576
▁മെയ്	-9.10602
▁ഭീഷണി	-9.10891
▁100	-9.10984
ാണി	-9.11084
ാനി	-9.11113
▁നികുതി	-9.11125
▁ഉന്നത	-9.11134
▁അഭി	-9.11167
▁നിന്നു	-9.11286
▁നൽകി	-9.11337
▁നേരിട്ട്	-9.11452
▁ണ്ടാ	-9.11482
▁പ്രമുഖ	-9.11596
▁നല്‍കിയത്	-9.11609
▁ഔദ്യോഗിക	-9.11759
▁ഇവരെ	-9.11828
▁ജീവിത	-9.11829
▁യെന്ന്	-9.11843
▁സുപ്രീം	-9.11865
▁പോസ്റ്റ്	-9.11868
▁നാളെ	-9.11927
▁റേ	-9.11995
▁രാഹുല	-9.12013
▁കൊല്ലപ്പെട്ട	-9.12027
▁ആഘോഷ	-9.12077
▁രംഗത്തെത്തിയ	-9.12108
ക്കേ	-9.12127
മാര്‍	-9.12151
▁സ്ഥാന	-9.12195
ലീ	-9.12237
▁വരികയ	-9.12376
▁യോഗ	-9.12386
▁ബാങ്ക	-9.12494
▁കോളേജ	-9.12514
▁ടു	-9.12576
▁സാധിക്കും	-9.1272
▁പുന	-9.12822
▁ഭാഗ്യ	-9.12862
▁മെന്റ്	-9.13013
▁വേണം	-9.1318
▁വെല്ലുവിളി	-9.13254
ക്കൊണ്ട	-9.13302
▁ശിവ	-9.13323
▁ഇൻ	-9.13341
▁വിമാനത്താവള	-9.13362
▁ചാണ്ടി	-9.13475
പ്പാട	-9.13506
▁ജില്ലകളില	-9.13532
▁കണ്ണൂർ	-9.13635
▁ക്കൊപ്പം	-9.13685
▁2019	-9.13685
▁മൂന്നാം	-9.137
▁മാറ്റിയ	-9.13794
▁കളെ	-9.13828
▁വീട്	-9.13846
▁ഇടതുപക്ഷ	-9.13902
▁സമൂഹ	-9.13907
▁ഏഴ്	-9.14022
▁ഇത്രയ	-9.14022
▁45	-9.14064
▁ലക്ഷ്യം	-9.14133
▁പിസി	-9.14143
▁പ്രചരണ	-9.14227
ര്‍ത്തി	-9.14243
▁വരുടെ	-9.14262
▁മോഹ	-9.14291
▁വേഗ	-9.14412
ൻസ്	-9.14452
▁രൂപയാണ്	-9.14521
▁ഡ്രൈവ	-9.14566
▁ില	-9.14627
▁ജോസഫ്	-9.14632
മാക	-9.14726
▁കോള	-9.14829
ാന്ത	-9.14843
▁ഇയാള്‍	-9.14876
▁സ്ഥലത്ത	-9.14928
▁ബസ്	-9.14954
▁രാഹുൽ	-9.151
പ്പള്ളി	-9.15206
▁ആരോ	-9.15324
▁വര്‍ക്ക്	-9.15324
▁പരിചയ	-9.1543
▁പ്രായ	-9.15441
▁കേസിൽ	-9.15449
▁യുദ്ധ	-9.15476
▁ഉണ്ടാക്ക	-9.15629
ിനൊപ്പം	-9.1563
▁ജൂ	-9.15663
▁ഇഷ്ട	-9.1569
▁സ്ഥാനം	-9.15703
▁നേ	-9.15817
ീഷ്	-9.15872
▁ബിജെപിക്ക്	-9.15964
▁ിട്ടുള്ള	-9.16258
▁രോഗികള	-9.16292
▁ജോര്‍ജ്	-9.16408
▁ക്കാന്‍	-9.16451
▁കാട്ട	-9.16488
▁ലേക്ക	-9.16489
▁തൊഴിലാളി	-9.16591
▁പകരം	-9.16657
▁പ്രതീക്ഷിക്ക	-9.16847
▁കൂടിയ	-9.16942
▁തിരുവ	-9.17028
ഭ്യ	-9.1704
▁വരുന്നത്	-9.17053
▁കാർ	-9.17143
▁പ്രാ	-9.1717
ിപ്പിക്കുന്ന	-9.17346
▁മതി	-9.17409
▁നഗരസഭ	-9.17428
▁പേരില്‍	-9.17433
ില്ലാതെ	-9.17529
▁പള്ളി	-9.17532
ഹിത	-9.17586
▁മൈ	-9.17756
▁ഒന്നാം	-9.17883
▁ദാ	-9.1791
▁ഹി	-9.18025
▁ഇതു	-9.18055
▁ഞെട്ട	-9.18216
ന്ധ	-9.18257
ോണ്‍	-9.1843
▁തിരുവനന്തപുരത്ത	-9.18443
▁ഭൂ	-9.18542
▁ഡല്‍ഹി	-9.18556
▁ആരോപിച്ചു	-9.18581
▁സ്പ	-9.18629
ക്കേണ്ട	-9.1864
▁ിട്ടില്ലെന്ന	-9.18654
▁മുകളില	-9.18683
▁പ്രതിഷേധം	-9.18715
▁മാറ്റം	-9.18719
▁സ്ത്രീകള	-9.18788
▁ബാക്കി	-9.1886
▁എത്തിയത്	-9.18899
▁ിട്ടുള്ളത്	-9.18969
▁കരുത	-9.18992
▁ജനറല	-9.19013
▁കനത്ത	-9.19032
▁ആളുകള്‍	-9.19219
▁യാക	-9.19343
ത്വം	-9.194
▁രമേശ്	-9.19582
ഷൻ	-9.19645
▁അറിയിക്ക	-9.19654
▁മുസ്ലീം	-9.19697
▁പ്രസംഗ	-9.19699
ഗോ	-9.19705
▁ഇറങ്ങ	-9.19761
▁വാക്സിന	-9.19777
▁തയ്യാറ	-9.19783
▁വിവരങ്ങള്‍	-9.19809
▁മുന്നറിയിപ്പ്	-9.19845
▁മേഖലയില്‍	-9.20026
▁ശക്തമാ	-9.2012
▁ശ്രമം	-9.20131
▁മഹ	-9.2019
c	-9.20272
രുതെന്ന	-9.20406
ടേയും	-9.20458
▁വീതം	-9.20512
▁അവര	-9.20633
▁തിരഞ്ഞെടുപ്പിൽ	-9.20656
ശ്യ	-9.20688
%	-9.20851
▁റിയ	-9.20922
▁തുടങ്ങ	-9.20979
▁കള്ള	-9.20992
▁എട്ട്	-9.21087
▁മണ്ഡലം	-9.21153
▁ഫ്ര	-9.21158
▁യുഎസ്	-9.21201
▁സര്‍വീസ	-9.21205
▁ജീവി	-9.2123
▁അധ്യക്ഷന്‍	-9.21252
▁നേരിട	-9.21326
▁നവ	-9.21367
▁80	-9.21414
▁ലഭ്യമാ	-9.21439
▁കൂടിയാണ്	-9.2162
▁പേരുടെ	-9.21631
▁അവസരം	-9.2164
▁മുതല	-9.2164
▁പിടികൂട	-9.21667
▁അബ്ദു	-9.21672
▁ബന്ധം	-9.21677
▁നടക്കുന്നത്	-9.21743
▁കുറിച്ചു	-9.21752
▁വിസ	-9.21784
▁സോണിയ	-9.21786
▁ദുരന്ത	-9.218
▁ഒരുപാട	-9.21922
▁വേണമെന്ന	-9.21986
▁ഫേസ്ബുക്ക	-9.22005
മല	-9.2201
▁പാട	-9.22083
▁കാണിച്ച	-9.22096
ക്കാനാണ്	-9.2212
▁യിലാണ്	-9.22152
▁കൊല്ല	-9.22233
▁ക്കാണ്	-9.22325
▁മാര്‍ച്ച	-9.22335
▁റൂ	-9.22458
▁ഇയാള	-9.22498
▁കാറ	-9.22594
▁ചോദിച്ചു	-9.22601
l	-9.22608
▁യോഗത്തില്‍	-9.22624
▁പ്പെട	-9.22628
▁അടച്ച	-9.22671
▁ആണെന്ന	-9.22721
▁ഓര്‍	-9.22727
▁കുട്ടികള	-9.22754
▁ഉൾ	-9.2282
▁ഇനിയ	-9.22852
▁മാര്‍	-9.22892
▁സൗ	-9.22932
▁കല്ല	-9.22953
▁രാജ്	-9.22973
▁ഏത്	-9.23094
▁ഒളി	-9.23163
▁വിതരണം	-9.23192
▁കൂടുതല	-9.23212
▁മുള്ള	-9.23318
▁കേസെടുത്ത	-9.23405
▁യോട്	-9.23426
▁ശേഷമ	-9.23482
ക്കാല	-9.23555
ശ്ശേരി	-9.23574
▁വിമർശന	-9.23785
▁നിറ	-9.23813
▁ഒഴിവ	-9.23856
േക്കും	-9.23968
▁നില്‍ക്കുന്ന	-9.2405
▁ഉദ്യോഗസ്ഥര	-9.24156
▁സിപിഎമ്മ	-9.24174
▁ഇറാന	-9.2418
▁ജൂണ	-9.24258
▁പ്രോ	-9.24346
▁അടിച്ച	-9.24369
▁എന്താണ്	-9.24473
▁നിര്‍ദ്ദേശ	-9.24537
▁വാങ്ങ	-9.24615
മാരുടെ	-9.24634
▁അഴിമതി	-9.24636
▁ഹൗസ	-9.24657
സീ	-9.24745
▁മന്ത്രിസഭ	-9.24879
▁കണ്ടു	-9.24892
ശാല	-9.24959
▁വുമ	-9.24989
▁സമരം	-9.25004
ക്കൂട്ട	-9.25117
▁യാതൊരു	-9.2512
▁തല്ല	-9.2516
▁നായി	-9.25175
▁താൻ	-9.25197
▁സാഹചര്യം	-9.25289
വിന്റെ	-9.25313
▁സുനി	-9.25332
▁ശിക്ഷ	-9.25368
▁വരാണ്	-9.2539
▁ചെയ്	-9.25405
▁ങ്ങളുടെ	-9.25429
▁നിർദേശ	-9.25503
മ്മി	-9.2554
▁ചെയ്യാന	-9.25578
▁എന്നത	-9.25651
▁ബസ	-9.25656
▁ജനുവരി	-9.25727
▁നിയമം	-9.25735
▁െന്നാണ്	-9.2574
▁മടങ്ങ	-9.25793
▁ചാനല	-9.2591
ിട്ടുള്ളത്	-9.25912
▁ശേഷമാണ	-9.25954
▁വെറു	-9.26114
▁മരണം	-9.26199
▁സ്വപ്ന	-9.26332
▁32	-9.26332
വില	-9.26334
▁ഫേസ്ബുക്ക്	-9.26353
ത്തേക്ക്	-9.26373
▁മേഖലകള	-9.26419
▁ഹരി	-9.26453
റിഞ്ഞ	-9.26523
േറിയ	-9.26552
▁സമ്മേളന	-9.26787
▁സുധാകര	-9.26811
▁തിനാല്‍	-9.26834
▁2021	-9.26954
▁കൂടിക്കാഴ്ച	-9.26954
▁യാത്രക്കാര	-9.26963
▁ചെയ്തിട്ടുണ്ട്	-9.27075
▁അക്കൗണ്ട	-9.27077
▁പ്രവര്‍ത്തകര	-9.27139
▁പ്രസിഡന്റ	-9.27144
▁മണ്ഡലത്തില്‍	-9.27162
▁ട്രെയിന	-9.27214
ജീവ	-9.27229
▁കൈമാറ	-9.27234
▁ബീ	-9.27288
▁റില	-9.27442
▁റിപ്പോർട്ട	-9.27453
▁പിഴ	-9.27482
▁മാസത്ത	-9.27488
▁പന്ത	-9.27552
▁കര്‍ണാടക	-9.27572
▁രാജ്യസഭ	-9.27573
സിസി	-9.27651
▁പിന്നെ	-9.27726
രാജ്	-9.2784
▁ഇസ്രായേല	-9.27945
▁തിനു	-9.27991
ുമുള്ള	-9.28022
▁കോട്ട	-9.28035
▁കോടതിയില്‍	-9.28067
▁നിങ്ങള്‍	-9.28088
▁സാധിക്ക	-9.28096
▁മരുന്ന	-9.28111
▁ബിരുദ	-9.28196
▁പരിഗണിക്ക	-9.28244
▁വ്യക്തമായ	-9.28246
വരെ	-9.2831
▁തന്ത്ര	-9.28323
▁കുഴ	-9.28374
ന്‍റെ	-9.28395
▁പട്ട	-9.2843
▁പെൺകുട്ടി	-9.28445
▁നടത്തുന്നത്	-9.28451
▁മുന്നില	-9.28485
▁മുഴുവന്‍	-9.28701
ക്കാട്	-9.28813
▁വിവര	-9.2882
▁കർഷക	-9.28822
▁മനസിലാ	-9.28851
▁അന്ന	-9.28887
▁ബജറ്റ	-9.2897
▁ഒരാള്‍	-9.29043
▁പരാമര്‍ശ	-9.29073
▁ദിലീപ്	-9.29162
▁വിജയി	-9.29226
▁ബോധ	-9.29312
▁കളില	-9.29313
▁സിപിഐ	-9.29326
▁യാണ	-9.29363
▁അംഗങ്ങള	-9.29417
▁ശോഭ	-9.29453
കൃത	-9.29504
ാണെങ്കില്‍	-9.29635
▁വിവാഹം	-9.29704
▁മേധാവി	-9.29705
▁തൊട്ട	-9.29731
▁ക്കുക	-9.2984
▁നീതി	-9.29883
▁എതിരെ	-9.29908
▁പോവ	-9.2992
▁സ്വാതന്ത്ര്യ	-9.29959
▁ലോട്ടറി	-9.29961
▁ക്കുറിച്ച	-9.29972
▁ഞാന	-9.30024
▁നിങ്ങൾ	-9.30064
▁സംവിധാന	-9.3008
▁ഡോസ്	-9.30081
▁കാര്യത്തില്‍	-9.30083
▁ഡിസംബ	-9.30087
▁വിശദ	-9.30109
▁ടെക്	-9.30113
▁അടിസ്ഥാനത്തില	-9.30132
▁വാര്‍ഡ	-9.30162
ഒ	-9.30346
▁ഉടമ	-9.30347
▁മെന്ന്	-9.30464
▁സ്ഥിരീകരിച്ചു	-9.30611
▁കാര്യങ്ങൾ	-9.30715
▁ത്തിലെ	-9.30717
▁ഉണ്ടായിരുന്നു	-9.3075
▁പ്രവര്‍ത്തന	-9.30809
മീ	-9.30897
▁ിരുന്നത്	-9.30966
▁ബുദ്ധിമുട്ട	-9.30982
▁70	-9.31004
▁നിരക്ക	-9.31045
തിനിടെ	-9.311
▁സഹായി	-9.31242
▁വർക്ക്	-9.31314
▁ഓർ	-9.31338
ന്‍സി	-9.31342
▁മേഖലയില	-9.31397
▁വിള	-9.31568
▁ഉയര	-9.31581
▁ചീഫ്	-9.31756
▁രേഖ	-9.31763
▁നേരിടുന്ന	-9.31788
വൈ	-9.31848
▁ആഗ്രഹിക്കുന്ന	-9.31857
▁പുറത്തുവന്ന	-9.31886
▁പ്രാദേശിക	-9.32015
▁ഹര്‍ജി	-9.32016
▁തയ്യാറായ	-9.32065
▁നാട്ടുകാര	-9.32144
▁റോഡ്	-9.32266
▁ഉദ്യോഗസ്ഥര്‍	-9.32281
▁കയ്യ	-9.32337
▁എന്നിവിടങ്ങളില	-9.32402
ൌ	-9.32535
▁സംസ്	-9.328
▁ജല	-9.32991
▁അതിനിടെ	-9.32991
▁മുണ്ട്	-9.33092
തിനെ	-9.33146
▁സംഭവത്തില്‍	-9.33149
▁പ്രവർത്തന	-9.33155
▁നിര്‍ദേശ	-9.33159
തുപോലെ	-9.33169
▁വടക്ക	-9.33173
▁സ്വതന്ത്ര	-9.33321
▁സിംഗ	-9.33433
▁തട്ടിപ്പ	-9.33558
വര്‍ക്ക്	-9.33646
▁ത്തിയ	-9.33656
▁േക്കും	-9.3366
▁യില്ല	-9.33704
▁കെപിസിസി	-9.33716
▁വിന	-9.33737
ിരുന്നില്ല	-9.33773
▁നിര്‍ദേശം	-9.33809
▁ദിവസത്ത	-9.33809
▁ചെയ്യുന്നു	-9.33839
▁തകർ	-9.33881
ർത്തി	-9.33969
▁ഒപ്പം	-9.34105
▁സാഹചര്യത്ത	-9.34156
▁പ്പോൾ	-9.34363
▁അഭിഭാഷക	-9.34378
▁സഹായം	-9.3439
▁ഇടപെട	-9.34393
▁പിതാവ	-9.34406
▁സൃഷ്ടി	-9.34421
ത്തിലുള്ള	-9.34497
▁താന	-9.34603
▁പ്രവേശന	-9.34645
▁നടപടികള്‍	-9.34738
നീയ	-9.34781
▁ഫോണ്‍	-9.34943
▁യൂത്ത	-9.34972
▁വിജയ്	-9.35015
▁ജീവന	-9.35034
▁ആഴ്ച	-9.35063
▁ഭാരത	-9.35067
▁രേഖപ്പെടുത്തിയ	-9.35072
▁കേസില	-9.35127
▁മൊ	-9.35144
▁ഗ്രൂപ്പ്	-9.35155
എല്‍	-9.35172
▁യല്ല	-9.35191
▁തടയ	-9.35203
▁സീറ്റുകള്‍	-9.35274
▁ഒന്ന്	-9.35472
▁കാണാന	-9.35512
▁ജില്ലയിൽ	-9.3553
▁തിരെ	-9.35571
▁പഴയ	-9.35616
▁മാണെന്നും	-9.35675
▁ജൂലൈ	-9.35717
▁നേതൃത്വത്തില്‍	-9.35756
▁കീഴ	-9.35829
ക്കാനും	-9.3585
▁കെട്ടിട	-9.3589
▁വധ	-9.35928
പുരം	-9.3593
▁സുഹൃത്ത	-9.35985
കക്ഷി	-9.36218
▁യുമായ	-9.36228
ോളജി	-9.36235
▁അടിയന്തര	-9.36256
▁ഇതിനിടെ	-9.36285
▁കാര്‍	-9.36321
▁മാണെന്ന്	-9.36366
▁പൂർത്തിയാ	-9.36398
▁ില്ലെന്ന്	-9.36461
▁പോര	-9.36515
▁കണ്ണൂര	-9.367
▁ശാസ്ത്ര	-9.368
പ്രവർത്തക	-9.36823
▁നേതൃത്വത്തില	-9.36883
▁ഫോട്ടോ	-9.36937
▁ങ്ങളെ	-9.36959
▁ആഗ്രഹ	-9.36966
▁മുണ്ടായ	-9.3697
▁ആരംഭിക്ക	-9.37019
▁ദിവസങ്ങള	-9.3711
▁തേ	-9.37135
▁തുടക്ക	-9.37173
▁ബാങ്ക്	-9.37201
▁തിരികെ	-9.37212
▁മേയ	-9.37216
▁സീസണ	-9.37231
▁അറിഞ്ഞ	-9.37262
▁സുരക്ഷിത	-9.37286
▁താണെന്ന	-9.37323
▁ധാരണ	-9.37362
▁ക്കാൻ	-9.37362
▁അത്ര	-9.37423
തല	-9.37474
▁ഇന്ത്യയില്‍	-9.37523
▁ങ്ങളില്‍	-9.37624
▁പെട്ട	-9.3773
▁ഉപയോഗിക്ക	-9.37737
▁വിധേയ	-9.37759
▁പശ്ചാത്തലത്തില	-9.37786
▁കെട്ടി	-9.37854
▁കേസുകള്‍	-9.37999
▁ട്വീറ്റ	-9.38032
▁ഭരണഘടന	-9.38032
▁പ്രവാസി	-9.38111
▁ഉണ്ടെന്ന	-9.38138
▁നിലയില്‍	-9.38198
▁മാന	-9.38236
▁ലോക്ക്	-9.38239
ുവെന്ന	-9.38363
ർത്ഥ	-9.38392
▁സ്വർണ	-9.38451
▁പരാജയ	-9.38452
▁വെട്ടി	-9.38466
▁തയ്യാറാ	-9.38475
ഞ്ജ	-9.38691
▁ഇന്ത്യയിലെ	-9.38791
▁ത്തിലും	-9.38932
▁ഫെബ്രുവരി	-9.39002
▁വ്യവസായ	-9.39002
▁ള്ള	-9.39065
▁ഉള്‍പ്പെടെ	-9.39077
▁വാദം	-9.39108
ടക്കം	-9.39118
▁ചെന്നൈ	-9.39142
▁2,	-9.39191
▁37	-9.39226
▁റിപ്പോര്‍ട്ടുകള	-9.39241
▁റദ്ദാക്ക	-9.39282
▁പുറത്തിറ	-9.39303
▁നീണ്ട	-9.39342
▁കോളേജ്	-9.3935
▁യിലേക്ക	-9.39465
▁36	-9.39512
▁ഉൾപ്പെടെ	-9.39636
▁ചെയ്യാൻ	-9.39639
▁ഭരണം	-9.39692
ുണ്ടോ	-9.39721
▁വോട്ടുകള്‍	-9.39754
▁ആന്റ	-9.3976
▁കരി	-9.39767
▁മൃതദേഹം	-9.39849
▁ുവെന്ന്	-9.39995
▁പറ	-9.40112
▁33	-9.40173
▁വിചാരണ	-9.40263
▁പൂര്‍ത്തിയാ	-9.40274
▁പരസ്യ	-9.40293
▁യാണെന്ന്	-9.40402
▁സമാധാന	-9.40404
▁അദ്ദേഹത്തിന്	-9.40521
▁സെന്റ	-9.40533
▁ഘടക	-9.40561
▁പുറത്താക്ക	-9.40573
▁പേരിൽ	-9.40623
▁തെരഞ്ഞെടുപ്പ്	-9.40703
▁എച്ച്	-9.40716
▁രാജ്യം	-9.40756
ത്തിനിടെ	-9.40791
▁ഓടി	-9.40904
▁സെന്ററ	-9.4093
▁സംവിധാനം	-9.40961
▁സാമൂഹിക	-9.4097
▁മനസ്സ	-9.40973
▁വീട്ടില	-9.41156
▁എംഎല്‍എമാര	-9.41171
▁അവസര	-9.41223
▁ലാണ്	-9.41274
▁ഹോട്ടല	-9.41276
▁തുടരുന്ന	-9.41324
▁തിരഞ്ഞെടുക്ക	-9.41397
▁പരിഹരിക്ക	-9.41397
▁ഭാഷ	-9.41615
▁നിര്‍ത്ത	-9.41652
▁തൊഴിലാളികള	-9.41753
ച്ഛ	-9.41832
▁യ്ക്കും	-9.41898
‍	-9.41935
▁ഒപ്പ	-9.41969
▁സന്ദേശ	-9.42112
▁സഹകരണ	-9.42113
▁വാങ്ങിയ	-9.4212
▁ആവശ്യമായ	-9.42174
▁ജനങ്ങൾ	-9.42226
▁വര്‍ഷത്ത	-9.42265
ാട്	-9.4229
▁ആരോപിച്ച	-9.42371
▁ാൽ	-9.42389
ീവ്	-9.4252
▁വീട്ടിൽ	-9.42546
▁മഹാരാഷ്ട്ര	-9.42549
മെന്ന്	-9.42712
െതിരെ	-9.42723
നിര	-9.42776
▁റിസ	-9.42956
▁ഡൽഹി	-9.42977
▁ശബ്ദ	-9.42977
▁വര്‍ക്ക	-9.43102
ഗ്ഗ	-9.43124
▁കയറി	-9.43157
▁ടിക്കറ്റ്	-9.43182
▁തുറക്ക	-9.43301
▁പേര്‍ക്ക	-9.43341
▁തങ്ങള്‍	-9.43346
▁തിരക്ക	-9.43354
ടുക്ക	-9.4337
▁ആക്രമണം	-9.43407
▁നേതാക്കളെ	-9.43415
ൊപ്പ	-9.43479
▁മാര്‍ക്ക	-9.4355
വെച്ച	-9.43672
▁നേതൃത്വ	-9.4388
▁കുട	-9.4388
ിക്കല്‍	-9.43941
▁55	-9.43976
എന്‍	-9.44058
▁ഇക്കാര്യ	-9.44063
20	-9.44089
▁ത്തിലാണ്	-9.44144
▁ഏഴ	-9.44221
ുമായിരുന്നു	-9.44256
▁പകര	-9.44266
▁മന്ത്രിമാര	-9.44285
▁താല്‍പര്യ	-9.44289
▁ഫിറോസ	-9.44292
▁വിഷയത്തില	-9.44372
▁യാള	-9.44435
▁വേള	-9.44492
▁ജീവിതം	-9.44627
▁ഫെ	-9.44668
▁പ്രതികരിച്ച	-9.44703
▁യാദവ	-9.44754
▁ശക്ത	-9.44776
▁നിര്‍ത്തി	-9.44859
▁പേര്‍ക്കും	-9.44895
▁അധിക	-9.44919
▁മെന്ന	-9.44942
▁ിക്കാന	-9.4502
▁ലോക്സഭ	-9.45026
▁ഉമ്മന്‍	-9.45251
▁അംഗീകരിക്ക	-9.45338
▁രൂക്ഷ	-9.45413
ൊപ്പം	-9.45459
▁പങ്കുവെച്ച	-9.4547
▁വീടുകള	-9.4551
▁കിലോമീറ്റ	-9.45571
▁അധികം	-9.4558
▁ഭീകര	-9.45625
▁ണ്	-9.45733
▁മിനി	-9.45756
▁ഭരണകൂട	-9.45767
▁48	-9.45776
▁വൃത്ത	-9.45784
▁വിഷയം	-9.45791
ുകൊണ്ട്	-9.45814
▁!!	-9.4593
മിന	-9.45946
▁34	-9.45982
▁അന്താരാഷ്ട	-9.46035
▁അഭിമുഖ	-9.46035
!	-9.4604
ിറങ്ങി	-9.46047
▁തമ്മില്‍	-9.46077
▁പക്ഷെ	-9.46085
▁മൂലം	-9.46087
▁ങ്ങളാണ്	-9.4612
▁തേടിയ	-9.46147
▁2020	-9.4625
▁ഫീ	-9.4629
▁ഫണ്ട	-9.46303
▁അന്വേഷിക്ക	-9.46365
ഡോ	-9.46407
▁ക്വാ	-9.4646
▁ഇടത്	-9.46461
▁ിരിക്കുന്ന	-9.46549
▁ഏതെങ്കിലു	-9.46556
▁രോഗി	-9.4656
▁സ്ഥാനത്ത	-9.46638
▁2016	-9.46665
▁വേദി	-9.46772
▁കളിലും	-9.46782
▁സ്ഥാനാര്‍ഥി	-9.46815
▁നിമിഷ	-9.46816
▁75	-9.46837
▁വാദ	-9.46862
▁തട്ടി	-9.46874
▁പരിക്കേറ്റ	-9.46967
▁ജാമ്യം	-9.46971
ബോ	-9.47197
▁ക്യാ	-9.47268
ക്കിടെ	-9.47273
▁നാള	-9.47383
▁മൊത്ത	-9.47411
▁ഇന്റ	-9.47418
▁അധികൃതര്‍	-9.47443
▁ജയിച്ച	-9.47512
d	-9.4757
▁ിരുന്നുവെന്ന	-9.47665
▁ക്കേണ്ട	-9.47689
▁പ്രതികരിച്ചു	-9.47705
▁പ്രവേശിപ്പിച്ച	-9.47722
▁വിദഗ്ധ	-9.47722
ധാര	-9.47779
▁ത്തിനു	-9.47788
▁എവിടെ	-9.47876
▁ിരുന്നില്ല	-9.47886
▁എല്‍ഡിഎഫ	-9.4794
▁വിധ	-9.47949
▁പോകുന്നത്	-9.48173
▁നവംബ	-9.48181
▁ത്തിലേക്ക്	-9.48217
▁അനുസരിച്ച	-9.48282
▁ഉണ്ടാകും	-9.48304
രാഷ്ട്ര	-9.48352
▁കാരി	-9.48395
▁മരിച്ചത്	-9.48477
▁മൂന്നു	-9.48641
▁‍	-9.48715
▁ജയിലില	-9.48763
▁കുമാർ	-9.48842
▁അധ്യാപക	-9.48944
▁സ്വന്തമാക്ക	-9.49099
▁മൂല്യ	-9.49141
▁പത്ര	-9.49216
▁പേർക്ക്	-9.49232
▁മുഖ്യ	-9.4933
ഢ	-9.49407
▁ബിസിനസ്	-9.49461
▁43	-9.49567
യിട	-9.49646
▁മുതിര്‍	-9.49721
▁കാലം	-9.49759
▁മണ്ണ	-9.49783
▁സുരേന്ദ്രന്‍	-9.49806
▁ജീവിതത്ത	-9.49929
▁ഗ്രഹ	-9.49966
▁മുഴുവ	-9.5002
▁കർണാടക	-9.50026
▁രഹസ്യ	-9.50026
▁കൃഷി	-9.50027
▁പെട്ടെന്ന	-9.50084
യോട്	-9.50128
▁രേഖപ്പെടുത്ത	-9.5017
m	-9.50338
ാര്‍ത്ഥ	-9.5034
ോട്ട്	-9.50419
ത്തിനു	-9.50477
▁പോസിറ്റീവ	-9.50494
▁സിന്ധ്യ	-9.50496
▁ഊ	-9.50539
▁തര്‍ക്ക	-9.50544
▁കുറ്റപ്പെടുത്തി	-9.50558
▁അടുത്തിടെ	-9.50651
വിട	-9.50657
▁നിതീഷ	-9.50667
ഞ്ചേരി	-9.50674
▁നടത്താന	-9.50769
▁കൊടു	-9.50773
ാറുണ്ട്	-9.50774
▁ിട്ടും	-9.5087
▁പീ	-9.50925
▁നേരത്തേ	-9.50956
▁ഉടന്‍	-9.50969
▁ിരിക്കുന്നു	-9.51014
▁വ്യാപാര	-9.51067
▁നങ്ങള്‍	-9.51084
▁കഥ	-9.5113
▁വ്യക്തമാ	-9.5121
▁തുടങ്ങിയവ	-9.51218
▁ക്കുകയായിരുന്നു	-9.51221
▁സംവിധായക	-9.51277
▁നൂറ	-9.51282
▁ഉള്‍	-9.51575
പ്പെടുത്തുന്ന	-9.51612
▁നോട്ട	-9.51629
▁മാസ്	-9.51632
▁പങ്കാളി	-9.51753
▁ചോദിക്കുന്ന	-9.51839
▁പോളി	-9.51913
▁പൗരത്വ	-9.52175
▁ജ്യോതി	-9.52226
▁പാര്‍ലമെന്റ	-9.52226
▁എൽഡിഎഫ	-9.52385
▁പീഡന	-9.52386
▁പ്രമേയ	-9.52386
▁ദേ	-9.52427
▁അല്‍	-9.52434
▁കമന്റ	-9.52458
▁നമ്മള്‍	-9.52477
▁ലക്ഷ്യ	-9.52585
▁ജനങ്ങളുടെ	-9.52672
ൂട്ടിച്ചേര്‍ത്തു	-9.52704
▁ഏറ്റെടുത്ത	-9.52704
▁ജനങ്ങള	-9.52764
▁ആത്മഹത്യ	-9.52864
▁േക്കുമെന്ന	-9.52872
▁തേട	-9.52925
▁ഉദ്ഘാടനം	-9.53011
▁ഭാഗത്ത്	-9.53061
▁ഇല്ലാതാ	-9.53074
▁പൂര	-9.53092
▁മരിച്ചു	-9.53167
▁പൈലറ്റ	-9.53184
▁സിനിമാ	-9.53224
ട്രി	-9.53275
▁ഇടപെടല	-9.53312
▁വിജയന്‍	-9.53328
▁നിൽക്ക	-9.53407
▁പരിശീലന	-9.53505
▁പുറമെ	-9.53505
▁ഒര	-9.5358
ാതിരുന്ന	-9.53605
യുമായ	-9.53642
▁തൊഴില്‍	-9.53695
▁ഇല്ലാത്ത	-9.53801
▁നിര്‍ണായക	-9.53827
▁അഭിനയ	-9.53832
▁പ്രഖ്യാപിക്ക	-9.53835
ാവസ്ഥ	-9.53949
▁രാശിക്കാര	-9.53961
▁മധ്യപ്രദേശ	-9.53989
▁ആലോചി	-9.53989
▁കൊണ്ടുവന്ന	-9.5399
▁തൃ	-9.54024
തിനാല്‍	-9.54069
▁കണ്ടെത്തി	-9.54148
▁നെഗറ്റീവ	-9.54151
▁നന്ദി	-9.5418
▁അഡ്വ	-9.54181
▁ത്തിലൂടെ	-9.54239
▁കൂട്ടി	-9.54288
▁90	-9.54296
▁അച്ഛന	-9.54308
▁ശശി	-9.54372
രാമ	-9.54406
▁വിവരങ്ങൾ	-9.5449
കുളം	-9.54542
▁സമീപിച്ച	-9.54568
▁നിങ്ങളുട	-9.54593
▁ആളുകള	-9.54601
▁സമുദായ	-9.54638
▁കുത്തി	-9.54638
▁വന	-9.5469
▁മീ	-9.54793
▁അഖില	-9.548
▁പ്രവര്‍ത്തക	-9.54829
▁വെള്ളം	-9.54866
▁ആദ്യമായി	-9.54888
▁നടത്തിയിരുന്നു	-9.54916
▁യുണ്ടായ	-9.54916
▁തൃണമൂല	-9.54964
ാരോഗ്യ	-9.54964
▁പ്രണയ	-9.54985
▁പ്രചാരണം	-9.55074
▁കലാപ	-9.55108
▁കസ്റ്റഡി	-9.5512
▁ഓണ്‍ലൈന	-9.55127
▁ശബരിമല	-9.55127
▁പരിഹാര	-9.55292
▁രാമ	-9.55294
▁44	-9.55306
▁മക്കള	-9.55312
▁കാത്തിരി	-9.55401
▁ട്രംപ്	-9.55445
▁വായ	-9.55588
▁അറേബ്യ	-9.55783
ആർ	-9.55793
▁എട്ട	-9.55808
▁റണ്‍സ	-9.55829
▁അവധി	-9.55855
ാകുമെന്ന	-9.55868
▁),	-9.55875
കുമാര്‍	-9.5593
▁വ്യവസ്ഥ	-9.55948
▁പ്പോഴ	-9.55991
ാഴ്ച	-9.56049
▁പ്രദേശത്ത	-9.56077
▁ശ്രദ്ധിക്ക	-9.56101
▁ഗതാഗത	-9.56113
▁ശേഷി	-9.56164
▁ഡ്ര	-9.56278
▁ഞായറാഴ്ച	-9.56278
▁വ്യത്യസ്ത	-9.56278
▁ഐക്യ	-9.56292
▁ആന്റണി	-9.56332
▁കുന്ന	-9.56349
▁എല്‍ഡിഎഫ്	-9.56372
▁സാമ്പിളുകള	-9.56444
▁ഓഫീസര്‍	-9.56459
▁തോന്ന	-9.56585
▁മല്‍സര	-9.56631
▁ുണ്ടായിരുന്നു	-9.5666
▁കോണ്‍ഗ്രസിന	-9.56721
▁താലിബാ	-9.56776
ബ്ര	-9.56796
▁ആശുപത്രിയിൽ	-9.56811
ാര്‍ഷിക	-9.56816
▁സബ്	-9.57011
▁തുടർന്ന	-9.57105
▁കര്‍ഷക	-9.57113
▁ഏകദേശ	-9.57132
▁യോഗി	-9.57144
▁ചെയ്യുക	-9.57222
▁വേദന	-9.57279
▁എന്നിവർ	-9.5735
▁2022	-9.57443
▁തായിരുന്നു	-9.57471
▁കാലത്ത	-9.57498
▁തരംഗ	-9.57566
▁സുരേന്ദ്ര	-9.57584
▁എസ്പി	-9.57634
▁ഇരട്ട	-9.57673
▁ഇതാണ്	-9.57756
A	-9.57778
▁വൈദ്യുതി	-9.5795
▁ഉയരുന്ന	-9.58036
▁തീർ	-9.58071
▁ഒക്കെ	-9.58129
▁നിയമനം	-9.58193
▁പരമാവധി	-9.58284
▁സാന്നിധ്യ	-9.58284
▁തടസ്സ	-9.58287
േന്ദ്ര	-9.583
ജ്ജ	-9.58313
▁പെരു	-9.58437
▁ജില്ലകളില്‍	-9.58589
▁പരിശോധനയ്ക്ക	-9.58598
▁കൗണ്‍സില	-9.58622
▁സതീശന	-9.58622
▁ഇറക്ക	-9.58625
▁അറിയിച്ചത്	-9.58679
മാകുന്ന	-9.58707
മുണ്ടായ	-9.5877
▁പോലുള്ള	-9.58795
▁199	-9.58817
▁കടുവ	-9.58928
▁മുന്നോട്ടു	-9.58961
ഷ്ണ	-9.59009
▁ഞങ്ങള	-9.59061
▁ഭക്ഷണ	-9.59088
▁പാത	-9.59122
▁യുമാണ്	-9.59233
I	-9.59301
▁ഹൃദയ	-9.59301
▁കാലയളവ	-9.59472
▁നടപ്പിലാക്ക	-9.59549
ിട്ടുള്ള	-9.59643
▁ഒക്ടോബ	-9.59643
▁മാനസിക	-9.59644
▁അറസ്റ്റിലായ	-9.59647
▁തേടി	-9.59708
▁പിന്നില	-9.59726
▁പൂർ	-9.59771
▁മന്ത്രാലയം	-9.59776
▁പരിഗണിച്ച	-9.59814
▁സുധാകരന്‍	-9.60084
▁കണ്ടെത്തിയത്	-9.60154
▁ബോസ	-9.60157
▁കശ്മീര	-9.60157
▁ശനിയാഴ്ച	-9.60157
▁പ്രൊ	-9.60188
▁പാലാ	-9.60228
▁നഴ്	-9.60293
▁42	-9.60311
▁നിറഞ്ഞ	-9.60331
▁നല്‍കാന	-9.60362
▁മുന്നിൽ	-9.60362
ങ	-9.60383
▁വാക്സിൻ	-9.60504
ദാസ	-9.60561
▁38	-9.6057
▁എംഎൽഎ	-9.6062
▁കടല	-9.60622
▁2018	-9.60675
▁മെന്നും	-9.60753
▁ആക്രമിച്ച	-9.60911
▁നടത്തുക	-9.60912
▁അകല	-9.60932
▁സ്ഥാനത്ത്	-9.6097
▁അന്ത	-9.61152
ക്കപ്പെട്ട	-9.61172
▁ആളുകൾ	-9.61184
▁ലാഭ	-9.61206
▁വിദ്യ	-9.61323
▁വിപണി	-9.61371
-19	-9.61377
▁ഭൂരിപക്ഷ	-9.61415
▁കഴിക്ക	-9.61511
▁സൗജന്യ	-9.61543
▁ഉപതിരഞ്ഞെടുപ്പ	-9.61543
▁ഭര്‍ത്താവ	-9.61543
▁ഓണ	-9.616
▁കാരണമായ	-9.616
▁രൂക്ഷമായ	-9.61611
െക്കുറിച്ച്	-9.61693
▁വോട്ടെടുപ്പ	-9.6172
▁വിശദമായ	-9.61741
▁അത്തര	-9.6178
▁അറിയാം	-9.61789
▁ഗുരുതര	-9.61853
▁ഉള്‍പ്പെടു	-9.61865
▁ത്തോടെ	-9.61872
ാണു	-9.61882
ാകെ	-9.61899
▁ബോര്‍ഡ	-9.61921
▁നിലയില	-9.61981
▁മുരളീധര	-9.621
▁39	-9.6211
▁കക്ഷി	-9.62125
▁ഉപയോഗിക്കുന്ന	-9.62145
▁റീ	-9.62283
▁വർഷത്ത	-9.62363
▁അയാള	-9.62439
▁മധ്യ	-9.62557
▁തിരഞ്ഞെടുപ്പിന്	-9.6256
▁ഇക്കാര്യത്തില്‍	-9.62586
▁സാമൂഹ്യ	-9.62595
▁ഇടപെട്ട	-9.62611
▁വാങ്ങി	-9.62706
▁കരുതുന്ന	-9.62743
▁രോഗമുക്തി	-9.62771
പ്പോഴാണ്	-9.62834
▁മുതിർന്ന	-9.62948
▁വെള്ളിയാഴ്ച	-9.62948
▁പാടില്ല	-9.63007
▁ഇതിനെ	-9.63075
▁കടന്നു	-9.6309
▁വീഴ	-9.63237
▁ആശ്വാസ	-9.63302
▁ശമ്പളം	-9.63361
▁ഒരേ	-9.63496
▁ഇവര്‍ക്ക്	-9.63505
▁വിദ്യാര്‍ത്ഥി	-9.63564
ങ്ങാട്	-9.63688
▁പ്രേക്ഷക	-9.63836
ൊടു	-9.63839
▁എതിർ	-9.63844
പിടി	-9.63941
▁സഞ്ചരി	-9.6402
▁രൂപയും	-9.64035
▁അറസ്റ്റ	-9.64072
▁ജനങ്ങളെ	-9.64085
▁ആത്മ	-9.64127
▁ഗ്യ	-9.64137
▁പൊളി	-9.64175
▁കോര്‍പ്പറേഷന	-9.64193
▁സംരക്ഷണ	-9.64193
▁രാശിക്കാര്‍ക്ക	-9.64299
▁നഷ്ടപ്പെട്ട	-9.6431
▁പ്രാഥമിക	-9.64372
▁സർക്കാരിന്റെ	-9.64378
▁ഉദ്ദേശ	-9.64552
▁കൂട്ടിച്ചേർത്തു	-9.64562
▁ബന്ധുക്കള	-9.64579
▁അതിര്‍ത്തി	-9.64582
▁സോഷ്യൽ	-9.64732
▁സഖ്യം	-9.64784
▁റിയാസ	-9.64791
▁കോഴ	-9.64859
▁അതിനെ	-9.649
▁സംസ്ഥാനങ്ങളില	-9.64916
▁പൂര്‍ണമായ	-9.64925
▁ഭക്ഷണം	-9.64958
▁നാവ	-9.65057
▁നേതാക്കളുടെ	-9.6507
▁മാതൃക	-9.65092
▁താമസിക്കുന്ന	-9.65135
▁തിങ്കളാഴ്ച	-9.65175
ിനായി	-9.6527
▁കരുത്ത	-9.65412
▁നടപടികൾ	-9.65448
▁എനിക്ക	-9.65716
വിട്ട	-9.65753
▁കിടക്ക	-9.65906
▁സംഘര്‍ഷ	-9.66002
▁വന്നിരുന്നു	-9.66056
▁തീയതി	-9.66185
▁സുപ്രീംകോടതി	-9.66365
▁വോട്ടുകള	-9.66488
▁വ്യാ	-9.66549
▁യിലൂടെ	-9.66558
▁സിങ്	-9.66609
▁മത്സരിക്കുന്ന	-9.66688
▁എമ്മ	-9.6685
▁2017	-9.66916
▁പ്രതിഫല	-9.66928
▁സ്വപ്	-9.66935
▁മുൻപ്	-9.66967
▁അട്ടിമറി	-9.671
▁അഭിനന്ദ	-9.67284
▁ആഗോള	-9.67285
▁ന്യായ	-9.6729
▁ഭൂരിപക്ഷം	-9.67291
▁ശരി	-9.67434
▁സമൂഹത്ത	-9.6746
▁മാനദണ്ഡ	-9.67469
▁തിരിച്ചറിയ	-9.67533
▁പരാജയപ്പെട്ട	-9.67551
▁നിലയിൽ	-9.67742
▁ടെസ്റ്റ്	-9.67791
▁സംസ്ഥാനങ്ങളില്‍	-9.67806
▁ജനത	-9.67816
▁ഏറ്റെടുക്ക	-9.6784
▁താരങ്ങള	-9.67844
▁പ്രവർത്തകർ	-9.67848
▁ക്കിടയില	-9.67908
▁എയര്‍	-9.68004
▁ദീപ	-9.68108
ാണുള്ളത്	-9.68178
▁സമാനമായ	-9.68236
▁41	-9.68257
▁ലൈന	-9.68303
▁നടന	-9.68337
▁രോ	-9.68352
▁പോയത്	-9.68359
▁സാങ്കേതിക	-9.68773
▁ഇടപാട	-9.68774
▁കിഴക്ക	-9.68786
▁മീഡിയയില	-9.68787
▁ഉള്‍പ്പെടെയുള്ള	-9.6886
▁ചര്‍ച്ചകള്‍	-9.68931
▁ഉച്ച	-9.69015
▁പഠിക്ക	-9.69036
▁സ്ഥലം	-9.69049
കാര്യ	-9.69108
▁സാധ്യതയുണ്ട്	-9.69151
നെതിരെ	-9.69175
തിനാൽ	-9.69223
▁കലാ	-9.69318
▁ഭാഗമായ	-9.69334
▁സാധിക്കില്ല	-9.69376
▁ശരീര	-9.69417
▁ക്കോ	-9.69438
▁ഉത്തരവാദിത്ത	-9.69525
.30	-9.69555
▁ഇല്ലെന്ന	-9.69561
▁ിട്ടുണ്ട	-9.69565
▁മുന്നേറ്റ	-9.69589
ിലേറെ	-9.69596
▁ക്കണം	-9.69621
▁പ്രവര്‍ത്തി	-9.69706
▁വീടുകളില	-9.69777
ഞ	-9.69784
▁ബാഗ	-9.6985
▁വിഷ്ണു	-9.69908
▁മണ്ഡലത്തിൽ	-9.6993
▁തുടക്കം	-9.70012
▁മെന്റ	-9.70079
▁ചൊവ്വാഴ്ച	-9.70097
▁ഭാവി	-9.70129
▁പ്രകാശ	-9.70284
▁പാസ്	-9.70322
ൻ്റ	-9.70369
▁വാദി	-9.70402
▁ചെയ്യേണ്ട	-9.70415
▁നായിരുന്നു	-9.70615
▁ഗവര്‍ണര്‍	-9.70665
p	-9.70665
▁ചെയര്‍മാന	-9.70665
▁തകര്‍ന്ന	-9.70665
▁കീഴില	-9.70701
▁പ്രതികരിക്ക	-9.7071
▁ബോധ്യ	-9.7072
▁നേട്ടം	-9.70775
▁കളക്ടര്‍	-9.70857
▁തോന്നിയ	-9.70881
▁തടഞ്ഞ	-9.71086
▁ബിജെപിയെ	-9.71096
▁ചെയ്യുകയ	-9.71121
ിക്കുകയായിരുന്നു	-9.7115
▁ഇഡി	-9.71202
▁താലൂക്ക	-9.7124
▁ഡോളറ	-9.71243
കൊണ്ട	-9.71246
▁ടീം	-9.71273
▁46	-9.71289
▁രീതിയിൽ	-9.71292
▁യോട	-9.71398
▁കാനഡ	-9.71447
▁വിമത	-9.71465
▁പ്രഖ്യാപനം	-9.71554
▁അറിയിച്ചിരുന്നു	-9.71596
▁ഉടൻ	-9.71631
▁ട്രംപ	-9.7168
▁െടുക്ക	-9.71777
▁വയ്ക്ക	-9.71811
▁പിന്നില്‍	-9.71856
▁പ്രവർത്തകര	-9.71969
▁47	-9.72054
▁മേല്‍	-9.72105
▁നല്‍കിയിരുന്നു	-9.72123
▁500	-9.72197
▁പശ്ചിമ	-9.72205
▁സ്നേഹ	-9.72205
▁ക്ഷണിച്ച	-9.72218
▁തെക്ക	-9.72278
▁ഉദ്യോഗസ്ഥ	-9.72284
▁നിര്‍ദേശിച്ച	-9.72343
▁പരിഗണന	-9.72399
▁സമര്‍പ്പിച്ച	-9.724
ുണ്ടെന്ന്	-9.724
▁കൊള്ള	-9.72414
▁49	-9.72583
ണ്ടെന്നും	-9.72637
▁ഒമ്പത	-9.7282
പാത	-9.72858
▁മണ്ഡലങ്ങളില	-9.7288
▁ചേര്‍ത്ത	-9.73047
▁പെട്രോള	-9.7318
▁പുറമേ	-9.7318
S	-9.73376
▁ജാതി	-9.73426
▁വാഗ്ദാനം	-9.73493
▁പറയാന്‍	-9.73519
▁ആരാധ	-9.73564
▁ജസ്റ്റിസ്	-9.73572
▁2023	-9.73572
▁54	-9.73644
▁മുണ്ടെന്ന	-9.7365
▁നോക്കി	-9.73687
▁ഷാജി	-9.73693
▁തമിഴ്നാട്	-9.73819
ാനാവില്ല	-9.73835
▁കുള	-9.73851
▁കണ്ടെത്താന	-9.73852
കാര്യം	-9.73994
▁നിര്‍ബന്ധ	-9.74164
▁ജില്ലകളിൽ	-9.74227
▁കാണിക്ക	-9.74338
▁വ്യാപന	-9.74345
▁എന്‍ഡിഎ	-9.74362
▁കര്‍ശന	-9.74362
▁ദിവസങ്ങളില	-9.74519
u	-9.7456
▁അംബാനി	-9.7456
▁നിരന്തര	-9.74562
▁തിരിച്ചെത്ത	-9.74564
▁യുണ്ട്	-9.74669
▁65	-9.74676
▁സീറ്റില്‍	-9.74713
▁മാര്‍ഗ	-9.74819
▁ടൂറിസം	-9.74958
▁ബുധനാഴ്ച	-9.74961
▁നോട്ടീസ്	-9.7499
▁ആരാധകര	-9.7511
▁തീവ്ര	-9.75144
▁പ്രവൃത്തി	-9.75158
▁ഭക്ഷ്യ	-9.75158
▁പ്രവര്‍ത്തനം	-9.75308
▁രണ്ടാമത്ത	-9.75362
▁പൂജ	-9.75543
▁യുവാക്കള	-9.75561
▁തിരുത്ത	-9.75656
▁ഹർജി	-9.75761
▁രാജ്യത്തിന്റെ	-9.75762
▁നിര്‍മാണ	-9.75764
▁കയറ	-9.75779
▁നല്‍കുന്നത്	-9.75851
C	-9.7596
▁സ്ഥാപിച്ച	-9.7596
▁എളുപ്പ	-9.7596
▁റാലി	-9.75992
▁ബൂത്ത	-9.76021
▁ബെംഗളൂരു	-9.76162
▁തീവ്രവാദ	-9.76178
▁സ്റ്റോ	-9.76353
▁കണക്കാക്ക	-9.76403
▁പ്രദേശങ്ങള	-9.76436
▁ബില്ല	-9.76472
▁കോളജ	-9.76476
▁യിലുള്ള	-9.76479
▁2024	-9.76567
▁വിതരണ	-9.76582
ർദ്ദ	-9.76639
▁കിലോ	-9.76734
▁സിബിഐ	-9.7677
ല്ലാതെ	-9.76834
▁ടിക്കറ്റ	-9.769
▁വായ്പ	-9.76933
h	-9.76972
മംഗലം	-9.76973
▁നാഷണ	-9.76974
▁മോശം	-9.76983
▁കത്തി	-9.77004
▁ക്കെതിരായ	-9.77059
▁വ്യാപനം	-9.77194
▁കുടി	-9.77567
▁സ്ഥാപിക്ക	-9.77585
▁ഏപ്രില്‍	-9.77586
in	-9.77615
▁ഗുരുതരമായ	-9.77631
▁എതിര്‍	-9.77635
▁വിഷയങ്ങള	-9.77698
▁മുട്ട	-9.77705
▁ഇറങ്ങിയ	-9.77724
▁പേരില	-9.77756
▁കാസര്‍ഗോഡ്	-9.7779
▁വിനോദ	-9.77793
▁വരുമെന്ന	-9.77841
▁വരവ	-9.77978
▁പ്രാധാന്യ	-9.77995
▁മാണെന്ന	-9.78029
▁യുക്രൈന	-9.78125
▁ആശ	-9.78149
▁തലത്തില്‍	-9.78169
▁ന്യൂനപക്ഷ	-9.78201
▁തർക്ക	-9.78251
▁തിനാൽ	-9.78286
▁ത്തിനുള്ള	-9.78301
▁ഗാന്ധിയുടെ	-9.78368
▁വേറെ	-9.78385
▁സുഹൃത്തുക്കള	-9.78408
▁സംരക്ഷിക്ക	-9.78596
▁പുതുതായ	-9.7863
▁കരാറ	-9.78662
▁52	-9.78711
▁പശ്ചാത്തല	-9.78778
▁സമയത്ത	-9.78812
▁ഗൗരവ	-9.78821
▁സൂപ്പര്‍	-9.78821
▁സെപ്റ്റംബ	-9.78821
▁മന്ത്രാലയ	-9.78867
▁വകുപ്പിന്റെ	-9.78871
▁ഉൾപ്പെടെയുള്ള	-9.78916
▁നിൽക്കുന്ന	-9.78932
▁കാണുന്നത്	-9.78995
▁വൈറസ	-9.78998
▁നിർത്തി	-9.79009
▁പതിവ	-9.79028
▁വ്യാഴാഴ്ച	-9.79028
▁അംഗീകാര	-9.79028
▁ശേഖര	-9.7907
▁പറയാന	-9.79176
▁പ്ലാന	-9.79181
▁സമ്പര്‍ക്കം	-9.79302
▁ഉപയോഗ	-9.79365
▁ധാ	-9.7939
▁പിന്തുണച്ച	-9.79507
▁സീറ്റുകളില	-9.7951
▁മേഖലയിൽ	-9.79632
▁വിശദീകരണം	-9.79653
▁കളുമായി	-9.79908
യാക്കി	-9.80029
▁ഉമ്മ	-9.80048
▁കര്‍ഷകര്‍	-9.80078
▁ജയരാജന	-9.80092
▁വർദ്ധ	-9.80179
▁കടത്ത	-9.80197
▁കമ്മീഷന്‍	-9.80297
▁വാക്കുകള	-9.80503
▁ഇവിട	-9.80531
▁ഇത്തരത്തില	-9.80585
▁ചോദിക്ക	-9.80612
▁പ്രതികരണ	-9.80661
തീവ	-9.80684
▁കയറിയ	-9.807
▁വസ്ത്ര	-9.8071
▁കെഎസ്	-9.80792
▁ഇത്തരമൊര	-9.80795
▁പാകിസ്താന	-9.80915
▁അഭിമാന	-9.8095
▁പ്രഖ്യാപന	-9.80993
▁മുല്ലപ്പള്ളി	-9.81127
▁മണിക്കൂ	-9.81138
▁മണ്ഡലത്തില	-9.81138
▁രേഖകള	-9.8117
▁സോണ	-9.81245
▁ഭേദഗതി	-9.81256
▁ഇന്ത്യയിൽ	-9.81256
▁മുണ്ടാക	-9.81269
▁നിയന്ത്രി	-9.81305
▁വാങ്ങുന്ന	-9.81308
േക്കാള്‍	-9.8132
▁വിദ്യാര്‍ത്ഥികള	-9.8145
എന്തെങ്കിലും	-9.81477
▁മൊബൈല	-9.81552
▁അന്തിമ	-9.8156
▁51	-9.81668
▁എങ്കിലും	-9.81683
▁ഗോവ	-9.81689
ാവകാശ	-9.81765
▁ഒരാൾ	-9.81766
▁ധനമന്ത്രി	-9.81989
▁ബൈഡന	-9.82008
▁ഓള	-9.82053
▁കളിലേക്ക	-9.82148
▁സംഘടിപ്പിച്ച	-9.82193
▁ക്രൂര	-9.82194
▁ആശുപത്രികളില	-9.82235
രാജ	-9.82238
▁ആക്ഷേപ	-9.82407
▁യൂണിറ്റ	-9.8241
▁ക്ഷേമ	-9.82411
▁സ്ഥല	-9.82432
▁കാര്യമാണ്	-9.82435
▁ബുക്ക	-9.82448
▁സ്കൂള	-9.82623
"	-9.82692
▁തോടെയാണ്	-9.82712
▁ഒരുക്കിയ	-9.82794
▁അഭിപ്രായപ്പെട്ട	-9.82815
▁വീഴ്ച	-9.82971
▁റോബിന	-9.83012
▁ലൈംഗിക	-9.83054
▁അശോക	-9.83055
▁തടവ	-9.8316
▁ദിവസവും	-9.83223
▁പദ	-9.8328
▁സാക്ഷി	-9.83439
▁അല്ലെങ്കില	-9.83479
▁ആവശ്യപ്പെടുന്ന	-9.83498
▁ദുബായി	-9.83538
▁കേരളത്തില	-9.83686
ഛ	-9.83701
▁ഇയാൾ	-9.83706
▁നടപടികള	-9.83774
▁മണിയോടെ	-9.83781
▁കളിലെ	-9.83792
▁കൊവിഡ	-9.8398
▁ജോര്‍ജ	-9.8399
▁പൊട്ടി	-9.84042
▁അവസാനിപ്പിക്ക	-9.84166
▁ആളുകളെ	-9.84277
▁സര്‍ക്കാരിന്	-9.84296
▁കളോട	-9.84323
▁അസിസ്റ്റന്റ്	-9.8436
▁ശിവസേന	-9.8436
▁ആയുധ	-9.84363
▁നല്‍കിയിട്ടുണ്ട	-9.84376
▁യേയും	-9.84396
▁തോന്നുന്ന	-9.84409
▁ജോസഫ	-9.84425
▁തൊഴിൽ	-9.84579
▁ത്തിൻ്റെ	-9.84584
▁ഇതിനായി	-9.84622
▁മുകേഷ	-9.84667
▁ചിത്രങ്ങള്‍	-9.84707
▁സമ്പര്‍ക്കത്തില	-9.84718
▁ശര്‍മ	-9.84745
▁നിരോധന	-9.84809
▁ചട്ട	-9.84846
▁ഇന്ത്യക്കാര	-9.84904
▁കാലാവധി	-9.85019
▁പ്രസാദ	-9.85028
▁വെബ്	-9.85074
▁57	-9.85134
▁മണിക്ക്	-9.85167
▁നോക്കിയ	-9.85191
▁തൊഴില	-9.852
▁മോഹന്‍ലാല	-9.8524
▁വിശേഷ	-9.85241
▁ക്രിക്കറ്റ	-9.85244
▁പുറത്തുവിട്ട	-9.85256
▁സെക്	-9.85258
▁പഴ	-9.85367
▁വ്യാപി	-9.85418
▁ഇന്ധന	-9.85462
▁ശമ്പള	-9.85611
▁വിജയൻ	-9.85658
▁പെട	-9.85703
▁എതിര	-9.8574
നുസരിച്ച്	-9.85754
▁മണ്ഡലങ്ങള	-9.85797
▁അറിയില്ല	-9.85842
▁കരുതിയ	-9.85859
▁പലപ്പോഴ	-9.85905
▁ബോംബ	-9.85936
ുണ്ടാകും	-9.85987
െഴു	-9.86028
▁ക്കുന്നതിന	-9.86057
▁കരുതുന്നത്	-9.86213
▁പ്രതികളെ	-9.86254
▁തീരുമാനിക്ക	-9.86378
▁ആശയ	-9.86515
▁ഫോൺ	-9.86552
▁ശ്രദ്ധേയ	-9.86579
▁വിദേശകാര്യ	-9.86594
▁ബോർഡ	-9.86607
▁കഴിവ	-9.86607
▁സൈറ്റ	-9.86725
▁ആരോപണങ്ങള	-9.86786
▁അപ്രതീക്ഷിത	-9.86799
▁അംഗീകരിച്ച	-9.868
ുമൊക്കെ	-9.86804
▁വേണ്ടിയാണ്	-9.86806
▁വിഡി	-9.86866
▁തോമസ	-9.86942
▁വ്യത്യാസ	-9.87024
▁വഹിച്ച	-9.87096
▁56	-9.87151
ുണ്ടാവും	-9.8718
▁കാര്യമായ	-9.87269
▁58	-9.87321
▁ബൈക്ക	-9.87393
▁വുമായ	-9.8741
▁കേന്ദ്രീകരിച്ച	-9.87481
▁കോവിഡ	-9.87604
▁കോണ്‍ഗ്രസില	-9.87613
▁ടാസ്	-9.87624
▁സമ്മത	-9.87654
▁തൃക്കാക്കര	-9.87701
▁സച്ചിന്‍	-9.87703
▁പ്രകാരമ	-9.87769
▁പരാമർശ	-9.87928
▁തെരുവ	-9.87933
▁പൗര	-9.88005
▁കാര്‍ഡ	-9.88018
▁ഉദ്യോഗസ്ഥർ	-9.88106
▁കൊല	-9.88143
▁യൂണിയ	-9.88156
▁താഴ	-9.88253
▁ഫോറ	-9.88289
▁പുഴ	-9.88318
▁പട്ടികയില്‍	-9.88374
▁തെലങ്കാന	-9.88383
▁തുടര്‍ച്ചയായ	-9.88383
▁സജ്ജ	-9.88422
▁പ്രതികരിച്ചത്	-9.88455
▁സര്‍വേ	-9.88506
▁പാലിച്ച	-9.88537
▁പ്രതീക്ഷിച്ച	-9.88569
▁കമ്മീഷന	-9.88594
▁വ്യാപകമായ	-9.886
▁പ്രവചന	-9.88611
▁പ്രകടിപ്പിച്ച	-9.88626
▁നമ്പറ	-9.88696
▁കാണാം	-9.88756
▁പ്രശാന്ത	-9.88843
▁53	-9.88907
▁ഉറച്ച	-9.88913
▁സൗഹൃദ	-9.89069
▁കോടിയേരി	-9.8907
▁കേസുകൾ	-9.89094
▁കോടതിയിൽ	-9.89211
▁ഘട്ടത്തില്‍	-9.89223
▁സൃഷ്ടിച്ച	-9.89226
സര്‍ട്ടിഫിക്കറ്റ	-9.89299
▁പ്രദേശങ്ങളില	-9.89363
▁പാട്ട	-9.89445
▁മുന്നറിയിപ്പ	-9.89462
▁രൂപീകരിച്ച	-9.89534
▁പത്രിക	-9.89622
▁അവതരിപ്പിച്ച	-9.89729
▁ഡെപ്യൂട്ട	-9.8976
▁നിര്‍മ്മാണ	-9.8976
▁ില്ലെങ്കില്‍	-9.89907
▁മൃതദേഹ	-9.89978
▁സാധ്യതയുണ്ടെന്ന	-9.89998
▁നഷ്ടമായ	-9.90039
▁ആയിരുന്ന	-9.90064
▁മേൽ	-9.90124
പോലെ	-9.90249
▁കയറ്റ	-9.90265
▁വര്‍ധന	-9.90466
▁വിഷയത്തിൽ	-9.9048
▁ചെയ്യുമെന്ന	-9.90564
▁തുടരുകയാണ്	-9.90588
▁വർക്ക	-9.90621
▁എന്തായ	-9.90669
▁കുടുങ്ങി	-9.90709
▁ഞങ്ങളുട	-9.90713
▁ജമ്മു	-9.90725
▁ചെയ്യപ്പെട്ട	-9.90948
▁ഒടുവില്‍	-9.91157
▁പങ്കുവച്ച	-9.91158
▁അനുകൂലമായ	-9.91159
▁അതോറിറ്റി	-9.91392
▁ആത്മവിശ്വാസ	-9.91392
▁രാജിവെച്ച	-9.91412
▁എയർ	-9.91451
▁തെറ്റായ	-9.91527
▁പാമ്പ	-9.91557
ക്കഴിഞ്ഞ	-9.91708
മുഖ	-9.91732
▁അധികൃതർ	-9.91863
▁വര്‍ധിച്ച	-9.9187
ബ്ബ	-9.91894
▁വര്‍ദ്ധി	-9.91898
▁പ്രവര്‍ത്തിച്ച	-9.91927
▁മുൻപ	-9.91975
▁ഉണ്ടാക്കിയ	-9.92027
▁ഒഴിവുകള	-9.92095
▁മരണപ്പെട്ട	-9.9218
▁യുടേ	-9.92216
▁വികാര	-9.92221
പ്പുഴ	-9.92292
▁ഏറ്റുമുട്ട	-9.92337
▁ഭേദ	-9.92339
▁നീങ്ങ	-9.92362
▁മനസ	-9.92382
▁പറയുന്നുണ്ട്	-9.92488
▁ചുറ്റ	-9.92494
▁ട്വിറ്ററ	-9.92812
▁വേണുഗോപാല	-9.92812
▁ധരിക്ക	-9.92826
▁വിഷമ	-9.92843
▁ഗുജറാത്ത്	-9.93051
▁മമ്മൂട്ടി	-9.93051
▁ടിവി	-9.93093
ദ്ധ്യ	-9.93178
▁സഞ്ചാര	-9.93291
▁റൂമ	-9.93298
▁ഓഗസ്റ്റ	-9.93303
▁ന്യൂസ്	-9.93379
P	-9.9353
▁ഇദ്ദേഹം	-9.9353
▁പുരോഗതി	-9.9353
▁ലഹരി	-9.93534
▁സാധ	-9.93541
▁ഒട്ടേറ	-9.93546
▁ക്കാമെന്ന	-9.93627
എച്ച്	-9.93634
ിരിക്കെ	-9.93656
▁പ്രതികള്‍	-9.93657
▁പിടിച്ചെടുത്ത	-9.9372
▁ഓഹരി	-9.93772
▁കോൺഗ്രസിന്	-9.93792
▁ഉണ്ണി	-9.93797
▁രാജീവ്	-9.93821
▁വൈകിട്ട	-9.93942
▁നമ്മൾ	-9.94013
▁കൈവശ	-9.94015
പ്പുറം	-9.94019
▁വകുപ്പുകള	-9.9405
▁സ്ഥാനത്തേക്ക്	-9.94084
▁കൊന്ന	-9.94199
▁ശ്രമിക്ക	-9.94248
▁എന്‍സിപി	-9.94254
▁പ്രവർത്തനങ്ങൾ	-9.94262
▁കിടക്കുന്ന	-9.94356
▁കൊണ്ടിരിക്കുന്ന	-9.94368
▁കൈമാറിയ	-9.94376
▁മറ്റുള്ളവര	-9.94385
▁ആക്രമി	-9.94719
▁ഏജൻസി	-9.94738
▁ഡോക്ടർ	-9.94738
▁ജഡ്ജി	-9.94739
▁തടസ	-9.94761
▁ചൂണ്ടിക്കാണിക്ക	-9.94981
നിശ്ചിത	-9.94981
▁സൂചിപ്പിക്കുന്ന	-9.94981
▁എഎപി	-9.94982
▁ആന്‍ഡ്	-9.94996
▁സമീപത്ത	-9.95102
▁കൂടിയായ	-9.95277
▁തയ്യാറാക്കിയ	-9.95292
▁കഴിച്ച	-9.95309
▁രോഹിത്	-9.95426
▁ഇതിനോട	-9.95427
▁സിദ്ധ	-9.95444
▁ജീവിതത്തില്‍	-9.95472
▁ഓട്ടോ	-9.95473
▁ഗൂഢാലോചന	-9.95714
▁68	-9.95744
▁ജലീല	-9.9583
▁കൊടി	-9.95852
▁നിരീക്ഷി	-9.9596
▁നാടക	-9.95979
▁വിക്കറ്റ	-9.96177
▁പരസ്പര	-9.96206
▁വൈറല	-9.96343
▁ധരിച്ച	-9.96464
▁കരാര്‍	-9.96528
ലേഖ	-9.96586
▁സ്വീകരിക്കുന്ന	-9.96597
▁സംഘപരിവാ	-9.96701
▁അന്വേഷിച്ച	-9.96701
▁വെയ്	-9.96703
▁ഭരിക്കുന്ന	-9.9672
▁യോഗത്തിൽ	-9.96727
▁പ്രതിഷേധിച്ച	-9.9675
▁ഇപ്പോഴ	-9.9681
▁കാണിക്കുന്ന	-9.96828
▁ആര്യ	-9.96837
▁കച്ചവട	-9.96949
▁പ്രക്ഷോഭ	-9.96949
▁വിദേശത്ത്	-9.9705
▁വ്യക്തമല്ല	-9.97198
വിരുദ്ധ	-9.97288
▁തലസ്ഥാന	-9.9732
▁അവള	-9.97389
േശ്വര	-9.97529
▁പരീക്ഷണ	-9.97538
▁വിദ്യാർത്ഥി	-9.97578
▁നയിച്ച	-9.97586
▁പാർലമെന്റ	-9.97697
▁തോതില	-9.97746
▁സീറ്റുകൾ	-9.97915
▁അനൂപ	-9.97975
▁ഹാജരാ	-9.9805
▁തോറ്റ	-9.9808
മന്ത്രി	-9.98121
▁പേജ	-9.98165
▁യുണ്ടാ	-9.98223
▁ക്കുമ്പോള്‍	-9.9831
കുമാർ	-9.98371
▁ഡിവിഷ	-9.9851
▁നിർത്ത	-9.98534
▁കപ്പല	-9.98597
ുവരുന്ന	-9.98631
▁എഴുതിയ	-9.98707
▁ക്യാമറ	-9.98707
▁198	-9.98777
▁രക്ഷപ്പെട	-9.9883
▁വിലയിരുത്തല്‍	-9.98881
▁ഏജന്‍സി	-9.98998
▁അവകാശപ്പെടുന്ന	-9.99068
▁ചെയ്യണമെന്ന	-9.9916
▁ആര്‍എസ്എസ	-9.99215
▁സൂക്ഷി	-9.99233
▁ബഹു	-9.99245
▁നേഹ	-9.99246
▁59	-9.99256
▁അധ്യക്ഷൻ	-9.9939
▁അതൃപ്തി	-9.99465
▁പരിഷ്	-9.99499
▁അജിത്	-9.99698
▁മീന	-9.99717
▁ലക്ഷ്യമിടുന്ന	-9.9972
▁സംവരണ	-9.99726
▁സിദ്ദു	-9.99745
▁അകത്ത	-9.9978
പറമ്പ	-9.9981
യോഗ്യ	-9.99821
▁തെളിവുകള	-9.99858
▁ബഹുമാന	-9.99994
▁രംഗത്തെത്തി	-9.99994
▁കേള്‍ക്ക	-10.0003
▁ഗുരു	-10.0011
▁മാർച്ച്	-10.0012
▁പ്രവർത്തിക്ക	-10.0019
g	-10.0023
▁ക്രൈംബ്രാഞ്ച	-10.0023
▁വടകര	-10.0024
▁ഷൂട്ട	-10.0026
▁അദ്ദേഹ	-10.0031
▁നേടാന	-10.0037
▁വിമര്‍ശിച്ച	-10.0037
▁മുക്ത	-10.0049
▁നാരായണ	-10.0049
▁‍റെ	-10.0049
▁തയ്യാറാക	-10.0057
▁എന്നിങ്ങനെ	-10.0059
▁ഏര്‍പ്പെടുത്തിയ	-10.0059
പുര	-10.007
▁ന്യൂഡല്‍ഹി	-10.0101
▁അതായത്	-10.0102
▁അല്ലാതെ	-10.0103
▁തസ്തിക	-10.0116
െയർ	-10.0119
▁ഭവന	-10.0125
▁നിരോധി	-10.0127
▁ആശുപത്രിയില	-10.014
▁ലംഘിച്ച	-10.0152
▁അതിഥി	-10.0153
▁പെരുമാറ	-10.0153
▁പ്രതിദിന	-10.0153
▁പരിസര	-10.0153
▁ബംഗാളില	-10.0162
▁ലഭിക്കുമെന്ന	-10.0162
▁വിഭാഗങ്ങള	-10.0178
▁സന്ദര്‍ശന	-10.0178
▁2014	-10.0178
▁ഗോവിന്ദ	-10.0179
▁ത്തിനെതിരെ	-10.0185
▁ബെഞ്ച	-10.0192
▁തെളിയ	-10.0194
▁ലിസ്റ്റ	-10.02
▁രാഷ്ട്രപതി	-10.0205
▁നമ്പര്‍	-10.0207
▁വോട്ടര്‍മാര	-10.021
▁ആഗസ്റ്റ	-10.0211
▁സുരേന്ദ്രൻ	-10.022
▁69	-10.0231
▁പേടി	-10.0232
െത്തുന്ന	-10.0236
ാന്തര	-10.0237
▁അതിക്രമ	-10.0238
▁നാഗ	-10.0247
▁മത്സരാർത്ഥി	-10.0257
▁ലോകകപ്പ	-10.0259
▁ജനസംഖ്യ	-10.026
▁തിരിച്ചറിഞ്ഞ	-10.026
ിരിക്കും	-10.026
▁വിവരങ്ങള	-10.0273
▁മടങ്ങിയ	-10.0275
അ	-10.0275
▁പ്രതിനിധി	-10.0278
▁വീതവും	-10.0284
ാക്രമണ	-10.0285
▁ആസ്തി	-10.0285
▁നടക്കുക	-10.0287
▁അല്ലെങ്കിൽ	-10.029
▁രാമചന്ദ്ര	-10.031
▁രാജ്യങ്ങളില	-10.0338
▁കെജ്രിവാള	-10.0363
▁ദുബായ്	-10.0363
▁64	-10.0367
▁ഇപ്പോഴത്ത	-10.0367
▁ഇദ്ദേഹത്ത	-10.0389
▁തൃശൂർ	-10.0389
▁ചേർത്ത	-10.0392
▁നീട്ടി	-10.0398
▁പ്രൊഫ	-10.0399
▁പൂര്‍ത്തിയാക്കി	-10.0416
▁ചൂണ്ടിക്കാട്ട	-10.0434
▁മറിച്ച	-10.0443
▁മധു	-10.0448
നെതിരായ	-10.0465
▁ക്യാപ്റ്റന	-10.047
▁പൂർണ്ണ	-10.0475
▁രക്ത	-10.0486
▁മുരളീധരന്‍	-10.0491
▁ഇറക്കുമതി	-10.0496
▁ശിവശങ്ക	-10.0496
▁ആദ്മി	-10.0497
▁ഡാറ്റ	-10.0498
▁വീട്ടിലേക്ക്	-10.0502
▁പരാജയപ്പെടു	-10.0511
▁അതിജീവിത	-10.0512
ശുദ്ധ	-10.0513
▁നന്നായി	-10.0516
▁ലഭിക്കുക	-10.0517
▁വലിച്ച	-10.0518
▁ലോകത്തെ	-10.0522
▁പിന്‍വലിക്ക	-10.0523
▁റെയില്‍വേ	-10.055
▁തകര്‍ത്ത	-10.0551
▁ദുരിത	-10.0553
ക്കാലത്ത	-10.0553
▁പുറത്തിറക്കിയ	-10.0558
▁പ്രധാനപ്പെട്ട	-10.0567
▁ഗ്രാമപഞ്ചായത്ത	-10.0577
▁ഡയറക്ടര്‍	-10.0577
▁നേരിടേണ്ടി	-10.0581
▁പത്മ	-10.0595
▁രോഗബാധ	-10.06
▁ധോണി	-10.0605
▁സര്‍ക്കാരിനെ	-10.0606
▁മാസങ്ങള	-10.0606
ദിത്യ	-10.0607
▁ക്രിസ്	-10.0608
▁സംസാരിക്കുന്ന	-10.0609
▁കോണ്‍	-10.0627
▁വിശ്വസിക്കുന്ന	-10.0632
▁63	-10.0635
▁നമ്മള	-10.0645
▁അവകാശപ്പെട്ട	-10.065
▁സമ്പത്ത	-10.0654
▁ഹരിയാന	-10.0659
▁ആനന്ദ	-10.066
▁പ്രളയ	-10.0661
ുണ്ടാക്കിയ	-10.0666
▁പക്ഷത്ത	-10.0668
▁സാംസ്	-10.0668
▁ബോട്ട	-10.0681
▁പടിഞ്ഞാറ	-10.0687
▁ഇരുന്ന	-10.0687
▁ലക്ഷ്യമിട്ട	-10.0687
പ്രവർത്തിക്കുന്ന	-10.0689
▁നൽകാൻ	-10.0695
മൂല	-10.0699
w	-10.0714
▁സ്വഭാവ	-10.0714
▁ഇക്കുറി	-10.0714
▁66	-10.0723
▁സന്ദർശി	-10.0742
▁കുവൈത്ത	-10.0744
▁എടുക്കുന്ന	-10.0745
▁മോഷണ	-10.0746
▁എന്തിന	-10.0747
▁ലഭ്യമാക്ക	-10.0749
▁പ്രവർത്തി	-10.075
മായിട്ടാണ്	-10.0757
▁99	-10.0762
▁എറണാകുളത്ത	-10.0769
▁ഭർത്താവ	-10.0769
▁യുകെ	-10.077
▁സമീപന	-10.0774
▁ധര്‍മ	-10.0775
▁ഹാജരാക്ക	-10.078
▁77	-10.079
▁സംഘർഷ	-10.0797
▁മണിപ്പൂര	-10.0798
▁പിൻവലി	-10.0825
▁ജാമ്യ	-10.0852
▁72	-10.0853
▁മുഖേന	-10.0853
▁ശുഭ	-10.0854
▁ആര്‍ക്ക	-10.0862
▁സംഭാവന	-10.088
▁ജനകീയ	-10.0881
▁ശതമാനവും	-10.0905
▁വ്യോമ	-10.0909
▁പ്ലസ്	-10.0909
▁നിന്നെത്തിയ	-10.092
▁വാർഡ	-10.0923
ാണെങ്കിലും	-10.0925
▁വീട്ടു	-10.093
▁പുസ്തക	-10.0937
▁സന്ദീപ	-10.0938
▁ഏർപ്പെടുത്ത	-10.0938
▁വീട്ടുകാര	-10.0941
ുറപ്പ	-10.0942
▁സാധിക്കുന്ന	-10.0951
▁രാജസ്ഥാനില	-10.097
▁ചൂട	-10.0975
▁ഡോക്ടര്‍മാര	-10.0975
▁റിപ്പോർട്ടുകൾ	-10.098
ിഷ്ട	-10.0989
▁സഹിതം	-10.0994
▁62	-10.0997
▁ചിത്രത്തില	-10.0999
▁ഇല്ലാതെ	-10.1003
വേലി	-10.1014
▁സാധ്യമാ	-10.1016
റേയും	-10.1018
▁താരതമ്യ	-10.1021
▁അതിർത്തി	-10.1025
▁സ്വർണ്ണ	-10.1028
▁ഹാജരാക	-10.1028
▁കൊലപ്പെടുത്തിയ	-10.1033
▁സുഖ	-10.1037
▁ഇടതുമുന്നണി	-10.105
▁മയക്കുമരുന്ന	-10.105
▁ഡിജിറ്റ	-10.105
▁ജന്മ	-10.1065
▁സ്ഥലങ്ങള	-10.1073
▁വേഗത്തില	-10.1077
▁അബുദാബി	-10.1078
▁അമരീന്ദ	-10.1078
▁അസോസിയേഷ	-10.1078
▁നിർബന്ധ	-10.1078
▁എതിര്‍പ്പ	-10.1106
▁അഫ്ഗാ	-10.1107
▁പുനഃ	-10.1107
▁ജെഡിയു	-10.1107
▁കായിക	-10.1112
▁നയിക്കുന്ന	-10.112
▁ബാലകൃഷ്ണ	-10.1135
▁ചെയർമാ	-10.1136
▁മഴയ്ക്ക	-10.1147
▁യുണ്ടെന്ന	-10.1155
▁സിപിഎമ്മിന	-10.116
▁കര്‍ഷകര	-10.1163
▁ഒരാഴ്ച	-10.1166
▁74	-10.1181
▁താത്പര്യ	-10.1193
▁സംയുക്ത	-10.1193
▁വിപുല	-10.1193
▁ദൈവ	-10.1223
▁വ്യക്തിപരമായ	-10.1232
▁തരൂര	-10.1245
▁മുദ്രാവാക്യ	-10.1251
▁ആയിരിക്കും	-10.1254
▁കിറ്റ	-10.1254
▁ഓൺലൈ	-10.128
M	-10.128
▁നിലനില്‍ക്കുന്ന	-10.128
▁യഥാര്‍ത്ഥ	-10.128
▁ശരിയായ	-10.1281
േറെ	-10.1304
▁പരസ്യമായ	-10.1304
കൂൾ	-10.1308
▁സംരംഭ	-10.1309
▁പ്രവചിക്ക	-10.1309
▁ആവേശ	-10.131
▁എംപിമാര	-10.1318
▁ശരിക്കു	-10.1321
▁സീറ്റില	-10.1322
▁സുരേഷ	-10.1323
▁സീനിയര്‍	-10.1338
▁മിഥുന	-10.1339
▁ലാബ	-10.1347
▁ചിരി	-10.1354
▁മോഡല	-10.1357
▁85	-10.1358
മുദ്ര	-10.1362
▁കമല്‍നാഥ	-10.1368
▁ദുരിതാശ്വാസ	-10.1368
▁ഇളവ്	-10.1368
▁എന്തുകൊണ്ട്	-10.1372
ോധന	-10.1382
▁നിങ്ങള്‍ക്ക	-10.1397
▁കൊടുക്കുന്ന	-10.1406
▁അശ്വ	-10.1409
പ്രകാരം	-10.1409
ുണ്ടെങ്കിലും	-10.1431
▁വിദ്യാർത്ഥികൾ	-10.144
▁പൊളിച്ച	-10.1443
▁ലക്ഷദ്വീപ	-10.1456
▁ആൻഡ്	-10.1458
▁ആരംഭിക്കുന്ന	-10.1468
▁സത്യപ്രതിജ്ഞ	-10.1486
▁സുപ്രധാന	-10.1486
▁പ്രശസ്ത	-10.1486
▁പഠിച്ച	-10.1487
▁ഗണേഷ	-10.1491
▁വിജയന	-10.1492
▁വൈസ	-10.1493
▁തകര്‍ക്ക	-10.1499
▁വൈകീട്ട്	-10.1516
▁മഞ്ജു	-10.1517
▁ഭാഗങ്ങളില	-10.1518
▁67	-10.1524
▁പ്രസ്ഥാന	-10.1529
▁എന്നിങ്ങനെയാണ്	-10.1536
ത്തിലധിക	-10.1538
▁എത്രയ	-10.1548
പൂര	-10.1555
▁സാധാരണക്കാര	-10.1555
▁കേന്ദ്രമന്ത്രി	-10.1556
▁ഗെയിം	-10.1575
▁സമര്‍പ്പിക്ക	-10.1576
▁ദേവസ്വ	-10.1576
▁കാണാതായ	-10.1577
▁ശത്രു	-10.1579
▁ദൗത്യ	-10.1605
▁അടുപ്പ	-10.1607
▁കണക്കുകള്‍	-10.1607
▁സംഘടനകള	-10.1614
▁78	-10.1621
▁നിർണായക	-10.1636
▁തിരഞ്ഞെടുത്ത	-10.1636
▁സമർപ്പിച്ച	-10.1636
▁പോളിംഗ്	-10.1636
▁അര്‍ഹ	-10.1639
▁നിശ്ചയിച്ച	-10.1653
▁ഉള്‍പ്പടെ	-10.1666
▁ലംഘന	-10.1666
▁വാടക	-10.1667
▁ടെസ്റ്റ	-10.1677
▁നാലാം	-10.1677
സംഖ്യ	-10.1695
▁കമ്മീഷൻ	-10.1696
▁വൈകുന്നേര	-10.1696
▁ഡോളര്‍	-10.1697
▁ഖത്തറ	-10.1699
▁സിവില്‍	-10.1704
ദീപ്	-10.1721
▁ഹോട്ട്	-10.1725
▁സംഗീത	-10.1726
▁നിലനിര്‍ത്ത	-10.1727
▁പുറപ്പെടുവിച്ച	-10.1727
▁കല്യാണ	-10.1727
▁പിടിയിലായ	-10.1727
മാണിത്	-10.1734
▁രാജേഷ്	-10.1741
▁സഹായിച്ച	-10.1747
▁അരവിന്ദ	-10.1757
▁നല്‍കണമെന്ന	-10.1773
▁കർശന	-10.1788
▁ഹൈക്കമാന്‍ഡ	-10.1788
▁മഹാമാരി	-10.1788
▁പോരാട	-10.1793
▁തുല്യ	-10.1804
▁വക്താവ്	-10.1818
▁ശൈലജ	-10.1818
▁ഭീതി	-10.1819
▁കിടന്ന	-10.1819
▁പദ്ധതികള	-10.182
▁ഇരുപത	-10.183
▁ക്രിമിനല	-10.1849
▁മാലിന്യ	-10.1849
▁കുടിയേറ്റ	-10.1851
▁സന്ദര്‍ശിച്ച	-10.1854
▁മത്സരിപ്പിക്ക	-10.1874
▁തെളിയിക്കുന്ന	-10.1877
▁അക്കാദമി	-10.188
▁ഉത്തർപ്രദേശ	-10.188
▁എല്ലാവര്‍ക്കും	-10.188
▁വര്‍ധിപ്പിക്ക	-10.188
▁ഉദ്യോഗസ്ഥന	-10.1903
▁സൂക്ഷിച്ച	-10.1908
▁മൃഗ	-10.1911
▁സഞ്ജു	-10.1913
▁വിവാദമായ	-10.1923
▁പട്ടേല	-10.1923
▁അധ്യക്ഷനായ	-10.194
മീറ്റര്‍	-10.1942
▁പ്രവേശിക്ക	-10.1942
▁കുട്ടികളുടെ	-10.1944
▁കഴിയാത്ത	-10.1952
▁ത്തിലേക്ക	-10.1957
▁ഇതൊക്കെ	-10.1958
▁രൂപീകരിക്ക	-10.197
▁ഉറവിടം	-10.1973
▁കേന്ദ്രസർക്കാർ	-10.1973
ാധ്യമപ്രവര്‍ത്തക	-10.1973
▁പരിഹസിച്ച	-10.1973
▁ആരോഗ്യമന്ത്രി	-10.1978
▁ചുമത്തിയ	-10.199
▁കൃത്യ	-10.2004
▁പീഡിപ്പിച്ച	-10.2004
▁വിശദീകരിച്ച	-10.2004
▁ഗെലോട്ട	-10.2036
▁സർവീസ്	-10.2036
▁പുലര്‍ത്ത	-10.2036
▁ഉളള	-10.2036
▁സ്വര്‍ണവില	-10.2039
▁പിരിച്ച	-10.2048
▁ഉൾപ്പെടുത്ത	-10.2055
▁പ്രവർത്തിച്ച	-10.206
▁ഉന്നയിക്കുന്ന	-10.2066
▁ബാനര്‍ജി	-10.2067
▁ആനുകൂല്യ	-10.2067
▁സര്‍ക്കാറ	-10.2067
▁മര്‍ദ്ദ	-10.2068
▁ലീഡ്	-10.2069
▁വയനാട്ടില	-10.2077
▁രക്ഷപ്പെട്ട	-10.2092
▁ആരെയ	-10.211
▁ഡോക്ടറ	-10.213
▁വണ്ടി	-10.2138
▁മുന്‍കൂ	-10.215
▁നിലവാര	-10.2153
▁പരിപാടികള	-10.2161
R	-10.2162
▁നിയോഗിച്ച	-10.2162
▁മണിക്കുട്ടന	-10.2162
▁ലൈഫ	-10.2168
ആ	-10.2173
▁ചോദ്യത്തിന	-10.2179
▁പരിഗണിക്കുന്ന	-10.2181
▁ിരുന്നെങ്കില	-10.2183
▁ദുര	-10.2187
▁മാത്യു	-10.2194
▁മികവ	-10.2211
▁മെട്രോ	-10.2226
▁അപേക്ഷിക്കാം	-10.2226
▁പ്രസിഡണ്ട	-10.2226
▁മുന്നോടിയായ	-10.2226
▁മഹാരാഷ്ട്രയില	-10.2227
▁ഐപിഎ	-10.223
ദേവ	-10.2232
▁സമ്മതിച്ച	-10.2252
▁ഗുജറാത്തില	-10.2258
▁മിശ്ര	-10.2258
▁തിരുമാന	-10.2258
▁മൂലമ	-10.2265
▁സംഘടിപ്പിക്ക	-10.2271
▁ഡയറക്ടറ	-10.229
▁സ്വാഭാവിക	-10.229
▁ഉദ്ധരിച്ച	-10.229
▁രാജസ്ഥാന്‍	-10.229
▁തോല്‍വി	-10.229
▁പ്രിയപ്പെട്ട	-10.229
▁അവർക്ക	-10.2315
▁വൈറലായ	-10.2317
▁പറയുകയ	-10.232
▁കുറ്റപത്ര	-10.2322
▁കളക്ടർ	-10.2322
▁വീട്ടിലെത്തി	-10.2323
▁ങ്ങളിലേക്ക	-10.2347
▁നിഷേധിച്ച	-10.2349
▁ഉദ്യോഗാര്‍ത്ഥി	-10.2355
▁കാസര്‍കോട്	-10.2355
▁മണിക്കൂറിനിട	-10.2381
▁അധികൃതര	-10.2382
▁പ്രകട	-10.2385
▁ഖത്തര്‍	-10.2388
▁കൊണ്ടുപോയ	-10.2389
▁ഇപ്പോഴിത	-10.2399
▁സ്റ്റാഫ	-10.2399
▁ൻ്റെ	-10.2403
▁ശേഖരിച്ച	-10.2408
ആക്രമിക്കപ്പെട്ട	-10.241
▁കൗൺസ	-10.242
▁വിദ്വേഷ	-10.242
▁അടക്കമുളള	-10.242
▁ആശുപത്രികള	-10.2446
▁ഡിവൈഎഫ്	-10.2452
▁ബംഗാള്‍	-10.2452
▁വസ്തുത	-10.2452
▁തെളിഞ്ഞ	-10.2452
▁ദളിത്	-10.2453
▁ആശംസ	-10.2454
▁ബന്ധപ്പെട	-10.2454
ശേരി	-10.2458
▁കാരനായ	-10.2483
▁ഉച്ചയ്ക്ക്	-10.2495
▁അതിവേഗ	-10.2518
▁മത്സരിക്കാന	-10.2546
▁പഞ്ചായത്തില	-10.2549
െതിരേ	-10.2551
▁തലശേരി	-10.2555
y	-10.2584
▁ബുദ്ധി	-10.2584
▁കോളേജില	-10.2598
മാറ്റം	-10.26
രൂപ	-10.2607
▁ഉത്തരവിട്ട	-10.2613
▁ഉണ്ടെങ്കി	-10.2614
▁കണ്‍ട്രോള്‍	-10.2617
▁വകഭേദ	-10.2617
▁വസ്തുക്കള	-10.2617
▁നിരാശ	-10.2618
▁രാജേന്ദ്ര	-10.2623
▁എന്തിനാണ	-10.2638
യിലെത്തിയ	-10.2641
▁സൂരജ	-10.2651
▁ഏപ്രിൽ	-10.2651
▁അധികാരത്തിലെത്ത	-10.2651
▁സ്റ്റേറ്റ്	-10.2651
ാനാകില്ല	-10.2665
▁മാധ്യമങ്ങളോട്	-10.2674
▁ശ്രമങ്ങള	-10.2677
▁ബ്രിട്ടീഷ	-10.2684
▁എതിരാളി	-10.2684
▁അദാനി	-10.2684
▁ചെയ്യുന്നതിന	-10.2697
▁ട്രോള	-10.2706
സര്‍ക്കാര്‍	-10.272
▁പുതുപ്പള്ളി	-10.2721
▁മലബാ	-10.2725
▁പരിധിയില	-10.2725
▁അധിക്ഷേപ	-10.2751
▁അനധികൃത	-10.2751
▁ഉപരോധ	-10.2751
▁കിരീട	-10.2751
▁ആശ്രയ	-10.2751
ാനന്തര	-10.2752
▁ക്രിസ്ത്യ	-10.2752
ുതന്നെ	-10.2752
▁പ്രയാസ	-10.2752
▁അഖിൽ	-10.2752
▁പോവുകയ	-10.2757
പിന്തുണയ്ക്കുന്ന	-10.2768
▁അഭ്യൂഹ	-10.2785
▁കാസർഗോഡ്	-10.2785
▁ശരാശരി	-10.2785
ാവശ്യപ്പെട്ട	-10.2785
▁2015	-10.2785
▁അവതരിപ്പി	-10.2804
▁സാധിക്കുമെന്ന	-10.2816
▁പ്രയോഗ	-10.2819
▁സേവ	-10.2825
യിരിക്കണം	-10.2842
T	-10.2853
▁അനാവശ്യ	-10.2853
▁ദ്വീപ	-10.2853
▁വര്‍ഗീയ	-10.2853
▁വളര്‍ച്ച	-10.2853
▁യഥാർത്ഥ	-10.2854
▁ജനപ്രതിനിധി	-10.2855
▁വർധിപ്പി	-10.2856
െല്ലാ	-10.2874
▁രജിസ്	-10.2876
▁ങ്ങളോട	-10.2882
▁തെരഞ്ഞെടു	-10.2883
▁നിർമ്മാണ	-10.2887
▁2011	-10.2887
▁ശിശു	-10.2887
▁ബിഎസ്പി	-10.2887
▁സർക്കാറ	-10.2887
▁തുടർച്ചയായ	-10.2888
▁ബ്രാഞ്ച	-10.2922
▁തിരച്ചില	-10.2927
▁ചിത്രങ്ങള	-10.2933
▁പ്രായമുള്ള	-10.2933
▁കോട്ടയത്ത	-10.2936
▁ബാലചന്ദ്ര	-10.2947
▁ആദിവാസി	-10.2956
▁ഉപേക്ഷിച്ച	-10.2956
▁എന്തുകൊണ്ടാണ	-10.2956
▁ബിന്ദു	-10.2958
▁ഐസക്	-10.296
▁കഷ്ട	-10.2966
▁അറിവ	-10.297
▁സാക്ഷ്യ	-10.2991
▁രോഗബാധിതര	-10.2991
▁കസ്റ്റഡിയിലെടു	-10.2992
▁കൊണ്ടുവരാന	-10.2994
▁ബിജു	-10.2995
സംഘടന	-10.2997
▁ഭീഷണിപ്പെടുത്ത	-10.3011
ടനീള	-10.3025
▁കുറ്റകൃത്യ	-10.3025
▁പോസിറ്റിവ	-10.3025
▁രാജയോഗ	-10.3025
▁അപ്പോഴ	-10.3025
▁ഭാരവാഹി	-10.3036
േണ്ടതുണ്ട്	-10.3044
▁തുടർ	-10.3045
▁വർഗീയ	-10.306
▁പക്ഷം	-10.3072
▁ശക്തിപ്പെടുത്ത	-10.3076
മീറ്റർ	-10.3082
▁അന്തരിച്ച	-10.3096
▁എന്നിവിടങ്ങളി	-10.3102
▁പോര്‍ട്ട	-10.3102
▁അമിത	-10.3122
▁പ്രോട്ടോ	-10.313
▁പകുതി	-10.313
▁ഡീസല	-10.3132
▁ഉപദേശ	-10.3136
ിനിടെ	-10.3139
▁നാട്ടിലേക്ക്	-10.3141
▁പ്രവാസികള	-10.3145
▁പിന്തുടര	-10.3165
▁സന്നദ്ധ	-10.3165
▁വിമർശിച്ച	-10.318
▁ുണ്ടെങ്കി	-10.3197
▁പ്രകൃതി	-10.32
▁വ്യാപക	-10.3202
▁ആവശ്യമില്ല	-10.3209
▁നിശ്ചയ	-10.3215
▁ബാധിതര	-10.3234
▁ഇലക്ട്ര	-10.3235
▁സ്പീക്കര്‍	-10.3235
▁ചലച്ചിത	-10.3235
▁സാധനങ്ങള	-10.3245
▁പുലര്‍ച്ചെ	-10.3271
▁പോലീസുകാര	-10.3273
▁ഡോക്ടര്‍	-10.3293
▁യുടേയ	-10.3296
▁യെക്കുറിച്ച	-10.3301
▁നേതൃ	-10.3303
▁പ്രോസിക്യൂഷന	-10.3306
▁ഗവർണർ	-10.3306
▁റിക്രൂട്ട്	-10.3306
▁മത്സ്യ	-10.3306
▁എംബസി	-10.3307
▁പലിശ	-10.3308
▁ഈടാക്ക	-10.331
▁പ്രശ്നങ്ങള	-10.3317
▁ബിസിനസ	-10.3329
D	-10.3342
▁ചൂണ്ടിക്കാണിച്ച	-10.3342
▁അത്ഭുത	-10.3342
▁ധൈര്യ	-10.3342
▁പൂർണമായ	-10.3343
▁ഉദ്ഘാടന	-10.3345
▁സ്ഥലങ്ങളില	-10.3346
▁കുതിച്ച	-10.336
▁വേണ്ടെന്ന	-10.3375
▁തിരിക്കാന	-10.3376
▁ഗവേഷണ	-10.3378
▁പിന്നിൽ	-10.338
▁സഹായത്തോടെ	-10.3384
▁വെറുതെ	-10.3414
▁ഇളവു	-10.3437
▁ദീര്‍ഘ	-10.345
▁ഡയറക്ടർ	-10.345
▁മനോരമ	-10.345
▁മറികടന്ന	-10.345
▁മോഷ്ട	-10.345
▁നിങ്ങൾക്ക	-10.3474
▁റെക്കോര്‍ഡ	-10.3486
▁ഡ്യൂട്ടി	-10.3486
▁ഒഴിഞ്ഞ	-10.3486
▁ഫയല	-10.3489
▁പൂഞ്ഞാ	-10.3489
▁ആശുപത്രിയിലേക്ക	-10.3522
▁ഇസ്ലാമി	-10.3522
▁കഥാപാത്ര	-10.3522
▁രോഗലക്ഷണ	-10.3522
▁സൂചിപ്പിച്ച	-10.3522
▁ശസ്ത്രക്രിയ	-10.3522
▁ശുക്ര	-10.3523
▁അറിയിപ്പ	-10.3535
▁പെരുമാറ്റ	-10.3536
▁ഗാസ	-10.3542
▁അളവ	-10.3552
ബാധിത	-10.3552
▁ഏഷ്യാനെറ്റ	-10.3559
ുള്‍പ്പെടെ	-10.3559
▁വിദ്യാർത്ഥികള	-10.356
ാബാദ്	-10.3561
▁വാങ്ങാന	-10.3588
▁04	-10.3598
▁ഉദയ	-10.3599
▁അഖിലേഷ്	-10.36
▁ബ്രിട്ടന	-10.36
▁ഒരുങ്ങുന്ന	-10.3605
ുണ്യ	-10.3616
▁ശാരീരിക	-10.3632
▁അർഹ	-10.3636
▁സ്വന്തമായ	-10.3638
▁മലയാളികള	-10.3645
▁സംസാര	-10.365
▁നല്‍കുമെന്ന	-10.3651
▁ഒടുവിൽ	-10.3669
▁ഹേമ	-10.3673
പാദന	-10.3674
▁അയാൾ	-10.3707
▁ആലുവ	-10.3707
▁വഴങ്ങ	-10.3726
▁ഗ്രൂപ്പുകള	-10.3736
▁ബാധ്യത	-10.3743
▁ഇടവേള	-10.3743
▁പതിനായിര	-10.3744
▁രാശിക്കാർക്ക	-10.3744
▁അജയ്	-10.3745
▁പവന്‍	-10.375
െയിന	-10.3765
▁ആഹ്വാനം	-10.3781
▁പുറത്തുവരുന്ന	-10.3785
▁ഇതെല്ലാ	-10.3809
▁സ്വാഗതം	-10.3818
▁കുടുംബത്തിന	-10.385
▁ദക്ഷിണ	-10.3856
▁പതാക	-10.3856
▁വസതി	-10.3858
E	-10.3893
▁ബീഹാറില	-10.3894
▁പുലർത്ത	-10.3894
▁കേവല	-10.3894
ഗിരി	-10.3914
▁നയതന്ത്ര	-10.3931
▁ചലഞ്ച	-10.3932
▁അപമാനിക്ക	-10.3934
രേഖ	-10.396
ഡബ്ല്യു	-10.3969
▁അനുബന്ധ	-10.3969
▁സിദ്ദിഖ	-10.3969
▁സൗകര്യങ്ങള	-10.4001
▁സംഭാഷണ	-10.4008
▁റിനോഷ	-10.4008
▁സർവ്വേ	-10.4008
▁എല്ലാവർക്കു	-10.4011
▁വളര്‍ത്ത	-10.4019
▁വിദ്യാര്‍ഥി	-10.402
കുഞ്ഞാലിക്കുട്ടി	-10.4046
▁ഭൂരിഭാഗ	-10.4046
▁വനംവകുപ്പ	-10.4046
▁പാക്കേജ	-10.4046
▁ഓഫിസ	-10.4047
▁പിന്നീട	-10.4047
▁പ്രതിനിധികള	-10.4068
▁ഉത്തരാഖണ്ഡ	-10.4084
▁രവീന്ദ്ര	-10.4084
▁ചിഹ്ന	-10.4084
▁പരിഹാസ	-10.4085
▁ശ്വാസ	-10.4085
▁മുന്നേ	-10.4086
▁പെഷ്യല	-10.409
▁കമ്പനികള	-10.4094
▁യോഗത്തില	-10.4097
▁വീഴ്ത്ത	-10.4106
▁ഉമ്മന്‍ചാണ്ടി	-10.4123
▁ചെലുത്ത	-10.4123
▁ഗൃഹ	-10.4123
▁സജ്ജമാക്ക	-10.4127
കളിലായി	-10.4138
▁നഗരത്തില	-10.4141
▁അയോധ്യ	-10.4162
▁ലക്ഷ്യത്തോടെ	-10.4166
▁ഘട്ടത്തില	-10.4195
▁നഷ്ടപരിഹാര	-10.4201
▁ശശീന്ദ്ര	-10.4201
▁ആദിത്യനാഥ	-10.4201
▁േക്കാം	-10.4202
ങ്ങാടി	-10.4205
ചികിത്സയിലുള്ളത്	-10.4212
▁വാഗ്ദാന	-10.4216
▁വിപണിയില	-10.4239
▁ബൈജു	-10.424
▁ിരിക്കുകയാണെന്ന	-10.424
▁ട്രാന്‍സ്	-10.4241
▁പിറന്ന	-10.4242
▁കേന്ദ്രങ്ങളില	-10.4255
▁ദശലക്ഷ	-10.4279
▁വിദ്യാർഥി	-10.4279
▁ഗള്‍ഫ്	-10.4279
▁നടപടിയെടുക്ക	-10.4279
▁അസുഖ	-10.4279
▁രഞ്ജി	-10.4279
▁നായകന	-10.4289
▁പ്രഭാ	-10.429
▁നടത്തുമെന്ന	-10.4303
▁അറബ	-10.432
ശാന്തി	-10.4341
▁കേൾക്ക	-10.4366
ായിട്ടാണ്	-10.4373
▁തടയാന	-10.4384
▁ഇടിവ	-10.4391
B	-10.4397
▁അഭ്യർത്ഥ	-10.4397
▁പ്രചരിപ്പിക്ക	-10.4397
കരാർ	-10.4407
▁അഭയ	-10.4409
▁തെളിയിക്ക	-10.4417
▁ചുമത്ത	-10.4424
▁ജലനിരപ്പ്	-10.4437
▁ആന്ധ്ര	-10.4437
▁വരാനിരിക്കുന്ന	-10.4439
▁അത്തരമൊര	-10.4442
▁ആരോഗ്യവകുപ്പ	-10.4477
▁തേജസ്വി	-10.4477
▁വർധനവ	-10.4477
▁സന്ദർശന	-10.4477
▁കാർഷിക	-10.4477
▁കഞ്ചാവ	-10.4478
▁അക്കാര്യ	-10.4483
▁സുന്ദര	-10.4485
▁മുടക്ക	-10.4515
▁ലിമിറ്റഡ	-10.4517
കണ്ഠ	-10.4517
▁സമാജ്	-10.4518
▁ജീവനക്കാർ	-10.4521
▁ക്വാറന്റൈ	-10.4547
▁കുട്ടികള്‍ക്ക	-10.4551
▁ഫെഡറ	-10.4558
▁പിന്നിട്ട	-10.4559
▁അതിനാല	-10.4568
▁റാവു	-10.4568
▁ഊര്‍ജ	-10.4588
▁വഴക്ക	-10.4591
▁മലയോര	-10.4598
▁റെഡ്ഡി	-10.4598
▁ഫ്രണ്ട്	-10.4599
▁മകൻ	-10.4605
േണ്ടതില്ല	-10.4631
▁പ്രവചിച്ച	-10.4639
▁കാലഘട്ട	-10.4639
▁കലക്ടര്‍	-10.4639
▁കാര്യത്തിലും	-10.4639
▁ജീവൻ	-10.464
▁എഡിറ്റ	-10.4642
▁തുടരുമെന്ന	-10.4643
▁വേണമെങ്കി	-10.4644
▁കഴിയുമെന്ന	-10.4646
▁പ്രവർത്തനങ്ങള	-10.4648
▁ഹമാസ	-10.4656
▁അത്യാവശ്യ	-10.468
▁ഉപമുഖ്യമന്ത്രി	-10.468
▁വായിക്കാം	-10.468
▁ലുലു	-10.468
▁ജെഡിഎസ	-10.4681
▁കളുടേ	-10.4687
▁പുറപ്പെടു	-10.4713
▁താല്‍ക്കാലിക	-10.4721
▁അന്തരീക്ഷ	-10.4721
▁മൊബൈൽ	-10.4721
▁വാക്കുകൾ	-10.4721
▁മില്യണ	-10.4722
▁ആകാശ	-10.4723
▁വലുത	-10.4724
ടക്കമുള്ള	-10.4726
▁നടക്കാനിരിക്ക	-10.4731
ിനുള്ളിൽ	-10.4735
▁അരങ്ങേറ	-10.4737
▁കൊല്‍ക്കത്ത	-10.4762
▁ഏതാന	-10.4764
▁ടൗണ	-10.4767
▁നശിപ്പിക്ക	-10.4768
▁അന്യ	-10.4801
▁നരേന്ദ്രമോദി	-10.4803
▁രാധാകൃഷ്ണന	-10.4803
▁വില്‍പ്പന	-10.4803
▁പബ്ലിക്	-10.4803
▁ഇറ്റലി	-10.4804
▁ചൗധരി	-10.4845
▁തൃശ്ശൂര	-10.4845
▁ചുഴലിക്കാറ്റ	-10.4845
▁താക്കറെ	-10.4845
▁സമ്പദ്	-10.4845
▁ഫോടന	-10.4846
▁ാണിത്	-10.4849
▁തിനാലാണ	-10.4853
കുമാരി	-10.4882
▁ഡിജിപി	-10.4886
▁കളക്ടറ	-10.4887
▁അഗ്നി	-10.4888
▁രാജിവച്ച	-10.4888
▁ലക്ഷണങ്ങള	-10.4904
▁ഐശ്വര്യ	-10.4928
▁നഷ്ടപ്പെട	-10.4929
▁റ്റേഷന	-10.4952
▁സമ്മേളനത്തില	-10.4955
▁ആസൂത്രണ	-10.497
▁സര്‍വകലാശാല	-10.497
▁ശേഷവും	-10.497
▁മാധവ	-10.4973
▁യഥാ	-10.4976
▁തൃശൂര	-10.5012
▁പ്രചരിക്കുന്ന	-10.5012
▁മനോജ്	-10.5012
▁റെയിൽവേ	-10.5012
▁വിഭജന	-10.5012
▁നിലനിർത്ത	-10.5013
▁മീറ്ററ	-10.5013
▁സമ്പര്‍ക്ക	-10.5014
▁നമ്പർ	-10.5015
▁ഓറഞ്ച്	-10.5055
▁മതേതര	-10.5055
▁പ്രവേശിപ്പിക്ക	-10.5055
▁സഞ്ജയ	-10.5058
ുരുത്തി	-10.5059
▁ഉറപ്പുവരുത്ത	-10.5097
▁ശ്രീലങ്ക	-10.5098
v	-10.514
▁റിപ്പബ്ലിക്	-10.514
▁ഉദാഹരണ	-10.514
▁ബലാത്സംഗ	-10.514
▁സഹകരിക്ക	-10.5143
▁യായിരുന്നുവെന്ന	-10.5157
▁വാര്‍ഡുകള	-10.5163
▁ചൗഹാന	-10.5183
▁സമർപ്പിക്ക	-10.5183
▁പ്രതിമാസ	-10.5183
▁മോട്ടോ	-10.5184
▁സമ്പന്ന	-10.5184
ശേഖര	-10.5188
▁എങ്ങനെയാണ	-10.5223
▁എസ്ഡിപിഐ	-10.5226
▁സതീശൻ	-10.5226
▁എങ്കില	-10.5227
▁മാതാപിതാക്കള	-10.5228
▁കക്ഷികള	-10.5231
▁കടുപ്പ	-10.5274
▁ട്രേഡ	-10.5284
▁ഉണ്ടാകുമെന്ന	-10.5299
▁ആഡംബര	-10.5313
▁സ്ഥാനാർഥി	-10.5313
▁കമ്മറ്റി	-10.5313
▁സ്ഥലത്തെത്തി	-10.5321
k	-10.5356
▁അടിയന്തിര	-10.5356
▁ഡിപ്ലോമ	-10.5356
▁ചൂണ്ട	-10.5357
▁സ്വര്‍ണക്കടത്ത	-10.5357
▁ഉള്‍പ്പെടുത്തിയ	-10.5357
▁നാട്ടിൽ	-10.5357
▁ആരിഫ	-10.5384
f	-10.54
▁അസ്വസ്ഥ	-10.54
▁രംഗത്തുവന്ന	-10.54
▁പൗരന്മാര	-10.5401
▁വിദഗ്ദ	-10.5402
▁സംവിധാനങ്ങള	-10.5405
▁ബംഗാൾ	-10.5444
▁സംബന്ധമായ	-10.5444
▁ഹിന്ദി	-10.5445
തിനിടയിൽ	-10.5462
▁അന്ത്യ	-10.547
▁കൊലപ്പെടുത്ത	-10.5485
▁ചൊവ്വ	-10.5488
▁ആര്‍ജെഡി	-10.5489
▁ന്യൂഡൽഹി	-10.5489
▁സൂപ്രണ്ട	-10.5489
▁എഐസിസി	-10.5489
▁തുറമുഖ	-10.5489
▁ഫൈനല	-10.5489
▁ചന്ദ്രശേഖര	-10.549
ിനേക്കാള്‍	-10.5494
▁സ്വര്‍ണ്ണ	-10.5504
▁മണിക്കൂറിനുള്ള	-10.5524
▁അവലോകന	-10.5533
ുൾപ്പെടെ	-10.5533
▁സ്പെഷ്യ	-10.5533
▁ിരിക്കുന്നതെന്ന	-10.5534
▁ഹരീഷ	-10.5536
▁പവന്	-10.5538
▁താങ്കള	-10.5557
▁പട്ടികജാതി	-10.5578
▁മലപ്പുറത്ത	-10.5578
▁താഴ്ന്ന	-10.5578
▁വർധിച്ച	-10.5579
▁വിഹിതം	-10.5579
▁ദോഷ	-10.5579
▁അവസരങ്ങള	-10.56
▁പലസ്തീ	-10.5623
▁അമൃത	-10.5623
▁അഫ്ഗാനിസ്ഥാ	-10.5623
▁ബിഷപ്പ	-10.5628
ായുധ	-10.564
▁ഇംഗ്ലീഷ	-10.5668
▁രോഗവ്യാപന	-10.5668
▁ജുഡീഷ്യ	-10.5668
▁ഹോസ്പിറ്റ	-10.5668
▁വില്ലേജ	-10.5668
▁ജില്ലയിലും	-10.5668
▁പ്ലേ	-10.5672
▁ക്വാറന്റൈനില	-10.568
▁വാതില	-10.5704
▁പൊട്ടിത്തെറി	-10.5713
▁മന്ദിര	-10.5713
▁അജണ്ട	-10.5714
▁പ്രതാപ	-10.5716
▁കേസെടുക്ക	-10.5721
▁വിജിലന്‍സ്	-10.5758
▁പ്രയോജന	-10.5758
▁ആദ്യഘട്ട	-10.5758
▁വ്യക്തമാണ്	-10.5759
▁ഡിംപല	-10.576
▁മേടം	-10.5761
▁ക്രൂഡ	-10.5764
▁മടക്ക	-10.5787
▁പുരോഗമി	-10.5791
▁ട്രേലിയ	-10.5804
▁സെപ്തംബ	-10.5804
▁പലയിടത്ത	-10.5804
▁പോപ്പുല	-10.5804
▁പരിമിത	-10.5807
▁സംരക്ഷി	-10.5808
▁ഫ്രാന്‍സ	-10.5815
വിഭവ	-10.5828
▁ഫോഴ്	-10.5851
▁പറമ്പില	-10.5853
▁വിലാസ	-10.5877
▁സ്പ്രസ	-10.5878
▁മനോഹര	-10.5896
▁ശരിയല്ല	-10.5896
ാത്മക	-10.5897
▁നിർമാണ	-10.5897
ഴ്ത്തി	-10.5908
▁ഏര്‍പ്പെടുത്ത	-10.593
L	-10.5942
▁ധനസഹായ	-10.5942
▁നശിപ്പിച്ച	-10.5942
▁ആവിഷ്	-10.5943
▁ശ്രീധര	-10.5943
▁പവാറ	-10.5944
ുപോയ	-10.595
ാകട്ടെ	-10.5959
▁ലോക്ക്ഡൗണ്‍	-10.5989
▁ഇന്ദിര	-10.5989
▁ധീര	-10.5989
▁പാവപ്പെട്ട	-10.599
▁വേതന	-10.5995
▁രണ്ടാമത	-10.6035
▁കോർപ്പറേഷൻ	-10.6035
▁ജുനൈസ	-10.6035
▁ഉത്സവ	-10.6035
▁തികച്ച	-10.6038
▁യാണിത്	-10.6038
▁ക്കൊപ്പമ	-10.6043
ഋ	-10.6082
▁തിയതി	-10.6085
▁നിയോജക	-10.613
▁ദമ്പതികള	-10.613
▁ബുധന	-10.6131
▁തലത്തില	-10.6172
▁തളിപ്പറമ്പ	-10.6177
▁പയ്യന്നൂര	-10.6177
▁മത്സ്യബന്ധന	-10.6177
▁വേട്ടയാട	-10.6177
▁കിഫ്ബി	-10.6177
▁ആചാര	-10.6179
▁പ്ലാന്റ	-10.6185
▁ബംഗാളി	-10.6207
▁ചരിത്രത്തില	-10.6208
▁സന്ദര്‍ശി	-10.6217
▁തൃശ്ശൂർ	-10.6225
▁സിദ്ധരാമയ്യ	-10.6225
▁വളർച്ച	-10.6225
▁മിസൈ	-10.6225
▁ക്രൈം	-10.6226
ുകൂടി	-10.6229
▁പ്രകോപന	-10.6272
▁ചൊല്ലി	-10.6272
▁എൻഡിഎ	-10.6272
▁ദുരൂഹ	-10.6272
▁ട്വന്റി	-10.6321
▁സർവകലാശാല	-10.6321
▁കഠിന	-10.6321
▁നിര്‍മ്മിച്ച	-10.6321
▁വിരാട	-10.633
▁വമ്പന	-10.6331
▁ഏജന്‍സികള	-10.6361
▁ദിവസങ്ങള്‍ക്ക	-10.6366
▁എന്നിങ്ങന	-10.6367
▁സിസിടിവി	-10.6369
▁അയ്യപ്പ	-10.6369
▁ബഹള	-10.6369
▁ജിഹാദ	-10.637
▁ലൈറ്റ	-10.6389
▁ഗെഹ്ലോട്ട	-10.6417
▁എന്‍ഐഎ	-10.6417
▁കയറ്റുമതി	-10.6417
▁മൂന്നാമത്ത	-10.6418
▁ചെലവഴിച്ച	-10.6418
▁റാവത്ത	-10.6431
▁ചരക്ക	-10.6437
▁ഊർജ	-10.6472
▁മറ്റൊന്ന	-10.6494
▁ഭാരവാഹികള	-10.6499
▁യൂണിവേഴ്	-10.6515
▁ജയരാജൻ	-10.6515
▁ഡിഗ്രി	-10.6516
▁നേമത്ത	-10.6531
b	-10.6564
▁ആലോചന	-10.6564
▁ഗവര്‍ണറ	-10.6564
▁കത്തയച്ച	-10.6565
▁പൂര്‍ണ്ണമായ	-10.6565
N	-10.6614
▁യൂട്യൂബ	-10.6614
▁സൂപ്പർ	-10.6614
▁ശൈലി	-10.6614
▁ഇടിഞ്ഞ	-10.6626
▁ആധാ	-10.6631
▁ങ്ങളിലൊന്ന	-10.6637
F	-10.6664
O	-10.6664
▁ഒറ്റക്കെട്ടായ	-10.6664
▁ദക്ഷിണാഫ്രിക്ക	-10.6664
▁പ്രൊഫഷണ	-10.6664
▁സെറീന	-10.6664
▁പ്രക്രിയ	-10.6664
▁ചിങ്ങം	-10.6664
▁വിശ്വാസികള	-10.6674
▁ിരുന്നുവെങ്കില	-10.6687
▁പ്രകടിപ്പിക്ക	-10.6703
▁ആയിരക്കണക്കിന	-10.6714
▁നാശനഷ്ട	-10.6714
▁പതിനൊന്ന	-10.6714
▁ബോളിവുഡ	-10.6714
ാഘോഷ	-10.6714
▁നിരീക്ഷക	-10.6714
▁കുറ്റവാളി	-10.6714
▁ജനവിധി	-10.6714
▁ഫിലിപ്പ	-10.6715
▁പവാര്‍	-10.6717
▁പ്രദീപ	-10.6755
▁ദുര്‍ബല	-10.6764
▁പച്ചക്കറി	-10.6764
ാലോചന	-10.6764
▁ഭരണാധികാരി	-10.6764
▁ശ്രീനിവാസ	-10.6764
▁കണ്‍വീന	-10.6814
▁റെക്കോർഡ	-10.6814
▁ഉദ്ധവ്	-10.6814
▁രജിസ്ട്രേഷ	-10.6815
ോത്സവ	-10.6815
▁നിര്‍മിച്ച	-10.6817
▁ശങ്കര	-10.684
▁അതിശക്തമായ	-10.6865
▁ബഹിരാകാശ	-10.6865
▁ഗെയിമ	-10.6865
▁സമ്മർദ്ദ	-10.6865
▁പെന്‍ഷന്‍	-10.6865
▁പാചക	-10.6867
▁മതിയെന്ന	-10.6876
▁സ്ഥാനാര്‍ത്ഥികള	-10.6898
▁പ്രതികൂല	-10.6916
▁ഒഡീഷ	-10.6916
▁ഹൈദരാബാദ്	-10.6916
▁ഗവണ്‍മെന്റ	-10.6916
▁ഉപകരണങ്ങള	-10.6916
▁ഒന്‍പത	-10.6917
▁സങ്കട	-10.6917
▁നറുക്കെടുപ്പ	-10.6968
▁നിലനിൽക്കുന്ന	-10.6968
▁ഇറാഖ	-10.6968
മത്സ്യത്തൊഴിലാളി	-10.7019
▁ആണ്‍കുട്ടി	-10.7019
▁താല്‍പ്പര്യ	-10.7019
▁കമ്മിഷന	-10.7021
▁കീഴടങ്ങ	-10.7021
▁നിബന്ധന	-10.7071
▁പ്രിൻസിപ്പ	-10.7071
▁കോര്‍പറേഷന	-10.7123
▁ഗംഭീര	-10.7123
▁വാണിജ്യ	-10.7123
▁താപനില	-10.7123
▁ഹിജാബ	-10.7123
▁കൂട്ടായ്മ	-10.7123
▁ഉചിത	-10.7123
▁അച്ചടക്ക	-10.7124
▁കമ്പ്യൂട്ട	-10.7175
▁സെഞ്ച്വറി	-10.7175
▁www	-10.7175
▁ലൈസന്‍സ	-10.7175
▁എന്നിരുന്നാലും	-10.7175
▁റോബിൻ	-10.7175
▁ക്യാംപ	-10.7179
▁അലര്‍ട്ട	-10.7182
▁ലളിത	-10.7185
▁മൗന	-10.7189
▁ലോക്ഡൗണ	-10.7228
▁അണിനിര	-10.7228
▁നിവാരണ	-10.7228
▁മെച്ചപ്പെടുത്ത	-10.723
▁അതിജീവി	-10.7255
▁വെബ്സൈറ്റ	-10.7281
▁മരണമടഞ്ഞ	-10.7281
▁ഓപ്പറേഷന	-10.7281
▁വര്‍ധിപ്പിച്ച	-10.7281
▁ആസാദ്	-10.7281
▁തുറന്നടിച്ച	-10.7287
▁ഉപഭോക്ത	-10.7334
▁വിവേചന	-10.7334
▁ഹൈദരാബാദി	-10.7334
▁സമ്മര്‍ദ്ദ	-10.7334
സമ്പർക്കത്തിലൂടെ	-10.7388
▁ആംബുലന്‍സ	-10.7388
▁പതിറ്റാണ്ട	-10.7388
▁ജൂലായ	-10.7391
▁സല്‍മാന	-10.7391
▁ഉറ്റുനോക്ക	-10.7441
▁അഡ്മിനിസ്	-10.7441
▁പാരമ്പര്യ	-10.7441
▁പൊതുമരാമത്ത്	-10.7441
▁രാമക്ഷേത്ര	-10.7441
▁സെക്യൂരിറ്റി	-10.7441
▁ആവര്‍ത്തിച്ച	-10.7441
▁ആഫ്രിക്ക	-10.7441
▁പടര്‍ന്ന	-10.7442
▁വെളിച്ച	-10.7442
▁തിളങ്ങ	-10.7445
▁ചാര്‍ജ	-10.7448
▁ശുപാര്‍ശ	-10.7495
▁ഡൗൺ	-10.7495
▁പഠിപ്പിക്ക	-10.7497
▁ഉറങ്ങ	-10.7505
▁നിഷേധിക്ക	-10.7543
സമിതി	-10.7549
രക്ഷാപ്രവര്‍ത്തന	-10.755
▁പുലർച്ചെ	-10.755
▁പ്രചരിപ്പിച്ച	-10.755
▁വിചാരിച്ച	-10.755
▁ഒഴികെ	-10.755
▁ഇരിട്ടി	-10.755
▁നല്ക	-10.7551
പെൻഷൻ	-10.7552
▁ങ്ങളൊന്നു	-10.756
▁വികാസ	-10.7565
▁ക്കുവാന	-10.758
▁യെഡിയൂരപ്പ	-10.7604
▁ബഹിഷ്	-10.7604
▁കളമശ്ശേരി	-10.7605
▁നിര്‍ണയ	-10.7605
▁കഴുത്ത	-10.7607
▁ഇരിക്കൂ	-10.7613
▁കമ്മീഷണര്‍	-10.7659
▁താത്കാലിക	-10.7659
▁തൊടുപുഴ	-10.7659
▁തൃപ്തി	-10.7659
▁ഫാത്തിമ	-10.7659
▁ക്കിടയിൽ	-10.766
▁വഷളാ	-10.766
▁വിവേക	-10.7667
▁അഭിമുഖത്തില	-10.7673
പൂർവ്വ	-10.7706
▁അനിവാര്യ	-10.7715
▁ദീർഘ	-10.7715
▁സെക്കന്‍ഡ	-10.7715
▁സഖാവ	-10.7715
▁ഉപദ്രവ	-10.7715
▁രണ്ടുപേ	-10.7717
▁ഐപിഎല്ലില	-10.772
▁വിമര്‍ശി	-10.7741
▁നടപ്പിലാ	-10.7745
▁കാത്തിരുന്ന	-10.7757
▁ചാലക്കുടി	-10.777
▁നിയമനടപടി	-10.777
▁പരിശ്രമ	-10.777
▁സർട്ടിഫിക്കറ്റു	-10.777
▁പതിനഞ്ച	-10.777
▁ഒഴിയ	-10.7773
▁കുടിവെള്ള	-10.7826
▁പലതവണ	-10.7826
▁അത്തരത്തില	-10.7867
▁ഗുരുവായൂര	-10.7882
▁യാഥാര്‍ത്ഥ്യ	-10.7882
▁പ്രചരിച്ച	-10.7882
▁മുന്‍ഗണന	-10.7882
▁ഉന്നയിക്ക	-10.7885
▁സാക്ഷികള	-10.7896
▁അണക്കെട്ട	-10.7939
▁ഉത്തര്‍പ്രദേശില	-10.7939
▁ക്രമസമാധാന	-10.7939
▁പുനരാരംഭി	-10.7939
▁കൺട്രോ	-10.7939
▁ഓരോരുത്തര	-10.7939
▁ആർഎസ്എസ	-10.7939
▁പ്രതികരണവു	-10.797
▁ജ്വല്ലറി	-10.7995
▁സൊസൈറ്റി	-10.7995
▁സ്ഫോടന	-10.7995
▁ഭിന്നത	-10.7995
▁ഒവൈസി	-10.7995
▁ഒടിടി	-10.7996
▁കുതിപ്പ	-10.8002
▁തൃശൂരില	-10.8019
▁ജാമ്യാപേക്ഷ	-10.8053
▁ഏതൊക്കെ	-10.8053
▁ിക്കുകയ	-10.8063
▁പ്പെടുത്താന	-10.8068
▁ത്രിപുര	-10.811
▁വിസ്മയ	-10.811
▁സവിശേഷ	-10.8168
▁ഇലക്ട്രോണിക്	-10.8168
▁മൂവാറ്റുപുഴ	-10.8168
▁വിജ്ഞാപന	-10.8168
▁സർട്ടിഫിക്കറ്റ്	-10.8168
▁സുധീര	-10.8168
▁ഒരിക്കൽ	-10.8168
▁റിയാദ്	-10.8168
▁വിദ്യാര്‍ഥികള	-10.8207
▁അര്‍ജുന	-10.8226
▁ബിഹാറില	-10.8227
സമ്മേളനത്തിൽ	-10.8231
ൊഴിഞ്ഞ	-10.8274
▁പാകിസ്ഥാന	-10.8284
▁അവതാരക	-10.8284
▁ക്രമക്കേട	-10.8284
▁നിഗമനം	-10.8284
▁തീരുമാനമെടുക്ക	-10.8285
▁അനുഗ്രഹ	-10.8285
▁നിർമ്മിച്ച	-10.8285
▁രാജിവെക്ക	-10.8287
▁ിട്ടുണ്ടെങ്കില	-10.829
▁ആണെങ്കില	-10.8292
▁വ്യാപാരികള	-10.8304
സര്‍ക്കാരിനെതിരെ	-10.832
▁വിമർശ	-10.8323
▁ഇബ്രാഹി	-10.8343
▁രോഗമുക്തരായി	-10.8343
▁റെനീഷ	-10.8343
▁സത്യവാങ്മൂല	-10.8343
▁ഇടിമിന്ന	-10.8343
▁സോഫ്റ്റ്	-10.8343
▁സമ്പാദി	-10.8343
▁ഏജന്റ	-10.8344
▁പിന്നോട്ട	-10.8346
▁കൈവരിക്ക	-10.8355
▁സ്ഥാനാർത്ഥികള	-10.8362
▁ഉച്ചകോടി	-10.8403
▁കായംകുള	-10.8403
▁തൂങ്ങി	-10.8409
▁ക്രൈസ്ത	-10.8462
▁ഗ്രാമീണ	-10.8462
ഓ	-10.8476
▁അപൂര്‍വ	-10.85
▁ക്കേണ്ടതുണ്ട	-10.8509
▁ഉമ്മൻചാണ്ടി	-10.8522
▁താല്പര്യ	-10.8522
▁പരമ്പരാഗത	-10.8522
▁മതനിരപേക്ഷ	-10.8522
▁സംഘാടക	-10.8522
▁ക്ലിനിക്ക	-10.8522
▁പരമ്പര	-10.8522
▁അണികള	-10.8529
ദിവസം	-10.8537
▁കളിലൊന്ന	-10.8569
▁കമ്മ്യൂണിസ്റ്റ്	-10.8582
▁മസ്ജിദ	-10.8582
▁അദ്ധ്യക്ഷ	-10.8582
ഃ	-10.8642
▁മാതൃഭൂമി	-10.8643
▁മാനന്തവാടി	-10.8643
▁പ്രശംസ	-10.8643
▁വിരോധ	-10.8644
V	-10.9078
W	-10.9205
K	-10.987
&	-11.0731
G	-11.0731
·	-11.1591
#	-11.1755
U	-11.2532
H	-11.2622
*	-11.3471
ഝ	-11.507
ഉ	-11.5377
J	-11.6169
+	-11.8005
x	-11.8481
ൡ	-11.8481
ഈ	-11.8987
@	-11.9154
=	-11.9329
]	-11.9329
ഏ	-11.9523
j	-12.0452
Y	-12.0652
X	-12.3165
•	-12.4262
_	-12.4556
൪	-12.4859
൯	-12.4859
️	-12.5494
z	-12.6529
q	-12.7284
$	-12.899
ा	-12.9467
Q	-13.1048
Z	-13.2262
क	-13.2262
°	-13.3643
₹	-13.3643
र	-13.4412
े	-13.4412
‐	-13.4412
ि	-13.6154
्	-13.6154
൦	-13.7154
🔘	-13.7154
ഊ	-13.8099
்	-13.8265
न	-13.8265
स	-13.9515
ब	-14.0944
व	-14.0944
म	-14.2611
ൿ	-14.2611
>	-14.2611
द	-14.4611
ഌ	-14.4611
ह	-14.4611
👉	-14.4611
ட	-14.4611
}	-14.7111
ग	-14.7111
त	-15.0444
प	-15.0444
£	-15.0444
ډ	-15.0444
ं	-15.0444
ए	-15.0444
थ	-15.0444
ी	-15.0444
⬛	-15.0444
︎	-15.0444
🏻	-15.0444
ज	-15.5444
ப	-15.5444
ய	-15.5444
ध	-15.5444
श	-15.5444
ڇ	-15.5444
ڈ	-15.5444
औ	-15.5444
ट	-15.5444
ण	-15.5444
भ	-15.5444
ष	-15.5444
া	-15.5444
க	-15.5444
ம	-15.5444
€	-15.5444
👌	-15.5444
👏	-15.5444
💎	-15.5444
💚	-15.5444
🔸	-15.5444
😍	-15.5444
😘	-15.5444
🤝	-15.5444
ौ	-15.5444
ி	-15.5444
🚩	-16.5425
🔥	-16.5426
ो	-16.5427
अ	-16.5428
{	-16.5429
🙏	-16.543
❓	-16.5431
ल	-16.5432
♥	-16.5433
▪	-16.5434
⃣	-16.5435
❤	-16.5436
⁄	-16.5437
य	-16.5438
\	-16.5439
′	-16.544
∙	-16.5441
[	-16.5442
ഔ	-16.5443
ব	-16.5444
வ	-16.5444
ு	-16.5444
<	-16.5444
`	-16.5444
	-16.5444
¥	-16.5444
×	-16.5444
â	-16.5444
ñ	-16.5444
आ	-16.5444
इ	-16.5444
ठ	-16.5444
।	-16.5444
ং	-16.5444
ল	-16.5444
அ	-16.5444
ச	-16.5444
த	-16.5444
ல	-16.5444
ீ	-16.5444
ெ	-16.5444
ை	-16.5444
‟	-16.5444
◼	-16.5444
◾	-16.5444
♀	-16.5444
✌	-16.5444
✨	-16.5444
➡	-16.5444
ブ	-16.5444
ム	-16.5444
ラ	-16.5444
ル	-16.5444
ー	-16.5444
南	-16.5444
容	-16.5444
湘	-16.5444
美	-16.5444
	-16.5444
🎖	-16.5444
🐟	-16.5444
👇	-16.5444
🖤	-16.5444
🗃	-16.5444
😄	-16.5444
🙄	-16.5444
🤔	-16.5444
🤣	-16.5444
🥛	-16.5444
च	-16.5444
🤦	-16.5444
(	-16.5444
ஆ	-16.5444
ண	-16.5444
ன	-16.5444
