[UNK]	0
[CLS]	1
[SEP]	2
[PAD]	3
[MASK]	4
!	5
"	6
#	7
$	8
%	9
&	10
'	11
(	12
)	13
*	14
+	15
,	16
-	17
.	18
/	19
0	20
1	21
2	22
3	23
4	24
5	25
6	26
7	27
8	28
9	29
:	30
;	31
<	32
=	33
>	34
?	35
@	36
[	37
\	38
]	39
_	40
`	41
a	42
b	43
c	44
d	45
e	46
f	47
g	48
h	49
i	50
j	51
k	52
l	53
m	54
n	55
o	56
p	57
q	58
r	59
s	60
t	61
u	62
v	63
w	64
x	65
y	66
z	67
{	68
}	69
	70
£	71
¥	72
°	73
·	74
×	75
â	76
ñ	77
ڇ	78
ڈ	79
ډ	80
ं	81
अ	82
आ	83
इ	84
ए	85
औ	86
क	87
ग	88
च	89
ज	90
ट	91
ठ	92
ण	93
त	94
थ	95
द	96
ध	97
न	98
प	99
ब	100
भ	101
म	102
य	103
र	104
ल	105
व	106
श	107
ष	108
स	109
ह	110
ा	111
ि	112
ी	113
े	114
ो	115
ौ	116
्	117
।	118
ং	119
ব	120
ল	121
া	122
அ	123
ஆ	124
க	125
ச	126
ட	127
ண	128
த	129
ன	130
ப	131
ம	132
ய	133
ல	134
வ	135
ி	136
ீ	137
ு	138
ெ	139
ை	140
்	141
ം	142
ഃ	143
അ	144
ആ	145
ഇ	146
ഈ	147
ഉ	148
ഊ	149
ഋ	150
ഌ	151
എ	152
ഏ	153
ഐ	154
ഒ	155
ഓ	156
ഔ	157
ക	158
ഖ	159
ഗ	160
ഘ	161
ങ	162
ച	163
ഛ	164
ജ	165
ഝ	166
ഞ	167
ട	168
ഠ	169
ഡ	170
ഢ	171
ണ	172
ത	173
ഥ	174
ദ	175
ധ	176
ന	177
പ	178
ഫ	179
ബ	180
ഭ	181
മ	182
യ	183
ര	184
റ	185
ല	186
ള	187
ഴ	188
വ	189
ശ	190
ഷ	191
സ	192
ഹ	193
ാ	194
ി	195
ീ	196
ു	197
ൂ	198
ൃ	199
െ	200
േ	201
ൈ	202
ൊ	203
ോ	204
ൌ	205
്	206
ൗ	207
ൡ	208
൦	209
൪	210
൯	211
ൺ	212
ൻ	213
ർ	214
ൽ	215
ൾ	216
ൿ	217
‌	218
‍	219
‐	220
‟	221
•	222
′	223
⁄	224
€	225
₹	226
⃣	227
∙	228
▪	229
◼	230
◾	231
♀	232
♥	233
✌	234
✨	235
❓	236
❤	237
➡	238
⬛	239
ブ	240
ム	241
ラ	242
ル	243
ー	244
南	245
容	246
湘	247
美	248
	249
︎	250
️	251
🌹	252
🎖	253
🏻	254
🐟	255
👇	256
👉	257
👌	258
👏	259
💎	260
💚	261
🔘	262
🔥	263
🔸	264
🖤	265
🗃	266
😄	267
😍	268
😘	269
🙄	270
🙏	271
🚩	272
🤔	273
🤝	274
🤣	275
🤦	276
🥛	277
🥦	278
##ട	279
##പ	280
##ി	281
##യ	282
##ു	283
##മ	284
##ാ	285
##ഴ	286
##െ	287
##ള	288
##്	289
##വ	290
##ര	291
##ന	292
##‍	293
##ഷ	294
##ക	295
##ത	296
##ല	297
##ണ	298
##റ	299
##ച	300
##ം	301
##ഹ	302
##ഗ	303
##ീ	304
##ശ	305
##സ	306
##ൊ	307
##ബ	308
##എ	309
##ധ	310
##േ	311
##ദ	312
##ഥ	313
##ോ	314
##‌	315
##ഭ	316
##ജ	317
##ൽ	318
##ങ	319
##ൻ	320
##ൺ	321
##ൂ	322
##8	323
##9	324
##6	325
##ൃ	326
##ൾ	327
##ഡ	328
##ർ	329
##ആ	330
##ൗ	331
##ൈ	332
##ഠ	333
##ഫ	334
##ഞ	335
##ഘ	336
##4	337
##ഖ	338
##2	339
##0	340
##5	341
##1	342
##7	343
##c	344
##t	345
##ഐ	346
##/	347
##h	348
##m	349
##a	350
##n	351
##j	352
##e	353
##r	354
##i	355
##d	356
##v	357
##s	358
##k	359
##ഒ	360
##3	361
##p	362
##ൡ	363
##ഛ	364
##र	365
##ഓ	366
##u	367
##ഔ	368
##ൌ	369
##അ	370
##.	371
##ഇ	372
##ഏ	373
##w	374
##o	375
##ഊ	376
##‐	377
##l	378
##ഢ	379
##y	380
##g	381
##"	382
##൯	383
##b	384
##ഃ	385
##ம	386
##்	387
##f	388
##ഉ	389
##!	390
##?	391
##;	392
##x	393
##,	394
##z	395
##ि	396
##ह	397
##ा	398
##व	399
##स	400
##य	401
##ो	402
##ं	403
##)	404
##൪	405
##:	406
##-	407
##'	408
##ഌ	409
##ഝ	410
##े	411
##南	412
##美	413
##容	414
##൦	415
##_	416
##्	417
##ी	418
##ट	419
##ڈ	420
##′	421
##प	422
##न	423
##ൿ	424
##া	425
##ং	426
##ল	427
##ு	428
##வ	429
##ீ	430
##ட	431
##ډ	432
##=	433
##ഈ	434
##â	435
##इ	436
##क	437
###	438
##भ	439
##ग	440
##ज	441
##ண	442
##ி	443
##ன	444
##அ	445
##த	446
##க	447
##ഋ	448
##q	449
##️	450
##⃣	451
##ब	452
##द	453
##ल	454
##❤	455
##$	456
##ை	457
##\	458
##🐟	459
##*	460
##@	461
##🏻	462
##🤝	463
##>	464
##ष	465
##त	466
##ठ	467
##ध	468
##👌	469
##थ	470
##♥	471
##(	472
##&	473
##म	474
##👏	475
##🌹	476
##	477
##ñ	478
##]	479
##ー	480
##ム	481
##ブ	482
##ラ	483
##😘	484
##ए	485
##⬛	486
##·	487
##ण	488
##+	489
##💎	490
##ெ	491
##ய	492
##ப	493
##£	494
##😍	495
##ौ	496
##श	497
##✨	498
##[	499
##ന്	500
##ക്	501
##ത്	502
##്‍	503
##ന്ന	504
##ക്ക	505
##ില	506
##്ട	507
##ത്ത	508
##ും	509
##ിയ	510
##്ര	511
##ര്‍	512
##്യ	513
##ച്	514
##്പ	515
##ുന്ന	516
##ായ	517
##ാണ	518
##ട്ട	519
##ങ്	520
##ിക്ക	521
##പ്പ	522
##ിര	523
##റ്	524
##സ്	525
##ാണ്	526
##ച്ച	527
##ില്‍	528
##ണ്ട	529
##ങ്ങ	530
##ിന്	531
##്ല	532
##ുക	533
##ിച്ച	534
##ാന	535
##ടെ	536
പ്ര	537
##ന്‍	538
##ിക	539
##റ്റ	540
##ള്‍	541
##ുമ	542
##ാര	543
##ിന	544
##ഞ്	545
##ല്‍	546
##ിൽ	547
##ുന്നു	548
##ക്ക്	549
വി	550
##െയ	551
##ത്ര	552
##്ള	553
##ള്ള	554
##ായി	555
##ടു	556
##ുടെ	557
സ്	558
##ന്ന്	559
##റെ	560
##ഞ്ഞ	561
##െന്ന	562
##ക്ഷ	563
##ുള്ള	564
എന്ന	565
##ില്ല	566
##രു	567
##തി	568
##ിരുന്നു	569
കോ	570
##ദ്	571
##ങ്ങള	572
##ാക്ക	573
##രി	574
സം	575
##ണ്ട്	576
##വി	577
##ല്ല	578
##പ്പെ	579
##ാല	580
##ദേ	581
നി	582
##ിന്റെ	583
##ാര്‍	584
##ുന്നത്	585
##ുവ	586
പറ	587
##ാവ	588
##ിലെ	589
മു	590
നട	591
മാ	592
##ിവ	593
നേ	594
##ാന്‍	595
കേ	596
ചെയ	597
##്മ	598
##ുറ	599
##ങ്ക	600
രാ	601
പി	602
##ണം	603
##െന്ന്	604
പോ	605
##ോഗ	606
##ുകയ	607
##ത്ത്	608
##ിട്ട	609
##കര	610
കൊ	611
##ിപ്പ	612
##േഷ	613
##ച്ച്	614
##െന്നും	615
##ന്ത്ര	616
##മ്മ	617
##സ്ഥ	618
##ായിരുന്നു	619
##ത്തിയ	620
സ്വ	621
##ട്	622
##ങ്ങള്‍	623
അത	624
##ത്തില്‍	625
##ടി	626
##്യമ	627
##്യാ	628
##ണ്	629
##ദേശ	630
##ംഗ	631
##ത്യ	632
സാ	633
##ുട	634
##ത്തെ	635
##ന്ത	636
##റ്റ്	637
തിര	638
##തിയ	639
##െടു	640
##ന്ദ	641
##ണ്‍	642
ഒരു	643
##ാർ	644
##ഡ്	645
##വര	646
##ുകള	647
##ിച്ചു	648
സമ	649
##സി	650
##ിലും	651
##ുന്നത	652
പറഞ്ഞ	653
##തമ	654
##റിയ	655
ഇത	656
##രാ	657
കൂ	658
##പി	659
##ുണ്ട്	660
പേ	661
##ിരിക്ക	662
##യം	663
##ഗ്ര	664
##വര്‍	665
ബി	666
സി	667
##ട്ട്	668
##യും	669
##വും	670
##ാം	671
##ികള	672
##ിനെ	673
സ്ഥ	674
##വാ	675
##ാൻ	676
##ന്ധ	677
##ാല്‍	678
##യ്	679
##ാക	680
##യില്‍	681
##ുപ	682
##്യം	683
##മ്പ	684
##സ്ഥാന	685
##ിലേ	686
##ുണ്ട	687
##ഴി	688
##ന്ദ്ര	689
##ങ്ങൾ	690
##ുര	691
ചെയ്	692
വീ	693
##തിര	694
##ശ്	695
##മായ	696
വര	697
പരി	698
##നം	699
##ര്‍ക്ക	700
ആര	701
##ത്തി	702
##മാണ്	703
##ാത	704
തുട	705
നേത	706
##ദ്ധ	707
##ന്ത്രി	708
##പ്പെട്ട	709
അവ	710
##ത്തിന്	711
##ഴ്	712
രാജ	713
##ടിയ	714
തന്ന	715
##പ്പോ	716
കാര	717
##ത്തിൽ	718
##ീകര	719
##ിച്ച്	720
##മായി	721
വാ	722
##േണ്ട	723
##തു	724
പറഞ്ഞു	725
വെ	726
##ിച്ചത്	727
വ്യ	728
##നി	729
##ദേഹ	730
##ട്ടി	731
പറയ	732
##ലീ	733
കു	734
##ാമ	735
##ുകള്‍	736
##െങ്ക	737
##ാഗ	738
##റി	739
##ഷ്ട	740
പു	741
ചെയ്യ	742
##ണമ	743
അന	744
##ുമായി	745
##ിയുടെ	746
##ോടെ	747
##യുടെ	748
കെ	749
##ടുത്ത	750
##ക്ര	751
##ിനി	752
##ദ്ദേഹ	753
നിയ	754
നിന്ന	755
##ക്തമ	756
##ദ്യ	757
##ർക്ക	758
##പ്പ്	759
##ല്‍ക	760
##സം	761
##ഫ്	762
സംസ്ഥാന	763
ജില്ല	764
##രള	765
നല്‍ക	766
##ൂര്‍	767
##ിലേക്ക്	768
##രിക്ക	769
നില	770
##ത്തില	771
അദ്ദേഹ	772
##ത്തിന്റെ	773
തന്നെ	774
എം	775
##ഞ്ഞെടു	776
##കള	777
##ജെ	778
##ോട്ട	779
##ാള	780
കോണ്‍	781
##ഡി	782
##പ്ര	783
ഇന്	784
##ിന്ന്	785
##ീയ	786
##ോട്	787
20	788
##െന്നാണ്	789
##ഴിഞ്ഞ	790
കുറ	791
പൊ	792
##ോധ	793
##സ്റ്റ	794
##സമ	795
കോണ്‍ഗ്ര	796
##ോദ	797
ജന	798
പ്രതി	799
##വ്	800
##ഞ്ച	801
##ണ്ണ	802
നിന്ന്	803
##ാധ	804
##ത്സ	805
ഉണ്ട	806
കേരള	807
##യാണ്	808
ശ്ര	809
സാധ	810
##ികള്‍	811
തീ	812
ഇന്ത്യ	813
ബിജെ	814
രൂ	815
##ിട്ടുണ്ട്	816
പ്രത	817
ലഭ	818
##ന്റെ	819
##ാനം	820
ജോ	821
##ക്കും	822
##ിക്കുന്ന	823
##വർ	824
യു	825
കഴിഞ്ഞ	826
##ുകയാണ്	827
##െയും	828
അറിയ	829
സെ	830
പുറ	831
##ാട	832
##വശ	833
##ാത്ത	834
##യിൽ	835
##ജ്	836
##ാൽ	837
കേന്ദ്ര	838
അധ	839
നിയമ	840
##ലിയ	841
നിര	842
മുഖ	843
##ാറ	844
പേര	845
##ുമ്പ	846
അതേ	847
##പ്	848
##രണ	849
##കു	850
##ലി	851
##ത്ഥ	852
മൂ	853
രൂപ	854
മാത്ര	855
##നാ	856
##േഖ	857
സീ	858
##ജി	859
##കാര	860
ആവശ	861
##ുകയും	862
##ഷ്	863
തിരഞ്ഞെടു	864
ഇട	865
തെ	866
##നെ	867
പിന്ന	868
##രുമ	869
##ാക്കിയ	870
##്യാപ	871
ചെയ്ത	872
ദിവ	873
കണ്ട	874
##ുകൾ	875
##ഭവ	876
##തിരെ	877
എല്ല	878
##സമയം	879
ഡി	880
##00	881
വിജ	882
സംഘ	883
##വിഡ്	884
അദ്ദേഹം	885
##പ്പെട	886
##ിപ്പോ	887
##രം	888
##റ്റി	889
ആശ	890
വ്യക്തമ	891
സ്വദേശ	892
അതേസമയം	893
##ിന്‍	894
രോഗ	895
##ിക്കും	896
മുന്ന	897
##ിരുന്ന	898
##ീക്ഷ	899
എന്നാല്‍	900
വേ	901
##ിയില്‍	902
നിര്‍	903
##മി	904
##ലീസ്	905
##സഭ	906
##െയാണ്	907
##ത്വ	908
##ോള	909
വന്ന	910
##രെ	911
കേസ	912
വൈ	913
സര്‍ക്ക	914
##ക്കാര	915
##യിലെ	916
##ാക്കി	917
ലോ	918
##വേ	919
##ക്കെ	920
ഉപ	921
##്യൂ	922
##യില	923
##ോപ	924
##സ്‌	925
##ന്റ	926
##ത്തിന	927
അഭ	928
##ണി	929
എന്ന്	930
##വര്‍ത്ത	931
##ാസ	932
##ിയും	933
ആയ	934
മുഖ്യമ	935
##ടക്ക	936
##ൊരു	937
നടത്ത	938
##മേ	939
റിപ്പോ	940
രാജ്യ	941
ഇത്	942
##ധാന	943
##മു	944
വലിയ	945
##ിക്കുന്നത്	946
സു	947
##ന്റ്	948
##ക്‌	949
##ഷ്ട്ര	950
ലക്ഷ	951
എന്നിവ	952
ശേഷ	953
##ങ്ങിയ	954
പെ	955
നീ	956
കാണ	957
ബന്ധ	958
പാര്‍	959
സഹ	960
##ഗ്	961
##ൂർ	962
##ൽക	963
പരാ	964
##യ്ക്ക്	965
വര്‍	966
##െങ്കിലും	967
##ിയെ	968
##ോട	969
ഏറ്റ	970
##ാതെ	971
##ാപ	972
##ൂര	973
നൽക	974
##തല്‍	975
##ഷ്യ	976
##ബ്	977
##ഴ്ച	978
ഇപ്പോ	979
##ീവ	980
പരിശ	981
##ികൾ	982
##ങ്ങളുടെ	983
മന്ത്രി	984
##ിച്ചത	985
##വേഷ	986
..	987
##ത്തു	988
മത്സ	989
സംഭവ	990
##ഡിയ	991
വില	992
##്യത	993
##ക്ട	994
വിമ	995
കോണ്‍ഗ്രസ്	996
നിന്നും	997
##സ്റ്റ്	998
##ാട്	999
##ങ്ങളും	1000
##ങ്ങളില്‍	1001
ബിജെപി	1002
അപ	1003
നടത്തിയ	1004
##ത്തിലെ	1005
##ിക്കുന്നു	1006
ക്	1007
സ്ഥാന	1008
##യെ	1009
അന്	1010
##ിക്കാന	1011
കൂടു	1012
##ിക്കുന്നത	1013
ഉയ	1014
##ലം	1015
##കള്‍	1016
##ിരിക്കുന്നത്	1017
കോട	1018
##ൂടെ	1019
പ്രവര്‍ത്ത	1020
##പുര	1021
പോല	1022
##ഡിഎ	1023
എസ്	1024
##പ്പെടു	1025
##ിക്കാന്‍	1026
വിജയ	1027
##ധി	1028
##ക്രമ	1029
ചേ	1030
സുര	1031
##മാര	1032
തീരുമ	1033
മന	1034
തിരുവ	1035
##ിട	1036
##ടുക്ക	1037
##ിത	1038
അത്	1039
കഴ	1040
##ുകൊ	1041
പ്രധാന	1042
പങ്ക	1043
പര	1044
##യ്ക്ക	1045
കാല	1046
##ണ്ഡ	1047
ഇത്ത	1048
കാര്യ	1049
ആവശ്യ	1050
##ംഗ്	1051
ചെ	1052
##വിടെ	1053
##ുള	1054
##ര്‍ന്ന	1055
പരിശോധ	1056
നേര	1057
##ാവ്	1058
##ുമ്പോ	1059
നേതാക്ക	1060
),	1061
ഭാഗ	1062
മെ	1063
##ുകയായിരുന്നു	1064
ചി	1065
കോൺ	1066
ഗ്ര	1067
##ാശ	1068
##പക്ഷ	1069
പറയുന്നു	1070
സർക്ക	1071
കൈ	1072
രണ്ട്	1073
വേണ്ട	1074
##ിലാണ്	1075
##ോണ	1076
പേര്‍	1077
നടപ	1078
##ഷേ	1079
പല	1080
രണ്ട	1081
##ിച്ചിരുന്നു	1082
ഇന്ന്	1083
പുതിയ	1084
നേതൃ	1085
അന്വേഷ	1086
മോ	1087
ചോദ	1088
രാഷ്ട്ര	1089
തോ	1090
മല	1091
ട്ര	1092
##സ്ത	1093
##ബന്ധ	1094
##ചര	1095
##ുമെന്ന്	1096
##ുംബ	1097
##വരുടെ	1098
##ാണെന്ന്	1099
##ുള്ളത്	1100
കാ	1101
യാ	1102
##ുപത്ര	1103
നിർ	1104
എന്നാണ്	1105
##ന്തപുര	1106
##ളി	1107
ആശുപത്ര	1108
സ്ഥിര	1109
ചില	1110
മറ്റ	1111
ശ്രമ	1112
കോൺഗ്ര	1113
നേതൃത്വ	1114
പോലീസ്	1115
##ൈന	1116
പാല	1117
കട	1118
തിരുവന	1119
മുഖ്യമന്ത്രി	1120
നല്‍കിയ	1121
##ര്‍ച്ച	1122
##വണ	1123
ക്ര	1124
അധിക	1125
ജെ	1126
##ഭാഗ	1127
തിരുവനന്തപുര	1128
##യോഗ	1129
യോഗ	1130
കുട	1131
അവസ	1132
##േയും	1133
മര	1134
സാഹ	1135
##േറ്റ	1136
##ീസ	1137
കൊണ്ട	1138
##വർത്ത	1139
ശേഷം	1140
മാറ്റ	1141
എന്ത	1142
തൊ	1143
നടന്ന	1144
##മെ	1145
##ോട്ട്	1146
വർ	1147
##പ്പം	1148
ദേ	1149
##ീപ	1150
##സ്സ	1151
##ിരു	1152
ആണ്	1153
ന്	1154
പാർ	1155
ഒന്ന	1156
സൗ	1157
നടക്ക	1158
സ്‌	1159
ഉറ	1160
##പ്പെടുത്ത	1161
സൂ	1162
കണ്ണ	1163
മറ	1164
ഏറ്റവും	1165
സീറ്റ	1166
അംഗ	1167
##ട്ടിയ	1168
തിരഞ്ഞെടുപ്പ	1169
പ്രഖ	1170
കോണ്‍ഗ്രസ	1171
എല്ലാ	1172
##ര്‍ശ	1173
##ങ്ങളെ	1174
മേ	1175
##ുമായ	1176
##ക്ത	1177
വയ	1178
പ്രതിക	1179
##േഖല	1180
ആരോപ	1181
##ഹു	1182
##ക്ഷേ	1183
വിവര	1184
##ദ്യോഗ	1185
##താണ്	1186
മണ	1187
വരെ	1188
വള	1189
വോട്ട	1190
മണ്ഡ	1191
പോക	1192
കമ്മ	1193
എത്ത	1194
##വിധ	1195
സാഹചര	1196
##വാദ	1197
അഭി	1198
##ാരണ	1199
തൃ	1200
##എം	1201
അറ	1202
##ാദ	1203
റിപ്പോര്‍	1204
ഉത്ത	1205
##ീഷ	1206
##ീസ്	1207
##യാള	1208
##ാര്‍ത്ഥ	1209
##രും	1210
സര്‍ക്കാര്‍	1211
സ്റ്റ	1212
##ാസ്	1213
ചെയ്തു	1214
പ്രഖ്യാപ	1215
##ുമാണ്	1216
സ്വദേശി	1217
ആരോഗ	1218
##കട	1219
##ാണെന്നും	1220
കൊവിഡ്	1221
##ിരിക്കുകയാണ്	1222
##മുള്ള	1223
ഗു	1224
ശതമ	1225
സിപി	1226
ദിവസ	1227
##ംബ	1228
ബാ	1229
വകു	1230
##ത്തേ	1231
കണ്ടെ	1232
ടി	1233
##ഷം	1234
##തൽ	1235
##ബി	1236
##േന്ദ്ര	1237
19	1238
ദിവസം	1239
രംഗ	1240
പദ്ധ	1241
ബാധ	1242
രാഷ്ട്രീയ	1243
എന്നും	1244
201	1245
ബിജെപ	1246
ഡോ	1247
ചിത്ര	1248
##ദ്ദേശ	1249
തിരുവനന്തപുരം	1250
കോവിഡ്	1251
##േക്ഷ	1252
ആദ	1253
നേരത്തെ	1254
സാധ്യത	1255
##െടുക്ക	1256
നിലവ	1257
രാഹു	1258
##എസ്	1259
എന്നാൽ	1260
##ുമെന്നും	1261
##ിട്ടില്ല	1262
വീട്ട	1263
നേരി	1264
മേഖല	1265
##ാനുള്ള	1266
##തല	1267
തല	1268
സ്ഥിരീകര	1269
##മാ	1270
##ങ്ങനെ	1271
അനു	1272
##രിയ	1273
##സിന	1274
ശക്തമ	1275
##ങ്ങളിൽ	1276
##ാരം	1277
സമ്പ	1278
##കൾ	1279
##ുകളും	1280
തീരുമാന	1281
പോയ	1282
##ത്തിലാണ്	1283
തിരിച്ച	1284
##ഞ്ച്	1285
പിന്	1286
##ികളുടെ	1287
##ാനും	1288
##െയ്	1289
പിട	1290
ബോ	1291
പ്രവർത്ത	1292
ജില്ലാ	1293
##െങ്കില്‍	1294
റോ	1295
##ാട്ട	1296
കള	1297
##ിലൂടെ	1298
പ്രസി	1299
##ിക്കാൻ	1300
##െടുത്ത	1301
ഓഫ	1302
##ണക്ക	1303
##ുക്ക	1304
വിഷ	1305
എത്തിയ	1306
കൂട്ട	1307
യുവ	1308
##ർന്ന	1309
##േഷ്	1310
കുടുംബ	1311
ഒഴ	1312
##ിച്ചിട്ടുണ്ട്	1313
##നും	1314
10	1315
വിദ	1316
##ായിരുന്ന	1317
വിഭാഗ	1318
ജീവ	1319
സമ്മ	1320
നാല	1321
മുന്‍	1322
##യുള്ള	1323
തയ	1324
നോ	1325
##കര്‍	1326
##ഷേധ	1327
##ല്ലാം	1328
##ട്ര	1329
ആള	1330
ഹൈ	1331
##വരെ	1332
##ികളെ	1333
##വാസ	1334
പ്രശ്	1335
ആരോഗ്യ	1336
##രണം	1337
##തിന	1338
##പ്പെടുത്തിയ	1339
##ാഴ്ച	1340
പ്രത്യ	1341
##ൊപ്പം	1342
ഇല്ല	1343
മണ്ഡല	1344
വിള	1345
##രുത	1346
യാത്ര	1347
##സഭാ	1348
കി	1349
അതി	1350
##ങ്ങള്‍ക്ക്	1351
##ിനിടെ	1352
##ലെ	1353
കഴിയ	1354
അയ	1355
##ൂല	1356
ഇറ	1357
പഞ്ച	1358
സ്വീകര	1359
##ാകും	1360
##ഹി	1361
മൂന്ന്	1362
##ക്രട്ട	1363
##ുഴ	1364
മീ	1365
##ുന്നുണ്ട്	1366
##മന്ത്രി	1367
ഉള്ള	1368
##ദ്ദ	1369
കൂടുതല്‍	1370
വിശ	1371
##ാന്ധ	1372
...	1373
ഉപയോഗ	1374
##ിയിൽ	1375
##കം	1376
എന്‍	1377
സംഘട	1378
##ൃത	1379
ഉദ്യോഗ	1380
##ാള്‍	1381
പ്രസിഡ	1382
സെക്രട്ട	1383
##ൂറ	1384
##ൊന്ന	1385
##ുകളില്‍	1386
##പെ	1387
##ർച്ച	1388
ഭൂ	1389
സ്ഥാപ	1390
തുടങ്ങിയ	1391
##ണമെന്ന്	1392
തയ്യാ	1393
രോഗം	1394
##ംഭ	1395
##‌ന	1396
അട	1397
സിനി	1398
##ിനെതിരെ	1399
##ീവി	1400
##മുണ്ട	1401
##ര്‍ന്ന്	1402
നീക്ക	1403
##ങ്ങി	1404
##കെ	1405
പിന്നാല	1406
താ	1407
ആല	1408
##േക്ക	1409
തൊഴ	1410
##കൂ	1411
##പര	1412
##ിനും	1413
തിരഞ്ഞെടുപ്പ്	1414
##ായത്	1415
കൃ	1416
അറിയിച്ചു	1417
##ലീസ	1418
##്യക്ഷ	1419
മോദ	1420
##ചന	1421
ഉള്‍	1422
ഭരണ	1423
ഗാന്ധ	1424
തട	1425
സര്‍	1426
കൂടി	1427
##ത്തും	1428
വ്യക്തമാക്കി	1429
പ്രച	1430
202	1431
മാധ	1432
##നിക്ക്	1433
##ഴിക്ക	1434
##ൂഹ	1435
ചിക	1436
##ന്തര	1437
പറയുന്നത്	1438
##തുണ	1439
മഹ	1440
##ിയാണ്	1441
ഇവിടെ	1442
ജയ	1443
സാഹചര്യ	1444
കൊല്ല	1445
##ിലുള്ള	1446
സർക്കാർ	1447
##ഴ്‌	1448
കൂട	1449
ആര്‍	1450
മി	1451
പരിശോധന	1452
##ർശ	1453
##േരി	1454
##ൊക്കെ	1455
സഹായ	1456
ആദ്യ	1457
സോ	1458
ആക്രമ	1459
##ുപോ	1460
എല്‍	1461
സര്‍ക്കാര	1462
##ായിരിക്ക	1463
##പ്പോള്‍	1464
പ്രതിപക്ഷ	1465
അടി	1466
അവര്‍	1467
പോലും	1468
##രിച്ച്	1469
പിന്തുണ	1470
##തിട്ട	1471
##ഞ്ഞ്	1472
ഇന്ന	1473
കോള	1474
സ്ത്ര	1475
പൊലീസ്	1476
##തോടെ	1477
ടെ	1478
തയ്യാറ	1479
##ശ്ച	1480
സമയ	1481
സാമ്പ	1482
##സ്പ	1483
മൊ	1484
##ിത്സ	1485
നമ്മ	1486
##ുത	1487
##ര്‍ത്ത	1488
പ്രതിഷേധ	1489
യുഡിഎ	1490
12	1491
ചര്‍ച്ച	1492
##തിയില്‍	1493
റിപ്പോർ	1494
ചികിത്സ	1495
ദു	1496
ആവശ്യപ്പെട്ട	1497
പ്രത്യേ	1498
##ഗണ	1499
സംബന്ധ	1500
11	1501
##ക്തി	1502
##വാഹ	1503
മാധ്യമ	1504
##ുമെന്നാണ്	1505
കോഴിക്ക	1506
##വുമായി	1507
കോൺഗ്രസ്	1508
കുമ	1509
##സാര	1510
ഇപ്പോള്‍	1511
ഇതുവ	1512
ഭാര	1513
കോടി	1514
##േഷന്‍	1515
15	1516
കുറ്റ	1517
##ീവിത	1518
##ിയിലെ	1519
നിലപ	1520
##ോഷ	1521
ദേശ	1522
ജി	1523
കുട്ട	1524
അവസാന	1525
ഉറപ്പ	1526
മുതല്‍	1527
പ്രതീക്ഷ	1528
അധ്യക്ഷ	1529
##പ്പെടെ	1530
കയ	1531
ആരംഭ	1532
പട്ട	1533
##ഷ്ണ	1534
##ൻ്	1535
ഫോ	1536
##േജ	1537
##ായിട്ട	1538
##ില്ലെന്ന്	1539
തുറ	1540
മറ്റ്	1541
കാരണം	1542
കോടതി	1543
കൊണ്ട്	1544
പുറത്ത	1545
മത്സര	1546
##മല്ല	1547
##ണറ	1548
##കാശ	1549
വീണ്ട	1550
കല	1551
യൂ	1552
മണിക്ക	1553
വാര്‍	1554
വ്യാപ	1555
##ന്യ	1556
##ില്ലെന്നും	1557
##ാഷ	1558
ഉദ്യോഗസ്ഥ	1559
##ാലും	1560
##താ	1561
മൂന്ന	1562
സിനിമ	1563
##വിട	1564
മുൻ	1565
##ീന	1566
##ുളള	1567
മാന	1568
ചൂ	1569
##ില്‍ക്ക	1570
മുമ്പ	1571
മാത്രം	1572
അടക്ക	1573
##ുകൊണ്ട്	1574
തന്റെ	1575
വിദ്യാ	1576
##ിക്കുകയും	1577
പാ	1578
##ിയായ	1579
സ്ത്രീ	1580
ഉത്തര	1581
##ണമെന്നും	1582
അടുത്ത	1583
ലീ	1584
##ിമ	1585
എംഎ	1586
##ുമ്പോള്‍	1587
പൂ	1588
വിക	1589
##ഴും	1590
രീ	1591
ഒഴിവ	1592
ഒരാ	1593
സംസാര	1594
ഓഫീസ	1595
നൽകിയ	1596
##ികളും	1597
ഇതോടെ	1598
പ്രദേശ	1599
ഇവര്‍	1600
##ള്ളി	1601
ഉട	1602
##ുകാര	1603
##വേശ	1604
##ുല	1605
നേതാക്കള	1606
പാര്‍ട്ടി	1607
##തായി	1608
അനുവ	1609
##ക്കുറ	1610
##ര്‍മ	1611
റിപ്പോര്‍ട്ട്	1612
ലോക	1613
ശതമാനം	1614
##രിപ്പ	1615
കോഴിക്കോട്	1616
വേണ്ടി	1617
##ാണി	1618
##ാർത്ഥ	1619
പിന്നീ	1620
##്വ	1621
##പ്പെട്ട്	1622
##ിപ്പ്	1623
വീണ്ടും	1624
സമീപ	1625
വിശ്	1626
പ്രത്യേക	1627
ഇക്കാര	1628
നെ	1629
ഉന്ന	1630
ന്യൂ	1631
##ഡിയോ	1632
കമ്പ	1633
##കാരം	1634
##ോളം	1635
കോട്ട	1636
നേതാവ്	1637
അപേക്ഷ	1638
ഇതുവരെ	1639
ഇരു	1640
##വധി	1641
##ർത്ത	1642
നഗ	1643
##ങ്ങളാണ്	1644
##യോ	1645
##ുകൊണ്ട	1646
ദില്ല	1647
##ുകളുടെ	1648
##ീം	1649
ദേശീയ	1650
രാശ	1651
##ിക്കുക	1652
##ാവും	1653
വൈറ	1654
കര്‍	1655
ലക്ഷം	1656
##ബു	1657
സുരക്ഷ	1658
വിമാന	1659
##ിക്കല്‍	1660
##മുഖ	1661
രേഖ	1662
നിന്നുള്ള	1663
വിവിധ	1664
അല്ല	1665
ഇത്തവണ	1666
നിരീക്ഷ	1667
കിട്ട	1668
##നിയ	1669
നിരവധി	1670
##ക്കി	1671
##നായ	1672
മുഖ്യമന്ത്ര	1673
##ിരുന്നത്	1674
മെഡ	1675
ഗോ	1676
##ത്തിക	1677
അനുവദ	1678
തര	1679
വിഷയ	1680
##ത്തോടെ	1681
ബു	1682
##ിറ്റ	1683
ശ്രദ്ധ	1684
##ങ്ങൾക്ക്	1685
പ്രധാനമന്ത്രി	1686
നഷ്ട	1687
സംസ്ഥാനത്ത്	1688
##തിന്	1689
പൂര്‍	1690
ക്ല	1691
സേ	1692
##ുമെന്ന	1693
മിക	1694
##ങ്ങന	1695
വെള്ള	1696
##റും	1697
മരണ	1698
##ന്ത്	1699
##ട്ടം	1700
ഉൾ	1701
സർ	1702
ഞാന്‍	1703
##ളം	1704
ജീവിത	1705
വളരെ	1706
സഖ	1707
##തും	1708
ക്യാ	1709
##ക്കിയ	1710
ഹൈക്ക	1711
ശ്രീ	1712
##രോ	1713
##ാനാണ്	1714
നിയന്ത്ര	1715
മുസ്	1716
##ക്യ	1717
വിട്ട	1718
##ത്തിലും	1719
പിന്നീട്	1720
##ുന്നതിന	1721
ബ്ര	1722
ജില്ലയില്‍	1723
30	1724
##നാട്	1725
കണക്ക	1726
പിണറ	1727
##ച്ചി	1728
##െങ്കിൽ	1729
സ്വന്ത	1730
മാത്രമാണ്	1731
ഇതിന്	1732
##ുവര	1733
തെള	1734
നല്ല	1735
##ിക്കേണ്ട	1736
##ിച്ചിട്ട	1737
സെക്രട്ടറി	1738
പിന്നാലെ	1739
മന്ത്ര	1740
24	1741
വാഹ	1742
##ുപ്ര	1743
പഠ	1744
##യായ	1745
##ിത്ത	1746
ഇനി	1747
വീട	1748
വര്‍ഷ	1749
വകുപ്പ്	1750
തേ	1751
മലയാള	1752
ജോലി	1753
14	1754
അന്വേഷണ	1755
പ്രവേശ	1756
മഴ	1757
തുടര്‍ന്ന്	1758
മാര്‍	1759
##ത്മ	1760
പാര്‍ട്ട	1761
കൂടിയ	1762
##േറ്റ്	1763
രക്ഷ	1764
##ാണ്ട	1765
പഞ്ചായ	1766
എല്ലാവ	1767
വഴി	1768
##ര്‍പ്പ	1769
##ൊന്നും	1770
താര	1771
##ലും	1772
##ക്‌സ	1773
കേസ്	1774
വിദേശ	1775
ചൂണ്ട	1776
##കാര്യ	1777
അവരുടെ	1778
##ുകളാണ്	1779
സാമ്പത്തിക	1780
##ായക	1781
വിശദ	1782
##ർക്ക്	1783
##ീര	1784
##യിലാണ്	1785
രാഹുല്‍	1786
##ാലി	1787
##ിതി	1788
##തിയുടെ	1789
പരിഗണ	1790
ചോദ്യം	1791
##പ്പുറ	1792
##ുന്നതിന്	1793
##്യമായ	1794
##ദേശം	1795
##രഞ്ഞെടു	1796
ചെയ്തത്	1797
##െയുള്ള	1798
##ാറ്റ	1799
##നങ്ങള്‍	1800
സൈ	1801
വിവാഹ	1802
##െതിരെ	1803
13	1804
##്‌	1805
സിപിഎം	1806
##ാജ	1807
വീഡിയോ	1808
മാസ	1809
അടിസ്ഥാന	1810
##ത്തേക്ക്	1811
നാട്ട	1812
##ത്തിലുള്ള	1813
കൊറ	1814
##ഗ്രഹ	1815
നടപടി	1816
##ധാ	1817
കര	1818
##ത്തിലേക്ക്	1819
പരാതി	1820
തൊഴില	1821
പിണറായി	1822
##ിലേക്ക	1823
25	1824
അമേ	1825
##ൻ്റെ	1826
പറഞ്ഞത്	1827
സംഘടന	1828
##േസ്	1829
റി	1830
##ിന്ദ	1831
പരിഹ	1832
ശക്തമായ	1833
##തം	1834
സന്ദ	1835
മോദി	1836
കൊറോണ	1837
##ിച്ചേ	1838
മികച്ച	1839
##ധിക	1840
ലൈ	1841
ജില്ലകള	1842
വൈക	1843
##ണമെന്ന	1844
##പ്പുഴ	1845
അതിന	1846
##തിയെ	1847
##ീവ്	1848
##ത്തിയത്	1849
##ധ്യ	1850
##ണ്ണം	1851
18	1852
##ുമോ	1853
##െല്ലാം	1854
##ച്ചു	1855
നഗര	1856
നടപ്പ	1857
##ശ്ശ	1858
##േയ	1859
അഞ്ച്	1860
ചൂണ്ടിക്ക	1861
നയ	1862
പത്ത	1863
##ഷന്‍	1864
മറുപ	1865
നാല്	1866
ചുമ	1867
##റെയും	1868
##ുകളിൽ	1869
##േഷന	1870
##മായിരുന്നു	1871
##ശ്യ	1872
തെരഞ്ഞെടു	1873
ചൈന	1874
##ിറ	1875
ചോ	1876
എന്നി	1877
##ൂട്ട	1878
##പ്പെടുത്തി	1879
വഴ	1880
##ുതി	1881
പക്ഷേ	1882
ചെന്ന	1883
##വസ	1884
ഇതിന	1885
ജീവന	1886
##ടങ്ങ	1887
എന്റെ	1888
##കുമ	1889
ഞാൻ	1890
പണം	1891
##ിക്കണം	1892
അമ്മ	1893
##ക്കെതിരെ	1894
അമേരിക്ക	1895
##യിലേക്ക്	1896
സ്ഥല	1897
ത്	1898
##ാടക	1899
വിവരം	1900
##മെന്റ്	1901
തമ്മ	1902
ആർ	1903
നടപട	1904
നേടിയ	1905
എഫ്	1906
കരു	1907
##ർന്ന്	1908
##്യമാണ്	1909
##പ്രായ	1910
ബാല	1911
##ീഷ്	1912
മുതൽ	1913
##ഞ്ഞു	1914
##ാൾ	1915
കൊല	1916
പരിപ	1917
പൊതു	1918
##രുടെ	1919
രാവ	1920
##ക്ഷേപ	1921
വിലയ	1922
##ുളം	1923
പ്രകട	1924
പുറത്ത്	1925
##ടുവ	1926
സർക്കാര	1927
എൻ	1928
വ്യാ	1929
പോലീസ	1930
##യിലും	1931
##റണ	1932
തീരുമാനം	1933
സമയം	1934
ശിവ	1935
പ്രസിഡന്റ്	1936
തുടര	1937
##ുവന്ന	1938
നേരിട	1939
##മാണ	1940
ഓരോ	1941
ഗ്രൂ	1942
സുപ്ര	1943
തന്നെയാണ്	1944
പ്ല	1945
##ോമ	1946
##ക്കാട്	1947
അപകട	1948
സ്ഥാനാര്‍ത്ഥ	1949
തവണ	1950
##സിന്റെ	1951
##ീപ്	1952
ബന്ധപ്പെട്ട	1953
കൂടുതൽ	1954
മത്സരിക്ക	1955
ദില	1956
സ്വദേശിനി	1957
എറണ	1958
റെ	1959
##വ്വ	1960
##ഹമ്മ	1961
##പ്പോൾ	1962
##ാരാ	1963
##മോ	1964
എറണാക	1965
##ജന്‍	1966
നേതാക്കള്‍	1967
വകുപ്പ	1968
സീറ്റ്	1969
##ാബ	1970
ഇടപെ	1971
വിധ	1972
സ്ഥാപന	1973
തൃശ	1974
##ര്‍ക്കും	1975
കണ്ണൂര്‍	1976
##േത	1977
അഭിപ്രായ	1978
##ങ്ങളിലും	1979
##റില്‍	1980
##ബ്ദ	1981
സോഷ്യ	1982
വിവാദ	1983
കമ	1984
പാർട്ടി	1985
സ്വര്‍	1986
ഇന്‍	1987
തി	1988
##ിക്കുകയായിരുന്നു	1989
ഗാന്ധി	1990
പട്ടിക	1991
##വല	1992
##ക്കു	1993
യുഎ	1994
##ൗര	1995
വിദ്യ	1996
##കളും	1997
പേര്‍ക്ക്	1998
റിപ്പോർട്ട്	1999
വോട്ട്	2000
വികസ	2001
മീഡിയ	2002
##ക്ടര്‍	2003
##ിട്ട്	2004
ചെയ്യുന്ന	2005
16	2006
##ായും	2007
ജാ	2008
##ിവെ	2009
##ദ്ര	2010
ജില്ലയിലെ	2011
സ്പ	2012
അവകാശ	2013
ജനറ	2014
##ാനി	2015
പ്രിയ	2016
##ികള്‍ക്ക്	2017
##തിരോധ	2018
താമ	2019
അന്വേഷണം	2020
ബെ	2021
ആയിരുന്നു	2022
##ദി	2023
17	2024
നേതാവ	2025
നിയമസഭാ	2026
##ണിയ	2027
ലഭിച്ച	2028
നര	2029
##മായും	2030
##നു	2031
എംഎല്‍	2032
ഏക	2033
എടുത്ത	2034
പരീക്ഷ	2035
മണിക്കൂറ	2036
തിരഞ്ഞെടുപ്പില്‍	2037
ജൂ	2038
##ിന്‍റെ	2039
ക്ഷ	2040
വിലയിരു	2041
അധികാര	2042
##യ്യ	2043
പ്രവ	2044
##മാര്‍	2045
##ായിരിക്കും	2046
എണ്ണം	2047
സൂചന	2048
##ജു	2049
##ുമ്പോൾ	2050
##സിന്	2051
മറ്റൊരു	2052
##ജന	2053
പ്രതിരോധ	2054
വ്യക്തമാക്ക	2055
നേതൃത്വം	2056
ചർച്ച	2057
എംഎല്‍എ	2058
##ിക്കാനുള്ള	2059
ഒറ്റ	2060
##ുമതി	2061
##സില	2062
എന്നീ	2063
പുര	2064
##ാക്കിയത്	2065
മത	2066
##പോ	2067
മുഴ	2068
കീ	2069
ഹൈക്കോട	2070
##ഹൃ	2071
കണ്ടെത്ത	2072
അവിടെ	2073
ഇര	2074
പ്രസ	2075
ല്‍	2076
##്യമായി	2077
##ാഹ	2078
ഉണ്ടായ	2079
വര്‍ധ	2080
##ഖ്	2081
അല	2082
പശ്ച	2083
##ിച്ചാണ്	2084
രാവിലെ	2085
##നാണ്	2086
പ്രശ്‌ന	2087
നില്‍ക്ക	2088
ബിഗ്	2089
##യുണ്ട	2090
##സന്ധ	2091
ലെ	2092
##മാർ	2093
##പരി	2094
##സില്‍	2095
##ുകൂല	2096
ഫേസ്	2097
##േഷൻ	2098
##േദ	2099
കർ	2100
##കോ	2101
##ാദ്	2102
എനിക്ക്	2103
റിപ്പോര്‍ട്ട	2104
പൂർ	2105
ആലപ്പുഴ	2106
50	2107
##ുന	2108
##പ്രദേശ	2109
ലി	2110
വിമര്‍ശ	2111
വാക്	2112
സുരേന്ദ്ര	2113
അതിന്	2114
##ാരി	2115
##ാവന	2116
സാമ	2117
##ന്നി	2118
##തിയിൽ	2119
നിരീക്ഷണ	2120
##ീമ	2121
തക	2122
വാർ	2123
അസ	2124
##ിക്കാം	2125
##യായി	2126
##ബ്ര	2127
ആകെ	2128
രണ്ടാം	2129
ദില്ലി	2130
ഇപ്പോൾ	2131
നിയമസഭ	2132
##ക്കോ	2133
സത്യ	2134
##ാരാഷ്ട്ര	2135
ഇങ്ങനെ	2136
##ഭ്യാ	2137
എത്ര	2138
##ാവസ്ഥ	2139
കാര്യം	2140
##മാക്ക	2141
വരും	2142
ചെല	2143
നിലവില്‍	2144
##ീക	2145
##േണ്ടി	2146
മുമ്പ്	2147
##ുന്നില്ല	2148
##പ്പെട്ടു	2149
##ത്തിനും	2150
##ർപ്പ	2151
##ക്കാര്‍	2152
##ിച്ചിരിക്കുന്നത്	2153
##വരും	2154
കോട്ടയം	2155
##ിരിക്കുന്ന	2156
വർഷ	2157
അറസ്റ്റ്	2158
##യി	2159
##േള	2160
ഭക്ഷ	2161
നവ	2162
ഏത	2163
22	2164
സന്ത	2165
രജി	2166
##്ട്ര	2167
വാങ്ങ	2168
പോലെ	2169
##ുന്നതാണ്	2170
##കാല	2171
മാത്രമല്ല	2172
തമി	2173
നല്‍കി	2174
21	2175
##ന്‍സ്	2176
ഇത്തര	2177
താന്‍	2178
##ജയ	2179
##സിസി	2180
##നാഥ	2181
ഇത്തരം	2182
അവർ	2183
##പ്പുറം	2184
ബംഗ	2185
##ില്ലാത്ത	2186
##േജ്	2187
##ങ്ക്	2188
എൽ	2189
ആണ	2190
##ിൽക്ക	2191
ആദ്യം	2192
ചെയ്തിട്ട	2193
##േന	2194
##ികെ	2195
ആശങ്ക	2196
വാര്‍ത്ത	2197
ആയി	2198
##മാന	2199
പ്രാ	2200
##ിരുദ്ധ	2201
ശതമാന	2202
##ംപ	2203
പീ	2204
പ്രതിസന്ധ	2205
##ർത്ഥ	2206
ഉന്നയ	2207
##നത്തിന്	2208
വരുന്ന	2209
സംഭവം	2210
നടത്തി	2211
##തെന്ന്	2212
ഘട്ട	2213
##ത്രം	2214
പ്രതികര	2215
കേരളത്തില്‍	2216
മനസ്സ	2217
കമ്മീഷ	2218
പദ്ധതി	2219
##ിക്കറ്റ്	2220
രംഗത്തെ	2221
##ായ്	2222
യുഡിഎഫ്	2223
രാത്ര	2224
##ജീവ	2225
##ക്കാല	2226
##ിപ്പിച്ച	2227
എറണാകുളം	2228
ഉമ്മ	2229
##വര്‍ക്ക്	2230
പാലക്കാട്	2231
എടുക്ക	2232
##ിക്കൊ	2233
കുറിച്ച്	2234
സംശ	2235
##ഹമ്മദ്	2236
ബൈ	2237
നരേന്ദ്ര	2238
എഴ	2239
##റു	2240
ആത്മ	2241
ഇന്ത്യന്‍	2242
വര്‍ഷം	2243
##തെന്നും	2244
##ുണ്ടായ	2245
ഏറെ	2246
പക്ഷ	2247
##ീല	2248
അക	2249
സംബന്ധിച്ച്	2250
##പ്പെടുന്ന	2251
പുന	2252
##ത്തിലൂടെ	2253
എണ്ണ	2254
വെച്ച	2255
രാജ്യത്ത്	2256
സിംഗ്	2257
ഉണ്ടാക	2258
23	2259
കാര്‍	2260
നേട	2261
കാസ	2262
മാസം	2263
ഇതില്‍	2264
##ിക്കുകയ	2265
തോമ	2266
##ധികം	2267
കാര്യങ്ങള്‍	2268
##ിക്കൽ	2269
രാശിക്ക	2270
##ൗണ്‍	2271
കൊല്ലം	2272
ഡെ	2273
##ന്നു	2274
അന്ന്	2275
ആഗ്രഹ	2276
സുധാ	2277
പോരാ	2278
നിലപാട്	2279
വാദ	2280
മക	2281
ഭൂരി	2282
ജോസ	2283
പേരാണ്	2284
##കർ	2285
സുധാകര	2286
കൃത്യ	2287
പറഞ്ഞിരുന്നു	2288
ക്ഷേ	2289
കമ്മി	2290
തൊഴിലാള	2291
ചെയ്യാ	2292
കേസില്‍	2293
സുപ്രീം	2294
ഡ്ര	2295
##ിപ	2296
##വെ	2297
ചെയ്തിരുന്നു	2298
ഭാഗമായി	2299
##കൃ	2300
വിപ	2301
യുഡിഎഫ	2302
മെഡിക്കല്‍	2303
സമൂഹ	2304
##ങ്ങളിലെ	2305
ഭാര്യ	2306
##മാക	2307
ഗ്രാമ	2308
ഷാ	2309
വിലയിരുത്ത	2310
അഞ്ച	2311
##ബര്‍	2312
##രക്ഷ	2313
##ീര്‍	2314
ഇയ	2315
##ൈല	2316
പുതു	2317
രംഗത്ത്	2318
കുറഞ്ഞ	2319
##കുട്ട	2320
മറുപടി	2321
ശി	2322
##ക്ഷി	2323
നാള	2324
മനു	2325
പത്തനം	2326
##000	2327
വിത	2328
ദിന	2329
നേട്ട	2330
വായ	2331
വിദ്യാഭ്യാ	2332
##ിട്ടുണ്ട	2333
##ികളില്‍	2334
##ർക്കും	2335
തദ്ദേശ	2336
വനി	2337
പത്തനംതിട്ട	2338
ഉയര്‍ന്ന	2339
പദ	2340
##ാടി	2341
പങ്കുവ	2342
വാഹന	2343
##പ്പെടുന്നത്	2344
ബന്ധപ്പെട്ട്	2345
സ്വകാര്യ	2346
നീക്കം	2347
##ടുത്ത്	2348
##ണാടക	2349
നമ്മുടെ	2350
മുഴുവ	2351
##പാത	2352
##ിക്കുകയാണ്	2353
40	2354
##ൈസ	2355
##ജ്ഞ	2356
പേർ	2357
##ാര്‍ഥ	2358
കൊച്ചി	2359
കമ്പന	2360
ഫെ	2361
മാറ	2362
പരാജയ	2363
ഇടത	2364
##യര്‍	2365
കന	2366
##ടം	2367
##യായിരുന്നു	2368
##വിട്ട	2369
കേരളത്തിലെ	2370
ജോര്‍	2371
പറ്റ	2372
കര്‍ഷ	2373
റഷ്യ	2374
##ക്കം	2375
അതുകൊണ്ട്	2376
കൂടാതെ	2377
സമര	2378
അധികൃത	2379
അദ്ദേഹത്തിന്റെ	2380
എതി	2381
സാധിക്ക	2382
ധന	2383
താമസ	2384
സൂര	2385
ആവശ്യം	2386
സംഘം	2387
##ഷ്‌	2388
അക്ക	2389
തോന്ന	2390
മോഹ	2391
##ല്ലോ	2392
##ഷി	2393
##ിക്കെതിരെ	2394
അനുകൂല	2395
ഇക്കാര്യം	2396
##പ്പി	2397
##വം	2398
##ോഭ	2399
##ാഭ	2400
##ധര	2401
##ട്ടെ	2402
##രുവ	2403
സുരേഷ്	2404
ആഭ	2405
##റിന്റെ	2406
##സിൽ	2407
തെളിവ	2408
സ്വന്തം	2409
##ീറ്റ	2410
സമയത്ത്	2411
പ്രായ	2412
##ത്തിറ	2413
##ാണോ	2414
##റിഞ്ഞ	2415
പോസ്റ്റ	2416
കാരണ	2417
##പ്പെട്ടത്	2418
ഇത്ര	2419
അമി	2420
ഇടപെട	2421
മനുഷ്യ	2422
##വരാണ്	2423
നിയന്ത്രണ	2424
കൂട്ടിച്ചേ	2425
ഡയ	2426
##മത	2427
##ളള	2428
പ്രകാരം	2429
##ിനുള്ള	2430
##വെന്നും	2431
കോടിയ	2432
അഖ	2433
പകര	2434
ആരോപണ	2435
##ിനു	2436
ആന	2437
##ക്കൊ	2438
കടുത്ത	2439
##ാണിത്	2440
സ്വപ്	2441
##ിക്കുന്നുണ്ട്	2442
200	2443
ദൃ	2444
നിറ	2445
ഭീഷ	2446
സംവിധ	2447
സ്ഥാനാർത്ഥ	2448
ഇടുക്ക	2449
സമ്പർക്ക	2450
കരുത	2451
ഷോ	2452
ചെയ്ത്	2453
##ിക്കറ്റ	2454
നമ്പ	2455
ഫലം	2456
തട്ട	2457
##സൈ	2458
മാത്രമേ	2459
ചെയ്യുന്നത്	2460
ഹെ	2461
സാധാരണ	2462
അനുഭവ	2463
##പ്പള്ളി	2464
##ിയിലേക്ക്	2465
##എമ്മ	2466
കസ്റ്റ	2467
ചുമതല	2468
##ളവ	2469
26	2470
തനിക്ക്	2471
##ക്കള	2472
##ഴ്ച്ച	2473
##ജ്ജ	2474
ചരി	2475
##തിരായ	2476
കുഞ്ഞ	2477
ശു	2478
പ്രൊ	2479
##ിയായി	2480
എന്നത്	2481
##ങ്ങളില	2482
മലപ്പുറം	2483
താഴ	2484
##ത്തിനായി	2485
സ്‌കൂ	2486
ദുര	2487
പ്രതികരണം	2488
ആറ്	2489
##തിനെ	2490
##ച്ഛ	2491
നിലപാട	2492
മുന്നറിയ	2493
കീഴ	2494
ഉണ്ട്	2495
ഓഫ്	2496
##വുമ	2497
##ിരിക്കും	2498
ബ്ല	2499
ഫ്ര	2500
##ാക്കാന്‍	2501
##മാരുടെ	2502
സൗകര	2503
മുംബ	2504
##ിയോ	2505
എന്നിവര	2506
അടക്കം	2507
യുഎഇ	2508
##നേ	2509
നോക്ക	2510
##രുത്	2511
##ുകളിലും	2512
രാജ്യത്തെ	2513
പൊലീസ	2514
28	2515
27	2516
സാമൂഹ	2517
പേരും	2518
##ൃഷ്ട	2519
ലഭിക്കും	2520
അഭിന	2521
000	2522
സാഹചര്യത്തില്‍	2523
ചൊ	2524
തെറ്റ	2525
സുഹൃ	2526
വിന	2527
മുംബൈ	2528
##ുകളെ	2529
റെയ	2530
##ലക്ഷ	2531
സോഷ്യല്‍	2532
നടപടിയ	2533
പൗര	2534
വിമർശ	2535
അടിയ	2536
##ഗോ	2537
സഖ്യ	2538
##മില്ല	2539
##ലിം	2540
ആരാ	2541
##യോടെ	2542
##രുത്ത	2543
സര്‍വ	2544
ഇൻ	2545
##നങ്ങൾ	2546
എല്‍ഡിഎ	2547
നിര്‍ദേശ	2548
##ലില്‍	2549
ആശുപത്രിയില്‍	2550
##ഭാഷ	2551
മുന്നോട്ട്	2552
ചെറിയ	2553
അമ	2554
##ംസ	2555
##േര	2556
##െന്നായിരുന്നു	2557
##ഘട	2558
കേരളം	2559
വിജയം	2560
##തമായ	2561
##പ്റ്റ	2562
ജാമ	2563
നടക്കുന്ന	2564
കണ്ടെത്തിയ	2565
ഉള്‍പ്പെടെ	2566
വല	2567
##ശ്ര	2568
##പ്പോഴ	2569
തുടർന്ന്	2570
വ്യക്തമാക്കിയ	2571
##െത്തിയ	2572
പരാമ	2573
##സ്ര	2574
##ികളാണ്	2575
##കളുടെ	2576
##ാക്കള	2577
മുഹമ്മദ്	2578
##വിള	2579
പേര്	2580
സംരക്ഷ	2581
വേഗ	2582
##ൂരില്‍	2583
രൂക്ഷ	2584
സഹോദ	2585
##ിക്കാനും	2586
ചന്ദ്ര	2587
##ിക്കുമെന്ന്	2588
##ിച്ചും	2589
വന്‍	2590
##ല്‍പ്പ	2591
##േണ്ടത	2592
ഭൂരിപക്ഷ	2593
അന്ത	2594
വ്യക്തി	2595
സംസ്ഥാനത്തെ	2596
##ക്ടർ	2597
##ട്രോ	2598
വെളി	2599
ചേര്‍ന്ന	2600
പശ്ചാത്ത	2601
അത്ത	2602
##തീ	2603
അര	2604
പ്രസ്ത	2605
ബിജെപിയുടെ	2606
കോളേജ	2607
##ഷൻ	2608
##ിച്ചുള്ള	2609
##യുമായി	2610
##തൃ	2611
##ിട്ടും	2612
##ിരുന്നില്ല	2613
##മുണ്ട്	2614
##യ്ക്കും	2615
##ുട്ട	2616
##സും	2617
##ൗണ്ട	2618
ഹിന്ദ	2619
ഫല	2620
ഒരിക്ക	2621
പുല	2622
##ുമായിരുന്നു	2623
നടത്തിയത്	2624
അക്രമ	2625
ഹാജ	2626
മുതി	2627
രാമ	2628
##ുവരി	2629
ഇക്കാര്യ	2630
പെണ്‍	2631
##യ്‌	2632
##ക്കായി	2633
##എഫ്	2634
##കരണ	2635
##ാധിപ	2636
##ികൾക്ക്	2637
##ിക്	2638
ഉൾപ്പെടെ	2639
##ിസ്	2640
അനുമതി	2641
വിദ്യാഭ്യാസ	2642
വസ്	2643
സൃഷ്ട	2644
##ിച്ചിട്ടില്ല	2645
മൃത	2646
റിയ	2647
##ുമാന	2648
##ിക്കപ്പെട്ട	2649
##പ്പോഴും	2650
വിഭാഗം	2651
##ിക്ക്	2652
വിശദീകര	2653
എല്ലാം	2654
ഉയർന്ന	2655
പാർട്ട	2656
സിപിഎമ്മ	2657
##ബ്ല	2658
ഒന്നും	2659
##െട്ട	2660
എത്തി	2661
##ആര്‍	2662
##ക്കേ	2663
##ോടും	2664
ഇന്നലെ	2665
ഗ്രൂപ്പ	2666
ലീഗ്	2667
##ാടിയ	2668
ആരോപണം	2669
കില	2670
നിക	2671
സോണ	2672
വെച്ച്	2673
ഇവ	2674
##നാട്ട	2675
##ത്തിനുള്ള	2676
ജീവനക്കാര	2677
പ്രോ	2678
എംപി	2679
സേവ	2680
31	2681
##റാ	2682
##വർക്ക്	2683
സമ്പര്‍ക്ക	2684
കൊടുക്ക	2685
വൈറസ്	2686
പഴ	2687
പശ്ചാത്തല	2688
ബോധ	2689
ചെയ്യും	2690
അര്‍	2691
##ത്തോളം	2692
##ണു	2693
തള്ള	2694
##െടുത്തു	2695
##ലിന്റെ	2696
പങ്കെടുക്ക	2697
35	2698
##തില്‍	2699
മുരള	2700
വികസന	2701
##യുണ്ട്	2702
##ക്കുറിച്ച്	2703
പ്രസ്താവന	2704
##മല	2705
##ുമുള്ള	2706
അംഗീകര	2707
##സ്ട്ര	2708
##ക്കുള്ള	2709
##ോസ്	2710
##ോടൊപ്പം	2711
എന്നതാണ്	2712
റിപ്പോർട്ട	2713
##തന്ത്ര	2714
പുറത്തിറ	2715
തൃശൂര്‍	2716
സംശയ	2717
##ശേഷ	2718
എന്നായിരുന്നു	2719
മൃതദേഹ	2720
ആവശ്യപ്പെട്ടു	2721
അങ്ങനെ	2722
##ദ്ധി	2723
വാർത്ത	2724
ഇടുക്കി	2725
ഇന	2726
##ിനോട്	2727
##േണ്ടത്	2728
വീട്ടില്‍	2729
മധ്യ	2730
പ്രിയങ്ക	2731
##സ്റ്റര്‍	2732
##ൻസ്	2733
പുരു	2734
തടയ	2735
എന്ത്	2736
##ിനാണ്	2737
ബഹ	2738
വേദ	2739
അറസ്റ്റ	2740
വിച	2741
ശര	2742
##കല	2743
##മെന്റ	2744
##ബാധ	2745
പദ്ധത	2746
##ാധിപത്യ	2747
തുടര്‍ന്ന	2748
ചെന്നിത്ത	2749
ഇന്ത്യൻ	2750
##തിയാണ്	2751
എന്നെ	2752
ഹര്‍	2753
മറ്റു	2754
ചെന്നിത്തല	2755
അവത	2756
##രായ	2757
ചോദ്യ	2758
ടീമ	2759
##ണമെന്നാണ്	2760
താല്‍	2761
##ലൈ	2762
എന്നിവിട	2763
നായ	2764
പീഡ	2765
ആഘ	2766
ഇസ്ര	2767
##ൻസ	2768
വിട	2769
മാറിയ	2770
ദിലീപ	2771
##ുന്നുണ്ട	2772
ജനറല്‍	2773
സെന്റ	2774
സൈന	2775
##ഷിക	2776
മാറ്റി	2777
##ടിച്ച്	2778
##ക്കാർ	2779
##ശ്വാസ	2780
കേന്ദ്രം	2781
ആരാധ	2782
##യാ	2783
ഉയര	2784
കടന്ന	2785
ആക	2786
സ്വർ	2787
ഒരാള	2788
ലോക്‌	2789
നടത്തുന്ന	2790
മുസ്ലീ	2791
നിക്ഷേപ	2792
##ോട്ടോ	2793
ദേവ	2794
സ്വാധ	2795
വ്യത്യ	2796
ചടങ്ങ	2797
രാത്രി	2798
നിങ്ങളുടെ	2799
മുന്നില്‍	2800
##ിനിധ	2801
യോഗം	2802
മണി	2803
##നിര	2804
പൂര്‍ത്തിയ	2805
കമ്മിറ്റി	2806
##രാജ	2807
പുറത്തു	2808
ഹൈക്കോടതി	2809
##ാബ്	2810
മോശ	2811
##ല്‍ക്ക	2812
##തമായി	2813
29	2814
##ക്ടറ	2815
അമിത്	2816
##്യന്തര	2817
മുസ്ലിം	2818
കാർ	2819
വയനാട്	2820
മനസ്സില	2821
45	2822
##ിപ്പിച്ചു	2823
##കളില്‍	2824
പൊത	2825
മൂല	2826
സമ്പർക്കം	2827
സമ്മേള	2828
കിട്ടിയ	2829
തെരഞ്ഞെടുപ്പ	2830
##ിച്ചാല്‍	2831
കുമാര്‍	2832
നമു	2833
ഇതിന്റെ	2834
##സിയ	2835
##ല്ലു	2836
##ത്വം	2837
യോഗ്യത	2838
##യർ	2839
ഡയറ	2840
ലോക്	2841
പ്രവര്‍ത്തന	2842
അടു	2843
##കരുടെ	2844
##‌സ്	2845
പരസ	2846
ആഭ്യന്തര	2847
സൗദി	2848
പണ	2849
ഗുരുത	2850
കൊലപാത	2851
##ിക്കുമെന്നും	2852
##ാലയ	2853
##ുത്ത	2854
പഞ്ചായത്ത്	2855
സൈനിക	2856
അതിന്റെ	2857
തീവ	2858
സൂര്യ	2859
കാലാവസ്ഥ	2860
##വാറ	2861
രണ്ടു	2862
നടന്നത്	2863
ഹോ	2864
ഉള്ളത്	2865
സ്ഥിരീകരിച്ചത്	2866
##ിക്കുന്നതിന്	2867
സജീവ	2868
##മാണെന്ന്	2869
##ഫോ	2870
##ൊക്ക	2871
##ുപക്ഷ	2872
##പ്രവര്‍ത്ത	2873
പിന്‍	2874
കൊടുത്ത	2875
##മ്പ്	2876
ചികിത്സയില	2877
ദുബ	2878
##ച്ചത്	2879
##ിച്ചുവ	2880
വിദ്യാര്‍ത്ഥ	2881
##മന്ത്ര	2882
##തിയും	2883
ലഭ്യമ	2884
ഗുരുതര	2885
ഇതേ	2886
വന്നു	2887
കോണ്‍ഗ്രസിന്	2888
വൃ	2889
പോയി	2890
റോഡ	2891
##ീക്ക	2892
##ീകരിച്ച്	2893
##ുവിന്റെ	2894
ചെയ്യാന്‍	2895
നേതാക്കൾ	2896
##ടക	2897
##ലിന്	2898
##ിച്ചില്ല	2899
തുടങ്ങി	2900
ജനാധിപത്യ	2901
ഉണ്ടാവ	2902
##ുന്നതും	2903
പ്രചാരണ	2904
പങ്കെടുത്ത	2905
##ുന്നതെന്നും	2906
ഇവരുടെ	2907
ഉച്ച	2908
##ീന്‍	2909
##കളെ	2910
ഡോള	2911
##ചന്ദ്ര	2912
നിർദ്ദേശ	2913
ചിത്രം	2914
##നില്‍	2915
##ിന്ത	2916
##വിധാന	2917
ലഭിച്ചത്	2918
##ുകാര്‍	2919
വാക്‌സ	2920
വിദ്യാർത്ഥ	2921
പറഞ്ഞ്	2922
തോമസ്	2923
ചു	2924
ശമ്പ	2925
സഭ	2926
മഹാരാഷ്ട്ര	2927
ചൂണ്ടിക്കാ	2928
##ുണ്ടായിരുന്നു	2929
##ുപോക	2930
യെ	2931
പരിച	2932
##ാണെന്ന	2933
അവസ്ഥ	2934
കാത്ത	2935
##ണര്‍	2936
ഇന്റ	2937
##വില	2938
##ഘാട	2939
നേരിട്ട	2940
പത്ര	2941
##ദിന	2942
##ായേ	2943
കൂടെ	2944
സന്ദര്‍ശ	2945
വ്യാജ	2946
##ബർ	2947
ഇപ്പോഴും	2948
##ത്താവ	2949
മാറി	2950
പട	2951
പെട്ട	2952
താരം	2953
ശേഷമാണ്	2954
ട്രെയ	2955
വാക്ക	2956
##ികമായി	2957
ആഗ	2958
ചീ	2959
വർഷം	2960
ദൃശ്യ	2961
ആക്രമണ	2962
ആറ	2963
പതി	2964
ഭയ	2965
കേരളത്തിൽ	2966
##ാവധി	2967
##ഞ്ജ	2968
വിരുദ്ധ	2969
കേന്ദ്രസ	2970
ഉദ്	2971
നിരക്ക്	2972
ട്വ	2973
ബോസ്	2974
60	2975
##ീറ്റ്	2976
##ശാ	2977
##മാരെ	2978
വർധ	2979
##ുകള്‍ക്ക്	2980
അടക്കമുള്ള	2981
##ലോ	2982
##ീകരണ	2983
മാർ	2984
##വസ്ഥ	2985
ആവശ്യമ	2986
വയസ്സ	2987
മുരളീ	2988
അവരെ	2989
വന്നത്	2990
നോട്ട	2991
രമേ	2992
##ുമില്ല	2993
ചരിത്ര	2994
ഒര	2995
കള്ള	2996
യി	2997
##നായി	2998
##സര	2999
ലക്ഷ്യമ	3000
##ശ്ശേരി	3001
തീവ്ര	3002
##സിറ്റ	3003
##നാഥ്	3004
ഇന്ത്യയുടെ	3005
ക്രമ	3006
##ക്കാണ്	3007
##്രാ	3008
വാക്‌	3009
##ികളായ	3010
സ്വയം	3011
മെയ്	3012
വിര	3013
ജോസ്	3014
സഞ്ച	3015
നേരിട്ട്	3016
എല്ലാവരും	3017
ജാഗ്ര	3018
ഡ്രൈ	3019
##ല്‍ഹി	3020
ഗോപ	3021
പാട	3022
##പാട്	3023
##ുടേയും	3024
##പരമായ	3025
എക്	3026
മുരളീധര	3027
##സിക്യ	3028
നിര്‍മ്മ	3029
അബ്ദ	3030
##വിഡ	3031
ഫോണ	3032
##റിൽ	3033
തുറന്ന	3034
കണ്‍	3035
നിന്നാണ്	3036
നിൽക്ക	3037
##റോ	3038
സര്‍ക്കാരിന്റെ	3039
ഇവരെ	3040
സമര്‍പ്പ	3041
##ുണ്ടെന്നും	3042
##ഗ്ദ	3043
നല്‍കിയത്	3044
##മറ	3045
സംവിധാന	3046
പോസ്റ്റ്	3047
ദുരന്ത	3048
ഇനിയും	3049
ജൂല	3050
##ട്ടിഫ	3051
ഔദ്യോഗ	3052
##ശ്വര	3053
##േഴ്‌	3054
ആശുപത്രി	3055
സീസ	3056
##ിക്കാത്ത	3057
##ങ്ങനെയ	3058
ഏപ്ര	3059
ബീ	3060
സാധിക്കും	3061
സംബന്ധിച്ച	3062
കെപി	3063
പേരെ	3064
##ിലേക്കുള്ള	3065
##ണല്‍	3066
##ികളിൽ	3067
പിടിച്ച	3068
##ുകൊണ്ടാണ്	3069
32	3070
ജയില	3071
ലോക്ക്	3072
സഹോദര	3073
വീണ	3074
##ിക്കാനാണ്	3075
##ാലോ	3076
##ങ്ങനെയാണ്	3077
##േക്കും	3078
##ില്ലെന്ന	3079
ഉമ്മന്‍	3080
പരിക്ക	3081
##മൊരു	3082
വെല്ലു	3083
2019	3084
##ിനായി	3085
തീര	3086
##പ്പെടുന്നു	3087
വിമാനത്താവ	3088
പ്രമുഖ	3089
##കരമായ	3090
##കുട്ടി	3091
##ത്താണ്	3092
##ിക്കാര	3093
കാലത്ത്	3094
ചാണ്ട	3095
##മാന്‍	3096
##സോ	3097
തെളിയ	3098
കണ	3099
##വരില്‍	3100
ബിസിന	3101
ബിജെപിക്ക്	3102
കോണ്‍ഗ്രസിന്റെ	3103
##സര്‍	3104
##ക്കട	3105
ഇടതുപക്ഷ	3106
##സരിച്ച്	3107
ഇസ്രായേ	3108
##വെന്ന്	3109
##കാ	3110
##ത്തോട്	3111
##മാരും	3112
രൂപയാണ്	3113
##തിനാല്‍	3114
ഏഴ്	3115
##ികൂ	3116
ലീഗ	3117
ചാന	3118
ആരും	3119
ലക്ഷ്യം	3120
കണ്ണൂർ	3121
മൂന്നാം	3122
ഇയാള്‍	3123
ജോസഫ്	3124
നടി	3125
സെക്രട്ടറിയ	3126
സ്വര്‍ണ	3127
ഇഷ്ട	3128
##ിള	3129
##ണായക	3130
##ാസ്ത്ര	3131
രാഹുൽ	3132
ചിന്ത	3133
തങ്ങളുടെ	3134
ലം	3135
##ുപ്പ	3136
കെട്ടി	3137
അവസര	3138
##നീ	3139
നിശ്ച	3140
ഗുജ	3141
നിലവിൽ	3142
##ുന്നതെന്ന്	3143
ഉദ്ഘാട	3144
##മം	3145
ഒഴിവാക്ക	3146
ഉന്നത	3147
മനോ	3148
പ്രതിഷേധം	3149
##വാസം	3150
സൂച	3151
വഹ	3152
ദി	3153
##ശി	3154
മരിച്ച	3155
എത്തിയത്	3156
##നില	3157
വേണം	3158
കേസിൽ	3159
100	3160
തുടങ്ങ	3161
##ിട്ടുള്ളത്	3162
കൊച്ച	3163
##ിരിക്കുന്നു	3164
##ബുക്ക്	3165
##നേഹ	3166
ശക്തി	3167
സ്ഥിരീകരിച്ച	3168
മെഡിക്കൽ	3169
##ാനെ	3170
പകരം	3171
ഒന്നാം	3172
പവ	3173
##ംഗം	3174
അഴി	3175
യഥ	3176
##ര്‍ക്ക്	3177
ബുദ്ധി	3178
##ഘടന	3179
##്ക്ക്	3180
സമു	3181
വൈദ്യ	3182
മാറ്റിയ	3183
ആരോപിച്ചു	3184
മുസ്ലീം	3185
യാത	3186
ബാങ്ക	3187
സമ്മാന	3188
##ില്ലെന്നാണ്	3189
ഉണ്ടായിരുന്നു	3190
##ബുക്ക	3191
സ്ഥിതി	3192
പേരില്‍	3193
വാക്‌സിന്‍	3194
##ഖ്യ	3195
##െടുത്ത്	3196
സ്ഥാനം	3197
##ുമായുള്ള	3198
മുന്നറിയിപ്പ്	3199
മമത	3200
പിസി	3201
എട്ട്	3202
##ിം	3203
കുറച്ച്	3204
പുരോഗ	3205
കൃഷ്ണ	3206
കഥ	3207
##ായിര	3208
##ത്തിനു	3209
മുഖ്യമന്ത്രിയുടെ	3210
ഭീഷണി	3211
ഞങ്ങള്‍	3212
സതീ	3213
നേടി	3214
നിര്‍ദ്ദേശ	3215
നിയമം	3216
രമേശ്	3217
സാക്ഷ	3218
യുദ്ധ	3219
വാക്‌സിന	3220
ശരിയ	3221
നൽകി	3222
നടക്കുന്നത്	3223
ഉത്തരവാദ	3224
ഭേദ	3225
##നത്തില്‍	3226
##ാമത്തെ	3227
പെൺ	3228
##േക്ക്	3229
മാറ്റം	3230
വിശ്വസ	3231
സന്തോഷ	3232
വിശ്വാസ	3233
അവസരം	3234
##ിക്കൊണ്ട	3235
ലംഘ	3236
വ്യക്ത	3237
തിരഞ്ഞെടുപ്പിൽ	3238
അധ്യക്ഷന്‍	3239
കനത്ത	3240
കൂടിക്ക	3241
പ്രവച	3242
കാസര്‍	3243
പിടികൂ	3244
##ഗോഡ്	3245
ഇദ്ദേഹ	3246
പത്ത്	3247
##മാണെന്നും	3248
##ത്തിനെ	3249
പോവ	3250
മണ്ഡലം	3251
##പിച്ച്	3252
ശ്രമം	3253
##ദായ	3254
##ാവുന്ന	3255
##ങ്കള	3256
അഭിമുഖ	3257
ക്ഷേത്ര	3258
ത്ര	3259
തീയ	3260
##ത്തിനെതിരെ	3261
സോണിയ	3262
എക്‌	3263
ഏത്	3264
സർവ	3265
വധ	3266
##ഗോപ	3267
##മാറ	3268
##ാതിരിക്ക	3269
ഗോവ	3270
##ബൈ	3271
ആഘോഷ	3272
നാട	3273
അതില്‍	3274
##ൊഴ	3275
##പ്രത	3276
ഇയാള	3277
##ന്റി	3278
വീതം	3279
##ിനിട	3280
2021	3281
ഉടമ	3282
##ര്‍മാര്‍	3283
നടപ്പാക്ക	3284
താൻ	3285
എന്താണ്	3286
സാഹചര്യം	3287
##ിലായിരുന്നു	3288
##ര്‍ത്തിയ	3289
വരുന്നത്	3290
##ര്‍ക്കാണ്	3291
നമുക്ക്	3292
##്യോ	3293
നിരോധ	3294
ആലോ	3295
ചെലവ	3296
ജല	3297
##സൂ	3298
രൂപയുടെ	3299
വരിക	3300
സതീശ	3301
ട്	3302
##തിന്റെ	3303
##ാനാവ	3304
##ിപ്പിച്ചത്	3305
അധ്യാപ	3306
കാറ	3307
സമിതി	3308
നിലന	3309
ഫേസ്ബുക്ക്	3310
പോളി	3311
##ടക്കം	3312
ചോദിച്ചു	3313
മരണം	3314
സൂക്ഷ	3315
ഫേസ്ബുക്ക	3316
##പ്ല	3317
##സിനെ	3318
##ിലേക്കും	3319
കൂടുതല	3320
കൂടിയാണ്	3321
തമിഴ്	3322
തു	3323
ഹൗ	3324
ബന്ധം	3325
കിടക്ക	3326
ബുധ	3327
##സാ	3328
രീതിയില്‍	3329
രൂപീകര	3330
##ീർ	3331
യാതൊരു	3332
ഒട്ട	3333
പാക	3334
കുറവ	3335
##ര്‍ത്തു	3336
ചെയ്യുന്നു	3337
പേരുടെ	3338
രോഗമു	3339
ക്രൈ	3340
##പിട	3341
##ിച്ചതോടെ	3342
ഒന്ന്	3343
##ിയുമായി	3344
റൂ	3345
##ിലായി	3346
##ങ്ങ്	3347
##സിൻ	3348
##ിംഗ്	3349
സമരം	3350
##ിക്കണമെന്ന്	3351
##റ്റം	3352
നടത്തുന്നത്	3353
ചെയ്തിട്ടുണ്ട്	3354
ഇല	3355
എങ്ക	3356
കിട	3357
ബജ	3358
കേട്ട	3359
വിതരണം	3360
##റ്റില്‍	3361
##ുമുണ്ട്	3362
മനസില	3363
പലരും	3364
പിന്നാലെയാണ്	3365
ദിലീപ്	3366
പതിന	3367
##ാലയം	3368
##ിന്റെയും	3369
##ല്ലേ	3370
##നിന്ന	3371
തസ്ത	3372
##രാമ	3373
ജോര്‍ജ്	3374
ജാഗ്രത	3375
സ്വാത	3376
വീട്	3377
ലോട്ട	3378
##നിക്ക	3379
മുതല	3380
ഉറപ്പാക്ക	3381
അവതരിപ്പ	3382
##നവും	3383
##ിച്ചിരിക്കുകയാണ്	3384
##ങ്ങളായി	3385
സമാന	3386
വിവരങ്ങള്‍	3387
ഹോട്ട	3388
##ിരുദ	3389
നഗരസഭ	3390
പരിപാടിയ	3391
എങ്ങനെ	3392
##മാക്കിയ	3393
അംബ	3394
ഏര്‍	3395
നന്ദ	3396
##ിത്യ	3397
മേഖലയില്‍	3398
സ്ഥിരീകരിച്ചു	3399
##ആർ	3400
യോഗത്തില്‍	3401
ശിക്ഷ	3402
ഞങ്ങൾ	3403
തന്നെയ	3404
ഒരാള്‍	3405
##ങ്ങളോട്	3406
##ിച്ചതിന്	3407
കോടതിയില്‍	3408
യൂത്ത്	3409
വിവാഹം	3410
വനിതാ	3411
ഇവർ	3412
മാതൃ	3413
പിഴ	3414
അദ്ദേഹത്തിന്	3415
ഞെട്ട	3416
##ടുള്ള	3417
##ുണ്ടെന്ന്	3418
കര്‍ണാടക	3419
തിയ	3420
മട	3421
ഒടുവ	3422
ഗൂ	3423
മുഴുവന്‍	3424
##കരെ	3425
ഇരിക്ക	3426
റാ	3427
##ിച്ചിരുന്ന	3428
കാഴ്ച	3429
സ്റ്റേഷന	3430
സിപിഐ	3431
കർഷ	3432
ഇപ്പോഴ	3433
നാളെ	3434
അമ്പ	3435
മണ്ഡലത്തില്‍	3436
പ്രസിഡന്റ	3437
##ത്തിനിടെ	3438
##ുപോലെ	3439
ബിരുദ	3440
ഒരുപാട്	3441
കേസിലെ	3442
പാര്‍ട്ടിയ	3443
##ക്കര	3444
അദ്ദേഹത്തെ	3445
##സേന	3446
ഡിസം	3447
സുരക്ഷാ	3448
പരാമര്‍ശ	3449
സ്വാതന്ത്ര	3450
ശോഭ	3451
തിരിച്ചടിയ	3452
തസ്തിക	3453
പ്രവര്‍ത്തകര്‍	3454
##ങ്ങിയത്	3455
കുമാറ	3456
സ്ഥാനാര്‍ത്ഥി	3457
ഗവര്‍	3458
മാര	3459
ക്യാമ്പ	3460
##കുമാര്‍	3461
ശേഖ	3462
വ്യക്	3463
പങ്കുവെ	3464
##പ്പെടുത്തിയത്	3465
നിത	3466
തുക	3467
##പിഎ	3468
ഒരിക്കലും	3469
##ാണെങ്കില്‍	3470
##പാട	3471
##ിക്കണമെന്നും	3472
ക്വാറ	3473
ബുദ്ധിമു	3474
33	3475
##പ്പറ	3476
നേരെ	3477
36	3478
അന്ന	3479
##‍റെ	3480
##ശ്മ	3481
പ്രാദേശ	3482
##ഭാവ	3483
##ത്തിയിരുന്നു	3484
##കളിൽ	3485
##ണയ	3486
##കൊ	3487
വിമാനത്താവള	3488
അച്ഛ	3489
എച്ച്	3490
##ായാണ്	3491
##ൂരിലെ	3492
സ്‌കൂള	3493
ചീഫ്	3494
കാര്യമ	3495
അത്ര	3496
ശബ	3497
അതിനിടെ	3498
കൊണ്ടാണ്	3499
ഒപ്പം	3500
##വകു	3501
പറയുന്ന	3502
നിര്‍ദേശം	3503
ലോക്‌സഭാ	3504
ഉദ	3505
സംഭവത്തില്‍	3506
ഇത്രയും	3507
##ക്കുന്നത്	3508
പൂര്‍ണ	3509
അശ	3510
34	3511
റദ്ദ	3512
നിർമ്മ	3513
പുറത്തുവന്ന	3514
നടപ്പില	3515
താല	3516
##ഹത്യ	3517
വിജയ്	3518
അഭിഭാഷ	3519
രഹ	3520
പെരുമ	3521
ചേര	3522
ഉപയോഗിച്ച്	3523
എംഎൽ	3524
രോ	3525
##ളൂ	3526
##ിനെയും	3527
സ്വതന്ത്ര	3528
നിലവിലെ	3529
ഗ്രൂപ്പ്	3530
പ്രവാസ	3531
##ന്‍സ	3532
കൊലപാതക	3533
##ാന്	3534
##സിപ്പ	3535
മുറ	3536
കുത്ത	3537
ഡോസ്	3538
റോഡ്	3539
ജൂലൈ	3540
##ായാലും	3541
നേതൃത്വത്തില്‍	3542
രു	3543
##ചി	3544
വാഗ്ദ	3545
##ിച്ചതായി	3546
##യു	3547
##ത്തം	3548
നിങ്ങള്‍	3549
കാര്യത്തില്‍	3550
##ഘട്ട	3551
##ിക്കു	3552
കഴിഞ്ഞു	3553
നിര്‍ത്ത	3554
##ക്‌സ്	3555
##കന്‍	3556
വിസ	3557
പരിശീല	3558
സഹായം	3559
വിഷയത്തില്‍	3560
ജൂണ്‍	3561
37	3562
55	3563
ടോ	3564
##ർമ	3565
##ഡോ	3566
##ുണ്ടാക	3567
സൗകര്യ	3568
ടൂ	3569
ര്‍	3570
##ർത്തു	3571
ഇന്ത്യയില്‍	3572
സീറ്റുകള്‍	3573
തൃണമ	3574
പഴയ	3575
ട്വി	3576
##െത്ത	3577
##ലിൽ	3578
ജില്ലയിൽ	3579
പരാത	3580
ചെറ	3581
പ്രചാര	3582
സിന്	3583
കൈമാ	3584
എന്നിവരാണ്	3585
ചല	3586
##പ്പില്‍	3587
പിത	3588
ഉണ്ടാക്ക	3589
##ാണെന്നാണ്	3590
ഇന്ത്യയിലെ	3591
പരിഹരിക്ക	3592
പൂർത്തിയ	3593
##ർട്ട്	3594
##ിയുള്ള	3595
ഇതിനിടെ	3596
വസ്തു	3597
##േബ	3598
കാര്യങ്ങൾ	3599
അടിയന്തര	3600
എതിര	3601
സബ്	3602
##ാശാല	3603
ഫോണ്‍	3604
##ഗീയ	3605
സിദ്ദ	3606
വിദഗ്	3607
##മിക	3608
##റിന്	3609
##ങ്ങളുമായി	3610
എംഎൽഎ	3611
മാണി	3612
##കോട	3613
##ക്കിട	3614
##സ്സ്	3615
വിധി	3616
##ിട്ടുള്ള	3617
##കൃഷ്ണ	3618
പാകി	3619
പ്രാദേശിക	3620
നികുതി	3621
##ലാ	3622
പിന്നെ	3623
##ത്തിലായിരുന്നു	3624
കോളേജ്	3625
പെണ്‍കുട്ട	3626
##ളയ	3627
##തെ	3628
##ീല്‍	3629
ഏഴ	3630
ഒരുമ	3631
##ിരി	3632
##ന്‍ഡ്	3633
ചൂണ്ടിക്കാണ	3634
##രീ	3635
തേടിയ	3636
മദ്യ	3637
സ്കൂ	3638
നടപടികള്‍	3639
ഭരണം	3640
##ുമു	3641
റെയില്‍	3642
ഔദ്യോഗിക	3643
##ില്ലാതെ	3644
അഭ്യ	3645
##ംബര്‍	3646
##ന്നെ	3647
##ുകളിലെ	3648
തുടക്ക	3649
തിരഞ്ഞെടുക്ക	3650
ബാങ്ക്	3651
ഫെബ്ര	3652
തെരഞ്ഞെടുപ്പ്	3653
ക്ഷണ	3654
ചെന്നൈ	3655
75	3656
അജ	3657
##ലിക്ക	3658
സിംഗ	3659
##സ്‌ട്ര	3660
പാർട്ടിയ	3661
കമ്മിറ്റ	3662
രീതിയ	3663
യാദ	3664
മൃതദേഹം	3665
##നമ	3666
##ൽപ്പ	3667
ലഭിക്ക	3668
##ോമീറ്റ	3669
',	3670
##്മി	3671
ജനങ്ങള്‍	3672
കെപിസിസി	3673
സ്വാധീന	3674
##ോറി	3675
##ത്തെയും	3676
വ്യവസ	3677
കയ്യ	3678
##കലാശാല	3679
നിങ്ങൾ	3680
നിലയില്‍	3681
പാര്‍ല	3682
പ്രധാനമന്ത്ര	3683
തമ്മിലുള്ള	3684
42	3685
തന്ത്ര	3686
കേസുകള്‍	3687
പക	3688
രോഗബാധ	3689
സേന	3690
റണ്‍	3691
##ാക്കള്‍	3692
യുഎസ്	3693
സാമൂഹിക	3694
##ര്‍ഷ	3695
രാജ്യം	3696
സാഹചര്യത്തിൽ	3697
ഖത്ത	3698
##േറിയ	3699
നിമി	3700
48	3701
##ർമ്മ	3702
##ുവിനെ	3703
##മായിട്ട	3704
ബ്രിട്ട	3705
അണ	3706
ഇല്ലാത	3707
ഗത	3708
##നമാണ്	3709
##ുമാനം	3710
ആക്രമണം	3711
##ർജ	3712
വ്യാഴ	3713
ചൂണ്ടിക്കാട്ടി	3714
80	3715
നാ	3716
##ാനായി	3717
സിറ്റി	3718
യുക്ര	3719
ഫിറ	3720
സന്	3721
ദുരി	3722
കൂടിക്കാഴ്ച	3723
മുല്ല	3724
കഴിയുന്ന	3725
സംവിധാനം	3726
##ാതിര	3727
സമാധ	3728
കല്ല	3729
സച്ച	3730
##സ്വ	3731
ചെയ്‌	3732
പേരിൽ	3733
##കള്‍ക്ക്	3734
ഡൽ	3735
##ഫ്ര	3736
##ുകൾക്ക്	3737
തമിഴ്‌	3738
ചെയ്യാൻ	3739
അഡ്	3740
വ്യാപക	3741
അസി	3742
വട	3743
##ംസ്	3744
സൂപ്പ	3745
ഹിന്ദു	3746
പിന്‍വല	3747
ഗണ	3748
ആളുകള്‍	3749
സുരേന്ദ്രന്‍	3750
വാദം	3751
ആന്റ	3752
##തെന്നാണ്	3753
##ിയോടെ	3754
##ായിരുന്നില്ല	3755
യോ	3756
##ര്‍ഡ	3757
പ്രതിനിധ	3758
തൊട്ട	3759
ത്തി	3760
അവര	3761
##ിന്റ	3762
കുഴ	3763
##ൂരിൽ	3764
##ാര്‍ക്ക്	3765
വെട്ട	3766
ആയു	3767
ബന്ധുക്ക	3768
പരമ	3769
വിചാരണ	3770
ടിക്കറ്റ്	3771
##ഹിത	3772
കിലോമീറ്റ	3773
ധാരണ	3774
പള്ള	3775
##ക്കുമ	3776
ഓണ്‍	3777
##ിനോ	3778
##സ്‌ക	3779
##രിച്ച	3780
##ര്‍ത്തി	3781
ച്	3782
##മാക്കി	3783
##ലാണ്	3784
##ായം	3785
##ഴ്സ്	3786
അധികം	3787
ശബ്ദ	3788
##പറ	3789
##ലങ്ക	3790
##ഹ്	3791
##ൃദ	3792
##പ്പോഴാണ്	3793
റില	3794
വിധേയ	3795
വ്യക്തമാക്കുന്നു	3796
##യിട	3797
##ര്‍ട്ട്	3798
##നോ	3799
മൊഴി	3800
ഞായ	3801
##വറ	3802
എന്നിവര്‍	3803
സാമ്പിള	3804
തമ്മില്‍	3805
ജസ്റ്റ	3806
##ഗത	3807
വിഷയം	3808
##തിരഞ്ഞെടു	3809
കുറിച്ചു	3810
##പ്പെടും	3811
2020	3812
ഗവ	3813
##ാക്കും	3814
##ുമ്പോഴ	3815
##ംപ്	3816
##ക്കുന്ന	3817
തിരികെ	3818
വീട്ടിൽ	3819
തേട	3820
ഗുജറാ	3821
നശ	3822
മല്‍	3823
പൊലി	3824
മുക	3825
##ീത	3826
പോസിറ്റ	3827
നീണ്ട	3828
മീറ്റ	3829
38	3830
##ൗൺ	3831
ഉണ്ടാകും	3832
ചേർന്ന	3833
##െടുത്തത്	3834
അയച്ച	3835
അഫ്	3836
ഒപ്പ	3837
ഭാ	3838
മണ്ണ	3839
##ോക്ക്	3840
##ില്യ	3841
##ായില്ല	3842
##സ്പി	3843
പക്ഷെ	3844
താല്‍പര	3845
70	3846
അല്‍	3847
ഫാ	3848
കോണ്‍ഗ്രസില്‍	3849
....	3850
ആവശ്യപ്പെട്ട്	3851
43	3852
2016	3853
പ്രതികരിച്ചു	3854
ഇതിൽ	3855
മരിച്ചത്	3856
വയസ	3857
ഗുണ	3858
മാനേജ	3859
അന്താരാഷ്ട്ര	3860
ചൗ	3861
ഹി	3862
പേര്‍ക്കും	3863
കാട്ട	3864
പരിപാട	3865
ജാമ്യം	3866
അടുത്തി	3867
';	3868
ആഴ്ച	3869
എട്ട	3870
##ാറ്റ്	3871
സമർപ്പ	3872
ഇതിനെ	3873
നിരക്ക	3874
വോട്ടുകള്‍	3875
സന്ദർശ	3876
മോഹന്‍	3877
അഡ	3878
പാസ	3879
##ഷന	3880
കൊണ്ടുവര	3881
തിങ്കള	3882
മീഡിയയില്‍	3883
##ഗറ്റ	3884
##ര്‍മ്മ	3885
##രുന്ന്	3886
കോര്‍പ്പ	3887
##ുന്നതിനായി	3888
ടൂറി	3889
കൗണ്‍	3890
കശ്മ	3891
ട്ട	3892
ഭരണകൂ	3893
എവിടെ	3894
##ക്കാന്‍	3895
സ്ഥാനാര്‍ഥ	3896
ജീവിതം	3897
##പ്രദേശ്	3898
സജ്ജ	3899
നല്‍കുന്ന	3900
##രിക്കുന്ന	3901
അർ	3902
മാര്‍ച്ച്	3903
പ്രമേ	3904
##ക്ടോ	3905
കത്ത	3906
പന്ത	3907
##്യമുള്ള	3908
അവസാനിപ്പ	3909
ക്വാറന്റ	3910
കോര്‍പ്പറ	3911
!!	3912
##ബോ	3913
##ഫി	3914
##ുകൂ	3915
##ിന്ന	3916
പോരാട്ട	3917
##പ്പന	3918
##ുന്നതില്‍	3919
വെളിപ്പെടുത്ത	3920
ഹാജര	3921
ബാബു	3922
ഓഫീസര്‍	3923
എയര്‍	3924
വാക്സിന	3925
വനിത	3926
നെഗറ്റ	3927
എഎ	3928
##ിലായ	3929
ടാ	3930
ഭീകര	3931
##ത്തിൻ്റെ	3932
ബൂ	3933
ബസ്	3934
##മന	3935
##ഭരണ	3936
##ശ്വ	3937
മൂലം	3938
വിജയന്‍	3939
എതിരെ	3940
##േറെ	3941
##ാകെ	3942
ഡിജി	3943
എള	3944
മതിയ	3945
വരു	3946
ശക്ത	3947
##ുതിയ	3948
##മെന്ന്	3949
ജനുവരി	3950
വൈസ്	3951
മറ്റുള്ള	3952
##ിയിലും	3953
##ിക്കില്ല	3954
##പ്രവർത്ത	3955
മന്ത്രിസഭ	3956
##ബിഐ	3957
അടച്ച	3958
കർണാടക	3959
എല്‍ഡിഎഫ	3960
##ഴക്ക	3961
ഇരുവരും	3962
റിപ്പോര്‍ട്ടുകള്‍	3963
അടുത്തിടെ	3964
കണ്ട്	3965
ഭാഷ	3966
##പിത	3967
കണ്ടു	3968
ഏതെങ്കിലും	3969
ശബരി	3970
അവി	3971
##ുകാർ	3972
ഉടന്‍	3973
സിന്ധ്യ	3974
വെബ്	3975
അഴിമ	3976
##്മെ	3977
##ാമെന്ന്	3978
44	3979
നടത്തിയിരുന്നു	3980
വെല്ലുവിള	3981
ട്വിറ്റ	3982
##ത്തിന്‍റെ	3983
പ്രവർത്തന	3984
ജ്യോ	3985
##ുണ	3986
കുറയ	3987
##ര്‍ഡ്	3988
പോകുന്നത്	3989
പരിചയ	3990
39	3991
##നിന്ന്	3992
##ിച്ചിരുന്നത്	3993
##യിലൂടെ	3994
പ്രശ്ന	3995
നമ്മള്‍	3996
മുതിര്‍ന്ന	3997
ന്യ	3998
##ക്കൊപ്പം	3999
സ്വദേശിയായ	4000
തര്‍ക്ക	4001
##കരും	4002
##ുപേ	4003
##പ്ത	4004
മാനസ	4005
എൽഡിഎ	4006
ആലോച	4007
##സെ	4008
നിഷേധ	4009
പേർക്ക്	4010
മൊബൈ	4011
ജനറൽ	4012
ഉദ്ഘാടനം	4013
രഹസ	4014
##ാസം	4015
##്യൂട്ടി	4016
മാല	4017
ആത്മഹത്യ	4018
രാജിവെ	4019
സന്തോ	4020
കൂട്ടിച്ചേര്‍ത്തു	4021
അത്തര	4022
ഇതാണ്	4023
##ക്ഷിണ	4024
##ാരായ	4025
##ിനീയ	4026
ലഭിക്കുന്ന	4027
പൈല	4028
നിലനി	4029
സ്‌റ്റ	4030
##ര്‍ശന	4031
ഇറങ്ങ	4032
കണക്ക്	4033
വെട	4034
മരിച്ചു	4035
പണി	4036
വക	4037
##ശങ്ക	4038
##ദ്വ	4039
താലി	4040
##ങ്ങളിലേക്ക്	4041
##മായത്	4042
യുവതി	4043
കലാപ	4044
കാന	4045
##ത്തിലേ	4046
സാന്നി	4047
ട്രംപ്	4048
അധികൃതര്‍	4049
പരിക്കേറ്റ	4050
മൈ	4051
##ാന്റെ	4052
##വിന്	4053
നൂ	4054
##ീന്ദ്ര	4055
##ൈസ്	4056
##ത്തുള്ള	4057
പിറ	4058
ജനങ്ങളുടെ	4059
പ്രവര്‍ത്തക	4060
എല്‍ഡിഎഫ്	4061
തൊഴില്‍	4062
ന്യൂഡ	4063
റെക്കോ	4064
##ോഗ്യ	4065
ഉപതിരഞ്ഞെടു	4066
ഇല്ലാത്ത	4067
രജിസ്റ്റര്‍	4068
ഏജന്‍	4069
ടു	4070
##ഹാറ	4071
പ്രസംഗ	4072
ശാസ്ത്ര	4073
##ക്കള്‍	4074
പ്രദ	4075
##ാക്കുന്നത്	4076
സുധാകരന്‍	4077
ഗെ	4078
വേണു	4079
ദക്ഷിണ	4080
##ൈവ	4081
##ിക്കുന്നുണ്ട	4082
പ്രചാരണം	4083
ശബരിമല	4084
##േബ്യ	4085
ശനിയ	4086
ഷെ	4087
##റുകള്‍	4088
കണ്ടെത്തി	4089
കമ്പനി	4090
സ്പീക്ക	4091
താഴെ	4092
വരുത്ത	4093
രാജ്	4094
##യിലുള്ള	4095
##ുമായും	4096
സമുദായ	4097
##ഹരി	4098
##ായിട്ടാണ്	4099
പഞ്ചാബ	4100
##ണൽ	4101
##ംഗ്ല	4102
പദ്ധതിയ	4103
പ്രതിസന്ധി	4104
തുടര്‍ന്നാണ്	4105
ആം	4106
##ശേഖ	4107
##ുകയാണെന്നും	4108
കുറിപ്പ	4109
അറിയിച്ചത്	4110
ചേര്‍ന്ന്	4111
ആശുപത്രിയിൽ	4112
അറേബ്യ	4113
പ്രതിപക്ഷം	4114
വെള്ളിയ	4115
ബംഗാള	4116
കൃത്യമായ	4117
വിപണ	4118
താലിബ	4119
##ലിനെ	4120
##മായിരിക്കും	4121
ഏകദേശം	4122
സ്വപ്ന	4123
##ാലോചന	4124
അറിഞ്ഞ	4125
##യോട്	4126
##കളാണ്	4127
വെള്ളം	4128
ഗെയ	4129
നിര്‍ണായക	4130
41	4131
ഒക്ടോ	4132
##ുവെ	4133
മുന്നോട്ട	4134
##്യൂട്ട	4135
##സർ	4136
പങ്കാള	4137
ഉത്തര്‍	4138
2022	4139
യൂണി	4140
വ്യാപാര	4141
പദവ	4142
വടക്ക	4143
##ണക്കിന്	4144
##ായിട്ടുണ്ട്	4145
ജില്ലകളില്‍	4146
കൃത്യമായി	4147
##ഫല	4148
##ക്കൂ	4149
പ്രതികരണ	4150
ബാബ	4151
199	4152
ഓഫീസ്	4153
##ുപോയ	4154
അഡ്വ	4155
ഹൃദ	4156
##ിലെത്ത	4157
സമി	4158
ബുദ്ധിമുട്ട	4159
ഗതാഗ	4160
ഷി	4161
##ജന്യ	4162
ടൈ	4163
ഫി	4164
##ാനാക	4165
##ടിഞ്ഞ	4166
##രാക	4167
അവര്‍ക്ക്	4168
പ്രവൃ	4169
##തായും	4170
##ിപ്പിക്കുന്നത്	4171
കണ്ടെത്തിയത്	4172
ഭൂമ	4173
പത	4174
പ്പ	4175
##െയര്‍	4176
##ങ്കേത	4177
##ാറുണ്ട്	4178
ആശയ	4179
സുഹൃത്തു	4180
ഏജ	4181
ഒള	4182
##ഡില്‍	4183
തിരിച്ചു	4184
ഒരുക്ക	4185
ആവശ്യമായ	4186
##ഗ്ഗ	4187
##ായിട്ടില്ല	4188
ഓട	4189
##ാവശ്യ	4190
അതിനെ	4191
).	4192
വച്ച്	4193
മറുപടിയ	4194
ണ്	4195
മത്സ്യ	4196
2018	4197
കൊല്ലപ്പെട്ട	4198
അബ്ദു	4199
52	4200
നീതി	4201
##തോടെയാണ്	4202
##കുമാറ	4203
അഭിനയ	4204
ഉദ്ധ	4205
തൂ	4206
മയ	4207
##ര്‍ദ്ദ	4208
ജോലിയ	4209
നിയമനം	4210
പ്രൊഫ	4211
കെട്ടിട	4212
പരമാവധി	4213
ഭര്‍ത്ത	4214
##ൂപ	4215
##ത്തുട	4216
പിൻ	4217
##സിറ്റി	4218
കാപ്പ	4219
##തിനാൽ	4220
യാത്രക്കാര	4221
താത്	4222
49	4223
മിനി	4224
##ായുള്ള	4225
ഇടത്	4226
ഭാഗത്ത്	4227
മറിക	4228
കുടുംബം	4229
##ക്ട്	4230
##്യു	4231
##ിപ്പിച്ച്	4232
##വ്വാ	4233
മുന്നണ	4234
വിദഗ്ധ	4235
##ൈന്‍	4236
വെള	4237
പുറമെ	4238
അപമാന	4239
ക്ക	4240
കാണാന്‍	4241
##ക്ട്ര	4242
ആദ്യമായി	4243
വിളിച്ച്	4244
ഹരി	4245
##പൂര്‍	4246
##ളവ്	4247
##വില്‍	4248
വെറും	4249
രൂപയും	4250
മുന്നണി	4251
ലക്ഷ്യ	4252
##ിച്ചിട്ടുള്ളത്	4253
##േശ	4254
##ന്ത്യ	4255
##ുകളിലേക്ക്	4256
ന്ന	4257
കര്‍ഷക	4258
അസിസ്റ്റ	4259
ഘടക	4260
വരെയുള്ള	4261
##ത്തിന്റെയും	4262
അറിയാം	4263
പോകുന്ന	4264
##േക്കാള്‍	4265
വാക്സിൻ	4266
ബൈഡ	4267
സംവിധായക	4268
നിശ്ചയ	4269
വ്യവസായ	4270
65	4271
##ിക്കുന്നില്ല	4272
വ്യക്തമാക്കുന്നത്	4273
അഫ്ഗ	4274
തുടർന്ന	4275
കേരളത്തിന്റെ	4276
പ്രവര്‍ത്തനങ്ങള്‍	4277
കാലം	4278
##െടുപ്പ്	4279
##ംബർ	4280
അത്യ	4281
വന്ന്	4282
ഇവര്‍ക്ക്	4283
മുഖ്യമന്ത്രിയ	4284
46	4285
##വന്‍	4286
##ംഗളൂ	4287
പിന്തുണയ്ക്ക	4288
പ്രാഥ	4289
ഇക്കാര്യത്തില്‍	4290
##ിവ്	4291
സഖ്യം	4292
അഖില	4293
##ിനൊപ്പം	4294
നേരത്തേ	4295
ഇന്നത്തെ	4296
##യെന്ന്	4297
പിടിയ	4298
ശമ്പളം	4299
പ്രേക്ഷ	4300
##ഴിഞ്ഞ്	4301
പോലുള്ള	4302
കൈമാറ	4303
ഗോപി	4304
കസ്റ്റഡിയ	4305
##ക്സ്	4306
പ്രശ്‌നങ്ങള്‍	4307
47	4308
ഇക്ക	4309
മുന്നിൽ	4310
ങ്	4311
##യളവ	4312
##ര്‍ട്ട	4313
പൊള	4314
മന്ത്രാലയം	4315
മുതിർന്ന	4316
51	4317
ബാന	4318
##ിച്ചാൽ	4319
വന്നിരുന്നു	4320
കടുവ	4321
##ൊപ്പ	4322
##ിക്കാതെ	4323
സ്ഥാനത്ത്	4324
പശ്ചാത്തലത്തില്‍	4325
എമ്മ	4326
വര്‍ദ്ധ	4327
തിരഞ്ഞെടുപ്പിന്	4328
വ്യക്തമാക്കിയിരുന്നു	4329
ഏറ്റെടുക്ക	4330
##മാരായ	4331
ഉദ്ദേശ	4332
മടങ്ങ	4333
വച്ച	4334
നിര്‍മ	4335
ഞങ്ങളുടെ	4336
സിവ	4337
##പുരം	4338
നേതാക്കളെ	4339
സോഷ്യൽ	4340
കൂട്ടിച്ചേർത്തു	4341
ലോട്ടറി	4342
##ിലി	4343
##ിലുണ്ട്	4344
പേര്‍ക്കാണ്	4345
കുറ്റപ്പെടുത്തി	4346
രി	4347
##സിലെ	4348
പ്രതിയ	4349
##ഞ്ചേരി	4350
ഭക്ഷണം	4351
തിങ്കളാഴ്ച	4352
##ുവൈ	4353
##്യൂണി	4354
ഗ്രഹ	4355
തൃക്ക	4356
54	4357
ലാഭ	4358
വേള	4359
##പരമായി	4360
സുപ്രീംകോട	4361
##ദണ്ഡ	4362
കുടു	4363
##ോളജി	4364
നടത്തും	4365
ഭൂമി	4366
താക്ക	4367
##ക്രിയ	4368
##പ്രതി	4369
##സ്റ്റർ	4370
പെര	4371
സമ്മത	4372
കാസർ	4373
##ിക്കി	4374
##ുണ്ടായിരുന്ന	4375
മുൻപ്	4376
ഉത്തരവ്	4377
##മാകും	4378
##ബോധ	4379
##ിലോ	4380
##ര്‍ത്ഥ	4381
സൗജന്യ	4382
ചൊവ്വാ	4383
അട്ടി	4384
മമ്മ	4385
##ിപ്പിക്കുന്ന	4386
##ുന്നതായി	4387
ശാ	4388
##ുമെല്ലാം	4389
##ാക്കാൻ	4390
2017	4391
യുവാവ	4392
തുറന്ന്	4393
ഭൂരിപക്ഷം	4394
ഫെബ്രുവരി	4395
പ്രാഥമിക	4396
##ാതി	4397
മുഖ്യ	4398
ടെസ്റ്റ്	4399
##ാവശ	4400
രമ	4401
##േമ	4402
തിരിച്ചറിയ	4403
ഉദ്യോഗസ്ഥര്‍	4404
ആഗോള	4405
##‌നം	4406
വിട്ട്	4407
അറിയിച്ചിരുന്നു	4408
കക്ഷ	4409
##ിച്ചെങ്കിലും	4410
സംസ്ഥാനങ്ങളില്‍	4411
അക്കൗണ്ട	4412
അഭിനന്ദ	4413
സ്വാതന്ത്ര്യ	4414
അന്തര	4415
##ാജ്	4416
##നത്തിൽ	4417
##‌മെന്റ്	4418
##ാണം	4419
സംഭവത്തിൽ	4420
പ്രതികരിക്ക	4421
ഐസ	4422
ഫോട്ടോ	4423
##ന്മ	4424
##മുളള	4425
എയർ	4426
കപ്പ	4427
##തിൽ	4428
##ീയം	4429
തുടക്കം	4430
മാനദണ്ഡ	4431
മാര്‍ഗ	4432
തൃണമൂ	4433
വേണുഗോപ	4434
##ജീവിത	4435
##സ്‌ക്	4436
നല്‍കിയിരുന്നു	4437
നേതാക്കളുടെ	4438
കിര	4439
സംഭ	4440
##സ്ഥാന്‍	4441
കാരണമ	4442
വാങ്ങിയ	4443
സീനിയ	4444
##താര	4445
##െയോ	4446
സഹകര	4447
പഞ്ചായത്ത	4448
ഉള്‍പ്പെടെയുള്ള	4449
താലൂ	4450
##പ്പടെ	4451
ഉയർത്ത	4452
ഭാഗ്യ	4453
അധികാരം	4454
വിവരങ്ങൾ	4455
##ർദ്ദ	4456
സിദ്ധ	4457
##വ്വേ	4458
ആയിര	4459
സഹകരണ	4460
ഉറപ്പ്	4461
നേതാക്കളും	4462
##ധാവി	4463
##ിലേക്കാണ്	4464
കുവൈ	4465
ഡിവ	4466
##വഹ	4467
സർക്കാരിന്റെ	4468
അപ്പ	4469
നല്‍കാന്‍	4470
പ്രചരണ	4471
ഒക്കെ	4472
##സ്വാ	4473
##ന്‍ഡ	4474
##ാക്കുന്ന	4475
വൈദ്യുതി	4476
ഉത്തരവാദിത്ത	4477
സാങ്കേത	4478
##രാജ്	4479
ലഭിച്ചു	4480
സാധ്യതയുണ്ട്	4481
നന്ന	4482
ലേ	4483
##വുമായ	4484
##ർത്തിയ	4485
##ുന്നതിനിടെ	4486
കുട്ടി	4487
##കാര്യം	4488
##റിനെ	4489
കൊണ്ടുവന്ന	4490
സൗദ	4491
കുമാർ	4492
##ാമ്പ	4493
##വന	4494
##ൊരാ	4495
##ജ്ര	4496
##ർട്ട	4497
പെട്ടെന്ന്	4498
##ായിക	4499
പ്രശ	4500
##ാവിക	4501
##ഞ്ചായ	4502
മേധാവി	4503
വേദന	4504
90	4505
##20	4506
##ിലെത്തി	4507
തിരിച്ച്	4508
##സ്‌കാര	4509
മത്സരം	4510
കയറി	4511
##യെന്ന	4512
##ാഴ്ച്ച	4513
വിഷ്ണ	4514
ബസ	4515
##ങ്ങാട്	4516
##റ്റിൽ	4517
##ിലെത്തിയ	4518
ചെയര്‍മ	4519
മോഡ	4520
പാകിസ്ത	4521
നല്‍കിയിട്ടുണ്ട്	4522
##ട്രോള	4523
മണ്ഡലത്തിൽ	4524
തള്ളി	4525
വരാ	4526
##േത്	4527
##ല്‍ഹ	4528
##ക്രോ	4529
ഉടൻ	4530
നടപടികൾ	4531
ചാണ്ടി	4532
സമാധാന	4533
അങ്ങ	4534
ബേ	4535
##തായിരുന്നു	4536
##ുവെന്നും	4537
##ുപറ	4538
വിമത	4539
എന്തെങ്കിലും	4540
ടീം	4541
##കോട്	4542
##ബല	4543
നിലയിൽ	4544
പിന്നില്‍	4545
ആരോഗ്യമ	4546
റോബ	4547
##ുണ്ടായി	4548
വ്യവസ്ഥ	4549
നല്‍കുന്നത്	4550
കുറിപ്പ്	4551
പ്രഖ്യാപനം	4552
തോന്നിയ	4553
##ട്രോള്‍	4554
കാനഡ	4555
റ്	4556
##ൻഡ്	4557
##ിക്കെ	4558
##സ്ല	4559
##സ്തി	4560
പ്രചര	4561
സ്ഥലം	4562
മുന്നേറ്റ	4563
ചൈനീസ്	4564
മുഴുവൻ	4565
ഒമ്പ	4566
##റാഴ്ച	4567
##രുട	4568
തിരുവനന്തപുരത്ത്	4569
പ്രചരിപ്പ	4570
കെഎസ്	4571
ജനങ്ങളെ	4572
ബിജെപിയെ	4573
എന്‍സി	4574
പ്രോസിക്യ	4575
##ുവും	4576
##ിപ്പിക്ക	4577
##ക്കെട്ട	4578
ന്യൂന	4579
പശ്ചിമ	4580
ഭക്ഷണ	4581
പദവി	4582
ഞായറാഴ്ച	4583
സാങ്കേതിക	4584
ഐക്യ	4585
വാര	4586
##ാണു	4587
2023	4588
സാമൂഹ്യ	4589
ബുധനാ	4590
നേട്ടം	4591
കെട്ട	4592
##ഷ്യല്‍	4593
അഴ	4594
ജലീ	4595
##റുടെ	4596
##ർഷ	4597
കുറയ്ക്ക	4598
മാതൃക	4599
ബില്ല	4600
##നട	4601
##ഫോട	4602
പുറമേ	4603
ട്രംപ	4604
ശക്തമായി	4605
പോയത്	4606
സിനിമാ	4607
പുതുതായി	4608
##ീൻ	4609
##ണ്ടി	4610
സീറ്റില്‍	4611
രാശിക്കാര	4612
പൗരത്വ	4613
##വകുപ്പ്	4614
##ഹര	4615
നിയോഗ	4616
##രിക്കും	4617
കോടതിയെ	4618
എന്‍ഡിഎ	4619
പാര്‍ട്ടിയുടെ	4620
500	4621
പിര	4622
തുടര്‍ച്ച	4623
രാജി	4624
നിര്‍ബന്ധ	4625
രീതിയിൽ	4626
##്‌ള	4627
വാഗ്ദാനം	4628
##ാണുള്ളത്	4629
ഉയര്‍ത്ത	4630
അനുസരിച്ച്	4631
വെള്ളിയാഴ്ച	4632
കൺ	4633
##ായ്മ	4634
##ാമെന്നും	4635
ജില്ലകളിൽ	4636
ജസ്റ്റിസ്	4637
ജഡ്	4638
##ചേ	4639
##ൃഷ്ണ	4640
##ർത്തി	4641
ബാധിച്ച്	4642
തുറക്ക	4643
##യാത്ര	4644
നാഷ	4645
##ുവിന്	4646
##ംഗലം	4647
##ാർഥ	4648
##ശ്വാസം	4649
ബെംഗളൂ	4650
##െയായിരുന്നു	4651
അഭിപ്രായം	4652
ഗൗര	4653
തള	4654
##പതി	4655
വരുമാന	4656
പറയാന്‍	4657
##സ്പ്ര	4658
ബ്ലോക്ക്	4659
ഏപ്രില്‍	4660
ടൂറിസം	4661
തുല	4662
##ാംഗ	4663
പ്രവർത്തക	4664
ഇറക്ക	4665
നോട്ടീസ്	4666
57	4667
##ശേരി	4668
##വേദ	4669
രോഗമുക്തി	4670
53	4671
അസം	4672
##ചാര	4673
##ോഹ	4674
##ൗണ്ട്	4675
പ്രാധ	4676
വൈറല	4677
രേഖപ്പെടുത്തിയ	4678
##ര്യ	4679
##തോ	4680
##റാണ്	4681
##എന്‍	4682
നടക്കും	4683
മേഖലയിലെ	4684
സീസണ	4685
ശനിയാഴ്ച	4686
അതിൽ	4687
നിന്നു	4688
ഇന്‍സ്റ്റ	4689
ബാഗ	4690
##മുറ	4691
സിബിഐ	4692
പ്രവര്‍ത്തനം	4693
പഞ്ചാബ്	4694
2024	4695
##പ്രതീക്ഷ	4696
മാനസിക	4697
##രായി	4698
##നത്തിന്റെ	4699
##ജിത്	4700
രാജ്യത്തിന്റെ	4701
നൽകുന്ന	4702
##ിട്ടുണ്ടെന്നും	4703
കേന്ദ്രസർക്ക	4704
പാത	4705
##ിൻ	4706
##മിന	4707
##വിരുദ്ധ	4708
പരിധ	4709
പങ്കെടുത്തു	4710
സര്‍വ്വ	4711
രാശിക്കാര്‍ക്ക്	4712
കാസര്‍ഗോഡ്	4713
ഗവര്‍ണര്‍	4714
അരു	4715
കാവ	4716
##സ്മ	4717
##ിപ്പിക്കുന്നത	4718
കാണുന്നത്	4719
കളക്ടര്‍	4720
##ുന്നതിനുള്ള	4721
അസോ	4722
തങ്ങള്‍	4723
സങ്ക	4724
##ന്യം	4725
##ന്നൂര്‍	4726
സെപ്റ്റ	4727
പ്രഖ്യാപിച്ച	4728
പെൺകുട്ട	4729
കരാ	4730
##കക്ഷ	4731
##യുടെയും	4732
കാറ്റ	4733
പരിഗണന	4734
മോശം	4735
ഏഷ്യ	4736
ഭാവ	4737
യുപ	4738
##ിന്യ	4739
##ത്യം	4740
##പ്തി	4741
സാഹചര്യത്തിലാണ്	4742
കര്‍ശന	4743
രക്ത	4744
വനം	4745
ജോല	4746
##യോഗം	4747
##ത്തോടെയാണ്	4748
ലൈംഗ	4749
തകര്‍	4750
##ുന്നതോടെ	4751
സമ്പര്‍ക്കം	4752
തീവ്രവാദ	4753
ഇലക്ട്ര	4754
56	4755
പച്ച	4756
മാവ	4757
##ൽക്ക	4758
ഉപേക്ഷ	4759
അംഗീ	4760
ഹൈദ	4761
അന്തി	4762
റെഡ്	4763
വായ്പ	4764
ഉൾപ്പെടെയുള്ള	4765
ച്ച	4766
ന്‍	4767
സംഗ	4768
##യ്ക്കായി	4769
നേതൃത്വത്തിലുള്ള	4770
##ഭൂ	4771
വിമര്‍ശനം	4772
ഡല്‍ഹി	4773
ഇന്ത്യയിൽ	4774
നിർത്ത	4775
വ്യാപനം	4776
ട്വീറ്റ്	4777
നിലനില്‍ക്ക	4778
##ിയോട്	4779
##വാള	4780
##സ്‌പെ	4781
സ്റ്റാ	4782
എല്ലാവര	4783
ഏർ	4784
തന	4785
##വെന്നാണ്	4786
##ുമാര	4787
ഒരുക്കിയ	4788
##ികളുമായി	4789
##ാകുന്നത്	4790
##ാധിക	4791
വിശദീകരണം	4792
##ലൈന്‍	4793
ഓട്ട	4794
##ാക്കൾ	4795
##ജിത്ത്	4796
വ്യക്തമാക്കിയത്	4797
വാഹനം	4798
##ളെ	4799
എംപ	4800
##ിമിന	4801
കുടിയ	4802
ഭരണഘടന	4803
ഒരേ	4804
##തുട	4805
##ുകയോ	4806
##ിപ്പിക്കാന്‍	4807
രാജസ്ഥാന	4808
##ാക്കിയിട്ടുണ്ട്	4809
##ഹൃദ	4810
ന്യൂനപക്ഷ	4811
##െടുപ്പ	4812
നിര്‍മാണ	4813
അയ്യ	4814
മോദിയുടെ	4815
ഗാന്ധിയുടെ	4816
പ്രകടനം	4817
ശരീര	4818
നിതീഷ്	4819
പൊലിസ്	4820
അദ	4821
ദൗ	4822
##ഭോ	4823
##ൂട്ടി	4824
നിർദേശ	4825
സ്വര്‍ണം	4826
കേന്ദ്രസര്‍ക്ക	4827
എങ്കിലും	4828
ആധ	4829
വസ	4830
വോ	4831
##വേഷണ	4832
പാർല	4833
ബാധിച്ചത്	4834
സമ്മാനം	4835
ക്യാപ്റ്റ	4836
നിയന്ത്രണം	4837
രക്ഷാ	4838
ടിക്കറ്റ	4839
##െന്നു	4840
##ിവര	4841
ജനങ്ങൾ	4842
കണക്കിലെ	4843
ഇത്തരമൊരു	4844
സ്ഥാനാർത്ഥി	4845
അസോസിയ	4846
##ാനോ	4847
അതാണ്	4848
കണ്ടത്	4849
മണിക്കുട്ട	4850
ട്രെയിന	4851
##ൊന്ന്	4852
##ർഡ്	4853
സ്നേഹ	4854
രാജ്യസഭ	4855
ചര്‍ച്ചകള്‍	4856
ഒരാൾ	4857
സ്ഥലത്ത്	4858
ഡിവൈ	4859
കേള്‍	4860
##ഴ്സ	4861
##കുമാർ	4862
##ശേഷം	4863
നൂറ	4864
##ര്‍ജ	4865
വർദ്ധ	4866
കമ്മീഷന്‍	4867
സ്വപ്‌ന	4868
ഗൂഢ	4869
ഇപ്പോഴത്തെ	4870
മകന്‍	4871
രോഹി	4872
യൂറ	4873
##ികളിലും	4874
##ുണ്ടാവ	4875
ആദ്യത്തെ	4876
അശോ	4877
58	4878
തർക്ക	4879
ലാ	4880
##ർജി	4881
##ടുപ്പ	4882
വരുമാനം	4883
ചെറു	4884
##േഡ്	4885
ഒരുങ്ങ	4886
കാര്യമാണ്	4887
പരിശോധനയ്ക്ക്	4888
അല്ലെങ്കില്‍	4889
ക്ലാസ	4890
##ിക്കേണ്ടത്	4891
സൂപ്പര്‍	4892
ആന്റണി	4893
ആള്‍	4894
എഫ	4895
##ലുകള്‍	4896
##ോപ്പ	4897
ക്രിമിന	4898
അമേരിക്കന്‍	4899
എളുപ്പ	4900
##േയുള്ള	4901
ഇതു	4902
സാധ്യതയുണ്ട	4903
##എസ്എസ്	4904
ഇയാൾ	4905
ശശ	4906
മുദ്ര	4907
##ക്കെതിര	4908
ക്രൂര	4909
തൃശ്ശ	4910
ആക്ഷേപ	4911
##ഫലം	4912
##ിയായിരുന്നു	4913
മണിപ്പ	4914
പ്രഖ്യാപിച്ചു	4915
പഠന	4916
നിരീക്ഷണത്തില	4917
ഗവർ	4918
##ാവകാശ	4919
പരാതിയ	4920
##ിച്ചതെന്ന്	4921
ദിവസത്തെ	4922
##കൾക്ക്	4923
തേടി	4924
പാര്‍ട്ടിയില്‍	4925
ഭക്ഷ്യ	4926
വിതരണ	4927
ആയുധ	4928
അപ്രതീക്ഷ	4929
##ാസി	4930
##്രമ	4931
നോക്കിയ	4932
മത്സരിച്ച	4933
ഇതിനായി	4934
അസിസ്റ്റന്റ്	4935
എഐ	4936
റാവ	4937
##ഭേദ	4938
##ുകയാണെന്ന്	4939
##നെതിരെ	4940
രാഷ്ട്രീയം	4941
സര്‍ട്ടിഫ	4942
സര്‍വീസ്	4943
##പൊ	4944
##ണർ	4945
##റാം	4946
##ിക്കുമെന്നാണ്	4947
##ിപ്പറ	4948
വലിയൊരു	4949
ഇന്ധ	4950
##എല്‍	4951
##ിക്കണമെന്ന	4952
##ാക്കര	4953
സെക്ക	4954
ക്രിസ്	4955
കയറിയ	4956
വൈകീ	4957
കരുതുന്നത്	4958
മോഹന്‍ല	4959
വാത	4960
##പഞ്ചായ	4961
ജനത	4962
നടത്താന്‍	4963
കൈകാര്യം	4964
ആളുകൾ	4965
പൂർണ	4966
##േട്ട	4967
##ിയില	4968
##ുന്നതിനും	4969
തൊഴിൽ	4970
ശിവസേന	4971
സുരേന്ദ്രൻ	4972
ജോര്‍ജ	4973
ഏജന്‍സ	4974
അന്തിമ	4975
ഗ്	4976
ദീപ	4977
##ങ്ങളെയും	4978
രംഗത്ത	4979
തിരിച്ചടി	4980
മൊത്തം	4981
ഓപ്പറ	4982
കുന്ന	4983
##വുമാണ്	4984
പ്രണയ	4985
കൊവിഡ	4986
വ്യക്തമായ	4987
വിനോദ	4988
നന്ദി	4989
ഫിറോസ്	4990
ഭിന്ന	4991
##an	4992
കാലയളവ	4993
യാഥ	4994
മേഖലയിൽ	4995
വിളിച്ചു	4996
വിശേഷ	4997
പാവ	4998
റീ	4999
##െത്തി	5000
##രമ	5001
##ർഡ	5002
തിരക്ക	5003
അവർക്ക്	5004
ഭാഗമായ	5005
നൽകിയത്	5006
##ശാന്ത്	5007
ബാക്കിയ	5008
സഞ്ജ	5009
##വ്യാപ	5010
##ച്ചവ	5011
അതുപോലെ	5012
ബാലചന്ദ്ര	5013
ജോസഫ	5014
ദുബായ	5015
ആഹ	5016
ഒമ	5017
പാര	5018
##ായു	5019
വിഭ	5020
പുരുഷന്‍	5021
##നവുമായി	5022
##ഗതി	5023
##ൻഡ	5024
##െയ്യ	5025
ദിവസവും	5026
##രുതെന്ന്	5027
തരത്തിലുള്ള	5028
പ്രതികരിച്ചത്	5029
ഡെപ	5030
മുകള	5031
##തവും	5032
##ലിക	5033
##ോക്ക	5034
##ൂട്ട്	5035
##ങ്ങളിലൂടെ	5036
##ങ്ങള്‍ക്കും	5037
##ക്കാരെ	5038
പരിശോധനാ	5039
സ്വർണ	5040
##േഴ്‌സ്	5041
ഫു	5042
##ിയ്ക്ക്	5043
##ക്ഷോഭ	5044
നല്‍കും	5045
രണ്ടാമത്തെ	5046
ബിജെപിയില്‍	5047
ന്യായ	5048
തൃക്കാക്കര	5049
മദ	5050
കോർപ്പ	5051
കൊട്ട	5052
തെലങ്ക	5053
വാര്‍ഡ്	5054
പുരുഷ	5055
പങ്കുവെച്ച	5056
സച്ചിന്‍	5057
ചൊവ്വാഴ്ച	5058
കടക്ക	5059
തിക	5060
##യില്ല	5061
##ുണ്ടോ	5062
##സംഖ്യ	5063
കൈയ്യ	5064
##ജ്രിവ	5065
ഹാ	5066
##ൗണ	5067
##ര്‍ത്ത്	5068
##ത്രി	5069
കാണാം	5070
പ്രശ്‌നം	5071
സ്വീകരിച്ച	5072
ടെക്	5073
ഗ്രാമപഞ്ചായ	5074
ശമ്പള	5075
##ഭോക്ത	5076
തെലങ്കാന	5077
ഐപിഎ	5078
ഓഗ	5079
ണ്ട	5080
വൻ	5081
അനില്‍	5082
തെറ്റി	5083
മത്സരിപ്പ	5084
വേണ്ടിയാണ്	5085
##ാലാണ്	5086
പൊട്ട	5087
കോടതിയിൽ	5088
മെച്ച	5089
പൂജ	5090
സമാനമായ	5091
കോർപ്പറ	5092
കറ	5093
##േലിയ	5094
##ഞ്ജു	5095
##ങ്ങളിലാണ്	5096
ഉണ്ടായിരുന്ന	5097
യോഗി	5098
തലത്തില്‍	5099
തീരുമാനമ	5100
മിഥ	5101
ആവശ്യപ്പെട്ടിരുന്നു	5102
യൂണിയ	5103
പരാമർശ	5104
##നാട്ടില്‍	5105
പുറത്തുവിട്ട	5106
##ന്തരം	5107
വിജയൻ	5108
ആവശ്യപ്പെട	5109
കയറ	5110
നേടിയത്	5111
ചുരു	5112
ഹര	5113
##ാക്രമ	5114
കേസുകൾ	5115
മൂന്നു	5116
##യല്‍	5117
##ിക്കുമ്പോള്‍	5118
##ിച്ചതും	5119
കോൺഗ്രസിന്	5120
ചിത്രങ്ങള്‍	5121
ഭാരത്	5122
ഫോൺ	5123
വിദ്യാര്‍ഥ	5124
അബു	5125
##ച്ചില്‍	5126
അതൃ	5127
എഞ്ച	5128
ജമ്മ	5129
നും	5130
##ോണി	5131
##െയില്‍	5132
##ഡിറ്റ	5133
ജോർ	5134
ആത്മവി	5135
പയ്യ	5136
##ചാണ്ട	5137
##ിക്കപ്പെട	5138
##ുവെന്ന്	5139
##ന്ദിര	5140
ഇടപാട	5141
പ്രഖ്യാപിച്ചത്	5142
##ഴ്‌സ	5143
കരുതിയ	5144
",	5145
ഉണ്ണ	5146
##സിന്‍	5147
ഇതര	5148
വിട്ടു	5149
തുടരുകയാണ്	5150
59	5151
##മൂ	5152
കോവിഡ	5153
##ുന്നതിന്റെ	5154
വിഷയത്തിൽ	5155
സർവ്വ	5156
##വെന്ന	5157
##ിലധികം	5158
അതോറി	5159
എന്നിവിടങ്ങളില്‍	5160
ഒടുവില്‍	5161
ബുധനാഴ്ച	5162
##ിയത്	5163
##േഷ്യ	5164
കെസി	5165
##ുമ്പോഴും	5166
സൗഹൃദ	5167
##പ്പെടുത്താന്‍	5168
##പൂർ	5169
##േല്‍	5170
##ര്‍ദ	5171
പിടി	5172
ഇതിലൂടെ	5173
പുറപ്പെടു	5174
വകുപ്പിന്റെ	5175
കഴിഞ്ഞ്	5176
##ുഡ	5177
##ോഗ്ര	5178
പ്രവര്‍ത്തിക്കുന്ന	5179
ചിലര്‍	5180
അംഗം	5181
പദ്ധതിയുടെ	5182
ക്ലാസ്	5183
മണിക്ക്	5184
ങ്ങ	5185
62	5186
##ന്ദ്	5187
##ക്ഷന്‍	5188
സിങ്	5189
പറയുന്നുണ്ട്	5190
വ്യാഴാഴ്ച	5191
അന്‍	5192
##ിക്കൂ	5193
കെജ്രിവ	5194
##ാക്കിയിരുന്നു	5195
ദിവസങ്ങളില്‍	5196
സര്‍ക്കാരിന്	5197
##ക്കാര്‍ക്ക്	5198
പരസ്യ	5199
ഗുജറാത്ത്	5200
ശശി	5201
മുന്നറിയിപ്പ	5202
ബിസിനസ്	5203
പാറ	5204
##ിതം	5205
കാഞ്ഞ	5206
സംഘടനാ	5207
ഇന്നും	5208
കാര്‍ഷിക	5209
പൊതുമ	5210
എന്നു	5211
പട്ടികയില്‍	5212
അങ്ങനെയ	5213
ഇവര	5214
ധരിക്ക	5215
മധ	5216
##ാന്‍സ്	5217
##സ്ഥാപ	5218
##കളിലും	5219
മുന്‍പ്	5220
##ാക്	5221
ഉണ്ടായത്	5222
ചെയ്തിരിക്കുന്നത്	5223
കൈവശ	5224
സര്‍വേ	5225
കയറ്റ	5226
ഇദ്ദേഹം	5227
##മാണിത്	5228
##കേ	5229
##ിച്ചപ്പോള്‍	5230
രാധ	5231
##രാബ	5232
വാര്‍ഡ	5233
പരിപാടി	5234
ബാക്കി	5235
##ലൈന	5236
##ൂരി	5237
മാതാ	5238
രാജീവ്	5239
കേസെടുത്ത	5240
##ിക്കുന്നതാണ്	5241
നമ്മൾ	5242
പത്രിക	5243
കൈമാറിയ	5244
ചെയ്യുക	5245
കിഴക്ക	5246
ടീ	5247
വക്ത	5248
##പേ	5249
##കീയ	5250
##പ്പള്ള	5251
അവധി	5252
ആശുപത്രിയിലെ	5253
മഹാ	5254
തയ്യാറാക	5255
സംസാരിക്കുകയായിരുന്നു	5256
ഇരുപ	5257
സൈന്യ	5258
ലോക്ക്ഡ	5259
##ക്കാൻ	5260
സാം	5261
##ാളം	5262
##ിച്ചതെന്നും	5263
ആളുകളെ	5264
ഇത്തരത്തില്‍	5265
മല്‍സ	5266
68	5267
##ിയുമായ	5268
##ുമൊക്കെ	5269
പ്രതികളെ	5270
എന്തായാലും	5271
മണിയോടെ	5272
രാജിവ	5273
വെറ	5274
ജയരാജ	5275
ജൂൺ	5276
ഇരട്ട	5277
ഡൽഹി	5278
##ല്ലാതെ	5279
കുള	5280
സുധ	5281
പരസ്പ	5282
വിശ്വ	5283
രംഗത്തെത്തിയിരുന്നു	5284
ഒട്ടേറെ	5285
ഒരുമിച്ച്	5286
##ീണ	5287
##ാമി	5288
##ികള്‍ക്കും	5289
സംഘപരി	5290
സംശയം	5291
റെയിൽ	5292
##ണോ	5293
##ത്‌	5294
വീഴ്ച	5295
അവഗണ	5296
എത്തുന്ന	5297
മൊഴ	5298
സർട്ടിഫ	5299
ഇസ്ല	5300
##ാനിരിക്കുന്ന	5301
നടന്‍	5302
##ങ്ങൾക്കും	5303
രോഗികളുടെ	5304
##ക്‌സി	5305
കഴിയും	5306
അതിനാല്‍	5307
പൊതുജന	5308
തകര്‍ന്ന	5309
ദിലീപിന്റെ	5310
പിടികൂടിയ	5311
64	5312
ഇനിയ	5313
താൽ	5314
റെയ്	5315
##ക്സി	5316
ആരോ	5317
ഡിവി	5318
അഭിമാന	5319
മുന്‍ക	5320
വഴിയ	5321
വൃത്ത	5322
സ്കൂള	5323
തൃണമൂല്‍	5324
ധാര	5325
##ഷണ	5326
പ്രകാര	5327
പുത	5328
##ങ്ങളുടെയും	5329
ജീവിതത്തില്‍	5330
മലയാളി	5331
വിദേശത്ത്	5332
ലോക്സഭ	5333
രോഗബാധിത	5334
സുഹൃത്തുക്കള	5335
72	5336
മട്ട	5337
##ിക്കേണ്ടത	5338
##ിച്ചിട്ടുള്ള	5339
##നുസരിച്ച്	5340
ക്ഷേമ	5341
കര്‍ഷകര്‍	5342
ആസ്ഥാന	5343
എടുത്ത്	5344
എനിക്ക	5345
ഹരിയ	5346
##നയ	5347
##ബാ	5348
പ്രസിദ്ധ	5349
സമ്പര്‍ക്കത്തിലൂടെ	5350
ദൃശ്യങ്ങള്‍	5351
##ളുടെ	5352
##ഹ്‌	5353
കൊട	5354
കൊള്ള	5355
##ുണ്ടാകും	5356
ഡോക്ടര്‍	5357
മന്ത്രാലയ	5358
റിപ്പോര്‍ട്ടില്‍	5359
ഇസ്രായേല്‍	5360
ജ്യോതി	5361
63	5362
##ഗം	5363
നിങ്ങള്‍ക്ക്	5364
വ്യക്തമല്ല	5365
ഉറവിട	5366
ബാധിത	5367
തലസ്ഥാന	5368
തടസ്സ	5369
ന്യൂസ്	5370
അടിസ്ഥാനത്തില്‍	5371
ഫേസ്ബുക്കില്‍	5372
ഗൂഢാലോചന	5373
ഡല്‍ഹ	5374
ലാല	5375
##നവ	5376
സുന	5377
വിമാനം	5378
നടന്നു	5379
എഴുതിയ	5380
ലക്ഷ്യമിട	5381
##ാരായണ	5382
##തയും	5383
##േക്കാം	5384
നാട്ടുകാര	5385
നേരിടുന്ന	5386
ധനമന്ത്രി	5387
ഗതാഗത	5388
ാം	5389
##െണ്ണ	5390
##ോറ	5391
##പ്പെട്ടിരുന്നു	5392
പരാതിയില്‍	5393
198	5394
##ർശന	5395
അധ്യക്ഷൻ	5396
കരാര്‍	5397
നില്‍ക്കുന്ന	5398
ഘട്ടത്തില്‍	5399
ചുറ്റ	5400
പിതാവ്	5401
നിമിഷ	5402
പ്രവൃത്തി	5403
ഡെപ്യൂട്ടി	5404
പുറപ്പെടുവ	5405
കരി	5406
വില്ല	5407
##വർക്ക	5408
##കന	5409
##ഡ്‌	5410
സീറ്റുകള	5411
ഗുണം	5412
ആദിത്യ	5413
വിലയിരുത്തല്‍	5414
ഇയാളെ	5415
##ഫ്രിക്ക	5416
ലൈംഗിക	5417
ആസൂ	5418
ഗള്‍	5419
വില്‍	5420
##ന്‍റ്	5421
പുഴ	5422
കമല്‍	5423
യുഡിഎഫിന്	5424
നിറഞ്ഞ	5425
##ങ്ങളിലായി	5426
ഹര്‍ജ	5427
ആവ	5428
പിയുടെ	5429
മക്കള	5430
##ഡിപി	5431
യുപി	5432
വര്‍ഷത്തെ	5433
എസ്‌	5434
ഫില	5435
##ര്‍ജി	5436
##െടുക്കും	5437
##രാശ	5438
ഡോക്ടർ	5439
യുവാവ്	5440
##ക്കൊള്ള	5441
##രുടേയും	5442
ഹൈദരാബ	5443
ഡീസ	5444
##കൻ	5445
##..	5446
ഭാരവാഹ	5447
##േഷനില്‍	5448
അത്തരം	5449
ക്രൈംബ	5450
##്മെന്റ്	5451
ഓൺ	5452
ഞാന	5453
##ഡെ	5454
സീറ്റുകൾ	5455
മാർച്ച്	5456
##േരിയ	5457
##ികളെയും	5458
എന്നിവരുടെ	5459
##ിച്ചതാണ്	5460
അധികൃതർ	5461
മധ്യപ്രദേശ	5462
ബജറ്റ്	5463
വടകര	5464
ക്രൈംബ്രാ	5465
##വൈ	5466
##സഹ	5467
##ങ്ങളായ	5468
##മ്മേള	5469
##ാർക്ക്	5470
വെക്ക	5471
ഇടയ	5472
സംഘര്‍ഷ	5473
മരുന്ന	5474
കൗണ്‍സില	5475
നാഗ	5476
പ്രക്ഷോഭ	5477
കേന്ദ്രീകര	5478
##ങ്ങളെല്ലാം	5479
ഇറങ്ങിയ	5480
തുടങ്ങിയത്	5481
രംഗത്തെത്തി	5482
സംവര	5483
അതായത്	5484
##പ്രകാരം	5485
ആശ്ര	5486
##ഭാഗം	5487
അതിഥ	5488
മുരളീധരന്‍	5489
മാതാപിത	5490
69	5491
ചിര	5492
##്യന്‍	5493
സ്‌പെ	5494
ലോകക	5495
രേഖപ്പെടുത്ത	5496
കമന്റ	5497
ഓണ്‍ലൈന്‍	5498
ഉരു	5499
##ിക്കുമെന്ന	5500
##ുമുന്ന	5501
നേതാവും	5502
എന്നിവയാണ്	5503
കാലാവധി	5504
ക്യാമറ	5505
ആന്ധ	5506
സയ	5507
##ണിവ	5508
അനുമ	5509
##ാത്തത്	5510
ട്രാ	5511
അപകടം	5512
താമസിക്കുന്ന	5513
ഇഡി	5514
റേ	5515
##ര്‍ഭ	5516
അധി	5517
2014	5518
ഫോറ	5519
കത്ത്	5520
ഭീ	5521
##ക്കണക്കിന്	5522
##ദ്മി	5523
പലപ്പോഴും	5524
തോറ്റ	5525
ബിജെപിയും	5526
തീരുമാനിച്ചത്	5527
അതിക്രമ	5528
സൈന്യം	5529
ചൂണ്ടിക്കാട്ട	5530
ആസ	5531
ഇംഗ്ല	5532
##ൃഗ	5533
പ്രതിദിന	5534
അറിയില്ല	5535
##ഷ്ഠ	5536
പ്രത്യേകം	5537
ജയിലില്‍	5538
##er	5539
##ീകരണം	5540
അല്ലെങ്കിൽ	5541
ദുബായ്	5542
നിർദ്ദേശം	5543
ചെയ്‌ത	5544
അഴിമതി	5545
പ്രോസിക്യൂ	5546
ഇന്ധന	5547
മതി	5548
##ോടിയ	5549
##വിളി	5550
##ുന്നതിൽ	5551
ശ്രീന	5552
##ായിരിക്കണം	5553
നഷ്ടപ്പെട്ട	5554
ശിവശങ്ക	5555
കർഷക	5556
പാര്‍ലമെന്റ	5557
മൊബൈല്‍	5558
##ുരു	5559
##‌ഐ	5560
അറിയിച്ചിട്ടുണ്ട്	5561
എത്തുന്നത്	5562
ഇടപെട്ട	5563
സാധിക്കില്ല	5564
തട്ടിപ്പ	5565
രാമചന്ദ്ര	5566
മുല്ലപ്പള്ളി	5567
സാന്നിധ	5568
താന	5569
##ീനം	5570
##ിയം	5571
കാണാത	5572
ബാധിച്ച	5573
ലൈസ	5574
##സിക്യൂട്ട	5575
in	5576
ആന്റ്	5577
പാട്ട	5578
ഫ്‌ള	5579
മൗ	5580
##ഹ്മ	5581
##ാക്കണം	5582
വിജില	5583
ഉത്തർ	5584
പിന്തുട	5585
നമ്പര്‍	5586
ഫ്ല	5587
##ുമുട്ട	5588
ഇടം	5589
കമ്മ്യൂണി	5590
ഹര്‍ജി	5591
കശ്മീര	5592
61	5593
##റിലെ	5594
##ിയിലാണ്	5595
##ന്ദര്‍	5596
വരെയാണ്	5597
കോണ്‍ഗ്രസും	5598
മേല്‍	5599
തൃശൂർ	5600
സര്‍വീസ	5601
ന്യൂഡല്‍ഹി	5602
##ിങ്	5603
##േവ	5604
യോഗത്തിൽ	5605
##എസ്എ	5606
യാദവ്	5607
സന്ദേശ	5608
എൽഡിഎഫ്	5609
ഗൗരവ	5610
നാം	5611
##ർത്ത്	5612
കുത	5613
##ിയുടെയും	5614
രൂപയ	5615
ത്ത	5616
കിലോ	5617
ഇടി	5618
##മെന്നും	5619
##ക്കല്‍	5620
##ിലുള്ളത്	5621
##ിവാസ	5622
സംസ്ഥാനം	5623
പ്രതികള്‍	5624
##ിക്കാനാവ	5625
മാധ്യമങ്ങള്‍	5626
രീതി	5627
ശ്രദ്ധേയ	5628
സ്‌കൂള്‍	5629
പരസ്യമായി	5630
പുരോഗമ	5631
പൂര്‍ണമായും	5632
ചെയര്‍മാന്‍	5633
##യെയും	5634
##ുവരെ	5635
##ഫ്റ്റ്	5636
ഡോക്ട	5637
മത്സരാർത്ഥ	5638
വിശദമായ	5639
റെയില്‍വേ	5640
അച്ച	5641
അനി	5642
##െയുടെ	5643
ബിഎ	5644
സ്ഥാനത്തേക്ക്	5645
ചേർന്ന്	5646
സര്‍ക്കാരിനെ	5647
പ്രവേശനം	5648
എറണാകുള	5649
പുറത്തിറക്കിയ	5650
പടിഞ്ഞ	5651
ഭർത്ത	5652
യുക	5653
നിരന്തരം	5654
സമീപം	5655
തരംഗ	5656
ഇന്റര്‍	5657
ഹരിയാന	5658
ഐടി	5659
ചാല	5660
##യത്ത്	5661
##ുഖ	5662
##വൻ	5663
##സ്തു	5664
##റ്റാണ്ട	5665
നിങ്ങളെ	5666
മാത്യ	5667
##ാന്‍ഡ്	5668
ഇതെല്ലാം	5669
തുടർച്ച	5670
കുറവ്	5671
##ളിഞ്ഞ	5672
നേതൃത്വത്തിൽ	5673
അതിജീവിത	5674
പാടില്ല	5675
അയാള	5676
എപ്പോഴും	5677
യും	5678
##ാത്ര	5679
##ഷണം	5680
കൃഷി	5681
ജാതി	5682
ജോർജ്	5683
സ്ട്ര	5684
##ഗമ	5685
വീട്ടിലേക്ക്	5686
##ശ്രീ	5687
സതീശന്‍	5688
ഇക്കുറ	5689
നാമ	5690
രവ	5691
##ര്യം	5692
##ഐഎ	5693
സ്വാഗ	5694
ചെയ്യുകയും	5695
സാധ്യമ	5696
ശ്രമിച്ച	5697
പിടിച്ചു	5698
മുൻപ	5699
ഡാറ്റ	5700
##രാണ്	5701
##ഹ്ല	5702
കൊണ്ടുപോക	5703
##ാരംഭ	5704
പ്രകടന	5705
ആണെന്ന്	5706
ഹാജരാക	5707
ഇവരില്‍	5708
ഗൗ	5709
പത്മ	5710
ശ്	5711
##ടത്ത്	5712
##തല്ല	5713
##ങ്ങുന്ന	5714
പ്രതിയെ	5715
##ില്ലെങ്കില്‍	5716
വീതവും	5717
തീരുമാനിച്ചു	5718
ഇതോടെയാണ്	5719
സുരക്ഷിത	5720
ആന്‍ഡ്	5721
##ിള്‍	5722
##ദിവ	5723
പ്രക	5724
##ാമെന്ന	5725
ആരംഭിച്ചത്	5726
അടിസ്ഥാനത്തിലാണ്	5727
നിയന്ത്രണങ്ങള്‍	5728
പാർട്ടിയുടെ	5729
##ത്തറ	5730
##ിയ്	5731
വിവേ	5732
മുട്ട	5733
വീഴ	5734
കൈവര	5735
എന്തിനാണ്	5736
സുരക്ഷി	5737
സ്വാധീനം	5738
74	5739
ഹമ	5740
##ദാസ്	5741
##ിനേയും	5742
കോണ്‍ഗ്രസിനെ	5743
പിൻവല	5744
കാമ	5745
##ക്കൾ	5746
നിങ്ങൾക്ക്	5747
മാപ്പ്	5748
തുടരും	5749
കേരളത്തിന്	5750
സ്‌പ	5751
വളര	5752
നോക്കി	5753
രാശി	5754
##ൈലജ	5755
കോര്‍പ്പറേഷന്‍	5756
രാധാക	5757
അപ്പോള്‍	5758
##al	5759
##െയർ	5760
##വര്‍ക്കും	5761
വാങ്ങി	5762
##യ്ക്കുള്ള	5763
ലോകത്തെ	5764
നെട	5765
##ബ്ലിക്	5766
66	5767
##്ലാ	5768
സിഎ	5769
ജനകീയ	5770
##േറ്റര്‍	5771
കൊണ്ടുവ	5772
##ിട്ടില്ലെന്നും	5773
സ്ത്രീകള്‍	5774
വയസ്സുള്ള	5775
##ാനിയ	5776
##തമാണ്	5777
##ത്തിലധികം	5778
##സ്പെ	5779
വിദേശകാര്യ	5780
പോരാട്ടം	5781
ഇടതുമുന്ന	5782
67	5783
അസ്	5784
##രാൻ	5785
##നിര്‍	5786
കെകെ	5787
##യിലായിരുന്നു	5788
##ംബര	5789
ശതമാനവും	5790
ഗുരുതരമായ	5791
ഡിജിറ്റ	5792
മയക്കുമ	5793
ചര	5794
##ശാല	5795
##ാണെങ്കിലും	5796
പ്രവാ	5797
##ോടെയാണ്	5798
##ഴ്‌സ്	5799
##്വാനം	5800
താരതമ	5801
പോലീസിന്	5802
അമരീ	5803
അബുദ	5804
അറ്റ	5805
സന്ന	5806
##വിൽ	5807
##ത്രെ	5808
##ിപ്പിക്കുന്നു	5809
##രാജന്‍	5810
കുറച്ച	5811
രൂപം	5812
എന്നിവരും	5813
കോടതിയ	5814
റിപ്പോർട്ടുകൾ	5815
ഡയറക്ടര്‍	5816
മിഥു	5817
71	5818
##ിക്കുള്ള	5819
##ട്‌	5820
സ്വദേശികളായ	5821
നൽകാൻ	5822
ക്കു	5823
വിഭാഗത്തില്‍	5824
പ്ലാ	5825
തട്ടിപ്പ്	5826
സംഭാവന	5827
അങ്ക	5828
ലഹരി	5829
ലക്ഷദ്വ	5830
സഹിതം	5831
പ്രധാനപ്പെട്ട	5832
നിർബന്ധ	5833
തുടങ്ങിയവ	5834
##ായിരം	5835
ഈട	5836
ശര്‍മ	5837
##കി	5838
##ാന്‍ഡ	5839
എന്നിവരെ	5840
##ത്തിലെത്ത	5841
മലയാളം	5842
പുനഃ	5843
ഏര്‍പ്പെടുത്തിയ	5844
നന്നായി	5845
ശാര	5846
##ാഥ	5847
സംയു	5848
മറ്റും	5849
പാലാ	5850
പോകാന്‍	5851
##രുതെന്നും	5852
പഠനം	5853
നാട്ടുകാര്‍	5854
77	5855
അലി	5856
ഇമ	5857
ഉത്	5858
പൈ	5859
##ക്തിയ	5860
##ാനില്‍	5861
##രംഭ	5862
ക്രൂ	5863
##ുതന്നെ	5864
സൗകര്യം	5865
ഭേദഗതി	5866
റൂമ	5867
അഗ്	5868
##ിലെയും	5869
##ങ്ങും	5870
പരിസര	5871
കൂടിയായ	5872
തകര്‍ക്ക	5873
വാര്‍ത്തകള്‍	5874
ഡിസംബര്‍	5875
വിഷ്ണു	5876
##മാവ	5877
##േശ്വര	5878
##ക്ക്‌	5879
സ്വഭാവ	5880
ആയിരിക്കും	5881
കൊണ്ടു	5882
സ്‌ക	5883
സ്‌നേഹ	5884
വോട്ടെടുപ്പ്	5885
മാര്‍ക്ക	5886
ബാലകൃഷ്ണ	5887
സത്യപ്രതി	5888
പുനര	5889
##ശേഖര	5890
മുദ്രാവ	5891
ഓഗസ്റ്റ്	5892
85	5893
##വാര്‍	5894
##ഹാര്‍	5895
##സ്ത്ര	5896
##വിറ്റി	5897
തിരു	5898
മുഖേന	5899
എന്നിവർ	5900
തോല്‍	5901
മാധ്യമപ്രവര്‍ത്ത	5902
##ഹമ്മദ	5903
മോഹൻ	5904
##േണ്ടതുണ്ട്	5905
യഥാര്‍ത്ഥ	5906
വാക്‌സിനേഷന്‍	5907
അട്ടിമറ	5908
അബ	5909
##നായിരുന്നു	5910
ഉണ്ടാക്കിയ	5911
ശ്രമിക്കുന്നത്	5912
വോട്ടര്‍	5913
##െടുക്കാന്‍	5914
##ിലൂടെയാണ്	5915
യൂണിവ	5916
പൂർണ്ണ	5917
ഇവിട	5918
കച്ചവ	5919
നാദ	5920
ബല	5921
ശരിക്കും	5922
##ാഘ	5923
##ുമല്ല	5924
പിടിച്ച്	5925
രാജ്യങ്ങളില്‍	5926
ലക്ഷണ	5927
കഴിവ	5928
സ്ഥിരീകരിച്ച്	5929
എന്തുകൊണ്ട്	5930
മണ്ഡലത്തിലെ	5931
മഹാമ	5932
അല്ലാതെ	5933
രംഗത്തെത്തിയ	5934
തെറ്റായ	5935
വേഗത	5936
ഇളവ്	5937
കായിക	5938
##ിടെ	5939
##ലുകൾ	5940
##ൻസി	5941
##ാണെങ്കിൽ	5942
വിറ്റ	5943
പുസ്ത	5944
മുഖം	5945
##ക്കാരുടെ	5946
യുവാക്കള	5947
ഫോര്‍	5948
വൈകിട്ട്	5949
ആഗസ്റ്റ്	5950
നിര്‍ദ്ദേശം	5951
ഹൃദയ	5952
സീനിയര്‍	5953
കുര	5954
പുത്ത	5955
##സിനോട്	5956
പ്രവർത്തകർ	5957
സേവനം	5958
ദുരിതാ	5959
അഗ	5960
ഇരി	5961
ഖാന്‍	5962
മില്യ	5963
##േറ	5964
##ിലായത്	5965
അതീവ	5966
##ാളി	5967
##ഡിറ്റ്	5968
##്യൂട്ട്	5969
കോടതിയുടെ	5970
താഴ്	5971
ഹൈക്കമാന്‍	5972
കിലോമീറ്റര്‍	5973
നെഗറ്റീവ്	5974
പ്രശാന്ത്	5975
##ന്‍സി	5976
വിഡി	5977
മുറിയ	5978
രാജ്യസഭാ	5979
##ിക്കുന്നതെന്നും	5980
സുപ്രധാന	5981
വിമർശനം	5982
റിയാസ്	5983
ബീഹാറ	5984
താലൂക്ക്	5985
അശ്വ	5986
ഫണ്ട്	5987
##െന്നുമാണ്	5988
##ത്തിനാണ്	5989
കാണുന്ന	5990
ജെഡിയ	5991
##മാറ്റ	5992
പ്രവർത്തനങ്ങൾ	5993
സത്യപ്രതിജ്ഞ	5994
സജി	5995
##ഹം	5996
വേറെ	5997
തമ്മിൽ	5998
പീഡന	5999
ഭരണകൂടം	6000
താത്പര	6001
വൈകീട്ട്	6002
സദ	6003
##നീയ	6004
##ഷോ	6005
പേർക്ക	6006
കുറ്റം	6007
എന്നിങ്ങനെയാണ്	6008
ഉമ്മൻ	6009
ശുഭ	6010
രൂക്ഷമായ	6011
അശോക്	6012
ദുരിതാശ്വാസ	6013
ആവേശ	6014
മഞ്ഞ	6015
മരുന്ന്	6016
##ന്മാര	6017
##ിട്ടു	6018
##ുണ്ടാവും	6019
ചെയ്തിര	6020
സുരേഷ	6021
കടന്നു	6022
കല്യ	6023
വൈകുന്ന	6024
വിപുല	6025
മുകേഷ്	6026
ഒമ്പത്	6027
പാന	6028
ഹോട്ട്	6029
##വ്യ	6030
##ന്‍റെ	6031
ആരാണ്	6032
##വേള	6033
ഏറ്റുമുട്ട	6034
ആരംഭിച്ചു	6035
പോളിംഗ്	6036
രാധാകൃഷ്ണ	6037
എകെ	6038
ശൈലജ	6039
##ുകി	6040
തിരുത്ത	6041
##പ്‌	6042
കാണാൻ	6043
ഇതിനോട	6044
കോടിയേരി	6045
പരിശീലനം	6046
വെബ്‌	6047
അക്ഷ	6048
നാശ	6049
ഷാജ	6050
##േഡിയ	6051
##ജീ	6052
##ിയോഗ	6053
കോര്‍	6054
അടിച്ച	6055
ഉള്‍പ്പടെ	6056
ടെക്‌	6057
നേരിടേണ്ടി	6058
തെറ്റിദ്ധ	6059
ജമ്മു	6060
ചട്ട	6061
##ക്കൂട്ട	6062
##ങ്ങളോ	6063
##ാവിന്റെ	6064
പോര	6065
##ിരിക്കെ	6066
തെരുവ	6067
##ിച്ചതിനെ	6068
പരിഹസ	6069
300	6070
അൽ	6071
##യാണെന്ന്	6072
##ുള്ളൂ	6073
##ദ്വേഷ	6074
സംരംഭ	6075
##ിപ്പിക്കാൻ	6076
##വരെയും	6077
##നിർ	6078
ലോകം	6079
പെട്രോള	6080
പരമ്പ	6081
നാലാം	6082
ബ്രാ	6083
ഷാജി	6084
അക്കാദ	6085
ഗെയിം	6086
ആന്റി	6087
ഡൗണ്‍	6088
റാല	6089
##പത്ര	6090
##ാറിയ	6091
##ർഥ	6092
##ല്ലി	6093
##സംഘടന	6094
##മിറ്റ	6095
ഉപഭോക്ത	6096
ആയിരുന്ന	6097
വിലക്ക	6098
##ിക്കുന്നതെന്ന്	6099
സീറ്റുകളില്‍	6100
ഇത്തവണയും	6101
73	6102
രാജേഷ്	6103
പ്രതിഫല	6104
എത്തിയിരുന്നു	6105
ഇറാന്‍	6106
പോലീസിന്റെ	6107
നേട്ടങ്ങള്‍	6108
##എഫ്ഐ	6109
അംഗീകാരം	6110
മുകളില്‍	6111
##ഡിൽ	6112
പ്രയ	6113
അതുകൊണ്ടാണ്	6114
കാര്യമായ	6115
പറയാൻ	6116
##രിക്കുന്നത്	6117
രാഹുലിന്റെ	6118
കണക്കുകള്‍	6119
കുറഞ്ഞത്	6120
പെണ്‍കുട്ടി	6121
##ുമ്പോഴാണ്	6122
തേജ	6123
##ശു	6124
##ാവുന്നതാണ്	6125
##ാകുന്ന	6126
ചെയ്യണം	6127
ആവശ്യമാണ്	6128
##ോളി	6129
നടത്താൻ	6130
നിർദേശം	6131
ടെസ്റ്റ	6132
പുറത്തുവര	6133
പ്രദേശത്ത്	6134
വീടുകളില്‍	6135
സൈബര്‍	6136
##ിച്ചേക്കും	6137
ബോധ്യ	6138
ഡോളര്‍	6139
തമിഴ്‌നാട്	6140
വക്താവ്	6141
##ബറ	6142
##ങ്ങളൊന്നും	6143
വാടക	6144
##ാഗ്	6145
എല്ലാവര്‍ക്കും	6146
ഉണ്ടായിരുന്നത്	6147
കുടിയേറ്റ	6148
വമ്പ	6149
##േയാണ്	6150
##ത്തെക്കുറിച്ച്	6151
##പ്രദ	6152
##ക്കാലിക	6153
വിചാര	6154
സെന്ററ	6155
##ൊഴില	6156
പോസിറ്റീവ്	6157
ഭരണകൂട	6158
എഞ്ചിനീയ	6159
ഗ്ല	6160
പികെ	6161
##മില്ലാത്ത	6162
##ാക്കുകയും	6163
മുണ്ട	6164
സ്വാഭ	6165
##ഴിഞ്ഞു	6166
##കുളം	6167
വിജയിച്ച	6168
സുപ്രീംകോടതി	6169
ആംബ	6170
##ത്തേയും	6171
##വിത	6172
പേജ	6173
നിന്നെത്തിയ	6174
മുന്നോടിയ	6175
ചിലർ	6176
മുന്‍പ	6177
ആരംഭിച്ച	6178
സത്യം	6179
04	6180
##ന്മാർ	6181
കേന്ദ്രമന്ത്രി	6182
##പരിഹ	6183
ചെലവ്	6184
കമ്മീഷൻ	6185
തള്ളിയ	6186
ഗെല	6187
കേന്ദ്രസർക്കാർ	6188
ഉറവിടം	6189
##ാകര	6190
##ഫിയ	6191
##ാനു	6192
ഇതുമായി	6193
കുറിച്ചും	6194
വന്നിട്ടുണ്ട്	6195
##ിക്കുന്നതും	6196
രണ്ടാമ	6197
അതിവേ	6198
കുട്ടിയെ	6199
##പോലെ	6200
ആനുകൂല	6201
സ്വര്‍ണവില	6202
സിവില്‍	6203
വെറുത	6204
##സിക്യൂട്ടീവ്	6205
ഇതിനോടകം	6206
ശത്ര	6207
##റുക്ക	6208
##ുണ്ടായത്	6209
ഉണ്ടാവും	6210
കാര്യത്തിൽ	6211
##ളിത്	6212
കോൺഗ്രസിന്റെ	6213
അതിശ	6214
ലോകത്ത്	6215
രക്ഷപ്പെട	6216
വ്യത്യസ്	6217
പ്രസിദ്ധീകര	6218
ഉളള	6219
പമ്പ	6220
വേഷ	6221
##പ്പട	6222
ന്നു	6223
ആളാണ്	6224
പ്രശ്നം	6225
കുട്ടികളുടെ	6226
ലീഡ്	6227
സ്വന്തമാക്ക	6228
വർഷത്തെ	6229
ചോദ്യത്തിന്	6230
##വീന	6231
##ില്ലേ	6232
ചെയ്യപ്പെട്ട	6233
ഉണ്ടെന്ന്	6234
ഉപകരണ	6235
ദിവസമാണ്	6236
ദില്ലിയില്‍	6237
ജില്ലകളിലും	6238
ചാനല	6239
സന്തോഷം	6240
##ാധികാര	6241
ബഹു	6242
ലഖ്	6243
##ാന്യ	6244
##വിക	6245
പ്രസ്ഥാന	6246
##റ്റ്‌	6247
ഏറ്റെടുത്ത	6248
പ്രഖ്യാ	6249
സ്ഥിരീകരിച്ചിട്ടുണ്ട്	6250
നേതാവാണ്	6251
##ത്തിനുള്ളില്‍	6252
പ്രചരണം	6253
ആംബുല	6254
ആൻഡ്	6255
എട	6256
കർശന	6257
മര്‍ദ്ദ	6258
##മെന്ന	6259
##ീൽ	6260
##ക്ല	6261
##ാരോഗ്യ	6262
##ുവീ	6263
അതുകൊണ്ട	6264
##ത്സവ	6265
ചികിത്സയില്‍	6266
ദിനം	6267
ചരിത്രം	6268
##ക്കാർക്ക്	6269
ചടങ്ങില്‍	6270
##കാശ്	6271
തീയതി	6272
വെബ്‌സൈ	6273
കൗ	6274
കഠ	6275
ചങ്ങ	6276
പണമ	6277
ശുപ	6278
##രേഖ	6279
##കമായ	6280
##സ്ഥിതി	6281
സുഖ	6282
ഉദ്യോഗാര്‍ത്ഥ	6283
അപേക്ഷിക്കാം	6284
സന്ദേശം	6285
പൈലറ്റ	6286
ശങ്ക	6287
##നവ്	6288
കുറിച്ചുള്ള	6289
##ക്കെതിരായ	6290
##യ്ക്കു	6291
സാഹചര്യമ	6292
ആഗ്രഹിക്കുന്ന	6293
പ്രായം	6294
ഗോവിന്ദ	6295
കസ്റ്റഡിയിലെ	6296
99	6297
ആവര്‍ത്ത	6298
ഗുണ്ട	6299
നാണ്	6300
ഫൈന	6301
##ത്തോ	6302
##ല്ലാത്ത	6303
രാജസ്ഥാന്‍	6304
കാര്യങ്ങളും	6305
നിർണായക	6306
പ്രതീക്ഷിക്കുന്നത്	6307
ഓഫീസില്‍	6308
മണിക്കൂറിനിടെ	6309
എത്രയും	6310
വസ്ത്ര	6311
സമ്മേളനം	6312
76	6313
എക്‌സ	6314
നായക	6315
##ർമാർ	6316
##ച്ചിരുന്നു	6317
ഡിസിസി	6318
ഇപ്പോഴി	6319
##െയ്ക്ക	6320
കഴിയില്ല	6321
ഇത്തരത്തിൽ	6322
അഭ്യര്‍ത്ഥ	6323
ഖത്തര്‍	6324
യോജ	6325
എസ്പി	6326
കൗൺ	6327
##ഡറ	6328
##ിക്കായി	6329
സര്‍ക്കാറ	6330
പ്രവർത്തിക്കുന്ന	6331
##മുണ്ടായ	6332
ഉറപ്പാണ്	6333
അടിസ്ഥാനത്തിൽ	6334
സേവന	6335
##നടപ	6336
രോഹിത്	6337
ആസൂത്ര	6338
78	6339
നാണ	6340
ശൈ	6341
##ിച്ചുകൊണ്ട	6342
##ിപ്പിക്കും	6343
##റിഞ്ഞ്	6344
ജനസംഖ്യ	6345
ചോദിക്കുന്നു	6346
ജീവന്‍	6347
കുട്ടികളെ	6348
പ്രത്യേകിച്ച്	6349
പ്രിയപ്പെട്ട	6350
രജിസ്റ്റർ	6351
കാലാവസ്ഥാ	6352
##വിന്ദ്	6353
എങ്ങനെയാണ്	6354
മിക്ക	6355
##പാദ	6356
##വാർ	6357
##ഡിയില്‍	6358
തുടരുമ	6359
എംബ	6360
വേട്ട	6361
നീട്ട	6362
പ്രഖ്യാപിച്ചിട്ടുണ്ട്	6363
തുറന്നു	6364
അടക്കമുളള	6365
പാമ്പ	6366
##ാലിറ്റി	6367
സംരക്ഷണ	6368
ഹോം	6369
പ്രമേയം	6370
രഹസ്യ	6371
ക്രൈംബ്രാഞ്ച്	6372
പാക്ക	6373
ലും	6374
##രുന്ന	6375
##തന	6376
##ന്‍പ	6377
##ണമെങ്കില്‍	6378
ജനങ്ങള്‍ക്ക്	6379
##ന്റെയും	6380
പ്രധാനമായും	6381
സാധ്യതയുള്ള	6382
തയ്യാറെ	6383
കുട്ടികള്‍	6384
ഉദ്യോഗസ്ഥർ	6385
എംഎല്‍എമാര്‍	6386
നിയമസഭയില്‍	6387
എഴുതി	6388
ഇയാളുടെ	6389
ക്വാറന്റൈന	6390
വിദ്വേഷ	6391
##െയിൽ	6392
കേൾ	6393
അതും	6394
##സിസ്	6395
##ത്സാഹ	6396
വിജയിച്ചത്	6397
##ത്തേക്ക	6398
മിശ്ര	6399
പഞ്ചായത്തിലെ	6400
ചർച്ചകൾ	6401
##ുനിക	6402
ബംഗാള്‍	6403
ദേവസ്	6404
ഉച്ചയ്ക്ക്	6405
യെല്ലോ	6406
കുറവാണ്	6407
##നിന്നും	6408
കൊട്ടാര	6409
ഇക്കുറി	6410
83	6411
ദമ്പ	6412
ദ്വ	6413
ബിന്ദ	6414
##യെന്നും	6415
ഡിഎം	6416
##ഗ്ന	6417
വോട്ടെണ്ണ	6418
പൂര്‍ണ്ണ	6419
സുധാകരൻ	6420
ബഹുമാന	6421
സർവീസ്	6422
വഞ്ച	6423
##നഷ്ട	6424
##ടിവി	6425
പറയാന	6426
ജോണ്‍	6427
##ിക്കാനായി	6428
മേൽ	6429
കഴിയുന്നത്	6430
ചൂണ്ടിക്കാട്ടിയ	6431
സാമ്പിളുകളാണ്	6432
ഏജൻസ	6433
ഓളം	6434
ചുവ	6435
ദയ	6436
പൈസ	6437
മജി	6438
റിമ	6439
##െതിര	6440
##രംഗ	6441
##സ്ഥല	6442
നടത്തുകയും	6443
വേണ്ടത്	6444
197	6445
കണക്കുകൾ	6446
അതിനു	6447
പൈലറ്റ്	6448
പരസ്പരം	6449
ഉല്‍പ്പ	6450
കട്ട	6451
##സാധ	6452
##ിക്കുമ്പോൾ	6453
##ിച്ചുകൊണ്ട്	6454
ആര്	6455
##ാതെയാണ്	6456
നിരാശ	6457
##പ്പെടുകയും	6458
ഭാഗം	6459
കുടുംബാംഗ	6460
തടഞ്ഞ	6461
മാധ്യമങ്ങളോട്	6462
പ്രത്യേകത	6463
റിക്ര	6464
കണ്ടെത്താന്‍	6465
വേളയില്‍	6466
ഇപ്പോഴിതാ	6467
94	6468
നു	6469
നാടക	6470
വയ്ക്ക	6471
##രോധ	6472
##ചക	6473
മാറും	6474
രാജേന്ദ്ര	6475
അഭ്യൂ	6476
പ്രവര്‍ത്തകര	6477
വോട്ടുകൾ	6478
ദുര്‍	6479
##ിനുള്ളില്‍	6480
ഇൻസ്റ്റ	6481
ഏപ്രിൽ	6482
കാസർഗോഡ്	6483
അതോറിറ്റി	6484
##ഫറ	6485
##es	6486
##രാഷ്ട്ര	6487
അനധിക	6488
ജനപ്രത	6489
തെക്ക	6490
##ബന്ധന	6491
നാലു	6492
നിരീക്ഷണത്തില്‍	6493
ശതമാനമാണ്	6494
പുലര്‍ച്ച	6495
സഞ്ചാര	6496
കണ്‍ട്രോള്‍	6497
കഠിന	6498
ദേവസ്വം	6499
അജിത്	6500
##ന്‍റ	6501
സംസ്	6502
ആശംസ	6503
വിളിച്ച	6504
എഴുത	6505
അര്‍ഹ	6506
ദളിത്	6507
രവി	6508
ശരാശ	6509
ഷായ	6510
##ത്താന്‍	6511
പ്രി	6512
##റ്റുകള്‍	6513
വിഹിത	6514
##വിഷ	6515
##ിരിക്കണം	6516
##ിലേറെ	6517
##ലിശ	6518
രോഗലക്ഷ	6519
വന്നാല്‍	6520
ഉപരോധ	6521
##ത്തിലെത്തിയ	6522
രണ്ടും	6523
സ്റ്റേറ്റ്	6524
2015	6525
ആവശ്യപ്പെട്ടത്	6526
വികസനം	6527
പരാജയപ്പെട്ട	6528
അഖിൽ	6529
ഒരാളെ	6530
തെരഞ്ഞെടുപ്പില്‍	6531
ഇറക്കുമതി	6532
ക്രിസ്ത്യ	6533
രഞ്	6534
##ന്മാര്‍	6535
##ിക്കരുത്	6536
പ്രോഗ്ര	6537
##ുടെയും	6538
##ല്ലെന്നും	6539
##റിഞ്ഞു	6540
മലബ	6541
കോളജ	6542
ഒറ്റപ്പെട്ട	6543
വ്യാപകമായി	6544
ആര്‍ക്കും	6545
ഘട	6546
##ടിച്ചു	6547
##യേ	6548
##ുച	6549
##വ്യൂ	6550
##ിച്ചിരുന്നില്ല	6551
##ന്‍ഷന്‍	6552
പുറത്തെ	6553
##ിരുന്ന്	6554
##െയ്‌	6555
പരിഹാര	6556
വ്യക്തിയാണ്	6557
വകഭേദ	6558
പകര്‍	6559
##വത്	6560
##ജിനീയ	6561
##ാണ്ഡ	6562
കുട്ടിയുടെ	6563
നൽകിയിട്ടുണ്ട്	6564
മന്ത്രിയുടെ	6565
ഗണേഷ്	6566
സന്തോഷ്	6567
മറികട	6568
ഓണ	6569
ഭരിക്കുന്ന	6570
വെടിയ	6571
വര്‍ഗീയ	6572
ഭാഗ്യം	6573
പലയിട	6574
മോച	6575
രജിസ്ട്ര	6576
യഥാർത്ഥ	6577
ഏഷ്യാനെ	6578
ഇറ്റ	6579
ഇളവ	6580
കഷ്ട	6581
ഡൊ	6582
##്യവും	6583
അതു	6584
##േണ്ടതാണ്	6585
ഇന്ത്യയെ	6586
വളര്‍ച്ച	6587
2011	6588
ഇതിനകം	6589
##രുടെയും	6590
നവംബര്‍	6591
ഹെല്‍	6592
വേഗം	6593
വെല്ലുവിളി	6594
ഇക്കഴിഞ്ഞ	6595
ചാര്‍	6596
##രുക്ക	6597
ആര്യ	6598
സർക്കാരിന്	6599
##ലാത്സ	6600
താലിബാന്‍	6601
ഇസ്ലാമ	6602
കരിയ	6603
##ൈൻ	6604
##ക്രാ	6605
##ിക്കര	6606
##ിക്കോ	6607
##െന്നത്	6608
വ്യോമ	6609
##റ്റിംഗ്	6610
കേസുകളാണ്	6611
വിലക്ക്	6612
നിലവിലുള്ള	6613
ഇല്ലാതെ	6614
കോളേജില്‍	6615
ഇന്റർ	6616
ചൗഹ	6617
82	6618
അഹമ്മദ്	6619
ഇട്ട	6620
ഫണ്ട	6621
##ാപ്പ	6622
##ദീപ്	6623
##ൃഹ	6624
##ാക്കോ	6625
##ുവെന്നാണ്	6626
ഇതൊക്കെ	6627
കൂട്ടിയ	6628
സ്ഥി	6629
##വാസമ	6630
ഒന്നര	6631
കഴിയാത്ത	6632
അധ്യക്ഷത	6633
##ക്കുറിച്ചും	6634
ജീവിതത്തിൽ	6635
##ിക്കേണ്ടി	6636
പരിഹാരം	6637
നിലപാടാണ്	6638
പരിപാടിയില്‍	6639
പ്രമേയ	6640
രം	6641
##മംഗലം	6642
##ൂപ്	6643
##ിക്കൊപ്പം	6644
##ാൻഡ്	6645
തീര്‍	6646
സ്വീകരിച്ചത്	6647
ഉത്തരവിട്ട	6648
##ച്ചിത്ര	6649
പോസിറ്റീവ	6650
പടിഞ്ഞാറ	6651
പ്രകോപ	6652
തനിക്ക	6653
ദശ	6654
ബാര	6655
ലിറ്റ	6656
##മയ	6657
##്യത്തില്‍	6658
##ികൊ	6659
വരാന്‍	6660
ക്കാ	6661
നേരിയ	6662
കുറ്റകൃ	6663
പ്രായമുള്ള	6664
വ്യത്യസ്ത	6665
പരാമര്‍ശം	6666
ലാഭം	6667
കിരീ	6668
ഇന്‍സ്റ്റിറ്റ	6669
കരാറ	6670
ആദ്മി	6671
സൊ	6672
##വാര	6673
##ക്കര്‍	6674
മുനി	6675
നടൻ	6676
##ാധ്യമ	6677
അത്ഭ	6678
ലഭ്യമാക്ക	6679
വരികയാണ്	6680
അന്നത്തെ	6681
##സ്പ്രസ്	6682
ആശ്രയ	6683
ഒതു	6684
ജനം	6685
പങ്ക്	6686
##ന്ദേ	6687
രാം	6688
വാക്ക്	6689
##ജ്‌	6690
വേണമെന്ന്	6691
##സ്‌റ്റ	6692
ലക്ഷ്മി	6693
##ബ്ബ	6694
ദിവസങ്ങളിൽ	6695
സിനിമയില്‍	6696
സിനിമയുടെ	6697
എന്നിങ്ങനെ	6698
പ്ലസ്	6699
ലോക്‌സഭ	6700
യുദ്ധം	6701
മറികടക്ക	6702
പകു	6703
##റായി	6704
##സ്ട	6705
പ്രകൃ	6706
നടിയെ	6707
##ിട്ടാണ്	6708
ലോകാര	6709
സ്ഥലത്തെ	6710
പറ്റിയ	6711
കൊലപാതകം	6712
വിരമ	6713
89	6714
84	6715
##ംശ	6716
##ന്തി	6717
പ്രോട്ടോ	6718
##ാകുമെന്ന്	6719
ഇന്ത്യാ	6720
ആശുപത്രികളില്‍	6721
നല്‍കിയിരിക്കുന്നത്	6722
##ുപോയി	6723
##യായും	6724
വാര്‍ത്താ	6725
##ട്രോൾ	6726
അറസ്റ്റിലായ	6727
##ക്കിടയില്‍	6728
88	6729
ആവർത്ത	6730
എസ്പ	6731
ഫിന	6732
##ിന്റ്	6733
പ്രളയ	6734
##ല്ലൂര്‍	6735
##ുറപ്പ	6736
##ുന്നതിനെ	6737
കുറച്ചു	6738
സാധിച്ചു	6739
ബെംഗളൂരു	6740
അക്കാര	6741
തട്ടിയ	6742
നാരായണ	6743
ബില്യ	6744
മാണ	6745
കെഎം	6746
ഡിംപ	6747
##ിക്കുന്നതിനുള്ള	6748
ആശുപത്രിയിലേക്ക്	6749
കളക്ടർ	6750
##ക്കുറിച്ചുള്ള	6751
##ീകൃത	6752
അഖില്‍	6753
ഡൽഹ	6754
##റെയ	6755
##ത്തിര	6756
##ങ്ങളുണ്ട്	6757
##റിയാം	6758
##ിക്കുന്നതിനായി	6759
##േതര	6760
ഡയറക്ടറ	6761
##ൊക്കെയാണ്	6762
അധിക്ഷേപ	6763
81	6764
പലിശ	6765
##ാട്ട്	6766
##റുമ	6767
##ള്‍പ്പെടെ	6768
##ുണ്ടെന്നാണ്	6769
##ികൾക്കും	6770
##വാദം	6771
പൂഞ്ഞ	6772
സ്പെ	6773
കുഞ്ഞാല	6774
പിടികൂട	6775
നിലനിൽക്ക	6776
തമിഴ്നാട്	6777
മുനിസിപ്പ	6778
ലോകാരോഗ്യ	6779
വര്‍ക്ക	6780
##ളും	6781
##സാണ്	6782
##േന്ത്യ	6783
പോസിറ്റി	6784
##ിപ്പിച്ചിരുന്നു	6785
##റിംഗ്	6786
2000	6787
വിശ്വാസം	6788
##മുഖ്യമ	6789
അരവിന്ദ്	6790
കേന്ദ്രസര്‍ക്കാര്‍	6791
പ്രവാസി	6792
86	6793
കഞ്ച	6794
ബദ	6795
##തയുടെ	6796
##ത്തുന്ന	6797
##ത്തൂര്‍	6798
##ുന്നതെന്നാണ്	6799
ലഭിക്കുന്നത്	6800
##ാറില്‍	6801
രാഷ്ട്രപതി	6802
ബോര്‍ഡ്	6803
സ്ഥാപനങ്ങള്‍	6804
ജയരാജന്‍	6805
ഭാരത	6806
ജീവനക്കാര്‍	6807
മണിക്കൂറിൽ	6808
വാക്സിന്‍	6809
##ീര്‍ഘ	6810
ചെലവഴ	6811
കേള്‍ക്ക	6812
400	6813
ആശ്വാസ	6814
കല്‍പ്പ	6815
ള്ള	6816
##ഷണല്‍	6817
##ര്‍ണ	6818
##്യങ്ങള്‍	6819
##ട്ടാണ്	6820
പിക്ക്	6821
പൊട്ടി	6822
##ഷ്യൽ	6823
വർഗീയ	6824
##ൻ്റ്	6825
##യോര	6826
അതിനാൽ	6827
കാസര്‍കോട്	6828
ത്രി	6829
##ാനാവില്ല	6830
ചലച്ചിത്ര	6831
ടീച്ച	6832
ശാരീര	6833
##സ്ത്രക്രിയ	6834
അടുത്ത്	6835
ഇങ്ങനെയ	6836
ചുഴ	6837
ധൈ	6838
മരിക്ക	6839
##േരം	6840
##ജൻ	6841
##ുകു	6842
##ാനന്തര	6843
പിന്നിൽ	6844
എന്നിവയുടെ	6845
##ൂരപ്പ	6846
ചേര്‍ത്ത	6847
പലത	6848
മോഷ്ട	6849
അവസാനം	6850
ടിവി	6851
ഉത്തരവ	6852
അപകടത്തില്‍	6853
അംബാനി	6854
നടപ്പിലാക്ക	6855
പെരുമാറ്റ	6856
വസ്തുത	6857
പ്രധാനമന്ത്രിയുടെ	6858
വയസുള്ള	6859
സന്നദ്ധ	6860
91	6861
തകര	6862
തരം	6863
നദ	6864
##ാനുളള	6865
എന്നത	6866
##ാലം	6867
അതിര	6868
##ക്തമായ	6869
ബന്ധപ്പെട	6870
പ്രശ്നങ്ങൾ	6871
ഓഫീസർ	6872
പാര്‍ട്ടിക്ക്	6873
കരാർ	6874
ലൈഫ്	6875
നയതന്ത്ര	6876
##ലക്ഷം	6877
ഭര്‍ത്താവ്	6878
തുടര്‍ച്ചയായി	6879
പാർലമെന്റ	6880
അടുക്ക	6881
ഞ്	6882
ദീര്‍ഘ	6883
മായ	6884
മഞ്ച	6885
റിപ്പ	6886
##മോദ	6887
##ലിലെ	6888
##എസ്‌	6889
##ാനായിരുന്നു	6890
##ാംശ	6891
രാജ്യങ്ങള്‍	6892
രേഖകള്‍	6893
പൊലീസിന്	6894
ലോക്സഭാ	6895
അഖിലേഷ്	6896
സ്വാഭാവിക	6897
പോസിറ്റിവിറ്റി	6898
##സു	6899
##ിക്കുമോ	6900
##ച്ചും	6901
നിഷ	6902
##ുകളുമായി	6903
കുറിച്ച	6904
കാണുന്നു	6905
കടന്ന്	6906
ഉത്തരം	6907
മന്ത്രിയ	6908
##ലൈൻ	6909
മനോരമ	6910
പ്രഖ്യാപിച്ച്	6911
95	6912
##ാഖ	6913
##വിയ	6914
##കത്ത്	6915
##ദാസ	6916
##ത്തീസ്	6917
##ുപുഴ	6918
##സിനും	6919
അയക്ക	6920
തയ്യാറാക്കിയ	6921
കഥാപ	6922
മടങ്ങിയ	6923
ഒടുവിൽ	6924
പന	6925
മൃഗ	6926
ശസ്ത്രക്രിയ	6927
##രൂപ	6928
##നോട്	6929
##എച്ച്	6930
##ജ്യ	6931
##ിക്കാറ	6932
##പ്പിന്റെ	6933
##ാര്‍ഡ്	6934
കേസുകളില്‍	6935
##യാളാണ്	6936
മേഖലകള	6937
ബോര്‍ഡ	6938
അയാൾ	6939
ആലുവ	6940
##ായിട്ടും	6941
##ുവരിക	6942
കോടിയുടെ	6943
പശ്ചാത്തലത്തിൽ	6944
സ്വർണ്ണ	6945
സർവീസ	6946
96	6947
92	6948
റവ	6949
##റുകൾ	6950
സംസ്‌	6951
പുറത്തേക്ക്	6952
കണക്കാക്ക	6953
നാട്ടിലേക്ക്	6954
അകലം	6955
ചെയ്യാം	6956
അഞ്ചു	6957
അക്കൗണ്ട്	6958
ചികിത്സയിലുള്ളത്	6959
ജലനിര	6960
പാർട്ടിയിൽ	6961
ലക്ഷ്യമിടുന്നത്	6962
##ൊഴിലാള	6963
79	6964
ബിന	6965
##ധാവ	6966
##പ്പാട	6967
##ണ്ഠ	6968
##യ്ക്കാണ്	6969
കോൺഗ്രസിൽ	6970
നേതൃത്വത്തിന്	6971
എന്തുകൊണ്ടാണ്	6972
ആരോപിക്കുന്നു	6973
ഉത്തരാ	6974
സമ്പാദ	6975
കസ്റ്റഡിയില്‍	6976
വേഗത്തില്‍	6977
അരങ്ങ	6978
അഫ്ഗാനി	6979
ആഹ്വാനം	6980
ധാരാളം	6981
സംയുക്ത	6982
അദ്ധ	6983
അസമ	6984
ആവി	6985
ഭക്ത	6986
##െല്ല	6987
##തിക	6988
##ോറിയ	6989
##ടിസി	6990
പറഞ്ഞാല്‍	6991
ചെയ്യുന്നുണ്ട്	6992
തോതില്‍	6993
ആര്‍എസ്എസ്	6994
ശുക്ര	6995
പ്രോത്സാഹ	6996
കാഞ്ഞിര	6997
ഉം	6998
ഓറ	6999
യുടെ	7000
##ർഭ	7001
പിള്ള	7002
##കരമായി	7003
##ിലേയും	7004
##ബന്ധിച്ച്	7005
സ്‌കോ	7006
വയസ്	7007
ബാധ്യത	7008
ആദ്യമ	7009
ആക്രമിച്ച	7010
ഉറപ്പുവ	7011
##്യമായാണ്	7012
വിവാദം	7013
ഫോണില്‍	7014
ഒക്ടോബര്‍	7015
അനുമതിയ	7016
സ്വാഗതം	7017
##ോജ	7018
##ത്തിനിട	7019
##പ്പൂ	7020
##സ്ഥാൻ	7021
##ജെഡി	7022
##ഡിംഗ്	7023
കേസുമായി	7024
സർക്കാറ	7025
പ്രദേശങ്ങളില്‍	7026
രോഗമുക്ത	7027
##ാതിരുന്ന	7028
##കേരള	7029
സല	7030
##ശോധ	7031
##ജിന	7032
##ത്തീകര	7033
##ാനന്ദ	7034
സുനില്‍	7035
അംഗങ്ങള്‍	7036
##ബിൻ	7037
മണ്ഡലങ്ങളില്‍	7038
പാഠ	7039
തിള	7040
പവന്‍	7041
സിദ്ദി	7042
ഒമൈ	7043
അതിഥി	7044
എന	7045
ദൈ	7046
ദ്ര	7047
നയം	7048
പുക	7049
പാസ്	7050
വള്ള	7051
##യാണെന്നും	7052
##മറിയ	7053
##ീത്	7054
പ്രണ	7055
പ്രകാശ്	7056
##്യമില്ല	7057
##ുകളില	7058
സമഗ്ര	7059
വരുന്നു	7060
##ടക്കമുള്ള	7061
##ാപുര	7062
ക്ക്	7063
തിരിച്ചറിഞ്ഞ	7064
അതിര്‍ത്തിയ	7065
തയ്യാറാവ	7066
ഒരാഴ്ച	7067
##ക്കിടെ	7068
പ്രസാദ്	7069
വോട്ടി	7070
ഫൈസ	7071
ളി	7072
##പുഴ	7073
##പ്പിൽ	7074
##ടുത്തെ	7075
ചെയർമ	7076
കൊന്ന	7077
##ിച്ചതായും	7078
##യ്ക്കിടെ	7079
മെട്രോ	7080
വയനാട്ട	7081
ഗുരുവ	7082
നൽകിയിരുന്നു	7083
കൊലപ്പെടുത്തിയ	7084
##ഘടനാ	7085
##ബ്ല്യു	7086
മുന്നേറ്റം	7087
മയക്കുമരുന്ന്	7088
ജനപ്രതിനിധ	7089
ഉറ്റ	7090
നാസ	7091
##ഫോമ	7092
##സിറ്റ്	7093
##ിനെതിര	7094
വേണമെന്ന	7095
ക്രിക്കറ്റ്	7096
കണ്ണൂരില്‍	7097
ദില്ലിയിലെ	7098
സർവ്വേ	7099
സന്ദീപ്	7100
##ാബാദ്	7101
ബൈക്ക	7102
വെച്ചാണ്	7103
അധ്യാപക	7104
ഹൗസ്	7105
അർഹ	7106
എഎപി	7107
രവീന്ദ്ര	7108
ഉത്തരാഖ	7109
97	7110
##ന്തിര	7111
വീഴ്	7112
ജനപ്ര	7113
##ലിസ്റ്റ്	7114
ഇടവേള	7115
മലപ്പുറ	7116
പ്രവർത്തനം	7117
വിഷമ	7118
ആക്രമിക്കപ്പെട്ട	7119
##ിവെച്ച	7120
പരീക്ഷണ	7121
റിപ്പോർട്ടിൽ	7122
പ്രതിയായ	7123
പാള	7124
##വിഭാഗ	7125
##ണ്ഡ്	7126
ലഭിക്കുക	7127
വന്നതോടെ	7128
ഉപാധ	7129
നഷ്ടപരിഹ	7130
എന്നിങ്ങന	7131
കസ്റ്റംസ്	7132
പദ്ധതികള്‍	7133
ചികിത്സയിലായിരുന്ന	7134
ഉമ്മന്‍ചാണ്ട	7135
ഫേസ്ബുക്കിൽ	7136
ചട	7137
വന്ദേ	7138
സ്ര	7139
##ാക്ക്	7140
##സണ്‍	7141
##ഭാര	7142
##ാകാര	7143
##ാമെന്നാണ്	7144
സംഘർഷ	7145
പാലം	7146
അയോധ	7147
വൈകാതെ	7148
ക്ഷമ	7149
സിപിഎമ്മിന്റെ	7150
ഡയറക്ടർ	7151
അജയ്	7152
മോഹന്‍ലാല്‍	7153
ദമ്പത	7154
ഓക്സി	7155
വില്‍ക്ക	7156
##ളിത	7157
##വല്‍	7158
##ധാനം	7159
എന്നുള്ള	7160
എന്നതും	7161
ചിങ്ങ	7162
മരണമ	7163
കീഴില്‍	7164
നിൽക്കുന്ന	7165
ഹർജ	7166
##ുക്ക്	7167
##സല	7168
അനൂപ്	7169
കേരളത്തെ	7170
##പ്പെടുത്താൻ	7171
പോകാൻ	7172
തലശേരി	7173
ഇതുവര	7174
വീടിന്	7175
നടപടിയെടുക്ക	7176
ആരാധകര്‍	7177
##ല്‍ക്കത്ത	7178
ആരോഗ്യമന്ത്രി	7179
ശശീന്ദ്ര	7180
ടാസ്	7181
ലയ	7182
ഹേമ	7183
##കുന്ന	7184
##ഡും	7185
##പ്പും	7186
എന്നിട്ടും	7187
വരെയും	7188
##ത്തിച്ച്	7189
##ടുത്തു	7190
സൗത്ത്	7191
ഗുരു	7192
ഉദ്യോഗസ്ഥരെ	7193
##ക്കിയത്	7194
എടുത്തു	7195
അസുഖ	7196
കരുതുന്നു	7197
##ുന്നുണ്ടെന്നും	7198
##ശാന്ത	7199
ബിരുദം	7200
ഒളിവ	7201
ഗള്‍ഫ്	7202
ആണ്‍	7203
ഗംഭ	7204
ഹൂ	7205
സംഭാഷ	7206
പേരെയാണ്	7207
വിദ്യാർഥ	7208
അഭിപ്രായപ്പെട്ടു	7209
പങ്കുവച്ച	7210
ശരിയായ	7211
ഡിസംബർ	7212
ശേഖര	7213
നിമിഷം	7214
വരുത്തിയ	7215
പെരുമ്പ	7216
നാഷണല്‍	7217
##ത്തീസ്ഗ	7218
അയോധ്യ	7219
തുര	7220
ഫയ	7221
##ിപ്പുറ	7222
ആരെങ്കിലും	7223
വീട്ടിലെ	7224
മുഖ്യമന്ത്രിയെ	7225
വര്‍ഷമായി	7226
പ്ലാറ്റ്	7227
സ്വര്‍ണക്ക	7228
##യോടെയാണ്	7229
നിര്‍മ്മാണ	7230
##ാന്യം	7231
ബന്ധുക്കള്‍	7232
റിലീസ്	7233
ജഡ്ജി	7234
വൈകുന്നേരം	7235
ആഴ	7236
സസ്‌പെ	7237
##പാ	7238
##നാട	7239
##നുമായ	7240
##സിയുടെ	7241
സിസി	7242
സാധിച്ചില്ല	7243
സെറ	7244
##റ്റിക്	7245
##ികളുടെയും	7246
സംസാരിച്ചു	7247
രേഖപ്പെടുത്തിയത്	7248
##ിച്ചിട്ടും	7249
##എഫ്‌ഐ	7250
അഭ്യർത്ഥ	7251
കാട്ടാന	7252
എൽഡിഎഫ	7253
പതാക	7254
ജ്യോതിഷ	7255
റവന്യ	7256
87	7257
ക്യൂ	7258
നൈ	7259
##യുട	7260
##സേ	7261
##ഡിന്റെ	7262
പേര്‍ക്ക	7263
സ്ഥിരം	7264
എത്തും	7265
കൃഷ	7266
തയ്യാറായില്ല	7267
മുഖ്യമന്ത്രിയും	7268
ലിമിറ്റ	7269
പക്ഷം	7270
അടുപ്പ	7271
മഹാരാഷ്ട്രയില്‍	7272
##ക്കടത്ത്	7273
അമ്പല	7274
ജലനിരപ്പ്	7275
ഞാനും	7276
ഭര	7277
വംശ	7278
##ക്ഷൻ	7279
##ഗ്രാമ	7280
##മായാണ്	7281
തിരഞ്ഞെടുത്ത	7282
ക്രി	7283
150	7284
എല്ലാവർക്കും	7285
പട്ടികയിൽ	7286
##ിക്കൊണ്ട്	7287
##ഷ്‌കര	7288
കാർഷിക	7289
അത്തരമൊരു	7290
സംഗീത	7291
മുന്നോടിയായി	7292
ആഡ	7293
ഉത്ര	7294
കും	7295
മകള്‍	7296
സന	7297
കോഴ	7298
ബിഹാറ	7299
അനുപ	7300
ലഭിച്ചിരുന്നു	7301
ഉപയോ	7302
മറ്റൊരാ	7303
മേധാവ	7304
പ്രത്യക്ഷ	7305
ടെലി	7306
##ഗണന	7307
##മോഹ	7308
ഉന്നയിച്ച	7309
കുഞ്ഞിനെ	7310
വ്യക്തമാക്കിയിട്ടുണ്ട്	7311
നായര്‍	7312
മൂല്യം	7313
ശബ്ദം	7314
അഡ്മ	7315
##ുപി	7316
##െന്ത	7317
##വീ	7318
##നത്തെ	7319
##ക്സ	7320
##ന്നൂർ	7321
വേണ്ടിയുള്ള	7322
ചോദിച്ച	7323
ജെഡിഎ	7324
അറിവ	7325
പ്രഖ്യാപിച്ചിരുന്നു	7326
ചിത്രങ്ങൾ	7327
ശക്തമാണ്	7328
ഭരണഘടനാ	7329
മഴയ്ക്ക്	7330
മത്സരിക്കുന്നത്	7331
ഹെലിക	7332
വാഗ്ദാന	7333
എതിരാള	7334
ഫിറോ	7335
കണക്കിലെടുത്ത്	7336
ആൾ	7337
ആപ്പ്	7338
ചത	7339
ലുല	7340
വശ	7341
##ടത്തും	7342
##യുമാണ്	7343
##ൊല	7344
##ൻഷൻ	7345
##ിക്കട	7346
സമാജ്	7347
ഇതിനെതിരെ	7348
ബിഷ	7349
##ാമായിരുന്നു	7350
നീങ്ങ	7351
##യെല്ലാം	7352
മാറ്റങ്ങള്‍	7353
യുവതിയുടെ	7354
ഇറങ്ങി	7355
##മുണ്ടായിരുന്നു	7356
##േക്കാൾ	7357
മുൻക	7358
തുടരുന്ന	7359
പ്ലാന്‍	7360
എടുത്തത്	7361
നരേന്ദ്രമോദ	7362
നിലനിര്‍ത്ത	7363
പ്രാധാന്യം	7364
മാസ്	7365
##ുകയായിരുന്ന	7366
പൊന്ന	7367
വേണ്ടിയ	7368
വിശദമായി	7369
ചുമത്തിയ	7370
ഉയര്‍ന്നു	7371
എതിര്‍പ്പ	7372
നിശ്ചിത	7373
ബംഗാളില്‍	7374
അപ്രതീക്ഷി	7375
ഒത്തു	7376
മസ്	7377
ള്‍	7378
##ിനാഥ	7379
പറമ്പ	7380
##സിഡ	7381
കഴിഞ്ഞാല്‍	7382
സ്വദേശിന	7383
ഉപമുഖ്യമ	7384
പരിശോധിച്ച്	7385
നേതൃത്വത്തിന്റെ	7386
തിരിച്ചെത്ത	7387
പുറത്താക്ക	7388
മണിക്കൂര്‍	7389
രേഖപ്പെടുത്തി	7390
വായിക്കാം	7391
##ിട്ടുണ്ടെന്ന്	7392
തെളിവുകള്‍	7393
ജന്മ	7394
##ടങ്ങിയ	7395
##യറ്റ	7396
##റാത്ത	7397
##ോം	7398
പ്രീ	7399
കൊള	7400
തിരച്ച	7401
##വരിൽ	7402
##കാരിക	7403
ബിജെപിയ	7404
മേഖലകളില്‍	7405
##മുണ്ടാക	7406
##േക്കുമെന്നാണ്	7407
സൈബർ	7408
അധികാരത്തില്‍	7409
##കാലം	7410
വാക്കുകള്‍	7411
ഉദാഹ	7412
മീറ്റര്‍	7413
ഗൃഹ	7414
മംഗ	7415
##വിന്റെ	7416
##േണ	7417
##ൻറെ	7418
പ്രയോഗ	7419
മാർക്ക	7420
കൊല്‍ക്കത്ത	7421
##ുന്നതായും	7422
ആരെയും	7423
തുടര്‍	7424
വാഴ	7425
നല്‍കണം	7426
##ൊരുക്ക	7427
സുന്ദ	7428
സംഭവിച്ചത്	7429
ഗ്രാം	7430
##സ്തവ	7431
തിരിച്ചുവര	7432
##ർന്നു	7433
പ്രദേശ്	7434
നഷ്ടം	7435
കത്തയ	7436
സ്പീക്കര്‍	7437
ഏരിയ	7438
ഐശ്വര	7439
ഗര്‍ഭ	7440
##മറി	7441
##ിയന്‍	7442
##ാരും	7443
പോള്‍	7444
തിരി	7445
##സിംഗ്	7446
എംവി	7447
##കാലത്ത്	7448
പോരാട	7449
ഫെഡറ	7450
കാർഡ്	7451
സമ്മേളനത്തില്‍	7452
തെരഞ്ഞെടുപ്പിൽ	7453
ട്വീറ്റ	7454
കിടില	7455
അന്തരീക്ഷ	7456
ഓട്ടോ	7457
മാത്യു	7458
ചുഴലിക്ക	7459
ഓക്‌സി	7460
ഗാസ	7461
##ജോ	7462
##്പ്പ	7463
പ്രിന്‍	7464
##ിനെയാണ്	7465
##ല്ലൂർ	7466
കൂറുമ	7467
##പിസി	7468
##ിലേറ്റ	7469
സെന്‍	7470
ലൈന്‍	7471
ജൂനിയ	7472
ഏതാനും	7473
പെൺകുട്ടി	7474
പാര്‍ലമെന്റ്	7475
മഹാമാര	7476
പുസ്തക	7477
താപ	7478
വാണി	7479
##ലുള്ള	7480
##ഭാ	7481
##ക്കൽ	7482
പ്രയോ	7483
##ാലിന്റെ	7484
##ിവാര	7485
പിജെ	7486
സ്വീ	7487
##ുകളുണ്ട്	7488
##ികളോട്	7489
പൊളി	7490
മാത്രമായിരുന്നു	7491
ചിഹ്	7492
പലതും	7493
##തിനു	7494
##മുണ്ടെന്ന്	7495
സ്ത്രീയ	7496
വലിച്ച	7497
മുരളീധരൻ	7498
പ്രവചനം	7499
റദ്ദാക്ക	7500
വെറുതെ	7501
ശാരീരിക	7502
98	7503
ജ്വ	7504
തങ്ങൾ	7505
തോട്ട	7506
പണിയ	7507
വാല	7508
ഹാള	7509
##ഷറ	7510
##കക്ഷി	7511
##സുല	7512
##എൻ	7513
##േഴ്	7514
##ുവാന്‍	7515
##േഷന്റെ	7516
വാഷി	7517
##ുകൊടുക്ക	7518
കോൺഗ്രസ	7519
മേയര്‍	7520
കിഫ്	7521
നേതാവിനെ	7522
ഏകോപ	7523
##നീളം	7524
മൊബൈൽ	7525
വിപണിയില്‍	7526
##ഡിപിഐ	7527
ലഖ്‌ന	7528
തമ	7529
വു	7530
സുവ	7531
##ടിച്ച	7532
##നോട്ട	7533
##ബൂ	7534
പോലീ	7535
##ോളിവ	7536
മലയോര	7537
പോകും	7538
ബുക്ക്	7539
##ിലേക്കു	7540
##വുമില്ല	7541
##ാതിരിക്കാന്‍	7542
ദുരിത	7543
രോഗലക്ഷണ	7544
ആശ്	7545
##പു	7546
##പത്രം	7547
##മാക്കിയത്	7548
##am	7549
നിവ	7550
മുത്ത	7551
##ിട്ടത്	7552
വരവ്	7553
സംസ്ഥാനങ്ങളിൽ	7554
കുറഞ്ഞു	7555
സെല്‍	7556
വന്നപ്പോള്‍	7557
നടത്തുന്നു	7558
വയസ്സ്	7559
##മാറ്റം	7560
തയാറ	7561
ഉപയോഗിച്ച	7562
കലക്ടര്‍	7563
##ുമെന്നായിരുന്നു	7564
ഇടപെടല്‍	7565
##മില്ലാതെ	7566
##ിച്ചുവെന്നും	7567
ക്ഷണിച്ചു	7568
യുക്രൈന	7569
ഐപിഎല്ല	7570
ലഖ്‌നൗ	7571
ആസ്തി	7572
നറുക്ക	7573
വിന്യ	7574
##വഴ	7575
##ത്തുറ	7576
##പ്പു	7577
മുപ്പ	7578
##ങ്കര	7579
ഇതിനിട	7580
##ഴിച്ച്	7581
തെറ്റ്	7582
നിര്‍വഹ	7583
വര്‍ഗ	7584
നൽകുന്നത്	7585
ഭാഗമാണ്	7586
ആരോപിക്കുന്നത്	7587
അടയ്ക്ക	7588
മുമ്പാണ്	7589
നേതാവുമായ	7590
##പരിച	7591
നിരീക്ഷണത്തിലാണ്	7592
മകൻ	7593
ഭീഷണിയ	7594
ഇക്കാര്യത്തിൽ	7595
##ക്രോണ്‍	7596
മോഹൻല	7597
ഓറഞ്ച്	7598
അപ്ര	7599
ഉമ	7600
ഛത്തീസ്ഗ	7601
##ാഹി	7602
##താണെന്ന്	7603
##ഡ്ര	7604
എന്നൊക്കെ	7605
##ല്ലെന്ന്	7606
##ാവുന്നത്	7607
##ത്തിനൊപ്പം	7608
##ര്‍ന്നു	7609
ബോംബ	7610
ജീവൻ	7611
ഒഴിവ്	7612
ഉടനെ	7613
ശ്രീലങ്ക	7614
പ്രസംഗം	7615
അനുകൂലമായ	7616
ദൃശ്യങ്ങൾ	7617
അഭിഭാഷക	7618
ഗവർണർ	7619
പിടികൂടിയത്	7620
ചാർ	7621
ജുന	7622
##വാന്‍	7623
നടക്കുന്നുണ്ട്	7624
ആവശ്യപ്പെട്ടിട്ടുണ്ട്	7625
##ൻ്റ	7626
വാഹനങ്ങള്‍	7627
ഇതിനു	7628
കമന്റ്	7629
ആരോപണങ്ങള്‍	7630
ഫ്രണ്ട്	7631
കണ്ടെത്തിയിരുന്നു	7632
എന്നിവിടങ്ങളിൽ	7633
ശക്തിപ്പെടുത്ത	7634
സോണിയാ	7635
ബൂത്ത	7636
പിറന്ന	7637
##ാക്യം	7638
റെയിൽവേ	7639
സാന്നിധ്യം	7640
അഭ്യൂഹ	7641
ശരാശരി	7642
തറ	7643
ബോട്ട	7644
ബയോ	7645
ഹർജി	7646
##പിയുടെ	7647
മാള	7648
ഉണ്ടായി	7649
##ോളജ	7650
കേസിന്റെ	7651
സ്‌ഫോട	7652
പ്രതികരിച്ച്	7653
വിട്ടുന	7654
വഴിയാണ്	7655
തൊഴിലാളി	7656
സര്‍വകലാശാല	7657
പൊതുവ	7658
വീണാ	7659
മാനേജര്‍	7660
നിരീക്ഷണത്തിലുള്ളത്	7661
ബസ്സ	7662
മോട്ടോ	7663
##തയ	7664
##ല്	7665
##ങ്ങര	7666
പ്രേരി	7667
##ാവിനെ	7668
##സിച്ച്	7669
പറയാം	7670
##സംഘ	7671
നീള	7672
ക്വാ	7673
എസ്ഡിപിഐ	7674
മേയ്	7675
നോമിന	7676
മതേതര	7677
ആണെന്നും	7678
##ിക്കുകയാണെന്നും	7679
രാശിക്കാർക്ക്	7680
നമ്പർ	7681
##ത്തിനുള്ളിൽ	7682
തള്ളിക്ക	7683
മനസ്സിലാക്ക	7684
സീസണ്‍	7685
കിടന്ന	7686
ഹോട്ടല	7687
തിയേറ്റ	7688
പരാതിക്കാര	7689
സന്നി	7690
##ാബി	7691
##ണിക്ക	7692
പേർക്കും	7693
രാജു	7694
നൽകും	7695
കാര്യത്തിലും	7696
സൂപ്ര	7697
യുവതിയെ	7698
അതിജീവ	7699
ഗാന്ധിയെ	7700
അനുവദിക്ക	7701
സംഘടനയുടെ	7702
നവംബർ	7703
ഫലപ്രദ	7704
മധ്യപ്രദേശ്	7705
പതിവ	7706
സ്കൂൾ	7707
##ുകൂടി	7708
നെഗറ്റീവ	7709
ബൈഡന്‍	7710
സംവിധായകന്‍	7711
പ്രാധാന്യ	7712
ആരോപിച്ച്	7713
വില്‍പ്പന	7714
01	7715
ആരി	7716
ഒത്ത	7717
ബലാത്സ	7718
വണ്‍	7719
##ഗര്‍	7720
##ൾപ്പെടെ	7721
##ിപ്പിക്കുകയും	7722
##മ്മി	7723
ഇതൊരു	7724
അനിൽ	7725
ഡിപ്ല	7726
കോണ്‍ഗ്രസിലെ	7727
##ിച്ചിട്ടുണ്ടെന്നും	7728
സർക്കാരിനെ	7729
ബൈജു	7730
വാക്കുകൾ	7731
സ്വയംഭരണ	7732
നൂറ്	7733
പിരിച്ചു	7734
കുറ്റകൃത്യ	7735
അത്ഭുത	7736
ദൂര	7737
ദൈവ	7738
സുമ	7739
മാസ്‌ക്	7740
##മായിരുന്ന	7741
##മിത	7742
##ക്കാരായ	7743
സുനി	7744
സ്ഥാനാർഥ	7745
പലസ്ത	7746
ശ്രമിച്ചത്	7747
തിരിച്ചെത്തിയ	7748
കളമ	7749
ഉപയോഗിക്കുന്ന	7750
##ുളളത്	7751
##ുന്നതിനാല്‍	7752
അതിനുള്ള	7753
അസാധ	7754
റഷ്യന്‍	7755
അടിയന്തിര	7756
ഹോസ്പ	7757
ഗുജറാത്ത	7758
മനോജ്	7759
ചൂണ്ടിക്കാണിക്കുന്നു	7760
ജുഡ	7761
ബില്‍	7762
ഭഗ	7763
വിൽ	7764
##ിൻ്റെ	7765
##നെയും	7766
##േഴ്സ്	7767
##ദാര്‍	7768
##ത്തുന്നത്	7769
##പ്പൊ	7770
ബോർഡ്	7771
##പ്പെടുത്തിയിട്ടുണ്ട്	7772
ലോകത്തിലെ	7773
##വ്വം	7774
ഒറ്റക്കെട്ട	7775
##ിനുള്ളിൽ	7776
കീഴിലുള്ള	7777
##യ്‌ക്കെതിരെ	7778
കുമാറിന്റെ	7779
മീറ്റർ	7780
പച്ചക്ക	7781
സര്‍ട്ടിഫിക്കറ്റ	7782
അസ്വസ്ഥ	7783
ഇള	7784
ഓര്‍ഡ	7785
ഗവേഷണ	7786
ഡാമ	7787
നുണ	7788
മകര	7789
ഹു	7790
##പന	7791
##ോഷം	7792
##50	7793
##ക്വാ	7794
##പ്പുല	7795
##ുമാര്‍	7796
##ിനിര	7797
സ്മ	7798
മുടക്ക	7799
അവശ്യ	7800
അവലോ	7801
സംസ്ഥാനത്തിന്	7802
നിലയിലാണ്	7803
സംഘമാണ്	7804
രോഗവ്യാപ	7805
നടത്തുന്നുണ്ട്	7806
ഉയര്‍ത്തിയ	7807
##മുണ്ടായത്	7808
മത്സരത്തില്‍	7809
സ്ത്രീകൾ	7810
ബംഗാൾ	7811
തൊഴിലാളികള്‍	7812
എതിര്‍	7813
കൈമാറി	7814
ഓണ്‍ലൈന	7815
പങ്കാളിത്ത	7816
രംഗത്തുവന്ന	7817
മുദ്രാവാക്യം	7818
ഗ്യ	7819
ചാ	7820
മുകളിൽ	7821
സരി	7822
##നേത	7823
##േം	7824
##ുകയാണെങ്കില്‍	7825
##രാഘ	7826
മന്ത്രിസ്ഥാന	7827
സംഭവിച്ച	7828
##കര്‍ഷ	7829
തടസ	7830
ആരംഭിക്കും	7831
തുറമുഖ	7832
സ്വന്തമായി	7833
ബെഞ്ച	7834
##പരിശോധ	7835
നേടാന്‍	7836
സുഹൃത്ത്	7837
വിദ്യാര്‍ത്ഥികള്‍	7838
പതിവ്	7839
ഇടതുപക്ഷം	7840
മാറ്റിയത്	7841
സതീശൻ	7842
എങ്കില്‍	7843
ന്യൂഡൽ	7844
എന്‍സിപി	7845
സഞ്ജയ്	7846
ഡോക്ടര്‍മാര്‍	7847
കളി	7848
ദ്	7849
പൃ	7850
വന	7851
##സന്‍	7852
##ോയി	7853
പ്രകാശ	7854
##െയിന്‍	7855
##കരമാണ്	7856
##ാൻസ്	7857
ചെയ്യാനുള്ള	7858
കുറിച്ചത്	7859
സെപ്ത	7860
സംഘത്തെ	7861
കേസെടുക്ക	7862
##മേറ്റ	7863
ശേഷമുള്ള	7864
##ിക്കുന്നതിനിടെ	7865
പട്ടികജ	7866
മണിക്കൂറില്‍	7867
കാര്‍ഡ്	7868
അഞ്ചാം	7869
കമ്പനിയുടെ	7870
ജാമ്യ	7871
വെളിപ്പെടുത്തി	7872
##ബോധന	7873
വേണുഗോപാല്‍	7874
##ദിവസം	7875
തുകയ	7876
##ാണല്ലോ	7877
##പ്പിന്	7878
സംസ്ഥാനത്തിന്റെ	7879
കാര്യങ്ങളാണ്	7880
നേതൃത്വത്തെ	7881
##പ്പെടുത്തുന്ന	7882
##പ്പെടുത്തിയിരുന്നു	7883
മാനേജ്	7884
ബുദ്ധ	7885
ബ്രി	7886
റിസോ	7887
വിദ്യാഭ്യാസം	7888
സ്ഥാനാര്‍ഥി	7889
സെപ്റ്റംബര്‍	7890
ആധുനിക	7891
ചെറുപ്പ	7892
ചെയർമാൻ	7893
ഹോസ്പിറ്റ	7894
ഇബ്ര	7895
കപ	7896
##സ്വി	7897
##ാനിയുടെ	7898
##വിധി	7899
##ാവൂര്‍	7900
കെടി	7901
പ്രതിമ	7902
നിര്‍ത്തിയ	7903
അപല	7904
കാര്യവും	7905
പട്ടേ	7906
##ുകാരെ	7907
രൂക്ഷമായി	7908
സഹോദരി	7909
പുറത്തിറങ്ങ	7910
ബ്രിട്ടീഷ്	7911
മല്‍സര	7912
മദ്യം	7913
അതൃപ്തി	7914
ജുഡീ	7915
കന്ന	7916
കെയര്‍	7917
പള്ളി	7918
##ക്വ	7919
എന്നോട്	7920
##ടിയില്‍	7921
ജില്ലയിലും	7922
ലഭിച്ചിട്ടുണ്ട്	7923
ക്വ	7924
##ിടിച്ച	7925
കൊല്ലപ്പെട്ടത്	7926
കുട്ടികൾ	7927
അപേക്ഷിച്ച്	7928
പോലീസിനെ	7929
മത്സരിക്കാന്‍	7930
ഒരാളുടെ	7931
ഉദ്ധരിച്ച്	7932
കൊട്ടാരക്കര	7933
പുലര്‍ച്ചെ	7934
ഗുരുവായ	7935
കുംഭ	7936
ഗം	7937
തങ്ങള്‍ക്ക്	7938
രജ	7939
##െന്റ	7940
##ഡ്യൂ	7941
##ww	7942
സ്ഫോട	7943
##ാലെ	7944
##സ്ഥിര	7945
ഇതോടൊപ്പം	7946
സിം	7947
##ുണ്ടാക്ക	7948
വരാനിരിക്കുന്ന	7949
നല്‍കുക	7950
സെന്റ്	7951
കാണിച്ച്	7952
##ിക്കുന്നതിനും	7953
തിരുവല്ല	7954
##യ്ക്കല്‍	7955
പുതിയതായി	7956
കടല	7957
രാഷ്ട്രീയത്തില്‍	7958
ചിത്രീകര	7959
പ്രസിഡണ്ട്	7960
##പെട്ട	7961
ഒഴിവാക്കി	7962
തെളിവ്	7963
ലോക്ഡ	7964
പവന്	7965
റോബിന്‍	7966
രക്ഷാപ്രവര്‍ത്ത	7967
1000	7968
93	7969
ഐസി	7970
ഓഹരി	7971
പോപ്പുല	7972
##ികളില	7973
##ാതം	7974
നിയമന	7975
ഉപദേശ	7976
##ിക്കുന്നതിന	7977
സമ്പന്ന	7978
ഓഫി	7979
അതിര്‍ത്തി	7980
സര്‍വ്വേ	7981
മാധ്യമങ്ങൾ	7982
ശ്രദ്ധയില്‍	7983
പിണറായ	7984
പോലീസും	7985
മീഡിയയിൽ	7986
താമസം	7987
ഒരിക്കല്‍	7988
നിക്ഷേപം	7989
വ്യക്തിയ	7990
അജണ്ട	7991
ഒക്ടോബർ	7992
തുടർന്നാണ്	7993
തളിപ്പറ	7994
ബാക്കിയുള്ള	7995
ആന്ധ്ര	7996
പൊട്ടിത്തെ	7997
www	7998
ഓപ്പ	7999
ഓർമ്മ	8000
മില്ല	8001
സല്‍	8002
##ബിന	8003
##60	8004
##റ്റും	8005
##വിദ	8006
പോള	8007
##ഗ്രി	8008
അവൾ	8009
സംസ്ഥാനങ്ങളിലെ	8010
നിര്‍ത്തി	8011
മോഷണം	8012
മേടം	8013
യാത്രാ	8014
സംഘടിപ്പിച്ച	8015
കലാകാര	8016
വിശദാംശ	8017
ഓരോരുത്ത	8018
##ക്കേട	8019
സജീവമായി	8020
##ൊക്കെയ	8021
പെരുമാറ	8022
ഭാവി	8023
ഹരിത	8024
പൃഥ	8025
ആശ്വാസം	8026
കടുപ്പ	8027
ചെങ്ക	8028
ജാസ്	8029
ഫീസ്	8030
ബൗ	8031
##ാന്ത	8032
##ധാര	8033
##ങ്കിലും	8034
##ാകുന്നു	8035
വ്യക്തമാണ്	8036
##ാസമ്മേള	8037
##ബിള്‍	8038
താങ്ക	8039
തകർക്ക	8040
വിപണി	8041
ഔദ്യോഗികമായി	8042
കൊച്ചിയില്‍	8043
##രാമയ്യ	8044
##സ്‌ട്രേലിയ	8045
കിലോമീറ്റർ	8046
ഉത്തരവാദിത്തം	8047
സർട്ടിഫിക്കറ്റ	8048
ആഡംബര	8049
ഇന്ദിര	8050
##ക്കുട	8051
##ര്‍ഷം	8052
പറയും	8053
കൊടു	8054
##ുകളായി	8055
പ്രതികൾ	8056
വേണമ	8057
വന്നിരിക്കുന്നത്	8058
കൊണ്ടിരിക്കുകയാണ്	8059
ന്റെ	8060
കുടുംബത്തിന്	8061
പരിശോധനയില്‍	8062
ഹൈക്കോടതിയെ	8063
ധനസഹ	8064
കൗണ്‍സില്‍	8065
രാശിക്കാരുടെ	8066
പ്രകൃതി	8067
പ്രിന്‍സിപ്പ	8068
##ധിയ	8069
##ോണ്‍	8070
##ന്നും	8071
##ിലില്‍	8072
##്യങ്ങളും	8073
##വിവര	8074
##ുവെന്ന	8075
##ുണ്ടെങ്കില്‍	8076
വരുമ്പോള്‍	8077
വാട്	8078
##ക്കാരും	8079
രാജ്യങ്ങളും	8080
നടക്കുക	8081
ഡോക്ടറ	8082
ശ്രീധര	8083
പ്രവേശിപ്പിച്ചു	8084
കരുണ	8085
##പരിധി	8086
റിയാസ	8087
അഹ	8088
ഒടി	8089
ഒന്‍പ	8090
ജയ്	8091
വർക്ക	8092
##പേക്ഷ	8093
##ഞ്ഞത്	8094
##ുവാ	8095
##സംബോധന	8096
കേരളത്തിലേക്ക്	8097
സെക്യ	8098
ശേഷവും	8099
ചിറ്റ	8100
രണ്ടുപേ	8101
നിർമ	8102
ഒന്നിന്	8103
##ാദിത്യ	8104
സ്ഥലങ്ങളില്‍	8105
പാർട്ടിക്ക്	8106
നേതാവായ	8107
പൂര്‍ത്തിയാക്കി	8108
മടങ്ങി	8109
##മായിട്ടാണ്	8110
ബേബി	8111
യുപിയില്‍	8112
പാവപ്പെട്ട	8113
ഓടെ	8114
ഘട്ടം	8115
ചക്ര	8116
മർദ്ദ	8117
മഞ്ജു	8118
വണ്ട	8119
##ന്മാരുടെ	8120
##ുവാൻ	8121
##സ്ഥത	8122
നിയോജ	8123
##മാരാണ്	8124
ഭാഗങ്ങളില്‍	8125
സീറ്റിലും	8126
##ിട്ടില്ലെന്ന്	8127
##ൊന്നുമില്ല	8128
സഹായത്തോടെ	8129
തരൂര്‍	8130
മാസത്തെ	8131
എൻഡിഎ	8132
ഇത്തരത്തിലുള്ള	8133
ഭീഷണ	8134
പിടിച്ചെടുത്ത	8135
ഒട്ടും	8136
ഗവണ്‍	8137
ഉത്തര്‍പ്രദേശ	8138
പ്രതികരണവുമായി	8139
കോർപ്പറേഷൻ	8140
ഏഷ്യാനെറ്റ്	8141
കഥാപാത്ര	8142
ചായ	8143
ഫസ്റ്റ്	8144
സായി	8145
##മുട	8146
##െത്തും	8147
##ഡര്‍	8148
എന്നറിയ	8149
##റിയും	8150
കുതി	8151
ചെയ്യേണ്ട	8152
ചെയ്യുകയായിരുന്നു	8153
##കര്‍ക്ക്	8154
അയാള്‍	8155
അയച്ചത്	8156
ചികിത്സാ	8157
ബംഗ്ലാ	8158
നിയന്ത്രണങ്ങൾ	8159
കോളേജിൽ	8160
ഉയർന്നു	8161
പുരുഷൻ	8162
സമര്‍പ്പിച്ച	8163
ഉത്തരവാദി	8164
മതിയായ	8165
പാകിസ്താന്‍	8166
ഓൺലൈൻ	8167
കാണാതായ	8168
വളരെയ	8169
പേർക്കാണ്	8170
വേട്ടയ	8171
ബംഗ്ലാദേശ	8172
തല്ല	8173
മന്‍	8174
മല്ല	8175
സുക	8176
##മാധ്യമ	8177
##സീ	8178
##in	8179
##ത്തൊഴിലാള	8180
##ിയെയും	8181
##ാനിലെ	8182
##േഷന്	8183
ബിജു	8184
##ാളും	8185
##ജ്ജ്	8186
സീറ്റും	8187
ആരോപിച്ചിരുന്നു	8188
വോട്ടു	8189
അഭിസംബോധന	8190
യൂട	8191
നിരീക്ഷണം	8192
ചെയ്തിട്ടില്ല	8193
പുലർച്ച	8194
വാർത്താ	8195
പരിചയം	8196
ബെംഗളൂരുവ	8197
തൃശ്ശൂർ	8198
ലോക്ക്ഡൗണ്‍	8199
വിഹിതം	8200
600	8201
കറു	8202
ഡേ	8203
ലാബ	8204
##ുദ്ദ	8205
##ജനം	8206
##ുകയെന്ന	8207
ജനങ്ങൾക്ക്	8208
##ിപ്പോയ	8209
##ിക്കുന്നതില്‍	8210
ചിറ	8211
ആളുകളുടെ	8212
പ്രദേശത്തെ	8213
വിട്ടത്	8214
സെന്റര്‍	8215
റണ്‍സ്	8216
വെട്ടിക്ക	8217
റിലയ	8218
മുകു	8219
ചങ്ങനാ	8220
നിയോജക	8221
ആർക്കും	8222
ബിന്‍	8223
വക്ക	8224
ശരി	8225
##ത്തായ	8226
##ത്തായി	8227
##ിരാക	8228
കോയ	8229
മാത	8230
ഇടതു	8231
രാജ്യങ്ങളിൽ	8232
നിർമാണ	8233
പാലായ	8234
സീറ്റുകളാണ്	8235
ചിത്രത്തില്‍	8236
സമ്പദ്	8237
കളക്ടറ	8238
ഇല്ലെന്ന്	8239
കോളജ്	8240
അനുവദിച്ച	8241
വീടിന്റെ	8242
പ്രവേശന	8243
ദുരൂഹ	8244
സീസൺ	8245
സൂചിപ്പിക്കുന്നത്	8246
പുരോഗതി	8247
മാലിന്യ	8248
##ാവശ്യപ്പെട്ട്	8249
സിദ്ധരാമയ്യ	8250
ആത്മവിശ്വാസം	8251
മഞ്ചേശ്വര	8252
വിന്യസ	8253
പനി	8254
സജ	8255
സോള	8256
##ല്യ	8257
##ോല	8258
##ജയം	8259
സംക്രമ	8260
നേമ	8261
കേന്ദ്രീകരിച്ച്	8262
##്യൂബ്	8263
##ിക്കാനാക	8264
രംഗത്തിറ	8265
മിഷന്‍	8266
കുമ്മ	8267
ആഗ്രഹം	8268
##േണ്ടതില്ല	8269
ചാനല്‍	8270
മല്‍സരിക്ക	8271
പ്രകാരമാണ്	8272
വിജിലന്‍സ്	8273
കോര്‍പറ	8274
ന്യൂഡൽഹി	8275
ജഗ	8276
ജയം	8277
##ഷീ	8278
##തയെ	8279
##ഫിക്	8280
##ത്തോട	8281
##ിവയ്ക്ക	8282
##വാടി	8283
ചെയ്യുമ്പോള്‍	8284
സീരിയ	8285
രോഗികള്‍	8286
ഒന്നാണ്	8287
വളർച്ച	8288
പാര്‍ട്ടികള്‍	8289
താരങ്ങള്‍	8290
സാമ്പത്തികമായി	8291
ലിംഗ	8292
നേട്ടമുണ്ട	8293
രീതിയിലുള്ള	8294
ട്ടി	8295
ഗെഹ്ല	8296
മമ്മൂട്ടി	8297
യുവാവിനെ	8298
ബിന്ദു	8299
ഡൊണ	8300
പട്ടികജാതി	8301
05	8302
ഒഡ	8303
ഓസ്‌ട്രേലിയ	8304
ഡികെ	8305
ഭവന	8306
ല്ല	8307
ഷെയ്	8308
##ിണ	8309
##മാൻ	8310
##ഴുത	8311
##on	8312
##ാര്‍ട്ട	8313
സെല്ല	8314
##സ്‌പോ	8315
നടത്തുക	8316
തലശ്ശേരി	8317
തുടങ്ങിയവര്‍	8318
ആദ്യഘട്ട	8319
##ുകാരുടെ	8320
നെല്ല	8321
തരംഗം	8322
##ിറങ്ങിയ	8323
ചുമതലയുള്ള	8324
ജീവനക്കാരെ	8325
മോശമായി	8326
സർവകലാശാല	8327
ക്രൈം	8328
ഉപതിരഞ്ഞെടുപ്പ്	8329
##പൊട്ട	8330
##ായുധ	8331
ഹരീഷ്	8332
ടെക്‌ന	8333
കാശ	8334
നാവിക	8335
വിക്കറ്റ	8336
##ാഫ്രിക്ക	8337
##വെങ്കിലും	8338
##റേയും	8339
##റുകളും	8340
##ംബ്	8341
##ത്തര	8342
##ദ്മ	8343
##ണ്ണ്	8344
പേരു	8345
##ിനെതിരായ	8346
##വാത	8347
##ടുത്തത്	8348
##പ്രകാര	8349
സംഘത്തിന്	8350
ശ്രമിച്ചു	8351
തിരഞ്ഞെടുപ്പിലും	8352
ആദിവ	8353
വിഭാഗത്തിന്	8354
എന്‍ഐഎ	8355
ഗാന്ധിയും	8356
മൊത്ത	8357
ജിഹ	8358
യൂസ	8359
പാര്‍ട്ടിയെ	8360
##മാണോ	8361
അകല	8362
##ാക്കളുടെ	8363
ഡോളറ	8364
കാത്തിരിക്ക	8365
ട്രെയിന്‍	8366
കൂടുതലായി	8367
തൃണമൂല	8368
ബാനര്‍ജി	8369
വാര്യ	8370
കെജ്രിവാള്‍	8371
എന്നിങ്ങനേയാണ്	8372
കവര്‍	8373
നൗ	8374
പണ്	8375
##ങ്ങല്‍	8376
കൂട്ടി	8377
കുറേ	8378
##കാരന്‍	8379
##കൂട്ടി	8380
ഒഴിവാക്കിയ	8381
##ുവരുന്ന	8382
പ്രവേശിപ്പിച്ചത്	8383
എൻസി	8384
##ിവെള്ള	8385
അക്രമം	8386
ബ്രാഞ്ച്	8387
മരണമട	8388
ആദിവാസി	8389
അരി	8390
ഞങ്ങളെ	8391
റൈ	8392
##ബല്‍	8393
##ജക്ട്	8394
##ഡിയുടെ	8395
##ഫര്‍	8396
പ്രമ	8397
##റ്റിയ	8398
വിസ്ത	8399
പിള	8400
##സമാധ	8401
##ക്കാരന	8402
കാണാന	8403
ട്രോള	8404
മറക്ക	8405
ദിവസമായി	8406
മത്സരാര്‍ത്ഥ	8407
അമ്മയുടെ	8408
കരുതി	8409
ശുച	8410
വാർത്തകൾ	8411
സഹോദരന്‍	8412
രീതിയിലാണ്	8413
##സ്‌കാരിക	8414
നാഷണൽ	8415
ഗ്രാമപഞ്ചായത്ത്	8416
ലക്ഷദ്വീപ്	8417
ഹൈക്കമാന്‍ഡ്	8418
##സാധ്യത	8419
സെറീന	8420
07	8421
ആറു	8422
കക്ഷി	8423
##നിവ	8424
##ar	8425
വിജ്ഞ	8426
##സിം	8427
പ്രതിഫലം	8428
പേരിലാണ്	8429
രണ്ടര	8430
വിവരങ്ങളും	8431
തിരിച്ചട	8432
അന്വേഷണത്തിന്	8433
നാട്ടില്‍	8434
നടപടിക്രമ	8435
പത്താം	8436
അലേ	8437
വാങ്ങാന്‍	8438
സഖ്യകക്ഷ	8439
##ിച്ചുവെന്ന്	8440
കൊച്ചിയിലെ	8441
പഞ്ചാബില്‍	8442
ആരോഗ്യമന്ത്ര	8443
##ിക്കെതിര	8444
ലുലു	8445
ആര്‍ക്ക	8446
ധീര	8447
##ലുമായി	8448
##ov	8449
##ത്തുക	8450
വിസ്മ	8451
വിജയിച്ചു	8452
കാലഘട്ട	8453
##വാദി	8454
കിഷോ	8455
കമ്പ്യൂട്ട	8456
വീടുകളിലും	8457
സ്ഥാനാര്‍ത്ഥിയ	8458
സഖ്യത്തിന്	8459
വയസുകാര	8460
ഓക്‌സിജന്‍	8461
അൻ	8462
ജേക്ക	8463
ധോണി	8464
ബോളിവ	8465
ലേഖ	8466
സാര	8467
##മാല	8468
##ാഞ്ചേരി	8469
##വർക്കും	8470
##തന്നെ	8471
##ബോസ്	8472
##at	8473
നിഗമ	8474
കൊറിയ	8475
സ്ഥാ	8476
##വാറ്റ	8477
##മ്പ്ര	8478
തെളിഞ്ഞ	8479
വ്യക്തമായി	8480
നടന്നിരുന്നു	8481
സീറ്റുകളിൽ	8482
ആരോഗ്യവകുപ്പ്	8483
സ്വീകരിച്ചു	8484
##ഴ്‌ച	8485
തയ്യാറാക്ക	8486
ഉദ്യോഗസ്ഥര	8487
##ുകളുടെയും	8488
അതിനായി	8489
അബ്ദുള്ള	8490
ആലോചന	8491
കിടക്കുന്ന	8492
വെബ്സൈ	8493
ദക്ഷിണാഫ്രിക്ക	8494
ജലീല്‍	8495
പലയിടത്തും	8496
ഉറപ്പുവരുത്ത	8497
ചിങ്ങം	8498
ഗ്യാ	8499
വിക്കറ്റ്	8500
സായ്	8501
##പാല	8502
##മൂല	8503
##തെന്ന	8504
##ികളായി	8505
വരുന്നുണ്ട്	8506
സംഘവും	8507
##ിച്ചതില്‍	8508
കാര്യങ്ങളില്‍	8509
ന്ന്	8510
വിഭാഗത്തിൽ	8511
സിനിമയിലെ	8512
മരണപ്പെട്ട	8513
സർവേ	8514
##ുന്നതിനു	8515
##ക്കുടി	8516
##കാലിക	8517
ഘട്ടത്തിൽ	8518
കാരണമായ	8519
ആനന്ദ്	8520
തട്ടിക്കൊണ്ട	8521
തടയാന്‍	8522
മൂല്യ	8523
ഡ്രൈവര്‍	8524
പവാര്‍	8525
പെണ്‍കുട്ടിയെ	8526
##ുമുഖ	8527
മറുപടിയുമായി	8528
##ുന്നതിനിടെയാണ്	8529
ആക്ഷേപം	8530
സര്‍ട്ടിഫിക്കറ്റ്	8531
പൂർണമായും	8532
സംവരണം	8533
അക്കാദമി	8534
ജയില്‍	8535
ഞങ്ങള്‍ക്ക്	8536
##ചെയ്യ	8537
##ട്ടിക	8538
##ികര	8539
മുള	8540
##േഷിന്റെ	8541
അതോടൊപ്പം	8542
##ുണ്ടാക്കിയ	8543
##ാമം	8544
നല്‍കുകയും	8545
ഇന്ത്യക്ക്	8546
സെൻ	8547
##ിച്ചതിന്റെ	8548
ആശുപത്രികളിലും	8549
മോദിയെ	8550
ഫോർ	8551
കോട്ടയത്ത്	8552
സംഘടനകള്‍	8553
റിസര്‍	8554
ഹെൽ	8555
##േരിയില്‍	8556
പ്രചാരണത്തിന്	8557
ഹിജ	8558
വമ്പന്‍	8559
അതുകൊണ്ടുതന്നെ	8560
ആരിഫ്	8561
ആഞ്ഞ	8562
കൗണ്ട	8563
പറ്റി	8564
സച്ചി	8565
##ുകളിലാണ്	8566
ചെയ്യാന	8567
വിജയരാഘ	8568
മേല	8569
സ്റ്റോ	8570
മീന	8571
സ്ത്രീകളും	8572
കണ്‍വീന	8573
ഗൂഗ	8574
ഉദ്ധവ്	8575
ഇടതുമുന്നണി	8576
നാശനഷ്ട	8577
##ിരാകാശ	8578
തങ്ങളെ	8579
ധര്‍മ	8580
##പ്പാറ	8581
എന്നിരുന്ന	8582
##ിവച്ച	8583
മുഖ്യമന്ത്രിക്ക്	8584
ക്രെ	8585
തൊട്ട്	8586
വോട്ടിന്റെ	8587
ചിത്രത്തിന്റെ	8588
അനുസര	8589
##മുണ്ടെന്നും	8590
ആരംഭിച്ചിട്ടുണ്ട്	8591
ഓഫീസിൽ	8592
അന്വേഷണത്തില്‍	8593
ജില്ലകളിലെ	8594
ചൈനയുടെ	8595
രാവില	8596
##ിവെക്ക	8597
##ക്കാലം	8598
ട്വന്റി	8599
തീരത്ത്	8600
റെക്കോര്‍ഡ്	8601
അയ്യപ്പ	8602
സാംസ്‌കാരിക	8603
ജയരാജൻ	8604
ഹൈദരാബാദ്	8605
യൂണിവേഴ്‌	8606
ഉറ്റുന	8607
അപലപ	8608
അഹമ്മദ	8609
കബ	8610
ഫോട്ട	8611
ഷൂട്ടി	8612
##മാനം	8613
##വയ	8614
##ശോ	8615
##എൽ	8616
##ന്വേഷണ	8617
##ിനിധി	8618
തീപി	8619
സെൽ	8620
നിയമങ്ങള്‍	8621
ചെങ്ങ	8622
പരിശോധിച്ചത്	8623
പിടിക്കാന്‍	8624
ബോംബ്	8625
സ്വീകരിക്കും	8626
മിണ്ട	8627
മണിക്കൂർ	8628
വികാരം	8629
പ്രവചന	8630
പദ്ധതിക്ക്	8631
ഷാഫി	8632
എതിര്‍ക്ക	8633
ബഹിരാകാശ	8634
മുന്നോട്ടു	8635
അപ്രതീക്ഷിത	8636
പൊതുമരാമ	8637
ദുര്‍ബല	8638
അപ്പോൾ	8639
എഡി	8640
കസ	8641
മന്ദിര	8642
ശക്തിയ	8643
ഷഹ	8644
##റാമ	8645
##ിക്കണമെന്നാണ്	8646
##ുവരിയ	8647
സിസ്റ്റ	8648
##ികളിലെ	8649
പെട്രോള്‍	8650
##ിച്ചതെന്നാണ്	8651
പരിശോധിച്ച	8652
മറിച്ച്	8653
ബാധക	8654
താങ്ങ	8655
വികാര	8656
സഖ്യമ	8657
മുസ്ലി	8658
തുടരുന്നു	8659
നേതാവിന്റെ	8660
പുരസ്‌	8661
##ിക്കുകയോ	8662
##ുകൂട	8663
ട്രംപിന്റെ	8664
അദാനി	8665
എഐസിസി	8666
കാലയളവില്‍	8667
ചൂണ്ടിക്കാട്ടുന്നു	8668
താരതമ്യം	8669
അമരീന്ദ	8670
പ്രിൻസ	8671
ഇതി	8672
ഇവർക്ക്	8673
ഗാന	8674
പിയും	8675
##യേയും	8676
##കേന്ദ്ര	8677
##തുമായ	8678
##താണെന്നും	8679
##ഹാർ	8680
##ഗർ	8681
##ാക്കാനാണ്	8682
##ാര്‍ശ	8683
##ങ്കി	8684
വാട്ട	8685
##ുകള്‍ക്കും	8686
ഉയര്‍ത്തി	8687
വിജയന്റെ	8688
പ്രതികൂല	8689
സ്റ്റേഷന്‍	8690
അടങ്ങിയ	8691
ചര്‍ച്ചയ	8692
ചര്‍ച്ചയില്‍	8693
ന്യൂയോ	8694
വിദേശത്തു	8695
വിവാദമായ	8696
അവകാശം	8697
സത്യവാ	8698
അവതാര	8699
##ുന്നുണ്ടെന്ന്	8700
ബജറ്റ	8701
ആയിരക്കണക്കിന്	8702
ഹൈദരാബാദ	8703
തേജസ്വി	8704
ഒഡീഷ	8705
എല	8706
ബഹി	8707
##ഷുറ	8708
##തൂ	8709
##80	8710
##ൃതി	8711
പ്രക്രിയ	8712
നിശ	8713
കേന്ദ്രത്തിന്റെ	8714
പരാതിയിൽ	8715
195	8716
##ട്രി	8717
തരത്തില്‍	8718
അമേരിക്കയില്‍	8719
അപകടത്തിൽ	8720
ദിനത്തില്‍	8721
ഉയര്‍ന്നിരുന്നു	8722
ഇടപെടല	8723
കോളേജിലെ	8724
ശരത്	8725
അഴിമത	8726
വിമാനത്താവളത്തില്‍	8727
ഉദയ	8728
റണ്‍സ	8729
ശാസ്ത്രജ്ഞ	8730
##വേദന	8731
ക്രൂഡ്	8732
പ്രിൻസിപ്പ	8733
സസ്പെ	8734
##യുമായ	8735
##സിലേക്ക്	8736
##ഫ്യൂ	8737
##്യൻ	8738
##ിച്ചിരിക്ക	8739
##ല്‍പ	8740
##രുപ	8741
കോർ	8742
##ുവശ	8743
##ാകട്ടെ	8744
ഇന്ത്യയ്ക്ക്	8745
ഇടയില്‍	8746
ചെയ്താല്‍	8747
സ്വദേശികള്‍	8748
വേറ	8749
തിരുവനന്തപുരത്തെ	8750
തിരഞ്ഞെടുപ്പിനെ	8751
അറബ	8752
മേഖലകളിൽ	8753
സ്ത്രീകളെ	8754
30ന്	8755
##ിച്ചിട്ട്	8756
നയിക്കുന്ന	8757
തവണയും	8758
കര്‍ഷകരുടെ	8759
റഷ്യയുടെ	8760
സിപിഎമ്മിന്	8761
ജീവനക്കാരുടെ	8762
പതിറ്റാണ്ട	8763
ലോട്ടറിയ	8764
തിരിച്ചടിയാണ്	8765
തമിഴ്‌നാട്ട	8766
സൂപ്പർ	8767
സ്റ്റാഫ്	8768
കമല്‍നാഥ്	8769
അബുദാബി	8770
താപനില	8771
സെക്യൂരി	8772
അയോഗ	8773
ചാര	8774
ധനു	8775
ലാല്‍	8776
വഷ	8777
ഹാരി	8778
##പത	8779
##യൊക്കെ	8780
##നുമായി	8781
##ിക്കാണ്	8782
കോലി	8783
അതിലൂടെ	8784
##ിലേയ്ക്ക്	8785
ചെയ്യുന്നത	8786
എംഎം	8787
ഉണ്ടായിരുന്നില്ല	8788
നിയമനടപ	8789
പിന്നില	8790
..!	8791
##ിക്കുന്നുവെന്നും	8792
പര്യ	8793
എന്താണെന്ന്	8794
##െയ്ത	8795
വിഭാഗത്തിന്റെ	8796
എന്‍ജിനീയ	8797
പിന്തുണച്ച	8798
മരണത്തിന്	8799
ഹൈക്കമാ	8800
##വ്വഹ	8801
വിലയിരുത്തി	8802
കമ്മിഷ	8803
തൊഴിലാളികളെ	8804
പുറത്തിറങ്ങിയ	8805
അഭിമുഖത്തില്‍	8806
ചൗധ	8807
എന്നിരുന്നാലും	8808
ആചാര	8809
ഇവി	8810
പബ്ലിക്	8811
##ല്യം	8812
##ോട്ടെ	8813
##ത്തിനകം	8814
രാജ്യത്തിന്	8815
നീര	8816
വിലയില്‍	8817
##ിക്കുന്നതായി	8818
ക്രിക്കറ്റ	8819
വോട്ടർ	8820
നിലവാര	8821
കൂട്ടം	8822
ഇന്നല	8823
##്വാന	8824
ഇടപെട്ട്	8825
വര്‍ധിപ്പ	8826
കീഴിൽ	8827
ലീഗിന്റെ	8828
അടിയന്തരമായി	8829
റ്റി	8830
ക്രിമിനല്‍	8831
അഡ്മിനി	8832
അണു	8833
എലി	8834
##ഴം	8835
##നങ്ങളും	8836
##ചനം	8837
##ര്‍ഗ	8838
##വിശേഷ	8839
ശ്രമിക്കുന്ന	8840
##ക്ഷേമ	8841
ആളുകള്‍ക്ക്	8842
സ്ത്രീകളുടെ	8843
ദൃശ	8844
പേരുടെയും	8845
അണിനിര	8846
തകര്‍ത്ത	8847
എല്ലാവരെയും	8848
സാധ്യതയുണ്ടെന്ന്	8849
ആസാദ്	8850
പൊതുമരാമത്ത്	8851
,'	8852
ജീ	8853
ലണ്ട	8854
##യാള്‍	8855
##യിലേക്കുള്ള	8856
##നിൽ	8857
##തീഷ്	8858
##റൂ	8859
##ഡു	8860
##ിച്ചായിരുന്നു	8861
നിബന്ധന	8862
വാസ	8863
ഉണ്ടായിട്ട	8864
##ിച്ചതിന	8865
തൊടു	8866
കൂട്ടായ്മ	8867
സമ്മർദ്ദ	8868
അല്ലാത്ത	8869
രക്ഷിത	8870
അവകാശപ്പെടുന്നത്	8871
പുരസ്	8872
ലിസ്റ്റ	8873
വ്യക്തിപരമായ	8874
പശ്ചാത്തലത്തിലാണ്	8875
വരുത്തി	8876
മാനദണ്ഡങ്ങള്‍	8877
വനംവകുപ്പ്	8878
ജ്വല്ല	8879
ഡിപ്ലോമ	8880
വഷള	8881
നദ്ദ	8882
സൌ	8883
##ാത്മ	8884
##ൃതമായി	8885
##പ്പാടി	8886
നടന്ന്	8887
നേരം	8888
ഇതൊന്നും	8889
##ടിയും	8890
എംബി	8891
##ഡിയൂരപ്പ	8892
അന്യ	8893
##ിക്കുന്നതിന്റെ	8894
പങ്കെടുക്കും	8895
മെമ്മ	8896
ബിജെപിയിലേക്ക്	8897
ഡോസ	8898
##മാസം	8899
റോബിൻ	8900
##േക്കുമെന്ന	8901
നാട്ടിൽ	8902
##ദ്രോഹ	8903
എഴുത്ത	8904
##ിട്ടുണ്ടോ	8905
പറ്റില്ല	8906
##ക്കൊപ്പ	8907
സമ്പർക്കത്തിലൂടെ	8908
ചന്ദ്രശേഖ	8909
വ്യക്തത	8910
ചെറുത	8911
എല്‍ഡിഎഫിന്	8912
സാന്നിധ്യ	8913
സൗജന്യമായി	8914
യുകെ	8915
എപ്പി	8916
ഓടി	8917
മക്കള്‍	8918
ശനി	8919
##ാസമ	8920
##തര	8921
##ാവുകയും	8922
സിഐ	8923
##ട്ട്‌	8924
##ാടും	8925
ലക്ഷത്തോളം	8926
പരാജയം	8927
കോൺഗ്രസും	8928
സമീപത്തെ	8929
നോക്കാം	8930
പൊലീസിന്റെ	8931
പദ്ധതികൾ	8932
വിരാട്	8933
അഭിമുഖം	8934
നിരോധനം	8935
സ്റ്റേഷനില്‍	8936
അമ്പര	8937
നിർമ്മാണ	8938
അഭിഭാഷകന്‍	8939
താല്‍പര്യം	8940
എറണാകുളത്ത്	8941
ദശലക്ഷം	8942
പ്രേരിപ്പ	8943
ആകര്‍ഷ	8944
കത്തില്‍	8945
റംസ	8946
സിലി	8947
##യാന്‍	8948
##റേ	8949
##ധന	8950
##30	8951
##െയ്യാ	8952
സ്ക	8953
കൂത്ത	8954
കുഞ്ഞു	8955
##സമൂഹ	8956
കേരളത്തിലും	8957
##ാറില്ല	8958
##കാര്യത	8959
##ടക്കുന്ന	8960
മന്ത്രിമാര്‍	8961
##പ്പെടുത്തുന്നു	8962
എത്തിച്ചത്	8963
##ബിസി	8964
സെക്രട്ടേറിയ	8965
നെഞ്ച	8966
ഒറ്റയ്ക്ക്	8967
രംഗത്തെത്തിയത്	8968
ഡെമോ	8969
ചൊവ്വ	8970
പുലര്‍ത്ത	8971
ഉയരുന്ന	8972
ചടങ്ങിൽ	8973
തീരദേശ	8974
##ാക്കള്‍ക്ക്	8975
തൊട്ടടുത്ത	8976
അടച്ചിട	8977
അവിശ്വാസ	8978
തര്‍ക്കം	8979
നിലനിർത്ത	8980
അബ്ദുള്‍	8981
ദൗത്യ	8982
തിരക്കഥ	8983
ശുപാര്‍ശ	8984
തൊടുപുഴ	8985
ആഫ്രിക്ക	8986
എങ്ങനെയ	8987
പന്ത്ര	8988
റായ്	8989
##നീഷ	8990
##കണ്ഠ	8991
##ങ്ങളുള്ള	8992
##ുവേണ്ടി	8993
##ാകാം	8994
##മ്പുഴ	8995
പറയുകയും	8996
##സ്റ്റിക്	8997
ഉണ്ടെന്നും	8998
ഇന്ത്യയും	8999
കേസുകളുടെ	9000
എന്നിവയും	9001
ബോർഡ	9002
സമ്മര്‍ദ്ദ	9003
പിന്തുണച്ച്	9004
ചികിത്സയിൽ	9005
തവണയാണ്	9006
കമല	9007
ഉന്നയിച്ചത്	9008
താല്‍പ്പ	9009
ക്രമീകരണ	9010
യൂണിറ്റ	9011
മുകളിലുള്ള	9012
തികച്ചും	9013
നല്	9014
മാലി	9015
##റായ	9016
പ്രഭ	9017
ചെയ്യണമെന്ന്	9018
സാധിച്ചിട്ടില്ല	9019
ഡിസ്	9020
ഉപദ്ര	9021
സീറ്റിൽ	9022
196	9023
കുടുംബത്തിന്റെ	9024
ആരോഗ്യപ്രവര്‍ത്ത	9025
തടവ	9026
പിന്തുണയും	9027
പൂട്ട	9028
നഷ്ടമായ	9029
വകുപ്പുകള്‍	9030
മോഹന	9031
##ലക്ഷ്മി	9032
സംരക്ഷണം	9033
രാമക്ഷേ	9034
പ്രസ്താവനയില്‍	9035
വ്യത്യാസ	9036
കൊടുത്തു	9037
യെഡിയൂരപ്പ	9038
ആക്രമണത്തില്‍	9039
ക്രമസമാധ	9040
##ീർഘ	9041
പരിശീലന	9042
മദ്യപ	9043
തുടക്കത്തില്‍	9044
നശിപ്പ	9045
##ക്കൂട്ടം	9046
അത്യാവശ	9047
താലൂക്ക	9048
ഡല്‍ഹിയില്‍	9049
കേൾക്ക	9050
പള്‍	9051
രഘ	9052
##വൽ	9053
##വൈസ	9054
##ഡുകള്‍	9055
##23	9056
##ിച്ചിര	9057
##ില്ലായ്മ	9058
##ാലത്ത്	9059
##ാലിറ്റ	9060
നിത്യ	9061
##ുകളിലായി	9062
വീശ	9063
വരുമെന്ന്	9064
സംസ്ഥാനങ്ങളിലും	9065
സെഞ്ച്	9066
പോലെയാണ്	9067
കൈപ്പ	9068
കാഴ്ച്ച	9069
പാലക്ക	9070
മേഘ	9071
അനുബന്ധ	9072
സര്‍ക്കാരും	9073
##ുകാരും	9074
പ്രവേശിപ്പ	9075
വീഡിയോയില്‍	9076
ഇരുന്ന	9077
നില്‍ക്കുന്നത്	9078
ശിശു	9079
പുലർത്ത	9080
ഉയരുന്നത്	9081
സ്വർണം	9082
മാർഗ	9083
ഗോപാല	9084
സിദ്ദു	9085
##മായിട്ടുണ്ട്	9086
ട്വിറ്ററില്‍	9087
രാജിവെച്ച	9088
യൂണിറ്റ്	9089
##ഭൂമി	9090
ഇപി	9091
ഞങ്ങൾക്ക്	9092
പുട	9093
പാണ്ഡ	9094
ബുക്ക	9095
സന്ധ	9096
##തായാണ്	9097
##എസ്പി	9098
##ത്തോടൊപ്പം	9099
##ത്തിമ	9100
##േണ്ടിവ	9101
പ്രതിഭ	9102
പരിശ്രമ	9103
##ലംഘ	9104
ചിദ	9105
##േറ്റം	9106
തലമുറ	9107
##തിനാലാണ്	9108
നല്ലത്	9109
മത്സരിക്കുന്ന	9110
തെളിയിക്കുന്ന	9111
മുതലാണ്	9112
കുത്തനെ	9113
പന്തില്‍	9114
ഇലക്ട്രോണി	9115
ദ്വീപ	9116
ആപ്പ	9117
ഗാര്‍	9118
##കമായി	9119
##റം	9120
##ോടുള്ള	9121
##ിക്കപ്പെടുന്ന	9122
സ്വി	9123
മുക്തി	9124
വീണു	9125
പരിധി	9126
ചെയ്യുകയാണ്	9127
അനിവാര	9128
ചേർത്ത	9129
സ്ഥിരമായി	9130
ഉള്‍പ്പെട്ട	9131
തടസ്	9132
ദുർ	9133
കുട്ടികള്‍ക്ക്	9134
സംസാരിക്ക	9135
ജോലിക്ക്	9136
##മാണെന്നാണ്	9137
ചേര്‍ന്നാണ്	9138
ദിലീപിനെ	9139
തമിഴ്നാട്ട	9140
തന്ത്രം	9141
പ്പെ	9142
രമ്യ	9143
ജഡ്ജ	9144
ആക്	9145
എഡിറ്റ	9146
ചാക്കോ	9147
തമ്പ	9148
ദീർഘ	9149
റഹ	9150
##ോദ്	9151
##or	9152
##ിച്ചെന്നും	9153
##ുമെതിരെ	9154
##്യാദ	9155
വെങ്ക	9156
ചെയ്യേണ്ടത്	9157
##പ്തിയ	9158
തെക്ക്	9159
വേണമെന്നും	9160
കുടിവെള്ള	9161
പോകുന്നു	9162
കുടുംബശ്രീ	9163
##ൊന്നാണ്	9164
വ്യാപന	9165
സമീപിച്ചത്	9166
##ുണ്ടായിരുന്നത്	9167
ഇന്റലി	9168
ചലഞ്ച	9169
സീസണില്‍	9170
ക്യാപ്റ്റന്‍	9171
ടെക്ന	9172
ആത്മവിശ്വാസ	9173
വോട്ടെണ്ണല്‍	9174
കല്‍പ്പറ്റ	9175
പലതവണ	9176
സിസിടിവി	9177
03	9178
റൺ	9179
##‌സി	9180
##ൂരം	9181
##ത്തോള	9182
##ാവൂ	9183
തുടർ	9184
തന്നോട്	9185
കേരളാ	9186
ഇടയിൽ	9187
സംഭവത്തിന്	9188
സമ്പത്ത്	9189
യുവജന	9190
കിഴ	9191
ഒഴിവുകള്‍	9192
വീടുകള്‍	9193
നില്‍ക്കുകയാണ്	9194
നിര്‍ദേശങ്ങള്‍	9195
നേരിട്ടത്	9196
പോളിങ്	9197
തസ്തികകള	9198
റദ്ദാക്കിയ	9199
##ിക്കുട്ടി	9200
കാപ്പന്‍	9201
യാഥാര്‍ത്ഥ	9202
ന്യായീകര	9203
റെയ്ഡ്	9204
സംവരണ	9205
കുതിച്ചു	9206
അഗ്നി	9207
താഴ്ന്ന	9208
കല്യാണ	9209
സൊസൈ	9210
കഞ്ചാവ്	9211
വാണിജ്യ	9212
അണിയ	9213
അളവ	9214
ജപ്പ	9215
സപ്പോ	9216
##യിന്‍	9217
##ുങ്ക	9218
##തകള്‍	9219
##സഞ്ച	9220
##ോടി	9221
##ിലുളള	9222
##വിട്ട്	9223
ഒരുപക്ഷ	9224
##റിങ്	9225
ജോൺ	9226
അപൂര്‍	9227
കാലത്തെ	9228
രണ്ടാഴ്ച	9229
ബാംഗ്ല	9230
ബാധിച്ചു	9231
കുടുംബത്തിലെ	9232
ക്യാമ്പ്	9233
##ിറങ്ങ	9234
പ്രശ്‌നങ്ങള	9235
കാരണമായി	9236
യുഎഇയില്‍	9237
കിട്ടിയത്	9238
ജയിലിൽ	9239
തന്നെയായിരുന്നു	9240
അഡീഷ	9241
ശാന്ത	9242
##സ്വാമി	9243
പുനരാരംഭ	9244
തോല്‍വി	9245
ഹെല്‍ത്ത്	9246
നിവാരണ	9247
08	9248
ടാറ്റ	9249
തക്ക	9250
മ്യൂ	9251
##ിൾ	9252
##ര്‍പ	9253
പ്രേമ	9254
##ംഗ്ട	9255
ഒരുപോലെ	9256
ചെയ്യാനും	9257
കേന്ദ്രങ്ങള്‍	9258
കേന്ദ്രത്തില്‍	9259
മൂവാറ്റ	9260
ആവശ്യപ്പെടുന്നത്	9261
ഉറച്ച്	9262
തിരഞ്ഞെടുപ്പിന്റെ	9263
മേനോ	9264
ആദ്യമായാണ്	9265
സമയമാണ്	9266
120	9267
ഉദ്യോഗസ്ഥരുടെ	9268
മൂന്നാമത്തെ	9269
ഉടല	9270
നേരിടാന്‍	9271
സ്വര്‍ണ്ണ	9272
സുധാകരന്റെ	9273
അനുഭവം	9274
ആരാധന	9275
ഉദ്ഘാടന	9276
##ിച്ചതോടെയാണ്	9277
വെളിച്ച	9278
അഴീക്ക	9279
ഡിവൈഎഫ്ഐ	9280
സമ്പര്‍ക്കത്തിലൂടെയാണ്	9281
അയാളുടെ	9282
മില്യണ്‍	9283
എക്‌സൈസ്	9284
ഹെലികോ	9285
കവ	9286
കന്നി	9287
ഗസ്റ്റ്	9288
ധരിച്ച	9289
ഫീല്‍	9290
രസ	9291
വന്യ	9292
##തുക	9293
സംഖ്യ	9294
##യ്ക്കെതിരെ	9295
വെച്ചു	9296
ചെയ്യുമെന്ന്	9297
##ർക്കെതിരെ	9298
##്യാപേക്ഷ	9299
##്യൂറോ	9300
അഭയ	9301
അഭിഷേ	9302
ആരോഗ്യം	9303
ദിവസങ്ങള്‍	9304
അയല്‍	9305
അയച്ചു	9306
പ്രസിഡന്‍റ്	9307
സ്ത്രീകള	9308
ശ്രദ്ധിക്കണം	9309
ജില്ലകളിലാണ്	9310
വാങ്ങുന്ന	9311
ഫ്രാന്‍	9312
ജാമ്യാപേക്ഷ	9313
സഞ്ചരിക്ക	9314
കൂടുതലാണ്	9315
കാര്യമില്ല	9316
ഗെയിമ	9317
ഡിജിറ്റല്‍	9318
ജെഡിയു	9319
ഗെലോട്ട്	9320
ഉല്‍പ്പാദ	9321
ഇൻസ്റ്റിറ്റ	9322
ഹിജാബ്	9323
ഡൗൺ	9324
മതം	9325
ലൈന	9326
##യല്ല	9327
##ുകൂട്ട	9328
വരെയ	9329
സംസ്ഥാനങ്ങള്‍	9330
ജനവിധി	9331
നിയമവിരുദ്ധ	9332
നീല	9333
##ഭാഗ്യ	9334
ആദായ	9335
തയ്യാറായ	9336
കുമാര	9337
പ്രതീക്ഷയിലാണ്	9338
പ്രദേശവാസ	9339
രാശിയില്‍	9340
250	9341
##മാർക്ക്	9342
##ഭ്യാസ	9343
രജിസ്‌ട്ര	9344
സൂരജ്	9345
സമുദ്ര	9346
തമിഴ്‌നാട്ടില്‍	9347
സിവിൽ	9348
പ്രശസ്ത	9349
ത്രിപുര	9350
ഞ്ഞ	9351
റവന്യൂ	9352
ഉദാഹരണ	9353
സത്യവാങ്	9354
ഓണം	9355
##യുടേയും	9356
##ുയ	9357
##വായ	9358
##വൂര്‍	9359
##40	9360
##പ്പാട്	9361
##ങ്ങാടി	9362
പ്രാപ	9363
മാട	9364
തിരച്ചില്‍	9365
ലഭിക്കാത്ത	9366
##േറ്റീവ്	9367
നിലപാ	9368
ഗോള്‍	9369
ജില്ലകളിലായി	9370
ജീവനക്കാർ	9371
അമേരിക്കയുടെ	9372
സ്ഥാനാര്‍ത്ഥിയായി	9373
യുഡിഎഫിന്റെ	9374
റിയാദ്	9375
യുക്രൈന്‍	9376
തൊട്ടുപി	9377
##ത്തിലേറെ	9378
കുവൈത്ത്	9379
അരുണ്‍	9380
കേന്ദ്രസര്‍ക്കാര	9381
പാരമ്പ	9382
തീരുമാനമെടുക്ക	9383
തുടർച്ചയായി	9384
അതിശക്തമായ	9385
##പ്പടേയുള്ള	9386
##സ്ടി	9387
##ാപുരം	9388
പൃഥ്വ	9389
മൂവാറ്റുപുഴ	9390
അവിട	9391
ഏതു	9392
മഹി	9393
സഞ്ജു	9394
ഹന	9395
##ർദ	9396
##ിനൊപ്പ	9397
സ്വാമി	9398
##ാർഡ്	9399
കഴിഞ്ഞത്	9400
##ുമ്പ്	9401
##കുട്ടിയ	9402
##രുമെന്ന്	9403
കണ്ടെയ്	9404
എല്ലായി	9405
##മിന്ന	9406
ചോദിക്കുന്നത്	9407
നേതൃത്വത്തിലാണ്	9408
ടി20	9409
വൈറല്‍	9410
കിട്ടി	9411
അമ്മയും	9412
ശുദ്ധ	9413
അര്‍ജു	9414
പങ്കെടുക്കുന്ന	9415
പരിപാടിയിൽ	9416
തിരഞ്ഞെടുക്കപ്പെട്ട	9417
ഫാത്തിമ	9418
കാവ്യ	9419
സർട്ടിഫിക്കറ്റ്	9420
##ുരുത്തി	9421
ഒരി	9422
പശ	9423
പട്ടി	9424
ഭയം	9425
##യിന	9426
##ുഡ്	9427
##തയാണ്	9428
##ീഖ്	9429
##ാണ്‌	9430
പറഞ്ഞാൽ	9431
##ുപരി	9432
ഇന്ത്യക്കാര	9433
##വേറ്റ	9434
സംഭവത്തെ	9435
അനുഗ്രഹ	9436
മാധ്യമപ്രവർത്ത	9437
ക്ഷേത്രം	9438
ധനകാര്യ	9439
വിദ്യാർത്ഥികൾ	9440
##ിന്റേയും	9441
വെടിവെ	9442
ടൈം	9443
മത്സ്യത്തൊഴിലാള	9444
കൈവശം	9445
ലോകകപ്പ്	9446
ഇടിമിന്ന	9447
വിജ്ഞാപ	9448
നിഗമനം	9449
ചൗധരി	9450
എസ്റ്റ	9451
ഓര്‍മ	9452
ഓഹര	9453
##ാച	9454
##സമ്മേള	9455
##ാരോ	9456
നിങ്ങള	9457
അതെ	9458
##ികളിലേക്ക്	9459
നിരസ	9460
##കാര്യമ	9461
ഇടക്കാല	9462
ഇടവം	9463
##മിറ	9464
കേസുകളും	9465
പരിയ	9466
സ്‌ക്ര	9467
##ാദി	9468
രാഹുലിന്	9469
ഒഴിയ	9470
മുന്‍സിപ്പ	9471
താരത്തിന്റെ	9472
##ാലിദ	9473
നടപ്പാക്കിയ	9474
കരുത്ത്	9475
വർഷമായി	9476
ആനന്ദ	9477
ഒരാളാണ്	9478
പിടികൂടി	9479
മനസിലാക്ക	9480
മാരാർ	9481
##കൊണ്ട്	9482
പ്രദര്‍ശ	9483
ഐസൊല	9484
തനിക്കെതിരെ	9485
പൊതുമേഖല	9486
ശ്രീനിവാസ	9487
രോഗമുക്തരായി	9488
കായം	9489
ഫാമ	9490
ഭി	9491
മറിയ	9492
മകൾ	9493
രേവ	9494
സവിശേഷ	9495
##െത്തിയത്	9496
##കിയ	9497
##ിയൻ	9498
കേട്ട്	9499
അതോ	9500
##ുടമ	9501
##ുടേത്	9502
പരിസ്ഥിതി	9503
തീര്‍ക്ക	9504
##കുള	9505
##ൂരും	9506
മന്ത്രിസഭാ	9507
എന്തൊക്കെ	9508
കുടുംബവും	9509
ഇല്ലെന്നും	9510
മിന്ന	9511
സമയത്താണ്	9512
മാനന്ത	9513
തെരഞ്ഞെടുക്ക	9514
റെനീഷ	9515
മതനിര	9516
കണ്ടെത്താൻ	9517
റഷ്യൻ	9518
വിശദീകരിച്ചു	9519
ടീമിന്റെ	9520
മാർഗ്ഗ	9521
ഡ്രൈവർ	9522
ഭാഗമായാണ്	9523
കച്ചവട	9524
സിലിണ്ട	9525
'-	9526
06	9527
ആധി	9528
ഉൽപ്പ	9529
ഓർക്ക	9530
ധോണ	9531
ബിൽ	9532
ലൂ	9533
##കും	9534
##താം	9535
##ശാസ്ത്ര	9536
##ന്തം	9537
പറഞ്ഞിട്ടുണ്ട്	9538
##വാൻ	9539
##ാകണം	9540
##ാകുമെന്നും	9541
##ുണ്ടെന്ന	9542
പരിഷ്‌	9543
രാജ്യാ	9544
കുരു	9545
##സംസ്ഥാന	9546
കാണിച്ച	9547
പ്രവര്‍ത്തകരെ	9548
വയനാട്ടില്‍	9549
ബാറ്റ്	9550
സാധ്യതയ	9551
മണ്ഡലങ്ങളിലും	9552
കുറ്റവാള	9553
കുറ്റപത്രം	9554
നേതാക്കളുമായി	9555
വിമര്‍ശന	9556
കമ്മീഷണര്‍	9557
ഹിന്ദുക്ക	9558
ഗോപിനാഥ	9559
റൂം	9560
അച്ഛന്‍	9561
മുറിവ	9562
സൗകര്യങ്ങള്‍	9563
##ാതിരുന്നത്	9564
ഡിജിപി	9565
സെപ്റ്റംബർ	9566
മധ്യപ്രദേശില്‍	9567
ഭീതി	9568
പരമ്പരാ	9569
ഹെലികോപ്റ്റ	9570
ഗവേഷ	9571
ചില്ല	9572
ഡബ്ല്യു	9573
നൃ	9574
##ാട്ടി	9575
##ൻറ്	9576
##ര്‍ല	9577
##ാവിന്	9578
##ാഗാന്ധ	9579
ശേഷി	9580
കഴു	9581
മെമ്പ	9582
തോൽ	9583
നിർത്തി	9584
കടം	9585
തിരഞ്ഞെടുപ്പിലെ	9586
എത്തിച്ചേ	9587
പ്രചോദ	9588
നല്ലൊരു	9589
കരുത്ത	9590
അലർട്ട്	9591
യുഡിഎഫും	9592
ആഭരണ	9593
അമിത	9594
പ്രസ്താവനയിൽ	9595
താല്‍ക്കാലിക	9596
##ത്തിനെതിര	9597
നിതീഷ	9598
അത്രയും	9599
മണ്ണിടിച്ച	9600
കസ്റ്റഡിയിൽ	9601
കുടുങ്ങ	9602
വൃത്തങ്ങള്‍	9603
കാമുക	9604
ഉമ്മൻചാണ്ട	9605
പ്രയാസ	9606
അനുപമ	9607
ഇബ്രാഹി	9608
മതനിരപേക്ഷ	9609
ആകാശ	9610
എന്റ	9611
ഫീ	9612
വല്ല	9613
##പരാ	9614
##്ത	9615
##ോള്‍	9616
##47	9617
##ുകെ	9618
##െയെല്ലാം	9619
##ുള്ളി	9620
മാന്യ	9621
##്യമുണ്ട്	9622
##വാള്‍	9623
കുട്ടിയ	9624
ചെയ്യുമെന്നും	9625
##ഫ്റ്റ	9626
പൊള്ള	9627
കേന്ദ്രങ്ങളില്‍	9628
നിയമങ്ങൾ	9629
രൂപയ്ക്ക്	9630
##പ്പെടുന്നുണ്ട്	9631
..?	9632
##മാരില്‍	9633
##പ്പെടുത്തുന്നത്	9634
പിടിച്ചത്	9635
സംഘടിപ്പ	9636
എല്‍ജെ	9637
പ്രതിഷേധിച്ച്	9638
##ണറുടെ	9639
അവകാശപ്പെട്ടു	9640
അവകാശവാദം	9641
താമര	9642
##ദിക്	9643
2006	9644
##ാക്കളെ	9645
ഒരിക്കൽ	9646
ശേഖരിക്ക	9647
##ക്കിടയിൽ	9648
ഇല്ലാതാക്ക	9649
സമാധാനം	9650
എട്ടാം	9651
ദുബായില്‍	9652
നെടുമ്പ	9653
മിഥുനം	9654
അദ്ധ്യക്ഷ	9655
വന്ദേഭാര	9656
ഉപമുഖ്യമന്ത്രി	9657
തമാശ	9658
ഒറ്റക്കെട്ടായി	9659
വളരെയധികം	9660
5000	9661
ആർക്ക	9662
ഉത്സവ	9663
ഒഴിഞ്ഞ	9664
കുണ്ട	9665
തങ്ക	9666
##നിയുടെ	9667
##കരോട്	9668
രാജഗോപ	9669
പിന്നിലെ	9670
##ണിത്തുറ	9671
കടമ	9672
കൊണ്ടും	9673
##പ്പെടുത്തുകയും	9674
##ട്ടിയത്	9675
നീക്കങ്ങള്‍	9676
സര്‍ക്കാരിനെതിരെ	9677
നമ്മളെ	9678
പ്രതീക്ഷിക്കുന്നു	9679
പട്ടേല്‍	9680
മത്സരിച്ചത്	9681
ഇത്തവണത്തെ	9682
##യുണ്ടായ	9683
വാർഡ	9684
##ിക്കുകയാണെന്ന്	9685
രാശിക്കാര്‍	9686
ഡെവല	9687
ഭാര്യയും	9688
വിശദീകരണ	9689
സമ്മേളന	9690
പങ്കെടുത്തത്	9691
##നീഷ്യ	9692
തീയത	9693
കുഴപ്പ	9694
തൃശ്ശൂര്‍	9695
കമ്മ്യൂണിസ്റ്റ്	9696
നഷ്ടപരിഹാരം	9697
വാഷിംഗ്ട	9698
വേട്ടയാട	9699
സെക്യൂരിറ്റി	9700
പട്	9701
##പത്	9702
##ിദ്	9703
##മേഖല	9704
##വട്ടം	9705
##ഷ്പ	9706
##ായ്‌	9707
പ്രഥ	9708
##റ്ററ	9709
എന്നുമാണ്	9710
##ങ്കോ	9711
##ോഗ്	9712
##ംഗിന്	9713
പറയണം	9714
സാധിച്ചത്	9715
##ലിയും	9716
മാത്രമായി	9717
സീത	9718
വന്നതിന്	9719
##യിലുണ്ട്	9720
##ക്‌ട	9721
പെരിയ	9722
തോന്നി	9723
ശ്രമങ്ങള്‍	9724
2013	9725
ആളുകള	9726
ഉദ്യോഗാർത്ഥ	9727
ഉള്‍പ്പടേയുള്ള	9728
മന്ത്രിയും	9729
വിവാഹിത	9730
##മാണെന്ന	9731
സ്ഥാനാര്‍ത്ഥിയെ	9732
സ്ഥാപനങ്ങൾ	9733
കമ്യൂണി	9734
പ്രതിസന്ധിയ	9735
കണ്ടെത്തിയിട്ടുണ്ട്	9736
പീഡിപ്പിച്ച	9737
കള്ളപ്പ	9738
പ്രവചിക്കുന്നത്	9739
ഒരാള്‍ക്ക്	9740
ഹിമാ	9741
##ിക്കുന്നുണ്ടെന്നും	9742
സമിതിയ	9743
അബ്ദുല്‍	9744
അന്തരിച്ചു	9745
അഴിച്ചു	9746
ഉത്തർപ്രദേശ്	9747
ഇരിട്ടി	9748
അതിവേഗ	9749
സിദ്ദിഖ്	9750
ചടങ്ങ്	9751
തളിപ്പറമ്പ്	9752
കങ്ക	9753
കന്യ	9754
ഖു	9755
ജീവി	9756
നമ	9757
ബ്യൂറോ	9758
വെയ്	9759
പ്രവി	9760
പ്രൈവ	9761
നിപ	9762
##വരോട്	9763
ഇതും	9764
വരവ	9765
ആരുടെ	9766
വെല്‍	9767
ഇന്ത്യയിലേക്ക്	9768
അറിയാന്‍	9769
സീതാര	9770
##സ്‌ത	9771
നടത്തിവര	9772
ചിലപ്പോള്‍	9773
ശ്രമങ്ങൾ	9774
എന്തിന	9775
ടിപി	9776
2012	9777
ചൂട	9778
ക്യാംപ	9779
വിട്ടുവീ	9780
തൊഴിലവസ	9781
ഉണ്ടായിരിക്കുന്നത്	9782
എതിർ	9783
നമ്പറ	9784
വലുത	9785
സാക്ഷ്യ	9786
ചെറുക	9787
ച്ചു	9788
യൂറോപ്പ	9789
##ിക്കേണ്ടതുണ്ട്	9790
റിക്രൂട്ട്	9791
സംഭാഷണ	9792
##വിദ്യാ	9793
ഡെമോക്രാ	9794
രാജ്യാന്തര	9795
ഷംസ	9796
##ാത്	9797
##ഖി	9798
##ങ്കിൽ	9799
അതോടെ	9800
##ാകാത്ത	9801
അവളുടെ	9802
##പ്പോലെ	9803
നല്‍കുന്നു	9804
##ണ്ണായക	9805
പ്രതിനിധി	9806
##ിക്കുന്നവര്‍	9807
കഴിഞ്ഞില്ല	9808
##നെറ്റ്	9809
ഡിഗ്രി	9810
##ിപ്പോള്‍	9811
പെർ	9812
ഉയർത്തിയ	9813
കാര്യക്ഷ	9814
ഭാഗത്തു	9815
ഗ്രാ	9816
##വരുടെയും	9817
ശക്തമാക്ക	9818
വിശാല	9819
ഭൂപ	9820
ഉദ്യോഗസ്ഥന്‍	9821
നേതാക്കളായ	9822
ഉൾപ്പെട്ട	9823
മലയാളികള്‍	9824
പരിഹാസ	9825
പ്രതിരോധം	9826
തൊഴിലാളികളുടെ	9827
ദിലീപിന്	9828
##ഫോഴ്‌	9829
വൃത്തിയ	9830
സന്ദര്‍ശനം	9831
സ്ഥിതിഗത	9832
ഹൗസില്‍	9833
പാര്‍ട്ടിയിലെ	9834
സിറ്റിംഗ്	9835
വാക്സിനേഷൻ	9836
ശാസ്ത്രീയ	9837
കിഴക്കന്‍	9838
ഉരുള്‍	9839
നാദിറ	9840
സച്ചിൻ	9841
എപ്പിസോ	9842
സീതാരാമ	9843
കരിപ്പ	9844
മടക്ക	9845
##തുകൊണ്ട്	9846
##േലി	9847
##han	9848
##ന്നത്	9849
##ത്താൻ	9850
##പ്പര്‍	9851
ചെയർ	9852
തിരുമാന	9853
##പിള്ള	9854
വെസ്റ്റ്	9855
ചെയ്യുന്നതിന്	9856
എംകെ	9857
ഉണ്ടായിട്ടില്ല	9858
ഏറ്റുവാ	9859
പ്രവര്‍ത്തകരും	9860
##പക്ഷം	9861
കണ്ണൂരിലെ	9862
വളര്‍ത്ത	9863
ദിവസങ്ങള്‍ക്ക്	9864
എത്തിയിട്ടുണ്ട്	9865
കുടുംബത്തെ	9866
ജയിച്ച	9867
നമ്മള	9868
ദുരുപ	9869
ദേശീയപാത	9870
നടപടികളും	9871
ഹൈക്കോടതിയില്‍	9872
മുംബൈയില്‍	9873
ചേര്‍ന്നു	9874
പണവും	9875
ഹോസ്റ്റ	9876
എക്‌സിക്യൂട്ടീവ്	9877
ബിരുദാനന്തര	9878
സ്‌കൂളില്‍	9879
താല്പ	9880
അരുണ	9881
മധു	9882
സ്‌പെഷ്യല്‍	9883
രാമചന്ദ്രന്‍	9884
എംബസി	9885
ഷായുടെ	9886
പ്രയോജന	9887
##പരിശോധന	9888
ഉപദ്രവ	9889
തൊട്ടുപിന്ന	9890
ഇഷ	9891
ജിത	9892
ഷീ	9893
##ീരിയ	9894
##േശ്	9895
##ക്കാൾ	9896
##പ്പൂര്‍	9897
അതൊന്നും	9898
##ഗ്രാം	9899
##ുണ്ടെങ്കിലും	9900
##ാമത്	9901
അനാവശ്യ	9902
കുറിച്ചാണ്	9903
##സമിതി	9904
അറിയിപ്പ്	9905
പിന്നിട്ട	9906
ആയിരിക്ക	9907
ഏറ്റെടുത്ത്	9908
ചേട്ട	9909
ചോദിച്ചത്	9910
മാറ്റാന്‍	9911
സ്‌ക്വാ	9912
വോട്ടെടുപ്പ	9913
സ്റ്റേഡിയ	9914
സമ്പൂര്‍	9915
##ാള്‍ഡ്	9916
സോഫ്റ്റ്	9917
##ായിട്ടുള്ള	9918
പുറത്താക്കിയ	9919
സിനിമയിൽ	9920
നഗരത്തിലെ	9921
ശിവന്‍	9922
തൃശൂരില്‍	9923
മനുഷ്യാവകാശ	9924
അറസ്റ്റിലായത്	9925
ബിസിനസ	9926
ലീഗിന്	9927
പെണ്‍കുട്ടിയുടെ	9928
പ്രദീപ്	9929
ഐസക്	9930
സൗദിയില്‍	9931
ഇംഗ്ലീഷ്	9932
ഉത്തർപ്രദേശ	9933
അച്ചടക്ക	9934
##ala	9935
അബദ്ധ	9936
ഡിഎംകെ	9937
അനധികൃത	9938
തീര്‍ഥ	9939
മസ്ജി	9940
അണ്ണ	9941
കര്‍ക്ക	9942
ലഡ	9943
##യറ	9944
##ഭയ	9945
##ൂഖ്	9946
##ായതോടെ	9947
##പ്പെരിയ	9948
നിഖ	9949
##ാര്‍ഗ	9950
പിഎം	9951
അതൊരു	9952
##വാസ്	9953
രാജയോഗം	9954
പറയുന്നത	9955
##ത്തിലുണ്ട്	9956
പെരി	9957
ചേര്‍ക്ക	9958
ട്രാന്‍	9959
വോട്ടര്‍മാര്‍	9960
രാഹുല	9961
അനുയായ	9962
ഇറക്കിയ	9963
ഉള്‍പ്പെടുത്തിയ	9964
അടിത്തറ	9965
വാര്‍ഷിക	9966
വിമാനത്തില്‍	9967
വിവാഹത്തിന്	9968
വിലയിരുത്തൽ	9969
കാരണമാണ്	9970
താഴെയ	9971
കമ്മിറ്റിയുടെ	9972
കടുവയെ	9973
##ിക്കെതിരായ	9974
ഒരുങ്ങുന്നത്	9975
വിശ്വസ്ത	9976
ലാലേട്ട	9977
ഭർത്താവ്	9978
ഇമ്ര	9979
ബീഹാറില്‍	9980
ഹിമാച	9981
ടൊ	9982
തഴ	9983
വട്ട	9984
##ഡിന്	9985
##ർഷം	9986
##ൈല്‍	9987
##ഫെ	9988
##ിയര്‍	9989
##ാണെന്നായിരുന്നു	9990
##ിച്ചെന്ന്	9991
##ദേവ	9992
അതൊക്കെ	9993
##സിസ	9994
വെന്റ	9995
കെട്ടിയ	9996
ലക്ഷ്മ	9997
##ിക്കാനോ	9998
##പ്പെടുത്തും	9999
