<unk>	0
<s>	0
</s>	0
.	-2.87077
,	-4.28852
്	-4.35957
ം	-4.61807
ും	-4.9225
ു	-5.03106
▁	-5.11475
ത്	-5.26557
ി	-5.51792
ില്‍	-5.5265
്‍	-5.59592
യും	-5.63881
ാണ്	-5.64314
യ	-5.68698
▁ഒരു	-5.76281
യുടെ	-5.79407
▁ഈ	-5.82638
െ	-5.89001
മ	-5.95121
ക്ക്	-5.95294
ിൽ	-5.96256
ത	-5.98947
യില്‍	-6.0354
ക്ക	-6.04253
ാന്‍	-6.06107
ാ	-6.08285
ന	-6.12785
:	-6.133
ര്‍	-6.14108
സ്	-6.14657
▁പറഞ്ഞു	-6.15991
ന്‍	-6.17853
വ	-6.18285
ിന്റെ	-6.20074
യാണ്	-6.20665
വും	-6.21653
ുന്ന	-6.23363
▁അ	-6.24974
ര	-6.25042
ർ	-6.26083
▁തന്നെ	-6.2819
▁എന്ന	-6.29085
ല്‍	-6.30999
റ	-6.35044
ിന്	-6.35302
ിരുന്നു	-6.3614
മാണ്	-6.37584
യിൽ	-6.37716
ല	-6.38348
ുന്നത്	-6.38377
ാൻ	-6.38894
ക	-6.3914
യെ	-6.39486
▁പി	-6.40088
▁സി	-6.40722
ൻ	-6.41234
ത്തില്‍	-6.41859
▁ക	-6.42596
ോ	-6.43202
ത്ത	-6.43596
േ	-6.44933
▁നിന്ന്	-6.45113
▁ആ	-6.45135
ൽ	-6.48388
-	-6.49323
▁സ്	-6.49681
സ	-6.52469
ിട്ടുണ്ട്	-6.53345
ത്തിന്	-6.56446
പ്പ	-6.58042
▁കഴിഞ്ഞ	-6.58078
ിലെ	-6.59897
മായ	-6.60257
▁മ	-6.61808
മായി	-6.62963
▁എ	-6.63495
▁വി	-6.6413
ണ	-6.65196
ിയ	-6.66152
ുക	-6.67227
▁സ	-6.70412
▁അദ്ദേഹം	-6.70905
ങ്ങള്‍	-6.71107
▁കെ	-6.7202
സി	-6.72678
ണം	-6.73009
ുള്ള	-6.73381
▁അതേസമയം	-6.73654
▁ന	-6.73692
▁എന്നാല്‍	-6.73876
ില്ല	-6.74138
ങ്ങൾ	-6.76387
ത്തിൽ	-6.78477
▁(	-6.78747
ക്	-6.80159
ിനെ	-6.82141
യിലെ	-6.82487
▁ഇത്	-6.82531
ത്തിന്റെ	-6.83334
▁എന്ന്	-6.83517
കള്‍	-6.84299
പ	-6.86308
ത്തെ	-6.86628
▁മുഖ്യമന്ത്രി	-6.86838
▁ഇ	-6.87763
ായി	-6.88046
ായിരുന്നു	-6.88049
▁സംസ്ഥാന	-6.8901
▁ബി	-6.8913
▁ബിജെപി	-6.90139
ട	-6.90462
▁വലിയ	-6.90598
യ്ക്ക്	-6.9163
ായ	-6.92404
ൂ	-6.93007
പി	-6.93636
ള	-6.94018
▁ത	-6.95047
▁പ	-6.96682
ുകയും	-6.96778
▁കോണ്‍ഗ്രസ്	-6.96892
▁കേന്ദ്ര	-6.97122
▁നിന്നും	-6.97286
;	-6.97319
വി	-6.99239
ടി	-7.01996
ുകള്‍	-7.02774
▁രൂപ	-7.035
▁മന്ത്രി	-7.03937
)	-7.04801
കൾ	-7.06413
▁വ	-7.06958
▁ചെയ്ത	-7.08107
ിരിക്കുന്നത്	-7.09155
▁അത്	-7.1001
▁-	-7.10025
▁എം	-7.1061
ഡ്	-7.11413
ന്	-7.11774
റ്റ	-7.12327
ട്ട	-7.13655
▁രണ്ട്	-7.14961
ഡ	-7.15184
ഹ	-7.16404
ാം	-7.16789
▁ഇന്ന്	-7.16854
ുമായി	-7.17189
▁എല്ലാ	-7.17829
ദ	-7.18185
ുന്നു	-7.18737
▁ഡി	-7.20648
ഗ	-7.20661
▁സ്വദേശി	-7.20834
▁പുതിയ	-7.20994
ുകൾ	-7.21032
▁എന്നാണ്	-7.21476
ാല്‍	-7.22108
ച്ച	-7.22302
▁പോലീസ്	-7.22344
▁പറയുന്നു	-7.22502
▁പ്ര	-7.23787
▁വരെ	-7.23848
ീ	-7.23899
ുടെ	-7.2405
ത്ത്	-7.24857
▁എസ്	-7.24868
▁ശേഷം	-7.25159
ുകയായിരുന്നു	-7.25426
ക്കും	-7.26265
ാനുള്ള	-7.27059
▁ആണ്	-7.2768
▁ഏറ്റവും	-7.29613
ല്ല	-7.30303
▁നടത്തിയ	-7.31914
▁വന്ന	-7.32835
ഷ	-7.32925
▁ഐ	-7.33625
ിലും	-7.3367
നി	-7.33785
ുണ്ട്	-7.34987
▁ചെയ്തു	-7.35041
▁സര്‍ക്കാര്‍	-7.36948
▁ജെ	-7.37029
?	-7.37752
യായ	-7.38361
യുള്ള	-7.38807
▁കൊവിഡ്	-7.39191
ിലേക്ക്	-7.39292
ലി	-7.39446
▁നേരത്തെ	-7.40421
ശ	-7.41043
ജി	-7.41189
▁ഗ	-7.41435
▁ദിവസം	-7.41664
▁രാഷ്ട്രീയ	-7.42081
ഡി	-7.42965
▁പാര്‍ട്ടി	-7.4357
▁ജില്ലാ	-7.43732
താണ്	-7.44064
ിക്ക	-7.44233
▁കോവിഡ്	-7.44264
▁തിരുവനന്തപുരം	-7.44379
▁എന്നും	-7.45229
▁ഇന്ത്യ	-7.45516
യോ	-7.46185
ിരിക്കുകയാണ്	-7.46459
ുകയാണ്	-7.46654
▁എന്നാൽ	-7.47401
ബ	-7.48128
റ്റ്	-7.48214
തി	-7.48514
▁വില	-7.49291
▁പേര്‍	-7.49681
വര്‍	-7.50518
▁കോടി	-7.50533
വര	-7.50601
ന്റെ	-7.50654
റി	-7.50895
▁കേരള	-7.51223
ബി	-7.51389
▁കോ	-7.51607
▁ചില	-7.5168
തിന്	-7.52076
ങ്ങളും	-7.52929
ാൽ	-7.53019
▁കൂടി	-7.53424
െങ്കിലും	-7.53796
എസ്	-7.53907
തോടെ	-7.55171
ങ്ങ	-7.55275
ുമെന്ന്	-7.55353
▁നടന്ന	-7.5562
▁ഉ	-7.56084
യായി	-7.56761
ാന	-7.57275
ങ്ക	-7.5736
▁നല്‍കിയ	-7.5741
ാതെ	-7.58014
മ്പ	-7.58015
ക്കെതിരെ	-7.58091
▁പരാതി	-7.58336
ജ	-7.58358
രി	-7.58413
▁'	-7.59059
ൈ	-7.59206
▁കൂടുതല്‍	-7.59215
▁കോടതി	-7.59357
യ്	-7.5969
▁ജോലി	-7.59876
▁മൂന്ന്	-7.59905
▁നി	-7.59956
ാത്ത	-7.60018
▁മാ	-7.60487
ാനും	-7.60897
▁പറഞ്ഞ	-7.6157
ിച്ച	-7.61672
▁ബ	-7.61943
പ്ര	-7.62101
▁ടി	-7.62186
▁നടപടി	-7.62193
ിട്ടില്ല	-7.62919
ോട്	-7.63042
കളും	-7.6308
യിലേക്ക്	-7.63249
▁ച	-7.63454
▁രോഗം	-7.63498
▁ആരോഗ്യ	-7.63832
ില	-7.64789
▁വഴി	-7.65087
▁വ്യക്തമാക്കി	-7.65484
▁അറിയിച്ചു	-7.65525
▁10	-7.65822
▁19	-7.66407
പ്പെട്ട	-7.66457
▁തിരഞ്ഞെടുപ്പ്	-7.66646
▁ഹ	-7.66859
ൾ	-7.67265
കളുടെ	-7.67451
ഫ	-7.67914
▁പറയുന്നത്	-7.68167
▁പദ്ധതി	-7.68174
▁ഇവിടെ	-7.68475
ിരുന്ന	-7.69269
▁സർക്കാർ	-7.69283
തായി	-7.69458
▁വര	-7.69473
ുമെന്നും	-7.69695
▁പ്രധാനമന്ത്രി	-7.70003
എ	-7.70111
▁കോൺഗ്രസ്	-7.70501
▁പാർട്ടി	-7.7052
▁ല	-7.70662
മി	-7.70912
▁പോലും	-7.71188
▁വേണ്ടി	-7.71889
നെ	-7.72018
▁അടുത്ത	-7.72388
▁പൊലീസ്	-7.72522
ണ്ട	-7.72776
ന്ന	-7.72829
),	-7.73044
മുള്ള	-7.73306
▁പ്രതി	-7.73425
▁പല	-7.73937
▁ജ	-7.74082
ിംഗ്	-7.74549
▁സെക്രട്ടറി	-7.74761
▁കണ്ട	-7.75092
യായിരുന്നു	-7.75165
ങ്ങള	-7.75208
▁ഇപ്പോള്‍	-7.76563
▁മുതല്‍	-7.77076
'	-7.77534
ച	-7.77552
ാവ	-7.78617
വർ	-7.78662
▁കൊണ്ട്	-7.78729
▁നിയമ	-7.79035
▁റ	-7.79049
യുമായി	-7.79285
▁കാരണം	-7.79444
▁മറ്റ്	-7.79641
▁പാ	-7.79946
▁കാ	-7.8016
ഴ	-7.81492
▁കോഴിക്കോട്	-7.81533
ിലാണ്	-7.81727
യാ	-7.81779
▁മാത്രം	-7.81937
▁തന്റെ	-7.82743
ക്കു	-7.82853
▁ആദ്യ	-7.83135
▁ഇതുവരെ	-7.83297
െന്ന്	-7.84095
▁യു	-7.84178
▁ചെയ്യ	-7.85122
▁ഇട	-7.85125
തെന്നും	-7.85391
▁സാധ്യത	-7.85872
▁ന്	-7.85898
തെന്ന്	-7.85995
തും	-7.86088
▁സു	-7.86691
▁ശതമാനം	-7.86898
▁റിപ്പോര്‍ട്ട്	-7.86911
▁ജി	-7.8696
ൂര്‍	-7.87147
▁ഒ	-7.87416
യില	-7.87446
▁ഇനി	-7.87574
▁വീണ്ടും	-7.88128
ൗ	-7.88189
േണ്ട	-7.88194
ുന്നുണ്ട്	-7.88849
▁ഇതോടെ	-7.88865
▁എത്തിയ	-7.89102
▁1	-7.89158
▁11	-7.89164
▁നേതാവ്	-7.89293
്റെ	-7.89347
▁മോദി	-7.89526
▁20	-7.89633
ണ്‍	-7.90188
പ്പോള്‍	-7.90218
▁പറയ	-7.90226
ാനാണ്	-7.90289
▁നിരവധി	-7.90293
പ്	-7.90596
▁എന്നിവ	-7.90814
യിലും	-7.9087
▁ഗാന്ധി	-7.9104
▁ലഭിച്ച	-7.91668
▁ലക്ഷം	-7.91712
വരെ	-7.9188
ട്ടി	-7.9209
▁ചര്‍ച്ച	-7.92132
▁യാത്ര	-7.92215
▁നിന്നുള്ള	-7.92222
▁അവര്‍	-7.92529
എം	-7.92556
▁കു	-7.92641
▁പിന്നാലെ	-7.92972
▁പരിശോധന	-7.9311
ണമെന്ന്	-7.93118
▁വിവിധ	-7.93129
▁12	-7.93162
▁പ്രതിപക്ഷ	-7.94037
▁മാറ്റ	-7.94202
▁പോക	-7.94255
▁തിരഞ്ഞെടുപ്പ	-7.94421
▁ശ	-7.94539
ൊ	-7.94556
വാ	-7.94789
▁വളരെ	-7.94793
▁സംസ്ഥാനത്ത്	-7.9535
മ്മ	-7.95397
▁ഉള്ള	-7.95439
4	-7.95877
െന്നും	-7.96125
ുകളും	-7.96364
വുമായി	-7.96591
ുന്നതിന്	-7.96882
▁തുടങ്ങിയ	-7.97163
▁ഞാന്‍	-7.97176
▁ദേശീയ	-7.97438
ഐ	-7.97768
ിക	-7.9783
▁ജില്ലയില്‍	-7.97832
▁പ്രത്യേക	-7.97952
▁സെ	-7.98043
ന്ത	-7.98298
▁സാ	-7.98432
▁പിന്നീട്	-7.98628
ത്തിലെ	-7.98934
കളെ	-7.98963
▁മാത്രമാണ്	-7.98996
▁15	-7.99676
▁പിണറായി	-7.99834
▁കട	-8.00045
▁ചെയ്യുന്ന	-8.00279
ുമ്പോള്‍	-8.003
▁ശക്തമായ	-8.00416
▁2	-8.00696
▁മു	-8.01025
▁ഇതിന്	-8.01037
ഭ	-8.01041
▁3	-8.01059
്യ	-8.01123
ത്തി	-8.01186
▁വകുപ്പ്	-8.01258
▁കേസ്	-8.01673
▁വാ	-8.01813
ിക്കുന്ന	-8.01875
ുമാണ്	-8.01918
▁വരുന്ന	-8.02199
ിട്ട	-8.02427
▁തുടര്‍ന്ന്	-8.02516
യിലാണ്	-8.02689
കള	-8.02969
ക്കി	-8.03386
▁പ്രധാന	-8.03609
▁ആവശ്യപ്പെട്ട	-8.03637
ിനെതിരെ	-8.04476
▁അവരുടെ	-8.04741
▁ഓ	-8.049
ൂർ	-8.04912
▁ദ	-8.05273
ക്കാര	-8.05307
▁രാഹുല്‍	-8.05622
▁5	-8.05686
▁ചോദ്യം	-8.05744
▁പ്രശ്	-8.06185
ണമെന്നും	-8.06371
ദ്	-8.06667
▁വീഡിയോ	-8.06876
▁ചെയ്തത്	-8.0696
▁സിപിഎം	-8.07559
ണി	-8.07915
▁ര	-8.0792
ിനും	-8.07992
▁നല്ല	-8.08051
അ	-8.08428
3	-8.08644
▁വാക്	-8.08681
ങ്ങളുടെ	-8.0876
▁മികച്ച	-8.08798
ുവ	-8.08904
▁പോയ	-8.08945
▁ഇവര്‍	-8.08951
▁പോലെ	-8.09108
▁പറഞ്ഞത്	-8.09212
ൺ	-8.09342
ത്തില	-8.09464
ിയത്	-8.09561
യു	-8.09859
ഷ്	-8.09953
▁സ്വദേശിനി	-8.09988
നാ	-8.101
▁ഇങ്ങനെ	-8.10158
▁നിന്ന	-8.10332
ളി	-8.10366
ങ്ങളില്‍	-8.1054
▁കാണ	-8.10674
▁നാല്	-8.11008
ുമെന്നാണ്	-8.11384
▁പ്രഖ്യാപിച്ച	-8.11395
▁അഞ്ച്	-8.11742
▁ആര്‍	-8.11803
▁ട	-8.1197
▁തല	-8.12062
▁സ്ഥിരീകരിച്ച	-8.12308
ഇ	-8.12447
മോ	-8.12755
▁കൊറോണ	-8.12756
ുളള	-8.12998
▁നില	-8.13028
▁ഷ	-8.13078
▁മുന്‍	-8.13698
▁വെ	-8.13785
ലാ	-8.13911
റിയ	-8.14042
പ്പി	-8.14187
▁ദില്ലി	-8.14248
▁ഇത്തവണ	-8.14283
▁പണം	-8.14435
▁വിവരം	-8.14474
▁മുതൽ	-8.14676
▁പക്ഷേ	-8.14698
▁സാമ്പത്തിക	-8.14823
▁"	-8.14947
ിട	-8.15113
തു	-8.15173
5	-8.15202
▁കൈ	-8.15241
▁എന്റെ	-8.15344
പ്പ്	-8.15968
▁24	-8.16155
▁പുറത്ത്	-8.16369
▁ഞാൻ	-8.16739
ള്‍	-8.16898
▁മെ	-8.16916
▁ബന്ധപ്പെട്ട	-8.17135
▁പിന്തുണ	-8.1734
▁പ്രസിഡന്റ്	-8.17469
▁തീരുമാനം	-8.17529
▁സമയം	-8.17532
▁അന്വേഷണ	-8.17638
▁14	-8.17837
▁മഴ	-8.17913
ക്കുന്ന	-8.17947
ില്ലെന്ന്	-8.18216
ിന	-8.18497
ബ്	-8.18586
▁തന്നെയാണ്	-8.18636
▁രാവിലെ	-8.18646
▁കൂടുതൽ	-8.18697
ിന്‍റെ	-8.18924
ിങ്	-8.19035
▁നേതാക്കള്‍	-8.19599
ുമ	-8.19603
മാ	-8.20218
▁ഡോ	-8.20298
വ്	-8.20459
▁സീറ്റ്	-8.20761
ജ്	-8.20771
▁കൊച്ചി	-8.20843
ിച്ച്	-8.20926
വരുടെ	-8.21685
▁കൂട്ട	-8.21792
നും	-8.21915
ന്റ	-8.2192
▁പൊതു	-8.22046
ിച്ചു	-8.22445
റ്റി	-8.22491
▁റിപ്പോർട്ട്	-8.2271
▁കണ്ണൂര്‍	-8.22811
▁പേര്‍ക്ക്	-8.22847
/	-8.22854
▁മറുപടി	-8.22871
മായിരുന്നു	-8.22878
▁വിജയ	-8.22894
പ്പോൾ	-8.23287
▁വോട്ട്	-8.23531
▁ജില്ലയിലെ	-8.23646
▁സിനിമ	-8.2386
ിലൂടെ	-8.23929
▁നിയമസഭാ	-8.24186
ില്ലെന്നും	-8.24642
▁അന്വേഷണം	-8.24983
▁ഉണ്ടായ	-8.25385
▁സൂചന	-8.25777
▁ആയിരുന്നു	-8.25973
യി	-8.26339
ാണെന്ന്	-8.26446
▁ഷാ	-8.26491
ങ്ങളെ	-8.26545
ുമ്പോൾ	-8.26546
ത്തിലേക്ക്	-8.26566
▁13	-8.26754
▁ആയി	-8.26887
ിരുന്നത്	-8.26985
▁മറ്റൊരു	-8.26998
▁ആയ	-8.2701
▁എണ്ണം	-8.27128
▁നടക്കുന്ന	-8.27272
ംഗ	-8.2734
▁തവണ	-8.27398
▁പോ	-8.27423
▁നേതൃത്വം	-8.27499
▁കമ്മിറ്റി	-8.27516
▁എന്നീ	-8.27623
▁അവ	-8.27744
▁ഏ	-8.27807
▁ഓരോ	-8.27893
▁18	-8.27903
്യൂ	-8.28172
▁നടത്തി	-8.28195
താ	-8.28426
▁അവസാന	-8.28471
▁നൽകിയ	-8.28882
ുണ്ടായ	-8.2898
▁നല്‍കി	-8.29096
▁അവർ	-8.29138
ത്തിലാണ്	-8.29158
കെ	-8.29253
▁അവിടെ	-8.29401
▁9	-8.29406
▁പേര	-8.29594
8	-8.29836
െന്ന	-8.30021
ൊന്നും	-8.30081
ൊരു	-8.30092
2	-8.30232
ഞ്ഞ	-8.30391
▁4	-8.3041
▁എന്‍	-8.30655
ിട്ടുള്ളത്	-8.30811
!	-8.30841
കര	-8.30885
▁നടത്തുന്ന	-8.30967
ങ്ങളിൽ	-8.30995
▁വോട്ട	-8.31123
വെ	-8.31127
▁കുടുംബ	-8.31202
▁ബിഗ്	-8.3124
▁ഭരണ	-8.31299
ണ്ണ	-8.31302
സ്റ്റ	-8.31369
▁ആർ	-8.31415
▁ആലപ്പുഴ	-8.31757
▁ലെ	-8.31867
▁എനിക്ക്	-8.32105
0	-8.32358
▁സ്വീകരിക്ക	-8.32366
▁അപേക്ഷ	-8.32488
▁,	-8.3257
▁ജന	-8.3261
ുമോ	-8.3267
ട്ട്	-8.32801
▁രോഗ	-8.33121
▁ആകെ	-8.3313
തിനെ	-8.33451
ഫ്	-8.33538
▁രണ്ടാം	-8.33848
പ്പെട	-8.34003
▁അങ്ങനെ	-8.34088
േറ്റ	-8.34224
▁6	-8.34314
▁യ	-8.34542
▁ഇപ്പോൾ	-8.3488
▁മുമ്പ്	-8.34928
▁കാര്യം	-8.35047
▁അതിന്	-8.35195
▁വേ	-8.35255
▁ശ്രീ	-8.35292
▁ആവശ്യ	-8.35388
▁നിലവില്‍	-8.35618
▁മോ	-8.3565
▁കമ്പനി	-8.3578
നായ	-8.35967
▁വിട്ട	-8.35998
▁നീക്ക	-8.36053
▁അറസ്റ്റ്	-8.36102
▁മരണ	-8.36109
▁സംസാരിക്ക	-8.36398
▁ഖ	-8.3641
▁പാലക്കാട്	-8.36423
▁വരും	-8.3679
▁റി	-8.36885
▁വ്യക്തി	-8.36993
▁മാത്രമല്ല	-8.37197
▁ഏറെ	-8.37209
ട്	-8.37384
▁കി	-8.37392
▁കോട്ടയം	-8.37445
ാലും	-8.37564
▁മാസ	-8.37764
ത്തിനും	-8.37812
ന്ദ	-8.37826
▁ഇത്തരം	-8.38116
▁അമ്മ	-8.38178
▁താന്‍	-8.38492
▁ആശങ്ക	-8.38496
▁7	-8.3864
▁എഫ്	-8.38683
▁പെ	-8.38704
▁നാ	-8.38928
ച്ചു	-8.39099
ിട്ട്	-8.39144
▁സിംഗ്	-8.39258
ാക	-8.3929
▁ഇന്ത്യന്‍	-8.39691
യ്ക്ക	-8.39727
▁30	-8.39993
ഗ്	-8.39997
▁സ്ഥാനാര്‍ത്ഥി	-8.40046
▁ഫ	-8.40049
▁അറിയ	-8.40141
▁കേരളത്തില്‍	-8.40196
ക്കായി	-8.40227
ിട്ടും	-8.4024
▁ഭ	-8.40259
▁എണ്ണ	-8.40292
▁രാത്രി	-8.40384
▁ആദ്യം	-8.40526
കളില്‍	-8.40651
▁25	-8.40652
ച്ച്	-8.40705
▁സംഭവം	-8.40712
▁കുറിച്ച്	-8.40717
നം	-8.40732
ാമ	-8.41035
▁മി	-8.41134
"	-8.4121
ണമെന്ന	-8.413
▁യുഡിഎഫ്	-8.41316
▁കാര്യങ്ങള്‍	-8.41382
▁ഹൈക്കോടതി	-8.41408
ഞ്ച	-8.41453
േയും	-8.41455
▁വര്‍ഷം	-8.4152
▁ഇരു	-8.41618
▁ചെ	-8.41685
▁കാല	-8.41692
▁പേർ	-8.41744
▁ഭാര്യ	-8.41906
▁എറണാകുളം	-8.41977
▁സ്വകാര്യ	-8.42038
▁സൗദി	-8.42292
▁16	-8.42391
▁അനുമതി	-8.42482
▁ബാ	-8.42582
▁പ്രതിരോധ	-8.42743
കാര	-8.42897
▁ആശുപത്രി	-8.42923
ിനോട്	-8.42937
ാർ	-8.42978
▁സംബന്ധിച്ച്	-8.43097
െല്ലാം	-8.43311
▁എക്	-8.43672
കള്‍ക്ക്	-8.43792
▁17	-8.43868
▁രാജ്യത്ത്	-8.43894
▁സമിതി	-8.43925
യോട്	-8.44445
▁ഇതില്‍	-8.44525
▁മാസം	-8.4472
േണ്ടി	-8.44911
രു	-8.44929
▁8	-8.45224
ത്തു	-8.45377
▁ലി	-8.45492
വേ	-8.45539
6	-8.45549
▁ല്‍	-8.45603
▁സമര	-8.45798
ലെ	-8.45829
▁നിലപാട്	-8.45935
▁പ്രതിഷേധ	-8.45954
▁പേരാണ്	-8.45988
ഥ	-8.45999
മു	-8.4607
▁കൊല്ലം	-8.46186
▁തുടര	-8.46229
▁മത	-8.46246
രുത്	-8.46454
▁അന്ന്	-8.46587
▁കേസില്‍	-8.46629
ത്തിലും	-8.46667
ടുക്ക	-8.47162
▁ലോക്	-8.47162
ാക്ക	-8.47483
▁അത	-8.47517
▁പറഞ്ഞിരുന്നു	-8.47636
▁ൽ	-8.47846
▁വെച്ച	-8.47899
▁രംഗത്ത്	-8.48089
ത്ര	-8.4833
▁പരീക്ഷ	-8.48412
▁മെഡിക്കല്‍	-8.48413
ഖ	-8.48494
ത്തോടെ	-8.48632
▁ചെയ്തിരുന്നു	-8.48824
ിത	-8.48844
▁വിദ്യാഭ്യാസ	-8.4931
▁നൽക	-8.49459
▁എത്ത	-8.49563
കോ	-8.49625
ൊക്കെ	-8.49657
▁ലഭിക്ക	-8.49807
▁സ്ത്രീ	-8.49894
▁മാറ്റി	-8.49912
▁പ്രതിസന്ധി	-8.50013
ങ്ങളാണ്	-8.50131
ുകളുടെ	-8.50177
▁ഇല്ല	-8.50208
▁പത്തനംതിട്ട	-8.50425
▁നീക്കം	-8.5043
കളാണ്	-8.50503
▁തീരുമാന	-8.50606
▁നേടിയ	-8.50606
▁ഡ	-8.50658
▁കൂടാതെ	-8.50813
ക്കാണ്	-8.50983
▁ബന്ധപ്പെട്ട്	-8.51023
▁നടി	-8.51134
▁നമ്മുടെ	-8.51269
▁50	-8.51296
▁കര	-8.51301
ായിരിക്കും	-8.51457
▁ചിത്ര	-8.51486
▁മേഖല	-8.51567
1	-8.51614
േക്ക്	-8.51622
▁മത്സര	-8.51636
▁തു	-8.51967
ാര്‍	-8.52129
▁അദ്ദേഹത്തിന്റെ	-8.5214
▁മുൻ	-8.52216
മല്ല	-8.52518
▁കേരളത്തിലെ	-8.52583
മാക്ക	-8.52661
ിട്ടുള്ള	-8.52718
▁സ്വ	-8.52726
ിരുന്നില്ല	-8.52798
▁അതുകൊണ്ട്	-8.52885
▁സംഘം	-8.53017
▁ഇക്കാര്യം	-8.53121
േക്കും	-8.53293
▁ആവശ്യം	-8.53358
▁അമേരിക്ക	-8.53599
00	-8.5362
ുകള	-8.53621
റെ	-8.53662
െന്നാണ്	-8.54039
ുമെന്ന	-8.5406
▁സമയത്ത്	-8.54106
റു	-8.54232
▁സ്വന്തം	-8.54354
നാണ്	-8.54576
▁ഭാഗമായി	-8.54775
▁നിയമസഭ	-8.54874
▁സുരേഷ്	-8.54888
▁സമൂഹ	-8.55085
▁പു	-8.55247
▁വ്യക്തമാക്കുന്ന	-8.55282
▁തദ്ദേശ	-8.5539
▁നടത്ത	-8.55434
്‍ക്ക്	-8.55463
▁വിമാന	-8.55494
▁പ്രകാരം	-8.55501
▁തി	-8.55534
ക്കോ	-8.55644
▁ബന്ധ	-8.55657
രം	-8.55695
▁ചർച്ച	-8.55702
ശ്	-8.55857
▁പ്രതീക്ഷ	-8.55884
▁നടക്ക	-8.55946
മുണ്ട്	-8.56073
▁സ്ഥാനാർത്ഥി	-8.56415
▁ചൈന	-8.56459
സ്റ്റ്	-8.56726
മേ	-8.57217
▁ഇടുക്കി	-8.57613
▁ഫലം	-8.57614
ക്ര	-8.57626
ാറ	-8.57815
▁നരേന്ദ്ര	-8.57914
▁ആറ്	-8.5826
▁മാത്രമേ	-8.58284
▁തീ	-8.58484
▁തനിക്ക്	-8.58741
▁ഓഫ്	-8.58795
▁ചെയ്യുന്നത്	-8.58805
രെ	-8.5902
▁പ്രതികരണം	-8.59144
▁രാജ്യത്തെ	-8.59199
▁മുന്നണി	-8.59206
യം	-8.59319
▁ഉണ്ട്	-8.59421
ങ്ങള്‍ക്ക്	-8.59705
െയും	-8.59776
▁എല്‍	-8.59849
തിന്റെ	-8.59942
▁അടക്കം	-8.59951
▁മണി	-8.59962
▁ജില്ല	-8.60058
▁അറിയിച്ച	-8.60248
▁മലപ്പുറം	-8.60285
9	-8.60299
▁ജയ	-8.60385
▁വികസന	-8.60406
ത്തിനായി	-8.60584
മില്ല	-8.60617
▁എടുക്ക	-8.60621
▁സംബന്ധിച്ച	-8.60865
വരാണ്	-8.60928
▁സാഹചര്യത്തില്‍	-8.61008
ാണെന്നും	-8.61093
▁ജോ	-8.61101
ുള്ളത്	-8.61373
▁ലഭിക്കും	-8.61413
▁രാജ	-8.61451
ിരിക്കുന്ന	-8.61467
▁പേരും	-8.61531
▁ലോക	-8.61765
ങ്ങൾക്ക്	-8.6185
▁ഇന്നലെ	-8.6193
▁പൂ	-8.62023
▁സോഷ്യല്‍	-8.62233
▁മുംബൈ	-8.62313
▁കഴിയ	-8.62333
രാ	-8.62355
▁എംപി	-8.62389
000	-8.62805
▁ചെയ്ത്	-8.62806
▁മുന്നോട്ട്	-8.62866
▁സ്വീകരിച്ച	-8.62983
▁രണ്ടു	-8.63033
ിനു	-8.63036
▁മാധ്യമ	-8.63181
▁ആശുപത്രിയില്‍	-8.63227
▁കടുത്ത	-8.63266
▁എടുത്ത	-8.63408
▁ചെറിയ	-8.63701
▁കുറഞ്ഞ	-8.63734
ഹ്	-8.63911
▁ഷോ	-8.64041
▁കണ്ടെത്ത	-8.64045
▁എന്നത്	-8.64058
e	-8.64146
കാല	-8.64148
ക്ഷ	-8.64372
▁ചേര്‍ന്ന	-8.64567
▁പ്രവര്‍ത്തിക്ക	-8.6461
▁തെറ്റ	-8.64621
▁ചികിത്സ	-8.64662
▁21	-8.64762
,000	-8.64844
▁വിജയം	-8.64905
തെന്നാണ്	-8.6506
▁അതേ	-8.65074
▁മറ്റു	-8.65077
▁ട്ര	-8.65185
ആര്‍	-8.65309
ുകളില്‍	-8.65318
▁ചാ	-8.6536
▁കൊണ്ട	-8.65423
▁പേര്	-8.65579
വര്‍ക്ക്	-8.65615
തിനാല്‍	-8.65751
▁മരിച്ച	-8.65768
▁നല്‍ക	-8.65776
▁മുഹമ്മദ്	-8.65836
▁കിട്ട	-8.65852
▁സംഘടന	-8.65906
ക്കുള്ള	-8.65942
▁മൂ	-8.66049
▁തുടർന്ന്	-8.66196
തില്‍	-8.66226
▁22	-8.66434
▁കണ്ടെത്തിയ	-8.66436
▁ഒന്ന	-8.6644
േണ്ടത്	-8.66442
7	-8.66503
▁തിരിച്ചടി	-8.66903
▁വിവാദ	-8.66939
യെന്ന്	-8.66985
▁വ്യക്തമാക്കിയ	-8.67013
ോള	-8.67072
യോടെ	-8.67157
▁സംസ്ഥാനത്തെ	-8.6728
▁കേരളം	-8.67473
▁മാറ	-8.67624
▁പോസ്റ്റ	-8.678
തായും	-8.67856
വരും	-8.67928
▁ചേര	-8.67979
▁ആര	-8.68103
▁എത്ര	-8.68213
▁എത്തി	-8.68271
ോടെ	-8.68353
▁ശക്തി	-8.6847
ൂര	-8.68727
▁എന്ത	-8.68824
▁ബിജെപിയുടെ	-8.68839
▁സംഘ	-8.68945
ദ്ധ	-8.68951
▁മാറി	-8.69058
▁വൈറസ്	-8.69152
ന്റ്	-8.69162
ൃ	-8.69267
സാ	-8.69294
▁നടത്തിയത്	-8.6936
▁കൊടുത്ത	-8.69577
▁കൊ	-8.696
▁അനുവദിക്ക	-8.69649
ിൻ്റെ	-8.69656
▁വൈ	-8.69772
▁വിഭാഗം	-8.69834
▁വാഹന	-8.70073
കളിൽ	-8.70162
എഫ്	-8.70292
തല	-8.70465
▁വിധി	-8.70467
ത്തിന	-8.70516
ക്കൊപ്പം	-8.70645
▁ലീഗ്	-8.70646
▁ആരോപണം	-8.70697
▁സോ	-8.70833
20	-8.70886
▁സംഭവ	-8.70894
▁ഒന്നും	-8.70946
▁വിട	-8.71044
▁വെച്ച്	-8.71495
▁താര	-8.71549
▁അവകാശ	-8.71574
▁അല	-8.71587
▁നേട	-8.7168
ധ	-8.71729
യ്ക്കും	-8.71884
ിക്കാന്‍	-8.72079
▁ഭൂമി	-8.72199
ോളം	-8.72323
▁പരിഗണിക്ക	-8.72346
▁ആവശ്യപ്പെട്ടു	-8.72383
▁ഉയര്‍ന്ന	-8.72585
▁ദിവസ	-8.72588
കൾക്ക്	-8.72597
▁തൃശൂര്‍	-8.72603
▁പ്രിയങ്ക	-8.72624
▁പങ്കെടുത്ത	-8.72729
▁വന്‍	-8.72756
▁ചെയ്യും	-8.7277
▁സം	-8.7283
▁നല്‍കുന്ന	-8.7296
▁റിപ്പോര്‍ട്ട	-8.73028
▁എന്നതാണ്	-8.73119
▁വീട്ടില്‍	-8.73239
▁സര്‍ക്കാര	-8.73458
▁40	-8.73568
▁പര	-8.73654
▁ആക്രമണ	-8.73854
▁ബോസ്	-8.73859
യര്‍	-8.73965
ോട്ട	-8.74054
മാണെന്ന്	-8.74256
േക്ക	-8.74399
▁എല്ലാം	-8.74435
▁നേരിട്ട	-8.74525
▁പോയി	-8.74598
▁ചെന്നിത്തല	-8.7464
▁ആരംഭിച്ച	-8.74826
ുന്നത	-8.7486
▁ടെ	-8.74861
▁എന്നായിരുന്നു	-8.75193
▁ഇവ	-8.75291
ക്കര	-8.75429
ാല	-8.75555
▁പങ്കെടുക്ക	-8.75573
▁മേ	-8.75658
▁ക്ര	-8.75709
ട്ടെ	-8.7577
▁എന്ത്	-8.75801
നോ	-8.75831
മാര	-8.75912
▁23	-8.7605
▁ഉണ്ടാക	-8.76204
▁പദവി	-8.76296
▁തുടങ്ങി	-8.76507
▁വര്‍ഷ	-8.76526
▁യുഎഇ	-8.76563
▁ഇന്ത്യൻ	-8.7663
ഴ്	-8.76823
▁ജനറല്‍	-8.77018
▁മുന്നില്‍	-8.77175
ബാ	-8.77351
▁അനു	-8.77393
▁കുമാര്‍	-8.7775
യുണ്ട്	-8.77844
▁മൊഴി	-8.78071
▁പരി	-8.78239
▁ഗോ	-8.78271
▁ജീവിത	-8.78282
▁സൂര്യ	-8.78463
മാണെന്നും	-8.78708
േഷ്	-8.78994
സ്ഥ	-8.79022
▁യോഗം	-8.79263
▁അമിത്	-8.79284
▁ഇതേ	-8.79284
▁മത്സരിച്ച	-8.79314
▁പരിശോധിക്ക	-8.79454
▁എന്നെ	-8.79465
▁അന	-8.79494
▁പേരെ	-8.79723
▁ബാല	-8.79762
▁എംഎല്‍എ	-8.79848
▁ഇതിന്റെ	-8.7986
ിപ്പിച്ച	-8.79893
▁നിങ്ങളുടെ	-8.79917
ാര	-8.79928
മാര്‍	-8.79981
▁കിട്ടിയ	-8.80005
▁പറയുന്ന	-8.80172
▁ബെ	-8.80186
▁സമ്പർക്കം	-8.80186
▁വയനാട്	-8.80218
▁വേണ്ട	-8.80558
▁സിന്‍	-8.80596
▁വാങ്ങ	-8.80677
▁ഉയർന്ന	-8.80767
▁ഞങ്ങള്‍	-8.80779
ത്തിലൂടെ	-8.80784
▁ലോ	-8.80827
▁നിലപാട	-8.80853
▁വിവാഹ	-8.81074
▁തുക	-8.81559
▁നഗര	-8.81624
▁അതിന്റെ	-8.81713
▁ഉന്നയിച്ച	-8.81855
▁ഒറ്റ	-8.81884
▁താ	-8.81897
▁മാറിയ	-8.81918
രായ	-8.82147
ഷ്യ	-8.8216
▁പാലിക്ക	-8.8216
▁പഞ്ചായത്ത്	-8.82182
കു	-8.82238
മാന	-8.82295
▁വീണ	-8.82442
ുമായ	-8.82547
െത്തിയ	-8.82571
ധി	-8.82678
▁ചുമതല	-8.83049
്യം	-8.83071
▁അപകട	-8.83106
▁വിദേശ	-8.83163
▁ഹാ	-8.83197
മെ	-8.83237
▁സ്ഥിതി	-8.83336
▁ഉള്ളത്	-8.8343
▁കല	-8.83446
ര്‍ത്ത	-8.83483
▁സ്ഥിരീകരിച്ചത്	-8.83487
▁പട	-8.83544
▁സഹായ	-8.83615
▁അനുകൂല	-8.83672
‍	-8.83692
യുമായ	-8.83694
▁പരിപാടി	-8.83853
▁പ്രവര്‍ത്തകര്‍	-8.83967
പ്പോ	-8.84034
▁നടന്നത്	-8.84103
▁സമയ	-8.8413
▁ഉറപ്പാക്ക	-8.84228
▁ക്ഷേത്ര	-8.84333
പ്പെടുന്ന	-8.84481
▁നേതാക്കൾ	-8.84577
▁ഫാ	-8.84743
▁വിഭാഗ	-8.84744
▁മീഡിയ	-8.84761
▁പ്രതീക്ഷിക്ക	-8.8486
▁ചെയ്യാന്‍	-8.84901
▁ഗോപി	-8.84916
▁തോമസ്	-8.8492
▁സുരക്ഷ	-8.84982
▁മൂന്ന	-8.85001
▁ഇവരുടെ	-8.85019
െയ്	-8.85071
▁വ്യാജ	-8.85098
▁ചോദിച്ച	-8.854
▁ഫല	-8.85439
▁അവസ്ഥ	-8.85524
▁തമിഴ്	-8.85548
ാപ	-8.85616
വീ	-8.8571
▁എങ്ങനെ	-8.85796
▁സാധാരണ	-8.85823
▁ജനാധിപത്യ	-8.8587
▁കാര	-8.85883
▁എന്നിവര്‍	-8.85936
▁പേ	-8.85981
▁ഗ്ര	-8.85989
▁കൊടുക്ക	-8.86106
▁ന്ന	-8.86116
▁അനുവദിച്ച	-8.86167
▁ലഭിച്ചത്	-8.86225
▁കേന്ദ്രം	-8.86244
▁അധികാര	-8.86289
ിലുള്ള	-8.8634
▁ശ്രമിച്ച	-8.86352
▁ഇപ്പോഴും	-8.8636
▁ശേഷമാണ്	-8.86407
വർക്ക്	-8.86517
▁നടപ്പാക്ക	-8.86544
30	-8.86872
യിലൂടെ	-8.86994
ാക്കി	-8.87022
ക്കാര്‍	-8.87034
▁പ്രസ്താവന	-8.87219
▁അവരെ	-8.87228
▁ശ്രദ്ധ	-8.87262
▁മുസ്ലിം	-8.87275
▁മാണി	-8.87309
▁നില്‍ക്ക	-8.87317
▁ചിത്രം	-8.87347
▁ഉണ്ടാക്ക	-8.87439
▁മണിക്കൂറ	-8.87454
▁വർഷം	-8.87462
ുന്നില്ല	-8.87514
▁27	-8.87601
▁കേട്ട	-8.87636
▁താരം	-8.87637
▁സര്‍ക്കാരിന്റെ	-8.87713
▁28	-8.87718
▁വിരുദ്ധ	-8.87735
▁അടക്കമുള്ള	-8.87741
▁പോകുന്ന	-8.88144
▁ചി	-8.88145
▁ആക	-8.88283
▁തോ	-8.88383
▁കേരളത്തിൽ	-8.88432
ുണ്ടായിരുന്നു	-8.88505
▁26	-8.88667
▁നിരക്ക്	-8.88787
▁ഇത	-8.88951
▁നേടി	-8.8897
ഗ്ര	-8.89044
▁കോണ്‍ഗ്രസിന്	-8.8906
▁ജോസ്	-8.89091
ഒ	-8.89117
s	-8.89176
▁പ്രദേശ	-8.89226
▁നേരെ	-8.89258
▁യി	-8.89273
ത്തിലുള്ള	-8.89315
▁കഴിയുന്ന	-8.89334
േഷൻ	-8.89348
▁ഗ്രൂപ്പ	-8.89491
▁താഴെ	-8.8967
▁പറഞ്ഞ്	-8.89686
▁ലാ	-8.89836
▁അംഗ	-8.9008
▁ജാ	-8.90099
▁എല്ലാവരും	-8.90145
▁ജാഗ്രത	-8.90152
▁കോണ്‍ഗ്രസിന്റെ	-8.90267
ുകളിൽ	-8.90274
▁എൻ	-8.9028
▁ബ്ര	-8.90394
▁കുഞ്ഞ	-8.90457
നേ	-8.90469
പ്പെടുത്ത	-8.9048
െത്തി	-8.9051
▁തീര	-8.9056
സ്ത	-8.90629
▁വന്നത്	-8.90654
▁മമത	-8.90704
▁കണ്ണ	-8.90712
▁നേരിട്ട്	-8.9073
നു	-8.90881
പോ	-8.90932
▁ഇന്‍	-8.90957
▁ടോ	-8.91033
▁ഞങ്ങൾ	-8.91098
▁ഇന്ത്യയുടെ	-8.91182
യ്യ	-8.91237
▁ആഭ്യന്തര	-8.91298
▁നിന്നാണ്	-8.91369
▁അറിയിക്ക	-8.91461
റോ	-8.91486
ലോ	-8.91551
▁നൽകി	-8.91675
▁ഭാ	-8.91767
▁സഭാ	-8.91776
▁അക്രമ	-8.91816
വിട	-8.92049
▁അടി	-8.9207
▁ഉപ	-8.92281
▁സർക്കാര	-8.92295
▁സുപ്രീം	-8.92362
▁സാധിക്കും	-8.92392
▁ഇവരെ	-8.92763
ടിച്ച	-8.9285
▁പട്ടിക	-8.92887
▁നല്‍കിയത്	-8.92925
▁ഇനിയും	-8.92966
▁രംഗത്തെത്തിയ	-8.9298
ിച്ചത്	-8.93028
▁പൊ	-8.93034
▁കൊണ്ടുവര	-8.93078
▁ഉണ്ടാവ	-8.93149
▁പ്രവർത്തിക്ക	-8.93242
▁നാളെ	-8.93275
▁തര	-8.93335
▁മെയ്	-8.93364
യെന്ന	-8.934
ത്വ	-8.93454
▁രാ	-8.93502
ുന്നതിനായി	-8.93542
ത്തും	-8.9356
▁ബോ	-8.93724
▁ഉപയോഗിക്ക	-8.93785
▁വന്നു	-8.93791
▁വെല്ലുവിളി	-8.93867
▁ചാണ്ടി	-8.93882
▁തീരുമാനിച്ച	-8.93921
▁ചൂണ്ടിക്കാട്ടി	-8.93925
▁ഏഴ്	-8.9402
▁യോഗ	-8.94024
▁ഒഴിവാക്ക	-8.9405
▁നികുതി	-8.94192
▁1,	-8.94207
▁വിളിച്ച	-8.94327
▁കാലത്ത്	-8.94373
▁നോക്ക	-8.94409
▁പിടിക്ക	-8.94558
▁ഇയാള്‍	-8.946
ഫി	-8.94942
▁ലക്ഷ്യം	-8.94944
ത്തിനു	-8.94969
▁കൂടെ	-8.95045
ജന	-8.95139
▁പുറത്ത	-8.95246
ുന്നതാണ്	-8.95302
▁മൂന്നാം	-8.95385
▁കേസ	-8.95413
▁രൂപയാണ്	-8.95458
▁മഹാ	-8.95511
▁പ്രവര്‍ത്തനങ്ങള	-8.956
▁ബിജെപിക്ക്	-8.95805
▁ഷെ	-8.95863
കാ	-8.95895
▁സീറ്റ	-8.95911
▁തങ്ങളുടെ	-8.95978
മാരുടെ	-8.95984
▁പെണ്‍കുട്ടി	-8.96076
▁വകുപ്പ	-8.96108
▁പിസി	-8.96115
മാർ	-8.96146
▁റോഡ	-8.96173
▁2019	-8.96182
▁ജോസഫ്	-8.96257
▁ആരും	-8.96267
▁സ്ഥാപന	-8.96304
▁ബാധിച്ച	-8.9638
▁സഭ	-8.96404
▁ക്ല	-8.96438
▁കുട്ടി	-8.96484
▁തിരുവനന്തപുരത്ത	-8.96498
▁കണ്ണൂർ	-8.96532
ജെ	-8.96562
▁സംഭവിച്ച	-8.96573
▁വർഷ	-8.96586
ഷി	-8.96619
ൻസ്	-8.9667
േഴ്	-8.96677
▁ദേവ	-8.96709
▁വേണം	-8.96725
▁ബാബു	-8.96768
ന്ന്	-8.96771
▁ധ	-8.96796
യിലുള്ള	-8.96798
േഷ	-8.96809
▁റോ	-8.96815
▁സഖ്യ	-8.96856
▁റെ	-8.96985
▁യോഗ്യത	-8.96993
▁ജോര്‍ജ്	-8.97036
▁ഭീഷണി	-8.97047
▁യുവതി	-8.97071
▁നിലവിൽ	-8.97072
▁മര	-8.97227
ത്തിയ	-8.97456
▁മണ്ഡല	-8.97476
▁ഉന്നത	-8.97503
▁പ്രതിഷേധം	-8.97572
▁നീ	-8.97661
ന്‍സ്	-8.97701
▁ഉപയോഗിച്ച	-8.97708
▁രാഹുൽ	-8.97727
▁ഒന്നാം	-8.97957
▁എത്തിയത്	-8.97974
▁സൈനിക	-8.98072
▁കേസിൽ	-8.98115
▁ആരോപിച്ചു	-8.98125
▁മെഡിക്കൽ	-8.98403
യർ	-8.98408
▁ലക്ഷ	-8.9848
▁ഇവർ	-8.98611
▁പകരം	-8.98611
യുടെയും	-8.98801
▁കൂട	-8.98914
▁പോസ്റ്റ്	-8.9893
രുടെ	-8.99225
മന	-8.99271
▁മത്സരിക്ക	-8.99271
▁കേ	-8.99403
മെന്റ്	-8.99481
▁പേരില്‍	-8.99526
▁ദിന	-8.99531
▁സ്ഥാനം	-8.99754
▁പ്രചാരണ	-8.99823
▁ള	-8.99906
▁കനത്ത	-8.99925
▁പാല	-8.99966
ത്തോട്	-8.99967
വെച്ച	-9.00025
▁മുന്നറിയിപ്പ്	-9.00058
▁അല്ല	-9.00195
രാജ	-9.00247
▁കുറച്ച്	-9.00335
ിരിക്ക	-9.00344
ുവെന്നും	-9.00381
സിന്റെ	-9.00441
▁രമേശ്	-9.00577
ക്കട	-9.00657
▁ഗ്രാമ	-9.0091
%	-9.00925
രീ	-9.01022
▁മുസ്ലീം	-9.01157
▁അധ്യക്ഷന്‍	-9.01325
▁വെള്ള	-9.01436
▁31	-9.01443
▁നടക്കുന്നത്	-9.01495
▁എട്ട്	-9.01525
▁അവസരം	-9.01534
▁എൽ	-9.01723
▁തിരഞ്ഞെടുപ്പിൽ	-9.01775
ക്കാല	-9.01869
▁അതി	-9.02038
▁മലയാളി	-9.02166
▁തെരഞ്ഞെടുപ്പ	-9.02199
▁എത്തിക്ക	-9.02231
ർത്ത	-9.0225
▁പണി	-9.02273
▁പത്ത്	-9.02332
▁ശ്രമം	-9.02335
▁സഹായിക്ക	-9.02371
▁എന്നിവിടങ്ങളില	-9.02451
▁വിഷയ	-9.02451
ിക്കുന്നത്	-9.02465
▁വിവരങ്ങള്‍	-9.02611
ങ്	-9.02755
യല്ല	-9.02798
▁കൂ	-9.02861
▁സംശയ	-9.02883
▁ലഭിക്കുന്ന	-9.02894
തര	-9.03004
▁വീതം	-9.03039
ുവെന്ന്	-9.03102
▁ഏത്	-9.03265
▁ചരിത്ര	-9.03328
▁മണ്ഡലം	-9.03355
▁മാറ്റം	-9.0365
▁നിയമം	-9.03689
ത്തിനുള്ള	-9.03699
റിന്റെ	-9.03742
▁ചോദിച്ചു	-9.03833
▁എത്തിച്ച	-9.03838
ദി	-9.03862
▁കേസെടുത്ത	-9.03968
▁നെ	-9.04004
▁സാഹചര്യം	-9.04049
ക്കാർ	-9.04081
െങ്കിൽ	-9.0419
▁ഏക	-9.04311
ില്ലെന്ന	-9.04357
▁ടീമ	-9.04359
▁എന്താണ്	-9.04373
▁നോ	-9.0446
ആർ	-9.0447
▁അതില്‍	-9.04552
ണ്ട്	-9.04764
▁തുടങ്ങ	-9.04806
ിട്ടുണ്ടെന്നും	-9.05014
ത്തേക്ക്	-9.05031
ാവുന്ന	-9.05055
▁നമുക്ക്	-9.05055
▁ഫേസ്ബുക്ക്	-9.05108
ത്തിനെതിരെ	-9.05238
▁രീതിയില്‍	-9.05247
ീസ്	-9.0527
▁യാതൊരു	-9.05315
▁മുമ്പ	-9.05398
ലും	-9.05437
ുന്നതും	-9.05494
▁സ്റ്റ	-9.0561
ന്‍സ	-9.05619
▁വരുന്നത്	-9.05626
▁തടയ	-9.05667
▁സന്തോഷ	-9.0567
▁പൊലീസ	-9.0568
▁ശതമാന	-9.05726
▁താൻ	-9.0582
▁സുരക്ഷാ	-9.0588
▁അഴിമതി	-9.05923
▁കൂടിയാണ്	-9.05955
▁സമ	-9.05964
ടു	-9.06008
▁രാശി	-9.06123
ഹാ	-9.06154
▁ദുരന്ത	-9.06186
തോടെയാണ്	-9.06196
▁ബന്ധം	-9.0633
▁മുഖ	-9.06596
▁സേന	-9.066
▁രൂപയുടെ	-9.06627
▁രാജ്യ	-9.06678
▁മരണം	-9.06694
ആ	-9.06702
ക്കാ	-9.0676
▁കാറ	-9.06832
▁റഷ്യ	-9.06867
▁പലരും	-9.06942
▁ആരോപണ	-9.06944
യെന്നും	-9.06972
▁ജനുവരി	-9.07028
▁വിതരണം	-9.07094
▁വീട്	-9.07177
ായിരുന്ന	-9.07213
▁ചെയ്തിട്ടുണ്ട്	-9.07228
പ്പു	-9.07257
ിയിരുന്നു	-9.07275
▁ആള	-9.07328
▁ഫ്	-9.07365
▁നടത്തുന്നത്	-9.07467
▁പിന്നാലെയാണ്	-9.07541
യാണെന്ന്	-9.07598
▁വനിതാ	-9.07663
സീ	-9.07809
▁ചന്ദ്ര	-9.07815
▁കാണിച്ച	-9.07831
ാനായി	-9.07874
രിയ	-9.079
ാണോ	-9.07929
i	-9.08009
മാക	-9.08012
▁സ്വപ്ന	-9.08013
▁രീതി	-9.08104
▁സാധിച്ച	-9.08137
▁രാജി	-9.08144
ിംഗ	-9.08258
േറ്റ്	-9.08378
നിയ	-9.08434
▁ചെയ്	-9.08445
▁മേഖലയില്‍	-9.08445
▁യോഗത്തില്‍	-9.08458
▁ധന	-9.08488
കം	-9.08494
യില്ല	-9.08582
റും	-9.08705
▁സീ	-9.08722
▁സമരം	-9.08753
▁ദിലീപ്	-9.08826
എന്‍	-9.08884
▁അധ്യക്ഷ	-9.0889
▁കര്‍ണാടക	-9.08895
ാണ	-9.08922
▁മുഴുവന്‍	-9.08955
▁കോടതിയില്‍	-9.08964
▁പള്ളി	-9.08978
▁പിടി	-9.09091
ഹി	-9.09107
▁രണ്ട	-9.09176
ടക്കം	-9.09252
▁ഇഷ്ട	-9.09268
▁പെൺകുട്ടി	-9.09273
▁സ്ഥിരീകരിച്ചു	-9.094
o	-9.09409
ുമായുള്ള	-9.09444
▁ഒന്ന്	-9.09523
ുമായിരുന്നു	-9.09544
▁കേസിലെ	-9.09607
▁മണ്ഡലത്തില്‍	-9.09772
▁ലോട്ടറി	-9.10034
▁പോവ	-9.10048
▁എതിരെ	-9.10187
ല്യ	-9.10202
▁മുന്നില	-9.10232
തിനാൽ	-9.10252
▁കുറയ	-9.10309
▁തിരഞ്ഞെടുക്ക	-9.10328
▁വിവാഹം	-9.10329
▁അദ്ദേഹത്തെ	-9.10377
▁വീട	-9.10458
▁യൂത്ത്	-9.10463
ുമുള്ള	-9.10542
റാ	-9.10589
▁ഒരുപാട്	-9.10673
▁ആണ	-9.10804
▁ബാധ	-9.10981
ിരിക്കുന്നു	-9.1103
ണമെന്നാണ്	-9.11115
▁സിപിഐ	-9.11185
ാക്കിയ	-9.11185
▁കൃഷ്ണ	-9.11219
▁നേരിട	-9.11223
▁ചെറു	-9.11333
▁35	-9.11389
സം	-9.11393
ഷ്ട	-9.11421
▁ഒരിക്കലും	-9.11442
▁ബുദ്ധിമുട്ട	-9.11443
▁നിര	-9.11456
ത്യ	-9.11466
ല്ലാ	-9.11501
എല്‍	-9.11587
▁മേധാവി	-9.117
▁പിന്നെ	-9.11707
▁ഉയര	-9.11814
വല	-9.11848
▁നിരീക്ഷണത്തില	-9.11919
സ്ഥാന	-9.11925
▁യുഡിഎഫ	-9.11936
▁മെന്റ്	-9.11942
മല	-9.11981
▁കൊണ്ടാണ്	-9.12
▁നൽകുന്ന	-9.12028
▁ആഗ്രഹിക്കുന്ന	-9.12037
▁പുറത്തുവന്ന	-9.121
പ്പിച്ച	-9.12191
▁ശോഭ	-9.12222
ള്ള	-9.12357
പരമായ	-9.12401
യുമാണ്	-9.12414
▁ബോധ	-9.12446
▁കാര്യ	-9.1247
ച്ചി	-9.12585
▁വ്യാപാര	-9.12609
▁കുറ്റ	-9.12701
തായിരുന്നു	-9.12706
▁ഹര്‍ജി	-9.12741
▁നിക്ഷേപ	-9.12749
▁60	-9.12782
▁ഉദ്യോഗസ്ഥര്‍	-9.12793
▁സംഭവിക്ക	-9.12868
▁പ്രവര്‍ത്തന	-9.12925
ല്ലോ	-9.12967
▁നീതി	-9.12983
▁പ്രാദേശിക	-9.13001
ദ്യ	-9.13042
വച്ച	-9.13066
▁ഹൈ	-9.13085
▁കാര്യങ്ങൾ	-9.13118
പാ	-9.13195
▁കൊലപാതക	-9.13239
▁വിജയിച്ച	-9.13267
▁ഡോസ്	-9.13286
▁ഉണ്ടായിരുന്നു	-9.13317
▁ഭയ	-9.13352
▁നിര്‍ദേശം	-9.13377
▁നിരക്ക	-9.13444
▁അത്തര	-9.13459
▁തുറന്ന	-9.13489
▁വിജയ്	-9.13535
▁ചീഫ്	-9.13536
ീയ	-9.13551
▁പിഴ	-9.13594
ഴി	-9.13627
ുകളാണ്	-9.13687
േരി	-9.13731
▁ഒപ്പം	-9.138
ിനൊപ്പം	-9.13888
▁സംഭവത്തില്‍	-9.13908
യാക	-9.13953
ുന്നതിനുള്ള	-9.13994
▁ഓഫീസര്‍	-9.14038
▁കെപിസിസി	-9.14055
ഷന്‍	-9.14087
മെന്ന്	-9.14146
▁അതിനിടെ	-9.14195
വാദ	-9.142
▁100	-9.14229
▁വിവര	-9.14269
a	-9.14313
▁റോഡ്	-9.14485
▁വീ	-9.14504
െടുത്ത	-9.14526
സര്‍	-9.14528
▁നേതൃത്വത്തില്‍	-9.1456
▁വിസ	-9.14585
ിക്	-9.14655
തിൽ	-9.14677
▁സീറ്റുകള്‍	-9.14691
▁ചെയ്യുന്നു	-9.14823
▁കാര്യത്തില്‍	-9.14886
▁നയ	-9.14985
▁തുറക്ക	-9.15
▁പഠന	-9.15041
▁നിലവിലെ	-9.1512
▁ഉണ്ടായിരുന്ന	-9.15134
▁അഭിപ്രായ	-9.15152
ക്കാന്‍	-9.15197
▁ഇത്രയും	-9.15247
പക്ഷ	-9.15297
▁വിഷയത്തില്‍	-9.15302
▁ഉപയോഗിച്ച്	-9.15319
▁നേതൃത്വ	-9.15471
▁പ്രമുഖ	-9.15487
▁അന്വേഷിക്ക	-9.15521
▁പശ്ചാത്തലത്തില	-9.15643
പു	-9.15732
▁ഗ്രൂപ്പ്	-9.15812
ിനാണ്	-9.15818
േഷന്‍	-9.15841
▁മഹാരാഷ്ട്ര	-9.15842
രോ	-9.1585
▁നടപടികള്‍	-9.15924
▁സ്വതന്ത്ര	-9.15928
▁മലയാള	-9.15945
▁അടിസ്ഥാന	-9.15949
▁പരിഹരിക്ക	-9.1606
▁എന്നിവരാണ്	-9.16068
ഭാവ	-9.16114
▁സഹായം	-9.16211
▁സഹ	-9.16417
ിക്കാൻ	-9.16444
ഞ്ഞു	-9.16475
▁ജില്ലയിൽ	-9.16497
യേ	-9.16594
';	-9.16728
▁അടിയന്തര	-9.16737
▁പഴയ	-9.16805
▁തന്ത്ര	-9.16815
▁പ്രഖ്യാപിക്ക	-9.1701
▁വാര്‍ത്ത	-9.17088
ിനായി	-9.17176
വില	-9.17192
▁രേഖപ്പെടുത്തിയ	-9.17201
ോട	-9.17294
▁ശ്രമിക്ക	-9.17299
▁സംസാരിച്ച	-9.17323
▁സാധിക്ക	-9.17415
▁അറിഞ്ഞ	-9.17469
▁ഫോണ്‍	-9.17556
▁കര്‍ഷക	-9.17661
▁29	-9.17684
▁തിരികെ	-9.17831
▁നിങ്ങള്‍	-9.17852
▁സത്യ	-9.17897
▁കെട്ടിട	-9.17921
▁ജൂലൈ	-9.17973
▁സുരക്ഷിത	-9.18003
▁സ്വയം	-9.18006
!!	-9.18024
തിര	-9.18059
ുകൊണ്ട്	-9.1815
ടെ	-9.18164
ഗാ	-9.1827
ല്ലേ	-9.183
▁ഇന്ത്യയില്‍	-9.18355
▁ഔദ്യോഗിക	-9.18388
▁തമ്മിലുള്ള	-9.18451
▁കള	-9.18463
▁ബാങ്ക്	-9.18521
ഠ	-9.18604
▁കോളേജ്	-9.18643
▁ജൂണ്‍	-9.1868
ഖ്	-9.18828
ശി	-9.1889
▁കേസുകള്‍	-9.18902
▁സ്വാതന്ത്ര്യ	-9.19015
▁ഇതിനിടെ	-9.19082
▁ഉള്‍പ്പെടെ	-9.19153
▁സിപിഎമ്മ	-9.19178
▁സ്വർണ	-9.19224
▁പറ	-9.19311
▁സംവിധാന	-9.19375
▁കൊല്ലപ്പെട്ട	-9.19443
▁200	-9.19477
▁കോട്ട	-9.19597
▁നഗരസഭ	-9.19614
▁നീണ്ട	-9.19638
▁കാലാവസ്ഥ	-9.19702
▁ഉൾപ്പെടെ	-9.19712
▁പോലീസ	-9.19734
▁കൂടിയ	-9.19802
▁ഡെ	-9.1986
▁അയച്ച	-9.19925
ർച്ച	-9.19963
സർ	-9.20001
ില്ലെന്നാണ്	-9.20018
തോ	-9.20134
▁മൃതദേഹം	-9.20149
നില്‍	-9.20195
▁തിരഞ്ഞെടുപ്പില	-9.20362
▁പിടിച്ച	-9.2042
▁ഇന്ത്യയിലെ	-9.20496
▁നിന്നു	-9.20537
▁യുഎസ്	-9.20551
▁45	-9.206
▁ഭരണം	-9.20616
ലാണ്	-9.20645
▁സാഹചര്യത്തിൽ	-9.20708
▁നിലയില്‍	-9.20765
▁സ്ഥാപനങ്ങള	-9.20778
▁ചെന്നൈ	-9.2078
▁തെരഞ്ഞെടുപ്പ്	-9.20888
▁ഫെബ്രുവരി	-9.20902
ുമുണ്ട്	-9.21085
▁പുറത്തു	-9.2115
▁ഇതു	-9.21164
▁യാ	-9.21164
▁ജനങ്ങള്‍	-9.21216
▁ഓഫീസ	-9.21231
▁അടിച്ച	-9.21253
▁വോട്ടുകള്‍	-9.21274
പ്പോഴാണ്	-9.2136
▁കഴിഞ്ഞു	-9.21427
▁ഇടതുപക്ഷ	-9.21491
ാട്ട	-9.21591
കരമായ	-9.21685
▁ബാങ്ക	-9.21871
▁നില്‍ക്കുന്ന	-9.21875
▁ചോ	-9.21887
ിക്കുന്നു	-9.21896
▁കൂടിക്കാഴ്ച	-9.21899
▁ചെലവ	-9.21927
▁ഇൻ	-9.21957
▁ക്യാമ്പ	-9.22019
▁കടന്ന	-9.22027
▁സൃഷ്ടിക്ക	-9.22044
റിഞ്ഞ	-9.22062
▁ചു	-9.22099
ന്നു	-9.22186
▁കണക്ക	-9.22206
ഡോ	-9.22266
▁സ്പ	-9.22312
▁അദ്ദേഹത്തിന്	-9.22345
▁രാജ്യം	-9.22378
ികള്‍	-9.22384
യോഗ	-9.22411
▁അഞ്ച	-9.22447
▁ഡല്‍ഹി	-9.22665
▁ആഘോഷ	-9.22716
കി	-9.22752
▁റ്റ	-9.22753
▁ആക്രമണം	-9.22774
▁ക്	-9.22794
▁പേരിൽ	-9.22841
ാണെന്ന	-9.22859
▁റാ	-9.22865
▁തെ	-9.22893
സ്സ	-9.22928
▁സമ്പര്‍ക്ക	-9.22937
▁ഹി	-9.2294
▁ചെയ്യാൻ	-9.22989
▁ധാരണ	-9.23036
▁ഫി	-9.23081
▁ആളുകള്‍	-9.23084
▁ഇടപെട	-9.23143
▁കണ്ടു	-9.23151
▁അംഗീകരിക്ക	-9.23226
▁മറ്റ	-9.23301
▁ത്തി	-9.23342
▁അത്ര	-9.23386
നീ	-9.23415
റില്‍	-9.23445
▁നിങ്ങൾ	-9.23456
▁സമീപ	-9.23485
▁സംവിധാനം	-9.23485
▁വിചാരണ	-9.23486
▁വാദം	-9.23553
ക്കുന്നത്	-9.23561
▁നാട	-9.23585
▁പ്രസിഡന്റ	-9.23778
ീവ്	-9.2389
▁നേര	-9.24006
',	-9.24036
ോടും	-9.24113
▁ആവശ്യമായ	-9.24209
▁സഹകരണ	-9.24222
▁മനസ്സ	-9.24327
▁സാമൂഹിക	-9.24363
▁ഘടക	-9.24386
ോണ്‍	-9.24661
▁ചേർന്ന	-9.24855
▁നേരിടുന്ന	-9.24909
ലീ	-9.24912
ങ്ങളിലും	-9.24924
▁ഡൽഹി	-9.24952
▁ടിക്കറ്റ്	-9.2498
ത്തിനിടെ	-9.25058
▁നേതാക്കളെ	-9.25086
▁പ്രവാസി	-9.25114
▁അധികം	-9.25129
▁സിംഗ	-9.25182
▁കോൺഗ്രസ	-9.25186
▁കല്ല	-9.25194
▁തമ്മില്‍	-9.25258
മാവ	-9.25278
▁സജീവ	-9.25297
ക്കല്‍	-9.25437
▁വിട്ടു	-9.25467
▁ചോദിക്ക	-9.25516
ീന	-9.25531
▁പങ്കുവെച്ച	-9.25544
വന	-9.25659
▁ഉമ്മന്‍	-9.25665
ോടൊപ്പം	-9.25689
▁രാജ്	-9.25738
▁ർ	-9.25811
t	-9.25909
▁പരസ്യ	-9.25964
▁ഇടത്	-9.26014
യാവ	-9.26064
▁അധിക	-9.26091
▁വീട്ടിൽ	-9.26156
▁വിജയിക്ക	-9.26231
▁പ്രതികരിച്ച	-9.26234
ഷൻ	-9.26235
▁തള്ളി	-9.26252
▁അല്‍	-9.2626
ാകും	-9.26279
യാള	-9.26304
ുണ്ടോ	-9.26304
▁അര	-9.26361
▁ആരംഭിക്ക	-9.26373
മീ	-9.26427
▁വിഷയം	-9.26471
▁ബസ്	-9.2662
▁ഏതെങ്കില	-9.26637
▁പ്രതികരിച്ചു	-9.26757
ഞ്ജ	-9.26901
ാരി	-9.26977
▁കുറിച്ചു	-9.26998
▁കോണ്‍ഗ്രസില്‍	-9.27107
മാരെ	-9.27187
▁കീ	-9.27209
▁ഉണ്ടാകും	-9.2736
▁പരിക്കേറ്റ	-9.27374
▁ഹിന്ദു	-9.27412
▁ജയിച്ച	-9.27483
▁പേര്‍ക്കും	-9.2749
ക്കൊണ്ട	-9.27587
▁വച്ച	-9.27608
▁ആഴ്ച	-9.27644
▁അന്താരാഷ്ട്ര	-9.27645
യെയും	-9.27661
▁നിറ	-9.27679
ങ്ങി	-9.27695
▁നിരീക്ഷണ	-9.27701
▁അധികൃതര്‍	-9.27745
▁പുന	-9.27748
▁മടങ്ങ	-9.27759
കുമാര്‍	-9.27796
▁മീഡിയയില്‍	-9.27863
▁നാല	-9.27868
▁ജാമ്യം	-9.2787
▁സ്ഥാനാര്‍ഥി	-9.27948
ുടേയും	-9.27954
▁മരിച്ചത്	-9.28024
പുരം	-9.28047
▁സിറ്റി	-9.28053
ിക്കുകയും	-9.28108
▁പോരാട്ട	-9.28196
▁ശിക്ഷ	-9.28199
▁വാങ്ങിയ	-9.2846
▁പോര	-9.28462
▁സുരേന്ദ്രന്‍	-9.28481
▁2016	-9.28578
▁സമ്മാന	-9.28655
▁വിശ്വാസ	-9.28696
▁യുപി	-9.28785
ിന്റെയും	-9.28817
▁വൈസ്	-9.28949
▁മൊത്ത	-9.29041
▁നേതാക്കള	-9.292
▁റിപ്പോര്‍ട്ടുകള	-9.29292
ുന്നതിനും	-9.29297
▁മൂന്നു	-9.29453
ക്കൂട്ട	-9.29506
▁പക്ഷെ	-9.29638
ജ്ഞ	-9.29703
ള്ളി	-9.29718
ട്ര	-9.29778
ംബ	-9.29805
ാസ്	-9.29816
▁ഇതിൽ	-9.29847
നായി	-9.29953
▁യാത്രക്കാര	-9.29966
ായത്	-9.30016
▁ജീവിതം	-9.30041
▁മാര്‍ച്ച്	-9.30202
ാറുണ്ട്	-9.3022
▁അവര	-9.30236
ോട്ട്	-9.30457
▁തിരിച്ചു	-9.30523
▁ഉടമ	-9.3058
▁പരിചയ	-9.30614
▁വിധ	-9.30671
▁അഭി	-9.30719
ണ്ടി	-9.30728
▁സൈ	-9.30797
ുകയാണെന്നും	-9.30988
▁ഇന്ന	-9.31078
▁വാർത്ത	-9.31096
▁ബിസിനസ്	-9.31126
▁സിന്ധ്യ	-9.31194
ാലയ	-9.31201
▁അവസര	-9.31224
▁മാസ്	-9.31252
▁ഉടന്‍	-9.31352
മാക്കി	-9.31397
വിധ	-9.31397
▁കാര്‍	-9.31469
▁പേരുടെ	-9.31526
▁രു	-9.31538
▁തേട	-9.31557
▁പറ്റ	-9.31664
▁മുതിര്‍ന്ന	-9.31666
ഭാ	-9.31667
▁അടുത്തിടെ	-9.31667
▁ഹോ	-9.31749
▁ഭാഷ	-9.31758
▁ര്‍	-9.31806
▁പന്ത	-9.31845
▁ഇരുവരും	-9.31867
മാരായ	-9.31897
▁വരുത്ത	-9.31917
ുമെല്ലാം	-9.31954
കാര്യ	-9.31982
▁മദ്യ	-9.32058
പൂര്‍	-9.32142
▁കൂള	-9.32173
▁തര്‍ക്ക	-9.3231
▁നങ്ങള്‍	-9.32363
ത്വം	-9.32402
▁സ്വദേശിയായ	-9.32406
▁കാണിക്ക	-9.32464
▁നമ്മള്‍	-9.32495
▁പക	-9.32541
▁ഒരാള്‍	-9.32551
▁മകന	-9.32585
കര്‍	-9.32623
▁ചടങ്ങ	-9.32752
▁കൃത്യമായ	-9.32781
▁2021	-9.32809
▁സിനിമാ	-9.32852
ത്തിന്‍റെ	-9.32945
▁മാധ്യമങ്ങള	-9.32952
ട്ടു	-9.32967
രാജ്	-9.32971
▁ഏറ്റെടുത്ത	-9.33028
ാവ്	-9.33029
ീര്‍	-9.33031
റേ	-9.33054
▁ഉദ്ഘാടനം	-9.33055
ക്കാട്	-9.33069
▁കർണാടക	-9.33097
ിനുള്ള	-9.33138
▁പൗരത്വ	-9.33187
▁വിജയന്‍	-9.33208
▁പേർക്ക്	-9.33287
▁ടു	-9.33319
▁പോകുന്നത്	-9.33322
▁ഘട്ട	-9.33441
ക്കാൻ	-9.33463
ക്ട	-9.33465
▁നേട്ട	-9.33467
▁കുറിപ്പ	-9.33586
നാട്	-9.33607
▁ബാക്കി	-9.33629
▁ആത്മഹത്യ	-9.3374
▁കരുത	-9.33757
ക്കെതിരായ	-9.33788
c	-9.3389
▁പുറമെ	-9.33901
▁ജനറൽ	-9.33902
▁കണ്ടെത്തി	-9.33912
ൂട്ടിച്ചേര്‍ത്തു	-9.33922
▁മന്ത്രിസഭ	-9.33924
▁ശ്രമ	-9.33928
▁നേരത്തേ	-9.33963
▁യുവ	-9.33982
ഷന	-9.33988
▁ആന	-9.3403
▁നിര്‍ണായക	-9.34063
▁മല	-9.34077
▁മുറി	-9.34164
▁വനിത	-9.34219
▁മൂലം	-9.34245
▁പരിശോധിച്ച	-9.3426
ിനെയും	-9.34301
▁നടത്തിയിരുന്നു	-9.3433
ടുത്ത	-9.34423
▁ഇല്ലാത്ത	-9.34598
▁കയ്യ	-9.34624
▁എവിടെ	-9.34643
സില്‍	-9.34705
ുണ്ടായിരുന്ന	-9.34764
▁മരിച്ചു	-9.34794
50	-9.34812
▁കോണ്‍ഗ്രസ	-9.34819
▁കള്ള	-9.34986
▁ആദ്യമായി	-9.35018
▁കണക്ക്	-9.35028
▁ഉപതിരഞ്ഞെടുപ്പ	-9.35038
▁രജിസ്റ്റര്‍	-9.35038
▁ട്രംപ്	-9.35045
▁2,	-9.35056
▁രി	-9.35107
▁2020	-9.35109
ാധ	-9.35133
ികൾ	-9.35204
ജീ	-9.35291
▁ഇതാണ്	-9.35338
▁കുറവ	-9.35433
ുണ്ടെന്നും	-9.35492
വുമായ	-9.35519
െയാണ്	-9.35554
▁ജനങ്ങളുടെ	-9.3566
ാമെന്ന്	-9.35687
▁സംരക്ഷിക്ക	-9.35693
▁ശശി	-9.35737
ക്ത	-9.35749
▁നിൽക്ക	-9.35759
▁തൊഴില്‍	-9.35767
▁ശിവ	-9.35836
▁മാറ്റിയ	-9.35855
കല	-9.35907
▁അവധി	-9.36067
▁സമുദായ	-9.36187
▁കണ്ട്	-9.36237
▁കരി	-9.36271
▁നന്ദി	-9.36293
▁എല്‍ഡിഎഫ്	-9.36329
▁കയറി	-9.364
▁പിന്തുണയ്ക്ക	-9.36422
കളായ	-9.36481
▁മണ്ണ	-9.36578
ത്താ	-9.36725
▁നഷ്ട	-9.36736
▁കാഴ്ച	-9.36781
ുകയെന്ന	-9.36783
▁തുടര്‍ന്നാണ്	-9.36829
▁അറേബ്യ	-9.3685
▁ശബരിമല	-9.3685
▁കൃഷി	-9.36854
▁സോണിയ	-9.36884
▁കുട	-9.36926
▁പ്രചാരണം	-9.36943
▁ചികിത്സയില	-9.36966
ലൈ	-9.37004
▁ഭാഗ	-9.3704
▁ആശുപത്രിയിൽ	-9.37121
ന്‍റെ	-9.37194
▁പ്രണയ	-9.37196
▁കഥ	-9.37256
▁വ്യക്തമായ	-9.37272
▁ട്രെയിന	-9.37309
വറ	-9.37359
സ്ട്ര	-9.3748
▁ലഭ്യമാക്ക	-9.37519
▁ലേ	-9.37532
ക്കൊ	-9.37616
ുന്നതില്‍	-9.37652
▁ആന്റണി	-9.37685
▁വിളിക്ക	-9.37729
▁ജില്ലകളില്‍	-9.37734
▁അറിയിച്ചത്	-9.37736
▁ദു	-9.37775
▁കാണുന്ന	-9.37818
േറിയ	-9.37845
ക്കേ	-9.37929
▁അസ	-9.37982
മുണ്ടായ	-9.37989
▁വടക്ക	-9.38021
▁പീഡന	-9.38022
തല്ല	-9.38132
▁പാലാ	-9.38151
▁ഓഫീസ്	-9.38178
▁വിവരങ്ങൾ	-9.38184
▁കെട്ടി	-9.38208
▁സാഹചര്യ	-9.38236
സമ	-9.38291
▁ഏറ്റെടുക്ക	-9.38303
വിള	-9.38368
▁കൃത്യമായി	-9.38416
▁പരാജയ	-9.3842
മാസ	-9.38513
▁ഒക്കെ	-9.38531
▁കുറിച്ച	-9.38557
▁വേദി	-9.38575
ത്തിൻ്റെ	-9.38582
രിക്ക	-9.38582
▁മഹ	-9.38583
ങ്ങിയ	-9.38649
▁ഇരിക്ക	-9.38655
▁ഉറപ്പ	-9.38709
ുവെന്ന	-9.38722
▁വെള്ളം	-9.38767
വൈ	-9.3878
▁മാത്രമ	-9.38788
▁കര്‍	-9.3887
സെ	-9.38927
▁പാട	-9.38966
െങ്കില്‍	-9.39042
▁കൊണ്ടുവന്ന	-9.3905
....	-9.39051
കളുമായി	-9.39136
ന്ത്	-9.39325
▁ചേര്‍ന്ന്	-9.39341
▁സ്ഥാന	-9.39367
▁ഗതാഗത	-9.39375
ാനി	-9.39454
▁തിരിച്ച	-9.39507
വില്‍	-9.39517
▁വെടി	-9.39522
▁പരമാവധി	-9.39546
▁കുറ്റപ്പെടുത്തി	-9.39618
ുകൊണ്ട	-9.39636
ുകയോ	-9.39667
▁യുദ്ധ	-9.39681
▁കണ്ടെത്തിയത്	-9.39702
▁വൈദ്യുതി	-9.39709
▁നായ	-9.39828
▁ഗ്	-9.39843
▁തൊഴിലാളി	-9.39874
ിക്കും	-9.39877
കരിക്ക	-9.39885
▁പരിഗണിച്ച	-9.39888
▁ഹോട്ടല	-9.39961
▁തയ്യാറായ	-9.40074
▁അട	-9.40099
▁കൈമാറ	-9.40274
▁തിര	-9.40288
▁അറസ്റ്റിലായ	-9.40367
ുകളെ	-9.40391
▁അവര്‍ക്ക്	-9.40449
▁ക്ക	-9.40469
▁മാനസിക	-9.40576
▁ഫോട്ടോ	-9.40579
▁പഞ്ചായത്ത	-9.40601
പ്പെടുത്തിയ	-9.40737
പ്പള്ളി	-9.40737
▁വച്ച്	-9.4074
▁സുധാകരന്‍	-9.4075
▁ആക്രമിച്ച	-9.4075
ുവെന്നാണ്	-9.40777
▁നിയമനം	-9.4082
പ്പെടുന്നത്	-9.40893
രും	-9.4091
▁വയസ്സ	-9.40927
▁സ്ഥാനത്ത	-9.40997
▁നടപ്പിലാക്ക	-9.4101
ബര്‍	-9.41015
ുകളിലും	-9.41044
▁ശരി	-9.41065
▁തീരുമാനിക്ക	-9.41082
▁സമാധാന	-9.41121
ില്ലെങ്കില്‍	-9.41122
ാലി	-9.41128
▁ഭാഗത്ത്	-9.41137
▁കഴിക്ക	-9.41144
▁ജല	-9.41158
▁അപ	-9.41242
▁32	-9.41255
▁പഠിക്ക	-9.41276
▁അഭിമുഖ	-9.41462
എച്ച്	-9.41499
▁നേ	-9.41529
▁പ്രതിപക്ഷം	-9.41548
10	-9.41553
▁കലാപ	-9.41573
-19	-9.41574
▁ദി	-9.41582
▁വാക്സിൻ	-9.41618
▁പത്ര	-9.41724
▁സീറ്റുകള	-9.41738
▁എന്നിവര	-9.41768
▁യോഗി	-9.41801
▁വരെയുള്ള	-9.41821
▁വെറും	-9.41838
▁ഭക്ഷണ	-9.41868
▁പണ	-9.41868
▁വ്യവസ്ഥ	-9.41911
▁ഏകദേശം	-9.41966
▁കാര്യങ്ങള	-9.42021
▁കാണാന്‍	-9.42022
▁80	-9.42137
▁എത്തുന്ന	-9.42154
▁ഭൂരിപക്ഷ	-9.42187
▁പ്രതികരിക്ക	-9.42192
കാരി	-9.42205
▁അറിയാം	-9.4228
▁മുന്നിൽ	-9.42326
▁വെക്ക	-9.42407
▁ആളുകൾ	-9.42515
▁ഇക്കാര്യത്തില്‍	-9.4258
25	-9.42612
▁2018	-9.4269
ിപ്പിക്കുന്ന	-9.42777
▁കേരളത്തിന്റെ	-9.4283
കൃത	-9.42864
▁സ്റ്റേഷന	-9.42865
▁ഇടപെട്ട	-9.42877
ഗോ	-9.42885
ന്‍ഡ	-9.42951
▁ഓണ	-9.42984
▁ലീഗ	-9.43003
നിന്ന്	-9.43037
▁കുടുംബം	-9.43069
▁നിറഞ്ഞ	-9.43082
കളിലും	-9.4312
▁ഇതിനെ	-9.43148
▁വിളിച്ച്	-9.43197
▁പോലുള്ള	-9.43199
▁രാശിക്കാര്‍ക്ക	-9.43246
▁എസ്പി	-9.43263
ക്രമ	-9.43285
േന്ദ്ര	-9.43298
▁ണ്	-9.4345
▁മുതിർന്ന	-9.43553
▁ണ	-9.43561
വ്യ	-9.4362
▁കടന്നു	-9.43631
യറ	-9.43642
▁മുതല	-9.4366
▁എതിര	-9.43672
▁രോഗമുക്തി	-9.43731
▁അനുഭവ	-9.43737
▁അംഗങ്ങള	-9.43781
തീ	-9.43794
നിര	-9.43875
▁വാദ	-9.43925
▁ഇവര്‍ക്ക്	-9.43927
▁ഫെ	-9.43941
ാവസ്ഥ	-9.43947
ുന്നതെന്നും	-9.44005
വിന്	-9.44007
▁തേടിയ	-9.44061
▁അതിനെ	-9.44105
ിക്കുക	-9.4418
▁സഖ്യം	-9.44228
▁ആവശ്യപ്പെട	-9.44251
ിയെ	-9.44261
▁നിര്‍ത്ത	-9.44275
▁മന്ത്രാലയം	-9.44372
▁ഇന്നത്തെ	-9.4439
നില	-9.44411
l	-9.44436
പുര	-9.44444
▁കശ്മീര	-9.44446
ാടി	-9.44499
▁തിരഞ്ഞെടുപ്പിന്	-9.44507
പ്പാട	-9.44552
▁കൂട്ടിച്ചേർത്തു	-9.44626
▁സാമൂഹ്യ	-9.44626
ിട്ടില്ലെന്നും	-9.44634
വിന്റെ	-9.44635
▁ശമ്പളം	-9.44683
▁വെള്ളിയാഴ്ച	-9.44777
▁പ്രാഥമിക	-9.44806
▁അറസ്റ്റ	-9.44846
▁സംസ്	-9.44887
കക്ഷി	-9.44973
▁ഒര	-9.45008
▁വിലയിരുത്ത	-9.45094
▁കാലം	-9.451
▁വിപണി	-9.45107
ുടെയും	-9.45107
▁മാതൃക	-9.45167
യുണ്ടായ	-9.45217
▁നഷ്ടപ്പെട്ട	-9.45219
▁കരുത്ത	-9.45273
▁പേര്‍ക്കാണ്	-9.45316
▁നം	-9.4532
▁ജീവനക്കാര	-9.45343
▁അദ്ദേഹത്ത	-9.45343
▁കലാ	-9.4538
▁രൂപയും	-9.45384
ാളി	-9.45395
▁സ്ഥാനത്ത്	-9.4549
ൌ	-9.45528
യാണെന്നും	-9.45595
▁എച്ച്	-9.45632
ബു	-9.45684
▁തിങ്കളാഴ്ച	-9.45709
▁പ്രചരണ	-9.45717
▁ബസ	-9.45728
▁അതു	-9.46007
▁ജനങ്ങളെ	-9.46016
ൻസ	-9.46056
▁സുപ്രീംകോടതി	-9.46077
ൻ്റ	-9.4609
▁മനുഷ്യ	-9.46132
വാസ	-9.46135
▁മനസ്സിലാക്ക	-9.46139
▁സർക്കാരിന്റെ	-9.46229
▁സംഘര്‍ഷ	-9.46257
മില്ലാത്ത	-9.46366
▁മണ്ഡലങ്ങള	-9.46398
▁രഹസ്യ	-9.46439
മാക്കിയ	-9.46451
ൻഡ	-9.46733
▁സുനി	-9.46762
േശ	-9.46804
▁വന്നിരുന്നു	-9.46811
ാള	-9.46869
മാറ്റ	-9.46871
▁എനിക്ക	-9.46876
▁ഉത്തരവ	-9.46941
▁വേണമെന്ന	-9.46946
▁മതി	-9.47049
ുമൊക്കെ	-9.47268
▁ഭക്ഷണം	-9.47288
▁ഹെ	-9.47288
▁പ്രകടന	-9.47295
▁കാരണ	-9.47296
▁തേടി	-9.47371
▁മുൻപ്	-9.47383
▁ഞങ്ങളുടെ	-9.47396
▁രാമ	-9.47528
▁ഭീകര	-9.4754
▁ഉത്തരവ്	-9.47555
▁മൈ	-9.47596
▁തിരിച്ചറിയ	-9.47604
▁വിമര്‍ശന	-9.47702
▁നടത്തും	-9.4773
▁സ്വപ്	-9.47798
മുഖ	-9.47831
▁തേ	-9.47895
ഘ	-9.47924
▁വൈക	-9.48001
▁ഭൂരിപക്ഷം	-9.48019
ംഗ്	-9.48174
▁ചെയ്യുക	-9.48195
▁സംസ്ഥാനങ്ങളില്‍	-9.4824
പ്പെട്ടു	-9.48282
ിയുടെ	-9.48342
▁പരാജയപ്പെട്ട	-9.48416
യേയും	-9.48432
▁ബോസ	-9.48433
▁നേതാക്കളുടെ	-9.48524
▁ചേ	-9.48528
തിന	-9.48533
▁മൊ	-9.48594
▁നടപടികൾ	-9.48626
▁ആഗോള	-9.4866
കർ	-9.48671
ഫോ	-9.48684
80	-9.48826
▁2022	-9.48873
▁ഉള്‍പ്പെടെയുള്ള	-9.48931
മ്മി	-9.48985
▁തുറന്ന്	-9.48986
എൻ	-9.49097
▁കുമാർ	-9.49111
▁തെക്ക	-9.49112
ുപോയ	-9.49191
യിട	-9.49274
▁തുടക്കം	-9.49297
▁ടെസ്റ്റ്	-9.493
▁പുതു	-9.49336
പൂർ	-9.49359
▁ടെക്	-9.49364
മായിരിക്കും	-9.49374
കരിച്ച	-9.49392
പോക	-9.49399
▁വിദ്യാര്‍ത്ഥികള	-9.49445
▁തിരക്ക	-9.49539
തെന്ന	-9.49589
▁2017	-9.49619
▁കുറയ്ക്ക	-9.4967
ക്കഴിഞ്ഞ	-9.49699
21	-9.49723
ക്കിട	-9.49766
▁കൊല്ല	-9.49789
▁ഇറങ്ങ	-9.49789
▁ഇത്ര	-9.4979
▁ഇറാന	-9.49871
ശാല	-9.49876
▁ശേഷി	-9.49899
▁താമസിക്കുന്ന	-9.49903
നിൽ	-9.4993
▁തുടര്‍ന്ന	-9.49932
ക്ഷി	-9.49933
▁ചര്‍ച്ചകള്‍	-9.49934
നിന്ന	-9.49937
▁സബ്	-9.4996
▁സാധ്യതയുണ്ട്	-9.50058
രിപ്പ	-9.50058
▁നേതാക്കളും	-9.5013
▁എയര്‍	-9.50273
▁മധ്യ	-9.50279
▁നല്‍കാന്‍	-9.50298
▁മീ	-9.50372
ര്യ	-9.50439
▁അറിയിച്ചിരുന്നു	-9.50516
ില്ലാത്ത	-9.50603
▁സംഭവത്തിൽ	-9.50608
▁ലോക്ക്	-9.50708
▁പാത	-9.50741
▁ഉറപ്പ്	-9.50785
മാകും	-9.50908
▁സെന്ററ	-9.51029
▁അധികാരം	-9.51268
▁ഗവര്‍ണര്‍	-9.51313
▁തകര്‍ന്ന	-9.51315
▁ഡോളറ	-9.51321
▁കടല	-9.51425
▁ലഭിച്ചു	-9.51538
▁കക്ഷി	-9.51562
▁സേവന	-9.51592
▁പെട്ടെന്ന്	-9.51652
▁70	-9.51665
▁കേസുകള	-9.51674
▁ബീ	-9.51704
▁ഇര	-9.51723
ാണെങ്കില്‍	-9.51752
▁കളി	-9.51756
.5	-9.51829
▁മണ്ഡലത്തിൽ	-9.51892
▁കോള	-9.51899
്‍ക്കും	-9.51929
സ്വ	-9.51966
▁സൗകര്യ	-9.51966
▁അവസാനിപ്പിക്ക	-9.5197
40	-9.5206
കുമാർ	-9.52099
▁ഭാവി	-9.5211
സിന്	-9.52129
▁കാനഡ	-9.52181
വള	-9.5222
ിലെത്തിയ	-9.52271
▁ഉടൻ	-9.5228
▁വിമത	-9.52306
▁നിര്‍ദേശിച്ച	-9.52319
മാണിത്	-9.52386
ർന്ന	-9.52407
▁നല്‍കിയിരുന്നു	-9.52422
ന്ധ	-9.52424
▁പിന്നില്‍	-9.52425
ിനി	-9.52451
▁ശ്രമിക്കുന്ന	-9.52473
▁ചൈനീസ്	-9.52505
▁ഞാന	-9.52641
▁പരിധി	-9.52658
▁മുഴുവൻ	-9.52668
▁സുഹൃത്തുക്കള	-9.52668
▁അര്‍	-9.52726
ബോ	-9.52727
▁ഹൗസ	-9.52753
▁ബിജെപിയെ	-9.52844
▁തിരു	-9.52878
▁സമാനമായ	-9.52893
▁തിരിച്ച്	-9.52951
▁നിലയിൽ	-9.52974
ുണ്ടാവ	-9.52991
സും	-9.53057
▁കളക്ടര്‍	-9.53062
ലേ	-9.53086
പ്പാ	-9.53087
ദാ	-9.53125
▁പ്രഖ്യാപനം	-9.53153
▁ടീം	-9.53157
▁തുറന്നു	-9.53164
ിനെതിരായ	-9.53202
സു	-9.53216
▁വന്ന്	-9.53226
ീകരണ	-9.53265
▁മത്സരം	-9.53293
ുകള്‍ക്ക്	-9.53411
▁സ്ഥലം	-9.53445
ൂറ	-9.53497
▁ഇഡി	-9.53582
▁വ്യവസായ	-9.53583
▁വിധേയ	-9.53585
ുണ്ടാക	-9.53588
▁സംരക്ഷണ	-9.5359
ദ്ര	-9.53628
▁തോന്നിയ	-9.53639
▁സമര്‍പ്പിച്ച	-9.53646
▁താന	-9.53699
ീഷ	-9.53704
▁പ്രശ്ന	-9.53803
▁പുറമേ	-9.53843
▁നല്‍കുന്നത്	-9.53844
ിലായിരുന്നു	-9.53865
d	-9.53889
▁പുതുതായി	-9.53902
▁ചിലര്‍	-9.53908
▁കോടതിയെ	-9.53912
▁പങ്ക	-9.53997
▁ഗുരുതര	-9.54156
▁അമ	-9.54162
▁33	-9.54234
▁ഞായറാഴ്ച	-9.54237
▁ചെയ്യാന	-9.54396
▁ഹൃദയ	-9.54436
▁പരാമര്‍ശ	-9.54444
േണ്ടതുണ്ട്	-9.54472
▁വേദന	-9.54488
u	-9.54634
▁കര്‍ശന	-9.54638
▁വരുമാന	-9.54646
▁ജില്ലകളിൽ	-9.54677
▁വാഗ്ദാനം	-9.54695
▁രീതിയിൽ	-9.54708
ാണു	-9.54747
പ്പെട്ടത്	-9.54759
▁പ്രവർത്തകർ	-9.54809
▁അംബാനി	-9.54833
▁സീറ്റില്‍	-9.54835
▁ഷി	-9.54857
▁നേട്ടം	-9.54858
▁ജസ്റ്റിസ്	-9.54859
ാണുള്ളത്	-9.54954
ത്തേ	-9.55009
▁നോട്ടീസ്	-9.55022
▁കുറിപ്പ്	-9.55026
▁എന്‍ഡിഎ	-9.55033
ലു	-9.55049
▁അന്ന	-9.55071
▁വള	-9.55104
സോ	-9.55187
▁സ്ഥാപിക്ക	-9.55235
▁ഡ്ര	-9.55236
ദ്ദ	-9.55287
▁അനുസരിച്ച്	-9.55298
▁സോഷ്യൽ	-9.55432
▁നിരന്തര	-9.55433
ാകെ	-9.55439
ുന്നതിന	-9.55459
▁ഗവ	-9.55518
▁എന്നു	-9.55601
ിയിട്ടുണ്ട്	-9.55607
ുന്നതെന്ന്	-9.55688
▁ക്ലാസ്	-9.55773
▁സ്വര്‍ണ	-9.5584
▁ചോദ്യ	-9.55857
േക്കാള്‍	-9.55875
▁ശക്തമായി	-9.56007
▁പോയത്	-9.56022
▁മേഖലയിലെ	-9.5607
▁നാലു	-9.56184
▁വാങ്ങി	-9.56194
ജ്ജ	-9.56207
മാരും	-9.56215
ശ്ശേരി	-9.56221
▁ശനിയാഴ്ച	-9.56235
▁ബില്ല	-9.56302
▁യൂ	-9.56328
ഭവ	-9.56394
ണോ	-9.56447
ഭരണ	-9.56483
▁വിഷയങ്ങള	-9.56536
▁തന്ന	-9.56547
▁തെളിവ	-9.56604
▁സര്‍	-9.56641
▁റീ	-9.56683
▁പങ്കെടുത്തു	-9.56719
▁ഭക്ഷ്യ	-9.56843
▁അഭിപ്രായം	-9.5691
▁ക്ഷ	-9.56919
യായിരുന്ന	-9.56942
▁ബെംഗളൂരു	-9.57046
▁വെട്ടി	-9.57061
▁പറയാന്‍	-9.57167
▁ബാധിക്ക	-9.57174
▁ഷാജി	-9.57179
▁വിദ്യാര്‍ത്ഥി	-9.57213
ുമായും	-9.57243
▁രാജ്യത്തിന്റെ	-9.57247
▁പുറത്താക്ക	-9.57386
▁പാര്‍ട്ടിയുടെ	-9.57393
ുകൾക്ക്	-9.57401
▁ബാധിച്ച്	-9.57409
പരി	-9.57454
യൊക്കെ	-9.57552
▁കളിക്ക	-9.57579
വുമ	-9.57585
n	-9.57619
▁ടൂറിസം	-9.57659
▁സിബിഐ	-9.57659
▁നിര്‍	-9.57711
▁ചേര്‍ത്ത	-9.57713
ലിയ	-9.57741
▁ഹർജി	-9.57864
▁പിന്തുണച്ച	-9.57914
▁മുഖ്യ	-9.57967
▁പ്രവൃത്തി	-9.58068
ാണിത്	-9.58092
ത്തര	-9.58183
▁സാഹചര്യത്തിലാണ്	-9.58184
▁ജാതി	-9.58217
ാതിരുന്ന	-9.58251
വാര	-9.58297
▁നിർ	-9.58344
▁പ്രവര്‍ത്തനം	-9.58351
▁തടസ്സ	-9.58387
▁ലക്ഷ്യ	-9.58414
▁ബാഗ	-9.58418
▁പഞ്ചാബ്	-9.5844
▁ഏപ്രില്‍	-9.58482
▁മോശം	-9.58483
▁അങ്ങ	-9.58514
▁നടക്കും	-9.58519
▁കാട്ട	-9.58614
▁തയ്യാറാക്ക	-9.58646
▁റദ്ദാക്ക	-9.58733
മെന്ന	-9.58737
▁മന	-9.58776
▁ഒരുക്കിയ	-9.58776
വയ	-9.58779
ിരിക്കെ	-9.58789
▁കാണുന്നത്	-9.58841
ുന്നതിനിടെ	-9.58846
▁ടിക്കറ്റ	-9.58858
▁കാസര്‍ഗോഡ്	-9.58894
▁ഉൾപ്പെടെയുള്ള	-9.58987
▁ബ്ലോക്ക്	-9.59085
▁വിദ്യ	-9.59129
ജാ	-9.59251
▁പൊലിസ്	-9.59319
ത്തിന്റെയും	-9.59343
▁ഊ	-9.59365
▁വായ്പ	-9.59461
▁ഒഴിവ	-9.59478
മൂ	-9.59483
▁അന്ത	-9.59531
വിൽ	-9.59545
മേഖല	-9.59551
തൃ	-9.59552
ഷാ	-9.59639
▁കണക്കാക്ക	-9.59689
▁തങ്ങള്‍	-9.59723
പ്പോഴും	-9.59731
▁അഡ്വ	-9.5974
ാനോ	-9.59818
▁എന്തെങ്കില	-9.59819
▁റാലി	-9.59882
▁(1	-9.59912
ര്‍ന്ന	-9.5992
▁നിയമന	-9.59953
▁വേറെ	-9.60013
▁മാന	-9.60031
▁മുന്നോട്ടു	-9.60097
▁തിരുവ	-9.60103
▁പകര	-9.60121
▁വ്യാപനം	-9.60142
▁ട്വീറ്റ്	-9.60172
ലിന്റെ	-9.60195
▁ച്ച	-9.60236
▁അതിൽ	-9.60265
ഞ	-9.60338
▁സ്ഥാപിച്ച	-9.60357
പെ	-9.60362
▁ഓക്	-9.60374
▁വിമര്‍ശനം	-9.60419
71	-9.60442
▁34	-9.60476
▁കര്‍ഷകര്‍	-9.60482
സിൽ	-9.60497
▁വിശദീകരണം	-9.60508
ഘട്ട	-9.60592
▁ചാനല	-9.60625
ങ്ങളില	-9.60683
▁ഗൗരവ	-9.60777
മ്പ്	-9.60842
ീർ	-9.60884
▁തിരുത്ത	-9.60906
▁നിര്‍മാണ	-9.61053
▁ഇറങ്ങിയ	-9.61082
വിഷ	-9.61103
▁സമ്പര്‍ക്കം	-9.61156
in	-9.61212
▁ആത്മ	-9.6132
▁വ്യക്തമാക്കിയത്	-9.6152
രിക	-9.6152
▁നോട്ട	-9.61566
▁ഇത്തരമൊരു	-9.61626
▁മുല്ലപ്പള്ളി	-9.61626
ുകയാണെന്ന്	-9.61675
▁ഇവര	-9.61746
ചി	-9.61766
മെന്നും	-9.61784
മായും	-9.6182
ത്തോളം	-9.61842
▁മനസിലാക്ക	-9.61842
▁നിതീഷ്	-9.61874
യാത്ര	-9.61893
▁രംഗത്ത	-9.62034
▁സിങ്	-9.62051
▁നിയന്ത്രിക്ക	-9.62053
▁എങ്കിലും	-9.62053
▁അന്തിമ	-9.62054
▁അഭിമാന	-9.62074
▁രാജ്യസഭ	-9.62131
▁വിളിച്ചു	-9.62156
▁തൊട്ട	-9.62182
▁എട്ട	-9.62217
▁ഗോവ	-9.62237
▁സ്വര്‍ണം	-9.62245
ുന്നതിന്റെ	-9.6232
▁നിര്‍ത്തി	-9.62351
▁പ്രകടനം	-9.62351
▁ഗുരുതരമായ	-9.62362
▁ബാധിച്ചത്	-9.62439
ിക്കുകയായിരുന്നു	-9.62472
▁ഒരാൾ	-9.62481
▁കമ്മീഷന്‍	-9.62525
▁അഞ്ചു	-9.62539
▁നിയന്ത്രണം	-9.62544
നീഷ്	-9.62551
▁ഇന്ത്യയിൽ	-9.62688
▁സ്നേഹ	-9.62698
▁വയസ	-9.62704
▁ചൂണ്ടിക്കാട്ട	-9.62796
വം	-9.62827
▁സഹോദര	-9.62885
▁36	-9.62895
▁ന്യൂനപക്ഷ	-9.62912
▁ഭേദഗതി	-9.62916
ുണ്ടെന്ന	-9.62937
▁2023	-9.62948
ബന്ധ	-9.6298
▁കൊണ്ടു	-9.63044
▁ഗാന്ധിയുടെ	-9.63083
▁നാട്	-9.63092
ാമെന്നും	-9.63114
p	-9.63128
▁രണ്ടാമത്തെ	-9.63132
▁സ്ഥലത്ത്	-9.63141
▁75	-9.63146
▁ഇപ്പോഴത്തെ	-9.63173
ന്തി	-9.6318
▁സമ്മാനം	-9.63206
▁വാഹനം	-9.63228
▁മകന്‍	-9.63246
ാണി	-9.63278
▁ആല	-9.63295
▁ഫോ	-9.63339
▁വിതരണ	-9.63358
▁ബല	-9.63419
▁ദിവസത്തെ	-9.63429
ുണ്ടാവും	-9.63473
▁തർക്ക	-9.63568
ദേവ	-9.6364
ിലേക്കുള്ള	-9.63647
▁മോദിയുടെ	-9.63663
▁ജനങ്ങൾ	-9.63671
▁നോക്കി	-9.63721
▁സൗ	-9.63745
▁കേന്ദ്രസര്‍ക്കാ	-9.63788
▁കാര്യമാണ്	-9.63814
ക്കാരെ	-9.63815
പിടിച്ച	-9.63825
▁ശക്ത	-9.63841
ഞ്ചേരി	-9.63886
മ്പി	-9.63913
യുടേയും	-9.63963
▁സൈറ്റ	-9.63993
▁ഉപയോഗിക്കുന്ന	-9.64097
▁37	-9.64135
▁കൈയ്യ	-9.64171
▁ആദ്യത്തെ	-9.642
▁48	-9.6421
▁സംഘടിപ്പിച്ച	-9.64215
▁ധനമന്ത്രി	-9.64225
എൽ	-9.64238
െതിരെ	-9.64249
▁കണ്ടത്	-9.64276
പാല	-9.64277
▁ആക്രമിക്ക	-9.64316
▁പിന്നില	-9.64329
ധ്യ	-9.64335
▁എല്‍ഡിഎഫ	-9.64376
▁സര്‍വീസ്	-9.64413
▁വരുമാനം	-9.64422
▁അല്ലെങ്കില്‍	-9.6445
▁പ്രഖ്യാപന	-9.64465
ചിത	-9.64614
▁അഭിപ്രായപ്പെട്ട	-9.6466
▁സർ	-9.64695
പ്പോഴ	-9.64759
▁ആയുധ	-9.64873
▁അസിസ്റ്റന്റ്	-9.64879
▁പുറത്തുവിട്ട	-9.64888
കട	-9.64896
▁കൊവിഡ	-9.64913
▁തീവ്ര	-9.6492
ടുപ്പ	-9.64922
▁ആശയ	-9.64924
ർമ	-9.64965
ന്ദ്ര	-9.65036
▁ഇയാൾ	-9.65093
▁നേതാവ	-9.65097
താണെന്ന്	-9.65103
രിച്ച	-9.65128
▁ജോര്‍ജ	-9.65152
▁ഇന്റ	-9.65158
▁അതുപോലെ	-9.65176
▁സ്കൂള	-9.65314
▁വൈറസ	-9.65373
▁വിമാനത്താവളത്ത	-9.6538
നാഥ്	-9.65409
ിട്ടുണ്ടെന്ന്	-9.6541
▁വിദഗ്ധ	-9.65413
ാള്‍	-9.65458
▁കൈകാര്യം	-9.65535
▁ഫിറോസ്	-9.65545
▁വകുപ്പിന്റെ	-9.65594
▁ജോസഫ	-9.65618
▁ഭരണഘടന	-9.65701
▁വലിയൊരു	-9.65703
▁കൂടുതല	-9.65711
▁പ്രവര്‍ത്തകര	-9.65717
▁വിനോദ	-9.6576
മില്ലാതെ	-9.65775
കളില	-9.65799
23	-9.65834
▁ഇതിനായി	-9.65843
▁കരുതുന്നത്	-9.65881
ച്ഛ	-9.65904
▁നോക്കിയ	-9.65922
▁വിള	-9.65969
▁2024	-9.6601
വയ്ക്ക	-9.6605
▁പ്രഖ്യാപിച്ചു	-9.66095
ുണ്ടെന്ന്	-9.66152
▁ഭൂ	-9.66297
▁ശ്രദ്ധിക്ക	-9.66378
▁ആളുകളെ	-9.66378
▁വസ്ത്ര	-9.66426
▁ശിവസേന	-9.6643
ചാര	-9.66446
▁സുഹൃത്ത	-9.66482
മറ	-9.66486
▁നടത്താന്‍	-9.66529
ായിട്ടാണ്	-9.66667
▁55	-9.66716
▁മാര്‍ഗ	-9.66716
പ്രകാരം	-9.66728
▁എംഎൽഎ	-9.6678
ിലോ	-9.6682
▁കാലാവധി	-9.66873
▁പാര്‍ട്ടിയില്‍	-9.66875
▁അമേരിക്കന്‍	-9.66888
▁വേഗത്തില	-9.66978
വാഹ	-9.66985
കൂടി	-9.67002
▁ആവ	-9.67023
ോടുള്ള	-9.67077
A	-9.67091
▁വല	-9.67092
▁ബു	-9.67094
▁അപ്രതീക്ഷിത	-9.67097
▁ചൂണ്ടിക്കാണിക്ക	-9.67097
ോളജി	-9.67118
▁മേഖലയിൽ	-9.67193
▁തടവ	-9.67194
ണ്ഡ	-9.67201
▁തരത്തിലുള്ള	-9.67216
▁പരിശോധനയ്ക്ക	-9.67222
▁എന്നിവരെ	-9.67231
▁അച്ഛന	-9.67241
▁പ്രവേശിപ്പിച്ച	-9.67288
▁അംഗീകരിച്ച	-9.67323
▁തൊഴിൽ	-9.67323
▁അടച്ച	-9.6737
വുമാണ്	-9.67405
▁ജനത	-9.6743
ദീപ്	-9.67467
▁പിന്‍വലിക്ക	-9.67548
▁വ്യക്തമാക്ക	-9.67563
ര്‍ച്ച	-9.67612
04	-9.67612
▁ഫോണ	-9.6762
▁ഐക്യ	-9.67647
▁വിജയൻ	-9.67675
ാഭ	-9.67686
▁വീഴ	-9.67708
▁സ്റ്റാ	-9.67734
▁ധരിക്ക	-9.67826
▁ചെയ്യുന്നത	-9.67907
▁കരുതിയ	-9.6793
▁വെബ്	-9.67935
12	-9.67965
▁ദിവസവും	-9.68069
▁ജനങ്ങള	-9.68088
രുതെന്ന്	-9.68103
▁പ്രതികരിച്ചത്	-9.68112
▁ശമ്പള	-9.68156
▁കാര്യമായ	-9.68167
ാത്തത്	-9.68171
▁നിയന്ത്രണ	-9.68188
▁ജയിക്ക	-9.68205
െണ്ണ	-9.68236
▁ചിത്രങ്ങള്‍	-9.68247
▁വിദേശകാര്യ	-9.6825
▁അതാണ്	-9.68269
▁മറ്റുള്ളവര	-9.68279
▁നാള	-9.6828
▁തോമസ	-9.68373
▁മേല്‍	-9.68379
▁പിടിച്ചു	-9.68393
മാന്‍	-9.68396
▁ഉദ്യോഗസ്ഥർ	-9.68416
▁സൃഷ്ടിച്ച	-9.6846
▁താമസ	-9.6848
▁ഗ്രഹ	-9.6855
ഞ്ച്	-9.68606
▁കഴിവ	-9.68695
▁വഹിച്ച	-9.68707
▁എമ്മ	-9.68742
▁വോട്ടുകള	-9.68824
▁എംഎല്‍എമാര	-9.68838
▁സമീപിച്ച	-9.68851
▁വിഡി	-9.68899
▁തൃക്കാക്കര	-9.68914
▁പരാമർശ	-9.68914
▁ഉറച്ച	-9.68939
ലക്ഷ	-9.68989
▁മുട്ട	-9.69022
താര	-9.69028
▁നൽകിയത്	-9.69069
▁കാണാം	-9.69073
▁ശബ്ദ	-9.69086
▁കോടിയേരി	-9.69143
▁സ്വന്തമാക്ക	-9.69146
ാനം	-9.69168
ലില്‍	-9.69182
▁പ്രകടിപ്പിച്ച	-9.69237
▁കോവിഡ	-9.69242
▁പെട്ട	-9.69254
ില്ലേ	-9.69305
▁അവർക്ക്	-9.69306
▁സച്ചിന്‍	-9.69321
▁അവതരിപ്പിച്ച	-9.69373
▁സാങ്കേതിക	-9.69373
▁ചൊവ്വാഴ്ച	-9.69375
67	-9.69396
ലം	-9.69424
▁ക്ഷേമ	-9.69425
▁പാലിച്ച	-9.69464
▁അക്കൗണ്ട	-9.69516
▁കുമാറ	-9.69573
▁രൂപീകരിച്ച	-9.69603
ക്കുകയും	-9.69629
▁തുടക്ക	-9.69639
▁സ്ത്രീകള്‍	-9.69759
▁ഏജന്‍സി	-9.6977
▁കേസുകൾ	-9.69775
▁നല്‍കും	-9.69819
▁ബുധനാഴ്ച	-9.69827
▁തെലങ്കാന	-9.69834
മൂല	-9.69835
നേതൃത്വത്തിലുള്ള	-9.6989
പ്പുറം	-9.69902
▁തലത്തില്‍	-9.69938
▁ചിന്ത	-9.69997
95	-9.7002
▁ശരീര	-9.7006
▁പുരുഷന്‍	-9.70073
▁ഒരേ	-9.70095
▁നവ	-9.70101
▁കൗ	-9.70127
▁നിർത്തി	-9.70144
▁ക്യാ	-9.70144
▁നീങ്ങ	-9.70152
▁വേണ്ടിയാണ്	-9.70168
▁താഴ	-9.70171
▁വധ	-9.70172
▁കോടതിയിൽ	-9.70314
▁പ്രതീക്ഷിച്ച	-9.70338
വല്‍	-9.70369
▁പ്രതികളെ	-9.70428
▁നിർദ്ദേശ	-9.70439
ാദി	-9.70624
യ്ക്കായി	-9.70633
▁മുന്നറിയിപ്പ	-9.70648
▁പ്രതികരണ	-9.70726
▁വ്യത്യാസ	-9.70763
▁ബോംബ	-9.70808
▁43	-9.7087
▁തുടരുകയാണ്	-9.70963
▁കേള്‍ക്ക	-9.70999
▁ഉദ്യോഗസ്ഥര	-9.71054
▁കുത്തി	-9.71087
▁ഭാഗ്യ	-9.71094
▁നേടിയത്	-9.71183
▁പങ്കുവച്ച	-9.71232
▁സൂപ്പര്‍	-9.71232
▁അതിന	-9.71242
▁വ്യാഴാഴ്ച	-9.71243
▁മാധ്യമങ്ങള്‍	-9.71259
വിരുദ്ധ	-9.71299
▁കയറിയ	-9.71301
▁തോന്ന	-9.7138
▁സസ്	-9.7139
▁ബൈക്ക	-9.71413
▁പ്രവര്‍ത്തിച്ച	-9.71443
ടക്ക	-9.71446
▁സംഘടനാ	-9.71452
ഗ്രഹ	-9.71547
▁നഷ്ടമായ	-9.71577
▁ശക്തമാക്ക	-9.71617
ിനേയും	-9.71662
▁ഗുണ	-9.71692
▁സൗഹൃദ	-9.71701
▁അതോറിറ്റി	-9.71701
▁രാജിവെച്ച	-9.71725
▁പാടില്ല	-9.71756
▁സാധ്യതയുണ്ടെന്ന	-9.7177
▁കെസി	-9.71779
▁ഒടുവില്‍	-9.71787
▁വീട്ട	-9.71842
ല്ലാതെ	-9.7185
ുമ്പോഴും	-9.71875
▁സമ്മേളന	-9.71924
▁വിഷയത്തിൽ	-9.71925
ക്സ്	-9.71933
▁പൂര്‍ണ	-9.71934
▁അധികൃതർ	-9.71937
▁ബിജെപിയില്‍	-9.71955
▁കാരണമായ	-9.71993
▁പ്രായ	-9.72002
▁സ്ഥിര	-9.72052
▁ഇതിലൂടെ	-9.72086
▁ഭാരത്	-9.72135
▁സര്‍വേ	-9.72154
വിട്ട	-9.72167
96	-9.72183
▁ആറ	-9.72194
▁മുൻപ	-9.72224
▁സര്‍ക്കാരിന്	-9.7226
▁തീയതി	-9.72279
▁നയിക്ക	-9.72309
▁പ്രവർത്തകര	-9.7232
േണ	-9.7232
▁അനില്‍	-9.72366
15	-9.72386
▁അമ്പ	-9.72398
▁മന്ത്രിമാര	-9.72446
▁തമിഴ്നാട്	-9.72464
▁സാക്ഷി	-9.7248
▁കടുവ	-9.72491
െന്നായിരുന്നു	-9.72522
ുണ്ടാകും	-9.72525
▁വൻ	-9.72537
▁ജീവന	-9.7254
▁കടക്ക	-9.7257
▁അയക്ക	-9.72669
▁വര്‍ധിച്ച	-9.72671
▁പറയുന്നുണ്ട്	-9.72717
▁മണിക്ക്	-9.72756
▁ദിവസങ്ങളില്‍	-9.72777
ർക്ക്	-9.72828
▁ഉണ്ടാക്കിയ	-9.72848
m	-9.72875
ഫ്റ്റ	-9.72905
▁പ്രാ	-9.72989
▁വൈകിട്ട	-9.73066
▁നടന്നു	-9.73088
▁പ്രഖ്യാപിച്ചത്	-9.7312
▁44	-9.73184
മന്ത്രി	-9.73184
യോഗം	-9.73191
പ്പുഴ	-9.73227
▁തോന്നുന്ന	-9.73227
▁കുള	-9.73321
▁ഫോൺ	-9.73417
തിരി	-9.73426
▁പദ	-9.73436
r	-9.73472
▁ഇതര	-9.73557
ഞ്ഞ്	-9.73568
▁രേഖപ്പെടുത്ത	-9.73575
▁ആളുകള	-9.73592
P	-9.73604
ുണ്ടെങ്കില്‍	-9.73617
▁വിഷമ	-9.73644
▁രൂക്ഷ	-9.73657
▁പട്ടികയില്‍	-9.73665
▁ആം	-9.73674
▁പ്രവർത്തന	-9.7375
▁വാര്‍ഡ്	-9.73812
▁റൂ	-9.73832
▁കാര്‍ഷിക	-9.73844
▁പൂര്‍ത്തിയാക്ക	-9.73897
പര	-9.73967
▁പത്രിക	-9.73974
▁ഇന്നും	-9.74025
കൾക്കും	-9.74085
▁ഓഹരി	-9.74086
▁ചെയ്യപ്പെട്ട	-9.74093
ാന്ത	-9.74122
▁പിടിച്ചെടുത്ത	-9.74133
ചേ	-9.74196
ിങ്ങ	-9.74212
▁എന്നിവർ	-9.74243
ധന	-9.74256
▁പ്രതികള്‍	-9.74276
▁ദാ	-9.74277
യൊരു	-9.7428
▁കയറ	-9.7432
▁രൂപീകരിക്ക	-9.74327
▁ഒപ്പ	-9.74378
▁ബ്ല	-9.744
▁അംഗം	-9.74453
▁കാപ്പ	-9.74527
▁ഇദ്ദേഹം	-9.7457
കളിലേക്ക്	-9.74579
60	-9.74641
യ്ക്കുള്ള	-9.74742
▁ദിലീപിന്റെ	-9.74795
▁ഒട്ടേറെ	-9.74812
▁മരണപ്പെട്ട	-9.74838
▁രാഷ്ട്രീയം	-9.7488
▁ചുറ്റ	-9.74915
▁ജഡ്ജി	-9.74923
കൊ	-9.74932
▁നട	-9.7498
▁ന്യൂസ്	-9.7501
െന്ത	-9.75022
▁മുന്‍പ്	-9.75042
ദീ	-9.75078
യ്ക്കു	-9.75118
▁വിമർശന	-9.75163
കുന്ന	-9.75184
കൊണ്ട	-9.75273
കള്‍ക്കും	-9.75286
▁മമ്മൂട്ടി	-9.75299
▁എഎപി	-9.753
▁സംഘടിപ്പിക്ക	-9.75301
വരില്‍	-9.75353
▁ഇത്തരത്തില്‍	-9.75387
പതി	-9.75413
▁പെരു	-9.75424
റിൽ	-9.75487
▁പദ്ധതിയുടെ	-9.75539
ക്ടറ	-9.75552
ാമെന്ന	-9.75589
പ്പെടുന്നു	-9.75655
▁ആന്‍ഡ്	-9.75666
പ്രദേശ	-9.75719
19	-9.75732
▁ഫ്ര	-9.75741
▁സമര്‍പ്പിക്ക	-9.75788
▁എന്‍സിപി	-9.75789
താണെന്നും	-9.75814
ര്‍ട്ട	-9.75844
▁42	-9.75845
▁ഗുജറാത്ത്	-9.7587
▁രാജീവ്	-9.75884
റിന്	-9.75928
▁ഉണ്ടായത്	-9.7595
▁ഏജൻസി	-9.76034
▁ക്വാറന്റൈന	-9.76034
▁വീഴ്ച	-9.76034
▁കഴിച്ച	-9.76054
84	-9.76071
▁നാട്ടുകാര	-9.76081
▁ഒരുമിച്ച്	-9.76083
▁പഴ	-9.7615
ാവും	-9.76182
▁മനസ	-9.76191
▁സ്ഥല	-9.76245
▁ഗൂഢാലോചന	-9.7628
▁നമ്മൾ	-9.76281
▁എന്തായാലും	-9.76295
നുസരിച്ച്	-9.76344
▁കേന്ദ്രമന്ത്രി	-9.76378
▁ഇസ്രായേല	-9.76396
▁ലഹരി	-9.76528
▁രോഹിത്	-9.76575
തിനു	-9.76672
▁ദീപ	-9.76674
തെ	-9.76677
യുളള	-9.76685
▁റണ്‍സ	-9.76733
വോ	-9.76741
ിലേക്കും	-9.76777
▁കിടക്ക	-9.76781
▁അതിര്‍ത്തി	-9.76783
▁ധരിച്ച	-9.76798
▁പ്രി	-9.76899
വൻ	-9.76916
▁തയ്യാറാക്കിയ	-9.76928
▁നടന്‍	-9.76932
വിനെ	-9.7695
▁വിദേശത്ത്	-9.76968
ക്കെട്ട	-9.76976
ുവിന്റെ	-9.76979
മാണ	-9.76982
▁തെറ്റായ	-9.76985
ിയാണ്	-9.76992
േക്കാം	-9.77017
െടുത്ത്	-9.77029
▁അലി	-9.77032
▁സജി	-9.77102
▁കർഷക	-9.77119
ണിയ	-9.77152
▁പ്രതിഷേധിച്ച	-9.7717
▁കടത്ത	-9.77184
▁അതിനാല്‍	-9.77191
പ്പെടുത്തി	-9.77211
▁തൃണമൂല്‍	-9.77218
▁റിപ്പോർട്ട	-9.77234
▁പശ്ചിമ	-9.77272
▁പുരോഗതി	-9.77272
▁തടസ	-9.77274
േല്‍	-9.77288
▁വ്യക്തമല്ല	-9.77332
▁രോഗികളുടെ	-9.77403
▁ഇയാളെ	-9.77416
സൂ	-9.77419
▁കോൺഗ്രസിന്	-9.77453
▁ഓടി	-9.77488
▁നിര്‍ബന്ധ	-9.77503
▁അന്വേഷിച്ച	-9.77521
▁ജോർജ്	-9.77528
▁നിമിഷ	-9.77537
▁രേഖ	-9.7755
▁തുടങ്ങിയവ	-9.7756
▁ടിവി	-9.77598
▁സൂചിപ്പിക്കുന്ന	-9.77613
▁ദൃശ്യങ്ങള്‍	-9.77642
▁ഏഴ	-9.77642
ിറ്റി	-9.77646
▁വ്യത്യസ്ത	-9.77679
ൂരില്‍	-9.77719
▁ആറു	-9.77728
ജു	-9.77737
▁ലോക്സഭ	-9.77744
▁തോറ്റ	-9.77761
▁പറയാന	-9.77762
െത്തിയത്	-9.7779
▁സംശയം	-9.77845
യിലെത്തിയ	-9.77859
▁നിര്‍ദേശ	-9.77894
",	-9.77946
▁ഫേസ്ബുക്കില്‍	-9.77951
▁ജീവിതത്തില്‍	-9.77963
ീന്‍	-9.78051
▁കൂള്‍	-9.78178
ുന്നതിൽ	-9.78214
ഞ്ചി	-9.78237
ശീല	-9.7824
▁അടിസ്ഥാനത്തില്‍	-9.78274
▁തലസ്ഥാന	-9.78331
▁നേഹ	-9.78394
92	-9.78401
ാഴ്ച	-9.78417
യെല്ലാം	-9.7851
▁സീറ്റുകൾ	-9.78545
▁പാർലമെന്റ	-9.78591
▁കരാര്‍	-9.78601
▁കഴിയും	-9.78606
ര്‍ട്ട്	-9.78626
▁ഫൈ	-9.78694
▁ബജറ്റ	-9.7876
▁ലീ	-9.78768
▁പ്രക്ഷോഭ	-9.78777
▁അധ്യക്ഷൻ	-9.78855
▁സുരേന്ദ്രന	-9.78881
മുണ്ടാക	-9.78937
▁നിങ്ങള്‍ക്ക്	-9.78941
ങ്ങളിലെ	-9.78997
▁ഘട്ടത്തില്‍	-9.79006
▁ചട്ട	-9.79054
▁മക്കള	-9.79073
▁ജൂ	-9.79086
▁തട്ടിപ്പ	-9.79105
മായിട്ടാണ്	-9.79164
▁വിലയിരുത്തല്‍	-9.79199
▁പ്രവേശിക്ക	-9.79284
വ്വ	-9.79309
▁ജൂൺ	-9.79315
ാണെങ്കിലും	-9.79332
▁ഇന്ത്യക്കാര	-9.79363
കുമാറ	-9.79373
ീൻ	-9.79379
▁എഴുതിയ	-9.79392
ുമില്ല	-9.79408
യന്‍	-9.7946
▁ഡെപ്യൂട്ടി	-9.79539
▁ജയ്	-9.79544
▁വീട്ടില	-9.79562
ഓ	-9.79564
▁ആര്യ	-9.79575
▁വര്‍ഷത്തെ	-9.79575
ർത്തി	-9.79583
▁പിതാവ്	-9.79585
65	-9.79623
▁പാമ്പ	-9.79647
▁90	-9.79736
▁അധ്യാപക	-9.79746
രൂപ	-9.79747
▁പ്രതിനിധി	-9.79799
▁?	-9.79823
ുകാർ	-9.79842
▁എടുത്തു	-9.799
▁സാധ	-9.79905
▁പുഴ	-9.79908
രാമ	-9.79937
▁ശേഷമ	-9.79951
▁അകത്ത	-9.79954
▁ഗുണം	-9.7996
▁കൈമാറിയ	-9.79971
ഫല	-9.8
▁വിമര്‍ശിച്ച	-9.8005
ഥി	-9.80093
ോള്‍	-9.80125
▁ആയിരുന്ന	-9.80134
▁ട്രാ	-9.80146
78	-9.80185
▁നിൽക്കുന്ന	-9.80189
▁വിഷ്ണു	-9.80276
▁പ്രവർത്തനങ്ങൾ	-9.80293
ങ്ങളുമായി	-9.80294
g	-9.80306
▁ജമ്മു	-9.80314
▁രംഗത്തെത്തി	-9.80323
▁അസം	-9.80334
ന്മാര	-9.80345
കുളം	-9.8037
▁കറ	-9.80471
▁ന്യൂ	-9.80482
▁എന്നിവരുടെ	-9.80557
▁ഇല്ലാതാക്ക	-9.80563
ങ്ങള്‍ക്കും	-9.80582
▁കൂട്ടി	-9.80643
▁പൂജ	-9.80689
ദു	-9.80699
▁പരാതിയില്‍	-9.80724
മാകുന്ന	-9.80731
മാൻ	-9.80735
73	-9.80737
▁ഭേദ	-9.80742
▁നാടക	-9.80746
▁പ്രസംഗ	-9.80804
▁ക്യാമറ	-9.80829
▁ദുര	-9.80859
70	-9.80896
ിലേ	-9.80915
▁യുഡിഎഫിന്	-9.80922
▁ഭരിക്കുന്ന	-9.8093
▁നേതാവായ	-9.80943
▁യുവാവ്	-9.80953
▁പാര്‍ലമെന്റ	-9.8109
▁ബഹുമാന	-9.81093
ാട്	-9.81106
1,	-9.81144
82	-9.81147
▁ഗ്യ	-9.81205
▁കൊടി	-9.81221
കൃഷ്ണ	-9.81227
ക്കിടെ	-9.8128
▁വടകര	-9.81339
▁എന്നിങ്ങനെ	-9.8134
▁മാർച്ച്	-9.81363
കളെയും	-9.81376
▁38	-9.81392
▁അല്ലാതെ	-9.81407
ുണ്ടാക്കിയ	-9.81437
75	-9.81463
90	-9.81472
▁പ്രദേശങ്ങള	-9.81493
91	-9.81499
▁അജിത്	-9.81506
▁വേണ്ടത്	-9.81523
▁ന്യൂഡല്‍ഹി	-9.81598
▁എടുത്ത്	-9.8162
▁വിമാനം	-9.81632
▁സാധിക്കില്ല	-9.81698
▁ഓണ്‍ലൈന്‍	-9.81702
▁എഫ	-9.81704
97	-9.81768
േക്കുമെന്ന	-9.81769
▁റൂമ	-9.81794
ങ്കി	-9.81808
▁ഏര്‍പ്പെടുത്തിയ	-9.81857
▁ആലോചിക്ക	-9.81859
▁ബജറ്റ്	-9.81878
▁നിർത്ത	-9.81892
▁തള്ളിയ	-9.81914
പാട	-9.81921
▁നിര്‍മ്മാണ	-9.81988
▁തൊഴില	-9.82009
▁രാജ്യത്ത	-9.82017
▁രക്ഷ	-9.82049
▁3,	-9.82074
▁തുടരുന്ന	-9.82104
▁പേജ	-9.8211
▁വിജയന	-9.82124
▁കിലോ	-9.82124
▁ലോകകപ്പ	-9.82126
▁കൂടിയായ	-9.82145
ൊന്ന	-9.82175
▁സുരേന്ദ്രൻ	-9.8223
ടാ	-9.82257
▁ഇസ്രായേല്‍	-9.82259
▁സൈന്യം	-9.82382
▁അതിഥി	-9.82395
ജോ	-9.82445
▁നേതാവും	-9.82475
▁ഒരാള	-9.82515
▁ജയിലില്‍	-9.82516
▁തെളിയിക്ക	-9.82535
ാണെന്നാണ്	-9.82596
ുവന്ന	-9.82622
▁കളിച്ച	-9.82628
ാര്‍ത്ഥ	-9.82692
▁കത്ത്	-9.82821
▁ലംഘിച്ച	-9.82907
▁തിരിച്ചറിഞ്ഞ	-9.82922
▁കോളേജ	-9.82941
▁നടന	-9.82947
▁പലപ്പോഴും	-9.82963
▁എന്നിവയാണ്	-9.82978
▁തുടങ്ങിയത്	-9.83053
ാനു	-9.83115
ീഷ്	-9.83144
▁രാഷ്ട്രപതി	-9.83177
▁ആസ്തി	-9.83181
പ്പെടും	-9.83185
▁2014	-9.83204
▁മൊബൈല്‍	-9.83254
I	-9.83369
രഹിത	-9.83428
▁കോണ്‍ഗ്രസിനെ	-9.83436
▁അറിയില്ല	-9.83447
▁പ്രതിദിന	-9.83478
മെന്റ	-9.83493
േണ്ടതാണ്	-9.83516
നാഥ	-9.83531
98	-9.83532
▁സൗജന്യ	-9.83537
▁തീരുമാനിച്ചത്	-9.83702
▁രൂക്ഷമായ	-9.83717
തായ	-9.83795
വാദി	-9.83798
▁യൂണിറ്റ	-9.83836
ർട്ട്	-9.8393
▁ആന്റ്	-9.83954
▁ജനസംഖ്യ	-9.83967
റിനെ	-9.83968
ാനുളള	-9.83993
▁നിർദ്ദേശം	-9.84026
▁കുട്ടികള	-9.8403
▁കണ്‍	-9.84037
▁നമ്പര്‍	-9.8405
▁ബെഞ്ച	-9.84053
▁പ്രൊ	-9.84145
22	-9.8417
61	-9.84184
േജ്	-9.84191
▁നിയന്ത്രണങ്ങള്‍	-9.84192
▁ദുബായ്	-9.84233
▁മേഖലകള	-9.84254
ന്‍സി	-9.84299
▁സന്ദേശ	-9.8432
▁അപ്പ	-9.84365
ിലെത്തി	-9.8441
സഹായ	-9.84482
▁നന്നായി	-9.8457
▁നാട്ടില്‍	-9.84592
▁രോ	-9.84657
▁തസ്തിക	-9.84713
▁ജീവിക്ക	-9.84768
▁സന്ദര്‍ശന	-9.84769
▁അവതരിപ്പിക്ക	-9.84769
▁അപകടം	-9.84797
▁അതായത്	-9.84808
▁നിങ്ങളെ	-9.8482
▁പരസ്യമായി	-9.84822
▁വാര	-9.84835
▁വര്‍ധിപ്പിക്ക	-9.8486
▁ഭാഗമായ	-9.84882
▁എത്തുന്നത്	-9.8489
▁കുഴ	-9.84892
ര്‍ജ	-9.84906
▁41	-9.84924
▁തൃശൂർ	-9.85038
▁ആദ്മി	-9.85038
▁പീ	-9.85052
▁യോഗത്തിൽ	-9.85052
▁അല്ലെങ്കിൽ	-9.85066
ക്കൊണ്ട്	-9.8512
വന്‍	-9.85124
യെങ്കിലും	-9.85128
▁വിമാനത്താവള	-9.85151
ാനാവില്ല	-9.85191
▁39	-9.85287
▁ഇറക്കുമതി	-9.85307
▁പരിസര	-9.85309
▁പൂര്‍ണമായും	-9.85316
▁കൊന്ന	-9.8537
▁മുരളീധരന്‍	-9.85373
▁മടങ്ങി	-9.8541
▁ക്വ	-9.8541
▁കുറച്ചു	-9.85416
പ്ല	-9.85501
ന്നി	-9.85516
▁സ്ഥലത്ത	-9.85565
▁ലൈംഗിക	-9.85577
▁/	-9.85624
▁രക്ത	-9.85631
▁പ്രീ	-9.85644
ുന്നവര്‍ക്ക്	-9.85661
കാരന്‍	-9.85672
▁കോണ്‍ഗ്രസും	-9.85719
▁വരിക	-9.85721
▁പരീക്ഷണ	-9.85733
▁വിശദമായ	-9.85793
ഉ	-9.85795
▁യാദവ്	-9.85812
▁വൈറലായ	-9.85849
ുവരുന്ന	-9.85855
▁തരംഗ	-9.85876
▁പ്രൊഫ	-9.85881
യാണ	-9.85884
ത്തിലായിരുന്നു	-9.85884
▁സ്ഥാനത്തേക്ക്	-9.859
ർണ	-9.85934
▁നേരിടേണ്ടി	-9.85947
▁വെളിപ്പെടുത്ത	-9.85948
▁വന	-9.8597
വര്‍ഷ	-9.85976
യാണോ	-9.85988
24	-9.85996
▁ചെയര്‍മാന്‍	-9.86013
▁ഡാറ്റ	-9.86021
▁പ്രധാനപ്പെട്ട	-9.86044
▁ഗുരു	-9.86069
▁ഇടപാട	-9.86102
▁ശി	-9.86124
യാസ	-9.86187
▁5,	-9.86191
▁ഗു	-9.86213
01	-9.86232
പൂര	-9.86247
▁മാർ	-9.86261
▁ധോണി	-9.86393
▁ശര്‍മ	-9.864
▁വിശ്വ	-9.86454
പറമ്പ	-9.86504
ബ്ര	-9.86516
▁നേതൃത്വത്തിൽ	-9.86619
▁പുറത്തിറക്കിയ	-9.86655
▁വിറ്റ	-9.86668
▁ഹാജരാക	-9.86699
▁പ്രവേശനം	-9.86775
▁കൊണ്ടുപോക	-9.86791
ജന്‍	-9.86837
▁സമ്പത്ത	-9.86874
▁നിലനിര്‍ത്ത	-9.8694
▁ഡയറക്ടര്‍	-9.8694
▁അതിജീവിത	-9.86947
▁ലക്ഷ്യമിട്ട	-9.86952
രംഗത്ത	-9.86982
കേന്ദ്ര	-9.86999
▁ഇതെല്ലാം	-9.86999
▁എൽഡിഎഫ്	-9.8701
▁വീട്ടിലേക്ക്	-9.87035
വര്‍ക്കും	-9.87054
യായിരിക്കും	-9.87088
▁എപ്പോഴും	-9.87114
▁പാസ്	-9.8715
▁രാഷ്ട്ര	-9.87198
ാഴ്ച്ച	-9.87217
13	-9.87248
▁ധാ	-9.87274
പൊ	-9.87332
▁ചിലർ	-9.87367
▁വരെയാണ്	-9.87383
▁ഡാ	-9.87395
ഴുത	-9.87411
▁എട	-9.87422
ിട്ടു	-9.87451
▁റെയില്‍വേ	-9.87509
▁സഹോദരി	-9.87528
▁എയർ	-9.87548
വുമില്ല	-9.87591
▁മാനേജ്	-9.87692
▁വീതവും	-9.87767
▁കുവൈത്ത	-9.87779
▁നൗ	-9.87808
▁പരിഷ്	-9.87861
▁വിഭാഗങ്ങള	-9.87904
▁സമീപം	-9.87967
വാന	-9.87978
▁എറണാകുളത്ത	-9.88043
▁ഇക്കുറി	-9.88044
▁തീരുമാനിച്ചു	-9.88045
മര	-9.88046
▁മീന	-9.88049
▁തകര്‍ക്ക	-9.88089
89	-9.88104
▁ക്ലാസ	-9.88198
▁കാലയളവ	-9.882
▁റിസ	-9.88204
▁വീടുകള	-9.8821
▁നയിച്ച	-9.8822
▁ചേർന്ന്	-9.88237
▁ദൂര	-9.88273
-1	-9.88315
▁ഹരിയാന	-9.88321
▁സതീശന്‍	-9.88322
▁ദുരിത	-9.88353
▁ആണെന്ന്	-9.88398
▁ക്കു	-9.88431
ദേശ	-9.88431
▁രാശിക്കാര	-9.88437
▁ചെയ്യുകയും	-9.88462
▁മുന്‍പ	-9.88468
യിലായിരുന്നു	-9.88483
▁ലോകത്തെ	-9.88516
▁കുറവ്	-9.88551
കളുടെയും	-9.88597
▁സംഘർഷ	-9.886
ൻസി	-9.88638
ിക്കാനുള്ള	-9.88681
നായിരുന്നു	-9.88744
▁പ്രതിയെ	-9.88749
▁അറ	-9.88825
▁പോളി	-9.88841
ുകയായിരുന്ന	-9.88851
▁ഉണ്ണി	-9.88872
▁സൂക്ഷിക്ക	-9.8888
▁സുധ	-9.8895
▁ഇവരില്‍	-9.88965
▁നാം	-9.88989
▁പരാജയപ്പെടുത്ത	-9.88995
ങ്ങൾക്കും	-9.89024
എന്ന	-9.89042
▁മൂല്യ	-9.89055
ിച്ചിരുന്നു	-9.89089
▁വാക്സിന	-9.89136
▁ഭർത്താവ	-9.89159
▁മുഖേന	-9.89162
▁മണിപ്പൂര	-9.89179
▁സ്വാധീനം	-9.89203
ഫീ	-9.89231
സിനെ	-9.89271
▁ജാമ്യ	-9.89303
▁മണ്ഡലത്തിലെ	-9.89315
▁ഇറങ്ങി	-9.89317
▁യുകെ	-9.89364
▁യോ	-9.89387
ായാലും	-9.8944
യാണിത്	-9.8945
▁രവി	-9.89479
▁തുടർന്ന	-9.89584
▁പേടി	-9.89587
▁പാർട്ടിയുടെ	-9.89596
▁വയസ്സുള്ള	-9.89634
▁പരിഗണന	-9.89636
▁ആരംഭിച്ചത്	-9.89672
▁ഇല	-9.89683
▁ജനകീയ	-9.89722
രുവ	-9.89724
▁ബിജെപിയും	-9.89852
▁ബോട്ട	-9.89908
ില്ലാതെ	-9.89973
പ്രതി	-9.89997
▁സംഭാവന	-9.90004
▁എതിര്‍പ്പ	-9.9001
▁മാപ്പ്	-9.90025
▁ചേർത്ത	-9.90031
▁വേഗത	-9.90123
യാകും	-9.9014
▁നിങ്ങൾക്ക്	-9.9014
▁കാണാന	-9.90172
ങ്ങളായ	-9.90283
വിഭാഗ	-9.90302
▁തീവ്രവാദ	-9.90327
മണി	-9.90339
▁കെകെ	-9.9034
▁എന്തിനാണ്	-9.90349
▁പോലീസിന്	-9.9037
▁വാഴ	-9.90375
ഹാര	-9.90376
▁ഓള	-9.90399
ക്കാരുടെ	-9.90468
▁ശതമാനവും	-9.90473
വാര്‍	-9.90489
▁ശാസ്ത്ര	-9.90522
▁മണ	-9.90541
▁സര്‍ക്കാരിനെ	-9.90565
▁മണിക്കുട്ടന	-9.90572
▁ബഹു	-9.90573
ക്കൂ	-9.90638
▁ഇല്ലാതെ	-9.90666
ബൈ	-9.907
▁അരി	-9.90731
▁യുവാവ	-9.90746
ത്തെയും	-9.90774
ക്കൾ	-9.90825
▁ഇടതുമുന്നണി	-9.90856
▁റിപ്പോർട്ടുകൾ	-9.90942
ർമ്മ	-9.90951
05	-9.91053
ല്ലെന്നും	-9.91079
ധാന	-9.91109
▁സഹിതം	-9.91144
▁ഡിസിസി	-9.91144
ക്കൽ	-9.91151
▁അതിർത്തി	-9.91157
ബല	-9.91178
▁എളുപ്പ	-9.91203
ബോധ	-9.91267
▁കൊള്ള	-9.91271
▁രോഗബാധ	-9.91283
ക്കുകയാണ്	-9.91291
സംഘ	-9.91324
ൻ്റെ	-9.91389
രേഖ	-9.91436
▁നിർബന്ധ	-9.91438
▁ഐടി	-9.91472
▁പട്ട	-9.91488
▁സ്വർണ്ണ	-9.91498
▁വിഭാഗത്തില്‍	-9.91531
▁നൽകാൻ	-9.91534
▁ശനി	-9.9168
▁ന്നു	-9.917
യാക്കി	-9.91727
▁ഷൂട്ട	-9.91747
▁ജീവനക്കാര്‍	-9.91748
▁ചൂട	-9.9177
▁വാര്‍ത്തകള്‍	-9.9178
ശാ	-9.91781
റുടെ	-9.91806
െത്തുന്ന	-9.91821
ക്കുറിച്ച	-9.91823
▁തള്ള	-9.91827
▁പ്രവർത്തക	-9.91828
▁പോരാട്ടം	-9.91843
▁ദിലീപ	-9.91854
▁0	-9.91856
▁എന്നിവരും	-9.91859
▁കരാറ	-9.91878
▁കാലത്ത	-9.91881
സ്റ്റി	-9.91899
▁പുരസ്	-9.91933
▁പ്രതിഫല	-9.91937
▁കപ്പല	-9.91947
▁ഇരുന്ന	-9.91968
ദിന	-9.91985
▁തുടരും	-9.92001
▁വിദ്യാർത്ഥി	-9.92002
▁നടത്താന	-9.92175
▁ആശ്വാസ	-9.92177
▁പ്രവേശന	-9.92178
കരണ	-9.92234
▁കേരളത്തിന്	-9.92241
▁ലക്ഷ്മി	-9.9225
▁ഇടം	-9.9228
▁നമ്പറ	-9.92292
▁അപ്പോള്‍	-9.923
▁തട്ടിപ്പ്	-9.92338
▁കുട്ടികളെ	-9.9235
▁സൂ	-9.92366
ാതി	-9.92367
രുതെന്നും	-9.92393
മംഗലം	-9.92487
ിറങ്ങിയ	-9.92494
▁നാട്ടുകാര്‍	-9.92498
ൊപ്പം	-9.92533
▁മാനദണ്ഡ	-9.92593
▁ഉപയോഗ	-9.92608
വെന്നും	-9.92611
▁സ്വഭാവ	-9.92626
▁തയ്യാറാക	-9.92687
▁കൊല	-9.92703
81	-9.9272
വാല	-9.92762
▁നാഗ	-9.928
▁അബുദാബി	-9.92874
▁സംയുക്ത	-9.92874
▁അതീവ	-9.92877
▁പാറ	-9.92925
▁ത്ര	-9.92987
തായാണ്	-9.92992
▁സിനേഷന്‍	-9.9301
45	-9.93028
▁പോകാന്‍	-9.93112
▁ആയിരിക്കും	-9.93112
▁യഥാര്‍ത്ഥ	-9.93165
▁ആവേശ	-9.93177
▁തകര്‍ത്ത	-9.93177
▁ഖാന	-9.93234
▁മോഡല	-9.93242
▁47	-9.93292
▁രക്ഷപ്പെട	-9.93301
ത്രെ	-9.93321
▁പോലീസിന്റെ	-9.93324
ട്ടം	-9.93335
▁സുഖ	-9.93341
േജ	-9.93349
▁കൊലപ്പെടുത്തിയ	-9.93463
▁പ്രളയ	-9.93468
▁എംപിമാര	-9.93469
▁സൗകര്യം	-9.9348
▁കത്തി	-9.93522
▁ഫീ	-9.93544
കൊണ്ട്	-9.93609
▁ഫോര്‍	-9.93619
തുട	-9.93629
▁കോൺ	-9.93673
മൊരു	-9.93688
▁കോര്‍പ്പറേഷന്‍	-9.93696
ങ്ങാട്	-9.93721
▁രാജ്യങ്ങള്‍	-9.93739
വകുപ്പ	-9.93755
പ്പുറ	-9.93826
▁ചെയ്യണമെന്ന	-9.93839
▁നങ്ങള	-9.93858
▁പമ്പ	-9.9388
ോൺ	-9.9391
▁മത്സരിപ്പിക്ക	-9.93941
▁നാരായണ	-9.9398
▁പ്രശ്നങ്ങള	-9.93986
▁മിഥുന	-9.94046
▁ബാലകൃഷ്ണ	-9.94062
യറ്റ	-9.94101
▁നിർദേശ	-9.94119
▁അനുകൂലമായ	-9.94123
▁പഠനം	-9.9415
▁രാജ്യങ്ങളില്‍	-9.94158
▁തുടര്‍	-9.94161
▁കുട്ടികള്‍	-9.94222
ിക്കല്‍	-9.94228
▁എന്നൊക്കെ	-9.94243
▁ശ്രമിക്കുന്നത്	-9.94297
▁വോട്ടെടുപ്പ്	-9.94304
▁നിയമിച്ച	-9.94318
▁കച്ചവട	-9.9434
▁പടിഞ്ഞാറ	-9.9434
▁ങ്ങ	-9.94433
▁കുത്ത	-9.94456
▁ഇളവ്	-9.9447
▁ശരിക്കും	-9.94473
▁പ്രിയ	-9.94473
▁കിലോമീറ്റര്‍	-9.94483
▁ഇള	-9.94498
16	-9.94537
▁ഗുജറാത്ത	-9.94547
▁കാർ	-9.94558
▁നിര്‍ദ്ദേശം	-9.94603
▁ദുരിതാശ്വാസ	-9.94636
▁ഡൗണ്‍	-9.94636
▁പുസ്തക	-9.94636
▁പക്ഷത്ത	-9.94646
ബർ	-9.94674
▁എന്തുകൊണ്ട്	-9.94677
▁കായിക	-9.94753
▁ആൻഡ്	-9.94767
▁വേള	-9.94794
▁സുരേഷ	-9.94839
▁ടെലി	-9.94848
86	-9.94871
ുണ്ടെങ്കിലും	-9.94885
▁ഹാജരാക്ക	-9.94886
യിന്‍	-9.94902
ാരോഗ്യ	-9.94915
ക്കാനുള്ള	-9.94915
▁സുപ്രധാന	-9.94933
▁സീനിയര്‍	-9.94933
▁ഓഗസ്റ്റ്	-9.94947
▁ഈടാക്ക	-9.95022
ഗു	-9.95035
▁നേട്ടങ്ങള്‍	-9.95041
പന	-9.95088
▁ശരിയായ	-9.95118
▁അഖില	-9.95145
▁നൂറ	-9.95182
▁വ്യക്തിപരമായ	-9.95216
S	-9.95231
▁തമ്മിൽ	-9.95232
▁ഗുണ്ട	-9.95335
വാക്	-9.95376
▁പ്ലസ്	-9.95407
യുടേത	-9.95453
▁സ്വദേശികളായ	-9.95455
ൈസ	-9.95495
▁രാഹുലിന്റെ	-9.95498
▁ഐസി	-9.95502
▁ഡിസംബര്‍	-9.95529
▁വൈകീട്ട്	-9.95529
▁സത്യപ്രതിജ്ഞ	-9.95529
▁പഠിച്ച	-9.95531
▁എഴുതി	-9.95561
▁രമ	-9.95582
▁ഖാന്‍	-9.95585
▁ഉണ്ടായിരിക്ക	-9.95594
▁തിരിച്ചെത്ത	-9.95665
7,	-9.95668
▁സാധാരണക്കാര	-9.95676
▁ഓട	-9.95679
▁അശോക്	-9.95698
▁നെഗറ്റീവ്	-9.95757
▁എന്നിങ്ങനെയാണ്	-9.95769
▁കിട	-9.95771
87	-9.9578
▁താത്പര്യ	-9.95828
▁ആഗസ്റ്റ്	-9.95829
▁സേവനം	-9.95877
▁കോൺഗ്രസിന്റെ	-9.9599
35	-9.96025
▁അതൃപ്തി	-9.96065
▁വീട്ടുകാര	-9.96091
▁വോട്ടുകൾ	-9.96119
▁വിമർശനം	-9.96137
▁46	-9.96164
▁പിടിച്ച്	-9.96232
▁രക്ഷിക്ക	-9.9626
▁നടക്കുക	-9.96265
▁ഹോട്ട്	-9.9627
യെന്നാണ്	-9.96325
▁തനി	-9.96398
▁അടുപ്പ	-9.964
▁സംരംഭ	-9.9643
▁ഇരട്ട	-9.96436
▁മഞ്ജു	-9.96451
സൈ	-9.96458
▁ഭരണകൂടം	-9.9649
77	-9.96496
▁ഫണ്ട്	-9.96505
ത്തിലൂടെയാണ്	-9.96517
▁ഒമ്പത്	-9.96521
ിറങ്ങ	-9.96569
▁തിരഞ്ഞെടുത്ത	-9.96587
▁കുറ്റം	-9.96599
▁രാജ്യസഭാ	-9.96631
▁65	-9.96636
▁വിശ്വസിക്ക	-9.96672
ിലൂടെയാണ്	-9.96703
രിഞ്ഞ	-9.96716
▁ഉള്‍പ്പടെ	-9.96732
▁പ്രചരിപ്പിക്ക	-9.96732
▁നിലവിലുള്ള	-9.96732
▁കാണാതായ	-9.9675
▁അശ്വ	-9.9678
ിലേക്കാണ്	-9.96796
▁മറ്റും	-9.96806
▁പ്രശാന്ത്	-9.96818
ിട്ടില്ലെന്ന്	-9.96825
▁മരുന്ന്	-9.96872
▁ഇതിന	-9.96876
നെതിരെ	-9.96881
▁ഇടപെടല	-9.96883
▁പുറത്തിറങ്ങ	-9.96886
വന്ന	-9.96902
▁ലിസ്റ്റ	-9.96925
▁മാള	-9.96959
▁യുക്രൈന	-9.96959
▁ചർച്ചകൾ	-9.96966
ഢ	-9.97035
▁സമർപ്പിച്ച	-9.97035
▁ഡോളര്‍	-9.97036
▁മുഖം	-9.97045
▁പറ്റിയ	-9.97058
▁ആരംഭിച്ചു	-9.9706
▁പോളിംഗ്	-9.97067
▁പിതാവ	-9.97069
ഗതി	-9.97074
േശ്വര	-9.97076
88	-9.97083
07	-9.97096
യിലെത്തി	-9.97107
▁മലയാളം	-9.97133
▁500	-9.97151
ിരുന്നുവെന്നും	-9.97159
▁മുകേഷ്	-9.97199
▁റിയാസ്	-9.97286
▁ഇന്ധന	-9.97329
ുടേ	-9.97331
േഴ്സ്	-9.97377
▁വിദ്യാർത്ഥികൾ	-9.97507
▁ബന്ധപ്പെട	-9.97538
▁പരിശീലനം	-9.97599
തിനാലാണ്	-9.97623
▁പാട്ട	-9.97678
▁ടെസ്റ്റ	-9.97704
▁ആള്‍	-9.97711
▁കോണ്‍	-9.97814
▁കാണാൻ	-9.97824
▁കാലാവസ്ഥാ	-9.97839
▁52	-9.97852
പേര	-9.97886
വേഷ	-9.97897
▁ക്കാ	-9.97911
▁ഗെയിം	-9.9795
▁നിർണായക	-9.9795
▁അഫ്ഗാന	-9.9795
▁പുറപ്പെടുവിച്ച	-9.9795
▁സൈന്യത്ത	-9.9795
▁താരങ്ങള	-9.97956
▁ഖത്തറ	-9.97967
ഗ്ഗ	-9.97972
ിനോട	-9.98027
▁നും	-9.98057
▁താലൂക്ക്	-9.98103
ുറപ്പ	-9.98109
79	-9.98128
രണ	-9.98148
▁ഭരണകൂട	-9.98216
▁സന്ദര്‍ശിച്ച	-9.98256
▁കർശന	-9.98256
െക്കുറിച്ച്	-9.98326
▁വാർ	-9.9834
▁ബന്ധുക്കള	-9.98352
▁എകെ	-9.9837
▁കിറ്റ	-9.98392
▁സീറ്റുകളില്‍	-9.98395
h	-9.98415
▁അംഗീകാരം	-9.9842
▁നാലാം	-9.98421
▁വിലക്ക	-9.98496
▁കോലി	-9.98499
▁പൂർത്തിയാക്ക	-9.9851
ുമ്പോഴാണ്	-9.98513
14	-9.9854
▁വക്താവ്	-9.98564
▁പ്രശസ്ത	-9.98564
▁നിശ്ചയിച്ച	-9.98566
▁കണക്കുകള്‍	-9.9857
▁കോടതിയുടെ	-9.98597
▁വര്‍ക്ക	-9.98657
▁സോണ	-9.98675
▁ഒറ്റപ്പെട്ട	-9.98675
▁മുരളീധര	-9.98696
▁നിന്നെത്തിയ	-9.98745
▁സഹായിച്ച	-9.98814
നട	-9.98819
തുമായ	-9.98836
▁51	-9.98841
കാലത്ത്	-9.98843
▁പിടിയിലായ	-9.98868
▁ശൈലജ	-9.98873
▁മഹാമാരി	-9.98874
ധികം	-9.98878
▁അഭിഭാഷക	-9.98885
▁പോരാട	-9.98915
▁ബൂത്ത	-9.98924
▁വിശ്വസിക്കുന്ന	-9.98943
▁പ്രത്യേകത	-9.98962
▁വാടക	-9.99041
ക്കാന	-9.99043
▁അധ്യക്ഷന	-9.99076
▁പ്രദേശത്ത്	-9.991
വൽ	-9.99119
റായി	-9.9912
▁49	-9.99172
▁വീടുകളില്‍	-9.99189
▁പ്രവാസികള	-9.99197
ത്തെക്കുറിച്ച്	-9.99245
▁പൈ	-9.9925
▁നടത്താൻ	-9.99267
▁ഇടതു	-9.99285
ക്കിടയില്‍	-9.99291
ക്കര്‍	-9.99325
▁സീസണ	-9.99335
▁മഞ്ഞ	-9.99367
▁മുസ്	-9.99369
▁ആവശ്യമാണ്	-9.99442
▁പൂര	-9.99454
▁കുട്ടിയെ	-9.99475
▁കമ്മീഷൻ	-9.99493
▁കുടിയേറ്റ	-9.99493
▁ദൈവ	-9.99495
▁സൈബര്‍	-9.9951
▁സ്വാധീന	-9.99532
കെട്ട	-9.99544
▁ആരോഗ്യമന്ത്രി	-9.99556
▁മുകളില്‍	-9.99562
▁ചെയ്യണം	-9.99579
▁നിർദേശം	-9.99596
▁അബ്ദു	-9.99603
▁പറയാൻ	-9.9961
ക്കൊപ്പമ	-9.99616
▁യാത്രാ	-9.99634
▁പോസിറ്റീവ്	-9.99652
ുന്നതായി	-9.99659
▁ഉച്ച	-9.99663
▁4,	-9.99671
▁രാജ്യങ്ങള	-9.99679
▁ലഭിക്കുക	-9.99749
▁അതുകൊണ്ടാണ്	-9.99824
▁രജ	-9.99868
▁ലാബ	-9.99879
▁ആരാണ്	-9.99907
▁ഭവന	-9.9991
മുക്ത	-9.9993
ലിന്	-9.99939
56	-10.0005
▁എത്തിയിരുന്നു	-10.0005
▁കേന്ദ്രസർക്കാർ	-10.0012
▁പികെ	-10.0012
മാറ	-10.0015
▁കഴിയാത്ത	-10.0017
▁ഇതൊക്കെ	-10.0018
▁എല്ലാവര്‍ക്കും	-10.002
▁ഒരാളെ	-10.0022
▁ഉണ്ടായിരുന്നത്	-10.0023
റ്ററ	-10.0026
▁കുറഞ്ഞത്	-10.0028
▁അൽ	-10.0029
▁തട്ടി	-10.0031
ധര	-10.0041
ികളെ	-10.0041
▁അക്കാദമി	-10.0043
▁പീഡിപ്പിച്ച	-10.0043
▁കല്യാണ	-10.0043
▁ഇറാന്‍	-10.0044
▁സംഗീത	-10.0045
▁സ്വര്‍ണവില	-10.0045
ാവുന്നതാണ്	-10.0047
സംസ്ഥാന	-10.0049
▁ഇത്തവണയും	-10.0054
▁പൊളിച്ച	-10.0056
കൊടുത്ത	-10.006
18	-10.0061
▁കമ്മീഷന	-10.0064
▁ബേ	-10.0069
▁ഗെലോട്ട	-10.0074
▁പരിഹസിച്ച	-10.0074
▁ആനുകൂല്യ	-10.0074
▁ഉളള	-10.0075
▁ഇതിനോടകം	-10.0075
▁വർഷത്തെ	-10.0075
▁നടപടിയെടുക്ക	-10.0075
▁ബിരുദ	-10.008
ുകളിലെ	-10.008
▁പ്രവർത്തിച്ച	-10.0082
ോപ	-10.0095
▁അപേക്ഷിക്ക	-10.0103
തേ	-10.0104
▁ഉറവിടം	-10.0106
▁ബാനര്‍ജി	-10.0106
▁സൂക്ഷിച്ച	-10.0106
▁ഭീതി	-10.0106
▁റൈ	-10.011
▁ഡോക്ടറ	-10.011
▁ലീഡ്	-10.0117
ഭാഗ	-10.0117
▁ദിവസങ്ങളില	-10.0119
▁ഉയർത്തി	-10.0128
▁ഫണ്ട	-10.0128
▁ഇതുമായി	-10.0129
▁മരിക്ക	-10.013
▁കാര്യത്തിൽ	-10.0134
▁ജില്ലകളിലും	-10.0141
▁ചോദ്യത്തിന്	-10.0143
▁ട്രംപ	-10.0148
▁സാമ	-10.0158
▁ശക്തിപ്പെടുത്ത	-10.0161
▁ഉത്തരവാദിത്ത	-10.0164
▁നു	-10.0168
R	-10.0169
▁മനുഷ്യര	-10.0176
▁ന്യായ	-10.0178
ിലുണ്ടായിരുന്ന	-10.0178
▁ചിന്തിക്ക	-10.0183
ൊഴി	-10.0197
▁ആളാണ്	-10.0197
ാവകാശ	-10.0199
▁ദിവസമാണ്	-10.02
▁കഴിയുന്നത്	-10.0203
▁രോഗബാധിതര	-10.0207
ത്തിനാണ്	-10.0208
▁ലഖ്	-10.0212
▁തിരിച്ചുവര	-10.0215
▁പ്രസ്ഥാന	-10.0219
▁നേതാവാണ്	-10.0221
▁ലോകം	-10.0222
▁അവസാനിച്ച	-10.0224
ദാന	-10.0224
ിലേറെ	-10.0224
99	-10.0224
▁പരിശോധനാ	-10.0226
▁വയ്ക്ക	-10.0232
▁അതിവേഗ	-10.0233
▁ദൗത്യ	-10.0233
▁ലംഘന	-10.0233
▁രാജേഷ്	-10.0233
▁വിവാദമായ	-10.0235
▁ഉണ്ടെന്ന്	-10.0235
▁ചോദിക്കുന്നു	-10.0235
▁ചുമത്തിയ	-10.0249
യാക്കിയ	-10.0254
▁പ്രധാനമായ	-10.0255
▁വന്നിട്ടുണ്ട്	-10.0257
▁ഉത്തര	-10.0268
▁സിവില്‍	-10.0268
▁അധ	-10.027
▁അപേക്ഷിക്കാം	-10.0273
യോടെയാണ്	-10.0282
▁കുറിച്ചുള്ള	-10.029
▁ഉണ്ടാവും	-10.0293
▁ലോകത്ത്	-10.0296
▁ഉദ്യോഗാര്‍ത്ഥി	-10.0297
▁ഡയറക്ടറ	-10.0297
▁മണിക്കൂറിനിടെ	-10.0299
▁സമ്മതിച്ച	-10.0304
▁അടിസ്ഥാനത്തിലാണ	-10.0307
68	-10.031
പാദ	-10.031
▁ചടങ്ങില്‍	-10.0312
▁പനി	-10.0313
▁പ്രശ്നം	-10.0316
▁ന്യൂസ	-10.0317
▁ആദര	-10.0317
▁ഉമ്മ	-10.032
▁ശേഖരിച്ച	-10.0323
യില്ലാത്ത	-10.033
▁സമീപത്ത	-10.033
ിലുണ്ട്	-10.0335
▁സത്യം	-10.0335
▁ഹോം	-10.0337
▁തടഞ്ഞ	-10.0339
▁ദേശ	-10.034
▁നിഷേധിച്ച	-10.0342
▁പ്രചരണം	-10.0343
▁പൈസ	-10.0344
ിയാല്‍	-10.035
ീറ്റ	-10.035
▁കൗണ്‍സില	-10.0351
▁തരത്തില	-10.0354
▁കുട്ടികളുടെ	-10.0357
▁എന്തു	-10.0359
▁തോല്‍വി	-10.0362
▁നിയോഗിച്ച	-10.0362
▁ചികിത്സയില്‍	-10.0366
▁ഡിവിഷന	-10.0367
▁അട്ടിമറി	-10.0379
റുകള്‍	-10.0386
▁ഓഫീസില്‍	-10.0388
▁സമാന	-10.0388
▁കുറിച്ചും	-10.0389
▁അടിസ്ഥാനത്തിൽ	-10.0389
▁ദില്ലിയില്‍	-10.0393
▁ഇത്തരത്തിൽ	-10.0395
▁സര്‍ക്കാറ	-10.0395
▁രജിസ്റ്റർ	-10.0395
▁അധികാരത്തിലെത്ത	-10.0396
ിന്റേയും	-10.0401
▁കിടക്കുന്ന	-10.0404
യിലേക്കുള്ള	-10.041
▁സർവീസ്	-10.0411
ിട്ടാണ്	-10.0412
▁54	-10.0418
▁ചെലവ്	-10.0426
▁രക്ഷപ്പെട്ട	-10.0427
▁അടക്കമുളള	-10.0427
▁മാത്യു	-10.0429
▁സമ്മേളനം	-10.0429
▁മെട്രോ	-10.0432
08	-10.0433
▁എത്രയും	-10.0437
ുണ്ടെന്നാണ്	-10.0441
▁എന്തിന	-10.0447
▁കാര്യങ്ങളും	-10.0448
▁ഇദ്ദേഹ	-10.0449
▁സന്ദേശം	-10.0449
▁കഴിയില്ല	-10.045
▁രാജസ്ഥാന്‍	-10.0453
▁കോണ്‍ഗ്രസിന	-10.0454
▁ശര	-10.0459
▁ഖത്തര്‍	-10.046
▁ഉറപ്പാണ്	-10.046
മാത്ര	-10.0461
▁സന്തോഷം	-10.0462
കളിലൂടെ	-10.0469
6,	-10.047
ിക്കേണ്ട	-10.0479
▁ദിനം	-10.0484
▁എങ്ങനെയാണ്	-10.0494
▁ക്രൈംബ്രാഞ്ച്	-10.0494
പരമായി	-10.0497
▁ജീവന്‍	-10.0498
▁പ്രിയപ്പെട്ട	-10.0499
▁പ്രോ	-10.0501
▁പഞ്ചായത്തിലെ	-10.0503
▁ഉച്ചയ്ക്ക്	-10.0503
▁നല്‍കണമെന്ന	-10.0509
▁കുറച്ച	-10.0516
▁മിശ്ര	-10.0525
ുകയാണെങ്കില്‍	-10.0526
ഖാ	-10.0531
▁ചരിത്രം	-10.0534
▁പ്രായം	-10.0536
ത്തോടെയാണ്	-10.0537
മായിരുന്ന	-10.0539
▁ഇന്ത്യാ	-10.0542
▁വ്യാപന	-10.0544
▁പ്രത്യേകിച്ച്	-10.0547
▁ഇക്കാര്യ	-10.0548
9,	-10.0548
▁ജ്യോതിഷ	-10.0548
ഗി	-10.0549
▁താല്‍പര്യ	-10.0552
▁ബംഗാള്‍	-10.0553
▁പ്രമേയം	-10.0555
▁ദേവസ്വം	-10.0558
▁യെല്ലോ	-10.0559
▁കളക്ടർ	-10.0559
▁ഇയാളുടെ	-10.0562
ാകുന്ന	-10.0562
▁കുറവാണ്	-10.0564
▁പ്രശ്നങ്ങൾ	-10.0565
▁ഉദ്യോഗസ്ഥ	-10.0566
▁ഉദ്യോഗസ്ഥരെ	-10.0571
▁നീട്ടി	-10.0574
▁അംഗങ്ങള്‍	-10.0575
▁സാമ്പിളുകളാണ്	-10.0576
▁ആശംസ	-10.0576
▁രാഹുല	-10.0578
ഡിയ	-10.0579
▁പൊളി	-10.0581
▁ക്കെതിരെ	-10.0583
▁കിടന്ന	-10.0584
▁കാണിക്കുന്ന	-10.0587
y	-10.0592
▁ഉദ്	-10.0597
▁യാദവ	-10.0598
▁ജനങ്ങള്‍ക്ക്	-10.0601
▁നിയമസഭയില്‍	-10.0601
ഹിത	-10.0603
▁ഹരി	-10.0608
പ്റ്റ	-10.061
കാരനായ	-10.0623
▁കാസര്‍കോട്	-10.0625
▁തെളിഞ്ഞ	-10.0625
▁നിരാശ	-10.0625
▁മിക്ക	-10.0627
▁ചിത്രങ്ങള	-10.0629
▁വിജയിച്ചത്	-10.0632
▁മാധ്യമങ്ങളോട്	-10.0635
സഭ	-10.0637
ക്കുന്നു	-10.0637
▁വസ്തുത	-10.0646
▁കണക്കുകൾ	-10.0646
േണ്ടതില്ല	-10.065
▁ഗണ	-10.065
▁വേളയില്‍	-10.0652
െടുത്തു	-10.0654
▁മറികടക്ക	-10.0658
▁പരസ്പരം	-10.0659
ദര്‍	-10.0666
▁നടത്തുകയും	-10.0667
ുന്നതിനു	-10.0672
▁കോര്‍	-10.0685
ിലായി	-10.0686
▁കാറ്റ	-10.0689
▁മാതാപിതാക്കള	-10.0692
▁വിദ്വേഷ	-10.0692
▁സമർപ്പിക്ക	-10.0692
▁ഇപ്പോഴിതാ	-10.0692
32	-10.0696
▁ഭര്‍ത്താവ	-10.0697
▁നഴ്	-10.07
▁രോഗി	-10.07
▁ഉത്തരവിട്ട	-10.0702
▁എംഎല്‍എമാര്‍	-10.0707
▁രാം	-10.0717
▁കോളജ	-10.0719
▁പിയുടെ	-10.0719
▁സാധിക്കുന്ന	-10.072
▁ഓഫീസർ	-10.0722
▁കണ്ടെത്താന്‍	-10.0722
▁സാഹചര്യമ	-10.0724
▁സഞ്ചരിക്ക	-10.0725
▁ക്യൂ	-10.0726
▁പരിഹാര	-10.073
▁തുല്യ	-10.0731
C	-10.0733
ക്ഷന്‍	-10.0734
ശേഷം	-10.0735
▁ശതമാനമാണ്	-10.0739
▁ഇട്ട	-10.074
▁ഒഴിവാക്കിയ	-10.0743
▁ജോണ്‍	-10.0751
▁പൈലറ്റ്	-10.0753
ബ്ബ	-10.0754
▁വാർത്താ	-10.0754
ാംഗ	-10.0757
▁കണ്‍ട്രോള്‍	-10.0759
▁മാലിന്യ	-10.0759
▁അദാനി	-10.0759
▁സൂരജ	-10.076
▁ഉപരോധ	-10.076
▁പഞ്ചാബ	-10.0763
▁മികവ	-10.0765
േക്കാൾ	-10.0766
ന്‍ഡ്	-10.0768
▁പൗര	-10.0772
11	-10.0779
▁ആര്	-10.0784
െന്നുമാണ്	-10.0786
മുണ്ടായിരുന്നു	-10.0787
▁അധിക്ഷേപ	-10.0793
▁ശരാശരി	-10.0793
▁പുലര്‍ത്ത	-10.0793
▁മൃഗ	-10.0793
▁ഒന്നര	-10.0795
ുള്ളൂ	-10.0801
ാവശ്യപ്പെട്ട	-10.0802
▁ലാല	-10.0802
▁കുട്ടിയുടെ	-10.0804
▁ഇരുപത	-10.0806
ത്തിനെ	-10.081
▁വിദ്യാര്‍ഥി	-10.0816
▁വെളിപ്പെടുത്തല	-10.082
▁വാര്‍ത്താ	-10.0822
▁ഭാഗം	-10.0822
ക്കാര്‍ക്ക്	-10.0823
▁ഏപ്രിൽ	-10.0827
▁നിരീക്ഷണത്തില്‍	-10.0827
▁പുതുപ്പള്ളി	-10.0828
▁രാജേന്ദ്ര	-10.083
▁നിലവാര	-10.0832
▁സ്റ്റേറ്റ്	-10.0834
▁നിലനില്‍ക്കുന്ന	-10.0835
93	-10.084
ുമോയെന്ന	-10.0843
▁രംഗ	-10.0847
ത്തുള്ള	-10.0853
▁വ്യാപകമായി	-10.0857
വാള	-10.086
T	-10.086
▁വകഭേദ	-10.0861
▁റെയ്ഡ	-10.0862
▁പ്രമേയ	-10.0865
ക്കാനാണ്	-10.0867
▁നെഗറ്റീവ	-10.0869
▁നിര്‍ദ്ദേശ	-10.0869
▁വന്നാല്‍	-10.0875
▁ആര്‍ക്കും	-10.0882
ിനിടെ	-10.0884
▁പൊതുജന	-10.0886
സണ്‍	-10.0888
▁ഉള്‍പ്പെടുന്ന	-10.0895
▁അനധികൃത	-10.0895
▁ഗണേഷ്	-10.0896
▁ഡീസല	-10.0897
▁സഹകരിക്ക	-10.0897
▁2015	-10.09
▁പുതുക്ക	-10.0912
▁സർക്കാരിന്	-10.0913
ാതിരിക്ക	-10.0914
▁അഴി	-10.0916
ിട്ടുണ്ടോ	-10.0918
▁മാര്‍	-10.0924
▁വളര്‍ച്ച	-10.093
▁ഇതിനകം	-10.093
▁ഒന്നു	-10.0931
▁തലശേരി	-10.0932
▁അപേക്ഷിച്ച	-10.0939
▁വ്യക്തിയാണ്	-10.094
രക്ഷ	-10.0943
▁അതിനു	-10.0949
▁നൽകിയിട്ടുണ്ട്	-10.0952
േയാണ്	-10.0957
▁വെളിപ്പെടുത്തിയ	-10.096
▁പ്രതിയായ	-10.0963
▁ഉപേക്ഷിച്ച	-10.0963
▁കാസർഗോഡ്	-10.0963
▁നവംബര്‍	-10.0963
▁വേഗം	-10.0964
▁അനാവശ്യ	-10.0965
▁മുഴ	-10.0968
▁പരിശീലന	-10.0968
▁മാറും	-10.0971
▁ചീ	-10.0973
ക്കാർക്ക്	-10.0973
മുണ്ടായത്	-10.0975
ക്കുറിച്ചുള്ള	-10.0978
▁വാങ്ങുന്ന	-10.0978
▁ഉറപ്പിച്ച	-10.098
ാറില്ല	-10.0994
ക്കുമ	-10.1004
▁അറിവ	-10.1008
▁ഡ്രൈവ	-10.1017
▁ഇന്ത്യയെ	-10.1017
▁നല്‍കുക	-10.1021
കുട്ടി	-10.1022
മാണെന്ന	-10.1028
കളിലെ	-10.1048
▁സമയത്ത	-10.105
▁സമീപിക്ക	-10.1055
▁ബദ	-10.1056
ുകൊണ്ടാണ്	-10.1059
▁താലിബാന്‍	-10.106
കളായി	-10.106
▁പുര	-10.1063
▁കേസുകളാണ്	-10.1063
▁ആവശ്യപ്പെട്ടത്	-10.1067
▁അധ്യക്ഷത	-10.1067
▁വര്‍ഗീയ	-10.1067
▁ദളിത്	-10.1067
▁ബിഎസ്പി	-10.1067
▁അഖിൽ	-10.1067
ാക്രമണ	-10.107
▁സുധാകരൻ	-10.1072
▁പ്രായമുള്ള	-10.1074
▁ദൃശ്യ	-10.1078
▁കോളേജില്‍	-10.1085
ൂരിലെ	-10.1093
ങ്ങളെയും	-10.1093
▁മസ്	-10.1096
▁വലിച്ച	-10.11
▁നേരിയ	-10.1101
▁യഥാർത്ഥ	-10.1102
▁വരുത്തിയ	-10.1103
▁പ്രേക്ഷകര	-10.1111
▁പ്രയാസ	-10.1112
ചര	-10.1112
ധാര	-10.1118
▁പരിപാടിയില്‍	-10.1118
▁ഹാള	-10.1129
▁ഷീ	-10.113
▁ചിരി	-10.113
-20	-10.1134
▁വിമർശിച്ച	-10.1137
▁കിരീട	-10.1137
ബറ	-10.1139
▁ഉന്നയിക്ക	-10.1141
47	-10.1141
▁ജീവിതത്തിൽ	-10.1145
ചിത്ര	-10.1145
▁ഭാഗ്യം	-10.1147
വർഷ	-10.1151
▁നിലപാടാണ്	-10.1163
▁വരികയാണ്	-10.1163
▁സഞ്ചാര	-10.1165
▁നയിക്കുന്ന	-10.1166
മേറ്റ	-10.1167
▁പരിഹാരം	-10.1169
▁ചെയ്യേണ്ട	-10.117
▁ക്ഷമ	-10.1171
▁നശിപ്പിക്ക	-10.1172
▁ഉപദേശ	-10.1174
▁മറന്ന	-10.1177
▁ദിവസങ്ങളിൽ	-10.1182
▁വെട്ട	-10.1182
▁പുരുഷ	-10.1184
▁6,	-10.1187
▁പിടികൂട	-10.119
▁അന്നത്തെ	-10.1191
▁അമിത	-10.1191
▁കരുതുന്ന	-10.1193
▁ലാഭം	-10.1193
▁അഹമ്മദ്	-10.1196
ർമാർ	-10.1201
ഡെ	-10.1205
▁ആദിവാസി	-10.1207
മുണ്ടാ	-10.1208
ിലേക്ക	-10.1209
ർദ്ദ	-10.121
ിലധികം	-10.1212
▁വീട്ടിലെത്തി	-10.1214
രോധ	-10.1215
വ്യാപന	-10.1218
▁ബോര്‍ഡ	-10.122
ീസ	-10.1224
ൂട്ട	-10.1226
▁ആരോപിക്കുന്നു	-10.1228
▁ളി	-10.1231
മാകുമെന്ന	-10.1232
▁ഉയര്‍ത്തി	-10.1233
▁മേൽ	-10.1233
ുന്നുവെന്നും	-10.1235
▁വിളി	-10.1236
ങ്ങളുടെയും	-10.1236
ദിവസം	-10.1237
യാളാണ്	-10.1241
ുവിനെ	-10.1245
▁മഴയ്ക്ക	-10.1253
▁7,	-10.1254
യ്ക്കിടെ	-10.1255
▁വന്നതോടെ	-10.126
റിയാം	-10.1261
▁കന	-10.1268
▁സായി	-10.1268
▁സ്ത്രീകൾ	-10.1269
▁വേണ്ടെന്ന	-10.1274
▁ഉദ്യോഗസ്ഥന	-10.1275
▁പാകിസ്താന	-10.1276
▁പരാമര്‍ശം	-10.1276
▁സ്പീക്കര്‍	-10.1278
ാർത്ഥ	-10.1278
ുണ്ടെങ്കിൽ	-10.1279
▁2011	-10.1282
▁കെഎം	-10.1283
▁നാട്ടിലേക്ക്	-10.1283
▁ദേ	-10.1285
17	-10.129
▁ആശുപത്രികളില്‍	-10.129
▁മത്സരിക്കുന്ന	-10.1295
▁സന്തോഷ്	-10.1297
▁പങ്ക്	-10.1297
▁വിദ്യാർത്ഥികള	-10.1299
▁തമ്മില	-10.1299
▁ദേവി	-10.13
ദോഷ	-10.1304
▁വികസനം	-10.1304
▁പൂര്‍ത്തിയാക്കി	-10.1306
ിപ്പിച്ചു	-10.1309
▁ഉയരുന്ന	-10.131
▁പുലര്‍ച്ചെ	-10.1314
▁എംബസി	-10.1314
▁നടൻ	-10.1315
കാന്ത	-10.1327
▁കോളനി	-10.1329
▁വാക്സിന്‍	-10.1332
▁എഴുത	-10.1332
▁സ്വീകരിച്ചത്	-10.1332
▁പ്രയോഗ	-10.134
▁നീള	-10.1343
▁തുടർ	-10.1345
D	-10.1349
▁ചൂണ്ടിക്കാണിച്ച	-10.1349
▁മന്ത്രിയുടെ	-10.1352
▁കുതിച്ച	-10.1354
പ്പാറ	-10.1355
ശ്യ	-10.1358
26	-10.1364
▁സിനിമയില്‍	-10.1367
െക്കുറിച്ചും	-10.1367
▁ചെന്ന	-10.1369
▁സാധിച്ചു	-10.1369
▁വരാന്‍	-10.1369
ഞ്ഞി	-10.1369
▁നിങ്ങള	-10.1373
▁ആയിര	-10.1379
▁നടിയെ	-10.1381
▁നടത്തുക	-10.1381
ുള്‍പ്പെടെ	-10.1385
▁പകുതി	-10.1385
▁പലിശ	-10.1385
▁ശിശു	-10.1386
▁റിയ	-10.1386
ർത്ഥ	-10.1388
▁പച്ച	-10.1393
▁ഉദ്ഘാടന	-10.1395
▁തട്ട	-10.1396
▁അളവ	-10.1398
▁ആപ്പ	-10.1399
▁പോലീസുകാര	-10.1399
ശാന്തി	-10.1406
▁ഞെട്ട	-10.1409
പ്പെടുത്തുന്ന	-10.1411
▁ആശ	-10.1414
▁സാധിക്കുമെന്ന	-10.1415
▁ജീ	-10.1415
▁സിനിമയുടെ	-10.1416
▁ചലച്ചിത്ര	-10.1421
കൂട	-10.1422
▁കേൾക്ക	-10.1422
▁പ്രകൃതി	-10.1422
▁ബിന്ദു	-10.1423
▁കൊണ്ടുപോയ	-10.1424
മന്ത്ര	-10.1433
▁വേണമെന്ന്	-10.1435
▁ബിജു	-10.1437
▁ഇതിനെതിരെ	-10.1442
▁യുദ്ധം	-10.1448
▁അരവിന്ദ്	-10.1457
▁ഗവർണർ	-10.1457
▁മറികടന്ന	-10.1457
▁സർക്കാറ	-10.1457
▁ലൈഫ്	-10.1459
▁ലോകാരോഗ്യ	-10.1459
▁മല്‍സരിക്ക	-10.1461
▁എന്തൊക്കെ	-10.1466
▁അഖില്‍	-10.1467
▁വർക്ക	-10.1469
-2	-10.1474
▁വിലക്ക്	-10.1479
▁രാജയോഗ	-10.148
▁ബോര്‍ഡ്	-10.148
▁നിയന്ത്രണങ്ങള	-10.1487
▁പ്രവർത്തനങ്ങള	-10.1488
▁നേതൃ	-10.1492
▁അത്ഭുത	-10.1493
▁മിനി	-10.1497
▁ബുധന	-10.1498
▁രണ്ടും	-10.1501
▁വരവ	-10.1503
55	-10.1503
▁ആഴ	-10.1507
▁അതും	-10.151
▁തങ്ങൾ	-10.1512
▁8,	-10.1512
▁പറ്റി	-10.1519
▁ഡ്യൂട്ടി	-10.153
▁പോസിറ്റിവിറ്റി	-10.153
▁വെറുതെ	-10.153
▁രേഖകള്‍	-10.1531
▁ഒഴിഞ്ഞ	-10.1532
▁ഓട്ടോ	-10.1533
▁ഉയര്‍ത്ത	-10.154
▁അതിക്രമ	-10.1545
▁വാര്‍ഡുകള	-10.1546
▁കൊലപാതകം	-10.1547
▁പതിവ	-10.1549
▁53	-10.1549
▁ഛ	-10.155
▁അപമാനിക്ക	-10.1552
താക	-10.1557
▁നഴ്സ	-10.1557
▁വാക്ക്	-10.156
▁സൂചിപ്പിച്ച	-10.1566
▁മനോരമ	-10.1566
▁2000	-10.1567
▁ആസ്ഥാന	-10.1567
▁നിർമ്മാണ	-10.1567
▁അറിയിപ്പ	-10.157
ബാധിത	-10.1571
ശ്രീ	-10.1584
▁സർവീസ	-10.1584
▁പാര്‍ക്ക	-10.1589
▁നീട്ട	-10.159
▁അപകടത്തില്‍	-10.1591
03	-10.1594
▁സന്നദ്ധ	-10.1603
▁ഡയറക്ടർ	-10.1603
▁ഫയല	-10.1608
▁വാദി	-10.1609
▁ഫോറ	-10.161
▁ലൈന്‍	-10.1611
ിക്കാനും	-10.1614
▁കമല	-10.1622
ക്കുട്ടി	-10.1622
▁മണിയോടെ	-10.1628
▁തുടര്‍ച്ചയായി	-10.1628
ൊന്നുമില്ല	-10.1628
മാറ്റം	-10.163
▁ധൈര്യ	-10.164
▁വർഗീയ	-10.164
▁മൃതദേഹ	-10.164
▁അഖിലേഷ്	-10.1642
▁ബ്രിട്ടന	-10.1644
▁ലോക്സഭാ	-10.1646
കൂട്ട	-10.1648
▁അക്രമി	-10.1649
▁കേസെടുക്ക	-10.1651
▁പൊലീസിന്	-10.1653
▁വിശ്വാസം	-10.1655
▁ഉയര്‍ന്നു	-10.1656
ിൻറെ	-10.1656
▁പ്രകട	-10.1656
▁ആക്ട	-10.1661
മാർക്ക്	-10.1661
▁ജു	-10.1664
▁ആര്‍എസ്എസ്	-10.167
ാനായിരുന്നു	-10.1672
▁മത്സ്യ	-10.1676
▁ഗവേഷണ	-10.1677
▁പിന്നിൽ	-10.1677
▁തൃ	-10.1681
▁മനോ	-10.1685
▁കരാർ	-10.1688
▁ഇടിവ	-10.1697
▁കാരം	-10.1698
ായാണ്	-10.1707
ുന്നുവെന്ന	-10.1707
▁ലഭിക്കുന്നത്	-10.1708
▁സഹായത്തോടെ	-10.1708
▁എന്നിവയുടെ	-10.171
▁ക്ഷണിച്ച	-10.1712
▁നയതന്ത്ര	-10.1714
ല്ലെന്ന്	-10.1715
▁മരുന്ന	-10.1719
▁മുകളില	-10.172
▁പശ്ചാത്തലത്തിൽ	-10.1722
▁ഭാരത	-10.1728
ുന്നതിനിടെയാണ്	-10.1744
ട്രോ	-10.1745
ോടെയാണ്	-10.1746
▁ശസ്ത്രക്രിയ	-10.1751
▁ശാരീരിക	-10.1751
▁അർഹ	-10.1752
▁നല്‍കുമെന്ന	-10.1752
▁അക്കാര്യ	-10.1752
▁ഓസ്	-10.1753
ഖ്യ	-10.1753
▁പുറത്തേക്ക്	-10.1758
▁സിപിഎമ്മിന്റെ	-10.1763
തുകൊണ്ട	-10.1768
▁മറക്ക	-10.1768
▁ലക്ഷ്യമിടുന്നത്	-10.1775
▁കെഎസ്	-10.1778
▁ഉന്നയിക്കുന്ന	-10.1783
ഗ്രാ	-10.1788
▁ആഹ്വാനം	-10.1788
▁പ്രവേശിച്ച	-10.1788
▁ഇടവേള	-10.1788
▁അകലം	-10.1789
എമ്മ	-10.179
ിരുന്നെങ്കിലും	-10.179
▁ഇതിനു	-10.1792
▁പുറത്തായ	-10.1793
▁കേസുകളില്‍	-10.1795
▁പദ്ധതികള്‍	-10.1795
▁കുഞ്ഞിനെ	-10.1797
▁വണ്ടി	-10.1798
▁ഘ	-10.1808
▁റൂട്ട	-10.1808
യ്ക്കാണ്	-10.1809
▁കസ്റ്റഡിയില്‍	-10.1814
▁ഭര്‍ത്താവ്	-10.1819
പ്പോയ	-10.182
▁അപ്	-10.1822
▁ധാരാളം	-10.1826
44	-10.1827
▁എന്തുകൊണ്ടാണ്	-10.1827
▁വഴങ്ങ	-10.1828
▁തിരിച്ചെത്തിയ	-10.183
▁ചെയ്യാം	-10.1832
▁ഉത്തര്‍	-10.1832
▁വയസ്	-10.1834
നാട	-10.1835
പ്രവര്‍ത്തക	-10.1836
▁പുറത്തുവരുന്ന	-10.1837
▁പവന്‍	-10.1844
▁ജനം	-10.1846
പെട്ട	-10.1849
29	-10.1851
▁തോതില്‍	-10.1851
പത്ര	-10.1852
▁അതിനാൽ	-10.1853
▁ആരാധകര്‍	-10.1859
▁ഒരാഴ്ച	-10.1863
▁ഉറപ്പുവരുത്ത	-10.1863
▁ബാധ്യത	-10.1863
▁ഹേമ	-10.1865
▁ഉത്തരം	-10.1866
▁അംഗത്വ	-10.1869
▁ആലുവ	-10.1869
▁മന്ത്രാലയ	-10.187
▁ഭരണഘടനാ	-10.1873
▁നേതൃത്വത്തിന്	-10.1873
▁വള്ള	-10.1879
59	-10.1882
▁വ്യ	-10.1884
▁ഉമ	-10.1885
62	-10.189
▁വലുത	-10.1892
ങ	-10.1892
▁സ്വാഗതം	-10.1899
▁കസ്റ്റംസ്	-10.1899
E	-10.1901
ഡബ്ല്യു	-10.1901
▁പാര്‍ട്ടിക്ക്	-10.1901
ൊന്ന്	-10.1901
▁അജയ്	-10.1901
▁തയാറ	-10.1902
▁72	-10.1902
▁ലാഭ	-10.1905
പാത	-10.1908
▁സജ്ജ	-10.1909
ഗിരി	-10.191
▁ആഗ്രഹ	-10.1912
▁ലോറി	-10.1913
▁ഭാരവാഹി	-10.1917
▁രോഗികള	-10.1918
▁ഗാന	-10.192
▁പറഞ്ഞാല്‍	-10.1922
▁ഹൗസ്	-10.1923
▁ചെയ്യുന്നുണ്ട്	-10.1925
▁കേസുമായി	-10.1928
▁ആക്ഷേപ	-10.1929
▁കോൺഗ്രസിൽ	-10.1929
▁ജയരാജന്‍	-10.193
▁വ്യാഴ	-10.1932
▁ബാലചന്ദ്ര	-10.1932
▁ചികിത്സയിലുള്ളത	-10.1935
▁ഒടുവിൽ	-10.1939
▁കഥാപാത്ര	-10.1939
▁മാറ്റങ്ങള്‍	-10.1942
ാഴ	-10.1946
▁ബാറ്റ	-10.1947
▁ജീവ	-10.1948
ുകാര്‍	-10.1952
▁നിഷ്	-10.1963
▁പൂർണമായ	-10.1966
ഭാഷ	-10.1968
▁ഫോണില്‍	-10.1968
തുകൊണ്ട്	-10.197
▁56	-10.1976
▁ട്രോള	-10.1977
▁ചലഞ്ച	-10.1977
▁കോടിയുടെ	-10.1983
31	-10.1983
ക്ഷണ	-10.1983
ാതിരിക്കാന്‍	-10.1984
ക്കുളം	-10.1987
▁വാസ	-10.1987
▁കടന്ന്	-10.1987
▁തരം	-10.1989
▁ഉയർത്തിയ	-10.199
സേന	-10.1996
▁ഇറക്ക	-10.1998
ലധികം	-10.1999
▁പ്രദേശങ്ങളില്‍	-10.2001
▁ഗാസ	-10.2003
ൻഡ്	-10.2006
▁സാധ്യതയുള്ള	-10.2008
ശേരി	-10.201
ുകളില	-10.2012
▁പൂര്‍ത്തിയായ	-10.2015
▁അയാൾ	-10.2015
▁വസതി	-10.2015
▁ഉയര്‍ത്തിയ	-10.2018
▁അനുബന്ധ	-10.2018
ിനുള്ളില്‍	-10.2025
▁മിനിറ്റ	-10.2029
▁സമഗ്ര	-10.2029
▁പാർട്ടിയിൽ	-10.2031
▁മണ്ഡലങ്ങളില്‍	-10.2032
▁ഉറപ്പിക്ക	-10.2037
▁മാല	-10.204
▁ഇതില	-10.2042
39	-10.2042
▁പുറത്താക്കിയ	-10.2042
▁നേതാവിനെ	-10.2044
ീരിയ	-10.2046
48	-10.2048
ങ്ങാടി	-10.2053
നാഷണൽ	-10.2053
കുഞ്ഞാലിക്കുട്ടി	-10.2053
▁തകർന്ന	-10.2053
57	-10.2057
▁കേവല	-10.2057
▁വര്‍ധനവ	-10.2059
▁പാഠ	-10.2065
▁പിള്ള	-10.2066
▁ചുമത്ത	-10.2074
▁അക്കൗണ്ട്	-10.2074
▁ലോക്ക	-10.2085
▁മേല	-10.2088
▁രേഖകള	-10.2089
▁ആരോപണങ്ങള	-10.2091
▁സഞ്ചരിച്ച	-10.2092
▁ഗ്രൂപ്പുകള	-10.2099
▁പ്രസാദ്	-10.21
▁വര്‍ഷമായി	-10.2101
▁വൈകാതെ	-10.2102
പ്രവര്‍ത്തകര്‍	-10.2103
ണമെങ്കില്‍	-10.2104
▁അസമ	-10.2105
▁സർവ്വേ	-10.2107
ിക്കുകയാണ്	-10.2108
▁ക്രിക്കറ്റ്	-10.2109
▁കേരളത്തെ	-10.2109
▁മുന്നേറ്റം	-10.2111
▁ലും	-10.2116
▁കാട്ടാന	-10.2118
▁പൊട്ടി	-10.2128
▁രം	-10.2128
▁അവസാനിപ്പിച്ച	-10.2129
▁നായര്‍	-10.2129
▁ഉമ്മന്‍ചാണ്ടി	-10.213
▁സിദ്ദിഖ	-10.213
▁റിനോഷ	-10.213
▁ഓഫിസ	-10.2131
▁റിപ്പോർട്ടിൽ	-10.2132
▁ആശുപത്രിയിലേക്ക	-10.2132
ത്തൂര്‍	-10.2134
▁വീഴ്ത്ത	-10.2139
▁റ്റേഷന	-10.2143
▁പാസ	-10.2145
▁ബാക്കിയുള്ള	-10.2146
▁ഫേസ്ബുക്കിൽ	-10.2148
▁ആരോപണങ്ങള്‍	-10.2157
▁കണ്ണൂരില്‍	-10.2159
▁ദക്ഷിണ	-10.2169
▁മയക്കുമരുന്ന്	-10.2175
▁നെടു	-10.218
▁സ്ഥലങ്ങള	-10.2185
85	-10.2186
▁രാജു	-10.2193
െടുക്കുന്ന	-10.2194
▁പിന്നീട	-10.2197
▁ഡീ	-10.2198
▁റദ്ദാക്കിയ	-10.2199
ങ്ങളിലൂടെ	-10.2202
▁സേ	-10.2203
ാലോ	-10.2204
ിരിക്കണം	-10.2206
▁വിശദീകരിക്ക	-10.2208
▁പാക്കേജ	-10.2209
▁വില്‍ക്ക	-10.2211
▁കേരളത്തില	-10.2217
ടക്കമുള്ള	-10.2217
▁ഞെട്ടിച്ച	-10.2219
▁പ്രവര്‍ത്തി	-10.2222
▁ആദിത്യനാഥ	-10.2223
▁രോഗികള്‍	-10.2224
ക്ടർ	-10.2225
വര്‍ഗ	-10.2226
ാക്കാന്‍	-10.2228
സ്ഥല	-10.2229
▁നഷ്ടപ്പെട	-10.2229
▁കീഴില്‍	-10.2231
▁ബുക്ക്	-10.2231
▁തെളിയിക്കുന്ന	-10.2235
▁മുന്നോടിയായി	-10.224
▁പരിക്ക	-10.224
▁ഉത്തരാഖണ്ഡ	-10.2247
▁ദ്വീപ	-10.2247
▁അയോധ്യ	-10.2247
▁പ്രവർത്തനം	-10.225
▁തലശ്ശേരി	-10.2253
▁അടയ്ക്ക	-10.2255
▁വെച്ചാണ്	-10.2255
▁കാണുന്നു	-10.2257
▁കസ്റ്റഡിയിലെടു	-10.226
▁ഞങ്ങള	-10.2262
▁വീടിന്	-10.2264
▁നേതാവുമായ	-10.2274
▁വീട്ടിലെ	-10.2274
▁ജീവനക്കാരെ	-10.2275
▁ആരോപിച്ച	-10.2277
വഴി	-10.2279
▁തയ്യാറായില്ല	-10.2282
▁കുടുങ്ങി	-10.2282
ചെ	-10.2282
▁അസുഖ	-10.2286
തന്നെ	-10.2288
മാര്‍ക്ക്	-10.229
▁ഉള്‍	-10.2297
▁സുനില്‍	-10.2298
69	-10.2298
▁രംഗത്തെ	-10.2301
ന്ദ്	-10.2304
▁മുന്നേറ്റ	-10.2306
▁മോഹന്‍ലാല്‍	-10.2315
▁എൽഡിഎഫ	-10.2316
▁സംസാരിച്ചു	-10.2316
▁രജിസ്	-10.2319
▁മാധ്യമങ്ങൾ	-10.2321
▁സ്വന്തമാക്കിയ	-10.2325
▁ചെലുത്ത	-10.2326
▁ഏര്‍പ്പെടുത്ത	-10.2327
▁ട്രാന്‍സ്	-10.2328
▁വകുപ്പുകള	-10.2332
▁കമന്റ	-10.2334
▁ദൃശ്യങ്ങള	-10.2334
▁പയ്യ	-10.2335
▁നയം	-10.2336
▁തയ്യാറാവ	-10.2336
ദ്ധ്യ	-10.2337
റ്റർ	-10.2338
▁അവസാനം	-10.2343
▁നടക്കാനിരിക്ക	-10.2343
▁കൊള	-10.2343
▁വാട്	-10.2344
ത്തിലേറെ	-10.2346
പടി	-10.2347
▁മെന്റ	-10.2347
പോർട്ട	-10.2354
നീയ	-10.2357
▁വിവാദം	-10.2358
▁അവന	-10.2365
▁വിദ്യാർഥി	-10.2365
▁പരിഹാസ	-10.2365
▁പിറന്ന	-10.2367
▁വളര്‍ത്ത	-10.237
ക്ഷൻ	-10.2372
▁അധ്യാപകര	-10.2373
ിന്റേത	-10.2376
▁ഒന്നിച്ച	-10.2379
ങ്ങളിലേക്ക്	-10.238
കേരള	-10.2384
▁കൺ	-10.2386
▁മുഖ്യമന്ത്രിയെ	-10.2392
▁ചിത്രങ്ങൾ	-10.2397
▁അമ്പല	-10.24
▁വാക്കുകള്‍	-10.2403
▁പ്രവര്‍ത്തകന	-10.2405
B	-10.2405
▁രവീന്ദ്ര	-10.2405
▁സംഭാഷണ	-10.2405
▁അഭയ	-10.2407
പ്പൊ	-10.2408
▁സ്വാമി	-10.2414
▁പതാക	-10.2415
▁പേരെയാണ്	-10.2418
▁എന്നതും	-10.2419
▁രേഖപ്പെടുത്തി	-10.2419
▁റിലീസ്	-10.2422
▁...	-10.2423
▁പ്രകാശ്	-10.2426
▁വാഹനങ്ങള്‍	-10.2426
▁ക്രിസ്	-10.2429
മുണ്ടായി	-10.243
സര്‍ട്ടിഫിക്കറ്റ	-10.2434
▁ബാധിക്കുന്ന	-10.2436
▁അനൂപ്	-10.2437
▁പാലം	-10.2439
▁വ്യാപക	-10.244
▁കണ്ണു	-10.244
▁57	-10.2444
▁ഒക്ടോബര്‍	-10.2445
▁ഉടനെ	-10.2445
▁പുലർത്ത	-10.2445
▁തൃശൂര	-10.2447
▁പക്ഷം	-10.2447
▁സെക്രട്ടറിയേറ്റ	-10.2447
▁ഒഴിവാക്കി	-10.2449
േക്കുമെന്നാണ്	-10.245
▁പോകാൻ	-10.2452
▁സേവ	-10.2453
02	-10.2454
▁മുടക്ക	-10.2456
▁ബുദ്ധി	-10.246
▁വർധനവ	-10.2465
▁കർഷകർ	-10.2467
▁നൂറ്	-10.2471
▁വൈകുന്നേരം	-10.2474
▁നൽകിയിരുന്നു	-10.2477
▁നിമിഷം	-10.2482
▁ജലനിരപ്പ്	-10.2485
▁തേജസ്വി	-10.2485
യൂര്‍	-10.2488
▁നടത്തുമെന്ന	-10.2492
▁സന്ദീപ്	-10.2494
▁രണ്ടാമത	-10.2495
ിരിക്കുകയാണെന്ന	-10.2497
▁കാത്തിരിക്ക	-10.25
▁കരുതുന്നു	-10.2504
▁മത്സരാർത്ഥി	-10.2508
▁300	-10.2509
▁വീണാ	-10.251
▁ചികിത്സയിലായിര	-10.251
▁ആശുപത്രിയിലെ	-10.2511
▁ആരെങ്കിലും	-10.2511
ാനായ	-10.2513
ശംസ	-10.2518
63	-10.2524
▁ഗള്‍ഫ്	-10.2525
കണ്ഠ	-10.2525
▁നേതൃത്വത്തിന്റെ	-10.2529
യെടുത്ത	-10.2531
▁എല്ലാവർക്കും	-10.2531
▁സ്ഥാപനങ്ങള്‍	-10.2533
64	-10.2534
28	-10.2554
മുണ്ടാകും	-10.2555
09	-10.2557
▁വേണ്ടിയുള്ള	-10.2564
▁എന്നിട്ടും	-10.2564
▁കണക്കിലെടുത്ത്	-10.2565
▁രാധാകൃഷ്ണന	-10.2565
27	-10.2566
▁യുവതിയെ	-10.2568
മില്ലെന്നും	-10.2568
▁ആർക്ക	-10.2578
▁സൗത്ത്	-10.2579
▁നുണ	-10.2585
▁ഗാന്ധിയെ	-10.2585
▁ചെയ്തിട്ടില്ല	-10.2586
▁ബസ്സ	-10.2587
06	-10.2589
▁പട്ടികയിൽ	-10.259
▁ഉണ്ടായി	-10.2593
▁ശക്തമാണ്	-10.2597
▁മഹാരാഷ്ട്രയില്‍	-10.2597
ുന്നുവെന്ന്	-10.2599
യിലേക്ക	-10.2601
▁ആന്ധ്ര	-10.2606
▁സ്ഥിരീകരിക്ക	-10.2606
▁സന്ദർശന	-10.2606
▁രഞ്ജി	-10.2606
▁ബിഹാറ	-10.2606
▁ജീവനക്കാർ	-10.2607
▁പിന്നിട്ട	-10.2607
▁നാഷണല്‍	-10.2607
▁പ്രതിരോധിക്ക	-10.261
ന്മാർ	-10.2614
ിഷ്ട	-10.2615
▁കൊടു	-10.2615
ുകൊണ്ടിരിക്കുന്ന	-10.2616
72	-10.2617
▁മുണ്ട	-10.2622
പോലും	-10.2622
വേലി	-10.2627
വെന്നാണ്	-10.2627
ാതെയാണ്	-10.2628
▁അടിക്ക	-10.2628
ഹോ	-10.2629
▁സര്‍വ	-10.2639
▁ഉൾപ്പെടുന്ന	-10.2641
ാവശ്യ	-10.2644
കൊടുക്ക	-10.2645
▁ഡിസംബർ	-10.2646
▁പ്രവചിച്ച	-10.2646
▁ലിമിറ്റഡ	-10.2646
▁സമാജ്	-10.2646
▁ഗൃഹ	-10.2646
▁വരാനിരിക്കുന്ന	-10.2647
▁ബൈജു	-10.2647
▁മടി	-10.2648
▁സ്ഥാപനങ്ങൾ	-10.2648
▁സ്ഥിരം	-10.2653
▁ബേബി	-10.2653
▁ഉത്ര	-10.2654
യ്ക്കെതിരെ	-10.2655
▁അറിയപ്പെടുന്ന	-10.266
▁സോണിയാ	-10.2661
മുളള	-10.2661
▁ഡികെ	-10.2661
▁ഗതി	-10.2666
ാനന്ദ	-10.2668
▁58	-10.2669
▁ആഘോഷിക്ക	-10.267
▁കുറഞ്ഞു	-10.2671
▁സംഘത്തെ	-10.2671
▁ബന്ധുക്കള്‍	-10.2675
37	-10.2679
▁പവന്	-10.2679
▁റോബിന	-10.2682
▁ബംഗാളില്‍	-10.2683
▁നിശ്ചിത	-10.2687
▁നിലനിർത്ത	-10.2687
▁അറ്റ	-10.2687
ാര്‍ഥ	-10.2688
▁ഉപമുഖ്യമന്ത്രി	-10.2688
▁എഡിറ്റ	-10.269
▁ക്ഷണിച്ചു	-10.269
▁ബിരുദം	-10.2692
▁മത്സരിക്കുന്നത്	-10.2692
▁പോലീസിനെ	-10.2694
▁പ്ലാന്‍	-10.2695
▁ശബ്ദം	-10.2698
▁ചാടി	-10.2698
▁തെളിവുകള്‍	-10.2698
▁പ്രാധാന്യം	-10.2699
▁പ്ല	-10.2699
▁ൾ	-10.2702
▁മാര്‍ക്കറ്റ	-10.2706
▁ബൈഡന	-10.2707
ിരിക്കും	-10.2707
▁മൂല്യം	-10.2708
▁അടിസ്ഥാനമാക്കി	-10.271
▁അത്തരമൊര	-10.2713
▁തൊ	-10.2715
▁റാങ്ക	-10.2718
36	-10.2722
പിടിക്ക	-10.2723
▁ട്വീറ്റ	-10.2723
ുവാന്‍	-10.2725
ട്ടോ	-10.2725
▁ബൈ	-10.2728
▁താല്‍ക്കാലിക	-10.2728
▁നരേന്ദ്രമോദി	-10.2728
▁ചൗഹാന	-10.2728
▁മണിക്കൂര്‍	-10.2728
▁മലപ്പുറത്ത	-10.2728
▁വിലയിരുത്തി	-10.273
▁കളക്ടറ	-10.273
▁വായിക്കാം	-10.2734
▁കുറേ	-10.2738
▁വയസുള്ള	-10.2751
ാധ്യ	-10.2757
▁വിശദമായി	-10.2759
ക്കുണ്ട്	-10.2763
ില്ലെങ്കിൽ	-10.2768
▁കൊല്‍ക്കത്ത	-10.2769
▁സൈബർ	-10.2771
▁പങ്കാളി	-10.2774
▁കോണ്‍ഗ്രസിലെ	-10.2778
രാക	-10.2779
▁അലർട്ട	-10.2782
▁മുടങ്ങ	-10.2783
▁ഉയർത്ത	-10.2787
പറഞ്ഞ	-10.279
▁എടുത്തത്	-10.279
▁പോള്‍	-10.2791
▁ഡോക്ടര്‍	-10.2793
▁അധികാരത്തില്‍	-10.2795
▁ബാബ	-10.28
▁നാസ	-10.2801
er	-10.2803
▁നായകന	-10.281
▁കാർഷിക	-10.2811
▁അത്യാവശ്യ	-10.2811
▁കുടുംബാംഗങ്ങള	-10.2811
ഷ്ണ	-10.2814
▁മേയര്‍	-10.2818
▁യുവതിയുടെ	-10.2818
▁പഞ്ചായത്തുകള	-10.2819
േഴ്സ	-10.2823
▁ഏതാന	-10.2824
▁വക	-10.2824
▁നാട്ടിലെത്ത	-10.2826
▁നല്‍കണം	-10.283
ൂരിൽ	-10.283
▁പ്രതികൾ	-10.283
▁ഭീഷണിപ്പെടുത്തി	-10.2833
▁നല്‍കേണ്ട	-10.2834
▁എടുക്കുന്ന	-10.2838
▁പ്രവര്‍ത്തക	-10.2838
▁കാർഡ്	-10.2841
ക്യു	-10.2844
▁മേഖലകളില്‍	-10.2844
ലോക	-10.2844
▁കരുതി	-10.2851
▁അന്തരീക്ഷ	-10.2852
▁മലയോര	-10.2852
▁ഫോടന	-10.2852
▁ആകാശ	-10.2853
▁വഴക്ക	-10.2861
74	-10.2864
വർഗ	-10.2878
▁വൈകിയ	-10.2879
▁150	-10.288
▁സ്വന്തമായി	-10.2881
▁ആലോചിച്ച	-10.2894
▁പബ്ലിക്	-10.2894
▁ലുലു	-10.2894
▁മീറ്റര്‍	-10.2894
▁അവശ്യ	-10.2897
▁വൃത്തങ്ങള	-10.2897
▁ആരെയും	-10.2904
▁സംവിധാനങ്ങള	-10.2907
കഴിഞ്ഞ	-10.2908
▁പെരുമാറ	-10.2911
മില്ലെന്ന്	-10.2915
▁ള്ള	-10.2918
ുന്നുണ്ടെന്നും	-10.2918
▁ട്രേറ്റ	-10.2919
▁മാനേജര്‍	-10.2919
▁മേയ്	-10.2921
▁സംസ്ഥാനങ്ങളിലെ	-10.2925
വെയ്ക്ക	-10.2931
38	-10.2932
▁ആപ്പ്	-10.2934
▁ചൗധരി	-10.2936
▁മൊബൈൽ	-10.2936
▁എത്തും	-10.2936
▁കലക്ടര്‍	-10.2937
▁ക്രമ	-10.2939
▁രാജിവച്ച	-10.294
▁തൊഴിലാളികള്‍	-10.2941
▁ഉൾപ്പെടുത്ത	-10.2941
▁ആൾ	-10.2943
കുറ	-10.2948
കളോട്	-10.2952
▁വാക്കുകൾ	-10.2953
ാമെന്നാണ്	-10.2955
▁64	-10.2959
▁റെഡ്	-10.2959
ാനാവില്ലെന്ന	-10.296
▁ഒമാന	-10.2967
ഷിപ്പ്	-10.2968
ായിരിക്കണം	-10.2974
▁ഫിറോസ	-10.2976
▁ഗ്രാമപഞ്ചായത്ത	-10.2977
▁ചികിത്സാ	-10.2979
▁ഫൈനല	-10.2984
▁മോഹന്‍	-10.2986
▁തെരഞ്ഞെടുപ്പിൽ	-10.2986
▁കഴിഞ്ഞാല്‍	-10.2987
▁ഏരിയ	-10.2988
▁പലതും	-10.2989
▁കാര്യമ	-10.299
▁വിപണിയില്‍	-10.2992
▁കൂട്ടിയ	-10.2993
▁ഉയർന്നു	-10.2995
▁കെട്ട	-10.3003
ാണല്ലോ	-10.3008
▁പറയുന്നത	-10.3009
▁സംഭവിച്ചത്	-10.3013
▁കൈമാറി	-10.3016
▁ബൈഡന്‍	-10.3017
▁നഷ്ടം	-10.3017
▁പ്രവചനം	-10.3017
▁ഐപിഎല്ല	-10.302
▁കുറ്റപ്പെടുത്ത	-10.302
▁ആസൂത്രണ	-10.302
▁ടൗണ	-10.3022
▁ഫ്രണ്ട്	-10.3022
▁സ്വയംഭരണ	-10.3022
▁ട്വിറ്ററ	-10.3022
ന്നൂർ	-10.3025
▁അഭിനയിച്ച	-10.303
▁സാഹചര്യങ്ങള	-10.3035
▁ത്രി	-10.3035
സുധാകരന	-10.3036
▁പ്രകടിപ്പിക്ക	-10.3038
▁തനിക്ക	-10.3039
മ്മാ	-10.3039
▁സ്വീകരിക്കുന്ന	-10.3042
▁മകള്‍	-10.3045
മീറ്റ	-10.3049
▁വോട്ടര്‍മാര	-10.3054
▁ഞാനും	-10.3055
▁പരിശോധിച്ച്	-10.3059
റ്റിക്	-10.3061
▁കേന്ദ്രീകരിച്ച	-10.3061
▁പ്രവേശിപ്പിക്ക	-10.3062
▁ഐശ്വര്യ	-10.3062
▁ചുഴലിക്കാറ്റ	-10.3062
▁ഡിജിപി	-10.3062
▁ഇറ്റലി	-10.3062
▁തീരുമാനമെടുക്ക	-10.3063
▁ഏഴു	-10.3065
▁കുമാറിന്റെ	-10.3067
▁പ്രചരിക്കുന്ന	-10.307
▁ആരോപിക്കുന്നത്	-10.3071
▁ലക്ഷണങ്ങള	-10.3071
▁ടാസ്	-10.3074
▁ആരാധകര	-10.3075
▁വ്യാ	-10.3078
ുമ്പോഴ	-10.3082
▁പിജെ	-10.3084
ക്കാരനായ	-10.3091
▁വന്നപ്പോള്‍	-10.3093
▁സംസ്ഥാനങ്ങളിൽ	-10.3095
▁ഉണ്ടാകുന്ന	-10.3099
▁പിടികൂടിയത്	-10.3101
▁ഡിഎംകെ	-10.3105
▁യൂറോപ്പ	-10.3105
▁സമ്പദ്	-10.3105
▁ഭാഗമാണ്	-10.3106
▁മകൻ	-10.3107
▁തോട്ട	-10.3108
▁റെഡ്ഡി	-10.3113
42	-10.3113
▁മാത്രമായിരുന്നു	-10.3118
▁അതില	-10.3118
▁കീഴിലുള്ള	-10.3119
▁ഇക്കാര്യത്തിൽ	-10.3119
പ്പാല	-10.3121
ങ്ങനെ	-10.3126
▁പ്രാധാന്യ	-10.3135
▁ഗ്രാം	-10.314
▁ഹരിത	-10.3144
▁പാര്‍ലമെന്റ്	-10.3146
▁പങ്കെടുക്കുന്ന	-10.3147
▁നിരീക്ഷിക്ക	-10.3147
▁റിപ്പബ്ലിക്	-10.3147
▁എന്നിവിടങ്ങളിൽ	-10.3147
▁റെയിൽവേ	-10.3147
v	-10.3147
▁സാന്നിധ്യം	-10.3148
ദാസ	-10.315
▁ജെഡിഎസ	-10.315
ില്ലെങ്കിലും	-10.3152
▁സ്റ്റേ	-10.3153
▁കേസിന്റെ	-10.3159
▁ആവശ്യമില്ല	-10.3164
66	-10.3166
▁ജീവൻ	-10.3167
ഭാഗ്യ	-10.3168
▁ഇടപെടല്‍	-10.3169
▁സാധിച്ചില്ല	-10.3176
കീഴ	-10.3178
▁അയ്യ	-10.318
ുവാൻ	-10.3182
▁ഘട്ടത്തില	-10.3183
രോഗ	-10.3187
▁മുമ്പാണ്	-10.3188
▁ഉണ്ടെന്ന	-10.3188
▁പിന്‍വലിച്ച	-10.319
▁നിര്‍ത്തിയ	-10.3192
▁താരങ്ങള്‍	-10.3194
▁ആയിരിക്ക	-10.3197
പ്പെട്ടിരുന്നു	-10.32
▁ദൃശ്യങ്ങൾ	-10.3205
▁ചെയ്യാനുള്ള	-10.3206
യാണെന്ന	-10.3207
▁പ്രതികള	-10.3208
കിട	-10.3209
െടുത്തത്	-10.3209
▁പ്രദേശ്	-10.3209
▁എംവി	-10.3212
▁മനുഷ്യന	-10.3214
തിനെതിരെ	-10.3214
▁ശരത്	-10.3217
ല്ലൂർ	-10.3218
▁നടക്കുന്നുണ്ട്	-10.3219
▁ശേഖര	-10.3222
▁നിലനില്‍ക്ക	-10.3223
▁ഇന്‍സ്	-10.3225
▁ഉദാഹരണ	-10.3233
▁ഓറഞ്ച്	-10.3233
▁കമ്മ്യൂണിസ്റ്റ	-10.3233
▁സര്‍വകലാശാല	-10.3233
▁താക്കറെ	-10.3233
▁ശ്രീലങ്ക	-10.3234
▁കഴിയുമെന്ന	-10.3236
▁നേതൃത്വത്തെ	-10.3238
▁രാശിക്കാർക്ക്	-10.3249
േക്കുള്ള	-10.3252
▁മധു	-10.3253
▁അട്ടിമറിക്ക	-10.3255
▁ഓഫീസറ	-10.3263
▁പ്രസംഗം	-10.3264
▁സംവിധായകന്‍	-10.3264
▁ആണെന്ന	-10.3266
▁മധ്യപ്രദേശ്	-10.3269
▁വില്‍പ്പന	-10.3277
am	-10.3279
▁കാര്യത്തിലും	-10.3284
▁കമന്റ്	-10.3287
▁സംഘടനയുടെ	-10.3292
പോര്‍ട്ട	-10.3295
▁മതിയായ	-10.3297
▁വരവ്	-10.33
▁ആരംഭിക്കുന്ന	-10.3301
ആറ	-10.331
▁ആണെന്നും	-10.332
▁വയസ്സ്	-10.332
ുൾപ്പെടെ	-10.332
▁നമ്പർ	-10.3321
▁ഒരിക്കല്‍	-10.3321
▁ഉദയ	-10.3323
▁പറയാം	-10.3323
▁പേർക്കും	-10.3326
▁ഉറപ്പായ	-10.3329
രുത	-10.333
▁സീസണ്‍	-10.3331
▁ദില്ലിയിലെ	-10.3333
▁നൽകുന്നത്	-10.3341
ായിരിക്ക	-10.3343
ആക്രമിക്കപ്പെട്ട	-10.3346
നഗര	-10.3347
ഈ	-10.3348
▁ലഭിച്ചിരുന്നു	-10.3361
▁അടിയന്തിര	-10.3364
▁എസ്ഡിപിഐ	-10.3364
▁സ്കൂൾ	-10.3364
▁സഞ്ജയ്	-10.3364
k	-10.3364
▁രംഗത്തുവന്ന	-10.3365
▁പൗരന്മാര	-10.3365
▁മുത്ത	-10.3367
കൈ	-10.3367
▁ഉള്‍പ്പെടുത്തിയ	-10.3373
▁മുരളീധരൻ	-10.3378
യില്ലാതെ	-10.3381
▁സെല്‍	-10.3382
▁ഒരാളുടെ	-10.3388
▁ള്‍	-10.3391
▁രാശിക്കാരുടെ	-10.3395
▁പരിപാടികള	-10.3395
▁62	-10.3397
▁ആഭരണ	-10.3398
or	-10.3402
▁വെളിപ്പെടുത്തി	-10.3404
f	-10.3408
▁ആഡംബര	-10.3408
▁സതീശൻ	-10.3408
▁സ്ഥാനാർഥി	-10.3408
▁മീറ്റർ	-10.3409
▁ബിഷപ്പ	-10.3411
▁മനോജ്	-10.3411
▁ആരോപിച്ച്	-10.342
▁ഏഷ്യ	-10.342
വസ്തുക്കള	-10.3421
▁പ്രകാശ	-10.3428
ങ്ങളെല്ലാം	-10.343
▁വിജയി	-10.3441
ാറുള്ളത്	-10.3445
▁കന്നി	-10.3451
▁ബംഗാൾ	-10.3452
▁അസ്വസ്ഥ	-10.3452
▁സ്വര്‍ണക്കടത്ത	-10.3452
al	-10.3454
▁താങ്കള	-10.3454
▁ഒഴിവ്	-10.3456
▁നെല്ല	-10.3457
▁കാര്‍ഡ്	-10.3458
▁റോള	-10.3461
ക്ടര്‍	-10.3467
▁കുംഭ	-10.3468
▁പങ്കാളിത്ത	-10.3469
തിനിടയിൽ	-10.3474
▁അന്ത്യ	-10.3481
▁റഷ്യന്‍	-10.3482
▁നിലയിലാണ്	-10.3482
▁കട്ട	-10.3487
▁വഴിയാണ്	-10.3488
ിക്കൽ	-10.3494
▁പിന്തുടര	-10.3496
▁ന്യൂഡൽഹി	-10.3496
▁നവംബർ	-10.3496
▁വിഭജന	-10.3496
▁ക്രമീകരണ	-10.3497
▁തകർക്ക	-10.3497
▁നിയമപരമായ	-10.35
▁മുദ്രാവാക്യം	-10.3503
▁ഇതൊരു	-10.3507
▁ഷാഫി	-10.3507
▁പാര്‍ട്ടികള്‍	-10.3509
സ്ഥിതി	-10.3509
പിസി	-10.351
▁രൂക്ഷമായി	-10.3512
കാരന	-10.3513
▁ഡാമ	-10.3516
▁അഭ്യ	-10.3521
▁ഡ്രൈവറ	-10.3521
▁ബോർഡ്	-10.3523
▁നടത്തുന്നുണ്ട്	-10.3524
▁എഐസിസി	-10.354
▁തുറമുഖ	-10.354
▁മതേതര	-10.3541
▁അവലോകന	-10.3541
▁സംഘമാണ്	-10.3541
▁ചന്ദ്രശേഖര	-10.3541
▁ട്രേഡ	-10.3544
മാണോ	-10.3545
▁സുന്ദര	-10.3545
▁വോട്ടെടുപ്പ	-10.3546
▁തോന്നി	-10.3548
▁സര്‍വീസ	-10.3549
▁മാറ്റിയത്	-10.355
▁അതിനുള്ള	-10.3555
▁ആശുപത്രിയില	-10.3559
▁കെയര്‍	-10.356
▁ശേഷമുള്ള	-10.3561
ഹാന	-10.3562
▁സർക്കാരിനെ	-10.3564
▁കിലോമീറ്റ	-10.3564
▁നല്‍കാന	-10.3565
▁ക്യാപ്റ്റന്‍	-10.3565
ത്തേയും	-10.357
ഇന്ത്യ	-10.357
▁ഏറ്റുമുട്ട	-10.3571
▁ചാര	-10.3571
▁ശ്ര	-10.3578
▁ഹിന്ദി	-10.3585
▁എങ്കില്‍	-10.3586
▁വെയ്ക്ക	-10.3587
▁തൊട്ടടുത്ത	-10.3587
▁വാള	-10.3588
▁ബംഗാള	-10.3593
വിദഗ്ദ	-10.3595
▁ശ്രമിച്ചത്	-10.3598
▁സ്വാധീനിക്ക	-10.3599
റൈ	-10.3601
▁റാവത്ത	-10.3604
▁വസ്തു	-10.3606
▁നീല	-10.3606
▁മുകളിൽ	-10.3616
▁സംശയിക്കുന്ന	-10.3619
▁മുങ്ങി	-10.362
▁വഹിക്ക	-10.3621
▁നമുക്ക	-10.3623
▁ജുഡീഷ്യ	-10.363
▁ബലാത്സംഗ	-10.363
▁പിൻവലിക്ക	-10.363
▁വർധിച്ച	-10.363
▁സൂപ്രണ്ട	-10.363
▁സാംസ്	-10.3633
▁തിരിഞ്ഞ	-10.3635
▁വാക്കുകള	-10.3635
▁ചിറ്റ	-10.3642
ായുധ	-10.3644
▁റിയാസ	-10.3645
▁സ്ഥാനാര്‍ത്ഥികള	-10.3645
▁ജോസ	-10.3645
▁ഭാരവാഹികള	-10.3656
▁കാവ	-10.366
▁ഡോക്ടര്‍മാര്‍	-10.3661
▁വേണുഗോപാല്‍	-10.3663
▁പൈലറ്റ	-10.3669
ാണെങ്കിൽ	-10.367
▁ചൊവ്വ	-10.3675
▁കുറിച്ചത്	-10.3677
ായിരിക്കുമെന്ന	-10.3677
▁കാര്യങ്ങളാണ്	-10.3684
▁നടത്തണമെന്ന	-10.3684
കരമാണ്	-10.3685
▁ലോകത്തിലെ	-10.3695
▁ജില്ലയിലും	-10.3697
▁പതിവ്	-10.3698
▁കാര്യവും	-10.37
▁അഞ്ചാം	-10.37
▁കമ്പനിയുടെ	-10.3703
▁സ്ത്രീകളെ	-10.3707
▁ആരംഭിക്കും	-10.3714
ക്കുള്ളില്‍	-10.3716
മാണെന്നാണ്	-10.3718
▁ഹാജരായ	-10.3718
▁ആധുനിക	-10.372
▁ആര്‍ജെഡി	-10.372
▁താഴ്ന്ന	-10.3721
▁വില്ലേജ	-10.3722
▁പ്ലാന	-10.3726
▁ഉദ്ധരിച്ച്	-10.3727
▁നദി	-10.3728
▁ആദ്യഘട്ട	-10.3729
▁നൽകും	-10.3734
▁മധ്യപ്രദേശ	-10.3735
▁അടക്ക	-10.3738
▁സജീവമായി	-10.3739
ട്രോള	-10.374
മൊഴി	-10.3741
▁നിയന്ത്രണങ്ങൾ	-10.3747
▁വാക്ക	-10.3747
▁കൊലപ്പെടുത്ത	-10.376
▁മണിക്കൂറില്‍	-10.3763
▁പുറത്തിറങ്ങിയ	-10.3765
▁ബ്രിട്ടീഷ്	-10.3766
▁അജണ്ട	-10.3766
▁പൊട്ടിത്തെറി	-10.3766
▁ഡിംപല	-10.3766
▁ഇതോടൊപ്പം	-10.377
▁പ്രസിഡണ്ട്	-10.3773
▁വണ്‍	-10.3777
▁1000	-10.3786
▁വാഹനങ്ങള	-10.3786
▁മുള	-10.3787
▁സര്‍വ്വേ	-10.3789
▁ഇരട്ടി	-10.3794
▁ഹൈക്കോടതിയെ	-10.3798
▁സുഹൃത്ത്	-10.38
ൊട്ട	-10.3801
▁തയ്യാറാണെന്ന	-10.3802
▁ചായ	-10.3803
▁മത്സരിക്കാന്‍	-10.3805
▁അനിൽ	-10.3807
▁എതിർപ്പ	-10.3811
▁ചെയർമാൻ	-10.3811
▁ദമ്പതികള	-10.3811
▁ട്രേലിയ	-10.3811
▁കമ്മറ്റി	-10.3811
▁കൊട്ടാരക്കര	-10.3812
▁ഫോർ	-10.3814
▁ലൈ	-10.3814
▁അന്യ	-10.3816
▁ഓർമ്മ	-10.3817
▁പേരില	-10.3818
ുടമ	-10.3819
▁കിട്ടുന്ന	-10.3819
76	-10.3822
▁മാസത്തെ	-10.3823
▁ഫീസ്	-10.3823
യാര്‍	-10.3829
▁സെന്റ്	-10.3831
▁വരുത്തി	-10.3832
▁നടപ്പ	-10.3832
▁നാട്ടിൽ	-10.3832
ഷോ	-10.3833
▁ചെയ്യല	-10.3836
▁വിജിലന്‍സ്	-10.3837
ാടന	-10.3841
▁രാജ്യങ്ങളില	-10.3843
▁മീഡിയയിൽ	-10.3845
▁ലഭിച്ചിട്ടുണ്ട്	-10.3846
▁കൊല്ലപ്പെട്ടത്	-10.3847
▁സംസ്ഥാനത്തിന്റെ	-10.3854
▁ഔദ്യോഗികമായി	-10.3856
▁പ്രോത്സാഹിപ്പി	-10.3857
പോലെ	-10.3857
▁മേടം	-10.3858
▁63	-10.3862
▁കാരണങ്ങള	-10.3863
േണ്ടതില്ലെന്ന	-10.3864
▁പെട്രോള	-10.3868
ബിള്‍	-10.3873
▁വ്യക്തമാണ്	-10.3873
▁ശ്രദ്ധയില്‍	-10.3875
▁സമ്പന്ന	-10.3876
▁കാവ്യ	-10.388
▁തിരുവല്ല	-10.3881
▁തങ്ങള്‍ക്ക്	-10.3881
▁യുവാവിനെ	-10.3884
യോട	-10.3884
▁പുറത്തിറക്ക	-10.3885
▁കൃത്യ	-10.3887
▁പുതിയതായി	-10.3888
കളെല്ലാം	-10.3891
▁ജനിച്ച	-10.3892
▁റാവു	-10.3893
▁ഏഷ്യാനെറ്റ്	-10.3898
▁ഇടതുപക്ഷം	-10.3898
▁പട്ടികജാതി	-10.3903
▁സെപ്റ്റംബര്‍	-10.3903
ക്കെതിരേ	-10.3904
▁പവാറ	-10.3908
▁നടപ്പാക്കിയ	-10.3908
▁പാര്‍ട്ടിയെ	-10.3911
33	-10.3911
▁തീര്‍ത്ത	-10.3919
▁ഭാഗത്ത	-10.3919
▁തെളിവ്	-10.3919
ക്കിടയിൽ	-10.392
▁മോഷണം	-10.3923
നാശ	-10.3927
▁ശാന്ത	-10.3927
▁കൊടുക്കുന്ന	-10.3934
മുണ്ടെന്നും	-10.3935
▁ജീവനക്കാരുടെ	-10.394
▁മാനേജ	-10.3944
▁റോബിന്‍	-10.3947
L	-10.395
▁ധര്‍മ	-10.395
▁ലഭ്യമായ	-10.395
▁അമൃത	-10.395
49	-10.3951
▁മണിക്കൂറിനുള്ള	-10.3954
▁കോര്‍പ്പറേഷന	-10.3958
▁മദ്യം	-10.3959
▁ശേഖരിക്ക	-10.3961
▁എന്നോട്	-10.3961
▁താമസം	-10.3964
▁ടാക്	-10.3965
▁മോഹ	-10.3966
വട്ടം	-10.3966
▁വ്യക്തമാക	-10.3972
ഘട	-10.3972
▁താമസിക്ക	-10.3977
▁സംസ്ഥാനത്തിന്	-10.3991
ാനാവും	-10.3996
▁നശിപ്പിച്ച	-10.3997
പട	-10.3998
▁രക്ഷാപ്രവര്‍ത്ത	-10.4
▁വരുമ്പോള്‍	-10.4
▁ആവിഷ്	-10.4001
▁പ്രവേശിപ്പിച്ചു	-10.4003
▁കൗണ്‍സില്‍	-10.4004
▁സ്ഥലത്തെത്തി	-10.4007
▁തുടർന്നാണ്	-10.4008
എഫ	-10.401
▁ട്രെ	-10.4012
▁ആശ്വാസം	-10.4015
▁ഏർപ്പെടുത്തിയ	-10.4016
▁85	-10.4023
▁ചെങ്ക	-10.4023
▁59	-10.4026
പ്രവര്‍ത്തകര	-10.4028
▁കെടി	-10.403
51	-10.4032
▁ഇംഗ്ലീഷ	-10.4043
▁ഉത്സവ	-10.4043
▁ഒക്ടോബർ	-10.4043
▁ശേഷവും	-10.4043
▁കൈവരിക്ക	-10.4045
▁ഉത്തരവാദിത്തം	-10.4047
മുണ്ടെന്ന്	-10.4049
▁പ്രതികരണവുമായി	-10.405
▁പിറക	-10.4053
▁പോലീസും	-10.4056
ിലേയ്ക്ക്	-10.4062
ടച്ച	-10.4064
ശേഷി	-10.4066
▁യുപിയില്‍	-10.407
▁കൊച്ചിയില്‍	-10.4072
▁ഏറ്റ	-10.4073
▁സ്ഥലങ്ങളില്‍	-10.4074
ഫ്ര	-10.4075
വേദന	-10.4076
▁തങ്ങളെ	-10.4077
▁രാജ്യങ്ങളും	-10.4083
▁രക്ഷാ	-10.4083
ഒരു	-10.4088
▁ഒന്നിന്	-10.4088
▁അഭിസംബോധന	-10.409
▁കോർപ്പറേഷൻ	-10.409
▁ഡിപ്ലോമ	-10.409
▁ഫലപ്രദമ	-10.409
▁സെന്റര്‍	-10.409
▁തികച്ച	-10.409
▁ഒട്ടും	-10.4091
▁തരൂര്‍	-10.4092
▁കൂളുകള	-10.4092
▁മാധവ	-10.4092
▁ഭാഗങ്ങളില്‍	-10.4097
▁നെഹ്	-10.4098
ിക്കപ്പെട്ട	-10.4103
▁പേർക്കാണ്	-10.4105
▁സീറ്റിലും	-10.4106
ാനാകില്ല	-10.411
▁നിക്ഷേപം	-10.4114
▁ഇറക്കിയ	-10.4115
▁ശ്രമിച്ചു	-10.4118
41	-10.4123
46	-10.4123
വാർ	-10.4126
▁സമ്മത	-10.413
▁ദിവസമായി	-10.4131
▁മറ്റൊന്ന	-10.4132
ുതന്നെ	-10.4134
▁ജുനൈസ	-10.4137
▁ഗവര്‍ണറ	-10.4137
▁വിഹിതം	-10.4137
▁ഫിലിപ്പ	-10.4137
▁പ്രതാപ	-10.4138
ബാദ	-10.4138
▁കേരളത്തിലേക്ക്	-10.4139
▁സംഘടനകള	-10.4142
▁ഇടിച്ച	-10.4143
▁ഇത്തരത്തിലുള്ള	-10.4143
▁ഉദ്ദേശ	-10.4144
▁മജിസ്	-10.4149
ാകട്ടെ	-10.415
▁ഫസ്റ്റ്	-10.4152
▁കാരണമ	-10.4156
▁ആരോപിച്ചിരുന്നു	-10.4158
ത്തിലധികം	-10.416
▁ഡ്രൈവര്‍	-10.4167
▁മുക്ക	-10.4173
ഭ്യ	-10.4182
▁ഷോപ്പ	-10.4184
▁അതുകൊണ്ടുതന്നെ	-10.4184
▁നിയോജക	-10.4184
▁ബംഗ്ലാദേശ	-10.4184
▁സന്ദര്‍ശിക്ക	-10.4184
▁അഫ്ഗാനിസ്ഥാന	-10.4184
▁ധീര	-10.4184
▁ശുഭ	-10.4186
▁ലഭിക്കുമെന്ന	-10.4189
▁സ്റ്റോറ	-10.419
▁പരിശോധനയില്‍	-10.419
▁താലിബാന	-10.4194
▁പണമ	-10.4196
▁നിർമാണ	-10.4199
ിരിക്കുന്നതെന്ന	-10.4199
▁രീതിയിലുള്ള	-10.42
▁രാജസ്ഥാന	-10.4208
▁പുരുഷൻ	-10.4214
▁ആളുകളുടെ	-10.4219
രുതെന്ന	-10.4223
▁വീടിന്റെ	-10.4228
▁കോളേജിൽ	-10.4231
▁വാർത്തകൾ	-10.4231
▁മത്സ്യബന്ധന	-10.4232
▁വേട്ടയാട	-10.4232
▁ആത്മവിശ്വാസം	-10.4232
▁തളിപ്പറമ്പ	-10.4232
▁നിരോധിച്ച	-10.4232
▁പരിമിത	-10.4233
▁പുറപ്പെട്ട	-10.4233
43	-10.4238
▁മൂലമ	-10.4238
▁നേടാന	-10.4243
▁ജന്മ	-10.4247
▁ലോക്ക്ഡൗണ്‍	-10.4248
വർക്കും	-10.4248
▁കഴിയില്ലെന്ന	-10.4248
▁കുട്ടികൾ	-10.4258
▁കുടുംബത്തെ	-10.4259
ക്ഷേപ	-10.4259
▁അയച്ചത്	-10.4261
▁നിധി	-10.4262
▁ചുമതലയുള്ള	-10.4263
▁ആചാര	-10.4266
▁കോളജ്	-10.4278
▁തൊഴിലാളികളെ	-10.4279
▁ഓൺലൈൻ	-10.428
▁എൻഡിഎ	-10.428
▁ക്രൈം	-10.428
▁പരിശ്രമ	-10.4281
▁രാജ്യങ്ങളിൽ	-10.4282
34	-10.4287
▁അടിസ്ഥാനത്തില	-10.4291
▁I	-10.4292
▁പ്രദേശത്തെ	-10.4297
▁അവിശ്വാസ	-10.4297
▁വിക്കറ്റ	-10.4297
▁അയച്ചു	-10.4301
83	-10.4303
▁അമ്മയുടെ	-10.4305
യിടങ്ങള	-10.4309
▁സെല്ല	-10.4311
സ്റ്റര്‍	-10.4313
▁പ്രകാരമാണ്	-10.4314
▁തടഞ്ഞു	-10.4315
▁മിഷന്‍	-10.4318
▁പ്രദേശങ്ങളില	-10.4319
▁സര്‍വ്വീസ	-10.4323
▁കക്ഷികള	-10.4325
▁ഒന്‍പത	-10.4325
▁പൊട്ട	-10.4327
▁ശശീന്ദ്രന	-10.4328
▁സിദ്ധരാമയ്യ	-10.4328
▁ആയിരക്കണക്കിന	-10.4328
ബ്രി	-10.4329
▁കുടുംബത്തിന്	-10.4332
▁പാവപ്പെട്ട	-10.4333
▁വട്ട	-10.4333
▁സീറ്റുകളാണ്	-10.4335
▁ഘട്ടം	-10.4335
▁ഒഴിവുകള	-10.4335
▁എന്നിങ്ങന	-10.4338
▁തൃണമൂല	-10.4338
▁ചിത്രത്തില്‍	-10.4342
ിക്കൊണ്ടിരിക്ക	-10.4343
▁ഉണ്ടാകുമെന്ന	-10.4344
▁മറു	-10.4344
ലേഖ	-10.4345
ുണ്ടാക്കുന്ന	-10.4348
▁വീടുകള്‍	-10.4348
▁പറയേണ്ട	-10.4351
▁ജനങ്ങൾക്ക്	-10.4354
▁പ്രവചിക്ക	-10.4359
▁നെഞ്ച	-10.436
എസ	-10.436
▁പറ്റില്ല	-10.4361
ുന്നുണ്ടെന്ന്	-10.4364
ല്ലൂര്‍	-10.4364
സാധ്യത	-10.4365
സ്വാമി	-10.4365
▁ചാനല്‍	-10.4367
▁ഇല്ലെന്ന്	-10.4371
▁കൂടുതലായി	-10.4371
▁ചെയ്യുമ്പോള്‍	-10.4372
▁തുടങ്ങിയവര്‍	-10.4375
സ്റ്റർ	-10.4375
▁ഗെയിമ	-10.4376
▁നിര്‍മ്മിച്ച	-10.4376
▁ബഹള	-10.4376
▁മനോഹര	-10.4378
▁വളർച്ച	-10.4379
നിന്നും	-10.438
മുട്ട	-10.4381
▁കാര്യമില്ല	-10.4381
▁രമ്യ	-10.4384
▁ജലീല	-10.4387
പ്പോലെ	-10.4392
▁ജയരാജന	-10.4392
യെക്കുറിച്ച്	-10.4392
▁ജില്ലകളിലെ	-10.4394
▁പോസിറ്റീവായ	-10.4394
▁അയാള്‍	-10.4396
പെട	-10.4402
▁ഉദ്ദേശിക്കുന്ന	-10.4402
▁ആഗ്രഹം	-10.4406
▁സിജന്‍	-10.4407
സ്ഥാപന	-10.4414
ക്ഷേമ	-10.4414
രാത്രി	-10.4415
▁പെണ്‍കുട്ടിയെ	-10.4415
▁ജയിലില	-10.4416
▁അവൾ	-10.4418
ടെക്	-10.4421
▁അഭിനന്ദിച്ച	-10.4425
▁ഗെഹ്ലോട്ട	-10.4425
▁തൃശ്ശൂർ	-10.4425
▁സിസിടിവി	-10.4425
▁തിയതി	-10.4425
▁സീസൺ	-10.4426
▁കേന്ദ്രീകരിച്ച്	-10.4426
ിട്ടുണ്ടെന്നാണ്	-10.443
▁റണ്‍സ്	-10.4434
യിൻ	-10.4435
▁പരിചയം	-10.4438
▁ടാസ്ക	-10.4448
▁ഭി	-10.445
▁ഉള്‍പ്പെട്ട	-10.4454
▁കെജ്രിവാള്‍	-10.4456
▁സീറ്റും	-10.4459
ുന്നതിലൂടെ	-10.4459
▁നിഷേധിക്ക	-10.446
52	-10.446
സാഹ	-10.4462
▁വിശദ	-10.4463
▁വിളിക്കുന്ന	-10.4465
▁സർവകലാശാല	-10.4474
▁എന്‍ഐഎ	-10.4474
▁കിഫ്ബി	-10.4474
▁ബ്രാഞ്ച്	-10.4474
▁ശ്രമങ്ങള	-10.4475
▁ചൊല്ലി	-10.4477
ദാസ്	-10.4479
▁നിർദ്ദേശിച്ച	-10.4483
▁മോശമായി	-10.4484
▁വിശ്രമ	-10.4484
▁പ്രകോപന	-10.4484
▁സഖ്യത്തിന്	-10.4489
▁നിരീക്ഷണം	-10.4493
▁സാമ്പത്തികമായി	-10.4496
▁പാവ	-10.4497
▁കാരണമെന്ന	-10.4498
▁പെരുമാറ്റ	-10.4501
▁ഷഹ	-10.4508
▁മോദിയെ	-10.4513
മല്ലാത്ത	-10.4517
▁കാരിക	-10.452
▁യുവാക്കള	-10.452
▁കയറ്റുമതി	-10.4523
▁യൂണിവേഴ്	-10.4523
▁ശിവശങ്കറ	-10.4523
▁ഹരീഷ്	-10.4523
▁കഠിന	-10.4523
▁ശുക്രന	-10.4523
▁ലൈസന്‍സ	-10.4523
▁ചെലവഴിച്ച	-10.4523
▁വ്യാപിക്ക	-10.4524
▁പാകിസ്താന്‍	-10.4526
500	-10.4528
▁ആരുടെ	-10.4528
▁വനം	-10.453
▁സഹോദരന്‍	-10.4531
മാല	-10.4531
▁വിജയന്റെ	-10.4532
▁കോന്നി	-10.4533
▁ട്രെയിന്‍	-10.4536
യൊന്നും	-10.4537
▁സജീവമായ	-10.4537
▁ഒന്നാണ്	-10.4539
▁സംഘത്തിന്	-10.454
▁ബോർഡ	-10.4542
ിനൊപ്പമ	-10.4543
▁സായ്	-10.4544
▁വഞ്ചി	-10.4546
▁തരംഗം	-10.4553
▁രീതിയിലാണ്	-10.4559
▁ആഗ്രഹിച്ച	-10.4564
ായിരുന്നുവെന്നും	-10.4566
▁കുറ്റകൃത്യ	-10.4568
▁പ്രത്യക്ഷ	-10.457
▁വിഭാഗത്തിന്	-10.4572
▁തെരഞ്ഞെടുക്ക	-10.4572
b	-10.4572
▁കത്തയച്ച	-10.4572
▁ഗ്രാമപഞ്ചായത്ത്	-10.4573
▁ചുരുക്ക	-10.4573
▁കാര്‍ഡ	-10.4573
▁വേതന	-10.4575
ശ്ശ	-10.4576
▁ആലോചന	-10.4577
ിറങ്ങി	-10.4581
▁നേമത്ത	-10.4582
▁സംഘടനകള്‍	-10.4582
▁സാധ്യമാക	-10.4583
▁സൈസ്	-10.4592
▁തെറി	-10.4592
ാഘോഷ	-10.4593
മിനി	-10.4601
▁ഹൈക്കമാന്‍ഡ്	-10.4607
▁വിശ്വാസികള	-10.4616
▁കോളേജിലെ	-10.4619
N	-10.4621
▁യൂട്യൂബ	-10.4621
▁മാര്‍ച്ച	-10.4621
▁പത്താം	-10.4622
▁നിര്‍മിക്ക	-10.4626
കുമാരി	-10.4627
▁ഇടിഞ്ഞ	-10.4628
▁സഭയില്‍	-10.4631
▁പഞ്ചാബില്‍	-10.4631
▁മിന്ന	-10.4641
പട്ടിക	-10.4644
▁പേരിലാണ്	-10.4646
▁രണ്ടര	-10.4648
▁അന്വേഷണത്തിന്	-10.4649
▁വ്യക്ത	-10.465
▁വിവരങ്ങളും	-10.4659
ജീവിത	-10.466
▁ഞങ്ങളെ	-10.4661
▁68	-10.4663
▁കയറ്റി	-10.4663
▁പോയിന്റ	-10.4666
▁പദ്ധതികൾ	-10.4669
F	-10.4671
O	-10.4671
▁ട്വന്റി	-10.4671
▁കൈവശമ	-10.4671
▁ജനവിധി	-10.4671
▁കമ്മിഷന	-10.4672
▁ബിസിനസ	-10.4672
▁നേതാവിന്റെ	-10.4684
▁വീടുകളിലും	-10.4687
▁വ്യത്യസ്തമായ	-10.4689
▁വാങ്ങാന്‍	-10.4693
വാസികള	-10.4694
▁റഫ	-10.4702
▁ഒരുപോലെ	-10.4705
ജീവന	-10.4705
▁ഫോമ	-10.4706
▁ലീഗിന്റെ	-10.4711
പ്പെടുകയും	-10.4711
ശുദ്ധ	-10.4712
ുന്നതിലും	-10.4718
▁വ്യക്തമായി	-10.4719
▁വികാര	-10.4721
▁പലയിടത്തും	-10.4721
▁എക്സ്പ്രസ	-10.4721
▁പതിനൊന്ന	-10.4721
▁ആരോഗ്യവകുപ്പ്	-10.4721
▁ചിങ്ങം	-10.4721
▁മെച്ചപ്പെടുത്ത	-10.4722
▁ധനകാര്യ	-10.4725
▁വിഭാഗത്തിന്റെ	-10.4725
▁സർവേ	-10.4727
▁ടാ	-10.4728
▁തകര	-10.4729
ൃതി	-10.4737
▁നാട്ടിലെ	-10.4738
▁പവാര്‍	-10.4738
▁കുടുംബത്തിന്റെ	-10.4741
▁പ്രതിഫലം	-10.4742
▁പ്രചാരണത്തിന്	-10.4743
▁അനുസരിച്ച	-10.4744
▁രണ്ടുപേര	-10.475
▁സീറ്റുകളിൽ	-10.4752
▁ഘട്ടത്തിൽ	-10.4757
ന്വേഷണ	-10.4758
▁C	-10.476
തെന്നായിരുന്നു	-10.4761
▁പിന്മാറ	-10.4765
▁ജെഡിയു	-10.4769
▁ലഭ്യമാക	-10.4771
▁ജിഹാദ	-10.4772
▁അധികൃതര	-10.4774
▁നന്ദ	-10.4779
▁ആനന്ദ്	-10.4779
▁വിജയിച്ചു	-10.4782
▁ഒളി	-10.4785
▁കൊറിയ	-10.479
▁അഭിനയ	-10.4795
ായിരുന്നില്ല	-10.4796
▁ബന്ദ	-10.4798
▁വ്യക്തത	-10.4803
▁മോഹന	-10.4807
▁കുഴപ്പ	-10.4807
▁റഷ്യയുടെ	-10.4808
ര്‍മാര്‍	-10.4808
▁ലുക്ക	-10.4811
▁400	-10.4813
▁ശക്തമാക്കിയ	-10.4814
▁സച്ചിന	-10.4818
▁തടയാന്‍	-10.4818
▁സിദ്ദുവ	-10.4819
▁അതിനായി	-10.482
▁ആശുപത്രികളിലും	-10.482
േണ്ടതുണ്ടെന്ന	-10.4821
▁നാശനഷ്ട	-10.4822
▁ഉദ്ധവ്	-10.4822
▁ദുര്‍ബല	-10.4822
▁വെബ്സൈറ്റ	-10.4822
ോത്സവ	-10.4822
▁ആരിഫ്	-10.4822
▁ഡിഗ്രി	-10.4822
▁വമ്പന്‍	-10.4822
▁സൂപ്പർ	-10.4822
▁അനുഭവപ്പെട	-10.4824
▁പ്രവചന	-10.4825
ാബാദ്	-10.4828
▁വിഭാഗത്തിൽ	-10.4829
▁അതോടൊപ്പം	-10.4829
▁കുഴി	-10.4834
▁വളര	-10.4836
▁ഏറ്റുമുട്ടല	-10.4838
▁വ്യവസായി	-10.4838
▁അയ്യപ്പ	-10.4838
▁94	-10.4838
കൃഷ	-10.4839
ഭക്ത	-10.4845
▁മലയാളികള്‍	-10.4845
▁കാര്യങ്ങളില്‍	-10.4849
▁കാറ്റിന	-10.485
'-	-10.4851
▁ആക്ഷേപം	-10.4852
▁എതിരായ	-10.4854
▁വരുന്നുണ്ട്	-10.4858
▁ചിത്രത്തിന്റെ	-10.486
▁ജലീല്‍	-10.4862
▁സൗകര്യങ്ങള	-10.4865
▁പശ്ചാത്തല	-10.4866
▁ദക്ഷിണാഫ്രിക്ക	-10.4873
▁ബഹിരാകാശ	-10.4873
▁റെക്കോർഡ	-10.4873
▁ശ്രീനിവാസ	-10.4873
▁ഭരണാധികാരി	-10.4873
▁നിര്‍മിച്ച	-10.4874
▁ശത്രു	-10.4877
▁നല്‍കുകയും	-10.4882
▁ധനു	-10.4883
▁നമ്മള	-10.4888
▁കോട്ടയത്ത്	-10.489
ിരുന്നെങ്കില്‍	-10.4891
▁സംഘവും	-10.4891
▁ഹൈദരാബാദ	-10.4897
▁ഉപകരണങ്ങള	-10.49
▁നിലയ്ക്ക	-10.4904
▁വിക്കറ്റ്	-10.4908
▁തീരത്ത്	-10.491
▁വെള്ളി	-10.491
▁പ്ലാന്റ	-10.4913
▁മറുപടിയുമായി	-10.4917
▁സ്ത്രീകളും	-10.4917
▁ബോളിവുഡ	-10.4924
▁സന്ദർശിച്ച	-10.4924
▁മണിക്കൂർ	-10.4924
▁മത്സ്യത്തൊഴിലാള	-10.4924
▁69	-10.4924
▁റെക്കോര്‍ഡ്	-10.4925
▁നിയമങ്ങള്‍	-10.4926
▁സ്വീകരണ	-10.4929
▁ചൈനയുടെ	-10.4936
വരേയും	-10.4943
▁74	-10.4948
ശന	-10.4948
▁താലൂക്ക	-10.4949
▁ചോദ്യങ്ങള്‍	-10.4955
▁ട്രംപിന്റെ	-10.4959
▁സാക്ഷികള	-10.4959
▁ഓഫീസിൽ	-10.4965
യാള്‍	-10.4973
▁ഉറ്റുനോക്ക	-10.4975
▁അതിശക്തമായ	-10.4975
▁താരതമ്യം	-10.4975
▁പ്രതികൂല	-10.4975
▁പുറപ്പെട	-10.4977
▁കുടുംബശ്രീ	-10.4978
▁മുന്നേറ	-10.4981
▁കഴുത്ത	-10.4986
▁പോളിങ്	-10.4989
▁അതിലൂടെ	-10.4989
ക്കോട്ട	-10.4995
▁ഉൾ	-10.4999
▁66	-10.5
▁അമരീന്ദ	-10.5005
▁വോട്ടിന്റെ	-10.501
വാള്‍	-10.501
▁സംവരണം	-10.5018
▁വികാരം	-10.5026
ചന്ദ്ര	-10.5026
▁നറുക്കെടുപ്പ	-10.5026
▁ഒഡീഷ	-10.5026
▁ക്രൂഡ്	-10.5027
▁പ്രക്രിയ	-10.5027
ഗ്രാമ	-10.5029
▁അടങ്ങിയ	-10.5029
▁പ്രസവ	-10.5029
▁സിദ്ദു	-10.503
കളുണ്ട്	-10.5039
▁അന്വേഷണത്തില്‍	-10.5039
▁പിടിക്കാന്‍	-10.5039
▁മോഹന്‍ലാല	-10.5041
▁ഓഫീസുകള	-10.5044
▁സ്ഥാ	-10.5046
▁കാലയളവില്‍	-10.5049
യാട്	-10.5055
▁വീര	-10.506
സമ്മേളന	-10.5064
▁ഇതാ	-10.5067
ുണ്ടാക്കി	-10.5068
▁പെട്രോള്‍	-10.5069
▁സഹോദരന	-10.5069
▁പ്രവര്‍ത്തകരെ	-10.5071
▁ഇപ്പോഴ	-10.5077
▁കീഴടങ്ങ	-10.5078
▁ആണ്‍കുട്ടി	-10.5078
▁സെറീന	-10.5078
▁ജയരാജൻ	-10.5078
▁ഇറാഖ	-10.5078
▁സങ്കട	-10.5079
▁ചൊ	-10.5079
▁അഭ്യൂഹ	-10.5083
നകം	-10.5084
▁വകുപ്പുകള്‍	-10.5084
▁കുത്തനെ	-10.5086
▁മിണ്ട	-10.5087
▁ഉദ്യോഗസ്ഥരുടെ	-10.5088
▁തെളിവുകള	-10.5089
▁പരിശോധിച്ചത്	-10.509
▁സ്റ്റേഷന്‍	-10.5091
▁അവകാശപ്പെട്ട	-10.5093
ക്കുറവ	-10.5096
▁ഇസ്ലാമ	-10.5098
▁സെറ്റ	-10.5098
▁സൗജന്യമായി	-10.511
▁പുരോഗമിക്ക	-10.5117
▁അല്ലാത്ത	-10.5121
▁സിപിഎമ്മിന്	-10.5127
▁ഒഴുക	-10.5127
▁മാനദണ്ഡങ്ങള്‍	-10.5129
▁താപനില	-10.513
▁നിബന്ധന	-10.513
▁ഗവണ്‍മെന്റ	-10.513
▁മറ്റൊരാള	-10.5131
▁ചാറ്റ	-10.5131
▁അച്ചടക്ക	-10.5133
▁ഒഴുക്ക	-10.5133
▁കാർഡ	-10.5135
▁കര്‍ഷകരുടെ	-10.5135
▁അപകടത്തിൽ	-10.5139
▁വേണുഗോപാല	-10.5145
▁ദിനത്തില്‍	-10.5153
സൺ	-10.5155
▁ഹൈദരാബാദ്	-10.5157
▁സിനിമയിലെ	-10.5162
▁നഗരങ്ങള	-10.5164
▁സെൽ	-10.5168
▁നാഥ്	-10.5168
സമിതി	-10.5174
▁പ്ലേ	-10.5175
▁ഉപേക്ഷിക്ക	-10.5183
▁പ്രസിദ്ധീകരിച്ച	-10.5183
▁പച്ചക്കറി	-10.5183
▁ഉത്തര്‍പ്രദേശില	-10.5183
▁മൂന്നാമത്തെ	-10.5184
▁ജോജു	-10.5192
▁മേഖലകളിൽ	-10.5193
▁തൂക്ക	-10.5194
▁സെമി	-10.5194
▁എന്താണെന്ന്	-10.5199
▁പൊലീസിന്റെ	-10.5199
▁നായര	-10.5206
▁ഏതു	-10.5206
▁ഇവർക്ക്	-10.5206
പേര്‍	-10.5207
▁മാരാര	-10.521
ിനായുള്ള	-10.521
▁ക്രിക്കറ്റ	-10.5212
▁സ്റ്റാഫ്	-10.522
▁തരത്തില്‍	-10.5221
▁ഡോക്ടർ	-10.523
▁കമല്‍നാഥ്	-10.5232
▁അഭിമുഖത്തില്‍	-10.5232
▁ഹൈക്കമാന്റ	-10.5235
▁ഓരോരുത്തര	-10.5235
▁ശൈലി	-10.5235
▁കീഴിൽ	-10.5236
▁രാജിവെക്ക	-10.5236
▁ക്യാംപ	-10.5237
▁പരിസ്ഥിതി	-10.5237
▁ക്വാഡ	-10.5237
▁റ്റോ	-10.5238
▁മൗന	-10.524
▁മന്ത്രിസഭാ	-10.5242
▁സംവിധായകന	-10.525
▁അമേരിക്കയില്‍	-10.5253
മുറി	-10.5253
▁തിരിച്ചടിയാണ്	-10.526
▁ഉരു	-10.5267
യിലേക്കും	-10.5268
തുമാണ്	-10.527
▁മരണത്തിന്	-10.5276
▁കണ്ടെടുത്ത	-10.5279
ഏ	-10.5282
▁ഉള്‍പ്പെടുത്ത	-10.5285
▁പലസ്തീന	-10.5288
▁നിയമനടപടി	-10.5291
▁മനസ്സിലായ	-10.5298
▁അണികള	-10.5298
▁അവകാശപ്പെടുന്നത	-10.5299
▁മതിയെന്ന	-10.53
▁കൊച്ചു	-10.5305
യുണ്ടായിരുന്ന	-10.5308
▁മറിച്ച്	-10.5308
▁എല്‍ഡിഎഫിന്	-10.531
ര്‍ദ്ദ	-10.5314
▁സെന്ററുകള	-10.5316
▁തുടരുന്നു	-10.5329
▁കമ്പനികള	-10.5332
▁ഉയര്‍ന്നിരുന്നു	-10.5332
▁ആംബുലന്‍സ	-10.5341
▁ഔട്ട്	-10.5341
▁സമ്മർദ്ദ	-10.5341
പ്പോയി	-10.5342
▁എന്നിരുന്നാലും	-10.5342
▁സംഖ്യ	-10.5344
▁സംസ്കാര	-10.5348
▁പാടില്ലെന്ന	-10.535
▁എംഎം	-10.535
▁ക്രിമിനല്‍	-10.5352
58	-10.5355
▁പിടിച്ചെടുക്ക	-10.5356
▁വര്‍ധിപ്പിച്ച	-10.5356
ഷണല്‍	-10.536
▁ചെയ്താല്‍	-10.5361
ാരംഭ	-10.5364
▁ആരാധകർ	-10.5368
യോഗ്യ	-10.5373
▁തിരഞ്ഞെടുപ്പിനെ	-10.5377
തിനേക്കാള്‍	-10.5379
▁എല്ലാവരെയു	-10.5383
▁കേസുകളുടെ	-10.5386
ുകയുമായിരുന്നു	-10.5389
▁സംസാര	-10.5392
നഗർ	-10.5392
▁അനുഭവിച്ച	-10.5393
▁ആളുകള്‍ക്ക്	-10.5394
▁മരണമടഞ്ഞ	-10.5395
▁കൂട്ടായ്മ	-10.5395
▁കോര്‍പറേഷന	-10.5395
▁ആവര്‍ത്തിക്ക	-10.5395
▁റോബിൻ	-10.5395
▁ലളിത	-10.5397
▁സമ്മതിക്ക	-10.5398
▁തീരദേശ	-10.5398
▁ദിലീപിനെ	-10.5399
ിനുള്ളിൽ	-10.5399
▁തനിക്കെതിരെ	-10.5399
▁അടച്ചിട	-10.5402
▁വനംവകുപ്പ്	-10.5402
▁സംവരണ	-10.5405
▁പെന്‍ഷന്‍	-10.5409
▁വിഭാഗത്തില	-10.5416
▁പേരുടെയും	-10.5418
▁നേട്ടങ്ങള	-10.5419
തുപോലെ	-10.5425
ുമെന്നായിരുന്നു	-10.5428
▁കാപ്പന്‍	-10.5433
▁മുന	-10.5434
▁ബൂത്തുകള	-10.5434
▁വിശാല	-10.544
▁ദശലക്ഷം	-10.5449
▁ജൂലായ	-10.545
▁ഉറങ്ങ	-10.5452
▁റെയില്‍	-10.5452
▁ഡയ	-10.5453
തിനുശേഷം	-10.5457
▁ലാല്‍	-10.5464
▁എന്നിവർക്ക	-10.5464
▁ഉണ്ടായിട്ടില്ല	-10.5466
▁മുപ്പത	-10.547
ിനടുത്ത	-10.5474
▁മുകളിലുള്ള	-10.5474
▁ഭീഷണിപ്പെടുത്ത	-10.5477
ാതിരുന്നത്	-10.548
▁നിരോധനം	-10.548
▁ആസാദ്	-10.5481
▁നദ്ദ	-10.5481
▁ഒളിവില	-10.5486
വിശ്വാസ	-10.549
▁ലൈറ്റ	-10.549
▁77	-10.5491
▁മറിച്ച	-10.5493
▁രാജാവ	-10.5499
ഭൂമി	-10.5499
▁ഡിസംബറ	-10.5503
▁ശുപാര്‍ശ	-10.5503
▁ആവര്‍ത്തിച്ച	-10.5503
▁പഠിപ്പിക്ക	-10.5503
▁രാജ്യത്തിന്	-10.5506
▁പൂട്ട	-10.5506
▁വൈദ്യ	-10.5509
▁ദിവസത്തിനുള്ള	-10.5511
▁തീര്‍ക്ക	-10.5511
ിരുന്നുവെങ്കിലും	-10.5513
▁ഇതൊന്നും	-10.5516
▁സ്റ്റേഷനില്‍	-10.5517
ര്‍ട്ടിഫിക്കറ്റ്	-10.5517
▁വായിച്ച	-10.5517
▁ബാങ്കുകള	-10.552
▁സ്ഥിരീകരിച്ചവര	-10.5528
ar	-10.5528
▁പ്രമുഖര	-10.5538
▁തെളിയിച്ച	-10.5541
▁ലൈവ	-10.5544
▁തെര	-10.5553
▁അഭിഭാഷകന്‍	-10.5556
▁താല്‍പ്പര്യ	-10.5557
▁പൊതുമരാമത്ത്	-10.5557
▁സെക്യൂരിറ്റി	-10.5557
▁എഞ്ചിനീയറ	-10.5557
▁ഒഴികെ	-10.5557
▁പന്ത്രണ്ട	-10.5557
▁വാണിജ്യ	-10.5557
▁സമ്മര്‍ദ്ദ	-10.5557
▁വഷളാ	-10.5559
ുകയുള്ളൂ	-10.5568
▁സാറ	-10.5571
▁മാർഗ	-10.5571
▁നിപ	-10.5575
▁ബുക്ക	-10.5577
▁ഉണ്ട	-10.5577
▁നിര്‍ദേശങ്ങള്‍	-10.5578
▁അഭിപ്രായപ്പെട	-10.5578
യാണെന്നാണ്	-10.558
▁ബിജെപിയിലേക്ക്	-10.5582
▁ടൂ	-10.5587
▁ചടങ്ങിൽ	-10.559
▁വികസ	-10.559
▁കൊട്ട	-10.5591
▁സ്ത്രീകളുടെ	-10.5592
ുകയുണ്ടായി	-10.5594
▁നോക്കാം	-10.5597
▁താല്‍പര്യം	-10.561
▁പുലർച്ചെ	-10.5612
▁കളമശ്ശേരി	-10.5612
▁ബഹിഷ്	-10.5612
▁പ്രചരിപ്പിച്ച	-10.5612
▁നിവാരണ	-10.5612
▁വിരാട്	-10.5612
▁വിചാരിച്ച	-10.5612
▁ഒഴിയ	-10.5613
▁മറച്ചു	-10.5613
▁ഒറ്റയ്ക്ക്	-10.5614
▁വാക്സിനേഷന	-10.5614
ാമത്തെ	-10.5615
▁യുവജന	-10.5616
▁ഇരയായ	-10.562
ക്യൂ	-10.5621
▁ബീഹാറ	-10.5627
▁ഇളവ	-10.5633
ാനാകും	-10.5639
▁ഷാജ	-10.5642
ുണ്ടാകുമെന്ന	-10.5643
▁ഉണ്ടെന്നും	-10.5655
▁ലക്ഷദ്വീപ്	-10.566
▁ലക്ഷത്തോള	-10.5664
▁അഭിനന്ദന	-10.5667
▁യെഡിയൂരപ്പ	-10.5667
▁കാഞ്ഞിരപ്പള്ളി	-10.5667
▁രാമക്ഷേത്ര	-10.5667
▁അനുവദിക്കില്ല	-10.5668
വീണ	-10.5668
▁മീറ്ററ	-10.567
▁മേഘ	-10.5671
പേർ	-10.5673
▁ഇരിക്കുന്ന	-10.5673
▁സമീപത്തെ	-10.5675
▁ചികിത്സയിൽ	-10.5676
▁കാത്തിരിക്കുന്ന	-10.5679
▁ജോഷി	-10.568
▁വിവരങ്ങള	-10.5685
▁ചിലവ	-10.5687
യിലുണ്ട്	-10.5691
▁പറയുകയും	-10.5692
▁ജയില	-10.5693
▁വിദഗ്ധര	-10.5697
▁പ്രവർത്തി	-10.5698
▁കാഴ്ച്ച	-10.5699
▁ഡല്‍ഹിയില്‍	-10.5704
▁വര്‍ധ	-10.5705
▁തുടക്കത്തില്‍	-10.5706
▁കമ്പനികള്‍	-10.5706
ുകയാണെന്ന	-10.5709
സംഘടന	-10.5717
M	-10.5718
▁ട്വിറ്ററില്‍	-10.5719
▁പുലി	-10.5721
▁അതോ	-10.5721
▁ഞെട്ടിക്കുന്ന	-10.5722
▁ഗംഭീര	-10.5722
▁താത്കാലിക	-10.5722
▁ആഫ്രിക്ക	-10.5722
▁ഉപദ്രവ	-10.5722
▁നല്ക	-10.5722
▁അഗ്നി	-10.5722
▁മുക്തി	-10.5723
യോടും	-10.5726
▁അബ്ദുള്‍	-10.5727
▁ക്ഷണിക്ക	-10.573
▁അഭിനയിക്ക	-10.5739
▁സീറ്റിൽ	-10.5741
▁പൂർണ്ണ	-10.5741
▁ളാ	-10.5741
▁ഓടെ	-10.5746
ാധികാര	-10.5751
▁സഞ്ജു	-10.5756
▁തവണയാണ്	-10.5759
▁കേരളത്തിലും	-10.5762
ദാര്‍	-10.5764
▁നിത്യ	-10.5767
▁സംസ്ഥാനങ്ങളിലും	-10.5769
▁തൊടുപുഴ	-10.5777
▁രോഗലക്ഷണങ്ങള	-10.5777
▁സെഞ്ച്വറി	-10.5777
▁ഇരിട്ടി	-10.5778
▁മാരാർ	-10.5778
▁തലമുറ	-10.578
മേല്‍	-10.5781
▁വിവേക	-10.5782
▁മാതാവ	-10.5782
കുല	-10.5782
▁തരൂര	-10.579
▁എംബി	-10.579
പിള്ള	-10.5793
കുള	-10.5795
▁അറിയാതെ	-10.5798
▁മുടി	-10.5802
▁ഒമ്പത	-10.5805
▁ഫേസ്ബുക്ക	-10.5807
▁നിര്‍ദ്ദേശിച്ച	-10.5816
▁വരുമെന്ന്	-10.5816
▁മാര്‍ക്ക	-10.5817
▁ഉയരുന്നത്	-10.5821
▁പൂട്ടി	-10.5825
▁ശ്രമങ്ങള്‍	-10.5829
▁ലൈന	-10.5832
▁രണ്ടാഴ്ച	-10.5832
▁കാരി	-10.5832
ശക്തി	-10.5833
▁ഉപയോഗപ്പെടുത്ത	-10.5833
▁ആരോ	-10.5833
▁കല്‍പ്പറ്റ	-10.5833
▁വിമര്‍ശിക്ക	-10.5833
▁പതിനഞ്ച	-10.5833
▁മുതലാണ്	-10.5834
▁ശ്രദ്ധേയ	-10.5838
▁കുട്ടികള്‍ക്ക്	-10.5843
ഷിപ്പ	-10.5846
▁ഡ്രൈവർ	-10.5847
▁സംഭവത്തിന്	-10.5848
▁സ്ഥിരമായി	-10.5854
▁കൊണ്ടിരിക്കുന്ന	-10.5862
▁അപ്പോൾ	-10.5867
ക്കെതിരെയുള്ള	-10.5868
▁ജില്ലകളിലായി	-10.5869
▁കാത്തിരുന്ന	-10.587
▁നീക്കങ്ങള്‍	-10.5882
പരിശോധന	-10.5886
▁അനിവാര്യ	-10.589
▁മുന്‍ഗണന	-10.589
▁ഡൗൺ	-10.589
▁അണക്കെട്ട	-10.589
▁വെളിച്ച	-10.589
▁പ്രചരിച്ച	-10.589
▁സെക്കന്‍ഡ	-10.589
▁പലതവണ	-10.5894
▁തൃക്ക	-10.5903
▁തന്നോട്	-10.5906
▁സീസണില്‍	-10.5906
▁ഒഴിവുകള്‍	-10.591
വേദി	-10.5918
▁കുറിക്ക	-10.5921
▁നില്‍ക്കുകയാണ്	-10.5922
▁കുടുംബത്തിലെ	-10.5923
മുദ്ര	-10.5926
▁ചെയ്യുകയാണ്	-10.5927
▁ചാല	-10.5927
ഴിഞ്ഞ	-10.5942
▁ചാലക്കുടി	-10.5946
▁യാഥാര്‍ത്ഥ്യ	-10.5946
▁ക്രമസമാധാന	-10.5946
▁വോട്ടെണ്ണല്‍	-10.5946
ന്‍റ്	-10.5948
▁സിനും	-10.595
▁പടര്‍ന്ന	-10.5951
▁അമ്മയെ	-10.5955
ാണിതെന്ന	-10.5961
▁അയാളുട	-10.5965
▁സമീപിച്ചത്	-10.5967
▁പരിപാടികള്‍	-10.5971
▁സർവ്വീസ	-10.5979
▁അനന്ത	-10.5988
▁ടൈം	-10.599
▁കാരണമായി	-10.599
▁കഞ്ചാവ്	-10.5997
മാധ്യമ	-10.6001
▁ചെയ്യേണ്ടത്	-10.6001
▁കുടിവെള്ള	-10.6003
▁ഗുരുവായൂര	-10.6003
▁നിയോഗിക്ക	-10.6004
▁ആദ്യമായാണ്	-10.6004
▁വയല	-10.6004
▁മിസൈല	-10.6004
▁ആർഎസ്എസ	-10.6004
▁നിശ്ചയിക്ക	-10.6006
▁ഒപ്പമ	-10.6008
▁പ്ലാറ്റ്	-10.6008
▁ജീവിക്കുന്ന	-10.601
▁വികാസ	-10.6015
▁മുറിവ	-10.6017
▁മില്യണ്‍	-10.6018
▁വിശദീകരണ	-10.602
▁വിലയിരുത്തല	-10.6022
▁ജഗ	-10.6023
മോഹൻ	-10.6025
▁ദിവസങ്ങള്‍	-10.6026
രാജ്യങ്ങള	-10.6026
▁മറിയ	-10.6031
▁99	-10.6032
നിയമ	-10.6032
▁പാസാക്കിയ	-10.6039
▁വളർത്ത	-10.604
കാരിയായ	-10.6041
▁പ്പെ	-10.6045
സബ്	-10.6055
അതേസമയം	-10.6058
▁കമ്മീഷണര്‍	-10.606
▁ജാമ്യാപേക്ഷ	-10.606
▁ജ്വല്ലറി	-10.606
▁സൊസൈറ്റി	-10.606
▁ഹോസ്പിറ്റല	-10.606
▁ജില്ലകളിലാണ്	-10.606
▁ഏതൊക്കെ	-10.606
▁ഫാത്തിമ	-10.606
▁ഒടിടി	-10.606
▁മോചന	-10.6061
▁തിളങ്ങ	-10.6061
▁സഖാവ	-10.6061
▁കാലത്തെ	-10.607
▁ടാറ്റ	-10.607
▁സെഷന	-10.6072
▁ചാക്കോ	-10.6074
▁ഉൾപ്പെട്ട	-10.6075
▁83	-10.6076
ത്തിലേക്ക	-10.6083
▁പൊടി	-10.6084
▁പ്രതീക്ഷയിലാണ്	-10.6086
▁ശ്രദ്ധിക്കണം	-10.6091
▁ജോൺ	-10.6091
▁കരണ	-10.6092
വെള്ള	-10.6094
▁നെറ്റ്	-10.6094
▁ഒളിച്ച	-10.6095
▁കാന	-10.61
▁സമയമാണ്	-10.6101
▁അപമാനിച്ച	-10.6103
ത്തിനൊപ്പം	-10.6103
▁നേരിടാന്‍	-10.6107
▁കയറ്റ	-10.6109
▁അവരോട	-10.6112
▁രോഗമുക്തരായി	-10.6116
▁S	-10.6117
▁ഡിജിറ്റല്‍	-10.6117
▁നിരീക്ഷിച്ച	-10.6117
▁വിവേചന	-10.6117
▁ദീർഘ	-10.6117
▁ഒവൈസി	-10.6117
▁ഭിന്നത	-10.6117
▁നിര്‍ണയ	-10.6118
▁ത്രിപുര	-10.6119
ഗോവിന്ദ	-10.6119
പരിധി	-10.6119
▁കുടുങ്ങിയ	-10.6124
▁യുഡിഎഫിന്റെ	-10.6124
ന്നൂര്‍	-10.6127
▁ഓർക്ക	-10.6127
▁ലൂ	-10.6129
ക്കാട്ട	-10.6134
▁വിധേയമാക്ക	-10.6136
▁സര്‍വ്വ	-10.6138
▁ചെയ്യുമെന്ന്	-10.6142
▁ജയിലിൽ	-10.6145
▁തൊഴിലാളികള	-10.6146
നിധി	-10.6148
▁കൂടുതലാണ്	-10.6152
▁എത്തുമെന്ന	-10.6157
▁എംഎൽഎമാര	-10.6158
▁പ്രസിഡന്‍റ്	-10.6158
▁മക്കള്‍	-10.6166
▁അനുപമ	-10.6175
▁വിനയ	-10.6176
▁പിടികൂടി	-10.6177
▁ഡിവൈഎഫ്ഐ	-10.6178
▁എതിര്‍ത്ത	-10.6179
▁നാട്ട	-10.6181
▁കുറ്റക്കാര	-10.6184
ക്കുമെതിരെ	-10.6185
▁സമുദ്ര	-10.6188
▁www	-10.6189
▁തൊഴിലാളികളുടെ	-10.6189
▁അറിയാത്ത	-10.6195
▁വിധിച്ച	-10.6197
▁ബാധിതര	-10.62
▁തിരച്ചില്‍	-10.6202
▁ഗസ്റ്റ്	-10.6223
▁ട്രാക്ക	-10.6228
▁സാധിച്ചിട്ടില്ല	-10.6229
▁പരാതിക്കാരി	-10.6229
▁രാശിയില്‍	-10.6232
▁പാരമ്പര്യ	-10.6233
▁റവന്യൂ	-10.6233
▁സുധാകരന്റെ	-10.6233
▁പുനഃ	-10.6233
▁തുടർച്ചയായി	-10.6234
▁അര്‍ജുന	-10.6236
▁നിയമവിരുദ്ധ	-10.6244
▁ശുദ്ധ	-10.6245
▁വിലയിരുത്തപ്പെട	-10.6252
▁പേരുകള	-10.626
▁താരത്തിന്റെ	-10.6262
▁ഉത്തരവാദിത്വ	-10.6268
▁ഒറ്റക്കെട്ടായി	-10.6268
▁യുഎഇയില്‍	-10.6272
▁വിമാനങ്ങള	-10.6272
ട്രാ	-10.6276
▁നേതൃത്വത്തിലാണ്	-10.6278
▁സംഭവത്തെ	-10.6282
▁പൊലീസുകാര	-10.6282
▁മാത്രമായി	-10.6284
▁വിശദീകരിച്ചു	-10.6286
▁കൈവശം	-10.6292
▁നിഗമനം	-10.6292
▁മൂവാറ്റുപുഴ	-10.6292
▁വിജ്ഞാപന	-10.6292
▁ക്രമക്കേട	-10.6292
▁പൂർത്തിയായ	-10.6292
▁ക്ലിനിക്ക	-10.6292
▁നിര്‍മ്മിക്ക	-10.6293
▁ചോദിക്കുന്നത്	-10.63
പട്ടണ	-10.6301
▁മന്ത്രിമാര്‍	-10.631
▁സർട്ടിഫിക്കറ്റ്	-10.631
▁വർഷമായി	-10.6314
ിട്ടുളള	-10.6315
ൂവെന്ന	-10.6317
▁ഒരുമിച്ച	-10.6325
▁ലഭിക്കാത്ത	-10.6325
▁പുടിന	-10.6333
▁അച്ഛന്‍	-10.6333
▁ശ്രമങ്ങൾ	-10.6333
▁കണ്ണൂര	-10.6336
▁പരിപാടിയിൽ	-10.6336
▁സ്ഥാനാര്‍ത്ഥിയെ	-10.6337
തവണ	-10.6339
▁സൈനികര്‍	-10.6348
▁വർധിപ്പിക്ക	-10.6351
▁സവിശേഷ	-10.6351
▁അവതാരക	-10.6351
▁പീഡിപ്പിക്ക	-10.6351
▁മാർക്കറ്റ	-10.6352
▁ചെലവഴിക്ക	-10.6352
▁ഓര്‍മ	-10.6352
▁ടീമിന്റെ	-10.6353
▁അനുഗ്രഹ	-10.6355
കൊള്ള	-10.6356
▁ബീച്ച	-10.6358
▁അക്ഷയ	-10.6358
▁ഇടവം	-10.6365
▁യുവാക്കള്‍	-10.6367
▁പൊളിക്ക	-10.6367
▁76	-10.6368
▁ഭാഗമായാണ്	-10.637
▁ഇടക്കാല	-10.6372
▁കെജ്രിവാള	-10.6372
▁സൗകര്യങ്ങള്‍	-10.6373
▁ഐസക്	-10.6376
മംഗല	-10.6382
▁മത്സരങ്ങള	-10.6386
▁മുൻകൂ	-10.6392
▁നിതീഷ	-10.64
▁പറഞ്ഞാൽ	-10.6403
രാഷ്ട്ര	-10.6407
പാറ	-10.641
▁ഉച്ചകോടി	-10.641
▁ഹിജാബ്	-10.641
▁ഹെലികോപ്റ്റ	-10.641
▁റിയാദ്	-10.641
▁ഹെല്‍ത്ത്	-10.641
▁ലൈസൻസ	-10.641
▁വൈറല്‍	-10.641
▁അകലെ	-10.6411
▁പുരുഷന്മാര	-10.6411
▁വളരെയധിക	-10.6412
▁ഉറക്ക	-10.6413
▁ഫോഴ്	-10.6414
▁പുരസ്കാര	-10.6414
ിരുന്നുവെന്ന്	-10.6417
▁നേതാക്കളായ	-10.6417
▁ഒത്തു	-10.6428
▁തിരഞ്ഞ	-10.6429
ത്തന്നെ	-10.6429
▁ഒരാളാണ്	-10.6431
▁പത്തു	-10.6432
▁അരുണ്‍	-10.6435
▁ഇറക്കി	-10.6436
▁മലയാളികള	-10.644
▁ലൈൻ	-10.6449
▁ആവശ്യമുള്ള	-10.6454
▁കളയ	-10.6455
▁ഡോക്ടര്‍മാര	-10.6458
▁കിഴക്ക	-10.6458
▁സ്റ്റാര്‍	-10.6463
െടുക്കാന്‍	-10.6467
▁കുറ്റപത്രം	-10.6469
▁ഒരിക്കൽ	-10.6471
▁സമയത്താണ്	-10.6474
▁രക്ഷപ്പെടുത്ത	-10.6476
▁നാട്ടില	-10.6481
▁ഷിജു	-10.6484
▁തൊട	-10.6486
▁(20	-10.6493
▁മണ്ഡലങ്ങളിലും	-10.6496
▁പോള	-10.6499
▁കരിക്ക	-10.6505
▁വയനാട്ടില്‍	-10.6506
▁ഭയന്ന	-10.6506
▁റിക്രൂട്ട്	-10.6516
▁പറ്റാത്ത	-10.6517
യുണ്ടെന്ന്	-10.6518
▁നേതാക്കളുമായി	-10.6521
▁മധ്യപ്രദേശില്‍	-10.6522
ശ്രമ	-10.6526
▁മോശമായ	-10.6528
▁സ്പീക്കറ	-10.6529
▁സ്ഫോടന	-10.6529
▁സന്ദർശിക്ക	-10.6529
▁ബോധ്യപ്പെടുത്ത	-10.6529
▁ഫുട്	-10.6529
▁ആവർത്തിക്ക	-10.653
▁നിർമ്മിച്ച	-10.653
▁രഘു	-10.653
▁ചൂണ്ട	-10.6531
▁ഇല്ലെന്നും	-10.6532
▁കണ്ടെത്താൻ	-10.6535
▁കസ്റ്റഡിയിൽ	-10.6537
▁പാർക്ക	-10.6541
▁5000	-10.6546
താണോ	-10.6546
▁ഏജന്‍സികള്‍	-10.6546
▁സ്റ്റാന്‍ഡ	-10.6549
▁പോട്ട	-10.6549
▁റഷ്യൻ	-10.6549
▁ഗുണകരമ	-10.6553
▁ടീമിനെ	-10.6555
▁നല്ലൊരു	-10.6562
▁അവകാശപ്പെട്ടു	-10.6565
സ്റ്റിറ്റ്യൂട്ട	-10.6565
▁പഞ്ച	-10.6571
▁വിശേഷ	-10.6575
▁വായിക്ക	-10.6577
▁ലിങ്ക	-10.6578
▁ഇലക്ട്രോണിക്	-10.659
▁അവകാശവാദം	-10.659
ാത്മക	-10.659
▁വിസ്മയ	-10.659
പരിപാടി	-10.6591
▁കുതിപ്പ	-10.6591
▁തകർത്ത	-10.6591
▁ആനന്ദ	-10.6591
▁റെനീഷ	-10.6591
ഘോഷ	-10.6591
ക്കാൾ	-10.6593
▁നിലനിൽക്കുന്ന	-10.6601
▁ജ്യോതി	-10.6608
ിപ്പിക്കുക	-10.6609
▁മല്‍സരിച്ച	-10.6619
▁നഗരത്തിലെ	-10.6621
▁ചോര	-10.6625
▁നായിക	-10.6634
▁പരമ്പരാഗത	-10.665
▁സെപ്റ്റംബർ	-10.665
▁സംഘാടക	-10.665
▁ഗ്രാമീണ	-10.665
▁ഞെട്ടി	-10.6654
▁മാന്യ	-10.6663
▁ഇടപാടുകള	-10.6664
▁ചെയ്യുമെന്നും	-10.6664
▁ഓവറ	-10.6668
▁രാമചന്ദ്രന്‍	-10.6676
▁ഐഡി	-10.6679
▁ചുര	-10.6683
▁ഏർപ്പെടുത്ത	-10.6686
▁പട്ടേല്‍	-10.6688
▁പൂർണ്ണമായ	-10.669
▁പ്രസ്താവനയിൽ	-10.6692
▁അന്തരിച്ചു	-10.6698
▁റേറ്റ	-10.6698
▁പ്ലാ	-10.6705
▁നഷ്ടപരിഹാരം	-10.6706
▁പാകിസ്ഥാന	-10.6711
▁ഉള്‍പ്പടേയുള്ള	-10.6711
▁തമാശ	-10.6711
▁അദ്ധ്യക്ഷ	-10.6711
▁സോഫ്റ്റ്	-10.6714
▁ചുമ	-10.6714
▁കാലഘട്ടത്ത	-10.6715
▁പത്മ	-10.6716
▁ഹാരിസ	-10.6717
▁കരിയറ	-10.6721
▁പ്രതിഭ	-10.6726
▁ഇത്തവണത്തെ	-10.673
▁പ്രവചിക്കുന്നത്	-10.6733
▁എട്ടാം	-10.6734
▁നമ്മളെ	-10.6741
▁ഉമ്മൻ	-10.6742
▁കേന്ദ്രങ്ങളില്‍	-10.6743
▁ഒരാള്‍ക്ക്	-10.6757
▁എതിരാളി	-10.6758
▁പണ്ട	-10.676
സെന്റ	-10.6763
▁അഭ്യര്‍ത്ഥിച്ച	-10.6772
▁മതനിരപേക്ഷ	-10.6772
മുനിസിപ്പാലിറ്റി	-10.6772
▁ബ്യൂറോ	-10.6772
▁സിക്യൂട്ടീവ്	-10.6772
▁പ്രസക്ത	-10.6773
▁ഡെവലപ്	-10.6774
▁M	-10.6777
▁ഇടയാക്കിയ	-10.678
▁മേയർ	-10.6782
▁ട്രസ്റ്റ	-10.6783
▁ആഘാത	-10.6788
▁വിവാഹിത	-10.6789
▁2006	-10.6789
▁അതൊക്കെ	-10.6791
▁തുടര്‍ച്ചയായ	-10.6791
▁ചേര്‍ക്ക	-10.68
പാര്‍ട്ടി	-10.68
▁ഹെഡ്	-10.6801
▁സ്വാഭാവിക	-10.6803
▁ടാങ്ക	-10.6812
▁വാദിച്ച	-10.6813
▁സമ്മേളനത്തില	-10.6815
▁പ്രതിസന്ധിയിലാ	-10.6827
▁ഉത്തർപ്രദേശ്	-10.6834
▁എപ്പിസോഡ	-10.6834
▁മാതൃഭൂമി	-10.6834
▁ഉമ്മൻചാണ്ടി	-10.6834
▁പ്രവിശ്യ	-10.6834
▁രാജ്യാന്തര	-10.6834
▁എൻസിപി	-10.6834
▁അപൂര്‍വ	-10.6837
▁താമര	-10.6838
▁വാതില	-10.684
▁വ്യാപനത്ത	-10.6843
▁കൈവിട്ട	-10.685
▁250	-10.6851
an	-10.6854
▁സംബന്ധമായ	-10.6858
▁നിരോധന	-10.686
▁നഷ്ടമാക	-10.6862
▁എംകെ	-10.6866
▁വയനാട്ടില	-10.6871
▁ദുബായില്‍	-10.6872
▁അനുഭവപ്പെട്ട	-10.6874
ിട്ടില്ലെന്നാണ്	-10.6877
▁റിപ്പോർട്ടുകള	-10.6877
▁ശക്തമാക	-10.6878
▁ചതി	-10.6885
▁ഉദ്യോഗസ്ഥന്‍	-10.6885
▁കളിക്കുന്ന	-10.6888
▁ദാസ്	-10.6888
ുകളിലായി	-10.6891
▁കടുവയെ	-10.6894
▁ഇന്ത്യയിലേക്ക്	-10.6896
▁അഡീഷണ	-10.6896
▁ആശ്രയിക്ക	-10.6896
▁ഉപഭോക്താക്കള	-10.6896
▁ഏറ്റുവാങ്ങ	-10.6896
▁പെഷ്യല്‍	-10.6896
▁മുരളി	-10.6896
▁കാര്യക്ഷമ	-10.6897
▁സ്റ്റേഡിയ	-10.6897
▁ഉള്‍പ്പെടുത്തി	-10.6898
▁ശാസ്ത്രീയ	-10.6899
▁വാക്സിനേഷൻ	-10.6899
▁ദേഷ്യ	-10.6899
▁ദിലീപിന്	-10.6901
▁ശ്രീധരന	-10.6902
▁ആശുപത്രികള്‍	-10.6903
▁സംവാദ	-10.6905
▁റോയ്	-10.6907
▁അടങ്ങുന്ന	-10.6911
▁തൃശ്ശൂര്‍	-10.6914
▁നേട്ടമുണ്ടാക്ക	-10.6914
▁ഓടിച്ച	-10.6918
▁സര്‍ക്കാരിന	-10.6919
▁ചെയര്‍മാന	-10.6921
han	-10.6942
▁ലക്ഷ്യത്തോടെ	-10.6947
▁പെണ്ണ	-10.6947
▁ജീവനക്കാരന	-10.695
▁സിവിൽ	-10.6951
▁പൊലിസ	-10.6957
▁കൗൺസില	-10.6959
▁താല്പര്യ	-10.6959
▁പ്രോജക്ട	-10.6959
▁കേന്ദ്രസർക്കാര	-10.6959
▁മാനന്തവാടി	-10.6959
▁വിരമിച്ച	-10.6959
▁തട്ടിക്കൊണ്ടുപോ	-10.6959
▁വിട്ടുവീഴ്ച	-10.6959
▁അടിത്തറ	-10.6959
സതീശന	-10.6961
▁സിറ്റിംഗ്	-10.6963
▁ദേശീയപാത	-10.6965
▁2013	-10.6968
▁സംഘത്തിന്റെ	-10.6969
▁പണവും	-10.6969
▁നഗരസഭാ	-10.6971
ഘാത	-10.698
▁അംഗങ്ങൾ	-10.6985
▁ചിലപ്പോള്‍	-10.6985
▁ദുബായില	-10.6989
▁ലീഗിന്	-10.6992
▁പിടികൂടിയ	-10.6998
ുണ്ടാകുന്ന	-10.6999
▁ഗോപിനാഥ	-10.7002
▁നടപടികളും	-10.7002
ൂടെ	-10.7009
▁മാനേജർ	-10.7012
▁സാധിക്കില്ലെന്ന	-10.7016
▁തയ്യാറെടുപ്പ	-10.7022
▁ക്രൈസ്തവ	-10.7022
▁അബദ്ധ	-10.7022
▁നാദിറ	-10.7022
▁വാര്‍ഷിക	-10.7022
▁പരമ്പര	-10.7022
▁തൃശൂരില്‍	-10.7022
▁ഖേദ	-10.7022
▁മുസ്ലീങ്ങള	-10.7022
▁ഇല്ലെന്ന	-10.7024
▁കള്ളപ്പണ	-10.7026
▁മിഷന	-10.7028
മണ്ഡല	-10.7028
▁വിശേഷിപ്പിച്ച	-10.7029
▁ഓപ്പണ	-10.703
▁തീർക്ക	-10.7031
▁സ്ത്രീകള	-10.7046
▁വെസ്റ്റ്	-10.7047
ഗൗഡ	-10.7051
▁ചിന്തിച്ച	-10.7055
▁വകുപ്പിന്	-10.7056
▁അബ്ദുല്‍	-10.7059
▁സഖ്യത്തില	-10.7059
▁ഒരുങ്ങുന്നത്	-10.7059
▁മറവ	-10.706
▁മത്സരിക്കുമെന്ന	-10.7063
▁ബഹ്	-10.7063
▁ജീവിച്ച	-10.7073
▁വിലയിരുത്തൽ	-10.7075
▁പ്രയോജന	-10.7079
▁നേട്ടങ്ങൾ	-10.7084
V	-10.7085
▁മുന്‍കൂര്‍	-10.7085
▁മസ്ജിദ	-10.7085
▁ബിരുദാനന്തര	-10.7085
കുളങ്ങര	-10.7085
▁സച്ചിൻ	-10.7086
▁പൂര്‍ണ്ണ	-10.7086
▁സഹകരിച്ച	-10.7089
▁റ്റേ	-10.709
▁തെരുവില	-10.7092
▁2012	-10.7096
▁ബാറ്റിംഗ	-10.7108
▁അധ്യക്ഷനായ	-10.7108
▁ഇൻസ്റ്റിറ്റ്യൂ	-10.7111
▁പട്ടേല	-10.7111
▁നിലപാടിലാണ്	-10.7112
▁ജിയോ	-10.712
▁യൂണിയന്‍	-10.7122
▁പന്നി	-10.7124
▁കാരണമാണ്	-10.7128
▁നടത്തിപ്പ	-10.7134
പര്യ	-10.7138
▁വാതക	-10.7139
▁120	-10.7141
▁സംസ്ഥാനങ്ങളില	-10.7142
▁ബന്ധുവ	-10.7148
▁ജോർജ	-10.7149
▁ട്രീറ്റ്	-10.7149
▁കുവൈറ്റ	-10.7149
▁പ്രായപരിധി	-10.7149
▁സമ്പൂര്‍ണ	-10.7149
▁സ്പ്രസ്	-10.715
▁നിർമ്മിക്ക	-10.715
▁മനസിലായ	-10.7153
▁പങ്കിട	-10.7158
▁നാടിന്റെ	-10.7163
▁പരിധിയില്‍	-10.7164
▁ജനപ്രതിനിധികള	-10.7165
▁അധ്യക്ഷനായി	-10.7167
▁അതൊരു	-10.7172
re	-10.7174
▁അമരീന്ദര്‍	-10.7175
▁അംഗീകാര	-10.7179
▁പ്രതിഷേധിക്ക	-10.7183
ാകുമെന്ന്	-10.7195
▁ബീഹാറില്‍	-10.7195
▁ഫ്രീ	-10.7206
▁കൊണ്ടിരിക്കുകയ	-10.7209
W	-10.7213
▁യെച്ചൂരി	-10.7213
▁സ്പീക്കർ	-10.7213
▁കുമ്മനം	-10.7213
▁ലംഘിക്ക	-10.7213
▁ഫിലിം	-10.7213
▁വിശ്വസിച്ച	-10.7214
▁മനുഷ്യാവകാശ	-10.7214
▁ദിവ്യ	-10.7216
▁മേള	-10.7219
▁നേതൃത്വത്തില	-10.7222
▁ലഭിക്കുമെന്നാണ്	-10.7225
▁യുക്രൈന്‍	-10.7229
▁ബോള്‍	-10.7242
ദിവസ	-10.7264
സാമ	-10.727
▁ഡൊണാള്‍ഡ്	-10.7277
▁ഗര്‍ഭിണി	-10.7277
▁ലഡാക്ക	-10.7277
ക്കുഴി	-10.728
▁പകര്‍പ്പ	-10.7284
▁സമീപനം	-10.7288
▁വിവാഹത്തിന്	-10.7289
ണമെങ്കിൽ	-10.7289
ശേഷ	-10.7297
ിനകത്ത്	-10.7302
രാഗ	-10.7303
▁വോട്ടര്‍മാര്‍	-10.7305
▁രാഹുലിന്	-10.7305
▁യൂണിയന	-10.7305
▁രോഗികൾ	-10.7308
പ്പിടിച്ച	-10.7314
▁റോയി	-10.7315
▁പ്രേക്ഷകർ	-10.7317
തെങ്കില്‍	-10.7329
▁രാജസ്ഥാനില്‍	-10.7332
▁ക്രീന	-10.7333
▁സര്‍വീസുകള്‍	-10.7338
▁ദക്ഷിണേന്ത്യ	-10.7342
▁അംഗീകൃത	-10.7342
▁കേന്ദ്രീകരിക്ക	-10.7342
▁കീഴില	-10.7342
▁കങ്കണ	-10.7343
▁നാട്ടുകാർ	-10.7343
▁ഭാരതീയ	-10.7344
on	-10.7346
▁കുരു	-10.7349
െതിരായ	-10.7349
▁പൃഥ്വിരാജ	-10.7352
▁പൊരുത	-10.7352
▁ആശുപത്രികള	-10.7353
▁സംഭവങ്ങള	-10.7369
▁മത്സരിക്കാന	-10.7372
▁ശരീരത്ത	-10.7373
▁യോഗ്യതയുള്ള	-10.7379
▁നടത്തണം	-10.7383
▁കുടുംബങ്ങള	-10.7386
▁സ്വര്‍ണത്തിന്	-10.7392
▁പറഞ്ഞിരുന്നത്	-10.7401
w	-10.7408
▁അവളുടെ	-10.7408
▁പ്രഥമ	-10.7408
കളിലൊന്ന	-10.7408
▁കോച്ച	-10.741
▁മാസ്റ്റര്‍	-10.7415
▁ആരോപണങ്ങൾ	-10.7423
▁വ്യാപകമായ	-10.7423
▁പുള്ളി	-10.7424
▁ചെമ്പ	-10.7427
▁തീർത്ത	-10.7429
▁കയ്യില	-10.7437
▁ടീ	-10.744
▁താമസിച്ച	-10.7441
▁ഉപകരണ	-10.7441
▁പ്രോസിക്യൂഷന്‍	-10.7443
കളേയും	-10.7451
▁കണ്ണൂരിലെ	-10.7453
▁പാസാക്ക	-10.7455
നുസരി	-10.7456
▁തസ്തികകള	-10.7456
▁ശ്രദ്ധിച്ച	-10.7464
▁ആശുപത്രിയിലെത്ത	-10.7465
▁കൂറുമാറ	-10.7472
▁പരിഹരിച്ച	-10.7473
▁പ്രൈവറ്റ്	-10.7473
▁ഷെയ്ഖ്	-10.7473
▁ട്രാൻസ്	-10.7477
▁ആകെയുള്ള	-10.748
▁സമസ്ത	-10.7482
▁ചന്നി	-10.7487
ുയര	-10.7489
▁പാലിക്കണം	-10.749
▁മൃതദേഹങ്ങള്‍	-10.7495
▁തസ്തികയിലേക്ക	-10.7501
▁താങ്ങ	-10.7502
ുണ്ടാവില്ല	-10.7506
▁ഉയർത്തുന്ന	-10.7509
▁തലവന	-10.7509
സുര	-10.7523
▁സാമ്പിളുകള	-10.7533
▁രോഗികളെ	-10.7535
ചാർജ്	-10.7538
ോടനുബന്ധിച്ച	-10.754
▁കാസർകോട്	-10.754
▁ലോകായുക്ത	-10.754
▁സർവ്വകലാശാല	-10.754
▁തിരുമാനം	-10.754
▁വ്യോമ	-10.754
▁വര്‍ഗീസ	-10.754
▁ദീര്‍ഘകാല	-10.7541
An	-10.7542
ാനാകില്ലെന്ന	-10.7543
▁കമല്‍നാഥ	-10.7544
▁എത്രത്തോളം	-10.7545
▁അധികാരത്തിൽ	-10.7548
▁ഭക്തര	-10.7554
▁പെരിയ	-10.7555
▁ക്രൂരമായി	-10.7557
▁2009	-10.7557
▁ആരാധക	-10.7559
▁ഹരിദാസ	-10.7563
▁കിഴക്കന്‍	-10.7563
▁വഹിക്കുന്ന	-10.7564
▁ജീവിതത്തിലെ	-10.7564
▁അസോസിയേഷന്‍	-10.7565
▁ഘട്ടങ്ങളില	-10.7565
▁സ്റ്റേഷനുകള	-10.7575
ുയര്‍ന്ന	-10.7577
▁ഊര	-10.7592
▁വിപുലമായ	-10.7593
ക്കേസില	-10.7594
െഴുതി	-10.7594
▁പ്രതിനിധികള്‍	-10.7604
▁അവഗണിക്ക	-10.7606
gov	-10.7606
▁ബത്തേരി	-10.7606
▁സമ്മര്‍ദ	-10.7607
▁വിലക്കയറ്റ	-10.7607
▁ജാസ്മിന	-10.7608
▁സിറ്റിങ്	-10.7608
▁പുറത്തുവിട	-10.7612
▁ബ്ലോക്ക	-10.7612
▁ഫോണിൽ	-10.7616
ഭാഗത്ത	-10.7618
▁വര്‍ഷങ്ങളായി	-10.762
▁വൃത്തി	-10.7621
▁രൂപീകരണ	-10.7636
▁ക്യാമ്പുകള	-10.7638
▁തയ്യാറ	-10.7647
▁ദിശ	-10.7666
▁പോസ്റ്ററ	-10.7667
▁വിന്യസിച്ച	-10.7673
▁എക്സിക്യൂട്ടീവ്	-10.7673
▁ലഭ്യത	-10.7673
▁ഐപിഎല്‍	-10.7673
▁ബീഹാര്‍	-10.7673
▁നൃത്ത	-10.7674
▁പൂര്‍ണ്ണമായും	-10.7674
▁രാജ്യദ്രോഹ	-10.7674
ൊഴുക്ക	-10.7675
▁കറുത്ത	-10.7675
▁ഭീമ	-10.7675
▁ഇതിനിടയില	-10.7676
▁അല്ലേ	-10.7678
▁ശ്രീരാമ	-10.768
▁ശ്രമത്തിലാണ്	-10.7684
▁മാത്രമാണെന്ന	-10.7684
▁കളഞ്ഞ	-10.7686
▁ഉണ്ടോ	-10.7694
▁പതിപ്പ	-10.7704
▁ശിക്ഷിക്ക	-10.7708
▁ബോഡി	-10.7716
▁ബസുകള	-10.7722
▁അംഗമായ	-10.7724
▁ഉച്ചയോടെ	-10.7729
▁സമ്പർക്ക	-10.7737
▁ഇംഗ്ലണ്ട	-10.7741
▁ഓപ്പറേറ്റ	-10.7741
▁അശ്ലീല	-10.7741
▁താൽക്കാലിക	-10.7741
▁ആവർത്തിച്ച	-10.7741
▁ഹര്‍ദിക്	-10.7741
▁ട്രെയിൻ	-10.7741
▁ഭാഗ്യലക്ഷ്മി	-10.7742
▁ഓര്‍മ്മ	-10.7743
▁സംഭവങ്ങള്‍	-10.7743
▁ഓഡിറ്റ	-10.7743
▁ക്വാറ	-10.7749
ശാസ്ത്ര	-10.7749
ധാരണ	-10.775
▁നോട്ടീസ	-10.775
സുരക്ഷ	-10.7753
പ്പറഞ്ഞ	-10.7755
▁യോഗത്തിലാണ്	-10.7757
ിടത്തോളം	-10.7759
▁രേഖകൾ	-10.7764
▁മുഹമ്മദ	-10.7767
▁ടൈറ്റ	-10.7773
▁അവസരങ്ങള്‍	-10.7778
▁സ്റ്റാലിന	-10.778
▁വാര്‍ഡില്‍	-10.778
▁അടച്ചിട്ട	-10.7787
▁വൈറ്റ്	-10.7787
▁എളുപ്പമ	-10.7795
ച്ചിറ	-10.7796
▁വീശ	-10.7805
▁അതിര്‍ത്തിയില്‍	-10.7807
▁പ്രിന്‍സിപ്പല്‍	-10.7809
▁പെൻഷൻ	-10.7809
▁സാധനങ്ങള്‍	-10.7809
▁റാന്നി	-10.7812
▁ശ്രീജിത്ത	-10.7816
▁വിശദീകരിച്ച	-10.7816
▁യുഡിഎഫിന	-10.7817
▁ലക്ഷദ്വീപ	-10.7817
▁പൂർത്തിയാക്കിയ	-10.7822
▁ആറാം	-10.7834
▁മരുന്നുകള	-10.7841
▁സ്വാഭാവികമായ	-10.7843
▁തായ്	-10.785
▁വിഭവ	-10.7854
▁അപമാന	-10.7858
▁പശു	-10.7861
▁600	-10.7866
▁ബാംഗ്ലൂര	-10.7877
K	-10.7877
▁എല്ലായിടത്തും	-10.7877
▁എക്സൈസ്	-10.7877
▁പാചക	-10.7878
▁വഴിയൊരുക്ക	-10.7878
▁സഹമന്ത്രി	-10.7881
▁കുതിര	-10.7882
▁വാര്‍ഡ	-10.7887
▁ഒമൈക്രോണ്‍	-10.7892
▁അര്‍ധ	-10.7896
തിനാല	-10.7901
ാതിരിക്കാൻ	-10.7911
▁പെരുമാറിയ	-10.7918
▁കുടുക്ക	-10.7926
▁ഹാഷ്	-10.7928
മരണ	-10.7929
▁ഹിന്ദുത്വ	-10.7929
▁ടൈ	-10.7939
wes	-10.7946
▁ജ്യോതിരാദിത്യ	-10.7946
▁റിലയന്‍സ	-10.7946
▁സാഹിത്യ	-10.7946
▁വര്‍ദ്ധിക്ക	-10.7946
▁ഏറ്റവുമ	-10.7947
▁ലക്ഷക്കണക്കിന	-10.7948
▁കുട്ടികൾക്ക	-10.7948
നീക്ക	-10.795
▁ആന്റി	-10.795
▁തലവേദന	-10.7951
▁അഹമ്മദാബാദ	-10.7951
▁പ്രസാദ	-10.7957
▁പ്രേമ	-10.7957
▁മടങ്ങിയെത്ത	-10.7959
▁ദിവസങ്ങള്‍ക്ക	-10.7962
▁ബോധ്യമ	-10.7965
▁പരിഗണനയില	-10.7967
▁റാണ	-10.7969
▁പതിനായിര	-10.7977
▁സാമ്പിളുകള്‍	-10.7986
▁മോഷണ	-10.7987
▁ജെഡിയുവ	-10.7999
▁എറിഞ്ഞ	-10.8012
▁ഗുജറാത്തിലെ	-10.8014
▁നിശബ്ദ	-10.8016
▁പെട്രോൾ	-10.8016
▁ഇടിമിന്നല	-10.8016
▁സ്മൃതി	-10.8016
▁ഗോവിന്ദന്‍	-10.8016
▁രാജസ്ഥാനിലെ	-10.8016
▁ഫുഡ്	-10.8016
▁മരണനിരക്ക	-10.8017
▁മുസ്ലിങ്ങള	-10.802
▁ഡിസൈന	-10.8022
▁ഓഡിയോ	-10.8031
▁മരിച്ചവരുടെ	-10.8039
▁എഴുത്ത	-10.804
ുകൊണ്ടുള്ള	-10.8047
▁പറമ്പില	-10.8048
▁ലാന്‍ഡ	-10.8049
▁ക്യാപ്റ്റന	-10.8049
▁കണ്ണൂരിൽ	-10.8049
▁കോൺഗ്രസിനെ	-10.8051
▁തയ്യാറാണ്	-10.8053
▁മില്ലി	-10.8058
▁യുപിഎ	-10.8078
▁മറ്റാര	-10.8081
▁പിന്നാക്ക	-10.8086
ാനുമതി	-10.8086
▁ഒഴിപ്പിക്ക	-10.8086
▁മെച്ചപ്പെട്ട	-10.8086
▁ഒതുങ്ങ	-10.8087
▁നവകേരള	-10.8087
▁പ്രതിനിധികള	-10.8093
▁തിരക്കഥ	-10.8094
ലക്ഷ്മി	-10.8096
ദ്ദേശ	-10.8098
▁മന്ത്രാലയത്ത	-10.8102
▁ചോദ്യങ്ങൾ	-10.8103
▁സയന്‍സ	-10.8105
▁മോശമ	-10.8106
▁പൂച്ച	-10.811
▁സാന്നിധ്യമ	-10.8116
▁പോവുകയാണ്	-10.8118
▁സമ്മേളനത്തിൽ	-10.8119
▁പൊതുവെ	-10.812
▁തൊണ്ട	-10.8126
▁രാഹുലിനെ	-10.8153
▁പുല്ല	-10.8153
▁നോക്കൂ	-10.8154
▁സമ്മാനിച്ച	-10.8154
▁തൃപ്പൂണിത്തുറ	-10.8156
▁പ്രാതിനിധ്യ	-10.8156
▁ലഭ്യമാണ്	-10.8156
▁വിൽപ്പന	-10.8156
▁1/2	-10.8156
▁നക്ഷത്ര	-10.8156
▁സ്ഥാപക	-10.8156
▁തട്ടിയെടുത്ത	-10.8157
▁ചേച്ചി	-10.8161
▁ഭരിച്ച	-10.8165
പദ്ധതി	-10.8168
മുതല്‍	-10.8168
▁ആര്‍എസ്എസ	-10.8169
▁രാജേഷ	-10.8181
▁വാശി	-10.8182
st	-10.8185
പുഴ	-10.8185
▁റായ്	-10.8187
▁പ്രോസിക്യൂഷന	-10.8189
▁ഭാഗമാക	-10.8193
▁അവള്‍	-10.8197
▁കോളേജുകള	-10.8199
ഭാരത	-10.8206
▁അധ്യാപിക	-10.8227
▁കെഎസ്ആർടിസി	-10.8227
▁ഡിജിറ്റൽ	-10.8227
▁നൂറ്റാണ്ട	-10.8227
▁സെന്‍ട്രല്‍	-10.8227
▁3/4	-10.8227
▁ഒരുപക്ഷേ	-10.8227
▁തൊഴിലില്ലായ്മ	-10.8228
▁അലേർട്ട	-10.8228
▁പ്രോഗ്രാമ	-10.8228
▁ധര്‍മ്മ	-10.8228
കളുടേയും	-10.823
▁ചലന	-10.8231
▁ഓര്‍ക്ക	-10.8236
വികസന	-10.8239
▁വ്യക്തിത്വ	-10.8239
ാനായില്ല	-10.824
▁അനൂപ	-10.8242
▁ഹിന്ദുക്കള	-10.8246
▁പ്രവര്‍ത്തകരുടെ	-10.8247
▁ചരിത്രത്തിലെ	-10.8248
ത്തിനിടയില	-10.8255
▁ജോയ്	-10.8255
▁കുമാറിനെ	-10.8262
▁വാഗ്	-10.8266
▁കമന്റുകള	-10.8267
▁പൊന്ന	-10.8274
▁പ്രതികാര	-10.8276
ാതിരിക്കുക	-10.8277
▁സ്വര്‍ണ്ണ	-10.8281
▁ഭരിക്ക	-10.829
ാനുമുള്ള	-10.8292
▁വാഹനങ്ങൾ	-10.8293
▁തെറ്റിദ്ധരിപ്പി	-10.8299
▁നാണക്കേട	-10.8299
▁പേരാമ്പ്ര	-10.8299
▁കൈക്കൊള്ള	-10.8299
▁ഇന്ദിര	-10.8299
▁ആഞ്ഞടിച്ച	-10.8299
ാനന്തര	-10.83
▁നന്മ	-10.83
▁പെക്ടര്‍	-10.8302
▁ഭാഗങ്ങള	-10.8303
▁ചിത്രീകരണ	-10.8306
ശ്രദ്ധ	-10.8311
▁ജനങ്ങളോട്	-10.8314
യുണ്ടാ	-10.8325
▁സഞ്ജുവ	-10.8328
ിനെതിരേ	-10.8331
ാകാം	-10.8335
▁പ്രതിഷേധവുമായി	-10.8336
▁പ്രകോപ	-10.8357
▁സഹിക്ക	-10.8358
▁അങ്ങേയറ്റ	-10.8371
▁പ്രാബല്യ	-10.8371
▁സെക്രട്ടേറിയറ്റ	-10.8371
▁പണ്ഡിറ്റ	-10.8371
▁ഡോളർ	-10.8371
▁ഹമാസ്	-10.8371
▁ആന്റിജന്‍	-10.8371
▁പ്രദേശവാസികള	-10.8373
ുകയാണെങ്കിൽ	-10.8373
▁ഒതുക്ക	-10.8373
▁തല്ലി	-10.8375
പോലൊരു	-10.8381
▁കോഴി	-10.8397
▁പൂർണ	-10.8397
▁ഉദ്ദേശിച്ച	-10.84
▁ദുഷ്	-10.8406
ക്കണക്കിന	-10.841
▁ബന്ധമുള്ള	-10.8414
▁ആദിത്യ	-10.8415
▁മണിയോടെയാണ്	-10.8415
▁എൻ്റെ	-10.8431
▁ചടങ്ങുകള	-10.8432
ചെയ്ത	-10.8435
നിശ്ചയ	-10.8439
▁നൽകണമെന്ന	-10.844
▁പതിറ്റാണ്ട	-10.8441
▁ആസൂത്രിത	-10.8443
▁കോണ്‍ഫറന്‍സ	-10.8443
▁ക്രെഡിറ്റ്	-10.8443
▁വെള്ളപ്പൊക്ക	-10.8443
▁എതിർക്ക	-10.8443
▁ഉപാധി	-10.8443
▁നേപ്പാള	-10.8444
▁അവാർഡ	-10.8445
തുടർന്ന്	-10.845
▁സുരേന്ദ്രന്റെ	-10.8454
▁ചെറുത	-10.8458
▁ആരൊക്കെ	-10.8461
▁വിദ്യാര്‍ഥികള്‍	-10.8465
▁രജിത്	-10.8466
▁കുരുക്ക	-10.8466
▁കേന്ദ്രങ്ങളില	-10.8468
▁നടത്തുകയാണ്	-10.8468
▁സജ്ജമാക്ക	-10.8469
▁ജപ്പാന	-10.8474
▁പഞ്ചായത്തുകളില	-10.8475
▁നടപ്പിലാക്കിയ	-10.8479
ുവരികയാണ്	-10.8494
▁ജനപ്രതിനിധി	-10.8498
▁നിലനിൽക്ക	-10.8502
▁യുവാക്കളെ	-10.8504
ദ്രോഹ	-10.8515
▁ഓക്സിജൻ	-10.8516
▁കൗൺസിൽ	-10.8516
▁ന്യായീകരിക്ക	-10.8516
▁ജിഎസ്ടി	-10.8516
▁തിയ്യതി	-10.8516
▁നഗ്ന	-10.8516
▁പുത്തന്‍	-10.8516
▁തുലാം	-10.8516
▁മന്ത്രിസ്ഥാനം	-10.8516
▁ഞാ	-10.8522
▁ഫ്രാന്‍സ	-10.8524
നടപടി	-10.8527
▁ഇതുപോലെ	-10.8532
▁വിൽക്ക	-10.8533
ക്കായുള്ള	-10.8533
വിജയ	-10.8536
▁ശ്രദ്ധേയമാണ്	-10.8538
▁യുഎസ	-10.8542
▁വര്‍ഷങ്ങള്‍ക്ക	-10.8544
▁വൃത്തങ്ങ	-10.8545
▁കസ്റ്റഡിയില	-10.8551
▁ഇക്കാര്യങ്ങള്‍	-10.8553
േണ്ടിയിരുന്ന	-10.8562
▁സംഘടനയായ	-10.8564
▁ടൈംസ്	-10.8565
ാതിരിക്കാന	-10.8572
ുകാരെ	-10.8574
ട്രേറ്റ	-10.8576
▁അവസാനിക്കുന്ന	-10.8586
▁ഗൂഗിള	-10.859
▁പണിമുടക്ക	-10.859
▁വിനോദസഞ്ചാര	-10.859
▁ചൂഷണ	-10.859
▁ഉത്തര്‍പ്രദേശ്	-10.859
▁എസ്എഫ്ഐ	-10.859
▁ഏതാണ്ട്	-10.859
▁വാർഷിക	-10.859
▁കൂട്ടുകെട്ട	-10.859
▁യന്ത്ര	-10.859
▁സുഭാഷ്	-10.859
▁പലര്‍ക്കും	-10.859
▁(26)	-10.859
▁മെഷീന	-10.859
▁റെക്കോഡ	-10.859
▁ആവശ്യപ്പെടുന്നത	-10.859
▁ക്ഷീണ	-10.8591
▁ചെറുപ്പക്കാര	-10.8591
▁പുറം	-10.8591
പ്രവർത്തക	-10.8596
▁എത്തിച്ചേര	-10.8598
▁ട്രേഷന്‍	-10.8599
കേസ	-10.8609
▁പതിച്ച	-10.861
▁ഐസക്ക	-10.8614
▁കൊല്ലത്ത്	-10.8619
▁രീതിയില	-10.8622
▁നിർദേശിച്ച	-10.8622
പെടുത്ത	-10.8642
▁നേടിയെടുക്ക	-10.8651
▁ളാറ്റ	-10.8655
▁പഞ്ചാബിലെ	-10.8657
▁വാഗ്ദാന	-10.866
▁ഉൾപ്പെടുത്തിയ	-10.8661
▁എന്‍ഫോഴ്	-10.8664
▁പ്രചോദന	-10.8664
▁മറുവശത്ത്	-10.8664
▁രക്ഷിതാക്കള	-10.8664
▁നോര്‍ത്ത്	-10.8664
▁അന്‍വര്‍	-10.8665
▁വിട്ടുകൊടുക്ക	-10.8665
▁ബ്രാന്‍ഡ	-10.8668
▁സ്ത്രീധന	-10.867
ക്കൂടി	-10.8672
▁ഗീത	-10.8672
െന്നുമായിരുന്നു	-10.8675
▁ഫൈസല	-10.8679
▁അവസരങ്ങള	-10.8685
▁ഏഴാം	-10.8687
▁ഇദ്ദേഹത്തിന്റെ	-10.8688
▁സേവനങ്ങള്‍	-10.8697
ാനാവാത്ത	-10.8712
ിറക്കി	-10.8717
സാക്ഷി	-10.8738
G	-10.8738
&	-10.8738
▁അഭിനന്ദിക്ക	-10.8738
▁ചികില്‍സ	-10.8738
▁പ്രവണത	-10.8738
▁പ്രസിദ്ധീകരിക്ക	-10.8738
▁മോഹൻലാൽ	-10.8738
▁പ്രോഗ്രാം	-10.8738
▁ദര്‍ശന	-10.8738
▁പാണ്ഡ്യ	-10.8738
▁സപ്ലൈ	-10.8738
▁ഗള്‍ഫില	-10.8738
െത്തുടര്‍ന്ന	-10.8738
▁നിറവേറ്റ	-10.8738
▁ട്രാഫിക്	-10.8741
▁അലര്‍ട്ട്	-10.8743
▁പിന്തുണയോടെ	-10.8747
തൊഴിലാളി	-10.8753
സര്‍ക്കാരിനെതിരെ	-10.8755
▁ഹൈക്കമാന്‍ഡ	-10.876
വസര	-10.8764
▁ഉത്തരവാദി	-10.8778
ുണ്ടായിരുന്നില്ല	-10.8782
▁ഇസ്ലാമിക	-10.8785
▁വിവാദങ്ങള	-10.8801
▁സിനിമകള	-10.8812
▁സത്യസന്ധ	-10.8813
▁തുര്‍ക്കി	-10.8813
▁വിപ്ലവ	-10.8814
▁പട്ടിണി	-10.8814
രത്തോളം	-10.8814
▁വിനായക	-10.8814
▁മദ്യപിച്ച	-10.8814
▁ശിവകുമാറ	-10.8816
▁രുചി	-10.8817
കോടതി	-10.8818
▁ബംഗാളിലെ	-10.8821
▁മോര്‍ച്ച	-10.8822
▁അറബ്	-10.8822
▁എതിരാളികള	-10.8834
േക്കാവുന്ന	-10.8838
▁ഗുഡ്	-10.8838
അദ്ദേഹ	-10.8844
▁സ്ഥലങ്ങളില	-10.8845
▁മാഹി	-10.8845
ിനെക്കുറിച്ച്	-10.8846
▁സാധിക്കാത്ത	-10.8847
▁സീറ്റുകളിലും	-10.8848
▁സാധ്യതയില്ല	-10.8853
▁മാസങ്ങള്‍	-10.8864
▁മാധ്യമപ്രവർത്തക	-10.8865
▁വര്‍ധന	-10.8869
ഓള	-10.8872
ീന്ദ്ര	-10.8872
▁രാജ്യങ്ങൾ	-10.8888
▁മനസിലാക	-10.8888
▁ആരോഗ്യമന്ത്രാലയ	-10.8889
▁ട്വിറ്റര്‍	-10.8889
▁തിരുവമ്പാടി	-10.8889
▁താൽപര്യ	-10.8889
▁സാക്ഷ്യപ്പെടു	-10.8889
▁ഹെൽത്ത്	-10.8889
▁അഥവാ	-10.8889
▁സല്‍മാന്‍	-10.8889
▁തകര്‍ച്ച	-10.8889
▁താങ്കൾ	-10.8889
▁ഫാക്ടറി	-10.8889
▁കഴുക	-10.8891
▁നവീകരണ	-10.8892
രാശി	-10.8892
▁കോഴ്സ	-10.8892
▁റെയില്‍വെ	-10.8893
ic	-10.8895
▁ശർമ്മ	-10.89
▁കവിത	-10.89
മെന്‍റ	-10.89
▁ഗോപാല	-10.8901
▁മാലിക്	-10.8903
▁ആവശ്യപ്പെടുന്നു	-10.8911
▁റേഷന്‍	-10.8913
▁മുറിച്ച	-10.8917
▁താല്‍പര്യമില്ല	-10.8919
▁ദിവസങ്ങളായി	-10.892
ുയർത്ത	-10.8922
▁കേരളീയ	-10.8923
▁ശ്രദ്ധേയമായ	-10.8938
▁മനസ്സിലാക്കിയ	-10.8939
തിനെക്കുറിച്ച്	-10.8941
യാകുമെന്ന	-10.895
വരെല്ലാം	-10.8954
▁സ്ഥാപനങ്ങളുടെ	-10.8957
▁അറബിക്കടല	-10.8965
▁ഇബ്രാഹിം	-10.8965
▁ഇസ്രയേല	-10.8965
▁കൃത്രിമ	-10.8965
▁പൊതുസമൂഹ	-10.8965
▁ഭൂരിഭാഗം	-10.8965
▁അവഗണിച്ച	-10.8966
▁പള്‍സര്‍	-10.8966
▁വര്‍ദ്ധന	-10.8966
▁സന്ധ്യ	-10.8966
▁അണിയറ	-10.8966
▁കോടിയോളം	-10.8966
▁റൗണ്ട	-10.8966
▁മാർഗ്ഗ	-10.8967
▁ഇടഞ്ഞ	-10.8967
വീട്ട	-10.8969
▁സ്രവ	-10.8971
▁കമ്മീഷന്റെ	-10.8975
ശേഖര	-10.8979
നാരായണ	-10.8983
സംഭവ	-10.8987
▁അഭിഭാഷകന	-10.9012
▁കണ്ടെത്താനായ	-10.9021
▁വോട്ടുകളുടെ	-10.9023
▁തോതില	-10.903
▁നൽകുമെന്ന	-10.9033
▁താമസിച്ചിരുന്ന	-10.904
▁ചാനലുകള	-10.9041
▁ഒമിക്രോ	-10.9042
▁കോണ്‍സുലേറ്റ	-10.9042
▁ക്രിമിനൽ	-10.9042
▁ദുരന്തനിവാരണ	-10.9042
▁മര്യാദ	-10.9042
▁വന്ദേഭാരത്	-10.9042
▁സംഘപരിവാര്‍	-10.9042
▁എല്‍ജെപി	-10.9042
▁ഓൺലൈന	-10.9042
▁രാജഗോപാല	-10.9042
▁ഗുസ്തി	-10.9042
▁ഗ്രൗണ്ട	-10.9043
▁പതിനെട്ട	-10.9043
▁മാഫിയ	-10.9043
▁ലക്ഷത്തിലധികം	-10.9044
▁ഇമേജ	-10.9047
▁ഇലക്ട്ര	-10.9047
▁പ്രൊഫഷണല	-10.9054
പഠന	-10.9064
▁വീടുകളില	-10.9075
▁അതൊന്ന	-10.9079
▁രാജ്യങ്ങളുടെ	-10.9087
▁വിളിപ്പിച്ച	-10.9088
സമ്പർക്കത്തിലൂടെ	-10.9088
ാനാകുമെന്ന	-10.9103
▁ഓപ്പറേഷന്‍	-10.912
▁കൺട്രോൾ	-10.912
▁പിൻവലിച്ച	-10.912
▁സംവിധായകൻ	-10.912
▁അണുബാധ	-10.912
▁ക്രിസ്ത്യന്‍	-10.912
▁നല്‍കുന്നതിന	-10.912
▁ഏതൊരു	-10.912
▁വൈറൽ	-10.912
▁ഉണ്ടെങ്കില്‍	-10.9121
▁വസ്തുക്കള്‍	-10.9121
▁ഗ്യാസ്	-10.9123
▁പുറത്തെടുത്ത	-10.9127
ാങ്ക്	-10.9143
ിട്ടുമുണ്ട്	-10.9144
▁മണ്ഡലത്തില	-10.9145
▁നടുവ	-10.9145
▁പാനല	-10.9153
▁ഇൻസ്റ്റ	-10.9155
▁മേഖലയിലും	-10.9161
▁പൊതുജനങ്ങള	-10.9165
▁അനുഭവിക്കുന്ന	-10.9166
▁തീവ്രവാദികള	-10.917
▁യുഎസ്സ	-10.9176
▁മധുര	-10.9182
▁ഉടലെടുത്ത	-10.9198
▁കൂത്തുപറമ്പ	-10.9198
▁കോർപ്പറേഷന	-10.9198
▁തൃണമൂൽ	-10.9198
▁പ്രോസിക്യൂട്ട	-10.9198
▁സംഘപരിവാർ	-10.9198
▁കാബൂള	-10.9198
kerala	-10.9198
▁കുട്ടനാട്	-10.9198
▁ശ്രുതി	-10.9198
▁അച്ഛൻ	-10.9198
▁ആവശ്യകത	-10.9199
▁ഓപ്ഷന	-10.9199
▁തീരുമാനമെടുത്ത	-10.9199
▁ശാസ്ത്രജ്ഞര	-10.9199
▁ഗണ്യമായ	-10.92
▁തെളിയ	-10.9201
▁കാഴ്ചപ്പാട	-10.9202
▁സീരിയല	-10.9203
▁ഫോർട്ട്	-10.9204
▁സംഘടനകളുടെ	-10.9205
രാഷ്ട്രീയ	-10.9207
▁ഹാജരാക്കിയ	-10.9217
▁ബെന്നി	-10.9217
▁പുരോഗമിക്കുകയാണ	-10.9218
▁പകര്‍ത്ത	-10.9219
▁തെളിവുകൾ	-10.9227
▁ഡോക്ടർമാർ	-10.9231
▁ചെയ്തുവെന്ന	-10.9235
▁പങ്കാളികള	-10.924
ിനേറ്റ	-10.9241
▁കിടക്കകള	-10.9247
▁നേടുമെന്ന	-10.9261
▁ഇയാള	-10.9267
ാധിപത്യ	-10.9275
▁കിലോമീറ്ററ	-10.9276
▁ഇതിനുള്ള	-10.9277
▁ഓട്ടോറിക്ഷ	-10.9277
▁തൊട്ടുപിന്നാലെ	-10.9277
▁ദുഃഖ	-10.9277
▁നിരപരാധി	-10.9277
▁പ്രത്യാഘാത	-10.9277
▁ബ്രാഹ്മണ	-10.9277
▁യൂസഫലി	-10.9277
▁ഷാരൂഖ	-10.9277
▁സൂക്ഷ്മ	-10.9277
▁സീനിയർ	-10.9277
▁(29)	-10.9277
മ്പുഴ	-10.9277
▁ജന്മദിന	-10.9278
▁ഗോള്‍ഡ	-10.9278
▁ഒഴിച്ച	-10.9278
▁ഹോസ്റ്റല	-10.9279
▁ക്ലസ്റ്റര്‍	-10.9279
▁അധികാരത്തിലേറ	-10.9283
▁വാര്‍ത്താസമ്മേള	-10.9284
▁സ്വാധീനമുള്ള	-10.9288
▁ഡേറ്റ	-10.9288
▁ദുരൂഹത	-10.9293
▁ഇപ്പോഴുള്ള	-10.9295
പീഡ	-10.9302
▁പടരുന്ന	-10.9307
▁ലേലത്ത	-10.9315
▁മുഴുവന	-10.9319
ിനുവേണ്ടി	-10.932
▁കൂട്ടത്തോടെ	-10.9328
▁അംഗങ്ങളുടെ	-10.9338
▁കാത്തു	-10.9339
▁യാഥാർത്ഥ്യ	-10.9356
▁വിമർശിക്ക	-10.9356
▁ചിത്രീകരിക്ക	-10.9356
▁ജൂനിയര്‍	-10.9356
▁തള്ളിക്കളയ	-10.9356
▁ശുപാർശ	-10.9356
▁സിലിണ്ടറ	-10.9356
▁മെമ്മറി	-10.9356
▁രാജസ്ഥാൻ	-10.9356
▁എതിർത്ത	-10.9356
▁മുന്‍കൂട്ടി	-10.9356
▁തോൽവി	-10.9356
▁നിരോധിക്ക	-10.9357
▁(23)	-10.9357
▁വര്‍ധിക്കും	-10.9357
▁പകർപ്പ	-10.9358
▁നാളുകള	-10.9362
▁തസ്തികകളിലേക്ക	-10.9363
▁പുറക	-10.9363
▁ബാബുവിന്റെ	-10.9363
▁അണ്ണാ	-10.9372
▁ആരോപിക്ക	-10.9372
▁2010	-10.9373
▁ചവിട്ടി	-10.9376
ക്കടവ്	-10.9378
▁ബന്ധമുണ്ടെന്ന	-10.9417
ഴുത്ത	-10.9425
▁സ്റ്റാഫ	-10.9435
▁കസേര	-10.9436
▁ഉള്‍ക്കൊള്ള	-10.9436
▁എന്‍ജിനീയര്‍	-10.9436
▁കണ്‍വീനര്‍	-10.9436
▁കെഎസ്ആര്‍ടിസി	-10.9436
▁ചിദംബരം	-10.9436
▁ജനപ്രീതി	-10.9436
▁പരുക്കേറ്റ	-10.9436
▁പര്യടന	-10.9436
▁പ്രിൻസിപ്പൽ	-10.9436
▁ഏറ്റുമാനൂര	-10.9436
▁കിരണ്‍	-10.9436
▁തിവാരി	-10.9436
▁ഇവിടുത്ത	-10.9437
▁റോയല്‍	-10.9437
▁സിസ്റ്റം	-10.9438
▁വളര്‍ന്ന	-10.944
▁മുമ്പാകെ	-10.9441
▁സംഭരണ	-10.9443
▁ഓണ്‍ലൈനായി	-10.9447
▁കൊയ്യ	-10.9451
▁ആസ്ഥാനമായ	-10.9453
▁മുന്നിട്ട	-10.9454
നേതാക്കള	-10.9457
▁ഇന്നിംഗ്	-10.9459
▁തടയുന്നതിന	-10.9467
ുകൊണ്ടിരിക്കുകയ	-10.9471
▁ആസാദ	-10.9472
▁ഉയരുന്നുണ്ട്	-10.9474
▁പെട്ടെന്ന	-10.9513
▁അസിസ്റ്റ	-10.9516
▁ആംബുലൻസ	-10.9517
▁യൂണിയൻ	-10.9517
▁സാംസ്കാരിക	-10.9517
▁പരിശോധനാഫലം	-10.9517
▁മുൻഗണന	-10.9517
▁യൂണിവേഴ്സിറ്റി	-10.9517
▁വിജയരാഘവന	-10.9517
▁വിശദാംശങ്ങള	-10.9517
▁ശിവന്‍കുട്ടി	-10.9517
▁സുതാര്യ	-10.9517
▁ബില്യൺ	-10.9517
▁ഗുലാം	-10.9517
▁വിരമിക്ക	-10.9517
▁വന്ദേ	-10.9517
▁(28)	-10.9517
▁വേണമെങ്കിലും	-10.9518
▁ശര്‍മ്മ	-10.9519
▁പെരിങ്ങ	-10.952
▁കർഷകരുടെ	-10.9521
▁നടപടിക്രമങ്ങള	-10.9522
▁ശരിയല്ല	-10.9525
ായിരിക്കാം	-10.9529
▁പുഷ്പ	-10.953
▁ഇടപെടലുകള	-10.9535
▁വിപുല	-10.9537
▁കിഴക്കൻ	-10.9539
▁അതെല്ലാം	-10.9543
▁ലക്ഷ്യമിടുന്ന	-10.9546
▁സൂചിക	-10.9547
▁തിയേറ്ററ	-10.9558
▁സിനേഷന	-10.956
ലക്ഷ്യ	-10.9588
ായിരുന്നുവെന്ന്	-10.9592
▁ഡിവൈഎഫ്	-10.9595
·	-10.9598
▁അനുശോചന	-10.9598
▁വർദ്ധന	-10.9598
▁വർധിപ്പിച്ച	-10.9598
▁സൗന്ദര്യ	-10.9598
▁ചുരുങ്ങിയ	-10.9598
▁പ്രൊജക്ട	-10.9598
▁സംക്രമണം	-10.9598
▁കൊയിലാണ്ടി	-10.9598
▁സിഇഒ	-10.9598
▁പയ്യന്നൂര്‍	-10.9599
▁ഫീല്‍ഡ	-10.96
▁ഏകദിന	-10.9602
▁വോട്ടർമാര	-10.961
▁തയ്യാറല്ല	-10.9613
▁കൈവിട	-10.9619
▁ആരോഗ്യനില	-10.9621
▁അനിശ്ചിത	-10.9623
▁അശോക	-10.9634
▁സാബു	-10.9637
▁ബന്ധമുണ്ട	-10.9659
പ്പേര	-10.9663
▁ദീര്‍ഘ	-10.9678
▁അകാലിദള	-10.968
▁ആന്ധ്രാപ്രദേശ	-10.968
▁കുറ്റ്യാടി	-10.968
▁ഭൂരിഭാഗവും	-10.968
▁ചെയർമാന	-10.968
▁തുരങ്ക	-10.968
▁യോജിച്ച	-10.968
▁രക്തസാക്ഷി	-10.9681
▁കൈവരിച്ച	-10.9681
▁ഘടന	-10.9681
േട്ടന	-10.9685
▁ചോദ്യങ്ങള	-10.9686
▁വീട്ടമ്മ	-10.9693
▁അകന്ന	-10.9695
▁അധികൃതരുടെ	-10.9703
▁ഷിബു	-10.9706
▁ഉയര്‍ത്തുന്ന	-10.9708
▁പരാജയപ്പെട	-10.9723
▁ഹോട്ടലുകള	-10.9738
ed	-10.9744
▁അനുഭവിക്ക	-10.9746
▁തുടർച്ചയായ	-10.9762
#	-10.9763
▁ഉല്‍പ്പാദന	-10.9763
▁തീര്‍ച്ചയായും	-10.9763
▁സമ്പാദിക്ക	-10.9763
▁സര്‍വ്വകലാശാല	-10.9763
▁തേടിയെത്തും	-10.9763
▁ക്രൂരത	-10.9763
▁വക്കീല	-10.9763
▁ഫ്ലാറ്റ	-10.9763
▁ദിൽഷ	-10.9764
▁റംസാന	-10.9764
▁ആള്‍ക്കൂട്ട	-10.9765
▁നികത്ത	-10.9771
▁കരഞ്ഞ	-10.9777
▁സെന്റി	-10.9777
▁അന്തരിച്ച	-10.9783
▁ഒന്നാമത	-10.9798
at	-10.9798
▁മുകേഷ	-10.9801
ിലെത്തിച്ച	-10.9812
▁വിശ്വനാഥ	-10.9813
▁വാര്‍ത്തകള	-10.9814
▁നിയന്ത്രണത്തില	-10.9814
▁ഭയപ്പെടുത്ത	-10.9821
▁രാശിക്കാർ	-10.9828
ിലെത്തുന്ന	-10.9834
▁അഖിലേന്ത്യ	-10.9846
▁പൂന്തുറ	-10.9846
▁സംഘപരിവാറ	-10.9846
▁പരിയാരം	-10.9846
▁പ്രോട്ടോക്കോള	-10.9846
▁ത്യാഗ	-10.9846
▁മലബാറ	-10.9846
▁പോലുമില്ല	-10.9847
▁(40)	-10.9847
▁കൊട്ടാര	-10.9847
▁സിഎഎ	-10.9847
▁വിദേശത്തു	-10.9848
▁തെരുവു	-10.9848
ടങ്ങുന്ന	-10.9855
▁അനുയായികള	-10.9856
▁എല്ലാവരേയും	-10.9859
ഖണ്ഡ	-10.9859
▁നടപടിയെടുത്ത	-10.9859
▁മല്‍സര	-10.986
▁ജനപക്ഷ	-10.9861
▁കുടിക്ക	-10.9862
▁പത്മജ	-10.9863
▁നിലയിലായിരുന്നു	-10.9865
▁മേയറ	-10.9867
സംരക്ഷണ	-10.987
പ്രകാരമാണ്	-10.9871
ഭേദ	-10.9874
▁നിക്ഷേപിക്ക	-10.989
▁തിരച്ചില	-10.9893
▁സംഘത്തില	-10.9916
▁അഡ്മിനിസ്	-10.9921
▁വിശേഷിപ്പിക്ക	-10.9922
ുന്‍സിപ്പാലിറ്റി	-10.993
▁ഉത്തരേന്ത്യ	-10.993
▁വൈകാരിക	-10.993
▁സുല്‍ത്താന	-10.993
▁വെറുപ്പ	-10.9931
ചെയ്യുന്ന	-10.9931
▁സഖ്യമുണ്ടാക്ക	-10.9933
▁സജ്ജമാക്കിയ	-10.9939
▁ദിഗ്	-10.9942
▁മിഷൻ	-10.9943
▁ഭൂരിപക്ഷത്തില	-10.9945
▁വിജയകരമായി	-10.9947
▁മുറുക	-10.9949
▁പങ്കിട്ട	-10.9952
▁മത്സരാർത്ഥികള	-10.9965
▁കത്തിച്ച	-10.997
▁പങ്കുണ്ടെന്ന	-10.9973
ുയര്‍ത്ത	-10.9975
▁സർട്ടിഫിക്കറ്റു	-10.9977
▁അയാളെ	-10.9999
▁മുദ്രാവാക്യ	-11.0001
ുന്നതുവരെ	-11.0003
▁ആരാധന	-11.0015
▁ചൊടിപ്പിച്ച	-11.0015
▁വധശിക്ഷ	-11.0015
▁കാത്തിരിപ്പ	-11.0015
▁പൂഞ്ഞാര്‍	-11.0015
▁മോട്ടോര്‍	-11.0015
▁അര്‍ത്ഥ	-11.0015
▁കുമ്പള	-11.0015
▁മര്‍ദ്ദന	-11.0015
▁നാവിക	-11.0016
▁ഗവേഷക	-11.0016
▁ഉചിതമായ	-11.0016
▁കുറ്റപത്രത്ത	-11.0016
ാരോപിച്ച	-11.0016
▁(30)	-11.0017
▁സില്‍വര്‍	-11.0018
പ്പളളി	-11.002
▁നീക്കങ്ങള	-11.002
▁മഹേഷ്	-11.0023
▁പോസിറ്റീവ	-11.0025
▁സാന്നിധ്യത്തില	-11.003
▁വരികയായിരുന്നു	-11.0031
▁അടൂര്‍	-11.0034
▁മകന്റെ	-11.0036
700	-11.0044
▁പ്രസംഗത്ത	-11.0052
▁കൊല്ലപ്പെട	-11.008
▁അസോസിയേറ്റ	-11.01
▁ഇരിങ്ങാലക്കുട	-11.01
▁തെറ്റിദ്ധാരണ	-11.01
▁ദാമ്പത്യ	-11.01
▁അവഗണന	-11.01
▁പുകഴ്ത്ത	-11.01
▁1/4	-11.01
▁കൂട്ടിച്ചേർക്ക	-11.01
▁ദയനീയ	-11.01
▁റിസോര്‍ട്ട	-11.01
▁ഒരുങ്ങുകയാണ്	-11.0101
▁നോര്‍ക്ക	-11.0101
▁പ്ലാസ്റ്റിക്	-11.0102
▁തൂങ്ങി	-11.0102
▁ഇന്ധനവില	-11.0103
▁മത്സരാര്‍ത്ഥികള	-11.0104
▁ശത്രുക്കള	-11.0105
▁വിഷ്ണുവ	-11.0111
▁ഇളവുകള്‍	-11.0121
സൗകര്യ	-11.0127
ൊരാൾ	-11.014
▁തീയതികള	-11.0148
▁ഒപ്പിട്ട	-11.0163
ാകുമോ	-11.0168
▁ക്ലാസുകള	-11.0176
it	-11.0183
▁ചങ്ങനാശേരി	-11.0187
▁സെൻട്രൽ	-11.0187
▁മായാവതി	-11.0187
▁പ്രമോദ്	-11.0187
▁ദിർഹ	-11.0187
▁ബന്ധുക്കൾ	-11.0187
▁ഫോറന്‍സിക്	-11.0187
▁മര്‍ദ്ദിച്ച	-11.0187
▁(50)	-11.0188
സംഗമ	-11.019
▁പരേഡ	-11.0191
▁പെന്‍ഡ്	-11.0193
▁പ്രേക്ഷക	-11.0197
▁പതിനാല	-11.0199
▁കൂട്ടുകാര	-11.02
▁ചർച്ചകള	-11.0203
▁എഴുത്തുകാര	-11.0208
▁സാഹചര്യത്തില	-11.0217
േയുള്ളൂ	-11.0222
ൊന്നുമല്ല	-11.0236
ക്കിടയിലും	-11.024
▁നവീന	-11.0245
▁മതിയാക	-11.0255
▁മെക്കാനിക്	-11.026
▁ഒൻപത	-11.0266
ുമ്പോഴേക്ക	-11.0269
▁പിന്‍മാറ	-11.0271
▁എടുക്കേണ്ട	-11.0273
▁പെരുമ്പാവൂര	-11.0273
▁മുന്‍കരുതല	-11.0273
ഇന്‍സ്റ്റിറ്റിയൂ	-11.0273
▁ഇമ്രാന്‍	-11.0273
▁നൂതന	-11.0273
▁പൂഞ്ഞാറ	-11.0273
▁മഹിളാ	-11.0273
▁ഋതു	-11.0273
▁മണ്ണിടിച്ചില	-11.0273
▁വര്‍ദ്ധിച്ച	-11.0273
▁ഭൂകമ്പ	-11.0274
▁വിശ്വാസ്യത	-11.0274
▁മെസേജ	-11.0274
▁എയർപോർട്ട	-11.0275
▁ദില്‍ഷ	-11.0275
▁മകരം	-11.0276
▁ഭൂഷണ	-11.0276
▁ചാര്‍ജ്	-11.0277
▁ക്ലബ്ബ	-11.0277
െടുക്കുക	-11.0277
▁കാരണമാകും	-11.0279
▁വര്‍ഷങ്ങള	-11.028
▁മാറ്റിവെച്ച	-11.0289
ിനിടയ	-11.0291
▁പ്രസിഡന്റുമാര	-11.0292
▁ഗ്രഹങ്ങളുടെ	-11.0293
▁ഈശ്വര	-11.03
േട്ടൻ	-11.0322
▁രാമചന്ദ്രന	-11.0324
▁വാഗ്ദാനങ്ങള	-11.0339
▁ബേസ	-11.0353
റിയിച്ച	-11.0356
▁ഊർജ	-11.0361
▁ആശയക്കുഴപ്പ	-11.0361
▁അസാധാരണ	-11.0361
▁ഇസ്രായേൽ	-11.0361
▁പ്രസ്തുത	-11.0361
▁ബംഗളൂരു	-11.0361
▁ബിസിസിഐ	-11.0361
▁വര്‍ദ്ധിപ്പിക്ക	-11.0361
▁ആകര്‍ഷിക്ക	-11.0361
▁കാറ്റഗറി	-11.0361
▁സമൂഹമാധ്യമങ്ങള	-11.0362
▁സമവായ	-11.0362
▁പുനഃസംഘടന	-11.0362
▁അനുസ്മര	-11.0362
▁നേമം	-11.0363
ിലൊരാള	-11.0367
▁നമസ്	-11.0368
▁പട്ടാള	-11.0369
▁നിരീക്ഷകര	-11.0375
▁റോഡുകള	-11.0377
വകാശ	-11.0388
േക്കാമെന്ന	-11.0395
▁വശത്ത	-11.04
▁വികസിപ്പിക്ക	-11.0402
▁വിജയിക്കുമെന്ന	-11.0403
▁കോഴിക്കോട	-11.041
ബാധിതരുടെ	-11.042
▁എംഎൽഎമാർ	-11.0424
▁കുഞ്ഞുങ്ങള	-11.0425
▁തയ്യാറെടുക്ക	-11.0439
▁രംഗത്തിറങ്ങ	-11.0445
▁ഒക്ടോബറ	-11.045
▁അധിനിവേശ	-11.045
▁അനുയോജ്യ	-11.045
▁ആശയവിനിമയ	-11.045
▁നിര്‍വഹിക്ക	-11.045
▁പുനരാരംഭിക്ക	-11.045
▁തൃത്താല	-11.045
▁മൈക്രോ	-11.045
▁ആശ്വസ	-11.045
▁ഒബിസി	-11.045
▁തുടക്കമിട്ട	-11.045
▁(38)	-11.045
▁(32)	-11.045
▁(35)	-11.045
▁(22)	-11.045
▁(24)	-11.0451
▁പൊന്നാനി	-11.0451
▁ബ്രസീല	-11.0451
▁സർവ്വ	-11.0454
▁വൈദ്യുത	-11.0456
▁മറ്റേത	-11.0456
▁നടത്തേണ്ട	-11.0457
▁തിലക	-11.0457
▁നശിച്ച	-11.0461
▁ഹൈവേ	-11.0465
▁അദ്ദേഹമ	-11.0469
▁രാജ്യങ്ങളിലേക്ക	-11.0469
▁കുതിക്ക	-11.0494
പ്രവര്‍ത്തന	-11.0502
▁അരുണ	-11.0505
▁ചെയ്യപ്പെടുന്ന	-11.0529
▁സെക്ഷ	-11.0529
U	-11.0539
▁വാഷിംഗ്ടണ്‍	-11.0539
▁വർദ്ധിപ്പിക്ക	-11.0539
▁ക്വാറന്റീന	-11.0539
▁മേല്‍നോട്ട	-11.0539
▁അപ്പീല്‍	-11.0539
▁താക്കീത	-11.0539
▁ജനപ്രിയ	-11.0539
▁ഗവർണറ	-11.0539
▁രാഘവ	-11.0539
▁വയസുകാരി	-11.054
▁രാജിവയ്ക്ക	-11.0544
▁ശിവകുമാര്‍	-11.0544
▁റൺസ	-11.0546
ുകാരുടെ	-11.0548
▁ജനവാസ	-11.0551
ഗാന്ധി	-11.057
▁റിലീസ	-11.0591
▁സോണുകള	-11.0594
▁ഒരുങ്ങുന്ന	-11.0622
H	-11.0629
▁കാഞ്ഞങ്ങാട്	-11.0629
▁ഗൗതം	-11.0629
▁നിര്‍വഹിച്ച	-11.0629
▁പിന്നോക്ക	-11.0629
▁ശരണ്യ	-11.0629
▁വർധിക്ക	-11.0629
▁ചുവടു	-11.0629
▁നായിഡു	-11.0629
▁ബ്ലാക്ക്	-11.0629
▁കരസ്ഥമാക്ക	-11.0629
▁കൂടിക്കാഴ്ച്ച	-11.0629
▁വ്യോമസേന	-11.063
▁കള്ളക്കടത്ത	-11.063
▁വധക്കേസ	-11.063
▁(25)	-11.063
ിട്ടുണ്ടെങ്കിലും	-11.064
▁ഇല്ലെങ്കില്‍	-11.064
▁ഓർമ	-11.0645
▁പെയ്ത	-11.0648
▁റിക്രൂട്ട്മെന്റ	-11.0649
▁കോൺഗ്രസിന	-11.0651
▁മുന്നോട്ടുപോക	-11.0653
സാന്നിധ്യ	-11.0664
▁ഒന്നുമില്ല	-11.0671
▁ക്യാമ്പയിന	-11.0674
ദേശീയ	-11.0696
▁അക്കൗണ്ടുകള	-11.0704
▁സരിത	-11.0709
ോയിഡ	-11.0719
▁താൽപ്പര്യ	-11.072
▁ഇന്റര്‍വ്യൂ	-11.072
▁മുന്നൊരുക്ക	-11.072
▁വൈവിധ്യ	-11.072
▁ഷിന്‍ഡെ	-11.072
▁അനീതി	-11.072
▁കിടിലം	-11.072
▁ദോഹ	-11.072
▁പെട്രോളിയം	-11.072
▁മനഃ	-11.072
▁(34)	-11.072
▁മാര്‍ഗ്ഗ	-11.0722
▁ഇവിടേക്ക	-11.0722
▁വേഷം	-11.0723
കരുണാകരന	-11.0726
▁വേണു	-11.0727
▁എൻജിന	-11.0729
▁അക്ഷര	-11.0734
▁ഇല്ലാതായ	-11.0734
െടുക്കാന	-11.0751
▁നിഖില	-11.0753
▁അഭിഭാഷകര	-11.0754
▁പ്രസംഗിച്ച	-11.0763
▁തികയ	-11.0769
▁പിന്നിലെന്ന	-11.0791
▁നിര്‍ദേശിക്ക	-11.0793
▁ടാഗ	-11.0797
▁പ്രതീക	-11.0805
▁പട്ടാമ്പി	-11.0812
▁ബാനർജി	-11.0812
▁യഥാക്രമം	-11.0812
▁ചിത്രീകരിച്ച	-11.0812
▁വർഷങ്ങളായി	-11.0812
▁വുഹാന	-11.0812
▁(36)	-11.0812
▁കുറുപ്പ	-11.0812
▁സ്മാരക	-11.0812
▁ഉണ്ടെങ്കിൽ	-11.0814
▁ഗൾഫ	-11.0814
▁നിരസിച്ച	-11.0814
▁കരുണ	-11.082
▁മണിക്കൂറോളം	-11.0827
▁കാര്യമല്ല	-11.0839
▁ബന്ധിപ്പിക്ക	-11.0857
▁ലക്ഷ്യമെന്ന	-11.0892
ുദ്ദീന്‍	-11.0904
▁എംപ്ലോയ	-11.0904
▁ചെയര്‍പേഴ്	-11.0904
▁എഡിജിപി	-11.0904
▁പാലാരിവട്ടം	-11.0904
▁വേണുഗോപാൽ	-11.0904
▁സ്ട്രാറ്റജി	-11.0904
▁ട്രൈബ	-11.0904
▁ലാലേട്ടന	-11.0905
▁പാർടി	-11.0905
▁വെടിയേറ്റ	-11.0905
▁വിചാരിക്ക	-11.0908
▁റോക്കറ്റ	-11.0908
▁സ്ഥാനങ്ങള	-11.0913
▁ജോഡോ	-11.0916
▁എക്കാലത്ത	-11.0925
▁രജിസ്ട്രേഷന	-11.0949
▁അറിയാവുന്ന	-11.0956
▁രാശിമാറ്റ	-11.0975
▁കമ്മ്യൂണിറ്റി	-11.0998
▁പ്രായോഗിക	-11.0998
▁മട്ടാഞ്ചേരി	-11.0998
▁മണിക്കുട്ടൻ	-11.0998
▁മരണസംഖ്യ	-11.0998
▁വന്നുചേരും	-11.0998
▁മലബാര്‍	-11.0998
േക്കാളും	-11.0998
▁വ്യാപിച്ച	-11.0998
▁ആത്മവിശ്വാസത്ത	-11.0999
▁ഇതുവഴി	-11.1
▁ചെറുകിട	-11.1
▁10.30	-11.1
▁സരിത്ത	-11.1002
▁കനയ്യ	-11.1002
▁(2,	-11.1002
▁ശിവരാജ്	-11.1003
▁ആഭ്യന്തരമന്ത്രി	-11.1003
ടിമുടി	-11.1004
▁നിര്‍മല	-11.1012
▁ഭാഗങ്ങളില	-11.1014
▁പെയിന	-11.1025
പ്രഖ്യാപന	-11.1032
▁ഇഷ്ടപ്പെടുന്ന	-11.1055
▁അതിക്രമിച്ച	-11.106
▁മനുഷ്യത്വ	-11.1082
▁അതിതീവ്ര	-11.1092
▁വിയോജിപ്പ	-11.1092
▁സമ്പാദ്യ	-11.1092
▁ഇന്റർവ്യൂ	-11.1092
▁ഉൾക്കൊള്ള	-11.1092
▁ഉൾപ്പടെ	-11.1092
▁ഡിസ്ചാര്‍ജ്	-11.1092
▁ദുർബല	-11.1092
▁പങ്കുവെക്ക	-11.1092
▁റഹീം	-11.1092
▁വിശകലന	-11.1092
▁വൃശ്ചിക	-11.1092
▁ശിഹാബ്	-11.1092
▁അഭ്യർത്ഥിച്ച	-11.1092
▁തീപിടുത്ത	-11.1092
▁റിസര്‍വ്	-11.1092
▁ഗുപ്ത	-11.1092
▁തക്കാളി	-11.1092
▁മോഷ്ടിച്ച	-11.1092
പൂർവ്വം	-11.1092
▁പ്രവൃത്തിപരിചയ	-11.1093
▁(45)	-11.1093
▁റേഡിയോ	-11.1093
▁പിറ്റേ	-11.1094
▁കൈപ്പറ്റ	-11.1096
▁ഭാഗികമായ	-11.1097
▁ആരോഗ്യപ്രവർത്തക	-11.1098
▁ആരോട	-11.1099
▁പോലിസ	-11.1105
▁രൂക്ഷമാക	-11.1127
▁ഓണ്‍ലൈന	-11.1136
▁മടക്കി	-11.1181
▁പിന്നിട	-11.1187
▁മന്ദിരത്ത	-11.1187
▁ആംആദ്മി	-11.1187
▁ഉല്‍പ്പന്നങ്ങള	-11.1187
▁തീർച്ചയായും	-11.1187
▁പുരോഗമന	-11.1187
▁ബ്ലെസ്ലി	-11.1187
▁ടീച്ചര്‍	-11.1187
▁വീണ്ടെടുക്ക	-11.1187
▁തികഞ്ഞ	-11.1188
▁ഡെമോക്രാറ്റിക്	-11.1189
▁ലിറ്ററിന്	-11.1197
▁സീറ്റുകളിലേക്ക	-11.1212
▁കോട്ടയത്ത	-11.1221
▁സമീപകാലത്ത	-11.1235
▁കണക്കുകള	-11.1244
▁സുധാകരനെ	-11.1246
▁വിലയിരുത്തുന്നത	-11.1249
▁പരസ്പര	-11.1282
▁പിരിച്ചുവിട	-11.1283
▁ഈരാറ്റുപേട്ട	-11.1283
▁നിയമലംഘന	-11.1283
▁ദരിദ്ര	-11.1284
▁പ്രദര്‍ശിപ്പി	-11.1284
▁ഭിന്നശേഷി	-11.1284
▁മുൻകരുത	-11.1284
▁ജമാഅത്ത	-11.1284
പ്പറമ്പ്	-11.1284
▁എൻട്രി	-11.1284
▁ഹുസൈന	-11.1284
▁ശല്യം	-11.1284
▁ഹജ്ജ്	-11.1284
▁സ്ഥിതിഗതികള	-11.1285
▁ഊര്‍ജ	-11.1286
▁കണ്ടുപിടിക്ക	-11.1286
▁ഉത്തമ	-11.1286
▁അപകടകരമായ	-11.1295
▁സുകുമാര	-11.13
▁തകരാറ	-11.1316
ൊടുവില	-11.1363
▁അയല്‍	-11.1369
▁ഏജന്റ	-11.1378
▁അമേഠി	-11.1381
▁അങ്കമാലി	-11.1381
▁ഉപതെരഞ്ഞെടുപ്പ	-11.1381
▁സുസ്ഥിര	-11.1381
▁സഖാക്കള	-11.1381
▁വെള്ളാപ്പള്ളി	-11.1381
▁പൊതുമേഖലാ	-11.1381
▁സൗമ്യ	-11.1381
▁ക്ഷാമം	-11.1381
ശൂന്യ	-11.1381
▁കവര്‍ച്ച	-11.1381
▁ചരക്കു	-11.1382
▁(60)	-11.1382
▁ഇങ്ങോട്ട	-11.1382
▁ശ്രീലേഖ	-11.1385
▁ജോയിന്റ	-11.1387
▁അവളെ	-11.1388
▁വര്‍ഷത്തിനിടെ	-11.1391
▁നിര്‍ബന്ധിത	-11.1391
ാസന	-11.1407
▁അബ്ദുള്ള	-11.1417
▁ആവശ്യമാണെന്ന	-11.1421
▁തിരുവോണ	-11.1438
▁സിനുകള	-11.1456
▁ഫോണുകള	-11.1458
▁യാത്രക്കാര്‍ക്ക	-11.1458
▁ഒഴിവാക്കണമെന്ന	-11.1458
▁ണ്ടാ	-11.146
▁തമിഴ	-11.1477
*	-11.1479
▁ആശ്രയിച്ച	-11.1479
▁മാവേലിക്കര	-11.1479
▁വ്യതിയാന	-11.1479
▁സന്നിധാനത്ത	-11.1479
▁പ്രേരിപ്പിച്ച	-11.1479
▁എൻഐഎ	-11.1479
▁വ്യാപിപ്പിക്ക	-11.1479
▁അഭ്യർത്ഥിക്ക	-11.1479
▁ഗവൺമെന്റ	-11.1479
ബിലിറ്റി	-11.1479
▁വില്‍പന	-11.1479
▁ശ്രീറാം	-11.1479
▁സാധ്യമായ	-11.1479
▁ചാനൽ	-11.1479
▁പ്രാപിച്ച	-11.1481
▁ഭരണസമിതി	-11.1483
▁പാട്ടീല	-11.1485
▁അയയ്ക്ക	-11.1486
▁ഉടമസ്ഥ	-11.1488
▁സീറ്റില	-11.1504
▁വിദേശികള	-11.1504
ട്ടെയെന്ന	-11.1507
▁ഭാഗത്തേക്ക	-11.1509
െല്ലാമ	-11.1548
▁ജസ്റ്റിസ	-11.1565
▁അഭ്യൂഹങ്ങള	-11.1568
▁കായംകുളം	-11.1578
▁പോപ്പുലര്‍	-11.1578
▁ഫിഷറീസ്	-11.1578
▁റഷീദ	-11.1578
▁സീതാറാ	-11.1578
▁ബഷീര്‍	-11.1578
▁എല്ലാവരോടും	-11.1578
▁പങ്കുവയ്ക്ക	-11.1578
▁തിരച്ചിൽ	-11.1578
▁രക്ഷാപ്രവർത്തന	-11.1578
▁യുവാക്കൾ	-11.1578
▁കുണ്ടറ	-11.1578
▁മിനിമം	-11.1578
▁സലീം	-11.1578
▁വിജയിപ്പിക്ക	-11.1579
▁വധശ്രമ	-11.1579
▁കാമുകന	-11.158
▁പോഷക	-11.158
▁മാരക	-11.158
▁രാജശേഖരന	-11.1581
▁ഭാഗമായിട്ടാണ്	-11.1583
▁സർട്ടിഫിക്കറ്റ	-11.1591
▁പ്രശാന്ത	-11.1612
▁ശുഭകരമായ	-11.1619
▁ആശുപത്രികളില	-11.1638
▁ചേട്ടന	-11.1646
▁കുറ്റവാളികള	-11.1675
▁സൃഷ്	-11.1676
▁അസോസിയേഷൻ	-11.1678
▁ഉരുള്‍പൊട്ടല	-11.1678
▁കണക്കിലെടുത്താണ	-11.1678
▁താലിബാൻ	-11.1678
▁നോമിനേഷന	-11.1678
▁പരിഭ്രാന്ത	-11.1678
▁പുനരധിവാസ	-11.1678
▁ബൗണ്ടറി	-11.1678
▁വഴിത്തിരിവ	-11.1678
▁ട്വിസ്റ്റ	-11.1678
▁ടൂറിസ്റ്റ	-11.1678
▁പുത്തൻ	-11.1678
▁ഒരിടത്ത	-11.1678
▁ഇന്റലിജന്‍സ്	-11.1679
▁കപില്‍	-11.1685
▁കുത്തിവയ്	-11.1709
ൊപ്പമാണ്	-11.1718
ആരോഗ്യ	-11.1719
ബിജെപി	-11.1719
ുചെയ്	-11.1726
▁അസോസിയേഷന	-11.1741
▁ഉത്തരവിറക്ക	-11.1758
▁സമാധാനപരമായ	-11.1764
▁രാജീവ	-11.1764
▁കടന്നുപോകുന്ന	-11.1778
▁ഉടമസ്ഥതയിലുള്ള	-11.1779
▁കൊടുവള്ളി	-11.1779
▁നൂറുകണക്കിന്	-11.1779
▁പുതുച്ചേരി	-11.1779
▁മഞ്ചേശ്വരത്ത	-11.1779
▁മാര്‍ഗനിര്‍ദേശ	-11.1779
▁വെല്‍ഫെയര്‍	-11.1779
▁വർദ്ധിച്ച	-11.1779
▁സെപ്തംബര്‍	-11.1779
▁കിഷോര്‍	-11.1779
▁ഡിവൈഎസ്പി	-11.1779
▁പെർമിറ്റ	-11.1779
▁ലൊക്കേഷന	-11.1779
▁അവശേഷിക്കുന്ന	-11.1779
▁സതീഷ്	-11.1779
▁ദുബെ	-11.1779
▁ഭിന്നിപ്പ	-11.1779
▁രണ്ടിടത്ത	-11.178
▁പുറത്തുനിന്ന	-11.1781
▁ഒളിപ്പിച്ച	-11.1782
▁വെടിവെച്ച	-11.1786
▁സഖ്യകക്ഷികള	-11.1818
കുടുംബ	-11.182
രോപണ	-11.1855
▁വൃത്തിയാക്ക	-11.186
ാറുണ്ടെന്ന	-11.1878
▁എമിറേറ്റ്	-11.1881
▁കമ്മീഷണർ	-11.1881
▁കാലതാമസ	-11.1881
▁കൊൽക്കത്ത	-11.1881
▁ഖാര്‍ഗെ	-11.1881
▁നാമനിര്‍ദേശ	-11.1881
▁പൂര്‍ത്തീകരിക്ക	-11.1881
▁മഞ്ചേശ്വരം	-11.1881
▁ടെക്നോളജി	-11.1881
▁തൊഴിലുറപ്പ്	-11.1881
▁പ്രതിച്ഛായ	-11.1881
▁പരോക്ഷ	-11.1881
▁പ്രകാരമുള്ള	-11.1881
▁മാസത്തോള	-11.1881
▁വീഴ്ച്ച	-11.1881
ോടുകൂടി	-11.1881
▁എന്നുള്ളതാണ്	-11.1882
▁എങ്കിൽ	-11.1882
▁സിൽവർ	-11.1883
▁ഗാര്‍ഡ	-11.1883
▁രമേശ	-11.1884
▁തൊഴിലാളികള്‍ക്ക	-11.1885
▁കന്നഡ	-11.1885
▁സമ്മാനിക്കും	-11.1887
▁നഗറില	-11.1888
▁വര്‍ഷത്തേക്ക	-11.1891
▁സഞ്ചാരികള	-11.1902
▁വിമാനത്താവളങ്ങള	-11.1909
ുകയുള്ളു	-11.1918
സൂത്ര	-11.1941
അബ്ദുള്ളക്കുട്ടി	-11.1949
െൻറ	-11.1961
▁മാത്രമായിരിക്ക	-11.1973
▁തൃപ്തി	-11.1977
▁മനസ്സിലാക	-11.1983
▁വെന്റിലേറ്ററ	-11.1984
▁കുമാരസ്വാമി	-11.1984
▁മഹാസഖ്യത്ത	-11.1984
▁മുന്‍തൂക്കം	-11.1984
▁ശുചിത്വ	-11.1984
▁അതിജീവിക്ക	-11.1984
▁എല്‍ജെഡി	-11.1984
▁ഡിലീറ്റ്	-11.1984
▁ഏകോപന	-11.1984
▁രാകേഷ്	-11.1984
▁സോളാര്‍	-11.1984
▁ഭയങ്കര	-11.1984
▁ഊര്‍ജ്ജ	-11.1984
▁ഫേസ്	-11.1985
▁വാട്ടര്‍	-11.1985
▁ആദായ	-11.1985
▁യോജിക്ക	-11.1986
▁കൃഷ്ണദാസ്	-11.1986
▁മൈതാന	-11.1987
▁സെക്കന്റ	-11.1987
▁മൈസൂര	-11.1987
▁വളർന്ന	-11.1988
▁വെള്ളക്കെട്ട	-11.1989
▁സ്വാഗത	-11.1989
▁ചോര്‍ന്ന	-11.1989
▁ശതമാനത്തോളം	-11.1989
▁തോല്‍ക്ക	-11.1991
▁കോണ്‍ഗ്രസുകാര	-11.2018
വിതരണ	-11.2033
▁ഒടുവില	-11.205
ഓർഡ	-11.2062
പാർട്ടി	-11.2063
▁സന്ദീപ	-11.2064
▁നല്‍കാമെന്ന	-11.2068
▁ഉദ്യോഗാർത്ഥികൾ	-11.2088
▁ഡെലിവറി	-11.2088
▁നമ്പൂതിരി	-11.2088
▁നിരോധനാജ്ഞ	-11.2088
▁പ്രദര്‍ശന	-11.2088
▁സ്ഥാനക്കയറ്റ	-11.2088
▁അസംബ്ലി	-11.2088
▁അരുൺ	-11.2088
▁ജംഗ്ഷന	-11.2088
▁പന്തളം	-11.2089
▁ഫ്രഞ്ച്	-11.2091
▁രാമകൃഷ്ണ	-11.2091
തുരുത്ത്	-11.2098
▁വെളിയ	-11.2105
വൃത്ത	-11.2105
▁കുറക്ക	-11.2112
▁മൂന്നാമത	-11.2113
▁അറുപത	-11.2128
▁മാറുമെന്ന	-11.2134
▁ഇത്തരത്തില	-11.2153
വ്യവസ്ഥ	-11.2157
▁രജിസ്ട്ര	-11.2164
▁അങ്കണവാടി	-11.2193
▁ഗുണനിലവാര	-11.2193
▁യുക്രൈൻ	-11.2193
▁വിപരീത	-11.2193
▁കാരണവശാല	-11.2193
▁ജഡേജ	-11.2193
▁മോഹൻലാല	-11.2193
▁സ്വീകാര്യത	-11.2193
▁ചിരാഗ്	-11.2193
▁വിഭാഗീയത	-11.2193
▁പഠിപ്പിച്ച	-11.2193
▁ഈജിപ്ത	-11.2193
▁തെരുവ്	-11.2193
▁ഹോട്ടൽ	-11.2193
▁പാണ്ഡെ	-11.2193
▁വിഴിഞ്ഞം	-11.2193
▁നമ്മുക്ക	-11.2194
▁(42)	-11.2194
▁പതിയെ	-11.2194
▁ബാലചന്ദ്രകുമാറ	-11.2195
▁കടുപ്പിച്ച	-11.2195
▁തിരമാല	-11.2195
▁കറന്‍സി	-11.2196
▁മുഖ്യപ്രതി	-11.2196
▁ധർമ്മ	-11.2198
നിര്‍ദ്ദേശങ്ങള്‍	-11.2214
തന്ത്ര	-11.2224
പരിചയ	-11.224
പരീക്ഷ	-11.2241
മുതൽ	-11.2242
▁വർഷത്തേക്ക	-11.2242
▁ചെയ്യാമെന്ന	-11.2244
▁തടസ്സപ്പെടുത്ത	-11.2244
ക്കുവേണ്ടി	-11.2279
ൊരാള	-11.2296
▁കഠിനാധ്വാന	-11.23
▁ആപ്ലിക്കേഷന	-11.23
▁ഫോട്ടോഷൂട്ട	-11.23
▁പരിഹസിക്ക	-11.23
▁ഫോര്‍മുല	-11.23
▁വേരിയന്റ	-11.23
▁ലേഖനത്ത	-11.23
▁ഗ്രേഡ്	-11.23
▁രേഷ്മ	-11.23
▁വേഗത്തിൽ	-11.23
▁സെന്റർ	-11.23
▁ഞായറാഴ്ച്ച	-11.23
▁ഊർജ്ജ	-11.23
▁(49)	-11.23
▁(27)	-11.23
വല്‍ക്കരണ	-11.23
▁(55)	-11.23
▁ചില്ലറ	-11.23
▁ഭീകരാക്രമണ	-11.2302
▁മിനുട്ട	-11.2302
▁ശാഖ	-11.2304
▁ഫ്രാൻസ	-11.2313
▁പൈലറ്റിന	-11.233
▁തിയേറ്ററുകള	-11.2352
▁ശരിയല്ലെന്ന	-11.2406
▁അതിജീവിച്ച	-11.2407
▁ഇതുസംബന്ധിച്ച	-11.2407
▁ഏകപക്ഷീയ	-11.2407
▁സജ്ജീകരിച്ച	-11.2407
▁കടുത്തുരുത്തി	-11.2407
▁തള്ളിക്കളഞ്ഞ	-11.2407
▁ദിവസത്തിനകം	-11.2407
▁വസുന്ധര	-11.2407
▁മട്ടന്നൂര്‍	-11.2407
▁പരിചരണ	-11.2407
▁ബിഹാര്‍	-11.2408
▁(19)	-11.2408
▁അതുവഴി	-11.2409
▁ചരക്ക്	-11.241
▁ഇരുരാജ്യങ്ങള	-11.2411
▁ഉണ്ടാവുമെന്ന	-11.2413
▁വായന	-11.2415
▁നഷ്ടപരിഹാര	-11.2417
ഛ	-11.2456
▁ഡോസുകള	-11.2467
▁അതാത	-11.2468
▁ബയോടെക്	-11.2492
▁കോർപ്പറേറ്റ	-11.2516
▁പ്രത്യയശാസ്ത്ര	-11.2516
▁വോട്ടുബാങ്ക	-11.2516
▁ദർശന	-11.2516
▁റിമാന്‍ഡ്	-11.2516
▁വൃദ്ധ	-11.2516
▁ബാലുശ്ശേരി	-11.2516
▁സാഹിബ	-11.2516
▁പലർക്കും	-11.2516
▁ഡയറക്	-11.2516
▁ഐഎന്‍എല	-11.2517
▁തിരിച്ചുപിടിക്ക	-11.2518
▁അവയവ	-11.2518
▁ചേർക്ക	-11.2519
▁കാസിം	-11.252
പൂജ	-11.2529
▁മല്ലിക	-11.2533
ുണ്ടല്ലോ	-11.2533
▁സ്റ്റോക്	-11.2533
▁സിദ്ധു	-11.2538
▁അനുവദിക്കണമെന്ന	-11.255
കയറി	-11.2554
മുണ്ടാക്കാന	-11.2566
▁പോലീസിനോട	-11.2567
▁വർധന	-11.2569
▁ബാധിക്കുമെന്ന	-11.258
th	-11.2599
ില്ലായ്മ	-11.2601
▁മയക്കുമരുന്ന	-11.2608
▁ലക്ഷ്യത്തോടെയാണ	-11.2613
▁ഓസ്ട്രേലിയ	-11.2626
▁ചങ്ങനാശ്ശേരി	-11.2626
▁ചതുരശ്ര	-11.2626
▁ഛത്തീസ്ഗഡില	-11.2626
▁സാമുദായിക	-11.2626
▁മോട്ടോർ	-11.2626
▁നൗഷാദ	-11.2626
▁മേപ്പാടി	-11.2626
▁വാസ്തവ	-11.2626
▁അര്‍ഹത	-11.2626
▁ദിര്‍ഹ	-11.2626
▁റൂറല്‍	-11.2626
▁കിഷോറ	-11.2626
▁പെരുന്നാള	-11.2626
▁സാധനങ്ങൾ	-11.2626
ത്തിനിരയായ	-11.2626
▁പിരിച്ചുവിട്ട	-11.2627
▁(21)	-11.2627
▁മംഗള	-11.2627
▁സമ്പൂർണ	-11.2627
▁നാലാമത്തെ	-11.2628
▁ഇലക്ട്രിക്	-11.263
▁മൂലമാണെന്ന	-11.2633
ങ്ങളിലൊന്നാണ്	-11.2637
▁അപ്പുറത്ത	-11.2637
▁നിഴല	-11.2647
▁എഞ്ചിന	-11.2651
▁സ്റ്റാൻഡ	-11.2654
▁രംഗത്തിറക്ക	-11.267
▁പ്രസിഡണ്ട	-11.272
▁ഉദ്ധരിച്ച	-11.272
ശുപത്രി	-11.2721
രഞ്ഞെടുപ്പ	-11.2733
ധിഷ്ഠിത	-11.2737
ൊരിക്കലും	-11.2737
▁കോയമ്പത്തൂര	-11.2737
▁നിർണ്ണായക	-11.2737
▁ബിഡിജെഎസ	-11.2737
▁ലിംഗായത്ത്	-11.2737
▁സ്പെഷ്യൽ	-11.2737
▁കൈക്കൂലി	-11.2737
▁ഒരൊറ്റ	-11.2737
▁ബൈഡൻ	-11.2737
▁മുകുന്ദന	-11.2737
▁രസകരമായ	-11.2737
▁മലേഷ്യ	-11.2737
▁വെടിവെപ്പ	-11.2737
▁രാജ്ഞി	-11.2737
▁യോജിപ്പ	-11.2737
▁(48)	-11.2737
▁റഹ്മാന	-11.2737
▁(31)	-11.2738
▁സഹപ്രവർത്തക	-11.2738
▁വീട്ടുകാർ	-11.274
▁കുറ്റവാളി	-11.274
▁അസഭ്യ	-11.274
▁(2)	-11.2742
▁നമ്പറുകള	-11.2745
പൂര്‍വ്വം	-11.2746
▁അറിയില്ലെന്ന	-11.278
▁തയ്യാറാകണമെന്ന	-11.279
▁ജനറല	-11.2819
▁ഒപ്ടിക്ക	-11.2849
▁ഗൗരിയമ്മ	-11.2849
▁യുട്യൂബ	-11.2849
▁ത്രികോണ	-11.2849
▁ക്യാപ്റ്റൻ	-11.2849
▁അഹങ്കാര	-11.2849
▁ഉപാധ്യക്ഷ	-11.2849
▁അഭിവാദ്യ	-11.2849
▁നട്ടെല്ല	-11.2849
▁മോചിപ്പിക്ക	-11.2849
▁എയിംസ	-11.2849
▁ഡെല്‍റ്റ	-11.285
▁ഹൂഡ	-11.285
▁ആഴ്ച്ച	-11.285
▁വേണമെങ്കി	-11.285
▁പുനസംഘടന	-11.2851
▁നാണയ	-11.2851
▁ആത്മാർത്ഥ	-11.2851
▁സലാം	-11.2853
▁പാർല	-11.2892
▁കണ്ണീര	-11.2917
▁ഡോക്ടർമാര	-11.2935
െടുക്കാൻ	-11.2941
▁വനംവകുപ്പ	-11.295
▁കാരുണ്യ	-11.2963
▁വിശദാംശങ്ങൾ	-11.2963
▁അഭ്യര്‍ത്ഥിക്ക	-11.2963
▁വടക്കാഞ്ചേരി	-11.2963
▁സ്തംഭ	-11.2963
▁കോതമംഗലം	-11.2963
▁ഏപ്രിലില	-11.2963
മ്പാടും	-11.2963
▁ആര്‍സിബി	-11.2963
▁തമിഴ്നാട്ടിൽ	-11.2963
▁സാധ്യമല്ല	-11.2963
▁സുലൈമാ	-11.2963
▁മദ്രാസ	-11.2963
▁വയനാട്ടിൽ	-11.2963
▁പ്രാര്‍ത്ഥന	-11.2963
▁ഭാഗത്തുനിന്ന	-11.2963
▁ന്യൂനമർദ	-11.2964
▁ഉത്തർ	-11.2964
▁വഹാബ	-11.2964
▁രജിസ്ട്രേഷൻ	-11.2964
▁പൂര്‍ത്തിയാക	-11.2973
▁നിർമിക്ക	-11.2976
സ്ത്രീ	-11.3016
▁പദ്ധതിയിട്ട	-11.3016
▁മെഡല	-11.3016
ക്ഷേത്ര	-11.3017
▁കളിയാക്ക	-11.3033
▁ലോക്ക്ഡൗണ	-11.304
▁ഹെല്‍പ്	-11.3047
▁വീതമ	-11.3055
നിരീക്ഷക	-11.3064
▁പാസ്വാന	-11.3065
▁മത്സരാര്‍ത്ഥി	-11.3073
▁സത്യവാങ്മൂലത്ത	-11.3078
▁അപകീര്‍ത്തി	-11.3078
▁വകയിരുത്ത	-11.3078
▁അഭിമുഖീകരിക്ക	-11.3078
▁കരുനാഗപ്പള്ളി	-11.3078
▁ക്വട്ടേഷന്‍	-11.3078
▁ഛിന്നഗ്രഹ	-11.3078
▁ജയസൂര്യ	-11.3078
▁രാജ്യവ്യാപക	-11.3078
▁ലൈംഗികാതിക്രമ	-11.3078
▁സമൃദ്ധി	-11.3078
▁സമ്പ്രദായ	-11.3078
▁റെഗുല	-11.3078
▁വ്യോമയാന	-11.3078
▁ജലീൽ	-11.3078
ുപയോഗിച്ച	-11.3078
▁ജനിതക	-11.3078
▁സുധീരന	-11.3078
▁തിങ്കളാഴ്ച്ച	-11.3078
▁ഗര്‍ഭ	-11.3079
▁ഫിനാൻ	-11.3079
▁കൂറുമാറ്റ	-11.308
▁ഏര്‍പ്പെട	-11.3089
▁കൗണ്‍സിലര്‍മാര	-11.3098
▁വൈറലാക	-11.3101
▁കുടുംബങ്ങള്‍ക്ക	-11.3102
ിട്ടുള്ളതെന്ന	-11.3115
▁സ്ഥാപനങ്ങള്‍ക്ക	-11.316
ോടൊപ്പ	-11.3163
▁നെടുമ്പാശ്ശേരി	-11.3194
▁ശുചീകരണ	-11.3194
▁ഏകോപിപ്പിക്ക	-11.3194
▁കടകംപള്ളി	-11.3194
▁ഛത്തീസ്ഗഡ്	-11.3194
▁ഫിനാലെ	-11.3194
▁വന്യജീവി	-11.3194
▁വാരണാസി	-11.3194
▁ശിരോമണി	-11.3194
▁ശിവശങ്കര്‍	-11.3194
▁സമുച്ചയ	-11.3194
▁സിദ്ധിഖ	-11.3194
▁തെരഞ്ഞെടുത്ത	-11.3194
▁അർജുന	-11.3194
▁ദിനേശ്	-11.3194
▁ഹരിപ്പാട്	-11.3194
▁നാവികസേന	-11.3195
▁യേശു	-11.3196
▁ലതിക	-11.3198
▁കവിഞ്ഞ	-11.3203
▁അയല്‍വാസി	-11.3217
പതിനായിരം	-11.3268
▁ചേരുമെന്ന	-11.3302
▁പൊതുജനങ്ങള്‍ക്ക	-11.3304
▁രാജ്യത്തുടനീള	-11.3312
▁ഓപ്പറേഷൻ	-11.3312
▁പണപ്പെരുപ്പ	-11.3312
▁പുനസ്ഥാപിക്ക	-11.3312
▁പ്രോസിക്യൂഷൻ	-11.3312
▁ശ്വാസം	-11.3312
▁അനുവാദം	-11.3312
▁ശനിയാഴ്ച്ച	-11.3312
വൽക്കരണ	-11.3312
▁(43)	-11.3312
▁സതീശനും	-11.3313
▁പൊട്ടിപ്പുറ	-11.3313
▁ബാരലിന്	-11.3313
▁പ്രമോഷന	-11.3314
▁കൊതുക	-11.3314
▁കരീം	-11.3316
ുയർന്ന	-11.3361
▁വിദേശത്തുനിന്ന	-11.337
▁യൂണിറ്റുകള	-11.337
ുകഴിഞ്ഞു	-11.3389
▁ടൂര്‍ണമെന്റ	-11.3431
▁ആസ്വദിക്ക	-11.3431
▁കശ്മീർ	-11.3431
▁ജര്‍മനി	-11.3431
▁ടൊവിനോ	-11.3431
▁ന്യൂദല്‍ഹി	-11.3431
▁പ്രതിബദ്ധത	-11.3431
▁ബയോഡാറ്റ	-11.3431
▁യുഎപിഎ	-11.3431
▁രേവതി	-11.3431
▁ജൂനിയർ	-11.3431
▁പ്രേരിപ്പിക്ക	-11.3431
▁ഫെഡറല	-11.3431
▁അനുരാഗ്	-11.3431
▁ക്ഷീര	-11.3431
▁ചുമതലയേറ്റ	-11.3431
▁സംഭവസ്ഥലത്ത	-11.3431
▁പുറപ്പെടുവിക്ക	-11.3431
▁പിന്തുടര്‍ന്ന	-11.3431
▁വാചക	-11.3431
▁വാട്ടർ	-11.3431
▁ചന്ദ്രയാന്‍	-11.3432
▁അവിടുത്ത	-11.3432
▁പൂര്‍വ	-11.3432
▁മലമ്പുഴ	-11.3432
▁ഐസിയുവ	-11.3432
▁ക്ലിക്ക്	-11.3433
▁ഒരുക്കങ്ങള	-11.3434
▁പൗരന്‍മാര	-11.3435
▁തുരത്ത	-11.3438
▁കുര്യന	-11.3442
▁ലയന	-11.3445
ുന്നതിനിടയില	-11.3446
▁ഓഗസ്	-11.3476
നിര്‍മ്മാണ	-11.3492
കമ്മിറ്റി	-11.35
▁വരികയാണെന്ന	-11.35
▁മൊബൈല	-11.3513
▁ക്രൈംബ്രാഞ്ച	-11.3544
▁ഹാജര	-11.355
▁ഗർഭിണി	-11.3551
▁ആദായനികുതി	-11.3551
▁ഇതിഹാസ	-11.3551
▁കുടിശ്ശിക	-11.3551
▁തീര്‍ഥാടന	-11.3551
▁നിര്‍ണ്ണായക	-11.3551
▁പ്രതിനിധീകരിച്ച	-11.3551
▁മാതാപിതാക്കൾ	-11.3551
▁റിപബ്ലിക്	-11.3551
▁ഹിമാചല്‍	-11.3551
▁കീഴടക്ക	-11.3551
▁ബാലഗോപാല	-11.3551
▁പിന്നോട്ട്	-11.3551
▁ബിനോയ്	-11.3551
അംബേദ്ക	-11.3551
▁വ്യക്തിഗത	-11.3552
▁വിട്ടുനില്‍ക്ക	-11.3552
▁ഹരജി	-11.3552
▁(52)	-11.3552
▁അൻവർ	-11.3552
ാനാവുമെന്ന	-11.3555
▁ഹര്‍ഷ	-11.3559
▁വിള്ളല	-11.3576
മുഖ്യമന്ത്രി	-11.3612
▁ഇതിനോട	-11.3643
▁ദുരൂഹ	-11.3648
▁ഗൂഡാലോചന	-11.3673
▁ഘോഷയാത്ര	-11.3673
▁മാവോയിസ്റ്റ്	-11.3673
▁റായ്ബറേലി	-11.3673
▁ശുചിമുറി	-11.3673
▁സൈക്കോളജി	-11.3673
▁ക്രിസ്ത്യൻ	-11.3673
▁സാങ്കേതികവിദ്യ	-11.3673
▁അപലപിക്ക	-11.3673
▁ബ്രിജ്	-11.3673
▁കൗണ്ടറ	-11.3674
▁ജയറാം	-11.3674
▁മർദ്ദിച്ച	-11.3674
▁വമ്പൻ	-11.3674
▁(33)	-11.3674
▁ഗോപാലകൃഷ്ണന	-11.3674
▁പാണക്കാട്	-11.3674
▁ചൊവ്വാഴ്ച്ച	-11.3675
▁കത്തെഴുത	-11.3676
▁വഞ്ചന	-11.3679
ങ്ങനൊരു	-11.3682
▁തൃപ്തികരമ	-11.3682
▁കുറ്റകൃത്യങ്ങള	-11.3682
▁സാക്ഷാ	-11.3682
▁നടത്തിവരുന്ന	-11.3683
▁മാസത്തേക്ക	-11.3686
▁അതല്ലെങ്കി	-11.3687
▁ഥാ	-11.3693
▁പരാതിക്കാരന	-11.3695
▁കണക്കാക്കപ്പെട	-11.3705
▁ക്രിമിനലുകള	-11.3706
പ്രവർത്തന	-11.3736
ഹിന്ദു	-11.3738
▁നമ്പര	-11.3796
▁സന്ദര്‍ശക	-11.3797
▁എരുമേലി	-11.3797
▁ദാരിദ്ര്യ	-11.3797
▁ന്യൂയോര്‍ക്ക്	-11.3797
▁പോപ്പുലർ	-11.3797
▁ഫൗണ്ടേഷന	-11.3797
▁വട്ടിയൂര്‍ക്കാവ	-11.3797
▁വലതുപക്ഷ	-11.3797
▁പ്രതിഷ്ഠ	-11.3797
▁ധാരാളമ	-11.3797
▁മൗര്യ	-11.3797
▁ഫ്രാന്‍സിസ്	-11.3797
മുന്നയിച്ച	-11.3797
▁ബിഹാർ	-11.3797
▁സുധാകരനും	-11.3798
▁മാറ്റിവെക്ക	-11.3798
▁അഗസ്റ്റിന	-11.3798
▁കൊമേഴ്	-11.38
▁ദേഹത്ത	-11.3801
▁തൂണ	-11.3802
▁ക്ലിപ്പ	-11.3802
▁വിട്ടയച്ച	-11.3804
▁കരാറുകാര	-11.3807
▁നിസാര	-11.3813
ിലേക്കെത്ത	-11.3817
▁സംശയമുണ്ട	-11.3827
▁ഒഴിവുകളിലേക്ക	-11.3855
▁ഹമാസിന	-11.3863
▁റെക്കോര്‍ഡ	-11.3919
▁അടിപൊളി	-11.3922
▁ഇതുകൂടാതെ	-11.3922
▁ഇന്‍ഷുറന്‍സ്	-11.3922
▁കോൺഫറൻസ	-11.3922
▁പാര്‍വതി	-11.3922
▁ബല്‍റാം	-11.3922
▁മുന്‍നിര്‍ത്തി	-11.3922
▁വിളിച്ചുവരുത്തി	-11.3922
▁വർഗ്ഗീയ	-11.3922
▁ചിഹ്നം	-11.3922
▁തീപിടിത്ത	-11.3922
▁പൈതൃക	-11.3922
▁വ്യാഖ്യാന	-11.3922
▁മൃദു	-11.3922
▁വർദ്ധിക്ക	-11.3922
▁ശുക്ല	-11.3922
▁ഐസൊലേഷനില്‍	-11.3922
▁അങ്ങനെയെങ്കില്‍	-11.3922
▁ആര്‍എംപി	-11.3922
▁പ്രീമിയ	-11.3923
▁സിറാജ	-11.3924
▁ബൂസ്റ്റ	-11.3927
▁നിഷേധ	-11.3932
▁വില്ലന	-11.3958
ാധിപ	-11.3972
▁വിമര്‍ശനവുമായ	-11.4028
▁പൂർത്തിയാക	-11.4047
▁വയനാട	-11.4048
▁ഉപദേഷ്ടാവ	-11.4048
▁കമ്പ്യൂട്ടര്‍	-11.4048
▁ക്രമീകരിക്ക	-11.4048
▁തില്ലങ്കേരി	-11.4048
▁നെടുമങ്ങാട്	-11.4048
▁വയോധിക	-11.4048
▁തദ്ദേശസ്വയംഭരണ	-11.4048
▁ദീപാവലി	-11.4048
▁ഫെഡറേഷന	-11.4048
▁ശിവൻകുട്ടി	-11.4048
▁ഹീറോ	-11.4048
▁എസ്റ്റേറ്റ്	-11.4048
▁ഫ്ലൈറ്റ	-11.4048
▁ലഭ്യമല്ല	-11.4048
▁വൃക്ക	-11.4049
▁നോർത്ത്	-11.4049
▁കിണറ്റ	-11.4049
▁ഫയൽ	-11.4049
▁വാർഡുകള	-11.4051
▁വഖഫ	-11.4051
▁ദൃക്	-11.4051
▁ഏറെക്കുറ	-11.4054
മെൻറ്	-11.4055
▁നറുക്ക	-11.407
▁ഫിസിക്	-11.408
പരിശോധിക്ക	-11.4117
പഞ്ചായത്ത	-11.4122
പ്രൊഡക്	-11.4167
▁കേടുപാട	-11.4176
▁അതിരൂക്ഷ	-11.4176
▁ഇന്‍സ്റ്റഗ്രാമ	-11.4176
▁ദ്രാവിഡ	-11.4176
J	-11.4176
▁അത്യാധുനിക	-11.4176
▁കാശ്മീര	-11.4176
▁ക്യാബിനറ്റ്	-11.4176
▁ദേശാഭിമാനി	-11.4176
▁നിർവഹിക്ക	-11.4176
▁സംതൃപ്ത	-11.4176
▁സന്നിധാനം	-11.4176
▁സുശാന്ത്	-11.4176
▁സ്വമേധയ	-11.4176
▁നിഷാദ്	-11.4176
▁സാമ്പിള്‍	-11.4176
▁വൈരാഗ്യ	-11.4176
▁ഡോക്യുമെന്റ	-11.4176
▁ഏല്‍പ്പിച്ച	-11.4176
▁ആറ്റിങ്ങല	-11.4176
▁കോടിയിലധികം	-11.4176
▁തൊഴിലവസരങ്ങള	-11.4177
▁ചാമ്പ്യന	-11.4177
▁ചെങ്ങന്നൂര	-11.4177
▁ടീച്ചറ	-11.4177
▁(39)	-11.4177
▁പുണ്യ	-11.4178
▁വലിപ്പ	-11.4178
▁വേറിട്ട	-11.4178
▁ദിവസേന	-11.418
▁വയസുകാരന	-11.418
▁മറയ്ക്ക	-11.4182
മാസത്തിനുള്ളില്‍	-11.4194
രാജ്യത്ത	-11.4202
▁എന്നിവയെല്ലാ	-11.4276
▁ഇന്റലിജ	-11.4305
▁കാഞ്ഞിര	-11.4306
▁ഉത്പാദന	-11.4306
▁കമ്മീഷണറ	-11.4306
▁കോൺസുലേറ്റ	-11.4306
▁അരിക്കൊമ്പന	-11.4306
▁ഉൽപ്പന്ന	-11.4306
▁കഴക്കൂട്ടത്ത	-11.4306
▁രാമചന്ദ്രൻ	-11.4306
▁റവന്യു	-11.4306
▁ശ്വാസകോശ	-11.4306
▁സുര്‍ജേവാല	-11.4306
▁ആകർഷിക്ക	-11.4306
▁എഞ്ചിനീയര്‍	-11.4306
▁ആരാധനാലയങ്ങള	-11.4307
▁മുസ്തഫ	-11.4307
▁ലക്ഷണങ്ങൾ	-11.4307
▁ക്രോസ്	-11.4307
▁ആയുഷ്	-11.4307
▁ഗായിക	-11.4307
▁കള്ളക്കേസ	-11.4308
▁അതീത	-11.4309
▁പ്രൊഫൈല	-11.4309
▁താരിഖ	-11.4312
▁ലത്തീ	-11.4316
▁കോണ്‍ഗ്രസിലേക്ക	-11.4359
നിരീക്ഷണ	-11.4378
പ്രചരണ	-11.4379
▁ആദരാഞ്ജലി	-11.4438
▁ഓര്‍ഡിനന്‍സ	-11.4438
▁പൂര്‍ത്തീകരിച്ച	-11.4438
▁ഇന്റര്‍നാഷണല്‍	-11.4438
▁കന്യാകുമാരി	-11.4438
▁പെഷ്യലിസ്റ്റ്	-11.4438
▁പ്രസിഡൻ്റ്	-11.4438
▁മന്‍മോഹന്‍	-11.4438
▁സമയബന്ധിതമായ	-11.4438
▁സയ്യിദ്	-11.4438
▁അത്യന്തം	-11.4438
▁ഇരുചക്ര	-11.4438
▁മില്യൺ	-11.4438
▁അര്‍ഹരായ	-11.4438
▁വിഭജിക്ക	-11.4438
▁തണുപ്പ	-11.4438
▁പ്ലാറ്റ്ഫോമ	-11.4438
▁സങ്കീര്‍ണ	-11.4438
▁കാരാട്ട്	-11.4438
▁വിഐപി	-11.4438
▁ആറളം	-11.4438
െപ്പോലുള്ള	-11.4439
▁ശൈഖ	-11.4439
▁അസ്ഥി	-11.444
ാതിരിക്കുന്നത	-11.4449
▁നിയമിക്കുന്നതിന	-11.4454
▁പോര്‍ട്ടല	-11.4461
ബാലചന്ദ്രകുമാര്‍	-11.4464
▁വൈകുന്നേര	-11.4472
▁എഴുപത	-11.4477
▁തലപ്പത്ത	-11.4484
▁വിമർശനവുമായ	-11.4508
സംവിധാന	-11.4511
▁തൃശ്ശൂര	-11.4533
ത്തിനൊടുവി	-11.4547
▁അനുനയ	-11.4561
▁വാഹനാപകടത്ത	-11.4571
സൊലേഷന	-11.4571
▁കർണ്ണാടക	-11.4571
▁ന്യായീകരിച്ച	-11.4571
▁അപലപിച്ച	-11.4571
▁നിര്‍മാതാക്കള	-11.4571
▁രഹസ്യാന്വേഷണ	-11.4571
▁റാഷിദ്	-11.4571
▁വംശീയ	-11.4571
▁സ്പെഷ്യല്‍	-11.4571
▁ഇല്ലാതാവ	-11.4571
▁ദുല്‍ഖ	-11.4571
▁അധ്വാന	-11.4571
▁ഖജനാവ	-11.4571
▁കമ്യൂണിസ്റ്റ്	-11.4571
▁അടയാളപ്പെടുത്ത	-11.4571
▁സൗകര്യമൊരുക്ക	-11.4571
▁വാര്യര്‍	-11.4571
ച്ചെലവ	-11.4571
▁ഇടനിലക്കാര	-11.4572
▁യുക്തി	-11.4572
▁അര്‍ണബ	-11.4573
▁കസ്റ്റംസ	-11.4577
▁വിദേശത്തേക്ക	-11.4581
▁പ്രാപിക്ക	-11.4584
▁കണക്ഷന	-11.4584
▁ഒളിഞ്ഞിരിക്ക	-11.4586
ചിത്തിര	-11.4586
കര്‍ഷക	-11.4598
▁പൾസ	-11.46
▁കസ്റ്റഡി	-11.4621
▁തീയേറ്ററ	-11.4706
▁ആറന്മുള	-11.4706
▁എലിസബത്ത	-11.4706
▁ഗുണഭോക്താക്കള	-11.4706
▁അജ്ഞാത	-11.4706
▁അടച്ചുപൂട്ട	-11.4706
▁ഉത്തർപ്രദേശിൽ	-11.4706
▁ഉഭയകക്ഷി	-11.4706
▁എഴുന്നേറ്റ	-11.4706
▁കോര്‍പ്പറേറ്റ	-11.4706
▁പത്മനാഭ	-11.4706
▁പള്ളുരുത്തി	-11.4706
▁ഭൗതിക	-11.4706
▁കെഎസ്ഇബി	-11.4706
▁പ്രോട്ടോകോള	-11.4706
com	-11.4706
▁ദുബായിൽ	-11.4706
▁കോടീശ്വരന	-11.4706
▁കോഹ്ലി	-11.4706
▁സ്മാര്‍ട്ട്	-11.4706
▁നവംബറില	-11.4706
▁കൊലയാളി	-11.4706
▁ബൈപ്പാസ	-11.4707
▁(46)	-11.4707
▁റിയാദില	-11.4707
▁(47)	-11.4707
▁സൈക്കിള	-11.4707
▁(18)	-11.4708
▁ഗുരുതരാവസ്ഥയില	-11.4709
▁കല്ലേറ	-11.4709
പണ്ഡിത	-11.4711
▁ഇതിനൊപ്പ	-11.4712
▁(4)	-11.4714
▁ബുള്ളറ്റ	-11.4727
▁ഓഫീസിലേക്ക	-11.4756
▁ബിസിനസുകാര	-11.4762
ിനുമെതിരെ	-11.4776
മൂര്‍ത്തി	-11.4787
▁ആന്റിബോഡി	-11.4843
▁ക്രിസ്ത്യാനി	-11.4843
▁ആര്‍ട്ടിക്കിള്‍	-11.4843
▁തലച്ചോറ	-11.4843
▁തിയേറ്റര്‍	-11.4843
▁നെതന്യാഹു	-11.4843
▁യൂറോപ്യന്‍	-11.4843
▁വരണാധികാരി	-11.4843
▁ഹൈക്കമാൻഡ	-11.4843
▁ഇക്കാലയളവില	-11.4843
▁കര്‍ഫ്യൂ	-11.4843
▁മേൽനോട്ട	-11.4843
▁ഡയലോഗ	-11.4843
▁മണിപ്പൂർ	-11.4843
▁സദസ്സ	-11.4844
▁ജിസിസി	-11.4844
▁നിർമിച്ച	-11.4845
▁ഏര്‍പ്പെട്ട	-11.4845
▁തളളി	-11.4846
▁എംഎസ്എഫ	-11.4848
▁(7)	-11.4848
▁രോഗമുക്തര	-11.4848
▁ശങ്കറ	-11.4851
▁ബിശ്വ	-11.4859
തയ്യാറായിട്ടില്ല	-11.4882
▁അനിയന	-11.4892
നിർമാ	-11.4943
▁അറ്റകുറ്റപ്പണി	-11.4982
ലോകമെമ്പാടുമുള്ള	-11.4982
▁(54)	-11.4982
▁അബ്ദുറഹ്	-11.4982
▁ഒന്നടങ്കം	-11.4982
▁പീപ്പിള്‍	-11.4982
▁ഭൂചലന	-11.4982
▁മലിനീകരണ	-11.4982
▁മുനിസിപ്പല്‍	-11.4982
▁മൊയ്തീന	-11.4982
▁രജനീകാന്ത	-11.4982
▁താങ്ങുവില	-11.4982
▁പണിക്കൂലി	-11.4982
▁ബസവരാജ്	-11.4982
▁സേഫ്റ്റി	-11.4982
▁ആൺകുട്ടി	-11.4982
▁സാദ്ധ്യത	-11.4982
▁പാക്കിസ്ഥാന	-11.4982
▁ടീച്ചർ	-11.4982
▁മഹത്തായ	-11.4982
▁മനസ്സിലാവ	-11.4982
▁ഡോസുകൾ	-11.4983
പുരോഹിത	-11.4983
▁നായ്ക്കള	-11.4983
▁ആചരിക്ക	-11.4986
▁നോർക്ക	-11.4991
▁കൗതുക	-11.4992
▁സെനറ്റ	-11.4996
സുരേന്ദ്രൻ	-11.5063
ശരീര	-11.5064
യാക്കുമെന്ന	-11.5106
▁കൂടെയുണ്ട	-11.5109
▁അണിനിരത്ത	-11.5123
▁ഇന്ദിരാഗാന്ധി	-11.5123
▁ഉപരാഷ്ട്രപതി	-11.5123
▁പുതുവത്സര	-11.5123
▁യൂണിഫോം	-11.5123
▁വിപുലീകരിക്ക	-11.5123
▁സുബ്രഹ്മണ്യ	-11.5123
▁സ്രോതസ്സ	-11.5123
▁ഹെലികോപ്ട	-11.5123
▁ഇസ്ലാം	-11.5123
▁ജാർഖണ്ഡ	-11.5123
▁നോമിനേറ്റ	-11.5123
▁സുഹൃത്തുക്കൾ	-11.5123
▁അദാലത്ത	-11.5123
▁മോഡൽ	-11.5123
▁ഭംഗിയ	-11.5123
▁കവാട	-11.5124
▁മെമ്പര്‍	-11.5124
▁ഷട്ടറുകള	-11.5125
▁വികസിപ്പിച്ചെടു	-11.5126
▁വജ്ര	-11.5126
▁അടിവരയിട	-11.5128
▁ടെക്നിക്ക	-11.5129
▁പേരാവൂര	-11.5131
▁അനുകൂലികള	-11.5132
▁മോന്‍സന	-11.5177
സെക്രട്ടറി	-11.5206
▁മുതലെടുക്ക	-11.5227
ഭിത്തി	-11.5236
▁ലബോറട്ടറി	-11.5266
▁സന്ദർഭ	-11.5266
▁ഒത്തുതീര്‍പ്പ	-11.5266
▁ഗാര്‍ഹിക	-11.5266
▁താരതമ്യേന	-11.5266
▁പ്രവാചക	-11.5266
▁പ്രൈമറി	-11.5266
▁വന്യമൃഗ	-11.5266
▁വിസമ്മതിച്ച	-11.5266
▁ശ്മശാന	-11.5266
▁മുൻനിർത്തി	-11.5266
▁പ്രേരണ	-11.5266
▁പെരുമാറ്റച്ചട്ട	-11.5266
▁സംരക്ഷിച്ച	-11.5266
▁ഒഡിഷ	-11.5266
▁സെമിനാറ	-11.5266
▁പവിത്ര	-11.5266
▁ബോധ്യപ്പെട്ട	-11.5266
▁അടിച്ചമർത്ത	-11.5266
▁ഗായകന	-11.5266
▁സഖ്യകക്ഷിയായ	-11.5266
▁വന്‍തോതില	-11.5267
▁ഗ്ബോസ	-11.5267
▁വാല്യു	-11.5267
▁അയ്യായിര	-11.5268
▁അതിശയ	-11.5272
▁ഏഷ്യാനെറ്റ	-11.5282
▁കഞ്ചാവ	-11.5283
എന്നറിയപ്പെടുന്ന	-11.5298
▁ശ്രദ്ധിക്കേണ്ടത	-11.5323
▁വിയോഗത്ത	-11.5342
സമ്പന്ന	-11.5352
▁പെന്‍ഷന	-11.5373
▁മില്യണ	-11.5373
▁അപൂർവ	-11.5383
പളളി	-11.5383
ഇലക്ട്രിക്കല്‍	-11.5397
താരതമ്യപ്പെടുത്ത	-11.5411
▁ആധികാരിക	-11.5411
▁ഇതാദ്യമായാണ്	-11.5411
▁തെളിവെടുപ്പ്	-11.5411
▁പത്തനാപുരം	-11.5411
▁പൊള്ളലേറ്റ	-11.5411
▁സത്യവാങ്മൂലം	-11.5411
▁മജിസ്ട്രേറ്റ്	-11.5411
▁ഷെഡ്യൂള	-11.5411
▁ചിന്താഗതി	-11.5411
▁ദിവാകരന	-11.5411
▁ജർമ്മനി	-11.5411
▁നടത്തിവരികയ	-11.5411
▁മുസ്ലിംലീഗ	-11.5411
▁അഡ്വാന്‍സ്	-11.5411
▁ട്രിപ്പി	-11.5411
▁ന്യൂനമര്‍ദ	-11.5411
▁ഗോവിന്ദൻ	-11.5412
▁പത്രസമ്മേളനത്ത	-11.5412
▁മാജിക്	-11.5412
▁കടിയേറ്റ	-11.5412
▁ചാണക	-11.5413
▁ചേക്കേറ	-11.5417
▁ഒത്തുചേര	-11.542
ിനാവശ്യമായ	-11.5422
▁അനുനയിപ്പിക്ക	-11.5423
▁പരിഷത്ത	-11.543
▁വർഷങ്ങൾക്ക	-11.544
▁കാത്തിരിക്കുകയ	-11.5444
▁കരകയറ	-11.5478
സ്വാതന്ത്ര്യ	-11.5498
▁മെച്ചപ്പെട	-11.5558
▁ചെയർപേഴ്	-11.5558
▁അകമ്പടി	-11.5558
▁ഉദ്യോഗാർഥികൾ	-11.5558
▁എബ്രഹാം	-11.5558
▁എളമരം	-11.5558
▁കടന്നാക്രമിച്ച	-11.5558
▁ട്വിറ്റർ	-11.5558
▁ഡിപ്പാര്‍ട്ട്	-11.5558
▁ലൈബ്രറി	-11.5558
▁വിന്യസിക്ക	-11.5558
▁എയര്‍പോര്‍ട്ട്	-11.5558
പോട്ടുകളാണുള്ളത്	-11.5558
▁ഉൾക്കടല	-11.5558
▁കൊടകര	-11.5558
▁കണക്കിലെടുക്ക	-11.5558
▁ഡീസൽ	-11.5558
▁വൈറ്റില	-11.5558
▁ക്രിസ്മസ്	-11.5558
▁വാര്യർ	-11.5558
▁റസാഖ	-11.5558
▁ഹത്രാസ	-11.5558
▁കഷ്ടപ്പെട്ട	-11.5559
▁അവതരണ	-11.556
▁സ്റ്റോപ്പ	-11.556
▁കുടിയേറ	-11.556
▁രതീഷ	-11.5561
▁അദ്ദേഹവുമായ	-11.5567
▁നിരസിക്ക	-11.5572
▁വിനീത	-11.559
▁ഇന്നലത്ത	-11.5616
വസ്തുക്കൾ	-11.563
▁സുവര്‍ണ	-11.5637
▁പലപ്പോഴായി	-11.5658
▁സാധ്യതയുള്ളതിനാ	-11.5695
പൂര്‍ത്തിയാകാത്ത	-11.5699
▁അട്ടപ്പാടി	-11.5707
▁പ്രകടനപത്രിക	-11.5707
▁ഉപയോക്താക്കള	-11.5707
▁ഓര്‍ഡര്‍	-11.5707
▁തത്സമയ	-11.5707
▁പതിമൂന്ന	-11.5707
▁ഫോളോവേഴ്	-11.5707
▁രേഖാമൂല	-11.5707
▁വിനിയോഗിക്ക	-11.5707
▁സാമ്പിളുകൾ	-11.5707
▁സിദ്ദീഖ	-11.5707
▁സെപ്തംബർ	-11.5707
ക്കച്ചവട	-11.5707
▁വൈറോളജി	-11.5707
▁ഫാസിസ്റ്റ്	-11.5707
▁രശ്മി	-11.5707
▁ആമസോണ	-11.5707
▁സാമഗ്രികള	-11.5707
▁അരങ്ങേറിയത്	-11.5707
▁സബ്സിഡി	-11.5707
▁ഹിമന്ത	-11.5707
▁ആധാര്‍	-11.5707
▁മൾട്ടി	-11.5707
▁പാനൂര്‍	-11.5708
▁(51)	-11.5708
▁മാന്ദ്യ	-11.5708
ീശ്വര	-11.5708
▁അയോഗ്യത	-11.5709
▁സന്താന	-11.5709
▁നിലനിന്നിരുന്ന	-11.5709
▁ഗോൾഡ	-11.571
▁അപ്പോഴേക്ക	-11.5711
▁ഗാർഡ	-11.5711
▁പണിയെടുക്ക	-11.5712
+	-11.6012
ൡ	-11.6489
x	-11.6489
ഃ	-11.6818
@	-11.7161
=	-11.7337
]	-11.7337
[	-11.7515
∙	-11.8071
j	-11.8459
Y	-11.8659
X	-12.1172
•	-12.2269
ഋ	-12.2563
_	-12.2563
൪	-12.2866
൯	-12.2866
️	-12.3502
z	-12.4537
q	-12.5292
ഝ	-12.6995
$	-12.6998
ा	-12.7474
Q	-12.9056
Z	-13.0269
′	-13.0269
क	-13.0269
ഊ	-13.0876
°	-13.165
₹	-13.165
र	-13.2419
े	-13.2419
‐	-13.2419
्	-13.4162
ि	-13.4162
🔘	-13.5162
൦	-13.5162
்	-13.6273
न	-13.6273
स	-13.7523
\	-13.7523
य	-13.7523
❤	-13.8951
व	-13.8951
ब	-13.8951
⁄	-13.8951
>	-14.0618
म	-14.0618
⃣	-14.0618
ൿ	-14.0618
▪	-14.0618
ഌ	-14.2618
ட	-14.2618
द	-14.2618
ह	-14.2618
👉	-14.2618
♥	-14.5118
}	-14.5118
ग	-14.5118
ल	-14.8451
त	-14.8451
ډ	-14.8451
£	-14.8451
ं	-14.8451
ए	-14.8451
थ	-14.8451
ी	-14.8451
❓	-14.8451
⬛	-14.8451
︎	-14.8451
🙏	-14.8451
प	-14.8451
🏻	-14.8451
ய	-15.3451
ப	-15.3451
ट	-15.3451
ध	-15.3451
া	-15.3451
ڇ	-15.3451
€	-15.3451
🔥	-15.3451
🚩	-15.3451
ڈ	-15.3451
औ	-15.3451
ज	-15.3451
ण	-15.3451
भ	-15.3451
ष	-15.3451
ो	-15.3451
ौ	-15.3451
க	-15.3451
ம	-15.3451
ி	-15.3451
👌	-15.3451
👏	-15.3451
💎	-15.3451
💚	-15.3451
😍	-15.3451
😘	-15.3451
🤝	-15.3451
{	-15.3451
अ	-15.3451
🔸	-15.3451
श	-15.3451
ഔ	-16.3451
ச	-16.3451
ெ	-16.3451
<	-16.3451
ব	-16.3451
ル	-16.3451
ー	-16.3451
湘	-16.3451
¥	-16.3451
×	-16.3451
â	-16.3451
ñ	-16.3451
आ	-16.3451
इ	-16.3451
च	-16.3451
ठ	-16.3451
।	-16.3451
ং	-16.3451
ল	-16.3451
அ	-16.3451
த	-16.3451
ன	-16.3451
ல	-16.3451
வ	-16.3451
ு	-16.3451
ை	-16.3451
‟	-16.3451
◾	-16.3451
♀	-16.3451
✌	-16.3451
✨	-16.3451
➡	-16.3451
ブ	-16.3451
ム	-16.3451
ラ	-16.3451
南	-16.3451
容	-16.3451
美	-16.3451
	-16.3451
🎖	-16.3451
🐟	-16.3451
👇	-16.3451
🖤	-16.3451
🗃	-16.3451
😄	-16.3451
🙄	-16.3451
🤔	-16.3451
🤣	-16.3451
🥛	-16.3451
	-16.3451
◼	-16.3451
`	-16.3452
ீ	-16.3452
🤦	-16.3452
(	-16.3452
ஆ	-16.3452
ண	-16.3452
