<unk>	0
<s>	0
</s>	0
ന്	-0
ക്	-1
ത്	-2
്‍	-3
▁പ	-4
ന്ന	-5
▁ക	-6
ക്ക	-7
തി	-8
▁സ	-9
്ട	-10
▁വ	-11
ില	-12
▁മ	-13
ും	-14
▁ന	-15
▁അ	-16
ര്‍	-17
്ര	-18
ച്	-19
ുന്ന	-20
്യ	-21
്പ	-22
ായ	-23
ാണ	-24
ട്ട	-25
ിയ	-26
▁ത	-27
ത്തി	-28
ങ്	-29
▁എ	-30
രി	-31
റ്	-32
പ്പ	-33
ാണ്	-34
ത്ത	-35
സ്	-36
ച്ച	-37
▁യ	-38
▁ഇ	-39
ണ്ട	-40
ങ്ങ	-41
ല്‍	-42
▁ആ	-43
▁ച	-44
്ല	-45
ടെ	-46
ായി	-47
▁പ്ര	-48
ില്‍	-49
ന്‍	-50
ാന	-51
രു	-52
▁ര	-53
ിക്ക	-54
ുക	-55
റ്റ	-56
ള്‍	-57
▁വി	-58
ഞ്	-59
▁ബ	-60
ിച്ച	-61
ക്ക്	-62
ന്ന്	-63
▁ജ	-64
▁സ്	-65
്ള	-66
രുന്ന	-67
ള്ള	-68
ാര	-69
റെ	-70
ടു	-71
▁നി	-72
▁ഉ	-73
ുമ	-74
▁ല	-75
ക്ഷ	-76
ഞ്ഞ	-77
െയ	-78
െന്ന	-79
ിക	-80
ിൽ	-81
ുള്ള	-82
▁ഒ	-83
▁,	-84
▁എന്ന	-85
ന്റെ	-86
▁ശ	-87
ില്ല	-88
ുടെ	-89
രുന്നു	-90
▁ക്ക	-91
▁കോ	-92
വി	-93
ത്ര	-94
ദ്	-95
ങ്ങള	-96
ദേ	-97
▁മാ	-98
▁തി	-99
ുണ്ട	-100
▁സം	-101
▁.	-102
ടി	-103
ല്ല	-104
റി	-105
ാല	-106
രിക്ക	-107
▁പറ	-108
▁മു	-109
ാക്ക	-110
സി	-111
പ്പെ	-112
▁പി	-113
ാര്‍	-114
▁നട	-115
▁രാ	-116
▁നേ	-117
▁കേ	-118
▁ഗ	-119
▁പോ	-120
▁ി	-121
▁ചെയ	-122
ാന്‍	-123
▁കു	-124
▁കൊ	-125
ങ്ക	-126
്മ	-127
ന്ത്	-128
ണം	-129
ുന്നത്	-130
▁ദ	-131
ാവ	-132
െന്ന്	-133
▁1	-134
▁സി	-135
ിലെ	-136
ോഗ	-137
▁ഭ	-138
ത്ത്	-139
നി	-140
നെ	-141
ട്	-142
േഷ	-143
രെ	-144
ദേശ	-145
ച്ച്	-146
ിവ	-147
▁2	-148
െന്നും	-149
മ്മ	-150
ുവ	-151
▁ഡ	-152
▁സ്വ	-153
▁പു	-154
സ്ഥ	-155
ന്ത	-156
ങ്ങള്‍	-157
ുണ്ട്	-158
പി	-159
ണ്	-160
ന്ദ	-161
ത്തില്‍	-162
▁സാ	-163
െടു	-164
ത്തിയ	-165
ായിരുന്നു	-166
യും	-167
ത്തെ	-168
ംഗ	-169
▁ഒരു	-170
റ്റ്	-171
രാ	-172
ത്തില	-173
▁കൂ	-174
ണ്‍	-175
ാർ	-176
▁സമ	-177
ഡ്	-178
▁ബി	-179
്യമ	-180
ട്ടി	-181
▁അവ	-182
▁ഫ	-183
ട്ട്	-184
▁റ	-185
▁പറഞ്ഞ	-186
▁പേ	-187
യം	-188
▁ഹ	-189
▁തു	-190
്യാ	-191
▁പ്രതി	-192
രിച്ച	-193
▁ഈ	-194
ഗ്ര	-195
▁സ്ഥ	-196
▁കള	-197
തമ	-198
ാം	-199
രം	-200
റിയ	-201
▁ഏ	-202
പ്പോ	-203
ിക്കുന്ന	-204
ന്ധ	-205
യില്‍	-206
ാൻ	-207
ഴി	-208
ീക	-209
ിലും	-210
വാ	-211
മ്പ	-212
ാല്‍	-213
ദ്യ	-214
യാണ്	-215
ിച്ചു	-216
▁വീ	-217
വും	-218
▁ട	-219
▁ചെയ്	-220
▁അത	-221
ന്ദ്ര	-222
▁ഓ	-223
സ്ഥാന	-224
▁പരി	-225
ങ്ങൾ	-226
ന്ത്രി	-227
▁കാര	-228
ാക	-229
ുകള	-230
ശ്	-231
ണ്ട്	-232
▁വാ	-233
ര്‍ക്ക	-234
ിട്ട	-235
▁രാജ	-236
നം	-237
ക്ര	-238
▁തുട	-239
▁നേത	-240
▁തന്ന	-241
ദ്ധ	-242
ഴ്	-243
ലി	-244
▁വെ	-245
▁സു	-246
േക്ക്	-247
പ്പ്	-248
▁പ്രവ	-249
മായ	-250
ത്തിൽ	-251
തിയ	-252
ഡി	-253
മായി	-254
റ്റി	-255
▁യും	-256
▁പറഞ്ഞു	-257
ിരുന്നു	-258
യ്	-259
▁വ്യ	-260
▁വേ	-261
ദേഹ	-262
▁പറയ	-263
ത്തിന്	-264
ാത	-265
മാണ്	-266
ലീ	-267
ടിയ	-268
പ്പെട്ട	-269
▁ചെയ്യ	-270
തു	-271
മി	-272
ഷ്ട	-273
▁നിന്ന	-274
്യം	-275
ാഗ	-276
െങ്ക	-277
▁കെ	-278
ോടെ	-279
▁അന	-280
▁നിയ	-281
രണ	-282
ദ്ദേഹ	-283
▁ത്	-284
▁-	-285
ക്തമ	-286
ുകള്‍	-287
▁(	-288
ല്‍ക	-289
▁നില	-290
ഫ്	-291
ത്തിന്റെ	-292
▁തന്നെ	-293
▁സംസ്ഥാന	-294
▁നല്‍ക	-295
▁ജില്ല	-296
ത്യ	-297
▁യു	-298
രള	-299
ുന്നു	-300
▁ആര	-301
ധി	-302
രഞ്ഞ	-303
▁അതി	-304
മാന	-305
ൂര്‍	-306
▁അദ്ദേഹ	-307
ജി	-308
▁റി	-309
ജെ	-310
ുമായി	-311
ണി	-312
രുടെ	-313
ളി	-314
രഞ്ഞെടു	-315
സം	-316
▁തീ	-317
ാമ	-318
▁കോണ്‍	-319
▁3	-320
▁പൊ	-321
ർക്ക	-322
ോട്	-323
00	-324
പ്ര	-325
ണമ	-326
▁എം	-327
▁ക്	-328
▁നിന്ന്	-329
ഴിഞ്ഞ	-330
ന്ത്യ	-331
നാ	-332
ുപ	-333
ടുത്ത	-334
വ്	-335
▁കോണ്‍ഗ്ര	-336
▁ഷ	-337
പ്	-338
▁ശ്ര	-339
ിയുടെ	-340
ഞ്ച	-341
ത്സ	-342
▁കേരള	-343
▁സാധ	-344
▁ങ്ങള	-345
െന്നാണ്	-346
യി	-347
▁ഉണ്ട	-348
കള	-349
▁രൂ	-350
ോധ	-351
▁ഇന്ത്യ	-352
ോട്ട	-353
ീയ	-354
ികള	-355
▁ബിജെ	-356
▁ലഭ	-357
▁ആവ	-358
▁ഇത	-359
▁കാ	-360
▁ജോ	-361
▁സെ	-362
▁കഴിഞ്ഞ	-363
▁ഇതി	-364
▁ിട്ട	-365
▁പുറ	-366
യാ	-367
▁ജന	-368
▁അറിയ	-369
ണ്ണ	-370
യുടെ	-371
ര്‍ത്ത	-372
▁കേന്ദ്ര	-373
▁പ്പ	-374
▁ഞ	-375
▁മോ	-376
ക്കുന്ന	-377
സമ	-378
കു	-379
▁മുഖ	-380
▁20	-381
ന്ത്ര	-382
▁മേ	-383
▁മൂ	-384
ജ്	-385
▁അതേ	-386
▁നിയമ	-387
▁തെ	-388
ദി	-389
ിലേക്ക്	-390
രും	-391
▁രൂപ	-392
▁മാത്ര	-393
▁വര്‍	-394
ത്ഥ	-395
▁സീ	-396
▁നിര	-397
ിച്ചത്	-398
ധാന	-399
▁നാ	-400
▁4	-401
▁തിരഞ്ഞെടു	-402
▁5	-403
▁അധ	-404
പ്പി	-405
▁ആവശ	-406
ഷ്	-407
▁ബാ	-408
▁ദിവ	-409
▁പിന്ന	-410
▁കുറ	-411
ലിയ	-412
▁ഡി	-413
യിൽ	-414
▁സംഘ	-415
േണ്ട	-416
▁കണ്ട	-417
▁ഇട	-418
ുകയാണ്	-419
▁പെ	-420
▁എല്ല	-421
തിരെ	-422
വന	-423
്യാപ	-424
ാരി	-425
▁വിജ	-426
ഭവ	-427
സമയം	-428
▁വന്ന	-429
വിഡ്	-430
▁അദ്ദേഹം	-431
▁രോഗ	-432
▁ആശ	-433
▁വ്യക്തമ	-434
▁മുന്ന	-435
ാൽ	-436
▁അതേസമയം	-437
ാക്കി	-438
സ്റ്റ	-439
▁ലോ	-440
ാത്ത	-441
ീക്ഷ	-442
▁എന്നാല്‍	-443
▁സ്വദേശ	-444
ലീസ്	-445
▁ത്തി	-446
▁സര്‍ക്ക	-447
▁വൈ	-448
ത്തു	-449
ുമ്പ	-450
ത്വ	-451
ുകയും	-452
▁യാണ്	-453
ുകൾ	-454
പാ	-455
േക്ക	-456
▁നിര്‍	-457
ളം	-458
മാ	-459
▁മെ	-460
▁ന്	-461
ാക്കിയ	-462
നും	-463
▁ശേഷ	-464
▁ഐ	-465
▁കേസ	-466
▁രാജ്യ	-467
▁അഭ	-468
മു	-469
ികള്‍	-470
▁എന്ന്	-471
▁സ്ഥാന	-472
▁ലക്ഷ	-473
▁ഇവ	-474
നു	-475
▁മുഖ്യമ	-476
ിട്ടുണ്ട്	-477
ൊരു	-478
ന്റ്	-479
▁റിപ്പോ	-480
▁നീ	-481
▁ഉപ	-482
▁ചി	-483
കള്‍	-484
▁ചോ	-485
▁ഇത്	-486
▁വലിയ	-487
ന്റ	-488
▁ബന്ധ	-489
ഷ്ട്ര	-490
ാതെ	-491
▁കാണ	-492
▁പാര്‍	-493
▁എന്നിവ	-494
▁സഹ	-495
ര്യ	-496
രുമാന	-497
രിക്കുന്നത്	-498
മേ	-499
ഗ്	-500
▁ക്ക്	-501
പു	-502
▁മന്ത്രി	-503
▁പരാ	-504
ീകരിച്ച	-505
ൂർ	-506
ിലാണ്	-507
▁നടത്ത	-508
▁നൽ	-509
ോപ	-510
ങ്ങിയ	-511
പ്പെട	-512
▁നൽക	-513
സഭ	-514
▁ഏറ്റ	-515
ിയില്‍	-516
▁'	-517
▁യുടെ	-518
▁തിരു	-519
▁പരിശ	-520
ഷ്യ	-521
▁ബിജെപി	-522
▁ജീ	-523
ഴ്ച	-524
▁വർ	-525
ക്കി	-526
▁ചെയ്ത	-527
െങ്കിലും	-528
▁വില	-529
▁യാ	-530
തല്‍	-531
▁ഇപ്പോ	-532
▁നിന്നും	-533
▁കൊണ്ട	-534
ബ്	-535
▁ില്ല	-536
▁സംഭവ	-537
കാര	-538
▁മത്സ	-539
▁വര	-540
യിലെ	-541
▁ധ	-542
▁പോല	-543
▁കോണ്‍ഗ്രസ്	-544
▁സ്വദേശി	-545
വേഷ	-546
ോട	-547
ക്രമ	-548
പ്പെടു	-549
ിര	-550
▁ട്ര	-551
ത്തിലെ	-552
▁പാ	-553
▁6	-554
പ്പു	-555
▁നടത്തിയ	-556
▁കൂടു	-557
െയാണ്	-558
്യത	-559
▁കാല	-560
പക്ഷ	-561
▁അപ	-562
ഡിയ	-563
▁ത്ത	-564
സ്റ്റ്	-565
▁യ്	-566
ുകയ	-567
▁ചേ	-568
ടക്ക	-569
ക്ട	-570
▁സൂ	-571
▁ഉയ	-572
▁കാര്യ	-573
രണം	-574
▁അന്	-575
ലം	-576
▁കോട	-577
ൂടെ	-578
▁ഗ്ര	-579
ിക്കും	-580
▁വരെ	-581
▁പ്രധാന	-582
ഡിഎ	-583
ക്ഷേ	-584
▁ഭാഗ	-585
ാനുള്ള	-586
▁അത്	-587
▁ു	-588
▁സുര	-589
▁പര	-590
▁തീരുമാന	-591
ർത്ത	-592
▁7	-593
ഹി	-594
▁പങ്ക	-595
▁തോ	-596
▁ആവശ്യ	-597
▁കഴ	-598
▁അഭി	-599
▁ചെ	-600
▁എസ്	-601
ക്കെ	-602
ര്‍ന്ന	-603
ിച്ച്	-604
▁നേതാക്ക	-605
ിയെ	-606
ങ്ങളുടെ	-607
ണ്ഡ	-608
ംഗ്	-609
രിക്കുന്ന	-610
ാപ	-611
ബി	-612
ക്കാര	-613
▁ഇത്ത	-614
വിടെ	-615
ങ്ങളില്‍	-616
▁വേണ്ട	-617
ാവ്	-618
▁വിജയ	-619
▁സർക്ക	-620
▁പേര്‍	-621
▁നേര	-622
▁കൈ	-623
▁പരിശോധ	-624
▁കോൺ	-625
▁കി	-626
▁മുഖ്യമന്ത്രി	-627
▁രണ്ട്	-628
▁നടപ	-629
▁രണ്ട	-630
),	-631
▁പല	-632
എസ്	-633
ക്കും	-634
▁രാഷ്ട്ര	-635
▁ഇന്ന്	-636
▁നേതൃ	-637
▁പുതിയ	-638
▁കട	-639
▁ഡോ	-640
▁അന്വേഷ	-641
▁യോഗ	-642
ിക്കുന്നത്	-643
ര്‍ച്ച	-644
▁മല	-645
▁പോക	-646
▁പേര	-647
ോള്‍	-648
▁തൊ	-649
▁പാല	-650
▁യെ	-651
▁ത്തില	-652
യ്ക്ക്	-653
ുംബ	-654
▁ശേഷം	-655
ങ്ങളും	-656
വേ	-657
▁ശ്രമ	-658
ാനം	-659
▁എന്നാണ്	-660
ാണെന്ന്	-661
ന്തപു	-662
▁മറ്റ	-663
▁ചില	-664
▁നേതൃത്വ	-665
▁ആശുപ	-666
▁പോലീസ്	-667
ിയും	-668
▁കോൺഗ്ര	-669
▁നല്‍കിയ	-670
▁പറയുന്നു	-671
▁തിരുവന	-672
▁8	-673
ബന്ധ	-674
▁അധിക	-675
▁തിരുവനന്തപു	-676
▁മാറ്റ	-677
ിപ്പ	-678
▁നിർ	-679
യെ	-680
▁അവസ	-681
ോണ	-682
േയും	-683
എം	-684
▁9	-685
▁ജെ	-686
▁നടന്ന	-687
▁പാർ	-688
വണ	-689
ത്രി	-690
▁എല്ലാ	-691
▁സ്ഥിര	-692
▁സൗ	-693
▁റെ	-694
യോഗ	-695
▁ആണ്	-696
പ്പം	-697
ാനും	-698
▁ആദ്യ	-699
സാ	-700
േഖ	-701
▁ഒന്ന	-702
ോട്ട്	-703
▁ഉറ	-704
ൈന	-705
▁സാഹ	-706
▁വിവ	-707
▁സ്റ്റ	-708
▁പ്രവര്‍ത്ത	-709
▁ഏറ്റവും	-710
▁പ്രതിക	-711
▁വയ	-712
▁പ്രഖ	-713
▁അംഗ	-714
▁ക്കും	-715
്യൂ	-716
ഭാഗ	-717
ക്തി	-718
▁കമ്മ	-719
ടന	-720
ങ്ങി	-721
▁കണ്ണ	-722
▁വള	-723
ര്‍ശ	-724
▁മണ്ഡ	-725
കെ	-726
ഹു	-727
▁..	-728
ുമെന്ന്	-729
▁മി	-730
▁മന	-731
▁തിരിച്ച	-732
ക്കു	-733
▁ചെയ്തു	-734
▁മറ	-735
ഖല	-736
▁ആരോപ	-737
ാരണ	-738
▁സീറ്റ	-739
▁ബോ	-740
േറ്റ	-741
ികൾ	-742
▁സാഹച	-743
▁ടി	-744
ദ്യോഗ	-745
നായി	-746
▁ഗു	-747
യൂ	-748
▁വകു	-749
▁തൃ	-750
▁രംഗ	-751
ിക്കാന്‍	-752
ീസ്	-753
വര്‍	-754
▁ദു	-755
▁റിപ്പോര്‍	-756
▁ദിവസ	-757
▁;	-758
▁സര്‍ക്കാര്‍	-759
▁ഉത്ത	-760
രിക്കുകയാണ്	-761
▁ിരുന്നു	-762
▁നോ	-763
ീഷ	-764
ാര്‍ത്ഥ	-765
▁മേഖല	-766
ാസ്	-767
ടക	-768
ങ്ങനെ	-769
കൾ	-770
െയും	-771
▁തല	-772
െടുത്ത	-773
ാശ	-774
▁കുട	-775
▁കൊവിഡ്	-776
▁ശതമ	-777
▁ദിവസം	-778
ുകയായിരുന്നു	-779
ോഗ്യ	-780
ച്ചി	-781
▁പ്രഖ്യാപ	-782
▁ം	-783
ായിരുന്ന	-784
▁പദ്ധ	-785
▁സിപി	-786
ാണെന്നും	-787
ുള്ളത്	-788
▁കൂട്ട	-789
ന്തു	-790
▁കണ്ടെ	-791
സ്ത	-792
രിക്കും	-793
ക്കാ	-794
▁ചിത്ര	-795
▁രാഷ്ട്രീയ	-796
▁ആയ	-797
▁റോ	-798
▁പിട	-799
തൽ	-800
ഷം	-801
▁അറ	-802
▁വോട്ട	-803
ബു	-804
തിന്	-805
▁എന്നും	-806
▁വിവാ	-807
▁സാധ്യത	-808
ദ്ദേശ	-809
▁നേരത്തെ	-810
▁മണ	-811
▁കോവിഡ്	-812
▁201	-813
▁തിരുവനന്തപുരം	-814
▁ിക്ക	-815
▁യില്‍	-816
ച്ചു	-817
റു	-818
▁നിലവ	-819
ങ്ങളെ	-820
▁അനു	-821
ീസ	-822
▁രാഹു	-823
▁കോടതി	-824
േക്ഷ	-825
▁നേരി	-826
▁വീട്ട	-827
ളള	-828
▁എന്നാൽ	-829
▁ജില്ലാ	-830
തം	-831
ാരം	-832
▁സമ്പ	-833
ിന്	-834
▁കുമ	-835
ളെ	-836
▁ജയ	-837
ന്നു	-838
ൂര	-839
മുള്ള	-840
▁ശക്തമ	-841
▁്	-842
▁ചെയ്തി	-843
▁യില	-844
▁വിഭാഗ	-845
െതിരെ	-846
ഞ്ച്	-847
ുമായ	-848
▁വിഷ	-849
▁എന്ത	-850
ഷേ	-851
▁സമ്മ	-852
ാറ	-853
േന്ദ്ര	-854
▁പ്രസി	-855
പ്പിച്ച	-856
▁ുണ്ട	-857
ിന്റെ	-858
▁പ്രച	-859
ുകൊ	-860
▁ഓഫ	-861
െങ്കില്‍	-862
▁കുടുംബ	-863
▁ഗാ	-864
▁എത്തിയ	-865
▁ഖ	-866
ുമാണ്	-867
േഷ്	-868
താ	-869
താണ്	-870
തല	-871
▁യുവ	-872
▁വാക്	-873
▁നാല	-874
▁പ്രശ്	-875
▁താ	-876
▁10	-877
▁ബിജെപ	-878
േരി	-879
▁മുന്‍	-880
▁യാത്ര	-881
▁മീ	-882
▁കൂടി	-883
മന്ത്രി	-884
▁ആരോഗ്യ	-885
▁സ്ഥിരീകരിച്ച	-886
രുന്നത്	-887
▁മൊ	-888
▁സോ	-889
ലെ	-890
▁ഹൈ	-891
▁മണ്ഡല	-892
രിയ	-893
സിന്	-894
▁വിമ	-895
സ്സ	-896
▁പഞ്ച	-897
കര	-898
ര്‍ത്തി	-899
▁കൃ	-900
▁19	-901
▁പ്രത്യ	-902
ള്ളി	-903
▁ഇല്ല	-904
രിച്ച്	-905
▁ല്‍	-906
ീപ	-907
▁:	-908
▁കഴിയ	-909
▁ഭൂ	-910
രുത	-911
സിന്റെ	-912
വാസ	-913
വിധ	-914
ൊപ്പം	-915
▁ഒഴ	-916
▁പിന്തു	-917
▁ജി	-918
▁കൊണ്ട്	-919
▁മൂന്ന്	-920
▁പരാതി	-921
▁സ്ഥാപ	-922
യ്യാ	-923
▁ഇറ	-924
▁സെക്ര	-925
ല്ലാം	-926
നിടെ	-927
▁കൂടുതല്‍	-928
▁സെക്രട്ട	-929
▁ഉപയോഗ	-930
▁നിയമസഭ	-931
ിക്കുക	-932
▁"	-933
▁എന്‍	-934
▁തിരഞ്ഞെടുപ്പ	-935
ാഴ്ച	-936
▁ഫോ	-937
ഷേധ	-938
ാനി	-939
▁പ്രസിഡ	-940
▁ആള	-941
▁ഉള്ള	-942
▁ഉദ്യോഗ	-943
ിന	-944
▁ഘ	-945
▁തുടങ്ങിയ	-946
▁വിശ	-947
ര്‍ന്ന്	-948
ംബ	-949
▁ഭരണ	-950
▁സര്‍	-951
▁തൊഴ	-952
▁അടി	-953
ുമെന്നും	-954
▁നെ	-955
▁കണ	-956
തീക്ഷ	-957
▁രോഗം	-958
ൃത	-959
ധ്യമ	-960
ന്നും	-961
▁യൂ	-962
▁സിനി	-963
▁തയ്യാ	-964
▁ചോദ്യ	-965
ട്ടു	-966
ക്ത	-967
▁ചെയ്യുന്ന	-968
▁ഗാന്ധ	-969
ർച്ച	-970
▁താണ്	-971
▁ടെ	-972
▁പിന്നാല	-973
▁സാഹചര്യ	-974
▁പുറത്ത	-975
ങ്ങളിൽ	-976
▁തിരഞ്ഞെടുപ്പ്	-977
▁പോലും	-978
▁അറിയിച്ചു	-979
പ്പെടുത്ത	-980
▁തട	-981
ോൾ	-982
▁വ്യക്തമാക്കി	-983
ിച്ചിരുന്നു	-984
▁ബാധ	-985
നെതിരെ	-986
▁ആല	-987
ാർത്ഥ	-988
▁ഉള്‍	-989
▁പരിശോധന	-990
മെ	-991
ചന	-992
▁പ്രക	-993
▁വും	-994
▁ആയി	-995
▁കൊല്ല	-996
രംഭ	-997
്യക്ഷ	-998
▁മഹ	-999
▁ചിക	-1000
ടുക്ക	-1001
▁കോടി	-1002
ത്തിലാണ്	-1003
ാണി	-1004
ൂല	-1005
▁സർക്കാർ	-1006
▁പറയുന്നത്	-1007
ട്ടിയ	-1008
▁പദ്ധതി	-1009
ിലുള്ള	-1010
▁ഇവിടെ	-1011
ുകളും	-1012
ക്ഷി	-1013
ൂഹ	-1014
▁അട	-1015
പ്പെടുത്തിയ	-1016
െയ്	-1017
▁202	-1018
നിക്ക്	-1019
ൊക്കെ	-1020
▁പിന്തുണ	-1021
ാസ	-1022
▁നീക്ക	-1023
▁കോഴ	-1024
േക	-1025
▁ലി	-1026
▁സമയ	-1027
▁ആര്‍	-1028
▁കയ	-1029
ർശ	-1030
▁വിദ്യ	-1031
▁കോൺഗ്രസ്	-1032
ാനാണ്	-1033
ാകും	-1034
▁ുവ	-1035
നുള്ള	-1036
▁കോള	-1037
▁ലോക	-1038
േശ	-1039
▁കൂട	-1040
▁പ്രതിപക്ഷ	-1041
▁മാധ്യമ	-1042
ശ്ച	-1043
ണമെന്ന്	-1044
റിച്ച്	-1045
▁വരു	-1046
▁പാര്‍ട്ടി	-1047
ർന്ന	-1048
ദ്ദ	-1049
▁പൊലീസ്	-1050
▁ചികി	-1051
ഷക	-1052
തിര	-1053
▁എത്തി	-1054
▁സംബന്ധ	-1055
▁സ്ത്ര	-1056
▁തയ്യാറ	-1057
▁സാമ്പ	-1058
▁യുഡിഎ	-1059
▁ചികിത്സ	-1060
▁മുണ്ട	-1061
യുള്ള	-1062
▁നമ്മ	-1063
▁ചര്‍ച്ച	-1064
▁റിപ്പോർ	-1065
ിരിക്കുന്നത്	-1066
▁ദേശ	-1067
▁മുതല്‍	-1068
▁യായിരുന്നു	-1069
▁പ്രത്യേക	-1070
▁ഭാര	-1071
▁12	-1072
ഞ്ഞ്	-1073
ാള	-1074
▁അയ	-1075
▁ആക്രമ	-1076
ങ്ങള്‍ക്ക്	-1077
▁നിലപാ	-1078
▁പട്ട	-1079
▁ഇപ്പോള്‍	-1080
▁പ്രതീക്ഷ	-1081
▁കല	-1082
▁അവര്‍	-1083
▁വാര്‍	-1084
ശ്വ	-1085
▁11	-1086
▁വിമാന	-1087
▁പ്രദേശ	-1088
▁തുറ	-1089
▁ഇതുവ	-1090
▁കോഴിക്ക	-1091
▁കുട്ട	-1092
▁കുറ്റ	-1093
ാലി	-1094
▁ാണ്	-1095
▁അധ്യക്ഷ	-1096
▁ചോദ	-1097
▁മാണ്	-1098
000	-1099
▁ലീ	-1100
ഷ്ണ	-1101
▁കാരണം	-1102
▁എല്‍	-1103
പ്പെടെ	-1104
▁വേണ്ടി	-1105
▁ആരംഭ	-1106
▁പൂ	-1107
ന്തര	-1108
▁മറ്റ്	-1109
▁മണിക്ക	-1110
ിക്കുന്നു	-1111
▁പ്രതിഷേധ	-1112
▁മുമ്പ	-1113
േഷന്‍	-1114
▁പ്രവർത്ത	-1115
▁15	-1116
ൻ്	-1117
ുകളില്‍	-1118
ോഷ	-1119
▁വിള	-1120
▁വീണ്ട	-1121
▁ൽ	-1122
▁തേ	-1123
▁കര്‍	-1124
▁ആശുപത്ര	-1125
നിയ	-1126
▁മാത്രം	-1127
▁ഉദ്യോഗസ്ഥ	-1128
▁ചൂ	-1129
▁ബു	-1130
▁രീ	-1131
▁മുൻ	-1132
▁ജീവി	-1133
നായ	-1134
▁സൈ	-1135
▁മാന	-1136
▁പൂര്‍	-1137
ികളെ	-1138
ർത്തി	-1139
ന്യ	-1140
▁അവസാന	-1141
കാശ	-1142
▁ക്കു	-1143
▁ഇരു	-1144
▁പോയ	-1145
▁തന്റെ	-1146
ിതി	-1147
▁റ്റ	-1148
ികളുടെ	-1149
▁വ്യാപ	-1150
ാലും	-1151
▁നൽകിയ	-1152
ഗണ	-1153
ാവി	-1154
ായത്	-1155
സ്പ	-1156
▁യോ	-1157
▁യിൽ	-1158
▁ഉത്തര	-1159
ിട	-1160
▁മരണ	-1161
▁അടുത്ത	-1162
▁സിനിമ	-1163
ണറ	-1164
ിക്കാ	-1165
ിയിൽ	-1166
ഴും	-1167
▁ഒരാ	-1168
▁നഗ	-1169
ിലൂടെ	-1170
ന്‍റെ	-1171
▁എംഎ	-1172
▁ഇതോടെ	-1173
▁അടക്ക	-1174
▁നടക്ക	-1175
▁ും	-1176
▁ഒഴിവ	-1177
▁ശതമാനം	-1178
യായ	-1179
▁വഴി	-1180
▁കമ്പ	-1181
▁ിട്ടുണ്ട്	-1182
ഴു	-1183
▁റിപ്പോര്‍ട്ട്	-1184
ജീ	-1185
▁ജോലി	-1186
ാധ	-1187
▁കോഴിക്കോട്	-1188
▁പ്രധാനമന്ത്രി	-1189
▁സേ	-1190
ഡിയോ	-1191
▁രാശ	-1192
▁കോട്ട	-1193
▁പിന്നീ	-1194
▁അനുവ	-1195
▁ലഭിച്ച	-1196
▁ഗോ	-1197
▁മായി	-1198
ട്ര	-1199
▁വീണ്ടും	-1200
തായി	-1201
▁സമീപ	-1202
▁ന്യൂ	-1203
ർക്ക്	-1204
വധി	-1205
ുവി	-1206
▁ലക്ഷം	-1207
ഭാ	-1208
▁ഇതുവരെ	-1209
തോടെ	-1210
▁നേതാവ്	-1211
▁ഉന്ന	-1212
നാണ്	-1213
▁ഇക്കാര	-1214
▁രേഖ	-1215
▁മരിച്ച	-1216
▁നിന്നുള്ള	-1217
▁എത്ത	-1218
▁അപേക്ഷ	-1219
▁കള്‍	-1220
▁ലെ	-1221
▁വിദ	-1222
▁ദേശീയ	-1223
▁ദില്ല	-1224
▁വൈറ	-1225
രോ	-1226
കര്‍	-1227
ുമെന്ന	-1228
▁നിരീക്ഷ	-1229
ീം	-1230
▁ശ്രീ	-1231
▁തിന്	-1232
▁സെക്രട്ടറി	-1233
ന്നി	-1234
മാര	-1235
പ്പെട്ടു	-1236
▁മുസ്	-1237
▁ഇവര്‍	-1238
▁ക്ര	-1239
ണാ	-1240
▁നിരവധി	-1241
▁ഉട	-1242
▁കിട്ട	-1243
ദം	-1244
▁...	-1245
ട്ടം	-1246
▁വിവിധ	-1247
െടുക്ക	-1248
▁ിരുന്ന	-1249
▁സർ	-1250
▁വിവര	-1251
▁നാട്ട	-1252
▁വിഷയ	-1253
▁ഇത്തവണ	-1254
▁നല്ല	-1255
▁അല്ല	-1256
▁നഷ്ട	-1257
ോളം	-1258
▁ശ്രദ്ധ	-1259
ിക്കാൻ	-1260
▁ബ്ര	-1261
ീകരിക്ക	-1262
യ്ക്ക	-1263
▁യിലെ	-1264
ളുടെ	-1265
▁മിക	-1266
ണമെന്നും	-1267
▁യ്ക്ക്	-1268
▁സംസ്ഥാനത്ത്	-1269
▁തര	-1270
ന്തി	-1271
▁മെഡ	-1272
▁സംസാ	-1273
▁ഓഫീസ	-1274
▁നടപടി	-1275
▁സഖ	-1276
പ്പെട്ട്	-1277
ുമെന്നാണ്	-1278
▁വര്‍ഷ	-1279
പ്പെടുന്ന	-1280
െട	-1281
▁തും	-1282
ണമെന്ന	-1283
▁ഉൾ	-1284
▁വളരെ	-1285
▁ല്ല	-1286
▁വരുന്ന	-1287
ാരാ	-1288
▁എന്നി	-1289
▁ഞാന്‍	-1290
ക്കിയ	-1291
റും	-1292
▁വെള്ള	-1293
▁ഇനി	-1294
▁പിന്നാലെ	-1295
പര	-1296
▁വകുപ്പ്	-1297
▁ജില്ലയില്‍	-1298
▁പിന്നീട്	-1299
▁?	-1300
▁ലൈ	-1301
▁അനുവദ	-1302
▁ാ	-1303
ത്തിക	-1304
മുഖ	-1305
▁വാഹ	-1306
▁മാത്രമാണ്	-1307
ുകൊണ്ട്	-1308
▁ത്തിന്റെ	-1309
▁ഉറപ്പ	-1310
▁പഠ	-1311
▁ഇന്ന	-1312
ടം	-1313
▁പിണറ	-1314
▁ഹൈക്ക	-1315
▁പഞ്ചായ	-1316
▁വരും	-1317
▁സ്വന്ത	-1318
ുമ്പോള്‍	-1319
▁നില്‍	-1320
▁തക	-1321
▁മെഡിക്ക	-1322
▁പ്രവേശ	-1323
▁തെള	-1324
സില്‍	-1325
▁സര്‍ക്കാരി	-1326
▁മലയാ	-1327
▁മാര്‍	-1328
രുത്ത	-1329
▁അന്വേഷണ	-1330
▁ഇതിന്	-1331
▁താര	-1332
▁മാസ	-1333
▁മഴ	-1334
▁സ്ഥാപന	-1335
ായക	-1336
▁കേസ്	-1337
െങ്കിൽ	-1338
ോള	-1339
▁പൊതു	-1340
▁തുടര്‍ന്ന്	-1341
▁കമ്മി	-1342
പ്പെടുത്തി	-1343
രോധ	-1344
ായം	-1345
ിനെ	-1346
േജ	-1347
▁മോദി	-1348
▁വിക	-1349
ന്‍സ്	-1350
▁തൊഴില	-1351
വീ	-1352
ൻ്റെ	-1353
▁ഹി	-1354
▁മാര	-1355
▁ആശുപത്രി	-1356
▁മായ	-1357
ാവും	-1358
▁പതി	-1359
ാക്കുന്ന	-1360
രിക	-1361
▁14	-1362
▁ചൂണ്ട	-1363
പ്പുറ	-1364
▁24	-1365
മല്ല	-1366
▁ിട്ടില്ല	-1367
▁പിണറായി	-1368
്യമായ	-1369
▁വിദേശ	-1370
▁അവരുടെ	-1371
ിയിലെ	-1372
▁വൈക	-1373
േറ്റ്	-1374
കാരം	-1375
▁കൂടിയ	-1376
▁സാമ്പത്തിക	-1377
▁വിശദ	-1378
പ്പോള്‍	-1379
ത്തും	-1380
▁രാഹുല്‍	-1381
▁ചോദ്യം	-1382
▁ചെയ്തത്	-1383
▁പോലീ	-1384
ത്മ	-1385
ശ്യ	-1386
▁വ്യക്തി	-1387
ലും	-1388
▁മന്ത്ര	-1389
▁എല്ലാവ	-1390
ിയായ	-1391
▁സ്ഥല	-1392
▁ഇയാ	-1393
ധിക	-1394
▁വീഡിയോ	-1395
▁പാർട്ടി	-1396
▁സിപിഎം	-1397
▁സംഘടന	-1398
▁അടിസ്ഥാന	-1399
▁മൂന്ന	-1400
ാണ്ട	-1401
ദേശം	-1402
ഞ്ഞു	-1403
▁കര	-1404
▁എക്	-1405
▁കൊറ	-1406
േക്കും	-1407
▁പരിഹ	-1408
ര്‍ക്കും	-1409
റില്‍	-1410
▁വ്യാ	-1411
െല്ലാം	-1412
▁13	-1413
▁അമേ	-1414
▁പറഞ്ഞത്	-1415
കം	-1416
▁സന്ദ	-1417
▁പാര്‍ട്ട	-1418
▁ശക്തമായ	-1419
▁ലോക്	-1420
▁രക്ഷ	-1421
വർ	-1422
ക്ടര്‍	-1423
ഷി	-1424
ോദ	-1425
▁നയ	-1426
▁മികച്ച	-1427
▁കൊറോണ	-1428
▁തെരഞ്ഞെടു	-1429
യില	-1430
▁അപക	-1431
▁നാല്	-1432
ണ്ണം	-1433
▁സ്പ	-1434
▁ത്തിന്	-1435
ുമതി	-1436
നാട്	-1437
▁ചുമ	-1438
▁അഞ്ച്	-1439
▁തിന	-1440
കാര്യ	-1441
▁ുണ്ട്	-1442
സിന	-1443
▁മുതൽ	-1444
റിന്റെ	-1445
ജു	-1446
▁ഗാന്ധി	-1447
ട്ടുണ്ട്	-1448
▁പരിഗണ	-1449
▁പക	-1450
▁ജീവന	-1451
▁ആർ	-1452
പ്പുഴ	-1453
▁നടത്തി	-1454
▁മറുപ	-1455
▁നടപ്പ	-1456
ണാക	-1457
േസ്	-1458
രിൽ	-1459
▁18	-1460
▁പ്ല	-1461
▁ജില്ലകള	-1462
▁ദേ	-1463
▁ജാ	-1464
ക്ഷണ	-1465
▁പണം	-1466
ങ്ങന	-1467
▁കണക്ക	-1468
ഗ്രഹ	-1469
▁കൊല	-1470
▁തിര	-1471
യോ	-1472
▁വിവരം	-1473
▁ചെന്ന	-1474
▁വിവാഹ	-1475
▁പക്ഷേ	-1476
▁നഗര	-1477
▁പൂർ	-1478
▁കൾ	-1479
▁ബാല	-1480
▁ഷാ	-1481
▁തവണ	-1482
▁എന്റെ	-1483
▁പുറത്ത്	-1484
റാ	-1485
▁തന്നെയാണ്	-1486
തീ	-1487
▁ചൈന	-1488
▁ിരിക്ക	-1489
▁അമേരിക്ക	-1490
▁നേടിയ	-1491
▁രാവ	-1492
▁സമയം	-1493
▁തമ്മ	-1494
▁നടക്കുന്ന	-1495
▁ിരിക്കുകയാണ്	-1496
ക്കാട്	-1497
▁അമ്മ	-1498
ങ്ങൾക്ക്	-1499
▁)	-1500
ശ്വാസ	-1501
മാര്‍	-1502
നില്‍	-1503
▁ഞാൻ	-1504
വിട	-1505
▁25	-1506
▁പത്ത	-1507
വുമായി	-1508
▁ര്‍	-1509
▁ഗ്രൂ	-1510
ർന്ന്	-1511
▁ഇടപ	-1512
ക്ഷേപ	-1513
▁പരിപാ	-1514
▁ായിരുന്നു	-1515
▁തീരുമാനം	-1516
▁പ്രസിഡന്റ്	-1517
പ്പറ	-1518
▁ണ്ട	-1519
▁ട്	-1520
▁ത്തെ	-1521
ൊന്നും	-1522
ഷന്‍	-1523
▁ഓരോ	-1524
ീവ്	-1525
▁ിട്ടുണ്ട	-1526
▁ശിവ	-1527
▁ട്ട	-1528
▁നേതാക്കള്‍	-1529
▁സ്ഥാനാര്‍ത്ഥ	-1530
▁നടപട	-1531
▁സ്വദേശിനി	-1532
ുകളുടെ	-1533
▁സുപ്ര	-1534
▁ക്ല	-1535
േണ്ടി	-1536
ിച്ചിട്ടുണ്ട്	-1537
▁എറ	-1538
▁കൂടുതൽ	-1539
▁പട്ടിക	-1540
ത്തിലുള്ള	-1541
വില്‍	-1542
▁എൻ	-1543
▁ഹാ	-1544
▁നടത്തുന്ന	-1545
▁ആദ	-1546
യ്യ	-1547
▁ദില	-1548
ണാകു	-1549
▁ബെ	-1550
▁പ്രാ	-1551
ഹമ്മ	-1552
▁നിയന്ത്ര	-1553
▁എറണാകു	-1554
▁കീ	-1555
ുളള	-1556
▁തായി	-1557
▁സീറ്റ്	-1558
▁തൃശ	-1559
▁മീഡിയ	-1560
ശ്ശ	-1561
െയി	-1562
▁അഭിപ്ര	-1563
▁വിധ	-1564
▁കമ	-1565
▁പ്രവര്‍ത്തി	-1566
ുണ്ടായ	-1567
▁ജീവിത	-1568
ങ്ങളാണ്	-1569
▁കണ്ണൂര്‍	-1570
▁പേര്‍ക്ക്	-1571
▁യി	-1572
▁സോഷ്യ	-1573
▁സുരക്ഷ	-1574
▁സ്വര്‍	-1575
▁ക്കെതിരെ	-1576
▁ച്ച	-1577
▁വോട്ട്	-1578
സര്‍	-1579
▁നും	-1580
▁കളും	-1581
▁പ്രിയ	-1582
▁റിപ്പോർട്ട്	-1583
ത്തോടെ	-1584
▁മണിക്കൂ	-1585
▁നേരിട	-1586
തും	-1587
ധാക	-1588
▁പോലെ	-1589
വ്വ	-1590
▁മുഖ്യമന്ത്ര	-1591
രന്‍	-1592
െയുള്ള	-1593
▁പറയുന്ന	-1594
▁ക്കാന	-1595
▁എഫ്	-1596
▁ജില്ലയിലെ	-1597
ോടതി	-1598
▁താമ	-1599
▁16	-1600
▁നിയമസഭാ	-1601
▁പരീക്ഷ	-1602
▁ന്‍	-1603
▁അവകാശ	-1604
▁കരു	-1605
▁തോടെ	-1606
ബാ	-1607
▁അന്വേഷണം	-1608
▁ബന്ധപ്പെട്ട	-1609
▁!	-1610
രിപ്പ	-1611
▁ജനറ	-1612
▁ത്തില്‍	-1613
▁വിലയി	-1614
▁നര	-1615
▁േ	-1616
▁കർ	-1617
ഖ്	-1618
▁എംഎല്‍	-1619
ിട്ടില്ല	-1620
▁ആയിരുന്നു	-1621
▁ിരിക്കുന്നത്	-1622
▁ക്യാ	-1623
റോ	-1624
▁കണ്ടെത്തിയ	-1625
▁ജൂ	-1626
▁സൂചന	-1627
▁രാവിലെ	-1628
▁ന്റെ	-1629
്യമായി	-1630
▁ഏക	-1631
▁നേതൃത്വം	-1632
▁ചർച്ച	-1633
ത്തേക്ക്	-1634
▁എണ്ണം	-1635
▁17	-1636
തിയുടെ	-1637
▁പ്രതിരോധ	-1638
▁തെന്നും	-1639
▁മറ്റൊരു	-1640
ടങ്ങ	-1641
ുകളാണ്	-1642
▁എംഎല്‍എ	-1643
▁എന്നീ	-1644
▁വാഹന	-1645
ദ്ര	-1646
സിനെ	-1647
്യമാണ്	-1648
▁ഒറ്റ	-1649
▁ലാ	-1650
▁മണി	-1651
▁കണ്ടെത്ത	-1652
▁വഴ	-1653
▁അവിടെ	-1654
▁ദില്ലി	-1655
▁30	-1656
▁ഘട്ട	-1657
▁മില്ല	-1658
▁തെന്ന്	-1659
▁വാർ	-1660
▁ഇങ്ങനെ	-1661
ിരുന്ന	-1662
ഹൃ	-1663
▁പുര	-1664
▁ഫേസ്	-1665
കൂ	-1666
ുമോ	-1667
▁മുഴ	-1668
▁പശ്ച	-1669
▁ബിഗ്	-1670
▁പ്രവര്‍ത്തന	-1671
▁ദിലീ	-1672
ജന്‍	-1673
മായും	-1674
▁നിരീക്ഷണ	-1675
സന്ധ	-1676
സിസി	-1677
▁വിമര്‍ശ	-1678
▁എനിക്ക്	-1679
▁യാണ	-1680
▁വർഷ	-1681
ായ്	-1682
▁പീ	-1683
ികളും	-1684
യിലാണ്	-1685
▁സിംഗ്	-1686
▁ക്കുന്ന	-1687
▁ആലപ്പുഴ	-1688
ിയാണ്	-1689
വെ	-1690
▁കാര്യം	-1691
▁അല	-1692
▁കാര്‍	-1693
▁നല്‍കി	-1694
▁സംവി	-1695
▁യുള്ള	-1696
▁മുമ്പ്	-1697
▁സംവിധാന	-1698
സു	-1699
ഹ്	-1700
▁ഏറെ	-1701
▁യുഎ	-1702
▁സാമ	-1703
ത്തിലും	-1704
ജന	-1705
ാവന	-1706
▁വ്യക്തമാക്കിയ	-1707
▁എതി	-1708
േഷൻ	-1709
▁ആകെ	-1710
▁അതിന്	-1711
ുകൂല	-1712
▁ചെല	-1713
സ്റ്റി	-1714
▁രണ്ടാം	-1715
▁ഇപ്പോൾ	-1716
▁അവർ	-1717
തെന്നും	-1718
ൗര	-1719
▁വികസ	-1720
▁ഫേസ്ബു	-1721
ധ്യ	-1722
ീന	-1723
ായും	-1724
ാരാഷ്ട്ര	-1725
ാവസ്ഥ	-1726
▁റിയ	-1727
ങ്ക്	-1728
▁എത്ര	-1729
ഭ്യാ	-1730
▁വാര്‍ത്ത	-1731
സും	-1732
രിച്ചു	-1733
▁രജി	-1734
പ്പുറം	-1735
സില	-1736
▁താന്‍	-1737
▁നിലവില്‍	-1738
▁വര്‍ഷം	-1739
ുകളിൽ	-1740
തെന്ന്	-1741
▁വിവാദ	-1742
േയ	-1743
▁മാത്രമല്ല	-1744
▁മക	-1745
രുദ്ധ	-1746
▁അറസ്റ്റ്	-1747
േജ്	-1748
▁50	-1749
▁കോട്ടയം	-1750
തിക	-1751
മോ	-1752
ാവുന്ന	-1753
ിരിക്കുകയാണ്	-1754
▁0	-1755
▁പക്ഷ	-1756
▁ോ	-1757
▁മത	-1758
▁വീട	-1759
▁കമ്മീഷ	-1760
ിക്കുകയും	-1761
▁മത്സര	-1762
ളും	-1763
▁പരാജ	-1764
▁രംഗത്തെ	-1765
▁ബംഗ	-1766
യായി	-1767
▁തമി	-1768
▁ശതമാന	-1769
ുപോ	-1770
▁ഇത്തര	-1771
ബ്ദ	-1772
▁മറുപടി	-1773
▁അധികാര	-1774
▁ഇത്തരം	-1775
▁സുരേന്ദ്ര	-1776
▁ജീവ	-1777
▁എൽ	-1778
▁ആദ്യം	-1779
▁പ്രതിസന്ധ	-1780
ാള്‍	-1781
▁സർക്കാരി	-1782
തിയെ	-1783
▁മാസം	-1784
▁ആശങ്ക	-1785
▁സംഭവം	-1786
ബ്ര	-1787
▁കുറിച്ച്	-1788
്യാഭ്യാ	-1789
േള	-1790
▁ബൈ	-1791
▁വാങ്ങ	-1792
ില്ലെന്ന്	-1793
▁രീതി	-1794
▁ഡെ	-1795
ുകാര	-1796
ുവന്ന	-1797
▁യുഡിഎഫ്	-1798
▁(2	-1799
ുമ്പോൾ	-1800
കളും	-1801
തിയിൽ	-1802
▁പോയി	-1803
▁കേരളത്തില്‍	-1804
ഷണ	-1805
▁ഏത	-1806
▁ചു	-1807
▁പാലക്കാട്	-1808
▁ആണ	-1809
▁യുണ്ട	-1810
▁ക്ഷേ	-1811
രീ	-1812
▁ഉമ്മ	-1813
▁സന്ത	-1814
▁എറണാകുളം	-1815
ോമ	-1816
▁സംശ	-1817
▁പോരാ	-1818
ഹമ്മദ്	-1819
▁നരേന്ദ്ര	-1820
▁ഇന്ത്യന്‍	-1821
▁കൊച്ചി	-1822
▁ടീ	-1823
▁സ്ത്രീക	-1824
െട്ട	-1825
▁കാരണ	-1826
▁മനു	-1827
▁യായി	-1828
്ട്ര	-1829
നാഥ	-1830
▁അക	-1831
▁ക്കാര	-1832
▁കാര്യങ്ങള്‍	-1833
▁സമൂഹ	-1834
ഫി	-1835
▁സംബന്ധിച്ച്	-1836
▁രംഗത്ത്	-1837
▁രാജ്യത്ത്	-1838
▁റിപ്പോര്‍ട്ട	-1839
▁ശി	-1840
▁ന്ന	-1841
▁എടുത്ത	-1842
ബര്‍	-1843
▁ഫി	-1844
▁ൻ	-1845
▁കളുടെ	-1846
▁പുന	-1847
▁ഭാഗമായി	-1848
വല	-1849
പ്പള്ളി	-1850
▁ഡ്ര	-1851
▁വെച്ച	-1852
▁െന്ന്	-1853
▁22	-1854
▁കൗ	-1855
▁നവ	-1856
നോ	-1857
▁ഉണ്ടാക	-1858
▁തോമ	-1859
▁ഇതില്‍	-1860
▁തമിഴ്	-1861
ധികം	-1862
▁ഭാര്യ	-1863
▁പേരാണ്	-1864
▁പേർ	-1865
▁ആത്മ	-1866
▁ഭൂരി	-1867
ക്കാന്‍	-1868
▁കൊല്ലം	-1869
▁ചെയ്യാ	-1870
▁നിലപാട്	-1871
▁രു	-1872
ത്രം	-1873
രാണ്	-1874
▁പുതു	-1875
▁വ്യക്തമാക്ക	-1876
▁പ്പോ	-1877
ത്തിലേക്ക്	-1878
▁നേട്ട	-1879
▁കേസില്‍	-1880
▁വിലയിരുത്ത	-1881
ഥി	-1882
▁അന്ന്	-1883
ങ്ങളിലും	-1884
ിച്ചേ	-1885
▁െന്നും	-1886
▁ർ	-1887
ന്റി	-1888
▁ദി	-1889
▁മനസ്സ	-1890
▁ശക്തി	-1891
▁ലഭിക്ക	-1892
▁21	-1893
▁ആഗ്രഹ	-1894
പ്പാ	-1895
▁വിത	-1896
▁സ്വകാര്യ	-1897
▁പറഞ്ഞിരുന്നു	-1898
▁സുപ്രീം	-1899
പ്രദേശ	-1900
▁സാധിക്ക	-1901
ിത	-1902
▁പങ്കെടു	-1903
▁മെഡിക്കല്‍	-1904
▁വിട്ട	-1905
..	-1906
▁മോഹ	-1907
▁ഫെ	-1908
▁മാറ്റി	-1909
▁സമര	-1910
▁സംഘം	-1911
▁വിദ്യാഭ്യാ	-1912
▁ഷോ	-1913
▁നീക്കം	-1914
ക്കാല	-1915
▁ത്തിൽ	-1916
▁യുമായി	-1917
▁പ്രകാരം	-1918
▁ള	-1919
▁മാർ	-1920
െത്തിയ	-1921
ലാ	-1922
▁എണ്ണ	-1923
▁ചെയ്തിരുന്നു	-1924
▁കൃത്യ	-1925
▁അന്ത	-1926
▁ഔ	-1927
ക്കം	-1928
▁അഞ്ച	-1929
▁ങ്ങള്‍	-1930
▁വനി	-1931
▁ഇന്‍	-1932
▁പത്തനം	-1933
▁പൊലീ	-1934
▁സുധാക	-1935
ണാടക	-1936
ദ്ധി	-1937
തിട്ട	-1938
▁തദ്ദേശ	-1939
▁ഉയര്‍ന്ന	-1940
ക്കാര്‍	-1941
പ്പെട്ടി	-1942
▁സമയത്ത്	-1943
▁പത്തനംതിട്ട	-1944
▁മലയാള	-1945
▁ബന്ധപ്പെട്ട്	-1946
▁കൂടാതെ	-1947
യിലേക്ക്	-1948
▁പരാജയ	-1949
▁കുറഞ്ഞ	-1950
▁മുഴുവ	-1951
▁നമ്മുടെ	-1952
േദ	-1953
▁കേരളത്തിലെ	-1954
▁ധന	-1955
▁200	-1956
▁പ്രവർത്തി	-1957
▁പങ്കുവ	-1958
▁മാണ	-1959
▁ജോര്‍	-1960
▁23	-1961
▁സ്വീകരിച്ച	-1962
▁ഉന്നയ	-1963
▁അഭിപ്രായ	-1964
േന	-1965
▁പദ	-1966
▁െന്ന	-1967
പ്പിന്	-1968
▁നിയന്ത്രണ	-1969
▁ഗ്രാമ	-1970
▁നിറ	-1971
▁റഷ്യ	-1972
▁അതുകൊണ്ട്	-1973
ക്കുന്നത്	-1974
ില്ലെന്നും	-1975
▁അദ്ദേഹത്തിന്റെ	-1976
ന്ദു	-1977
▁അധികൃത	-1978
▁ആരോപണ	-1979
വം	-1980
ധിപ	-1981
▁/	-1982
▁അടു	-1983
▁പറ്റ	-1984
ലു	-1985
▁ആവശ്യം	-1986
▁ജോസ	-1987
എഫ്	-1988
കളെ	-1989
▁ഫലം	-1990
▁വിട	-1991
▁ഇക്കാര്യം	-1992
ജ്ഞ	-1993
▁കന	-1994
▁മനുഷ്യ	-1995
▁സുരേഷ്	-1996
പാത	-1997
▁പുറത്തു	-1998
യര്‍	-1999
▁സ്വന്തം	-2000
▁അമി	-2001
▁മാറ	-2002
▁വസ്	-2003
▁ചൂണ്ടിക്കാ	-2004
▁തെളിവ	-2005
▁പ്രവര്‍ത്തക	-2006
▁ദൃ	-2007
▁അപകട	-2008
▁പ്രസ	-2009
▁ഡയ	-2010
▁കര്‍ഷക	-2011
ടേയും	-2012
▁സത്യ	-2013
▁േക്ക	-2014
▁ആഭ	-2015
▁40	-2016
▁ഹെ	-2017
▁ഭീഷ	-2018
▁ഇത്ര	-2019
ട്ടെ	-2020
▁കരുത	-2021
▁താമസ	-2022
▁ഇര	-2023
ീല	-2024
▁ക്കാ	-2025
▁ചെയ്ത്	-2026
സിൽ	-2027
▁നിൽ	-2028
▁കൂട്ടിച്ചേ	-2029
▁സഖ്യ	-2030
▁സ്വപ്	-2031
▁അനുമതി	-2032
ീകരണ	-2033
▁കടുത്ത	-2034
▁സാധാരണ	-2035
▁നായ	-2036
▁വ്യവ	-2037
▁ശു	-2038
ത്തിറ	-2039
▁ഇടപെട	-2040
ണു	-2041
▁ഫ്ര	-2042
▁തിന്റെ	-2043
▁സ്ഥാനാർത്ഥ	-2044
▁സമ്പർക്ക	-2045
ാളി	-2046
▁പൈ	-2047
▁ദുര	-2048
▁വിശ്വ	-2049
▁ചരി	-2050
കളുടെ	-2051
▁മാത്രമേ	-2052
▁നമ്പ	-2053
▁അഖ	-2054
▁വന്‍	-2055
▁അനുകൂല	-2056
▁പ്രവർത്തക	-2057
ച്ചത്	-2058
▁ചെയ്യുന്നത്	-2059
ുകൊണ്ട	-2060
▁ാല്‍	-2061
പരി	-2062
▁സംര	-2063
ർക്കും	-2064
▁ചുമതല	-2065
ിലായി	-2066
റിഞ്ഞ	-2067
▁വികസന	-2068
▁താഴ	-2069
ിക്കണം	-2070
▁വെച്ച്	-2071
ര്‍മ	-2072
സോ	-2073
ാണിത്	-2074
ാറ്റ	-2075
▁ഓഫ്	-2076
▁പണ	-2077
എമ്മ	-2078
▁ആറ്	-2079
ണ്‍കു	-2080
▁അനുഭവ	-2081
നോട്	-2082
▁പ്രൊ	-2083
▁കുഞ്ഞ	-2084
▁തനിക്ക്	-2085
▁ഹൈക്കോടതി	-2086
▁നേട	-2087
ടുവ	-2088
പ്പെട്ടത്	-2089
കുമ	-2090
▁ബ്ല	-2091
▁ങ്ങളും	-2092
ിക്കറ്റ്	-2093
▁എന്നത്	-2094
▁സ്ത്രീ	-2095
ച്ഛ	-2096
ടനം	-2097
▁കസ്റ്റ	-2098
▁പേരും	-2099
▁പ്രതികരണം	-2100
▁യിലും	-2101
▁രാജ്യത്തെ	-2102
▁എഴു	-2103
ഴ്ച്ച	-2104
▁ഉണ്ട്	-2105
ളു	-2106
റിന്	-2107
▁കീഴ	-2108
▁മുന്നറിയ	-2109
▁മലപ്പുറം	-2110
▁രാശിക്ക	-2111
▁ആന	-2112
ൃഷ്ട	-2113
▁മുംബ	-2114
▁സുഹൃ	-2115
▁അടക്കം	-2116
രുക	-2117
▁ഫല	-2118
▁സഹായി	-2119
▁യ്ക്ക	-2120
▁യുഎഇ	-2121
▁യുഡിഎഫ	-2122
പ്പില്‍	-2123
പ്പിന്റെ	-2124
▁ഉണ്ടായ	-2125
▁ലഭിക്കും	-2126
▁വിമർശ	-2127
യിലും	-2128
ിപ്പ്	-2129
▁െങ്കിലും	-2130
▁(3	-2131
ജീവ	-2132
▁സാഹചര്യത്തില്‍	-2133
▁മാക	-2134
▁കളില്‍	-2135
▁നല്‍കുന്ന	-2136
▁ചൊ	-2137
▁മുംബൈ	-2138
▁കൈമാ	-2139
▁തോന്ന	-2140
▁കമ്മിറ്റി	-2141
▁മുസ്ലി	-2142
സർ	-2143
▁വെളി	-2144
▁രണ്ടു	-2145
▁കേരളം	-2146
▁സാമൂഹ	-2147
ര്യം	-2148
▁സോഷ്യല്‍	-2149
▁വിഭാഗം	-2150
▁പേര്	-2151
▁ചന്ദ്ര	-2152
▁വിജയം	-2153
ടുക്കി	-2154
▁ആരാ	-2155
▁വേഗ	-2156
ുവരി	-2157
മാർ	-2158
▁കുറി	-2159
▁ക്രി	-2160
▁തുടർന്ന്	-2161
▁നിര്‍ദേശ	-2162
▁രാമ	-2163
▁കോടിയ	-2164
▁എല്‍ഡിഎ	-2165
▁ആശുപത്രിയില്‍	-2166
ീര്‍	-2167
▁തിനെ	-2168
▁സഹോദ	-2169
▁അര്‍	-2170
▁പ്രഖ്യാപിച്ച	-2171
ോഭ	-2172
▁മുഹമ്മദ്	-2173
▁ചെറിയ	-2174
▁കുമാര്‍	-2175
▁പോകുന്ന	-2176
▁സാധ്യതയ	-2177
▁മുന്നോട്ട്	-2178
▁നേതാവ	-2179
▁സര്‍വ	-2180
ശി	-2181
▁പരാമ	-2182
രിക്കാന്‍	-2183
▁അങ്ങനെ	-2184
യു	-2185
▁ചേര്‍ന്ന	-2186
▁ഉള്‍പ്പെടെ	-2187
▁മല്ല	-2188
▁റൂ	-2189
റിൽ	-2190
മുണ്ട	-2191
▁രൂക്ഷ	-2192
ങ്ങളിലെ	-2193
▁രാത്രി	-2194
നിര	-2195
ക്ടർ	-2196
▁ക്കെ	-2197
▁ഭൂരിപക്ഷ	-2198
▁സമാ	-2199
▁28	-2200
▁അമ	-2201
,000	-2202
▁ഇടതു	-2203
▁വിദ്യാഭ്യാസ	-2204
▁എംപി	-2205
▁മുതി	-2206
പ്പിക്കുന്ന	-2207
▁26	-2208
▁ഇൻ	-2209
▁സംസ്ഥാനത്തെ	-2210
കാല	-2211
▁ബോധ	-2212
▁സമിതി	-2213
തമായ	-2214
േറെ	-2215
▁ാണ	-2216
▁പുല	-2217
▁ക്ഷ	-2218
▁ജാമ	-2219
▁ആക	-2220
തില്‍	-2221
▁മാറി	-2222
▁പ്രസ്ത	-2223
▁പശ്ചാത്ത	-2224
ായിരിക്കും	-2225
▁27	-2226
▁സ്വീകരിക്ക	-2227
സ്ര	-2228
ആര്‍	-2229
▁കില	-2230
▁നാണ്	-2231
കളില്‍	-2232
ാക്കാന്‍	-2233
ഗോ	-2234
ക്കോ	-2235
▁ഇക്കാര്യ	-2236
▁ബിജെപിയുടെ	-2237
▁തെറ്റ	-2238
▁പ്രോ	-2239
പ്പോൾ	-2240
▁അഭിന	-2241
തിരായ	-2242
തൃ	-2243
▁ഇന്നലെ	-2244
▁നടത്തിയത്	-2245
▁അടിയ	-2246
ത്തല	-2247
▁ങ്ങ	-2248
▁െ	-2249
▁എടു	-2250
ലില്‍	-2251
▁പിടിച്ച	-2252
▁ഭാ	-2253
നിക്ക	-2254
▁പോസ്റ്റ	-2255
▁കാർ	-2256
▁ഒരിക്ക	-2257
▁സംബന്ധിച്ച	-2258
▁സൃഷ്ട	-2259
▁പെരു	-2260
ബ്ല	-2261
പ്റ്റ	-2262
▁ങ്ങൾ	-2263
▁ഉൾപ്പെടെ	-2264
▁വൈറസ്	-2265
▁ലീഗ്	-2266
▁മായിരുന്നു	-2267
▁പ്രശ്ന	-2268
▁കുറിച്ച	-2269
▁(1	-2270
▁ഹാജ	-2271
ൂരില്‍	-2272
▁കോര്‍	-2273
▁തൊഴിലാള	-2274
▁മൃത	-2275
▁കെട്ടി	-2276
▁അത്ത	-2277
ാകുന്ന	-2278
▁വിരുദ്ധ	-2279
▁എടുക്ക	-2280
▁എല്ലാം	-2281
▁ദിന	-2282
▁ഒന്നും	-2283
▁സിപിഎമ്മ	-2284
▁മധ്യ	-2285
▁വാർത്ത	-2286
▁യെന്ന	-2287
▁മറ്റു	-2288
▁പൗര	-2289
ചി	-2290
പ്രവ	-2291
▁ആരോപണം	-2292
▁സമ്മേള	-2293
▁വീട്ടില്‍	-2294
▁മൂല	-2295
▁യിലേക്ക്	-2296
▁ഇടുക്കി	-2297
▁ചെയ്യും	-2298
▁സഭ	-2299
പ്പെടുന്നത്	-2300
ിലി	-2301
▁സഹക	-2302
ികള്‍ക്ക്	-2303
▁സമ്പര്‍ക്ക	-2304
ദാ	-2305
ശം	-2306
▁പിടി	-2307
ധന	-2308
▁നൂ	-2309
▁ക്വാ	-2310
▁വന്നു	-2311
ിക്കേണ്ട	-2312
▁ണ	-2313
▁കിട	-2314
മായിരുന്നു	-2315
▁പശ്ചാത്തല	-2316
▁യോഗം	-2317
▁പ്രസ്താവന	-2318
▁സോണ	-2319
▁ലും	-2320
▁ബീ	-2321
രുത്	-2322
▁മാറിയ	-2323
▁ആവശ്യപ്പെട്ടു	-2324
സ്പി	-2325
ോടും	-2326
▁പുരു	-2327
▁തില്‍	-2328
▁ഉണ്ടായി	-2329
▁നടി	-2330
ുക്ക	-2331
ോട്ടോ	-2332
▁തൃശൂര്‍	-2333
▁എന്നതാണ്	-2334
േഴ്	-2335
▁മൃതദേഹ	-2336
▁എന്നായിരുന്നു	-2337
ഷൻ	-2338
മെന്റ്	-2339
▁ബോസ്	-2340
▁പ്രവർത്തന	-2341
▁ട്രം	-2342
ൃഷ്ണ	-2343
ക്കൂ	-2344
ൈന്‍	-2345
ുമില്ല	-2346
▁ക്കായി	-2347
▁തുടര്‍ന്ന	-2348
ക്യൂ	-2349
▁പ്രിയങ്ക	-2350
▁ഹര്‍	-2351
▁താല്‍	-2352
▁കേന്ദ്രം	-2353
▁പുറത്തിറ	-2354
▁എന്നെ	-2355
▁സ്വര്‍ണ	-2356
വൈ	-2357
▁എന്ത്	-2358
▁മുരള	-2359
▁പഞ്ചാ	-2360
▁സൗദി	-2361
ോടൊപ്പം	-2362
▁ഇന	-2363
▁കിട്ടിയ	-2364
▁സഹായ	-2365
▁ചെന്നി	-2366
▁ഇന്ത്യൻ	-2367
രായ	-2368
▁പെണ്‍കു	-2369
▁വിപ	-2370
▁നിലപാട	-2371
▁ചെന്നിത്തല	-2372
▁ഹോ	-2373
▁അര	-2374
നാൽ	-2375
ാണ്ടി	-2376
വാദി	-2377
്മി	-2378
റ്റര്‍	-2379
▁സിന്‍	-2380
▁എന്നിവിട	-2381
▁പഴ	-2382
ക്കട	-2383
▁വരിക	-2384
വ്ര	-2385
▁സൈന	-2386
▁സ്ഥിതി	-2387
▁ആഘ	-2388
ിയിലേക്ക്	-2389
ധിച്ച്	-2390
കുതി	-2391
▁ഭക്ഷ	-2392
▁മുന്നില്‍	-2393
▁സ്വീക	-2394
▁വ്യത്യ	-2395
സ്റ്റര്‍	-2396
▁പെട്ട	-2397
▁നു	-2398
▁ഇസ്ര	-2399
▁പ്രായ	-2400
▁നടപടിയ	-2401
▁ഭീഷണി	-2402
▁സ്വർ	-2403
▁ജനറല്‍	-2404
▁ചീ	-2405
▁വേദ	-2406
▁കൊടുത്ത	-2407
ഷിക	-2408
▁നിര്‍മ	-2409
▁നിക്ഷേപ	-2410
▁പ്രചാരണ	-2411
▁ഊ	-2412
▁അവത	-2413
▁തിരി	-2414
▁ഉണ്ടായിരുന്ന	-2415
വരുടെ	-2416
▁അക്രമ	-2417
ലിന്റെ	-2418
▁തുടങ്ങി	-2419
▁1,	-2420
▁കോളേജ	-2421
▁സ്വാധ	-2422
▁പാർട്ട	-2423
▁പരിച	-2424
▁നിങ്ങളുടെ	-2425
▁വൃ	-2426
▁ഇതിന്റെ	-2427
▁പൂര്‍ത്തിയ	-2428
▁കമ്പന	-2429
ത്തോളം	-2430
്യന്തര	-2431
▁മുസ്ലീ	-2432
▁അമിത്	-2433
▁വയനാട്	-2434
▁സ്ഥാനാര്‍ത്ഥി	-2435
ജ്ജ	-2436
ാക്	-2437
ധിപത്യ	-2438
▁കൊണ്ടുവ	-2439
ലിന്	-2440
▁മുസ്ലിം	-2441
▁പഞ്ചായത്ത്	-2442
ശ്ര	-2443
സ്ട്ര	-2444
▁സംശയ	-2445
▁മന്ത്രാല	-2446
ണ്ണി	-2447
ത്തം	-2448
▁സമ്പർക്കം	-2449
▁യോഗ്യത	-2450
▁നമു	-2451
▁ക്കുള്ള	-2452
▁സൈനിക	-2453
▁വിളി	-2454
▁കൊലപാത	-2455
മത	-2456
▁(4	-2457
▁31	-2458
▁ഡയറ	-2459
▁ുള്ള	-2460
സ്യ	-2461
▁തടയ	-2462
ിയായി	-2463
▁ആഭ്യന്തര	-2464
ുകളെ	-2465
▁സെന്റ	-2466
ബർ	-2467
▁തള്ള	-2468
▁അറസ്റ്റ	-2469
▁ഗുരുത	-2470
▁ദൃശ്യ	-2471
േക്കുള്ള	-2472
▁പ്പോള്‍	-2473
ിട്ട്	-2474
▁സൂര്യ	-2475
▁പേരെ	-2476
▁വുമായി	-2477
▁കളാണ്	-2478
▁കൊടുക്ക	-2479
▁കാലാവസ്ഥ	-2480
ിക്കപ്പെട്ട	-2481
▁വകുപ്പ	-2482
▁അതിന്റെ	-2483
▁കാലത്ത്	-2484
രമ	-2485
▁വന്നത്	-2486
▁‍	-2487
▁ദേവ	-2488
▁ബാബു	-2489
▁വർഷം	-2490
▁ആക്രമണ	-2491
▁35	-2492
▁ഇതേ	-2493
▁ക്രമ	-2494
മെന്ന്	-2495
▁ിന	-2496
▁വിച	-2497
▁പറഞ്ഞ്	-2498
ശാ	-2499
ാവധി	-2500
▁ജനാ	-2501
▁ശേഷമാണ്	-2502
ജൻ	-2503
▁ഉള്ളത്	-2504
▁ചെയ്യാന്‍	-2505
തന്ത്ര	-2506
ാട്	-2507
ഴാണ്	-2508
▁തോമസ്	-2509
▁പിന്‍	-2510
▁നേതാക്കള	-2511
ാദ	-2512
▁വിദ്യാര്‍ത്ഥ	-2513
▁കൂടെ	-2514
▁നടന്നത്	-2515
▁നേതാക്കൾ	-2516
മ്പ്	-2517
▁കഴിയുന്ന	-2518
ീഷ്	-2519
▁നിർദ്ദേശ	-2520
രത്ത്	-2521
▁താരം	-2522
▁വെല്ല	-2523
ംസ്	-2524
ല്ലോ	-2525
ശ്വാ	-2526
▁സ്ഥിരീകരിച്ചത്	-2527
▁ദുബ	-2528
▁ചിത്രം	-2529
▁പോവ	-2530
ല്‍ഹി	-2531
ഘാ	-2532
യോടെ	-2533
▁വാക്സി	-2534
▁വ്യാജ	-2535
യർ	-2536
ുത	-2537
▁റാ	-2538
ോട്ടി	-2539
▁പാട	-2540
▁യില്ല	-2541
▁ത്തിനും	-2542
▁നില്‍ക്ക	-2543
▁സംസാരിക്ക	-2544
▁ബുദ്ധി	-2545
ിക്കാനുള്ള	-2546
സഭാ	-2547
▁നിര്‍മ്മ	-2548
▁അവരെ	-2549
▁ഉച്ച	-2550
▁സന്ദര്‍ശ	-2551
▁ശമ്പ	-2552
▁ഇവരുടെ	-2553
▁നിരക്ക്	-2554
▁സജീവ	-2555
▁അക്ക	-2556
▁ലഭിച്ചത്	-2557
▁വിദ്യാർത്ഥ	-2558
▁പ്പെട	-2559
▁മനസ്സില	-2560
▁29	-2561
▁ഇരുവ	-2562
▁കള്ള	-2563
▁പട	-2564
ന്ദി	-2565
▁മോദ	-2566
ത്തിയത്	-2567
▁മഹാരാഷ്ട്ര	-2568
ീവ	-2569
ാതി	-2570
▁അവസ്ഥ	-2571
▁സമര്‍	-2572
ഭാവ	-2573
്രാ	-2574
▁ഉദ്	-2575
▁സഞ്ച	-2576
▁ഇപ്പോഴും	-2577
▁ഗുരുതര	-2578
േഷന	-2579
ൗണ്ട	-2580
▁ഡോള	-2581
▁ക്കാന്‍	-2582
ത്തേ	-2583
ുമുള്ള	-2584
▁കേരളത്തിൽ	-2585
പോ	-2586
ധിത	-2587
▁കളിൽ	-2588
▁തീവ്ര	-2589
▁മട	-2590
▁ചരിത്ര	-2591
▁കൊടു	-2592
▁ചടങ്ങ	-2593
▁കൊണ്ടാണ്	-2594
▁ഷി	-2595
▁ഇന്റ	-2596
▁നിന്നാണ്	-2597
▁സര്‍ക്കാരിന്റെ	-2598
▁തുക	-2599
▁60	-2600
മല	-2601
ൻസ്	-2602
▁ഡ്രൈ	-2603
▁കൃഷ്ണ	-2604
▁ജാഗ്ര	-2605
ദ്യോഗിക	-2606
▁മത്സരിക്ക	-2607
▁നോട്ട	-2608
▁വാക്ക	-2609
രിച്ചത്	-2610
▁സംഘടി	-2611
▁ഭയ	-2612
▁ദുരന്ത	-2613
▁യെന്ന്	-2614
ശ്ശേരി	-2615
▁അടക്കമുള്ള	-2616
▁കോണ്‍ഗ്രസിന്	-2617
കല	-2618
ീധ	-2619
▁ഇവരെ	-2620
▁ജോസ്	-2621
▁വരുമാന	-2622
▁കളെ	-2623
▁സ്വയം	-2624
▁ആഗ	-2625
▁റിപ്പോർട്ട	-2626
▁രമേ	-2627
▁വിട്ടു	-2628
▁ഇന്ത്യയുടെ	-2629
▁രാജിവ	-2630
റിനെ	-2631
▁ലം	-2632
ത്താവ	-2633
▁ഇതിന	-2634
▁സതീ	-2635
▁മദ്യ	-2636
ിക്കാം	-2637
േല്‍	-2638
ചന്ദ്ര	-2639
▁പോസ്റ്റ്	-2640
▁ചാ	-2641
ുകളിലും	-2642
▁നേരിട്ട്	-2643
▁എല്ലാവരും	-2644
▁ലഭിക്കുന്ന	-2645
▁ഇള	-2646
▁ഹിന്ദു	-2647
▁കണ്‍	-2648
▁നല്‍കിയത്	-2649
സൂ	-2650
തുമ	-2651
തമായി	-2652
സൈ	-2653
ുതി	-2654
ലൂടെ	-2655
▁ടു	-2656
▁കോണ്‍ഗ്രസിന്റെ	-2657
▁സഭാ	-2658
ണര്‍	-2659
▁ലീഗ	-2660
▁മെന്റ്	-2661
▁മെയ്	-2662
ിപ്പിച്ച	-2663
▁അബ്ദ	-2664
▁വരുടെ	-2665
വാദ	-2666
▁വിധി	-2667
▁ലഭ്യമ	-2668
നത്തിന്	-2669
ത്വം	-2670
ണായക	-2671
ണ്ടി	-2672
സിപ്പ	-2673
▁പോസി	-2674
▁ഇനിയും	-2675
ര്‍ത്തു	-2676
ിക്കറ്റ	-2677
▁ആം	-2678
ർത്ഥ	-2679
▁യായ	-2680
മാന്‍	-2681
▁ലോക്ക്	-2682
▁പ്രമുഖ	-2683
മിന	-2684
▁മുരളീധ	-2685
▁സിറ്റി	-2686
▁ഔദ്യോഗിക	-2687
▁വര്‍ക്ക്	-2688
▁സാധിക്കും	-2689
▁തട്ടി	-2690
▁ദിലീപി	-2691
▁ലക്ഷ്യമ	-2692
ഗ്ദ	-2693
▁സീസ	-2694
▁നൽകി	-2695
ിയോ	-2696
▁കെപി	-2697
▁ക്കൊ	-2698
▁ഉയർന്ന	-2699
▁പോളി	-2700
പാട്	-2701
രുവ	-2702
ക്കാൻ	-2703
മതി	-2704
▁ഏഴ്	-2705
▁ഫോണ	-2706
രുന്ന്	-2707
▁ഉമ്മന്‍	-2708
▁തെളിയ	-2709
▁വിമാനത്താവ	-2710
▁ടോ	-2711
▁ഏപ്ര	-2712
▁തിരിച്ചു	-2713
▁രി	-2714
വിന്	-2715
▁ജൂല	-2716
▁വേണം	-2717
▁വെല്ലുവി	-2718
▁ജയില	-2719
ങ്ങുന്ന	-2720
▁രൂപയാണ്	-2721
▁ലക്ഷ്യം	-2722
▁തെന്നാണ്	-2723
ുറ	-2724
പരമായ	-2725
▁100	-2726
▁ബിസിന	-2727
▁മാറ്റം	-2728
▁ബിജെപിക്ക്	-2729
▁നിശ്ച	-2730
▁കണ്ണൂർ	-2731
▁പരിക്ക	-2732
▁മൂന്നാം	-2733
▁ക്കൊപ്പം	-2734
▁ചാന	-2735
▁2019	-2736
▁ജോസഫ്	-2737
▁ഉണ്ടാവ	-2738
▁നികുതി	-2739
▁ിരുന്നുവ	-2740
▁45	-2741
▁മനോ	-2742
ാമത്തെ	-2743
▁ഇടതുപക്ഷ	-2744
▁ിരിക്കുന്ന	-2745
▁നേടി	-2746
സരിച്ച്	-2747
▁തങ്ങളുടെ	-2748
▁കഥ	-2749
▁കളില	-2750
ങ്കിലും	-2751
▁മാറ്റിയ	-2752
▁വാദ	-2753
▁ആരും	-2754
▁ഉദ്ഘാ	-2755
▁ഇയാള്‍	-2756
▁സ്ഥാനം	-2757
▁ഇസ്രായ	-2758
ത്തിലൂടെ	-2759
▁വരുന്നത്	-2760
▁ജനാധിപത്യ	-2761
ുട്ട	-2762
റിച്ച	-2763
▁ആരാധ	-2764
ക്ടറ	-2765
രില്‍	-2766
▁(5	-2767
▁ക്കാണ്	-2768
▁കേസിൽ	-2769
▁ഇഷ്ട	-2770
▁രാജ്	-2771
▁രാഹുൽ	-2772
നേ	-2773
▁അഴി	-2774
▁സമു	-2775
▁നായി	-2776
▁കടന്ന	-2777
▁ബാങ്ക	-2778
▁യുദ്ധ	-2779
ങ്ങനെയാണ്	-2780
▁ഇല	-2781
ക്കുക	-2782
ുകാര്‍	-2783
▁നിലവിൽ	-2784
▁ിട്ടുള്ള	-2785
ക്കുറിച്ച്	-2786
ുമ്പോ	-2787
▁പകരം	-2788
▁വിശ്വാസ	-2789
ബൈ	-2790
വില	-2791
▁പിസി	-2792
▁ില്ലെന്നും	-2793
സ്വ	-2794
▁ഗുജ	-2795
▁പ്രതിഷേധം	-2796
ീകരണം	-2797
ക്കൊ	-2798
▁മാണി	-2799
▁പേരില്‍	-2800
ിയാ	-2801
േണ്ടത്	-2802
കര്യ	-2803
നിധ	-2804
നാല്‍	-2805
മാരുടെ	-2806
▁ചെറു	-2807
ിക്	-2808
ക്കേ	-2809
▁വൈദ്യ	-2810
പ്പോഴും	-2811
▁എങ്ങനെ	-2812
▁ജോര്‍ജ്	-2813
▁എത്തിയത്	-2814
▁ിട്ടുള്ളത്	-2815
▁റോഡ	-2816
▁ക്ഷേത്ര	-2817
ടിച്ച	-2818
▁യിലാണ്	-2819
▁ഒര	-2820
▁ഒന്നാം	-2821
രൻ	-2822
ാലോ	-2823
▁ലംഘ	-2824
▁ഗുജറാ	-2825
▁മെഡിക്കൽ	-2826
▁ആരോപിച്ചു	-2827
ാണോ	-2828
▁ത്തിലെ	-2829
▁യഥ	-2830
▁പുരോഗ	-2831
▁പ്രതിസന്ധി	-2832
ണിയ	-2833
▁ബന്ധം	-2834
▁മുള്ള	-2835
▁സമ്മാന	-2836
ുമായിരുന്നു	-2837
▁യാത	-2838
▁നിയമം	-2839
▁ശ്രമം	-2840
നാഥ്	-2841
▁നിര്‍ദ്ദേശ	-2842
▁സൂച	-2843
ക്കാർ	-2844
▁ുവെന്നും	-2845
▁രോ	-2846
▁ആളുകള്‍	-2847
▁കഴിഞ്ഞു	-2848
▁കുറച്ച്	-2849
▁ങ്ങളുടെ	-2850
ര്‍ക്കാണ്	-2851
▁വഹ	-2852
▁മമത	-2853
ട്ടിഫ	-2854
▁മുന്നറിയിപ്പ്	-2855
▁1.	-2856
▁പവ	-2857
▁എട്ട്	-2858
▁കനത്ത	-2859
ാക്കിയത്	-2860
▁മേഖലയില്‍	-2861
ഹരി	-2862
▁ആവശ്യപ്പെട്ടി	-2863
▁കുട്ടി	-2864
ടേ	-2865
ഖ്യ	-2866
▁ഹൗ	-2867
▁തല്ല	-2868
▁ഉന്നത	-2869
▁ഞങ്ങള്‍	-2870
▁രമേശ്	-2871
▁മണ്ഡലം	-2872
▁സന്തോഷ	-2873
ാനെ	-2874
മാരെ	-2875
▁പ്രസംഗ	-2876
▁മുസ്ലീം	-2877
ൺകു	-2878
▁പത്ത്	-2879
▁പിടിക	-2880
▁സാധിച്ച	-2881
സിയ	-2882
െച്ച	-2883
ട്ടാണ്	-2884
▁നടക്കുന്നത്	-2885
▁തിരഞ്ഞെടുപ്പിൽ	-2886
▁കൂടിയാണ്	-2887
▁ശ്രമിച്ച	-2888
▁താൻ	-2889
▁യോട്	-2890
▁വീതം	-2891
▁അവസരം	-2892
▁സ്വാത	-2893
▁ചികിത്സയില	-2894
ൊന്ന	-2895
▁വിന	-2896
▁കല്ല	-2897
▁ആവശ്യമ	-2898
▁സംരക്ഷ	-2899
▁അധ്യക്ഷന്‍	-2900
▁ഇവർ	-2901
▁ഏത്	-2902
▁തസ്	-2903
▁കാസര്‍	-2904
▁യുഎസ്	-2905
▁ഭേദ	-2906
▁കുറവ	-2907
▁വസ്തു	-2908
▁വില്‍	-2909
▁െന്നാണ്	-2910
▁വരാണ്	-2911
▁സച്ചി	-2912
▁ചോദിച്ചു	-2913
▁ക്രൈ	-2914
▁ഇദ്ദേഹ	-2915
▁പേരുടെ	-2916
▁സുരക്ഷാ	-2917
▁ജീവനക്കാര	-2918
▁കുമാ	-2919
ീകരിച്ച്	-2920
▁പിടികൂ	-2921
ഗതി	-2922
ഗോഡ്	-2923
▁ജല	-2924
▁വല	-2925
എല്‍	-2926
ീക്ക	-2927
ട്ടില്ല	-2928
▁അഭിമുഖ	-2929
മം	-2930
ൗണ്‍	-2931
▁വായ	-2932
▁സമരം	-2933
▁രീതിയില്‍	-2934
▁യോഗത്തില്‍	-2935
▁പ്രവര്‍ത്തകര്‍	-2936
ികെ	-2937
▁മര	-2938
▁ആഘോഷ	-2939
▁മരണം	-2940
▁വിതരണം	-2941
▁ഉടമ	-2942
▁മുതല	-2943
▁അതില്‍	-2944
▁ശാസ്	-2945
▁സാഹചര്യം	-2946
ംസ	-2947
▁മൊഴി	-2948
▁യുവതി	-2949
▁രൂപയുടെ	-2950
▁പേരു	-2951
പ്ല	-2952
▁ഫാ	-2953
ിരുന്നത്	-2954
▁എന്താണ്	-2955
▁നമുക്ക്	-2956
ീപ്	-2957
മില്ല	-2958
ക്കിന്	-2959
▁സ്വാതന്ത്ര	-2960
▁അയാ	-2961
▁ഇതു	-2962
▁ഏര്‍	-2963
▁തെന്ന	-2964
▁പ്രവച	-2965
ണമെന്നാണ്	-2966
ശ്മ	-2967
▁വധ	-2968
ത്യം	-2969
▁ആലോ	-2970
▁സതീശ	-2971
▁നൽകുന്ന	-2972
▁അവസര	-2973
▁കൂടുതല	-2974
▁അധ്യാപ	-2975
▁നേരിട്ട	-2976
ത്തുന്ന	-2977
▁ഫേസ്ബുക്ക്	-2978
▁നാളെ	-2979
▁ജാഗ്രത	-2980
▁വിവരങ്ങള്‍	-2981
▁32	-2982
▁മക്ക	-2983
▁വീട്	-2984
ക്യ	-2985
ോറി	-2986
്യോ	-2987
▁ലേ	-2988
▁ഇടി	-2989
▁സൗകര്യ	-2990
▁എന്നിവര്‍	-2991
▁ഉണ്ടായിരുന്നു	-2992
▁പാക	-2993
▁യാതൊരു	-2994
▁ബജ	-2995
പ്പെടുത്തുന്ന	-2996
▁കാഴ്ച	-2997
▁പിന്നാലെയാണ്	-2998
▁അംഗീക	-2999
▁മനസില	-3000
▁വനിതാ	-3001
▁തിനാല്‍	-3002
▁യാണെന്നും	-3003
▁പങ്കെടുത്ത	-3004
▁ഒന്ന്	-3005
▁കേന്ദ്രസ	-3006
ഗോപ	-3007
▁സർവ	-3008
▁പൂര്‍ണ	-3009
▁ശേഖ	-3010
ാര്‍ഥ	-3011
പിച്ച്	-3012
▁ചെയ്തിട്ടുണ്ട്	-3013
▁ബുധ	-3014
▁ഗോപി	-3015
ിട്ടും	-3016
▁രോഗമു	-3017
പ്പിച്ച്	-3018
▁സമാന	-3019
▁ശരിയ	-3020
▁ങ്ങളെ	-3021
▁പലരും	-3022
റ്റില്‍	-3023
▁മൈ	-3024
ീന്‍	-3025
▁നേരെ	-3026
▁ദിലീപ്	-3027
▁മെന്ന്	-3028
▁നടത്തുന്നത്	-3029
▁മണ്ഡലത്തില്‍	-3030
കോ	-3031
▁റേ	-3032
ക്കെതിരെ	-3033
ക്കില്‍	-3034
▁കോടതിയില്‍	-3035
റ്റർ	-3036
▁മേധ	-3037
▁2021	-3038
▁ശിക്ഷ	-3039
ഫോ	-3040
▁ലോട്ട	-3041
▁ഹോട്ട	-3042
▁കാണുന്ന	-3043
▁സ്ഥിരീകരിച്ചു	-3044
▁മുണ്ട്	-3045
▁വിവാഹം	-3046
ൂരി	-3047
▁സാക്ഷ	-3048
▁കാത്തി	-3049
▁കേസിലെ	-3050
▁കര്‍ണാടക	-3051
▁യൂത്ത്	-3052
▁മാതൃ	-3053
▁യല്ല	-3054
▁സൂക്ഷ	-3055
ിക്കല്‍	-3056
▁ക്കാനുള്ള	-3057
റ്റം	-3058
ാനായി	-3059
▁ഗൂ	-3060
കളിൽ	-3061
▁ക്യ	-3062
പ്രതി	-3063
▁പ്പോൾ	-3064
▁ഒരാള്‍	-3065
▁സേന	-3066
▁ബിരു	-3067
▁പ്പെടുത്ത	-3068
▁ില	-3069
▁പെൺകു	-3070
▁മുഴുവന്‍	-3071
നിട	-3072
▁അംബ	-3073
▁വിജയ്	-3074
▁അദ്ദേഹത്തെ	-3075
▁ില്ലെന്ന്	-3076
▁ഉത്തരവാദി	-3077
ഘടന	-3078
▁ക്യാമ്പ	-3079
▁പരാമര്‍ശ	-3080
▁ഡോസ്	-3081
▁ഞങ്ങൾ	-3082
▁സിപിഐ	-3083
▁കമ്പനി	-3084
▁തസ്തിക	-3085
▁സാമ്പി	-3086
▁അറിയിച്ച	-3087
കരമായ	-3088
▁നിർമ്മ	-3089
പ്തി	-3090
▁വർക്ക്	-3091
▁തീയ	-3092
▁ക്കാൻ	-3093
▁ഒരുപാട്	-3094
▁കാര്യത്തില്‍	-3095
ന്ധ്യ	-3096
ർത്തു	-3097
▁ിരുന്നത്	-3098
▁കരാ	-3099
▁തിരുവ	-3100
▁ടെക്	-3101
▁ഡിസം	-3102
ഞ്ജ	-3103
▁സന്	-3104
▁ഒട്ട	-3105
▁കണ്ടു	-3106
ിലായ	-3107
▁കൈവ	-3108
▁മുന്നണി	-3109
▁ങ്ങളില്‍	-3110
▁റോഡ്	-3111
റ്റു	-3112
▁അമ്പ	-3113
▁ഗവര്‍	-3114
▁തുറന്ന	-3115
▁ബുദ്ധിമു	-3116
ലോ	-3117
▁ഒരിക്കലും	-3118
▁കർഷക	-3119
▁ടൂ	-3120
▁കൊണ്ടു	-3121
ആർ	-3122
ദേശിക	-3123
▁വയസ്	-3124
▁േക്കും	-3125
▁ചീഫ്	-3126
▁അർ	-3127
▁പ്രാദേശിക	-3128
▁വിമാനത്താവള	-3129
▁പിഴ	-3130
▁ഓഫീസര്‍	-3131
▁കൊലപാതക	-3132
▁സെക്രട്ടറിയ	-3133
ലമെ	-3134
▁ബസ്	-3135
▁ക്കിട	-3136
▁വയസ്സ	-3137
▁സഹായം	-3138
▁പങ്കെടുക്ക	-3139
▁രംഗത്തെത്തിയ	-3140
▁നിര്‍ദേശം	-3141
30	-3142
ഹാ	-3143
േറിയ	-3144
▁പണി	-3145
▁അച്ഛ	-3146
ുകൊണ്ടാണ്	-3147
▁ചെയ്യുന്നു	-3148
▁സംഭവത്തില്‍	-3149
ഹിത	-3150
▁വാഗ്ദ	-3151
▁അതിനിടെ	-3152
▁വിളിച്ച	-3153
▁ഗ്രൂപ്പ്	-3154
ീര	-3155
▁രാജി	-3156
▁ഒപ്പം	-3157
▁വിദഗ്	-3158
▁ശബ	-3159
▁ലാണ്	-3160
ുമായുള്ള	-3161
▁ഇത്രയും	-3162
▁അത്ര	-3163
▁റ്റി	-3164
▁പിന്നെ	-3165
▁മഹാ	-3166
▁സിന	-3167
▁എംഎൽ	-3168
▁റദ്ദ	-3169
▁സംസ്	-3170
▁വിശ്വസ	-3171
▁സ്വതന്ത്ര	-3172
ളൂ	-3173
▁സമ്മേളന	-3174
ടുള്ള	-3175
▁അഭിഭാ	-3176
▁തായും	-3177
▁80	-3178
▁ക്വാറ	-3179
▁നിലവിലെ	-3180
▁ഉപയോഗിച്ച്	-3181
▁ജയരാ	-3182
ശ്വാസം	-3183
▁ഫോണ്‍	-3184
▁ബഹ	-3185
▁ാൽ	-3186
▁ക്കി	-3187
▁മാണെന്ന്	-3188
പ്രവര്‍ത്ത	-3189
ാണം	-3190
▁തന്ത്ര	-3191
▁നിന്നു	-3192
▁കാര്യങ്ങൾ	-3193
▁മാണെന്നും	-3194
▁സീറ്റുകള്‍	-3195
മുണ്ട്	-3196
▁അഴിമതി	-3197
▁നേതൃത്വത്തില്‍	-3198
▁സിംഗ	-3199
▁ുവെന്ന്	-3200
▁നിങ്ങള്‍	-3201
▁നടപ്പില	-3202
▁ബാങ്ക്	-3203
▁വിഷയത്തില്‍	-3204
സിലെ	-3205
▁ജൂണ്‍	-3206
▁രേഖപ്പെടുത്തിയ	-3207
േര	-3208
ഹത്യ	-3209
▁ട്വി	-3210
▁ത്തിലും	-3211
കർ	-3212
രാമ	-3213
▁ഇന്ത്യയിലെ	-3214
▁ജില്ലയിൽ	-3215
▁തൃണമ	-3216
▁ഇന്ത്യയില്‍	-3217
▁തിൽ	-3218
▁നിരോധ	-3219
▁ജൂലൈ	-3220
▁എന്നിവരാണ്	-3221
▁താല	-3222
▁ക്ഷണ	-3223
രുമായി	-3224
്യൂട്ടി	-3225
ടക്കം	-3226
▁ഭരണം	-3227
ുമുണ്ട്	-3228
▁പരിപാടിയ	-3229
വിൽ	-3230
▁പ്	-3231
▁പാകി	-3232
▁ഇതിനിടെ	-3233
ഭരണ	-3234
▁കൂള	-3235
▁അടിയന്തര	-3236
▁പഴയ	-3237
▁കെപിസിസി	-3238
▁പൂർത്തിയ	-3239
▁യാണെന്ന്	-3240
▁നടപടികള്‍	-3241
ത്താണ്	-3242
▁എംഎൽഎ	-3243
▁കേസുകള്‍	-3244
ഗീയ	-3245
▁അശ	-3246
ങ്ങ്	-3247
ാശാല	-3248
▁സ്കൂ	-3249
ിച്ചാണ്	-3250
▁തുടങ്ങ	-3251
▁നിലയില്‍	-3252
ടനാ	-3253
▁കോളേജ്	-3254
ാണെന്ന	-3255
െടുത്ത്	-3256
▁ഗോപ	-3257
▁അഭിഭാഷക	-3258
▁സുരക്ഷി	-3259
▁മത്സരിച്ച	-3260
മിക	-3261
▁നഗരസഭ	-3262
വിട്ട	-3263
▁യെന്നും	-3264
▁ജനങ്ങള്‍	-3265
▁ഉദ്യോഗസ്ഥര്‍	-3266
▁തെരഞ്ഞെടുപ്പ്	-3267
▁വാദം	-3268
റുകള്‍	-3269
റ്റീവ്	-3270
▁വോട്ടി	-3271
ന്യം	-3272
▁കോർ	-3273
▁കയ്യ	-3274
▁ട്വീ	-3275
▁ങ്ങളില	-3276
▁പ്രചാര	-3277
▁രാജ്യം	-3278
ത്തിനായി	-3279
തെ	-3280
ർന്നു	-3281
▁അഭ്യ	-3282
▁സംഭവിച്ച	-3283
▁ചൂണ്ടിക്ക	-3284
ീർ	-3285
ൂരിലെ	-3286
സേന	-3287
▁വിധേയ	-3288
ികൾക്ക്	-3289
▁തമ്മിലുള്ള	-3290
▁തിരിച്ചടി	-3291
▁പുറത്തുവന്ന	-3292
▁2,	-3293
▁പ്രണ	-3294
▁ഫെബ്ര	-3295
▁തുടക്ക	-3296
▁വ്യാപക	-3297
▁ആവശ്യപ്പെട്ട	-3298
▁ചൂണ്ടിക്കാട്ടി	-3299
▁യാദ	-3300
▁ധാരണ	-3301
▁നിമി	-3302
▁വര്‍ധ	-3303
▁വ്യവസ	-3304
▁യ്ക്കും	-3305
നിൽ	-3306
▁ചല	-3307
കലാശാല	-3308
▁വോട്ടുകള്‍	-3309
ശേഷ	-3310
▁37	-3311
▁ഗുണ	-3312
▁റില	-3313
▁റണ്‍	-3314
▁സേവന	-3315
ാക്കാൻ	-3316
ട്ടിക്ക	-3317
▁ചെയ്യാൻ	-3318
▁മൃതദേഹം	-3319
▁തിങ്ക	-3320
▁ഇപ്പോഴ	-3321
▁ചെന്നൈ	-3322
▁36	-3323
നാട്ട	-3324
്വ	-3325
▁മൊബൈ	-3326
▁ത്തിലാണ്	-3327
▁സംവിധാനം	-3328
മിച്ച്	-3329
▁ത്തിന	-3330
മെന്നും	-3331
▁പേരിൽ	-3332
രിത	-3333
ീകര	-3334
ലക്ഷ	-3335
പ്പിൽ	-3336
ികളായ	-3337
▁നിങ്ങൾ	-3338
▁പരിശീല	-3339
സ്തി	-3340
▁പഠന	-3341
▁എച്ച്	-3342
▁അദ്ദേഹത്തിന്	-3343
▁തേടിയ	-3344
▁മോഹന്‍	-3345
▁ഗണ	-3346
▁വിചാരണ	-3347
▁സ്വാധീന	-3348
▁താഴെ	-3349
▁സമാധാന	-3350
▁സാഹചര്യത്തിൽ	-3351
▁ഘടക	-3352
വിന്റെ	-3353
ുണ്ടെന്നും	-3354
▁വായി	-3355
പ്പര്‍	-3356
▁അനുവദിക്ക	-3357
ീല്‍	-3358
▁വാങ്ങിയ	-3359
തിനെ	-3360
▁വീണ	-3361
▁സാമൂഹിക	-3362
ാടി	-3363
▁അഡ	-3364
▁അല്‍	-3365
▁ഖത്ത	-3366
▁ആക്രമണം	-3367
▁ആദ്യമായി	-3368
▁നം	-3369
▁ള്ള	-3370
▁കുറിച്ചു	-3371
ഡില്‍	-3372
ൽഹി	-3373
▁നീതി	-3374
▁വിസ	-3375
ാവില്ല	-3376
ിക്കാഴ്ച	-3377
▁കൂടിക്കാഴ്ച	-3378
▁ഫിറോ	-3379
▁സജ്ജ	-3380
▁ടിക്കറ്റ്	-3381
▁അഡ്	-3382
▁വ്യാഴ	-3383
▁പോരാട്ട	-3384
ീകരി	-3385
സിക്യൂ	-3386
▁റെയില്‍	-3387
ൃദ	-3388
േത	-3389
▁അസി	-3390
▁യാക	-3391
ർട്ട്	-3392
ര്‍ത്തിയ	-3393
ുധ	-3394
▁മുല്ല	-3395
▁വീട്ടിൽ	-3396
▁അഖില	-3397
▁ജീവിതം	-3398
പതി	-3399
ർജി	-3400
▁ഭാഷ	-3401
▁പൊലി	-3402
▁വീടി	-3403
▁ങ്ങളാണ്	-3404
ാൾ	-3405
ജീവി	-3406
▁പ്രവേശിപ്പ	-3407
▁ചൂണ്ടിക്കാണ	-3408
▁ചെലവ	-3409
▁ന്യൂന	-3410
▁തിരികെ	-3411
▁ബ്രിട്ട	-3412
▁),	-3413
▁അജ	-3414
▁ഓണ്‍	-3415
ങ്ങളായി	-3416
▁പേര്‍ക്കും	-3417
▁പദവി	-3418
▁ഭൂമി	-3419
4,	-3420
താഗ	-3421
▁പ്രവാസ	-3422
▁സാമ്പിള	-3423
▁55	-3424
▁ഗവ	-3425
ായാലും	-3426
▁അധികം	-3427
▁യുക്ര	-3428
പ്പെടുന്നു	-3429
▁ത്തിലേക്ക്	-3430
▁ശബരി	-3431
ല്‍ക്ക	-3432
▁പ്രമേ	-3433
▁വിഷയം	-3434
വര്‍ക്ക്	-3435
പ്പന	-3436
▁കയറി	-3437
▁മല്‍	-3438
▁ആരംഭിച്ച	-3439
▁രഹ	-3440
▁പെട്ര	-3441
▁പെണ്‍കുട്ട	-3442
▁ആന്റ	-3443
▁ത്തിനു	-3444
▁സ്ഥാനാർത്ഥി	-3445
▁വച്ച്	-3446
▁പെരുമാ	-3447
ോമീ	-3448
▁ശൈ	-3449
▁സ്വാ	-3450
▁ിന്റെ	-3451
▁കളിലും	-3452
ലിൽ	-3453
ോണി	-3454
▁70	-3455
ന്‍ഡ്	-3456
▁കണ്ട്	-3457
▁ജനുവരി	-3458
സിക	-3459
▁33	-3460
ലങ്ക	-3461
▁കിലോമീ	-3462
▁അടുത്തി	-3463
▁തമ്മില്‍	-3464
യള	-3465
നില	-3466
▁തീര	-3467
▁അന്ന	-3468
▁പ്രകടി	-3469
▁ഞായ	-3470
▁കശ്മ	-3471
▁ഇതിനെ	-3472
▁പരിചയ	-3473
▁ഇല്ലാത	-3474
▁ബൂ	-3475
▁സമർ	-3476
▁സംവിധ	-3477
▁ിട്ടും	-3478
▁48	-3479
▁തള്ളി	-3480
▁ബന്ധുക്ക	-3481
▁മീഡിയയില്‍	-3482
▁ഭി	-3483
▁മുക	-3484
▁കാലം	-3485
▁ഭരണകൂ	-3486
▁!!	-3487
▁ാന	-3488
▁വൈസ്	-3489
ത്തിനും	-3490
▁ുവെന്ന	-3491
▁തിയ	-3492
▁തിരെ	-3493
▁മൂലം	-3494
▁പക്ഷെ	-3495
▁സ്വപ്ന	-3496
▁ജസ്റ്റി	-3497
▁ഉണ്ടാകും	-3498
▁രാശിക്കാര്‍	-3499
▁2020	-3500
▁ബ്ലോ	-3501
▁ജാമ്യം	-3502
ഡു	-3503
ളാണ്	-3504
ൊക്ക	-3505
▁അഫ്	-3506
▁നീണ്ട	-3507
ത്തിനുള്ള	-3508
▁പോകുന്നത്	-3509
▁കോണ്‍ഗ്രസില്‍	-3510
▁75	-3511
▁ചൗ	-3512
▁പ്രതികരിച്ചു	-3513
▁ണ്	-3514
▁2016	-3515
െടുത്തു	-3516
▁അന്താരാഷ്ട്ര	-3517
▁ആവശ്യപ്പെട്ട്	-3518
▁കാന	-3519
▁ഇതിൽ	-3520
▁സന്ദർശ	-3521
ബല	-3522
▁ജു	-3523
ശേരി	-3524
▁ജ്യോ	-3525
▁ടൂറി	-3526
▁മരിച്ചത്	-3527
▁അധികൃതര്‍	-3528
▁ആഴ്ച	-3529
▁എത്തുന്ന	-3530
ാക്കുന്നത്	-3531
ടുന്ന	-3532
▁മിനി	-3533
▁തുടരുക	-3534
▁മേധാവി	-3535
▁വരാ	-3536
▁കൗണ്‍	-3537
▁തിങ്കള	-3538
▁മാര്‍ച്ച്	-3539
19	-3540
ില്യ	-3541
▁അപ്ര	-3542
▁കുമാർ	-3543
▁ങ്ങളിൽ	-3544
ലൈ	-3545
▁ശോഭ	-3546
▁റോബി	-3547
ികളാണ്	-3548
▁എവിടെ	-3549
▁നിലനി	-3550
ിക്കുന്നുണ്ട്	-3551
▁കൊച്ച	-3552
▁നെഗ	-3553
▁നവംബ	-3554
▁എതിരെ	-3555
▁',	-3556
▁(6	-3557
ാവശ്യ	-3558
▁പ്രി	-3559
▁സാന്നി	-3560
▁പേർക്ക്	-3561
▁ശാസ്ത്ര	-3562
ിയോടെ	-3563
ര്‍ശന	-3564
▁പത്ര	-3565
പ്രദേശ്	-3566
▁നേതാവി	-3567
ഭി	-3568
▁പരമ	-3569
ിക്കുകയായിരുന്നു	-3570
▁എയര്‍	-3571
▁വിദഗ്ധ	-3572
▁ബാധിച്ച	-3573
▁സ്വന്തമ	-3574
▁മന്ത്രിസഭ	-3575
ര്‍ട്ട്	-3576
▁മത്സ്യ	-3577
▁ഷെ	-3578
മാരും	-3579
▁ക്വാറന്റ	-3580
യായിരുന്നു	-3581
േബ	-3582
▁പീഡ	-3583
▁വയസ	-3584
ാക്കള്‍	-3585
ർമ്മ	-3586
▁സുരേന്ദ്രന്‍	-3587
▁കർണാടക	-3588
▁പ്രതികരണ	-3589
▁ചാണ്ടി	-3590
▁ലക്ഷ്യ	-3591
▁ക്കേണ്ട	-3592
▁മുതിര്‍ന്ന	-3593
▁ടൈ	-3594
▁താലി	-3595
ാക്കും	-3596
ിയുള്ള	-3597
▁മറ്റുള്ള	-3598
.5	-3599
ക്കര	-3600
▁ഡിജി	-3601
▁രീതിയ	-3602
▁പ്രകടന	-3603
▁തര്‍ക്ക	-3604
▁സിന്ധ്യ	-3605
▁നിര്‍ത്ത	-3606
▁നേതാക്കളെ	-3607
▁ക്കുകയായിരുന്നു	-3608
ക്ടോ	-3609
▁കുഴ	-3610
▁നാള	-3611
▁വെബ്	-3612
▁കാട്ട	-3613
▁ഇരുവരും	-3614
▁അടുത്തിടെ	-3615
▁ഏതെങ്കിലും	-3616
▁വക	-3617
ത്തിന	-3618
ുണ്ടെന്ന്	-3619
▁ക്കുകയും	-3620
▁മണിക്കൂറി	-3621
▁ഫ്	-3622
▁ഗ്രഹ	-3623
▁ഉടന്‍	-3624
▁പരിപാടി	-3625
ടകര	-3626
▁കോര്‍പ്പറ	-3627
നീയ	-3628
▁പരിപാട	-3629
▁ഡോക്ടര്‍	-3630
▁വനിത	-3631
▁നോക്ക	-3632
▁കണക്ക്	-3633
ീതി	-3634
▁പ്രദ	-3635
ിമ	-3636
ബിഐ	-3637
ങ്ങളോട്	-3638
▁കിടക്ക	-3639
▁വിജയന്‍	-3640
▁മാസ്	-3641
▁വടക്ക	-3642
▁വെള്ളം	-3643
▁ശരീ	-3644
▁മതിയ	-3645
▁നമ്മള്‍	-3646
▁ലോട്ടറി	-3647
യ്ക്കുന്ന	-3648
▁സ്വദേശിയായ	-3649
▁ത്തു	-3650
▁സന്തോ	-3651
▁സിനിമാ	-3652
ഞ്ചേരി	-3653
ാക്കുക	-3654
▁എൽഡിഎ	-3655
▁മാനേജ	-3656
▁ഉദ്ഘാടനം	-3657
▁ജനങ്ങളുടെ	-3658
ീത	-3659
▁പൈല	-3660
▁ജനറൽ	-3661
▁പ്രചാരണം	-3662
▁ഗെ	-3663
കൃഷ്ണ	-3664
ത്തുക്ക	-3665
▁ഭാഗത്ത്	-3666
▁തീരുമാനിച്ച	-3667
യിട	-3668
ത്രിക	-3669
രുത്തി	-3670
▁ആത്മഹത്യ	-3671
▁കണ്ടെത്തി	-3672
ഫ്ര	-3673
▁തൂ	-3674
▁ലു	-3675
ായിക	-3676
ദിത്യ	-3677
▁അവി	-3678
▁ഇതാണ്	-3679
▁സഹോദര	-3680
▁തൊഴില്‍	-3681
▁മരിച്ചു	-3682
▁നേരിടുന്ന	-3683
▁പ്രസിഡന്റ	-3684
2,	-3685
▁സര്‍ക്കാര	-3686
▁സ്വാതന്ത്ര്യ	-3687
മന	-3688
ിരിക്കുന്ന	-3689
▁തായിരുന്നു	-3690
▁ിരിക്കുന്നു	-3691
▁43	-3692
▁ആറ	-3693
ങ്ങനെയ	-3694
▁തിനും	-3695
▁ദക്ഷി	-3696
▁കാര്യമ	-3697
▁ഇല്ലാത്ത	-3698
▁ത്തിലൂടെ	-3699
▁സംവിധായക	-3700
വു	-3701
▁പിറ	-3702
▁ട്രംപ്	-3703
▁ഫോട്ടോ	-3704
പ്പിച്ചു	-3705
േക്കാള്‍	-3706
▁നിര്‍ണായക	-3707
▁നടത്തിയിരുന്നു	-3708
ംപ	-3709
▁തൃണമൂ	-3710
ാകെ	-3711
▁';	-3712
▁സ്പീക്ക	-3713
▁വരെയുള്ള	-3714
▁എല്‍ഡിഎഫ്	-3715
▁വേണു	-3716
▁ിരുന്നില്ല	-3717
▁സമുദ	-3718
▁ഏജന്‍	-3719
▁റെക്കോ	-3720
കള്‍ക്ക്	-3721
▁ചേര്‍ന്ന്	-3722
▁രജിസ്റ്റര്‍	-3723
▁നങ്ങള്‍	-3724
▁ആവശ്യമായ	-3725
▁ന്യൂഡ	-3726
▁കൃത്യമായ	-3727
ളയ	-3728
▁നശ	-3729
ന്‍ഡ	-3730
ര്‍ഡ്	-3731
▁യൂണി	-3732
▁ട്രെയി	-3733
▁ശബരിമല	-3734
▁ശാ	-3735
▁ഓഫീസ്	-3736
▁സിന്റെ	-3737
▁ത്തിനായി	-3738
ിക്കുകയാണ്	-3739
▁തിരിച്ചടിയ	-3740
▁ഓക്	-3741
ൃത്തി	-3742
▁വിപണ	-3743
ുവിന്റെ	-3744
▁തുടര്‍ന്നാണ്	-3745
ർമ	-3746
േബ്യ	-3747
▁സോണിയ	-3748
േക്കാണ്	-3749
▁കൊണ്ടുപോ	-3750
രാജ്	-3751
▁ഹൃദ	-3752
▁ഇടത്	-3753
▁കലാപ	-3754
▁അറേബ്യ	-3755
▁വര്‍ധി	-3756
ാലോചന	-3757
▁കുന്ന	-3758
ിലെത്തി	-3759
▁വ്യവസ്ഥ	-3760
▁പരസ	-3761
▁ഗതാഗ	-3762
▁എന്തി	-3763
▁ജ്യോതി	-3764
▁അഡ്വ	-3765
ാര്‍ഥി	-3766
▁സൂചിപ്പ	-3767
▁പ്രതിപക്ഷം	-3768
ടും	-3769
▁ഗ്	-3770
▁കഴി	-3771
▁അതിനെ	-3772
▁അയച്ച	-3773
▁ആശുപത്രിയിൽ	-3774
ാരായ	-3775
▁കിഴ	-3776
െടുത്തി	-3777
ുണ്ടായിരുന്ന	-3778
▁ുണ്ടായിരുന്നു	-3779
രിക്കണം	-3780
▁ഗ്രൂപ്പ	-3781
▁എഎ	-3782
▁തായ	-3783
▁അബ്ദു	-3784
▁പാര്‍ട്ടിയ	-3785
▁വന്ന്	-3786
യ്ക്കും	-3787
▁ത്തോടെ	-3788
▁പിൻ	-3789
▁ശനിയ	-3790
▁യുമാണ്	-3791
▁മുന്നോട്ട	-3792
▁അറിയിച്ചത്	-3793
▁നില്‍ക്കുന്ന	-3794
റുക	-3795
▁2022	-3796
▁തരംഗ	-3797
▁അപമാന	-3798
▁ഉത്തര്‍	-3799
▁ക്കാനും	-3800
▁മെന്നും	-3801
▁എല്‍ഡിഎഫ	-3802
▁ജില്ലകളില്‍	-3803
▁ിട്ടുണ്ടെന്നും	-3804
വ്വാ	-3805
കളാണ്	-3806
▁ബിസിനസ്	-3807
▁പ്രതിനിധ	-3808
▁കൃത്യമായി	-3809
▁നിയമനം	-3810
▁സമ്മതി	-3811
▁കെട്ടിട	-3812
▁കമ്മിറ്റ	-3813
▁വൈദ്യുതി	-3814
ിട്ടുള്ളത്	-3815
യിച്ച	-3816
▁വെടി	-3817
മന്ത്ര	-3818
▁പ്രവൃത്തി	-3819
▁ഓണ്‍ല	-3820
െടുപ്പ്	-3821
▁പരമാവധി	-3822
▁അവര്‍ക്ക്	-3823
▁മോശ	-3824
▁വേള	-3825
▁കുതി	-3826
▁താത്	-3827
▁പ്രചരണ	-3828
▁പരിക്കേറ്റ	-3829
സര	-3830
▁ദ്	-3831
പുരം	-3832
▁199	-3833
▁ആശയ	-3834
െടുത്തത്	-3835
▁സ്ഥാനത്ത്	-3836
▁മന്ത്രാലയം	-3837
ോക്	-3838
▁34	-3839
▁ചോദിച്ച	-3840
▁പോലുള്ള	-3841
▁വിളിച്ച്	-3842
▁കണ്ടെത്തിയത്	-3843
▁മുകള	-3844
▁പുറമെ	-3845
▁കുടുംബം	-3846
▁വിജയിച്ച	-3847
ംഗളൂ	-3848
▁റ്റ്	-3849
▁കാലയള	-3850
▁കെഎസ്	-3851
▁ക്കുക	-3852
്യമന്ത്രി	-3853
താവ്	-3854
▁സബ്	-3855
▁തന്നെയ	-3856
▁ഭര്‍ത്ത	-3857
ാരു	-3858
ംഗ്ല	-3859
▁ത്ര	-3860
▁ാലും	-3861
▁കാണാന്‍	-3862
തീഷ്	-3863
ൂരിൽ	-3864
▁ആരോഗ	-3865
▁ഒക്ടോ	-3866
▁നിഷേധ	-3867
▁മാനസിക	-3868
▁സുധാകരന്‍	-3869
▁തിനു	-3870
▁കേട്ട	-3871
ത്തിനിടെ	-3872
ൂട്ടി	-3873
െയര്‍	-3874
തിനായി	-3875
ര്‍മ്മ	-3876
▁വിട്ട്	-3877
ുമെല്ലാം	-3878
▁വിമര്‍ശന	-3879
ജന്യ	-3880
▁ബൈഡ	-3881
▁കുടു	-3882
▁മറിക	-3883
യുമായി	-3884
ികളില്‍	-3885
▁38	-3886
▁നഴ്	-3887
▁ഉദ്ധ	-3888
▁ഞെട്ട	-3889
▁മുന്നിൽ	-3890
▁കേരളത്തിന്റെ	-3891
▁മാര്‍ഗ	-3892
▁സ്റ്റാ	-3893
▁വാക്സിൻ	-3894
▁2018	-3895
▁ഭാഗ്യ	-3896
▁അറിഞ്ഞ	-3897
▁പാർട്ടിയ	-3898
രാശ	-3899
▁മയ	-3900
ജിത്	-3901
▁ഉപതി	-3902
▁സഖ്യം	-3903
ലിനെ	-3904
▁അനി	-3905
▁ലാഭ	-3906
▁ആളുകൾ	-3907
▁പ്രൊഫ	-3908
▁വെറും	-3909
▁രൂപയും	-3910
ധു	-3911
വാസി	-3912
▁യുപി	-3913
▁ഹാജര	-3914
▁സില്‍	-3915
ണക്കിന്	-3916
▁ഏകദേശം	-3917
▁ബേ	-3918
▁ഐപി	-3919
▁അറിയാം	-3920
▁ഉപതിരഞ്ഞെടു	-3921
ഘട്ട	-3922
▁അഫ്ഗ	-3923
▁മുഖ്യ	-3924
പിത	-3925
▁39	-3926
ളിച്ച	-3927
▁ഏറ്റുമ	-3928
▁ചേർന്ന	-3929
▁അംഗീകരിക്ക	-3930
▁തിരഞ്ഞെടുപ്പിന്	-3931
വിഡി	-3932
ലാണ്	-3933
▁ശമ്പളം	-3934
▁നേരത്തേ	-3935
▁ഇവര്‍ക്ക്	-3936
മൊരു	-3937
▁ബാന	-3938
ൾക്ക്	-3939
▁വച്ച	-3940
കുമാര്‍	-3941
▁ക്കെതിര	-3942
▁പ്രേക്ഷ	-3943
▁ഫെബ്രുവരി	-3944
▁ഇക്കാര്യത്തില്‍	-3945
▁മതി	-3946
▁ഇന്നത്തെ	-3947
▁90	-3948
ങ്കേ	-3949
▁പിന്‍വല	-3950
▁അസിസ്റ്റ	-3951
▁കുറ്റപ്പെടുത്തി	-3952
വകു	-3953
ഥമിക	-3954
▁വരുന്നു	-3955
▁മുതിർന്ന	-3956
തുവ	-3957
▁മൂന്നു	-3958
▁ഉപയോഗിച്ച	-3959
20	-3960
ന്മ	-3961
▁സുധാകര	-3962
▁ഒപ്പ	-3963
▁ഭീകര	-3964
▁നിയമന	-3965
▁സഹകരണ	-3966
▁ഭക്ഷണം	-3967
▁അവസാനിപ്പ	-3968
ിക്കുമെന്ന്	-3969
▁കവ	-3970
ക്ട്ര	-3971
▁ഭക്ഷണ	-3972
▁മെന്ന	-3973
▁സർക്കാരിന്റെ	-3974
ജ്യ	-3975
ബാധ	-3976
▁ക്കണം	-3977
▁സാമൂഹ്യ	-3978
▁പേര്‍ക്കാണ്	-3979
ഗ്ഗ	-3980
▁രമ	-3981
ശങ്ക	-3982
▁എമ്മ	-3983
▁അട്ടി	-3984
ഥ്	-3985
▁എതിര്‍	-3986
▁ശക്തമായി	-3987
▁കസ്റ്റഡിയ	-3988
ശേഖ	-3989
▁കടുവ	-3990
▁ഗെയി	-3991
▁ഒക്കെ	-3992
▁പ്രാഥമിക	-3993
▁വന്നിരുന്നു	-3994
ുകാർ	-3995
▁ട്രേ	-3996
▁ഉദ്ദേശ	-3997
▁തുറന്ന്	-3998
▁സുഹൃത്തുക്ക	-3999
▁കൂട്ടിച്ചേർത്തു	-4000
ുഴ	-4001
▁താക്ക	-4002
▁മുന്നണ	-4003
▁സോഷ്യൽ	-4004
▁ലഭിച്ചു	-4005
▁ക്കുന്നത്	-4006
▁നേതാക്കളുടെ	-4007
ാലയ	-4008
▁കുറയ	-4009
▁സമുദായ	-4010
▁ഞങ്ങളുടെ	-4011
▁ുവെന്നാണ്	-4012
▁മാതൃക	-4013
▁ഛ	-4014
ന്‍സ	-4015
▁ഭൂമ	-4016
▁സംഭ	-4017
െന്റ്	-4018
▁മുൻപ്	-4019
്യമുള്ള	-4020
ക്കാരുടെ	-4021
▁തിങ്കളാഴ്ച	-4022
▁ായി	-4023
്യൂണി	-4024
ർത്തിയ	-4025
▁പോയത്	-4026
▁യിലൂടെ	-4027
▁ടീമ	-4028
▁പാത	-4029
▁തേടി	-4030
▁നാട്	-4031
▁നടത്തും	-4032
▁സ്റ്റേഷന	-4033
▁ഭൂരിപക്ഷം	-4034
ൈവ	-4035
ൃതി	-4036
▁ശ്	-4037
▁ത്ത്	-4038
▁സംഘര്‍	-4039
രിപ്പിച്ച	-4040
▁മമ്മ	-4041
▁തീയതി	-4042
▁സൗജന്യ	-4043
▁ഉത്തരവ്	-4044
യിലുള്ള	-4045
▁ലേക്ക്	-4046
▁സുപ്രീംക	-4047
▁കൃഷി	-4048
▁ചൊവ്വാ	-4049
▁തെറ്റി	-4050
ില്ലാത്ത	-4051
▁ടെസ്റ്റ്	-4052
▁വിവരങ്ങൾ	-4053
▁അത്യ	-4054
▁ആലോച	-4055
▁കാസർ	-4056
▁സങ്ക	-4057
▁നേട്ടം	-4058
▁നായിരുന്നു	-4059
▁സംസ്ഥാനങ്ങളില്‍	-4060
ദണ്ഡ	-4061
▁2017	-4062
▁പ്രതിഫ	-4063
▁മേഖലയിലെ	-4064
▁അട്ടിമ	-4065
▁നിലയിൽ	-4066
▁ബാഗ	-4067
▁ആഗോള	-4068
▁ന്യായ	-4069
▁ബിരുദ	-4070
▁അഭിനന്ദ	-4071
▁നല്‍കാന്‍	-4072
▁നേതാക്കളും	-4073
ോളി	-4074
▁എയർ	-4075
ാന്‍സ്	-4076
▁മാനദണ്ഡ	-4077
▁അക്കൗണ്ട	-4078
▁സംഭവത്തിൽ	-4079
▁തിരിച്ചറിയ	-4080
▁മലയാളി	-4081
▁44	-4082
▁കരി	-4083
രെയും	-4084
▁സൗകര	-4085
▁സ്ഥലം	-4086
ങ്കേതിക	-4087
▁ക്കാനാണ്	-4088
▁വെളിപ്പെടുത്ത	-4089
▁സിങ്	-4090
ിക്കാനും	-4091
▁തുടക്കം	-4092
മെന്ന	-4093
ര്‍ദ്ദ	-4094
▁തോല്‍	-4095
േഷനില്‍	-4096
▁വൻ	-4097
▁കാപ്പ	-4098
▁നിയോഗ	-4099
ദന	-4100
വിനെ	-4101
▁പള്ള	-4102
▁എന്നു	-4103
▁വാങ്ങി	-4104
▁വേണുഗോപ	-4105
ത്തിനെതിരെ	-4106
ടുവില്‍	-4107
▁സാങ്കേതിക	-4108
▁പ്രധാനമന്ത്ര	-4109
▁ഉള്‍പ്പെടെയുള്ള	-4110
ാഹ	-4111
▁ഇസ്	-4112
▁അധികാരം	-4113
▁പടി	-4114
ന്‍സി	-4115
▁ക്കോ	-4116
ത്തോട്	-4117
▁സിദ്ധ	-4118
▁ഉറപ്പ്	-4119
▁മത്സരം	-4120
▁വെല്ലുവിളി	-4121
▁സാധ്യതയുണ്ട്	-4122
കരണ	-4123
സ്റ്റർ	-4124
▁വര്‍ദ്ധ	-4125
▁തിരിച്ച്	-4126
1,	-4127
വ്വേ	-4128
പ്പടെ	-4129
▁താലൂ	-4130
▁സീനിയ	-4131
▁ബാക്കി	-4132
▁ജനങ്ങളെ	-4133
▁മുന്നേറ്റ	-4134
െത്തി	-4135
▁കുവൈ	-4136
▁ക്ലാസ്	-4137
▁നിലനില്‍	-4138
▁പെട്ടെന്ന്	-4139
▁മണ്ഡലത്തിൽ	-4140
▁ഐസ	-4141
▁ഡിവ	-4142
റ്റിൽ	-4143
▁മേല്‍	-4144
▁വിഷ്ണ	-4145
▁നടപടികൾ	-4146
ൂട്ട	-4147
ൊപ്പ	-4148
▁തൃക്ക	-4149
▁പ്രകാര	-4150
▁വോട്ടര്‍	-4151
▁കൊല്ലപ്പെട്ട	-4152
സ്ഥാന്‍	-4153
▁പ്രഖ്യാപനം	-4154
▁ആഗ്രഹിക്കുന്ന	-4155
▁കളി	-4156
▁അന്തി	-4157
▁ഡല്‍ഹി	-4158
▁അധ്യാപക	-4159
▁എത്തിച്ച	-4160
▁അനുവദിച്ച	-4161
▁ഇസ്രായേ	-4162
▁തോന്നിയ	-4163
▁ഗവര്‍ണര്‍	-4164
▁ശ്രമിക്കുന്ന	-4165
▁വാര	-4166
ളുപ്പ	-4167
▁പോലീസ	-4168
▁എന്‍സി	-4169
▁ചൈനീസ്	-4170
▁കളക്ടര്‍	-4171
▁കുറിപ്പ്	-4172
ിലാ	-4173
▁46	-4174
ിക്കു	-4175
▁നന്ന	-4176
▁പുരസ്	-4177
പ്പെടും	-4178
▁പാകിസ്ത	-4179
▁രീതിയിൽ	-4180
▁പിന്നില്‍	-4181
സാദ്	-4182
▁ടീം	-4183
▁കപ്പ	-4184
▁ില്‍	-4185
ാറുണ്ട്	-4186
▁ില്ലെന്ന	-4187
▁നല്‍കിയിരുന്നു	-4188
▁അറിയിച്ചിരുന്നു	-4189
ദിന	-4190
ബാദ്	-4191
ഷണല്‍	-4192
▁ച്ചു	-4193
▁വിമത	-4194
ക്കൂട്ട	-4195
▁ചിലര്‍	-4196
▁രോഗമുക്തി	-4197
▁ഉടൻ	-4198
ിയാഴ്ച	-4199
▁പിടിയ	-4200
▁പറയാന്‍	-4201
▁ുണ്ടെന്നും	-4202
ൊരാ	-4203
▁47	-4204
▁പ്ലാ	-4205
▁യോഗി	-4206
ക്കാരെ	-4207
▁നന്ദി	-4208
▁കോടതിയെ	-4209
▁അണ	-4210
▁500	-4211
▁മാവ	-4212
▁ള്‍	-4213
ടുത്ത്	-4214
ലമെന്റ	-4215
▁എന്തെങ്കിലും	-4216
പോലെ	-4217
▁സ്നേ	-4218
▁പശ്ചിമ	-4219
▁49	-4220
▁റീ	-4221
ക്രോ	-4222
ോളജി	-4223
▁കാനഡ	-4224
▁മുഴുവൻ	-4225
ിക്കെതിരെ	-4226
ജ്ര	-4227
ഞ്ജു	-4228
▁ഐക്യ	-4229
▁ഒമ്പ	-4230
▁യുണ്ട്	-4231
▁രംഗത്ത	-4232
▁തുടര്‍ച്ച	-4233
▁ഗം	-4234
▁അധി	-4235
ക്കിൽ	-4236
റാഴ്ച	-4237
▁മാതാ	-4238
▁ബുധനാ	-4239
▁ബിജെപിയെ	-4240
▁വാഗ്ദാനം	-4241
ീയം	-4242
ാക്കണം	-4243
▁ബെംഗളൂ	-4244
▁പുതുതായി	-4245
▁ട്ടി	-4246
▁പതിന	-4247
റ്റിന്	-4248
▁പുറമേ	-4249
▁ബില്ല	-4250
രിക്കാൻ	-4251
▁വരുത്ത	-4252
▁വര്‍ക്ക	-4253
▁ഞായറാഴ്ച	-4254
▁പിടിച്ചു	-4255
▁സീറ്റില്‍	-4256
▁പ്രവര്‍ത്തനം	-4257
▁പാര്‍ട്ടിയുടെ	-4258
േമ	-4259
ളിവ	-4260
▁ജലീ	-4261
ഹാറ	-4262
▁ദൗ	-4263
▁അരു	-4264
ട്ടും	-4265
▁2023	-4266
മാക്കി	-4267
▁ബംഗാള	-4268
▁ിട്ട്	-4269
▁ജസ്റ്റിസ്	-4270
▁പഞ്ചായത്ത	-4271
▁നല്‍കുന്നത്	-4272
വാര	-4273
▁ടീമി	-4274
▁പീഡി	-4275
രിക്കുക	-4276
▁ത്തിയ	-4277
ഹം	-4278
▁ഏർ	-4279
▁ന്ന്	-4280
▁കൊള്ള	-4281
▁ചിന്ത	-4282
▁തയ്യാറായ	-4283
▁ജില്ലകളിൽ	-4284
▁നിര്‍ബന്ധ	-4285
▁സംസാരിച്ച	-4286
▁ക്കുമെന്നും	-4287
▁65	-4288
▁അസ	-4289
▁ജഡ്	-4290
▁തുല	-4291
▁അവധി	-4292
▁സ്വർണ	-4293
▁കര്‍ശന	-4294
▁ചിന്തി	-4295
▁എന്‍ഡിഎ	-4296
▁ബാധിച്ച്	-4297
▁അനുസരിച്ച്	-4298
▁രാജ്യത്തിന്റെ	-4299
▁കൺ	-4300
▁കളിലെ	-4301
വന്‍	-4302
ായ്മ	-4303
▁കാവ	-4304
▁രോഹി	-4305
▁റെഡ്	-4306
പ്റ്റംബ	-4307
▁ക്കുമെന്ന്	-4308
▁ടൂറിസം	-4309
▁പരിഗണന	-4310
▁പൗരത്വ	-4311
▁തങ്ങള്‍	-4312
▁നോട്ടീസ്	-4313
▁പ്രോസിക്യൂ	-4314
▁വെള്ളിയാഴ്ച	-4315
ക്രിയ	-4316
കോട്	-4317
▁പാസ	-4318
▁യുവാവി	-4319
▁തുറന്നു	-4320
▁അഭിപ്രായം	-4321
▁പങ്കെടുത്തു	-4322
ൻഡ്	-4323
▁വിൽ	-4324
▁താലിബ	-4325
▁വിളിച്ചു	-4326
ഷണം	-4327
ാടക	-4328
▁2.	-4329
▁ഉദ	-4330
▁ഒരേ	-4331
ങ്ങാട്	-4332
▁വായ്പ	-4333
▁ക്രിസ്	-4334
▁വ്യാപനം	-4335
▁രാശിക്കാര്‍ക്ക്	-4336
▁സേവ	-4337
രാന്‍	-4338
▁ചെയ്യുക	-4339
▁ശനിയാഴ്ച	-4340
...	-4341
▁വനം	-4342
▁കടന്നു	-4343
▁നടക്കും	-4344
▁പ്പെട്ട	-4345
▁മൗ	-4346
ർദ്ദ	-4347
▁ഡിവൈ	-4348
ര്‍ത്ഥ	-4349
▁തിനാൽ	-4350
▁ആന്റണി	-4351
▁കോണ്‍ഗ്രസ	-4352
▁ത്തിനുള്ള	-4353
▁കൊണ്ടുവന്ന	-4354
▁2024	-4355
▁അതിൽ	-4356
▁കുത്തി	-4357
▁പൊലിസ്	-4358
ഴ്സ്	-4359
▁ഭാരവാ	-4360
▁സിബിഐ	-4361
▁പഞ്ചാബ്	-4362
▁ബ്ലോക്ക്	-4363
▁ഗാന്ധിയുടെ	-4364
ംഗലം	-4365
▁അസം	-4366
▁മോശം	-4367
▁നിർദേശ	-4368
▁തലത്തില്‍	-4369
എന്‍	-4370
▁മോഡ	-4371
▁ശരീര	-4372
ഷ്യല്‍	-4373
▁പ്രകടനം	-4374
▁സ്ഥലത്ത്	-4375
▁കാണുന്നത്	-4376
്യു	-4377
▁ഫു	-4378
▁ഗൗര	-4379
കുന്ന	-4380
റ്റീവ	-4381
▁പ്രാധ	-4382
▁ഇറങ്ങിയ	-4383
in	-4384
ഗി	-4385
▁അതു	-4386
ുപോലെ	-4387
▁പച്ച	-4388
▁രാശി	-4389
ടിച്ച്	-4390
▁നടന്നു	-4391
▁ഏപ്രില്‍	-4392
▁സാഹചര്യത്തിലാണ്	-4393
▁നാടി	-4394
▁കാസര്‍ഗോഡ്	-4395
ാമറ	-4396
ഞ്ചി	-4397
▁ഏഷ്യ	-4398
▁ലൈംഗ	-4399
തിനിടെ	-4400
▁വിതരണ	-4401
▁പ്രാധാ	-4402
▁സ്ത്രീകള്‍	-4403
ഡോ	-4404
▁സംഗ	-4405
▁വേറെ	-4406
▁തർക്ക	-4407
▁ന്യൂനപക്ഷ	-4408
▁വകുപ്പിന്റെ	-4409
▁പ്രഖ്യാപിച്ചു	-4410
പാട	-4411
വരെ	-4412
▁ഫൈ	-4413
▁വെറു	-4414
ത്തിനു	-4415
▁കയറിയ	-4416
▁ജനങ്ങൾ	-4417
▁വരെയാണ്	-4418
▁നിര്‍ത്തി	-4419
▁വിമര്‍ശനം	-4420
ാവശ	-4421
പര്യ	-4422
▁റാവ	-4423
▁ഉപേക്ഷ	-4424
▁ഭക്ഷ്യ	-4425
▁വ്യവസായ	-4426
▁സമ്പര്‍ക്കം	-4427
എസ്പി	-4428
തിന്റെ	-4429
▁കളുമായി	-4430
▁തിനുള്ള	-4431
▁സൂപ്പര്‍	-4432
▁സെപ്റ്റംബ	-4433
▁ഉൾപ്പെടെയുള്ള	-4434
▁42	-4435
ക്ട്	-4436
▁അസോ	-4437
▁നിയന്ത്രണം	-4438
വേഷണ	-4439
ാമെന്ന്	-4440
▁മേഖലയിൽ	-4441
▁ട്വീറ്റ്	-4442
തിൽ	-4443
▁മല്‍സ	-4444
▁രക്ഷാ	-4445
▁വാഹനം	-4446
▁ദിവസത്തെ	-4447
▁ഇന്ത്യയിൽ	-4448
▁സംവ	-4449
▁ഹൈദ	-4450
▁ഗ്രാ	-4451
▁കേള്‍	-4452
▁വിശദീകരണം	-4453
▁കിര	-4454
▁ജോർ	-4455
▁മ്പ	-4456
▁പുരുഷ	-4457
▁കണ്ടത്	-4458
▁മടങ്ങ	-4459
▁നോക്കി	-4460
▁ഹര്‍ജി	-4461
ിട്ടുള്ള	-4462
▁മന്ത്രാലയ	-4463
▁പരിശോധനയ്ക്ക്	-4464
▁ശശി	-4465
▁ജാതി	-4466
▁വിമർശന	-4467
▁വരുമാനം	-4468
▁വ്യക്തമായ	-4469
▁സമ്മാനം	-4470
▁സര്‍വ്വ	-4471
▁മോദിയുടെ	-4472
▁ക്കുറിച്ച	-4473
▁രാഷ്ട്രീയം	-4474
▁എഫ	-4475
▁ശര	-4476
ഞ്ഞാറ	-4477
▁വൈറല	-4478
▁വില്ല	-4479
▁അഭിമാന	-4480
▁നിതീഷ്	-4481
▁ഒരുക്കിയ	-4482
▁സ്വര്‍ണം	-4483
വറ	-4484
▁മസ്	-4485
▁തിനായി	-4486
▁എങ്കിലും	-4487
▁വ്യക്തമാക്കിയത്	-4488
▁ത്രി	-4489
▁പള്ളി	-4490
▁ബാധിത	-4491
▁സര്‍വീസ്	-4492
ീകരിക്കുന്ന	-4493
▁അഴ	-4494
▁ഓട്ട	-4495
▁തനിക്ക	-4496
▁നിൽക്ക	-4497
▁കണക്കിലെ	-4498
▁രാജസ്ഥാന	-4499
▁മണിക്കുട്ട	-4500
ാവകാശ	-4501
ീറ്റ്	-4502
▁കുടി	-4503
▁പൂർണ	-4504
▁അതാണ്	-4505
▁കുത്ത	-4506
▁മകന്‍	-4507
▁സിദ്ദ	-4508
▁അസോസിയ	-4509
▁ഇത്തരമൊരു	-4510
▁കാര്യമാണ്	-4511
▁ബാധിച്ചത്	-4512
▁ചര്‍ച്ചകള്‍	-4513
ർശന	-4514
ുവിനെ	-4515
▁കക്ഷ	-4516
▁പൊളി	-4517
കാര്യം	-4518
പ്പിനെ	-4519
▁മുദ്ര	-4520
▁വാക്സിന	-4521
ഥു	-4522
▁ഗൂഢ	-4523
▁ഗോവ	-4524
ലുകള്‍	-4525
▁ക്രൂര	-4526
▁തോടെയാണ്	-4527
▁ഇപ്പോഴത്തെ	-4528
▁രണ്ടാമത്തെ	-4529
▁തിരഞ്ഞെടുക്ക	-4530
▁അയ്യ	-4531
പരമായി	-4532
▁കുടിയ	-4533
▁ആക്ഷേപ	-4534
▁പഞ്ചാബ	-4535
▁പൊട്ടി	-4536
▁കമ്മീഷന്‍	-4537
▁ക്കുകയാണ്	-4538
▁അന്തിമ	-4539
▁ദിവസവും	-4540
▁നോക്കിയ	-4541
▁ആദ്യത്തെ	-4542
ാസി	-4543
▁നൗ	-4544
▁വു	-4545
▁ിനെ	-4546
ക്കാലിക	-4547
മാണെന്ന്	-4548
▁ഹൈക്കോട	-4549
▁അവതരിപ്പ	-4550
▁ക്യാപ്റ്റ	-4551
▁തിക	-4552
▁ബോർ	-4553
▁കച്ച	-4554
▁ഫിറോസ്	-4555
▁ലൈംഗിക	-4556
▁രാജ്യസഭ	-4557
▁അവര	-4558
▁പാറ	-4559
▁ഭേദഗതി	-4560
▁അല്ലെങ്കില്‍	-4561
▁പൂജ	-4562
ബാധിത	-4563
ര്‍ജി	-4564
▁അങ്ങ	-4565
▁ഡൽഹി	-4566
▁യേയും	-4567
▁എളുപ്പ	-4568
▁ക്രിക്ക	-4569
െടുക്കുന്ന	-4570
▁കര്‍ഷകര്‍	-4571
▁അമേരിക്കന്‍	-4572
▁ചിത്രങ്ങള്‍	-4573
▁നിരീക്ഷണത്തില	-4574
▁തടസ്സ	-4575
▁അതുപോലെ	-4576
▁ക്രിമിന	-4577
▁മണിയോടെ	-4578
▁മറുപടിയ	-4579
▁തരത്തിലുള്ള	-4580
▁സര്‍ക്കാരിന്	-4581
▁പാര്‍ട്ടിയില്‍	-4582
0),	-4583
റാം	-4584
▁ആള്‍	-4585
▁ന്നു	-4586
▁ഇതിനായി	-4587
▁ഉന്നയിച്ച	-4588
ുമായും	-4589
▁എനിക്ക	-4590
▁താല്‍പര	-4591
▁മണിക്ക്	-4592
▁ക്കണമെന്നും	-4593
▁41	-4594
ന്ദ്	-4595
തായും	-4596
▁ആയുധ	-4597
▁കത്തി	-4598
▁തൃശ്ശ	-4599
ില്ലെന്ന	-4600
▁പദ്ധതിയ	-4601
▁സമാനമായ	-4602
▁ത്തിൻ്റെ	-4603
▁അസിസ്റ്റന്റ്	-4604
.30	-4605
▁അബു	-4606
▁ആരോ	-4607
▁തൊഴിൽ	-4608
▁ഭരണഘടന	-4609
▁ഇലക്ട്ര	-4610
▁57	-4611
▁എഐ	-4612
▁ഗവർ	-4613
▁പദവ	-4614
ക്കടത്ത്	-4615
▁വലിയൊരു	-4616
▁ബസ	-4617
▁അറി	-4618
▁യുപ	-4619
▁വൈകീ	-4620
▁മാരുടെ	-4621
▁ആര്‍എസ്	-4622
▁നടത്താന്‍	-4623
കളിലും	-4624
▁വിശേഷ	-4625
ാലിറ്റി	-4626
▁വ്യാപന	-4627
▁നല്‍കും	-4628
▁മോഹന്‍ല	-4629
▁കരുതുന്നത്	-4630
▁ഇന്ധ	-4631
ക്ഷന്‍	-4632
▁പരസ്യ	-4633
▁നിയന്ത്	-4634
▁കൈകാര്യം	-4635
▁വേണ്ടിയാണ്	-4636
തവും	-4637
▁യാഥ	-4638
ാക്കര	-4639
ുണ്ടാ	-4640
പ്പിച്ചത്	-4641
▁സര്‍ട്ടിഫ	-4642
▁a	-4643
ങ്കി	-4644
▁ച്ച്	-4645
▁ത്തും	-4646
▁ശിവസേന	-4647
▁ക്കെതിരായ	-4648
ുപേ	-4649
▁54	-4650
▁സൗദ	-4651
ൊന്ന്	-4652
▁മൊത്തം	-4653
▁പുരുഷന്‍	-4654
▁അപ്രതീക്ഷ	-4655
▁3,	-4656
▁ഫോൺ	-4657
▁ദുരി	-4658
▁മാലി	-4659
▁കമല്‍	-4660
▁പരിശോധനാ	-4661
▁ധനമന്ത്രി	-4662
മുളള	-4663
ക്ഷോഭ	-4664
റ്റിക്	-4665
ാകില്ല	-4666
തിനാല്‍	-4667
ുമൊക്കെ	-4668
▁അവർക്ക്	-4669
▁താണെന്ന്	-4670
▁56	-4671
നിധി	-4672
▁പാവ	-4673
▁ഭാവ	-4674
ശാന്ത്	-4675
▁നൽകിയത്	-4676
▁ബാലചന്ദ്ര	-4677
▁കേന്ദ്രസർക്ക	-4678
പറ	-4679
▁58	-4680
▁കെസി	-4681
▁ടാസ്	-4682
▁ശമ്പള	-4683
▁സീറ്റുകള	-4684
▁ഡെപ	-4685
▁താൽ	-4686
▁സാധന	-4687
▁ക്ലാസ	-4688
▁സെക്ക	-4689
▁മണിക്കൂറ	-4690
▁പരിശോധിച്ച	-4691
▁താമസിക്കുന്ന	-4692
ാരിക	-4693
▁അതിന	-4694
▁ഭാരത്	-4695
മാക്കിയ	-4696
▁പ്രതികരിച്ചത്	-4697
ണർ	-4698
്	-4699
▁	-4700
ി	-4701
ന	-4702
ക	-4703
ത	-4704
ു	-4705
ാ	-4706
ര	-4707
യ	-4708
ട	-4709
പ	-4710
ല	-4711
െ	-4712
മ	-4713
വ	-4714
ം	-4715
സ	-4716
‍	-4717
റ	-4718
ണ	-4719
ച	-4720
ള	-4721
.	-4722
ോ	-4723
േ	-4724
ങ	-4725
ദ	-4726
അ	-4727
ീ	-4728
എ	-4729
ഷ	-4730
ശ	-4731
ജ	-4732
ഗ	-4733
ഞ	-4734
ൂ	-4735
ർ	-4736
ധ	-4737
ഇ	-4738
ബ	-4739
ൽ	-4740
ആ	-4741
,	-4742
ഡ	-4743
ഹ	-4744
ഭ	-4745
ൊ	-4746
ഴ	-4747
ഥ	-4748
ഉ	-4749
ൻ	-4750
ൾ	-4751
ഒ	-4752
ഫ	-4753
0	-4754
ൈ	-4755
1	-4756
2	-4757
ഖ	-4758
ൃ	-4759
5	-4760
3	-4761
4	-4762
ഈ	-4763
ഏ	-4764
ഘ	-4765
-	-4766
9	-4767
ഓ	-4768
6	-4769
7	-4770
ൗ	-4771
8	-4772
:	-4773
)	-4774
(	-4775
ൺ	-4776
ഐ	-4777
'	-4778
;	-4779
?	-4780
ഠ	-4781
"	-4782
!	-4783
/	-4784
a	-4785
e	-4786
ഛ	-4787
i	-4788
n	-4789
o	-4790
ഔ	-4791
t	-4792
r	-4793
s	-4794
ഊ	-4795
ഢ	-4796
l	-4797
w	-4798
c	-4799
%	-4800
m	-4801
ൌ	-4802
d	-4803
ഃ	-4804
h	-4805
A	-4806
I	-4807
g	-4808
p	-4809
S	-4810
u	-4811
C	-4812
P	-4813
v	-4814
k	-4815
M	-4816
R	-4817
y	-4818
T	-4819
D	-4820
E	-4821
B	-4822
f	-4823
L	-4824
ഋ	-4825
b	-4826
N	-4827
F	-4828
O	-4829
V	-4830
W	-4831
K	-4832
&	-4833
G	-4834
·	-4835
#	-4836
U	-4837
H	-4838
*	-4839
ഝ	-4840
J	-4841
+	-4842
x	-4843
ൡ	-4844
@	-4845
=	-4846
]	-4847
[	-4848
∙	-4849
j	-4850
Y	-4851
X	-4852
•	-4853
_	-4854
൪	-4855
൯	-4856
️	-4857
z	-4858
q	-4859
$	-4860
ा	-4861
Q	-4862
Z	-4863
क	-4864
′	-4865
°	-4866
₹	-4867
र	-4868
े	-4869
‐	-4870
ि	-4871
्	-4872
൦	-4873
🔘	-4874
न	-4875
்	-4876
\	-4877
य	-4878
स	-4879
ब	-4880
व	-4881
⁄	-4882
❤	-4883
>	-4884
म	-4885
ൿ	-4886
⃣	-4887
▪	-4888
द	-4889
ह	-4890
ட	-4891
ഌ	-4892
👉	-4893
}	-4894
ग	-4895
♥	-4896
£	-4897
ډ	-4898
ं	-4899
ए	-4900
त	-4901
थ	-4902
प	-4903
ल	-4904
ी	-4905
❓	-4906
⬛	-4907
︎	-4908
🏻	-4909
🙏	-4910
{	-4911
ڇ	-4912
ڈ	-4913
अ	-4914
औ	-4915
ज	-4916
ट	-4917
ण	-4918
ध	-4919
भ	-4920
श	-4921
ष	-4922
ो	-4923
ौ	-4924
া	-4925
க	-4926
ப	-4927
ம	-4928
ய	-4929
ி	-4930
€	-4931
👌	-4932
👏	-4933
💎	-4934
💚	-4935
🔥	-4936
🔸	-4937
😍	-4938
😘	-4939
🚩	-4940
🤝	-4941
<	-4942
`	-4943
	-4944
¥	-4945
×	-4946
â	-4947
ñ	-4948
आ	-4949
इ	-4950
च	-4951
ठ	-4952
।	-4953
ং	-4954
ব	-4955
ল	-4956
அ	-4957
ஆ	-4958
ச	-4959
ண	-4960
த	-4961
ன	-4962
ல	-4963
வ	-4964
ீ	-4965
ு	-4966
ெ	-4967
ை	-4968
‟	-4969
◼	-4970
◾	-4971
♀	-4972
✌	-4973
✨	-4974
➡	-4975
ブ	-4976
ム	-4977
ラ	-4978
ル	-4979
ー	-4980
南	-4981
容	-4982
湘	-4983
美	-4984
	-4985
🎖	-4986
🐟	-4987
👇	-4988
🖤	-4989
🗃	-4990
😄	-4991
🙄	-4992
🤔	-4993
🤣	-4994
🤦	-4995
🥛	-4996
