[UNK]	0
[CLS]	1
[SEP]	2
[PAD]	3
[MASK]	4
!	5
"	6
#	7
$	8
%	9
&	10
'	11
(	12
)	13
*	14
+	15
,	16
-	17
.	18
/	19
0	20
1	21
2	22
3	23
4	24
5	25
6	26
7	27
8	28
9	29
:	30
;	31
<	32
=	33
>	34
?	35
@	36
[	37
\	38
]	39
_	40
`	41
a	42
b	43
c	44
d	45
e	46
f	47
g	48
h	49
i	50
j	51
k	52
l	53
m	54
n	55
o	56
p	57
q	58
r	59
s	60
t	61
u	62
v	63
w	64
x	65
y	66
z	67
{	68
}	69
	70
£	71
¥	72
°	73
·	74
×	75
â	76
ñ	77
ڇ	78
ڈ	79
ډ	80
ं	81
अ	82
आ	83
इ	84
ए	85
औ	86
क	87
ग	88
च	89
ज	90
ट	91
ठ	92
ण	93
त	94
थ	95
द	96
ध	97
न	98
प	99
ब	100
भ	101
म	102
य	103
र	104
ल	105
व	106
श	107
ष	108
स	109
ह	110
ा	111
ि	112
ी	113
े	114
ो	115
ौ	116
्	117
।	118
ং	119
ব	120
ল	121
া	122
அ	123
ஆ	124
க	125
ச	126
ட	127
ண	128
த	129
ன	130
ப	131
ம	132
ய	133
ல	134
வ	135
ி	136
ீ	137
ு	138
ெ	139
ை	140
்	141
ം	142
ഃ	143
അ	144
ആ	145
ഇ	146
ഈ	147
ഉ	148
ഊ	149
ഋ	150
ഌ	151
എ	152
ഏ	153
ഐ	154
ഒ	155
ഓ	156
ഔ	157
ക	158
ഖ	159
ഗ	160
ഘ	161
ങ	162
ച	163
ഛ	164
ജ	165
ഝ	166
ഞ	167
ട	168
ഠ	169
ഡ	170
ഢ	171
ണ	172
ത	173
ഥ	174
ദ	175
ധ	176
ന	177
പ	178
ഫ	179
ബ	180
ഭ	181
മ	182
യ	183
ര	184
റ	185
ല	186
ള	187
ഴ	188
വ	189
ശ	190
ഷ	191
സ	192
ഹ	193
ാ	194
ി	195
ീ	196
ു	197
ൂ	198
ൃ	199
െ	200
േ	201
ൈ	202
ൊ	203
ോ	204
ൌ	205
്	206
ൗ	207
ൡ	208
൦	209
൪	210
൯	211
ൺ	212
ൻ	213
ർ	214
ൽ	215
ൾ	216
ൿ	217
‌	218
‍	219
‐	220
‟	221
•	222
′	223
⁄	224
€	225
₹	226
⃣	227
∙	228
▪	229
◼	230
◾	231
♀	232
♥	233
✌	234
✨	235
❓	236
❤	237
➡	238
⬛	239
ブ	240
ム	241
ラ	242
ル	243
ー	244
南	245
容	246
湘	247
美	248
	249
︎	250
️	251
🌹	252
🎖	253
🏻	254
🐟	255
👇	256
👉	257
👌	258
👏	259
💎	260
💚	261
🔘	262
🔥	263
🔸	264
🖤	265
🗃	266
😄	267
😍	268
😘	269
🙄	270
🙏	271
🚩	272
🤔	273
🤝	274
🤣	275
🤦	276
🥛	277
🥦	278
##4	279
##2	280
##m	281
##s	282
##ി	283
##ക	284
##്	285
##a	286
##b	287
##e	288
##ച	289
##ല	290
##ു	291
##പ	292
##l	293
##i	294
##ർ	295
##ണ	296
##ൗ	297
##ള	298
##ോ	299
##ന	300
##c	301
##ം	302
##മ	303
##o	304
##1	305
##5	306
##ൽ	307
##സ	308
##യ	309
##r	310
##ഭ	311
##ത	312
##ര	313
##t	314
##h	315
##െ	316
##ാ	317
##ൻ	318
##ഷ	319
##ീ	320
##k	321
##v	322
##ഘ	323
##ട	324
##വ	325
##g	326
##റ	327
##േ	328
##w	329
##ൊ	330
##d	331
##9	332
##7	333
##ബ	334
##ധ	335
##ശ	336
##0	337
##ദ	338
##x	339
##ഫ	340
##എ	341
##ങ	342
##ൾ	343
##ഹ	344
##8	345
##ഥ	346
##y	347
##q	348
##u	349
##p	350
##"	351
##-	352
##ൂ	353
##ഖ	354
##ഐ	355
##ഡ	356
##3	357
##n	358
##ജ	359
##ഞ	360
##ഒ	361
##ഉ	362
##ഴ	363
##ൺ	364
##ഗ	365
##6	366
##f	367
##ண	368
##അ	369
##‍	370
##ൌ	371
##‌	372
##ഊ	373
##ൈ	374
##ப	375
##ഌ	376
##ആ	377
##ज	378
##ल	379
##ഇ	380
##ൃ	381
##म	382
##j	383
##ഠ	384
##ഢ	385
##,	386
##;	387
##'	388
##ഝ	389
##ौ	390
##र	391
##ഈ	392
##🏻	393
##.	394
##ഃ	395
##൯	396
##)	397
##?	398
##ഋ	399
##!	400
##ि	401
##ए	402
##े	403
##👌	404
##प	405
##न	406
##z	407
##ഓ	408
##ñ	409
##ा	410
##ட	411
##′	412
##南	413
##美	414
##容	415
##ഛ	416
##൪	417
##य	418
##>	419
##:	420
##ण	421
##ー	422
##ム	423
##ブ	424
##ラ	425
##ठ	426
##ब	427
##🤝	428
##व	429
##श	430
##💎	431
##😍	432
##स	433
##थ	434
##ह	435
##भ	436
##ഏ	437
##त	438
##द	439
##ं	440
##[	441
##_	442
##ൡ	443
##$	444
##த	445
##क	446
##🐟	447
##😘	448
##ന്	449
##്ക	450
##ന്ന	451
##്ത	452
##്ട	453
ക്ക	454
##്ര	455
ത്ത	456
##ില	457
##്ച	458
##ക്ക	459
##്പ	460
##്യ	461
ുന്ന	462
##ണ്	463
ും	464
##ല്	465
##ര്	466
##്റ	467
##ും	468
##ത്ത	469
##്ങ	470
##യി	471
പ്പ	472
##ണ്ട	473
##ട്ട	474
മാ	475
ച്ച	476
ന്	477
##ടെ	478
##ിന	479
##ള്	480
ങ്ങ	481
നി	482
വി	483
ുക	484
പ്ര	485
ില	486
##സ്	487
##ാര	488
ത്	489
##തി	490
##ച്ച	491
##ല്ല	492
##രു	493
ുന്നു	494
##റ്റ	495
##ക്	496
മു	497
യു	498
ാണ്	499
െന്ന	500
##ിയ	501
യാ	502
##ള്ള	503
##രി	504
യില	505
ിക്ക	506
തി	507
##ഞ്	508
്ര	509
ാന	510
##മാ	511
സ്	512
##െട	513
ങ്ങള	514
##പ്പ	515
##റെ	516
##ത്ര	517
ത്തില	518
ര്	519
എന്ന	520
ിയ	521
്യ	522
യി	523
##ക്ഷ	524
ിന	525
##ഞ്ഞ	526
സം	527
ചെ	528
ട്ട	529
രാ	530
കോ	531
##ത്	532
പറ	533
ക്ക്	534
കു	535
ിര	536
നട	537
ുള്ള	538
ത്തിന	539
##ങ്ങ	540
##യിര	541
്ട	542
##വി	543
ിച്ച	544
നേ	545
കള	546
പോ	547
പ്പെട	548
ുണ്ട	549
##ദേ	550
ില്ല	551
കേ	552
ചെയ	553
ന്ന	554
##്ല	555
ുന്നത	556
##ടി	557
ദ്	558
ിൽ	559
യും	560
റ്റ	561
##ാണ	562
പി	563
ന്ത	564
സി	565
ിട്ട	566
ത്തി	567
വര	568
വാ	569
##ാന	570
യുടെ	571
ിന്	572
പാ	573
##്മ	574
##ങ്ക	575
ടു	576
കൊ	577
സമ	578
##ോഗ	579
സാ	580
്റെ	581
നിന്ന	582
ുമ	583
##ിക	584
പേ	585
സ്വ	586
്ത്ര	587
##്യാ	588
രി	589
ഗ്ര	590
ഒരു	591
താ	592
തു	593
പറഞ്ഞ	594
ുണ്ട്	595
ാന്	596
ുകള	597
##റി	598
വെ	599
പു	600
മന	601
യെ	602
ില്	603
നാ	604
കാര	605
േക്ക	606
ണ്ട	607
ുകയ	608
ബി	609
##സ്ഥ	610
്ത്രി	611
ത്തെ	612
##ന്ന്	613
കാ	614
ന്ദ	615
ായ	616
ുടെ	617
##രെ	618
അത	619
ക്കാര	620
യാണ്	621
##ക്ത	622
ക്	623
##ഭി	624
രാജ	625
ിക	626
തിന	627
##താ	628
##ിവ	629
##രണ	630
##രാ	631
##ീസ	632
ദ്ദേ	633
##ംഗ	634
അവ	635
ന്ദ്ര	636
കൂ	637
തെ	638
##ട്	639
##ധി	640
റി	641
രു	642
ിന്റെ	643
ുറ	644
##ണി	645
ചെയ്ത	646
##ന്നെ	647
ാല	648
ായി	649
ായിര	650
യിൽ	651
ടുത്ത	652
##ന്ത	653
നടത്ത	654
തന്നെ	655
ചെയ്യ	656
കെ	657
സ്ഥ	658
##ില്ല	659
തീ	660
വീ	661
പ്പോ	662
േക്ക്	663
മാണ്	664
##ുക	665
ത്തിൽ	666
ഇത	667
പറയ	668
യില്	669
##പി	670
തുട	671
വും	672
##ളി	673
##്റ്റ	674
##മ്മ	675
##നി	676
യ്ക	677
യ്ക്ക	678
ഴി	679
##രം	680
നില	681
ാൻ	682
ണ്	683
നിയ	684
##ധ്യ	685
പോല	686
രോഗ	687
സ്റ്റ	688
എം	689
ങ്ങൾ	690
ടി	691
വേ	692
ദ്ദേഹ	693
ുമാ	694
##െടു	695
ാല്	696
തിര	697
നല്	698
സംസ്ഥ	699
േണ്ട	700
മെ	701
##ദ്യ	702
##്രമ	703
##കര	704
##ന്ധ	705
ത്ത്	706
##രള	707
മുഖ	708
##സി	709
ബാ	710
െങ്ക	711
ട്ടി	712
ുകയാണ	713
ഞെടു	714
##ന്റ	715
ുത്ത	716
രൂ	717
ക്കാ	718
കോണ്	719
ക്ഷ	720
##ുമ	721
സര്	722
ത്ര	723
ഉണ്ട	724
##ശ്യ	725
കാര്യ	726
##േഷ	727
##ായ	728
ഴിഞ്ഞ	729
##േശ	730
ന്ത്യ	731
ജന	732
ഡി	733
ക്കും	734
മ്പ	735
##വര	736
്യക്ത	737
##വാ	738
ഭാ	739
മേ	740
കേരള	741
രണ്ട	742
്പ	743
##ജെ	744
##ിര	745
ാവ	746
നേതാ	747
ിനെ	748
##ടു	749
്രതി	750
##ില്	751
ബിജെ	752
ബിജെപ	753
ിപ്പ	754
##ല്ലാ	755
ാക്ക	756
##കരി	757
്ഥ	758
പൊ	759
മായ	760
സു	761
ല്ല	762
പക്ഷ	763
വല	764
തോ	765
ഗ്രസ്	766
ള്	767
##ദി	768
തിരഞ്	769
രൂപ	770
##ഡി	771
##മ്പ	772
അതേ	773
##ോധ	774
##ാട	775
ലോ	776
എത്ത	777
##വര്	778
കണ്ട	779
ോട	780
എസ്	781
യായിര	782
ല്	783
യിലെ	784
ദിവ	785
വര്	786
സംഘ	787
പ്പ്	788
യോ	789
ിന്ന	790
വർ	791
മ്മ	792
##വിഡ	793
സീ	794
ലഭി	795
ദ്ധ	796
ാണ	797
നിര്	798
രാജ്യ	799
##ഷ്ട	800
##ട്ടി	801
ക്കള	802
വൈ	803
വന്ന	804
ദിവസ	805
ബന്ധ	806
##്വ	807
ശേഷ	808
ുകയും	809
നിര	810
##സമ	811
##ര്യ	812
ഇട	813
##മാന	814
##ണ്ണ	815
വിജ	816
മുന്ന	817
നിയമ	818
ുകൾ	819
ട്ര	820
##ദ്	821
ാത്ത	822
ആവ	823
യം	824
െതി	825
കൾ	826
ലക്ഷ	827
ജില്ല	828
അതേസമ	829
മുഖ്യ	830
ശി	831
##ോട്ട	832
##ീയ	833
സ്വദേ	834
പേര്	835
ദേശ	836
ുറത്ത	837
അന	838
ആവശ്യ	839
ിലും	840
##തെ	841
##ലി	842
ത്വ	843
ന്റ	844
##രോ	845
സർ	846
മറ്റ	847
ീകരി	848
തെന്ന	849
ജോ	850
പരി	851
ുട	852
ജീ	853
##്യാപ	854
സഭ	855
എന്	856
ആശ	857
ഞ്	858
##പടി	859
##ഴി	860
##ഞ്ച	861
റിപ്പ	862
പൂ	863
##ായി	864
ംബ	865
ലി	866
എന്ന്	867
ാം	868
##യും	869
ടുക്ക	870
ോര്	871
ണമ	872
ജി	873
െത്ത	874
ഇത്	875
##ുടെ	876
വലിയ	877
എല്ലാ	878
പേര	879
സഹ	880
നൽ	881
പാര്	882
ോടതി	883
യോഗ	884
ഞ്ച	885
##രുമ	886
പോലീസ	887
ചോ	888
##മി	889
കാണ	890
സംഭ	891
ഉപ	892
െതിരെ	893
ാർ	894
പരാ	895
ങ്ക	896
##ത്യ	897
ണം	898
ചി	899
ക്കി	900
തിരു	901
നൽക	902
യാണ	903
നീ	904
ോട്ട	905
ഉണ്ടാ	906
അറി	907
അറിയി	908
യുള്ള	909
##ണം	910
മായി	911
അറ	912
##തു	913
##ഷ്	914
്രവര്	915
##തല	916
മാത്ര	917
##ാല	918
ന്ന്	919
ംഗ	920
രീ	921
ുകള്	922
ച്ച്	923
തിരി	924
സീറ്റ	925
ിട	926
മി	927
ഭാഗ	928
ക്കു	929
ഗ്രസ	930
ധിക	931
##ദേശ	932
ന്നാ	933
മോ	934
ചേ	935
ണ്ട്	936
##യാ	937
പെ	938
##ുകള	939
വരെ	940
്റ്റ	941
വിശ	942
യിര	943
ികള	944
ൂടു	945
ഏറ്റ	946
ങ്ങന	947
ച്ചു	948
##ിനി	949
വില	950
##വേ	951
ുമായി	952
ശക്ത	953
അഭി	954
##ടന	955
പ്പോള	956
അനു	957
##വർ	958
ങ്ങനെ	959
്വ	960
##ോട	961
റെ	962
പിടി	963
േണ്ടി	964
രിശ	965
തിരുവ	966
ോള	967
തീരുമ	968
യൂ	969
വയ	970
ത്രി	971
അത്	972
ാതെ	973
രിശോധ	974
വോട്ട	975
ടക്ക	976
ാഗ	977
സ്ഥാന	978
പങ്ക	979
അന്	980
്പോ	981
##ാണ്	982
കി	983
ിത	984
ള്ള	985
നടപടി	986
ത്തന	987
ക്രമ	988
ിലെ	989
##ിത	990
മുണ്ട	991
കൈ	992
ുര	993
ജെ	994
##ങ്ങള	995
##ടിയ	996
ഡോ	997
##മായ	998
##ീപ	999
മാര	1000
##ചര	1001
രാഷ്ട	1002
പോക	1003
കോൺ	1004
ശ്രമ	1005
രണ്ട്	1006
##തിയ	1007
നേത	1008
സൂ	1009
##ുപ	1010
്ട്	1011
ിൻ	1012
ഇന്ന്	1013
നേതൃ	1014
ിറ്റ	1015
ാറ്റ	1016
പുതിയ	1017
നേര	1018
ശേഷം	1019
ഞ്ഞ	1020
ത്ഥ	1021
വെന്ന	1022
നന്ത	1023
സമയ	1024
അന്വേ	1025
ക്ര	1026
ിച്ച്	1027
##ഴ്	1028
##യില	1029
തൊ	1030
നടക്ക	1031
പല	1032
ൊരു	1033
##ക്ക്	1034
നിർ	1035
ഞാ	1036
ഓഫ	1037
ആര്	1038
സാഹ	1039
##ുംബ	1040
കള്	1041
ആശുപ	1042
കിയ	1043
ഭരണ	1044
്ഥിര	1045
പര	1046
മുത	1047
നടന്ന	1048
ക്കാർ	1049
ആണ്	1050
കുപ്പ	1051
ുള്ളത	1052
കാല	1053
വെച്ച	1054
മണി	1055
നു	1056
വിഷ	1057
ാത്ര	1058
ആരോ	1059
രോഗ്യ	1060
മണ്	1061
യായ	1062
്രീയ	1063
താണ്	1064
##വിധ	1065
നേതാവ	1066
്ല	1067
ങ്ങള്	1068
സെ	1069
കളില	1070
വിജയ	1071
ഏറ്റവ	1072
ആദ്യ	1073
കുറി	1074
തല	1075
ുവ	1076
ഷണ	1077
ിംഗ	1078
##ീകര	1079
##വിടെ	1080
കണ്ണ	1081
ശത	1082
സൗ	1083
ാധ	1084
കൂടി	1085
##വണ	1086
കൂട്ട	1087
ഖ്യാപ	1088
##പാട	1089
പുരം	1090
സംഭവ	1091
ിദ	1092
##ൈന	1093
ചില	1094
##പ്	1095
ക്കിയ	1096
മണ്ഡ	1097
##ദ്ധ	1098
##ഷ്യ	1099
പ്രവർ	1100
##സരി	1101
##സര	1102
തിക	1103
ണി	1104
##ോട്	1105
പാർ	1106
കൊവിഡ	1107
റ്റ്	1108
ീഡ	1109
മേഖ	1110
കേസ	1111
##ത്തര	1112
വിഭ	1113
മാറ്റ	1114
പ്രസ	1115
മേഖല	1116
കണ്ടെ	1117
മണ്ഡല	1118
##വന	1119
##ിൽ	1120
്ക	1121
മൊ	1122
വള	1123
കൃ	1124
ഷ്ട	1125
ാര	1126
സാഹചര	1127
##ക്ട	1128
ഗു	1129
യുണ്ട	1130
കോവിഡ	1131
ഴ്ച	1132
നെ	1133
ാക	1134
##ന്ദ	1135
ിപ്പി	1136
ഉയ	1137
ിദ്യാ	1138
റാ	1139
പ്പോഴ	1140
##ജി	1141
ിവ	1142
െയ	1143
മാക്ക	1144
കോടി	1145
തോടെ	1146
ചിത്ര	1147
സാധ്യ	1148
ഗോ	1149
ിനി	1150
സാധി	1151
പൊല	1152
ുണ്ടാ	1153
വരു	1154
ൂടുതല	1155
മൂ	1156
ശതമാന	1157
പൊലീസ	1158
##ാപ	1159
്സ	1160
യെന്ന	1161
ഫോ	1162
ജീവി	1163
##ഴിയ	1164
##േഖ	1165
ജ്	1166
ട്ടറി	1167
##ഹു	1168
മാസ	1169
ദ്ധതി	1170
പരാതി	1171
വിവാ	1172
തുടര്	1173
തും	1174
##രിട	1175
ില്ലാ	1176
ന്യ	1177
ഹി	1178
്രദേശ	1179
ാനി	1180
വിഭാ	1181
കട	1182
ദ്ദേശ	1183
യാത്ര	1184
ന്റെ	1185
ീഡിയ	1186
വരുടെ	1187
ത്യ	1188
വു	1189
രാഹു	1190
ാര്യ	1191
െത്തി	1192
വിഭാഗ	1193
##തിന്	1194
##ശ്	1195
ന്നാൽ	1196
##ത്ഥ	1197
നേരിട	1198
റോ	1199
##ിലെ	1200
##മാര	1201
നിങ്ങ	1202
ഉറ	1203
വഴി	1204
്യൂ	1205
തായി	1206
ആള	1207
കഴിയ	1208
തൃ	1209
##ാരണ	1210
ുട്ടി	1211
്ടു	1212
പ്പില	1213
ണ്ണ	1214
ഹാ	1215
ശ്ര	1216
കര്	1217
ുടുംബ	1218
തയ	1219
രുത്ത	1220
ജനങ്ങ	1221
വാക്	1222
രംഗ	1223
യുമാ	1224
ോർ	1225
അധ്യ	1226
ദു	1227
ഷന	1228
കണ	1229
ുള	1230
ാര്	1231
ങ്ങിയ	1232
വീട്ട	1233
ിപി	1234
മല	1235
മല്ല	1236
##വരെ	1237
നിലവ	1238
ഭൂ	1239
##യോഗ	1240
എല്	1241
മുന്	1242
ണ്ടു	1243
മുള്ള	1244
##ഷേ	1245
ൊക്ക	1246
ാധ്യ	1247
വിന	1248
മാറ	1249
ടെ	1250
##ഷേധ	1251
ശ്	1252
സേ	1253
ൂടെ	1254
##ശി	1255
##മേ	1256
##രേ	1257
േണ്ടത	1258
്വീകര	1259
റു	1260
##ഭ്യ	1261
##ക്ര	1262
ബ്	1263
ഇക്ക	1264
ന്തു	1265
ാള	1266
യേ	1267
ിസ	1268
##ഴ്ച	1269
തില	1270
താര	1271
ഹൈ	1272
കണ്ണൂ	1273
ിഡ	1274
മെന്റ	1275
ിറ	1276
പോയ	1277
ക്ഷേ	1278
ഇല്ല	1279
അംഗ	1280
നോ	1281
മില്ല	1282
ൂന്ന്	1283
ുകളില	1284
ഫല	1285
ജോലി	1286
പ്പോൾ	1287
ാലെ	1288
ലാ	1289
##മന	1290
പേക്ഷ	1291
ഉപയോഗ	1292
ിവര	1293
ഉറപ്പ	1294
##തിര	1295
െക്ര	1296
രിക്ക	1297
ാസ	1298
ചോദ്യ	1299
ത്സരി	1300
ാമ	1301
ക്കാന	1302
സിനി	1303
വിളി	1304
ോർട്ട	1305
ആയിര	1306
മത്	1307
കുറ	1308
##ഗ്	1309
##ഹന	1310
ാന്ധ	1311
സിനിമ	1312
ഭാര	1313
ധാന	1314
രോഗം	1315
വാര്	1316
രക്ഷ	1317
എണ്ണ	1318
ളുടെ	1319
ഉള്ള	1320
ാൽ	1321
ബ്ര	1322
മരണ	1323
##ിതി	1324
ഓഫീസ	1325
റിയ	1326
നും	1327
പ്പു	1328
##സാന	1329
വാദ	1330
തൊഴ	1331
കോഴ	1332
ൊക്കെ	1333
ഉള്	1334
##ക്ഷണ	1335
അഞ്ച	1336
ചിക	1337
യ്	1338
മഹ	1339
പോലും	1340
ന്തുണ	1341
##സ്സ	1342
ോദി	1343
ാധ്യമ	1344
യർ	1345
കര	1346
ഫ്	1347
തയ്യാ	1348
റ്റി	1349
ാനാ	1350
ശ്രീ	1351
##ധാന	1352
ഒന്ന	1353
##എം	1354
്രധാന	1355
ംബന്ധ	1356
അറിയ	1357
എത്തി	1358
ധാനമന	1359
വിട	1360
വിഷയ	1361
പ്രായ	1362
നായ	1363
ഇവിടെ	1364
്ത്രീ	1365
സ്ത	1366
ത്തോട	1367
നീക്ക	1368
നഗ	1369
അവര്	1370
രാഹുല	1371
##കള	1372
ുകാര	1373
##ാമ	1374
മായിര	1375
വ്യാപ	1376
##കട	1377
ചര്	1378
വിമ	1379
ത്യേ	1380
ശ്രമി	1381
ജീവിത	1382
യ്യ	1383
മരി	1384
ചികിത	1385
##ീഷ	1386
ക്കൂ	1387
തുടര	1388
ാറ	1389
യുഡി	1390
സാമ്പ	1391
യുഡിഎ	1392
ലൈ	1393
ലോക	1394
െല്ലാ	1395
തിഷേധ	1396
നമ്മ	1397
പങ്കെ	1398
വിശ്വ	1399
മുതല്	1400
കമ്മ	1401
ശന	1402
ന്ത്ര	1403
തന്	1404
കണക്ക	1405
ുധ	1406
സഭാ	1407
ത്യേക	1408
വരും	1409
##രുത	1410
കുറ്റ	1411
ദ്ദ	1412
്ത	1413
വിമാന	1414
പൊതു	1415
യായി	1416
പൂര്	1417
തീക്ഷ	1418
ആർ	1419
ിംഗ്	1420
ുളള	1421
വുമ	1422
പഞ്ച	1423
ത്തു	1424
ചോദി	1425
കോഴിക	1426
വാങ്ങ	1427
ലു	1428
ൊപ്പ	1429
ഇതിന	1430
െടെ	1431
##േജ	1432
##ൂഹ	1433
ന്തര	1434
ഉദ്യ	1435
ശക്തമ	1436
10	1437
ോട്	1438
ആരം	1439
സംഘടന	1440
##വിട	1441
##കാ	1442
വെള്ള	1443
നില്	1444
എന്ത	1445
തുവരെ	1446
ധികാര	1447
മറ്റ്	1448
ആരംഭി	1449
ാത്രം	1450
യത്ത	1451
കാരണം	1452
സ്ഥല	1453
ുമാണ്	1454
##ഴു	1455
വീണ്ട	1456
ിത്ത	1457
##ോടെ	1458
ശാ	1459
രേഖ	1460
പ്പി	1461
മുൻ	1462
ലക്ഷം	1463
##ോഷ	1464
മുമ്പ	1465
##ശ്ച	1466
##ങ്	1467
തേ	1468
്കോട്	1469
ൊപ്പം	1470
മാണ	1471
എന്നത	1472
##സാര	1473
തന്റെ	1474
ന്നും	1475
പഞ്ചാ	1476
വച്ച	1477
ിഡന്റ	1478
ണറ	1479
ില്ലി	1480
രീതി	1481
നൽകിയ	1482
നം	1483
പേർ	1484
ഇരു	1485
ിലാ	1486
്പോള്	1487
ബോ	1488
െന്ന്	1489
എഫ	1490
ഇനി	1491
സമീപ	1492
ഇവര്	1493
ഒഴ	1494
ഒഴിവ	1495
##പണ	1496
രണ്ടാ	1497
##യ്	1498
രാശി	1499
ആര	1500
ഇതോടെ	1501
േറ്റ	1502
ഡിഎ	1503
##മാറ	1504
െട	1505
##ക്കി	1506
ിലപാട	1507
സമ്പ	1508
എൽ	1509
വിവര	1510
മീ	1511
വളരെ	1512
തര	1513
ദേശീയ	1514
ഘട്ട	1515
വർഷ	1516
ിയത്	1517
സമ്മ	1518
ഉയര്	1519
ിനിടെ	1520
##റു	1521
അപ	1522
സൂച	1523
േസ	1524
്രദ്ധ	1525
സഖ	1526
ആരോപണ	1527
##വധ	1528
ാനാണ്	1529
നിരവധ	1530
ചേര്	1531
നല്ല	1532
ത്തവണ	1533
കരുത	1534
ഭാഗമാ	1535
##ീവ	1536
ാനും	1537
തിന്	1538
മെഡി	1539
ാണി	1540
ദേ	1541
ജോസ	1542
##ത്ത്	1543
േയും	1544
വൈറ	1545
ആഗ	1546
##പാ	1547
വിവിധ	1548
ആക	1549
മത്സര	1550
##വദ	1551
്ടിര	1552
വിജയി	1553
ദി	1554
ത്തകര	1555
അല്ല	1556
അനുവദ	1557
കുട്ട	1558
ള്ളി	1559
സിന	1560
പോലെ	1561
െടു	1562
ദ്യ	1563
്രവ	1564
ഷ്	1565
പഠ	1566
കൂട	1567
തെര	1568
എഫ്	1569
ക്കുമ	1570
ബാധ	1571
ിലൂ	1572
ക്കുറ	1573
ചൂ	1574
ത്തിക	1575
തങ്ങ	1576
വ്വ	1577
ർക്ക	1578
ഞാന്	1579
കല	1580
്യം	1581
ിലൂടെ	1582
ഹൈക്ക	1583
##കാശ	1584
തക	1585
ക്രമണ	1586
മാര്	1587
ീട്	1588
ചാ	1589
സന്	1590
വിക	1591
ഉത്തര	1592
കുള	1593
ടിസ്ഥ	1594
യുഎ	1595
ല്ലാ	1596
ളി	1597
തുടർ	1598
##ണമ	1599
യുവ	1600
വാഹന	1601
ണറായി	1602
പ്പിന	1603
ക്യാ	1604
സമര	1605
ഇതിന്	1606
##ലെ	1607
നഗര	1608
മ്പനി	1609
ക്കല്	1610
ഷന്	1611
അതി	1612
തിനെ	1613
##്റെ	1614
ത്തക	1615
സംവിധ	1616
പ്രശ്	1617
##മസ	1618
തികരി	1619
ടീ	1620
യില്ല	1621
ുത്തി	1622
എൻ	1623
നാട്ട	1624
തട	1625
കേസ്	1626
എനി	1627
്രവേശ	1628
യറ	1629
മഴ	1630
ഷക	1631
ാട	1632
താണ	1633
##ൃത	1634
ഒരാ	1635
ൂട്ട	1636
്ലാ	1637
വിവാഹ	1638
്രാ	1639
ദിന	1640
രെ	1641
ലീ	1642
സഖ്യ	1643
ഷൻ	1644
മാന	1645
തിൽ	1646
ിടെ	1647
##റോ	1648
ഗ്	1649
പാല	1650
ലോക്	1651
വിശദ	1652
നാല്	1653
ചൂണ്ട	1654
പരിഹ	1655
തവണ	1656
ുകൊ	1657
കർ	1658
അവർ	1659
പുറ	1660
ടിച്ച	1661
തൊഴില	1662
ആല	1663
പ്രാ	1664
സിംഗ	1665
ണെ	1666
രീക്ഷ	1667
തെരഞ്	1668
വൈക	1669
രുടെ	1670
ാലത്ത	1671
ിപിഎം	1672
##ികള	1673
പക്ഷേ	1674
ത്താ	1675
ബാധി	1676
സഹായ	1677
ശിനി	1678
ാർത്ഥ	1679
ആരോപി	1680
ഉൾ	1681
ന്യൂ	1682
ീഡിയോ	1683
േജ	1684
ആയ	1685
രും	1686
തിര്	1687
നവ	1688
നഷ്ട	1689
വികസ	1690
അമേ	1691
റില	1692
ജീവന	1693
നടപ്പ	1694
ഴ്	1695
ഉൾപ്പ	1696
ചെന്ന	1697
വ്യാ	1698
ക്കാട	1699
വിവ	1700
വിദേശ	1701
##ഷ്ണ	1702
ിങ്	1703
ൊച്ച	1704
അഞ്ച്	1705
##റോണ	1706
ഇറ	1707
ിറ്റി	1708
ല്ലാം	1709
കൊറോണ	1710
ഷി	1711
അന്ത	1712
ഫി	1713
പ്ല	1714
വ്യ	1715
ാപ	1716
കളെ	1717
ചൈന	1718
ികച്ച	1719
മുതൽ	1720
ീക്ഷണ	1721
ച്ചെ	1722
സ്ഥാപ	1723
റുപടി	1724
ൊച്ചി	1725
സമയം	1726
ീക	1727
ോട്ടയ	1728
എന്റെ	1729
പണം	1730
കമ്മി	1731
വിവരം	1732
തനി	1733
ലെ	1734
തിനാല	1735
എസ	1736
ിമ	1737
നേട്ട	1738
ഷം	1739
എംഎ	1740
കളുടെ	1741
ാഴ്ച	1742
ഞാൻ	1743
ദുര	1744
ക്ഷേപ	1745
അമ്മ	1746
അതുക	1747
അമേരി	1748
ത്തരം	1749
്മ	1750
ിയെ	1751
രിപാട	1752
ദില	1753
മൂല	1754
ശിവ	1755
ഭാഷ	1756
യിട്ട	1757
യൂണി	1758
ഗ്രൂ	1759
ണ്ഡ	1760
റിന	1761
അതുകൊ	1762
ണെന്ന	1763
കൃഷ്ണ	1764
##ടങ്ങ	1765
##തൽ	1766
ട്ടിക	1767
ഇടപ	1768
തമ്മ	1769
ജയ	1770
ക്ട	1771
ധന	1772
##വ്	1773
ണ്ടാണ	1774
നുമ	1775
ക്കര	1776
േഷ	1777
##റേ	1778
ക്കൊ	1779
ടക്കം	1780
ാലും	1781
കാരം	1782
സംസാര	1783
വന്	1784
അയ	1785
##ണാ	1786
്യു	1787
പ്രീ	1788
ദേവ	1789
ാവിലെ	1790
ഓരോ	1791
ാലി	1792
ാര്യം	1793
അപകട	1794
മത	1795
ക്കൂറ	1796
വന	1797
ൂടുതൽ	1798
ആളുകള	1799
തികരണ	1800
സംഭവി	1801
ടിക്ക	1802
എറ	1803
സിപി	1804
്രോ	1805
ഞ്ജ	1806
കാണി	1807
എറണാ	1808
ട്ട്	1809
ഇടപെട	1810
ധി	1811
ീകരണ	1812
തൃശ	1813
ഹമ്മ	1814
്റ്റേ	1815
ഹമ്മദ	1816
ൂര്	1817
കീ	1818
കളും	1819
ത്രണ	1820
നിയന്	1821
തൃശൂ	1822
അട	1823
ഇന്	1824
ജൂ	1825
ോളേജ	1826
ക്കൾ	1827
ദിലീപ	1828
##യാള	1829
ഷ്യ	1830
വിവാദ	1831
റിഞ്ഞ	1832
ബ്ദ	1833
ഡിഎഫ	1834
ധികം	1835
അതിന	1836
ൂർ	1837
ങ്ങി	1838
നാഥ	1839
സ്വര്	1840
സാമ	1841
ഷ്ട്ര	1842
പ്പുഴ	1843
ോസ	1844
തിരെ	1845
ുപ	1846
ഒരാള	1847
ർത്ഥ	1848
കുളം	1849
െറ്റ	1850
##റിയ	1851
ആകെ	1852
തിരോധ	1853
വരി	1854
അവകാശ	1855
ത്ഥി	1856
ൂട	1857
ഗ്രാമ	1858
ുരക്ഷ	1859
ചർ	1860
റോഡ	1861
സൂചന	1862
ുറഞ്ഞ	1863
ിയിര	1864
ൊന്ന	1865
വിലയി	1866
##ള്ളി	1867
ത്തര	1868
രാമ	1869
എംഎല്	1870
20	1871
േരി	1872
ഡ്	1873
യോടെ	1874
ോണ	1875
ഞ്ചാ	1876
രിയ	1877
ചർച്ച	1878
സന്ദ	1879
പുതു	1880
ിൻ്റെ	1881
ാതിര	1882
ീയ	1883
സമിതി	1884
##ൂല	1885
നുക	1886
ളവ	1887
15	1888
നുകൂല	1889
സൈ	1890
വേണ്ട	1891
േഷ്	1892
എന്നീ	1893
ികൾ	1894
തെറ്റ	1895
മെന്ന	1896
12	1897
നേട	1898
പക്ഷം	1899
ഫേ	1900
ുറന്ന	1901
വിമര്	1902
പാലി	1903
ഫോണ	1904
രാജി	1905
കും	1906
ാഗസ്ഥ	1907
അവസര	1908
പണി	1909
ഞങ്ങ	1910
##ത്തി	1911
ഒറ്റ	1912
നാട	1913
ഫേസ്	1914
സിന്	1915
ാനത്ത	1916
ബിഗ്	1917
മനസ്സ	1918
ടുവ	1919
മക	1920
ഴു	1921
േറെ	1922
ബാങ്ക	1923
പങ്കു	1924
കൂള	1925
ലം	1926
്പോൾ	1927
##സ്ത	1928
ിയാ	1929
രിഗ	1930
നടി	1931
ചുമ	1932
വിത	1933
ചാരണ	1934
കളി	1935
വാസി	1936
ാളി	1937
പാട	1938
വുമാ	1939
ട്വ	1940
പശ്ച	1941
ഉദ്യേ	1942
എംപി	1943
സുരേ	1944
ാകും	1945
രമ	1946
ിന്ദ	1947
രിഗണി	1948
കയ	1949
ഏത	1950
ുമോ	1951
വുന്ന	1952
ധ്യ	1953
നേടിയ	1954
ക്യ	1955
ന്നയി	1956
അതിന്	1957
െയി	1958
ാത്രി	1959
ഭ്യാ	1960
്ന	1961
ുരേഷ	1962
ഭ്യാസ	1963
##തീ	1964
ധികൃത	1965
ോടെ	1966
തുക	1967
വികസന	1968
ഏറെ	1969
കാര്	1970
11	1971
വിധി	1972
പ്പം	1973
യാക്ക	1974
കൊല്ല	1975
ബംഗ	1976
നുമതി	1977
നയി	1978
െയും	1979
ുറച്ച	1980
ട്രോ	1981
ുമായ	1982
ഫേസ്ബ	1983
ചെല	1984
അവിടെ	1985
അവസാന	1986
ാവസ്ഥ	1987
നങ്ങള	1988
േഴ്	1989
്ച	1990
സേന	1991
സമൂഹ	1992
ഏക	1993
വസാന	1994
പരാജ	1995
മ്മീഷ	1996
ോക്ക്	1997
മ്പര്	1998
ാറ്റി	1999
ധാ	2000
ഒഴിവാ	2001
ത്തിയ	2002
സന്ധി	2003
ആയി	2004
ിയുടെ	2005
ശക്തി	2006
ക്ല	2007
തമി	2008
പരാജയ	2009
ണ്ടിര	2010
ൊല്ല	2011
ഇത്തര	2012
ൂടിയ	2013
താന്	2014
മീറ്റ	2015
ളെ	2016
നോക്ക	2017
ടിയ	2018
ൈല	2019
##ക്ഷി	2020
അക്ക	2021
സംഗ	2022
ടക്കമ	2023
െഡ	2024
്താ	2025
ആത്	2026
ആത്മ	2027
യുവാ	2028
ത്തല	2029
പിന്	2030
ആദ്യം	2031
ആശങ്ക	2032
ആണ	2033
സത്യ	2034
ാത	2035
മൂന്ന	2036
ീറ്റ	2037
യര്	2038
മലപ്പ	2039
പീ	2040
മുട്ട	2041
ക്രി	2042
ഇടതു	2043
ൂടിയാ	2044
വസാനി	2045
നരേ	2046
ഗവ	2047
24	2048
പൂർ	2049
മറ്റു	2050
ബാല	2051
പദ	2052
##നാട	2053
വയനാട	2054
വില്ല	2055
ാണ്ട	2056
##റ്	2057
കക്ഷി	2058
വിരു	2059
രോഗി	2060
രജി	2061
വേഗ	2062
ാപ്പ	2063
##േരി	2064
സംശ	2065
ഭാര്യ	2066
വെളി	2067
ഭൂരി	2068
സൗദി	2069
തിനാ	2070
ൈറ്റ	2071
ാരണ	2072
ിറങ്ങ	2073
ബെ	2074
ആഗ്ര	2075
തിർ	2076
പ്പറേ	2077
ചേർ	2078
ിൽക്ക	2079
ന്തം	2080
സിംഗ്	2081
ുധാ	2082
ൂടാ	2083
സംശയ	2084
രം	2085
ക്രമി	2086
ിരി	2087
##യം	2088
ലഭ്യ	2089
മുസ്	2090
ുഴ	2091
്ഥിതി	2092
ലും	2093
പ്പിൽ	2094
ഫലം	2095
ുവരി	2096
ാരാ	2097
പുന	2098
##ഭവ	2099
രോ	2100
റിയി	2101
തമിഴ്	2102
ുഞ്ഞ	2103
്റ്റാ	2104
ാങ്ക	2105
ിസ്	2106
ഇതില്	2107
തീവ	2108
കൗ	2109
ഹരി	2110
കൊണ്ട	2111
ീന	2112
ല്‍	2113
വശ്യ	2114
കിട്ട	2115
വ്	2116
ിഴ	2117
കുന്ന	2118
ൂടാതെ	2119
അസ	2120
ുറം	2121
അന്ന്	2122
ൗണ്ട	2123
ൊല്ലം	2124
നന്ദ	2125
ഫാ	2126
വൃ	2127
ുധാകര	2128
ാക്കി	2129
കുമാര	2130
കുമ	2131
ത്തരവ	2132
ഗാ	2133
ദാ	2134
മാർ	2135
റ്റീവ	2136
പ്രീം	2137
വീസ	2138
ശരി	2139
##ത്തെ	2140
ന്തോഷ	2141
ഭൂമി	2142
ീസ്	2143
ആഗ്രഹ	2144
േസില്	2145
കില	2146
ബഹ	2147
്രക	2148
പോരാ	2149
വെക്ക	2150
മുഴു	2151
ക്ത	2152
്രശ്	2153
്രശ്ന	2154
ാധാരണ	2155
ക്രൈ	2156
എക്	2157
നൂ	2158
നിറ	2159
രണ്ടു	2160
പറ്റ	2161
ുവി	2162
താഴ	2163
യൂട്ട	2164
രജിസ്	2165
ക്കോ	2166
്രൈ	2167
്ടത്	2168
ണാട	2169
കര്യ	2170
വനി	2171
ിച്ചേ	2172
ത്തനം	2173
യോട്	2174
തിട്ട	2175
വനിത	2176
ക്കുക	2177
ണാടക	2178
പേരെ	2179
##ളന	2180
വീണ	2181
ശ്വാ	2182
പേരില	2183
ാട്ട	2184
മുഴുവ	2185
ക്കം	2186
റിസ	2187
മന്ത	2188
പൗ	2189
കുമാറ	2190
അഡ	2191
ജാ	2192
യാള	2193
നാണ്	2194
്മേ	2195
കളിൽ	2196
മായും	2197
്മേളന	2198
ഭീഷ	2199
##ർശ	2200
ൂന്ന	2201
റഷ്യ	2202
തിനി	2203
്യത	2204
വ്യവ	2205
##ബു	2206
ിങ്ങ	2207
##ളിവ	2208
ഭീഷണി	2209
ഗതി	2210
ജ്ജ	2211
ുടക്ക	2212
14	2213
ങ്ങളെ	2214
തകര്	2215
ുക്കി	2216
വീത	2217
##്പി	2218
ീഷ	2219
ത്തോ	2220
ത്തേ	2221
ശ്വാസ	2222
ചെലവ	2223
ീര	2224
നുഷ്യ	2225
യുവതി	2226
ച്	2227
നമ	2228
വാക്ക	2229
ോളം	2230
ുരേഷ്	2231
ല്ലോ	2232
വ്യവസ	2233
നോട്ട	2234
തെളിവ	2235
പേരും	2236
ജയി	2237
ദൃ	2238
ശേഖ	2239
ജ്ഞ	2240
ാധാന	2241
മഹാ	2242
ംര	2243
രണ	2244
രാജ്	2245
പോരാട	2246
സൈന	2247
പോയി	2248
സ്വപ്	2249
ഡോക്ട	2250
്ഷ	2251
ല്യ	2252
##ദര	2253
ലുള്ള	2254
വിതരണ	2255
ന്ധ	2256
ഘോഷ	2257
മുക്ത	2258
ംരക്ഷ	2259
അമി	2260
ഥാ	2261
ാസ്	2262
ാളികള	2263
ംഗത്ത	2264
ൂന്നാ	2265
ഇന്ന	2266
അനുഭവ	2267
ജോസഫ	2268
ീസ	2269
ിട്ടു	2270
സുഹ	2271
ഭേ	2272
താല	2273
ിഹ	2274
ോഷ്യ	2275
ാനം	2276
രിപ്പ	2277
50	2278
അഖ	2279
ീട	2280
30	2281
ഡല്	2282
ദ്ര	2283
ബ്ല	2284
ലയാ	2285
ോഷ്യല	2286
ായക	2287
െയ്	2288
യൊ	2289
മാറി	2290
റ്റര്	2291
##ച്ച്	2292
രിത്ര	2293
തോന്ന	2294
ലയാളി	2295
ഖാ	2296
ചുമതല	2297
ൃത	2298
പ്പമ	2299
വലി	2300
ഭേദ	2301
ക്വാ	2302
ലൈന	2303
രൂക്ഷ	2304
ഉയര	2305
ക്കൽ	2306
സഹായി	2307
ചു	2308
വിമർശ	2309
തെളി	2310
തിനിധ	2311
ലഭ്യമ	2312
സജ	2313
ഓഫ്	2314
ലിം	2315
ച്ഛ	2316
ശീ	2317
ിട്ടി	2318
ാഗത	2319
അര്	2320
കീഴ	2321
ആറ്	2322
ഞങ്ങള	2323
്റ	2324
ൃഷ്ട	2325
ഉണ്ട്	2326
ആന്റ	2327
ീടുകള	2328
മുംബ	2329
യല്ല	2330
പൗര	2331
അക	2332
ാഷ	2333
പ്പന	2334
യുഎഇ	2335
സാമൂഹ	2336
ലാല	2337
യിട	2338
ർത്ത	2339
വരിക	2340
ന്നലെ	2341
യുമ	2342
ഭാവ	2343
ോട്ട്	2344
ക്ഷേത	2345
മുംബൈ	2346
ചടങ്ങ	2347
##ോദര	2348
ന്താണ	2349
ടങ്ങ	2350
കുത്ത	2351
പതി	2352
ചേര	2353
ൻഡ	2354
ിന്ദു	2355
സുഹൃ	2356
കലാ	2357
13	2358
ിറ്റ്	2359
ോല	2360
ഡൗ	2361
വിജയം	2362
ഹാജ	2363
19	2364
ഫ്ര	2365
ഗ്രഹ	2366
യർന്ന	2367
ഹ്	2368
എതിര	2369
യോഗം	2370
ആരാ	2371
ഇൻ	2372
ബു	2373
വയസ്സ	2374
കൈമാറ	2375
ോബ	2376
നുസരി	2377
ചെറിയ	2378
പരാമ	2379
ഹര്	2380
ൃത്യ	2381
ക്കെ	2382
ളള	2383
്ലാസ	2384
മകന	2385
ഗസ്ഥ	2386
ംസ	2387
ാടക	2388
ാട്ടി	2389
ർശ	2390
ന്നി	2391
കുറവ	2392
യക്ക	2393
റ്റു	2394
മാക	2395
ഗുരു	2396
ിഷ	2397
ബീ	2398
മൊഴി	2399
കം	2400
ൃത്യമ	2401
ായ്	2402
ടാ	2403
സഹോദര	2404
കണ്	2405
രക്ഷാ	2406
സില	2407
്യാ	2408
തുറ	2409
18	2410
എഴു	2411
്രാല	2412
ിസി	2413
ട്രേ	2414
ഏറ്റെ	2415
ദൃശ്യ	2416
മല്	2417
ഹോ	2418
പ്രവ	2419
കരമാ	2420
േയ	2421
േശ	2422
##ചാര	2423
ഉള്ളത	2424
കെട്ട	2425
ഉദ്യോ	2426
ബംഗാ	2427
ജയില	2428
ഗുണ	2429
സാധ	2430
ഏജ	2431
സാക്ഷ	2432
ന്നു	2433
പശ്ചാ	2434
ിക്	2435
പെണ്	2436
പഠന	2437
നയ	2438
ുസ്	2439
##മസഭ	2440
ിയമസഭ	2441
്രാലയ	2442
ൃഷ്ടി	2443
രുത്	2444
ജനറ	2445
ലിന	2446
##ബ്	2447
ീഗ്	2448
ട്ടെ	2449
ഭക്ഷണ	2450
പെരു	2451
തായും	2452
എമാര	2453
ജാമ	2454
മുറി	2455
ജാമ്യ	2456
ാദ	2457
ടീമ	2458
ചെറു	2459
ശാല	2460
ന്ദര്	2461
ംഗീകര	2462
ഷോ	2463
്മി	2464
മിഷ	2465
സൂര്യ	2466
25	2467
ജു	2468
്യോ	2469
വൈറസ്	2470
ര്യ	2471
വന്നു	2472
കോര്	2473
വയ്	2474
##ീന	2475
പോള	2476
യോഗി	2477
്രി	2478
ിക്ഷ	2479
എന്നി	2480
പര്യ	2481
ിരക്ക	2482
ഭാഗ്യ	2483
കാസ	2484
സ്ഥാ	2485
സെന്റ	2486
ിരു	2487
തട്ടി	2488
പത്ര	2489
ിബ	2490
ുക്ക	2491
െട്ടി	2492
ഹൃ	2493
്താവന	2494
പദവി	2495
ിനായി	2496
ിഫ	2497
##ലീ	2498
##രുഷ	2499
ിടക്ക	2500
ശേഖര	2501
പുറമ	2502
എസ്പി	2503
എന്നെ	2504
സഹകര	2505
േബ	2506
മുരള	2507
പുരുഷ	2508
ീവ്	2509
പീഡ	2510
മധ്യ	2511
്യത്യ	2512
പിസി	2513
ചൊ	2514
വേണമ	2515
ാവും	2516
ത്തോള	2517
ടേ	2518
ിയങ്ക	2519
തടയ	2520
ീത	2521
##ദേഹ	2522
ശ്ശ	2523
രുത	2524
ാതാ	2525
ുദ്	2526
ൃതദേഹ	2527
ൂര	2528
യാള്	2529
െയര്	2530
ചരണ	2531
രവ	2532
ുപോ	2533
കിട	2534
യറ്റ	2535
ൻസ	2536
സിസി	2537
കിലോ	2538
ഹൃദ	2539
പ്ലാ	2540
ർഗ	2541
സോ	2542
ഫെ	2543
ബാബു	2544
വാദി	2545
താല്	2546
ജനാ	2547
പ്പൂ	2548
ഹോട്ട	2549
അയച്ച	2550
##മസി	2551
താമസി	2552
ാട്	2553
##ംപ	2554
ട്രംപ	2555
എച്ച്	2556
ഞ്ചാബ	2557
ടോ	2558
ണു	2559
സഞ്ച	2560
ാതി	2561
ിവിട	2562
ുദ്ധി	2563
ബിസി	2564
ാടി	2565
ിവി	2566
റൂ	2567
വരുമ	2568
കളക്ട	2569
ിത്തല	2570
##സ്യ	2571
എന്ത്	2572
്രൈവ	2573
ഗത	2574
ൂക്ക	2575
ഇസ	2576
നിശ്ച	2577
##പാത	2578
ഭയ	2579
ൈസ്	2580
ിറക്ക	2581
ഹാജരാ	2582
ആരാധ	2583
രില	2584
ുവന്ന	2585
ജനറല്	2586
തീവ്ര	2587
ഇസ്ര	2588
സിദ്ധ	2589
ദ്യമാ	2590
ധരി	2591
ലപാത	2592
തൊട	2593
ഭാരത	2594
ളയ	2595
േര	2596
ർജ	2597
ഇതേ	2598
സജീവ	2599
ാധീന	2600
ോട്ടോ	2601
ുസ്ലീ	2602
രക്ക്	2603
ോവ	2604
ിനോട്	2605
വരികയ	2606
ിടയില	2607
െയിന	2608
സേവന	2609
വീട	2610
മലയാള	2611
വിചാര	2612
കാശ	2613
തോമ	2614
ുരത്ത	2615
ജെഡി	2616
ഇവർ	2617
സൈനിക	2618
ലപാതക	2619
മനസ	2620
പ്റ്റ	2621
ട്രാ	2622
തിനാൽ	2623
ച്ചയാ	2624
ടെക്	2625
ടമ	2626
പോവ	2627
മോശ	2628
17	2629
കഴി	2630
്പോഴ	2631
ംപ	2632
##ാരാ	2633
തീര്	2634
ുമാര്	2635
ടൂ	2636
മര	2637
ഡോസ	2638
്രകടന	2639
ആഭ്യ	2640
ഷിക	2641
ർക്കം	2642
ഡൽ	2643
മഹാരാ	2644
ഇറങ്ങ	2645
ുകളും	2646
പണ	2647
മിന	2648
നിയമന	2649
നമു	2650
ഖ്	2651
കുടി	2652
ാവധി	2653
സംഘട	2654
ഒരി	2655
വെട	2656
##ധര	2657
കേട്ട	2658
സ്വയം	2659
ശ്വര	2660
നാല	2661
പ്രവച	2662
വില്	2663
നാണ	2664
ടന്ന	2665
ിത്	2666
പരസ്യ	2667
കമ	2668
16	2669
##മാർ	2670
കുമാർ	2671
##ചയ	2672
ഹിത	2673
ലംഘ	2674
യോട	2675
വെടി	2676
ണയ	2677
അഭ്യ	2678
പരമ	2679
ഗ്ദ	2680
ാമി	2681
ിള	2682
െന്	2683
വേണ	2684
റേ	2685
വിധ	2686
അതില	2687
ചിന്ത	2688
അക്രമ	2689
40	2690
മര്	2691
തേട	2692
താഴെ	2693
എത്ര	2694
കൂടെ	2695
ിപിഐ	2696
കരം	2697
ീകര	2698
യേറ്റ	2699
ത്തിര	2700
കാരണ	2701
അവത	2702
്വാ	2703
ദുബ	2704
വ്യാജ	2705
ലക്ട	2706
നിവ	2707
തടസ	2708
##ധിക	2709
കോട	2710
പുരോ	2711
വൃത്ത	2712
പത്യ	2713
വെറ	2714
വെല്ല	2715
ജീവ	2716
ജനാധി	2717
തോമസ്	2718
യാക	2719
##ാപി	2720
്ഥാപി	2721
നിത	2722
ചീ	2723
##്രത	2724
ശാന്ത	2725
ഘാട	2726
ബന്ധു	2727
ഇന്റ	2728
ന്തമാ	2729
##സിൽ	2730
ഞ്ച്	2731
യറക്ട	2732
അമിത്	2733
രഹ	2734
ൈക്ക	2735
ഇരുവര	2736
പത്ത	2737
ിഞ്ഞ	2738
പ്രോ	2739
പറയാന	2740
ഡോള	2741
ഒഴി	2742
പ്രകട	2743
ശാസ്ത	2744
ശമ്പ	2745
േഹ	2746
കയറ	2747
ശമ്പള	2748
ുട്ട	2749
വർധ	2750
വിസ	2751
വിട്ട	2752
##മായി	2753
ടം	2754
ണക്ക	2755
്യോഗ	2756
ഗ്രാ	2757
അഖില	2758
െല്ല	2759
അവസ്ഥ	2760
മനോ	2761
യോജ	2762
ശീല	2763
ഇവ	2764
ഗമ	2765
നിയും	2766
പരിധി	2767
ോറ	2768
കൃത	2769
ഘാടന	2770
കള്ള	2771
തള്ളി	2772
പത	2773
മിട	2774
ാഗ്രത	2775
താരം	2776
ഗൗ	2777
ലുകള	2778
സതീ	2779
ുവിട	2780
ഡൗണ	2781
്ശ	2782
ിലക്ക	2783
സമര്	2784
ുടങ്ങ	2785
ാനേജ	2786
നേരെ	2787
നമ്മള	2788
ബല	2789
ിലി	2790
മുൻപ	2791
ഒര	2792
മൊരു	2793
കാഴ്ച	2794
പ്രചര	2795
വക	2796
ുല്ല	2797
പ്രിയ	2798
തിനു	2799
ിഥ	2800
നേടി	2801
ലോച	2802
ഉദ്	2803
ന്മാര	2804
രുമാന	2805
പക	2806
അവരെ	2807
ബോധ	2808
ിഎ	2809
ന്നൂ	2810
ജല	2811
സാദ	2812
ത്രയ	2813
ൂല	2814
യുമായ	2815
ന്നത	2816
ാവള	2817
യുഎസ	2818
ാണ്ടി	2819
നീതി	2820
ള്ളൂ	2821
ഉടന	2822
ുഡ	2823
രമേശ	2824
സണ	2825
ികു	2826
കപ്പ	2827
ണായ	2828
ഡിയ	2829
ടവ	2830
െല്	2831
വയസ	2832
ീധര	2833
ീറ്റ്	2834
ിനു	2835
വശ്യമ	2836
ദീപ	2837
ുക്ക്	2838
കസ്	2839
ശ്മ	2840
ൊളി	2841
വെട്ട	2842
ലീഗ	2843
രുന്ന	2844
ാരണമാ	2845
കരി	2846
ാബ	2847
ാംഗ	2848
ുല	2849
നന്തപ	2850
വാദം	2851
പഴ	2852
ശേഷി	2853
മോഹന	2854
ഗോപി	2855
ാനല	2856
ാർഡ	2857
ത്താവ	2858
ംഭ	2859
െൻ	2860
റ്റഡി	2861
വേള	2862
പരമായ	2863
പഠി	2864
ണായക	2865
ിതാ	2866
പരമാ	2867
ോക്ക	2868
മ്മന്	2869
ാളെ	2870
വിടെ	2871
്രയും	2872
മെയ്	2873
പട	2874
ശങ്ക	2875
ശനി	2876
ഉട	2877
്ലി	2878
്ഥാന	2879
െതിരാ	2880
രീര	2881
ർട്ട	2882
രവി	2883
പ്പെ	2884
ാർത്ത	2885
ഉദ	2886
സമു	2887
്ശേരി	2888
തല്ല	2889
ലപ്പ	2890
ിഐ	2891
ാലാ	2892
ാറ്റം	2893
ികുതി	2894
ുവര	2895
ഘടന	2896
ുവിളി	2897
ന്യാ	2898
നത്ത	2899
നൽകി	2900
ന്നാം	2901
ച്ചി	2902
ട്ടാ	2903
ബ്രി	2904
കന	2905
മത്തെ	2906
്ധ	2907
ായും	2908
ോണിയ	2909
നിലന	2910
ങ്കള	2911
േത	2912
ോറി	2913
ുര്	2914
ായേ	2915
ളൂ	2916
ർവ	2917
ജറ	2918
ലയ	2919
ളു	2920
റാക്ക	2921
സ്മ	2922
ശു	2923
ശോ	2924
എമ്മ	2925
ാഹ	2926
യത്	2927
ാഭ	2928
ൂക്ഷ	2929
പാത	2930
റും	2931
ോഭ	2932
സിക്ക	2933
ഹത	2934
യിലാണ	2935
നസ	2936
മുതല	2937
ണ്ടാ	2938
കേസിൽ	2939
സിപിഎ	2940
ബസ	2941
ദര	2942
സിപ്പ	2943
റിയാ	2944
ഇവരെ	2945
ശര	2946
രായ	2947
ടഞ്ഞ	2948
ഫൈ	2949
യാദ	2950
ഏഴ്	2951
ിത്യ	2952
പെട്ട	2953
ഓട	2954
ലില	2955
സഭയില	2956
രിചയ	2957
ശ്രമം	2958
ിലവ	2959
ഡെ	2960
തിയ	2961
ബാദ	2962
21	2963
ചല	2964
ദായ	2965
ലേ	2966
ക്രൂ	2967
യാത	2968
ിസം	2969
ഞെട	2970
േല്	2971
ക്ഷണ	2972
എസ്എ	2973
മാസ്	2974
ഗോഡ	2975
ട്ടു	2976
ൂപ്പ	2977
്ഥാനം	2978
ലര്	2979
െപി	2980
സിബ	2981
സിനേ	2982
ിഹാ	2983
റെയ	2984
സല	2985
ഞ്ചി	2986
ാൾ	2987
െന്റ	2988
ിക്ക്	2989
ഫിക്ക	2990
കാർ	2991
രുങ്ങ	2992
കോപ	2993
റ്റിന	2994
തസ്	2995
ബജ	2996
ക്കാല	2997
ബൈ	2998
യല	2999
വൈദ	3000
മാറിയ	3001
നിൽ	3002
പാക	3003
22	3004
പത്ത്	3005
ിം	3006
രിച്ച	3007
ോക്കി	3008
ിടത്ത	3009
വർക്ക	3010
ളര്	3011
രജ	3012
റന്റ	3013
കുതി	3014
റമ്പ	3015
ർഡ	3016
ക്ഷി	3017
യിക്ക	3018
റാം	3019
്രാന്	3020
തീര	3021
ർപ്പ	3022
പള്ളി	3023
ിഎം	3024
ഗോപാ	3025
ഴിമ	3026
്ജ	3027
അല	3028
കേസെട	3029
സംസ്	3030
താൻ	3031
ഇയാള	3032
ാമ്പ	3033
ച്ചടി	3034
കോള	3035
ക്കാള	3036
െയില്	3037
ണ്ടി	3038
ംസാര	3039
ംസാരി	3040
ഏത്	3041
ഡാ	3042
യുപി	3043
ിഷ്	3044
ുഖ	3045
സ്വത	3046
േഡ	3047
ണ്ണി	3048
##ാപന	3049
സ്വാ	3050
ീര്	3051
്യൂസ	3052
പ്പാട	3053
ട്ടേ	3054
കരണ	3055
ഥി	3056
മകള	3057
ുരു	3058
വീട്	3059
്പര്യ	3060
തേടി	3061
രില്	3062
അടിയ	3063
പമ	3064
വശ	3065
ാരി	3066
ീർ	3067
്ഥാപന	3068
മാതാ	3069
ൂത്ത	3070
ന്റ്	3071
രിൽ	3072
തൃപ്	3073
ിന്നെ	3074
േമ	3075
ദ്വ	3076
ഹെ	3077
ാജ	3078
കൊട	3079
സ്ത്ര	3080
െക്ക	3081
ിരുദ	3082
ലാപ	3083
രാള	3084
വരില്	3085
തായിര	3086
യന	3087
ശ്വ	3088
ൊടി	3089
യർത്ത	3090
ുപോലെ	3091
പാട്	3092
പ്	3093
ദേശിക	3094
സിലെ	3095
ചെയ്	3096
രിമ	3097
കടന്ന	3098
ടേയും	3099
പെട	3100
മദ്യ	3101
ഘട	3102
വധ	3103
ാകുമ	3104
ലർ	3105
െഗ	3106
ോണ്	3107
നീയ	3108
ീപ	3109
രട്ട	3110
കുറയ	3111
ഷനില	3112
ിസംബ	3113
ത്യാ	3114
രേ	3115
ബര്	3116
വറ	3117
കുഴ	3118
ഴ്സ	3119
ടച്ച	3120
ധാരണ	3121
റുക	3122
മാന്	3123
ത്മ	3124
റ്റില	3125
ഞാന	3126
വൂ	3127
ിശ	3128
്ണ	3129
ാവശ്യ	3130
കില്ല	3131
മ്മിന	3132
േക്കു	3133
ളജി	3134
ോച	3135
ഷാ	3136
ാശ	3137
പോര	3138
ൂണ്	3139
റ്റേ	3140
ുകളിൽ	3141
്രീ	3142
ങ്കില	3143
തന	3144
ോഡ	3145
ുകളാണ	3146
ഷിക്ക	3147
ംസ്	3148
മൈ	3149
ുവാ	3150
മ്പാ	3151
ഖ്യ	3152
ാപക	3153
ഷങ്ങള	3154
തായ	3155
ലാം	3156
കത്ത്	3157
ിനും	3158
റ്റോ	3159
23	3160
സ്യ	3161
നിലനി	3162
റൽ	3163
ഹര	3164
റ്ററ	3165
ണര്	3166
തകർ	3167
ാനായി	3168
ച്ചില	3169
ച്ചകള	3170
മോഹ	3171
ടന്നു	3172
അദ	3173
നമ്പ	3174
പ്ത	3175
മടങ്ങ	3176
ട്ടോ	3177
കാന്	3178
റാന	3179
60	3180
റണ	3181
ുനി	3182
മതി	3183
ോഷ	3184
വസ്ത	3185
വസ്തു	3186
മില	3187
ോസി	3188
##ർണ	3189
സ്സ	3190
ഗണ	3191
്പീ	3192
ീണ്ട	3193
ിലായി	3194
കൂടിയ	3195
ബ്രാ	3196
ുറ്റ	3197
റ്റല	3198
കോർ	3199
നശ	3200
്ക്ക്	3201
ിനാ	3202
ശിച്ച	3203
തമ്മി	3204
ോണി	3205
ർവ്വ	3206
ഥമ	3207
അല്	3208
നിധ	3209
സ്വർണ	3210
ദേശം	3211
േര്	3212
വാസ	3213
ിഗ	3214
ുന	3215
ോധ	3216
ത്തം	3217
െന്നത	3218
ഹിക്ക	3219
കാലം	3220
പന്ത	3221
കളായ	3222
വൻ	3223
വാക്സ	3224
ധേ	3225
ുല്	3226
ക്കില	3227
ോധന	3228
യെത്ത	3229
ഖത്ത	3230
വധി	3231
േന	3232
മത്സ	3233
ിഖ	3234
ൈവ	3235
ുമെ	3236
ിയി	3237
നിക	3238
തിരാ	3239
കഥ	3240
എഴുത	3241
ുപ്പ	3242
ർഷ	3243
ടിയാ	3244
ീന്	3245
ിക്കൊ	3246
തരമാ	3247
ാലിക	3248
താമസ	3249
ളുകള	3250
േറ	3251
താത	3252
ദഗ	3253
ഒക്	3254
അങ്ങ	3255
ബിന	3256
ധേയ	3257
സര	3258
ാന്ത	3259
വിദ	3260
നന്	3261
ക്കന്	3262
ലമ	3263
ളം	3264
ുസ	3265
ിവയ	3266
ോയ്	3267
ംബര്	3268
മിച്ച	3269
സ്പ	3270
േല	3271
്ഗ	3272
മറ	3273
ിജ	3274
റിൽ	3275
ളമ	3276
ാനമാ	3277
ുണ്ടോ	3278
ഉത്	3279
ൾക്ക	3280
28	3281
കാന	3282
സന	3283
നായി	3284
മന്	3285
മിനി	3286
ഇതു	3287
ഏഴ	3288
ാജി	3289
ംബാ	3290
കൃഷ	3291
പ്രവര	3292
ലപ്പെ	3293
മറി	3294
ാഴ്	3295
ാലയ	3296
ർശന	3297
യത	3298
്ലോ	3299
ബസ്	3300
ിസ്ഥ	3301
ോക്	3302
പ്പാ	3303
വിനെ	3304
മേയ	3305
ീല	3306
്ബ	3307
ക്കെട	3308
ൂല്യ	3309
മിക	3310
ശയ	3311
##േര	3312
ഹിച്ച	3313
െച്ച	3314
സിക	3315
ിതര	3316
റവ	3317
അധിക	3318
തര്	3319
കൗണ്	3320
ിർ	3321
ട്ടര്	3322
ഉച്ച	3323
വാട	3324
്ണു	3325
മസ്	3326
ക്കറ	3327
ധു	3328
സിക്	3329
ീഷ്	3330
െബ്	3331
അംഗീ	3332
യറാ	3333
യാല	3334
ദ്യോഗ	3335
ദര്	3336
ിജി	3337
##ങ്ങി	3338
##ങ്ങൾ	3339
കാറ	3340
ളിത	3341
ൈസ	3342
സാന്	3343
27	3344
അവര	3345
ക്കണമ	3346
ര്‍	3347
കല്ല	3348
പോസി	3349
ാറ്റ്	3350
തൃക	3351
വേഷ	3352
റച്ച	3353
വായി	3354
ക്സ	3355
്രിസ	3356
ശേരി	3357
നിയന	3358
െറ്റ്	3359
ആം	3360
ടില്ല	3361
ിങ	3362
ിഷേധ	3363
വഹ	3364
ഉമ്മ	3365
ുടേ	3366
ഷ്ടമാ	3367
ുമതി	3368
ഇര	3369
ചാര	3370
സ്തി	3371
കോട്ട	3372
റ്റർ	3373
ിയോ	3374
്രു	3375
തിവ	3376
കുക	3377
ലോട്ട	3378
അത്തര	3379
ിലൊ	3380
ംശ	3381
കണം	3382
ഇറക്ക	3383
26	3384
ൽപ്പ	3385
ജഡ	3386
ീക്ഷ	3387
സ്ട	3388
നാള	3389
ശബ	3390
െല	3391
ർമ്മ	3392
കാട്ട	3393
ാർക്ക	3394
കണമ	3395
31	3396
ക്കാറ	3397
ോട്ടു	3398
കുടു	3399
ഭാവി	3400
കോടതി	3401
ൊള്ള	3402
ച്ചിര	3403
റക്ക	3404
ോക	3405
100	3406
ിസ്ഥാ	3407
റന്	3408
സിച്ച	3409
ഴാ	3410
ത്വം	3411
വാഹ	3412
ംഗ്	3413
ല്ലി	3414
ടുപ്പ	3415
ോചന	3416
ടത്	3417
വട	3418
ഭി	3419
35	3420
ക്കാണ	3421
രുണ	3422
ഐസ	3423
കിന	3424
ിനോട	3425
ിഎസ്	3426
മമ	3427
കാത്ത	3428
ങ്കിൽ	3429
നന്ദി	3430
്ഡ	3431
പ്പുറ	3432
കല്	3433
ത്തും	3434
സിറ്റ	3435
കയറി	3436
വേദ	3437
##ദ്ദ	3438
തൂ	3439
ിപ്പോ	3440
ൂട്ട്	3441
ൂവ	3442
യൊരു	3443
ലിസ്	3444
ിയില	3445
ചന	3446
ോടി	3447
യാഴ്ച	3448
രിവാ	3449
നദ	3450
റിക	3451
യാലും	3452
ുക്ത	3453
ിലായ	3454
കേഷ	3455
ിസ്ത	3456
ക്യൂ	3457
വകാശ	3458
േലി	3459
ൾക്ക്	3460
കാരി	3461
ോന്ന	3462
്രമ	3463
്രേ	3464
ുമാര	3465
േക്കാ	3466
ഴക്ക	3467
േക്ഷ	3468
വേശ	3469
്പൂ	3470
ആന്	3471
യേക്ക	3472
വിള	3473
ഔദ	3474
പൈ	3475
റുകള	3476
പ്രതി	3477
ർത്തു	3478
്ക്ക	3479
കോടിയ	3480
രസ്	3481
സോഷ്യ	3482
ദയ	3483
ിട്ട്	3484
ിതമാ	3485
മമത	3486
്യത്ത	3487
സ്ട്ര	3488
ഡ്ര	3489
ിള്	3490
ത്താന	3491
കൃത്യ	3492
ജയ്	3493
ൻ്റ	3494
ധിപ്പ	3495
ഘാ	3496
പഴയ	3497
ഗാന	3498
പകര	3499
േക്ഷക	3500
രാറ	3501
്പര	3502
ംബര	3503
ർദ്ദ	3504
നാട്	3505
ിരോധ	3506
ാവന	3507
ണിക്ക	3508
യണ	3509
ഴിവ	3510
േട്ട	3511
ൈന	3512
യുട	3513
മ്പത	3514
ഉത്ത	3515
ണല്	3516
പുഴ	3517
നഡ	3518
ന്മ	3519
ാലം	3520
്ലിക്	3521
ട്ടം	3522
ടിന	3523
ൻ്റെ	3524
ഡന	3525
ഇവര	3526
ബർ	3527
സാര	3528
പ്രശ	3529
വിടെയ	3530
രുമ	3531
കൊള്ള	3532
രിത	3533
തെല	3534
യാവ	3535
യിച്ച	3536
ഴിച്ച	3537
തമ	3538
മിക്ക	3539
റില്	3540
കരമായ	3541
ാനമ	3542
റ്റാ	3543
കാരന	3544
വാര	3545
സിഡ	3546
ല്ലേ	3547
ൂഹ	3548
െറി	3549
ോദ	3550
മഴയ	3551
ഴുക	3552
്യമാ	3553
പാറ	3554
ത്രിക	3555
പ്രതീ	3556
താക്ക	3557
ിയാന	3558
ഭക്ഷ	3559
തിരായ	3560
ിയാണ്	3561
ോടും	3562
ോളജ	3563
അതു	3564
ികളെ	3565
29	3566
വുക	3567
െസ്	3568
ക്വ	3569
ികാര	3570
കൈക	3571
റിവ	3572
##ഗണ	3573
പരിഗണ	3574
വിക്ക	3575
നാഥ്	3576
രാര്	3577
തെക്ക	3578
റീ	3579
െപ്	3580
സ്ല	3581
നൂറ	3582
ട്ടന	3583
ായത	3584
വൈറസ	3585
ിമത	3586
ഡീ	3587
ാഖ	3588
അജ	3589
റിച്ച	3590
ക്ഷിത	3591
അന്ന	3592
എയ	3593
റബ	3594
ുത	3595
ായിക	3596
ണിന	3597
മൃത	3598
ഷമ	3599
ോയി	3600
ദന	3601
േദ	3602
ക്സ്	3603
കടല	3604
സരി	3605
കൺ	3606
ഗി	3607
യ്പ	3608
രയാ	3609
വോ	3610
ീമ	3611
വിദ്യ	3612
45	3613
കത്തി	3614
ഷെ	3615
ിമാ	3616
ൽക്ക	3617
മാല	3618
ിയും	3619
ദ്ധി	3620
എന്താ	3621
ണന	3622
വണ്	3623
ോഹ	3624
താവ	3625
ഫോട	3626
ലിയ	3627
െരു	3628
##ളം	3629
െഡ്	3630
ർമ	3631
ജിത്	3632
രക്ഷി	3633
അധി	3634
ദീ	3635
ൂപ്	3636
േട	3637
ോര	3638
നായിര	3639
േതാ	3640
സർവ	3641
ട്	3642
ുള്	3643
തട്ട	3644
താന	3645
ളിവ	3646
ട്ടീ	3647
ഴുത	3648
ഡിയോ	3649
അപ്പ	3650
്യമ	3651
നാലു	3652
ർണ്ണ	3653
ിസിസി	3654
ിയായി	3655
രുവ	3656
ഉയർ	3657
ബാന	3658
ഹാര	3659
ൂറു	3660
ിയറ	3661
വരാ	3662
തുത	3663
ിർത്ത	3664
ളിന	3665
ർച്ച	3666
്രസി	3667
ഉടൻ	3668
െസ	3669
റേറ്റ	3670
ിലവില	3671
മ്മു	3672
വായ	3673
്ലീ	3674
പറ്റി	3675
ംക	3676
നക്ക	3677
േഷന	3678
80	3679
ോപ്പ	3680
അടി	3681
രപ്പ	3682
മാത	3683
സിം	3684
്രസിഡ	3685
ിയൂ	3686
ിന്റ	3687
ഡിപ	3688
ഗഡ	3689
ൂർണ	3690
ളക്ക	3691
േജ്	3692
ക്ഷമ	3693
ീകരണം	3694
ുപ്പി	3695
തന്ന	3696
പ്രകാ	3697
കൾക്ക	3698
ടീം	3699
ഇയാ	3700
ൻസ്	3701
ഞ്ഞ്	3702
ഇവിട	3703
മണ	3704
റന്ന	3705
ാധി	3706
വിന്	3707
േറിയ	3708
കോട്	3709
െഷ	3710
അഭിമ	3711
ങ്	3712
സുപ	3713
ഡുകള	3714
യെങ്ക	3715
സംവ	3716
ലൂ	3717
ജന്	3718
വിഡ	3719
മിത	3720
ടങ്ങി	3721
സികള	3722
ിയാല്	3723
രിലെ	3724
ക്കിട	3725
in	3726
ളിയ	3727
ിക്കെ	3728
ടത്ത	3729
ിനാണ	3730
മിറ്റ	3731
ീട്ട	3732
ുഷ്	3733
െട്ട	3734
വീഴ	3735
ഷീ	3736
ങ്ക്	3737
70	3738
ലാണ്	3739
പാദ	3740
ായത്	3741
വർത്ത	3742
ഭീ	3743
ാനമായ	3744
വം	3745
തിലും	3746
ുമാന	3747
പാക്ക	3748
ിഷന	3749
ിര്	3750
ലിസ	3751
ുളം	3752
ഡല	3753
ഷിന	3754
ോഗ	3755
ക്കമ	3756
ുകാ	3757
ാണോ	3758
തികള്	3759
റായ	3760
ിങ്ക	3761
ള്ളവര	3762
ഗള	3763
ലബ	3764
യിലാ	3765
ന്നുമ	3766
്പെ	3767
ഴുതി	3768
്വേഷ	3769
ോന്നി	3770
ലച	3771
ഗോപ	3772
്യസ	3773
െട്ര	3774
ാപന	3775
ക്കണം	3776
കമാ	3777
ണങ്ങള	3778
്റേ	3779
മുറ	3780
ടിവ	3781
യര	3782
ക്കുട	3783
32	3784
റാണ്	3785
ബുക്ക	3786
ച്ചവ	3787
നടന്	3788
ഞ്ഞു	3789
ഐഎ	3790
ലാസ	3791
നല	3792
രസ	3793
പരസ്	3794
അര	3795
എല്ല	3796
ഓണ	3797
െറ	3798
ചാണ്ട	3799
ഷത്തെ	3800
ട്ടില	3801
ുറപ്പ	3802
ുമാണ	3803
തോമസ	3804
റ്	3805
ാഞ്ച	3806
ാനാവ	3807
ിത്ര	3808
യിലും	3809
രിസ	3810
്സാ	3811
കത്ത	3812
ീവ	3813
താപ	3814
ികെ	3815
്യണ	3816
ധിച്ച	3817
രക്ക	3818
സഫ	3819
പന	3820
ച്ചയ	3821
തള്ള	3822
ിവേ	3823
ൂട്ടി	3824
ിക്ര	3825
ാലിന	3826
യതി	3827
ുരുത	3828
േണ	3829
എപ	3830
വിൽ	3831
പുല	3832
്ജി	3833
ിനേ	3834
ിരാ	3835
പിറ	3836
ന്നിര	3837
ഇത്ര	3838
നാമ	3839
വുമായ	3840
ലത്ത	3841
ീല്	3842
പിഎ	3843
യക്കു	3844
തം	3845
നങ്ങൾ	3846
യച്ച	3847
ളാ	3848
െമ	3849
ിനൊ	3850
നടന	3851
ാവു	3852
തലയ	3853
ഠി	3854
മലയ	3855
ുരുതര	3856
യൻ	3857
റായി	3858
ജിത	3859
വരാന	3860
ഡിസ	3861
െതിര	3862
ാരക	3863
്രകാര	3864
മറു	3865
വട്ട	3866
ോകത്ത	3867
ഫീ	3868
വരാണ്	3869
േഖ	3870
ിച്ചു	3871
ഷിച്ച	3872
കമായി	3873
ടയില	3874
ടത്ത്	3875
ർട്ടി	3876
ർട്ട്	3877
രുക്ക	3878
ബേ	3879
രണ്	3880
വത്ത	3881
സിസ	3882
ധര	3883
ൂത	3884
നിശ	3885
പിതാ	3886
വാറ	3887
ിഞ്ഞാ	3888
തയില	3889
ീന്ദ	3890
ൻസി	3891
തോട	3892
ലിച്ച	3893
്തക	3894
അല്ലെ	3895
ലായ	3896
##െന	3897
സ്ക	3898
്റി	3899
ബുദ	3900
േരിയ	3901
പതിന	3902
ചക	3903
്ധ്യ	3904
ുവിന	3905
ീണ	3906
ൊറ	3907
രൂര	3908
ദേശ്	3909
ള്ളു	3910
ഡിന	3911
യല്	3912
റക്കി	3913
ലക്	3914
ർശി	3915
ശിക്ക	3916
ണവ	3917
ിദ്ധ	3918
ക്കേ	3919
ിയായ	3920
താവ്	3921
ള്ളിയ	3922
ഞ്ഞാ	3923
ദ്ധര	3924
നിർമ	3925
ുകാര്	3926
മാരാ	3927
ന്നേ	3928
നിലെ	3929
വൽ	3930
േടി	3931
രങ്ങ	3932
ഷണം	3933
ക്ഷത	3934
രത്	3935
സംര	3936
ട്ടയ	3937
പിട	3938
വടക	3939
സവ	3940
ുറി	3941
മുദ	3942
രാം	3943
മ്പന	3944
ാധാ	3945
ക്ടറ	3946
േഷൻ	3947
ൊണ്ട	3948
ുമ്പ	3949
ാസികള	3950
ഇറാ	3951
യ്യാ	3952
തിച്ച	3953
മ്പത്	3954
ജൂൺ	3955
ിക്കേ	3956
ിയത	3957
ിനാണ്	3958
്ടില്	3959
കളില്	3960
്പ്ര	3961
റങ്ങി	3962
ൈക	3963
ുഭ	3964
സെന്	3965
ഹമാ	3966
ോൺ	3967
കാരിക	3968
ാഴ	3969
ആന	3970
വരാണ	3971
ഒരേ	3972
ുള്ളി	3973
തൊരു	3974
ഷ്യല	3975
ചാല	3976
ഫീസ	3977
ോം	3978
ുവരു	3979
പട്ട	3980
ോത്	3981
റ്റിയ	3982
്താവ	3983
ിരീ	3984
ിതമായ	3985
ക്ട്	3986
ഭവ	3987
##ൻസ	3988
പുര	3989
ടിസ	3990
വിഡി	3991
ബന്ധമ	3992
ധിക്ക	3993
തെങ്ക	3994
ദശ	3995
വതി	3996
പ്രദ	3997
നിധി	3998
കുട	3999
നാം	4000
അശ	4001
തറ	4002
ബില്	4003
്രസ്	4004
ടിമ	4005
ിക്കൽ	4006
ിയിൽ	4007
കമായ	4008
വസ	4009
ോലി	4010
##െയ	4011
ഇതര	4012
ചുവ	4013
ന്ദര	4014
ോട്ടെ	4015
33	4016
ടല	4017
ീട്ടി	4018
ത്സ	4019
ന്ത്	4020
ോബി	4021
ച്ചിട	4022
ഫോൺ	4023
34	4024
ടയാ	4025
ായാണ്	4026
ാബി	4027
സെക്	4028
തുകൊ	4029
37	4030
ൈബ	4031
പോര്	4032
ിതം	4033
മത്തി	4034
വഹി	4035
ോഡി	4036
േഷന്	4037
വസ്	4038
സസ്	4039
ട്ടിയ	4040
ശോഭ	4041
ാജ്	4042
കാണാ	4043
48	4044
ാഫ	4045
ായില	4046
റഞ്ഞ	4047
ാങ്ങ	4048
ണ്ടാക	4049
ശം	4050
െന	4051
മാരി	4052
യാസ	4053
എന്തു	4054
തരം	4055
സൺ	4056
പ്പട	4057
തുമായ	4058
ാവുമ	4059
പൊട	4060
െന്റ്	4061
േർ	4062
്രത്യ	4063
##മാണ്	4064
ിയില്	4065
മദ	4066
ചിരി	4067
ഒമ	4068
മത്ത	4069
മ്പ്	4070
രാണ്	4071
മെങ്ക	4072
്നങ്ങ	4073
യിന	4074
ഷറ	4075
ാനു	4076
ജെപി	4077
ഴിക്ക	4078
ന്റി	4079
അമിത	4080
മം	4081
യന്	4082
ലസ	4083
പ്രസ്	4084
ിയേ	4085
കാരണമ	4086
ാലു	4087
ണോ	4088
ബറ	4089
ുന്നേ	4090
ഞ്ഞി	4091
ുവില	4092
ടാക്ക	4093
36	4094
ബൂ	4095
രവ്	4096
വത്	4097
ശശി	4098
ുങ്ങ	4099
രായി	4100
ുത്തല	4101
ാഗ്	4102
ുഷ	4103
സംബ	4104
്ട്ര	4105
ികള്	4106
ക്കാൻ	4107
ഒന്നാ	4108
ട്ടും	4109
അവിട	4110
ജ്യ	4111
ണിയ	4112
മ്യ	4113
ണ്ടും	4114
ജിസ്	4115
രംഭി	4116
േയ്	4117
ർഥ	4118
ല്ലു	4119
ഹിന്ദ	4120
ംവ	4121
ച്ചത	4122
ക്സി	4123
90	4124
വഴ	4125
ച്ചേര	4126
ടങ്ങള	4127
ഥികള	4128
##al	4129
കൂല	4130
ുടര്	4131
ണാ	4132
ുബ	4133
ർപ	4134
ിലന	4135
55	4136
ുടി	4137
േൽ	4138
ുകയു	4139
മേല	4140
ഗണി	4141
ാഡ	4142
്രസ	4143
ട്ടിന	4144
ന്തോ	4145
പാസ	4146
വൈസ	4147
രെയും	4148
ാദമ	4149
75	4150
ുദ്ധ	4151
്ഡി	4152
്യന്	4153
ന്തി	4154
എട	4155
ോമ	4156
ിക്കല	4157
ധാര	4158
്യാപ	4159
ന്തിന	4160
യോഗ്യ	4161
നുമായ	4162
്കോട	4163
ഇഡി	4164
നിഷ	4165
ാണു	4166
ാരം	4167
ാകര	4168
മ്മി	4169
ാറ്റു	4170
ർഹ	4171
പ്രേ	4172
ീയത	4173
യവ	4174
ാള്	4175
ുപാ	4176
രാശ	4177
കാരന്	4178
ക്ടര്	4179
രോധ	4180
റഹ	4181
തിഷ	4182
ന്നീ	4183
റെടു	4184
ലിൽ	4185
ളിപ്പ	4186
ൊഴ	4187
്ലൂ	4188
42	4189
സസ	4190
മുട	4191
ാധ്യത	4192
െറ്റി	4193
പാടില	4194
ധീ	4195
നകള	4196
സിറ	4197
##േഷന	4198
്തീ	4199
ഗ്യ	4200
ുക്ര	4201
ദള	4202
ച്ചട	4203
നിലയ	4204
ഷത്ത	4205
വിപ	4206
ാഹി	4207
പരിഹാ	4208
ഫറ	4209
ിണ	4210
ിടി	4211
ുതെ	4212
##പത	4213
വർണ	4214
ാത്തി	4215
ാട്ടു	4216
പനി	4217
സക്	4218
പുക	4219
ധവ	4220
ശ്ശേര	4221
്മാര	4222
ഗം	4223
്ത്യ	4224
മ്പർ	4225
ലാത്	4226
്തവ	4227
ിയിട	4228
ീപ്	4229
കെയ	4230
റിനെ	4231
ചത	4232
മയ	4233
റല്	4234
സുധ	4235
്രിക്	4236
ഒപ്പ	4237
ണല	4238
രാർ	4239
പെര	4240
്യാസ	4241
രമി	4242
ർമാ	4243
വീഴ്	4244
സേവ	4245
ാക്	4246
ോന്	4247
രിന	4248
ോൾ	4249
ിപ്പ്	4250
േറ്റ്	4251
ൂപ	4252
മുള	4253
രോട്	4254
സിയ	4255
രാക	4256
എഎ	4257
രയ	4258
ൈഡ	4259
യിലായ	4260
മ്പി	4261
ിനിമ	4262
ദ്യം	4263
ൂരില	4264
ലിറ്റ	4265
ആഴ	4266
പയോഗ	4267
യൽ	4268
ലീസ	4269
ിജെ	4270
ക്കട	4271
ണിത്	4272
കാരനാ	4273
ഓളം	4274
ക്കൂട	4275
രിയായ	4276
ലമെന	4277
സമാ	4278
ാസി	4279
്തി	4280
##കെ	4281
കളാണ	4282
അണ	4283
നിസ	4284
ാനാക	4285
ാതക	4286
ലധിക	4287
ൾപ്പ	4288
##യോ	4289
##മാണ	4290
38	4291
ഥാപ	4292
മധ	4293
സിസ്	4294
ലുവ	4295
200	4296
വല്	4297
ിപ	4298
ുന്	4299
സിൽ	4300
ചിത	4301
വയസ്	4302
ജിന	4303
ന്ദ്	4304
െടി	4305
കോവ	4306
വേഷണ	4307
വെള	4308
ോഷി	4309
43	4310
്കൂ	4311
സമ്പർ	4312
ബദ	4313
ൊര	4314
യുന്ന	4315
്ലേ	4316
േസെടു	4317
്തിന	4318
യട	4319
ൂഡ	4320
സിഡന്	4321
41	4322
തയാ	4323
ാണിത്	4324
റൈ	4325
ാനിയ	4326
തീയ	4327
ിനോ	4328
താക	4329
ബാബ	4330
െയില	4331
ലിന്	4332
ബോസ	4333
ഷ്യല്	4334
ഇരി	4335
തകള	4336
ാടന	4337
ൃത്തി	4338
ൊഴി	4339
ോളി	4340
ുടർ	4341
രിയാ	4342
്ററി	4343
ന്നെ	4344
ടണ	4345
ാഷ്	4346
ന്മാ	4347
ന്ദേ	4348
കോണ	4349
യമ	4350
ലങ്ങ	4351
ാദ്	4352
ക്കോട	4353
ജനം	4354
ണിത	4355
ലക്ക	4356
െഡി	4357
നത	4358
റിലെ	4359
ീറ	4360
ിക്കാ	4361
ച്ചുവ	4362
500	4363
ൊഴില	4364
ളില്	4365
വഴിയ	4366
വാള	4367
ഇതില	4368
ട്രി	4369
കടത്ത	4370
വസത	4371
ീം	4372
ർക്ക്	4373
്യേ	4374
രാക്ക	4375
ിവ്	4376
39	4377
അവി	4378
സജി	4379
െക്	4380
ോസ്	4381
ോലെ	4382
ലിക്ക	4383
ലീസ്	4384
ഹോം	4385
െവ	4386
മായത	4387
ഭാഗം	4388
തികൾ	4389
രണമ	4390
ുലി	4391
ൂറ	4392
ിലേ	4393
പിന്ത	4394
കൊള	4395
്റ്റ്	4396
ഞ്ഞിര	4397
്മത	4398
ലധികം	4399
ൂട്	4400
ഥാന	4401
ലന	4402
ശ്ച	4403
ഇതാ	4404
ഡയ	4405
നയില	4406
്രയി	4407
ുവരെ	4408
തിയായ	4409
52	4410
സബ്	4411
നടൻ	4412
ലോക്ക	4413
ടത്തി	4414
ിഡി	4415
വാർ	4416
ാലോ	4417
ളിച്ച	4418
ന്നീട	4419
േത്	4420
ഫഷ	4421
മുകള	4422
നിയോ	4423
ബന്	4424
വസര	4425
ച്ചാ	4426
ച്ചും	4427
ിലാണ്	4428
നുണ	4429
..	4430
േന്ദ	4431
##es	4432
മേള	4433
ജക	4434
ബില	4435
ബത്ത	4436
മൃ	4437
ലത	4438
ൊടു	4439
്രൂ	4440
പേരാ	4441
സ്വീ	4442
ിനിട	4443
ുണ്	4444
റിന്	4445
ാവ്	4446
മോദി	4447
റങ്ങ	4448
ിമി	4449
കളോട	4450
ക്കാം	4451
െയ്ത	4452
പിഴ	4453
ജൻ	4454
ളോ	4455
ിളി	4456
ീഫ	4457
്റം	4458
അപ്	4459
ഐടി	4460
മർ	4461
ലാണ	4462
ന്വേ	4463
ിടങ്ങ	4464
ാധക	4465
ാമത	4466
്ലാതെ	4467
49	4468
അലി	4469
ആറ	4470
്യാപക	4471
രട	4472
ൊണ	4473
ോജ	4474
്വി	4475
ൾഡ	4476
നിച്ച	4477
കേസില	4478
ുപത	4479
44	4480
47	4481
ഉമ	4482
്മാന	4483
റ്റീ	4484
51	4485
ഉം	4486
എകെ	4487
യാര്	4488
്യങ്ങ	4489
ഉപയോ	4490
േസില	4491
നയുടെ	4492
ഇല	4493
ഷപ്പ	4494
ൗണ	4495
ണിക്	4496
ാറില	4497
രഞ്ഞ	4498
ൂണ	4499
കൊല്	4500
ുത്തു	4501
ടപ്പ	4502
നസ്സ	4503
ുൽ	4504
്ള	4505
്റ്	4506
ൽപ	4507
്ടിലെ	4508
പോലു	4509
ാരമ	4510
്ടെ	4511
ടിപ്പ	4512
നുള്ള	4513
ചുമത	4514
ീണ്ടു	4515
65	4516
തത്	4517
സ്പി	4518
ങ്ങാ	4519
നിപ	4520
മെയ	4521
ർത്ഥി	4522
രിക	4523
ലവ	4524
ളോട്	4525
ശൻ	4526
കൊല	4527
ടയ	4528
ദാന	4529
നോട്	4530
സില്	4531
ുന്ന്	4532
ുങ്ങി	4533
ക്കയ	4534
ഭിമ	4535
ഇങ്ങ	4536
ിയന്	4537
ഇതോട	4538
യൂര	4539
ാനെ	4540
യിന്	4541
കൊച്ച	4542
ഇടം	4543
നബ	4544
ഫസ	4545
##an	4546
##ാർ	4547
ഥാനാർ	4548
കരു	4549
പിള	4550
ുറവ	4551
ദർ	4552
നര	4553
ിയന്ത	4554
ൂരി	4555
മാരെ	4556
വീകര	4557
co	4558
ടര	4559
മെട	4560
യ്ത	4561
രത്ത	4562
ാശി	4563
േവ	4564
തിക്ക	4565
ടക	4566
യൺ	4567
ലപ	4568
ങ്കി	4569
ടിയില	4570
സീസ	4571
ർഘ	4572
കൗണ്ട	4573
രോട	4574
ലന്	4575
സാന	4576
െര	4577
ന്നുക	4578
ഴ്ച്ച	4579
നക	4580
മസ	4581
##am	4582
ാരു	4583
ിലുമ	4584
റയ	4585
ുദ	4586
ുരി	4587
െന്നി	4588
താവിന	4589
ആക്	4590
ടര്	4591
ശത്ത്	4592
ൈം	4593
്ടാണ്	4594
ായം	4595
്റ്റി	4596
്കെടു	4597
ാരിയ	4598
രല	4599
ൂസ	4600
കേട	4601
തുണ	4602
കാവ	4603
കമ്പ	4604
ഖില	4605
രത	4606
ൻറ	4607
തിപ്പ	4608
ട്രെയ	4609
തികള	4610
ംവി	4611
അബ	4612
പട്ടി	4613
ഹസ	4614
ുഹ	4615
്പി	4616
നെതിര	4617
ww	4618
തത്ത	4619
ച്ചറ	4620
മകൻ	4621
ൽഡ	4622
മറ്റൊ	4623
കമ്	4624
എയർ	4625
www	4626
46	4627
ുതിര	4628
ന്‍	4629
യുക	4630
വാന്	4631
ള്‍	4632
ദിക്	4633
കൽ	4634
ജഗ	4635
ടന	4636
ുച	4637
്മാ	4638
കളു	4639
##യാണ്	4640
ിശ്വ	4641
സരത്ത	4642
നയം	4643
റഫ	4644
്യപ്പ	4645
ികമാ	4646
സ്ഥിര	4647
്ഷന	4648
ഒന്	4649
ശക	4650
ാക്ഷ	4651
ന്നോട	4652
പൊട്ട	4653
സൽ	4654
ിടു	4655
ുട്	4656
ോയ	4657
വിയ	4658
റുമാ	4659
ചായ	4660
ിലോ	4661
്ലെ	4662
ാര്യമ	4663
്യമാക	4664
മാവ	4665
മ്മന	4666
്മിന	4667
കനാ	4668
54	4669
അമ	4670
കട്ട	4671
ൊല	4672
റ്റിൽ	4673
ാന്റ	4674
ക്ഷാ	4675
യൂട	4676
ഫഷണ	4677
യാര	4678
ിലയ	4679
രാണ	4680
ാങ്ക്	4681
കുമോ	4682
ിബി	4683
കൻ	4684
രണം	4685
ുള്ളവ	4686
ന്നവര	4687
വാങ്	4688
തുമ	4689
ിടയ	4690
ജയം	4691
ഗറ	4692
ടും	4693
വന്ത	4694
an	4695
നതാ	4696
ളും	4697
ല്ലായ	4698
56	4699
നിന	4700
ണ്ടോ	4701
മ്പോ	4702
ാവുക	4703
വളര	4704
ബഹള	4705
അഴ	4706
ുശ	4707
ൽഷ	4708
്രെ	4709
നേയ	4710
വെറു	4711
പലര	4712
നസ്	4713
ലറ	4714
ാസമ	4715
റ്റെ	4716
ണ്ടായ	4717
പര്	4718
മിയ	4719
ാമത്ത	4720
രയില	4721
രമായി	4722
സ്വര	4723
ിപ്പാ	4724
ഇഷ	4725
മുക	4726
പിന്ന	4727
വെല്	4728
നീട	4729
അഭ	4730
ക്കല	4731
ലുണ്ട	4732
ഫിക്	4733
പട്	4734
ൾസ	4735
വിറ്റ	4736
റ്റും	4737
72	4738
ആറു	4739
ളത്ത	4740
ുണ	4741
ോപ	4742
തിനൊ	4743
ണമായി	4744
പടി	4745
ാബ്	4746
ിപ്	4747
കൊടു	4748
വേറ	4749
ലഡ	4750
ാപ്	4751
മാസം	4752
53	4753
മ്	4754
െയാണ്	4755
റിംഗ	4756
ജമ	4757
രദേശ	4758
ീഴ്	4759
യാല്	4760
ക്ഷന്	4761
ഷ്ടി	4762
ന്നിട	4763
ജിയ	4764
തമാ	4765
പവ	4766
ലിക	4767
വാണ	4768
്സ്	4769
രിട്ട	4770
ംസാ	4771
തിയാ	4772
58	4773
റച്ച്	4774
വഷ	4775
ഷഹ	4776
ോശ	4777
നിപ്പ	4778
കാം	4779
കാലി	4780
നെന്ന	4781
ലിനെ	4782
ര്യം	4783
ണവും	4784
57	4785
തവ	4786
യയ	4787
ഴയ	4788
ിയാല	4789
പറേഷന	4790
ദിവസം	4791
ശിപ്പ	4792
ോള്	4793
ക്ടർ	4794
കങ്ങള	4795
തകര	4796
സദ	4797
ാഥ	4798
ോദ്	4799
ിലാണ	4800
തിമ	4801
യിക	4802
ാർട്ട	4803
150	4804
ജില	4805
്ഞ	4806
രാട്	4807
ചേരി	4808
െയ്യ	4809
സാരി	4810
വഷള	4811
ിയാണ	4812
ായു	4813
യതോടെ	4814
ശില	4815
ഷ്മ	4816
ഹേ	4817
ിഗ്	4818
്രിയ	4819
ക്ഷന	4820
ണ്ണൂ	4821
്മയ	4822
മരം	4823
ർദ	4824
നുസ	4825
വരുമാ	4826
300	4827
ഖല	4828
##te	4829
ങ്കു	4830
ൂർത്ത	4831
ടർ	4832
രദ്	4833
ത്തുക	4834
ിക്കര	4835
ിയു	4836
റ്റത	4837
വരില	4838
റിസ്	4839
ിനിമയ	4840
പോളി	4841
മുസ്ല	4842
അധ	4843
കവ	4844
ഗെ	4845
പള്	4846
യങ്ക	4847
റൺ	4848
ോടു	4849
നിക്	4850
്ടായി	4851
രുപ	4852
അപക	4853
സ്വീക	4854
ഗങ്ങള	4855
തർ	4856
മെന	4857
മിറ	4858
തസ	4859
സയില	4860
പറേ	4861
ിന്നാ	4862
62	4863
പക്	4864
ത്താക	4865
ഇന	4866
രുന	4867
രൂപയ	4868
പിയ	4869
സൻസ	4870
ായത്ത	4871
ടിട	4872
ചോദ	4873
ടേയ	4874
യ്യാറ	4875
ശൂ	4876
ിക്കോ	4877
മ്പു	4878
ലായിര	4879
ലായി	4880
##ഫ്	4881
ദ്ധത	4882
കടക	4883
ിറക	4884
അസം	4885
ിയയില	4886
പുത	4887
ാര്യത	4888
ീഷണ	4889
ണ്ടാവ	4890
റുകള്	4891
go	4892
ണത്ത	4893
യങ്ങള	4894
രള	4895
രഘ	4896
വിക്	4897
ിയതി	4898
്യാര	4899
റ്റം	4900
തുക്ക	4901
്പു	4902
നുഭവ	4903
വനം	4904
ദല	4905
ശവ	4906
നിക്ക	4907
പാടു	4908
രിവ	4909
ാരമാ	4910
പിയില	4911
ഡന്	4912
നങ്ങ	4913
യമാ	4914
ാങ്	4915
ീക്ക	4916
സ്ലി	4917
ട്ടറ	4918
ങ്കാ	4919
അടക്ക	4920
59	4921
കത	4922
ഡന്റ	4923
്യവ	4924
പറമ്പ	4925
ടിപ	4926
നറ	4927
മട	4928
വജ	4929
ശങ്ങള	4930
ാവി	4931
സുന	4932
മോദ	4933
ാരായ	4934
ചതി	4935
ദത്ത	4936
റേഷ	4937
സന്ത	4938
ാന്ന	4939
്ദ	4940
ക്കാവ	4941
അഡ്	4942
ണക്കു	4943
ശ്വസ	4944
്രമം	4945
##ala	4946
തരണ	4947
പ്യ	4948
മങ്ങ	4949
റൻ	4950
്ന്	4951
വാന	4952
പ്പോര	4953
ഡോക്	4954
ാമര	4955
രോപി	4956
ഖ്യാ	4957
ഗര	4958
മൻ	4959
രട്	4960
ഹം	4961
ൂണി	4962
ക്കണ	4963
ളിലെ	4964
ോന	4965
എംപ	4966
ഹേമ	4967
്പുഴ	4968
നന	4969
##ar	4970
്യൻ	4971
ട്ടമ	4972
പാക്	4973
രുടെയ	4974
മ്മാ	4975
85	4976
ഇപി	4977
ാരും	4978
ഷ്ണ	4979
അൽ	4980
സുകള	4981
്ടത്ത	4982
ുകളെ	4983
ിന്നി	4984
്നാ	4985
ൂലമ	4986
എങ്ങ	4987
സന്ധ	4988
ാച	4989
ിദ്	4990
ിച്ചത	4991
ത്യം	4992
ാറില്	4993
400	4994
ലേക്ക	4995
ചില്ല	4996
ഡില്	4997
നർ	4998
ശ്യ	4999
ശത്ത	5000
ിവാ	5001
ുൻ	5002
ർന	5003
കളുമ	5004
കാതെ	5005
മെന്	5006
വിലെ	5007
ൈക്കോ	5008
ാരിക	5009
സാനി	5010
ഇപ്പ	5011
ഓണം	5012
ഭ്യ	5013
ുതാ	5014
ൃത്ത	5015
്ടപ്പ	5016
സായ	5017
ാപിക	5018
ക്തി	5019
തല്	5020
ഭഗ	5021
പ്പര്	5022
അവൾ	5023
ke	5024
നുകള	5025
ോഷ്	5026
ിക്കു	5027
സമി	5028
രുതി	5029
##ുകള്	5030
ശ്ചി	5031
പകട	5032
സുമ	5033
പേരു	5034
കാക്ക	5035
ധിപത	5036
വിഡ്	5037
പം	5038
ൂത്ത്	5039
പരിചയ	5040
െയ്യാ	5041
കടം	5042
നവും	5043
ഗാന്ധ	5044
്യവും	5045
),	5046
്ടാ	5047
പരിച	5048
ഫറന	5049
എന്റ	5050
ിങ്ങള	5051
ാനിക്	5052
യേറ	5053
രെയ	5054
പൈസ	5055
ളിയാ	5056
ചിര	5057
ബര	5058
ലഘ	5059
്ടം	5060
്റ്റു	5061
പുറം	5062
ുമാനം	5063
63	5064
ആദ	5065
രച	5066
ഹന	5067
കണക്	5068
്ചാ	5069
gov	5070
പാണ	5071
ത്തയ	5072
ുകു	5073
തുമാ	5074
ാലിക്	5075
ിഎഫ്	5076
ഴക	5077
ാശ്	5078
ൂന	5079
എന്നാ	5080
ാധിക	5081
ബദല	5082
han	5083
ണത	5084
ദില്	5085
ിരഞ്ഞ	5086
ക്കളെ	5087
ാതിക	5088
ബന്ധി	5089
കരുടെ	5090
ഭഗവ	5091
ംപ്	5092
ഏതു	5093
വിദേ	5094
മായാ	5095
നീത	5096
പെരുമ	5097
റേഷന്	5098
തരാ	5099
രങ്ങള	5100
ലഹ	5101
മ്മയ	5102
ലാക്ക	5103
ലൈൻ	5104
േഷനില	5105
കളുമാ	5106
ലപ്	5107
സറ	5108
##on	5109
##wes	5110
അതോ	5111
തുകയ	5112
ബുദ്ധ	5113
ഉടമ	5114
anwes	5115
hanam	5116
66	5117
ഏഴു	5118
േക്	5119
്യന	5120
ടുമ	5121
ുമു	5122
കാൻ	5123
ക്കാമ	5124
്പത്ത	5125
്മദ	5126
ഗവൺ	5127
71	5128
സും	5129
ീവി	5130
##at	5131
ക്കമാ	5132
ിയല	5133
ന്നത്	5134
ബിര	5135
മ്മില	5136
കിസ	5137
ഷിന്	5138
ഓടി	5139
മൺ	5140
വഗ	5141
േസ്	5142
യാന്	5143
രിസ്	5144
ണെങ്ക	5145
േയു	5146
ാധിപത	5147
അക്	5148
ദിയ	5149
ീശ	5150
പ്രി	5151
കളാണ്	5152
ക്ഷയ	5153
64	5154
77	5155
അം	5156
തള	5157
പഥ	5158
രൊ	5159
െറിയ	5160
ച്ചത്	5161
പിഎം	5162
ന്ദു	5163
റൂം	5164
ിപ്ര	5165
ിശ്വസ	5166
ഫഷണല	5167
ഒപ	5168
കറ	5169
തങ്ങള	5170
ർണ	5171
വിര	5172
ികാ	5173
മ്പള	5174
യേല	5175
്ത്യന	5176
്തിരി	5177
68	5178
ഇഒ	5179
ടൈ	5180
ണബ	5181
ഥവ	5182
ൂഷ	5183
്നി	5184
നുമാ	5185
ാരന	5186
നഗർ	5187
ടാക്	5188
ുക്കള	5189
ോഡ്	5190
rala	5191
വൺ	5192
ൊട്ട	5193
ർബ	5194
ായാല	5195
മിന്	5196
്തര്	5197
മകൾ	5198
ടൺ	5199
ഡബ	5200
രൺ	5201
റിക്ക	5202
ല്ലെ	5203
ലോട്	5204
പോയത	5205
61	5206
ഡൻ	5207
ഭയം	5208
രക	5209
േള	5210
ൊവ	5211
##ധാ	5212
യാന	5213
സെന	5214
ആളെ	5215
അറിയാ	5216
കറ്റ	5217
ാബു	5218
ുരം	5219
ത്തത്	5220
പ്രധാ	5221
യുണ	5222
ിവെ	5223
ണങ്ങൾ	5224
ലമാ	5225
ളക	5226
ിനാല	5227
ണ്ടിയ	5228
ത്രിമ	5229
നൂര	5230
ിണറ	5231
ഖി	5232
ലെട	5233
െണ	5234
ോഴ	5235
സ്ബ	5236
രാട	5237
മേൽ	5238
്പാ	5239
തലത്ത	5240
ിവരു	5241
മതം	5242
രമണ	5243
ുപോക	5244
67	5245
കന്	5246
ചട	5247
ർന്ന	5248
##ai	5249
പോസ്	5250
ന്താ	5251
നെത	5252
കരമ	5253
ാറിന	5254
ഡൗൺ	5255
കെട	5256
ടന്	5257
റല	5258
ലയി	5259
ലില്	5260
ാനില	5261
്യാന	5262
യുമെ	5263
ടൈം	5264
രധ	5265
ിമാന	5266
കാട	5267
പാർട	5268
റുകൾ	5269
ൂഹത	5270
99	5271
ഗർ	5272
ചവ	5273
ൂള	5274
ോപ്	5275
ക്കിന	5276
തീരു	5277
ജിസ	5278
മിക്	5279
സ്തു	5280
വർഷം	5281
മാനമാ	5282
ഓടെ	5283
റേഷന	5284
ഷേ	5285
ാടിയ	5286
ോഗ്	5287
്ക്	5288
പ്പറ	5289
മാക്	5290
ിക്കി	5291
മനു	5292
്യാന്	5293
ിസിസ	5294
്യമാണ	5295
റസ്	5296
ശിയ	5297
്രെയ	5298
റ്റഡ	5299
പിക	5300
ങ്കയ	5301
ടക്കാ	5302
്സില	5303
ുപ്ര	5304
250	5305
ാകരന	5306
ംപി	5307
ഈര	5308
ലക	5309
മുഹ	5310
്രചാര	5311
ംഗി	5312
്കോ	5313
തനാ	5314
69	5315
78	5316
ഗൾ	5317
നോട	5318
വുകള	5319
രാട്ട	5320
കോഴി	5321
ുമാനി	5322
റാണ	5323
ഴിയ	5324
ച്ചേ	5325
ിക്കൂ	5326
ാനവ	5327
ന്നല	5328
വാത	5329
വെയ	5330
പൂര	5331
ചരി	5332
ത്രമ	5333
##or	5334
ാറാ	5335
600	5336
സുപ്ര	5337
95	5338
ജസ	5339
നമാണ്	5340
ളായി	5341
ൂടി	5342
നിമ	5343
്രഹ	5344
രിട	5345
റിപ	5346
ിഞ്ഞു	5347
റഞ്ഞത	5348
or	5349
ഏറ	5350
ഹക	5351
ച്ചവര	5352
പായ	5353
നാവി	5354
ായില്	5355
യോഗിക	5356
ദേഹ	5357
രണമാ	5358
വധശ	5359
74	5360
ചന്ദ	5361
നൊ	5362
ൽമ	5363
ത്രാ	5364
ാക്കള	5365
തിരുന	5366
ഫോർ	5367
രവും	5368
പത്തന	5369
ാമ്പി	5370
ാമ്പത	5371
ിയതിന	5372
ഉച	5373
യശ	5374
രമായ	5375
സള	5376
്യമായ	5377
്ടത	5378
ണ്ണം	5379
്വേഷണ	5380
തിയാക	5381
യങ്ങ	5382
റസ	5383
്രം	5384
നാവ	5385
സ്താ	5386
യ്യി	5387
...	5388
അത്ത	5389
ഫയ	5390
രതി	5391
സ്ര	5392
േസിൽ	5393
##ർമ	5394
്രന	5395
ിനായ	5396
രാവ	5397
ോടൊ	5398
ജിക്	5399
ഗൾഫ	5400
ഉഷ	5401
ഡില	5402
ണമായ	5403
നൈ	5404
ൃഷ്ണ	5405
ൽസ	5406
ികളും	5407
കിം	5408
തനം	5409
ാപനം	5410
പത്തി	5411
േരിട	5412
ച്ചതാ	5413
നികള	5414
വിച്ച	5415
്രപ	5416
ന്നോ	5417
രീത	5418
ടെയ	5419
വ്യത	5420
ion	5421
ണില	5422
മും	5423
ുജ	5424
ുപാട	5425
ോട്ടി	5426
ടുന്ന	5427
ജനത	5428
തോളം	5429
ഡാം	5430
76	5431
82	5432
ലവി	5433
ലയില	5434
ുഗ	5435
്വേ	5436
ട്ടുമ	5437
കുഞ്ഞ	5438
ിരോ	5439
റ്റക	5440
റ്റൊ	5441
ത്രീ	5442
120	5443
ുപോല	5444
ഡയറ	5445
ഇള	5446
ഗസ	5447
തില്ല	5448
തമായി	5449
പദ്ധ	5450
ഹു	5451
്രതീ	5452
കളക്	5453
കാട്	5454
ഇടത	5455
ലീം	5456
ധനു	5457
നബി	5458
്രതീക	5459
റമ	5460
ബിൽ	5461
ായിക്	5462
ാത്തത	5463
വിലയ	5464
നുഷ്	5465
ത്താൻ	5466
ഉള	5467
ജസ്	5468
നപ	5469
തുള	5470
ന്റേ	5471
ടെന്	5472
73	5473
91	5474
96	5475
കരെ	5476
ഗീ	5477
ണങ്ങ	5478
നമായ	5479
യമന	5480
ക്കന	5481
്രയ	5482
രാന	5483
ന്നൊ	5484
സ്വദ	5485
കാമ	5486
അവൻ	5487
ളിക്ക	5488
സാമ്	5489
ഗ്രഹി	5490
ുദാ	5491
അഴി	5492
ആത	5493
ഇടി	5494
പത്	5495
മള	5496
രമാണ്	5497
റപ്പ	5498
ഹങ്	5499
്വര	5500
ിലിന	5501
ിയോട	5502
ാക്കു	5503
പദ്ധത	5504
പില്	5505
ികരി	5506
ിനെയ	5507
ിപ്പു	5508
ത്യയ	5509
ാലിന്	5510
84	5511
86	5512
അനി	5513
തിലെ	5514
നറി	5515
േശ്	5516
മനസ്	5517
ക്ഷമാ	5518
മ്പര	5519
ഇബ	5520
എല	5521
ണർ	5522
ൽവർ	5523
നേക	5524
മേരി	5525
ഗോവ	5526
88	5527
83	5528
92	5529
ഒറ	5530
ടൻ	5531
തഴ	5532
യറി	5533
ുയ	5534
ൈമ	5535
്മന	5536
ത്തുമ	5537
ുന്നവ	5538
ിലീ	5539
ിച്ചി	5540
ടിന്	5541
ികളാ	5542
ിഡ്	5543
ോലും	5544
കമല	5545
79	5546
എപി	5547
ണൽ	5548
യപ്പ	5549
ഹിക	5550
ിലക	5551
കേണ്ട	5552
മാരും	5553
്കര്	5554
തമിഴ	5555
തിയെ	5556
റ്റൊര	5557
94	5558
ഡു	5559
തൽ	5560
ധ്യാ	5561
മക്ക	5562
ീരു	5563
ന്വ	5564
്രക്ക	5565
സിനെ	5566
ാടുക	5567
87	5568
അദ്	5569
ലുമ	5570
ാരെ	5571
ുതു	5572
സ്സി	5573
ജോൺ	5574
ിംഗി	5575
താവള	5576
ടയില്	5577
ഗഢ	5578
ടതി	5579
ദർശ	5580
നഷ്	5581
രദ	5582
ശുപ	5583
സഡ	5584
ത്തായ	5585
്രത	5586
ട്ടുക	5587
പദം	5588
ാക്സി	5589
89	5590
ഗ്ല	5591
ടൽ	5592
രന	5593
രന്	5594
ലങ്	5595
ിമാര	5596
േറി	5597
ിലില	5598
പോൾ	5599
വെന്	5600
നാക	5601
ുമാർ	5602
നികു	5603
േടാ	5604
pr	5605
കില്	5606
നമാണ	5607
വണ	5608
ാഹു	5609
##is	5610
ടുകള	5611
നാധ	5612
്കറ്റ	5613
ലാവ	5614
നമ്മു	5615
ടോം	5616
കാനും	5617
വുകയ	5618
നികുത	5619
അച	5620
ൈറ	5621
ൻവ	5622
റ്റന്	5623
ചാത്ത	5624
ആണോ	5625
്ഞാ	5626
93	5627
ദമായ	5628
നത്തെ	5629
ഫു	5630
ാവാ	5631
തികര	5632
്രമാ	5633
ിക്യ	5634
്പര്	5635
്വത	5636
യൂസ	5637
നുമാണ	5638
ടിയും	5639
്റില	5640
ാജന	5641
തമായ	5642
ദം	5643
മില്	5644
്ധര	5645
ൻവർ	5646
ുറന്	5647
സ്ഥിത	5648
ിന്നു	5649
പൂജ	5650
ാഗ്യ	5651
ആദ്യമ	5652
ന്ധു	5653
ഫറൻസ	5654
81	5655
ഒരോ	5656
തഫ	5657
വത	5658
ൈദ	5659
ച്ചാല	5660
്ടി	5661
ഫോം	5662
ആക്രമ	5663
രോപണ	5664
ർത്താ	5665
ുറ്റപ	5666
്ക്കു	5667
്ഞി	5668
ചൈ	5669
സുകള്	5670
പിക്	5671
രുവി	5672
ുറക	5673
വീടു	5674
ജിന്	5675
രീം	5676
തിരെയ	5677
്ത്യൻ	5678
ശ്ചാ	5679
യയുടെ	5680
റൺസ	5681
കയി	5682
ണന്	5683
തില്	5684
പില	5685
ാദി	5686
##ps	5687
െന്നു	5688
്ടുപ	5689
ടിക്	5690
നസില	5691
ോത	5692
വാഗ	5693
ബിൻ	5694
സീറ	5695
ഫിന്	5696
ഴുവ	5697
തിനിട	5698
ജനറല	5699
നാര	5700
ലൗ	5701
സൾ	5702
ത്സര	5703
രാധ	5704
റ്റുമ	5705
കാരമ	5706
്പട	5707
പരിശ	5708
ക്ലാ	5709
ടിയേ	5710
140	5711
ഇതുവര	5712
്റിൽ	5713
ജഗന	5714
റുമ	5715
റയ്	5716
േഴ	5717
ട്ടിൽ	5718
്തിനെ	5719
മൽ	5720
റൊ	5721
സത	5722
ിട്ടത	5723
ലോട	5724
ാമത്	5725
്തും	5726
മീറ	5727
ഖാൻ	5728
ഉളള	5729
97	5730
ംത	5731
ദൾ	5732
യപ	5733
ൃദ	5734
്ചര	5735
ൗര	5736
##ic	5737
യുള്	5738
വീണ്	5739
ത്തുന	5740
ുപക്ഷ	5741
ുവിള	5742
യുമെന	5743
ജഗദ	5744
യപ്ര	5745
ഒട	5746
ധയ	5747
മസി	5748
രവാ	5749
ഴിക	5750
ൈന്	5751
ങ്ങളോ	5752
്ടവ	5753
കളാ	5754
ികര	5755
ടിയു	5756
ദ്രസ	5757
ബസവ	5758
re	5759
ഭവന	5760
ാപി	5761
റ്റത്	5762
്പന	5763
തോള	5764
ക്കുള	5765
വരെയ	5766
്ലിയ	5767
ലാക	5768
സിലാ	5769
ുഖ്	5770
മയുടെ	5771
ശ്ചാത	5772
ഥന	5773
യന്ത	5774
റത്ത	5775
ൂല്	5776
െക	5777
ർത്തി	5778
##ts	5779
ച്ചുക	5780
പിച്ച	5781
ത്രം	5782
ഭരണക	5783
ൻസർ	5784
ജലം	5785
ുതര	5786
ടനാ	5787
th	5788
ത്താണ	5789
##ഞ്ഞ്	5790
രാത്ര	5791
ധാനം	5792
്തോ	5793
കൂടാ	5794
ഇന്നല	5795
െന്റി	5796
ളിക	5797
ശേ	5798
##di	5799
##ഡിയ	5800
തെറ	5801
പരിപാ	5802
മീഡിയ	5803
തൃശൂര	5804
ന്ധം	5805
ുക്കു	5806
ഡന്റ്	5807
അബ്	5808
ദമാ	5809
നുപ	5810
ബന	5811
മരു	5812
യെടു	5813
വഖ	5814
ഷമാണ്	5815
ോധിക	5816
##ഹദ	5817
ാനേ	5818
ണ്ടെ	5819
രുക	5820
പൊത	5821
ലക്ഷ്	5822
നീക	5823
അറസ്	5824
ംഗം	5825
്യാപി	5826
േഹത്ത	5827
െലവ	5828
വഖഫ	5829
ഡേ	5830
രതീ	5831
വച	5832
സൃ	5833
്റു	5834
ന്ദി	5835
രുട	5836
കൃഷ്	5837
370	5838
ചൽ	5839
ണക	5840
ഫഹദ	5841
യസ	5842
ിഞ്ഞ്	5843
ീവന	5844
##le	5845
പ്രവാ	5846
തിൻ	5847
ിന്ത	5848
ിതമ	5849
ുവന	5850
ആലപ്പ	5851
്ചറ	5852
രംഭ	5853
800	5854
ഇങ്ങന	5855
ങ്കുവ	5856
ആരെ	5857
തന്റ	5858
നയാ	5859
പദ്	5860
ഭര	5861
യതാ	5862
യമായ	5863
റത്തി	5864
േസമ	5865
##tt	5866
ങ്ങു	5867
ിനേഷ	5868
റ്റെട	5869
പിണ	5870
ംഗാ	5871
ക്തമ	5872
ീസില	5873
യതിന	5874
സദസ	5875
്രിയാ	5876
ആൾ	5877
ഉന്ന	5878
കഴ	5879
ളാണ	5880
വൾ	5881
ൻഷ	5882
രാഷ്	5883
കളോ	5884
റ്ററി	5885
ഷ്യം	5886
110	5887
ലയില്	5888
നഹ	5889
രന്റ	5890
റം	5891
ളക്	5892
ഹണി	5893
ാരോ	5894
െളി	5895
്തല	5896
##ച്	5897
ികയ	5898
നെയ	5899
്തില്	5900
ാതന	5901
130	5902
com	5903
ണത്	5904
ലഗ	5905
വദ	5906
ശാന	5907
േക	5908
േട്	5909
ിവരാ	5910
്തര	5911
പാലക	5912
ബലം	5913
കുകള്	5914
േസമയം	5915
കഫ	5916
മദ്	5917
റന	5918
ലരു	5919
േഗ	5920
ൊട	5921
ൊറോ	5922
##st	5923
##യർ	5924
യാർ	5925
യാറ	5926
കുള്	5927
പ്പോർ	5928
ുത്താ	5929
്ലക	5930
ർക്കു	5931
144	5932
ിനാല്	5933
്റിക്	5934
ഫഷണൽ	5935
ഫയൽ	5936
st	5937
ഗത്	5938
ടായി	5939
പഹ	5940
രശ	5941
വസ്ഥ	5942
കൂടു	5943
കാണു	5944
ചിക്ക	5945
ദിക്ക	5946
ിമു	5947
സജീ	5948
്രമണ	5949
ടനം	5950
എസി	5951
ടിക	5952
ലൻ	5953
ളോട	5954
ഹവ	5955
ോദര	5956
്രമാണ	5957
ാവില	5958
തോട്	5959
നെയും	5960
108	5961
്ലാവ	5962
ലീഗ്	5963
്മെ	5964
ോടെയാ	5965
കാനാ	5966
ഷറഫ	5967
നയ്	5968
രസ്യ	5969
ലകള	5970
ശപ്പ	5971
ഹർ	5972
##ve	5973
ുംബ	5974
ച്ചറി	5975
്രണ	5976
ാനില്	5977
നിയാ	5978
ല്ലം	5979
നുവ	5980
ാണിത	5981
െടുത	5982
മാനം	5983
125	5984
ടാക	5985
ുഖ്യ	5986
ക്കേറ	5987
ിപ്രാ	5988
തപ്പ	5989
ഫഡ	5990
മഡ	5991
ലെടു	5992
ഷകര	5993
സൻ	5994
ാത്	5995
ീതി	5996
െബ	5997
മാനി	5998
വിവി	5999
തിട	6000
നാസ	6001
സ്ഥി	6002
98	6003
ഭ്	6004
ൊത	6005
##re	6006
##ഖ്	6007
ുക്	6008
കളം	6009
വാവ	6010
സുര	6011
സംഘം	6012
റുണ്ട	6013
ോകു	6014
ഘവ	6015
ബഫ	6016
ലത്ത്	6017
ൽബ	6018
ാനങ്ങ	6019
ിച്ചാ	6020
പാണ്	6021
്വം	6022
്വന്ത	6023
160	6024
പടം	6025
ഗിച്ച	6026
ാകരന്	6027
ടപ്പാ	6028
ൾസർ	6029
ശൂര	6030
em	6031
ഐഷ	6032
ഓം	6033
ചന്	6034
ഥ്	6035
ലവ്	6036
ളുകള്	6037
ൊന്	6038
ാനാണ	6039
്യയില	6040
രാന്	6041
അതെ	6042
അനുമ	6043
ിടക	6044
ലുമാ	6045
പകൽ	6046
ർഡ്	6047
##ail	6048
ചന്ദ്	6049
ഹത്	6050
ൈമാ	6051
ൻപ	6052
്രമേ	6053
യിപ്പ	6054
ക്തമാ	6055
്ഷന്	6056
സോണി	6057
്ഥാനമ	6058
ോദിയ	6059
േതാവ	6060
er	6061
vi	6062
ഐഡി	6063
ണമാ	6064
ശങ്ങ	6065
ഹായ	6066
ിതി	6067
ുത്	6068
ൽവ	6069
##ce	6070
ിൻ്റ	6071
700	6072
മ്പോൾ	6073
യതായി	6074
ംവിധ	6075
മക്	6076
യങ്ങൾ	6077
സക	6078
സത്ത	6079
ോപാ	6080
##it	6081
ിയിലെ	6082
പരീ	6083
നുഷ	6084
ഫാം	6085
180	6086
്മിറ	6087
ണക്കാ	6088
കമാണ	6089
മധു	6090
കരുത്	6091
ടെയാണ	6092
ന്വേഷ	6093
htt	6094
ലാന	6095
ിപാ	6096
##er	6097
കോൾ	6098
മനം	6099
റിക്	6100
െങ്കി	6101
്പല	6102
്വദേശ	6103
ാരാണ	6104
ാസിക	6105
ത്തുവ	6106
ശാസ	6107
െയ്തി	6108
ോഴും	6109
മനുഷ്	6110
org	6111
സ്താവ	6112
സകല	6113
ഫർമ	6114
ലത്	6115
ുപ്	6116
്ബു	6117
നിങ്	6118
റ്റുക	6119
സിഐ	6120
ടുള്ള	6121
ഗ്രത	6122
റിറ്റ	6123
യ്ക്	6124
നുസര	6125
ണിച്ച	6126
രിയില	6127
രേന്ദ	6128
സ്സില	6129
ുമ്പോ	6130
രിനെ	6131
കറ്റി	6132
അരി	6133
ഇത്ത	6134
എട്ട	6135
ഥിയ	6136
ഹബ	6137
ൂണ്ട	6138
ുന്നി	6139
ഇടയ	6140
്റ്റന	6141
വിലക	6142
തിലു	6143
്ഷാ	6144
ുസ്ലി	6145
േരില്	6146
ഴിവു	6147
വസാ	6148
ാരുടെ	6149
ഇസ്	6150
കപ	6151
തപ	6152
നപ്പ	6153
യസ്	6154
ാമാ	6155
ുതി	6156
##ad	6157
##in	6158
്യക്ഷ	6159
രുദ്ധ	6160
ട്രീയ	6161
ികളായ	6162
ഞ്ഞെ	6163
സെക്ര	6164
്തൂ	6165
ളിപ	6166
ബീന	6167
തുമെ	6168
്തോളം	6169
തത	6170
സുക	6171
ഹയർ	6172
ൽഫ	6173
##ബി	6174
##ഗ്ര	6175
നിക്ഷ	6176
പ്രയ	6177
യാമ	6178
്യാമ	6179
സിൻ	6180
രുമായ	6181
തോഷ	6182
്കാ	6183
വുന	6184
ിഎമ്മ	6185
ലമെ	6186
യതോ	6187
ഡ്രൈ	6188
ഗിക്ക	6189
രക്കാ	6190
ചവറ	6191
pro	6192
ഫിന	6193
രേഷ	6194
ളര	6195
ൂറി	6196
ൊക്	6197
്റോ	6198
കേര	6199
ട്രീ	6200
റാത്ത	6201
ദ്യേ	6202
164	6203
!!	6204
ഥയ	6205
ളിൽ	6206
െറു	6207
ൈയ	6208
നിരു	6209
പോർ	6210
നാര്	6211
ഡിക്ക	6212
ആശാ	6213
ിടെയ	6214
്പിക്	6215
അമല	6216
അബു	6217
ആക്ര	6218
ദഗ്	6219
ബൽ	6220
മഥ	6221
രത്ത്	6222
ശിക	6223
ാവര	6224
ിഷേ	6225
വിറ	6226
ഒരുക	6227
ണ്‍	6228
ലാൽ	6229
്തമ	6230
105	6231
ദിച്ച	6232
ീപിന	6233
്രീം	6234
ല്ലുവ	6235
യുകയ	6236
ഇളയ	6237
ഥിയാ	6238
പോർട്	6239
ac	6240
nt	6241
res	6242
ആനി	6243
യവര	6244
രമേ	6245
രഖ്	6246
ഹത്തി	6247
ർവ്	6248
്യന്ത	6249
ിച്ചെ	6250
നേഷ	6251
ബാക്	6252
്ലായ	6253
ാമ്യ	6254
യ്യാന	6255
്തപ	6256
102	6257
ടേം	6258
മന്ത്	6259
രാവില	6260
al	6261
me	6262
എഐ	6263
പള	6264
ഭട	6265
ളില	6266
ീഴ	6267
ൂരു	6268
##ുര	6269
കൊറ	6270
സാം	6271
മിതി	6272
നുണ്ട	6273
തലം	6274
ാറു	6275
ആണവ	6276
െയ്തത	6277
##dia	6278
രേഷ്	6279
ംഭി	6280
ഉന്	6281
ഊഹ	6282
കസ	6283
ഡവ	6284
രവേ	6285
റത്ത്	6286
സത്	6287
ീരുമ	6288
ൺഗ്ര	6289
യാൻ	6290
്യുമ	6291
101	6292
മാനത	6293
അസൽ	6294
്തപുര	6295
ൺഗ്രസ	6296
ഗജ	6297
ടൗ	6298
തന്ത	6299
ബബ	6300
ാടു	6301
ുതല	6302
ൃപ	6303
്ച്ച	6304
##രുട	6305
മുക്ക	6306
വാക	6307
കാരു	6308
കായ	6309
ികയില	6310
്പം	6311
ാഗമ	6312
ുവെ	6313
റുന്ന	6314
107	6315
ദ്യോ	6316
170	6317
െട്ടാ	6318
അഭയ	6319
ക്ലാസ	6320
ഋതു	6321
ധീന	6322
മയി	6323
്ടതാ	6324
വെന	6325
അവരുട	6326
ല്ലിയ	6327
ംഗീ	6328
റാക	6329
ാരാഷ്	6330
ക്തിക	6331
്റന	6332
ൻസല	6333
ളുട	6334
യനാ	6335
ഭീം	6336
നകം	6337
ർന്നു	6338
സൃഷ്	6339
lo	6340
ടാണ്	6341
മേശ	6342
െത	6343
ൊതു	6344
##ss	6345
മുന	6346
മുസ	6347
സ്ലീ	6348
ികയാ	6349
്പർ	6350
സീമ	6351
സർക്ക	6352
ചിട്ട	6353
ംഗത	6354
ാഗസ	6355
ഷ്ടമ	6356
ധിപ	6357
്നല	6358
114	6359
അങ്ങന	6360
സുധാ	6361
ഗഫ	6362
ദോ	6363
പടിയ	6364
ലമായ	6365
ാറി	6366
ത്തവ	6367
ിലപ	6368
ിട്ടാ	6369
താവന	6370
തുക്	6371
നാൾ	6372
ായിരി	6373
ലോൺ	6374
മ്മേ	6375
ികളില	6376
സെൽ	6377
ാറിയ	6378
103	6379
112	6380
്യതയ	6381
ുക്കാ	6382
350	6383
ഒമർ	6384
ഉംറ	6385
സ്രാ	6386
ഉമാ	6387
റക്	6388
ലഭ	6389
ളശ	6390
ഷൺ	6391
ാപാ	6392
##la	6393
##ഴവ	6394
##ൈവ	6395
തുവ	6396
ട്ടിര	6397
അനുക	6398
കൈവ	6399
ഞ്ഞത	6400
ൊന്നു	6401
ക്തിയ	6402
െട്ട്	6403
യന്ത്	6404
ലീസിന	6405
con	6406
ഇപ്പോ	6407
ii	6408
ണര	6409
യച	6410
വദേ	6411
വട്	6412
ട്ടര	6413
കാഴ്	6414
റിമ	6415
ാക്കൾ	6416
ശേഷമാ	6417
ചോര	6418
റോണ	6419
ളിക്	6420
േഷണ	6421
ഗാസ	6422
േശം	6423
രേന്	6424
ുപ്പു	6425
https	6426
to	6427
ആപ്	6428
ണസ	6429
പള്ള	6430
ബം	6431
ഷല	6432
ഹോദര	6433
ീഡി	6434
ീക്ഷി	6435
േത്ര	6436
ൊന	6437
##cc	6438
##ഷി	6439
മുള്	6440
്യപ	6441
ടുതല	6442
ദേശിന	6443
ണിയി	6444
ാരങ്ങ	6445
തയ്	6446
ലാത്ത	6447
104	6448
്മീ	6449
ധിക്	6450
111	6451
ഷീബ	6452
ോഗി	6453
ബദൽ	6454
ടൗൺ	6455
01	6456
ch	6457
ഗിന	6458
ഗിക	6459
പും	6460
യമാണ്	6461
േരാ	6462
െന്നാ	6463
പോസ	6464
ന്നതാ	6465
ായാ	6466
ക്ഷണം	6467
്പന്	6468
ആശയ	6469
െയെ	6470
ത്യക	6471
റിലാ	6472
119	6473
കൺസ	6474
്രെയി	6475
ഫയർ	6476
ct	6477
de	6478
ne	6479
അക്ര	6480
ഘോ	6481
ണൂ	6482
പവർ	6483
ലഷ	6484
ഴില	6485
ഷബ	6486
ൽക	6487
ച്ചക	6488
ട്ടയം	6489
പിഐ	6490
പാടിയ	6491
കാത	6492
ക്കായ	6493
ശേഷമ	6494
ഡോക	6495
കാലാ	6496
ഴ്ചയ	6497
സ്ത്	6498
ആലപ	6499
വധു	6500
പവൻ	6501
ar	6502
ഏര	6503
ടികള	6504
ണുക	6505
ൗദ	6506
ർച്	6507
##as	6508
##id	6509
##df	6510
##pe	6511
ിയൊ	6512
റ്റാണ	6513
ിന്ന്	6514
കാരാ	6515
സ്ഥര	6516
ട്ടിട	6517
ുത്ത്	6518
കേരളം	6519
്പോര്	6520
കടൽ	6521
106	6522
113	6523
240	6524
ൊണ്ടി	6525
ൊണ്ട്	6526
##are	6527
prote	6528
ce	6529
cp	6530
for	6531
ടപ	6532
ടൊ	6533
നക്	6534
വക്	6535
സ്സ്	6536
്ടോ	6537
122	6538
ഏതോ	6539
117	6540
ണ്ടാം	6541
ാരനാ	6542
രന്റെ	6543
cte	6544
ആരു	6545
എവി	6546
ഗല	6547
ഞെ	6548
തബ	6549
പരം	6550
യതു	6551
രഥ	6552
റൻസ	6553
ലഫ	6554
ലസ്	6555
##ൂഡ	6556
##ൌൺ	6557
കേറ	6558
പിൽ	6559
ടുക	6560
തുള്	6561
വന്നത	6562
ണമെ	6563
യോഗ്	6564
്റ്റഡ	6565
ാഗി	6566
്കില്	6567
230	6568
ക്കലു	6569
രഘു	6570
email	6571
ൂണ്ടി	6572
cted	6573
po	6574
എഎം	6575
മീഷ	6576
രികള	6577
ശല	6578
ാമന	6579
ൂക	6580
ൃഷ	6581
േണ്	6582
ൗണ്	6583
##im	6584
ിലര	6585
യാഴ	6586
ോടിയ	6587
ദേശിയ	6588
തൃത	6589
ഷിക്	6590
്യുന	6591
118	6592
175	6593
280	6594
മണൽ	6595
ാധിപ	6596
അഭിന	6597
ൻവറ	6598
en	6599
ks	6600
nic	6601
of	6602
rs	6603
ഊര	6604
ഔഷ	6605
കറി	6606
ചയി	6607
തരു	6608
ധ്	6609
ബള	6610
ഹൂഡ	6611
ുന്നോ	6612
ിലു	6613
്രാമ	6614
ാവിന	6615
ലിക്	6616
ാരന്	6617
രമം	6618
145	6619
ാനമാണ	6620
നിമയ	6621
ഗീത	6622
മ്മേള	6623
ഔഷധ	6624
ടമായ	6625
ദഹ	6626
ധമ	6627
യദ	6628
രൻ	6629
ഷമി	6630
ീതിയ	6631
േശി	6632
ൈനി	6633
ൾക	6634
##il	6635
കാൽ	6636
ാലക്ക	6637
നീല	6638
കളിലെ	6639
്താന	6640
ിയാക	6641
്ഷത	6642
135	6643
ണുന്ന	6644
കരണം	6645
ഴിവാ	6646
ഞ്ഞിട	6647
ംവിധാ	6648
ളിലും	6649
se	6650
കച്ച	6651
ഡൌൺ	6652
നഖ	6653
ബയോ	6654
യഹ	6655
യമായി	6656
രൈ	6657
രങ്ങൾ	6658
റുപ	6659
ഹല	6660
മാധ	6661
പാൻ	6662
ികമായ	6663
രുമാ	6664
്കറ	6665
124	6666
115	6667
116	6668
്റാ	6669
220	6670
450	6671
india	6672
ോഗം	6673
ൂപീ	6674
മ്പോള	6675
ഡയറക്	6676
ിമുട	6677
ഈന	6678
എണ്	6679
ഗൺ	6680
ചര	6681
ജര	6682
മൻസ	6683
രയും	6684
റര്	6685
ലങ്ങള	6686
ിധ	6687
##ap	6688
##de	6689
##ur	6690
##ut	6691
ങ്ങാന	6692
്യക്ക	6693
പാൽ	6694
കാള	6695
്പ്	6696
ട്രെ	6697
കിൽ	6698
ഓഫർ	6699
തയ്യ	6700
ാമസി	6701
ുപട	6702
രേയ	6703
ൾക്കു	6704
േർന്ന	6705
900	6706
ആഴം	6707
ഫഷന	6708
ഫസർ	6709
da	6710
sh	6711
ഋഷി	6712
ഓൺ	6713
കരാ	6714
നൗ	6715
രഭ	6716
രമന	6717
ററി	6718
ലത്തെ	6719
ൂമ	6720
##യിൽ	6721
സ്ബു	6722
കുന	6723
്ടര്	6724
ബിജ	6725
കൂറ	6726
ാലക	6727
ഡിക്	6728
്വയ	6729
്ലയ	6730
ാളു	6731
്തുകള	6732
ശാന്	6733
രിയും	6734
ീസിന	6735
ദ്രത	6736
്യാര്	6737
403	6738
ാഭ്	6739
ഏഴര	6740
െട്ടു	6741
ാക്സ	6742
യയെ	6743
care	6744
oo	6745
ഓവർ	6746
കങ്ങ	6747
കവി	6748
കയാ	6749
നമായി	6750
രൽ	6751
റഡ	6752
ളീ	6753
ുഷ്യ	6754
ുഴു	6755
െപ	6756
ൻമ	6757
ർട്	6758
##li	6759
##ne	6760
ക്കത	6761
ിയന	6762
ബാർ	6763
ക്ഷം	6764
ോടതിയ	6765
ിടാ	6766
്കാര	6767
ഷനു	6768
റിയില	6769
യ്യും	6770
109	6771
യത്തി	6772
ിമര	6773
്ചേ	6774
137	6775
ഷോൺ	6776
്പൂര	6777
കൺവ	6778
ing	6779
ഹംസ	6780
രനെ	6781
രവാദ	6782
the	6783
kar	6784
ri	6785
ഇകെ	6786
എബി	6787
ഐജി	6788
ഓൾ	6789
ണിക	6790
തടി	6791
നത്	6792
ബലി	6793
യക്	6794
രമാ	6795
ളന	6796
ളുമ	6797
ഷർ	6798
സബ	6799
ഹറ	6800
പ്പുക	6801
്രന്	6802
രാഹ	6803
്ടറ	6804
റ്റവ	6805
പിത	6806
സാക	6807
ണ്ടത	6808
ട്ടിപ	6809
ജനന	6810
അന്വ	6811
ാരവ	6812
ിഡന്	6813
ാമസ	6814
ചികി	6815
128	6816
126	6817
149	6818
132	6819
182	6820
165	6821
ഷീല	6822
ുമാനമ	6823
രയില്	6824
cov	6825
ുമുള്	6826
02	6827
ഇല്ലാ	6828
ജൈവ	6829
ടല്	6830
തമാണ	6831
ലര	6832
വംഗ	6833
ഹമ	6834
ഹിന	6835
ീഗ	6836
െണ്	6837
##ri	6838
ന്നറ	6839
പാടി	6840
ടുത	6841
ുമി	6842
പേരാണ	6843
ടക്കു	6844
്ലു	6845
മാറിന	6846
വിമർ	6847
ആരംഭ	6848
കലും	6849
അയൽ	6850
131	6851
136	6852
190	6853
ടോൾ	6854
ിഗണ	6855
ിർദ്ദ	6856
പനങ്ങ	6857
ഇനം	6858
യപ്പെ	6859
am	6860
ni	6861
ul	6862
ഇതി	6863
ഈസ്	6864
രളം	6865
ലഖ	6866
വമ	6867
ശർമ	6868
െളിവ	6869
ർസ	6870
്രവാ	6871
ങ്ങളാ	6872
ായമ	6873
്പമ	6874
റെയും	6875
്പോള	6876
തൊഴി	6877
ഷണത്ത	6878
നെന്	6879
ാമ്	6880
ശാസ്	6881
െടാ	6882
മീര	6883
യുവത	6884
154	6885
121	6886
129	6887
യൊര	6888
േരത്ത	6889
ശുഭ	6890
ാജ്യ	6891
ടർന്ന	6892
്രവാസ	6893
04	6894
ംഘ	6895
ഗൃ	6896
ഗസ്	6897
ചര്യ	6898
പന്	6899
പാര	6900
ഷവ	6901
ാഭ്യ	6902
ാഹന	6903
േളന	6904
ൗകര	6905
ർണാ	6906
##jp	6907
ികൃത	6908
വീഡി	6909
പറയാ	6910
മേട	6911
മ്മദ്	6912
ാർട്	6913
്വന	6914
്വത്ത	6915
്കപ്പ	6916
റുള്ള	6917
ാതിരി	6918
ിഞ്ഞത	6919
െല്ലു	6920
320	6921
ുബാ	6922
യുകയാ	6923
ഇനിയ	6924
ആദം	6925
സുധാക	6926
ണൂര്	6927
ഗൃഹ	6928
ൗകര്യ	6929
05	6930
it	6931
ss	6932
te	6933
ഇഎ	6934
ഊണ	6935
ഖോ	6936
ഗൂ	6937
ജേ	6938
ണക്കി	6939
ദ്രമ	6940
പശ	6941
ഫൻസ	6942
ശമ	6943
ഷിയ	6944
ഹങ്ങ	6945
സ്‌	6946
്യക	6947
കോര	6948
ന്നാല	6949
ന്തപ	6950
സർക	6951
ഞ്ഞാല	6952
വിജയന	6953
്കയ	6954
ത്യമാ	6955
ാളിക	6956
നോൺ	6957
്തം	6958
്തത	6959
തേക്ക	6960
മീൻ	6961
ലെന്	6962
ാരണം	6963
ുവിന്	6964
ീഷന	6965
ർത്തന	6966
194	6967
174	6968
750	6969
5ജി	6970
ip	6971
nor	6972
ra	6973
ഗഗ	6974
ഗനി	6975
തഹ	6976
ഭവി	6977
രാര	6978
രക്	6979
റഗ	6980
ളേജ	6981
ഹകര	6982
ുതൽ	6983
ോഴി	6984
##us	6985
##fi	6986
പ്പര	6987
മാധ്യ	6988
ന്ധി	6989
തിന്റ	6990
സാർ	6991
ുമ്	6992
തുണ്ട	6993
നാൽ	6994
ികം	6995
ുറന	6996
്പും	6997
്വസ	6998
റെയി	6999
ക്രട	7000
ാകു	7001
ാകാ	7002
ഹിന്	7003
റിയത	7004
യ്യു	7005
ിലാക	7006
ദിശ	7007
ദ്യമ	7008
ലെന	7009
ഷംന	7010
അമ്മയ	7011
ഡിഎഫ്	7012
243	7013
ഗാന്	7014
142	7015
139	7016
സോണ	7017
224	7018
മ്മുട	7019
സഫ്	7020
യയില്	7021
ഫുൾ	7022
കപട	7023
be	7024
bjp	7025
ed	7026
gm	7027
ge	7028
ic	7029
ആൽ	7030
ഉഴവ	7031
മടി	7032
റയാ	7033
ളുക	7034
വൃത	7035
ഷൽ	7036
ൻബ	7037
##ms	7038
##ul	7039
യിലി	7040
ിയയ	7041
ിയതാ	7042
ട്ടാണ	7043
ാണെ	7044
്കിൽ	7045
ഗുര	7046
ത്യന	7047
മീണ	7048
മീന	7049
ജാഥ	7050
146	7051
138	7052
188	7053
ൂരില്	7054
െക്കു	7055
വധഗ	7056
കൺഫ	7057
425	7058
ൾഡൻ	7059
്ലെന്	7060
്ദാ	7061
്ദ്രത	7062
സൃഷ്ട	7063
സുകാര	7064
3ന്	7065
jo	7066
ty	7067
അള	7068
ഇൽ	7069
ഊഴ	7070
ഖമ	7071
ജബ	7072
ജിവ	7073
ടറ	7074
തൻ	7075
ഭക	7076
രഗ	7077
രത്തി	7078
ഷൈ	7079
ിച	7080
ുപടി	7081
ൽപ്	7082
##so	7083
##ac	7084
്രദ	7085
രാത	7086
രാവി	7087
നേജ	7088
ന്നാണ	7089
റ്റിക	7090
വാണ്	7091
ടുതൽ	7092
രിന്	7093
ടിം	7094
ാണാ	7095
തലേ	7096
ണിപ്പ	7097
്കള	7098
്കിന	7099
153	7100
കയാണ	7101
്നില	7102
134	7103
193	7104
181	7105
സോൺ	7106
ോഗികള	7107
്ട്രീ	7108
കെടുക	7109
read	7110
കസബ	7111
യനാട്	7112
oots	7113
9ന്	7114
do	7115
is	7116
no	7117
അണി	7118
ആള്	7119
ധം	7120
നില്ല	7121
മകര	7122
റക്ട	7123
ലൊ	7124
വഡ	7125
ാങ്ങി	7126
ുരള	7127
ൊള	7128
ൻക	7129
ർധ	7130
##me	7131
##ha	7132
ിലക്	7133
യുപ	7134
തിക്	7135
കോയ	7136
ുണ്ടെ	7137
ന്നില	7138
വരൻ	7139
സാറ	7140
ാലക്	7141
്പത	7142
ഇടവ	7143
സൗര	7144
ിവസ	7145
ലൈം	7146
യത്തു	7147
ബോറ	7148
കലു	7149
ധനം	7150
വനക്ക	7151
151	7152
127	7153
123	7154
്നറ	7155
ജാഗ	7156
ിങ്ങൾ	7157
133	7158
നയില്	7159
210	7160
നിൽക	7161
വശം	7162
##alam	7163
cois	7164
യ്തു	7165
തുണയ	7166
ശ്യപ്	7167
്തോള	7168
ാറിന്	7169
covid	7170
gmail	7171
%,	7172
1ന്	7173
cr	7174
ldf	7175
mala	7176
ro	7177
കയാണ്	7178
ഖന	7179
ഝാ	7180
നമാ	7181
യയിൽ	7182
രപ	7183
റര	7184
റയി	7185
ലധ	7186
ലീപ	7187
ഷര	7188
ഷൂ	7189
ുടു	7190
ുങ്	7191
##ag	7192
##യെ	7193
യുന	7194
പാഷ	7195
ണ്ടെന	7196
നിലപാ	7197
ബാവ	7198
മിത്	7199
്വന്	7200
സൂര്	7201
നുവദ	7202
ണിച	7203
്കത്ത	7204
്കാന	7205
കടമ	7206
ിപിഎ	7207
ലീന	7208
സൈനി	7209
141	7210
രണയ	7211
സാധിക	7212
ര്യമാ	7213
176	7214
ളുണ്ട	7215
ഘടക	7216
270	7217
310	7218
അജു	7219
മണർ	7220
രസം	7221
550	7222
and	7223
also	7224
പശു	7225
ഖനന	7226
07	7227
08	7228
03	7229
8ന്	7230
ai	7231
ap	7232
cm	7233
ex	7234
he	7235
le	7236
mo	7237
mla	7238
ആൺ	7239
ഈഴവ	7240
ഐബി	7241
ഖഷ	7242
ടാന	7243
യങ്	7244
ലതാ	7245
ഹോട്	7246
ീനി	7247
േധ	7248
േറ്	7249
്ധി	7250
##se	7251
പ്പള	7252
വിച	7253
മുണ്	7254
തിച	7255
തിജ	7256
്രാന	7257
രാഷ	7258
കുന്	7259
ന്നവ	7260
പിക്ക	7261
ുമത	7262
സ്വയ	7263
തിനും	7264
കെഎ	7265
മുഖ്	7266
ഭാര്	7267
ാവശ	7268
ചേരു	7269
കിന്	7270
ുരത	7271
കേസു	7272
ത്യൻ	7273
ത്യന്	7274
മലയാ	7275
ാസം	7276
ലീല	7277
152	7278
143	7279
ഹാജര	7280
ബുക്	7281
183	7282
േശത്ത	7283
177	7284
കമൽ	7285
കാനാണ	7286
ംശയ	7287
നക്കാ	7288
420	7289
ധീര	7290
െരഞ്ഞ	7291
ോയെ	7292
ഇഷാ	7293
ഗീകരി	7294
ംഗീക	7295
06	7296
6ന്	7297
dr	7298
mm	7299
nb	7300
ry	7301
un	7302
ഈർ	7303
കവർ	7304
ബഗ	7305
ശമാ	7306
ഷമായി	7307
ഹൗ	7308
ിവര്	7309
ൂച	7310
ോവി	7311
##av	7312
##ശോ	7313
##pc	7314
##nt	7315
മാൻ	7316
ാനായ	7317
രാക്	7318
കോം	7319
ന്നതി	7320
നാഗ	7321
നാലെ	7322
അതാ	7323
പൊള	7324
രൂപീ	7325
മ്മീ	7326
രീന	7327
ാധാര	7328
ാമൂ	7329
മഴവ	7330
ആലം	7331
201	7332
157	7333
156	7334
്നത	7335
147	7336
ടാന്	7337
179	7338
178	7339
173	7340
163	7341
ഗൗഡ	7342
ലയു	7343
213	7344
ഴിയാ	7345
േരാണ്	7346
5ന്	7347
7ന്	7348
bi	7349
bo	7350
ho	7351
la	7352
ma	7353
sc	7354
ti	7355
yalam	7356
അഥ	7357
ഊരി	7358
ഖര	7359
ഗികള	7360
ജമാ	7361
ഡഡ	7362
തരി	7363
ദസ	7364
ധക	7365
ധമായ	7366
ളഗ	7367
ശിന	7368
ിചാര	7369
ീരി	7370
ർഭ	7371
ർആ	7372
ൽജ	7373
##ys	7374
വിദ്	7375
ാനിക	7376
്ടേ	7377
നേർ	7378
ക്‌	7379
തെന	7380
ടിപ്	7381
്പിന	7382
്പള്ള	7383
പക്ഷത	7384
ദ്ധിക	7385
ാർക	7386
സൂം	7387
കരൾ	7388
്തുമ	7389
ിലൂട	7390
202	7391
159	7392
158	7393
ദ്രം	7394
198	7395
185	7396
ൻസൻ	7397
ിഎസ	7398
െൻറ	7399
പാതക	7400
212	7401
216	7402
225	7403
സ്സു	7404
272	7405
295	7406
യവു	7407
കമ്പന	7408
543	7409
ലഹള	7410
ദോഹ	7411
ടുതല്	7412
്ലുവ	7413
ipl	7414
ആൽഫ	7415
??	7416
at	7417
ad	7418
gh	7419
nat	7420
udf	7421
we	7422
ആഘ	7423
ആറോ	7424
ഈസ	7425
ഈശോ	7426
ഊർ	7427
ഓർമ	7428
ഔൺ	7429
കഷ	7430
ഗദ	7431
ചില്	7432
ദ്യാ	7433
ററ	7434
വത്തി	7435
ഷഹന	7436
സപ	7437
െള്ള	7438
ൊവി	7439
ർന്ന്	7440
##ാം	7441
##ge	7442
##ഡ്	7443
ക്കള്	7444
മാള	7445
യാഴ്	7446
ിയുമ	7447
യെത	7448
നാർ	7449
ംബന	7450
്വീ	7451
യൂണ	7452
ഡോൺ	7453
തലാ	7454
്കെയ	7455
ാരത്ത	7456
തയു	7457
ാറായ	7458
ിയാക്	7459
്നിവ	7460
ടിയെ	7461
245	7462
ഫാൻ	7463
റൂൾ	7464
162	7465
169	7466
167	7467
്ധതി	7468
ലയന	7469
ലിയില	7470
ഭവൻ	7471
ജഗത	7472
രചന	7473
##ain	7474
തഴവ	7475
vir	7476
ചരൺ	7477
ഊർജ	7478
ഔൺസ	7479
09	7480
4ന്	7481
ab	7482
hi	7483
ir	7484
ive	7485
li	7486
nd	7487
rat	7488
wh	7489
ംസ്ഥ	7490
ആൻ	7491
ഇഇ	7492
ഈഴ	7493
ഐസ്	7494
ഐസി	7495
കയും	7496
ഗൽ	7497
ജില്	7498
യഥ	7499
രൾ	7500
രവര്	7501
വ്ര	7502
സ്റ	7503
ിപത	7504
ൈയി	7505
്ദി	7506
ൽഗ	7507
##sc	7508
മാൾ	7509
വിന്റ	7510
യിലേ	7511
്യല്	7512
ാലത	7513
ാവധ	7514
വർമ	7515
വർഗ	7516
ുടക്	7517
മണിക്	7518
ഷണൽ	7519
റാന്	7520
റോൾ	7521
ലാളി	7522
്തന	7523
കൗർ	7524
രണങ്ങ	7525
506	7526
േരില	7527
ർഷം	7528
275	7529
340	7530
ആറര	7531
650	7532
രികയ	7533
ർഘദ	7534
്ദു	7535
ശുപത	7536
രനായ	7537
vide	7538
cpm	7539
video	7540
ae	7541
di	7542
iv	7543
mp	7544
mar	7545
su	7546
sp	7547
wcc	7548
ഇഖ	7549
ഈദ്	7550
എഗ	7551
എച്ച	7552
ഒപി	7553
കടി	7554
ഘർ	7555
ചയ	7556
ഡസ	7557
ദൈവ	7558
റീന	7559
ലയ്	7560
വങ്ങ	7561
വടി	7562
വസി	7563
സധ	7564
ിരുത	7565
ീടു	7566
േന്	7567
ോധി	7568
##ma	7569
##el	7570
##ct	7571
##ya	7572
ച്ചതെ	7573
പ്രസി	7574
രാല	7575
കുത	7576
ിരെ	7577
കേട്	7578
രിയി	7579
രിമാ	7580
രുഷ	7581
നിയമസ	7582
പരിപ	7583
ലിന്റ	7584
ഡോർ	7585
സൂര	7586
കിയത	7587
ുവന്	7588
ത്യമ	7589
ോർട്	7590
്തേ	7591
യത്ത്	7592
203	7593
ിയാഴ്	7594
്ചി	7595
ടിയായ	7596
മാർക്	7597
148	7598
302	7599
ർത്തക	7600
191	7601
197	7602
189	7603
ൻസൺ	7604
239	7605
233	7606
ജഡം	7607
312	7608
293	7609
323	7610
ഭവം	7611
360	7612
ടപ്പെ	7613
ലവറ	7614
്പിന്	7615
മ്പോഴ	7616
ാവിന്	7617
ിവാദ	7618
##air	7619
http	7620
ിലുള്	7621
caree	7622
--	7623
pm	7624
pl	7625
qu	7626
si	7627
tr	7628
ഇക്	7629
ഇജെ	7630
ഈല	7631
ഈഡ	7632
ഉല	7633
ഉൻ	7634
ഐയെ	7635
ഖദ	7636
ഖേര	7637
ഗതാ	7638
ഘം	7639
ടവർ	7640
തൈ	7641
നജ	7642
നദി	7643
മണം	7644
മീപ	7645
രബ	7646
രന്ത	7647
ളപ	7648
ഴും	7649
ശശ്	7650
ഷമാ	7651
ഷിത	7652
േപ	7653
ൾവ	7654
മാണി	7655
ച്ചപ	7656
യിലൂ	7657
ിയപ്പ	7658
ട്ടവ	7659
പിൻ	7660
വരൂ	7661
റിഫ	7662
ുറയ	7663
അതേസ	7664
ജിഷ	7665
വയു	7666
്കു	7667
ാസ്ത	7668
േസുകള	7669
204	7670
155	7671
രമല്ല	7672
ോടെയ	7673
ീറ്റി	7674
242	7675
ഗാൾ	7676
്ഷണ	7677
ോലീ	7678
161	7679
168	7680
വകാര	7681
പഴം	7682
പെടുക	7683
സനു	7684
ിത്രം	7685
##ali	7686
്രസില	7687
്ളൂ	7688
ണ്ണൂര	7689
എങ്ങന	7690
അദ്ദേ	7691
നെയാണ	7692
ബഫർ	7693
്യതയു	7694
ടപട	7695
ഖോസ	7696
tips	7697
്തേക	7698
2ന്	7699
6e	7700
ix	7701
ju	7702
mk	7703
on	7704
vs	7705
yo	7706
അജി	7707
എഴ്	7708
ഐപി	7709
ഖബ	7710
ഘടി	7711
ചൗ	7712
ടില	7713
ഡൈ	7714
ദറ	7715
ന്പ	7716
നവി	7717
ബത്	7718
മയം	7719
യതിന്	7720
യസ്സ	7721
രസി	7722
ശക്	7723
ാങ	7724
ാഷ്ട	7725
േരെ	7726
ർള	7727
##ak	7728
##ll	7729
##ജ്	7730
പ്രച	7731
യുഡ	7732
്രങ്ങ	7733
ഒരുപ	7734
താഹ	7735
നാശ	7736
തീം	7737
ത്രക	7738
ത്രിയ	7739
്പനി	7740
സർഷ	7741
ലിറ	7742
കൃപ	7743
ാകി	7744
ഹിമ	7745
ഇക്കാ	7746
നോക്	7747
ണറാ	7748
ിമർ	7749
ജയന്	7750
േഷി	7751
205	7752
208	7753
കയെ	7754
്നേ	7755
ബെം	7756
രോപ	7757
304	7758
195	7759
184	7760
166	7761
്ധമാ	7762
211	7763
219	7764
222	7765
228	7766
234	7767
232	7768
288	7769
354	7770
290	7771
ലൂടെ	7772
328	7773
332	7774
330	7775
376	7776
ധവള	7777
മയത്ത	7778
മൃഗ	7779
440	7780
രതിന	7781
540	7782
ശ്യം	7783
ഉഷാ	7784
ണർവ	7785
act	7786
net	7787
ഈനല	7788
ults	7789
ഷൈൻ	7790
ght	7791
viral	7792
as	7793
ca	7794
ng	7795
ndia	7796
one	7797
pa	7798
so	7799
sr	7800
ve	7801
wor	7802
അർ	7803
ഊള	7804
കക്	7805
ണപ	7806
ഥല	7807
ദൽ	7808
ധിത	7809
പഴി	7810
ഫർ	7811
ബൻ	7812
ബധ	7813
ബൺ	7814
യജ	7815
ലശ	7816
ളൻ	7817
ളറ	7818
ളേ	7819
ഴഗ	7820
ശോധ	7821
ഷപ്	7822
സഥ	7823
െച്ച്	7824
ൊലീ	7825
ർക	7826
ർഫ	7827
ൾറ	7828
‌‌	7829
##ci	7830
##th	7831
##um	7832
##pr	7833
##ഗോ	7834
നിവര്	7835
്യാപന	7836
കുപ	7837
നേഹ	7838
കൊവി	7839
ുകയായ	7840
ബിഎ	7841
നിലവി	7842
ടിൽ	7843
്പില്	7844
ന്ററ	7845
ജിം	7846
മോൾ	7847
തലത	7848
ടെന്ന	7849
ഹൈക	7850
ലാഭ	7851
ലാത	7852
ാനാര്	7853
മീശ	7854
ജൂത	7855
209	7856
206	7857
രിയു	7858
കയർ	7859
കയായി	7860
ജാം	7861
ിഹാര	7862
196	7863
്യാർ	7864
187	7865
171	7866
ിഞ്ഞി	7867
214	7868
വധം	7869
236	7870
283	7871
294	7872
375	7873
365	7874
430	7875
ബദറ	7876
cop	7877
ർഘവ	7878
അമൽ	7879
560	7880
##ish	7881
ൈറസ്	7882
ഐഷി	7883
cpim	7884
##ime	7885
ഗൂഢ	7886
dis	7887
fi	7888
ha	7889
ko	7890
mb	7891
mg	7892
ns	7893
nce	7894
tw	7895
ആട്	7896
ഈഗോ	7897
എബ	7898
എലി	7899
ഗിൽ	7900
ദൂ	7901
ദില്ല	7902
നതു	7903
ഫഖ	7904
ബൾ	7905
ഭൗ	7906
ഭിന	7907
മഷ	7908
റപ്	7909
ളവര്	7910
ഹച	7911
ഹഖ്	7912
ാദേ	7913
ോരാ	7914
ൻച	7915
ൻഫ	7916
ൽന	7917
##bi	7918
##et	7919
##ot	7920
##ro	7921
##ws	7922
##fe	7923
##fl	7924
##ആർ	7925
്രായ	7926
ിയെട	7927
്യയ	7928
കുവ	7929
കുകള	7930
നടപ	7931
്ടർ	7932
സിന്റ	7933
വാൻ	7934
സമീ	7935
രിപ	7936
ജനൽ	7937
മേഘ	7938
രൂപ്	7939
സീൽ	7940
സീൻ	7941
ക്കളു	7942
നിരീ	7943
ുടര	7944
ങ്കെ	7945
ാഗത്	7946
ിതത്	7947
തൃപ	7948
റിയു	7949
കരന	7950
യ്യുക	7951
സമ്പര	7952
ദിഷ	7953
ല്ലാത	7954
ആയോ	7955
രിയെ	7956
കയില്	7957
ടിയാണ	7958
248	7959
ബഹദ	7960
നമോ	7961
ന്ധ്	7962
301	7963
ാദം	7964
251	7965
ൻസറ	7966
വകു	7967
കരിക	7968
ശരൺ	7969
ചലോ	7970
റവു	7971
260	7972
315	7973
356	7974
ine	7975
344	7976
എടാ	7977
രയു	7978
്തിക	7979
ജഗൻ	7980
ഗീക	7981
sta	7982
cent	7983
ടുകയാ	7984
ent	7985
ult	7986
ഈഡൻ	7987
ചൗള	7988
അർധ	7989
ഭൗമ	7990
',	7991
ba	7992
cat	7993
dy	7994
fb	7995
hair	7996
im	7997
ka	7998
ku	7999
ms	8000
tv	8001
ur	8002
ups	8003
vo	8004
ഇൗ	8005
ഇദ	8006
ഇയർ	8007
ഈറ	8008
ഈസി	8009
എജി	8010
ഒലി	8011
ഒഫ്	8012
കെടു	8013
കടു	8014
ഖേ	8015
ഖനി	8016
ഗേ	8017
ചഭ	8018
ജൽ	8019
ണൾ	8020
ധർ	8021
ധമി	8022
നഫ	8023
ബഹു	8024
മൗ	8025
ളജ	8026
വവ	8027
ശൽ	8028
ഹള	8029
ഹബ്	8030
ഹീന	8031
ാതിയ	8032
െങ്	8033
##ace	8034
##ly	8035
##tc	8036
##tte	8037
##hi	8038
##va	8039
##ഖ്യ	8040
##nd	8041
ിക്കണ	8042
്രഖ്യ	8043
കുപ്	8044
ിരായ	8045
നടീ	8046
കളർ	8047
കേന്ദ	8048
വാൾ	8049
പാവ	8050
പേന	8051
രിയിൽ	8052
തുള്ള	8053
ബിന്	8054
ുറമ	8055
ടിഒ	8056
വർക്	8057
പെൺ	8058
്കിയ	8059
െയായി	8060
വരുത്	8061
ാറ്	8062
തേസമ	8063
ിലാക്	8064
ാണിക്	8065
്മദ്	8066
കീശ	8067
ൃതര	8068
192	8069
199	8070
252	8071
258	8072
256	8073
ിരുത്	8074
172	8075
ിളിക	8076
217	8077
227	8078
ഷാൻ	8079
ഷാൾ	8080
238	8081
281	8082
273	8083
265	8084
268	8085
266	8086
റക്കു	8087
inte	8088
ഷീജ	8089
325	8090
326	8091
ിത്രത	8092
343	8093
346	8094
480	8095
സൺസ	8096
362	8097
ണിയു	8098
527	8099
490	8100
510	8101
ടയർ	8102
റയാന	8103
ുഹമ്മ	8104
തമാക	8105
590	8106
്ദര്	8107
ശ്യപ	8108
ദിയു	8109
ഗർഭ	8110
ional	8111
ലയിലെ	8112
ാഹുല്	8113
##ice	8114
ടികൾ	8115
്കാവ	8116
ളിലാണ	8117
iii	8118
day	8119
ഇനിയു	8120
join	8121
ഹൗറ	8122
big	8123
സ്റ്	8124
കെടുത	8125
ണൾഡ	8126
00	8127
bs	8128
cit	8129
du	8130
gle	8131
my	8132
man	8133
ow	8134
pla	8135
ru	8136
sa	8137
spe	8138
sfi	8139
ure	8140
wa	8141
അൺ	8142
അഗ	8143
ഇവി	8144
ഈദ	8145
എച്	8146
ഐഫ	8147
ഓഖ	8148
ഓഡി	8149
ചഹ	8150
ജഖ	8151
ദവ	8152
പൽ	8153
പസ	8154
മഠ	8155
രയി	8156
ൂക്	8157
േസി	8158
ോദ്യ	8159
ോക്ട	8160
ൻഹ	8161
ർട	8162
ൾബ	8163
ൾഫ	8164
##mi	8165
##bt	8166
##ld	8167
##pp	8168
ത്തണ	8169
ിക്കറ	8170
്രദേ	8171
പറഞ	8172
പറഞ്	8173
ന്നതു	8174
വാല	8175
വാഴ	8176
പാം	8177
സാൻ	8178
്ത്രാ	8179
വീര	8180
രൂക	8181
മേര	8182
അനഘ	8183
പൂൾ	8184
ംബത്ത	8185
ംഗങ്ങ	8186
ാഗ്ര	8187
്കൊ	8188
ാരത	8189
ഗോൾ	8190
ശാഖ	8191
മാനമ	8192
ഉൾപ	8193
്നതാ	8194
്താന്	8195
ആണു	8196
244	8197
246	8198
കിലു	8199
501	8200
509	8201
307	8202
306	8203
അകം	8204
ടാതെ	8205
186	8206
േശിന	8207
259	8208
്രിമ	8209
പഴശ	8210
ബസു	8211
215	8212
218	8213
229	8214
223	8215
226	8216
231	8217
235	8218
സനൽ	8219
274	8220
264	8221
262	8222
269	8223
318	8224
297	8225
ഡീൻ	8226
എയെ	8227
റബർ	8228
ഗഡു	8229
മണിക	8230
ടത്തു	8231
ുമ്പ്	8232
336	8233
421	8234
എഎൻ	8235
385	8236
386	8237
ൊലപാത	8238
ലഡു	8239
577	8240
സദാ	8241
850	8242
ലഘു	8243
660	8244
ുമുള	8245
രവാദി	8246
##ree	8247
്കാൻ	8248
!!!	8249
love	8250
lotte	8251
pos	8252
യദു	8253
നഖം	8254
ഹലോ	8255
ഫഷനല	8256
്കാരി	8257
edu	8258
job	8259
ഊഴം	8260
app	8261
##avy	8262
ഡസൻ	8263
തേസമയ	8264
ag	8265
can	8266
est	8267
id	8268
iel	8269
ki	8270
ly	8271
mi	8272
mu	8273
nc	8274
nn	8275
nts	8276
ope	8277
pat	8278
sar	8279
tt	8280
ആഡ്	8281
ഇളം	8282
ഊണ്	8283
എഴ	8284
ഐഡ	8285
ഓമന	8286
ഔഫ	8287
കഡ	8288
ഗമാ	8289
ജം	8290
ടമാ	8291
ടുംബ	8292
തേജ	8293
ധരം	8294
ബദര	8295
രഫ	8296
രഞ്	8297
ലല	8298
ളികള	8299
വഫ	8300
ഷഫ	8301
ഹത്ത	8302
ഹരം	8303
്ഷ്യ	8304
ർഖ	8305
##ast	8306
##be	8307
##ed	8308
##ep	8309
##ch	8310
##om	8311
##ok	8312
##gi	8313
##ds	8314
##ue	8315
##pi	8316
##pt	8317
##ff	8318
ന്‌	8319
മുഴ	8320
യാപ	8321
യാത്	8322
തിസ	8323
്രത്ത	8324
്രമി	8325
ാനത്	8326
ന്നയ	8327
വരങ്ങ	8328
ടുക്	8329
യെന്	8330
ണ്ടിക	8331
കൂൾ	8332
രുദ	8333
ഭാൽ	8334
ാവസ്	8335
ല്ലയ	8336
ലോല	8337
ശിക്	8338
ജി7	8339
ക്കുന	8340
കിത	8341
ഡോം	8342
ഞ്ഞെട	8343
നുഭ	8344
കേസുക	8345
വളം	8346
വരുട	8347
മൂസ	8348
മൂന്	8349
ഹാൾ	8350
ടെൽ	8351
കരൺ	8352
ദിത്	8353
ഫിഫ	8354
വ്യക്	8355
ലെങ്ക	8356
ജയൻ	8357
വനഗ	8358
207	8359
രമു	8360
കയായ	8361
ധ്യമ	8362
്നു	8363
241	8364
ബെൻ	8365
504	8366
305	8367
254	8368
255	8369
ടേണ്	8370
ണുന	8371
ഗതം	8372
ചീര	8373
േഹം	8374
തിയാണ	8375
ലേല	8376
സ്വാധ	8377
237	8378
287	8379
319	8380
ഭിച	8381
353	8382
സാരിക	8383
292	8384
296	8385
ഭീമ	8386
322	8387
337	8388
338	8389
377	8390
മദൻ	8391
380	8392
418	8393
395	8394
520	8395
ഫഷൻ	8396
െയ്ത്	8397
##ama	8398
##ame	8399
നതായ	8400
720	8401
532	8402
സദറ	8403
640	8404
ഷേധ	8405
ചരിത	8406
രവാസി	8407
യാറാ	8408
ഇത്തവ	8409
ഷൺമ	8410
ടുകൾ	8411
poli	8412
##ild	8413
sex	8414
ഫഷനൽ	8415
nifl	8416
rate	8417
cmd	8418
live	8419
്കുള	8420
ഥലത്ത	8421
ഹചര്യ	8422
ോരാട	8423
ielts	8424
".	8425
bh	8426
bu	8427
but	8428
ck	8429
fri	8430
gr	8431
kp	8432
ll	8433
ol	8434
ph	8435
per	8436
rn	8437
rss	8438
rain	8439
ser	8440
us	8441
up	8442
wi	8443
war	8444
ഇം	8445
ഇഐ	8446
ഐവി	8447
ഒറു	8448
ഓട്	8449
ഓകെ	8450
കനി	8451
കയ്	8452
ഖജ	8453
ഖത്	8454
ഗും	8455
ഗവി	8456
ടറി	8457
ണട	8458
തപ്	8459
ധർണ	8460
നസി	8461
പിന	8462
ഭജ	8463
മഗ	8464
മമാ	8465
മഷി	8466
യക്ഷ	8467
രവന	8468
റഷ	8469
ലട	8470
ഴവ	8471
ഷദ	8472
ഷഡ	8473
ഷീന	8474
സഞ്	8475
സരം	8476
ഹിൽ	8477
ഹജ്	8478
ീക്	8479
ീമി	8480
ൂര്യ	8481
ൊള്	8482
ോഹന	8483
്തിയ	8484
്സര	8485
′′	8486
##ോദ	8487
##cl	8488
##ാള	8489
##ഘഠ	8490
##na	8491
ുകൂ	8492
മുക്	8493
യുള	8494
ിനീ	8495
്ടപ	8496
പോള്	8497
കേണ	8498
ിൽക	8499
പാഠ	8500
ുമതല	8501
താവാ	8502
ടിന്റ	8503
വേല	8504
്ഥാപ	8505
വലം	8506
ഇടുക	8507
സഹോദ	8508
മിന്റ	8509
സാഹച	8510
സെൻ	8511
ാധീ	8512
്കറി	8513
ിവുകള	8514
വരുത	8515
ണ്ടുവ	8516
ശ്ന	8517
നോറ	8518
ലാള	8519
കമ്മീ	8520
ചാത	8521
ലെയ	8522
ിമയ	8523
ദിലീ	8524
േഷം	8525
്നൊ	8526
247	8527
രജിസ	8528
ഭീഷണ	8529
സാധാര	8530
257	8531
ര്യമ	8532
സോന	8533
അലൻ	8534
ശ്വസി	8535
മൈൽ	8536
285	8537
278	8538
കുകയ	8539
267	8540
263	8541
299	8542
298	8543
458	8544
ind	8545
345	8546
348	8547
371	8548
481	8549
364	8550
363	8551
ണാക	8552
424	8553
ഫറല	8554
432	8555
435	8556
419	8557
410	8558
െഡിക്	8559
528	8560
526	8561
col	8562
ഹസൻ	8563
542	8564
570	8565
624	8566
627	8567
620	8568
593	8569
711	8570
618	8571
695	8572
781	8573
ions	8574
820	8575
രനാ	8576
വചസ	8577
ദോശ	8578
cont	8579
conte	8580
news	8581
ഴിലാള	8582
forms	8583
ksu	8584
ഹറം	8585
ity	8586
ഇഎഘഠ	8587
തഹ്	8588
ജബൽ	8589
ിചാ	8590
---	8591
ഓഖി	8592
ചഹല	8593
്തിയു	8594
ഇഎഘഠഇ	8595
5ൽ	8596
cas	8597
ds	8598
ele	8599
ig	8600
ial	8601
ist	8602
iss	8603
km	8604
kle	8605
md	8606
nh	8607
og	8608
ott	8609
ps	8610
por	8611
psc	8612
rr	8613
rt	8614
rcc	8615
tri	8616
ual	8617
wit	8618
के	8619
ംതി	8620
ആബ	8621
ആലി	8622
ഈട	8623
ഊബ	8624
എഡ്	8625
എആർ	8626
ഏക്	8627
ഓറ	8628
ഔഡി	8629
ഗംഗ	8630
ചക്	8631
തണ	8632
ധർമ	8633
പയോ	8634
ഭബ	8635
ലൌ	8636
ലോധ	8637
ലേഖ	8638
സയ	8639
ഹീ	8640
ുഡി	8641
ൂന്	8642
െത്	8643
ൊല്	8644
്ത്	8645
ൡല	8646
ൽഘ	8647
ൽഹ	8648
##sp	8649
##ie	8650
##ol	8651
##od	8652
##ke	8653
##we	8654
##dc	8655
##pm	8656
##ൃത്	8657
##je	8658
##ിലാ	8659
ച്ചാണ	8660
നിട്ട	8661
വിൻ	8662
വിഎ	8663
ുകൂല	8664
യാഭ	8665
തിയിര	8666
സ്ഐ	8667
ിയവര	8668
രാസ	8669
പോൺ	8670
ന്നപ	8671
ന്തമ	8672
സിപ്	8673
ടുണ	8674
സാക്	8675
ബിഗ	8676
കാൾ	8677
കാണ്	8678
ികി	8679
ികരണ	8680
ികിത	8681
ുമാറി	8682
തിരഞ	8683
മെഡ	8684
ബാം	8685
്പിലാ	8686
തോന	8687
വർബ	8688
ശിഖ	8689
പൂരി	8690
ണമല	8691
ജിഐ	8692
കാണാന	8693
ചിക്	8694
ുവത	8695
സംഭവം	8696
മൊര	8697
ബോൾ	8698
അപു	8699
വ്യത്	8700
കീം	8701
ടിയന	8702
പദവ	8703
ിരിക	8704
ജാവ	8705
രണക	8706
രണത്ത	8707
ന്ധമ	8708
505	8709
309	8710
308	8711
303	8712
ോലു	8713
ക്കെയ	8714
നയന	8715
253	8716
ടൂർ	8717
405	8718
408	8719
കോടത	8720
ബസർ	8721
രജത	8722
607	8723
608	8724
282	8725
286	8726
ഏഴോ	8727
271	8728
277	8729
276	8730
261	8731
358	8732
്ഡല	8733
457	8734
453	8735
ഷെൽ	8736
ർമൽ	8737
ഗഡ്	8738
ലൂണ	8739
ini	8740
324	8741
ുറിച്	8742
342	8743
372	8744
484	8745
368	8746
##ale	8747
##all	8748
അണു	8749
384	8750
387	8751
434	8752
437	8753
415	8754
391	8755
390	8756
##ess	8757
ജൻമ	8758
499	8759
473	8760
517	8761
516	8762
cor	8763
ുഹൃത്	8764
്പിൽ	8765
462	8766
അമർ	8767
ant	8768
537	8769
530	8770
റൻറ	8771
അൽപ	8772
്നാം	8773
ിവാക	8774
672	8775
675	8776
ലയിൽ	8777
690	8778
950	8779
ort	8780
737	8781
888	8782
870	8783
rec	8784
റംല	8785
കഫേ	8786
ers	8787
##ind	8788
che	8789
##ide	8790
ടുകള്	8791
post	8792
ചരമ	8793
dau	8794
date	8795
sho	8796
ഖോഡ	8797
boss	8798
book	8799
ഈഴവര	8800
tra	8801
ഉലമ	8802
just	8803
yout	8804
onei	8805
srit	8806
ദൂര	8807
ബൾബ	8808
നടപട	8809
dyfi	8810
tvm	8811
upsc	8812
spec	8813
ദവെ	8814
sars	8815
klele	8816
with	8817
ആബെ	8818
"-	8819
",	8820
).	8821
ay	8822
ate	8823
br	8824
bre	8825
cy	8826
ek	8827
fe	8828
fl	8829
fak	8830
her	8831
ih	8832
ips	8833
ice	8834
lin	8835
mon	8836
ode	8837
oet	8838
pg	8839
rd	8840
ric	8841
sd	8842
ste	8843
sce	8844
ter	8845
ua	8846
vis	8847
ver	8848
vast	8849
wil	8850
അ്	8851
അങ	8852
അഞ	8853
ആഡ	8854
ആസ്	8855
ആധി	8856
ആജ്	8857
ഊര്	8858
എറെ	8859
എത്	8860
എജെ	8861
ഏറി	8862
ഐബ	8863
ഐഎം	8864
ഓല	8865
ഓജ	8866
കക്ഷ	8867
കത്	8868
ഗൈ	8869
ഗത്തെ	8870
ഘി	8871
ങള	8872
ടിലെ	8873
ഡമ	8874
ഡും	8875
ണള	8876
തഗ	8877
ഥിക	8878
ഥിര	8879
ഥിതി	8880
ദൻ	8881
ദബ	8882
നഭ	8883
നഷ	8884
പച	8885
പഗ	8886
ബത	8887
ബഡ	8888
ഭം	8889
മഴു	8890
രവധ	8891
റജ	8892
ലഫ്	8893
ളർ	8894
വബ	8895
വമാ	8896
ഷപ	8897
സതി	8898
ഹഖ	8899
ഹരേ	8900
ഹഗ്	8901
ഹാരാ	8902
ീധ	8903
ുസര	8904
െച	8905
െച്	8906
ൊക	8907
്കര	8908
ർദ്	8909
##my	8910
##ുന	8911
##ia	8912
##നു	8913
##സാ	8914
##rd	8915
##rf	8916
##rtc	8917
##wp	8918
##ഹാ	8919
##ust	8920
മാരു	8921
നിങ	8922
വിധാന	8923
യാജ	8924
തിപ	8925
്രത്	8926
ട്ടായ	8927
ണ്ടുപ	8928
ായെ	8929
തിനാണ	8930
അവസ്	8931
തുടരു	8932
ക്ഷത്	8933
ഡിം	8934
ഭാമ	8935
തോൾ	8936
വൈൻ	8937
ജോര്	8938
ചോല	8939
നീച	8940
മോൻ	8941
ഞ്ഞത്	8942
കിയത്	8943
്കട	8944
ഷ്ട്	8945
ഗുഹ	8946
റാസ	8947
മൂന	8948
മൂല്	8949
ന്റെയ	8950
യേണ്	8951
ിറക്	8952
യ്‌	8953
ലുള	8954
ഗ്ധ	8955
വനജ	8956
അടൽ	8957
രമൺ	8958
ധ്യത	8959
ഏകെ	8960
249	8961
ബെൽ	8962
നമ്	8963
508	8964
്റീ	8965
ബുൾ	8966
്യാഭ	8967
ന്നുവ	8968
409	8969
്വാസ	8970
ഇവൻ	8971
ചലന	8972
കോളേജ	8973
284	8974
അംഗീക	8975
279	8976
ക്സിന	8977
314	8978
311	8979
317	8980
വടം	8981
351	8982
355	8983
357	8984
നദീ	8985
291	8986
451	8987
456	8988
ർമല	8989
െസ്റ	8990
indi	8991
321	8992
നലബ	8993
വൽസ	8994
ോൺഗ്ര	8995
334	8996
341	8997
489	8998
483	8999
905	9000
906	9001
മയോ	9002
389	9003
യമു	9004
..?	9005
##est	9006
497	9007
498	9008
496	9009
474	9010
477	9011
470	9012
476	9013
ഉമർ	9014
514	9015
515	9016
518	9017
ഫസൽ	9018
##and	9019
റഫർ	9020
538	9021
മ്ബ	9022
581	9023
583	9024
ാഥ്	9025
അധമ	9026
622	9027
621	9028
625	9029
623	9030
ശവം	9031
594	9032
മൻറ	9033
853	9034
634	9035
638	9036
665	9037
മൺവ	9038
649	9039
647	9040
614	9041
619	9042
617	9043
ിണറായ	9044
673	9045
999	9046
841	9047
880	9048
830	9049
941	9050
##isf	9051
##dit	9052
രുകയ	9053
eme	9054
ress	9055
##ssc	9056
ദോബ	9057
cons	9058
012	9059
chat	9060
det	9061
ൽകു	9062
kse	9063
ksrtc	9064
##app	9065
ാകുന്	9066
##act	9067
not	9068
##agr	9069
heavy	9070
moh	9071
late	9072
what	9073
ivi	9074
plan	9075
soc	9076
two	9077
മഠം	9078
tta	9079
buty	9080
ഭജന	9081
colle	9082
ൽഘർ	9083
fake	9084
vastu	9085
will	9086
അ്ദ	9087
ആഡം	9088
2ൽ	9089
4ജി	9090
9ാം	9091
?;	9092
are	9093
aut	9094
b2	9095
bb	9096
by	9097
cb	9098
cn	9099
cal	9100
cle	9101
cul	9102
dh	9103
don	9104
dys	9105
es	9106
eo	9107
ect	9108
fu	9109
face	9110
gy	9111
gre	9112
gpt	9113
game	9114
hu	9115
har	9116
ie	9117
io	9118
ior	9119
ias	9120
jagr	9121
kl	9122
mv	9123
mis	9124
nk	9125
ot	9126
od	9127
oth	9128
pe	9129
pt	9130
rc	9131
ral	9132
sk	9133
son	9134
sle	9135
sime	9136
sbi	9137
sama	9138
tal	9139
tic	9140
tds	9141
vic	9142
wn	9143
wom	9144
അസി	9145
ആമ	9146
ആണി	9147
ഈണ	9148
ഈവ	9149
ഉഴ	9150
എടി	9151
എവേ	9152
ഒബ	9153
ഒകെ	9154
ഓക്	9155
കദ	9156
കലി	9157
ഗയ	9158
ഗൻ	9159
ഗത്ത്	9160
ഘല	9161
ജരാ	9162
ജൈന	9163
ടാണ	9164
ടില്	9165
ത്ക	9166
ദെ	9167
ദൈ	9168
ദോഷ	9169
ധൻ	9170
നഇ	9171
നത്തി	9172
ഫണ	9173
ബവ	9174
മൾ	9175
മതല	9176
യഗ	9177
യഷ്	9178
രഹന	9179
ററു	9180
ളാണ്	9181
ഴല	9182
ഴെ	9183
ഴൻ	9184
ഴക്	9185
ശഷ	9186
ശഖ	9187
ശൈ	9188
ശരണ	9189
ഷസ	9190
ഹഫ	9191
ഹഗ	9192
ഹൃത	9193
ൂമി	9194
െട്	9195
േരു	9196
ൈക്	9197
ൊണ്	9198
്തു	9199
ൻസമ	9200
ർമന	9201
ൾപ	9202
##ിന്	9203
##മല	9204
##ou	9205
##gh	9206
##gp	9207
##ഹ്	9208
##qu	9209
##un	9210
##po	9211
നിത്	9212
മുണ	9213
്രശ	9214
്യര	9215
രാതി	9216
ിരവ	9217
്ടന	9218
്ടീ	9219
സിഎ	9220
ഗ്രസി	9221
വെൻ	9222
ുകയാ	9223
അവശ	9224
അവസാ	9225
കൂൺ	9226
റിപ്	9227
രുതു	9228
ടിൻ	9229
ടിഐ	9230
ബാൽ	9231
ക്ഷപ	9232
ാവസ	9233
ാക്കാ	9234
സുഖ	9235
സുജ	9236
ലോറ	9237
വർല	9238
സീന	9239
സഹാ	9240
നീര	9241
മോർ	9242
ികളാണ	9243
വയല	9244
നുള്	9245
സൗദ	9246
്കിന്	9247
ഗോള	9248
ടെക	9249
റുള	9250
മഹി	9251
ഫ്‌	9252
ബോം	9253
േറ്റി	9254
മീം	9255
അപര	9256
ർക്കാ	9257
ളിം	9258
മാനേ	9259
ണെന്	9260
വനവ	9261
എറണ	9262
20ൽ	9263
സൈൻ	9264
രമദ	9265
കയു	9266
ധാം	9267
502	9268
507	9269
503	9270
സജു	9271
ിരുവ	9272
ൻസൽ	9273
സോയ	9274
ടൂൾ	9275
ഇവൾ	9276
ജലജ	9277
കനം	9278
്ധം	9279
ഫൈൻ	9280
ഓടം	9281
തിയും	9282
ലേക്	9283
സലേ	9284
221	9285
601	9286
ിനാൽ	9287
ുപ്പ്	9288
ിർദ	9289
313	9290
ഡീൽ	9291
ഗിൾ	9292
വോറ	9293
455	9294
inat	9295
701	9296
ഓണർ	9297
ളാഹ	9298
യൻസ	9299
ഫീൽ	9300
ൊണ്ടാ	9301
331	9302
339	9303
378	9304
373	9305
485	9306
487	9307
488	9308
മദർ	9309
367	9310
366	9311
ബൂം	9312
904	9313
552	9314
557	9315
553	9316
422	9317
ഫറസ	9318
ഫറാ	9319
433	9320
412	9321
416	9322
യമം	9323
399	9324
397	9325
396	9326
ിലേറ	9327
529	9328
495	9329
442	9330
449	9331
446	9332
471	9333
512	9334
656	9335
കൊലപ	9336
##ank	9337
അബി	9338
467	9339
460	9340
468	9341
466	9342
ജഗജ	9343
റഫാ	9344
549	9345
562	9346
567	9347
ലറൽ	9348
589	9349
579	9350
596	9351
സന്തോ	9352
ഭഗൽ	9353
637	9354
633	9355
636	9356
667	9357
714	9358
715	9359
##ath	9360
641	9361
680	9362
610	9363
്പാക	9364
679	9365
990	9366
692	9367
783	9368
##ore	9369
ore	9370
742	9371
740	9372
760	9373
ഹുല	9374
ഹുല്	9375
866	9376
835	9377
920	9378
തഴമ	9379
790	9380
879	9381
938	9382
814	9383
പരിശോ	9384
റൊര	9385
റത്തു	9386
tha	9387
than	9388
്തലത്	9389
കൂടുത	9390
##ing	9391
്കാര്	9392
nta	9393
ally	9394
met	9395
ളിലേ	9396
log	9397
cong	9398
death	9399
ary	9400
##ils	9401
ഗൺമ	9402
##apf	9403
she	9404
ഷൈല	9405
##ach	9406
##agi	9407
ദസറ	9408
atha	9409
admi	9410
abha	9411
hip	9412
nda	9413
who	9414
യഥാ	9415
aed	9416
you	9417
dist	9418
fiapf	9419
state	9420
000	9421
ruit	9422
kpcc	9423
wipr	9424
nhs	9425
തണൽ	9426
pgwp	9427
uae	9428
sleep	9429
vices	9430
ഒബജ	9431
ശഷം	9432
'-	9433
/-	9434
?"	9435
ass	9436
ails	9437
bl	9438
cs	9439
cl	9440
ci	9441
cc	9442
cap	9443
cdit	9444
dw	9445
dan	9446
ey	9447
ef	9448
eve	9449
epc	9450
fo	9451
fr	9452
fin	9453
free	9454
fall	9455
gs	9456
gl	9457
gc	9458
gu	9459
hr	9460
hy	9461
happ	9462
il	9463
ies	9464
iala	9465
ifi	9466
ima	9467
jn	9468
kg	9469
lg	9470
lai	9471
mc	9472
mw	9473
na	9474
nr	9475
nu	9476
nar	9477
nish	9478
om	9479
os	9480
pc	9481
pu	9482
par	9483
ple	9484
rb	9485
ran	9486
rit	9487
sm	9488
sw	9489
sy	9490
sagi	9491
ts	9492
uk	9493
vssc	9494
wc	9495
zu	9496
ആടി	9497
ആടു	9498
ആദി	9499
ആയ്	9500
ഇഡ	9501
ഇടെ	9502
ഈട്	9503
എഡി	9504
ഏണി	9505
കജ	9506
ഖം	9507
ഖൽ	9508
ഖഗ	9509
ഖൈ	9510
ഗയാ	9511
ചധ	9512
ചിയ	9513
ചാണ	9514
ടൌൺ	9515
ഡഗ	9516
ദൗ	9517
ദയാ	9518
ധപ	9519
നൻ	9520
നാന	9521
നണി	9522
പപ	9523
പർ	9524
മലി	9525
രറ	9526
രതിയ	9527
റപ	9528
റൗ	9529
റദ	9530
റഷ്	9531
റഞ്ഞ്	9532
ശശ	9533
ഷു	9534
ഷട	9535
ഷജ	9536
സൊ	9537
സഊ	9538
സരള	9539
ഹൽ	9540
ഹഡ	9541
ിച്	9542
ുരുഷ	9543
ൊറോണ	9544
്ണി	9545
്തിന്	9546
ർവർ	9547
ൾക്	9548
##bc	9549
##bai	9550
##ലം	9551
##lc	9552
##cs	9553
##op	9554
##സം	9555
##vi	9556
##pf	9557
##np	9558
##fo	9559
##fw	9560
##ju	9561
വിടു	9562
##രുന	9563
തിറ	9564
യിം	9565
യിരി	9566
യിരുന	9567
ചെറി	9568
രാഭ	9569
കുല	9570
കുണ്ട	9571
കുമ്പ	9572
പോം	9573
ന്നതെ	9574
റ്റന	9575
ത്തിട	9576
വരേ	9577
സമൂ	9578
രിക്	9579
ണ്ടത്	9580
ബി1	9581
റിം	9582
രുക്	9583
കെഇ	9584
വീർ	9585
വീസ്	9586
ഇതെ	9587
തുടങ	9588
നിലയി	9589
ജനങ	9590
മേധ	9591
്പുകള	9592
വലയ	9593
രൂപയാ	9594
ലോഹ	9595
വർട	9596
വർഹ	9597
ാണിക	9598
വൈഗ	9599
ജീൻ	9600
ലിയി	9601
ജിൻ	9602
െത്താ	9603
ചിന്	9604
നീന	9605
നീൽ	9606
മിർ	9607
കിട്	9608
ിതത്ത	9609
കൈമ	9610
ഡോണ	9611
കോൺഗ്	9612
ശതം	9613
മേഖലയ	9614
മൂൺ	9615
റോം	9616
തൃഷ	9617
ദുർ	9618
മലം	9619
യേക	9620
ിസന	9621
തിലാണ	9622
നഗല	9623
10ൽ	9624
തേക	9625
ബോൺ	9626
തരൂ	9627
തിനെത	9628
എൻ1	9629
ഴ്‌	9630
കളെയ	9631
തനിക്	9632
അയല	9633
വനസ	9634
ോസഫ	9635
സൈറ	9636
ീറ്റു	9637
രംപ	9638
കൗൾ	9639
ജാഗ്	9640
്ഷി	9641
ഥാർ	9642
അകെ	9643
ബീം	9644
ടാർ	9645
ഹോദ	9646
ൻസന	9647
സോൾ	9648
ഫെമ	9649
404	9650
്വാധ	9651
ഗൗബ	9652
ഗൗൺ	9653
ഉദയ	9654
ോചി	9655
ഖ്യമന	9656
604	9657
ർഷത	9658
ഉമ്മന	9659
316	9660
359	9661
കൺട	9662
454	9663
452	9664
ർമശ	9665
ട്‌	9666
806	9667
മണര	9668
int	9669
inst	9670
insp	9671
705	9672
709	9673
707	9674
703	9675
വംശ	9676
അരഗ	9677
335	9678
333	9679
347	9680
482	9681
ഷററ	9682
361	9683
369	9684
ർപഡ	9685
551	9686
559	9687
755	9688
429	9689
423	9690
426	9691
383	9692
436	9693
414	9694
ടണൽ	9695
394	9696
393	9697
492	9698
491	9699
444	9700
441	9701
445	9702
448	9703
472	9704
511	9705
513	9706
652	9707
651	9708
465	9709
കളുട	9710
546	9711
അമര	9712
അമൻ	9713
ൊലപാ	9714
ank	9715
564	9716
568	9717
563	9718
727	9719
726	9720
539	9721
587	9722
580	9723
572	9724
575	9725
578	9726
576	9727
കവല	9728
്പുറ	9729
സ്ലിം	9730
591	9731
598	9732
നറല്	9733
630	9734
666	9735
774	9736
772	9737
775	9738
777	9739
770	9740
776	9741
കറൻ	9742
682	9743
612	9744
യാനു	9745
676	9746
992	9747
694	9748
691	9749
699	9750
784	9751
785	9752
787	9753
780	9754
956	9755
747	9756
765	9757
821	9758
731	9759
911	9760
919	9761
965	9762
885	9763
887	9764
839	9765
799	9766
878	9767
892	9768
pri	9769
prd	9770
price	9771
press	9772
ാഹുല	9773
817	9774
813	9775
സൾഫ	9776
rem	9777
thi	9778
നഹി	9779
comp	9780
str	9781
ഹർഷ	9782
സുരേഷ	9783
ൽബൺ	9784
vie	9785
##ins	9786
##ine	9787
alp	9788
mea	9789
med	9790
ഭടൻ	9791
cher	9792
art	9793
cpt	9794
fore	9795
രഥം	9796
rsc	9797
sha	9798
rius	9799
ssb	9800
ssc	9801
sslc	9802
ted	9803
tech	9804
gem	9805
icu	9806
dom	9807
crpf	9808
air	9809
heal	9810
und	9811
unf	9812
അഥവ	9813
???	9814
weat	9815
abu	9816
ircc	9817
supe	9818
supp	9819
രാലയ	9820
quar	9821
june	9822
രസിന്	9823
pass	9824
work	9825
disc	9826
have	9827
ബൾഗ	9828
bsf	9829
citu	9830
dual	9831
dubai	9832
play	9833
save	9834
അഗം	9835
ോദ്യം	9836
posit	9837
nnavy	9838
ലലൻ	9839
ogya	9840
break	9841
cybe	9842
stem	9843
ങളെ	9844
kseb	9845
cbse	9846
cult	9847
dysp	9848
great	9849
mvd	9850
miss	9851
otp	9852
ഉഴല	9853
ഫണല	9854
lgbt	9855
ഖൽസ	9856
""	9857
';	9858
.)	9859
.!	9860
3d	9861
4x	9862
5നു	9863
6ഇ	9864
7ാം	9865
8ാം	9866
?!	9867
a1	9868
aus	9869
ase	9870
ble	9871
ber	9872
bri	9873
bank	9874
cd	9875
car	9876
cts	9877
cer	9878
cur	9879
cut	9880
cisf	9881
cine	9882
dv	9883
dp	9884
dn	9885
dge	9886
dgp	9887
et	9888
eh	9889
eg	9890
eli	9891
eci	9892
eff	9893
fan	9894
fic	9895
fli	9896
fav	9897
fish	9898
fact	9899
gi	9900
gg	9901
g8	9902
gn	9903
gam	9904
gro	9905
gand	9906
hc	9907
hw	9908
his	9909
hav	9910
hya	9911
ian	9912
ire	9913
icc	9914
ims	9915
ium	9916
kr	9917
kd	9918
kas	9919
mr	9920
mer	9921
min	9922
nam	9923
non	9924
nis	9925
nst	9926
nur	9927
ning	9928
ok	9929
ou	9930
op	9931
ove	9932
out	9933
pp	9934
pte	9935
ppe	9936
pare	9937
pms	9938
pul	9939
qa	9940
qq	9941
ris	9942
rad	9943
rul	9944
ralam	9945
rime	9946
sl	9947
sv	9948
sg	9949
sal	9950
san	9951
sat	9952
sts	9953
sur	9954
sree	9955
tc	9956
tan	9957
tis	9958
tre	9959
time	9960
test	9961
ub	9962
ut	9963
uid	9964
uap	9965
vm	9966
vc	9967
vat	9968
vice	9969
vpm	9970
wind	9971
xi	9972
yan	9973
yam	9974
yad	9975
za	9976
zed	9977
അഫ്	9978
ആവി	9979
ആളി	9980
ആമി	9981
ആദര	9982
ആഹ്	9983
ഇയ	9984
ഇഹ	9985
ഇജ	9986
ഇഴ	9987
ഇസി	9988
ഇഎം	9989
ഇങ്	9990
ഈണം	9991
ഊമ	9992
ഊഷ	9993
ഊതി	9994
എഹ	9995
എഥ	9996
എ6	9997
എഇ	9998
എരി	9999
എമി	10000
ഏട്	10001
ഏലം	10002
ഒല	10003
ഒഷ	10004
ഒടി	10005
ഒരണ	10006
ഓർ	10007
ഔഫ്	10008
കബ	10009
കഹ	10010
കൌ	10011
ഖു	10012
ഖും	10013
ഗഹ	10014
ഗരം	10015
ഗവണ	10016
ഘു	10017
ഘന	10018
ഘത	10019
ഘാന	10020
ചറ	10021
ജപ	10022
ജള	10023
ജൈ	10024
ജ്വ	10025
ജയാ	10026
ടായ	10027
ടഗ്	10028
ടറിയ	10029
ഠന	10030
ഡം	10031
ഡഹ	10032
ഢല	10033
ഢാ	10034
ണഗ	10035
തൾ	10036
തഡ	10037
ത്പ	10038
തളി	10039
തദ്	10040
തഗ്	10041
തബ്	10042
ഥറ	10043
ഥിത	10044
ദാര	10045
ധോ	10046
നച	10047
നധ	10048
നഈ	10049
നതി	10050
നരി	10051
പൻ	10052
പബ	10053
പഡ	10054
ഫൗ	10055
ഫദ	10056
ഫൺ	10057
ഫഌ	10058
ബണ	10059
ബൗ	10060
ബഷ	10061
ബയർ	10062
ഭോ	10063
മവ	10064
മഖ	10065
മജ	10066
മോഗ	10067
യഷ	10068
യീ	10069
യയില	10070
രഖ	10071
റട	10072
റഅ	10073
റജി	10074
ലജ	10075
ളഹ	10076
ഴന	10077
ഴസ	10078
ഴമല	10079
ശള	10080
ശദ	10081
ഷേര	10082
സഘ	10083
സശ	10084
സഈ	10085
സദ്	10086
സലെ	10087
ഹണ	10088
ഹൻ	10089
ഹൊ	10090
ഹഥ	10091
ഹജ	10092
ഹൌ	10093
ഹ്മ	10094
ഹയാ	10095
ിഭ	10096
ിധി	10097
ിശ്	10098
ൃക	10099
ൃത്	10100
േണമ	10101
ൊവിഡ	10102
്സി	10103
ൡവ	10104
ൺസ	10105
ൻ്	10106
ൻെ	10107
ർല	10108
##ml	10109
##mo	10110
##mw	10111
##sg	10112
##bs	10113
##ls	10114
##lf	10115
##co	10116
##ow	10117
##ra	10118
##ril	10119
##വസ	10120
##du	10121
##uc	10122
##uit	10123
##pg	10124
##ni	10125
##ഉം	10126
##ഉഎ	10127
##ft	10128
##ആം	10129
##ze	10130
നിൻ	10131
നിദ	10132
നിത്ത	10133
നിശ്	10134
മുര	10135
മുൾ	10136
ട്ടത്	10137
നടു	10138
നടത	10139
കളള	10140
പോൽ	10141
പിസ	10142
സിെ	10143
വരദ	10144
വാം	10145
വാൽ	10146
സമം	10147
സാഗ	10148
്റെയ	10149
വെല	10150
പുർ	10151
യെൻ	10152
ബി2	10153
ായപ	10154
അതീ	10155
റിറ	10156
ായിരു	10157
എംഐ	10158
ടിഎ	10159
വേർ	10160
്പള	10161
്പത്	10162
പൊൻ	10163
വർള	10164
വർസ	10165
വർഫ	10166
മ്മള	10167
സീത	10168
ാണെന	10169
ആവോ	10170
ലിൻ	10171
ലിഷ	10172
ജിൽ	10173
ജി8	10174
സഹജ	10175
രീക	10176
മോത	10177
്റ്റം	10178
ോളേ	10179
്പോര	10180
ള്ളത്	10181
ജെ9	10182
്ലകള	10183
്കില	10184
റാക്	10185
ഹിം	10186
്യൂട	10187
ആളു	10188
ആളോ	10189
ദുവ	10190
മലബ	10191
ഹൈഫ	10192
ലാറ	10193
ാസത	10194
യ്ന	10195
ലുണ്	10196
എൽഎ	10197
എൽ‌	10198
സഖി	10199
ഷ്‌	10200
എൻ‌	10201
മാനിക	10202
പാലിക	10203
കർമ	10204
ആലു	10205
നവറ	10206
ഫിദ	10207
ലെങ	10208
ലെത്ത	10209
ിമര്	10210
ഇടപെ	10211
അയോ	10212
അയൺ	10213
്നണ	10214
്ചിര	10215
ആണേ	10216
ജാൻ	10217
ദൃശ	10218
രണത	10219
30ൽ	10220
സജന	10221
ബുധ	10222
ബീമ	10223
ഹോൾ	10224
േശീ	10225
േശിക	10226
ഏജ്	10227
ഷോർ	10228
ടേൺ	10229
ൻസദ	10230
സോമ	10231
സോഫ	10232
ടോൺ	10233
കഴിഞ	10234
കഴിഞ്	10235
പണയ	10236
402	10237
401	10238
406	10239
ചീമ	10240
ാലാവസ	10241
ർവറ	10242
ഡെൽ	10243
വധൂ	10244
്രീക	10245
602	10246
603	10247
606	10248
കഥാ	10249
ർഷർ	10250
289	10251
അധികൃ	10252
ഭിച്ച	10253
ഘാം	10254
ർമർ	10255
802	10256
801	10257
805	10258
80ൽ	10259
809	10260
807	10261
അടിസ	10262
ins	10263
inc	10264
708	10265
706	10266
ോഗസ	10267
ക്കമു	10268
379	10269
ാനുള	10270
902	10271
907	10272
555	10273
752	10274
759	10275
753	10276
756	10277
428	10278
ഫറൽ	10279
381	10280
431	10281
439	10282
411	10283
417	10284
398	10285
524	10286
522	10287
521	10288
525	10289
523	10290
443	10291
479	10292
519	10293
655	10294
658	10295
ഫസറ	10296
cou	10297
cour	10298
അബഹ	10299
463	10300
544	10301
ance	10302
ൾസറ	10303
ൾസൺ	10304
724	10305
534	10306
533	10307
586	10308
573	10309
ിയുള്	10310
626	10311
goo	10312
god	10313
goes	10314
597	10315
നറബ	10316
851	10317
632	10318
635	10319
639	10320
ആദാ	10321
govt	10322
##one	10323
664	10324
669	10325
668	10326
710	10327
716	10328
##ata	10329
644	10330
645	10331
771	10332
778	10333
കറൻസ	10334
681	10335
685	10336
687	10337
ർബൽ	10338
615	10339
613	10340
616	10341
്പാക്	10342
670	10343
998	10344
789	10345
ഴിയുന	10346
orm	10347
ori	10348
orts	10349
744	10350
749	10351
748	10352
764	10353
762	10354
767	10355
766	10356
825	10357
828	10358
735	10359
915	10360
917	10361
918	10362
961	10363
960	10364
966	10365
840	10366
864	10367
868	10368
881	10369
838	10370
833	10371
925	10372
927	10373
793	10374
945	10375
871	10376
873	10377
890	10378
896	10379
pre	10380
ൈറസ	10381
930	10382
ഫുൽ	10383
812	10384
975	10385
977	10386
970	10387
ret	10388
reg	10389
rep	10390
regi	10391
this	10392
േസമയ	10393
comm	10394
ലഗഡ	10395
star	10396
പഹല	10397
മഡ്	10398
985	10399
987	10400
emb	10401
emi	10402
erm	10403
vii	10404
vid	10405
##int	10406
യാമ്	10407
prop	10408
proce	10409
rese	10410
resp	10411
all	10412
ali	10413
media	10414
load	10415
ദോഡ	10416
conl	10417
019	10418
cha	10419
cho	10420
child	10421
chie	10422
dec	10423
neet	10424
ഗലം	10425
poll	10426
##ims	10427
seci	10428
ries	10429
nia	10430
044	10431
ssf	10432
tem	10433
bel	10434
bet	10435
get	10436
ical	10437
ആൽവ	10438
type	10439
ഷൈജ	10440
doct	10441
now	10442
cruit	10443
##age	10444
033	10445
apps	10446
april	10447
ext	10448
exp	10449
modi	10450
mode	10451
uni	10452
##pcl	10453
##pcr	10454
രൂപീക	10455
hool	10456
ates	10457
adm	10458
nata	10459
high	10460
ires	10461
life	10462
whe	10463
ഈഴവന	10464
ഗൽഭ	10465
die	10466
ഉലക	10467
ഖദർ	10468
asl	10469
pay	10470
haar	10471
twi	10472
stay	10473
img	10474
vote	10475
ഖേല	10476
ഖേദ	10477
മൗന	10478
joini	10479
bigg	10480
001	10481
city	10482
way	10483
loveu	10484
posh	10485
agai	10486
ncy	10487
open	10488
pati	10489
build	10490
rnal	10491
upd	10492
case	10493
rtpcr	10494
ഹീര	10495
trave	10496
youth	10497
odepc	10498
sdpi	10499
ബഡാ	10500
whats	10501
auto	10502
peace	10503
ശൈഖ	10504
്തുന്	10505
dwms	10506
eye	10507
pure	10508
range	10509
wcd	10510
സഊദ	10511
്വാധീ	10512
stru	10513
4x4	10514
grow	10515
mini	10516
rules	10517
uapa	10518
yamas	10519
ഇയു	10520
കൌർ	10521
ശദീകര	10522
സഈദ	10523
ൃത്വ	10524
ൻെറ	10525
!"	10526
!.	10527
'?	10528
):	10529
,,	10530
-'	10531
.?	10532
2ഡി	10533
2ജി	10534
2ലെ	10535
3ഡി	10536
3ാം	10537
4k	10538
6ാം	10539
6ഉം	10540
?,	10541
?.	10542
ah	10543
ak	10544
ax	10545
au	10546
af	10547
aai	10548
ale	10549
att	10550
ast	10551
aer	10552
aad	10553
aisf	10554
b1	10555
bp	10556
bat	10557
bor	10558
bis	10559
bur	10560
bul	10561
cu	10562
cf	10563
cil	10564
cct	10565
cali	10566
cbi	10567
dd	10568
dic	10569
dss	10570
dil	10571
dli	10572
dbt	10573
dna	10574
data	10575
ee	10576
ec	10577
ev	10578
ep	10579
ess	10580
eur	10581
eth	10582
ews	10583
etc	10584
eia	10585
fm	10586
fa	10587
fer	10588
fil	10589
ful	10590
fci	10591
fro	10592
fide	10593
ga	10594
gt	10595
gv	10596
gd	10597
gx	10598
gal	10599
gan	10600
gat	10601
gic	10602
gst	10603
ger	10604
gain	10605
gree	10606
hal	10607
hil	10608
hur	10609
hone	10610
ia	10611
ib	10612
iw	10613
ite	10614
iis	10615
ila	10616
ili	10617
ime	10618
iali	10619
ild	10620
iama	10621
ize	10622
jes	10623
kb	10624
kh	10625
kf	10626
kre	10627
kali	10628
lc	10629
lr	10630
lt	10631
lam	10632
lle	10633
lli	10634
ml	10635
mt	10636
mps	10637
mit	10638
mad	10639
mas	10640
mus	10641
mul	10642
male	10643
more	10644
n9	10645
ny	10646
nit	10647
ner	10648
nas	10649
nge	10650
nct	10651
nya	10652
nci	10653
npr	10654
ox	10655
oor	10656
oic	10657
occ	10658
our	10659
oli	10660
oll	10661
obc	10662
py	10663
pf	10664
pj	10665
pal	10666
pcc	10667
pain	10668
pnp	10669
rm	10670
rf	10671
ron	10672
rap	10673
rum	10674
rama	10675
ride	10676
rmy	10677
sb	10678
sai	10679
sre	10680
sit	10681
sas	10682
sim	10683
sap	10684
sms	10685
spc	10686
sys	10687
sind	10688
side	10689
tm	10690
tam	10691
tte	10692
tat	10693
tit	10694
ux	10695
uz	10696
ute	10697
udit	10698
uuc	10699
v4	10700
va	10701
vd	10702
van	10703
vac	10704
vali	10705
vish	10706
vale	10707
ws	10708
wo	10709
wk	10710
wy	10711
wag	10712
wild	10713
xe	10714
xam	10715
ya	10716
ye	10717
yi	10718
yr	10719
yel	10720
zat	10721
और	10722
का	10723
नए	10724
मत	10725
അണ്	10726
അസ്	10727
ആ‍	10728
ആഴ്	10729
ആഹാ	10730
ആസം	10731
ഇ്	10732
ഇമ	10733
ഇട്	10734
ഇയെ	10735
ഇശോ	10736
ഈൻ	10737
ഈടു	10738
ഈദി	10739
ഈഡി	10740
ഈവ്	10741
ഉന	10742
ഉഭ	10743
ഉശ	10744
എ1	10745
എ൯	10746
ഏദ	10747
ഏഥ	10748
ഏതാ	10749
ഏയ്	10750
ഏറ്	10751
ഐം	10752
ഐറ	10753
ഐആം	10754
ഒളി	10755
ഒജെ	10756
ഒടു	10757
ഒതു	10758
ഒഎം	10759
ഒയെ	10760
ഒആർ	10761
ഓക	10762
ഓവ	10763
ഓരം	10764
ഓരേ	10765
ഓങ്	10766
ഓഹ്	10767
ഔട്	10768
കക	10769
കശ	10770
കഖ	10771
കഗ	10772
കിവ	10773
കിര	10774
കൻസ	10775
കഹാ	10776
ഖസ	10777
ഖീ	10778
ഖഡ	10779
ഖാന	10780
ഗന	10781
ഗധ	10782
ഗശ	10783
ഗീയ	10784
ഗഹന	10785
ഗാമ	10786
ഗൂഡ	10787
ഘൽ	10788
ങി	10789
ങന	10790
ങഅ	10791
ചൻ	10792
ചളി	10793
ചലി	10794
ജൗ	10795
ജവ	10796
ജഫ	10797
ജുമ	10798
ഞം	10799
ഞങ	10800
ഞജ	10801
ടക്	10802
ടെടു	10803
ടാമ	10804
ഠം	10805
ഡണ	10806
ഡൂ	10807
ഡുക	10808
ഡഗ്	10809
ഡഉഎ	10810
ഢഗ	10811
ണേ	10812
ണജ	10813
ണ്യ	10814
തഥ	10815
തക്	10816
തബു	10817
തളം	10818
ദഖ	10819
ദവി	10820
നള	10821
നങ	10822
നഥ	10823
ന‌	10824
നഃ	10825
നൈന	10826
നറിയ	10827
പലി	10828
ഫഫ	10829
ഫൂ	10830
ഫില	10831
ഫിൽ	10832
ബ്യ	10833
ബാര	10834
ബരള	10835
ബഡി	10836
ബേര	10837
ബഷി	10838
ബഡ്	10839
ഭദ	10840
ഭടന	10841
മബ	10842
മഫ	10843
മഅ	10844
മഞ്	10845
മയ്	10846
യബ	10847
യഡ	10848
രഡ	10849
രദേ	10850
രശ്	10851
രോഷ	10852
റക	10853
റഖ	10854
റഊ	10855
ലദ	10856
ലഴ	10857
ല്പ	10858
ലതി	10859
ളൊ	10860
ളഡ	10861
ഴേ	10862
വഹന	10863
ശർ	10864
ശരം	10865
ഷഷ	10866
ഷഖ	10867
ഷ്വ	10868
സഷ	10869
സഗ	10870
സറേ	10871
സയെ	10872
ഹഷ	10873
ഹദ	10874
ഹസി	10875
ാഞ്	10876
ിപാട	10877
െള	10878
്ണം	10879
്ദേഹ	10880
ൡള	10881
ൡന	10882
ൻദ	10883
ൻജ	10884
ൻറെ	10885
ർത	10886
ൽത	10887
ൽട	10888
ൽഖ	10889
ൾമ	10890
ൾഗ	10891
ൾവർ	10892
##20	10893
##mb	10894
##sh	10895
##ay	10896
##au	10897
##ba	10898
##by	10899
##bp	10900
##bje	10901
##ee	10902
##efl	10903
##ുട	10904
##ുരം	10905
##lv	10906
##lhi	10907
##ib	10908
##ർട	10909
##നോ	10910
##ca	10911
##os	10912
##oc	10913
##16	10914
##rc	10915
##rp	10916
##ta	10917
##he	10918
##hr	10919
##hul	10920
##ka	10921
##vt	10922
##val	10923
##gs	10924
##wc	10925
##wn	10926
##win	10927
##dd	10928
##dy	10929
##yc	10930
##que	10931
##ub	10932
##ual	10933
##ute	10934
##ude	10935
##pu	10936
##30	10937
##‌ി	10938
##ja	10939
##jas	10940
##zy	10941
ത്തത	10942
മാം	10943
ന്്	10944
നിച	10945
നിം	10946
നിജ	10947
വിം	10948
വിഇ	10949
യുക്	10950
യാഗ	10951
്രട	10952
്രധ	10953
സ്എ	10954
സ്ഒ	10955
സ്ആ	10956
സംന	10957
ചെന്	10958
ട്ടല	10959
കോന	10960
കോമ	10961
കോശ	10962
കോഡ	10963
കേല	10964
ന്നിത	10965
പിഇ	10966
സിദ	10967
സിഒ	10968
വരം	10969
വരര	10970
വരവ	10971
കൊവ	10972
പേൾ	10973
രിഫ	10974
രിഹാ	10975
താം	10976
യെന	10977
നാധി	10978
ബിഐ	10979
അവകാ	10980
റിന്റ	10981
രുതെ	10982
കെക	10983
കെഐ	10984
വീൽ	10985
ഴിച	10986
ണ്‌	10987
ണ്ഠ	10988
വേധ	10989
മെൻ	10990
ബാഷ	10991
ഡി1	10992
ഡിന്	10993
ഭാർ	10994
ഭാം	10995
്പെട	10996
്ഥിത	10997
പൊക	10998
ല്ലപ	10999
ലോർ	11000
വർക	11001
വർന	11002
വർഡ	11003
സർമ	11004
പൂള	11005
പൂന	11006
ംബൈ	11007
ലിമ	11008
ലിെ	11009
ജി1	11010
ചോർ	11011
ാർക്	11012
ചിൻ	11013
ചിറ	11014
ചിത്	11015
അറഫ	11016
രീക്	11017
മിഴ്	11018
ധികൃ	11019
മോയ	11020
്വകാ	11021
റെവ	11022
വയർ	11023
വയൽ	11024
്പോർട	11025
കൈൽ	11026
ുരക	11027
ജെൻ	11028
പോകുന	11029
ഞാ൯	11030
ഓഫോ	11031
നുര	11032
സെക	11033
സെർ	11034
കളിലേ	11035
ുവദ	11036
്കായി	11037
നെന	11038
നെയാ	11039
റാൻ	11040
ഗോറ	11041
ഗോദ	11042
മൂഢ	11043
്സിന	11044
ീഡിയയ	11045
റോസ	11046
ഉറവ	11047
്യൂട്	11048
ആളേ	11049
ഹാം	11050
ശ്രദ	11051
ദുആ	11052
ഷനല	11053
മാറു	11054
ടെൻ	11055
ശ്‌	11056
റുള്	11057
ാളാ	11058
യേൽ	11059
യേറ്	11060
ിസിന	11061
തിലാ	11062
ിറങ	11063
അംഗങ	11064
നോവ	11065
നോഹ	11066
ാലെയ	11067
ാസത്ത	11068
ഫ്എ	11069
ആർഒ	11070
ആർ‌	11071
തേൻ	11072
തേൾ	11073
മാണെന	11074
ബോർ	11075
ആരൺ	11076
എൽ1	11077
ദേര	11078
സിനു	11079
തെരഞ	11080
ചൂൽ	11081
കലം	11082
കലശ	11083
കലഹ	11084
ടീന	11085
ലീജ	11086
കർഷ	11087
ആയേ	11088
ഇറങ	11089
ഷിഫ	11090
ഫിൻ	11091
ിയെന	11092
ജയന	11093
ോസ്റ	11094
്നത്ത	11095
11ൽ	11096
്ചാല	11097
ഏകത	11098
പീറ	11099
വശ്യം	11100
ഗാം	11101
ഗാഥ	11102
ദാൽ	11103
ദാദ	11104
ബഹ്	11105
പൗല	11106
ജാഡ	11107
രണന	11108
രണര	11109
ീസു	11110
ശീത	11111
ഹ്‌	11112
നയൻ	11113
ശ്ശേ	11114
രവു	11115
രവൺ	11116
ൻസണ	11117
സോം	11118
സോഡ	11119
റൂസ	11120
േരും	11121
17ൽ	11122
407	11123
ഇവോ	11124
ഇവൈ	11125
കനൽ	11126
ബസന	11127
തിയില	11128
അലർ	11129
ാരിക്	11130
ഹെർ	11131
ിശോധ	11132
അദല	11133
605	11134
ുമെന	11135
ിയിരു	11136
ർഷത്ത	11137
സരൾ	11138
ഏഴേ	11139
ിർമ	11140
യാലു	11141
ഴാം	11142
ഭിക്ക	11143
ൈനിക	11144
ബർഖ	11145
റീൽ	11146
അജയ	11147
എയു	11148
താനാ	11149
808	11150
മണല	11151
മണവ	11152
inn	11153
inf	11154
inal	11155
info	11156
ഷീൻ	11157
702	11158
329	11159
327	11160
രസില	11161
അരയ	11162
േഖര	11163
ഫീസി	11164
349	11165
486	11166
റഞ്ഞു	11167
ാനുള്	11168
ിയേറ്	11169
909	11170
##als	11171
554	11172
754	11173
751	11174
757	11175
്തിയാ	11176
382	11177
438	11178
ബദർ	11179
ബദന	11180
413	11181
യമഹ	11182
യമഗ	11183
392	11184
ഡയർ	11185
ജൻധ	11186
494	11187
447	11188
475	11189
്ളവ	11190
659	11191
657	11192
653	11193
##ans	11194
നരക	11195
coun	11196
coins	11197
cowin	11198
##amo	11199
അബൂ	11200
464	11201
461	11202
469	11203
ജഗമ	11204
545	11205
548	11206
ani	11207
anc	11208
anes	11209
anar	11210
anci	11211
561	11212
566	11213
722	11214
725	11215
728	11216
ലഡോ	11217
535	11218
584	11219
582	11220
585	11221
ഷഹി	11222
ഷഹല	11223
ഷഹർ	11224
571	11225
തവള	11226
സദർ	11227
ഹേന	11228
ർദശ	11229
##tel	11230
629	11231
628	11232
gold	11233
gopi	11234
good	11235
592	11236
595	11237
599	11238
മടൽ	11239
മടങ	11240
വജ്	11241
##ard	11242
852	11243
856	11244
ഷ്ണന	11245
ഭഗത	11246
662	11247
66ൽ	11248
719	11249
718	11250
713	11251
642	11252
648	11253
773	11254
കറവ	11255
684	11256
688	11257
683	11258
ടൈൽ	11259
611	11260
677	11261
678	11262
##aiib	11263
995	11264
996	11265
ഗർവ	11266
698	11267
782	11268
952	11269
958	11270
953	11271
ora	11272
745	11273
ൽമര	11274
ഉഷസ	11275
നൈല	11276
iona	11277
761	11278
769	11279
768	11280
763	11281
824	11282
827	11283
826	11284
ഡയറക	11285
734	11286
732	11287
739	11288
733	11289
736	11290
912	11291
910	11292
916	11293
967	11294
968	11295
846	11296
865	11297
869	11298
867	11299
ഇബി	11300
889	11301
886	11302
832	11303
831	11304
836	11305
928	11306
923	11307
792	11308
797	11309
796	11310
944	11311
942	11312
947	11313
943	11314
877	11315
899	11316
897	11317
934	11318
932	11319
931	11320
939	11321
937	11322
933	11323
936	11324
811	11325
818	11326
816	11327
972	11328
973	11329
976	11330
ren	11331
reli	11332
reme	11333
react	11334
reque	11335
ths	11336
tho	11337
thar	11338
that	11339
thum	11340
ബനം	11341
compe	11342
കഫം	11343
കഫെ	11344
കഫൻ	11345
sto	11346
stat	11347
stha	11348
stude	11349
ലൻറ	11350
989	11351
983	11352
986	11353
##rem	11354
emp	11355
emot	11356
ഐഷാ	11357
ert	11358
vim	11359
vip	11360
vior	11361
##cep	11362
തപുരം	11363
proje	11364
produ	11365
ബൽവ	11366
acp	11367
acts	11368
acute	11369
ntpc	11370
rest	11371
ment	11372
ഊഹാ	11373
low	11374
loy	11375
loma	11376
loot	11377
lowe	11378
ദോല	11379
##lass	11380
cond	11381
conce	11382
conne	11383
conju	11384
tox	11385
toefl	11386
chor	11387
def	11388
dead	11389
depr	11390
delhi	11391
nee	11392
new	11393
ned	11394
ard	11395
##ase	11396
##asc	11397
cee	11398
ceo	11399
cet	11400
ced	11401
cpi	11402
cpc	11403
ടപെട	11404
pol	11405
powe	11406
point	11407
eng	11408
end	11409
ente	11410
nics	11411
nical	11412
offi	11413
rse	11414
ഔഷധസ	11415
ദഹി	11416
see	11417
sec	11418
sed	11419
sect	11420
seva	11421
secl	11422
self	11423
റുപട	11424
ഈനം	11425
##urs	11426
days	11427
share	11428
shank	11429
നൗക	11430
they	11431
karu	11432
rial	11433
rite	11434
rior	11435
riya	11436
024	11437
ams	11438
amal	11439
ലഖാ	11440
ംഘട	11441
itbp	11442
ssme	11443
ipc	11444
rak	11445
rahul	11446
rajas	11447
ഗഗൻ	11448
##ush	11449
bef	11450
bene	11451
beha	11452
beml	11453
beau	11454
gen	11455
ics	11456
jour	11457
അളക	11458
ഖമർ	11459
down	11460
noce	11461
ിവസം	11462
crs	11463
cry	11464
crz	11465
cric	11466
rol	11467
rome	11468
rose	11469
rovi	11470
035	11471
exi	11472
hee	11473
here	11474
led	11475
lett	11476
leve	11477
mot	11478
most	11479
mobi	11480
##ava	11481
bir	11482
boys	11483
holl	11484
hotel	11485
lak	11486
last	11487
mak	11488
may	11489
sco	11490
sct	11491
atc	11492
adak	11493
nath	11494
wee	11495
കഷണ	11496
hir	11497
iry	11498
irat	11499
like	11500
nds	11501
ndrf	11502
why	11503
ഈഴം	11504
ഈഴവർ	11505
##scap	11506
dia	11507
dip	11508
dire	11509
ivor	11510
mart	11511
subje	11512
spare	11513
spri	11514
space	11515
plat	11516
qui	11517
quo	11518
quid	11519
quee	11520
sip	11521
trust	11522
trans	11523
ൾവൽ	11524
jun	11525
ഖബർ	11526
asap	11527
caa	11528
cate	11529
cast	11530
caut	11531
ngs	11532
paw	11533
soul	11534
src	11535
vehi	11536
world	11537
ലശല	11538
fir	11539
fix	11540
fire	11541
hab	11542
mbps	11543
mbbs	11544
mgr	11545
nsu	11546
twit	11547
ഫഖറ	11548
്യയുട	11549
staff	11550
imm	11551
imp	11552
msi	11553
msf	11554
uram	11555
vol	11556
voice	11557
ഈറന	11558
ഖേർ	11559
ഗേൽ	11560
joint	11561
bs6	11562
safe	11563
ways	11564
അഗത	11565
അഗഏ	11566
posts	11567
again	11568
candi	11569
cance	11570
idu	11571
miot	11572
much	11573
nni	11574
patna	11575
എഴോ	11576
bhel	11577
bhub	11578
frie	11579
kple	11580
llam	11581
olle	11582
phd	11583
ഭജഗ	11584
indu	11585
colla	11586
casts	11587
dsjp	11588
igm	11589
kmnp	11590
ogy	11591
pslv	11592
port	11593
rrb	11594
rrt	11595
triva	11596
ഓറം	11597
ഓറൽ	11598
സയന	11599
corre	11600
corne	11601
cormy	11602
show	11603
youtu	11604
ayu	11605
brea	11606
flush	11607
ihu	11608
line	11609
monit	11610
rica	11611
rict	11612
sdma	11613
ഗൈം	11614
##rfa	11615
തിപക്	11616
mohfw	11617
area	11618
cng	11619
clear	11620
donat	11621
eos	11622
ecta	11623
fuel	11624
fund	11625
hara	11626
iocl	11627
ആമോ	11628
ദൈമ	11629
്തുവ	11630
##ght	11631
assi	11632
blue	11633
csr	11634
cles	11635
ccu	11636
frust	11637
finge	11638
glish	11639
jnu	11640
laime	11641
smar	11642
synd	11643
ഖൈറ	11644
ശശീ	11645
quara	11646
cdac	11647
cert	11648
dprem	11649
ficat	11650
favou	11651
ggle	11652
havan	11653
nurse	11654
paree	11655
salu	11656
trea	11657
uidai	11658
yanad	11659
zabe	11660
ഘനം	11661
തദ്ദേ	11662
നഈം	11663
യയിലെ	11664
റഅറ	11665
സഘം	11666
ഹണീ	11667
##mwf	11668
count	11669
court	11670
chief	11671
bpl	11672
batt	11673
cctv	11674
dict	11675
ecmwf	11676
from	11677
gvn	11678
gdrfa	11679
gang	11680
green	11681
mpsc	11682
n95	11683
nash	11684
occrp	11685
rapi	11686
srey	11687
yrs	11688
yell	11689
ഇമോ	11690
ഉഭയ	11691
ഖീർ	11692
ങനെ	11693
ജൗറ	11694
ജവഗ	11695
ഫൂൾ	11696
മഅട	11697
റഊഫ	11698
െളിയ	11699
്ദേഹം	11700
നാധിപ	11701
രുതെന	11702
counc	11703
!?	11704
"'	11705
")	11706
"?	11707
"!	11708
":	11709
%-	11710
'.	11711
'!	11712
($	11713
,'	11714
,.	11715
-)	11716
-:	11717
.-	11718
.'	11719
/>	11720
1k	11721
1ദ	11722
1ബി	11723
1ാം	11724
2ി	11725
2g	11726
2d	11727
2ബി	11728
2ഉം	11729
3c	11730
3ൽ	11731
3ഉ	11732
3ജി	11733
3ലെ	11734
3ബി	11735
3നു	11736
3rd	11737
4g	11738
4ഡി	11739
4ലെ	11740
4ാം	11741
5o	11742
5g	11743
5d	11744
5x	11745
5എ	11746
5ലെ	11747
5ാം	11748
5th	11749
6ൽ	11750
6നു	11751
6നോ	11752
7ൽ	11753
7ടി	11754
7ബി	11755
7th	11756
7ആം	11757
8ലെ	11758
8നു	11759
9നോ	11760
:-	11761
?'	11762
?)	11763
[[	11764
\"	11765
]"	11766
ao	11767
a3	11768
az	11769
aes	11770
aon	11771
aor	11772
adi	11773
ave	11774
ain	11775
ape	11776
aso	11777
age	11778
asc	11779
afe	11780
aust	11781
aapp	11782
aqu	11783
aims	11784
aay	11785
aja	11786
bala	11787
bit	11788
bin	11789
bla	11790
bil	11791
bap	11792
bms	11793
bac	11794
bha	11795
bsc	11796
bum	11797
btc	11798
bds	11799
bing	11800
bmw	11801
bft	11802
bpcl	11803
base	11804
cv	11805
cg	11806
cw	11807
cx	11808
cj	11809
ces	11810
cis	11811
cdi	11812
cad	11813
cli	11814
cri	11815
cac	11816
cme	11817
cag	11818
cse	11819
cum	11820
cbt	11821
cld	11822
cds	11823
cue	11824
came	11825
cdc	11826
call	11827
cust	11828
cagr	11829
cgp	11830
camo	11831
caiib	11832
class	11833
cava	11834
d2	11835
db	11836
dc	11837
d1	11838
dയ	11839
dt	11840
dx	11841
dq	11842
dj	11843
dala	11844
dts	11845
dle	11846
din	11847
das	11848
did	11849
ddf	11850
dim	11851
dme	11852
dcl	11853
dwe	11854
dall	11855
dand	11856
dssc	11857
dils	11858
dfw	11859
dmo	11860
damo	11861
el	11862
eu	11863
ete	11864
ear	11865
edi	11866
eva	11867
eep	11868
eom	11869
epi	11870
ept	11871
escap	11872
fc	11873
f1	11874
fൽ	11875
fk	11876
fവ	11877
fd	11878
fy	11879
fn	11880
fcc	11881
fare	11882
fac	11883
fair	11884
fll	11885
fice	11886
fok	11887
fame	11888
find	11889
fest	11890
fasc	11891
gb	11892
g9	11893
gj	11894
gar	11895
gps	11896
gce	11897
git	11898
gin	11899
gcc	11900
gim	11901
gap	11902
gri	11903
gul	11904
gha	11905
gali	11906
gest	11907
glass	11908
gasc	11909
hി	11910
hes	11911
ham	11912
hala	11913
hat	11914
hai	11915
hor	11916
hts	11917
hre	11918
had	11919
hid	11920
hap	11921
hri	11922
hus	11923
halam	11924
hali	11925
hum	11926
hild	11927
hna	11928
hind	11929
hrd	11930
hsg	11931
hint	11932
hpcl	11933
hka	11934
hase	11935
hscap	11936
ik	11937
iy	11938
if	11939
iat	11940
iic	11941
itt	11942
iit	11943
ide	11944
ius	11945
iav	11946
iys	11947
ill	11948
iff	11949
iol	11950
iuc	11951
iata	11952
iage	11953
je	11954
ji	11955
jc	11956
j9	11957
jp	11958
jan	11959
jam	11960
jis	11961
jul	11962
jdu	11963
jpg	11964
jdd	11965
jaiib	11966
kc	11967
kt	11968
kv	11969
kw	11970
kan	11971
kit	11972
kid	11973
kap	11974
kum	11975
krd	11976
kyc	11977
l2	11978
lm	11979
ls	11980
lb	11981
lv	11982
lu	11983
lp	11984
les	11985
lan	11986
lar	11987
lon	11988
lat	11989
lis	11990
ltt	11991
lve	11992
lce	11993
lad	11994
lare	11995
ljp	11996
lus	11997
lfi	11998
lll	11999
lish	12000
lly	12001
lbt	12002
lue	12003
lke	12004
ldc	12005
lale	12006
land	12007
lore	12008
lach	12009
lsg	12010
lpg	12011
mx	12012
m8	12013
mj	12014
mal	12015
mat	12016
mor	12017
mts	12018
mcc	12019
mpe	12020
map	12021
mur	12022
mac	12023
mha	12024
main	12025
msc	12026
mess	12027
mrf	12028
mwp	12029
mact	12030
mach	12031
m16	12032
mhr	12033
nl	12034
nv	12035
nw	12036
nq	12037
nf	12038
nz	12039
nes	12040
nan	12041
nte	12042
nps	12043
nre	12044
nad	12045
nss	12046
nla	12047
ncc	12048
nde	12049
nri	12050
nac	12051
nme	12052
nsc	12053
nair	12054
nali	12055
nhi	12056
nke	12057
nje	12058
nale	12059
ness	12060
nals	12061
nava	12062
ob	12063
oന	12064
oc	12065
oൻ	12066
oഗ	12067
oes	12068
odi	12069
oce	12070
odia	12071
ola	12072
ous	12073
ose	12074
opr	12075
oly	12076
otc	12077
otte	12078
old	12079
opp	12080
oast	12081
ogi	12082
opt	12083
opo	12084
oval	12085
oard	12086
pi	12087
pv	12088
pd	12089
pes	12090
pan	12091
pam	12092
pon	12093
pic	12094
pap	12095
pur	12096
put	12097
pac	12098
pime	12099
ppp	12100
pgi	12101
ppi	12102
pie	12103
papp	12104
page	12105
pwc	12106
qb	12107
qi	12108
qc	12109
qr	12110
qy	12111
qat	12112
qld	12113
qia	12114
rk	12115
rg	12116
rp	12117
rj	12118
ram	12119
rar	12120
rai	12121
rve	12122
rail	12123
ras	12124
rid	12125
rge	12126
rma	12127
rali	12128
rws	12129
rtc	12130
rame	12131
rcl	12132
rpm	12133
rpo	12134
sx	12135
sq	12136
s3	12137
sn	12138
sj	12139
sz	12140
sam	12141
sala	12142
sic	12143
sst	12144
sve	12145
sail	12146
sin	12147
sss	12148
sli	12149
sne	12150
sri	12151
sul	12152
sav	12153
sma	12154
sws	12155
smi	12156
sbe	12157
same	12158
swe	12159
sand	12160
sisf	12161
sssc	12162
sfo	12163
t4	12164
ta	12165
tb	12166
tവ	12167
tg	12168
td	12169
tu	12170
tp	12171
t3	12172
tj	12173
tar	12174
tce	12175
tas	12176
tim	12177
tus	12178
tag	12179
tth	12180
tpr	12181
tice	12182
tsp	12183
tale	12184
tgp	12185
tun	12186
tpo	12187
tore	12188
tfw	12189
tpg	12190
t20	12191
um	12192
ui	12193
ug	12194
uf	12195
uat	12196
uts	12197
ule	12198
ust	12199
ula	12200
ude	12201
ume	12202
use	12203
uth	12204
uva	12205
upp	12206
ube	12207
uds	12208
uff	12209
udy	12210
vb	12211
vk	12212
vg	12213
vf	12214
vz	12215
var	12216
vur	12217
vya	12218
vro	12219
wm	12220
wb	12221
wl	12222
wr	12223
wt	12224
wv	12225
wg	12226
wd	12227
wx	12228
wu	12229
wp	12230
wf	12231
wj	12232
wz	12233
wal	12234
wes	12235
wan	12236
wam	12237
wat	12238
wai	12239
win	12240
was	12241
wpr	12242
wish	12243
wot	12244
wro	12245
wpi	12246
wdc	12247
wou	12248
wins	12249
x5	12250
xt	12251
xy	12252
yla	12253
ype	12254
yma	12255
yali	12256
yed	12257
ygi	12258
ymb	12259
ydy	12260
yard	12261
ze	12262
zh	12263
zy	12264
zn	12265
zain	12266
zhi	12267
zpm	12268
zone	12269
zzy	12270
अप	12271
अव	12272
आज	12273
इक	12274
कर	12275
गय	12276
गठ	12277
चर	12278
तर	12279
थम	12280
दल	12281
दौ	12282
दि	12283
धन	12284
मे	12285
मह	12286
लि	12287
सा	12288
सब	12289
सह	12290
அத	12291
ஆண	12292
பட	12293
யப	12294
ംുര	12295
അൻ	12296
അഷ	12297
അഘ	12298
അൾ	12299
അഹ	12300
അ‌	12301
അയി	12302
അഗ്	12303
അങ്	12304
അണാ	12305
ആി	12306
ആോ	12307
ആസ	12308
ആഷ	12309
ആഉ	12310
ആ൪	12311
ആഡി	12312
ആദ്	12313
ആണം	12314
ആങ്	12315
ആആർ	12316
ആസാ	12317
ഇ4	12318
ഇs	12319
ഇണ	12320
ഇ7	12321
ഇശ	12322
ഇഫ	12323
ഇഥ	12324
ഇഈ	12325
ഇഓ	12326
ഇഹു	12327
ഇലെ	12328
ഇഫ്	12329
ഇഗോ	12330
ഇആർ	12331
ഈക	12332
ഈമ	12333
ഈയ	12334
ഈഷ	12335
ഈശ	12336
ഈഫ	12337
ഈആ	12338
ഈധി	12339
ഈണമ	12340
ഈമല	12341
ഉർ	12342
ഉസ	12343
ഉധ	12344
ഉൺ	12345
ഉറി	12346
ഉകെ	12347
ഉഫ്	12348
ഊദ	12349
ഊൺ	12350
ഊരു	12351
ഊറി	12352
ഊടു	12353
ഋണമ	12354
എ2	12355
എക	12356
എ്	12357
എർ	12358
എമ	12359
എ5	12360
എര	12361
എവ	12362
എങ	12363
എ8	12364
എഖ	12365
എñ	12366
എറി	12367
എപ്	12368
എ30	12369
ഏരി	12370
ഏസി	12371
ഏജി	12372
ഏകാ	12373
ഐർ	12374
ഐമ	12375
ഐര	12376
ഐൻ	12377
ഐഐ	12378
ഐഗ	12379
ഐഇ	12380
ഐറെ	12381
ഐആർ	12382
ഐ20	12383
ഒക	12384
ഒു	12385
ഒൽ	12386
ഒഡ	12387
ഒര്	12388
ഒടെ	12389
ഒവി	12390
ഒരം	12391
ഒസി	12392
ഒഡി	12393
ഒഴു	12394
ഒയോ	12395
ഓപ	12396
ഓള	12397
ഓസ	12398
ഓെ	12399
ഓഹ	12400
ഓഡ	12401
ഓഉ	12402
ഓസ്	12403
ഓപി	12404
ഓസി	12405
ഓറോ	12406
ഓവ്	12407
ഓയോ	12408
ഔറ	12409
ഔമന	12410
ഔസം	12411
കഎ	12412
കഉ	12413
കഠ	12414
കൡ	12415
കട്	12416
കണി	12417
കജെ	12418
കയില	12419
കവണ	12420
കപ്	12421
കശ്	12422
ഖർ	12423
ഖൗ	12424
ഖള	12425
ഖത	12426
ഖറ	12427
ഖൂ	12428
ഖഢ	12429
ഖാര	12430
ഖതാ	12431
ഖിവ	12432
ഖ്വ	12433
ഖാല	12434
ഗഭ	12435
ഗബ	12436
ഗഌ	12437
ഗറി	12438
ഗണം	12439
ഗമന	12440
ഗവ്	12441
ഗർശ	12442
ഗമായി	12443
ഗയെ	12444
ഘധ	12445
ഘഡ	12446
ഘ്പ	12447
ഘ്യ	12448
ഘനി	12449
ഘഉഎ	12450
ങു	12451
ങാ	12452
ങഘ	12453
ങവ	12454
ങേ	12455
ങങ	12456
ങജ	12457
ചച	12458
ചമ	12459
ചസ	12460
ചജ	12461
ചഗ	12462
ചആ	12463
ചഇ	12464
ചഠ	12465
ചഛ	12466
ചാന	12467
ഛോ	12468
ഛയ	12469
ഛഗ	12470
ഛത്	12471
ഛവി	12472
ഛായ	12473
ജദ	12474
ജൾ	12475
ജഹ	12476
ജഞ	12477
ജഅ	12478
ജാന	12479
ജറി	12480
ജസി	12481
ജാട	12482
ജലി	12483
ജാല	12484
ജവന	12485
ജൻസ	12486
ജഹദ	12487
ജബി	12488
ഝു	12489
ഝബ	12490
ഝലം	12491
ഞൻ	12492
ഞട	12493
ഞറ	12494
ട2	12495
ടബ	12496
ടഗ	12497
ടരു	12498
ടോഗ	12499
ടപ്	12500
ടഫ്	12501
ഠൗ	12502
ഠാ	12503
ഠഖ	12504
ഠ്യ	12505
ഡർ	12506
ഡറ	12507
ഡൊ	12508
ഡഒ	12509
ഡഢ	12510
ഢ്	12511
ണണ	12512
ണo	12513
ണശ	12514
ണൺ	12515
ണ‌	12516
ണഇ	12517
ണയം	12518
ണമാണ	12519
തൗ	12520
തശ	12521
തഖ	12522
തൺ	12523
ത‍	12524
തള്	12525
തങ്	12526
ഥു	12527
ഥം	12528
ഥ്യ	12529
ഥും	12530
ഥാപന	12531
ദദ	12532
ദഡ	12533
ദഅ	12534
ദഏ	12535
ദും	12536
ദസ്	12537
ദക്	12538
ദവർ	12539
ദഹന	12540
ദങ്	12541
ദയം	12542
ദളം	12543
ധട	12544
ധഗ	12545
ധൈ	12546
ധമാ	12547
ധപ്പ	12548
ധ്വ	12549
ധപ്	12550
നണ	12551
നൌ	12552
നആ	12553
നഴ്	12554
നപ്	12555
നൂഹ	12556
നഖ്	12557
പയ	12558
പഫ	12559
പഖ	12560
പജ	12561
പാന	12562
പധി	12563
പരോ	12564
പശ്	12565
പബ്	12566
പർണ	12567
പയർ	12568
പ16	12569
ഫമ	12570
ഫൽ	12571
ഫൻ	12572
ഫഹ	12573
ഫഗ	12574
ഫ‍	12575
ഫും	12576
ഫത്	12577
ബച	12578
ബട	12579
ബശ	12580
ബഥ	12581
ബഛ	12582
ബും	12583
ബദ്	12584
ബീഷ	12585
ബവധ	12586
ബലെ	12587
ബ‌ി	12588
ഭസ	12589
ഭെ	12590
ഭൃ	12591
ഭ്ര	12592
ഭരം	12593
ഭവർ	12594
മഭ	12595
മശ	12596
മ‍	12597
മൌ	12598
മഢ	12599
മ്ര	12600
മധി	12601
മയാ	12602
മൈന	12603
മണമ	12604
യക	12605
യധ	12606
യങ	12607
യ്മ	12608
യമസഭ	12609
യ‌ി	12610
രർ	12611
രര	12612
രഷ	12613
രഴ	12614
രഇ	12615
രചര	12616
രധാന	12617
രകട	12618
രൻസ	12619
രധാ	12620
റർ	12621
റള	12622
റത	12623
റധ	12624
റശ	12625
റീസ	12626
റൈന	12627
റണാ	12628
ലണ	12629
ലള	12630
ലഊ	12631
ലധി	12632
ലഡി	12633
ലവർ	12634
ലഗ്	12635
ലപാ	12636
ലയം	12637
ലഖ്	12638
ളൽ	12639
ളഭ	12640
ളട	12641
ളൾ	12642
ളഅ	12643
ളൈ	12644
ളവര	12645
ഴണ	12646
ഴോ	12647
ഴര	12648
ഴീ	12649
ഴശ	12650
വ‍	12651
വയി	12652
വവി	12653
വവർ	12654
വധര	12655
ശഹ	12656
ശീയ	12657
ശമന	12658
ശകാ	12659
ശഷി	12660
ഷള	12661
ഷത	12662
ഷധ	12663
ഷഗ	12664
ഷഅ	12665
ഷ്പ	12666
ഷത്	12667
ഷഷ്	12668
ഷവർ	12669
സങ	12670
സഴ	12671
സങ്ങ	12672
സേഷ	12673
സയം	12674
സലീ	12675
ഹട	12676
ഹൾ	12677
ഹഹ	12678
ഹൂ	12679
ഹക്	12680
ഹരാ	12681
ഹ്വ	12682
ഹാല	12683
ഹളം	12684
ിദ്യ	12685
ുതിയ	12686
ുസരി	12687
ുഭവ	12688
ൃശ	12689
ൃശ്യ	12690
ൃഷ്	12691
ൃപ്	12692
െങ	12693
െൈ	12694
െകെ	12695
േച	12696
േധി	12697
േരള	12698
ൈച	12699
ൊച്	12700
ോപണ	12701
്എ	12702
്ങ	12703
്‍	12704
്‌	12705
്ഇ	12706
്ദേശ	12707
്ഷേ	12708
ൡഗ	12709
ൺർ	12710
ൺഹ	12711
ൻല	12712
ൻർ	12713
ൻത	12714
ൻര	12715
ൻധ	12716
ൻഗ	12717
ൻഝ	12718
ൻവര	12719
ൻമന	12720
ൻറ്	12721
ൻർമ	12722
ർർ	12723
ർര	12724
ർൺ	12725
ർത്	12726
ർവേ	12727
ർമസ	12728
ൽച	12729
ൽറ	12730
ൽശ	12731
ൽദ	12732
ൽഎ	12733
ൽഉ	12734
ൽ‌	12735
ൽവേ	12736
ൾച	12737
ൾന	12738
ൾദ	12739
ൾഹ	12740
ൾജ	12741
‌2	12742
‌ന	12743
‌അ	12744
‌ന്	12745
‌പി	12746
‌ജെ	12747
‌തു	12748
‌സം	12749
‌30	12750
‍5	12751
‍ഡി	12752
ルー	12753
湘南	12754
🎖.	12755
👌👌	12756
💎💎	12757
😍😍	12758
😘😘	12759
🙏🏻	12760
🤝🤝	12761
🥦🐟	12762
##mc	12763
##mp	12764
##sb	12765
##sis	12766
##aw	12767
##aj	12768
##ate	12769
##ays	12770
##ber	12771
##bra	12772
##bby	12773
##ec	12774
##ey	12775
##en	12776
##eet	12777
##ena	12778
##പോ	12779
##lo	12780
##lt	12781
##lp	12782
##lar	12783
##lme	12784
##io	12785
##if	12786
##നള	12787
##cat	12788
##cha	12789
##chi	12790
##മ്	12791
##oe	12792
##oo	12793
##ov	12794
##ox	12795
##oy	12796
##of	12797
##opt	12798
##rb	12799
##rl	12800
##rg	12801
##ris	12802
##tal	12803
##ho	12804
##hy	12805
##hu	12806
##har	12807
##hss	12808
##hil	12809
##hep	12810
##hdc	12811
##ീക	12812
##ks	12813
##kl	12814
##kwc	12815
##vc	12816
##vo	12817
##vp	12818
##vor	12819
##vis	12820
##vot	12821
##വറ	12822
##gm	12823
##gr	12824
##gge	12825
##റബ	12826
##wa	12827
##wi	12828
##wu	12829
##wj	12830
##dp	12831
##dus	12832
##dma	12833
##dro	12834
##dhi	12835
##dom	12836
##dol	12837
##ദല	12838
##ദീക	12839
##xt	12840
##xx	12841
##ങന	12842
##ഹള	12843
##ym	12844
##yu	12845
##yas	12846
##ud	12847
##ux	12848
##udi	12849
##und	12850
##pa	12851
##per	12852
##nl	12853
##nal	12854
##nam	12855
##nar	12856
##ഴാണ	12857
##fp	12858
##fts	12859
##fdc	12860
##jr	12861
##jun	12862
##joy	12863
##za	12864
##zhi	12865
##美容	12866
##ムブ	12867
ക്കരു	12868
ുന്നറ	12869
മാമ	12870
മാഷ	12871
മാഘ	12872
മാരുട	12873
നിള	12874
നിബ	12875
വി4	12876
വിെ	12877
വി8	12878
വിഐ	12879
പ്രക	12880
പ്രധ	12881
പ്രത്	12882
ിലയില	12883
ത്ന	12884
മുൽ	12885
യുൻ	12886
യു‌	12887
##ിയത	12888
ിക്കപ	12889
തിെ	12890
തിബ	12891
സ്ി	12892
ങ്ങളു	12893
്യമി	12894
്യമന	12895
യി‌	12896
ിനക	12897
സംത	12898
ചെം	12899
ചെൻ	12900
ട്ടങ്	12901
കോി	12902
പറി	12903
പറവ	12904
ിരഞ്	12905
നടമ	12906
്ടല	12907
നേം	12908
പോഴാണ	12909
കേയ	12910
കേത	12911
ന്നായ	12912
ന്നിൽ	12913
ന്നെയ	12914
ദ്‌	12915
പിച	12916
പിഒ	12917
പി‌	12918
പിന്റ	12919
സി4	12920
സിമ	12921
സിവ	12922
സി‌	12923
സിഇ	12924
സിദ്	12925
വരണ	12926
വാങ	12927
പാപ	12928
ടുത്	12929
ടുപ്	12930
കൊണ്	12931
കൊപ്	12932
കൊച്	12933
സാഷ	12934
ുമില	12935
പേക	12936
പേമ	12937
സ്വക	12938
രിച	12939
രിെ	12940
രിധ	12941
രിമാര	12942
രിച്	12943
താള	12944
താൽ	12945
താസ	12946
താവി	12947
തു‌	12948
തുന്	12949
തുപോ	12950
വെൽ	12951
മനന	12952
മനര	12953
മനറ	12954
മനഃ	12955
യെങ്	12956
നാഭ	12957
നാൻ	12958
ബി4	12959
ബിർ	12960
ബിം	12961
ബിമ	12962
ബി‌	12963
ബിഇ	12964
ത്തെത	12965
കാജ	12966
കാക്	12967
ായപ്	12968
അതൊ	12969
ികൂ	12970
തിനോ	12971
അവൽ	12972
അവസ	12973
കൂി	12974
കൂന	12975
കൂര	12976
കൂബ	12977
തെയ	12978
റിത	12979
റിഞ	12980
റിഞ്	12981
റിച്	12982
ുറ്	12983
ായിട്	12984
കെർ	12985
കെ1	12986
കെൻ	12987
കെ3	12988
കെഒ	12989
കെ‌	12990
തീൻ	12991
തീക്	12992
ഇതോ	12993
ഇതൊ	12994
പറയുന	12995
എം4	12996
എംക	12997
എംഇ	12998
ടിറ	12999
ടിഇ	13000
ടിയി	13001
വേൽ	13002
മെം	13003
ബാൻ	13004
ബാൾ	13005
ബാഗ	13006
ക്ഷക	13007
ജനങ്	13008
ഡിഐ	13009
മേം	13010
്പറ	13011
്പാട	13012
്ഥി	13013
വലഖ	13014
തോൽ	13015
ോടത	13016
യോം	13017
വർൽ	13018
വർത	13019
മ്മദ	13020
സീബ	13021
വൈൽ	13022
നിരക്	13023
ആവണ	13024
അനാ	13025
സർല	13026
സർദ	13027
സർജ	13028
ജോന	13029
ജോം	13030
ജോബ	13031
ജീജ	13032
ലിഗ	13033
ണമസ	13034
ജി2	13035
ജി5	13036
ജിഹ	13037
ജിഇ	13038
സഹല	13039
സഹൽ	13040
നൽസ	13041
നൽവ	13042
ചോള	13043
ാർട	13044
നീം	13045
അറ്	13046
അറു	13047
അറം	13048
അറേ	13049
രീപ	13050
തിരിക	13051
മിണ	13052
മിം	13053
മിൽ	13054
മിസ	13055
മിൻ	13056
മോച	13057
മോണ	13058
മോന	13059
മോഖ	13060
മോഡ	13061
പെണ	13062
പെമ	13063
പെൻ	13064
വിശ്	13065
ൂടുത	13066
്വയം	13067
വയോ	13068
വയെ	13069
വയബ	13070
കിഫ	13071
കിയിര	13072
ിതേ	13073
കൈം	13074
കൈത	13075
ജെ2	13076
ജെന	13077
ജെൽ	13078
ജെഎ	13079
ജെ6	13080
ജെ‌	13081
ഡോൾ	13082
പോകാ	13083
സൂൺ	13084
പലക	13085
പലർ	13086
പലാ	13087
സെ്	13088
സെപ	13089
സെറ	13090
തലൻ	13091
ഷണല	13092
ശതമ	13093
സൗധ	13094
ണിം	13095
്കെട	13096
്കാല	13097
്കണമ	13098
ഗുൽ	13099
ഗുൾ	13100
ഗുഢ	13101
നെല	13102
നെൽ	13103
നെൻ	13104
ാകെ	13105
റാബ	13106
റാഹ	13107
ിവരം	13108
ഗോർ	13109
മൂക	13110
്സയില	13111
ഫോറ	13112
ഹിൻ	13113
ഹിബ	13114
വുദ	13115
റോമ	13116
റോഷ	13117
റോദ	13118
റോജ	13119
റോൺ	13120
തയെ	13121
ദുൾ	13122
ഷനക	13123
കണക	13124
കണവ	13125
മലാ	13126
ഭൂത	13127
ടെസ	13128
റുത	13129
ബ്ി	13130
ബ്ന	13131
ാളം	13132
യേണ്ട	13133
തിലൂ	13134
നോക	13135
നോം	13136
ഫലെ	13137
ഫലാ	13138
ലാമ	13139
ിവരങ്	13140
കുറഞ	13141
യ്ൽ	13142
യ്സ	13143
യ്ഫ	13144
യ്ഡ	13145
മഹർ	13146
കരീ	13147
ഫ്ഐ	13148
ഒന്നു	13149
നഗാ	13150
ലൈല	13151
ലൈബ	13152
ശനക	13153
ശനം	13154
ആർ8	13155
ലുല	13156
10_	13157
ശാം	13158
ശാവ	13159
തേവ	13160
ബോമ	13161
ബോൽ	13162
എഫോ	13163
ഒഴല	13164
എൽസ	13165
എൽഡ	13166
എൽ3	13167
എൽ‍	13168
തരമ	13169
തരൺ	13170
തരത്ത	13171
േസെട	13172
ദേക	13173
ദേർ	13174
ദേം	13175
ആഗാ	13176
ആകം	13177
ആകൂ	13178
ദിപ	13179
ദിമ	13180
ദിൻ	13181
ദിഗ	13182
ചൂള	13183
ചൂര	13184
കലൈ	13185
ചാർ	13186
ചാള	13187
ചാൽ	13188
ളിച്	13189
എൻഎ	13190
എൻ‍	13191
എൻഇ	13192
എനിക്	13193
മഴന	13194
ഗ്ന	13195
ഉൾഫ	13196
േജാ	13197
ആയെ	13198
നവമ	13199
നവൽ	13200
നവൃ	13201
ഇറഖ	13202
ഷിു	13203
ഷിഷ	13204
ഷിദ	13205
ഫിെ	13206
ച്ചെന	13207
ലെങ്	13208
എസോ	13209
എസം	13210
ഷംല	13211
്മല	13212
ഗ്രൂപ	13213
ണ്ഡല	13214
േഷമ	13215
അയു	13216
മതേ	13217
വനു	13218
വനമ	13219
അടക	13220
ജൂണ	13221
ചർച	13222
20x	13223
ഡ്ജ	13224
ഡ്‌	13225
സന്ദര	13226
15a	13227
12b	13228
12ൽ	13229
12എ	13230
മകം	13231
ലംബ	13232
ലം‌	13233
രിഗണ	13234
രമപ	13235
കയല	13236
്നയ	13237
്നൂ	13238
്നാല	13239
്നെയ	13240
്ച്	13241
ഏകന	13242
ഏകം	13243
ധാർ	13244
്താണ്	13245
ആണല	13246
ആണീ	13247
ആണഅ	13248
പീർ	13249
പീത	13250
ിരിച്	13251
രോം	13252
രോമ	13253
റിയിക	13254
അസല	13255
അസറ	13256
ഫാൾ	13257
ദാം	13258
ദാസ	13259
ദാൻ	13260
ബഹി	13261
ബഹല	13262
ബഹൽ	13263
ബഹഹള	13264
നൂർ	13265
നൂൽ	13266
നൂൺ	13267
അഡീ	13268
്മേള	13269
14വ	13270
ീഷണി	13271
നമൽ	13272
നമൻ	13273
നമഃ	13274
ദൃഢ	13275
രണർ	13276
്ഷക	13277
്ഷിക	13278
ഥാപി	13279
50ൽ	13280
ഖാർ	13281
ഖാസ	13282
ഖാത	13283
സജൻ	13284
13ൽ	13285
13ാ	13286
ഹ്ന	13287
ബുത	13288
ബീർ	13289
ബീഗ	13290
ടാം	13291
ടാൻ	13292
ടാഡ	13293
ഹോമ	13294
ഹോബ	13295
ഷോല	13296
ഷോം	13297
ഷോമ	13298
ഷോൾ	13299
25ൽ	13300
25ഐ	13301
ിരുന്	13302
ൻസഭ	13303
ർഗഡ	13304
സോർ	13305
ഫെൻ	13306
ജനാധ	13307
ടോർ	13308
റൂൺ	13309
ഇസഡ	13310
ഇസൈ	13311
16ൽ	13312
ണയു	13313
റേസ	13314
40ൽ	13315
ചീ്	13316
ചീല	13317
രഹേ	13318
്യോഗസ	13319
ഇവു	13320
ഗമോ	13321
ഒരൂ	13322
വകെ	13323
പകല	13324
പകം	13325
ജലഅ	13326
സണൽ	13327
ഡിയയ	13328
പഴമ	13329
കനക	13330
കനള	13331
്ധ്	13332
േതൃ	13333
ജറദ	13334
ലയർ	13335
ലയ്ക	13336
നസർ	13337
ബസോ	13338
ഫൈസ	13339
ചലേ	13340
സലാ	13341
ബജർ	13342
22ന	13343
22ഓ	13344
രജ്	13345
അലം	13346
അലസ	13347
ഡാർ	13348
ഡാൽ	13349
ഡാൻ	13350
വശള	13351
ഹെൽ	13352
പെടാ	13353
വധബ	13354
വറബ	13355
ിശദീക	13356
ഷാം	13357
മൈം	13358
അദൽ	13359
അദാ	13360
60ൽ	13361
609	13362
ഗണന	13363
സരഫ	13364
സരൺ	13365
ലമൽ	13366
ലമഹ	13367
മറൻ	13368
മറീ	13369
28ന	13370
28ൽ	13371
28ശ	13372
സനസ	13373
സനാ	13374
സനൂ	13375
്ബി	13376
ഇരൾ	13377
ശബള	13378
352	13379
ഐസു	13380
ഐസൺ	13381
മമച	13382
്രമല	13383
്ക്കാ	13384
ബർദ	13385
തമല	13386
തമൻ	13387
തമൺ	13388
ികാരത	13389
റീം	13390
ഡീം	13391
വോവ	13392
വോൺ	13393
459	13394
ഷെർ	13395
ർമവ	13396
ദീം	13397
ട്ണ	13398
ംകു	13399
804	13400
803	13401
മണന	13402
മണറ	13403
ങ്ഷ	13404
ina	13405
inl	13406
inr	13407
ines	13408
inve	13409
ince	13410
inde	13411
inse	13412
infe	13413
inue	13414
inke	13415
inqu	13416
inni	13417
ഷീമ	13418
ഭീൽ	13419
ോഗ്യ	13420
32ൽ	13421
ഐഎൽ	13422
അരൂ	13423
സഫി	13424
സഫർ	13425
സഫാ	13426
പനങ്	13427
ാവുന	13428
ക്കേണ	13429
വൽന	13430
ൊണ്ടു	13431
ആനു	13432
ആനോ	13433
ആനെ	13434
ആനീ	13435
ആനവ	13436
കുടും	13437
അശു	13438
374	13439
48ൽ	13440
സൺഫ	13441
മദം	13442
മദൽ	13443
ഷറഖ	13444
ർഥവ	13445
901	13446
908	13447
903	13448
വഴങ	13449
55o	13450
556	13451
75ൽ	13452
758	13453
എടല	13454
ർഹവ	13455
ദളോ	13456
ദളവ	13457
ഫറണ	13458
ഫറൻ	13459
ധവൽ	13460
രമിക്	13461
എഎഎ	13462
എഎഐ	13463
ആഴച	13464
്തിൽ	13465
388	13466
മധ്	13467
മധാ	13468
ബദൻ	13469
റൈമ	13470
റൈൻ	13471
യമൻ	13472
യമദ	13473
യമില	13474
ലക്കാ	13475
നതില്	13476
്യേക	13477
39ൽ	13478
39k	13479
ഡയൽ	13480
ഫഷൽ	13481
..)	13482
##ese	13483
##esl	13484
്രൂപ	13485
ജൻവ	13486
ളോഹ	13487
മർഹ	13488
493	13489
ആറാ	13490
ആറഅ	13491
ൾഡറ	13492
ൾഡൺ	13493
478	13494
ൽപട	13495
654	13496
ലവൽ	13497
ഫസദ	13498
##ane	13499
ദർഭ	13500
ദർഷ	13501
നരൻ	13502
coe	13503
coor	13504
cost	13505
cope	13506
coul	13507
coch	13508
cool	13509
coach	13510
cosis	13511
ർഘനള	13512
െരഞ്	13513
നകു	13514
മസം	13515
മസഭ	13516
##amp	13517
ൻറൽ	13518
ൻറാ	13519
അബല	13520
അബയ	13521
അബെ	13522
ജഗബ	13523
ജഗഡ	13524
റഫ്	13525
ശകല	13526
സൽമ	13527
സൽഫ	13528
547	13529
ഫഷണന	13530
കൻഷ	13531
ans	13532
ana	13533
ang	13534
any	13535
anat	13536
andi	13537
anad	13538
ange	13539
565	13540
569	13541
ലറശ	13542
അഭീ	13543
ൾസന	13544
ൾസൻ	13545
721	13546
പടികള	13547
ലഡ്	13548
531	13549
536	13550
രദേശി	13551
വഷല	13552
വഷയ	13553
ഷഹറ	13554
ഷഹദ	13555
സദഫ	13556
വഷളള	13557
ർദൻ	13558
ർദഹ	13559
ഖലയില	13560
##teo	13561
കവച	13562
ഇനെ	13563
gone	13564
goair	13565
gond	13566
goka	13567
ദലൈ	13568
ശവൻ	13569
ീക്കം	13570
ഹംന	13571
നനവ	13572
##arm	13573
##arl	13574
##art	13575
855	13576
859	13577
857	13578
നർഥ	13579
ുൻപ	13580
ഭഗന	13581
ഭഗവദ	13582
ked	13583
kex	13584
ബരൂ	13585
631	13586
രചാ	13587
ഹനം	13588
ഹനാ	13589
hants	13590
hande	13591
ഭഗവല	13592
ലഹര	13593
സറഹ	13594
##oni	13595
##ond	13596
663	13597
717	13598
ീവിത	13599
##ats	13600
വഗഡ	13601
643	13602
646	13603
77ൽ	13604
അംല	13605
അംബ	13606
പഥർ	13607
പഥം	13608
ഒപു	13609
ർണർ	13610
689	13611
686	13612
ralap	13613
ർബല	13614
ർബദ	13615
രൺസ	13616
രകത	13617
ോഴിക	13618
674	13619
67ൽ	13620
67വ	13621
##aid	13622
994	13623
991	13624
993	13625
ഗർമ	13626
ഗർഹ	13627
ഗർമല	13628
ഷേപ	13629
ഷേർ	13630
മുഹമ്	13631
697	13632
693	13633
696	13634
788	13635
786	13636
ചരിത്	13637
##ory	13638
ാറാക്	13639
951	13640
957	13641
or2	13642
ors	13643
orc	13644
orr	13645
ord	13646
ory	13647
oram	13648
ored	13649
orie	13650
orni	13651
741	13652
746	13653
നൊപ്പ	13654
യശസ	13655
റസല	13656
റസാ	13657
നൈൻ	13658
ൽസവ	13659
ടെയു	13660
iont	13661
822	13662
829	13663
823	13664
ഗസാ	13665
ഹുൻ	13666
ഹുവ	13667
73ൽ	13668
730	13669
738	13670
91ൽ	13671
913	13672
964	13673
962	13674
969	13675
963	13676
ികരിച	13677
844	13678
845	13679
849	13680
847	13681
848	13682
862	13683
861	13684
863	13685
884	13686
882	13687
883	13688
834	13689
837	13690
924	13691
922	13692
929	13693
926	13694
തഴെ	13695
794	13696
791	13697
798	13698
949	13699
940	13700
948	13701
946	13702
874	13703
872	13704
875	13705
87ൽ	13706
ഗഢ്	13707
894	13708
891	13709
895	13710
prime	13711
prep	13712
prest	13713
prese	13714
ൻവല	13715
935	13716
815	13717
819	13718
്ടിട	13719
്ടിക്	13720
ചൈൽ	13721
ലൗഹ	13722
ലൗൺ	13723
978	13724
##icb	13725
ജഗദല	13726
real	13727
reis	13728
rene	13729
rent	13730
reali	13731
reje	13732
rewi	13733
thr	13734
thd	13735
thy	13736
tham	13737
thou	13738
ശേം	13739
ബനീ	13740
ബനവ	13741
ബനധ	13742
ബനഗ	13743
ഭരത	13744
##tto	13745
ആൾ‌	13746
ഉന്നയ	13747
വൾഡ	13748
നഹല	13749
നഹീ	13750
coma	13751
come	13752
വദം	13753
std	13754
sty	13755
stal	13756
stro	13757
stop	13758
story	13759
പഹൽ	13760
വസ്ഥയ	13761
കാണുന	13762
ഹവൻ	13763
ടാകു	13764
ഫഡാ	13765
ഫഡറ	13766
സൻഷ	13767
സൻവ	13768
സൻറ	13769
സൻബ	13770
982	13771
980	13772
ൽബല	13773
eml	13774
emcc	13775
empe	13776
ഐഷെ	13777
ൻപറ	13778
erc	13779
err	13780
vin	13781
vine	13782
viva	13783
vita	13784
viber	13785
vivor	13786
ൽവൽ	13787
ൽവവ	13788
##cem	13789
സകർ	13790
തപൻ	13791
##ads	13792
##ina	13793
prob	13794
prose	13795
proof	13796
provo	13797
!!,	13798
ഥയെ	13799
acc	13800
ack	13801
acce	13802
acpi	13803
accep	13804
ntu	13805
ntal	13806
resa	13807
resi	13808
resh	13809
ala	13810
alo	13811
alt	13812
alan	13813
alle	13814
alamp	13815
mee	13816
mei	13817
men	13818
meal	13819
mees	13820
medi	13821
medc	13822
meow	13823
melt	13824
mecha	13825
ഭടദ	13826
ഊഹം	13827
കസർ	13828
ഗജശ	13829
lop	13830
loya	13831
lobe	13832
logi	13833
loqu	13834
lobby	13835
loks	13836
lotto	13837
ദോള	13838
condi	13839
const	13840
conge	13841
consc	13842
confe	13843
iims	13844
tom	13845
toa	13846
toc	13847
too	13848
tou	13849
tour	13850
toge	13851
total	13852
011	13853
018	13854
chi	13855
chd	13856
chy	13857
chad	13858
chas	13859
chain	13860
chair	13861
china	13862
പോസ്റ	13863
cti	13864
ctൽ	13865
ctat	13866
ctual	13867
dem	13868
ded	13869
dep	13870
dear	13871
deve	13872
dela	13873
defi	13874
deva	13875
debt	13876
deni	13877
dehy	13878
neo	13879
neve	13880
neus	13881
neoc	13882
ലഷം	13883
ഷബഅ	13884
ൽകി	13885
aram	13886
arat	13887
arts	13888
arair	13889
army	13890
araj	13891
arjun	13892
##asi	13893
cen	13894
cele	13895
ceme	13896
cell	13897
cept	13898
celp	13899
cp0	13900
force	13901
forum	13902
ടപടിയ	13903
ടൊപ്പ	13904
തബല	13905
രഥ്	13906
poor	13907
poly	13908
podol	13909
ende	13910
ensc	13911
ened	13912
enqu	13913
envi	13914
encep	13915
enjoy	13916
ksa	13917
ksbc	13918
ksba	13919
ksdma	13920
ksfdc	13921
off	13922
rsi	13923
രൻഭ	13924
sea	13925
seve	13926
ഗൺഡ	13927
ചരക	13928
##uta	13929
dac	13930
daf	13931
daad	13932
daak	13933
daca	13934
shs	13935
shi	13936
shal	13937
sham	13938
shail	13939
shot	13940
shine	13941
shane	13942
oot	13943
oof	13944
ools	13945
രൽമ	13946
ുഴുവ	13947
ൻമല	13948
ൻമർ	13949
ings	13950
rie	13951
rig	13952
riar	13953
rier	13954
ried	13955
rihar	13956
riyas	13957
rifts	13958
riond	13959
സബെ	13960
022	13961
021	13962
026	13963
ഹമ്	13964
##rif	13965
amm	13966
ame	13967
amc	13968
amit	13969
amri	13970
amma	13971
niv	13972
nix	13973
nifi	13974
niot	13975
nird	13976
nival	13977
night	13978
uld	13979
uly	13980
ulat	13981
ർസർ	13982
ർസൽ	13983
042	13984
049	13985
ംഘത്ത	13986
ംഘടന	13987
itl	13988
itc	13989
itle	13990
tea	13991
tec	13992
tepc	13993
teach	13994
tels	13995
text	13996
ഇഎൻ	13997
ഊണു	13998
ഊണോ	13999
ഗൂൺ	14000
ശമം	14001
ipad	14002
ray	14003
raf	14004
raz	14005
raer	14006
rape	14007
ract	14008
rafe	14009
raje	14010
rafo	14011
razy	14012
racem	14013
ഗഗന	14014
ാകുളം	14015
bed	14016
bets	14017
bequ	14018
being	14019
edal	14020
gmt	14021
gmat	14022
gec	14023
geo	14024
gems	14025
geci	14026
gend	14027
gemi	14028
gecs	14029
ica	14030
ico	14031
ict	14032
icp	14033
ices	14034
icat	14035
icai	14036
icse	14037
icris	14038
ആൽബ	14039
joy	14040
tya	14041
ജബജ	14042
dos	14043
doc	14044
doh	14045
door	14046
dome	14047
dose	14048
dood	14049
isc	14050
isr	14051
ish	14052
ison	14053
isag	14054
nol	14055
noc	14056
nose	14057
noth	14058
crt	14059
crit	14060
crim	14061
crpc	14062
crore	14063
crow	14064
rob	14065
roc	14066
row	14067
rop	14068
rove	14069
rour	14070
room	14071
roach	14072
rosh	14073
roads	14074
075	14075
077	14076
aiia	14077
aiims	14078
aiesl	14079
apb	14080
api	14081
appe	14082
apmc	14083
cma	14084
cmന	14085
cmr	14086
cmie	14087
exe	14088
exal	14089
exam	14090
exte	14091
exce	14092
excl	14093
hen	14094
head	14095
heli	14096
heart	14097
leo	14098
ley	14099
lep	14100
lear	14101
lead	14102
least	14103
leed	14104
left	14105
levis	14106
moha	14107
moca	14108
modus	14109
drm	14110
drf	14111
drat	14112
drro	14113
dress	14114
drop	14115
draw	14116
mm3	14117
nbj	14118
nbkl	14119
unr	14120
unk	14121
ung	14122
unഫ	14123
unil	14124
unnar	14125
ഈർഷ	14126
ബഗർ	14127
ബഗയ	14128
ഹൗസ	14129
ൂചന	14130
്നതും	14131
bij	14132
biod	14133
bird	14134
biju	14135
bien	14136
boat	14137
boby	14138
boyc	14139
how	14140
hod	14141
hour	14142
holi	14143
home	14144
hobi	14145
hold	14146
hopp	14147
hosp	14148
hood	14149
homo	14150
hours	14151
lab	14152
law	14153
lau	14154
lass	14155
laec	14156
lahdc	14157
mab	14158
maala	14159
mast	14160
maad	14161
maha	14162
maya	14163
make	14164
maza	14165
scan	14166
scss	14167
scri	14168
sche	14169
scvt	14170
scho	14171
tial	14172
tiba	14173
??.	14174
atm	14175
ads	14176
add	14177
adam	14178
adve	14179
adva	14180
adop	14181
adopt	14182
ghi	14183
ghz	14184
ghar	14185
ghma	14186
web	14187
wet	14188
weak	14189
well	14190
webs	14191
ഈസൽ	14192
ഗദല	14193
ഗദപ	14194
ഗദർ	14195
ററന	14196
സപം	14197
virs	14198
virt	14199
virg	14200
able	14201
abli	14202
abus	14203
abia	14204
abdom	14205
hig	14206
hipp	14207
iran	14208
irit	14209
irur	14210
irls	14211
light	14212
libra	14213
ndo	14214
ndms	14215
rata	14216
rati	14217
ratu	14218
ആൻവ	14219
ഈഴശ	14220
ൽഗർ	14221
ൽഗന	14222
##sca	14223
aeps	14224
dig	14225
dif	14226
diag	14227
diast	14228
divi	14229
ivals	14230
mpox	14231
mphil	14232
mars	14233
mari	14234
marr	14235
maru	14236
marar	14237
maray	14238
sure	14239
supr	14240
suff	14241
sugge	14242
sudhi	14243
spm	14244
spr	14245
spv	14246
spf	14247
spar	14248
spot	14249
എഗൻ	14250
്ചിട	14251
pmml	14252
plo	14253
ply	14254
ples	14255
plai	14256
plus	14257
plhi	14258
plund	14259
quic	14260
quit	14261
quali	14262
sive	14263
sias	14264
siva	14265
tric	14266
train	14267
trou	14268
trage	14269
ഈലം	14270
ഉലഹ	14271
ഖദം	14272
ഖദറ	14273
ൾവല	14274
ൾവറ	14275
യിലൂട	14276
്കുന	14277
ോലീസ്	14278
juu	14279
mkv	14280
ons	14281
ony	14282
onz	14283
onst	14284
once	14285
onli	14286
onfe	14287
vsd	14288
yogi	14289
yours	14290
ചൗര	14291
asi	14292
ask	14293
asv	14294
asis	14295
aser	14296
asia	14297
asym	14298
cape	14299
caud	14300
ngle	14301
ngus	14302
paed	14303
sos	14304
sol	14305
sou	14306
sour	14307
sous	14308
srpm	14309
srta	14310
veo	14311
vein	14312
vent	14313
veins	14314
veena	14315
word	14316
worms	14317
അർഥ	14318
ദൽധ	14319
ർഫക	14320
‌‌‌	14321
copa	14322
copy	14323
disa	14324
dise	14325
disp	14326
fits	14327
habi	14328
kod	14329
kott	14330
kout	14331
koll	14332
kolar	14333
kochi	14334
kozhi	14335
mbr	14336
mbt	14337
mbai	14338
mgn	14339
nsi	14340
nsh	14341
nsg	14342
nsw	14343
nsfe	14344
nsmi	14345
nsvp	14346
nced	14347
tweet	14348
ദൂർ	14349
ദൂം	14350
ബൾജ	14351
stab	14352
enti	14353
',.	14354
bab	14355
dyfl	14356
dynam	14357
fbil	14358
haird	14359
imi	14360
imf	14361
imst	14362
imagi	14363
kup	14364
kuwj	14365
msa	14366
msg	14367
tvpm	14368
url	14369
urt	14370
ury	14371
ural	14372
urge	14373
urya	14374
urpo	14375
vok	14376
vois	14377
vole	14378
vocs	14379
ഗേൾ	14380
ജൽന	14381
ജൽഗ	14382
നഫല	14383
മൗറ	14384
joine	14385
bsnl	14386
citi	14387
due	14388
duk	14389
myr	14390
myso	14391
myth	14392
mans	14393
mana	14394
mani	14395
mang	14396
mand	14397
many	14398
manag	14399
manju	14400
manja	14401
owb	14402
owi	14403
plast	14404
place	14405
plays	14406
rule	14407
rume	14408
ruff	14409
rugm	14410
say	14411
saf	14412
says	14413
saudi	14414
spea	14415
spee	14416
sfio	14417
ured	14418
അഗാ	14419
അഗദ	14420
ചഹൽ	14421
ജഖർ	14422
മഠ്	14423
ൻഹർ	14424
ർടര	14425
posi	14426
jobs	14427
jobb	14428
apply	14429
aga	14430
agr	14431
ages	14432
agree	14433
canad	14434
ido	14435
idai	14436
idbi	14437
kiif	14438
lyan	14439
lyco	14440
mir	14441
mip	14442
mila	14443
mute	14444
ncs	14445
ncb	14446
ncvt	14447
ncov	14448
ncrb	14449
nnai	14450
nnit	14451
nnual	14452
ntsk	14453
opec	14454
paton	14455
patch	14456
patie	14457
tty	14458
ഐഡൽ	14459
വഫഖ	14460
sexu	14461
cmdrf	14462
"..	14463
bhim	14464
bhoo	14465
bhasi	14466
buy	14467
bute	14468
buys	14469
bunal	14470
grm	14471
gram	14472
grad	14473
gras	14474
grap	14475
grace	14476
grims	14477
llb	14478
llo	14479
olo	14480
olg	14481
olat	14482
olut	14483
phys	14484
phot	14485
phoe	14486
perce	14487
perfe	14488
rnj	14489
rnat	14490
sert	14491
usi	14492
usaid	14493
upa	14494
wire	14495
wift	14496
ഇഐഎ	14497
മഗല	14498
മഗന	14499
മഗഡ	14500
ഷദബ	14501
casu	14502
caste	14503
dsa	14504
dsv	14505
elep	14506
igg	14507
ign	14508
igat	14509
igst	14510
igbt	14511
issu	14512
issue	14513
mdhep	14514
nhe	14515
nhai	14516
ogic	14517
psy	14518
rrc	14519
rrcs	14520
rrpcl	14521
tria	14522
trial	14523
tripu	14524
ംതിട	14525
സയൺ	14526
ഹീം	14527
##dck	14528
corn	14529
chef	14530
chemo	14531
shoc	14532
shop	14533
shoun	14534
bossy	14535
ayam	14536
brit	14537
cyc	14538
eklf	14539
fee	14540
feat	14541
flr	14542
flat	14543
flow	14544
ihr	14545
ihrd	14546
ipsa	14547
link	14548
ling	14549
linke	14550
linux	14551
mona	14552
monst	14553
monet	14554
money	14555
pgmp	14556
rdam	14557
rdad	14558
rics	14559
sdg	14560
step	14561
steel	14562
scene	14563
visa	14564
visi	14565
visu	14566
viswa	14567
veri	14568
very	14569
verdi	14570
ഓജന	14571
ദൻഗ	14572
ബഡേ	14573
ളർക	14574
mohan	14575
plant	14576
wills	14577
auth	14578
authe	14579
bbv	14580
byro	14581
cbl	14582
cnp	14583
cnn	14584
cnbc	14585
clex	14586
culum	14587
dhs	14588
dhl	14589
dhr	14590
dhd	14591
dhoni	14592
donl	14593
dont	14594
dyste	14595
esl	14596
esi	14597
esz	14598
eoi	14599
gym	14600
huh	14601
huid	14602
haran	14603
ient	14604
iend	14605
iefp	14606
iop	14607
ious	14608
klf	14609
nku	14610
nkar	14611
ody	14612
othe	14613
peo	14614
pearl	14615
pto	14616
rals	14617
ralb	14618
rally	14619
tics	14620
womb	14621
ഉഴറ	14622
കദന	14623
ഫണഷ	14624
ബവല	14625
ശൈജ	14626
logy	14627
logis	14628
login	14629
sheh	14630
ndaa	14631
assa	14632
asse	14633
blo	14634
blsh	14635
csds	14636
cslme	14637
clim	14638
clos	14639
cipe	14640
circ	14641
ccpa	14642
capic	14643
capri	14644
dance	14645
dange	14646
efs	14647
efor	14648
ever	14649
four	14650
foll	14651
food	14652
frnd	14653
fina	14654
final	14655
gsi	14656
gskwc	14657
gsdp	14658
glp	14659
glor	14660
gcn	14661
gcte	14662
guid	14663
gume	14664
guide	14665
hra	14666
hrdi	14667
hypo	14668
hydro	14669
hyper	14670
happy	14671
ilam	14672
kglo	14673
mca	14674
nab	14675
naut	14676
najr	14677
nrt	14678
nris	14679
nual	14680
nard	14681
narmy	14682
omb	14683
omj	14684
omes	14685
oman	14686
osh	14687
osd	14688
osps	14689
osteo	14690
pcr	14691
param	14692
parad	14693
rbl	14694
rbdck	14695
rans	14696
small	14697
swa	14698
swd	14699
swat	14700
swarm	14701
tsi	14702
zupp	14703
ഖൈമ	14704
ചധവ	14705
ദൗസ	14706
നൻവ	14707
റൗണ	14708
റൗദ	14709
insta	14710
്പുറം	14711
prior	14712
remd	14713
thir	14714
strat	14715
shah	14716
shahr	14717
heals	14718
unfr	14719
abud	14720
passe	14721
passp	14722
stemm	14723
ksebl	14724
.!!	14725
ausb	14726
card	14727
carpe	14728
curve	14729
curre	14730
curri	14731
dvm	14732
dvoc	14733
dphss	14734
dnats	14735
etf	14736
ehe	14737
ehr	14738
ehte	14739
egg	14740
eggs	14741
fans	14742
fanb	14743
favor	14744
fishe	14745
gib	14746
giz	14747
giyu	14748
gnal	14749
gnsg	14750
gami	14751
gamil	14752
hwr	14753
hways	14754
hist	14755
havam	14756
iccrc	14757
kris	14758
kase	14759
kash	14760
mers	14761
mera	14762
nist	14763
nisg	14764
nurs	14765
ouat	14766
ount	14767
ound	14768
over	14769
ppu	14770
pull	14771
pulse	14772
rism	14773
riss	14774
radam	14775
radle	14776
slut	14777
slgr	14778
salim	14779
sanal	14780
sanct	14781
satu	14782
sury	14783
tang	14784
tanur	14785
trend	14786
ubate	14787
utes	14788
windo	14789
yanan	14790
yada	14791
yadat	14792
yadmi	14793
ഇജങ	14794
ഇജഛ	14795
ഊഷര	14796
എഇഒ	14797
എഇഇ	14798
കബർ	14799
കഹല	14800
കഹോ	14801
കഹൽ	14802
ഗഹർ	14803
ജപം	14804
ജപൽ	14805
ധോല	14806
ധോൻ	14807
ഫൗറ	14808
ഫൗൾ	14809
ഫഌക	14810
ഫഌയ	14811
ബൗൾ	14812
മജു	14813
രഖബ	14814
ഹൌറ	14815
ൺസൻ	14816
ൺസറ	14817
insi	14818
incre	14819
predi	14820
retu	14821
rega	14822
emir	14823
viii	14824
alif	14825
loads	14826
loade	14827
choi	14828
chool	14829
decom	14830
model	14831
hools	14832
highe	14833
payya	14834
eyeb	14835
!"-	14836
!",	14837
,,,	14838
ahb	14839
afcat	14840
attac	14841
astro	14842
aero	14843
aerat	14844
born	14845
borne	14846
burd	14847
cup	14848
cume	14849
cfa	14850
cfd	14851
cbie	14852
ddle	14853
ddma	14854
dsssb	14855
dbtl	14856
eema	14857
evas	14858
ethe	14859
ethi	14860
fab	14861
film	14862
filt	14863
full	14864
fiden	14865
gave	14866
gaze	14867
gtd	14868
gtre	14869
half	14870
halna	14871
hura	14872
hurt	14873
iaf	14874
ibm	14875
ibn	14876
iwor	14877
imei	14878
ildm	14879
jesus	14880
khc	14881
ltd	14882
mlw	14883
madra	14884
madhu	14885
music	14886
mull	14887
mulla	14888
pyrif	14889
pfms	14890
rmal	14891
rmat	14892
rons	14893
rona	14894
sasi	14895
tmc	14896
tamm	14897
tami	14898
tter	14899
uzha	14900
vahi	14901
vanc	14902
vant	14903
vaca	14904
vishu	14905
wood	14906
wyicb	14907
yah	14908
year	14909
yech	14910
yiv	14911
मतद	14912
ആ‍ർ	14913
എ14	14914
ഏദൻ	14915
ഓവു	14916
ഓവൽ	14917
ഖസർ	14918
ഗനഭ	14919
ഗനര	14920
ഞങൾ	14921
ഡണന	14922
നളെ	14923
മബദല	14924
ലഴക	14925
ശർദ	14926
സഷന	14927
സഗൺ	14928
ൾമണ	14929
inno	14930
innue	14931
anara	14932
renai	14933
thsl	14934
vimu	14935
vimal	14936
loyal	14937
loyme	14938
defa	14939
cetes	14940
engag	14941
secu	14942
secon	14943
genu	14944
cryp	14945
cricc	14946
birac	14947
lakh	14948
scole	14949
quip	14950
jung	14951
nsui	14952
volu	14953
cngv	14954
ജവഗല	14955
ജവഗൽ	14956
"',	14957
($)	14958
2ിറ	14959
?'-	14960
aog	14961
aveco	14962
ascad	14963
aquar	14964
binന	14965
blac	14966
bili	14967
bapco	14968
back	14969
bump	14970
cgac	14971
cjm	14972
cisce	14973
cadre	14974
crib	14975
cacio	14976
cseb	14977
cgpa	14978
dbrg	14979
dcgi	14980
dtpc	14981
dxb	14982
dled	14983
dimpu	14984
eluta	14985
early	14986
fcra	14987
fkg	14988
gbps	14989
gjk	14990
garme	14991
gitam	14992
griha	14993
gulf	14994
hesa	14995
hatts	14996
horos	14997
human	14998
hindu	14999
hsgte	15000
iyok	15001
ifsca	15002
idea	15003
iysha	15004
illus	15005
iffk	15006
iucn	15007
jewe	15008
july	15009
kwd	15010
kumar	15011
krdcl	15012
lmn	15013
lsa	15014
lbsc	15015
lvm	15016
luai	15017
lancs	15018
lars	15019
lonic	15020
liste	15021
lttc	15022
lady	15023
lachu	15024
mxn	15025
m80	15026
maly	15027
mapൽ	15028
mural	15029
maco	15030
macho	15031
nlal	15032
nvsp	15033
nwmi	15034
nqas	15035
nfap	15036
nant	15037
nregs	15038
nadu	15039
nsso	15040
nsch	15041
obli	15042
ock	15043
ocean	15044
oprs	15045
oppo	15046
pivot	15047
pdop	15048
peso	15049
ponse	15050
papvc	15051
purc	15052
puth	15053
pappu	15054
qbmb	15055
qiwu	15056
qyna	15057
rk2	15058
raip	15059
rida	15060
ralia	15061
rtcs	15062
sjd	15063
samb	15064
sstdd	15065
sveep	15066
sinus	15067
sult	15068
savi	15069
sbeb	15070
sweet	15071
tdq	15072
tune	15073
tunne	15074
tpoxx	15075
tfwps	15076
umer	15077
ugc	15078
ufla	15079
ulate	15080
udsf	15081
uffle	15082
vfc	15083
wants	15084
wait	15085
winne	15086
wishe	15087
wpir	15088
ypet	15089
ygirl	15090
ydyt	15091
zhd	15092
zzyva	15093
अपन	15094
अवश	15095
करे	15096
गया	15097
गठब	15098
चरण	15099
दौर	15100
दिन	15101
में	15102
लिए	15103
साथ	15104
सबस	15105
सहभ	15106
അൻവ	15107
അഷു	15108
അഹർ	15109
ആഉട	15110
ഇശൽ	15111
ഈകേ	15112
ഈഫൽ	15113
ഉധം	15114
എർള	15115
എമർ	15116
എങങന	15117
എഖോ	15118
എñാ	15119
ഒകു	15120
ഒൽഹ	15121
ഓപൺ	15122
ഓഹോ	15123
ഓഡർ	15124
ഓഉ്	15125
ഔറം	15126
കഠക	15127
ഖൗം	15128
ഖൂൻ	15129
ങഘഅ	15130
ങങള	15131
ചഇഛ	15132
ചഠഋ	15133
ഛഗൻ	15134
ജൾഫ	15135
ജഹറ	15136
ജഅഫ	15137
ഞടട	15138
ഠൗൺ	15139
ണ‌്	15140
ണഇഇ	15141
ദഅവ	15142
ഫഹഹദ	15143
ഫ‍യ	15144
ബഛു	15145
ഭെൽ	15146
മൌസ	15147
രഇവ	15148
രധാനമ	15149
റണാക	15150
ലഊഭ	15151
ലപാട്	15152
ളഅള	15153
ഴണല	15154
ഷഅബ	15155
ഹൂൺ	15156
ുസരിച	15157
െൈക	15158
ൈചന	15159
്എൻ	15160
്ങിയത	15161
്ദേശം	15162
്ഷേപ	15163
ൻർവറ	15164
ൾനറബ	15165
‌നേ	15166
‍57	15167
ルームブ	15168
湘南美容	15169
🙏🏻.	15170
indee	15171
coord	15172
could	15173
vinee	15174
araji	15175
tepco	15176
rafed	15177
rajee	15178
doodl	15179
crowd	15180
exclu	15181
lefti	15182
hobia	15183
plhiv	15184
kiifb	15185
closu	15186
ルームブラ	15187
