<unk>	0
<s>	0
</s>	0
.	-2.75474
,	-4.182
്	-4.41266
ും	-4.79781
ം	-5.03142
ു	-5.34286
്‍	-5.43454
▁	-5.49784
ാണ്	-5.53907
ില്‍	-5.59489
ത്	-5.6239
▁ഒരു	-5.65869
യും	-5.66053
▁ഈ	-5.72281
യുടെ	-5.84101
ക്ക്	-5.86482
ി	-5.94727
ിൽ	-5.97899
െ	-5.98384
:	-6.0236
▁പറഞ്ഞു	-6.03991
▁തന്നെ	-6.17529
ിന്റെ	-6.1959
ാന്‍	-6.21666
യില്‍	-6.22923
യാണ്	-6.24939
▁എന്ന	-6.25293
യ	-6.32808
▁നിന്ന്	-6.33039
വും	-6.33712
ിരുന്നു	-6.36682
യെ	-6.40421
-	-6.41731
സ്	-6.41868
▁സ്	-6.45542
▁പി	-6.47424
ിട്ടുണ്ട്	-6.48819
ാൻ	-6.49668
ിന്	-6.53932
▁സി	-6.54443
യിൽ	-6.55506
ത	-6.56157
ന്‍	-6.56355
▁ആ	-6.56467
ല്‍	-6.58396
▁അദ്ദേഹം	-6.5893
▁കഴിഞ്ഞ	-6.59411
ർ	-6.59909
ാ	-6.6039
മ	-6.61249
▁അതേസമയം	-6.61675
▁എന്നാല്‍	-6.61878
മാണ്	-6.62832
ുന്ന	-6.63941
ര്‍	-6.64478
ുന്നത്	-6.67801
▁കെ	-6.6848
▁ഇത്	-6.70761
▁എന്ന്	-6.71257
വ	-6.74466
ൻ	-6.74665
ോ	-6.75127
ുള്ള	-6.75498
ത്തില്‍	-6.77419
▁വലിയ	-6.78616
▁മുഖ്യമന്ത്രി	-6.8053
▁ക	-6.80927
ക്ക	-6.81042
ായിരുന്നു	-6.81089
ൽ	-6.82231
ില്ല	-6.83092
ന	-6.83637
▁(	-6.84621
▁കോണ്‍ഗ്രസ്	-6.84848
▁നിന്നും	-6.852
;	-6.85333
▁ബിജെപി	-6.85527
ിലെ	-6.85707
▁എ	-6.87184
ത്തിന്	-6.8778
യ്ക്ക്	-6.9032
ക	-6.91345
ത്തിന്റെ	-6.93174
ായി	-6.93575
▁വി	-6.94231
▁അ	-6.94788
▁ബി	-6.95396
ിരിക്കുന്നത്	-6.96023
ിനെ	-6.97231
▁സംസ്ഥാന	-6.97464
▁അത്	-6.97495
മായി	-6.97848
▁-	-6.97898
മായ	-6.99011
▁കേന്ദ്ര	-6.99016
ുക	-7.00108
)	-7.02346
▁രണ്ട്	-7.02896
യിലെ	-7.0317
▁മന്ത്രി	-7.03406
ത്തെ	-7.04218
ര	-7.04311
▁ഇന്ന്	-7.04818
ുകയും	-7.04895
▁ന	-7.05061
▁എം	-7.05153
േ	-7.05173
ത്തിൽ	-7.05348
ണം	-7.05723
സി	-7.07441
സ	-7.0868
▁എന്നാണ്	-7.0953
▁ഇ	-7.09655
ായ	-7.09658
▁എല്ലാ	-7.0988
▁പോലീസ്	-7.10323
▁പറയുന്നു	-7.1042
ുമായി	-7.11073
▁പുതിയ	-7.11281
▁ശേഷം	-7.13173
ങ്ങൾ	-7.13538
▁സ	-7.14094
റ	-7.14654
ക്കും	-7.14728
ല	-7.15302
▁ആണ്	-7.15404
▁വരെ	-7.16256
▁രൂപ	-7.16382
▁സ്വദേശി	-7.17152
▁മ	-7.17278
▁എസ്	-7.17568
▁ഏറ്റവും	-7.17633
ന്	-7.21775
▁ചെയ്ത	-7.21822
ാം	-7.22874
▁ചെയ്തു	-7.2318
കള്‍	-7.24413
ുകയായിരുന്നു	-7.24953
▁സര്‍ക്കാര്‍	-7.24955
പി	-7.26488
ുന്നു	-7.26697
ങ്ങള്‍	-7.26722
ിയ	-7.26783
ത്ത	-7.26802
▁കൊവിഡ്	-7.27181
▁നടത്തിയ	-7.27871
▁നേരത്തെ	-7.28443
▁ഡി	-7.28807
▁ദിവസം	-7.2946
ുണ്ട്	-7.2953
▁കോവിഡ്	-7.32226
▁ഐ	-7.32337
▁തിരുവനന്തപുരം	-7.32401
▁എന്നും	-7.33309
▁ജില്ലാ	-7.34023
▁ജെ	-7.34486
പ്പ	-7.34573
കൾ	-7.34937
?	-7.35103
▁എന്നാൽ	-7.35399
ാല്‍	-7.35584
▁രാഷ്ട്രീയ	-7.38041
ാനുള്ള	-7.38636
ിരിക്കുകയാണ്	-7.39044
▁പേര്‍	-7.40726
ിലും	-7.40809
ുടെ	-7.42005
▁പ	-7.42058
ടി	-7.43317
▁വന്ന	-7.44536
ക്	-7.44723
▁കേരള	-7.45045
ുകള്‍	-7.45353
▁പാര്‍ട്ടി	-7.45527
ിലേക്ക്	-7.45641
ുകൾ	-7.45731
താണ്	-7.46089
▁കൂടി	-7.4673
▁'	-7.46866
▁കൂടുതല്‍	-7.4721
▁മൂന്ന്	-7.47735
▁കോടി	-7.48157
▁കോടതി	-7.48259
▁ഇന്ത്യ	-7.48994
▁നല്‍കിയ	-7.49901
▁ത	-7.50009
▁ചില	-7.50521
തിന്	-7.50663
▁രോഗം	-7.51264
▁വില	-7.51322
▁വ്യക്തമാക്കി	-7.52602
വി	-7.52702
ണ	-7.53239
▁അറിയിച്ചു	-7.53485
▁തിരഞ്ഞെടുപ്പ്	-7.54327
ുകയാണ്	-7.55581
▁പറയുന്നത്	-7.56025
ഡ്	-7.56454
▁സർക്കാർ	-7.57315
▁നടന്ന	-7.57317
▁പ്രധാനമന്ത്രി	-7.58034
ച്ച	-7.58932
▁പോലും	-7.59179
▁നടപടി	-7.59206
▁ടി	-7.5933
▁പൊലീസ്	-7.60402
▁വേണ്ടി	-7.60434
▁ഇവിടെ	-7.60814
▁ജോലി	-7.61476
▁പരാതി	-7.61709
▁കോൺഗ്രസ്	-7.61729
ൂ	-7.61753
യോ	-7.62761
തോടെ	-7.62924
▁ആരോഗ്യ	-7.63525
▁വ	-7.63951
ഡി	-7.64471
▁ഇപ്പോള്‍	-7.64557
▁മുതല്‍	-7.6506
▁സെക്രട്ടറി	-7.65336
യായി	-7.65849
ല്ല	-7.66259
▁കൊണ്ട്	-7.66506
▁വഴി	-7.66675
യായ	-7.66704
▁കാരണം	-7.67317
▁മറ്റ്	-7.6732
തായി	-7.68163
ാൽ	-7.68232
തും	-7.68796
▁മാത്രം	-7.69976
ട	-7.70242
റ്റ	-7.70548
▁തന്റെ	-7.70688
െന്ന്	-7.70844
ഗ	-7.71555
പ	-7.71692
▁പല	-7.72356
▁പാർട്ടി	-7.72841
▁ഇതുവരെ	-7.73895
ജി	-7.74178
'	-7.74466
▁പറഞ്ഞ	-7.74601
▁ശതമാനം	-7.74691
▁റിപ്പോര്‍ട്ട്	-7.74719
ള	-7.74745
▁അടുത്ത	-7.74934
യുമായി	-7.75055
യിലേക്ക്	-7.75096
വര്‍	-7.7546
▁ആദ്യ	-7.75522
ന്റെ	-7.7569
ക്കെതിരെ	-7.75813
▁കോഴിക്കോട്	-7.75908
▁വീണ്ടും	-7.76153
ത്ത്	-7.76338
▁ഇതോടെ	-7.76464
െങ്കിലും	-7.76496
ദ	-7.7668
യായിരുന്നു	-7.76703
▁പദ്ധതി	-7.76736
▁നേതാവ്	-7.77255
▁നിരവധി	-7.78318
െന്നും	-7.79165
▁ലക്ഷം	-7.79546
ിട്ടില്ല	-7.79635
▁ന്	-7.80162
▁അവര്‍	-7.80307
തെന്ന്	-7.8081
▁പിന്നാലെ	-7.81011
▁19	-7.81166
ാനും	-7.81176
പ്പെട്ട	-7.81298
▁ഇനി	-7.81313
ഡ	-7.81337
തെന്നും	-7.81795
▁മോദി	-7.8189
ുമെന്ന്	-7.81939
എസ്	-7.82139
യുള്ള	-7.82141
▁വിവിധ	-7.82401
ാത്ത	-7.82445
▁നിന്നുള്ള	-7.82934
▁യു	-7.82975
▁സംസ്ഥാനത്ത്	-7.83328
ഹ	-7.83621
കളും	-7.83712
ിരുന്ന	-7.83898
▁വളരെ	-7.84474
▁ഞാന്‍	-7.85218
▁ജില്ലയില്‍	-7.85797
നി	-7.86121
▁പിന്നീട്	-7.86568
▁ദേശീയ	-7.86782
▁മാത്രമാണ്	-7.87024
യിലും	-7.87386
ബി	-7.87465
▁നി	-7.8764
▁പിണറായി	-7.87864
▁ഗാന്ധി	-7.88349
▁പ്രത്യേക	-7.88481
ട്ട	-7.88643
▁ജി	-7.8867
▁ഇതിന്	-7.88882
▁വകുപ്പ്	-7.89035
▁കേസ്	-7.89368
▁തുടങ്ങിയ	-7.89534
വുമായി	-7.89826
എ	-7.8984
ശ	-7.90092
റി	-7.90303
▁തുടര്‍ന്ന്	-7.90359
▁പ്രതിപക്ഷ	-7.90936
▁സാധ്യത	-7.91635
▁ആവശ്യപ്പെട്ട	-7.91754
▁ഉള്ള	-7.91799
▁ഗ	-7.91817
▁5	-7.92127
▁10	-7.92195
▁ശക്തമായ	-7.92343
ാതെ	-7.92373
▁അവരുടെ	-7.92653
▁15	-7.92845
ലി	-7.92878
ഷ	-7.93424
▁രാഹുല്‍	-7.93632
▁എത്തിയ	-7.93701
▁2	-7.93991
▁പ്രശ്	-7.94121
▁3	-7.94196
യ്	-7.94262
▁ചെയ്തത്	-7.94331
▁ചോദ്യം	-7.94632
ബ	-7.95273
▁സിപിഎം	-7.95591
▁ചെയ്യുന്ന	-7.95626
▁20	-7.95681
▁യാത്ര	-7.9579
),	-7.9608
▁മാ	-7.96335
▁എന്നിവ	-7.96548
്റെ	-7.96559
▁മികച്ച	-7.96823
ിലാണ്	-7.96826
▁പറഞ്ഞത്	-7.96926
പ്പോള്‍	-7.97382
▁ലഭിച്ച	-7.97683
▁ചര്‍ച്ച	-7.98576
▁12	-7.98668
▁നാല്	-7.98844
▁വാക്	-7.99095
▁അഞ്ച്	-7.99635
▁പരിശോധന	-7.9966
▁ച	-7.99814
▁പ്ര	-7.99974
ുമെന്നും	-8.00014
ോട്	-8.00018
▁സ്ഥിരീകരിച്ച	-8.00332
കളുടെ	-8.00647
▁കൊറോണ	-8.00782
വർ	-8.00869
ക്കു	-8.01179
▁ഇവര്‍	-8.01246
ില	-8.01287
▁പണം	-8.02058
▁കണ്ട	-8.02172
മുള്ള	-8.02183
▁വിവരം	-8.02272
▁ഇത്തവണ	-8.02332
▁വരുന്ന	-8.02366
▁മുതൽ	-8.02691
▁പക്ഷേ	-8.02731
▁"	-8.02804
▁സാമ്പത്തിക	-8.0289
▁എന്റെ	-8.03315
ീ	-8.03477
▁പുറത്ത്	-8.03997
▁ഞാൻ	-8.04781
റ്റ്	-8.04879
▁സ്വദേശിനി	-8.04928
ാന	-8.05011
▁തീരുമാനം	-8.05035
▁ബന്ധപ്പെട്ട	-8.05191
▁പ്രസിഡന്റ്	-8.05209
▁സമയം	-8.05221
▁പ്രധാന	-8.05457
▁ല	-8.05463
ങ്ങളും	-8.05465
▁24	-8.0647
▁ഇങ്ങനെ	-8.06528
▁തന്നെയാണ്	-8.06584
▁കൂടുതൽ	-8.06722
ാനാണ്	-8.07108
ിനെതിരെ	-8.07248
നെ	-8.07728
▁നല്ല	-8.07839
ണമെന്ന്	-8.08367
▁സീറ്റ്	-8.08499
▁വീഡിയോ	-8.08599
ന്ന	-8.08713
▁പോയ	-8.08726
ൾ	-8.0955
േണ്ട	-8.09715
▁,	-8.10578
▁റിപ്പോർട്ട്	-8.1066
▁വോട്ട്	-8.10677
▁കണ്ണൂര്‍	-8.10843
▁പേര്‍ക്ക്	-8.10893
ുന്നുണ്ട്	-8.10939
▁ജില്ലയിലെ	-8.11708
അ	-8.11732
▁ബ	-8.11929
▁നിയമസഭാ	-8.12024
▁രാവിലെ	-8.1214
▁ഡോ	-8.12311
▁പ്രഖ്യാപിച്ച	-8.12429
▁അന്വേഷണം	-8.12586
▁പോലെ	-8.12637
▁ദില്ലി	-8.12745
▁മുന്‍	-8.1338
എം	-8.13659
▁ആയിരുന്നു	-8.13745
▁കോ	-8.14393
വര	-8.14447
▁എണ്ണം	-8.14773
▁മറ്റൊരു	-8.15016
▁പിന്തുണ	-8.15077
▁നേതാക്കള്‍	-8.15099
▁നേതൃത്വം	-8.15218
▁എന്നീ	-8.15354
▁അന്വേഷണ	-8.15355
ിംഗ്	-8.15407
ജ	-8.1564
ിച്ച	-8.16067
ഇ	-8.16072
ുമ്പോള്‍	-8.161
▁മറുപടി	-8.16361
▁മഴ	-8.1641
▁അവർ	-8.16824
▁നൽകിയ	-8.16911
▁4	-8.17211
▁നല്‍കി	-8.17226
▁11	-8.17231
ച	-8.17551
▁ആയി	-8.17558
▁റ	-8.17664
▁18	-8.1824
▁തിരഞ്ഞെടുപ്പ	-8.18809
ുമാണ്	-8.19172
▁1	-8.19187
ിനും	-8.19313
ണമെന്നും	-8.19549
▁എനിക്ക്	-8.20014
4	-8.20494
▁നടത്തി	-8.20562
രി	-8.20896
▁ആകെ	-8.20997
▁ഓരോ	-8.21303
▁അവിടെ	-8.21573
▁ഹ	-8.21602
▁ബിഗ്	-8.2173
മ്പ	-8.2191
▁മുമ്പ്	-8.22559
▁നിയമ	-8.2277
ൂര്‍	-8.22826
▁കാര്യം	-8.22838
▁ഇപ്പോൾ	-8.22866
▁അതിന്	-8.22968
▁നടക്കുന്ന	-8.23032
വരെ	-8.23117
▁കൊച്ചി	-8.23324
തി	-8.23478
ങ്ക	-8.23623
▁നിലവില്‍	-8.23636
▁പ്രതി	-8.23713
▁അറസ്റ്റ്	-8.23817
▁ആര്‍	-8.23981
/	-8.2419
ിക്ക	-8.24239
▁പാലക്കാട്	-8.245
ിന്‍റെ	-8.24588
▁ഒ	-8.24711
▁മാത്രമല്ല	-8.2518
▁വരും	-8.2519
▁ഏറെ	-8.25245
▁കോട്ടയം	-8.25466
ഫ	-8.25613
▁കമ്മിറ്റി	-8.25632
▁സിനിമ	-8.25708
▁ആലപ്പുഴ	-8.25757
▁14	-8.25834
▁താന്‍	-8.25857
▁ഇത്തരം	-8.26156
യില	-8.26285
▁തവണ	-8.26373
▁രണ്ടാം	-8.26402
മോ	-8.2661
ില്ലെന്ന്	-8.26846
▁സിംഗ്	-8.26849
▁കൈ	-8.26955
ിരുന്നത്	-8.26967
ിട്ടുള്ളത്	-8.27021
▁ജ	-8.27234
▁ഇന്ത്യന്‍	-8.27309
തിനെ	-8.2745
▁ആദ്യം	-8.2791
▁കേരളത്തില്‍	-8.2809
ണ്ട	-8.28212
▁സംഭവം	-8.28363
▁6	-8.28507
യിലാണ്	-8.28542
▁കുറിച്ച്	-8.2859
▁യുഡിഎഫ്	-8.28973
▁വര്‍ഷം	-8.29067
ുകളും	-8.29167
▁കാര്യങ്ങള്‍	-8.29252
▁യ	-8.29391
ുന്നതിന്	-8.29498
▁പേർ	-8.29639
ങ്ങളുടെ	-8.29646
യോട്	-8.29751
മി	-8.29856
ൊന്നും	-8.2987
പ്പോൾ	-8.2989
▁എറണാകുളം	-8.29999
ഐ	-8.30094
▁30	-8.30159
കളെ	-8.30171
▁എഫ്	-8.30303
▁ല്‍	-8.30769
▁ആർ	-8.30776
8	-8.30961
▁സംബന്ധിച്ച്	-8.3107
▁സ്ഥാനാര്‍ത്ഥി	-8.31102
ങ്ങ	-8.31623
▁സു	-8.31629
▁രാജ്യത്ത്	-8.31773
▁മാസം	-8.31948
2	-8.32188
3	-8.32237
▁ഇതില്‍	-8.32435
"	-8.32574
▁തല	-8.32864
▁ൽ	-8.33473
▁നിലപാട്	-8.33629
▁പേരാണ്	-8.33854
ുമ്പോൾ	-8.33857
▁13	-8.33869
▁കൊല്ലം	-8.34091
▁അന്ന്	-8.34361
▁കേസില്‍	-8.34509
▁അനുമതി	-8.34532
ത്തിലേക്ക്	-8.34543
▁സ്വകാര്യ	-8.34961
▁ട	-8.35051
വരുടെ	-8.35098
▁പറഞ്ഞിരുന്നു	-8.35339
▁നിന്ന	-8.35711
പ്ര	-8.35723
▁രംഗത്ത്	-8.35936
▁ഉണ്ടായ	-8.3596
ത്തിലെ	-8.36058
ില്ലെന്നും	-8.36081
▁മെഡിക്കല്‍	-8.36449
▁17	-8.36901
ിലൂടെ	-8.36956
▁ചെയ്തിരുന്നു	-8.36963
നും	-8.3701
▁നീക്കം	-8.37632
▁ആശുപത്രി	-8.37894
▁പത്തനംതിട്ട	-8.38455
ത്തി	-8.38589
▁കാ	-8.38719
യാ	-8.38806
▁കൂടാതെ	-8.38824
▁ബന്ധപ്പെട്ട്	-8.38962
▁സൂചന	-8.38967
▁16	-8.39254
പ്	-8.39289
▁നമ്മുടെ	-8.39294
▁25	-8.39323
ിങ്	-8.39371
▁നടത്തുന്ന	-8.39493
▁രാത്രി	-8.40026
▁അദ്ദേഹത്തിന്റെ	-8.40105
ുളള	-8.40242
▁ആവശ്യം	-8.40507
▁സംഘം	-8.40543
ലെ	-8.40552
▁സൗദി	-8.40592
▁കേരളത്തിലെ	-8.40875
▁അതുകൊണ്ട്	-8.40971
▁ഇക്കാര്യം	-8.40978
കെ	-8.4099
▁വ്യക്തമാക്കുന്ന	-8.41034
▁പൊതു	-8.41256
▁വിട്ട	-8.41356
കളില്‍	-8.4152
▁മാറ്റ	-8.41727
ാണെന്ന്	-8.41772
▁ആയ	-8.41992
▁7	-8.42003
▁സമയത്ത്	-8.42016
▁സ്വന്തം	-8.42379
െന്ന	-8.42436
▁സുരേഷ്	-8.42753
▁ലെ	-8.43333
▁ഇട	-8.43406
▁പ്രകാരം	-8.43419
▁വിജയ	-8.43638
ൊരു	-8.43692
▁ഭാഗമായി	-8.44098
1	-8.44123
തു	-8.44198
▁വാ	-8.4439
▁അങ്ങനെ	-8.44496
▁കൂട്ട	-8.44608
ഷ്	-8.4488
ൺ	-8.4498
േയും	-8.45025
▁വര	-8.45087
▁എണ്ണ	-8.451
▁ഉ	-8.45179
▁ഫലം	-8.45186
ിട്ട്	-8.45195
▁ഇടുക്കി	-8.45637
▁പ്രതിസന്ധി	-8.45764
!	-8.45843
▁നരേന്ദ്ര	-8.45938
▁ചെയ്യുന്നത്	-8.45947
ത്തിനും	-8.46221
▁ഷാ	-8.46406
▁മാത്രമേ	-8.46567
▁ആറ്	-8.466
ക്കുന്ന	-8.46628
▁തനിക്ക്	-8.46728
▁ഓഫ്	-8.46944
▁പ്രതികരണം	-8.46978
▁എല്‍	-8.46998
▁രാജ്യത്തെ	-8.47168
▁മുന്നണി	-8.47248
▁ഉണ്ട്	-8.47339
▁എന്‍	-8.47746
▁അടക്കം	-8.47846
▁മലപ്പുറം	-8.48309
ിരുന്നില്ല	-8.48325
ിട്ടും	-8.48518
▁സംബന്ധിച്ച	-8.48961
▁സാഹചര്യത്തില്‍	-8.48993
▁ലഭിക്കും	-8.49085
▁ചെയ്ത്	-8.49137
▁പേരും	-8.49234
കള	-8.49257
▁നടി	-8.49307
ദ്	-8.49327
▁ദ	-8.49394
ിക	-8.49813
ക്കായി	-8.49891
▁ഇന്നലെ	-8.49951
▁എന്നത്	-8.50145
▁മുൻ	-8.50213
▁മു	-8.50358
▁അറിയിച്ച	-8.50415
▁ലോക്	-8.50474
ുമെന്നാണ്	-8.50669
▁സാ	-8.50731
▁മുന്നോട്ട്	-8.50892
നാ	-8.50921
▁ചെയ്യ	-8.50981
▁നില	-8.51014
▁ആശുപത്രിയില്‍	-8.51153
▁50	-8.51162
▁കടുത്ത	-8.51251
തിന്റെ	-8.5134
▁പ്രതിരോധ	-8.51532
▁കുറഞ്ഞ	-8.5184
ാവ	-8.519
5	-8.52034
ിരിക്കുന്ന	-8.52142
▁വിജയം	-8.52151
▁ര	-8.52248
▁സോഷ്യല്‍	-8.5225
ങ്ങള	-8.52267
▁പ്രവര്‍ത്തിക്ക	-8.52373
▁പാ	-8.52626
പ്പ്	-8.52721
▁പേര്	-8.52722
▁അതേ	-8.52863
▁കണ്ടെത്തിയ	-8.53043
▁എക്	-8.53208
▁21	-8.53432
വര്‍ക്ക്	-8.53522
▁അവസാന	-8.53543
▁വിദ്യാഭ്യാസ	-8.53558
▁തദ്ദേശ	-8.53622
▁മുഹമ്മദ്	-8.53853
ുമോ	-8.53912
▁തുടർന്ന്	-8.53993
▁അമ്മ	-8.54052
▁എത്തി	-8.54079
കര	-8.54085
േക്കും	-8.54187
▁കേരളം	-8.54315
▁രോഗ	-8.5445
▁മാറ്റി	-8.54571
▁രണ്ടു	-8.54606
ിക്കുന്ന	-8.54849
▁22	-8.55125
തില്‍	-8.55145
▁പറയ	-8.55287
▁സംസ്ഥാനത്തെ	-8.55385
▁കട	-8.55579
▁അപേക്ഷ	-8.5574
▁കമ്പനി	-8.55841
▁ഹൈക്കോടതി	-8.55867
▁9	-8.55907
▁സമിതി	-8.56001
▁സ്ത്രീ	-8.5608
▁ചർച്ച	-8.56479
▁ഭരണ	-8.56524
▁ബിജെപിയുടെ	-8.56625
▁നടത്തിയത്	-8.56627
▁പ്രതീക്ഷ	-8.56662
നായ	-8.56729
▁വ്യക്തമാക്കിയ	-8.56731
ണ്‍	-8.56968
▁വൈറസ്	-8.5706
യി	-8.57098
▁വിഭാഗം	-8.57158
▁മറ്റു	-8.57209
ായിരിക്കും	-8.57432
ൈ	-8.57644
മായിരുന്നു	-8.57873
മ്മ	-8.57955
ത്തിലാണ്	-8.58029
െന്നാണ്	-8.58066
ലാ	-8.58301
▁ആരോപണം	-8.5841
▁ലീഗ്	-8.58411
വാ	-8.58674
▁ഒന്നും	-8.5877
▁മെ	-8.58785
്യ	-8.58801
ത്തില	-8.58884
▁ഭാര്യ	-8.58891
▁വെച്ച്	-8.58962
▁വികസന	-8.59023
▁തിരഞ്ഞെടുപ്പില	-8.59045
9	-8.5917
▁തി	-8.59181
▁സെ	-8.59295
ഴ	-8.59304
വ്	-8.59402
ൂർ	-8.59427
▁ആശങ്ക	-8.59449
7	-8.59576
ാണെന്നും	-8.59708
▁8	-8.59715
▁ചെയ്യും	-8.59917
▁മരണ	-8.59989
ിയത്	-8.60108
ിന	-8.60177
ത്തിനായി	-8.60177
സ്റ്റ	-8.60238
▁ആവശ്യപ്പെട്ടു	-8.60269
▁മാധ്യമ	-8.60325
▁വിധി	-8.60449
▁എടുത്ത	-8.60497
▁തൃശൂര്‍	-8.60576
ന്ത	-8.60728
▁എല്ലാം	-8.60761
▁എത്ര	-8.60827
തെന്നാണ്	-8.60878
▁നേടിയ	-8.60946
യു	-8.61073
▁എന്നതാണ്	-8.61074
▁വീട്ടില്‍	-8.61108
ന്റ	-8.61375
▁ബോസ്	-8.61377
▁നിയമസഭ	-8.61555
ക്കി	-8.61665
▁ചൈന	-8.62035
മാ	-8.62434
രുത്	-8.62564
▁മരിച്ച	-8.62686
ിട്ടുള്ള	-8.62739
തിനാല്‍	-8.62745
▁എന്ത്	-8.62804
ഭ	-8.6286
▁ഷ	-8.63031
▁എന്നായിരുന്നു	-8.63173
▁ജന	-8.63277
േണ്ടി	-8.63516
▁40	-8.63595
യെന്ന്	-8.6365
▁വന്‍	-8.64057
▁കു	-8.6414
▁വെ	-8.64312
▁ഇന്ത്യൻ	-8.6438
ള്‍	-8.64383
▁പോയി	-8.64413
▁ജനറല്‍	-8.65051
▁മുന്നില്‍	-8.6506
ൊ	-8.65247
▁ശക്തി	-8.65408
തായും	-8.65475
▁സംഘടന	-8.65569
▁കുമാര്‍	-8.65577
ിനോട്	-8.6566
ാലും	-8.65662
ുവ	-8.65716
▁തുടങ്ങി	-8.65813
ിട്ട	-8.66158
▁മാറി	-8.66167
▁പോക	-8.66281
▁തുക	-8.66501
വരാണ്	-8.66501
▁യോഗം	-8.66609
ത്തോടെ	-8.67162
ട്ടി	-8.67184
ഫ്	-8.67461
▁23	-8.67504
മല്ല	-8.67675
▁ഇതിന്റെ	-8.67776
▁നിങ്ങളുടെ	-8.67878
▁എന്നെ	-8.67924
ൊക്കെ	-8.68055
▁സമ്പർക്കം	-8.68168
▁വയനാട്	-8.68223
നാണ്	-8.68254
▁ചികിത്സ	-8.68332
▁മണി	-8.68441
▁ഞങ്ങള്‍	-8.68781
▁സ്വീകരിച്ച	-8.68954
്‍ക്ക്	-8.69086
ംഗ	-8.69109
▁അതിന്റെ	-8.69426
ക്കാണ്	-8.69601
▁ശ	-8.69698
▁ഭൂമി	-8.69708
ക്കാര	-8.69752
▁പഞ്ചായത്ത്	-8.69847
െല്ലാം	-8.70181
▁എംപി	-8.70345
▁എംഎല്‍എ	-8.70438
റിയ	-8.70849
▁ഉള്ളത്	-8.70983
▁ഇവ	-8.7105
▁സ്ഥിരീകരിച്ചത്	-8.71184
▁സ്ഥിതി	-8.7128
വെ	-8.71293
ങ്ങളെ	-8.71315
▁ഇല്ല	-8.71374
▁നടന്നത്	-8.7138
▁മത	-8.71427
▁വിവാഹ	-8.71504
▁കേന്ദ്രം	-8.71551
▁പ്രവര്‍ത്തകര്‍	-8.71593
മുണ്ട്	-8.7163
ങ്ങളില്‍	-8.71749
▁പ്രിയങ്ക	-8.7206
െയും	-8.72086
കളിൽ	-8.72263
▁ചെയ്യാന്‍	-8.72466
▁തോമസ്	-8.72575
▁നേതാക്കൾ	-8.7261
▁അമിത്	-8.72748
▁ഇതേ	-8.72869
▁വ്യക്തി	-8.72883
▁ഇവരുടെ	-8.72941
▁എത്ത	-8.73073
▁അമേരിക്ക	-8.73169
▁പ്രവര്‍ത്തനങ്ങള	-8.73289
ത്തിലും	-8.73632
▁ലഭിച്ചത്	-8.73682
▁എങ്ങനെ	-8.73816
▁പറയുന്ന	-8.74179
▁അവ	-8.74288
▁ചിത്രം	-8.74315
▁ശേഷമാണ്	-8.74361
▁ഇപ്പോഴും	-8.74387
▁മൊഴി	-8.74551
▁താരം	-8.74849
▁വർഷം	-8.7491
▁ഫ	-8.74956
▁ഉയര്‍ന്ന	-8.74986
▁കുടുംബ	-8.75039
▁വെച്ച	-8.75078
റെ	-8.75122
▁അവരെ	-8.75132
▁പേര	-8.75135
ിട	-8.75183
▁27	-8.7529
▁മുസ്ലിം	-8.75372
▁ഒന്ന	-8.75502
▁മി	-8.75539
6	-8.7561
▁സര്‍ക്കാരിന്റെ	-8.75621
▁കോണ്‍ഗ്രസിന്	-8.76086
▁യി	-8.76094
▁നിരക്ക്	-8.7614
ക്കുള്ള	-8.76191
▁കേരളത്തിൽ	-8.76331
▁ചെറിയ	-8.76365
▁പങ്കെടുത്ത	-8.76419
▁മുംബൈ	-8.76471
▁പറഞ്ഞ്	-8.76489
ൗ	-8.76877
▁26	-8.76926
▁ജോസ്	-8.76961
▁നേടി	-8.77026
ബ്	-8.77108
▁ഷോ	-8.77343
▁കാല	-8.77518
▁വന്നത്	-8.77534
േക്ക്	-8.77554
▁പേരെ	-8.77566
ക്കൊപ്പം	-8.77735
ത്തിലൂടെ	-8.7774
യ്ക്ക	-8.77742
േണ്ടത്	-8.77793
മാണെന്ന്	-8.78024
▁എല്ലാവരും	-8.78154
▁കോണ്‍ഗ്രസിന്റെ	-8.78171
▁സിന്‍	-8.78257
▁തമിഴ്	-8.78269
▁നേരിട്ട്	-8.78342
കള്‍ക്ക്	-8.78374
▁28	-8.78426
▁പരീക്ഷ	-8.78485
▁വിട	-8.7851
ുകളുടെ	-8.78763
ച്ച്	-8.78825
ണമെന്ന	-8.78894
▁ഇന്ത്യയുടെ	-8.78948
▁ലി	-8.79043
▁നൽകി	-8.79056
▁നിന്നാണ്	-8.79204
▁ഞങ്ങൾ	-8.79213
താ	-8.79293
▁ആഭ്യന്തര	-8.79323
യുണ്ട്	-8.79385
▁സഭാ	-8.79579
കളാണ്	-8.79863
▁ശ്രീ	-8.79891
▁സമര	-8.79948
▁സാധിക്കും	-8.80077
യ്ക്കും	-8.80162
▁നല്‍കിയത്	-8.80244
ിനു	-8.80284
▁സുപ്രീം	-8.80388
മാണെന്നും	-8.80436
▁വേണ്ട	-8.80509
▁യുഎഇ	-8.80577
▁മീഡിയ	-8.80874
▁ഇനിയും	-8.80912
▁നാളെ	-8.81032
▁മെയ്	-8.81076
ിത	-8.81096
▁എൻ	-8.81241
▁ഇവരെ	-8.81286
▁1,	-8.81325
▁കി	-8.81379
▁എന്നിവര്‍	-8.81495
▁ടെ	-8.81658
▁തീരുമാനിച്ച	-8.81677
▁ഏഴ്	-8.81803
▁കാലത്ത്	-8.81968
യോടെ	-8.8208
മില്ല	-8.82106
എഫ്	-8.82208
▁നികുതി	-8.82229
▁ഉയർന്ന	-8.82303
▁പ്രതീക്ഷിക്ക	-8.82306
ളി	-8.8245
ിച്ച്	-8.82454
▁സുരക്ഷ	-8.8263
000	-8.82632
▁ലക്ഷ്യം	-8.8269
▁സ്വീകരിക്ക	-8.82712
▁പരിപാടി	-8.8276
ട്ട്	-8.82769
▁രൂപയാണ്	-8.83133
▁വിദേശ	-8.83241
▁പദവി	-8.83328
▁റി	-8.83341
▁ആരും	-8.83677
▁നേരെ	-8.83819
▁ബിജെപിക്ക്	-8.83847
▁തങ്ങളുടെ	-8.83863
▁ജോസഫ്	-8.83895
▁2019	-8.84205
ിച്ചു	-8.84503
▁തിരുവനന്തപുരത്ത	-8.84527
▁പ്രതിഷേധം	-8.84539
▁ജനാധിപത്യ	-8.84546
▁കണ്ണൂർ	-8.8455
▁വേണം	-8.84598
▁യുവതി	-8.84951
▁ഭീഷണി	-8.84959
▁ചെന്നിത്തല	-8.84961
▁നിലവിൽ	-8.85086
▁യോഗ്യത	-8.85104
▁രാജ	-8.85311
▁എത്തിയത്	-8.85344
വേ	-8.85393
▁നാ	-8.85443
20	-8.85488
ന്റ്	-8.85555
▁വന്നു	-8.85601
ിൻ്റെ	-8.8569
▁സംസാരിക്ക	-8.85748
▁രാഹുൽ	-8.85769
▁പിസി	-8.85865
▁ഒന്നാം	-8.85945
▁കേസിൽ	-8.85991
▁ആരംഭിച്ച	-8.86021
▁ആരോപിച്ചു	-8.86089
ട്	-8.86187
▁പകരം	-8.86274
▁മെഡിക്കൽ	-8.86428
▁പട്ടിക	-8.8651
,000	-8.86598
ങ്ങളിൽ	-8.86602
▁അല്ല	-8.8663
▁സാധാരണ	-8.86741
▁ഇവർ	-8.86794
ഖ	-8.86946
▁ജോ	-8.87073
▁പേരില്‍	-8.87153
▁പോസ്റ്റ്	-8.87202
▁മാണി	-8.87334
▁സ്ഥാനം	-8.87419
ഒ	-8.87494
▁കഴിയുന്ന	-8.87511
ോടെ	-8.87586
▁ഓ	-8.87622
നം	-8.87864
▁കനത്ത	-8.879
0	-8.88039
▁മുന്നറിയിപ്പ്	-8.88052
▁കാണ	-8.88261
▁മൂന്നാം	-8.88304
▁കുറച്ച്	-8.8835
▁കൂടെ	-8.88387
▁ബാ	-8.88564
ുള്ളത്	-8.88586
▁രമേശ്	-8.886
ക്കോ	-8.88612
▁ഉപയോഗിക്ക	-8.88679
▁നേരിട്ട	-8.88828
▁എട്ട്	-8.88976
▁നടക്കുന്നത്	-8.89027
▁അവസരം	-8.89031
വരും	-8.89071
▁അടക്കമുള്ള	-8.89095
▁മുസ്ലീം	-8.89196
▁ചുമതല	-8.89223
▁അധ്യക്ഷന്‍	-8.89253
ആര്‍	-8.89479
▁മാറിയ	-8.89483
▁തിരഞ്ഞെടുപ്പിൽ	-8.89544
റ്റി	-8.89616
▁നിയമം	-8.89623
മു	-8.89673
▁മാറ്റം	-8.89712
മാര്‍	-8.89769
▁ലഭിക്കുന്ന	-8.89854
ുവെന്നും	-8.89857
▁31	-8.89924
▁ശ്രമം	-8.89957
▁പത്ത്	-8.90272
▁വിവരങ്ങള്‍	-8.90279
▁സംഭവ	-8.90299
▁ഏത്	-8.90312
▁പ്രസ്താവന	-8.90512
▁മമത	-8.90533
▁അനുവദിക്ക	-8.90673
ധ	-8.90754
▁മണ്ഡലം	-8.90783
▁സംഭവിച്ച	-8.90934
▁ചോദിച്ചു	-8.91017
▁വീതം	-8.91064
വർക്ക്	-8.91172
▁നല്‍കുന്ന	-8.91194
ണ്ണ	-8.91327
▁സാഹചര്യം	-8.91488
▁വ്യാജ	-8.9152
▁തീ	-8.91542
ഗ്	-8.91555
▁അതില്‍	-8.91921
ജ്	-8.92034
▁എന്താണ്	-8.92062
▁ചൂണ്ടിക്കാട്ടി	-8.92149
▁വരുന്നത്	-8.92616
‍	-8.9272
▁പെ	-8.92723
▁പ്രവർത്തിക്ക	-8.92734
▁എൽ	-8.92809
▁ഫേസ്ബുക്ക്	-8.92931
രാ	-8.92978
▁താൻ	-8.9298
▁നമുക്ക്	-8.93035
▁രീതിയില്‍	-8.93243
▁യാതൊരു	-8.9334
▁ബന്ധം	-8.93359
ിട്ടുണ്ടെന്നും	-8.93433
▁ശ്രദ്ധ	-8.93537
▁മരണം	-8.93565
▁സുരക്ഷാ	-8.93654
ച്ചു	-8.9374
▁കൂടിയാണ്	-8.93903
▁അഴിമതി	-8.93948
▁രൂപയുടെ	-8.94018
▁അധ്യക്ഷ	-8.94039
▁വിവാദ	-8.94051
പ്പെട	-8.9445
▁വീട്	-8.94556
ഥ	-8.94676
▁ക്	-8.94676
▁നടത്തുന്നത്	-8.94832
▁വിതരണം	-8.9489
▁തിരിച്ചടി	-8.94908
▁പലരും	-8.94949
▁റഷ്യ	-8.94979
▁ഭ	-8.95034
▁ചെയ്തിട്ടുണ്ട്	-8.9505
▁വിമാന	-8.95195
ാക്കി	-8.95224
▁പ്രതിഷേധ	-8.95312
▁പിന്നാലെയാണ്	-8.95538
ങ്	-8.95544
▁വനിതാ	-8.95549
ുകളില്‍	-8.95615
▁പോ	-8.95678
▁സമരം	-8.95684
െത്തിയ	-8.95876
ഞ്ച	-8.95911
▁ചാണ്ടി	-8.96111
ജെ	-8.96185
▁രീതി	-8.96237
▁മേഖലയില്‍	-8.96253
▁യോഗത്തില്‍	-8.96417
▁കൊ	-8.96462
▁ദിലീപ്	-8.96644
%	-8.96758
▁കോടതിയില്‍	-8.96788
▁നടത്ത	-8.96817
ുമെന്ന	-8.96821
▁സ്ഥിരീകരിച്ചു	-8.96954
▁മുഴുവന്‍	-8.96992
▁ഒന്ന്	-8.97042
▁പോകുന്ന	-8.9725
യാണെന്ന്	-8.97502
▁കേസിലെ	-8.97518
▁മണ്ഡലത്തില്‍	-8.97711
▁വാങ്ങ	-8.97755
▁വേ	-8.97756
▁എതിരെ	-8.97883
▁വിവാഹം	-8.97886
▁കര	-8.97971
▁ലോട്ടറി	-8.98087
▁ശ്രമിച്ച	-8.98136
▁അദ്ദേഹത്തെ	-8.98243
ുമ	-8.9836
▁തിരഞ്ഞെടുക്ക	-8.98368
▁യൂത്ത്	-8.98459
ത്തിനു	-8.98484
ുമായിരുന്നു	-8.98512
▁ഹാ	-8.98559
യുടെയും	-8.98634
▁ഒരുപാട്	-8.98697
▁നിരീക്ഷണത്തില	-8.98732
ുണ്ടായ	-8.98802
ഞ്ഞ	-8.98861
ണി	-8.98889
▁വാഹന	-8.98903
▁കണ്ണ	-8.98921
▁മത്സരിച്ച	-8.98958
ങ്ങള്‍ക്ക്	-8.99043
തോടെയാണ്	-8.99124
▁തുടര	-8.99262
▁ഒരിക്കലും	-8.9949
▁മെന്റ്	-8.9953
യുമായ	-8.99591
▁പശ്ചാത്തലത്തില	-8.99704
▁മേധാവി	-8.99733
കോ	-8.99745
▁കൂട	-8.99751
▁കൊണ്ടാണ്	-8.99845
▁റിപ്പോര്‍ട്ടുകള	-8.99887
▁പിന്നെ	-8.9997
▁പരിശോധിക്ക	-9.0008
▁കാര	-9.0014
ുവെന്ന്	-9.00164
▁പര	-9.00185
▁ഉദ്യോഗസ്ഥര്‍	-9.0024
▁ബാബു	-9.0028
▁വിജയ്	-9.00569
▁ഹര്‍ജി	-9.00765
▁ചെയ്	-9.00834
▁വിജയിച്ച	-9.00917
▁കാര്യങ്ങൾ	-9.00938
▁പ്രാദേശിക	-9.01026
ുന്നതിനായി	-9.01083
▁നിര്‍ദേശം	-9.01112
▁60	-9.0112
▁മാറ	-9.01158
▁ഡോസ്	-9.01163
▁ബന്ധ	-9.01298
▁റോഡ്	-9.0135
ാര്‍	-9.01373
▁ലഭിക്ക	-9.01392
▁ഒപ്പം	-9.01442
▁ചീഫ്	-9.01555
▁ചെയ്യുന്നു	-9.01648
▁കുട്ടി	-9.01669
▁ഉണ്ടായിരുന്നു	-9.01721
യെന്ന	-9.01806
▁സംഭവത്തില്‍	-9.01838
▁കെപിസിസി	-9.0208
▁അതിനിടെ	-9.02217
▁ഇയാള്‍	-9.02357
▁സീറ്റുകള്‍	-9.02411
▁നേതൃത്വത്തില്‍	-9.02556
▁ഉന്നത	-9.02557
▁ജാഗ്രത	-9.02587
▁താഴെ	-9.02732
▁ഉപയോഗിച്ച്	-9.02809
▁കാര്യത്തില്‍	-9.02869
▁ഗ്രൂപ്പ്	-9.02963
▁പണി	-9.02979
▁നിലവിലെ	-9.03144
ആർ	-9.03162
▁രംഗത്തെത്തിയ	-9.03203
▁വിഷയത്തില്‍	-9.03257
▁ഇത്രയും	-9.03336
▁സഹായം	-9.03378
രായ	-9.03555
▁ഇരു	-9.0369
▁വെല്ലുവിളി	-9.03789
ോളം	-9.03818
▁ഉണ്ടായിരുന്ന	-9.03879
▁എന്നിവരാണ്	-9.04001
▁100	-9.04078
▁നടപടികള്‍	-9.04078
▁കൊണ്ട	-9.04101
▁ജനുവരി	-9.04292
▁ജില്ലയിൽ	-9.0436
യല്ല	-9.04584
യില്ല	-9.04653
▁റിപ്പോര്‍ട്ട	-9.04805
▁വിരുദ്ധ	-9.04834
';	-9.04854
▁മേഖല	-9.04976
▁29	-9.05007
▁നിങ്ങള്‍	-9.05029
▁കിട്ടിയ	-9.05036
ുമായുള്ള	-9.05068
▁മഹാ	-9.05096
▁മലയാള	-9.05157
▁വാര്‍ത്ത	-9.05407
▁ഫോണ്‍	-9.05469
സാ	-9.05487
ുണ്ടായിരുന്നു	-9.05634
എല്‍	-9.05685
▁35	-9.0582
ാറ	-9.05967
▁അനുവദിച്ച	-9.05971
▁ഇന്ത്യയില്‍	-9.05979
▁ബാങ്ക്	-9.05994
▁ജൂലൈ	-9.0601
ന്ദ	-9.06069
യെന്നും	-9.06149
▁ജാ	-9.06157
ാര	-9.06248
▁വിസ	-9.06265
▁ഏ	-9.063
▁കോളേജ്	-9.06402
▁ലോക	-9.0644
▁തമ്മിലുള്ള	-9.06441
▁ജില്ല	-9.0645
▁ഔദ്യോഗിക	-9.06452
▁അഭിപ്രായ	-9.06504
▁കേസുകള്‍	-9.06591
▁നീതി	-9.06653
▁തു	-9.06657
▁ജൂണ്‍	-9.06704
ാക	-9.06714
▁ഉണ്ടാക	-9.06721
▁കഴിഞ്ഞു	-9.06809
▁വൈ	-9.06854
▁നില്‍ക്ക	-9.0706
ത്തോട്	-9.07113
▁ഉള്‍പ്പെടെ	-9.07239
▁അനുകൂല	-9.07244
▁എന്നിവിടങ്ങളില	-9.07256
▁ർ	-9.07271
▁ഭരണം	-9.07339
▁നല്‍ക	-9.07444
പ്പി	-9.07594
▁ഉൾപ്പെടെ	-9.0778
▁കൊടുത്ത	-9.07787
മേ	-9.07793
▁മൃതദേഹം	-9.0794
▁സം	-9.07988
▁അത	-9.08068
▁നൽകുന്ന	-9.08149
▁ദുരന്ത	-9.08165
▁സ്വയം	-9.08227
▁അപകട	-9.08231
▁തെരഞ്ഞെടുപ്പ്	-9.08262
▁രാജി	-9.08347
▁നിലപാട	-9.08347
ായിരുന്ന	-9.08353
▁സ്ഥാനാർത്ഥി	-9.08373
▁യുഎസ്	-9.08424
▁ജനങ്ങള്‍	-9.085
▁നിലയില്‍	-9.08531
▁ഗോപി	-9.08567
▁സാഹചര്യത്തിൽ	-9.08673
ക്കര	-9.08676
e	-9.0871
▁ആക	-9.08892
▁സിപിഐ	-9.08901
ട്ടെ	-9.08933
ത്തു	-9.08982
യം	-9.09345
ുകള	-9.09435
ാവുന്ന	-9.09521
▁ആക്രമണം	-9.09615
▁ഇന്ത്യയിലെ	-9.09645
▁രാജ്യം	-9.09787
▁കൂടിക്കാഴ്ച	-9.09926
ാണോ	-9.09963
▁വിളിച്ച	-9.09977
ാകും	-9.10002
▁കേട്ട	-9.1002
▁അടിസ്ഥാന	-9.10021
ിരിക്കുന്നു	-9.10185
▁സോ	-9.10213
▁ത്തി	-9.10213
▁പഴയ	-9.10388
▁പ്രമുഖ	-9.10447
▁പേരിൽ	-9.10565
▁അത്ര	-9.10601
▁ചെയ്യാൻ	-9.10617
കൾക്ക്	-9.10654
▁അദ്ദേഹത്തിന്	-9.10699
▁പാല	-9.10719
▁ര്‍	-9.10765
▁ബാല	-9.10783
▁സംവിധാനം	-9.10808
▁നിങ്ങൾ	-9.1087
▁ആളുകള്‍	-9.10983
▁കൊടുക്ക	-9.1111
▁വാദം	-9.11139
▁45	-9.11159
▁സമ്പര്‍ക്ക	-9.11299
▁ഇടത്	-9.1133
ാല	-9.11634
ങ്ങൾക്ക്	-9.11741
▁ജോര്‍ജ്	-9.11775
യിലൂടെ	-9.11825
▁സഭ	-9.12045
▁പഠന	-9.12161
▁താ	-9.12188
',	-9.12242
▁സാമൂഹിക	-9.12401
▁ടിക്കറ്റ്	-9.12607
▁അധികം	-9.12645
▁രാജ്	-9.12754
▁ഓഫീസര്‍	-9.12915
▁നേതാക്കളെ	-9.12943
▁തിരികെ	-9.12963
▁തമ്മില്‍	-9.13212
▁ബസ്	-9.13279
▁ആരോപണ	-9.13339
▁വിഷയം	-9.13591
▁കാലാവസ്ഥ	-9.13608
▁ഉമ്മന്‍	-9.1366
▁ഖ	-9.1368
▁ഏക	-9.13797
▁പുറത്തുവന്ന	-9.13809
▁വീട്ടിൽ	-9.14084
▁കുറിച്ചു	-9.14137
ലോ	-9.14299
▁ഇന്‍	-9.14314
▁അവസ്ഥ	-9.14359
േഴ്	-9.14431
▁സ്വപ്ന	-9.14504
▁പ്രതികരിച്ച	-9.14558
ിരിക്ക	-9.14605
▁പ്രതികരിച്ചു	-9.14626
▁അംഗീകരിക്ക	-9.14722
▁ചെ	-9.14861
▁കൊലപാതക	-9.14887
▁പൂ	-9.14922
▁കോണ്‍ഗ്രസില്‍	-9.14944
േറ്റ	-9.14949
▁കൂടിയ	-9.15003
▁ഉണ്ടാകും	-9.15066
▁പ്രവര്‍ത്തന	-9.15273
ാക്ക	-9.15279
ാർ	-9.1535
s	-9.15369
ുന്നതാണ്	-9.154
ുന്നതിനുള്ള	-9.15461
▁അടി	-9.15471
▁ഒറ്റ	-9.15494
▁സിറ്റി	-9.15495
▁പേര്‍ക്കും	-9.15535
▁ഉന്നയിച്ച	-9.15558
▁സൂര്യ	-9.15586
▁ജാമ്യം	-9.15619
▁അന്താരാഷ്ട്ര	-9.1567
▁മരിച്ചത്	-9.15679
▁അധികൃതര്‍	-9.15762
▁മീഡിയയില്‍	-9.15798
▁കോട്ട	-9.158
തിൽ	-9.1594
യുമാണ്	-9.15948
▁നീക്ക	-9.15965
▁ഇത	-9.16029
▁മൂന്നു	-9.16099
▁കല	-9.16173
▁സുരേന്ദ്രന്‍	-9.16413
▁അടിയന്തര	-9.16425
▁2016	-9.166
▁ക്ഷേത്ര	-9.16679
▁വൈസ്	-9.16765
▁ബാധിച്ച	-9.16898
▁ന്ന	-9.16935
▁നഗരസഭ	-9.17019
▁ചേര	-9.17041
▁ജീവിതം	-9.17057
▁നടപ്പാക്ക	-9.17058
▁രു	-9.17061
▁നങ്ങള്‍	-9.17098
▁നെ	-9.17208
ആ	-9.17309
▁അറിയിക്ക	-9.17333
ുകൊണ്ട്	-9.17335
▁വിചാരണ	-9.17365
തിനാൽ	-9.17438
ില്ലെന്ന	-9.17616
▁ഉയര	-9.17681
▁ഇതിൽ	-9.17691
▁പക്ഷെ	-9.17738
▁ഫ്	-9.17753
▁മാര്‍ച്ച്	-9.18027
▁വെള്ള	-9.18082
▁പങ്കെടുക്ക	-9.18223
▁അറിഞ്ഞ	-9.18281
30	-9.18544
ത്ര	-9.18754
▁ആവശ്യ	-9.18943
▁ശോഭ	-9.18956
കാല	-9.19082
▁ഫെബ്രുവരി	-9.19185
മാരുടെ	-9.19199
▁ഉടന്‍	-9.19405
ങ്ങളാണ്	-9.19433
▁പേരുടെ	-9.19439
▁വോട്ടുകള്‍	-9.19462
▁മുതിര്‍ന്ന	-9.19692
▁അടുത്തിടെ	-9.19692
▁ട്ര	-9.19767
ക്കാന്‍	-9.19777
▁തീര	-9.19783
▁അംഗ	-9.19797
▁സംഘ	-9.19798
▁പ്രഖ്യാപിക്ക	-9.19803
▁ജീവിത	-9.1982
യര്‍	-9.19845
▁ഇരുവരും	-9.19866
ാമ	-9.1989
▁ആഴ്ച	-9.20004
▁പള്ളി	-9.20179
▁ഏതെങ്കില	-9.20184
▁ഒരാള്‍	-9.20216
▁സ്വദേശിയായ	-9.20336
▁പോകുന്നത്	-9.20513
▁നമ്മള്‍	-9.20528
▁സത്യ	-9.20568
▁വിജയന്‍	-9.20632
▁സിനിമാ	-9.2067
മാര	-9.20704
▁കൃത്യമായ	-9.208
▁2021	-9.20819
▁യാ	-9.20901
▁കണ്ടെത്തി	-9.20906
▁ഉദ്ഘാടനം	-9.2093
മെന്ന്	-9.21024
യെയും	-9.21274
▁ചേര്‍ന്ന	-9.21327
▁പേർക്ക്	-9.21364
▁ആവശ്യമായ	-9.21456
രെ	-9.21565
▁മലയാളി	-9.21587
സ്റ്റ്	-9.21653
ൂട്ടിച്ചേര്‍ത്തു	-9.21682
▁മോ	-9.21797
!!	-9.21876
▁കണ്ട്	-9.21909
▁ജനറൽ	-9.21926
▁പുറമെ	-9.21928
▁നേരത്തേ	-9.21932
▁കുറ്റപ്പെടുത്തി	-9.21955
ലും	-9.22078
പാ	-9.22156
▁സര്‍ക്കാര	-9.22202
▁കണക്ക്	-9.22217
കാ	-9.22306
▁മരിച്ചു	-9.22314
▁ഉപയോഗിച്ച	-9.22359
ത്തിനുള്ള	-9.22408
▁മൂലം	-9.22455
സിന്റെ	-9.22463
രാജ	-9.2248
▁ഇതിനിടെ	-9.22546
▁കാണിക്ക	-9.22583
▁രി	-9.22725
▁ട്രംപ്	-9.22755
റു	-9.2277
കാര	-9.22789
▁നടത്തിയിരുന്നു	-9.22808
ഹ്	-9.22911
ിനൊപ്പം	-9.22936
▁ഇതാണ്	-9.22991
മാർ	-9.22994
▁രജിസ്റ്റര്‍	-9.23063
ൃ	-9.23308
▁ജനങ്ങളുടെ	-9.23554
50	-9.23572
ുകളിൽ	-9.23684
▁തൊഴില്‍	-9.23776
ിലുള്ള	-9.23809
ണമെന്നാണ്	-9.23911
▁എല്‍ഡിഎഫ്	-9.23921
▁ഡല്‍ഹി	-9.23972
ത്തിനെതിരെ	-9.24156
▁പ്രചാരണം	-9.24202
േഷ്	-9.24212
▁നം	-9.2441
▁2,	-9.24432
▁അധികാര	-9.24459
▁ചാ	-9.24616
▁തുടര്‍ന്നാണ്	-9.2468
▁കയറി	-9.24682
▁പെൺകുട്ടി	-9.24864
▁ശബരിമല	-9.24875
▁രേഖപ്പെടുത്തിയ	-9.24908
▁സോണിയ	-9.25045
▁ആശുപത്രിയിൽ	-9.25047
▁തള്ളി	-9.25057
▁പ്രചാരണ	-9.25114
▁വ്യക്തമായ	-9.25146
▁പൊ	-9.25155
▁പിന്തുണയ്ക്ക	-9.25254
യേ	-9.25292
▁ഓഫീസ്	-9.25363
▁അറിയിച്ചത്	-9.25373
▁ആദ്യമായി	-9.2538
▁വിവരങ്ങൾ	-9.25431
▁വിദ്യാര്‍ത്ഥികള	-9.25537
▁ജയ	-9.25583
▁സൈനിക	-9.25622
▁ഇടതുപക്ഷ	-9.25647
▁പന്ത	-9.25689
▁ആന്റണി	-9.2571
▁ജില്ലകളില്‍	-9.2583
▁മത്സര	-9.25852
മെ	-9.25858
▁ദി	-9.2597
▁ചേര്‍ന്ന്	-9.25977
ുന്നതും	-9.25978
ഫി	-9.26047
ുന്നില്ല	-9.26054
▁ക്ല	-9.2606
▁വെള്ളം	-9.26122
▁കണ്ടു	-9.26248
▁സംസാരിച്ച	-9.26302
▁ആന	-9.26318
ത്തിന	-9.26322
▁പിടി	-9.26348
▁കൃത്യമായി	-9.26368
▁പു	-9.26384
▁പങ്കുവെച്ച	-9.26538
▁ഒക്കെ	-9.26568
▁കഴിയ	-9.26627
▁കൊല്ലപ്പെട്ട	-9.26638
േഷന്‍	-9.26665
▁അന്വേഷിക്ക	-9.26668
ിക്കാന്‍	-9.267
▁കാര്യ	-9.26703
▁ബാക്കി	-9.2672
▁പരിഗണിക്ക	-9.26871
▁മേ	-9.26887
▁ബാധ	-9.26902
▁ഹിന്ദു	-9.27061
▁എത്തുന്ന	-9.27161
▁ണ	-9.27189
▁നില്‍ക്കുന്ന	-9.27201
പ്പെടുന്ന	-9.27259
▁കണ്ടെത്തിയത്	-9.27338
▁മൊത്ത	-9.27358
ഷി	-9.27389
ിനായി	-9.27404
▁തീരുമാനിക്ക	-9.27487
▁ഇല്ലാത്ത	-9.27492
▁പരമാവധി	-9.27571
▁വൈദ്യുതി	-9.27678
▁ലാ	-9.2768
ീസ്	-9.27682
ുകയാണെന്നും	-9.2769
ില്ലെന്നാണ്	-9.27837
▁പ്രതിപക്ഷം	-9.27887
▁സ്വതന്ത്ര	-9.27952
തോ	-9.27994
▁വച്ച്	-9.28069
ിന്റെയും	-9.28169
▁നിയമനം	-9.2832
▁അവര്‍ക്ക്	-9.28369
▁പിഴ	-9.28508
▁ഫോട്ടോ	-9.28602
▁സഹായ	-9.28646
▁നന്ദി	-9.28786
▁സുധാകരന്‍	-9.28878
▁ഉണ്ടാക്ക	-9.28884
▁യോഗി	-9.28911
▁ഭാഗത്ത്	-9.28933
▁അന	-9.28984
▁കൃഷി	-9.28996
ലാണ്	-9.29028
ക്കെതിരായ	-9.29109
രു	-9.2915
▁കുടുംബം	-9.2921
▁കാണാന്‍	-9.29454
▁സമുദായ	-9.29602
▁കേ	-9.29604
ില്ലെങ്കില്‍	-9.29637
▁വരെയുള്ള	-9.29642
▁വാക്സിൻ	-9.29643
▁കുറ്റ	-9.2978
▁എടുക്ക	-9.2983
▁വെറും	-9.2989
▁വ്യവസ്ഥ	-9.29896
▁സ്വ	-9.29994
▁ഏകദേശം	-9.30012
▁നേട	-9.30016
▁പരി	-9.30063
▁അറിയാം	-9.30076
▁ധ	-9.30082
▁വിശ്വാസ	-9.30083
▁ഭാ	-9.30246
നു	-9.30258
▁2020	-9.30259
▁മുന്നിൽ	-9.30411
ത്തിൻ്റെ	-9.30468
ക്ഷ	-9.30549
▁ഇക്കാര്യത്തില്‍	-9.30585
▁തീരുമാന	-9.30607
▁വിളിച്ച്	-9.30622
▁32	-9.30636
▁2018	-9.30714
▁കേരളത്തിന്റെ	-9.30739
▁റോ	-9.30878
▁സേന	-9.30909
▁ചേർന്ന	-9.3091
▁ഘട്ട	-9.31034
▁എസ്പി	-9.31084
▁പോസ്റ്റ	-9.31096
▁അവധി	-9.31123
നിന്ന്	-9.31127
▁അനു	-9.3114
▁പരിക്കേറ്റ	-9.31164
നേ	-9.31186
ാനായി	-9.312
▁അവര	-9.31214
▁പോലുള്ള	-9.31224
▁സഖ്യം	-9.31267
ദ്ധ	-9.31331
▁ശ്രമിക്കുന്ന	-9.31353
▁ശിക്ഷ	-9.31389
ാറുണ്ട്	-9.31431
▁സന്തോഷ	-9.31477
▁ചെയ്യുക	-9.31504
നോ	-9.31536
▁മുതിർന്ന	-9.31578
ാമെന്ന്	-9.31596
ിനുള്ള	-9.31603
▁കാലം	-9.31609
▁മണ്ഡല	-9.31725
എന്‍	-9.31745
▁രോഗമുക്തി	-9.31756
▁കൃഷ്ണ	-9.31758
▁രാജ്യ	-9.318
▁ഇതിനെ	-9.31803
▁തിരഞ്ഞെടുപ്പിന്	-9.31934
▁ഇവര്‍ക്ക്	-9.31944
മാക്ക	-9.3207
▁അതിനെ	-9.32087
▁അത്തര	-9.32151
▁അഞ്ച	-9.32239
▁മന്ത്രാലയം	-9.32256
▁ഇന്നത്തെ	-9.32361
▁ശമ്പളം	-9.32363
യാണെന്നും	-9.32405
▁പോലീസ	-9.32463
▁യുദ്ധ	-9.32464
▁രൂപയും	-9.32467
▁നടക്ക	-9.32532
▁ഗ്രാമ	-9.32554
ുമായ	-9.32721
ാണ	-9.32758
▁തുറക്ക	-9.3277
▁കൂട്ടിച്ചേർത്തു	-9.32774
▁നൽക	-9.32786
ടക്കം	-9.32852
▁സ്ഥാനത്ത്	-9.32964
▁തര	-9.33
▁ചരിത്ര	-9.33219
▁എച്ച്	-9.3323
▁പേര്‍ക്കാണ്	-9.3331
തായിരുന്നു	-9.33348
▁മഹാരാഷ്ട്ര	-9.33418
മാക	-9.33522
▁ദേവ	-9.33577
▁വീണ	-9.33614
ുണ്ടെന്നും	-9.33731
▁തിങ്കളാഴ്ച	-9.33735
▁ജനങ്ങളെ	-9.33845
ത്തിന്‍റെ	-9.33848
റിന്റെ	-9.33864
▁തെരഞ്ഞെടുപ്പ	-9.33893
▁സർക്കാരിന്റെ	-9.33934
▁സംസ്	-9.34104
▁സമ	-9.34338
▁അയച്ച	-9.34359
▁യുവ	-9.3436
▁പാത	-9.3441
▁തുറന്ന	-9.34622
▁തേടി	-9.34672
▁രാ	-9.34708
▁ള	-9.34819
▁ഭക്ഷണം	-9.34835
▁വന്നിരുന്നു	-9.3487
▁വിളിക്ക	-9.35054
▁രാശിക്കാര്‍ക്ക	-9.35055
▁നടത്തും	-9.35081
▁ഉത്തരവ്	-9.35101
▁ചോദിച്ച	-9.35214
▁ഏറ്റെടുക്ക	-9.35215
▁ക്ക	-9.35237
ിനാണ്	-9.35258
▁മുൻപ്	-9.35281
▁ഇതു	-9.35369
▁ആത്മഹത്യ	-9.35399
▁ഞങ്ങളുടെ	-9.35416
▁80	-9.35418
▁കാഴ്ച	-9.35429
▁ഭൂരിപക്ഷം	-9.35487
▁വാർത്ത	-9.35521
▁ചെന്നൈ	-9.35532
റോ	-9.35553
▁നിന്നു	-9.35581
▁ടു	-9.35666
േഷൻ	-9.35721
▁ബെ	-9.35737
ായത്	-9.35749
▁ബുദ്ധിമുട്ട	-9.35806
▁മൂ	-9.35824
▁പിടിച്ച	-9.35864
▁എന്തെങ്കില	-9.35868
▁കള്ള	-9.35882
▁നടപടികൾ	-9.35884
ത്വ	-9.3593
ുണ്ടെന്ന്	-9.35981
മെന്റ്	-9.3599
▁സ്വപ്	-9.36015
▁സംസ്ഥാനങ്ങളില്‍	-9.36025
▁കാര്‍	-9.36107
▁മാസ	-9.36133
▁സിന്ധ്യ	-9.36207
▁നേരിടുന്ന	-9.3625
▁ചോദിക്ക	-9.36375
▁നേതാക്കളുടെ	-9.36389
▁തുറന്ന്	-9.36432
▁ണ്	-9.36481
▁അറേബ്യ	-9.36486
എച്ച്	-9.36521
▁പേ	-9.36529
ടുക്ക	-9.36571
▁ആഗ്രഹിക്കുന്ന	-9.36714
▁ഫല	-9.36738
▁അധിക	-9.36747
▁കുമാർ	-9.36788
▁തുടക്കം	-9.36794
▁അതി	-9.36887
....	-9.36896
▁ഉള്‍പ്പെടെയുള്ള	-9.36927
▁പെണ്‍കുട്ടി	-9.36973
▁ടെസ്റ്റ്	-9.37006
മാരായ	-9.37108
▁ഇൻ	-9.37304
▁സീറ്റ	-9.37504
▁സബ്	-9.37538
▁സഹ	-9.37547
o	-9.37551
ന്‍സ്	-9.37598
▁എവിടെ	-9.37624
▁2017	-9.37642
ിട്ടില്ലെന്നും	-9.37659
▁നേതാക്കളും	-9.37665
▁വരുത്ത	-9.37681
ുകളാണ്	-9.37713
ുവെന്ന	-9.37766
▁കിട്ട	-9.37874
▁നല്‍കാന്‍	-9.3802
സ്ത	-9.38055
▁സാധ്യതയുണ്ട്	-9.38068
▁ലഭിച്ചു	-9.38118
▁ഉറപ്പ്	-9.38129
▁ലോ	-9.38144
▁അധികാരം	-9.38177
▁വന്ന്	-9.38277
▁അല്‍	-9.38337
യേയും	-9.38357
▁അക്രമ	-9.38365
▁താര	-9.38484
▁കുറിപ്പ	-9.38489
▁സംഭവത്തിൽ	-9.38522
രിയ	-9.38593
▁കൊല്ല	-9.38676
റും	-9.38713
▁അറിയിച്ചിരുന്നു	-9.38761
ശാല	-9.38772
ടു	-9.38973
▁സംശയ	-9.39053
▁മാറ്റിയ	-9.39092
തല്ല	-9.39128
െടുത്ത	-9.3917
▁ചെലവ	-9.3919
മല	-9.39264
▁മത്സരം	-9.39265
ിക്കുന്നത്	-9.39292
▁ഗവര്‍ണര്‍	-9.39339
▁യോഗ	-9.39515
▁ഡെ	-9.39602
്യം	-9.39641
▁പെട്ടെന്ന്	-9.39664
▁തടയ	-9.39715
▁അവസാനിപ്പിക്ക	-9.39778
▁മണ്ഡലത്തിൽ	-9.39818
▁വിമാനത്താവളത്ത	-9.39882
ുമുള്ള	-9.39911
▁തിരിച്ചു	-9.40102
തല	-9.40135
▁റ്റ	-9.40282
▁തിരിച്ച്	-9.40284
പ്പോഴാണ്	-9.40291
▁ഉടൻ	-9.40333
▁മല	-9.40333
▁നിരീക്ഷണ	-9.40335
▁വാങ്ങി	-9.40376
ക്കാർ	-9.40412
കി	-9.40413
ിംഗ	-9.40436
▁ലക്ഷ	-9.40446
▁പിന്നില്‍	-9.40475
▁ചൈനീസ്	-9.40518
▁മണിക്കൂറ	-9.40525
▁നല്‍കിയിരുന്നു	-9.40564
▁ലോക്ക്	-9.40566
▁ഭാവി	-9.40578
വീ	-9.40594
▁പ്രഖ്യാപനം	-9.40652
▁ബിജെപിയെ	-9.4066
▁മുഴുവൻ	-9.40693
▁നിലയിൽ	-9.40694
ില്ലാത്ത	-9.40706
▁മുഖ	-9.40789
െത്തി	-9.40819
▁വാങ്ങിയ	-9.40869
▁സാമൂഹ്യ	-9.40887
▁സ്ഥലം	-9.40905
ിനെയും	-9.40909
▁ഗോ	-9.40985
ക്കല്‍	-9.41008
കരമായ	-9.41045
▁കളക്ടര്‍	-9.41084
▁ടീം	-9.41094
▁വ്യവസായ	-9.41149
▁കളി	-9.41243
▁നല്‍കുന്നത്	-9.41265
ുകയോ	-9.41393
▁നീ	-9.414
▁പൗരത്വ	-9.41615
▁ദിന	-9.4164
▁ഡ	-9.41762
▁കാണുന്ന	-9.41788
▁70	-9.41843
▁പുറമേ	-9.4187
▁പുതുതായി	-9.41901
▁കോടതിയെ	-9.41921
ല്ലേ	-9.41932
▁പാട	-9.41934
▁രാശി	-9.41975
▁ധാരണ	-9.42008
▁നേട്ടം	-9.42037
▁പ്രാഥമിക	-9.42064
▁മടങ്ങ	-9.42122
▁കര്‍ണാടക	-9.42205
വുമായ	-9.42222
▁ഞായറാഴ്ച	-9.42263
വിന്റെ	-9.42267
▁ചിത്ര	-9.42286
▁കര്‍ഷക	-9.42297
▁മര	-9.4231
▁അര	-9.42352
യിലുള്ള	-9.42401
▁ധന	-9.42431
▁നേരിട	-9.42487
▁സഖ്യ	-9.42498
▁സീറ്റില്‍	-9.42514
▁ടെക്	-9.42567
▁വാഗ്ദാനം	-9.42612
▁രീതിയിൽ	-9.42686
▁ചിലര്‍	-9.42712
▁ജില്ലകളിൽ	-9.4272
▁ഭാഷ	-9.42727
▁കുറിപ്പ്	-9.42734
▁ജസ്റ്റിസ്	-9.42744
▁കഥ	-9.42911
▁തന്ന	-9.42924
▁അനുസരിച്ച്	-9.42993
▁വരുമാന	-9.43008
▁നോട്ടീസ്	-9.43021
▁എന്‍ഡിഎ	-9.43058
▁മാസ്	-9.43066
▁പോയത്	-9.43299
▁ശക്തമായി	-9.4337
▁ഞാന	-9.43386
▁നിരന്തര	-9.43457
▁സോഷ്യൽ	-9.4346
യായിരുന്ന	-9.43469
▁2022	-9.43522
▁പാലാ	-9.44109
▁33	-9.44155
▁പങ്കെടുത്തു	-9.44193
▁ആക്രമിച്ച	-9.44227
▁മേഖലയിലെ	-9.44244
▁ശനിയാഴ്ച	-9.44261
▁പറയാന്‍	-9.44366
▁മൂന്ന	-9.44394
▁അഭിപ്രായം	-9.44395
▁വെള്ളിയാഴ്ച	-9.44462
ത്തിലുള്ള	-9.44615
ടുത്ത	-9.4462
▁നിക്ഷേപ	-9.44635
▁പ്രവർത്തകർ	-9.44651
▁ബാധിച്ച്	-9.44672
▁തെ	-9.44676
▁പ്രതികരിക്ക	-9.44713
▁സാധിച്ച	-9.44754
ിര	-9.44763
▁സ്ഥാനാര്‍ഥി	-9.4482
▁ആള	-9.44832
▁ഷാജി	-9.44902
▁പാര്‍ട്ടിയുടെ	-9.44926
▁വിജയിക്ക	-9.44935
രം	-9.44959
ജന	-9.44986
▁രാജ്യത്തിന്റെ	-9.45138
▁പട	-9.45319
▁പൊലീസ	-9.45336
▁നടക്കും	-9.45417
ള്ള	-9.45575
കം	-9.45649
▁ടൂറിസം	-9.45684
▁സിബിഐ	-9.4569
▁പ്രവര്‍ത്തനം	-9.45713
▁ഹർജി	-9.45889
▁ശശി	-9.45899
ത്തേക്ക്	-9.45929
മില്ലാത്ത	-9.45945
ുന്നതിനും	-9.45966
ന്ന്	-9.46034
▁കാണുന്നത്	-9.46073
▁പ്രവൃത്തി	-9.46093
വില	-9.46146
▁ജാതി	-9.46164
▁നീണ്ട	-9.46172
▁സാഹചര്യത്തിലാണ്	-9.46202
▁പഞ്ചാബ്	-9.46237
▁തങ്ങള്‍	-9.46264
▁വർഷ	-9.46288
ണ്ട്	-9.46353
▁വോട്ട	-9.46485
▁ഏപ്രില്‍	-9.46506
▁മോശം	-9.46506
▁തയ്യാറായ	-9.46557
▁അല	-9.46704
▁സുപ്രീംകോടതി	-9.4682
▁കഴിക്ക	-9.46882
▁കാസര്‍ഗോഡ്	-9.4692
കളുമായി	-9.46957
▁ബ്ലോക്ക്	-9.47089
▁നിറഞ്ഞ	-9.4711
▁ഒരുക്കിയ	-9.47138
ുവെന്നാണ്	-9.47209
ത്തും	-9.47306
▁പൊലിസ്	-9.47323
▁ഡൽഹി	-9.47352
പൂര്‍	-9.4742
▁അതിൽ	-9.47544
യ്യ	-9.47551
ക്കാ	-9.4761
▁വിമര്‍ശനം	-9.4762
ല്ലോ	-9.47636
▁തിരിച്ചറിയ	-9.47667
▁അഡ്വ	-9.47755
-19	-9.47805
ന്‍റെ	-9.47901
ഗ്ര	-9.47919
▁വ്യാപനം	-9.47961
▁വേറെ	-9.48002
ക്കുന്നത്	-9.48043
▁ശരി	-9.48075
▁അതു	-9.48083
▁ആര	-9.48097
▁ട്വീറ്റ്	-9.48163
▁സ്ഥാപിച്ച	-9.48381
▁കക്ഷി	-9.4839
▁വിശദീകരണം	-9.48409
ക്കാര്‍	-9.4841
ശ്	-9.48456
▁നഗര	-9.48489
▁സമ്പര്‍ക്കം	-9.48688
▁കൈമാറ	-9.4871
▁ശ്രമിക്ക	-9.48763
▁ഗ്രൂപ്പ	-9.48777
▁കലാ	-9.48857
40	-9.48912
ഷന്‍	-9.48947
ാണിത്	-9.49005
നായി	-9.49059
▁വ്യക്തമാക്കിയത്	-9.4912
▁രാമ	-9.49122
േണ്ടതുണ്ട്	-9.4915
▁എന്നു	-9.49227
▁വനിത	-9.49244
00	-9.49257
ുന്നത	-9.49301
▁സ്വാതന്ത്ര്യ	-9.49369
▁കല്ല	-9.49456
▁മാതൃക	-9.49514
മാരെ	-9.49548
▁സഹകരണ	-9.49622
▁ഇത്തരമൊരു	-9.49651
▁മുല്ലപ്പള്ളി	-9.49651
▁ആം	-9.49657
▁സ്വര്‍ണം	-9.49786
ത്തിനിടെ	-9.49842
▁വാഹനം	-9.49864
▁നിതീഷ്	-9.49875
▁പ്രകടനം	-9.49881
▁ബാധിച്ചത്	-9.49946
▁മണ്ണ	-9.49969
▁കർണാടക	-9.50039
തര	-9.50076
▁എങ്കിലും	-9.50078
▁അന്തിമ	-9.50079
▁നിയന്ത്രണം	-9.50158
ബാ	-9.50163
▁നാട്	-9.50189
▁നിയന്ത്രിക്ക	-9.50244
▁സമ്മാനം	-9.50274
▁കണ്ടത്	-9.50277
▁ഇന്ത്യയിൽ	-9.50287
ുടേയും	-9.50302
ത്തിയ	-9.50324
▁ഭക്ഷണ	-9.50327
▁ഗുരുതര	-9.50337
▁കൂ	-9.50338
റാ	-9.50378
▁കമ്മീഷന്‍	-9.5046
▁ഒരാൾ	-9.50506
▁യുപി	-9.50545
▁34	-9.50666
റില്‍	-9.50817
▁ഗാന്ധിയുടെ	-9.50841
സെ	-9.5086
▁ജനങ്ങൾ	-9.50882
▁നഷ്ടപ്പെട്ട	-9.50906
വൈ	-9.50916
ൂര	-9.50924
▁മകന്‍	-9.50937
▁സ്ഥലത്ത്	-9.50944
▁ന്യൂനപക്ഷ	-9.50965
▁ഭേദഗതി	-9.50982
▁സിങ്	-9.51004
▁മാനസിക	-9.51149
▁രണ്ടാമത്തെ	-9.51156
യുടേയും	-9.51173
▁ഇപ്പോഴത്തെ	-9.51191
▁ദിവസത്തെ	-9.5124
വാദ	-9.51281
▁എയര്‍	-9.51298
▁അറിയ	-9.51366
▁ബസ	-9.51421
▁മോദിയുടെ	-9.5152
▁ചര്‍ച്ചകള്‍	-9.51659
▁കാര്യമാണ്	-9.51705
മാന	-9.51742
▁നോ	-9.51768
▁വിട്ടു	-9.51975
▁നടപ്പിലാക്ക	-9.5198
▁ആഗോള	-9.52021
ുമെല്ലാം	-9.5206
▁വരുമാനം	-9.52075
▁ആദ്യത്തെ	-9.52096
▁ത്	-9.52167
▁നോക്കി	-9.52187
▁പ്രകടന	-9.52194
▁48	-9.52195
ക്കാൻ	-9.52205
സ്ഥ	-9.52225
▁36	-9.52241
▁ധനമന്ത്രി	-9.52246
▁സര്‍വീസ്	-9.52259
▁അവകാശ	-9.52423
▁അല്ലെങ്കില്‍	-9.52469
ാണുള്ളത്	-9.52493
▁കൊണ്ടുവന്ന	-9.52765
▁75	-9.52786
▁നയ	-9.52935
▁അസിസ്റ്റന്റ്	-9.53021
▁അഭിപ്രായപ്പെട്ട	-9.53115
▁ഇയാൾ	-9.53138
▁അതുപോലെ	-9.5316
▁ഫിറോസ്	-9.53229
▁വകുപ്പിന്റെ	-9.53244
▁സുനി	-9.53281
▁ഇടപെട	-9.53311
▁പ്രഖ്യാപിച്ചു	-9.53346
▁പുറത്തു	-9.53432
യാക	-9.53508
▁അഭിമാന	-9.53534
▁കരുതുന്നത്	-9.53558
▁വിമത	-9.5356
▁കൈകാര്യം	-9.5356
▁പോരാട്ട	-9.53561
നില	-9.53581
▁ആക്രമണ	-9.53638
പ്പെട്ടത്	-9.53646
▁പിടിക്ക	-9.53656
▁വലിയൊരു	-9.53679
▁പരസ്യ	-9.53691
▁നാട	-9.5375
▁കണ്ടെത്ത	-9.53785
▁ആളുകൾ	-9.5383
▁ഇതിനായി	-9.53861
▁പരിശോധിച്ച	-9.53926
േരി	-9.53984
പരമായ	-9.54016
▁2024	-9.5403
▁നടത്താന്‍	-9.5405
ോടും	-9.54118
ിട്ടുണ്ടെന്ന്	-9.54121
▁ഫാ	-9.54121
▁ഗ്	-9.5417
നാട്	-9.54253
▁പാര്‍ട്ടിയില്‍	-9.54255
▁സമാനമായ	-9.5445
▁ശിവസേന	-9.54453
▁ആളുകളെ	-9.54467
▁വിജയൻ	-9.5453
▁അമേരിക്കന്‍	-9.54572
▁എംഎൽഎ	-9.54588
10	-9.54603
യറ	-9.54619
▁അതാണ്	-9.54704
കരിക്ക	-9.54869
▁ഭാഗ	-9.54889
▁കാലാവധി	-9.54898
▁മേഖലയിൽ	-9.54904
ഫോ	-9.54916
▁നോക്ക	-9.54946
▁ഉപ	-9.54991
▁ജല	-9.55057
▁ചൂണ്ടിക്കാണിക്ക	-9.55123
▁തരത്തിലുള്ള	-9.55215
▁ലഭ്യമാക്ക	-9.55243
കാരി	-9.55264
ംബ	-9.55266
ഞ്ഞു	-9.55271
▁വച്ച	-9.55293
▁മതി	-9.55366
▁തൊഴിൽ	-9.55373
▁ചിത്രങ്ങള്‍	-9.55462
▁സമയ	-9.55493
▁പത്ര	-9.55548
▁പിന്‍വലിക്ക	-9.55574
▁ഇഡി	-9.55591
▁നിര	-9.55599
പുരം	-9.55673
▁വെബ്	-9.55717
▁ദിവസവും	-9.55733
തിര	-9.55759
ശി	-9.5582
▁2023	-9.55832
▁പ്രതികരിച്ചത്	-9.5589
▁ശിവ	-9.56067
▁ഉദ്യോഗസ്ഥർ	-9.56214
▁വിദേശകാര്യ	-9.56267
▁മാധ്യമങ്ങള്‍	-9.56279
മാക്കി	-9.56281
▁തോ	-9.56296
▁ഇരിക്ക	-9.56316
▁നൽകിയത്	-9.56368
▁സൃഷ്ടിച്ച	-9.56509
▁ഉണ്ടാവ	-9.56631
▁കാണാം	-9.5685
ടെ	-9.56882
▁കുറവ	-9.56935
ാനോ	-9.57042
ര്‍ത്ത	-9.57056
▁നല്‍കും	-9.57071
▁അവർക്ക്	-9.57154
▁കോടിയേരി	-9.57168
കളിലും	-9.57182
▁ടോ	-9.57215
▁55	-9.57218
മുണ്ടായ	-9.5723
▁കേസ	-9.57233
▁സച്ചിന്‍	-9.57268
▁പ്രതീക്ഷിച്ച	-9.57312
▁സമൂഹ	-9.57316
ാണു	-9.57317
▁ചി	-9.57354
a	-9.57374
▁ചൊവ്വാഴ്ച	-9.574
▁സാങ്കേതിക	-9.57412
പ്പെട്ടു	-9.57486
▁വിവര	-9.57513
▁നാലു	-9.57547
▁തലത്തില്‍	-9.57625
▁രൂപീകരിച്ച	-9.57628
പ്പോ	-9.57635
▁കേസുകൾ	-9.57691
▁അഞ്ചു	-9.57808
▁തോന്നിയ	-9.57813
▁ഉൾപ്പെടെയുള്ള	-9.57931
▁ഒരേ	-9.57945
▁കടക്ക	-9.58015
▁പ്രതികളെ	-9.58031
ഷന	-9.58078
▁കോടതിയിൽ	-9.58094
▁വേണ്ടിയാണ്	-9.58113
സു	-9.58117
▁സ്ഥാപിക്ക	-9.58185
ത്തിന്റെയും	-9.58222
കുമാര്‍	-9.58267
്യൂ	-9.58308
▁നേടിയത്	-9.58384
▁ഇന്ന	-9.58443
യുണ്ടായ	-9.58454
▁കേസെടുത്ത	-9.58516
▁മുറി	-9.58594
▁സ്റ്റ	-9.586
മാണിത്	-9.58666
▁കടന്ന	-9.58699
▁മുന്നറിയിപ്പ	-9.58736
▁വീ	-9.58785
▁തുടരുകയാണ്	-9.58877
ഹി	-9.58914
▁കെസി	-9.58953
യൊക്കെ	-9.58958
സീ	-9.58989
▁സംഘടനാ	-9.58999
▁ബിജെപിയില്‍	-9.59019
▁രാഷ്ട്രീയം	-9.59024
▁വകുപ്പ	-9.59112
▁ആക്രമിക്ക	-9.5916
▁ഭാഗ്യ	-9.59189
▁റാലി	-9.59214
▁സൂപ്പര്‍	-9.59256
▁പങ്കുവച്ച	-9.59259
▁ച്ച	-9.59273
▁പ്രവര്‍ത്തിച്ച	-9.593
▁ക്ര	-9.59342
▁തീയതി	-9.59345
ീന	-9.59449
ുമുണ്ട്	-9.59569
▁ഇത്ര	-9.59575
ുന്നതില്‍	-9.59591
▁സര്‍ക്കാരിന്	-9.59616
ത്വം	-9.59654
ക്കട	-9.5972
ഗോ	-9.59724
▁അതോറിറ്റി	-9.59726
മീ	-9.59751
രീ	-9.59791
▁വിഷയത്തിൽ	-9.59793
▁രാജിവെച്ച	-9.59795
▁ഒടുവില്‍	-9.59829
ിച്ചത്	-9.5985
ക്ര	-9.59872
▁അധികൃതർ	-9.59962
▁സര്‍വേ	-9.59966
▁അറസ്റ്റിലായ	-9.60014
▁കാറ	-9.60057
▁ഇതിലൂടെ	-9.60078
▁റീ	-9.60098
▁പ്രഖ്യാപിച്ചത്	-9.60115
▁കടുവ	-9.60118
▁സാധ്യതയുണ്ടെന്ന	-9.60162
തെന്ന	-9.60181
▁ബുധനാഴ്ച	-9.60199
വച്ച	-9.60238
സം	-9.60279
▁വര്‍ഷ	-9.60381
▁രണ്ട	-9.60428
മന	-9.6044
▁43	-9.60455
ദി	-9.60468
▁കാര്യങ്ങള	-9.6047
▁പറയുന്നുണ്ട്	-9.60541
ര്യ	-9.60627
▁ബാങ്ക	-9.60656
▁മണിക്ക്	-9.60689
▁ദിവസങ്ങളില്‍	-9.60716
▁മദ്യ	-9.60793
താണെന്ന്	-9.60801
▁കുറിച്ച	-9.60806
▁ഭാരത്	-9.60993
▁ബിസിനസ്	-9.61027
▁കെട്ടിട	-9.61189
ാനി	-9.61195
▁അംഗം	-9.61198
സില്‍	-9.612
▁നിര്‍ണായക	-9.61207
▁എന്നിവർ	-9.613
▁ചെയ്യപ്പെട്ട	-9.61322
▁ചിന്ത	-9.6137
▁വ്യാഴാഴ്ച	-9.6139
▁വിളിച്ചു	-9.61396
▁ഫോൺ	-9.6147
▁പട്ടികയില്‍	-9.61568
ക്കാട്	-9.61572
▁അലി	-9.61601
▁വിതരണ	-9.6164
▁തേ	-9.61658
▁വാര്‍ഡ്	-9.61669
ുന്നതിനിടെ	-9.61699
▁കളിക്ക	-9.61734
യർ	-9.618
്‍ക്കും	-9.6186
▁കാര്‍ഷിക	-9.61869
നേതൃത്വത്തിലുള്ള	-9.61899
▁ഇന്നും	-9.61946
▁സംരക്ഷിക്ക	-9.6195
▁പത്രിക	-9.61956
▁ഇദ്ദേഹം	-9.61958
m	-9.61981
in	-9.62172
▁ക്ലാസ്	-9.62213
▁സജീവ	-9.62229
▁കടന്നു	-9.6227
▁ഹെ	-9.62285
സ്വ	-9.62331
പ്പെടുത്ത	-9.62347
▁രൂപീകരിക്ക	-9.62352
▁രൂക്ഷ	-9.62384
▁തെറ്റ	-9.62385
വെന്നും	-9.6245
▁കയറ	-9.62465
▁സമര്‍പ്പിച്ച	-9.62476
▁കൊണ്ടു	-9.62476
▁ന്യൂസ്	-9.62508
മെന്ന	-9.6257
ുകയാണെന്ന്	-9.62594
ണ്ടി	-9.62634
▁ബ്ര	-9.6269
▁എനിക്ക	-9.62707
▁ദിലീപിന്റെ	-9.62746
▁നടന്നു	-9.6277
▁ഒട്ടേറെ	-9.62837
▁ജയിച്ച	-9.62858
▁ഉണ്ടായത്	-9.62915
▁മുന്‍പ്	-9.62921
▁വേദന	-9.62929
▁ജഡ്ജി	-9.6293
▁44	-9.62952
▁രേഖപ്പെടുത്ത	-9.62967
▁പദ്ധതിയുടെ	-9.62977
▁37	-9.63051
▁ഉപതിരഞ്ഞെടുപ്പ	-9.63077
▁കാണിച്ച	-9.63178
▁ഗവ	-9.63215
▁മമ്മൂട്ടി	-9.63324
▁എഎപി	-9.63324
▁സംഘടിപ്പിക്ക	-9.63324
▁ഗുജറാത്ത്	-9.6333
▁നിൽക്ക	-9.63331
▁ഇത്തരത്തില്‍	-9.63429
▁മുട്ട	-9.63441
രുടെ	-9.63553
കു	-9.63647
▁ആന്‍ഡ്	-9.6368
▁പ്രചരണ	-9.63729
▁സൃഷ്ടിക്ക	-9.63758
▁എന്‍സിപി	-9.63814
▁സമര്‍പ്പിക്ക	-9.63814
▁ഉടമ	-9.63839
▁ഇര	-9.63866
▁രാജീവ്	-9.63875
▁കലാപ	-9.63923
▁ഗതാഗത	-9.63938
▁കുട	-9.63947
▁കഴിച്ച	-9.64064
▁ഒരുമിച്ച്	-9.6408
▁വീഴ്ച	-9.64087
▁സ്വര്‍ണ	-9.64114
ത്താ	-9.64127
▁ഭൂരിപക്ഷ	-9.64161
▁ഉണ്ടാക്കിയ	-9.64187
▁പരിഗണിച്ച	-9.64212
23	-9.64213
ൻസ്	-9.6423
▁ഗൂഢാലോചന	-9.64305
▁നമ്മൾ	-9.64306
▁എന്തായാലും	-9.64308
▁ഇസ്രായേല	-9.64347
വുമാണ്	-9.64361
▁സാക്ഷി	-9.64445
▁തേട	-9.64462
▁ഹൗസ	-9.64516
ുമായും	-9.64536
▁പൂര്‍ത്തിയാക്ക	-9.64578
▁രോഹിത്	-9.64584
ിലായിരുന്നു	-9.64604
മാകും	-9.64612
▁സംശയം	-9.64642
യുളള	-9.64656
▁നടന്‍	-9.6467
▁ഇഷ്ട	-9.64672
ുകളെ	-9.64707
ിക്കാൻ	-9.64741
▁സ്ഥാന	-9.6476
ഖ്	-9.64781
ഡോ	-9.64837
▁അതിര്‍ത്തി	-9.6485
▁കോൺഗ്രസിന്	-9.6487
▁അതിനാല്‍	-9.64872
▁ജയ്	-9.64889
▁ദിവസ	-9.649
▁വിദേശത്ത്	-9.64901
▁42	-9.64978
▁മത്സരിക്ക	-9.6502
▁സ്നേഹ	-9.65176
ജ്ജ	-9.65189
▁ടിവി	-9.65236
▁തൃണമൂല്‍	-9.65281
▁പുരോഗതി	-9.65299
▁ഷെ	-9.65321
▁വ്യക്തമല്ല	-9.65385
▁രോഗികളുടെ	-9.654
▁ഹി	-9.6541
▁കഴിയും	-9.65499
▁ദൃശ്യങ്ങള്‍	-9.6555
ാമെന്നും	-9.65569
▁സിപിഎമ്മ	-9.65579
ാവും	-9.65598
▁ആറു	-9.65613
കരിച്ച	-9.65644
▁രേഖ	-9.65666
▁സജി	-9.65769
ഷ്യ	-9.65802
സ്ഥാന	-9.65803
▁ജീവിതത്തില്‍	-9.65811
▁പുറത്താക്ക	-9.65834
▁ഇയാളെ	-9.65844
▁ഫേസ്ബുക്കില്‍	-9.65902
▁കൂള്‍	-9.65939
▁സൂചിപ്പിക്കുന്ന	-9.65943
▁അടിച്ച	-9.66
▁സ്ത്രീകള്‍	-9.66008
▁റാ	-9.66139
▁ലോക്സഭ	-9.66216
▁നേഹ	-9.66237
▁അടിസ്ഥാനത്തില്‍	-9.66271
▁സീറ്റുകൾ	-9.66435
",	-9.6644
▁കരാര്‍	-9.66575
15	-9.66648
▁സംഘര്‍ഷ	-9.66661
▁പ്രദേശ	-9.66681
▁ഫി	-9.66714
മായിരിക്കും	-9.66787
ികൾ	-9.66842
▁ഘട്ടത്തില്‍	-9.66874
▁നിങ്ങള്‍ക്ക്	-9.66914
വന	-9.66955
▁ശ്രമ	-9.66971
▁അധ്യക്ഷൻ	-9.67114
▁പിതാവ്	-9.67115
▁വിലയിരുത്തല്‍	-9.67123
രാജ്	-9.67155
▁രംഗത്തെത്തി	-9.67161
▁പിടിച്ചു	-9.67176
▁ചാനല	-9.67261
▁യുഡിഎഫിന്	-9.67266
ിനേയും	-9.67276
▁ജൂൺ	-9.67318
▁ഗുണം	-9.67351
▁ഇറങ്ങ	-9.67365
ുകളിലും	-9.67376
▁പരാജയപ്പെട്ട	-9.6739
▁വര്‍ഷത്തെ	-9.67403
ക്കൂട്ട	-9.67502
▁ഇതര	-9.67552
▁ഡെപ്യൂട്ടി	-9.67564
▁കേന്ദ്രമന്ത്രി	-9.67571
▁സ്വർണ	-9.67579
▁വിമാനം	-9.67614
▁പ്രവർത്തനങ്ങൾ	-9.6772
യെങ്കിലും	-9.67777
ിനെതിരായ	-9.6784
ക്കഴിഞ്ഞ	-9.67846
▁മധ്യ	-9.67852
കാര്യ	-9.6788
▁തുറന്നു	-9.67979
▁പരാതിയില്‍	-9.68093
ലിയ	-9.68101
▁90	-9.68137
▁മുഖ്യ	-9.6815
▁ഏറ്റെടുത്ത	-9.68188
▁യുവാവ്	-9.68256
ിയിരുന്നു	-9.68354
▁അപ്പ	-9.68387
ക്ട	-9.68465
▁എന്നിവരുടെ	-9.68508
▁ആറ	-9.68516
ാണെന്ന	-9.68517
▁ജയിക്ക	-9.68531
ക്കിടെ	-9.68545
ാപ	-9.68553
19	-9.68573
നിയ	-9.68662
ാണെങ്കില്‍	-9.68699
▁?	-9.68779
ുമ്പോഴും	-9.68815
▁അയക്ക	-9.68882
ാതിരുന്ന	-9.69001
▁എടുത്ത്	-9.69062
▁അല്ലാതെ	-9.69234
രുതെന്ന്	-9.69241
▁ബജറ്റ്	-9.69245
▁സാധിക്കില്ല	-9.69263
▁എന്നിങ്ങനെ	-9.69355
▁38	-9.69391
വയ	-9.69395
▁കളിച്ച	-9.69405
▁നേര	-9.69431
▁ഏജന്‍സി	-9.69443
ച്ചി	-9.69463
▁മാർച്ച്	-9.69589
▁ഏര്‍പ്പെടുത്തിയ	-9.69595
▁അസ	-9.69599
▁ന്യൂഡല്‍ഹി	-9.69623
▁ചൂണ്ടിക്കാട്ട	-9.69638
▁എത്തിക്ക	-9.69701
▁ഓണ്‍ലൈന്‍	-9.69746
▁തോന്ന	-9.69812
▁കത്ത്	-9.69896
▁തുടങ്ങിയത്	-9.69913
പുര	-9.69948
▁രഹസ്യ	-9.69981
▁വെക്ക	-9.70028
▁കിലോ	-9.70031
യാവ	-9.70048
ങ്ങളിലും	-9.70076
▁പോര	-9.70119
▁അറിയില്ല	-9.70157
▁അജിത്	-9.7016
▁ധരിക്ക	-9.70174
▁സുരേന്ദ്രൻ	-9.70238
▁അനില്‍	-9.70339
▁നേതാവും	-9.70367
▁ഇസ്രായേല്‍	-9.7038
▁നിര്‍ദേശിച്ച	-9.70391
▁അതിഥി	-9.70413
▁ജയിലില്‍	-9.70503
▁ഇടപെട്ട	-9.70531
▁സൈന്യം	-9.70547
ിലേക്കുള്ള	-9.7057
പൂർ	-9.70631
▁വൈകിട്ട	-9.70632
▁ഭയ	-9.70696
ില്ലാതെ	-9.7071
▁കരി	-9.70746
പ്പോഴും	-9.70883
▁പ്രണയ	-9.7091
▁സൗജന്യ	-9.70913
▁എന്നിവയാണ്	-9.70935
▁തിരിച്ചറിഞ്ഞ	-9.70937
▁പ്രവർത്തന	-9.70968
▁പലപ്പോഴും	-9.70977
▁കോണ്‍ഗ്രസിനെ	-9.71057
െതിരെ	-9.71127
▁താമസിക്കുന്ന	-9.71186
▁രാഷ്ട്രപതി	-9.712
▁ആസ്തി	-9.71216
▁2014	-9.71217
▁തര്‍ക്ക	-9.7123
▁തൊഴിലാളി	-9.71238
▁നിർദ്ദേശം	-9.71256
▁തീരുമാനിച്ചത്	-9.71293
▁മൊബൈല്‍	-9.71295
▁തെളിയിക്ക	-9.71303
ുണ്ടോ	-9.71329
25	-9.7134
▁അപകടം	-9.71349
▁സംഘടിപ്പിച്ച	-9.71364
▁രൂക്ഷമായ	-9.71368
▁ഓക്	-9.71413
മാരും	-9.71457
ബര്‍	-9.71488
ികള്‍	-9.71598
മെന്നും	-9.71627
ല്യ	-9.71726
▁മനസ്സിലാക്ക	-9.71751
▁വാദ	-9.71796
▁ആന്റ്	-9.71812
▁പ്രതിദിന	-9.71829
എൽ	-9.71873
താണെന്നും	-9.71962
യോഗ	-9.71979
▁ജമ്മു	-9.71994
▁നിയന്ത്രണങ്ങള്‍	-9.71994
ുന്നതെന്നും	-9.72
▁3,	-9.7203
ംഗ്	-9.72036
▁വിപണി	-9.72046
▁നമ്പര്‍	-9.72089
▁ക്ഷേമ	-9.72096
റേ	-9.72119
വരില്‍	-9.72144
▁സസ്	-9.72166
▁ദുബായ്	-9.72258
മന്ത്രി	-9.72266
േഷ	-9.72268
▁39	-9.72279
തിനു	-9.72305
▁ഉപയോഗിക്കുന്ന	-9.72314
ജ്ഞ	-9.72316
▁എത്തുന്നത്	-9.72385
▁ഇറങ്ങിയ	-9.72411
▁/	-9.7245
വിള	-9.72523
ാലി	-9.72523
▁ജീവിക്ക	-9.7257
▁നാട്ടില്‍	-9.72604
▁സ്ഥാനത്ത	-9.7261
▁അവതരിപ്പിക്ക	-9.72794
ുണ്ടായിരുന്ന	-9.72801
▁അതായത്	-9.72811
▁വര്‍ധിപ്പിക്ക	-9.72814
▁എടുത്തു	-9.72871
▁പ്രതികള്‍	-9.72873
▁യോഗത്തിൽ	-9.72914
▁മുരളീധരന്‍	-9.73042
▁പാടില്ല	-9.73059
▁തൃശൂർ	-9.73063
▁ആദ്മി	-9.73063
▁അല്ലെങ്കിൽ	-9.73072
▁കോണ്‍ഗ്രസും	-9.73079
ുടെയും	-9.73118
▁നങ്ങള	-9.73132
▁ഹൃദയ	-9.73164
▁ആഘോഷ	-9.7317
▁പരസ്യമായി	-9.73301
▁ഭക്ഷ്യ	-9.73332
▁ഇറക്കുമതി	-9.73332
▁പൂര്‍ണമായും	-9.73336
▁യാദവ്	-9.7334
▁ദു	-9.73407
▁ഒഴിവാക്ക	-9.73465
i	-9.73481
▁നാം	-9.73494
▁നിങ്ങളെ	-9.73496
ർത്ത	-9.73513
▁വ്യത്യസ്ത	-9.73519
▁ശമ്പള	-9.73587
▁അംബാനി	-9.73639
ന്‍ഡ	-9.73639
▁തരംഗ	-9.73643
▁സംഭവിക്ക	-9.73684
▁പഠിക്ക	-9.7384
▁പുരുഷന്‍	-9.73859
▁വൻ	-9.73871
കട	-9.73887
▁സ്ഥാനത്തേക്ക്	-9.73898
▁വിശദമായ	-9.73903
▁വീഴ	-9.73939
▁നിയന്ത്രണ	-9.73956
▁ചിലർ	-9.73993
▁സഹോദരി	-9.7403
▁ക്കു	-9.74032
▁ചെയര്‍മാന്‍	-9.7407
▁പ്രധാനപ്പെട്ട	-9.74109
▁കള	-9.74132
വല	-9.74175
▁ഗോവ	-9.74222
▁പുഴ	-9.74258
▁പുറത്തിറക്കിയ	-9.7429
ക്കാരെ	-9.74351
ിലോ	-9.74366
▁തയ്യാറാക്ക	-9.74396
▁ശര്‍മ	-9.74416
▁41	-9.74474
▁പ്രവേശനം	-9.74483
▁നേതൃത്വത്തിൽ	-9.74556
▁കുറയ്ക്ക	-9.74661
▁ഓള	-9.74709
▁എൽഡിഎഫ്	-9.7473
▁സമീപം	-9.74731
വെച്ച	-9.74766
നട	-9.74794
▁അതിന	-9.7486
ാസ്	-9.74891
▁നോക്കിയ	-9.74908
▁ആര്യ	-9.7491
▁കൊണ്ടുപോക	-9.74938
▁വിഷ്ണു	-9.74958
ാമെന്ന	-9.74959
▁വായ്പ	-9.74965
▁ഡയറക്ടര്‍	-9.74965
▁ഇതെല്ലാം	-9.7503
▁കെട്ടി	-9.75071
▁കുറച്ചു	-9.75105
▁5,	-9.75118
▁വീട്ടിലേക്ക്	-9.75155
▁ഉത്തരവ	-9.75189
▁സ്പ	-9.75231
▁വരെയാണ്	-9.75234
▁എപ്പോഴും	-9.7525
▁പ്രവാസി	-9.75257
▁തൃക്കാക്കര	-9.75316
80	-9.75358
▁എയർ	-9.75362
1,	-9.75367
▁വിലയിരുത്ത	-9.75373
ാത്തത്	-9.75377
ുകൾക്ക്	-9.75492
▁റെയില്‍വേ	-9.75533
മാവ	-9.75568
▁തീരുമാനിച്ചു	-9.75568
▁ലക്ഷ്യ	-9.75574
▁വൈറസ	-9.75592
▁കാനഡ	-9.756
സിന്	-9.7569
▁ചേർന്ന്	-9.75749
▁നേരിടേണ്ടി	-9.7575
▁തുടരുന്ന	-9.75756
▁വീതവും	-9.75792
യായിരിക്കും	-9.75801
▁കുറവ്	-9.75869
12	-9.75875
യാണോ	-9.75885
▁തകര്‍ന്ന	-9.75889
ിരിക്കെ	-9.75933
▁പ്രതിയെ	-9.76003
▁ആണെന്ന്	-9.76021
▁ഇക്കുറി	-9.76069
▁ചെയ്യുകയും	-9.76086
ന്നു	-9.7618
ത്തേ	-9.76263
▁സതീശന്‍	-9.76347
▁ഐക്യ	-9.76384
ുമൊക്കെ	-9.76468
▁ഗുരുതരമായ	-9.76603
▁ഇവരില്‍	-9.7662
▁ലഹരി	-9.76638
▁കൂടിയായ	-9.76651
▁ഓണ	-9.7675
▁ക്ഷ	-9.7679
▁സ്വാധീനം	-9.76797
െയാണ്	-9.76894
▁അംഗീകരിച്ച	-9.76954
▁ആരംഭിച്ചത്	-9.76957
ിനി	-9.76976
▁ചെറു	-9.76983
▁എന്ത	-9.77011
▁ശ്രദ്ധിക്ക	-9.77052
പ്പു	-9.77067
▁നിമിഷ	-9.7708
▁പാർട്ടിയുടെ	-9.77087
▁ബിജെപിയും	-9.77202
ക്കൽ	-9.77202
ിപ്പിച്ച	-9.77286
▁നന്നായി	-9.77295
▁ഗ്ര	-9.77339
▁യുകെ	-9.77346
▁മണ്ഡലത്തിലെ	-9.77407
▁കൂള	-9.77414
▁താന	-9.77505
പ്പെടുന്നത്	-9.77508
▁വയസ്സുള്ള	-9.77567
പോ	-9.77664
▁ഭരണഘടന	-9.77673
▁കാര്യമായ	-9.77712
▁പെട്ട	-9.7772
▁ജനകീയ	-9.77747
▁ഒര	-9.77784
▁കൊവിഡ	-9.77829
60	-9.77855
▁പരിധി	-9.77918
▁ലീഗ	-9.77972
▁കര്‍ഷകര്‍	-9.77981
ഷ്ട	-9.77989
▁തെറ്റായ	-9.78004
▁സംഭാവന	-9.78029
ഴി	-9.78078
▁നിങ്ങൾക്ക്	-9.781
▁സര്‍ക്കാരിനെ	-9.78125
കുമാർ	-9.78136
▁ശതമാനവും	-9.78149
▁മാപ്പ്	-9.78166
▁ഭൂ	-9.78197
▁എന്തിനാണ്	-9.78198
▁പണ	-9.78219
▁ഇല്ലാതെ	-9.78244
ലീ	-9.78281
▁ശേഷി	-9.78303
▁പരിഗണന	-9.78369
ിന്‍	-9.78386
യ്ക്കു	-9.78457
▁ശാസ്ത്ര	-9.78483
വിട	-9.78518
▁പാറ	-9.78558
▁സർക്കാര	-9.78601
▁തുടരും	-9.78636
▁പോലീസിന്	-9.78672
▁പുറത്തുവിട്ട	-9.78817
▁പോരാട്ടം	-9.78856
▁ഇടതുമുന്നണി	-9.78882
▁റിപ്പോർട്ടുകൾ	-9.78932
▁രാജ്യങ്ങള്‍	-9.78967
ായിട്ടാണ്	-9.7898
▁200	-9.78998
▁നവ	-9.79037
▁ടീമ	-9.79067
▁നൽകാൻ	-9.79112
▁വിഭാഗത്തില്‍	-9.79121
▁സഹിതം	-9.79168
▁ഡിസിസി	-9.79196
▁മീ	-9.7927
മാറ്റ	-9.79278
▁പരിശോധനയ്ക്ക	-9.79373
▁ഐടി	-9.79377
▁എന്നിവരും	-9.79419
▁ലൈംഗിക	-9.79454
▁അപ്പോള്‍	-9.79464
▁നും	-9.79465
ാണി	-9.7948
▁വ്യാപാര	-9.79494
-1	-9.79619
എൻ	-9.7969
▁വേഗത്തില	-9.79713
▁വാര്‍ത്തകള്‍	-9.79721
▁പശ്ചിമ	-9.79741
ീയ	-9.79757
▁നാട്ടുകാര്‍	-9.79771
യെല്ലാം	-9.79782
ബോ	-9.79809
▁പുരസ്	-9.79826
▁തെലങ്കാന	-9.7983
കൊണ്ട്	-9.79843
കളായ	-9.79928
▁കേരളത്തിന്	-9.79937
തായാണ്	-9.79942
▁തെളിവ	-9.79954
▁നു	-9.79969
▁തട്ടിപ്പ്	-9.79994
▁യുഡിഎഫ	-9.80016
▁വിഷയ	-9.80117
▁സമീപിച്ച	-9.8014
▁കുട്ടികളെ	-9.80143
വാസ	-9.8022
▁പോകാന്‍	-9.80224
▁പോവ	-9.80287
▁സ്ഥാപന	-9.80325
▁പ്രിയ	-9.80338
▁മഹ	-9.80352
▁സംവിധാന	-9.80409
▁ആശ്വാസ	-9.80575
▁സൗകര്യം	-9.80595
l	-9.80631
▁പ്രവേശന	-9.80653
▁നിൽക്കുന്ന	-9.80737
വില്‍	-9.80801
▁നേതാവ	-9.80843
▁ഗു	-9.80858
▁സംയുക്ത	-9.809
▁അതീവ	-9.80905
▁ആയിരിക്കും	-9.80923
u	-9.80933
▁ഇല്ലാതാക്ക	-9.81052
▁സിനേഷന്‍	-9.81061
▁എമ്മ	-9.81067
▁യഥാര്‍ത്ഥ	-9.8119
▁തകര്‍ത്ത	-9.81196
▁പോലീസിന്റെ	-9.81198
▁ക്യാമ്പ	-9.81299
▁47	-9.81312
▁പഠനം	-9.81315
24	-9.81337
▁തുടങ്ങിയവ	-9.81354
സര്‍	-9.81461
▁പ്രളയ	-9.81484
ൊപ്പം	-9.81618
▁ചേ	-9.81626
ഹാ	-9.81632
▁മനുഷ്യ	-9.81638
▁ആവ	-9.81641
▁കോര്‍പ്പറേഷന്‍	-9.81697
t	-9.81705
▁പരാജയ	-9.8171
▁ഫെ	-9.81826
▁നേ	-9.81831
▁പാട്ട	-9.81841
▁ശ്രമിക്കുന്നത്	-9.81911
▁പമ്പ	-9.81912
▁രാജ്യങ്ങളില്‍	-9.81913
▁കുട്ടികള്‍	-9.81976
▁ഇളവ്	-9.82062
▁സമാധാന	-9.82071
▁വോട്ടെടുപ്പ്	-9.82072
ോട്ട	-9.82101
വിട്ട	-9.82134
▁ബോ	-9.82148
ന്‍സ	-9.82207
▁നിര്‍ദ്ദേശം	-9.82218
▁പ്രകടിപ്പിച്ച	-9.82244
▁കിലോമീറ്റര്‍	-9.8245
▁ശരിക്കും	-9.82479
▁ലഭിക്കുക	-9.82509
▁മറ്റും	-9.82518
▁ദുരിതാശ്വാസ	-9.82661
▁നേട്ടങ്ങള്‍	-9.82714
▁ആൻഡ്	-9.82737
▁കായിക	-9.82802
▁ഡൗണ്‍	-9.82822
▁ഖാന്‍	-9.82846
▁നിരക്ക	-9.82874
▁വിദ്യാര്‍ത്ഥി	-9.82903
▁സേവനം	-9.82919
ഠ	-9.82942
▁എന്തുകൊണ്ട്	-9.8295
▁സീനിയര്‍	-9.82958
▁സുപ്രധാന	-9.82963
▁ഓഗസ്റ്റ്	-9.82963
▁ങ്ങ	-9.83026
▁വോട്ടുകൾ	-9.83046
▁കരുത്ത	-9.83061
▁അതൃപ്തി	-9.83103
▁പറ്റിയ	-9.83168
▁അവതരിപ്പിച്ച	-9.83194
▁നെഗറ്റീവ്	-9.83247
▁പരിഹരിക്ക	-9.83252
▁തമ്മിൽ	-9.83256
▁ശരിയായ	-9.83281
▁വിമർശനം	-9.83407
▁രാഹുലിന്റെ	-9.8341
▁സ്വദേശികളായ	-9.83441
▁കുറ്റം	-9.83459
▁ബഹുമാന	-9.83482
▁അരി	-9.83499
▁പിടിച്ച്	-9.83551
▁ഡിസംബര്‍	-9.83554
▁സത്യപ്രതിജ്ഞ	-9.83554
▁നായ	-9.83603
▁കോൺഗ്രസിന്റെ	-9.83633
▁ചർച്ചകൾ	-9.83679
▁ചു	-9.83685
▁ഓഫീസ	-9.83692
▁അശോക്	-9.837
▁അന്ന	-9.83721
െങ്കില്‍	-9.83727
▁വൈകീട്ട്	-9.8373
▁പഠിച്ച	-9.8378
▁എന്നിങ്ങനെയാണ്	-9.83782
▁വിദ്യാർത്ഥികൾ	-9.83782
▁വിഡി	-9.83801
▁സമീപ	-9.83834
▁തയ്യാറാക്കിയ	-9.83838
▁പാസ്	-9.83844
ോടൊപ്പം	-9.83854
ദാ	-9.83879
മാക്കിയ	-9.8397
▁ആരംഭിച്ചു	-9.83976
▁ആഗസ്റ്റ്	-9.84007
▁ഭരണകൂടം	-9.84059
ഗാ	-9.84098
സ്സ	-9.84137
▁ഒമ്പത്	-9.84156
▁ഹോട്ട്	-9.84192
രോ	-9.84239
ാഴ്ച	-9.84247
▁നിയമന	-9.84252
p	-9.84347
▁മലയാളം	-9.84371
▁എത്തിച്ച	-9.84421
▁ആയിരുന്ന	-9.84425
▁ഫണ്ട്	-9.84428
▁മഞ്ഞ	-9.8451
▁ബന്ധപ്പെട	-9.84552
▁ട്രെയിന	-9.84553
പാല	-9.84564
▁മരുന്ന്	-9.84577
ാക്കിയ	-9.84653
വള	-9.84681
▁തേടിയ	-9.84697
6,	-9.84707
ീവ്	-9.84722
▁കേള്‍ക്ക	-9.84727
▁ക്കാ	-9.84743
▁പ്രചരിപ്പിക്ക	-9.84757
▁നിലവിലുള്ള	-9.84757
▁അടച്ച	-9.84773
▁എന്നിവരെ	-9.84781
▁ആവശ്യപ്പെട	-9.84787
▁പ്രശാന്ത്	-9.84823
▁ആളുകള	-9.8485
നില്‍	-9.84865
ാധ	-9.84876
▁ലോകത്തെ	-9.84903
▁വിശ്വസിക്ക	-9.84921
ിക്	-9.84991
▁റിയാസ്	-9.84992
ുകയെന്ന	-9.85011
▁46	-9.85038
▁സമർപ്പിച്ച	-9.8506
▁ഡോളര്‍	-9.8506
▁പോളിംഗ്	-9.85078
▁തീവ്ര	-9.85088
▁കീ	-9.85123
▁കാണാൻ	-9.8514
▁അട	-9.85144
ില്ലേ	-9.85157
▁മുകേഷ്	-9.85201
പ്പുറം	-9.85212
▁കെകെ	-9.85268
പ്പാട	-9.85272
▁പരിശീലനം	-9.85324
▁ഇന്ധന	-9.85356
▁ജോർജ്	-9.85376
▁പിന്നില	-9.85395
▁സംരക്ഷണ	-9.85398
ഷൻ	-9.85413
▁ബു	-9.85504
90	-9.85539
▁ഉറച്ച	-9.85561
പ്പെടുത്തിയ	-9.85562
▁കാണാതായ	-9.85577
▁കാലാവസ്ഥാ	-9.85647
▁കൊണ്ടുവര	-9.85661
▁കോലി	-9.85675
പര	-9.85682
▁മുന്‍പ	-9.85704
▁താലൂക്ക്	-9.8571
▁തിരുത്ത	-9.85742
ത്തോളം	-9.85746
▁രവി	-9.85883
▁ശബ്ദ	-9.85912
▁ഗെയിം	-9.85975
▁പുറപ്പെടുവിച്ച	-9.85975
▁എന്നിവര	-9.85985
▁സീറ്റുകളില്‍	-9.85994
▁മന്ത്രിസഭ	-9.86019
േക്കാം	-9.86089
▁65	-9.86106
▁പീ	-9.86182
c	-9.86252
▁വിള	-9.86265
▁കർശന	-9.86282
▁അംഗീകാരം	-9.86283
▁നാലാം	-9.86352
▁സ്ഥലത്ത	-9.86357
▁കോൺഗ്രസ	-9.86366
▁പരിഷ്	-9.86371
ാനാവില്ല	-9.86382
▁സംസ്ഥാനം	-9.86411
ിയുടെ	-9.86416
▁പ്രശ്ന	-9.8642
രുതെന്നും	-9.86421
▁കോടതിയുടെ	-9.86424
▁കണക്കുകള്‍	-9.86511
▁ഡോളറ	-9.86514
യിലായിരുന്നു	-9.86529
▁മന	-9.86578
▁പ്രവേശിക്ക	-9.86587
18	-9.866
▁ഒറ്റപ്പെട്ട	-9.86602
▁നിര്‍ത്ത	-9.8666
തിനാലാണ്	-9.86693
▁നിശ്ചയിച്ച	-9.86698
▁യൂ	-9.86765
▁നിന്നെത്തിയ	-9.86774
▁വക്താവ്	-9.86785
▁പറയാൻ	-9.86819
▁പ്രീ	-9.86839
▁ആവശ്യമാണ്	-9.86845
▁വീടുകളില്‍	-9.86866
▁ശൈലജ	-9.86898
▁ചെയ്യണം	-9.86909
▁നടത്താൻ	-9.86943
▁52	-9.86991
▁നിർദേശം	-9.86995
▁പ്രധാനമായ	-9.87114
▁മുകളില്‍	-9.87124
ക്കിടയില്‍	-9.87167
▁മണ	-9.87211
▁ആരാണ്	-9.87239
ുന്നതിന്റെ	-9.87261
ിലെത്തിയ	-9.87354
▁അവസാനിച്ച	-9.87361
റിഞ്ഞ	-9.8737
സും	-9.87403
▁കുട്ടിയെ	-9.87446
▁പ്രദേശത്ത്	-9.87467
▁ചന്ദ്ര	-9.87472
▁പോസിറ്റീവ്	-9.87474
ിലേക്കും	-9.87486
▁51	-9.87489
▁കമ്മീഷൻ	-9.87518
▁സൈബര്‍	-9.87523
▁ഭവന	-9.87523
▁എഴുതിയ	-9.8753
യാകും	-9.87531
▁ആരോഗ്യമന്ത്രി	-9.87574
ത്തെക്കുറിച്ച്	-9.87609
05	-9.87628
▁കുറഞ്ഞത്	-9.87664
▁നല്‍കണമെന്ന	-9.87672
d	-9.87707
▁സുഹൃത്തുക്കള	-9.87714
▁ലോകം	-9.87741
െന്നായിരുന്നു	-9.87753
▁പ്രത്യേകത	-9.87815
▁ഉണ്ടായിരുന്നത്	-9.87844
▁49	-9.8787
▁പികെ	-9.87891
▁ബോധ	-9.87947
തുമായ	-9.87989
▁അതുകൊണ്ടാണ്	-9.87994
▁എത്തിയിരുന്നു	-9.88025
▁കോൺ	-9.88037
▁യാത്രക്കാര	-9.88039
▁ഷി	-9.88149
▁കേന്ദ്രസർക്കാർ	-9.8816
▁കഴിഞ്ഞ്	-9.8817
▁ഇതൊക്കെ	-9.88201
▁മുമ്പ	-9.88215
▁എല്ലാവര്‍ക്കും	-9.88222
▁ഇറാന്‍	-9.88238
▁വടകര	-9.88256
▁ഹൈ	-9.88312
പ്പിച്ച	-9.88313
▁തട്ടിപ്പ	-9.88328
▁കഴിയാത്ത	-9.88353
▁ഒരാളെ	-9.88438
▁സംഗീത	-9.88462
▁സ്വര്‍ണവില	-9.88465
45	-9.88472
▁രൂപം	-9.88483
▁ഇത്തവണയും	-9.88518
▁കിടക്ക	-9.88563
▁വർഷത്തെ	-9.88601
▁മേല്‍	-9.88611
ലേ	-9.8865
▁പാര്‍ലമെന്റ	-9.88706
▁ന്നു	-9.8874
▁ഇട്ട	-9.88747
പു	-9.88765
▁കാർ	-9.88765
▁ഇതിനോടകം	-9.88772
▁നടപടിയെടുക്ക	-9.88776
▁പിന്തുണച്ച	-9.88789
മില്ലാതെ	-9.88792
▁പ്രവർത്തിച്ച	-9.88799
▁കാറ്റ	-9.88801
ത്തിലൂടെയാണ്	-9.88962
▁ന്യൂ	-9.89021
▁കഴിയുന്നത്	-9.89052
▁ബാനര്‍ജി	-9.89085
▁തിരിച്ച	-9.89095
▁ഇറങ്ങി	-9.89101
▁ഭീതി	-9.89109
▁ഇതുമായി	-9.89154
▁നിര്‍മാണ	-9.89181
▁ഉറവിടം	-9.89181
▁ഫണ്ട	-9.89222
▁കാര്യത്തിൽ	-9.89244
▁മത്സരിക്കുന്ന	-9.89271
▁തമിഴ്നാട്	-9.89294
ടുപ്പ	-9.89366
35	-9.89367
▁4,	-9.89372
രും	-9.89391
ലിന്റെ	-9.89472
▁ചോദ്യത്തിന്	-9.89477
▁കുറയ	-9.89483
▁സഹായിക്ക	-9.89515
▁ലീഡ്	-9.89532
▁500	-9.89565
▁ദിവസമാണ്	-9.89567
▁ജില്ലകളിലും	-9.89598
▁ഭരിക്കുന്ന	-9.89619
▁സുരക്ഷിത	-9.89628
▁ശര	-9.89653
ീഷ	-9.89666
▁നല്‍കുക	-9.89701
▁ആളാണ്	-9.8971
▁പനി	-9.89781
ഘ	-9.89799
▁പാലിക്ക	-9.89807
▁ഉണ്ടെന്ന്	-9.8984
▁ഹോം	-9.89855
▁നമ്പറ	-9.89858
▁ശക്തിപ്പെടുത്ത	-9.89875
ാട്ട	-9.89896
▁ഉണ്ടാവും	-9.8992
▁വയ്ക്ക	-9.90003
ുണ്ടെങ്കില്‍	-9.90116
▁കിടക്കുന്ന	-9.90133
▁നേതാവാണ്	-9.90152
▁പ്രശ്നം	-9.90164
▁അംഗങ്ങള്‍	-9.90184
▁വന്നിട്ടുണ്ട്	-9.90214
▁വെളിപ്പെടുത്തല	-9.90263
▁രാജേഷ്	-9.90296
▁തള്ള	-9.90298
▁തോറ്റ	-9.90302
▁മനസ്സ	-9.90324
▁മുൻപ	-9.90336
▁മൊ	-9.90341
▁സത്യം	-9.90379
നാഥ്	-9.90388
▁ഒഴിവാക്കിയ	-9.90417
▁മനസിലാക്ക	-9.9044
▁റെ	-9.90475
ാവസ്ഥ	-9.9048
മെന്റ	-9.90494
ദാന	-9.90508
▁സിവില്‍	-9.90532
▁പ്രചരണം	-9.90553
▁ചടങ്ങില്‍	-9.90561
ാവുന്നതാണ്	-9.90584
▁ശേഖരിച്ച	-9.90613
▁ചോദ്യ	-9.90649
▁ഉമ്മ	-9.90671
ൌ	-9.90676
ാനുളള	-9.90704
▁അപേക്ഷിക്കാം	-9.90744
▁ഫോര്‍	-9.9076
ിട്ടില്ലെന്ന്	-9.90814
▁നിലനിര്‍ത്ത	-9.90839
▁കുറിച്ചുള്ള	-9.90855
▁പുറത്ത	-9.90865
▁കരാറ	-9.90893
▁ചികിത്സയില്‍	-9.90935
▁കുറിച്ചും	-9.90943
▁ഉദ്യോഗാര്‍ത്ഥി	-9.90999
▁മണിക്കൂറിനിടെ	-9.91007
▁വെട്ടി	-9.91033
▁പഞ്ചായത്ത	-9.91049
തീ	-9.91057
▁വിനോദ	-9.91066
▁പൈസ	-9.9108
▁മുഖം	-9.91097
കര്‍	-9.91151
ീർ	-9.91175
▁ബോസ	-9.91195
▁സന്തോഷം	-9.91205
▁കുട്ടികളുടെ	-9.91206
നീ	-9.91224
▁കുറച്ച	-9.91232
▁ലോകത്ത്	-9.91322
▁സമ്മേളനം	-9.91343
ന്തി	-9.91344
താര	-9.91363
▁നാല	-9.91372
▁ചെലവ്	-9.91426
മേഖല	-9.91431
കർ	-9.91443
ണ്ഡ	-9.91443
▁എഴുതി	-9.91458
▁പ്രായ	-9.91479
▁അപേക്ഷിച്ച	-9.9148
▁ഓഫീസില്‍	-9.91482
ാള	-9.91494
▁ലക്ഷ്മി	-9.91508
▁സർവീസ്	-9.91516
▁ദില്ലിയില്‍	-9.91533
▁നഴ്	-9.9154
▁ഇന്ത്യാ	-9.9157
▁തടഞ്ഞ	-9.91578
▁വര്‍ധിച്ച	-9.9158
▁കോര്‍	-9.91595
ിയിട്ടുണ്ട്	-9.91601
▁ഓഹരി	-9.91604
▁സുഹൃത്ത	-9.9161
▁മിക്ക	-9.91626
▁സെന്ററ	-9.91637
▁തോല്‍വി	-9.91645
▁നിയോഗിച്ച	-9.91646
▁ബാഗ	-9.91648
▁ധരിച്ച	-9.91725
യാത്ര	-9.91777
▁കൂട്ടി	-9.91811
▁സന്ദേശം	-9.91813
▁ആര്	-9.91822
▁ഉറപ്പ	-9.91822
▁ചരിത്രം	-9.91836
▁അടിസ്ഥാനത്തിൽ	-9.91841
ീഷ്	-9.91899
▁ഇത്തരത്തിൽ	-9.9197
▁രജിസ്റ്റർ	-9.91972
പതി	-9.91996
▁ചുമത്തിയ	-9.92064
▁മെട്രോ	-9.92083
േറ്റ്	-9.9211
േക്ക	-9.92147
വോ	-9.92148
▁കാര്യങ്ങളും	-9.92195
▁ക്കെതിരെ	-9.92274
▁പിയുടെ	-9.92293
വര്‍ക്കും	-9.92299
▁എത്രയും	-9.923
▁ഉറപ്പാണ്	-9.9236
▁പ്രതിനിധി	-9.92391
▁ബെംഗളൂരു	-9.92441
▁നഷ്ട	-9.92451
▁രാജസ്ഥാന്‍	-9.92506
65	-9.92508
▁രോഗബാധ	-9.92611
▁പ്രശ്നങ്ങൾ	-9.92612
▁ഖത്തര്‍	-9.92623
▁പ്രവേശിപ്പിച്ച	-9.92625
▁പ്രായം	-9.9264
▁ഉദ്യോഗസ്ഥരെ	-9.92641
▁ജീവന്‍	-9.92807
▁റിപ്പോർട്ട	-9.9284
▁സര്‍	-9.92841
▁പഞ്ചായത്തിലെ	-9.92855
▁ജനസംഖ്യ	-9.92894
യെന്നാണ്	-9.92906
▁എങ്ങനെയാണ്	-9.92934
▁ക്രൈംബ്രാഞ്ച്	-9.9295
ധികം	-9.9298
▁പ്രിയപ്പെട്ട	-9.93019
▁ഉച്ചയ്ക്ക്	-9.93024
റിൽ	-9.93026
പെ	-9.93059
▁ചോദിക്കുന്നു	-9.93073
▁കഴിയില്ല	-9.93106
ന്ധ	-9.93108
ിനിടെ	-9.93176
ടിച്ച	-9.93214
ോട്ട്	-9.93231
▁പ്രമേയം	-9.93242
▁മസ്	-9.93248
▁മിശ്ര	-9.93283
▁പ്രത്യേകിച്ച്	-9.93393
ുന്നതെന്ന്	-9.93432
▁ബംഗാള്‍	-9.93511
▁കുറവാണ്	-9.9352
▁കൊല	-9.93548
▁സാധിക്കുമെന്ന	-9.93603
▁ദേവസ്വം	-9.9361
▁കളക്ടർ	-9.93612
▁യെല്ലോ	-9.93616
ങ്കി	-9.93638
▁വ്യാപന	-9.93644
▁വയസ്സ	-9.93664
▁ഇയാളുടെ	-9.93677
▁ഇരട്ട	-9.93679
▁നിയമസഭയില്‍	-9.93688
▁ജനങ്ങള	-9.93706
▁സാമ്പിളുകളാണ്	-9.93735
▁സൗകര്യ	-9.93772
പ്പാ	-9.93826
ർച്ച	-9.93889
▁വിജയിച്ചത്	-9.93889
▁ക്യാമറ	-9.93943
▁സൗഹൃദ	-9.93955
▁നേടാന	-9.93961
▁എംഎല്‍എമാര്‍	-9.93976
▁ജനങ്ങള്‍ക്ക്	-9.94017
ിക്കുകയും	-9.94072
▁ആല	-9.94098
ശേഷം	-9.94101
7,	-9.94124
▁ജീവന	-9.94139
▁ഓഫീസർ	-9.94165
നിര	-9.94176
I	-9.94191
വിന്	-9.94192
▁0	-9.94243
▁മാധ്യമങ്ങളോട്	-9.94285
▁വേണ്ടത്	-9.94301
ക്കുകയും	-9.94302
▁കണക്കുകൾ	-9.94363
▁വേളയില്‍	-9.94377
▁കാസര്‍കോട്	-9.94382
മായും	-9.94407
ിലെത്തി	-9.94471
യ്ക്കുള്ള	-9.94473
▁നിലനില്‍ക്കുന്ന	-9.94484
▁നടത്തുകയും	-9.94485
▁കാപ്പ	-9.94492
▁പരസ്പരം	-9.94496
▁സീ	-9.9451
പക്ഷ	-9.94534
▁സമ്മാന	-9.9454
ജോ	-9.94564
▁ഗ്രഹ	-9.94678
▁കണ്ടെത്താന്‍	-9.9471
ുണ്ടാവും	-9.94754
▁ൻ	-9.94773
ലു	-9.94803
േഴ്സ്	-9.94859
രിക്ക	-9.94868
▁ഇപ്പോഴിതാ	-9.94941
▁വിദ്വേഷ	-9.94941
▁സമർപ്പിക്ക	-9.94941
▁അനുഭവ	-9.94963
▁രോ	-9.95023
ാരി	-9.95038
ുകള്‍ക്ക്	-9.95104
▁ശതമാനമാണ്	-9.95127
േന്ദ്ര	-9.95165
▁പൈലറ്റ്	-9.95255
ക്കിട	-9.9527
▁തുല്യ	-9.95292
ഥി	-9.95309
▁ഭാഗം	-9.95318
ാറില്ല	-9.95327
▁നടക്കുക	-9.95348
22	-9.95382
▁ഒന്നര	-9.95415
▁അധികാരത്തിലെത്ത	-9.95439
▁പഴ	-9.95488
▁പ്രതിയായ	-9.95599
▁കണ്‍ട്രോള്‍	-9.95613
▁അദാനി	-9.95615
▁ളി	-9.95626
ദ്യ	-9.95645
പ്പള്ളി	-9.95714
32	-9.95731
▁പരിഹാര	-9.95732
▁രാജ്യസഭാ	-9.95762
യില്ലാത്ത	-9.95851
▁കുട്ടിയുടെ	-9.95853
▁ഉറപ്പിച്ച	-9.95944
▁ശരാശരി	-9.95951
ഓ	-9.9602
▁വയസ	-9.96103
▁പീഡന	-9.96199
ുമ്പോഴാണ്	-9.9621
▁രാഷ്ട്ര	-9.96229
മണി	-9.96235
▁പരിശോധനാ	-9.96242
▁പുതു	-9.96247
▁ഏപ്രിൽ	-9.9629
▁പുതുപ്പള്ളി	-9.96294
▁സ്റ്റേറ്റ്	-9.96315
▁വെളിപ്പെടുത്തിയ	-9.96325
▁നിരീക്ഷണത്തില്‍	-9.96329
▁സിംഗ	-9.96337
▁സർക്കാരിന്	-9.96359
▁ബീ	-9.9639
▁വന്നാല്‍	-9.96402
16	-9.96468
▁54	-9.96489
▁മുഖേന	-9.96501
▁കൊള്ള	-9.96521
▁ഭീകര	-9.96593
▁ധോണി	-9.96598
▁ഹോ	-9.96625
▁മാറും	-9.96729
ങ	-9.96749
▁ആര്‍ക്കും	-9.96757
21	-9.96765
▁വ്യാപകമായി	-9.96835
ോട	-9.96843
▁വാര്‍ത്താ	-9.96874
▁വ്യക്തിയാണ്	-9.96964
▁പ്രമേയ	-9.97011
▁2015	-9.97019
▁ഗുണ	-9.97044
▁സ്കൂള	-9.97078
ട്ടു	-9.97088
▁വഹിച്ച	-9.97124
▁ഗണേഷ്	-9.97151
95	-9.97203
▁അടുപ്പ	-9.97232
▁ഇന്ത്യയെ	-9.97267
േണ്ടതാണ്	-9.97268
▁പൂര്‍ത്തിയാക്കി	-9.97279
ഘട്ട	-9.97291
▁വളര്‍ച്ച	-9.97318
▁ഇതിനകം	-9.97323
▁തലശേരി	-9.97328
ര്‍ച്ച	-9.9734
▁ആവശ്യപ്പെട്ടത്	-9.97387
യാണിത്	-9.97406
▁അടിസ്ഥാനത്തിലാണ	-9.97436
ഗി	-9.97465
▁താമസ	-9.97477
േയാണ്	-9.97499
ിരുന്നുവെന്നും	-9.975
.5	-9.97522
▁നൽകിയിട്ടുണ്ട്	-9.97563
▁വരുത്തിയ	-9.97617
വിനെ	-9.97643
▁നവംബര്‍	-9.97657
9,	-9.97667
ദേശ	-9.97698
▁കാസർഗോഡ്	-9.97736
ുപോയ	-9.97764
▁വേഗം	-9.97798
▁മുന്നോട്ടു	-9.97859
▁ടിക്കറ്റ	-9.97897
ഴ്	-9.97931
ക്കെ	-9.97962
▁പരിശീലന	-9.98047
▁കര്‍ശന	-9.98083
ക്രമ	-9.98167
▁ഇറാന	-9.98244
▁കേസുകളാണ്	-9.98255
പ്രകാരം	-9.98306
ത്തെയും	-9.98312
▁പെരു	-9.9833
▁കാണാന	-9.98398
▁അമ	-9.9843
യാക്കി	-9.9843
▁നിയമിച്ച	-9.98464
▁കയറിയ	-9.98546
▁താലിബാന്‍	-9.98566
▁അന്വേഷിച്ച	-9.98588
▁സേവന	-9.98612
01	-9.98641
▁കോളേജില്‍	-9.98659
വയ്ക്ക	-9.98677
▁ദളിത്	-9.98696
▁അഖിൽ	-9.98696
▁സുധാകരൻ	-9.98732
ക്കുക	-9.98748
75	-9.98762
▁യാത്രാ	-9.98762
▁ബിഎസ്പി	-9.98764
▁നേരിയ	-9.98797
രണ	-9.98798
▁ചെന്ന	-9.98814
ുന്നതിൽ	-9.98837
▁കുഞ്ഞ	-9.98926
▁ഭാഗ്യം	-9.98975
▁പരിപാടിയില്‍	-9.98976
▁രാജ്യസഭ	-9.99009
▁യഥാർത്ഥ	-9.99044
ക്കുകയാണ്	-9.9905
കുട്ടി	-9.99056
മാന്‍	-9.99112
▁ദേ	-9.99131
▁അവസര	-9.99227
▁വികസനം	-9.9923
▁ജീവിതത്തിൽ	-9.99235
ോണ്‍	-9.9924
▁ഉയരുന്ന	-9.99257
ോള	-9.99306
▁നിലപാടാണ്	-9.99317
ട്ര	-9.99327
▁നീങ്ങ	-9.99342
▁പരിഹാരം	-9.99366
▁പരാമര്‍ശം	-9.99467
▁വരികയാണ്	-9.99534
▁അതും	-9.99576
▁ലാഭം	-9.99589
▁അതിനു	-9.99627
വൻ	-9.99656
▁സന്തോഷ്	-9.9969
▁നശിപ്പിക്ക	-9.99745
▁വന്നതോടെ	-9.99798
▁ദിവസങ്ങളിൽ	-9.99808
▁അന്നത്തെ	-9.99847
▁പങ്ക്	-9.99862
▁പ്രവര്‍ത്തകര	-9.99901
▁അമിത	-9.99955
▁അഹമ്മദ്	-9.99977
▁നട	-9.99995
▁ഓസ്	-10.0004
▁നേട്ട	-10.0009
▁വരാന്‍	-10.0011
▁തിരു	-10.0011
▁ആദിവാസി	-10.0015
ിക്കുന്നു	-10.0024
▁സാധിച്ചു	-10.0026
െയ്	-10.0031
▁സ്വീകരിച്ചത്	-10.0037
സിനെ	-10.0038
▁മനസ	-10.0038
▁സൂ	-10.0039
▁6,	-10.004
▁മന്ത്രിയുടെ	-10.0041
47	-10.0044
▁ആരോപണങ്ങള	-10.0052
▁പ്ലസ്	-10.0055
▁അസം	-10.0055
▁രണ്ടും	-10.0056
ണോ	-10.0066
▁തിര	-10.0068
▁ക്ലാസ	-10.0075
▁വാര്‍ഡുകള	-10.0079
▁പിടികൂട	-10.0079
g	-10.008
▁സ്പീക്കര്‍	-10.008
▁പങ്ക	-10.0081
▁ശി	-10.0083
▁2011	-10.0084
യ്ക്കായി	-10.0095
▁ആശുപത്രികളില്‍	-10.0096
▁വേണമെന്ന്	-10.0098
▁നാട്ടിലേക്ക്	-10.0098
▁ബല	-10.0099
യിട	-10.0102
▁അക്കൗണ്ട	-10.0109
▁നടൻ	-10.0112
▁പുലര്‍ച്ചെ	-10.0116
▁എംബസി	-10.0116
ുകയാണെങ്കില്‍	-10.0117
▁കോളനി	-10.0122
▁വാക്സിന്‍	-10.0123
▁സിനിമയില്‍	-10.0123
യാളാണ്	-10.0125
▁ആയിര	-10.0125
▁വാഴ	-10.0127
▁ഗം	-10.0131
കള്‍ക്കും	-10.0133
ഭാ	-10.0133
യത്	-10.0133
െത്തിയത്	-10.0136
▁വ്യക്തമാക്ക	-10.0139
56	-10.014
▁യോ	-10.0141
രൂപ	-10.0142
▁ചൂണ്ടിക്കാണിച്ച	-10.0152
▁രം	-10.0155
▁മാനേജ്	-10.0158
നായിരുന്നു	-10.0161
▁പക്ഷത്ത	-10.0163
▁ഇടതു	-10.0167
▁ചികിത്സയിലായിര	-10.0167
യിലേക്കുള്ള	-10.0172
തന്നെ	-10.0173
▁യുദ്ധം	-10.0173
▁നടിയെ	-10.0176
▁ഇടം	-10.0179
▁ആരോപിക്കുന്നു	-10.0181
▁7,	-10.0182
▁സിനിമയുടെ	-10.0183
▁പലിശ	-10.0188
തെ	-10.019
ന്‍ഡ്	-10.019
▁കെഎം	-10.0191
ാകെ	-10.0193
▁വാക്ക്	-10.02
കളില	-10.0204
S	-10.0204
ന്ത്	-10.0204
▁എന്നൊക്കെ	-10.0205
▁കടല	-10.0211
▁വിലക്ക്	-10.0216
▁മല്‍സരിക്ക	-10.022
▁ചലച്ചിത്ര	-10.0224
▁കേൾക്ക	-10.0224
ൻഡ	-10.0225
▁ഉദ്ഘാടന	-10.0231
▁8,	-10.0231
▁പ്രഖ്യാപന	-10.0231
▁കൊലപാതകം	-10.0234
ബോധ	-10.0235
▁വെളിപ്പെടുത്ത	-10.0239
▁ആശയ	-10.0241
▁വിദഗ്ധ	-10.0244
▁ഇതിനെതിരെ	-10.0244
▁ദേശ	-10.0244
▁അതിർത്തി	-10.0246
▁ബോര്‍ഡ്	-10.0253
▁കോള	-10.0254
▁അഖില്‍	-10.0256
▁കുത്തി	-10.0258
▁ഗവർണർ	-10.026
▁സർക്കാറ	-10.026
▁തീവ്രവാദ	-10.026
▁ലോകാരോഗ്യ	-10.026
▁ലൈഫ്	-10.0261
▁എന്തൊക്കെ	-10.0262
സർ	-10.0263
ബു	-10.0265
െടുത്ത്	-10.0266
ത്തര	-10.0267
▁അരവിന്ദ്	-10.0274
▁ജനം	-10.0275
തിന	-10.0278
കളെയും	-10.028
▁വസ്തുത	-10.0291
▁എഴുത	-10.03
▁പറ്റി	-10.03
ക്സ്	-10.0311
▁രേഖകള്‍	-10.0313
ാടി	-10.0313
േക്കുമെന്ന	-10.0315
26	-10.0316
▁കാരം	-10.0321
സിൽ	-10.0321
▁ജീവനക്കാര	-10.0322
▁ബില്ല	-10.0329
▁ഡ്യൂട്ടി	-10.0332
▁പോസിറ്റിവിറ്റി	-10.0332
▁വെറുതെ	-10.0332
▁നിരാശ	-10.0333
▁ഗൗരവ	-10.0334
▁നിയന്ത്രണങ്ങള	-10.0346
തേ	-10.0355
പിടിച്ച	-10.0357
▁വിശ്വാസം	-10.0358
▁സർ	-10.036
▁അപകടത്തില്‍	-10.0361
▁എല്‍ഡിഎഫ	-10.0363
ുണ്ടാകും	-10.0365
▁മനോരമ	-10.0369
▁അപ്	-10.0369
▁റദ്ദാക്ക	-10.0371
▁നടത്തുക	-10.0372
ുകാർ	-10.0375
▁പൂജ	-10.0376
▁ഘടക	-10.0382
കൊണ്ട	-10.0382
▁ലോക്സഭാ	-10.0383
▁തിരിച്ചുവര	-10.0385
ന്‍സി	-10.0388
▁കർഷക	-10.039
▁മത്സ്യ	-10.0398
C	-10.0401
ാണെന്നാണ്	-10.0402
ശ്ശേരി	-10.0405
▁ഡയറക്ടർ	-10.0405
▁ലഭിക്കുന്നത്	-10.0406
▁മിനി	-10.0409
യിലെത്തിയ	-10.041
ജീ	-10.0413
▁പൊലീസിന്	-10.0416
പ്രതി	-10.0417
▁ലൈന്‍	-10.042
▁ഉണ്ണി	-10.0421
▁അബുദാബി	-10.0422
▁അൽ	-10.0426
▁മാറ്റങ്ങള്‍	-10.043
▁യുക്രൈന	-10.0433
▁പീഡിപ്പിച്ച	-10.0433
▁ഡാറ്റ	-10.0433
സോ	-10.0437
▁തുടര്‍ച്ചയായി	-10.0438
▁കരുത	-10.0438
▁മണിയോടെ	-10.0439
കേന്ദ്ര	-10.0445
▁മാത്രമ	-10.0449
▁ലീ	-10.0454
▁എന്നിവയുടെ	-10.0454
▁സാധ്യതയുള്ള	-10.0462
▁ആര്‍എസ്എസ്	-10.0468
▁പദ്ധതികള്‍	-10.0476
▁സ്ഥാപനങ്ങള	-10.0477
▁അഖിലേഷ്	-10.0479
▁ഗവേഷണ	-10.0479
▁പേജ	-10.0482
▁കരാർ	-10.0482
ഉ	-10.0483
▁നേതാക്കള	-10.0486
ക്കൊണ്ട്	-10.0487
▁പ്രതികരണ	-10.0487
▁ഉയര്‍ന്നു	-10.0488
▁പിന്നിൽ	-10.049
ർക്ക്	-10.0491
▁കൗ	-10.0494
84	-10.0496
▁വിധ	-10.05
▁കാട്ട	-10.0508
▁സ്ഥാനാര്‍ത്ഥികള	-10.0515
▁ക്ഷണിച്ച	-10.0516
▁രക്ഷപ്പെട	-10.0516
▁നയതന്ത്ര	-10.0516
▁പശ്ചാത്തലത്തിൽ	-10.0521
▁ബേ	-10.0524
▁സിപിഎമ്മിന്റെ	-10.0528
▁കഴിയുമെന്ന	-10.0535
വത്	-10.0539
▁ബാധിക്കുന്ന	-10.0541
ിക്കുക	-10.0542
▁കുഞ്ഞിനെ	-10.0543
▁പോരാട	-10.0546
▁ഭര്‍ത്താവ്	-10.0547
▁ആശുപത്രിയിലേക്ക	-10.0548
പ്പെടുത്തി	-10.0548
A	-10.0549
P	-10.055
▁പങ്കെടുക്കുന്ന	-10.0553
▁ശസ്ത്രക്രിയ	-10.0553
▁ശാരീരിക	-10.0553
▁അക്കാര്യ	-10.0556
▁കേസുകളില്‍	-10.0556
▁2000	-10.056
▁ഇതിനു	-10.0561
▁നൗ	-10.0563
▁നിർത്തി	-10.0568
▁ലക്ഷ്യമിടുന്നത്	-10.057
▁ഉത്തര	-10.0575
▁ഉയര്‍ത്ത	-10.0578
▁ലേ	-10.058
▁53	-10.0581
▁ചെയ്യാം	-10.0586
▁ഓടി	-10.0588
ര്‍ക്ക	-10.0593
▁പുറത്തേക്ക്	-10.0594
▁ഓട്ടോ	-10.0596
ടാ	-10.0599
ഞ്ച്	-10.0601
▁പ്രതിരോധിക്ക	-10.0602
▁ആഹ്വാനം	-10.0603
▁തിരിച്ചെത്തിയ	-10.0605
▁പൂര്‍ണ	-10.0605
യൂ	-10.0605
▁ലും	-10.0609
▁കിടന്ന	-10.061
▁ചെയ്യാന	-10.0612
▁വേദി	-10.0613
പെട്ട	-10.0614
▁അകലം	-10.0617
▁ഉത്തരം	-10.0619
▁അതിനാൽ	-10.062
▁സാധിക്കുന്ന	-10.062
▁കസ്റ്റഡിയില്‍	-10.0621
വാര	-10.0625
കാരന്‍	-10.0626
ിലധികം	-10.0627
▁നിർണായക	-10.0627
▁ധാരാളം	-10.0628
▁ആരാധകര്‍	-10.063
▁കയ്യ	-10.0636
▁ഉത്തര്‍	-10.0636
▁പവന്‍	-10.0637
ധി	-10.0638
▁കടന്ന്	-10.0639
▁എന്തുകൊണ്ടാണ്	-10.064
യാള	-10.0642
▁രോഗികള	-10.0643
ദ്ര	-10.0643
▁സാധിക്ക	-10.0654
ഞ്ജ	-10.0654
▁വയസ്	-10.0656
▁കുള	-10.0657
11	-10.0659
▁നാഗ	-10.0659
▁ഹൗസ്	-10.0659
യിലെത്തി	-10.0662
17	-10.0662
▁ഉറപ്പുവരുത്ത	-10.0666
▁ബാധ്യത	-10.0666
▁തോതില്‍	-10.0666
▁ആലുവ	-10.0668
▁നിര്‍ത്തി	-10.0672
▁ലോറി	-10.0674
▁വേണമെന്ന	-10.0676
▁പ്രക്ഷോഭ	-10.0676
▁വലുത	-10.0676
നിൽ	-10.0678
▁പാര്‍ട്ടിക്ക്	-10.0679
▁സ്വാഗതം	-10.0681
ിയെ	-10.0685
▁72	-10.0685
29	-10.0688
▁മുതല	-10.0688
▁പറഞ്ഞാല്‍	-10.0693
▁കോൺഗ്രസിൽ	-10.0696
▁കസ്റ്റംസ്	-10.07
▁ചെയ്യുന്നുണ്ട്	-10.0701
ുണ്ടെന്നാണ്	-10.0701
▁പാലിച്ച	-10.0702
▁പ്രകൃതി	-10.0704
▁പറ	-10.0705
▁പ്രൊ	-10.071
വിൽ	-10.0713
▁പ്രസംഗ	-10.0713
▁കണക്ക	-10.0716
േല്‍	-10.0716
▁കേസുമായി	-10.0717
▁കോടിയുടെ	-10.0719
▁അജയ്	-10.0721
ിട്ടാണ്	-10.0721
ൊന്ന	-10.0724
▁നോട്ട	-10.0727
▁ഉയര്‍ത്തിയ	-10.0728
▁തൊഴില	-10.0733
▁റോഡ	-10.0733
▁പ്രദേശങ്ങളില്‍	-10.0737
▁ഫോണില്‍	-10.0738
പ്പാറ	-10.0741
▁ഒടുവിൽ	-10.0741
പൊ	-10.0744
ാംഗ	-10.0745
▁ജയരാജന്‍	-10.0745
07	-10.0753
▁കുട്ടികള	-10.0756
▁ആഘോഷിക്ക	-10.0758
▁കൊലപ്പെടുത്തിയ	-10.0759
ത്യ	-10.076
▁കമല	-10.0764
▁കരുതിയ	-10.0769
▁പുന	-10.077
വന്‍	-10.0771
▁മണ്ഡലങ്ങളില്‍	-10.0775
▁അവസാനം	-10.0776
▁പാർട്ടിയിൽ	-10.0776
▁പൂർണമായ	-10.0778
▁നിറ	-10.0781
▁ക്ക്	-10.0782
▁കര്‍	-10.0787
▁തങ്ങൾ	-10.0791
▁ദുരിത	-10.0791
▁അക്കൗണ്ട്	-10.0792
െത്തുന്ന	-10.0795
55	-10.0795
▁പ്രസിഡന്റ	-10.0796
▁അനുകൂലമായ	-10.0803
പേര	-10.081
▁നാരായണ	-10.0814
ക്കാനുള്ള	-10.0818
▁ഒരാഴ്ച	-10.0818
13	-10.082
പ്പുഴ	-10.082
▁അയാൾ	-10.0821
▁എകെ	-10.0831
▁നേതൃത്വ	-10.0832
▁പിള്ള	-10.0836
മര	-10.0837
▁സൂക്ഷിച്ച	-10.0838
▁ഭരണകൂട	-10.0839
▁ഇറക്ക	-10.084
▁നേതാവിനെ	-10.0841
▁ആരോപണങ്ങള്‍	-10.0845
കല	-10.0848
▁കുടിയേറ്റ	-10.0848
▁ലംഘിച്ച	-10.0848
▁വര്‍ഷമായി	-10.0852
ിരുന്നെങ്കിലും	-10.0852
ഞ്ഞ്	-10.0856
കുഞ്ഞാലിക്കുട്ടി	-10.0856
70	-10.0857
േണ്ടതില്ല	-10.0859
▁കോണ്‍ഗ്രസ	-10.0862
ക്കൂ	-10.0863
▁ഉന്നയിക്ക	-10.0864
▁അക്കാദമി	-10.0865
▁മേൽ	-10.0866
▁തെളിയിക്കുന്ന	-10.0867
▁കന	-10.0868
▁മുന്നേറ്റം	-10.0869
▁നായര്‍	-10.0875
▁പറയാന	-10.0876
▁നിര്‍മ്മാണ	-10.0876
▁നേതൃത്വത്തിന്	-10.0877
▁കാട്ടാന	-10.088
▁പരാജയപ്പെടുത്ത	-10.0885
▁നാണ്	-10.0886
▁ബാധിക്ക	-10.089
▁മാധ്യമങ്ങൾ	-10.0891
▁സഞ്ചരിച്ച	-10.0894
▁പ്രസാദ്	-10.0895
▁വാഹനങ്ങള്‍	-10.0895
▁വൈകാതെ	-10.0897
വുമ	-10.0898
▁സമീപത്ത	-10.09
▁വിവാദം	-10.0903
▁ചോ	-10.0905
▁ക്രിക്കറ്റ്	-10.0906
▁ഞെട്ടിച്ച	-10.0907
▁സർവ്വേ	-10.0908
ൈസ	-10.0913
▁കേരളത്തെ	-10.0916
▁നയം	-10.0918
▁ജീവനക്കാരെ	-10.0918
▁അവസാനിപ്പിച്ച	-10.0918
▁റിപ്പോർട്ടിൽ	-10.0924
കളിലൂടെ	-10.0925
▁രക്ഷ	-10.0926
▁ഗി	-10.0929
ലധികം	-10.0929
▁ത്ര	-10.0931
▁ഉമ്മന്‍ചാണ്ടി	-10.0933
▁ഫേസ്ബുക്കിൽ	-10.0938
▁ലഖ്	-10.0938
▁രാജ്യത്ത	-10.094
▁56	-10.094
▁ഏഴ	-10.094
ജാ	-10.0942
▁നയിക്ക	-10.0945
▁ട്രാ	-10.0946
▁ജാമ്യ	-10.0949
▁പുറത്തിറങ്ങ	-10.0951
44	-10.0953
▁റദ്ദാക്കിയ	-10.0956
▁കണ്ണൂരില്‍	-10.0958
▁ബാക്കിയുള്ള	-10.0958
▁നിര്‍ദേശ	-10.0961
വിരുദ്ധ	-10.0961
▁പാകിസ്താന	-10.0962
▁ആരംഭിക്ക	-10.0971
▁രോഗികള്‍	-10.0972
▁മയക്കുമരുന്ന്	-10.0976
▁...	-10.0976
ായാണ്	-10.0978
തിരി	-10.0981
▁സംഘർഷ	-10.0985
▁പ്രവർത്തനം	-10.0989
ോൺ	-10.0991
▁ബുക്ക്	-10.0992
▁പ്രതിഷേധിച്ച	-10.0992
▁കേസെടുക്ക	-10.1
85	-10.1
▁സംസാരിച്ചു	-10.1004
ിലേറെ	-10.1005
▁പരിചയ	-10.1005
▁വെച്ചാണ്	-10.1008
ിറങ്ങിയ	-10.1017
▁ഫോണ	-10.1018
▁പറ്റ	-10.1018
ീറ്റ	-10.102
▁വിദ്യ	-10.1024
▁സഹകരിക്ക	-10.1025
ിൻ	-10.1026
▁സൈ	-10.103
▁കാണുന്നു	-10.1033
▁ൾ	-10.1039
▁മകള്‍	-10.1041
▁അടയ്ക്ക	-10.1041
68	-10.1049
പ്ല	-10.105
▁കീഴില്‍	-10.1051
▁തലശ്ശേരി	-10.1052
ടക്ക	-10.1054
നാഥ	-10.1055
▁വീടിന്	-10.1061
▁പേടി	-10.1064
ടക്കമുള്ള	-10.1064
▁മുന്നോടിയായി	-10.1071
▁ജോണ്‍	-10.1071
▁പാലം	-10.1072
▁സമീപിക്ക	-10.1077
▁സുനില്‍	-10.1078
സഭ	-10.1079
▁പ്രാ	-10.1081
▁സ്ഥാപനങ്ങള്‍	-10.1083
രാമ	-10.1086
▁ചിത്രങ്ങൾ	-10.1087
▁പ്രതികൾ	-10.1088
▁അടിക്ക	-10.109
82	-10.1091
▁കൊന്ന	-10.1093
▁പ്രശ്നങ്ങള	-10.1095
ഭരണ	-10.1103
▁മെന്റ	-10.1104
ലില്‍	-10.1105
▁കിട്ടുന്ന	-10.1105
▁മോഹന്‍ലാല്‍	-10.1112
▁വീണാ	-10.1114
വാല	-10.1115
77	-10.1116
▁നേതാവുമായ	-10.112
റുടെ	-10.1121
▁ഒഴിവാക്കി	-10.1128
▁രാം	-10.1128
▁ട്രാന്‍സ്	-10.1129
ുണ്ടാക	-10.1134
▁ത്ത	-10.1136
▁ആയുധ	-10.1143
ണമെങ്കില്‍	-10.1145
▁ഉത്തരവാദിത്ത	-10.1148
▁പോകാൻ	-10.115
ന്നി	-10.1151
▁ദിനം	-10.1153
▁57	-10.1154
▁രേഖപ്പെടുത്തി	-10.1155
ാവ്	-10.1159
▁തയ്യാറാവ	-10.1159
ില്ലെങ്കിൽ	-10.1166
ിള	-10.1166
ദേവ	-10.1168
ക്കെട്ട	-10.117
▁ഏര്‍പ്പെടുത്ത	-10.1172
ാലോ	-10.1177
▁മുഖ്യമന്ത്രിയെ	-10.118
▁ള്ള	-10.1181
▁അടക്കമുളള	-10.1184
39	-10.1184
▁വാക്കുകള്‍	-10.1185
67	-10.1186
▁സ്വാമി	-10.1188
▁പ്രകാശ്	-10.119
▁വിശ്വ	-10.1191
▁വണ്ടി	-10.1191
▁സന്ദര്‍ശിച്ച	-10.1196
ുമോയെന്ന	-10.1202
▁വാങ്ങുന്ന	-10.1202
▁വാക്സിന	-10.1204
▁പേരെയാണ്	-10.1205
▁തയ്യാറായില്ല	-10.1208
▁ജനത	-10.1209
▁പതാക	-10.1212
▁കോളേജ	-10.1217
▁നിമിഷം	-10.1219
▁ഭാഗമായ	-10.122
▁കൈമാറിയ	-10.122
ത്തിലായിരുന്നു	-10.1221
▁റിലീസ്	-10.1221
▁വരവ	-10.1225
▁ആർക്ക	-10.1228
▁സമാന	-10.1228
ുള്ളൂ	-10.1231
▁മത്സരിപ്പിക്ക	-10.1235
▁അനൂപ്	-10.1235
▁തനിക്ക	-10.1238
▁എന്നതും	-10.1238
▁ശനി	-10.1243
▁സഹായിച്ച	-10.1244
▁ആശുപത്രിയിലെ	-10.1247
▁ഒക്ടോബര്‍	-10.1247
യൊരു	-10.1247
▁സെക്രട്ടറിയേറ്റ	-10.1248
▁ഉടനെ	-10.1249
06	-10.1251
▁കരുതുന്നു	-10.1254
▁വ്യാപക	-10.1254
▁വൈകുന്നേരം	-10.1267
▁വീട്ടിലെ	-10.1268
േക്കാൾ	-10.1276
▁വാദി	-10.1284
▁സര്‍ക്കാറ	-10.1285
വം	-10.1285
▁ശതമാന	-10.1285
പാട	-10.1286
▁ജലനിരപ്പ്	-10.1287
▁തേജസ്വി	-10.1287
▁സന്ദീപ്	-10.1294
▁തിരക്ക	-10.1294
▁ആരെങ്കിലും	-10.1295
യന്‍	-10.1296
▁ശക്ത	-10.1296
ാതിരിക്കാന്‍	-10.1302
▁നൽകിയിരുന്നു	-10.1305
വുമില്ല	-10.1307
▁അപേക്ഷിക്ക	-10.1308
▁പ്രഖ്യാപിച്ച്	-10.131
▁പക്ഷം	-10.1311
▁ബുദ്ധി	-10.1311
▁നേതൃത്വത്തിന്റെ	-10.1316
എന്ന	-10.1316
▁ബന്ധുക്കള്‍	-10.132
ക്കം	-10.132
െങ്കിൽ	-10.1321
▁ബിജു	-10.1322
▁ഹരി	-10.1323
▁രോഗി	-10.1324
▁നൂറ്	-10.1325
▁കരുതി	-10.1327
▁ഗള്‍ഫ്	-10.1327
മാറ്റം	-10.133
▁എല്ലാവർക്കും	-10.1333
▁വാടക	-10.1336
▁സ്ഥിരം	-10.1341
▁വേണ്ടിയുള്ള	-10.1343
ുന്നവര്‍ക്ക്	-10.1345
▁ചെയ്തിട്ടില്ല	-10.1346
▁പഞ്ചായത്തുകള	-10.1347
▁എന്നിട്ടും	-10.1348
▁കേരളത്തില	-10.1359
▁ഭീഷണിപ്പെടുത്തി	-10.136
▁ഗ്യ	-10.1361
ിട്ടുണ്ടോ	-10.1362
▁റ്റ്	-10.1363
▁ഗാന്ധിയെ	-10.1369
▁സൗത്ത്	-10.1372
ുവാന്‍	-10.1374
▁നുണ	-10.1376
▁പവന്	-10.1377
▁പട്ടികയിൽ	-10.1378
▁ക്യൂ	-10.1379
▁ശക്തമാണ്	-10.1381
റിന്	-10.1382
▁മഹാരാഷ്ട്രയില്‍	-10.1384
▁തിരഞ്ഞെടുത്ത	-10.1384
▁അത്തരമൊര	-10.1384
▁ദാ	-10.1389
▁പകര	-10.1395
▁പ്രസ്ഥാന	-10.1397
തുകൊണ്ട്	-10.1398
▁മാത്യു	-10.1398
ച്ഛ	-10.1406
▁കണക്കിലെടുത്ത്	-10.1406
േക്കുമെന്നാണ്	-10.1406
▁നാഷണല്‍	-10.1409
▁ഫ്ര	-10.1412
▁ശബ്ദം	-10.1413
▁സ്വാധീന	-10.1413
28	-10.1415
ക്കാരുടെ	-10.1416
▁യുവതിയെ	-10.1423
ധന	-10.1424
ിയായ	-10.1426
09	-10.1426
▁മൂല്യം	-10.1427
▁ബിരുദം	-10.1427
▁പിന്നിട്ട	-10.1428
27	-10.1431
▁തുടങ്ങ	-10.1431
▁റു	-10.1432
▁വിശ്വസിക്കുന്ന	-10.1433
▁വക	-10.1435
▁മത്സരിക്കുന്നത്	-10.1436
▁ട്ട	-10.1441
▁സോണിയാ	-10.1441
48	-10.1447
▁ഡികെ	-10.1448
▁ഡിസംബർ	-10.1449
▁പ്രവചിച്ച	-10.1449
▁ബൈജു	-10.1449
▁സംഘത്തെ	-10.145
03	-10.145
▁ബേബി	-10.1453
▁അജ	-10.1455
▁പ്രാധാന്യം	-10.1456
▁എഫ	-10.1466
ോപ	-10.1469
▁ബംഗാളില്‍	-10.1472
▁കഴിവ	-10.1472
▁വിദ്യാർത്ഥി	-10.1475
▁പ്ലാന്‍	-10.1476
മാൻ	-10.1482
ങ്ങളുമായി	-10.1486
▁നേതാവായ	-10.1488
▁പോലീസിനെ	-10.1489
ക്കൊ	-10.1489
▁നിശ്ചിത	-10.149
യ്ക്കെതിരെ	-10.149
▁ഉപമുഖ്യമന്ത്രി	-10.149
▁ക്ഷണിച്ചു	-10.149
▁നിലനിർത്ത	-10.149
▁58	-10.149
▁എടുത്തത്	-10.1492
▁ഇടപെടല	-10.1496
▁വള്ള	-10.1499
▁കെഎസ്	-10.1499
▁തെളിവുകള്‍	-10.15
മുഖ	-10.1509
▁മാല	-10.1513
▁നിങ്ങള	-10.1513
▁കുറഞ്ഞു	-10.1515
▁വരാനിരിക്കുന്ന	-10.1517
തിനെതിരെ	-10.1521
▁ആത്മ	-10.1527
യോഗം	-10.153
▁താല്‍ക്കാലിക	-10.1531
▁മണിക്കൂര്‍	-10.1531
▁നരേന്ദ്രമോദി	-10.1531
▁ട്വീറ്റ	-10.1532
▁വിശദമായി	-10.1532
▁ആലോചിക്ക	-10.1533
വ്യ	-10.1533
▁കുറേ	-10.1533
▁വായിക്കാം	-10.1536
▁സര്‍ട്ടിഫിക്ക	-10.1537
▁മടങ്ങി	-10.1545
നെതിരെ	-10.1551
▁വൃത്തങ്ങള	-10.1552
ുന്നതിനിടെയാണ്	-10.1554
▁തൊഴിലാളികള്‍	-10.1558
യിരുന്നു	-10.1559
ക്കര്‍	-10.1562
89	-10.1566
▁പോള്‍	-10.1569
▁കൊല്‍ക്കത്ത	-10.1572
▁സൈബർ	-10.1572
ഞ്ഞി	-10.1575
▁മനുഷ്യന	-10.1578
▁അധികാരത്തില്‍	-10.1579
▁ഗതി	-10.1579
ലൈ	-10.1581
▁വയസുള്ള	-10.1587
▁എതിര	-10.1587
▁11,	-10.1587
-2	-10.1588
▁എത്തും	-10.1591
▁നല്‍കണം	-10.1595
ീര്‍	-10.1602
▁പിടിച്ചെടുത്ത	-10.1608
▁അടുത്ത്	-10.1608
78	-10.161
y	-10.1612
▁കാർഷിക	-10.1613
▁കുടുംബാംഗങ്ങള	-10.1613
▁മേയര്‍	-10.1616
▁യുവതിയുടെ	-10.1616
▁മേഖലകളില്‍	-10.1616
▁താരങ്ങള്‍	-10.1619
▁കാണിക്കുന്ന	-10.162
▁ഉയര്‍ത്തി	-10.1627
▁മാർ	-10.1629
▁രംഗത്ത	-10.1631
▁ആപ്പ്	-10.1632
▁കാർഡ്	-10.1633
െടുക്കുന്ന	-10.1634
▁തന്ത്ര	-10.1635
▁മാള	-10.1635
▁കോണ്‍ഗ്രസിലെ	-10.1636
▁വിമർശന	-10.164
▁സായി	-10.164
▁നിർത്ത	-10.1641
▁നഷ്ടം	-10.1652
▁മലയോര	-10.1655
▁ആകാശ	-10.1655
മായാണ്	-10.1655
▁വഴക്ക	-10.1657
ചി	-10.1658
▁ചേർത്ത	-10.1659
കഴിഞ്ഞ	-10.1662
പ്പോയ	-10.1664
▁വിലക്ക	-10.1664
▁ഉദ്യോഗസ്ഥര	-10.1665
▁പകുതി	-10.1672
▁അടിസ്ഥാനത്തില	-10.1672
▁സുഖ	-10.1673
േശ	-10.1676
▁ഇതില	-10.1677
േറിയ	-10.1678
▁മേയ്	-10.1678
ുകൊണ്ട	-10.1682
▁പങ്കാളി	-10.1682
▁പ്രദേശ്	-10.1682
▁കസ്റ്റഡിയിലെടു	-10.1691
▁മാര്‍ഗ	-10.1695
▁ആലോചിച്ച	-10.1696
▁പബ്ലിക്	-10.1696
▁ലുലു	-10.1697
▁മാനേജര്‍	-10.1699
▁മീറ്റര്‍	-10.17
▁പച്ച	-10.1701
▁കൈമാറി	-10.1705
▁ഉണ്ടായി	-10.1714
▁കഴിഞ്ഞാല്‍	-10.1716
▁ആരെയും	-10.1723
▁തർക്ക	-10.1731
▁റെഡ്	-10.1738
▁ചൗധരി	-10.1738
▁മൊബൈൽ	-10.1738
▁കലക്ടര്‍	-10.1738
▁നയിക്കുന്ന	-10.174
▁രാജിവച്ച	-10.174
▁സംഭവിച്ചത്	-10.1741
▁എന്തു	-10.1741
▁സംസ്ഥാനങ്ങളിലെ	-10.1742
▁നിഷേധിച്ച	-10.1746
▁വാക്കുകൾ	-10.1748
കാലത്ത്	-10.1748
▁തെരഞ്ഞെടുപ്പിൽ	-10.1751
▁ആക്ഷേപ	-10.1752
▁300	-10.1753
▁ചികിത്സാ	-10.1754
▁പരിശോധിച്ച്	-10.1759
▁പോളി	-10.177
ക്കുണ്ട്	-10.1772
ാണല്ലോ	-10.1775
▁ഉള്‍പ്പടെ	-10.1776
▁വിപണിയില്‍	-10.1776
വരെയും	-10.1778
▁മഞ്ജു	-10.1781
36	-10.1782
▁തോട്ട	-10.1783
▁ഏരിയ	-10.1783
▁ഗ്രാമപഞ്ചായത്ത	-10.1786
▁പ്രവചനം	-10.1787
▁പ്രകടിപ്പിക്ക	-10.1788
▁മാത്രമായിരുന്നു	-10.179
▁മക്കള	-10.179
▁കറ	-10.1793
▁പലതും	-10.1794
▁ഏഴു	-10.1798
▁അഭിനയിച്ച	-10.1801
യൂര്‍	-10.1801
ിങ്ങ	-10.1803
കൾക്കും	-10.1805
ക്കാല	-10.1805
റിനെ	-10.1806
▁സ്റ്റാ	-10.1807
▁ഉറപ്പായ	-10.1811
പരമായി	-10.1812
▁ചിന്തിക്ക	-10.1814
▁ബൈഡന്‍	-10.1818
▁വീട	-10.1822
പ്റ്റ	-10.1823
▁സ്വയംഭരണ	-10.1823
ിറ്റി	-10.1824
▁സൗ	-10.1829
▁വരെയും	-10.1833
▁ള്‍	-10.1836
▁മന്ത്രാലയ	-10.1844
▁10,	-10.1845
▁ഉയർന്നു	-10.1847
▁തുടക്ക	-10.1847
▁പരിപാടികള	-10.1851
▁അഭി	-10.1853
പ്രവര്‍ത്തകര്‍	-10.1855
▁സംസ്ഥാനങ്ങളിൽ	-10.1856
▁നാടക	-10.1857
▁നിര്‍ദ്ദേശ	-10.1859
ഞ	-10.1859
▁കുമാറിന്റെ	-10.1864
▁ഐശ്വര്യ	-10.1865
▁ഡിജിപി	-10.1865
▁ഇറ്റലി	-10.1865
▁തീരുമാനമെടുക്ക	-10.1865
സംസ്ഥാന	-10.1867
▁പ്രവേശിപ്പിക്ക	-10.1868
▁ദക്ഷിണ	-10.1868
▁കേന്ദ്രീകരിച്ച	-10.187
▁ശരത്	-10.1872
▁ഫ്രണ്ട്	-10.1874
▁ആരോപിക്കുന്നത്	-10.1875
▁പിജെ	-10.1875
▁വന്നപ്പോള്‍	-10.1876
31	-10.1876
▁ഞാനും	-10.1876
08	-10.1877
▁ഗാസ	-10.1878
യാര്‍	-10.1879
ക്കാന	-10.1881
ാത	-10.1885
▁ഹാജരാക്ക	-10.1886
ുവാൻ	-10.1887
▁ഭാഗമാണ്	-10.1889
▁പിടികൂടിയത്	-10.1892
38	-10.1896
▁പാര്‍ലമെന്റ്	-10.1902
▁കൗണ്‍സില	-10.1904
ത്രെ	-10.1904
▁എംവി	-10.1907
▁സമ്പദ്	-10.1907
ശ്രീ	-10.191
▁ഇക്കാര്യത്തിൽ	-10.1911
▁കേസിന്റെ	-10.1911
▁മകൻ	-10.1912
▁തെറ്റ്	-10.1914
ൻസ	-10.1914
▁റെഡ്ഡി	-10.1915
▁ഡിഎംകെ	-10.1915
▁പാര്‍ട്ടികള്‍	-10.1916
▁മുമ്പാണ്	-10.1919
മ്മി	-10.1922
▁കീഴിലുള്ള	-10.1923
രിപ്പ	-10.1925
42	-10.193
▁തിരിച്ചെത്ത	-10.1931
▁ഹരിത	-10.1931
▁ഗ്രാം	-10.1934
▁ചെയ്യാനുള്ള	-10.1935
ുണ്ടെങ്കിലും	-10.1936
▁പിക്ക്	-10.1936
▁ഇടപെടല്‍	-10.1938
99	-10.1941
▁ജ്യോതിഷ	-10.1941
▁ശരീര	-10.1942
▁സമ്മതിച്ച	-10.1944
▁ചിത്രങ്ങള	-10.195
▁എന്നിവിടങ്ങളിൽ	-10.195
▁സാന്നിധ്യം	-10.195
▁റെയിൽവേ	-10.1951
ിരിക്കും	-10.1952
▁ഏജൻസി	-10.1953
▁വയസ്സ്	-10.1955
ഞ്ചി	-10.1955
▁ജീവൻ	-10.1957
െണ്ണ	-10.1959
എമ്മ	-10.1959
▁വല	-10.1967
▁ജോസ	-10.197
▁ദൈവ	-10.1972
▁64	-10.1972
▁നിരീക്ഷിക്ക	-10.1977
▁വാട്	-10.1977
▁എടുക്കുന്ന	-10.1978
▁പ്രസംഗം	-10.1983
കളായി	-10.1983
വറ	-10.1986
▁ടാസ്	-10.1988
ചേ	-10.199
▁ബോര്‍ഡ	-10.1992
▁അതിജീവിത	-10.1992
▁പിന്‍വലിച്ച	-10.1993
▁ദൃശ്യങ്ങൾ	-10.1998
▁സന്ദേശ	-10.2002
▁നൽകുന്നത്	-10.2003
▁നടക്കുന്നുണ്ട്	-10.2007
▁മധ്യപ്രദേശ്	-10.2008
മാണെന്ന	-10.2014
▁സ്വഭാവ	-10.2015
▁ഏതാന	-10.2017
▁ഡ്രൈവറ	-10.2019
▁ഉയർത്ത	-10.2026
▁ഡോക്ടര്‍	-10.2026
▁നേതൃത്വത്തെ	-10.2027
▁വിമര്‍ശന	-10.203
▁ക്രമ	-10.2032
▁ഓറഞ്ച്	-10.2036
▁സര്‍വകലാശാല	-10.2036
▁ശ്രീലങ്ക	-10.2036
▁താക്കറെ	-10.2036
▁തള്ളിയ	-10.2039
ാദി	-10.204
▁കമന്റ്	-10.2041
വന്ന	-10.2042
▁നിർ	-10.2043
▁അപ്രതീക്ഷിത	-10.2048
▁രാശിക്കാർക്ക്	-10.2051
▁വരവ്	-10.2052
▁പരീക്ഷണ	-10.2055
▁കുമാറ	-10.2062
▁സംവിധായകന്‍	-10.2063
▁ഊ	-10.2063
▁സംഘടനയുടെ	-10.2067
▁പറയാം	-10.2073
▁കടത്ത	-10.2078
▁ഉള്‍പ്പെടുത്തിയ	-10.2078
▁വില്‍പ്പന	-10.2079
ീൻ	-10.208
കൊടുക്ക	-10.2081
▁തസ്തിക	-10.2088
n	-10.2088
▁ഒഴിവ്	-10.2089
▁ആണെന്നും	-10.2091
ിക്കല്‍	-10.2092
യാണ	-10.2093
പോക	-10.2093
ക്കൊണ്ട	-10.2096
▁മതിയായ	-10.2098
▁വെളിപ്പെടുത്തി	-10.2099
▁സ്വാധീനിക്ക	-10.2099
▁കാര്യത്തിലും	-10.2107
▁പ്രായമുള്ള	-10.2109
▁മുക്ക	-10.211
▁സീസണ്‍	-10.2117
▁നമ്പർ	-10.2123
ിരിക്കണം	-10.2124
▁നടക്കാനിരിക്ക	-10.2126
▁മുരളീധരൻ	-10.2126
▁ഒരിക്കല്‍	-10.2128
ുറപ്പ	-10.2128
▁ദിലീപ	-10.2129
▁ബ്ല	-10.2134
▁പേർക്കും	-10.2134
ലിന്	-10.2137
▁പോകും	-10.2148
ാണെങ്കിലും	-10.215
▁എംഎല്‍എമാര	-10.2153
▁ആരോപിച്ച്	-10.2156
▁ഇടവേള	-10.2165
▁ശ്രമങ്ങള	-10.2165
▁എസ്ഡിപിഐ	-10.2166
▁സഞ്ജയ്	-10.2166
▁സ്കൂൾ	-10.2166
▁രാശിക്കാരുടെ	-10.2174
മുളള	-10.2174
▁ഒരാളുടെ	-10.2177
▁ചായ	-10.2177
ാതിരിക്ക	-10.2186
ധ്യ	-10.2188
ീസ	-10.22
▁ആള്‍	-10.2202
▁വൈറലായ	-10.2203
37	-10.2203
യോടെയാണ്	-10.2203
യ്ക്കാണ്	-10.2206
▁ആഡംബര	-10.221
▁സതീശൻ	-10.221
▁സ്ഥാനാർഥി	-10.221
▁മനോജ്	-10.2211
▁ലഭിച്ചിരുന്നു	-10.2211
▁മീറ്റർ	-10.2214
▁ജീവനക്കാര്‍	-10.2222
▁വാർത്താ	-10.2226
▁മറികടക്ക	-10.2226
86	-10.2229
▁തലസ്ഥാന	-10.223
ിലേ	-10.224
▁വഴിയാണ്	-10.224
▁തരത്തില	-10.2241
▁കാര്‍ഡ്	-10.2244
▁കോവിഡ	-10.2251
വാദി	-10.2251
▁ഭരണഘടനാ	-10.2252
▁അടക്ക	-10.2254
▁ബംഗാൾ	-10.2254
▁അവശ്യ	-10.2255
▁62	-10.2257
▁അട്ടിമറി	-10.2258
▁വൈകിയ	-10.2259
▁റഷ്യന്‍	-10.2261
▁ബിരുദ	-10.2265
ുണ്ടെന്ന	-10.2265
▁ട്രെ	-10.2268
▁വന	-10.2268
ാറുള്ളത്	-10.2269
▁ദില്ലിയിലെ	-10.2269
മാസ	-10.2271
▁മുദ്രാവാക്യം	-10.2273
▁വകുപ്പുകള	-10.2274
▁നൽകും	-10.2275
▁പ്ലാന	-10.2277
▁മൂല്യ	-10.2279
▁നിലയിലാണ്	-10.2286
മ്പ്	-10.2289
▁സംരംഭ	-10.229
▁ഏഷ്യ	-10.2291
▁സംഘമാണ്	-10.2291
▁ശ്രമിച്ചത്	-10.2291
▁വെട്ട	-10.2294
ുണ്ടാക്കിയ	-10.2294
സൂ	-10.2294
▁നവംബർ	-10.2299
▁ന്യൂഡൽഹി	-10.2299
▁പൂർത്തിയാക്ക	-10.23
▁സംസ്ഥാനങ്ങള്‍	-10.2302
▁150	-10.2303
▁കിറ്റ	-10.2303
▁ഷാഫി	-10.2304
▁ഇതൊരു	-10.2305
▁രാജു	-10.2306
▁മാറ്റിയത്	-10.2308
▁ദ്വീപ	-10.2308
▁നടത്തുന്നുണ്ട്	-10.2308
▁അതിനുള്ള	-10.231
▁ചൂട	-10.2312
▁മുഖ്യമന്ത്രിയും	-10.2313
▁രൂക്ഷമായി	-10.2313
▁നിലനില്‍ക്ക	-10.2315
▁തകര്‍ക്ക	-10.2315
▁ബോർഡ്	-10.232
▁പണമ	-10.2321
▁സ്വന്തമായി	-10.2322
റായി	-10.2324
▁രക്ത	-10.2324
▁അറിവ	-10.2326
▁വസ്ത്ര	-10.2328
ങ്ങൾക്കും	-10.233
േണ	-10.2331
ീന്‍	-10.2335
▁കെയര്‍	-10.2335
▁വരുന്നു	-10.2335
ുന്നതായി	-10.2335
രഹിത	-10.2337
▁അവലോകന	-10.2343
▁എഐസിസി	-10.2343
▁തുറമുഖ	-10.2343
കളിലെ	-10.2349
ങ്ങളുടെയും	-10.2351
▁ഖത്തറ	-10.2352
▁ശേഷമുള്ള	-10.2352
▁ഉളള	-10.2353
▁മുസ്	-10.2356
ിട്ടു	-10.236
▁സർക്കാരിനെ	-10.2361
ിക്കുകയായിരുന്നു	-10.2362
▁വൈക	-10.237
▁കിലോമീറ്റ	-10.2371
▁മുകളിൽ	-10.2373
റേയും	-10.2374
▁റ്റേഷന	-10.2378
▁നീട്ടി	-10.2381
ുന്നുവെന്നും	-10.2381
ക്കുളം	-10.2386
▁വിഷമ	-10.2387
▁ഹിന്ദി	-10.2388
▁എങ്കില്‍	-10.2388
▁തൊട്ടടുത്ത	-10.2388
▁ആരംഭിക്കും	-10.239
യാണെന്ന	-10.2393
▁നടപ്പാക്കിയ	-10.2393
മ്പി	-10.2397
രോഗ	-10.2403
ബറ	-10.2405
▁വിറ്റ	-10.2406
പ്രദേശ	-10.2409
▁കുറിച്ചത്	-10.241
▁വാഹനങ്ങള	-10.241
▁ഡോക്ടര്‍മാര്‍	-10.241
▁കശ്മീര	-10.2415
രിക	-10.2418
▁ചികിത്സയിലുള്ളത	-10.2419
▁ഉച്ച	-10.2421
ിക്കും	-10.2425
▁വഹിക്ക	-10.2429
▁കമ്പനിയുടെ	-10.243
▁പഞ്ചാബ	-10.2431
▁പിൻവലിക്ക	-10.2432
▁വർധിച്ച	-10.2432
ർമ	-10.2435
കുറ	-10.2436
▁പതിവ്	-10.2437
▁സ്ഥിരീകരിക്ക	-10.2444
▁സാംസ്	-10.2445
▁അണ	-10.2453
▁സാധിച്ചില്ല	-10.2458
69	-10.2459
ാസ	-10.2462
▁കാര്യങ്ങളാണ്	-10.2466
▁ഹേമ	-10.247
▁വേണുഗോപാല്‍	-10.2471
മയ	-10.2471
▁മണിക്കൂറില്‍	-10.2473
▁ചൊവ്വ	-10.2478
▁കാര്യവും	-10.2479
▁ഹാജരായ	-10.2487
വിധ	-10.2488
▁ലോകത്തിലെ	-10.2492
▁ക്ഷമ	-10.2496
▁അഞ്ചാം	-10.2496
▁ഒഴിവുകള	-10.2505
▁സുഹൃത്ത്	-10.2508
▁അനിൽ	-10.251
▁വരുത്തി	-10.2511
▁ജില്ലയിലും	-10.2512
▁നിയന്ത്രണങ്ങൾ	-10.2515
▁ആധുനിക	-10.2523
▁ആര്‍ജെഡി	-10.2523
▁താഴ്ന്ന	-10.2523
▁കാവ	-10.2524
▁സ്ത്രീകളെ	-10.2526
▁ഉദ്ധരിച്ച്	-10.2527
▁തട്ട	-10.2528
▁മണിക്കൂറിനുള്ള	-10.2528
മൂ	-10.2529
▁സജീവമായി	-10.253
▁ഫീ	-10.2532
▁മറക്ക	-10.2534
▁സിന്റെ	-10.2535
പരി	-10.2536
▁ഗുരു	-10.2537
▁പുറത്തിറങ്ങിയ	-10.2538
76	-10.2541
ആക്രമിക്കപ്പെട്ട	-10.2543
▁വെടി	-10.2543
▁സുധ	-10.2544
▁മത്സരിക്കാന്‍	-10.2546
▁പാവ	-10.2549
ിയാണ്	-10.2551
▁മാസത്തെ	-10.2552
ിലായി	-10.2554
14	-10.2559
▁ഇടതുപക്ഷം	-10.2562
▁ഹൈക്കോടതിയെ	-10.2566
▁ബ്രിട്ടീഷ്	-10.2568
▁സംസ്ഥാനത്തിന്റെ	-10.257
▁ഇതോടൊപ്പം	-10.257
ങ്ങി	-10.2571
▁അജണ്ട	-10.2571
▁പ്രസിഡണ്ട്	-10.2573
▁കൊല്ലപ്പെട്ടത്	-10.2576
▁കാരണമെന്ന	-10.2576
▁സര്‍വ്വേ	-10.2578
88	-10.2579
▁സംസ്ഥാനത്തിന്	-10.2592
പ്പൊ	-10.2593
▁മദ്യം	-10.2602
▁രക്ഷാ	-10.2602
▁ഉപയോഗ	-10.2603
▁ബിന്ദു	-10.2604
81	-10.2604
ുകളിലെ	-10.2605
▁സജ്ജ	-10.2606
മാകുന്ന	-10.2608
കൂടി	-10.2608
ലിൽ	-10.2611
▁ബില്‍	-10.2613
▁ചെയർമാൻ	-10.2614
▁ട്രേലിയ	-10.2614
▁കൊട്ടാരക്കര	-10.2615
▁കമ്മറ്റി	-10.2616
▁സെന്റ്	-10.2622
ിന്റേയും	-10.2622
▁മൈ	-10.2623
മുണ്ടാക	-10.2623
▁തെളിവ്	-10.2624
▁ലഭിച്ചിട്ടുണ്ട്	-10.2626
▁നഷ്ടമായ	-10.2627
33	-10.2628
ദു	-10.2629
▁മീഡിയയിൽ	-10.2629
▁ക്യാ	-10.2629
▁നാട്ടിൽ	-10.2634
കൊ	-10.2635
ാമെന്നാണ്	-10.2635
▁ഗാ	-10.2636
ക്കുള്ളില്‍	-10.2637
43	-10.2637
▁ഫീസ്	-10.2638
▁വിജിലന്‍സ്	-10.2638
▁ശ്രദ്ധയില്‍	-10.2643
▁ഔദ്യോഗികമായി	-10.2645
▁മറ്റ	-10.2648
ാകുന്ന	-10.2651
▁തങ്ങള്‍ക്ക്	-10.2652
▁എന്നോട്	-10.2653
▁താമസം	-10.2654
▁തടസ	-10.2656
▁പ്രോത്സാഹിപ്പി	-10.266
▁പാര്‍ട്ടിയെ	-10.2663
▁ബൈക്ക	-10.2664
കേരള	-10.2664
▁തിരുവല്ല	-10.2667
▁യുവാവിനെ	-10.2669
▁വ്യക്തമാണ്	-10.2669
▁പ്രവർത്തക	-10.2669
▁ദേവി	-10.267
▁കാവ്യ	-10.2671
▁മരണപ്പെട്ട	-10.2673
04	-10.2676
▁ഉണ്ടാകുന്ന	-10.268
▁മേടം	-10.2682
▁നേട്ടങ്ങള	-10.2687
▁കെടി	-10.2689
▁ജീവനക്കാരുടെ	-10.2693
ാളി	-10.2698
▁ഏഷ്യാനെറ്റ്	-10.2699
▁മുണ്ട	-10.2701
▁ഞങ്ങള	-10.2701
▁ആപ്പ	-10.2702
▁മോഷണം	-10.2703
▁വളര്‍ത്ത	-10.2703
ുന്നതിനു	-10.2705
▁പട്ടികജാതി	-10.2706
▁സെപ്റ്റംബര്‍	-10.2706
▁കട്ട	-10.2708
▁നിക്ഷേപം	-10.2715
▁ഉറപ്പിക്ക	-10.2716
▁ടെസ്റ്റ	-10.2718
▁പുതിയതായി	-10.2721
▁പ്രവേശിച്ച	-10.2727
ോളജി	-10.2728
am	-10.2731
മായിട്ടാണ്	-10.2732
ഷാ	-10.2732
▁നീട്ട	-10.2735
▁തോന്നി	-10.2739
▁ഇതിന	-10.274
▁റോബിന്‍	-10.2743
▁63	-10.2746
▁മാര്‍ക്കറ്റ	-10.2748
▁വിദ്യാഭ്യാസം	-10.2749
▁ലഭ്യമായ	-10.2752
▁അമൃത	-10.2752
▁കാണിച്ച്	-10.2758
ാർത്ഥ	-10.2761
▁ആശ്വാസം	-10.2763
▁തരം	-10.2764
▁ഡ്രൈവര്‍	-10.2766
▁ജോര്‍ജ	-10.2767
▁വരുമ്പോള്‍	-10.2769
▁ഏർപ്പെടുത്തിയ	-10.2775
തെങ്കിലും	-10.2777
▁ഉത്തരവാദിത്തം	-10.278
▁തുടർന്നാണ്	-10.2788
ക്കുട്ടി	-10.2789
ക്കുന്നു	-10.2789
ില്ലെങ്കിലും	-10.279
▁വാസ	-10.2793
▁ഘ	-10.2794
▁പ്രവേശിപ്പിച്ചു	-10.2795
▁സജീവമായ	-10.2797
▁ഷോപ്പ	-10.2798
▁നശിപ്പിച്ച	-10.2799
▁ആവിഷ്	-10.2801
▁കൗണ്‍സില്‍	-10.2801
ട്ടാ	-10.2808
ിയില്‍	-10.2809
▁കൊച്ചിയില്‍	-10.2812
ാണെങ്കിൽ	-10.2817
▁ലോകകപ്പ	-10.2818
ിലുണ്ട്	-10.2818
നാഷണൽ	-10.282
▁സാഹചര്യമ	-10.2822
▁പ്രവർത്തനങ്ങള	-10.2824
▁ദിവസമായി	-10.2828
▁കെട്ട	-10.2829
▁പോലീസും	-10.283
▁സഹായത്തോടെ	-10.283
46	-10.2832
േജ്	-10.2833
▁മകന	-10.2836
▁രാജ്യങ്ങളും	-10.2836
കാലം	-10.2838
പ്പെട്ട്	-10.2838
▁വിധേയ	-10.2839
▁യുപിയില്‍	-10.2842
▁കന്നി	-10.2842
▁1000	-10.2842
▁ഉത്സവ	-10.2845
▁ഒക്ടോബർ	-10.2845
▁ശേഷവും	-10.2845
▁ശിശു	-10.2845
▁മണിക്കുട്ടന	-10.2847
▁ജന്മ	-10.2847
▁സ്ഥലങ്ങളില്‍	-10.2849
വാള	-10.2851
▁പ്രതികരണവുമായി	-10.2851
▁ഒന്നിന്	-10.2857
▁9,	-10.286
ത്തിനാണ്	-10.2865
▁പന	-10.2868
▁വീടുകള്‍	-10.2868
▁യും	-10.287
▁ഇറക്കിയ	-10.2873
ലക്ഷ	-10.2873
▁ദീപ	-10.2875
ക്കള	-10.2876
ൻസി	-10.2877
83	-10.2878
▁കുട്ടികൾ	-10.2878
▁ദൂര	-10.288
ുകയായിരുന്ന	-10.2882
ങ്ങാട്	-10.2883
▁പത്ത	-10.2886
▁സീറ്റിലും	-10.2887
ിലൂടെയാണ്	-10.2887
▁തരൂര്‍	-10.289
▁അഭിസംബോധന	-10.2892
▁കോർപ്പറേഷൻ	-10.2892
▁സെന്റര്‍	-10.2892
▁തികച്ച	-10.2892
▁സഞ്ചാര	-10.2896
ന്ദ്	-10.2899
▁പരിശോധനയില്‍	-10.29
▁ഭാഗങ്ങളില്‍	-10.2902
73	-10.2902
ഒരു	-10.2903
▁ലാഭ	-10.2904
ാഭ	-10.2905
▁പേർക്കാണ്	-10.2905
തിയ	-10.2906
കുന്ന	-10.2907
ക്കിടയിൽ	-10.291
▁ത്രി	-10.291
▁അര്‍	-10.2914
▁കത്തി	-10.2915
▁കുടുംബത്തെ	-10.2917
▁മറു	-10.2919
ദിന	-10.2924
92	-10.2932
ീകരണ	-10.2935
▁കേരളത്തിലേക്ക്	-10.2935
തുമായി	-10.2935
▁ഒട്ടും	-10.2936
▁വിഹിതം	-10.294
49	-10.294
▁സംശയിക്കുന്ന	-10.294
▁ഫസ്റ്റ്	-10.2944
97	-10.2946
▁ഇത്തരത്തിലുള്ള	-10.2946
ട്ടം	-10.2949
▁ആരോപിച്ചിരുന്നു	-10.2951
▁സ്ത്രീകൾ	-10.2954
ികളെ	-10.2956
▁ഹരിയാന	-10.2958
റുകള്‍	-10.296
▁ശ്ര	-10.2962
ണ്	-10.2965
▁കോളജ്	-10.2965
▁59	-10.2968
▁വീടിന്റെ	-10.297
▁അയച്ചത്	-10.2977
ബന്ധ	-10.2978
▁പ്രതികള	-10.2978
▁വെച്ചു	-10.2979
▁അയച്ചു	-10.2985
ഢ	-10.2987
▁അഫ്ഗാനിസ്ഥാന	-10.2987
▁സന്ദര്‍ശിക്ക	-10.2987
▁ധീര	-10.2987
▁അതുകൊണ്ടുതന്നെ	-10.2987
▁അഭയ	-10.2987
▁ജു	-10.2992
▁വാർത്തകൾ	-10.2994
▁ഫോറ	-10.2999
▁അനാവശ്യ	-10.3
▁രീതിയിലുള്ള	-10.3004
തം	-10.3004
▁കുടുംബത്തിന്	-10.3006
▁അമ്മയുടെ	-10.3007
▁ആളുകളുടെ	-10.3011
▁അഭിമുഖ	-10.3014
▁കോളേജിൽ	-10.3016
▁ഘട്ടം	-10.3018
▁പരിചയം	-10.3019
▁വാള	-10.302
▁ട്ടി	-10.3029
▁ഹോട്ടല	-10.303
തിനും	-10.3034
▁സാറ	-10.3034
▁ആത്മവിശ്വാസം	-10.3035
▁മത്സ്യബന്ധന	-10.3035
▁നിരോധിച്ച	-10.3035
▁വേട്ടയാട	-10.3035
▁85	-10.3035
പ്രവര്‍ത്തക	-10.304
▁ബജറ്റ	-10.3042
ങ്ങളെയും	-10.305
▁നര	-10.3053
▁ലോക്ക്ഡൗണ്‍	-10.3053
▁രക്ഷാപ്രവര്‍ത്ത	-10.3054
▁ചുമതലയുള്ള	-10.3054
▁പുരുഷൻ	-10.3057
▁കേന്ദ്രസര്‍ക്കാ	-10.3057
ങ്ങള്‍ക്കും	-10.3059
▁തൊഴിലാളികളെ	-10.3061
ുമില്ല	-10.3062
▁റഫ	-10.3062
▁രാജ്യങ്ങളിൽ	-10.3062
ാഴ	-10.3062
മാണോ	-10.3065
▁പുറപ്പെട്ട	-10.3068
ഡിയ	-10.3068
96	-10.3068
▁നയിച്ച	-10.3069
▁സീറ്റുകളാണ്	-10.3075
കളുടെയും	-10.3076
ായിരിക്ക	-10.3076
▁ഓൺലൈൻ	-10.3082
▁എൻഡിഎ	-10.3082
▁വിട്ടത്	-10.3083
▁ചിത്രത്തില്‍	-10.3083
▁മുന്നേറ്റ	-10.3084
▁കണ	-10.3086
▁രമ	-10.3088
▁ഒന്നു	-10.3092
▁തടഞ്ഞു	-10.3092
ത്തിലധികം	-10.3094
▁നിർദേശ	-10.3097
▁വര്‍ഗീയ	-10.31
വല്‍	-10.3104
▁പ്രകാരമാണ്	-10.3106
▁ശ്രമിച്ചു	-10.3107
▁ഹാജരാക	-10.3107
▁ടാസ്ക	-10.3108
യെക്കുറിച്ച്	-10.3109
▁മിഷന്‍	-10.3109
▁റണ്‍സ്	-10.311
▁പദ്ധതികൾ	-10.3112
▁ക്രൈം	-10.3113
▁ലംഘന	-10.3114
02	-10.3117
▁ഇല്ലെന്ന്	-10.3119
കൂട്ട	-10.3122
ുമ്പോഴ	-10.3127
▁സന	-10.3129
▁സിദ്ധരാമയ്യ	-10.313
▁ആയിരക്കണക്കിന	-10.313
▁തൃണമൂല	-10.3133
നിന്നും	-10.3134
▁പ്രദേശത്തെ	-10.3134
▁പാവപ്പെട്ട	-10.3135
▁ആഗ്രഹം	-10.3136
▁അസുഖ	-10.3138
▁എന്നിങ്ങന	-10.3144
▁ഹാള	-10.3144
▁ചെയ്യുമ്പോള്‍	-10.3147
▁നിരീക്ഷണം	-10.3147
▁അപ	-10.315
▁സീറ്റും	-10.3151
വര്‍ഷ	-10.3152
▁ജനങ്ങൾക്ക്	-10.3153
▁സ്ഥിര	-10.3153
രുവ	-10.3155
▁ഏത	-10.3156
▁കണക്കാക്ക	-10.3156
മറ	-10.3157
▁ഒരാള	-10.3157
▁മുന്നില	-10.3161
▁ചാനല്‍	-10.3166
▁പെണ്‍കുട്ടിയെ	-10.3172
▁രാജ്യങ്ങള	-10.3173
▁കൃത്യ	-10.3173
▁ഇരുന്ന	-10.3173
▁വനം	-10.3175
ായാലും	-10.3176
52	-10.3177
ുകൊണ്ടാണ്	-10.3178
▁നിര്‍മ്മിച്ച	-10.3179
▁ഗെയിമ	-10.3179
▁വളർച്ച	-10.3179
റ്	-10.318
▁ഉദ്ദേശിക്കുന്ന	-10.3181
▁രമ്യ	-10.3186
▁വ്യക്തിപരമായ	-10.3187
93	-10.3192
▁സിജന്‍	-10.3192
▁ഗാന	-10.3192
ഫല	-10.3193
▁സംഘടനകള്‍	-10.3193
▁അവൾ	-10.3194
▁കുന്ന	-10.3195
▁തുടര്‍ന്ന	-10.3198
▁ഏറ്റുമുട്ടല	-10.3199
▁രജിസ്	-10.32
▁പറയും	-10.3202
▁ബോംബ	-10.3206
ലം	-10.3213
▁കേന്ദ്രീകരിച്ച്	-10.3221
▁കൂടുതലായി	-10.3222
▁തുടങ്ങിയവര്‍	-10.3223
▁സമയത്ത	-10.3224
▁ആണ	-10.3225
▁തൃശ്ശൂർ	-10.3227
▁സിസിടിവി	-10.3227
▁തിയതി	-10.3227
▁സീസൺ	-10.3228
▁ദിവസങ്ങളില	-10.3228
▁പറയുന്നത	-10.3238
ാവശ്യപ്പെട്ട	-10.3242
▁എതിരായ	-10.3244
▁അയാള്‍	-10.3246
▁ഉള്‍പ്പെട്ട	-10.3248
▁കെജ്രിവാള്‍	-10.3251
▁ശക്തമാക്ക	-10.3256
ുവിന്റെ	-10.3259
▁സാമ്പത്തികമായി	-10.3262
▁വിലയിരുത്തി	-10.3265
▁കാര്‍ഡ	-10.3266
▁താഴ	-10.327
▁മാര്‍	-10.327
▁സഹോദരന്‍	-10.3274
▁വരിക	-10.3275
ടം	-10.3275
▁കിഫ്ബി	-10.3276
▁സർവകലാശാല	-10.3276
റ്റില്‍	-10.3276
▁എന്‍ഐഎ	-10.3277
▁എതിര്‍പ്പ	-10.3279
പോർട്ട	-10.328
▁മോഡല	-10.328
r	-10.328
ടിച്ച്	-10.3281
▁സംഘത്തിന്	-10.3283
▁ചൊല്ലി	-10.3284
▁മലയാളികള്‍	-10.3288
▁മോശമായി	-10.3289
▁തുടര്‍	-10.3289
▁ആഗ്രഹിച്ച	-10.3293
▁ട്രെയിന്‍	-10.3297
▁തരംഗം	-10.3297
ുന്നതിന	-10.3298
ജു	-10.3299
▁അധ്യാപക	-10.33
▁ഉം	-10.3301
▁സായ്	-10.3302
▁പെരുമാറ്റ	-10.3305
▁വസതി	-10.3305
▁ശക്തമാക്കിയ	-10.3305
▁വിജയന്റെ	-10.3308
▁അറ്റ	-10.3308
യാള്‍	-10.3308
▁സ്വീകരിക്കുന്ന	-10.331
വരിൽ	-10.3312
േണ്ടതില്ലെന്ന	-10.3313
▁കാരിക	-10.3314
▁തങ്ങളെ	-10.3315
▁മാലിന്യ	-10.3316
▁ഒന്നാണ്	-10.3319
▁സ്വീകരിച്ചു	-10.3322
▁യൂണിവേഴ്	-10.3325
k	-10.3325
▁കയറ്റുമതി	-10.3325
▁ചെലവഴിച്ച	-10.3325
▁ഹരീഷ്	-10.3325
▁ബ്രാഞ്ച്	-10.3326
▁മരിക്ക	-10.3328
▁ജയം	-10.3328
▁കോന്നി	-10.3329
▁പാകിസ്താന്‍	-10.3332
▁അധ്യക്ഷന	-10.3335
ശീല	-10.3338
▁മോദിയെ	-10.3342
▁സൈസ്	-10.3346
▁ചെയ്യണമെന്ന	-10.3351
▁ബോർഡ	-10.3351
▁നമുക്ക	-10.3356
▁കൈയ്യ	-10.3356
▁ഉണ്ടായിരിക്ക	-10.3358
ുണ്ടെങ്കിൽ	-10.3359
▁കല്യാണ	-10.3359
79	-10.336
ന്മാർ	-10.3361
▁രീതിയിലാണ്	-10.3362
66	-10.3364
▁ബഹു	-10.3365
▁ഗ്രാമപഞ്ചായത്ത്	-10.3368
▁കൊണ്ടുവരാന	-10.3371
▁സീറ്റുകള	-10.3371
▁മിന്ന	-10.3372
b	-10.3374
▁തെരഞ്ഞെടുക്ക	-10.3374
▁കത്തയച്ച	-10.3374
61	-10.3375
മുണ്ടാകും	-10.3377
▁ആലോചന	-10.3377
▁സഹോദരന	-10.3377
ഈ	-10.3383
▁നിലയ്ക്ക	-10.3387
േശ്വര	-10.3388
▁കുറ്റപ്പെടുത്ത	-10.3392
▁സഭയില്‍	-10.3392
▁രണ്ടര	-10.3392
ിട്ടുണ്ടെന്നാണ്	-10.3393
▁അനുവദിക്കില്ല	-10.3396
ത്തോടെയാണ്	-10.3397
▁ഭർത്താവ	-10.3401
▁തെളിവുകള	-10.3402
ഞ്ചേരി	-10.3403
▁അന്വേഷണത്തിന്	-10.3404
▁മോഹന്‍	-10.3404
▁കോളേജിലെ	-10.3405
▁ഹൈക്കമാന്‍ഡ്	-10.3405
▁68	-10.3406
▁പ്രതിഫലം	-10.3408
ായും	-10.3408
▁ബൈഡന	-10.341
▁ബസ്സ	-10.3412
▁തെളിഞ്ഞ	-10.3413
▁വിജയി	-10.3413
▁പഞ്ചാബില്‍	-10.3415
▁പുസ്തക	-10.3415
കൂട	-10.3418
▁വെള്ളി	-10.3422
▁മനുഷ്യര	-10.3424
▁ഉപതിരഞ്ഞെടുപ്പ്	-10.3425
ക്കുകയായിരുന്നു	-10.3425
▁യെ	-10.3425
▁പേരിലാണ്	-10.3426
▁വിവരങ്ങളും	-10.3427
ദ്ദ	-10.3428
▁വിഭാഗത്തിന്	-10.3431
62	-10.3432
▁പത്താം	-10.3432
▁ഉറപ്പു	-10.3436
▁ഓഫിസ	-10.3437
ാനു	-10.3443
▁വിഭാഗത്തിന്റെ	-10.3445
നിന്ന	-10.3445
▁മീന	-10.3448
▁നാസ	-10.345
▁കുടുംബത്തിന്റെ	-10.3453
ഗ്ഗ	-10.3454
ഫീ	-10.3456
▁സാമ	-10.3458
▁പൈ	-10.3458
▁അധ്യക്ഷത	-10.3464
34	-10.3468
▁നേതാവിന്റെ	-10.3471
▁ട്വന്റി	-10.3474
▁ജനവിധി	-10.3474
▁വാങ്ങാന്‍	-10.3474
ക്കുമ	-10.348
▁കൊടുത്തു	-10.3481
▁ലീഗിന്റെ	-10.3481
തിലും	-10.3483
▁വീടുകളിലും	-10.3484
യൊന്നും	-10.3485
▁ബിസിനസ	-10.3487
▁അക്രമം	-10.349
▁ജില്ലകളിലെ	-10.3492
ബർ	-10.3492
▁എന്നിവയ	-10.3493
▁നടത്തുമെന്ന	-10.3495
▁പുറത്താക്കിയ	-10.35
▁സീറ്റുകളിൽ	-10.3502
▁കൊടുക്കുന്ന	-10.3502
മംഗലം	-10.3504
▁ഇല	-10.3504
▁വിജയിച്ചു	-10.3505
▁ഒരുപോലെ	-10.3506
▁ബൂത്തുകള	-10.3509
▁ചോദ്യങ്ങള്‍	-10.351
▁കാറ്റിന	-10.3511
▁ന്‍	-10.3512
▁വ്യക്തമായി	-10.3514
ക്ത	-10.3517
▁പടി	-10.3518
ാനായിരുന്നു	-10.3519
ബെ	-10.352
▁പ്രചാരണത്തിന്	-10.352
ധാര	-10.352
▁പലയിടത്തും	-10.3524
▁മെച്ചപ്പെടുത്ത	-10.3524
▁പ്രതിഷേധിക്ക	-10.3524
▁ധനകാര്യ	-10.3525
▁പവാര്‍	-10.3528
▁നഷ്ടപ്പെട	-10.353
▁വളര	-10.353
▁സ്റ്റേഷന	-10.353
ാഹ	-10.3531
▁ധനു	-10.3532
ൊട്ട	-10.3534
ുകൊണ്ടിരിക്കുന്ന	-10.3535
ർമാർ	-10.3538
▁സഖ്യത്തിന്	-10.3539
59	-10.3541
▁ചിങ്ങം	-10.3542
▁നാട്ടിലെ	-10.3544
74	-10.3545
▁നിയമങ്ങള്‍	-10.3548
▁സർവേ	-10.3548
▁ഘട്ടത്തിൽ	-10.3548
▁കാരണമായ	-10.3549
പ്പെടും	-10.3558
▁ആഴ	-10.3559
▁ഗൃഹ	-10.3563
▁അകത്ത	-10.3563
വഴി	-10.3563
▁അഭിപ്രായപ്പെട	-10.3567
▁കാര്യമ	-10.3569
▁വീണു	-10.3572
▁ആനന്ദ്	-10.3576
വൽ	-10.3578
▁കൊറിയ	-10.3581
▁വിഭാഗത്തിൽ	-10.3582
▁അധികൃതര	-10.3582
▁നിര്‍	-10.3583
▁ഉദ്യോഗസ്ഥ	-10.3585
▁ആരോഗ്യവകുപ്പ്	-10.3585
▁വ്യക്തത	-10.3589
ത്തിനെ	-10.359
▁ആരുടെ	-10.3593
▁വോട്ടു	-10.3593
▁ട്രോള	-10.3594
▁തടയാന്‍	-10.3597
▁ആക്ഷേപം	-10.36
▁നന്ദ	-10.3601
57	-10.3604
▁ചിത്രത്തിന്റെ	-10.3605
▁റഷ്യയുടെ	-10.3605
▁ഞങ്ങളെ	-10.3606
ർക്ക	-10.3606
ര്‍ട്ട്	-10.3611
▁വരുന്നുണ്ട്	-10.3616
▁നടത്തുന്നു	-10.3617
▁പാര	-10.362
▁നിര്‍ത്തിയ	-10.3622
▁ആശുപത്രികളിലും	-10.3622
▁കാര്യങ്ങളില്‍	-10.3623
▁വെബ്സൈറ്റ	-10.3624
▁വമ്പന്‍	-10.3624
▁94	-10.3625
▁അതോടൊപ്പം	-10.3626
▁ഡിഗ്രി	-10.3628
▁അറ	-10.3628
▁സംഘവും	-10.363
▁ചിറ്റ	-10.3633
▁നമ്മള	-10.3635
▁ഗാന്ധിയും	-10.3638
▁ഓട	-10.364
▁ആരിഫ്	-10.3642
▁അതിനായി	-10.3643
▁റണ്‍സ	-10.3645
▁അയ്യപ്പ	-10.3646
▁വിക്കറ്റ്	-10.3647
ായിരിക്കണം	-10.365
യാക്കിയ	-10.3651
▁ഉദ്ധവ്	-10.3654
▁ജലീല്‍	-10.366
▁നല്‍കുകയും	-10.3661
േജ	-10.3662
▁ഉന്നയിക്കുന്ന	-10.3662
കൃത	-10.3664
എഫ	-10.3667
▁69	-10.3669
'-	-10.367
▁ദക്ഷിണാഫ്രിക്ക	-10.3675
▁ബഹിരാകാശ	-10.3675
▁ഭരണാധികാരി	-10.3675
▁നിര്‍മിച്ച	-10.3675
▁പ്രയാസ	-10.3675
ിക്കാനുള്ള	-10.3677
▁മജിസ്	-10.3678
▁അവകാശപ്പെട്ട	-10.3679
▁വോട്ടിന്റെ	-10.368
വെന്ന്	-10.3683
▁ചൈനയുടെ	-10.3688
▁കോട്ടയത്ത്	-10.3689
▁തീരത്ത്	-10.3689
ൊന്നുമില്ല	-10.369
ച്ചത്	-10.3691
ണാ	-10.3692
▁പ്ലേ	-10.3694
െന്നുമാണ്	-10.3697
ക്ഷൻ	-10.37
▁മരുന്ന	-10.3701
▁ജെഡിയു	-10.3702
▁അഖില	-10.3703
▁സ്ത്രീകളും	-10.3704
▁വർഗീയ	-10.3704
▁ഹൈദരാബാദ	-10.3707
▁മുടക്ക	-10.371
▁ഓഫീസിൽ	-10.3717
▁ചേര്‍ത്ത	-10.3721
▁മറുപടിയുമായി	-10.3724
▁റെക്കോര്‍ഡ്	-10.3725
▁സന്ദർശിച്ച	-10.3726
▁മണിക്കൂർ	-10.3726
ോടെയാണ്	-10.3727
▁പ്രവര്‍ത്തക	-10.3728
▁ഫോർ	-10.3739
▁ട്രംപിന്റെ	-10.3746
എസ	-10.3747
▁പ്രവര്‍ത്തകരെ	-10.375
41	-10.375
▁ഇപ്പോഴ	-10.375
▁സഞ്ചരിക്ക	-10.3752
മ്പാ	-10.3753
തയും	-10.3754
▁സിപിഎമ്മിന്	-10.3755
▁അയ	-10.3756
▁കമ്പനികള	-10.3757
▁വ്യവസായി	-10.376
ഴുത	-10.3762
▁അതിലൂടെ	-10.3762
72	-10.3765
പട	-10.3773
▁താമസിക്ക	-10.3777
▁അന്വേഷണത്തില്‍	-10.3778
▁കുടുംബശ്രീ	-10.3779
▁ഇന്ത്യക്ക്	-10.378
െടുത്തത്	-10.378
▁പ്രസ്	-10.3781
▁കിട്ടി	-10.3785
ാനാകില്ല	-10.3786
▁താരതമ്യം	-10.3787
▁74	-10.3787
▁സംവരണം	-10.3788
▁ചിലവ	-10.379
▁ജയിലില	-10.3791
▁അതിക്രമ	-10.3793
ത്തിലേറെ	-10.3793
▁സീസണ	-10.3793
▁വികാരം	-10.3794
ിയാല്‍	-10.3798
▁പിടിക്കാന്‍	-10.38
▁കാലയളവില്‍	-10.3802
▁തൊട്ട്	-10.3804
▁വകുപ്പുകള്‍	-10.3805
▁പരിശോധിച്ചത്	-10.3809
▁ദ്	-10.381
..?	-10.3815
ളള	-10.3816
▁ന്യായ	-10.3823
▁പ്ലാന്റ	-10.3823
▁സ്റ്റേഷന്‍	-10.3825
ചാര	-10.3828
▁ഒഡീഷ	-10.3829
▁നറുക്കെടുപ്പ	-10.3829
▁ചുരുക്ക	-10.383
▁പ്രക്രിയ	-10.383
▁ക്രൂഡ്	-10.3832
▁അംഗങ്ങള	-10.3833
▁അടങ്ങിയ	-10.3834
▁സിദ്ദു	-10.3837
▁മത്സ്യത്തൊഴിലാള	-10.3839
▁പക	-10.384
▁സെൽ	-10.3844
▁പെട്രോള്‍	-10.3854
▁കഥാപാത്ര	-10.3855
▁ഉദ്യോഗസ്ഥരുടെ	-10.3862
▁സന്നദ്ധ	-10.3863
ബ്ര	-10.3864
▁അതിശക്തമായ	-10.3866
ഗിരി	-10.3866
ൂരില്‍	-10.3867
സൺ	-10.3869
▁സൂചിപ്പിച്ച	-10.3872
തുമാണ്	-10.3874
▁66	-10.3875
▁ജയില്‍	-10.3875
O	-10.3881
▁ആണ്‍കുട്ടി	-10.3881
▁ഇറാഖ	-10.3881
▁സങ്കട	-10.3881
▁സെറീന	-10.3882
▁കുത്തനെ	-10.3883
▁ഉമ	-10.3884
ർണ	-10.3886
യിന്‍	-10.3888
▁അവിശ്വാസ	-10.3888
▁ബ്രിട്ടന	-10.3888
▁വിഭാഗങ്ങള	-10.3891
ഫ്റ്റ	-10.3891
▁ജയരാജൻ	-10.3891
പാത	-10.3895
▁നാഥ്	-10.3896
▁സ്വദേശികള്‍	-10.3898
▁ഇപി	-10.39
▁പുതുക്ക	-10.3902
▁കൈവരിക്ക	-10.3903
▁സാഹചര്യങ്ങള	-10.3904
▁വിവാദമായ	-10.3906
▁പോളിങ്	-10.3911
ുവരുന്ന	-10.3911
▁മാനദണ്ഡങ്ങള്‍	-10.3911
▁അപകടത്തിൽ	-10.3913
▁സ്വന്തമാക്ക	-10.3913
▁ചെലുത്ത	-10.3914
▁പോലീസുകാര	-10.3917
▁ദിനത്തില്‍	-10.392
▁മുന്നേറ	-10.3926
▁കരണ	-10.3926
▁പരാമർശ	-10.3929
▁റിപ്പോര്‍ട്ടില	-10.3932
▁താപനില	-10.3933
ർമ്മ	-10.3933
▁ലിസ്റ്റ	-10.3933
▁അച്ചടക്ക	-10.3934
▁ഒഴുക്ക	-10.3934
51	-10.3938
▁C	-10.3939
േര	-10.394
▁വേണുഗോപാല	-10.394
തായ	-10.394
റ്റോ	-10.3941
രാക	-10.3944
▁കാർഡ	-10.3945
ര്‍ക്ക്	-10.3948
▁പാടില്ലെന്ന	-10.3951
▁ഹൈദരാബാദ്	-10.3952
▁കര്‍ഷകരുടെ	-10.3953
▁പൊലീസിന്റെ	-10.3955
▁കാത്തിരിക്കുന്ന	-10.3956
▁മേഖലകളിൽ	-10.3957
▁കാരി	-10.3958
▁അഭിനയ	-10.396
കൂ	-10.3965
▁കണ്ടെടുത്ത	-10.3966
▁തരത്തില്‍	-10.3968
▁ഇവര	-10.397
ുന്നുവെന്ന്	-10.3971
▁മന്ത്രിസഭാ	-10.3973
ിപ്പിക്കുന്ന	-10.3974
ല്ലാതെ	-10.3977
▁അവകാശം	-10.3983
▁നിർദ്ദേശ	-10.3983
▁ജോസഫ	-10.3983
പ്പെട്ടിരുന്നു	-10.3985
▁അമേരിക്കയില്‍	-10.3985
▁പ്രസിദ്ധീകരിച്ച	-10.3985
▁ഉപേക്ഷിക്ക	-10.3985
▁പച്ചക്കറി	-10.3985
▁ഉത്തര്‍പ്രദേശില	-10.3986
▁മൂന്നാമത്തെ	-10.3986
ർട്ട്	-10.3986
▁സിനിമയിലെ	-10.399
▁ന്റെ	-10.3992
▁12,	-10.3994
സമിതി	-10.3995
63	-10.3997
▁സമ്മേളനത്തില	-10.3999
▁ഇവർക്ക്	-10.4
ങ്ങ്	-10.4001
െക്കുറിച്ച്	-10.4001
കളോട്	-10.4003
യോട	-10.4003
▁ചാല	-10.4005
▁അസമ	-10.4006
▁മരണത്തിന്	-10.4006
64	-10.4009
മത	-10.4009
▁ഭാരത	-10.401
▁ബോംബ്	-10.4011
▁സ്റ്റാഫ്	-10.4015
ഭവ	-10.4016
▁തിരിച്ചടിയാണ്	-10.4016
▁അഭിമുഖത്തില്‍	-10.4017
58	-10.4017
▁ക്രിക്കറ്റ	-10.4021
മുണ്ടെന്ന്	-10.4021
യായത്	-10.4025
▁വോട്ടുകള	-10.4027
▁കമല്‍നാഥ്	-10.4029
▁എന്താണെന്ന്	-10.4036
▁തുടർന്ന	-10.4038
▁സമ്പത്ത	-10.4038
▁400	-10.4038
▁ശൈലി	-10.4038
▁പരിസ്ഥിതി	-10.4038
▁താരങ്ങള	-10.4039
▁മതിയെന്ന	-10.4041
▁ധാ	-10.4041
▁സൗജന്യമായി	-10.4042
▁തകര	-10.4044
▁ചര്‍ച്ചയില്‍	-10.4049
▁കീഴിൽ	-10.4053
▁തുടരുന്നു	-10.4056
98	-10.4057
▁ഓർമ്മ	-10.4058
ോടുള്ള	-10.4058
ക്കാരനായ	-10.4058
▁കൊടി	-10.4059
▁അല്ലാത്ത	-10.4061
▁പറ്റില്ല	-10.4068
ിയും	-10.4069
▁മുത്ത	-10.4069
▁തടവ	-10.4075
▁അനുഭവിച്ച	-10.4077
▁നിർമ്മാണ	-10.4087
▁ചെയ്താല്‍	-10.4087
ഷിപ്പ്	-10.409
▁ബാലചന്ദ്ര	-10.4092
▁നിയമനടപടി	-10.4092
▁ചാര	-10.4092
▁സാധാരണക്കാര	-10.4095
▁നേതൃത്വത്തില	-10.4095
▁മാന	-10.4096
▁ബോട്ട	-10.4097
▁ഇടയില്‍	-10.4099
▁ന്ന്	-10.4103
R	-10.4103
▁മറിച്ച്	-10.4104
▁കപ്പല	-10.4105
▁ഉയര്‍ന്നിരുന്നു	-10.4106
▁വിളി	-10.4108
▁പരാമര്‍ശ	-10.4111
▁പരാതിയിൽ	-10.4111
▁കുറ്റകൃത്യ	-10.4118
▁77	-10.4118
▁സ്വീകരിക്കും	-10.412
▁സംസാരിക്കുകയ	-10.412
ള്ളി	-10.4127
▁ഇരിക്കുന്ന	-10.4128
▁ബന്ധുക്കള	-10.4136
▁കാപ്പന്‍	-10.4137
▁ഇരട്ടി	-10.4139
രിച്ച	-10.4139
കളെല്ലാം	-10.4141
േക്കുള്ള	-10.4143
▁ഔട്ട്	-10.4144
▁എന്നിരുന്നാലും	-10.4144
ങ്ങളില	-10.4144
▁പാഠ	-10.4147
▁എല്‍ഡിഎഫിന്	-10.4148
▁ഉണ്ടായിട്ടില്ല	-10.4148
▁വര്‍ധിപ്പിച്ച	-10.4149
▁വികാര	-10.4149
▁ലാല്‍	-10.4155
▁ആരാധകർ	-10.4155
▁ക്രിമിനല്‍	-10.4156
▁പിടിച്ചെടുക്ക	-10.4157
▁സോണ	-10.4159
▁ഉള്‍പ്പെടുത്ത	-10.4159
▁കേസുകളുടെ	-10.416
▁ദൃശ്യങ്ങള	-10.416
▁സംഖ്യ	-10.4162
▁രാജാവ	-10.4164
പോലെ	-10.4165
▁യൂറോപ്പ	-10.4165
▁ഏതു	-10.4172
▁ദിലീപിനെ	-10.4179
▁തനിക്കെതിരെ	-10.418
തുപോലെ	-10.418
▁ഉപേക്ഷിച്ച	-10.4183
ുതന്നെ	-10.4188
ാക്രമണ	-10.419
▁ഉയർത്തിയ	-10.4193
▁റെയില്‍	-10.4193
▁എംഎം	-10.4196
▁മരണമടഞ്ഞ	-10.4197
▁ആവര്‍ത്തിക്ക	-10.4197
▁റോബിൻ	-10.4197
▁കൂട്ടായ്മ	-10.4198
▁ലളിത	-10.4198
▁തീരദേശ	-10.4199
കെട്ട	-10.4199
▁അടച്ചിട	-10.42
▁വനംവകുപ്പ്	-10.4201
▁ആളുകള്‍ക്ക്	-10.4201
ചര	-10.4204
▁അക്രമി	-10.4204
h	-10.4205
ാതി	-10.4206
വാന	-10.4206
ിലേയ്ക്ക്	-10.4212
ത്തുള്ള	-10.4212
മുണ്ടായിരുന്നു	-10.4213
▁തിരഞ്ഞെടുപ്പിനെ	-10.4214
▁പേരുടെയും	-10.4214
▁പെന്‍ഷന്‍	-10.4214
ാനം	-10.4214
രിഞ്ഞ	-10.4216
▁കോണ്‍	-10.4219
ൻ്റ	-10.422
▁വിഭാഗ	-10.4225
ക്കണം	-10.4227
▁വീര	-10.4231
▁തവണയും	-10.4233
▁ഭേദ	-10.4234
▁ബിന്‍	-10.4234
..!	-10.4235
▁സംവരണ	-10.424
േയ	-10.424
ര്‍ജ	-10.4242
▁രാജ്യത്തിന്	-10.4244
▁സ്റ്റേഷനില്‍	-10.4245
▁നിർബന്ധ	-10.4245
▁കാത്തിരിക്ക	-10.4247
▁ലുക്ക	-10.4251
▁ദശലക്ഷം	-10.4251
▁ജൂലായ	-10.4251
▁ദൗത്യ	-10.4252
al	-10.4253
▁നിരോധനം	-10.4254
▁സിക്	-10.4256
▁കർഷകർ	-10.4257
▁നദ്ദ	-10.4261
ഇന്ത്യ	-10.4264
▁ഉള്‍പ്പെടുന്ന	-10.4264
▁ഉറങ്ങ	-10.4273
ൂരിൽ	-10.4276
▁ദിവസങ്ങള്‍	-10.4277
▁അത്ഭുത	-10.4278
▁കേന്ദ്രത്തിന്റെ	-10.4279
▁ആസാദ്	-10.4279
▁മുകളിലുള്ള	-10.4281
▁ഇടപെട്ട്	-10.4284
ര്‍ട്ട	-10.4287
ചെ	-10.4287
▁നെല്ല	-10.4288
▁മുകളില	-10.4291
പറഞ്ഞ	-10.4293
v	-10.4295
ങ്ങളിലെ	-10.4295
▁താല്‍പര്യം	-10.4296
യറ്റ	-10.4297
▁വീണ്	-10.43
▁വ്	-10.4301
▁നടന്നിരുന്നു	-10.4305
▁ശുപാര്‍ശ	-10.4305
▁മറിച്ച	-10.4306
▁ദിവസത്തിനുള്ള	-10.4307
▁കരിക്ക	-10.4308
▁വായിച്ച	-10.4309
▁വള	-10.431
▁ഉയർത്തി	-10.4311
▁സമ്മത	-10.4311
▁നാട്ടുകാര	-10.4313
▁ഇതൊന്നും	-10.4314
▁സ്ത്രീകളുടെ	-10.4314
ളം	-10.4315
▁ആരോ	-10.4318
▁എന്നിവർക്ക	-10.4319
T	-10.4319
▁അഭിഭാഷകന്‍	-10.4319
▁പഠിപ്പിക്ക	-10.4319
▁ചടങ്ങിൽ	-10.432
91	-10.432
▁അഭിമുഖം	-10.4323
▁തെളിയിച്ച	-10.4325
▁നിഷേധിക്ക	-10.4329
▁വോ	-10.4333
▁നേരം	-10.4339
▁പ്രവർത്തി	-10.4341
▁തൊഴിലാളികള	-10.4343
▁വ്യ	-10.4343
റിലെ	-10.4344
▁സൂക്ഷിക്ക	-10.4345
▁ബിജെപിയിലേക്ക്	-10.435
സ്ട്ര	-10.435
▁ഒഴിവ	-10.4352
▁കമ	-10.4352
ത്തേയും	-10.4353
▁ഡ്രൈവർ	-10.4355
▁നീക്കങ്ങള്‍	-10.4359
ശേഷി	-10.436
▁പൊതുമരാമത്ത്	-10.436
▁വാണിജ്യ	-10.436
▁സെക്യൂരിറ്റി	-10.436
▁പന്ത്രണ്ട	-10.436
▁നിര്‍ദേശങ്ങള്‍	-10.4361
കൊടുത്ത	-10.4364
▁ലക്ഷത്തോള	-10.4364
▁കാലത്ത	-10.4365
▁ഐപിഎല്ല	-10.4365
▁എറണാകുളത്ത്	-10.437
E	-10.4373
മാണെന്നാണ്	-10.4374
പ്പറ	-10.4375
▁എത്തിച്ചത്	-10.4376
▁നോക്കാം	-10.4377
▁തട്ടി	-10.4379
ർത്തി	-10.4382
▁ഇരയായ	-10.4383
യോടും	-10.4387
▁വണ്‍	-10.439
▁അതോ	-10.4392
▁വിലയിരുത്തപ്പെട	-10.4396
▁അന്ത	-10.4399
▁71	-10.44
▁വിലയില്‍	-10.4401
ല്ലൂര്‍	-10.4407
▁ഉണ്ടെന്നും	-10.4412
▁അമ്പ	-10.4413
▁കളമശ്ശേരി	-10.4414
▁ബഹിഷ്	-10.4414
▁പുലർച്ചെ	-10.4414
▁പ്രചരിപ്പിച്ച	-10.4414
▁വിരാട്	-10.4414
▁നിവാരണ	-10.4414
▁വിചാരിച്ച	-10.4414
▁ഒഴിയ	-10.4414
▁യുവജന	-10.4417
സൈ	-10.4419
▁യൂണിറ്റ്	-10.4419
▁പരാജയം	-10.4425
▁ആശുപത്രികള	-10.4425
▁എട്ട	-10.4426
▁ഓടെ	-10.4427
▁ജീ	-10.4427
ഷോ	-10.4428
ാതിരുന്നത്	-10.4431
▁കണ്‍	-10.4433
▁ഡിസ്	-10.4433
▁പറയുകയും	-10.4436
▁തര്‍ക്കം	-10.4438
▁ചികിത്സയിൽ	-10.4442
മ്പോ	-10.4446
▁ഒറ്റയ്ക്ക്	-10.4447
▁പിടിയിലായ	-10.4448
▁സമീപത്തെ	-10.4448
തിനേക്കാള്‍	-10.4451
▁രംഗത്തെത്തിയത്	-10.4454
ക്കാരും	-10.4459
രായി	-10.446
ൂറ	-10.4461
▁ലക്ഷദ്വീപ്	-10.4462
▁ഞെട്ടി	-10.4463
▁സമാജ്	-10.4469
▁യെഡിയൂരപ്പ	-10.4469
▁അഭിനന്ദന	-10.4469
ചാ	-10.4469
▁കരുതുന്ന	-10.4469
▁കാഞ്ഞിരപ്പള്ളി	-10.4469
▁രാമക്ഷേത്ര	-10.447
▁കാര്യമില്ല	-10.4471
▁ക്യാമ്പുകള	-10.4472
യുടേത	-10.4472
ക്കുമെന്ന്	-10.4474
തെന്നായിരുന്നു	-10.4475
▁ജോഷി	-10.4475
യിലേക്കും	-10.4476
▁കാഴ്ച്ച	-10.4477
▁ഡല്‍ഹിയില്‍	-10.448
▁അയോധ്യ	-10.4482
▁പ്രവര്‍ത്തി	-10.4485
▁പങ്കെടുക്കും	-10.4485
▁ട്വിറ്ററില്‍	-10.4487
▁സീറ്റിൽ	-10.4488
▁ഉന്നയിച്ചത്	-10.449
▁തുടക്കത്തില്‍	-10.4493
▁ഇന്‍സ്	-10.4494
മുണ്ടെന്നും	-10.4498
▁അറിയാതെ	-10.4503
പ്പെടുത്തുന്ന	-10.4503
▁കോൺഗ്രസും	-10.4504
▁പ്രശസ്ത	-10.4504
▁ഞെട്ടിക്കുന്ന	-10.4506
▁ആൾ	-10.4506
▁നീക്കങ്ങള	-10.4507
▁ആവശ്യമില്ല	-10.4509
▁പൗര	-10.451
▁പ്രാധാന്യ	-10.4511
േല	-10.4512
▁99	-10.4513
▁വീട്ട	-10.4516
െടുത്തു	-10.4517
ങ്ങനെ	-10.4519
▁മീറ്ററ	-10.4523
▁താത്കാലിക	-10.4524
▁ഗംഭീര	-10.4524
▁പൂർണ്ണ	-10.4524
▁അനുബന്ധ	-10.4525
▁അബ്ദുള്‍	-10.4527
▁ഡോക്ടർ	-10.4527
▁ലൈന	-10.4528
▁മേല	-10.4532
▁സംരക്ഷണം	-10.4532
▁തവണയാണ്	-10.4532
▁റാവു	-10.4534
▁സമ്പന്ന	-10.4536
▁പിതാവ	-10.4536
യുമ	-10.4537
സംഘടന	-10.4539
▁മോഹ	-10.4539
M	-10.4539
▁മുടി	-10.4539
▁മത്സരിക്കുമെന്ന	-10.454
രേഖ	-10.4541
▁ഒപ്പ	-10.4541
▁സംസ്ഥാനങ്ങളിലും	-10.4543
▁ശ്രമങ്ങള്‍	-10.4543
▁മുക്തി	-10.4543
▁അപ്പോൾ	-10.455
▁തരൂര	-10.4554
▁കൂട്ടം	-10.4559
ജന്‍	-10.456
▁കേരളത്തിലും	-10.4561
പിള്ള	-10.4562
യാന	-10.4569
▁വിധിച്ച	-10.457
▁ഉയരുന്നത്	-10.4571
▁പ്രവചന	-10.4571
ക്കുറിച്ച	-10.4574
▁ചെയ്യണമെന്ന്	-10.4574
▁സംഭവത്തിന്	-10.4575
▁പാര്‍ക്ക	-10.4577
▁തൊടുപുഴ	-10.458
▁സെഞ്ച്വറി	-10.458
▁മാരാർ	-10.458
▁ഇരിട്ടി	-10.458
▁തലമുറ	-10.4583
▁മുതലാണ്	-10.4583
▁മഴയ്ക്ക	-10.4584
ാബാദ്	-10.4585
▁പ്രി	-10.4586
▁ലക്ഷ്യമിട്ട	-10.4587
▁സഞ്ജു	-10.4589
▁സ്റ്റേഷനുകള	-10.459
▁പിന്തുണച്ച്	-10.459
▁അഫ്ഗാന	-10.4591
ിൻറെ	-10.4593
ബ്ബ	-10.4597
▁നടന	-10.4606
▁ലിം	-10.4606
▁ഉപയോഗപ്പെടുത്ത	-10.4607
ുകാര്‍	-10.4607
▁സിനും	-10.461
▁സ്വർണം	-10.461
▁വരുമെന്ന്	-10.4614
▁ബന്ദ	-10.4616
ഡെ	-10.4616
▁ഉരു	-10.4619
▁മുഴ	-10.4621
ക്കിയ	-10.4622
മെങ്കിലും	-10.4627
▁അനധികൃത	-10.4628
േക്കാള്‍	-10.4629
54	-10.463
▁സംഭവങ്ങള	-10.463
▁ധി	-10.463
മാര്‍ക്ക്	-10.4632
ക്കാർക്ക്	-10.4635
▁കല്‍പ്പറ്റ	-10.4636
▁പതിനഞ്ച	-10.4636
▁നില്‍ക്കുന്നത്	-10.4636
▁പേരില	-10.4638
▁ഡിപ്ലോമ	-10.4639
▁കുട്ടികള്‍ക്ക്	-10.4644
▁ഉണ്ടാക്കുന്ന	-10.4644
തിലൂടെ	-10.4646
▁ലു	-10.4648
ല്ലാ	-10.4649
ുന്നവര്‍	-10.465
കുമാറ	-10.4651
▁കാത്തിരുന്ന	-10.4654
71	-10.4659
▁സ്ഥിരമായി	-10.4661
▁പോട്ട	-10.4661
ൻഡ്	-10.4663
▁അമ്മയെ	-10.4664
▁പൂര്‍ത്തിയായ	-10.4665
▁സംസാരിക്കുന്ന	-10.4666
▁എസ	-10.4667
▁പോലെയാണ്	-10.4669
ക്കാര്‍ക്ക്	-10.4673
▁സീസണില്‍	-10.4676
▁പ്രോ	-10.4676
▁ചെയ്യുകയാണ്	-10.4678
▁വീഡിയോയില്‍	-10.4681
▁വാര	-10.4682
▁പുലി	-10.4682
▁അവരോട	-10.4683
▁അമേരിക്കയുടെ	-10.4687
▁കൊണ്ടിരിക്കുകയ	-10.4689
▁അപമാനിക്ക	-10.4692
▁പ്രചരിച്ച	-10.4692
▁അണക്കെട്ട	-10.4693
▁രണ്ടാഴ്ച	-10.4693
▁പലതവണ	-10.4695
കരമാണ്	-10.4696
ാന്ത	-10.4698
ായിരുന്നില്ല	-10.4701
▁തന്നോട്	-10.4701
▁ഒഴിവുകള്‍	-10.4702
▁വിദ്യാർത്ഥികള	-10.4703
▁കുടുംബത്തിലെ	-10.4705
▁പരിപാടികള്‍	-10.4705
▁റോബിന	-10.4706
▁കേന്ദ്രങ്ങള്‍	-10.4706
▁സമീപിച്ചത്	-10.4707
ക്കർ	-10.4709
▁മറിയ	-10.4709
ുണ്ടാകുന്ന	-10.4709
▁നില്‍ക്കുകയാണ്	-10.4712
▁വാക്കുകള	-10.4713
▁ഭീഷണിപ്പെടുത്ത	-10.4715
▁ബാധിച്ചു	-10.4717
▁ചേര്‍ന്നാണ്	-10.472
ുണ്ടാവ	-10.4721
▁കത്തില്‍	-10.4724
▁സ്ഥിരീകരിച്ചവര	-10.4725
▁വേഗത	-10.4727
▁വിമര്‍ശിച്ച	-10.4728
ാര്‍ത്ഥ	-10.4728
▁കേരളാ	-10.4734
പ്പുറ	-10.4737
▁I	-10.474
ഗു	-10.4741
▁നല്‍കുമെന്ന	-10.4745
ത്തിലേക്ക	-10.4748
▁നദി	-10.4748
▁ആന്ധ്ര	-10.4748
▁ചാലക്കുടി	-10.4749
▁യാഥാര്‍ത്ഥ്യ	-10.4749
▁ക്രമസമാധാന	-10.4749
▁സര്‍ക്കാരും	-10.4752
വിഷ	-10.4757
ിരുന്നുവെങ്കിലും	-10.4758
▁വിമർശിച്ച	-10.4758
▁വോട്ടെണ്ണല്‍	-10.4761
നാട	-10.4762
▁പിന്തുണയും	-10.4767
ത്തം	-10.4771
▁നേരിട്ടത്	-10.4774
▁വേണമെന്നും	-10.4774
▁ടൈം	-10.4774
▁മഹാമാരി	-10.4775
▁റെയ്ഡ്	-10.4776
▁തകർന്ന	-10.4777
▁തന്ത്രം	-10.478
മര്‍	-10.4782
കേ	-10.4786
53	-10.4788
▁ശേഖര	-10.4789
ൂരിലെ	-10.4791
▁കിട്ടിയത്	-10.4791
▁ചെയ്യേണ്ടത്	-10.4791
യിടങ്ങള	-10.4792
▁മക്കള്‍	-10.4792
▁മന്ത്രിമാര്‍	-10.4793
▁കഞ്ചാവ്	-10.4797
▁എൽഡിഎഫ	-10.4801
▁പാസാക്കിയ	-10.4803
▁കുടിവെള്ള	-10.4805
▁നിയോഗിക്ക	-10.4806
ങ്ങിയ	-10.4806
▁റൂ	-10.4806
▁പ്ലാറ്റ്	-10.4807
▁സുരേഷ	-10.4808
ങ്ങളിലൂടെ	-10.481
▁കഴുത്ത	-10.481
ുകളില	-10.4811
▁ആദ്യമായാണ്	-10.4812
റായ	-10.4813
▁ഇടയിൽ	-10.482
▁മില്യണ്‍	-10.4823
▁വയല	-10.4823
▁സമ്പത്ത്	-10.4823
ജൻ	-10.4824
▁കൂട്ടിയ	-10.4824
▁വിലയിരുത്തല	-10.4825
▁സൈറ്റ	-10.4828
▁പ്പെ	-10.4833
▁ജീവിക്കുന്ന	-10.4836
▁സര്‍വ	-10.4836
▁ലോക്ക	-10.4837
ുണ്ടായി	-10.4839
▁ട്രംപ	-10.4844
ദ്ധ്യ	-10.4844
▁നിപ	-10.4844
▁വിനയ	-10.4846
▁ഡ്ര	-10.4847
▁കാലത്തെ	-10.4848
▁മത്സരത്തില	-10.4849
ികളുടെ	-10.485
▁റ്റി	-10.4852
▁വിശദീകരണ	-10.4855
▁മിഥുന	-10.4855
▁തെക്ക്	-10.4856
▁ചിരി	-10.4861
▁യുഡിഎഫിന്റെ	-10.4862
▁കമ്മീഷണര്‍	-10.4862
▁ജാമ്യാപേക്ഷ	-10.4862
▁ജ്വല്ലറി	-10.4862
▁സൊസൈറ്റി	-10.4862
▁സൂപ്പർ	-10.4863
▁ഒടിടി	-10.4863
▁ഫാത്തിമ	-10.4863
▁പക്ഷ	-10.4864
▁കാരണമായി	-10.4865
▁ന്യൂസ	-10.4865
▁ഏതൊക്കെ	-10.4865
▁ല്ല	-10.4865
ദീപ്	-10.4867
▁ടാറ്റ	-10.4867
ക്കൾ	-10.4867
▁അപമാനിച്ച	-10.4868
▁കോണ്‍ഗ്രസിന	-10.4868
▁S	-10.487
▁ഉൾപ്പെട്ട	-10.4871
▁സമയമാണ്	-10.4872
മായത്	-10.4874
▁നേരിടാന്‍	-10.4874
▁ചാക്കോ	-10.4874
▁അറിയാത്ത	-10.4875
▁സാധിച്ചിട്ടില്ല	-10.4877
▁ജോൺ	-10.4877
▁നെറ്റ്	-10.4878
▁ജില്ലകളിലാണ്	-10.4878
അതേസമയം	-10.4879
▁പ്രതീക്ഷയിലാണ്	-10.488
▁ശ്രദ്ധിക്കണം	-10.4881
▁പൊടി	-10.4881
▁കേസുകള	-10.4884
▁83	-10.4884
▁കുഴി	-10.4888
ന്മാര	-10.4894
▁കൂടുതലാണ്	-10.4894
ശേരി	-10.4895
ഹോ	-10.4895
▁സമ്മതിക്ക	-10.4896
ാട്	-10.4899
മല്ലാത്ത	-10.4905
നത്തില്‍	-10.4906
▁ആഗ്രഹ	-10.4908
മുണ്ടായത്	-10.4908
▁ഗ്രൂപ്പുകള	-10.4911
▁അനുഭവം	-10.4915
ിയോ	-10.4916
▁കാരണങ്ങള	-10.4917
▁നല്ലത്	-10.4918
▁വിവേചന	-10.492
▁ഒവൈസി	-10.492
▁ഭിന്നത	-10.492
▁പൊളിക്ക	-10.4922
▁ഡിജിറ്റല്‍	-10.4923
▁61	-10.4923
▁ഓർക്ക	-10.4925
ുണ്ട	-10.4925
സേന	-10.4926
വാള്‍	-10.4926
▁നിര്‍ണയ	-10.4928
▁റൂം	-10.4929
▁പിടികൂടി	-10.493
▁ചെയ്യുമെന്ന്	-10.493
▁നിരീക്ഷിച്ച	-10.4938
▁ഇന	-10.4938
▁ഉദ്	-10.4939
▁ജയിലിൽ	-10.4939
▁വലിച്ച	-10.494
▁സ്ഥാപനങ്ങൾ	-10.494
▁ബാബ	-10.4944
▁കളയ	-10.4947
സബ്	-10.4951
ിക്കൊണ്ടിരിക്ക	-10.4954
▁രോഗമുക്തരായി	-10.4955
▁പ്രസിഡന്‍റ്	-10.4955
▁റിയ	-10.496
▁ജില്ലകളിലായി	-10.4961
▁ചെയ്യാനും	-10.4961
▁തൊഴിലാളികളുടെ	-10.4961
▁കുടുങ്ങിയ	-10.4966
▁രക്ഷിക്ക	-10.4966
▁യൂണിറ്റ	-10.4969
ദര്‍	-10.497
▁രാശിയില്‍	-10.4978
▁അനുപമ	-10.4978
▁ഡിവൈഎഫ്ഐ	-10.498
തന	-10.498
▁സമുദ്ര	-10.4981
യിൻ	-10.4983
▁എംപിമാര	-10.4985
▁ഭാഗങ്ങള	-10.4985
ഭാഗത്ത	-10.4986
▁www	-10.4987
▁എട്ടു	-10.4989
▁പദ	-10.499
▁ക്യാമ്പ്	-10.499
▁ഗസ്റ്റ്	-10.4991
ുകയുമായിരുന്നു	-10.4995
▁ശുദ്ധ	-10.4999
ുണ്ടായത്	-10.5007
▁തിരച്ചില്‍	-10.5009
സ്ഥല	-10.501
▁നേതാക്കളായ	-10.5014
കാരനായ	-10.5015
▁താരത്തിന്റെ	-10.5015
▁യുവാക്കള്‍	-10.5016
▁ബൂത്ത	-10.5018
മില്ലെന്ന്	-10.5019
ിലേക്കാണ്	-10.5022
▁ഗെലോട്ട്	-10.5022
▁അടിച്ചു	-10.5023
▁ശരീരത്ത	-10.5024
▁യുഎഇയില്‍	-10.5027
▁ആശ	-10.5028
▁എംഎൽഎമാര	-10.5031
▁പരാതിക്കാരി	-10.5032
നിയമ	-10.5034
▁പാരമ്പര്യ	-10.5036
▁റവന്യൂ	-10.5036
▁സുധാകരന്റെ	-10.5039
▁തുടർച്ചയായി	-10.5039
▁പതിവ	-10.504
▁ശേഷമ	-10.5044
▁ശ്രമങ്ങൾ	-10.5044
കണ്ട	-10.5045
ിയൻ	-10.5045
ിലുണ്ടായിരുന്ന	-10.5046
87	-10.5046
▁കമ്മീഷന	-10.5052
▁സില്‍	-10.5056
▁മുള	-10.5057
വേദന	-10.5061
▁ബീച്ച	-10.5064
▁സൂരജ്	-10.5067
▁കമന്റ	-10.5067
▁വർഷമായി	-10.5069
▁അച്ഛന്‍	-10.5075
പ്പോയി	-10.5076
▁കണ്ണൂര	-10.5076
▁വിശദീകരിച്ചു	-10.508
▁കാരണ	-10.508
വെന്നാണ്	-10.5083
സമ	-10.5083
▁വര്‍ധനവ	-10.5085
ുന്നതോടെ	-10.5085
▁ടീമിന്റെ	-10.5086
▁നേതൃത്വത്തിലാണ്	-10.5087
▁എതിര്‍ത്ത	-10.5089
▁സാധിക്കില്ലെന്ന	-10.5091
▁ഖാന	-10.5094
▁മൂവാറ്റുപുഴ	-10.5094
▁നിഗമനം	-10.5094
▁ക്ലിനിക്ക	-10.5095
ുന്നുണ്ടെന്നും	-10.5095
▁നിര്‍മ്മിക്ക	-10.5095
▁കൈവശം	-10.5095
▁സര്‍വീസ	-10.5097
▁ചേരുന്ന	-10.5099
▁ഫോമ	-10.5099
▁ചോദിക്കുന്നത്	-10.5099
പൂര	-10.5099
▁ഗുജറാത്ത	-10.51
▁കുടുങ്ങി	-10.5102
▁വിശദീകരിക്ക	-10.5102
▁സൗകര്യങ്ങള്‍	-10.5103
ിക്കേണ്ട	-10.5104
▁മന്ത്രാലയത്ത	-10.5104
▁സ്ഥല	-10.5105
▁ഒരുമിച്ച	-10.5105
▁തസ്തികകള	-10.5106
▁സ്ട്ര	-10.5107
▁ഇന്ത്യയും	-10.511
ച്	-10.511
▁പരിപാടിയിൽ	-10.5112
ധര	-10.5115
▁കൊണ്ടിരിക്കുന്ന	-10.5116
-20	-10.5117
▁സർട്ടിഫിക്കറ്റ്	-10.5117
▁കളിക്കുന്ന	-10.5118
മ്പല	-10.512
പാറ	-10.5121
▁സമ്മേളന	-10.5122
▁ആരാധകര	-10.5123
കാന്ത	-10.5123
▁ജനപ്രതിനിധികള	-10.5126
ുകയുണ്ടായി	-10.5129
യിലോ	-10.5132
പിടിക്ക	-10.5136
▁ലൂ	-10.5137
▁കുഴ	-10.5139
പടി	-10.5143
▁സ്ഥാനാര്‍ത്ഥിയെ	-10.5145
ഭ്യ	-10.5147
▁മിസ്	-10.515
▁നിലനിൽക്കുന്ന	-10.5153
▁വർധിപ്പിക്ക	-10.5153
▁അവതാരക	-10.5153
▁പീഡിപ്പിക്ക	-10.5153
▁ചെലവഴിക്ക	-10.5154
▁അനുഗ്രഹ	-10.5154
▁ഭാഗമായാണ്	-10.5155
▁ചെയ്തിരുന്ന	-10.5155
▁ഇടക്കാല	-10.5157
▁മകൾ	-10.5158
▁76	-10.5159
▁തന്നെയായിരുന്നു	-10.5162
▁തിരഞ്ഞ	-10.5162
▁മാർക്കറ്റ	-10.5166
▁നിയമങ്ങൾ	-10.5166
▁പറഞ്ഞാൽ	-10.5167
▁സഹോദര	-10.5167
▁നീക്കി	-10.5171
▁പാർക്ക	-10.518
▁കേന്ദ്രത്തില്‍	-10.5181
▁സംഭവത്തെ	-10.5181
സര്‍ക്കാര്‍	-10.5183
▁ഇടവം	-10.5188
▁നീല	-10.519
▁അത്യാവശ്യ	-10.5199
▁ഈടാക്ക	-10.52
▁ഒരാളാണ്	-10.5202
▁ചൂണ്ടിക്കാട്ടിയ	-10.5202
▁വേദിയ	-10.5203
▁ട്	-10.5204
▁നിതീഷ	-10.521
▁കോര്‍പ്പറേഷന	-10.521
ത്തന്നെ	-10.5211
▁റിയാദ്	-10.5212
▁ഹെല്‍ത്ത്	-10.5212
▁ഉച്ചകോടി	-10.5213
▁വളരെയധിക	-10.5214
▁നാട്ട	-10.5215
▁ഇറക്കി	-10.5215
▁ഫോഴ്	-10.5217
ക്കാനാണ്	-10.5217
വർക്കും	-10.5217
▁മടി	-10.5219
▁അവസരങ്ങള	-10.5221
▁മാത്രമായി	-10.5224
▁ഹിജാബ്	-10.5225
▁വിമാനങ്ങള	-10.5226
ീവ	-10.5226
▁സ്റ്റേ	-10.5227
യില്ലാതെ	-10.5227
രാഷ്ട്ര	-10.5229
ബൈ	-10.5231
▁ഏജന്‍സികള്‍	-10.5231
▁അരുണ്‍	-10.5231
▁ലൈൻ	-10.5232
▁ക്യാപ്റ്റന്‍	-10.5234
▁വൈറല്‍	-10.5235
▁ആവശ്യമുള്ള	-10.5235
▁ഭയം	-10.5245
▁കുവൈത്ത്	-10.5246
ക്കറ	-10.5247
▁ബൈ	-10.5247
▁ലോകകപ്പ്	-10.5248
▁കണ്ടെത്താൻ	-10.5249
ശാ	-10.5251
▁തിരുവ	-10.5251
▁റേറ്റ	-10.5253
▁പുരുഷന്മാര	-10.5253
വേഷ	-10.5254
▁നെഞ്ച	-10.5254
▁ഉറക്ക	-10.5261
▁സമയത്താണ്	-10.5263
ലിനെ	-10.5263
▁കിഴക്ക	-10.5264
▁റൈ	-10.5264
▁ധൈര്യ	-10.5267
▁വകഭേദ	-10.5267
▁അകലെ	-10.5267
▁അനുവദിക്കുന്ന	-10.5268
▁കുറ്റപത്രം	-10.5272
▁ഒരിക്കൽ	-10.5272
▁ടീമിനെ	-10.5273
▁ഓണം	-10.5274
▁റോഡുകള	-10.5275
ൊഴി	-10.5285
ോള്‍	-10.5286
▁അട്ടിമറിക്ക	-10.5287
ിയിരിക്കുകയാണ്	-10.5287
▁രംഗത്തെ	-10.5288
▁വയനാട്ടില്‍	-10.529
ിരിക്കുകയാണെന്ന	-10.5293
▁ഇല്ലെന്നും	-10.5293
▁പറ്റാത്ത	-10.5294
▁മധ്യപ്രദേശില്‍	-10.5297
മാർക്ക്	-10.5301
▁കേസുകളും	-10.5306
ായിരുന്നുവെന്നും	-10.5306
മുണ്ടായി	-10.531
▁കുടുംബവും	-10.5317
▁മണ്ഡലങ്ങളിലും	-10.5322
▁പരിഹസിച്ച	-10.5323
▁ചാടി	-10.5324
ഹിത	-10.5326
▁67	-10.5327
▁റഷ്യൻ	-10.533
▁സ്ഫോടന	-10.5332
▁നിർമ്മിച്ച	-10.5332
▁ആവർത്തിക്ക	-10.5332
▁ബോധ്യപ്പെടുത്ത	-10.5332
▁യാദവ	-10.5334
▁പശ്ചാത്തല	-10.5336
യിലുണ്ട്	-10.5336
കുളം	-10.5337
▁ഒറ്റക്കെട്ടായി	-10.5338
▁ഇഷ	-10.5338
▁കസ്റ്റഡിയിൽ	-10.5338
▁റിക്രൂട്ട്	-10.5338
ക്കെതിരെയുള്ള	-10.5339
▁തോമസ	-10.5339
ല്ലെന്ന്	-10.5341
▁ക്ഷേത്രം	-10.5342
▁വായിക്ക	-10.5345
▁അമ്മയും	-10.535
▁നേതാക്കളുമായി	-10.535
▁സൈനികര്‍	-10.5351
വരോട്	-10.5353
▁ബാധിതര	-10.5354
▁മോശമായ	-10.5355
▁നല്ലൊരു	-10.5357
▁അറസ്റ്റ	-10.5358
▁പ്രത്യക്ഷ	-10.5359
ടിച്ചു	-10.5366
▁അവകാശപ്പെട്ടു	-10.5371
താണോ	-10.5372
സണ്‍	-10.5372
വർഷ	-10.5378
റിയാം	-10.538
▁എലി	-10.538
ലോക	-10.5384
▁കോച്ച	-10.5387
ിലെയും	-10.539
▁അലർട്ട്	-10.5391
▁ഇലക്ട്രോണിക്	-10.5392
▁അവകാശവാദം	-10.5392
▁റെനീഷ	-10.5392
▁വിസ്മയ	-10.5392
er	-10.5392
▁തകർത്ത	-10.5392
ക്കാൾ	-10.5393
സ്റ്റി	-10.5393
▁അതില	-10.5396
▁തുടർ	-10.5396
▁വീട്ടുകാര	-10.5396
▁കരുത്ത്	-10.5399
▁മുങ്ങി	-10.5399
▁എഡിറ്റ	-10.5399
▁അംഗങ്ങൾ	-10.54
▁മല്‍സരിച്ച	-10.54
▁ജ്യോതി	-10.5403
▁ആനന്ദ	-10.5403
▁ജീവനക്കാർ	-10.541
റ്ററ	-10.541
▁പുരുഷ	-10.5414
▁അടുക്ക	-10.5425
െന്നു	-10.5426
മായിരുന്ന	-10.5435
▁ഫൈ	-10.5436
▁ബാറ്റ്	-10.5442
ക്കേ	-10.5444
▁ആശുപത്രികള്‍	-10.5444
▁ചെയ്യുമെന്നും	-10.5445
വാക്	-10.5447
കക്ഷി	-10.5449
▁കാരണമ	-10.545
േൽ	-10.545
▁പരമ്പരാഗത	-10.5453
▁സംഘാടക	-10.5453
▁ഗ്രാമീണ	-10.5453
▁സെപ്റ്റംബർ	-10.5453
▁വോട്ടെടുപ്പ	-10.5455
▁ഓവറ	-10.5456
വേലി	-10.5457
▁നബി	-10.5458
ിച്ചിരുന്നു	-10.5459
▁മിഥുനം	-10.5461
▁നഷ്ടമാക	-10.5463
ിമ	-10.5463
▁പ്രസ്താവനയിൽ	-10.5466
▁കുതിച്ച	-10.547
െന്ത	-10.5471
▁വെയ്ക്ക	-10.5473
ാതെയാണ്	-10.5475
▁പ്രകാശ	-10.5477
▁എട	-10.5478
ിനുള്ളില്‍	-10.5479
▁നായിക	-10.5481
▁രാമചന്ദ്രന്‍	-10.5484
▁പ്രമുഖര	-10.5486
▁അന്തരിച്ചു	-10.5487
▁വീട്ടില	-10.5488
▁കേന്ദ്രങ്ങളില്‍	-10.5488
▁നഷ്ടപരിഹാരം	-10.5489
▁പൊളി	-10.5492
▁ഭാരവാഹി	-10.5493
വര്‍ഷം	-10.5494
നാള	-10.5495
▁പട്ടേല്‍	-10.5496
▁വില്‍ക്ക	-10.5497
രാണ്	-10.5507
▁ഇത്തവണത്തെ	-10.5509
▁അഭിഭാഷക	-10.551
▁പിടിച്ചത്	-10.5511
▁ഉള്‍പ്പടേയുള്ള	-10.5514
▁തമാശ	-10.5514
▁പൂർണ്ണമായ	-10.5514
▁കാലഘട്ടത്ത	-10.5515
▁മാർഗ	-10.5516
▁കരിയറ	-10.5518
▁പറഞ്ഞിട്ടുണ്ട്	-10.552
യുണ്ടെന്ന്	-10.552
▁എട്ടാം	-10.5522
▁പ്രവചിക്കുന്നത്	-10.5523
▁അം	-10.5526
▁പത്തു	-10.5534
▁ഉമ്മൻ	-10.5536
▁78	-10.5537
▁നഗരത്തിലെ	-10.5541
▁ഓടിച്ച	-10.5544
▁പങ്കെടുത്തത്	-10.5545
▁ഏർപ്പെടുത്ത	-10.5545
▁ജഗ	-10.5553
▁അതെ	-10.5553
▁രാഹുല	-10.5556
ദാസ്	-10.5559
▁യുഡിഎഫും	-10.5563
പ്പറ്റി	-10.5564
▁കയറ്റി	-10.5565
▁മതം	-10.5565
▁ഒരാള്‍ക്ക്	-10.5566
▁ചികിത്സയിലുള്ള	-10.5568
പ്പില്‍	-10.5569
രംഗത്ത്	-10.5569
▁നേടുമെന്ന	-10.5571
▁പറയണം	-10.5574
▁ബ്യൂറോ	-10.5575
▁ആരെ	-10.5576
▁മേയർ	-10.5578
മുനിസിപ്പാലിറ്റി	-10.5579
▁ഡീ	-10.5579
▁വ്യാപനത്ത	-10.5583
▁കുത്ത	-10.5584
▁2006	-10.5585
▁ആഘാത	-10.5586
▁അതൊക്കെ	-10.5588
▁സിക്യൂട്ടീവ്	-10.5588
റ്റിക്	-10.5589
▁പ്രതിഷേധിച്ച്	-10.5589
▁പൈലറ്റ	-10.559
ചന്ദ്ര	-10.5591
ൊന്ന്	-10.5591
പറ	-10.5592
▁വിശ്രമ	-10.5592
നയ	-10.5592
▁ചേര്‍ക്ക	-10.5592
▁ചടങ്ങ്	-10.5595
ക്കെതിരെയും	-10.5598
▁വട്ട	-10.56
▁ടാങ്ക	-10.5601
▁അനുഭവപ്പെട്ട	-10.5602
▁പരീക്ഷാ	-10.5603
▁ടീ	-10.5604
▁നമ്മളെ	-10.5607
വ്വ	-10.5608
▁ദിലീപിന്	-10.5613
▁സ്വാഭാവിക	-10.5615
▁ശക്തമാക	-10.5617
▁പ്രസംഗത്ത	-10.5618
▁ശാന്ത	-10.5619
▁ഉദ്യോഗസ്ഥന്‍	-10.5619
▁ഇടപാട	-10.5622
▁സാധിച്ചത്	-10.5623
▁ആദ്യഘട്ട	-10.5633
▁റേ	-10.5636
f	-10.5636
▁നിയോജക	-10.5637
▁ഉത്തർപ്രദേശ്	-10.5637
▁ഉമ്മൻചാണ്ടി	-10.5637
▁എപ്പിസോഡ	-10.5637
▁പ്രവിശ്യ	-10.5637
▁എൻസിപി	-10.5637
▁മാതൃഭൂമി	-10.5637
▁രാജ്യാന്തര	-10.5637
▁തുടര്‍ച്ചയായ	-10.564
▁73	-10.5641
▁റ്റോ	-10.5641
▁ഫോ	-10.5641
▁അറിയാന്‍	-10.5643
▁ചോര	-10.5644
▁തിരഞ്ഞെടുപ്പിലെ	-10.5645
▁കൈവിട്ട	-10.5646
▁ശേഖരിക്ക	-10.5646
▁ഐസക്	-10.5646
▁ഷായുടെ	-10.5648
▁എംകെ	-10.5652
▁സംബന്ധമായ	-10.5653
▁പട്	-10.5653
▁അംഗമായ	-10.5653
▁ടിപി	-10.5656
ൂടെ	-10.5658
▁ദുബായില്‍	-10.5662
▁നേടുന്ന	-10.5664
▁ഇടയാക്കിയ	-10.5665
▁82	-10.5665
▁ഇന്ത്യയിലേക്ക്	-10.5668
▁കേട്ട്	-10.5669
▁കമ്മിറ്റിയുടെ	-10.567
▁തൊട	-10.5672
തെങ്കില്‍	-10.5675
▁നഗരസഭാ	-10.5679
▁കടുവയെ	-10.5679
മന്‍	-10.5679
മില്ലെന്നും	-10.5682
▁റോയ്	-10.5684
ാലയ	-10.5685
▁ദാസ്	-10.5686
▁പാര്‍ട്ടിയിലെ	-10.5689
▁മത്സരിച്ചത്	-10.5689
▁കമ്മ്യൂണിസ്റ്റ്	-10.569
▁വാക്ക	-10.5692
താക	-10.5696
▁സന്ദര്‍ശനം	-10.5699
L	-10.5699
▁മുരളി	-10.5699
▁കാര്യക്ഷമ	-10.5699
▁ശാസ്ത്രീയ	-10.57
▁വാക്സിനേഷൻ	-10.57
▁അടങ്ങുന്ന	-10.5702
▁സംവാദ	-10.5702
▁അങ്ങ	-10.5702
▁മിണ്ട	-10.5703
▁ഭാര്യയും	-10.5705
▁കിട	-10.5705
▁പെഷ്യല്‍	-10.5706
▁സംഘത്തിന്റെ	-10.5709
▁നിരോധന	-10.5711
ാനന്ദ	-10.5713
▁ലക്ഷ്യത്തോടെ	-10.5714
▁അധ്യാപകര	-10.5715
▁ലീഗിന്	-10.5715
▁പിടികൂടിയ	-10.5716
▁ചെയര്‍മാന	-10.5716
ത്താന്‍	-10.572
▁തൃശ്ശൂര്‍	-10.572
ിനോ	-10.572
▁ജനിച്ച	-10.5722
▁സിവിൽ	-10.5725
▁ഒഴിഞ്ഞ	-10.5727
▁ജൂ	-10.5728
▁ചുമ	-10.5728
▁ചിന്തിച്ച	-10.5729
▁വന്നതിന്	-10.5729
▁ബെഞ്ച	-10.573
▁മാനേജർ	-10.5732
▁അധ്യക്ഷനായ	-10.5734
▁പ്രചരിക്കുന്ന	-10.5734
▁ക്യാംപ	-10.5735
ജീവിത	-10.5736
▁കത്ത	-10.5736
▁പണവും	-10.5737
▁സാധ	-10.5737
▁തെറ്റി	-10.5749
▁അറിയപ്പെടുന്ന	-10.5751
▁രൂപയ്ക്ക്	-10.5753
▁ഉള്‍പ്പെടുത്തി	-10.5759
▁നല്‍കാന	-10.576
ാള്‍	-10.576
▁ഡയറക്ടറ	-10.576
▁താല്പര്യ	-10.5761
▁മാനന്തവാടി	-10.5761
▁വിരമിച്ച	-10.5761
▁കൗൺസില	-10.5761
ങ്ങളെല്ലാം	-10.5763
▁കേന്ദ്രസർക്കാര	-10.5764
▁സിറ്റിംഗ്	-10.5764
▁അടിത്തറ	-10.5765
▁പൊലിസ	-10.5765
▁ദേശീയപാത	-10.5766
▁എന്നുമാണ്	-10.5767
▁2013	-10.5767
ഗതി	-10.5768
ങ്ങളായ	-10.577
▁ചിലപ്പോള്‍	-10.5773
▁സിദ്ദിഖ്	-10.5774
▁തെറി	-10.5775
പന	-10.5776
▁നടപടികളും	-10.5776
▁തൃശൂരില്‍	-10.578
▁വകുപ്പിന്	-10.578
han	-10.5783
ക്വ	-10.5785
▁എതിരാളി	-10.5787
▁വ്യക്ത	-10.5787
▁വഴങ്ങ	-10.5788
▁അതോടെ	-10.5793
▁ചേര്‍ന്നു	-10.5794
ൻ്റെ	-10.5796
▁നേട്ടങ്ങൾ	-10.5797
▁13,	-10.5797
ട്ടേ	-10.5798
▁പെണ്‍കുട്ടിയുടെ	-10.5802
പെട	-10.5804
▁കടം	-10.5806
▁മാധവ	-10.5809
▁ഉദാഹരണ	-10.5811
▁ചുമത്ത	-10.5812
▁വീട്ടിലെത്തി	-10.5814
പ്പെടുന്നു	-10.5816
ക്കല	-10.5816
▁മുംബൈയില്‍	-10.582
പേര്‍	-10.5824
▁അബദ്ധ	-10.5824
▁നാദിറ	-10.5824
▁പരമ്പര	-10.5824
▁ക്രൈസ്തവ	-10.5826
▁കള്ളപ്പണ	-10.5826
ഷ്ണ	-10.5827
▁വാര്‍ഷിക	-10.583
▁ഖേദ	-10.583
▁തീർക്ക	-10.5831
▁വെസ്റ്റ്	-10.5832
▁അബ്ദുല്‍	-10.5833
▁പരിശ്രമ	-10.5835
▁ചെയ്യുന്നതിന്	-10.5835
▁പ്രവര്‍ത്തകരും	-10.5845
ഷണല്‍	-10.5845
ഏ	-10.5847
▁ഹൈക്കോടതിയില്‍	-10.5848
▁വിലയിരുത്തൽ	-10.5849
▁ചെറുത	-10.5849
▁മതേതര	-10.585
▁അറിയിപ്പ്	-10.585
▁നെഗറ്റീവ	-10.585
▁ഒരുങ്ങുന്നത്	-10.585
▁പെരുമാറ	-10.585
ാക്കുന്ന	-10.585
യല്‍	-10.5852
▁നേട്ടമുണ്ടാക്ക	-10.5853
രുത	-10.5854
▁ബംഗാള	-10.5854
▁എത്തിച്ചു	-10.5857
▁ജീവിച്ച	-10.5857
▁അറസ്റ്റിലായത്	-10.5857
▁ഏറ്റുമുട്ട	-10.5859
▁സണ്‍	-10.5862
▁കരിച്ച	-10.5863
▁രാജയോഗം	-10.5863
ക്കെല്ലാം	-10.5865
▁കുറിച്ചാണ്	-10.5866
ത്തിനൊപ്പം	-10.5871
ക്കേണ്ട	-10.5876
▁ച്ചു	-10.5876
▁രജ	-10.5878
▁കാരണമാണ്	-10.588
ഭാവ	-10.5881
▁സ്വർണ്ണ	-10.5883
▁മുന്‍കൂര്‍	-10.5888
▁പൂര്‍ണ്ണ	-10.5888
▁ബിരുദാനന്തര	-10.5888
▁സച്ചിൻ	-10.5888
ആറ	-10.5888
യാന്‍	-10.5889
▁(20	-10.589
▁സഹകരിച്ച	-10.589
▁ഉണ്ടാക്കി	-10.5891
▁2012	-10.5896
▁വളർത്ത	-10.5899
ഖാ	-10.59
▁സമാധാനം	-10.5901
▁കൂളുകള	-10.5901
▁നിലപാടിലാണ്	-10.5903
▁ആളെ	-10.5904
▁പട്ടേല	-10.5906
▁വിമാനത്തില്‍	-10.5907
▁ചെയ്യേണ്ട	-10.5908
▁നൽകണമെന്ന	-10.5911
▁ഛ	-10.5911
ിക്കൽ	-10.5911
▁രോഗികൾ	-10.5912
▁ചര്‍ച്ചയായ	-10.5916
▁എത്തിയിട്ടുണ്ട്	-10.5917
വാഹ	-10.5917
▁ചോദിച്ചത്	-10.5919
▁നാടിന്റെ	-10.5919
▁ശ്രദ്ധിച്ച	-10.592
▁യൂണിയന്‍	-10.592
▁തട്ടിക്കൊണ്ടുപോ	-10.5924
▁അസ്	-10.5928
▁തളിപ്പറമ്പ്	-10.5928
▁പവാറ	-10.5932
▁പരിധിയില്‍	-10.5932
▁വാതക	-10.5935
ഘട	-10.5935
▁ഫ്രീ	-10.594
▁താമസിച്ച	-10.594
ദാര്‍	-10.594
▁മാറ്റാന്‍	-10.5942
▁ഭര്‍ത്താവ	-10.5945
▁മനസിലായ	-10.5945
ഫ്ര	-10.5951
▁പ്രായപരിധി	-10.5951
▁നിർമ്മിക്ക	-10.5952
▁5000	-10.5952
▁വേള	-10.5954
▁ത്തു	-10.5957
ീൽ	-10.5957
ുവിനെ	-10.5957
▁അധ്യക്ഷനായി	-10.5959
▁ജോർജ	-10.5959
▁അമരീന്ദര്‍	-10.5959
▁റാം	-10.596
ുന്നവർ	-10.596
▁അതൊരു	-10.5961
ല്ലെന്നും	-10.5962
▁കെവി	-10.5962
▁ബിൽ	-10.5962
▁അവകാശപ്പെടുന്നത	-10.5966
▁സമഗ്ര	-10.5968
യുണ്ടായിരുന്നു	-10.5969
▁വല്ല	-10.597
▁ബീഹാറില്‍	-10.5974
▁വോട്ടര്‍മാര്‍	-10.5975
▁ലഭിക്കുമെന്നാണ്	-10.5978
നല്‍	-10.5979
ാക്കിയത്	-10.5982
▁പട്ട	-10.5988
ുന്നുവെന്ന	-10.599
▁കാറില്‍	-10.5992
▁മാറുന്ന	-10.5993
▁വു	-10.5995
ുന്നവരെ	-10.5996
▁പൊതുജനങ്ങള	-10.5999
▁മേള	-10.5999
േക	-10.6
▁സെല്ല	-10.6001
▁ഉയർത്തുന്ന	-10.6003
▁സീറ്റുകളും	-10.6003
▁എല്ലാവരെയു	-10.6003
▁കൊണ്ടും	-10.6003
▁കൊച്ചിയിലെ	-10.6005
മേല്‍	-10.6005
▁മൃതദേഹ	-10.6009
▁സ്പ്രസ്	-10.6013
▁A	-10.6014
▁അംഗീകാര	-10.6015
▁യെച്ചൂരി	-10.6015
▁കുമ്മനം	-10.6015
▁സ്പീക്കർ	-10.6015
▁ഫിലിം	-10.6015
▁വിശ്വസിച്ച	-10.6016
▁മനുഷ്യാവകാശ	-10.6016
തെല്ലാം	-10.6016
▁ദിവ്യ	-10.6017
▁നിര്‍മാണം	-10.6019
▁പ്രകോപന	-10.6028
▁ഭൂരിപക്ഷത്തില	-10.6031
▁ആരോപണങ്ങൾ	-10.6033
▁യുക്രൈന്‍	-10.6034
▁ജലീല	-10.6035
▁പുര	-10.6042
▁കുടുംബങ്ങള	-10.6046
▁പഞ്ചായത്തുകളില	-10.6046
▁ഒപ്പമ	-10.6047
▁കേസെടുത്തത്	-10.6051
▁പ്രദീപ്	-10.6057
▁സന്ദര്‍ശന	-10.6062
▁വിവാഹത്തിന്	-10.6064
കുല	-10.6065
▁പരാതികള്‍	-10.6065
▁വിമാനത്താവളം	-10.6068
റാണ്	-10.6068
▁പ്രതിനിധികള	-10.6069
ാവൂ	-10.6071
▁പ്ല	-10.6076
▁ഡൊണാള്‍ഡ്	-10.608
▁ലഡാക്ക	-10.608
▁പകര്‍പ്പ	-10.6082
▁സമീപനം	-10.6083
▁ആചാര	-10.6085
▁വിളിക്കുന്ന	-10.6086
ിറങ്ങി	-10.6087
▁കക്ഷികള	-10.6091
നീയ	-10.6092
▁രാഹുലിന്	-10.6092
▁ഹെഡ്	-10.6094
▁കയറ്റ	-10.6095
▁മുരളീധരന	-10.6096
▁റോള	-10.6096
-3	-10.61
ശ്രമ	-10.6102
▁നീള	-10.6102
▁അതൊന്ന	-10.6103
▁പ്രേക്ഷകർ	-10.6104
വകുപ്പ്	-10.6105
▁ഭർത്താവ്	-10.6109
രാവ	-10.611
ട്ടോ	-10.6112
▁ജേക്കബ്	-10.6112
▁രാജസ്ഥാനില്‍	-10.6114
▁ആസൂത്രണം	-10.6114
ഭൂമി	-10.6115
▁പുറത്തായ	-10.6116
▁ചികിത്സയില	-10.6121
▁നടത്തണം	-10.6122
യുടേത്	-10.6124
ക്കാനും	-10.6125
▁ഏറ്റെടുത്ത്	-10.6128
▁സമ്പർക്ക	-10.613
▁അംഗത്വം	-10.6132
▁കുറയുന്ന	-10.6133
▁പറയേണ്ട	-10.6138
▁ദക്ഷിണേന്ത്യ	-10.6145
▁കേന്ദ്രീകരിക്ക	-10.6145
▁കങ്കണ	-10.6145
▁നാട്ടുകാർ	-10.6145
▁അംഗീകൃത	-10.6145
▁ഭാരതീയ	-10.6145
▁പറ്റുന്ന	-10.6148
▁സമയമ	-10.615
▁വാങ്ങിയത്	-10.6151
▁ഗ്രൂപ്പിന്റെ	-10.6152
▁പ്രതിരോധം	-10.6154
▁സര്‍വീസുകള്‍	-10.6155
ത്രേ	-10.6156
▁വ്യാപകമായ	-10.6159
ഘോഷ	-10.616
▁ജിയോ	-10.616
യിട്ട	-10.6165
െതിരായ	-10.6166
▁ഉത്തരവിട്ട	-10.6166
▁യോഗ്യതയുള്ള	-10.6173
▁കൊച്ചു	-10.6174
▁തയ്യാറാക	-10.6175
▁ഉദ്ദേശ	-10.6177
▁നേരിടുന്നത്	-10.6181
▁കലാപം	-10.6187
ത്തോ	-10.6189
▁പറഞ്ഞിരുന്നത്	-10.619
▁ടാ	-10.6194
▁സൂചനയാണ്	-10.6195
▁ലാബ	-10.6195
▁ആശംസ	-10.6203
▁ഇന്ത്യക്കാര	-10.6204
▁മത്സരാർത്ഥി	-10.6206
ക്ഷണ	-10.6209
▁അന്വേഷിക്കുന്ന	-10.621
▁അവളുടെ	-10.621
▁പുള്ളി	-10.6214
▁മാസ്റ്റര്‍	-10.6214
▁എംബി	-10.6216
▁തീർത്ത	-10.6218
▁ബാധിത	-10.6219
ത്രി	-10.6219
▁പൊട്ട	-10.6221
▁നടത്താന	-10.6227
▁ഉണ്ടായിട്ടുണ്ട്	-10.6227
▁പാലിക്കണം	-10.6228
▁തുറ	-10.623
▁തലത്തിൽ	-10.623
▁സിനിമയിൽ	-10.6231
ar	-10.6231
ിനുള്ളിൽ	-10.6231
▁കാശ്	-10.6231
▁റിയാസ	-10.6238
▁ക്വ	-10.6243
ർന്ന	-10.6243
▁പ്രോസിക്യൂഷന്‍	-10.6243
▁ആക്	-10.6244
▁പേരുകള	-10.6245
▁സെല്‍	-10.625
▁ഉൾപ്പെടുന്ന	-10.625
▁അനുവദിച്ചത്	-10.625
യാണെന്നാണ്	-10.6251
▁ഗതാഗതം	-10.6252
▁കൊണ്ടുപോയ	-10.6255
▁നൂറ	-10.6255
▁ഇംഗ്ലീഷ്	-10.6259
സിലെ	-10.626
▁സമൂഹം	-10.6264
ങ്ങളിലേക്ക്	-10.6267
▁പോസ്റ്ററ	-10.6271
▁92	-10.6271
▁പാസാക്ക	-10.6274
▁പരിഹരിച്ച	-10.6276
▁പ്രൈവറ്റ്	-10.6276
▁ഷെയ്ഖ്	-10.6276
▁120	-10.6276
▁ആരംഭിക്കുന്ന	-10.6277
▁ട്രാൻസ്	-10.6277
ണിയ	-10.6278
▁സമസ്ത	-10.6279
▁ഐസി	-10.628
സംഘ	-10.628
ുണ്ടാവില്ല	-10.6281
▁ചന്നി	-10.6282
▁ബൈക്ക്	-10.6283
സിയ	-10.6286
യ്ക്കിടെ	-10.6288
ണമെങ്കിൽ	-10.6288
▁ഉദ്യോഗസ്ഥന	-10.6291
▁പിന്മാറ	-10.6291
▁250	-10.6292
▁മൃതദേഹങ്ങള്‍	-10.6298
▁തസ്തികയിലേക്ക	-10.63
▁14,	-10.6302
▁രോഗികളെ	-10.6306
െക്കുറിച്ചും	-10.6307
▁95	-10.6307
▁ഒമാന	-10.6308
▁മകളെ	-10.631
▁ജയിച്ചത്	-10.631
▁അധികാരത്തിൽ	-10.631
▁ആവേശ	-10.6312
▁സംഘര്‍ഷം	-10.6313
▁കസ്റ്റഡിയില	-10.6314
▁വെച്ചത്	-10.6314
▁റിപ്പബ്ലിക്	-10.6315
ണര്‍	-10.6315
▁കണ്ണൂരിലെ	-10.6319
▁ചിത്രമാണ്	-10.6319
▁വ്യത്യസ്തമായ	-10.632
ാകട്ടെ	-10.6322
▁വ്യത്യാസ	-10.6325
▁സൗദിയില്‍	-10.6326
ക്കുമെതിരെ	-10.6327
റ്റുകള്‍	-10.6331
▁ഹോട്ടലുകള	-10.6335
▁പൂട്ട	-10.6335
▁തൃ	-10.6339
ക്കോട്ട	-10.634
▁പോകുമെന്ന	-10.634
▁വരാൻ	-10.634
▁കാസർകോട്	-10.6342
▁ലോകായുക്ത	-10.6342
▁സർവ്വകലാശാല	-10.6342
▁തിരുമാനം	-10.6342
▁സ്വന്തമാക്കിയ	-10.6343
▁എത്രത്തോളം	-10.6346
▁പോള	-10.6348
▁വഹിക്കുന്ന	-10.6349
▁രൂപയായിരുന്നു	-10.6349
▁വേണ്ടെന്ന്	-10.635
An	-10.6351
▁ആകെയുള്ള	-10.6351
▁പരിഹസിച്ചു	-10.6352
സണ	-10.6352
▁കമല്‍നാഥ	-10.6353
▁2009	-10.6354
വീണ	-10.6355
▁കർ	-10.6355
▁കിഴക്കന്‍	-10.6358
സുര	-10.6358
▁പ്രതിനിധികള്‍	-10.636
▁ഹരിദാസ	-10.636
▁പൊതുജന	-10.6362
ുവന്ന	-10.6365
▁വിഷ	-10.6367
▁സ്വര്‍ണത്തിന്	-10.6368
▁കേന്ദ്രങ്ങളില	-10.637
മുറ	-10.637
▁കേസെടുത്തു	-10.637
റ്റർ	-10.637
▁സഹായിക്കുന്ന	-10.6372
▁അസോസിയേഷന്‍	-10.6372
ിട്ടില്ലെന്നാണ്	-10.6374
▁ഉപയോഗിക്കുന്നത്	-10.6374
▁വിപുലമായ	-10.6374
▁ജീവിതത്തിലെ	-10.6381
▁ഫോണിൽ	-10.6384
ചെയ്ത	-10.6386
ാനാകും	-10.6389
രംഗത്ത	-10.6391
▁നിധി	-10.6392
▁വരില്ല	-10.6395
▁കളഞ്ഞ	-10.6396
ത്തൂര്‍	-10.6398
സ്റ്റര്‍	-10.6402
▁പ്രസ	-10.6404
▁ബെഞ്ച്	-10.6407
▁സാധ്യമാക	-10.6408
gov	-10.6409
▁ബത്തേരി	-10.6409
▁അവഗണിക്ക	-10.6409
▁ജാസ്മിന	-10.6409
▁പുറത്തുവിട	-10.641
▁ഇടിച്ച	-10.6415
▁മത്സരിക്കാന	-10.6416
▁അയ്യ	-10.6416
▁ദീര്‍ഘകാല	-10.6418
▁ഉൾപ്പെടുത്ത	-10.6419
ക്കൊപ്പമ	-10.642
നൽ	-10.642
▁വര്‍ഷങ്ങളായി	-10.6421
▁ബ്ലോക്ക	-10.6421
അത	-10.6425
▁സംഭവങ്ങള്‍	-10.6426
ിക്കുകയാണ്	-10.6429
▁96	-10.6438
ുള്ളവര്‍	-10.6439
▁പ്രണയം	-10.644
മറ്റ	-10.6443
ഹരി	-10.6448
▁ഉണ്ടാവുക	-10.6451
▁അടിസ്ഥാനമാക്കി	-10.6451
ട്രാ	-10.6452
▁ദിശ	-10.6453
▁സമ്മാനിച്ച	-10.6457
▁ചെക്ക്	-10.6461
▁91	-10.6462
വർഗ	-10.6463
പ്പടി	-10.6464
▁സിഐ	-10.6465
മാറ	-10.6469
▁ചികിത്സയിലാണ്	-10.6469
▁ഉണ്ടാകുമെന്ന	-10.647
▁മകനെ	-10.647
▁പത	-10.6473
▁ഉദ്യോഗസ്ഥരും	-10.6476
▁വിന്യസിച്ച	-10.6476
▁ലഭ്യത	-10.6476
▁ഐപിഎല്‍	-10.6476
▁ബീഹാര്‍	-10.6476
▁പൂര്‍ണ്ണമായും	-10.6476
▁കറുത്ത	-10.6477
▁ശ്രമത്തിലാണ്	-10.6481
യുണ്ടായിരുന്ന	-10.6481
▁ഉച്ചയോടെ	-10.6482
▁ഉണ്ടോ	-10.6484
▁പങ്കു	-10.6486
▁എക്സിക്യൂട്ടീവ്	-10.6487
▁ബോഡി	-10.6488
▁റോഡില്‍	-10.6492
▁ആയിട്ട	-10.6497
▁സെമി	-10.6498
▁ജാഗ്രതാ	-10.6504
▁രംഗത്തുവന്ന	-10.6505
വര്‍ക്കെതിരെ	-10.6505
▁ലിസ്റ്റ്	-10.6507
പേ	-10.6512
ിലുള്ളത്	-10.6514
സ്റ്റിറ്റ്യൂട്ട്	-10.6516
▁എക്സ്പ്രസ്	-10.6518
▁രക്ഷപ്പെട്ട	-10.6523
,'	-10.6525
▁നടന്ന്	-10.6526
▁സിന്	-10.6527
ിപ്പിച്ച്	-10.6527
▁കിട്ടും	-10.6528
▁അടച്ചിട്ട	-10.6528
▁സ്റ്റാര്‍	-10.6535
▁ആഭരണ	-10.6543
▁അശ്ലീല	-10.6543
▁ഇംഗ്ലണ്ട	-10.6543
▁ട്രെയിൻ	-10.6544
▁ഭാഗ്യലക്ഷ്മി	-10.6544
▁വിധം	-10.6545
▁വിഷയങ്ങള	-10.6547
▁അവസരങ്ങള്‍	-10.6549
▁കടമ	-10.6551
ിടത്തോളം	-10.6554
▁ചോദ്യങ്ങൾ	-10.6555
ാവകാശ	-10.6556
▁ലിമിറ്റഡ്	-10.6557
▁നോട്ടീസ	-10.6558
▁രേഖകൾ	-10.6561
▁വൈറ്റ്	-10.6563
ോടു	-10.6568
▁അച്ഛന	-10.6568
ശാസ്ത്ര	-10.6571
▁മുഹമ്മദ	-10.6571
ശക്തി	-10.6572
▁യോഗത്തിലാണ്	-10.6574
▁മോശമ	-10.6576
▁തായ്	-10.6578
▁പിഎം	-10.6581
▁വാര്‍ഡില്‍	-10.6581
▁മുന്ന	-10.6585
ുണ്ടായിരുന്നത്	-10.659
വേദി	-10.6592
▁ഉപരോധം	-10.6592
▁ചാനലുകള	-10.6597
▁അതിര്‍ത്തിയില്‍	-10.6598
യല്ലേ	-10.6601
▁ചീ	-10.6602
▁രാജ്യങ്ങളില	-10.6605
▁വാഹനങ്ങൾ	-10.6606
▁ഗുരുതരമായി	-10.6606
▁കൊലപ്പെടുത്ത	-10.6609
▁സ്വര്‍ണക്കടത്ത്	-10.661
▁വന്നിട്ടില്ല	-10.661
▁പെൻഷൻ	-10.6612
▁റാന്നി	-10.6613
▁ജെയ്	-10.6615
▁പെരുമാറിയ	-10.6616
▁പ്രിന്‍സിപ്പല്‍	-10.6617
യാട്	-10.6623
▁പൂർത്തിയാക്കിയ	-10.6624
▁കുതിര	-10.6624
▁ജെഡിയുവ	-10.6625
▁വസ്തു	-10.6626
▁ലക്ഷദ്വീപ	-10.6626
▁ഇതും	-10.6628
▁വിശദീകരിച്ച	-10.6628
▁നാട്ടില	-10.6628
▁ക്രൂരമായി	-10.6629
▁എന്നതായിരുന്നു	-10.663
ലേക്ക്	-10.6631
▁തോന്നുന്ന	-10.6632
▁ചട്ട	-10.6635
▁സ്വാഭാവികമായ	-10.6636
▁മൂക്ക	-10.6639
നാശ	-10.664
▁സിറ്റിങ്	-10.6641
▁ഉദ	-10.6643
▁ആറാം	-10.6644
ിരുന്നെങ്കില്‍	-10.6646
▁കുരു	-10.6647
ടെക്	-10.665
▁84	-10.6658
▁കയ്യില	-10.6668
ുകയുള്ളൂ	-10.6669
▁അടിയന്തിര	-10.6671
▁86	-10.6671
▁സാധനങ്ങള്‍	-10.6675
▁സ്ഥലങ്ങളില	-10.6677
▁എക്സൈസ്	-10.668
▁ബാംഗ്ലൂര	-10.668
▁എല്ലായിടത്തും	-10.668
▁പാചക	-10.668
▁സഹമന്ത്രി	-10.6682
▁പത്മ	-10.6687
▁പഞ്ചായത്തില്‍	-10.6687
▁ദൃശ്യ	-10.6688
ിരുന്നുവെന്ന്	-10.6689
▁കാര്യമായി	-10.6692
▁കുടുക്ക	-10.6693
▁ഭീമ	-10.6694
▁രൂപീകരണ	-10.6695
▁ഗെലോട്ട	-10.6696
▁നൽകാന	-10.6696
▁നേതാക്കള്‍ക്ക്	-10.6697
▁ഒമൈക്രോണ്‍	-10.6697
▁രാജിവെക്ക	-10.6698
▁മികവ	-10.6702
▁മകളുടെ	-10.6708
▁നിരക്കില്‍	-10.671
▁ആരോപിച്ച	-10.6712
▁സ്ഥാ	-10.6715
▁വഹിച്ചു	-10.6719
ത്തല	-10.6721
▁സഹായിക്കും	-10.6723
ിനെയാണ്	-10.6723
സിസി	-10.6724
▁പരിഗണിക്കുന്ന	-10.6726
▁പൊന്ന	-10.6727
▁ലൈസന്‍സ്	-10.6729
▁ഹിന്ദുത്വ	-10.673
▁യുപിഎ	-10.6734
▁ദിവസങ്ങള്‍ക്ക	-10.6735
▁സഹിക്ക	-10.6739
▁പാമ്പ	-10.674
യാളെ	-10.6743
▁പ്രശ്നങ്ങള്‍	-10.6745
▁ചൊ	-10.6747
▁ജ്യോതിരാദിത്യ	-10.6749
▁ലക്ഷക്കണക്കിന	-10.6749
▁കര്‍ണാടകയില്‍	-10.6749
▁ഏറ്റവുമ	-10.6749
▁ആന്റി	-10.6751
▁സഹായവും	-10.6751
wes	-10.6751
▁തലവേദന	-10.6752
▁ബാങ്കുകള	-10.6752
▁സംഘടനകള	-10.6755
▁സാഹിത്യ	-10.6756
ഭാഷ	-10.6758
▁റിസ്	-10.6758
▁പ്രേമ	-10.676
▁തയ്യാറ	-10.6762
സര്‍ക്കാരിനെതിരെ	-10.6762
▁നാളുകള	-10.6763
▁പ്രസാദ	-10.6767
ര്‍മാര്‍	-10.6767
▁പരിഗണിക്കുന്നത്	-10.6768
ർദ്ദ	-10.6769
▁ലഭ്യമാക	-10.677
▁ടെലി	-10.6773
▁എറിഞ്ഞ	-10.6773
▁മന്ത്രിയും	-10.6773
▁കുട്ടികൾക്ക	-10.6773
▁നല്‍കുന്നു	-10.6774
▁പരാജയപ്പെട്ടു	-10.6779
▁സാമ്പിളുകള്‍	-10.6779
▁സ്വദേശിനിയായ	-10.6781
▁ടൈ	-10.6783
▁ഡോക്ടറ	-10.6784
▁പ്രസവ	-10.6786
▁ഗവണ്‍മെന്റ്	-10.6789
▁ബന്ധു	-10.6789
മുട്ട	-10.6801
▁നടിയുടെ	-10.6801
ിക്കാം	-10.6803
▁ബിജെപിക്കെതിരെ	-10.6805
▁എംഎല്‍എമാരെ	-10.6808
▁ഡൗൺ	-10.6809
▁പണിയ	-10.6811
യുമായും	-10.6813
ാതിരിക്കാന	-10.6816
▁വീടുകളില	-10.6817
▁പെട്രോൾ	-10.6818
▁സ്മൃതി	-10.6818
▁നിശബ്ദ	-10.6818
▁ഫുഡ്	-10.6819
▁പടര്‍ന്ന	-10.6819
▁വിവേക	-10.682
▁ഡിസൈന	-10.682
▁ഗുജറാത്തിലെ	-10.6821
▁എന്നുളള	-10.6821
▁പുറത്തുവരുന്ന	-10.6823
▁മോഷണ	-10.6823
▁മാസത്തില്‍	-10.6824
▁കുറ്റക്കാര	-10.6824
▁ശാ	-10.6825
▁ഓഡിയോ	-10.6825
▁ബദ	-10.683
▁രഘു	-10.6831
▁സുന്ദര	-10.6834
ക്ടറ	-10.6834
▁ഗോവിന്ദന്‍	-10.6835
▁രാജസ്ഥാനിലെ	-10.6836
▁മരിച്ചവരുടെ	-10.6837
▁രാജസ്ഥാന	-10.6837
▁പരീക്ഷണം	-10.6839
▁സൈറ്റ്	-10.6839
▁600	-10.6841
on	-10.6842
▁ക്യാപ്റ്റന	-10.6844
▁എടുക്കാന്‍	-10.6846
ണമ	-10.6848
യ്ക്കല്‍	-10.6849
▁കണ്ണൂരിൽ	-10.685
▁എംപിമാര്‍	-10.6851
▁തെരഞ്ഞെടുപ്പില	-10.6853
▁താനും	-10.6856
▁പൊട്ടിത്തെറി	-10.6858
പേർ	-10.6859
▁തയ്യാറാണ്	-10.6859
▁ചലഞ്ച	-10.6861
ചിത്ര	-10.6862
▁പൂച്ച	-10.6863
▁പ്രതിയുടെ	-10.6863
▁സര്‍ക്കാരിന	-10.6865
▁രേഖകള	-10.6869
▁സേ	-10.6871
▁ഡേ	-10.6872
പെടുത്ത	-10.6877
▁അതിവേഗം	-10.6879
▁ഘടകങ്ങള	-10.6879
▁ഇടിവ	-10.6881
▁സൂപ്രണ്ട്	-10.6886
▁ഒഴിപ്പിക്ക	-10.6888
▁മെച്ചപ്പെട്ട	-10.6889
▁നവകേരള	-10.6889
▁പിന്നാക്ക	-10.6889
▁തുടങ്ങും	-10.6889
രുടെയും	-10.689
▁പൊലീസുകാര	-10.6891
▁തിരക്കഥ	-10.6891
▁ഭീ	-10.6893
ദിവസം	-10.6893
▁സേവ	-10.6895
നോട്	-10.6895
ക്കാരി	-10.6902
▁പദ്ധതിയില്‍	-10.6904
▁പൊതുവെ	-10.6905
▁നോക്കൂ	-10.6905
കരണ	-10.6911
▁വിജയിക്കാന്‍	-10.6912
▁ദോഷ	-10.6913
▁പോവുകയാണ്	-10.6913
ക്കാലം	-10.6914
▁സാന്നിധ്യമ	-10.6917
▁അകത്ത്	-10.6917
ലക്ഷ്മി	-10.6917
▁കച്ചവട	-10.6918
▁സമ്മേളനത്തിൽ	-10.6919
▁വിഭാഗത്തില	-10.6925
▁ഭാഗമാക	-10.6931
▁അറസ്റ്റില്‍	-10.6932
▁കെട്ടിടം	-10.6936
▁റൂമ	-10.694
▁നഗരത്തില്‍	-10.694
▁മധു	-10.6942
▁മണ്ഡലത്തില	-10.6942
▁രാഹുലിനെ	-10.6946
ങ്ങും	-10.6947
▁അവസാനിക്കുന്ന	-10.6948
▁ഘട്ടത്തില	-10.695
▁79	-10.695
▁നാള	-10.695
മാസം	-10.6955
▁വ്യക്തിത്വ	-10.6956
▁മൃഗ	-10.6956
▁തൃപ്പൂണിത്തുറ	-10.6959
▁ലഭ്യമാണ്	-10.6959
▁വിൽപ്പന	-10.6959
▁ആണെന്ന	-10.696
▁ഭാരവാഹികള	-10.696
▁ചേച്ചി	-10.696
▁കോൺഗ്രസിനെ	-10.696
▁ഭരിച്ച	-10.6961
▁കഴിഞ്ഞത്	-10.6963
▁വിഭജന	-10.6964
▁വധ	-10.6964
▁പരിസര	-10.6966
ട്രി	-10.6966
▁നക്ഷത്ര	-10.6968
▁ചെയ	-10.6968
▁റായ്	-10.6972
▁ശുഭ	-10.6972
▁അവള്‍	-10.6972
▁തട്ടിയെടുത്ത	-10.6974
▁89	-10.6974
ാക്കാന്‍	-10.6977
▁ആര്‍എസ്എസ	-10.6979
▁ഗണ	-10.6981
▁വടക്ക	-10.6981
▁പാലിച്ച്	-10.6983
▁രാജേഷ	-10.6983
▁ആദിത്യനാഥ്	-10.6987
ത്തൂർ	-10.6988
▁ദിവസത്തേക്ക്	-10.6989
▁ധനസഹായം	-10.6993
▁പിഴവ	-10.6995
▁രോഗവ്യാപനം	-10.6997
▁എത്തുമെന്ന	-10.6999
▁കിടക്കകള	-10.7
▁പിടിയിലായത്	-10.7005
റുകൾ	-10.7005
▁ഴി	-10.7008
പ്പെടുകയും	-10.7008
▁പ്രവര്‍ത്തകരുടെ	-10.7012
ഫെ	-10.7018
.6	-10.7018
കളിലൊന്ന	-10.7018
▁കഴിഞ്ഞില്ല	-10.7019
ദീ	-10.702
▁ക്കി	-10.7023
ിപ്പിച്ചു	-10.7024
▁അധ്യാപിക	-10.703
▁കെഎസ്ആർടിസി	-10.703
▁നൂറ്റാണ്ട	-10.703
▁സെന്‍ട്രല്‍	-10.703
▁ഒരുപക്ഷേ	-10.703
▁പ്രോഗ്രാമ	-10.703
▁തൊഴിലില്ലായ്മ	-10.703
▁ചലന	-10.7031
▁ഡിജിറ്റൽ	-10.7033
▁ഓര്‍ക്ക	-10.7036
▁ചരിത്രത്തിലെ	-10.7039
വൂർ	-10.7045
▁വച്ചു	-10.7046
▁എന്തിന	-10.7047
▁വിളിച്ചത്	-10.705
▁സ്വീകരിക്കുന്നത	-10.7051
▁അനൂപ	-10.7051
ല്ലാത്ത	-10.7051
പരിശോധന	-10.706
D	-10.706
വികസന	-10.706
▁യാത്രക്കാരെ	-10.7061
▁വര്‍ഷത്തില്‍	-10.7063
▁ജോയ്	-10.7064
▁ഹിന്ദുക്കള	-10.7066
▁ഒഴിവാക്കാന	-10.7068
▁അറിയുന്ന	-10.7069
▁പ്രേക്ഷകര	-10.707
ച്ചാ	-10.7072
ാമത്തെ	-10.7072
▁നടപ്പിലാക്കിയ	-10.7073
▁മത്സരിച്ച്	-10.7073
മുതല്‍	-10.7073
ിക്കാനും	-10.7077
▁ഉദയ	-10.7078
▁പിയും	-10.7079
ിനോട	-10.7081
▁മണ്ഡലമാണ്	-10.7083
ങ്ങളായി	-10.7085
▁വിനോദ്	-10.7086
▁കുഞ്ഞു	-10.7087
▁ശ്രീനിവാസ	-10.7087
▁വോട്ടുകളും	-10.7087
▁ക്രിസ്	-10.7088
യുമില്ല	-10.7088
▁സഞ്ജുവ	-10.7089
▁തോന്നുന്നു	-10.7089
▁ക്രീന	-10.7092
▁കൃത	-10.7094
▁വിദ്യാര്‍ഥികള്‍	-10.7095
▁വിഷയങ്ങളില്‍	-10.7097
▁കുമാറിനെ	-10.7098
▁ഇറാനി	-10.7099
▁സാഹചര്യമാണ്	-10.71
▁പേരാമ്പ്ര	-10.7101
▁തെറ്റിദ്ധരിപ്പി	-10.7101
▁നാണക്കേട	-10.7101
▁ആഞ്ഞടിച്ച	-10.7101
▁നന്മ	-10.7101
▁സാധ്യതയും	-10.7102
▁പെക്ടര്‍	-10.7102
▁കൈക്കൊള്ള	-10.7102
ക്കുറവ	-10.7103
▁അവസാനമായി	-10.7106
▁ചിത്രങ്ങളും	-10.7108
ഫാ	-10.7109
▁സ്റ്റാന്‍ഡ	-10.7109
▁ഇടയ	-10.7109
▁കൊണ്ടുള്ള	-10.7114
▁പിന്തുടര	-10.7118
▁തടസ്സ	-10.712
▁പ്രതിഷേധവുമായി	-10.7122
▁മറികടന്ന	-10.7124
മ്മാ	-10.7124
▁താലിബാന	-10.7124
▁കുഴപ്പ	-10.7124
▁ആക്രമണത്തിന്	-10.7124
▁97	-10.7125
▁തിരിച്ചടിയായ	-10.7128
▁എത്തിച്ചേര	-10.7129
▁അമ്പല	-10.7129
ഷിപ്പ	-10.713
▁അക്	-10.7131
ടോ	-10.7134
▁കമ്പനികള്‍	-10.7135
▁വസ്ത്രം	-10.7136
▁ചെയ്തിട്ടുള്ളത്	-10.7137
▁മോഡി	-10.7143
ക്കുന്നുണ്ട്	-10.7144
ാരം	-10.7144
▁നിര്‍ദേശിച്ചു	-10.7146
▁ട്രോ	-10.7146
▁എപി	-10.7147
ട്രോ	-10.7147
പത്ര	-10.7147
▁നിർദേശിച്ച	-10.7148
▁ബിസിനസ്സ്	-10.7148
▁വിലയിരുത്തുന്നത	-10.7149
▁പ്രതികാര	-10.715
▁ജനങ്ങളോട്	-10.7152
▁ഉദ്ദേശിച്ച	-10.7152
▁നാശനഷ്ട	-10.7153
ങ്ങല	-10.7155
▁81	-10.7159
▁പെരിയ	-10.716
▁വോട്ടുകളാണ്	-10.7161
▁ജീവനക്കാരന	-10.7165
ങ്ങല്‍	-10.7167
▁കാന	-10.7173
▁അങ്ങേയറ്റ	-10.7173
▁സെക്രട്ടേറിയറ്റ	-10.7173
▁ഡോളർ	-10.7173
▁ഹമാസ്	-10.7173
▁ആന്റിജന്‍	-10.7173
നിന്നു	-10.7174
▁ഒതുക്ക	-10.7174
▁സോഫ്റ്റ്	-10.7174
▁ആവശ്യത്തിന്	-10.7176
▁പൂർണ	-10.7177
▁ആവശ്യപ്പെടുന്നത	-10.7178
ിനെതിരേ	-10.7181
ലാല്‍	-10.7182
▁ആസ്	-10.7185
▁എഐ	-10.7193
▁നിർത്തിയ	-10.7193
യെടുത്ത	-10.7194
▁പ്രദേശങ്ങളിൽ	-10.72
▁ബന്ധമുള്ള	-10.7204
▁റെയിൽ	-10.7205
ന്നൂര്‍	-10.7205
▁എക്സ്	-10.7205
▁ലൈ	-10.7208
▁എൻ്റെ	-10.7209
▁വേണ്ടെന്ന	-10.7213
▁ഒന്നിച്ച	-10.7213
▁മണിയോടെയാണ്	-10.7214
▁അങ്ങനെയാണ്	-10.7218
ോണി	-10.7218
▁കാണിച്ചു	-10.7218
▁വർധനവ	-10.7219
▁യുവാവ	-10.7222
▁രജിത്	-10.7222
▁ഇടഞ്ഞ	-10.7222
▁മാധ്യമങ്ങളെ	-10.7224
▁വര്‍ധന	-10.7225
▁ദേവ്	-10.7226
▁പോസിറ്റീവായ	-10.7226
▁പുറത്തിറക്ക	-10.7229
▁നേമത്ത്	-10.723
▁ചർച്ചകള	-10.723
▁കേവലം	-10.7231
▁എന്തിന്	-10.7231
▁പതിനായിര	-10.7231
▁തിരക്ക്	-10.7235
ിക്കപ്പെട്ട	-10.724
▁മോഡല്‍	-10.724
▁നടത്തുകയാണ്	-10.7241
▁മണിക്കുട്ടന്‍	-10.7243
▁യുവാക്കളെ	-10.7243
▁പതിറ്റാണ്ട	-10.7244
▁ആദിത്യ	-10.7245
▁സെറ്റ	-10.7245
▁വെള്ളപ്പൊക്ക	-10.7246
▁നേപ്പാള	-10.7246
▁നടപ്പ	-10.7246
▁കശ്മീര്‍	-10.7246
▁പിറന്ന	-10.7247
സമ്മ	-10.7248
▁സുരേന്ദ്രന്റെ	-10.725
▁പ്രവേശിപ്പിച്ചത	-10.7251
▁ആരൊക്കെ	-10.7251
▁ജോലിയില്‍	-10.7252
▁ബാധിക്കും	-10.7253
ഴിഞ്ഞ	-10.7254
▁ഇതാ	-10.7255
സാമ	-10.7256
▁വീടുകളിൽ	-10.7259
പോല	-10.726
▁ക്രെഡിറ്റ്	-10.7263
ാതിരിക്കാൻ	-10.7268
▁സിപിഎമ്മും	-10.727
▁ഒളി	-10.7271
▁സ്വപ്നം	-10.7273
കൻ	-10.7277
▁റിസ	-10.7278
▁ഉപയോഗിച്ചാണ്	-10.7278
▁മന്ത്രിമാരും	-10.728
▁തർക്കം	-10.7284
▁പഠിക്കുന്ന	-10.7285
▁98	-10.7285
▁നിർദ്ദേശിച്ച	-10.7291
ൂരി	-10.7292
▁സമിതിയുടെ	-10.7293
ുകയാണെങ്കിൽ	-10.7294
▁രൂപപ്പെട്ട	-10.7295
▁മറികടന്ന്	-10.7296
▁ഉപ്പ	-10.7297
▁നിഷ്	-10.7297
▁രാജ്യമാണ്	-10.73
▁കൊടുത്ത്	-10.7301
▁അദ്ദേഹത്ത	-10.7302
▁ലാലു	-10.7304
ാട്ട്	-10.7304
ത്തറ	-10.7306
▁പോകുന്നു	-10.7308
▁സംവിധായകന	-10.7311
▁വൃത്തി	-10.7315
▁ഓക്സിജൻ	-10.7318
▁കൗൺസിൽ	-10.7318
▁തിയ്യതി	-10.7318
▁ജിഎസ്ടി	-10.7319
▁പുത്തന്‍	-10.7319
▁തുലാം	-10.7319
▁പ്രഥമ	-10.7319
▁മന്ത്രിസ്ഥാനം	-10.7319
കുളങ്ങര	-10.7319
▁റാവത്ത്	-10.7323
▁ട്രേഡ്	-10.7324
▁ഫ്രാന്‍സ	-10.7325
▁നഗ്ന	-10.7326
▁ബൂത്ത്	-10.7327
▁ശ്രദ്ധേയമാണ്	-10.7328
▁സംസാരിച്ചത്	-10.7329
ശേഷ	-10.7329
ന്‍റ്	-10.7331
▁ഇതുപോലെ	-10.7331
സന്‍	-10.7333
▁ആയത്	-10.7333
▁ഇവിടെയുള്ള	-10.7335
മാല	-10.7336
▁മോഹന്‍ലാല	-10.7337
▁പന്നി	-10.734
നല്ല	-10.7341
▁സ്ഥാനങ്ങള	-10.7342
▁രാജ്യങ്ങൾ	-10.7344
▁ഇള	-10.7345
▁കുരുക്ക	-10.7345
▁ളു	-10.7347
▁അഭിഷേക്	-10.7349
▁എതിർപ്പ	-10.7349
▁യുഎസ	-10.735
ാതിരിക്കുക	-10.7352
▁ഇക്കാര്യങ്ങള്‍	-10.7352
▁അനന്ത	-10.7356
▁റൂട്ട	-10.7359
▁പോരാട്ടമാണ്	-10.7362
▁എതിരാളികള	-10.7363
▁ടൈംസ്	-10.7365
▁സജ്ജമാക്ക	-10.7367
പോലൊരു	-10.737
▁റെക്കോർഡ്	-10.7373
▁ലഭിച്ചിട്ടില്ല	-10.7376
ഖി	-10.7376
ക്കുള്ളിൽ	-10.7385
▁ഹോട്ടല്‍	-10.7387
▁വ്യക്തിപരമായി	-10.7387
ുള്‍പ്പെടെ	-10.7391
▁കൂടുതല	-10.7391
▁കോഴി	-10.7392
▁കൂട്ടുകെട്ട	-10.7392
▁പണിമുടക്ക	-10.7392
▁വാർഷിക	-10.7392
▁ഉത്തര്‍പ്രദേശ്	-10.7392
▁ഏതാണ്ട്	-10.7392
▁(26)	-10.7392
▁പലര്‍ക്കും	-10.7392
▁എസ്എഫ്ഐ	-10.7394
▁മന്ത്രിമാര	-10.7396
▁മുറിച്ച	-10.7396
വര്‍ഗ	-10.7396
മണ്‍	-10.7399
▁സേവനങ്ങള്‍	-10.7399
▁പെണ്ണ	-10.7402
▁പൊലീസിനെ	-10.7402
പ്പാല	-10.7403
▁കാലയളവിൽ	-10.7408
▁കൊല്ലത്ത്	-10.7409
ിഷ്ട	-10.7414
വലി	-10.7414
▁ട്രേഷന്‍	-10.7414
▁സംഘടനയായ	-10.7415
▁മലപ്പുറത്ത്	-10.7415
മുറി	-10.7416
▁പിന്തുണയോടെ	-10.7419
▁ചെയ്യല	-10.742
▁നില്‍ക്കാന്‍	-10.742
▁ചന്ദ്രശേഖര	-10.7421
ഡാ	-10.7423
▁അവന്‍	-10.7426
▁ളാറ്റ	-10.7428
▁സുഭാഷ്	-10.743
▁ചേരി	-10.743
▁രാശിക്കാരെ	-10.7432
▁അതിവേഗ	-10.7432
▁ലോകത്ത	-10.7433
▁മിനിറ്റ	-10.7434
▁ഇഷ്ടം	-10.7437
▁മേഖലകള	-10.7438
▁മന്ത്രിസഭയില്‍	-10.744
ൈല	-10.744
ിറങ്ങ	-10.7441
▁സുധാകരന	-10.7442
▁റൂട്ട്	-10.7445
▁ആശുപത്രിയിലെത്ത	-10.7447
▁ചെയ്തതായി	-10.7447
▁പരിഗണിക്കും	-10.7451
തായിരിക്കും	-10.7451
▁നീക്കമാണ്	-10.7456
▁ഫോടന	-10.7457
▁വിദഗ്ധര	-10.7461
▁പഞ്ചാബിലെ	-10.7462
▁ബിജെപിയുമായി	-10.7462
▁ശ്രദ്ധേയമായ	-10.7463
▁ജീവ	-10.7463
▁സംസ്ഥാനത്ത	-10.7464
▁എന്‍ഫോഴ്	-10.7466
▁പ്രചോദന	-10.7466
▁മറുവശത്ത്	-10.7466
▁രക്ഷിതാക്കള	-10.7466
▁നോര്‍ത്ത്	-10.7466
▁പ്രതികൂല	-10.7466
യാർ	-10.7467
▁വിട്ടുകൊടുക്ക	-10.7467
▁അന്‍വര്‍	-10.747
▁സ്ത്രീധന	-10.747
േനെ	-10.747
▁ഭാര്യയെ	-10.7475
▁പൊട്ടി	-10.7475
▁മറവ	-10.7475
▁വർക്ക്	-10.7476
ല്ലൂർ	-10.7476
▁കീഴില	-10.7479
▁ഇദ്ദേഹത്തിന്റെ	-10.7479
▁ഏഴാം	-10.748
▁ചോദ്യങ്ങള	-10.7481
▁രീതിയില	-10.7484
യുണ്ടെന്നും	-10.7485
▁സമ്മാനമായി	-10.7487
▁എംഎ	-10.749
▁സ്ഥാപനങ്ങളും	-10.7491
പിടി	-10.7491
▁കഴിഞ്ഞിരുന്ന	-10.7494
▁ചന്ദ്രന	-10.7495
റ്റര്‍	-10.7498
▁പ്രതിഭ	-10.7499
▁പറയാനുള്ളത്	-10.7501
▁പതിച്ച	-10.7501
▁കോറ	-10.7505
▁പ്രയോജന	-10.7507
ുകൂടി	-10.7507
▁പാക്	-10.7507
ഗ്രഹ	-10.7512
▁ചെയ്യാത്ത	-10.7515
▁പ്രതിമാസം	-10.7515
▁ഷഹ	-10.7515
▁ഉള്‍	-10.7516
▁വരികയും	-10.752
വാര്‍	-10.7521
ത്തരം	-10.7526
▁ഓര്‍മ്മ	-10.7527
▁നൽകുകയും	-10.753
▁സർവീസ	-10.7532
▁സിറ്റ്	-10.7532
▁എന്നറിയ	-10.7538
▁ആവശ്യപ്പെടുന്ന	-10.7538
ുന്നവരുടെ	-10.754
▁പാണ്ഡ്യ	-10.7541
▁പ്രവണത	-10.7541
G	-10.7541
▁നിറവേറ്റ	-10.7541
▁പ്രസിദ്ധീകരിക്ക	-10.7541
▁മോഹൻലാൽ	-10.7541
▁രാജ്യദ്രോഹ	-10.7541
▁പ്രോഗ്രാം	-10.7541
നാവ	-10.7542
▁ക്ഷണിക്ക	-10.7543
▁ട്രാഫിക്	-10.7543
▁അധിക്ഷേപ	-10.7546
ക്കായിരുന്നു	-10.755
▁രേഖപ്പെടുത്തിയത	-10.755
▁രുചി	-10.7551
▁വൃത്തങ്ങ	-10.7551
▁വരുമെന്നും	-10.7554
▁നിയന്ത്രണത്തില	-10.7555
▁മനസ്സിലായ	-10.7556
ാനായ	-10.7557
▁ചൈനയില്‍	-10.7558
▁ആസ്ഥാനമായ	-10.7558
ന്നത്	-10.7558
▁ശീല	-10.7559
തൃ	-10.7563
ഹാന	-10.7564
▁സ്ഥാപനങ്ങളുടെ	-10.7565
ലുകൾ	-10.7566
യ്ക്കുന്ന	-10.7567
▁സ്വത്ത്	-10.7569
▁ഹൈക്കമാന്‍ഡ	-10.7569
▁നഗരങ്ങള	-10.757
ുന്നതിലൂടെ	-10.7572
െടുക്കാന്‍	-10.7574
B	-10.7575
ുളളത്	-10.7577
▁രെ	-10.7579
▁ഉണ്ടാവില്ല	-10.7581
▁കോഴ്	-10.7581
▁യോഗത്തിന്	-10.7582
▁!	-10.7586
▁തൊഴിലാളികൾ	-10.7586
▁പുരോഗമിക്ക	-10.7586
പ്രവര്‍ത്തകര	-10.7587
രൂ	-10.7587
▁ചെറുപ്പക്കാര	-10.7588
▁സ്വീ	-10.7588
▁കൊണ്ടുവന്നത്	-10.7589
▁കുറയും	-10.7589
ക്ഷി	-10.7592
▁ലഭിക്കാന്‍	-10.7593
▁അലര്‍ട്ട്	-10.7594
▁താല്‍പര്യ	-10.7596
യാവും	-10.7598
▁പിറക	-10.76
ാകുമെന്ന്	-10.76
▁സ്വീകരിക്കാന്‍	-10.76
▁കളക്ടറ	-10.7604
പക	-10.7604
▁ഫിറോസ	-10.7605
▁അംബാനിയുടെ	-10.7606
മുണ്ടാ	-10.7608
▁അല്ലേ	-10.7611
▁സാധിക്കാത്ത	-10.7612
▁സത്യസന്ധ	-10.7616
▁തുര്‍ക്കി	-10.7616
▁വിപ്ലവ	-10.7616
▁മദ്യപിച്ച	-10.7616
▁വിനായക	-10.7617
▁വിഷം	-10.7617
▁നിലനിൽക്ക	-10.7617
▁പട്ടിണി	-10.7618
▁ബംഗാളിലെ	-10.7618
▁അറബ്	-10.7618
ൽപ്പ	-10.762
▁പൊലീസും	-10.7624
ഭാഗ	-10.7626
ക്രി	-10.7626
▁മാഹി	-10.7628
▁ബഹ്	-10.763
▁ടാക്	-10.7633
▁പരാമർശം	-10.7633
നാക	-10.7634
▁കാരനായ	-10.7635
▁മറ്റാര	-10.7636
▁നിർമാണ	-10.764
കളുണ്ട്	-10.7642
▁പുരോഗമിക്കുകയാണ	-10.7642
പ്രവർത്തക	-10.7643
▁ഉത്തരാഖണ്ഡ	-10.7645
▁എന്തോ	-10.7647
ക്കുമാണ്	-10.7648
▁സൗര	-10.765
▁മുന	-10.765
രുതെന്ന	-10.765
വരുമ	-10.7653
▁സമൂഹത്തില്‍	-10.7653
▁ക്ലാസുകള	-10.7655
▁നല്‍കുന്നതിന	-10.7656
▁മുംബൈയിലെ	-10.766
▁പുറപ്പെട	-10.7662
▁സീറ്റുകളിലും	-10.7663
▁ജെപി	-10.7666
▁88	-10.7667
റിംഗ്	-10.7668
▁അഭിഭാഷകര	-10.7668
▁ഉൾപ്പെടുത്തിയ	-10.7668
▁പോലെയുള്ള	-10.7672
▁ഗീത	-10.7672
▁നിക്ഷേപിക്ക	-10.7674
▁പഞ്ച	-10.7675
▁യുഡിഎഫിന	-10.7675
▁സെക്	-10.7676
പോലും	-10.7678
▁മത്സരാർത്ഥികള	-10.768
▁പാർട്ടിയെ	-10.7681
▁നിലവാര	-10.7683
ക്കുമെന്നും	-10.7683
ിരിക്കെയാണ്	-10.7684
▁കൺ	-10.7684
രാശി	-10.7685
ക്ടർ	-10.7687
▁പങ്കാളിത്ത	-10.7687
കളിലേക്ക്	-10.7688
▁കിം	-10.7688
▁(1	-10.769
▁വിഎസ്	-10.7691
▁മനസിലാക	-10.7691
▁ട്വിറ്റര്‍	-10.7692
▁താൽപര്യ	-10.7692
▁തിരുവമ്പാടി	-10.7692
▁അഥവാ	-10.7692
▁ഹെൽത്ത്	-10.7692
▁തകര്‍ച്ച	-10.7692
▁താങ്കൾ	-10.7692
▁കഴുക	-10.7692
▁കൊടു	-10.7693
െത്തും	-10.7694
▁റെയില്‍വെ	-10.7694
▁ശർമ്മ	-10.7694
▁സാധ്യതകള്‍	-10.7695
▁കവിത	-10.7695
▁ചുര	-10.7695
മൊരു	-10.7695
▁ഫാക്ടറി	-10.7696
തിനാണ്	-10.7699
▁ഭരിക്ക	-10.7699
▁തുടര്‍ന്നു	-10.7699
▁ഈസ്റ്റ്	-10.77
ഹു	-10.7702
▁കഴിയില്ലെന്ന	-10.7705
▁പൗരന്മാര	-10.7705
▁റേഷന്‍	-10.7705
▁ജയില	-10.7706
▁ഭാഗത്ത	-10.7707
▁കേരളീയ	-10.7707
▁തമ്മില	-10.7708
▁കുടിക്ക	-10.771
▁സല്‍മാന്‍	-10.771
▁നൂ	-10.7713
കിയ	-10.7714
ിനെക്കുറിച്ച്	-10.7716
വെയ്ക്ക	-10.7718
▁നവീകരണ	-10.7722
▁ചെയ്തുവെന്ന	-10.7722
▁രണ്ടാമത	-10.7722
▁തങ്ക	-10.7725
േട്ടന	-10.7725
▁നിരീക്ഷണത്തിൽ	-10.7726
▁ബുദ്ധിമുട്ട്	-10.7727
▁കോർ	-10.7728
മുണ്ടോ	-10.773
▁ഗ്രാമിന്	-10.7732
▁നാട്ടുകാരും	-10.7732
▁റിനോഷ്	-10.7733
▁പുറത്തെടുത്ത	-10.7737
▁കിരീടം	-10.7738
▁കൊടുത്തത്	-10.7738
▁നിയമസഭയിൽ	-10.7739
▁ചെമ്പ	-10.7739
▁വിഷയങ്ങള്‍	-10.774
▁സംവിധാനത്ത	-10.7741
▁ശിവകുമാറ	-10.7741
▁ഡൽഹിയിൽ	-10.7744
▁പ്രവാസികള്‍	-10.7746
▁സംസാരിക്കുന്നത്	-10.7747
▁മിനിറ്റ്	-10.7748
ദന	-10.7749
േക്കാവുന്ന	-10.7751
രാഗ	-10.7752
▁ട്രേറ്റ	-10.7752
▁ഇസ്ലാമിക	-10.7754
▁പ്രദേശത്ത	-10.7754
▁അനുകൂലമായി	-10.7756
ിടത്ത്	-10.7758
▁ശോഭാ	-10.7758
▁ഡ്	-10.7759
മാക്കുന്ന	-10.776
▁തിരഞ്ഞെടുപ്പുകള	-10.776
▁എന്നിവിടങ്ങളിലെ	-10.7761
ക്കില്ല	-10.7764
യാളുടെ	-10.7764
▁മാതാപിതാക്കള്‍	-10.7765
ദിവസ	-10.7766
ുകളിലായി	-10.7766
▁കൃത്രിമ	-10.7768
▁ഭൂരിഭാഗം	-10.7768
▁ഇബ്രാഹിം	-10.7768
▁അറബിക്കടല	-10.7768
▁അവഗണിച്ച	-10.7768
▁സന്ധ്യ	-10.7768
▁അണിയറ	-10.7768
▁ഇസ്രയേല	-10.7768
ളവ	-10.7769
▁സ്ഥലത്തെത്തി	-10.7769
ഓള	-10.7769
▁സ്രവ	-10.777
▁പള്‍സര്‍	-10.7772
▁കോടിയോളം	-10.7773
▁വാഹനത്തില്‍	-10.7773
▁നടത്തിപ്പ	-10.7773
▁കമ്മീഷന്റെ	-10.7774
നെയും	-10.7777
▁റൗണ്ട	-10.7778
▁വോട്ടിംഗ്	-10.7779
▁പ്രവര്‍ത്തകന്‍	-10.7783
▁എളുപ്പ	-10.7786
▁ദിവസങ്ങളായി	-10.7788
▁ഹാജരാക്കിയ	-10.7789
▁വോട്ടുകളുടെ	-10.7792
പറമ്പ	-10.7792
▁മത്സരിക്കും	-10.7795
ാര്‍ഥ	-10.7795
▁കീഴ്	-10.7798
ിരുന്നതായി	-10.78
പ്പട	-10.78
▁ശു	-10.7801
▁വിമാനത്താവള	-10.7802
ിലൂടെയും	-10.7802
റൂ	-10.7803
▁രാജ്യങ്ങളുടെ	-10.7806
▁ടീമില്‍	-10.7808
ക്കണമെന്ന	-10.781
▁പുറത്തും	-10.7811
▁തറ	-10.7812
▁മാധ്യമങ്ങളില്‍	-10.7814
പ്ത	-10.7822
▁പ്രക്ഷോഭം	-10.7823
▁കോളജ	-10.7824
▁ഡാമ	-10.7826
▁റദ്ദാക്കി	-10.7826
▁അതത്	-10.7827
▁കോള്‍	-10.7827
ര്‍ണ	-10.7828
▁ആഫ്രിക്ക	-10.7831
▁സാം	-10.7833
▁ഊര	-10.7835
▁തെറ്റു	-10.7837
▁ജെഡിഎസ്	-10.7838
▁പീഡനം	-10.7838
വെച്ച്	-10.7838
▁നിര്‍മിക്ക	-10.7839
▁കണ്ടെത്തല്‍	-10.784
▁പാസ	-10.7841
▁മധുര	-10.7844
▁കോണ്‍സുലേറ്റ	-10.7845
▁ക്രിമിനൽ	-10.7845
▁ദുരന്തനിവാരണ	-10.7845
▁എല്‍ജെപി	-10.7845
▁ഗ്രൗണ്ട	-10.7845
▁ഗുസ്തി	-10.7845
▁മാഫിയ	-10.7845
▁പതിനെട്ട	-10.7845
▁ഇമേജ	-10.7846
▁ലക്ഷത്തിലധികം	-10.7846
▁സഹകരണം	-10.7849
▁നിശ്ചയിക്ക	-10.7849
▁മര്യാദ	-10.785
ികളും	-10.785
ാനുമുള്ള	-10.785
▁സംഘപരിവാര്‍	-10.7851
▁സംഘത്തില	-10.7854
▁വേണമെന്നാണ്	-10.7856
▁പങ്കാളികള	-10.7858
▁സ്ഥലങ്ങളിൽ	-10.7866
▁ചുഴലിക്കാറ്റ്	-10.7868
▁അവസ്ഥയാണ്	-10.7868
▁വിധേയമാക്ക	-10.7869
▁ലൗ	-10.7869
കാരിയായ	-10.787
▁അനുഭവിക്കുന്ന	-10.7873
▁(10	-10.7875
▁ചേര്‍ത്ത്	-10.7875
▁ഇയാള	-10.7875
▁വന്ദേഭാരത്	-10.7877
▁പാക്കേജ	-10.7878
ാനാവും	-10.7879
▁പ്രതാപ	-10.7879
▁വിളിപ്പിച്ച	-10.7879
▁അഭിനയിക്ക	-10.788
▁ചൂട്	-10.7881
▁സംഘടനകളുടെ	-10.7882
▁ചെയ്യുന്നത	-10.7884
▁ലിംഗ	-10.7884
▁കുഞ്ഞ്	-10.7885
▁ന്നി	-10.7887
മൂല	-10.7889
ാവുന്നത്	-10.7889
നുസരിച്ച്	-10.7889
▁സംഭവങ്ങൾ	-10.7894
▁തകര്‍ന്നു	-10.7895
▁വാര്‍ത്താസമ്മേള	-10.7895
ിട്ടുണ്ട	-10.7896
മൊഴി	-10.7901
▁M	-10.7902
▁വ്യക്തികള്‍	-10.7902
▁തൂക്ക	-10.7903
▁സാഹചര്യത്തില	-10.7904
▁കമ്പനികൾ	-10.7906
▁അക്കൗണ്ടുകള	-10.7912
▁സ്റ്റോറി	-10.7913
ജിത്ത്	-10.7914
▁നടുവ	-10.7914
▁അനുസരിച്ച	-10.7917
▁വ്യത്യാസം	-10.7921
▁ധര്‍മ	-10.7922
▁ക്രിസ്ത്യന്‍	-10.7922
▁കൺട്രോൾ	-10.7922
▁പിൻവലിച്ച	-10.7922
▁സംവിധായകൻ	-10.7922
ാവശ്യ	-10.7922
▁വൈറൽ	-10.7922
▁അണുബാധ	-10.7923
▁ഉണ്ടെങ്കില്‍	-10.7923
▁ഓഡിറ്റ	-10.7923
▁ഗ്യാസ്	-10.7924
▁ആവശ്യപ്പെടുന്നു	-10.7925
▁ഏതൊരു	-10.7926
▁റാങ്ക്	-10.7926
▁സംഭവിക്കുന്ന	-10.7927
▁ബോള്‍	-10.7931
▁വിവാദങ്ങള	-10.7932
▁പോസ്	-10.7933
ുമെങ്കിലും	-10.7935
▁അങ്ങ്	-10.7935
▁സോണ്‍	-10.7936
▁ബാറ്റ	-10.7938
ിട്ടുമുണ്ട്	-10.7939
▁ഓപ്പറേഷന്‍	-10.7939
▁ഗോപ	-10.7939
▁പറഞ്ഞിട്ടില്ല	-10.7941
▁ഡേറ്റ	-10.7943
▁കര്‍ഷകര	-10.7945
വട്ടം	-10.7951
▁സമൂഹത്തിന്റെ	-10.7953
▁സ്ത്രീകള	-10.7955
▁തനി	-10.7956
ുന്നതിലും	-10.7957
ഡബ്ല്യു	-10.796
▁കേസുകളിൽ	-10.796
മരണ	-10.7963
▁വിജയിക്കുമെന്ന	-10.7964
▁തൊ	-10.7964
▁അവാര്‍ഡ്	-10.7965
▁കോപ്പി	-10.7967
▁മാറ്റങ്ങള	-10.7971
▁നീണ്ടു	-10.7971
▁മനസ്സിലാക്കിയ	-10.7973
▁ബുക്ക	-10.7976
▁മാര്‍ക്ക	-10.7977
▁മേഖലയിലും	-10.798
▁പോയിന്റ	-10.7982
▁പ്രധാനം	-10.7984
ാനായില്ല	-10.7984
▁ഗുജറാത്തില്‍	-10.7984
ാകണം	-10.7985
▁ഉട	-10.799
▁ഒരോ	-10.7992
ുമെന്നായിരുന്നു	-10.7992
▁വസ്തുക്കള്‍	-10.7993
▁എളുപ്പമ	-10.7996
▁അശ്വ	-10.7997
▁കുവൈത്ത	-10.8
kerala	-10.8
▁കോർപ്പറേഷന	-10.8001
▁തൃണമൂൽ	-10.8001
▁സംഘപരിവാർ	-10.8001
▁ഉടലെടുത്ത	-10.8001
▁ശ്രുതി	-10.8001
▁കാബൂള	-10.8001
▁അച്ഛൻ	-10.8001
▁ഓപ്ഷന	-10.8001
▁ആവശ്യകത	-10.8001
▁ഗണ്യമായ	-10.8001
▁തീരുമാനമെടുത്ത	-10.8002
ണ്ണി	-10.8003
▁കാഴ്ചപ്പാട	-10.8003
▁ഫോർട്ട്	-10.8003
ാനാവാത്ത	-10.8003
▁ഞ്ഞ	-10.8003
▁കോൺഗ്രസിന	-10.8005
▁മോഹന	-10.8005
നത്തിന്	-10.8005
▁പാനല	-10.8006
▁ഫോം	-10.8006
▁ബെന്നി	-10.8009
▁വ്യാ	-10.8011
▁വർക്ക	-10.8011
രാഷ്ട്രീയ	-10.8014
▁ഡെവലപ്	-10.8015
▁സാധിച്ചിരുന്നു	-10.8015
▁തെളിവുകൾ	-10.8016
ുവരികയാണ്	-10.8019
ർപ്പ	-10.802
▁സുഹ	-10.802
▁ഡോക്ടർമാർ	-10.8021
▁ഇതിനുള്ള	-10.8021
▁മാറിയത്	-10.8022
ാകാം	-10.8022
▁വരി	-10.8024
ഗ്രാ	-10.8025
▁ഇരുപത്	-10.8029
▁ആരോഗ്യം	-10.803
▁ഗോപാല	-10.8031
ഡീ	-10.8031
▁ആരോഗ്യമന്ത്രാലയ	-10.8032
▁യുഎസ്സ	-10.8036
▁റിനോഷ	-10.8036
▁പൂര	-10.8038
▁രാധാകൃഷ്ണന്‍	-10.8043
▁പാക്കേജ്	-10.8046
▁പുലർത്ത	-10.8048
▁താല്‍പ്പര്യ	-10.8051
▁വന്നാലും	-10.8051
ൂട്ട	-10.8051
▁കണ്ടെത്താനായ	-10.8053
▁ദര്‍ശന	-10.8054
▁അധ	-10.8054
യേക്കാള്‍	-10.8057
▁യാത്രക്കാര്‍	-10.8058
▁കണ്ടിരുന്നു	-10.8059
▁ഹോട്ടലില്‍	-10.806
▁പാദ	-10.806
▁അംഗങ്ങളുടെ	-10.8061
▁മൂല	-10.8065
▁ഖു	-10.8066
പുറ	-10.8067
▁സ്വര്‍ണ്ണ	-10.8067
ധാരണ	-10.8067
▁പോകാന	-10.8069
തിനുശേഷം	-10.8073
▁നല്ക	-10.8075
▁തടയുന്നതിന	-10.8076
ിക്കണം	-10.8076
▁ഓട്ടോറിക്ഷ	-10.8079
▁നിരപരാധി	-10.8079
▁ബ്രാഹ്മണ	-10.8079
▁യൂസഫലി	-10.8079
▁ഷാരൂഖ	-10.8079
▁സീനിയർ	-10.8079
▁തൊട്ടുപിന്നാലെ	-10.8079
▁ഒഴിച്ച	-10.808
▁(29)	-10.808
▁ഹോസ്റ്റല	-10.808
▁ഗോള്‍ഡ	-10.808
▁ക്ലസ്റ്റര്‍	-10.808
▁വൈദ്യ	-10.8081
▁കിലോമീറ്ററ	-10.8086
▁സ്വാധീനമുള്ള	-10.8087
▁ദുരൂഹത	-10.8089
▁ബോസില്‍	-10.8092
ക്കായുള്ള	-10.8093
▁ദൗത്യം	-10.8096
▁നിയമപരമായ	-10.8097
ശന	-10.8099
തിനെക്കുറിച്ച്	-10.81
▁കണ്ടാല്‍	-10.8104
▁നിറയ	-10.8105
▁സ്വദേശിയാണ്	-10.8107
▁താല്‍പര്യമില്ല	-10.8108
സംഘം	-10.8109
▁കൂട്ടത്തോടെ	-10.811
ത്താണ്	-10.8111
▁ഡിവിഷന്‍	-10.8111
▁പ്രതിമ	-10.8112
▁മുഴുവന	-10.8114
▁ഉണ്ടെന്നാണ്	-10.8115
▁വകുപ്പും	-10.8116
ുന്നില്ലെന്നും	-10.8118
▁നല്‍കുമെന്ന്	-10.8119
▁തസ്തികകളിലേക്ക	-10.8119
▁വ്യാപാരി	-10.8119
▁പേരു	-10.8119
രാത്രി	-10.812
▁ഇന്റ	-10.8121
കാരന	-10.8125
▁അനുഭവിക്ക	-10.8135
പ്പന	-10.8136
ഗ്ന	-10.8139
ൃതി	-10.814
▁മാധ്യമപ്രവർത്തക	-10.8141
ക്കാരായ	-10.8142
ഗര്‍	-10.8144
▁പറയുകയാണ്	-10.8144
യോടുള്ള	-10.8147
ിന്റേത്	-10.8148
▁കീഴടങ്ങ	-10.8149
ുൾപ്പെടെ	-10.8154
▁തെളിയ	-10.8154
▁കാണും	-10.8155
▁താങ്ങ	-10.8157
ിയാൽ	-10.8158
▁ചിത്രീകരിക്ക	-10.8159
▁ജൂനിയര്‍	-10.8159
▁ശുപാർശ	-10.8159
▁മെമ്മറി	-10.8159
▁യാഥാർത്ഥ്യ	-10.8159
▁രാജസ്ഥാൻ	-10.8159
▁തള്ളിക്കളയ	-10.8159
▁തോൽവി	-10.8159
▁മുന്‍കൂട്ടി	-10.8159
▁നിരോധിക്ക	-10.8159
▁വര്‍ധിക്കും	-10.8159
ുമായാണ്	-10.8159
▁പകർപ്പ	-10.8159
ക്കൂടി	-10.8162
▁ഉള്ളൂ	-10.8163
▁നേതാക്കളാണ്	-10.8163
ക്കാരന്‍	-10.8164
▁ബാബുവിന്റെ	-10.8165
▁വകഭേദം	-10.8166
ക്കടവ്	-10.8166
ുകൊണ്ടുള്ള	-10.8167
▁അറിയിക്കുന്നു	-10.8167
▁പെൺകുട്ടിയെ	-10.8168
സറ	-10.8171
▁2010	-10.8171
പ്പോഴ	-10.8173
▁നെടു	-10.8173
▁മുസ്ലിങ്ങള	-10.8174
▁മദ	-10.8182
ക്കഴിഞ്ഞു	-10.8185
▁മാത്രമെ	-10.8185
▁രണ്ടുപേര	-10.8187
▁കൊണ്ടുപോയി	-10.8188
▁ലക്ഷണങ്ങള	-10.8189
▁യുവാവിന്റെ	-10.8189
▁അധികമായി	-10.8192
ോല	-10.8192
▁ആശുപത്രിയിലും	-10.8194
▁സൂരജ	-10.8196
▁ഫിലിപ്പ	-10.8197
▁നടക്കുമെന്ന	-10.8199
▁വൈറലായി	-10.82
ൊര	-10.8202
▁അറിയിക്കുകയും	-10.8205
▁പെട്ടെന്ന	-10.8206
▁ബന്ധമുണ്ടെന്ന	-10.8211
ര്‍മ്മ	-10.8211
്‍ക്കായി	-10.8211
▁വന്നാൽ	-10.8213
▁സംസാരിക്കാന്‍	-10.8213
ഡ്ര	-10.8214
▁വൈകി	-10.8215
▁ഉല	-10.8216
▁വര്‍ക്ക	-10.8218
▁തടയാൻ	-10.8219
▁സ്റ്റാഫ	-10.8223
▁ഒന്നിച്ച്	-10.8223
▁മുന്‍ഗണന	-10.8225
▁കോടിയാണ്	-10.8228
മെന്നാണ്	-10.8229
▁ഗ്രൂപ്പുകള്‍	-10.823
▁ഉയര്‍ത്തുന്ന	-10.8232
ഘാത	-10.8233
▁തകർക്ക	-10.8233
▁കുത്തിയ	-10.8235
▁എന്‍ജിനീയര്‍	-10.8239
▁കണ്‍വീനര്‍	-10.8239
▁കസേര	-10.8239
▁കെഎസ്ആര്‍ടിസി	-10.8239
▁ചിദംബരം	-10.8239
▁ജനപ്രീതി	-10.8239
▁പ്രിൻസിപ്പൽ	-10.8239
▁ഉള്‍ക്കൊള്ള	-10.8239
▁ഇവിടുത്ത	-10.8239
▁വളര്‍ന്ന	-10.8239
▁മുമ്പാകെ	-10.824
▁തിവാരി	-10.824
▁പരുക്കേറ്റ	-10.8241
ബേ	-10.8241
▁സംഭരണ	-10.8241
▁കൊയ്യ	-10.8244
▁കുടുംബത്തില്‍	-10.8247
▁ഇന്നിംഗ്	-10.8249
▁സോമ	-10.825
▁ഓണ്‍ലൈനായി	-10.825
▁അഭിനന്ദിച്ച	-10.8251
▁ദുരുപയോഗം	-10.8254
▁അണികള	-10.8256
▁എതിർത്ത	-10.8257
▁കിരണ്‍	-10.8259
ബല	-10.8261
▁മാക്	-10.8264
ക്കള്‍	-10.8265
▁ഇസ്	-10.8267
▁ഉയരുന്നുണ്ട്	-10.827
▁മൗനം	-10.8273
തവണ	-10.8273
▁പോസ്റ്റിൽ	-10.8273
▁സൈനികര	-10.8273
▁ചടങ്ങുകള്‍	-10.8275
▁പ്രവാസികള്‍ക്ക്	-10.8275
▁നൽകണം	-10.8276
▁കണക്കാക്കുന്നത്	-10.8278
▁ആസാദ	-10.8279
▁വികസനത്തിന്	-10.8283
▁കരഞ്ഞ	-10.8291
▁ആണോ	-10.8291
▁ചാറ്റ	-10.8294
▁വടക്ക്	-10.8295
▁പാർട്ടികൾ	-10.8295
▁സിസ്റ്റം	-10.8296
▁പരിശോധനകള്‍	-10.8301
▁നയിച്ചത്	-10.8302
▁സമയവും	-10.8303
▁കൊല്ലപ്പെട്ടു	-10.8306
▁നീക്കിയ	-10.8307
റാം	-10.8307
▁ആരംഭിക്കുന്നത്	-10.8308
▁തീവ്രത	-10.8309
▁എത്തുക	-10.8309
▁പൂരം	-10.8311
▁പരിസരത്ത്	-10.8315
▁സമരത്തിന്	-10.8317
▁ആംബുലൻസ	-10.8319
▁യൂണിയൻ	-10.8319
▁ശിവന്‍കുട്ടി	-10.8319
▁സാംസ്കാരിക	-10.8319
▁ബില്യൺ	-10.8319
▁വിരമിക്ക	-10.8319
▁മുൻഗണന	-10.8319
▁ഗുലാം	-10.8319
▁യൂണിവേഴ്സിറ്റി	-10.832
▁പരിശോധനാഫലം	-10.832
▁വേണമെങ്കിലും	-10.832
▁ബന്ധുവ	-10.8321
▁ശര്‍മ്മ	-10.8322
▁87	-10.8322
ന്ദ്ര	-10.8323
ായിരിക്കാം	-10.8323
▁സ്വാതന്ത്ര്യം	-10.8324
ുന്നുണ്ടെന്ന്	-10.8326
▁P	-10.8327
▁വേര	-10.8328
▁വിമാനങ്ങള്‍	-10.8328
▁പുറത്തുവര	-10.8331
▁സാരി	-10.8332
▁കർഷകരുടെ	-10.8333
▁കിഴക്കൻ	-10.8335
▁തുടക്കത്തിൽ	-10.8336
വിഭാഗ	-10.8336
▁ശരിയല്ല	-10.8337
▁അച്ഛനും	-10.8338
▁തീര്‍ക്ക	-10.8338
▁നേതൃ	-10.8339
▁അഴീക്കോട്	-10.8339
ഷ്യൽ	-10.834
▁ആക്രമണത്തില	-10.834
▁അന്യ	-10.834
സ്ഥിതി	-10.834
▁സൂചിക	-10.834
▁അതെല്ലാം	-10.8341
▁ഓഫീസറ	-10.8344
▁പയ്യ	-10.8347
ങ്ങാടി	-10.8348
കൊള്ള	-10.8351
▁ബോട്ട്	-10.8352
▁പിരിച്ച	-10.8354
▁സിനേഷന	-10.8355
▁വിഷമം	-10.8356
സ്ഥാപന	-10.8357
▁പ്രതികളുടെ	-10.8358
മൊക്കെ	-10.8359
▁വീട്ടുകാര്‍	-10.836
▁ടൗണ്‍	-10.8361
▁ശ്രമമാണ്	-10.8363
ംഗം	-10.8363
▁ലക്ഷ്യമിടുന്ന	-10.8365
യോടൊപ്പം	-10.8365
കാര്‍	-10.8365
▁ത്രിപുര	-10.8365
ുണ്ടായിരുന്നില്ല	-10.8365
▁ഉത്തരാഖണ്ഡ്	-10.8369
▁ബ്രി	-10.8371
▁നഷ്ടമായി	-10.8372
മിക	-10.8373
▁രണ്ടാമത്	-10.8375
▁നിര്‍മ്മാണം	-10.8375
ങ്കര	-10.8378
▁മാറുമെന്ന	-10.8378
▁തസ്തികയ	-10.838
തരം	-10.8383
▁നഷ്ടമായത്	-10.8384
▁വോട്ടര്‍മാര	-10.8386
▁മഹാരാഷ്ട്രയിലെ	-10.8387
േഴ്സ	-10.8388
▁പ്രിയങ്കയുടെ	-10.8389
▁ബാലകൃഷ്ണന്‍	-10.839
ത്തിനിടയില	-10.8391
▁വന്നപ്പോൾ	-10.8393
▁ശതമാനമായി	-10.8396
▁തൃക്ക	-10.8396
▁ബന്ധമുണ്ട	-10.8396
▁മണ്ഡലമായ	-10.8396
▁സൗഹൃദം	-10.8397
▁പരിഹരിക്കാന്‍	-10.8397
▁തൊട്ട	-10.8398
ഫലം	-10.8398
▁ഡിവൈഎഫ്	-10.8399
▁വ്യോമ	-10.84
▁ഗുണ്ട	-10.84
▁സൗന്ദര്യ	-10.8401
▁കൊയിലാണ്ടി	-10.8401
▁വർധിപ്പിച്ച	-10.8401
▁സിഇഒ	-10.8401
▁വിട്ടുവീഴ്ച	-10.8401
▁പയ്യന്നൂര്‍	-10.8401
an	-10.8401
▁വിഷ്ണുവ	-10.8401
▁ഏകദിന	-10.8404
ബിൾ	-10.8406
▁അടക്കമുള്ളവര്‍	-10.8406
▁സംക്രമണം	-10.8407
▁കൈവിട	-10.8407
▁റെയ്	-10.8409
▁സീറ്റാണ്	-10.841
വീട്ട	-10.841
▁ജന്മദിന	-10.8411
ക്കോടി	-10.8411
▁സാബു	-10.8412
▁അപ്രതീക്ഷിതമായി	-10.8412
▁മറ്റൊന്ന	-10.8415
▁ആയിരിക്ക	-10.8415
▁കുറെ	-10.8416
▁നീക്കങ്ങൾ	-10.8416
▁ആരോഗ്യനില	-10.8419
സമ്പർക്കത്തിലൂടെ	-10.8419
▁കേവല	-10.8421
▁മത്സരാര്‍ത്ഥികള	-10.8421
▁ചുരുങ്ങിയ	-10.8423
▁പുറക	-10.8427
▁ആളുകൾക്ക്	-10.8427
▁ന്നാ	-10.8428
റൈ	-10.8432
▁ദത്ത	-10.8432
▁സോണുകള	-10.8434
▁ചൗഹാന	-10.8437
▁മനോ	-10.8438
▁അംഗങ്ങളായ	-10.8441
▁അശോക	-10.8442
▁കുട്ടികളും	-10.8443
▁ചാണ്ടിയുടെ	-10.8443
▁അഗ്	-10.8445
▁പെണ്‍കുട്ടികള്‍	-10.8446
▁മുക്ത	-10.8446
re	-10.8448
റേറ്റ	-10.8453
▁ലാബ്	-10.8454
▁ഇടിവ്	-10.8458
▁ഗോപിക	-10.8458
▁പ്രദേശങ്ങള	-10.8459
▁പിഎസ്	-10.8459
കളേയും	-10.846
▁തരി	-10.8462
▁സുരക്ഷിതമായി	-10.8463
▁സാഹചര്യങ്ങള്‍	-10.8466
▁നിര്‍ദേശിക്ക	-10.8467
▁ജയരാജന	-10.8469
▁സഹോദരങ്ങള	-10.8471
ുണ്ടാക്കുന്ന	-10.8472
▁വിശേഷ	-10.8472
ർജ	-10.8476
യുണ്ടാകും	-10.8478
ക്ല	-10.8478
▁വീണത്	-10.8482
▁പരിക്ക്	-10.8482
▁ആഘോഷങ്ങള	-10.8483
▁ആന്ധ്രാപ്രദേശ	-10.8483
▁കുറ്റ്യാടി	-10.8483
▁ഭൂരിഭാഗവും	-10.8483
▁അകാലിദള	-10.8483
▁തുരങ്ക	-10.8483
▁ചെയർമാന	-10.8483
▁യോജിച്ച	-10.8483
▁രക്തസാക്ഷി	-10.8483
▁കൈവരിച്ച	-10.8483
▁ഘടന	-10.8483
▁വീട്ടമ്മ	-10.8485
▁അകന്ന	-10.8485
ാമത്	-10.8486
▁ഉപകരണങ്ങള	-10.8488
ക്കുന്നതിന്	-10.8489
▁ന്യായീകരിക്ക	-10.849
▁വിദഗ്ധര്‍	-10.8492
▁വിദേശത്തു	-10.8492
▁വകുപ്പുകൾ	-10.8494
ത്തുക	-10.8498
എസ്പി	-10.8498
▁ബാര	-10.8498
വയാണ്	-10.8499
▁ജോര്‍ജ്ജ്	-10.85
▁അധികൃതരുടെ	-10.8501
▁ഷിബു	-10.8502
സെന്റ	-10.8504
▁ജീവനക്കാരും	-10.8506
▁കൂലി	-10.8507
▁ടൂ	-10.851
▁ഷാജ	-10.8511
▁വിജയനും	-10.8511
മേൽ	-10.8517
▁വയസ്സിന്	-10.8518
▁പ്രവചിക്ക	-10.8523
▁സ്റ്റേഷനിൽ	-10.8523
▁പിടിക്കുന്ന	-10.8523
▁വാര്‍ത്തകള	-10.8525
മാണ	-10.8527
ഗണ	-10.8528
▁ചൗഹാന്‍	-10.8528
ഖണ്ഡ	-10.8528
▁രാജ്യങ്ങളിലേക്ക	-10.8528
▁പുല്ല	-10.8529
▁ബലാത്സംഗം	-10.8534
▁മനീഷ്	-10.8534
▁കയ്യില്‍	-10.8535
ൂട	-10.8538
▁തല്ല	-10.8538
ൈൻ	-10.854
▁ലാല	-10.854
▁കാരണമായത്	-10.8541
ുവെങ്കിലും	-10.8545
▁പറയാതെ	-10.8545
▁കുറ്റി	-10.8546
▁പേരുകള്‍	-10.8546
▁കുഞ്ഞിന്റെ	-10.855
▁ഇങ്ങനെയാണ്	-10.8551
▁കണ്ണു	-10.8552
▁മുറിയില്‍	-10.8552
▁നേട്ടമ	-10.8555
▁വീടുകൾ	-10.8556
▁തീര്‍ച്ചയായും	-10.8565
▁സര്‍വ്വകലാശാല	-10.8565
▁സമ്പാദിക്ക	-10.8565
▁ഫ്ലാറ്റ	-10.8565
▁റംസാന	-10.8565
▁വക്കീല	-10.8566
പ്പേര	-10.8566
▁ഗത്ത്	-10.8566
▁തേടിയെത്തും	-10.8566
▁ആള്‍ക്കൂട്ട	-10.8566
കോടി	-10.8568
▁നികത്ത	-10.8569
▁കര്‍ഷകര്‍ക്ക്	-10.857
▁ഡാം	-10.8572
▁അവകാശപ്പെടുന്നു	-10.8573
ക്യ	-10.8575
▁ക്രൂരത	-10.8577
w	-10.8577
ര്‍ന്ന	-10.8577
ാനാവില്ലെന്ന	-10.8579
▁വിജയന	-10.8581
▁ഉണ്ടാവുമെന്ന	-10.8582
▁അഷ്	-10.8582
▁ന്നും	-10.8584
▁പ്രവർത്തകരെ	-10.8585
▁രവീന്ദ്ര	-10.8585
ൈവ	-10.8586
▁ചെറിയാന്‍	-10.8586
▁കോഡ്	-10.8587
▁ഉത്ര	-10.8588
തുറ	-10.859
▁സൃഷ്ടിക്കുന്ന	-10.8591
റുകളും	-10.8593
▁വിശ്വനാഥ	-10.8594
▁ബിജെപിയിൽ	-10.8595
▁സന്ദർശിക്ക	-10.8596
▁സമ്മേളനത്ത	-10.8596
നുമായ	-10.8597
▁എത്തിച്ച്	-10.8598
▁ഒന്നാമത	-10.8599
▁അന്തരിച്ച	-10.8601
▁എതിര്‍ക്ക	-10.8602
▁ഉപയോഗം	-10.8602
▁രാധാകൃഷ്ണന	-10.8604
▁തരത്തിൽ	-10.8605
▁സിറിയ	-10.8609
▁മുകേഷ	-10.861
▁സന്ദർശനം	-10.8613
റിയിച്ച	-10.8614
ബൂ	-10.8614
▁തിരിഞ്ഞ	-10.8615
▁എടുക്കേണ്ട	-10.8616
▁ബന്ധിപ്പിക്ക	-10.8616
▁മരം	-10.862
▁എന്നിവരെയാണ്	-10.8621
▁ഡൗണ	-10.8622
▁ബേസ	-10.8622
രീതി	-10.8622
▁രാശിക്കാർ	-10.8623
▁സാഹ	-10.8624
▁പരിഹാസ	-10.8628
കളുടേയും	-10.8632
▁ഴ	-10.8632
▁നായർ	-10.8635
▁വോട്ടർമാര	-10.8638
▁നടക്കുകയാണ്	-10.8639
▁വാഗ്ദാന	-10.8639
▁വോട്ടര്‍	-10.864
▁ആവശ്യമായി	-10.8642
▁പങ്കുണ്ടെന്ന	-10.8642
▁രൂപയായി	-10.8643
ുകളുടെയും	-10.8646
▁പരിയാരം	-10.8649
▁പൂന്തുറ	-10.8649
▁സംഘപരിവാറ	-10.8649
▁ത്യാഗ	-10.8649
▁(40)	-10.8649
▁സിഎഎ	-10.8649
േക്കുമെന്ന്	-10.8651
▁അനുയായികള	-10.8652
▁ചിലര	-10.8653
▁കിംഗ്	-10.8653
▁ഇന്ത്യക്കാര്‍	-10.8653
▁തത്	-10.8654
▁വാന	-10.8655
▁മേയറ	-10.8656
▁കൊട്ടാര	-10.8656
▁എല്ലാവരേയും	-10.8657
▁ആക്രമ	-10.8658
▁പരിഗണനയില	-10.866
▁പങ്കിട്ട	-10.866
▁പത്മജ	-10.8661
ിരിക്കുന്നതെന്ന്	-10.8661
▁മഞ്ചേരി	-10.8662
▁സജ്ജമാക്കിയ	-10.8662
▁ഖാൻ	-10.8663
▁തല്ലി	-10.8663
▁മട്ട	-10.8665
▁തുടർച്ചയായ	-10.8666
▁വില്ലേജ്	-10.8668
▁മറ്റുള്ളവര	-10.8669
▁ഒഴിവാക്കണമെന്ന	-10.8672
▁കണ്ടിട്ടില്ല	-10.8674
▁മണിക്കൂറുകള്‍	-10.8676
▁താഴെയുള്ള	-10.8677
▁രാഷ്ട്രീയത്തിൽ	-10.8678
▁ട്രാക്ക	-10.8681
▁വിശേഷിപ്പിക്ക	-10.8681
▁നടപടിയെടുത്ത	-10.8687
▁നിലയിലായിരുന്നു	-10.8687
▁തിരച്ചില	-10.8688
▁കഠിന	-10.8688
▁വര്‍ഷങ്ങള്‍ക്ക	-10.8688
▁നടക്കാന്‍	-10.8689
കോട്ട	-10.8691
▁അനുവദിച്ചു	-10.8695
റല്‍	-10.8696
▁ദിൽഷ	-10.8698
▁പ്രവർത്തകര	-10.8698
▁ആഗ്രഹിക്കുന്നു	-10.8698
▁പറയാനുള്ള	-10.8699
ാനാകില്ലെന്ന	-10.8706
▁മാറ്റങ്ങൾ	-10.8708
▁നാളായി	-10.8711
▁പുല	-10.8713
▁നേടിയിട്ടുണ്ട്	-10.8714
▁മികവ്	-10.8714
▁മൂത്ത	-10.8716
▁ശത്രു	-10.8718
▁തോതില	-10.872
പണി	-10.8721
▁തീരുമാനങ്ങള്‍	-10.8722
ർത്ഥ	-10.8726
▁കച്ചവടം	-10.8726
▁04	-10.8726
▁എസി	-10.8728
▁അറസ്റ്റു	-10.873
▁പോകേണ്ട	-10.873
▁മനസ്സ്	-10.8731
▁മടങ്ങിയ	-10.8732
▁ഉത്തരേന്ത്യ	-10.8733
▁അഴി	-10.8733
▁·	-10.8734
ed	-10.8737
▁മിഷൻ	-10.8737
▁പടിഞ്ഞാറൻ	-10.8742
▁ജുനൈസ്	-10.8744
മേറ്റ	-10.8747
▁ലക്ഷ്യമിട്ട്	-10.8747
▁ലംഘിച്ച്	-10.8749
കൈ	-10.8749
▁കണക്കിന്	-10.875
▁പൊളിച്ച	-10.875
▁സമൂഹത്തിന്	-10.8751
പ്പൂ	-10.8751
▁യുപിയിലെ	-10.8752
▁തുടരുമെന്നും	-10.8753
▁ആവര്‍ത്തിച്ച	-10.8754
▁സ്ഥാപനങ്ങളില്‍	-10.8755
▁കഴിയാതെ	-10.8755
▁ചേരും	-10.8758
▁ഇടിഞ്ഞ	-10.8759
▁നടത്തേണ്ട	-10.876
▁സമ്മര്‍ദ	-10.8761
▁എത്തിക്കാന്‍	-10.8763
▁രേഖകളും	-10.8764
▁അടിമ	-10.8764
▁നായക	-10.8766
▁പാർലമെന്റ്	-10.8768
▁ഫയല്‍	-10.877
▁മുപ്പത്	-10.8772
▁ഇടപെടൽ	-10.8774
▁കത്തിച്ച	-10.8774
▁ആവശ്യമാണെന്ന	-10.8776
യുള്ളത്	-10.8778
▁സുനിൽ	-10.878
▁വെറുപ്പ	-10.8782
▁ഭാവ	-10.8785
▁മനോഹര	-10.8785
▁ചരിത്രത്തില്‍	-10.8785
▁93	-10.8788
▁മാതാപിതാക്കള	-10.8788
ഞ്ചു	-10.879
▁കമ്പനിയായ	-10.8798
പിസി	-10.8801
▁അഡ്മിനിസ്	-10.8801
▁പ്രയോഗ	-10.8803
▁മല്‍സര	-10.8803
▁അടച്ചു	-10.8806
ലേഖ	-10.8809
▁നേടിയിരുന്നു	-10.8811
▁വിവാഹിത	-10.8811
▁വിമാനത്താവളങ്ങള	-10.8812
സിംഗ്	-10.8815
▁സൂര്യന	-10.8815
പ്പോലെ	-10.8816
േയുള്ളൂ	-10.8816
▁ചൊടിപ്പിച്ച	-10.8817
▁പൂഞ്ഞാര്‍	-10.8817
▁വധശിക്ഷ	-10.8817
▁മോട്ടോര്‍	-10.8817
▁ഗവേഷക	-10.8818
▁കുറ്റപത്രത്ത	-10.8818
▁(30)	-10.8818
▁നാവിക	-10.8819
▁ഒപ്പിട്ട	-10.882
▁സാന്നിധ്യത്തില	-10.8823
▁മകന്റെ	-10.8824
▁അടൂര്‍	-10.8825
▁സില്‍വര്‍	-10.8825
▁കെപി	-10.8825
▁വരികയായിരുന്നു	-10.8826
▁വെച്ചായിരുന്നു	-10.8826
വരേയും	-10.8827
▁ഇരുട്ട	-10.8828
▁സുരേന്ദ്രനെ	-10.8828
▁സംവിധാനങ്ങള്‍	-10.883
▁തയാറ	-10.8834
▁സംവിധാനങ്ങള	-10.8835
രത്തോളം	-10.8835
▁ഉണ്ടായിരിക്കണം	-10.8836
▁വിടുന്ന	-10.8837
▁പൂനെ	-10.8837
▁സ്വീകരണ	-10.8839
▁വ്യാപാരം	-10.8841
▁നയങ്ങള	-10.8842
യുമൊക്കെ	-10.8842
തുട	-10.8843
▁പറയുമ്പോള്‍	-10.8845
▁ബിഷപ്പ്	-10.8846
▁എഴുത്ത	-10.8849
▁ഡീസലിന്	-10.8851
▁തിയേറ്ററ	-10.8852
▁ഉടമകള്‍	-10.8853
▁പ്രൊഫ	-10.8853
ഹാര	-10.8855
▁ശരീരം	-10.8856
കോട്	-10.886
സ്വാമി	-10.8861
▁വ്യക്തമാക	-10.8861
▁ഭി	-10.8867
▁പെട	-10.887
▁മഹേഷ്	-10.887
▁ബിനു	-10.8872
▁വിഭാഗങ്ങള്‍	-10.8873
▁രൂപപ്പെട	-10.8873
▁ചെറുപ്പ	-10.8875
▁മേഖലയെ	-10.888
▁എതിര്‍	-10.8884
▁കാട	-10.8886
▁പറഞ്ഞതായി	-10.8888
▁തെക്ക	-10.8888
ലക്ഷം	-10.8889
▁വിശ്വാസികള	-10.8889
▁റെയ്ഡ	-10.8892
▁മേഖലകളിലും	-10.8894
▁പറമ്പ	-10.8897
▁വര്‍ക്ക്	-10.8898
▁ബാര്‍	-10.8899
ിനുണ്ട്	-10.8899
▁സെക്കന്‍ഡ	-10.8899
▁നിയമവിരുദ്ധ	-10.89
പാദ	-10.8902
▁ഇരിങ്ങാലക്കുട	-10.8903
▁കൂട്ടിച്ചേർക്ക	-10.8903
▁ദാമ്പത്യ	-10.8903
▁1/4	-10.8903
▁അവഗണന	-10.8903
▁ദയനീയ	-10.8903
▁റിസോര്‍ട്ട	-10.8903
▁ഒരുങ്ങുകയാണ്	-10.8903
▁പ്ലാസ്റ്റിക്	-10.8904
▁ഇന്ധനവില	-10.8905
▁നോര്‍ക്ക	-10.8906
▁കൊള	-10.8906
▁അധികാരി	-10.8909
തെങ്കിൽ	-10.8909
വിവര	-10.8909
▁ജുഡീഷ്യല്‍	-10.891
▁പുതിയൊരു	-10.8912
▁ശത്രുക്കള	-10.8913
ലുകള്‍	-10.8913
▁ദിവസങ്ങൾ	-10.8914
▁തൂങ്ങി	-10.8915
▁നിന്നായി	-10.8915
▁കൂട്ടുകാര	-10.8917
▁അഭിഭാഷകൻ	-10.8918
വാൾ	-10.8922
▁സിംഗിന്റെ	-10.8926
▁അവൻ	-10.8928
▁അംഗത്വ	-10.8929
▁സംസ്കാര	-10.8929
േണ്ടതുണ്ടെന്നും	-10.893
▁ഇളവുകള്‍	-10.893
▁സിങ്ങ	-10.8933
▁കൂളില	-10.8937
▁കോട	-10.8938
സര	-10.894
▁ഗെ	-10.8941
▁മൂടി	-10.8942
▁മതിയാക	-10.8944
സൗകര്യ	-10.8948
യിലുണ്ടായിരുന്ന	-10.8948
▁സംസ്ഥാനങ്ങളില	-10.8951
▁മനസ്	-10.8954
▁സാധിക്കൂ	-10.8955
▁യൂണിയന	-10.896
▁പടര	-10.8961
▁ചവിട്ടി	-10.8962
മാറ്റി	-10.8969
▁ചെയ്തിരുന്നത്	-10.897
▁ബിനീഷ്	-10.8971
▁മണ്ഡലങ്ങള	-10.8973
▁കോവിഡില്‍	-10.8975
▁ഉചിതമായ	-10.8979
▁ചെയ്തതിന്	-10.8984
▁ചടങ്ങ	-10.8984
▁രഹിത	-10.8985
▁നൈ	-10.8987
▁മരണപ്പെട്ടത്	-10.8987
▁റോയി	-10.8987
▁ചങ്ങനാശേരി	-10.8989
▁മായാവതി	-10.8989
▁സെൻട്രൽ	-10.8989
▁പ്രമോദ്	-10.8989
▁മര്‍ദ്ദിച്ച	-10.8989
▁ഫോറന്‍സിക്	-10.8989
▁ബന്ധുക്കൾ	-10.8989
▁(50)	-10.899
▁പരേഡ	-10.899
▁സൂചനകള്‍	-10.899
▁ഹിറ്റ്	-10.8991
▁യൂട്യൂബ്	-10.8993
ോളി	-10.8994
▁താത്പര്യ	-10.8995
▁റിതു	-10.8995
ാമായിരുന്നു	-10.8996
യുമുണ്ട്	-10.8996
▁ഉപയോ	-10.8998
▁തരൂർ	-10.8998
▁അന്തരീക്ഷ	-10.8999
▁പതിനാല	-10.9
▁എഴുത്തുകാര	-10.9002
ക്കേസ	-10.9004
▁കീഴ	-10.9005
▁നോളജി	-10.9005
▁വിമര്‍ശിച്ചു	-10.9007
കള്‍ക്കായി	-10.9007
▁ഞ	-10.9009
▁പാർലമെന്റ	-10.9011
▁അവിട	-10.9013
▁ഡോളറാണ്	-10.9015
▁പൗരത്വം	-10.9016
▁അപമാന	-10.9017
▁കല്യാണം	-10.9017
▁ഹു	-10.9017
▁വാക്സിനേഷന്‍	-10.902
▁p	-10.902
▁വ്യക്തിയുടെ	-10.902
ുപോയി	-10.9022
▁വികെ	-10.9022
▁എന്നുള്ളത്	-10.9023
▁നിര്‍ദ്ദേശിച്ച	-10.9023
പ്പന്‍	-10.9023
▁ആര്‍മി	-10.9027
▁പാര്‍ട്ടികളുടെ	-10.9029
▁എല്ല	-10.9031
▁അവന്റെ	-10.9031
▁ആരോട	-10.9032
▁അയാളെ	-10.9033
▁ശേഷമായിരുന്നു	-10.9038
▁ബംഗ്ലാദേശ	-10.904
▁അറിയിപ്പ	-10.9041
ിസ്റ്റ്	-10.9042
▁ആദിത്യനാഥ	-10.9042
▁വീടും	-10.9043
ബാധിത	-10.9044
ുടമ	-10.9046
▁സഖാവ്	-10.9047
▁ബോക്	-10.9048
▁ഓയില്‍	-10.905
▁ഇടി	-10.9052
▁ബജറ്റില്‍	-10.9056
▁ഷോട്ട	-10.9056
▁കരയ	-10.9057
▁പോവുന്നത്	-10.9058
▁ഒൻപത	-10.9061
▁സ്ഥാനാർത്ഥികള	-10.9062
▁സൗകര്യങ്ങള	-10.9063
▁തീര്‍ത്തും	-10.9063
▁എടുക്കാൻ	-10.9063
▁വാങ്ങുന്നത്	-10.9065
▁പ്രശ്നമ	-10.9066
വാർ	-10.907
▁ജയിച്ചു	-10.907
▁വിമര്‍ശനങ്ങള്‍	-10.9071
▁കോളേജുകള	-10.9071
▁സമ്പൂര്‍ണ	-10.9076
ഇന്‍സ്റ്റിറ്റിയൂ	-10.9076
▁ഇമ്രാന്‍	-10.9076
▁ഋതു	-10.9076
▁പൂഞ്ഞാറ	-10.9076
▁വര്‍ദ്ധിച്ച	-10.9076
▁ഭൂകമ്പ	-10.9076
▁മഹിളാ	-10.9076
▁മണ്ണിടിച്ചില	-10.9076
▁മന്ത്രിമാരുടെ	-10.9076
▁നൂതന	-10.9076
▁മകരം	-10.9077
▁വിശ്വാസ്യത	-10.9077
▁എയർപോർട്ട	-10.9077
ട്രോള	-10.9077
▁മേഘ	-10.9078
തുകൊണ്ടാണ്	-10.908
▁ഓരോരുത്തര	-10.908
▁കണക്കുകള	-10.908
▁ലഭിക്കാത്ത	-10.9081
▁പ്രസിഡന്റുമാര	-10.9082
▁ഈശ്വര	-10.9083
ാകുന്നത്	-10.9085
▁പ്രസിഡന്റും	-10.9088
▁കൂടുതലുള്ള	-10.9088
▁നടപ്പാക്കുന്ന	-10.9089
▁നിത്യ	-10.909
▁മായ	-10.9091
▁ഗ്രഹങ്ങളുടെ	-10.9093
ക്കിടയിലും	-10.9095
▁സ്ഥാനാർത്ഥികളെ	-10.9097
▁സംഘടനകൾ	-10.9097
▁മണിപ്പൂര	-10.9098
▁ജില്ലയുടെ	-10.9101
▁ലോക്ഡൗണ്‍	-10.9105
▁മണ്ഡലങ്ങളിൽ	-10.9106
▁സീറ്റുകളിലേക്ക	-10.9108
▁രക്ഷിക്കാന	-10.911
▁പരിശോധനയും	-10.9111
▁ശ്രദ്ധയിൽ	-10.9111
▁ഷിജു	-10.9111
▁ഹൈക്കമാന്റ്	-10.9113
▁മാറ്റിവെച്ച	-10.9114
യൊ	-10.9114
▁രാശിയിലെ	-10.9115
▁കാരണമാകും	-10.9116
വരെയാണ്	-10.9117
▁ഡിംപല	-10.9118
▁രാമചന്ദ്രന	-10.9119
▁ക്ലബ്ബ	-10.912
▁പ്രതിരോധത്തില	-10.9122
▁കത്തിൽ	-10.9124
▁പൂർത്തിയായ	-10.9125
▁ഉയര്‍ന്നത്	-10.9125
ക്കെതിരേ	-10.9129
▁ണി	-10.9129
▁ഹാഷ്	-10.9131
▁ദില്ലിയിൽ	-10.9132
ശ്യ	-10.9132
സുരക്ഷ	-10.9133
▁ചാര്‍ജ്	-10.9133
സ്റ്റർ	-10.9134
▁ഇൻസ്റ്റിറ്റ്യൂ	-10.9136
▁സഖ്യത്തിന്റെ	-10.9138
▁കാണിക്കുന്നത്	-10.9139
▁കുംഭം	-10.9139
▁അപ്പോഴാണ്	-10.914
▁ആർഎസ്എസ്	-10.9142
▁മകനും	-10.9142
▁നിന്നോ	-10.9143
▁പിന്നിലെന്ന	-10.9147
ക്കുഴി	-10.9151
▁എന്താ	-10.9151
▁ട്രി	-10.9155
▁കത്തിക്ക	-10.9155
▁ചോദിക്കുന്ന	-10.9156
▁ദ്യ	-10.9163
▁ആകര്‍ഷിക്ക	-10.9164
▁വര്‍ദ്ധിപ്പിക്ക	-10.9164
▁ഇസ്രായേൽ	-10.9164
▁കാറ്റഗറി	-10.9164
▁ദുഃഖ	-10.9164
▁ബിസിസിഐ	-10.9164
▁പ്രസ്തുത	-10.9164
▁സമവായ	-10.9164
▁പുനഃസംഘടന	-10.9164
▁നേമം	-10.9164
▁ഊർജ	-10.9164
▁ആഗ്രഹിക്കുന്നത്	-10.9164
▁ബാഗ്	-10.9165
▁ദുര്‍ബല	-10.9165
▁നമസ്	-10.9165
▁കോഴ	-10.9166
▁പട്ടാള	-10.9166
ഗ്രി	-10.9167
▁നോബി	-10.9167
▁ചെയ്യാതെ	-10.9167
▁ചട്ടം	-10.9168
▁സിബി	-10.917
▁തീരം	-10.9173
▁വിക്കറ്റ	-10.9173
▁കൈവശമ	-10.9176
▁അനധികൃതമായി	-10.9177
▁വികസിപ്പിക്ക	-10.9177
▁നിരീക്ഷകര	-10.9179
▁ആരംഭിച്ചിരുന്നു	-10.9179
▁ഹാജരാകണം	-10.918
▁വാഗ്	-10.918
▁രാജ്യങ്ങളിലെ	-10.9182
▁സൂചനയുണ്ട്	-10.9183
▁റെസ്	-10.9184
▁സ്റ്റേഡിയ	-10.9184
▁ക്യാമ്പയിന	-10.9185
▁ചേര്‍ന്നത്	-10.9185
മല്ലെന്നും	-10.9193
യാസ	-10.9194
▁മലയാളികളുടെ	-10.9195
▁എണ്ണവും	-10.9197
▁പ്രസംഗിച്ച	-10.9199
▁കുട്ട	-10.9202
▁പരിശോധനയ്ക്കായി	-10.9203
▁സ്വന്തമാക്കിയത്	-10.9203
▁മോഹൻ	-10.9203
▁മഴയാണ്	-10.9203
▁വിശാല	-10.9205
▁പ്രസക്ത	-10.9205
▁എംഎൽഎമാർ	-10.9205
▁ടൗണ	-10.9207
▁സ്ഥാനത്താണ്	-10.9208
▁കടത്തിയ	-10.9211
പദ്ധതി	-10.9211
▁കെയർ	-10.9213
▁ശിക്ഷിക്ക	-10.9213
▁പോര്	-10.9213
▁ഭാരവാഹികള്‍	-10.9214
വാസികള	-10.9215
▁ഐഡി	-10.9215
▁ജീവി	-10.9218
▁സർക്കാരിനെതിരെ	-10.9218
▁കോഴിക്കോട	-10.922
കൃഷ്ണ	-10.922
ൊന്നുമല്ല	-10.922
സര്‍ട്ടിഫിക്കറ്റ	-10.922
▁പോയിരുന്നു	-10.9223
▁ചിത്രത്തിലെ	-10.9223
▁ഹൃദയം	-10.9224
▁റിമ	-10.9227
▁യാത്രക്കാരുടെ	-10.9229
ുടേ	-10.923
▁പ്രോസിക്യൂഷന	-10.9231
വരുന്ന	-10.9232
▁അയാളുട	-10.9235
▁അഫ്ഗാന്‍	-10.9235
▁ഒളിച്ച	-10.9239
▁പ്രവര്‍ത്തകന	-10.924
▁ദില്‍ഷ	-10.9241
▁ളാ	-10.9242
▁ചേർത്ത്	-10.9244
▁വീഴ്ത്ത	-10.9245
മെന്‍റ	-10.9245
▁മധ്യപ്രദേശ	-10.9245
▁ഡയ	-10.9246
▁സർട്ടിഫിക്കറ്റ	-10.9248
▁നിയമപരമായി	-10.9249
▁മാണിയുടെ	-10.925
▁അധിനിവേശ	-10.9252
▁തൃത്താല	-10.9252
▁പുനരാരംഭിക്ക	-10.9252
▁ഒക്ടോബറ	-10.9252
▁നിര്‍വഹിക്ക	-10.9252
▁ഒബിസി	-10.9252
▁ബ്രസീല	-10.9252
▁തുടക്കമിട്ട	-10.9252
▁(38)	-10.9253
▁(22)	-10.9253
▁(32)	-10.9253
▁ബിഎസ്	-10.9253
▁(35)	-10.9253
▁പൊന്നാനി	-10.9253
▁മറ്റേത	-10.9254
▁തിലക	-10.9254
▁തീവ്രവാദികള	-10.9255
▁നശിച്ച	-10.9255
▁ഹൈവേ	-10.9256
▁അടുക്കള	-10.9259
▁അദ്ദേഹമ	-10.9259
▁നേതൃത്വത്ത	-10.9259
▁കുതിക്ക	-10.926
▁തയ്യാറെടുക്ക	-10.9261
▁വാശി	-10.9261
▁ആശാ	-10.9265
▁തെക്കൻ	-10.9265
ിടത്ത	-10.9266
▁പോകുന്നില്ല	-10.9266
▁യുവാക്കള	-10.9266
▁നടപ്പിലാക്കുന്ന	-10.9267
▁സര്‍വ്വീസ്	-10.9267
▁കാരന്‍	-10.9268
തിന്‍റെ	-10.9268
▁ട്ടു	-10.9269
▁ചന്ദ്രന്‍	-10.927
▁ഇദ്ദേഹത്തെ	-10.9271
▁ടീമിന്	-10.9271
▁സിസ്റ്റ	-10.9276
▁ഒരുങ്ങുന്ന	-10.9278
ത്തിനെതിരായ	-10.9281
▁നായകന	-10.9282
▁സഭയുടെ	-10.9282
▁പലസ്തീന്‍	-10.9283
▁സാക്ഷ്യം	-10.9284
▁പരിശോധിക്കും	-10.9284
▁അബു	-10.9286
ക്കോട്	-10.9287
▁ശശീന്ദ്രന്‍	-10.9291
▁ദുഷ്	-10.9291
▁സൗകര്യങ്ങൾ	-10.9291
സാന	-10.9293
▁രക്തം	-10.9293
കുഞ്ഞ	-10.9295
▁കുംഭ	-10.9297
▁സ്വഭാവം	-10.9297
▁അന്വേഷിച്ച്	-10.9299
▁വേണ്ടത്ര	-10.9301
▁ഞെട്ട	-10.9301
▁മറിഞ്ഞ	-10.9301
▁നിലയിലേക്ക്	-10.9306
▁തീയതികള	-10.9308
▁മാറ്റണമെന്ന	-10.931
▁തയ്യാറാക്കി	-10.9312
ഡേ	-10.9312
▁വർധനവ്	-10.9313
പ്പോല	-10.9314
▁ആശുപത്രിയില	-10.9322
▁അനുകൂലിച്ച	-10.9329
▁ചെന്നിത്തലയുടെ	-10.9333
▁സഖ്യത്തില്‍	-10.9334
▁ഹര	-10.9335
ീകരണം	-10.9335
▁140	-10.934
▁മാസ്ക്	-10.9341
▁വർദ്ധിപ്പിക്ക	-10.9341
▁അപ്പീല്‍	-10.9341
▁ക്വാറന്റീന	-10.9341
▁രാഘവ	-10.9342
▁വയസുകാരി	-10.9342
▁ബോളിവുഡ്	-10.9343
▁ജനപ്രിയ	-10.9343
▁റൺസ	-10.9344
▁ശിവകുമാര്‍	-10.9344
▁രാജിവയ്ക്ക	-10.9345
▁മൂലമ	-10.9345
▁പദ്ധതികളും	-10.9345
ുന്നതായും	-10.9346
▁ജനവാസ	-10.9347
▁വാഷിംഗ്ടണ്‍	-10.9348
▁ഒന്നുമില്ല	-10.9349
▁നൽകുക	-10.9351
ാത്മക	-10.9352
▁ബോണ്ട	-10.9352
ംകുളം	-10.9354
▁ചെന്നിത്തലയും	-10.9355
▁വീട്ടിലെത്തിയ	-10.9355
▁മാനദണ്ഡങ്ങൾ	-10.9357
▁സർവ്വ	-10.9359
▁എല്ലാവരുടെ	-10.9368
ാങ്ക്	-10.9369
പോര്‍ട്ട	-10.9372
ിങ്ങ്	-10.9372
▁ഉപരോധ	-10.9376
▁(1)	-10.9377
ലൂ	-10.938
ിംഗിന്	-10.938
▁പേഴ്	-10.9383
▁വിദ്യാര്‍ഥി	-10.9387
▁മന്ത്ര	-10.939
▁നിർദ്ദേശങ്ങൾ	-10.9391
ഗാന്ധി	-10.9391
▁പേരെയും	-10.9392
▁എഴ	-10.9394
▁നടനും	-10.9394
ിന്റേത	-10.9394
▁പൂര്‍ണമായി	-10.9396
▁മാധ്യമങ്ങള	-10.9397
▁ബഹളം	-10.9397
ൈറ്റ്	-10.9398
ിനേറ്റ	-10.9398
▁ഇവരിൽ	-10.9398
ശിവ	-10.94
▁റിലീസ	-10.94
മടക്കം	-10.9401
▁കുപ്പി	-10.9401
st	-10.9401
▁പാപ്പ	-10.9404
മാത്ര	-10.9407
▁ജോജു	-10.9408
▁വര്‍ഷവും	-10.9409
▁ജയിൽ	-10.9409
ായുള്ള	-10.9416
▁മോദിയും	-10.9417
▁ഫീല്‍ഡ	-10.9417
▁വര്‍ദ്ധിക്ക	-10.9418
ഷേ	-10.9418
▁ആരംഭിച്ച്	-10.9418
▁റിക്രൂട്ട്മെന്റ	-10.9422
▁വിവാദത്തില്‍	-10.9424
മാകുമെന്ന	-10.9424
ബിള്‍	-10.9424
▁ചുമത്തി	-10.9425
▁പരസ്യം	-10.9425
▁ടോം	-10.9425
ിറക്കി	-10.9425
▁സേനയുടെ	-10.9427
▁അറിയാവുന്ന	-10.9427
▁മാരാര	-10.9428
ിനോടും	-10.9429
H	-10.9432
▁കാഞ്ഞങ്ങാട്	-10.9432
▁ശരണ്യ	-10.9432
▁വർധിക്ക	-10.9432
▁നായിഡു	-10.9432
▁പിന്നോക്ക	-10.9432
▁ഫുട്	-10.9432
▁കിറ്റ്	-10.9432
▁വ്യോമസേന	-10.9432
▁കള്ളക്കടത്ത	-10.9432
▁കൈമാറിയത്	-10.9432
▁(25)	-10.9432
▁മാർഗ്ഗ	-10.9432
▁ഗൗതം	-10.9433
▁ബ്ലാക്ക്	-10.9433
▁കുമാറിന്	-10.9433
▁കൂടിക്കാഴ്ച്ച	-10.9434
▁ഇല്ലെങ്കില്‍	-10.9437
▁മുന്നോട്ടുപോക	-10.944
ിട്ടുണ്ടെങ്കിലും	-10.9441
▁കുറിക്ക	-10.9443
▁കൂൾ	-10.9445
▁വധക്കേസ	-10.9446
▁ആക്കി	-10.9446
▁കഴിഞ്ഞദിവസം	-10.9449
▁ഇന്നു	-10.9452
▁ലാന്‍ഡ	-10.9453
▁നായര	-10.9454
ാകുമെന്നാണ്	-10.9454
▁മറന്ന	-10.9454
▁വിഭാഗത്തെ	-10.9461
ൂണ	-10.9461
ിനൊപ്പമ	-10.9461
ോട്ടു	-10.9461
▁സമൂഹമാധ്യമങ്ങള	-10.9463
▁തോക്ക	-10.9465
▁ഹാജി	-10.9466
നിലെ	-10.9468
▁പാള	-10.9471
യാണു	-10.9472
▁മാന്യ	-10.9473
▁റാണ	-10.9474
▁തോമസിന്റെ	-10.9474
▁ഉപദേശ	-10.9475
▁ഓഫീസിന്	-10.9477
▁ഉണ്ട	-10.9478
സാന്നിധ്യ	-10.9479
▁ടാഗ	-10.948
▁ഇന്ത്യക്കാർ	-10.9482
▁സിപി	-10.9482
ുകളിലേക്ക്	-10.9483
▁പടരുന്ന	-10.9485
പട്ടിക	-10.9485
▁നഗര്‍	-10.9485
▁പിവി	-10.9487
▁110	-10.9487
ജേഷ്	-10.9488
▁വേണു	-10.9488
▁ലക്ഷണങ്ങള്‍	-10.9489
▁മത്സരിക്കാൻ	-10.949
▁സിഎസ്	-10.949
▁ബിഷപ്പ	-10.9492
▁ഒട്ട	-10.9493
ാക്കാൻ	-10.9493
▁തൈ	-10.9496
▁അസി	-10.9498
▁കുഞ്ഞി	-10.9501
▁നീട്ടിയ	-10.9503
▁സരിത	-10.9506
വധി	-10.9508
▁നിരത്തി	-10.951
▁പ്രതിഷേധത്തിന്	-10.9511
▁ചേർന്നു	-10.9516
ിരിക്കുന്നതെന്ന	-10.9518
▁കിട്ടാത്ത	-10.9518
▁വികാസ്	-10.9518
▁ക്കൊപ്പം	-10.952
ീറ	-10.9522
▁രാത്രിയോടെ	-10.9522
▁താൽപ്പര്യ	-10.9522
▁തെറ്റിദ്ധാരണ	-10.9522
▁ഷിന്‍ഡെ	-10.9522
▁കിടിലം	-10.9523
▁പെട്രോളിയം	-10.9523
▁ഇന്റര്‍വ്യൂ	-10.9523
▁തുടങ്ങുന്ന	-10.9523
▁(34)	-10.9523
▁ഇവിടേക്ക	-10.9523
▁മാര്‍ഗ്ഗ	-10.9523
▁കരുതിയത്	-10.9525
▁ലൈറ്റ്	-10.9525
▁ദോഹ	-10.9526
▁അനീതി	-10.9527
എല്ലാ	-10.9527
▁പകരുന്ന	-10.9528
▁അക്ഷര	-10.953
▁വിദ്യാർത്ഥികളെ	-10.953
▁പറന്ന	-10.9531
▁ഭാഗങ്ങളില	-10.9532
▁പിന്ന	-10.9532
ടച്ച	-10.9533
മേറിയ	-10.9533
മീറ്റ	-10.9533
▁ഇത്രയ	-10.9534
▁നിഖില	-10.9535
▁വടക്കൻ	-10.9538
ക്കൊപ്പമാണ്	-10.9543
ജയ	-10.9543
▁വാതില	-10.9545
▁നിന്നത്	-10.9546
▁നടപ്പാക്കുന്നത്	-10.9546
▁ഇരുവരെ	-10.9549
▁ഞാ	-10.9549
യാൾ	-10.955
▁ക്രൂ	-10.9551
▁വീതി	-10.9556
▁സിൻ	-10.9559
500	-10.9562
▁വയസിന്	-10.9562
▁ജോയി	-10.9562
▁അമേരിക്കയിലെ	-10.9562
▁അറിയില്ലെന്ന	-10.9565
▁എന്തും	-10.9566
▁വിവരങ്ങള	-10.9566
▁ചിലരുടെ	-10.9567
▁അതിക്രമിച്ച	-10.9567
▁പോലുമില്ല	-10.9567
▁അന്ത്യ	-10.9568
▁വേഷം	-10.957
▁ചേരുമെന്ന	-10.957
▁സെന്ററില	-10.957
▁നടക്കുന്നു	-10.957
▁പറയുക	-10.9571
▁വിലയിരുത്തിയ	-10.9571
▁രാശിക്കാര്‍	-10.9572
▁സംസ്ഥാനങ്ങൾ	-10.9573
മണ്ഡല	-10.9575
▁പ്രകടമായ	-10.9576
▁മാര്‍ച്ച	-10.9576
ത്തേക്കാള്‍	-10.9577
ൂട്ട്	-10.9577
▁സിനിമകള	-10.9577
▁ലക്ഷ്യമെന്ന	-10.9578
ധാന	-10.9578
▁താമസിക്കുന്നത്	-10.958
▁വിജയകരമായി	-10.9582
ുന്‍സിപ്പാലിറ്റി	-10.9584
▁വാർഡ	-10.9586
▁പെട്രോള	-10.9588
▁സുഹൃത്തുക്കള്‍	-10.9589
▁ഓര്‍മ	-10.9592
▁ഇല്ലാതായ	-10.9595
▁ഉഷ	-10.9595
▁തയ്യാറെടുപ്പ	-10.96
▁റോള്‍	-10.96
ന്ദര്‍	-10.9602
▁റിപ്പോർട്ടുകള	-10.9603
പ്രിയ	-10.9603
യടക്കം	-10.9605
ഡര്‍	-10.9609
▁പെയ്ത	-10.9613
▁ബാനർജി	-10.9614
▁ചിത്രീകരിച്ച	-10.9614
▁പട്ടാമ്പി	-10.9614
▁യഥാക്രമം	-10.9614
▁കുറുപ്പ	-10.9614
▁സ്മാരക	-10.9615
▁ഉണ്ടെങ്കിൽ	-10.9615
▁നിരസിച്ച	-10.9615
▁വുഹാന	-10.9615
▁സംസാര	-10.9615
▁സാക്ഷികളെ	-10.9616
▁അലക്	-10.9617
മുണ്ടാക്കിയ	-10.9617
മതി	-10.9618
▁മണിക്കൂറോളം	-10.962
ത്തോടൊപ്പം	-10.9621
▁വർഷങ്ങളായി	-10.9623
▁ഇന്ദ്ര	-10.9624
▁പ്രതീക	-10.9624
ക്കുറിച്ചുള്ള	-10.9626
▁ഉണ്ടെന്ന	-10.9626
▁വല്ലാതെ	-10.9628
▁ഗുഡ്	-10.9631
▁ഗെഹ്ലോട്ട്	-10.9631
▁ചതി	-10.9633
▁സ്ഥാപനം	-10.9635
▁ശ്രീധരന്‍	-10.9636
▁വിമർശിച്ചു	-10.9637
▁വിജയന്	-10.9638
ചിത	-10.9639
▁അധികാരത്തില	-10.9641
▁വോട്ടും	-10.9641
ത്താല്‍	-10.9642
▁ഒഴിവാക്കണം	-10.9642
▁മന്ത്രിമാർ	-10.9643
▁പിന്നിലെ	-10.9644
▁കൂളിലെ	-10.9645
▁കോര്‍പറേഷന്‍	-10.9647
▁മൂന്നര	-10.9654
▁പുഷ്പ	-10.9654
ശ്ശ	-10.9656
▁മുഖത്ത്	-10.9656
യിലെത്തിയത്	-10.9657
ധിക	-10.9658
വരെല്ലാം	-10.9659
▁ഓഫീസുകള	-10.9669
▁ആണെന്നാണ്	-10.9671
ുള്ളതാണ്	-10.9671
▁കാല്‍	-10.9672
▁വന്നവരാണ്	-10.9673
▁മുമ്പും	-10.9676
എന്നാൽ	-10.9677
▁പുറത്തുവരുന്നത്	-10.9677
▁മലപ്പുറത്ത	-10.9679
▁പ്രതീക്ഷിക്കാം	-10.968
ക്യു	-10.9681
▁ലൈസൻസ്	-10.9682
▁സർക്കാരും	-10.9688
▁പെട്രോളിന്	-10.9689
it	-10.9696
▁നൂറു	-10.9698
▁സിനിമകള്‍	-10.9699
▁വോട്ടാണ്	-10.9699
▁പോര്‍ട്ട്	-10.97
▁സാക്ഷ്യപ്പെടു	-10.9702
▁കാര്യമല്ല	-10.9703
▁ആവേശം	-10.9704
▁എംപ്ലോയ	-10.9707
▁എഡിജിപി	-10.9707
▁ചെയര്‍പേഴ്	-10.9707
▁പാലാരിവട്ടം	-10.9707
▁വേണുഗോപാൽ	-10.9707
▁സ്ട്രാറ്റജി	-10.9707
▁വെടിയേറ്റ	-10.9707
▁പാർടി	-10.9707
▁ലാലേട്ടന	-10.9707
▁ജോഡോ	-10.9712
▁അഡീഷണല്‍	-10.9714
▁എക്കാലത്ത	-10.9714
▁ഗുണകരമ	-10.9715
▁ജോലികള്‍	-10.9716
▁അദ്ദേഹത്തിന	-10.9717
െന്നുമായിരുന്നു	-10.9723
▁സമൂഹത്തെ	-10.9726
▁പ്രോസിക്യൂട്ട	-10.9728
ബ്ല	-10.9729
▁ആശയക്കുഴപ്പ	-10.9732
ിലുണ്ടായ	-10.9732
ോളൂ	-10.9733
▁തിരിച്ചട	-10.9734
▁റോക്കറ്റ	-10.9738
െക്കുറിച്ചുള്ള	-10.9739
▁സ്വതന്ത്രര	-10.9741
▁പാര്‍ട്ടികളും	-10.9746
ത്തുന്നത്	-10.975
▁സ്റ്റാർ	-10.9752
▁ബലി	-10.9753
▁സരിത്ത	-10.9754
▁ആരോപിച്ചത്	-10.9756
▁കോഡ	-10.9759
വാറ	-10.9759
▁പരിശോധിക്കാം	-10.9759
▁വശത്ത	-10.976
▁വഴങ്ങിയ	-10.976
▁ഭക്തര	-10.9763
▁തയ്യാറാണെന്ന്	-10.9763
▁സാധിക്കുക	-10.9764
▁പ്ലാ	-10.9765
▁പ്രോജക്ട്	-10.9766
ന്മാരുടെ	-10.9767
▁രാശിമാറ്റ	-10.9767
▁വൺ	-10.9768
▁അറിയാൻ	-10.977
▁സഹോദരൻ	-10.9771
വണ	-10.9773
▁അനുവദിക്കും	-10.9778
▁വച്ചാണ്	-10.978
▁ഇളയ	-10.9781
▁ഇടപാടുകള	-10.9782
ാധ്യ	-10.9783
▁സംസ്ഥാനങ്ങളും	-10.9783
▁തെരഞ്ഞെടുപ്പിന്	-10.9784
പര്യ	-10.9786
▁സംസ്ഥാനങ്ങളുടെ	-10.9788
▁സ്പീക്കറ	-10.9789
മുള്ളത്	-10.979
യിലേക്ക	-10.9793
▁മന്ത്രിയായ	-10.9794
▁രക്ഷപ്പെടുത്ത	-10.9795
▁അപൂര്‍വ	-10.9797
യിലൂടെയാണ്	-10.9797
▁സ്ഥലങ്ങള	-10.9797
▁നിയമങ്ങള	-10.9798
▁അകല	-10.9798
യുമെല്ലാം	-10.9798
▁ഇഷ്ടപ്പെടുന്ന	-10.98
▁കമ്മ്യൂണിറ്റി	-10.98
▁പ്രായോഗിക	-10.98
▁മട്ടാഞ്ചേരി	-10.98
▁മണിക്കുട്ടൻ	-10.98
▁മലബാര്‍	-10.98
▁വ്യാപിച്ച	-10.98
▁ചെറുകിട	-10.9801
▁മരണസംഖ്യ	-10.9801
▁10.30	-10.9802
▁ഇതുവഴി	-10.9802
▁കനയ്യ	-10.9802
▁(2,	-10.9803
▁തരത്തിലാണ്	-10.9803
▁ശിവരാജ്	-10.9803
പ്പൂര	-10.9803
▁നിര്‍മല	-10.9803
▁ആഭ്യന്തരമന്ത്രി	-10.9806
▁ഉന്നയിച്ച്	-10.9807
200	-10.981
▁റ്റേ	-10.9812
തുകൊണ്ട	-10.9812
ുകൾക്കും	-10.9816
▁കെജ്രിവാള	-10.9817
യാകുന്ന	-10.9818
▁മക്കൾ	-10.9819
▁തുടരുന്നത്	-10.982
കൂടിയ	-10.982
▁പരിക്ക	-10.9821
▁വഴിയും	-10.9824
▁വന്നുചേരും	-10.9827
▁പ്പി	-10.9829
സഹ	-10.9831
ാകുമോ	-10.9832
േയ്ക്ക്	-10.9835
വുമുണ്ട്	-10.9839
▁പറക്ക	-10.9845
▁രൂപയുമാണ്	-10.9849
▁പങ്കെടുക്കാന	-10.985
▁അളവ	-10.985
ൻ്റ്	-10.9851
▁ക്വാറ	-10.9852
▁നോട്ട്	-10.9854
▁ദുരന്തം	-10.9855
യായിട്ടാണ്	-10.9856
▁പല്ല	-10.9856
താണ	-10.9858
▁സംഭാഷണ	-10.9859
▁വിപുല	-10.9859
▁പ്രധാനമാണ്	-10.9859
▁കാണുന്നുണ്ട്	-10.9859
ജല	-10.986
▁സർട്ടിഫിക്കറ്റു	-10.9862
▁കാത്ത്	-10.9863
▁മമതയുടെ	-10.9865
▁പതിനൊന്ന	-10.9867
▁ചുഴലിക്കാറ്റ	-10.9867
▁ആസ്ഥാനത്ത്	-10.9867
▁കാട്ടി	-10.9868
▁സുരക്ഷിതമായ	-10.9869
▁സര്‍ക്കാരുകള്‍	-10.9872
▁സ്വാ	-10.9873
▁മുൻപിൽ	-10.9875
▁പദവിയില്‍	-10.9876
കിട	-10.9877
▁ഭട്ട	-10.988
േക്കാളും	-10.988
യോഗ്യ	-10.9882
്യമായ	-10.9887
കളൊന്നും	-10.9889
▁തുടർന്നു	-10.9889
▁കാണാതെ	-10.989
▁ബ്രാന്‍ഡ	-10.9893
▁മറച്ചു	-10.9893
▁അതിതീവ്ര	-10.9895
▁അഭ്യർത്ഥിച്ച	-10.9895
▁ഉൾപ്പടെ	-10.9895
▁ഡിസ്ചാര്‍ജ്	-10.9895
▁തക്കാളി	-10.9895
▁തീപിടുത്ത	-10.9895
▁ദുർബല	-10.9895
▁റഹീം	-10.9895
▁റിസര്‍വ്	-10.9895
▁വിയോജിപ്പ	-10.9895
▁ശിഹാബ്	-10.9895
▁മോഷ്ടിച്ച	-10.9895
▁സമ്പാദ്യ	-10.9895
▁ഉൾക്കൊള്ള	-10.9895
▁പങ്കുവെക്ക	-10.9895
▁സംഘങ്ങള	-10.9895
▁(45)	-10.9895
▁ഗുപ്ത	-10.9895
▁അവനെ	-10.9896
ാഘോഷ	-10.9898
▁ഓഫ	-10.9901
▁തുടങ്ങിയവർ	-10.9903
▁രോഗബാധിതരുടെ	-10.9903
▁സണ്ണി	-10.9905
▁ക്രമീകരണ	-10.9905
▁പറയുന്നില്ല	-10.9907
▁എട്ടിന്	-10.9907
▁ലഭിക്കുമെന്ന്	-10.9909
▁വിഡിയോ	-10.991
▁സംരംഭക	-10.9912
▁മുഖ്യമന്ത്രിയായ	-10.9912
▁ഇസ്ലാമി	-10.992
▁മാത്രമായിരിക്ക	-10.992
മാട	-10.9922
▁മധ്യപ്രദേശിലെ	-10.9925
യുട	-10.9927
▁സ്വീകരിക്കാൻ	-10.993
▁ലഭിച്ചാല്‍	-10.993
▁ഓണ്‍ലൈന	-10.9931
▁യന്ത്ര	-10.9933
▁തൊട്ടു	-10.9933
മൂലം	-10.9934
ലിംഗ	-10.9935
▁എന്റ	-10.9936
▁ഡിംപല്‍	-10.9944
▁ചെയ്യപ്പെട	-10.9946
▁അല്‍പ	-10.9946
▁എന്നിട്ട്	-10.9946
മാരെയും	-10.9948
▁മിഷന	-10.9949
▁വോട്ടിന്	-10.9952
ക്കെതിരെയാണ്	-10.9952
▁തുടരാന	-10.9954
▁അബ്ദു	-10.9955
▁ഗോപിയുടെ	-10.9956
മട	-10.9956
▁സൈറ്റില്‍	-10.9957
▁ഡാ	-10.9962
▁നേടും	-10.9962
or	-10.9962
മൈ	-10.9964
▁സ്വന്തമാക്കി	-10.9965
▁അസ്വസ്ഥ	-10.9966
▁2008	-10.9966
▁ജീവിതത്തെ	-10.9967
▁ഒമാന്‍	-10.9967
▁അക്രമികള്‍	-10.9967
▁കടിച്ച	-10.9968
▁നല്‍കുന്നുണ്ട്	-10.9971
▁ഭാഗത്തേക്ക	-10.9972
മേള	-10.9974
▁മറ്റൊരാള	-10.9975
▁മുമ്പുള്ള	-10.9975
▁ശ്രീരാമ	-10.9976
▁സര	-10.9977
യുമുള്ള	-10.9978
▁സീന	-10.9982
പ്പിള	-10.9982
▁കേന്ദ്രത്തിന്	-10.9983
▁മാസങ്ങളില	-10.9986
ുകയാണെന്ന	-10.9986
▁സഭയിൽ	-10.9988
ോത്സവ	-10.9988
ാനുമതി	-10.9988
▁എസ്എഫ്	-10.9989
▁ആംആദ്മി	-10.999
▁ഉല്‍പ്പന്നങ്ങള	-10.999
▁തീർച്ചയായും	-10.999
▁മന്ദിരത്ത	-10.999
▁ടീച്ചര്‍	-10.999
▁പുരോഗമന	-10.999
▁വീണ്ടെടുക്ക	-10.999
▁തികഞ്ഞ	-10.999
▁ഡെമോക്രാറ്റിക്	-10.9991
▁പിന്നിട	-10.9991
▁ബ്ലെസ്ലി	-10.9992
▁കോട്ടയത്ത	-10.9993
▁ലിറ്ററിന്	-10.9993
▁സമഗ്രമായ	-10.9994
▁മന്ത്രിയുമായ	-10.9994
▁കോൺഗ്രസ്സ്	-10.9994
▁യൂണിറ്റുകള	-10.9995
▁സായുധ	-10.9997
▁തൻ്റെ	-10.9999
പ്പാടി	-11
▁ജീവിതത്തിലേക്ക്	-11.0005
▁വേദിയില്‍	-11.0006
▁നഷ്	-11.0006
ാത്തതിനാല്‍	-11.0011
▁മത്സരങ്ങള്‍	-11.0012
▁കണ്ടെത്താന	-11.0013
▁ആക്ട്	-11.0014
വരുടേയും	-11.0015
▁ബുദ്ധിമുട്ടുകള	-11.0015
▁മണിക്കൂറും	-11.0019
▁കൂളുകള്‍	-11.0019
▁നഗർ	-11.0021
▁-19	-11.0021
ുരു	-11.0022
▁ലംഘനം	-11.0023
▁തടി	-11.0024
ിലെത്തിയത്	-11.0024
▁വിഷു	-11.0024
▁വൈദ്യുത	-11.0027
▁പ്രദേശില്‍	-11.003
▁തോത	-11.0031
▁പൂട്ടി	-11.0033
ുണ്ടാവുക	-11.0038
▁എതിര്‍പ്പ്	-11.0039
▁ഹൈസ്	-11.004
ണമെന്നായിരുന്നു	-11.004
▁വാദങ്ങള	-11.0041
▁വ്യക്തികൾ	-11.0045
പഠന	-11.0046
▁ഭൂമിയുടെ	-11.0046
▁ഷീ	-11.0049
▁രാവിലെയാണ്	-11.0049
▁പദ്ധതികളുടെ	-11.0051
▁കയ്യിൽ	-11.0052
കേസ	-11.0056
ര്‍ദ്ദ	-11.0059
▁ശ്രദ്ധിക്കുക	-11.0059
▁ആസ്ഥാന	-11.0061
▁വീഡിയോയിൽ	-11.0062
നാണെന്ന്	-11.0064
▁ലീഡ	-11.0065
▁അതിനോട്	-11.0065
▁അംഗങ്ങളും	-11.007
ബാല	-11.0073
▁മന്‍	-11.0075
▁പതിപ്പ	-11.0079
▁കഴിഞ്ഞാൽ	-11.0079
▁കേന്ദ്രങ്ങൾ	-11.008
പ്പണ	-11.0081
▁ചെയ്യപ്പെടുന്ന	-11.0082
▁ഒഴികെ	-11.0082
ിസം	-11.0083
▁നാലിന്	-11.0085
▁പിരിച്ചുവിട	-11.0085
▁ഫാമ	-11.0086
▁ഈരാറ്റുപേട്ട	-11.0086
▁നിയമലംഘന	-11.0086
▁പ്രദര്‍ശിപ്പി	-11.0086
▁മുൻകരുത	-11.0086
▁ഹജ്ജ്	-11.0086
▁ശല്യം	-11.0086
▁ഉത്തമ	-11.0086
▁സ്ഥിതിഗതികള	-11.0086
▁ഊര്‍ജ	-11.0087
▁കണ്ടുപിടിക്ക	-11.0088
▁എൻട്രി	-11.0088
▁എക്സ	-11.009
▁കൈയ്യില	-11.009
ുണ്ടാകുമെന്ന	-11.009
▁ഗേറ്റ്	-11.009
▁സ്വീകരിക്കുക	-11.0092
▁വെക്കുന്ന	-11.0094
വർഗ്ഗ	-11.0094
▁സ്ഥ	-11.0096
▁ബാധിക്കുമെന്ന	-11.0097
▁കടകള്‍	-11.0097
▁മാനേജ	-11.01
▁രാശിക്കാര	-11.0102
▁രംഗത്തുണ്ട്	-11.0102
▁2004	-11.0103
▁മുമ്പില്‍	-11.0103
▁ധൈര്യം	-11.0103
▁ഭേദമായ	-11.0104
▁പൗരന	-11.0105
▁കര്‍മ്മ	-11.0105
വെള്ള	-11.0105
▁പ്രതിപക്ഷത്ത	-11.0111
ിനകത്ത്	-11.0111
▁പുറത്തുവിട്ടത്	-11.0112
▁ഉപേക്ഷിച്ച്	-11.0112
െത്തിച്ച	-11.0115
▁ആവശ്യങ്ങള്‍	-11.0116
ക്ഷന്‍	-11.0118
▁പരസ്പര	-11.0118
▁വേതന	-11.012
▁സമൂഹത്തിൽ	-11.0122
▁ഒളിവില്‍	-11.0124
ശാന്തി	-11.0125
േക്കാമെന്ന	-11.0127
▁ചെയ്യാനാണ്	-11.0128
▁വിജ്ഞാപനം	-11.0128
ന്താ	-11.0129
കാരം	-11.0129
▁വെല്ലുവിളിയാണ്	-11.0129
▁നേതൃത്വവും	-11.0131
▁റിലയന്‍സ്	-11.0135
കുള	-11.0136
▁കൂറുമാറിയ	-11.0136
നകം	-11.0137
▁ഇരുന്ന്	-11.014
▁തകരാറ	-11.014
▁തയ്യാറായി	-11.0141
ുണ്ടാകില്ല	-11.0147
ക്റ്റ	-11.0149
▁നാടിനെ	-11.0149
▁മലബാറ	-11.0154
▁ഹൈക്കോടതിയിൽ	-11.0155
▁130	-11.0156
▁അന്ത്യം	-11.0156
▁സാക്ഷികള	-11.0157
▁സ്ത്രീയെ	-11.0157
ന്മാര്‍	-11.0158
▁ഘടകം	-11.0158
▁കൊടിയ	-11.016
▁ജനതാ	-11.0162
▁മാസത്തില	-11.0162
▁സൈന്യത്തെ	-11.0166
മെടുത്ത	-11.0166
▁നിലവാരം	-11.0167
▁ഭക്ഷണവും	-11.0167
▁ദീര്‍ഘ	-11.0168
▁ആരാ	-11.0173
യില്ലെന്ന്	-11.0176
▁ചെയ്യാമെന്ന	-11.0177
▁മീര	-11.0179
▁ഏജന്റ	-11.0181
▁ശീ	-11.0182
▁സുസ്ഥിര	-11.0183
▁അങ്കമാലി	-11.0183
▁വെള്ളാപ്പള്ളി	-11.0183
▁സഖാക്കള	-11.0183
▁സൗമ്യ	-11.0183
ശൂന്യ	-11.0183
ാമോ	-11.0183
▁ഉപതെരഞ്ഞെടുപ്പ	-11.0183
▁ഇങ്ങോട്ട	-11.0183
▁(60)	-11.0184
▁കവര്‍ച്ച	-11.0184
▁ചരക്കു	-11.0184
▁നിര്‍ബന്ധിത	-11.0185
▁ശ്രീലേഖ	-11.0185
▁തിരുവോണ	-11.0185
▁പേരിലുള്ള	-11.0185
▁വര്‍ഷത്തിനിടെ	-11.0186
▁ഇടിയ	-11.0188
▁പൊതുമേഖലാ	-11.0191
▁മിടുക്ക	-11.0192
▁ക്ഷാമം	-11.0193
▁എണ്ണവില	-11.0194
▁അനുവദിക്കണമെന്ന	-11.0197
▁അബ്ദുള്ള	-11.0197
▁കേസിലാണ്	-11.0198
▁കയറിയത്	-11.0198
▁കോമ	-11.0198
ിലേയും	-11.0199
ികളായ	-11.0199
▁ജിഹാദ്	-11.02
മിക്	-11.0202
▁വടക്കന്‍	-11.0202
▁ഇതിനിടെയാണ്	-11.0203
▁പ്രാതിനിധ്യം	-11.0208
▁വിദ്യാ	-11.0208
▁ഘട്ടങ്ങളില	-11.0209
▁കേസെടുത്ത്	-11.021
▁വിഭാഗവും	-11.0214
▁ഠ	-11.0219
▁ഡോക്ടര്‍മാര	-11.0221
ൗട്ട	-11.0222
ക്കെതിരേയും	-11.0222
▁പാർട്ടിയിലെ	-11.0225
▁ഇറങ്ങിയത്	-11.0226
▁അയല്‍	-11.0226
▁കിട്ടിയില്ല	-11.0227
യിലുള്ളത്	-11.0228
▁ചരിത്രത്തിൽ	-11.023
▁സഞ്ചരിക്കുന്ന	-11.0231
യിലേക്കാണ്	-11.0232
ങ്കോ	-11.0233
▁മന്ത്രിമാരായ	-11.0233
▁ഡബ്ല്യു	-11.0234
വിസ്	-11.0236
ിനിടയ	-11.0237
ദാസ	-11.0237
▁ശ്രീജിത്ത്	-11.0238
▁താരത്തിന്	-11.0238
ാവട്ടെ	-11.0239
സംഭവ	-11.0241
▁സിഖ്	-11.0242
▁കമ്മ	-11.0246
യോളം	-11.0249
▁രാജേന്ദ്രന്‍	-11.0249
▁ടീമുകള	-11.0249
▁മരിച്ചിരുന്നു	-11.0251
▁വഴിയൊരുക്ക	-11.0252
▁രാശിയിൽ	-11.0254
▁ചിത്രത്തിന്	-11.0258
▁മാസത്തോള	-11.0259
▁ക്വാഡ	-11.0262
▁ഓട്ട	-11.0262
▁ഖത്തറില്‍	-11.0264
▁നടത്താനാണ്	-11.0266
നീഷ്	-11.0267
▁ചെയ്തതെന്ന്	-11.027
▁വിദേശികള	-11.0271
▁നിത	-11.0271
യാക്കുന്ന	-11.0272
ുമായിരുന്ന	-11.0273
താണെന്ന	-11.0273
▁ണ്ടാ	-11.0274
▁തമിഴ	-11.0279
*	-11.0281
▁പ്രേരിപ്പിച്ച	-11.0281
▁മാവേലിക്കര	-11.0281
▁വ്യതിയാന	-11.0281
▁സന്നിധാനത്ത	-11.0281
▁അഭ്യർത്ഥിക്ക	-11.0281
▁വ്യാപിപ്പിക്ക	-11.0281
▁ഗവൺമെന്റ	-11.0281
ബിലിറ്റി	-11.0281
▁വില്‍പന	-11.0281
▁പ്രാപിച്ച	-11.0282
▁സാധ്യമായ	-11.0282
▁മത്സരങ്ങള	-11.0282
▁എൻഐഎ	-11.0282
▁വ്യാപിക്കുന്ന	-11.0283
▁ചാനൽ	-11.0283
▁പാട്ടീല	-11.0283
▁ശ്രീറാം	-11.0283
കാവ്	-11.0284
▁ഭരണസമിതി	-11.0285
▁ആക്ട	-11.0285
ാഴ്ച്ച	-11.0286
▁കുറ്റവാളികള	-11.0286
▁അഗ്നി	-11.0286
▁കാലയളവ്	-11.0287
ഭക്ത	-11.0287
▁ഭാവന	-11.0287
▁ലഭിച്ചില്ല	-11.0292
മല്ലെന്ന്	-11.0294
▁അഭിഭാഷകന	-11.03
▁മാധ്യമങ്ങളിലൂടെ	-11.0301
ുവാനും	-11.0302
▁രേ	-11.0304
▁ചോദിച്ചിരുന്നു	-11.0305
ിട്ടുണ്ടെന്ന	-11.0305
▁ആയാലും	-11.0305
▁ഉള്‍പ്പെടുന്നു	-11.0307
▁തീര്‍ത്ത	-11.0308
▁ക്വാറന്റൈന്‍	-11.031
▁വരുമ്പോൾ	-11.0312
▁ശ്രമിച്ചിരുന്നു	-11.0317
ക്കാതെ	-11.0318
▁തിരിക്ക	-11.0319
▁വിഭാഗത്തിലെ	-11.032
▁അവളെ	-11.032
▁രാജന്‍	-11.0321
▁ടൈറ്റ	-11.0321
▁അംഗങ്ങളെ	-11.0322
കാര്യങ്ങള	-11.0322
▁റണ്‍	-11.0322
▁ചിത്രത്തില	-11.0323
▁രംഗ	-11.0324
▁(14	-11.0326
▁സ്ഥാനാർത്ഥിയായി	-11.0326
▁സെഷന്‍	-11.0328
▁തൊണ്ട	-11.0329
▁അപേക്ഷാ	-11.0329
▁ഇടതുപക്ഷത്തിന്	-11.0334
▁പ്രയോഗിച്ച	-11.0335
ടിക്കുന്ന	-11.0337
▁ചെയ്യുന്നതിന	-11.0337
▁അയയ്ക്ക	-11.0338
▁തിരുത്തി	-11.0338
യൂർ	-11.034
▁ജോയിന്റ	-11.0341
▁ട്രേറ്റ്	-11.0341
▁സേവനങ്ങൾ	-11.0345
▁സംഘർഷം	-11.0347
▁ശ്രമിക്കുക	-11.0348
▁നടത്താനുള്ള	-11.0351
▁വാല	-11.0352
▁മണ്ഡലങ്ങള്‍	-11.0355
▁അപേക്ഷകൾ	-11.0355
▁കൂടിയായിരുന്നു	-11.0357
▁വില്ലേജ	-11.0357
▁370	-11.0358
▁ജനാധിപത്യം	-11.0361
ാണെന്നായിരുന്നു	-11.0361
ുകൊണ്ടിരിക്കുകയ	-11.0364
▁സിഡി	-11.0365
!!!	-11.0367
ലഭ	-11.0367
▁നൽകുന്നു	-11.0367
▁കൃഷ്ണന്‍	-11.0369
▁പരിഗണിച്ച്	-11.0372
▁അവകാശപ്പെടുന്ന	-11.0373
ഡിസി	-11.0376
▁അഫ്	-11.0378
▁പ്രശാന്ത	-11.0378
▁പോപ്പുലര്‍	-11.038
▁ഫിഷറീസ്	-11.038
▁ബഷീര്‍	-11.038
▁റഷീദ	-11.038
▁കായംകുളം	-11.038
▁തിരച്ചിൽ	-11.038
▁എല്ലാവരോടും	-11.038
▁യുവാക്കൾ	-11.038
▁സീതാറാ	-11.038
▁സലീം	-11.038
▁മിനിമം	-11.038
▁രക്ഷാപ്രവർത്തന	-11.038
▁വധശ്രമ	-11.0381
▁കാമുകന	-11.0381
▁വര്‍ഷത്തിന്	-11.0381
▁മാരക	-11.0381
▁പങ്കുവയ്ക്ക	-11.0381
▁പരിശോധിച്ചു	-11.0382
നോജ	-11.0382
▁രാജശേഖരന	-11.0382
▁ഭാഗമായിട്ടാണ്	-11.0383
▁അധിക്ഷേപിച്ച	-11.0385
▁ശുഭകരമായ	-11.0386
▁മെഗാ	-11.0387
ാറുള്ള	-11.0387
ഗഡ്	-11.0388
▁#	-11.0388
▁പാലിക്കണമെന്നും	-11.0388
▁ഇക്കാര്യ	-11.0389
▁ചികിത്സയിലുളള	-11.039
▁തുറന്നടിച്ചു	-11.0394
▁കുണ്ടറ	-11.0394
▁c	-11.0398
▁പാമ്പിനെ	-11.0399
▁ഓടിക്ക	-11.0399
??	-11.0401
▁ബാലറ്റ്	-11.0402
▁3000	-11.0403
▁വ്യാപാരികള്‍	-11.0404
െത്തുന്നത്	-11.0404
▁ബില്യണ്‍	-11.0404
▁വിജയിപ്പിക്ക	-11.0404
▁2001	-11.0404
▁ചേട്ടന	-11.0404
▁സൈനികരെ	-11.0408
▁പോക്	-11.0409
▁പ്രഖ്യാപിക്കും	-11.041
യുണ്ടാവ	-11.0417
▁കൊച്ചിയിൽ	-11.0418
▁പിടിക്കാന	-11.042
▁കര്‍ശനമായി	-11.0421
▁ഫലങ്ങള്‍	-11.0423
പ്രായ	-11.0424
▁പ്രവർത്തകരുടെ	-11.0425
▁സയൻസ്	-11.0425
മണ്ണ	-11.0426
▁കമ്മിഷന്‍	-11.0426
ുന്നതിനാണ്	-11.0427
▁കേന്ദ്രത്തിലെ	-11.0428
▁തെരുവില	-11.0429
▁വിവാദമായിരുന്നു	-11.0429
▁തിരിച്ചെത്തി	-11.0429
ണമെന്നാവശ്യ	-11.043
ഐസി	-11.0432
ിനേക്കാള്‍	-11.0435
▁യാത്രക്കാർ	-11.0435
▁നിര്‍ണായകമാണ്	-11.0435
▁കമ്മിഷന	-11.0436
▁കൊണ്ടായിരുന്നു	-11.0437
▁കശ്മീരിലെ	-11.0437
▁മൂന്നിന്	-11.0438
ിലേക്കു	-11.0438
▁അന്നേ	-11.0439
▁വ്യക്തിയെ	-11.0439
കുറ്റ	-11.044
▁വരുമെന്നാണ്	-11.0442
▁ഡയറക്ടറേറ്റ്	-11.0442
▁കക്ഷികള്‍	-11.0444
▁ജോര്‍ജിന്റെ	-11.0446
▁നെഹ്	-11.0448
▁ഉണ്ടാകില്ല	-11.0449
▁മസ്ജിദ്	-11.045
▁അപകടകരമായ	-11.0451
▁ഗോവയില്‍	-11.0453
▁ബസുകള	-11.0454
▁അതുകൊണ്ട	-11.0455
▁വധു	-11.0456
▁പ്രതിക്ക്	-11.0456
▁ഹൈക്കോടതിയുടെ	-11.0458
▁പരാജയപ്പെടുത്തി	-11.0458
▁പ്രചാര	-11.0459
▁അഞ്ചിന്	-11.0459
▁സമീപകാലത്ത	-11.0462
▁പാമ്പ്	-11.0463
▁അപ്പോഴും	-11.0466
▁പുനര്‍	-11.0467
▁സൃഷ്	-11.0468
▁നിര്‍ത്താന്‍	-11.047
▁മുറുക	-11.047
▁മറുപടിയായി	-11.047
▁താൽക്കാലിക	-11.0471
കാരണം	-11.0473
മാക്കാന്‍	-11.0474
▁മാര്‍ക്ക്	-11.0474
▁അസോസിയേഷൻ	-11.048
▁ഉരുള്‍പൊട്ടല	-11.048
▁താലിബാൻ	-11.048
▁നോമിനേഷന	-11.048
▁പുനരധിവാസ	-11.048
▁ബൗണ്ടറി	-11.048
▁വഴിത്തിരിവ	-11.048
▁ടൂറിസ്റ്റ	-11.048
▁ട്വിസ്റ്റ	-11.048
▁ഇന്റലിജന്‍സ്	-11.048
▁കപില്‍	-11.0482
▁സ്വര	-11.0486
▁റോഷി	-11.0486
▁കോണ്‍ഗ്രസിന്‍റെ	-11.0487
▁മണിക്കൂറുകൾ	-11.0487
യെടുത്ത്	-11.0488
▁വിഷയത്തില	-11.0488
▁സാമന്ത	-11.0489
▁ലൈവ്	-11.049
▁നേടിയെടുക്ക	-11.0491
▁രക്ഷിച്ച	-11.0492
▁താലൂക്ക	-11.0493
▁മടങ്ങിയത്	-11.0493
▁&	-11.0494
ിക്കാത്ത	-11.0496
▁ആലപ്പുഴയില്‍	-11.0501
▁നിര്‍ണായകമായ	-11.0501
▁ഒരിടത്ത	-11.0502
▁യുഎന്‍	-11.0503
▁നല്‍കാമെന്ന	-11.0504
▁ചവറ	-11.0505
▁പ്രതിപക്ഷത്തെ	-11.0505
▁പെട്ടി	-11.0505
▁ലോക്കല്‍	-11.0509
▁വയ്യ	-11.0509
▁ശ്രദ്ധേയ	-11.051
▁പ്രേക്ഷകര്‍	-11.0512
▁സമാധാനപരമായ	-11.0512
▁വാർഡ്	-11.0513
▁വില്ല	-11.0515
▁നൽകേണ്ട	-11.0515
▁സമ്മർദ്ദ	-11.0516
▁സമ്മര്‍ദ്ദ	-11.0516
തായുള്ള	-11.0516
മാരാണ്	-11.0522
▁വിഭവ	-11.0522
▁വാച്ച	-11.0523
▁മടക്കി	-11.0529
▁എത്തിയതോടെ	-11.0529
▁പ്രതിഫല	-11.053
▁അലേർട്ട്	-11.0531
▁വിദഗ്ധർ	-11.0531
▁കാറുകള	-11.0531
▁ഹാജരാക്കി	-11.0533
▁സജീവമാണ്	-11.0536
▁അസോസിയേഷന	-11.0536
▁സിന്ധ്യയുടെ	-11.0537
▁തിയേറ്ററുകള	-11.054
F	-11.054
▁നടത്താനും	-11.054
ബിജെപി	-11.054
ീരിയ	-11.0542
▁അപേക്ഷകള്‍	-11.0544
▁തനിച്ച്	-11.0544
പ്പറഞ്ഞ	-11.0546
▁രൂപപ്പെടുന്ന	-11.0547
തിൻ്റെ	-11.0548
▁വേതനം	-11.0548
ിടിച്ച	-11.0552
▁വർദ്ധനവ	-11.0554
‍ർ	-11.0555
▁പടിഞ്ഞാറ	-11.0555
▁ഉത്തരവിറക്ക	-11.0556
▁വേട്ട	-11.0557
ില്ലല്ലോ	-11.0558
മനുസരിച്ച്	-11.0559
▁പൂർത്തിയാക്കി	-11.0559
▁സിദ്ദിഖ	-11.056
▁ആറിന്	-11.0563
▁നമ്പറുകള	-11.0564
▁മരണങ്ങളും	-11.0565
▁രാജീവ	-11.0567
ഫൈ	-11.0567
▁പാലിക്കുന്ന	-11.0569
▁കഴിയുക	-11.0574
▁മോര്‍ച്ച	-11.0575
▁പരാമര്‍ശങ്ങള്‍	-11.0577
▁വാങ്ങാന	-11.0578
▁കോണ്‍ഗ്രസുകാര	-11.0579
▁ബിപി	-11.0581
▁അധി	-11.0581
▁കിഷോര്‍	-11.0581
▁കൊടുവള്ളി	-11.0581
▁നൂറുകണക്കിന്	-11.0581
▁പുതുച്ചേരി	-11.0581
▁വെല്‍ഫെയര്‍	-11.0581
▁സെപ്തംബര്‍	-11.0581
▁പെർമിറ്റ	-11.0581
▁മാര്‍ഗനിര്‍ദേശ	-11.0581
▁മഞ്ചേശ്വരത്ത	-11.0581
▁ലൊക്കേഷന	-11.0581
▁സതീഷ്	-11.0581
▁ഡിവൈഎസ്പി	-11.0581
▁ദുബെ	-11.0582
▁ഷൂട്ട്	-11.0584
യിലുണ്ടായ	-11.0584
ലാല	-11.0585
▁പേസ്	-11.0586
▁പ്രതിഷേധമാണ്	-11.0586
▁സൗകര്യങ്ങളും	-11.0586
▁ഉടമസ്ഥതയിലുള്ള	-11.0587
പോള	-11.0589
▁ഇറാന്റെ	-11.0591
▁ഉന്നതതല	-11.0595
▁ഓഫര്‍	-11.0595
▁നടത്തണമെന്ന്	-11.0595
▁ഒളിപ്പിച്ച	-11.0595
▁അനിത	-11.0596
ക്കൂറ	-11.0598
▁ഹയര്‍	-11.0599
▁നടത്തുന്നതിന്	-11.0601
▁ഇയാള്‍ക്ക്	-11.0602
▁കാര്‍ത്തിക	-11.0602
▁അവതരിപ്പിച്ചത്	-11.0602
▁വെടിവെച്ച	-11.0602
▁തെളിഞ്ഞു	-11.0603
▁പ്രതിയാണ്	-11.0603
▁പാലിക്കുക	-11.0604
പ്പിടിച്ച	-11.0607
▁രണ്ടിടത്ത	-11.0607
ബ്രി	-11.0608
▁തടസ്സപ്പെടുത്ത	-11.061
▁കഴിയില്ലെന്നും	-11.061
▁സ്ഥാപനത്തിൽ	-11.0611
▁മുസ്ലി	-11.0612
▁ശനിയുടെ	-11.0613
▁ആനുകൂല്യം	-11.0614
▁മൂന്നാമത	-11.0614
▁തലവന	-11.0615
▁ഭേദമായി	-11.0616
▁രോഗലക്ഷണങ്ങള്‍	-11.0618
▁ശക്തമാക്കി	-11.062
▁എംജി	-11.062
▁കൊവിഡിനെ	-11.0621
▁ലാണ്	-11.0622
▁പുറത്തുവന്നത്	-11.0623
ലുകളും	-11.0624
▁കാത്തു	-11.0626
▁പ്രേക്ഷക	-11.0629
▁താരങ്ങളുടെ	-11.063
▁മേരി	-11.0631
▁വേണമെങ്കി	-11.0634
▁സയന്‍സ്	-11.0636
▁സഞ്ചാരികള	-11.0637
ുന്നുണ്ടെങ്കിലും	-11.0637
▁തലസ്ഥാനമായ	-11.0638
വിദഗ്ദ	-11.0638
▁രണ്ടിന്	-11.0639
▁വിഷയങ്ങൾ	-11.064
▁108	-11.0641
കുടുംബ	-11.0642
ആരോഗ്യ	-11.0642
':	-11.0643
▁സംസ്ഥാനമാണ്	-11.0647
▁താരത്തെ	-11.0648
തിനോട്	-11.065
▁ഇല്ലായിരുന്നു	-11.0651
▁എറണാകുളത്ത	-11.0651
▁താരമാണ്	-11.0652
▁മനസ്സിലാക്കി	-11.0653
▁ചത്ത	-11.0654
100	-11.0656
▁പോവുന്ന	-11.0656
▁മലയാളികള	-11.0657
▁മറ്റുള്ളവരെ	-11.0663
▁ലിമിറ്റഡ	-11.0663
▁ഒഴിവാക്കുക	-11.0667
പ്പിക്കുന്ന	-11.0668
▁തെര	-11.0669
▁ഫ്രണ്ട	-11.067
▁നേട്ടമാണ്	-11.0671
▁പുറത്തുനിന്ന	-11.0672
▁മുന്നിലാണ്	-11.0672
▁കാര്യങ്ങളെ	-11.0674
▁മുഖത്ത	-11.0676
ാവുകയും	-11.0682
▁പൂര്‍ത്തീകരിക്ക	-11.0683
▁എമിറേറ്റ്	-11.0683
▁കമ്മീഷണർ	-11.0683
▁കൊൽക്കത്ത	-11.0683
▁ഖാര്‍ഗെ	-11.0683
▁ടെക്നോളജി	-11.0683
▁നാമനിര്‍ദേശ	-11.0683
▁മഞ്ചേശ്വരം	-11.0683
▁തൊഴിലുറപ്പ്	-11.0683
▁പ്രതിച്ഛായ	-11.0683
▁വീഴ്ച്ച	-11.0684
▁എങ്കിൽ	-11.0684
▁സിൽവർ	-11.0684
ത്തിലെത്തിയ	-11.0684
▁സമ്മാനിക്കും	-11.0684
▁ഗാര്‍ഡ	-11.0685
▁കന്നഡ	-11.0685
▁നഗറില	-11.0686
▁രമേശ	-11.0686
▁ബിഹാറ	-11.0687
▁വൃത്തിയാക്ക	-11.0688
▁അണ്ണാ	-11.0688
▁ചെന്നൈയില്‍	-11.0691
▁പദം	-11.0698
▁പുലര്‍ത്ത	-11.0698
▁വ്യക്തമാകുന്നത്	-11.0699
▁വിമര്‍ശിച്ച്	-11.07
▁പ്രകാരമുള്ള	-11.0702
▁കുട്ടിക്ക്	-11.0703
▁ഹണി	-11.0705
▁അധ്യാപകന	-11.0709
▁അവന	-11.0709
പുല	-11.0709
▁പ്രവർത്തിക്കാൻ	-11.0711
ബാദ	-11.0713
▁എമ്മിന്റെ	-11.0713
▁മരിക്കുന്ന	-11.0714
▁അമരീന്ദ	-11.0714
വിജയ	-11.0714
▁പിരിഞ്ഞ	-11.0715
▁കടത്തി	-11.0716
▁പൊള്ള	-11.0717
▁ഷമി	-11.0718
▁മരണങ്ങളാണ്	-11.0719
യാണെങ്കില്‍	-11.0725
▁എന്നുള്ളതാണ്	-11.0727
▁സേവ്	-11.0728
▁കാശ	-11.0729
▁ക്വാറന്റൈനിലും	-11.073
▁വിനോദസഞ്ചാര	-11.073
▁മന്ത്രിസഭയിൽ	-11.0731
കളോ	-11.0735
▁വോട്ടിന	-11.0735
പീഡ	-11.0739
▁നിര്‍ബന്ധമായ	-11.0739
▁എടുക്കുന്നത്	-11.0739
▁അത്തരത്തില	-11.0742
▁കാക്ക	-11.0742
ക്ഷേമ	-11.0743
നന്ദ	-11.0745
▁വിസി	-11.0747
▁മതപരമായ	-11.0747
▁കുടുംബങ്ങള്‍ക്ക	-11.0748
▁എടുക്കുക	-11.0748
മുണ്ടായിരുന്ന	-11.0751
▁പുതുക്കിയ	-11.0752
ക്കാട്ട	-11.0754
▁നിലപാടുകള	-11.0754
▁സ്ത്രീകൾക്ക്	-11.0759
▁പ്രദേശങ്ങളിലും	-11.0764
▁കഴിഞ്ഞിട്ടും	-11.0764
▁മനസ്സിൽ	-11.0765
▁ഗെഹ്ലോട്ട	-11.0767
▁കപ്പല്‍	-11.0771
അബ്ദുള്ളക്കുട്ടി	-11.0772
▁സമീപിച്ചിരുന്നു	-11.0773
▁നിയമത്തിന്റെ	-11.0775
യുണ്ടാവും	-11.0776
▁സർവ്വീസ്	-11.0785
▁ജസ്	-11.0785
▁സപ്ലൈ	-11.0785
▁സംഭവിക്കും	-11.0785
▁മുന്‍തൂക്കം	-11.0786
▁ഏകോപന	-11.0786
▁ഡിലീറ്റ്	-11.0786
▁എല്‍ജെഡി	-11.0786
▁രാകേഷ്	-11.0786
▁അതിജീവിക്ക	-11.0786
പൂ	-11.0786
▁കുമാരസ്വാമി	-11.0786
▁ഫേസ്	-11.0786
▁വാട്ടര്‍	-11.0787
▁മഹാസഖ്യത്ത	-11.0787
▁ആദായ	-11.0787
▁വളർന്ന	-11.0787
▁മൈസൂര	-11.0787
▁സെക്കന്റ	-11.0787
▁ഭയങ്കര	-11.0787
▁യോജിക്ക	-11.0787
▁സോളാര്‍	-11.0787
▁ചോര്‍ന്ന	-11.0787
▁ശതമാനത്തോളം	-11.0788
▁കൃഷ്ണദാസ്	-11.0788
▁വെള്ളക്കെട്ട	-11.0789
▁തയ്യാറാകണമെന്ന	-11.0789
▁പായ	-11.079
▁തോല്‍ക്ക	-11.079
▁തൊഴിലാളികള്‍ക്ക	-11.0792
▁ഓർത്ത	-11.0793
മൺ	-11.0794
▁ണ്ട്	-11.0794
▁അറിയുന്നത്	-11.0795
▁ആദി	-11.0795
▁ഖാന്റെ	-11.0796
▁യുഎഇയിലെ	-11.0798
ൻമാർ	-11.08
▁നേരിടും	-11.0803
▁ഹര്‍ദിക്	-11.0803
സമര	-11.0803
▁തെറ്റായി	-11.0804
▁50,000	-11.0805
ര്‍ട്ടിഫിക്കറ്റ്	-11.0808
▁പോയാല്‍	-11.081
▁അസോസിയേറ്റ്	-11.0811
▁വേഗതയിൽ	-11.0813
സാര	-11.0815
▁ചെയ്യുമ്പോൾ	-11.0816
▁നോക്കുന്ന	-11.0817
▁ക്രൂരമായ	-11.0818
പാല്‍	-11.0823
▁പിന്നീടാണ്	-11.0824
▁ഡാറ്റാ	-11.0825
▁ചടങ്ങുകൾ	-11.0825
▁സീരിയല	-11.0826
▁പരിക്കേറ്റു	-11.0827
▁ജോലിയിൽ	-11.0828
▁പ്രവാസികളുടെ	-11.0828
▁മനസ്സിലാക	-11.0829
▁പ്രകടിപ്പിച്ചു	-11.0832
ിനെതിരെയുള്ള	-11.0833
▁ഗ്രൂപ്പിന്	-11.0836
▁താഴെയാണ്	-11.0836
▁നിയമസഭയിലേക്ക്	-11.0837
▁കുറ്റകൃത്യങ്ങള	-11.0838
▁ഞെട്ടല	-11.084
▁കണക്കു	-11.0845
▁ഒടുവില	-11.0845
വിതരണ	-11.0851
▁അറുപത	-11.0853
▁റോഡിൽ	-11.0855
▁കാലത്തും	-11.0855
പാർട്ടി	-11.0857
രോധ	-11.0859
മാണിതെന്ന	-11.0861
▁ഗോഡ്	-11.0865
▁സംരക്ഷിക്കാന	-11.0866
ച്ചിറ	-11.0869
▁അമരീന്ദറ	-11.0869
▁തടവുകാര	-11.087
▁ചെയ്താലും	-11.087
▁പ്രശംസ	-11.0871
▁കശ്മീരില്‍	-11.0872
ട്ടെയെന്ന	-11.0873
▁സന്ദീപ	-11.0873
▁ദള	-11.0874
▁സര്‍വ്വീസ	-11.0874
▁കഴിയൂ	-11.0874
▁കാട്ടിയ	-11.0875
▁ജിഹാദ	-11.0876
▁തത്വ	-11.0876
▁കൂടുന്ന	-11.0877
മാധ്യമ	-11.0882
▁പറഞ്ഞപ്പോള്‍	-11.0883
ിലാക്കി	-11.0884
▁ഉദ്യോഗാർത്ഥികൾ	-11.089
▁ഡെലിവറി	-11.089
▁നമ്പൂതിരി	-11.089
▁നിരോധനാജ്ഞ	-11.089
▁സ്ഥാനക്കയറ്റ	-11.089
▁അസംബ്ലി	-11.089
▁അരുൺ	-11.0891
▁ജംഗ്ഷന	-11.0891
▁ഫ്രഞ്ച്	-11.0892
▁പെരിങ്ങ	-11.0892
▁പന്തളം	-11.0892
▁എഞ്ചിനീയറിംഗ്	-11.0893
▁വെളിയ	-11.0894
▁പെന്‍ഡ്	-11.0894
▁ഉന്നയിക്കുന്നത്	-11.0895
▁പൊളിച്ചു	-11.0897
▁നിലപാടുകള്‍	-11.0898
▁ഏജൻസികൾ	-11.0899
▁കടലില്‍	-11.0899
▁കമന്റുകള	-11.0899
▁ബോധ്യമ	-11.09
▁കുറക്ക	-11.0901
▁സാമ്പിളുകള	-11.0901
▁നിര്‍ബന്ധ	-11.0902
▁സ്വരാജ്	-11.0903
▁ആവശ്യവും	-11.0903
വെയാണ്	-11.0904
▁പദ്ധതിയാണ്	-11.0905
▁പലവിധ	-11.0906
▁കൈക്കൊണ്ട	-11.0909
ിലേക്ക	-11.0909
▁വാർത്തകള	-11.0913
▁രണ്ടോ	-11.0913
▁ഏറ്റ	-11.0916
▁കേസിന്	-11.0918
▁വിളിക്കുന്നത്	-11.0921
▁അളവ്	-11.0921
▁സംശയിക്ക	-11.0921
▁അര്‍ജുന്‍	-11.0927
▁ആളുകളാണ്	-11.0927
▁മുന്നിലുള്ളത്	-11.093
▁ബഹള	-11.0931
ഡിംഗ്	-11.0932
▁ബംഗ്ലാദേശ്	-11.0933
▁ഏറ	-11.0936
▁കണക്കാക്കപ്പെട	-11.0937
▁കര്‍ഷകരെ	-11.0937
▁പ്രതിമാസ	-11.0937
▁നൗവ	-11.0938
▁അടിസ്ഥാനമാക്കിയ	-11.0938
▁കോഴ്സ	-11.0938
▁മത്സരങ്ങളില്‍	-11.094
▁കൃ	-11.094
▁ഇത്തരത്തില	-11.0941
▁സമര്‍പ്പിച്ചത്	-11.0942
▁ഒഴുക	-11.0942
▁കളം	-11.0944
▁റൂമില്‍	-11.0945
ഗ്രാമ	-11.0946
▁കോണ്‍ഗ്രസിനും	-11.0946
▁ദൂരം	-11.0947
കാർ	-11.0948
▁അവശേഷിക്കുന്ന	-11.095
▁വര്‍ധിച്ചു	-11.095
▁ശശീന്ദ്രന	-11.095
▁D	-11.0951
▁തേടുന്ന	-11.0951
▁മരണനിരക്ക്	-11.0952
ാർഥ	-11.0953
കാലത്ത	-11.0956
▁അഴിച്ച	-11.0957
▁ഇല്ലെന്ന	-11.0959
▁പരിപാടികൾ	-11.096
▁ഇടപാടുകള്‍	-11.0963
വ്യവസ്ഥ	-11.0966
▁ഭരണഘടനയുടെ	-11.0967
▁വയനാട്ടിലെ	-11.0968
▁അന്തരീക്ഷം	-11.0968
▁വിടി	-11.0969
▁ധരിച്ച്	-11.0972
ലക്ഷ്യ	-11.0973
▁ചുറ്റും	-11.0974
▁കണ്ടില്ല	-11.0974
▁125	-11.0975
▁ദീപക്	-11.0981
▁പ്രദര്‍ശന	-11.0981
▁കെട്ടിടങ്ങള	-11.0982
കൃഷ്ണൻ	-11.0983
▁നിബന്ധന	-11.0984
സമയം	-11.0984
▁ആരോഗ്യവകുപ്പ	-11.0984
എൻഎ	-11.0985
തന്ത്ര	-11.0985
ാവുക	-11.0987
▁ഭാര്യയുടെ	-11.099
പ്രദേശങ്ങള	-11.0992
▁വെക്കുന്നത്	-11.0992
ായുധ	-11.0993
▁അസ്സ	-11.0993
▁കഴിവ്	-11.0994
▁ബലാത്സംഗ	-11.0995
U	-11.0996
▁അങ്കണവാടി	-11.0996
▁ഗുണനിലവാര	-11.0996
▁യുക്രൈൻ	-11.0996
▁വിപരീത	-11.0996
▁ജഡേജ	-11.0996
▁വിഭാഗീയത	-11.0996
▁സ്വീകാര്യത	-11.0996
▁കാരണവശാല	-11.0996
▁ഹോട്ടൽ	-11.0996
ലാൽ	-11.0996
▁തെരുവ്	-11.0996
▁ഈജിപ്ത	-11.0996
▁പാണ്ഡെ	-11.0996
▁വിഴിഞ്ഞം	-11.0996
▁(42)	-11.0996
▁നമ്മുക്ക	-11.0996
▁തിരമാല	-11.0996
▁കടുപ്പിച്ച	-11.0996
▁കറന്‍സി	-11.0997
▁പതിയെ	-11.0997
യിടത്ത	-11.0997
▁മോഹൻലാല	-11.0997
▁നല്‍കേണ്ടി	-11.0997
▁മുഖ്യപ്രതി	-11.0998
▁മൃഗങ്ങള	-11.0999
▁മൈല	-11.0999
▁പണ്ട	-11.1001
▁അവസാനിക്കും	-11.1001
▁യാത്രകള്‍	-11.1002
ബാധിതരുടെ	-11.1003
▁നഗരം	-11.1003
▁പഠിപ്പിച്ച	-11.1003
▁പോസ്റ്റില്‍	-11.1003
▁കുറിപ്പിന്റെ	-11.1003
▁നിയമപ്രകാരം	-11.1004
▁ബീഹാറ	-11.1011
▁വിധത്തില	-11.1013
▁ഭരണകക്ഷിയായ	-11.1014
▁ഉപകരണങ്ങള്‍	-11.1014
▁മുന്നിലുള്ള	-11.1016
▁വഴിയുള്ള	-11.1016
▁വിപ്പ്	-11.1022
▁മത്സരിപ്പിച്ച	-11.1025
▁നാള്‍	-11.1025
▁കാള	-11.1027
▁ആശങ്കയിലാണ്	-11.1027
▁സച്ചിന	-11.103
▁നിന്നുളള	-11.1033
▁മുമ്പേ	-11.1033
▁സിന്‍ഹ	-11.1037
▁സിദ്ദുവ	-11.1039
മിത്ര	-11.104
▁ചിരാഗ്	-11.1041
▁ദിനത്തിൽ	-11.1042
▁അവസ്ഥയിലാണ്	-11.1044
▁ലക്	-11.1045
▁ചെയ്യുമെന്നാണ്	-11.1045
▁എന്നതിന്റെ	-11.1048
തൊഴിലാളി	-11.1048
തൊക്കെ	-11.1048
▁സുരേഷിന്റെ	-11.1048
▁മറ്റൊന്ന്	-11.105
▁മണിപ്പൂര്‍	-11.105
▁101	-11.1051
▁തുറക്കുന്ന	-11.1052
▁അതാത	-11.1052
▁B	-11.1054
▁മതനിരപേക്ഷ	-11.106
N	-11.1061
▁അനുഭവപ്പെടും	-11.1062
▁ഇന്ത്യക്കാരെ	-11.1062
▁ആശുപത്രികളില	-11.1063
▁പോവുക	-11.1063
▁പേരുകൾ	-11.1064
▁വാവ	-11.1066
മംഗല	-11.1067
▁മനുഷ്യത്വ	-11.1067
▁സഫ	-11.1067
▁ആരംഭിക്കുമെന്ന	-11.1069
കോടതി	-11.1069
▁അമല	-11.1069
▁വിമാനത്തിൽ	-11.107
▁നിയമത്തിന്	-11.1071
▁സിംഗിനെ	-11.1075
▁വില്‍ക്കുന്ന	-11.108
▁ബാലചന്ദ്രകുമാറ	-11.1081
▁വര്‍ഗ	-11.1082
is	-11.1083
▁തേടുന്നത്	-11.1086
▁പുലര്‍ത്തിയ	-11.1087
▁പോലീസിനോട	-11.1088
▁ജില്ലാതല	-11.1089
▁ഗ്യം	-11.1089
▁ബ്രെ	-11.109
▁മാത്രമുള്ള	-11.109
▁കൊല്ലപ്പെട	-11.1096
▁രാജയോഗ	-11.1097
മഴ	-11.11
മണ	-11.1101
▁നേതൃത്വത്തിന	-11.1101
▁102	-11.1101
▁ആപ്ലിക്കേഷന	-11.1102
▁കഠിനാധ്വാന	-11.1102
▁ഫോര്‍മുല	-11.1102
▁ഫോട്ടോഷൂട്ട	-11.1102
▁വേരിയന്റ	-11.1102
▁സെന്റർ	-11.1102
▁രേഷ്മ	-11.1102
▁ചില്ലറ	-11.1102
▁ലേഖനത്ത	-11.1102
▁ഊർജ്ജ	-11.1102
▁(49)	-11.1102
▁(27)	-11.1102
▁(55)	-11.1103
▁മിനുട്ട	-11.1103
▁ഭീകരാക്രമണ	-11.1103
▁വീടു	-11.1103
▁ഞായറാഴ്ച്ച	-11.1104
▁വെടിവച്ച	-11.1104
▁ശേ	-11.1107
ഭാഗ്യ	-11.1107
▁കൊലപാതകത്തിന്	-11.1108
▁വേഗത്തിൽ	-11.1108
▁മാതാവ്	-11.111
▁ചുറ്റ	-11.1111
▁എമാര	-11.1111
▁കേട്ടു	-11.1113
▁നേതൃത്വവുമായി	-11.1113
▁പുളി	-11.1116
▁പരാജയപ്പെട	-11.1117
▁വന്നതാണ്	-11.1117
▁വാരി	-11.1119
ിരിക്കുകയാണെന്ന്	-11.112
▁മുൻകൂ	-11.1121
▁സ്ഥാപനങ്ങള്‍ക്ക	-11.1123
▁ദിവസത്തിന്	-11.1125
▁വീശ	-11.1127
▁കഴിക്കുന്ന	-11.1127
▁അതിലെ	-11.1129
▁ശതമാനത്തില്‍	-11.1131
▁പാര്‍ക്ക്	-11.1132
നഷ്ട	-11.1132
▁ഉന്നയിച്ചു	-11.1133
▁ഗ്രേഡ്	-11.1133
▁മജ്	-11.1134
▁പതിനൊന്ന്	-11.1134
ക്കുവേണ്ടി	-11.1134
▁മേജ	-11.1136
മെത്തി	-11.1137
▁താരങ്ങൾ	-11.1141
▁മനസ്സില്‍	-11.1142
▁കിരീട	-11.1144
▁സെന്‍സ	-11.1148
▁മാസത്തിൽ	-11.1151
ീകൃത	-11.1151
പ്രസ	-11.1151
ാണിതെന്ന	-11.1151
▁ക്വാറന്റൈനില്‍	-11.1152
▁തീരുമാനമായ	-11.1152
▁ശാഖ	-11.1153
▁വഞ്ചിച്ച	-11.1155
▁സ്വദേശികൾ	-11.116
▁രാഷ്ട്രീയത്തില	-11.1162
▁ഇല്ലെന്നാണ്	-11.1164
▁ആനി	-11.1165
▁നാട്ടിലെത്ത	-11.1166
പരിധി	-11.1167
▁തുണി	-11.1168
ിരുന്നെങ്കിൽ	-11.1169
▁തീരുമാനത്തെ	-11.117
പ്പോര	-11.1171
▁മേഖലകളിലെ	-11.1171
▁അറിയപ്പെടുന്നത്	-11.1173
▁അന്‍	-11.1174
ദ്ദേശ	-11.1177
▁പ്രതികരണങ്ങള	-11.1177
ാകുമെന്നും	-11.1177
ക്കറ്റ്	-11.1177
▁വര്‍ഗീസ്	-11.1178
▁മെഷീന	-11.1178
സഹായ	-11.1184
▁ചിരിച്ച	-11.1184
▁ഗുണ്ടാ	-11.1185
▁ബയോ	-11.1188
▁ഉളളത്	-11.1189
ഗ്രാം	-11.119
▁അയച്ചിട്ടുണ്ട്	-11.1192
▁ചെയ്യുന്നവര	-11.1192
▁വരാന	-11.1193
▁ജുനൈസ	-11.1195
▁പിടിച്ചെടുത്തത്	-11.1198
വാഹന	-11.1198
▁ഉറപ്പാക്ക	-11.1198
▁കുമാറും	-11.1201
▁അവയുടെ	-11.1203
ക്ടര്‍	-11.1206
▁നാട്ടിലെത്തിക്ക	-11.1206
▁രഞ്ജി	-11.1207
▁ഇടപാട്	-11.1207
▁എല്‍ഡിഎഫില്‍	-11.1208
▁സ്ഥാപനങ്ങൾക്ക	-11.1209
▁സജ്ജീകരിച്ച	-11.121
▁അതിജീവിച്ച	-11.121
▁ഇതുസംബന്ധിച്ച	-11.121
▁ഏകപക്ഷീയ	-11.121
▁ദിവസത്തിനകം	-11.121
▁വസുന്ധര	-11.121
▁തള്ളിക്കളഞ്ഞ	-11.121
▁കടുത്തുരുത്തി	-11.121
▁പരിചരണ	-11.121
▁മട്ടന്നൂര്‍	-11.121
600	-11.121
▁(19)	-11.121
▁ചരക്ക്	-11.121
▁ഇരുരാജ്യങ്ങള	-11.1211
▁അതുവഴി	-11.1211
▁സ്ഥാനാർത്ഥിയെ	-11.1212
▁വായന	-11.1212
▁താമര	-11.1212
▁തീര്‍ന്ന	-11.1213
▁കുഞ്ഞുങ്ങള	-11.1214
▁വികസിപ്പിച്ച	-11.1215
▁ഒന്‍പത്	-11.1215
▁അച്ഛന്റെ	-11.1215
▁എംഡി	-11.1215
▁ഇനിയുള്ള	-11.1216
▁നാടിന്	-11.1216
▁ബിഹാര്‍	-11.1218
▁ഉള്‍പ്പടെയുള്ള	-11.122
▁രാമകൃഷ്ണ	-11.1221
▁സമീപമുള്ള	-11.1221
▁പാളി	-11.1222
വരുമായി	-11.1223
▁വിചിത്ര	-11.1225
▁കൂടുതലും	-11.1225
േക്കാണ്	-11.1226
▁നടക്കുമ്പോള്‍	-11.1226
▁സിദ്ധു	-11.1227
▁ബ്രാ	-11.1231
▁ഡോസുകള	-11.1231
▁ഉൾപ്പെടുത്തി	-11.1231
▁ശതമാനത്തിൽ	-11.1232
▁ശരിയല്ലെന്ന	-11.1234
▁കരുതല	-11.1234
▁നോക്കിയാല്‍	-11.1236
▁സര്‍വ്വ	-11.124
▁എത്തുകയും	-11.1241
▁ബിജെപിക്കും	-11.1241
▁ഓഫീസിലെ	-11.1243
▁മാലിന്യം	-11.1245
▁ക്രിസ്റ്റ	-11.1246
▁വളഞ്ഞ	-11.1248
▁രാഷ്ട്രീയമായി	-11.1248
▁ശാന്തി	-11.125
▁സ്പോട്ട	-11.1251
▁നഷ്ടപരിഹാര	-11.1254
▁മോസ്	-11.1255
▁ഫയല	-11.1255
▁ക്രൂര	-11.1256
▁പുരസ്കാര	-11.1257
▁ബീന	-11.1257
ാധികാര	-11.126
വേദ	-11.126
▁വിജയനെ	-11.1262
▁രവീന്ദ്രന	-11.1262
▁ഡിസംബറില	-11.1264
▁ഡിസംബറ	-11.1264
▁സ്ഥലത്തെത്തിയ	-11.1268
▁പരിശോധനയിലാണ്	-11.1268
▁സെന്ററുകള	-11.1268
യ്ക്കൊപ്പം	-11.1271
▁ഉയർന്നിരുന്നു	-11.1274
▁ആശ്രയിച്ച	-11.1274
▁ഗവര്‍ണറ	-11.1276
ഛ	-11.1277
ട്രേറ്റ	-11.1277
▁ഭയന്ന	-11.1278
▁കേസും	-11.1278
▁തടയാന	-11.1278
▁ബ്ലൂ	-11.128
▁സേനാ	-11.1281
വാക്ക	-11.1282
▁ജീവനക്കാരി	-11.1282
▁നല്‍കാനുള്ള	-11.1284
ബാഗ	-11.1284
▁കാണണം	-11.1288
കളഞ്ഞ	-11.1288
▁നൽകുമെന്ന	-11.1289
▁ഉള്‍പ്പെട	-11.1291
▁പോത്ത	-11.1291
▁105	-11.1291
▁ഒരുക്കങ്ങള	-11.1292
▁ആംബുലന്‍സ്	-11.1295
▁കാവി	-11.1296
ൂവെന്ന	-11.1299
▁ദുര	-11.1299
▁മഴയ്ക്കും	-11.1301
▁കണ്ണീര	-11.1302
▁രംഗം	-11.1302
▁ഹാരിസ്	-11.1305
▁ചടങ്ങിന	-11.1307
▁അക്ഷയ	-11.1309
▁ആരോഗ്യപ്രവർത്തക	-11.1314
എക്	-11.1315
▁നേതാക്കളില്‍	-11.1316
▁തീവ്രവാദി	-11.1318
▁കോർപ്പറേറ്റ	-11.1318
▁ദർശന	-11.1318
▁പ്രത്യയശാസ്ത്ര	-11.1318
▁വൃദ്ധ	-11.1318
▁വോട്ടുബാങ്ക	-11.1318
▁ബാലുശ്ശേരി	-11.1318
▁റിമാന്‍ഡ്	-11.1318
▁മനഃ	-11.1319
▁പലർക്കും	-11.1319
▁സാഹിബ	-11.1319
▁സന്തോഷവും	-11.1319
▁അവയവ	-11.1319
▁കാസിം	-11.1319
▁അലയ	-11.1319
▁തിരിച്ചുപിടിക്ക	-11.132
▁ചേർക്ക	-11.1321
▁കുല	-11.1324
▁ഐഎന്‍എല	-11.1325
▁പരിചയമുള്ള	-11.1329
▁പൊളിഞ്ഞ	-11.1329
▁ചീത്ത	-11.133
▁പ്രയത്	-11.1331
▁ഡോക്ടറുടെ	-11.1331
▁വാദിച്ചു	-11.1332
▁ഡിവിഷന	-11.1332
▁വാദിക്കുന്ന	-11.1332
▁അശ്വതി	-11.1333
ക്കൊക്കെ	-11.1334
ദോ	-11.1334
▁നിയമിക്കുന്നു	-11.1334
▁കോണ്‍ഗ്രസുമായി	-11.1336
▁മലയാളികൾ	-11.1339
▁പ്രസിഡന്റായി	-11.134
▁അനുശോചനം	-11.134
▁അവസാനത്തോടെ	-11.1344
▁പോൾ	-11.1345
▁ആശയങ്ങള	-11.1347
▁കിട്ടാതെ	-11.1347
▁ദുബായില	-11.1347
▁ഡീസല	-11.1348
▁വിദ്യാര്‍ഥികള	-11.1348
▁പിന്നീട	-11.1353
നഗര	-11.1354
▁അന്വേഷണത്തിലാണ്	-11.1355
▁വര്‍ഷത്തേക്ക	-11.1355
▁മോചനം	-11.1357
ിട്ടുളള	-11.1358
▁ജീപ്പ	-11.136
▁മാര്‍ച്ചില്‍	-11.1363
▁ആഘോഷം	-11.1363
▁ഉത്തരവാദിത്വ	-11.1364
▁ഇഷ്ടപ്പെട്ട	-11.1366
▁വർഷങ്ങള	-11.1369
▁മൂലമാണെന്ന	-11.1369
വകുപ്പ	-11.137
▁ഒരുങ്ങി	-11.137
▁സർക്കാരിന	-11.1371
ക്കാള്‍	-11.1378
▁അങ്ങനെയുള്ള	-11.1378
▁വാര്‍ഡ	-11.1383
▁ജോര്‍ജ്ജ	-11.1383
▁ഗുരുവായൂര	-11.1383
▁നാമ	-11.1385
▁ആരാധക	-11.1388
▁ചര്‍ച്ചകള്‍ക്ക്	-11.1391
▁ചെയ്തുകൊണ്ട	-11.1392
▁തളി	-11.1393
▁വർധന	-11.1394
▁പിടിക്കാൻ	-11.1396
▁ലക്ഷ്യത്തോടെയാണ	-11.1398
▁വകുപ്പിലെ	-11.1398
ില്ലായ്മ	-11.14
▁R	-11.1403
▁ആക്കിയ	-11.1405
▁ദില്ലിയിലേക്ക്	-11.1406
ിട്ടുണ്ടെങ്കില്‍	-11.1406
▁നിഷ	-11.1408
▁കോണ്‍ഗ്രസിലേക്ക	-11.1408
▁ചിത്രമായ	-11.1409
▁കൊടും	-11.1412
ുന്നുവെന്നാണ്	-11.1413
കുട	-11.1414
▁പുറത്താക്കി	-11.1414
ർവ്വ	-11.1414
▁ചിത്രവും	-11.1416
▁എത്തിക്കാന	-11.1416
കുമാറിന്റെ	-11.1416
▁മയക്കുമരുന്ന	-11.1417
കണ്ഠ	-11.1422
▁ശക്തമായിരുന്നു	-11.1426
▁സഹായിക്കാന്‍	-11.1426
ായിരുന്നുവെന്ന്	-11.1427
▁തങ്ങള	-11.1427
ത്തിൻറെ	-11.1427
▁വാസ്തവ	-11.1428
▁ഓസ്ട്രേലിയ	-11.1428
▁ചങ്ങനാശ്ശേരി	-11.1428
▁സാമുദായിക	-11.1428
▁മോട്ടോർ	-11.1428
▁വൈവിധ്യ	-11.1428
▁ഛത്തീസ്ഗഡില	-11.1428
▁ദിര്‍ഹ	-11.1428
▁ചതുരശ്ര	-11.1428
▁കിഷോറ	-11.1428
▁മംഗള	-11.1428
▁വർഗീസ	-11.1429
▁റൂറല്‍	-11.1429
▁നഷ്ടപ്പെട്ടു	-11.1429
▁(21)	-11.1429
ുദ്ദീന്‍	-11.1429
▁നാലാമത്തെ	-11.1429
▁പിരിച്ചുവിട്ട	-11.1429
▁മേപ്പാടി	-11.1429
▁തോള	-11.143
ത്തിയത്	-11.1431
▁നിഴല	-11.1432
പ്പെട്ടിട്ടുണ്ട്	-11.1433
ടീ	-11.1434
▁സികെ	-11.1435
▁നീക്കത്തിന്	-11.1435
ക്യൂ	-11.1436
▁ലംഘിക്കുന്ന	-11.1437
▁1996	-11.1438
▁മക്കളെ	-11.1438
▁കഴിഞ്ഞിട്ടില്ല	-11.1438
▁എഞ്ചിന	-11.1439
▁സ്റ്റാൻഡ	-11.144
▁ഇരിക്കൂര്‍	-11.1441
▁തുറക്കാന്‍	-11.1441
ീക	-11.1442
▁കാറിൽ	-11.1442
▁നൗഷാദ	-11.1443
▁ഭാഗത്തു	-11.1445
▁മറ്റുള്ളവര്‍	-11.1446
▁എവി	-11.1448
▁താരമായ	-11.1448
ിട്ടുള്ളൂ	-11.1449
▁ദ്രോഹ	-11.1449
▁പ്രശസ്തി	-11.145
▁സിപിഎമ്മിനെ	-11.145
▁തിളങ്ങ	-11.145
▁വിദ്യാർഥി	-11.1452
ുന്നതുവരെ	-11.1455
▁ഫൈനല	-11.1457
കളുമാണ്	-11.1457
▁പോസ്റ്റിന്	-11.146
▁രാജ്യസഭയില	-11.146
▁തടവ്	-11.1461
▁സാധനങ്ങൾ	-11.1462
▁ഉറപ്പാക്കുന്നത	-11.1462
▁ചികില്‍സ	-11.1462
▁ബില്ല്	-11.1463
▁മരിയ	-11.1463
പൂജ	-11.1465
▁സാഹചര്യ	-11.1468
ങ്ങളിലൊന്നാണ്	-11.1468
▁പ്രിന്റ	-11.1468
▁ആക്രമണത്തിൽ	-11.1469
മൂട്	-11.147
▁103	-11.1481
▁നഴ്സ	-11.1482
▁അടിച്ചത്	-11.1482
▁ബാങ്കില്‍	-11.1484
▁സ്ഥിരത	-11.1484
▁എബി	-11.1489
▁ഒരാളായ	-11.1492
▁ആരാണെന്ന്	-11.1492
▁അപ്രതീക്ഷിതമായ	-11.1494
▁അന്നു	-11.1494
▁ഡാന്‍സ	-11.1494
യെത്തിയ	-11.1498
▁വരുന്നതോടെ	-11.1498
മാരുമായി	-11.1501
▁എന്നിവയ്ക്ക	-11.1501
▁ശേഷിക്കുന്ന	-11.1503
▁വൈറല	-11.1504
▁ക്ലബ്	-11.1505
▁ചർച്ചയിൽ	-11.1505
വസര	-11.1506
▁ഓപ്പണ	-11.1506
കാട്	-11.1506
▁താത്പര്യം	-11.1511
▁വിമർശനങ്ങൾ	-11.1512
▁ഇടിച്ചു	-11.1513
▁അടുത്തുള്ള	-11.1514
▁സമയത്തും	-11.1516
▁വിശേഷിപ്പിച്ച	-11.1516
▁നടന്നുകൊണ്ട	-11.1517
▁1.5	-11.1517
▁പോകാനുള്ള	-11.1517
്യത	-11.1518
▁സ്ഥാപനങ്ങളിലെ	-11.1519
▁സാധ്യതയില്ല	-11.1519
▁മകനാണ്	-11.1521
കൃഷ്ണന്‍	-11.1524
▁വെയ്	-11.1524
ശുപത്രി	-11.1525
ിലുമാണ്	-11.1526
▁ഉദ്ധരിച്ച	-11.1529
▁പ്രസിഡണ്ട	-11.1529
▁ഉദ്യോഗസ്ഥനെ	-11.1529
മാത്രം	-11.153
▁ഓഫീസര്‍മാര്‍	-11.1532
▁ഷോയില്‍	-11.1533
▁ഒരുക്കി	-11.1533
▁ത്വ	-11.1535
▁നടത്തുമെന്നും	-11.1536
ത്തോടനുബന്ധിച്ച	-11.1537
പ്പുറത്ത്	-11.1538
400	-11.1538
▁വന്ദേ	-11.1539
▁ഒരൊറ്റ	-11.1539
▁കൈക്കൂലി	-11.1539
▁കോയമ്പത്തൂര	-11.1539
▁നിർണ്ണായക	-11.1539
▁ബിഡിജെഎസ	-11.1539
▁മുകുന്ദന	-11.1539
▁സ്പെഷ്യൽ	-11.1539
▁ബൈഡൻ	-11.1539
▁ലിംഗായത്ത്	-11.1539
▁വെടിവെപ്പ	-11.1539
▁റഹ്മാന	-11.1539
▁മലേഷ്യ	-11.1539
▁രാജ്ഞി	-11.1539
▁യോജിപ്പ	-11.154
▁(48)	-11.154
▁(31)	-11.154
▁രസകരമായ	-11.154
▁വീട്ടുകാർ	-11.154
▁പ്രവർത്തകരും	-11.1541
▁അസഭ്യ	-11.1541
▁(2)	-11.1542
പരിപാടി	-11.1542
▁ട്വിറ്ററ	-11.1543
▁എന്‍ട്രി	-11.1543
▁ഷാര്‍ജ	-11.1544
▁ബെഹ്	-11.1546
പറമ്പ്	-11.1546
▁നിന്നുമെത്തി	-11.1547
▁മത്സരിപ്പിക്കാന	-11.1552
▁വര്‍ധനവ്	-11.1553
ത്രം	-11.1555
നീക്ക	-11.1556
▁അര്‍ധ	-11.1562
▁വിജിലൻസ്	-11.1564
▁സർവീസുകൾ	-11.1567
▁കൂട്ടായ	-11.1569
▁വസ്തുക്കള	-11.1573
ക്കുമെന്ന	-11.1573
▁ബന്ധങ്ങള	-11.1573
പൂരില്‍	-11.1579
▁800	-11.158
▁ബിരുദവും	-11.1585
▁ചോദ്യമാണ്	-11.1585
▁വരുമെന്ന	-11.1585
▁ബാബുവിനെ	-11.1586
▁വർഷത്തിൽ	-11.1586
വരുണ്ട്	-11.1587
▁നിക്ഷേപിച്ച	-11.1587
▁പശു	-11.1589
▁പ്രദേശം	-11.1593
▁പുടിന	-11.1598
▁അസ്വസ്ഥത	-11.16
തല്ലേ	-11.1602
▁ഗ്രി	-11.1602
ുമായിരുന്നില്ല	-11.1602
▁കോവിഡിന്റെ	-11.1605
▁പാകിസ്ഥാന	-11.1606
▁ചന്ദ്രശേഖര്‍	-11.1608
▁ച്ചി	-11.1608
▁ജനറല	-11.1608
▁ധാരണയായ	-11.1609
ന്നൂർ	-11.1609
മുതൽ	-11.1611
▁തുണ	-11.1615
▁പ്രദേശങ്ങള്‍	-11.1616
▁അങ്ങോട്ട്	-11.1616
▁ഘട്ടത്തിലാണ്	-11.1616
▁താമസിച്ചിരുന്ന	-11.1616
▁ഇടങ്ങളില്‍	-11.1617
ായിരം	-11.1617
▁എന്‍റെ	-11.1619
▁ചടങ്ങുകള	-11.1623
▁നിലയില	-11.1624
▁പരാതിയിലാണ്	-11.1627
▁ചിന്തിക്കുന്ന	-11.163
▁സന്ദർശന	-11.1634
▁കോഴിക്കോട്ട	-11.1637
▁ദീർഘ	-11.1637
എംഎസ്	-11.1638
ായിരിക്കുമെന്നും	-11.1642
▁മരണങ്ങൾ	-11.1642
▁ഇസ്ലാമ	-11.1643
ുമല്ലോ	-11.1644
▁ലീഗും	-11.1645
▁അടഞ്ഞ	-11.1645
▁ലിങ്ക്	-11.1649
▁അപ്പുറത്ത	-11.1649
▁ഡാനി	-11.1649
സാഹ	-11.165
▁കേന്ദ്രഭരണ	-11.165
▁മാറ്റാൻ	-11.1651
യാര	-11.1651
▁ഒപ്ടിക്ക	-11.1652
▁ഗൗരിയമ്മ	-11.1652
▁ത്രികോണ	-11.1652
▁യുട്യൂബ	-11.1652
▁ഉപാധ്യക്ഷ	-11.1652
▁അഹങ്കാര	-11.1652
▁നട്ടെല്ല	-11.1652
▁മോചിപ്പിക്ക	-11.1652
▁ക്യാപ്റ്റൻ	-11.1652
▁എയിംസ	-11.1652
ിരുന്നുവെന്നാണ്	-11.1652
▁ഡെല്‍റ്റ	-11.1652
▁ഹൂഡ	-11.1652
▁ആഴ്ച്ച	-11.1652
▁നാണയ	-11.1652
▁പുനസംഘടന	-11.1653
▁സലാം	-11.1653
▁അധികാരമേറ്റ	-11.1653
▁കുടുംബാരോഗ്യ	-11.1653
▁യോജന	-11.1654
▁മധ്യസ്ഥ	-11.1655
▁മാത്രമാണ	-11.1657
▁വിജയത്തിന്	-11.1657
▁സമരത്തില്‍	-11.1658
▁ബോധം	-11.1659
▁ആണെങ്കിലും	-11.1662
▁ആദ്യമായിട്ടാണ്	-11.1662
▁ഗൗ	-11.1663
▁സീതാരാമന്‍	-11.1663
▁സംവിധാനങ്ങൾ	-11.1667
▁ഇലക്ട്രിക്	-11.1668
▁മുസ്ലീങ്ങള	-11.1669
ക്കൊടുത്ത	-11.1674
▁തോറ്റു	-11.168
▁വട്ടം	-11.168
▁ഉൾപ്പെടുന്നു	-11.168
▁സിംഹ	-11.1681
▁സൈന്യത്തിന്റെ	-11.1683
▁തേടിയത്	-11.1684
▁തുടരുമെന്ന്	-11.1685
▁സീറ്റുകളിലാണ്	-11.1685
▁സ്കൂളുകള	-11.1687
▁അറിഞ്ഞത്	-11.1687
▁10,000	-11.1687
▁വിമര്‍ശിക്ക	-11.1689
▁വൈറസിനെ	-11.1689
കരുടെ	-11.169
▁മറന്ന്	-11.1691
▁കാനം	-11.1692
▁നോഡ	-11.1694
▁പരിചയപ്പെടുത്ത	-11.1695
▁മനോഹരമായ	-11.1697
▁മേഖലകളില	-11.1697
▁തോന്നുന്നില്ല	-11.1698
▁നാട്ടുകാരുടെ	-11.1699
▁വിഷയങ്ങളിൽ	-11.1701
▁ദേഷ്യ	-11.1702
▁പങ്കിട	-11.1705
പ്പോഴായിരുന്നു	-11.1706
▁ദൈവം	-11.171
▁സ്ഥലമ	-11.171
▁കൊടുക്കാന്‍	-11.171
യാണെങ്കിലും	-11.171
▁ചെയ്തിട്ടുള്ള	-11.1711
▁അവന്	-11.1714
വസ്തുക്കള	-11.1718
മാകുമെന്ന്	-11.1724
▁ബാറ	-11.1724
▁സമ്മർദ്ദം	-11.1725
▁മുന്‍കരുതല	-11.1725
ുള്‍പ്പെടെയുള്ള	-11.173
▁നിറം	-11.1731
▁വിറ്റു	-11.1732
▁എഫിന്	-11.1732
▁തീരങ്ങള	-11.1732
▁വാഹനങ്ങളുടെ	-11.1734
▁കാലയളവ	-11.1735
ിട്ടുള്ളതെന്ന	-11.1736
▁മെസേജ	-11.1737
▁ക്യു	-11.1737
▁യോഗത്തില	-11.1737
▁വാതില്‍	-11.1739
▁എത്തിയപ്പോള്‍	-11.174
▁പരിഹാസം	-11.174
▁സംഘി	-11.1742
ക്രാ	-11.1747
▁പോലീസുകാര്‍	-11.1749
▁ഓഫീസിലേക്ക	-11.175
▁പുറത്തുള്ള	-11.175
▁നിരയില്‍	-11.1752
സിറ്റി	-11.1753
െപ്പോലെ	-11.1756
▁1/2	-11.1756
▁ട്രേഡ	-11.1758
▁വനംവകുപ്പ	-11.1759
▁കുറ്റവാളി	-11.1759
ാരോഗ്യ	-11.1761
▁പൂര്‍ത്തിയാക	-11.1761
▁ബസുകള്‍	-11.1762
▁എഞ്ചിനീയറ	-11.1762
▁പാലായില്‍	-11.1764
▁സീമ	-11.1765
▁അഭ്യര്‍ത്ഥിക്ക	-11.1765
▁ഏപ്രിലില	-11.1765
▁കാരുണ്യ	-11.1765
▁വടക്കാഞ്ചേരി	-11.1765
▁വിശദാംശങ്ങൾ	-11.1765
▁കോതമംഗലം	-11.1765
▁തമിഴ്നാട്ടിൽ	-11.1765
▁ആര്‍സിബി	-11.1765
▁മദ്രാസ	-11.1765
▁പ്രാര്‍ത്ഥന	-11.1765
▁ഉത്തർ	-11.1765
▁വയനാട്ടിൽ	-11.1766
▁വഹാബ	-11.1766
▁സാധ്യമല്ല	-11.1766
▁രജിസ്ട്രേഷൻ	-11.1766
▁കോടിക്കണക്കിന	-11.1767
▁പ്രേം	-11.1767
[...]
