<unk>	0
<s>	0
</s>	0
.	-3.01297
ം	-4.26396
്	-4.33098
,	-4.42449
ു	-4.73357
▁	-4.83482
ും	-5.06442
ത്	-5.12893
ി	-5.13612
യ	-5.23875
മ	-5.40111
വ	-5.42178
ാ	-5.43467
ില്‍	-5.45121
ര്‍	-5.55422
ക്ക	-5.57872
്‍	-5.57906
ത	-5.58857
ന	-5.60491
ാണ്	-5.61261
ര	-5.63248
ല	-5.64703
ർ	-5.6611
▁അ	-5.67444
യും	-5.67526
റ	-5.69162
യുടെ	-5.70373
സ്	-5.82721
സ	-5.83113
െ	-5.8325
ിൽ	-5.8625
യില്‍	-5.87063
▁ഒരു	-5.87124
ന്‍	-5.87205
▁ക	-5.89103
േ	-5.89577
ക	-5.9021
ല്‍	-5.9283
ക്ക്	-5.95094
യാണ്	-5.95634
▁ഈ	-5.96788
ണ	-5.97267
ത്ത	-5.97849
ാന്‍	-6.02941
ോ	-6.03041
ുന്ന	-6.06035
▁ആ	-6.08195
പ്പ	-6.12608
ൻ	-6.12797
ിയ	-6.15816
ിന്റെ	-6.17897
▁മ	-6.18019
▁സ	-6.2174
യെ	-6.22142
ൽ	-6.25075
ിന്	-6.25696
വും	-6.26788
ീ	-6.26895
▁പ	-6.27364
പ	-6.27604
മാണ്	-6.27739
:	-6.28452
ാൻ	-6.30902
▁എന്ന	-6.31294
▁പറഞ്ഞു	-6.31358
ട്ട	-6.32958
ത്തില്‍	-6.3354
ങ്ങള്‍	-6.37219
യിൽ	-6.38192
▁വി	-6.38669
▁പി	-6.38962
സി	-6.39477
ള	-6.39946
▁സി	-6.4116
ട	-6.41436
ിരുന്നു	-6.41836
മായ	-6.4235
ുന്നത്	-6.42576
ത്തിന്	-6.42725
▁ന	-6.43096
▁തന്നെ	-6.43324
▁ത	-6.43489
▁എ	-6.44363
▁വ	-6.45681
മായി	-6.45991
▁(	-6.4728
ുക	-6.50359
ിലെ	-6.50981
▁പ്ര	-6.53454
-	-6.5425
റ്റ	-6.54937
ിനെ	-6.55408
ത്തെ	-6.56316
ിട്ടുണ്ട്	-6.5636
ൂ	-6.57093
ങ്ങൾ	-6.57475
ില്ല	-6.5852
▁സ്	-6.60201
ത്തിൽ	-6.60232
▁നിന്ന്	-6.60291
ണം	-6.62563
▁കഴിഞ്ഞ	-6.64045
ടി	-6.64116
▁കെ	-6.65773
ശ	-6.65986
ക്	-6.66176
ായി	-6.66657
ുള്ള	-6.67091
ായ	-6.68322
കള്‍	-6.71192
ത്തിന്റെ	-6.71836
ദ	-6.72061
▁ഇ	-6.73012
ഗ	-6.74727
ാന	-6.74845
വി	-6.76781
നി	-6.79644
ഷ	-6.81268
ഡ്	-6.82204
ിക്ക	-6.82424
ഹ	-6.83262
ാം	-6.84142
ലി	-6.84797
തി	-6.85143
ഡ	-6.8561
ുകള്‍	-6.85829
ച്ച	-6.85897
▁അദ്ദേഹം	-6.86056
▁ബിജെപി	-6.86244
ിച്ച	-6.86483
ത്ത്	-6.86859
കൾ	-6.87144
▁സംസ്ഥാന	-6.87642
പി	-6.88128
യിലെ	-6.88724
▁അതേസമയം	-6.88809
▁എന്നാല്‍	-6.89065
ന്	-6.93781
▁ഉ	-6.93781
ക്കും	-6.93847
ൈ	-6.93853
ുകയും	-6.94268
▁ഇത്	-6.94391
മ്പ	-6.94825
ജ	-6.95239
ന്ന	-6.96339
)	-6.97441
ായിരുന്നു	-6.9799
▁മുഖ്യമന്ത്രി	-6.98598
▁ബി	-6.99041
▁എന്ന്	-6.99071
▁ഗ	-6.9951
യ്ക്ക്	-7.0149
▁പാ	-7.03815
ങ്ങ	-7.04496
ങ്ക	-7.04777
▁കേന്ദ്ര	-7.05161
ച	-7.05481
▁വലിയ	-7.05712
▁ബ	-7.06309
ല്ല	-7.07168
ഴ	-7.07591
ാല്‍	-7.08386
ഡി	-7.09299
ബ	-7.11467
▁മന്ത്രി	-7.11769
▁എം	-7.1215
▁കോണ്‍ഗ്രസ്	-7.12219
▁നിന്നും	-7.1244
;	-7.12481
യുള്ള	-7.13114
▁മാ	-7.13609
▁ചെയ്ത	-7.13682
ങ്ങള	-7.14338
രി	-7.14511
3	-7.14844
▁നി	-7.15039
ുകൾ	-7.15912
▁രൂപ	-7.16205
▁ച	-7.16955
▁വന്ന	-7.17426
▁കോ	-7.17633
▁മു	-7.18089
ുടെ	-7.1829
▁വാ	-7.19727
4	-7.20698
ുന്നു	-7.21573
റി	-7.21921
ജി	-7.22188
യ്	-7.22608
ിരിക്കുന്നത്	-7.22661
▁ഐ	-7.24001
റ്റ്	-7.24091
▁-	-7.24743
▁പാര്‍ട്ടി	-7.25397
്യ	-7.25743
▁അത്	-7.25839
▁ല	-7.26043
ുമായി	-7.2685
ണ്ട	-7.28099
▁എല്ലാ	-7.28531
യായ	-7.2862
▁ഡി	-7.28935
ിലും	-7.29118
യോ	-7.29321
ഫ	-7.29736
ാത്ത	-7.29901
▁രണ്ട്	-7.30286
),	-7.30415
2	-7.30519
▁ശ	-7.30546
പ്പെട്ട	-7.30729
വര്‍	-7.31101
▁പുതിയ	-7.32058
ില	-7.32073
▁ഇന്ന്	-7.32174
▁ജ	-7.32241
▁വരെ	-7.32355
▁ട	-7.32658
ൾ	-7.32704
െങ്കിലും	-7.33321
എ	-7.33698
ാനുള്ള	-7.34726
▁പ്രതി	-7.35181
ള്‍	-7.35856
▁സ്വദേശി	-7.35923
▁എസ്	-7.36483
യാ	-7.36503
ുണ്ട്	-7.36673
▁എന്നാണ്	-7.36783
ബി	-7.36885
▁ചില	-7.37173
▁ചെയ്യ	-7.37424
▁പറയുന്നു	-7.37743
▁പോലീസ്	-7.37823
▁റ	-7.3841
രു	-7.38514
ങ്ങളും	-7.38677
▁കു	-7.38958
ുവ	-7.3906
▁കാ	-7.39402
ണ്‍	-7.3949
ാവ	-7.39598
▁ശേഷം	-7.40322
▁ഓ	-7.40866
ുകയാണ്	-7.41647
▁കേരള	-7.42343
വാ	-7.42423
ൂര്‍	-7.42821
▁ആണ്	-7.42963
ുമെന്ന്	-7.43221
വര	-7.43675
?	-7.4438
▁ഇന്ത്യ	-7.4456
ന്റെ	-7.44608
ിലേക്ക്	-7.44612
▁ഏറ്റവും	-7.44756
മി	-7.44902
▁നിയമ	-7.44978
ുകയായിരുന്നു	-7.46777
ൺ	-7.46799
▁നടത്തിയ	-7.47284
സ്റ്റ	-7.47392
▁രാഷ്ട്രീയ	-7.47902
നെ	-7.48654
ക്കു	-7.48692
▁വില	-7.4893
▁ഒ	-7.49637
ക്ഷ	-7.4991
പ്ര	-7.50091
▁വര	-7.50347
▁ഹ	-7.50501
▁ചെയ്തു	-7.50867
▁ജെ	-7.51305
ക്കെതിരെ	-7.51307
▁ഇട	-7.51536
താണ്	-7.51816
▁സെ	-7.52085
▁സര്‍ക്കാര്‍	-7.52145
ോട്	-7.52148
എസ്	-7.5244
▁5	-7.52598
പ്	-7.52883
ഞ്ഞ	-7.53153
▁കോടി	-7.54316
▁കൊവിഡ്	-7.54347
▁കണ്ട	-7.54575
▁കോടതി	-7.5506
കാര	-7.55117
ാതെ	-7.55367
മ്മ	-7.55522
▁നേരത്തെ	-7.55582
വർ	-7.55819
▁സാ	-7.55873
ിക്കുന്ന	-7.56504
0	-7.5659
ൗ	-7.56612
▁പരാതി	-7.57008
ിരുന്ന	-7.57176
ിരിക്കുകയാണ്	-7.57245
▁പദ്ധതി	-7.57308
▁ദിവസം	-7.57386
ൊ	-7.57417
ിട	-7.57626
കളുടെ	-7.5796
ിട്ട	-7.58124
5	-7.58155
ത്തി	-7.58224
ാനും	-7.58328
ിക	-7.5853
▁ജില്ലാ	-7.59007
6	-7.59016
▁ര	-7.59073
▁നടന്ന	-7.59243
▁കോവിഡ്	-7.5942
▁തിരുവനന്തപുരം	-7.59522
കളും	-7.59561
▁എന്നും	-7.60274
▁പറഞ്ഞ	-7.60335
ഭ	-7.60515
ിച്ച്	-7.60531
ിട്ടില്ല	-7.6069
ൊരു	-7.60786
യായി	-7.60846
8	-7.60855
ിച്ചു	-7.60882
▁പറയ	-7.61525
മാ	-7.62336
താ	-7.6246
▁എന്നാൽ	-7.62562
ാൽ	-7.62575
▁കൊ	-7.6305
മുള്ള	-7.63328
ണി	-7.63493
തോടെ	-7.63543
ന്ത	-7.64
▁കൂടി	-7.64346
▁എന്നിവ	-7.64501
യ്ക്ക	-7.64519
▁നടപടി	-7.64621
▁പേര്‍	-7.64851
കളെ	-7.65676
റ്റി	-7.66111
▁പല	-7.66367
കള	-7.66433
തായി	-7.67074
യി	-7.67186
▁വഴി	-7.67193
ുമെന്നും	-7.67438
▁വേണ്ടി	-7.67589
തു	-7.67795
ഞ്ച	-7.6783
▁പാർട്ടി	-7.67893
യിലേക്ക്	-7.68582
9	-7.68613
കെ	-7.68907
തിന്	-7.69495
ഷ്	-7.69676
ദ്	-7.698
ട്ടി	-7.6984
▁ദ	-7.69991
ത്തിലെ	-7.7169
ളി	-7.71991
▁ആരോഗ്യ	-7.72442
▁നല്‍കിയ	-7.726
▁10	-7.72838
▁കുടുംബ	-7.73607
▁സു	-7.74083
റിയ	-7.74218
▁മി	-7.74254
▁കൂടുതല്‍	-7.7441
▁അവ	-7.74429
▁'	-7.74431
▁ലഭിച്ച	-7.74648
പ്പ്	-7.7484
▁ജോലി	-7.75099
▁മൂന്ന്	-7.75106
നാ	-7.75282
▁ഏ	-7.75832
ിംഗ്	-7.76172
ള്ള	-7.77018
യില	-7.77397
ഥ	-7.77918
േറ്റ	-7.77982
ുന്നുണ്ട്	-7.78002
▁നാ	-7.78171
▁തിരഞ്ഞെടുപ്പ	-7.78282
▁തുടങ്ങിയ	-7.7832
ക്കി	-7.78358
ശ്	-7.78377
▁ടി	-7.78742
▁വെ	-7.78763
▁രോഗം	-7.7896
നം	-7.79588
കര	-7.79774
▁അത	-7.79859
ിലാണ്	-7.80313
പ്പോള്‍	-7.8032
ങ്ങളില്‍	-7.80436
▁വ്യക്തമാക്കി	-7.80476
ന്ദ	-7.80588
ാറ	-7.80806
▁അറിയിച്ചു	-7.80919
▁യു	-7.81045
▁19	-7.81725
്യൂ	-7.81758
▁ഗാന്ധി	-7.81882
▁മോദി	-7.82115
▁തിരഞ്ഞെടുപ്പ്	-7.82229
ംഗ	-7.82653
▁ജോ	-7.83227
▁നല്‍ക	-7.83284
▁പറയുന്നത്	-7.83348
ാര്‍	-7.83426
▁ഇവിടെ	-7.83627
ിയത്	-7.83767
▁4	-7.83768
ൂർ	-7.83831
ഗ്	-7.84008
തും	-7.84024
ത്ര	-7.84084
▁മുന്‍	-7.84234
തെന്ന്	-7.84399
▁സർക്കാർ	-7.84437
▁ആദ്യ	-7.84481
▁നടത്ത	-7.84514
ക്കാര	-7.84658
▁3	-7.84695
യിലും	-7.84876
ട്ട്	-7.85107
▁പ്രധാനമന്ത്രി	-7.85158
യിലാണ്	-7.85329
▁സാധ്യത	-7.85432
എം	-7.85465
രം	-7.85485
▁പെ	-7.85802
▁മോ	-7.85805
▁കോൺഗ്രസ്	-7.86006
'	-7.861
▁പോലും	-7.86305
▁ഇത	-7.8636
ുമ	-7.86801
▁പ്രതിപക്ഷ	-7.86882
▁വിജയ	-7.8698
തെന്നും	-7.87046
▁നില	-7.87098
ത്തു	-7.87292
▁അടുത്ത	-7.87651
യായിരുന്നു	-7.87721
▁ഭ	-7.87793
▁പൊലീസ്	-7.87959
പ്പെട	-7.88052
▁പോക	-7.88221
ാനാണ്	-7.88245
ാർ	-7.88439
ന്റ	-7.88707
▁പു	-7.88767
യുമായി	-7.89042
ുകളും	-7.8959
▁6	-7.89836
▁സെക്രട്ടറി	-7.89895
▁പ്രത്യേക	-7.89999
വുമായി	-7.90062
ൂര	-7.90618
ങ്ങളുടെ	-7.90661
▁പരിശോധന	-7.91089
▁ജി	-7.91407
▁20	-7.91424
▁കൂട്ട	-7.91631
▁ഇപ്പോള്‍	-7.9176
മു	-7.9186
ാമ	-7.91904
▁ആര	-7.92051
▁പ്രഖ്യാപിച്ച	-7.9206
▁മുതല്‍	-7.92236
ഐ	-7.92369
▁മേ	-7.92558
▁എത്തിയ	-7.93175
േണ്ട	-7.94034
▁കൊണ്ട്	-7.94247
▁ഖ	-7.94385
ണമെന്ന്	-7.94863
ത്തില	-7.95048
▁കാരണം	-7.95155
▁മറ്റ്	-7.95406
▁ജന	-7.95554
▁അറിയ	-7.9557
ിന	-7.95678
ുളള	-7.95809
സ്ഥ	-7.96083
▁പോ	-7.96194
ാക	-7.96226
ഖ	-7.96494
▁യാത്ര	-7.96505
▁മെ	-7.96568
▁കോഴിക്കോട്	-7.96682
െന്ന്	-7.96777
▁മാത്രം	-7.97091
▁ട്ര	-7.97207
റു	-7.9732
▁തന്റെ	-7.98035
▁ഒന്ന	-7.98088
▁ശക്തമായ	-7.98115
▁വേ	-7.98125
▁മാറ്റ	-7.98315
ങ്ങളിൽ	-7.98363
വെ	-7.98411
▁തല	-7.98447
▁ഇതുവരെ	-7.98452
നും	-7.98915
ുമ്പോള്‍	-7.98977
ങ്ങളെ	-7.99057
▁ചിത്ര	-7.9917
വ്	-7.99349
ുമാണ്	-7.99459
വേ	-7.99468
ിലൂടെ	-7.9951
▁സിനിമ	-7.99584
▁കി	-7.99742
ിനെതിരെ	-7.99772
▁അവസാന	-8.00287
രാ	-8.00533
ക്കുന്ന	-8.00615
▁ആവശ്യ	-8.00648
▁ചാ	-8.00663
ബ്	-8.00733
▁കൈ	-8.00944
▁ഇനി	-8.0128
▁പൂ	-8.01412
▁നൽകിയ	-8.01546
▁ആര്‍	-8.01667
▁കാല	-8.01884
െല്ലാം	-8.01966
▁റിപ്പോര്‍ട്ട്	-8.02097
▁ഷ	-8.02141
▁ദിവസ	-8.02464
▁ശതമാനം	-8.02592
വരെ	-8.02604
▁12	-8.03001
▁കഴിയ	-8.03087
ുന്നതിന്	-8.03143
▁11	-8.03173
▁വീണ്ടും	-8.03279
ദ്ധ	-8.03288
ധ	-8.03763
▁പോയ	-8.03902
ലാ	-8.0391
െന്നും	-8.03923
▁ഉണ്ടായ	-8.03958
▁ഇതോടെ	-8.0425
▁വിഭാഗ	-8.04406
▁കട	-8.04459
▁മാസ	-8.04466
ുമെന്നാണ്	-8.04637
▁നേതാവ്	-8.05042
മോ	-8.05122
ത്തിലാണ്	-8.05372
▁നിരവധി	-8.05444
▁ഓഫീസ	-8.05832
▁വോട്ട	-8.05856
▁പ്രധാന	-8.05973
ാക്ക	-8.06097
▁ദില്ലി	-8.06102
▁15	-8.06115
▁ദേശീയ	-8.06176
▁ആവശ്യപ്പെട്ട	-8.06223
1	-8.06248
ൃ	-8.06343
ിപ്പിച്ച	-8.06718
യു	-8.06885
00	-8.07095
▁ചര്‍ച്ച	-8.07193
▁ലക്ഷം	-8.07211
▁സംഘടന	-8.07312
▁ന്	-8.07362
▁നിന്നുള്ള	-8.07386
▁രാജ	-8.07409
ജ്	-8.07613
▁കാണ	-8.07855
▁പിന്നാലെ	-8.08066
▁വൈ	-8.08133
▁അവര്‍	-8.08254
▁ഇത്തവണ	-8.08287
▁വിവിധ	-8.08299
▁1	-8.08383
▁ഉള്ള	-8.08457
പ്പി	-8.08922
ലെ	-8.09109
/	-8.092
▁ലോക	-8.09732
▁ഫ	-8.09753
▁കാര്യ	-8.09845
▁വളരെ	-8.09934
ണമെന്നും	-8.103
▁ആയി	-8.10616
▁സംസ്ഥാനത്ത്	-8.10659
ില്ലെന്ന്	-8.10709
ധി	-8.1096
െന്ന	-8.11306
▁നൽക	-8.11374
▁അന്വേഷണ	-8.12242
▁ചെ	-8.12255
▁ചെയ്യുന്ന	-8.12305
▁ഞാന്‍	-8.12357
▁റി	-8.12442
സ്റ്റ്	-8.12698
▁വരുന്ന	-8.12856
ഫ്	-8.13029
▁ജില്ലയില്‍	-8.13034
▁തീ	-8.13073
ണ്ണ	-8.13457
▁ഡ	-8.13741
▁പിന്നീട്	-8.13784
ില്ലെന്നും	-8.1417
▁മാത്രമാണ്	-8.14249
െടുത്ത	-8.14503
▁പിണറായി	-8.14985
▁ഭാഗ	-8.15137
▁സംഘ	-8.15381
ൊക്കെ	-8.15612
▁7	-8.15885
▁നല്ല	-8.16071
ിനും	-8.16421
▁കര	-8.16469
▁വകുപ്പ്	-8.16571
▁ഇതിന്	-8.16718
▁വാഹന	-8.16952
▁അപേക്ഷ	-8.17163
▁കേസ്	-8.17213
നായ	-8.17416
▁തുടര്‍ന്ന്	-8.17678
ൊന്നും	-8.17702
ഇ	-8.18108
▁ഡോ	-8.18223
▁സ്ഥിരീകരിച്ച	-8.18561
▁തുടര	-8.18731
▁മത്സര	-8.18765
ങ്ങള്‍ക്ക്	-8.18829
▁എടുത്ത	-8.19125
▁ഉറപ്പ	-8.20019
▁അവരുടെ	-8.2008
്റെ	-8.20099
▁കമ്പനി	-8.20366
▁സാമ്പത്തിക	-8.20409
മാർ	-8.20622
ീയ	-8.20678
▁പ്രശ്	-8.20766
▁വാക്	-8.20838
▁രാഹുല്‍	-8.20884
ട്	-8.21134
ന്റ്	-8.21355
▁ചോദ്യം	-8.21479
▁അംഗ	-8.21626
▁പൊതു	-8.21914
▁ഷാ	-8.22009
▁വീഡിയോ	-8.22028
▁നേതൃത്വ	-8.22106
▁നടക്ക	-8.22196
▁2	-8.22307
▁ചെയ്തത്	-8.22463
▁ശ്രീ	-8.225
▁സിപിഎം	-8.2271
▁വ്യക്തി	-8.22933
മായിരുന്നു	-8.22985
രോ	-8.23174
7	-8.23353
അ	-8.23362
▁9	-8.2366
▁മികച്ച	-8.2395
ുകള	-8.24096
ടുക്ക	-8.24172
▁പോലെ	-8.24223
ാര	-8.24257
▁ഇവര്‍	-8.2431
ിച്ചത്	-8.24547
▁സം	-8.24577
▁പറഞ്ഞത്	-8.24634
പ്പെടുന്ന	-8.24674
▁കൊറോണ	-8.24785
ാണെന്ന്	-8.25256
▁സ്വദേശിനി	-8.25262
▁ഇങ്ങനെ	-8.25298
▁കൊച്ചി	-8.25479
ിരുന്നത്	-8.25696
മാര്‍	-8.25796
▁പരി	-8.25854
▁പിന്തുണ	-8.25968
▁സമീപ	-8.26005
▁നാല്	-8.26243
ോട്ട	-8.26271
മല്ല	-8.2635
ഹ്	-8.26437
▁സഖ്യ	-8.26621
▁എന്ത	-8.26675
ാസ്	-8.26698
▁കൊണ്ട	-8.26716
യ്യ	-8.27028
സാ	-8.27036
▁ജയ	-8.27221
▁നിന്ന	-8.27229
▁അഞ്ച്	-8.27348
ത്തിലേക്ക്	-8.27398
▁ലഭിക്ക	-8.27417
▁അന	-8.2744
▁അനു	-8.27674
▁8	-8.27698
ര്‍ത്ത	-8.27742
▁മറുപടി	-8.281
വരുടെ	-8.28314
▁നടത്തി	-8.28399
▁പേര	-8.28493
ഴ്	-8.28899
ത്തിലും	-8.28972
പ്പോൾ	-8.29347
▁സ്ത്രീ	-8.29452
▁സംഭവ	-8.29458
ച്ചു	-8.29711
▁വിവരം	-8.29791
▁മുതൽ	-8.29802
▁പക്ഷേ	-8.29851
ത്തിന	-8.29942
▁എത്ത	-8.29995
▁മരണ	-8.30236
▁"	-8.3038
▁മര	-8.30412
▁ആർ	-8.30445
▁24	-8.30577
▁വിമാന	-8.30609
▁എന്റെ	-8.30615
ക്കാ	-8.3062
▁പണം	-8.30672
▁14	-8.30674
▁ആയ	-8.30941
▁രാജ്യ	-8.31172
കള്‍ക്ക്	-8.31257
ുമെന്ന	-8.31331
▁വാങ്ങ	-8.31421
രെ	-8.31469
▁മഴ	-8.31596
ിക്	-8.31687
▁ക്ര	-8.31756
▁പ്രദേശ	-8.3183
▁പേർ	-8.31837
▁സമ	-8.31878
▁ഞാൻ	-8.31879
ങ്ങളാണ്	-8.31949
ുകളില്‍	-8.31973
▁പുറത്ത്	-8.3203
▁ബന്ധപ്പെട്ട	-8.32217
കളില്‍	-8.32262
▁അമ്മ	-8.32335
a	-8.32481
േയും	-8.32527
െന്നാണ്	-8.32677
▁പ്രസിഡന്റ്	-8.32714
▁വര്‍ഷ	-8.32753
▁തവണ	-8.32942
രുടെ	-8.33028
▁സ്ഥാനാര്‍ത്ഥി	-8.33036
▁തീരുമാനം	-8.33111
ാപ	-8.3312
▁പോലീസ	-8.33235
ോള	-8.33243
▁അപകട	-8.33295
"	-8.3335
▁സമയം	-8.33418
ാല	-8.33439
ിക്കാന്‍	-8.33449
മാന	-8.33453
▁രാവിലെ	-8.33798
▁കൂടുതൽ	-8.33848
▁നേടിയ	-8.34022
▁നടക്കുന്ന	-8.34138
മേ	-8.34158
▁തന്നെയാണ്	-8.34166
രായ	-8.34407
▁നീക്ക	-8.34479
▁രോഗ	-8.3451
▁സ്വീകരിക്ക	-8.34565
ിന്‍റെ	-8.34614
ഷ്യ	-8.34835
▁നേതാക്കള്‍	-8.34868
ിങ്	-8.35134
▁സ്വ	-8.35245
▁താ	-8.35359
ുകളുടെ	-8.35493
രിക്ക	-8.35498
▁പര	-8.36127
▁അധികാര	-8.36333
▁സീറ്റ്	-8.36481
▁വിവാദ	-8.36526
▁തു	-8.36532
േഷ്	-8.3654
ക്കോ	-8.36568
േണ്ടി	-8.36651
ഘ	-8.37005
▁റെ	-8.37235
ത്തോടെ	-8.37359
യോടെ	-8.37395
ിത	-8.37398
▁ബാ	-8.37857
▁പരിപാടി	-8.37873
▁പേര്‍ക്ക്	-8.38011
▁കണ്ണൂര്‍	-8.381
▁റിപ്പോർട്ട്	-8.38171
▁തെ	-8.38332
ായിരിക്കും	-8.38485
ിരിക്ക	-8.38574
തിനെ	-8.38692
▁ജില്ലയിലെ	-8.38772
ഖ്	-8.38846
▁ചികിത്സ	-8.38858
▁13	-8.3887
ിട്ടും	-8.39032
ുമോ	-8.39089
▁തോ	-8.39299
▁നിയമസഭാ	-8.39342
ബാ	-8.39362
▁വോട്ട്	-8.39369
▁കാര	-8.39419
കു	-8.3945
▁കണ്ടെത്ത	-8.39474
നോ	-8.39515
▁തി	-8.39601
▁കുട്ടി	-8.39848
▁ആശുപത്രി	-8.39903
▁ആകെ	-8.4006
▁എന്‍	-8.40085
ക്ട	-8.40144
ക്ര	-8.40262
▁ചി	-8.40489
▁ഭരണ	-8.40592
▁യ	-8.40788
ര്യ	-8.40865
▁മത്സരിക്ക	-8.40925
▁അന്വേഷണം	-8.40926
▁സൂചന	-8.40928
▁18	-8.4129
പ്പോ	-8.41303
ുവെന്നും	-8.41393
▁പ്രതിഷേധ	-8.4142
▁ആയിരുന്നു	-8.41421
▁കുറഞ്ഞ	-8.4159
ുമ്പോൾ	-8.41698
e	-8.42085
▁നേട്ട	-8.42107
രിയ	-8.42153
▁മറ്റൊരു	-8.42181
▁ആരംഭിച്ച	-8.42196
ഹാ	-8.42338
▁നടത്തുന്ന	-8.42405
▁ചർച്ച	-8.42407
▁കമ്മിറ്റി	-8.4264
▁എണ്ണം	-8.4265
മാര	-8.42736
മില്ല	-8.42904
ങ്ങൾക്ക്	-8.42941
▁പ്രതിരോധ	-8.4306
▁ഓരോ	-8.43099
െയും	-8.43219
▁ഹൈക്കോടതി	-8.43423
പോ	-8.43538
▁എന്നീ	-8.43784
▁നേതൃത്വം	-8.43961
കാല	-8.44058
ന്‍സ്	-8.44079
▁ബന്ധ	-8.44084
്‍ക്ക്	-8.44233
▁ലി	-8.44475
▁അങ്ങനെ	-8.44553
▁അവിടെ	-8.44554
ുന്നത	-8.4467
ക്കാണ്	-8.44742
ിനു	-8.44745
യര്‍	-8.44943
ുണ്ടായ	-8.45046
▁ഇരു	-8.45088
▁അവർ	-8.45114
പ്പെടുത്ത	-8.45311
െയ്	-8.45414
▁കുറ്റ	-8.45434
ണമെന്ന	-8.45436
▁നല്‍കി	-8.45488
ലോ	-8.45522
▁മുൻ	-8.4572
ന്നി	-8.458
!	-8.45999
ിട്ടുള്ളത്	-8.46161
▁സമയ	-8.46329
▁ബിഗ്	-8.46479
ത്യ	-8.46684
▁30	-8.46739
കൾക്ക്	-8.4684
▁ആലപ്പുഴ	-8.46907
േക്ക	-8.46913
▁ഇല്ല	-8.47126
▁വെച്ച	-8.47129
▁എനിക്ക്	-8.47267
▁25	-8.47275
േഴ്	-8.47298
ർത്ത	-8.47301
ജീ	-8.47302
▁ഏറെ	-8.4765
ട്ര	-8.47687
ശി	-8.4822
ഷി	-8.4836
െങ്കിൽ	-8.48433
▁ലെ	-8.48436
▁ഫോ	-8.48461
▁നേതാവ	-8.48604
ിട്ട്	-8.48871
20	-8.49053
ച്ച്	-8.49054
▁രണ്ടാം	-8.49061
കോ	-8.49165
▁മാധ്യമ	-8.49171
▁വർഷ	-8.49488
ിനോട്	-8.49681
▁നീ	-8.4971
േക്ക്	-8.4986
▁സീറ്റ	-8.49931
▁നിയമസഭ	-8.50048
▁മാറ്റി	-8.5005
▁പുറത്ത	-8.50054
▁ഇപ്പോൾ	-8.50065
ക്കായി	-8.50084
▁നെ	-8.50202
ലൈ	-8.50324
▁മുമ്പ്	-8.50383
▁കണക്ക	-8.50435
േഷ	-8.50482
കളാണ്	-8.5051
▁തര	-8.50615
ത്തും	-8.50631
ീകരണ	-8.50762
▁നിലവില്‍	-8.50762
്യം	-8.50782
▁നോക്ക	-8.50903
▁എത്ര	-8.50907
▁നടി	-8.50946
▁സര്‍ക്കാര	-8.51094
േറ്റ്	-8.51161
▁അറസ്റ്റ്	-8.51266
ിക്കുന്നത്	-8.51284
നാണ്	-8.51332
ടു	-8.5142
▁രണ്ടു	-8.51435
▁റോ	-8.51452
▁എടുക്ക	-8.51458
ാലും	-8.5147
▁പാലക്കാട്	-8.51555
ുമായ	-8.51603
▁കാര്യം	-8.51757
▁പൊ	-8.51766
▁സംസാരിക്ക	-8.51911
▁അതിന്	-8.51915
▁പങ്കെടുത്ത	-8.5194
▁വിട്ട	-8.51989
▁50	-8.52031
▁തീരുമാനിച്ച	-8.52178
▁രാജ്യങ്ങള	-8.52253
▁ശതമാന	-8.52301
ത്തിനും	-8.52315
▁എക്	-8.52385
▁മാത്രമല്ല	-8.52433
▁വരും	-8.52453
▁തീരുമാന	-8.52519
▁കോട്ടയം	-8.52599
▁താര	-8.52774
▁ഇത്തരം	-8.53269
ിരുന്നില്ല	-8.53438
▁വള	-8.53445
വര്‍ക്ക്	-8.53492
മുണ്ട്	-8.53525
▁ആശങ്ക	-8.53639
ഹി	-8.53864
▁എഫ്	-8.53931
▁ഉയര്‍ന്ന	-8.5395
ക്കുള്ള	-8.54114
▁രാ	-8.5413
െത്തിയ	-8.54357
▁സിംഗ്	-8.5462
▁താന്‍	-8.5474
▁അട	-8.54847
തിനാല്‍	-8.54997
▁പ്രതീക്ഷ	-8.55057
മാക്ക	-8.55092
റെ	-8.55106
▁എണ്ണ	-8.55117
യോഗ	-8.55173
തില്‍	-8.55181
▁ഇന്ത്യന്‍	-8.55368
യം	-8.55375
▁16	-8.55404
▁കേരളത്തില്‍	-8.55531
▁രാത്രി	-8.55563
രുത്	-8.55633
▁ലോക്	-8.55768
▁അമേരിക്ക	-8.558
േഷന്‍	-8.5583
▁വികസന	-8.55846
ൊന്ന	-8.56341
▁ബ്ര	-8.56388
▁കുറിച്ച്	-8.56396
▁ഒഴിവാക്ക	-8.56477
▁മാറ	-8.56738
▁യുഡിഎഫ്	-8.56761
▁ആദ്യം	-8.5678
▁സംഭവം	-8.56951
സ്ത	-8.56978
▁ഭാര്യ	-8.57071
▁എറണാകുളം	-8.57117
▁സ്വകാര്യ	-8.57196
ഷ്ട	-8.57241
േക്കും	-8.5727
▁കാര്യങ്ങള്‍	-8.57298
▁17	-8.57307
▁ഉണ്ടാക	-8.57427
▁സംശയ	-8.57442
▁സൗദി	-8.57452
▁അനുമതി	-8.57634
ദി	-8.57737
▁വര്‍ഷം	-8.57757
▁ജീവിത	-8.57824
▁ചൈന	-8.5801
▁സ്വീകരിച്ച	-8.58023
ട്ടെ	-8.58052
ഠ	-8.58129
മെ	-8.58222
▁സംബന്ധിച്ച്	-8.58286
വീ	-8.58321
▁കോൺഗ്രസ	-8.58506
▁മേഖല	-8.58555
നീ	-8.58592
▁മണിക്കൂറ	-8.58605
രീ	-8.58798
▁രാജ്യത്ത്	-8.58815
▁നിയന്ത്രണ	-8.58869
▁പങ്ക	-8.58899
▁ജീവനക്കാര	-8.58903
തര	-8.59111
▁സമിതി	-8.59159
▁ജില്ല	-8.59325
▁കേസ	-8.59391
ലും	-8.59407
ഷന്‍	-8.59425
ജെ	-8.59442
▁നേട	-8.59505
▁ഗോ	-8.59952
▁നട	-8.60089
▁എല്‍	-8.60217
▁ഇതില്‍	-8.60234
▁തീര	-8.60316
▁നിലപാട	-8.60475
▁ലോ	-8.60534
▁മറ്റ	-8.60675
▁സീറ്റുകള	-8.60713
▁റാ	-8.60904
▁ആരോപണ	-8.60942
▁,	-8.611
ിട്ടുള്ള	-8.61144
▁പേരാണ്	-8.61233
▁മാസം	-8.61269
▁മത	-8.61329
▁അന്ന്	-8.61492
▁നിലപാട്	-8.61521
▁കൊല്ലം	-8.61728
▁പറഞ്ഞിരുന്നു	-8.61794
യോട്	-8.61809
▁എൻ	-8.61873
▁സാധിച്ച	-8.61906
000	-8.61945
▁കേസില്‍	-8.61969
ക്കാർ	-8.6217
▁സമൂഹ	-8.62201
▁കോണ്‍ഗ്രസ	-8.6245
▁സമര	-8.62519
▁ഷോ	-8.62576
▁ചെയ്തിരുന്നു	-8.62633
▁സന്തോഷ	-8.62676
എഫ്	-8.62734
▁മറ്റു	-8.62736
നിയ	-8.62869
േണ്ടത്	-8.62874
▁പിടിച്ച	-8.62878
▁ഉപ	-8.62891
▁പറ്റ	-8.62912
േഷൻ	-8.62917
▁അസ	-8.62919
േരി	-8.62954
▁പൊലീസ	-8.63061
▁ദു	-8.6317
ദ്യ	-8.63207
▁നിർ	-8.63467
യാക	-8.63492
▁മെഡിക്കല്‍	-8.63565
കളിൽ	-8.63568
▁സർക്കാര	-8.63594
▁അഞ്ച	-8.63644
▁രണ്ട	-8.63722
▁രംഗത്ത്	-8.63885
ല്യ	-8.63907
▁അനുവദിക്ക	-8.63909
ുള്ളത്	-8.63912
▁പരീക്ഷ	-8.63919
ാണോ	-8.641
▁ന്യൂ	-8.64215
▁ഗ്ര	-8.64356
ുകളിൽ	-8.64372
▁പ്രശ്ന	-8.64423
▁വിദ്യാഭ്യാസ	-8.64461
ന്ത്	-8.6454
▁വിലയിരുത്ത	-8.64752
▁കാരണ	-8.64793
▁അനുകൂല	-8.65087
ക്ത	-8.65169
▁ദിന	-8.65237
▁പ്രതിസന്ധി	-8.65288
▁നോ	-8.6552
▁പത്തനംതിട്ട	-8.65576
ിരിക്കുന്ന	-8.65632
▁വിവാഹ	-8.65728
▁ഹാ	-8.65844
▁വൈക	-8.65871
▁കൂടാതെ	-8.65959
▁അടി	-8.66108
▁ബന്ധപ്പെട്ട്	-8.6624
▁നീക്കം	-8.6637
▁പ്രവര്‍ത്തന	-8.66398
▁നമ്മുടെ	-8.6642
▁അഭിപ്രായ	-8.66424
▁ശ്രമിച്ച	-8.6662
▁വിദേശ	-8.66647
▁ഘട്ട	-8.6671
ലീ	-8.66712
ോടെ	-8.66939
▁ഇന്‍	-8.67055
ന്‍സ	-8.67167
വിട	-8.67272
വ്വ	-8.67289
▁അദ്ദേഹത്തിന്റെ	-8.67298
▁കേരളത്തിലെ	-8.67325
▁ൽ	-8.67342
മീ	-8.67349
▁റഷ്യ	-8.67362
യർ	-8.6741
▁കിട്ട	-8.67428
t	-8.67485
▁നഗര	-8.67495
▁തിരിച്ചടി	-8.67541
▁കരുത	-8.67659
യാള	-8.67837
▁ശ്രമ	-8.67861
▁പ്ല	-8.67868
▁ല്‍	-8.67955
▁അതുകൊണ്ട്	-8.68017
▁വേണ്ട	-8.6805
▁സഹ	-8.68055
▁പോസ്റ്റ	-8.68147
▁സ്ഥാപന	-8.68392
▁മണി	-8.68557
ാക്കി	-8.68618
▁യുവതി	-8.6864
▁ബാധിച്ച	-8.68692
▁ഇക്കാര്യം	-8.68744
▁അല	-8.68789
▁തെളിവ	-8.68853
▁ഇടപെട	-8.68993
▁സമയത്ത്	-8.69062
ക്കാല	-8.69095
ത്വ	-8.69128
ആര്‍	-8.69244
▁വ്യക്തമാക്കുന്ന	-8.69309
ിക്കും	-8.69343
▁ധ	-8.6936
സ്ഥാന	-8.69436
▁സ്വന്തം	-8.69506
െങ്കില്‍	-8.69516
▁മരിച്ച	-8.69576
പരമായ	-8.6971
▁സംഘം	-8.69719
▁ഭാഗമായി	-8.69859
▁വീട	-8.69875
ീന	-8.69981
▁സുരേഷ്	-8.70051
▁ആവശ്യം	-8.70068
▁ശ്രദ്ധ	-8.70093
ക്കട	-8.70493
▁തദ്ദേശ	-8.7053
▁ചേര	-8.70538
▁മനുഷ്യ	-8.70604
▁അനുഭവ	-8.7062
▁പ്രകാരം	-8.70727
▁സമ്മാന	-8.70754
▁രീതി	-8.70889
ഗ്ര	-8.71087
ിക്കാൻ	-8.71097
ുവെന്ന്	-8.71114
കം	-8.71226
▁സ്റ്റ	-8.71439
▁കടുത്ത	-8.71461
ഒ	-8.71497
o	-8.71566
▁സ്ഥാനാർത്ഥി	-8.71566
ത്തിലൂടെ	-8.71753
ോളം	-8.71795
▁സ്റ്റാ	-8.71848
കാ	-8.71926
▁പങ്കെടുക്ക	-8.71967
െത്തി	-8.72104
ാളി	-8.72129
▁ഉണ്ടാവ	-8.72165
▁പുന	-8.72172
▁200	-8.72343
ഫി	-8.72387
▁കുഞ്ഞ	-8.72408
▁മാത്രമേ	-8.72414
തെന്നാണ്	-8.72471
ത്തിലുള്ള	-8.72489
തിര	-8.72539
▁അതിന	-8.72653
▁വീ	-8.72681
ായിരുന്ന	-8.72704
▁ഇടുക്കി	-8.72766
▁ദി	-8.72963
▁ഫാ	-8.72973
▁പേരെ	-8.73043
▁നരേന്ദ്ര	-8.73065
▁ഫലം	-8.73079
▁പോയി	-8.73117
▁ചുമതല	-8.7314
▁ഭീഷണി	-8.73216
▁ക്ല	-8.73218
ാണെന്നും	-8.73258
ങ്	-8.73421
ഴി	-8.73504
▁തനിക്ക്	-8.73598
▁ആറ്	-8.7388
▁പട	-8.73943
▁ഓഫ്	-8.74028
▁രാജ്യത്തെ	-8.74187
ണ്ട്	-8.74264
ിനുള്ള	-8.74275
▁മുന്നണി	-8.74359
▁എങ്ങനെ	-8.7436
▁ഉണ്ട്	-8.74454
▁ചെയ്യുന്നത്	-8.74465
ജന	-8.74547
ത്തിനായി	-8.7459
തിന്റെ	-8.74651
▁പ്രതികരണം	-8.74665
നേ	-8.74735
▁സൗകര്യ	-8.74889
▁ഗു	-8.74967
▁അടക്കം	-8.75031
യെന്ന്	-8.75045
▁ശിവ	-8.75308
ക്കാന്‍	-8.75328
▁മൂ	-8.75341
ംബ	-8.75369
▁മലപ്പുറം	-8.75433
▁ഉയർന്ന	-8.75588
▁കണ്ണ	-8.75655
▁സംബന്ധിച്ച	-8.75971
▁ന്ന	-8.75972
▁ചോദ്യ	-8.76
▁ചരിത്ര	-8.76054
വരാണ്	-8.76061
ിയിരുന്നു	-8.76185
▁സാഹചര്യത്തില്‍	-8.76228
▁വീണ	-8.76243
▁അറിയിച്ച	-8.76315
▁സാധിക്ക	-8.76318
▁ഒറ്റ	-8.76439
▁പ്രായ	-8.76511
▁പേരും	-8.76725
▁ലഭിക്കും	-8.76809
വ്യ	-8.76877
▁നഷ്ട	-8.76884
ാന്ത	-8.76935
ുണ്ടായിരുന്നു	-8.76988
ാണെന്ന	-8.7705
▁ഇന്നലെ	-8.77102
▁കുറവ	-8.77117
▁യുഎഇ	-8.77227
r	-8.77306
▁ഇന്ന	-8.7734
മുണ്ടായ	-8.77341
▁എംപി	-8.77351
▁ബോ	-8.77351
▁സോഷ്യല്‍	-8.77385
▁മുംബൈ	-8.77465
കരിക്ക	-8.77472
▁അക്രമ	-8.77683
ത്തിയ	-8.77723
▁മുന്നോട്ട്	-8.78018
▁ചടങ്ങ	-8.78167
▁സാഹചര്യ	-8.78264
ക്കര	-8.78385
▁ആശുപത്രിയില്‍	-8.78432
▁ആള	-8.78524
▁വെള്ള	-8.78589
ടുത്ത	-8.78739
പെ	-8.78757
,000	-8.7881
ൻസ്	-8.78827
▁ചെയ്ത്	-8.78856
ന്ന്	-8.78879
▁21	-8.78879
ച്ചി	-8.78902
▁ചെറിയ	-8.78903
ണ്ഡ	-8.78927
▁ലക്ഷ	-8.78971
ദ്ര	-8.79033
▁ധന	-8.79207
▁കള	-8.7921
▁ബാല	-8.79357
മാണെന്ന്	-8.79468
▁ഭാ	-8.79473
▁തെറ്റ	-8.79486
▁വിധി	-8.79671
▁ചേര്‍ന്ന	-8.79672
▁പട്ടിക	-8.79709
ക്കാര്‍	-8.79732
▁22	-8.79898
ുന്നില്ല	-8.79979
▁പ്രവര്‍ത്തിക്ക	-8.80036
30	-8.8015
ത്തേക്ക്	-8.80163
സിന്റെ	-8.80257
▁മീഡിയ	-8.80305
▁കോളേജ	-8.80317
▁സോ	-8.80318
മാക	-8.8038
റില്‍	-8.80504
▁മാത്രമ	-8.80515
▁അതി	-8.8054
ഭ്യ	-8.80794
▁മുഹമ്മദ്	-8.80833
▁എന്നത്	-8.80869
▁അതേ	-8.80884
▁സഹോദര	-8.80997
▁40	-8.81044
▁പേര്	-8.81168
ികള്‍	-8.81169
▁ള	-8.81269
ഭാ	-8.81336
ന്‍ഡ	-8.81343
▁പറയുന്ന	-8.81399
യ്ക്കും	-8.81482
▁തുടർന്ന്	-8.81663
▁രാശി	-8.81762
▁നടപ്പാക്ക	-8.81903
നില്‍	-8.81963
വരും	-8.81981
▁കണ്ടെത്തിയ	-8.82015
▁വിജയം	-8.8203
ടിച്ച	-8.82034
▁അടിസ്ഥാന	-8.82113
▁തള്ളി	-8.82191
▁മലയാളി	-8.82216
ാവ്	-8.82301
▁ചന്ദ്ര	-8.82323
▁വിജയിച്ച	-8.82502
▁വ്യക്തമാക്കിയ	-8.82688
▁കൊടുക്ക	-8.82711
▁സംസ്ഥാനത്തെ	-8.8272
▁എതിര	-8.82778
മന	-8.8294
i	-8.82963
തായും	-8.82984
▁കേസുകള	-8.83205
▁ആക	-8.83492
▁കുറിച്ച	-8.83561
ടെ	-8.83738
ുണ്ടെന്നും	-8.83779
ങ്ങളിലും	-8.83794
▁വന്‍	-8.83934
▁ദേവ	-8.84061
പക്ഷ	-8.84072
▁രംഗത്ത	-8.84158
ിക്കുന്നു	-8.84223
▁വൈറസ്	-8.84323
മെന്റ്	-8.84402
▁വെളിപ്പെടുത്ത	-8.84407
▁മുമ്പ	-8.84419
▁കാര്യങ്ങള	-8.84464
▁ശക്തി	-8.84486
ത്തിനുള്ള	-8.84517
▁ബിജെപിയുടെ	-8.84658
▁നായ	-8.84701
▁സിപിഎമ്മ	-8.84744
▁നടത്തിയത്	-8.84838
▁ടീമ	-8.84869
▁മാറി	-8.84944
ോട	-8.85039
ദ്ദ	-8.85052
വർക്ക്	-8.85117
▁ഹോ	-8.85156
തീ	-8.85172
▁കേരളം	-8.85175
▁നാട	-8.85175
▁റിപ്പോര്‍ട്ട	-8.85287
n	-8.85325
▁കൊടുത്ത	-8.85359
▁മടങ്ങ	-8.85387
ക്കൊപ്പം	-8.8543
▁ഇവ	-8.85432
▁ഗോപി	-8.85483
മാണെന്നും	-8.85543
▁പാലിക്ക	-8.85614
▁സത്യ	-8.85771
▁സമ്പര്‍ക്ക	-8.86025
ക്കിട	-8.86132
▁ലീഗ്	-8.86227
▁നില്‍ക്ക	-8.86333
▁കഴിയുന്ന	-8.86573
▁വയസ	-8.86647
▁ഒന്നും	-8.86657
▁ചെറു	-8.86678
ാനായി	-8.8688
സര്‍	-8.86921
▁അവകാശ	-8.86932
▁ആരോപണം	-8.8695
▁വയനാട്	-8.86965
▁പ്രസ്താവന	-8.86975
▁എത്തി	-8.86978
ആ	-8.87005
▁വകുപ്പ	-8.87013
▁വെച്ച്	-8.87032
ണ്ടി	-8.8706
▁അധ്യക്ഷ	-8.87101
▁ഏക	-8.87193
ുണ്ടെന്ന്	-8.87235
▁വിഭാഗം	-8.8726
▁റൂ	-8.87271
ോടൊപ്പം	-8.87344
▁ഭൂമി	-8.87416
▁പരിഗണിക്ക	-8.87497
യിലുള്ള	-8.87644
▁വാര്‍ത്ത	-8.87667
യുണ്ട്	-8.87688
▁തടയ	-8.87694
▁വാർത്ത	-8.87708
▁ബെ	-8.87731
▁പ്രിയങ്ക	-8.87761
▁തൃശൂര്‍	-8.87811
ങ്ങളില	-8.87854
▁സീ	-8.87898
▁മുഖ	-8.87899
▁23	-8.88175
▁എന്നതാണ്	-8.88312
▁വരുത്ത	-8.88451
▁താമസ	-8.88473
ധന	-8.88529
▁വീട്ടില്‍	-8.88584
▁ആവശ്യപ്പെട്ടു	-8.88609
▁ഭയ	-8.88632
▁മല	-8.88633
ദേശ	-8.88664
▁ആക്രമണ	-8.88688
ിൻ്റെ	-8.88888
▁അയച്ച	-8.89001
റിന്റെ	-8.89038
▁സ്ഥിതി	-8.89064
▁ചെയ്യും	-8.89102
▁രാജി	-8.8911
റും	-8.89195
▁ബോസ്	-8.8932
▁വിട	-8.89336
ിലുള്ള	-8.89395
രിച്ച	-8.89409
▁ക്ഷ	-8.89427
▁സ്ഥലത്ത	-8.89525
▁കൂ	-8.89551
ാവുന്ന	-8.89588
ട്ടു	-8.89676
തല	-8.89702
▁നേരിട്ട	-8.89744
കരിച്ച	-8.89762
▁ചെന്നിത്തല	-8.89791
▁ആരംഭിക്ക	-8.8988
▁ചു	-8.89896
ാലി	-8.89956
▁പഞ്ചാബ	-8.8997
▁സ്വര്‍ണ	-8.90071
▁എന്നായിരുന്നു	-8.90128
▁പാല	-8.90246
▁ഒരാള	-8.90309
▁സംഭവിച്ച	-8.90345
െക്കുറിച്ച്	-8.90411
▁പിടിക്ക	-8.90604
s	-8.90687
▁പെണ്‍കുട്ടി	-8.90687
പ്പു	-8.90856
▁നല്‍കുന്ന	-8.90893
▁വിശ്വാസ	-8.91047
ടുപ്പ	-8.91056
▁മൂന്ന	-8.91216
ിക്കുകയും	-8.91227
ാള	-8.9139
▁പദവി	-8.91412
ക്രമ	-8.91665
ര്‍ച്ച	-8.9167
ുന്നതിന	-8.91678
▁സജീവ	-8.91685
▁അല്ല	-8.91734
ുകൊണ്ട	-8.91844
▁നിക്ഷേപ	-8.9188
▁എല്ലാം	-8.91885
▁തുടങ്ങി	-8.91925
▁ടെ	-8.91939
▁ഇന്ത്യൻ	-8.92136
▁വിമര്‍ശന	-8.92139
▁ജനറല്‍	-8.92141
ഭരണ	-8.9224
▁എന്ത്	-8.92253
▁മുന്നില്‍	-8.92338
▁സഭ	-8.92353
▁തെരഞ്ഞെടുപ്പ	-8.92371
ത്തോളം	-8.9251
▁യുഡിഎഫ	-8.92557
▁ഫി	-8.92593
ീസ്	-8.92598
▁പഠന	-8.92692
▁അപ	-8.92694
▁ഊ	-8.92883
▁ഉണ്ടായിരുന്ന	-8.93118
▁മൊഴി	-8.9319
▁സ്റ്റേഷന	-8.93213
▁കുമാര്‍	-8.93262
▁മലയാള	-8.93554
▁സൂര്യ	-8.93612
▁ഉത്തര	-8.93641
▁പ്രചാരണ	-8.93708
▁സ്വാധീന	-8.93797
▁പ്രകടന	-8.938
▁യോഗ	-8.93852
വെച്ച	-8.93882
മാരുടെ	-8.93885
ുന്നതാണ്	-8.93901
▁അന്ത	-8.94124
▁നിര്‍	-8.94199
▁എംഎല്‍എ	-8.94242
▁എന്നെ	-8.9429
▁അമിത്	-8.94476
▁പരിശോധിക്ക	-8.94508
പൂര്‍	-8.94609
ാകും	-8.94658
▁മണ്ഡല	-8.94663
തിന	-8.94731
▁ഇതേ	-8.94919
ുകളാണ്	-8.94958
▁നിങ്ങളുടെ	-8.95146
റോ	-8.95172
▁യോഗം	-8.95199
പ്പിച്ച	-8.9521
▁കിട്ടിയ	-8.95214
ഫോ	-8.95237
▁സമ്പർക്കം	-8.95323
▁ഇതിന്റെ	-8.95427
വില	-8.95566
ര്‍ന്ന	-8.95647
യെന്ന	-8.9567
▁മുസ്ലിം	-8.95672
▁സൈനിക	-8.95675
കരമായ	-8.95705
▁ആഭ്യന്തര	-8.95767
▁പക	-8.95992
▁മത്സരിച്ച	-8.96068
മാറ്റ	-8.96076
▁ജാ	-8.96157
വാദ	-8.96223
▁ഞങ്ങള്‍	-8.96306
▁യോഗ്യത	-8.9634
ാതിരിക്ക	-8.96356
പ്പെടുന്നത്	-8.96362
▁സൈ	-8.96371
ഷന	-8.96597
▁പരിശോധിച്ച	-8.96623
▁സിന്‍	-8.96627
▁കടന്ന	-8.96714
ോടും	-8.96907
സ്സ	-8.96987
▁ഉന്നയിച്ച	-8.97006
▁ബാബു	-8.97064
▁കാലാവസ്ഥ	-8.97122
▁പണ	-8.97217
▁തിര	-8.9726
ാക്കിയ	-8.97322
▁സഹായ	-8.97336
▁ആറ	-8.97338
▁മീ	-8.97378
▁ചേർന്ന	-8.97401
▁മതി	-8.9743
▁അതിന്റെ	-8.97503
▁കൊലപാതക	-8.97585
▁മാറിയ	-8.97615
▁ഫ്ര	-8.97679
▁പോകുന്ന	-8.97712
▁പഞ്ചായത്ത്	-8.97754
▁സമ്മേളന	-8.97785
▁ഇതു	-8.97895
ർച്ച	-8.97955
ഴുത	-8.98019
തിനാൽ	-8.98152
▁നവ	-8.98244
▁കൂടിയ	-8.98276
ിനൊപ്പം	-8.98286
▁ഗ്രാമ	-8.98511
▁താഴെ	-8.98517
▁നിര	-8.98656
▁ഉള്ളത്	-8.98796
▁സേവന	-8.98809
▁സ്ഥിരീകരിച്ചത്	-8.98906
▁ലാ	-8.9894
▁പ്രവര്‍ത്തകര്‍	-8.98977
നാട്	-8.99045
യിലൂടെ	-8.99108
▁മഹാ	-8.99231
തോടെയാണ്	-8.99338
▁ക്ഷേത്ര	-8.99434
▁റോഡ	-8.99499
▁ലഭിക്കുന്ന	-8.99507
▁നയ	-8.9958
സീ	-8.99665
ക്കൊണ്ട	-8.99711
▁നേതാക്കൾ	-8.99729
▁തുക	-8.9976
▁നടന്നത്	-8.99794
ലക്ഷ	-8.99825
യറ	-8.99852
▁സുരക്ഷ	-8.99903
ഷൻ	-8.99917
▁തോമസ്	-9.00096
▁നിർദ്ദേശ	-9.00124
കാരി	-9.00139
▁ചോദിച്ച	-9.00159
▁ഉറപ്പാക്ക	-9.00255
▁ഇവരുടെ	-9.00275
▁വ്യാജ	-9.00318
▁യുപി	-9.00376
▁തമിഴ്	-9.00481
▁വിട്ടു	-9.00609
▁ഫല	-9.00651
▁ചെലവ	-9.00653
▁28	-9.0067
▁ചെയ്യാന്‍	-9.00688
▁നാട്ടില	-9.00745
▁അവസ്ഥ	-9.0078
നിര	-9.00787
നിന്ന	-9.00803
▁പോരാട്ട	-9.00829
▁ഇവർ	-9.00832
▁ജനാധിപത്യ	-9.01023
യില്ല	-9.01077
യുമായ	-9.01124
▁27	-9.0114
ള്ളി	-9.01159
▁ഹൈ	-9.01165
▁ഫ്	-9.01269
▁ചേ	-9.01305
▁അനുവദിച്ച	-9.01318
▁ഉയര്‍ത്ത	-9.01342
▁ഇപ്പോഴും	-9.01377
ില്ലെന്ന	-9.01566
▁ശേഷമാണ്	-9.01645
▁ജീവന	-9.01672
▁ഷി	-9.01771
▁നേതാക്കള	-9.01893
▁പുതു	-9.01934
▁ലഭിച്ചത്	-9.02157
▁എന്നിവര്‍	-9.02188
▁മഹാരാഷ്ട്ര	-9.02234
▁26	-9.02306
ത്തിനു	-9.02332
▁ഉണ്ടാക്ക	-9.02544
ല്ലാ	-9.02583
▁കൂടെ	-9.02601
▁ചോ	-9.02685
▁സാധാരണ	-9.02692
▁മാണി	-9.02749
▁റ്റ	-9.02807
▁അവരെ	-9.02831
ങ്ങി	-9.02873
▁സര്‍ക്കാരിന്റെ	-9.0288
▁ഗ്രൂപ്പ	-9.02882
▁സംസാരിച്ച	-9.02902
▁അര	-9.02918
▁അടക്കമുള്ള	-9.02921
▁കേട്ട	-9.03056
ാട്ട	-9.03063
▁വിരുദ്ധ	-9.03119
ുമായിരുന്നു	-9.03281
▁മദ്യ	-9.03366
ങ്ങിയ	-9.03426
ഞ്ഞു	-9.03547
▁മാനേജ	-9.03686
▁നേടി	-9.03784
മല	-9.0379
േശ	-9.03808
▁കേരളത്തിൽ	-9.0382
▁താരം	-9.04
▁നിരക്ക്	-9.04047
▁വർഷം	-9.04084
ുന്നതിനായി	-9.0414
▁ഷെ	-9.04193
ക്കേ	-9.04223
▁പേ	-9.04374
സമ	-9.04417
▁നേരെ	-9.04428
▁വെടി	-9.04458
▁ജോസ്	-9.04618
▁നിരീക്ഷണ	-9.04664
▁നിരീക്ഷണത്തില	-9.04695
▁കോണ്‍ഗ്രസിന്	-9.04748
▁കേന്ദ്രം	-9.04831
ുമുള്ള	-9.04884
▁സ്വയം	-9.04943
▁സംവിധാന	-9.04945
▁ചിത്രം	-9.05034
ചാര	-9.05046
പരി	-9.05152
▁വരുമാന	-9.052
▁പുറത്തു	-9.05204
യുടെയും	-9.05224
▁എല്ലാവരും	-9.05288
▁ജാഗ്രത	-9.05303
ാനി	-9.05345
▁നേരിട	-9.054
▁ക്യാമ്പ	-9.05491
▁കോണ്‍ഗ്രസിന്റെ	-9.05547
▁എത്തിച്ച	-9.05597
▁ടോ	-9.05656
▁ഫോണ	-9.05709
▁പ്രതീക്ഷിക്ക	-9.05827
▁പറഞ്ഞ്	-9.05856
▁മമത	-9.05928
▁നേരിട്ട്	-9.05942
▁പ്രവർത്തന	-9.05961
▁യുവാവ	-9.06162
▁കള്ള	-9.06221
▁ഞങ്ങൾ	-9.06254
ല്ലേ	-9.06278
▁അര്‍	-9.06384
▁നിന്നാണ്	-9.06534
▁ഹിന്ദു	-9.06574
യല്ല	-9.06609
പ്പുറ	-9.06629
ജ്ഞ	-9.06638
▁ബു	-9.06715
▁ഇന്ത്യയുടെ	-9.0673
‍	-9.068
▁ബോധ	-9.06864
▁യി	-9.06966
▁സഭാ	-9.07101
▁വന്നത്	-9.07143
▁ഔദ്യോഗിക	-9.07196
▁വ്യാപന	-9.07231
രാജ	-9.07321
▁ഇൻ	-9.07325
▁ഡെ	-9.07449
▁സുപ്രീം	-9.07513
▁ആഘോഷ	-9.07625
▁ശക്ത	-9.07721
▁രാഹുല	-9.07769
▁കൊല്ലപ്പെട്ട	-9.07785
▁യുവ	-9.07803
▁സാധിക്കും	-9.07868
▁കൊണ്ടുവര	-9.07926
പ്പാട	-9.07941
▁മണ്ഡലങ്ങള	-9.07953
▁ഇനിയും	-9.08101
▁രംഗത്തെത്തിയ	-9.08102
▁ഇവരെ	-9.08124
ണമെന്നാണ്	-9.08157
▁സ്ഥാപനങ്ങള	-9.08161
▁പ്രവർത്തിക്ക	-9.08283
ാരി	-9.08292
▁ലീഗ	-9.08338
▁നല്‍കിയത്	-9.08468
ശ്ശേരി	-9.08479
ജ്ജ	-9.08481
▁നാളെ	-9.08492
▁പോസ്റ്റ്	-9.08509
▁നൽകി	-9.08512
▁പ്രമുഖ	-9.08584
രാജ്	-9.08592
▁പണി	-9.08597
▁1,	-9.08598
▁സൗ	-9.0862
▁ചൂണ്ടിക്കാട്ടി	-9.08707
നായി	-9.08846
▁വിളിച്ച	-9.08861
▁അവസര	-9.08924
▁മെയ്	-9.08994
▁ഹെ	-9.08997
▁വെല്ലുവിളി	-9.09019
▁കാലത്ത്	-9.09019
▁ചാണ്ടി	-9.09066
▁നേര	-9.09115
▁കര്‍ഷക	-9.09169
▁കേ	-9.09247
▁നികുതി	-9.09344
▁ജനങ്ങള്‍	-9.09365
ുണ്ടാക	-9.09549
▁ഇയാള്‍	-9.09564
ത്വം	-9.09568
▁കല	-9.09606
▁പഞ്ചായത്ത	-9.09639
▁ഇടതുപക്ഷ	-9.0967
കാര്യ	-9.09747
ക്കുന്നത്	-9.09782
▁ഏഴ്	-9.09795
▁പോവ	-9.09816
മാണ	-9.09856
ക്കൂട്ട	-9.09935
ുകൊണ്ട്	-9.10044
പു	-9.10117
▁രക്ഷ	-9.10173
ദാ	-9.1031
▁കുറിച്ചു	-9.10375
ഗോ	-9.10488
എല്‍	-9.10504
▁മൂന്നാം	-9.10574
വുമ	-9.1061
▁ലക്ഷ്യം	-9.10702
▁ഭാഗ്യ	-9.10793
▁മുറി	-9.1083
▁നിങ്ങൾ	-9.10983
ാദി	-9.11005
▁രൂപയാണ്	-9.11041
▁ബംഗാള	-9.11209
▁എന്നിവര	-9.1122
▁ഡ്രൈവ	-9.11237
▁2019	-9.11339
▁ബാധ	-9.11363
▁തങ്ങളുടെ	-9.11406
▁ബിജെപിക്ക്	-9.11415
▁ജോസഫ്	-9.11426
ുടേയും	-9.11436
▁തിരുവനന്തപുരത്ത	-9.11649
▁കണ്ണൂർ	-9.11707
▁ഉദ്യോഗസ്ഥര	-9.11832
പ്രവര്‍ത്തക	-9.11868
യെന്നും	-9.11981
പുര	-9.11987
▁വേണം	-9.12078
പ്പോഴ	-9.1208
▁വ്യക്ത	-9.12116
▁ഇഷ്ട	-9.12117
▁പിസി	-9.12166
▁വന്നു	-9.12209
▁നിലവിൽ	-9.12211
▁ജോര്‍ജ്	-9.12222
െതിരെ	-9.12408
▁ഉപയോഗിക്ക	-9.12503
▁ആരും	-9.12575
ില്ലെന്നാണ്	-9.12576
▁ഉന്നത	-9.12661
ിലേക്കുള്ള	-9.12663
ധ്യ	-9.12836
▁ഗുജറാത്ത	-9.12878
▁രാഹുൽ	-9.12878
പ്പെടുത്തിയ	-9.12963
ർമ്മ	-9.1304
▁ഉപയോഗിച്ച	-9.13107
എന്‍	-9.13163
▁ബാങ്ക	-9.13332
▁ഒന്നാം	-9.13352
▁സിറ്റി	-9.13379
▁കേസിൽ	-9.13472
ഗാ	-9.13476
▁മെഡിക്കൽ	-9.13555
▁എത്തിയത്	-9.13609
▁നൽകുന്ന	-9.13828
ില്ലാത്ത	-9.13833
▁ഞെട്ട	-9.13895
▁ആരോപിച്ചു	-9.13899
▁പ്രതിഷേധം	-9.13926
▁വിഷയ	-9.13936
▁ഇറങ്ങ	-9.1395
▁അഭി	-9.14022
50	-9.14049
ബു	-9.14107
▁പകരം	-9.14148
▁കൂട	-9.14191
▁ഡല്‍ഹി	-9.14579
▁നഗരസഭ	-9.14582
ോണ്‍	-9.14596
പുരം	-9.14704
ത്തോട്	-9.14791
▁ഗുണ	-9.14883
▁പേരില്‍	-9.14971
▁കൃഷ്ണ	-9.14972
▁കനത്ത	-9.14978
▁നിര്‍ദ്ദേശ	-9.15037
വാസ	-9.15086
▁സ്പ	-9.15098
ന്ധ	-9.15209
▁ബാക്കി	-9.15231
▁മുന്നറിയിപ്പ്	-9.15232
▁വരിക	-9.15239
ുന്നതും	-9.15281
▁ഉയര	-9.15317
▁വയസ്സ	-9.15389
ിംഗ	-9.15466
c	-9.15497
▁രമേശ്	-9.15498
▁സ്ഥാനം	-9.15533
▁ഇവര	-9.15654
ആർ	-9.15737
▁സേന	-9.15786
നില	-9.15845
ാണെന്നാണ്	-9.15913
െന്നായിരുന്നു	-9.15996
▁കുറച്ച്	-9.16063
%	-9.16076
▁യുദ്ധ	-9.16096
ുണ്ടായിരുന്ന	-9.16102
▁വാദ	-9.16151
▁ആളുകള്‍	-9.16181
▁പ്രചരണ	-9.16193
▁മുസ്ലീം	-9.16309
ഗ്രാ	-9.16481
▁31	-9.16635
ിനാണ്	-9.16701
▁മനസ്സ	-9.16755
▁അധ്യക്ഷന്‍	-9.16793
ഡോ	-9.1684
വച്ച	-9.16883
ത്തിനെതിരെ	-9.16946
▁ഇദ്ദേഹ	-9.17009
സില്‍	-9.17077
▁നടക്കുന്നത്	-9.17103
▁ഒര	-9.17117
▁ബസ്	-9.1715
കുമാര്‍	-9.17161
മെന്ന്	-9.17217
▁അഭിമുഖ	-9.17252
▁എട്ട്	-9.1731
▁തിരഞ്ഞെടുപ്പിൽ	-9.17335
ങ്ങളിലെ	-9.17434
▁അവസരം	-9.1747
▁പിടികൂട	-9.17534
▁എന്നിവിടങ്ങളില	-9.17613
മാരെ	-9.1765
ുമുണ്ട്	-9.1767
യാണെന്ന്	-9.17704
▁സ്ഥിര	-9.17715
▁ഹി	-9.17753
l	-9.17833
▁പ്രസംഗ	-9.17834
▁സോണിയ	-9.17843
തോ	-9.17912
ഭവ	-9.18017
▁പരിചയ	-9.18026
▁അടച്ച	-9.18061
▁വിവരങ്ങള്‍	-9.18107
സ്ട്ര	-9.18122
റിഞ്ഞ	-9.18151
▁വീതം	-9.18196
▁ഭൂ	-9.1824
▁എൽ	-9.18249
▁ചോദിക്ക	-9.18265
▁വധ	-9.1836
▁ക്യാ	-9.18374
▁മൈ	-9.18374
ത്തേ	-9.18498
▁പിടി	-9.18603
▁ആരാധക	-9.18664
▁ഇറാന	-9.18692
ല്ലോ	-9.18787
▁കേസെടുത്ത	-9.18834
▁യാ	-9.18861
▁യുഎസ്	-9.18881
▁പത്ത്	-9.18899
ാലയ	-9.18993
▁ശ്രമം	-9.19081
▁തിരുവ	-9.19092
▁ഒളി	-9.1911
▁സര്‍വീസ	-9.19141
▁മഹ	-9.19211
▁മണ്ഡലം	-9.19239
▁അബ്ദു	-9.19266
ഞ്ജ	-9.19424
▁ചോദിച്ചു	-9.1946
▁തുടങ്ങ	-9.19469
▁കൂടുതല	-9.19473
▁സഹായിക്ക	-9.19697
▁ട്രാ	-9.1972
▁അറിയിക്ക	-9.19745
▁കുട	-9.19874
▁എന്താണ്	-9.19954
കട	-9.1998
രോധ	-9.20009
▁ഏത്	-9.20029
▁റിപ്പോർട്ട	-9.20031
ാണിത്	-9.20057
പ്രവർത്തക	-9.20147
ുമായുള്ള	-9.20154
ിക്കുക	-9.20213
▁നമുക്ക്	-9.20224
▁ശ്രമിക്കുന്ന	-9.20228
ിട്ടുണ്ടെന്നും	-9.20274
▁മാറ്റം	-9.20361
ുവെന്ന	-9.20412
▁യാതൊരു	-9.20466
▁കിടക്ക	-9.2052
▁രീതിയില്‍	-9.2057
▁തയ്യാറായ	-9.20623
▁സാഹചര്യം	-9.20654
▁ഫേസ്ബുക്ക്	-9.20693
▁കൈമാറ	-9.20816
▁കാണുന്ന	-9.20916
▁അഴിമതി	-9.21074
▁എത്തിക്ക	-9.21085
▁വിമർശന	-9.21196
▁60	-9.2127
▁അവര	-9.21271
▁അതില്‍	-9.21301
▁ദുരന്ത	-9.21319
▁വരുന്നത്	-9.21331
▁സുരക്ഷാ	-9.21335
ുകളിലും	-9.21397
▁കൂടിയാണ്	-9.2156
കി	-9.21742
▁രാജസ്ഥാന	-9.21766
▁മേഖലകള	-9.21796
▁ആശുപത്രികള	-9.21861
▁ആണെന്ന	-9.21881
▁100	-9.21897
▁മുതല	-9.22059
▁വാക്സിന	-9.22064
▁രൂപയുടെ	-9.22068
▁പലരും	-9.22071
ുവെന്നാണ്	-9.22147
▁ജനുവരി	-9.22179
ക്ഷി	-9.2223
▁അടിച്ച	-9.22281
▁മന്ത്രിസഭ	-9.22322
രിപ്പ	-9.22351
സിന്	-9.22358
ിനെയും	-9.22443
▁ചാനല	-9.22443
▁ചെയ്തിട്ടുണ്ട്	-9.22453
▁വിതരണം	-9.22485
▁പേരുടെ	-9.22486
ോട്ട്	-9.22551
▁കുമാറ	-9.22561
നാഥ്	-9.22803
▁താൻ	-9.22818
▁ഇതിന	-9.22842
ൂറ	-9.22867
▁പിന്നാലെയാണ്	-9.22871
▁സ്ഥാന	-9.22883
ൻസ	-9.22885
▁ബന്ധം	-9.2289
ിരിക്കുന്നു	-9.22917
▁അക്കൗണ്ട	-9.22922
▁ശിക്ഷ	-9.22926
ഭാവ	-9.22949
▁വനിതാ	-9.22965
വൈ	-9.23105
ശാല	-9.23154
▁ട്രെയിന	-9.23171
▁പ്രസിഡന്റ	-9.23216
▁നടത്തുന്നത്	-9.2322
▁മാറ്റിയ	-9.23232
പേര	-9.23293
▁നിയമം	-9.23308
▁സ്വപ്ന	-9.23332
▁ഇര	-9.23508
▁മരണം	-9.23565
സൂ	-9.23614
▁യോഗത്തില്‍	-9.23662
▁വീട്	-9.237
▁മേഖലയില്‍	-9.23718
▁രാജ്യസഭ	-9.23722
കളില	-9.23769
ടക്കം	-9.23812
▁എത്തുന്ന	-9.23813
▁കൂടിക്കാഴ്ച	-9.23823
▁നിർദേശ	-9.23946
▁കര്‍ണാടക	-9.24047
▁മുഴുവന്‍	-9.24047
കക്ഷി	-9.2406
▁ആവശ്യപ്പെട	-9.24183
▁വേണമെന്ന	-9.24333
▁പള്ളി	-9.24349
ുന്നതിനുള്ള	-9.24396
▁പെൺകുട്ടി	-9.24425
▁കാഴ്ച	-9.24498
രാഷ്ട്ര	-9.2454
w	-9.24551
▁വിപണി	-9.24553
▁കോടതിയില്‍	-9.24585
▁ദിലീപ്	-9.24587
വയ്ക്ക	-9.24611
പൂർ	-9.24694
▁സമരം	-9.2475
▁ബാധിക്ക	-9.24757
▁പ്രവര്‍ത്തകര	-9.24835
▁കേസിലെ	-9.2485
▁വീട്ട	-9.24862
▁വന	-9.24871
▁മണ്ഡലത്തില്‍	-9.24917
ത്തിനിടെ	-9.24927
▁തൊഴിലാളി	-9.25107
▁ആണ	-9.25113
▁ചെയ്	-9.2515
ക്കാട്	-9.25167
m	-9.25184
▁പരാമര്‍ശ	-9.25185
▁ലോട്ടറി	-9.25187
തായിരുന്നു	-9.25284
യാണ	-9.25285
▁അദ്ദേഹത്തെ	-9.25318
മാകും	-9.25319
മെന്റ	-9.25334
▁തിരഞ്ഞെടുക്ക	-9.25439
▁സ്ഥിരീകരിച്ചു	-9.25466
▁കാറ	-9.25593
▁35	-9.25595
▁കുറയ	-9.2562
▁കൊല്ല	-9.25626
▁എതിരെ	-9.25644
▁യൂത്ത്	-9.25661
▁കോള	-9.25824
▁ഒരുപാട്	-9.25826
ുടെയും	-9.25862
▁കാണിച്ച	-9.25929
▁ബജറ്റ	-9.26103
▁ഉടമ	-9.2613
ുവന്ന	-9.26137
▁ഒഴിവ	-9.26275
90	-9.26321
▁സിപിഐ	-9.26336
▁ഹൗസ	-9.26365
▁ബിരുദ	-9.26385
ര്‍ജ	-9.26431
▁കർഷക	-9.26464
കളായ	-9.26469
പോക	-9.26531
യെയും	-9.26546
▁ഒരിക്കലും	-9.26593
▁ബുദ്ധിമുട്ട	-9.26593
▁തൃ	-9.26681
▁നിറ	-9.26701
▁വിവാഹം	-9.26709
മ്മി	-9.26717
▁ദൃശ്യ	-9.26769
▁കാട്ട	-9.26772
▁ഒരാള്‍	-9.26778
▁മേധാവി	-9.26851
▁പിന്നെ	-9.26865
▁യാത്രക്കാര	-9.26903
▁ബ്ല	-9.26957
▁വിസ	-9.27007
▁വിളിക്ക	-9.27096
▁ആത്മ	-9.27134
▁പുറത്തുവന്ന	-9.27261
▁മെന്റ്	-9.27294
▁ഏഴ	-9.27308
ൻഡ	-9.27314
▁ശോഭ	-9.27381
10	-9.27425
▁ഒന്ന്	-9.27496
ാധ്യ	-9.27532
▁തയ്യാറ	-9.27554
▁വിവര	-9.27582
▁കൊണ്ടാണ്	-9.27589
ബന്ധ	-9.27599
ൌ	-9.2763
▁മുന്നില	-9.27646
കുളം	-9.27681
ിലധികം	-9.27697
▁ആഗ്രഹിക്കുന്ന	-9.27725
▁വ്യാപാര	-9.27761
▁നിര്‍ദേശ	-9.27849
▁ഹരി	-9.27884
▁ഹര്‍ജി	-9.27894
▁കണ്ടു	-9.27958
▁പ്രാദേശിക	-9.28153
▁ഫെ	-9.28225
▁ഉണ്ടായിരുന്നു	-9.28357
ുകളെ	-9.28395
വിധ	-9.28403
▁ഞാന	-9.28445
േറിയ	-9.285
▁ശരി	-9.28551
▁സുനി	-9.28657
▁ചീഫ്	-9.28678
രിക	-9.2869
▁ഡോസ്	-9.28789
▁ഓഫീസര്‍	-9.28799
▁ഉത്തരവ	-9.288
▁നീതി	-9.28832
യുമാണ്	-9.2884
രുവ	-9.28854
▁കയ്യ	-9.28887
ുമില്ല	-9.28894
▁ദാ	-9.28949
മന്ത്രി	-9.29029
▁തുറന്ന	-9.29048
▁കാര്യങ്ങൾ	-9.29049
▁ഉദ്യോഗസ്ഥര്‍	-9.29066
▁ഗ്	-9.29082
ോളജി	-9.29179
▁കെപിസിസി	-9.29206
പ്ല	-9.29216
▁സംഭവത്തില്‍	-9.29289
▁ബസ	-9.2934
▁അതിനിടെ	-9.29355
▁നിര്‍ദേശം	-9.29429
▁അത്തര	-9.29435
▁നിരക്ക	-9.29444
▁നാട്ടുകാര	-9.29604
ുന്നതിനിടെ	-9.29609
▁തൊഴില	-9.29622
യേ	-9.29736
▁ഒപ്പം	-9.29749
▁നേ	-9.29758
▁വാര്‍ഡ	-9.29784
▁തൊട്ട	-9.29796
▁വ്യാ	-9.29823
▁ചെയ്യുന്നു	-9.29847
സർ	-9.29862
ിപ്പിക്കുന്ന	-9.29956
▁നേതൃത്വത്തില്‍	-9.2999
▁റോഡ്	-9.30048
ർന്ന	-9.30122
▁തുറക്ക	-9.30172
▁29	-9.30216
▁അഭിഭാഷക	-9.3027
▁നിലവിലെ	-9.30274
▁അമ്പ	-9.30322
▁പിഴ	-9.30335
ബോ	-9.30372
▁വ്യക്തമായ	-9.30398
▁ഇത്രയും	-9.3042
▁കാര്യത്തില്‍	-9.30437
▁വിഷയത്തില്‍	-9.30478
▁ഉപയോഗിച്ച്	-9.30543
▁സീറ്റുകള്‍	-9.30599
▁അന്വേഷിക്ക	-9.30673
▁ടെക്	-9.30766
▁കുഴ	-9.30778
പ്പള്ളി	-9.3079
▁നാല	-9.30848
▁പ്രവര്‍ത്തനങ്ങള	-9.30849
▁വടക്ക	-9.30852
▁വിജയ്	-9.30857
▁ഗ്രൂപ്പ്	-9.31073
▁സ്വതന്ത്ര	-9.31076
ീവ്	-9.31166
▁പരിഹരിക്ക	-9.31211
▁റദ്ദാക്ക	-9.31213
▁വര്‍ധ	-9.31342
▁എന്നിവരാണ്	-9.314
ബ്ര	-9.31415
▁നടപടികള്‍	-9.31419
▁ആഗ്രഹ	-9.31441
▁പഴയ	-9.31493
ിക്കാനുള്ള	-9.31498
▁വിജയിക്ക	-9.31575
▁സുഹൃത്ത	-9.31615
▁നിന്നു	-9.31687
▁ജില്ലയിൽ	-9.31701
';	-9.31777
▁അടിയന്തര	-9.31889
▁തന്ത്ര	-9.31895
▁സംസ്	-9.31934
▁സഹായം	-9.31952
▁രാമ	-9.31965
ിക്കുകയായിരുന്നു	-9.32009
▁വിള	-9.32019
▁ഉണ്ടെന്ന	-9.32054
▁രാജ്	-9.32108
▁തുടക്ക	-9.3213
▁പ്രഖ്യാപിക്ക	-9.32161
▁അംഗീകരിക്ക	-9.32161
ലിന്റെ	-9.32227
▁വിധ	-9.32247
▁എംഎൽഎ	-9.32298
▁പുറത്താക്ക	-9.32423
▁തട്ടിപ്പ	-9.3246
ിനായി	-9.32489
▁കരി	-9.32565
▁മകന	-9.32638
▁ഇരിക്ക	-9.32646
ാള്‍	-9.32719
▁സീസണ	-9.32732
▁അറിഞ്ഞ	-9.32832
▁ലക്ഷ്യ	-9.32926
▁ചികിത്സയില	-9.32937
പ്പെടുത്തി	-9.32978
▁തിരികെ	-9.32983
▁എംഎല്‍എമാര	-9.33012
▁ഫോണ്‍	-9.33123
▁കെട്ടിട	-9.33125
▁സർ	-9.33135
▁രേഖപ്പെടുത്തിയ	-9.33136
▁ജൂലൈ	-9.33139
▁സുരക്ഷിത	-9.3316
!!	-9.33168
▁കണ്ണൂര	-9.33212
▁അത്ര	-9.33536
ാധ	-9.33582
▁തമ്മിലുള്ള	-9.33603
▁പ്രദേശങ്ങള	-9.33649
▁ഫോട്ടോ	-9.33673
▁കക്ഷി	-9.33685
വിന്റെ	-9.33694
ഭാഗ	-9.3376
▁പിതാവ	-9.33771
വാര	-9.33817
തെന്ന	-9.33822
▁ജൂണ്‍	-9.33868
▁രു	-9.3387
രാമ	-9.34032
▁ഇന്ത്യയില്‍	-9.34041
▁ബാങ്ക്	-9.34046
▁സിംഗ	-9.34048
▁എന്നിങ്ങനെ	-9.34053
▁സ്വാതന്ത്ര്യ	-9.34088
▁നിങ്ങള്‍	-9.34116
ക്കൊ	-9.3417
▁ഇതിനിടെ	-9.34242
▁ഉള്‍പ്പെടെ	-9.34286
25	-9.3434
ാട്	-9.34383
▁സ്വർണ	-9.34386
▁ഭരണഘടന	-9.34506
▁ഇന്ത്യയിലെ	-9.34584
ഴിഞ്ഞ	-9.34619
▁കേസുകള്‍	-9.34685
കളുമായി	-9.34753
▁ലേ	-9.34758
▁നടപ്പിലാക്ക	-9.34786
പ്പോഴാണ്	-9.34827
▁അംഗങ്ങള	-9.34831
▁ഉൾപ്പെടെ	-9.34845
▁ആഴ്ച	-9.349
▁ശ്രമിക്ക	-9.34937
മാസ	-9.34956
▁നീണ്ട	-9.35014
▁പരാജയ	-9.3504
ാമെന്ന്	-9.35055
▁ചെയ്യുക	-9.35153
▁പ്രവേശന	-9.35206
മാവ	-9.3526
▁സെന്ററ	-9.35355
▁കോളേജ്	-9.35402
▁പന്ത	-9.35429
▁രേഖ	-9.355
▁കല്ല	-9.35594
ശേഖര	-9.35693
തല്ല	-9.35706
▁45	-9.35751
▁മൃതദേഹം	-9.35764
▁വ്യവസായ	-9.35911
▁ചെന്നൈ	-9.35912
▁സാഹചര്യത്തിൽ	-9.36013
▁ഫെബ്രുവരി	-9.36053
മാക്കി	-9.36071
▁സംഭവിക്ക	-9.36086
▁ഒപ്പ	-9.36101
▁തിരിച്ചു	-9.36123
▁പ്രവാസി	-9.36157
േക്കാള്‍	-9.36244
▁ഹോട്ടല	-9.36259
▁നില്‍ക്കുന്ന	-9.36315
ച്ഛ	-9.36317
▁പാട	-9.36465
▁നിലയില്‍	-9.36487
▁തെരഞ്ഞെടുപ്പ്	-9.36549
പാല	-9.36793
▁ദിലീപ	-9.36802
▁തിരിച്ച	-9.36822
▁വോട്ടുകള്‍	-9.36845
▁ആരോപിച്ച	-9.36902
▁ജല	-9.36929
▁മൊ	-9.36962
▁ഭരണം	-9.3701
മംഗല	-9.37011
മാക്കിയ	-9.37028
ാണി	-9.37119
▁തിരു	-9.37144
▁സൃഷ്ടിക്ക	-9.37194
▁വ്യാപക	-9.37194
▁കോട്ട	-9.37314
▁പൂര്‍ത്തിയാക്ക	-9.37337
കൊണ്ട	-9.37394
▁തിരക്ക	-9.3744
▁അദ്ദേഹത്തിന്	-9.37725
ഘട്ട	-9.37747
▁ഭൂരിപക്ഷ	-9.37815
ാമെന്ന	-9.38008
തൃ	-9.38039
▁ധാരണ	-9.3806
ുന്നതിനും	-9.38103
▁വിശ്വ	-9.38121
സോ	-9.38179
▁പേരിൽ	-9.38198
▁കിലോമീറ്റ	-9.38347
▁സ്വന്തമാക്ക	-9.38348
▁ഫിറോസ	-9.38351
ഷാ	-9.386
▁തൊഴിലാളികള	-9.3861
▁ആക്രമണം	-9.38611
▁വിചാരണ	-9.38638
',	-9.38739
▁ചെയ്യാൻ	-9.3885
ശ്രമ	-9.38896
ര്‍ട്ട്	-9.38922
▁ശ്രദ്ധിക്ക	-9.38938
പാത	-9.3923
▁ഘടക	-9.39368
▁വിധേയ	-9.3937
▁വെട്ടി	-9.39379
▁സഹകരണ	-9.39384
▁ചിന്ത	-9.39437
▁സാമൂഹിക	-9.39514
40	-9.39536
▁2021	-9.39551
▁ഇക്കാര്യ	-9.39555
▁സംവിധാനം	-9.39579
▁അതു	-9.39585
▁സന്ദേശ	-9.39662
▁ശബ്ദ	-9.39665
ഗതി	-9.39692
▁വാദം	-9.39709
▁മനസ്സിലാക്ക	-9.39809
▁കുറച്ച	-9.39868
കൃഷ്ണ	-9.39877
ുമ്പോഴ	-9.40046
▁ബീ	-9.40066
ീഷ	-9.40084
▁ഡൽഹി	-9.40103
ക്കൾ	-9.40113
▁ടിക്കറ്റ്	-9.40165
ാറുണ്ട്	-9.40214
ുണ്ടോ	-9.40221
▁സമാധാന	-9.40399
▁രാജ്യം	-9.404
▁തമ്മില്‍	-9.40417
▁പറ	-9.40427
▁വീടുകള	-9.40548
▁നേതാക്കളെ	-9.40638
▁പങ്കുവെച്ച	-9.40695
▁പ്രതികരിച്ച	-9.40734
▁അധിക	-9.40881
▁അധികം	-9.40919
▁ഉമ്മന്‍	-9.40927
ുന്നതെന്നും	-9.40962
▁ലോക്സഭ	-9.41019
▁പരിധി	-9.41091
ത്തിന്‍റെ	-9.41117
▁പരസ്യ	-9.4115
▁യാദവ	-9.41153
മുഖ	-9.41162
▁നേരിടുന്ന	-9.41175
മാകുന്ന	-9.41214
▁രേഖപ്പെടുത്ത	-9.4129
പതി	-9.41309
▁ആവശ്യമായ	-9.41335
▁വീട്ടിൽ	-9.41481
ിലേക്കും	-9.41514
▁തന്ന	-9.41539
▁മാന	-9.41541
ാതിരുന്ന	-9.4173
▁താല്‍പര്യ	-9.4174
▁ത്തി	-9.41794
▁യൂ	-9.41859
▁ഏതെങ്കില	-9.41926
കൊ	-9.41942
▁പുരുഷ	-9.41953
▁പശ്ചാത്തലത്തില	-9.42104
▁കലാ	-9.42117
▁വിഷയം	-9.42217
ുണ്ടാവ	-9.42431
▁പരിക്കേറ്റ	-9.42496
ദിന	-9.42545
▁പ്രതികരിച്ചു	-9.42566
▁വാങ്ങിയ	-9.4264
65	-9.42747
കൂടി	-9.42767
ന്‍റെ	-9.42771
▁പേര്‍ക്കും	-9.42774
d	-9.42795
▁അന്താരാഷ്ട്ര	-9.42796
▁ഉണ്ടാകും	-9.42807
▁കോണ്‍ഗ്രസില്‍	-9.42851
ുകയാണെന്നും	-9.42872
ക്കിടെ	-9.42884
▁പ്രവേശിപ്പിച്ച	-9.42947
▁അധികൃതര്‍	-9.43004
▁സ്ഥാനാര്‍ഥി	-9.43099
▁ഭരണകൂട	-9.43114
▁ഫീ	-9.4317
▁മീഡിയയില്‍	-9.43177
▁ജാമ്യം	-9.43251
▁തസ്തിക	-9.43257
▁എവിടെ	-9.43408
▁ജൂ	-9.43433
▁മരിച്ചത്	-9.43522
▁കീ	-9.43538
21	-9.43568
▁സുരേന്ദ്രന്‍	-9.4372
ഞ്ചേരി	-9.43725
▁2016	-9.43731
ുകയെന്ന	-9.43745
പ്രദേശ	-9.43768
▁പോര	-9.4385
▁സ്ഥലങ്ങള	-9.43865
ഗ്ഗ	-9.43921
ന്മാര	-9.4396
കൃത	-9.4405
▁മൂന്നു	-9.44125
▁നിമിഷ	-9.4417
ഢ	-9.44324
▁മൊത്ത	-9.44357
▁എല്‍ഡിഎഫ	-9.4454
47	-9.44736
▁പക്ഷെ	-9.44795
നിന്ന്	-9.44829
▁പ്രതികരണ	-9.44844
▁വൈസ്	-9.44873
▁പൂര്‍ണ	-9.4489
▁പോസിറ്റീവ	-9.44941
▁മാര്‍ച്ച്	-9.44945
23	-9.45045
▁അധ്യാപക	-9.45096
▁ആരോപിക്ക	-9.45097
▁കൂള	-9.45219
മാരായ	-9.45222
▁കീഴില	-9.45241
▁തെളിയിക്ക	-9.45407
▁ഇറക്ക	-9.45427
ക്കുറിച്ച	-9.45548
▁കുറ്റപ്പെടുത്തി	-9.45557
▁ക്രിസ്	-9.45657
12	-9.4568
▁എയര്‍	-9.45726
▁ഇതിൽ	-9.45783
▁ശാസ്ത്ര	-9.45927
കുട്ടി	-9.46007
ക്കെതിരായ	-9.46033
▁പത്ര	-9.46095
ിലെത്തിയ	-9.46165
h	-9.46188
▁തിങ്കളാഴ്ച	-9.46189
▁ഇടത്	-9.46233
▁സിന്ധ്യ	-9.46346
നാഥ	-9.46361
▁ബിസിനസ്	-9.46447
ർത്തി	-9.46498
▁ഉടന്‍	-9.46508
▁ജയിച്ച	-9.46531
▁കടന്നു	-9.46547
തന്നെ	-9.46631
▁ഭീകര	-9.46664
▁തോന്ന	-9.46718
▁ഭാഷ	-9.4674
▁നിര്‍ത്ത	-9.46771
േന്ദ്ര	-9.4679
▁തേട	-9.46817
▁വിദഗ്ധ	-9.46818
▁മുതിര്‍ന്ന	-9.46818
▁അടുത്തിടെ	-9.46819
ദാന	-9.46821
▁ജീവിതം	-9.46904
▁ഡോക്ടര്‍	-9.46976
▁തേടിയ	-9.47008
▁ഇരുവരും	-9.47018
▁ഫണ്ട	-9.47102
ാവസ്ഥ	-9.47115
ധാര	-9.47168
▁വച്ച	-9.47229
ുമെല്ലാം	-9.47412
▁നയിക്ക	-9.47413
▁തര്‍ക്ക	-9.47489
▁സ്വദേശിയായ	-9.4758
▁മുഖ്യ	-9.47633
▁എന്തിന	-9.47752
ൂട്ടിച്ചേര്‍ത്തു	-9.47769
▁നെഗറ്റീവ	-9.47769
▁കാര്‍	-9.47791
▁നമ്മള്‍	-9.47817
മില്ലാത്ത	-9.47864
ൻ്റ	-9.47876
▁രമ	-9.47966
വുമായ	-9.47984
▁ഇള	-9.4801
ഗ്രഹ	-9.48062
▁കെട്ടി	-9.48067
കളിലും	-9.48077
▁ഏറ്റെടുത്ത	-9.48089
▁കൃത്യമായ	-9.4811
▁കർണാടക	-9.48249
ന്ദ്ര	-9.48291
കുമാറ	-9.48312
▁പൗരത്വ	-9.48367
▁കമന്റ	-9.48379
ിലേക്ക	-9.48381
▁ഉദ്ഘാടനം	-9.48393
ുകള്‍ക്ക്	-9.48407
▁ലോക്ക്	-9.48444
ഞ	-9.4846
▁നടത്തിയിരുന്നു	-9.48522
▁രൂക്ഷ	-9.48536
▁പേർക്ക്	-9.48627
▁എട്ട	-9.48639
വാദി	-9.48669
വിള	-9.48688
▁കുറിപ്പ	-9.48693
▁രഹസ്യ	-9.4873
▁പോകുന്നത്	-9.48779
താക	-9.48812
ത്തിൻ്റെ	-9.48879
▁ആത്മഹത്യ	-9.48891
▁പാര്‍ലമെന്റ	-9.48891
▁റിസ	-9.48905
▁പുറമെ	-9.49053
▁ജനറൽ	-9.49056
▁വിജയന്‍	-9.49095
▁നേരത്തേ	-9.49133
ധികം	-9.49198
▁വനിത	-9.49206
▁നിര്‍ണായക	-9.49214
▁പരിശീലന	-9.49214
▁എൽഡിഎഫ	-9.49215
▁മധ്യപ്രദേശ	-9.49221
▁ദേ	-9.49263
▁കുട്ടികള	-9.49283
വകുപ്പ	-9.49312
▁2,	-9.49385
▁മൂലം	-9.49396
▁സാക്ഷി	-9.49459
▁ശേഷമ	-9.4956
▁ഇല്ലാത്ത	-9.49568
▁റിപ്പോര്‍ട്ടുകള	-9.49583
വിട്ട	-9.49615
▁അഭിനയ	-9.49704
യാണെന്നും	-9.49733
▁സാധ	-9.49802
ാകെ	-9.49816
▁ശക്തമാക്ക	-9.49971
ിറങ്ങ	-9.49997
▁നിര്‍ത്തി	-9.50005
▁ജനങ്ങൾ	-9.50145
▁കണ്ടെത്തി	-9.50166
▁ഉപതിരഞ്ഞെടുപ്പ	-9.50189
▁പൈലറ്റ	-9.50189
▁രജിസ്റ്റര്‍	-9.50189
ുകയോ	-9.50193
▁ആദ്യമായി	-9.50273
▁2020	-9.50292
▁അച്ഛന	-9.50376
ചിത	-9.50439
▁കൗണ്‍സില	-9.50517
▁ട്രംപ്	-9.50652
▁നന്ദി	-9.50708
▁റണ്‍സ	-9.50726
▁മരിച്ചു	-9.50832
▁സംരക്ഷിക്ക	-9.50844
▁ജനങ്ങളുടെ	-9.5085
▁സിനിമാ	-9.50893
▁അഖില	-9.50973
▁നൂറ	-9.51031
▁ശശി	-9.51078
▁തൊഴില്‍	-9.51161
ത്തിലായിരുന്നു	-9.51303
▁സമുദായ	-9.51338
▁അവധി	-9.51363
മാരും	-9.51385
▁കയറി	-9.51438
▁നിൽക്ക	-9.5144
▁നങ്ങള്‍	-9.51536
▁പിന്തുണയ്ക്ക	-9.51543
▁നോട്ട	-9.51605
▁കളിക്ക	-9.51705
ുന്നതില്‍	-9.51713
▁അഡ്വ	-9.51725
▁ഇതാണ്	-9.51852
▁എല്‍ഡിഎഫ്	-9.51934
▁തുടര്‍ന്നാണ്	-9.51991
▁അറേബ്യ	-9.52001
▁ശബരിമല	-9.52001
▁കൃഷി	-9.5201
▁മൂല്യ	-9.5205
▁വ്യത്യസ്ത	-9.52168
▁മണ്ണ	-9.52175
▁മല്‍സര	-9.52176
വിരുദ്ധ	-9.52199
▁വിമാനത്താവള	-9.52242
മായിരിക്കും	-9.52251
▁കണക്ക്	-9.52291
▁ഏജന്‍സി	-9.52334
▁ഞായറാഴ്ച	-9.52334
▁ആശുപത്രിയിൽ	-9.52356
▁പ്രണയ	-9.52405
ബൈ	-9.52418
▁സാമ്പിളുകള	-9.52668
▁ലഭ്യമാക്ക	-9.52671
യോഗം	-9.52674
13	-9.52749
▁ആന്റണി	-9.52837
▁പ്രമേയ	-9.52843
▁പങ്കാളി	-9.52879
▁മാധ്യമങ്ങള	-9.52895
▁ജില്ലകളില്‍	-9.52899
▁ഇരട്ട	-9.5299
▁വസ്തു	-9.52991
A	-9.53004
▁അറിയിച്ചത്	-9.53077
▁അദ്ദേഹത്ത	-9.53133
▁പീഡന	-9.53173
▁പ്രചാരണം	-9.53178
▁കാണിക്ക	-9.53182
ുകളില	-9.5321
▁കാപ്പ	-9.53341
▁ഏറ്റെടുക്ക	-9.53342
വഴി	-9.53374
▁വിവരങ്ങൾ	-9.53493
▁പ്രവൃത്തി	-9.53509
▁ഐക്യ	-9.53527
▁കൃത്യമായി	-9.53579
▁കഥ	-9.53588
▁വേദി	-9.53617
▁രാശിക്കാര	-9.53623
▁സബ്	-9.53643
▁തേടി	-9.53663
▁ഒക്കെ	-9.53689
ില്ലാതെ	-9.538
കളിലേക്ക്	-9.5382
ില്ലെങ്കില്‍	-9.54029
▁പോളി	-9.54076
▁പാലാ	-9.54149
▁32	-9.54217
▁കൊണ്ടുവന്ന	-9.54221
കൂട്ട	-9.54295
▁മുന്നോട്ടു	-9.54363
ുന്നതെന്ന്	-9.54407
പറമ്പ	-9.54522
I	-9.54527
▁ഗതാഗത	-9.54527
▁ചേര്‍ന്ന്	-9.54604
▁പരമാവധി	-9.54697
▁വൈദ്യുതി	-9.54697
▁ശരീര	-9.54699
▁ഇന്റ	-9.54755
ുവിന്റെ	-9.54793
▁സ്ത്രീകള	-9.54865
മേഖല	-9.54924
കള്‍ക്കും	-9.55003
▁പരിഗണിച്ച	-9.55039
▁കണ്ടെത്തിയത്	-9.55042
▁പരിഹാര	-9.55212
▁തട്ടി	-9.55349
▁കടുവ	-9.5535
▁അറസ്റ്റിലായ	-9.55414
▁നിയമനം	-9.55423
▁സമീപിച്ച	-9.55433
▁തിരിച്ചെത്ത	-9.55465
▁വെള്ളം	-9.55471
തിനാല	-9.55534
▁സർവീസ	-9.55562
ബര്‍	-9.55603
▁ശനിയാഴ്ച	-9.55722
▁മാനസിക	-9.55729
▁തടസ്സ	-9.55732
വിഷ	-9.55768
▁80	-9.55902
▁സുധാകരന്‍	-9.55902
▁ആക്രമിച്ച	-9.55907
▁കൗ	-9.56025
▁ഗുരുതര	-9.56062
മുണ്ടാക	-9.56153
▁വച്ച്	-9.56158
▁അവര്‍ക്ക്	-9.56164
▁ഭാഗത്ത്	-9.5618
േക്കുമെന്ന	-9.56205
യെടുത്ത	-9.56262
ാഴ്ച	-9.56361
-19	-9.5643
▁പഠിക്ക	-9.56462
▁കഴിക്ക	-9.565
എച്ച്	-9.56523
▁ഭക്ഷണ	-9.56591
▁ഇത്ര	-9.56605
▁യോഗി	-9.56662
പാദ	-9.56662
▁തുടർന്ന	-9.56722
ിട്ടില്ലെന്നും	-9.56724
▁കലാപ	-9.56726
▁അധ്യക്ഷന	-9.56751
▁വാക്സിൻ	-9.56771
യുണ്ടായ	-9.56856
▁വ്യവസ്ഥ	-9.56946
▁ഉള്‍	-9.56964
▁ആളുകൾ	-9.56979
▁വെറും	-9.57042
▁ഇതിനെ	-9.57113
▁ഏകദേശം	-9.57118
▁പ്രൊ	-9.57157
ഓ	-9.57179
▁വരെയുള്ള	-9.57187
▁തരംഗ	-9.57226
▁ബന്ധുക്കള	-9.573
ാഴ്ച്ച	-9.57373
▁കാണാന്‍	-9.57406
ങ്ങാട്	-9.57461
▁പ്രതികരിക്ക	-9.57465
▁സൗജന്യ	-9.57468
▁മുന്നിൽ	-9.57492
▁അറിയാം	-9.57683
ാണുള്ളത്	-9.5772
▁2018	-9.57847
▁ഇക്കാര്യത്തില്‍	-9.57857
▁ഓട	-9.57988
▁ഹൃദയ	-9.57996
▁ഉള്‍പ്പെടുത്ത	-9.5802
▁ഇടപെട്ട	-9.58033
ിലേറെ	-9.58062
▁ജനങ്ങള	-9.58104
▁കേരളത്തിന്റെ	-9.58164
▁ഭര്‍ത്താവ	-9.58174
▁നിറഞ്ഞ	-9.58217
▁വിശദമായ	-9.58329
▁പോലുള്ള	-9.58352
▁സ്ഥാനത്ത	-9.5843
▁എസ്പി	-9.58459
▁വിളിച്ച്	-9.58464
▁വേദന	-9.58518
▁വോട്ടെടുപ്പ	-9.58527
ുണ്ടെന്നാണ്	-9.58559
▁കളി	-9.5857
▁രാശിക്കാര്‍ക്ക	-9.58597
യായിരുന്ന	-9.58612
80	-9.58628
വിശ്വാസ	-9.58653
▁മുതിർന്ന	-9.58705
▁പെട്ട	-9.58715
▁പിന്നില	-9.58818
▁രോഗമുക്തി	-9.58883
60	-9.58978
ീഷ്	-9.59059
▁ആശ്വാസ	-9.59061
▁രോഗികള	-9.5915
▁ഇവര്‍ക്ക്	-9.59231
▁ജീവിക്ക	-9.59241
▁ബോര്‍ഡ	-9.59277
ങ്ങള്‍ക്കും	-9.59326
ൊഴി	-9.59328
22	-9.59479
▁കശ്മീര	-9.59598
▁രോഗി	-9.59619
▁ഇന്നത്തെ	-9.59742
▁മക്കള	-9.59777
▁കൂട്ടിച്ചേർത്തു	-9.59777
▁കോര്‍പ്പറേഷന	-9.59777
▁സാമൂഹ്യ	-9.59777
▁ഉദ്ദേശ	-9.59777
▁പ്രേക്ഷക	-9.59777
ിക്കുകയാണ്	-9.59918
▁വെള്ളിയാഴ്ച	-9.5992
▁പ്രാഥമിക	-9.59957
രിഞ്ഞ	-9.60004
▁ഡ്ര	-9.60041
▁അറസ്റ്റ	-9.6005
▁മന്ത്രാലയം	-9.60091
▁കണക്കാക്ക	-9.60108
▁നഷ്ടപ്പെട്ട	-9.6011
സ്വാമി	-9.60144
▁ശമ്പളം	-9.60168
24	-9.60184
ുണ്ടാകും	-9.60201
▁മുരളീധര	-9.60204
▁തിരഞ്ഞെടുപ്പിന്	-9.60259
മെന്നും	-9.60267
▁കാലയളവ	-9.60318
▁ഉന്നയിക്ക	-9.60318
▁മാതൃക	-9.60319
▁ഒരേ	-9.60384
ുമൊക്കെ	-9.60466
▁പേര്‍ക്കാണ്	-9.60481
പൊ	-9.60504
▁രൂപയും	-9.6051
▁കുത്തി	-9.60552
യാക്കിയ	-9.60708
▁സ്ഥാനത്ത്	-9.60759
▁മുകളില	-9.60795
പാട	-9.60808
▁റിയാസ	-9.60839
▁അതിര്‍ത്തി	-9.60863
ബാധിത	-9.60877
▁ഉയർത്ത	-9.60885
▁തൊ	-9.60889
യാത്ര	-9.6094
▁അതിനെ	-9.60967
▁ഗ്രഹ	-9.61047
▁ക്വ	-9.61059
▁എച്ച്	-9.61147
▁ലാഭ	-9.61218
▁സുപ്രീംകോടതി	-9.61229
▁ജനങ്ങളെ	-9.61256
▁പെരു	-9.61297
▁വന്നിരുന്നു	-9.61334
▁മേല്‍	-9.61398
▁കരുത്ത	-9.61405
▁സോഷ്യൽ	-9.61408
▁സംഘര്‍ഷ	-9.6141
▁സർക്കാരിന്റെ	-9.6141
▁പ്രതിഫല	-9.61595
▁രൂക്ഷമായ	-9.61629
▁പശ്ചാത്തല	-9.61696
ങ്ങളുമായി	-9.61708
ിലുണ്ട്	-9.61755
യിലായിരുന്നു	-9.61827
ാമെന്നും	-9.61843
▁താമസിക്കുന്ന	-9.61855
ദാസ	-9.61973
▁ണ്	-9.61985
▁പീ	-9.62269
▁വെക്ക	-9.62462
▁റീ	-9.62473
▁ആളുകള	-9.62513
▁തീരുമാനിക്ക	-9.62557
▁ഞങ്ങളുടെ	-9.62584
▁മുൻപ്	-9.62612
▁എനിക്ക	-9.62733
▁തിരിച്ചറിയ	-9.62756
▁സ്വപ്	-9.62836
▁70	-9.62856
▁അട്ടിമറി	-9.6288
▁ഭക്ഷണം	-9.62884
▁വിളിച്ചു	-9.62928
▁പരാജയപ്പെട്ട	-9.62968
▁തീയതി	-9.63068
▁പുറത്തിറങ്ങ	-9.63089
▁ഉപയോഗ	-9.63106
▁ഉത്തരവ്	-9.63308
▁മാനദണ്ഡ	-9.63437
▁ഫൈ	-9.63439
ഹിത	-9.63444
▁അറിയിച്ചിരുന്നു	-9.63445
▁മന്ത്രിമാര	-9.63497
കരണ	-9.63498
▁സംസ്ഥാനങ്ങളില്‍	-9.63524
▁33	-9.63613
▁പകര	-9.63713
▁ആഗോള	-9.63812
▁നേതാക്കളുടെ	-9.63864
ിലായിരുന്നു	-9.63904
▁ഭൂരിപക്ഷം	-9.63938
19	-9.63945
▁സുരേന്ദ്രന	-9.63991
51	-9.63993
ാര്‍ത്ഥ	-9.64001
▁ചെയ്യാന	-9.64009
▁2022	-9.64037
▁ഉള്‍പ്പെടെയുള്ള	-9.64107
▁തുറന്ന്	-9.64197
▁നടപടികൾ	-9.64207
▁ഇടപാട	-9.64246
▁ടെസ്റ്റ്	-9.64503
▁ബോസ	-9.64572
▁നാള	-9.64612
▁കുമാർ	-9.64674
▁ഭാഗമായ	-9.64734
▁ഉത്തരവാദിത്ത	-9.64751
▁2017	-9.6478
▁തുടര്‍ന്ന	-9.64782
▁നടത്തും	-9.64807
▁കുറയ്ക്ക	-9.64813
എൻ	-9.64834
▁എയർ	-9.64841
ിക്കേണ്ട	-9.64914
▁കാരണമായ	-9.6494
▁സമാനമായ	-9.65089
57	-9.65188
▁സാധ്യതയുണ്ട്	-9.65216
ുപോയ	-9.65271
▁ശേഷി	-9.65328
െണ്ണ	-9.65384
ാണു	-9.65543
▁തുടക്കം	-9.65594
▁നേതാക്കളും	-9.65601
▁ചര്‍ച്ചകള്‍	-9.65645
▁മധ്യ	-9.65673
ിനെതിരായ	-9.65886
▁നല്‍കിയിരുന്നു	-9.65886
p	-9.6589
▁സംഭവത്തിൽ	-9.66039
▁വിദ്യാര്‍ത്ഥി	-9.6607
െത്തുന്ന	-9.66112
▁വിദ്യ	-9.66211
▁നല്‍കാന്‍	-9.66212
▁താലൂക്ക	-9.66273
▁തുടരുന്ന	-9.66285
യേയും	-9.66299
▁മാര്‍ഗ	-9.66332
▁ഗവര്‍ണര്‍	-9.66465
▁പെട്രോള	-9.66465
▁തകര്‍ന്ന	-9.66466
▁ഡോളറ	-9.66479
▁പാടില്ല	-9.66503
▁പെട്ടെന്ന്	-9.66504
മുക്ത	-9.66606
ുണ്ടെന്ന	-9.66733
മാണിത്	-9.66734
▁ഡാ	-9.66763
പ്പെടുത്തുന്ന	-9.66889
ഃ	-9.67043
▁തടഞ്ഞ	-9.67067
കുമാർ	-9.67129
▁മണ്ഡലത്തിൽ	-9.6713
77	-9.67165
പൂര	-9.67177
ിരിക്കെ	-9.67205
മായിട്ടാണ്	-9.67214
▁സാങ്കേതിക	-9.67236
▁പുരസ്	-9.67251
▁കാനഡ	-9.67259
േജ്	-9.67358
▁കടല	-9.67418
▁ഉടൻ	-9.67436
▁വിമത	-9.67514
▁ഭാവി	-9.67562
▁അവസാനിപ്പിക്ക	-9.67597
▁ക്ഷണിച്ച	-9.67645
▁തുറന്നു	-9.67652
▁ചൈനീസ്	-9.67666
▁പിന്നില്‍	-9.67673
▁ഗ്യ	-9.67739
▁മുഴുവൻ	-9.67819
▁സ്ഥലം	-9.67819
▁സുഹൃത്തുക്കള	-9.67822
▁മുന്നേറ്റ	-9.67824
▁വിശദ	-9.6784
▁ട്രംപ	-9.67878
▁പരിശോധനയ്ക്ക	-9.67909
▁തോന്നിയ	-9.6797
ക്കഴിഞ്ഞ	-9.67996
▁ഓണ	-9.68012
▁ടീം	-9.68041
ാണെങ്കില്‍	-9.68052
▁പശ്ചിമ	-9.68209
▁കളക്ടര്‍	-9.68209
േണ്ടതുണ്ട്	-9.68232
▁യുവാക്കള	-9.6841
▁ഒമ്പത	-9.68488
▁നിലയിൽ	-9.68491
▁തിരിച്ച്	-9.68589
S	-9.68601
15	-9.68622
▁ബൂത്ത	-9.68667
▁തമിഴ്നാട്	-9.68679
▁പ്രഖ്യാപനം	-9.68681
▁സംരക്ഷണ	-9.6879
▁സമര്‍പ്പിച്ച	-9.68798
േണ്ടതില്ല	-9.68957
▁പുറമേ	-9.68995
ൻ്റെ	-9.69074
▁പുതുതായി	-9.69099
▁നിര്‍ദേശിച്ച	-9.69149
▁വിഷ്ണു	-9.69192
▁പൊളി	-9.6921
ദീപ്	-9.6925
▁പൊതുജന	-9.69265
▁വീട്ടില	-9.69436
▁ഇഡി	-9.69444
▁ജസ്റ്റിസ്	-9.69587
▁വാഗ്ദാനം	-9.69587
▁പ്രവർത്തകർ	-9.69592
▁കോടതിയെ	-9.69652
56	-9.69694
u	-9.69785
▁കര്‍ശന	-9.69785
▁നല്‍കുന്നത്	-9.69789
പിടിച്ച	-9.69789
പ്രതി	-9.69792
▁നോട്ടീസ്	-9.69803
▁നിര്‍ബന്ധ	-9.69806
▁ജില്ലകളിൽ	-9.6984
▁അംബാനി	-9.69984
in	-9.70018
▁രീതിയിൽ	-9.70047
▁കിട	-9.7008
നീഷ്	-9.70092
മൂല	-9.70133
▁34	-9.70176
▁എന്‍ഡിഎ	-9.70184
▁കുറിപ്പ്	-9.70234
▁സ്ഥാപിക്ക	-9.70383
ർദ്ദ	-9.70529
▁പരിഗണന	-9.70583
▁നിരന്തര	-9.70586
▁അനുസരിച്ച്	-9.70586
▁സീറ്റില്‍	-9.70627
71	-9.70746
▁താലിബാന	-9.70784
▁കോളജ	-9.70784
▁വിദ്യാര്‍ത്ഥികള	-9.70796
ക്കെട്ട	-9.708
ിലേക്കാണ്	-9.70885
▁മേഖലയിലെ	-9.71107
മുണ്ടാ	-9.71109
C	-9.71185
▁എളുപ്പ	-9.71186
ല്ലെന്നും	-9.712
▁വീഴ	-9.71324
▁ക്ലാസ്	-9.71332
ക്കാരെ	-9.71363
ക്ടറ	-9.71398
മില്ലാതെ	-9.71407
▁പതിവ	-9.71464
ുകയായിരുന്ന	-9.71523
വാര്‍	-9.71759
▁ഷാജി	-9.71921
▁നാലു	-9.71932
▁ഭക്ഷ്യ	-9.71995
▁കാത്തിരിക്ക	-9.72052
▁ബെംഗളൂരു	-9.72198
▁രക്ത	-9.72348
▁തീവ്ര	-9.72373
▁രാജ്യത്തിന്റെ	-9.72476
ാർത്ഥ	-9.72488
ുന്നതിന്റെ	-9.72639
70	-9.72761
▁പറയാന്‍	-9.72783
▁ടൂറിസം	-9.7281
▁സിബിഐ	-9.72811
ുകയാണെന്ന്	-9.72849
▁ബില്ല	-9.72865
▁ചേര്‍ത്ത	-9.72936
▁ഹർജി	-9.73017
▁പിന്തുണച്ച	-9.73118
▁സാഹചര്യത്തിലാണ്	-9.73303
▁പാകിസ്താന	-9.73426
▁യുക്രൈന	-9.73426
▁ജാതി	-9.73464
വാഹ	-9.7349
▁ഏപ്രില്‍	-9.73634
▁മോശം	-9.73644
▁ബ്ലോക്ക്	-9.7384
▁ടിക്കറ്റ	-9.7397
▁ഒരുക്കിയ	-9.73993
▁കാസര്‍ഗോഡ്	-9.74046
▁പൊലിസ്	-9.74047
▁ഉൾപ്പെടെയുള്ള	-9.74165
45	-9.7422
▁അംഗീകാര	-9.74254
▁ബൈഡന	-9.74261
ുണ്ടാവും	-9.74365
യൊക്കെ	-9.74457
▁നിർത്തി	-9.74458
▁കാണുന്നത്	-9.74481
▁36	-9.74605
▁ദീപ	-9.74637
▁തീവ്രവാദ	-9.747
▁തയ്യാറാക്ക	-9.74878
▁പ്രാധാന്യ	-9.74878
ുകാർ	-9.74884
▁പ്രകാശ	-9.74886
35	-9.74886
▁ഉപയോഗിക്കുന്ന	-9.74893
സ്ഥിതി	-9.74923
▁വ്യാഴാഴ്ച	-9.7498
ായിട്ടാണ്	-9.74988
▁ക്ലാസ	-9.75031
▁മാര്‍ക്ക	-9.75061
▁വായ്പ	-9.75073
▁ബാഗ	-9.75077
ോടുള്ള	-9.75171
വേഷ	-9.75223
▁വേറെ	-9.75225
▁ഇറങ്ങിയ	-9.75257
▁ഇല്ലെന്ന	-9.75275
▁നോക്കിയ	-9.7529
▁വിശദീകരണം	-9.75297
99	-9.75334
▁ട്വീറ്റ്	-9.75346
പ്പോഴും	-9.75357
▁റാലി	-9.75392
തുകൊണ്ട	-9.75403
ുന്നതിൽ	-9.75469
ുകളിലെ	-9.75473
▁സ്ഥാപിച്ച	-9.75507
▁വാക്കുകള	-9.75596
▁ഗൗരവ	-9.75929
ാവകാശ	-9.75929
▁ഉമ്മ	-9.76049
▁കര്‍ഷകര്‍	-9.76057
ധാന	-9.76068
▁കൊടു	-9.7611
▁സൂപ്പര്‍	-9.7614
▁നിര്‍മാണ	-9.76305
▁പൂർത്തിയാക്ക	-9.76352
▁ഉയരുന്ന	-9.76397
▁ഓക്	-9.76537
▁ജയരാജന	-9.76658
▁അതിൽ	-9.76659
▁ഓടി	-9.76732
ശ്രീ	-9.76764
▁ഇത്തരമൊരു	-9.76777
▁മുല്ലപ്പള്ളി	-9.76777
▁75	-9.76839
▁വ്യക്തമാക്കിയത്	-9.7688
▁നെടു	-9.7693
▁മനസിലാക്ക	-9.76993
▁ഗുരുതരമായ	-9.7702
▁നിതീഷ്	-9.77042
▁തിരുത്ത	-9.77124
67	-9.7713
68	-9.77132
95	-9.77182
▁37	-9.77197
▁നിയന്ത്രിക്ക	-9.77204
▁എങ്കിലും	-9.77205
▁അന്തിമ	-9.77219
▁അഭിമാന	-9.77251
▁വിഷയങ്ങള	-9.77394
▁കരാറ	-9.77436
▁തെക്ക	-9.77479
▁ഒരാൾ	-9.77633
▁ഹാജരാക്ക	-9.7764
▁കമ്മീഷന്‍	-9.77792
▁സ്നേഹ	-9.7785
▁അഭിപ്രായപ്പെട്ട	-9.78052
▁ന്യൂനപക്ഷ	-9.78063
▁ഭേദഗതി	-9.7807
▁വിതരണ	-9.78074
▁ഇന്ത്യയിൽ	-9.78108
▁2023	-9.78115
▁മനസ	-9.78157
▁ഗോവ	-9.78261
85	-9.78275
▁ഇപ്പോഴത്തെ	-9.78279
▁രണ്ടാമത്തെ	-9.78279
▁സിങ്	-9.78294
▁ബാധിച്ചത്	-9.78367
ുണ്ടെങ്കിലും	-9.78484
▁ജനത	-9.78537
സേന	-9.78555
▁മകന്‍	-9.78573
▁ആക്ഷേപ	-9.78598
▁കുട്ടികള്‍	-9.78671
▁ചൂണ്ടിക്കാട്ട	-9.78687
▁യൂണിറ്റ	-9.78714
ദേവ	-9.78719
▁തർക്ക	-9.7875
▁ഞങ്ങള	-9.78792
▁ചെയ്യുന്നത	-9.78816
▁വോട്ടുകള	-9.78912
▁കേന്ദ്രസര്‍ക്കാ	-9.78935
▁ആശയ	-9.7898
▁ദിവസത്തെ	-9.79022
▁റോബിന	-9.79049
▁പ്രവർത്തകര	-9.79065
▁പ്രഖ്യാപന	-9.79245
▁സംഘടിപ്പിച്ച	-9.79366
▁ധനമന്ത്രി	-9.79392
▁കാര്യമാണ്	-9.79481
▁48	-9.79503
▁കൈയ്യ	-9.79532
▁ലൈംഗിക	-9.79585
▁അശോക	-9.79586
▁അല്ലെങ്കില്‍	-9.79626
▁ആദ്യത്തെ	-9.79708
ഴുത്ത	-9.79924
▁ശര്‍മ	-9.79988
▁കൊവിഡ	-9.80021
▁അസിസ്റ്റന്റ്	-9.80024
▁ആയുധ	-9.80026
▁പുറത്തുവിട്ട	-9.80053
ബ്ബ	-9.80148
െടുക്കുന്ന	-9.80161
▁ശ്ര	-9.8021
▁ഇയാൾ	-9.80245
96	-9.80263
▁ജോര്‍ജ	-9.80316
എൽ	-9.80359
താണെന്ന്	-9.80366
▁സ്കൂള	-9.80465
▁അതുപോലെ	-9.80488
ുറപ്പ	-9.80495
▁വൈറസ	-9.80516
▁വകുപ്പിന്റെ	-9.8055
ിട്ടുണ്ടെന്ന്	-9.80621
▁കൈകാര്യം	-9.80687
ഘോഷ	-9.80688
▁ജോസഫ	-9.80691
യുടേയും	-9.80723
▁ചൊവ്വാഴ്ച	-9.80823
രൂപ	-9.80864
▁വിനോദ	-9.80919
▁43	-9.80974
▁കരുതുന്നത്	-9.80977
84	-9.80977
▁എന്നിവരെ	-9.81118
▁ക്രിക്കറ്റ	-9.81147
▁2024	-9.81176
▁കമ്മീഷന	-9.81188
▁ഇതിനായി	-9.81197
▁സൈറ്റ	-9.81202
▁വലിയൊരു	-9.81243
▁നൗ	-9.81347
▁ഇന്ത്യക്കാര	-9.8149
▁മോഹന്‍ലാല	-9.81576
▁വസ്ത്ര	-9.8158
▁ശിവസേന	-9.81592
▁രജ	-9.8167
▁ആളുകളെ	-9.81671
പ്രകാരം	-9.81676
ഫ്റ്റ	-9.81733
▁ശ്രദ്ധേയ	-9.81808
▁55	-9.8189
▁വീഴ്ച	-9.81928
▁കാലാവധി	-9.82024
▁ഇന്ധന	-9.82026
പ്പുഴ	-9.82053
പോർട്ട	-9.82121
▁അപ്രതീക്ഷിത	-9.82249
▁ചൂണ്ടിക്കാണിക്ക	-9.82249
▁വേഗത്തില	-9.82273
▁പ്രതികളെ	-9.82337
▁മോഹന	-9.82369
▁പ്രൊഫ	-9.82374
▁അമേരിക്കന്‍	-9.82384
▁രേഖകള	-9.82386
▁മേഖലയിൽ	-9.82391
▁തരത്തിലുള്ള	-9.82417
▁ബൈക്ക	-9.82461
▁കടക്ക	-9.8247
▁അംഗീകരിച്ച	-9.82474
▁തൊഴിൽ	-9.82475
▁തടവ	-9.82542
▁നടത്താന്‍	-9.82651
▁പിന്‍വലിക്ക	-9.827
▁ഫേസ്ബുക്ക	-9.82749
▁കിലോ	-9.82851
▁ശമ്പള	-9.8289
▁പൂജ	-9.82897
▁കേന്ദ്രീകരിച്ച	-9.82926
▁ധരിക്ക	-9.83059
▁ഗ്രാമപഞ്ചായത്ത	-9.83153
ിനേയും	-9.83185
▁ലാല	-9.83326
▁കരുതിയ	-9.83367
▁പ്രതികരിച്ചത്	-9.83385
▁വിദേശകാര്യ	-9.83417
ുണ്ടാക്കിയ	-9.83434
▁ഉദ്യോഗസ്ഥർ	-9.83473
▁വെബ്	-9.83478
▁മറ്റുള്ളവര	-9.83501
▁തോമസ	-9.83514
ദിവസ	-9.83519
▁ആള്‍	-9.83536
▁സൃഷ്ടിച്ച	-9.83608
പിടിക്ക	-9.83789
നേതൃത്വത്തിലുള്ള	-9.83811
ല്ലാതെ	-9.83818
▁ദിവസവും	-9.8386
▁കഴിവ	-9.83867
▁വഹിച്ച	-9.83923
▁ബുധനാഴ്ച	-9.83997
▁തൃക്കാക്കര	-9.84065
▁പരാമർശ	-9.84065
▁ഉറച്ച	-9.8416
▁പ്രകടിപ്പിച്ച	-9.84294
▁കോടിയേരി	-9.84295
▁ക്ഷേമ	-9.84298
▁നമ്പറ	-9.84338
▁കോവിഡ	-9.8435
▁സുധ	-9.84373
▁ചിത്രങ്ങള്‍	-9.84394
▁സാധിക്കില്ല	-9.8441
▁എമ്മ	-9.8442
▁സച്ചിന്‍	-9.84471
▁കാണാം	-9.84505
▁അവതരിപ്പിച്ച	-9.84524
▁തുടര്‍ച്ചയായ	-9.84524
▁പ്രവചന	-9.84524
▁44	-9.84532
▁ബാലചന്ദ്ര	-9.84536
11	-9.84562
▁ആയിരുന്ന	-9.84582
▁കാർഡ	-9.84593
▁രജിസ്	-9.84631
▁വീടുകളില	-9.84685
▁തയ്യാറാക	-9.84687
▁രൂപീകരിച്ച	-9.84755
▁വിജയൻ	-9.84884
▁അവർക്ക്	-9.84926
▁തെലങ്കാന	-9.84986
▁വിദ്യാര്‍ഥി	-9.84986
▁കേസുകൾ	-9.85028
▁പ്രതിനിധി	-9.85104
ാടന	-9.85454
▁തലത്തില്‍	-9.85475
കൂട	-9.8555
▁പുരുഷന്‍	-9.85594
▁പൗര	-9.85744
▁മുന്നറിയിപ്പ	-9.85754
04	-9.85764
▁ചെയ്യേണ്ട	-9.85827
▁വ്യക്തമാക്ക	-9.85849
▁വ്യത്യാസ	-9.85915
▁കുടുങ്ങി	-9.85935
▁ബോർഡ	-9.85963
▁കയറ	-9.85987
▁പ്രതീക്ഷിച്ച	-9.85991
▁സര്‍വേ	-9.86016
▁ബോംബ	-9.86016
▁കേള്‍ക്ക	-9.86154
▁തുടരുകയാണ്	-9.86241
ിറങ്ങിയ	-9.8626
▁പങ്കുവച്ച	-9.86384
▁മൃതദേഹ	-9.86393
▁സാധ്യതയുണ്ടെന്ന	-9.86442
74	-9.86445
18	-9.86507
97	-9.86562
▁പ്രവര്‍ത്തിച്ച	-9.86562
ദ്ധ്യ	-9.86817
▁കയറിയ	-9.86832
▁അതോറിറ്റി	-9.86853
▁ഒടുവില്‍	-9.86853
▁സൗഹൃദ	-9.86853
▁സോണ	-9.86888
▁രാജിവെച്ച	-9.86889
▁പാലിച്ച	-9.87017
േശ്വര	-9.87049
▁ഭാരത്	-9.87068
▁അധികൃതർ	-9.87088
▁നീങ്ങ	-9.87108
▁വിഷയത്തിൽ	-9.87134
▁ഇതിലൂടെ	-9.87324
ുണ്ടെങ്കില്‍	-9.87404
▁മരണപ്പെട്ട	-9.87411
▁ഉയർത്തി	-9.87539
▁ഏറ്റുമുട്ട	-9.87562
സുധാകരന	-9.87567
▁ഫോര്‍	-9.87605
▁സര്‍ക്കാരിന്	-9.87607
ുമ്പോഴും	-9.87654
▁ചെയ്യപ്പെട്ട	-9.87669
▁ഉണ്ടാക്കിയ	-9.87796
▁സംവിധായകന	-9.87799
▁താഴ	-9.87879
▁പൊട്ടി	-9.87881
യിലെത്തിയ	-9.87919
▁മുൻപ	-9.87932
▁മണിക്ക്	-9.87975
▁ജമ്മു	-9.88085
▁ദിവസങ്ങളില്‍	-9.88102
▁പറയുന്നുണ്ട്	-9.88102
േണ്ടതാണ്	-9.88337
91	-9.88382
▁മാധ്യമങ്ങള്‍	-9.8847
▁ട്വിറ്ററ	-9.88515
▁ബാറ്റ	-9.88576
▁അയക്ക	-9.8866
▁ഫോൺ	-9.88745
P	-9.88755
▁വിഷമ	-9.88842
▁പിടിച്ചെടുത്ത	-9.88858
▁കാര്‍ഷിക	-9.88996
താണെന്നും	-9.8912
▁പട്ടികയില്‍	-9.89126
▁മുട്ട	-9.8914
▁പത്രിക	-9.89148
▁ഓഹരി	-9.89239
17	-9.89292
▁വേണുഗോപാല	-9.89478
▁രൂപീകരിക്ക	-9.89479
കാരനായ	-9.89571
യ്ക്കുള്ള	-9.8962
▁ആര്‍എസ്എസ	-9.8973
▁ആക്രമിക്ക	-9.89903
▁ഒട്ടേറെ	-9.89963
▁ജഡ്ജി	-9.89967
▁സ്ത്രീകള്‍	-9.90003
▁മന്ത്രാലയ	-9.90025
▁ദിലീപിന്റെ	-9.90073
73	-9.90093
▁സൂചിപ്പിക്കുന്ന	-9.90206
ാലോ	-9.90218
▁ഉണ്ണി	-9.90226
▁കാര്യമായ	-9.9026
▁മണിയോടെ	-9.90285
▁തൃശൂര	-9.90306
▁സജ്ജ	-9.90334
▁മമ്മൂട്ടി	-9.9045
▁ഇത്തരത്തില്‍	-9.90451
▁എഎപി	-9.90452
▁സംഘടിപ്പിക്ക	-9.90456
▁തോന്നുന്ന	-9.90549
▁തെറ്റായ	-9.9055
കളായി	-9.90619
▁ഒരുമിച്ച്	-9.90708
▁ആന്‍ഡ്	-9.90718
▁ഇയാളെ	-9.90732
▁രാജീവ്	-9.90752
▁കോൺഗ്രസിന്	-9.90789
വാസികള	-9.90858
▁വൈകിട്ട	-9.90938
▁സമര്‍പ്പിക്ക	-9.9094
▁എന്‍സിപി	-9.90941
ശാന്തി	-9.90957
▁ഏജൻസി	-9.91185
▁ക്വാറന്റൈന	-9.91185
▁കാര്‍ഡ	-9.91292
▁കഴിച്ച	-9.913
▁42	-9.91305
▁ജയിക്ക	-9.91324
നുസരിച്ച്	-9.91339
▁ചുറ്റ	-9.91385
▁ഗൂഢാലോചന	-9.91432
▁ഡോക്ടർ	-9.91432
▁നമ്മൾ	-9.91433
▁എന്തായാലും	-9.91456
▁വര്‍ധിച്ച	-9.91456
59	-9.91527
▁ഇസ്രായേല	-9.91537
▁കേന്ദ്രമന്ത്രി	-9.91594
▁ലഹരി	-9.91681
▁രോഹിത്	-9.91682
▁പ്രസാദ	-9.917
▁നഷ്ടമായ	-9.9177
▁ഒഴിവുകള	-9.91792
▁തയ്യാറാക്കിയ	-9.91801
▁ധരിച്ച	-9.91991
▁കുള	-9.92048
▁സമ്മത	-9.92049
▁ഉദ്യോഗസ്ഥ	-9.92101
▁ജലീല	-9.92122
▁വിക്കറ്റ	-9.92137
▁എഴുതിയ	-9.92182
ൊരാള	-9.92226
▁വ്യക്തമല്ല	-9.92239
▁വിദേശത്ത്	-9.92314
▁തൃണമൂല്‍	-9.92374
▁പുരോഗതി	-9.92423
▁ഓട്ടോ	-9.92428
▁തടസ	-9.92439
േക്കാം	-9.92466
ാനുളള	-9.9254
▁നടന്‍	-9.92595
▁ആശുപത്രിയിലെ	-9.9265
▁അന്വേഷിച്ച	-9.92672
▁രോഗികളുടെ	-9.92679
▁ദൃശ്യങ്ങള്‍	-9.92832
െടുക്കാന	-9.9292
▁ടിവി	-9.92991
ലേഖ	-9.92995
14	-9.93021
▁ആര്യ	-9.93151
27	-9.9322
▁ഭരിക്കുന്ന	-9.93255
92	-9.93266
▁ജീവിതത്തില്‍	-9.93362
▁ഫേസ്ബുക്കില്‍	-9.93403
▁അടിസ്ഥാനത്തില്‍	-9.9346
▁കൂള്‍	-9.93476
▁തലസ്ഥാന	-9.93546
കേരള	-9.93628
▁പാർലമെന്റ	-9.93676
▁ആസ്ഥാന	-9.93705
▁സീറ്റുകൾ	-9.93762
75	-9.93767
▁പ്രക്ഷോഭ	-9.93929
▁കരാര്‍	-9.93934
▁തോറ്റ	-9.94026
▁നേഹ	-9.94045
▁താരങ്ങള	-9.94046
▁യുഡിഎഫിന്	-9.94177
ശീല	-9.94192
▁അധ്യക്ഷൻ	-9.94306
▁ഘട്ടത്തില്‍	-9.94314
▁നിങ്ങള്‍ക്ക്	-9.94376
▁ആദര	-9.94405
▁പ്രവേശിക്ക	-9.94436
ാഭ	-9.9444
▁കൈമാറിയ	-9.94455
▁നിൽക്കുന്ന	-9.94463
▁ജൂൺ	-9.94532
61	-9.94636
▁അതൃപ്തി	-9.9469
▁ഡെപ്യൂട്ടി	-9.9469
▁വിലയിരുത്തല്‍	-9.94895
പോര്‍ട്ട	-9.94907
69	-9.94942
▁ലക്ഷ്യമിടുന്ന	-9.94945
▁അനൂപ	-9.94967
▁സിദ്ദു	-9.95134
66	-9.95151
▁വര്‍ഷത്തെ	-9.95153
▁രംഗത്തെത്തി	-9.95188
▁വിമര്‍ശിച്ച	-9.95201
യോഗ്യ	-9.95228
▁കടത്ത	-9.95321
▁വോട്ടര്‍മാര	-9.95325
▁ന്യായ	-9.95368
▁പുഴ	-9.9541
g	-9.95457
▁സർട്ടിഫിക്കറ്റ	-9.95457
82	-9.95633
കൊടുക്ക	-9.95689
▁ഭേദ	-9.95709
▁ഇല്ലാതാക്ക	-9.95715
പ്റ്റ	-9.95791
▁ക്വാറ	-9.95825
▁ക്രൈംബ്രാഞ്ച	-9.95972
▁ഹൈദരാബാദ	-9.95972
ഗോവിന്ദ	-9.95972
▁ക്യാമറ	-9.95977
▁എന്നിവരുടെ	-9.95999
▁ബഹുമാന	-9.96255
▁38	-9.963
സംഘടന	-9.96464
▁വടകര	-9.96492
▁മാർച്ച്	-9.96495
98	-9.96537
▁നിങ്ങളെ	-9.96551
ുവരുന്ന	-9.96623
ാനാവില്ല	-9.96628
▁ന്യൂഡല്‍ഹി	-9.96749
▁പെരുമാറ	-9.9675
▁ഏര്‍പ്പെടുത്തിയ	-9.96761
▁അല്ലാതെ	-9.96769
▁നാടക	-9.96864
ഘാത	-9.96944
▁പ്രതിഷേധിച്ച	-9.96948
▁ഓണ്‍ലൈന്‍	-9.96982
▁ആലോചിക്ക	-9.9701
▁നിര്‍മ്മാണ	-9.97011
▁അജിത്	-9.97042
16	-9.97052
▁പ്രവർത്തനങ്ങൾ	-9.97056
▁അകത്ത	-9.97161
കളിലൂടെ	-9.97173
മാകുമെന്ന	-9.97215
▁സുരേന്ദ്രൻ	-9.97271
▁സഞ്ചാര	-9.97284
▁ബഹു	-9.97286
▁ലോകകപ്പ	-9.973
▁ഇസ്രായേല്‍	-9.97421
ർത്ഥ	-9.97452
▁സൈന്യം	-9.97533
▁അതിഥി	-9.97534
▁ജയിലില്‍	-9.97539
ാണെങ്കിലും	-9.97554
ാക്രമണ	-9.97583
31	-9.97779
▁അതിക്രമ	-9.9784
▁കസ്റ്റഡിയില	-9.9786
▁എന്തെങ്കില	-9.97868
▁സംവരണ	-9.97909
▁ലംഘിച്ച	-9.98058
▁തിരിച്ചറിഞ്ഞ	-9.98078
▁പലപ്പോഴും	-9.98119
▁കൊടി	-9.98146
▁മൊബൈല്‍	-9.98322
▁രാഷ്ട്രപതി	-9.98322
▁ആസ്തി	-9.98356
▁2014	-9.98361
▁ഏർപ്പെടുത്ത	-9.98408
▁വൃത്തങ്ങ	-9.9863
ല്ലെന്ന്	-9.98652
▁പ്രതിദിന	-9.98709
ായാലും	-9.98723
▁ബെഞ്ച	-9.98731
▁കോണ്‍ഗ്രസിനെ	-9.98907
▁പേജ	-9.98997
ഉ	-9.99113
▁ജനസംഖ്യ	-9.99118
▁നമ്പര്‍	-9.99131
െന്നുമാണ്	-9.99217
▁പരീക്ഷണ	-9.99347
▁കെജ്രിവാള	-9.99385
▁ദുബായ്	-9.99385
▁ഉൾപ്പെടുത്ത	-9.99411
▁ഉദ്യോഗസ്ഥന	-9.99464
സഹായ	-9.99469
▁സന്ദര്‍ശന	-9.9992
▁അവതരിപ്പിക്ക	-9.99921
▁പരസ്യമായി	-9.99922
▁അതായത്	-9.99928
76	-10.0001
▁വഹിക്ക	-10.0005
▁മറിച്ച	-10.0008
▁തൃശൂർ	-10.0019
▁ആദ്മി	-10.0019
78	-10.0023
▁അല്ലെങ്കിൽ	-10.0025
▁യോഗത്തിൽ	-10.0032
▁വിവരങ്ങള	-10.0035
▁വര്‍ധിപ്പിക്ക	-10.0036
രഹിത	-10.0039
▁നന്നായി	-10.0044
ശുദ്ധ	-10.0044
സാന്നിധ്യ	-10.0045
▁ഇറക്കുമതി	-10.0046
▁പ്രവചിക്ക	-10.0046
▁പൂര്‍ണമായും	-10.0046
▁നിയന്ത്രണങ്ങള്‍	-10.0047
▁പരിസര	-10.0047
▁രക്ഷിക്ക	-10.0078
89	-10.008
▁കേരളത്തില	-10.008
▁മുരളീധരന്‍	-10.009
▁പ്രധാനപ്പെട്ട	-10.0093
▁ആന്ധ്ര	-10.01
▁വൈറലായ	-10.01
▁നേരിടേണ്ടി	-10.0106
▁സ്ഥാനത്തേക്ക്	-10.0107
▁ചെയര്‍മാന്‍	-10.0117
▁കളിച്ച	-10.0125
▁മത്സരാർത്ഥി	-10.0127
▁ക്യാപ്റ്റന	-10.0128
▁ഡാറ്റ	-10.0137
ഛ	-10.0154
▁ധോണി	-10.0154
വരേയും	-10.0158
▁പുറത്തിറക്കിയ	-10.0169
▁അവകാശപ്പെട്ട	-10.0176
▁ഹാജരാക	-10.0181
കേന്ദ്ര	-10.0182
▁കൊണ്ടുപോക	-10.0183
▁ഡയറക്ടര്‍	-10.0209
▁നിലനിര്‍ത്ത	-10.0209
▁ആനന്ദ	-10.021
▁അതിജീവിത	-10.021
▁ലക്ഷ്യമിട്ട	-10.0212
ിലുണ്ടായിരുന്ന	-10.0219
▁വീട്ടിലേക്ക്	-10.0225
▁എപ്പോഴും	-10.023
▁ഗുരു	-10.023
81	-10.0233
▁ഇതെല്ലാം	-10.0236
▁റെയില്‍വേ	-10.0264
▁സമ്പത്ത	-10.0264
▁നീട്ടി	-10.0278
▁സ്വാഗത	-10.0292
▁വീതവും	-10.0292
▁കുവൈത്ത	-10.0295
രംഗത്ത	-10.0298
▁നമ്മള	-10.0312
▁പരിഷ്	-10.0319
▁എറണാകുളത്ത	-10.0319
▁തകര്‍ക്ക	-10.032
▁ഇക്കുറി	-10.032
ാനാകില്ല	-10.0323
▁മോഷണ	-10.0325
▁പേരില	-10.0326
സംഘ	-10.0327
▁കാണാന	-10.0332
87	-10.0346
▁ഹരിയാന	-10.0347
▁സതീശന്‍	-10.0347
▁ദുരിത	-10.0348
വേദന	-10.0351
▁മധു	-10.0358
▁അടിസ്ഥാനത്തിലാണ	-10.0361
▁സംഘർഷ	-10.0375
▁ദൂര	-10.038
▁മണ്ഡലത്തിലെ	-10.0389
▁നാഗ	-10.0397
▁സൂക്ഷിക്ക	-10.0403
▁ജാമ്യ	-10.0403
ാര്‍ഥ	-10.0409
▁പത്മ	-10.0413
▁വകുപ്പുകള	-10.0429
▁ഭർത്താവ	-10.0431
▁മുഖേന	-10.0432
▁മണിപ്പൂര	-10.0435
പറഞ്ഞ	-10.0456
▁യുകെ	-10.0475
▁പരാജയപ്പെടുത്ത	-10.0479
▁ജനകീയ	-10.0487
▁പേടി	-10.0489
▁വയസ്സുള്ള	-10.049
▁വേഗത	-10.0505
വിഭാഗ	-10.0515
▁സംഭാവന	-10.0516
▁എതിര്‍പ്പ	-10.0517
▁ചേർത്ത	-10.0525
▁ഇല്ലാതെ	-10.0528
▁വലിച്ച	-10.0535
▁ഉണ്ടായിരിക്ക	-10.0542
ക്കൊപ്പമ	-10.0563
▁മണിക്കുട്ടന	-10.0572
▁സാധാരണക്കാര	-10.0583
▁അമരീന്ദ	-10.0601
▁ഇടതുമുന്നണി	-10.0601
86	-10.0614
▁റിപ്പോർട്ടുകൾ	-10.0619
▁ഡിസിസി	-10.063
▁സഹിതം	-10.063
▁ശുഭ	-10.0632
▁അതിർത്തി	-10.0633
രേഖ	-10.064
▁ചൂട	-10.0643
▁പഞ്ചായത്തുകള	-10.0644
ബോധ	-10.0652
▁മയക്കുമരുന്ന	-10.0658
▁വ്യോമ	-10.0658
▁നിർബന്ധ	-10.0662
▁സ്വർണ്ണ	-10.0664
▁നയിച്ച	-10.0667
ിട്ടില്ലെന്ന്	-10.0668
▁ഇരുന്ന	-10.0682
▁ഷൂട്ട	-10.0689
▁വാര്‍ത്തകള്‍	-10.0707
▁ലക്ഷ്മി	-10.0716
▁കൊലപ്പെടുത്തിയ	-10.0745
▁സന്ദീപ	-10.0746
▁വിദ്യാർത്ഥി	-10.0766
▁പൂർണ്ണ	-10.0774
▁വിപുല	-10.0776
▁സ്വഭാവ	-10.0779
▁രക്ഷപ്പെട	-10.0788
ീരിയ	-10.0798
M	-10.0803
▁അബുദാബി	-10.0803
▁മുദ്രാവാക്യ	-10.0803
▁സംയുക്ത	-10.0803
▁പ്രകോപ	-10.0804
▁അതീവ	-10.0804
▁ജെഡിയു	-10.0815
▁യഥാര്‍ത്ഥ	-10.0832
▁തകര്‍ത്ത	-10.0832
▁ആവേശ	-10.0832
▁വ്യക്തിപരമായ	-10.0843
▁മോഡല	-10.086
01	-10.0863
▁പ്രളയ	-10.0866
▁കമല്‍നാഥ	-10.089
▁ഇളവ്	-10.0898
▁ധര്‍മ	-10.0904
▁കപ്പല	-10.0915
▁മിഥുന	-10.092
▁മത്സരിപ്പിക്ക	-10.0922
▁ബാലകൃഷ്ണ	-10.0923
വസ്തുക്കള	-10.0926
▁കച്ചവട	-10.0949
▁പടിഞ്ഞാറ	-10.0949
▁ബീഹാറ	-10.0949
▁ബോട്ട	-10.0967
▁എംപിമാര	-10.0969
▁ശരിക്കും	-10.0972
▁ദുരിതാശ്വാസ	-10.0979
▁ഡൗണ്‍	-10.0979
▁പുസ്തക	-10.0979
▁ആൻഡ്	-10.0981
▁എന്തുകൊണ്ട്	-10.0986
▁ശരിയായ	-10.0987
▁സുരേഷ	-10.0995
ാരോഗ്യ	-10.1005
▁സുപ്രധാന	-10.1008
▁സീനിയര്‍	-10.1008
▁ഓഗസ്റ്റ്	-10.1008
▁രോഗബാധ	-10.1012
▁ടെലി	-10.1016
▁ഈടാക്ക	-10.1018
▁ജന്മ	-10.1022
▁കായിക	-10.1023
▁ഹൈക്കമാന്‍ഡ	-10.1038
▁തമ്മിൽ	-10.1039
▁വീട്ടുകാര	-10.104
▁സുഖ	-10.104
യുടേത	-10.1043
ന്വേഷണ	-10.1068
▁ഡിസംബര്‍	-10.1068
▁സത്യപ്രതിജ്ഞ	-10.1068
▁വൈകീട്ട്	-10.1068
▁തരത്തില	-10.1069
▁പഠിച്ച	-10.107
▁സ്വദേശികളായ	-10.1076
▁താത്പര്യ	-10.1098
▁ആഗസ്റ്റ്	-10.1098
▁പക്ഷത്ത	-10.113
ശേഷി	-10.1136
ുടേ	-10.1152
▁ഹോട്ട്	-10.1157
▁തിരഞ്ഞെടുത്ത	-10.1158
▁സംരംഭ	-10.1158
▁മഞ്ജു	-10.1161
▁അരുണ	-10.1163
ൊപ്പം	-10.1164
▁വിശ്വസിക്കുന്ന	-10.1188
▁ഉള്‍പ്പടെ	-10.1188
▁പ്രചരിപ്പിക്ക	-10.1188
▁നിലവിലുള്ള	-10.1188
▁കാണാതായ	-10.1191
▁അശ്വ	-10.1215
▁സമർപ്പിച്ച	-10.1219
▁പോളിംഗ്	-10.1219
▁ഡോളര്‍	-10.1219
▁ലക്ഷദ്വീപ	-10.1249
▁യൂണിവേഴ്	-10.128
▁വിശേഷ	-10.1281
▁ടെസ്റ്റ	-10.1289
നടപടി	-10.1291
ാവുന്നതാണ്	-10.1295
▁വിദ്യാർത്ഥികൾ	-10.13
ചന്ദ്ര	-10.1304
തുപോലെ	-10.1308
▁ഗെയിം	-10.131
▁നിർണായക	-10.131
▁അഫ്ഗാന	-10.131
▁പുറപ്പെടുവിച്ച	-10.131
ിനോട	-10.131
▁സൈന്യത്ത	-10.131
▁ഖത്തറ	-10.1315
▁നേതാവായ	-10.1339
▁സന്ദര്‍ശിച്ച	-10.1341
▁ഇസ്ലാമ	-10.1341
▁കർശന	-10.1341
▁ഒറ്റപ്പെട്ട	-10.1367
▁നാലാം	-10.1368
▁ബന്ധപ്പെട	-10.1371
▁വക്താവ്	-10.1372
▁പ്രശസ്ത	-10.1372
▁നിശ്ചയിച്ച	-10.1372
79	-10.1373
▁രോഗബാധിതര	-10.1373
▁പോരാട	-10.1374
▁വയനാട്ടില	-10.1376
ങ	-10.1376
▁നിന്നെത്തിയ	-10.1384
▁ശൈലജ	-10.1402
▁മഹാമാരി	-10.1402
▁വിശ്വസിക്ക	-10.1406
▁പിടിയിലായ	-10.1414
▁വാടക	-10.1414
▁ലിസ്റ്റ	-10.1451
▁കമ്മീഷൻ	-10.1464
▁കുടിയേറ്റ	-10.1464
▁ദൈവ	-10.1465
▁പട്ടേല	-10.1465
▁സൈബര്‍	-10.1467
▁ആരോഗ്യമന്ത്രി	-10.1475
▁പ്രവര്‍ത്തകന	-10.1475
▁വിമാനത്താവളത്ത	-10.1482
▁അധികൃതര	-10.1484
▁ഭവന	-10.1487
▁അതുകൊണ്ടാണ്	-10.1496
▁ദുബായില	-10.1504
▁കേന്ദ്രസർക്കാർ	-10.1527
▁ക്രിമിനല	-10.1527
▁എല്ലാവര്‍ക്കും	-10.1527
സംസ്ഥാന	-10.1542
▁ഇതൊക്കെ	-10.1553
▁അക്കാദമി	-10.1558
▁പീഡിപ്പിച്ച	-10.1558
▁കല്യാണ	-10.1559
▁സഞ്ജു	-10.1561
▁സ്വര്‍ണവില	-10.1563
ിരിക്കുകയാണെന്ന	-10.1563
▁സംഗീത	-10.1564
▁സഹായിച്ച	-10.1567
▁ലാബ	-10.1581
ിന്റേയും	-10.1587
▁ആനുകൂല്യ	-10.159
▁ഇതിനോടകം	-10.159
▁വിശദീകരിച്ച	-10.159
▁ഗെലോട്ട	-10.159
▁പരിഹസിച്ച	-10.159
▁ഉളള	-10.159
▁നടപടിയെടുക്ക	-10.1591
▁പ്രവർത്തിച്ച	-10.1594
▁ബാനര്‍ജി	-10.1621
▁ഉറവിടം	-10.1621
▁സൂക്ഷിച്ച	-10.1621
▁ഭീതി	-10.1621
▁ലീഡ്	-10.1622
▁ഡോക്ടറ	-10.1626
▁പൊളിച്ച	-10.1648
▁ജില്ലകളിലും	-10.1657
കൊടുത്ത	-10.1666
ാവശ്യ	-10.1677
R	-10.1685
▁ചോദിക്കുന്നു	-10.1699
▁ശക്തിപ്പെടുത്ത	-10.1701
▁രാജേഷ്	-10.1704
അദ്ദേഹ	-10.1719
▁ശേഖരിച്ച	-10.1721
▁ശത്രു	-10.1723
▁തിരിച്ചുവര	-10.173
▁ചുമത്തിയ	-10.1746
▁വര്‍ക്ക	-10.1747
▁ദൗത്യ	-10.1748
▁ലംഘന	-10.1748
▁അതിവേഗ	-10.1748
▁സിവില്‍	-10.1758
▁അപേക്ഷിക്കാം	-10.178
▁യൂണിയന	-10.1781
▁പൈസ	-10.1785
▁ഉദ്യോഗാര്‍ത്ഥി	-10.1813
▁ഡയറക്ടറ	-10.1813
▁നിഷേധിച്ച	-10.1813
▁ഉദ്ധരിച്ച	-10.1813
യിടങ്ങള	-10.1814
▁മണിക്കൂറിനിടെ	-10.1814
▁പ്രസിഡണ്ട	-10.1845
▁പിന്തുടര	-10.1845
▁ആസാദ	-10.185
▁കോണ്‍ഗ്രസിന	-10.1853
▁രക്ഷപ്പെട്ട	-10.1866
▁സ്വാഭാവിക	-10.1877
▁തോല്‍വി	-10.1877
▁നിയോഗിച്ച	-10.1878
▁കുട്ടികളുടെ	-10.1881
▁ഡിവിഷന	-10.1886
▁മെട്രോ	-10.1905
▁സര്‍ക്കാറ	-10.191
▁രജിസ്റ്റർ	-10.191
▁ഇത്തരത്തിൽ	-10.191
▁അധികാരത്തിലെത്ത	-10.1914
▁അടക്കമുളള	-10.1942
▁മാത്യു	-10.1946
ുമോയെന്ന	-10.1952
▁കാണിക്കുന്ന	-10.1961
▁സമ്മതിച്ച	-10.1967
▁ഖത്തര്‍	-10.1976
▁ലഭിക്കുമെന്ന	-10.2006
▁ഉച്ചയ്ക്ക്	-10.2008
▁പ്രിയപ്പെട്ട	-10.2008
ുകയാണെങ്കില്‍	-10.2015
▁വീട്ടിലെത്തി	-10.2021
▁ഇരുപത	-10.2024
▁മിശ്ര	-10.2041
▁ജ്യോതിഷ	-10.2073
▁ദേവസ്വം	-10.2074
▁കളക്ടർ	-10.2074
▁ഇയാളുടെ	-10.2074
▁യെല്ലോ	-10.2074
ക്കണക്കിന	-10.2075
▁കിടന്ന	-10.2088
y	-10.2107
േക്കാൾ	-10.2108
▁കോട്ടയത്ത	-10.2129
▁കാസര്‍കോട്	-10.214
▁തെളിഞ്ഞ	-10.214
▁നിരാശ	-10.214
▁മാധ്യമങ്ങളോട്	-10.2151
▁മറികടക്ക	-10.2173
▁നിലനില്‍ക്കുന്ന	-10.2186
▁ഉത്തരവിട്ട	-10.2188
മോഹൻ	-10.2195
▁ഇപ്പോഴിതാ	-10.2207
▁മാതാപിതാക്കള	-10.2207
▁വിദ്വേഷ	-10.2207
▁സമർപ്പിക്ക	-10.2207
▁മൂലമ	-10.2215
ിന്റേത	-10.2219
▁ദിവസങ്ങളില	-10.2238
▁സഞ്ചരിക്ക	-10.224
▁തുല്യ	-10.2253
▁കണ്‍ട്രോള്‍	-10.2274
▁ലോക്ക്ഡൗണ	-10.2274
▁മാലിന്യ	-10.2274
▁അദാനി	-10.2275
▁സൂരജ	-10.2277
▁ഉപരോധ	-10.2279
▁മികവ	-10.2295
▁ഡിവൈഎഫ്	-10.2308
▁ശരാശരി	-10.2308
▁അധിക്ഷേപ	-10.2308
▁പുലര്‍ത്ത	-10.2308
▁മൃഗ	-10.2308
▁നടത്താന	-10.2313
ാവശ്യപ്പെട്ട	-10.2315
കീഴ	-10.2323
▁ഏപ്രിൽ	-10.2342
▁പുതുപ്പള്ളി	-10.2345
▁രാജേന്ദ്ര	-10.2348
▁സ്റ്റേറ്റ്	-10.2352
▁നിലവാര	-10.2352
സമിതി	-10.2365
ശേഷം	-10.2369
▁പ്രവാസികള	-10.2372
T	-10.2376
▁അഭ്യൂഹ	-10.2376
▁ജനപ്രതിനിധി	-10.2376
▁പ്രോസിക്യൂഷന	-10.2376
▁വകഭേദ	-10.2376
ാരംഭ	-10.2377
▁മഴയ്ക്ക	-10.238
▁ചെയ്യണമെന്ന	-10.2397
▁ഉള്‍പ്പെടുന്ന	-10.2399
▁അനധികൃത	-10.241
▁ഡീസല	-10.241
▁ഗണേഷ്	-10.241
▁തുടർച്ചയായ	-10.241
▁2015	-10.2416
▁സഹകരിക്ക	-10.2418
ിട്ടുണ്ടോ	-10.2436
▁തലശേരി	-10.2444
ിനിടെ	-10.2444
▁ഇതിനകം	-10.245
▁വളര്‍ച്ച	-10.2452
ശാസ്ത്ര	-10.2467
▁ചിന്തിക്ക	-10.247
▁തിരച്ചില	-10.2473
▁ഉപേക്ഷിച്ച	-10.2478
▁കാസർഗോഡ്	-10.2478
▁നവംബര്‍	-10.2478
▁വേഗം	-10.248
▁അനാവശ്യ	-10.2481
മാത്ര	-10.2497
സെന്റ	-10.2504
▁അറിവ	-10.2539
▁വര്‍ഗീയ	-10.2582
▁സുധാകരൻ	-10.2582
▁ബിഎസ്പി	-10.2582
▁ദളിത്	-10.2583
▁അഖിൽ	-10.2583
ുണ്ടെങ്കിൽ	-10.2586
▁ചൊവ്വ	-10.2596
▁യഥാർത്ഥ	-10.2617
▁ഏഷ്യാനെറ്റ	-10.2617
▁നഴ്സ	-10.2626
ചിത്ര	-10.264
▁വിമർശിച്ച	-10.2652
▁കിരീട	-10.2652
ദ്രോഹ	-10.2653
▁ഐസക്	-10.2682
▁അഹമ്മദ്	-10.2687
▁കുറ്റകൃത്യ	-10.2687
▁നശിപ്പിക്ക	-10.2688
▁ഉപദേശ	-10.2694
▁മറന്ന	-10.2696
▁അമിത	-10.2702
വ്യാപന	-10.2712
▁ആദിവാസി	-10.2723
▁അപമാനിക്ക	-10.2723
▁കസ്റ്റഡിയിലെടു	-10.2785
▁സ്പീക്കര്‍	-10.2793
▁പോലീസുകാര	-10.2797
▁2011	-10.2799
▁നാട്ടിലേക്ക്	-10.2801
▁തമ്മില	-10.2825
ടങ്ങുന്ന	-10.2827
▁പുലര്‍ച്ചെ	-10.2829
▁എംബസി	-10.2829
െക്കുറിച്ചും	-10.2843
കുമാരി	-10.2855
D	-10.2864
▁ചൂണ്ടിക്കാണിച്ച	-10.2864
▁ഉദ്ഘാടന	-10.2868
▁തുടർ	-10.2892
▁കുതിച്ച	-10.29
ുള്‍പ്പെടെ	-10.29
▁ശിശു	-10.29
▁പകുതി	-10.2901
▁പലിശ	-10.2902
▁രാമചന്ദ്രന	-10.2902
▁പുറപ്പെട	-10.2907
▁മജിസ്	-10.2928
▁ചലച്ചിത്ര	-10.2936
▁റിക്രൂട്ട്	-10.2936
▁പ്രകൃതി	-10.2937
▁കേൾക്ക	-10.2937
▁അളവ	-10.2938
▁കൊണ്ടുപോയ	-10.2941
▁ബിന്ദു	-10.2945
▁ബിജു	-10.2951
ൊന്നുമില്ല	-10.2958
▁തയ്യാറാവ	-10.2964
▁അരവിന്ദ്	-10.2972
▁ഗവർണർ	-10.2972
▁മറികടന്ന	-10.2972
▁ലൈഫ്	-10.2972
▁സർക്കാറ	-10.2973
▁ലോകാരോഗ്യ	-10.2976
മന്ത്ര	-10.299
▁നേതൃ	-10.3008
▁അത്ഭുത	-10.3008
▁റെക്കോര്‍ഡ	-10.3009
▁ബിസിനസ	-10.3021
▁വേണ്ടെന്ന	-10.3034
▁പോസിറ്റിവിറ്റി	-10.3045
▁വെറുതെ	-10.3045
▁ഡ്യൂട്ടി	-10.3045
▁പെരുമാറ്റ	-10.3048
▁സഹായത്തോടെ	-10.3056
▁ഒഴിഞ്ഞ	-10.3059
ആക്രമിക്കപ്പെട്ട	-10.3061
▁വിദ്യാർത്ഥികള	-10.3067
▁മനോരമ	-10.3081
▁സൂചിപ്പിച്ച	-10.3081
▁നിർമ്മാണ	-10.3081
▁ലൈന്‍	-10.3084
▁അറിയിപ്പ	-10.3094
▁ദീര്‍ഘ	-10.3118
▁ഡയറക്ടർ	-10.3118
▁പൂർണമായ	-10.3118
▁സന്നദ്ധ	-10.3118
▁കേസെടുക്ക	-10.3125
▁വർഗീയ	-10.3155
▁ധൈര്യ	-10.3155
▁അഖിലേഷ്	-10.316
ിൻറെ	-10.3167
▁ബ്രിട്ടന	-10.3169
▁ബുധന	-10.3183
▁പാര്‍ക്ക	-10.3185
▁മത്സ്യ	-10.3192
▁ഗവേഷണ	-10.3192
▁പിന്നിൽ	-10.3193
▁ഭാരവാഹി	-10.3221
▁നയതന്ത്ര	-10.3229
▁ഫയല	-10.3229
▁ഇടിവ	-10.3241
▁കൃത്യ	-10.3246
▁ശസ്ത്രക്രിയ	-10.3266
▁ശാരീരിക	-10.3266
▁അക്കാര്യ	-10.3269
രാജ്യങ്ങള	-10.327
▁അർഹ	-10.327
▁ആഹ്വാനം	-10.3303
▁പ്രവേശിച്ച	-10.3303
▁ഇടവേള	-10.3303
▁അകലം	-10.3303
▁മറക്ക	-10.3308
▁ഉദയ	-10.3311
▁സേവ	-10.333
▁പുറത്തുവരുന്ന	-10.3334
ാനാവില്ലെന്ന	-10.3338
▁ധാരാളം	-10.3341
▁എന്തുകൊണ്ടാണ്	-10.3341
▁വഴങ്ങ	-10.335
▁പവന്‍	-10.3362
▁ഉറപ്പുവരുത്ത	-10.3378
▁ബാധ്യത	-10.3378
▁വലുത	-10.3381
▁ഹേമ	-10.3382
▁ഒരാഴ്ച	-10.339
▁ചുമത്ത	-10.3392
E	-10.3416
ഡബ്ല്യു	-10.3416
▁അജയ്	-10.3418
▁വര്‍ധനവ	-10.342
▁തയാറ	-10.342
ിനൊപ്പമ	-10.3424
ഗിരി	-10.3445
▁ഒടുവിൽ	-10.3454
▁കഥാപാത്ര	-10.3454
▁ചലഞ്ച	-10.3492
▁നല്‍കണമെന്ന	-10.3506
▁പൂര്‍ത്തിയായ	-10.353
▁അയാൾ	-10.353
▁വസതി	-10.3532
▁അനുബന്ധ	-10.3538
▁ചികിത്സയിലുള്ളത	-10.3548
▁ഓര്‍മ	-10.3549
കുഞ്ഞാലിക്കുട്ടി	-10.3568
നാഷണൽ	-10.3568
▁തകർന്ന	-10.3568
▁കേവല	-10.3569
ൂവെന്ന	-10.3574
▁ജയിലില	-10.3594
▁ഗാസ	-10.3601
സമ്മേളന	-10.3602
▁സർവ്വേ	-10.3607
▁സഞ്ചരിച്ച	-10.3607
▁ആശുപത്രിയിലേക്ക	-10.3613
▁പ്രവര്‍ത്തി	-10.3615
▁ഉമ്മന്‍ചാണ്ടി	-10.3645
▁സിദ്ദിഖ	-10.3645
▁റിനോഷ	-10.3646
▁ഓഫിസ	-10.3647
▁വീഴ്ത്ത	-10.3656
▁ദക്ഷിണ	-10.3684
േട്ടന	-10.3694
▁ബന്ധമുണ്ട	-10.3702
ടക്കമുള്ള	-10.3703
▁പിന്നീട	-10.3707
▁ആദിത്യനാഥ	-10.3723
▁നഷ്ടപരിഹാര	-10.3723
▁വിശദീകരിക്ക	-10.3723
▁പാക്കേജ	-10.3727
ാധികാര	-10.3757
▁ഉത്തരാഖണ്ഡ	-10.3762
▁ദ്വീപ	-10.3762
▁അയോധ്യ	-10.3762
▁അസുഖ	-10.3802
▁വില്‍ക്ക	-10.3818
▁റ്റേഷന	-10.3823
▁ചെലുത്ത	-10.3841
▁നടക്കാനിരിക്ക	-10.3878
▁വിദ്യാർഥി	-10.388
▁പരിഹാസ	-10.388
▁ഏര്‍പ്പെടുത്ത	-10.3881
▁പിറന്ന	-10.3882
▁പ്രതിനിധികള	-10.39
B	-10.392
▁സംഭാഷണ	-10.392
▁രവീന്ദ്ര	-10.392
▁പ്ലാറ്റ്	-10.392
▁അഭയ	-10.3927
▁നേതാവുമായ	-10.3945
▁ഒക്ടോബര്‍	-10.396
▁ഉടനെ	-10.396
▁ബുദ്ധി	-10.396
▁പുലർത്ത	-10.396
▁സെക്രട്ടറിയേറ്റ	-10.3966
▁പക്ഷം	-10.397
▁സജ്ജമാക്ക	-10.3982
▁അസോസിയേഷന	-10.4
▁ജലനിരപ്പ്	-10.4
▁തേജസ്വി	-10.4
▁അത്തരമൊര	-10.4007
ണമെങ്കില്‍	-10.4013
▁മുടക്ക	-10.4017
▁ഗള്‍ഫ്	-10.404
കണ്ഠ	-10.404
▁എല്ലാവർക്കും	-10.404
▁സാധിക്കുമെന്ന	-10.4054
▁കണക്കിലെടുത്ത്	-10.408
▁രാധാകൃഷ്ണന	-10.408
▁പ്രത്യക്ഷ	-10.408
▁വൃത്തി	-10.4081
സര്‍ട്ടിഫിക്കറ്റ	-10.4085
▁സന്ദർശന	-10.4121
▁സ്ഥിരീകരിക്ക	-10.4121
▁ഉൾപ്പെടുന്ന	-10.4121
▁ബിഹാറ	-10.4122
▁പിന്നിട്ട	-10.4123
▁രഞ്ജി	-10.4146
▁ഡിസംബർ	-10.4161
▁ലിമിറ്റഡ	-10.4161
▁ബൈജു	-10.4161
▁പ്രവചിച്ച	-10.4161
▁ഗൃഹ	-10.4162
▁സമാജ്	-10.4162
▁വരാനിരിക്കുന്ന	-10.4163
▁അലർട്ട	-10.4166
▁ഉപമുഖ്യമന്ത്രി	-10.4202
▁നിശ്ചിത	-10.4202
▁നിലനിർത്ത	-10.4203
▁എഡിറ്റ	-10.4207
സതീശന	-10.4211
▁ട്വീറ്റ	-10.4234
▁താല്‍ക്കാലിക	-10.4243
▁നരേന്ദ്രമോദി	-10.4243
▁വായിക്കാം	-10.4243
▁ചൗഹാന	-10.4243
▁മണിക്കൂര്‍	-10.4243
▁മലപ്പുറത്ത	-10.4244
▁അടിസ്ഥാനമാക്കി	-10.4245
▁കുറേ	-10.4246
▁കളക്ടറ	-10.4247
▁ഗ്രൂപ്പുകള	-10.4265
▁കൊല്‍ക്കത്ത	-10.4284
▁സൈബർ	-10.4284
▁കാർഷിക	-10.4326
▁അത്യാവശ്യ	-10.4326
▁കുടുംബാംഗങ്ങള	-10.4326
▁മുടങ്ങ	-10.4334
▁അന്തരീക്ഷ	-10.4367
▁മലയോര	-10.4367
▁ഫോടന	-10.4369
▁ആകാശ	-10.4371
▁ഏതാന	-10.4372
▁നായകന	-10.4393
▁സ്വന്തമായി	-10.4396
▁വഴക്ക	-10.4407
▁ആലോചിച്ച	-10.4409
▁മീറ്റര്‍	-10.4409
▁പബ്ലിക്	-10.4409
▁ലുലു	-10.4409
▁ചൗധരി	-10.4451
▁മൊബൈൽ	-10.4451
▁കലക്ടര്‍	-10.4451
▁വാക്കുകൾ	-10.4452
▁പ്രകടിപ്പിക്ക	-10.4493
▁ഫൈനല	-10.4512
▁ആസൂത്രണ	-10.4535
▁ഐപിഎല്ല	-10.4535
▁അഗ്നി	-10.4537
▁ടൗണ	-10.4545
▁പവന്	-10.4553
ാണല്ലോ	-10.457
▁ഐശ്വര്യ	-10.4577
▁ചുഴലിക്കാറ്റ	-10.4577
▁തൃശ്ശൂര	-10.4577
▁പ്രവേശിപ്പിക്ക	-10.4577
▁ഡിജിപി	-10.4577
▁തീരുമാനമെടുക്ക	-10.4577
▁പ്രചരിക്കുന്ന	-10.4578
▁ഇറ്റലി	-10.4578
ിപ്പിക്കുക	-10.4602
▁ലക്ഷണങ്ങള	-10.4608
ായിരിക്കുമെന്ന	-10.4615
▁യൂറോപ്പ	-10.462
▁ഡിഎംകെ	-10.462
▁റെഡ്ഡി	-10.462
▁സമ്പദ്	-10.462
▁മകൻ	-10.4628
▁വേണമെങ്കി	-10.465
v	-10.4663
▁നിരീക്ഷിക്ക	-10.4663
▁റിപ്പബ്ലിക്	-10.4663
▁എന്നിവിടങ്ങളിൽ	-10.4663
▁റെയിൽവേ	-10.4663
▁സാന്നിധ്യം	-10.4664
▁ജെഡിഎസ	-10.4666
ുകൊണ്ടിരിക്കുന്ന	-10.4677
▁കാറ്റിന	-10.4699
▁പിന്‍വലിച്ച	-10.4705
▁ഉദാഹരണ	-10.4749
▁ഓറഞ്ച്	-10.4749
▁കമ്മ്യൂണിസ്റ്റ	-10.4749
▁സര്‍വകലാശാല	-10.4749
▁രാശിക്കാർക്ക്	-10.4749
▁താക്കറെ	-10.4749
▁ശ്രീലങ്ക	-10.4749
ുണ്ടാക്കുന്ന	-10.4755
▁വില്‍പ്പന	-10.4792
▁ഓണ്‍ലൈന	-10.4796
▁വാര്‍ഡുകള	-10.4803
ുൾപ്പെടെ	-10.4835
▁ഉപകരണങ്ങള	-10.4837
▁നമ്പർ	-10.4837
ഈ	-10.4842
▁കയറ്റി	-10.4863
k	-10.4879
▁അടിയന്തിര	-10.4879
▁എസ്ഡിപിഐ	-10.4879
▁പ്രസിഡന്‍റ	-10.4879
▁സ്കൂൾ	-10.4879
▁സഞ്ജയ്	-10.4879
▁പൗരന്മാര	-10.4882
▁രണ്ടാമത	-10.4884
▁ശേഖരിക്ക	-10.4898
f	-10.4923
▁ആഡംബര	-10.4923
▁സതീശൻ	-10.4923
▁സ്ഥാനാർഥി	-10.4923
▁ഹാജരായ	-10.4923
▁മനോജ്	-10.4923
▁മീറ്റർ	-10.4923
▁ബിഷപ്പ	-10.493
▁നിലനില്‍ക്ക	-10.4951
▁അസ്വസ്ഥ	-10.4967
▁ബംഗാൾ	-10.4967
▁സ്വര്‍ണക്കടത്ത	-10.4968
▁ചികിത്സയിലായിര	-10.4969
▁താങ്കള	-10.4977
തിനിടയിൽ	-10.4985
▁കുംഭ	-10.499
▁ന്യൂഡൽഹി	-10.5011
▁നവംബർ	-10.5011
▁വിഭജന	-10.5011
▁ക്രമീകരണ	-10.5011
▁തകർക്ക	-10.5011
▁നമുക്ക	-10.5026
ാനാവും	-10.5028
▁അവലോകന	-10.5056
▁എഐസിസി	-10.5056
▁തുറമുഖ	-10.5056
▁മതേതര	-10.5056
ാത്മക	-10.5057
ഇന്ത്യ	-10.5065
▁സുന്ദര	-10.507
▁ട്രേഡ	-10.5074
▁ഹിന്ദി	-10.5101
▁എങ്കില്‍	-10.5102
▁ജുഡീഷ്യ	-10.5145
▁ബലാത്സംഗ	-10.5145
▁പിൻവലിക്ക	-10.5145
▁സൂപ്രണ്ട	-10.5145
▁വർധിച്ച	-10.5145
▁എഞ്ചിന	-10.5154
ായുധ	-10.5163
▁റാവത്ത	-10.5176
ിക്കൊണ്ടിരിക്ക	-10.521
▁ആധുനിക	-10.5235
▁ആര്‍ജെഡി	-10.5235
▁താഴ്ന്ന	-10.5236
▁രക്ഷാപ്രവര്‍ത്ത	-10.5236
▁വില്ലേജ	-10.524
▁ഇലക്ട്ര	-10.5278
▁ബ്രിട്ടീഷ്	-10.5281
▁പ്രയോജന	-10.5281
▁പൊട്ടിത്തെറി	-10.5281
▁അജണ്ട	-10.5282
▁ഡിംപല	-10.5283
▁കൊട്ടാരക്കര	-10.5327
▁ചെയർമാൻ	-10.5327
▁എതിർപ്പ	-10.5327
▁ട്രേലിയ	-10.5327
▁ദമ്പതികള	-10.5327
▁കമ്മറ്റി	-10.5327
▁നാട്ടിൽ	-10.5328
▁പുറത്തിറക്ക	-10.5347
ക്കേസില	-10.5359
ിരിക്കുന്നതെന്ന	-10.5364
▁പ്രോത്സാഹിപ്പി	-10.5372
▁സമ്പന്ന	-10.5373
▁മേടം	-10.5376
▁ഫ്രാന്‍സ	-10.5393
▁പട്ടികജാതി	-10.5418
▁തിയേറ്ററ	-10.5418
▁സെപ്റ്റംബര്‍	-10.5418
ക്കെതിരേ	-10.5419
▁ഭാരവാഹികള	-10.5428
▁ടാക്	-10.5431
▁പവാറ	-10.5433
▁സ്വര്‍ണ്ണ	-10.5434
▁റാവു	-10.5453
L	-10.5465
▁അമൃത	-10.5465
▁ലഭ്യമായ	-10.5496
▁നശിപ്പിച്ച	-10.5512
▁ആവിഷ്	-10.5521
▁ഇംഗ്ലീഷ	-10.5558
▁ഒക്ടോബർ	-10.5558
▁ഉത്സവ	-10.5558
▁ശേഷവും	-10.5558
▁കൈവരിക്ക	-10.5562
വിദഗ്ദ	-10.5574
നഗര	-10.559
ഋ	-10.5605
▁അഭിസംബോധന	-10.5605
▁കോർപ്പറേഷൻ	-10.5605
▁ഫലപ്രദമ	-10.5605
▁ഡിപ്ലോമ	-10.5605
▁സെന്റര്‍	-10.5606
▁തികച്ച	-10.5606
▁ഒട്ടും	-10.5608
▁മാധവ	-10.5609
▁ജുനൈസ	-10.5652
▁ഗവര്‍ണറ	-10.5652
▁വിഹിതം	-10.5653
▁ഫിലിപ്പ	-10.5653
▁പ്രതാപ	-10.5657
▁നിയോജക	-10.57
▁സന്ദര്‍ശിക്ക	-10.57
▁അതുകൊണ്ടുതന്നെ	-10.57
▁ബംഗ്ലാദേശ	-10.57
▁അഫ്ഗാനിസ്ഥാന	-10.57
▁ഇന്ദിര	-10.57
▁ധീര	-10.57
മ്പുഴ	-10.5703
▁സ്റ്റോറ	-10.5713
▁തളിപ്പറമ്പ	-10.5747
▁മത്സ്യബന്ധന	-10.5747
▁വേട്ടയാട	-10.5747
▁ആത്മവിശ്വാസം	-10.5747
▁നിരോധിച്ച	-10.5748
▁പുറപ്പെട്ട	-10.5749
▁പരിമിത	-10.5751
ക്ഷേപ	-10.5765
▁ഓൺലൈൻ	-10.5795
▁ദുരൂഹ	-10.5795
▁സര്‍വ്വീസ	-10.5795
▁എൻഡിഎ	-10.5795
▁ക്രൈം	-10.5796
▁ഒന്‍പത	-10.5797
▁പിന്മാറ	-10.5829
▁ശശീന്ദ്രന	-10.5843
▁സിദ്ധരാമയ്യ	-10.5843
▁ആയിരക്കണക്കിന	-10.5843
▁പാവപ്പെട്ട	-10.5844
▁തൃണമൂല	-10.5852
▁എന്നിങ്ങന	-10.5856
സാധ്യത	-10.586
▁ഗെയിമ	-10.5891
▁മനോഹര	-10.5891
▁നിര്‍മ്മിച്ച	-10.5892
▁ബഹള	-10.5892
▁അയാള്‍	-10.5896
സ്ഥാപന	-10.5907
രാത്രി	-10.5912
▁ജില്ലകളിലെ	-10.5913
▁അഭിനന്ദിച്ച	-10.594
▁ഗെഹ്ലോട്ട	-10.594
▁തൃശ്ശൂർ	-10.594
▁സിസിടിവി	-10.594
▁സീസൺ	-10.594
▁തിയതി	-10.5942
▁ബ്രാഞ്ച്	-10.5989
▁സർവകലാശാല	-10.5989
▁എന്‍ഐഎ	-10.5989
▁കിഫ്ബി	-10.5989
▁ചൊല്ലി	-10.5989
▁കയറ്റുമതി	-10.6038
▁ശിവശങ്കറ	-10.6038
▁ലൈസന്‍സ	-10.6038
▁ഹരീഷ്	-10.6038
▁കഠിന	-10.6038
▁ശുക്രന	-10.6038
▁ചെലവഴിച്ച	-10.6039
▁നാവിക	-10.6039
ുണ്ടാക്കി	-10.6048
▁വ്യാപിക്ക	-10.6048
b	-10.6087
▁ആലോചന	-10.6087
▁തെരഞ്ഞെടുക്ക	-10.6087
▁കത്തയച്ച	-10.6087
▁ചുരുക്ക	-10.6088
▁ഓഡിറ്റ	-10.6092
▁വേതന	-10.6103
ജീവിത	-10.6105
▁നേമത്ത	-10.6118
N	-10.6136
▁യൂട്യൂബ	-10.6136
▁ഒമൈക്രോണ	-10.6136
▁ഇടിഞ്ഞ	-10.6148
പരിചയ	-10.6156
▁നിര്‍മിക്ക	-10.6162
F	-10.6186
▁ട്വന്റി	-10.6186
O	-10.6186
▁കൈവശമ	-10.6186
▁ജനവിധി	-10.6186
▁കമ്മിഷന	-10.6189
നിരീക്ഷക	-10.6192
േണ്ടതുണ്ടെന്ന	-10.6219
▁പലയിടത്തും	-10.6236
▁എക്സ്പ്രസ	-10.6236
▁പതിനൊന്ന	-10.6236
▁ആരോഗ്യവകുപ്പ്	-10.6236
▁മെച്ചപ്പെടുത്ത	-10.6237
▁ചിങ്ങം	-10.6237
▁അനുസരിച്ച	-10.6254
▁ലഭ്യമാക	-10.6287
▁ജിഹാദ	-10.6288
▁കൂളുകള	-10.6331
▁ദുര്‍ബല	-10.6337
▁നാശനഷ്ട	-10.6337
▁വെബ്സൈറ്റ	-10.6337
▁സൂപ്പർ	-10.6337
▁ഉദ്ധവ്	-10.6337
ോത്സവ	-10.6337
▁ആരിഫ്	-10.6337
▁ഡിഗ്രി	-10.6338
▁സാധ്യമാക	-10.634
ാബാദ്	-10.634
▁ദക്ഷിണാഫ്രിക്ക	-10.6388
▁ബഹിരാകാശ	-10.6388
▁റെക്കോർഡ	-10.6388
▁ശ്രീനിവാസ	-10.6388
▁ഭരണാധികാരി	-10.6388
▁പ്ലാന്റ	-10.639
▁നിര്‍മിച്ച	-10.6393
▁ബോളിവുഡ	-10.6439
▁സന്ദർശിച്ച	-10.6439
▁മണിക്കൂർ	-10.6439
▁മത്സ്യത്തൊഴിലാള	-10.6439
▁പാചക	-10.644
▁സംസാര	-10.6462
▁വിശ്വാസികള	-10.649
▁അതിശക്തമായ	-10.649
▁താരതമ്യം	-10.649
▁പ്രതികൂല	-10.649
▁ഉറ്റുനോക്ക	-10.649
▁പിരിച്ചുവിട	-10.6493
▁മുന്നേറ	-10.6502
▁നല്‍കുമെന്ന	-10.6512
▁നറുക്കെടുപ്പ	-10.6542
▁ഒഡീഷ	-10.6542
▁ക്രൂഡ്	-10.6542
▁പ്രക്രിയ	-10.6542
▁ഇറാഖ	-10.6593
▁കീഴടങ്ങ	-10.6593
▁ആണ്‍കുട്ടി	-10.6593
▁ജയരാജൻ	-10.6594
▁സെറീന	-10.6594
▁പുരോഗമിക്ക	-10.6624
▁ഒഴുക	-10.6642
▁ഗവണ്‍മെന്റ	-10.6645
▁താപനില	-10.6646
▁നിബന്ധന	-10.6646
▁ഒഴുക്ക	-10.6649
▁അച്ചടക്ക	-10.665
തുടർന്ന്	-10.667
▁പ്രസിദ്ധീകരിച്ച	-10.6698
▁ഉപേക്ഷിക്ക	-10.6698
▁പച്ചക്കറി	-10.6698
▁ഉത്തര്‍പ്രദേശില	-10.6698
▁മൂന്നാമത്തെ	-10.6698
▁മനസ്സിലായ	-10.6724
ുകയുമായിരുന്നു	-10.675
▁പതിറ്റാണ്ട	-10.675
▁ഹൈക്കമാന്റ	-10.675
▁ഓരോരുത്തര	-10.6751
▁ശൈലി	-10.6751
▁രാജിവെക്ക	-10.6751
▁കീഴിൽ	-10.6751
▁ക്വാഡ	-10.6756
ഏ	-10.6776
തിനുശേഷം	-10.6787
▁പിടിച്ചെടുക്ക	-10.6799
▁പലസ്തീന	-10.6803
▁കഴിയുമെന്ന	-10.6815
▁മാരാര	-10.6848
ര്‍ട്ടിഫിക്കറ്റ്	-10.685
▁ആംബുലന്‍സ	-10.6857
▁സമ്മർദ്ദ	-10.6857
▁എന്നിരുന്നാലും	-10.6857
▁എല്ലാവരെയു	-10.6884
▁കോര്‍പറേഷന	-10.691
▁മരണമടഞ്ഞ	-10.691
▁കൂട്ടായ്മ	-10.691
▁ആവര്‍ത്തിക്ക	-10.691
▁റോബിൻ	-10.6911
▁ലളിത	-10.6917
ിനായുള്ള	-10.6947
▁അഡ്മിനിസ്	-10.6964
▁ദശലക്ഷം	-10.6964
▁ജൂലായ	-10.6967
ഭൂമി	-10.6997
സമ്പർക്കത്തിലൂടെ	-10.7015
▁ഡിസംബറ	-10.7018
▁ശുപാര്‍ശ	-10.7018
▁ആവര്‍ത്തിച്ച	-10.7018
▁പഠിപ്പിക്ക	-10.7019
▁ദിവസങ്ങള്‍ക്ക	-10.7052
▁അണികള	-10.7057
▁അവകാശപ്പെടുന്നത	-10.7057
▁താല്‍പ്പര്യ	-10.7072
▁പൊതുമരാമത്ത്	-10.7072
▁വാണിജ്യ	-10.7072
▁സെക്യൂരിറ്റി	-10.7072
▁പതിനായിര	-10.7072
▁ഒഴികെ	-10.7072
▁പന്ത്രണ്ട	-10.7072
▁എഞ്ചിനീയറ	-10.7072
▁സമ്മര്‍ദ്ദ	-10.7072
▁വഷളാ	-10.7079
പ്രവർത്തന	-10.7101
▁പുലർച്ചെ	-10.7127
▁പ്രചരിപ്പിച്ച	-10.7127
▁കളമശ്ശേരി	-10.7127
▁ബഹിഷ്	-10.7127
▁നിവാരണ	-10.7127
▁വിരാട്	-10.7127
▁വിചാരിച്ച	-10.7128
▁ഒഴിയ	-10.7129
▁അഭിനന്ദന	-10.7182
▁കാഞ്ഞിരപ്പള്ളി	-10.7182
▁യെഡിയൂരപ്പ	-10.7182
▁രാമക്ഷേത്ര	-10.7182
പട്ടിക	-10.7196
▁കുട്ടികൾക്ക	-10.7204
കൃഷ	-10.7211
കോടതി	-10.7234
ുകയുണ്ടായി	-10.7235
▁ഗംഭീര	-10.7237
▁താത്കാലിക	-10.7237
▁ആഫ്രിക്ക	-10.7237
▁ഉപദ്രവ	-10.7237
▁നല്ക	-10.7237
▁ക്ഷണിക്ക	-10.7253
▁പ്രവർത്തി	-10.7279
▁തൊടുപുഴ	-10.7293
▁സെഞ്ച്വറി	-10.7293
▁രോഗലക്ഷണങ്ങള	-10.7293
▁തലമുറ	-10.7293
▁ഇരിട്ടി	-10.7293
▁മാരാർ	-10.7294
▁സച്ചിന	-10.7294
▁വിമര്‍ശിക്ക	-10.7348
ുദ്ദീന്‍	-10.7348
▁കല്‍പ്പറ്റ	-10.7348
▁പതിനഞ്ച	-10.7349
ിനകത്ത്	-10.7367
െഴുതി	-10.7367
▁ജില്ലകളിലായി	-10.7381
പരിശോധന	-10.7381
▁അനിവാര്യ	-10.7405
▁മുന്‍ഗണന	-10.7405
▁ഡൗൺ	-10.7405
▁പ്രചരിച്ച	-10.7405
▁സെക്കന്‍ഡ	-10.7405
▁അണക്കെട്ട	-10.7405
▁വെളിച്ച	-10.7405
▁നടത്തുമെന്ന	-10.7406
▁കാത്തിരുന്ന	-10.7416
▁ക്രമസമാധാന	-10.7461
▁ചാലക്കുടി	-10.7461
▁യാഥാര്‍ത്ഥ്യ	-10.7461
▁വോട്ടെണ്ണല്‍	-10.7461
▁സർവ്വീസ	-10.7461
▁ഇന്റലിജ	-10.7461
▁കുടിവെള്ള	-10.7518
▁ഗുരുവായൂര	-10.7518
▁രോഗമുക്തരായി	-10.7518
▁മിസൈല	-10.7518
▁അപമാനിച്ച	-10.7518
▁ആർഎസ്എസ	-10.752
▁ലക്ഷത്തോള	-10.752
▁നിയോഗിക്ക	-10.7522
▁നിശ്ചയിക്ക	-10.7523
▁അയാളുട	-10.7533
അതേസമയം	-10.7552
▁വികാസ	-10.7569
▁കമ്മീഷണര്‍	-10.7575
▁ജാമ്യാപേക്ഷ	-10.7575
▁ജ്വല്ലറി	-10.7575
▁സൊസൈറ്റി	-10.7575
▁ഹോസ്പിറ്റല	-10.7575
▁ജില്ലകളിലാണ്	-10.7575
▁ഉൾപ്പെട്ട	-10.7575
▁ഏതൊക്കെ	-10.7575
▁ഫാത്തിമ	-10.7575
▁ഒടിടി	-10.7576
▁സഖാവ	-10.7578
▁തിളങ്ങ	-10.7578
▁ഡിജിറ്റല്‍	-10.7633
▁വിവേചന	-10.7633
▁ദീർഘ	-10.7633
▁നിരീക്ഷിച്ച	-10.7633
▁ഭിന്നത	-10.7633
▁ഒവൈസി	-10.7633
ക്കുമെതിരെ	-10.773
▁പാരമ്പര്യ	-10.7749
▁റവന്യൂ	-10.7749
▁സുധാകരന്റെ	-10.7749
V	-10.86
W	-10.8728
K	-10.9393
G	-11.0253
&	-11.0253
·	-11.1113
#	-11.1278
U	-11.2054
H	-11.2144
*	-11.2994
ഝ	-11.4593
J	-11.5692
+	-11.7528
x	-11.8004
ൡ	-11.8004
@	-11.8676
]	-11.8852
=	-11.8852
[	-11.903
∙	-11.9586
j	-11.9974
Y	-12.0174
X	-12.2688
•	-12.3784
_	-12.4079
൪	-12.4382
൯	-12.4382
️	-12.5017
z	-12.6052
q	-12.6807
$	-12.8513
ा	-12.8989
Q	-13.0571
Z	-13.1784
क	-13.1784
′	-13.1784
ഊ	-13.237
₹	-13.3165
°	-13.3165
र	-13.3934
े	-13.3934
‐	-13.3934
ि	-13.5677
्	-13.5677
൦	-13.6677
🔘	-13.6677
்	-13.7788
न	-13.7788
स	-13.9038
\	-13.9038
य	-13.9038
❤	-14.0466
ब	-14.0466
व	-14.0467
⁄	-14.0467
>	-14.2133
ൿ	-14.2133
म	-14.2133
⃣	-14.2133
▪	-14.2133
ட	-14.4133
ह	-14.4133
ഌ	-14.4133
👉	-14.4133
द	-14.4133
ग	-14.6633
}	-14.6633
♥	-14.6633
🏻	-14.9967
£	-14.9967
ल	-14.9967
ډ	-14.9967
ं	-14.9967
ए	-14.9967
त	-14.9967
थ	-14.9967
प	-14.9967
ी	-14.9967
❓	-14.9967
⬛	-14.9967
🙏	-14.9967
︎	-14.9967
ப	-15.4966
ய	-15.4966
ி	-15.4966
भ	-15.4966
ڇ	-15.4967
{	-15.4967
ڈ	-15.4967
अ	-15.4967
औ	-15.4967
ट	-15.4967
ण	-15.4967
ध	-15.4967
श	-15.4967
ष	-15.4967
ो	-15.4967
ौ	-15.4967
க	-15.4967
ம	-15.4967
€	-15.4967
👌	-15.4967
👏	-15.4967
💎	-15.4967
💚	-15.4967
😍	-15.4967
😘	-15.4967
🚩	-15.4967
🤝	-15.4967
🔥	-15.4967
ज	-15.4967
া	-15.4967
🔸	-15.4967
ഔ	-16.4966
ஆ	-16.4966
ண	-16.4966
ன	-16.4966
×	-16.4967
â	-16.4967
ñ	-16.4967
आ	-16.4967
इ	-16.4967
च	-16.4967
ठ	-16.4967
।	-16.4967
ল	-16.4967
அ	-16.4967
ச	-16.4967
த	-16.4967
வ	-16.4967
ீ	-16.4967
ு	-16.4967
ெ	-16.4967
‟	-16.4967
◼	-16.4967
◾	-16.4967
♀	-16.4967
✌	-16.4967
✨	-16.4967
➡	-16.4967
ブ	-16.4967
ム	-16.4967
ラ	-16.4967
ル	-16.4967
ー	-16.4967
南	-16.4967
容	-16.4967
湘	-16.4967
美	-16.4967
	-16.4967
🎖	-16.4967
🐟	-16.4967
👇	-16.4967
🖤	-16.4967
🗃	-16.4967
😄	-16.4967
🙄	-16.4967
🤔	-16.4967
🤣	-16.4967
🤦	-16.4967
🥛	-16.4967
`	-16.4967
	-16.4967
(	-16.4967
<	-16.4967
¥	-16.4967
ং	-16.4967
ব	-16.4967
ல	-16.4967
ை	-16.4967
