<unk>	0
<s>	0
</s>	0
▁‍	-3.12734
▁്	-3.17263
▁.	-3.59686
്	-4.27714
▁ക	-4.29278
▁സ	-4.3246
▁പ	-4.36915
▁ം	-4.42365
▁മ	-4.54038
▁വ	-4.58901
▁ക്ക	-4.61193
ി	-4.61443
▁ും	-4.62605
ത	-4.67662
▁ി	-4.70921
▁അ	-4.75567
യ	-4.78388
▁ുന്ന	-4.81955
▁ു	-4.83609
ന	-4.94196
▁,	-4.95023
▁ന	-5.01448
ല	-5.04624
▁ത്തി	-5.08357
ാ	-5.12941
▁ച്ച	-5.16401
ട	-5.25281
ക്ക	-5.2605
ര്	-5.29075
▁ത	-5.29966
ര	-5.34936
▁ുന്നു	-5.39103
▁പ്ര	-5.39418
▁ാണ്	-5.41192
▁ില	-5.4158
▁െന്ന	-5.42775
▁ആ	-5.46498
▁ത്	-5.47557
▁െ	-5.47698
▁ഇ	-5.50294
▁യ	-5.52158
▁ിക്ക	-5.52741
▁ത്ത	-5.53433
▁ങ്ങള	-5.55843
മ	-5.59733
▁ാ	-5.62796
▁നി	-5.64433
▁എന്ന	-5.69096
▁ര്	-5.70323
വ	-5.76528
ന്ന	-5.77249
▁എ	-5.82606
ു	-5.83749
▁ല	-5.87275
▁ാന	-5.8817
▁പ്പ	-5.92873
▁ിര	-5.93333
▁ുള്ള	-5.94455
▁ക്ക്	-5.96959
▁0	-5.99869
▁ന്	-6.01806
▁റ	-6.0238
▁വി	-6.04803
▁ബ	-6.07523
▁ജ	-6.07646
▁ചെയ്	-6.07851
▁ിയ	-6.07941
▁പ്പെ	-6.08902
▁യില	-6.09299
▁ദ	-6.09378
▁ിൽ	-6.10471
▁2	-6.11857
▁മാ	-6.12022
▁യും	-6.12944
▁ർ	-6.13662
▁1	-6.15709
▁ര	-6.16457
െ	-6.16537
▁ില്ല	-6.16634
ത്ത	-6.16966
▁ിച്ച	-6.18291
▁യുടെ	-6.21809
▁ുകള	-6.23455
▁ിട്ട	-6.2453
ക	-6.25664
▁ച	-6.26391
▁്റെ	-6.32493
ില	-6.33028
പ്പ	-6.33794
റഞ്ഞ	-6.34443
▁ഗ	-6.38378
▁ഒരു	-6.3871
ണ	-6.41524
ള	-6.41786
പ	-6.41989
▁ുണ്ട്	-6.42601
▁ിന	-6.43002
▁ള	-6.4486
▁ോ	-6.45349
▁ഡ	-6.46147
സ	-6.47492
▁ുമ	-6.49425
▁കൊ	-6.49492
▁ില്	-6.50184
▁്ത്രി	-6.50405
▁യി	-6.50627
▁ഈ	-6.5119
▁ത്തെ	-6.51304
▁കള	-6.52174
▁്ട	-6.52875
▁ാന്	-6.53034
െന്ന	-6.54541
▁വര	-6.54795
ാര	-6.57188
▁ുടെ	-6.57302
▁മന	-6.58939
▁യെ	-6.60849
▁ണ	-6.61431
▁ൻ	-6.61668
▁ന്ന	-6.62416
▁യാണ്	-6.63183
▁പി	-6.6332
▁ബി	-6.63493
സ്ഥ	-6.65244
▁േ	-6.65249
▁ഉ	-6.65944
റ്റ	-6.68116
്യ	-6.68489
▁-	-6.70534
▁ഫ	-6.72675
▁ശ	-6.72715
▁ാല	-6.73525
ഞ്ഞ	-6.73552
▁ന്ദ്ര	-6.73893
▁സം	-6.74788
ന്റെ	-6.75123
▁യ്	-6.75161
േ	-6.75595
▁ായ	-6.75875
▁ഹ	-6.76039
▁സി	-6.76449
▁നട	-6.76966
▁ഒ	-6.78258
▁യിൽ	-6.79548
▁ായിര	-6.79691
ട്ട	-6.79941
▁ട	-6.80359
▁3	-6.80689
▁തന്നെ	-6.82023
▁ായി	-6.82379
▁സ്വ	-6.83331
▁5	-6.84279
ച്ച	-6.84439
▁േക്ക്	-6.85885
▁ട്ട	-6.86348
▁്യ	-6.86416
▁മാണ്	-6.86417
▁റ്റ	-6.87241
▁:	-6.87362
▁ത്തിൽ	-6.87739
▁ുക	-6.88303
▁പറയ	-6.88806
▁ടു	-6.89395
▁വും	-6.89963
▁4	-6.9018
▁യില്	-6.91456
▁കെ	-6.91549
▁ഴി	-6.92046
▁ഷ	-6.92161
▁കേ	-6.93998
▁ഓ	-6.9406
▁ൽ	-6.94504
▁ാൻ	-6.95061
▁ങ്ങൾ	-6.98924
്റ്റ	-6.99645
▁ഞെട	-7.00653
▁നല്	-7.01173
്ദേഹ	-7.01307
▁9	-7.01456
▁ട്ടി	-7.01717
▁(	-7.0474
▁നിര	-7.04873
▁സ്	-7.05462
▁െങ്ക	-7.06282
▁കു	-7.06595
▁കോണ	-7.07128
കയാണ	-7.07528
ം	-7.07667
▁ടുത്	-7.07959
ദ	-7.08408
▁)	-7.08603
▁ടി	-7.08919
▁6	-7.09964
ടത്ത	-7.10841
▁ന്ത്യ	-7.11994
▁ത്ത്	-7.1221
▁ക്കും	-7.13306
▁7	-7.14244
▁്യക്	-7.14526
ശ	-7.14816
▁കേരള	-7.1512
▁മു	-7.15868
▁രി	-7.16038
▁തിന	-7.16995
ാന	-7.1714
▁നേതാ	-7.18722
▁ിനെ	-7.19199
ജെപ	-7.20171
▁്രതി	-7.20392
▁ഉണ്ട	-7.20566
▁ുണ്ട	-7.20628
▁8	-7.21
▁കോ	-7.21328
▁നേര	-7.22938
▁അറിയ	-7.24654
ുണ്ട	-7.24953
▁ശി	-7.25278
▁ൂ	-7.27037
ബ	-7.27391
▁യു	-7.28161
▁തിരഞ	-7.28494
▁ഗ്രസ്	-7.28545
ല്	-7.2966
ോധ	-7.30511
▁രൂപ	-7.30689
▁റി	-7.3154
▁ൈ	-7.31909
▁ക്കാ	-7.3248
രണ	-7.32743
▁എസ്	-7.33417
▁ുത്ത	-7.33887
▁ിപ്പ	-7.33947
▁എം	-7.34142
▁യിലെ	-7.3444
ൊ	-7.34523
▁രാജ്	-7.34617
▁ലഭ	-7.34868
ാര്	-7.3501
വിഡ	-7.35236
▁്രവ	-7.35401
ജ	-7.36441
വശ്യ	-7.36542
▁ീകര	-7.36802
ങ്ങ	-7.36908
▁നേ	-7.36955
▁ദിവസ	-7.37785
▁ന്ത	-7.38355
▁ഡി	-7.38373
▁ഐ	-7.38646
ാര്യ	-7.3872
▁ുകയും	-7.38822
▁മായ	-7.39052
▁ാണ	-7.39225
▁ിന്ന	-7.39293
ോട്ട	-7.39399
▁ക്കള	-7.39494
▁തുട	-7.39672
▁ഭ	-7.39813
▁ാക്ക	-7.40482
കര	-7.4098
▁പ്പ്	-7.41008
▁നിയമ	-7.41358
▁ുകൾ	-7.4153
▁സ്ഥാ	-7.41584
▁രോഗ	-7.42464
▁യം	-7.4265
▁കൾ	-7.42747
▁ാത്ത	-7.43218
▁ജില്ല	-7.43271
ർ	-7.45076
▁പേര്	-7.45915
ുന്ന	-7.46227
്വദേ	-7.46236
▁ിന്	-7.46375
▁കുറ	-7.46511
▁ിലും	-7.46648
തേസമ	-7.47537
▁ല്	-7.4762
▁ബന്ധ	-7.47816
ീറ്റ	-7.48305
▁സമ	-7.48548
▁സർ	-7.49227
▁'	-7.49231
▁യായി	-7.49244
▁വേ	-7.49372
▁ൾ	-7.49936
▁വെ	-7.50186
▁സഭ	-7.51519
▁മായി	-7.52136
▁ാം	-7.53263
▁മറ്റ	-7.5431
▁കാ	-7.54339
▁ണമ	-7.54684
▁ഇത്	-7.55858
▁രാജ	-7.56311
▁വന്ന	-7.56935
▁ജന	-7.5704
ായിര	-7.57557
▁ോടതി	-7.57707
▁ത്വ	-7.5773
▁വാ	-7.57736
▁പുത	-7.57776
▁മുഖ്	-7.58489
റ	-7.58744
▁തി	-7.58807
▁െതിരെ	-7.59414
▁;	-7.59665
▁ണ്ട	-7.60044
ോലീസ	-7.60288
▁യാണ	-7.60777
മാ	-7.61287
▁ണം	-7.61341
▁എന്ന്	-7.62559
▁ുറ	-7.62959
▁യുള്ള	-7.63043
ോ	-7.64183
▁ദേശ	-7.64617
▁േക്ക	-7.64632
▁കാണ	-7.6472
▁മാര	-7.65005
▁പൊ	-7.65008
▁സംഭവ	-7.66243
▁േണ്ട	-7.66318
▁മ്പ	-7.6642
▁രു	-7.66674
▁ഗ്രസ	-7.66764
ഗ	-7.6729
▁തിരി	-7.67981
▁ചോദ	-7.68377
▁ിക	-7.69081
▁ണ്	-7.69679
▁സ്ഥ	-7.69898
▁ന്ന്	-7.70667
▁നീ	-7.70852
▁മ്മ	-7.71157
▁ണ്ട്	-7.7121
▁വരെ	-7.71337
▁ഭാഗ	-7.71547
▁ട്ര	-7.71587
ാത്ര	-7.71892
ംഗ	-7.72109
▁ഏറ്റ	-7.7227
▁എത്ത	-7.724
▁ുട	-7.72867
റത്ത	-7.73223
▁പോ	-7.73326
▁നാ	-7.73349
ിയ	-7.73463
▁യിര	-7.73521
ുടെ	-7.73801
▁അനു	-7.74416
▁ച്ചു	-7.74739
▁അഭി	-7.74831
▁ുമായി	-7.74929
▁പേര	-7.75145
▁ഇത	-7.75486
▁വിജയ	-7.75672
▁വർ	-7.75777
▁മേ	-7.75992
ല്ലാ	-7.76084
▁ങ്ങനെ	-7.76275
▁പക്ഷ	-7.76413
▁്ര	-7.76484
ിട	-7.7669
▁ികള	-7.76797
▁തീരു	-7.76875
▁പിടി	-7.7705
▁രിശ	-7.77167
▁തിരുവ	-7.77398
▁സു	-7.77699
▁േണ്ടി	-7.78065
▁ൊ	-7.78089
▁ഷന	-7.78117
▁ാതെ	-7.78599
▁ത്രി	-7.7891
▁പാ	-7.78914
▁അത്	-7.79137
ിന	-7.79377
▁ജി	-7.794
▁യാ	-7.79468
ൂട്ട	-7.79533
▁മുന്	-7.79698
▁പങ്ക	-7.80486
രി	-7.81613
▁തുടര	-7.81664
▁നടപടി	-7.81738
▁ക്രമ	-7.82099
▁രാ	-7.8285
▁കണ്ട	-7.83236
▁ലക്ഷ	-7.83347
▁ലി	-7.84674
▁ക്കി	-7.84831
▁വലി	-7.84897
്പോള	-7.84961
▁കോൺ	-7.85579
▁പോക	-7.85579
▁ച്ച്	-7.85651
▁്റ്റ	-7.85782
▁ങ്ങി	-7.86742
▁കൂടി	-7.86765
ധ്യ	-7.86878
▁രണ്ട്	-7.86984
▁്രീ	-7.87041
▁രാഷ്	-7.87108
ും	-7.87168
തൃ	-7.87761
ള്ള	-7.87956
▁ഇന്ന്	-7.88068
▁ംഗ	-7.88085
▁ശേഷം	-7.88256
ന്വേ	-7.88953
▁നന്ത	-7.89222
▁കൈ	-7.89929
▁പു	-7.90186
▁ഇതിന	-7.90365
▁	-7.90508
▁ൊരു	-7.91063
▁സംഘ	-7.91612
ശുപ	-7.92034
▁ഏ	-7.9206
▁കളില	-7.92229
▁നിർ	-7.92425
ിപ്പ	-7.9243
▁വൈ	-7.92958
▁്ട്	-7.93034
▁റെ	-7.93035
ിച്ച	-7.93308
▁യായ	-7.93373
▁ഭരണ	-7.93392
▁ക്കാർ	-7.93884
ുള്ള	-7.94121
▁്ഥി	-7.94636
▁ഘ	-7.94877
▁ആണ്	-7.95116
▁കിയ	-7.95352
▁മണി	-7.95772
▁വെച്ച	-7.95944
വർ	-7.9632
▁കള്	-7.96348
▁വിഷ	-7.96429
▁കോടി	-7.96946
▁ീ	-7.9756
▁യോ	-7.97562
▁ക്ഷ	-7.97717
▁ിച്ച്	-7.97751
▁ആയി	-7.97771
പാട	-7.98282
▁താണ്	-7.984
ാണ	-7.99017
▁ആര്	-7.99106
▁ദ്ധ	-7.99268
▁ചില	-7.99465
▁ഷണ	-7.9947
▁യോഗ	-7.9958
▁എല്ല	-7.99631
ഡ	-7.99781
▁ആരോപ	-8.00334
▁വീ	-8.00429
▁ഖ	-8.00526
▁യുമാ	-8.00526
▁മുഖ	-8.00644
▁പുരം	-8.00988
▁മാസ	-8.01004
▁മണ്ഡ	-8.01558
▁ങ്ക	-8.01649
▁?	-8.02566
▁പാർ	-8.02662
▁ശ്രമ	-8.02933
▁ങ്ങ	-8.02981
▁ബാധ	-8.03516
െന്റ	-8.03661
▁പൂ	-8.037
▁ക്കിയ	-8.03865
▁ത്തന	-8.03934
▁മേഖല	-8.03993
ധ	-8.04166
▁തിര	-8.04201
▁ക്കു	-8.04285
▁പ്രസ	-8.04423
▁ശക്ത	-8.04488
ീ	-8.04627
▁നില	-8.04691
▁ഇട	-8.04716
▁ഉപ	-8.04789
▁ല്ല	-8.05473
കള	-8.05542
▁സാഹച	-8.05919
▁തല	-8.06417
േശ	-8.0659
ലീസ	-8.06865
▁റ്റി	-8.07
ൽ	-8.07179
▁റ്റ്	-8.07186
▁ഹി	-8.07557
▁ജെ	-8.07663
▁കാല	-8.07736
▁ിദ്യ	-8.08104
▁ൗ	-8.08286
▁ഫോ	-8.08411
ത്യ	-8.08922
▁തോടെ	-8.08993
▁ചിത്ര	-8.09043
▁സാധി	-8.09164
ോഴ	-8.09245
▁ലൈ	-8.09249
▁ോട്ട	-8.09794
▁ൂടുത	-8.09855
▁മോ	-8.10135
▁ഖ്യാ	-8.10427
▁ണി	-8.11343
▁എന്	-8.11921
▁ഴ്ച	-8.12107
▁തായി	-8.12496
.	-8.12633
▁ിവ	-8.12678
▁ട്ടറി	-8.13157
▁ദ്ദ	-8.13204
▁പല	-8.13309
▁ദ്ധതി	-8.13312
ുറ	-8.13337
ങ്ങള	-8.13439
▁പരാതി	-8.13485
▁ഫ്	-8.14197
▁ശതമ	-8.1428
ാധ്യ	-8.14461
▁രണ്ട	-8.1455
▁വഴി	-8.14809
▁തും	-8.15041
രദേശ	-8.15437
▁ഞ്ഞ	-8.15564
▁ന്റെ	-8.15665
▁രാഹു	-8.15722
▁പ്രാ	-8.15833
▁യാത്ര	-8.15835
▁അവ	-8.15857
▁വരുടെ	-8.1588
▁ള്ള	-8.16309
▁കാര്	-8.16435
ഭാഗ	-8.16464
െട	-8.16645
▁െത്തി	-8.16786
ിര	-8.17806
▁വാക്	-8.18122
▁ഉറ	-8.18569
ൂ	-8.18923
▁്യൂ	-8.18955
▁കേസ	-8.19043
▁്ടു	-8.19343
▁ണ്ടു	-8.19914
▁ുട്ടി	-8.19919
▁മുതല	-8.20124
▁"	-8.20176
ുംബ	-8.20232
▁തികര	-8.20339
▁ധ	-8.20666
▁ഉയര	-8.20803
▁രുത്	-8.2161
ഫ	-8.21854
▁കര്	-8.22012
▁ടക്ക	-8.22149
▁ശന	-8.22328
▁പ്പി	-8.22392
▁പ്പില	-8.22663
▁ഡോ	-8.22995
▁എല്	-8.23027
▁ലാ	-8.23038
▁ോള	-8.23172
▁അവര	-8.23457
ണ്ടെ	-8.23836
▁നിലവ	-8.23925
▁ണ്ണ	-8.24116
▁മല്ല	-8.24369
▁ഞ്ച	-8.24767
▁ാനി	-8.25016
▁വില	-8.25079
▁നെ	-8.25191
മ്മ	-8.2558
▁ദു	-8.25599
▁ചാ	-8.25738
▁പരി	-8.26374
▁ൂടെ	-8.26615
േധ	-8.27064
▁അത	-8.27074
▁ിവര	-8.27321
▁ംബ	-8.27429
▁ിൻ	-8.29346
▁ിട	-8.29461
▁ഹൈ	-8.29568
▁ത്ഥ	-8.29845
▁അതിന	-8.30045
ുപ്പ	-8.30128
▁ിത	-8.30561
▁നോ	-8.30567
▁ഇല്ല	-8.30622
▁അറ	-8.3085
▁ക്ഷേ	-8.30924
നാൽ	-8.3094
▁ത്സര	-8.30942
▁ാര്	-8.3099
▁മില്ല	-8.31034
ണ്ണൂ	-8.31077
▁പോയ	-8.3116
▁ജോലി	-8.31269
▁പ്പോൾ	-8.3132
▁ചേര	-8.31489
▁ൂന്ന്	-8.31604
▁പേക്ഷ	-8.31809
▁സഹായ	-8.3207
▁്വീ	-8.32072
▁ാലെ	-8.32605
▁ുകാര	-8.33103
▁്സ	-8.33149
▁ബ്	-8.33739
ന്റ	-8.33844
▁നൽക	-8.34357
▁വിളി	-8.3437
▁ാധ്യ	-8.34413
▁ൃ	-8.34587
്യാപ	-8.34627
▁എന്ത	-8.34696
▁ാർ	-8.35188
▁തിഷ	-8.35278
▁സിനിമ	-8.35405
▁ാര	-8.35772
്വ	-8.35817
▁രോഗം	-8.36033
▁എണ്ണ	-8.36064
▁രക്ഷ	-8.3614
▁ധാന	-8.36192
▁ഉള്ള	-8.36533
▁ഇക്ക	-8.36811
▁ാൽ	-8.36895
ഫീസ	-8.36957
▁ഗു	-8.37157
▁തോ	-8.37163
▁ോദി	-8.37326
▁െത്ത	-8.37525
▁ോർട്	-8.37725
▁ദി	-8.37934
▁ആദ്യ	-8.38107
▁ഉള്	-8.3817
▁നും	-8.38176
▁ൊക്കെ	-8.38282
▁പോലും	-8.38595
▁സൗ	-8.38695
▁ന്തുണ	-8.38847
▁ത്ര	-8.38861
▁അഞ്ച	-8.39244
▁ാസ	-8.3949
▁ാഗ	-8.39646
▁തില	-8.39751
▁ുള	-8.39777
രധാന	-8.39962
▁ശ്രീ	-8.40057
▁സമയ	-8.40082
ോട	-8.40157
▁ഞാന	-8.40873
▁ജീവ	-8.40964
▁ഇവിടെ	-8.41317
▁ഒന്ന	-8.41566
▁്ത്രീ	-8.41599
ബന്ധ	-8.41762
ലിയ	-8.41942
▁നായ	-8.41988
▁ന്റ	-8.42107
▁റിയ	-8.42187
▁എത്തി	-8.4259
▁റാ	-8.42655
▁ചികി	-8.43252
▁ന്ദ	-8.43564
▁ലോക	-8.43606
ീയ	-8.43704
യാ	-8.4395
മാന	-8.44326
▁ജീവിത	-8.44345
▁കോഴി	-8.44548
ഡിഎ	-8.44578
മന	-8.44706
▁ഞങ്ങ	-8.45774
ടങ്ങ	-8.46118
▁നമ്മ	-8.46209
ാമ്പ	-8.46408
▁ന്ത്ര	-8.466
▁!	-8.46651
▁ക്ര	-8.46722
▁പൊത	-8.46741
ിശ്വ	-8.46748
▁വരും	-8.46962
▁ൺ	-8.46997
▁ചര്	-8.4714
▁അതി	-8.47189
▁തീക്ഷ	-8.47523
▁വുമ	-8.47633
▁ധിക	-8.47673
▁വാഹ	-8.47773
▁കമ്മ	-8.47841
▁വിട	-8.48115
▁ാനാ	-8.48195
▁ിംഗ്	-8.48655
▁കൂ	-8.48847
▁ആർ	-8.4889
▁െടെ	-8.49426
▁ത്തക	-8.49536
▁യ്യ	-8.49569
▁ആരംഭ	-8.49749
▁ഉദ്യ	-8.49825
ൂഹ	-8.49836
▁ോട്	-8.50019
ുട്ട	-8.50291
▁യർ	-8.50309
▁സംഘടന	-8.50446
▁യേ	-8.50504
ുവരെ	-8.50511
▁ാത്രം	-8.50815
▁കാരണം	-8.51118
▁മാറ	-8.51326
ണക്ക	-8.51454
▁ുമാണ്	-8.51628
▁രേഖ	-8.51802
▁മുൻ	-8.52074
▁തീ	-8.52236
▁ഇവര	-8.52368
▁ത്തു	-8.52385
ന്ത	-8.52419
▁വളര	-8.52505
▁ലക്ഷം	-8.52667
▁അംഗ	-8.52885
▁ഗ്രാ	-8.52993
വിധ	-8.53137
ണ്ട	-8.53185
▁പ്രശ	-8.53445
▁ൊപ്പം	-8.53757
▁നില്	-8.53862
▁്കോട്	-8.54056
▁ാമ	-8.54178
▁സമര	-8.54232
▁മെ	-8.54534
▁ഥ	-8.54752
▁വിന	-8.54796
ഡന്റ	-8.55006
▁്പോള	-8.55096
▁രീതി	-8.55426
▁ബോ	-8.55613
▁മാണ	-8.55678
▁ഇനി	-8.55863
▁നൽകിയ	-8.55863
▁യത്ത	-8.55885
▁ീക്ഷ	-8.55955
▁ുവര	-8.56172
▁ഇരു	-8.56205
്യാ	-8.56291
▁പേർ	-8.56385
രോ	-8.5648
ാന്	-8.56904
▁തന്റെ	-8.57289
ഴിയ	-8.57312
▁പാട	-8.57644
▁ഒഴിവ	-8.57675
ദേശ	-8.58255
▁രാശി	-8.58262
▁ഇതോടെ	-8.58375
▁തെളി	-8.58441
▁നം	-8.58832
▁ളി	-8.58916
ുമ്പ	-8.58995
ോഷ	-8.59041
്യൂ	-8.5905
ായ	-8.59071
▁േറ്റ	-8.59262
▁സീ	-8.59488
▁വിവര	-8.59721
▁വർഷ	-8.60018
▁കരുത	-8.60046
▁എൽ	-8.60057
▁ഏത	-8.60065
▁സഹ	-8.6009
▁ിയത്	-8.60355
▁ിനിടെ	-8.60359
ഷ	-8.60624
▁തെ	-8.60712
▁ഹാ	-8.60781
▁ോസ	-8.61109
▁ഉപയോ	-8.61208
▁്രദ്ധ	-8.61209
ീണ്ട	-8.61253
വധ	-8.61331
▁ദ്	-8.61788
▁നേടി	-8.62062
▁/	-8.62086
ഞ്ചാ	-8.62113
ത്തര	-8.62333
▁ത്തവണ	-8.62365
▁യുവ	-8.62425
▁റില	-8.62461
ഖ്യ	-8.62481
ാക്ക	-8.62739
▁ആര	-8.62924
▁മെഡി	-8.63125
▁ശേഷ	-8.63134
▁ജോസ	-8.63313
▁ാനും	-8.6352
വര	-8.63777
▁ന്നാ	-8.64027
▁യാള	-8.64034
▁േയും	-8.64064
▁ലോ	-8.64128
യേക	-8.64203
▁നിയന	-8.64372
▁ാവ	-8.64875
▁ബാ	-8.64993
▁കൂട	-8.65372
▁സമീ	-8.654
▁പെ	-8.65467
▁താര	-8.65677
▁ദ്ദേ	-8.65809
▁തിനാ	-8.65833
▁നല്ല	-8.65935
വദ	-8.66348
▁പോലെ	-8.66439
▁ില്ലി	-8.66653
സ്	-8.66671
▁യൂ	-8.66715
റങ്ങ	-8.66911
ക്ഷ	-8.66963
▁പഠ	-8.66997
▁എഫ്	-8.67186
▁െടു	-8.67186
▁സെ	-8.67257
▁സമ്പ	-8.67279
ാറ	-8.67475
▁കഴി	-8.67697
▁ള്ളി	-8.67751
▁വ്യാ	-8.67871
ൂറ	-8.67882
▁ോര	-8.68262
▁ിലൂടെ	-8.68369
▁ാറ	-8.68472
▁ീട്	-8.6884
▁തിന്	-8.68852
▁തങ്ങ	-8.68898
ോഡ	-8.68912
ാങ്ങ	-8.69023
▁ബ്ര	-8.69224
യില	-8.69246
▁ടെ	-8.69666
▁ഉത്ത	-8.69824
▁മഹാ	-8.69857
യും	-8.70161
▁ണറായി	-8.70634
▁്യം	-8.70726
▁ിലാ	-8.70946
▁റോ	-8.70957
▁യറ	-8.71242
ിട്ട	-8.71285
▁മ്പനി	-8.7138
▁േരി	-8.71622
ക്ര	-8.71625
ുകള	-8.71788
▁ഷ്	-8.71984
▁വാദ	-8.72112
▁കാര	-8.72379
ുമ	-8.72555
▁തിനെ	-8.72789
▁സാ	-8.72855
▁ഭൂ	-8.73566
▁എനി	-8.73635
▁എൻ	-8.73996
▁െട	-8.7409
രേ	-8.74184
▁മാന	-8.74232
രം	-8.7426
▁ഷക	-8.74333
മാര	-8.74366
ക്ട	-8.74372
▁ന്നു	-8.74647
▁മഴ	-8.74702
▁താണ	-8.74765
▁തിക	-8.74994
▁മൊ	-8.75187
▁ലോക്	-8.75383
▁വിമ	-8.75443
വാഹ	-8.756
▁നഗര	-8.75636
▁ഒരാ	-8.75717
▁ഷൻ	-8.75725
▁രൂ	-8.75748
▁കേസ്	-8.7576
▁തിൽ	-8.75959
▁ിടെ	-8.76195
നങ്ങ	-8.76231
െട്ട	-8.76324
▁പരിഹ	-8.76748
▁തവണ	-8.76884
▁യില്ല	-8.77079
▁ാനാണ	-8.77163
▁ുത്തി	-8.77202
▁പാല	-8.77225
ൂണ്ട	-8.77382
▁ണ്ടി	-8.77423
▁ിങ്	-8.77639
▁താല	-8.77657
▁നാല്	-8.7768
▁തെരഞ	-8.77848
ീട്ട	-8.77927
▁രീക്ഷ	-8.7795
▁കട	-8.78016
▁ിപിഎം	-8.78209
ഷ്ട	-8.78423
▁രുടെ	-8.78678
ർത്ഥ	-8.78735
▁പക്ഷേ	-8.78759
▁ഉൾ	-8.78992
▁ീഡിയോ	-8.79199
▁അവർ	-8.79286
▁ണ്ടാ	-8.79446
▁പുറ	-8.79872
▁ഷ്ട	-8.80131
▁വികസ	-8.80132
ന്	-8.80295
▁ാറ്റ	-8.80452
▁രും	-8.80486
▁ാണി	-8.80533
▁അപക	-8.81081
ിശദ	-8.8113
▁ശിനി	-8.81863
▁ഴ്	-8.81872
ിക്ക	-8.81925
▁ാളി	-8.8195
▁കർ	-8.82124
ായും	-8.82136
ഭ്യ	-8.8239
▁മാറി	-8.82454
▁ല്ലാം	-8.82552
▁കൊറോണ	-8.82668
▁ാധാ	-8.83214
▁ചൈന	-8.83359
▁മുതൽ	-8.83425
▁റുപടി	-8.83471
▁ൊച്ചി	-8.83481
▁ിറ്റി	-8.83555
▁സമയം	-8.83831
ംവിധ	-8.83835
▁ുവ	-8.84029
▁പണം	-8.84086
▁അല്ല	-8.84108
യോഗ	-8.84176
ിലെ	-8.84223
▁വിവരം	-8.84249
▁ാത	-8.84412
▁തനി	-8.8452
▁വേണ	-8.84728
മ്പ	-8.85139
▁എംഎ	-8.85272
▁വുമാ	-8.85368
▁കളെ	-8.85458
▁ഷം	-8.85556
ത്ര	-8.85569
▁ഞാൻ	-8.85581
▁ാഴ്ച	-8.85598
▁ആള	-8.85617
▁െക്	-8.85729
മേരി	-8.86037
▁ിസ്	-8.86054
▁എന്റെ	-8.86345
▁യൂണ	-8.86506
▁ഭാഷ	-8.86804
▁ജയി	-8.86987
▁വന്	-8.87148
▁അമ്മ	-8.87217
▁ദാ	-8.8734
▁ിസ	-8.87362
▁ഗ്രൂ	-8.87378
▁ണ്ഡ	-8.87403
റേ	-8.87493
▁കൃഷ്ണ	-8.87568
▁മൂല	-8.87717
▁തര	-8.87774
▁ഞ്	-8.87839
ന്ധ	-8.87965
ൂല	-8.88112
്ദ	-8.8812
▁അവസ	-8.88165
▁താ	-8.88302
▁ടക്കം	-8.8845
യ്യാ	-8.88452
▁തമ്മ	-8.88686
▁ഇന്	-8.88697
▁ാലും	-8.88841
▁ട്ടിക	-8.88944
▁തട	-8.88968
▁ാക	-8.89018
▁കാരം	-8.89068
▁ലെ	-8.89207
ംസാര	-8.8927
▁ിയെ	-8.89449
▁ദേവ	-8.89605
▁ാവിലെ	-8.89608
▁പുര	-8.89687
▁ാര്യം	-8.89782
▁ൂടുതൽ	-8.90205
▁റിന	-8.90313
ായി	-8.90409
▁ീഡിയ	-8.90423
▁്യു	-8.90532
▁ാര്യ	-8.90602
▁എറണ	-8.90645
▁ന്യ	-8.90679
▁ിറ്റ	-8.90861
▁തൊഴ	-8.90921
▁ഇടപെ	-8.91398
▁ഹമ്മ	-8.9174
▁ച്ചെ	-8.91867
▁തൃശൂ	-8.92027
▁ദിലീ	-8.92051
▁കളും	-8.92258
ത്സര	-8.92427
ൊരു	-8.92473
▁ക്കൾ	-8.92485
▁ഡിഎഫ	-8.92613
▁ജൂ	-8.92708
▁ഒര	-8.92775
▁ധികം	-8.92793
▁വിലയ	-8.92816
▁ോട	-8.93088
▁െല്ല	-8.93247
▁ഫല	-8.93413
▁ഷ്ട്ര	-8.9353
▁പ്പുഴ	-8.93804
ല്ല	-8.94007
▁ർത്ഥ	-8.94131
▁തിരെ	-8.94164
തീ	-8.94212
ഴ	-8.94286
▁വെള	-8.9474
▁കുളം	-8.94786
ളുകള	-8.94802
▁ധന	-8.94913
▁െന്ന്	-8.9495
▁ിൻ്റ	-8.94963
▁ആകെ	-8.95108
▁പരമാ	-8.95244
▁അതുക	-8.95282
▁അവകാ	-8.9537
വാദ	-8.95387
▁രെ	-8.95589
▁്ലാ	-8.95615
,	-8.95902
▁നേട	-8.95941
▁പിന്	-8.961
▁ടീ	-8.96114
▁ിംഗ	-8.96237
ാദ	-8.9649
▁സൂചന	-8.96493
▁ുരക്ഷ	-8.96638
▁്ഥാപ	-8.9668
▁ജയ	-8.96788
▁ിഷ	-8.97024
▁ിയിര	-8.97065
▁ഠ	-8.97112
▁്രോ	-8.97147
▁ജോ	-8.97149
▁ിറ	-8.97215
പ്	-8.97323
▁ീര	-8.97369
▁ത്ഥി	-8.97406
▁നുക	-8.97429
▁ാതിര	-8.97651
▁യോടെ	-8.97667
ാണ്	-8.97703
▁വീട്	-8.97706
▁താമസ	-8.97712
▁ഭാര	-8.97795
▁ആയ	-8.98048
▁ചർച്ച	-8.98207
▁സമിതി	-8.98425
▁ധ്യ	-8.98567
▁സന്ദ	-8.98761
ങ്ക	-8.98991
▁ചേ	-8.9915
▁ൂട	-8.99188
▁വേണ്ട	-8.99192
▁ികൾ	-8.99271
▁ൂര്	-8.9931
▁സാമ	-8.99357
▁ഞ്ചാ	-8.99465
▁േഷ്	-8.99753
▁പക്ഷം	-8.99944
▁ൂർ	-8.99953
▁ൊന്ന	-9.00048
▁സൈ	-9.00635
▁ഫേസ്	-9.00764
▁ഘട	-9.00838
▁പാലി	-9.00904
▁പണി	-9.00973
ോള	-9.01077
▁ആല	-9.01137
▁ബിഗ	-9.0117
▁നാട	-9.01337
▁േറെ	-9.01357
▁േഴ	-9.01748
▁ളവ	-9.01908
▁ുര	-9.02025
▁ചെ	-9.02055
▁്പോൾ	-9.02071
▁രില	-9.02237
▁ഇതില	-9.0234
▁ട്ട്	-9.02439
▁സിന്	-9.02462
ടക്ക	-9.02522
▁റ്റീ	-9.02573
▁സുരേ	-9.02707
▁നവ	-9.0271
▁ാകും	-9.02927
▁ഭക്ഷ	-9.03016
▁എംപി	-9.0302
▁വാസി	-9.03052
▁േസില	-9.03057
▁രിഗണ	-9.03062
▁േജ	-9.03378
▁ൂട്ട	-9.03524
▁ാത്രി	-9.03779
▁ുമോ	-9.03891
▁ധികൃ	-9.04121
▁ോടെ	-9.04215
▁ഏറെ	-9.04335
▁ഭ്യാ	-9.04436
▁രാജി	-9.04482
േജ	-9.04891
▁നയി	-9.04962
▁മോഹ	-9.05175
▁കും	-9.05258
▁ുമായ	-9.05302
▁െയി	-9.0537
▁നുമതി	-9.05379
▁വിധി	-9.05396
▁ട്രോ	-9.05991
▁െയും	-9.06092
▁ജ്	-9.06161
▁അവിടെ	-9.06188
▁ബംഗ	-9.06255
▁തുക	-9.0632
▁ാവസ്ഥ	-9.06592
▁ചെല	-9.06669
▁പ്പം	-9.06918
▁വസാന	-9.07259
▁സേന	-9.07266
▁ഇടത	-9.07344
▁പരാജ	-9.07395
കൊ	-9.07485
▁10	-9.07518
▁ഏക	-9.07575
▁ധാ	-9.07801
▁സന്ധി	-9.08166
▁പൂര	-9.08527
▁ോക്ക്	-9.08529
▁ോണ	-9.08576
▁നിലന	-9.08737
ാങ്ക	-9.08797
▁ാറ്റി	-9.09098
▁തമിഴ	-9.09166
▁കി	-9.09186
▁ർശ	-9.09431
▁ൂടിയ	-9.09588
▁സൂ	-9.09603
▁െഡ	-9.10003
▁ആശങ്ക	-9.10221
▁ആദ്യം	-9.1033
ദ്ധ	-9.10408
▁സിന	-9.1047
▁ീന	-9.10501
▁ാള	-9.10588
യനാട	-9.10704
▁ഴ	-9.11045
▁ശക്തി	-9.11055
ഞ്ച	-9.11704
▁തൊ	-9.11939
▁കക്ഷി	-9.12236
▁ക്ല	-9.12407
ൈക	-9.12539
▁ാലി	-9.12613
▁നടി	-9.12626
▁സൗദി	-9.1266
▁വില്ല	-9.12752
▁പത്ത	-9.12813
▁ബാല	-9.12944
▁ഭാര്യ	-9.13057
ാസ	-9.13065
▁തീര	-9.13217
▁ന്നയ	-9.13243
▁സംശ	-9.1335
▁ഗ്ര	-9.13444
▁രീ	-9.13886
▁ന്തം	-9.14325
▁കളി	-9.14329
▁സിംഗ്	-9.14417
▁ുധാ	-9.14514
▁്ഥിതി	-9.14676
▁മുസ്	-9.14757
തിര	-9.14757
▁ഫലം	-9.14889
▁്യത	-9.14893
▁പ്പിൽ	-9.14929
ൈ	-9.15259
▁ഡ്	-9.15835
▁ലഭ്യ	-9.15847
▁ലും	-9.15896
▁ല്‍	-9.15986
പി	-9.16193
▁തീവ	-9.16282
▁നന്ദ	-9.16335
▁ാപ	-9.16432
▁റിയി	-9.16433
ാതെ	-9.16494
▁വശ്യ	-9.16583
▁പ്ല	-9.1659
▁ഹരി	-9.16943
▁ൊല്ലം	-9.16945
്രൈ	-9.16951
▁ുഴ	-9.16977
▁വള	-9.17078
▁ാരണ	-9.17285
▁അന്ന്	-9.17366
▁ുറം	-9.17557
▁ബെ	-9.17571
▁ബഹ	-9.17586
▁വയസ്	-9.17692
▁രോഗി	-9.17706
▁ാരാ	-9.1784
▁ഭൂമി	-9.17875
ലപ്പ	-9.18031
ഗ്രഹ	-9.18044
▁വീസ	-9.18147
▁നുഷ്	-9.18288
▁പരസ്	-9.18293
▁ിത്ത	-9.18403
▁മുഴു	-9.18475
▁്ച	-9.18669
▁്രശ	-9.18768
▁പോരാ	-9.18785
▁ശരി	-9.19019
▁രജിസ	-9.19044
▁മാർ	-9.19125
▁ത്താ	-9.19163
▁ീസ്	-9.19277
ഖ	-9.19379
▁്ടത്	-9.19565
▁്രൈ	-9.1975
▁ുധ	-9.19776
▁ീയ	-9.20024
▁വനിത	-9.2025
▁രണ്ടു	-9.20255
▁വീണ	-9.20377
▁ണാടക	-9.20514
▁ീകരണ	-9.20696
▁ിവി	-9.20739
▁മന്ത	-9.20782
▁ക്കോ	-9.20959
▁യോട്	-9.21042
▁ക്കുക	-9.21075
▁ആണ	-9.21247
ീം	-9.21297
▁പേരെ	-9.21468
▁പതി	-9.21489
▁അവസാ	-9.21538
▁ൻസ	-9.21613
▁റിസ	-9.21615
▁തിട്ട	-9.21752
▁്രാ	-9.2194
▁ഡോക്	-9.22172
▁ഗവ	-9.22191
▁പൗ	-9.22214
ാട്ട	-9.22641
▁്മേള	-9.22665
▁കളിൽ	-9.22743
മു	-9.2283
▁റഷ്യ	-9.23086
▁വിത	-9.23128
▁ാക്കി	-9.23215
▁വ്യവ	-9.23282
▁ഭീഷണി	-9.23372
▁നാഥ	-9.23439
▁ഔ	-9.2348
▁തകര	-9.23502
▁ഗ്	-9.23711
▁ൂന്ന	-9.23852
▁തയ്യ	-9.24201
▁ഗതി	-9.24255
▁സ്ത	-9.2446
ദേഹ	-9.24482
▁ചാര	-9.24542
▁ിള	-9.24611
▁നാണ്	-9.24621
▁ശ്വാ	-9.24636
▁അന	-9.24689
▁ഫി	-9.24782
▁ുക്കി	-9.24835
▁സേവ	-9.24942
▁തൊഴി	-9.24986
▁യുവതി	-9.25023
▁ലു	-9.25163
ൂർ	-9.25223
▁ല്ലോ	-9.25412
▁അഡ	-9.2547
▁ുരേഷ്	-9.25487
▁പേരും	-9.2555
▁ോളം	-9.2556
▁ജ്ഞ	-9.25654
ഭവ	-9.25713
▁ാട്ട	-9.25798
▁ശേഖ	-9.25872
▁കുമ	-9.2597
▁20	-9.26367
▁ഫാ	-9.26654
വിട	-9.26673
ര്യ	-9.26686
▁ഴു	-9.26686
▁ീസ	-9.2673
▁താന	-9.26804
രക്ഷ	-9.26963
▁അമിത	-9.27187
▁സാധ	-9.27266
▁24	-9.27441
▁തട്ട	-9.27473
▁ഥാ	-9.27473
▁െയ	-9.27642
▁െതിര	-9.27769
▁ൗണ്	-9.27909
▁ദ്ര	-9.27958
▁വിമർ	-9.28024
▁കാരണ	-9.28063
▁ോഷ്യ	-9.28233
▁ഭേ	-9.28391
മാറ	-9.28559
▁െയ്	-9.28665
▁പോയി	-9.29067
▁അഖ	-9.2916
▁ചുമതല	-9.29522
▁ലയാളി	-9.29562
▁ക്യ	-9.29669
▁മത്സ	-9.29759
▁അസ	-9.29778
▁റ്റു	-9.29867
▁ക്കര	-9.29893
ുമാറ	-9.29953
▁പ്പോ	-9.2998
▁ാസ്	-9.3006
▁ാങ്ക	-9.30301
ഛ	-9.30331
▁ക്ഷി	-9.30374
▁മുക്	-9.30476
▁ള്	-9.30498
▁15	-9.3052
▁പരാ	-9.30737
▁്മി	-9.3076
▁നുസര	-9.30827
ീഴ	-9.30979
▁ാനം	-9.31021
▁ശീ	-9.31136
▁ഓഫ്	-9.31163
ണമ	-9.31218
ിധ	-9.31241
▁ിങ്ങ	-9.31251
▁ആറ്	-9.31322
▁ഷി	-9.3142
▁ാഷ	-9.31446
▁ക്കം	-9.31527
▁ഗോപ	-9.31556
▁വരുമ	-9.31598
▁ൃത	-9.31598
▁യുഎഇ	-9.31764
▁ന്ധ	-9.31803
▁ഭാവ	-9.32074
▁കണ്ണ	-9.32184
▁ാഗത	-9.32185
▁ങ്ങളെ	-9.32193
▁അട	-9.32304
▁യല്ല	-9.32352
▁വരിക	-9.32554
▁ന്നലെ	-9.32787
▁ത്തോ	-9.32944
ഥ	-9.32948
ുഹൃ	-9.3295
▁ട്	-9.33027
▁ിമ	-9.33146
▁ഗാ	-9.33247
▁ിന്ദു	-9.33416
രു	-9.33481
▁ക്കൽ	-9.33621
▁േയ	-9.33672
▁ിട്ടു	-9.33786
ൊല്ല	-9.33862
▁രം	-9.33892
▁വിജ	-9.33938
▁ഗ്രഹ	-9.34097
▁ാദ	-9.34145
▁വിജയം	-9.34214
▁രോ	-9.34398
▁ിക്	-9.34428
▁യോഗം	-9.3451
▁ോളേ	-9.34707
▁ഇൻ	-9.34772
▁മുംബ	-9.34833
▁ഗോ	-9.35116
▁പേ	-9.35221
▁യോഗി	-9.3535
▁ൃത്യ	-9.3538
▁ർക്ക	-9.35538
▁രണ	-9.35547
▁ഷ്യ	-9.35784
▁ാടക	-9.35907
▁ിറ്റ്	-9.35946
▁തു	-9.35954
▁മൊഴി	-9.36002
▁ചു	-9.36077
▁ആരാ	-9.36089
▁ീഷ	-9.36272
▁സഹോദര	-9.3645
▁ധി	-9.36594
▁മര	-9.36664
▁ത്തല	-9.36761
▁എഴു	-9.36811
▁േശ	-9.36882
▁ദൃശ	-9.36897
▁12	-9.36993
▁ാട്ടി	-9.36997
▁ബീ	-9.37089
▁കരമാ	-9.37167
ൂന്ന	-9.37294
▁ോയ	-9.37337
ത്തെ	-9.3751
▁റു	-9.37667
▁കണ്	-9.37721
▁ോട്ട്	-9.37736
▁വിശ	-9.3795
▁ചെറ	-9.38042
▁ഖാ	-9.38053
▁ഇവ	-9.38172
▁ാടി	-9.38373
▁ൾക്ക	-9.38435
▁ഏജ	-9.38465
▁ിയമസഭ	-9.386
▁്രാലയ	-9.38689
▁ൃഷ്ടി	-9.38925
ചാര	-9.39188
▁പെരു	-9.39307
▁ീഗ്	-9.39377
▁പെണ	-9.39378
▁ജാ	-9.39456
▁വെറ	-9.39514
ച	-9.3957
▁അതേ	-9.39663
ുമാര	-9.39794
▁മാക	-9.3983
▁ിയാ	-9.399
▁ജനറല	-9.40026
▁ജാമ	-9.40366
▁മുറി	-9.40407
▁ഇന്ന	-9.40475
▁ഉട	-9.40529
▁മിഷ	-9.4054
▁എക	-9.406
▁സൂര്യ	-9.40623
▁ശാല	-9.40732
▁വൈറസ്	-9.41305
▁ചെറി	-9.41324
▁്യോ	-9.41448
▁ന്നി	-9.41689
ടന്ന	-9.41934
▁ട്ടെ	-9.41963
ാക്ഷ	-9.42116
െങ്ക	-9.42253
▁വീട	-9.42313
▁ഹൃ	-9.42388
▁പോള	-9.42447
ുഷ	-9.42506
▁ിത്	-9.42535
ിരു	-9.42564
ില്	-9.42568
▁മക	-9.42769
ീഡ	-9.42865
▁പദവി	-9.42887
▁യിട	-9.42921
▁മെയ	-9.43031
▁വന്നു	-9.43088
▁്താവന	-9.43117
▁ലിന	-9.43179
▁െട്ടി	-9.43285
▁ഉണ്ട്	-9.43292
▁എസ്പി	-9.43328
▁ിനായി	-9.43354
▁ിക്ഷ	-9.43467
▁ഷോ	-9.43561
▁പിസി	-9.43776
▁ഇസ്	-9.439
▁ാവും	-9.44084
▁ുസ്ല	-9.44195
▁ക്കൂ	-9.44338
▁ിയങ്ക	-9.44345
▁ീവ്	-9.44374
യം	-9.44378
▁ജീവി	-9.44509
▁ഡൗ	-9.44532
പോഴ	-9.44699
▁പത്ര	-9.44767
▁ഗുര	-9.44796
▁ഥി	-9.44999
▁കിലോ	-9.4509
▁പ്പാ	-9.45126
▁ോല	-9.45231
▁സിസി	-9.45418
▁ബാബു	-9.4548
▁രിയ	-9.4565
▁ഹാജര	-9.45711
ശ്ച	-9.45786
▁ീത	-9.45807
ക്	-9.45863
ൻ	-9.46343
▁ബിസി	-9.46408
▁ർഗ	-9.4655
▁ുദ്ധി	-9.46582
▁ക്ത	-9.46636
▁മല്	-9.46722
▁കൃത	-9.46844
▁രുത	-9.46869
െറ്റ	-9.4688
▁യുഎ	-9.46981
ഗീകര	-9.47016
ംപ	-9.47313
▁ൻ്റ	-9.47467
▁ിത്തല	-9.47529
▁വാദി	-9.47583
▁ിരി	-9.47718
▁ാധീ	-9.47826
▁ലപാത	-9.48177
▁ാനമാ	-9.4821
▁സൈനി	-9.48255
▁ൈസ്	-9.48336
▁ീടു	-9.48536
▁മുര	-9.48543
▁ഓട	-9.48544
▁ഇറ	-9.486
▁ധരി	-9.48603
▁ഫെ	-9.48622
ധാരണ	-9.48684
▁ക്ട	-9.48778
▁ോട്ടോ	-9.48823
ീഷ	-9.48913
▁ജു	-9.49007
ക്രമ	-9.49134
▁ആശ	-9.49207
▁രക്ക്	-9.4934
▁ിനോട്	-9.49577
▁രമ	-9.49742
▁മനസ്	-9.49845
▁ഷിക	-9.49911
▁ജെഡി	-9.49915
▁ാട്	-9.49917
▁ദ്യമ	-9.49921
▁ാതി	-9.50034
▁ുമാര	-9.50143
▁ടെക്	-9.50311
▁നാട്	-9.50361
ജീവ	-9.50397
▁തിനാൽ	-9.50464
ലാ	-9.50511
ലയാള	-9.50579
േർ	-9.50787
ചര	-9.50877
▁ഹോ	-9.50881
▁േല	-9.50886
യുടെ	-9.50966
▁എന്ത്	-9.51043
ംഘ	-9.51079
▁ർക്കം	-9.51231
▁കം	-9.51301
▁നിധ	-9.51372
▁റ്റഡ	-9.51558
കടന	-9.51633
▁ാവധി	-9.51687
താ	-9.51697
▁മനസ	-9.51802
▁ഡൽ	-9.51873
▁എച്ച	-9.51903
▁ഇവർ	-9.51991
▁കുടി	-9.52033
▁ടൂ	-9.52158
▁സിപി	-9.5221
▁പരമ	-9.52353
▁ിബ	-9.52443
▁ുകളും	-9.52537
▁ശ്വര	-9.52561
വച	-9.52562
സ്സ	-9.52586
▁നാല	-9.52961
▁കുമാർ	-9.53289
▁മ്മന	-9.53364
▁സംഘട	-9.53619
▁ോവ	-9.5362
▁കിട	-9.53727
▁തേട	-9.53727
▁ആത	-9.53832
▁ണു	-9.539
▁11	-9.53976
▁ഭയ	-9.54004
▁ടമ	-9.54022
▁ശാസ്	-9.54048
▁30	-9.54066
▁ഹ്	-9.54141
▁യുമ	-9.54148
▁ചിന്ത	-9.54165
നം	-9.54326
▁താഴെ	-9.54422
▁ക്കെ	-9.54466
▁ിപിഐ	-9.54531
▁ിട്ടി	-9.54644
▁ശാന്	-9.54764
▁രവ	-9.54817
▁ദീ	-9.54944
▁നിയ	-9.54945
്പള	-9.55016
▁കൂടെ	-9.55038
▁അടി	-9.55038
▁ലീഗ	-9.55055
▁എത്ര	-9.55075
▁തിരു	-9.55107
▁ജനാധ	-9.55309
▁വിധ	-9.55488
എ	-9.55602
▁നാണ	-9.5563
▁കയറ	-9.55674
▁യോട	-9.55952
▁പ്പന	-9.55982
▁തോമസ്	-9.55998
▁രഹ	-9.56042
രാ	-9.5605
▁ഗണ	-9.56152
▁ഒഴി	-9.56166
▁െയില	-9.5617
▁ഘാട	-9.56175
ഹ	-9.56248
▁്വാ	-9.56434
▁യാക	-9.56623
▁ചീ	-9.5676
▁േഹ	-9.56828
▁അയ	-9.56871
▁ാമി	-9.56934
▁ഖ്	-9.57068
▁ച്	-9.57387
▁അന്	-9.57479
ർത്ത	-9.5757
▁ായ്	-9.57629
▁ന്നത	-9.57691
▁ംഭ	-9.57881
▁കരം	-9.57903
▁ട്ടു	-9.57906
▁പരിധി	-9.57967
▁ാട	-9.57982
▁അവസ്ഥ	-9.58051
▁മിന	-9.58068
▁ടോ	-9.58079
▁ോറ	-9.58232
▁ബന്ധു	-9.5825
▁ാഗ്രത	-9.58268
▁താരം	-9.58535
▁ഗൗ	-9.58607
▁ിനി	-9.58638
▁തള്ളി	-9.58689
▁ത്തര	-9.58883
▁ടം	-9.5959
▁ഡല	-9.59602
▁നടന്	-9.59828
▁കാഴ്ച	-9.59888
▁ഉദ്	-9.60191
▁ള്ളൂ	-9.60713
▁നീതി	-9.60749
▁പശ്ച	-9.60826
▁ീധ	-9.60859
▁ീല	-9.60999
▁ാണ്ടി	-9.61038
്രകട	-9.61142
▁ൈക്ക	-9.61325
▁ഞ്ച്	-9.61467
▁വില്	-9.61484
▁വെട	-9.61558
▁ണായ	-9.61622
▁ആഗ	-9.61636
▁്ഷ	-9.61721
▁മൂ	-9.61788
▁ൊളി	-9.61962
▁റൂ	-9.62025
▁ീറ്റ്	-9.62233
▁50	-9.62412
▁വാദം	-9.62467
▁തിനു	-9.62482
ർണ	-9.6251
▁വിസ	-9.62698
▁വയസ	-9.63055
▁െന്	-9.63092
▁പ്രിയ	-9.63146
▁െൻ	-9.6337
▁ുക്ക്	-9.63447
▁പഴ	-9.63544
▁ീന്	-9.63678
▁ാളെ	-9.63773
▁ഗോപി	-9.6382
▁ിതമാ	-9.64001
▁ുഡ	-9.64125
▁ഊ	-9.64125
▁വിടെ	-9.6422
ടയില	-9.64243
▁എസ	-9.64262
▁ൂത്ത	-9.64476
്വാ	-9.6454
▁ഢ	-9.64571
▁ഉദ	-9.6469
▁ഗത	-9.64709
▁ികുതി	-9.64783
▁ണക്ക	-9.64835
▁ിഐ	-9.6488
▁്ഥ	-9.64893
▁െന്റ	-9.6499
▁ാറ്റം	-9.64991
▁ശേഷി	-9.65035
▁ുവിളി	-9.65085
▁യക്ക	-9.65168
‍	-9.6527
▁നൂ	-9.65286
▁െല്	-9.65305
▁ാളിക	-9.65345
▁ാവു	-9.6549
▁ശമ	-9.65567
▁ാഹ	-9.656
▁ാർത്ത	-9.65666
▁രവി	-9.65755
▁്യോഗ	-9.65788
▁തല്ല	-9.6596
▁14	-9.66093
00	-9.66133
▁ോണിയ	-9.66264
ിപിഎ	-9.66407
▁ങ്കള	-9.66605
▁ക്ഷണ	-9.66626
▁18	-9.66711
▁ളൂ	-9.66761
▁ോറി	-9.6701
▁ഗമ	-9.67045
▁യത്	-9.67048
▁ിതാ	-9.67234
▁ായും	-9.67379
▁19	-9.67673
▁ജറ	-9.67971
▁വന	-9.68023
▁നൽകി	-9.68161
▁ടവ	-9.68224
▁ബ്രി	-9.68225
ോച	-9.68982
േസിൽ	-9.68983
▁ിനു	-9.69028
▁ഫൈ	-9.69038
▁്ശേരി	-9.69041
▁ഇവരെ	-9.69043
▁റും	-9.69137
▁ാഭ	-9.69141
▁രിച	-9.69374
▁ന്ദര	-9.69376
▁ംപ	-9.69462
▁25	-9.69583
▁ോബ	-9.69646
▁നിവ	-9.69861
▁ുട്ട	-9.69918
▁ടങ്ങ	-9.69931
▁ശ്രമം	-9.69951
▁ഏഴ്	-9.70093
▁യാദ	-9.7013
▁ിഹാ	-9.70206
▁തേ	-9.70284
▁ണയ	-9.70285
ൃത്ത	-9.70302
▁സംസ്	-9.70457
▁ശു	-9.70481
▁ിസം	-9.70498
▁മ്പത	-9.70519
▁കൗണ്	-9.70572
▁കൊട	-9.70665
▁്ഥാനം	-9.71076
▁മഹ	-9.71485
എം	-9.71493
▁ക്വ	-9.71551
▁ാൾ	-9.7165
▁ലീ	-9.72062
▁കരി	-9.72212
▁െറ്റ	-9.72381
▁ുല്	-9.72456
▁ബസ	-9.72564
▁റെയ	-9.72649
▁ർട്ട	-9.72889
▁സ്പ	-9.7298
്ജ	-9.73343
▁കാർ	-9.73385
▁പാക	-9.73399
▁ബൈ	-9.73551
▁്ധ	-9.73585
▁ോക്ക	-9.73616
▁രായ	-9.73649
▁ലില	-9.73725
▁വൈറ	-9.74115
▁ഹര	-9.74592
▁പാത	-9.74615
▁ശ്	-9.74673
▁ട്ടാ	-9.74771
▁റാം	-9.74788
▁ോക്കി	-9.74848
▁പള്ളി	-9.7498
ൺ	-9.75062
▁പോര	-9.7507
▁ഡെ	-9.75084
▁സില	-9.75131
▁ലേ	-9.75254
▁ിഗ	-9.75265
▁ബജ	-9.75283
▁നിൽ	-9.75316
▁രജ	-9.75407
▁ർഡ	-9.75501
▁ശ്ശ	-9.75651
▁താൻ	-9.75662
▁യാത	-9.75696
▁ഞ്ചി	-9.75865
▁േഷന	-9.75951
▁ൂര	-9.7626
▁ച്ചടി	-9.76346
േറ്റ	-9.76398
▁ാലാ	-9.7658
▁കാരന	-9.76891
്രൂ	-9.76898
സാരി	-9.77221
▁ശര	-9.77248
▁ബല	-9.7743
▁ഏഴ	-9.77813
▁തൃപ	-9.78296
▁ുരു	-9.7853
▁തേടി	-9.78794
▁ംസ	-9.78966
▁ീർ	-9.78988
▁റ്ററ	-9.79382
▁ട്ടേ	-9.7946
തിന	-9.79519
▁രിൽ	-9.79546
▁രുമാ	-9.79636
▁മീ	-9.79659
▁ലക്	-9.79659
▁ളു	-9.7968
▁ിഷ്	-9.79694
്ര	-9.79963
▁13	-9.80096
▁ംബര	-9.8014
▁ദര	-9.80405
▁ക്കാല	-9.80627
▁ുപോലെ	-9.80772
▁വരില	-9.8082
▁ൊടി	-9.81011
▁സൂച	-9.81067
▁ൂണ്	-9.8129
▁ണ്ണി	-9.81436
▁ിന്നെ	-9.81555
▁ീപ	-9.81614
റു	-9.81642
▁േഷ	-9.81963
▁്പര്	-9.82132
▁40	-9.82208
▁പ്പു	-9.82354
▁പണ	-9.824
▁ിജ	-9.82602
▁കോള	-9.82718
▁ജല	-9.82786
▁ാരി	-9.8292
▁ദേശി	-9.83284
▁ധാരണ	-9.83323
▁ടാ	-9.83403
രവ	-9.8375
▁നസ	-9.83761
▁കില്ല	-9.83936
▁മ്മി	-9.83999
▁േത	-9.84
▁ുവി	-9.84115
▁ളജി	-9.84134
▁ഹെ	-9.84149
▁ിയില	-9.84234
▁ന്റ്	-9.84491
▁ഡിഎ	-9.84616
▁മാത	-9.84776
രുദ	-9.84822
▁ഹത	-9.84903
ൌ	-9.84969
▁ുകളിൽ	-9.85081
▁തായ	-9.85146
▁ോഡ	-9.85561
▁രിമ	-9.85767
▁ർവ്	-9.85896
▁ളുകള	-9.85937
▁പറ്റ	-9.8603
▁ിഞ്ഞ	-9.86084
▁പക	-9.8618
▁വക	-9.86623
▁വിദ	-9.86634
പീ	-9.86647
ശ്ചാ	-9.86751
▁വീഴ	-9.86936
▁ലാം	-9.87067
▁ഇയാ	-9.87167
▁ാബ	-9.87192
▁ാശ	-9.87379
▁ഖ്യ	-9.87407
▁കത്ത്	-9.87486
▁റ്റോ	-9.87783
▁ിം	-9.87826
▁മൈ	-9.87935
▁ിനും	-9.88064
▁ഞാ	-9.88242
▁റുകള	-9.88326
▁ടന്നു	-9.8842
▁സന്	-9.88507
▁ിഡ	-9.88798
▁വസ്തു	-9.8911
▁ദഗ	-9.89177
▁നത്ത	-9.89417
▁യുപ	-9.8945
▁ചി	-9.89657
▁ുനി	-9.89919
▁17	-9.90111
▁സ്വാ	-9.90285
േസെട	-9.90673
▁്റ	-9.90787
▁ടിയാ	-9.90806
▁ീണ്ട	-9.9084
▁ോധ	-9.9088
▁മതി	-9.90896
▁രിവ	-9.91344
▁േറ	-9.91433
▁ാമ്പ	-9.91536
▁ംസ്	-9.91631
▁ചല	-9.91774
▁വൂ	-9.91788
▁വധ	-9.91812
▁ദേശം	-9.91883
▁ിലായി	-9.91954
▁കാലം	-9.92009
▁ോണി	-9.92071
▁്രാന	-9.92268
ിനേ	-9.9244
▁ധേ	-9.92517
▁ാലിക	-9.9296
▁വറ	-9.9296
▁സ്സ	-9.93233
▁അതു	-9.93318
▁വൻ	-9.93485
▁വശ	-9.9383
▁വധി	-9.93927
▁വാസ	-9.94069
ാവ	-9.94308
▁പെട	-9.94321
▁യൊ	-9.94405
▁റാന	-9.94448
▁മറ	-9.94477
കർ	-9.94612
▁കരണ	-9.94648
▁ചോ	-9.9518
ലോ	-9.95198
▁കളക്	-9.95234
ുഴ	-9.9543
▁16	-9.95577
▁വരാണ	-9.95706
▁പോസ	-9.95778
▁കൃഷ	-9.95805
▁കഥ	-9.95836
▁ഉത്	-9.96192
▁്ക്ക്	-9.96447
പ്പി	-9.96524
▁ുഖ	-9.96656
▁റണ	-9.96776
▁റിൽ	-9.96913
▁ർഷ	-9.96994
ീപ	-9.97078
▁വല	-9.97169
▁ുണ്ടോ	-9.97219
▁സിംഗ	-9.97353
▁കാരി	-9.97549
▁സിക	-9.97575
▁ഭാ	-9.97723
▁േര	-9.9791
▁ാജി	-9.97986
▁ിയായ	-9.98093
▁മിക	-9.98187
ഭ	-9.98217
▁്പര	-9.98236
▁ശ്വ	-9.98321
▁മിനി	-9.98468
▁സാഹ	-9.98537
▁ാഴ്	-9.98584
▁സണ	-9.98693
▁ഷാ	-9.98831
▁ശ്ര	-9.98915
▁തികള	-9.98925
▁നായി	-9.98992
▁െറി	-9.99067
▁ൂല്യ	-9.99144
ാശ	-9.9916
േയും	-9.99365
▁ോക്	-9.99372
▁ത്തം	-9.9943
▁ർത്ത	-9.99528
▁മറി	-9.99652
▁വിനെ	-9.9966
▁ുമെ	-9.99706
▁രേ	-9.99755
▁ലം	-9.9988
▁അധിക	-9.99897
▁21	-9.99992
▁ളം	-10.0006
▁റന്	-10.0052
▁്ണു	-10.0064
▁റേ	-10.0093
▁അംഗീ	-10.0095
▁ശാ	-10.0105
▁സിക്	-10.0106
▁ബസ്	-10.012
▁ൂറ	-10.014
▁ക്സ	-10.0143
▁ിങ	-10.0165
▁ിയോ	-10.0199
▁അദ	-10.0199
െല്ല	-10.0203
ഃ	-10.0204
▁രമേ	-10.0206
▁തൃക	-10.0223
▁ധു	-10.0242
▁ൈസ	-10.025
▁ശേരി	-10.0252
▁ഡാ	-10.026
്ലാ	-10.0269
▁ിജി	-10.0315
▁വാര	-10.0319
▁ടില്ല	-10.0326
ദ്യ	-10.0336
▁ീറ്റ	-10.0341
▁ീഷ്	-10.0349
▁ുമതി	-10.0377
▁വേഷ	-10.0382
▁ഉമ്മ	-10.0406
രിസ	-10.0427
▁വൃ	-10.0441
▁അല്	-10.0468
▁െറ്റ്	-10.0472
▁വഹ	-10.0476
▁കൗ	-10.0482
▁േസ	-10.0482
▁കണം	-10.0492
▁ഷ്യല	-10.0496
▁ഛ	-10.05
▁മസ്	-10.0524
▁േന	-10.0528
ർഡ	-10.0543
▁റ്റർ	-10.0547
▁ബു	-10.0558
▁ിസിസ	-10.0567
▁ളിത	-10.0578
▁മ്മീ	-10.058
▁ത്തിര	-10.0589
▁രസ്	-10.0617
▁സ്തി	-10.0618
▁കോടതി	-10.0649
▁കുടു	-10.0654
▁്യാ	-10.068
▁റച്ച	-10.0682
▁ർമ്മ	-10.0685
▁ഐസ	-10.069
▁ാറ്റ്	-10.0696
▁നഗ	-10.0698
▁ജഡ	-10.0702
▁22	-10.071
▁െച്ച	-10.0722
രമാ	-10.0727
▁അങ്ങ	-10.0736
▁ശബ	-10.0746
▁100	-10.0778
▁നിത	-10.0835
▁ടത്	-10.0848
▁ഭാവി	-10.0858
▁പ്രീ	-10.0866
▁ത്വം	-10.0889
▁ോചന	-10.0898
▁ഇതു	-10.0927
▁മൃ	-10.0929
▁ുക്ക	-10.0935
▁ഴാ	-10.094
▁തൃ	-10.0973
▁ിനോട	-10.0976
▁ിഎസ്	-10.1017
▁ിന്റ	-10.1021
▁ങ്കിൽ	-10.105
▁ോടി	-10.1053
▁ിസി	-10.1073
ാഴ്ച	-10.1079
▁ത്യേ	-10.1096
▁കുള	-10.1105
▁ുല	-10.112
▁ല്ലി	-10.1136
▁ആന്	-10.1156
▁ിപ്പോ	-10.1214
▁െബ	-10.1268
▁തിരാ	-10.127
▁രുമ	-10.1271
▁ുറ്റ	-10.1283
▁കയറി	-10.1287
്ത്ര	-10.1295
▁നന്ദി	-10.1301
▁ലിസ്	-10.1309
▁്രമ	-10.1322
ദ്ദ	-10.1329
▁്പൂ	-10.1342
▁ോക	-10.1357
▁േക്ഷ	-10.1376
ാലും	-10.1391
യർ	-10.1406
▁ഷിന	-10.1415
▁ഓണ	-10.1418
▁റിക	-10.143
▁ർത്തു	-10.1444
▁േലി	-10.149
ോഷ്യ	-10.1514
▁ൂട്ട്	-10.1548
▁ത്തും	-10.1565
▁ൈന	-10.157
▁മമത	-10.1571
▁രുവ	-10.1582
▁കീ	-10.1586
▁60	-10.1646
യാള	-10.1653
▁ലയ	-10.1658
▁ീഡ	-10.1739
ലീ	-10.1744
▁ശോ	-10.1746
▁ര്യ	-10.177
▁്ലിക്	-10.1782
▁റവ	-10.1788
▁ിലായ	-10.1804
▁ിപി	-10.1819
▁ബിന	-10.1838
▁ഓഫ	-10.186
▁ോർ	-10.1876
ക്ത	-10.1895
▁രിയാ	-10.1935
▁്രു	-10.1943
ിറ്റ	-10.1952
▁ൂപ്	-10.1953
▁വായ	-10.1955
▁ഗാന	-10.1984
▁ോദ	-10.1992
▁ാവന	-10.2015
▁ൊഴി	-10.2016
▁ഘാ	-10.2039
▁ാലം	-10.2074
▁ജയ്	-10.2097
്ട്ര	-10.21
▁്യമാ	-10.2112
▁ല്ലേ	-10.2122
▁കുക	-10.2127
▁യല	-10.2135
▁മിത	-10.2151
▁കരമായ	-10.2155
▁പുഴ	-10.2166
▁വുക	-10.2166
▁ഷമ	-10.2176
കുമ	-10.2188
▁ബർ	-10.2231
▁വൈറസ	-10.2246
▁നിക	-10.2246
▁ട്ടം	-10.225
▁റീ	-10.2256
രിഗണ	-10.2282
▁ത്രിക	-10.2288
ന്ദ	-10.2291
▁ുസ	-10.2297
▁ിയാണ്	-10.2312
▁ന്മാ	-10.2325
▁ിനാ	-10.233
▁23	-10.2348
▁ക്ഷമ	-10.2348
▁നഡ	-10.237
▁വകാ	-10.2405
▁വിള	-10.2407
▁ികളെ	-10.2433
▁ശത	-10.2444
▁െസ്	-10.2445
▁ോഹ	-10.2454
▁കല്	-10.2458
▁നദ	-10.2467
▁ഴിവ	-10.2533
▁ികാര	-10.2535
▁ഡീ	-10.2537
ാം	-10.2569
▁വിദ്യ	-10.2569
▁ന്മ	-10.2599
▁ടയില	-10.2609
▁കത്തി	-10.2619
▁ഭി	-10.2635
▁യുട	-10.2652
▁ീവ	-10.266
▁ക്സ്	-10.2664
▁ഷ്ടമ	-10.2667
▁ിമത	-10.2678
▁നാഥ്	-10.2685
ണ്ണ	-10.2691
▁അധി	-10.2696
സ്ഥാ	-10.2706
▁ജീ	-10.2712
▁ീമ	-10.2727
▁28	-10.2764
▁രിത	-10.2769
▁ജിത്	-10.2771
▁ഡിയോ	-10.2778
കാര	-10.2789
▁സംഭ	-10.279
▁ഡ്ര	-10.2791
▁വിഭ	-10.2815
▁െക്ക	-10.2855
▁ഉടൻ	-10.2876
▁ഒക	-10.2881
▁കോട്ട	-10.2894
▁േതാ	-10.2898
▁റബ	-10.29
▁ഴുത	-10.2909
▁ലപ്പ	-10.2939
▁ായിക	-10.2953
▁ംശ	-10.3034
▁ുഷ്	-10.3056
▁വോ	-10.3076
▁യ്പ	-10.309
സിഡ	-10.309
േഷ	-10.3099
▁ദ്ധി	-10.3117
▁ഷെ	-10.3133
▁പറ്റി	-10.3133
▁തുത	-10.3135
▁ടിയ	-10.3138
▁ീകരണം	-10.3168
▁31	-10.3184
▁ഷത്ത	-10.3184
▁കിന	-10.3195
▁ടീം	-10.3228
▁േറിയ	-10.3248
▁ിയും	-10.3257
▁ങ്	-10.327
▁ഗഡ	-10.3274
▁റുക	-10.3286
▁മ്മു	-10.3301
▁കൺ	-10.3309
▁കോട്	-10.3319
▁ഇവിട	-10.3321
▁26	-10.335
▁ായത്	-10.3372
▁സിം	-10.3395
ട്ടി	-10.3427
▁27	-10.3448
ാല്	-10.3458
▁വെല്	-10.3483
▁്ജ	-10.3491
▁ഹാര	-10.3494
▁ആക	-10.3498
▁%	-10.3501
▁ടിന	-10.3511
▁ഷീ	-10.3514
▁ടങ്ങി	-10.356
ണ്	-10.3567
▁ിമാ	-10.3594
▁ിനാണ	-10.3611
▁േജ്	-10.3633
▁വിഡ	-10.3644
▁ിശ	-10.3664
▁കാന	-10.3684
▁ൻസ്	-10.3691
▁തിയാ	-10.3702
▁ോഷ	-10.3722
▁ുള്	-10.3723
▁ിഹ	-10.3731
▁ിയാല	-10.3745
▁ഞ്ഞി	-10.3799
▁ലിസ	-10.3809
▁ലാണ്	-10.3817
▁സേ	-10.3828
▁്പെ	-10.3838
▁റ്റാ	-10.3841
▁അജ	-10.3843
▁്വേഷ	-10.3855
▁ാണോ	-10.3881
▁ോന്നി	-10.3884
▁ീട്ട	-10.3895
▁ഭവ	-10.3905
▁ദേ	-10.3907
▁ക്കണം	-10.3924
ികള	-10.3934
▁ാധി	-10.394
▁യിലാ	-10.3941
▁ഴുതി	-10.3941
▁സ്ല	-10.3949
▁ലൂ	-10.3978
▁നു	-10.3983
▁ർമ	-10.3985
▁പൈ	-10.401
▁റക്ക	-10.4027
▁ഐഎ	-10.4027
▁ന്തോ	-10.4029
▁തോമസ	-10.4033
▁ിന്ദ	-10.4063
▁വരാ	-10.4093
e	-10.4101
▁ുളം	-10.4112
▁35	-10.4119
ൃത്യ	-10.4152
റി	-10.4164
▁ണന	-10.4169
▁്യമ	-10.4184
ാർ	-10.4192
െടു	-10.4206
▁ുമാണ	-10.4231
▁രപ്പ	-10.4235
▁ലിയ	-10.4236
▁െറ	-10.427
▁പിഎ	-10.428
▁വിന്	-10.4299
▁ഞ്ഞു	-10.4335
▁ൃത്ത	-10.4339
▁താഴ	-10.4367
s	-10.4374
▁കൊല്	-10.4381
▁യതി	-10.4388
▁സംവ	-10.4435
▁ടത്ത	-10.4439
▁ുവിന	-10.4454
▁ഞ്ഞ്	-10.4461
▁ഭീ	-10.4469
▁േട	-10.4472
ട്ര	-10.4491
▁രിസ	-10.4498
▁റായ	-10.4516
▁നങ്ങൾ	-10.4518
▁ഇര	-10.4518
▁ുരുത	-10.4539
▁ല്ലാ	-10.4541
▁ിലവ	-10.4561
▁രസ	-10.4587
▁ൊക്ക	-10.4596
▁ികെ	-10.4603
▁രംഭ	-10.4643
▁്യാപ	-10.4645
▁മലയ	-10.4673
▁ാലിന	-10.4702
▁ക്കുട	-10.4711
▁േഖ	-10.4713
ോർ	-10.4714
▁ൂഹ	-10.4735
▁വിൽ	-10.4743
▁ൂട്ടി	-10.475
▁യൻ	-10.4756
▁ഫീ	-10.4763
▁ാരക	-10.4773
▁പറ	-10.4786
▁റായി	-10.4795
▁സെക്	-10.4804
▁ടത്ത്	-10.4844
ോഭ	-10.4858
▁കമായി	-10.4861
▁ബുദ	-10.4861
▁എപ	-10.4866
▁ിനേ	-10.4881
▁്ജി	-10.4894
▁അല്ലെ	-10.4896
▁നുമാ	-10.4899
▁ാജ	-10.4902
▁േണ	-10.4904
▁തള്ള	-10.4908
ീകര	-10.4914
▁ൊറ	-10.4986
▁െസ	-10.4988
▁ർട്ട്	-10.499
▁ിത്ര	-10.4996
▁ഞ്ഞാ	-10.4997
▁ൂണ	-10.5001
▁പീ	-10.5009
▁ജിസ	-10.5016
▁ഡന	-10.5017
പ്പെ	-10.502
▁മില	-10.5036
വന്ന	-10.5038
▁ധര	-10.5041
▁ളിയ	-10.5045
▁ാനമ	-10.5063
▁മുറ	-10.5088
▁ീണ	-10.5114
▁റക്കി	-10.5116
▁ചെയ	-10.5124
▁ാറില	-10.5134
▁താവ്	-10.5148
▁ങ്ക്	-10.5153
▁രണ്	-10.5164
▁രത്	-10.5164
▁45	-10.5178
▁േഷൻ	-10.5191
▁ോഗ	-10.5204
▁ള്ളു	-10.5215
▁്ഗ	-10.5215
▁സിസ	-10.5216
▁േടി	-10.5243
▁ഷണം	-10.5248
▁ൊണ്ട	-10.5248
▁ചന	-10.527
▁ഡിയ	-10.53
▁സെന്	-10.5308
▁രാം	-10.5348
ോൺ	-10.536
▁റങ്ങി	-10.5382
▁ുമാന	-10.5396
▁രങ്ങ	-10.5413
▁ുഭ	-10.5413
▁്രയ	-10.5434
▁്താവ	-10.5447
▁ാഴ	-10.5482
▁്ഡ	-10.5495
▁തോട	-10.5505
▁പഞ്ച	-10.5509
▁ഫീസ	-10.5551
▁ിനാണ്	-10.5551
▁80	-10.5556
▁ോൺ	-10.5567
▁സഫ	-10.5573
▁ള്ളിയ	-10.5593
▁ഇത്ര	-10.56
▁ണല	-10.5603
റ്റു	-10.5613
▁സുപ	-10.5624
▁ണറ	-10.5627
▁്പ്ര	-10.5628
5	-10.5634
▁ാജ്	-10.5649
▁കളാണ	-10.5669
▁ബേ	-10.57
▁സഖ	-10.5725
▁വിഡി	-10.5733
▁ൈക	-10.5741
▁രാണ	-10.5742
▁ുമ്പ	-10.5753
▁ാത്ര	-10.5754
▁ായത	-10.576
▁അതേസ	-10.5766
▁കമായ	-10.579
വില	-10.5791
▁വ്യ	-10.5803
▁ലായ	-10.5853
▁താവ	-10.5882
▁ധീ	-10.5883
▁്രസ്	-10.5886
▁ജിത	-10.5912
▁29	-10.5936
▁ക്ട്	-10.5942
▁വതി	-10.6021
▁ീട്ടി	-10.6035
▁70	-10.6046
▁നിശ	-10.6051
▁ദിവ	-10.6054
▁ടിസ	-10.6091
▁്ലി	-10.6099
▁സോ	-10.6121
▁ോട്ടെ	-10.613
▁ോലി	-10.6141
▁ോബി	-10.6157
▁ശോഭ	-10.6178
▁ിതം	-10.6188
▁മത്തി	-10.6192
ബ്	-10.6192
ടക	-10.6196
▁തം	-10.6198
▁ക്ഷത	-10.6208
▁െട്ട	-10.6216
▁ാബി	-10.6216
▁ചക	-10.627
കാ	-10.6278
▁രണമ	-10.6312
▁യല്	-10.6315
▁ലമെ	-10.6315
്ടറ	-10.6317
▁ോഡി	-10.6342
▁വൽ	-10.6346
▁ാധ	-10.635
▁ുകയ	-10.6375
▁മ്പന	-10.6382
▁തുമായ	-10.6404
▁്യന്	-10.6415
▁ചിരി	-10.6465
▁ശശ	-10.6469
▁ിക്കെ	-10.648
▁ശത്ത	-10.6504
▁ോം	-10.6508
▁വരി	-10.6536
▁ലത്ത	-10.656
ിൽ	-10.656
▁ാഗ്	-10.6567
▁ാങ്ങ	-10.6645
▁ുരേഷ	-10.6655
▁തിയ	-10.6688
▁േർ	-10.6717
▁ഷറ	-10.6719
▁ാസിക	-10.6724
▁തരം	-10.6725
▁ശം	-10.6737
▁ന്തു	-10.6738
▁ക്കാൻ	-10.6741
▁ണിയ	-10.6752
▁തക	-10.6772
▁ക്സി	-10.6798
▁ർഥ	-10.6817
▁ദ്യ	-10.6856
▁ണോ	-10.6862
▁്രസ	-10.6871
▁സൺ	-10.6881
▁ബൂ	-10.689
▁്കോട	-10.6893
▁തറ	-10.6905
▁ട്ടും	-10.6908
▁ുകയു	-10.6917
)	-10.6935
▁ാണിത	-10.6945
▁in	-10.7009
▁രായി	-10.701
▁ഡിന	-10.7012
▁ുപാ	-10.7021
▁വസ്	-10.7025
▁ിച്ചു	-10.7039
▁ഇഡി	-10.705
▁വത്	-10.7053
▁ന്തി	-10.7064
▁കോട	-10.7094
▁ടിമ	-10.7116
▁രവ്	-10.7146
▁ല്ലു	-10.7147
▁നുമ	-10.7153
▁അവിട	-10.716
▁ർഹ	-10.7178
▁ാപന	-10.7185
▁മ്പര	-10.7185
▁്ഡി	-10.7208
▁രാശ	-10.7222
▁വഴ	-10.7238
▁ുദ്ധ	-10.7242
▁ുഷ	-10.7252
▁ാസി	-10.7255
▁ലാത്	-10.7272
▁സസ്	-10.7274
▁ൂരില	-10.7301
▁കാണാ	-10.734
▁ന്നീ	-10.7358
▁മാല	-10.7364
▁പൊട	-10.7373
▁ൂത	-10.7382
▁ക്ഷന	-10.7384
▁ധാര	-10.7406
▁കുട	-10.7426
▁ാരം	-10.7429
▁ദർ	-10.7444
▁ോടു	-10.7454
▁ങ്കി	-10.7471
▁ുറി	-10.7534
▁ീയത	-10.7537
▁െറ്റി	-10.7547
ിലും	-10.7565
▁സിറ	-10.7595
▁ദയ	-10.7604
▁പരിച	-10.7648
രിക്	-10.7712
▁കമാ	-10.7714
▁നടന	-10.7716
▁ളോട	-10.7727
▁മ്പർ	-10.7735
50	-10.7748
▁ളുട	-10.7844
▁ോൾ	-10.785
▁ിയേ	-10.785
▁രാർ	-10.788
▁പാസ	-10.7886
▁പനി	-10.7888
▁െല	-10.7919
▁ജിന	-10.7933
▁ോന്	-10.7942
▁ധവ	-10.7946
▁കളുമ	-10.7948
യിൽ	-10.796
ലൂ	-10.7975
▁ദ്യം	-10.7988
▁ശ്ശേ	-10.8021
▁ിയന്	-10.8024
▁ൊട	-10.8035
▁ീപ്	-10.806
▁ലീസ	-10.8061
▁ലസ	-10.8069
▁ദന	-10.8073
▁രോട്	-10.8077
▁റാണ	-10.8081
▁അപ	-10.8113
▁ിനിമ	-10.8127
▁ാലു	-10.8128
പ്ര	-10.8142
▁രമി	-10.8156
▁ണിത്	-10.8168
▁എഎ	-10.8187
▁രാക	-10.8195
▁ഥാപ	-10.8218
▁ളാ	-10.8221
▁്തവ	-10.8229
േര	-10.823
ജി	-10.8234
▁രമായ	-10.8272
▁200	-10.8278
▁ത്സ	-10.8291
▁ാണ്ട	-10.8293
▁അഴ	-10.8303
▁ാധ്യത	-10.831
▁ഗം	-10.8323
▁സക്	-10.8364
▁ടേയ	-10.8368
▁ഒമ	-10.8434
കൂ	-10.8443
▁ലവ	-10.8452
▁മുള	-10.8457
▁യന്	-10.8475
▁ട്ടയ	-10.8476
▁ചിത	-10.8496
▁ോഷി	-10.8505
▁ാരമ	-10.8513
▁സിസ്	-10.8526
▁ആറ	-10.8531
ാൽ	-10.8547
▁ർപ	-10.8555
▁്ലേ	-10.8571
▁സൈന	-10.8585
▁32	-10.8594
▁നിലയ	-10.8628
▁ബാബ	-10.8633
▁േസെട	-10.864
▁റൈ	-10.8657
▁സിൽ	-10.867
ിഡന്	-10.8679
▁യൽ	-10.868
▁ടല	-10.8681
▁മദ	-10.87
▁തന്ന	-10.8743
▁താക	-10.8767
▁ിരു	-10.8768
▁യിന	-10.8807
▁്ട്ര	-10.8831
▁്പോ	-10.8833
▁പെര	-10.885
▁റേഷന	-10.8864
▁അശ	-10.8868
▁ീറ	-10.8946
▁ിനോ	-10.8968
ാരിക	-10.8985
ൾ	-10.8987
▁ഹോം	-10.8996
▁തികൾ	-10.9
▁90	-10.902
▁നൽ	-10.9042
:	-10.9047
ൻസ	-10.905
▁്ഷന	-10.905
▁ോലെ	-10.906
▁എഫ	-10.9067
▁ബദ	-10.9073
▁നോട്	-10.9077
▁48	-10.9083
▁ടന്ന	-10.9089
▁ജനം	-10.9117
▁ീം	-10.9117
▁ലീസ്	-10.9119
▁ുങ്ങ	-10.9124
▁പ്രസ്	-10.9129
▁ദള	-10.9129
▁75	-10.9169
▁w	-10.9198
ടിയ	-10.9209
▁രക്ക	-10.9227
▁രോപ	-10.9233
▁നടൻ	-10.9237
▁ലിന്	-10.9243
▁േത്	-10.9253
▁കോഴ	-10.9267
▁ുടി	-10.932
▁കൃ	-10.9334
▁5,	-10.9344
▁ാഷ്	-10.9346
▁്റി	-10.935
▁ുന്	-10.9369
▁നഷ്	-10.9377
▁മുട	-10.9378
▁നുണ	-10.9385
▁ടത്തി	-10.9396
▁ന്വേ	-10.9399
▁രദ	-10.9419
▁െഡി	-10.9431
▁സുധ	-10.9437
▁ുവരെ	-10.9442
▁ഭാഗം	-10.9443
▁ൊര	-10.9448
▁ൂപ	-10.9452
▁ാദ്	-10.9465
▁ണിക്	-10.9468
ധികം	-10.9501
▁സിഡ	-10.9503
▁55	-10.9511
▁ൂല	-10.9516
▁മോദി	-10.9522
▁്രൂ	-10.9537
▁ിഡി	-10.9546
▁മണ	-10.9551
▁ആഴ	-10.9559
▁ഥാന	-10.9569
▁ുബ	-10.9576
▁കോവ	-10.9583
▁നയില	-10.959
▁പിഴ	-10.9641
▁ാലോ	-10.9642
▁്റം	-10.9649
▁ിടയ	-10.965
▁ീട	-10.9668
▁്ലാതെ	-10.9673
▁ുണ്	-10.9674
▁ർക്ക്	-10.9679
▁സ്വര	-10.9694
▁ജൻ	-10.9702
െയും	-10.9719
▁ടണ	-10.975
▁ായില	-10.9758
▁ികമാ	-10.9761
▁ിളി	-10.9763
▁മേള	-10.9785
▁ിലാണ്	-10.9811
▁2,	-10.9825
▁യ്ക്	-10.9838
ാൻ	-10.984
▁ന്ദ്	-10.9857
▁ീഴ	-10.9873
▁ൾഡ	-10.9887
▁്യേ	-10.9887
▁ന്ത്	-10.99
▁ൊണ	-10.9942
▁പോലു	-10.9947
▁ട്രെ	-10.9951
▁ചുമത	-10.9983
▁ളോ	-10.9988
▁അലി	-10.9997
▁െയ്ത	-11.0007
▁തെര	-11.001
▁ൗണ	-11.0051
▁ക്കാം	-11.0055
▁34	-11.0065
▁ിനിട	-11.0071
▁ലങ്ങ	-11.0091
▁തീയ	-11.0093
▁ണമായ	-11.0112
▁്റ്	-11.0117
▁ിഎ	-11.0146
▁ശൻ	-11.016
▁ഫിക്	-11.0216
▁ഇതോട	-11.0236
▁ന്നെ	-11.0258
▁ൂട്	-11.0258
▁ുങ്ങി	-11.0284
▁ണിത	-11.0285
▁തത്	-11.0286
▁വീണ്	-11.0325
▁ലാണ	-11.033
▁33	-11.0409
▁ഇടം	-11.0415
▁റങ്ങ	-11.0421
▁ന്താ	-11.0427
▁ിദ	-11.044
▁36	-11.0445
▁ക്തി	-11.0449
▁മ്പി	-11.0449
▁ചൂ	-11.0462
▁k	-11.0475
▁ഉം	-11.0496
▁അപ്	-11.05
▁ോസ്	-11.0524
▁്വി	-11.0526
▁ർഘ	-11.0535
▁ോപ	-11.0574
▁രയില	-11.0618
▁ാമത	-11.0627
▁യൺ	-11.0635
ുമായ	-11.0671
▁ഴ്ച്ച	-11.0674
മാണ്	-11.0676
▁ാനിയ	-11.0688
▁അവി	-11.0695
▁റിന്	-11.0713
▁യ്യാ	-11.0732
-	-11.0771
കെടു	-11.0777
▁ൽപ	-11.0779
▁ാശി	-11.0783
▁രിക	-11.0786
▁ണാ	-11.0787
▁കൊള	-11.079
▁ാനു	-11.0811
▁ൂരി	-11.0862
ൃത	-11.0903
▁തുണ	-11.0903
▁8,	-11.0907
▁മകൻ	-11.0935
▁തന്	-11.0961
▁ാപി	-11.0978
▁ദിക്	-11.0984
▁ഇതാ	-11.0992
▁ാവ്	-11.1005
▁രോട	-11.1056
▁പിട	-11.1058
▁എയർ	-11.1063
2,	-11.1105
▁ുത്തു	-11.1116
▁ംവി	-11.1124
▁ന്‍	-11.1129
▁ൻറ	-11.1167
▁ങ്ങാ	-11.1168
▁6,	-11.119
▁പേരാ	-11.1201
▁സുകള	-11.122
7,	-11.1243
ളം	-11.1246
▁ിയതി	-11.1269
▁ുറന്	-11.1283
▁മണ്	-11.1286
ww	-11.13
▁ഒന്	-11.1304
▁ഫറ	-11.1325
▁ഫഷണ	-11.1347
▁യുമെ	-11.1358
▁ആക്	-11.1379
▁കമ്	-11.1397
▁കുമോ	-11.1427
▁റ്റിൽ	-11.1435
▁വാങ്	-11.144
▁ഷഹ	-11.1457
▁നയം	-11.1482
▁രണം	-11.1496
▁ച്ചറ	-11.151
▁ട്രി	-11.1548
▁നാവ	-11.1551
▁റഫ	-11.1563
▁ടപ്പ	-11.1586
▁്ലെ	-11.1617
▁ാക്ഷ	-11.1626
▁ിവ്	-11.165
▁ജയം	-11.1651
▁ുഹ	-11.1791
▁ൽഷ	-11.1793
▁ിടു	-11.1805
▁റുമ	-11.1827
▁1,	-11.1834
▁ധിപ	-11.1856
▁പടി	-11.1867
▁42	-11.1926
▁യൂട	-11.1931
▁മദ്	-11.1965
▁ഇങ്ങ	-11.1977
▁41	-11.1984
▁ടക	-11.1991
▁രാട്	-11.1997
▁ളും	-11.2016
▁ഗറ	-11.2087
▁ാകു	-11.2108
▁െയാണ്	-11.2148
▁43	-11.2153
3,	-11.2161
▁ംസാ	-11.2165
▁39	-11.2197
▁നതാ	-11.224
▁കൻ	-11.2243
▁ഹസ	-11.2247
▁നുസ	-11.2255
▁തുമ	-11.2274
▁ണവും	-11.2292
▁റ്റും	-11.2293
▁38	-11.2298
▁കമ്പ	-11.2299
6,	-11.2302
▁മാസം	-11.2302
▁ാങ്ക്	-11.231
▁െയ്യ	-11.2311
▁വിദേ	-11.2312
▁ങ്ങന	-11.2325
▁താവി	-11.2331
റേഷന	-11.2336
▁്ടെ	-11.2344
8,	-11.235
▁10,	-11.2404
▁ക്ടർ	-11.2426
▁37	-11.2439
▁മധ	-11.2476
▁ാകരന	-11.2477
▁ടും	-11.2477
▁150	-11.2479
▁ഞ	-11.2491
▁പട്	-11.2493
▁വഷള	-11.2501
തോടെ	-11.2516
▁ര്യം	-11.2522
▁ഇഷ	-11.2543
▁ിലേ	-11.257
▁ൾസ	-11.2596
▁നസ്	-11.2609
▁65	-11.2612
▁രദേശ	-11.2635
തെ	-11.2654
▁റ്റെ	-11.2666
▁ാഥ	-11.2697
▁സാരി	-11.2699
▁ോദ്	-11.2706
▁ശക	-11.2721
▁ലിക	-11.2738
▁ലമ	-11.2764
▁റച്ച്	-11.2769
▁ലഡ	-11.2776
▁ലറ	-11.28
▁മുക	-11.2811
▁രട്	-11.2813
▁രത്ത	-11.2833
▁ണ്ണൂ	-11.2835
▁11,	-11.2849
▁ിപ്	-11.2852
▁ഉമ	-11.2855
▁ചന്ദ	-11.294
▁മിറ	-11.2972
▁അബ	-11.2994
സര	-11.3015
▁ർദ	-11.3042
▁ഋ	-11.3043
▁കാം	-11.3053
▁വിക	-11.3062
▁52	-11.3082
▁കണക്	-11.3085
▁ാധിപ	-11.3085
▁പള്	-11.3095
▁ത്തുക	-11.3108
▁47	-11.3131
▁ിറക	-11.314
▁അഭ	-11.3177
▁ിയാണ	-11.3198
1,	-11.321
▁44	-11.3235
▁പദ	-11.324
▁ഫസ	-11.3276
▁റൻ	-11.3277
▁ടർ	-11.3294
▁ാപ്	-11.3302
▁ശ്ച	-11.3312
▁ശ്വസ	-11.3335
മ്പർ	-11.3339
▁ീഷണ	-11.3387
▁അധ	-11.3391
▁രഘ	-11.3392
▁സ്ഥി	-11.3434
▁ലായി	-11.3437
▁മെന്	-11.3463
▁പോളി	-11.349
▁ങ്കു	-11.351
▁തമാ	-11.3518
▁ിപ്പ്	-11.355
▁ാങ്	-11.3553
്വീക	-11.3555
30	-11.3613
▁മത്	-11.365
▁നിക്	-11.3669
▁49	-11.367
▁ലയില	-11.3675
▁ോച	-11.3698
▁ാരു	-11.3704
▁ൊല	-11.3726
▁ശൂ	-11.3728
▁ആരോ	-11.3738
▁്രെയ	-11.376
▁വിക്	-11.3763
ൈസ	-11.3775
5,	-11.3781
▁പ്പറ	-11.3798
▁മോദ	-11.3806
▁ലപ	-11.3823
▁നമാണ	-11.3827
▁ിലാണ	-11.3834
▁ഹേ	-11.3849
▁സ്ലി	-11.388
▁ിദ്	-11.3885
▁ചതി	-11.3892
4,	-11.3954
am	-11.3959
▁ട്ടറ	-11.3962
▁മർ	-11.3962
▁ചിക	-11.3963
പുഴ	-11.3985
▁ടര	-11.4024
▁ിനാല	-11.4027
▁റിസ്	-11.4037
▁നിപ	-11.4038
▁ചുമ	-11.4048
▁ഘോ	-11.4065
▁മെന	-11.4067
▁്യൻ	-11.4083
▁9,	-11.4092
▁72	-11.4099
▁തമായ	-11.4102
▁51	-11.4102
▁നുഭ	-11.4109
▁രെയ	-11.4115
▁തിമ	-11.4125
▁3,	-11.418
▁മരം	-11.4189
▁ബില	-11.4206
▁ഡന്	-11.4225
▁രിന	-11.4248
▁ാരിക	-11.4264
▁ഷ്ണ	-11.4306
9,	-11.4308
▁ഹിന്	-11.4316
▁ഖല	-11.4404
▁കേട	-11.4422
▁ഭ്യ	-11.4434
▁ാര്യത	-11.4454
▁ത്യം	-11.449
▁ഇപി	-11.4492
we	-11.4497
t	-11.451
▁്യാന	-11.451
▁സൽ	-11.4527
െതിര	-11.4534
▁്യവും	-11.4554
▁പറേ	-11.4559
▁മൻ	-11.456
▁ലമാ	-11.4567
▁ചേരി	-11.4586
▁ദമാ	-11.4594
▁നവും	-11.4604
▁ാനെ	-11.4611
▁പാക്	-11.4668
▁യേറ	-11.4673
▁്മദ	-11.4678
വൾ	-11.4715
▁ാറിന	-11.4719
▁ടിപ	-11.4728
▁കടം	-11.4741
▁4,	-11.4748
▁സ്ബ	-11.4749
▁ോഷ്	-11.4753
▁ലഘ	-11.4759
ജെ	-11.4761
▁ാമര	-11.477
▁ുമാനം	-11.4776
▁ുൻ	-11.4812
▁ദൃ	-11.4815
19	-11.4816
▁gov	-11.4816
▁An	-11.4828
▁ഴക	-11.4842
▁ടാക്	-11.4867
▁ീക	-11.4876
എഫ്	-11.4879
▁46	-11.4915
▁ദില്	-11.4929
▁തുമാ	-11.4933
▁ിക്കോ	-11.4936
▁ഭഗവ	-11.4952
▁രച	-11.4988
▁56	-11.5013
▁എംപ	-11.5043
▁ണവ	-11.5064
▁്യാര	-11.512
▁്രെ	-11.5126
▁ീക്ക	-11.519
▁രുതി	-11.5203
വൻ	-11.5227
▁യിക	-11.5227
▁്ചാ	-11.5293
▁പക്	-11.5312
▁han	-11.533
▁ഹാജ	-11.5389
▁ലഹ	-11.5397
▁യമാ	-11.5403
▁പെരുമ	-11.5408
▁േക്	-11.5449
▁എന്റ	-11.5523
▁ചിര	-11.5527
▁ുപോ	-11.5539
▁ാരന	-11.5544
▁ഉടമ	-11.5571
▁ാലിക്	-11.5583
▁rala	-11.5602
▁കാതെ	-11.561
▁ൊപ്പ	-11.5621
▁റൂം	-11.5642
▁ായു	-11.5648
▁ാശ്	-11.572
▁ാക്	-11.5722
▁ലോട്	-11.5726
▁േയു	-11.5731
▁ീവി	-11.5734
▁ഇഒ	-11.5734
▁പേരു	-11.5739
▁54	-11.5757
രുടെ	-11.5788
▁ലപ്	-11.5801
▁58	-11.5803
▁മകൾ	-11.5816
▁നഗർ	-11.5827
▁സന്ധ	-11.5921
70	-11.5929
▁1.	-11.5939
▁ടൺ	-11.5944
▁ിപ്ര	-11.5944
&	-11.5948
▁്നാ	-11.6016
▁രിസ്	-11.6028
▁രൺ	-11.6048
▁ടേ	-11.6055
▁ഭയം	-11.6071
▁ഗെ	-11.6073
▁ഡൻ	-11.6081
▁േള	-11.6084
▁മൺ	-11.6098
▁ിണറ	-11.6107
▁ണങ്ങൾ	-11.6111
▁ദ്ധത	-11.6114
▁എങ്ങ	-11.6146
▁ന്നോ	-11.6155
▁ാക്സ	-11.6196
▁ാബു	-11.6207
▁വാണ	-11.622
▁റൺ	-11.6228
▁ഡൗൺ	-11.6263
▁മതം	-11.6271
▁57	-11.6274
▁്ടം	-11.6289
▁ടൈം	-11.633
▁ാവി	-11.6334
▁I	-11.6338
ുദ്ധ	-11.6352
▁േസ്	-11.6358
▁ദ്യോ	-11.6362
▁53	-11.638
▁ച്ചത്	-11.6385
▁്പന	-11.6394
ിഎം	-11.6405
▁റുകൾ	-11.6409
▁കരമ	-11.6467
0%	-11.6478
▁ജിയ	-11.6482
▁ൊല്ല	-11.6529
▁ോഴ	-11.6597
▁ല്ലെ	-11.6616
▁ടന്	-11.6618
6	-11.6619
▁അമേ	-11.6633
▁ർവ	-11.6694
▁ീരു	-11.6695
▁85	-11.67
▁ൂഹത	-11.671
▁്കോ	-11.6723
▁അക്	-11.6734
▁ത്തത്	-11.6734
▁ഏറ	-11.6743
ശ്വസ	-11.6754
്രധാ	-11.6769
▁നബ	-11.6786
▁ോപ്	-11.679
▁ാനിക	-11.6806
▁മുഹ	-11.6808
·	-11.6808
▁നമായ	-11.6817
തിരി	-11.6824
▁ഗൾ	-11.6848
▁സ്തു	-11.6849
▁പഥ	-11.6864
ോളം	-11.687
▁മിന്	-11.6881
▁ലെട	-11.689
▁്രിയ	-11.6906
▁അൽ	-11.6908
▁സന്ത	-11.6942
▁മിക്	-11.6944
▁ുട്	-11.695
▁രുന	-11.6963
▁ോഗ്	-11.6965
▁കാട്	-11.6972
),	-11.7031
▁പോസ്	-11.7036
▁#	-11.7056
▁യുക	-11.7071
▁കൊല	-11.7075
▁രതി	-11.7091
20	-11.7098
▁രധ	-11.7109
▁ലുമ	-11.713
ങ്ങൾ	-11.7132
▁ാറാ	-11.7187
60	-11.7221
മായി	-11.7235
▁്പാ	-11.7245
▁ഒപ	-11.7261
▁രവും	-11.7262
▁യുണ	-11.7278
▁ിഞ്ഞു	-11.7281
▁ജഗ	-11.7284
▁ഹം	-11.7287
44	-11.7293
.2	-11.7313
▁ലയി	-11.7334
▁വൺ	-11.7361
▁ൊവ	-11.7367
ബി	-11.7386
▁ശവ	-11.7396
▁...	-11.7399
▁ർണ	-11.7427
▁സെന	-11.7428
േറ	-11.7433
▁ഉച	-11.7454
▁ിവാ	-11.7493
▁വ്യത	-11.7507
▁ർബ	-11.7528
▁േസിൽ	-11.7532
▁ജിക്	-11.7559
ൃഷ്ണ	-11.7561
▁നങ്ങ	-11.7563
▁ഗർ	-11.7583
▁ഓള	-11.7599
▁ണ്ണം	-11.7602
▁ാപനം	-11.7606
▁യന്ത	-11.7617
01	-11.7669
▁വെന്	-11.7675
i	-11.7781
▁ഫിന	-11.783
▁ion	-11.7842
▁ാമ്പി	-11.7847
▁മാക്	-11.7853
▁സ്സി	-11.7856
▁120	-11.7862
▁ുപോല	-11.7896
.8	-11.7916
▁മൂന്	-11.7951
▁ഉഷ	-11.7959
▁ാമത്	-11.7965
▁ത്രീ	-11.7975
ീസ	-11.7988
▁പോല	-11.8029
വൺ	-11.803
▁്വേ	-11.8042
▁തനം	-11.8064
▁ണങ്ങ	-11.808
▁ൂടി	-11.8085
▁ത്താൻ	-11.8133
ടുക	-11.8141
▁റിപ	-11.8148
▁ടെന്	-11.8149
▁59	-11.8167
▁തുള	-11.8195
▁യാര	-11.8282
തീക	-11.8301
▁ഹങ്	-11.8303
.4	-11.8308
▁ക്തമ	-11.8309
ത്യന	-11.8319
▁ിക്കൂ	-11.8321
▁ിർ	-11.8322
▁62	-11.8341
▁നൈ	-11.8342
▁ആദ	-11.8359
▁ലീം	-11.8362
▁ിനായ	-11.8362
ിഐ	-11.838
▁ഖി	-11.8446
▁ധനു	-11.8453
▁ുമാ	-11.8463
▁െളി	-11.8499
്താവ	-11.8508
14	-11.8553
▁68	-11.8597
▁രാട	-11.861
▁ബന്	-11.8629
▁വിവാ	-11.8638
▁നറി	-11.8653
ൺസ	-11.8656
▁രൂപയ	-11.8674
▁സ്വദ	-11.8676
▁ബിൽ	-11.8689
▁റ്റൊ	-11.8737
▁77	-11.8775
▁ഷേ	-11.8777
▁ികരി	-11.8779
▁പത്	-11.8842
▁നെത	-11.8857
▁71	-11.8858
▁നർ	-11.8866
▁ായിക്	-11.8886
▁ങ	-11.8893
▁സാമ്	-11.8911
▁രീത	-11.8917
▁ക്ഷയ	-11.8919
▁2.	-11.8923
y	-11.8936
▁ചരി	-11.8968
▁ഗോവ	-11.8992
▁മേരി	-11.9018
▁ാലിന്	-11.9022
▁ജോൺ	-11.9091
▁*	-11.9091
▁ഗഢ	-11.9094
യമാണ	-11.9114
▁പദം	-11.912
▁കമല	-11.9146
9	-11.9156
11	-11.9184
▁ൃഷ്ട	-11.9255
▁പോൾ	-11.9256
▁ാകര	-11.9274
▁ുമാർ	-11.9282
▁ലങ്	-11.9301
▁ുതു	-11.931
▁നാധ	-11.9315
▁ികാ	-11.9319
▁ടുകള	-11.9367
▁ഒറ	-11.9371
പോക	-11.9377
▁ടോം	-11.9391
ഞാ	-11.9404
▁ിഷേ	-11.9443
▁യമായ	-11.9447
▁ജസ	-11.9452
▁രജി	-11.9465
06	-11.9474
▁M	-11.9481
▁ആണോ	-11.9482
▁ടിക്	-11.9547
ഐ	-11.9566
ികുത	-11.9572
▁ാഹു	-11.9587
▁66	-11.9594
▁95	-11.96
▁സജീ	-11.9632
ാൾ	-11.9664
▁ിശ്വ	-11.9687
▁ൽസ	-11.9703
▁64	-11.9714
▁ടിന്	-11.9714
▁ണർ	-11.9755
▁തഴ	-11.9757
▁ഹിക	-11.9765
▁ടിയും	-11.9765
▁63	-11.9776
▁ാരെ	-11.9784
▁ഫറൻ	-11.9793
ദ്ധത	-11.9815
d	-11.9862
കെ	-11.9888
▁ികളാ	-11.9901
17	-11.991
▁മ്പോ	-11.9933
▁േറി	-11.9936
▁പൂജ	-11.9944
▁99	-11.9972
▁ശ്ചാ	-12
64	-12.0013
▁നീത	-12.0046
l	-12.0074
▁രേന്	-12.0093
▁ചൈ	-12.0095
▁ടെയ	-12.0099
▁ദിയ	-12.0141
▁റസ	-12.0152
▁പിക്	-12.0158
▁സീറ	-12.0215
▁140	-12.0303
▁രീം	-12.0321
▁േശ്	-12.0325
28	-12.033
▁കളോ	-12.0369
▁ൻവർ	-12.0384
▁ഖാൻ	-12.0425
▁മീറ	-12.0455
റിൽ	-12.0484
▁ഹക	-12.0524
▁ലൗ	-12.0533
▁ജഗദ	-12.0535
തിനെ	-12.0536
▁യുള്	-12.0548
▁C	-12.0574
▁പരിശ	-12.0584
▁ദൾ	-12.0599
c	-12.0613
▁ജില	-12.062
▁സൾ	-12.0622
▁്തും	-12.0665
▁s	-12.0667
്ഞി	-12.0722
03	-12.074
▁ൂന	-12.0756
▁കാട	-12.0786
▁നോട	-12.0789
▁സ്വീ	-12.0798
▁ുവിള	-12.0811
▁ട്ടിൽ	-12.0827
▁ടിയു	-12.0843
80	-12.087
▁യതിന	-12.0915
▁ൻസർ	-12.0988
പക്ഷ	-12.1016
▁84	-12.1026
▁S	-12.1071
▁67	-12.108
▁86	-12.11
▁ഉള	-12.1111
▁മീഡിയ	-12.1132
▁ഡന്റ്	-12.1144
37	-12.1182
▁യുകയ	-12.1236
▁തോള	-12.1237
▁ct	-12.1259
▁ോധിക	-12.126
▁ന്ധം	-12.1277
▁A	-12.1295
▁തെറ	-12.1296
്യൻ	-12.1309
te	-12.1325
▁യങ്ങ	-12.1347
u	-12.1377
▁W	-12.1408
▁92	-12.1446
▁ളക	-12.1474
രിപാ	-12.149
▁ാടു	-12.1516
▁74	-12.1529
a	-12.1548
▁ീതി	-12.157
P	-12.1571
▁ഫഹ	-12.1577
▁ആഗ്ര	-12.16
രീ	-12.1603
▁3.	-12.1603
ാനും	-12.1607
▁N	-12.1624
▁69	-12.1645
▁ളിക	-12.1656
▁്വത	-12.1663
▁ൊറോ	-12.1673
12	-12.1677
▁സുഹ	-12.1719
▁വിവി	-12.1723
▁ുഖ്	-12.1723
▁സമി	-12.175
▁ൈറ	-12.1763
ഇ	-12.1774
▁82	-12.1799
▁ർത്തി	-12.1799
▁110	-12.1802
▁ലാക	-12.1812
▁ഡയറ	-12.1829
▁n	-12.1861
▁ംഗീക	-12.188
▁േട്	-12.1888
▁T	-12.1894
▁നുവ	-12.1899
▁സൃഷ്	-12.1917
ദാ	-12.1926
▁അദ്	-12.1971
▁ഗസ	-12.1985
▁78	-12.1998
▁കാനാ	-12.2014
▁ണത്	-12.2018
▁61	-12.2045
▁ൈമ	-12.2066
സമയം	-12.2069
▁ആൾ	-12.2085
▁വിഭാ	-12.2132
27	-12.214
10	-12.216
▁തഫ	-12.2204
▁94	-12.2217
24	-12.2227
▁96	-12.2229
▁89	-12.2238
▁91	-12.2256
▁പദ്	-12.2273
▁വൾ	-12.2311
റിക്	-12.2313
.3	-12.2343
▁ട്രീ	-12.2366
▁കാക്ക	-12.2382
▁ളക്	-12.2416
▁d	-12.2458
65	-12.2465
▁108	-12.2488
▁73	-12.2504
▁t	-12.2529
▁ിരോ	-12.2614
▁76	-12.2622
▁ോന്ന	-12.2629
▁125	-12.2635
▁4.	-12.266
▁കില്	-12.2666
▁79	-12.2675
▁കൃഷ്	-12.2682
▁r	-12.2687
▁ോട്ടി	-12.2702
▁യശ	-12.2729
▁ടാക	-12.2735
.7	-12.2773
▁B	-12.2774
▁മില്	-12.2786
▁നുഷ	-12.2804
▁ളാണ	-12.2847
▁രുക	-12.2922
▁ഇടപ	-12.2938
▁83	-12.2941
▁ഗീ	-12.2942
▁ലൻ	-12.2945
▁രന്റ	-12.2953
▁com	-12.2999
39	-12.3023
p	-12.3031
r	-12.3049
▁നീക	-12.3072
09	-12.3085
▁88	-12.3121
▁ൽമ	-12.3158
16	-12.3179
81	-12.3186
ail	-12.3226
▁്ലക	-12.3255
▁്രമാ	-12.3282
77	-12.3291
▁ഐഡ	-12.3293
▁യാല	-12.3311
▁ിഞ്ഞ്	-12.3318
▁ഝ	-12.3318
▁്വം	-12.3328
▁ൂല്	-12.3348
▁റൊ	-12.3375
▁ൊന്	-12.3416
▁സോണി	-12.3419
▁K	-12.3421
▁ലോട	-12.3448
▁കൂടു	-12.3452
▁22,	-12.3466
ar	-12.349
▁്ഥാന	-12.35
▁ുവന്	-12.3513
ആ	-12.3525
▁ഐഷ	-12.3553
54	-12.3557
▁വച	-12.3565
▁ുവന	-12.3589
▁ഇബ	-12.3615
▁ഫർ	-12.3619
▁ഥന	-12.3634
▁സംഘം	-12.3646
▁ാരോ	-12.366
▁87	-12.3662
▁ാവില	-12.3664
്പോൾ	-12.3692
▁ഫഡ	-12.3706
▁er	-12.3713
▁180	-12.3727
▁ൂടാ	-12.3747
34	-12.3785
40	-12.3812
▁മധു	-12.3815
▁തോട്	-12.3825
▁o	-12.3851
▁http	-12.3863
▁ൡ	-12.3863
▁+	-12.3863
▁81	-12.3941
▁24,	-12.395
▁93	-12.3953
ഘ	-12.3961
▁കോൾ	-12.3983
രമാണ	-12.3983
▁ജനാ	-12.3986
▁ാമസ	-12.3988
▁ടുതല	-12.4007
90	-12.4007
▁ിതമ	-12.401
▁ലത്ത്	-12.4019
;	-12.4023
ഈ	-12.4023
▁org	-12.4029
▁(1)	-12.4032
32	-12.404
▁നിങ്	-12.4047
.1	-12.4055
▁ിപാ	-12.4072
83	-12.4081
▁ശേ	-12.4083
▁i	-12.4101
▁രിനെ	-12.4117
m	-12.4154
തുവര	-12.4162
▁ശാസ	-12.423
▁അക്ര	-12.4232
നുഷ്	-12.4232
▁യാറ	-12.4244
93	-12.4249
▁സൻ	-12.4265
▁തന്റ	-12.4279
▁തിലു	-12.4287
▁്വന്	-12.43
യൽ	-12.4331
52	-12.4337
▁വസാ	-12.4359
al	-12.4362
▁ൊഴ	-12.4364
@	-12.4371
95	-12.4397
ദേ	-12.4433
53	-12.4439
▁25,	-12.4453
▁97	-12.4475
▁ുപ്	-12.4477
▁്രത	-12.4512
▁ുപട	-12.4542
▁=	-12.4547
▁ബഫ	-12.4561
▁യതോ	-12.4567
▁E	-12.46
▁രാവ	-12.4628
രിയാ	-12.4657
▁ൽബ	-12.4657
▁]	-12.4725
33	-12.4746
▁em	-12.477
▁ഇടി	-12.4804
▁ശാന	-12.4808
▁്റോ	-12.4812
▁ലത്	-12.4864
▁[	-12.4907
23	-12.4919
ed	-12.4931
▁ശങ്ങ	-12.4936
▁രേഷ	-12.4941
പിക്	-12.4944
▁ഹബ	-12.4946
▁കഴ	-12.4975
48	-12.4977
▁nt	-12.4997
▁ഴിക	-12.5005
▁വുന	-12.5074
▁ഗത്	-12.5081
▁ലഗ	-12.509
ോർട്	-12.5095
38	-12.5096
▁105	-12.51
▁ോഗി	-12.5104
at	-12.5127
43	-12.5139
02	-12.5169
▁1)	-12.5184
▁ളിൽ	-12.5193
04	-12.5203
94	-12.5206
▁ളിപ	-12.5236
▁ിടക	-12.5256
▁ഹർ	-12.5257
▁∙	-12.5281
▁അബു	-12.5298
▁102	-12.5302
▁ടേം	-12.5306
E	-12.5344
▁രഖ	-12.5357
67	-12.5369
്വേഷ	-12.5383
'	-12.5467
▁P	-12.5469
▁രിട	-12.5481
▁റിക്	-12.5492
▁ഹത്	-12.5499
22	-12.5519
▁സ്താ	-12.5519
▁എഐ	-12.5528
തപുര	-12.5545
▁ലാൽ	-12.5551
I	-12.5555
87	-12.5571
ഡി	-12.5644
▁്തോള	-12.5652
ഗ്രസ	-12.5668
▁G	-12.5671
▁ഊഹ	-12.5685
▁ഞ്ഞെ	-12.5697
▁F	-12.5699
51	-12.5701
▁രത്ത്	-12.5741
▁കാണു	-12.5754
▁ഓം	-12.5758
26	-12.5763
▁23,	-12.5768
▁R	-12.5779
▁107	-12.588
k	-12.5886
▁ഡേ	-12.5888
▁ാവിന	-12.5904
▁170	-12.5927
56	-12.5955
▁ൂറി	-12.6013
▁നകം	-12.6109
▁ർന്നു	-12.613
മാണ	-12.6183
▁ൊക്	-12.6225
ൗൺ	-12.6263
രമേ	-12.631
85	-12.6314
▁ിയാക	-12.6328
46	-12.634
രാഷ്	-12.6351
▁ുത്	-12.6419
▁D	-12.6422
▁98	-12.6425
▁ആക്ര	-12.6454
▁ൂടു	-12.6455
ൗ	-12.6469
18	-12.6493
15	-12.6513
▁112	-12.6529
▁ാനേ	-12.654
36	-12.6541
g	-12.6542
▁U	-12.6551
98	-12.6559
42	-12.6578
▁സ്ത്	-12.6609
91	-12.6639
▁തോമ	-12.6663
▁ഉന്	-12.668
96	-12.6688
▁pro	-12.6712
▁രാവി	-12.6836
▁ഷൺ	-12.6899
▁!!	-12.6935
▁കാഴ്	-12.6937
▁മാനി	-12.6938
▁ൃപ	-12.6963
C	-12.6987
തായി	-12.6991
▁st	-12.7005
21	-12.7008
ad	-12.7009
▁II	-12.7047
▁മുള്	-12.7064
മിറ	-12.7093
▁ഊര	-12.7122
▁റാക	-12.7145
▁ഹോട്	-12.7158
▁ളിക്	-12.7159
▁ഗിക	-12.7174
▁രുട	-12.7183
▁104	-12.7188
▁th	-12.7211
35	-12.7247
69	-12.7292
▁ബൽ	-12.7303
o	-12.731
89	-12.7344
45	-12.7357
▁ാഗസ	-12.7428
72	-12.744
▁119	-12.7471
▁6.	-12.7517
n	-12.7526
▁5.	-12.7534
▁l	-12.7555
▁റക്	-12.7618
വരുട	-12.7643
or	-12.767
▁്കറ	-12.7707
▁തുവ	-12.7791
08	-12.7795
▁c	-12.7811
5%	-12.7858
▁ർച്	-12.7872
▁റോണ	-12.7872
▁113	-12.7895
▁240	-12.7909
88	-12.795
▁ൊന്നു	-12.7954
▁L	-12.7969
▁വിച	-12.8009
▁ശേഷമ	-12.8044
▁ധമ	-12.8052
▁നെയ	-12.8063
▁െട്ട്	-12.8087
▁ഗാസ	-12.8094
▁കൊറ	-12.8131
73	-12.8147
▁122	-12.8154
▁വധു	-12.8189
▁ൃഷ	-12.822
ൃ	-12.8241
79	-12.8253
▁2)	-12.8265
▁യച	-12.8277
99	-12.8328
▁4)	-12.8338
B	-12.8351
ോൾ	-12.8355
▁ീഡി	-12.8415
▁ഞെ	-12.8437
▁ണുക	-12.8446
b	-12.8476
▁re	-12.8483
▁ആലപ	-12.8545
61	-12.8546
▁ുമുള	-12.8581
▁സത്	-12.8595
▁ത്യന	-12.863
കൽ	-12.8633
DF	-12.8645
▁രവാദ	-12.8654
ഹോദര	-12.8658
▁Re	-12.8658
▁തയ്	-12.8658
▁175	-12.8671
▁118	-12.8672
▁സീമ	-12.8717
▁യാഴ	-12.8717
66	-12.8718
▁തുള്	-12.8825
▁ുസ്	-12.8904
▁ഔഷധ	-12.8916
▁145	-12.8947
st	-12.8951
M	-12.8965
▁ണെ	-12.9028
ബു	-12.9059
▁ലധിക	-12.9119
▁ഡയറക	-12.9121
▁രഥ	-12.9147
75	-12.9153
13	-12.9187
▁ാർട്	-12.9193
▁nic	-12.9193
.0	-12.9204
്മേള	-12.9224
▁135	-12.9226
86	-12.9233
▁ടിക	-12.9291
41	-12.9344
57	-12.9367
▁വട്	-12.9404
കില്	-12.9404
/	-12.9473
•	-12.9479
▁ഡോക	-12.9509
▁124	-12.9524
S	-12.9534
▁ആപ്	-12.9538
▁220	-12.9556
▁7.	-12.9586
▁3)	-12.959
▁ജൈ	-12.964
1	-12.9666
▁്താന	-12.9678
പ്പോ	-12.9697
0)	-12.9715
▁ഗജ	-12.9718
▁ക്ലാ	-12.9741
▁ലിക്	-12.9744
▁ദഹ	-12.9747
_	-12.9773
▁ഫഷന	-12.9782
▁ാധാര	-12.9797
▁ഫസർ	-12.9808
▁115	-12.9811
▁ഊണ	-12.9819
▁ആഴം	-12.9843
▁ലഫ	-12.9851
▁രൻ	-12.9876
▁ഓഫർ	-12.9877
47	-12.9901
▁യൊര	-12.9991
▁ഹൂ	-12.9999
ുള്	-13.0012
▁m	-13.0025
▁അന്വ	-13.0063
▁വാക	-13.0072
൪	-13.0076
൯	-13.0076
▁ഋഷി	-13.0076
U	-13.0078
▁403	-13.0102
▁ഈഴവ	-13.0116
▁റുപ	-13.0154
▁of	-13.0162
▁നൗ	-13.0172
▁ാത്	-13.0181
▁ശിക	-13.0193
D	-13.0205
▁ഗൺ	-13.0213
▁ar	-13.022
▁a	-13.0229
▁ഥയ	-13.0233
▁ിഡന്	-13.0243
▁്യതയ	-13.027
7	-13.0274
▁ri	-13.032
▁ഷബ	-13.0378
▁5)	-13.0389
▁ing	-13.039
92	-13.0448
ce	-13.045
▁ഹംസ	-13.0454
▁ഡിക്	-13.0455
▁ൈനി	-13.0456
▁സുര	-13.047
▁ലഷ	-13.0562
▁എണ്	-13.0566
▁േണ്	-13.0591
▁or	-13.0604
le	-13.0668
▁(2)	-13.0716
▁182	-13.0723
രൺ	-13.0725
25	-13.0728
▁149	-13.0732
▁126	-13.075
▁132	-13.0754
A	-13.0766
97	-13.079
▁33,	-13.0793
▁to	-13.0828
me	-13.0834
▁രാഹ	-13.0848
▁ഷിക്	-13.095
li	-13.095
9)	-13.097
▁-1	-13.0998
▁131	-13.1064
▁ർട്	-13.1071
▁O	-13.1071
78	-13.1078
▁136	-13.1081
▁190	-13.1088
▁ടൊ	-13.1158
ve	-13.1164
▁േശി	-13.1185
▁മേഖ	-13.1208
N	-13.1237
▁co	-13.1242
▁In	-13.1304
▁V	-13.1368
▁(3)	-13.1395
K	-13.14
▁ശർമ	-13.1403
▁129	-13.1412
4	-13.1416
▁121	-13.1424
▁3),	-13.1439
63	-13.1439
▁മുസ	-13.1486
84	-13.1524
▁me	-13.1616
55	-13.162
▁മുണ്	-13.1622
G	-13.1662
▁ബുക്	-13.1663
▁യ്യു	-13.1663
▁്കിന	-13.1664
ങ	-13.1685
CC	-13.1688
▁e	-13.1694
▁h	-13.1697
▁ac	-13.1699
ഒ	-13.17
▁നെന്	-13.1702
▁ീഗ	-13.1746
▁IN	-13.1747
▁6)	-13.1752
76	-13.1769
മീ	-13.1772
▁v	-13.1842
▁ംഗീ	-13.1848
it	-13.1886
▁ഉഴ	-13.1886
71	-13.1904
ala	-13.1922
▁ുഴു	-13.1936
er	-13.2025
▁res	-13.2046
▁Al	-13.2048
▁for	-13.2117
▁(4)	-13.2121
68	-13.2134
59	-13.2137
▁174	-13.2138
▁g	-13.2144
LA	-13.2193
IS	-13.22
എൻ	-13.2242
▁സ്സ്	-13.2252
7)	-13.2255
49	-13.2273
▁ne	-13.2317
▁രവാ	-13.2341
29	-13.2342
▁ജാഗ	-13.2377
▁ിലാക	-13.242
▁തുക്	-13.2447
▁de	-13.2466
▁ult	-13.2502
▁142	-13.2541
BJ	-13.2542
31	-13.2569
58	-13.2592
▁ലഖ	-13.2602
▁ോഴി	-13.2604
F	-13.2614
T	-13.2616
74	-13.2625
▁ാരണം	-13.2651
▁നഖ	-13.2668
an	-13.2681
▁്പിന	-13.2694
▁സോണ	-13.2696
R	-13.2698
▁യനാ	-13.2802
ൂൾ	-13.2807
▁0,	-13.2814
dia	-13.2871
X	-13.2878
▁425	-13.2916
2	-13.2947
▁138	-13.2949
▁oot	-13.2956
മുട	-13.2967
ുധാക	-13.2974
62	-13.2981
▁8.	-13.2986
▁ഈസ്	-13.3038
ry	-13.3155
"	-13.3309
eo	-13.3313
▁️	-13.332
▁ഊഴ	-13.3371
▁01	-13.3373
gm	-13.3392
07	-13.3442
▁ിമര	-13.3476
▁സാക	-13.3495
▁മീണ	-13.3499
▁മാധ	-13.3528
ദ്ര	-13.3556
▁it	-13.3599
▁CO	-13.3624
▁ളുക	-13.3652
▁H	-13.3704
f	-13.372
▁ിരുത	-13.3726
▁05	-13.3735
്യമാ	-13.3777
so	-13.3779
▁123	-13.3806
▁സിനി	-13.3817
▁ശ്യപ്	-13.3822
▁210	-13.3825
Y	-13.3918
▁rat	-13.3934
▁Res	-13.3952
6)	-13.3999
▁ഷൈ	-13.4005
▁ce	-13.4039
▁ചർ	-13.4057
▁യങ്	-13.4112
1)	-13.4141
▁ഗസ്	-13.4144
▁ഗൂ	-13.4161
▁മലയാ	-13.4198
▁ണിക	-13.4215
▁and	-13.4235
▁176	-13.4238
▁care	-13.4238
▁141	-13.4244
▁02	-13.4252
▁ുങ്	-13.4255
▁ഇഎ	-13.4326
▁-2,	-13.4333
▁സുധാ	-13.4351
▁കയാണ്	-13.4371
▁ഝാ	-13.4388
▁ണിച	-13.4401
▁u	-13.4411
▁ബിജ	-13.4425
▁രക്	-13.4442
V	-13.4511
in	-13.4579
▁ാഭ്	-13.4639
ഞ	-13.4644
▁p	-13.4658
!	-13.4676
▁7)	-13.4676
3%	-13.4678
5)	-13.4684
ा	-13.4684
O	-13.471
▁0.	-13.4717
▁143	-13.474
▁ഖത്	-13.4763
▁ty	-13.4765
▁കലു	-13.4816
ട്രീ	-13.4835
ോഹ	-13.4848
re	-13.4868
▁ാലക്	-13.4872
L	-13.492
▁ഗാന്	-13.4965
PL	-13.5016
ha	-13.5038
▁തിച	-13.5044
▁കേട്	-13.5059
▁no	-13.5065
▁ൾക	-13.5145
▁b	-13.5151
ഢ	-13.5161
▁റേഷ	-13.5168
▁163	-13.5216
▁178	-13.5217
▁147	-13.5222
▁157	-13.5224
▁213	-13.5225
▁173	-13.5228
▁രാഷ	-13.5235
▁156	-13.5244
▁is	-13.5249
▁ൽപ്	-13.5276
x	-13.5278
▁rs	-13.5284
▁-4,	-13.5286
es	-13.5352
▁ുദ്	-13.5373
▁ed	-13.5402
v	-13.5405
കൾ	-13.5405
▁ാവശ	-13.5432
ഠ	-13.5462
▁ധം	-13.5479
▁lo	-13.5499
ct	-13.5514
▁രനാ	-13.556
▁9)	-13.5575
?	-13.5668
▁ൂച	-13.5677
6%	-13.5704
അ	-13.5704
▁$	-13.5711
▁ഹൗ	-13.574
▁158	-13.5741
▁159	-13.5746
PR	-13.5748
▁ിലൂട	-13.5748
▁225	-13.5756
▁04	-13.5766
▁മീന	-13.5768
th	-13.5771
▁ൻസൻ	-13.5784
▁216	-13.5792
▁ിഎസ	-13.5797
▁-1,	-13.5831
▁ത്യമ	-13.5905
▁Ra	-13.5909
▁കുന്	-13.5909
w	-13.593
▁ha	-13.5984
▁വരുത	-13.6125
▁ss	-13.6175
▁mm	-13.6266
▁(7)	-13.6279
▁an	-13.6283
▁162	-13.6296
▁60%	-13.6327
▁ാസം	-13.6328
▁യാഴ്	-13.6355
3)	-13.6531
▁gh	-13.6537
h	-13.6544
ID	-13.6555
▁ദൈ	-13.6583
▁എഴ	-13.6725
▁ഗീക	-13.6731
▁േരാ	-13.674
▁-3	-13.679
▁ണെന്	-13.6833
ent	-13.6848
ഓ	-13.6848
▁yalam	-13.6854
▁ുടക്	-13.6884
▁08	-13.6888
▁340	-13.6896
▁ni	-13.6899
▁275	-13.691
▁നോക്	-13.6911
▁വൃത	-13.6937
▁റോൾ	-13.694
▁ുകയാ	-13.6993
▁രൂപീ	-13.7053
8	-13.7055
▁ൊവി	-13.7074
▁കൗർ	-13.7083
▁06	-13.7087
▁ge	-13.7092
▁ma	-13.7113
▁ധർ	-13.7186
▁ർഷം	-13.7234
▁്രദ	-13.7259
▁vi	-13.7272
ദ്ദേ	-13.7318
2%	-13.7461
SC	-13.7467
8%	-13.7473
7%	-13.7473
′	-13.7479
▁MP	-13.7479
ips	-13.7487
▁(6)	-13.7491
ആർ	-13.7497
▁197	-13.7523
▁233	-13.756
▁360	-13.7566
▁am	-13.7609
▁ടപട	-13.7614
us	-13.7639
82	-13.7649
യാഴ്	-13.7659
▁09	-13.7672
2)	-13.7679
▁ൊച്ച	-13.7689
▁en	-13.7702
തിക	-13.7714
ive	-13.7816
▁(2	-13.7842
▁ro	-13.7847
▁le	-13.7928
▁ടിപ്	-13.7934
▁രാക്	-13.7952
▁The	-13.8146
▁CPM	-13.8146
▁CPI	-13.8146
▁क	-13.8146
▁ഖോസ	-13.8148
▁x	-13.8154
▁(5)	-13.8158
▁(9)	-13.8164
▁ൈറസ	-13.8178
▁168	-13.8186
▁155	-13.8212
ശോ	-13.8221
▁ng	-13.8321
▁be	-13.8346
ET	-13.8348
നിവ	-13.8376
▁f	-13.8424
ിലപാ	-13.8463
om	-13.85
▁(1	-13.8545
▁Co	-13.8575
▁കൊവി	-13.8669
J	-13.8723
ുഭ	-13.8732
gi	-13.8736
▁ാങ	-13.8795
▁ch	-13.8806
▁??	-13.8821
vid	-13.8854
₹	-13.886
▁vs	-13.8861
▁ൊലപാ	-13.8861
സൻ	-13.8881
MS	-13.8893
▁13)	-13.89
▁184	-13.8907
▁Rs	-13.8912
ual	-13.8915
▁03	-13.8919
▁166	-13.8925
▁ചൗ	-13.8927
▁288	-13.8928
▁ൊള	-13.8954
▁ടുക്	-13.8955
se	-13.8994
▁ic	-13.9049
8)	-13.9097
▁De	-13.9141
ഗോ	-13.9148
IA	-13.918
▁കൃപ	-13.919
▁ൊള്	-13.942
sc	-13.9433
▁Con	-13.9552
▁di	-13.9556
3	-13.9567
▁on	-13.9574
-5	-13.9596
▁AI	-13.9606
-8	-13.9623
9%	-13.9623
▁-2	-13.9629
र	-13.9629
े	-13.9629
‐	-13.9629
▁cm	-13.9629
▁NB	-13.9629
▁ndia	-13.9635
▁9.	-13.9641
▁5%	-13.9649
on	-13.9653
pe	-13.9658
▁171	-13.9678
▁07	-13.9696
4)	-13.9696
▁se	-13.9756
ll	-13.9761
▁430	-13.9771
ങ്	-13.9804
▁Sa	-13.9819
▁Vi	-13.9878
ma	-13.9886
▁സൂര്	-13.9891
ge	-13.9892
ya	-13.9903
▁pla	-13.9955
ot	-14.003
▁മോൾ	-14.0038
-4	-14.0095
▁ine	-14.0102
ndia	-14.0171
▁ാർക	-14.0213
▁y	-14.0224
1%	-14.0456
-6	-14.0458
▁COV	-14.0463
▁For	-14.0463
▁ഈഡൻ	-14.0463
▁°	-14.0463
▁ex	-14.0463
ms	-14.0464
▁OT	-14.0465
▁(8)	-14.0473
▁ഹഖ്	-14.0484
TS	-14.0501
▁KS	-14.0503
▁Dr	-14.0508
ne	-14.0523
cc	-14.0534
▁ആൻ	-14.0542
EL	-14.0551
▁251	-14.0563
▁(5	-14.0567
▁cat	-14.0661
ൾഡ	-14.0699
▁nce	-14.0746
▁al	-14.0754
▁BA	-14.0758
▁ണറാ	-14.077
oc	-14.081
▁ഔഫ	-14.0815
-7	-14.0843
▁ka	-14.0853
va	-14.0883
▁ഡൈ	-14.092
▁ിതത്	-14.1003
▁ബൾ	-14.1089
▁രയു	-14.1096
▁സ്റ്	-14.1102
air	-14.1127
▁at	-14.118
▁sh	-14.1219
▁8)	-14.1271
▁ശ്യപ	-14.1281
ഉ	-14.1366
ि	-14.1372
्	-14.1372
▁ab	-14.1372
▁Pro	-14.1372
▁KL	-14.1373
▁ks	-14.1378
▁ഷപ്	-14.1379
▁J	-14.1379
▁3%	-14.1384
▁(6	-14.139
ok	-14.1394
▁Vir	-14.1401
▁െങ്	-14.1403
▁14)	-14.1419
▁346	-14.1425
▁258	-14.1428
▁343	-14.143
▁268	-14.143
▁nd	-14.1439
▁192	-14.1439
AS	-14.1443
▁199	-14.146
▁172	-14.1462
▁കുപ്	-14.1475
la	-14.1484
▁fa	-14.1519
▁ഖദ	-14.1522
▁Va	-14.1524
hi	-14.153
▁ent	-14.1582
▁ൂക്	-14.1637
▁COP	-14.1654
▁വർക്	-14.1677
▁ഖബ	-14.1726
▁ലിറ	-14.1791
▁te	-14.1835
▁തൃശ	-14.1859
▁മൗ	-14.186
du	-14.1861
▁Lo	-14.1862
ali	-14.1866
ST	-14.1893
ep	-14.1898
ild	-14.1927
▁യുഡ	-14.2123
▁cont	-14.216
fi	-14.221
ld	-14.2225
▁പറഞ	-14.2225
▁ഫഖ	-14.2238
▁്രദേ	-14.2253
4%	-14.2365
-3	-14.2366
൦	-14.2372
🔘	-14.2372
▁bo	-14.2372
▁!!!	-14.2372
▁ae	-14.2373
▁അനഘ	-14.2381
▁7%	-14.2382
▁X	-14.2388
ri	-14.2393
▁്കാൻ	-14.2396
▁307	-14.2402
▁എച്	-14.243
▁262	-14.2431
▁231	-14.2435
▁229	-14.2439
▁ശാഖ	-14.2457
▁ഗോൾ	-14.2469
▁218	-14.2486
▁ow	-14.2512
▁പറഞ്	-14.252
▁do	-14.2535
▁ort	-14.2563
SF	-14.2598
▁മഠ	-14.2598
▁To	-14.2632
ant	-14.2663
▁ure	-14.2719
▁es	-14.2729
▁PM	-14.2754
AT	-14.2754
mi	-14.2784
▁bi	-14.2806
▁ll	-14.2876
PC	-14.2923
▁ial	-14.301
▁Di	-14.304
▁2:	-14.3043
▁gl	-14.3054
▁ai	-14.3087
▁mi	-14.3097
ss	-14.3105
W	-14.3119
nd	-14.3133
▁nc	-14.3147
SS	-14.3176
IT	-14.3249
▁Q	-14.3284
ro	-14.3357
ur	-14.3358
ee	-14.3389
▁pol	-14.3454
்	-14.3483
▁join	-14.3483
▁Hea	-14.3483
▁UA	-14.3483
▁MK	-14.3483
▁രഞ്	-14.3483
▁wor	-14.3484
▁SI	-14.3485
▁We	-14.3486
▁SR	-14.3487
▁ly	-14.3489
▁4%	-14.349
▁day	-14.3499
▁mar	-14.3503
▁Care	-14.3504
pri	-14.3525
▁207	-14.3549
▁ഭിച	-14.3549
▁ir	-14.3553
▁ചരിത	-14.3574
▁ca	-14.3604
▁',	-14.361
കുള	-14.3616
▁nif	-14.3659
▁sc	-14.3685
▁ate	-14.3688
▁Me	-14.3701
▁ശക്	-14.3707
ls	-14.3735
▁ups	-14.376
▁con	-14.3785
ഷൻ	-14.3792
fe	-14.3818
ts	-14.3827
▁5:	-14.3843
H	-14.3865
▁as	-14.3873
▁കൂൾ	-14.391
▁Po	-14.3998
▁വരുട	-14.3999
▁wi	-14.4044
▁ഭാൽ	-14.4084
vi	-14.4089
ഹർ	-14.4105
di	-14.4132
▁ാവസ്	-14.4157
ly	-14.4205
▁nat	-14.4249
ol	-14.4251
▁la	-14.4272
▁ns	-14.4318
▁Hai	-14.4408
▁hi	-14.4461
▁rc	-14.4483
വാസി	-14.4489
um	-14.4526
▁ki	-14.4532
ai	-14.4541
▁ണാട	-14.4586
ലൂടെ	-14.4609
പിന്	-14.4615
▁ഭീഷണ	-14.4636
▁(4	-14.4637
▁സഹോദ	-14.4687
▁സഞ്	-14.4688
Z	-14.4726
-1	-14.4728
य	-14.4733
▁DYF	-14.4733
▁SFI	-14.4733
▁Big	-14.4733
▁sup	-14.4733
▁Jo	-14.4733
▁One	-14.4733
▁fri	-14.4733
▁vice	-14.4733
▁Ex	-14.4733
▁tv	-14.4733
▁SAR	-14.4733
▁ku	-14.4734
▁ho	-14.4736
▁Z	-14.4739
▁MA	-14.4739
▁1%	-14.4742
WW	-14.4747
▁ിചാ	-14.4747
▁6%	-14.4748
▁28)	-14.479
▁22)	-14.4799
▁435	-14.4802
▁542	-14.4803
▁432	-14.4818
--	-14.4845
▁da	-14.4877
▁20)	-14.4882
▁CM	-14.4898
wo	-14.4901
▁act	-14.4917
▁419	-14.4951
MA	-14.4988
▁ഓകെ	-14.5001
▁സെൻ	-14.5057
▁ur	-14.5059
SP	-14.5108
▁ഇഐ	-14.5295
be	-14.5404
▁oo	-14.5486
▁Ind	-14.5525
▁pa	-14.5562
▁1:	-14.5569
DS	-14.559
▁na	-14.5597
RI	-14.5602
nam	-14.5614
▁്പാക	-14.5621
ak	-14.5643
▁go	-14.5649
▁ms	-14.5674
ys	-14.5783
our	-14.5783
sp	-14.5803
ng	-14.5805
WP	-14.5808
ni	-14.583
▁Be	-14.5847
റിച്	-14.5875
ind	-14.5966
▁Dis	-14.5977
gr	-14.6005
ow	-14.6042
▁ശിക്	-14.6102
sh	-14.6119
na	-14.6123
ue	-14.6136
Ele	-14.6155
ഏ	-14.6155
ഊ	-14.6155
-2	-14.6156
ब	-14.6161
व	-14.6161
❤	-14.6161
▁post	-14.6161
▁App	-14.6161
▁Tra	-14.6161
▁Spe	-14.6161
▁स	-14.6162
▁Mar	-14.6162
▁AM	-14.6165
▁vid	-14.6175
▁8%	-14.6176
qu	-14.6193
▁52)	-14.6194
▁(9	-14.6196
▁her	-14.6203
▁55)	-14.6205
tta	-14.6205
▁282	-14.6217
▁31)	-14.6219
▁672	-14.6219
je	-14.6226
▁Te	-14.6228
PF	-14.6232
▁35%	-14.6236
▁308	-14.6237
▁ൽഘ	-14.6246
stu	-14.625
▁ra	-14.6267
▁276	-14.6268
SH	-14.6272
ja	-14.6287
▁pm	-14.629
▁309	-14.6291
▁437	-14.6294
▁ice	-14.6301
▁നടപട	-14.6302
ra	-14.6303
CT	-14.6319
▁cal	-14.6332
▁ga	-14.6348
HO	-14.6358
▁253	-14.637
ag	-14.6403
und	-14.6414
▁La	-14.6426
▁iv	-14.6458
▁59,	-14.6461
▁--	-14.6491
▁lott	-14.6504
IC	-14.6547
IR	-14.655
▁ti	-14.6567
▁you	-14.6588
PS	-14.6599
▁dat	-14.6601
mo	-14.6782
ch	-14.6849
and	-14.6861
▁pr	-14.6862
bs	-14.6874
is	-14.6882
▁IA	-14.6923
▁PA	-14.6926
▁anc	-14.6962
▁കറൻ	-14.699
ac	-14.7095
▁ജില്	-14.7232
ist	-14.7234
▁Do	-14.7241
▁PS	-14.7246
▁all	-14.7254
▁IV	-14.7272
▁hu	-14.7289
▁cr	-14.7313
▁ru	-14.7329
ath	-14.7338
▁MB	-14.7339
▁ral	-14.7342
ree	-14.7349
▁സാക്	-14.7377
▁qu	-14.7401
▁tha	-14.742
▁ടൗ	-14.7435
oll	-14.7457
pi	-14.746
▁അങ	-14.7461
▁sa	-14.7474
▁man	-14.7592
▁j	-14.7635
one	-14.7638
tte	-14.7661
hat	-14.7691
PA	-14.7737
▁(8	-14.7757
q	-14.7782
ൺഗ്ര	-14.7813
my	-14.7822
ൿ	-14.7828
⃣	-14.7828
▁SEC	-14.7828
▁New	-14.7828
▁ogy	-14.7828
▁CIT	-14.7828
▁Tri	-14.7828
▁Pri	-14.7828
▁cle	-14.7828
▁PG	-14.7828
▁ter	-14.7828
▁Ph	-14.7828
▁Can	-14.7828
▁cy	-14.7828
▁AE	-14.7829
▁न	-14.7831
▁app	-14.7831
▁SB	-14.7834
▁my	-14.7835
▁IT	-14.7839
▁9%	-14.7843
▁por	-14.787
▁649	-14.7871
▁നിങ	-14.7874
▁625	-14.7883
▁476	-14.7885
▁341	-14.7905
▁634	-14.7928
CU	-14.7932
▁515	-14.7934
▁594	-14.794
▁26)	-14.7942
▁25)	-14.7954
▁െച്	-14.7977
▁614	-14.7997
▁BR	-14.8001
▁279	-14.8004
▁hip	-14.802
▁അഞ	-14.8056
▁യേണ്	-14.8105
▁-6	-14.813
mb	-14.8163
ഴിഞ	-14.8166
▁ആധി	-14.8209
▁87,	-14.8211
▁ire	-14.8219
▁Ad	-14.8233
▁hav	-14.8253
rd	-14.8296
▁MG	-14.8303
▁sim	-14.8358
VE	-14.8411
▁ഗുഹ	-14.8433
▁Ho	-14.8448
ill	-14.8486
▁po	-14.849
▁gam	-14.8528
▁cp	-14.8565
▁Sh	-14.8646
au	-14.8696
pp	-14.8739
▁St	-14.8749
▁IS	-14.8759
RT	-14.876
▁rn	-14.8763
▁sha	-14.8789
▁Am	-14.8806
▁comp	-14.883
as	-14.8847
▁sp	-14.8855
▁bu	-14.8885
CL	-14.8892
SA	-14.8946
▁Sta	-14.9025
AY	-14.9044
▁us	-14.9049
▁GP	-14.9051
RE	-14.9084
▁BS	-14.9094
ic	-14.9159
▁si	-14.9185
▁od	-14.9231
▁Ju	-14.9252
OC	-14.9308
ast	-14.931
ech	-14.9335
▁ലേക്	-14.9376
de	-14.9386
▁ore	-14.9396
-0	-14.9404
TA	-14.9415
▁not	-14.9474
▁Med	-14.9518
▁TE	-14.9521
▁Sc	-14.9535
ang	-14.956
▁(3	-14.9618
▁ME	-14.9649
EM	-14.9651
SRT	-14.9737
▁im	-14.9816
z	-14.9821
ju	-14.9821
int	-14.9822
️	-14.9822
RS	-14.9823
rea	-14.9825
SB	-14.9827
DRF	-14.9828
ह	-14.9828
ட	-14.9828
ഌ	-14.9828
▁Agai	-14.9828
▁Boss	-14.9828
▁job	-14.9828
👉	-14.9828
▁Pres	-14.9828
▁But	-14.9828
▁cul	-14.9828
▁sex	-14.9828
▁coll	-14.9828
▁Gre	-14.9828
▁vo	-14.9828
▁MD	-14.9828
▁NS	-14.9828
TPC	-14.9829
▁>	-14.9829
▁AL	-14.9829
▁ko	-14.983
▁MW	-14.9832
-9	-14.9832
▁nk	-14.9835
▁rt	-14.9836
▁VE	-14.9836
▁Ele	-14.9838
▁ep	-14.9842
▁sam	-14.9844
▁2%	-14.9851
j	-15.1783
+	-15.2322
}	-15.2328
♥	-15.2328
0	-15.3523
न	-15.5655
$	-15.5655
ډ	-15.5661
ं	-15.5661
ए	-15.5661
थ	-15.5661
प	-15.5661
ल	-15.5661
ी	-15.5661
︎	-15.5661
🏻	-15.5661
*	-15.6556
Q	-15.8904
°	-16.0655
ڇ	-16.0661
ڈ	-16.0661
औ	-16.0661
ज	-16.0661
ट	-16.0661
ण	-16.0661
भ	-16.0661
श	-16.0661
ष	-16.0661
ो	-16.0661
ौ	-16.0661
க	-16.0661
ப	-16.0661
ம	-16.0661
ி	-16.0661
€	-16.0661
👌	-16.0661
💎	-16.0661
💚	-16.0661
🔸	-16.0661
😍	-16.0661
😘	-16.0661
🤝	-16.0661
🚩	-17.0641
🔥	-17.0642
👏	-17.0643
ய	-17.0644
া	-17.0645
ध	-17.0646
अ	-17.0647
{	-17.0648
🙏	-17.0649
⬛	-17.065
❓	-17.0651
£	-17.0652
ग	-17.0653
▪	-17.0654
म	-17.0655
द	-17.0655
>	-17.0655
⁄	-17.0655
स	-17.0655
क	-17.0656
[	-17.0656
]	-17.0656
ഝ	-17.0656
ൡ	-17.0656
#	-17.0656
ഋ	-17.0656
\	-17.0656
∙	-17.0657
=	-17.0658
%	-17.0659
ഔ	-17.066
ル	-17.0661
南	-17.0661
(	-17.0661
<	-17.0661
`	-17.0661
	-17.0661
¥	-17.0661
×	-17.0661
â	-17.0661
ñ	-17.0661
आ	-17.0661
इ	-17.0661
च	-17.0661
ठ	-17.0661
त	-17.0661
।	-17.0661
ং	-17.0661
ব	-17.0661
ল	-17.0661
அ	-17.0661
ஆ	-17.0661
ச	-17.0661
ண	-17.0661
த	-17.0661
ன	-17.0661
ல	-17.0661
வ	-17.0661
ீ	-17.0661
ு	-17.0661
ெ	-17.0661
ை	-17.0661
‟	-17.0661
◼	-17.0661
◾	-17.0661
♀	-17.0661
✌	-17.0661
✨	-17.0661
➡	-17.0661
ブ	-17.0661
ム	-17.0661
ラ	-17.0661
ー	-17.0661
容	-17.0661
湘	-17.0661
美	-17.0661
	-17.0661
🎖	-17.0661
🐟	-17.0661
👇	-17.0661
🖤	-17.0661
🗃	-17.0661
😄	-17.0661
🙄	-17.0661
🤔	-17.0661
🤣	-17.0661
🤦	-17.0661
🥛	-17.0661
