<unk>	0
<s>	0
</s>	0
.	-2.70088
,	-4.17099
്	-4.41317
ും	-4.76001
ം	-5.22501
്‍	-5.3903
ാണ്	-5.47338
ു	-5.57527
▁	-5.58576
▁ഒരു	-5.6175
യും	-5.65756
▁ഈ	-5.67028
ില്‍	-5.67285
ക്ക്	-5.8493
ത്	-5.86915
യുടെ	-5.94691
:	-5.9704
▁പറഞ്ഞു	-5.98247
ിൽ	-6.01391
െ	-6.07981
▁തന്നെ	-6.13418
ി	-6.15124
▁എന്ന	-6.24216
ിന്റെ	-6.25605
▁നിന്ന്	-6.27414
യാണ്	-6.28625
യില്‍	-6.30005
ിരുന്നു	-6.35469
ാന്‍	-6.36945
-	-6.42225
▁സ്	-6.4365
വും	-6.48809
ിട്ടുണ്ട്	-6.4887
▁പി	-6.49503
▁അദ്ദേഹം	-6.53341
▁സി	-6.53753
▁കഴിഞ്ഞ	-6.55164
▁അതേസമയം	-6.56084
▁എന്നാല്‍	-6.56275
ാൻ	-6.59421
യെ	-6.61196
ിന്	-6.63197
▁ആ	-6.63473
ുള്ള	-6.63674
യ	-6.63762
യിൽ	-6.63925
▁എന്ന്	-6.65587
▁ഇത്	-6.65613
▁കെ	-6.65652
ല്‍	-6.66899
സ്	-6.7047
▁വലിയ	-6.7329
▁മുഖ്യമന്ത്രി	-6.75485
ായിരുന്നു	-6.7573
ർ	-6.79333
▁നിന്നും	-6.79565
;	-6.79737
▁കോണ്‍ഗ്രസ്	-6.80165
ന്‍	-6.81807
ുന്നത്	-6.81975
ുന്ന	-6.82249
▁ബിജെപി	-6.84754
ൽ	-6.8557
ാ	-6.86549
▁(	-6.88316
ോ	-6.88392
ൻ	-6.89339
മാണ്	-6.90082
ിരിക്കുന്നത്	-6.90903
ര്‍	-6.92307
ത	-6.92331
▁എ	-6.92348
യ്ക്ക്	-6.92501
▁അത്	-6.92589
ായി	-6.92791
▁സംസ്ഥാന	-6.93513
▁-	-6.93543
▁ബി	-6.95848
മ	-6.97214
▁രണ്ട്	-6.97263
ില്ല	-6.99129
▁ഇന്ന്	-6.99207
▁കേന്ദ്ര	-7.00696
▁എം	-7.01047
▁മന്ത്രി	-7.02304
ത്തില്‍	-7.02693
▁എന്നാണ്	-7.03958
▁ക	-7.04707
▁പോലീസ്	-7.04714
▁പറയുന്നു	-7.04797
)	-7.04928
▁പുതിയ	-7.05693
ത്തിന്റെ	-7.0595
ിലെ	-7.063
▁എല്ലാ	-7.06854
▁ശേഷം	-7.07575
ിനെ	-7.08315
ുമായി	-7.09929
▁ആണ്	-7.10026
▁വരെ	-7.10628
▁വി	-7.10816
▁ഏറ്റവും	-7.12042
▁സ്വദേശി	-7.12587
ത്തിന്	-7.14078
▁എസ്	-7.15171
ായ	-7.15426
▁രൂപ	-7.16303
മായി	-7.17312
▁ചെയ്തു	-7.17608
ക	-7.19232
▁സര്‍ക്കാര്‍	-7.19361
ക്കും	-7.20059
▁കൊവിഡ്	-7.21582
സി	-7.22273
ുണ്ട്	-7.22587
▁നേരത്തെ	-7.22846
▁ചെയ്ത	-7.2342
ക്ക	-7.23759
▁ദിവസം	-7.2384
ന	-7.24579
▁ഇ	-7.25484
ന്	-7.2597
ത്തിൽ	-7.25972
ത്തെ	-7.26004
▁ഡി	-7.26029
യിലെ	-7.26059
▁കോവിഡ്	-7.26621
▁തിരുവനന്തപുരം	-7.2681
▁എന്നും	-7.27685
ുക	-7.28976
▁ജില്ലാ	-7.28986
ുകയും	-7.2908
▁ന	-7.29303
?	-7.29565
▁എന്നാൽ	-7.29772
വ	-7.30109
ുകയായിരുന്നു	-7.30901
▁ജെ	-7.31783
▁നടത്തിയ	-7.31896
മായ	-7.31978
േ	-7.32094
▁അ	-7.32743
ിരിക്കുകയാണ്	-7.33228
പി	-7.34859
▁പേര്‍	-7.36368
ുന്നു	-7.37229
▁ഐ	-7.39247
ാം	-7.39442
▁'	-7.41249
▁രാഷ്ട്രീയ	-7.41271
▁കൂടുതല്‍	-7.41619
ുടെ	-7.41974
▁കൂടി	-7.42033
▁മൂന്ന്	-7.42061
▁സ	-7.42186
▁കോടി	-7.44897
▁പാര്‍ട്ടി	-7.45515
ല	-7.45574
▁രോഗം	-7.45605
കള്‍	-7.4564
▁കോടതി	-7.45927
സ	-7.46333
റ	-7.46449
▁വ്യക്തമാക്കി	-7.47027
ങ്ങൾ	-7.47111
▁ഇന്ത്യ	-7.47125
ര	-7.47599
▁അറിയിച്ചു	-7.47794
▁ചില	-7.48207
▁തിരഞ്ഞെടുപ്പ്	-7.48634
ാനുള്ള	-7.48736
ാല്‍	-7.48925
▁കേരള	-7.48933
▁നല്‍കിയ	-7.48965
ണം	-7.49797
▁പറയുന്നത്	-7.50374
കൾ	-7.50748
▁സർക്കാർ	-7.51723
▁വില	-7.51739
▁വന്ന	-7.51842
ിലേക്ക്	-7.52839
താണ്	-7.52979
▁പോലും	-7.53601
▁പൊലീസ്	-7.54811
▁മ	-7.5513
▁പ്രധാനമന്ത്രി	-7.55168
▁വേണ്ടി	-7.55659
ിലും	-7.55982
തിന്	-7.56215
▁കോൺഗ്രസ്	-7.57102
ത്ത	-7.57543
▁ഇവിടെ	-7.58887
▁ഇപ്പോള്‍	-7.58948
▁ആരോഗ്യ	-7.5926
▁ടി	-7.59351
▁ജോലി	-7.59683
▁മുതല്‍	-7.59935
▁കൊണ്ട്	-7.60834
▁കാരണം	-7.61691
▁മറ്റ്	-7.61692
▁നടന്ന	-7.62768
▁മാത്രം	-7.64393
▁തന്റെ	-7.65077
െന്ന്	-7.65277
ങ്ങള്‍	-7.66276
ുകൾ	-7.66728
▁പരാതി	-7.66934
യായിരുന്നു	-7.67169
▁ഇതുവരെ	-7.68309
ടി	-7.68427
▁പല	-7.68749
'	-7.68851
▁ശതമാനം	-7.69063
▁റിപ്പോര്‍ട്ട്	-7.69101
▁പ	-7.69168
▁കോഴിക്കോട്	-7.70341
▁വീണ്ടും	-7.70562
▁ഇതോടെ	-7.70639
▁സെക്രട്ടറി	-7.70659
▁അടുത്ത	-7.70862
▁നേതാവ്	-7.716
▁വഴി	-7.7209
ുകയാണ്	-7.72204
യോ	-7.72511
െങ്കിലും	-7.72588
തായി	-7.72818
▁ആദ്യ	-7.73366
ക്	-7.73557
െന്നും	-7.73711
▁നിരവധി	-7.73845
▁ലക്ഷം	-7.73893
ിയ	-7.73963
ുകള്‍	-7.74066
യുമായി	-7.74128
▁പാർട്ടി	-7.74146
തോടെ	-7.7428
▁നടപടി	-7.74593
▁ത	-7.74858
തും	-7.74904
യായി	-7.75247
▁പിന്നാലെ	-7.75427
വി	-7.75776
▁ഇനി	-7.76424
പ്പ	-7.76771
ക്കെതിരെ	-7.76807
▁വിവിധ	-7.77237
▁നിന്നുള്ള	-7.77353
▁സംസ്ഥാനത്ത്	-7.77686
▁അവര്‍	-7.77936
തെന്ന്	-7.7857
▁വളരെ	-7.78877
ഡ്	-7.79451
▁ന്	-7.79535
▁ഞാന്‍	-7.79629
ഡി	-7.79908
▁ജില്ലയില്‍	-7.80196
▁മോദി	-7.80468
▁പിന്നീട്	-7.80973
▁ദേശീയ	-7.81189
▁പദ്ധതി	-7.81242
▁മാത്രമാണ്	-7.81411
▁യു	-7.81528
▁ഇതിന്	-7.83216
▁വകുപ്പ്	-7.83312
▁വ	-7.83321
▁കേസ്	-7.83716
▁തുടര്‍ന്ന്	-7.84748
▁പ്രത്യേക	-7.84907
▁ഗാന്ധി	-7.85106
ല്ല	-7.85323
▁പറഞ്ഞ	-7.85393
▁പിണറായി	-7.85492
▁10	-7.85752
യായ	-7.86258
▁ആവശ്യപ്പെട്ട	-7.86336
▁അവരുടെ	-7.87034
▁5	-7.87249
▁3	-7.87855
▁പ്രശ്	-7.88505
▁ചെയ്തത്	-7.88536
▁ചോദ്യം	-7.89005
▁ശക്തമായ	-7.89053
വര്‍	-7.89183
▁രാഹുല്‍	-7.89477
തെന്നും	-7.89815
▁സിപിഎം	-7.89999
എസ്	-7.90001
▁ജി	-7.90088
പ്പെട്ട	-7.90748
ിട്ടില്ല	-7.90769
വുമായി	-7.91089
▁പറഞ്ഞത്	-7.91135
▁പ്രതിപക്ഷ	-7.9114
ച്ച	-7.91736
▁തുടങ്ങിയ	-7.91854
▁മികച്ച	-7.92065
ുമെന്ന്	-7.92848
▁നാല്	-7.93204
ിരുന്ന	-7.93265
▁വാക്	-7.93369
▁സാധ്യത	-7.93854
▁അഞ്ച്	-7.93911
യിലേക്ക്	-7.94018
യിലും	-7.94062
ാൽ	-7.94383
▁സ്ഥിരീകരിച്ച	-7.94915
▁ഇവര്‍	-7.95581
ൂ	-7.95727
▁പണം	-7.96344
▁എന്നിവ	-7.96593
▁വിവരം	-7.96616
▁ഇത്തവണ	-7.96758
▁എത്തിയ	-7.96784
▁മുതൽ	-7.97099
▁20	-7.97142
▁പക്ഷേ	-7.97143
▁"	-7.97224
▁2	-7.97227
▁എന്റെ	-7.97656
▁യാത്ര	-7.97699
▁ചെയ്യുന്ന	-7.97785
യുള്ള	-7.98133
▁പുറത്ത്	-7.98319
ന്റെ	-7.98546
▁കൊറോണ	-7.98626
ണ	-7.98788
▁ഞാൻ	-7.99183
▁സ്വദേശിനി	-7.99314
▁തീരുമാനം	-7.99387
▁പ്രസിഡന്റ്	-7.99536
▁സമയം	-7.99543
▁19	-7.9972
▁പരിശോധന	-7.99786
▁വരുന്ന	-8.00185
▁പ്രധാന	-8.0055
▁സാമ്പത്തിക	-8.00633
▁തന്നെയാണ്	-8.00926
ഡ	-8.01026
▁കൂടുതൽ	-8.01134
ാതെ	-8.01319
▁ചര്‍ച്ച	-8.01357
▁ലഭിച്ച	-8.02573
▁സീറ്റ്	-8.02866
▁നല്ല	-8.02955
▁,	-8.03121
▁ബന്ധപ്പെട്ട	-8.03296
▁ഇങ്ങനെ	-8.03703
▁24	-8.04138
എ	-8.04188
ഗ	-8.04873
▁വോട്ട്	-8.05025
▁റിപ്പോർട്ട്	-8.05046
▁കണ്ണൂര്‍	-8.05229
▁15	-8.05271
▁പേര്‍ക്ക്	-8.05296
ത്ത്	-8.05725
ാത്ത	-8.06026
▁ജില്ലയിലെ	-8.06121
പ	-8.06615
▁അന്വേഷണം	-8.06869
▁പ്രഖ്യാപിച്ച	-8.07024
ട	-8.07377
കളും	-8.07988
ജി	-8.08074
▁ദില്ലി	-8.08235
▁12	-8.08274
▁ആയിരുന്നു	-8.08507
▁നിയമസഭാ	-8.08636
▁രാവിലെ	-8.08734
ാനും	-8.08957
▁എണ്ണം	-8.09066
▁മുന്‍	-8.09136
),	-8.09307
▁മറ്റൊരു	-8.09425
▁പോലെ	-8.09455
▁നേതാക്കള്‍	-8.09485
▁നേതൃത്വം	-8.0961
▁എന്നീ	-8.09666
്റെ	-8.11055
▁അവർ	-8.11128
ുമെന്നും	-8.11619
▁ഉള്ള	-8.11888
യ്	-8.12814
▁നല്‍കി	-8.1311
ദ	-8.13112
▁അന്വേഷണ	-8.13309
▁11	-8.13441
▁എനിക്ക്	-8.14363
▁മറുപടി	-8.14886
▁ആകെ	-8.15325
വർ	-8.15417
▁കണ്ട	-8.15422
▁വീഡിയോ	-8.15593
ബി	-8.15662
▁ഓരോ	-8.1569
പ്പോള്‍	-8.15752
കളുടെ	-8.15927
▁ആയി	-8.15934
▁അവിടെ	-8.15976
▁നടത്തി	-8.1622
▁നി	-8.1664
ോട്	-8.16878
▁മുമ്പ്	-8.16926
ിലാണ്	-8.16946
▁കാര്യം	-8.17169
▁അതിന്	-8.17228
▁ഇപ്പോൾ	-8.17258
▁നടക്കുന്ന	-8.1728
ുമാണ്	-8.17342
▁4	-8.17511
▁നിലവില്‍	-8.18058
▁അറസ്റ്റ്	-8.18218
▁ബിഗ്	-8.1856
▁വരും	-8.1938
▁നൽകിയ	-8.1952
▁മാത്രമല്ല	-8.19584
▁ല	-8.19639
▁കോട്ടയം	-8.19878
▁താന്‍	-8.2005
▁ഡോ	-8.2014
▁ഇത്തരം	-8.20564
ക്കു	-8.20684
▁ഗ	-8.20688
▁രണ്ടാം	-8.20803
റി	-8.20967
▁സിംഗ്	-8.21128
റ്റ	-8.21295
ള	-8.21616
▁മഴ	-8.21802
▁ആദ്യം	-8.22102
▁കേരളത്തില്‍	-8.224
നി	-8.22416
മുള്ള	-8.22431
/	-8.2249
ുന്നുണ്ട്	-8.22605
▁സംഭവം	-8.22696
▁ആര്‍	-8.22762
▁പിന്തുണ	-8.22837
▁കുറിച്ച്	-8.22944
▁കൊച്ചി	-8.23134
▁യുഡിഎഫ്	-8.23244
▁വര്‍ഷം	-8.23387
▁കാര്യങ്ങള്‍	-8.23599
▁പാലക്കാട്	-8.24057
▁മാ	-8.24146
▁എറണാകുളം	-8.2441
ിട്ടുള്ളത്	-8.24436
ിന്‍റെ	-8.24484
▁ല്‍	-8.24676
▁ഇന്ത്യന്‍	-8.24717
▁പേർ	-8.24729
▁ഏറെ	-8.2481
▁തവണ	-8.25269
▁സംബന്ധിച്ച്	-8.25411
ുമ്പോള്‍	-8.25533
▁6	-8.25783
ിനെതിരെ	-8.25856
▁രാജ്യത്ത്	-8.26169
▁മാസം	-8.26232
ൾ	-8.2643
ണമെന്ന്	-8.26606
▁എഫ്	-8.26725
▁ഇതില്‍	-8.26777
▁ഒ	-8.27222
▁ൽ	-8.27604
വരെ	-8.2783
▁ആലപ്പുഴ	-8.27836
▁നിലപാട്	-8.27857
▁പ്രതി	-8.28169
▁പേരാണ്	-8.2818
എം	-8.28317
▁കൊല്ലം	-8.28427
▁അന്ന്	-8.28694
▁കേസില്‍	-8.28901
▁കമ്മിറ്റി	-8.29426
▁പോയ	-8.2948
▁പറഞ്ഞിരുന്നു	-8.29734
▁30	-8.2976
▁1	-8.29923
ഹ	-8.30225
▁രംഗത്ത്	-8.30261
യോട്	-8.30625
ബ	-8.30728
ശ	-8.3077
▁മെഡിക്കല്‍	-8.30858
▁സിനിമ	-8.3086
▁സ്ഥാനാര്‍ത്ഥി	-8.31248
▁ചെയ്തിരുന്നു	-8.31312
▁സ്വകാര്യ	-8.31321
"	-8.31512
▁നീക്കം	-8.31951
അ	-8.31983
▁തിരഞ്ഞെടുപ്പ	-8.32361
ലി	-8.32383
ാനാണ്	-8.32503
േണ്ട	-8.32505
▁നടത്തുന്ന	-8.32669
▁18	-8.32727
▁പത്തനംതിട്ട	-8.32864
▁കൂടാതെ	-8.33226
▁ബന്ധപ്പെട്ട്	-8.33308
ണമെന്നും	-8.33341
▁നമ്മുടെ	-8.33711
▁സൂചന	-8.33871
ന്ന	-8.33882
▁25	-8.339
▁14	-8.34195
നെ	-8.34235
ിരുന്നത്	-8.34497
▁അദ്ദേഹത്തിന്റെ	-8.34506
▁അനുമതി	-8.34659
▁സംഘം	-8.34784
▁ആവശ്യം	-8.34807
ങ്ങളും	-8.3491
▁അതുകൊണ്ട്	-8.35332
▁ഇക്കാര്യം	-8.3538
▁ആർ	-8.3545
വരുടെ	-8.35518
ിലൂടെ	-8.35527
▁വ്യക്തമാക്കുന്ന	-8.35846
പ്പോൾ	-8.35972
ില്ലെന്ന്	-8.35997
ിനും	-8.36103
▁കേരളത്തിലെ	-8.36308
▁സമയത്ത്	-8.36331
▁സ്വന്തം	-8.36806
തിനെ	-8.36824
▁7	-8.36951
കെ	-8.36969
▁സുരേഷ്	-8.37115
ൊന്നും	-8.37614
▁പ്രകാരം	-8.37804
ഷ	-8.37807
ില്ലെന്നും	-8.37838
യിലാണ്	-8.37932
ിംഗ്	-8.37944
▁രാത്രി	-8.39192
▁ഉണ്ടായ	-8.39253
▁ആശുപത്രി	-8.39324
▁ഫലം	-8.395
▁മാത്രമേ	-8.39747
▁റ	-8.39938
▁ഭാഗമായി	-8.39972
▁ചെയ്യുന്നത്	-8.40135
ലെ	-8.40175
▁ട	-8.4023
!	-8.40306
▁നരേന്ദ്ര	-8.40347
▁യ	-8.40982
ട്ട	-8.41022
▁തനിക്ക്	-8.41117
ഇ	-8.41121
4	-8.41122
ങ്ങളുടെ	-8.41122
▁ലെ	-8.41138
▁അങ്ങനെ	-8.41171
▁ആറ്	-8.41228
▁പ്രതികരണം	-8.41289
▁ഓഫ്	-8.41307
▁ഹ	-8.41422
▁രാജ്യത്തെ	-8.41507
▁ഉണ്ട്	-8.41706
▁തിരഞ്ഞെടുപ്പില	-8.41767
ുന്നതിന്	-8.4186
8	-8.41972
▁അടക്കം	-8.42218
▁ബ	-8.42257
▁എല്‍	-8.42336
▁മലപ്പുറം	-8.42717
നും	-8.43092
▁ചെയ്ത്	-8.432
▁ലഭിക്കും	-8.43344
▁സാഹചര്യത്തില്‍	-8.4338
▁നടി	-8.43403
▁പേരും	-8.43408
▁വിട്ട	-8.43487
▁എന്നത്	-8.43741
ക്കായി	-8.43777
▁നിയമ	-8.43799
▁എന്‍	-8.44267
▁ലോക്	-8.44583
▁പ്ര	-8.44724
ിരുന്നില്ല	-8.44745
ച	-8.4482
ില	-8.4507
▁സൗദി	-8.45291
▁മുന്നോട്ട്	-8.45301
▁ആശുപത്രിയില്‍	-8.45526
ത്തിലേക്ക്	-8.45628
▁കടുത്ത	-8.45635
▁മുൻ	-8.45657
▁വിജയം	-8.46279
▁പ്രവര്‍ത്തിക്ക	-8.46642
▁സോഷ്യല്‍	-8.46658
▁17	-8.46746
▁പേര്	-8.46781
▁എക്	-8.47035
ിരിക്കുന്ന	-8.47086
േയും	-8.47209
െന്ന	-8.47351
ൊരു	-8.47551
▁ഇടുക്കി	-8.47771
മോ	-8.47988
▁തദ്ദേശ	-8.48032
▁വിദ്യാഭ്യാസ	-8.48077
ഐ	-8.48081
▁മുഹമ്മദ്	-8.48193
▁ഇന്നലെ	-8.48265
▁കേരളം	-8.48274
▁തുടർന്ന്	-8.48389
▁എണ്ണ	-8.48454
റ്റ്	-8.48827
ാന	-8.49061
െന്നാണ്	-8.49167
രി	-8.49215
ാണെന്ന്	-8.49413
ുമ്പോൾ	-8.49508
▁സംസ്ഥാനത്തെ	-8.49535
▁കോ	-8.4998
▁50	-8.50138
▁13	-8.50254
▁സംബന്ധിച്ച	-8.5026
▁മാറ്റി	-8.50313
▁ഹൈക്കോടതി	-8.50354
▁സമിതി	-8.50449
▁നടത്തിയത്	-8.50651
▁ബിജെപിയുടെ	-8.50767
▁വ്യക്തമാക്കിയ	-8.51068
തിന്റെ	-8.51184
കളില്‍	-8.51223
▁വൈറസ്	-8.51365
▁വിഭാഗം	-8.51523
3	-8.51634
▁മറ്റു	-8.51753
▁പ്രതിരോധ	-8.51946
▁9	-8.52223
▁എത്തി	-8.52339
ിച്ച	-8.52522
▁ര	-8.52634
▁ആരോപണം	-8.52641
▁ലീഗ്	-8.52769
▁അമ്മ	-8.52898
▁ഒന്നും	-8.52899
▁അപേക്ഷ	-8.53032
▁ഷാ	-8.53064
▁അവസാന	-8.53094
▁അതേ	-8.53135
▁വെച്ച്	-8.53143
▁രണ്ടു	-8.53692
▁നിന്ന	-8.53708
േക്കും	-8.53936
▁ചെയ്യും	-8.54048
പ്	-8.54076
▁ഭാര്യ	-8.54084
1	-8.54117
വര്‍ക്ക്	-8.54157
തില്‍	-8.54184
▁പൊതു	-8.54302
▁ആയ	-8.54315
▁ആവശ്യപ്പെട്ടു	-8.54432
▁എല്ലാം	-8.54611
▁അറിയിച്ച	-8.54848
▁തൃശൂര്‍	-8.54987
▁കണ്ടെത്തിയ	-8.55085
ുകളും	-8.55393
▁എന്നതാണ്	-8.55414
മി	-8.55463
▁വീട്ടില്‍	-8.55501
▁ബോസ്	-8.55664
യില	-8.55938
▁8	-8.55964
തു	-8.56795
▁മാധ്യമ	-8.56873
▁ച	-8.5697
▁എന്ത്	-8.5701
▁തല	-8.57466
▁എത്ര	-8.57478
▁എന്നായിരുന്നു	-8.5761
ൂര്‍	-8.57835
▁വന്‍	-8.58284
▁16	-8.58302
▁സ്ത്രീ	-8.58539
ത്തിനും	-8.5856
തായും	-8.58622
▁നേടിയ	-8.58668
▁പ്രതീക്ഷ	-8.58683
▁ഇന്ത്യൻ	-8.58726
▁കൈ	-8.58874
▁മരിച്ച	-8.58897
തി	-8.58907
ിട്ടും	-8.58984
▁ജനറല്‍	-8.59448
▁മുന്നില്‍	-8.59457
▁പോയി	-8.5978
▁കുമാര്‍	-8.59931
▁21	-8.5999
▁തുടങ്ങി	-8.60207
ുളള	-8.60561
▁ചർച്ച	-8.6064
▁യോഗം	-8.60909
▁മുന്നണി	-8.61239
5	-8.61456
തെന്നാണ്	-8.61688
ത്തിലെ	-8.6186
ായിരിക്കും	-8.61873
കളെ	-8.61974
▁പ്രതിസന്ധി	-8.62088
▁ഇതിന്റെ	-8.62124
▁കുറഞ്ഞ	-8.6217
▁നിങ്ങളുടെ	-8.62262
▁നിയമസഭ	-8.62395
▁എന്നെ	-8.62487
▁സമ്പർക്കം	-8.6256
വര	-8.62593
▁കമ്പനി	-8.62669
▁വയനാട്	-8.62732
ത്തി	-8.62999
ീ	-8.6326
▁ഇട	-8.6326
ങ്ങ	-8.63364
▁തി	-8.63581
▁മണി	-8.63701
▁അതിന്റെ	-8.63745
ജ	-8.63828
▁പഞ്ചായത്ത്	-8.64089
▁22	-8.64253
ങ്ക	-8.64315
▁പ്രവര്‍ത്തനങ്ങള	-8.64363
ുമോ	-8.64479
▁വിധി	-8.64487
▁വികസന	-8.6454
▁സു	-8.64771
ത്തിനായി	-8.6485
▁23	-8.64902
▁മാറി	-8.65047
▁ഉള്ളത്	-8.65075
യാ	-8.65144
▁കേന്ദ്രം	-8.65156
▁സ്ഥിരീകരിച്ചത്	-8.65434
▁നടന്നത്	-8.65458
മായിരുന്നു	-8.65486
െല്ലാം	-8.65596
ുമെന്നാണ്	-8.65724
▁പ്രവര്‍ത്തകര്‍	-8.65805
▁മു	-8.65825
▁ആശങ്ക	-8.66164
ാലും	-8.66386
ക്കുന്ന	-8.66546
▁ചെയ്യാന്‍	-8.66751
▁കാ	-8.66842
▁തുക	-8.66846
▁തോമസ്	-8.66908
▁അമിത്	-8.67099
ണ്ട	-8.6722
▁ഇവരുടെ	-8.6732
2	-8.67798
▁ലഭിച്ചത്	-8.67871
▁രോഗ	-8.68008
▁പറയുന്ന	-8.68054
▁40	-8.68148
▁ഇതേ	-8.68184
നാണ്	-8.68317
▁കൂട്ട	-8.68502
▁ചിത്രം	-8.68568
മ്പ	-8.68596
▁ഇപ്പോഴും	-8.68783
▁ശേഷമാണ്	-8.68789
▁അവരെ	-8.68866
▁മൊഴി	-8.68933
▁താരം	-8.6909
▁വർഷം	-8.69213
യെന്ന്	-8.69315
7	-8.69395
▁വിജയ	-8.69423
▁മുസ്ലിം	-8.69747
▁ഉയര്‍ന്ന	-8.69755
▁സര്‍ക്കാരിന്റെ	-8.69989
▁ജ	-8.70083
▁യി	-8.70121
▁കോണ്‍ഗ്രസിന്	-8.70122
▁എടുത്ത	-8.70348
▁നിരക്ക്	-8.70377
▁പറഞ്ഞ്	-8.70419
▁വിവാഹ	-8.70424
▁കേരളത്തിൽ	-8.70657
ിട്ടുള്ള	-8.70786
▁ചെറിയ	-8.70954
▁ജോസ്	-8.71137
▁ഞങ്ങള്‍	-8.71358
▁വന്നത്	-8.71539
▁പേരെ	-8.72097
▁ചികിത്സ	-8.72194
▁വ്യക്തി	-8.72206
▁ഇല്ല	-8.7223
▁സിന്‍	-8.72306
ിനോട്	-8.72314
▁തമിഴ്	-8.72484
▁നേരിട്ട്	-8.72509
▁കോണ്‍ഗ്രസിന്റെ	-8.72549
▁എല്ലാവരും	-8.72559
▁കു	-8.72652
തിനാല്‍	-8.7268
▁ഇന്ത്യയുടെ	-8.73207
ിട്ട്	-8.73235
▁28	-8.73287
▁അമേരിക്ക	-8.73433
▁നിന്നാണ്	-8.73521
▁ഞങ്ങൾ	-8.73599
▁സ്വീകരിച്ച	-8.73608
▁സഭാ	-8.73794
▁26	-8.74031
▁നല്‍കിയത്	-8.74312
▁സാധിക്കും	-8.74354
▁നില	-8.74383
▁ഭരണ	-8.7443
്‍ക്ക്	-8.74463
ിങ്	-8.74598
▁നേടി	-8.7461
▁സുപ്രീം	-8.74797
▁നേതാക്കൾ	-8.74834
▁ഇവരെ	-8.75007
▁വര	-8.75285
▁ഇനിയും	-8.75315
▁മെയ്	-8.75379
▁പ്രതീക്ഷിക്ക	-8.75419
▁സ്ഥിതി	-8.75517
യു	-8.75571
ത്തിലൂടെ	-8.75606
▁നൽകി	-8.75734
▁ഏഴ്	-8.76119
▁കാലത്ത്	-8.76258
▁തീരുമാനിച്ച	-8.76268
▁വേണ്ട	-8.76309
ദ്	-8.76477
▁ചൈന	-8.76545
▁എങ്ങനെ	-8.76565
ിക്ക	-8.76683
▁ലക്ഷ്യം	-8.76974
▁1,	-8.77143
▁ആഭ്യന്തര	-8.77201
ക്കാണ്	-8.77202
േണ്ടി	-8.77204
▁രൂപയാണ്	-8.77451
പ്ര	-8.77464
ത്തിലാണ്	-8.77711
▁എൻ	-8.77713
▁ആരും	-8.77943
▁വെ	-8.78021
▁മുംബൈ	-8.78048
▁പരിപാടി	-8.78115
▁നികുതി	-8.78168
▁ജോസഫ്	-8.78171
▁ബിജെപിക്ക്	-8.78178
▁തങ്ങളുടെ	-8.78235
രുത്	-8.78591
▁പ്രതിഷേധം	-8.78707
ഫ	-8.78788
▁തിരുവനന്തപുരത്ത	-8.78937
▁കണ്ണൂർ	-8.78948
▁വേണം	-8.78964
▁വന്നു	-8.79199
യി	-8.79278
റെ	-8.79306
▁വാ	-8.79314
▁എത്തിയത്	-8.79487
▁നിലവിൽ	-8.79492
നായ	-8.79663
▁സംഘടന	-8.79682
എഫ്	-8.79738
ാണെന്നും	-8.79838
▁പരീക്ഷ	-8.79956
ിയത്	-8.79968
വരാണ്	-8.8027
▁കേസിൽ	-8.80372
▁ആരോപിച്ചു	-8.80497
▁ആരംഭിച്ച	-8.80604
▁പകരം	-8.80651
▁ഭീഷണി	-8.80797
▁മെഡിക്കൽ	-8.80844
▁നേരെ	-8.81121
ാവ	-8.81137
▁ഇവർ	-8.81177
▁പോസ്റ്റ്	-8.81338
ക്കൊപ്പം	-8.8137
▁പേരില്‍	-8.81373
ൺ	-8.81578
▁ഇവ	-8.81703
▁സ്ഥാനം	-8.81724
▁മത	-8.81754
▁എംഎല്‍എ	-8.81783
▁2019	-8.81883
▁കനത്ത	-8.82261
▁പങ്കെടുത്ത	-8.82325
▁മുന്നറിയിപ്പ്	-8.82461
▁രാഹുൽ	-8.82565
▁കുറച്ച്	-8.82662
▁മൂന്നാം	-8.82686
െയും	-8.82691
▁കൂടെ	-8.82893
യ്ക്കും	-8.82926
▁രമേശ്	-8.83012
▁ഒന്നാം	-8.83053
▁നാളെ	-8.83171
കളിൽ	-8.83198
▁നടക്കുന്നത്	-8.8322
▁അവസരം	-8.83326
▁എട്ട്	-8.83351
▁എന്നിവര്‍	-8.8336
▁മാറ്റം	-8.83533
▁അധ്യക്ഷന്‍	-8.83564
▁ഭൂമി	-8.83568
▁നിയമം	-8.83571
▁തിരഞ്ഞെടുപ്പിൽ	-8.83858
▁പ്രിയങ്ക	-8.83908
▁ഷോ	-8.83944
▁27	-8.8397
▁ശ്രമം	-8.84271
ൊക്കെ	-8.84412
▁ഏത്	-8.84431
▁കട	-8.84455
▁ചുമതല	-8.84508
സ്റ്റ	-8.84525
▁പത്ത്	-8.84559
▁വിവരങ്ങള്‍	-8.84585
▁ചെയ്യ	-8.84596
▁മെ	-8.84671
▁അല്ല	-8.84946
▁മമത	-8.84959
▁മണ്ഡലം	-8.84968
▁യോഗ്യത	-8.84986
▁മുസ്ലീം	-8.8501
▁ഉ	-8.85042
▁ചോദിച്ചു	-8.85165
▁31	-8.85264
▁പിസി	-8.85303
▁നല്‍കുന്ന	-8.85337
▁എംപി	-8.85388
▁വീതം	-8.85481
▁വിദേശ	-8.85489
▁മരണ	-8.85868
▁സാഹചര്യം	-8.85881
കള	-8.85905
മല്ല	-8.86064
▁അതില്‍	-8.86178
▁എന്താണ്	-8.86393
▁സാധാരണ	-8.86516
▁ചെന്നിത്തല	-8.86545
ുവെന്നും	-8.86568
▁വരുന്നത്	-8.86734
▁ചൂണ്ടിക്കാട്ടി	-8.86917
ത്തിലും	-8.86933
▁താൻ	-8.87137
▁പ്രവർത്തിക്ക	-8.87272
▁ജനാധിപത്യ	-8.87337
▁ഫേസ്ബുക്ക്	-8.8734
▁ബന്ധം	-8.87403
▁നമുക്ക്	-8.87417
ള്‍	-8.87492
▁ശക്തി	-8.87536
▁രീതിയില്‍	-8.87583
▁മരണം	-8.87597
▁യാതൊരു	-8.87749
▁യുവതി	-8.87988
ിട്ടുണ്ടെന്നും	-8.88044
കള്‍ക്ക്	-8.8816
▁രൂപയുടെ	-8.88161
▁കൂടിയാണ്	-8.88249
▁അവ	-8.88269
▁ലഭിക്കുന്ന	-8.88423
▁വ്യാജ	-8.88754
▁വീട്	-8.88815
▁സുരക്ഷ	-8.88931
ഫ്	-8.88933
▁നടത്തുന്നത്	-8.89067
▁ദ	-8.89106
▁വിതരണം	-8.89172
▁സുരക്ഷാ	-8.89236
▁പലരും	-8.89356
▁ചെയ്തിട്ടുണ്ട്	-8.89397
▁എൽ	-8.894
▁സെ	-8.89455
മുണ്ട്	-8.89457
▁സംഭവ	-8.89743
▁സമരം	-8.89827
▁മീഡിയ	-8.8988
▁പിന്നാലെയാണ്	-8.89924
▁വനിതാ	-8.89929
▁മാണി	-8.90079
ക്കുള്ള	-8.90218
▁അടക്കമുള്ള	-8.90507
വരും	-8.90538
▁മേഖലയില്‍	-8.90631
മാ	-8.9064
▁യോഗത്തില്‍	-8.90785
വെ	-8.90892
▁ഒന്ന്	-8.90901
േണ്ടത്	-8.90972
▁ദിലീപ്	-8.91051
▁കോടതിയില്‍	-8.91112
▁സ്ഥിരീകരിച്ചു	-8.91233
▁മുഴുവന്‍	-8.91345
ൂർ	-8.91401
▁സാ	-8.91414
▁റിപ്പോര്‍ട്ടുകള	-8.9147
▁ഉയർന്ന	-8.91501
▁സ്വീകരിക്ക	-8.91541
യ്ക്ക	-8.91662
ിൻ്റെ	-8.91701
▁കേസിലെ	-8.92037
▁മണ്ഡലത്തില്‍	-8.9205
ത്തോടെ	-8.92097
▁വിവാഹം	-8.9212
ഷ്	-8.92172
▁അദ്ദേഹത്തെ	-8.92177
▁പശ്ചാത്തലത്തില	-8.92184
▁പ്രസ്താവന	-8.92195
▁കാല	-8.92372
ഴ	-8.92714
▁നിരീക്ഷണത്തില	-8.92842
▁ഒരുപാട്	-8.93106
▁ശ്രദ്ധ	-8.93151
മാണെന്ന്	-8.93285
▁വെച്ച	-8.93303
ആര്‍	-8.93361
ുള്ളത്	-8.93597
▁യൂത്ത്	-8.93718
വാ	-8.93777
▁മെന്റ്	-8.93856
▁അഴിമതി	-8.93861
▁ഒരിക്കലും	-8.939
ിനു	-8.9395
▁മേധാവി	-8.94141
▁കഴിയുന്ന	-8.94205
▁കൊണ്ടാണ്	-8.94208
▁വിജയ്	-8.94407
വ്	-8.94501
▁മാറ്റ	-8.94729
▁യുഎഇ	-8.94818
9	-8.95014
▁ചെയ്	-8.95143
ഭ	-8.95236
ിട്ട	-8.95259
▁കാര്യങ്ങൾ	-8.95271
▁ഉണ്ടായിരുന്നു	-8.95314
▁പിന്നെ	-8.95384
ഒ	-8.95474
▁നിര്‍ദേശം	-8.95479
▁ഡോസ്	-8.9551
▁റോഡ്	-8.95576
ക്കി	-8.9574
▁ഒപ്പം	-8.95771
▁തിരിച്ചടി	-8.95862
▁ചെയ്യുന്നു	-8.95918
▁ചീഫ്	-8.95963
▁ജന	-8.96066
▁കുട്ടി	-8.96183
▁സംഭവത്തില്‍	-8.96209
▁കെപിസിസി	-8.96489
▁പോകുന്ന	-8.96624
▁ഇയാള്‍	-8.96734
▁കുടുംബ	-8.96751
▁സീറ്റുകള്‍	-8.96804
▁ഉന്നത	-8.96924
▁കി	-8.9694
▁നേതൃത്വത്തില്‍	-8.96964
ിക്കുന്ന	-8.97001
▁ഉപയോഗിച്ച്	-8.97017
▁ഗ്രൂപ്പ്	-8.97033
▁ജാഗ്രത	-8.9705
‍	-8.97053
▁പദവി	-8.97124
▁അതിനിടെ	-8.97167
ുകളുടെ	-8.97228
▁കാര്യത്തില്‍	-8.97244
ങ്ങളില്‍	-8.97306
000	-8.97418
▁ശ്രമിച്ച	-8.9742
▁പട്ടിക	-8.97473
▁ലോട്ടറി	-8.97561
▁നിലവിലെ	-8.97571
▁സഹായം	-8.97584
▁അധ്യക്ഷ	-8.97607
▁വിഷയത്തില്‍	-8.97613
▁എതിരെ	-8.97674
▁ഇത്രയും	-8.97717
▁രംഗത്തെത്തിയ	-8.97755
20	-8.9807
നാ	-8.98072
▁ശ്രീ	-8.98135
▁മത്സരിച്ച	-8.9821
▁നടപടികള്‍	-8.98289
▁എന്നിവരാണ്	-8.98393
▁സമര	-8.98596
▁തിരഞ്ഞെടുക്ക	-8.98729
▁ജില്ലയിൽ	-8.98742
▁താഴെ	-8.98744
േക്ക്	-8.98795
തോടെയാണ്	-8.98806
ാക്കി	-8.98859
മാണെന്നും	-8.98865
▁100	-8.98976
ുവെന്ന്	-8.99002
▁മാറിയ	-8.99093
▁ഉണ്ടായിരുന്ന	-8.99148
';	-8.99306
ങ്ങള	-8.99568
▁ഫോണ്‍	-8.99821
▁റി	-8.99888
▁കഴിഞ്ഞു	-9.00005
▁ബാങ്ക്	-9.00082
ഖ	-9.00129
▁പ്രാദേശിക	-9.00192
ങ്ങളെ	-9.00277
▁ഇന്ത്യയില്‍	-9.00291
ിന	-9.00327
ുണ്ടായ	-9.00335
▁ർ	-9.00374
▁ജൂലൈ	-9.00418
▁കോളേജ്	-9.00533
ിക	-9.00812
▁തമ്മിലുള്ള	-9.00844
▁ഔദ്യോഗിക	-9.00878
ജെ	-9.00931
▁കേസുകള്‍	-9.00972
▁നീതി	-9.01057
ലാ	-9.01082
▁ജൂണ്‍	-9.01111
▁ടെ	-9.01121
ട്ട്	-9.01302
▁ഭരണം	-9.01382
▁വാര്‍ത്ത	-9.01613
▁ഉള്‍പ്പെടെ	-9.01632
▁എന്നിവിടങ്ങളില	-9.01683
▁രാജി	-9.01894
▁60	-9.02116
▁ഉൾപ്പെടെ	-9.02192
യാണെന്ന്	-9.02205
▁മൃതദേഹം	-9.02322
▁തെരഞ്ഞെടുപ്പ്	-9.02367
റിയ	-9.02503
▁ജനങ്ങള്‍	-9.02554
ത്തിനു	-9.02576
്യ	-9.02634
▁സ്വയം	-9.02642
▁സംഭവിച്ച	-9.02745
▁ഗോപി	-9.02783
യുമായ	-9.02802
ോടെ	-9.02823
▁നിലയില്‍	-9.02837
▁സാഹചര്യത്തിൽ	-9.03078
▁29	-9.03096
▁ഉദ്യോഗസ്ഥര്‍	-9.03192
▁യുഎസ്	-9.03303
6	-9.03386
ണ്‍	-9.03399
▁ആക്രമണം	-9.03865
യുടെയും	-9.03965
ിട	-9.03968
▁രാജ്യം	-9.0399
എല്‍	-9.04084
▁ര്‍	-9.04126
▁ത്തി	-9.04259
ിരിക്കുന്നു	-9.04294
▁കൂടിക്കാഴ്ച	-9.04334
പ്പ്	-9.04479
▁അദ്ദേഹത്തിന്	-9.04483
▁ജോ	-9.04525
ണമെന്ന	-9.04727
▁ഹര്‍ജി	-9.0476
▁പഴയ	-9.04763
▁ക്	-9.048
▁അത്ര	-9.04801
യെന്ന	-9.04833
▁പേരിൽ	-9.04838
ുണ്ടായിരുന്നു	-9.0484
മ്മ	-9.04856
▁ചെയ്യാൻ	-9.04932
ങ്	-9.0497
▁മി	-9.05008
▁നിങ്ങൾ	-9.05057
▁സംവിധാനം	-9.05066
ബ്	-9.05076
▁ഇന്ത്യയിലെ	-9.05117
▁പാ	-9.05137
ന്റ	-9.0529
▁ആളുകള്‍	-9.05293
▁വാദം	-9.05421
▁ജനുവരി	-9.05603
▁സംസാരിക്ക	-9.05759
യിലൂടെ	-9.05867
▁കിട്ടിയ	-9.05906
▁ജോര്‍ജ്	-9.05956
▁തീ	-9.05989
▁ശ	-9.05997
▁കൊടുത്ത	-9.06023
കളാണ്	-9.06116
▁രാജ്	-9.0661
▁അനുവദിച്ച	-9.06648
ുന്നതിനായി	-9.06649
',	-9.06722
ച്ച്	-9.06736
▁ടിക്കറ്റ്	-9.0675
%	-9.06803
▁സാമൂഹിക	-9.0681
ുമായിരുന്നു	-9.06825
▁ഷ	-9.06875
▁അധികം	-9.06912
▁ചാണ്ടി	-9.06938
വർക്ക്	-9.06968
▁വിരുദ്ധ	-9.07251
▁ബാബു	-9.073
▁തിരികെ	-9.0746
▁നിങ്ങള്‍	-9.07536
▁35	-9.07536
▁തമ്മില്‍	-9.07598
▁ബസ്	-9.07643
ോളം	-9.07751
▁വിഷയം	-9.07813
കര	-9.07816
▁നേരിട്ട	-9.07876
▁ഉമ്മന്‍	-9.0806
▁റഷ്യ	-9.08076
▁കാലാവസ്ഥ	-9.08173
ുമെന്ന	-9.08183
▁ഇരു	-9.08184
▁റിപ്പോര്‍ട്ട	-9.08347
▁വിജയിച്ച	-9.08404
▁ലി	-9.08413
▁വീട്ടിൽ	-9.08475
▁പ്രതികരിച്ചു	-9.08821
ുമായുള്ള	-9.08866
▁കുറിച്ചു	-9.08955
ിത	-9.08985
▁ഉണ്ടാകും	-9.09241
▁പ്രതികരിച്ച	-9.09251
▁വിവാദ	-9.09286
▁കോണ്‍ഗ്രസില്‍	-9.09292
▁സിറ്റി	-9.09759
▁ജാമ്യം	-9.09922
▁മരിച്ചത്	-9.09945
▁പേര്‍ക്കും	-9.09947
▁അധികൃതര്‍	-9.10005
▁അന്താരാഷ്ട്ര	-9.10079
▁അനുകൂല	-9.10084
▁നങ്ങള്‍	-9.10146
▁മീഡിയയില്‍	-9.10152
▁ഉന്നയിച്ച	-9.1016
▁സമ്പര്‍ക്ക	-9.10696
നം	-9.10697
▁സ്ഥാനാർത്ഥി	-9.10702
▁അടിയന്തര	-9.10836
▁സുരേന്ദ്രന്‍	-9.10839
▁2016	-9.11007
ട്ടെ	-9.11024
▁വൈസ്	-9.11112
▁വിമാന	-9.11211
▁ജീവിതം	-9.11272
▁രു	-9.11349
വേ	-9.11443
യുമാണ്	-9.11602
യോടെ	-9.11757
▁ഓഫീസര്‍	-9.11762
▁വിചാരണ	-9.11779
▁ഇതിൽ	-9.12009
▁തു	-9.12023
▁പക്ഷെ	-9.12113
▁നഗരസഭ	-9.12346
ംഗ	-9.12358
▁മാര്‍ച്ച്	-9.12433
മാര്‍	-9.12491
▁ജില്ല	-9.12492
▁രീതി	-9.12835
▁പാല	-9.12914
ൊ	-9.13134
ാര	-9.1315
▁45	-9.13251
ുവ	-9.13432
യുണ്ട്	-9.13605
▁പേരുടെ	-9.13812
▁ഉടന്‍	-9.13818
▁വിസ	-9.13843
െത്തിയ	-9.13867
,000	-9.13883
▁ഫ്	-9.13916
▁ഏതെങ്കില	-9.13936
ങ്ങളിൽ	-9.13982
ന്റ്	-9.14035
▁മുതിര്‍ന്ന	-9.14101
▁അടുത്തിടെ	-9.14101
▁വോട്ടുകള്‍	-9.14135
ൈ	-9.1417
▁ഇരുവരും	-9.14273
ിച്ചു	-9.14504
▁ഒറ്റ	-9.14577
മില്ല	-9.14601
▁പോകുന്നത്	-9.14687
▁സ്വദേശിയായ	-9.14704
▁വിജയന്‍	-9.14754
യില്ല	-9.14902
▁നമ്മള്‍	-9.14941
▁കണ്ടെത്തി	-9.15109
▁2021	-9.15226
▁ഉദ്ഘാടനം	-9.15255
▁കൃത്യമായ	-9.1528
▁പ്രമുഖ	-9.15365
താ	-9.15583
▁കണ്ട്	-9.15613
▁വിളിച്ച	-9.15666
▁പേർക്ക്	-9.15773
▁പേര	-9.15875
▁ചേര്‍ന്ന	-9.15876
ച്ചു	-9.16113
ൂട്ടിച്ചേര്‍ത്തു	-9.1614
ഗ്	-9.16141
▁ആവശ്യമായ	-9.16166
▁കുറ്റപ്പെടുത്തി	-9.16237
▁ജനറൽ	-9.16335
▁പുറമെ	-9.16336
▁കണക്ക്	-9.16393
▁പങ്കെടുക്ക	-9.16444
▁നം	-9.16446
▁ബാധിച്ച	-9.16501
▁മരിച്ചു	-9.16603
▁ഒന്ന	-9.16623
▁വാങ്ങ	-9.16686
▁ലോക	-9.16775
▁സിപിഐ	-9.16782
▁മൂലം	-9.16836
▁ഇടത്	-9.16958
▁ഇതിനിടെ	-9.16973
▁നാ	-9.16994
▁ട്രംപ്	-9.17029
ായിരുന്ന	-9.17081
▁നടത്തിയിരുന്നു	-9.17144
▁ഇതാണ്	-9.17195
▁വാഹന	-9.17278
▁രജിസ്റ്റര്‍	-9.17473
▁അടിസ്ഥാന	-9.17647
ലും	-9.17723
▁യാ	-9.17833
▁നൽകുന്ന	-9.17846
▁ന്ന	-9.17871
▁ജനങ്ങളുടെ	-9.17892
▁വൈ	-9.18032
▁എല്‍ഡിഎഫ്	-9.18098
▁നേതാക്കളെ	-9.18266
▁അഭിപ്രായ	-9.18347
▁പ്രചാരണം	-9.18385
മെന്ന്	-9.18426
▁എത്ത	-9.18729
▁വെല്ലുവിളി	-9.18757
▁ദുരന്ത	-9.18781
ആർ	-9.18916
യെന്നും	-9.18949
റ്റി	-9.19026
▁ശോഭ	-9.1904
▁കയറി	-9.19053
▁തുടര്‍ന്നാണ്	-9.19074
▁ഇന്‍	-9.19109
▁സിനിമാ	-9.19182
▁കൊ	-9.19194
ത്തില	-9.19405
തിൽ	-9.19406
▁ആശുപത്രിയിൽ	-9.19408
ുകളില്‍	-9.19413
▁പിന്തുണയ്ക്ക	-9.19449
▁ഓഫീസ്	-9.1951
▁അറിയിച്ചത്	-9.19548
▁വ്യക്തമായ	-9.19549
▁സം	-9.19727
▁ബാ	-9.19735
▁2,	-9.19979
▁ജില്ലകളില്‍	-9.20219
▁വെള്ളം	-9.20276
▁ചേര്‍ന്ന്	-9.20387
യല്ല	-9.20411
▁ഫെബ്രുവരി	-9.20482
▁സൈനിക	-9.20506
▁വിദ്യാര്‍ത്ഥികള	-9.20522
▁കൃത്യമായി	-9.20613
ിച്ച്	-9.20666
▁സഭ	-9.20744
▁ബാക്കി	-9.20771
▁കര	-9.20784
▁രി	-9.20884
▁ഒക്കെ	-9.20971
▁കൊല്ലപ്പെട്ട	-9.21232
▁പണി	-9.21375
▁ഓ	-9.2149
▁കണ്ടെത്തിയത്	-9.2153
▁രാജ	-9.21591
ുകൊണ്ട്	-9.21608
▁മൂന്നു	-9.21617
▁പ്രതിപക്ഷം	-9.21744
ുണ്ടെന്നും	-9.21911
▁ചെയ്യുക	-9.21944
▁പരമാവധി	-9.2198
▁വിട	-9.21983
▁വൈദ്യുതി	-9.2207
▁ഡല്‍ഹി	-9.22177
▁ഫ	-9.22232
ട്ടി	-9.22261
▁ഒരാള്‍	-9.22263
▁വച്ച്	-9.22291
▁ആഴ്ച	-9.22361
ന്ത	-9.22403
▁പ്രഖ്യാപിക്ക	-9.22431
▁നിയമനം	-9.22606
ാകും	-9.22656
ത്തിനെതിരെ	-9.22802
▁അവര്‍ക്ക്	-9.22832
▁കൂടിയ	-9.22912
കൾക്ക്	-9.22933
▁കൂട	-9.22991
▁പുറത്തുവന്ന	-9.23006
▁നന്ദി	-9.23081
▁ഫോട്ടോ	-9.23095
▁കുടുംബം	-9.23166
▁ഭ	-9.23245
▁സുധാകരന്‍	-9.23283
▁ഭാഗത്ത്	-9.23335
രായ	-9.23428
ക്കോ	-9.2354
▁കാണാന്‍	-9.23634
0	-9.23696
▁തൊഴില്‍	-9.23984
▁മലയാള	-9.23993
▁വരെയുള്ള	-9.24004
▁ഏക	-9.24015
▁വാക്സിൻ	-9.24051
▁കോട്ട	-9.24165
ങ്ങള്‍ക്ക്	-9.24177
▁രേഖപ്പെടുത്തിയ	-9.2424
▁നേരത്തേ	-9.24282
▁വെറും	-9.24286
▁ബാല	-9.24367
ത്തോട്	-9.24412
▁ഏകദേശം	-9.24442
▁അറിയാം	-9.2445
▁സത്യ	-9.24513
▁കാര	-9.24516
▁കൊണ്ട	-9.24545
▁2020	-9.24652
▁മലയാളി	-9.24787
▁മുന്നിൽ	-9.24815
▁വിളിച്ച്	-9.24864
▁ആദ്യമായി	-9.24876
▁ഇക്കാര്യത്തില്‍	-9.24992
▁കേരളത്തിന്റെ	-9.25014
▁2018	-9.25123
▁അവധി	-9.25222
▁പറയ	-9.25261
▁അംഗ	-9.25313
▁അംഗീകരിക്ക	-9.25359
▁അടി	-9.25467
▁ലാ	-9.25488
▁അവസ്ഥ	-9.25495
▁സഖ്യം	-9.25535
മാർ	-9.25585
▁കാലം	-9.25607
▁പോലുള്ള	-9.25676
▁ചെ	-9.25792
▁അപകട	-9.25846
ത്തു	-9.25902
▁മുതിർന്ന	-9.25988
▁മഹാ	-9.26108
▁തിരഞ്ഞെടുപ്പിന്	-9.2623
▁ഇവര്‍ക്ക്	-9.26322
ില്ലെന്ന	-9.26477
ില്ലെങ്കില്‍	-9.26531
▁മന്ത്രാലയം	-9.2655
ലാണ്	-9.26656
▁ഏ	-9.26664
▁ശമ്പളം	-9.26665
▁നടത്ത	-9.26688
▁രൂപയും	-9.26719
▁ഇന്നത്തെ	-9.26746
മേ	-9.26855
▁ശബരിമല	-9.2689
▁തള്ളി	-9.26895
▁സൂര്യ	-9.26963
▁പ്രതിഷേധ	-9.26964
ാവുന്ന	-9.26965
▁അതിനെ	-9.27028
▁സ്ഥാനത്ത്	-9.27058
▁സോണിയ	-9.27067
ുണ്ടെന്ന്	-9.27098
▁കൂട്ടിച്ചേർത്തു	-9.27193
▁ഇതിനെ	-9.27495
യെയും	-9.27576
▁നീക്ക	-9.27678
▁പേര്‍ക്കാണ്	-9.27708
ആ	-9.27771
▁കാണ	-9.27897
▁മഹാരാഷ്ട്ര	-9.27935
▁ജനങ്ങളെ	-9.27944
▁തിങ്കളാഴ്ച	-9.28144
▁സർക്കാരിന്റെ	-9.28256
▁രോഗമുക്തി	-9.28326
നിന്ന്	-9.28458
▁സ്വപ്ന	-9.28503
▁വീണ	-9.28611
▁അത്തര	-9.28743
▁എന്തെങ്കില	-9.28745
ക്കാന്‍	-9.28837
ഞ്ച	-9.28854
ുമ	-9.29017
▁പ്രവര്‍ത്തന	-9.29101
▁ഭക്ഷണം	-9.29148
▁നടത്തും	-9.29194
ത്ര	-9.29214
▁ആന്റണി	-9.29249
▁നേരിടുന്ന	-9.29255
▁തേടി	-9.29283
▁മുൻപ്	-9.2935
▁വന്നിരുന്നു	-9.29359
▁കൃഷി	-9.29389
▁രാശിക്കാര്‍ക്ക	-9.29412
▁ഉത്തരവ്	-9.29431
▁ടു	-9.2947
▁പോ	-9.29612
▁ഭൂരിപക്ഷം	-9.29716
ാണോ	-9.29802
▁ഞങ്ങളുടെ	-9.29822
▁നടപടികൾ	-9.29926
▁മത്സര	-9.30018
▁ആത്മഹത്യ	-9.30033
▁നിന്നു	-9.30048
▁പോക	-9.30098
ിനായി	-9.30214
▁സ്വപ്	-9.30345
▁പിടിച്ച	-9.30379
▁സംസ്ഥാനങ്ങളില്‍	-9.3039
▁തുറന്ന്	-9.30617
▁നേതാക്കളുടെ	-9.30781
▁നില്‍ക്കുന്ന	-9.30795
ുന്നതിനുള്ള	-9.30923
▁തുടക്കം	-9.31082
▁കുമാർ	-9.31128
▁പങ്കുവെച്ച	-9.31172
▁പെണ്‍കുട്ടി	-9.31186
തിനാൽ	-9.31296
▁ടെസ്റ്റ്	-9.31302
▁ഉള്‍പ്പെടെയുള്ള	-9.31328
▁മാറ്റിയ	-9.31699
▁വന്ന്	-9.31714
ില്ലെന്നാണ്	-9.31779
▁വിവരങ്ങൾ	-9.31788
▁വേ	-9.31965
▁യോഗി	-9.31975
▁നേതാക്കളും	-9.32004
▁2017	-9.32053
▁80	-9.32067
ാറ	-9.32276
▁ഉറപ്പ്	-9.32295
▁സര്‍ക്കാര	-9.32298
▁അധികാരം	-9.32327
▁നല്‍കാന്‍	-9.32338
▁സാധ്യതയുണ്ട്	-9.32455
▁ലഭിച്ചു	-9.3251
▁പരിശോധിക്ക	-9.32578
▁ശ്രമിക്കുന്ന	-9.32595
▁മൊത്ത	-9.32814
രാ	-9.32846
യേയും	-9.3287
▁സംഭവത്തിൽ	-9.32899
▁വിമാനത്താവളത്ത	-9.3297
▁അറിയിച്ചിരുന്നു	-9.33097
ാര്‍	-9.33169
▁എത്തുന്ന	-9.3325
▁കണ്ടു	-9.33328
▁ഗവര്‍ണര്‍	-9.33748
▁മത്സരം	-9.33837
ുന്നതാണ്	-9.33994
ളി	-9.33994
മാരുടെ	-9.34017
▁മേഖല	-9.34059
▁പെട്ടെന്ന്	-9.34072
ിട്ടില്ലെന്നും	-9.34112
▁മണ്ഡലത്തിൽ	-9.34177
▁സംസാരിച്ച	-9.34231
▁ഉണ്ടാക	-9.3433
സ്റ്റ്	-9.34345
!!	-9.34431
▁വാർത്ത	-9.34564
▁തിരിച്ച്	-9.34575
▁രാ	-9.34623
▁ഉടൻ	-9.34724
▁ഭാവി	-9.3474
▁പിന്നില്‍	-9.34771
▁ലോക്ക്	-9.34822
▁ബിജെപിയെ	-9.34893
▁ചൈനീസ്	-9.34921
▁പ്രഖ്യാപനം	-9.34931
▁അല്‍	-9.3496
▁നിലയിൽ	-9.34994
▁നല്‍കിയിരുന്നു	-9.35035
▁മുഴുവൻ	-9.35102
കോ	-9.35153
▁പെൺകുട്ടി	-9.35272
▁സബ്	-9.35289
▁നിരീക്ഷണ	-9.35303
▁പള്ളി	-9.35385
▁ടീം	-9.35428
▁നല്‍കുന്നത്	-9.35458
ത്തിനുള്ള	-9.35461
▁കളക്ടര്‍	-9.35493
▁ബാധ	-9.35504
ങ്ങൾക്ക്	-9.3566
▁അത	-9.35785
▁സോ	-9.35875
ല്ലേ	-9.35894
യര്‍	-9.35963
▁കോടതിയെ	-9.36061
▁പഠന	-9.361
▁നേട്ടം	-9.36259
▁പുറമേ	-9.36278
▁പുതുതായി	-9.36294
▁മടങ്ങ	-9.36386
വുമായ	-9.36411
▁പ്രാഥമിക	-9.36473
▁എസ്പി	-9.36476
▁കര്‍ഷക	-9.36502
പ്പെട	-9.36589
രാജ	-9.36634
▁കര്‍ണാടക	-9.36685
ാല	-9.36692
▁അയച്ച	-9.36817
▁സീറ്റില്‍	-9.36849
▁വെള്ള	-9.36892
▁കുറിപ്പ്	-9.36931
▁വാഗ്ദാനം	-9.36953
▁ജാ	-9.37013
▁രീതിയിൽ	-9.37037
ിനൊപ്പം	-9.37098
▁ജില്ലകളിൽ	-9.37119
▁പോയത്	-9.37138
▁ഭാ	-9.3714
▁ജസ്റ്റിസ്	-9.37156
▁ഞാന	-9.37256
യേ	-9.37263
▁അനുസരിച്ച്	-9.37296
▁ശക്തമായി	-9.37399
▁നോട്ടീസ്	-9.37429
ഥ	-9.37473
▁ആഗ്രഹിക്കുന്ന	-9.37476
ക്കാര	-9.37504
▁സംസ്	-9.37511
▁ധാരണ	-9.37536
▁ഹാ	-9.37594
▁നല്‍ക	-9.37607
പ്പെടുന്ന	-9.37658
▁കാണുന്ന	-9.37705
▁എച്ച്	-9.37789
▁ഇല്ലാത്ത	-9.37806
▁സോഷ്യൽ	-9.37867
▁ടെക്	-9.37901
▁2022	-9.3792
▁ദി	-9.37957
▁പങ്കെടുത്തു	-9.38032
ത്തിൻ്റെ	-9.38103
▁ശിക്ഷ	-9.38233
▁ണ്	-9.38415
ാണ	-9.38429
▁പറയാന്‍	-9.38469
▁അഭിപ്രായം	-9.38521
കാര	-9.3856
▁പാലാ	-9.38582
▁കാര്‍	-9.38633
▁മേഖലയിലെ	-9.38648
പാ	-9.38662
▁ശനിയാഴ്ച	-9.3867
▁വെള്ളിയാഴ്ച	-9.38882
▁70	-9.38927
▁ഹിന്ദു	-9.38938
▁ബാധിച്ച്	-9.38992
▁പാര്‍ട്ടിയുടെ	-9.38997
▁ആവശ്യ	-9.39301
ധ	-9.39312
ത്തിന്‍റെ	-9.39336
▁മേ	-9.39345
▁ചെന്നൈ	-9.39382
▁രാജ്യത്തിന്റെ	-9.39491
▁യോഗ	-9.39576
▁നടക്കും	-9.39626
▁അതി	-9.39764
▁പ്രവര്‍ത്തനം	-9.39859
▁പൊലീസ	-9.39894
▁അറേബ്യ	-9.39963
▁പൗരത്വ	-9.39964
▁ഉപയോഗിച്ച	-9.39978
▁വിശ്വാസ	-9.39983
രെ	-9.40085
▁ഇത	-9.4009
▁ടൂറിസം	-9.40135
▁സ്ഥലം	-9.40232
▁ഹർജി	-9.40298
▁കാണുന്നത്	-9.40298
▁33	-9.4031
▁ലഭിക്ക	-9.40326
ജ്	-9.40347
▁പഞ്ചാബ്	-9.40351
▁തങ്ങള്‍	-9.40355
▁ഉണ്ടാക്ക	-9.4036
▁ഇതു	-9.40362
മു	-9.40436
▁നീ	-9.40523
▁സാഹചര്യത്തിലാണ്	-9.40567
▁സന്തോഷ	-9.40611
▁ജീവിത	-9.4086
▁മോശം	-9.40915
▁ഏപ്രില്‍	-9.40926
▁സാമൂഹ്യ	-9.41023
യാണെന്നും	-9.41134
▁32	-9.41235
▁സുപ്രീംകോടതി	-9.41268
ിലുള്ള	-9.41275
▁അധിക	-9.41305
▁പോലീസ	-9.41328
▁കാസര്‍ഗോഡ്	-9.41329
ാർ	-9.41375
▁ബ്ലോക്ക്	-9.41447
▁മോ	-9.41499
▁കാണിക്ക	-9.41542
നു	-9.41563
▁പൊലിസ്	-9.41682
ൗ	-9.41716
▁അതിൽ	-9.41785
▁നിലപാട	-9.41904
▁വിമര്‍ശനം	-9.41906
ണമെന്നാണ്	-9.42011
▁ജാതി	-9.42024
-19	-9.42154
▁സിന്ധ്യ	-9.42166
▁അധികാര	-9.42169
▁സ്വതന്ത്ര	-9.42169
▁ചരിത്ര	-9.42205
▁വ്യാപനം	-9.42237
▁ക്ഷേത്ര	-9.42294
▁ട്വീറ്റ്	-9.4239
▁സഹ	-9.42399
േറ്റ	-9.42406
▁പ്രചാരണ	-9.42412
▁പരിക്കേറ്റ	-9.42569
തായിരുന്നു	-9.42648
▁വിശദീകരണം	-9.42777
▁ആന	-9.42844
ുന്നില്ല	-9.42879
▁സമ്പര്‍ക്കം	-9.42897
▁സാധിച്ച	-9.43024
e	-9.43155
▁തീരുമാന	-9.4327
▁കേട്ട	-9.4327
▁വ്യക്തമാക്കിയത്	-9.43328
▁പെ	-9.43328
ക്കര	-9.43333
ുമുള്ള	-9.43355
ാറുണ്ട്	-9.43357
മെ	-9.43406
▁സ്വാതന്ത്ര്യ	-9.4346
▁വാങ്ങി	-9.43488
▁ത്	-9.43513
▁കേ	-9.43705
▁അവസാനിപ്പിക്ക	-9.43854
തോ	-9.43862
▁വാഹനം	-9.43907
▁വനിത	-9.44002
▁സ്വര്‍ണം	-9.44055
▁ഇത്തരമൊരു	-9.4406
▁മുല്ലപ്പള്ളി	-9.4406
▁പ്രകടനം	-9.44085
▁നിതീഷ്	-9.4416
▁ലോ	-9.44174
സിന്റെ	-9.44208
▁ബാധിച്ചത്	-9.44223
▁ജയ	-9.44242
▁ഖ	-9.44252
▁കണ്ടത്	-9.44269
റോ	-9.44307
▁സഹകരണ	-9.4437
▁നിയന്ത്രണം	-9.44428
▁ഉയര	-9.44441
ുകളിൽ	-9.44488
▁എങ്കിലും	-9.44499
▁സമ്മാനം	-9.44519
▁ഡൽഹി	-9.44529
▁ഇന്ത്യയിൽ	-9.44573
▁സീറ്റ	-9.44617
▁നാട്	-9.44706
▁ശശി	-9.44743
▁പ്രവർത്തകർ	-9.4479
▁നിറഞ്ഞ	-9.44811
▁സ്ഥലത്ത്	-9.44829
▁കമ്മീഷന്‍	-9.44853
▁ഭക്ഷണ	-9.44895
▁ഒരാൾ	-9.44915
▁ഗാന്ധിയുടെ	-9.45037
▁നോക്കി	-9.45067
▁ഞായറാഴ്ച	-9.45162
▁തുടര	-9.45208
▁ധ	-9.45228
▁മകന്‍	-9.45264
യുടേയും	-9.45272
ായത്	-9.4535
▁ഭേദഗതി	-9.4537
▁സിങ്	-9.4538
▁നഷ്ടപ്പെട്ട	-9.45411
യായിരുന്ന	-9.45521
▁രണ്ടാമത്തെ	-9.45564
▁ഇപ്പോഴത്തെ	-9.4559
▁ദിവസത്തെ	-9.45609
▁മോദിയുടെ	-9.45676
▁സഖ്യ	-9.45696
നോ	-9.45731
▁കൃഷ്ണ	-9.45781
....	-9.4582
▁ണ	-9.45858
▁എന്‍ഡിഎ	-9.45901
▁കാര്യമാണ്	-9.46012
▁ചര്‍ച്ചകള്‍	-9.46141
▁അന്വേഷിക്ക	-9.46188
▁വരുമാനം	-9.46217
▁തിരിച്ചു	-9.4628
▁ആം	-9.46288
40	-9.46358
▁എവിടെ	-9.46363
▁ആദ്യത്തെ	-9.46391
▁ആഗോള	-9.46435
▁സര്‍വീസ്	-9.46542
▁നെ	-9.46631
▁പുറത്തു	-9.46641
▁ധനമന്ത്രി	-9.46653
ലോ	-9.46734
▁അല്ലെങ്കില്‍	-9.46877
ില്ലാത്ത	-9.4689
സാ	-9.46916
▁കൊലപാതക	-9.46919
ങ്ങളാണ്	-9.46942
▁കളി	-9.46949
▁34	-9.47077
▁അനുവദിക്ക	-9.47087
▁കല	-9.47168
െത്തി	-9.47205
▁പ്രഖ്യാപിച്ചു	-9.47306
▁അസിസ്റ്റന്റ്	-9.47399
▁വകുപ്പിന്റെ	-9.47446
▁ഫിറോസ്	-9.47485
▁അതുപോലെ	-9.47557
ഞ്ഞ	-9.47641
▁യുവ	-9.47663
ാമെന്ന്	-9.47673
ടക്കം	-9.477
▁അഭിപ്രായപ്പെട്ട	-9.47713
ട്	-9.47717
▁48	-9.47804
ക്കെതിരായ	-9.47841
▁കരുതുന്നത്	-9.47898
▁കഥ	-9.47942
▁കൈകാര്യം	-9.47972
▁നേട	-9.47984
▁ചോദിച്ച	-9.48065
▁വലിയൊരു	-9.48074
▁ആളുകളെ	-9.48119
▁ഇതിനായി	-9.48152
▁മാസ്	-9.4818
▁ആളുകൾ	-9.4819
ാക്ക	-9.48221
▁നടത്താന്‍	-9.48283
▁2024	-9.48432
▁പാര്‍ട്ടിയില്‍	-9.48478
▁ഫല	-9.48492
ന്‍റെ	-9.48532
▁വിജയൻ	-9.48542
▁ആക്രമിച്ച	-9.48577
▁പ്രവൃത്തി	-9.48608
▁വാങ്ങിയ	-9.48624
▁അതാണ്	-9.48695
▁സമാനമായ	-9.48806
ിട്ടുണ്ടെന്ന്	-9.48811
▁അമേരിക്കന്‍	-9.48897
▁പൂ	-9.49002
▁അഡ്വ	-9.49076
ുവെന്നാണ്	-9.49117
▁നീണ്ട	-9.49123
▁പിഴ	-9.49146
▁സേന	-9.49149
ീസ്	-9.49227
▁മേഖലയിൽ	-9.49235
പ്പി	-9.49262
▁36	-9.49291
▁കാലാവധി	-9.49307
▁തുറന്ന	-9.49314
കി	-9.49409
▁ചൂണ്ടിക്കാണിക്ക	-9.49532
▁ചിത്രങ്ങള്‍	-9.49605
▁തരത്തിലുള്ള	-9.49616
പ്പെട്ടത്	-9.49689
ിന്റെയും	-9.49768
▁തൊഴിൽ	-9.49792
▁തന്ന	-9.49837
▁ഇഡി	-9.49888
ുമായ	-9.49958
▁ദിവസവും	-9.50075
കാ	-9.50162
▁പ്രതികരിച്ചത്	-9.50181
▁മാധ്യമങ്ങള്‍	-9.50209
▁2023	-9.50235
▁നിരന്തര	-9.5025
▁ചിലര്‍	-9.5032
▁നൽകിയത്	-9.50364
▁കുറിപ്പ	-9.50403
▁ജനങ്ങൾ	-9.50561
▁ഉദ്യോഗസ്ഥർ	-9.50603
▁എന്നു	-9.50608
▁വിദേശകാര്യ	-9.50674
ുകള	-9.50707
ാണിത്	-9.50734
▁സിബിഐ	-9.50831
▁രാജ്യ	-9.5085
ുന്നതും	-9.50929
▁നല്‍കും	-9.51137
▁കാണാം	-9.51195
ുകയോ	-9.51288
▁മതി	-9.51326
▁75	-9.51359
▁അവർക്ക്	-9.51492
▁വിളിക്ക	-9.51494
▁എംഎൽഎ	-9.51545
▁അന്തിമ	-9.51576
▁സച്ചിന്‍	-9.51649
▁അറിഞ്ഞ	-9.51654
▁ചൊവ്വാഴ്ച	-9.51817
▁സാങ്കേതിക	-9.51821
▁വെബ്	-9.51883
▁ബുദ്ധിമുട്ട	-9.51897
▁തലത്തില്‍	-9.519
ിരിക്ക	-9.51949
പ്പെട്ടു	-9.51951
▁സമൂഹ	-9.51982
▁പ്രതികളെ	-9.52036
▁രാഷ്ട്രീയം	-9.52055
s	-9.52069
▁കേസുകൾ	-9.52078
മെന്റ്	-9.52127
ിനെയും	-9.5218
▁ഉൾപ്പെടെയുള്ള	-9.52182
▁ഒരേ	-9.52232
ല്ലോ	-9.52323
▁കൊല്ല	-9.52334
▁കോടതിയിൽ	-9.52375
▁വേണ്ടിയാണ്	-9.52456
▁ഇടതുപക്ഷ	-9.52487
▁നേടിയത്	-9.5255
ുകയാണെന്നും	-9.52582
▁വിട്ടു	-9.52671
▁നാലു	-9.52672
▁പ്രതികരിക്ക	-9.52797
▁പാത	-9.52859
▁ഷാജി	-9.53039
▁കേസെടുത്ത	-9.5309
▁ബിജെപിയില്‍	-9.53092
▁മുന്നറിയിപ്പ	-9.53145
▁ഉപയോഗിക്ക	-9.53215
▁തുടരുകയാണ്	-9.53273
ണ്ണ	-9.53311
▁സര്‍ക്കാരിന്	-9.53398
ഫി	-9.53402
▁തയ്യാറായ	-9.53448
▁വ്യവസായ	-9.53504
▁ഇൻ	-9.5352
▁കർണാടക	-9.53641
തല്ല	-9.53741
▁ചേർന്ന	-9.53928
യിലുള്ള	-9.53988
▁ഒരുക്കിയ	-9.54026
▁55	-9.54152
▁വിഷയത്തിൽ	-9.54163
▁സര്‍വേ	-9.5417
▁പ്രഖ്യാപിച്ചത്	-9.54186
▁ഒടുവില്‍	-9.54242
▁അതു	-9.54328
▁അധികൃതർ	-9.54371
▁ഇതിലൂടെ	-9.54463
▁സാധ്യതയുണ്ടെന്ന	-9.5447
▁മണിക്കൂറ	-9.54507
▁ബുധനാഴ്ച	-9.54616
▁തീയതി	-9.54618
▁കാര്യ	-9.54714
▁പറയുന്നുണ്ട്	-9.54877
▁ഭാരത്	-9.54976
▁ആക	-9.55021
ണി	-9.55055
▁ദിവസങ്ങളില്‍	-9.55083
ക്കാർ	-9.55086
▁മണിക്ക്	-9.55093
▁നടക്ക	-9.55171
▁അലി	-9.55187
റിന്റെ	-9.5524
▁ബിസിനസ്	-9.55285
▁നേരിട	-9.55292
▁അംഗം	-9.5534
എന്‍	-9.55411
പ്പോഴാണ്	-9.55485
▁നിയന്ത്രിക്ക	-9.55503
ാമ	-9.55656
▁പ്രതീക്ഷിച്ച	-9.55786
▁വ്യാഴാഴ്ച	-9.55798
▁ഫോൺ	-9.55864
▁43	-9.55865
▁പട്ടികയില്‍	-9.5589
▁ചോദിക്ക	-9.55981
▁പരിശോധിച്ച	-9.55996
മാരെ	-9.56003
▁വാര്‍ഡ്	-9.56012
▁ഘട്ട	-9.56017
▁താ	-9.56054
▁എന്നിവർ	-9.56097
▁ക്ലാസ്	-9.56128
▁പരിഗണിക്ക	-9.56159
▁ഇന്നും	-9.56202
മെന്ന	-9.56257
▁കാര്‍ഷിക	-9.56278
▁ഇദ്ദേഹം	-9.56357
▁സഹായ	-9.56473
ന്ന്	-9.56554
▁നടന്നു	-9.56571
ുന്നതിനും	-9.56633
▁വേറെ	-9.56759
▁ന്യൂസ്	-9.56788
▁മുന്‍പ്	-9.56806
▁ബെ	-9.56815
▁ആരോപണ	-9.56931
▁ഉണ്ടായത്	-9.56951
▁ക്ക	-9.5696
▁പദ്ധതിയുടെ	-9.57018
▁ദിലീപിന്റെ	-9.57141
▁ഏറ്റെടുക്ക	-9.57168
▁ഒട്ടേറെ	-9.57246
▁നഗര	-9.57274
▁44	-9.57407
▁അനു	-9.57425
▁രേഖപ്പെടുത്ത	-9.57459
വൈ	-9.575
▁ഗുജറാത്ത്	-9.57524
▁ഉപതിരഞ്ഞെടുപ്പ	-9.57624
▁കുറ്റ	-9.57717
▁ഗ്രാമ	-9.57749
▁കാണിച്ച	-9.57779
▁ഇത്തരത്തില്‍	-9.57843
▁ജഡ്ജി	-9.5791
▁ഡ	-9.58051
കാല	-9.58137
▁ഇയാൾ	-9.58194
▁എന്‍സിപി	-9.58223
▁രാജീവ്	-9.58278
▁ഒരുമിച്ച്	-9.58366
▁സജീവ	-9.58387
▁യുപി	-9.58407
▁ഗതാഗത	-9.58457
▁കോൺഗ്രസിന്	-9.58583
▁37	-9.58584
▁കൊണ്ടു	-9.58615
▁സംശയം	-9.58674
▁ഗൂഢാലോചന	-9.58715
▁എന്തായാലും	-9.58716
▁നമ്മൾ	-9.58718
ജന	-9.58872
▁മൂ	-9.58909
▁രോഹിത്	-9.58964
▁നടന്‍	-9.5903
▁ചേര	-9.59121
മില്ലാത്ത	-9.59125
▁അതിനാല്‍	-9.5921
▁സംഘടനാ	-9.59215
▁എയര്‍	-9.59335
▁വിദേശത്ത്	-9.59416
ന്ദ	-9.59447
▁പൂര്‍ത്തിയാക്ക	-9.59449
യം	-9.59496
▁ടിവി	-9.59531
▁കഴിയും	-9.59545
▁പൊ	-9.59562
വെന്നും	-9.59617
നേതൃത്വത്തിലുള്ള	-9.5962
▁തൃണമൂല്‍	-9.59655
▁റ്റ	-9.59662
▁എടുക്ക	-9.59722
▁വിളിച്ചു	-9.59763
▁ഇയാളെ	-9.59783
▁രോഗികളുടെ	-9.59797
േണ്ടതുണ്ട്	-9.59832
▁ദൃശ്യങ്ങള്‍	-9.59846
▁ദിന	-9.59849
ത്തിനിടെ	-9.59874
▁സ്ത്രീകള്‍	-9.59896
▁റോ	-9.59907
▁മാറ	-9.59997
രിയ	-9.60088
▁ജീവിതത്തില്‍	-9.60101
ാനായി	-9.60136
▁പേ	-9.60162
താണെന്ന്	-9.60179
▁കൂള്‍	-9.60189
ാണു	-9.60209
▁നിക്ഷേപ	-9.60223
▁ഫേസ്ബുക്കില്‍	-9.6031
▁നടപ്പാക്ക	-9.60324
▁നടപ്പിലാക്ക	-9.60394
ക്കാൻ	-9.60443
▁ചാ	-9.60461
▁അടിസ്ഥാനത്തില്‍	-9.60634
",	-9.60679
സു	-9.60713
▁സൂചിപ്പിക്കുന്ന	-9.60782
▁സീറ്റുകൾ	-9.60802
▁യുഡിഎഫിന്	-9.60871
▁വോട്ട	-9.60875
മാക്കി	-9.60879
▁കരാര്‍	-9.60972
നില	-9.61054
▁തോന്നിയ	-9.61188
▁ഘട്ടത്തില്‍	-9.61227
▁പിതാവ്	-9.61255
ുവെന്ന	-9.61322
േഴ്	-9.61379
▁ഗുണം	-9.6144
▁നിങ്ങള്‍ക്ക്	-9.6144
▁കഴിയ	-9.61442
▁അധ്യക്ഷൻ	-9.61444
▁വിലയിരുത്തല്‍	-9.61457
▁രംഗത്തെത്തി	-9.61475
▁വിമാനം	-9.61588
▁ജൂൺ	-9.61739
▁വര്‍ഷത്തെ	-9.61771
ക്കാര്‍	-9.61808
▁വ്യവസ്ഥ	-9.61818
▁ഇതര	-9.61852
▁പിന്‍വലിക്ക	-9.61899
▁മുട്ട	-9.61908
െടുത്ത	-9.61924
▁പ്രവർത്തനങ്ങൾ	-9.61932
▁ഡെപ്യൂട്ടി	-9.61973
ക്കഴിഞ്ഞ	-9.62178
▁ഗവ	-9.62244
▁പരാതിയില്‍	-9.62249
▁മദ്യ	-9.62252
▁പിടി	-9.62314
▁ഇത്ര	-9.62341
▁ശിവ	-9.62356
▁കേന്ദ്രമന്ത്രി	-9.62376
ിനെതിരായ	-9.62413
ത്തിന്റെയും	-9.62436
▁ജല	-9.62438
▁അറിയിക്ക	-9.62447
▁മാനസിക	-9.6253
▁യുവാവ്	-9.62564
കം	-9.62751
ോടും	-9.62881
▁എന്നിവരുടെ	-9.62893
▁ഭാഷ	-9.62925
▁മല	-9.62935
രു	-9.6299
▁എടുത്ത്	-9.63014
▁യുദ്ധ	-9.6308
▁റാലി	-9.63172
▁?	-9.63199
▁മര	-9.63236
സെ	-9.63236
െതിരെ	-9.63272
എച്ച്	-9.63294
▁തീര	-9.63379
റാ	-9.63416
▁ബജറ്റ്	-9.63533
▁അല്ലാതെ	-9.63614
▁സാധിക്കില്ല	-9.63626
ാവും	-9.63677
▁തുടങ്ങിയത്	-9.63705
▁പരസ്യ	-9.63725
▁തീരുമാനിക്ക	-9.63792
ടുക്ക	-9.63797
▁മാർച്ച്	-9.63959
▁വേദന	-9.63982
▁കത്ത്	-9.63988
▁ഏര്‍പ്പെടുത്തിയ	-9.63999
▁ന്യൂഡല്‍ഹി	-9.64032
▁നിര്‍ണായക	-9.64039
▁ഓണ്‍ലൈന്‍	-9.64102
▁പുരോഗതി	-9.64104
▁സ്ഥാനാര്‍ഥി	-9.64112
▁ചൂണ്ടിക്കാട്ട	-9.64198
നേ	-9.64285
▁കിലോ	-9.64385
▁മുഖ്യ	-9.64419
▁കിട്ട	-9.64471
▁നേതാവും	-9.64493
▁കോടിയേരി	-9.645
മല	-9.64567
▁കണ്ണ	-9.64636
▁സുരേന്ദ്രൻ	-9.64641
▁ലോക്സഭ	-9.64644
▁ഇസ്രായേല്‍	-9.64658
▁വൈകിട്ട	-9.64695
▁അതിഥി	-9.64819
▁ജയിലില്‍	-9.6486
▁കോണ്‍ഗ്രസിനെ	-9.64891
▁സൈന്യം	-9.64925
▁തുറക്ക	-9.64942
യൊക്കെ	-9.64949
റും	-9.65096
▁ച്ച	-9.65151
▁42	-9.65165
▁എന്നിവയാണ്	-9.65205
േഷ്	-9.65208
▁അറിയില്ല	-9.6525
▁അപകടം	-9.65344
▁സൗജന്യ	-9.65347
ൃ	-9.65362
▁പലപ്പോഴും	-9.65387
▁ഗോ	-9.65455
കളിലും	-9.65464
▁തീരുമാനിച്ചത്	-9.65507
▁പ്രണയ	-9.6554
in	-9.65541
▁തൊഴിലാളി	-9.65547
▁നിർദ്ദേശം	-9.65563
▁വരുമാന	-9.65567
▁38	-9.65595
▁രാഷ്ട്രപതി	-9.65608
▁ആസ്തി	-9.65615
▁2014	-9.65628
▁കാഴ്ച	-9.65641
▁മൊബൈല്‍	-9.65709
▁ഉണ്ടാവ	-9.65729
▁പര	-9.65731
▁അഞ്ചു	-9.65803
ുണ്ടായിരുന്ന	-9.65836
ുണ്ടോ	-9.65959
▁പ്രകടന	-9.66044
▁ആന്റ്	-9.66104
ുമെല്ലാം	-9.66171
▁നിയന്ത്രണങ്ങള്‍	-9.66209
ഷി	-9.66263
▁പ്രതിദിന	-9.66298
▁ഇറങ്ങിയ	-9.66317
▁എത്തുന്നത്	-9.66452
▁നമ്പര്‍	-9.66503
▁90	-9.66532
▁പത്രിക	-9.66547
▁ഓക്	-9.66568
▁ദുബായ്	-9.66667
പ്പോഴും	-9.6671
▁ആന്‍ഡ്	-9.66729
▁നാം	-9.66876
▁നാട്ടില്‍	-9.66886
▁അല	-9.66908
വുമാണ്	-9.66979
▁/	-9.6714
▁അവതരിപ്പിക്ക	-9.67203
▁അതായത്	-9.67215
▁പോസ്റ്റ	-9.67234
▁റീ	-9.6724
▁യോഗത്തിൽ	-9.67295
▁കോണ്‍ഗ്രസും	-9.6732
▁മുരളീധരന്‍	-9.67335
തിനു	-9.67369
▁റാ	-9.67372
▁സ്വ	-9.67408
▁തൃശൂർ	-9.67472
▁ആദ്മി	-9.67472
▁അല്ലെങ്കിൽ	-9.67481
▁39	-9.6755
▁പരസ്യമായി	-9.6758
ിക്കാന്‍	-9.67721
▁ഇറക്കുമതി	-9.67741
▁യാദവ്	-9.67746
▁ന്യൂനപക്ഷ	-9.67778
▁വൻ	-9.67809
തല	-9.67815
▁പാടില്ല	-9.67838
▁പൂര്‍ണമായും	-9.67859
▁പ്രതികള്‍	-9.67932
ുകളാണ്	-9.67952
▁ചെലവ	-9.67995
ക്കിടെ	-9.68042
തര	-9.68066
▁ഉപയോഗിക്കുന്ന	-9.68073
▁അംബാനി	-9.68102
▁ആറു	-9.68254
▁സൂപ്പര്‍	-9.68279
▁അടിച്ച	-9.68313
▁വിശദമായ	-9.68355
▁സസ്	-9.68373
▁ചെയര്‍മാന്‍	-9.68451
▁അറസ്റ്റിലായ	-9.68453
▁3,	-9.68461
▁സ്ഥാനത്തേക്ക്	-9.68472
▁സ്വര്‍ണ	-9.68489
▁രാശി	-9.68542
▁പങ്കുവച്ച	-9.68547
▁നിങ്ങളെ	-9.68559
▁അക്രമ	-9.68559
മെന്നും	-9.68601
▁അതോറിറ്റി	-9.68643
▁പ്രധാനപ്പെട്ട	-9.68653
▁രൂക്ഷ	-9.68656
▁പ്രവേശനം	-9.68713
സീ	-9.68873
ഹ്	-9.68885
▁എൽഡിഎഫ്	-9.68908
▁സമീപം	-9.68939
▁നേതൃത്വത്തിൽ	-9.68951
▁സമര്‍പ്പിച്ച	-9.69009
▁നില്‍ക്ക	-9.69132
▁ക്കു	-9.69162
▁സജി	-9.69166
▁കയറ	-9.69204
താണെന്നും	-9.69213
▁കെസി	-9.69311
▁നോക്ക	-9.69336
▁ഡയറക്ടര്‍	-9.69374
വരില്‍	-9.6938
▁ഇതെല്ലാം	-9.69428
നായി	-9.69489
▁വരെയാണ്	-9.69521
▁വീട്ടിലേക്ക്	-9.69559
യ്യ	-9.69574
▁എപ്പോഴും	-9.69598
തെന്ന	-9.69692
▁ചേർന്ന്	-9.69698
മാണിത്	-9.69714
▁തീരുമാനിച്ചു	-9.6972
▁എഎപി	-9.69778
▁അനില്‍	-9.69789
▁ഗുരുതര	-9.69807
▁നേരിടേണ്ടി	-9.69816
▁ജയിച്ച	-9.69829
▁41	-9.69837
▁നാട	-9.69845
▁ആള	-9.69853
▁റെയില്‍വേ	-9.6994
▁കുറവ്	-9.69943
▁സ്ഥാപിച്ച	-9.69946
▁രേഖ	-9.69961
▁വിമത	-9.70127
▁വീതവും	-9.70219
മാരായ	-9.70263
എൽ	-9.70287
▁പ്രതിയെ	-9.70299
ത്തിലുള്ള	-9.70304
▁രാമ	-9.70343
▁ചെയ്യുകയും	-9.70382
▁ആണെന്ന്	-9.70428
▁കൊടുക്ക	-9.70428
▁പ്രവാസി	-9.70455
▁ഇക്കുറി	-9.70487
▁വ്യക്തമല്ല	-9.70507
▁ബന്ധ	-9.70552
▁കാനഡ	-9.70556
▁ഇര	-9.70573
▁നും	-9.70607
▁ഡെ	-9.70734
▁സതീശന്‍	-9.70756
▁തകര്‍ന്ന	-9.7079
▁ഗുരുതരമായ	-9.70859
ുമൊക്കെ	-9.70927
▁ഇവരില്‍	-9.70937
്യം	-9.70965
▁ലഹരി	-9.71042
▁സ്വാധീനം	-9.71057
▁പാർട്ടിയുടെ	-9.71101
ത്തിയ	-9.71102
ക്കാ	-9.71118
▁ആരംഭിച്ചത്	-9.71173
▁കൂടിയായ	-9.71204
▁നിര	-9.71239
▁ബിജെപിയും	-9.71331
▁പ്രവര്‍ത്തിച്ച	-9.71366
▁കാര്യമായ	-9.71482
▁കാര്യങ്ങള	-9.71556
▁5,	-9.71565
▁മണ്ഡലത്തിലെ	-9.71565
▁കടന്നു	-9.71572
▁മത്സരിക്ക	-9.71588
▁കഴിക്ക	-9.71596
▁കൂ	-9.71639
▁കടന്ന	-9.71845
▁നന്നായി	-9.71849
▁വർഷ	-9.71923
▁തെറ്റായ	-9.71948
▁വയസ്സുള്ള	-9.71961
▁ചിന്ത	-9.71964
▁സര്‍ക്കാരിനെ	-9.71985
▁വീഴ്ച	-9.72061
▁തെരഞ്ഞെടുപ്പ	-9.72099
ടെ	-9.72184
ിക്കാൻ	-9.72289
▁കര്‍ഷകര്‍	-9.72333
▁മാപ്പ്	-9.72373
ിംഗ	-9.72375
▁തുടരും	-9.72386
▁നിൽക്ക	-9.72413
▁നിങ്ങൾക്ക്	-9.72483
▁ശതമാനവും	-9.72488
▁ദേവ	-9.72521
കൊണ്ട്	-9.72558
▁ഇല്ലാതെ	-9.72586
▁ഗ്	-9.72602
▁എന്തിനാണ്	-9.72614
ിനേയും	-9.72648
▁തര	-9.72671
▁പോരാട്ടം	-9.72857
വിന്റെ	-9.72905
▁കള്ള	-9.72969
▁ഉണ്ടാക്കിയ	-9.72972
ിനാണ്	-9.73029
▁പോലീസിന്	-9.73037
▁പരിശോധനയ്ക്ക	-9.73082
▁വേഗത്തില	-9.73085
▁ശിവസേന	-9.73189
▁പുറത്തുവിട്ട	-9.73301
▁പ്രചരണ	-9.73326
▁റിപ്പോർട്ടുകൾ	-9.73326
മാര	-9.7339
▁നൽകാൻ	-9.73399
രാജ്	-9.73414
▁കലാ	-9.73428
▁വിഭാഗത്തില്‍	-9.73451
▁താമസിക്കുന്ന	-9.73456
ുമുണ്ട്	-9.73469
▁സഹിതം	-9.73577
ുന്നതിനിടെ	-9.73578
▁ഡിസിസി	-9.73598
▁അപ്പോള്‍	-9.73612
▁ഇരിക്ക	-9.73655
▁കേസ	-9.73693
ന്‍സ്	-9.73695
▁എന്നിവരും	-9.73733
▁ഇന്ന	-9.73794
▁തുറന്നു	-9.73806
ക്കുന്നത്	-9.7383
▁വച്ച	-9.73844
▁ലൈംഗിക	-9.73863
▁പിടിച്ചു	-9.73961
ാമെന്നും	-9.73979
▁തുടരുന്ന	-9.73984
▁നാട്ടുകാര്‍	-9.73996
യർ	-9.7404
▁വാര്‍ത്തകള്‍	-9.74058
യുളള	-9.74106
▁മമ്മൂട്ടി	-9.7413
▁പരിഗണന	-9.74135
▁പശ്ചിമ	-9.7415
▁പുരസ്	-9.74206
▁പോര	-9.74226
▁പരിഗണിച്ച	-9.74227
▁തട്ടിപ്പ്	-9.74232
▁കുട്ടികളെ	-9.74233
ാണെങ്കില്‍	-9.74249
▁തെലങ്കാന	-9.74253
▁ധന	-9.74283
▁ജമ്മു	-9.74287
േഷന്‍	-9.7435
▁പോകാന്‍	-9.7436
വന	-9.74424
▁200	-9.74467
▁പ്രിയ	-9.74515
ക്ഷ	-9.74521
ിനുള്ള	-9.74536
ുകയാണെന്ന്	-9.74604
ഗോ	-9.74624
▁പന്ത	-9.74633
25	-9.74638
▁കടക്ക	-9.74716
ക്കല്‍	-9.74757
▁കേരളത്തിന്	-9.74788
▁സൗകര്യം	-9.74804
▁നിൽക്കുന്ന	-9.74863
▁ജയ്	-9.74995
മാന	-9.75032
▁നയ	-9.75133
▁അവര	-9.75134
▁അതിര്‍ത്തി	-9.75142
▁പഠനം	-9.75225
▁തുടങ്ങിയവ	-9.75229
▁ആയിരിക്കും	-9.75321
▁ഏജന്‍സി	-9.7535
▁പമ്പ	-9.75441
▁പോലീസിന്റെ	-9.75479
▁സിനേഷന്‍	-9.75486
▁ഇറങ്ങ	-9.75557
പൂര്‍	-9.75565
മാക	-9.75589
▁ജനകീയ	-9.75599
▁കൊണ്ടുവന്ന	-9.75616
▁തെ	-9.7587
▁എന്നിങ്ങനെ	-9.75896
▁വ്യാപാര	-9.75932
തായാണ്	-9.75993
ിക്കുന്നത്	-9.76008
▁കോര്‍പ്പറേഷന്‍	-9.76068
▁ശ്രമിക്കുന്നത്	-9.76085
▁രാജ്യങ്ങളില്‍	-9.76096
യായിരിക്കും	-9.76289
▁ആക്രമിക്ക	-9.76296
▁വിദ്യാര്‍ത്ഥി	-9.76328
▁നിമിഷ	-9.76418
▁ഇളവ്	-9.76469
▁വോട്ടെടുപ്പ്	-9.76482
▁മറ്റും	-9.7651
▁നിര്‍ദ്ദേശം	-9.76541
▁കുറിച്ച	-9.76561
▁നേട്ടങ്ങള്‍	-9.76707
യെങ്കിലും	-9.76758
▁ഭാഗ്യ	-9.7677
▁ങ്ങ	-9.7677
▁ശരിക്കും	-9.76824
ബാ	-9.76833
▁ചി	-9.76837
▁കിലോമീറ്റര്‍	-9.7684
കളുമായി	-9.76906
▁ഖാന്‍	-9.76931
▁47	-9.77017
പരമായ	-9.77042
▁സംശയ	-9.77074
▁ആൻഡ്	-9.77108
▁സേവനം	-9.77137
▁രഹസ്യ	-9.77159
ാക	-9.77206
▁പു	-9.77206
▁ഡൗണ്‍	-9.77238
▁വോട്ടുകൾ	-9.77246
▁നെഗറ്റീവ്	-9.77316
▁പറ്റിയ	-9.7734
▁എന്തുകൊണ്ട്	-9.77354
▁സമ	-9.77364
▁സീനിയര്‍	-9.77367
▁ഓഗസ്റ്റ്	-9.77369
▁സുപ്രധാന	-9.77369
▁ലക്ഷ	-9.77383
▁കുറ്റം	-9.77421
▁ഏറ്റെടുത്ത	-9.7748
ഡോ	-9.77537
▁അതൃപ്തി	-9.77542
▁രൂക്ഷമായ	-9.77577
▁വിമർശനം	-9.77629
▁തമ്മിൽ	-9.77665
▁വിപണി	-9.77669
▁അഞ്ച	-9.77721
മന്ത്രി	-9.77736
ത്തിന	-9.77746
▁ചർച്ചകൾ	-9.77759
▁രാഹുലിന്റെ	-9.77774
▁ശമ്പള	-9.77813
▁സ്വദേശികളായ	-9.77819
▁താര	-9.77847
▁കോൺഗ്രസിന്റെ	-9.77869
▁പിടിച്ച്	-9.77919
▁വിഡി	-9.77936
▁കുറവ	-9.77942
▁വിദ്യാർത്ഥികൾ	-9.77947
▁അതീവ	-9.77967
▁ഡിസംബര്‍	-9.77975
▁തയ്യാറാക്കിയ	-9.7798
▁അശോക്	-9.77988
▁പുരുഷന്‍	-9.77995
▁തിരിച്ചറിയ	-9.781
▁വൈകീട്ട്	-9.7814
▁ആരംഭിച്ചു	-9.78145
▁എന്നിങ്ങനെയാണ്	-9.78157
▁ഭരണകൂടം	-9.78159
▁പരാജയപ്പെട്ട	-9.78159
▁അയക്ക	-9.78217
▁മലയാളം	-9.78285
▁ചെയ്യപ്പെട്ട	-9.7829
▁ഫണ്ട്	-9.78318
രുടെ	-9.7835
▁ആഗസ്റ്റ്	-9.78416
▁ഒമ്പത്	-9.78424
ംഗ്	-9.78444
ുമായും	-9.78479
▁ക്ഷേമ	-9.78526
▁വ്യത്യസ്ത	-9.78708
▁എന്നിവരെ	-9.78756
▁ശര്‍മ	-9.78778
▁സംസ്ഥാനം	-9.78779
ുടെയും	-9.78832
▁തോ	-9.7891
ത്വ	-9.7891
▁ഉടമ	-9.7891
▁റിയാസ്	-9.78972
▁മരുന്ന്	-9.78977
▁പ്രശാന്ത്	-9.79082
▁വിശ്വസിക്ക	-9.79125
▁അര	-9.79161
▁പ്രചരിപ്പിക്ക	-9.79166
കാരി	-9.792
▁കക്ഷി	-9.79275
50	-9.7929
കു	-9.79344
▁കാണാൻ	-9.79389
▁ഡോളര്‍	-9.79469
▁മുകേഷ്	-9.79495
▁പരിശീലനം	-9.79507
▁തെളിയിക്ക	-9.79552
▁പോളിംഗ്	-9.79596
ത്വം	-9.79606
യെല്ലാം	-9.79667
▁പ്രവർത്തന	-9.79753
▁സംഘടിപ്പിച്ച	-9.79754
▁ഇന്ധന	-9.79768
▁ഉത്തരവ	-9.79846
ുടേയും	-9.79875
▁ലോകത്തെ	-9.79884
▁സംരക്ഷണ	-9.79914
▁ജോർജ്	-9.79927
▁കെകെ	-9.79944
▁കല്ല	-9.79955
▁പാട	-9.79957
മുണ്ടായ	-9.79973
▁സംഘ	-9.79991
ുന്നതെന്നും	-9.8
ിന്‍	-9.80038
▁താലൂക്ക്	-9.80067
▁ആക്രമണ	-9.80077
▁കോലി	-9.80096
▁മണ്ണ	-9.8011
90	-9.80272
▁നല്‍കണമെന്ന	-9.803
▁സീറ്റുകളില്‍	-9.8038
▁പത്ര	-9.80417
▁ആയിരുന്ന	-9.80432
▁കോടതിയുടെ	-9.80433
▁നിര്‍ദേശിച്ച	-9.80446
യുണ്ടായ	-9.80478
▁അംഗീകാരം	-9.80514
▁പ്രധാനമായ	-9.80516
23	-9.80521
▁കൊവിഡ	-9.80527
▁സാക്ഷി	-9.80607
▁മാതൃക	-9.80662
▁അജിത്	-9.80731
▁നാലാം	-9.80737
▁എയർ	-9.80798
▁ശാസ്ത്ര	-9.80821
▁കണക്കുകള്‍	-9.809
▁പറയാൻ	-9.80924
▁സൃഷ്ടിച്ച	-9.81006
ത്തോളം	-9.81012
▁ഒറ്റപ്പെട്ട	-9.81039
▁കടുവ	-9.81086
▁നിശ്ചയിച്ച	-9.81101
▁ചെയ്യണം	-9.81134
▁നിന്നെത്തിയ	-9.81153
▁വീടുകളില്‍	-9.81182
ക്കിടയില്‍	-9.81188
▁വക്താവ്	-9.81194
▁നിർദേശം	-9.8121
▁നടത്താൻ	-9.8123
▁ആവശ്യമാണ്	-9.81237
▁ശൈലജ	-9.81319
▁ജയിക്ക	-9.81321
05	-9.81339
▁മുകളില്‍	-9.81392
ശാല	-9.81399
▁മണ്ഡല	-9.81399
▁ആരാണ്	-9.81414
▁സ്വർണ	-9.81418
തുമായ	-9.81419
യാണോ	-9.81439
▁അഭിമാന	-9.81465
മാരും	-9.81545
▁വീ	-9.81553
രുതെന്ന്	-9.81563
▁സുനി	-9.81586
▁കുറഞ്ഞത്	-9.81618
▁ചിലർ	-9.81627
▁അംഗീകരിച്ച	-9.81646
▁65	-9.8165
10	-9.81696
▁അറിയ	-9.81721
▁ലോകം	-9.81723
▁പുറത്തിറക്കിയ	-9.818
▁പ്രദേശത്ത്	-9.81826
▁52	-9.81828
▁നിയന്ത്രണ	-9.81838
▁പോസിറ്റീവ്	-9.81885
00	-9.81889
▁സംഘടിപ്പിക്ക	-9.81915
▁എഴുതിയ	-9.81917
▁കമ്മീഷൻ	-9.81927
▁സൈബര്‍	-9.81929
▁ആരോഗ്യമന്ത്രി	-9.8198
▁ഉണ്ടായിരുന്നത്	-9.82049
ിലേക്കുള്ള	-9.82096
ിനി	-9.82141
12	-9.82145
▁മത്സരിക്കുന്ന	-9.82258
ുകളിലും	-9.82259
▁പികെ	-9.82268
സ്ഥ	-9.82286
▁എത്തിയിരുന്നു	-9.82317
▁കുട്ടിയെ	-9.82333
▁ഭരണഘടന	-9.82334
▁അതുകൊണ്ടാണ്	-9.82338
▁കായിക	-9.82345
▁ഒരാളെ	-9.82381
ത്തും	-9.82398
▁കഴിഞ്ഞ്	-9.82459
▁ഉറച്ച	-9.82463
▁ശേഷി	-9.8252
▁ഇറാന്‍	-9.82532
▁കേന്ദ്രസർക്കാർ	-9.82569
▁ഹോട്ട്	-9.82572
▁46	-9.82572
▁ഫി	-9.82578
▁ഇതൊക്കെ	-9.82594
▁എല്ലാവര്‍ക്കും	-9.82628
▁കഴിയാത്ത	-9.82662
▁വടകര	-9.82681
▁കലാപ	-9.82747
ുകളെ	-9.82752
ാമെന്ന	-9.8279
▁കുറച്ചു	-9.82799
▁സംഭാവന	-9.82833
ുന്നതില്‍	-9.8287
▁സ്വര്‍ണവില	-9.8287
▁ന്നു	-9.82897
രം	-9.82915
▁ഇത്തവണയും	-9.82929
ഹി	-9.82933
▁ഇഷ്ട	-9.82948
▁വർഷത്തെ	-9.82948
▁എനിക്ക	-9.83059
▁49	-9.83128
▁പാര്‍ലമെന്റ	-9.83142
▁പുറത്താക്ക	-9.83152
▁ഇതിനോടകം	-9.83181
▁നടപടിയെടുക്ക	-9.83185
▁രാജിവെച്ച	-9.83297
▁കഴിയുന്നത്	-9.83324
▁വിഷ്ണു	-9.83348
▁തിരുത്ത	-9.83394
▁പനി	-9.83428
▁ള	-9.83465
▁ഇതുമായി	-9.83468
ദ്ധ	-9.83493
▁ദുരിതാശ്വാസ	-9.83493
▁ഭീതി	-9.83507
▁ഉറവിടം	-9.83574
▁ഒഴിവാക്ക	-9.83584
▁കാര്യത്തിൽ	-9.83587
▁51	-9.83707
കുമാര്‍	-9.83732
ത്തിലൂടെയാണ്	-9.83786
▁ചോദ്യത്തിന്	-9.83807
▁വെളിപ്പെടുത്തല	-9.83864
▁ദിവസമാണ്	-9.83896
സം	-9.8391
▁ലീഡ്	-9.8392
▁ഗെയിം	-9.83927
▁ശക്തിപ്പെടുത്ത	-9.83942
▁ജില്ലകളിലും	-9.83978
▁ആളാണ്	-9.83985
▁ഭരിക്കുന്ന	-9.84016
▁ഹോം	-9.8402
▁ചിത്ര	-9.84028
▁കുറയ	-9.84052
ൂര	-9.84073
▁ഭക്ഷ്യ	-9.84125
▁അംഗങ്ങള്‍	-9.84157
▁ചെറു	-9.84158
ഷന്‍	-9.84165
▁ഉണ്ടാവും	-9.84183
▁ഉണ്ടെന്ന്	-9.84243
▁ഇറങ്ങി	-9.8425
▁രവി	-9.84292
▁പ്രശ്നം	-9.84344
▁ഓള	-9.84385
▁നേതാവാണ്	-9.84404
▁വന്നിട്ടുണ്ട്	-9.8441
▁രാജേഷ്	-9.8441
▁സത്യം	-9.84466
▁500	-9.84646
▁പ്രചരണം	-9.84725
▁സംഗീത	-9.84767
▁അപേക്ഷിച്ച	-9.84795
▁എഴുതി	-9.84836
▁പെട്ട	-9.84871
▁സിവില്‍	-9.84888
▁കുറിച്ചും	-9.84928
▁ചടങ്ങില്‍	-9.84937
▁മുഖം	-9.84951
ത്തെക്കുറിച്ച്	-9.85019
▁അപേക്ഷിക്കാം	-9.85125
മാക്ക	-9.85156
▁കൈമാറ	-9.85203
കാര്യ	-9.85209
▁ചെലവ്	-9.85241
▁കുറിച്ചുള്ള	-9.85243
ക്കട	-9.85248
ക്ര	-9.85251
▁ചികിത്സയില്‍	-9.85266
▁പിയുടെ	-9.85274
▁സന്തോഷം	-9.85279
▁എടുത്തു	-9.85307
▁ഉദ്യോഗാര്‍ത്ഥി	-9.85408
▁മണിക്കൂറിനിടെ	-9.85414
▁പരി	-9.85418
▁ഡോളറ	-9.85424
ടു	-9.85476
▁മിക്ക	-9.8548
▁വിനോദ	-9.85496
▁ലോകത്ത്	-9.85517
▁കെട്ടി	-9.85524
▁കുട്ടികളുടെ	-9.85536
ിരിക്കെ	-9.85554
ില്ലാതെ	-9.85581
▁അവകാശ	-9.8559
▁സർവീസ്	-9.85626
▁ഇന്ത്യാ	-9.85649
▁സമ്മേളനം	-9.85675
▁ഓഫീസില്‍	-9.85724
45	-9.85761
ദി	-9.85779
▁ലക്ഷ്മി	-9.85828
▁ദില്ലിയില്‍	-9.85848
▁ചരിത്രം	-9.85915
ാനാവില്ല	-9.85949
യ്ക്കു	-9.85966
റു	-9.85994
▁ലഭിക്കുക	-9.86002
▁സന്ദേശം	-9.86034
▁തോല്‍വി	-9.86055
▁നിയോഗിച്ച	-9.86055
▁ആഘോഷ	-9.86083
▁അടിസ്ഥാനത്തിൽ	-9.86193
▁ക്കെതിരെ	-9.86201
▁അതിന	-9.86208
മായിരിക്കും	-9.86277
ുമ്പോഴും	-9.86286
▁സാധിക്കുമെന്ന	-9.86314
▁ഇത്തരത്തിൽ	-9.86379
▁രജിസ്റ്റർ	-9.86381
60	-9.86417
▁ഉദ്യോഗസ്ഥരെ	-9.86429
▁കാര്യങ്ങളും	-9.86442
▁കാലാവസ്ഥാ	-9.86467
▁ലീഗ	-9.86472
▁4,	-9.86512
▁വിജയിക്ക	-9.86606
▁ഉറപ്പാണ്	-9.86649
▁എത്രയും	-9.86681
▁ശ്രമ	-9.86703
▁ൻ	-9.86726
▁തള്ള	-9.86728
ശി	-9.86775
▁പ്രശ്നങ്ങൾ	-9.86805
▁പ്രായം	-9.86836
▁ബെംഗളൂരു	-9.86844
▁രാജസ്ഥാന്‍	-9.86865
േഷ	-9.86868
▁തോന്ന	-9.86976
▁ജീവന്‍	-9.86991
▁ഖത്തര്‍	-9.87032
▁സമര്‍പ്പിക്ക	-9.87037
യിലായിരുന്നു	-9.87083
▁ആവശ്യപ്പെട	-9.87135
▁പഞ്ചായത്തിലെ	-9.87159
▁രൂപം	-9.87164
▁കളിക്ക	-9.87198
േക്കാം	-9.87203
▁ക്രൈംബ്രാഞ്ച്	-9.87205
ാണെന്ന	-9.87267
▁എങ്ങനെയാണ്	-9.8727
▁പാസ്	-9.87295
▁ചോദിക്കുന്നു	-9.87314
▁പ്രമേയം	-9.87325
▁വായ്പ	-9.87328
▁പ്രിയപ്പെട്ട	-9.87431
▁നിലനില്‍ക്കുന്ന	-9.87436
▁ആര്	-9.87455
ാറില്ല	-9.87487
▁ഉച്ചയ്ക്ക്	-9.87498
എൻ	-9.876
സ്ത	-9.87645
▁പരിധി	-9.87667
▁പരിഹരിക്ക	-9.87679
▁മിശ്ര	-9.87691
▁ബംഗാള്‍	-9.87763
▁പ്രത്യേകിച്ച്	-9.87765
▁കുറവാണ്	-9.87826
▁ഉപ	-9.87888
▁വിജയിച്ചത്	-9.88001
▁നിയമസഭയില്‍	-9.88004
▁എംഎല്‍എമാര്‍	-9.88008
▁ഓഫീസർ	-9.88012
▁വര്‍ധിപ്പിക്ക	-9.88017
▁കളക്ടർ	-9.88019
▁യെല്ലോ	-9.88024
വല	-9.88027
▁ഭൂരിപക്ഷ	-9.88066
ായിട്ടാണ്	-9.88077
▁ഇയാളുടെ	-9.88079
പൂർ	-9.88081
▁ദേവസ്വം	-9.88086
▁പഠിക്ക	-9.88086
▁മുഖ	-9.88101
▁സാമ്പിളുകളാണ്	-9.88153
▁കഴിയില്ല	-9.88247
▁ഭവന	-9.88305
▁ഇടതുമുന്നണി	-9.8839
▁ജനങ്ങള്‍ക്ക്	-9.88402
▁ഐടി	-9.88409
മന	-9.88413
▁സൗഹൃദ	-9.88489
▁വേണ്ടത്	-9.88553
▁ളി	-9.88558
സില്‍	-9.88676
▁മാധ്യമങ്ങളോട്	-9.88695
ാത്തത്	-9.88726
▁കണക്കുകൾ	-9.88732
▁വേളയില്‍	-9.88743
▁പിടിക്ക	-9.88745
▁കാസര്‍കോട്	-9.88791
▁നടത്തുകയും	-9.8881
▁വിലയിരുത്ത	-9.88815
▁പരസ്പരം	-9.88866
▁കണ്ടെത്താന്‍	-9.8889
ാണുള്ളത്	-9.88988
വെച്ച	-9.89095
▁ഭാഗം	-9.89142
▁രൂപീകരിക്ക	-9.89244
▁പൈലറ്റ്	-9.89289
ക്കൽ	-9.89294
▁ഇപ്പോഴിതാ	-9.8935
▁ശതമാനമാണ്	-9.89459
ഖ്	-9.89573
▁ഒന്നര	-9.89629
▁നു	-9.89705
▁സർക്കാരിന്	-9.89746
സ്ഥാന	-9.8981
പുര	-9.8993
▁പ്രതിയായ	-9.89942
യറ	-9.89942
ാതിരുന്ന	-9.89985
▁കണ്‍ട്രോള്‍	-9.90022
▁അദാനി	-9.90023
▁ആവ	-9.90031
▁രാജ്യസഭാ	-9.90048
▁ക്കാ	-9.90143
▁കുട്ടിയുടെ	-9.90178
▁മാറും	-9.90184
▁വാര്‍ത്താ	-9.90197
രീ	-9.90275
▁ശരാശരി	-9.9036
▁മെട്രോ	-9.90363
▁ബസ	-9.90371
▁പരിശോധനാ	-9.90387
▁അധികാരത്തിലെത്ത	-9.90434
o	-9.90472
▁വര്‍ഷ	-9.90554
▁സ്ഥാനാര്‍ത്ഥികള	-9.90564
▁സഹോദരി	-9.90568
▁നല്‍കുക	-9.90578
▁വന്നാല്‍	-9.90631
▁നഴ്	-9.90634
▁കളിച്ച	-9.90681
▁സ്ഥാന	-9.90695
▁ഏപ്രിൽ	-9.90699
ന്‍ഡ	-9.90728
സും	-9.90741
▁നിരീക്ഷണത്തില്‍	-9.90752
▁രാജ്യങ്ങള്‍	-9.90764
▁പീഡന	-9.90798
▁സ്റ്റേറ്റ്	-9.90824
▁കൊള്ള	-9.90839
▁വെളിപ്പെടുത്തിയ	-9.90869
▁പ്രവേശന	-9.90877
▁മുഖേന	-9.90896
▁കൂട്ടി	-9.90897
ിലോ	-9.9091
▁ചെന്ന	-9.90918
▁ശ്രദ്ധിക്ക	-9.90945
▁അരി	-9.90957
▁ആര്യ	-9.90967
▁നടക്കുക	-9.90996
▁യഥാര്‍ത്ഥ	-9.91012
▁ധോണി	-9.91037
▁പൂര്‍ത്തിയാക്കി	-9.91051
▁വരുത്തിയ	-9.91086
▁ആര്‍ക്കും	-9.91114
▁വ്യാപകമായി	-9.91159
▁ആവശ്യപ്പെട്ടത്	-9.91191
ിട്ടില്ലെന്ന്	-9.91203
െങ്കില്‍	-9.91239
▁എത്തിച്ച	-9.91289
▁തേട	-9.91296
▁വ്യക്തിയാണ്	-9.91313
▁കരി	-9.91336
75	-9.91353
ഞ്ഞു	-9.91365
▁2015	-9.91413
ര്‍ത്ത	-9.91455
ത്താ	-9.91532
▁ശ്രമിക്ക	-9.91538
▁ഗണേഷ്	-9.91558
▁വഹിച്ച	-9.91658
▁ശര	-9.91698
▁ഇതിനകം	-9.91728
▁തലശേരി	-9.91733
വില	-9.91786
ിലായിരുന്നു	-9.91811
▁അന	-9.91814
▁നൽകിയിട്ടുണ്ട്	-9.91894
കളായ	-9.91913
യെന്നാണ്	-9.91942
ികൾ	-9.92028
▁ഐക്യ	-9.92037
▁നവംബര്‍	-9.92066
▁കുട	-9.92102
▁മാസ	-9.92107
▁അടിസ്ഥാനത്തിലാണ	-9.92149
▁കാസർഗോഡ്	-9.92156
▁വേഗം	-9.92179
മാകും	-9.92243
▁ഇടപെട	-9.92278
▁ശരിയായ	-9.92451
്‍ക്കും	-9.925
▁ഇന്ത്യയെ	-9.92527
▁കയറിയ	-9.92572
യില്ലാത്ത	-9.92604
▁കേസുകളാണ്	-9.92646
▁നേടാന	-9.92857
▁കോളേജില്‍	-9.92884
പ്പാ	-9.92889
▁അതും	-9.92891
െന്നായിരുന്നു	-9.92916
▁യാത്രാ	-9.92952
▁വികസനം	-9.92962
▁താലിബാന്‍	-9.92985
▁നായ	-9.92994
22	-9.92995
വര്‍ക്കും	-9.93034
▁ഭാഗ്യം	-9.93046
▁കര്‍ശന	-9.93073
▁അഖിൽ	-9.93105
▁ദളിത്	-9.93128
▁നേരിയ	-9.9314
▁സുധാകരൻ	-9.93168
▁പരിഷ്	-9.93172
▁ബിഎസ്പി	-9.93175
▁നിലവിലുള്ള	-9.93196
ധികം	-9.93201
▁പ്രത്യേകത	-9.93322
▁പരിപാടിയില്‍	-9.93336
▁നടത്തുക	-9.93358
▁നട	-9.93366
▁പുഴ	-9.93386
▁പ്രവേശിപ്പിച്ച	-9.93447
▁നിലപാടാണ്	-9.9346
ിലേക്കും	-9.93506
ിരുന്നുവെന്നും	-9.93525
▁ജീവിതത്തിൽ	-9.93571
റില്‍	-9.93583
▁പരിഹാരം	-9.93594
▁കിടക്ക	-9.93611
▁മഞ്ഞ	-9.93616
തിനാലാണ്	-9.93633
ള്ള	-9.93638
ക്കാനുള്ള	-9.93653
കുമാർ	-9.93705
▁വന്നതോടെ	-9.93708
ിയിരുന്നു	-9.93737
▁പരാമര്‍ശം	-9.93742
▁പങ്ക്	-9.93745
▁സന്തോഷ്	-9.93769
കട	-9.93847
30	-9.93862
▁ലാഭം	-9.93867
▁രണ്ടും	-9.93888
▁വരികയാണ്	-9.93918
ാവുന്നതാണ്	-9.93923
▁വരുത്ത	-9.93979
മണി	-9.93982
▁മന്ത്രിയുടെ	-9.93984
▁കരുത്ത	-9.94058
▁സംയുക്ത	-9.94153
▁വരാന്‍	-9.94154
▁ദിവസങ്ങളിൽ	-9.94206
▁അന്നത്തെ	-9.94217
ഷന	-9.94263
▁ഭൂ	-9.9427
▁വെക്ക	-9.94278
▁നിയമന	-9.94298
▁സീ	-9.94366
▁അഹമ്മദ്	-9.94387
▁സ്വീകരിച്ചത്	-9.94393
▁വിതരണ	-9.94481
▁എന്നിവര	-9.94494
▁ഇസ്രായേല	-9.94514
18	-9.94548
▁വയസ	-9.9455
വിള	-9.94711
▁6,	-9.9479
രും	-9.9481
രുതെന്നും	-9.94868
▁പ്ലസ്	-9.94906
▁ആയിര	-9.94916
തന്നെ	-9.94972
▁രം	-9.94975
▁സമാധാന	-9.94996
വീ	-9.95002
▁രോഗബാധ	-9.95009
▁ധരിച്ച	-9.95044
▁പറ്റി	-9.95065
▁യോ	-9.95078
19	-9.95085
നാട്	-9.95092
7,	-9.95141
പ്പിച്ച	-9.95159
▁യുകെ	-9.95187
▁സ്പീക്കര്‍	-9.95213
▁ക്യാമറ	-9.95227
▁ആശുപത്രികളില്‍	-9.95239
▁2011	-9.95246
▁കോര്‍	-9.9528
▁വേണമെന്ന്	-9.95349
▁സാധിച്ചു	-9.95353
▁നാട്ടിലേക്ക്	-9.95376
m	-9.95388
▁സത്യപ്രതിജ്ഞ	-9.95432
▁പോരാട്ട	-9.95451
▁വാക്സിന്‍	-9.95454
▁സിനിമയില്‍	-9.95454
▁നൽക	-9.95484
▁നടൻ	-9.95515
▁ഇരട്ട	-9.95528
▁പുലര്‍ച്ചെ	-9.95569
▁എംബസി	-9.9557
▁യുദ്ധം	-9.95589
▁കസ്റ്റഡിയിലെടു	-9.95668
യാണിത്	-9.95691
ക്കുകയും	-9.95724
▁പട	-9.95776
ങ്ങളിലും	-9.95808
▁വാക്ക്	-9.95852
യാളാണ്	-9.95901
▁സിനിമയുടെ	-9.95909
▁ചൂണ്ടിക്കാണിച്ച	-9.95926
േയാണ്	-9.9595
▁ജനം	-9.95992
▁നടിയെ	-9.96038
▁കൊലപാതകം	-9.96064
പു	-9.96148
േക്കുമെന്ന	-9.96235
▁പലിശ	-9.96285
▁ആശുപത്രിയിലേക്ക	-9.96298
▁54	-9.96333
▁എന്നൊക്കെ	-9.96333
▁വിലക്ക്	-9.96388
▁വ്യക്തമാക്ക	-9.96405
േരി	-9.96538
ങ	-9.96562
▁സിപിഎമ്മ	-9.96616
▁ചലച്ചിത്ര	-9.96645
▁ബോര്‍ഡ്	-9.96706
▁സമീപിച്ച	-9.96744
ിച്ചത്	-9.96775
▁ഇതിനെതിരെ	-9.96781
▁നിര്‍മാണ	-9.96821
▁കാരം	-9.9684
ഗ്ര	-9.96854
▁പ്രളയ	-9.96859
▁അഖില്‍	-9.96877
▁7,	-9.96903
▁തെറ്റ	-9.96937
▁ഗവർണർ	-9.97006
▁ലോകാരോഗ്യ	-9.97008
നട	-9.97046
▁സൃഷ്ടിക്ക	-9.97048
▁ലൈഫ്	-9.97142
▁അരവിന്ദ്	-9.97147
▁തീവ്രവാദ	-9.97213
▁ഓഹരി	-9.97262
നീ	-9.9732
▁മാറ്റങ്ങള്‍	-9.97337
കർ	-9.97384
▁ബോ	-9.97435
▁സമർപ്പിച്ച	-9.97447
▁കഴിയുമെന്ന	-9.97454
▁രേഖകള്‍	-9.97468
പ്പെടുന്നത്	-9.97481
▁ആരോപിക്കുന്നു	-9.97487
േഷൻ	-9.9749
▁ശബ്ദ	-9.97494
▁നേ	-9.97494
▁വിശ്വാസം	-9.97588
ാനി	-9.97589
▁8,	-9.97593
വാസ	-9.976
▁ഓസ്	-9.97621
▁വെളിപ്പെടുത്ത	-9.9767
▁ദിവസ	-9.97718
▁ഡ്യൂട്ടി	-9.97731
▁പോസിറ്റിവിറ്റി	-9.97732
യാകും	-9.97842
▁തൃക്കാക്കര	-9.97873
യ്ക്കായി	-9.97912
ണ്ട്	-9.97948
▁ലഭിക്കുന്നത്	-9.98035
▁തുടര്‍ച്ചയായി	-9.98036
▁കാണാതായ	-9.98037
1,	-9.98061
▁മനോരമ	-9.98096
▁അസം	-9.98165
▁ലോക്സഭാ	-9.9817
ിയുടെ	-9.98194
▁ചികിത്സയിലായിര	-9.98207
▁ഉയര്‍ന്നു	-9.98217
▁കർഷക	-9.98227
▁തമിഴ്നാട്	-9.98258
▁തേ	-9.9842
▁മധ്യ	-9.98456
▁ഡയറക്ടർ	-9.98463
▁ലൈന്‍	-9.98502
▁ഷെ	-9.98505
▁പൊലീസിന്	-9.98542
▁എന്നിവയുടെ	-9.98568
▁പുറപ്പെടുവിച്ച	-9.98588
▁പഴ	-9.98611
▁അബുദാബി	-9.98655
▁സ്ഥാപന	-9.98732
▁ഡാറ്റ	-9.98754
▁യാത്രക്കാര	-9.98766
▁പങ്കെടുക്കുന്ന	-9.98774
▁മണിയോടെ	-9.9878
▁ആര്‍എസ്എസ്	-9.98781
▁തീവ്ര	-9.98803
▁കുട്ടികള്‍	-9.98808
▁ബഹുമാന	-9.9894
▁പോവ	-9.99018
▁അഖിലേഷ്	-9.99037
▁ജനസംഖ്യ	-9.99065
▁കിടക്കുന്ന	-9.99185
▁വിവര	-9.99211
▁കരാർ	-9.99217
▁ക്ക്	-9.9925
▁പിന്നിൽ	-9.99299
▁ലും	-9.99336
▁രോഗികള	-9.99337
ീന	-9.99338
▁കുഞ്ഞിനെ	-9.99497
ഗി	-9.99501
▁സിപിഎമ്മിന്റെ	-9.99516
▁തെളിയിക്കുന്ന	-9.99533
▁പദ്ധതികള്‍	-9.99535
▁മുമ്പ	-9.99538
▁ഭര്‍ത്താവ്	-9.99539
▁തട്ടിപ്പ	-9.99543
▁പശ്ചാത്തലത്തിൽ	-9.99597
▁വിദഗ്ധ	-9.99612
▁കാർ	-9.99614
തെ	-9.99642
▁റിപ്പോർട്ട	-9.9965
▁സാധ്യതയുള്ള	-9.99656
ത്തേക്ക്	-9.99684
▁53	-9.9972
▁കോൺ	-9.99729
▁പ്രശ്ന	-9.99738
▁കേസുകളില്‍	-9.99823
ുകയാണെങ്കില്‍	-9.99873
ക്കാരെ	-9.99876
▁ശസ്ത്രക്രിയ	-9.99942
ഴി	-9.99978
▁കൊണ്ടുപോക	-10.0006
▁ലക്ഷ്യമിടുന്നത്	-10.0007
▁2000	-10.0008
▁ചെയ്യാം	-10.0013
▁റെ	-10.0013
ക്കുകയാണ്	-10.0013
▁ഹൗസ്	-10.0018
▁പുറത്തേക്ക്	-10.0024
▁കിടന്ന	-10.0041
▁ആഹ്വാനം	-10.0041
▁തിരിച്ച	-10.0042
▁നിര്‍ത്ത	-10.0045
▁ആരാധകര്‍	-10.0045
▁കടന്ന്	-10.0047
▁ഉത്തരം	-10.0047
▁പ്രവർത്തിച്ച	-10.0047
▁അതിനാൽ	-10.0049
▁അകലം	-10.005
മില്ലാതെ	-10.0051
▁ആര	-10.0054
▁കസ്റ്റഡിയില്‍	-10.0055
▁കരുതിയ	-10.0058
വള	-10.0063
▁ധാരാളം	-10.0069
▁പവന്‍	-10.0075
▁ഉത്തര്‍	-10.0077
▁നിർണായക	-10.0079
▁എന്തുകൊണ്ടാണ്	-10.0081
▁നോ	-10.0085
▁നിര്‍ത്തി	-10.0089
▁രോ	-10.009
▁അപകടത്തില്‍	-10.0098
▁വയസ്	-10.01
▁പാര്‍ട്ടിക്ക്	-10.0103
▁തോതില്‍	-10.0104
▁ലോറി	-10.0105
▁ബാധ്യത	-10.0107
▁ബാനര്‍ജി	-10.0107
▁വേണമെന്ന	-10.0109
▁കോടിയുടെ	-10.011
▁മുറി	-10.0113
▁പറഞ്ഞാല്‍	-10.0117
ഷ്യ	-10.0118
▁സ്വാഗതം	-10.0119
▁കോൺഗ്രസിൽ	-10.0122
▁തങ്ങൾ	-10.0124
▁ചെയ്യുന്നുണ്ട്	-10.0135
▁കസ്റ്റംസ്	-10.0141
▁നാണ്	-10.0141
A	-10.0144
▁പ്രകൃതി	-10.0144
▁ഓടി	-10.0148
യിലേക്കുള്ള	-10.0151
▁അവസാനം	-10.0154
▁സംഭവിക്ക	-10.0155
▁കേസുമായി	-10.0155
▁അവസാനിച്ച	-10.0156
▁അജയ്	-10.0157
▁അക്കൗണ്ട്	-10.0162
▁ഫോണില്‍	-10.0165
29	-10.0167
▁പ്രദേശങ്ങളില്‍	-10.0168
▁തൊഴില	-10.0169
▁ഒടുവിൽ	-10.0182
▁ജയരാജന്‍	-10.0187
▁പാർട്ടിയിൽ	-10.0196
▁വാഹനങ്ങള്‍	-10.0198
▁ഒഴിവാക്കിയ	-10.0203
▁അവതരിപ്പിച്ച	-10.0203
▁ആരോപണങ്ങള്‍	-10.0204
▁മണ്ഡലങ്ങളില്‍	-10.0206
ഓ	-10.0207
▁പൈസ	-10.0208
▁സമീപ	-10.021
ണോ	-10.0212
▁ആറ	-10.0218
പ്പുറം	-10.0227
▁ഹെ	-10.023
▁അനുകൂലമായ	-10.0238
▁ഇടം	-10.0246
കാരന്‍	-10.0247
▁സൂക്ഷിച്ച	-10.0252
▁ഇടപെട്ട	-10.0253
മീ	-10.0259
പെ	-10.026
▁അയാൾ	-10.0261
▁മകള്‍	-10.0262
▁പരിഹാര	-10.0265
▁വൈറസ	-10.0267
▁യൂ	-10.0268
▁എകെ	-10.0269
ിനിടെ	-10.0272
▁നേതാവിനെ	-10.028
▁വിവാദം	-10.0281
▁ചുമത്തിയ	-10.0289
▁തേടിയ	-10.0289
▁മുന്നേറ്റം	-10.0292
▁വര്‍ഷമായി	-10.0292
▁നായര്‍	-10.0295
ാനുളള	-10.0298
▁ഹൃദയ	-10.0301
▁നയം	-10.0303
▁അക്കാദമി	-10.0307
കുഞ്ഞാലിക്കുട്ടി	-10.0307
െയാണ്	-10.0313
▁കരാറ	-10.0314
▁കേരളത്തെ	-10.0314
▁ഉത്തര	-10.0316
▁നേതൃത്വത്തിന്	-10.0316
▁കുടിയേറ്റ	-10.0318
▁72	-10.0319
▁രാഷ്ട്ര	-10.033
നില്‍	-10.033
▁പ്രസാദ്	-10.0334
▁വൈകാതെ	-10.0338
ഷൻ	-10.0338
▁ക്രിക്കറ്റ്	-10.0347
▁സർവ്വേ	-10.0348
പുരം	-10.0349
ാനോ	-10.035
യാവ	-10.0352
▁മുന്നോടിയായി	-10.0354
▁റിപ്പോർട്ടിൽ	-10.0361
▁സുരക്ഷിത	-10.0361
▁ബു	-10.0363
▁മഹ	-10.0367
▁പ്രായ	-10.0369
▁സംസാരിച്ചു	-10.0372
▁രോഗികള്‍	-10.0373
▁ഉമ്മന്‍ചാണ്ടി	-10.0374
▁സര്‍ട്ടിഫിക്ക	-10.0375
▁വെട്ടി	-10.0375
▁ലഖ്	-10.0377
▁ഫേസ്ബുക്കിൽ	-10.0378
▁ഗു	-10.0382
▁തരംഗ	-10.0382
▁മുന്നോട്ടു	-10.039
▁നേതൃത്വ	-10.0393
▁കണ്ണൂരില്‍	-10.0395
▁നവ	-10.0395
▁ചോദ്യ	-10.04
▁പ്രവർത്തനം	-10.0404
▁ൾ	-10.0405
▁മേല്‍	-10.0405
▁തെളിവ	-10.0406
▁വ്യാപന	-10.0408
▁കാണുന്നു	-10.0409
▁തിരിച്ചറിഞ്ഞ	-10.0409
▁കൊണ്ടുവര	-10.041
▁പ്രതിനിധി	-10.0413
▁ബുക്ക്	-10.0413
▁പുതുപ്പള്ളി	-10.0413
▁മയക്കുമരുന്ന്	-10.0417
▁പ്രശ്നങ്ങള	-10.0419
▁വെച്ചാണ്	-10.0425
03	-10.0429
▁അന്ന	-10.0432
▁ഫാ	-10.0436
17	-10.0437
▁പണ	-10.0445
ജ്ജ	-10.0445
15	-10.0449
▁ആർക്ക	-10.0453
▁സഹായിക്ക	-10.0454
▁പ്രതികൾ	-10.0455
▁ചന്ദ്ര	-10.0457
ിരുന്നെങ്കിലും	-10.0459
ലധികം	-10.0459
▁അടയ്ക്ക	-10.0468
▁പാലം	-10.0469
▁വീടിന്	-10.0473
▁പാറ	-10.0474
▁കീഴില്‍	-10.0483
▁നിങ്ങള	-10.0485
▁പരാജയപ്പെടുത്ത	-10.0485
▁ഉന്നയിക്ക	-10.0487
▁ഗ്രൂപ്പ	-10.0488
9,	-10.0491
▁തലശ്ശേരി	-10.0492
▁വിദ്യ	-10.0498
▁വാദി	-10.0504
▁കെഎം	-10.0505
▁നേതാവുമായ	-10.0507
യാക്കി	-10.0507
▁ചിത്രങ്ങൾ	-10.0509
▁കോള	-10.0509
▁വീണാ	-10.0516
▁സമുദായ	-10.0519
▁മെന്റ	-10.0524
▁വെറുതെ	-10.0529
▁സ്നേഹ	-10.0535
യോഗ	-10.0536
▁ഷി	-10.0543
▁മോഹന്‍ലാല്‍	-10.0544
▁കൊലപ്പെടുത്തിയ	-10.0544
▁മന്ത്രിസഭ	-10.0547
▁മുഖ്യമന്ത്രിയെ	-10.0549
▁ദിനം	-10.055
▁സ്ഥാപനങ്ങള്‍	-10.0551
▁തയ്യാറായില്ല	-10.0552
▁...	-10.0556
▁പോകാൻ	-10.0558
▁ഒഴിവാക്കി	-10.0564
ുകൾക്ക്	-10.0573
▁രാജ്യത്ത	-10.0573
▁അതിനു	-10.0573
▁രേഖപ്പെടുത്തി	-10.0582
▁താന	-10.0591
▁ആശുപത്രിയിലെ	-10.0591
▁പ്രകാശ്	-10.0593
▁തോറ്റ	-10.0594
▁ആദിവാസി	-10.0607
▁ഉറപ്പിച്ച	-10.0608
▁മൂന്ന	-10.0608
ോടൊപ്പം	-10.0613
▁നിര്‍ദേശ	-10.0614
▁മനുഷ്യ	-10.0614
▁ത്ര	-10.0619
▁അടക്കമുളള	-10.0625
▁വാക്കുകള്‍	-10.0625
▁വണ്ടി	-10.0625
06	-10.0626
▁ഉയരുന്ന	-10.0627
▁സ്വാമി	-10.0627
ൻസ്	-10.0634
▁സമീപത്ത	-10.0638
▁നിമിഷം	-10.0641
▁പേരെയാണ്	-10.0642
▁ഇടതു	-10.0647
▁മാനേജ്	-10.0651
▁എന്നതും	-10.0653
▁പതാക	-10.0653
പ്പോ	-10.0653
▁56	-10.0654
▁അനൂപ്	-10.0656
ില്ലെങ്കിൽ	-10.0656
ുന്നതെന്ന്	-10.0656
▁നൂറ്	-10.0661
▁റിലീസ്	-10.0662
▁ശനി	-10.0663
ില്ലേ	-10.0664
p	-10.0681
ാള	-10.0685
▁സെക്രട്ടറിയേറ്റ	-10.0688
▁ഒക്ടോബര്‍	-10.069
ിട്ടാണ്	-10.0696
▁വൈകുന്നേരം	-10.0697
▁ബന്ധുക്കള്‍	-10.0706
▁കെട്ടിട	-10.0706
നിയ	-10.0707
▁ക്ഷ	-10.0709
▁യഥാർത്ഥ	-10.0712
ട്ടു	-10.0713
▁ആരോപണങ്ങള	-10.0716
▁രൂപീകരിച്ച	-10.0719
▁കുറയ്ക്ക	-10.072
▁പക്ഷം	-10.0723
▁ട്ര	-10.0724
▁സന്ദീപ്	-10.0729
▁തേജസ്വി	-10.0729
▁ആരെങ്കിലും	-10.0733
▁നൽകിയിരുന്നു	-10.0735
▁ജലനിരപ്പ്	-10.0737
▁ഒര	-10.0739
തീ	-10.0743
ന്നു	-10.0744
േക്കുമെന്നാണ്	-10.075
▁പ്രഖ്യാപിച്ച്	-10.0753
▁നേതൃത്വത്തിന്റെ	-10.0754
യൊരു	-10.0758
▁ഉടനെ	-10.076
▁സ്ഥിരം	-10.076
▁57	-10.0764
ുണ്ടാകും	-10.0767
▁ഗള്‍ഫ്	-10.0768
ുണ്ടാവും	-10.0769
▁വാടക	-10.077
▁ന്യൂ	-10.0772
▁തടയ	-10.0773
▁എല്ലാവർക്കും	-10.0773
ാണെന്നാണ്	-10.0774
▁എന്നിട്ടും	-10.0775
▁വേണ്ടിയുള്ള	-10.0778
▁ഗാന്ധിയെ	-10.0778
▁കുറഞ്ഞു	-10.0782
ിലധികം	-10.079
▁നാല	-10.0792
ുന്നതിന്റെ	-10.0803
▁ഭീഷണിപ്പെടുത്തി	-10.0804
▁അടിസ്ഥാനത്തില	-10.0807
െത്തിയത്	-10.0807
▁പട്ടികയിൽ	-10.0808
▁സൗത്ത്	-10.0811
▁ശക്തമാണ്	-10.0813
▁സമീപിക്ക	-10.0814
നാഥ്	-10.0816
▁അത്തരമൊര	-10.0818
▁ദു	-10.0821
േറ്റ്	-10.0821
▁മഹാരാഷ്ട്രയില്‍	-10.0822
▁ശബ്ദം	-10.0828
▁മൂല്യം	-10.0837
▁കരുതുന്നു	-10.0839
ുണ്ടെങ്കിലും	-10.0843
ുകള്‍ക്ക്	-10.0844
▁കേള്‍ക്ക	-10.0846
▁കണക്കിലെടുത്ത്	-10.0847
▁നോക്കിയ	-10.0847
ുകയെന്ന	-10.0849
ദാ	-10.0849
▁നാഷണല്‍	-10.0851
▁ബിരുദം	-10.0851
▁സംഘത്തെ	-10.0852
07	-10.0855
▁വര്‍ധിച്ച	-10.0856
▁സര്‍	-10.0857
▁പകര	-10.0859
▁യുവതിയെ	-10.0861
▁മത്സരിക്കുന്നത്	-10.0862
▁മനസിലാക്ക	-10.0863
വന്‍	-10.0863
▁വിശ്വസിക്കുന്ന	-10.0871
▁സോണിയാ	-10.0873
▁എടുത്തത്	-10.0878
▁പ്രാധാന്യം	-10.0881
▁നേതാവായ	-10.0883
ാസ്	-10.0888
യാക	-10.0888
▁ഡികെ	-10.0889
16	-10.0889
▁ഡിസംബർ	-10.089
▁ബൈജു	-10.089
▁ബേബി	-10.0892
▁മാത്യു	-10.0892
▁ബുദ്ധി	-10.09
▁തിരക്ക	-10.09
▁എത്തും	-10.0904
▁പ്ലാന്‍	-10.0905
▁ബംഗാളില്‍	-10.0906
▁ക്ഷണിച്ചു	-10.0908
▁മസ്	-10.0911
കുട്ടി	-10.0912
ിട്ടുണ്ടോ	-10.0916
▁പോലീസിനെ	-10.0917
▁സ്ഥാപിക്ക	-10.0918
ുണ്ടെന്നാണ്	-10.0921
ായാണ്	-10.0928
▁തെളിവുകള്‍	-10.0928
▁നിശ്ചിത	-10.0931
▁ഉപമുഖ്യമന്ത്രി	-10.0931
▁അതിർത്തി	-10.0933
ലിന്റെ	-10.0936
▁ഗോവ	-10.0937
▁മിനി	-10.0938
യ്ക്കെതിരെ	-10.0939
▁വിലക്ക	-10.0939
▁ബാധിക്കുന്ന	-10.094
▁കെഎസ്	-10.0941
▁ചെയ്തിട്ടില്ല	-10.0948
ണമെങ്കില്‍	-10.0949
t	-10.0951
▁നയിക്കുന്ന	-10.0952
09	-10.0955
▁തൊഴിലാളികള്‍	-10.0955
▁താരങ്ങള്‍	-10.096
▁വിദ്വേഷ	-10.0963
▁വിശദമായി	-10.0965
▁വൃത്തങ്ങള	-10.0966
▁നരേന്ദ്രമോദി	-10.0972
▁കുറേ	-10.0973
▁നശിപ്പിക്ക	-10.0973
▁മണിക്കൂര്‍	-10.0974
▁മടങ്ങി	-10.0975
▁ചേ	-10.0976
▁വായിക്കാം	-10.0976
27	-10.0979
▁വരാനിരിക്കുന്ന	-10.0984
▁കൊല	-10.0987
▁അൽ	-10.0996
പോ	-10.0999
▁പോള്‍	-10.1005
▁കോണ്‍ഗ്രസിലെ	-10.1008
▁അധികാരത്തില്‍	-10.101
▁വാദ	-10.1012
ൌ	-10.1013
▁സൈബർ	-10.1013
▁നല്‍കണം	-10.1023
▁ഗതി	-10.1028
▁സായി	-10.103
ിയിട്ടുണ്ട്	-10.1031
▁യുവതിയുടെ	-10.1036
▁വയസുള്ള	-10.1037
▁അടുത്ത്	-10.1037
ികള്‍	-10.1037
▁നിയമിച്ച	-10.1038
▁ആപ്പ്	-10.1038
▁ഉത്തരവാദിത്ത	-10.1039
▁കാർഡ്	-10.1043
▁പ്രദേശ്	-10.1044
▁കുറച്ച	-10.1044
▁മേഖലകളില്‍	-10.1047
റേ	-10.1048
ക്കാട്	-10.105
േണ്ടതില്ല	-10.105
▁അന്വേഷിച്ച	-10.105
▁കാർഷിക	-10.1054
▁മത്സ്യ	-10.1054
▁മേയര്‍	-10.1056
▁നഷ്ടം	-10.1059
▁പിടിച്ചെടുത്ത	-10.1061
▁മത്സരിപ്പിക്ക	-10.1063
42	-10.1065
▁11,	-10.1067
▁വരവ	-10.1071
വിനെ	-10.1073
ക്കുക	-10.1076
ിലെത്തിയ	-10.108
േഴ്സ്	-10.1089
▁മനസ്സ	-10.1091
വില്‍	-10.1092
പതി	-10.1095
▁മലയോര	-10.1095
ശ്	-10.1106
ന്‍സ	-10.1111
▁ആലോചിക്ക	-10.1113
▁പൂജ	-10.1114
▁മേയ്	-10.1117
▁പങ്കാളി	-10.112
ച്ചി	-10.1121
▁കഴിഞ്ഞാല്‍	-10.1126
▁ഉണ്ടായി	-10.1128
▁മാനേജര്‍	-10.1138
▁സംഭവിച്ചത്	-10.1139
▁ഓട്ടോ	-10.1139
▁പണമ	-10.1139
▁മീറ്റര്‍	-10.1145
▁സംസ്ഥാനങ്ങളിലെ	-10.1147
ജ്ഞ	-10.1148
▁കണ്ടെത്ത	-10.1149
ാക്കിയ	-10.115
സോ	-10.115
47	-10.1152
▁റ്റ്	-10.1155
▁ആരെയും	-10.1157
▁58	-10.1165
യിരുന്നു	-10.1169
▁തെരഞ്ഞെടുപ്പിൽ	-10.1172
▁ഏഴു	-10.1173
▁ചികിത്സാ	-10.1176
▁ള്‍	-10.1176
▁റെഡ്	-10.1178
▁തയ്യാറാക്ക	-10.1178
▁ചൗധരി	-10.1179
▁മൊബൈൽ	-10.1179
▁കലക്ടര്‍	-10.1179
▁പരിശോധിച്ച്	-10.1183
▁നിഷേധിച്ച	-10.1183
▁രണ്ട	-10.1184
ുമ്പോഴാണ്	-10.1186
ുവാന്‍	-10.1186
▁വാക്കുകൾ	-10.1187
▁പഠിച്ച	-10.1191
▁ത്ത	-10.1197
▁പ്രവചനം	-10.12
▁വിപണിയില്‍	-10.1213
▁ലീ	-10.1213
▁നിര്‍മ്മാണ	-10.1217
▁ഉള്‍പ്പടെ	-10.1217
▁സൂ	-10.1218
പ്രവര്‍ത്തകര്‍	-10.122
▁പ്രകടിപ്പിക്ക	-10.1225
▁ഗ്രാമപഞ്ചായത്ത	-10.1226
ജീ	-10.1229
▁പലതും	-10.123
▁സൗകര്യ	-10.123
▁ഉയര്‍ത്തി	-10.1236
▁കോളനി	-10.1237
▁ശി	-10.1237
▁ബൈഡന്‍	-10.124
▁പിന്തുണച്ച	-10.1241
പ്പാട	-10.1242
▁അഭിനയിച്ച	-10.1244
യ്ക്കുള്ള	-10.1245
▁ഹൈ	-10.1245
▁ഏതാന	-10.1246
▁ഉദ്ഘാടന	-10.1247
▁അമിത	-10.1248
▁മല്‍സരിക്ക	-10.1253
ന്‍സി	-10.1256
▁ശരത്	-10.1258
തേ	-10.1259
▁നൗ	-10.1264
▁സ്വയംഭരണ	-10.1264
▁മാത്രമായിരുന്നു	-10.1267
▁വരെയും	-10.1268
▁തെറ്റ്	-10.1279
ലേ	-10.1279
▁മന	-10.1286
▁കുമാറിന്റെ	-10.1288
▁സംസ്ഥാനങ്ങളിൽ	-10.1288
▁പിള്ള	-10.1294
▁പാര്‍ട്ടികള്‍	-10.1295
▁വന്നപ്പോള്‍	-10.1302
▁പിക്ക്	-10.1304
▁നയതന്ത്ര	-10.1305
▁ഇറ്റലി	-10.1306
▁ഡിജിപി	-10.1306
▁തീരുമാനമെടുക്ക	-10.1306
▁പ്രവേശിപ്പിക്ക	-10.1307
▁കഴിവ	-10.1307
▁പിജെ	-10.131
▁നാടക	-10.131
▁കേന്ദ്രീകരിച്ച	-10.1311
▁ഭാഗമാണ്	-10.1314
▁ആരോപിക്കുന്നത്	-10.1314
സംസ്ഥാന	-10.1317
▁പവന്	-10.1317
ലീ	-10.1318
▁ഞാനും	-10.1323
▁പിടികൂടിയത്	-10.1327
▁ഹോ	-10.1333
▁ഇതിനു	-10.1336
ിക്കുക	-10.1337
▁തനിക്ക	-10.1339
▁കേസിന്റെ	-10.134
▁ഹി	-10.1341
▁വയസ്സ്	-10.1341
സിന്	-10.1341
▁ആലുവ	-10.1342
▁ഉറപ്പുവരുത്ത	-10.1343
▁പാര്‍ലമെന്റ്	-10.1343
d	-10.1345
▁വൈറലായ	-10.1345
▁മകൻ	-10.1351
▁ഇക്കാര്യത്തിൽ	-10.1351
▁ഡിഎംകെ	-10.1352
▁കൈമാറി	-10.1354
▁മുമ്പാണ്	-10.1354
▁ഇടപെടല്‍	-10.1355
▁പ്രക്ഷോഭ	-10.1356
▁ചികിത്സയിലുള്ളത	-10.1356
▁റെഡ്ഡി	-10.1356
▁ബാഗ	-10.136
▁ചെയ്യാനുള്ള	-10.1361
▁കീഴിലുള്ള	-10.1362
▁ഹരിത	-10.1368
▁ള്ള	-10.1373
▁സംസ്ഥാനങ്ങള്‍	-10.1373
▁ഗ്രാം	-10.1375
ർക്ക്	-10.1376
▁സമ്മതിച്ച	-10.138
▁പ്രസംഗം	-10.1384
▁കരുതി	-10.1386
▁എന്നിവിടങ്ങളിൽ	-10.1391
▁സാന്നിധ്യം	-10.1391
▁ഡോക്ടര്‍	-10.1391
▁റെയിൽവേ	-10.1391
▁ജീവൻ	-10.1396
മാവ	-10.1405
▁നങ്ങള	-10.1406
▁10,	-10.1407
▁വീട	-10.1409
▁ഉയർന്നു	-10.1412
▁പ്രകടിപ്പിച്ച	-10.1412
▁പോകും	-10.1412
21	-10.1415
▁നൽകുന്നത്	-10.1418
▁മഞ്ജു	-10.1421
39	-10.1421
▁തകര്‍ത്ത	-10.1422
▁മധ്യപ്രദേശ്	-10.1426
▁ദൈവ	-10.1429
▁എന്തു	-10.143
മാറ്റ	-10.1431
▁റിപ്പോര്‍ട്ടില	-10.1431
▁പിടികൂട	-10.1431
▁ഇറക്ക	-10.1431
▁കാട്ടാന	-10.1432
▁അതിജീവിത	-10.1436
▁ദൃശ്യങ്ങൾ	-10.1437
ത്തെയും	-10.1438
▁സ്ഥാനത്ത	-10.1439
▁ആളുകള	-10.1441
▁ബിജു	-10.1445
▁നടക്കുന്നുണ്ട്	-10.1449
▁സർക്കാറ	-10.1451
ിൻ	-10.1452
▁നേതൃത്വത്തെ	-10.1456
യത്	-10.1462
▁300	-10.1465
▁വയ്ക്ക	-10.1467
▁കമന്റ്	-10.1468
56	-10.1468
▁സംഘടനയുടെ	-10.1468
77	-10.1473
▁ഓറഞ്ച്	-10.1477
▁ശ്രീലങ്ക	-10.1477
ാതിരിക്കാന്‍	-10.1479
▁വരവ്	-10.1481
37	-10.1488
▁പറയാം	-10.1492
▁ഫോര്‍	-10.1493
▁സംവിധായകന്‍	-10.1495
▁തിരിച്ചെത്ത	-10.1496
കരമായ	-10.1496
ത്തേ	-10.1496
വരെയും	-10.1498
▁ഉള്‍പ്പെടുത്തിയ	-10.1499
▁രാശിക്കാർക്ക്	-10.1505
ാട്ട	-10.1506
▁ഒഴിവ്	-10.1514
▁അടക്ക	-10.1517
▁വില്‍പ്പന	-10.152
മേഖല	-10.1524
▁വെളിപ്പെടുത്തി	-10.1529
24	-10.153
▁കാട്ട	-10.1532
▁ആണെന്നും	-10.1534
ിലെത്തി	-10.1535
▁അപ്രതീക്ഷിത	-10.1536
▁ലേ	-10.1539
▁സീസണ്‍	-10.1543
▁മതിയായ	-10.1543
▁സ്റ്റ	-10.1546
▁കാര്യത്തിലും	-10.1548
ാലോ	-10.1552
▁നിരാശ	-10.1553
▁രാം	-10.1558
▁നമ്പർ	-10.1564
▁ഒരിക്കല്‍	-10.1568
▁മുരളീധരൻ	-10.1569
▁പേർക്കും	-10.1571
വച്ച	-10.1573
▁വിദ്യാർത്ഥി	-10.1574
▁അപ്പ	-10.1575
ല്യ	-10.1579
▁കാരണമെന്ന	-10.1582
ദാന	-10.1583
c	-10.1589
▁ആരോപിച്ച്	-10.1591
▁ദിലീപ	-10.1595
▁ആരംഭിക്ക	-10.1598
▁നേഹ	-10.1601
▁ശാരീരിക	-10.1601
▁പറയാന	-10.1601
ശ്ശേരി	-10.1606
▁എസ്ഡിപിഐ	-10.1607
▁സഞ്ജയ്	-10.1607
▁സ്കൂൾ	-10.1607
▁ഹൗസ	-10.161
ാവശ്യപ്പെട്ട	-10.161
▁നിര്‍ദ്ദേശ	-10.1611
▁രാശിക്കാരുടെ	-10.1612
▁വീഴ	-10.1613
▁ബാക്കിയുള്ള	-10.1614
നായിരുന്നു	-10.1614
▁ഒരാളുടെ	-10.1616
▁പ്രദേശ	-10.1619
ക്കെട്ട	-10.162
▁വൈകിയ	-10.1621
▁വ്യാപക	-10.1624
▁നൽകും	-10.1625
▁പുന	-10.1626
▁സേവന	-10.163
▁ലഭിച്ചിരുന്നു	-10.1632
കര്‍	-10.1637
സിൽ	-10.1639
▁അട്ടിമറി	-10.1642
▁ഗം	-10.1645
ഉ	-10.1647
▁വഴിയാണ്	-10.1647
▁ഉമ്മ	-10.165
▁ആഡംബര	-10.1651
▁സതീശൻ	-10.1651
▁സ്ഥാനാർഥി	-10.1651
▁കാര്‍ഡ്	-10.1653
▁മീറ്റർ	-10.1654
െങ്കിൽ	-10.1655
▁അടച്ച	-10.1655
▁അനുവദിക്കില്ല	-10.1655
▁രാജു	-10.1665
▁രൂക്ഷമായി	-10.1665
▁മനോജ്	-10.1667
▁ആള്‍	-10.1674
▁ലംഘിച്ച	-10.1678
u	-10.1681
▁റഷ്യന്‍	-10.1684
▁ഗവേഷണ	-10.1688
ാണി	-10.1689
▁വളര്‍ച്ച	-10.1692
▁ബംഗാൾ	-10.1695
▁ഹരി	-10.1696
▁ദക്ഷിണ	-10.1699
▁ശ്രമിച്ചത്	-10.17
▁സംഘമാണ്	-10.171
▁മുദ്രാവാക്യം	-10.171
▁മാറ്റിയത്	-10.1711
▁പകുതി	-10.1711
▁സ്വന്തമായി	-10.1714
▁ഇട്ട	-10.1715
ുവാൻ	-10.1717
▁വരുന്നു	-10.1717
▁സമയ	-10.1719
▁ഭരണഘടനാ	-10.172
ആക്രമിക്കപ്പെട്ട	-10.1721
▁സുനില്‍	-10.1722
▁നിലയിലാണ്	-10.1723
▁ബോർഡ്	-10.1725
▁നുണ	-10.1727
ാലി	-10.173
▁പ്രവേശിക്ക	-10.1733
▁ജീവനക്കാര്‍	-10.1735
▁തിരിച്ചെത്തിയ	-10.1735
പ്രകാരം	-10.1737
▁നവംബർ	-10.1739
▁ന്യൂഡൽഹി	-10.1739
▁ഭയ	-10.1743
▁അതിനുള്ള	-10.1744
▁ഇതൊരു	-10.1744
▁കിലോമീറ്റ	-10.1747
▁നടത്തുന്നുണ്ട്	-10.1749
▁മുഖ്യമന്ത്രിയും	-10.175
▁ഷാഫി	-10.1751
▁ബോധ	-10.1755
ശേഷം	-10.1757
▁റദ്ദാക്ക	-10.1758
▁സർക്കാരിനെ	-10.1758
▁സിന്റെ	-10.1758
ിപ്പിച്ച	-10.1762
▁അറിവ	-10.1767
▁കെയര്‍	-10.1769
▁അവലോകന	-10.1784
▁എഐസിസി	-10.1784
▁കുഞ്ഞ	-10.1786
▁മാധ്യമങ്ങൾ	-10.1788
▁ജീവനക്കാര	-10.179
▁ചൂട	-10.179
▁കിട്ടുന്ന	-10.1794
▁ശേഷമുള്ള	-10.1794
▁മുകളിൽ	-10.1801
▁യും	-10.1804
ന്തി	-10.1804
▁താമസ	-10.1808
തുകൊണ്ട്	-10.1815
ംബ	-10.1816
സര്‍ക്കാര്‍	-10.182
വിട്ട	-10.182
▁ആരംഭിക്കും	-10.1821
▁കുറിച്ചത്	-10.1826
▁ഹിന്ദി	-10.1829
▁എങ്കില്‍	-10.1829
▁തൊട്ടടുത്ത	-10.183
▁150	-10.1834
▁വാഴ	-10.1834
താര	-10.1835
▁കമ്പനിയുടെ	-10.1837
രാമ	-10.1837
73	-10.1839
▁രാജ്യസഭ	-10.1842
മെന്റ	-10.1845
പ്പെടുത്തിയ	-10.1846
നിര	-10.1847
▁ഡോക്ടര്‍മാര്‍	-10.1853
▁ലക്ഷ്യ	-10.1862
ുണ്ടെന്ന	-10.1863
യൂ	-10.187
റിൽ	-10.187
▁സ്ത്രീകളെ	-10.1871
ോട	-10.1874
സിനെ	-10.1877
▁പതിവ്	-10.1878
▁സുഹൃത്ത്	-10.1879
35	-10.1881
92	-10.1887
ാടി	-10.1892
▁പാലിച്ച	-10.1893
▁മണിക്കൂറില്‍	-10.1893
▁സാധിച്ചില്ല	-10.1894
▁കാര്യങ്ങളാണ്	-10.1898
i	-10.1901
▁ബില്‍	-10.1901
▁കാര്യവും	-10.1902
▁അനുഭവ	-10.1903
▁വേണുഗോപാല്‍	-10.1905
പാല	-10.1907
ുന്നത	-10.1908
ഘ	-10.1909
ുന്നതിൽ	-10.1911
▁അനിൽ	-10.1912
ടുത്ത	-10.1919
▁അക്കാര്യ	-10.1921
▁സജീവമായി	-10.1921
▁മണിക്കൂറിനുള്ള	-10.1924
▁സഞ്ചരിച്ച	-10.1924
ക്കുണ്ട്	-10.1926
▁ലോകത്തിലെ	-10.1927
▁അഞ്ചാം	-10.1928
ര്യ	-10.1931
▁ഇടതുപക്ഷം	-10.1933
ഴ്	-10.1934
ബോ	-10.1935
▁പുറത്തിറങ്ങിയ	-10.1936
ഫോ	-10.1937
▁വരുത്തി	-10.1942
▁നിയന്ത്രണങ്ങൾ	-10.1945
▁സംഘര്‍ഷ	-10.1946
▁ജില്ലയിലും	-10.195
▁ഉദ്ധരിച്ച്	-10.1959
▁സംസ്ഥാനത്തിന്	-10.196
▁നിലനില്‍ക്ക	-10.196
▁62	-10.1962
▁ആധുനിക	-10.1964
▁ആര്‍ജെഡി	-10.1964
▁സംസ്ഥാനത്തിന്റെ	-10.1969
▁താഴ്ന്ന	-10.197
▁പ്രായമുള്ള	-10.197
C	-10.197
▁മാസത്തെ	-10.1977
കള്‍ക്കും	-10.1978
▁മത്സരിക്കാന്‍	-10.198
▁യുവാവിനെ	-10.1987
78	-10.1989
▁ഹൈക്കോടതിയെ	-10.1994
▁കൊല്ലപ്പെട്ടത്	-10.1995
▁വാർത്താ	-10.2002
വിന്	-10.2003
▁ബ്രിട്ടീഷ്	-10.2009
▁അജണ്ട	-10.2011
▁ഇതോടൊപ്പം	-10.2011
▁നിർത്തി	-10.2013
▁പ്രസിഡണ്ട്	-10.2014
▁മദ്യം	-10.2014
▁തെളിവ്	-10.2016
▁സര്‍വ്വേ	-10.2016
62	-10.2022
ിക്കുന്നു	-10.2039
മുഖ	-10.205
▁നഷ്ടമായ	-10.2052
▁ലഭിച്ചിട്ടുണ്ട്	-10.2052
▁ട്രേലിയ	-10.2055
▁ചെയർമാൻ	-10.2055
▁കൊട്ടാരക്കര	-10.2055
രൂപ	-10.2056
▁കമ്മറ്റി	-10.2056
▁മീഡിയയിൽ	-10.2058
▁സെന്റ്	-10.2059
▁എന്നോട്	-10.2059
▁ക്ഷണിച്ച	-10.206
▁സമാന	-10.206
ഹാ	-10.2062
▁താമസം	-10.2064
▁നാട്ടിൽ	-10.2066
▁സർ	-10.2067
പെട്ട	-10.2068
▁പാര്‍ട്ടിയെ	-10.2071
േണ്ടതാണ്	-10.2072
▁പൂര്‍ണ	-10.2073
▁ശ്രദ്ധയില്‍	-10.2075
▁ഫീസ്	-10.2079
▁വിജിലന്‍സ്	-10.2079
▁കെടി	-10.2079
▁ഔദ്യോഗികമായി	-10.208
▁പ്രവർത്തക	-10.2085
▁തങ്ങള്‍ക്ക്	-10.2086
വയ	-10.2086
▁ട്ട	-10.2087
റിഞ്ഞ	-10.2089
33	-10.2093
ുള്ളൂ	-10.2098
ർത്ത	-10.2101
▁പ്രോത്സാഹിപ്പി	-10.2101
▁വ്യക്തമാണ്	-10.2104
▁തിരുവല്ല	-10.2105
പ്പാറ	-10.2106
▁ബിന്ദു	-10.2106
▁വീട്ടിലെ	-10.2108
▁നിക്ഷേപം	-10.2108
▁ഫെ	-10.2113
രോ	-10.2117
▁സാഹചര്യമ	-10.2117
▁സ്ഥിരീകരിക്ക	-10.2117
▁മേടം	-10.212
ീഷ	-10.2121
ലു	-10.2125
ാറുള്ളത്	-10.2126
▁ജീവനക്കാരുടെ	-10.2126
▁വിദ്യാഭ്യാസം	-10.2128
▁ജീവനക്കാരെ	-10.213
ടുപ്പ	-10.2135
▁ബാങ്ക	-10.2136
▁മോഷണം	-10.2136
▁ഏഷ്യാനെറ്റ്	-10.214
ിയെ	-10.2141
▁ആശ്വാസം	-10.2144
▁നിരക്ക	-10.2147
▁പട്ടികജാതി	-10.2147
▁സെപ്റ്റംബര്‍	-10.2148
▁ഉയര്‍ത്തിയ	-10.2155
▁പുതിയതായി	-10.2156
കരിക്ക	-10.2164
▁ഒരാഴ്ച	-10.2166
▁റോബിന്‍	-10.2167
തിനും	-10.2168
▁ഇതില	-10.2168
6,	-10.2175
▁കുട്ടികള	-10.2177
▁സമ്മാന	-10.2178
▁ഗുരു	-10.2189
▁നിയന്ത്രണങ്ങള	-10.2195
▁ബില്ല	-10.2196
▁കാണിച്ച്	-10.2196
▁ന്‍	-10.2203
▁കാണിക്കുന്ന	-10.2203
സര്‍	-10.2204
▁വരുമ്പോള്‍	-10.2204
▁നിറ	-10.2205
▁ഉത്തരവാദിത്തം	-10.2206
▁പേടി	-10.2208
95	-10.2209
▁കൊടുക്കുന്ന	-10.2211
▁എടുക്കുന്ന	-10.2218
▁പ്രവേശിപ്പിച്ചു	-10.2218
▁ഏർപ്പെടുത്തിയ	-10.2225
▁സംരക്ഷിക്ക	-10.2225
▁പ്രീ	-10.2226
▁സര്‍വകലാശാല	-10.2227
▁രാജ്യങ്ങളും	-10.2229
▁കൗണ്‍സില്‍	-10.223
▁തുടർന്നാണ്	-10.223
▁തോന്നി	-10.2232
ലിയ	-10.2233
▁കൊച്ചിയില്‍	-10.2235
▁കുട്ടികൾ	-10.2243
തിര	-10.2244
99	-10.2244
▁പൂർണമായ	-10.2246
▁സ്ഥാപനങ്ങള	-10.2247
86	-10.2248
▁പോലീസും	-10.2248
▁കർശന	-10.2259
▁ഒന്നിന്	-10.2265
▁ക്ര	-10.2267
▁0	-10.2271
▁ലഭ്യമായ	-10.2273
▁സഹായത്തോടെ	-10.2275
▁കന്നി	-10.2275
▁9,	-10.2277
▁1000	-10.2279
▁യുപിയില്‍	-10.228
▁ചാനല	-10.2281
▁ദില്ലിയിലെ	-10.2281
▁അപ്	-10.2282
▁ആപ്പ	-10.2282
▁സ്ഥലങ്ങളില്‍	-10.2283
▁ഉത്സവ	-10.2286
▁ശേഷവും	-10.2286
▁ഒക്ടോബർ	-10.2287
▁പാലിക്ക	-10.2288
▁പ്രതികരണവുമായി	-10.2288
കല	-10.2289
വിരുദ്ധ	-10.2292
റിനെ	-10.2292
▁വീടുകള്‍	-10.2305
തിന	-10.2306
48	-10.231
▁മീ	-10.231
▁നേതാക്കള	-10.2316
▁പരിശോധനയില്‍	-10.2317
▁തരൂര്‍	-10.2318
▁സീറ്റിലും	-10.2324
▁ഭാഗങ്ങളില്‍	-10.2325
88	-10.233
▁ഉണ്ണി	-10.2333
▁അഭിസംബോധന	-10.2333
▁കോർപ്പറേഷൻ	-10.2333
▁സെന്റര്‍	-10.2333
▁തികച്ച	-10.2333
am	-10.234
52	-10.2345
▁പേർക്കാണ്	-10.2345
▁പാവ	-10.2345
തെങ്കിലും	-10.2346
ഒരു	-10.2353
▁ജീവിക്ക	-10.2354
96	-10.2356
▁ശരി	-10.2358
▁ട്ടി	-10.2359
▁ചെയ്യണമെന്ന	-10.2364
റേയും	-10.2365
▁കോളജ്	-10.2367
▁പോരാട	-10.2368
▁ഒട്ടും	-10.2371
▁റു	-10.2373
▁രക്ത	-10.2375
▁തെരഞ്ഞെടുപ്പില	-10.2376
▁ദുരിത	-10.2376
▁ഫ്രണ്ട്	-10.2377
ബര്‍	-10.2377
ിരിക്കും	-10.2377
▁ലുലു	-10.2378
▁വിഹിതം	-10.238
▁അയച്ചു	-10.2382
▁ഫസ്റ്റ്	-10.2383
▁തള്ളിയ	-10.2384
▁കഴിച്ച	-10.2384
▁കുടുംബത്തിന്	-10.2386
▁കേരളത്തിലേക്ക്	-10.2389
▁ഇത്തരത്തിലുള്ള	-10.2389
▁കൊല്‍ക്കത്ത	-10.239
▁ആരോപിച്ചിരുന്നു	-10.2391
▁പറയും	-10.2398
▁പീഡിപ്പിച്ച	-10.24
▁ഹരിയാന	-10.2401
▁ചെയ്യാന	-10.2403
▁വീടിന്റെ	-10.2407
ുന്നവര്‍ക്ക്	-10.2414
▁അമ്മയുടെ	-10.2414
▁അയച്ചത്	-10.2414
കൂടി	-10.2421
▁യെ	-10.2421
▁വാർത്തകൾ	-10.2427
ിങ്ങ	-10.2428
▁പ്രഖ്യാപന	-10.2428
▁അതുകൊണ്ടുതന്നെ	-10.2428
▁കാറ	-10.2429
▁ഗ്യ	-10.243
▁വേദി	-10.243
പര	-10.2432
▁പരിചയം	-10.2434
▁കോളേജിൽ	-10.2437
▁ഇടവേള	-10.2439
▁റദ്ദാക്കിയ	-10.2439
ക്കാരുടെ	-10.244
▁സഹായിച്ച	-10.2441
▁രീതിയിലുള്ള	-10.2442
▁ആളുകളുടെ	-10.2444
ട്ര	-10.2446
▁നീട്ടി	-10.2452
46	-10.2454
▁പദ്ധതികൾ	-10.2456
▁തൊഴിലാളികളെ	-10.2457
▁വിട്ടത്	-10.2458
▁പരിചയ	-10.247
49	-10.247
▁പുരുഷൻ	-10.2471
യാണെന്ന	-10.2472
▁ക്യൂ	-10.2475
▁ശ്രമിച്ചു	-10.2475
▁ആത്മവിശ്വാസം	-10.2475
▁കൊന്ന	-10.2477
▁രാജ്യങ്ങളിൽ	-10.2487
മായും	-10.2487
വോ	-10.2492
▁ചുമതലയുള്ള	-10.2494
▁പരിശീലന	-10.2494
▁ലോക്ക്ഡൗണ്‍	-10.2495
▁ബോസ	-10.2503
▁സമ്മേളനത്തില	-10.2504
▁നയിച്ച	-10.2506
▁ചിത്രത്തില്‍	-10.2507
ത്യ	-10.2507
▁നടത്തുമെന്ന	-10.251
01	-10.2511
▁സംവിധാന	-10.2514
▁സീറ്റുകളാണ്	-10.2517
▁മത്സ്യബന്ധന	-10.2521
▁കാറ്റിന	-10.2521
▁ഓൺലൈൻ	-10.2523
▁കൂള	-10.2524
▁എൻഡിഎ	-10.2524
പ്പെടുത്ത	-10.2525
▁വര്‍ഗീയ	-10.2532
▁എംവി	-10.2534
▁ക്രൈം	-10.2539
▁സംഘടനകള്‍	-10.2539
നാഷണൽ	-10.254
▁പ്രകാരമാണ്	-10.2544
▁യുക്രൈന	-10.2544
▁ഉറപ്പായ	-10.2544
▁നഷ്ട	-10.2546
▁റണ്‍സ്	-10.2547
▁മിഷന്‍	-10.2554
▁രമ	-10.2554
വാദ	-10.2555
▁ഉം	-10.2556
▁ഇല്ലെന്ന്	-10.2557
▁നിരീക്ഷണം	-10.256
ജോ	-10.256
ത്തര	-10.2565
▁ആഗ്രഹം	-10.2567
67	-10.2568
▁സിദ്ധരാമയ്യ	-10.2571
▁ആയിരക്കണക്കിന	-10.2571
▁ചാനല്‍	-10.2572
▁സീറ്റും	-10.2572
▁ദിവസമായി	-10.2573
▁പ്രദേശത്തെ	-10.2573
കളെയും	-10.2579
വുമില്ല	-10.2581
▁59	-10.2581
▁ചെയ്യുമ്പോള്‍	-10.2581
▁വനം	-10.2584
▁എന്നിങ്ങന	-10.2587
▁ജനങ്ങൾക്ക്	-10.2588
മാക്കിയ	-10.2588
▁മറ്റ	-10.2589
▁ഗാ	-10.2589
97	-10.2598
ിരിക്കണം	-10.2599
െത്തുന്ന	-10.2601
.5	-10.2603
▁പെണ്‍കുട്ടിയെ	-10.2608
▁പ്രതിരോധിക്ക	-10.2609
ങ്ങളുടെയും	-10.2611
▁85	-10.2615
▁63	-10.2619
▁നിര്‍മ്മിച്ച	-10.262
▁ഗെയിമ	-10.262
▁വളർച്ച	-10.262
▁ട്രാന്‍സ്	-10.262
▁അവശ്യ	-10.262
▁ചു	-10.2625
▁രമ്യ	-10.2627
▁സിജന്‍	-10.2629
▁കുത്തി	-10.263
▁അവൾ	-10.263
▁സാംസ്	-10.2634
▁താല്‍ക്കാലിക	-10.2635
ഷ്ട	-10.2636
▁ഞങ്ങള	-10.2637
▁തരം	-10.2641
81	-10.2651
ുണ്ടെങ്കില്‍	-10.2652
▁ഘ	-10.2653
▁വ്യക്തിപരമായ	-10.2656
▁വയസ്സ	-10.2656
യിലെത്തിയ	-10.2656
▁കൂടുതലായി	-10.2658
ീവ്	-10.2662
▁അയാള്‍	-10.2662
▁കേന്ദ്രീകരിച്ച്	-10.2662
യെക്കുറിച്ച്	-10.2663
▁ജോണ്‍	-10.2668
▁തൃശ്ശൂർ	-10.2668
▁സിസിടിവി	-10.2668
▁സീസൺ	-10.2668
▁തുടര്‍	-10.2669
വ്യ	-10.267
▁മോശമായി	-10.2671
ോട്ട	-10.2675
▁തുടങ്ങിയവര്‍	-10.2675
▁ഭാഗമായ	-10.2675
l	-10.2676
▁സഹോദരന്‍	-10.2677
ചി	-10.2681
▁ശക്തമാക്കിയ	-10.2682
സ്സ	-10.2682
▁കെജ്രിവാള്‍	-10.2684
▁ചിന്തിക്ക	-10.2685
▁രജിസ്	-10.2687
▁തരംഗം	-10.2688
▁പ്രവചിച്ച	-10.2688
▁ഉള്‍പ്പെട്ട	-10.2692
▁ഗി	-10.2692
▁ജയം	-10.2696
▁ഒന്നാണ്	-10.2698
▁സാമ്പത്തികമായി	-10.27
▁നേതൃത്വത്തില	-10.2701
▁വൈക	-10.2701
▁ട്രെയിന്‍	-10.2704
▁സംഘത്തിന്	-10.2705
നിൽ	-10.2709
▁സ്വീകരിച്ചു	-10.2712
▁ബല	-10.2712
▁കിഫ്ബി	-10.2717
▁എന്‍ഐഎ	-10.2718
▁വിജയി	-10.2721
32	-10.2723
▁തങ്ങളെ	-10.2726
▁ഉണ്ടാകുന്ന	-10.2726
▁സായ്	-10.2731
▁മോദിയെ	-10.2734
രണ	-10.2741
▁നേതാവ	-10.2742
▁കോളേജിലെ	-10.2744
▁വിലയിരുത്തി	-10.2744
▁കാരിക	-10.2745
▁വിജയന്റെ	-10.2748
▁ശരീര	-10.2749
ക്കുള്ളില്‍	-10.275
▁ക്രമ	-10.2761
▁വെച്ചു	-10.2763
▁അഭി	-10.2763
▁പാകിസ്താന്‍	-10.2763
പ്പു	-10.2764
ിറങ്ങിയ	-10.2764
▁കത്തി	-10.2765
▁യൂണിവേഴ്	-10.2766
▁കയറ്റുമതി	-10.2766
▁ബ്രാഞ്ച്	-10.2767
▁മാലിന്യ	-10.2767
▁കോന്നി	-10.2768
െടുക്കുന്ന	-10.277
▁ഹരീഷ്	-10.2777
▁ഭാഗ	-10.2779
▁കര്‍	-10.2782
▁സ്വീകരിക്കുന്ന	-10.2782
ാമെന്നാണ്	-10.2785
▁രീതിയിലാണ്	-10.2793
ിക്	-10.2794
▁സൈസ്	-10.2795
▁ബ്ര	-10.2799
▁ക്ല	-10.28
▁സുഹൃത്തുക്കള	-10.2801
a	-10.2802
▁ഓഫീസ	-10.2807
▁ഗ്രാമപഞ്ചായത്ത്	-10.2809
▁ഇറാന	-10.2809
▁പിൻവലിക്ക	-10.2815
വാദി	-10.2816
▁എതിര്‍പ്പ	-10.2817
▁തെരഞ്ഞെടുക്ക	-10.2818
ുപോയ	-10.2819
▁സഭയില്‍	-10.282
▁രണ്ടര	-10.2822
ഈ	-10.2826
▁അമ	-10.2828
▁പ്രതിഫലം	-10.2837
▁അഭിപ്രായപ്പെട	-10.2837
ക്കാന	-10.2839
▁സ്വാധീന	-10.2841
▁പഞ്ചാബില്‍	-10.2844
▁സഞ്ചാര	-10.2844
▁മോഹന്‍	-10.2844
▁പൂർത്തിയാക്ക	-10.2845
▁ഹൈക്കമാന്‍ഡ്	-10.2846
g	-10.2847
ഠ	-10.2848
04	-10.285
ക്കുന്നു	-10.2851
▁പേരിലാണ്	-10.2851
▁മത്സരത്തില	-10.2852
കൊടുക്ക	-10.2855
തുമായി	-10.2857
▁കുടുംബത്തിന്റെ	-10.2858
▁വിവരങ്ങളും	-10.2859
▁നാട്ടിലെ	-10.2861
▁തെളിഞ്ഞ	-10.2863
▁അക്രമം	-10.2863
മായിട്ടാണ്	-10.2863
▁ഉപതിരഞ്ഞെടുപ്പ്	-10.2865
89	-10.2866
ിട്ടുണ്ടെന്നാണ്	-10.287
▁വിഭാഗത്തിന്	-10.2876
▁ഉന്നയിക്കുന്ന	-10.2876
▁വിജയിച്ചു	-10.2877
▁വിഭാഗത്തിന്റെ	-10.288
▁അന്വേഷണത്തിന്	-10.2882
▁അധ്യക്ഷത	-10.2884
68	-10.2885
▁വാങ്ങാന്‍	-10.289
▁നേതാവിന്റെ	-10.2892
59	-10.2892
▁ചായ	-10.2893
▁ചോദ്യങ്ങള്‍	-10.2896
▁ആശയ	-10.2899
▁കുറ്റപ്പെടുത്ത	-10.29
▁വീണു	-10.29
▁വീടുകളിലും	-10.2901
ായാലും	-10.2902
▁കൊണ്ടിരിക്കുകയ	-10.2902
▁ഹേമ	-10.2906
▁പുറത്താക്കിയ	-10.2906
▁ലീഗിന്റെ	-10.291
▁ജനവിധി	-10.2915
▁വ്യക്തമായി	-10.2916
ടിച്ച	-10.2918
ിട്ടു	-10.292
▁നിയമങ്ങള്‍	-10.2926
▁ജില്ലകളിലെ	-10.2928
▁ആരുടെ	-10.2931
കേന്ദ്ര	-10.2933
▁ദേശ	-10.2936
▁തർക്ക	-10.2939
▁സീറ്റുകളിൽ	-10.2941
▁ടാസ്	-10.2946
▁ഒരുപോലെ	-10.2949
ിക്കുകയും	-10.2951
▁ക്യാമ്പ	-10.296
▁മെച്ചപ്പെടുത്ത	-10.2965
61	-10.2965
▁സഖ്യത്തിന്	-10.2966
▁പവാര്‍	-10.2966
ാപ	-10.2967
▁ധനകാര്യ	-10.2969
▁പലയിടത്തും	-10.2975
▁പെരു	-10.2975
▁ഘട്ടത്തിൽ	-10.2979
▁ചിങ്ങം	-10.298
▁നിർത്ത	-10.2982
ത്തിലായിരുന്നു	-10.2985
▁സർവേ	-10.2986
മര	-10.2987
ില്ലെങ്കിലും	-10.2989
▁കണക്കാക്ക	-10.299
▁ആനന്ദ്	-10.2993
▁നിര്‍ത്തിയ	-10.2994
യാത്ര	-10.2994
▁ആക്ഷേപം	-10.2997
▁റഷ്യയുടെ	-10.3004
▁തര്‍ക്ക	-10.3006
ഗാ	-10.301
▁സന്ദര്‍ശിച്ച	-10.3013
▁തടയാന്‍	-10.3014
▁നടത്തുന്നു	-10.3016
▁അതിനായി	-10.3017
▁കൊറിയ	-10.3019
▁വിഭാഗത്തിൽ	-10.3019
▁കേസെടുക്ക	-10.3024
▁ആരോഗ്യവകുപ്പ്	-10.3025
▁ഘട്ടം	-10.3028
▁തരത്തില	-10.3029
▁ചിത്രത്തിന്റെ	-10.3032
76	-10.3035
▁ഉളള	-10.3035
ൊപ്പം	-10.3036
▁സംഘവും	-10.304
വരിൽ	-10.3042
▁ആശുപത്രികളിലും	-10.3043
▁വിഷമ	-10.3044
▁പ്രതിഷേധിക്ക	-10.3045
▁ഞങ്ങളെ	-10.3049
▁വരുന്നുണ്ട്	-10.3051
ുണ്ടെങ്കിൽ	-10.3053
▁കാര്യങ്ങളില്‍	-10.3054
▁റണ്‍സ	-10.3059
ർച്ച	-10.3059
▁ഭീകര	-10.306
ാണല്ലോ	-10.3061
വഴി	-10.3062
▁പ്രചാരണത്തിന്	-10.3063
പ്പള്ളി	-10.3065
▁അതോടൊപ്പം	-10.3068
▁ഡിഗ്രി	-10.3068
▁വിക്കറ്റ്	-10.3069
▁വമ്പന്‍	-10.307
▁ഗാന്ധിയും	-10.307
▁നമ്മള	-10.307
▁ചൈനയുടെ	-10.3077
▁മാല	-10.3081
▁ആരിഫ്	-10.3083
▁പത്ത	-10.3083
▁നല്‍കുകയും	-10.3085
കൾക്കും	-10.3087
▁പിന്നില	-10.3088
▁സീറ്റുകള	-10.3088
ക്കുകയായിരുന്നു	-10.3089
▁കരണ	-10.3092
▁എന്തൊക്കെ	-10.3094
▁ഉദ്ധവ്	-10.3094
▁ജലീല്‍	-10.3095
ര്‍ച്ച	-10.3096
▁രോഗി	-10.31
▁ബിരുദ	-10.31
▁സൈ	-10.3102
▁സർക്കാര	-10.3103
▁കോട്ടയത്ത്	-10.3104
▁പരീക്ഷണ	-10.3105
▁വോട്ടിന്റെ	-10.3107
▁സാധിക്കുന്ന	-10.3111
'-	-10.3111
റിന്	-10.3112
▁പ്രവര്‍ത്തകരെ	-10.3116
▁ദക്ഷിണാഫ്രിക്ക	-10.3116
▁ഭരണാധികാരി	-10.3116
▁നിര്‍മിച്ച	-10.3116
▁മജിസ്	-10.3118
72	-10.312
▁തീരത്ത്	-10.3122
▁വാങ്ങുന്ന	-10.3123
നെതിരെ	-10.3124
▁സ്ത്രീകളും	-10.3124
▁വർഗീയ	-10.3125
▁തസ്തിക	-10.3127
▁പബ്ലിക്	-10.3129
▁പുസ്തക	-10.313
▁സംസാരിക്കുകയ	-10.3131
▁68	-10.314
▁ഓഫീസിൽ	-10.314
▁അടിക്ക	-10.3141
ുണ്ടാക്കിയ	-10.3143
▁സിപിഎമ്മിന്	-10.3146
▁ഓണ	-10.3147
▁ജനത	-10.3151
▁പരിപാടികള	-10.3152
മാസ	-10.3152
S	-10.3152
▁മറുപടിയുമായി	-10.3155
82	-10.3157
▁ഘടക	-10.3165
▁റെക്കോര്‍ഡ്	-10.3165
-1	-10.3167
▁മണിക്കൂർ	-10.3167
▁ചേര്‍ത്ത	-10.3168
57	-10.3169
▁ന്യായ	-10.3169
▁ദേ	-10.3172
▁ഉറപ്പ	-10.3176
▁ജെഡിയു	-10.3177
ാണെങ്കിലും	-10.3178
ിലൂടെയാണ്	-10.3179
▁ട്രംപിന്റെ	-10.3179
58	-10.3179
ൻസി	-10.318
▁ഉറപ്പു	-10.3181
ക്കം	-10.3188
ോണ്‍	-10.3188
▁തട്ട	-10.3189
▁വകുപ്പുകള്‍	-10.3189
▁അംഗങ്ങള	-10.3192
▁ദീപ	-10.3192
▁അന്വേഷണത്തില്‍	-10.3194
▁ഫോർ	-10.3194
▁അതിലൂടെ	-10.3194
ര്‍ക്ക	-10.3199
ുമില്ല	-10.3201
പരമായി	-10.3202
▁മരുന്ന	-10.3202
▁പാകിസ്താന	-10.3202
▁ഐശ്വര്യ	-10.3203
പ്പോയ	-10.3203
ിന്റേയും	-10.3204
▁ഇന്ത്യക്ക്	-10.3205
▁ഹാജരാക	-10.3208
േക്കാൾ	-10.3211
▁ജയില്‍	-10.3213
▁തിരഞ്ഞെടുത്ത	-10.3213
▁94	-10.3217
▁സംവരണം	-10.3218
▁കുടുംബശ്രീ	-10.322
▁പ്ലാന	-10.322
▁പോളിങ്	-10.3221
▁മത്സ്യത്തൊഴിലാള	-10.3221
▁കിട്ടി	-10.3221
ായും	-10.3221
▁വികാരം	-10.3223
▁പിടിക്കാന്‍	-10.3225
▁താരതമ്യം	-10.3225
98	-10.3227
വന്ന	-10.3227
▁പരിശോധിച്ചത്	-10.3228
▁ആഗ്രഹിച്ച	-10.323
▁മറക്ക	-10.3232
▁കൈമാറിയ	-10.3234
▁കാലയളവില്‍	-10.3238
▁സ്റ്റേഷന്‍	-10.3239
ഞ്ച്	-10.324
▁പുതു	-10.324
ിലേറെ	-10.3241
▁തൊട്ട്	-10.3245
▁ഏര്‍പ്പെടുത്ത	-10.325
▁ഗ്ര	-10.3252
കുന്ന	-10.3252
ബെ	-10.3253
വെന്ന്	-10.3257
r	-10.3261
▁പ്രസ്	-10.3265
85	-10.3265
▁മഴയ്ക്ക	-10.3266
▁സുഖ	-10.3267
▁ഒഡീഷ	-10.327
▁പ്രക്രിയ	-10.3271
▁ക്രൂഡ്	-10.3272
▁അടങ്ങിയ	-10.3272
▁ഞെട്ടിച്ച	-10.3273
▁നിലനിര്‍ത്ത	-10.3275
▁ഓട	-10.3279
െടുത്ത്	-10.3283
▁പെട്രോള്‍	-10.3283
55	-10.3285
▁ഉദ്യോഗസ്ഥരുടെ	-10.3288
▁64	-10.3293
യിട	-10.3294
▁മരിക്ക	-10.3298
വിൽ	-10.33
▁സന്നദ്ധ	-10.3301
▁ആത്മ	-10.3303
ണ്	-10.3306
▁സാഹചര്യങ്ങള	-10.3306
▁അതിശക്തമായ	-10.3306
▁ഇപി	-10.3308
74	-10.3308
▁12,	-10.3313
▁സിദ്ദു	-10.3319
▁സെറീന	-10.3322
▁കുത്തനെ	-10.3323
▁തുടങ്ങ	-10.3325
▁വോട്ടുകള	-10.3326
▁അവിശ്വാസ	-10.3327
▁മാള	-10.3327
64	-10.333
ദേശ	-10.3334
▁ജയരാജൻ	-10.3334
36	-10.3334
▁ഹൈദരാബാദ്	-10.3335
▁ന്റെ	-10.3339
▁സംഘർഷ	-10.334
കളിലെ	-10.3341
▁പിന്‍വലിച്ച	-10.3342
▁അപകടത്തിൽ	-10.3342
▁ചെലുത്ത	-10.3346
▁സഹകരിക്ക	-10.3349
▁ദിനത്തില്‍	-10.3351
▁മാനദണ്ഡങ്ങള്‍	-10.3351
ക്രമ	-10.3353
▁കൊടുത്തു	-10.3354
റുടെ	-10.3354
▁അവകാശം	-10.3356
▁നാഥ്	-10.3356
ുന്നുവെന്നും	-10.3358
▁കാറ്റ	-10.3361
▁വസ്തുത	-10.3362
ക്കുട്ടി	-10.3363
▁കാത്തിരിക്കുന്ന	-10.3367
▁കടത്ത	-10.337
ങ്ങളുമായി	-10.3372
▁അജ	-10.3374
▁താപനില	-10.3374
▁സ്വഭാവ	-10.3375
▁പ്രവര്‍ത്തക	-10.3377
▁തരത്തില്‍	-10.3387
▁തുടർന്ന	-10.3387
പിടിച്ച	-10.3387
▁മേഖലകളിൽ	-10.3388
▁പൊലീസിന്റെ	-10.3389
▁തടഞ്ഞ	-10.339
▁അച്ചടക്ക	-10.3391
▁കാപ്പന്‍	-10.3392
▁മരണപ്പെട്ട	-10.3393
▁ബോംബ്	-10.3393
▁കര്‍ഷകരുടെ	-10.3393
▁74	-10.3396
▁കട്ട	-10.3397
▁മന്ത്രിസഭാ	-10.3401
▁സിനിമയിലെ	-10.3402
രിക്ക	-10.3407
▁അമേരിക്കയില്‍	-10.3413
▁സൗ	-10.342
പ്പെട്ട്	-10.342
▁കീ	-10.3422
▁മേൽ	-10.3423
▁മരണത്തിന്	-10.3423
▁വലുത	-10.3425
▁പ്രസിദ്ധീകരിച്ച	-10.3426
▁ഉത്തര്‍പ്രദേശില	-10.3426
▁മൂന്നാമത്തെ	-10.3426
▁എല്‍ഡിഎഫിന്	-10.3428
▁ഇവർക്ക്	-10.3431
▁കരിക്ക	-10.3431
ലിന്	-10.3435
▁അഭിനയ	-10.3437
▁സ്റ്റാഫ്	-10.3438
26	-10.3443
▁കമല	-10.3443
▁കമല്‍നാഥ്	-10.3445
▁വക	-10.3445
▁തിരിച്ചടിയാണ്	-10.3449
▁അഭിമുഖത്തില്‍	-10.3452
വിധ	-10.3454
41	-10.3456
▁പരാജയ	-10.3457
തായ	-10.3457
▁ചര്‍ച്ചയില്‍	-10.3458
▁ടീമ	-10.3461
▁ക്രിക്കറ്റ	-10.3462
ണ്ഡ	-10.3466
▁പറ്റില്ല	-10.3467
ക്കൂട്ട	-10.347
ക്കിടയിൽ	-10.3471
▁എന്താണെന്ന്	-10.3476
▁ഏജൻസി	-10.3476
▁സൗജന്യമായി	-10.3478
▁സ്വദേശികള്‍	-10.3479
▁പരിസ്ഥിതി	-10.3479
▁ശൈലി	-10.3479
ുമോയെന്ന	-10.3485
▁ന്ന്	-10.3485
▁അനുഭവിച്ച	-10.3486
പ്രദേശ	-10.3487
ുകാർ	-10.3489
മാന്‍	-10.3491
▁കീഴിൽ	-10.3492
യൊന്നും	-10.3495
▁അറ്റ	-10.3498
▁ചെയ്താല്‍	-10.3499
യാള	-10.35
▁അയ്യപ്പ	-10.35
▁നേര	-10.35
▁ഉയർത്ത	-10.3501
ോള	-10.3502
▁ഇടയില്‍	-10.3502
▁ഗാസ	-10.3503
പോക	-10.3509
70	-10.351
▁പരാതിയിൽ	-10.3512
കഴിഞ്ഞ	-10.3517
പക്ഷ	-10.3518
▁ഏഴ	-10.3519
വാള	-10.352
▁ഇന്‍സ്	-10.352
▁തുടരുന്നു	-10.3521
▁സ്വീകരിക്കും	-10.3522
ാവസ്ഥ	-10.3531
▁നിർമ്മാണ	-10.3534
..?	-10.3535
08	-10.3543
▁മറിച്ച്	-10.3545
▁ഉള്‍പ്പെടുന്ന	-10.3546
▁വികാര	-10.3547
▁ഉയര്‍ന്നിരുന്നു	-10.3547
▁ഉയർത്തിയ	-10.3548
ദിന	-10.3555
▁ലാല്‍	-10.3555
യാണ	-10.3556
▁ലാഭ	-10.3558
▁ഉയര്‍ത്ത	-10.3559
▁ബിന്‍	-10.3562
80	-10.3565
റ്	-10.3569
ണ്ടി	-10.3571
11	-10.3572
ാകുന്ന	-10.3572
▁കേൾക്ക	-10.3574
▁മുസ്	-10.3575
▁ഉണ്ടായിട്ടില്ല	-10.3578
▁കർഷകർ	-10.3579
▁രാജിവച്ച	-10.358
ന്നി	-10.3583
▁എന്നിരുന്നാലും	-10.3585
▁ട്വന്റി	-10.3588
ിള	-10.3588
▁ക്രിമിനല്‍	-10.359
▁ആരാധകർ	-10.3591
▁ഉള്‍പ്പെടുത്ത	-10.3592
▁സ്റ്റേഷനുകള	-10.3594
▁രക്ഷാ	-10.3597
▁കേസുകളുടെ	-10.3598
▁താക്കറെ	-10.3598
ീയ	-10.36
▁സംഖ്യ	-10.36
ാകെ	-10.3601
79	-10.3605
▁പീ	-10.3605
▁വനംവകുപ്പ്	-10.3606
തുപോലെ	-10.3607
▁ദിലീപിനെ	-10.3609
▁പിടിച്ചെടുക്ക	-10.361
▁വാട്	-10.3611
▁എംഎം	-10.3614
പോലെ	-10.3616
▁വീണ്	-10.3619
▁തനിക്കെതിരെ	-10.3619
▁ഏതു	-10.362
▁തിയതി	-10.3621
േക്കാള്‍	-10.3626
▁റെയില്‍	-10.3638
▁മരണമടഞ്ഞ	-10.3638
▁റോബിൻ	-10.3638
▁ആവര്‍ത്തിക്ക	-10.3638
▁രക്ഷാപ്രവര്‍ത്ത	-10.3639
▁കൂട്ടായ്മ	-10.3639
▁കരുതുന്ന	-10.364
▁സ്പ	-10.3642
▁ആളുകള്‍ക്ക്	-10.3642
▁ആലോചന	-10.3642
▁പച്ച	-10.3642
▁അടച്ചിട	-10.3645
ക്കൊണ്ട	-10.3649
▁400	-10.3649
▁ഇടപെട്ട്	-10.3649
ജു	-10.3651
▁നീക്കങ്ങള്‍	-10.3652
▁പേരുടെയും	-10.3654
▁പെന്‍ഷന്‍	-10.3656
▁കേന്ദ്രത്തിന്റെ	-10.3657
▁തിരഞ്ഞെടുപ്പിനെ	-10.3658
▁തവണയും	-10.3661
▁മുന്നില	-10.3661
▁തിര	-10.3663
▁സ്റ്റേഷനില്‍	-10.3664
▁ദിവസങ്ങള്‍	-10.3665
▁രാജ്യത്തിന്	-10.3666
പ്പെട്ടിരുന്നു	-10.3672
▁69	-10.3675
▁ഏരിയ	-10.3678
▁നിരോധനം	-10.3685
ുന്നതായി	-10.3686
ാതിരിക്ക	-10.3689
▁പ്രവർത്തനങ്ങള	-10.369
▁ജൂലായ	-10.3692
▁സംവരണ	-10.3695
▁മണ	-10.3696
ബ്ര	-10.3697
▁ദശലക്ഷം	-10.3697
▁കറ	-10.3697
▁നദ്ദ	-10.3697
▁ആസാദ്	-10.3698
▁പത്താം	-10.3699
▁നേരം	-10.3702
തുമാണ്	-10.3702
▁77	-10.3702
മായാണ്	-10.3703
▁ഫ്ര	-10.3703
▁ദൗത്യ	-10.3703
ഇന്ത്യ	-10.3708
▁വിലയിരുത്തപ്പെട	-10.3712
▁നടന്നിരുന്നു	-10.3715
തിലൂടെ	-10.3719
▁താല്‍പര്യം	-10.372
▁അഭിമുഖം	-10.3722
▁വന	-10.3722
▁എന്നിവർക്ക	-10.3722
ോപ	-10.3723
ടാ	-10.3725
മാണെന്ന	-10.3727
91	-10.373
▁സ്ത്രീകളുടെ	-10.3732
▁നല്‍കുമെന്ന	-10.3736
▁മുകളിലുള്ള	-10.3742
▁ആരോ	-10.3743
▁ഡ്രൈവർ	-10.3743
▁ബഹിരാകാശ	-10.3746
▁ശുപാര്‍ശ	-10.3746
▁അഭിഭാഷകന്‍	-10.375
തിലും	-10.3754
▁ഇതൊന്നും	-10.3755
▁ചടങ്ങിൽ	-10.3757
..!	-10.3758
▁ബിജെപിയിലേക്ക്	-10.3759
▁സംഭവങ്ങള	-10.376
▁മറിച്ച	-10.3764
▁ലക്ഷത്തോള	-10.3764
n	-10.3765
ശ്രീ	-10.3765
യോടും	-10.3771
▁സിക്	-10.3777
▁ദിവസത്തിനുള്ള	-10.3777
▁ബാലചന്ദ്ര	-10.378
▁വായിച്ച	-10.3783
▁എത്തിച്ചത്	-10.3794
▁നിര്‍ദേശങ്ങള്‍	-10.3795
യന്‍	-10.3797
▁വിലയില്‍	-10.3797
▁എറണാകുളത്ത്	-10.3798
▁പൊതുമരാമത്ത്	-10.3801
▁വാണിജ്യ	-10.3801
▁സെക്യൂരിറ്റി	-10.3801
▁പരാജയം	-10.3801
▁ഇരയായ	-10.3804
▁തര്‍ക്കം	-10.3804
ക്കൊ	-10.3807
y	-10.3812
▁ആഘോഷിക്ക	-10.3812
▁നോക്കാം	-10.3813
E	-10.3817
▁കൂട്ടം	-10.3817
ക്കൊണ്ട്	-10.3819
▁66	-10.3819
▁വണ്‍	-10.3823
▁നടപ്പാക്കിയ	-10.3823
▁മൈ	-10.3824
▁പറയുന്നത	-10.3824
▁മാര്‍ഗ	-10.3827
▁അതോ	-10.3835
▁നഷ്ടപ്പെട	-10.3837
▁പറയുകയും	-10.3842
▁ഉറപ്പിക്ക	-10.3846
▁ഓടെ	-10.3847
▁മത്സരിക്കുമെന്ന	-10.3847
േല്‍	-10.3849
▁ഉമ	-10.3852
ഞ്ജ	-10.3853
▁ഉണ്ടെന്നും	-10.3854
▁കളമശ്ശേരി	-10.3855
▁പുലർച്ചെ	-10.3855
▁പ്രചരിപ്പിച്ച	-10.3855
▁യൂണിറ്റ്	-10.3856
▁ഒഴിയ	-10.3856
▁യുവജന	-10.3857
െയ്	-10.3858
▁നിവാരണ	-10.3859
▁രംഗത്തെത്തിയത്	-10.3863
▁വിചാരിച്ച	-10.3865
▁പ്ലേ	-10.3866
▁ചികിത്സയിൽ	-10.3869
▁വിരാട്	-10.387
▁കാര്യമില്ല	-10.3873
▁വകുപ്പ	-10.3875
▁ശ്രമങ്ങള്‍	-10.3877
പരി	-10.3879
▁കാരി	-10.3881
▁കോൺഗ്രസും	-10.3882
51	-10.3885
▁ഒറ്റയ്ക്ക്	-10.3886
▁എട്ട	-10.3891
ാസ	-10.3893
▁കോവിഡ	-10.3893
▁തടഞ്ഞു	-10.3897
▁സമീപത്തെ	-10.3901
തിനേക്കാള്‍	-10.3901
▁ലക്ഷദ്വീപ്	-10.3902
▁ഉന്നയിച്ചത്	-10.3903
▁കൗ	-10.3903
▁ഇല്ലാതാക്ക	-10.3905
ന്‍ഡ്	-10.3907
▁സമാജ്	-10.391
▁യെഡിയൂരപ്പ	-10.391
▁കാഞ്ഞിരപ്പള്ളി	-10.391
▁ജോഷി	-10.3913
▁ഡല്‍ഹിയില്‍	-10.3914
ത്തിനാണ്	-10.3914
▁തിരു	-10.3918
▁സീറ്റിൽ	-10.3918
▁പങ്കെടുക്കും	-10.3919
▁പറ്റ	-10.3923
▁ട്വിറ്ററില്‍	-10.3925
▁തലസ്ഥാന	-10.3925
▁അയോധ്യ	-10.3927
▁ഡ്രൈവര്‍	-10.3928
▁തുടക്കത്തില്‍	-10.3929
▁അറിയാതെ	-10.3932
▁ഡോക്ടർ	-10.3932
▁പ്രോ	-10.3938
ധന	-10.394
ടക്ക	-10.394
▁ജാമ്യ	-10.3941
▁ഗ്രഹ	-10.3942
▁നമുക്ക	-10.3951
ീർ	-10.3951
▁മുടി	-10.3952
▁സംരക്ഷണം	-10.3952
▁കേരളത്തിലും	-10.3955
ിൻറെ	-10.3958
▁തവണയാണ്	-10.3959
▁പ്രശസ്ത	-10.3959
▁അപ്പോൾ	-10.3961
മാണോ	-10.3964
▁താത്കാലിക	-10.3965
▁അഭയ	-10.3966
▁അബ്ദുള്‍	-10.3967
▁സാറ	-10.3969
▁പിന്തുണച്ച്	-10.397
▁കള	-10.3972
▁എഴുത	-10.3972
▁പൂർണ്ണ	-10.3973
93	-10.3976
▁സംസ്ഥാനങ്ങളിലും	-10.3976
▁ഉയരുന്നത്	-10.3977
▁മുക്തി	-10.3981
▁സംഭവത്തിന്	-10.3982
▁കാത്തിരിക്ക	-10.3982
നിന്ന	-10.3982
▁കത്തില്‍	-10.3983
ായിരുന്നുവെന്നും	-10.3986
ക്കള	-10.3989
ങ്ങ്	-10.3992
▁71	-10.3997
വയ്ക്ക	-10.3998
▁മുതലാണ്	-10.4001
▁സ്വർണം	-10.4006
ൻസ	-10.4009
▁നാഗ	-10.401
▁നോട്ട	-10.401
▁ചെയ്യണമെന്ന്	-10.4012
ലൈ	-10.4014
▁നില്‍ക്കുന്നത്	-10.4015
▁ഉപേക്ഷിക്ക	-10.4019
▁സമ്പദ്	-10.4021
▁തൊടുപുഴ	-10.4021
▁ഇരിട്ടി	-10.4021
▁മാരാർ	-10.4021
▁തലമുറ	-10.4023
▁ശരീരത്ത	-10.4025
▁റ്റി	-10.4039
▁ഖത്തറ	-10.4039
▁വരുമെന്ന്	-10.4045
▁കേന്ദ്രങ്ങള്‍	-10.4046
▁എത്തിക്ക	-10.4047
▁കേരളാ	-10.4058
▁പുലി	-10.406
▁ഇപ്പോഴ	-10.4065
▁സില്‍	-10.4068
▁അനധികൃത	-10.407
▁ചാര	-10.4073
▁സിനും	-10.4075
▁കല്‍പ്പറ്റ	-10.4077
▁പതിനഞ്ച	-10.4077
പ്പുഴ	-10.4079
▁ഡിപ്ലോമ	-10.408
ത്തിലധികം	-10.4081
▁ബോര്‍ഡ	-10.4082
▁വീഡിയോയില്‍	-10.4084
▁കുട്ടികള്‍ക്ക്	-10.4093
▁അമേരിക്കയുടെ	-10.4093
▁സീസണില്‍	-10.4097
▁പോലെയാണ്	-10.4098
▁പരിപാടികള്‍	-10.4099
▁ചെയ്യുകയാണ്	-10.4103
▁ഫണ്ട	-10.4104
▁വാക്കുകള	-10.411
▁സ്ഥിരീകരിച്ചവര	-10.4112
▁ഒഴിവുകള്‍	-10.4112
തെന്നായിരുന്നു	-10.4114
▁ശേഖരിച്ച	-10.412
▁സമീപിച്ചത്	-10.4121
▁പ്രവർത്തി	-10.4122
▁പൂര്‍ത്തിയായ	-10.4127
ങ്ങളെയും	-10.4127
▁മക്കള്‍	-10.4129
നിന്നും	-10.4131
▁അമ്മയെ	-10.4131
വുമ	-10.4132
ക്സ്	-10.4132
കൊ	-10.4133
▁പ്രചരിച്ച	-10.4133
▁പലതവണ	-10.4136
▁സ്കൂള	-10.4136
കളിലൂടെ	-10.4136
▁തന്നോട്	-10.4137
▁ബാധിച്ചു	-10.4139
▁നടക്കാനിരിക്ക	-10.414
▁കുടുംബത്തിലെ	-10.4141
▁സ്ഥിരമായി	-10.4141
▁നില്‍ക്കുകയാണ്	-10.4141
▁നേരിട്ടത്	-10.4142
▁വിമർശന	-10.4144
▁സഞ്ജു	-10.4149
▁അധ്യാപക	-10.415
▁കളയ	-10.4162
▁സര്‍ക്കാരും	-10.4164
▁പിന്തുണയും	-10.4164
▁കുഴി	-10.4169
▁ചേര്‍ന്നാണ്	-10.417
▁സുഹൃത്ത	-10.417
I	-10.417
യ്ക്കാണ്	-10.4171
▁അപമാനിക്ക	-10.4171
പ്പെടും	-10.418
▁തന്ത്രം	-10.4181
▁കാവ്യ	-10.4182
▁വിമർശിച്ച	-10.4185
കരിച്ച	-10.4185
▁സ്ത്രീകൾ	-10.4187
▁ചാലക്കുടി	-10.4189
▁കിട്ടിയത്	-10.419
▁മഹാമാരി	-10.4191
▁99	-10.4196
ുമ്പോഴ	-10.4202
▁വോട്ടെണ്ണല്‍	-10.4204
ുണ്ടാകുന്ന	-10.4206
▁സമ്പത്ത്	-10.4208
▁ചെയ്യേണ്ടത്	-10.421
▁പിന്നിട്ട	-10.421
▁വിമര്‍ശിച്ച	-10.4213
▁വേണമെന്നും	-10.4214
▁റെയ്ഡ്	-10.4216
കളെല്ലാം	-10.4217
▁അവരോട	-10.422
▁ഊ	-10.4221
യാക്കിയ	-10.4222
▁ഇടയിൽ	-10.4224
ിയായ	-10.4224
തിനെതിരെ	-10.4225
28	-10.4229
▁തെക്ക്	-10.4232
ിരുന്നുവെങ്കിലും	-10.4235
ഭരണ	-10.4235
▁വോട്ടു	-10.4237
▁കഞ്ചാവ്	-10.4238
ാത	-10.4238
▁അല്ലാത്ത	-10.4241
ഘട്ട	-10.4241
▁നിയോഗിക്ക	-10.4246
▁സഞ്ചരിക്ക	-10.4248
▁ആദ്യമായാണ്	-10.4251
▁കാലത്തെ	-10.4251
▁കഴുത്ത	-10.4252
യായത്	-10.4252
▁മാർ	-10.4259
▁അവസരങ്ങള	-10.426
▁ജയിലില	-10.4262
▁സന്ദേശ	-10.4262
▁മില്യണ്‍	-10.4265
▁പദ	-10.4267
▁വെടി	-10.427
▁മനസ്സിലാക്ക	-10.427
▁സന്ദര്‍ശിക്ക	-10.427
▁നല്ലത്	-10.4271
▁കാരണമായി	-10.4272
▁യുഡിഎഫിന്റെ	-10.4273
യിലെത്തി	-10.4277
▁ഭീഷണിപ്പെടുത്ത	-10.428
▁നിപ	-10.428
ോടുള്ള	-10.4281
▁സമയമാണ്	-10.4282
▁മേല	-10.4289
▁വരിക	-10.4293
▁നേരിടാന്‍	-10.4298
▁അറിയാത്ത	-10.43
▁കമ്മീഷണര്‍	-10.4303
▁ജാമ്യാപേക്ഷ	-10.4303
▁സൊസൈറ്റി	-10.4303
▁ഫാത്തിമ	-10.4303
▁സൂപ്പർ	-10.4303
▁അപമാനിച്ച	-10.4304
▁പ്പെ	-10.4305
▁വിശദീകരണ	-10.4307
65	-10.4308
കളുടെയും	-10.4308
▁ചാക്കോ	-10.4311
▁ടാറ്റ	-10.4311
▁ഉൾപ്പെട്ട	-10.4313
▁ശ്രദ്ധിക്കണം	-10.4314
▁അനുഭവം	-10.4314
▁മകൾ	-10.4317
▁ജില്ലകളിലാണ്	-10.4318
▁പ്രതീക്ഷയിലാണ്	-10.4318
▁ആശ്വാസ	-10.4318
▁നല്‍കാന	-10.4318
▁നെറ്റ്	-10.4319
അതേസമയം	-10.4323
▁സാധിച്ചിട്ടില്ല	-10.4323
▁പിടികൂടി	-10.4323
േജ്	-10.4326
k	-10.4327
▁ചേരുന്ന	-10.4328
▁ക്യാമ്പ്	-10.4328
പാത	-10.4328
▁കൂടുതലാണ്	-10.4335
87	-10.4336
▁ജില്ലകളിലായി	-10.4338
▁തയ്യാറാവ	-10.4339
▁ആണ	-10.434
▁റൂം	-10.4341
▁നിലനിൽക്കുന്ന	-10.4345
▁മോഡല	-10.435
▁അപേക്ഷിക്ക	-10.4355
▁ചെയ്യുമെന്ന്	-10.4361
▁ഭിന്നത	-10.4361
71	-10.4362
▁സാധിക്കില്ലെന്ന	-10.4362
▁തുടര്‍ന്ന	-10.4363
▁ഡിജിറ്റല്‍	-10.4364
▁ചെയ്യാനും	-10.4367
കളോട്	-10.4372
▁കടല	-10.4373
▁ജയിലിൽ	-10.4376
സബ്	-10.4384
▁സന	-10.4386
▁സ്ഥാപനങ്ങൾ	-10.4386
▁തൊഴിലാളികളുടെ	-10.4389
▁സൈറ്റ	-10.439
ോട്ട്	-10.4391
▁പ്രസിഡന്‍റ്	-10.4395
▁കൊണ്ടുവരാന	-10.4396
▁ഗെലോട്ട്	-10.4396
▁മൊ	-10.4402
ല്ലാ	-10.4403
▁രക്ഷപ്പെട	-10.4403
▁ഇടപെടല	-10.4406
▁രാശിയില്‍	-10.4407
▁ട്വീറ്റ	-10.4408
▁തിരിച്ചുവര	-10.4412
54	-10.4412
▁വിഷയ	-10.4419
▁ഡിവൈഎഫ്ഐ	-10.442
ങ്ങൾക്കും	-10.4421
സേന	-10.4422
▁രോഗമുക്തരായി	-10.4425
▁എതിരായ	-10.4425
▁നേതാക്കളായ	-10.4426
▁അനാവശ്യ	-10.4426
▁ഗസ്റ്റ്	-10.4427
▁www	-10.4427
▁വ്യവസായി	-10.4428
▁നീങ്ങ	-10.4428
▁കുന്ന	-10.443
▁ഫോമ	-10.443
▁ചൂണ്ടിക്കാട്ടിയ	-10.4433
ലില്‍	-10.4434
▁തിരച്ചില്‍	-10.4437
▁താരത്തിന്റെ	-10.4441
▁യുഎഇയില്‍	-10.4443
▁വിശദീകരിക്ക	-10.4451
▁വെട്ട	-10.4453
▁ശ്രമങ്ങൾ	-10.4458
യൂര്‍	-10.4458
▁തുടർച്ചയായി	-10.4461
▁മന്ത്രിമാര്‍	-10.4462
ബന്ധ	-10.4465
▁ശേഷമ	-10.4467
▁എട്ടു	-10.447
▁സമർപ്പിക്ക	-10.447
്യൂ	-10.4472
▁നിരീക്ഷിക്ക	-10.4473
▁അതില	-10.4475
▁വർഷമായി	-10.4476
▁അറ	-10.4476
▁റവന്യൂ	-10.4477
▁സുധാകരന്റെ	-10.4479
ുകൊണ്ടാണ്	-10.4483
ഞ്ഞ്	-10.4483
ക്കാരനായ	-10.4488
▁സൂരജ്	-10.4488
▁പതിവ	-10.4492
യിലേക്കും	-10.4492
▁ആശുപത്രികള	-10.4493
▁സംഭവത്തെ	-10.4493
▁വിള	-10.4495
▁ടീമിന്റെ	-10.4503
ധി	-10.4504
▁എതിര്‍ത്ത	-10.4509
▁ഇരട്ടി	-10.4509
▁കൊണ്ടിരിക്കുന്ന	-10.4511
▁അച്ഛന്‍	-10.4511
▁കോൺഗ്രസ	-10.4513
▁വിശദീകരിച്ചു	-10.4516
▁കേന്ദ്രത്തില്‍	-10.4517
▁ചോദിക്കുന്നത്	-10.4519
കൂട്ട	-10.4524
▁ഇന്ത്യയും	-10.4525
▁സൗകര്യങ്ങള്‍	-10.4526
▁നേതൃത്വത്തിലാണ്	-10.4532
▁മൂവാറ്റുപുഴ	-10.4535
▁നിഗമനം	-10.4535
▁നിര്‍മ്മിക്ക	-10.4535
▁നിയമങ്ങൾ	-10.4536
38	-10.4536
▁ബജറ്റ	-10.4539
▁ഭൂരിപക്ഷത്തില	-10.454
കാലത്ത്	-10.4541
▁കൈവശം	-10.4542
▁നിരോധിച്ച	-10.4545
ക്കര്‍	-10.4546
▁പരിപാടിയിൽ	-10.4546
▁വ്	-10.4547
റായി	-10.455
ീസ	-10.455
▁ഈടാക്ക	-10.4555
▁നിര്‍	-10.4558
▁സർട്ടിഫിക്കറ്റ്	-10.4559
▁സിംഗ	-10.4561
ക്കറ	-10.4561
▁സ്ഥാനാര്‍ത്ഥിയെ	-10.4563
ിക്കുകയായിരുന്നു	-10.4564
വൻ	-10.4568
▁ദിവസങ്ങളില	-10.4575
▁ശിശു	-10.4576
▁പറഞ്ഞാൽ	-10.4583
▁ചെയ്തിരുന്ന	-10.4584
▁ഭാഗമായാണ്	-10.4591
▁മാത്രമായി	-10.4594
▁ചെലവഴിക്ക	-10.4594
▁ഉയർത്തി	-10.4596
▁വർധിപ്പിക്ക	-10.4596
ിരിക്കുകയാണെന്ന	-10.4599
രിക	-10.4601
േശ്വര	-10.4601
▁കൗണ്‍സില	-10.4601
▁വെള്ളി	-10.4602
ത്തേയും	-10.4606
▁പ്രവര്‍ത്തകര	-10.4606
▁ഭയം	-10.4606
▁കമ്പനികള	-10.4607
▁ആഗ്രഹ	-10.4608
ല്ലൂര്‍	-10.4615
14	-10.4616
▁തോട്ട	-10.4616
▁ഔട്ട്	-10.4617
ത്തന്നെ	-10.462
▁ഇടവം	-10.4622
▁83	-10.4623
▁അവതാരക	-10.4625
▁തന്നെയായിരുന്നു	-10.4628
▁സജീവമായ	-10.4632
▁കുടുംബത്തെ	-10.4634
▁ചാടി	-10.4634
▁തൃണമൂല	-10.4636
▁ഒരാളാണ്	-10.4636
▁അത്യാവശ്യ	-10.4644
േക്കുള്ള	-10.4645
▁ലോകകപ്പ്	-10.4646
▁കോണ്‍ഗ്രസ	-10.4647
▁ഒരാള	-10.4651
▁റിയാദ്	-10.4653
▁ഹെല്‍ത്ത്	-10.4653
▁ഉച്ചകോടി	-10.4653
▁വളരെയധിക	-10.4655
ർമ	-10.466
▁പുറത്ത	-10.466
▁കുവൈത്ത്	-10.4661
▁ആലോചിച്ച	-10.4663
▁പരാതിക്കാരി	-10.4663
▁വൈറല്‍	-10.4663
ീഷ്	-10.4664
െക്കുറിച്ച്	-10.4665
▁ഹിജാബ്	-10.4666
▁ഏജന്‍സികള്‍	-10.4667
▁ലൈൻ	-10.4667
▁രംഗത്തെ	-10.4667
▁ടീമിനെ	-10.4668
ിക്കും	-10.4668
▁ദാ	-10.4668
ചാ	-10.4669
▁ഓണം	-10.4671
▁കണ്ടെത്താൻ	-10.4672
▁അരുണ്‍	-10.4673
▁നെഞ്ച	-10.4678
ര്‍ജ	-10.4678
▁ക്യാപ്റ്റന്‍	-10.468
▁മറു	-10.4681
▁സമയത്താണ്	-10.4682
▁ക്ഷേത്രം	-10.4685
പ്രതി	-10.4688
▁ലിം	-10.4688
▁പൊടി	-10.4704
▁ക്ഷമ	-10.4706
▁കുറ്റപത്രം	-10.4713
▁ഒരിക്കൽ	-10.4713
▁പ്രത്യക്ഷ	-10.4715
▁ടെസ്റ്റ	-10.4719
▁കെട്ട	-10.4719
▁ബ്രിട്ടന	-10.472
▁കുടുംബവും	-10.4721
▁വയനാട്ടില്‍	-10.4725
▁മധ്യപ്രദേശില്‍	-10.4726
▁പറ്റാത്ത	-10.4731
▁ഇല്ലെന്നും	-10.4733
▁ബഹു	-10.4734
▁തുല്യ	-10.4736
▁കേസുകളും	-10.4737
ോടെയാണ്	-10.474
▁സൈനികര്‍	-10.4742
▁ഒറ്റക്കെട്ടായി	-10.4742
▁റഷ്യൻ	-10.4755
▁വ്യക്തത	-10.4756
▁മണ്ഡലങ്ങളിലും	-10.4761
▁നേതാക്കളുമായി	-10.4762
▁ആവശ്യമുള്ള	-10.4762
▁മന്ത്രാലയത്ത	-10.4763
▁യുഡിഎഫ	-10.4763
▁അംഗങ്ങൾ	-10.4764
▁പരിഹസിച്ച	-10.4764
▁നഗരസഭാ	-10.4765
▁മന്ത്രാലയ	-10.4766
▁ഇരുന്ന	-10.4766
▁അവകാശപ്പെട്ടു	-10.4766
▁പ്രമേയ	-10.4767
ദ്ര	-10.4768
▁തുടക്ക	-10.4769
▁സ്വന്തമാക്ക	-10.4769
▁നിർമ്മിച്ച	-10.4773
▁ബോധ്യപ്പെടുത്ത	-10.4773
▁അവകാശപ്പെടുന്നത	-10.4773
ക്കെതിരെയുള്ള	-10.4775
▁എന്ത	-10.4777
▁കസ്റ്റഡിയിൽ	-10.4779
▁അമ്മയും	-10.478
▁സംസാരിക്കുന്ന	-10.478
▁യാദവ	-10.4781
▁ആശുപത്രികള്‍	-10.4781
ിയാല്‍	-10.4785
▁ഉദ്ദേശിക്കുന്ന	-10.4785
▁ലഭ്യമാക്ക	-10.4785
▁കണക്ക	-10.4786
ുണ്ടായത്	-10.4787
▁റിക്രൂട്ട്	-10.4788
േശ	-10.479
▁ഉറങ്ങ	-10.4791
▁പറ	-10.4791
▁യൂണിറ്റ	-10.4791
T	-10.4795
▁എമ്മ	-10.4795
▁നല്ലൊരു	-10.4797
▁ട്	-10.48
▁മുന്നേറ	-10.48
▁ഇടക്കാല	-10.4801
േക്ക	-10.4803
യിലോ	-10.4803
▁കരുത്ത്	-10.4804
▁കൂളുകള	-10.4805
▁വേട്ടയാട	-10.4808
▁ചിരി	-10.481
ിയും	-10.4813
▁വിശ്വ	-10.4814
▁പച്ചക്കറി	-10.483
▁അലർട്ട്	-10.4832
▁ധനു	-10.4832
യില്ലാതെ	-10.4833
▁റെനീഷ	-10.4833
▁തകർത്ത	-10.4833
▁അവകാശവാദം	-10.4833
▁വിസ്മയ	-10.4834
▁നബി	-10.4842
ാദി	-10.4842
▁ബാറ്റ്	-10.4847
▁വഴക്ക	-10.4847
▁മോശമായ	-10.4848
▁61	-10.4852
M	-10.4855
▁പ്രാ	-10.4855
▁76	-10.4855
ക്കാനാണ്	-10.4859
▁പേരുകള	-10.4863
▁കൈയ്യ	-10.4865
▁മലയാളികള്‍	-10.4868
▁മിഥുനം	-10.4872
▁ചെയ്യുമെന്നും	-10.4878
▁പുരുഷ	-10.4878
▁ജീവനക്കാർ	-10.488
▁മതം	-10.4882
▁തകർന്ന	-10.4888
ശേരി	-10.4889
▁ഏറ്റുമുട്ടല	-10.489
▁ജ്യോതി	-10.489
▁പരമ്പരാഗത	-10.4894
▁ഗ്രാമീണ	-10.4894
▁സെപ്റ്റംബർ	-10.4894
▁പ്രസ്താവനയിൽ	-10.4896
ഥി	-10.4896
▁വോട്ടെടുപ്പ	-10.4897
ച്ഛ	-10.4897
ക്കണം	-10.49
▁നാരായണ	-10.4901
▁അസമ	-10.4905
▁നായിക	-10.491
▁സൂക്ഷിക്ക	-10.4911
▁ഒന്നു	-10.4913
▁കേന്ദ്രങ്ങളില്‍	-10.4915
▁പ്രചരിക്കുന്ന	-10.4916
▁യുഡിഎഫും	-10.4916
ാനാകില്ല	-10.4917
al	-10.4918
▁ജീ	-10.4918
▁പട്ടേല്‍	-10.4918
▁രാമചന്ദ്രന്‍	-10.4919
▁രംഗത്ത	-10.492
▁67	-10.492
▁അന്തരിച്ചു	-10.4921
▁പങ്കെടുത്തത്	-10.4922
▁നഷ്ടപരിഹാരം	-10.4924
▁പറഞ്ഞിട്ടുണ്ട്	-10.4924
▁പിടിച്ചത്	-10.4926
▁ഇത്തവണത്തെ	-10.4928
▁പ്രതിഷേധിച്ച	-10.4929
വാര	-10.4935
▁നഗരത്തിലെ	-10.4939
▁മുന്നേറ്റ	-10.4944
▁കേട്ട്	-10.4946
ുകൊണ്ടിരിക്കുന്ന	-10.4948
▁പത്തു	-10.4948
▁പൂർണ്ണമായ	-10.4949
▁വായിക്ക	-10.4954
▁ഉള്‍പ്പടേയുള്ള	-10.4955
യോടെയാണ്	-10.4957
▁പ്രതിഷേധിച്ച്	-10.4958
▁രക്ഷിക്ക	-10.4958
▁ചികിത്സയില	-10.4961
▁എട്ടാം	-10.4962
▁പ്രവചിക്കുന്നത്	-10.4962
▁ഇറക്കിയ	-10.4963
▁ഉമ്മൻ	-10.4969
▁റാവു	-10.4972
▁പൊളിക്ക	-10.4973
▁പറയണം	-10.4973
▁ഉപയോഗ	-10.4974
▁ഏർപ്പെടുത്ത	-10.4975
▁രണ്ടാഴ്ച	-10.4986
▁അട	-10.4989
ുണ്ടാക	-10.4989
▁വീട്ടില	-10.4989
▁അധ്യക്ഷനായ	-10.4994
ച്	-10.4996
▁ഒരാള്‍ക്ക്	-10.4999
▁നൽകണമെന്ന	-10.5002
▁78	-10.5003
ചെ	-10.5006
മ്പി	-10.5007
ാഴ്ച	-10.5008
മാർക്ക്	-10.5011
മുണ്ടായിരുന്നു	-10.5012
▁ബ്യൂറോ	-10.5016
▁ചടങ്ങ്	-10.5017
▁മേയർ	-10.5018
▁കൂട്ടിയ	-10.502
▁രേഖപ്പെടുത്തിയത	-10.502
69	-10.5022
മുനിസിപ്പാലിറ്റി	-10.5023
▁അതൊക്കെ	-10.5024
▁2006	-10.5024
▁ചേര്‍ക്ക	-10.5026
▁ഉദ്യോഗസ്ഥന്‍	-10.5028
ിലേയ്ക്ക്	-10.5029
▁കയറ്റി	-10.5029
▁ഒഴിവാക്കാന	-10.5029
▁സിക്യൂട്ടീവ്	-10.5029
▁ഷായുടെ	-10.503
▁അത്ഭുത	-10.5034
▁ചോര	-10.5034
▁മുണ്ട	-10.5036
▁സാധിച്ചത്	-10.5037
▁കമ്മിറ്റിയുടെ	-10.504
ൊന്നുമില്ല	-10.5042
▁13,	-10.5044
▁ആൾ	-10.5046
േന്ദ്ര	-10.5047
▁ദിലീപിന്	-10.5048
▁അനുഭവപ്പെട്ട	-10.505
▁ദേവി	-10.5051
ിയാണ്	-10.5054
▁കടം	-10.5055
▁പാര്‍ട്ടിയിലെ	-10.5057
13	-10.5057
ുന്നതോടെ	-10.5058
▁നമ്മളെ	-10.5058
▁ഇടപാട	-10.5059
▁അറിയാന്‍	-10.5065
▁ശക്തമാക്ക	-10.5068
▁ജനിച്ച	-10.5072
▁നിയോജക	-10.5077
f	-10.5077
▁ഉത്തർപ്രദേശ്	-10.5078
▁എൻസിപി	-10.5078
▁മാതൃഭൂമി	-10.5078
▁രാജ്യാന്തര	-10.5078
▁ആവിഷ്	-10.508
▁വാക്ക	-10.508
▁അതോടെ	-10.5081
▁കൈവിട്ട	-10.5082
ബോധ	-10.5084
▁മത്സരിച്ചത്	-10.5085
▁തിരഞ്ഞെടുപ്പിലെ	-10.5087
▁വളര	-10.5088
▁ആക്	-10.5088
ൻഡ	-10.5089
▁ഇന്ത്യയിലേക്ക്	-10.509
▁ഐസക്	-10.5091
▁സംബന്ധമായ	-10.5093
▁സെന്ററ	-10.5093
▁പിടികൂടിയ	-10.5093
▁എംകെ	-10.5094
▁ദാസ്	-10.5095
▁ദുബായില്‍	-10.5096
ന്ത്	-10.5099
ുന്നുവെന്ന്	-10.51
ഞ്ചേരി	-10.5104
ങ്ങള്‍ക്കും	-10.5104
▁മുൻപ	-10.5108
▁ചിന്തിച്ച	-10.511
▁റോയ്	-10.5114
▁സംഘത്തിന്റെ	-10.5114
▁ഓഫിസ	-10.5115
▁കൂളില	-10.5118
ട്ടം	-10.5119
▁പ്രസംഗ	-10.512
▁ലീഗിന്	-10.5121
▁ബ്ല	-10.5125
▁സന്ദര്‍ശനം	-10.5129
▁കമ്മ്യൂണിസ്റ്റ്	-10.5131
▁കടുവയെ	-10.5135
▁ബാധിക്ക	-10.5137
ട്ടാ	-10.5138
ല്ലാതെ	-10.5139
▁മുരളി	-10.514
▁വാക്സിനേഷൻ	-10.514
▁പ്ലാറ്റ്	-10.5141
▁അടങ്ങുന്ന	-10.5142
ീവ	-10.5143
▁ഭാര്യയും	-10.5144
▁വസ്ത്ര	-10.5146
▁വന്നതിന്	-10.5146
▁പെഷ്യല്‍	-10.5147
▁മനുഷ്യന	-10.5151
ർമാർ	-10.5152
▁നിരോധന	-10.5152
▁ശാന്ത	-10.5154
▁വകുപ്പിന്	-10.5156
▁മാനേജർ	-10.5157
▁സംവാദ	-10.5157
▁സിവിൽ	-10.5158
▁തൃശ്ശൂര്‍	-10.5162
ക്കെതിരെയും	-10.5162
▁പണവും	-10.5164
▁മുകളില	-10.5166
ടക്കമുള്ള	-10.5168
▁നദി	-10.5169
▁രൂപയ്ക്ക്	-10.5171
▁ലോകകപ്പ	-10.5176
മൂ	-10.518
▁തന്ത്ര	-10.5181
▁പെരുമാറ	-10.5183
▁എന്നുമാണ്	-10.5188
▁തുടര്‍ച്ചയായ	-10.519
▁ഉച്ച	-10.5191
▁ഉദ്യോഗസ്ഥ	-10.5196
▁അറിയപ്പെടുന്ന	-10.5197
▁ചേര്‍ന്നു	-10.5198
▁ചിലപ്പോള്‍	-10.5199
▁നിയമനടപടി	-10.5202
▁മാനന്തവാടി	-10.5202
▁വിരമിച്ച	-10.5202
▁കൗൺസില	-10.5202
▁തീരദേശ	-10.5203
▁സമുദ്ര	-10.5204
▁കേന്ദ്രസർക്കാര	-10.5204
▁സിറ്റിംഗ്	-10.5205
▁അടിത്തറ	-10.5205
തിയ	-10.5205
▁73	-10.5205
▁ദേശീയപാത	-10.5207
▁2013	-10.5211
▁ച്ചു	-10.5213
മയ	-10.5215
▁സിദ്ദിഖ്	-10.5215
ുതന്നെ	-10.5216
▁നേട്ടങ്ങൾ	-10.5217
▁ചാല	-10.5217
ക്കാര്‍ക്ക്	-10.5219
▁തൃശൂരില്‍	-10.5219
▁അടിച്ചു	-10.5224
▁കർ	-10.5224
P	-10.5226
ഭാ	-10.5226
han	-10.5227
▁എത്തിച്ചു	-10.5228
▁പ്രവര്‍ത്തകരും	-10.5232
▁പെണ്‍കുട്ടിയുടെ	-10.5233
▁നേട്ടമുണ്ടാക്ക	-10.5235
▁ഇതിന	-10.5242
▁ചെയ്യുന്നതിന്	-10.5243
▁ഉള്‍പ്പെടുത്തി	-10.5244
▁മുംബൈയില്‍	-10.5245
▁പഞ്ചായത്ത	-10.525
▁മാധവ	-10.525
▁നടപടികളും	-10.5251
▁ചെയ്യേണ്ട	-10.5259
ാളി	-10.5261
മുണ്ടാകും	-10.5263
ദ്യ	-10.5263
▁കത്ത	-10.5264
▁നാദിറ	-10.5265
▁ക്രൈസ്തവ	-10.5266
▁കള്ളപ്പണ	-10.5266
▁അറസ്റ്റിലായത്	-10.5268
▁പരമ്പര	-10.5268
▁ഓർമ്മ	-10.5269
▁വാര്‍ഷിക	-10.527
▁അബ്ദുല്‍	-10.5271
▁പ്രവേശിച്ച	-10.5274
▁ബിൽ	-10.5274
▁ചുമത്ത	-10.5278
▁ഹൈക്കോടതിയില്‍	-10.5278
ിര	-10.528
▁വിലയിരുത്തൽ	-10.5285
▁രാജയോഗം	-10.5286
▁അറിയിപ്പ്	-10.5286
വരോട്	-10.5287
▁ട്രെയിന	-10.5287
▁ഒരുങ്ങുന്നത്	-10.5288
▁ആളെ	-10.5289
▁ചാനലുകള	-10.529
▁താമസിച്ച	-10.529
▁നിർദ്ദേശ	-10.5291
▁മതേതര	-10.5292
▁കുറിച്ചാണ്	-10.5293
▁പുറത്തിറങ്ങ	-10.5295
▁സമാധാനം	-10.5298
▁സമ്മേളന	-10.5299
▁കാരണമാണ്	-10.53
▁മനുഷ്യര	-10.5302
▁ഇരിക്കുന്ന	-10.5303
▁മാറ്റാന്‍	-10.5304
▁ശ്രദ്ധിച്ച	-10.5306
പ്ല	-10.5306
▁ബൂത്തുകള	-10.5308
▁ചോദിച്ചത്	-10.531
തെല്ലാം	-10.5313
▁റാം	-10.5313
▁ലക്ഷ്യത്തോടെ	-10.5318
ഷാ	-10.5319
▁ത്തു	-10.5321
▁വിമാനത്തില്‍	-10.5321
▁കൊണ്ടും	-10.5323
▁ആണ്‍കുട്ടി	-10.5325
▁അധ്യക്ഷനായി	-10.5327
▁മുന്‍കൂര്‍	-10.5328
▁ബിരുദാനന്തര	-10.5329
▁സഹകരിച്ച	-10.5329
▁സച്ചിൻ	-10.5331
▁ഉണ്ടാക്കി	-10.5332
▁വാതക	-10.5334
▁നാടിന്റെ	-10.5335
▁സ്വർണ്ണ	-10.5335
▁2012	-10.5336
▁എത്തിയിട്ടുണ്ട്	-10.5341
▁വിളി	-10.5344
ാഭ	-10.5345
▁നിലപാടിലാണ്	-10.5351
▁യൂണിയന്‍	-10.5353
▁ബീ	-10.5354
▁ബൈക്ക	-10.5356
മുളള	-10.5362
▁ഏതൊക്കെ	-10.5363
കേരള	-10.5363
▁ലു	-10.5366
▁പുറത്തായ	-10.5366
ങ്ങി	-10.5367
▁ഹോട്ടലുകള	-10.5368
▁തളിപ്പറമ്പ്	-10.5369
▁പരിധിയില്‍	-10.5371
▁പറ്റുന്ന	-10.5371
▁വീട്ടിലെത്തി	-10.5371
▁ആരോപണങ്ങൾ	-10.5372
ിലേക്കാണ്	-10.5376
▁ഫ്രീ	-10.5378
▁അട്ടിമറിക്ക	-10.5379
▁തെളിവുകള	-10.5379
▁5000	-10.539
▁സമഗ്ര	-10.539
ുന്നതിനിടെയാണ്	-10.5391
▁വാസ	-10.5391
▁ലൈന	-10.5391
▁കാറില്‍	-10.5391
▁പ്രായപരിധി	-10.5392
▁അമരീന്ദര്‍	-10.5398
▁കേസുകള	-10.5399
▁അതൊരു	-10.5399
പേര	-10.5399
▁ജോർജ	-10.54
പൊ	-10.54
▁ജു	-10.5404
സണ്‍	-10.5406
66	-10.5407
▁ഫോറ	-10.5409
▁വോട്ടര്‍മാര്‍	-10.541
നയ	-10.5413
▁ബീഹാറില്‍	-10.5414
▁ബൂത്ത	-10.5416
▁ലഭിക്കുമെന്നാണ്	-10.5416
ിമ	-10.5419
▁മേള	-10.542
▁ആവശ്യമില്ല	-10.5421
▁പ്രവേശിപ്പിച്ചത	-10.5422
▁നിര്‍മാണം	-10.5424
ത്തിനെ	-10.5429
▁ചോ	-10.5433
മന്‍	-10.5433
▁ഭർത്താവ്	-10.5439
▁സീറ്റുകളും	-10.5443
84	-10.5448
▁തുടർ	-10.5449
▁A	-10.545
▁രാഹുലിന്	-10.5452
▁ഉണ്ടാക്കുന്ന	-10.5452
▁സ്പ്രസ്	-10.5454
▁സ്പീക്കർ	-10.5456
▁കുമ്മനം	-10.5456
▁യെച്ചൂരി	-10.5456
▁വിശ്വസിച്ച	-10.5456
▁മനുഷ്യാവകാശ	-10.5456
▁ദിവ്യ	-10.5457
▁യുക്രൈന്‍	-10.5459
▁82	-10.5461
പാട	-10.5463
▁വല്ല	-10.5463
▁സെല്ല	-10.547
▁കേസെടുത്തത്	-10.547
▁അതൊന്ന	-10.5471
▁മടി	-10.5472
ളള	-10.5472
▁അറസ്റ്റ	-10.5473
വറ	-10.5473
▁പ്രതിരോധം	-10.5477
രിഞ്ഞ	-10.5478
▁പരാതികള്‍	-10.5481
▁റോഡ	-10.5484
യാര്‍	-10.5485
▁വിവാഹത്തിന്	-10.5485
▁പരാമര്‍ശ	-10.5489
▁പ്രദീപ്	-10.5495
▁വിമാനത്താവളം	-10.5497
യുടേത്	-10.5497
▁ജീവന	-10.5498
▁ത്രി	-10.5498
▁കയറ്റ	-10.55
▁കയ്യില	-10.5501
ീറ്റ	-10.5503
▁മത്സരിക്കാന	-10.5503
▁നാസ	-10.5507
31	-10.5507
ാവ്	-10.5509
▁റോള	-10.551
▁പരിഗണിക്കുന്ന	-10.5511
▁സര്‍ക്കാറ	-10.5512
എന്ന	-10.5513
മല്ലാത്ത	-10.5519
▁ഡൊണാള്‍ഡ്	-10.5521
ാവൂ	-10.5521
▁സമീപനം	-10.5523
ൂരില്‍	-10.5527
▁നീള	-10.5527
▁ഏറ്റെടുത്ത്	-10.5528
യുമ	-10.5537
▁ഉണ്ടാവുക	-10.5539
സൂ	-10.554
▁നടത്തണം	-10.554
▁രാജസ്ഥാനില്‍	-10.5544
▁മറിയ	-10.5544
▁പ്രേക്ഷകർ	-10.5548
ോളജി	-10.5548
▁വരില്ല	-10.5549
▁ആസൂത്രണം	-10.5549
▁വാങ്ങിയത്	-10.555
▁ജേക്കബ്	-10.5553
▁തകര്‍ക്ക	-10.5554
▁സൂചിപ്പിച്ച	-10.5555
ലേക്ക്	-10.5557
▁ഗ്രൂപ്പിന്റെ	-10.5558
ക്കാർക്ക്	-10.5559
യുണ്ടായിരുന്നു	-10.5559
▁അംഗത്വം	-10.5563
▁കെവി	-10.5563
▁സന്ദര്‍ശന	-10.5564
▁പ്ല	-10.5565
ച്ചത്	-10.5565
▁മകളെ	-10.5565
▁കലാപം	-10.5567
▁ബൈ	-10.5567
ഡെ	-10.5567
ാട്	-10.5569
▁ഗൃഹ	-10.5574
▁അമ്പ	-10.5575
▁സഹായിക്കുന്ന	-10.5578
▁മൃതദേഹ	-10.5579
▁താമസിക്ക	-10.5581
▁കേരളത്തില	-10.5582
▁നേരിടുന്നത്	-10.5585
▁കേന്ദ്രീകരിക്ക	-10.5586
▁ദക്ഷിണേന്ത്യ	-10.5586
▁കങ്കണ	-10.5586
▁ഭാരതീയ	-10.5586
▁അംഗീകൃത	-10.5586
▁നാട്ടുകാർ	-10.5587
▁സര്‍വീസുകള്‍	-10.5587
▁പുറപ്പെട്ട	-10.5588
▁ചൊവ്വ	-10.5589
▁ആക്രമണത്തില	-10.5589
R	-10.5592
റുകള്‍	-10.5595
▁തസ്തികയിലേക്ക	-10.5601
▁വ്യാപകമായ	-10.5607
▁വ്യത്യസ്തമായ	-10.5608
▁ഉത്തരവിട്ട	-10.561
▁എന്നിവയ	-10.5612
▁ധരിക്ക	-10.5616
ിലുണ്ട്	-10.5619
▁പൂട്ട	-10.562
സര്‍ക്കാരിനെതിരെ	-10.5625
ുകയുമായിരുന്നു	-10.5627
▁സൂചനയാണ്	-10.5628
▁തട്ടിക്കൊണ്ടുപോ	-10.5628
▁മനസ	-10.563
▁അനുബന്ധ	-10.5632
▁തലത്തിൽ	-10.5637
▁പറഞ്ഞിരുന്നത്	-10.5637
ക്കാനും	-10.5638
▁ആശംസ	-10.5641
▁താഴ	-10.5642
▁കുറയുന്ന	-10.5645
▁സിനിമയിൽ	-10.5645
▁അനുവദിച്ചത്	-10.5646
▁സെല്‍	-10.5648
▁ജിയോ	-10.5649
▁പ്രതികള	-10.565
▁അവളുടെ	-10.5653
▁മാസ്റ്റര്‍	-10.5653
▁തോന്നുന്ന	-10.5654
▁ഉണ്ടായിട്ടുണ്ട്	-10.5654
▁ഒഴിവ	-10.5655
▁തീർത്ത	-10.5656
▁ഉൾപ്പെടുന്ന	-10.5659
▁പാലിക്കണം	-10.5659
▁ധി	-10.5663
▁സംഘര്‍ഷം	-10.5663
▁ഗതാഗതം	-10.5663
▁മകനെ	-10.5665
▁വിമര്‍ശന	-10.5666
▁വെച്ചത്	-10.5666
▁പഞ്ചായത്തുകളില	-10.5668
▁മുന്‍പ	-10.5669
▁പ്രോസിക്യൂഷന്‍	-10.5671
▁ബൈക്ക്	-10.5675
▁സമൂഹം	-10.5675
ളം	-10.5677
▁ഇംഗ്ലീഷ്	-10.5678
▁ക്ലിനിക്ക	-10.5679
മുണ്ടായത്	-10.5683
▁തിരഞ്ഞെടുപ്പുകള	-10.5684
▁കാര്യമ	-10.5684
▁ചർച്ചകള	-10.5691
▁14,	-10.5695
കൃത	-10.5703
പാറ	-10.5705
▁ആവശ്യപ്പെടുന്നത	-10.5709
▁അര്‍	-10.5716
▁പരിഹരിച്ച	-10.5717
▁പ്രൈവറ്റ്	-10.5717
▁ഷെയ്ഖ്	-10.5717
▁സമസ്ത	-10.5718
▁ചന്നി	-10.5719
▁ജയിച്ചത്	-10.572
▁സ്വീകരിക്കുന്നത	-10.5722
തെങ്കില്‍	-10.5722
▁റിപ്പബ്ലിക്	-10.5722
യ്ക്കിടെ	-10.5724
▁പാട്ട	-10.5725
െന്നു	-10.5726
ിക്കല്‍	-10.5728
മുണ്ടെന്നും	-10.5731
▁വരാൻ	-10.5733
▁വിപുലമായ	-10.5733
▁ആല	-10.5735
▁മൃതദേഹങ്ങള്‍	-10.5738
▁സൗദിയില്‍	-10.5738
▁അധികാരത്തിൽ	-10.5739
▁നടന്ന്	-10.574
ക്കിട	-10.5741
മാര്‍ക്ക്	-10.5743
▁സ്വന്തമാക്കിയ	-10.5747
▁പോകാന	-10.575
▁ചികിത്സയിലുള്ള	-10.5751
▁എളുപ്പമ	-10.5752
▁വേദിയ	-10.5752
▁ചിത്രമാണ്	-10.5752
ചെയ്ത	-10.5755
ുണ്ടായി	-10.5757
▁വേണ്ടെന്ന്	-10.576
▁ഡിസ്	-10.5769
▁കളഞ്ഞ	-10.5771
ുവിന്റെ	-10.5775
▁കാര്‍ഡ	-10.5776
ബ്ബ	-10.578
▁ഉപയോഗിക്കുന്നത്	-10.5782
▁തിരുമാനം	-10.5783
▁ലോകായുക്ത	-10.5783
▁കേസെടുത്തു	-10.5784
▁സ്ഥലങ്ങളില	-10.5785
▁പ്രതിനിധികള്‍	-10.5787
▁എത്രത്തോളം	-10.5787
▁രോഗികളെ	-10.5788
▁കിഴക്കന്‍	-10.579
An	-10.5791
▁പരിഹസിച്ചു	-10.5793
▁2009	-10.5793
▁കാസർകോട്	-10.5795
▁രൂപയായിരുന്നു	-10.5796
▁പാര്‍ക്ക	-10.5796
യുണ്ടെന്ന്	-10.5797
▁സ്വര്‍ണത്തിന്	-10.5801
▁നന്ദ	-10.5801
▁ഫോണിൽ	-10.5802
▁ജീവിതത്തിലെ	-10.5803
▁എല്‍ഡിഎഫ	-10.5803
▁നശിപ്പിച്ച	-10.5804
▁അസോസിയേഷന്‍	-10.5806
യാള്‍	-10.5809
▁എത്തുമെന്ന	-10.5812
ീകരണ	-10.5815
▁ന്യൂസ	-10.5815
▁ആകെയുള്ള	-10.5816
▁ബെഞ്ച്	-10.5817
▁ബസ്സ	-10.5817
രാണ്	-10.5818
കാലം	-10.5819
▁മുതല	-10.5824
ക്കുമെതിരെ	-10.5826
ുന്നവര്‍	-10.5827
▁അടച്ചിട്ട	-10.5829
ക്കിയ	-10.5832
▁നെല്ല	-10.5833
▁കണ്ണൂരിലെ	-10.5836
▁സംഭവങ്ങള്‍	-10.5836
▁ഇടിച്ച	-10.5837
▁വേണുഗോപാല	-10.584
▁വയല	-10.584
മുണ്ടെന്ന്	-10.5845
▁കമ്മീഷന	-10.5848
▁250	-10.5849
gov	-10.585
▁ബത്തേരി	-10.585
ണമെങ്കിൽ	-10.585
ക്കെല്ലാം	-10.585
▁ഇറക്കി	-10.5851
▁എല്ലാവരെയു	-10.5852
▁സ്റ്റേ	-10.5852
▁പ്രണയം	-10.5852
▁പടി	-10.5854
▁ഉദ്യോഗസ്ഥരും	-10.5854
വം	-10.5854
▁ദീര്‍ഘകാല	-10.5854
▁പങ്ക	-10.5856
▁വര്‍ഷങ്ങളായി	-10.5857
കൊടുത്ത	-10.5857
▁കിട്ടും	-10.5862
▁പുറത്തുവിട	-10.5864
▁ഉൾപ്പെടുത്ത	-10.5865
▁പീഡിപ്പിക്ക	-10.5866
ങ്ങളിലെ	-10.5867
▁മുങ്ങി	-10.5871
ടിച്ച്	-10.5872
34	-10.5874
▁ദിശ	-10.5875
▁സ്ഥിര	-10.588
▁ലിസ്റ്റ്	-10.5882
▁അം	-10.5882
▁ചെക്ക്	-10.5885
▁വിഷ	-10.5885
▁സിഐ	-10.5887
▁ടോ	-10.5888
-3	-10.5888
▁ഇതും	-10.589
സ്റ്റിറ്റ്യൂട്ട്	-10.589
▁120	-10.5892
▁ഉച്ചയോടെ	-10.5892
ഗു	-10.5893
വെന്നാണ്	-10.5895
▁91	-10.5904
▁റോഡില്‍	-10.5906
▁ഫീ	-10.5907
ബു	-10.5908
▁മാന	-10.5908
▁വാഹനങ്ങൾ	-10.5911
▁ചികിത്സയിലാണ്	-10.5913
▁ഭാഗത്ത	-10.5914
ഷണല്‍	-10.5916
▁വിന്യസിച്ച	-10.5917
▁ലഭ്യത	-10.5917
▁ഐപിഎല്‍	-10.5917
▁ബീഹാര്‍	-10.5917
▁പൂര്‍ണ്ണമായും	-10.5917
പ്പെടുത്തി	-10.5919
ത്തോടെയാണ്	-10.5919
▁ഹെഡ്	-10.5924
▁ജീവനക്കാരന	-10.5924
▁വിധം	-10.5924
▁സെഞ്ച്വറി	-10.5925
▁അവകാശപ്പെട്ട	-10.5925
▁ജോൺ	-10.5925
▁ബോഡി	-10.5925
▁ചോദ്യങ്ങൾ	-10.5927
▁ജാഗ്രതാ	-10.5928
▁ശ്രമത്തിലാണ്	-10.5929
▁എക്സിക്യൂട്ടീവ്	-10.5929
▁അണക്കെട്ട	-10.593
▁ചൊല്ലി	-10.593
െന്നുമാണ്	-10.5931
▁തെറ്റി	-10.5931
എസ	-10.5931
▁95	-10.5932
ുവരുന്ന	-10.5938
▁പിടിയിലായ	-10.5939
44	-10.5941
ാംഗ	-10.5944
▁ജ്വല്ലറി	-10.5947
▁സിന്	-10.5949
▁സ്വാഭാവികമായ	-10.5951
യുണ്ടായിരുന്ന	-10.5951
▁പ്രാധാന്യ	-10.5953
▁രക്ഷപ്പെട്ട	-10.5956
▁ഞെട്ടിക്കുന്ന	-10.5956
▁കഴിഞ്ഞത്	-10.5956
▁92	-10.5957
പ്പെടുന്നു	-10.5959
▁എക്സ്പ്രസ്	-10.5959
▁തുടരാന	-10.5963
ക്കെ	-10.5973
വർക്കും	-10.5975
▁ട്രോള	-10.5975
▁കാണാന	-10.5976
▁അംഗമായ	-10.5978
പ്രവര്‍ത്തക	-10.5978
▁നടന	-10.5982
▁അവസരങ്ങള്‍	-10.5983
▁അശ്ലീല	-10.5984
▁ട്രെയിൻ	-10.5985
▁ദ്വീപ	-10.5985
▁ഭാഗ്യലക്ഷ്മി	-10.5985
▁തായ്	-10.5987
▁ടാ	-10.5993
ിടത്തോളം	-10.5994
▁വൈറ്റ്	-10.5995
▁തിരഞ്ഞ	-10.5995
,'	-10.5995
ുകളിലെ	-10.5996
▁ലിമിറ്റഡ്	-10.5998
▁രേഖകൾ	-10.5998
▁നോട്ടീസ	-10.5998
തിരി	-10.6002
▁യോഗത്തിലാണ്	-10.6003
▁ക്രൂരമായി	-10.6006
▁വാര്‍ഡില്‍	-10.6006
▁പ്രൊ	-10.6009
ദ്ദ	-10.601
ാരി	-10.6011
▁എംബി	-10.6013
▁വോ	-10.6014
▁ബന്ധപ്പെട	-10.6016
▁പണിയ	-10.6022
▁ഉപരോധം	-10.6025
▁കയ്യ	-10.6027
▁അതിര്‍ത്തിയില്‍	-10.6027
ശക്തി	-10.6028
മ്പ്	-10.603
▁വിലയിരുത്തുന്നത	-10.6032
▁ഗുരുതരമായി	-10.6034
കൂ	-10.604
▁സ്വര്‍ണക്കടത്ത്	-10.6051
▁നീക്കി	-10.6052
▁വീര	-10.6053
▁പെൻഷൻ	-10.6053
▁റാന്നി	-10.6053
▁ഭാരത	-10.6055
▁എന്നതായിരുന്നു	-10.6058
▁പ്രിന്‍സിപ്പല്‍	-10.6058
▁പൂർത്തിയാക്കിയ	-10.6059
ുണ്ടായിരുന്നത്	-10.6061
▁മകളുടെ	-10.6062
▁ലക്ഷദ്വീപ	-10.6068
ാണെങ്കിൽ	-10.6069
▁സഹിക്ക	-10.6071
▁ആറാം	-10.6072
▁വിശദീകരിച്ച	-10.6075
യോഗം	-10.6075
-2	-10.6082
േറിയ	-10.6082
▁ഘട്ടത്തില	-10.6082
▁പഞ്ചായത്തില്‍	-10.6089
▁വളര്‍ത്ത	-10.609
▁സന്ദർശിച്ച	-10.6091
▁സിറ്റിങ്	-10.6094
▁തമാശ	-10.6094
ാര്‍ത്ഥ	-10.6095
▁കമന്റ	-10.6095
െടുത്തു	-10.6097
▁കാന	-10.6098
പ്പുറ	-10.61
▁നേടുന്ന	-10.61
▁കാര്യമായി	-10.6104
▁സ്ഥാ	-10.6105
▁സാധനങ്ങള്‍	-10.6106
▁അസ	-10.6109
▁മുന്ന	-10.6111
മാകുന്ന	-10.6111
▁ടൈം	-10.6111
▁സ്വാധീനിക്ക	-10.6112
▁അടിയന്തിര	-10.6113
▁നിരക്കില്‍	-10.612
▁എല്ലായിടത്തും	-10.6121
▁വന്നിട്ടില്ല	-10.6122
▁സഹമന്ത്രി	-10.6123
▁പോളി	-10.6125
▁വെസ്റ്റ്	-10.6126
▁വര്‍ധിപ്പിച്ച	-10.6127
യാളെ	-10.6129
▁ദിവസങ്ങള്‍ക്ക	-10.6129
▁പുറത്തുവരുന്ന	-10.613
▁വഹിച്ചു	-10.6134
▁പരാജയപ്പെട്ടു	-10.6138
▁ഒമൈക്രോണ്‍	-10.6139
ോസ്	-10.6139
▁സഹായിക്കും	-10.614
▁നേതാക്കള്‍ക്ക്	-10.614
ജൻ	-10.6143
▁പ്രശ്നങ്ങള്‍	-10.6144
83	-10.6144
▁മികവ	-10.6146
▁എക്സൈസ്	-10.6149
▁പ്രതിനിധികള	-10.6152
▁എന്തിന	-10.6152
▁നീല	-10.6156
▁ആന്ധ്ര	-10.6156
ാർത്ഥ	-10.616
▁മന്ത്രിയും	-10.616
▁പോള	-10.6164
▁സഹായവും	-10.6165
▁രാജിവെക്ക	-10.6166
▁ഹിന്ദുത്വ	-10.6167
കൊണ്ട	-10.6168
▁എംഎല്‍എമാരെ	-10.6169
▁ലൈസന്‍സ്	-10.617
വര്‍ക്കെതിരെ	-10.6172
ിനുള്ളില്‍	-10.6172
▁നമ്പറ	-10.6174
ുകയായിരുന്ന	-10.6181
▁പരിഗണിക്കുന്നത്	-10.6182
▁വകഭേദ	-10.6184
▁കര്‍ണാടകയില്‍	-10.6185
യാണെന്നാണ്	-10.6186
▁ജ്യോതിരാദിത്യ	-10.619
▁ലക്ഷക്കണക്കിന	-10.619
▁ഏറ്റവുമ	-10.619
▁തലവേദന	-10.6191
▁സമ്പർക്ക	-10.6191
wes	-10.6192
▁താനും	-10.6195
▁സാഹിത്യ	-10.6197
▁വിദ്യാർത്ഥികള	-10.6197
▁നല്‍കുന്നു	-10.6202
▁എംപിമാര്‍	-10.6207
▁പ്രസാദ	-10.6207
ിട്ടില്ലെന്നാണ്	-10.6208
▁സ്വദേശിനിയായ	-10.6212
▁നടിയുടെ	-10.6216
വാല	-10.6217
യുമായും	-10.6218
▁96	-10.6219
▁സാമ്പിളുകള്‍	-10.6221
മുണ്ടാക	-10.6223
▁ഡോക്ടറ	-10.6225
▁പരീക്ഷണം	-10.6228
▁ഗവണ്‍മെന്റ്	-10.623
▁മാസത്തില്‍	-10.623
▁വസതി	-10.623
▁ഗുജറാത്തിലെ	-10.6233
ണാ	-10.6234
▁എന്നുളള	-10.6235
▁പ്രതിയുടെ	-10.6237
▁ലൂ	-10.624
▁മാർഗ	-10.6241
ലിൽ	-10.6243
▁84	-10.6244
മില്ലെന്ന്	-10.6246
▁ബിജെപിക്കെതിരെ	-10.6248
താണോ	-10.6249
▁ഡൗൺ	-10.625
▁എടുക്കാന്‍	-10.6254
▁കറുത്ത	-10.6256
നാഥ	-10.6256
▁സുന്ദര	-10.6257
ിരുന്നെങ്കില്‍	-10.6257
▁പന്ത്രണ്ട	-10.6257
▁സ്മൃതി	-10.6259
▁പെട്രോൾ	-10.626
ക്കാല	-10.626
▁രാജസ്ഥാനിലെ	-10.6261
▁ഫുഡ്	-10.6261
▁എറിഞ്ഞ	-10.6262
റിയാം	-10.6262
▁പ്രി	-10.6265
▁പരീക്ഷാ	-10.6268
▁സൈറ്റ്	-10.6273
▁യുപിഎ	-10.6274
▁പുര	-10.6275
▁മോഷണ	-10.6275
▁ഗോവിന്ദന്‍	-10.6276
▁ഗൗരവ	-10.6277
▁കണ്ണൂരിൽ	-10.6277
▁മരിച്ചവരുടെ	-10.6277
മാൻ	-10.6278
▁എസ	-10.628
▁ക്യാപ്റ്റന	-10.6282
▁കെട്ടിടം	-10.6283
▁പൂച്ച	-10.6283
▁തയ്യാറാണ്	-10.6286
▁കുട്ടികൾക്ക	-10.6287
▁പദ്ധതിയില്‍	-10.6288
കളായി	-10.6289
കേ	-10.6295
▁ക്കി	-10.6297
▁അകത്ത്	-10.6297
▁ഡേ	-10.6302
▁ബാബ	-10.6303
▁തുടങ്ങും	-10.6304
പ്പോയി	-10.6306
▁അതിവേഗം	-10.6309
മറ	-10.6311
▁പൊട്ടിത്തെറി	-10.6311
▁ഓഡിയോ	-10.6313
ാതിരുന്നത്	-10.6313
സ്ട്ര	-10.6316
▁വിജയിക്കാന്‍	-10.6317
▁കഴിഞ്ഞില്ല	-10.6326
▁സൂപ്രണ്ട്	-10.6327
▁വർധിച്ച	-10.6327
ൊന്ന്	-10.6329
▁ഒഴിപ്പിക്ക	-10.6329
▁മെച്ചപ്പെട്ട	-10.6329
▁പിന്നാക്ക	-10.633
ിയില്‍	-10.633
▁രാഹുലിനെ	-10.6331
▁തിരക്കഥ	-10.6332
▁നവകേരള	-10.6333
ത്തം	-10.6335
ഫല	-10.6335
ഫീ	-10.6337
▁നോക്കൂ	-10.6339
▁വിറ്റ	-10.634
▁പൊതുവെ	-10.634
ാഹ	-10.6344
▁മിസ്	-10.6344
▁പോവുകയാണ്	-10.6345
▁യുടെ	-10.635
▁സണ്‍	-10.6353
▁സാന്നിധ്യമ	-10.6353
▁സമ്മേളനത്തിൽ	-10.6355
രഹിത	-10.6355
▁ആണെന്ന	-10.6356
▁ഉപയോഗപ്പെടുത്ത	-10.6358
സമിതി	-10.6358
ാനായിരുന്നു	-10.6359
▁കോൺഗ്രസിനെ	-10.6364
▁മോഹ	-10.6366
▁മീന	-10.6366
മാസം	-10.6366
▁അടിസ്ഥാനമാക്കി	-10.6367
ികളുടെ	-10.6367
▁അറസ്റ്റില്‍	-10.6367
ട്ടോ	-10.6367
▁നഗരത്തില്‍	-10.6368
▁പിയും	-10.637
▁ചേർത്ത	-10.637
▁വിധ	-10.6373
▁വ്യ	-10.6374
▁കച്ചവട	-10.6375
യാന	-10.6378
യാട്	-10.638
ശാ	-10.6383
▁സോണ	-10.6383
▁പാലിച്ച്	-10.6384
▁ഭാഗമാക	-10.6384
▁നേട്ട	-10.6388
സൈ	-10.6393
▁ആദിത്യനാഥ്	-10.6394
▁ആയുധ	-10.6394
ിരുന്നുവെന്ന്	-10.6395
കുറ	-10.6396
▁തൃപ്പൂണിത്തുറ	-10.64
▁വിൽപ്പന	-10.64
▁പുള്ളി	-10.64
▁ചേച്ചി	-10.64
▁ഒഴുക്ക	-10.6402
▁കരുത	-10.6403
▁ലഭ്യമാണ്	-10.6404
▁ഴി	-10.6408
▁തട്ടിയെടുത്ത	-10.6412
മാണെന്നാണ്	-10.6415
▁കൊച്ചിയിലെ	-10.6415
▁രോഗവ്യാപനം	-10.6415
▁വിഭജന	-10.642
▁S	-10.6421
▁മധു	-10.6424
▁ഗുണ	-10.6426
▁ധനസഹായം	-10.6428
നത്തില്‍	-10.6428
▁ദിവസത്തേക്ക്	-10.6429
▁പിടിയിലായത്	-10.6429
▁തെളിയിച്ച	-10.6433
വല്‍	-10.6434
▁മാര്‍ക്കറ്റ	-10.6437
▁വിളിച്ചത്	-10.6443
▁ബേ	-10.6444
▁പ്രവര്‍ത്തകരുടെ	-10.6445
▁വിദ്യാര്‍ഥികള്‍	-10.645
രോഗ	-10.6453
▁പഠിക്കുന്ന	-10.6454
▁യുവാക്കള്‍	-10.6459
▁അവള്‍	-10.6459
ലിനെ	-10.646
▁പൊലിസ	-10.646
b	-10.6464
ഗിരി	-10.6465
രായി	-10.6467
▁കെഎസ്ആർടിസി	-10.6471
▁സെന്‍ട്രല്‍	-10.6471
▁തൊഴിലില്ലായ്മ	-10.6471
▁അധ്യാപിക	-10.6471
▁ഓർക്ക	-10.6472
▁ഹോട്ടല	-10.6472
▁ഡിജിറ്റൽ	-10.6473
▁നൂറ്റാണ്ട	-10.6476
▁ചരിത്രത്തിലെ	-10.6477
▁കുടുങ്ങി	-10.6478
▁യാത്രക്കാരെ	-10.6479
▁സാം	-10.6479
▁മത്സരിച്ച്	-10.648
▁വര്‍ധന	-10.648
▁ഒരുപക്ഷേ	-10.648
▁ചിത്രങ്ങളും	-10.6484
▁ഇല	-10.6484
▁ജോയ്	-10.6487
▁വര്‍ഷത്തില്‍	-10.6489
നാട	-10.6489
▁നാള	-10.6491
▁കളിക്കുന്ന	-10.6492
▁മണ്ഡലമാണ്	-10.6494
▁വള	-10.6495
▁നിലയ്ക്ക	-10.6497
▁സാധ്യതയും	-10.6501
റ്റില്‍	-10.6503
D	-10.6504
▁കൊടി	-10.6506
വിഷ	-10.6506
▁89	-10.6506
▁വിഷയങ്ങളില്‍	-10.651
ധ്യ	-10.6517
▁കുമാറിനെ	-10.6524
▁കമ്പനികള്‍	-10.6526
▁വോട്ടുകളും	-10.6527
▁വിനോദ്	-10.6528
▁അവസാനമായി	-10.6528
▁എപി	-10.6529
▁അറിയുന്ന	-10.6529
▁ശ്രീനിവാസ	-10.6531
▁വസ്ത്രം	-10.6532
▁ഇടഞ്ഞ	-10.6532
▁600	-10.6533
▁കന	-10.6535
▁നിയന്ത്രണത്തില	-10.6537
ങ്ങളെല്ലാം	-10.6538
ാതെയാണ്	-10.6539
▁സ്റ്റാന്‍ഡ	-10.6539
▁കൊണ്ടുള്ള	-10.654
▁79	-10.6541
▁തെറ്റിദ്ധരിപ്പി	-10.6542
▁നാണക്കേട	-10.6542
▁പേരാമ്പ്ര	-10.6542
▁നന്മ	-10.6542
▁പെക്ടര്‍	-10.6543
▁നിര്‍ദേശിച്ചു	-10.6543
▁സാഹചര്യമാണ്	-10.6543
▁86	-10.6545
▁കുഞ്ഞു	-10.6549
മായത്	-10.655
ടം	-10.655
▁പുതുക്ക	-10.6553
▁പ്രതിഷേധവുമായി	-10.6557
ിറങ്ങി	-10.6559
▁പന	-10.6561
▁താലിബാന	-10.6563
▁ഉദ്ദേശിച്ച	-10.6563
▁വിവാദമായ	-10.6565
▁നര	-10.6567
▁ട്രോ	-10.6568
▁ചെയ്തിട്ടുള്ളത്	-10.6568
▁ആവർത്തിക്ക	-10.6568
▁നടപ്പിലാക്കിയ	-10.6574
▁ബിസിനസ്സ്	-10.6575
േൽ	-10.6577
ങ്ങല്‍	-10.6583
യിന്‍	-10.6586
▁ജനങ്ങളോട്	-10.659
▁കാണിച്ചു	-10.6591
▁അന്വേഷിക്കുന്ന	-10.6592
ിഷ്ട	-10.6593
പട	-10.6597
ദേവ	-10.6598
▁ആവശ്യത്തിന്	-10.6599
ന്മാർ	-10.66
ർണ	-10.66
ുന്നതിനു	-10.6601
▁C	-10.6602
▁വോട്ടുകളാണ്	-10.6604
▁അങ്ങേയറ്റ	-10.6614
▁സെക്രട്ടേറിയറ്റ	-10.6614
▁ഡോളർ	-10.6614
▁ഹമാസ്	-10.6614
▁സോഫ്റ്റ്	-10.6614
▁സ്വപ്നം	-10.6615
▁ആന്റിജന്‍	-10.6616
ിനെയാണ്	-10.6617
വിട	-10.6618
വു	-10.6626
▁ഓവറ	-10.6627
▁എന്തിന്	-10.6627
▁പ്രദേശങ്ങളിൽ	-10.6628
▁അസ്	-10.6629
▁ഇതാ	-10.6629
▁വല	-10.6632
തയും	-10.6633
▁ചര്‍ച്ചയായ	-10.6641
▁സിപിഎമ്മും	-10.6642
▁ബാധിക്കും	-10.6643
▁ഉപേക്ഷിച്ച	-10.6644
▁നേമത്ത്	-10.6644
▁മണിക്കുട്ടന്‍	-10.6647
▁അങ്ങനെയാണ്	-10.6648
▁ജോലിയില്‍	-10.6648
ഏ	-10.6648
▁എൻ്റെ	-10.6649
▁മാധ്യമങ്ങളെ	-10.665
▁അവസര	-10.6652
്ര	-10.6652
▁തിരക്ക്	-10.6653
▁മണിയോടെയാണ്	-10.6653
തന	-10.6659
▁കശ്മീര്‍	-10.6659
▁കേവലം	-10.6662
▁ആയത്	-10.6664
ക്കുറിച്ചുള്ള	-10.6664
രുവ	-10.6666
തം	-10.6667
63	-10.6667
▁ഒടിടി	-10.6668
▁പ്രവര്‍ത്തി	-10.6668
ഡിയ	-10.6669
എമ്മ	-10.667
▁നടത്തുകയാണ്	-10.667
▁രാജ്യങ്ങൾ	-10.6673
▁97	-10.6674
▁മോഡല്‍	-10.6677
സഭ	-10.668
ജന്‍	-10.6682
▁നിർ	-10.6683
▁വിവാദങ്ങള	-10.6685
▁ആദിത്യ	-10.6685
ന്ദ്	-10.6685
▁പോസിറ്റീവായ	-10.6687
ൂരിലെ	-10.669
▁സുരേന്ദ്രന്റെ	-10.6691
▁തർക്കം	-10.6692
▁കാഴ്ച്ച	-10.6692
▁മറികടന്ന്	-10.6692
▁ഉപയോഗിച്ചാണ്	-10.6692
▁നിഷ്	-10.6694
▁പുരോഗമിക്കുകയാണ	-10.6695
▁മീറ്ററ	-10.6698
▁വീടുകളിൽ	-10.6699
ഞ	-10.67
▁ആക്രമണത്തിന്	-10.6703
43	-10.6703
▁തോന്നുന്നു	-10.6703
▁ക്രെഡിറ്റ്	-10.6704
▁സമിതിയുടെ	-10.6705
▁പുറത്തിറക്ക	-10.6707
▁ഒപ്പമ	-10.6713
▁മന്ത്രിമാരും	-10.6715
▁ചോദ്യങ്ങള	-10.6716
▁കാലത്ത	-10.6716
സംഘ	-10.6717
▁സമ്മതിക്ക	-10.6718
▁രാജ്യമാണ്	-10.6718
▁98	-10.6719
▁കൊടുത്ത്	-10.672
▁സംസാരിച്ചത്	-10.6721
സംഘടന	-10.6721
▁ദൃശ്യ	-10.6725
▁നിർദ്ദേശിച്ച	-10.6726
▁യുവാക്കളെ	-10.6726
▁വീട്ട	-10.6728
▁സർവകലാശാല	-10.6729
▁ഉദ	-10.6731
▁നിധി	-10.6733
▁കോണ്‍ഗ്രസിന	-10.6737
▁പാവപ്പെട്ട	-10.674
▁കോറ	-10.6741
ുറപ്പ	-10.6745
▁ബൂത്ത്	-10.6754
▁ബോർഡ	-10.6754
▁പോസ്	-10.6755
സ്വ	-10.6759
▁ഓക്സിജൻ	-10.6759
▁കൗൺസിൽ	-10.6759
▁ജിഎസ്ടി	-10.6759
▁പ്രഥമ	-10.6759
▁റാവത്ത്	-10.6763
▁മന്ത്രിസ്ഥാനം	-10.6763
▁കപ്പല	-10.6764
▁ലുക്ക	-10.6765
▁ശ്രദ്ധേയമാണ്	-10.6765
മത	-10.6766
മെങ്കിലും	-10.6769
▁ഇതുപോലെ	-10.677
▁ടെലി	-10.6773
▁തുലാം	-10.6773
▁സേവനങ്ങള്‍	-10.6776
▁അഖില	-10.6777
മംഗലം	-10.6779
▁പോരാട്ടമാണ്	-10.678
▁ഫിലിം	-10.6782
▁വ്യക്തിപരമായി	-10.6784
.6	-10.6785
ുകളില	-10.6788
▁എത്തുക	-10.6788
▁അഭിഷേക്	-10.679
▁ഇക്കാര്യങ്ങള്‍	-10.6792
െതിരായ	-10.6792
▁ലഭിച്ചിട്ടില്ല	-10.6796
▁തൃ	-10.6798
▁പരിഗണിക്കും	-10.68
▁പാക്	-10.6801
▁ഹോട്ടല്‍	-10.6805
▁ചിലവ	-10.6806
▁തസ്തികയ	-10.6808
▁ശ്രദ്ധേയമായ	-10.6809
▁ഇഷ്ടം	-10.6812
▁അവന്‍	-10.6813
▁റെക്കോർഡ്	-10.6814
▁മത്സരാർത്ഥികള	-10.6814
▁പൊലീസിനെ	-10.6814
▁ഇവിടെയുള്ള	-10.6815
▁നില്‍ക്കാന്‍	-10.6817
ഖി	-10.6819
▁അങ്ങ	-10.6819
▁മലപ്പുറത്ത്	-10.6821
▁ചെയ്തതായി	-10.6824
▁81	-10.6825
▁ടൈംസ്	-10.6827
▁വർക്ക്	-10.6827
ക്കർ	-10.6829
▁ബഹിഷ്	-10.6832
▁സംഘടനയായ	-10.6832
▁പെണ്ണ	-10.6833
▁ഉത്തര്‍പ്രദേശ്	-10.6833
▁വാർഷിക	-10.6833
▁ഏതാണ്ട്	-10.6833
▁പലര്‍ക്കും	-10.6833
▁എസ്എഫ്ഐ	-10.6835
▁പ്രതിഭ	-10.6836
▁പോകുന്നു	-10.6839
▁രാശിക്കാരെ	-10.6843
▁കൊല്ലത്ത്	-10.6843
▁കാലയളവിൽ	-10.6846
▁കോഴി	-10.6847
▁നീട്ട	-10.6848
▁യുഎസ	-10.6849
▁ട്രേഷന്‍	-10.6852
ിപ്പിക്കുന്ന	-10.6855
യിൻ	-10.6855
സർ	-10.6857
പേ	-10.6859
▁വിധേയ	-10.6859
ചന്ദ്ര	-10.6859
ക്കാരും	-10.6862
േനെ	-10.6862
▁കിറ്റ	-10.6863
▁നിക്ഷേപിക്ക	-10.6866
ഭാഷ	-10.687
▁സുഭാഷ്	-10.6871
ുണ്ടാവ	-10.6871
▁നീക്കമാണ്	-10.6874
▁ക്ലാസ	-10.6874
▁ലളിത	-10.6875
▁ഗ്രൂപ്പുകള	-10.6876
എഫ	-10.6876
▁മന്ത്രിസഭയില്‍	-10.6877
ാള്‍	-10.6879
▁ഭാര്യയെ	-10.6879
▁ആശ	-10.688
▁ചെയ്യാത്ത	-10.6887
ൻ്റെ	-10.6887
▁പഞ്ചാബിലെ	-10.6888
▁അനന്ത	-10.6892
▁സിറ്റ്	-10.6896
▁ബിജെപിയുമായി	-10.6898
▁പതിനായിര	-10.6898
▁ആകാശ	-10.6898
▁സ്ഥാപനങ്ങളും	-10.6902
മ്മി	-10.6902
തായിരിക്കും	-10.6902
▁നോര്‍ത്ത്	-10.6907
വത്	-10.6908
▁വിട്ടുകൊടുക്ക	-10.6908
ീൻ	-10.6909
ത്രെ	-10.691
▁അന്‍വര്‍	-10.691
▁ടിപി	-10.6913
▁ഏഴാം	-10.6916
▁മറുവശത്ത്	-10.6918
മര്‍	-10.6918
ല്ലാത്ത	-10.6918
▁ഇദ്ദേഹത്തിന്റെ	-10.6918
▁കാർഡ	-10.6919
▁പതിച്ച	-10.692
▁രെ	-10.6921
▁കാശ്	-10.6923
▁സമ്മാനമായി	-10.6923
▁പഠിപ്പിക്ക	-10.6925
പോലും	-10.6925
▁ആരംഭിക്കുന്ന	-10.6926
▁അക്രമി	-10.6926
കുളം	-10.6928
▁ഉണ്ടായിരിക്ക	-10.6929
▁സംഭവിക്കുന്ന	-10.693
ഞ്ചി	-10.693
▁പാര	-10.6933
▁പറയാനുള്ളത്	-10.6934
മുട്ട	-10.6935
യിലുണ്ട്	-10.6936
▁ചന്ദ്രന	-10.6938
ിക്കൊണ്ടിരിക്ക	-10.6938
▁രൂപപ്പെട്ട	-10.694
▁ശീല	-10.6944
▁നൽകുകയും	-10.6945
ാതിരിക്കുക	-10.6945
▁പ്രതിമാസം	-10.6948
▁കിം	-10.695
▁അയ	-10.6952
▁പത	-10.6953
▁വരികയും	-10.6953
ക്ത	-10.6958
▁ചൈനയില്‍	-10.6959
▁ഹാജരായ	-10.6968
പോലൊരു	-10.6974
▁വാഹനങ്ങള	-10.6978
▁കൊണ്ടുവന്നത്	-10.698
ുള്ളവര്‍	-10.698
ികളെ	-10.698
ിലേ	-10.6981
▁പ്രവണത	-10.6982
▁പ്രസിദ്ധീകരിക്ക	-10.6982
▁മോഹൻലാൽ	-10.6982
▁പ്രോഗ്രാം	-10.6982
▁പാണ്ഡ്യ	-10.6982
▁ട്രാഫിക്	-10.6983
▁സ്ഥാപനങ്ങളുടെ	-10.6983
▁വരുമെന്നും	-10.6985
▁ക്യാ	-10.6989
▁ലഭിക്കാന്‍	-10.6989
ത്തിലേക്ക	-10.699
ിക്കുകയാണ്	-10.6991
▁കോൺഗ്രസിന	-10.6992
▁ഓടിച്ച	-10.6994
▁സ്വത്ത്	-10.6996
ൻ്റ	-10.7
▁കുടുങ്ങിയ	-10.7001
▁ആരോപിച്ച	-10.7002
▁വാക്സിന	-10.7004
▁പരാമർശം	-10.7004
▁തിരുവ	-10.7009
▁ഗംഭീര	-10.7009
▁വളർത്ത	-10.701
▁ഹൈക്കമാന്‍ഡ	-10.701
ാധ	-10.7012
സ്ഥല	-10.7012
ന്ധ	-10.7014
രംഗത്ത	-10.7017
▁അല്ലേ	-10.7017
▁വൃത്തങ്ങ	-10.7018
▁യോഗത്തിന്	-10.702
▁സ്വീകരിക്കാന്‍	-10.7024
കുല	-10.7031
▁അംബാനിയുടെ	-10.7032
▁കുറയും	-10.7033
▁അലര്‍ട്ട്	-10.7035
▁കുള	-10.7035
▁മറികടക്ക	-10.704
റിലെ	-10.7041
▁കാരനായ	-10.7043
▁താരങ്ങള	-10.7045
വൽ	-10.7045
▁കളക്ടറ	-10.7046
▁വിഷം	-10.7046
▁സങ്കട	-10.7051
▁ലോക്ക	-10.7054
േണ്ടതില്ലെന്ന	-10.7056
▁കോര്‍പ്പറേഷന	-10.7056
▁തൊഴിലാളികൾ	-10.7056
▁തുര്‍ക്കി	-10.7057
▁പട്ടിണി	-10.7058
▁അറബ്	-10.7058
ുന്നുണ്ടെന്നും	-10.7059
▁പങ്കാളിത്ത	-10.7059
▁ടാക്	-10.7059
▁പാസാക്കിയ	-10.706
▁സത്യസന്ധ	-10.7061
▁കശ്മീര	-10.7062
▁ബംഗാളിലെ	-10.7063
▁ബഹ്	-10.7063
▁മാഹി	-10.7063
▁അനുവദിക്കുന്ന	-10.7063
ദിവസം	-10.7065
▁ഹാജരാക്കിയ	-10.7066
▁പാർട്ടിയെ	-10.7067
▁ഏത	-10.7068
▁ഉണ്ടാവില്ല	-10.707
▁മുംബൈയിലെ	-10.7072
ക്കൾ	-10.7072
▁രജിത്	-10.7072
▁പൊലീസും	-10.7074
കാന്ത	-10.7074
▁ബുദ്ധിമുട്ട്	-10.7074
▁എന്തോ	-10.7074
▁അതിവേഗ	-10.7075
ർക്ക	-10.7076
േക്കാവുന്ന	-10.7077
പ്പറ	-10.7077
▁വിഎസ്	-10.7077
റ്റർ	-10.7079
▁കഴിഞ്ഞിരുന്ന	-10.7079
▁ഉൾപ്പെടുത്തിയ	-10.708
▁സമൂഹത്തില്‍	-10.7085
▁നിർമാണ	-10.7086
▁അനുഭവിക്കുന്ന	-10.7088
▁സ്റ്റാര്‍	-10.7093
▁സാധ്യതകള്‍	-10.7094
ശേഷി	-10.7097
.2	-10.7101
▁പോലെയുള്ള	-10.7104
▁സീറ്റുകളിലും	-10.7104
▁വെയ്ക്ക	-10.7109
▁സ്റ്റോറി	-10.711
▁ജെപി	-10.711
▁വസ്തു	-10.7111
▁ഗീത	-10.7112
ങ്ങളായ	-10.7114
▁ശക്തമാക	-10.7116
▁ലംഘന	-10.7119
▁ഈസ്റ്റ്	-10.7119
▁ആവശ്യപ്പെടുന്ന	-10.7121
▁കൊടുത്തത്	-10.7125
ക്ഷൻ	-10.7125
▁പുറത്തും	-10.7127
▁!	-10.7132
▁അഥവാ	-10.7133
▁ട്വിറ്റര്‍	-10.7133
▁തിരുവമ്പാടി	-10.7133
▁ഹെൽത്ത്	-10.7133
▁തകര്‍ച്ച	-10.7133
▁താങ്കൾ	-10.7133
▁വിഷയങ്ങള്‍	-10.7133
േണ	-10.7134
▁ശർമ്മ	-10.7134
▁റെയില്‍വെ	-10.7135
▁നിറയ	-10.7136
▁റേഷന്‍	-10.7139
ിരുന്നതായി	-10.7139
▁കേരളീയ	-10.7141
▁റിനോഷ്	-10.7141
▁നാട്ടുകാരും	-10.7142
▁ചെയര്‍മാന	-10.7143
▁സല്‍മാന്‍	-10.7143
ിട്ടുണ്ട	-10.7144
▁ഗ്രാമിന്	-10.7144
▁വഹിക്ക	-10.7145
ിറ്റി	-10.7146
▁കാരണമായ	-10.7148
▁മാതാപിതാക്കള്‍	-10.7149
▁അനുകൂലമായി	-10.715
▁ആദ്യഘട്ട	-10.7158
▁ഇസ്ലാമിക	-10.7159
▁നിരീക്ഷണത്തിൽ	-10.716
▁നിയമസഭയിൽ	-10.7163
B	-10.7171
▁മിനിറ്റ്	-10.7171
▁ടിക്കറ്റ	-10.7173
▁കിരീടം	-10.7173
▁കവിത	-10.7174
▁ഡൽഹിയിൽ	-10.7179
▁സംസാരിക്കുന്നത്	-10.7179
▁നിഷേധിക്ക	-10.718
▁ശോഭാ	-10.7181
▁ഒവൈസി	-10.7182
നിന്നു	-10.7183
ഹിത	-10.7184
▁ടാസ്ക	-10.7185
▁കമ്പനികൾ	-10.7186
▁വാഹനത്തില്‍	-10.7189
▁പ്രവാസികള്‍	-10.7191
▁എന്നിവിടങ്ങളിലെ	-10.7191
▁അതത്	-10.7192
▁നടക്കുമെന്ന	-10.7196
ഓള	-10.7196
ൂരിൽ	-10.7199
▁തകര്‍ന്നു	-10.72
▁ടീമില്‍	-10.7201
▁രാജ്യങ്ങളുടെ	-10.7202
▁വാള	-10.7202
രേ	-10.7205
▁ആരോഗ്യം	-10.7207
▁അവഗണിച്ച	-10.7209
▁അറബിക്കടല	-10.7209
▁ഭൂരിഭാഗം	-10.7209
▁അണിയറ	-10.7209
▁സ്രവ	-10.721
▁സ്ഥലത്തെത്തി	-10.7212
▁പള്‍സര്‍	-10.7212
▁സന്ധ്യ	-10.7213
▁കോടിയോളം	-10.7213
▁വിളിക്കുന്ന	-10.7213
▁മത്സരിക്കും	-10.7214
▁കമ്മീഷന്റെ	-10.7214
▁മൂല്യ	-10.7215
▁മനസ്സിലാക്കിയ	-10.7218
▁പറഞ്ഞിട്ടില്ല	-10.7218
▁പ്രവര്‍ത്തകന്‍	-10.7221
▁കീഴ്	-10.7225
▁തറ	-10.7227
▁കൈവരിക്ക	-10.7227
▁പ്രക്ഷോഭം	-10.7227
▁വോട്ടുകളുടെ	-10.7229
▁ഭരിക്ക	-10.7232
▁ബന്ധു	-10.7233
▁ന്നി	-10.7235
േയ്ക്ക്	-10.7238
▁ബാങ്കുകള	-10.7239
▁മാധ്യമങ്ങളില്‍	-10.7245
ar	-10.7247
▁കോള്‍	-10.7247
▁വോട്ടിംഗ്	-10.7248
▁സഹകരണം	-10.7249
▁ഞെട്ടി	-10.725
ുന്നവരെ	-10.7253
▁കണ്ടെത്തല്‍	-10.7253
▁പീഡനം	-10.7254
▁പ്രധാനം	-10.7254
▁നാട്ടുകാര	-10.7265
വര്‍ഷ	-10.7266
▁വ്യക്തികള്‍	-10.7266
ിക്കേണ്ട	-10.7266
▁ചുമ	-10.7266
▁സംഭവങ്ങൾ	-10.7269
▁സംഘടനകളുടെ	-10.7271
▁അധ	-10.7271
▁കുഞ്ഞ്	-10.7272
ങ്ങും	-10.7272
സറ	-10.7272
▁വച്ചു	-10.7274
▁മധുര	-10.7275
▁പ്രദേശത്ത	-10.7276
▁മാക്	-10.7279
▁ജെഡിഎസ്	-10.7282
ക്കായിരുന്നു	-10.7284
▁ക്രിമിനൽ	-10.7286
▁ഗുസ്തി	-10.7286
▁കോണ്‍സുലേറ്റ	-10.7286
▁എല്‍ജെപി	-10.7286
▁ദുരന്തനിവാരണ	-10.7286
▁ലക്ഷത്തിലധികം	-10.7287
ോള്‍	-10.7287
▁മാഫിയ	-10.7287
▁ല്ല	-10.7289
ാബാദ്	-10.7289
▁ഒരുമിച്ച	-10.729
▁അവസ്ഥയാണ്	-10.729
▁മര്യാദ	-10.729
മില്ലെന്നും	-10.729
റുകൾ	-10.7291
യാന്‍	-10.7291
▁ദിവസങ്ങളായി	-10.7291
▁വിധേയമാക്ക	-10.7292
▁സംഘപരിവാര്‍	-10.7293
▁ജനങ്ങള	-10.7293
▁തട്ടി	-10.7294
▁മായ	-10.7296
▁റദ്ദാക്കി	-10.7297
ായിരിക്ക	-10.7298
▁സ്ഥലങ്ങളിൽ	-10.7298
▁വധ	-10.7299
▁വേണമെന്നാണ്	-10.7299
▁പേരില	-10.73
▁കേന്ദ്രസര്‍ക്കാ	-10.7301
▁പൂര	-10.7302
ത്തുള്ള	-10.7303
▁വിളിപ്പിച്ച	-10.7304
▁ഗോപാല	-10.7304
▁ചുഴലിക്കാറ്റ്	-10.7308
▁പൂർണ	-10.7311
ാനം	-10.7312
▁ചേര്‍ത്ത്	-10.7316
പ്പെടുത്തുന്ന	-10.7317
▁വന്ദേഭാരത്	-10.7318
▁പാക്കേജ	-10.7319
▁അമൃത	-10.7321
▁മൂല	-10.7324
ർത്തി	-10.7325
ലോക	-10.7326
▁വാര്‍ത്താസമ്മേള	-10.733
▁വ്യത്യാസം	-10.7334
▁നിശ്ചയിക്ക	-10.7334
▁M	-10.7335
▁തൂക്ക	-10.7339
▁ഡേറ്റ	-10.7344
▁അങ്ങ്	-10.7347
രുടെയും	-10.7349
▁പാമ്പ	-10.735
▁സോണ്‍	-10.7351
ത്തിനൊപ്പം	-10.7352
▁നിർദേശ	-10.7356
ടോ	-10.7356
▁മാത്രമ	-10.7358
▁ക്രിസ്ത്യന്‍	-10.7363
▁കൺട്രോൾ	-10.7363
▁പിൻവലിച്ച	-10.7363
▁സംവിധായകൻ	-10.7363
▁അണുബാധ	-10.7363
സിയ	-10.7364
▁ഗ്യാസ്	-10.7364
▁റാങ്ക്	-10.7365
▁ജീവിക്കുന്ന	-10.7366
▁ഏതൊരു	-10.7366
▁88	-10.7366
ോൺ	-10.7367
▁ഉണ്ടെങ്കില്‍	-10.7368
▁വൈറൽ	-10.7368
ക്ഷി	-10.7371
▁തസ്തികകളിലേക്ക	-10.7372
ധാര	-10.7374
ഭവ	-10.7374
അത	-10.7374
▁സർവ്വകലാശാല	-10.7376
▁മാറിയത്	-10.7376
▁കൂടുതല	-10.7377
▁അതെ	-10.7377
▁ചിത്രങ്ങള	-10.7378
തിനാണ്	-10.738
▁കല്യാണ	-10.7381
▁സമൂഹത്തിന്റെ	-10.7387
▁തടസ	-10.7388
▁രേഖകള	-10.7389
▁തരൂര	-10.7391
▁ബന്ധമുണ്ടെന്ന	-10.7392
▁കേസുകളിൽ	-10.7395
▁പാടില്ലെന്ന	-10.7396
ുകയാണെങ്കിൽ	-10.7402
▁ഗുജറാത്തില്‍	-10.7403
ുകയുണ്ടായി	-10.7405
▁ഇയാള	-10.7406
▁അവാര്‍ഡ്	-10.7408
ിട്ടുമുണ്ട്	-10.741
▁റിസ്	-10.741
▁ഫോം	-10.7412
▁മേഖലയിലും	-10.7413
▁മാര്‍	-10.7413
▁കാണും	-10.7414
▁വഹിക്കുന്ന	-10.7421
▁ആവശ്യപ്പെടുന്നു	-10.7421
▁അയാളുട	-10.7423
ർമ്മ	-10.7423
▁റായ്	-10.7427
▁കുത്ത	-10.7427
▁മാധ്യമപ്രവർത്തക	-10.7428
ലം	-10.7429
▁വസ്തുക്കള്‍	-10.7431
ിലെയും	-10.7431
▁വകുപ്പും	-10.7431
▁ഒരോ	-10.7432
ാനു	-10.7433
▁കോർപ്പറേഷന	-10.7441
▁തൃണമൂൽ	-10.7441
▁സംഘപരിവാർ	-10.7441
▁ശ്രുതി	-10.7441
▁അച്ഛൻ	-10.7442
▁ആവശ്യകത	-10.7442
▁ഗണ്യമായ	-10.7442
▁ഫോർട്ട്	-10.7444
▁ബന്ധുവ	-10.7445
▁സ്ഥലത്ത	-10.7445
▁അറിയിക്കുന്നു	-10.7446
▁ബെന്നി	-10.7447
▁കണ്ടിരുന്നു	-10.745
▁തെളിവുകൾ	-10.7451
▁സൃഷ്ടിക്കുന്ന	-10.7452
▁സംശയിക്കുന്ന	-10.7452
▁ഡാമ	-10.7453
▁ഇതിനുള്ള	-10.7456
റായ	-10.746
▁കുടുംബാംഗങ്ങള	-10.7463
53	-10.7464
▁ഗാന	-10.7466
▁പെരുമാറ്റ	-10.7467
▁കര്‍ഷകര	-10.7467
▁പഞ്ച	-10.7468
റ്റോ	-10.7468
▁സ്വാഭാവിക	-10.747
▁ആനന്ദ	-10.7473
മായിരുന്ന	-10.7473
▁രാധാകൃഷ്ണന്‍	-10.7475
▁ഡോക്ടർമാർ	-10.7478
▁വിഭാഗ	-10.7483
▁വന്നാലും	-10.7485
▁വിലയിരുത്തല	-10.7486
▁തൊട	-10.7487
▁പാക്കേജ്	-10.7487
▁ഹോട്ടലില്‍	-10.7487
▁എംഎല്‍എമാര	-10.7488
▁പ്രതിമ	-10.7489
▁വിമാനങ്ങള്‍	-10.7489
▁യാത്രക്കാര്‍	-10.7493
▁താല്‍പര്യമില്ല	-10.7494
▁ചൂട്	-10.7494
▁അംഗങ്ങളുടെ	-10.7496
▁പങ്കെടുക്കാന	-10.7498
▁ബോസില്‍	-10.7499
യുണ്ടെന്നും	-10.7499
▁പുലർത്ത	-10.7502
▁മണ്ഡലമായ	-10.7504
▁സാധിച്ചിരുന്നു	-10.7509
▁തുറമുഖ	-10.7509
▁ഫോഴ്	-10.7512
▁സ്വദേശിയാണ്	-10.7513
▁ഇടി	-10.7515
▁കണ്ടാല്‍	-10.7516
▁പ്രയാസ	-10.7517
മുണ്ടായി	-10.7518
▁രാജ്യങ്ങളിലേക്ക	-10.7518
▁ദൗത്യം	-10.752
▁മാത്രമെ	-10.752
▁ഓട്ടോറിക്ഷ	-10.752
▁യൂസഫലി	-10.752
▁ഷാരൂഖ	-10.752
▁സീനിയർ	-10.752
▁തൊട്ടുപിന്നാലെ	-10.752
▁ക്ലസ്റ്റര്‍	-10.752
▁നല്ക	-10.7521
പേർ	-10.7522
▁രക്ഷിക്കാന	-10.7524
▁അഗ്	-10.7529
▁സ്വാധീനമുള്ള	-10.7529
▁മൂക്ക	-10.7536
▁മന്ത്രിമാര	-10.754
രാവ	-10.7541
▁ബോള്‍	-10.7543
▁ഡിവിഷന്‍	-10.7545
▁രാമക്ഷേത്ര	-10.7546
▁മല്‍സരിച്ച	-10.7548
▁കൂട്ടത്തോടെ	-10.7549
▁വൈറലായി	-10.7549
ക്കഴിഞ്ഞു	-10.7551
▁പറയുകയാണ്	-10.7556
▁ഉള്ളൂ	-10.7556
▁ഉരു	-10.7557
▁നല്‍കുമെന്ന്	-10.7557
▁ഉമ്മൻചാണ്ടി	-10.7557
▁ഉണ്ടെന്നാണ്	-10.7558
▁അനുപമ	-10.756
ൂരി	-10.7563
▁നിയമപരമായ	-10.7563
▁പരിശോധനകള്‍	-10.7564
തരം	-10.7565
▁ഉള്‍	-10.7566
▁ആരോഗ്യമന്ത്രാലയ	-10.7566
▁ഗ്രൂപ്പുകള്‍	-10.757
ഷിപ്പ്	-10.7572
▁കൊണ്ടുപോയി	-10.7573
ാതിരിക്കാൻ	-10.7576
▁വകഭേദം	-10.7581
യോടുള്ള	-10.7582
▁പെൺകുട്ടിയെ	-10.7583
ൂട	-10.7587
▁കോഴ്	-10.759
▁സൈനികര	-10.7591
ക്കൂടി	-10.7592
▁നേതാക്കളാണ്	-10.7592
▁രാജ്യദ്രോഹ	-10.7595
ുൾപ്പെടെ	-10.7596
ിറങ്ങ	-10.7596
▁ചിത്രീകരിക്ക	-10.76
▁ജൂനിയര്‍	-10.76
▁മെമ്മറി	-10.76
▁രാജസ്ഥാൻ	-10.76
▁ശുപാർശ	-10.76
▁തള്ളിക്കളയ	-10.76
▁തോൽവി	-10.76
▁മുന്‍കൂട്ടി	-10.76
▁വര്‍ധിക്കും	-10.76
▁പാർട്ടികൾ	-10.7601
▁അധികമായി	-10.761
യേക്കാള്‍	-10.7611
▁2010	-10.7611
▁വന്നാൽ	-10.7611
▁ഒന്നിച്ച്	-10.7612
▁പെട്ടെന്ന	-10.7614
▁ളു	-10.7615
▁ബാബുവിന്റെ	-10.7615
▁ആശുപത്രിയിലും	-10.7616
▁ശാസ്ത്രീയ	-10.7618
ക്കൊപ്പമ	-10.762
▁സംസാരിക്കാന്‍	-10.7621
ീര്‍	-10.7621
നല്ല	-10.7622
▁യുവാവിന്റെ	-10.7622
മുറ	-10.7622
▁കുറ്റക്കാര	-10.7623
▁കരഞ്ഞ	-10.7623
▁തടയാൻ	-10.7626
▁15,	-10.763
▁കരിച്ച	-10.7632
▁സോണുകള	-10.7633
ുള്‍പ്പെടെ	-10.7633
▁പൊന്ന	-10.7634
▁കോടിയാണ്	-10.7636
▁പിടിക്കാന	-10.764
O	-10.7641
▁സര്‍വീസ	-10.7644
▁അച്ഛന	-10.765
▁കുടുംബത്തില്‍	-10.7652
▁വീട്ടുകാര്‍	-10.7655
▁വര്‍ക്ക	-10.7658
▁അറിയിക്കുകയും	-10.7659
ിക്കാനുള്ള	-10.766
ാനാവാത്ത	-10.7664
▁ഇലക്ട്രോണിക്	-10.7667
▁മുന്‍ഗണന	-10.7669
▁പോസ്റ്റിൽ	-10.7673
▁ശതമാനമായി	-10.7675
▁വടക്ക്	-10.7678
▁ജനപ്രീതി	-10.768
▁എന്‍ജിനീയര്‍	-10.768
▁കെഎസ്ആര്‍ടിസി	-10.768
▁ചിദംബരം	-10.768
▁പ്രിൻസിപ്പൽ	-10.768
▁ഇവിടുത്ത	-10.768
▁വളര്‍ന്ന	-10.768
▁മുമ്പാകെ	-10.768
▁അഭിനന്ദിച്ച	-10.7681
▁തിവാരി	-10.7681
▁ബ്ലോക്ക	-10.7681
▁പരുക്കേറ്റ	-10.7681
▁കണ്‍വീനര്‍	-10.7683
▁സംഭരണ	-10.7683
▁ഓണ്‍ലൈനായി	-10.7684
▁ഇന്നിംഗ്	-10.7686
▁എതിർത്ത	-10.769
സംഘം	-10.769
▁തകര	-10.7692
▁നൽകണം	-10.7692
▁മത്സരാര്‍ത്ഥികള	-10.7692
▁ദുരുപയോഗം	-10.7692
▁സെമി	-10.7693
കൈ	-10.7694
▁ചടങ്ങുകള്‍	-10.7698
▁ചെലവഴിച്ച	-10.77
▁രാഹുല	-10.7701
▁കിരണ്‍	-10.7701
▁ഉണ്ടാവുമെന്ന	-10.7701
▁കൊല്ലപ്പെട്ടു	-10.7703
▁മൗനം	-10.7704
▁ടീ	-10.7704
▁ഉയരുന്നുണ്ട്	-10.7705
പ്റ്റ	-10.7705
▁മക്കള	-10.7705
▁കണക്കാക്കുന്നത്	-10.7706
▁കസേര	-10.7706
ങ്കി	-10.7707
▁സമയവും	-10.7708
ായിരുന്നില്ല	-10.7709
▁സിസ്റ്റം	-10.7713
▁കോപ്പി	-10.7713
▁ടാങ്ക	-10.7713
▁പ്രവാസികള്‍ക്ക്	-10.7715
ഹോ	-10.7716
▁നേതൃ	-10.7717
▁റിയ	-10.7717
െത്തും	-10.7718
▁ബോട്ട്	-10.7722
▁ആണോ	-10.7723
▁സ്വാതന്ത്ര്യം	-10.7723
▁കൊച്ചു	-10.7726
▁ഴ	-10.7727
▁അന്യ	-10.7728
▁നയിച്ചത്	-10.7728
▁കം	-10.7731
▁പൂരം	-10.7738
▁സാരി	-10.7739
▁ഉത്തരാഖണ്ഡ്	-10.7742
▁വികസനത്തിന്	-10.7745
▁തീവ്രത	-10.7749
▁അപ്രതീക്ഷിതമായി	-10.7749
▁പ്രവിശ്യ	-10.7751
കളുടേയും	-10.7753
▁പോലീസുകാര	-10.7753
▁ആരംഭിക്കുന്നത്	-10.7753
യോടൊപ്പം	-10.7754
▁അഫ്ഗാന	-10.7754
▁പരിസരത്ത്	-10.7756
▁ജലീല	-10.7758
മൊക്കെ	-10.7758
▁നിര്‍ദേശിക്ക	-10.7758
ാഴ	-10.7759
▁പ്രിയങ്കയുടെ	-10.776
▁സ്ഥാനാർത്ഥികള	-10.776
▁ബില്യൺ	-10.776
▁യൂണിയൻ	-10.776
▁ശിവന്‍കുട്ടി	-10.776
▁സാംസ്കാരിക	-10.776
▁ഗുലാം	-10.776
▁മുൻഗണന	-10.776
▁യൂണിവേഴ്സിറ്റി	-10.776
▁പരിശോധനാഫലം	-10.7761
▁വേണമെങ്കിലും	-10.7761
▁ശര്‍മ്മ	-10.7762
▁എംഎ	-10.7764
▁സൂചിക	-10.7765
▁വിഷമം	-10.7765
ോര്‍	-10.7766
▁രണ്ടാമത്	-10.7767
▁അച്ഛനും	-10.7767
ങ്ങിയ	-10.7768
▁കിഴക്കൻ	-10.7768
യറ്റ	-10.7768
▁തുടക്കത്തിൽ	-10.777
▁സംവിധാനങ്ങള	-10.7771
ക്കായുള്ള	-10.7773
re	-10.7773
▁കർഷകരുടെ	-10.7773
▁പ്രതികളുടെ	-10.7774
▁തീര്‍ക്ക	-10.7774
▁നീക്കങ്ങൾ	-10.7776
▁അതെല്ലാം	-10.7776
▁അഴീക്കോട്	-10.778
▁വാര	-10.778
▁മറ്റൊന്ന	-10.778
▁നിര്‍മ്മാണം	-10.7783
▁സാഹ	-10.7785
▁ശ്രമമാണ്	-10.7785
▁പുല്ല	-10.7785
വാള്‍	-10.7788
മ്പോ	-10.7792
▁പ്രേമ	-10.7792
▁തൊട്ട	-10.7793
▁സമരത്തിന്	-10.7793
ത്രേ	-10.7794
▁സിനേഷന	-10.7794
▁ഇറാനി	-10.7795
സ്ഥിതി	-10.7798
▁നഷ്ടമായി	-10.7798
▁ഭരണകൂട	-10.78
സ്ഥാപന	-10.7801
▁ഉദ്	-10.7801
ുകൊണ്ടുള്ള	-10.7803
▁ചട്ട	-10.7804
▁കുഴ	-10.7804
േട്ടന	-10.7806
▁ആക്ഷേപ	-10.7807
▁ബാലകൃഷ്ണന്‍	-10.7807
▁സൗഹൃദം	-10.7811
▁പാനല	-10.7811
▁നഷ്ടമായത്	-10.7811
▁ന്നാ	-10.7812
▁ലക്ഷ്യമിടുന്ന	-10.7813
യെടുത്ത	-10.7815
ട്ടേ	-10.7815
▁ആശുപത്രിയിലെത്ത	-10.7818
▁ഇടിവ്	-10.7819
▁തെറി	-10.7821
▁ചിറ്റ	-10.7821
▁വന്നപ്പോൾ	-10.7821
▁ശരിയല്ല	-10.7823
▁മഹാരാഷ്ട്രയിലെ	-10.7826
▁ക്യാംപ	-10.7827
▁കോണ്‍	-10.7829
▁അടക്കമുള്ളവര്‍	-10.783
തൃ	-10.783
▁പരിഹരിക്കാന്‍	-10.783
▁ചാണ്ടിയുടെ	-10.7837
▁കാട	-10.7837
ക്കുളം	-10.7839
▁സീറ്റാണ്	-10.7839
▁ഡിവൈഎഫ്	-10.784
▁ബെഞ്ച	-10.7841
▁സൗന്ദര്യ	-10.7842
▁കൊയിലാണ്ടി	-10.7842
▁സിഇഒ	-10.7842
▁പയ്യന്നൂര്‍	-10.7842
▁വിട്ടുവീഴ്ച	-10.7842
▁തോതില	-10.7842
▁ഇവര	-10.7842
▁പെണ്‍കുട്ടികള്‍	-10.7843
▁എത്തിച്ചേര	-10.7843
▁വർധിപ്പിച്ച	-10.7843
▁ഏകദിന	-10.7845
▁ബന്ധുക്കള	-10.7845
▁സംക്രമണം	-10.7845
▁വോട്ടര്‍മാര	-10.7846
▁തടയാന	-10.7848
▁കുട്ടികളും	-10.7851
▁ഡീ	-10.7852
േല	-10.7853
▁കുറെ	-10.7854
▁കൈവിട	-10.7857
▁ആരോഗ്യനില	-10.7858
വീണ	-10.7861
▁ഉദ്യോഗസ്ഥര	-10.7864
▁പരിക്ക്	-10.7864
▁ആളുകൾക്ക്	-10.7868
▁വിവേചന	-10.7869
റാണ്	-10.7871
▁കേവല	-10.7872
▁അകത്ത	-10.7875
ദാസ്	-10.7878
▁മുക്ത	-10.7878
▁ട്രെ	-10.7878
▁ലാബ്	-10.788
▁ഗോപിക	-10.7884
▁വീണത്	-10.7887
▁എടുക്കേണ്ട	-10.7887
ഫ്ര	-10.7887
ടിച്ചു	-10.7888
▁ആസ്	-10.7889
ിരിക്കുന്നതെന്ന്	-10.7889
ജാ	-10.789
െടുക്കാന്‍	-10.7892
▁പക്ഷ	-10.7892
▁രാജാവ	-10.7893
മാറ്റം	-10.7893
▁അപ	-10.7894
▁വകുപ്പുകൾ	-10.7894
▁മോഡി	-10.7898
▁സാഹചര്യങ്ങള്‍	-10.7901
ക്കുന്നുണ്ട്	-10.7902
▁സെക്	-10.7905
▁എഫ	-10.7907
▁ജോര്‍ജ്ജ്	-10.791
▁വിദഗ്ധര്‍	-10.7912
▁ജീവനക്കാരും	-10.7914
സിലെ	-10.7914
▁ശ്ര	-10.7915
ുവെങ്കിലും	-10.7916
▁ഡയറക്ടറ	-10.7916
ായിരിക്കണം	-10.7917
▁ഒഴിവാക്കണമെന്ന	-10.7918
ിലുള്ളത്	-10.7918
വര്‍ഷം	-10.792
സമ്പർക്കത്തിലൂടെ	-10.792
ിടത്ത്	-10.7922
▁കുറ്റ്യാടി	-10.7923
▁ഭൂരിഭാഗവും	-10.7923
▁ചെയർമാന	-10.7924
▁യോജിച്ച	-10.7924
▁വീട്ടമ്മ	-10.7925
▁അനുവദിച്ചു	-10.7928
▁ലക്ഷണങ്ങള	-10.7928
ടെക്	-10.7928
വരുന്ന	-10.7929
▁അധികൃതരുടെ	-10.793
▁ജയരാജന	-10.793
മെന്നാണ്	-10.793
ുകൊണ്ട	-10.7931
ഗ്രഹ	-10.7935
▁പന്നി	-10.7935
▁മുടക്ക	-10.7935
▁ഘടന	-10.7936
▁വിജയനും	-10.7938
▁ഷിബു	-10.7938
▁സ്റ്റേഷനിൽ	-10.794
▁87	-10.7942
▁വര്‍ഷങ്ങള്‍ക്ക	-10.7943
▁സുരക്ഷിതമായി	-10.7943
▁ബിജെപിയിൽ	-10.7943
▁കയ്യില്‍	-10.7943
▁വയസ്സിന്	-10.7943
പോല	-10.7945
▁ട്രേഡ്	-10.795
▁പൂര്‍ണ്ണ	-10.7951
▁പറയാതെ	-10.7952
റ്റുകള്‍	-10.7954
▁അക്കൗണ്ട	-10.7954
▁താല്പര്യ	-10.7954
▁കാരണമായത്	-10.7955
▁അംഗങ്ങളായ	-10.7956
▁ചൗഹാന്‍	-10.7957
▁പേരുകള്‍	-10.7962
▁നക്ഷത്ര	-10.7965
▁ആന്റി	-10.7966
▁ബലാത്സംഗം	-10.7966
▁ഗത്ത്	-10.7967
▁വിമാനത്താവളങ്ങള	-10.7968
▁വീടുകൾ	-10.7969
▁പുറത്തുവര	-10.7969
▁മനീഷ്	-10.797
▁ഇങ്ങനെയാണ്	-10.7972
▁നിതീഷ	-10.7972
▁കുഞ്ഞിന്റെ	-10.7973
▁മുറിയില്‍	-10.7976
കെട്ട	-10.7977
▁ദേവ്	-10.7978
ഖാ	-10.7979
▁അസുഖ	-10.7983
സമ	-10.7986
▁വേഗത	-10.7986
▁പ്രസിഡന്റ	-10.7986
▁എത്തിച്ച്	-10.7987
er	-10.7987
▁കോഡ്	-10.7991
▁ഡാം	-10.7992
▁ഇടയാക്കിയ	-10.7995
▁നടപ്പാക്കുന്ന	-10.7995
▁മാറ്റങ്ങൾ	-10.7997
▁ഉപയോഗം	-10.7997
▁അയ്യ	-10.8
േക്കുമെന്ന്	-10.8001
ുണ്ട	-10.8002
ിയിരിക്കുകയാണ്	-10.8002
▁റ്റോ	-10.8003
▁ചെറിയാന്‍	-10.8003
▁ശാ	-10.8005
ിരിക്കെയാണ്	-10.8006
▁തീര്‍ച്ചയായും	-10.8006
▁സര്‍വ്വകലാശാല	-10.8006
▁ഫ്ലാറ്റ	-10.8006
▁തേടിയെത്തും	-10.8007
ുന്നവരുടെ	-10.8007
▁കര്‍ഷകര്‍ക്ക്	-10.8011
ദു	-10.8013
▁പങ്കുണ്ടെന്ന	-10.8014
▁ചെയ്യല	-10.8014
▁ന്നും	-10.8015
▁ഇഷ	-10.8015
▁പ്രവർത്തകരെ	-10.8015
▁ക്രൂരത	-10.8022
ന്നും	-10.8024
▁ചിലര	-10.8025
യാളുടെ	-10.8026
▁ശ്രദ്ധയിൽ	-10.8026
▁കിംഗ്	-10.8027
▁തരത്തിൽ	-10.8027
▁വിശ്വനാഥ	-10.803
▁കൈക്കൊള്ള	-10.8031
▁അഷ്	-10.8033
▁ട്രാക്ക	-10.8035
ല്ലെന്നും	-10.8035
▁ക്രമസമാധാന	-10.8035
▁ആവശ്യമാണെന്ന	-10.8038
▁വില്ലേജ്	-10.8038
▁അവകാശപ്പെടുന്നു	-10.8039
▁ആവശ്യമായി	-10.8039
▁ചേരും	-10.8039
▁ഇരുപത്	-10.8041
ിനെക്കുറിച്ച്	-10.8043
▁പൗര	-10.8044
▁ഇള	-10.8045
▁സന്ദർശനം	-10.8045
ഹു	-10.8046
▁രൂപയായി	-10.8048
▁രാഷ്ട്രീയത്തിൽ	-10.8048
▁ആരെ	-10.8048
▁ഡൗണ	-10.805
▁വോട്ടര്‍	-10.805
ക്കേ	-10.8051
▁വെബ്സൈറ്റ	-10.8051
▁റൂ	-10.8053
▁പങ്കിട്ട	-10.8053
▁ലിംഗ	-10.8054
▁നായർ	-10.8056
▁കരിയറ	-10.8057
ക്കല	-10.8057
▁എന്നിവരെയാണ്	-10.8059
▁അന്തരിച്ച	-10.8062
ിനുള്ളിൽ	-10.8064
▁ബോട്ട	-10.8065
▁ചേരി	-10.8067
▁നടക്കുകയാണ്	-10.8068
▁ഖാൻ	-10.807
▁മിഥുന	-10.8072
ക്കുമെന്ന്	-10.8072
▁മൂത്ത	-10.8072
▁മറ്റുള്ളവര	-10.8073
▁മാർക്കറ്റ	-10.8075
▁ഇന്ത്യക്കാര്‍	-10.8076
▁ശ്രമങ്ങള	-10.8076
▁സജ്ജമാക്കിയ	-10.8078
▁ത്രിപുര	-10.8078
▁ഭാരവാഹി	-10.8079
▁വിമാനത്താവള	-10.8081
▁പരിയാരം	-10.8089
▁പൂന്തുറ	-10.8089
▁ത്യാഗ	-10.809
▁സിഎഎ	-10.809
▁കണക്കുകള	-10.8092
▁04	-10.8092
▁നടക്കാന്‍	-10.8092
▁മേയറ	-10.8094
ാന്ത	-10.8094
രീതി	-10.8094
▁പത്മജ	-10.8094
▁നിലനിൽക്ക	-10.8095
▁പുത്തന്‍	-10.8095
▁ജന്മദിന	-10.8096
▁എല്ലാവരേയും	-10.8096
▁മനസ്സ്	-10.8097
▁മഞ്ചേരി	-10.8097
▁സോമ	-10.8097
▁വു	-10.8097
ശ്യ	-10.8099
ിയോ	-10.8104
▁ലക്ഷ്യമിട്ട്	-10.8104
യുള്ളത്	-10.811
▁വിശേഷിപ്പിക്ക	-10.8112
കാരനായ	-10.8114
▁താഴെയുള്ള	-10.8115
▁മണിക്കൂറുകള്‍	-10.8115
▁ഭാവ	-10.8116
▁നടപടിയെടുത്ത	-10.8118
▁ന്യായീകരിക്ക	-10.8125
▁16,	-10.8127
▁തീരുമാനങ്ങള്‍	-10.8127
▁തുടർച്ചയായ	-10.8132
▁ദിൽഷ	-10.8134
▁നറുക്കെടുപ്പ	-10.8135
വട്ടം	-10.8136
പറ	-10.814
ട്ടാണ്	-10.8146
▁ആരാധകര	-10.8147
▁നേടിയിട്ടുണ്ട്	-10.8148
▁അടിമ	-10.8149
w	-10.8149
▁നാളായി	-10.8152
▁ലംഘിച്ച്	-10.8154
▁കച്ചവടം	-10.8154
▁അറസ്റ്റു	-10.8155
▁റൈ	-10.8155
▁മികവ്	-10.8155
ക്കുമാണ്	-10.8156
▁സന്ദർശിക്ക	-10.8158
ിനോട	-10.816
▁ബിസിനസ	-10.8161
▁അടച്ചു	-10.8161
▁സമൂഹത്തിന്	-10.8162
▁ചെയ്യുന്നത	-10.8164
▁പറയാനുള്ള	-10.8166
ുണ്ടായിരുന്നില്ല	-10.8166
▁മിനിറ്റ	-10.8167
▁കത്തിച്ച	-10.8168
▁കെപി	-10.8169
▁കണക്കിന്	-10.8169
▁പിന്നിലെന്ന	-10.8169
▁എതിര്‍ക്ക	-10.8169
▁നിലയിലായിരുന്നു	-10.8171
ർജ	-10.8172
ക്കുള്ളിൽ	-10.8173
▁സ്ഥാപനങ്ങളില്‍	-10.8174
▁·	-10.8175
▁എത്തിക്കാന്‍	-10.8176
▁മിഷൻ	-10.8176
▁പടിഞ്ഞാറൻ	-10.8178
▁മടങ്ങിയ	-10.8178
▁ആരൊക്കെ	-10.8179
രിച്ച	-10.818
മം	-10.8184
പ്പോഴ	-10.8185
▁തുടരുമെന്നും	-10.8185
▁ജുനൈസ്	-10.8185
▁തിയ്യതി	-10.8186
▁കഴിയാതെ	-10.8188
▁രേഖകളും	-10.8193
ര്‍മ	-10.8196
▁ഫയല്‍	-10.8198
▁ഇടപെടൽ	-10.8199
▁93	-10.8199
▁യുപിയിലെ	-10.82
ോടു	-10.8202
▁സുനിൽ	-10.8206
പൂര	-10.8207
▁പാർലമെന്റ്	-10.8208
▁ചരിത്രത്തില്‍	-10.8209
▁ഒപ്പിട്ട	-10.8212
02	-10.8214
▁ജീവ	-10.8216
▁കുമാറ	-10.8216
▁എതിരാളി	-10.8219
▁മേഖലയെ	-10.8219
L	-10.822
▁കമ്പനിയായ	-10.822
▁ആവേശ	-10.8226
▁സംവിധാനങ്ങള്‍	-10.8227
കോടി	-10.8232
കക്ഷി	-10.8233
▁ആവര്‍ത്തിച്ച	-10.8234
▁പൊട്ടി	-10.8234
▁ഡ്	-10.8234
▁പ്രവർത്തകര	-10.8235
▁മനോഹര	-10.8235
ുമെങ്കിലും	-10.8236
ാവുന്നത്	-10.8236
▁പക	-10.8237
▁സാധ്യമാക	-10.8238
▁വലിച്ച	-10.8239
▁അഡ്മിനിസ്	-10.8241
▁ബിഷപ്പ്	-10.8242
▁മുക്ക	-10.8242
▁വ്യാപാരം	-10.8244
▁നേടിയിരുന്നു	-10.8246
▁മനസ്	-10.8246
▁സിങ്ങ	-10.8247
▁ബന്ധമുള്ള	-10.8247
ച്ചാ	-10.825
▁ഇടിഞ്ഞ	-10.8252
▁വെച്ചായിരുന്നു	-10.8253
▁മത്സരാർത്ഥി	-10.8253
▁സിന	-10.8253
േയ	-10.8257
വെച്ച്	-10.8258
▁പൂഞ്ഞാര്‍	-10.8258
▁വധശിക്ഷ	-10.8258
▁കുറ്റപത്രത്ത	-10.8258
▁സുരേന്ദ്രനെ	-10.8259
▁നാവിക	-10.826
▁കത്തയച്ച	-10.8261
▁സാന്നിധ്യത്തില	-10.8261
▁അടൂര്‍	-10.8261
▁മകന്റെ	-10.8263
▁ഉത്ര	-10.8264
▁ഡീസലിന്	-10.8264
▁സില്‍വര്‍	-10.8265
▁ശരീരം	-10.8265
▁ഇരുട്ട	-10.8268
▁ഉണ്ടായിരിക്കണം	-10.8269
▁തല്ല	-10.8269
▁പറയുമ്പോള്‍	-10.827
▁വര്‍ക്ക്	-10.8276
▁വട്ട	-10.8276
ാമായിരുന്നു	-10.8277
ട്രി	-10.828
▁പൂനെ	-10.828
▁വ്യക്തമാക	-10.828
▁റേ	-10.8282
ങ്ങളിലേക്ക്	-10.8283
ിച്ചിരുന്നു	-10.8284
▁സമ്പന്ന	-10.8284
▁ഉടമകള്‍	-10.8285
വിവര	-10.8288
▁അവൻ	-10.829
▁സ്വീകരണ	-10.8291
▁നൈ	-10.8291
ത്തിലേറെ	-10.8294
ീന്‍	-10.8295
▁കണ	-10.8296
▁ശതമാന	-10.8299
േജ	-10.8299
ക്ട	-10.83
സ്വാമി	-10.8305
▁ഐപിഎല്ല	-10.8308
▁മഹേഷ്	-10.831
ുന്നുവെന്ന	-10.8315
▁സിംഗിന്റെ	-10.8315
▁ബാര്‍	-10.8321
▁ആരോട	-10.8323
▁എഴുത്ത	-10.8324
ത്തറ	-10.8324
ക്വ	-10.8326
▁സേ	-10.8326
▁വകുപ്പുകള	-10.8328
▁ചലഞ്ച	-10.8328
▁പിഎം	-10.8328
▁ചേരുമെന്ന	-10.8329
▁റെയ്ഡ	-10.8329
ാമത്	-10.833
▁പറഞ്ഞതായി	-10.8331
ങ്ങളിലൂടെ	-10.8332
ോല	-10.8333
▁പട്	-10.8334
▁മേഖലകളിലും	-10.8334
▁തുടര്‍ന്നു	-10.8335
▁താങ്ങ	-10.8336
▁നടപ്പിലാക്കുന്ന	-10.8338
▁മുത്ത	-10.8341
ര്‍മാര്‍	-10.8343
▁എന്‍ഫോഴ്	-10.8344
▁കൂട്ടിച്ചേർക്ക	-10.8344
▁അവഗണന	-10.8344
▁ഇരിങ്ങാലക്കുട	-10.8344
▁ദാമ്പത്യ	-10.8344
▁1/4	-10.8344
kerala	-10.8344
▁ദയനീയ	-10.8344
▁പ്ലാസ്റ്റിക്	-10.8344
▁നോര്‍ക്ക	-10.8345
▁ഇന്ധനവില	-10.8345
▁മോശമ	-10.8346
▁അയാളെ	-10.8347
▁ഒരുങ്ങുകയാണ്	-10.8347
▁പുതിയൊരു	-10.8349
▁ചെയ്തിരുന്നത്	-10.835
▁ജുഡീഷ്യല്‍	-10.835
▁ഡ്ര	-10.8352
▁അഭിഭാഷകൻ	-10.8353
▁ജയിച്ചു	-10.8353
▁സർട്ടിഫിക്കറ്റ	-10.8354
▁തൂങ്ങി	-10.8355
▁ദിവസങ്ങൾ	-10.8357
▁ശത്രുക്കള	-10.8359
യുമൊക്കെ	-10.836
ാനന്ദ	-10.8363
▁കത്തിൽ	-10.8364
-20	-10.8365
ക്കാരായ	-10.8366
▁ടൗണ്‍	-10.8369
▁ഇളവുകള്‍	-10.837
▁പ്രകാശ	-10.8379
▁സംസ്കാര	-10.838
▁ഇൻസ്റ്റിറ്റ്യൂ	-10.838
▁വിമര്‍ശനങ്ങള്‍	-10.8384
▁ണി	-10.8385
കണ്ട	-10.8388
▁രോഗികൾ	-10.8388
▁വിമര്‍ശിച്ചു	-10.8389
▁മനസിലായ	-10.839
▁വരികയായിരുന്നു	-10.8395
▁എല്ല	-10.8396
▁ചെയ്തതിന്	-10.8396
▁ബുദ്ധിമുട്ടുകള	-10.8396
▁കോവിഡില്‍	-10.8397
▁പൗരത്വം	-10.8399
▁മരണപ്പെട്ടത്	-10.8399
▁അഴി	-10.84
▁മല്‍സര	-10.8401
▁ആഗ്രഹിക്കുന്നു	-10.8403
▁കല്യാണം	-10.8403
▁പാര്‍ട്ടികളുടെ	-10.8404
വാൾ	-10.8404
ണ്ണി	-10.8405
▁ബിനീഷ്	-10.8408
പറമ്പ	-10.8411
▁മകന	-10.8411
▁ഉചിതമായ	-10.8412
▁സൂചനകള്‍	-10.8414
▁വ്യക്തിയുടെ	-10.8414
ിക്കാം	-10.8417
▁നീണ്ടു	-10.8418
▁ആചാര	-10.842
▁ആശാ	-10.8421
പ്പെടുകയും	-10.8425
▁അംഗത്വ	-10.8426
▁നിന്നായി	-10.8427
ാക്കിയത്	-10.8427
സണ	-10.8429
▁17,	-10.8429
▁എത്തിക്കാന	-10.843
▁റോയി	-10.843
▁ഉപയോ	-10.843
▁ചങ്ങനാശേരി	-10.843
▁മായാവതി	-10.843
▁സെൻട്രൽ	-10.843
▁ഫോറന്‍സിക്	-10.843
▁ബന്ധുക്കൾ	-10.843
▁പ്രമോദ്	-10.8431
▁യൂട്യൂബ്	-10.8434
▁തരൂർ	-10.8434
▁പ്രസിഡന്റും	-10.8435
▁തീരം	-10.8435
ക്കിടയിലും	-10.8436
▁പതിനാല	-10.8438
▁പിന്മാറ	-10.8439
▁നോളജി	-10.8439
▁പരേഡ	-10.844
കളിലേക്ക്	-10.844
▁വികെ	-10.8442
▁മര്‍ദ്ദിച്ച	-10.8449
▁ഓയില്‍	-10.8451
▁ആയിരിക്ക	-10.8453
▁പാർലമെന്റ	-10.8454
▁സംഘടനകൾ	-10.8456
ഡാ	-10.8456
▁ഡോളറാണ്	-10.8457
തെങ്കിൽ	-10.8457
▁ആര്‍മി	-10.8458
▁കക്ഷികള	-10.8459
▁വാക്സിനേഷന്‍	-10.8461
▁അവന്റെ	-10.8462
തുകൊണ്ടാണ്	-10.8464
▁എന്നുള്ളത്	-10.8468
▁നിര്‍ദ്ദേശിച്ച	-10.8471
an	-10.8472
▁18,	-10.8473
ർത്ഥ	-10.8473
▁പ്രോഗ്രാമ	-10.8476
▁വീടും	-10.8476
▁എടുക്കാൻ	-10.8477
റേറ്റ	-10.8477
▁പോവുന്നത്	-10.8481
▁ബംഗ്ലാദേശ	-10.8481
▁ശേഷമായിരുന്നു	-10.8482
കളേയും	-10.8485
സൺ	-10.8486
▁ബാഗ്	-10.8487
▁സഖാവ്	-10.8489
മുറി	-10.8491
▁വാങ്ങുന്നത്	-10.8492
ിലായി	-10.8493
▁ഉണ്ടോ	-10.8495
▁ബജറ്റില്‍	-10.8496
▁ഉയര്‍ന്നത്	-10.8498
▁ജില്ലയുടെ	-10.8502
▁തീര്‍ത്തും	-10.8507
▁ജെഡിയുവ	-10.8507
▁ളാ	-10.851
▁നോബി	-10.851
▁ഏഷ്യ	-10.851
േക	-10.8512
▁കൂട്ടുകാര	-10.8513
▁സ്ഥാനാർത്ഥികളെ	-10.8514
▁ഹൃദയം	-10.8514
▁പരിശോധനയും	-10.8516
▁സമ്പൂര്‍ണ	-10.8517
▁ഋതു	-10.8517
▁പൂഞ്ഞാറ	-10.8517
▁നൂതന	-10.8517
▁മകനും	-10.8517
▁വിശ്വാസ്യത	-10.8517
▁ഇമ്രാന്‍	-10.8518
▁പ്രസിഡന്റുമാര	-10.8519
▁തീർക്ക	-10.8519
ുവിനെ	-10.8521
ാകട്ടെ	-10.8525
▁രാജ്യങ്ങളിലെ	-10.8525
▁ലൗ	-10.8529
▁ഗ്രഹങ്ങളുടെ	-10.853
▁തസ്തികകള	-10.8531
▁കാണിക്കുന്നത്	-10.8531
▁മണ്ഡലങ്ങളിൽ	-10.8532
▁നിന്നോ	-10.8535
▁മഹിളാ	-10.8536
▁സുരേഷ	-10.8536
▁ചെയ്യാതെ	-10.8543
▁മകരം	-10.8544
റൂ	-10.8544
▁കൂടുതലുള്ള	-10.8545
▁കുംഭം	-10.8547
▁ലോക്ഡൗണ്‍	-10.8547
▁കടത്തിയ	-10.855
▁മാറ്റിവെച്ച	-10.8552
▁ദില്ലിയിൽ	-10.8552
ാര്‍ഥ	-10.8552
▁രാശിയിലെ	-10.8552
▁ഹൈക്കമാന്റ്	-10.8553
▁ഹാഷ്	-10.8554
▁രക്ഷ	-10.8555
▁വൈകി	-10.8555
ക്കുമെന്നും	-10.8556
▁കാരണമാകും	-10.8557
▁ആഗ്രഹിക്കുന്നത്	-10.8557
ാനായില്ല	-10.8558
രുതെന്ന	-10.8558
ൊന്ന	-10.8563
▁അപ്പോഴാണ്	-10.8563
▁പരിശോധിക്കും	-10.8564
കൻ	-10.8564
ൊട്ട	-10.8566
▁സഖ്യത്തിന്റെ	-10.8568
▁ഉല	-10.857
▁ലാലു	-10.8571
▁പുറപ്പെട	-10.8572
▁പൂർത്തിയായ	-10.8574
▁ചട്ടം	-10.8577
▁കോഴ	-10.8579
▁ചേർത്ത്	-10.8582
▁ആർഎസ്എസ്	-10.8583
▁ചേര്‍ന്നത്	-10.8584
▁പോയിരുന്നു	-10.8586
വലി	-10.8586
▁ശേഖരിക്ക	-10.859
▁ശുഭ	-10.8592
ക്കെതിരേ	-10.8593
▁എണ്ണവും	-10.8593
ഫാ	-10.8593
▁റൂമ	-10.8593
ചര	-10.8595
സമ്മ	-10.8595
ുന്നതിലൂടെ	-10.8601
▁സിൻ	-10.8602
▁മഴയാണ്	-10.8603
▁ആകര്‍ഷിക്ക	-10.8605
▁ദുഃഖ	-10.8605
▁ഇസ്രായേൽ	-10.8605
▁കാറ്റഗറി	-10.8605
▁പ്രസ്തുത	-10.8605
▁ബിസിസിഐ	-10.8605
▁വര്‍ദ്ധിപ്പിക്ക	-10.8605
▁പുനഃസംഘടന	-10.8605
ത്തുന്ന	-10.8605
▁നേമം	-10.8605
▁സ്ഥാനത്താണ്	-10.8606
▁ടോം	-10.8608
▁ഭാരവാഹികള്‍	-10.861
▁ഫോണ	-10.8612
▁പോര്	-10.8612
▁വികസിപ്പിക്ക	-10.8614
▁ഹാജരാകണം	-10.8614
▁ശു	-10.8614
▁ഐഡി	-10.8615
▁അനധികൃതമായി	-10.8615
▁സൂചനയുണ്ട്	-10.8618
▁നമസ്	-10.8619
▁ആരംഭിച്ചിരുന്നു	-10.8623
▁ഒഴിവുകള	-10.8623
▁P	-10.8623
മാറ	-10.8626
ായുള്ള	-10.8626
▁വില്‍ക്ക	-10.8629
▁ദുര്‍ബല	-10.8629
▁മലയാളികളുടെ	-10.863
▁സ്വന്തമാക്കിയത്	-10.8632
▁വിശ്രമ	-10.8633
.9	-10.8634
▁സർക്കാരിനെതിരെ	-10.8635
ര്‍ക്ക്	-10.8636
▁റെയിൽ	-10.8636
▁കുഴപ്പ	-10.8637
▁പെരുമാറിയ	-10.8637
▁അപമാന	-10.8637
▁ഷിജു	-10.8638
▁നിറവേറ്റ	-10.8641
▁പരിശോധനയ്ക്കായി	-10.8644
▁തയ്യാറാക്കി	-10.8645
▁കെയർ	-10.8645
വയാണ്	-10.8648
▁ഭി	-10.8648
▁വ്യാപനത്ത	-10.8648
▁മാണിയുടെ	-10.8649
പന	-10.8649
മടക്കം	-10.8649
▁കണ്ടിട്ടില്ല	-10.865
▁ചിത്രത്തിലെ	-10.8652
ിക്കണം	-10.8652
ed	-10.8654
▁നിയമപരമായി	-10.8656
▁അഫ്ഗാന്‍	-10.8656
▁യാത്രക്കാരുടെ	-10.8659
▁കാരന്‍	-10.866
▁കോഴിക്കോട	-10.866
▁അനുയായികള	-10.8662
യുമുണ്ട്	-10.8663
▁വെറുപ്പ	-10.8664
▁എംഎൽഎമാർ	-10.8666
▁തയ്യാറെടുക്ക	-10.8668
▁സര്‍വ്വീസ്	-10.8668
▁അനുകൂലിച്ച	-10.8672
ത്തരം	-10.8674
▁ദില്‍ഷ	-10.8675
ിരിക്കുന്നതെന്ന	-10.8675
▁p	-10.8676
▁ആഴ	-10.8678
▁സഭയുടെ	-10.8681
▁സമയത്ത	-10.8681
▁അന്ത	-10.8681
▁നയിക്ക	-10.8684
▁കണ്ടെത്താനായ	-10.8687
▁എസി	-10.8688
▁ട്ടു	-10.8689
▁അന്വേഷിച്ച്	-10.869
▁ചന്ദ്രന്‍	-10.8691
▁പ്രവചിക്ക	-10.8692
കുളങ്ങര	-10.8692
▁തൃത്താല	-10.8693
▁നിര്‍വഹിക്ക	-10.8693
▁പുനരാരംഭിക്ക	-10.8693
▁ഒബിസി	-10.8693
▁മോട്ടോര്‍	-10.8693
▁ബ്രസീല	-10.8693
▁തുടക്കമിട്ട	-10.8693
▁മന്ത്രിമാരുടെ	-10.8693
▁പൊന്നാനി	-10.8694
▁മറ്റേത	-10.8694
▁ഹൈവേ	-10.8695
▁അടുക്കള	-10.8696
▁സ്വഭാവം	-10.8696
▁വാശി	-10.8697
ൂറ	-10.8698
▁തെക്കൻ	-10.8699
▁വർധനവ്	-10.8699
മുതല്‍	-10.8699
ദിവസ	-10.8701
▁ലഭിക്കാത്ത	-10.8703
▁രക്തം	-10.8705
▁അവസാനിപ്പിച്ച	-10.8706
▁ഇദ്ദേഹത്തെ	-10.8709
▁നടപ്പ	-10.8709
▁ടീമിന്	-10.8717
▁സൗകര്യങ്ങൾ	-10.8717
▁ഫാക്ടറി	-10.8718
▁സാക്ഷ്യം	-10.8719
▁വിശാല	-10.872
▁ബോംബ	-10.872
▁ചെന്നിത്തലയുടെ	-10.8726
▁പരിക്ക	-10.8727
▁നിലയിലേക്ക്	-10.8728
▁കുടിവെള്ള	-10.8728
▁വേണ്ടത്ര	-10.8729
▁പേഴ്	-10.873
▁ജയിൽ	-10.8731
▁ശശീന്ദ്രന്‍	-10.8736
▁സിബി	-10.8736
ശാസ്ത്ര	-10.8744
▁ബോളിവുഡ്	-10.8747
▁അന്തരീക്ഷ	-10.8748
▁ക്ഷണിക്ക	-10.875
യെയാണ്	-10.8751
▁പതിറ്റാണ്ട	-10.8755
▁യുവാക്കള	-10.8756
രേഖ	-10.8757
▁സഖ്യത്തില്‍	-10.876
ഭൂമി	-10.8761
▁ബിനു	-10.8764
▁കടിച്ച	-10.8769
▁കിറ്റ്	-10.877
ദന	-10.877
▁മിണ്ട	-10.8771
▁എത്താന	-10.8774
▁ചെന്നിത്തലയും	-10.8777
▁ടൈ	-10.8778
▁തുടങ്ങുന്ന	-10.8779
▁(1)	-10.878
▁എന്താ	-10.878
▁മറിഞ്ഞ	-10.8781
▁വർദ്ധിപ്പിക്ക	-10.8782
▁വയസുകാരി	-10.8783
ണിയ	-10.8783
▁ജനപ്രിയ	-10.8784
▁ശിവകുമാര്‍	-10.8784
▁രാജിവയ്ക്ക	-10.8784
▁അറിയാവുന്ന	-10.8785
▁ജനവാസ	-10.8786
▁നീട്ടിയ	-10.8788
▁വാഷിംഗ്ടണ്‍	-10.8789
▁വരി	-10.879
▁പരസ്യം	-10.879
▁കുതിര	-10.8791
▁പിവി	-10.8794
▁മാനദണ്ഡങ്ങൾ	-10.8795
▁മാസ്ക്	-10.8797
▁കൂലി	-10.8798
▁അപ്പീല്‍	-10.8802
▁എല്ലാവരുടെ	-10.8802
▁ഗണ	-10.8804
▁സർവ്വ	-10.8804
▁നടപടികള	-10.8805
▁പുല	-10.8809
▁നിന്നത്	-10.8811
▁ആക്കി	-10.8813
▁ഫോ	-10.8814
▁സാക്ഷ്യപ്പെടു	-10.8814
വാന	-10.8815
▁നടനും	-10.8815
▁നിർദ്ദേശങ്ങൾ	-10.8816
▁അദ്ദേഹത്തിന	-10.8816
▁ഡെവലപ്	-10.8817
▁സേനയുടെ	-10.8819
▁ഇവരിൽ	-10.8821
▁പദ്ധതികളും	-10.8821
▁പ്രകടമായ	-10.8821
▁വര്‍ഷവും	-10.8822
▁ബഹളം	-10.8823
▁ടീമുകള	-10.8826
▁പേരെയും	-10.8827
▁മോദിയും	-10.8828
ുളളത്	-10.8828
▁നിലനിർത്ത	-10.8829
▁പ്രതികൂല	-10.8831
▁അതിക്രമിച്ച	-10.8833
▁കുമാറിന്	-10.8834
▁വിവാദത്തില്‍	-10.8835
▁കഴിയുക	-10.8836
▁വീട്ടിലെത്തിയ	-10.8836
▁കൈമാറിയത്	-10.8837
പ്പോല	-10.8837
▁കുപ്പി	-10.8838
▁റിലീസ	-10.884
ശന	-10.8841
▁ഉപരോധ	-10.8842
▁വിലയിരുത്തിയ	-10.8847
▁ട്രാ	-10.8847
▁നേതൃത്വത്ത	-10.8848
▁റിപ്പോർട്ടുകള	-10.885
▁റിക്രൂട്ട്മെന്റ	-10.885
ിലൂടെയും	-10.8851
▁എന്തും	-10.8851
▁ചേർന്നു	-10.8855
▁ഇന്നു	-10.8855
തിനെക്കുറിച്ച്	-10.8855
▁ആരംഭിച്ച്	-10.8857
▁ജൂ	-10.8858
വാഹ	-10.8859
ിടത്ത	-10.8861
▁സുഹൃത്തുക്കള്‍	-10.8863
▁അനുവദിക്കണമെന്ന	-10.8863
രാശി	-10.8864
▁രാത്രിയോടെ	-10.8868
റ്ററ	-10.8869
▁കാല്‍	-10.8869
ൈൻ	-10.8871
▁പറയേണ്ട	-10.8872
▁ഇബ്രാഹിം	-10.8872
▁കാഞ്ഞങ്ങാട്	-10.8872
▁ശരണ്യ	-10.8872
▁പിന്നോക്ക	-10.8872
▁ഫുട്	-10.8873
▁ഗൗതം	-10.8873
▁ബ്ലാക്ക്	-10.8874
▁കൂടിക്കാഴ്ച്ച	-10.8874
▁പ്രതിഷേധത്തിന്	-10.8874
▁ചീ	-10.8874
▁പൂര്‍ണമായി	-10.8876
▁ഇല്ലെങ്കില്‍	-10.8877
▁മാരാര	-10.888
▁സംസ്ഥാനങ്ങൾ	-10.888
▁കൂൾ	-10.8881
▁കോർ	-10.8885
▁മുന്നോട്ടുപോക	-10.8885
▁ഹാജി	-10.8887
▁സമൂഹമാധ്യമങ്ങള	-10.8888
ാകാം	-10.8889
▁കഴിഞ്ഞദിവസം	-10.889
▁വിഭാഗത്തെ	-10.889
പട്ടിക	-10.889
▁കമല്‍നാഥ	-10.8892
▁ചുമത്തി	-10.8893
▁ഓഫീസുകള	-10.8894
▁സിഎസ്	-10.8895
▁തോമസിന്റെ	-10.8897
▁ജോജു	-10.8898
▁ഭരിച്ച	-10.8898
▁നഗര്‍	-10.8898
▁തൈ	-10.8902
▁ക്കൊപ്പം	-10.8907
ോളി	-10.8908
▁നടക്കുന്നു	-10.8909
മേല്‍	-10.8909
▁കസ്റ്റഡിയില	-10.8913
▁വേണു	-10.8915
▁മത്സരിക്കാൻ	-10.8919
▁റാണ	-10.892
▁എതിർപ്പ	-10.892
▁140	-10.8924
▁ലക്ഷ്യമെന്ന	-10.8928
▁പറന്ന	-10.893
▁ലക്ഷണങ്ങള്‍	-10.893
▁ഇരുവരെ	-10.8931
ബർ	-10.8933
▁ലൈറ്റ്	-10.8935
▁ഒപ്പ	-10.8936
ാകണം	-10.8937
▁വികാസ്	-10.8939
▁നിർത്തിയ	-10.8941
▁പകരുന്ന	-10.8941
ക്കുന്നതിന്	-10.8941
▁രാശിക്കാര്‍	-10.8943
▁വിഷയങ്ങള	-10.8943
ിട്ടുണ്ടെങ്കിലും	-10.8943
▁കരുതിയത്	-10.8944
▁വിദ്യാർത്ഥികളെ	-10.8944
കളില	-10.8944
▁നടപ്പാക്കുന്നത്	-10.8945
▁ഗുണ്ട	-10.8945
▁സരിത	-10.8947
▁വര്‍ധനവ	-10.8947
▁പട്ട	-10.8948
എല്ലാ	-10.8949
▁പറക്ക	-10.895
▁അനുവദിക്കും	-10.8951
▁പ്ലാന്റ	-10.8952
▁സമ്മേളനത്ത	-10.8952
▁കിട്ടാത്ത	-10.8954
ായിരിക്കാം	-10.8959
▁ഫൈ	-10.8961
▁ബാധിത	-10.8961
ക്കില്ല	-10.8963
▁തെറ്റിദ്ധാരണ	-10.8963
▁ഷിന്‍ഡെ	-10.8963
▁കിടിലം	-10.8963
▁പെട്രോളിയം	-10.8963
▁ഇവിടേക്ക	-10.8964
▁മാര്‍ഗ്ഗ	-10.8964
▁ട്രാൻസ്	-10.8964
▁ഘടകങ്ങള	-10.8965
▁ദോഹ	-10.8965
▁അനീതി	-10.8967
▁സെന്ററില	-10.8969
▁വടക്കൻ	-10.897
▁പവാറ	-10.8971
േര	-10.8972
▁അത്തരത്തില	-10.8973
▁ജെയ്	-10.8977
യാൾ	-10.8977
▁താമസിക്കുന്നത്	-10.8978
▁ജോയി	-10.8979
▁പിടിക്കുന്ന	-10.8982
▁ട്രംപ	-10.8984
▁അമേരിക്കയിലെ	-10.8985
▁ഓഫീസിന്	-10.8985
▁സമ്പത്ത	-10.8988
യ്ക്കുന്ന	-10.8992
▁വോട്ടും	-10.8995
▁വയസിന്	-10.8998
▁സാബു	-10.8998
യടക്കം	-10.9001
ക്കൊപ്പമാണ്	-10.9001
ുണ്ടാകുമെന്ന	-10.9002
▁വേഷം	-10.9002
▁പെയ്ത	-10.9003
▁ചിലരുടെ	-10.9003
▁സ്ഥാപനം	-10.9004
▁ജഗ	-10.9006
▁മാര്‍ച്ച	-10.9007
▁സ്വാ	-10.9007
▁മാസങ്ങളില	-10.9007
മൂല	-10.9008
▁ഭാഗങ്ങളില	-10.9014
പ്രിയ	-10.9016
▁വിജയകരമായി	-10.9018
▁അറിയിപ്പ	-10.902
ഭ്യ	-10.9022
▁വ്യത്യാസ	-10.9025
▁മട്ട	-10.9026
▁സർക്കാരും	-10.9026
ദര്‍	-10.9027
▁കൊയ്യ	-10.9029
▁ഉണ്ടെന്ന	-10.903
▁പറയുക	-10.903
▁സാക്ഷികളെ	-10.9034
▁മന്‍	-10.9035
▁റോള്‍	-10.9038
കൃഷ്ണ	-10.9039
യിട്ട	-10.904
▁വിദേശത്തു	-10.904
▁നഗരങ്ങള	-10.9041
▁സിനിമകള്‍	-10.9048
ാതി	-10.9049
▁സീസണ	-10.905
▁കാര്യമല്ല	-10.9054
▁കാഴ്ചപ്പാട	-10.9055
▁ചിത്രീകരിച്ച	-10.9055
▁ബാനർജി	-10.9055
▁പട്ടാമ്പി	-10.9055
▁യഥാക്രമം	-10.9055
▁സ്മാരക	-10.9055
▁ഉണ്ടെങ്കിൽ	-10.9055
▁നിരസിച്ച	-10.9056
കുമാറ	-10.906
▁മണിക്കൂറോളം	-10.906
▁വർഷങ്ങളായി	-10.9061
▁അധികാരത്തില	-10.9061
▁സംസാര	-10.9063
ാനുമുള്ള	-10.9065
ക്കാലം	-10.9066
▁വല്ലാതെ	-10.9066
▁തോമസ	-10.9066
▁അവസാനിക്കുന്ന	-10.9068
▁മൂലമ	-10.9068
▁മൂന്നര	-10.9068
▁ഒഴിവാക്കണം	-10.907
▁ഗെഹ്ലോട്ട്	-10.9072
▁പിന്ന	-10.9074
▁ബസുകള	-10.9074
▁ശ്രീധരന്‍	-10.9078
▁ഞെട്ട	-10.9078
കരമാണ്	-10.9079
▁കൂളിലെ	-10.9083
▁മുഖത്ത്	-10.9084
▁മുമ്പും	-10.9086
▁വെക്കുന്ന	-10.9087
▁കോര്‍പറേഷന്‍	-10.9089
▁അവഗണിക്ക	-10.9091
▁വിമർശിച്ചു	-10.9092
▁മാത്രമായിരിക്ക	-10.9093
▁വിജയന	-10.9095
▁രംഗത്തുവന്ന	-10.9098
▁വന്നവരാണ്	-10.91
▁ശക്ത	-10.9101
മാല	-10.9102
▁പുഷ്പ	-10.9103
▁തീരുമാനമെടുത്ത	-10.9105
▁പുറത്തുവരുന്നത്	-10.9106
▁സ്ഥല	-10.9106
പിള്ള	-10.9107
▁പ്രതീക്ഷിക്കാം	-10.9111
▁ആവേശം	-10.9114
▁ആണെന്നാണ്	-10.9115
എന്നാൽ	-10.9115
▁വോട്ടാണ്	-10.9117
▁മാറുന്ന	-10.9119
▁കോഡ	-10.912
▁അസി	-10.9122
യുമെല്ലാം	-10.9123
▁ലൈസൻസ്	-10.9123
ുകാര്‍	-10.9129
ുന്‍സിപ്പാലിറ്റി	-10.9133
▁പിന്നിലെ	-10.9138
ര്‍ണ	-10.9141
കൂട	-10.9142
ഇന്‍സ്റ്റിറ്റിയൂ	-10.9143
▁ലാല	-10.9145
▁നമ്പറുകള	-10.9145
ജിത്ത്	-10.9146
▁ഹു	-10.9146
▁വാര്‍ഡുകള	-10.9147
▁എഡിജിപി	-10.9148
▁ചെയര്‍പേഴ്	-10.9148
▁പാലാരിവട്ടം	-10.9148
▁സ്ട്രാറ്റജി	-10.9148
▁പാർടി	-10.9148
▁വെടിയേറ്റ	-10.9148
▁വേണുഗോപാൽ	-10.915
▁ജോഡോ	-10.9151
▁എക്കാലത്ത	-10.9153
▁പാര്‍ട്ടികളും	-10.9153
▁പോര്‍ട്ട്	-10.9154
▁അഡീഷണല്‍	-10.9154
▁സഹോദര	-10.9154
▁ഇടപാടുകള	-10.9155
മേൽ	-10.9157
▁സമൂഹത്തെ	-10.9158
▁സാധിക്കുക	-10.9158
ുവരികയാണ്	-10.9166
▁പ്രവര്‍ത്തകന	-10.9167
▁ദുരന്തം	-10.9169
▁വഴിയും	-10.917
▁കാപ്പ	-10.9174
▁ഇസ്	-10.9178
▁പരിശോധിക്കാം	-10.9178
ക്കേണ്ട	-10.9178
▁സംസ്ഥാനങ്ങളും	-10.918
▁നോട്ട്	-10.9181
▁അഭിഭാഷകന	-10.9181
▁110	-10.9181
▁സരിത്ത	-10.9182
▁സംസ്ഥാനങ്ങളുടെ	-10.9183
▁ആരോപിച്ചത്	-10.9183
▁പെട്രോളിന്	-10.9185
▁കൃത്യ	-10.9186
▁അറിയാൻ	-10.9187
▁തുടരുന്നത്	-10.9187
▁ലൈ	-10.9188
▁സഹോദരൻ	-10.9189
▁പ്രോജക്ട്	-10.919
▁മീര	-10.9192
▁തെരഞ്ഞെടുപ്പിന്	-10.9192
വരെയാണ്	-10.9193
ക്കാൾ	-10.9194
▁വൺ	-10.9195
▁വച്ചാണ്	-10.9196
▁നിത	-10.9197
▁സംസ്ഥാനങ്ങളില	-10.9198
▁യുവാവ	-10.9199
▁കുടിക്ക	-10.92
നല്‍	-10.9202
▁തയ്യാറാണെന്ന്	-10.9203
▁നഷ്ടമാക	-10.9205
ുമെന്നായിരുന്നു	-10.9205
▁കുറ്റകൃത്യങ്ങള	-10.9206
ഹരി	-10.9206
▁പശ്ചാത്തല	-10.9206
ട്ടും	-10.9206
യിലൂടെയാണ്	-10.9208
വെയ്ക്ക	-10.9208
▁സമ്മാനിച്ച	-10.921
ചിത്ര	-10.9216
▁ജോലികള്‍	-10.9217
യുമില്ല	-10.922
ാനാകും	-10.9222
▁എൽഡിഎഫ	-10.9223
▁പോകുന്നില്ല	-10.9228
▁സ്പീക്കറ	-10.923
ിത്	-10.9231
▁തരത്തിലാണ്	-10.9232
▁രൂപപ്പെട	-10.9234
▁കാട്ടി	-10.9235
ത്തേക്കാള്‍	-10.9236
▁പിന്തുണയോടെ	-10.9239
▁പ്രധാനമാണ്	-10.924
▁കമ്മ്യൂണിറ്റി	-10.9241
▁പ്രായോഗിക	-10.9241
▁മട്ടാഞ്ചേരി	-10.9241
▁മണിക്കുട്ടൻ	-10.9241
▁മലബാര്‍	-10.9241
▁ചെറുകിട	-10.9242
▁മരണസംഖ്യ	-10.9242
▁10.30	-10.9242
▁കനയ്യ	-10.9242
▁ഇതുവഴി	-10.9243
▁നിര്‍മല	-10.9243
▁ശിവരാജ്	-10.9243
▁ആഭ്യന്തരമന്ത്രി	-10.9246
▁പാര്‍ട്ടിയും	-10.9247
▁ഉന്നയിച്ച്	-10.9249
▁വിദ്യാര്‍ഥി	-10.9249
▁അറിയിച്ച്	-10.9249
ഗ്ഗ	-10.925
▁മക്കൾ	-10.9251
▁ബാധിക്കുമെന്ന	-10.9254
▁പങ്കു	-10.9255
▁പ്പി	-10.9256
ുകയുള്ളൂ	-10.926
▁അവനെ	-10.926
▁പൊതുജന	-10.9261
ൻ്റ്	-10.9262
▁കോട	-10.9265
▁വ്യാപിച്ച	-10.9265
▁വന്നുചേരും	-10.9266
▁കൈയ്യില	-10.9267
ാനാവില്ലെന്ന	-10.9268
▁ഭാഗത്തേക്ക	-10.9269
▁കേന്ദ്രത്തിന്	-10.927
ുവന്ന	-10.927
▁പാലിക്കുക	-10.927
▁ചെയ്യപ്പെടുന്ന	-10.9272
▁കൊലപാതകത്ത	-10.9274
▁കാത്ത്	-10.9275
▁ഡാ	-10.9277
▁പദവിയില്‍	-10.9277
▁മുൻപിൽ	-10.9279
▁പരിസര	-10.9281
▁പാചക	-10.9281
▁മമതയുടെ	-10.9282
ന്നത്	-10.9283
കേസ	-10.9283
▁പ്രസവ	-10.9285
യിലുണ്ടായിരുന്ന	-10.9286
▁രൂപയുമാണ്	-10.9289
▁കാണുന്നുണ്ട്	-10.9291
▁സര്‍ക്കാരുകള്‍	-10.9294
▁ഓര്‍മ്മ	-10.9296
▁കാണാതെ	-10.9297
▁തുടങ്ങിയവർ	-10.9299
▁കുറ്റി	-10.9299
ലക്ഷം	-10.93
നിയമ	-10.93
▁വാങ്ങാന	-10.9303
▁ആസ്ഥാനത്ത്	-10.9304
മണ്‍	-10.9307
▁ചുഴലിക്കാറ്റ	-10.931
നോട്	-10.9311
▁നേടും	-10.9312
മാക്കുന്ന	-10.9312
▁കോൺഗ്രസ്സ്	-10.9312
ബറ	-10.9314
ദീ	-10.9318
യാണു	-10.9319
▁നഷ്	-10.9322
വകുപ്പ്	-10.9324
▁കേന്ദ്രങ്ങൾ	-10.9325
▁എന്നിട്ട്	-10.9325
▁വോട്ടിന്	-10.9326
ംകുളം	-10.9328
ഗണ	-10.9334
▁അതിതീവ്ര	-10.9336
▁ശിഹാബ്	-10.9336
▁മോഷ്ടിച്ച	-10.9336
▁റഹീം	-10.9336
▁തക്കാളി	-10.9336
▁ഗുപ്ത	-10.9336
പ്പില്‍	-10.9336
▁വൈദ്യ	-10.9336
▁റിസര്‍വ്	-10.9336
▁മേഘ	-10.9337
▁നൂറു	-10.9337
▁ലഭിക്കുമെന്ന്	-10.9339
▁തയ്യാറായി	-10.9341
▁ഹാജരാക്ക	-10.9342
▁രോഗബാധിതരുടെ	-10.9342
▁സണ്ണി	-10.9342
▁കഠിന	-10.9342
▁സ്വീകരിക്കാൻ	-10.9343
▁ലഭിച്ചാല്‍	-10.9344
▁എട്ടിന്	-10.9345
▁ഭേദ	-10.9346
▁വിഡിയോ	-10.935
▁ജീവിതത്തെ	-10.9351
പക	-10.9351
ുടമ	-10.9353
മൂലം	-10.9353
▁മധ്യപ്രദേശിലെ	-10.9353
ാട്ട്	-10.9354
▁സുരക്ഷിതമായ	-10.9355
▁പറയുന്നില്ല	-10.9359
ചാര	-10.9362
തയുടെ	-10.9368
▁മന്ത്രിമാർ	-10.9369
▁ഡിംപല്‍	-10.9373
▁അല്‍പ	-10.9373
▁തേടുന്ന	-10.9375
▁ഗോപിയുടെ	-10.9375
ലൂ	-10.9381
▁മിഷന	-10.9381
▁മത്സരങ്ങള്‍	-10.9382
ുന്നില്ലെന്നും	-10.9382
▁റോഡുകള	-10.9383
▁ഒമാന്‍	-10.9384
▁അഭിഭാഷക	-10.9385
▁ജ്യോതിഷ	-10.9385
▁ഭൂമിയുടെ	-10.9386
▁പരിശ്രമ	-10.9388
▁റ്റേഷന	-10.9388
ിലുണ്ടായിരുന്ന	-10.9392
▁സൈറ്റില്‍	-10.9392
െത്തിച്ച	-10.9394
വേലി	-10.9395
▁തങ്ക	-10.9399
▁മണിക്കൂറും	-10.94
▁അക്രമികള്‍	-10.9402
▁പാലിക്കുന്ന	-10.9404
ത്താണ്	-10.9405
▁നൽകേണ്ട	-10.9405
▁ലംഘനം	-10.9407
▁നല്‍കുന്നുണ്ട്	-10.9408
▁പ്രദേശില്‍	-10.9409
▁എന്നറിയ	-10.9409
▁പടര്‍ന്ന	-10.9409
രത്തോളം	-10.941
▁സഭയിൽ	-10.941
▁2008	-10.941
▁സ്വന്തമാക്കി	-10.941
▁അധ്യാപകന	-10.941
▁ദുഷ്	-10.9411
▁കടകള്‍	-10.9412
▁തടവ	-10.9412
▁അടുക്ക	-10.9413
▁പേജ	-10.9414
പറഞ്ഞ	-10.9416
▁ശ്രദ്ധിക്കുക	-10.9417
▁പേരു	-10.942
▁കാരണമ	-10.9422
▁മുമ്പുള്ള	-10.9423
▁എസ്എഫ്	-10.9424
▁ദുരൂഹത	-10.9427
▁എതിര്‍	-10.9428
ാനുമതി	-10.9429
▁ആക്ട്	-10.943
▁വ്യോമ	-10.9431
▁തീർച്ചയായും	-10.9431
ഗഡ്	-10.9431
▁പുരോഗമന	-10.9431
▁തികഞ്ഞ	-10.9431
▁ടീച്ചര്‍	-10.9431
▁ആംആദ്മി	-10.9431
െന്നുമായിരുന്നു	-10.9431
▁ഡെമോക്രാറ്റിക്	-10.9431
▁ബ്ലെസ്ലി	-10.9432
▁കഴിഞ്ഞാൽ	-10.9433
▁രവീന്ദ്ര	-10.9434
▁സായുധ	-10.9434
▁സമഗ്രമായ	-10.9435
▁തൻ്റെ	-10.9436
കാവ്	-10.9439
▁വേദിയില്‍	-10.944
ത്തോടൊപ്പം	-10.944
▁ജീവിതത്തിലേക്ക്	-10.9441
▁-19	-10.9442
ക്കുമ	-10.9445
▁കൂളുകള്‍	-10.9449
▁ആസ്ഥാനമായ	-10.9451
▁ഇന്ത്യക്കാര	-10.9452
▁നഗർ	-10.9452
ധര	-10.9452
▁വീഡിയോയിൽ	-10.9453
▁ചൊ	-10.9453
▁വിഷു	-10.9454
വരുടേയും	-10.946
▁ഹൈസ്	-10.946
മൺ	-10.9462
ഭാഗത്ത	-10.9463
വുമുണ്ട്	-10.9463
വിസ്	-10.9464
▁ചെയ	-10.9464
▁നടത്താന	-10.9465
▁കയ്യിൽ	-10.9466
▁ടൂ	-10.9469
▁പദ്ധതികളുടെ	-10.9469
▁അപൂര്‍വ	-10.947
▁രാവിലെയാണ്	-10.947
നത്തിന്	-10.9471
സര	-10.9473
▁പ്രസംഗത്ത	-10.9475
▁വൈദ്യുത	-10.9477
▁എതിര്‍പ്പ്	-10.9477
▁തടി	-10.9478
▁ധൈര്യം	-10.9479
▁സജ്ജമാക്ക	-10.9481
▁കിലോമീറ്ററ	-10.9484
▁തീരങ്ങള	-10.9487
ഡബ്ല്യു	-10.9489
▁നിർബന്ധ	-10.9489
▁അതിനോട്	-10.9492
വ്വ	-10.9494
▁തുടർന്നു	-10.9496
▁ഉപേക്ഷിച്ച്	-10.9497
രാഷ്ട്രീയ	-10.9499
മല്ലെന്നും	-10.9502
നാക	-10.9503
▁ഇസ്ലാമി	-10.9503
▁ഭേദമായ	-10.9504
ര്‍ട്ട്	-10.9507
ിക്കൽ	-10.9508
ിസ്റ്റ്	-10.951
▁അംഗങ്ങളും	-10.951
▁വിജയന്	-10.9511
▁വ്യക്തിത്വ	-10.9512
▁നാലിന്	-10.9513
▁രാജസ്ഥാന	-10.9513
▁കരയ	-10.9514
▁ലാബ	-10.9515
നെയും	-10.9515
▁ണം	-10.9516
h	-10.9516
▁ആവശ്യങ്ങള്‍	-10.9517
▁ലീഡ	-10.9518
ഢ	-10.952
▁ഇഷ്ടപ്പെടുന്ന	-10.9523
▁ഒഴികെ	-10.9523
േക്കാമെന്ന	-10.9524
▁പഞ്ചാബ	-10.9525
▁എഐ	-10.9526
▁പുറത്തുവിട്ടത്	-10.9526
▁ഗേറ്റ്	-10.9526
പ്പോലെ	-10.9527
▁പിരിച്ചുവിട	-10.9527
▁ഈരാറ്റുപേട്ട	-10.9527
▁ഹജ്ജ്	-10.9527
▁ശല്യം	-10.9527
▁സ്ഥിതിഗതികള	-10.9527
▁ഊര്‍ജ	-10.9527
▁എൻട്രി	-10.9529
▁ഘടകം	-10.953
ക്കൂ	-10.9533
▁വിദ്യാ	-10.9536
▁ചെയ്യാനാണ്	-10.9537
▁ഇരുന്ന്	-10.9538
▁മുമ്പില്‍	-10.9539
▁രംഗത്തുണ്ട്	-10.9539
▁വെല്ലുവിളിയാണ്	-10.954
▁കണ്ടുപിടിക്ക	-10.9541
▁2004	-10.9541
▁നാടിനെ	-10.9543
▁ലഭിച്ചില്ല	-10.9544
▁നിരത്തി	-10.9546
പ്പറ്റി	-10.9547
ല്ലെന്ന്	-10.9549
ുന്നുണ്ടെന്ന്	-10.955
▁കമ	-10.9552
▁കടമ	-10.9553
▁വിജ്ഞാപനം	-10.9554
▁അലക്	-10.9556
▁സമൂഹത്തിൽ	-10.9556
▁തെളിയ	-10.9556
▁അഭിമുഖ	-10.9561
▁നേതൃത്വവും	-10.9564
▁ഒളിവില്‍	-10.9566
േണ്ടതുണ്ടെന്നും	-10.9569
▁പരസ്പര	-10.957
▁നിലവാരം	-10.9571
▁ഹൈദരാബാദ	-10.9571
▁വേതന	-10.9571
▁സൗര	-10.9573
▁എംഎൽഎമാര	-10.9575
▁റിലയന്‍സ്	-10.9575
യാണെങ്കില്‍	-10.9576
▁ഖേദ	-10.9577
▁അന്ത്യം	-10.9578
യുണ്ടാകും	-10.9579
▁രൂപീകരണ	-10.9581
▁ധീര	-10.9583
▁ഹൈക്കോടതിയിൽ	-10.9583
▁കൂറുമാറിയ	-10.9584
ാവട്ടെ	-10.9586
▁കഥാപാത്ര	-10.9587
▁പോക്	-10.9587
ഭാവ	-10.9592
▁പാർട്ടിയിലെ	-10.9594
▁സൈന്യത്തെ	-10.9594
▁ഭക്ഷണവും	-10.9596
ക്കാം	-10.9596
▁ഓട്ട	-10.9596
▁(2,	-10.9599
▁ലിസ്റ്റ	-10.9599
▁പൂട്ടി	-10.96
▁പേരിലുള്ള	-10.9605
വീട്ട	-10.9606
▁ബിഎസ്	-10.9606
▁സ്ത്രീയെ	-10.961
ാമോ	-10.9615
▁കയറിയത്	-10.9615
▁ജയില	-10.9615
ബേ	-10.9615
▁കക്ഷികള്‍	-10.9619
▁വേണമെങ്കി	-10.962
ഭക്ത	-10.9621
▁നടപടിയും	-10.9621
യിടങ്ങള	-10.9623
▁ദൂര	-10.9623
▁ഓര്‍ക്ക	-10.9623
▁വിപ്ലവ	-10.9624
▁മാസത്തോള	-10.9624
▁അങ്കമാലി	-10.9624
▁വെള്ളാപ്പള്ളി	-10.9624
▁സഖാക്കള	-10.9624
▁സൗമ്യ	-10.9624
▁ഉപതെരഞ്ഞെടുപ്പ	-10.9624
▁നിലപാടുകള	-10.9624
▁കവര്‍ച്ച	-10.9625
▁ശ്രീലേഖ	-10.9625
▁പഞ്ചായത്തുകള	-10.9626
▁മിടുക്ക	-10.9629
▁വര്‍ഷത്തിനിടെ	-10.9629
▁റെയ്	-10.9629
▁എണ്ണവില	-10.963
▁പൊതുമേഖലാ	-10.963
▁വടക്കന്‍	-10.9631
▁ക്ഷാമം	-10.9632
▁കുറഞ്ഞ്	-10.9632
പ്പൊ	-10.9633
▁ഇറങ്ങിയത്	-10.9637
▁അബ്ദുള്ള	-10.9637
▁ശുദ്ധ	-10.9637
കള്‍ക്കായി	-10.9639
▁ജിഹാദ്	-10.9641
ാക്കുന്ന	-10.9641
▁വിഭാഗവും	-10.9643
▁യാഥാർത്ഥ്യ	-10.9644
▁പ്രാതിനിധ്യം	-10.9644
▁പൊട്ട	-10.9645
▁ഇതിനിടെയാണ്	-10.9645
▁തത്	-10.9646
സിസി	-10.9647
▁റെസ്	-10.9648
▁കേസിലാണ്	-10.9648
▁ചത്ത	-10.9649
▁കേസെടുത്ത്	-10.9651
▁ഒരുങ്ങുന്ന	-10.9651
▁പങ്കാളികള	-10.9652
മ്പാ	-10.9653
▁ചരിത്രത്തിൽ	-10.9657
▁പോയിന്റ	-10.9657
▁ഉല്‍പ്പന്നങ്ങള	-10.9659
▁130	-10.966
▁ഡബ്ല്യു	-10.9663
▁പ്രൊഫ	-10.9663
ക്കെതിരേയും	-10.9664
തുകൊണ്ട	-10.9664
▁വഴങ്ങ	-10.9666
▁സിഖ്	-10.9668
▁വ്യാപിക്കുന്ന	-10.9668
▁ജനാധിപത്യം	-10.9668
ക്കെതിരെയാണ്	-10.9669
▁രാശിയിൽ	-10.9671
▁യന്ത്ര	-10.9671
യല്ലേ	-10.9672
▁ചിത്രത്തിന്	-10.9672
ാറ്റ	-10.9675
▁ബ്രാഹ്മണ	-10.9676
▁ശ്രീജിത്ത്	-10.9676
▁പിന്തുടര	-10.9676
▁ആഘാത	-10.9677
▁രാജേന്ദ്രന്‍	-10.9678
▁അടിസ്ഥാനമാക്കിയ	-10.9678
▁രാജന്‍	-10.9679
▁നടത്താനാണ്	-10.9681
▁ചതി	-10.9683
പദ്ധതി	-10.9684
▁ഖത്തറില്‍	-10.9684
സംഭവ	-10.9684
▁സാധിക്കാത്ത	-10.9688
▁സർട്ടിഫിക്കറ്റു	-10.9689
▁സജ്ജ	-10.969
ക്കോട്	-10.969
▁മരിച്ചിരുന്നു	-10.969
▁പങ്കെടുത്ത്	-10.9691
▁കീഴ	-10.9692
ിനോ	-10.9693
▁വഴിയൊരുക്ക	-10.9693
▁പാസാക്ക	-10.9697
▁വഴങ്ങിയ	-10.9698
▁ചെയ്തതെന്ന്	-10.9701
200	-10.9705
വാക്	-10.9706
▁മന്ത്രിയുമായ	-10.9707
▁പ്രയോഗിച്ച	-10.9708
▁കാലയളവ്	-10.9709
ഫെ	-10.9709
▁മണ്ഡലങ്ങള്‍	-10.971
▁തയ്യാറാക	-10.9711
കാരന	-10.9712
▁തനി	-10.9716
▁ട്രേറ്റ്	-10.9717
▁സ്വര	-10.9718
സഹ	-10.9718
▁തമിഴ	-10.9719
▁താൽപര്യ	-10.9719
▁വ്യതിയാന	-10.9722
▁വില്‍പന	-10.9722
▁സാധ്യമായ	-10.9722
▁പ്രാപിച്ച	-10.9722
▁പോവുന്ന	-10.9722
▁മാവേലിക്കര	-10.9722
▁ചാനൽ	-10.9723
▁ഭാവന	-10.9723
▁ചോദിച്ചിരുന്നു	-10.9723
▁എൻഐഎ	-10.9723
▁ശ്രീറാം	-10.9723
▁പിറന്ന	-10.9724
▁ഭരണസമിതി	-10.9724
▁സംഘർഷം	-10.9725
▁വ്യാപിപ്പിക്ക	-10.9726
▁സേവനങ്ങൾ	-10.9727
▁രാജ്യസഭയില	-10.9727
സ്റ്റര്‍	-10.9729
▁സിഡി	-10.973
▁അപേക്ഷാ	-10.9733
▁അംഗങ്ങളെ	-10.9737
▁വരാന	-10.9739
▁വരുമ്പോൾ	-10.974
▁തീര്‍ത്ത	-10.9741
ണമ	-10.9741
▁തിരിച്ചെത്തി	-10.9741
▁ആയാലും	-10.9742
▁ബന്ധിപ്പിക്ക	-10.9745
▁ജോയിന്റ	-10.9745
▁വിഭാഗത്തിലെ	-10.9746
▁ഉള്‍പ്പെടുന്നു	-10.9746
▁പരിഗണിച്ച്	-10.9748
ങ്ങളില	-10.9748
ന്‍റ്	-10.9749
▁ശ്രമിച്ചിരുന്നു	-10.9751
▁ക്വാറന്റൈന്‍	-10.9752
▁തിരിക്ക	-10.9757
▁അന്‍	-10.9757
▁ഷാജ	-10.9759
▁പോട്ട	-10.976
ഡര്‍	-10.976
▁മൃഗങ്ങള	-10.9763
▁തങ്ങള	-10.9763
▁സ്ഥാനാർത്ഥിയായി	-10.9764
▁കണ്ണൂര	-10.9764
▁സെഷന്‍	-10.9765
▁മാധ്യമങ്ങളിലൂടെ	-10.9766
▁പാരമ്പര്യ	-10.9767
മതി	-10.9769
▁നടത്താനുള്ള	-10.977
▁സാധിക്കൂ	-10.9771
▁അപേക്ഷകൾ	-10.9775
▁നൽകുന്നു	-10.9775
ാക്കാന്‍	-10.9777
▁പരിശോധിച്ചു	-10.9779
▁പരാജയപ്പെടുത്തി	-10.9779
▁വര്‍ഷത്തിന്	-10.978
▁അധിക്ഷേപിച്ച	-10.978
പരിശോധന	-10.9781
▁വ്യാപാരികള്‍	-10.9782
▁യോഗ്യതയുള്ള	-10.9783
▁പിയെ	-10.9786
ിട്ടുണ്ടെന്ന	-10.9787
▁വാർത്തകള	-10.9787
▁മലയാളികള	-10.9788
▁താരത്തിന്	-10.9789
തുറ	-10.9793
മൊന്ന	-10.9796
▁മന്ത്രിമാരായ	-10.9798
▁തെരുവില	-10.9804
ൊര	-10.9804
▁കാക്ക	-10.9805
▁കൂടിയായിരുന്നു	-10.9806
▁സമവായ	-10.9817
▁യുഡിഎഫില	-10.9819
▁തിരുത്തി	-10.9819
▁പോപ്പുലര്‍	-10.9821
▁ഫിഷറീസ്	-10.9821
▁ബഷീര്‍	-10.9821
▁കായംകുളം	-10.9821
▁തിരച്ചിൽ	-10.9821
▁യുവാക്കൾ	-10.9821
▁എല്ലാവരോടും	-10.9821
▁സലീം	-10.9821
നുമായ	-10.9821
ര്‍ട്ടിഫിക്കറ്റ്	-10.9821
▁മിനിമം	-10.9822
▁പ്രഖ്യാപിക്കും	-10.9823
▁ഡോക്ടര്‍മാര	-10.9823
പിടിക്ക	-10.9823
▁മെഗാ	-10.9824
500	-10.9825
▁തുറന്നടിച്ചു	-10.9827
▁വധശ്രമ	-10.9828
▁കൊച്ചിയിൽ	-10.9828
▁#	-10.9829
▁സൈനികരെ	-10.983
▁പ്രേക്ഷകര്‍	-10.983
▁സീതാറാ	-10.983
▁കുണ്ടറ	-10.9831
▁ചേട്ടന	-10.9832
▁ചെയ്യുന്നതിന	-10.9832
▁ചികിത്സയിലുളള	-10.9833
▁സംഭാഷണ	-10.9833
▁മറുപടിയായി	-10.9833
രിപ്പ	-10.9834
മിക്	-10.9835
▁പാമ്പിനെ	-10.9836
ലേഖ	-10.9836
▁ക്യാമ്പുകള	-10.9836
▁ഫലങ്ങള്‍	-10.9837
ാക്കാൻ	-10.984
▁2001	-10.984
ിപ്പിച്ച്	-10.9841
പത്ര	-10.9841
മുള്ളത്	-10.9841
▁കുതിച്ച	-10.9843
ത്തുക	-10.9843
▁നേടുമെന്ന	-10.9844
▁ബില്യണ്‍	-10.9846
▁ഭാഗമായിട്ടാണ്	-10.9847
▁നൽകുമെന്ന	-10.9847
▁നാട്ടില	-10.9849
▁ജോര്‍ജിന്റെ	-10.9849
▁ജനതാ	-10.985
▁ഉണ്ടാക്കാന	-10.9852
▁എന്നുള്ള	-10.9853
▁കര്‍ശനമായി	-10.9855
▁പാലിക്കണമെന്നും	-10.9855
▁വർക്ക	-10.9855
▁പ്രതിക്ക്	-10.9856
▁കശ്മീരിലെ	-10.9857
▁വിവാദമായിരുന്നു	-10.9857
▁കൊണ്ടായിരുന്നു	-10.9857
▁നിര്‍ണായകമാണ്	-10.986
▁ഉണ്ടാകില്ല	-10.9861
▁അന്നേ	-10.9862
ലാല	-10.9862
ിനോടും	-10.9862
▁അഞ്ചിന്	-10.9863
▁മാര്‍ക്ക്	-10.9863
▁ഹൈക്കോടതിയുടെ	-10.9864
▁പ്രവർത്തകരുടെ	-10.9864
▁പ്രതിപക്ഷത്തെ	-10.9865
▁വിദഗ്ധര	-10.9865
▁സയൻസ്	-10.9866
▁ഇടതുപക്ഷത്തിന്	-10.9867
▁ബാലറ്റ്	-10.9868
▁കമ്മിഷന്‍	-10.9869
▁ദുര	-10.9873
▁ചെയ്തുവെന്ന	-10.9874
▁കമ്മിഷന	-10.9875
▁വരുമെന്നാണ്	-10.9875
്‍ക്കായി	-10.9876
▁370	-10.9876
യുമുള്ള	-10.9877
▁നിര്‍ണായകമായ	-10.9878
ക്കൂറ	-10.988
▁പാമ്പ്	-10.9881
▁ഗോവയില്‍	-10.9881
▁സ്റ്റാഫ	-10.9881
▁ഫോടന	-10.9882
▁നെഹ്	-10.9882
▁ഡയറക്ടറേറ്റ്	-10.9883
▁വാർഡ്	-10.9883
▁മോഹന	-10.9884
റ്റര്‍	-10.9884
▁ദ്	-10.9886
▁മൂന്നിന്	-10.9887
▁സ്വീകരിച്ച്	-10.9887
v	-10.9888
▁കാരണ	-10.9888
▁അപകടകരമായ	-10.989
▁വ്യക്തിയെ	-10.989
ഗ്രാ	-10.989
▁മസ്ജിദ്	-10.9891
▁ജോര്‍ജ	-10.9894
▁തിരിച്ചടിയായ	-10.9894
▁യാത്രക്കാർ	-10.9896
▁അപ്പോഴും	-10.9898
▁ആലപ്പുഴയില്‍	-10.9898
▁സംസ്ഥാനമാണ്	-10.9899
▁ണ്ടാ	-10.9899
▁ചെറുപ്പക്കാര	-10.99
▁ബൈഡന	-10.9902
▁നിര്‍ത്താന്‍	-10.9903
നാവ	-10.9903
ാനാവും	-10.9906
യിലുള്ളത്	-10.9906
▁മന്ത്രിയെ	-10.9906
മുണ്ടോ	-10.9907
കളുണ്ട്	-10.991
▁തടസ്സമ	-10.9912
▁താൽക്കാലിക	-10.9914
▁മനസിലാക	-10.9915
▁ഹാജരാക്കി	-10.9919
▁അസോസിയേഷൻ	-10.9921
▁താലിബാൻ	-10.9921
▁പുനരധിവാസ	-10.9921
▁വഴിത്തിരിവ	-10.9921
▁നോമിനേഷന	-10.9921
▁നൂറ	-10.9921
▁ടൂറിസ്റ്റ	-10.9922
▁കപില്‍	-10.9922
ബാധിതരുടെ	-10.9923
▁റോഷി	-10.9924
▁സാമന്ത	-10.9924
▁രുചി	-10.9924
▁കോണ്‍ഗ്രസിന്‍റെ	-10.9925
▁മടങ്ങിയത്	-10.9926
ുമായാണ്	-10.9927
▁ശാല	-10.9928
ാറുള്ള	-10.9929
▁ലൈവ്	-10.993
തവണ	-10.993
▁നടത്താനും	-10.993
▁ലാണ്	-10.9933
▁എത്തിയതോടെ	-10.9933
▁&	-10.9934
▁കത്തിക്ക	-10.9934
▁യുഎന്‍	-10.9938
▁വയ്യ	-10.9939
▁ലോക്കല്‍	-10.9943
▁മരം	-10.9944
ഐസി	-10.9945
▁ഇന്റലിജന്‍സ്	-10.9946
ർദ്ദ	-10.9946
▁സിന്ധ്യയുടെ	-10.9947
▁ആറിന്	-10.995
ബിൾ	-10.995
നൽ	-10.9951
▁ശിവകുമാറ	-10.9955
▁സമയമ	-10.9957
▁മത്സരിപ്പിക്കാന	-10.9958
▁അപേക്ഷകള്‍	-10.996
▁സജീവമാണ്	-10.9962
▁പേസ്	-10.9965
▁അദ്ദേഹത്ത	-10.9965
▁പൂർത്തിയാക്കി	-10.9966
▁വിദഗ്ധർ	-10.9967
▁അവളെ	-10.9968
!!!	-10.997
▁രക്ഷപ്പെടാന	-10.9971
ുകളുടെയും	-10.9972
▁അലേർട്ട്	-10.9972
▁മറികടക്കാന	-10.9975
▁വേള	-10.9976
▁വേതനം	-10.9977
▁പ്രതിഷേധമാണ്	-10.9978
▁സീന	-10.9978
100	-10.9982
ബിജെപി	-10.9984
▁ലിറ്ററിന്	-10.9984
▁തനിച്ച്	-10.9984
ജയ	-10.9984
ലുകൾ	-10.9985
വാൻ	-10.9986
▁പുറത്തുവന്നത്	-10.9986
▁ആശയങ്ങള	-10.9986
▁ധാ	-10.9988
▁വിഷയങ്ങൾ	-10.9989
▁ഉണ്ടാകുമെന്ന	-10.9989
▁എംജി	-10.999
▁മനസ്സിലാക്കി	-10.999
▁നോക്കുന്ന	-10.9991
▁കണ്ണു	-10.9992
▁നിർദേശിച്ച	-10.9992
▁കണ്ടെടുത്ത	-10.9993
▁ഓപ്ഷന	-10.9993
രാക	-10.9993
▁ഷൂട്ട്	-10.9993
▁വേണ്ടെന്ന	-10.9994
▁ചുര	-10.9995
▁സമ്പാദിക്ക	-10.9996
▁അവതരിപ്പിച്ചത്	-10.9996
ന്മാര	-10.9997
▁കാര്യങ്ങളെ	-10.9997
▁മരണങ്ങളും	-10.9998
മനുസരിച്ച്	-10.9999
ബാല	-11
▁പരാമര്‍ശങ്ങള്‍	-11
▁സിദ്ദിഖ	-11.0001
▁കിട്ടിയില്ല	-11.0002
▁പ്രതിയാണ്	-11.0003
▁ഒരിടത്ത	-11.0004
▁കഴിയില്ലെന്നും	-11.0004
▁ദൃശ്യങ്ങള	-11.0004
▁രാജീവ	-11.0005
▁സൗകര്യങ്ങളും	-11.0008
▁നടത്തുന്നതിന്	-11.001
സമര	-11.002
ുന്നവർ	-11.002
▁കിഷോര്‍	-11.0022
▁പുതുച്ചേരി	-11.0022
▁മാര്‍ഗനിര്‍ദേശ	-11.0022
▁വെല്‍ഫെയര്‍	-11.0022
▁ലൊക്കേഷന	-11.0022
▁കൊടുവള്ളി	-11.0022
▁ഡിവൈഎസ്പി	-11.0022
ക്കാട്ട	-11.0022
▁സെപ്തംബര്‍	-11.0022
▁ഊർജ	-11.0022
▁ദുബെ	-11.0023
▁മോര്‍ച്ച	-11.0024
പടി	-11.0027
▁തെളിഞ്ഞു	-11.0027
റ്റു	-11.0028
▁നടത്തണമെന്ന്	-11.0029
▁ഉടമസ്ഥതയിലുള്ള	-11.0029
▁ഓഫര്‍	-11.0029
▁ഇക്കാര്യ	-11.003
▁നൂറുകണക്കിന്	-11.003
▁ഭേദമായി	-11.0032
▁3000	-11.0032
▁തലസ്ഥാനമായ	-11.0032
▁ഗുഡ്	-11.0033
▁ഇറാന്റെ	-11.0033
▁രംഗ	-11.0034
ഡീ	-11.0034
രുത	-11.0035
സിംഗ്	-11.0036
▁ഉന്നതതല	-11.0036
▁കൊവിഡിനെ	-11.0036
▁രണ്ടിടത്ത	-11.0036
രംഗത്ത്	-11.0037
▁അഫ്ഗാനിസ്ഥാന	-11.0038
▁വെടിവെച്ച	-11.0038
▁ആനുകൂല്യം	-11.0039
ശ്ശ	-11.0039
▁സ്ഥാപനത്തിൽ	-11.0041
▁ശനിയുടെ	-11.0044
▁ഇയാള്‍ക്ക്	-11.0044
മ്മാ	-11.0047
▁സതീഷ്	-11.005
കരണ	-11.0051
▁വാവ	-11.0052
▁പാർക്ക	-11.0052
▁താരങ്ങളുടെ	-11.0054
▁പാപ്പ	-11.0055
മറ്റ	-11.0056
▁തയ്യാറാകണമെന്ന	-11.0056
▁താരമാണ്	-11.0057
▁താരത്തെ	-11.0057
ദീപ്	-11.0057
▁മറ്റാര	-11.0058
▁രോഗലക്ഷണങ്ങള്‍	-11.0059
ലുകള്‍	-11.006
▁പ്പ	-11.0064
▁വെള്ളപ്പൊക്ക	-11.007
▁നേട്ടമാണ്	-11.0071
▁കീഴില	-11.0072
▁അനൂപ	-11.0076
▁പൗരന	-11.0076
▁ശക്തമാക്കി	-11.0077
▁സയന്‍സ്	-11.0077
▁ശുഭകരമായ	-11.0078
ാലയ	-11.008
▁താല്‍പര്യ	-11.0081
ാരം	-11.0083
ആരോഗ്യ	-11.0086
▁സൂരജ	-11.0086
▁പാഠ	-11.0086
▁മേരി	-11.0087
▁വിടി	-11.0088
▁പുറത്തുനിന്ന	-11.009
▁രണ്ടിന്	-11.0093
▁കൂട്ടു	-11.0094
പിസി	-11.0099
യോട	-11.0102
▁എമ്മിന്റെ	-11.0102
▁ലിമിറ്റഡ	-11.0104
▁അനിത	-11.0104
▁അബു	-11.0106
യായും	-11.0106
▁എട	-11.0107
മാരെയും	-11.0107
▁സർക്കാരിന	-11.0107
ണര്‍	-11.0107
▁മുന്നിലാണ്	-11.0108
യില്ലെന്ന്	-11.0108
▁ഫ്രണ്ട	-11.0109
▁പ്രതിപക്ഷത്ത	-11.0113
റുകളും	-11.0114
▁ചെന്നൈയില്‍	-11.0115
▁വൃത്തിയാക്ക	-11.0118
':	-11.0119
▁നാട്ട	-11.012
▁പ്രകടിപ്പിച്ചു	-11.0122
▁പദം	-11.0122
▁കമ്മീഷണർ	-11.0124
▁കൊൽക്കത്ത	-11.0124
▁ഖാര്‍ഗെ	-11.0124
▁ടെക്നോളജി	-11.0124
▁നാമനിര്‍ദേശ	-11.0124
▁പൂര്‍ത്തീകരിക്ക	-11.0124
▁പ്രതിച്ഛായ	-11.0124
▁മഞ്ചേശ്വരം	-11.0124
▁തൊഴിലുറപ്പ്	-11.0124
▁108	-11.0124
▁വീഴ്ച്ച	-11.0124
▁എങ്കിൽ	-11.0124
▁സിൽവർ	-11.0125
▁ഗാര്‍ഡ	-11.0125
▁സമ്മാനിക്കും	-11.0125
ഞ്ഞി	-11.0125
▁നഗറില	-11.0125
▁കന്നഡ	-11.0125
ങ്ങാട്	-11.0126
▁അഭിഭാഷകര	-11.0127
▁മടക്കി	-11.0128
ാമത്തെ	-11.0129
▁രമേശ	-11.013
▁ഉയർത്തുന്ന	-11.0131
ിയാൽ	-11.0132
▁പിതാവ	-11.0132
▁ബിഹാറ	-11.0133
▁വിഭാഗത്തില	-11.0133
▁മൈല	-11.0136
▁പൊള്ള	-11.0136
▁വ്യക്തമാകുന്നത്	-11.0137
▁ഹൗസില	-11.0138
▁പ്രവർത്തിക്കാൻ	-11.0139
▁പ്രകാരമുള്ള	-11.014
▁വിമര്‍ശിച്ച്	-11.0141
പ്പടി	-11.0145
▁കുട്ടിക്ക്	-11.0146
ാകുമോ	-11.0146
▁സാമ	-11.0146
ധാരണ	-11.0147
▁എന്നിവയ്ക്ക	-11.0148
▁വില്‍ക്കുന്ന	-11.0149
ികളും	-11.015
തായുള്ള	-11.015
▁അമ്പല	-11.0151
▁ഉപയോഗിക്കാന	-11.0154
▁നിയമത്തിന്റെ	-11.0155
▁സംഭവിക്കും	-11.0156
▁നിര്‍ബന്ധമായ	-11.0157
▁മന്ത്രിസഭയിൽ	-11.0158
▁മരണങ്ങളാണ്	-11.0159
▁ആദി	-11.0161
വിജയ	-11.0161
യിലേക്ക	-11.0161
▁തൊഴിലാളികള്‍ക്ക	-11.0161
▁നിരോധിക്ക	-11.0162
▁ക്രൂ	-11.0162
▁റഫ	-11.0164
▁എന്നുള്ളതാണ്	-11.0167
▁ക്വാറന്റൈനിലും	-11.0171
▁കുടുക്ക	-11.0172
പ്പട	-11.0174
യുണ്ടാവും	-11.0174
▁മാനേജ	-11.0174
▁പരിക്കേറ്റു	-11.0175
▁പായ	-11.0175
മൈ	-11.0175
തിന്‍റെ	-11.0176
▁മറ്റുള്ളവരെ	-11.0177
▁സമീപിച്ചിരുന്നു	-11.0177
▁യുഎഇയിലെ	-11.0177
▁എടുക്കുന്നത്	-11.0178
▁മതപരമായ	-11.018
▁ഡ്രൈവറ	-11.018
▁അവകാശപ്പെടുന്ന	-11.0181
▁നേരിടും	-11.0182
▁അമരീന്ദ	-11.0182
▁പുതുക്കിയ	-11.0183
▁കഴിഞ്ഞിട്ടും	-11.0185
▁മനസ്സിൽ	-11.0186
▁നീക്കിയ	-11.0186
ക്ഷേമ	-11.0187
▁ഇല്ലായിരുന്നു	-11.0188
കളൊന്നും	-11.0188
▁സ്ത്രീകൾക്ക്	-11.0188
വികസന	-11.0189
▁വിനോദസഞ്ചാര	-11.0194
▁പ്രേക്ഷക	-11.0195
▁മുഖത്ത	-11.0196
താണെന്ന	-11.0196
▁പ്രദേശങ്ങളിലും	-11.0198
▁കേട്ടു	-11.0198
▁ഉയര്‍ത്തുന്ന	-11.0198
▁അറിയുന്നത്	-11.02
▁കപ്പല്‍	-11.0201
ലാൽ	-11.0202
▁ബീന	-11.0202
▁തെറ്റായി	-11.0204
▁ഇടയ	-11.0205
▁ആഫ്രിക്ക	-11.0206
ാതിരിക്കാന	-11.0207
▁ഇംഗ്ലണ്ട	-11.0207
▁ഗെഹ്ലോട്ട	-11.0208
▁പോയാല്‍	-11.021
സ്റ്റി	-11.0211
▁വില്ല	-11.0213
യായിട്ടാണ്	-11.0213
അബ്ദുള്ളക്കുട്ടി	-11.0214
▁മണിക്കുട്ടന	-11.0214
▁ജോലിയിൽ	-11.0217
▁ണ്ട്	-11.022
▁കമന്റുകള	-11.0221
ടച്ച	-11.0221
▁മുള	-11.0224
▁ചോദിക്കുന്ന	-11.0225
▁സർവ്വീസ്	-11.0225
ിന്റേത്	-11.0225
▁ഡിലീറ്റ്	-11.0227
▁മുന്‍തൂക്കം	-11.0227
▁എല്‍ജെഡി	-11.0227
▁ഏകോപന	-11.0227
▁രാകേഷ്	-11.0227
▁വാട്ടര്‍	-11.0227
▁കുമാരസ്വാമി	-11.0227
▁മഹാസഖ്യത്ത	-11.0227
▁ആദായ	-11.0227
▁വളർന്ന	-11.0227
▁ഭയങ്കര	-11.0228
▁സോളാര്‍	-11.0228
▁യോജിക്ക	-11.0228
▁ചോര്‍ന്ന	-11.0228
▁ശതമാനത്തോളം	-11.0228
ഗതി	-11.0228
▁കൃഷ്ണദാസ്	-11.0228
ീകരണം	-11.0229
▁ഖാന്റെ	-11.0233
▁വിഭവ	-11.0235
ജിത്	-11.0236
ബൈ	-11.0237
‍ർ	-11.0237
▁കളം	-11.024
▁50,000	-11.0243
▁വേഗതയിൽ	-11.0244
▁ചെയ്യുമ്പോൾ	-11.0244
▁പാദ	-11.0244
ുള്ളതാണ്	-11.0249
▁ഷമി	-11.025
▁ചടങ്ങുകൾ	-11.025
കാർ	-11.0251
▁എപ്പിസോഡ	-11.0252
▁അസോസിയേറ്റ്	-11.0252
▁കാലത്തും	-11.0253
▁ഗ്രൂപ്പിന്	-11.0258
▁ഡാറ്റാ	-11.0258
▁കാവി	-11.026
▁കണ്ടില്ല	-11.0261
▁സാധിക്ക	-11.0261
ന്മാരുടെ	-11.0262
▁ഹര്‍ദിക്	-11.0264
▁പിന്നീടാണ്	-11.0265
▁പ്രവാസികളുടെ	-11.0265
റൈ	-11.0266
▁നിയമസഭയിലേക്ക്	-11.0267
▁റോഡിൽ	-11.0267
▁താഴെയാണ്	-11.0268
ാത്തതിനാല്‍	-11.0276
▁കാട്ടിയ	-11.0277
▁ആരംഭിക്കുമെന്ന	-11.0278
▁പദ്ധതിയാണ്	-11.0278
▁എക്സ്	-11.0281
▁കശ്മീരില്‍	-11.0281
▁ലക്ഷ്യമിട്ട	-11.0282
▁അളവ്	-11.0283
▁ഒടുവില	-11.0284
▁അമരീന്ദറ	-11.0288
▁നിലപാടുകള്‍	-11.0291
▁കടലില്‍	-11.0291
ാകുന്നത്	-11.0292
▁അന്ത്യ	-11.0294
ിലേയും	-11.0295
▁പറഞ്ഞപ്പോള്‍	-11.0296
▁ഇത്രയ	-11.0297
▁ഗോഡ്	-11.0298
▁കഴിയൂ	-11.03
ഞ്ചു	-11.0302
▁സ്ഥാപനങ്ങള്‍ക്ക	-11.0302
▁ആവശ്യവും	-11.0303
▁രജ	-11.0304
▁വിസ്	-11.0304
▁ചെയ്താലും	-11.0304
റാം	-11.0306
▁ദൂരം	-11.0306
▁സ്വരാജ്	-11.0309
സ്റ്റർ	-11.031
▁ഏജൻസികൾ	-11.0311
▁ക്രൂരമായ	-11.0311
▁രണ്ടോ	-11.0312
▁സര്‍ക്കാരിന	-11.0314
▁മാധ്യമങ്ങള	-11.0315
▁ജിഹാദ	-11.0315
▁ഏറ്റ	-11.0316
▁ആനി	-11.0316
▁ഉന്നയിക്കുന്നത്	-11.0316
▁വിളിക്കുന്നത്	-11.0316
▁സംഘടനകള	-11.0317
ദ്ധ്യ	-11.0317
▁ഇറാഖ	-11.0319
ധാന	-11.0319
▁കണക്കാക്കപ്പെട	-11.032
▁താരങ്ങൾ	-11.0325
▁അടുപ്പ	-11.0326
▁പണ്ട	-11.0327
▁ബീച്ച	-11.0329
സെന്റ	-11.033
▁കേസിന്	-11.0331
▁ഡെലിവറി	-11.0331
▁നമ്പൂതിരി	-11.0331
▁നിരോധനാജ്ഞ	-11.0331
▁അസംബ്ലി	-11.0331
▁അരുൺ	-11.0331
▁ആളുകളാണ്	-11.0332
▁ഫ്രഞ്ച്	-11.0332
▁പന്തളം	-11.0332
▁പെന്‍ഡ്	-11.0333
ുവാനും	-11.0334
▁ഓടിക്ക	-11.0335
▁സമര്‍പ്പിച്ചത്	-11.0335
▁വെളിയ	-11.0337
▁സാമ്പിളുകള	-11.0337
▁പരിഹാസ	-11.0338
▁കുറക്ക	-11.0339
▁അകലെ	-11.0339
▁കൈക്കൊണ്ട	-11.0341
▁പ്രദര്‍ശിപ്പി	-11.0342
▁ഡിസംബറില	-11.0346
▁രഘു	-11.0346
െണ്ണ	-11.0347
▁പരിപാടികൾ	-11.035
▁നഗരം	-11.0351
വെയാണ്	-11.0352
▁കാള	-11.0352
▁കോണ്‍ഗ്രസിനും	-11.0354
ുന്നതായും	-11.0355
▁ഉദ്യോഗാർത്ഥികൾ	-11.0357
ക്കാരി	-11.0357
▁പോലീസിനോട	-11.0358
▁അര്‍ജുന്‍	-11.0358
▁മോഹൻ	-11.0358
കിട	-11.0359
▁നൗവ	-11.0362
▁മുന്നിലുള്ളത്	-11.0362
▁ഒമാന	-11.0364
▁(1	-11.0365
▁വയനാട്ടിലെ	-11.0368
▁എഞ്ചിനീയറിംഗ്	-11.037
▁ഇല്ലെന്ന	-11.0371
ാവുക	-11.0373
ിനേക്കാള്‍	-11.0373
▁ചെമ്പ	-11.0374
▁ബംഗ്ലാദേശ്	-11.0374
▁പോസ്റ്റില്‍	-11.0374
▁ഭാര്യയുടെ	-11.0377
▁യാത്രകള്‍	-11.0377
▁ബലാത്സംഗ	-11.0377
▁ഇത്തരത്തില	-11.0378
▁ഭരണഘടനയുടെ	-11.0378
▁മത്സരങ്ങളില്‍	-11.0379
▁ധരിച്ച്	-11.038
▁സഹോദരന	-11.038
▁ഉപകരണങ്ങള്‍	-11.0382
▁റൂമില്‍	-11.0383
▁സൂര്യന	-11.0385
ക്രി	-11.0387
▁ക്ലാസുകള	-11.0387
▁D	-11.0388
▁പ്രതിമാസ	-11.0388
▁ശശീന്ദ്രന	-11.0389
▁മരണനിരക്ക്	-11.0393
യല്‍	-11.0393
െത്തുന്നത്	-11.0393
▁വിപ്പ്	-11.0394
▁അന്തരീക്ഷം	-11.0394
▁നല്‍കേണ്ടി	-11.0396
ുള്ളവർ	-11.0397
സിയുടെ	-11.0399
▁എത്തിക്കുക	-11.0399
▁ഇടപാടുകള്‍	-11.0399
ില്ലായിരുന്നു	-11.0399
▁ഗവര്‍ണറ	-11.0403
▁125	-11.0404
▁വെക്കുന്നത്	-11.0405
▁ചുറ്റും	-11.0407
ന്താ	-11.0407
▁കര്‍ഷകരെ	-11.0407
▁അവന്	-11.0411
▁അവശേഷിക്കുന്ന	-11.0417
ങ്ങനെ	-11.0418
▁കുറിപ്പിന്റെ	-11.042
▁ആരോഗ്യവകുപ്പ	-11.0423
▁വിരമിക്ക	-11.0424
▁കഴിവ്	-11.0424
ർപ്പ	-11.0428
സമയം	-11.0428
െടുത്തത്	-11.0428
▁കോണ്‍ഗ്രസിലേക്ക	-11.0431
▁ജീവനക്കാരി	-11.0431
▁സിംഗിനെ	-11.0436
വരുമായ	-11.0436
▁അങ്കണവാടി	-11.0437
▁കാരണവശാല	-11.0437
▁യുക്രൈൻ	-11.0437
▁സ്വീകാര്യത	-11.0437
U	-11.0437
▁ജഡേജ	-11.0437
▁ഹോട്ടൽ	-11.0437
▁തെരുവ്	-11.0437
▁വിഴിഞ്ഞം	-11.0437
▁ചരക്കു	-11.0437
▁(42)	-11.0437
▁കടുപ്പിച്ച	-11.0437
▁നിയമത്തിന്	-11.0437
▁ബദ	-11.0437
▁കറന്‍സി	-11.0437
▁മോഹൻലാല	-11.0437
▁പതിയെ	-11.0438
▁അവസാനിക്കും	-11.0441
▁നിയമപ്രകാരം	-11.0442
▁വിഭാഗീയത	-11.0443
ാവശ്യ	-11.0445
ുന്നതിലും	-11.0445
▁മണ്ഡലത്തില	-11.0445
▁പാണ്ഡെ	-11.0447
▁ദീപക്	-11.0447
▁നിബന്ധന	-11.0447
ര്	-11.0449
▁ഉദയ	-11.045
▁കൊണ്ടുപോയ	-11.0453
▁പഠിപ്പിച്ച	-11.0454
▁ഭരണകക്ഷിയായ	-11.0455
സാന	-11.0457
▁വീശ	-11.0457
ക്കുവേണ്ടി	-11.0457
▁മത്സരിപ്പിച്ച	-11.0459
വര്‍ഗ	-11.046
▁ഇന്ത്യക്കാരെ	-11.046
▁നിന്നുളള	-11.0461
▁ആശങ്കയിലാണ്	-11.0462
യുട	-11.0462
▁സിന്‍ഹ	-11.0462
▁മുമ്പേ	-11.0463
▁മണിപ്പൂര്‍	-11.0463
ആറ	-11.0464
▁ഗ്യം	-11.0464
▁നെടു	-11.0464
റല്‍	-11.0466
▁മുന്നിലുള്ള	-11.0466
▁ദിനത്തിൽ	-11.0467
▁നമ്മുക്ക	-11.0467
ായിരുന്നുവെന്ന്	-11.0469
▁സുരേഷിന്റെ	-11.0469
▁നാള്‍	-11.0469
▁ജന്മ	-11.047
ക്യു	-11.047
▁കീഴടങ്ങ	-11.0471
▁പേരുകൾ	-11.0474
▁എന്നതിന്റെ	-11.0476
നിലെ	-11.0476
▁ബാറ	-11.0477
▁ചെയ്യുമെന്നാണ്	-11.0477
▁തീരുമാനമായ	-11.0478
▁അവസ്ഥയിലാണ്	-11.0479
▁രീതിയില	-11.0482
▁ചിരാഗ്	-11.0482
▁അനുഭവപ്പെടും	-11.0484
▁വിമാനത്തിൽ	-11.0485
▁കരുതല	-11.0488
▁മതനിരപേക്ഷ	-11.0489
▁കൃത	-11.049
▁B	-11.049
▁മേഖലയ്ക്ക	-11.049
▁അക്കൗണ്ടുകള	-11.049
▁കുറ്റകൃത്യ	-11.0491
▁ഉന്നയിച്ചു	-11.0491
▁മറ്റൊന്ന്	-11.0493
▁നഗ്ന	-11.0496
▁മാത്രമുള്ള	-11.0499
▁സമ്മത	-11.0499
▁വീടു	-11.0502
▁തേടുന്നത്	-11.0502
N	-11.0505
▁കുടുംബങ്ങള	-11.0506
▁ബാലചന്ദ്രകുമാറ	-11.0506
▁നേടിയെടുക്ക	-11.0508
▁ഒഴിഞ്ഞ	-11.0508
▁പുലര്‍ത്തിയ	-11.0512
▁വന്നതാണ്	-11.0516
▁അസ്വസ്ഥ	-11.0523
തിനുള്ള	-11.0523
▁നേതൃത്വത്തിന	-11.0524
▁നിശബ്ദ	-11.0525
പുറ	-11.0527
▁പതിനൊന്ന	-11.0528
പ്പന	-11.0529
▁കൊലപാതകത്തിന്	-11.053
ീക	-11.053
▁ലക്ഷ്യത്തോടെയാണ	-11.053
▁പ്രസിഡന്റായ	-11.053
▁പാര്‍ക്ക്	-11.0531
▁ക്രിസ്	-11.0531
▁വിധിച്ച	-11.0531
നാള	-11.0532
▁സ്വദേശികൾ	-11.0533
▁ചേരാന	-11.0534
വിഭാഗ	-11.0535
▁രാഷ്ട്രീയത്തില	-11.0539
ിരിക്കുകയാണെന്ന്	-11.0542
▁ആപ്ലിക്കേഷന	-11.0543
▁ഫോര്‍മുല	-11.0543
▁വേരിയന്റ	-11.0543
▁സെന്റർ	-11.0543
▁രേഷ്മ	-11.0543
▁സ്ഥാപനങ്ങൾക്ക	-11.0543
▁ഞായറാഴ്ച്ച	-11.0544
▁ഓഫീസിലേക്ക	-11.0545
ിക്കപ്പെട്ട	-11.0546
▁കുമാറും	-11.0546
▁ചില്ലറ	-11.0547
പേര്‍	-11.0547
▁വേഗത്തിൽ	-11.0548
▁മാതാവ്	-11.0548
▁അക്ഷര	-11.0549
▁മനസ്സില്‍	-11.055
▁വൃത്തി	-11.0552
▁നാട്ടിലെത്തിക്ക	-11.0552
▁നേതൃത്വവുമായി	-11.0553
▁ശതമാനത്തില്‍	-11.0554
▁അസ്സ	-11.0554
▁യുദ്ധത്ത	-11.0554
▁മേഖലകളില	-11.0556
▁ദിവസത്തിന്	-11.0557
▁പതിനൊന്ന്	-11.0558
▁ഓപ്പറേഷന്‍	-11.0559
ജീവിത	-11.0559
▁അവയുടെ	-11.056
പിടി	-11.056
▁ആരോഗ്യപ്രവർത്തക	-11.0562
▁ദോഷ	-11.0563
▁ഛ	-11.0565
▁മാസത്തിൽ	-11.0565
▁തീരുമാനത്തെ	-11.0565
▁മാര്‍ക്ക	-11.0566
കാരം	-11.0568
ൂട്ട്	-11.0569
▁ഒന്‍പത്	-11.0571
▁പൈ	-11.0573
▁ഗ്രേഡ്	-11.0574
▁ചവിട്ടി	-11.0575
തൊക്കെ	-11.0577
▁മജ്	-11.0577
▁വര്‍ധിച്ചു	-11.0581
▁സെക്രട്ടറിയുടെ	-11.0584
ക്ടര്‍	-11.0587
▁മുഖ്യമന്ത്രിയായ	-11.0591
▁ക്വാറന്റൈനില്‍	-11.0591
▁രാഷ്ട്രീയമായി	-11.0593
▁ശാഖ	-11.0594
▁വിജയനെ	-11.0594
▁കുവൈത്ത	-11.0595
▁കണ്ണീര	-11.0595
▁മേഖലകളിലെ	-11.0595
▁വഴിയുള്ള	-11.0596
▁കിരീട	-11.0597
▁എല്‍ഡിഎഫില്‍	-11.0598
▁അറിയപ്പെടുന്നത്	-11.0599
▁കുറ്റവാളി	-11.06
▁ഉളളത്	-11.0603
ട്ടിയ	-11.0605
▁ഇല്ലെന്നാണ്	-11.0608
▁പ്രകോപന	-11.0609
പരിധി	-11.0611
▁നിലയില	-11.0613
▁102	-11.0613
▁സുഹ	-11.0615
▁ചിരിച്ച	-11.0615
▁അക്	-11.0616
യിലെത്തിയത്	-11.0617
▁തുണി	-11.0617
▁പിടിച്ചെടുത്തത്	-11.0617
▁വര്‍ഗീസ്	-11.0619
▁വര്‍ഷത്തേക്ക	-11.062
▁ജില്ലാതല	-11.062
▁കടത്തി	-11.0621
ങ്ങല	-11.0623
ിരിക്കുക	-11.0623
▁റൂട്ട്	-11.0625
▁അയച്ചിട്ടുണ്ട്	-11.0626
▁ബിജെപിക്കും	-11.0626
സഹായ	-11.0626
▁ഠ	-11.0626
▁ഒന്നുമില്ല	-11.0629
▁സ്ത്രീകള	-11.0629
▁ഭൂകമ്പ	-11.0632
▁I	-11.0633
▁ജുനൈസ	-11.0636
▁എത്തുകയും	-11.0638
▁നാടിന്	-11.064
▁ലംഘിക്കുന്ന	-11.0641
▁പിൻ	-11.0642
ുകളിലായി	-11.0643
▁ഫ്രാന്‍സ	-11.0643
▁പ്രവചന	-11.0644
▁കൂടും	-11.0644
▁പതിനെട്ട	-11.0645
വരേയും	-11.0647
▁ഇടപാട്	-11.0648
▁വിവരങ്ങള	-11.065
▁സജ്ജീകരിച്ച	-11.0651
▁തള്ളിക്കളഞ്ഞ	-11.0651
▁വസുന്ധര	-11.0651
▁കടുത്തുരുത്തി	-11.0651
▁പരിചരണ	-11.0651
▁അതിജീവിച്ച	-11.0651
▁മട്ടന്നൂര്‍	-11.0651
▁ദിവസത്തിനകം	-11.0651
▁ചരക്ക്	-11.0651
ത്താന്‍	-11.0651
▁കാരണങ്ങള	-11.0651
ഖണ്ഡ	-11.0651
▁ഇരുരാജ്യങ്ങള	-11.0651
▁പ്രസിഡന്റായി	-11.0652
▁അതുവഴി	-11.0652
▁തീര്‍ന്ന	-11.0652
ക്കിന്റെ	-11.0653
▁കേസും	-11.0656
▁ബിഹാര്‍	-11.0657
▁ചെയ്തുകൊണ്ട	-11.0658
▁അച്ഛന്റെ	-11.0659
▁ശതമാനത്തിൽ	-11.0659
▁ഉള്‍പ്പടെയുള്ള	-11.066
▁സിദ്ധു	-11.0661
▁മാലിന്യം	-11.0661
▁നടക്കുമ്പോള്‍	-11.0662
▁കൂടുതലും	-11.0663
▁സമീപമുള്ള	-11.0665
▁എംഡി	-11.0665
ബ്രി	-11.0669
ങ്കര	-11.067
▁സ്ഥാനാർത്ഥിയെ	-11.0675
▁കാത്തിരിക്കുകയ	-11.0676
▁ഗുജറാത്ത	-11.0677
▁കഴുക	-11.0677
▁ഭയന്ന	-11.0679
▁നോക്കിയാല്‍	-11.0681
▁കാണണം	-11.0683
▁സ്ഥലത്തെത്തിയ	-11.0685
▁ഉയർന്നിരുന്നു	-11.0692
▁ചവറ	-11.0693
▁റ്റേ	-11.0694
ഷിപ്പ	-11.0698
▁കഥകള	-11.07
▁തമ്മില	-11.07
▁പരിശോധനയിലാണ്	-11.07
▁ഓര്‍മ	-11.0702
▁ആശ്രയിച്ച	-11.0705
▁നഷ്ടപരിഹാര	-11.0705
യ്ക്കൊപ്പം	-11.0706
▁കേന്ദ്രത്തിലെ	-11.0706
▁പുരസ്കാര	-11.0708
▁ഒതുക്ക	-11.0711
ക്കോട്ട	-11.0712
▁ഉൾപ്പെടുത്തി	-11.0712
▁നല്‍കാനുള്ള	-11.0713
ട്രാ	-11.0713
▁ഷേ	-11.0716
▁തരി	-11.0718
▁അഭിനയിക്ക	-11.0719
പഥ	-11.072
▁ആഘോഷം	-11.072
▁ബുക്ക	-11.0722
▁ഇനിയുള്ള	-11.0725
▁സഹോദരങ്ങള	-11.0726
▁കോണ്‍ഗ്രസുമായി	-11.0726
▁രംഗം	-11.0728
▁സൗകര്യങ്ങള	-11.0728
▁കിഴക്ക	-11.0729
▁നേതാക്കളില്‍	-11.073
▁സന്തോഷവും	-11.0731
▁ആസാദ	-11.0732
▁ക്രൂര	-11.0732
▁അകല	-11.0732
▁മക്കളെ	-11.0733
▁ജീപ്പ	-11.0733
▁അവസാനത്തോടെ	-11.0735
▁ആംബുലന്‍സ്	-11.0735
▁101	-11.0737
മല്ലെന്ന്	-11.0737
▁കൊലപ്പെടുത്ത	-11.0742
▁തുറ	-11.0744
▁അക്ഷയ	-11.0747
▁കാത്തിരുന്ന	-11.0748
▁വർധന	-11.0749
▁ഹാരിസ്	-11.075
▁കിട്ടാന	-11.075
▁ഉത്തരേന്ത്യ	-11.0751
▁മലയാളികൾ	-11.0751
▁പിഎസ്	-11.0754
▁മഴയ്ക്കും	-11.0755
▁വാദിച്ചു	-11.0755
▁പ്രത്യയശാസ്ത്ര	-11.0759
▁ബാലുശ്ശേരി	-11.0759
▁റിമാന്‍ഡ്	-11.0759
▁വോട്ടുബാങ്ക	-11.0759
▁സാഹിബ	-11.0759
▁കാസിം	-11.076
400	-11.0761
▁ചേർക്ക	-11.0762
▁ലോകത്ത	-11.0763
▁മൂലമാണെന്ന	-11.0763
▁തിരിച്ചുപിടിക്ക	-11.0764
▁പലർക്കും	-11.0764
▁ചീത്ത	-11.0766
▁അഗ്നി	-11.0767
▁റോബിന	-11.0769
▁അശ്വതി	-11.077
ിക്കാത്ത	-11.0772
▁ഡോക്ടറുടെ	-11.0772
▁ഹയര്‍	-11.0772
▁തോള	-11.0774
▁പോൾ	-11.0775
▁അനുശോചനം	-11.0775
▁പരിചയമുള്ള	-11.0784
▁ഗ്രി	-11.0784
▁ചാര്‍ജ്	-11.0784
▁തടവ്	-11.0786
▁റിനോഷ	-11.0786
▁വകുപ്പിലെ	-11.0788
▁അന്വേഷണത്തിലാണ്	-11.0788
▁ആവശ്യങ്ങള	-11.079
▁ജ്യോതിഷത്തില	-11.0791
▁മോചനം	-11.0791
▁കിട്ടാതെ	-11.0792
ക്കാള്‍	-11.0796
▁ക്വ	-11.0797
▁നൽകുക	-11.0799
▁മാര്‍ച്ചില്‍	-11.08
ിരുന്നെങ്കിൽ	-11.0801
▁ഇഷ്ടപ്പെട്ട	-11.0802
▁ഊര	-11.0803
▁പിടിക്കാൻ	-11.0804
▁സ്റ്റാർ	-11.0804
റിയിച്ച	-11.0807
▁ഞ	-11.0809
യോളം	-11.081
ഫ്റ്റ	-11.081
▁അങ്ങനെയുള്ള	-11.081
കാലത്ത	-11.0811
▁ചിത്രവും	-11.0811
▁മറന്ന	-11.0814
▁നഷ്ടപ്പെട്ടു	-11.0815
▁ബില്ല്	-11.082
▁ഉത്തരവാദിത്വ	-11.082
ിടിച്ച	-11.082
▁കാറിൽ	-11.082
▁അയയ്ക്ക	-11.0822
ത്തോ	-11.0823
▁R	-11.0824
ിട്ടുണ്ടെങ്കില്‍	-11.0824
▁ചര്‍ച്ചകള്‍ക്ക്	-11.0827
നുസരിച്ച്	-11.0827
▁പ്രതികാര	-11.0829
▁കുരുക്ക	-11.0831
▁ദില്ലിയിലേക്ക്	-11.0831
▁നീക്കത്തിന്	-11.0832
▁പുറത്താക്കി	-11.0832
▁വിസി	-11.0835
യിലേക്കാണ്	-11.0839
മാണിതെന്ന	-11.084
▁ബാങ്കില്‍	-11.0841
തീര	-11.0843
പ്ത	-11.0843
▁21,	-11.0847
▁തൊട്ടു	-11.0847
മാത്രം	-11.0848
▁കൊടും	-11.0848
▁സഹായിക്കാന്‍	-11.0848
▁തുറക്കാന്‍	-11.0849
പ്പേര	-11.0852
ിലുണ്ടായ	-11.0855
▁പ്രസ്ഥാന	-11.0856
▁കോമ	-11.0857
യാകുന്ന	-11.0857
▁ഒരുക്കി	-11.0857
▁മയക്കുമരുന്ന	-11.0857
▁ശക്തമായിരുന്നു	-11.0858
ച്ചിറ	-11.0865
യിലുണ്ടായ	-11.0866
▁പശു	-11.0866
ബാദ	-11.0866
▁പ്രശസ്തി	-11.0868
▁ഓസ്ട്രേലിയ	-11.0869
▁ചങ്ങനാശ്ശേരി	-11.0869
▁വൈവിധ്യ	-11.0869
▁മോട്ടോർ	-11.0869
▁ചതുരശ്ര	-11.0869
▁കിഷോറ	-11.0869
▁റൂറല്‍	-11.0869
▁സമയത്തും	-11.0869
▁നാലാമത്തെ	-11.087
▁മേപ്പാടി	-11.087
▁പിരിച്ചുവിട്ട	-11.087
ൻമാർ	-11.0871
▁പ്രദേശങ്ങള്‍	-11.0871
▁സികെ	-11.0871
▁നിഴല	-11.0871
▁സാമുദായിക	-11.0871
▁പരാജയപ്പെട	-11.0874
▁ബാറ്റ	-11.0875
▁ഇരിക്കൂര്‍	-11.0876
▁അടിച്ചത്	-11.0877
▁1996	-11.0877
▁മാരക	-11.0878
▁എലി	-11.0878
▁വിമാനങ്ങള	-11.088
▁സാധനങ്ങൾ	-11.0883
▁ചടങ്ങുകള	-11.0884
▁105	-11.0887
▁സിപിഎമ്മിനെ	-11.0892
▁പ്രദേശം	-11.0893
▁ആക്രമണത്തിൽ	-11.0894
▁റിസോര്‍ട്ട	-11.0896
▁ഫൈനല	-11.0899
ഷോ	-11.0903
മെടുത്ത	-11.0905
ക്കരുത്	-11.0906
▁സ്ഥിരത	-11.0906
▁താത്പര്യം	-11.091
▁വര്‍ധനവ്	-11.091
▁മറ്റുള്ളവര്‍	-11.091
▁വിശേഷ	-11.091
മൊരു	-11.0911
ിയിൽ	-11.0913
▁കൂട്ടായ	-11.0913
▁ചർച്ചയിൽ	-11.0916
▁പാട്	-11.0916
▁ചിന്തിക്കുന്ന	-11.0918
▁ശേഷിക്കുന്ന	-11.0922
▁പോസ്റ്റിന്	-11.0922
▁ചിത്രമായ	-11.0922
▁തയ്യാറ	-11.0922
▁ഉദ്യോഗസ്ഥനെ	-11.0923
▁വരുന്നതോടെ	-11.0923
▁മകനാണ്	-11.0924
▁പോകാനുള്ള	-11.0924
▁കാമുകന	-11.0926
▁നിയമിക്കുന്നു	-11.0926
▁രാമചന്ദ്രന	-11.0927
▁വാഗ്	-11.0928
▁ആരാണെന്ന്	-11.0929
▁സ്ത്രീധന	-11.093
▁മുപ്പത്	-11.093
▁ഗുണ്ടാ	-11.0931
▁ഇതിനോട	-11.0932
▁ഇസ്രയേല	-11.0932
▁ഡിസൈന	-11.0933
ുകൊണ്ടിരിക്കുകയ	-11.0933
▁ബയോ	-11.0933
▁ഷോയില്‍	-11.0934
ക്കള്‍	-11.0936
▁സംസ്ഥാനത്ത	-11.0937
ക്കുറിച്ച്	-11.0938
▁ബിൻ	-11.0939
ുപോയി	-11.0939
▁കഴിഞ്ഞിട്ടില്ല	-11.094
മേറ്റ	-11.0941
ൻഡ്	-11.0941
▁അതിലെ	-11.0941
▁ച്ചി	-11.0943
▁നിക്ഷേപിച്ച	-11.0943
▁മുഖ്യപ്രതി	-11.0944
▁സംവിധായകന	-11.0944
▁സും	-11.0944
മൂട്	-11.0948
▁സ്ഥാപനങ്ങളിലെ	-11.0948
പ്പണ	-11.0949
ാകുമെന്ന്	-11.095
▁ത്ത്	-11.095
▁വരുമെന്ന	-11.0951
▁അപ്രതീക്ഷിതമായ	-11.0954
ക്ല	-11.0957
▁വ്യാപാരി	-11.0958
▁ആക്കിയ	-11.0958
▁വിശേഷിപ്പിച്ച	-11.096
▁മാർഗ്ഗ	-11.096
▁കാശ	-11.0961
▁ക്ലബ്	-11.0962
.15	-11.0962
▁മരണങ്ങൾ	-11.0964
▁അഭ്യർത്ഥിക്ക	-11.0964
▁വിടുന്ന	-11.0967
▁ഇസ്ലാമ	-11.0968
▁എവി	-11.0969
▁ഇടിയ	-11.0969
▁മനസ്സിലായ	-11.097
▁പ്രസിഡണ്ട	-11.097
▁വൈറസിനെ	-11.0972
▁പൊതുജനങ്ങള	-11.0975
▁ചികില്‍സ	-11.0975
▁സീമ	-11.0976
ഇത്	-11.0978
ലക്ഷ	-11.0978
▁നടത്തുമെന്നും	-11.0979
▁വന്ദേ	-11.098
▁ഒരൊറ്റ	-11.098
▁കോയമ്പത്തൂര	-11.098
▁നിർണ്ണായക	-11.098
▁ലിംഗായത്ത്	-11.098
▁ബൈഡൻ	-11.098
▁വെടിവെപ്പ	-11.098
▁മലേഷ്യ	-11.098
▁അസഭ്യ	-11.0981
▁രസകരമായ	-11.0981
▁കൈക്കൂലി	-11.0981
▁ഫിലിപ്പ	-11.0982
▁എന്‍ട്രി	-11.0983
▁മാറ്റാൻ	-11.0984
ന്ദര്‍	-11.0984
▁പ്രവർത്തകരും	-11.0985
▁സ്പെഷ്യൽ	-11.0985
ക്കേസ	-11.0987
▁വീട്ടുകാർ	-11.0987
▁പ്രേക്ഷകര	-11.0987
ിക്കാനും	-11.0989
▁മത്സരങ്ങള	-11.0989
▁സർവീസുകൾ	-11.0989
▁മക്ക	-11.099
ിട്ടുള്ളതെന്ന	-11.0992
ന്മാര്‍	-11.0994
▁സഹായി	-11.0994
▁കുഞ്ഞി	-11.0997
േക്കാണ്	-11.0999
▁വസ്തുക്കള	-11.0999
▁അടുത്തുള്ള	-11.1
▁ആരംഭിക്കാന	-11.1003
▁വിജിലൻസ്	-11.1005
▁അറിഞ്ഞത്	-11.1006
▁വർഷത്തിൽ	-11.1008
▁ചോദ്യമാണ്	-11.1009
▁വിജയത്തിന്	-11.101
▁വള്ള	-11.101
▁ബിരുദവും	-11.1014
▁ഓഫീസര്‍മാര്‍	-11.1014
▁സാധ്യതയില്ല	-11.1015
ത്തിൻറെ	-11.1015
▁ഉറപ്പാക്കാന	-11.1016
ില്ലല്ലോ	-11.1017
ടീ	-11.1018
▁ചന്ദ്രശേഖര്‍	-11.1018
യുടേത	-11.1023
മഴ	-11.1024
▁സാഹചര്യ	-11.1024
▁സെറ്റ	-11.1027
▁കോവിഡിന്റെ	-11.1029
▁ഒന്നിച്ച	-11.1031
▁ബോധം	-11.1031
▁അനുസരിച്ച	-11.1032
എസ്പി	-11.1034
▁ഓം	-11.1035
▁രാധാകൃഷ്ണന	-11.104
▁മറികടന്ന	-11.1041
▁തലവന	-11.1043
▁തുണ	-11.1043
▁കേന്ദ്രങ്ങള	-11.1044
▁സംവിധാനങ്ങൾ	-11.1045
പൂ	-11.1045
▁പാകിസ്ഥാന	-11.1045
▁ജാസ്മിന	-11.1046
▁എബി	-11.1047
▁ഇടങ്ങളില്‍	-11.1049
▁ലീഗും	-11.105
▁പരാതിയിലാണ്	-11.1052
▁പോലീസുകാര്‍	-11.1052
▁സമരത്തില്‍	-11.1053
▁എന്‍റെ	-11.1053
▁നികത്ത	-11.1053
▁വട്ടം	-11.1054
മുതൽ	-11.1054
▁പുനര്‍	-11.1055
▁സര്‍വ	-11.1055
▁വികസിപ്പിച്ച	-11.1057
▁മുകേഷ	-11.1057
▁ഘട്ടത്തിലാണ്	-11.1058
▁അങ്ങോട്ട്	-11.1059
▁ചെയ്യപ്പെട	-11.1067
▁രാശിക്കാർ	-11.1069
▁തേടിയത്	-11.1071
▁കൊടുക്കാന്‍	-11.1072
▁അശോക	-11.1072
ക്റ്റ	-11.1076
▁ഡിസംബറ	-11.1077
▁പിരിച്ച	-11.1078
▁കൊട്ട	-11.1081
താണ	-11.1082
▁ഉറക്ക	-11.1084
സര്‍ട്ടിഫിക്കറ്റ	-11.1084
കുറ്റ	-11.1084
▁കിട	-11.1086
▁കേന്ദ്രഭരണ	-11.1091
▁ഗോള	-11.1091
▁ഒപ്ടിക്ക	-11.1093
▁ക്യാപ്റ്റൻ	-11.1093
▁മോചിപ്പിക്ക	-11.1093
▁അഹങ്കാര	-11.1093
▁നട്ടെല്ല	-11.1093
▁ഡെല്‍റ്റ	-11.1093
▁ഗൗരിയമ്മ	-11.1093
▁ഹൂഡ	-11.1093
▁ത്രികോണ	-11.1093
▁നാണയ	-11.1093
▁പുനസംഘടന	-11.1093
▁അധികാരമേറ്റ	-11.1093
▁കുടുംബാരോഗ്യ	-11.1094
▁മധ്യസ്ഥ	-11.1094
▁ആഴ്ച്ച	-11.1095
▁യോജന	-11.1095
▁കാനം	-11.1096
കോട്ട	-11.1098
▁കൊലപ്പെടുത്തിയത	-11.11
▁ആണെങ്കിലും	-11.1101
▁പെട്ടി	-11.1103
▁സീതാരാമന്‍	-11.1105
▁ഇലക്ട്രിക്	-11.1105
▁മറന്ന്	-11.1106
▁സലാം	-11.1109
▁ദ്യ	-11.111
▁തുടരുമെന്ന്	-11.111
▁ളാറ്റ	-11.1111
▁തോന്നുന്നില്ല	-11.1112
തുട	-11.1114
▁നോഡ	-11.1114
▁നിറം	-11.1114
വാസികള	-11.1114
▁നിർമ്മിക്ക	-11.1115
▁എഫിന്	-11.1116
▁ഉപ്പ	-11.1118
▁വാഹനങ്ങളുടെ	-11.1118
പ്പെട്ടിട്ടുണ്ട്	-11.1118
▁സ്വീ	-11.1119
▁സ്വീകരിക്കുക	-11.1119
▁തോറ്റു	-11.112
▁10,000	-11.112
▁ബാങ്കുകള്‍	-11.1121
▁സൈന്യത്തിന്റെ	-11.1121
▁ദൈവം	-11.1121
▁മുസ്ലീങ്ങള	-11.1123
▁ആദ്യമായിട്ടാണ്	-11.1124
▁സിംഹ	-11.1124
▁1.5	-11.1125
▁നാട്ടുകാരുടെ	-11.1126
▁വിഷയങ്ങളിൽ	-11.1126
▁ധാരണയായ	-11.1126
▁സീറ്റുകളിലാണ്	-11.1127
▁മണ്ഡലങ്ങളില	-11.1128
▁പൂര്‍ത്തിയാക	-11.113
▁മനോഹരമായ	-11.1131
▁അനുഗ്രഹ	-11.1135
▁പുറക	-11.1135
▁ഗീ	-11.1135
▁ഉറപ്പാക്കുന്നത	-11.1136
ുമല്ലോ	-11.1141
▁സമ്മർദ്ദം	-11.1142
▁തിരിച്ചടിയായി	-11.1145
▁ബാധിതര	-11.1147
▁പരിഹാസം	-11.1151
▁പോകേണ്ട	-11.1151
▁സന്ദർശന	-11.1152
▁ദേഷ്യ	-11.1153
▁വരണം	-11.1154
▁ഉൾപ്പെടുന്നു	-11.1155
▁വാതില്‍	-11.1158
ുന്നതിനാണ്	-11.116
▁എത്തിയപ്പോള്‍	-11.116
▁മന്ത്ര	-11.1161
▁ബസുകള്‍	-11.1161
▁പങ്കിട	-11.1161
ഷ്യൽ	-11.1161
▁ആകും	-11.1162
കൊള്ള	-11.1162
▁103	-11.1167
ങ്ങാടി	-11.1167
▁കുടുംബങ്ങള്‍ക്ക	-11.1167
▁നിരയില്‍	-11.1169
▁വീഴ്ത്ത	-11.117
▁ദർശന	-11.117
▁തടസം	-11.1171
▁ശാന്തി	-11.1176
ശിവ	-11.1178
ന്റെയും	-11.118
പ്രായ	-11.118
▁പൊലീസുകാര	-11.1182
▁മരണപ്പെട്ടു	-11.1182
▁മീനം	-11.1182
▁വാന	-11.1182
ിരുന്നുവെന്നാണ്	-11.1183
▁സെൽ	-11.1183
▁പുറത്തുള്ള	-11.1184
▁ഒട്ട	-11.1184
▁ഭാഗത്തു	-11.1188
▁ജോസ	-11.1191
▁മാസങ്ങള്‍	-11.1193
ക്യ	-11.1193
▁നല്‍കിയാല്‍	-11.1193
ത്തോടനുബന്ധിച്ച	-11.1195
▁പടര	-11.1196
സ്ത്രീ	-11.1196
▁പാലായില്‍	-11.1197
▁കൂട്ടുകെട്ട	-11.1197
▁1/2	-11.1197
▁ട്രേഡ	-11.1198
▁പേടിച്ച	-11.1198
▁കൈവരിച്ച	-11.1198
▁കൊന്നു	-11.1199
▁ഫാമ	-11.12
▁ക്വാഡ്	-11.1202
ൊഴി	-11.1202
▁മറവ	-11.1202
▁പറയേണ്ടി	-11.1203
▁അധിക്ഷേപ	-11.1203
യാണെങ്കിലും	-11.1204
ഗര്‍	-11.1205
▁അഭ്യര്‍ത്ഥിക്ക	-11.1206
▁ഏപ്രിലില	-11.1206
▁കാരുണ്യ	-11.1206
▁കോതമംഗലം	-11.1206
▁വടക്കാഞ്ചേരി	-11.1206
▁വിശദാംശങ്ങൾ	-11.1206
▁മദ്രാസ	-11.1206
▁ഉത്തർ	-11.1206
▁പ്രാര്‍ത്ഥന	-11.1206
▁വയനാട്ടിൽ	-11.1206
▁രജിസ്ട്രേഷൻ	-11.1206
▁പ്രേം	-11.1207
▁കോടിക്കണക്കിന	-11.1207
▁ആര്‍സിബി	-11.1208
▁സ്ഥലത്തേക്ക്	-11.1209
▁വൈക്കം	-11.1209
▁പുസ്തകം	-11.121
ുകൂടി	-11.121
▁ചെല്ല	-11.1211
▁ഓര്‍ത്ത	-11.1211
ിനുണ്ട്	-11.1211
▁തയ്യാറാകണം	-11.1213
തയെ	-11.1214
▁മുകളിലേക്ക്	-11.1216
▁ആശയം	-11.1216
▁ആധിപത്യം	-11.1217
▁തമിഴ്നാട്ടിൽ	-11.1218
▁ഉറപ്പാക്കാൻ	-11.122
പാദ	-11.1221
ടിസി	-11.1221
▁ചോദിച്ചപ്പോള്‍	-11.1221
ഡിംഗ്	-11.1223
▁ചേര്‍ത്തു	-11.1224
▁അഫ്	-11.1224
▁രഞ്ജിത്ത്	-11.1226
▁പാള	-11.1227
▁തൃശൂരിൽ	-11.1229
▁പ്രദേശിലെ	-11.123
▁യുവാക്കളുടെ	-11.123
▁ഫൈസല്‍	-11.1232
▁ട്രസ്റ്റ	-11.1232
▁മേനോന്‍	-11.1235
▁ചൂഷണം	-11.1236
▁ലൈവ	-11.1236
▁കണ്ടെത്താനുള്ള	-11.1237
▁പദ്ധതിയിട്ട	-11.1237
▁മാംസ	-11.1238
▁കോടികള്‍	-11.1238
ത്തല	-11.1241
▁മണിക്കൂറുകൾ	-11.1241
രക്ഷ	-11.1242
▁ജീവനക്കാര്‍ക്ക്	-11.1243
▁സഖ്യകക്ഷികള	-11.1245
▁മുൻകൂ	-11.1245
ഷ്ണ	-11.1246
▁മറ്റൊരാള്‍	-11.1248
▁ബാബുവിനെ	-11.1248
▁വ്യാഴം	-11.1248
ഗ്രാമ	-11.1249
▁അധ്യക്ഷതയില്‍	-11.1249
ർക്കും	-11.1251
600	-11.1252
▁ഹോസ്പിറ്റല്‍	-11.1253
▁സ്ഥാനവും	-11.1257
▁ഭാഗത്തുനിന്ന	-11.1258
▁ഭാരം	-11.1258
▁പുറം	-11.126
▁അഭിനന്ദന	-11.1261
▁സ്ഥ	-11.1261
▁കാരണങ്ങള്‍	-11.1262
▁തുറന്നടിച്ച	-11.1264
▁പേജില്‍	-11.1264
▁എംഎല്‍എമാരുടെ	-11.1265
▁ചൗഹാന	-11.127
▁പൊട്ടിച്ച	-11.1271
▁പാക	-11.1272
▁ഹോസ്പിറ്റല	-11.1274
▁പ്രതീക	-11.1274
▁ലോക്ക്ഡൗണ	-11.1274
▁ചെയ്തതെന്നും	-11.1274
▁ആവർത്തിച്ച	-11.1274
ര്‍മ്മ	-11.1279
▁മന്ത്രിയായ	-11.128
▁ഫീസ	-11.128
പഠന	-11.1283
ുണ്ടാവില്ല	-11.1286
▁ഒക്	-11.1286
▁ഓഫീസിലെ	-11.1288
▁കാര്‍ത്തിക	-11.1289
▁അംഗീകരിച്ചു	-11.129
▁കൈവശമുള്ള	-11.129
ാകുമെന്നും	-11.1292
▁ഉടലെടുത്ത	-11.1293
▁ഭാഗങ്ങള	-11.1293
▁ബീഹാറിലെ	-11.1294
▁പ്രസ്ഥാനത്ത	-11.1298
ൈല	-11.1301
പറമ്പ്	-11.1301
▁വിമര്‍ശിക്ക	-11.1302
▁തയ്യാറല്ല	-11.1303
പാല്‍	-11.1303
▁എവിടെയാണ്	-11.1305
▁അസ്വസ്ഥത	-11.1306
▁കോഴിക്കോട്ടെ	-11.1308
-1,	-11.1311
കൃഷ്ണന്‍	-11.1313
▁സംരക്ഷിക്കാന	-11.1314
▁ബാര	-11.1314
▁മൂല്യങ്ങള	-11.1315
▁10000	-11.1317
▁ഡല്‍ഹിയിലെ	-11.1318
ക്കുറിച്ച	-11.132
▁അഭിമുഖീകരിക്ക	-11.1321
▁കരുനാഗപ്പള്ളി	-11.1321
▁സത്യവാങ്മൂലത്ത	-11.1321
▁അപകീര്‍ത്തി	-11.1321
▁ജയസൂര്യ	-11.1321
▁വ്യോമയാന	-11.1321
▁ജലീൽ	-11.1322
▁കൂറുമാറ്റ	-11.1322
▁മുറിവ	-11.1322
▁തിങ്കളാഴ്ച്ച	-11.1322
▁ശശികല	-11.1323
▁1500	-11.1324
▁സമൃദ്ധി	-11.1324
▁കിട്ടുമെന്ന	-11.1329
▁തോമസിനെ	-11.1329
▁തെക്കന്‍	-11.1329
▁റാവത്ത	-11.1329
▁മേത്ത	-11.1329
▁രാഹുലും	-11.1331
▁ക്വട്ടേഷന്‍	-11.1331
▁നിത്യ	-11.1332
▁ഫിലിപ്പ്	-11.1332
▁സ്വത്ത	-11.1334
▁വിഭാഗങ്ങള്‍	-11.1335
▁ഓഫീസറ	-11.1335
▁ഉത്തരവില്‍	-11.1337
▁ജോസഫ	-11.1338
▁വിദ്യാര്‍ത്ഥിനി	-11.1339
▁ഇൻഷുറൻസ്	-11.1341
▁മുദ്ര	-11.1341
▁800	-11.1344
ാവശ്യമായ	-11.1344
▁നായിരുന്നു	-11.1345
▁രണ്ടാമത	-11.1346
▁മോള	-11.1349
പോള	-11.1352
▁മണിപ്പൂരില്‍	-11.1352
▁തളി	-11.1353
▁നാടകം	-11.1355
▁നടന്നുകൊണ്ട	-11.1357
ിട്ടുള്ളൂ	-11.1359
▁തിരിയ	-11.136
▁ട്രൈബ	-11.1362
▁സിപി	-11.1363
ദോ	-11.1364
▁മത്സരത്തിൽ	-11.1364
ാബ	-11.1365
▁കടന്നുവര	-11.1367
▁പുരുഷന	-11.1367
▁വിവരവും	-11.1369
റ്റിക്	-11.1374
ുകൊണ്ടായിരുന്നു	-11.1378
ണമായിരുന്നു	-11.1379
▁പ്രതിഫലിക്ക	-11.1382
▁മുന്‍കരുതല	-11.1387
▁19,	-11.1387
▁സേനാ	-11.1388
മുണ്ടായിരുന്ന	-11.1388
▁നേപ്പാള	-11.139
കോടതി	-11.1394
▁കുട്ടനാട്	-11.1395
▁പുറത്താക	-11.1397
▁നേരിട്ടു	-11.1397
▁പ്രശ്നമ	-11.1397
▁ചാർജ്	-11.1397
▁നല്‍കാനും	-11.1398
▁വർധനവ	-11.1402
ിനിടയ	-11.1403
ബ്ല	-11.1404
ുടേ	-11.1407
ുരു	-11.1408
▁വാദിച്ച	-11.141
▁വിജ	-11.141
▁പട്ടാള	-11.141
▁ഉദ്യോഗസ്ഥന	-11.1413
▁നീങ്ങിയ	-11.1416
▁കണ്ടെത്തുക	-11.142
മട	-11.1422
മൊഴി	-11.1422
ിംഗിന്	-11.1426
ിയൻ	-11.143
▁തീവ്രവാദി	-11.1432
▁യൂട്യൂബ	-11.1432
▁സംക്രമ	-11.1434
ഭാഗം	-11.1435
▁ഏകോപിപ്പിക്ക	-11.1437
▁വന്യജീവി	-11.1437
▁കടകംപള്ളി	-11.1437
▁നെടുമ്പാശ്ശേരി	-11.1437
▁ഫിനാലെ	-11.1437
▁വാരണാസി	-11.1437
▁ശിരോമണി	-11.1437
▁ശുചീകരണ	-11.1437
▁സമുച്ചയ	-11.1437
▁ശിവശങ്കര്‍	-11.1437
▁മാലിക്	-11.1438
▁ഹരിപ്പാട്	-11.1438
▁നാവികസേന	-11.1438
▁ലതിക	-11.1441
▁പട്ടേല	-11.1442
▁ദാനം	-11.1442
▁ഉറപ്പാക്കണം	-11.1443
▁ജിദ്ദ	-11.1444
▁തെരഞ്ഞെടുത്ത	-11.1445
▁തികയ	-11.1446
▁അവസാനത്തെ	-11.1447
▁ആസ്ഥാന	-11.1448
▁ഗ്രസ്	-11.1448
▁കുത്തക	-11.1449
▁മാധ്യമങ്ങളും	-11.145
▁ശിക്ഷാ	-11.145
▁വിവാദങ്ങള്‍	-11.145
▁സകല	-11.1453
▁നടത്തിവരുന്ന	-11.1458
▁വിശദാംശങ്ങള്‍	-11.1462
▁ശേഷിയുള്ള	-11.1463
▁ളോ	-11.1464
▁വിമർശനവുമായ	-11.1464
▁ലവ്	-11.1464
▁പ്രധാനമന്ത്രിയെ	-11.1465
▁നിര്‍ദ്ദേശങ്ങള	-11.1465
▁ഗൂഗിള്‍	-11.1465
ദം	-11.1471
▁സ്ഥാനാർത്ഥികൾ	-11.1478
▁ഛത്തീസ്ഗഡ്	-11.148
▁തെങ്ങ	-11.1481
▁ചെയ്തിട്ടുള്ള	-11.1483
യുവ	-11.1483
▁ഉണ്ടാകുമെന്ന്	-11.1485
രുന്ന	-11.1487
▁രക്ഷപ്പെട്ടത്	-11.1488
▁വേഗത്തിലാക്ക	-11.1492
ുന്നതുവരെ	-11.1493
യില്ലെന്നും	-11.1493
▁സർക്കാരിൽ	-11.1494
▁കേസിലും	-11.1494
▁കണ്ടപ്പോള്‍	-11.1495
▁112	-11.1497
▁ട്രീറ്റ്	-11.1498
▁മനുഷ്യത്വ	-11.1501
▁ദിനേശ്	-11.1501
▁പരീക്ഷകള്‍	-11.1501
ുമായിരുന്ന	-11.1503
▁കർണാടകയിൽ	-11.1503
▁50000	-11.1505
▁ഉത്തരവിട്ടു	-11.1506
ച്ചില	-11.1508
▁ലോകത്തിന്	-11.1508
▁തൂ	-11.151
▁T	-11.1512
▁വരികയാണെന്ന	-11.1512
▁തെലങ്കാനയില്‍	-11.1513
▁റിപ്പോർട്ടുകള്‍	-11.1513
▁നയങ്ങള	-11.1514
▁ഉണ്ടായില്ല	-11.1514
▁ജീവിച്ച	-11.1514
▁വായ്പാ	-11.1515
▁ഫലങ്ങള	-11.1515
▁സംഘപരിവാറ	-11.1518
▁പ്രവാസികളെ	-11.1519
ാഘോഷ	-11.1523
▁ബിജെപിയിലെ	-11.1523
▁അവന	-11.1524
വാരി	-11.1525
ൊന്നുമല്ല	-11.1525
▁ട്രി	-11.1526
▁കമ്മീഷന്	-11.1529
▁സമരത്തെ	-11.1532
▁164	-11.1536
▁അനിശ്ചിതത്വ	-11.1539
▁ഉറപ്പാക്ക	-11.1541
▁ഹിറ്റ്	-11.1543
▁പ്രവചിക്കുന്നു	-11.1548
▁കുതിപ്പ	-11.1551
▁അനുഭവിക്ക	-11.1552
▁ഓപ്പറേഷൻ	-11.1555
▁പ്രോസിക്യൂഷൻ	-11.1555
▁പുനസ്ഥാപിക്ക	-11.1555
▁ശനിയാഴ്ച്ച	-11.1555
▁(43)	-11.1555
▁വൃദ്ധ	-11.1555
▁കരീം	-11.1555
▁സതീശനും	-11.1555
▁കൊതുക	-11.1555
▁പൊട്ടിപ്പുറ	-11.1555
▁അനുവാദം	-11.1556
▁ഇടംപിടിച്ച	-11.1556
▁കുതിക്ക	-11.1556
▁നിർമ്മാണം	-11.1557
▁ഒഴിവുകളിലേക്ക	-11.1557
▁ഇന	-11.1557
▁റേഡിയോ	-11.1559
▁ഓർത്ത	-11.1559
▁3/4)	-11.1561
▁യാത്രക്കാര്‍ക്ക	-11.1562
▁മരുന്നുകള്‍	-11.1563
▁നിലവാര	-11.1564
▁തകർന്നു	-11.1565
▁ദീർഘകാല	-11.1566
▁ട്രസ്റ്റ്	-11.1566
▁പുനർ	-11.1568
▁സര്‍ക്കാരിനോട്	-11.1568
▁2002	-11.1569
ിലാക്കി	-11.157
▁നാലര	-11.1572
▁2007	-11.1573
▁പിന്നീട	-11.1574
▁ടണ്‍	-11.1574
▁പരിരക്ഷ	-11.1576
▁വഴിവെച്ച	-11.1577
▁പ്രമോഷന	-11.1577
െടുക്കുക	-11.1578
▁ശ്വാസം	-11.1578
▁നിലയിലും	-11.1578
▁കണ്ടാണ്	-11.1581
▁സമിതിയില്‍	-11.1581
▁മറന്നു	-11.1581
▁ബാരലിന്	-11.1582
▁ഫലപ്രദമായി	-11.1583
▁ചെവി	-11.1587
▁കളിയാക്ക	-11.1588
▁ദോ	-11.159
▁പണ്ട്	-11.159
▁ഗുരുവായൂര്‍	-11.159
▁ജോണി	-11.1595
▁വിക്കറ്റ	-11.1595
▁വരുമോ	-11.1596
▁ഗ്രഹങ്ങള	-11.1596
▁മത്സരത്തിന്	-11.1597
▁സുധാകരനെ	-11.1599
▁സ്റ്റാ	-11.1599
▁ഗവർണറ	-11.16
▁സമ്മര്‍ദ്ദം	-11.1601
▁കുറവാണെന്ന	-11.1601
സന്‍	-11.1604
▁അണ	-11.1605
▁സംബന്ധിച്ചും	-11.1606
▁വാര്‍ത്തകള	-11.1608
▁മേഖലയിലേക്ക്	-11.1608
▁വിശദീകരിക്കുന്ന	-11.1609
▁ഡിംപല	-11.1609
▁കൊടു	-11.161
▁റിതു	-11.1612
വർഷ	-11.1613
▁സംശയമില്ല	-11.1615
▁ചടങ്ങ	-11.1616
▁ചെയ്താൽ	-11.1617
▁സംഭാഷണം	-11.1617
it	-11.1618
▁ഗുണകരമ	-11.162
▁തിരഞ്ഞെടുത്തത്	-11.1621
▁കൗണ്‍സിലര്‍മാര	-11.1621
▁സ്ഥാപനങ്ങളിലും	-11.1622
▁മാതാവ	-11.1622
▁ആശങ്കയും	-11.1625
കാര്‍	-11.1626
▁ഹോസ്റ്റല	-11.1626
▁ഇദ്ദേഹത്തിന്	-11.1627
▁ഒളിവില	-11.1627
▁റോസ്	-11.1631
▁ബ്ലൂ	-11.1631
യെടുത്ത്	-11.1632
▁മൃഗ	-11.1632
▁പ്രതീക്ഷയോടെ	-11.1634
▁എഡിറ്റ	-11.1635
വാര്‍	-11.1637
പ്പൂ	-11.1638
▁നീര	-11.1641
▁വിദേശത്തുനിന്ന	-11.1642
▁ആശുപത്രിയില	-11.1642
▁(1,	-11.1643
റ്റിൽ	-11.1644
▁പാല്‍	-11.1645
▁ഇന്റർവ്യൂ	-11.1645
▁വിഭജനം	-11.1646
▁കാവ	-11.1646
▁സുഹൃത്തുക്കളും	-11.1646
▁എനിക്കും	-11.1646
പൂർവ്വം	-11.1647
ിറ്റ്	-11.1647
▁നിലയ	-11.1649
▁ചികിത്സയ്ക്ക	-11.1649
▁ഉഷ	-11.1649
ിലെത്തിയത്	-11.165
▁റിമ	-11.1654
▁മാറ്റിയിരുന്നു	-11.1655
▁വിശ്വാസികള്‍	-11.1659
കൊല്ല	-11.1662
രണം	-11.1663
ുകഴിഞ്ഞു	-11.1663
▁വീതി	-11.1665
ടുത്ത്	-11.1666
െക്കുറിച്ചുള്ള	-11.1668
▁വിദേശികള	-11.1669
തിൻ്റെ	-11.1669
▁ഗോപിനാഥ്	-11.1671
▁സന്ദീപ	-11.1672
▁അഭിമുഖത്തില	-11.1674
▁യുവാവിന്	-11.1674
മർ	-11.1674
▁പ്രതിബദ്ധത	-11.1674
▁ടൂര്‍ണമെന്റ	-11.1674
▁ടൊവിനോ	-11.1674
▁ന്യൂദല്‍ഹി	-11.1674
▁ബയോഡാറ്റ	-11.1674
▁യുഎപിഎ	-11.1674
▁അനുരാഗ്	-11.1674
▁കശ്മീർ	-11.1674
▁ഫേസ്	-11.1674
▁പ്രേരിപ്പിക്ക	-11.1674
▁ചുമതലയേറ്റ	-11.1674
▁പുറപ്പെടുവിക്ക	-11.1674
▁വാട്ടർ	-11.1674
▁ചുവടു	-11.1674
▁രേവതി	-11.1674
▁മനോഭാവ	-11.1674
▁ഊർജ്ജ	-11.1674
▁മലമ്പുഴ	-11.1674
▁ബ്രാഞ്ച	-11.1674
▁പിന്തുടര്‍ന്ന	-11.1674
▁മാസങ്ങളായി	-11.1675
▁പ്രൊഫസര്‍	-11.1675
▁എന്നാലും	-11.1675
▁കലക്ടർ	-11.1675
▁ചന്ദ്രയാന്‍	-11.1675
▁വിജയസാധ്യത	-11.1675
▁തുരത്ത	-11.1675
▁ലയന	-11.1677
▁ജൂനിയർ	-11.1678
▁സർക്കാരിൻ്റെ	-11.1678
▁മാതൃ	-11.168
ക്കുള്ളത്	-11.1681
▁ഞങ്ങള്‍ക്ക	-11.1682
വരുണ്ട്	-11.1682
▁നൈറ്റ്	-11.1683
▁അവിടുത്ത	-11.1683
▁സമരത്തിന്റെ	-11.1684
▁ഹണി	-11.1685
▁കര്‍മ്മ	-11.1687
▁പൂര്‍ത്തിയായി	-11.1687
▁മുമ്പായി	-11.1688
▁ക്വാട്ട	-11.1689
▁ബഹള	-11.169
▁ജലം	-11.169
▁അതിൻ്റെ	-11.169
▁മൈക്ക്	-11.1691
▁ശ്രീരാമ	-11.1692
▁ഡീസല്‍	-11.1694
▁തുറക്കുന്ന	-11.1696
▁144	-11.1696
ിപ്പിച്ചു	-11.1696
▁സ്ഥാപനമായ	-11.1696
▁ഇടിഞ്ഞു	-11.1696
▁വരണമെന്ന	-11.1696
▁ഉത്തരവാദി	-11.1696
▁കൊണ്ടുവരും	-11.1699
▁പേരിട്ട	-11.1701
▁അംഗീകാര	-11.1701
▁വാതില	-11.1701
▁തൊണ്ട	-11.1702
▁നിയമത്തിലെ	-11.1702
▁ജര്‍മനി	-11.1702
▁സര്‍ക്കാരാണ്	-11.1703
▁പുടിന്‍	-11.1703
▁പ്രസിഡന്റിന്റെ	-11.1703
▁കേന്ദ്രമായ	-11.1704
▁പരാതിയുടെ	-11.1706
▁മുതലുള്ള	-11.1707
▁പാർലമെന്റിൽ	-11.1708
ിങ്ങ്	-11.1709
െന്നത്	-11.1709
ിസം	-11.1709
▁ആരംഭിക്കുക	-11.171
യാര	-11.1713
മാണ	-11.1714
▁വിഭാഗത്തിന	-11.1715
▁വധക്കേസ	-11.1715
▁അമേരിക്കയും	-11.1716
▁കര്‍മ	-11.1716
ജേഷ്	-11.1716
▁ക്ലിക്ക്	-11.1716
▁N	-11.1717
▁മാനേജ്മെന്റ്	-11.1717
▁താമസിച്ചിരുന്ന	-11.1717
▁മാനദണ്ഡം	-11.1719
▁ഞെട്ടല	-11.1722
▁പയ്യ	-11.1723
▁സ്വന്തമാക്കാന്‍	-11.1725
ങ്കു	-11.1727
റിംഗ്	-11.1727
▁തടയുന്നതിന	-11.1729
▁പുറത്തായത്	-11.1729
▁അഭ്യര്‍ത്ഥിച്ച	-11.173
▁അണികള	-11.173
▁പാലിക്കണമെന്ന്	-11.1731
▁പൈപ്പ്	-11.1731
▁ജീവനക്കാർക്ക	-11.1731
ുവെന്നായിരുന്നു	-11.1732
ണ്ടേ	-11.1732
▁ലേക്ക്	-11.1732
▁കൊടുക്കാൻ	-11.1733
▁കമ്പനികളുടെ	-11.1734
▁മുറിച്ച	-11.1735
▁പൊളിച്ച	-11.1736
▁നീളുന്ന	-11.1737
ലിംഗ	-11.1737
ന്ദ്ര	-11.1739
▁ഐക്യം	-11.1742
▁ജസ്	-11.1745
▁ആവശ്യമില്ലെന്ന	-11.1746
▁വടി	-11.1747
▁തുടരാൻ	-11.1747
▁എടുത്തിരുന്നു	-11.1747
▁മൊബൈല	-11.1747
▁രാഷ്	-11.1749
▁പവര്‍	-11.1752
▁കുറയ്ക്കാന്‍	-11.1755
▁രാജ്യങ്ങളില	-11.1757
▁ഉറപ്പാക്കിയ	-11.1758
▁നേർ	-11.1759
▁ഉറപ്പാക്കും	-11.176
▁ശിക്ഷിക്ക	-11.176
▁പ്രതാപ്	-11.1761
▁അപേക്ഷകര്‍	-11.1762
▁അതാത	-11.1764
▁അഹമ്മദാബാദ്	-11.1764
ിട്ടുമില്ല	-11.1767
▁രേ	-11.1768
▁രക്ഷിതാക്കള	-11.1768
▁സമിതിയെ	-11.1771
▁മാറാന്‍	-11.1774
യാവും	-11.1775
കൂടിയ	-11.1775
▁മത്സരാർത്ഥികൾ	-11.1776
ദിനം	-11.1777
▁ഉദ്യോഗസ്ഥൻ	-11.1779
▁ഇന്ദിര	-11.1779
▁കുട്ട	-11.1779
▁നിന്നുമാണ്	-11.1781
▁ഖു	-11.1782
ാണെന്നായിരുന്നു	-11.1782
▁പഠിക്കാന	-11.1782
ത്രി	-11.1784
▁കണ്ടെത്തുന്നതിന	-11.1785
ുദ്ദീന്‍	-11.1787
▁തൊഴിലാളികള	-11.1789
▁പടരുന്ന	-11.1789
▁കുരു	-11.179
▁c	-11.1791
ുണ്ടാവുക	-11.1792
▁ഇതിഹാസ	-11.1795
▁കുടിശ്ശിക	-11.1795
▁ഗർഭിണി	-11.1795
▁പ്രതിനിധീകരിച്ച	-11.1795
▁മാതാപിതാക്കൾ	-11.1795
▁ഹിമാചല്‍	-11.1795
▁ബിനോയ്	-11.1795
▁ആദായനികുതി	-11.1795
▁അൻവർ	-11.1795
▁ഒരാഴ്ച്ച	-11.1795
▁ശബ്ദരേഖ	-11.1795
ഡേ	-11.1795
▁ആണെങ്കില്‍	-11.1796
▁വ്യക്തിഗത	-11.1796
▁ഹരജി	-11.1797
▁ഷെട്ടി	-11.1798
▁ശീ	-11.1801
▁വിശുദ്ധ	-11.1801
▁ധന്യ	-11.1802
▁റാങ്ക	-11.1803
ികള	-11.1804
▁വീണ്ടെടുക്ക	-11.1804
▁ചിത്രത്തില	-11.1804
▁വിട്ടുനില്‍ക്ക	-11.1807
▁അടിയന്തിരമായി	-11.1808
▁(10	-11.1812
▁തെറ്റാണ്	-11.1813
▁ഗ്രീന്‍	-11.1814
▁അര്‍ധ	-11.1814
▁നേരിട്ടെത്തി	-11.1816
സര്‍ക്കാരിന്റെ	-11.1816
▁സ്റ്റാലിന്‍	-11.1819
▁ചെയ്തതോടെ	-11.182
▁മ്മ	-11.1822
▁താരങ്ങളെ	-11.1824
▁പ്രതിസന്ധികള്‍	-11.1824
▁ആക്രമിച്ചത്	-11.1828
▁മാസങ്ങള്‍ക്ക്	-11.1829
▁പുലര്‍ത്ത	-11.183
▁ഹാളില്‍	-11.1835
▁160	-11.1836
▁കപ്പ	-11.1836
▁ചെറിയാൻ	-11.1836
▁നേട്ടമ	-11.1837
▁ബാറ്റിംഗ	-11.1838
▁ബന്ധമാണ്	-11.1838
▁എതിർപ്പ്	-11.1838
700	-11.1838
▁ശങ്കര്‍	-11.1839
ട്ടില്‍	-11.1839
▁പ്രകടനമാണ്	-11.1841
▁സ്വർണ്ണക്കടത്ത്	-11.1841
▁യൂണിയന	-11.1841
▁ടാക്സി	-11.1841
ക്കാട	-11.1843
▁തീരുമാനത്തില്‍	-11.1845
▁പത്മ	-11.1845
▁ആത്മവിശ്വാസത്ത	-11.1845
താണെന്നാണ്	-11.1846
▁ചലഞ്ച്	-11.1847
ക്കണമെന്ന	-11.185
▁തൃശൂരിലെ	-11.1851
േന	-11.1852
▁തലത്തിലും	-11.1852
ത്താൻ	-11.1854
യുണ്ടായി	-11.1854
▁ദര്‍ശന	-11.1855
▁ഫലമായി	-11.1855
▁മില്ലി	-11.1856
▁പങ്കുവെച്ചത്	-11.1857
▁കാറ്റ്	-11.1858
രുന്നു	-11.1859
▁ഉറപ്പാക്കാന്‍	-11.1862
▁കൂത്തുപറമ്പ്	-11.1862
▁ആസൂത്രണ	-11.1863
▁വാല	-11.1863
▁കോണ്‍ഫറന്‍സ്	-11.1863
സിറ്റി	-11.1863
▁പിന്നോട്ട്	-11.1864
▁കാണുകയും	-11.1865
▁സഹായിച്ചത്	-11.187
▁കരുതല്‍	-11.1871
▁ആരോപണവും	-11.1872
▁റിപ്പോര്‍ട്ടര്‍	-11.1872
on	-11.1872
▁അവാർഡ്	-11.1877
▁കഴിയുന്നുണ്ട്	-11.1877
F	-11.1878
മുഖ്യമന്ത്രി	-11.1878
▁ല്ലാ	-11.1879
▁22,	-11.1879
▁അഹ	-11.188
▁ഏറ്റുമുട്ട	-11.188
▁കണ്ണ്	-11.188
▁ലഭിക്കാനുള്ള	-11.1882
▁ഒത്തു	-11.1882
▁പങ്കാളിത്തം	-11.1882
▁സര	-11.1885
▁ദൃശ്യം	-11.1887
യ്ക്കല്‍	-11.1889
▁മാസമായി	-11.1889
▁പ്രതികരിക്കുന്ന	-11.1893
▁അടച്ച്	-11.1894
തല്ലേ	-11.1895
▁സാധ്യതയെന്ന	-11.1896
▁ഓർമ	-11.1897
▁പോസ്റ്റുകള	-11.1898
ൊഴിച്ച	-11.1898
▁തയാറ	-11.1899
▁ലോകത്തിന്റെ	-11.19
ർട്ട്	-11.1901
▁ത്വ	-11.1903
നാണെന്ന്	-11.1904
▁ദുരൂഹ	-11.1906
▁അന്നു	-11.1907
▁തിരിഞ്ഞ്	-11.1908
▁വ്യാപിക്ക	-11.1909
▁ചന്ത	-11.191
മാരാണ്	-11.1913
▁പാസ	-11.1913
▁ഭയപ്പെടുന്ന	-11.1915
▁ക്രിസ്ത്യൻ	-11.1917
▁ഗൂഡാലോചന	-11.1917
▁മാവോയിസ്റ്റ്	-11.1917
▁ശുചിമുറി	-11.1917
▁മർദ്ദിച്ച	-11.1917
▁വമ്പൻ	-11.1917
▁പാണക്കാട്	-11.1917
▁ദേവഗൗഡ	-11.1917
▁ഘോഷയാത്ര	-11.1917
▁സാങ്കേതികവിദ്യ	-11.1917
▁11.30	-11.1917
▁ബ്രിജ്	-11.1917
▁ആണെങ്കിൽ	-11.1917
▁ജയറാം	-11.1918
▁ചൊവ്വാഴ്ച്ച	-11.1918
▁ലിറ്റര്‍	-11.1918
▁പല്ല	-11.1918
▁പ്രതിഷേധക്കാര്‍	-11.1919
▁ഷെയര്‍	-11.192
▁സൂചിപ്പിച്ചു	-11.192
ക്കുഴി	-11.192
▁ദിഗ്	-11.1923
▁തെറ്റാണെന്ന്	-11.1923
▁അഭിമുഖത്തിൽ	-11.1925
യ്ക്കുള്ളില്‍	-11.1928
▁സംപ്രേഷണം	-11.1929
ുന്നതിനെ	-11.1929
▁വല്ലാത്ത	-11.1929
ത്തത്	-11.193
ഫലം	-11.1931
▁ആകുന്ന	-11.1931
▁റേറ്റ	-11.1931
▁ജനപ്രതിനിധി	-11.1932
▁എളുപ്പത്തില്‍	-11.1932
-4	-11.1933
▁അവസരമ	-11.1934
ുണ്ടല്ലോ	-11.1934
▁മതില	-11.1935
▁ദിലീപിനെതിരെ	-11.1935
ുന്നുണ്ടെങ്കിലും	-11.1935
▁വരുന്നതിന്	-11.1936
▁പ്രതിസന്ധിയിലാ	-11.1937
▁സുല്‍ത്താന്‍	-11.1938
ൈസ	-11.1938
▁പ്രസ്താവനയിലൂടെ	-11.1938
▁ഐസി	-11.1939
▁കോളേജ	-11.1939
▁ഇടയ്ക്ക	-11.194
▁പലസ്തീന്‍	-11.194
പോര	-11.194
▁കുത്തിയ	-11.1941
▁ഏറ്റുമാനൂര്‍	-11.1941
▁മേഖലകള	-11.1942
▁ശേഖര	-11.1943
▁കഴിക്കുന്ന	-11.1943
▁ഓവര്‍	-11.1944
▁അന്വേഷണത്തിൽ	-11.1944
▁റോഡിലെ	-11.1947
വരെല്ലാം	-11.1947
യുണ്ടാവ	-11.1947
▁സെറ്റ്	-11.1948
▁പിതാവിന്റെ	-11.195
▁സുധ	-11.195
▁പിറകെ	-11.195
▁W	-11.195
▁ജീവി	-11.1952
▁ചെയ്യില്ല	-11.1952
▁ലോഡ്	-11.1953
▁ചൈനയിലെ	-11.1954
▁നായരുടെ	-11.1954
▁പ്രതിസന്ധിയിലായ	-11.1956
▁മൂടി	-11.1957
▁ബിഹാറില്‍	-11.1958
▁സംഘത്തില	-11.1959
ടിമുടി	-11.1959
▁പിടിച്ചെടുത്തു	-11.1959
▁സൗകര്യവും	-11.1961
▁സ്ഫോടന	-11.1961
കരം	-11.1962
▁വര്‍ഗ	-11.1963
▁പോസ്റ്റര്‍	-11.1963
കളോ	-11.1963
▁ജില്ലയിലാണ്	-11.1964
▁നിഷ	-11.1964
മോള്‍	-11.1969
യെത്തിയ	-11.1969
▁ആദരവ	-11.197
▁വിവി	-11.1972
▁ജോര്‍ജിനെ	-11.1972
▁അധികാരി	-11.1973
▁ഒരാളും	-11.1973
▁വീടുകളില	-11.1974
▁കൂടുന്ന	-11.1974
▁പറമ്പില്‍	-11.1977
▁എംടി	-11.1977
▁പൊളി	-11.1977
▁ദമ്പതികള്‍	-11.1977
▁രോഗങ്ങള്‍	-11.1979
▁കുടുങ്ങിക്കിട	-11.1979
ക്കാരൻ	-11.1979
തിനോട്	-11.198
ുന്നതിന	-11.1981
▁കാറിന്റെ	-11.1982
▁ഏറ്റെടുത്തു	-11.1986
▁സൃഷ്ടിക്കാന	-11.1986
▁ഉയർത്തിയത്	-11.1986
▁ബില്ലുകള്‍	-11.1988
▁വെല്ല	-11.1992
മുണ്ടാക്കിയ	-11.1993
ബല	-11.1993
▁ജീവിക്കാന	-11.1999
ഭാഗ	-11.2
▁സെഷന	-11.2
ോളൂ	-11.2002
പ്രവർത്തന	-11.2002
▁പൗരന്മാര	-11.2002
▁തള്ളിയിരുന്നു	-11.2003
യൊ	-11.2003
▁നമ്പര	-11.2007
▁നല്‍കേണ്ടത്	-11.2008
അത്	-11.201
പൂരില്‍	-11.2015
▁ചുറ്റ	-11.2015
▁ഗുണ്ടകള	-11.2019
▁പോകണമെന്ന	-11.2021
▁ദൃശ്യങ്ങളും	-11.2022
▁അംഗവും	-11.2023
ണമെന്നായിരുന്നു	-11.2025
▁വ്യക്തികളുടെ	-11.203
▁തീരെ	-11.2031
▁ചേര്‍ന്നിരുന്നു	-11.2032
▁വിളികള	-11.2035
▁രാജ്യങ്ങളെ	-11.2035
▁അഭിവാദ്യ	-11.2036
▁സല	-11.2037
▁അഭിനന്ദിച്ചു	-11.2038
▁യോഗ്യ	-11.2038
നീയ	-11.204
▁എരുമേലി	-11.204
▁ന്യൂയോര്‍ക്ക്	-11.204
▁പോപ്പുലർ	-11.204
▁പ്രതിഷ്ഠ	-11.204
▁വട്ടിയൂര്‍ക്കാവ	-11.204
▁ഫ്രാന്‍സിസ്	-11.204
▁മൗര്യ	-11.204
▁ക്ലിപ്പ	-11.204
▁പൊതുവിദ്യാഭ്യാസ	-11.2041
▁വലതുപക്ഷ	-11.2041
▁മാറ്റിവെക്ക	-11.2041
▁മദ്യപിച്ച	-11.2041
▁ഗോള്‍ഡ	-11.2041
▁ട്രോഫി	-11.2041
ാകുമെന്നാണ്	-11.2042
▁വിട്ടയച്ച	-11.2042
▁അടിയന്തരാവസ്ഥ	-11.2043
▁റൗണ്ട	-11.2043
▁ഇടയ്ക്കിടെ	-11.2043
▁കുതിപ്പ്	-11.2044
▁ദാരിദ്ര്യ	-11.2045
▁ഭരിക്കുന്നത്	-11.2045
▁മുരളീധരന്റെ	-11.2045
▁അഖിലേന്ത്യാ	-11.2045
▁ബിഹാർ	-11.2045
▁സുഖം	-11.2046
▁കരട്	-11.2046
ക്കുറവ	-11.2047
▁കൊമേഴ്	-11.2048
▁വിജയിക്കുമെന്ന	-11.2048
▁ഹൈബി	-11.2049
▁ഒഴിവുകൾ	-11.2049
▁താരമായ	-11.205
▁മനസിലാക്കി	-11.205
▁രാജ്യസഭയിലേക്ക്	-11.2052
▁ഉപഭോക്താക്കള്‍	-11.2052
▁തെളിവാണ്	-11.2052
▁വിനയ	-11.2054
▁ചെങ്ക	-11.2054
▁ചെറുത	-11.2056
▁സംവിധാനങ്ങളും	-11.2057
▁ക്യാമ്പസ	-11.2058
ുകളിലേക്ക്	-11.206
▁താഴേക്ക്	-11.206
▁പന്ത്	-11.206
▁മറ്റുള്ളവരുടെ	-11.206
ക്കാതെ	-11.206
▁പ്രോട്ടോക്കോള്‍	-11.2063
▁ശേഖരിച്ച്	-11.2064
▁നിര്‍മിക്ക	-11.2065
▁മാറ്റിവച്ച	-11.2066
▁രസ	-11.2067
▁കൂടിയാണിത്	-11.2067
▁പ്രവാസികള	-11.2067
▁രംഗത്തുവന്നു	-11.207
▁ഏഴിന്	-11.2071
ശങ്ക	-11.2078
മന്ത്രാലയം	-11.2078
▁ആവശ്യങ്ങൾ	-11.208
▁സൗദിയുടെ	-11.2081
▁ഹോട്ടലിൽ	-11.2081
▁ഉപദേശ	-11.2083
▁സമ്മർദ്ദ	-11.2084
▁അനുബന്ധിച്ച്	-11.2084
▁ശേ	-11.2085
▁യാദവിന്റെ	-11.2085
▁ഭര്‍ത്താവിന്റെ	-11.2086
▁ച്ച്	-11.2086
▁കാണുന്നില്ല	-11.2088
വേദി	-11.2088
▁ഡോക്ടറെ	-11.2089
ുണ്ടാക്കുന്ന	-11.2089
▁താമസക്കാര	-11.2096
▁രൂപയില്‍	-11.2097
▁കാലമായി	-11.2098
▁വിദേശത്തേക്ക	-11.2098
▁എതിർ	-11.2099
ിട്ടില്ലെന്ന	-11.2099
▁വീട്ടിലും	-11.21
▁സുരേന്ദ്രന്	-11.21
▁രീ	-11.2102
▁ഇടവ	-11.2102
▁ഉത്തരവാദിത്വം	-11.2102
▁വര്‍ഷങ്ങള്‍	-11.2103
▁നിരക്കിൽ	-11.2104
▁മരിയ	-11.2105
▁സംഘങ്ങള്‍	-11.2105
▁ദാസ	-11.2105
▁കുടുംബത്തിനും	-11.2106
▁സുധാകരനും	-11.2109
മരണ	-11.211
▁സൂര്യന്റെ	-11.2111
▁ഉള്ളവർ	-11.2112
കാരിയായ	-11.2112
▁ഡയ	-11.2113
-5	-11.2117
മാക്കാന്‍	-11.2121
▁പിന്നിട	-11.2123
ലക്ഷ്മി	-11.2123
▁മാർക്ക്	-11.2124
▁ഐസിയുവ	-11.2124
▁തേടിയെത്തിയ	-11.2124
G	-11.2126
▁ആത്മഹത്യാ	-11.2127
തയ്യാറായിട്ടില്ല	-11.2127
▁(23),	-11.2128
▁റെയില	-11.2129
▁സാധിക്കുന്നില്ല	-11.2131
▁വായ്	-11.2132
▁ജോജുവ	-11.2133
[...]
