[UNK]	0
[CLS]	1
[SEP]	2
[PAD]	3
[MASK]	4
!	5
"	6
#	7
$	8
%	9
&	10
'	11
(	12
)	13
*	14
+	15
,	16
-	17
.	18
/	19
0	20
1	21
2	22
3	23
4	24
5	25
6	26
7	27
8	28
9	29
:	30
;	31
<	32
=	33
>	34
?	35
@	36
[	37
\	38
]	39
_	40
`	41
a	42
b	43
c	44
d	45
e	46
f	47
g	48
h	49
i	50
j	51
k	52
l	53
m	54
n	55
o	56
p	57
q	58
r	59
s	60
t	61
u	62
v	63
w	64
x	65
y	66
z	67
{	68
}	69
	70
£	71
¥	72
°	73
·	74
×	75
â	76
ñ	77
ڇ	78
ڈ	79
ډ	80
ं	81
अ	82
आ	83
इ	84
ए	85
औ	86
क	87
ग	88
च	89
ज	90
ट	91
ठ	92
ण	93
त	94
थ	95
द	96
ध	97
न	98
प	99
ब	100
भ	101
म	102
य	103
र	104
ल	105
व	106
श	107
ष	108
स	109
ह	110
ा	111
ि	112
ी	113
े	114
ो	115
ौ	116
्	117
।	118
ং	119
ব	120
ল	121
া	122
அ	123
ஆ	124
க	125
ச	126
ட	127
ண	128
த	129
ன	130
ப	131
ம	132
ய	133
ல	134
வ	135
ி	136
ீ	137
ு	138
ெ	139
ை	140
்	141
ം	142
ഃ	143
അ	144
ആ	145
ഇ	146
ഈ	147
ഉ	148
ഊ	149
ഋ	150
ഌ	151
എ	152
ഏ	153
ഐ	154
ഒ	155
ഓ	156
ഔ	157
ക	158
ഖ	159
ഗ	160
ഘ	161
ങ	162
ച	163
ഛ	164
ജ	165
ഝ	166
ഞ	167
ട	168
ഠ	169
ഡ	170
ഢ	171
ണ	172
ത	173
ഥ	174
ദ	175
ധ	176
ന	177
പ	178
ഫ	179
ബ	180
ഭ	181
മ	182
യ	183
ര	184
റ	185
ല	186
ള	187
ഴ	188
വ	189
ശ	190
ഷ	191
സ	192
ഹ	193
ാ	194
ി	195
ീ	196
ു	197
ൂ	198
ൃ	199
െ	200
േ	201
ൈ	202
ൊ	203
ോ	204
ൌ	205
്	206
ൗ	207
ൡ	208
൦	209
൪	210
൯	211
ൺ	212
ൻ	213
ർ	214
ൽ	215
ൾ	216
ൿ	217
‌	218
‍	219
‐	220
‟	221
•	222
′	223
⁄	224
€	225
₹	226
⃣	227
∙	228
▪	229
◼	230
◾	231
♀	232
♥	233
✌	234
✨	235
❓	236
❤	237
➡	238
⬛	239
ブ	240
ム	241
ラ	242
ル	243
ー	244
南	245
容	246
湘	247
美	248
	249
︎	250
️	251
🌹	252
🎖	253
🏻	254
🐟	255
👇	256
👉	257
👌	258
👏	259
💎	260
💚	261
🔘	262
🔥	263
🔸	264
🖤	265
🗃	266
😄	267
😍	268
😘	269
🙄	270
🙏	271
🚩	272
🤔	273
🤝	274
🤣	275
🤦	276
🥛	277
🥦	278
##ം	279
##ശ	280
##യ	281
##ങ	282
##്	283
##ള	284
##‍	285
##ഴ	286
##ി	287
##ട	288
##ല	289
##ന	290
##ത	291
##ഗ	292
##ോ	293
##പ	294
##ു	295
##ര	296
##റ	297
##ജ	298
##സ	299
##ൽ	300
##ാ	301
##ദ	302
##ക	303
##ർ	304
##ഡ	305
##മ	306
##ീ	307
##ച	308
##െ	309
##‌	310
##വ	311
##ഞ	312
##o	313
##k	314
##i	315
##n	316
##g	317
##ണ	318
##ഖ	319
##ഷ	320
##േ	321
##ഫ	322
##d	323
##m	324
##s	325
##c	326
##ഛ	327
##ൊ	328
##ഭ	329
##ൻ	330
##ബ	331
##ധ	332
##ൈ	333
##ൃ	334
##ഹ	335
##2	336
##0	337
##ൂ	338
##v	339
##ൾ	340
##ൗ	341
##a	342
##f	343
##4	344
##5	345
##6	346
##എ	347
##ആ	348
##ഢ	349
##7	350
##ഠ	351
##ഥ	352
##ൺ	353
##8	354
##h	355
##e	356
##r	357
##t	358
##9	359
##ഘ	360
##3	361
##p	362
##l	363
##र	364
##ഐ	365
##y	366
##1	367
##b	368
##w	369
##u	370
##൯	371
##ഏ	372
##അ	373
##,	374
##ഃ	375
##j	376
##"	377
##ൌ	378
##ഓ	379
##ñ	380
##ौ	381
##क	382
##ी	383
##*	384
###	385
##ഒ	386
##x	387
##ഇ	388
##.	389
##?	390
##ഊ	391
##ഝ	392
##q	393
##)	394
##_	395
##ह	396
##ा	397
##ग	398
##ठ	399
##ब	400
##ं	401
##ध	402
##न	403
##!	404
##ൿ	405
##$	406
##ெ	407
##ய	408
##்	409
##ப	410
##ட	411
##-	412
##'	413
##;	414
##ൡ	415
##ഉ	416
##ि	417
##स	418
##ഈ	419
##ഋ	420
##👏	421
##💎	422
##z	423
##ー	424
##ム	425
##ブ	426
##ラ	427
##😘	428
##्	429
##थ	430
##म	431
##ഌ	432
##൪	433
##े	434
##🏻	435
##/	436
##य	437
##द	438
##ډ	439
##â	440
##ष	441
##व	442
##श	443
##£	444
##ण	445
##ट	446
##൦	447
##😍	448
##🐟	449
##इ	450
##👌	451
##️	452
##⃣	453
##>	454
##ज	455
##@	456
##ो	457
##া	458
##ং	459
##ল	460
##南	461
##美	462
##容	463
##त	464
##:	465
##′	466
##🤝	467
##ल	468
##भ	469
##ண	470
##ி	471
##ன	472
##அ	473
##த	474
##க	475
##ை	476
##ு	477
##வ	478
##ீ	479
##=	480
##ए	481
##🌹	482
##ڈ	483
##प	484
##ന്	485
##ക്	486
##ത്	487
##്‍	488
##ന്ന	489
##ില	490
##ക്ക	491
##്ട	492
##ത്ത	493
##ും	494
##ിയ	495
##്ര	496
##ര്‍	497
##്യ	498
##ച്	499
##ുന്ന	500
##്പ	501
##ായ	502
##ട്ട	503
##ാണ	504
##രി	505
##പ്പ	506
##ങ്	507
##റ്	508
##സ്	509
##ാണ്	510
##ച്ച	511
##ില്‍	512
##തി	513
##ണ്ട	514
##ങ്ങ	515
##്ല	516
പ്ര	517
##ടെ	518
##ായി	519
##ന്‍	520
##ാന	521
##രു	522
##ിക്ക	523
##ുക	524
##ിന്	525
##ള്‍	526
##റ്റ	527
വി	528
##ഞ്	529
##ിച്ച	530
##ല്‍	531
##്ള	532
##രുന്ന	533
##ിൽ	534
##ള്ള	535
##ാര	536
##ക്ക്	537
സ്	538
##ടു	539
##റെ	540
##ുമ	541
ക്	542
##ന്ന്	543
##െയ	544
##ഞ്ഞ	545
##ിക	546
##ക്ഷ	547
##െന്ന	548
##ിന	549
നി	550
എന്ന	551
##ുള്ള	552
##ുടെ	553
##രുന്നു	554
കോ	555
ക്ക	556
##ല്ല	557
##ത്ര	558
##ദ്	559
മാ	560
##ില്ല	561
ത്	562
സം	563
##ണ്ട്	564
മു	565
##വി	566
##ദേ	567
പറ	568
##ാല	569
##രിക്ക	570
##ാക്ക	571
##പ്പെ	572
##ിലെ	573
നട	574
##ാര്‍	575
രാ	576
പി	577
നേ	578
കേ	579
##ങ്ങള	580
ചെയ	581
പോ	582
##ാന്‍	583
##ടി	584
കു	585
##്മ	586
കൊ	587
##ാവ	588
##ിന്റെ	589
##ങ്ക	590
##ന്ത്	591
##ണം	592
##ുന്നത്	593
##ോഗ	594
##ിവ	595
##ത്ത്	596
##െന്ന്	597
തി	598
##േഷ	599
##ണ്	600
##രെ	601
##ച്ച്	602
##മ്മ	603
##സി	604
സ്വ	605
##ട്	606
പു	607
##സ്ഥ	608
##ുവ	609
##െന്നും	610
##്യാ	611
സാ	612
##ദേശ	613
##ടുത്ത	614
##ങ്ങള്‍	615
ഒരു	616
##ംഗ	617
##രാ	618
##യും	619
##ത്തില്‍	620
##റ്റ്	621
##ന്ദ	622
##ണ്‍	623
##ായിരുന്നു	624
##മ്പ	625
##ിപ്പ	626
##ഡ്	627
##്യമ	628
##ുണ്ട്	629
##ത്തെ	630
അവ	631
ബി	632
കൂ	633
സി	634
##ന്ത	635
പറഞ്ഞ	636
##ട്ട്	637
##പി	638
##യം	639
##ാർ	640
പേ	641
തു	642
##ിലും	643
##ത്തിയ	644
##രിച്ച	645
##തിയ	646
##റി	647
##ിക്കുന്ന	648
##ഗ്ര	649
സ്ഥ	650
കള	651
##രം	652
##തമ	653
##റിയ	654
##ട്ടി	655
പ്രതി	656
##നി	657
##ാം	658
സമ	659
##തു	660
##ീക	661
##ാൻ	662
##ന്ധ	663
##വാ	664
##ഴി	665
##ിച്ചു	666
##െടു	667
അത	668
##്യം	669
##വും	670
വീ	671
##ന്റെ	672
##ത്തി	673
##ാല്‍	674
ചെയ്	675
##യാണ്	676
##സ്ഥാന	677
പരി	678
##ിട്ട	679
##ന്ദ്ര	680
##ന്ത്രി	681
##ിരുന്നു	682
##ശ്	683
വാ	684
##ര്‍ക്ക	685
കാര	686
##ാക	687
##ുകള	688
രാജ	689
ത്ത	690
##നം	691
തുട	692
നേത	693
ങ്	694
##യില്‍	695
തന്ന	696
##ങ്ങൾ	697
##ദ്ധ	698
##ിലേ	699
സു	700
##ഴ്	701
വെ	702
##മായ	703
ങ്ങ	704
പ്രവ	705
##തിന	706
##മായി	707
##ിനെ	708
യും	709
പറഞ്ഞു	710
വേ	711
വ്യ	712
##മാണ്	713
യു	714
പറയ	715
##ദേഹ	716
##യ്	717
പോല	718
കെ	719
##ടിയ	720
##ാത	721
##പ്പെട്ട	722
ചെയ്യ	723
##ത്തിൽ	724
നിന്ന	725
##ഷ്ട	726
അന	727
##ാഗ	728
##ോടെ	729
നിയ	730
##രണ	731
##ദ്ദേഹ	732
##ദ്യ	733
##ക്ര	734
ഇത	735
##ക്തമ	736
##പ്പ്	737
സംസ്ഥാന	738
##ല്‍ക	739
##ഫ്	740
##ത്യ	741
##ീസ്	742
തന്നെ	743
നില	744
നല്‍ക	745
##ുകള്‍	746
##ുന്നു	747
##ാമ	748
ജില്ല	749
##രള	750
ആര	751
##ര്‍ത്ത	752
##രഞ്ഞ	753
എം	754
##ത്തിന്	755
##മാന	756
അദ്ദേഹ	757
##പ്പോ	758
##ഡി	759
##ൂര്‍	760
##റ്റി	761
തീ	762
കോണ്‍	763
##രുടെ	764
##ജെ	765
20	766
##സം	767
##ുമായി	768
##ലി	769
##െങ്ക	770
പൊ	771
##ർക്ക	772
##ിന്ന്	773
##ോട്	774
##പ്ര	775
##രഞ്ഞെടു	776
##ിലേക്ക്	777
നിന്ന്	778
##ഴിഞ്ഞ	779
##ാള	780
##ോട്ട	781
##ന്ത്യ	782
##കള	783
##പ്	784
##ോധ	785
കോണ്‍ഗ്ര	786
ജന	787
##വ്	788
##യി	789
ശ്ര	790
##നെ	791
##ണമ	792
##ിയുടെ	793
##ണ്ണ	794
##ോദ	795
കേരള	796
##ത്സ	797
സാധ	798
ങ്ങള	799
ഉണ്ട	800
##ിലാണ്	801
##ഞ്ച	802
##ുപ	803
രൂ	804
ഇന്ത്യ	805
##ധി	806
##ീയ	807
##ികള	808
ബിജെ	809
ലഭ	810
ആവ	811
ജോ	812
കഴിഞ്ഞ	813
സെ	814
ിട്ട	815
പുറ	816
##തിന്	817
##ത്തിന്റെ	818
കാ	819
##മി	820
അറിയ	821
##ജി	822
കുറ	823
##െന്നാണ്	824
കേന്ദ്ര	825
പ്പ	826
ന്	827
##യുടെ	828
##ണി	829
##സമ	830
മുഖ	831
##ന്ത്ര	832
മൂ	833
മേ	834
##ജ്	835
##ിനി	836
അതേ	837
നിയമ	838
തെ	839
##നാ	840
##ിച്ചത്	841
##രും	842
രൂപ	843
മാത്ര	844
വര്‍	845
##ത്ഥ	846
സീ	847
നിര	848
അധ	849
##ധാന	850
ഡി	851
##ഷ്	852
ആവശ	853
ബാ	854
ദിവ	855
##മു	856
പിന്ന	857
##ാട	858
##കു	859
തിരഞ്ഞെടു	860
##ാരി	861
##ാൽ	862
സംഘ	863
##ലിയ	864
കണ്ട	865
##പ്പെടുത്ത	866
ഇട	867
##ക്കുന്ന	868
##്യാപ	869
എല്ല	870
##സ്റ്റ	871
##തിരെ	872
##വന	873
##ുകയാണ്	874
വിജ	875
##ർത്ത	876
##ഭവ	877
വന്ന	878
##സമയം	879
##വിഡ്	880
അദ്ദേഹം	881
##യിൽ	882
##ാത്ത	883
രോഗ	884
ആശ	885
##േണ്ട	886
##00	887
മുന്ന	888
വ്യക്തമ	889
അതേസമയം	890
സ്വദേശ	891
##ീക്ഷ	892
##ാക്കി	893
എന്നാല്‍	894
ലോ	895
വൈ	896
കേസ	897
പെ	898
##സഭ	899
സര്‍ക്ക	900
##ീസ	901
##ത്വ	902
##ളി	903
##ിപ്പോ	904
യാണ്	905
##ക്കും	906
##ുകയും	907
##ിട്ടുണ്ട്	908
ഉപ	909
##ുകൾ	910
##ികള്‍	911
##ാക്കിയ	912
നിര്‍	913
##്യൂ	914
ശേഷ	915
രാജ്യ	916
##ന്റ	917
അഭ	918
##മാ	919
എന്ന്	920
സ്ഥാന	921
ലക്ഷ	922
ഇവ	923
മുഖ്യമ	924
##കള്‍	925
റിപ്പോ	926
##ുമ്പ	927
ഇത്	928
##ുണ്ട	929
നീ	930
വലിയ	931
##ോപ	932
നടത്ത	933
ബന്ധ	934
##കാര	935
കാണ	936
##ഷ്ട്ര	937
പാര്‍	938
##ന്റ്	939
##ഗ്	940
സഹ	941
എന്നിവ	942
##ിച്ച്	943
##ര്യ	944
##ിരിക്ക	945
##ാതെ	946
##മേ	947
##രുമാന	948
ത്തി	949
##ൊരു	950
മന്ത്രി	951
പരാ	952
##ീകരിച്ച	953
##പു	954
ക്ക്	955
##ോള	956
നൽ	957
##പ്പെട	958
നൽക	959
##ങ്ങിയ	960
മെ	961
ഏറ്റ	962
ിരിക്ക	963
##ിയില്‍	964
എസ്	965
##ക്‌	966
ചെയ്ത	967
തിരു	968
യുടെ	969
പരിശ	970
ബിജെപി	971
##ൂർ	972
ജീ	973
##ിലുള്ള	974
വില	975
##തല്‍	976
##ഴ്ച	977
ഇപ്പോ	978
വർ	979
##ഷ്യ	980
നിന്നും	981
കൊണ്ട	982
##ബ്	983
ില്ല	984
സംഭവ	985
മത്സ	986
##യിലെ	987
##ിര	988
വര	989
കോണ്‍ഗ്രസ്	990
##വേഷ	991
##ാറ	992
##ടക്ക	993
മോ	994
##െയാണ്	995
നടത്തിയ	996
കൂടു	997
##ോട	998
കാല	999
##്യത	1000
##പക്ഷ	1001
അപ	1002
##ഡിയ	1003
അതി	1004
##ക്കെ	1005
ചി	1006
യ്	1007
ചേ	1008
##സ്റ്റ്	1009
പ്രവര്‍ത്ത	1010
##ാട്	1011
##ക്ട	1012
##സ്‌	1013
##ുകയ	1014
##േശ	1015
ഉയ	1016
സൂ	1017
കാര്യ	1018
##രണം	1019
##ലം	1020
അന്	1021
കോട	1022
മന	1023
യാ	1024
##ൂടെ	1025
##ാപ	1026
ഗ്ര	1027
സുര	1028
വരെ	1029
പ്രധാന	1030
##പ്പു	1031
##ിക്കും	1032
##ഡിഎ	1033
ഭാഗ	1034
##ിയെ	1035
അത്	1036
പര	1037
തീരുമാന	1038
കഴ	1039
പരിശോധ	1040
പങ്ക	1041
ചെ	1042
ആവശ്യ	1043
##ക്കാര	1044
വിജയ	1045
നേതാക്ക	1046
##ര്‍ന്ന	1047
##ങ്ങളുടെ	1048
##െടുത്ത	1049
##ണ്ഡ	1050
##ാനുള്ള	1051
തോ	1052
##ന്നും	1053
ഇത്ത	1054
##വിടെ	1055
##ങ്ങളില്‍	1056
വേണ്ട	1057
##ാവ്	1058
##ംഗ്	1059
സർക്ക	1060
പേര്‍	1061
നേര	1062
കൈ	1063
കോൺ	1064
ട്ര	1065
##ത്തിലെ	1066
മുഖ്യമന്ത്രി	1067
##ക്രമ	1068
##െങ്കിലും	1069
രണ്ട്	1070
##ദി	1071
നടപ	1072
##ിക്കുന്നത്	1073
),	1074
##ഷേ	1075
##ിലൂടെ	1076
##ത്തു	1077
രണ്ട	1078
##ക്കി	1079
മല	1080
പല	1081
##ഹി	1082
കട	1083
രാഷ്ട്ര	1084
ഇന്ന്	1085
നേതൃ	1086
പുതിയ	1087
അന്വേഷ	1088
യോഗ	1089
ചോദ	1090
..	1091
##ര്‍ച്ച	1092
ക്ര	1093
പേര	1094
##ോള്‍	1095
പോക	1096
നാ	1097
തൊ	1098
പാല	1099
യെ	1100
##ുംബ	1101
ജെ	1102
##യ്ക്ക്	1103
ശേഷം	1104
കി	1105
##ങ്ങളും	1106
സ്‌	1107
ശ്രമ	1108
##ാനം	1109
##ോണ	1110
എന്നാണ്	1111
##ന്തപു	1112
മറ്റ	1113
ചില	1114
നേതൃത്വ	1115
ആശുപ	1116
##ിയും	1117
പറയുന്നു	1118
പോലീസ്	1119
കോൺഗ്ര	1120
വിവ	1121
നല്‍കിയ	1122
മാറ്റ	1123
തിന	1124
തിരുവന	1125
##ബന്ധ	1126
അധിക	1127
തിരുവനന്തപു	1128
##ക്കു	1129
അവസ	1130
##ത്രി	1131
നടന്ന	1132
പാർ	1133
##ാസ	1134
##വണ	1135
നിർ	1136
##ൈന	1137
സ്ഥിര	1138
സൗ	1139
ടി	1140
എല്ലാ	1141
ആണ്	1142
##യോഗ	1143
കണ്ണ	1144
##ാണെന്ന്	1145
##േഖ	1146
##ോട്ട്	1147
##പ്പം	1148
വയ	1149
സ്റ്റ	1150
##സാ	1151
ഉറ	1152
സാഹ	1153
##േയും	1154
ത്തിന	1155
ഏറ്റവും	1156
##കൾ	1157
##ാനും	1158
പ്രഖ	1159
സീറ്റ	1160
അംഗ	1161
##ബി	1162
തിരഞ്ഞെടുപ്പ	1163
ക്കും	1164
##ഭാഗ	1165
കമ്മ	1166
##ീപ	1167
വള	1168
ഗു	1169
മണ്ഡ	1170
##യെ	1171
##ര്‍ശ	1172
##േറ്റ	1173
അഭി	1174
##ഹു	1175
##ികൾ	1176
തിരിച്ച	1177
മറ	1178
ചെയ്തു	1179
കോണ്‍ഗ്രസ	1180
ആരോപ	1181
##ഖല	1182
വോട്ട	1183
##ാരണ	1184
ിക്ക	1185
മണ	1186
##ിക്കാന്‍	1187
##ാസ്	1188
സ്വദേശി	1189
സാഹച	1190
പൊല	1191
##ളം	1192
##ുമെന്ന്	1193
##ദ്യോഗ	1194
തൃ	1195
വകു	1196
##ക്ഷേ	1197
രംഗ	1198
പ്രതിക	1199
അറ	1200
##വര്‍	1201
ദു	1202
റിപ്പോര്‍	1203
ദിവസ	1204
സര്‍ക്കാര്‍	1205
ഉത്ത	1206
ിരുന്നു	1207
##കര	1208
##ീഷ	1209
##െയും	1210
മേഖല	1211
##വേ	1212
##ാര്‍ത്ഥ	1213
തല	1214
കുട	1215
##ോഗ്യ	1216
##ാശ	1217
##ങ്ങനെ	1218
ഡോ	1219
##െതിരെ	1220
എത്ത	1221
19	1222
കൊവിഡ്	1223
ശതമ	1224
ദിവസം	1225
##ുകയായിരുന്നു	1226
പ്രഖ്യാപ	1227
##ക്തി	1228
പദ്ധ	1229
സിപി	1230
##മെ	1231
കണ്ടെ	1232
ആയ	1233
##സ്ത	1234
ചിത്ര	1235
##എം	1236
##റു	1237
രാഷ്ട്രീയ	1238
##ടന	1239
പിട	1240
##ഷം	1241
##തൽ	1242
നോ	1243
എന്ത	1244
കൂട്ട	1245
വിവാ	1246
എന്നും	1247
വീട്ട	1248
സാധ്യത	1249
നേരത്തെ	1250
201	1251
യില്‍	1252
കോവിഡ്	1253
തിരുവനന്തപുരം	1254
##ദ്ദേശ	1255
##കെ	1256
നിലവ	1257
##ങ്ങളെ	1258
##രുന്നത്	1259
##സ്സ	1260
##മുള്ള	1261
അനു	1262
##േക്ഷ	1263
നേരി	1264
രാഹു	1265
ജയ	1266
##തം	1267
##ങ്ങി	1268
ജില്ലാ	1269
എന്നാൽ	1270
ബോ	1271
പ്രവർത്ത	1272
സമ്പ	1273
കുമ	1274
റോ	1275
##ാണെന്നും	1276
പിന്	1277
##ളള	1278
ശക്തമ	1279
##ാരം	1280
വിഭാഗ	1281
വിഷ	1282
##എസ്	1283
10	1284
സമ്മ	1285
##ീകരിക്ക	1286
പ്രസി	1287
ുണ്ട	1288
##ഞ്ച്	1289
##ന്നു	1290
##േന്ദ്ര	1291
##യാള	1292
പ്രച	1293
കുടുംബ	1294
ഓഫ	1295
ചെയ്തി	1296
##ൂര	1297
വിദ	1298
എത്തിയ	1299
യുവ	1300
##തല	1301
##താണ്	1302
##ബു	1303
##ുമായ	1304
ല്‍	1305
##േരി	1306
നാല	1307
പ്രശ്	1308
##ുകൊ	1309
##േഷ്	1310
ഒഴ	1311
##േക്ക്	1312
ആരോഗ്യ	1313
ബിജെപ	1314
##ടുക്ക	1315
മീ	1316
മുന്‍	1317
തയ	1318
യാത്ര	1319
കൂടി	1320
##മന്ത്രി	1321
സ്ഥിരീകരിച്ച	1322
ജി	1323
മൊ	1324
ഹൈ	1325
##ിക്കുക	1326
മണ്ഡല	1327
##െങ്കില്‍	1328
താ	1329
വിമ	1330
##രിയ	1331
പഞ്ച	1332
##ിട	1333
ആള	1334
##ലെ	1335
പ്രത്യ	1336
##സഭാ	1337
ഗാ	1338
ഇല്ല	1339
##ായിരുന്ന	1340
എന്‍	1341
##െയ്	1342
##രിച്ച്	1343
ഭൂ	1344
കഴിയ	1345
മി	1346
ആദ	1347
പാ	1348
##രിക്കും	1349
##വിധ	1350
##ീം	1351
കൃ	1352
##ക്ത	1353
##ാഴ്ച	1354
സ്ഥാപ	1355
പിന്തു	1356
##ൊപ്പം	1357
മൂന്ന്	1358
കൊണ്ട്	1359
ഇറ	1360
##ല്ലാം	1361
സെക്ര	1362
ഉള്ള	1363
കൂടുതല്‍	1364
സെക്രട്ട	1365
ഉപയോഗ	1366
##ുമാണ്	1367
##ട്ര	1368
##ിച്ചിരുന്നു	1369
##ൃത	1370
അയ	1371
വിശ	1372
##ഷേധ	1373
പ്രസിഡ	1374
ഉദ്യോഗ	1375
കരു	1376
അടുത്ത	1377
##നും	1378
##കര്‍	1379
തുടങ്ങിയ	1380
##ള്ളി	1381
##ംബ	1382
ഭരണ	1383
തൊഴ	1384
ഒന്ന	1385
##ർച്ച	1386
കണ	1387
അടി	1388
##വാസ	1389
##തീക്ഷ	1390
രോഗം	1391
##ധ്യമ	1392
യൂ	1393
സിനി	1394
നെ	1395
തയ്യാ	1396
സര്‍	1397
##താ	1398
സോ	1399
##കം	1400
ഗാന്ധ	1401
ആര്‍	1402
താണ്	1403
##ിരിക്കുന്നത്	1404
പിന്നാല	1405
ചെയ്യുന്ന	1406
ടെ	1407
സാഹചര്യ	1408
##ങ്ങളിൽ	1409
തിരഞ്ഞെടുപ്പ്	1410
പോലും	1411
##ൂല	1412
##ര്‍ന്ന്	1413
##ുമെന്നും	1414
അറിയിച്ചു	1415
തട	1416
ആല	1417
##ോൾ	1418
##രംഭ	1419
വ്യക്തമാക്കി	1420
മോദ	1421
ബാധ	1422
പൂ	1423
മഹ	1424
ഉള്‍	1425
കൊല്ല	1426
പരിശോധന	1427
##ചന	1428
പ്രക	1429
വും	1430
##ച്ചു	1431
##്യക്ഷ	1432
ചിക	1433
കോടി	1434
##ച്ചി	1435
##ുള്ളത്	1436
##ത്തിലാണ്	1437
202	1438
എല്‍	1439
ആയി	1440
സർക്കാർ	1441
പറയുന്നത്	1442
##ൂഹ	1443
ആദ്യ	1444
കയ	1445
ഇവിടെ	1446
ച്	1447
##പ്പെടുത്തിയ	1448
കോഴ	1449
അട	1450
പിന്തുണ	1451
സമയ	1452
##നിക്ക്	1453
നീക്ക	1454
കോടതി	1455
##‌ന	1456
##ത്തിന	1457
ഫോ	1458
##ർശ	1459
കോള	1460
##ക്ഷി	1461
##ട്ടു	1462
12	1463
##ാള്‍	1464
പുറത്ത	1465
റെ	1466
പ്രതിപക്ഷ	1467
ുവ	1468
കൂട	1469
ട്ട	1470
##കൂ	1471
മാധ്യമ	1472
##ശ്ച	1473
വരു	1474
##ഴ്‌	1475
പാര്‍ട്ടി	1476
##ട്ടിയ	1477
സ്ത്ര	1478
##ർന്ന	1479
റ്	1480
##റിച്ച്	1481
പൊലീസ്	1482
ചികി	1483
##തിര	1484
പോയ	1485
സംബന്ധ	1486
11	1487
തയ്യാറ	1488
15	1489
##ുകളും	1490
സാമ്പ	1491
##യുള്ള	1492
റി	1493
##ാനാണ്	1494
മുണ്ട	1495
യുഡിഎ	1496
ചികിത്സ	1497
കോൺഗ്രസ്	1498
വിള	1499
പരാതി	1500
##ശ്വ	1501
നമ്മ	1502
ചര്‍ച്ച	1503
റിപ്പോർ	1504
മുതല്‍	1505
ഭാര	1506
യായിരുന്നു	1507
##പെ	1508
##ദ്ദ	1509
പ്രത്യേ	1510
കല	1511
ദേശ	1512
പട്ട	1513
##ൊക്കെ	1514
##പ്പി	1515
കുറ്റ	1516
ആക്രമ	1517
വാര്‍	1518
##ണമെന്ന്	1519
നിലപ	1520
...	1521
##ാകും	1522
ഇപ്പോള്‍	1523
പ്രതീക്ഷ	1524
അവര്‍	1525
കോഴിക്ക	1526
##സിന	1527
##ഞ്ഞ്	1528
തുറ	1529
പ്രദേശ	1530
വിമാന	1531
ഇതുവ	1532
അവസാന	1533
ഇതി	1534
കുട്ട	1535
ാണ്	1536
അധ്യക്ഷ	1537
മാണ്	1538
##ാധ	1539
##ഷ്ണ	1540
കാരണം	1541
വ്യാപ	1542
ലീ	1543
##പ്പെടെ	1544
പദ്ധതി	1545
ആരംഭ	1546
വേണ്ടി	1547
മാന	1548
ഇതിന	1549
##ന്തര	1550
മറ്റ്	1551
തേ	1552
മണിക്ക	1553
പ്രതിഷേധ	1554
മുമ്പ	1555
##സ്പ	1556
##പ്പിച്ച	1557
##ോഷ	1558
വീണ്ട	1559
##േഷന്‍	1560
##ിക്കുന്നു	1561
ആശുപത്ര	1562
##ാണി	1563
രീ	1564
മാത്രം	1565
ഉദ്യോഗസ്ഥ	1566
ചൂ	1567
മുൻ	1568
ബു	1569
ജീവി	1570
നടക്ക	1571
##തിയില്‍	1572
##ുകളില്‍	1573
##ങ്ങള്‍ക്ക്	1574
വിദ്യാ	1575
നഗ	1576
##കാശ	1577
ക്കു	1578
##ന്യ	1579
ഇരു	1580
##ികളെ	1581
##ികളുടെ	1582
തന്റെ	1583
ലോക	1584
##ിയിൽ	1585
##ഗണ	1586
നൽകിയ	1587
യിൽ	1588
നേതാക്കള	1589
ഉത്തര	1590
##ണറ	1591
സിനിമ	1592
കര്‍	1593
മരണ	1594
എംഎ	1595
അടക്ക	1596
ഒരാ	1597
##ിക്കാ	1598
##ായത്	1599
##ഴും	1600
അതിന	1601
##രിക്കുന്ന	1602
ഒഴിവ	1603
ഇതോടെ	1604
##ൂറ	1605
ും	1606
##ിക്കാൻ	1607
ശതമാനം	1608
യോ	1609
വഴി	1610
കമ്പ	1611
ിട്ടുണ്ട്	1612
##നു	1613
റിപ്പോര്‍ട്ട്	1614
കോഴിക്കോട്	1615
ജോലി	1616
##ജീ	1617
അനുവ	1618
ഓഫീസ	1619
##തായി	1620
പ്രധാനമന്ത്രി	1621
കോട്ട	1622
ലെ	1623
രാശ	1624
##ാലി	1625
പിന്നീ	1626
ലഭിച്ച	1627
മായി	1628
സേ	1629
ന്യൂ	1630
വീണ്ടും	1631
സമീപ	1632
##യ്ക്ക	1633
പ്രത്യേക	1634
പൂര്‍	1635
##വധി	1636
ലക്ഷം	1637
ച്ച	1638
ഇതുവരെ	1639
##തോടെ	1640
നേതാവ്	1641
ഉന്ന	1642
##ാദ	1643
ഇക്കാര	1644
##ഡിയോ	1645
രേഖ	1646
##ഴു	1647
മരിച്ച	1648
നിന്നുള്ള	1649
അപേക്ഷ	1650
കള്‍	1651
ദേശീയ	1652
##നായ	1653
ദില്ല	1654
##ഷക	1655
വൈറ	1656
##ർക്ക്	1657
ക്ല	1658
ശ്രീ	1659
നിരീക്ഷ	1660
തിന്	1661
സെക്രട്ടറി	1662
##രോ	1663
##പ്പെട്ടു	1664
ലി	1665
ഇവര്‍	1666
##ിതി	1667
##ോളം	1668
കിട്ട	1669
ഇന്ന	1670
നിരവധി	1671
##ലും	1672
##ിപ്പ്	1673
വിവിധ	1674
ിരുന്ന	1675
നല്ല	1676
##ാനി	1677
വിവര	1678
സർ	1679
##ുമെന്ന	1680
വിഷയ	1681
ഉട	1682
ഇത്തവണ	1683
അല്ല	1684
നഷ്ട	1685
##കാരം	1686
യിലെ	1687
ായ	1688
##നിയ	1689
ശ്രദ്ധ	1690
ബ്ര	1691
##ട്ടം	1692
മെഡ	1693
30	1694
##ൻ്	1695
മിക	1696
യ്ക്ക്	1697
സംസ്ഥാനത്ത്	1698
ഉറപ്പ	1699
തര	1700
സംസാ	1701
നടപടി	1702
സഖ	1703
ക്യാ	1704
##പ്പെട്ട്	1705
വര്‍ഷ	1706
##മാര	1707
##പ്പെടുന്ന	1708
അനുവദ	1709
##ക്കിയ	1710
തും	1711
##നാട്	1712
##േജ	1713
ഉൾ	1714
24	1715
വളരെ	1716
ഞാന്‍	1717
##േക്ക	1718
ല്ല	1719
വരുന്ന	1720
മുസ്	1721
##വിട	1722
വെള്ള	1723
##്വ	1724
##ത്തിക	1725
പിന്നാലെ	1726
ഇനി	1727
##പര	1728
വകുപ്പ്	1729
ജില്ലയില്‍	1730
പിന്നീട്	1731
മാര	1732
14	1733
##ുമെന്നാണ്	1734
വാഹ	1735
ഗോ	1736
എന്നി	1737
##ദം	1738
##ത്തില	1739
മാത്രമാണ്	1740
##മുഖ	1741
ത്തിന്റെ	1742
പഠ	1743
പിണറ	1744
മെഡിക്ക	1745
##ണമെന്നും	1746
ഹൈക്ക	1747
പഞ്ചായ	1748
വരും	1749
##റും	1750
സ്വന്ത	1751
നില്‍	1752
തെള	1753
പ്രവേശ	1754
##ായം	1755
താര	1756
##ണമെന്ന	1757
ഇതിന്	1758
##ിയായ	1759
സര്‍ക്കാരി	1760
മാര്‍	1761
അന്വേഷണ	1762
##ഷണ	1763
മാസ	1764
മഴ	1765
##രോധ	1766
സ്ഥാപന	1767
പൊതു	1768
##ന്‍റെ	1769
മലയാള	1770
തുടര്‍ന്ന്	1771
##പ്പെടുത്തി	1772
##ത്തും	1773
കമ്മി	1774
ന്‍	1775
സൈ	1776
കേസ്	1777
മോദി	1778
##ദു	1779
13	1780
വിക	1781
##ുകൊണ്ട്	1782
തൊഴില	1783
കണക്ക	1784
##ായക	1785
ലൈ	1786
ആശുപത്രി	1787
വീട	1788
##ക്യ	1789
മായ	1790
##ധ്യ	1791
##മല്ല	1792
##ാക്കുന്ന	1793
ചൂണ്ട	1794
പിണറായി	1795
ിട്ടില്ല	1796
വിദേശ	1797
ണ്ട	1798
##ത്മ	1799
##്യമായ	1800
25	1801
അവരുടെ	1802
നേതാവ	1803
സാമ്പത്തിക	1804
വൈക	1805
കൂടിയ	1806
##ടുവ	1807
വിശദ	1808
##ാർത്ഥ	1809
സംഘടന	1810
എഫ്	1811
തക	1812
രാഹുല്‍	1813
മൂന്ന	1814
ചോദ്യം	1815
##ശ്യ	1816
##ത്തിലുള്ള	1817
ചെയ്തത്	1818
##ിയിലെ	1819
18	1820
മന്ത്ര	1821
##ാലും	1822
##നിടെ	1823
സ്ഥല	1824
എല്ലാവ	1825
##ധിക	1826
വീഡിയോ	1827
സിപിഎം	1828
പാർട്ടി	1829
ആർ	1830
##കട	1831
##ദേശം	1832
നാട്ട	1833
അടിസ്ഥാന	1834
##ാണ്ട	1835
##െങ്കിൽ	1836
##ുമ്പോള്‍	1837
##വർ	1838
##േറ്റ്	1839
നയ	1840
കൊറ	1841
പരിഹ	1842
െന്ന	1843
അമേ	1844
പറഞ്ഞത്	1845
ചോ	1846
സന്ദ	1847
പാര്‍ട്ട	1848
ശക്തമായ	1849
പോലീസ	1850
രക്ഷ	1851
##ന്നി	1852
##ക്ടര്‍	1853
നഗര	1854
##െല്ലാം	1855
##ീന	1856
##പ്പോള്‍	1857
മികച്ച	1858
കൊറോണ	1859
##േസ്	1860
##ാടക	1861
##െടുക്ക	1862
നാല്	1863
ര്‍	1864
##ങ്കിലും	1865
##റം	1866
##ര്‍ക്കും	1867
##ജു	1868
പരിപ	1869
ത്തിന്	1870
ചുമ	1871
അഞ്ച്	1872
##കാര്യ	1873
ുണ്ട്	1874
മുതൽ	1875
ഗാന്ധി	1876
##ണ്ണം	1877
പരിഗണ	1878
##ഷന്‍	1879
ദേ	1880
##തെന്ന്	1881
##തര	1882
ജീവന	1883
##യോ	1884
##പ്പുഴ	1885
മറുപ	1886
നടപ്പ	1887
##ണാക	1888
ജില്ലകള	1889
എന്റെ	1890
പ്ല	1891
##ഞ്ഞു	1892
##ഗ്രഹ	1893
പണം	1894
ചൈന	1895
##ങ്ങന	1896
കൊല	1897
പക	1898
തിര	1899
ചെന്ന	1900
വിവരം	1901
##ുമതി	1902
##തീ	1903
വിവാഹ	1904
എൻ	1905
പക്ഷേ	1906
കര	1907
കൾ	1908
ബാല	1909
തവണ	1910
ഞാൻ	1911
##ിച്ചിട്ടുണ്ട്	1912
പുറത്ത്	1913
അമ്മ	1914
##ഷി	1915
തന്നെയാണ്	1916
തെരഞ്ഞെടു	1917
വ്യാ	1918
അമേരിക്ക	1919
##രുത്ത	1920
നേടിയ	1921
രാവ	1922
സമയം	1923
##രിപ്പ	1924
##ാരാ	1925
തമ്മ	1926
പത്ത	1927
ജാ	1928
ഷാ	1929
ിരിക്കുകയാണ്	1930
സ്വദേശിനി	1931
##ശ്വാസ	1932
##രിൽ	1933
##വുമായി	1934
##ക്കാട്	1935
ഗ്രൂ	1936
##ക്ഷേപ	1937
##ർന്ന്	1938
വാക്‌	1939
##ുളള	1940
ായിരുന്നു	1941
ശിവ	1942
തീരുമാനം	1943
##തെന്നും	1944
##മാര്‍	1945
പ്രസിഡന്റ്	1946
##ർത്ഥ	1947
ത്തെ	1948
##ീപ്	1949
പട്ടിക	1950
##റില്‍	1951
##ൻ്റെ	1952
16	1953
ഓരോ	1954
ിട്ടുണ്ട	1955
##ീവ്	1956
നേതാക്കള്‍	1957
യില	1958
##്‌	1959
##ശ്ശ	1960
സ്ഥാനാര്‍ത്ഥ	1961
സുപ്ര	1962
നടപട	1963
##തിയെ	1964
എറ	1965
അപകട	1966
##രിക	1967
കൂടുതൽ	1968
##സര്‍	1969
നടക്കുന്ന	1970
##തിയുടെ	1971
പ്രാ	1972
ദില	1973
സീറ്റ്	1974
##റോ	1975
##വ്വ	1976
##ണാകു	1977
എറണാകു	1978
##ടങ്ങ	1979
നിയന്ത്ര	1980
##ഹമ്മ	1981
17	1982
തായി	1983
കണ്ണൂര്‍	1984
ബെ	1985
വിധ	1986
മീഡിയ	1987
##ിരുന്ന	1988
തൃശ	1989
കമ	1990
അഭിപ്ര	1991
##ന്‍സ്	1992
നടത്തുന്ന	1993
പൂർ	1994
##ഭാ	1995
##ങ്ങളാണ്	1996
ഇടപെ	1997
വിദ്യ	1998
ക്കാന	1999
പേര്‍ക്ക്	2000
സോഷ്യ	2001
കീ	2002
##യായ	2003
##േണ്ടി	2004
സുരക്ഷ	2005
സ്വര്‍	2006
##ിനെതിരെ	2007
വ്യക്തി	2008
ജീവിത	2009
വോട്ട്	2010
##ത്തോടെ	2011
##ിട്ടില്ല	2012
നും	2013
സുധ	2014
##മെന്റ്	2015
കളും	2016
പ്പെ	2017
##ങ്ങൾക്ക്	2018
പ്രിയ	2019
##തും	2020
റിപ്പോർട്ട്	2021
നേരിട	2022
##ുകളുടെ	2023
പോലെ	2024
മുഖ്യമന്ത്ര	2025
വകുപ്പ	2026
##രന്‍	2027
##െയുള്ള	2028
##ദ്ര	2029
താമ	2030
ജില്ലയിലെ	2031
സ്പ	2032
##ാടി	2033
നിയമസഭാ	2034
പരീക്ഷ	2035
അവകാശ	2036
തോടെ	2037
എടുത്ത	2038
ജനറ	2039
50	2040
ബന്ധപ്പെട്ട	2041
അന്വേഷണം	2042
സ്വീകരിക്ക	2043
##ിരിക്കുകയാണ്	2044
##നില്‍	2045
ത്തില്‍	2046
എംഎല്‍	2047
നര	2048
വിലയി	2049
ഏക	2050
ാണ	2051
ജൂ	2052
മണിക്കൂറ	2053
ിരിക്കുന്നത്	2054
തിരഞ്ഞെടുപ്പില്‍	2055
ആയിരുന്നു	2056
യുണ്ട	2057
പറയുന്ന	2058
പ്രശ്‌ന	2059
##ൊന്നും	2060
കണ്ടെത്തിയ	2061
സൂചന	2062
##ില്ലെന്ന്	2063
യുഎ	2064
ന്റെ	2065
ില	2066
ഹാ	2067
കർ	2068
രാവിലെ	2069
##്യമായി	2070
ചർച്ച	2071
നേതൃത്വം	2072
##ത്തേക്ക്	2073
##രിക്കുന്നത്	2074
എണ്ണം	2075
##ട്ടുണ്ട്	2076
##ിപ്പിച്ച	2077
പ്രതിരോധ	2078
മറ്റൊരു	2079
##ുതി	2080
##മായും	2081
##പോ	2082
##രിച്ചു	2083
എംഎല്‍എ	2084
എന്നീ	2085
വാഹന	2086
ത്തില	2087
##പ്പറ	2088
മത	2089
നടത്തി	2090
##്യമാണ്	2091
വാക്	2092
ഒറ്റ	2093
##ഖ്	2094
തെന്നും	2095
മുഴ	2096
കണ്ടെത്ത	2097
ഹൈക്കോട	2098
അവിടെ	2099
ദില്ലി	2100
ഘട്ട	2101
##ാധി	2102
##ാവും	2103
വഴ	2104
വാർ	2105
ഇങ്ങനെ	2106
##ാൾ	2107
യാണ	2108
##യ്യ	2109
പുര	2110
പശ്ച	2111
##ഹൃ	2112
ബിഗ്	2113
ഫേസ്	2114
പ്രവര്‍ത്തന	2115
##ജന്‍	2116
നിരീക്ഷണ	2117
##തിക	2118
##സന്ധ	2119
##ുകളാണ്	2120
##സിസി	2121
വിമര്‍ശ	2122
22	2123
അല	2124
എനിക്ക്	2125
##സിന്റെ	2126
വർഷ	2127
കാര്‍	2128
തെന്ന്	2129
##കളും	2130
##ികളും	2131
##യിലാണ്	2132
ആലപ്പുഴ	2133
കാര്യം	2134
##ിയാണ്	2135
##ിക്കുകയും	2136
ക്കുന്ന	2137
സുരേന്ദ്ര	2138
##വിധാന	2139
നല്‍കി	2140
സാമ	2141
എൽ	2142
യുള്ള	2143
അതിന്	2144
സംവിധാന	2145
മുമ്പ്	2146
ഏറെ	2147
പീ	2148
##ിച്ചേ	2149
##ിനും	2150
##ാവന	2151
എതി	2152
വ്യക്തമാക്കിയ	2153
##ജന	2154
ആകെ	2155
##ുകൂല	2156
ചെല	2157
രണ്ടാം	2158
ഇപ്പോൾ	2159
അവർ	2160
സിംഗ്	2161
##ൂട്ട	2162
##ത്തിലും	2163
21	2164
വര്‍ധ	2165
##ൗര	2166
വികസ	2167
ഫേസ്ബു	2168
##ുമോ	2169
മക	2170
##ാരാഷ്ട്ര	2171
റിയ	2172
എത്ര	2173
##ഭ്യാ	2174
വാര്‍ത്ത	2175
സന്ത	2176
നിയമസഭ	2177
ഭക്ഷ	2178
##േഷൻ	2179
നവ	2180
താന്‍	2181
##ക്കള	2182
നിലവില്‍	2183
വര്‍ഷം	2184
##ീല	2185
യി	2186
രജി	2187
കോട്ടയം	2188
##ായും	2189
വിവാദ	2190
മാത്രമല്ല	2191
##രുദ്ധ	2192
അറസ്റ്റ്	2193
വെച്ച	2194
##േയ	2195
##മോ	2196
##സിന്	2197
ലാ	2198
പക്ഷ	2199
കമ്മീഷ	2200
ഇന്‍	2201
മത്സര	2202
ബംഗ	2203
##േജ്	2204
തമി	2205
##സില	2206
പരാജ	2207
രംഗത്തെ	2208
റിപ്പോര്‍ട്ട	2209
ദിന	2210
ഗുരു	2211
ശതമാന	2212
ഇത്തര	2213
23	2214
##ുകളിൽ	2215
ഇത്തരം	2216
മറുപടി	2217
##ോമ	2218
അധികാര	2219
ങ്ങള്‍	2220
##റാ	2221
##ില്ലെന്നും	2222
ജീവ	2223
##യായി	2224
##ങ്ക്	2225
ആദ്യം	2226
പ്രതിസന്ധ	2227
സർക്കാരി	2228
മാസം	2229
ആശങ്ക	2230
സംഭവം	2231
കുറിച്ച്	2232
ബൈ	2233
##ബ്ര	2234
##േള	2235
വാങ്ങ	2236
##യില	2237
മനസ്സ	2238
തൊഴിലാള	2239
ആണ	2240
ഏത	2241
##ുവന്ന	2242
ഗ്രാമ	2243
പാലക്കാട്	2244
യുഡിഎഫ്	2245
##സൈ	2246
ചു	2247
##െയി	2248
കേരളത്തില്‍	2249
##ിത്ത	2250
##ാവസ്ഥ	2251
ക്കെതിരെ	2252
##്ട്ര	2253
ക്ഷേ	2254
##തിയിൽ	2255
എറണാകുളം	2256
##ീമ	2257
ഉമ്മ	2258
##ിക്കറ്റ്	2259
സംശ	2260
പോരാ	2261
##ഹമ്മദ്	2262
##പ്പുറം	2263
നരേന്ദ്ര	2264
40	2265
##രീ	2266
ഇന്ത്യന്‍	2267
സ്ത്രീക	2268
##ുകാര	2269
ഡെ	2270
കൊച്ചി	2271
യായി	2272
ഭാ	2273
കാരണ	2274
ിന	2275
അക	2276
മനു	2277
എണ്ണ	2278
കാര്യങ്ങള്‍	2279
സമൂഹ	2280
ശി	2281
സംബന്ധിച്ച്	2282
ആത്മ	2283
##ര്‍ത്തി	2284
രംഗത്ത്	2285
##വെ	2286
##ായ്	2287
രാജ്യത്ത്	2288
##സില്‍	2289
##പ്പള്ളി	2290
നാള	2291
##വല	2292
##ബര്‍	2293
ഡ്ര	2294
##ിത	2295
പുന	2296
കളുടെ	2297
ഭാഗമായി	2298
െന്ന്	2299
ഉണ്ടായി	2300
##രക്ഷ	2301
ഉണ്ടാക	2302
ഇതില്‍	2303
തോമ	2304
കൊല്ലം	2305
പേരാണ്	2306
സുധാക	2307
കൗ	2308
പങ്കെടുത്ത	2309
ഭാര്യ	2310
പേർ	2311
ഭൂരി	2312
ചെയ്യാ	2313
നിലപാട്	2314
റ്റ	2315
പുതു	2316
വ്യക്തമാക്ക	2317
നേട്ട	2318
കേസില്‍	2319
അന്ന്	2320
##ങ്ങളിലും	2321
##നാഥ	2322
##ധികം	2323
ക്കാര	2324
ആഗ്രഹ	2325
െന്നും	2326
##ിക്കണം	2327
##ത്തിലേക്ക്	2328
സ്വകാര്യ	2329
പ്പോ	2330
##ടുത്ത്	2331
മെഡിക്കല്‍	2332
##ാവുന്ന	2333
##മുണ്ട	2334
യുഡിഎഫ	2335
വിത	2336
പറഞ്ഞിരുന്നു	2337
സുപ്രീം	2338
##പ്രദേശ	2339
വിലയിരുത്ത	2340
##ടം	2341
ഫി	2342
വിട്ട	2343
##ത്രം	2344
ഫെ	2345
##രാണ്	2346
##സു	2347
സമര	2348
അഞ്ച	2349
##ക്കാല	2350
സംഘം	2351
വിദ്യാഭ്യാ	2352
അന്ത	2353
യുമായി	2354
മോഹ	2355
നീക്കം	2356
##ക്കം	2357
ത്തിൽ	2358
പ്രകാരം	2359
##കളെ	2360
മില്ല	2361
ചെയ്തിരുന്നു	2362
കൃത്യ	2363
പത്തനം	2364
ജോസ	2365
ഇയ	2366
വനി	2367
##ര്‍മ	2368
##തിട്ട	2369
##േദ	2370
ലഭിക്ക	2371
സാധിക്ക	2372
തദ്ദേശ	2373
പത്തനംതിട്ട	2374
##പ്പെട്ടി	2375
##ിപ്പി	2376
ഉയര്‍ന്ന	2377
##ക്കാര്‍	2378
##ണാടക	2379
മാറ	2380
സമയത്ത്	2381
ബന്ധപ്പെട്ട്	2382
##േന	2383
ധന	2384
കൂടാതെ	2385
തട്ട	2386
കുറഞ്ഞ	2387
പരാജയ	2388
ഷോ	2389
മുഴുവ	2390
നമ്മുടെ	2391
കേരളത്തിലെ	2392
മാണ	2393
ശക്തി	2394
##ുമ്പോൾ	2395
##യിലേക്ക്	2396
പങ്കുവ	2397
കന	2398
സ്വീകരിച്ച	2399
##കളുടെ	2400
ജോര്‍	2401
മാറ്റി	2402
##ട്ടെ	2403
ഉന്നയ	2404
അഭിപ്രായ	2405
നിയന്ത്രണ	2406
റഷ്യ	2407
മാർ	2408
അതുകൊണ്ട്	2409
##ലു	2410
##സോ	2411
അദ്ദേഹത്തിന്റെ	2412
##000	2413
അധികൃത	2414
##ാറ്റ	2415
ആരോപണ	2416
പദ	2417
##ാര്‍ഥ	2418
##ുണ്ടായ	2419
പറ്റ	2420
26	2421
പൊലീസ	2422
##ംപ	2423
ആവശ്യം	2424
28	2425
ഫലം	2426
വിട	2427
ഇക്കാര്യം	2428
##പാത	2429
സുരേഷ്	2430
മനുഷ്യ	2431
അക്ക	2432
പുറത്തു	2433
##ജ്ഞ	2434
200	2435
സ്വന്തം	2436
തെളിവ	2437
നില്‍ക്ക	2438
ദൃ	2439
##വം	2440
ചൂണ്ടിക്കാ	2441
പ്രവര്‍ത്തക	2442
##മായിരുന്നു	2443
ഡയ	2444
സത്യ	2445
പ്രസ	2446
അമി	2447
ജല	2448
##ടേയും	2449
##ാഹ	2450
പോയി	2451
ആഭ	2452
എത്തി	2453
പോസ്റ്റ	2454
ഇര	2455
ഇത്ര	2456
ഭീഷ	2457
താമസ	2458
ഹെ	2459
##ദ്ധി	2460
നായ	2461
##യര്‍	2462
രു	2463
ശു	2464
ചെയ്ത്	2465
27	2466
കൂട്ടിച്ചേ	2467
നിൽ	2468
സഖ്യ	2469
സ്വപ്	2470
കടുത്ത	2471
സാധാരണ	2472
##ത്തിറ	2473
ഇടപെട	2474
അഖ	2475
തിന്റെ	2476
ഫ്ര	2477
##നാണ്	2478
വിശ്വ	2479
സ്ഥാനാർത്ഥ	2480
ദുര	2481
സമ്പർക്ക	2482
ചരി	2483
##ഷ്‌	2484
മാത്രമേ	2485
യ്ക്ക	2486
നമ്പ	2487
വന്‍	2488
അനുകൂല	2489
പ്രവർത്തക	2490
ചെയ്യുന്നത്	2491
േക്ക	2492
##സ്റ്റി	2493
ാല്‍	2494
##പരി	2495
സ്ത്രീ	2496
ചുമതല	2497
##റിഞ്ഞ	2498
മണി	2499
ങ്ങൾ	2500
##ിനിടെ	2501
സ്‌കൂ	2502
##ുകൊണ്ട	2503
വികസന	2504
##ിമ	2505
താഴ	2506
വെച്ച്	2507
കുഞ്ഞ	2508
അനുമതി	2509
വസ്	2510
ഓഫ്	2511
##ീകരണ	2512
കരുത	2513
ബ്ല	2514
##സിന്‍	2515
ആറ്	2516
##കുമ	2517
പ്രൊ	2518
##ണ്‍കു	2519
അനുഭവ	2520
പൈ	2521
തനിക്ക്	2522
##ണു	2523
##ിലായി	2524
നിറ	2525
നേട	2526
##ാന്	2527
##പ്പെട്ടത്	2528
ങ്ങളും	2529
കീഴ	2530
എന്നത്	2531
000	2532
കസ്റ്റ	2533
മലപ്പുറം	2534
ബോധ	2535
പേരും	2536
പ്രതികരണം	2537
യിലും	2538
ആന	2539
##ിലേക്ക	2540
രാജ്യത്തെ	2541
ഉണ്ട്	2542
എഴു	2543
##െതിര	2544
##ഴ്ച്ച	2545
മുന്നറിയ	2546
ഫല	2547
രാശിക്ക	2548
മുംബ	2549
##ൃഷ്ട	2550
##ർക്കും	2551
##ജീവ	2552
സുഹൃ	2553
അടക്കം	2554
വ്യവ	2555
യുഎഇ	2556
സഹായി	2557
സര്‍വ	2558
സാമൂഹ	2559
ചൊ	2560
##മെന്ന്	2561
##ീര്‍	2562
##ച്ഛ	2563
ഉണ്ടായ	2564
ലഭിക്കും	2565
##ിരിക്കുന്ന	2566
വിമർശ	2567
പണ	2568
െങ്കിലും	2569
##യിലും	2570
സാഹചര്യത്തില്‍	2571
മാക	2572
കളില്‍	2573
നല്‍കുന്ന	2574
മുംബൈ	2575
ഹിന്	2576
##രുക	2577
തോന്ന	2578
കൈമാ	2579
മുസ്ലി	2580
കമ്മിറ്റി	2581
##െത്തിയ	2582
രണ്ടു	2583
##സർ	2584
ചന്ദ്ര	2585
കേരളം	2586
പതി	2587
##ര്യം	2588
സോഷ്യല്‍	2589
വിഭാഗം	2590
##ാതി	2591
വിജയം	2592
ആരാ	2593
രാമ	2594
വേഗ	2595
##ുവരി	2596
##ടുക്കി	2597
ഇൻ	2598
##ിക്കറ്റ	2599
തുടർന്ന്	2600
നിര്‍ദേശ	2601
കോടിയ	2602
എല്‍ഡിഎ	2603
ആശുപത്രിയില്‍	2604
തിനെ	2605
സഹോദ	2606
പേര്	2607
അര്‍	2608
##ോഭ	2609
പ്രഖ്യാപിച്ച	2610
മുഹമ്മദ്	2611
മുന്നോട്ട്	2612
ചെറിയ	2613
പോകുന്ന	2614
സാധ്യതയ	2615
കുമാര്‍	2616
നിലപാട	2617
പരാമ	2618
അമ	2619
നാണ്	2620
അങ്ങനെ	2621
ജാമ	2622
##കരണ	2623
##കോ	2624
ചേര്‍ന്ന	2625
ഉള്‍പ്പെടെ	2626
മല്ല	2627
##കളില്‍	2628
##ക്കോ	2629
രാത്രി	2630
രൂക്ഷ	2631
റെയ	2632
##എമ്മ	2633
##ങ്ങളിലെ	2634
##ടിപ്പ	2635
വെളി	2636
##ക്ടർ	2637
ഭൂരിപക്ഷ	2638
തെറ്റ	2639
ഇടതു	2640
##ാബ	2641
മുതി	2642
വിദ്യാഭ്യാസ	2643
എംപി	2644
എടുക്ക	2645
##രിക്കാന്‍	2646
##കാല	2647
സംസ്ഥാനത്തെ	2648
35	2649
പുല	2650
##തമായ	2651
സംരക്ഷ	2652
ആക	2653
##ലാ	2654
##ളവ	2655
ന്ന	2656
##ഫി	2657
പ്രസ്ത	2658
##ഷൻ	2659
##ിക്കേണ്ട	2660
അഭിന	2661
പശ്ചാത്ത	2662
##ഗോ	2663
##ാക്കാന്‍	2664
##സിൽ	2665
കില	2666
##സ്ര	2667
##ജ്ജ	2668
ബിജെപിയുടെ	2669
ഇക്കാര്യ	2670
പ്രോ	2671
##ളെ	2672
##ർത്തി	2673
മാണി	2674
ഇന്നലെ	2675
അടിയ	2676
##ിനു	2677
നടത്തിയത്	2678
പിടിച്ച	2679
കാർ	2680
##ലിന്	2681
##തൃ	2682
ഒരിക്ക	2683
സംബന്ധിച്ച	2684
##തില്‍	2685
##െച്ച	2686
സൃഷ്ട	2687
31	2688
വിന	2689
പെരു	2690
##പ്റ്റ	2691
എക്‌	2692
നിക	2693
ഉൾപ്പെടെ	2694
മായിരുന്നു	2695
പ്രശ്ന	2696
ലീഗ്	2697
മാറി	2698
കുറിച്ച	2699
ഹാജ	2700
29	2701
മൃത	2702
ക്ഷ	2703
അത്ത	2704
##പ്പോൾ	2705
##ാധിപ	2706
വിരുദ്ധ	2707
##പ്രവ	2708
കോളേജ	2709
ലും	2710
കൊടുത്ത	2711
കിട	2712
എല്ലാം	2713
സ്വര്‍ണ	2714
##ലില്‍	2715
ുള്ള	2716
ക്കായി	2717
ഒന്നും	2718
##നേ	2719
സിപിഎമ്മ	2720
മധ്യ	2721
വാർത്ത	2722
ഇടുക്കി	2723
പൗര	2724
യെന്ന	2725
മറ്റു	2726
സോണ	2727
ആരോപണം	2728
വീട്ടില്‍	2729
സമ്പര്‍ക്ക	2730
സമ്മേള	2731
യിലേക്ക്	2732
##ീറ്റ	2733
ചെയ്യും	2734
മൂല	2735
##വാദി	2736
##പ്പെടുന്നത്	2737
വൈറസ്	2738
##ികള്‍ക്ക്	2739
ചോദ്യ	2740
വന്നു	2741
##ല്ലു	2742
##ുപോ	2743
കേന്ദ്രം	2744
ലേ	2745
##മാർ	2746
##ശി	2747
പശ്ചാത്തല	2748
യോഗം	2749
പ്രസ്താവന	2750
ഹൈക്കോടതി	2751
##ളു	2752
മാറിയ	2753
ആവശ്യപ്പെട്ടു	2754
##സ്പി	2755
മുരള	2756
പുരു	2757
തില്‍	2758
ായി	2759
##ബ്ല	2760
വിച	2761
##ോട്ടോ	2762
##ലൈ	2763
##ാരുടെ	2764
##ാകുന്ന	2765
##രുത്	2766
എന്നതാണ്	2767
തൃശൂര്‍	2768
മൃതദേഹ	2769
എന്നായിരുന്നു	2770
45	2771
##ാദ്	2772
പ്രവർത്തന	2773
പീഡ	2774
ഹര്‍	2775
##ക്കെതിരെ	2776
##ൃഷ്ണ	2777
തുടര്‍ന്ന	2778
പ്രിയങ്ക	2779
പുറത്തിറ	2780
##ൂരില്‍	2781
താല്‍	2782
ഇന	2783
എന്നെ	2784
പിടി	2785
ദേവ	2786
എന്ത്	2787
##റിന്റെ	2788
സൗദി	2789
കുമാറ	2790
കമ്പന	2791
##ോടും	2792
##യാ	2793
കിട്ടിയ	2794
സഹായ	2795
ബീ	2796
കൊടുക്ക	2797
ഇന്ത്യൻ	2798
വിപ	2799
നടി	2800
പെണ്‍കു	2801
ചടങ്ങ	2802
ചെന്നിത്ത	2803
അര	2804
ചെന്നിത്തല	2805
സംശയ	2806
സൈന	2807
##ക്കട	2808
60	2809
അറസ്റ്റ	2810
ഹോ	2811
പഴ	2812
എന്നിവിട	2813
വരിക	2814
##വ്ര	2815
മുസ്ല	2816
##ിപ്പിക്കുന്ന	2817
##നിക്ക	2818
ആഘ	2819
##ിട്ട്	2820
##ിയിലേക്ക്	2821
സെന്റ	2822
ജനറല്‍	2823
ഇസ്ര	2824
നു	2825
പരിച	2826
മുന്നില്‍	2827
വ്യത്യ	2828
##സ്റ്റര്‍	2829
പ്രായ	2830
പെട്ട	2831
ത്ര	2832
##ിക്കാനുള്ള	2833
വേദ	2834
നടപടിയ	2835
ആരാധ	2836
ഭീഷണി	2837
അവത	2838
##ാണ്ടി	2839
നിക്ഷേപ	2840
കോര്‍	2841
സ്വർ	2842
##ശം	2843
##മ്പ്	2844
കെട്ടി	2845
##ോടൊപ്പം	2846
ദിലീപ	2847
##ഷിക	2848
സമാ	2849
ലോക്‌	2850
നിര്‍മ	2851
##ുറ	2852
പ്രചാരണ	2853
##ുത	2854
തിരി	2855
സ്വാധ	2856
അക്രമ	2857
##വരുടെ	2858
തുടങ്ങി	2859
##സ്ട്ര	2860
പാർട്ട	2861
നിങ്ങളുടെ	2862
ഇതേ	2863
വയനാട്	2864
വൃ	2865
##സ്യ	2866
ഇതിന്റെ	2867
പൂര്‍ത്തിയ	2868
##വിന്	2869
##ത്തോളം	2870
##ത്തേ	2871
##്യന്തര	2872
സ്ഥാനാര്‍ത്ഥി	2873
അമിത്	2874
മുസ്ലിം	2875
കൊണ്ടുവ	2876
പഞ്ചായത്ത്	2877
ടു	2878
സമിതി	2879
ലോക്	2880
ടീമ	2881
##ിയായി	2882
##ുമില്ല	2883
മന്ത്രാല	2884
യോഗ്യത	2885
സമ്പർക്കം	2886
നമു	2887
തടയ	2888
സൈനിക	2889
കൊലപാത	2890
ഡയറ	2891
സൂര്യ	2892
ക്രമ	2893
##ശ്ര	2894
ആഭ്യന്തര	2895
ഗ്രൂപ്പ	2896
ദൃശ്യ	2897
##സിപ്പ	2898
തള്ള	2899
##ബർ	2900
ക്കുള്ള	2901
ദി	2902
പ്പെടുത്ത	2903
പ്പോള്‍	2904
വുമായി	2905
പേരെ	2906
കളാണ്	2907
##ിക്കപ്പെട്ട	2908
കാലത്ത്	2909
കാലാവസ്ഥ	2910
അതിന്റെ	2911
റിപ്പോർട്ട	2912
പാട	2913
വന്നത്	2914
നോക്ക	2915
##നാട്ട	2916
വർഷം	2917
ആക്രമണ	2918
##ആര്‍	2919
##ിക്കാം	2920
അബ്	2921
പറഞ്ഞ്	2922
ചീ	2923
ശേഷമാണ്	2924
##ടക	2925
##ാവധി	2926
തെരഞ്ഞെടുപ്പ	2927
##ജൻ	2928
ഉള്ളത്	2929
ചെയ്യാന്‍	2930
ചിന്	2931
##ഴാണ്	2932
##ലക്ഷ	2933
##തന്ത്ര	2934
ചിത്രം	2935
##മത	2936
പിന്‍	2937
കൂടെ	2938
വിദ്യാര്‍ത്ഥ	2939
##ീവ	2940
നേതാക്കൾ	2941
നടന്നത്	2942
ഗുരുതര	2943
കഴിയുന്ന	2944
സംസാരിക്ക	2945
നിർദ്ദേശ	2946
ദുബ	2947
##ശ്ശേരി	2948
താരം	2949
##രത്ത്	2950
##ശ്വാ	2951
ജനാധിപ	2952
സ്ഥിരീകരിച്ചത്	2953
സജീവ	2954
##എഫ്	2955
പതിന	2956
##െട്ട	2957
##ല്‍ഹി	2958
പോവ	2959
വ്യാജ	2960
##േഷന	2961
ബോസ്	2962
##ീഷ്	2963
യില്ല	2964
സിന്	2965
ത്തിനും	2966
##വൈ	2967
##ല്ലോ	2968
##രമ	2969
ബുദ്ധി	2970
തോമസ്	2971
നിര്‍മ്മ	2972
ഉച്ച	2973
ശമ്പ	2974
അവരെ	2975
##ുകളെ	2976
സന്ദര്‍ശ	2977
##‌സ്	2978
##ിലി	2979
നിരക്ക്	2980
ഇവരുടെ	2981
വാക്ക	2982
##്വി	2983
##സും	2984
ലഭിച്ചത്	2985
വിദ്യാർത്ഥ	2986
സ്ഥിതി	2987
പ്പെട	2988
മനസ്സില	2989
റോഡ	2990
കള്ള	2991
ക്വാ	2992
പട	2993
ഇരുവ	2994
അതു	2995
ഇന്റ	2996
##യോടെ	2997
മഹാരാഷ്ട്ര	2998
അവസ്ഥ	2999
##യർ	3000
##ൂരി	3001
സമര്‍	3002
##ഭാവ	3003
ഉദ്	3004
സഞ്ച	3005
ഇപ്പോഴും	3006
##ാബ്	3007
##ൗണ്ട	3008
ഡോള	3009
ക്കാന്‍	3010
കേരളത്തിൽ	3011
ഭയ	3012
##ക്കാന്‍	3013
മത്സരിക്ക	3014
കളിൽ	3015
തീവ്ര	3016
കോണ്‍ഗ്രസിന്	3017
ചരിത്ര	3018
ബാധി	3019
നോട്ട	3020
##നത്തിന്	3021
കൊണ്ടാണ്	3022
32	3023
തുക	3024
നിന്നാണ്	3025
സര്‍ക്കാരിന്റെ	3026
##ളുടെ	3027
മെയ്	3028
ഡ്രൈ	3029
##ന്റി	3030
##ച്ചത്	3031
##ദ്യോഗിക	3032
കൃഷ്ണ	3033
ജാഗ്ര	3034
റൂ	3035
##ഘാട	3036
മുരളീ	3037
റാ	3038
##ക്കേ	3039
ദുരന്ത	3040
ട്വ	3041
യെന്ന്	3042
##തമായി	3043
അടക്കമുള്ള	3044
വരുമാന	3045
ജോസ്	3046
ഇവരെ	3047
##കല	3048
സ്വയം	3049
കളെ	3050
##ീകരണം	3051
ഫോണ	3052
ആഗ	3053
എക്	3054
##മെന്നും	3055
രമേ	3056
വിട്ടു	3057
##രിച്ചത്	3058
ഇന്ത്യയുടെ	3059
വയസ്സ	3060
രാജിവ	3061
##പോലെ	3062
ലം	3063
##മല	3064
സതീ	3065
##ിക്	3066
##മാന്‍	3067
പോസ്റ്റ്	3068
##തുമ	3069
ഹിന്ദു	3070
വിധി	3071
##ീകരിച്ച്	3072
നേരിട്ട്	3073
മുരളീധ	3074
##ിടെ	3075
##ചന്ദ്ര	3076
ലഭിക്കുന്ന	3077
എല്ലാവരും	3078
##ചി	3079
##ൻസ്	3080
##ത്താവ	3081
കണ്‍	3082
നല്‍കിയത്	3083
##ുട്ട	3084
##ണര്‍	3085
കോണ്‍ഗ്രസിന്റെ	3086
##ലോ	3087
##ാക്	3088
##ത്തം	3089
##ല്ലുവി	3090
##േല്‍	3091
ലീഗ	3092
##വാദ	3093
ആം	3094
വരുടെ	3095
ലഭ്യമ	3096
##മുണ്ട്	3097
വീണ	3098
##ത്വം	3099
ക്കെതിര	3100
പോസി	3101
ഇനിയും	3102
വല	3103
##ര്‍ത്തു	3104
കടന്ന	3105
##ുകളിലും	3106
യായ	3107
##ഗ്ദ	3108
വർധ	3109
ലോക്ക്	3110
##രില്‍	3111
##ീറ്റ്	3112
പ്രമുഖ	3113
ഏപ്ര	3114
ജൂല	3115
##ഫോ	3116
##ക്കുറിച്ച്	3117
ഔദ്യോഗിക	3118
സാധിക്കും	3119
വര്‍ക്ക്	3120
ലക്ഷ്യമ	3121
ജയില	3122
രംഗത്തെത്തിയ	3123
സീസ	3124
കെപി	3125
ഉയർന്ന	3126
100	3127
##ീന്‍	3128
##രുന്ന്	3129
ഉമ്മന്‍	3130
##പാട്	3131
പിസി	3132
വിമാനത്താവ	3133
തെളിയ	3134
തിരിച്ചു	3135
വെല്ലുവി	3136
വേണം	3137
നൽകി	3138
##ങ്ങുന്ന	3139
രൂപയാണ്	3140
ലക്ഷ്യം	3141
2019	3142
##നാഥ്	3143
##പരമായ	3144
ബഹ	3145
നിശ്ച	3146
ബിസിന	3147
##നിര	3148
ബിജെപിക്ക്	3149
മാറ്റം	3150
നായി	3151
പരിക്ക	3152
##തിയാണ്	3153
മനോ	3154
കണ്ണൂർ	3155
മൂന്നാം	3156
ചാന	3157
##സൂ	3158
##ിയോ	3159
ഉണ്ടാവ	3160
ജോസഫ്	3161
ഇടതുപക്ഷ	3162
കഥ	3163
##ലിന്റെ	3164
##ക്കള്‍	3165
ിരുന്നുവ	3166
ഇസ്രായ	3167
ഏഴ്	3168
##്മി	3169
##സിക്യ	3170
ിരിക്കുന്ന	3171
തങ്ങളുടെ	3172
##സരിച്ച്	3173
നേടി	3174
##ക്ടറ	3175
മാറ്റിയ	3176
ആരും	3177
സ്ഥാനം	3178
ഇയാള്‍	3179
വരുന്നത്	3180
##ത്തിലൂടെ	3181
##്രാ	3182
ജനാധിപത്യ	3183
തെന്നാണ്	3184
വാദ	3185
##പ്പോഴും	3186
ഹി	3187
##ീല്‍	3188
##ുമുള്ള	3189
ക്കാണ്	3190
കര്‍ഷക	3191
കേസിൽ	3192
##റിൽ	3193
ഇഷ്ട	3194
ഗോപ	3195
##ണായക	3196
രാഹുൽ	3197
സമു	3198
സൂച	3199
യുദ്ധ	3200
ബാങ്ക	3201
##ങ്ങനെയാണ്	3202
ഉദ്ഘാട	3203
##വിഡ	3204
ിട്ടുള്ള	3205
നിലവിൽ	3206
വായ	3207
ഗുജ	3208
പകരം	3209
വിശ്വാസ	3210
അഴി	3211
ക്കൊ	3212
ില്ലെന്നും	3213
##ബൈ	3214
പ്രതിഷേധം	3215
##മില്ല	3216
ചെറു	3217
പേരില്‍	3218
വഹ	3219
##കര്യ	3220
##നിധ	3221
മെഡിക്കൽ	3222
എങ്ങനെ	3223
ിട്ടുള്ളത്	3224
കുറവ	3225
വൈദ്യ	3226
എത്തിയത്	3227
##റിച്ച	3228
##ുകാര്‍	3229
ക്ഷേത്ര	3230
യിലാണ്	3231
##ംസ	3232
മട	3233
##ാസ്ത്ര	3234
സഭ	3235
##രുവ	3236
ഒന്നാം	3237
ലംഘ	3238
##ീക്ക	3239
ആരോപിച്ചു	3240
##സിയ	3241
##ണിയ	3242
##ാണോ	3243
ത്തിലെ	3244
മുസ്ലീം	3245
യഥ	3246
##രൻ	3247
ബന്ധു	3248
സമ്മാന	3249
പുരോഗ	3250
പ്രതിസന്ധി	3251
മുള്ള	3252
വിളി	3253
##ാമത്തെ	3254
##ക്കില്‍	3255
ബന്ധം	3256
നാട	3257
ഭേദ	3258
യാത	3259
നിയമം	3260
ശ്രമം	3261
പോളി	3262
നിര്‍ദ്ദേശ	3263
വാക്‌സിന്‍	3264
##ക്കാർ	3265
ങ്ങളുടെ	3266
കുറച്ച്	3267
ുവെന്നും	3268
രോ	3269
##ര്‍ക്കാണ്	3270
കഴിഞ്ഞു	3271
ആളുകള്‍	3272
ാവ	3273
എച്ച്	3274
മമത	3275
##ട്ടിഫ	3276
##കരമായ	3277
മുന്നറിയിപ്പ്	3278
എട്ട്	3279
പവ	3280
മേഖലയില്‍	3281
കനത്ത	3282
ഷി	3283
ഹൗ	3284
##ടേ	3285
##രായ	3286
##ണ്ടി	3287
ആവശ്യപ്പെട്ടി	3288
##ുന	3289
കുട്ടി	3290
##ഹരി	3291
മുഖ്യമന്ത്രിയുടെ	3292
ഞങ്ങള്‍	3293
##ളൂ	3294
##ോചന	3295
##ഖ്യ	3296
മണ്ഡലം	3297
സന്തോഷ	3298
രമേശ്	3299
പത്ത്	3300
പ്രസംഗ	3301
##ൺകു	3302
പിടിക	3303
##ാടിയ	3304
തിരഞ്ഞെടുപ്പിൽ	3305
നടക്കുന്നത്	3306
##ാക്കിയത്	3307
36	3308
കൂടിയാണ്	3309
ശ്രമിച്ച	3310
വാക്‌സിന	3311
##ല്‍പ്പ	3312
സ്വാത	3313
##ുവിന്റെ	3314
താൻ	3315
യോട്	3316
വീതം	3317
കാസര്‍	3318
അവസരം	3319
ഉന്നത	3320
ഒര	3321
##റിന്	3322
##േണ്ടത്	3323
ആവശ്യമ	3324
അധ്യക്ഷന്‍	3325
ഏത്	3326
ഇവർ	3327
നികുതി	3328
വില്‍	3329
െന്നാണ്	3330
തല്ല	3331
##ക്കൊ	3332
പേരുടെ	3333
വരാണ്	3334
ചോദിച്ചു	3335
നേരിട്ട	3336
ഇദ്ദേഹ	3337
##സ്‌ക	3338
ജീവനക്കാര	3339
സുരക്ഷാ	3340
##ഗോഡ്	3341
സോണിയ	3342
പിടികൂ	3343
പ്രവര്‍ത്തകര്‍	3344
സർവ	3345
##യിലുള്ള	3346
നിരോധ	3347
അഭിമുഖ	3348
##മം	3349
##ൗണ്‍	3350
മരണം	3351
സമരം	3352
യോഗത്തില്‍	3353
രീതിയില്‍	3354
വസ്തു	3355
മൈ	3356
##ികെ	3357
ഉടമ	3358
വിതരണം	3359
ആഘോഷ	3360
ണ്	3361
സാധിച്ച	3362
മുതല	3363
അതില്‍	3364
സാഹചര്യം	3365
2021	3366
മര	3367
രൂപയുടെ	3368
മൊഴി	3369
പേരു	3370
##ത്യം	3371
ഇയാള	3372
##ാനെ	3373
എന്താണ്	3374
നമുക്ക്	3375
സ്വാതന്ത്ര	3376
##മാരുടെ	3377
ഇതു	3378
ഏര്‍	3379
തെന്ന	3380
പ്രവച	3381
##മെന്റ	3382
##ശ്മ	3383
വധ	3384
##മതി	3385
##ക്കുന്നത്	3386
നൽകുന്ന	3387
അവസര	3388
സതീശ	3389
കൂടുതല	3390
അധ്യാപ	3391
ബുധ	3392
##തെ	3393
##ാവി	3394
ക്രൈ	3395
##ിരുന്നത്	3396
##വില	3397
##കളിൽ	3398
ഫേസ്ബുക്ക്	3399
തസ്	3400
##ത്തുന്ന	3401
നാളെ	3402
ഇടി	3403
നന്ദ	3404
ജാഗ്രത	3405
തിയ	3406
വിവരങ്ങള്‍	3407
##മാരെ	3408
33	3409
വീട്	3410
##്യോ	3411
80	3412
രി	3413
ഉണ്ടായിരുന്നു	3414
എന്നിവര്‍	3415
സൗകര്യ	3416
പാക	3417
യാതൊരു	3418
ബജ	3419
##പ്പെടുത്തുന്ന	3420
##ഗോപ	3421
കാഴ്ച	3422
പിന്നാലെയാണ്	3423
ജോര്‍ജ്	3424
യാണെന്നും	3425
##ാരു	3426
മനസില	3427
തിനാല്‍	3428
വനിതാ	3429
ഒന്ന്	3430
##ീകരി	3431
കേന്ദ്രസ	3432
##സ്വ	3433
##ുള്ളില്‍	3434
പൂര്‍ണ	3435
ശേഖ	3436
##പിച്ച്	3437
രോഗമു	3438
ചെയ്തിട്ടുണ്ട്	3439
34	3440
ടോ	3441
##ിട്ടും	3442
ശരിയ	3443
##ദിന	3444
സമാന	3445
##ഥി	3446
ങ്ങളെ	3447
പലരും	3448
ദിലീപ്	3449
55	3450
മെന്ന്	3451
##ഗതി	3452
നേരെ	3453
നടത്തുന്നത്	3454
മണ്ഡലത്തില്‍	3455
##ട്ടാണ്	3456
##ഞ്ജ	3457
ക്കൊപ്പം	3458
37	3459
കോടതിയില്‍	3460
മേധ	3461
ശിക്ഷ	3462
ഹോട്ട	3463
##ോറി	3464
ഇല	3465
കല്ല	3466
##റ്റം	3467
##തിനെ	3468
സ്ഥിരീകരിച്ചു	3469
മുണ്ട്	3470
##വിട്ട	3471
വിവാഹം	3472
ഫാ	3473
ലോട്ട	3474
പ്രശ	3475
കര്‍ണാടക	3476
##നേഹ	3477
##ിള	3478
കാത്തി	3479
കേസിലെ	3480
റേ	3481
##ിലായ	3482
യൂത്ത്	3483
നഗരസഭ	3484
ഗൂ	3485
ഞങ്ങൾ	3486
യല്ല	3487
ക്കാനുള്ള	3488
മാതൃ	3489
സൂക്ഷ	3490
##ട്ടില്ല	3491
##സിൻ	3492
പ്പോൾ	3493
ഒരാള്‍	3494
ബിരു	3495
ചെലവ	3496
ചെയ്യുന്നു	3497
പെൺകു	3498
മുഴുവന്‍	3499
അംബ	3500
##ംസ്	3501
കാണുന്ന	3502
അദ്ദേഹത്തെ	3503
സിപിഐ	3504
ില്ലെന്ന്	3505
##സിനെ	3506
നിര്‍ത്ത	3507
യുവതി	3508
ഉത്തരവാദി	3509
പ്രസിഡന്റ	3510
ക്യാമ്പ	3511
പരാമര്‍ശ	3512
##ടുക്കുന്ന	3513
ഡോസ്	3514
ഒടുവ	3515
അറിയിച്ച	3516
കമ്പനി	3517
തസ്തിക	3518
സിറ്റി	3519
കൈവ	3520
നിർമ്മ	3521
48	3522
##ീര	3523
ഒരുപാട്	3524
തീയ	3525
കാര്യത്തില്‍	3526
ിരുന്നത്	3527
ക്കാൻ	3528
സാക്ഷ	3529
##ർത്തു	3530
സേന	3531
കരാ	3532
തിരുവ	3533
ഡിസം	3534
ഒട്ട	3535
കണ്ടു	3536
അമ്പ	3537
ങ്ങളില്‍	3538
റോഡ്	3539
നൂ	3540
ലാണ്	3541
##പ്രതി	3542
##ണമെന്നാണ്	3543
വിജയ്	3544
##ാണിത്	3545
ഗവര്‍	3546
പങ്കെടുക്ക	3547
മീറ്റ	3548
തുറന്ന	3549
ബുദ്ധിമു	3550
ഒരിക്കലും	3551
ാന	3552
##ാനായി	3553
##ിക്കല്‍	3554
കർഷക	3555
വർക്ക്	3556
കൊണ്ടു	3557
75	3558
അർ	3559
ത്തിയ	3560
േക്കും	3561
##ദേശിക	3562
ഉണ്ടായിരുന്ന	3563
ചീഫ്	3564
എന്	3565
ടൂ	3566
##കർ	3567
##ര്‍ത്തിയ	3568
തമിഴ്	3569
പ്രാദേശിക	3570
സ്‌കൂള	3571
വിമാനത്താവള	3572
പിഴ	3573
മുന്നണി	3574
സെക്രട്ടറിയ	3575
ഓഫീസര്‍	3576
കൊലപാതക	3577
ക്കിട	3578
സഹായം	3579
അച്ഛ	3580
ള്ള	3581
##ിപ്പിച്ചു	3582
നിര്‍ദേശം	3583
സംഭവത്തില്‍	3584
പങ്കെടു	3585
##ുകൊണ്ടാണ്	3586
ശബ	3587
സ്വതന്ത്ര	3588
വാഗ്ദ	3589
അതിനിടെ	3590
വിളിച്ച	3591
ഗ്രൂപ്പ്	3592
ലോക്‌സഭാ	3593
ഒപ്പം	3594
##പ്തി	3595
വിദഗ്	3596
എംഎൽ	3597
ഇത്രയും	3598
പണി	3599
##ഴ്‌സ്	3600
അത്ര	3601
പിന്നെ	3602
റദ്ദ	3603
വിശ്വസ	3604
##താഗ	3605
തമിഴ്‌	3606
സമ്മേളന	3607
തായും	3608
ലു	3609
##റന്റ	3610
##ടുള്ള	3611
അഭിഭാ	3612
##പ്രവര്‍ത്ത	3613
പിത	3614
നിലവിലെ	3615
ഉപയോഗിച്ച്	3616
പ്രകട	3617
ജയരാ	3618
##ശ്വാസം	3619
മാണെന്ന്	3620
ാൽ	3621
നിന്നു	3622
താല	3623
തന്ത്ര	3624
മാണെന്നും	3625
##ഘടന	3626
##ാണം	3627
കാര്യങ്ങൾ	3628
സീറ്റുകള്‍	3629
ജൂലൈ	3630
70	3631
നേതൃത്വത്തില്‍	3632
##ീർ	3633
നിങ്ങള്‍	3634
ഫോണ്‍	3635
ുവെന്ന്	3636
ഉദ	3637
നടപ്പില	3638
സബ്	3639
വിഷയത്തില്‍	3640
രാജി	3641
രേഖപ്പെടുത്തിയ	3642
ജൂണ്‍	3643
അശ	3644
##ഹത്യ	3645
രാജ്	3646
ത്തിലും	3647
##ാളി	3648
ട്വി	3649
മദ്യ	3650
##ത്താണ്	3651
സിംഗ	3652
യുഎസ്	3653
ഇന്ത്യയിലെ	3654
##ല്‍ക്ക	3655
ജില്ലയിൽ	3656
##ോച	3657
ഇന്ത്യയില്‍	3658
തൃണമ	3659
തിൽ	3660
എന്നിവരാണ്	3661
ക്ഷണ	3662
##ിക്കുന്നുണ്ട്	3663
##ാമി	3664
##ിലേക്കുള്ള	3665
ഭരണം	3666
യുമ	3667
##ഹ്	3668
##ക്കാൻ	3669
##ടക്കം	3670
മഹാ	3671
പരിപാടിയ	3672
പരിശീല	3673
ഇതിനിടെ	3674
പാകി	3675
##പ്ല	3676
##ഭരണ	3677
ബാങ്ക്	3678
അടിയന്തര	3679
അബ്ദു	3680
43	3681
ചല	3682
യാണെന്ന്	3683
നടപടികള്‍	3684
പൂർത്തിയ	3685
പഴയ	3686
കെപിസിസി	3687
##സേന	3688
കേസുകള്‍	3689
എംഎൽഎ	3690
##ഗീയ	3691
##മിക	3692
സ്കൂ	3693
##്യൂട്ടി	3694
ക്രി	3695
കോളേജ്	3696
##തിയും	3697
തുടങ്ങ	3698
നിലയില്‍	3699
##ാശാല	3700
ഞ്	3701
##ടനാ	3702
##ാണെന്ന	3703
42	3704
മത്സരിച്ച	3705
സുരക്ഷി	3706
38	3707
കേസെടുത്ത	3708
തായ	3709
സന്	3710
ജനങ്ങള്‍	3711
##ികളായ	3712
യെന്നും	3713
ഉദ്യോഗസ്ഥര്‍	3714
തെരഞ്ഞെടുപ്പ്	3715
റെയില്‍	3716
വാദം	3717
ഗുണ	3718
##ീകര	3719
രാജ്യം	3720
പ്രചാര	3721
##ത്തിനായി	3722
##ർന്നു	3723
അഭ്യ	3724
സംഭവിച്ച	3725
ചൂണ്ടിക്ക	3726
ബസ്	3727
##രാമ	3728
##ികൾക്ക്	3729
##ിച്ചാണ്	3730
വ്യക്	3731
പാര്‍ല	3732
തമ്മിലുള്ള	3733
വിധേയ	3734
',	3735
തിരിച്ചടി	3736
പുറത്തുവന്ന	3737
വ്യാപക	3738
##പ്പെടു	3739
തുടക്ക	3740
ആവശ്യപ്പെട്ട	3741
ഫെബ്ര	3742
ചൂണ്ടിക്കാട്ടി	3743
ധാരണ	3744
നിമി	3745
ബാബു	3746
യ്ക്കും	3747
യാദ	3748
വ്യവസ	3749
പ്രണ	3750
തിങ്ക	3751
വോട്ടുകള്‍	3752
കയ്യ	3753
ചെന്നൈ	3754
സാമൂഹിക	3755
##കലാശാല	3756
റണ്‍	3757
##ശേഷ	3758
##റ്റീവ്	3759
സേവന	3760
ചെയ്യാൻ	3761
മൃതദേഹം	3762
ഇപ്പോഴ	3763
##രിത	3764
സംവിധാനം	3765
ത്തിലാണ്	3766
മൊബൈ	3767
##ിനോട്	3768
##മിച്ച്	3769
പേരിൽ	3770
##ണക്ക	3771
നിങ്ങൾ	3772
##ിക്കുകയാണ്	3773
അദ്ദേഹത്തിന്	3774
പഠന	3775
യ്‌	3776
തേടിയ	3777
##ാക്കാൻ	3778
വിചാരണ	3779
സ്വാധീന	3780
സാഹചര്യത്തിൽ	3781
താഴെ	3782
സമാധാന	3783
ചെയ്‌	3784
അഡ	3785
ഖത്ത	3786
വായി	3787
അനുവദിക്ക	3788
ഗണ	3789
##യു	3790
വിസ	3791
വാങ്ങിയ	3792
ഞെട്ട	3793
##ർട്ട്	3794
##ങ്ങളായി	3795
വ്യാഴ	3796
ആദ്യമായി	3797
ആക്രമണം	3798
മണ്ണ	3799
ശബ്	3800
##ർമ	3801
##ന്‍ഡ്	3802
##നെതിരെ	3803
കുറിച്ചു	3804
ഡൽ	3805
പ്	3806
##റ്റില്‍	3807
യുക്ര	3808
അഡ്	3809
സജ്ജ	3810
##ഡു	3811
##മെന്ന	3812
##ിക്കാഴ്ച	3813
ത്‌	3814
കൂടിക്കാഴ്ച	3815
ടിക്കറ്റ്	3816
##ുമ്പോ	3817
ഫിറോ	3818
##േര	3819
മൂലം	3820
പോരാട്ട	3821
ഗുജറാ	3822
##മറ	3823
ആറ	3824
മുല്ല	3825
അസി	3826
യാക	3827
##്യു	3828
##സ്‌ട്ര	3829
ആയു	3830
വീട്ടിൽ	3831
റില	3832
ജീവിതം	3833
പൊലി	3834
ങ്ങളാണ്	3835
സൂപ്പ	3836
ഭാഷ	3837
അജ	3838
രോഗബ	3839
പെരുമാ	3840
ചൂണ്ടിക്കാണ	3841
##ന്‍ഡ	3842
ന്യൂന	3843
ബ്രിട്ട	3844
തിരികെ	3845
44	3846
ഓണ്‍	3847
##പിഎ	3848
പേര്‍ക്കും	3849
ശൈ	3850
ഭൂമി	3851
പദവി	3852
പ്രവാസ	3853
സാമ്പിള	3854
ഗവ	3855
ത്തിലേക്ക്	3856
##പ്പെടുന്നു	3857
അധികം	3858
പ്രമേ	3859
കോർ	3860
##വര്‍ക്ക്	3861
വിഷയം	3862
ശബരി	3863
അഭിഭാഷക	3864
മല്‍	3865
ആരംഭിച്ച	3866
##ജീവി	3867
ഹൃ	3868
##ായിരിക്കും	3869
രഹ	3870
പെട്ര	3871
സ്‌റ്റ	3872
മോഹന്‍	3873
പെണ്‍കുട്ട	3874
39	3875
ആന്റ	3876
##ലങ്ക	3877
കുത്ത	3878
സ്ഥാനാർത്ഥി	3879
ഇള	3880
വച്ച്	3881
സച്ചി	3882
ിന്റെ	3883
##ർപ്പ	3884
##ിക്കുമെന്ന്	3885
##ിക്കുകയായിരുന്നു	3886
സുരേന്ദ്രന്‍	3887
##സിക	3888
കളിലും	3889
വ്യക്തമാക്കുന്നു	3890
കണ്ട്	3891
ഞായ	3892
ജനുവരി	3893
വയസ	3894
##കോട	3895
##ക്കര	3896
തമ്മില്‍	3897
##ോമീറ്റ	3898
';	3899
അന്ന	3900
സംവിധ	3901
തീര	3902
ബ്ലോ	3903
അല്‍	3904
കശ്മ	3905
##ആർ	3906
അംഗീകരിക്ക	3907
ഇല്ലാത	3908
2020	3909
കയറി	3910
കിലോമീറ്റ	3911
പരിചയ	3912
തള്ളി	3913
ബൂ	3914
##ാവില്ല	3915
ിട്ടും	3916
ാം	3917
നീതി	3918
മീഡിയയില്‍	3919
ഭി	3920
മുക	3921
നീണ്ട	3922
കാലം	3923
ഭരണകൂ	3924
!!	3925
ുവെന്ന	3926
അണ	3927
##ംപ്	3928
തിരെ	3929
ഉണ്ടാകും	3930
പക്ഷെ	3931
സ്വപ്ന	3932
രാശിക്കാര്‍	3933
അഫ്	3934
##ുമായുള്ള	3935
ജാമ്യം	3936
##ടിച്ച	3937
##നിൽ	3938
##ികളാണ്	3939
പോകുന്നത്	3940
കോണ്‍ഗ്രസില്‍	3941
ചൗ	3942
നശ	3943
##ിയോടെ	3944
പ്രതികരിച്ചു	3945
ആവശ്യപ്പെട്ട്	3946
2016	3947
അന്താരാഷ്ട്ര	3948
വരാ	3949
##േറിയ	3950
സ്ഥാനാര്‍ഥ	3951
##ൂരിലെ	3952
ഇതിൽ	3953
##ബല	3954
സന്ദർശ	3955
##ശേരി	3956
##തിയായ	3957
മരിച്ചത്	3958
അധികൃതര്‍	3959
ആഴ്ച	3960
##ാക്കുന്നത്	3961
എത്തുന്ന	3962
തുടരുക	3963
മേധാവി	3964
ടൂറി	3965
തിങ്കള	3966
അപ്ര	3967
ക്കാ	3968
##ഹിത	3969
മാര്‍ച്ച്	3970
കൗണ്‍	3971
കാന	3972
ശോഭ	3973
##ില്യ	3974
ങ്ങളിൽ	3975
കുമാർ	3976
വിദഗ്ധ	3977
എവിടെ	3978
ജസ്റ്റി	3979
##തിന്റെ	3980
നിലനി	3981
അഴിമതി	3982
കൊച്ച	3983
##യിട	3984
വൈസ്	3985
എതിരെ	3986
നെഗ	3987
നവംബ	3988
കുഴ	3989
സാന്നി	3990
പേർക്ക്	3991
രീതി	3992
ശാസ്ത്ര	3993
കോര്‍പ്പറ	3994
##േബ	3995
##സ്സ്	3996
പത്ര	3997
##ലിൽ	3998
##ര്‍ശന	3999
##പ്രദേശ്	4000
##നില	4001
പരമ	4002
അംഗീക	4003
എയര്‍	4004
##ൊന്ന	4005
മന്ത്രിസഭ	4006
ബാധിച്ച	4007
ഗോപി	4008
സ്വന്തമ	4009
ക്വാറന്റ	4010
ജ്യോ	4011
##ുവിനെ	4012
##ക്ടോ	4013
##ര്‍ട്ട്	4014
മത്സ്യ	4015
മിനി	4016
##യായിരുന്നു	4017
##ർമ്മ	4018
കാട്ട	4019
ഡിജി	4020
##ാക്കള്‍	4021
##ാരിക	4022
##ോളജി	4023
പാസ	4024
വട	4025
##ങ്ങ്	4026
##ഴ്സ്	4027
##പ്പന	4028
പ്രതികരണ	4029
ലക്ഷ്യ	4030
അയച്ച	4031
മുതിര്‍ന്ന	4032
താലി	4033
##ിയുള്ള	4034
##ാക്കും	4035
മറ്റുള്ള	4036
ടൈ	4037
തര്‍ക്ക	4038
##ഭി	4039
ക്കുകയായിരുന്നു	4040
പ്രകടന	4041
രീതിയ	4042
കർണാടക	4043
സിന്ധ്യ	4044
വെബ്	4045
അടുത്തിടെ	4046
റിപ്പോര്‍ട്ടുകള്‍	4047
ഏതെങ്കിലും	4048
ഇരുവരും	4049
ചാണ്ടി	4050
വക	4051
ക്കുകയും	4052
ഗ്രഹ	4053
എമ്മ	4054
##സ്തി	4055
ട്രെയ	4056
ഉടന്‍	4057
പരിപാടി	4058
വനിത	4059
##ങ്ങനെയ	4060
##കളാണ്	4061
##ബിഐ	4062
ഡോക്ടര്‍	4063
മാനേജ	4064
പരിപാട	4065
വച്ച	4066
##പ്പില്‍	4067
കണക്ക്	4068
ന്യ	4069
ഹർ	4070
##നായി	4071
പ്രദ	4072
ശരീ	4073
##ങ്ങളോട്	4074
വിജയന്‍	4075
ട്വിറ്റ	4076
ഷെ	4077
##ർത്തിയ	4078
##ഫ്ര	4079
##ക്ഷിണ	4080
വെള്ളം	4081
49	4082
ഒപ്പ	4083
##യ്ക്കുന്ന	4084
കുറയ	4085
സ്വദേശിയായ	4086
നമ്മള്‍	4087
ലോട്ടറി	4088
ത്തു	4089
##ഞ്ചേരി	4090
സിനിമാ	4091
ജനറൽ	4092
സന്തോ	4093
എഎ	4094
##ൊക്ക	4095
##ായിക	4096
##ാക്കുക	4097
ജനങ്ങളുടെ	4098
എൽഡിഎ	4099
പൈല	4100
ഉദ്ഘാടനം	4101
ഭാഗത്ത്	4102
പ്രചാരണം	4103
41	4104
##കൃഷ്ണ	4105
##ിട്ടുള്ളത്	4106
തീരുമാനിച്ച	4107
കൂട്ടിച്ചേര്‍ത്തു	4108
ഗെ	4109
കുറിപ്പ	4110
##ത്രിക	4111
കണ്ടെത്തി	4112
ആത്മഹത്യ	4113
##ാന്ത്	4114
##ദിത്യ	4115
തൊഴില്‍	4116
വാക്സിന	4117
46	4118
ഇതാണ്	4119
മരിച്ചു	4120
നേരിടുന്ന	4121
സഹോദര	4122
സര്‍ക്കാര	4123
സ്വാതന്ത്ര്യ	4124
സംവിധായക	4125
തായിരുന്നു	4126
ദക്ഷിണ	4127
പിറ	4128
ിരിക്കുന്നു	4129
കലാപ	4130
എല്‍ഡിഎഫ	4131
തൂ	4132
##രുത്തി	4133
##ങ്കേ	4134
കാര്യമ	4135
ത്തിലൂടെ	4136
തിനും	4137
ഇല്ലാത്ത	4138
ഫോട്ടോ	4139
##പതി	4140
##പുരം	4141
നടത്തിയിരുന്നു	4142
ട്രംപ്	4143
##േക്കാള്‍	4144
പരിക്കേറ്റ	4145
47	4146
65	4147
ടാ	4148
##റുകള്‍	4149
##ിനീയ	4150
##രാജ്	4151
വരെയുള്ള	4152
##ക്കുക	4153
എല്‍ഡിഎഫ്	4154
വേണു	4155
ിരുന്നില്ല	4156
ഏജന്‍	4157
##േക്കും	4158
ക്കേണ്ട	4159
##കള്‍ക്ക്	4160
ചേര്‍ന്ന്	4161
റെക്കോ	4162
സ്പീക്ക	4163
രജിസ്റ്റര്‍	4164
സമുദ	4165
ഹൃദ	4166
കുന്ന	4167
വോ	4168
മാവ	4169
ആവശ്യമായ	4170
കിടക്ക	4171
സുധാകരന്‍	4172
##ാരായ	4173
##തിരായ	4174
ന്യൂഡ	4175
കൃത്യമായ	4176
##ര്‍ഡ്	4177
##ക്‌സ്	4178
യൂണി	4179
ശബരിമല	4180
##ീത	4181
ത്തിനായി	4182
തിരിച്ചടിയ	4183
ഓഫീസ്	4184
പ്രവര്‍ത്തനങ്ങള്‍	4185
##ടിപ്പിച്ച	4186
ആരോഗ	4187
സഹക	4188
സുഹൃത്തു	4189
തുടര്‍ന്നാണ്	4190
വിപണ	4191
കൊണ്ടുപോ	4192
അറേബ	4193
##ത്തിനും	4194
##മാരും	4195
##തിനായി	4196
ഇടത്	4197
അറേബ്യ	4198
52	4199
##ാലോചന	4200
ഗതാഗ	4201
മയ	4202
##രാശ	4203
പ്രവൃ	4204
പരസ	4205
അഡ്വ	4206
ജ്യോതി	4207
വടക്ക	4208
##ായാലും	4209
##ിലേക്കും	4210
ത്തിനു	4211
പ്രതിപക്ഷം	4212
##ര്‍ഡ	4213
##ിക്കൊ	4214
കിഴ	4215
ആശുപത്രിയിൽ	4216
അവി	4217
##റ്റു	4218
##ിപ്പിക്ക	4219
##ികളില്‍	4220
##ുണ്ടായിരുന്ന	4221
ുണ്ടായിരുന്നു	4222
ഏകദേശം	4223
താലിബ	4224
നിര്‍ണായക	4225
പാര്‍ട്ടിയ	4226
90	4227
ഒക്ടോ	4228
യുമാണ്	4229
വന്ന്	4230
ശനിയ	4231
പിൻ	4232
ത്തോടെ	4233
##യ്ക്കും	4234
##ുള്ളിൽ	4235
##െടുത്ത്	4236
അറിയിച്ചത്	4237
മുന്നോട്ട	4238
നേതാക്കളെ	4239
തരംഗ	4240
നില്‍ക്കുന്ന	4241
മെന്നും	4242
ക്കാനും	4243
അപമാന	4244
ഉത്തര്‍	4245
2022	4246
ജില്ലകളില്‍	4247
ിട്ടുണ്ടെന്നും	4248
##േറെ	4249
പ്രതിനിധ	4250
##വ്വാ	4251
199	4252
കൃത്യമായി	4253
ഘടക	4254
##ോണി	4255
##സര	4256
ചികിത്സയില	4257
54	4258
നിയമനം	4259
സമ്മതി	4260
കമ്മിറ്റ	4261
പ്രശ്‌നങ്ങള്‍	4262
കെട്ടിട	4263
ഗ്	4264
##യിച്ച	4265
##മന	4266
##ാകെ	4267
ജോർ	4268
##മന്ത്ര	4269
##ിയാ	4270
അവര്‍ക്ക്	4271
പരമാവധി	4272
കുതി	4273
വേള	4274
മോശ	4275
പ്രചരണ	4276
താത്	4277
##ര്‍മ്മ	4278
ആശയ	4279
സ്ഥാനത്ത്	4280
മന്ത്രാലയം	4281
##നിട	4282
പോലുള്ള	4283
കാലയ	4284
ചോദിച്ച	4285
കണ്ടെത്തിയത്	4286
വിളിച്ച്	4287
മുകള	4288
##ീതി	4289
##രുമായി	4290
പുറമെ	4291
വിജയിച്ച	4292
കുടുംബം	4293
ഭര്‍ത്ത	4294
ക്കുക	4295
##ംഗളൂ	4296
##്യമന്ത്രി	4297
തന്നെയ	4298
തേട	4299
ാലും	4300
##ംഗ്ല	4301
കാണാന്‍	4302
വീട്ടിലെ	4303
പള്ള	4304
##ടുപ്പ	4305
നിഷേധ	4306
മുറ	4307
മാനസിക	4308
##ത്തിനിടെ	4309
##ജിത്	4310
പിന്‍വല	4311
പന്ത	4312
##ീന്ദ്ര	4313
വിട്ട്	4314
വിമര്‍ശന	4315
##ജന്യ	4316
കുടു	4317
മറിക	4318
ബൈഡ	4319
ഉദ്ധ	4320
കേരളത്തിന്റെ	4321
മുന്നിൽ	4322
സുധാകര	4323
##ബോ	4324
##െയര്‍	4325
2018	4326
മാര്‍ഗ	4327
വാക്സിൻ	4328
അറിഞ്ഞ	4329
ഭാഗ്യ	4330
പാർട്ടിയ	4331
##ുഴ	4332
##െടുപ്പ്	4333
വെറും	4334
ഉപതി	4335
സഖ്യം	4336
അഖില	4337
കേട്ട	4338
രൂപയും	4339
ആളുകൾ	4340
ലാഭ	4341
പ്രൊഫ	4342
##ൂട്ടി	4343
ഹാജര	4344
##ണക്കിന്	4345
യാള	4346
അറിയാം	4347
അതിനെ	4348
എന്തിന	4349
പ്രി	4350
മുഖ്യ	4351
അടച്ച	4352
##തീഷ്	4353
ഉപതിരഞ്ഞെടു	4354
##ഥമിക	4355
##ഘട്ട	4356
##ന്‍സ	4357
സമി	4358
ഏറ്റുമ	4359
അഫ്ഗ	4360
ബേ	4361
ചേർന്ന	4362
തിരഞ്ഞെടുപ്പിന്	4363
ഇതിനെ	4364
ശമ്പളം	4365
കവ	4366
##ൈവ	4367
##പിത	4368
മുന്നണ	4369
നേരത്തേ	4370
ഇവര്‍ക്ക്	4371
വൈദ്യുതി	4372
ബാന	4373
##മെന്നാണ്	4374
##മൊരു	4375
പ്രേക്ഷ	4376
##കുമാര്‍	4377
ഇക്കാര്യത്തില്‍	4378
ഫെബ്രുവരി	4379
കപ്പ	4380
##വകു	4381
ഇന്നത്തെ	4382
##ര്‍ഷ	4383
കുറ്റപ്പെടുത്തി	4384
വ്യക്തമാക്കുന്നത്	4385
മുതിർന്ന	4386
അസിസ്റ്റ	4387
ഇക്ക	4388
വരുന്നു	4389
ഉപയോഗിച്ച	4390
##യുമായി	4391
##വാസി	4392
മൂന്നു	4393
പ്രാഥമിക	4394
വേദന	4395
##‌മെന്റ്	4396
ബാബ	4397
ഭീകര	4398
നിയമന	4399
സഹകരണ	4400
ഭക്ഷണം	4401
മെന്ന	4402
ുമ്പ	4403
##ശേഖ	4404
##ിക്കു	4405
##ദ്വ	4406
##ഗ്ഗ	4407
##ക്ട്ര	4408
ഭക്ഷണ	4409
സർക്കാരിന്റെ	4410
സാമൂഹ്യ	4411
ക്കണം	4412
പേര്‍ക്കാണ്	4413
രമ	4414
ുക	4415
##തിൽ	4416
എതിര്‍	4417
പശ്ചാത്തലത്തില്‍	4418
ശക്തമായി	4419
കസ്റ്റഡിയ	4420
ഒക്കെ	4421
കടുവ	4422
ഗെയി	4423
താക്ക	4424
##ളയ	4425
##ഹാറ	4426
വന്നിരുന്നു	4427
ഉദ്ദേശ	4428
തുറന്ന്	4429
കൂട്ടിച്ചേർത്തു	4430
അട്ടി	4431
ക്കുന്നത്	4432
ലഭിച്ചു	4433
പഞ്ചാബ	4434
നേതാക്കളുടെ	4435
സോഷ്യൽ	4436
വ്യക്തമാക്കിയിരുന്നു	4437
ഞങ്ങളുടെ	4438
##ാസി	4439
##ര്‍ദ്ദ	4440
സംഘടിപ്പ	4441
ുവെന്നാണ്	4442
##ഴ്‌സ	4443
സമുദായ	4444
മാതൃക	4445
##െന്റ്	4446
##ക്കിൽ	4447
##ക്കാരുടെ	4448
സംഭ	4449
##്യമുള്ള	4450
കാപ്പ	4451
ഭൂമ	4452
മുൻപ്	4453
തിങ്കളാഴ്ച	4454
യിലൂടെ	4455
##ശങ്ക	4456
##ന്മ	4457
##ില്ലാത്ത	4458
പോയത്	4459
500	4460
പാത	4461
നടത്തും	4462
തേടി	4463
വ്യവസ്ഥ	4464
സ്റ്റേഷന	4465
ഭൂരിപക്ഷം	4466
51	4467
എഫ	4468
ത്ത്	4469
കാസർ	4470
##്യൂണി	4471
മമ്മ	4472
സൗജന്യ	4473
ഉത്തരവ്	4474
ഒള	4475
ചാ	4476
ലേക്ക്	4477
##ായില്ല	4478
##സ്‌ക്	4479
സുപ്രീംകോട	4480
കത്ത	4481
ശ്	4482
##ദാ	4483
നേട്ടം	4484
കളില	4485
##ഴിഞ്ഞ്	4486
ടെസ്റ്റ്	4487
വിവരങ്ങൾ	4488
ചൊവ്വാ	4489
സമര്‍പ്പ	4490
അത്യ	4491
നായിരുന്നു	4492
##ുകാർ	4493
സംസ്ഥാനങ്ങളില്‍	4494
ആലോച	4495
##ദണ്ഡ	4496
പ്രതിഫ	4497
മേഖലയിലെ	4498
2017	4499
യുവാവ	4500
ഒരാള	4501
മലയാളി	4502
ബാഗ	4503
##റിനെ	4504
ക്കി	4505
നിലയിൽ	4506
വുമ	4507
നല്‍കാന്‍	4508
നേതാക്കളും	4509
അഭിനന്ദ	4510
ആഗോള	4511
ബിരുദ	4512
എയർ	4513
പടി	4514
##തുവ	4515
സംഭവത്തിൽ	4516
പ്രവര്‍ത്തിക്കുന്ന	4517
തിരിച്ചറിയ	4518
മാനദണ്ഡ	4519
അക്കൗണ്ട	4520
##ളുപ്പ	4521
##ാന്റെ	4522
സാങ്കേ	4523
കൃഷി	4524
##രെയും	4525
##െത്തി	4526
##ൈന്‍	4527
##ൃതി	4528
ക്കാനാണ്	4529
സ്ഥലം	4530
സൗകര	4531
ബംഗാള	4532
വെളിപ്പെടുത്ത	4533
സിവ	4534
##‌നം	4535
തുടക്കം	4536
സ്റ്റാ	4537
വൻ	4538
##േഷനില്‍	4539
57	4540
##ാലയ	4541
##ിലേറെ	4542
നിയോഗ	4543
റ്റി	4544
തൃണമൂ	4545
##ത്തിനെതിരെ	4546
എന്നു	4547
വാങ്ങി	4548
താലൂ	4549
വേണുഗോപ	4550
##കുന്ന	4551
##രിപ്പിച്ച	4552
##വാഹ	4553
പ്രധാനമന്ത്ര	4554
ഉള്‍പ്പെടെയുള്ള	4555
സ്വർണ	4556
സാങ്കേതിക	4557
സീനിയ	4558
അധികാരം	4559
സിദ്ധ	4560
മത്സരം	4561
ഉറപ്പ്	4562
സാധ്യതയുണ്ട്	4563
വെല്ലുവിളി	4564
##പ്പടെ	4565
തിരിച്ച്	4566
വര്‍ദ്ധ	4567
##സ്റ്റർ	4568
##കോട്	4569
##ന്‍സി	4570
ജനങ്ങളെ	4571
മുന്നേറ്റ	4572
തൃക്ക	4573
എന്‍സി	4574
##ഷണല്‍	4575
##ഡോ	4576
കുവൈ	4577
നിലനില്‍	4578
മണ്ഡലത്തിൽ	4579
പെട്ടെന്ന്	4580
ഐസ	4581
ഡിവ	4582
വിഷ്ണ	4583
##ില്ലെന്ന	4584
##വ്വേ	4585
ഇടപ	4586
തിനു	4587
കര്‍ഷ	4588
നടപടികൾ	4589
പ്രകാര	4590
വോട്ടര്‍	4591
കൊല്ലപ്പെട്ട	4592
##ര്‍ത്ഥ	4593
##ിക്കാനും	4594
പ്രഖ്യാപനം	4595
ആഗ്രഹിക്കുന്ന	4596
അധ്യാപക	4597
ഡല്‍ഹി	4598
##ത്തോട്	4599
##ിക്കുമെന്നും	4600
##ങ്കില്‍	4601
##സ്ഥാന്‍	4602
അന്തി	4603
അനുവദിച്ച	4604
56	4605
ശ്രമിക്കുന്ന	4606
തോന്നിയ	4607
ഇസ്രായേ	4608
ഗവര്‍ണര്‍	4609
നന്ന	4610
കളക്ടര്‍	4611
കുറിപ്പ്	4612
##പ്പുറ	4613
നല്‍കിയിട്ടുണ്ട്	4614
പഞ്ചായത്ത	4615
ചൈനീസ്	4616
58	4617
കെഎസ്	4618
പിന്നില്‍	4619
##പ്പെടും	4620
രീതിയിൽ	4621
പാകിസ്ത	4622
കാനഡ	4623
ടീം	4624
ില്‍	4625
##ജ്യ	4626
##ൂരിൽ	4627
അറിയിച്ചിരുന്നു	4628
ില്ലെന്ന	4629
നല്‍കിയിരുന്നു	4630
##സാദ്	4631
വൈറല	4632
ബാക്കി	4633
തെറ്റി	4634
ചിലര്‍	4635
ച്ചു	4636
അങ്ങ	4637
വാര	4638
##ിലാ	4639
##ിയാഴ്ച	4640
പിടിയ	4641
പറയാന്‍	4642
ുണ്ടെന്നും	4643
ഉടൻ	4644
ഐക്യ	4645
##ക്രിയ	4646
കോടതിയെ	4647
##ക്കാരെ	4648
എന്തെങ്കിലും	4649
വരുത്ത	4650
ള്‍	4651
വിന്	4652
കാറ്റ	4653
##ുണ്ടെന്ന്	4654
ക്ലാസ്	4655
പങ്കുവെച്ച	4656
അരു	4657
##ീയം	4658
വാര്‍ഡ	4659
പശ്ചിമ	4660
തള	4661
##ിക്കെതിരെ	4662
കളി	4663
തിരുവനന്തപുരത്ത്	4664
മുഴുവൻ	4665
ഒമ്പ	4666
യുണ്ട്	4667
റീ	4668
##ജ്ര	4669
##ങ്ങാട്	4670
തുടര്‍ച്ച	4671
രംഗത്ത	4672
ഗം	4673
ബില്ല	4674
##റാഴ്ച	4675
##ക്രോ	4676
ബിജെപിയെ	4677
ബുധനാ	4678
തീയതി	4679
വാഗ്ദാനം	4680
ഞായറാഴ്ച	4681
##ാക്കണം	4682
ബെംഗളൂ	4683
പുതുതായി	4684
വര്‍ക്ക	4685
##വില്‍	4686
##ഞ്ജു	4687
വെടി	4688
പുറമേ	4689
പ്രവര്‍ത്തനം	4690
യോഗി	4691
സീറ്റില്‍	4692
പിടിച്ചു	4693
2023	4694
പാര്‍ട്ടിയുടെ	4695
പ്രവൃത്തി	4696
##കി	4697
##സ്മ	4698
53	4699
ദൗ	4700
യിലുള്ള	4701
ിട്ട്	4702
##മാക്കി	4703
നല്‍കുന്നത്	4704
രോഗമുക്തി	4705
ജസ്റ്റിസ്	4706
സിങ്	4707
വെള്ളിയാഴ്ച	4708
കൺ	4709
ക്കുമെന്നും	4710
കൊള്ള	4711
ന്ന്	4712
നിര്‍ബന്ധ	4713
സംസാരിച്ച	4714
ജില്ലകളിൽ	4715
കാവ	4716
കര്‍ശന	4717
ജഡ്	4718
##ഫോട	4719
അവധി	4720
തുല	4721
രാജ്യത്തിന്റെ	4722
അനുസരിച്ച്	4723
വിമത	4724
എന്‍ഡിഎ	4725
സര്‍വ്വ	4726
##്‌ള	4727
ചിന്തി	4728
ബാധിച്ച്	4729
##രാന്‍	4730
##ർദ്ദ	4731
കളിലെ	4732
പ്രോസിക്യ	4733
അവതരിപ്പ	4734
##േമ	4735
ക്കുമെന്ന്	4736
റെഡ്	4737
##പ്റ്റംബ	4738
രോഹി	4739
തങ്ങള്‍	4740
##ട്ടും	4741
ക്കോ	4742
##രിക്കണം	4743
പരിഗണന	4744
പൗരത്വ	4745
നോട്ടീസ്	4746
ടൂറിസം	4747
##ായ്മ	4748
##ംഗലം	4749
വിൽ	4750
പ്രകടിപ്പ	4751
തുറന്നു	4752
അഭിപ്രായം	4753
പങ്കെടുത്തു	4754
ഏപ്രില്‍	4755
ബ്ലോക്ക്	4756
##ുണ്ടെന്നും	4757
മോഡ	4758
വിളിച്ചു	4759
##ഷണം	4760
വ്യാപനം	4761
വായ്പ	4762
ഒരേ	4763
നന്ദി	4764
രാശിക്കാര്‍ക്ക്	4765
ഏഴ	4766
##ൊപ്പ	4767
##ൻഡ്	4768
ചെയ്യുക	4769
സേവ	4770
ശനിയാഴ്ച	4771
വനം	4772
##ക്കൾ	4773
നടക്കും	4774
കടന്നു	4775
പ്പെട്ട	4776
കരി	4777
മൗ	4778
പ്രാധ	4779
കൊണ്ടുവന്ന	4780
തിനാൽ	4781
ആന്റണി	4782
ഡിവൈ	4783
##ടിച്ച്	4784
അതിൽ	4785
2024	4786
പൊലിസ്	4787
അസം	4788
ബസ	4789
##ശു	4790
##ഞ്ഞാറ	4791
##ിനോ	4792
സിബിഐ	4793
പഞ്ചാബ്	4794
ഗാന്ധിയുടെ	4795
മേല്‍	4796
മോശം	4797
നിർദേശ	4798
തലത്തില്‍	4799
അയ്യ	4800
ശരീര	4801
പച്ച	4802
കാണുന്നത്	4803
##ഷ്യല്‍	4804
സ്ഥലത്ത്	4805
കാസര്‍ഗോഡ്	4806
പ്രകടനം	4807
ഗൗര	4808
ഫു	4809
##റ്റീവ	4810
നടന്നു	4811
ഇറങ്ങിയ	4812
##ിട്ടുള്ള	4813
സാഹചര്യത്തിലാണ്	4814
രാശി	4815
പ്ലാ	4816
സംഗ	4817
##രിക്കാൻ	4818
സമ്പര്‍ക്കം	4819
59	4820
ഏഷ്യ	4821
##തിനിടെ	4822
സംവ	4823
ലൈംഗ	4824
സ്ത്രീകള്‍	4825
വിതരണ	4826
അഴ	4827
അസ	4828
തർക്ക	4829
വേറെ	4830
പ്രഖ്യാപിച്ചു	4831
വകുപ്പിന്റെ	4832
ന്യൂനപക്ഷ	4833
ഏർ	4834
പാറ	4835
മടങ്ങ	4836
സങ്ക	4837
##വരെ	4838
വെറു	4839
ജനങ്ങൾ	4840
വരെയാണ്	4841
ട്രംപ	4842
കയറിയ	4843
വിമര്‍ശനം	4844
റാവ	4845
##പര്യ	4846
ഉപേക്ഷ	4847
ഭക്ഷ്യ	4848
വ്യവസായ	4849
ശാ	4850
##നോ	4851
സ്ഥി	4852
കളുമായി	4853
സെപ്റ്റംബ	4854
##ാറുണ്ട്	4855
തിനുള്ള	4856
ഉൾപ്പെടെയുള്ള	4857
ഇലക്ട്ര	4858
സൂപ്പര്‍	4859
68	4860
അസോ	4861
ടീ	4862
##രിക്കുകയാണ്	4863
നേതൃത്വത്തിലുള്ള	4864
നിയന്ത്രണം	4865
ഇസ്	4866
ിട	4867
##ിറ	4868
മേഖലയിൽ	4869
രക്ഷാ	4870
ട്വീറ്റ്	4871
സൂചിപ്പ	4872
നിർത്ത	4873
ഇന്ത്യയിൽ	4874
##വേഷണ	4875
ദിവസത്തെ	4876
ഹൈദ	4877
##സ്പ്ര	4878
വാഹനം	4879
മല്‍സ	4880
കേള്‍	4881
ഉയർത്ത	4882
##ത്തിനു	4883
വിശദീകരണം	4884
പുരുഷ	4885
കിര	4886
മ്പ	4887
##ക്സ്	4888
കണ്ടത്	4889
എട്ട	4890
വർദ്ധ	4891
പാർല	4892
നോക്കി	4893
ഹര്‍ജി	4894
##കളിലും	4895
പരിശോധനയ്ക്ക്	4896
മന്ത്രാലയ	4897
ശശി	4898
വെട്ട	4899
വ്യക്തമായ	4900
ഗോവ	4901
വിമർശന	4902
വരുമാനം	4903
##ാസം	4904
രാഷ്ട്രീയം	4905
സമ്മാനം	4906
മോദിയുടെ	4907
ക്കുറിച്ച	4908
ഭേദഗതി	4909
ഓട്ട	4910
ശര	4911
##മാണെന്ന്	4912
ഒരുക്കിയ	4913
എസ്‌	4914
അഭിമാന	4915
സ്വര്‍ണം	4916
##ിമിന	4917
എങ്കിലും	4918
##എസ്പി	4919
തിനായി	4920
ക്യാപ്റ്റ	4921
വ്യക്തമാക്കിയത്	4922
ഫൈ	4923
##വറ	4924
##ക്ട്	4925
കുള	4926
പങ്കാള	4927
##ീകരിക്കുന്ന	4928
സര്‍വീസ്	4929
തനിക്ക	4930
രാജസ്ഥാന	4931
മണിക്കുട്ട	4932
കണക്കിലെ	4933
നിൽക്ക	4934
സ്വപ്‌ന	4935
##ീൻ	4936
##ഭോ	4937
സിദ്ദ	4938
അതാണ്	4939
കാര്യമാണ്	4940
##കാര്യം	4941
ബാധിച്ചത്	4942
ചര്‍ച്ചകള്‍	4943
ഒരാൾ	4944
പൂർണ	4945
മകന്‍	4946
ഇത്തരമൊരു	4947
അസോസിയ	4948
കക്ഷ	4949
മുദ്ര	4950
കുടിയ	4951
പൊളി	4952
##ർശന	4953
##ാവശ	4954
തിരഞ്ഞെടുക്ക	4955
##്യൂട്ട	4956
ഏറ്റെടുത്ത	4957
ഉയര്‍ത്ത	4958
രണ്ടാമത്തെ	4959
ക്രൂര	4960
ടെക്	4961
തോടെയാണ്	4962
ഗൂഢ	4963
ഇപ്പോഴത്തെ	4964
ആക്ഷേപ	4965
ക്കുകയാണ്	4966
##പരമായി	4967
കമ്മീഷന്‍	4968
കച്ച	4969
ദ്	4970
വു	4971
വില്ല	4972
##ഗി	4973
##ക്കൂ	4974
ക്കാമ	4975
ദിവസവും	4976
നോക്കിയ	4977
ബോർ	4978
ആദ്യത്തെ	4979
##ലൈന്‍	4980
അന്തിമ	4981
ആധ	4982
ടിക്കറ്റ	4983
ിനെ	4984
##വന്‍	4985
##സ്‌പെ	4986
##ക്കാലിക	4987
സീസണ	4988
അശോ	4989
ദീപ	4990
രാജ്യസഭ	4991
ത്തിനുള്ള	4992
ഫിറോസ്	4993
ലൈംഗിക	4994
സ്നേഹ	4995
നിതീഷ്	4996
അവര	4997
പൂജ	4998
അല്ലെങ്കില്‍	4999
എളുപ്പ	5000
യേയും	5001
##ാവശ്യ	5002
ചിത്രങ്ങള്‍	5003
....	5004
അമേരിക്കന്‍	5005
ഡൽഹി	5006
കര്‍ഷകര്‍	5007
അപ്പ	5008
ക്രിമിന	5009
മണിയോടെ	5010
തടസ്സ	5011
തരത്തിലുള്ള	5012
സര്‍ക്കാരിന്	5013
പാര്‍ട്ടിയില്‍	5014
മറുപടിയ	5015
ഇയാൾ	5016
അതുപോലെ	5017
ആള്‍	5018
##ളും	5019
##ലിനെ	5020
##ര്‍ജി	5021
ന്നു	5022
തൃശ്ശ	5023
ഇതിനായി	5024
ഉന്നയിച്ച	5025
എനിക്ക	5026
##മറി	5027
##േഡ്	5028
ക്കണമെന്നും	5029
ഇറങ്ങ	5030
ഭാരത്	5031
വാര്‍ഡ്	5032
ജാതി	5033
മണിക്ക്	5034
താല്‍പര	5035
##തായും	5036
##മുളള	5037
ത്തിൻ്റെ	5038
സമാനമായ	5039
ആയുധ	5040
അസിസ്റ്റന്റ്	5041
in	5042
മൃ	5043
ആരോ	5044
ങ്ങളില	5045
ഭരണഘടന	5046
തൊഴിൽ	5047
എഐ	5048
ഓപ്പറ	5049
ഗവർ	5050
##ലുകള്‍	5051
വലിയൊരു	5052
##ട്രോ	5053
പദവ	5054
വിനോദ	5055
##ക്കടത്ത്	5056
ബിസിനസ്	5057
മാരുടെ	5058
യുപ	5059
നടത്താന്‍	5060
ഫോൺ	5061
വൈകീ	5062
സുരേന്ദ്രൻ	5063
നല്‍കും	5064
മണിപ്പ	5065
വിശേഷ	5066
വ്യാപന	5067
കരുതുന്നത്	5068
മോഹന്‍ല	5069
ഇന്ധ	5070
മതി	5071
##ൂട്ട്	5072
##ന്നൂര്‍	5073
നിയന്ത്	5074
##ക്‌സി	5075
പരസ്യ	5076
വേണ്ടിയാണ്	5077
കൈകാര്യം	5078
ന്യായ	5079
##ാക്കര	5080
യാഥ	5081
സര്‍ട്ടിഫ	5082
ശിവസേന	5083
##വഹ	5084
##ിവേ	5085
ത്തും	5086
സൗദ	5087
പ്രശ്‌നം	5088
മൊത്തം	5089
ച്ച്	5090
ക്ലാസ	5091
പാവ	5092
##തവും	5093
##ുപേ	5094
##ിരുന്നില്ല	5095
പുരുഷന്‍	5096
അപ്രതീക്ഷ	5097
കാലയളവ	5098
##ൊരാ	5099
പരിശോധനാ	5100
ദുരി	5101
ആര്‍എസ്	5102
കമല്‍	5103
ധനമന്ത്രി	5104
താണെന്ന്	5105
##ോഹ	5106
##ക്ഷോഭ	5107
അവർക്ക്	5108
##തിനാല്‍	5109
കെട്ട	5110
ഭാവ	5111
##നിധി	5112
തോല്‍	5113
നൽകിയത്	5114
സർവ്വ	5115
ബാലചന്ദ്ര	5116
കേന്ദ്രസർക്ക	5117
അധി	5118
എസ്പി	5119
ലാല	5120
ിച്ച	5121
##പറ	5122
സീറ്റുകള	5123
ഇറക്ക	5124
ശമ്പള	5125
കറ	5126
##ണർ	5127
കാരണമ	5128
സാധന	5129
സെക്ക	5130
പരിശോധിച്ച	5131
കയറ	5132
ഡെപ	5133
താമസിക്കുന്ന	5134
ആഹ	5135
##മാക്കിയ	5136
##ായിര	5137
പ്രതികരിച്ചത്	5138
തൃക്കാക്കര	5139
കൈയ്യ	5140
ബിജെപിയില്‍	5141
പട്ടികയില്‍	5142
ചുരു	5143
സച്ചിന്‍	5144
ചൊവ്വാഴ്ച	5145
തിക	5146
##ാകില്ല	5147
കെസി	5148
ജോല	5149
കോടതിയിൽ	5150
പൊതുജന	5151
പരാമർശ	5152
ാക	5153
മാതാ	5154
രാധ	5155
തെലങ്ക	5156
സംഘടനാ	5157
##ുണ്ടാ	5158
കാണാം	5159
സഹി	5160
മെച്ച	5161
യൂണിയ	5162
വരുമ്പ	5163
##ാലിറ്റി	5164
##തുണ്ട്	5165
ക്കാം	5166
കുടി	5167
കഴിവ	5168
ഘട്ടത്തില്‍	5169
തെലങ്കാന	5170
അബു	5171
ഐപിഎ	5172
##പഞ്ച	5173
##വു	5174
അനില്‍	5175
ചെയ്തിട്ട	5176
പെൺകുട്ട	5177
ശബ്ദ	5178
62	5179
ഓഗ	5180
പയ്യ	5181
##വായ	5182
യുപി	5183
കേസുകൾ	5184
വിജയൻ	5185
കോർപ്പറ	5186
##ജ്രിവ	5187
##ഭോക്ത	5188
##ർഷ	5189
##ൗണ്ട്	5190
##ദ്മി	5191
തുടർന്ന	5192
പൊള	5193
മേൽ	5194
സൗഹൃ	5195
അതോറി	5196
പത്രിക	5197
ിന്	5198
##സിലെ	5199
##ക്കായി	5200
കൊട്ട	5201
##ത്തിയത്	5202
പ്രതികരിച്ച	5203
വിദ്യാര്‍ഥ	5204
പെണ്‍കുട്ടി	5205
കഴിഞ്ഞ്	5206
മക്കള	5207
##ൂപ	5208
##ന്നെ	5209
##ാന്‍സ്	5210
##സംഖ്യ	5211
ില്ലെങ്കില്‍	5212
കാലാവധി	5213
നേടിയത്	5214
69	5215
അദ	5216
##രിക്കുക	5217
##ാക്കൾ	5218
##വകുപ്പ്	5219
##ുടേയും	5220
##ുകൂ	5221
അതൃ	5222
##ഡിപി	5223
പദ്ധതിയുടെ	5224
വിഷയത്തിൽ	5225
ഉണ്ണ	5226
എഞ്ച	5227
ജമ്മ	5228
നെടു	5229
##മിന	5230
കൊവിഡ	5231
##േഷ്യ	5232
സാം	5233
ഇതര	5234
##ീകരിച്ചു	5235
മിഥ	5236
തുടങ്ങിയവ	5237
സര്‍വേ	5238
കയറ്റ	5239
ആത്മവി	5240
കിലോ	5241
തുടരുകയാണ്	5242
വീഴ്ച	5243
വരെയും	5244
ദിവസങ്ങളില്‍	5245
ജു	5246
##റ്റിൽ	5247
ആയിരുന്ന	5248
ക്ഷേമ	5249
എന്നിവിടങ്ങളില്‍	5250
പ്രണയ	5251
ബുധനാഴ്ച	5252
63	5253
ഡ്	5254
സില്‍	5255
##ിനാണ്	5256
തിരഞ്ഞ	5257
നിർമ	5258
പ്രഖ്യാപിച്ചത്	5259
ഒടുവില്‍	5260
താൽ	5261
മദ	5262
##ധു	5263
##രാക	5264
##ഴ്സ	5265
കൈമാറ	5266
##ന്യം	5267
പ്രതികളെ	5268
ഇതിലൂടെ	5269
പള്ളി	5270
അതിജീവി	5271
അംഗം	5272
നാലു	5273
അഭിനയ	5274
പീഡന	5275
",	5276
64	5277
72	5278
താണെന്നും	5279
##ത്തുള്ള	5280
കാഞ്ഞ	5281
ഭാഗമായ	5282
മുന്‍പ്	5283
കരുതിയ	5284
പറയുന്നുണ്ട്	5285
കാര്‍ഷിക	5286
വ്യാഴാഴ്ച	5287
##തെന്നാണ്	5288
##ജിത്ത്	5289
നിരക്ക	5290
വര്‍ഷത്തെ	5291
##െയിന്‍	5292
##നാട്ടില്‍	5293
ഗുജറാത്ത്	5294
എഡി	5295
ഒമ	5296
##സ്ഥിതി	5297
##ുവിന്	5298
കെജ്രിവ	5299
ട്ടാണ്	5300
വൃത്ത	5301
ഇന്നും	5302
ഗൗ	5303
ശശ	5304
ആളുകളെ	5305
മുന്നറിയിപ്പ	5306
ഇഡി	5307
##ാവകാശ	5308
##ിപ്പിച്ചത്	5309
കുറയ്ക്ക	5310
റ്റ്	5311
സൈന്യ	5312
കത്ത്	5313
##ിംഗ്	5314
##തന	5315
കോവിഡ	5316
##ങ്ങളിലേക്ക്	5317
മത്സരാ	5318
പോകാന്‍	5319
കോൺഗ്രസിന്	5320
തിരുവനന്തപുര	5321
ചെയ്തിരിക്കുന്നത്	5322
തിരച്ച	5323
##പ്രവർത്ത	5324
##ലിക	5325
##ീണ	5326
തുടരുന്ന	5327
ഉണ്ടായത്	5328
##യോഗം	5329
പ്രവർത്തിക്കുന്ന	5330
ബഹുമ	5331
ഇദ്ദേഹം	5332
സ്ട്ര	5333
##റാം	5334
നടന്‍	5335
പരിധ	5336
രാജീവ്	5337
##ുമായും	5338
ദിലീപിന്റെ	5339
മുല്ലപ്പള്ളി	5340
ഏജൻ	5341
വക്ത	5342
##യല്‍	5343
സ്ഥാനത്തേക്ക്	5344
ുണ്ടെന്ന്	5345
നമ്മൾ	5346
അഞ്ചു	5347
കൈമാറിയ	5348
ഹരി	5349
##മാക	5350
##വര	5351
##ിക്കൽ	5352
ത്തോട്	5353
സംസാരിക്കുകയായിരുന്നു	5354
ആരെ	5355
##റിലെ	5356
##ുകളിലെ	5357
ഗുണം	5358
റോബി	5359
ആശുപത്രിയിലെ	5360
ജീവിതത്തില്‍	5361
ദൃശ്യങ്ങള്‍	5362
ഒട്ടേറെ	5363
ഗതാഗത	5364
ഓഹരി	5365
യോടെ	5366
സിന്റെ	5367
##ന്ദ്	5368
പ്രസിദ്ധ	5369
അടിച്ച	5370
ഇത്തരത്തില്‍	5371
യുഡിഎഫിന്	5372
ഭിന്ന	5373
നാരായ	5374
സല	5375
മാര്‍ക്ക	5376
എന്തായാലും	5377
ിട്ടില്ലെന്നും	5378
ജൂൺ	5379
റെയിൽ	5380
ഇന്ധന	5381
##ാംഗ	5382
##കീയ	5383
ത്തിന്‍റെ	5384
ട്രാ	5385
പദ്ധതിയ	5386
##ത്തിലായിരുന്നു	5387
ആവശ്യപ്പെട്ടിരുന്നു	5388
വയ്ക്ക	5389
##ങ്കിൽ	5390
ഒരുമിച്ച്	5391
ങ്ങളിലും	5392
പരസ്പ	5393
തൊട്ട	5394
തൊഴിലാളി	5395
ഇയാളെ	5396
ട്രെയിന	5397
67	5398
റെയ്	5399
കൊടു	5400
വെള	5401
തുടങ്ങിയത്	5402
വിമാനം	5403
സർട്ടിഫ	5404
എടുത്തു	5405
സംശയം	5406
പിടിച്ച്	5407
രംഗത്തെത്തിയിരുന്നു	5408
ഞ്ഞ	5409
കിഴക്ക	5410
ഗൂഢാലോചന	5411
ധാര	5412
##യുണ്ട്	5413
##പത്	5414
##ില്ലാതെ	5415
രോഗികളുടെ	5416
കഴിയും	5417
ഉറവിട	5418
തിരക്ക	5419
ദളി	5420
നാവ	5421
##ൊന്ന്	5422
##ാളം	5423
ജോലിയ	5424
സംഘപരി	5425
അതിനാല്‍	5426
തകര്‍ന്ന	5427
കരാര്‍	5428
ചിന്ത	5429
തൃണമൂല്‍	5430
ുമായി	5431
സ്വാ	5432
പുഴ	5433
യോഗത്തിൽ	5434
ഗ്രാമപഞ്ച	5435
പ്രവർത്തകർ	5436
##ഭാവിക	5437
ലോക്ക്ഡ	5438
പിതാവ്	5439
കച്ചവ	5440
66	5441
ഓളം	5442
##ന്തരം	5443
ആശ്ര	5444
വിദേശത്ത്	5445
പിടികൂടിയ	5446
എടുത്ത്	5447
ണം	5448
ലഹരി	5449
##ാടു	5450
##ാശ്	5451
പ്രക്ഷോഭ	5452
##ിക്കാത്ത	5453
##ക്ഷന്‍	5454
ന്യൂസ്	5455
റിപ്പോര്‍ട്ടില്‍	5456
അധികൃതർ	5457
മയക്ക	5458
##ൽപ്പ	5459
##ബോധ	5460
##ാനിരിക്കുന്ന	5461
വ്യക്തമല്ല	5462
തലസ്ഥാന	5463
ഡോക്ടർ	5464
പ്രഖ്യാപന	5465
വര്‍ധന	5466
ജോസഫ	5467
സമ്പര്‍ക്കത്തിലൂടെ	5468
ത്രി	5469
ലോക്സഭ	5470
നിമിഷ	5471
എതിര	5472
ക്കുമ്പോള്‍	5473
##ാർക്ക്	5474
എംപ	5475
##പ്പോഴാണ്	5476
പരാതിയില്‍	5477
ട്ടി	5478
ജോര്‍ജ	5479
ഇസ്രായേല്‍	5480
77	5481
##റുടെ	5482
നിങ്ങള്‍ക്ക്	5483
##രാബ	5484
സീറ്റുകൾ	5485
നേതാവും	5486
അടിസ്ഥാനത്തില്‍	5487
ഫേസ്ബുക്കില്‍	5488
ഇസ്ല	5489
74	5490
മരുന്ന	5491
വർക്ക	5492
ിൽ	5493
##ൊഴ	5494
വിലയിരുത്തല്‍	5495
സാധിക്കില്ല	5496
ക്കണമെന്ന്	5497
##ുവെന്നും	5498
##ുകയാണെന്നും	5499
198	5500
ക്കെതിരായ	5501
വെല്ലുവിള	5502
അനി	5503
ആദിത്യ	5504
കും	5505
നാണ	5506
##ണല്‍	5507
ഡിവി	5508
കൊണ്ടിരിക്കുകയാണ്	5509
അധ്യക്ഷൻ	5510
നിറഞ്ഞ	5511
ഡെപ്യൂട്ടി	5512
വെയ്	5513
ൊരു	5514
##ൈസ്	5515
##മായത്	5516
##വേദ	5517
ന്‍റെ	5518
എഴുതിയ	5519
വിഷ്ണു	5520
ആസൂ	5521
ഐടി	5522
##വിരുദ്ധ	5523
##ാലാണ്	5524
##യിച്ച്	5525
പ്രഖ്യാ	5526
ലക്ഷ്യമിട	5527
ബജറ്റ്	5528
ഗള്‍	5529
മതിയ	5530
വല്ല	5531
##െണ്ണ	5532
##ത്തിനെ	5533
##ിക്കാനാണ്	5534
പൊട്ടി	5535
സംഘര്‍ഷ	5536
പെട	5537
മാധ്യമങ്ങള്‍	5538
ഒഴിവാക്ക	5539
ഫ്ല	5540
ബഹി	5541
െടുക്ക	5542
##ിയുമായി	5543
വീഴ	5544
പൊതുമ	5545
##കൾക്ക്	5546
യുവാവ്	5547
പിടിച്ചെടുത്ത	5548
ഹൈദരാബ	5549
നാഗ	5550
ഹരിയ	5551
അത്തരം	5552
ഏജന്‍സ	5553
ഉരു	5554
ഓൺ	5555
ൻ്	5556
##എന്‍	5557
##ങ്ങളിലായി	5558
വെക്ക	5559
എന്നിവരുടെ	5560
##ംബ്രാ	5561
മാർച്ച്	5562
##ഫ്രിക്ക	5563
ഗി	5564
##ായു	5565
##ല്‍ഹ	5566
##ങ്ങളുമായി	5567
യുടെയും	5568
ചികിത്സയിലുള്ള	5569
ക്യാമറ	5570
ക്രൈംബ്രാ	5571
ക്രിസ്	5572
വടകര	5573
അലി	5574
പിയുടെ	5575
മട്ട	5576
‍റെ	5577
##ീൽ	5578
##ചാര	5579
##ഹ്‌	5580
##ിലായിരുന്നു	5581
പാലാ	5582
ആയിര	5583
രംഗത്തെത്തി	5584
ബാധിത	5585
ഏര്‍പ്പെടുത്തിയ	5586
രോഗബാധി	5587
ഡീസ	5588
ശങ്ക	5589
സയ	5590
##താര	5591
പത	5592
വന	5593
##സെ	5594
##േലിയ	5595
അതായത്	5596
യുടേയും	5597
##റ്റിക്	5598
##ികളിൽ	5599
ഏറ്റെടുക്ക	5600
##ബ്ലിക്	5601
മുരളീധരന്‍	5602
ഓണ്‍ലൈന്‍	5603
ന്യൂഡല്‍ഹി	5604
രം	5605
ക്കുമെന്നാണ്	5606
എന്നിവയാണ്	5607
ത്തിനെതിരെ	5608
വോട്ടു	5609
ജയിലില്‍	5610
മൊബൈല്‍	5611
നൂറ	5612
പ്രതികള്‍	5613
പ്രതിദിന	5614
അറിയില്ല	5615
ലോകക	5616
ഗോവിന്	5617
ലൈസ	5618
മധ്യപ്രദേശ	5619
നിർദ്ദേശം	5620
തീവ്രവാദ	5621
സന്ദേശ	5622
ആന്ധ	5623
ഞാന	5624
നാം	5625
നോട്	5626
രക്ത	5627
നിങ്ങളെ	5628
ലക്ഷണ	5629
സ്‌പെ	5630
2014	5631
നഷ്ടപ്പെട്ട	5632
പ്രവേശനം	5633
വിദേശകാര്യ	5634
അപകടം	5635
പാടില്ല	5636
വസ	5637
##ുമായിരുന്നു	5638
##െയില്‍	5639
##രാഗ	5640
സമർപ്പ	5641
ബിജെപിയും	5642
സൈന്യം	5643
ിലേക്ക്	5644
നമ്പര്‍	5645
തള്ളിയ	5646
ബുദ്ധിമുട്ട	5647
##ാരെ	5648
##ാരും	5649
കാണിച്ച	5650
ട്ട്	5651
മടങ്ങിയ	5652
ഇംഗ്ല	5653
ഓണ	5654
പാര	5655
ഫ്‌ള	5656
കൂട്ടി	5657
പലപ്പോഴും	5658
ഉപയോഗിക്കുന്ന	5659
പ്രത്യേകം	5660
ഷാജി	5661
ദുബായ്	5662
ഗൗരവ	5663
മത്സരാർത്ഥ	5664
99	5665
വീതവും	5666
വെട്ടി	5667
തീരുമാനമ	5668
തീരുമാനിച്ചത്	5669
അല്ലെങ്കിൽ	5670
സ്ഥാനാര്‍ഥി	5671
##ഡെ	5672
##ണോ	5673
##ക്കണക്കിന്	5674
##ാണുള്ളത്	5675
വിഭ	5676
തുടര	5677
ഇടയ	5678
ചേർന്ന്	5679
സ്‌ക	5680
##സാധ	5681
നാട്ടിലെ	5682
രാമചന്ദ്ര	5683
വരികയാണ്	5684
ജോർജ്	5685
മറികട	5686
പ്രോസിക്യൂ	5687
ആന്റ്	5688
വുമാണ്	5689
ിറ	5690
##ലാണ്	5691
പ്രയ	5692
##രുത	5693
##ുകെ	5694
മുൻപ	5695
മായിരിക്കും	5696
ജമ്മു	5697
പൊട്ട	5698
അറിയിച്ചിട്ടുണ്ട്	5699
കുറവ്	5700
സ്വാധീ	5701
യാദവ്	5702
##ല്ലി	5703
##വിറ്റി	5704
ഉത്തർ	5705
മുന്‍ക	5706
തൃശൂർ	5707
വാങ്ങുന്ന	5708
തട്ടിപ്പ	5709
കേന്ദ്രസര്‍ക്ക	5710
ഇടപാട	5711
പാസ്	5712
രേ	5713
##ോഗ്ര	5714
ജനത	5715
എന്നിവർ	5716
ഭാഗം	5717
സ്‌പ	5718
കമ്മ്യൂണി	5719
എത്തുന്നത്	5720
പൂര്‍ണമായും	5721
എൽഡിഎഫ്	5722
സഞ്ജ	5723
##ിയിലും	5724
ഇടം	5725
ലോകത്തെ	5726
ശ്രദ്ധേയ	5727
വൈകുന്ന	5728
ഇരട്ട	5729
പരസ്യമായി	5730
ഭർത്ത	5731
##ിക്കര	5732
സംസ്ഥാനം	5733
##ഷ്ഠ	5734
വിവേ	5735
കോണ്‍ഗ്രസും	5736
ശിവശങ്ക	5737
പൂർണ്ണ	5738
പാർട്ടിയുടെ	5739
ചെയ്‌ത	5740
സുപ്രീംകോടതി	5741
പന	5742
##ര്‍ത്ത്	5743
ചെയര്‍മ	5744
##വാള	5745
##മായിരിക്കും	5746
മെന്റ	5747
വീട്ടിലേക്ക്	5748
സമീപം	5749
##ിലേക്കാണ്	5750
അതിജീവിത	5751
ചെയര്‍മാന്‍	5752
85	5753
##റാണ്	5754
##ുമുണ്ട്	5755
##ിനായി	5756
രൂപം	5757
വിജില	5758
ഫോര്‍	5759
വിശദമായ	5760
സ്‌കൂള്‍	5761
സംരക്ഷണ	5762
ഇന്റര്‍	5763
##ക്കൊള്ള	5764
##ഗം	5765
##ുല	5766
##ദ്ദി	5767
##തിനുള്ള	5768
ചെയ്യുകയും	5769
പുറത്തിറക്കിയ	5770
റെയില്‍വേ	5771
78	5772
ആന്‍ഡ്	5773
ഡാറ്റ	5774
പത്മ	5775
സജി	5776
തുടർച്ച	5777
നേതൃത്വത്തിൽ	5778
മണ്ഡലത്തിലെ	5779
നിൽക്കുന്ന	5780
ബോധ്യ	5781
ഡയറക്ടര്‍	5782
റൂമ	5783
സുഹൃത്തുക്കള	5784
മുന്നോട്ടു	5785
നന്നായി	5786
ഗ്രാമപഞ്ചായ	5787
നാമ	5788
രെ	5789
ഉണ്ടാക്കിയ	5790
നിരന്തരം	5791
##ക്കെട്ട	5792
അവസാനിപ്പ	5793
കുട്ടികള്‍	5794
പഠനം	5795
ചുറ്റ	5796
കൗണ്‍സില	5797
ഹരിയാന	5798
മാത്യ	5799
പറമ്പ	5800
ഇതെല്ലാം	5801
മുഖം	5802
##പുല	5803
നൽകാൻ	5804
തീരുമാനിച്ചു	5805
##ക്കിടെ	5806
##ക്കുറി	5807
വിഭാഗത്തില്‍	5808
എറണാകുള	5809
ആരാധക	5810
എപ്പോഴും	5811
ചര	5812
താന	5813
സന്ന	5814
##ഹ്മ	5815
പ്രതിയെ	5816
രാത്ര	5817
##ന്ദര്‍	5818
സര്‍ക്കാരിനെ	5819
ജീവനക്കാര്‍	5820
സതീശന്‍	5821
ബാക്കിയ	5822
##ജെഡി	5823
സ്റ്റോ	5824
വ്യാപാര	5825
വാര്‍ത്തകള്‍	5826
നിയന്ത്രണങ്ങള്‍	5827
തെറ്റായ	5828
സ്വാധീനം	5829
മാപ്പ്	5830
##ഫ്റ്റ്	5831
കോണ്‍ഗ്രസിനെ	5832
കൂടിയായ	5833
മോഹൻ	5834
തട്ടിപ്പ്	5835
കോടിയേരി	5836
മിഥു	5837
ുന്ന	5838
ുമാണ്	5839
##ലജ	5840
##ാന്യ	5841
##‌ഐ	5842
##ഹ്ല	5843
##സ്വാ	5844
സ്വാഗ	5845
കാണാത	5846
മത്സരിപ്പ	5847
ആണെന്ന്	5848
സൗകര്യം	5849
61	5850
കടക്ക	5851
യാവ	5852
##ക്സി	5853
##രുതെന്ന്	5854
ക്കാര്‍	5855
തുടരും	5856
മുന്നോ	5857
ഇവരില്‍	5858
##സിക്യൂട്ട	5859
ഉത്	5860
കാമ	5861
കേരളത്തിന്	5862
താങ്ക	5863
ടെക്‌	5864
അടിസ്ഥാനത്തിലാണ്	5865
കമന്റ	5866
പോരാട്ടം	5867
മില്ലാത്ത	5868
നായക	5869
യായിരുന്ന	5870
വിന്റെ	5871
##േത	5872
##എല്‍	5873
##ണ്ടു	5874
##്മെന്റ്	5875
തുടരു	5876
എന്നിവരെ	5877
ഇതോടെയാണ്	5878
##ാതിരുന്ന	5879
അത്തര	5880
ഗുരുതരമായ	5881
വയസ്സുള്ള	5882
എന്തിനാണ്	5883
##കക്ഷി	5884
##ന്‍റ്	5885
നിങ്ങൾക്ക്	5886
ക്കല്‍	5887
##യ്‌	5888
ആക്രമിച്ച	5889
ാണെന്ന്	5890
ശതമാനവും	5891
വേഗത	5892
കോര്‍പ്പറേഷന്‍	5893
ബല	5894
##ൗണ	5895
യുടേ	5896
ജനകീയ	5897
സംഭാവന	5898
അയാള	5899
അപ്പോള്‍	5900
ആസ്ഥാന	5901
ചാല	5902
ഡല്‍ഹ	5903
##വരാണ്	5904
പുസ്ത	5905
നിന്നെത്തിയ	5906
ക്രൂ	5907
ബ്രാ	5908
നാട്ടുകാര്‍	5909
പാര്‍ലമെന്റ	5910
300	5911
ഖാന്‍	5912
ദശ	5913
##ിയുമായ	5914
മുട്ട	5915
ഒരുങ്ങ	5916
കാരന്‍	5917
കെകെ	5918
പ്രധാനപ്പെട്ട	5919
സ്റ്റേ	5920
സാഹചര	5921
ആരംഭിച്ചത്	5922
##ഷണൽ	5923
ചൂണ്ടിക്കാട്ട	5924
##തുമുന്ന	5925
കാര്യമായ	5926
റിപ്പോർട്ടുകൾ	5927
സുരക്ഷിത	5928
രഹസ്യ	5929
അന്‍	5930
‌സ്	5931
##േശ്വ	5932
##ക്കൂട്ട	5933
പ്രവാസി	5934
ഡിസിസി	5935
ഇടതുമുന്ന	5936
സ്വദേശികളായ	5937
മറ്റും	5938
പ്രദേശത്ത്	5939
##ഗണന	5940
സഹിതം	5941
കക്ഷി	5942
##ചേ	5943
##പ്പെടുവ	5944
പുറപ്പെടുവ	5945
എന്നിവര	5946
എന്നിവരും	5947
ശ്രീന	5948
താരതമ	5949
കൊലപ്പെടുത്തിയ	5950
നേട്ടങ്ങള്‍	5951
പ്രവർത്തനങ്ങൾ	5952
മാതാപിത	5953
മയക്കുമ	5954
73	5955
##നീ	5956
##ണ്യ	5957
##ൗൺ	5958
##െയർ	5959
##സ്ഥത	5960
ില്ലെന്നാണ്	5961
##േറ്റര്‍	5962
താഴ്	5963
##ഴ്‌സി	5964
കുറ്റം	5965
വൈകിട്ട്	5966
പോലീസിന്	5967
നേരിടേണ്ടി	5968
വർധന	5969
സ്കൂള	5970
ഡിജിറ്റ	5971
രാധാക	5972
അങ്ക	5973
ശര്‍മ	5974
##െടുക്കുന്ന	5975
നിർബന്ധ	5976
പിന്തുട	5977
##മാരായ	5978
സര്‍വീസ	5979
അമരീ	5980
ഇരി	5981
ഗ്ല	5982
ക്കൂ	5983
ജെഡിയ	5984
മലയാളം	5985
പുനഃ	5986
എഴുതി	5987
ഇരിക്ക	5988
ഓടി	5989
ചുവ	5990
മരുന്ന്	5991
##ബാ	5992
മാക്ക	5993
സംയു	5994
പ്രതീക്ഷിച്ച	5995
കള്‍ക്ക്	5996
ബാലകൃഷ്ണ	5997
വർഷത്തെ	5998
കായിക	5999
വുമായ	6000
##ിക്കാതെ	6001
ങ്ങളുമായി	6002
രാജ്യങ്ങളില്‍	6003
അല്ലാതെ	6004
പോലീസിന്റെ	6005
ിരുന്നുവെന്നും	6006
സേവനം	6007
അതോറിറ്റി	6008
വേഷ	6009
ശാര	6010
##ിലധികം	6011
##ര്‍ട്ട	6012
വിഡി	6013
അതീവ	6014
ലക്ഷ്മി	6015
ലക്ഷദ്വ	6016
വോട്ടെടുപ്പ്	6017
യൂണ	6018
ഹൃദയ	6019
ആറു	6020
ഇവിട	6021
ഫണ്ട്	6022
യത്	6023
##യിലൂടെ	6024
##്രമ	6025
ല്ലോ	6026
ഡിസംബര്‍	6027
ഇറക്കുമതി	6028
ഓഗസ്റ്റ്	6029
71	6030
ചട്ട	6031
##ൽക്ക	6032
##ർത്ത്	6033
##ിയം	6034
##പ്ത	6035
ടിവി	6036
ആയിരിക്കും	6037
തയ്യാറാക്കിയ	6038
##പ്പെട്ടിരുന്നു	6039
നിര്‍ദ്ദേശം	6040
മുദ്രാവ	6041
76	6042
അറ്റ	6043
അഗ്	6044
മുകളില്‍	6045
ളി	6046
##ായുള്ള	6047
##ംഗം	6048
##്വാനം	6049
പുനര	6050
കണ്‍ട്ര	6051
യഥാര്‍ത്ഥ	6052
വാക്‌സിനേഷന്‍	6053
കിലോമീറ്റര്‍	6054
ആന്റി	6055
യെന്നാണ്	6056
രഞ്	6057
ശരിക്കും	6058
ക്കണമെന്ന	6059
സംസ	6060
സംരംഭ	6061
മുഖേന	6062
ലോകം	6063
രാജ്യസഭാ	6064
ില്ലേ	6065
##ംബര	6066
പുറത്തുവ	6067
ഉം	6068
യേ	6069
സും	6070
##റ്റര്‍	6071
പുത്ത	6072
സാധ്യമ	6073
സൂര	6074
സ്‌നേഹ	6075
കോൺഗ്രസിന്റെ	6076
സ്ഥിരീകരിച്ച്	6077
റിയാസ്	6078
തമിഴ്‌നാട്	6079
സീനിയര്‍	6080
അച്ച	6081
ഇമ	6082
##ത്തുക	6083
##ത്തിന്‍റെ	6084
വേട്ട	6085
ശ്രമിക്കുന്നത്	6086
എന്തുകൊണ്ട്	6087
##താശ്വാസ	6088
ആഗസ്റ്റ്	6089
ഇളവ്	6090
ദുരിതാശ്വാസ	6091
യിലേ	6092
##നീയ	6093
വിപുല	6094
##ുവര	6095
പറയാൻ	6096
യ്ക്കു	6097
വോട്ടുകൾ	6098
ിട്ടുണ്ടെന്ന്	6099
യാണെന്ന	6100
വിമർശനം	6101
സമ്മേളനം	6102
മുരളീധര	6103
ഈട	6104
ഡൗണ്‍	6105
ദ്വ	6106
രവ	6107
കോടതിയുടെ	6108
കുട്ടിയെ	6109
ഹൈക്കമാന്‍	6110
##ഹമ്മദ	6111
സത്യപ്രതി	6112
ശുഭ	6113
പെൺകുട്ടി	6114
ഭരണകൂടം	6115
നെഗറ്റീവ്	6116
താലൂക്ക്	6117
##ുവെന്ന്	6118
കാരി	6119
കുട്ടികളെ	6120
ആരംഭിച്ചു	6121
സുപ്രധാന	6122
സമര്‍പ്പിച്ച	6123
പ്രശാന്ത്	6124
മില്യ	6125
##ഐഎ	6126
പ്രസ്ഥാന	6127
സ്വഭാവ	6128
##രാൻ	6129
ങ്ക	6130
ചെയ്യാന	6131
പരമ്പ	6132
രാഹുലിന്റെ	6133
നിര്‍മാണ	6134
യൂണിവേ	6135
സത്യപ്രതിജ്ഞ	6136
ഇനിയ	6137
##വ്യാപ	6138
കാണാൻ	6139
സുരേഷ	6140
അതിനു	6141
എന്നിങ്ങനെയാണ്	6142
തമ്മിൽ	6143
ദിനം	6144
ഉമ്മൻ	6145
രൂക്ഷമായ	6146
ഒമ്പത്	6147
രോഹിത്	6148
അശോക്	6149
വൈകീട്ട്	6150
രാധാകൃഷ്ണ	6151
അഗ	6152
എകെ	6153
പാന	6154
ശത്	6155
##മാകും	6156
ക്കുമ്പോൾ	6157
സിഎ	6158
##്യൂട്ട്	6159
കണക്കുകള്‍	6160
ായിരിക്കും	6161
ശൈലജ	6162
മുകേഷ്	6163
##ഡില്‍	6164
##ഷന	6165
##ൻഡ	6166
വാഴ	6167
##പ്രകാരം	6168
ശ്രീക	6169
##ഞ്ചി	6170
ആവേശ	6171
രാജ്യങ്ങള്‍	6172
ചിലർ	6173
നിലവിലുള്ള	6174
കല്യ	6175
##മുണ്ടാ	6176
വെബ്‌	6177
88	6178
##കക്ഷ	6179
##ങ്ങളിലാണ്	6180
ചെയ്യണം	6181
ആരാണ്	6182
##ാന്തി	6183
പുരോഗമ	6184
പരിശീലനം	6185
ഭരണകൂട	6186
തരം	6187
ാണി	6188
സംസ്‌	6189
##മ്പതി	6190
നാലാം	6191
കഴിയില്ല	6192
##ാധിക	6193
ഉദ്യോഗസ്ഥർ	6194
##കുമാർ	6195
അര്‍ഹ	6196
കിടക്കുന്ന	6197
പോളിംഗ്	6198
ആദ്മി	6199
##ിക്കണമെന്ന്	6200
##ടിസി	6201
വാടക	6202
നിര്‍ത്തി	6203
നിർദേശം	6204
ഉള്‍പ്പടെ	6205
##ഷ്‌ക	6206
ഹാജരാക	6207
തായാണ്	6208
ഏറ്റുമുട്ട	6209
82	6210
ഓട	6211
വശ	6212
ഹോട്ട്	6213
##ഹാര്‍	6214
##റ്റാണ്ട	6215
പിള്ള	6216
##പ്പോഴ	6217
തെരുവ	6218
ജയിച്ച	6219
മുന്‍പ	6220
വീടുകളില്‍	6221
പുരസ്‌	6222
ചെലവ്	6223
കമ്മീഷൻ	6224
കുറഞ്ഞത്	6225
അക്കാദ	6226
ഡോളര്‍	6227
സിവില്‍	6228
തെറ്റിദ്ധ	6229
അക്ഷ	6230
##ാണെങ്കില്‍	6231
ക്കുവ	6232
ക്കാതെ	6233
##ദ്വേഷ	6234
രാജേഷ്	6235
കുറച്ചു	6236
##പ്പെടുക	6237
സീറ്റുകളില്‍	6238
ദിവസമാണ്	6239
പ്രചരണം	6240
മഹാമ	6241
ലോകത്ത്	6242
##സൈസ്	6243
അൽ	6244
##ലൈന	6245
##പൂര്‍	6246
##ിക്കണമെന്നും	6247
തെളി	6248
ഉപഭോക്ത	6249
ഇത്തവണയും	6250
കുമാറിന്റെ	6251
അരവിന്	6252
അംബാനി	6253
##പ്രവര്‍ത്തക	6254
96	6255
കർശന	6256
പികെ	6257
##വെന്നും	6258
##ക്കാരി	6259
വാത	6260
കാര്യത്തിൽ	6261
അനുസ	6262
ഇറാന്‍	6263
ഇതിനോട	6264
സൈബര്‍	6265
കുറിച്ചും	6266
അംഗീകാരം	6267
മധു	6268
സത്യം	6269
##താം	6270
##കൊ	6271
##ഘാത	6272
##ക്കാം	6273
##ര്‍ജ	6274
ഉപകരണ	6275
##ക്‌സ	6276
കാര്യങ്ങളും	6277
സ്ത്രീകൾ	6278
വക്താവ്	6279
വമ്പ	6280
##ടും	6281
പ്രായം	6282
മാലിന്	6283
രാം	6284
അതുകൊണ്ടാണ്	6285
##ത്സവ	6286
ആവശ്യമാണ്	6287
നടത്താൻ	6288
പ്രത്യേകത	6289
പൂര്‍ണ്ണ	6290
മാരെ	6291
ചരിത്രം	6292
ചടങ്ങില്‍	6293
കുടിയേറ്റ	6294
ബഹു	6295
##ക്കല്‍	6296
##രുടേയും	6297
ആര്യ	6298
##മിറ്റ	6299
പ്പി	6300
ദുര്‍	6301
##ബുല	6302
പ്രശ്നം	6303
പാമ്പ	6304
ഭാരവാഹ	6305
കുട്ടികളുടെ	6306
എല്ലാവര്‍ക്കും	6307
വാര്‍ത്താ	6308
കരുതുന്ന	6309
നാരായണ	6310
79	6311
ആസ്തി	6312
രവി	6313
ശുപ	6314
##ാഴ്ച്ച	6315
##ചക	6316
##ാണു	6317
##നിര്‍	6318
ഇന്ത്യാ	6319
മത്സരിക്കുന്ന	6320
രാഷ്ട്രപതി	6321
കഴിയാത്ത	6322
മാരായ	6323
പോസിറ്റീവ്	6324
വോട്ടി	6325
എഞ്ചിനീയ	6326
ഭവന	6327
ഭരിക്കുന്ന	6328
##പൊ	6329
##വിൽ	6330
##ത്തറ	6331
മാറും	6332
##ാക്കോ	6333
പരാതിയ	6334
ിക്കാന	6335
ഇല്ലാതെ	6336
തകര്‍ക്ക	6337
വസ്ത്ര	6338
ചന്ദ്രശേഖ	6339
ഹോം	6340
##എഫ്ഐ	6341
ഹർജി	6342
94	6343
ആൻഡ്	6344
എട	6345
നാടക	6346
പമ്പ	6347
##മൂ	6348
##ന്തി	6349
##ിവാസ	6350
##ുകയാണെന്ന്	6351
തേജ	6352
ചോദ്യത്തിന്	6353
സന്തോഷം	6354
കേന്ദ്രസർക്കാർ	6355
ഉറവിടം	6356
മുന്നോടിയ	6357
ആശ്വാസ	6358
മുറിയ	6359
പൊതുവ	6360
##ധിച്ച്	6361
##ജ്‌	6362
വേണ്ടത്	6363
##ബന്ധന	6364
യുവാക്ക	6365
##നുസരിച്ച്	6366
മാരും	6367
ബീഹാറ	6368
ഉളള	6369
തിലൂടെ	6370
മഞ്ഞ	6371
ക്കിയ	6372
മാക്കി	6373
ഇതുമായി	6374
ഫോറ	6375
കുട്ടിയുടെ	6376
വ്യാപാരി	6377
##േക്കുള്ള	6378
എന്നിങ്ങനെ	6379
ഉണ്ടായിരുന്നത്	6380
ആനുകൂല	6381
കുറിച്ചുള്ള	6382
സ്വര്‍ണവില	6383
വ്യത്യസ്ത	6384
സർവീസ്	6385
ഗെല	6386
വേളയില്‍	6387
ഇതിനോടകം	6388
89	6389
ഫൈന	6390
മര്‍ദ്ദ	6391
##ബൂ	6392
##ഹം	6393
കളിലേക്ക്	6394
ഉണ്ടാവും	6395
ഡിഎം	6396
അതിക്രമ	6397
പ്രചരിപ്പ	6398
ലീഡ്	6399
നേതാവാണ്	6400
ജില്ലകളിലും	6401
കാലാവസ്ഥാ	6402
രാജിവെ	6403
ഗെയിം	6404
അതൃപ്തി	6405
##സിക്യൂട്ടീവ്	6406
കവി	6407
മിക്ക	6408
നിലനിൽ	6409
ഉണ്ടെന്ന്	6410
ആളാണ്	6411
ഇറങ്ങി	6412
വികസനം	6413
പ്രമേയ	6414
കശ്മീ	6415
ഗോവിന്ദ	6416
കഠ	6417
ചാര്‍	6418
ലഖ്	6419
ക്കുമ	6420
##ാമെന്ന്	6421
##ഴിഞ്ഞു	6422
വന്നതോടെ	6423
എത്തിയിരുന്നു	6424
ദില്ലിയില്‍	6425
മന്ത്രിയുടെ	6426
പരിഹരിക്ക	6427
സന്ദേശം	6428
ബെംഗളൂരു	6429
വെബ്‌സൈ	6430
ചങ്ങ	6431
##ഗമ	6432
##ങ്ങളായ	6433
##ട്‌	6434
അംഗീകരിച്ച	6435
ചികിത്സയില്‍	6436
നാട്ടുകാര	6437
പരിഹാര	6438
ജീവന്‍	6439
ആംബുല	6440
97	6441
ദമ്പതി	6442
##റമ്പ്	6443
പുറത്തെ	6444
കേന്ദ്രമന്ത്രി	6445
കുടുംബാംഗ	6446
സ്ഥലത്തെ	6447
സഹായിക്ക	6448
അറസ്റ്റിലായ	6449
കുറവാണ്	6450
വ്യാപകമായി	6451
86	6452
അങ്ങനെയ	6453
തുമായ	6454
##മാൻ	6455
##ഷോ	6456
##ാനില്‍	6457
ക്കുമെന്ന	6458
##ടിവി	6459
സുഖ	6460
പറയാന	6461
ചെയ്യേണ്ട	6462
##മുറ	6463
വന്നിട്ടുണ്ട്	6464
##വേള	6465
പാട്ട	6466
കോട്ടയ	6467
അപേക്ഷിക്കാം	6468
ദേവസ്	6469
പ്രതിഫല	6470
അജിത്	6471
മന്ദ	6472
സിൽ	6473
ിലെ	6474
##വീന	6475
##ിലായത്	6476
തിരുമാന	6477
##ാരംഭ	6478
സ്ഥിരീകരിച്ചിട്ടുണ്ട്	6479
മിശ്ര	6480
സർക്കാരിന്	6481
ായിരുന്ന	6482
ഉത്തരവാദിത്ത	6483
പ്രമേയം	6484
400	6485
ഇക്കുറി	6486
##റേ	6487
##കൃ	6488
##ിക്കാന	6489
##ിക്കണമെന്ന	6490
##ാവിന്റെ	6491
രാജസ്ഥാന്‍	6492
ജനങ്ങള്‍ക്ക്	6493
നിർണായക	6494
ഓഫീസില്‍	6495
പ്രിയപ്പെട്ട	6496
മണിക്കൂറിനിടെ	6497
എത്രയും	6498
പൗരന്	6499
അഭ്യര്‍ത്ഥ	6500
ഖത്തര്‍	6501
സ്വാഭാവിക	6502
ബിന്	6503
##റുമ	6504
വിദ്വേഷ	6505
കേൾ	6506
##ാമെന്ന	6507
കുറച്ച	6508
അതിവേ	6509
വയസ്	6510
സാധ്യതയുള്ള	6511
മുണ്ടായ	6512
കുറ്റപ	6513
പരിഹസ	6514
നിയമസഭയില്‍	6515
ഇത്തരത്തിൽ	6516
ദുബായ	6517
സൗഹൃദ	6518
തിരഞ്ഞെടുത്ത	6519
അസ്വ	6520
ഒളി	6521
ന്മ	6522
വം	6523
##ിലുണ്ട്	6524
##പ്പിന്	6525
##ാരോഗ്യ	6526
സംസ്	6527
ജനസംഖ്യ	6528
വന്നാല്‍	6529
വരാന്‍	6530
യാത്രാ	6531
ഉദ്യോഗാര്‍ത്ഥ	6532
യൂറോ	6533
ഒരാളെ	6534
ഉറപ്പാണ്	6535
പഞ്ചായത്തിലെ	6536
അടിസ്ഥാനത്തിൽ	6537
സ്വീകരിക്കുന്ന	6538
മറിയ	6539
##വലി	6540
പേജ	6541
ഇപ്പോഴി	6542
മൊഴ	6543
പ്രതീക്ഷിക്കുന്നത്	6544
പ്രത്യേകിച്ച്	6545
കണക്കുകൾ	6546
രജിസ്റ്റർ	6547
കൗൺ	6548
പൈസ	6549
വെളിപ്പെടുത്തിയ	6550
പെട്രോള	6551
പൈലറ്റ്	6552
കൊട്ടാര	6553
ൻ്റെ	6554
എങ്ങനെയാണ്	6555
പാക്ക	6556
പേർക്ക	6557
197	6558
അടക്കമുളള	6559
##ുനിക	6560
ബഹുമാന	6561
ക്രൈംബ്രാഞ്ച്	6562
േണ്ട	6563
##ര്	6564
##ാദി	6565
##ിട്ടു	6566
ആര്	6567
അതിശ	6568
പ്രധാനമായും	6569
ചർച്ചകൾ	6570
എംഎല്‍എമാര്‍	6571
ബംഗാള്‍	6572
മാണിത്	6573
ഇയാളുടെ	6574
എഎപി	6575
ലാഭം	6576
ദളിത്	6577
ിലും	6578
##നോട്	6579
##സ്ത്ര	6580
##ിക്കില്ല	6581
അതും	6582
##റ്റിവിറ്റി	6583
2000	6584
ജോണ്‍	6585
##പ്പെടുത്താന്‍	6586
##ഗ്ന	6587
അതിഥി	6588
കമ്പനിയ	6589
ഓഫീസർ	6590
ഉച്ചയ്ക്ക്	6591
##ത്താന്‍	6592
വോട്ടെണ്ണ	6593
സുധാകരൻ	6594
വേഗം	6595
##ശ്രീ	6596
യുദ്ധം	6597
സാമ്പിളുകളാണ്	6598
വകഭ	6599
സന്തോഷ്	6600
ജഡ്ജി	6601
ദേവസ്വം	6602
).	6603
നടൻ	6604
ന്നും	6605
എത്തിച്ച	6606
ഒന്നര	6607
കണ്ടെത്താന്‍	6608
പരാജയപ്പെട്ട	6609
കഠിന	6610
ലായിരുന്നു	6611
##മംഗലം	6612
##er	6613
പ്രവര്‍ത്തി	6614
ഇതൊക്കെ	6615
കാറ	6616
നടത്തുകയും	6617
പോകാൻ	6618
യെല്ലോ	6619
കഴിയുന്നത്	6620
തയ്യാറെ	6621
നൽകിയിട്ടുണ്ട്	6622
പ്രവേശന	6623
ശതമാനമാണ്	6624
##ാന്യം	6625
തെരഞ്ഞെടുപ്പില്‍	6626
രോഗബാധ	6627
പരസ്പരം	6628
ഉല്‍പ്പ	6629
##വൻ	6630
##ര്‍ക്ക്	6631
##ിക്കി	6632
കളോ	6633
വാക്ക്	6634
രാജേന്ദ്ര	6635
##ഡിറ്റ്	6636
ജനപ്രതി	6637
##ത്സാഹ	6638
വിലക്ക്	6639
രണ്ടും	6640
സ്റ്റേറ്റ്	6641
##സ്പെ	6642
##യ്ക്കായി	6643
നിരീക്ഷണത്തില്‍	6644
ഭാവി	6645
പുലര്‍ച്ച	6646
മൂല്യ	6647
കണ്‍ട്രോള്‍	6648
പറ്റി	6649
##്ക്ക്	6650
##ലുകൾ	6651
എംബ	6652
ഭാഗ്യം	6653
മാധ്യമങ്ങളോട്	6654
തയ്യാറാക	6655
റിക്ര	6656
സ്ഥാപനങ്ങള്‍	6657
അധികാരത്തിലെ	6658
ഫലപ്ര	6659
മാകും	6660
ഏപ്രിൽ	6661
പങ്കെടുക്കുന്ന	6662
കാസർഗോഡ്	6663
04	6664
ദയ	6665
മജി	6666
##ാമ്പ	6667
##വർക്ക്	6668
##ത്താ	6669
##റ്റോ	6670
നിരാശ	6671
##സിസ്	6672
##ട്ടിരുന്നു	6673
##തിനാൽ	6674
വ്യോമ	6675
അനധിക	6676
തീര്‍	6677
അഭ്യൂ	6678
വിജയിച്ചത്	6679
രണ്ടാമ	6680
പ്രഖ്യാപിച്ചിട്ടുണ്ട്	6681
എതിരാ	6682
##യാത്ര	6683
പരിപാടിയില്‍	6684
പ്രേക്ഷക	6685
ഇപ്പോഴിതാ	6686
ക്യൂ	6687
വലു	6688
െടുത്ത	6689
##ട്യൂ	6690
ചെയര്‍	6691
##റ്റ്‌	6692
##ിനിര	6693
##പ്പെടുകയും	6694
ആവശ്യപ്പെട്ടത്	6695
പറ്റിയ	6696
ഹെല്‍	6697
ബന്ധുക്കള	6698
ആരോഗ്യമന്ത്രി	6699
പങ്ക്	6700
ശരാശ	6701
##ീരിക	6702
##ുകു	6703
ക്കാത്ത	6704
സെന്‍	6705
രൂപീകരിച്ച	6706
##കുളം	6707
ഉപരോധ	6708
ചോദിക്കുന്നു	6709
##ന്തരീക്ഷ	6710
ജീവിതത്തിൽ	6711
അഖിൽ	6712
പടിഞ്ഞാറ	6713
##സ്പ്രസ്	6714
കിരീ	6715
ക്രിസ്ത്യ	6716
83	6717
ആര്‍ക്കും	6718
ഗര്‍	6719
ഡൊ	6720
യെയും	6721
വന്	6722
##ാണെന്നാണ്	6723
പ്രളയ	6724
##റ്റിറ്റ	6725
##പ്പെടുത്തുക	6726
##പുര	6727
2015	6728
പരിഹാരം	6729
ഹര്‍ജ	6730
വ്യക്തിയാണ്	6731
വയസുള്ള	6732
ജനം	6733
ഡബ്ല	6734
ഫിന	6735
സായി	6736
##ഡിൽ	6737
##ൃഹ	6738
##ലിശ	6739
ത്തിലായിരുന്നു	6740
നിര്‍മ്മാണ	6741
മടങ്ങി	6742
കഷ്ട	6743
##al	6744
##ക്കയ	6745
ത്തിലുള്ള	6746
ഇന്ത്യയെ	6747
വര്‍ഗീയ	6748
ഗ്രാ	6749
ചെറ	6750
പോകും	6751
വളര്‍ച്ച	6752
പ്ലസ്	6753
ബംഗ്ല	6754
യഥാർത്ഥ	6755
ഗണേഷ്	6756
ശക്ത	6757
മുനി	6758
##തിനും	6759
അനുമ	6760
ലഭിക്കുക	6761
സര്‍ക്കാരു	6762
ദിവസങ്ങളിൽ	6763
2011	6764
##ച്ചിത്ര	6765
ഒറ്റപ്പെട്ട	6766
പങ്കുവച്ച	6767
##ലോക	6768
നവംബര്‍	6769
നൈ	6770
സൊ	6771
##ചാണ്ടി	6772
##ാന്‍ഡ്	6773
കളക്ടർ	6774
സമർ	6775
ങ്ങളിലെ	6776
കേസുകളാണ്	6777
##കരമായി	6778
##ിടിച്ച	6779
ഇതിനകം	6780
ചൂണ്ടിക്കാട്ടിയ	6781
പ്രായമുള്ള	6782
പുരോഗതി	6783
ഇക്കഴിഞ്ഞ	6784
ഏഷ്യാനെ	6785
ഇടതുമുന്നണി	6786
92	6787
98	6788
##രേയും	6789
വിശ്വാസം	6790
##ിപ്പിക്കാന്‍	6791
ആശംസ	6792
നേരിയ	6793
നാശ	6794
അറിവ	6795
മണിക്കൂറിന	6796
നിലപാടാണ്	6797
ഇന്റർ	6798
ക്കൊപ്പ	6799
താലിബാന്‍	6800
മൃഗ	6801
അഹമ്മദ്	6802
കത്തി	6803
ശരി	6804
##ജിനീയ	6805
പ്രതിയായ	6806
കുരു	6807
കളായ	6808
കളിലൂടെ	6809
അതുകൊണ്ട	6810
പാഠ	6811
അധ്യക്ഷത	6812
ഉറപ്പാക്ക	6813
യാണോ	6814
പ്പോഴാണ്	6815
ഉയര്‍ന്നു	6816
കുഞ്ഞിനെ	6817
##ലാത്സ	6818
വിപണി	6819
കൊലപാതകം	6820
തെളിയിക്കുന്ന	6821
ചൗഹ	6822
കസ്റ്റഡിയിലെ	6823
ദ്ര	6824
ഭക്ത	6825
ിക്കുന്ന	6826
പ്രസാദ്	6827
പിക്ക്	6828
കാരനായ	6829
വേണമ	6830
മോച	6831
ഉയരുന്ന	6832
തോറ്റ	6833
നാഥ	6834
##ടനീ	6835
കുറ്റകൃ	6836
വെച്ചാണ്	6837
##പരിഹ	6838
##രമൊരു	6839
രാജിവെച്ച	6840
ചെലവഴ	6841
പരാമര്‍ശം	6842
രഹസ	6843
അഫ്ഗാനി	6844
കരിയ	6845
ചട	6846
ചാണ്ട	6847
പകു	6848
##ദാസ്	6849
##ഡറ	6850
##ൂപ്	6851
##സ്തു	6852
പ്രോഗ്ര	6853
##ുള്ളി	6854
സ്ഥാ	6855
വേണമെന്ന്	6856
വർഗീയ	6857
ബോര്‍ഡ്	6858
ഉത്തരവി	6859
രേഖകള്‍	6860
പക്ഷം	6861
പുറത്തുവിട്ട	6862
കോളേജില്‍	6863
ഇറ്റ	6864
ഇളവ	6865
ഒത്തു	6866
##സേ	6867
##ിച്ചിരുന്ന	6868
എന്നത	6869
##ിവെച്ച	6870
കെഎം	6871
##പ്‌	6872
സെൻ	6873
പെരി	6874
പെന്‍	6875
അതിര്‍ത്തി	6876
പലയിട	6877
ദിവസത്തിന	6878
സിനിമയുടെ	6879
നടപ്പാക്ക	6880
ജാമ്യ	6881
84	6882
##ഭൂ	6883
പ്രോട്ടോ	6884
##ാനു	6885
നിഷ	6886
നടിയെ	6887
##ുവും	6888
സ്‌കോ	6889
ുണ്ടെങ്കിലും	6890
പ്രദേശങ്ങളില്‍	6891
സിനിമയില്‍	6892
വ്യത്യസ്	6893
തമിഴ്നാട്	6894
അന്നത്തെ	6895
ഒതു	6896
##മാണെന്നും	6897
പ്രത	6898
##്യമില്ല	6899
പരിധി	6900
ഭാരത	6901
വര്‍ഷമായി	6902
ലൈന്‍	6903
ലൈഫ്	6904
പരീക്ഷണ	6905
വഴിയ	6906
ഹൗസ്	6907
കാസര്‍കോട്	6908
സന്നദ്ധ	6909
അസു	6910
എടുക്കുന്ന	6911
നെതിരെ	6912
##ര്‍ദ	6913
കുത്തി	6914
സാധിച്ചു	6915
##മിതി	6916
അത്ഭ	6917
പാലം	6918
പ്രകോപ	6919
പ്രകാശ്	6920
രക്ഷപ്പെട	6921
വാക്സിന്‍	6922
കോടിയുടെ	6923
ത്തിയത്	6924
മമ്മൂട്ടി	6925
നിലനില്‍ക്കുന്ന	6926
തിലും	6927
തിനിടെ	6928
റിന്റെ	6929
ുളള	6930
##ലിലെ	6931
##രായി	6932
##കേ	6933
##ര്‍ണ	6934
##ങ്കി	6935
സുനി	6936
കാണാന	6937
##ുകയോ	6938
മലബ	6939
കടന്ന്	6940
ആശുപത്രിയിലേക്ക്	6941
ആശുപത്രികളില്‍	6942
സംയുക്ത	6943
വര്‍ക്കും	6944
##സഹ	6945
##വാണ്	6946
##ര്‍ക്കെതിരെ	6947
വെടിയ	6948
സംഘടിപ്പിച്ച	6949
കേസുകളില്‍	6950
ലോക്‌സഭ	6951
യ്‌ക്കെതിരെ	6952
പ്രധാനമന്ത്രിയുടെ	6953
ഇന്‍സ്	6954
ജന്മ	6955
തോട്ട	6956
പലിശ	6957
ബില്യ	6958
##ലിക്കാ	6959
##നത്തില്‍	6960
##ർട്ട	6961
##േറ	6962
##ുമെല്ലാം	6963
കഴിഞ്ഞാല്‍	6964
തോതില്‍	6965
നല്‍കിയിരിക്കുന്നത്	6966
കോളജ	6967
പാര്‍ട്ടിക്ക്	6968
ല്ലേ	6969
##ത്തിലധികം	6970
സ്വീകരിച്ചത്	6971
അഖില്‍	6972
കസ്റ്റഡ	6973
സ്വർണ്ണ	6974
സംഘപരിവ	6975
95	6976
ധൈ	6977
##ാഥ	6978
##ഗ്രി	6979
സാധിക്കുന്ന	6980
എന്നിവയുടെ	6981
##സാദ	6982
ആക്രമിക്കപ്പെട്ട	6983
സ്പെ	6984
മണിക്കൂറിൽ	6985
പ്പോഴും	6986
കരാർ	6987
ജയരാജന്‍	6988
ചലച്ചിത്ര	6989
അട്ടിമറി	6990
തുടര്‍ച്ചയായി	6991
അധിക്ഷേപ	6992
രും	6993
തിള	6994
##ിക്കുന്നതിന്	6995
കളോട്	6996
പിന്നിൽ	6997
ലോകാര	6998
വേണ്ടിയുള്ള	6999
അംഗങ്ങള്‍	7000
ിക്കാൻ	7001
പ്രവർത്തനം	7002
രജിസ്ട്ര	7003
പൊലീസിന്	7004
പ്രശ്നങ്ങൾ	7005
സഹായത്തോടെ	7006
കഥാപ	7007
ടീച്ച	7008
പാർലമെന്റ	7009
ആര്‍എസ്എസ്	7010
ലോകാരോഗ്യ	7011
പുക	7012
റും	7013
ശസ്ത്ര	7014
പറഞ്ഞാല്‍	7015
വരില്‍	7016
മോഷ്ട	7017
കൂട്ടിയ	7018
യോജ	7019
പൈലറ്റ	7020
ഭര്‍ത്താവ്	7021
കേന്ദ്രസര്‍ക്കാര്‍	7022
അരവിന്ദ്	7023
മുനിസിപ്പ	7024
ജ്വ	7025
ദീര്‍	7026
നറു	7027
##നഷ്ട	7028
##പാദ	7029
##ത്തീസ്	7030
##ക്തമായ	7031
കേസുമായി	7032
ശേഷി	7033
##ക്രമണ	7034
തുറക്ക	7035
ഉദ്യോഗസ്ഥരെ	7036
അതിനാൽ	7037
ചുഴ	7038
##പരിധി	7039
മനോരമ	7040
ദീര്‍ഘ	7041
അടുത്ത്	7042
ാന്‍	7043
##റായ	7044
##േന്ത്യ	7045
##ഘടനാ	7046
കുറഞ്ഞു	7047
ഡിംപ	7048
ഉയർത്തിയ	7049
അവസാനം	7050
റോബ	7051
ഫോണില്‍	7052
അരി	7053
അശ്വ	7054
##ല്	7055
##ഡീ	7056
##ൻറെ	7057
ലഭിക്കുന്നത്	7058
രോഗലക്ഷ	7059
സ്‌ക്	7060
അപകടത്തില്‍	7061
ലോക്സഭാ	7062
പോസിറ്റീവ	7063
കഥാപാ	7064
ശസ്ത്രക്രിയ	7065
നയം	7066
##ള്‍പ്പെടെ	7067
##െയിൽ	7068
സാഹി	7069
കേരളത്തെ	7070
മെട്രോ	7071
തൊട്ടു	7072
പുറത്തേക്ക്	7073
##േക്കാൾ	7074
##യോര	7075
ഡയറക്ടറ	7076
പോസിറ്റിവിറ്റി	7077
പ്രഖ്യാപിച്ച്	7078
ശരാശരി	7079
കഞ്ച	7080
ബില്‍	7081
##ീസി	7082
##ധ്യം	7083
##ാനന്തര	7084
ക്വ	7085
സിസി	7086
കളെല്ലാം	7087
വ്യക്തമായി	7088
കൊണ്ടുള്ള	7089
തിരിച്ചെത്തിയ	7090
പദ്ധതികള്‍	7091
##ത്തിലുള്ളത്	7092
നാട്ടിലേക്ക്	7093
ചുമത്തിയ	7094
##വെള്ള	7095
സഹോദരി	7096
മൂല്യം	7097
ശരിയായ	7098
അഖിലേഷ്	7099
കട്ട	7100
ധരിച്ച	7101
ബദ	7102
മസ്	7103
##റ്റർ	7104
ക്കേ	7105
##ത്രെ	7106
മാല	7107
നല്‍കുക	7108
കാണുന്നു	7109
ഉത്തരം	7110
ുണ്ടോ	7111
##ൂരപ്പ	7112
##ായിരുന്നില്ല	7113
ചെയ്യുന്നുണ്ട്	7114
മാണെന്ന	7115
സിപിഎമ്മിന്റെ	7116
അർഹ	7117
ക്വാറന്റൈന	7118
ശാരീരിക	7119
യൊക്കെ	7120
സ്ര	7121
##േരം	7122
##ിന്റ്	7123
##രുടെയും	7124
ഓഫി	7125
യാത്രക്കാര	7126
ഇതിനു	7127
നേതാവിനെ	7128
അകലം	7129
ചെയ്യാം	7130
വലിച്ച	7131
ഒടുവിൽ	7132
എന്‍സിപി	7133
##ീത്	7134
##വ്യൂ	7135
പോള്‍	7136
##ാറിന്റെ	7137
അയാൾ	7138
ഭരണഘടനാ	7139
ആലുവ	7140
ഒഴിവാക്കിയ	7141
പശ്ചാത്തലത്തിൽ	7142
മീറ്റര്‍	7143
ദൈ	7144
##ദീപ്	7145
കൊന്ന	7146
വീഴ്	7147
ഇടവേള	7148
ഉയര്‍ത്തിയ	7149
ഉറപ്പു	7150
കോണ്‍ഗ്രസിന	7151
തടസ	7152
ബാധ്യത	7153
നടക്കുക	7154
ബ്രി	7155
അക്കൗണ്ട്	7156
ജലനിര	7157
വേഗത്തില്‍	7158
ആരാധകര്‍	7159
പവന്‍	7160
##ുമ്പോഴും	7161
പാർട്ടിയിൽ	7162
ഓട്ടോ	7163
ചികിത്സയിലുള്ളത്	7164
ഇന്‍സ്റ്റിറ്റ	7165
87	7166
ലധികം	7167
##ടിച്ചു	7168
##ഖണ്	7169
##വാടി	7170
നിയോ	7171
ആവര്‍ത്ത	7172
തെക്ക	7173
ഗ്രാം	7174
നേതൃത്വത്തിന്	7175
കസ്റ്റംസ്	7176
നിശ്ചയിച്ച	7177
സംഗീത	7178
ആഹ്വാനം	7179
ധാരാളം	7180
മാത്യു	7181
കസ്റ്റഡിയില്‍	7182
അദ്ധ	7183
കല്‍പ്പ	7184
മുറി	7185
സിദ്ദി	7186
സുന്ദ	7187
##ഴ്സി	7188
വര്‍ഗ	7189
ഉത്തരാ	7190
തലശേരി	7191
വിവാദം	7192
മണ്ഡലങ്ങളില്‍	7193
ിട്ടില്ലെന്ന്	7194
നയിക്കുന്ന	7195
പട്ടികയിൽ	7196
ശുക്ര	7197
അരങ്ങ	7198
പരിശീലന	7199
കാട്ടാന	7200
സ്വാഗതം	7201
എഴ	7202
പാണ്	7203
റിപ്പ	7204
##ാഖ	7205
##ുകി	7206
മാർക്ക	7207
##ണ്ഠ	7208
##രാജ	7209
തുടര്‍	7210
ചെയ്യപ്പെട്ട	7211
##ുപുഴ	7212
##ടക്കി	7213
തിനാണ്	7214
ക്കുറിച്ച്	7215
െന്നായിരുന്നു	7216
പങ്കുവെ	7217
കീഴില്‍	7218
ഒക്ടോബര്‍	7219
പതാക	7220
മുന്നോടിയായി	7221
മകള്‍	7222
##സ്ട	7223
##ാറി	7224
മാസ്	7225
ങ്ങളോ	7226
എന്തുകൊണ്ടാണ്	7227
ടെസ്റ്റ	7228
സംസാരിച്ചു	7229
പരിഗണിച്ച	7230
പ്രോത്സാഹ	7231
ഡയറക്ടർ	7232
വസ്തുത	7233
യുമായിരുന്നു	7234
അജയ്	7235
ലക്ഷ്യമിടുന്നത്	7236
ഓറ	7237
പരു	7238
മംഗ	7239
ഷായ	7240
ഹു	7241
##20	7242
ഒരുക്ക	7243
സുനില്‍	7244
വേണമെന്ന	7245
സെപ്	7246
രൂപീകരിക്ക	7247
കോൺഗ്രസിൽ	7248
ടെലി	7249
##ശ്വര	7250
ദില്ലിയിലെ	7251
നയതന്ത്ര	7252
ിലാണ്	7253
നായര്‍	7254
മുന്നേറ്റം	7255
വാല	7256
##മട	7257
##ത്തൂര്‍	7258
കൊടുക്കുന്ന	7259
##മ്മേള	7260
കളായി	7261
സമഗ്ര	7262
ഉയര്‍ത്തി	7263
ആരോപിക്കുന്നു	7264
ദുരിത	7265
ചിത്രങ്ങൾ	7266
അനുബന്ധ	7267
വിഷമ	7268
തടഞ്ഞ	7269
ഒരാഴ്ച	7270
കിട്ടുന്ന	7271
തൊഴിലാളികള്‍	7272
ഉണ്ടാകുന്ന	7273
കാർഡ്	7274
##ലൈൻ	7275
നിമിഷം	7276
ഗംഭ	7277
ആവി	7278
ഡേ	7279
രുടെ	7280
ഹാള	7281
##ടങ്ങിയ	7282
##പേ	7283
##ഫറ	7284
##ഫിയ	7285
##ൈൻ	7286
##റ്റുകള്‍	7287
സംഭാ	7288
##ക്രമണം	7289
ക്രിക്കറ്റ്	7290
ഒഴിവാക്കി	7291
സർവ്വേ	7292
ചെലു	7293
റണ്‍സ	7294
പുസ്തക	7295
മയക്കുമരുന്ന്	7296
ഓടെ	7297
റവ	7298
വള്ള	7299
സല്‍	7300
##നയ	7301
##മയ	7302
##വതി	7303
വിര	7304
ക്കില്ല	7305
##റിംഗ്	7306
##വാദം	7307
വാസ	7308
വെച്ചു	7309
വ്യക്ത	7310
പറയാനുള്ള	7311
ചിഹ്	7312
കണ്ണൂരില്‍	7313
തിരിച്ചറിഞ്ഞ	7314
വരുത്തിയ	7315
സന്ദീപ്	7316
ഭൂരിഭാഗ	7317
കുഞ്ഞാല	7318
വാക്കുകള്‍	7319
പിൻവല	7320
രവീന്ദ്ര	7321
അസമ	7322
ആക്	7323
പാള	7324
മന്‍	7325
റു	7326
##ാവിനെ	7327
##ുവരെ	7328
അനൂപ്	7329
##ിരിക്കെ	7330
സ്ഥാപിച്ച	7331
തയ്യാറായ	7332
ബുക്ക്	7333
വൈകാതെ	7334
ഫേസ്ബുക്കിൽ	7335
വിചാ	7336
റിപ്പോർട്ടിൽ	7337
ചികിത്സയിലായിരുന്ന	7338
ഒമൈ	7339
ഗൃഹ	7340
മഞ്ജു	7341
വാണി	7342
സന	7343
##ോളി	7344
##്യന്‍	7345
##സ്ഥാൻ	7346
##രാഷ്ട്ര	7347
##ുണ്ടായി	7348
മലപ്പുറ	7349
പേരെയാണ്	7350
നിശ്ചയ	7351
ബന്ധുക്കള്‍	7352
ബിരുദം	7353
സമ്മേളനത്തില്‍	7354
സ്പീക്കര്‍	7355
രോഗബാധിത	7356
ഓക്സി	7357
ചാർ	7358
തുമായി	7359
പകര്‍	7360
ഹൂ	7361
##ബാധ	7362
##പ്പിന്റെ	7363
##സിറ്റ്	7364
##റിഞ്ഞു	7365
രാജു	7366
##ോധ്യ	7367
രൂപയ	7368
സംഘർഷ	7369
ഉയര	7370
മാറ്റങ്ങള്‍	7371
സൗത്ത്	7372
അയോധ്യ	7373
പ്രകൃതി	7374
മാനേജ്	7375
മാര്‍ക്ക്	7376
കരുതുന്നു	7377
ക്കിടയില്‍	7378
ലക്ഷ്യത്തോടെ	7379
മോഹന്‍ലാല്‍	7380
വന്ദേ	7381
അടുപ്പ	7382
ഇന്ദ	7383
താപ	7384
ഫയ	7385
ഹേമ	7386
##േതര	7387
##ായിരം	7388
എന്നതും	7389
##ാകുന്നത്	7390
##ക്രമി	7391
ചിങ്ങ	7392
പ്രവര്‍ത്തകര	7393
##സ്തവ	7394
പ്രദേശ്	7395
മണിക്കൂര്‍	7396
നൽകിയിരുന്നു	7397
നഷ്ടപരിഹ	7398
വീടിന്	7399
ണ്ട്	7400
മുഖ്യമന്ത്രിയെ	7401
േക്കാം	7402
പിടികൂട	7403
ശശീന്ദ്ര	7404
ആസൂത്ര	7405
ടാസ്	7406
റാല	7407
വഞ്ച	7408
്‍	7409
##ടപ	7410
##ിക്കുമെന്ന	7411
ജനപ്ര	7412
ങ്ങളിലൂടെ	7413
##ഷ്യൽ	7414
ചേര്‍ത്ത	7415
നാഷണല്‍	7416
യാണെങ്കില്‍	7417
കാര്‍ഡ്	7418
അനുകൂലമായ	7419
##ുതന്നെ	7420
വെറുതെ	7421
##ാധികാരി	7422
91	7423
ഒടി	7424
ഹമാ	7425
##ണയ	7426
എന്നുള്ള	7427
എന്നിട്ടും	7428
മാധ	7429
##ാര്‍ഡ്	7430
നിർത്തി	7431
ഇതിനെതിരെ	7432
വിദ്യാർ	7433
രേഖപ്പെടുത്ത	7434
രേഖപ്പെടുത്തി	7435
സംസാരിക്കുന്ന	7436
മുഖ്യമന്ത്രിയും	7437
ാണെന്നും	7438
മനോഹ	7439
ഡിസംബർ	7440
##ല്‍ക്കത്ത	7441
ഗള്‍ഫ്	7442
ദശലക്ഷ	7443
അസുഖ	7444
ഗ്യ	7445
ജയ്	7446
ധോണി	7447
പൗ	7448
ലാല്‍	7449
##രേഖ	7450
##ക്രാ	7451
##ത്തിലേ	7452
##പ്പിൽ	7453
നിത	7454
വോട്ടർ	7455
##്യമായാണ്	7456
റിലീസ്	7457
എൽഡിഎഫ	7458
വൈകുന്നേരം	7459
വംശ	7460
അക്കാര	7461
തങ്ങൾ	7462
##ുഖ	7463
##മോദ	7464
##ിയോട്	7465
ക്കാർ	7466
##ല്ലേ	7467
##ാലം	7468
കളയ	7469
സുശ	7470
##മായുള്ള	7471
നേതൃത്വത്തിന്റെ	7472
ബോര്‍ഡ	7473
##ിക്കാരുടെ	7474
നഷ്ടം	7475
കൾക്ക്	7476
രൂക്ഷമായി	7477
വിദ്യാര്‍ത്ഥികള്‍	7478
വാഗ്ദാന	7479
രേഖപ്പെടുത്തിയത്	7480
ശബ്ദം	7481
ആരെങ്കിലും	7482
ഛത്തീസ്	7483
ഞെ	7484
തകര്‍	7485
പനി	7486
പണമ	7487
റൈ	7488
##രെയ	7489
##രൂപ	7490
##േയാണ്	7491
പ്രയോഗ	7492
##ാൻസ്	7493
##ുകളിലേക്ക്	7494
പ്രവർത്തി	7495
സ്‌ഫോട	7496
ഉടനെ	7497
മഴയ്ക്ക്	7498
സജീവമായി	7499
രോഗമുക്ത	7500
അഭ്യർത്ഥ	7501
ഒളിവ	7502
റവന്യ	7503
ഓർ	7504
രായ	7505
ശക്	7506
ിക്കും	7507
കുഞ്ഞു	7508
##റ്റിംഗ്	7509
കോണ്‍ഗ്രസിലെ	7510
എത്തും	7511
ണ്ടാക	7512
പ്ലാന്‍	7513
ത്തെക്കുറിച്ച്	7514
മഹാരാഷ്ട്രയില്‍	7515
ക്ഷണിച്ചു	7516
മാനേജര്‍	7517
ജ്യോതിഷ	7518
സ്ഥിരം	7519
ജലനിരപ്പ്	7520
600	7521
ഞാനും	7522
ലൂടെ	7523
വിയ	7524
സിനെ	7525
സസ്‌പെ	7526
##റേയും	7527
##വരും	7528
##ബദ്ധ	7529
വിറ്റ	7530
##ത്തിരി	7531
തീപി	7532
മേഖലകളില്‍	7533
പ്രത്യക്ഷ	7534
150	7535
ചികിത്സാ	7536
എന്നിങ്ങന	7537
എല്ലാവർക്കും	7538
ബൈജു	7539
കാർഷിക	7540
##ുപോയ	7541
വീണാ	7542
അമ്പല	7543
വിപണിയില്‍	7544
പുലര്‍ച്ചെ	7545
ആപ്പ്	7546
ഉത്ര	7547
മഞ്ച	7548
##കരി	7549
വിരമ	7550
##ുമല്ല	7551
മാസ്‌ക്	7552
മേയ്	7553
##ര്‍ന്നു	7554
ലിമിറ്റ	7555
ജീവനക്കാർ	7556
##െയിൻ	7557
അഭിപ്രായപ്പെട്ടു	7558
അത്തരമൊരു	7559
വാർത്താ	7560
പ്രാധാന്യം	7561
കപ	7562
നുള്ള	7563
ഫണ്ട	7564
യുമായ	7565
ബിഷ	7566
സിം	7567
സുന	7568
നടത്തുക	7569
ശക്തമാണ്	7570
നേതാവായ	7571
യിലായിരുന്നു	7572
##ുകാരെ	7573
കാരണമായി	7574
ശിശു	7575
ഫെഡറ	7576
പ്രസംഗം	7577
മീറ്റർ	7578
കണക്കിലെടുത്ത്	7579
ആൾ	7580
##ുന്നതിന്	7581
##രുന്നുണ്ട്	7582
##ല്ലാ	7583
മുത്ത	7584
സംസ്ഥാനങ്ങളിൽ	7585
എംവി	7586
ഉപയോ	7587
മറ്റൊരാ	7588
യുവതിയുടെ	7589
കരുതി	7590
കുട്ടികൾ	7591
എടുത്തത്	7592
യുണ്ടായ	7593
വിട്ടത്	7594
തെളിവുകള്‍	7595
നിശ്ചിത	7596
ബംഗാളില്‍	7597
ആഴ	7598
മുകളിൽ	7599
##തോ	7600
##വാല	7601
വിഹി	7602
ക്കുന്നു	7603
തിരിക്ക	7604
പേർക്കും	7605
തുടർ	7606
##നാട	7607
കാര്യത്തിലും	7608
എന്തു	7609
തയ്യാറായില്ല	7610
കലക്ടര്‍	7611
വിശദമായി	7612
ജീവൻ	7613
ഹെലിക	7614
സൃഷ്ടിച്ച	7615
തെരഞ്ഞെടുപ്പിൽ	7616
സോണിയാ	7617
പ്രകാരമാണ്	7618
കാഞ്ഞിര	7619
തേജസ്	7620
ആഡ	7621
ിനും	7622
##പ്പാടി	7623
എന്നൊക്കെ	7624
ബിജു	7625
പ്രതിനിധി	7626
നല്‍കണം	7627
സെല്‍	7628
മേയര്‍	7629
തെറ്റ്	7630
ഉപമുഖ	7631
ജെഡിഎ	7632
ിക്കാന്‍	7633
സൈബർ	7634
തോന്നുന്ന	7635
കിടില	7636
വായിക്കാം	7637
അന്തരീക്ഷ	7638
ഓക്‌സി	7639
മെന്നാണ്	7640
വണ്ടി	7641
ഹരിത	7642
##ഡര്‍	7643
##വട്ടം	7644
##രിപ്പി	7645
പ്രമ	7646
പ്രേ	7647
##ാനിയ	7648
##ുകാരുടെ	7649
ആരെയും	7650
വന്നപ്പോള്‍	7651
കേസിന്റെ	7652
മത്സരിക്കുന്നത്	7653
ഉയർന്നു	7654
പരിശോധിച്ച്	7655
ബാധിക്കുന്ന	7656
പിന്തുണയ്ക്കുന്ന	7657
ഇരുപ	7658
##യായും	7659
മകൻ	7660
അധികാരത്തില്‍	7661
എഴുത	7662
താല്‍ക്കാലിക	7663
വാക്കുകൾ	7664
കൈവശ	7665
ജയരാജ	7666
ഉദാഹ	7667
മൊബൈൽ	7668
ഗവർണർ	7669
വരുമ്പോള്‍	7670
ഏജൻസ	7671
ംഗ	7672
ദൈവ	7673
ബയോ	7674
റാലി	7675
##ൻഷൻ	7676
പ്രയോ	7677
##രുതെന്നും	7678
കൊല്‍ക്കത്ത	7679
ങ്ങളെല്ലാം	7680
ആവർത്ത	7681
ില്ലെങ്കിൽ	7682
സംഭവിച്ചത്	7683
വയസ്സ്	7684
ബോം	7685
തട്ടിക്കൊ	7686
##എഫ്‌ഐ	7687
ചാനല	7688
കരാറ	7689
യാളാണ്	7690
താക്കറെ	7691
പങ്കാളിത്ത	7692
ബിന്ദു	7693
##ഖണ്ഡ്	7694
81	7695
ഏരിയ	7696
ദാസ്	7697
##‌സി	7698
##ഷീ	7699
##es	7700
##ാവുക	7701
സ്വാമി	7702
ചെയ്യാനുള്ള	7703
അനുപ	7704
##കുട്ടി	7705
നീള	7706
##പുഴ	7707
നൽകുന്നത്	7708
വരവ്	7709
പ്രകാശ	7710
തയ്യാറായി	7711
വാഹനങ്ങള്‍	7712
നരേന്ദ്രമോദ	7713
ഫ്രണ്ട്	7714
ദൃശ്യങ്ങൾ	7715
വില്‍പ്പന	7716
ാനുള്ള	7717
പാര്‍ലമെന്റ്	7718
ഇസ്ലാമ	7719
ഘട്ടം	7720
തറ	7721
ബോട്ട	7722
ലൂ	7723
സദ	7724
##ലര്‍	7725
##ർജി	7726
##ബറ	7727
പ്രേരി	7728
പിജെ	7729
സാക്ഷി	7730
അവശ്യ	7731
കളുണ്ട്	7732
മാത്രമായിരുന്നു	7733
ശ്രമിച്ചു	7734
ഗാന്ധിയെ	7735
ഒഴിവ്	7736
സംഘടനയുടെ	7737
ജൂനിയ	7738
ഏതാനും	7739
യായിരിക്കും	7740
സർവീസ	7741
പ്രവചനം	7742
ചൗധ	7743
സാന്നിധ്യം	7744
ാണിത്	7745
ചുഴലിക്കാ	7746
ഉറ്റ	7747
വരണ	7748
##ൽഹി	7749
##േട്ട	7750
പറയാം	7751
##സംഘടന	7752
സംഘത്തെ	7753
പെടുത്ത	7754
ശേഷമുള്ള	7755
കാണിക്കുന്ന	7756
കാര്യങ്ങളില്‍	7757
പലതും	7758
വയനാട്ട	7759
തയാറ	7760
വരുത്തി	7761
വഴിയാണ്	7762
സെന്ററ	7763
സ്വയംഭരണ	7764
മുരളീധരൻ	7765
മാറ്റിയത്	7766
ബോർഡ്	7767
ഐശ്വ	7768
ട്	7769
##നുമായ	7770
##ാഞ്ചേരി	7771
##ന്തിര	7772
##വിധി	7773
##ാർഥ	7774
വാഷി	7775
നടത്തുന്നു	7776
മലയോര	7777
കിഫ്	7778
##ട്രി	7779
യാണെന്നാണ്	7780
വ്യക്തമാക്കിയിട്ടുണ്ട്	7781
സർക്കാരിനെ	7782
##കാലിക	7783
നുണ	7784
ലഖ്‌ന	7785
കസ്റ്റഡിയിലെടുത്ത	7786
തിനെതിരെ	7787
നദ	7788
ബലാത്സ	7789
ശാല	7790
##ാട്ട	7791
##ഖണ്ഡ	7792
##തിരി	7793
##ിട്ടാണ്	7794
ശേഷവും	7795
നീട്ട	7796
കോടതിയ	7797
മുമ്പാണ്	7798
ആരോപണങ്ങള്‍	7799
സര്‍വകലാശാല	7800
നൂറ്	7801
സംവിധായകന്‍	7802
വിന്യ	7803
പ്രാധാന്യ	7804
##ഡിപിഐ	7805
രോഗലക്ഷണ	7806
an	7807
ഗാസ	7808
തില്ല	7809
മതിയായ	7810
പിരി	7811
##മ്മി	7812
തുര	7813
##ലിസ്റ്റ്	7814
മേല	7815
യ്ക്കെതിരെ	7816
ഭാഗമാണ്	7817
മാധ്യമങ്ങൾ	7818
പ്രതീക്ഷിക്കുന്ന	7819
ശ്രീധ	7820
##േക്കാണ്	7821
പാര്‍ട്ടികള്‍	7822
കമന്റ്	7823
മതേതര	7824
ഇടപെടല്‍	7825
നമ്പർ	7826
കത്തയ	7827
റെയിൽവേ	7828
കാണാതായ	7829
##ഭൂമി	7830
ലഖ്‌നൗ	7831
യാകും	7832
വണ്‍	7833
##വ്യ	7834
##ണൽ	7835
##ത്തെയും	7836
ബിഹാറ	7837
##ത്തിൻ്റെ	7838
##ിനിട	7839
സംഘമാണ്	7840
നീങ്ങ	7841
കടല	7842
പ്രഖ്യാപിച്ചിരുന്നു	7843
യുവതിയെ	7844
കലാ	7845
ത്തിന്റെയും	7846
ഷാജ	7847
ിട്ടുണ്ടോ	7848
ിലൂടെ	7849
കീഴിലുള്ള	7850
ഇക്കാര്യത്തിൽ	7851
ഉദ്ഘാടന	7852
സാന്നിധ്യ	7853
പിറന്ന	7854
വരുന്നുണ്ട്	7855
ഓറഞ്ച്	7856
ഭീതി	7857
##പാ	7858
##പ്പൂ	7859
നൽകും	7860
വരാനിരിക്കുന്ന	7861
നേതൃത്വത്തെ	7862
##ക്കുറിച്ച	7863
ആരോപിക്കുന്നത്	7864
ഇതിനിട	7865
ശ്രീലങ്ക	7866
ഉറപ്പുവ	7867
നേതാവുമായ	7868
##െടുക്കാന്‍	7869
എതിർ	7870
രാശിക്കാർക്ക്	7871
പരിചയം	7872
പിടികൂടിയത്	7873
##ടനീളം	7874
1000	7875
ഉമ	7876
ഗവേഷണ	7877
ദൂര	7878
സന്നി	7879
##പന	7880
##ിവു	7881
##ികളുമായി	7882
കിഷോ	7883
കലാക	7884
രാശിക്കാരുടെ	7885
##ൻ്റ്	7886
##തരായ	7887
##ക്കാര്‍ക്ക്	7888
സുഹൃത്ത്	7889
ക്ഷമ	7890
കൊടുത്തു	7891
മധ്യപ്രദേശ്	7892
എന്നിവിടങ്ങളിൽ	7893
ബൈഡന്‍	7894
ബേബി	7895
ബാനര്‍ജി	7896
അഭ്യൂഹ	7897
ആരി	7898
ഓര്‍ഡ	7899
ഡ്യൂട്ടി	7900
ബിന	7901
മോട്ടോ	7902
സുവ	7903
##കീ	7904
##കത്ത്	7905
##ന്നൂർ	7906
##പ്പും	7907
നിശ	7908
പ്രതിമാ	7909
##ാംശ	7910
കാര്യവും	7911
പ്രതികരിച്ച്	7912
സമ്പന്ന	7913
മാസത്തെ	7914
നിരീക്ഷണത്തിലുള്ളത്	7915
സ്വീകരിച്ചു	7916
അവതരിപ്പിച്ച	7917
സ്കൂൾ	7918
ജാസ്	7919
ജുന	7920
സുമ	7921
##ളവ്	7922
##കന്‍	7923
##വിള	7924
##ിവാസി	7925
ഇതൊരു	7926
ഉണ്ടാക്ക	7927
സെന്റ്	7928
കാണിച്ച്	7929
എസ്ഡിപിഐ	7930
ആദിവാസി	7931
നടക്കുന്നുണ്ട്	7932
ഇടപെട്ട	7933
ഏകോപ	7934
ആണെന്നും	7935
ിനൊപ്പം	7936
പ്പോഴ	7937
കൈമാറി	7938
വെളിപ്പെടുത്തി	7939
കമ്പനിയുടെ	7940
സീസണ്‍	7941
സതീശൻ	7942
തിയേറ്റ	7943
സര്‍ട്ടിഫിക്കറ്റ	7944
അത്ഭുത	7945
യുമായുള്ള	7946
റില്‍	7947
##റായി	7948
##ാനന്ദ	7949
##ുമാര്‍	7950
ക്കരുത്	7951
ില്ലെങ്കിലും	7952
സൂപ്ര	7953
നാദി	7954
തിനാലാണ്	7955
ചെയ്തിട്ടില്ല	7956
അവസാനിച്ച	7957
നയിച്ച	7958
വിദ്യാഭ്യാസം	7959
േക്കുമെന്നാണ്	7960
##ലക്ഷ്മി	7961
ആവശ്യപ്പെട്ടിട്ടുണ്ട്	7962
ഡൽഹ	7963
നവംബർ	7964
വാര്യ	7965
കുറ്റകൃത്യ	7966
ഭഗ	7967
##ിതമായി	7968
##ടകം	7969
##കമായ	7970
##വരില്‍	7971
##an	7972
പിരിച്ചു	7973
ത്തുന്ന	7974
അനിൽ	7975
##മിത	7976
നീട്ടി	7977
ചിറ	7978
പ്രതികരിക്ക	7979
ഒരാളുടെ	7980
സ്വന്തമായി	7981
താരങ്ങള്‍	7982
ഒരിക്കല്‍	7983
പെരുമ്പ	7984
ട്വീറ്റ	7985
##ാക്യം	7986
മനോജ്	7987
##ക്രോണ്‍	7988
ആരോപിച്ച്	7989
അദാനി	7990
മോഹൻല	7991
ഉപമുഖ്യമന്ത്രി	7992
##യോട്	7993
##റീന	7994
##ജാതി	7995
##ണ്ടെന്നും	7996
##രുപ	7997
അവഗണ	7998
നിലയിലാണ്	7999
ഡിപ്ല	8000
കൊണ്ടിരിക്ക	8001
സംഭവത്തെ	8002
ശ്രമിച്ചത്	8003
ഉള്‍പ്പെടുത്തിയ	8004
പിന്തുണച്ച	8005
ലോകത്തിലെ	8006
കണ്ടെത്തിയിരുന്നു	8007
മത്സരത്തില്‍	8008
റഷ്യന്‍	8009
അടിയന്തിര	8010
##ിക്കുട്ടി	8011
##ബോധന	8012
സഞ്ജയ്	8013
ബോള	8014
ലയ	8015
##ജിന	8016
##ഖി	8017
സ്ഫോട	8018
കോലി	8019
മാത	8020
പറയും	8021
കൂറുമ	8022
പരിസര	8023
സംസ്ഥാനത്തിന്റെ	8024
##ര്‍ത്തുന്ന	8025
##ർത്തുന്ന	8026
രോഗികള്‍	8027
രാഷ്ട്രീയത്തില്‍	8028
പിടിക്കാന്‍	8029
ിരുന്നെങ്കിലും	8030
ഷാഫി	8031
യ്ക്കായി	8032
നിക്ഷേപം	8033
മുദ്രാവാക്യം	8034
അക്കാദമി	8035
ഞങ്ങളെ	8036
ഫീസ്	8037
ലൈന	8038
##പ്പിക്കുന്ന	8039
വന്നിരിക്കുന്നത്	8040
തോൽ	8041
##ക്രമം	8042
പലസ്ത	8043
ത്തിനാണ്	8044
ദിവസമായി	8045
മിഷന്‍	8046
ഫോർ	8047
ബെഞ്ച	8048
നടത്തുന്നുണ്ട്	8049
മണിക്കൂറില്‍	8050
നിരീക്ഷണത്തിലാണ്	8051
ബംഗാൾ	8052
നേടാന്‍	8053
പതിവ്	8054
##ഫിക്	8055
വ്യത്യാസ	8056
ചൂണ്ടിക്കാണിക്കുന്നു	8057
##ദാബി	8058
എങ്കില്‍	8059
കെയര്‍	8060
ഡികെ	8061
പൃ	8062
ഫില	8063
ബൗ	8064
ഹരീ	8065
##വല്‍	8066
##ല്ലൂര്‍	8067
മുള	8068
ചെയർമ	8069
##ിപ്പു	8070
ബിന്‍	8071
കൊണ്ടും	8072
കൊണ്ടിരിക്കുന്നത്	8073
അതിര്‍ത്തിയ	8074
കാര്യങ്ങളാണ്	8075
ഭാഗങ്ങളില്‍	8076
വോട്ടെടു	8077
തലശ്ശേരി	8078
തുറമുഖ	8079
ആരംഭിക്കും	8080
പുറത്തിറങ്ങിയ	8081
പൂര്‍ത്തിയാക്കി	8082
ഇടതുപക്ഷം	8083
ഡോക്ടര്‍മാര്‍	8084
ന്യൂഡൽഹി	8085
പുരുഷന്	8086
ചെയർമാൻ	8087
തങ്ങള്‍ക്ക്	8088
മ്മ	8089
രജ	8090
##ോസ്	8091
##ൻസ	8092
##ൾപ്പെടെ	8093
##ക്കര്‍	8094
##രിട	8095
##െയ്യ	8096
അവലോക	8097
ബിഎസ്പി	8098
കെടി	8099
സംസ്ഥാനത്തിന്	8100
##ക്കുടി	8101
സമ്പാദ	8102
##െയ്‌	8103
വരുമെന്ന്	8104
പട്ടേ	8105
പ്രദേശത്തെ	8106
ലിംഗ	8107
ക്കാനായി	8108
ഘട്ടത്തിൽ	8109
അഞ്ചാം	8110
ചെറുപ്പ	8111
ലുലു	8112
താത്പര	8113
വേണുഗോപാല്‍	8114
തോല്‍വി	8115
മദ്യം	8116
ബംഗ്ലാ	8117
ആകര്‍	8118
റേയും	8119
##ശാല	8120
##മ്	8121
മുപ്പ	8122
കളമ	8123
നിര്‍ത്തിയ	8124
തിരുത്ത	8125
സ്ഥലങ്ങളില്‍	8126
പട്ടികജാതി	8127
തെളിവ്	8128
##സ്പിറ്റ	8129
താല്‍പര്യ	8130
ഹോസ്പിറ്റ	8131
യില്ലാത്ത	8132
സെപ്റ്റംബര്‍	8133
ആധുനിക	8134
വിഹിതം	8135
ഏഴു	8136
##ഷറ	8137
##ങ്ങര	8138
##ിനുള്ള	8139
മാള	8140
##ുവാ	8141
##റിഞ്ഞ്	8142
കുറേ	8143
കുറിച്ചത്	8144
മാത്രമായി	8145
പുതിയതായി	8146
സര്‍വ്വേ	8147
പരിശോധനയില്‍	8148
##ക്കിയത്	8149
പോലീസിനെ	8150
##സുല	8151
നിയന്ത്രണങ്ങൾ	8152
ബ്രിട്ടീഷ്	8153
യുവാവിനെ	8154
ശത്രു	8155
എംബസി	8156
ഛത്തീസ്ഗ	8157
##േദം	8158
##ത്തായി	8159
എന്നോട്	8160
പ്രതികൾ	8161
ജില്ലയിലും	8162
##മുടി	8163
രോഗവ്യാപ	8164
മത്സരിക്കാന്‍	8165
ിക്കുക	8166
കുടുംബത്തിന്	8167
റിസോ	8168
അപേക്ഷിച്ച്	8169
അമ്മയുടെ	8170
താമസം	8171
ഗുരുവായ	8172
തള്ളിക്ക	8173
തിരുവല്ല	8174
ഉദ്ധരിച്ച്	8175
തുടർന്നാണ്	8176
ജുഡീ	8177
റോബിന്‍	8178
കുംഭ	8179
കഥാപാത്ര	8180
സെപ്തം	8181
ചക്ര	8182
ജ്	8183
തുമാണ്	8184
##ഡേ	8185
വിരാ	8186
നിവ	8187
##ഡ്‌	8188
രാജ്യങ്ങളും	8189
കൊണ്ടിരിക്കുന്ന	8190
അപല	8191
196	8192
പ്രസിഡണ്ട്	8193
മുണ്ടെന്ന്	8194
ലഭിച്ചിട്ടുണ്ട്	8195
ശ്രദ്ധയില്‍	8196
പോലീസും	8197
ദിനത്തില്‍	8198
പവന്	8199
അജണ്ട	8200
ഒക്ടോബർ	8201
ഐപിഎല്ല	8202
##വേദന	8203
പൊട്ടിത്തെ	8204
ബാക്കിയുള്ള	8205
മാലിന്യ	8206
ഫലപ്രദ	8207
ഏഷ്യാനെറ്റ്	8208
ww	8209
ഇബ്ര	8210
തെങ്കിലും	8211
യുകെ	8212
ഹാരി	8213
##നോളജി	8214
##ാഹി	8215
##രാഘ	8216
##പിസി	8217
##നിർ	8218
ലഭിച്ചിരുന്നു	8219
മേടം	8220
വ്യക്തമാണ്	8221
ഉപദേശ	8222
രാജ്യങ്ങളിൽ	8223
##ത്തുറ	8224
മീഡിയയിൽ	8225
ഹൈക്കോടതിയെ	8226
വാർത്തകൾ	8227
##ബ്ലി	8228
ഔദ്യോഗികമായി	8229
തളിപ്പ	8230
കൊട്ടാരക്കര	8231
മർദ്ദ	8232
ഷെയ്	8233
്‌	8234
സ്മ	8235
പോപ്പു	8236
അവൾ	8237
ഇതോടൊപ്പം	8238
പൊന്ന	8239
മോഷണം	8240
ിക്കുകയും	8241
മുൻക	8242
വീടുകള്‍	8243
തകര്‍ത്ത	8244
ജീവനക്കാരുടെ	8245
ഓരോരുത്ത	8246
പോരാട	8247
വിദ്യാർത്ഥി	8248
ജീവനക്കാരെ	8249
പച്ചക്ക	8250
അബുദാബി	8251
##സ്വാമി	8252
ആനുകൂല്യ	8253
തേജസ്വി	8254
ആശ്വാസം	8255
ഓർമ്മ	8256
ണമ	8257
ലേഖ	8258
ൊന്ന	8259
##ിക്കുമെന്നാണ്	8260
മാലി	8261
നേരം	8262
##െടുത്തു	8263
സമീപിച്ച	8264
പാർട്ടിക്ക്	8265
നടപ്പാക്കുന്ന	8266
വിധം	8267
കാരണമായ	8268
വരികയ	8269
അബ്ദ	8270
വിദ്യാര്‍ത്ഥി	8271
ഉത്തരവാദിത്തം	8272
##രാമയ്യ	8273
##സ്‌ട്രേലിയ	8274
ഏർപ്പെടുത്തിയ	8275
ആന്ധ്ര	8276
ആഡംബര	8277
ഓപ്പ	8278
ചായ	8279
സായ്	8280
##നോട്ട	8281
##വത്	8282
##വാറ്റ	8283
##ുകയായിരുന്ന	8284
ഉയർത്തി	8285
കിട്ടി	8286
വിഭാഗത്തിന്	8287
##ക്ഷിത	8288
ഉത്തരവ	8289
സമീപന	8290
പ്രവേശിപ്പിച്ചു	8291
വികസി	8292
പുരുഷൻ	8293
ലോക്ഡ	8294
ക്കൊണ്ട്	8295
സാധിച്ചില്ല	8296
ഗവണ്‍	8297
കിലോമീറ്റർ	8298
കൗണ്‍സില്‍	8299
തരംഗം	8300
ശരത്	8301
അണു	8302
എലി	8303
പവാ	8304
ശനി	8305
##ഡിന്റെ	8306
##ക്ല	8307
കൊട	8308
##ാവൂര്‍	8309
##സിച്ച്	8310
വാട്	8311
കേരളത്തിലേക്ക്	8312
വിഭാഗത്തിന്റെ	8313
സ്ത്രീയ	8314
നിരീക്ഷണം	8315
തരൂര്‍	8316
##മുണ്ടായ	8317
ധനസഹ	8318
പ്രൊഡ	8319
ട്വന്റി	8320
യുക്രൈന	8321
കൊച്ചിയില്‍	8322
രീതിയിലുള്ള	8323
അപ്രതീക്ഷിത	8324
ആത്മവിശ്വാസ	8325
ഇട്ട	8326
ഒന്‍	8327
##ഡും	8328
##ിലോ	8329
##ിക്കപ്പെടുന്ന	8330
##റ്റേ	8331
##ിവാര	8332
സാഗ	8333
##ിപ്പിച്ച്	8334
സംസ്ഥാനങ്ങളിലെ	8335
ജനങ്ങൾക്ക്	8336
സംഘത്തിന്	8337
കൊണ്ടായിരുന്നു	8338
കാലത്തെ	8339
##ഷേധിച്ച്	8340
മേഖലകള	8341
195	8342
ബോംബ	8343
ഒന്നിന്	8344
ഗാന്ധിയും	8345
കൊല്ലപ്പെട്ടത്	8346
വീടിന്റെ	8347
നാട്ടില്‍	8348
ഇത്തരത്തിലുള്ള	8349
പീഡിപ്പിച്ച	8350
പ്രതികരണവുമായി	8351
യുപിയില്‍	8352
പാവപ്പെട്ട	8353
ലോക്ക്ഡൗണ്‍	8354
പേർക്കാണ്	8355
ഐസി	8356
കറു	8357
യാണിത്	8358
ഴി	8359
ാത്ത	8360
##റാത്ത	8361
ക്കെ	8362
##ിവെ	8363
വീണു	8364
യുളള	8365
##സംബോധന	8366
സെക്യ	8367
ചിറ്റ	8368
##ിയെടുത്ത	8369
സീറ്റിലും	8370
തിരിച്ചെ	8371
സമ്പദ്	8372
മീന	8373
എൻഡിഎ	8374
ഇന്‍സ്റ്റ	8375
വാങ്ങാന്‍	8376
ിനോട്	8377
മില്ലാതെ	8378
സെന്റര്‍	8379
പ്പെടുന്ന	8380
ഒട്ടും	8381
കോർപ്പറേഷൻ	8382
ഫസ്റ്റ്	8383
##ോയ	8384
##രമായ	8385
##ജക	8386
##വിക	8387
ക്കുമോ	8388
##ഴിച്ച്	8389
നിയമങ്ങള്‍	8390
പലത	8391
യെല്ലാം	8392
സീറ്റും	8393
അഭിസംബോധന	8394
ചിത്രത്തില്‍	8395
അയാള്‍	8396
കോളനി	8397
കോളജ്	8398
വിശദാംശ	8399
##വ്വം	8400
ഒറ്റക്കെട്ട	8401
ശരിയല്ല	8402
മുകു	8403
പാകിസ്താന്‍	8404
ഓൺലൈൻ	8405
നറുക്ക	8406
ഡാമ	8407
##യേ	8408
##ൊല	8409
##ത്തൊഴ	8410
വിനെ	8411
##ല്ലൂർ	8412
##ാവൂ	8413
##േഷന്റെ	8414
##യ്ക്കിടെ	8415
രണ്ടര	8416
അയച്ചത്	8417
പിന്തുണയ്ക്ക	8418
##ഴ്‌ച	8419
പുലർച്ച	8420
കൂടുതലായി	8421
ബജറ്റ	8422
സിദ്ദു	8423
തൃശ്ശൂർ	8424
എഐസിസി	8425
അഗ്നി	8426
നിയോജക	8427
കുഞ്ഞാലിക്കുട്ടി	8428
01	8429
ജയം	8430
പണ്	8431
ബസ്സ	8432
യിരുന്നു	8433
സച്ച	8434
##ജനം	8435
##ാക്ക്	8436
##ഭാര	8437
##ക്ഷൻ	8438
ക്കൽ	8439
##വിഷ	8440
ഡിസ്	8441
വ്യക്തമാക്കുന്ന	8442
നിര്‍വഹ	8443
രംഗത്തിറ	8444
ഡോക്ടറ	8445
ആളുകളുടെ	8446
എൻസി	8447
ചുമതലയുള്ള	8448
കോളേജിൽ	8449
മുസ്ലീ	8450
റദ്ദാക്കിയ	8451
റണ്‍സ്	8452
അതുകൊണ്ടുതന്നെ	8453
ബംഗ്ലാദേശ	8454
93	8455
ആർക്കും	8456
തങ്ങളെ	8457
ലിന്റെ	8458
##ഡീഷ	8459
##ക്കാ	8460
കളിച്ച	8461
വാദി	8462
വേദി	8463
കുറു	8464
കേന്ദ്രീകരിച്ച്	8465
സീരിയ	8466
സര്‍ക്കാറ	8467
ചേര	8468
സീറ്റുകളാണ്	8469
വളർച്ച	8470
കുടുംബത്തിന്റെ	8471
ഇല്ലെന്ന്	8472
മിസൈ	8473
നേതാവിന്റെ	8474
##ാവുന്നതാണ്	8475
ദുരൂഹ	8476
സഹോദരന്‍	8477
സീസൺ	8478
ക്രൈം	8479
പെരുമാറ	8480
ഏജന്‍സി	8481
ുമ്പോ	8482
സിദ്ധരാമയ്യ	8483
ആത്മവിശ്വാസം	8484
ചങ്ങനാ	8485
സമർപ്പിച്ച	8486
മഞ്ചേശ്വ	8487
ഗാന	8488
ചെങ്ക	8489
നാട്	8490
ിച്ചു	8491
െങ്കില്‍	8492
##ദാര്‍	8493
##സ്ഥാപ	8494
##ടുത്തെ	8495
കളുടേയും	8496
##വാഹി	8497
അതെ	8498
##ാമെന്നും	8499
ആരോപിച്ചിരുന്നു	8500
##വേല	8501
ഒഴു	8502
മുണ്ടാക	8503
ക്ലബ്	8504
സർവേ	8505
വിദേശത്തു	8506
ആഗ്രഹം	8507
ഹെൽ	8508
സഹായിച്ച	8509
ലീഗിന്റെ	8510
ചാനല്‍	8511
നീണ്ടു	8512
നാവിക	8513
വിജിലന്‍സ്	8514
ഡൊണ	8515
##ത്തൊഴില	8516
ജഗ	8517
ധരിക്ക	8518
നൗ	8519
##പൂർ	8520
##ർഡ്	8521
##മീ	8522
പ്രീ	8523
നിസ	8524
നേമ	8525
ചെയ്യുമ്പോള്‍	8526
കേന്ദ്രങ്ങള്‍	8527
കഴു	8528
വിജയിച്ചു	8529
ട്രെയിന്‍	8530
പേരിലാണ്	8531
നാഷണൽ	8532
കൂട്ടു	8533
ജിഹ	8534
മൊത്ത	8535
ഒന്നാണ്	8536
അതിനായി	8537
ലിസ്റ്റ	8538
വിവരങ്ങളും	8539
മാസത്തിന	8540
സാമ്പത്തികമായി	8541
കോളേജിലെ	8542
കോര്‍പറ	8543
സർവകലാശാല	8544
പെരുമാറ്റ	8545
പെണ്‍കുട്ടിയെ	8546
രീതിയിലാണ്	8547
മോശമായി	8548
ഉപതിരഞ്ഞെടുപ്പ്	8549
സൂചിപ്പിക്കുന്നത്	8550
ജെഡിയു	8551
അടുക്ക	8552
എല	8553
ഓസ്‌ട്രേലിയ	8554
മറിച്ച്	8555
##തില്ല	8556
##ഗണി	8557
##പേക്ഷ	8558
##ുരുത്തി	8559
##ഥ്വി	8560
##ത്തിലേറെ	8561
##ാനാ	8562
വിസ്ത	8563
വിജ്ഞ	8564
ചെയ്യുകയായിരുന്നു	8565
ലക്ഷത്തോളം	8566
##ടക്കമുള്ള	8567
കാലഘട്ട	8568
തോന്നി	8569
കണ്ണു	8570
തിരഞ്ഞെടുപ്പിലും	8571
വളരെയ	8572
നോമിന	8573
നിലവാര	8574
ഉള്‍പ്പെട്ട	8575
പുറത്താക്കിയ	8576
##കൂട്ടി	8577
പാര്‍ട്ടിയെ	8578
##ാബാദ്	8579
ഡ്രൈവര്‍	8580
തെന്നായിരുന്നു	8581
തൃണമൂല	8582
റിലയ	8583
ഉത്തര്‍പ്രദേശ	8584
അയ്യപ്പ	8585
തിരഞ്ഞെടുക്കപ്പെട്ട	8586
ആശ്രയ	8587
ഗ്രാമപഞ്ചായത്ത്	8588
ഹരീഷ്	8589
ഗ്യാ	8590
ടേ	8591
പട്ടി	8592
ശോ	8593
ഷൂട്ടി	8594
##ളളി	8595
##ഗെ	8596
##ോടുള്ള	8597
##ബല്‍	8598
##ബിന	8599
വികാര	8600
പിള	8601
കൊറിയ	8602
##ാർഥി	8603
##ാകുമെന്ന	8604
തീരത്ത്	8605
അതിർത്തി	8606
വിജയന്റെ	8607
തൊട്ട്	8608
എന്‍ഐഎ	8609
മുണ്ടെന്നും	8610
സ്ഥാപനങ്ങൾ	8611
ിട്ടുണ്ടെന്നാണ്	8612
മത്സരാര്‍ത്ഥ	8613
ദിലീപിനെ	8614
ഓണ്‍ലൈന	8615
ശാസ്ത്രജ്ഞ	8616
ഗെഹ്ല	8617
കയറ്റുമതി	8618
കെജ്രിവാള്‍	8619
സർട്ടിഫിക്കറ്റ	8620
ബ്രാഞ്ച്	8621
എന്നിങ്ങനേയാണ്	8622
ബോംബ്	8623
www	8624
കന്നി	8625
ധര്‍മ	8626
ുമ	8627
##എൻ	8628
##ിലു	8629
##ച്ചും	8630
##ങ്ങാടി	8631
##ുകാരി	8632
ങ്ങളൊന്നും	8633
ഇന്ത്യക്ക്	8634
സെറീന	8635
മേനോ	8636
സംഘവും	8637
##ാത്തത്	8638
##മാറ്റം	8639
ബന്ധപ്പെട	8640
കഴിച്ച	8641
തുടങ്ങിയവര്‍	8642
പദ്ധതിക്ക്	8643
മരണമട	8644
നഷ്ടമായ	8645
##ത്തിലാ	8646
റിയാസ	8647
വിവാദമായ	8648
##യിലായിരുന്നു	8649
സഖ്യത്തിന്	8650
യ്ക്കുള്ള	8651
സിപിഎമ്മിന്	8652
കുമാറിനെ	8653
അക്രമം	8654
ഗുജറാത്ത	8655
ലംഘന	8656
സൂപ്പർ	8657
സംവരണം	8658
ഐശ്വര്യ	8659
ഇപി	8660
ധീര	8661
##വാന്‍	8662
##ൻസി	8663
##ധന	8664
വികാരം	8665
സിസ്റ്റ	8666
കളുമാണ്	8667
കളക്ടറ	8668
സെൽ	8669
ഡിഗ്രി	8670
##െടുത്തത്	8671
അയച്ചു	8672
ആദ്യഘട്ട	8673
റിസര്‍	8674
പ്രവേശിപ്പിച്ച	8675
വീടുകളിലും	8676
മായും	8677
സംഘടനകള്‍	8678
ജില്ലകളിലെ	8679
പത്താം	8680
തൊഴിലാളികളെ	8681
സഞ്ചരിച്ച	8682
ത്തുട	8683
കാലയളവില്‍	8684
പ്രയാസ	8685
ലക്ഷദ്വീപ്	8686
ഹൈക്കമാന്‍ഡ്	8687
ഗുണ്ട	8688
ജയില്‍	8689
റായ്	8690
സോള	8691
##യുന്ന	8692
##ോല	8693
##ജക്ട്	8694
##ന്വേഷണ	8695
##പ്പാട	8696
##െന്നായിരുന്നു	8697
##ണ്ണ്	8698
##ിപ്പിക്കുക	8699
സംസ്ഥാനങ്ങള്‍	8700
കേന്ദ്രത്തിന്റെ	8701
##മേറ്റ	8702
കോൺഗ്രസ	8703
ത്തിനെ	8704
വിഭാഗത്തിൽ	8705
ആലോചന	8706
മരണപ്പെട്ട	8707
അതിനുള്ള	8708
അന്വേഷണത്തിന്	8709
ചൈനയുടെ	8710
വിലയിരുത്തി	8711
പ്രശ്‌നങ്ങള	8712
അലേ	8713
മാണോ	8714
മാണെന്നാണ്	8715
##സ്‌കാരിക	8716
വിശ്വസിക്കുന്ന	8717
യാദവ	8718
കൊച്ചിയിലെ	8719
മറികടക്ക	8720
പഞ്ചാബില്‍	8721
പ്രതിഫലം	8722
സര്‍ട്ടിഫിക്കറ്റ്	8723
വരിൽ	8724
വിക്കറ്റ്	8725
ുമായിരുന്നു	8726
##ോയി	8727
##വറി	8728
##പ്പാ	8729
എന്നറിയ	8730
മാര്‍ച്ച	8731
##ങ്കര	8732
##സിന്‍റെ	8733
##ാകാത്ത	8734
##ാഗ്	8735
സ്റ്റേഷന്‍	8736
കുമ്മ	8737
യൂട്യൂ	8738
ട്ടു	8739
നടക്കുന്നു	8740
തരത്തില്‍	8741
സ്ത്രീകളെ	8742
റഷ്യയുടെ	8743
ജലീല്‍	8744
ആനന്ദ്	8745
##െതിരായ	8746
ചൊവ്വ	8747
ക്രമീകരണ	8748
രക്ഷാപ്രവര്‍ത്ത	8749
ആക്ഷേപം	8750
ഡിഎംകെ	8751
ഓക്‌സിജന്‍	8752
ജേ	8753
പബ്ലിക്	8754
വച്ചു	8755
ിൻ്റെ	8756
ുമുണ്ട്	8757
##ടമ	8758
##ാഫ്രിക്ക	8759
പ്രക്രിയ	8760
##ിക്കുമ്പോള്‍	8761
ചെയർ	8762
##േഷനു	8763
ത്തിനിടെ	8764
മുഖ്യമന്ത്രിക്ക്	8765
പാലിച്ച	8766
അധികാരി	8767
സീറ്റുകളിൽ	8768
തിരഞ്ഞെടുപ്പിനെ	8769
ചിത്രത്തിന്റെ	8770
കൂട്ടം	8771
ുണ്ടെന്നാണ്	8772
ആരോഗ്യവകുപ്പ്	8773
യുള്ളൂ	8774
പ്രതിസന്ധിയ	8775
നെഗറ്റീവ	8776
ദക്ഷിണാഫ്രിക്ക	8777
പൂർണമായും	8778
ഡബ്ല്യു	8779
പലയിടത്തും	8780
ചിങ്ങം	8781
ആരിഫ്	8782
അബ്ദുള്ള	8783
'-	8784
ആണ്‍കു	8785
ഇരുന്ന	8786
ഗതി	8787
ജേക്ക	8788
പര്യ	8789
ഫീ	8790
ഫിലി	8791
യെങ്കിലും	8792
റാം	8793
##ാനിയുടെ	8794
പേടി	8795
##റിങ്	8796
കളിലാണ്	8797
##ട്ടിക്	8798
പറയുകയും	8799
നല്‍കുകയും	8800
ജനവിധി	8801
ങ്ങളിലേക്ക്	8802
നീല	8803
ക്രെ	8804
തൊടു	8805
യെക്കുറിച്ച്	8806
##സാക്ഷി	8807
ആളുകള	8808
മോദിയെ	8809
പദ്ധതികൾ	8810
സ്ത്രീകളും	8811
പ്രചാരണത്തിന്	8812
തടയാന്‍	8813
പവാര്‍	8814
നിർമ്മാണ	8815
വെബ്സൈ	8816
മറുപടിയുമായി	8817
സാംസ്‌കാരിക	8818
കോട്ടയത്ത്	8819
നാശനഷ്ട	8820
ബോളിവു	8821
co	8822
ഞങ്ങള്‍ക്ക്	8823
##മാണിത്	8824
വിസ്മ	8825
ക്കണമെന്നാണ്	8826
##രാകാശ	8827
ത്തേയും	8828
##ജ്ജ്	8829
അന്വേഷിച്ച	8830
##ക്കുട്ടി	8831
മൊന്നും	8832
ഉള്‍പ്പെടുന്ന	8833
സിനിമയിലെ	8834
മായിട്ടാണ്	8835
ആശുപത്രികളിലും	8836
ലാബ	8837
മാർഗ	8838
പറ്റില്ല	8839
കീഴിൽ	8840
ഡിജിപി	8841
ദൗത്യ	8842
വമ്പന്‍	8843
ദുര്‍ബല	8844
വ്യക്തത	8845
ദൂ	8846
നസ	8847
വിക്കറ്റ	8848
##ദാസ	8849
##വുമായ	8850
##am	8851
##ക്കൽ	8852
പരിസ്ഥിതി	8853
മന്ത്രിമാര്‍	8854
##ങ്ങിയത്	8855
##ഭാഗ്യ	8856
യൂസ	8857
മണിക്കൂർ	8858
തവണയും	8859
സ്വീകരിക്കും	8860
##പരിച	8861
ഹിജ	8862
ലംഘിച്ച	8863
സമ്മതിച്ച	8864
ഉദ്ധവ്	8865
വെടിവ	8866
പൃഥ്വി	8867
സന്ധ	8868
##ോം	8869
##സിച്ച	8870
##ഫര്‍	8871
##ന്‍സിപ്പ	8872
മാരു	8873
മാർക്ക്	8874
##സ്ഥിര	8875
##ുവീ	8876
അതിലൂടെ	8877
അതോടൊപ്പം	8878
പ്രവചന	8879
ത്തിനിട	8880
വിജയരാഘ	8881
സമ്മർദ്ദ	8882
ഓഫീസിൽ	8883
അന്വേഷണത്തില്‍	8884
നാട്ടിൽ	8885
വകുപ്പുകള്‍	8886
ജയരാജൻ	8887
##ുമ്പോഴാണ്	8888
റെക്കോര്‍ഡ്	8889
പ്രിന്‍സിപ്പ	8890
ബഹിരാകാശ	8891
ഹൈദരാബാദ്	8892
##രുതെന്ന	8893
കലാകാര	8894
ഒഡീഷ	8895
ധനു	8896
പിയും	8897
സഭാ	8898
##സല്‍	8899
##രുത്തിയ	8900
ജനതാ	8901
##ഞ്ചു	8902
കേന്ദ്രീകരിച്ച	8903
സ്വദേശികള്‍	8904
മെന്റ്	8905
ആവശ്യപ്പെട	8906
##ക്കാരായ	8907
സ്റ്റാര്‍	8908
വോട്ടിന്റെ	8909
പ്രതികൂല	8910
മേഖലകളിൽ	8911
തലത്തിൽ	8912
പൂര്‍ത്ത	8913
എന്നിരുന്ന	8914
പ്രവേശിപ്പിച്ചത്	8915
പേരുടെയും	8916
തിയതി	8917
പെട്രോള്‍	8918
കൊണ്ടുപോക	8919
ട്രംപിന്റെ	8920
സിസിടിവി	8921
കസ	8922
ണി	8923
യിലേക്കുള്ള	8924
സുക	8925
##ളാ	8926
കോയ	8927
ക്കുണ്ട്	8928
##ാലയം	8929
വാട്ട	8930
രോഗി	8931
കേസുകളുടെ	8932
..!	8933
##ബിസി	8934
താങ്ങ	8935
ചര്‍ച്ചയില്‍	8936
അല്ലാത്ത	8937
സത്യവാ	8938
ശുചി	8939
കണ്‍വീന	8940
കര്‍ഷകരുടെ	8941
സര്‍ക്കാരും	8942
##ബോസ്	8943
അട്ടിമറ	8944
പൊതുമരാമ	8945
ക്രൂഡ്	8946
താരതമ്യം	8947
എതിരാള	8948
ഉദാഹരണ	8949
അഹമ്മദ	8950
ഖു	8951
ഗർ	8952
മക്കള്‍	8953
യിലേക്കും	8954
ാൻ	8955
##ോഷം	8956
##ഫലം	8957
##ൻസിപ്പ	8958
##റ്റീ	8959
##ിനൊപ്പം	8960
##ാര്‍ശ	8961
വെട	8962
ഇന്ത്യയ്ക്ക്	8963
ഇവർക്ക്	8964
ചെയ്താല്‍	8965
അടങ്ങിയ	8966
ഉദ്യോഗസ്ഥരുടെ	8967
മരണത്തിന്	8968
വ്യക്തിപരമായ	8969
അവകാശം	8970
##മോഹ	8971
പൊലീസിന്റെ	8972
താല്‍പ്പ	8973
ിരുന്നുവെന്ന്	8974
ാവശ്യ	8975
റദ്ദാക്ക	8976
മത്സ്യത്തൊഴില	8977
കുതിച്ചു	8978
സൗജന്യമായി	8979
മാനദണ്ഡങ്ങള്‍	8980
തിരുവനന്തപുരത്തെ	8981
ആയിരക്കണക്കിന്	8982
അപ്പോൾ	8983
ആരു	8984
ഏതു	8985
കത്തില്‍	8986
സഞ്ജു	8987
##ഡ്യ	8988
##ഡിന	8989
നിബന്ധന	8990
നേടു	8991
##തമാണ്	8992
പോലെയാണ്	8993
എംഎം	8994
കേന്ദ്രത്തില്‍	8995
##സമാ	8996
പരാതിയിൽ	8997
ചേരുന്ന	8998
പരിശോധിച്ചത്	8999
ിക്കാനുള്ള	9000
തടഞ്ഞു	9001
ന്യൂയോ	9002
അമേരിക്കയില്‍	9003
അപകടത്തിൽ	9004
പരാജയം	9005
മാർഗ്ഗ	9006
നില്‍ക്കുകയാണ്	9007
പ്രവര്‍ത്തകരെ	9008
ചടങ്ങിൽ	9009
ഡ്രൈവർ	9010
വിമാനത്താവളത്തില്‍	9011
പ്രിൻസിപ്പ	9012
കമല്‍നാഥ്	9013
തൊട്ടടുത്ത	9014
അമരീന്ദ	9015
റിക്രൂട്ട്	9016
കന്ന	9017
ഗാര്‍	9018
ലളി	9019
ഷീ	9020
ിച്ച്	9021
##ഷുറ	9022
##ത്തായ	9023
##ാനിലെ	9024
##ിനാഥ	9025
ക്കിടെ	9026
നടന്ന്	9027
ഒരുമ	9028
സിഐ	9029
മേഘ	9030
ഇടയില്‍	9031
വിലയില്‍	9032
എന്തൊക്കെ	9033
കൂട്ടായ്മ	9034
സമ്പത്ത്	9035
ബാധക	9036
സര്‍ക്കാരിനെതിരെ	9037
തകർക്ക	9038
മൂന്നാമത്തെ	9039
കമല	9040
പുരസ്	9041
നില്‍ക്കുന്നത്	9042
ക്കൊണ്ട	9043
തിരിച്ചടിയാണ്	9044
മുകളിലുള്ള	9045
സ്റ്റാഫ്	9046
വൈറലായി	9047
##ക്കൂട്ടം	9048
ചൂണ്ടിക്കാട്ടുന്നു	9049
യൂണിവേഴ്‌സി	9050
തെളിഞ്ഞ	9051
##സ്ടി	9052
വാണിജ്യ	9053
താപനില	9054
##വാറ്റുപുഴ	9055
സെക്യൂരി	9056
രാണ്	9057
ലണ്ട	9058
വഷ	9059
ഷം	9060
സൌ	9061
##ഗാ	9062
##െന്നു	9063
സംഖ്യ	9064
പോള	9065
കളേയും	9066
എംബി	9067
സെഞ്ച്	9068
പ്പു	9069
മുന്നിലുള്ള	9070
രാജ്യത്തിന്	9071
##േറ്റു	9072
തലമുറ	9073
എന്താണെന്ന്	9074
ുണ്ടായ	9075
കമ്പ്യൂട്ട	9076
രാശിയില്‍	9077
ച്ചി	9078
സാധ്യതയുണ്ടെന്ന്	9079
അഭിമുഖത്തില്‍	9080
ടൈം	9081
എല്‍ഡിഎഫിന്	9082
ക്രിമിനല്‍	9083
താല്‍പര്യം	9084
റോബിൻ	9085
എന്നിരുന്നാലും	9086
അഹ	9087
ഫീല്‍	9088
ശല	9089
ഷഹ	9090
ാറ	9091
ൊക്കെ	9092
##എസ്‌	9093
##ത്തുപ	9094
##തിരുന്ന	9095
മുക്തി	9096
നേയും	9097
##മ്പ്ര	9098
തുടരുന്നു	9099
##ോടെയാണ്	9100
##ഡിംഗ്	9101
കേരളത്തിലും	9102
കാഴ്ച്ച	9103
പ്പ്	9104
##ാടന	9105
കമ്മറ്റി	9106
ദുർ	9107
നെല്ല	9108
മാധ്യമപ്രവര്‍ത്തക	9109
ആരംഭിച്ചിട്ടുണ്ട്	9110
നടപടിക്രമ	9111
ആർഎസ്	9112
ഇടപെട്ട്	9113
സമാജ്	9114
നിരോധനം	9115
അടിയന്തരമായി	9116
##ശേഷം	9117
തീരദേശ	9118
അണിനിര	9119
ുമ്പോള്‍	9120
എതിര്‍പ്പ	9121
വെടിവെ	9122
സംവരണ	9123
##കേരള	9124
ചൗധരി	9125
ആസാദ്	9126
ആചാര	9127
ബിൽ	9128
ബാര	9129
വട്ട	9130
വരി	9131
##ാലെ	9132
##ിലെത്തി	9133
##രാഗ്	9134
##മ്പുഴ	9135
വീശ	9136
##ര്‍ക്കു	9137
ബന്ധമുണ്ട	9138
അന്യ	9139
വേണ്ടിയ	9140
നടന്നിരുന്നു	9141
അനുശ	9142
എന്‍ജിനീയ	9143
എല്ലാവരെയും	9144
തവണയാണ്	9145
സ്ത്രീകളുടെ	9146
ആളുകള്‍ക്ക്	9147
തന്ത്രം	9148
അഡ്മ	9149
##ുമ്പോഴ	9150
കാര്യമില്ല	9151
കാവ്യ	9152
വനംവകുപ്പ്	9153
##കക്ഷിയായ	9154
അനുമതിയ	9155
പൊതുമരാമത്ത്	9156
05	9157
ഇങ്ങനെയ	9158
ചതു	9159
നദ്ദ	9160
സിലി	9161
##ിങ്	9162
##ഡർ	9163
##വുമ	9164
പ്രഭ	9165
ക്കാരുടെ	9166
കൊടി	9167
ചെയ്യണമെന്ന്	9168
##കളായ	9169
വിജയി	9170
നീര	9171
മെമ്മ	9172
വരവ	9173
സ്റ്റേഷനില്‍	9174
സമ്മര്‍ദ്ദ	9175
നടപ്പാക്കിയ	9176
പുതുപ്പള്ളി	9177
മോഹന	9178
ഭീഷണ	9179
സംരക്ഷണം	9180
ക്ഷാമ	9181
പശ്ചാത്തലത്തിലാണ്	9182
റൂം	9183
ഗോപാല	9184
മുതലാണ്	9185
പ്രശസ്ത	9186
തര്‍ക്കം	9187
പാരമ്പ	9188
ഡിപ്ലോമ	9189
".	9190
എന	9191
തന	9192
ധി	9193
നുമായി	9194
സാര	9195
##ഹാർ	9196
##െയായിരുന്നു	9197
നിത്യ	9198
ത്വ	9199
##ാലിന്റെ	9200
##ങ്ങളില	9201
##ങ്ങളിലൂടെ	9202
##ക്രമിച്ച്	9203
ഇതൊന്നും	9204
സംസ്ഥാനങ്ങളിലും	9205
കേരളാ	9206
പിന്നില	9207
##ഡിയൂരപ്പ	9208
ചെങ്ങ	9209
ബിജെപിയിലേക്ക്	9210
സമീപത്തെ	9211
അവകാശപ്പെടുന്നത്	9212
സമ്പർക്കത്തിലൂടെ	9213
പതിറ്റാണ്ട	9214
നിര്‍ദേശങ്ങള്‍	9215
പങ്കെടുക്കും	9216
##ശേഷി	9217
യൂണിറ്റ്	9218
റെഡ്ഡി	9219
വേട്ടയ	9220
ജനപ്രതിനിധ	9221
ദശലക്ഷം	9222
വിരാട്	9223
അഡ്മിനി	9224
അൻ	9225
അയോഗ	9226
ആഫ്രിക്ക	9227
ഒന്നു	9228
കബ	9229
നല്	9230
മകൾ	9231
##ിള്‍	9232
##ജന്റ	9233
##ിയന്‍	9234
##റിയാം	9235
വെള്ളി	9236
വേര്‍	9237
##ലിം	9238
ിരിക്കണം	9239
അതിര	9240
ഡോസ	9241
സംബന്ധമായ	9242
തൊഴിലാളികളുടെ	9243
ഡെമോ	9244
അകല	9245
##ക്കാലത്ത്	9246
രാമക്ഷേ	9247
വിദ്യാർത്ഥികൾ	9248
##ുനോ	9249
അഭിമുഖം	9250
സൗകര്യങ്ങള്‍	9251
അഭിഭാഷകന്‍	9252
ബൂത്ത	9253
രമ്യ	9254
റാവു	9255
വെളിച്ച	9256
തിരക്കഥ	9257
എറണാകുളത്ത്	9258
ഇരിട്ടി	9259
കാഞ്ഞിരപ്പള്ളി	9260
ഉറ്റുനോ	9261
സന്നിധാന	9262
സെക്യൂരിറ്റി	9263
07	9264
അക്	9265
ആഞ്ഞ	9266
എപ്പി	9267
ഡൗൺ	9268
സവി	9269
##റുകൾ	9270
##ഫ്യൂ	9271
പ്രാപ	9272
##ുവരുന്ന	9273
മേള	9274
ഉപാധ	9275
കാര്യങ്ങളെ	9276
ഭാഗത്തു	9277
സീറ്റിൽ	9278
കുടുംബത്തിലെ	9279
മിണ്ട	9280
സെക്രട്ടേറിയ	9281
അയല്‍	9282
##ൻ്റ	9283
അമേരിക്കയുടെ	9284
ഒറ്റയ്ക്ക്	9285
ക്ഷേത്രം	9286
ഉയര്‍ന്നിരുന്നു	9287
േക്കുമെന്ന	9288
ഹിന്ദി	9289
പ്രസ്താവനയില്‍	9290
കിട്ടിയത്	9291
പോളിങ്	9292
അമ്പര	9293
##പ്രവര്‍ത്തകര്‍	9294
ഉദയ	9295
അബ്ദുള്‍	9296
ഞെട്ടിക്കുന്ന	9297
ഇലക്ട്രോണി	9298
##ായുധ	9299
ശുപാര്‍ശ	9300
ഇവി	9301
പൂര	9302
വുമില്ല	9303
ഒരുപോലെ	9304
##ത്തിമ	9305
ത്താ	9306
##ജെപി	9307
##ാളും	9308
ഉണ്ടെന്നും	9309
ഇന്ത്യയും	9310
എന്നിവയും	9311
കോൺഗ്രസും	9312
പിന്തുണച്ച്	9313
പിന്തുണയും	9314
ചികിത്സയിൽ	9315
കുട്ടികള്‍ക്ക്	9316
യ്ക്കാണ്	9317
ചേര്‍ന്നു	9318
കുത്തനെ	9319
തികച്ചും	9320
ഡല്‍ഹിയില്‍	9321
ദീർ	9322
യാക്കി	9323
##തായ	9324
##ിലില്‍	9325
##ാനോ	9326
##ിച്ചിരിക്കുന്നത്	9327
മാന്‍	9328
പ്രതിഭ	9329
പരിഷ്‌	9330
ചെയ്യുമെന്ന്	9331
തീര്‍ത്ത	9332
ഉപദ്ര	9333
ിരിക്കും	9334
യെഡിയൂരപ്പ	9335
എത്തിച്ചത്	9336
പിടിക്കുന്ന	9337
##ത്തിനുള്ള	9338
120	9339
അനുവദിക്കുന്ന	9340
##്വാന	9341
ഹൈക്കമാ	9342
പ്രവേശിപ്പ	9343
ണ്ടാ	9344
ദേവി	9345
എക്‌സൈസ്	9346
സ്വർണം	9347
നോക്കാം	9348
ആക്രമണത്തില്‍	9349
##വൈസി	9350
മദ്യപ	9351
തുടക്കത്തില്‍	9352
ക്കുറിച്ചും	9353
ക്കുറിച്ചുള്ള	9354
നിവാരണ	9355
ദീർഘ	9356
മ്യൂ	9357
രഘ	9358
##വശ	9359
##വാര	9360
പറഞ്ഞാൽ	9361
തന്നോട്	9362
ചെയ്യാനും	9363
നിയമങ്ങൾ	9364
തെക്ക്	9365
സർക്കാര	9366
##ദിക്	9367
പിടിച്ചത്	9368
ശക്തമാക്കിയ	9369
ചെയ്തിരുന്ന	9370
നല്ലത്	9371
വീഡിയോയില്‍	9372
വർഷമായി	9373
കമ്മീഷണര്‍	9374
കളുടെയും	9375
പുറത്തിറങ്ങ	9376
ഫാത്തിമ	9377
ക്കിടയിൽ	9378
ട്വിറ്ററില്‍	9379
താത്കാലിക	9380
തന്നെയായിരുന്നു	9381
സുധാകരന്റെ	9382
തൊടുപുഴ	9383
ഔട്ട്	9384
വ്	9385
ഹന	9386
വിശ്വാ	9387
##റിയും	9388
##ര്‍ക്കുന്ന	9389
വേണമെന്നും	9390
അനിവാര	9391
പാലിക്കുന്ന	9392
സ്ഥിരമായി	9393
തിരഞ്ഞെടുപ്പിന്റെ	9394
##കരമാണ്	9395
മൊക്കെ	9396
അടിമ	9397
സമയമാണ്	9398
ക്യാമ്പ്	9399
യുണ്ടായി	9400
പ്രവര്‍ത്തകരും	9401
പണിക്ക	9402
ചേര്‍ന്നാണ്	9403
അവതാര	9404
പരിപാടിയിൽ	9405
നിലനിര്‍ത്ത	9406
വീട്ടിലെത്തി	9407
പന്തില്‍	9408
അഴിച്ചു	9409
##പ്രവർത്തക	9410
03	9411
ചില്ല	9412
ഞങ്ങൾക്ക്	9413
പള്‍	9414
യോടും	9415
റഹ	9416
റൺ	9417
ുകള്‍	9418
##നീഷ	9419
##തക	9420
പ്രേമ	9421
ക്കാറ	9422
കുര്യ	9423
##േഷന്	9424
##േഷിന്റെ	9425
##ീകാര	9426
ചെയ്യുകയാണ്	9427
കേന്ദ്രങ്ങളില്‍	9428
സ്ഥാനാർഥി	9429
ചിദ	9430
##സ്‌പോ	9431
ബാധിച്ചു	9432
അടിച്ചു	9433
മുണ്ടാകും	9434
നേതാക്കളായ	9435
ജോലിക്ക്	9436
യിലെത്തിയ	9437
വിശദീകരിക്ക	9438
ജില്ലകളിലായി	9439
സ്വര്‍ണ്ണ	9440
##ക്കളുടെ	9441
ധനകാര്യ	9442
ഉണ്ടായിരുന്നില്ല	9443
##ൊക്കെയാണ്	9444
അവിശ്വാസ	9445
നിയമനടപ	9446
ബെംഗളൂരുവ	9447
റെയ്ഡ്	9448
സാഹചര്യമ	9449
ജ്വല്ല	9450
കഞ്ചാവ്	9451
കടുപ്പ	9452
ചാക്കോ	9453
തമ്പ	9454
മതം	9455
##ാച	9456
##ഹാസ	9457
##എച്ച്	9458
##ത്‌	9459
മുയ	9460
##സിം	9461
##്യാദ	9462
അതോ	9463
ിട്ടു	9464
പെരിയ	9465
##ത്തുട	9466
ശ്രമങ്ങൾ	9467
സ്റ്റു	9468
കുമാര	9469
യുവാക്കള്‍	9470
##ിടുന്ന	9471
പ്രതീക്ഷയിലാണ്	9472
ആരംഭിക്കുന്ന	9473
ഒഴിവുകള്‍	9474
താരത്തിന്റെ	9475
ക്രമസമാ	9476
ഇന്റലി	9477
നേരിട്ടത്	9478
പിടികൂടി	9479
ക്യാപ്റ്റന്‍	9480
സീസണില്‍	9481
കുടിവെള്ള	9482
##പൊട്ട	9483
സൊസൈ	9484
കല്‍പ്പറ്റ	9485
വിദ്യാർഥ	9486
പലതവണ	9487
ക്രമസമാധാന	9488
തക്ക	9489
സ്ക	9490
മാട	9491
മുക്ത	9492
രാക	9493
കൊച്ചു	9494
വെങ്ക	9495
ചെയ്യേണ്ടത്	9496
ജോൺ	9497
കാത്തു	9498
ഇടയിൽ	9499
കേസുകളും	9500
മന്ത്രിസഭാ	9501
സംഭവത്തിന്	9502
ഉയരുന്നത്	9503
കൈപ്പ	9504
രണ്ടാഴ്ച	9505
ഉള്‍പ്പ	9506
മുണ്ടായി	9507
##ഭ്യാസ	9508
ഉണ്ടായിട്ടില്ല	9509
ഉന്നയിച്ചത്	9510
കിടന്ന	9511
പതിനായിര	9512
ഉമ്മന്‍ചാണ്ടി	9513
സമുദ്ര	9514
വരാൻ	9515
കാപ്പന്‍	9516
തനിക്കെതിരെ	9517
യാഥാര്‍ത്ഥ	9518
വോട്ടെണ്ണല്‍	9519
ഗസ്റ്റ്	9520
ചാടി	9521
ജപ്പ	9522
രുന്ന	9523
വന്യ	9524
##ടാ	9525
##ണത	9526
ഉണ്ടാക്കുന്ന	9527
സെല്ല	9528
സംഘത്തിന്റെ	9529
ദിവസങ്ങള്‍	9530
കുടുംബശ്രീ	9531
ആര്‍ജെഡി	9532
30ന്	9533
ലൈൻ	9534
വൈകിയ	9535
സ്ഥാനാര്‍ത്ഥിയായി	9536
ക്കാനുളള	9537
യുഡിഎഫിന്റെ	9538
മാറുന്ന	9539
യുഎഇയില്‍	9540
ജയിലിൽ	9541
ഡിവൈഎഫ്ഐ	9542
തുടർച്ചയായി	9543
ഹെല്‍ത്ത്	9544
എതിരായ	9545
ടാറ്റ	9546
##മര്‍	9547
##ൃതമായി	9548
##ക്കുകയും	9549
സ്വി	9550
കേട്ട്	9551
##സിഡ	9552
സ്വീകാര	9553
പേരി	9554
സുഭാ	9555
കെട്ടിയ	9556
അനാവശ്യ	9557
പിന്നിലെ	9558
##പ്പെടുത്താൻ	9559
##ബ്ദ	9560
സ്‌ക്ര	9561
##ബന്ധിച്ച്	9562
ഉറച്ച്	9563
തൃപ്തി	9564
ആദ്യമായാണ്	9565
പ്രസിഡന്‍റ്	9566
കരുത്ത്	9567
പ്രകടിപ്പിച്ച	9568
അടയ്ക്ക	9569
നീക്കങ്ങള്‍	9570
പുറത്താക്ക	9571
സേനാ	9572
സമീപിച്ചത്	9573
##യ്ക്കല്‍	9574
ലിസ്റ്റ്	9575
250	9576
നേരിടാന്‍	9577
നിരീക്ഷണത്തില	9578
അനുഭവം	9579
തടയുന്ന	9580
കൂടുതലാണ്	9581
അഡീഷ	9582
പരിപാടികള്‍	9583
ഹർജ	9584
കൺട്ര	9585
അഴീക്ക	9586
വൃത്തങ്ങള്‍	9587
ഭിന്നത	9588
സമ്പര്‍ക്കത്തിലൂടെയാണ്	9589
അയാളുടെ	9590
സൂരജ്	9591
മില്യണ്‍	9592
നിലനിൽക്കുന്ന	9593
അതിശക്തമായ	9594
ഹെലികോ	9595
സത്യവാങ്	9596
5000	9597
ഗോള്‍	9598
മെങ്കിലും	9599
യൊന്നും	9600
##ഘോഷ	9601
പുതുമ	9602
വീണ്	9603
##ണ്ണി	9604
ബാംഗ്ല	9605
##്യാപേക്ഷ	9606
##മാശ	9607
വരില്ല	9608
ആവശ്യപ്പെടുന്നത്	9609
സർക്കാറ	9610
##ക്ഷേമ	9611
കയറ്റി	9612
വൈറല്‍	9613
കിട്ടും	9614
ഉടല	9615
ശ്രദ്ധിക്കണം	9616
ഉൾപ്പെട്ട	9617
പഠിച്ച	9618
വിശദീകരണ	9619
ജില്ലകളിലാണ്	9620
സ്ഥാനാര്‍ത്ഥിയെ	9621
വകുപ്പിന്	9622
വെച്ചത്	9623
ഫ്രാന്‍	9624
ജാമ്യാപേക്ഷ	9625
കൊണ്ടുവര	9626
കമ്മിറ്റിയുടെ	9627
സിവിൽ	9628
പ്രസിദ്ധീകരിച്ച	9629
താഴ്ന്ന	9630
ഡിജിറ്റല്‍	9631
ഗെലോട്ട്	9632
ഹിജാബ്	9633
ഇരിക്കുന്ന	9634
ഭയം	9635
സപ്പോ	9636
ഹസ	9637
##ടാണ്	9638
##ഡുകൾ	9639
##മാല	9640
##വസ്ഥ	9641
##ിക്കട	9642
##ിക്കോ	9643
നിഗമ	9644
##ാക്കളുടെ	9645
പറഞ്ഞിട്ടുണ്ട്	9646
പറയേണ്ട	9647
ലഭ്യമായ	9648
നിയമവിരുദ്ധ	9649
##്യൂറോ	9650
അഭയ	9651
ചേരി	9652
അനുയായി	9653
കുടുംബത്തെ	9654
യാത്രക്കാർ	9655
ആദായ	9656
ല്ലാ	9657
ക്കാനോ	9658
പ്പോലെ	9659
പണിയ	9660
ആരാധന	9661
രംഗത്തെത്തിയത്	9662
അഴിമ	9663
തമിഴ്‌നാട്ടില്‍	9664
ആരോഗ്യം	9665
ത്രിപുര	9666
ഉല്‍പ്പാദ	9667
ഞെട്ടി	9668
റവന്യൂ	9669
അളവ	9670
ഉത്സവ	9671
ഓണം	9672
ദോഷ	9673
മഹി	9674
ിംഗ	9675
##ീഖ്	9676
##ര്‍ഷം	9677
സ്റ്റ്	9678
##പിട	9679
ജനങ്ങള	9680
മൂവാറ്റുപുഴ	9681
സ്വദേശിന	9682
ചേട്ട	9683
മാറ്റാന്‍	9684
അഭിഷേ	9685
രാഹുല	9686
പരീക്ഷാ	9687
റിയാദ്	9688
ഉന്നയിക്കുന്ന	9689
##കാലത്ത്	9690
ഒരിക്കൽ	9691
വരികയായിരുന്നു	9692
ടീമിന്റെ	9693
സഞ്ചാര	9694
ഡോളറ	9695
അച്ഛന്‍	9696
സമാധാനം	9697
യുക്രൈന്‍	9698
കുവൈത്ത്	9699
അരുണ്‍	9700
ഭാഗമായാണ്	9701
തിരച്ചില്‍	9702
സർട്ടിഫിക്കറ്റ്	9703
അനുപമ	9704
വിജ്ഞാപ	9705
സവിശേഷ	9706
00	9707
അണിയ	9708
ആധി	9709
ണ്‍	9710
രസ	9711
വക്ക	9712
##ളായ	9713
##റാമ	9714
##ഡ്ര	9715
##മാകുന്ന	9716
##ഫല	9717
##പ്പൊ	9718
##ാൻഡ്	9719
കഴിഞ്ഞത്	9720
മെമ്പ	9721
അപൂര്‍	9722
പരിയ	9723
ട്രോള	9724
രണ്ടുപേ	9725
ചോദിക്കുന്നത്	9726
നേതൃത്വത്തിലാണ്	9727
ടിപി	9728
ടി20	9729
വീട്ടു	9730
മണ്ഡലങ്ങളിലും	9731
ഇറക്കി	9732
സമയത്താണ്	9733
നമ്മളെ	9734
നേതാക്കളുമായി	9735
മാരാർ	9736
വിശദീകരിച്ചു	9737
തിരായ	9738
അമ്മയും	9739
അവകാശപ്പെട്ടു	9740
അര്‍ജു	9741
യഥാ	9742
കുഴപ്പ	9743
വകഭേദ	9744
സംഭാഷണ	9745
go	9746
അസാധ	9747
ജെയ്	9748
ഭീ	9749
##ഡിലെ	9750
മാന്യ	9751
മുടി	9752
വെസ്റ്റ്	9753
എംകെ	9754
##ുണ്ടായിരുന്നു	9755
ആവശ്യപ്പെടുന്ന	9756
..?	9757
പ്രചരിക്കുന്ന	9758
കുടുംബവും	9759
##ാലിദ	9760
നഗരത്തിലെ	9761
റഷ്യൻ	9762
നടപടിയെടുക്ക	9763
ക്രമക്കേ	9764
കൈവശം	9765
ഐസൊല	9766
അപലപ	9767
നിഗമനം	9768
ഓര്‍മ	9769
കായം	9770
താനും	9771
ഭോ	9772
റേഷന്‍	9773
##ഗത	9774
##ാട്ട്	9775
##ിയ്ക്ക്	9776
വിഭവ	9777
കുഴി	9778
##ാവിന്	9779
##യിന്‍	9780
##മിന്ന	9781
അറിയപ്പെടുന്ന	9782
##ഷ്ക	9783
ഇടവം	9784
ചേരു	9785
##ബിള്‍	9786
സോഫ്റ്റ്	9787
തടവ	9788
റെനീഷ	9789
മന്ത്രിയും	9790
പരിഹാസ	9791
നഗരസഭാ	9792
രജിസ്‌ട്ര	9793
സന്ദര്‍ശന	9794
ിരുന്നുവെങ്കിലും	9795
ആവശ്യമുള്ള	9796
ഇടിമിന്ന	9797
സൂക്ഷിച്ച	9798
ക്കേണ്ടതുണ്ട്	9799
ഒരാളാണ്	9800
ലോകകപ്പ്	9801
ശ്രീനിവാസ	9802
##ala	9803
രോഗമുക്തരായി	9804
ഇബ്രാഹി	9805
കം	9806
നൃ	9807
##തല്ല	9808
##െന്നി	9809
പോര	9810
രാജയോഗം	9811
ത്തിലേ	9812
വെക്കുന്ന	9813
പറയണം	9814
ില്ലാത്ത	9815
കടം	9816
ശ്രമങ്ങള്‍	9817
മാറ്റുന്ന	9818
സ്റ്റാന്‍	9819
തിരഞ്ഞെടുപ്പിലെ	9820
ിക്കാനും	9821
മുന്‍സിപ്പ	9822
ഇല്ലെന്നും	9823
ഭാരവാഹി	9824
മാനന്ത	9825
മലയാളികള്‍	9826
##ദ്രോഹ	9827
കണ്ടെത്താൻ	9828
സമൂഹം	9829
യുഡിഎഫും	9830
അമിത	9831
ദിലീപിന്	9832
ഗോപിനാഥ	9833
സിറ്റിംഗ്	9834
##ാവശ്യമായ	9835
##ുകൂടി	9836
ഉറപ്പുവരുത്ത	9837
ഒറ്റക്കെട്ടായി	9838
സിലിണ്ട	9839
800	9840
അവിട	9841
ഇടുക്ക	9842
ഉൽപ്പ	9843
എസ്പ	9844
ഓഡി	9845
പത്തു	9846
ശാസ്	9847
##തൂ	9848
##കത	9849
##േഡിയ	9850
##്യത്തില്‍	9851
##പ്പാട്	9852
##ായിട	9853
മുങ്ങി	9854
ങ്ങളോട്	9855
ബാറ്റ്	9856
വന്നതിന്	9857
പെർ	9858
##ാറില്‍	9859
പ്രവര്‍ത്തിച്ച	9860
ക്രിക്കറ്റ	9861
ചിലവ	9862
വയനാട്ടില്‍	9863
##േറ്റം	9864
വരുമെന്നും	9865
വാര്‍ഷിക	9866
നഗര്‍	9867
നല്ലൊരു	9868
കണക്കാക്ക	9869
പ്ലാസ്	9870
കമ്യൂണി	9871
ക്കുന്നതിന്	9872
പറ്റുന്ന	9873
നേടുന്ന	9874
പതിവ	9875
ആരാധകർ	9876
ഹൗസില്‍	9877
##ടേയുള്ള	9878
നിരോധന	9879
പാര്‍ട്ടിയിലെ	9880
ശാന്ത	9881
സെപ്റ്റംബർ	9882
ഏജൻസി	9883
മധ്യപ്രദേശില്‍	9884
കുറ്റപത്രം	9885
ചടങ്ങ്	9886
ഷായുടെ	9887
08	9888
ഗവേഷ	9889
പാരി	9890
േഴ്‌സ്	9891
##ോണ്‍	9892
##ഡുകള്‍	9893
##ാനാവില്ല	9894
മാസ്റ്റര്‍	9895
##്യമന്ത്ര	9896
വെല്‍	9897
ചെയ്യുമെന്നും	9898
##ണ്ണായക	9899
ഉണ്ടാക്കി	9900
സംഭവങ്ങള്‍	9901
കിറ്റ	9902
##ാസമ്മേള	9903
ിക്കേണ്ട	9904
എത്തിച്ചേ	9905
ഉള്‍പ്പെടുത്തി	9906
തയ്യാറാ	9907
ദേവ്	9908
താമര	9909
മതനിര	9910
അലർട്ട്	9911
വിടുന്ന	9912
2006	9913
ശുദ്ധ	9914
പ്രസ്താവനയിൽ	9915
ഹോസ്റ്റ	9916
സന്ദര്‍ശനം	9917
ലീഗിന്	9918
സാധിച്ചിട്ടില്ല	9919
തമിഴ്നാട്ട	9920
അത്രയും	9921
താല്പ	9922
വ്യവസായി	9923
അഡ്മി	9924
##ൊന്നാണ്	9925
കസ്റ്റഡിയിൽ	9926
കിഴക്കന്‍	9927
പരമ്പര	9928
പരമ്പരാഗ	9929
ദുബായില്‍	9930
നിതീഷ	9931
തളിപ്പറമ്പ്	9932
മതനിരപേക്ഷ	9933
ആകാശ	9934
ഉചി	9935
തങ്ക	9936
തമാശ	9937
ബ്യൂറോ	9938
രുന്നു	9939
രക്ഷിത	9940
വെന്നും	9941
##ൂഖ്	9942
##പ്പള്ള	9943
പ്രമോ	9944
##ാക്കളെ	9945
കൊടുത്ത്	9946
##ിവസം	9947
പ്രതിഷേധിച്ച്	9948
രാജഗോപ	9949
തുടങ്ങുന്ന	9950
രൂപയ്ക്ക്	9951
##ുണ്ടോ	9952
##യെല്ലാം	9953
ുണ്ടെങ്കില്‍	9954
ട്ടെ	9955
പട്ടേല്‍	9956
ഇത്തവണത്തെ	9957
അവകാശവാദം	9958
ജലീല	9959
ആനന്ദ	9960
സഹായിക്കുന്ന	9961
സഞ്ചാരി	9962
സാക്ഷ്യ	9963
എട്ടാം	9964
രാമചന്ദ്രന്‍	9965
കമ്മ്യൂണിസ്റ്റ്	9966
മിഥുനം	9967
അച്ചടക്ക	9968
കശ്മീരി	9969
വഴിയൊരു	9970
മസ്ജി	9971
അദ്ധ്യക്ഷ	9972
വളരെയധികം	9973
വേട്ടയാട	9974
06	9975
ചതി	9976
പട്	9977
വാണ്	9978
##ഡിന്	9979
##ക്കിലെ	9980
പ്രശം	9981
വിരോധ	9982
##ുമൊക്കെ	9983
നിപ	9984
കുണ്ട	9985
##ുവെ	9986
##ംഗ്ട	9987
പൊടി	9988
സാധിച്ചത്	9989
##ണിത്തുറ	9990
##ുണ്ടാകും	9991
കരുത്ത	9992
ചെയ്യുന്നതിന്	9993
രാവില	9994
ങ്ങള്‍ക്ക്	9995
ഡെവല	9996
പങ്കെടുത്തത്	9997
ഭാര്യയും	9998
അന്തരിച്ചു	9999
പുറത്തുവി	10000
ബ്ലെ	10001
വിനോ	10002
വഹിച്ച	10003
മാതൃഭൂമി	10004
ഒരാള്‍ക്ക്	10005
അബ്ദുല്‍	10006
ചലഞ്ച	10007
തേടിയെ	10008
കൊണ്ടുപോയ	10009
തൃശ്ശൂര്‍	10010
ാകും	10011
പരിധിയില്‍	10012
അനുസരിച്ച	10013
നഷ്ടപരിഹാരം	10014
എട്ടു	10015
റാണ്	10016
ലുള്ള	10017
##ലർ	10018
##വുമില്ല	10019
##ങ്ങും	10020
പ്രൈവ	10021
എന്നുമാണ്	10022
##ടിസ്ഥാന	10023
ഒരുപക്ഷ	10024
##ിപ്പിക്കാൻ	10025
##ിട്ടുണ്ടെന്നും	10026
ഇതും	10027
മത്സരിച്ചത്	10028
പങ്കാളി	10029
മറക്ക	10030
2013	10031
പ്രചോദ	10032
ഇറക്കിയ	10033
നടപടികളും	10034
ഹെഡ്	10035
കൊടുത്തത്	10036
പ്രവചിക്കുന്നത്	10037
മണ്ണിടിച്ച	10038
പ്രദര്‍ശ	10039
ഐസക്	10040
അരുണ	10041
ഉത്തർപ്രദേശ്	10042
കൗണ്‍സിലര്‍	10043
ഇമ്ര	10044
മഹാമാരി	10045
അനധികൃത	10046
സിദ്ദിഖ്	10047
ഉള്‍പ്പടേയുള്ള	10048
അം	10049
ആരുടെ	10050
ഊർ	10051
കടു	10052
കങ്ക	10053
കന്യ	10054
കരിപ്പ	10055
തില	10056
തുകൊണ്ട്	10057
നം	10058
നെയ	10059
ൊന്നും	10060
##ഴം	10061
##വൂര്‍	10062
##ൈസ	10063
##ിവ്	10064
##്യാന്തര	10065
##ന്തം	10066
അതൊക്കെ	10067
രാജ്യാന്തര	10068
##ുകള്‍ക്ക്	10069
പൊള്ള	10070
ഇന്ത്യയിലേക്ക്	10071
അറിയാന്‍	10072
മേയർ	10073
ദിവ്യ	10074
കാര്യക്ഷ	10075
സർക്കാരു	10076
എത്തിച്ചു	10077
റോയ്	10078
വിശാല	10079
നെറ്റ്	10080
പരാതികള്‍	10081
പരാതിക്കാര	10082
സിനിമയിൽ	10083
ഉറപ്പാക്കുന്ന	10084
തൊഴിലവ	10085
ശിവന്‍	10086
##വ്വഹ	10087
കാരണമാണ്	10088
ക്കാരെ	10089
പണവും	10090
എക്‌സിക്യൂട്ടീവ്	10091
ചോദ്യങ്ങള്‍	10092
ആഘാത	10093
ഹിമാ	10094
അനുവദിക്കില്ല	10095
സച്ചിൻ	10096
അംഗീകൃത	10097
മാനേജർ	10098
കലാപം	10099
കടുവയെ	10100
സാധനങ്ങള്‍	10101
കല്യാണ	10102
പുലർച്ചെ	10103
ഡെമോക്രാ	10104
ടൊ	10105
തഴ	10106
തനി	10107
പകര	10108
ിയ	10109
ിംഗ്	10110
##ഗു	10111
##ജോ	10112
##സമിതി	10113
പ്രവി	10114
മാക്കിയ	10115
അവളുടെ	10116
##മിക്	10117
സീതാര	10118
മറ്റെ	10119
ചിലപ്പോള്‍	10120
കണ്ണൂരിലെ	10121
##േറ്റീവ്	10122
അനുഗ്രഹ	10123
പിന്മാ	10124
ഒഴിയ	10125
മിസ്	10126
ഉദ്യോഗാർത്ഥ	10127
പൂഞ്ഞ	10128
ഉദ്യോഗസ്ഥന്‍	10129
പരിഗണിക്കുന്ന	10130
ഉണ്ടായിരിക്കുന്നത്	10131
കുറിച്ചാണ്	10132
പൂര്‍ത്തിയായ	10133
ടീമിനെ	10134
കള്ളപ്പ	10135
ക്രൈസ്തവ	10136
തമിഴ്‌നാട്ട	10137
പെണ്‍കുട്ടിയുടെ	10138
ശാസ്ത്രീയ	10139
പ്രദീപ്	10140
വാക്സിനേഷൻ	10141
മോശമായ	10142
ശ്വാസ	10143
വോട്ടര്‍മാര്‍	10144
ഉരുള്‍	10145
ദ്വീപ	10146
കൗൺസില	10147
വാഷിംഗ്ട	10148
നാദിറ	10149
എപ്പിസോ	10150
സീതാരാമ	10151
700	10152
ജിയോ	10153
തല്‍	10154
ധര്‍മ്മ	10155
ഫാമ	10156
ബന്ദ	10157
റോള	10158
സഞ്	10159
##ജക്	10160
##ഭയ	10161
##ില്ലായ്മ	10162
##ങ്കോ	10163
അതോടെ	10164
ത്താന്‍	10165
കെവി	10166
അറിയാതെ	10167
കണ്ടെയ്	10168
ദുരുപ	10169
ദിവസങ്ങള്‍ക്ക്	10170
പാക്	10171
അടങ്ങുന്ന	10172
പ്രതീക്ഷിക്കുന്നു	10173
വിവാഹത്തിന്	10174
ജീവിതത്തിലെ	10175
സൂചനയാണ്	10176
ഹൈക്കോടതിയില്‍	10177
നേട്ടങ്ങൾ	10178
വിലയിരുത്തൽ	10179
##ക്കാലം	10180
പറ്റാത്ത	10181
നില്‍ക്കാന്‍	10182
വിശ്വസ്ത	10183
മുംബൈയില്‍	10184
നിര്‍മാണം	10185
ഉച്ചകോ	10186
സ്ഥിതിഗതി	10187
വാക്‌സിനും	10188
സ്‌കൂളില്‍	10189
തുടങ്ങും	10190
ുമ്പോൾ	10191
ബിരുദാനന്തര	10192
സൗദിയില്‍	10193
സ്‌പെഷ്യല്‍	10194
സ്റ്റേഡിയ	10195
സ്‌ക്വാ	10196
പ്രയോജന	10197
ഹെലികോപ്റ്റ	10198
അണ്ണ	10199
അബദ്ധ	10200
താവ	10201
മില്ലെന്ന്	10202
സണ്‍	10203
##ലത്ത്	10204
##വൽ	10205
##ത്തര	10206
##റ്ററ	10207
മാക്കുന്ന	10208
മുളള	10209
##രാത്രി	10210
അതൊരു	10211
പുറം	10212
കാറില്‍	10213
അറിയിപ്പ്	10214
നിയമിച്ച	10215
മാത്രമ	10216
എല്ലായിട	10217
ഏറ്റെടുത്ത്	10218
കടമ	10219
ചോദിച്ചത്	10220
ഭൂപ	10221
അടിത്തറ	10222
ലഭിച്ചിട്ടില്ല	10223
സമീപനം	10224
മായാണ്	10225
ഗാന്ധിക്ക്	10226
തൃശൂരില്‍	10227
വിട്ടുവീ	10228
മനുഷ്യാവകാശ	10229
മാകുന്ന	10230
ുള്ളൂ	10231
യൂണിയന്‍	10232
ആന്ധ്രാ	10233
ഇംഗ്ലീഷ്	10234
ഉത്തർപ്രദേശ	10235
ഭർത്താവ്	10236
##നീഷ്യ	10237
അതിവേഗ	10238
തീര്‍ഥ	10239
നരേന്ദ്രമോദി	10240
ജ്വല്ലറി	10241
09	10242
ഓപ്	10243
കാന്‍	10244
പയ	10245
ബല്‍	10246
##കിയ	10247
##മർ	10248
##ത്തേരി	10249
##ിവച്ച	10250
പുരം	10251
പേരാ	10252
കളൊന്നും	10253
##ട്ടിട്ടുണ്ട്	10254
##ുണ്ടാവും	10255
ിരിക്കെ	10256
കാര്യങ്ങള	10257
ട്രീറ്റ്	10258
അന്വേഷിക്കുന്ന	10259
2012	10260
രാഹുലിന്	10261
പ്രവർത്തിച്ച	10262
സമ്പൂര്‍	10263
ഭരണാധികാരി	10264
യൂറ	10265
വിമാനത്തില്‍	10266
ക്കുറ	10267
##ണറുടെ	10268
പ്രതിരോധം	10269
കണ്ടെത്തുന്ന	10270
വര്‍ധിച്ച	10271
ക്കാരനായ	10272
##സ്റ്റിറ്റ	10273
ഇൻസ്റ്റിറ്റ	10274
നിലപാടിലാണ്	10275
അറസ്റ്റിലായത്	10276
പ്രായപരിധി	10277
ഗ്രൂപ്പിന്റെ	10278
ദിശ	10279
ഡ്രൈവറ	10280
ജാഗ്രതാ	10281
തിയ്യ	10282
വാങ്ങിയത്	10283
തുടര്‍ച്ചയായ	10284
ലാലേട്ട	10285
കെജ്രിവാള	10286
ബീഹാറില്‍	10287
ജേക്കബ്	10288
ഹിമാച	10289
മൂര്‍	10290
റിന	10291
##ിയര്‍	10292
##ാരോ	10293
നിഖ	10294
സമസ്ത	10295
അതൊന്നും	10296
ലഭ്യത	10297
നീക്കി	10298
വിലക്കയ	10299
ട്രെ	10300
സീറ്റുകളും	10301
ബോഡി	10302
വിദഗ്ദ	10303
##ാള്‍ഡ്	10304
അധ്യക്ഷനായി	10305
യിലുണ്ട്	10306
മുഖ്യമന്ത്രിയായി	10307
ാണോ	10308
കണ്ടെത്തിയിട്ടുണ്ട്	10309
ലഭിക്കുമെന്നാണ്	10310
ആഭരണ	10311
മുരളി	10312
നോക്കൂ	10313
വിമാനത്താവളം	10314
സഭയില്‍	10315
ഹോട്ടല	10316
കർഷകർ	10317
ഗതാഗതം	10318
രാജസ്ഥാനില്‍	10319
കച്ചവട	10320
മുന്‍കൂര്‍	10321
ഒരുങ്ങുന്നത്	10322
താരതമ്യ	10323
അമരീന്ദര്‍	10324
മന്ദിര	10325
സെന്‍ട്ര	10326
ഭാരതീയ	10327
മരണമടഞ്ഞ	10328
എക്കാല	10329
കല്‍	10330
തപ	10331
നക്ഷ	10332
മിനു	10333
യുക	10334
സാണ്	10335
##ിയിലാണ്	10336
##ുമു	10337
കോമ	10338
കളു	10339
പരിസ	10340
ജോയ്	10341
അറിയുന്ന	10342
മുഖ്യമന്ത്	10343
മന്ത്രിസ്ഥാന	10344
വർഗ	10345
യെച്ച	10346
മറുവ	10347
അറബ	10348
വിളിക്കുന്ന	10349
പ്രദേശങ്ങളിൽ	10350
ദേശീയപാത	10351
നാട്ടുകാർ	10352
നേതാക്കള്‍ക്ക്	10353
യിലോ	10354
ബെഞ്ച്	10355
പ്രസവ	10356
സഹായവും	10357
യോഗ്യതയുള്ള	10358
ശേഖരിച്ച	10359
തസ്തികകള	10360
പ്രണയം	10361
സ്വന്തമാക്കിയ	10362
##ഭിമാന	10363
ഉപതിരഞ്ഞെടുപ്പില്‍	10364
പൊതുമേഖ	10365
പരിഹസിച്ചു	10366
റിപ്പബ്ലിക്	10367
വന്ദേഭാര	10368
ഇഷ	10369
ക്യ	10370
കുമ്പ	10371
പെയ്	10372
യന്ത്ര	10373
രണ്‍	10374
ലഡ	10375
ളും	10376
##താമ	10377
##പന്ന	10378
പ്രാര്‍ത്ഥ	10379
നേപ്പ	10380
കുഞ്ഞ്	10381
രാജ്‌	10382
ജോഷി	10383
കേസെടുക്ക	10384
സഹമന്ത്രി	10385
പാലിക്കണം	10386
നിർവഹ	10387
അംഗത്വം	10388
മിന്ന	10389
പാചക	10390
ലോകായു	10391
മാരാണ്	10392
ഇന്‍സ്‌പെ	10393
ബൈക്ക്	10394
വിട്ടയ	10395
പ്രവര്‍ത്തകരുടെ	10396
##രുകയും	10397
എക്‌സ്പ്രസ്	10398
മാറിയിരിക്കുകയാണ്	10399
കുമാറിന്	10400
മന്ത്രാലയത്തിന്റെ	10401
ഗര്‍ഭി	10402
കുമ്മനം	10403
വിസ്മയ	10404
ലോകായുക്ത	10405
ഘോഷ	10406
തെങ്കില്‍	10407
മരു	10408
മില്ലെന്നും	10409
മകളുടെ	10410
സാനി	10411
സപ്ല	10412
##പ്പര്‍	10413
പ്രഥ	10414
##ിക്കേഷന്‍	10415
വിറ	10416
##ദ്മ	10417
കാര്യമായി	10418
എംഎസ്	10419
സംഘര്‍ഷം	10420
നടത്തണം	10421
##ലംഘ	10422
ചെക്ക്	10423
ശ്രമത്തിലാണ്	10424
ചിത്രമാണ്	10425
ജിഎ	10426
##ശ്ചിത	10427
ഇന്നല	10428
ബ്രാഹ	10429
പ്ലേ	10430
നേരിടുന്നത്	10431
എത്രയോ	10432
ഗ്രാമീണ	10433
2009	10434
എക്സിക്യൂട്ടീവ്	10435
ജൂലായ്	10436
അംഗീകാര	10437
ട്രെയിനി	10438
ദക്ഷിണേന്ത്യ	10439
തുല്യ	10440
ശരദ്	10441
ഉണ്ണി	10442
യുടേത്	10443
പുരസ്‌കാരം	10444
സാഹിത്യ	10445
മാനേജ്‌മെന്റ്	10446
ആസൂത്രണം	10447
ലിമിറ്റഡ്	10448
കളമശ്ശേരി	10449
പ്രൈവറ്റ്	10450
കങ്കണ	10451
അഥ	10452
കാല്‍	10453
തൈ	10454
യുമില്ല	10455
സസ്പെ	10456
##റങ്ങി	10457
##ർണ	10458
##han	10459
##ക്കാണ്	10460
##ിയൂ	10461
##ിന്റ	10462
ക്കേണ്ടി	10463
പിഎം	10464
##ിട്ടത്	10465
##ുകളായി	10466
ത്തേ	10467
വെന്റ	10468
##റ്റിങ്	10469
ലോറി	10470
ജയിച്ചത്	10471
യുവജന	10472
സ്ഥിരീകരിച്ചവരുടെ	10473
ആളെ	10474
റിസർ	10475
അല്ലേ	10476
ദേഹ	10477
അമ്മയെ	10478
ിനേയും	10479
അകാലിദ	10480
ഉണ്ടായിട്ടുണ്ട്	10481
വസ്ത്രം	10482
തോന്നുന്നു	10483
ഫോണിൽ	10484
ആവശ്യമില്ല	10485
റേത്	10486
വ്യാപകമായ	10487
പ്രതിനിധികള്‍	10488
അടച്ചിട	10489
സമിതിയുടെ	10490
വാര്‍ഡില്‍	10491
മണിയോടെയാണ്	10492
പ്രതിദിനം	10493
തൊട്ടുപി	10494
അവലോകന	10495
മാനന്തവാടി	10496
വെന്റിലേ	10497
കര്‍ക്ക	10498
ദില്‍	10499
##ലുള്ള	10500
##ോടു	10501
##പിയുടെ	10502
പ്രതിയ	10503
##ാവാത്ത	10504
##ാർഡ്	10505
രൂപയായിരുന്നു	10506
നിരക്കില്‍	10507
##മുള	10508
സ്ഥാനത്ത	10509
നടത്തുമെന്ന്	10510
കാണിച്ചു	10511
വരോട്	10512
##സ്‌ത	10513
ഉയര്‍ന്ന്	10514
വേണ്ടെന്ന്	10515
##ക്കിങ്	10516
##ക്കുഴ	10517
ഗുല	10518
മിഷ	10519
നടക്കാനിരിക്കുന്ന	10520
അനുവദിച്ചത്	10521
##ത്തിലിറ	10522
പഠിക്കുന്ന	10523
പ്രവേശിച്ച	10524
##കുമാറ	10525
മൃതദേഹങ്ങള്‍	10526
കമ്പനികള്‍	10527
ബീഹാര്‍	10528
വരികയും	10529
ഗുരുതരമായി	10530
ദുബായി	10531
വിദ്യാർത്ഥികൾക്ക്	10532
റോഡില്‍	10533
##യോടെയാണ്	10534
കേസെടുത്തു	10535
കാറ്റിനും	10536
സർവ്വകലാശാല	10537
##സാധ്യത	10538
പ്രോസിക്യൂഷന്‍	10539
പകുതി	10540
ചിഹ്ന	10541
റംസ	10542
റിനോ	10543
##വിയ	10544
##ൻറ്	10545
##ുന്നുണ്ട്	10546
പ്രതിയുടെ	10547
പ്രസാദ	10548
വിടു	10549
##ിച്ചും	10550
നല്‍കുന്നു	10551
അപകീ	10552
ട്രെയിൻ	10553
യോഗത്തിലാണ്	10554
കോൺഗ്രസിനെ	10555
അംഗങ്ങൾ	10556
ഉപയോഗിക്കുന്നത്	10557
പൂച്ച	10558
മാധ്യമങ്ങളില്‍	10559
##പ്പിള്‍	10560
നഗർ	10561
അനുവാദ	10562
രേഖകൾ	10563
വര്‍ഷങ്ങളായി	10564
മാസത്തില്‍	10565
അധികാരത്തിൽ	10566
##ിക്കേണ്ടത്	10567
ലേല	10568
വഹിച്ചു	10569
ാവുന്ന	10570
ആറാം	10571
ജ്യോതിരാ	10572
കുടുങ്ങി	10573
സ്ഥലത്തെത്തി	10574
വ്യത്യസ്തമായ	10575
ഷെയ്ഖ്	10576
കറുത്ത	10577
ആധിപ	10578
എപി	10579
നന്മ	10580
യിട	10581
ലഘ	10582
##ലീ	10583
##നിവ	10584
##കാരിക	10585
##ഡ്യൂ	10586
##െന്റ	10587
##േശ്	10588
##te	10589
##ുകിട	10590
എന്നുളള	10591
നടിയുടെ	10592
അറിയാത്ത	10593
കാണും	10594
പരിശ്രമ	10595
അധ്യക്ഷനായ	10596
ഉദ്യോഗസ്ഥരും	10597
ബുദ്ധ	10598
എത്രത്തോളം	10599
തൊഴിലാളികൾ	10600
ലഭിക്കാത്ത	10601
ഇത്രയ	10602
##കാലം	10603
സ്വര്‍ണത്തിന്	10604
എന്നിവിടങ്ങളിലെ	10605
പൂര്‍ത്തിയാ	10606
പോവുകയാണ്	10607
ക്കെതിരെയുള്ള	10608
##ഫോം	10609
ഉണ്ടാവുക	10610
സ്വാതന്ത്ര്യം	10611
ലോട്ടറിയ	10612
ഞ്ച	10613
അത്യാവശ	10614
അസോസിയേഷന്‍	10615
##ഗിരി	10616
ചാലക്കുടി	10617
തിരുമാനം	10618
കിരീട	10619
പുതുമുഖ	10620
ദാസ	10621
മകളെ	10622
റൂറ	10623
ളു	10624
സജീ	10625
##ാത്	10626
##മൂല	10627
##ഠി	10628
##പ്പൂര്‍	10629
##ച്ചില്‍	10630
കളെയും	10631
കളിലായി	10632
അതല്ല	10633
ന്നി	10634
രാജ്യങ്ങള	10635
മന്ത്രിമാരും	10636
മെഡി	10637
മത്സരിച്ച്	10638
എത്തിയിട്ടുണ്ട്	10639
##രിയിൽ	10640
കൂടിക്കാ	10641
ചികിത്സയിലാണ്	10642
പ്രദേശവാസ	10643
ക്ലിന	10644
ആശുപത്രികള്‍	10645
തിരക്ക്	10646
വിലയിരുത്തപ്പെടുന്നത്	10647
സൃഷ്ടിക്കുന്ന	10648
ഭീഷണിപ്പെടുത്തി	10649
നാടിന്റെ	10650
അശ്ല	10651
വയസുകാര	10652
ഏറ്റുമാന	10653
ഉദ്ദേശിക്കുന്ന	10654
കാസർകോട്	10655
കണക്കിലെടുത്ത	10656
ക്രൂരമായി	10657
ഐപിഎല്‍	10658
നെടുമ്പ	10659
സംസാരി	10660
പൂര്‍ണ്ണമായും	10661
പെന്‍ഷന്‍	10662
വിരമിച്ച	10663
മത്സ്യത്തൊഴിലാള	10664
gov	10665
വിനോദ്	10666
എമി	10667
താണോ	10668
പന്ത്ര	10669
വണ്ട	10670
ഷ്	10671
െങ്കിൽ	10672
##ാഘാത	10673
##പ്പെരിയ	10674
##ാവലി	10675
##നിന്ന	10676
##ഴ്ത്തി	10677
കാശ്	10678
ന്നാ	10679
തീരുമാനിച്ചിട്ടുണ്ട്	10680
ട്രാവ	10681
പാലിച്ച്	10682
തിനേക്കാള്‍	10683
സ്ഥിരീകരിക്ക	10684
ഉറപ്പിച്ച	10685
തൃപ്പൂ	10686
ദിവസത്തേക്ക്	10687
194	10688
പദ്ധതിയില്‍	10689
പുറത്തായ	10690
ല്ലാതെ	10691
പഞ്ചായത്തില്‍	10692
ഇരയായ	10693
സഹായിക്കും	10694
പ്രഖ്യാപിച്ചിരിക്കുന്നത്	10695
സ്വര്‍ണക്കടത്ത്	10696
അവസരങ്ങള്‍	10697
കര്‍ണാടകയില്‍	10698
പെരുമാറിയ	10699
മാവോയി	10700
വിൽപ്പന	10701
ഹൈദരാബാദ	10702
ഏജന്‍സികള്‍	10703
കാമുക	10704
മഹാമാര	10705
ഗോവിന്ദന്‍	10706
ക്കുമെതിരെ	10707
എഴുന്ന	10708
ഹമാസ്	10709
കിഫ്ബി	10710
അതിര്‍ത്തിയില്‍	10711
പ്രിന്‍സിപ്പല്‍	10712
പ്രഥമ	10713
ഓര്‍മ്മ	10714
നബി	10715
ഷട്ട	10716
##ബിലി	10717
##ത്തൂർ	10718
മുന	10719
സാംസ്	10720
പറഞ്ഞിട്ടില്ല	10721
കളുള്ള	10722
കളിക്കുന്ന	10723
##നിക്	10724
##യ്ക്കു	10725
##ഡിങ്	10726
##ോട്ടു	10727
##നെറ്റ്	10728
ങ്ങളുണ്ട്	10729
പിന്നാക്ക	10730
പെണ്ണ	10731
##ിപ്പോയ	10732
അഭിവ	10733
ഇവര	10734
ക്ക്‌	10735
അതിജീവ	10736
##കരോട്	10737
എത്താന്‍	10738
സാധ്യതയും	10739
വിളിച്ചത്	10740
##ഴുത	10741
പരീക്ഷണം	10742
ജീവിക്കുന്ന	10743
സ്ത്രീകള	10744
അര്‍ധ	10745
കെട്ടിടം	10746
മനസ്സിലാ	10747
സമ്മേളനത്തിൽ	10748
സാമ്പിളുകള്‍	10749
##ആർടിസി	10750
ഫുഡ്	10751
തർക്കം	10752
കമല്‍നാഥ	10753
താൽക്കാലിക	10754
ഉത്പാദ	10755
സംസ്‌കാര	10756
##നിര്‍ദേശ	10757
വിചാരിച്ച	10758
ഗവണ്‍മെന്റ്	10759
ഫിലിം	10760
ഉപദ്രവ	10761
മറുവശ	10762
ജ്യോതിരാദിത്യ	10763
ഇങ്ങ	10764
എള	10765
ഏല്‍	10766
##ിന്‍റെ	10767
##ാറിയ	10768
##കാരി	10769
##ീനി	10770
##ര്‍ഗ	10771
##ച്ചേരി	10772
##വിന്‍	10773
സ്വത്ത്	10774
വീര	10775
വീടു	10776
##ാമത്	10777
##ാടും	10778
രാജ്യങ്ങളുടെ	10779
ചോദിക്കുന്ന	10780
പോകുന്നു	10781
സ്‌പോ	10782
കണ്ണൂരിൽ	10783
ിക്കുകയാണ്	10784
മേഖലയിലും	10785
തലവേദന	10786
എത്തുക	10787
ഉൾപ്പെടുന്ന	10788
##േക്കാം	10789
ല്ലാം	10790
സ്ഥാപനങ്ങളും	10791
##ത്മക	10792
##ങ്ങനെയുള്ള	10793
യുണ്ടെന്ന്	10794
ഏതാണ്ട	10795
അകത്ത്	10796
ഫ്രീ	10797
എംപിമാര്‍	10798
ഗൂഗി	10799
സിറ്റിങ്	10800
രംഗത്തുവന്ന	10801
സങ്കട	10802
വിഭജന	10803
മജിസ്‌ട്ര	10804
എന്നതായിരുന്നു	10805
നിശബ്ദ	10806
ഗുജറാത്തിലെ	10807
സെഞ്ച്വറി	10808
എല്ലായിടത്തും	10809
സെന്‍ട്രല്‍	10810
ഐസിയ	10811
തട്ടി	10812
തന്‍റെ	10813
ഭീമ	10814
ഷന്‍	10815
ുകളും	10816
##എൽ	10817
##െയില	10818
##ിപ്പനി	10819
പറഞ്ഞിരുന്നത്	10820
##ഗ്രാമ	10821
കാബൂ	10822
തെറി	10823
ഇടക്കാല	10824
വരെയ	10825
ചിരി	10826
യാള്‍	10827
പങ്കു	10828
കോവിഡ്‌	10829
ുണ്ടായിരുന്ന	10830
ബിജെപിക്കെതിരെ	10831
കരുതല	10832
അവസാനമായി	10833
മരിച്ചവരുടെ	10834
ിട്ടില്ലെന്നാണ്	10835
സ്ഥലങ്ങളിൽ	10836
ആഗ്രഹിച്ച	10837
ദൃശ	10838
പ്രവര്‍ത്തകന്‍	10839
എക്സൈസ്	10840
അധ്യാപിക	10841
കേസെടുത്തത്	10842
തൂങ്ങി	10843
നിയോഗിച്ച	10844
.....	10845
ലൈസന്‍സ്	10846
പരാതിയുമായി	10847
ഉപരോധം	10848
ഒമൈക്രോണ്‍	10849
സൂപ്രണ്ട്	10850
അവതാരക	10851
സ്വദേശിനിയായ	10852
അറബിക്കട	10853
എൻ്റെ	10854
റിട്ട	10855
ഹര	10856
##നത്തിൽ	10857
##ത്തോള	10858
ക്കാതി	10859
ക്കാറുണ്ട്	10860
മുടക്ക	10861
മുഹമ്മദ	10862
പുരോ	10863
അവള്‍	10864
ത്തുന്നത്	10865
##ടിയില്‍	10866
ചേർത്ത	10867
കിംഗ്	10868
ചിത്രങ്ങളും	10869
പൂന്ത	10870
വിഷയങ്ങളില്‍	10871
ക്യാംപ	10872
വര്‍ഷത്തില്‍	10873
കണക്കിന്	10874
സംഘടനയായ	10875
െന്നുമാണ്	10876
##തരായി	10877
നവകേരള	10878
പരാജയപ്പെട്ടു	10879
എടുക്കാന്‍	10880
അറസ്റ്റില്‍	10881
സെക്രട്ടറിയേറ്റ്	10882
പെട്രോൾ	10883
എമ്മിന്റെ	10884
രാജസ്ഥാനിലെ	10885
ഡിജിറ്റൽ	10886
പ്രോട്ടോക്ക	10887
സ്മൃതി	10888
ഡിസ്ച	10889
എൻസിപി	10890
തൃപ്പൂണിത്തുറ	10891
എടു	10892
തിനിട	10893
നമ	10894
ഫയര്‍	10895
##ിട്ടി	10896
##wes	10897
വിഎസ്	10898
ക്കപ്പെട്ട	10899
സംപ്ര	10900
കളിലേ	10901
##വാള്‍	10902
##ർക്കുന്നു	10903
സീത	10904
വൈറ്റ്	10905
പെര്‍	10906
പെൻഷൻ	10907
ബന്ധമുള്ള	10908
##പ്പെടേണ്ട	10909
##ക്‌ട	10910
മോഷണ	10911
വിജയിക്കാന്‍	10912
ട്രോ	10913
ട്രേഡ്	10914
അനുനയ	10915
മണ്ഡലമാണ്	10916
തുടങ്ങിയിട്ടുണ്ട്	10917
തയ്യാറാണ്	10918
വൈറൽ	10919
സ്ഥാപനങ്ങളുടെ	10920
നഗരത്തില്‍	10921
പരിഗണിക്കുന്നത്	10922
പ്രാതി	10923
വാർഷിക	10924
യാണെങ്കിൽ	10925
സമൂഹത്തിന്റെ	10926
ക്കാരും	10927
ഇടപെടല	10928
ചരിത്രത്തിലെ	10929
ഹിന്ദുത്വ	10930
##ഫോഴ്‌	10931
എന്തിന്	10932
പോരാട്ടമാണ്	10933
ബൂത്ത്	10934
സ്പീക്കർ	10935
പിടിയിലായ	10936
മെച്ചപ്പെട്ട	10937
ജോലിയില്‍	10938
##ുവരിയില്‍	10939
ഗെലോട്ട	10940
അതിവേഗം	10941
ഹര്‍ജിയില്‍	10942
ജെഡിഎസ്	10943
anwes	10944
##ഗണിച്ച്	10945
യൂണിവേഴ്‌സിറ്റി	10946
പ്രവിശ്യ	10947
പേരാമ്പ്ര	10948
##hanam	10949
anweshanam	10950
അസ്	10951
ബൊ	10952
മരിക്ക	10953
മദ്ര	10954
യം	10955
ലിന്	10956
സരി	10957
##യേറ്റ	10958
##പാട	10959
##മറിയ	10960
##or	10961
##ൊടി	10962
അതില	10963
രാജ്യമാണ്	10964
##തിനു	10965
യുപിഎ	10966
പറയുകയാണ്	10967
പോലെയുള്ള	10968
ജനങ്ങളോട്	10969
ലഭ്യമാണ്	10970
വന്നിട്ടില്ല	10971
അഭാവ	10972
ആവശ്യങ്ങള്‍	10973
നാസ	10974
വോട്ടുകളും	10975
ിക്കുന്നത്	10976
എത്തിക്കുന്ന	10977
അയക്ക	10978
##ശ്ചിക	10979
നമ്മള	10980
തരൂരി	10981
പൊലീസിനെ	10982
സ്വപ്നം	10983
അനുഭവിക്കുന്ന	10984
അറസ്റ്റു	10985
നിര്‍മാത	10986
വൃത്തിയ	10987
കൊണ്ടുവരുന്ന	10988
ബിസിനസ	10989
അറിയിച്ചിരിക്കുന്നത്	10990
ഗവൺ	10991
കശ്മീര്‍	10992
സര്‍ക്കാരില്‍	10993
കൊണ്ടുപോയി	10994
ഇക്കൂട്ട	10995
കെഎസ്ആർടിസി	10996
പിടിയിലായത്	10997
കാലയളവിൽ	10998
ആദിത്യനാഥ്	10999
പുത്തന്‍	11000
പരുക്ക	11001
ഗംഭീര	11002
ധനസഹായം	11003
ക്രെഡിറ്റ്	11004
ഒരുപക്ഷേ	11005
തൊട്ടുപിന്ന	11006
അങ്ങനെയാണ്	11007
ഒത്ത	11008
ഓഡിയോ	11009
റിനെ	11010
ഷാര	11011
##ാന്ധ	11012
##ക്യം	11013
##ായത്ത്	11014
പോര്‍ട്ട	11015
കുതിര	11016
##്മണ	11017
അവന്‍	11018
ഇതാ	11019
ിട്ടാണ്	11020
മെക്ക	11021
##ക്ടറി	11022
പ്രധാനം	11023
ട്രാന്‍	11024
പാലായ	11025
കിം	11026
വീടുകളിൽ	11027
ഇൻസ്റ്റ	11028
പീഡനം	11029
കുമാറും	11030
വിപ്ല	11031
ഭീഷണിപ്പെടുത്തിയ	11032
ഡോളർ	11033
ബിസിനസ്സ്	11034
ജോർജ	11035
അവരോട്	11036
ഓപ്പറേഷന്‍	11037
അപ്രതീക്ഷിതമായി	11038
നാണക്കേ	11039
പാര്‍ലമെന്റില്‍	11040
സര്‍വീസുകള്‍	11041
വാതക	11042
കുറ്റപത്ര	11043
ചെയര്‍മാന	11044
കിരീടം	11045
പ്രകോപന	11046
മലപ്പുറത്ത്	11047
രോഗവ്യാപനം	11048
ണമെങ്കില്‍	11049
സൊസൈറ്റി	11050
നഗ്ന	11051
മരം	11052
ൂര്‍	11053
##പം	11054
##സണ്‍	11055
##ഡിയുടെ	11056
##ബറില്‍	11057
##ക്വ	11058
കേവ	11059
##രാം	11060
സംഘടി	11061
##ോടനു	11062
ട്രൈ	11063
കടത്തി	11064
യോഗത്തിന്	11065
ഉറച്ച	11066
വോട്ടുകളാണ്	11067
ആയത്	11068
സാധ്യതകള്‍	11069
നെഞ്ച	11070
ബാധിക്കും	11071
നീക്കമാണ്	11072
മാധ്യമങ്ങളെ	11073
ചോര	11074
പ്രാബല	11075
തായിരിക്കും	11076
വ്യക്തിപരമായി	11077
വകുപ്പും	11078
##ക്കളെ	11079
ഗ്രാമിന്	11080
നേടാന	11081
നിര്‍ദേശിച്ചു	11082
സിപിഎമ്മും	11083
മാറിയത്	11084
പാർട്ടിയെ	11085
റൂട്ട്	11086
എക്സ്പ്രസ്	11087
ഉണ്ടാവില്ല	11088
വസ്തുക്കള്‍	11089
ഉടമസ്ഥത	11090
കുറിപ്പില്‍	11091
അഭിനന്ദന	11092
മോഡല്‍	11093
മണിക്കുട്ടന്‍	11094
ക്കാമെന്ന്	11095
ചെയ്തിട്ടുള്ളത്	11096
സാഹചര്യമാണ്	11097
അഭിഷേക്	11098
ജാര്‍	11099
ജംഗ്	11100
നൊപ്പം	11101
ഫ്	11102
യുമായും	11103
ലിനെ	11104
##ാന്ത	11105
##േഴ്‌സ്	11106
##ിയൻ	11107
വിഷം	11108
കോന്നി	11109
മുട	11110
##ാര്‍ജ്	11111
##ങ്ങളു	11112
##ാവസ	11113
##മ്പലം	11114
സംസ്ഥാനങ്ങൾ	11115
കോണ്‍ഫറ	11116
മേയ	11117
ചെയ്തതായി	11118
വിലാസ	11119
സംഭവിക്കുന്ന	11120
##ോടാണ്	11121
മനസ്	11122
ചെല്ല	11123
ആവശ്യത്തിന്	11124
കൈക്കൊള്ള	11125
ട്രാന്‍സ്	11126
യോഗ്യ	11127
ബിജെപിയുമായി	11128
##ംബരം	11129
പുറത്തും	11130
പ്രതിഷേധവുമായി	11131
##ഴുതി	11132
സംഘടനകളുടെ	11133
തകര്‍ച്ച	11134
പരിഗണിക്കും	11135
##ശ്ശി	11136
സ്ഥാനാര്‍ത്ഥികളെ	11137
യുണ്ടായിരുന്നു	11138
സുരേന്ദ്രന്റെ	11139
ചെയ്യാത്ത	11140
അനുകൂലമായി	11141
വ്യത്യാസം	11142
നിര്‍മ്മിച്ച	11143
ബുദ്ധിമുട്ട്	11144
അർജു	11145
പണിമു	11146
ഉദ്യോഗസ്ഥര്‍ക്ക്	11147
സേവനങ്ങള്‍	11148
മന്ത്രിസഭയില്‍	11149
സംവിധായകൻ	11150
പഞ്ചാബിലെ	11151
കൊണ്ടുവന്നത്	11152
മ്പോ	11153
അനിശ്ചിത	11154
അഫ്ഗാനിസ്ഥാന	11155
ക്വട്ട	11156
നേമത്ത്	11157
സുഭാഷ്	11158
ഇന്‍സ്‌പെക്ടര്‍	11159
കേവലം	11160
ചൈ	11161
വാന്‍	11162
ശാന്തി	11163
സ്ല	11164
##ലേ	11165
##തോളം	11166
##ാടെ	11167
##േജി	11168
##ിലുണ്ടായിരുന്ന	11169
പ്രൈ	11170
##ടുമ്പ	11171
കോല	11172
കോള്‍	11173
കോഡ്	11174
##ങ്കം	11175
##ോട്ടെ	11176
രോഗികളെ	11177
നടത്തുകയാണ്	11178
അറബ്	11179
പാപ്പ	11180
പൂർത്ത	11181
അടച്ചു	11182
ശ്രീരാമ	11183
തൊഴിലില്ലായ്മ	11184
തകർന്ന	11185
ബാലു	11186
തമ്മില	11187
സമൂഹത്തില്‍	11188
പങ്കെടുത്തിരുന്നു	11189
രാശിക്കാരെ	11190
അമൃത	11191
മല്ലിക	11192
ആക്രമണത്തിന്	11193
മര്യാദ	11194
കുടുങ്ങ	11195
ബംഗാളിലെ	11196
കച്ചവടം	11197
മത്സരാർത്ഥി	11198
മറികടന്ന്	11199
പുനരാരംഭ	11200
ആന്റിജന്‍	11201
##erala	11202
ഓര്‍ഡിന	11203
മോഹൻലാൽ	11204
സന്ധ്യ	11205
യൂറോപ	11206
മന്ത്രിസ്ഥാനം	11207
##നിവാരണ	11208
ഏതാണ്ട്	11209
ഈസ്റ്റ്	11210
ഘടന	11211
തട്ടിയ	11212
ബത്തേരി	11213
വ്ര	11214
വട്ടം	11215
സിലെ	11216
##യടി	11217
##ാറ്റ്	11218
##ചാണ്ട	11219
##ക്കിന്റെ	11220
##ന്‍റ	11221
##റ്റിലെ	11222
വിനായ	11223
##ുമാര	11224
കൂത്തുപ	11225
പ്രവണത	11226
തീര്‍ച്ച	11227
കഴിഞ്ഞാൽ	11228
സെമി	11229
ിട്ടുളള	11230
രാജ്യദ്രോഹ	11231
ലക്ഷത്തിലധികം	11232
നൽകുകയും	11233
എസ്എഫ്ഐ	11234
നോര്‍ത്ത്	11235
ഉപയോഗിച്ചാണ്	11236
മുണ്ടായിരുന്നു	11237
ലോകമെ	11238
ലഭിച്ചില്ല	11239
സംസാരിച്ചത്	11240
സ്ഥാപനങ്ങളില്‍	11241
ഇക്കാര്യങ്ങള്‍	11242
നിര്‍മ്മാണം	11243
ഇഷ്ടം	11244
ഇതുപോലെ	11245
ഹോട്ടല്‍	11246
നിലനിർത്ത	11247
വര്‍ദ്ധന	11248
തുലാം	11249
ഏഴാം	11250
റാവത്ത്	11251
ആസൂത്രി	11252
ഗള്‍ഫ	11253
വിപുലമായ	11254
കൗൺസിൽ	11255
പ്രോഗ്രാം	11256
ഓക്സിജൻ	11257
പ്രതിമാസം	11258
പച്ചക്കറി	11259
ചാരി	11260
മയ്യ	11261
രജന	11262
ലൗ	11263
##ദാർ	11264
##ar	11265
##്പ്	11266
##ായാണ്	11267
ക്കേണ്ടത്	11268
##ാവു	11269
##ഗ്രാം	11270
സമാഹ	11271
ങ്ങളായ	11272
ലഭിക്കാന്‍	11273
രൂപയായി	11274
കേസുകള	11275
ജെപി	11276
ഗുഡ്	11277
##എംപി	11278
കരുണാക	11279
സോണ്‍	11280
കൊല്ലത്ത്	11281
നീക്കിയ	11282
പ്രതിപക്ഷത്തിന്റെ	11283
തയ്യാറാവ	11284
സമീപത്ത്	11285
ിരുന്നെങ്കില്‍	11286
ശ്രദ്ധയിൽ	11287
ബ്രസ	11288
തകരാ	11289
പരിഗണിക്ക	11290
ബിഗ്‌	11291
നിരീക്ഷണത്തിൽ	11292
ിനൊപ്പ	11293
ങ്ങൾക്ക്	11294
സമ്മാനമായി	11295
ടൈംസ്	11296
റെക്കോർഡ്	11297
ഉത്തര്‍പ്രദേശ്	11298
നിഷേധിച്ച	11299
അങ്ങേയ	11300
സൂചിപ്പിക്കുന്നു	11301
പയ്യന്നൂര്‍	11302
നിർമാണ	11303
അക്കാര്യം	11304
ഉപയോക്ത	11305
പണ്ഡി	11306
പരമ്പരാഗത	11307
നക്ഷത്ര	11308
മറുവശത്ത്	11309
ഇന്നു	11310
എവി	11311
എന്റ	11312
ഒമാന	11313
കായ	11314
ഡിപ്പ	11315
ദിൽ	11316
ബഷ	11317
##ദ്യാ	11318
##ദാബ	11319
##വെന്ന്	11320
##വ്യാ	11321
##ഫലി	11322
##ബിയ	11323
നിധ	11324
കൊയില	11325
##ാർശ	11326
കുറയും	11327
നിരന്തര	11328
##കുള	11329
സ്വദേശിയാണ്	11330
പ്രവര്‍ത്തിക്കാന്‍	11331
പലര്‍ക്കും	11332
പോകേണ്ട	11333
ിക്കാനാണ്	11334
മേഖലയെ	11335
വീട്ടുകാര്‍	11336
പ്രചരിച്ച	11337
##ടുക്കിയ	11338
അവസാനിപ്പിക്ക	11339
സഖ്യമ	11340
അനുവദിച്ചു	11341
മോദിക്ക്	11342
ചൈനയില്‍	11343
കണ്ടെത്താന	11344
രജിത്	11345
സമൂഹമാ	11346
ആരോപണങ്ങൾ	11347
സത്യസന്ധ	11348
ഫ്രാ	11349
വന്നുചേ	11350
കൊണ്ടുവരാന്‍	11351
മനസ്സിലാക്കിയ	11352
എക്സ്	11353
അംബാനിയുടെ	11354
പുറത്തുവന്നിരുന്നു	11355
കോർപറ	11356
പാസാക്കിയ	11357
സീനിയർ	11358
##ാവശ്യപ്പെട്ട്	11359
കിഴക്കൻ	11360
പ്രോസിക്യൂഷ	11361
താങ്കൾ	11362
അന്‍വര്‍	11363
പാണ്ഡ്യ	11364
ഒമി	11365
കാൻ	11366
ജമാ	11367
##യില്ല	11368
##ലേഖ	11369
##മരം	11370
##ണ്ടെന്ന്	11371
##ിക്കിട	11372
##ുകര	11373
മുസ്‌	11374
##സിബി	11375
കളിക്ക	11376
##ര്‍ക്കാന്‍	11377
അനൂപ	11378
ജോയ	11379
മാത്രമെ	11380
ഏറ്റവുമ	11381
മോര്‍ച്ച	11382
##സ്‌മെന്റ്	11383
നിർത്തിയ	11384
സ്റ്റാലി	11385
##േറ്റർ	11386
എന്തോ	11387
മൊയ്	11388
മിഷൻ	11389
ചികില്‍	11390
വിഷയങ്ങള്‍	11391
തരത്തിൽ	11392
പാര്‍ട്ടികളുടെ	11393
സ്വീകരിക്കാന്‍	11394
വാഹനത്തില്‍	11395
കമ്മീഷന്റെ	11396
തട്ടിയെടുത്ത	11397
പൊലീസും	11398
രാശിക്കാര	11399
മല്ലാത്ത	11400
സൃഷ്ടി	11401
വലതു	11402
##ഫോഴ്സ്	11403
ഇദ്ദേഹത്തിന്റെ	11404
##ീരിലെ	11405
പ്രവാസികള്‍	11406
ഭാഗ്യലക്ഷ്മി	11407
##ശേഖര	11408
മമ്മൂട്ട	11409
ക്രിമിനൽ	11410
സെക്കന്‍ഡ	11411
പരാമർശം	11412
പറയാനുള്ളത്	11413
പൊട്ടിത്തെറി	11414
നെയ്യാ	11415
റിനോഷ്	11416
എസ്റ്റ	11417
ഒരിട	11418
ചവി	11419
ഡാം	11420
പാണ	11421
പാല്‍	11422
ബാര്‍	11423
ശർമ്മ	11424
ുകൾ	11425
##നിലെ	11426
##റമ്പ	11427
##ന്‍ഷന്‍	11428
##രുമേ	11429
പുഷ	11430
##ന്തോ	11431
തുര്‍ക്ക	11432
സുല്‍	11433
##ജിത	11434
തെല്ലാം	11435
വന്നാൽ	11436
കേസുകളിൽ	11437
യാണ്‌	11438
ലക്ഷക്കണക്കിന്	11439
ിരിക്കുക	11440
മത്സരിക്കും	11441
ചേര്‍ത്ത്	11442
പ്രവര്‍ത്തിക്കുന്നത്	11443
മലിന	11444
ശ്രമമാണ്	11445
കോൺഗ്രസിന	11446
##ക്കുട	11447
ഗുസ്തി	11448
വകുപ്പു	11449
പിടിക്ക	11450
പാദ	11451
മഹാസ	11452
ആയിരിക്ക	11453
റ്റില്‍	11454
അലര്‍ട്ട്	11455
യുഡിഎഫില്‍	11456
പൊലീസില്‍	11457
മുംബൈയിലെ	11458
നിര്‍ദേശിച്ച	11459
കോടിയോളം	11460
വിദ്യാര്‍ത്ഥികള്‍ക്ക്	11461
മിനിറ്റ്	11462
##കൃഷ്ണന്‍	11463
സഹകരണം	11464
ദൗത്യം	11465
പ്ലാറ്റ്‌	11466
കേള്‍ക്ക	11467
ശ്രദ്ധേയമാണ്	11468
രാധാകൃഷ്ണന്‍	11469
നാട്ടുകാരും	11470
ഭൂരിഭാഗം	11471
ഡൊണാള്‍ഡ്	11472
കോയമ്പ	11473
തൊഴിലവസര	11474
അഥവാ	11475
അട്ട	11476
ഒവൈസി	11477
ത്യാ	11478
മര്‍ദ	11479
വത്	11480
വെന്ന്	11481
വർക്കും	11482
##ോത	11483
##സഞ്ച	11484
##സ്ലി	11485
കോണ	11486
##വിദ്യാ	11487
പുടി	11488
##മ്പാടി	11489
തുപോലെ	11490
കളഞ്ഞ	11491
രാജന്‍	11492
ഇന്ത്യക്കാര	11493
##ാരിന്റെ	11494
##്യൂണ	11495
##ാറാം	11496
കാലത്തും	11497
സീറ്റുകളിലും	11498
വോട്ടുകളുടെ	11499
ിക്കാം	11500
ദുഃ	11501
ദിവസങ്ങളായി	11502
രാഹുലിനെ	11503
ജയ്പ	11504
യാത്രക്കാര്‍	11505
ഭൂഷ	11506
തടസ്	11507
അടയാള	11508
ഫോർട്ട്	11509
പോയിരുന്നു	11510
സംസാരിക്കുന്നത്	11511
വെള്ളാ	11512
രക്ഷപ്പെട്ട	11513
അമേരിക്കൻ	11514
ാണു	11515
നിയമസഭയിൽ	11516
ഏതൊക്കെ	11517
നമ്പറ	11518
അഭിനയിച്ച	11519
സംബന്ധിച്ചുള്ള	11520
യില്ലാതെ	11521
ഡ്രൈവി	11522
റാങ്ക്	11523
ദുരന്തനിവാരണ	11524
റദ്ദാക്കി	11525
റെയില്‍വെ	11526
ശൈലി	11527
ട്വിറ്റര്‍	11528
കുടുങ്ങിയ	11529
പ്രേക്ഷകർ	11530
ബാഗ്	11531
പെൺകുട്ടിയുടെ	11532
പ്രക്ഷോഭം	11533
മാതാപിതാക്കള്‍	11534
മുറിയില്‍	11535
ജനസംഖ്യയുടെ	11536
സെൻട്ര	11537
##വേലിക്കര	11538
ഹെൽത്ത്	11539
ശോഭാ	11540
അഴീക്കോട്	11541
ഇബ്രാഹിം	11542
യെച്ചൂരി	11543
##വിദ്യാഭ്യാസ	11544
അപ്പോഴ	11545
ആർക്ക	11546
ഇമേ	11547
ഖാൻ	11548
ചാര	11549
നെയും	11550
പുന്ന	11551
ശന	11552
ുമായുള്ള	11553
##സിലേക്ക്	11554
##ഡസ്ട്ര	11555
##ത്താല	11556
##ിക്കെ	11557
നിങ്ങള	11558
എന്നൊരു	11559
ക്കപ്പെടുന്ന	11560
ക്കെല്ലാം	11561
##ാലക്കുട	11562
പ്രതിമ	11563
ത്തന്നെ	11564
കോണ്‍സുല	11565
അധ്യ	11566
ചേരും	11567
മാറ്റങ്ങൾ	11568
##ക്കുറ	11569
സൗന്ദ	11570
മറു	11571
മറിച്ച	11572
ജയശങ്ക	11573
കുടുംബത്തില്‍	11574
ബിജെപിയിൽ	11575
കൃത്രി	11576
പൂരം	11577
വരുത്തുന്ന	11578
സേഫ്	11579
ച്ചത്	11580
അടിസ്ഥാനമാക്കി	11581
ാണെങ്കിലും	11582
തെളിവുകൾ	11583
ചന്ദ്രന്‍	11584
കോടിയാണ്	11585
ആകെയുള്ള	11586
ടീമില്‍	11587
നായിക	11588
തസ്തികയിലേക്ക്	11589
പൂർത്തിയാ	11590
ബാബുവിന്റെ	11591
അബുദാബ	11592
വൃത്തങ്ങൾ	11593
ട്രാഫിക്	11594
സ്‌പെഷ്യ	11595
പറമ്പില്‍	11596
ലക്ഷദ്വീപ	11597
പാക്കേജ	11598
അധികാരത്തിലെത്തിയ	11599
സംഘപരിവാര്‍	11600
മുനിസിപ്പാലിറ്റി	11601
ഹുസൈ	11602
സല്‍മാന്‍	11603
ജൂനിയര്‍	11604
ജാസ്മി	11605
ഡൽഹിയിൽ	11606
കസേര	11607
പള്‍സര്‍	11608
പരിയാരം	11609
,'	11610
അങ്ങ്	11611
ഉദ്യ	11612
ഐഎന്‍	11613
കാക്ക	11614
നടുവ	11615
പശു	11616
റിൽ	11617
റഹ്മ	11618
ലാന്‍	11619
ുമെ	11620
##ഹേള	11621
##ന്വേഷ	11622
പ്രസ്	11623
##ുമാർ	11624
നിഗ	11625
മാർച്ച	11626
സംവാദ	11627
##വിളി	11628
##ാവായ	11629
##ോഗം	11630
##രാജ്യ	11631
വേണമെന്നാണ്	11632
നിന്നായി	11633
നിയന്ത്രി	11634
നിലകൊ	11635
നല്‍കുമെന്ന്	11636
##ാമായിരുന്നു	11637
ശ്രേയ	11638
കാമ്പ	11639
മുഖത്ത്	11640
നിരപ	11641
രാജ്യങ്ങളിലെ	11642
ിക്കണം	11643
ുണ്ടെന്ന	11644
ഇറാഖ	11645
സമയവും	11646
110	11647
മികവ്	11648
മന്ത്രിയ	11649
വിദ്യാലയ	11650
എംഎല്‍എമാരെ	11651
വാഹനങ്ങൾ	11652
കണ്ടെത്തല്‍	11653
മകനെ	11654
##മാർക്ക്	11655
പ്പെടുത്തി	11656
അവസ്ഥയാണ്	11657
തീവ്രത	11658
റാന്നി	11659
സൂചിക	11660
സൂക്ഷ്മ	11661
പങ്കെടുക്കാന്‍	11662
യ്‌ക്ക	11663
ഗുജറാത്തില്‍	11664
നിയന്ത്രിക്കുന്ന	11665
യൂണിവേഴ്സി	11666
പൊതുവെ	11667
ക്രിസ്ത്യന്‍	11668
പ്രതാപ	11669
ഉത്തരാഖണ്ഡ	11670
ചുഴലിക്കാറ്റ്	11671
കൺട്രോൾ	11672
അണിയറ	11673
പരിസരത്ത്	11674
വന്ദേഭാരത്	11675
സാംസ്കാരിക	11676
സമൂഹമാധ്യമ	11677
പുഷ്പ	11678
3000	11679
ഓവ	11680
കത്തിൽ	11681
നായ്	11682
പിയെ	11683
റിന്	11684
വെന്ന	11685
വട്ടിയ	11686
വിയോ	11687
ശരണ	11688
ഷൈ	11689
െത്തിയ	11690
##ിന്ന	11691
##ോര്‍	11692
##പ്പാറ	11693
##ണ്ടര്‍	11694
അവഹേള	11695
ജനിച്ച	11696
##ീയത	11697
##ജിപി	11698
രൂപപ്പെട്ട	11699
കണ്ടിരുന്നു	11700
വന്നാലും	11701
രാജ്യത്ത	11702
##ഗ്‌	11703
ഏറ്റുവാ	11704
സ്റ്റോറി	11705
തിരിച്ചുവര	11706
ഡോക്ട	11707
2010	11708
ബോസില്‍	11709
റ്റു	11710
നയിച്ചത്	11711
ശതമാനമായി	11712
ഏതൊരു	11713
പ്രശ്നങ്ങള്‍	11714
##ശിക്ഷ	11715
പ്പെടുത്തുന്ന	11716
സന്ദര്‍ശിച്ച	11717
വീണത്	11718
നൂറ്റാണ്ട	11719
വടക്ക്	11720
കുറയുന്ന	11721
തൃണമൂൽ	11722
##ന്‍സിക്	11723
സ്ത്രീകള്‍ക്ക്	11724
വർദ്ധന	11725
യാഥാർത്ഥ	11726
പൊളിച്ച	11727
പുരസ്‌കാര	11728
വോട്ടിംഗ്	11729
സംഘപരിവാർ	11730
ഇന്ദി	11731
മെമ്മറി	11732
##തൂക്കം	11733
അശ്ലീല	11734
ദുഃഖ	11735
അപ്പുറ	11736
ടൗണ്‍	11737
ബോട്ട്	11738
വൺ	11739
ഹാര്‍	11740
##യിന	11741
##ുളം	11742
##ഡന്‍	11743
##േവാല	11744
അവാര്‍ഡ്	11745
പ്രതികളുടെ	11746
അതത്	11747
രാജസ്ഥാൻ	11748
വേത	11749
ഉണ്ടെങ്കില്‍	11750
പിന്നിട്ട	11751
കണ്ടാല്‍	11752
##ഗ്ഗീയ	11753
##ോളോ	11754
അംഗങ്ങളുടെ	11755
തിരിച്ചെത്തി	11756
യാത്രക്കാരെ	11757
ആര്‍ടി	11758
ഫോമ	11759
##ദ്ദീന്‍	11760
നേതാക്കളാണ്	11761
വൈറസ	11762
വര്‍ഷവും	11763
140	11764
എല്ലാവര	11765
ാണെങ്കില്‍	11766
ജൂണ	11767
##ുകാരും	11768
നാളായി	11769
ആരോപണവുമായി	11770
വികസനത്തിന്	11771
നേടാൻ	11772
തുടര്‍ന്നു	11773
തെളിയിച്ച	11774
##ോറിക്ഷ	11775
അച്ഛൻ	11776
നശിപ്പിച്ച	11777
എഫിന്	11778
പ്രകാരമുള്ള	11779
കിരണ്‍	11780
ഓട്ടോറിക്ഷ	11781
യുവാക്കളെ	11782
പാക്കേജ്	11783
വകഭേദം	11784
വേണമെങ്കിലും	11785
ഉത്തരാഖണ്ഡ്	11786
ഒടിടി	11787
കണ്‍വീനര്‍	11788
രാമക്ഷേത്ര	11789
രഘു	11790
##്യമന്ത്രാലയം	11791
നിരപരാ	11792
kerala	11793
ഒരോ	11794
ടാക്	11795
താണ	11796
പുള്ളി	11797
ലേക്കുള്ള	11798
ശ്യാ	11799
##ർഷം	11800
##മയം	11801
##ഷനു	11802
മാഫിയ	11803
##ിവേശ	11804
##ുവെന്ന	11805
പറഞ്ഞാണ്	11806
പ്രതിജ്ഞ	11807
##ീകൃത	11808
ത്തോളം	11809
പറയാതെ	11810
ഉണ്ടോ	11811
മനസ്സ്	11812
ആവശ്യകത	11813
##ക്കിട	11814
കിണ	11815
കിറ്റ്	11816
##ക്കുളം	11817
മേഖലകളിലും	11818
പ്രത്യാഘാത	11819
പരിശോധനയിൽ	11820
യോടുള്ള	11821
സംസാരിക്കാന്‍	11822
പരിഹരിക്കുന്ന	11823
ലാബ്	11824
ബംഗളൂ	11825
പോസ്റ്റിൽ	11826
##ാന്തിന്റെ	11827
ഹാജരായ	11828
സൈനികര്‍	11829
സജീവമായ	11830
അടക്കമുള്ളവര്‍	11831
##ലോഡ്	11832
കടന്നാ	11833
മേധാവ	11834
ഫാസി	11835
സ്വാധീനമുള്ള	11836
ശരീരം	11837
ക്രൂരത	11838
പെൺകുട്ടിയെ	11839
തകര്‍ന്നു	11840
ഇടയാക്കിയ	11841
##രൂപം	11842
അണുബാധ	11843
മുകുന്ദ	11844
ഗ്യാസ്	11845
വെല്‍ഫ	11846
##ോടനുബന്ധിച്ച്	11847
അന്ത്യ	11848
അണി	11849
എങ്ങ	11850
എസി	11851
കംപ	11852
ഗത്ത്	11853
താണെന്ന	11854
മജീ	11855
ലില്‍	11856
ഹിമ	11857
##യെന്ന	11858
##ോറ	11859
##സന	11860
##സറ	11861
##ക്കോട്	11862
##രിഞ്ഞ	11863
വിഴിഞ്ഞ	11864
##െയുടെ	11865
##ഞ്ഞി	11866
നിധി	11867
##ല്ല്	11868
##ോഗ്	11869
തിരിക്കാന്‍	11870
പുതുവ	11871
സിഇ	11872
കളോടും	11873
ത്തെയും	11874
തീർത്ത	11875
ഉണ്ടെന്നാണ്	11876
##മുല	11877
പെരുന്ന	11878
നിര്‍ണയ	11879
##ുണ്ടെന്നാണ്	11880
മന്ത്രിമാരുടെ	11881
##ക്കെട്ട്	11882
കടകം	11883
റോയല്‍	11884
മുന്‍കൂട്ടി	11885
പാടുള്ള	11886
ഒന്നിച്ച്	11887
നെത	11888
കൊല്ലപ്പെട്ടു	11889
പരിശോധനയും	11890
കുട്ടികളും	11891
മുമ്പാകെ	11892
ആശുപത്രിയിലും	11893
വൈറസിന്റെ	11894
ക്ലി	11895
ക്ലസ്റ്റര്‍	11896
മാര്‍ഗ്ഗ	11897
സംവിധാനങ്ങള്‍	11898
വിലയിരുത്തുന്നത്	11899
ഇരട്ടി	11900
കുഞ്ഞിന്റെ	11901
രാശിക്കാർ	11902
സംരക്ഷിക്കുന്ന	11903
പ്രിയങ്കയുടെ	11904
ഷിജു	11905
ഹോട്ടലില്‍	11906
ഞെട്ടിച്ച	11907
പ്രവാസികള്‍ക്ക്	11908
വിദഗ്ധര്‍	11909
ഡിവിഷന്‍	11910
ബാലകൃഷ്ണന്‍	11911
ദുരൂഹത	11912
ചിദംബരം	11913
റിനോഷ	11914
അക്രമി	11915
ആറ്റി	11916
ഇങ്ങനെയാണ്	11917
ജനി	11918
ണമെന്ന്	11919
ബലി	11920
ബെന്നി	11921
ഷു	11922
ാമ	11923
##പകട	11924
##സള്‍	11925
##മന്‍	11926
##on	11927
##ഹാര	11928
##ക്ച	11929
നിസ്സ	11930
##ാക്കുകയും	11931
പരിക്ക്	11932
സുതാര	11933
സെലി	11934
അറിയിക്കുകയും	11935
##നാഭ	11936
മുന്നില	11937
സ്ഥാനത്താണ്	11938
അധികമായി	11939
രാഷ്ട്രീയത്തിൽ	11940
കൂട്ടത്തോടെ	11941
വിഷമം	11942
യാത്രയ്ക്ക്	11943
സാഹചര്യങ്ങള്‍	11944
ആയിരം	11945
തയ്യാറല്ല	11946
കുറ്റ്യാ	11947
കുട്ടികൾക്ക്	11948
ണ്ടായി	11949
വര്‍ധിക്കും	11950
കാരണങ്ങള	11951
എത്തിച്ച്	11952
േക്കുമെന്ന്	11953
അനുഭവിച്ച	11954
എക്‌സിറ്റ്	11955
പാർട്ടികൾ	11956
തടയാൻ	11957
വഹിക്കുന്ന	11958
ആവശ്യപ്പെട്ടിരിക്കുന്നത്	11959
##ക്കൊണ്ട	11960
കർഷകരുടെ	11961
അച്ഛനും	11962
നടപ്പിലാക്കുന്ന	11963
സുരക്ഷിതമായി	11964
തുടക്കത്തിൽ	11965
മുറിവ	11966
വിമര്‍ശനവുമായി	11967
ആലോചിച്ച	11968
യുവാവിന്റെ	11969
സൗഹൃദം	11970
ശുപാർശ	11971
കവിത	11972
മജിസ്ട്ര	11973
ഇറ്റലി	11974
ബയോഡ	11975
തള്ളിക്കളയ	11976
പ്രിൻസിപ്പൽ	11977
ഭോപ്പ	11978
തിയ്യതി	11979
അള	11980
ആപ്പ	11981
എബി	11982
ഗംഗ	11983
ശര്‍മ്മ	11984
ാലോ	11985
##ര്യമുള്ള	11986
##ാഘോഷ	11987
##ദാന	11988
##ൊടുവ	11989
മുക്ക	11990
കേവല	11991
കുറെ	11992
സിന്‍	11993
വാള	11994
##റ്റിംഗ	11995
തീരം	11996
അറിയിക്കുന്നു	11997
ന്ത	11998
തെരു	11999
കണ്ടിട്ടില്ല	12000
വന്നപ്പോൾ	12001
രാജ്യങ്ങൾ	12002
നൽകണം	12003
ിരിക്കുകയാണെന്നും	12004
ഭാഗിക	12005
തീരുമാനിച്ചിരുന്നു	12006
വിജയനും	12007
കിസ	12008
സീറ്റാണ്	12009
വിവാഹിത	12010
മുന്‍ഗണന	12011
മഹേഷ്	12012
ഉള്‍ക്കൊള്ള	12013
റിമാന്‍	12014
നിലപാടെ	12015
പ്രദേശങ്ങളിലും	12016
വ്യാപാരം	12017
ചൂട്	12018
ഇന്നിംഗ്	12019
നഷ്ടമായി	12020
വകുപ്പുകൾ	12021
സുരേന്ദ്രനെ	12022
വെച്ചായിരുന്നു	12023
ആണോ	12024
സമരത്തിന്	12025
##ഷ്‌ട	12026
പ്രവർത്തകരെ	12027
ബോധം	12028
##ആര്‍ടിസി	12029
കൃഷ്ണന്‍	12030
ഗോപിക	12031
ജീവനക്കാരും	12032
പേരുകള്‍	12033
നടപ്പിലാക്കിയ	12034
കയ്യില്‍	12035
മത്സ്യബന്ധ	12036
കുറിപ്പിൽ	12037
ടാസ്‌ക്	12038
ആളുകൾക്ക്	12039
ശ്ശേരി	12040
സ്റ്റാഫ	12041
കെഎസ്ആര്‍ടിസി	12042
വര്‍ക്കെതിരെ	12043
മൗനം	12044
##ബൂബ	12045
ചാണ്ടിയുടെ	12046
ബലാത്സംഗം	12047
ഓണ്‍ലൈനായി	12048
ആണ്‍കുട്ടി	12049
എന്‍ജിനീയര്‍	12050
ദുരുപയോഗം	12051
ഗുലാം	12052
ചികില്‍സ	12053
സിഇഒ	12054
ഗൊ	12055
നാണെന്ന്	12056
പന്ത്	12057
ഷൻ	12058
ഹയര്‍	12059
##ശാസ്ത്ര	12060
##ല്യ	12061
##ലുമായി	12062
##െറിഞ്ഞ	12063
##ക്തം	12064
##ിക്കേണ്ടി	12065
##റ്റിയ	12066
വിപി	12067
##ുള്ളൂ	12068
##ഡ്ജ	12069
അവശേഷ	12070
##വാസ്	12071
അതെല്ലാം	12072
സുനിൽ	12073
ങ്ങി	12074
##ാതല	12075
നിലയ	12076
നല്‍കുമെന്നും	12077
കഴിഞ്ഞിരുന്ന	12078
മുന്നിലെ	12079
സംഭവങ്ങൾ	12080
##പക്ഷം	12081
ഉയരുന്നുണ്ട്	12082
മനീഷ്	12083
പരമായ	12084
വിഭാഗത്തെ	12085
പദ്ധതികളും	12086
ഉത്തരവിട്ട	12087
നഷ്ടമായത്	12088
കണക്കാക്കുന്നത്	12089
വൈകി	12090
പരിഹരിക്കാന്‍	12091
##രികയാണ്	12092
ഏകദിന	12093
പോവുന്ന	12094
മഹാരാഷ്ട്രയിലെ	12095
ചരിത്രത്തില്‍	12096
ഇടിവ്	12097
ജോര്‍ജ്ജ്	12098
ുകയാണ്	12099
ഡിവൈഎഫ്‌ഐ	12100
പരിശോധനാഫലം	12101
ജോലിക്ക	12102
യൂണിയൻ	12103
സൂരജ	12104
സിഎഎ	12105
ബില്യൺ	12106
ഭൂരിഭാഗവും	12107
ജിഎസ്ടി	12108
അങ്ങേയറ്റം	12109
ദിൽഷ	12110
ആക്കി	12111
ഉണ	12112
ഓയില്‍	12113
ഫയല്‍	12114
##കമ്പ	12115
##ത്തുന്നത്	12116
ക്കരുതെന്നും	12117
സംസ്‌ക	12118
സംക്രമണം	12119
പോർട്ട	12120
കൊടുവ	12121
സ്വത്തു	12122
സിറിയ	12123
സിബി	12124
##ത്തിര	12125
ത്തേക്ക്	12126
പോലുമില്ല	12127
ഇതാദ	12128
നിലയിലായിരുന്നു	12129
തീർക്ക	12130
##കളുമായി	12131
പ്പെടു	12132
രാജ്യത്തു	12133
വീട്ടമ്മ	12134
സ്ഥാപനം	12135
ഉപയോഗം	12136
കരുന	12137
ആരംഭിക്കുന്നത്	12138
ഇരുപത്	12139
ലിറ്റ	12140
ിരുന്നതായി	12141
പിണറായ	12142
വീടുകൾ	12143
ണ്ടാവ	12144
പോലീസില്‍	12145
ാണെന്ന	12146
ിലുള്ള	12147
##ബ്രി	12148
എണ്ണത്തില്‍	12149
സമൂഹത്തിന്	12150
അധികൃതരുടെ	12151
നായർ	12152
ചെറിയാന്‍	12153
ചേര്‍ന്നത്	12154
നമുക്ക	12155
വയസ്സിന്	12156
ലംഘിച്ച്	12157
വ്യക്തിയുടെ	12158
യുക്രൈ	12159
വച്ചാണ്	12160
ഹാജരാക്കിയ	12161
സ്റ്റേഷനിൽ	12162
വില്ലേജ്	12163
ലാലു	12164
സംഘപരിവാ	12165
പുറപ്പെടുവിച്ച	12166
അസ്വസ്ഥത	12167
പടിഞ്ഞാറൻ	12168
നറുക്കെടു	12169
##ബിനറ്റ്	12170
ആർഎസ്എസ്	12171
ക്ഷാമം	12172
വിട്ടുവീഴ്ച	12173
പൂന്തുറ	12174
ംഗ്	12175
ഇടിയ	12176
ഏജന്റ	12177
തെങ്കിൽ	12178
റായ	12179
േട്ട	12180
##ോടി	12181
##ദമായ	12182
##േയുള്ള	12183
##ബൽ	12184
ക്കായുള്ള	12185
##െടുക്കും	12186
വേന	12187
##ാഗപ്പള്ളി	12188
സാധിച്ചിരുന്നു	12189
അറിയിച്ച്	12190
പ്പിച്ച	12191
ആവശ്യമായി	12192
മുന്നേ	12193
മെട്ര	12194
മോന്‍സ	12195
അതിർത്തിയ	12196
ചേർത്ത്	12197
തോത	12198
നമ്മു	12199
ആരംഭിച്ച്	12200
നടക്കാന്‍	12201
മരണനിര	12202
ച്ചെ	12203
രേഖകളും	12204
എല്ലാവരേയും	12205
പ്രവര്‍ത്തനങ്ങളില്‍	12206
വിമര്‍ശിച്ചു	12207
മകനും	12208
അധികാരത്തിലേ	12209
##ബ്രഹ	12210
കാരണമായത്	12211
പുനല	12212
താമസിച്ച	12213
പ്രവർത്തകരുടെ	12214
സേനയുടെ	12215
സിംഗിന്റെ	12216
പൂർത്തിയാക്കിയ	12217
സന്ദർശനം	12218
താത്പര്യ	12219
കാറ്റഗ	12220
കര്‍ഷകര്‍ക്ക്	12221
കൊവിഡിന്റെ	12222
അത്തരത്തില്‍	12223
അയാളെ	12224
എന്നിവരെയാണ്	12225
സ്വഭാവം	12226
കല്യാണം	12227
ചൗഹാന്‍	12228
തയ്യാറായിട്ടില്ല	12229
കത്തയച്ച	12230
പ്രമോദ്	12231
തേടിയെത്തും	12232
##ാന്ധി	12233
തീര്‍ച്ചയായും	12234
ആല്‍	12235
കെയർ	12236
ഗേറ്റ്	12237
ചാറ്റ	12238
ഡീ	12239
ഭരിച്ച	12240
മൻ	12241
റാണ	12242
ലാൽ	12243
##യാന്‍	12244
##ിഴ	12245
##തുക	12246
##പള്ളി	12247
##വിനി	12248
##ഫു	12249
##ൃദ്ധി	12250
##പ്പർ	12251
##ിക്കാട്	12252
##ാലിനെ	12253
##ോഗി	12254
സ്വീകരണ	12255
കളായിരുന്നു	12256
##ിലേന്ത്യ	12257
പറയുമ്പോള്‍	12258
തീർച്ച	12259
തീർത്ഥ	12260
##ണ്ണാടക	12261
രോഗികൾ	12262
നീട്ടിയ	12263
എന്നിവർക്കും	12264
തീരുമാനങ്ങള്‍	12265
പരിശോധിക്കും	12266
പാലാരി	12267
ജയിച്ചു	12268
സ്ഥിരീകരിച്ചിരുന്നു	12269
ഉള്ളൂ	12270
മോദിയും	12271
നടക്കുകയാണ്	12272
സഖാവ്	12273
നേടിയിട്ടുണ്ട്	12274
വാങ്ങാൻ	12275
കനേഡിയ	12276
ഇടപെടൽ	12277
അഖിലേന്ത്യ	12278
സ്ഥാനാർത്ഥികളെ	12279
താഴെയുള്ള	12280
ചൊല്ലി	12281
പുലര്‍ത്ത	12282
സംശയിക്കുന്ന	12283
പോവുന്നത്	12284
ഡ്രൈവ	12285
ലക്ഷ്യമിട്ട്	12286
മൈക്രോ	12287
ന്യൂനമ	12288
ഗ്രഹങ്ങളുടെ	12289
ഒപ്പുവ	12290
ഹൃദയാ	12291
അപമാനിച്ച	12292
സര്‍വ്വകലാശാല	12293
##തിനിടെയാണ്	12294
പാർലമെന്റ്	12295
സാംപി	12296
ബാധിതരുടെ	12297
ുന്നത്	12298
തുടരുമെന്നും	12299
ദയനീയ	12300
നാഥ്	12301
ശശീന്ദ്രന്‍	12302
ബിനീഷ്	12303
ജുനൈസ്	12304
സുകുമാര	12305
ഉല	12306
ഒൻ	12307
ജഡ	12308
നഴ്‌സ	12309
നഴ്സ	12310
ബിനോ	12311
റോള്‍	12312
ഴ്	12313
##ോയ്	12314
##ോചി	12315
##ീതമായി	12316
##ര്‍ഹ	12317
പ്രധ	12318
ക്കുമ്പോഴും	12319
അവഗണന	12320
രാജയോഗ	12321
സുബ്ര	12322
വെക്കുന്നത്	12323
നിന്നോ	12324
നല്‍കേണ്ട	12325
ങ്ങളേയും	12326
ഇന്ത്യക്കാർ	12327
ജോജു	12328
കഴിഞ്ഞില്ല	12329
കേന്ദ്രങ്ങൾ	12330
കാണിക്കുന്നത്	12331
എസ്എസ്	12332
##സ്‌റ്റ്	12333
ചെമ്പ	12334
##ക്കിംഗ്	12335
സ്റ്റാർ	12336
ഉറച്ചു	12337
മറച്ചു	12338
ദിവസങ്ങളിലും	12339
എത്തിക്കാന്‍	12340
ഒഴുക	12341
തയ്യാറാക്കി	12342
നടക്കാന	12343
ഉത്തരേന്ത്യ	12344
ദില്ലിയിൽ	12345
തരൂർ	12346
പാര്‍ട്ടിയും	12347
സ്ഥാനാര്‍ത്ഥികള്‍	12348
ക്കാനായിരുന്നു	12349
യുണ്ടെന്നും	12350
യാണു	12351
വാങ്ങുന്നത്	12352
സമൂഹത്തെ	12353
നേട്ടമുണ്ട	12354
ശുച	12355
സഖ്യത്തിന്റെ	12356
ചൊല്ല	12357
പൗരത്വം	12358
സെന്ററില്‍	12359
കടന്നുപോ	12360
സൗകര്യങ്ങൾ	12361
ശേഖര	12362
##ഞ്ജലി	12363
യല്ലേ	12364
മുല്ലപ്പെരിയ	12365
ഹൃദയം	12366
പ്രോസിക്യൂട്ട	12367
പ്ലാറ്റ്	12368
കയറിയത്	12369
യുപിയിലെ	12370
കൊവിഡിനെ	12371
ഗിരി	12372
ഡീസലിന്	12373
പത്മജ	12374
ഇരിങ്ങ	12375
പുനരധ	12376
##മാൻഡ്	12377
ഇന്റർവ്യൂ	12378
വികസിപ്പിച്ച	12379
അഡ്മിനിസ്‌ട്ര	12380
ഇവിടുത്തെ	12381
ഉചിതമായ	12382
കാര്യക്ഷമ	12383
പൂഞ്ഞാര്‍	12384
ആപ്ല	12385
ചട്ടം	12386
ദാമ്പ	12387
ഭൗ	12388
മൊരു	12389
രഹി	12390
ഷാര്‍	12391
സവ	12392
ിച്ചത്	12393
##പഥ	12394
##ണ്ടം	12395
വികെ	12396
സ്ക്ര	12397
##ങ്ങളോളം	12398
##ോഗിക	12399
അവൻ	12400
ബിൻ	12401
##വാസം	12402
നിന്നത്	12403
ശ്രുതി	12404
##ാടകര്‍	12405
##ന്റു	12406
ചെയ്തതിന്	12407
ചേർന്നു	12408
നേരത്ത	12409
പേരെയും	12410
അംഗങ്ങളായ	12411
##േറ്റിന്	12412
തിരിച്ചട	12413
ചെയ്തിരുന്നത്	12414
കഴിയാതെ	12415
കൃഷ	12416
പരിശോധനകള്‍	12417
പരിശോധനയ്ക്കായി	12418
അടൂര്‍	12419
ുവെങ്കിലും	12420
ഇതിനുള്ള	12421
ഉൾപ്പെടുത്തിയ	12422
വൈകാരിക	12423
പാര്‍ട്ടികളും	12424
അവകാശപ്പെടുന്നു	12425
സൂചനകള്‍	12426
മകന്റെ	12427
മാണിയുടെ	12428
രുത്	12429
കുഞ്ഞി	12430
ഫലങ്ങള്‍	12431
സാധ്യതയുണ്ടെന്നും	12432
യെന്നത്	12433
തിരുവമ്പാടി	12434
ചൂണ്ടിക്കാണിക്കുന്നത്	12435
ജഡ്ജ	12436
സില്‍വര്‍	12437
നൂറുക	12438
രാത്രിയോടെ	12439
തെറ്റിദ്ധാരണ	12440
യൂറോപ്പ	12441
##റ്റോറിയ	12442
തകര്‍ന്ന്	12443
ബിഷപ്പ്	12444
അനുശോച	12445
നിയമനടപടി	12446
മുന്‍സിപ്പാലിറ്റി	12447
നെയ്യാറ്റി	12448
ഒഴിഞ്ഞു	12449
ഗീ	12450
ഗേ	12451
തങ്ങൾക്ക്	12452
നാക	12453
വലി	12454
ശീല	12455
ോടെ	12456
##മിനി	12457
##ൊണ്ട്	12458
##ിലിന്	12459
##ക്കറ്റ്	12460
പ്രസ്തു	12461
##റ്റഡ്	12462
എന്നുള്ളത്	12463
രാഘ	12464
##ടുത്തു	12465
ബിഎ	12466
പറഞ്ഞതായി	12467
സംസ്ഥാനങ്ങളുടെ	12468
കാശ്മ	12469
വരേയും	12470
ചേച്ചി	12471
പുതിയൊരു	12472
ുണ്ടെങ്കിൽ	12473
പ്രചരിപ്പിച്ച	12474
യാത്രക്കാരുടെ	12475
ഒന്നിലധികം	12476
കോടതിക്ക്	12477
##യ്ക്കാണ്	12478
മഴയാണ്	12479
130	12480
വീടും	12481
സ്വീകരിക്കുന്നത്	12482
വഴക്ക	12483
വഴിയും	12484
വര്‍ധിപ്പ	12485
ഉണ്ടായിരിക്കണം	12486
##ച്ഛായ	12487
അര്‍ത്ഥ	12488
പൂര്‍ത്തിയാക്കിയ	12489
ടീമിന്	12490
ഇരുവരെയും	12491
നോട്ടീസ	12492
##മില്ലാതെ	12493
ഷിന്‍ഡ	12494
നേരിട്ടുള്ള	12495
വധശിക്ഷ	12496
ബജറ്റില്‍	12497
കാത്തിരിക്ക	12498
പ്രസിഡന്റും	12499
നൂതന	12500
പരസ്യം	12501
മുന്നോട്ടുവ	12502
ഉപേക്ഷിച്ച	12503
വെട്ടിക്ക	12504
വുഹ	12505
ഉരുൾ	12506
ഇന്റര്‍വ്യൂ	12507
ഗ്ലോ	12508
കമ്പനിയായ	12509
മാസ്ക്	12510
മോട്ടോര്‍	12511
ജുഡീഷ്യല്‍	12512
ഐപിഎല്ലില്‍	12513
അസാധാരണ	12514
ഏറ്റവുമധികം	12515
ുമെല്ലാം	12516
ആറ്റിങ്ങ	12517
ഇരിങ്ങാലക്കുട	12518
എയ്	12519
ടൂര്‍	12520
നുമാണ്	12521
ഫ്‌	12522
ഹീ	12523
##യാണെന്ന്	12524
##ാക്യ	12525
##മണ്ണ	12526
##േഴ്	12527
##ൊമ്പ	12528
##ധാര	12529
##ത്താൻ	12530
##്യൻ	12531
##സ്റ്	12532
##െയോ	12533
ക്കായിരുന്നു	12534
മാഹി	12535
നേമം	12536
##ാവൂർ	12537
##ന്ത്യം	12538
അവന്റെ	12539
ബിഎസ്	12540
കാരൻ	12541
കാരിയായ	12542
പറയുക	12543
നിലമ്പ	12544
ജില്ലയുടെ	12545
##ജിക്	12546
മൂത്ത	12547
ശേഷമായിരുന്നു	12548
എന്നിവയ്ക്ക്	12549
##ബ്ബ	12550
##ക്കെതിരായ	12551
അന്വേഷിച്ച്	12552
ചോദിച്ച്	12553
നാള്‍	12554
വോട്ടും	12555
ദിവസങ്ങൾ	12556
നോര്‍ക്ക	12557
കണക്കു	12558
പൂഞ്ഞാറ	12559
ഇവിടെയുള്ള	12560
മാധ്യമങ്ങളിലൂടെ	12561
പട്ടാമ്പ	12562
കുട്ടികള	12563
##തോടെയാണ്	12564
##ധികാര	12565
ജീവിതത്തെ	12566
മണിക്കൂറോളം	12567
ഹാഷ്	12568
ഡെല	12569
ശിഹ	12570
ആഗ്രഹിക്കുന്നു	12571
സാധിക്കൂ	12572
ഇരട്ടിയ	12573
ബ്ലാക്ക്	12574
എടുക്കാൻ	12575
ആകാം	12576
ചെന്നിത്തലയുടെ	12577
നിർദ്ദേശങ്ങൾ	12578
ഡോളറാണ്	12579
ദുരന്തം	12580
ആംആ	12581
പൂര്‍ണമായി	12582
സാക്ഷ്യം	12583
വ്യക്തിയ	12584
അഭിഭാഷകൻ	12585
വാക്സിനേഷന്‍	12586
അഫ്ഗാന്‍	12587
വെളിപ്പെടുത്തല്‍	12588
ഇസ്രായേൽ	12589
ഉയർത്തുന്ന	12590
വിനോദസഞ്ച	12591
വരുമ്പോൾ	12592
ശശിക	12593
കോവിഡില്‍	12594
സ്ട്രാറ്റ	12595
വിവേചന	12596
ഒരുങ്ങുകയാണ്	12597
വർധനവ്	12598
മുദ്രാവാക്യ	12599
ഭാരവാഹികള്‍	12600
അനധികൃതമായി	12601
ഇളവുകള്‍	12602
ടാസ്ക	12603
തട്ടിക്കൊണ്ട	12604
പലസ്തീന്‍	12605
ചങ്ങനാശേരി	12606
പട്ടിണി	12607
യൂട്യൂബ്	12608
ആരാധനാലയ	12609
സമ്പൂര്‍ണ	12610
ദില്‍ഷ	12611
എമിറ	12612
ലോകമെമ്പ	12613
സെൻട്രൽ	12614
യൂണിവേഴ്സിറ്റി	12615
ഓടിയ	12616
ഗുണ്ടാ	12617
ജയിൽ	12618
ദോഹ	12619
നോട്ട്	12620
ഫോട്ട	12621
യാവും	12622
രക്തം	12623
റിവ	12624
ശിര	12625
##ിതമായ	12626
##സസ്	12627
##ദര്‍ശ	12628
##ai	12629
##ിക്കന്‍	12630
##റ്റിയുടെ	12631
സ്മാര	12632
പിവി	12633
##ടിത്ത	12634
കൊള	12635
സമാപ	12636
അതിലെ	12637
നല്‍കണമെന്ന്	12638
കേരളീയ	12639
ങ്ങളിലേ	12640
കുറഞ്ഞ്	12641
കേന്ദ്രത്തിന്	12642
ഡിസൈ	12643
ഏറ്റെടുക്കുന്ന	12644
മോഡി	12645
അപ്ല	12646
ആവശ്യപ്പെടുന്നു	12647
ത്തിനൊപ്പം	12648
അംഗത്വ	12649
തൃത്താല	12650
കുറ്റക്കാര	12651
കര്‍മ്മ	12652
രാശിയിലെ	12653
വികാസ്	12654
മായാവ	12655
പകരുന്ന	12656
പത്തനാ	12657
മകരം	12658
ആണെന്ന	12659
എണ്ണവും	12660
വിട്ടുകൊ	12661
അഞ്ചര	12662
സാധിക്കാത്ത	12663
നിറവ	12664
ുള്ളത്	12665
ദിർ	12666
വിശ്വാസ്യത	12667
ലംഘനം	12668
ബന്ധുക്കൾ	12669
ക്കിടയിലും	12670
യുമൊക്കെ	12671
അബ്ദുറ	12672
സാന്നിധ്യമ	12673
പ്രദർശ	12674
സുഹൃത്തുക്കള്‍	12675
ആശയവിനി	12676
തുടർച്ചയായ	12677
ചൂണ്ടിക്കാട്ടുന്നത്	12678
പുറത്തുവരുന്ന	12679
പുരോഗമിക്കുകയാണ്	12680
ഉല്‍പ്പന്ന	12681
ചൂണ്ടിക്കാട്ടിയാണ്	12682
ഇറ്റലിയ	12683
അശ്വതി	12684
വീശിയ	12685
തീര്‍ത്തും	12686
ഹൈക്കമാന്റ്	12687
മഹിളാ	12688
ഇമ്രാന്‍	12689
മുസ്‌ലിം	12690
ഹൃദയാഘാത	12691
അപ്പോഴാണ്	12692
ആസ്	12693
ഈരാ	12694
ഈജി	12695
ഉഷ	12696
ഗൾ	12697
ഞങ്ങള	12698
ട്യൂ	12699
ധോണ	12700
ബ്	12701
യിലേക്കാണ്	12702
റഫ	12703
സിയ	12704
##ടുന്ന	12705
##സിയുടെ	12706
##ാഖ്	12707
##വന്ത്	12708
##ൊഴു	12709
##ഭേദ	12710
##ബോള്‍	12711
വിഡ്	12712
നടനും	12713
വെളു	12714
നിലയിലേക്ക്	12715
##ാമു	12716
ങ്ങളു	12717
ങ്ങളെയും	12718
സെമിന	12719
കാട്ടിയ	12720
അറിയിപ്പ	12721
നിയമപരമായി	12722
തീരുമാനിക്കുകയായിരുന്നു	12723
രംഗത്തു	12724
എന്തും	12725
ബിജെപിയിലെ	12726
മണ്ഡലങ്ങളിൽ	12727
ഭൂകമ്പ	12728
പാതി	12729
അയൽ	12730
തിരഞ്ഞെടുപ്പ്‌	12731
വരുമെന്നാണ്	12732
മുണ്ടായിരുന്ന	12733
മരണപ്പെട്ടത്	12734
ഉന്നയിച്ച്	12735
തരത്തിലാണ്	12736
തരത്തിലും	12737
##മാരാണ്	12738
മലയാളികളുടെ	12739
സൈക്കി	12740
നേടിയിരുന്നു	12741
ശിവകുമാര്‍	12742
സർക്കാരിനെതിരെ	12743
ആഗ്രഹിക്കുന്നത്	12744
ചെന്നിത്തലയും	12745
വേദിയില്‍	12746
നിര്‍മ്മാത	12747
ടോം	12748
നൂറു	12749
സ്‌കൂളിലെ	12750
സജ്ജമ	12751
ടാങ്ക	12752
അപമാനിക്കുന്ന	12753
ചാമ്പ	12754
എയർപോ	12755
വേണുഗോപാൽ	12756
സര്‍വ്വീസ്	12757
ആര്‍എസ്എ	12758
കാരണമാകും	12759
വേഷം	12760
ഫോറന്‍സിക്	12761
മണിക്കൂറിനുള്ളിൽ	12762
തെക്കൻ	12763
കുംഭം	12764
ലോക്ഡൗണ്‍	12765
ഒന്‍പ	12766
ബോളിവുഡ്	12767
##ഫോഴ്‌സ്‌മെന്റ്	12768
വിപ്ലവ	12769
വട്ടിയൂ	12770
അടു	12771
ഐഡി	12772
ഒബിസി	12773
ഓർക്ക	12774
ഖാര്‍	12775
ജര്‍മ	12776
ധാർ	12777
നിന്റെ	12778
പര്‍	12779
ഫെയ്	12780
മർ	12781
റായി	12782
സജ്	12783
ാവും	12784
##ഗുല	12785
##ജറി	12786
##ർട്	12787
##േദ്	12788
##ര്‍ല	12789
##തിന്‍	12790
##ങ്ങാ	12791
പ്രാർത്ഥ	12792
##ിനിവേശ	12793
ക്കാവുന്ന	12794
##ല്ലാത്ത	12795
##ദേവ	12796
##ന്ദന	12797
ബിസിസി	12798
##ന്തു	12799
സുബൈ	12800
ആവര്‍ത്തി	12801
കാട്ടി	12802
കേന്ദ്രത്തിലെ	12803
അധിനിവേശ	12804
പിന്നോ	12805
വന്നിരിക്കുകയാണ്	12806
വൈവിധ	12807
വരണം	12808
അതിനിട	12809
രംഗം	12810
ചിത്രത്തിലെ	12811
റോയ	12812
നീക്കങ്ങൾ	12813
ട്ടായിരുന്നു	12814
മുണ്ടായത്	12815
കുറ്റവാള	12816
ആരംഭിച്ചിരുന്നു	12817
സിനിമകള്‍	12818
യിലെത്തി	12819
അനുവദിക്കും	12820
പോലീസിൽ	12821
അമേരിക്കയിലെ	12822
ക്കുന്നുണ്ട്	12823
ഭാര്യയെ	12824
സഖ്യത്തില്‍	12825
വിരുദ്ധമായ	12826
ചോദ്യങ്ങൾ	12827
പിന്‍വലി	12828
ലഭ്യമാക്കുന്ന	12829
ഹിറ്റ്	12830
ഷിബു	12831
ഇദ്ദേഹത്തെ	12832
മരവി	12833
കാത്തിരിക്കുന്ന	12834
വിമാനത്താവളത്തിൽ	12835
ആന്റണ	12836
ആശയക്കുഴ	12837
രംഗത്തുണ്ട്	12838
താൽപ്പ	12839
ആദിത്യനാഥ	12840
പുനഃസംഘടന	12841
ഹാജരാകണം	12842
പ്രചരിപ്പിക്കുന്ന	12843
മലബാര്‍	12844
ജന്മദിന	12845
ബൗള	12846
അടുക്കള	12847
ശല്യം	12848
പ്രസ്തുത	12849
ബിസിസിഐ	12850
%)	12851
02	12852
ആച	12853
ക്യു	12854
തഹ	12855
ദരി	12856
നുമ	12857
നകം	12858
മകര	12859
മായിരുന്ന	12860
മക്കൾ	12861
യില്ലെന്ന്	12862
യടക്കം	12863
ുമെന്നും	12864
##ഗര്‍	12865
##റൈ	12866
##ൌൺ	12867
വിവി	12868
വിനു	12869
ക്കരുതെന്ന്	12870
കൂറ്റ	12871
പരിഭ	12872
പരിഷ്	12873
##ർക്കെതിരെ	12874
വൈദ	12875
ഇവരിൽ	12876
മെഷ	12877
##സ്‌റ്റ	12878
സർക്കാരും	12879
ചിലരുടെ	12880
അംഗമായ	12881
പിടിക്കാൻ	12882
അനുയോ	12883
ഹൈവേ	12884
പൂട്ട	12885
പൂട്ടിയ	12886
11ന്	12887
മുമ്പും	12888
വര്‍ഷങ്ങള്‍ക്ക്	12889
മാരില്‍	12890
സംഘടനകൾ	12891
അടിസ്ഥാനമാക്കിയ	12892
കരസ്ഥ	12893
ക്കാനാവില്ല	12894
വ്യക്തികള്‍	12895
സൂചനയുണ്ട്	12896
വിവാദത്തില്‍	12897
കൊടുക്കാന്‍	12898
നടപടിയും	12899
പ്പെടുത്തിയ	12900
തെരഞ്ഞെടുപ്പിന്	12901
വിദ്യാർത്ഥികളെ	12902
ബഹ്‌	12903
സഭയുടെ	12904
വില്‍ക്കുന്ന	12905
നിര്‍ത്താന്‍	12906
പങ്കെടുത്ത്	12907
ഞായറാ	12908
സ്വന്തമാക്കിയത്	12909
വടക്കൻ	12910
പാർട്ടിയിലെ	12911
ഒളിച്ച	12912
മാനദണ്ഡങ്ങൾ	12913
മേല്‍നോട്ട	12914
കാഞ്ഞങ്ങാട്	12915
കൈമാറിയത്	12916
ഇന്ധനവില	12917
ലക്ഷണങ്ങള്‍	12918
വെബ്‌സൈറ്റ്	12919
സംസ്കാര	12920
ദിവസത്തിനുള്ളില്‍	12921
ടെലിവി	12922
ജനപ്രിയ	12923
അയോഗ്യ	12924
ദരിദ്ര	12925
ആഷി	12926
ഐഎസ്	12927
ഓസ്ട്ര	12928
ഓർമ	12929
ഘടകം	12930
ചാവ	12931
ണമെന്നും	12932
ത്യ	12933
തണു	12934
പെയ്യ	12935
ഭാരം	12936
മഞ്ചേരി	12937
ാര	12938
േഴ്സ്	12939
##തെന്ന	12940
##ോണം	12941
##ോഡ്	12942
##റങ്ങിയ	12943
##വൂർ	12944
##ക്കമുള്ള	12945
##വിദ്യ	12946
കുല	12947
കുത്തിയ	12948
സ്വീകരിച്ച്	12949
അവനെ	12950
തുടരാന്‍	12951
വെങ്ങ	12952
വേർ	12953
ജനവാസ	12954
സംഘാടക	12955
ഉപരി	12956
##ുണ്ടെന്ന	12957
മെസ	12958
മനഃ	12959
പ്രധാനമാണ്	12960
വിജയകരമായി	12961
വേണ്ടത്ര	12962
##ബിൾ	12963
വോട്ടിന്	12964
അനുസ്മ	12965
ഇല്ലെങ്കില്‍	12966
വിശ്രമ	12967
പിന്തുണയ്	12968
പോയാല്‍	12969
മുണ്ടാവും	12970
പരാതിക്കാരി	12971
പ്രദേശില്‍	12972
ഓഫീസിന്	12973
താരങ്ങളുടെ	12974
പരാജയപ്പെടുത്തിയ	12975
അഭിപ്രായപ്പെടുന്നു	12976
വിമർശിച്ചു	12977
പ്രോജക്ട്	12978
എക്‌സ്‌	12979
ബഹളം	12980
370	12981
സാക്ഷികളെ	12982
നടപ്പിലാ	12983
##ന്‍ഡര്‍	12984
2016ല്‍	12985
ടൈറ്റ	12986
അടച്ചിട്ട	12987
ഭൂമിയുടെ	12988
മല്‍സരിച്ച	12989
അപ്പീല്‍	12990
ഗൗതം	12991
ഓൺലൈന	12992
റൂമില്‍	12993
പ്രതീക	12994
ദീര്‍ഘകാല	12995
പോസിറ്റീവായ	12996
ലക്ഷ്യത്തോടെയാണ്	12997
ശ്രീധരന്‍	12998
കോര്‍പറേഷന്‍	12999
ഫീല്‍ഡ്	13000
വാഷിംഗ്ടണ്‍	13001
ബ്രാഹ്മണ	13002
അപ്	13003
ആര്‍ക്ക	13004
ആറിന്	13005
ഉക്ര	13006
ഊര്‍	13007
ദാ	13008
പന്	13009
പദം	13010
ഫ്ള	13011
രില്‍	13012
സില	13013
െടുക്കുന്ന	13014
##ടാതെ	13015
##ുര	13016
##റഫ്	13017
##ദിവസം	13018
##ട്ടിക്കി	13019
##ിക്കരുത്	13020
വിടി	13021
##ക്ഷണ	13022
പുലി	13023
സാമു	13024
ബിഡി	13025
തുടരുന്നത്	13026
##ദ്ധ്യ	13027
പോലി	13028
എംപ്ല	13029
ങ്ങളായിരുന്നു	13030
കഴിഞ്ഞദിവസം	13031
ിട്ടുമുണ്ട്	13032
##സമൂഹ	13033
തെരഞ്ഞ	13034
വന്നവരാണ്	13035
##ാറിലെ	13036
ഗ്രി	13037
കഴുക	13038
പരിശോധിച്ചു	13039
രണ്ടിട	13040
ബിജെപിക്ക	13041
മഹാരാ	13042
125	13043
തുറക്കുന്ന	13044
ഒഴിവാക്കാന്‍	13045
##നുസ	13046
വൈറസിനെ	13047
ഉൾപ്പെടുത്തി	13048
##ത്തിലായ	13049
പൊതുസമൂഹ	13050
മൂന്നര	13051
##തീവ്ര	13052
ിട്ടുണ്ടെങ്കിലും	13053
യിലുണ്ടായ	13054
സ്പ്ര	13055
ആണെന്നാണ്	13056
ഉണ്ടാകില്ല	13057
താമസിക്കുന്നത്	13058
നേടും	13059
സഹോദരൻ	13060
എക്‌സ്	13061
മത്സരിക്കാൻ	13062
യുമെല്ലാം	13063
ചെയ്‌തു	13064
സജ്ജമാക്കിയ	13065
ഉദ്ദേശിച്ച	13066
##ക്രോൺ	13067
രക്ഷാപ്രവർത്ത	13068
വിമർശനവുമായി	13069
വല്ലാതെ	13070
പെട്രോളിന്	13071
പെട്രോളിയം	13072
പെരിങ്ങ	13073
കിടിലം	13074
ബലാത്സംഗ	13075
ലളിത	13076
ലഡാക്ക	13077
കൂടിക്കാഴ്ച്ച	13078
ശരണ്യ	13079
ഈജിപ്	13080
ഇന്ദ്ര	13081
എങ്ങനെയ	13082
ഒമാന്‍	13083
തിലെ	13084
നാല്‍	13085
ഭീക	13086
ശൃ	13087
ശൂ	13088
സിയുടെ	13089
ഹജ്ജ്	13090
##യവ	13091
##ിത്	13092
##ുദ്ധ	13093
##ീശ്വര	13094
##ഫെ	13095
ക്കാരി	13096
##ാന്‍സ	13097
പുരി	13098
വ്യതിയ	13099
ങ്ങളായി	13100
സെല	13101
കാത്ത്	13102
കേസെടുത്ത്	13103
സ്ഥാനത്തെ	13104
ഉയർന്ന്	13105
ആവശ്യങ്ങൾ	13106
കടകള്‍	13107
പോകാനുള്ള	13108
പാലിക്കേണ്ട	13109
സൗമ	13110
വയസിന്	13111
ഗുപ്ത	13112
##വര്‍ഗ	13113
നേരിട്ടു	13114
വിഭാഗത്തിലെ	13115
നാലിന്	13116
സ്ഥിരീകരിച്ചവരില്‍	13117
മണ്ഡലമായ	13118
ഇറാനി	13119
ഉപയോഗിക്കാന്‍	13120
കൂടും	13121
യായിരുന്നുവെന്നും	13122
വിമാനങ്ങള്‍	13123
അവസാനിക്കുന്ന	13124
പ്രതിഷേധത്തിന്	13125
##ജീവന	13126
രാശിയിൽ	13127
കള്‍ക്കും	13128
ലൈറ്റ്	13129
നേരിടാൻ	13130
തൊഴിലാളികള്‍ക്ക്	13131
സമൂഹത്തിൽ	13132
പുതുപ്പള്ള	13133
ഉന്നയിച്ചു	13134
അഭിപ്രായപ്പെട്ടത്	13135
ഗ്രൂപ്പുകള്‍	13136
പതിനാല	13137
വിദ്യാർത്ഥികളുടെ	13138
2019ല്‍	13139
ണ്ണ	13140
ഭൂമിയില്‍	13141
ക്കാമെന്നും	13142
പദവിയില്‍	13143
ജോലികള്‍	13144
കരുതിയത്	13145
ശ്രദ്ധേയമായ	13146
അങ്കണ	13147
ഉമ്മൻചാണ്ടി	13148
ഉദ്യോഗാര്‍ത്ഥികള്‍ക്ക്	13149
ധൈര്യം	13150
പൗരന്‍	13151
ചുഴലിക്കാറ്റ	13152
ൊന്നുമില്ല	13153
ഗെഹ്ലോട്ട്	13154
യൂസഫലി	13155
##മോഹന്‍	13156
കുതിച്ചുയ	13157
കുന്നത്	13158
പദ്മ	13159
റേഷൻ	13160
റസിഡ	13161
ലിൽ	13162
സണ്ണി	13163
##കും	13164
##ഷനില്‍	13165
##ൊരിക്ക	13166
##ത്മാ	13167
വിക്ഷേപ	13168
കോതമ	13169
##ുകളി	13170
##ാതെയാണ്	13171
സംസ്ഥാനങ്ങളും	13172
നല്‍കേണ്ടി	13173
ഉണ്ടെങ്കിൽ	13174
അറിയിക്കുകയായിരുന്നു	13175
ഡിസ	13176
മുന്നൊരു	13177
മുന്നേറ	13178
കേസിലാണ്	13179
പാര്‍ക്ക്	13180
മന്ത്രിമാരായ	13181
ില്ലായിരുന്നു	13182
കൈകോ	13183
ട്രൂ	13184
യെക്കുറിച്ച	13185
സൗര	13186
വോട്ടാണ്	13187
നിലവാരം	13188
തുടങ്ങിയവർ	13189
പിന്നാലെയായിരുന്നു	13190
##ത്തിനൊപ്പം	13191
തയ്യാറായിരുന്നില്ല	13192
പ്രതീക്ഷിക്കാം	13193
പദ്ധതികളുടെ	13194
മുമ്പില്‍	13195
മരണസംഖ്യ	13196
ഒഴിവാക്കണം	13197
ശ്രദ്ധിച്ച	13198
ശ്രദ്ധിക്കുക	13199
എന്നിട്ട്	13200
വികസിപ്പ	13201
ചുമത്തി	13202
നടപ്പാക്കുന്നത്	13203
മണിക്കൂറും	13204
വാർഡ്	13205
വർഷങ്ങളായി	13206
വാര്‍ത്താസമ്മേള	13207
ിനായി	13208
പുനര്‍	13209
തോമസിന്റെ	13210
ഫിഷറ	13211
അന്തർ	13212
ചടങ്ങുകള്‍	13213
പ്രായപൂര്‍	13214
ഉച്ചയോടെ	13215
ഗോപിയുടെ	13216
മമതയുടെ	13217
ഗുണഭോക്ത	13218
എയര്‍പോ	13219
യൂണിറ്റ	13220
മുന്നണിയില്‍	13221
കപ്പല്‍	13222
ുകയും	13223
കാരണമാക	13224
ഞ്ഞു	13225
ഡോക്ടർമാർ	13226
മട്ടാഞ്ചേരി	13227
ലൈസൻസ്	13228
മുന്‍കരു	13229
യഥാര്‍ത്ഥത്തില്‍	13230
പുറത്തുവരുന്നത്	13231
ആവേശം	13232
ചാര്‍ജ്	13233
തയ്യാറെടുപ്പ	13234
ജനപ്രതിനിധി	13235
ചെറുകിട	13236
ഒത്തുതീ	13237
സ്‌കോര്‍	13238
ധൈര്യ	13239
സ്രോത	13240
ഐസിഎം	13241
റഹീം	13242
യഥാക്രമം	13243
രാവിലെയാണ്	13244
ശിവന്‍കുട്ടി	13245
സാനിറ്റ	13246
ദാമ്പത്യ	13247
അഷ്	13248
അസാ	13249
ആശ്വ	13250
ഐഎം	13251
ദാരി	13252
മഠ	13253
യേക്കാള്‍	13254
റുകള്‍	13255
സായുധ	13256
##ാദ്യ	13257
##ദായിക	13258
##ീറ	13259
##ഭ്	13260
##ത്‌ന	13261
##ക്കർ	13262
##ക്കിന്	13263
##ട്ടറി	13264
##ാനുണ്ട്	13265
##ിനെയും	13266
##ാര്‍ട്ട	13267
പോര്	13268
##ുവെന്നാണ്	13269
തുടർന്നു	13270
ജോഡോ	13271
അറിയാൻ	13272
മൂടി	13273
നിയമപരമായ	13274
കാണാതെ	13275
##ഷ്യസ്	13276
നടത്തിയിട്ടുണ്ട്	13277
ചേരാന്‍	13278
പരിശോധിക്കാം	13279
വിജയന്	13280
ിക്കപ്പെട്ട	13281
ആരോഗ്യനില	13282
സ്ഥിരീകരിച്ചതായി	13283
ഇല്ലായിരുന്നു	13284
പാമ്പ്	13285
പിന്തുണയോടെ	13286
പിന്തുണയുമായി	13287
വരുമെന്ന	13288
തയ്യാറാണെന്ന്	13289
##സിനോട്	13290
ഇതുവഴി	13291
ഒഴിവാക്കുന്ന	13292
ശ്രീറാം	13293
##വിടുന്ന	13294
തൊഴിലുറ	13295
ആശുപത്രികളിൽ	13296
ണ്ടി	13297
കൂടിയായിരുന്നു	13298
മന്ത്രിയുമായ	13299
സ്വീകരിക്കുമെന്നും	13300
ാണെന്നാണ്	13301
മത്സരങ്ങള്‍	13302
2004	13303
2008	13304
പ്രവര്‍ത്തകര്‍ക്കാണ്	13305
പ്രവർത്തകരും	13306
പ്രഖ്യാപിച്ചിരിക്കുകയാണ്	13307
ക്കെതിരെയും	13308
ഇഷ്ടപ്പെടുന്ന	13309
വൈദ്യുത	13310
ങ്ങളുടെയും	13311
എന്നിവര്‍ക്ക്	13312
കാണുന്നുണ്ട്	13313
സ്‌കൂളുകള്‍	13314
സെക്രട്ടറിയും	13315
വായിച്ച	13316
മല്‍സര	13317
സൗകര്യമ	13318
##ക്കൂലി	13319
അടിച്ചമ	13320
കച്ചവടക്ക	13321
മുൻപിൽ	13322
സ്‌പോട്ട	13323
അഡീഷണല്‍	13324
വിയോജ	13325
പാലാരിവട്ടം	13326
900	13327
അർത്ഥ	13328
ആസ്വ	13329
ആക്ട്	13330
ഗായക	13331
നാണെന്നും	13332
ബിനു	13333
യോടൊപ്പം	13334
റിലെ	13335
െടു	13336
ോട	13337
##ിരി	13338
##നിന്ന്	13339
##മാലി	13340
##ഫോമ	13341
##ിന്ദ	13342
വിഡിയോ	13343
നിഴ	13344
കോപ്പി	13345
ക്കട	13346
കൊമേ	13347
അവധ	13348
##റിയില്‍	13349
പ്രതിക്ക്	13350
ത്തുക	13351
സുസ്ഥിര	13352
നിന്നെ	13353
കേന്ദ്രഭരണ	13354
പ്പറ്റി	13355
പ്പാറ	13356
മേല്‍ക്ക	13357
നിയമലംഘ	13358
രൂപീകരണ	13359
##ലിയെ	13360
പെട്ടി	13361
നടത്തേണ്ട	13362
അത്‌	13363
ട്രി	13364
രണ്ടിന്	13365
##േറ്റില്‍	13366
മറന്ന	13367
നോക്കുന്ന	13368
വിഭാഗങ്ങള്‍	13369
യാത്രകള്‍	13370
സ്ഥാപക	13371
വിശകല	13372
പ്രതിഷേധിച്ച	13373
മുമ്പുള്ള	13374
മുൻഗണന	13375
##നുഭവ	13376
ലഭിച്ചാല്‍	13377
കിട്ടാത്ത	13378
ഉൾപ്പടെ	13379
എഫ്‌ഐ	13380
ശിവൻ	13381
ശിവരാജ്	13382
വ്യക്തിത്വ	13383
സ്വീകരിക്കുക	13384
സ്വീകരിക്കാൻ	13385
ഭാര്യയുടെ	13386
ലഭിക്കുമെന്ന്	13387
ഉന്നയിച്ചിരുന്നു	13388
സാധ്യതയില്ല	13389
ഹര്‍ദിക്	13390
കമ്പനികൾ	13391
കിട്ടിയില്ല	13392
പ്രായമായ	13393
പ്രായോഗിക	13394
##ത്തേത്	13395
ജനാധിപത്യം	13396
ചരിത്രത്തിൽ	13397
കാഴ്ചവെ	13398
അതിനിടെയാണ്	13399
തുടക്കമ	13400
സ്വന്തമാക്ക	13401
കാര്യമല്ല	13402
കാലയളവ്	13403
സമിതിയ	13404
എതിര്‍പ്പ്	13405
എട്ടിന്	13406
മണിക്കുട്ടൻ	13407
മധ്യപ്രദേശിലെ	13408
കമ്മ്യൂണിറ്റി	13409
ആസ്ഥാനത്ത്	13410
അങ്കമാലി	13411
ഡിംപല്‍	13412
രൂപയുമാണ്	13413
സ്‌ഫോടന	13414
തീപിടുത്ത	13415
പ്രമോഷ	13416
വിന്യസ	13417
മാതാവ്	13418
കൊടിക്കുന്ന	13419
സ്ത്രീയെ	13420
സിസ്റ്റം	13421
റിസര്‍വ്	13422
ദുർബല	13423
ഇന്റലിജ	13424
രജിസ്‌ട്രേഷന്‍	13425
ഡെമോക്രാറ്റിക്	13426
വന്നുചേരും	13427
ഫിഷറീസ്	13428
തൻ്റെ	13429
പായി	13430
ലൊക്ക	13431
ഷംസ	13432
##യുമായ	13433
##ോമാ	13434
##റുകളും	13435
##കരണം	13436
##േൽ	13437
##ഹൈ	13438
##ട്ടിക	13439
##ിക്കാവുന്ന	13440
##റ്റുപേ	13441
##ാക്കാനാണ്	13442
പോൾ	13443
പരിഗണിച്ച്	13444
ചെയ്യാനാണ്	13445
നടത്തിവ	13446
മെഗാ	13447
##ക്‌സോ	13448
ചെയ്തതെന്ന്	13449
അതിതീവ്ര	13450
##ഡിഎം	13451
രണ്ടോ	13452
നേതൃത്വവും	13453
അംഗങ്ങളും	13454
അംഗങ്ങളെ	13455
ആരോപിച്ച	13456
തലപ്പ	13457
പ്രഖ്യാപിക്കും	13458
ചിത്രത്തിന്	13459
ആര്‍മി	13460
എല്‍ജെപി	13461
കോൺഗ്രസ്സ്	13462
ഇരുന്ന്	13463
ശ്രീജിത്ത്	13464
വര്‍ഷത്തിനിടെ	13465
താരങ്ങളെ	13466
ആശുപത്രികള	13467
മന്ത്രിയെ	13468
ജീവിതത്തിലേക്ക്	13469
മുഖ്യമന്ത്രിയ	13470
വര്‍ധിച്ചു	13471
ഉണ്ടായിട്ട	13472
ഉയര്‍ന്നത്	13473
കൂട്ടിച്ചേർക്കുന്നു	13474
ലേക്കും	13475
ദേവിക	13476
##യാസം	13477
ഇസ്രയേ	13478
അക്രമികള്‍	13479
വൃശ്ചിക	13480
##ശ്രദ്ധ	13481
ക്കുള്ളില്‍	13482
പ്പെടുത്താന്‍	13483
##േഷനിൽ	13484
വില്‍പന	13485
സൗകര്യങ്ങളും	13486
ഗൂഡ	13487
ഇതിനിടെയാണ്	13488
ഖത്തറില്‍	13489
കവര്‍ച്ച	13490
ഭക്ഷണവും	13491
എഫിന്റെ	13492
ശരീരത്തില്‍	13493
ഉപേക്ഷിച്ച്	13494
താല്‍പര്യമില്ല	13495
വ്യാപനത്തിന്റെ	13496
വിദ്യാര്‍ഥികള്‍	13497
സലാം	13498
മട്ടന്നൂര്‍	13499
##ഹ്‌റ	13500
ടെക്‌നോളജി	13501
ഡല്‍ഹിയിലെ	13502
മധുര	13503
രാജേന്ദ്രന്‍	13504
ഒറ്റപ്പെട്ടയിട	13505
വെടിയുതി	13506
ടീച്ചര്‍	13507
ത്തുടര്‍ന്ന്	13508
വിജ്ഞാപനം	13509
സപ്ലൈ	13510
##ിക്കിടക്കുന്ന	13511
വേതനം	13512
മത്സ്യബന്ധനത്തിന്	13513
തീർച്ചയായും	13514
ശിഹാബ്	13515
നിറവേറ്റ	13516
ഈരാറ്റുപേ	13517
ഈരാറ്റുപേട്ട	13518
ആമ	13519
എബ്രഹ	13520
ഐഎ	13521
ജർമ്മ	13522
ലേക്കാണ്	13523
വാൻ	13524
ഷൂട്ട്	13525
സരിത	13526
ിനു	13527
##ിത്ര	13528
##തേ	13529
##ാഡി	13530
##ബാദ്	13531
##ti	13532
പ്രതിയാണ്	13533
##ുമെത്തി	13534
ക്കണമ	13535
കുര	13536
##ങ്കാര	13537
അവന്	13538
അവളെ	13539
തുള	13540
തുണ്ടെന്നും	13541
##ുകളാണുള്ളത്	13542
രാജകുമ	13543
വേലി	13544
നല്‍കണമെന്നും	13545
തീര്‍ത്ഥ	13546
കഴിഞ്ഞിട്ടും	13547
കാൽ	13548
കണ്ടെടുത്ത	13549
ഏറ്റു	13550
തിരുത്തി	13551
പേരിലുള്ള	13552
തിനൊപ്പം	13553
സ്റ്റാൻ	13554
തലത്തിലും	13555
കൂട്ടുക	13556
ുണ്ടാവും	13557
പ്രത്യയ	13558
പുറത്താ	13559
അതിനോട്	13560
മരിച്ചിരുന്നു	13561
അപേക്ഷാ	13562
ശ്രീലേഖ	13563
വര്‍ഷത്തിന്	13564
ല്ലെ	13565
താരമാണ്	13566
കമ്മിഷന്‍	13567
പാര്‍ട്ടിക്ക	13568
എൻഐഎ	13569
ബാലഗോപ	13570
തെരഞ്ഞെടുക്ക	13571
ഫേസ്ബുക്ക	13572
ദിനത്തിൽ	13573
ചെയ്യാതെ	13574
റ്റിന്റെ	13575
ശക്തിപ്പെടുത്ത	13576
കനയ്യ	13577
2001	13578
സാധാരണക്കാര	13579
##ഷ്‌ട്ര	13580
പോകുന്നില്ല	13581
നിക്ഷേപക	13582
ിരിക്കുന്നതെന്നും	13583
##മില്ലാത്ത	13584
##നിധ്യം	13585
കുട്ടിക്ക്	13586
ങ്ങളെക്കുറിച്ച്	13587
സുരക്ഷിതമായ	13588
കയ്യിൽ	13589
ഇളയ	13590
വടക്കന്‍	13591
ഗ്വാള	13592
2017ല്‍	13593
പ്രവൃത്തിപരിച	13594
ഒരുക്കിയിട്ടുണ്ട്	13595
തികഞ്ഞ	13596
ഉണ്ണിത്ത	13597
സൈന്യത്തെ	13598
ശങ്കര്‍	13599
##ൽക്കത്ത	13600
സംസാര	13601
##താംക	13602
പാമ്പിനെ	13603
അസ്വസ്ഥ	13604
പുറത്തുവിട്ടത്	13605
പോപ്പുലര്‍	13606
മേഖലകളിലെ	13607
ജിഹാദ്	13608
സ്വീകാര്യത	13609
കായംകുളം	13610
പ്ലാസ്റ്റിക്	13611
പ്രാതിനിധ്യം	13612
ബഷീര്‍	13613
യ്‌ക്കൊപ്പം	13614
കുറ്റ്യാടി	13615
പട്ടാമ്പി	13616
ആംആദ്മി	13617
അരിക്ക	13618
അന്ത്യം	13619
എയി	13620
ഒഴിഞ്ഞ	13621
ഖാദ	13622
ദര്‍ശ	13623
ധർമ്മ	13624
ഭാവന	13625
മരിക്കുന്ന	13626
വയാണ്	13627
വല്‍ക്ക	13628
ഷമ	13629
##താപ	13630
##പട്ട	13631
##റസ്	13632
##ചിത	13633
##ക്രം	13634
##ര്‍ട്ടം	13635
##പ്പളളി	13636
സ്തം	13637
മാവേലിക്കര	13638
സംര	13639
##േഷിനെ	13640
സിഖ്	13641
സമവാ	13642
വീഴ്ച്ച	13643
ങ്ങളുടേയും	13644
സെഷന്‍	13645
##മിറ്റ്	13646
ന്ദ്ര	13647
##മുറി	13648
ആശി	13649
നൽകുന്നു	13650
ചേര്‍	13651
പരോ	13652
കടല്‍	13653
കടലില്‍	13654
മേഖലയ്ക്ക്	13655
വിഭാഗവും	13656
യുവാക്കൾ	13657
ഒഴികെ	13658
മണ്ഡലങ്ങള്‍	13659
ഫോം	13660
പ്രതിപക്ഷത്തെ	13661
തയ്യാറാക്കുന്ന	13662
മുണ്ടോ	13663
നഗരം	13664
താരത്തെ	13665
താരത്തിന്	13666
കമ്മിഷണ	13667
ലൈവ്	13668
നടപടികള	13669
പ്പെട്ടു	13670
യുണ്ടാ	13671
യുണ്ടാകും	13672
ഹൈക്കോടതിയിൽ	13673
ഘട്ടത്തിലാണ്	13674
##ക്കളും	13675
സ്ഥാനാർത്ഥിയായി	13676
നല്‍കുന്നുണ്ട്	13677
പിടിച്ചെടുക്ക	13678
വേദിയിൽ	13679
രമേശ	13680
ഫാക്ടറി	13681
അംഗീകരിക്കാന്‍	13682
സ്വന്തമാക്കി	13683
പിറക	13684
പ്രേക്ഷകര്‍	13685
എന്‍സിപ	13686
പ്രകടിപ്പിച്ചു	13687
ഇറങ്ങിയത്	13688
ദീപക്	13689
സലീം	13690
പരസ്പര	13691
പൂർണ്ണമായും	13692
പുത്തൻ	13693
തെളിഞ്ഞു	13694
മാലിന്യം	13695
എതിരാളി	13696
നിഷ്പ	13697
സ്രവ	13698
രോഗബാധിതരുടെ	13699
ഒളിവില്‍	13700
റിലയന്‍സ്	13701
പ്രശംസ	13702
ഇൻസ്റ്റിറ്റ്യൂട്ട്	13703
പരുക്കേറ്റ	13704
വെള്ളാപ്പള്ളി	13705
ഭീകരാ	13706
പ്രായപൂര്‍ത്തിയ	13707
':	13708
ഗോൾ	13709
ടൗണ	13710
ഡില	13711
താക	13712
പടിയ	13713
മസ്‌ക	13714
റഷീ	13715
വസു	13716
##ംകുളം	13717
##ബെ	13718
##ബറിൽ	13719
##ിലിൽ	13720
##്രുവ	13721
##പ്പട	13722
വിള്ള	13723
##ിനേയും	13724
കോഴി	13725
##രിക്കെതിരെ	13726
പിഎസ്	13727
##ിവയ്	13728
##മ്പോ	13729
കളം	13730
കളിലേക്കും	13731
ങ്കി	13732
പോലൊരു	13733
ചെയ്യപ്പെടുന്ന	13734
സെറ്റ്	13735
സംഘർഷം	13736
കണ്ടാണ്	13737
ലോക്കല്‍	13738
##ുണ്ടായത്	13739
നടത്താനുള്ള	13740
നടത്താനാണ്	13741
##മേല്‍	13742
ചെയ്താലും	13743
ട്രേ	13744
പാലിക്കണമെന്നും	13745
പദ്ധതിയാണ്	13746
വിഷു	13747
ആദര	13748
##താക്	13749
കൂടുന്ന	13750
അപേക്ഷകൾ	13751
വീടിന	13752
എല്ലാവരുടെയും	13753
വീഡിയോയിൽ	13754
ബാലറ്റ്	13755
വകുപ്പിലെ	13756
വിലയിരുത്തിയ	13757
ആലപ്പുഴയില്‍	13758
എണ്ണവില	13759
അഞ്ചിന്	13760
വിടാന്‍	13761
നിറഞ്ഞു	13762
യുഎഇയിലെ	13763
ചടങ്ങുകൾ	13764
നിര്‍മിച്ച	13765
പോവുകയായിരുന്നു	13766
ക്വാറ	13767
വയസ്സുകാര	13768
2019ലെ	13769
നിരോധിച്ച	13770
സെക്രട്ടറിയുടെ	13771
എംഎൽഎമാർ	13772
തായുള്ള	13773
##േരിയില്‍	13774
വിദഗ്ധർ	13775
മിനിമം	13776
സഹകരിക്ക	13777
പിന്‍വലിച്ച	13778
പൊളിച്ചു	13779
വിദ്യാര്‍ഥി	13780
ബഹിഷ്‌ക	13781
വസതി	13782
സിൽവർ	13783
ചെയര്‍പേ	13784
തിനിടെയാണ്	13785
വലിച്ചിഴ	13786
പ്രോത്സാഹിപ്പിക്കുന്ന	13787
മാധവ	13788
കൂറുമാറിയ	13789
ഫിലിപ്പ	13790
ഉത്തര്‍പ്രദേശില്‍	13791
മത്സരാര്‍ത്ഥി	13792
ുമൊക്കെ	13793
ദൂരം	13794
കുണ്ടറ	13795
സംപ്രേഷ	13796
##വ്യാധി	13797
കൊയിലാണ്ടി	13798
ജമാഅ	13799
ജോയിന്റ്	13800
മഹാസഖ്യ	13801
എസ	13802
കരഞ്ഞ	13803
ഖാന്റെ	13804
താരി	13805
ധ്യ	13806
ഫൗണ്ട	13807
ഫോളോ	13808
ബേക്ക	13809
ൂര	13810
േനെ	13811
##യാന	13812
##നട	13813
##നെയും	13814
##സൽ	13815
##സബ	13816
##േന്ദ	13817
##ഹിക	13818
വിപര	13819
വിഹിത	13820
ക്കാർക്ക്	13821
പോഷക	13822
കൊടിയ	13823
##ങ്കു	13824
##വാത	13825
ങ്ങല്‍	13826
##ുമായിരുന്ന	13827
നിയമത്തിന്റെ	13828
കേസും	13829
##ിപ്പോള്‍	13830
ശേഷിയുള്ള	13831
ഭാഗങ്ങളിൽ	13832
സ്റ്റൈ	13833
ിക്കുമെന്ന്	13834
ആയാലും	13835
കുടുംബാരോഗ്യ	13836
സ്ഥിരീകരിച്ചിരിക്കുന്നത്	13837
115	13838
ഓഫീസിലെ	13839
വിഷയങ്ങൾ	13840
നഷ്ടമാക	13841
വിശദീകരിച്ച	13842
മൂന്നിന്	13843
സ്വീകരിക്കുമെന്ന്	13844
മണിക്കൂറുകൾ	13845
യുഎന്‍	13846
ത്തിലധികം	13847
ഹൈക്കോടതിയുടെ	13848
എതിർപ്പ	13849
എണ്ണത്തിൽ	13850
##മുണ്ടായത്	13851
അന്തര്‍	13852
ഇൻഷുറ	13853
ലേറെ	13854
ദിഗ്	13855
സതീഷ്	13856
ചാനൽ	13857
ഇടതുപക്ഷത്തിന്	13858
നിര്‍ദ്ദേശങ്ങള്‍	13859
ഉടമകള്‍	13860
വധശ്ര	13861
കൂടുതലുള്ള	13862
സിംഗിനെ	13863
വ്യക്തിയെ	13864
യുക്രൈൻ	13865
റിലീസ	13866
ഇല്ലാതാ	13867
പരിചയമുള്ള	13868
മന്ത്രിസഭയിൽ	13869
ക്വാറന്റൈന്‍	13870
ഷെഡ്യൂ	13871
മാര്‍ഗം	13872
തലസ്ഥാനമായ	13873
വിവേക	13874
രാജിവെക്ക	13875
കശ്മീരില്‍	13876
ഉത്തരവിറ	13877
ബില്യണ്‍	13878
ഡയറക്ടറേറ്റ്	13879
സുന്ദര	13880
ഹർജിയിൽ	13881
മസ്ജിദ്	13882
പൊതുമേഖലാ	13883
മരുമ	13884
വെല്‍ഫെയര്‍	13885
pr	13886
അപ്പോഴും	13887
ചന്നി	13888
ധാ	13889
നടു	13890
ബൽ	13891
ബയോടെ	13892
ബൗണ്ട	13893
മണ്ട	13894
മഞ്ജ	13895
ഹോമ	13896
ാനും	13897
##ഷ്മ	13898
##ക്കുകള്‍	13899
വിനിയ	13900
ക്കാൾ	13901
മാപ്പു	13902
സംഭരണ	13903
കേട്ടു	13904
കൂലി	13905
##വാളി	13906
കാരണമെന്നാണ്	13907
വേരിയ	13908
അനീതി	13909
നല്‍കുകയായിരുന്നു	13910
എല്ലാത്ത	13911
നടത്താനും	13912
സംഭവിക്കും	13913
കാലി	13914
ഗ്രസ്	13915
മാറ്റാൻ	13916
തിരഞ്ഞെടുപ്പി	13917
##ിടത്തോളം	13918
ഒന്നുമില്ല	13919
വരുമോ	13920
പ്രതിഷേധമാണ്	13921
മരണങ്ങളും	13922
അപേക്ഷകള്‍	13923
എൻജിനീയ	13924
##ടങ്ങുന്ന	13925
നേരിടും	13926
യുഎസ്സ	13927
ത്തിലുണ്ടായ	13928
വഴിയോ	13929
പ്രവര്‍ത്തനങ്ങള്‍ക്ക്	13930
വിമര്‍ശിച്ച്	13931
പുനസ്ഥാപ	13932
ഭാഗമായിട്ടാണ്	13933
നേട്ടമാണ്	13934
ക്കാരായ	13935
അന്തരിച്ച	13936
ഫലമായി	13937
നിലപാടുകള്‍	13938
സംബന്ധിച്ചിടത്തോളം	13939
ആഭ്യന്തരമന്ത്രി	13940
പിന്‍മാ	13941
##ക്കേസില്‍	13942
ഇയാള്‍ക്ക്	13943
നിർമ്മിച്ച	13944
തുറന്നടിച്ചു	13945
പൂർത്തിയായ	13946
തായ്‌	13947
കശ്മീരിലെ	13948
മറ്റുള്ളവരെ	13949
സിന്ധ്യയുടെ	13950
താലിബാൻ	13951
ചികിത്സയിലുളള	13952
വുമുണ്ട്	13953
കര്‍ശനമായി	13954
ഡിവൈഎസ്പി	13955
ഫുട്‌	13956
ഗോവയില്‍	13957
മറുപടിയായി	13958
എഡിജിപി	13959
തിരച്ചിൽ	13960
ജോലിയിൽ	13961
ജോര്‍ജിന്റെ	13962
വെല്ലുവിളിയാണ്	13963
സയൻസ്	13964
രക്തസാക്ഷി	13965
വേഗതയിൽ	13966
മണിക്കൂറിനുള്ളില്‍	13967
ഇന്‍സ്റ്റിറ്റ്യൂട്ട്	13968
വര്‍ഗീസ്	13969
ഏജൻസികൾ	13970
വയനാട്ടിലെ	13971
കിഷോര്‍	13972
സെപ്തംബര്‍	13973
മേനോന്‍	13974
വാട്ടര്‍	13975
ബിഗ്‌ബോസ്	13976
ശനിയുടെ	13977
എല്ലാവരോടും	13978
സൗമ്യ	13979
ഇന്റലിജന്‍സ്	13980
എങ്കിൽ	13981
കുമെന്ന്	13982
പാക്കി	13983
പവര്‍	13984
പിയിൽ	13985
രേഷ	13986
റുടെ	13987
റൂട്ട	13988
##ാഭരണ	13989
##ഖ്യാ	13990
##ൂസ്	13991
##ക്കേസ്	13992
##ക്കോളജി	13993
##ത്തിച്ച	13994
##പ്പൂർ	13995
##ച്ചിൽ	13996
##ാനുമതി	13997
എന്നയാള	13998
ക്കട്ടെ	13999
##വിട്ട്	14000
കുപ്പി	14001
കൊൽക്കത്ത	14002
സാബു	14003
##മ്പു	14004
ത്താൻ	14005
##ോട്ടും	14006
##മുക്ത	14007
##കുറ്റ	14008
ഇടിച്ചു	14009
വ്യക്തമാ	14010
നടത്തണമെന്ന്	14011
മന്ത്രിമാർ	14012
എസ്എഫ്‌ഐ	14013
##പക്ഷീയ	14014
##സ്‌കോ	14015
ഗ്രേഡ്	14016
കഴിക്കുന്ന	14017
കോൺഗ്രസി	14018
കണ്ണട	14019
പ്രവർത്തിക്കാൻ	14020
റോഷി	14021
ശക്തമാ	14022
ശക്തമാക്കി	14023
108	14024
ുണ്ടായി	14025
ഓഫര്‍	14026
കഴിയൂ	14027
കഴിയില്ലെന്നും	14028
ഇറാന്റെ	14029
ഭരണസമിതി	14030
വരുമായി	14031
പ്രദേശങ്ങള്‍	14032
മാനേജി	14033
മരണത്തില്‍	14034
വഴിത്തിരി	14035
ശ്രദ്ധിക്കേണ്ട	14036
മാസമായി	14037
എൻട്രി	14038
യിലു	14039
നടത്തുന്നതിന്	14040
അവകാശപ്പെട്ട	14041
പറയുന്നില്ല	14042
മതപരമായ	14043
കമ്മീഷണർ	14044
ജീവിച്ച	14045
ഡെല്‍	14046
യായിട്ടാണ്	14047
മാറാന്‍	14048
ഫ്രണ്ട	14049
താഴെയാണ്	14050
മനസ്സിലാക്കി	14051
കര്‍ഷകരെ	14052
സമുച്ച	14053
പുരോഗമന	14054
ഭേദമായി	14055
സാധിച്ചിരുന്നില്ല	14056
##ാരുണ	14057
പരാമര്‍ശങ്ങള്‍	14058
പൂർത്തിയാക്കി	14059
വിധേയമാ	14060
പുറത്തുവന്നത്	14061
ചെന്നൈയില്‍	14062
പെണ്‍കുട്ടികള്‍	14063
അവതരിപ്പിച്ചത്	14064
ഉയര്‍ത്തുന്ന	14065
മറികടന്ന	14066
അറ്റകുറ്റ	14067
എഞ്ചിനീയറിംഗ്	14068
അർഹത	14069
കപില്‍	14070
പൊന്നാനി	14071
ഒന്‍പത്	14072
മഞ്ചേശ്വരം	14073
അലേർട്ട്	14074
സത്യവാങ്മൂല	14075
തനിച്ച്	14076
മജിസ്‌ട്രേറ്റ്	14077
ബൊമ്മ	14078
ഉടമസ്ഥതയിലുള്ള	14079
വിഴിഞ്ഞം	14080
മുന്നൊരുക്ക	14081
പരോക്ഷ	14082
ഇം	14083
ഇക്കാല	14084
കഫ	14085
ധരിച്ച്	14086
ഭംഗ	14087
മുള്ളത്	14088
വാവ	14089
ഹണി	14090
ഹരിപ്പ	14091
##യുണ്ടായ	14092
##ളില്‍	14093
##ലിലാണ്	14094
##കമായി	14095
##വാർ	14096
##പ്പൊക്ക	14097
പ്രഹ	14098
സ്റ്റി	14099
നിറം	14100
എന്നല്ല	14101
കൊന്നു	14102
സ്വരാജ്	14103
ഒരുക്കി	14104
##പിള്ള	14105
പ്രതിച്ഛായ	14106
പ്രവീ	14107
ചെയ്യണമെന്ന	14108
##ാമോ	14109
##ാമെന്നാണ്	14110
കോണ്‍ഗ്രസിന്‍റെ	14111
പുറപ്പെട്ട	14112
നിയമപ്രകാരം	14113
തിരഞ്ഞെടുപ്പു	14114
##സ്റ്റു	14115
വന്നതാണ്	14116
മുന്നിലാണ്	14117
ലക്ഷ്മ	14118
കഴിക്ക	14119
വിജയനെ	14120
പോകുമെന്ന്	14121
ശ്രമിച്ചിരുന്നു	14122
ആരോപിച്ചത്	14123
ിക്കാതെ	14124
105	14125
കഴിയുക	14126
മിസോ	14127
പൂന	14128
പോയിന്	14129
മുമ്പേ	14130
പിന്നീടാണ്	14131
ലിങ്ക്	14132
വെള്ളപ്പൊക്ക	14133
സ്ഥാപനത്തിൽ	14134
ന്റെയും	14135
നവജ	14136
മനസ്സിൽ	14137
കൗണ്ട	14138
പുതുക്കിയ	14139
ബ്ലൂ	14140
തെറ്റായി	14141
എടുക്കുന്നത്	14142
ഗ്രൂപ്പിന്	14143
സജീവമാണ്	14144
പ്പെടും	14145
കൃഷ്ണദാസ്	14146
സഭയിൽ	14147
ക്ഷണിച്ച	14148
കൊച്ചിയിൽ	14149
പരിപാടികൾ	14150
പരിക്കേറ്റു	14151
ആരോഗ്യമന്ത്രാലയം	14152
പിൻവലി	14153
തേടുന്ന	14154
സുധാകരനെ	14155
ഹാജരാക്കി	14156
ശ്വാസം	14157
ില്ലെന്നായിരുന്നു	14158
അരുൺ	14159
അസോസിയേഷൻ	14160
ടെക്നോളജി	14161
വില്ലേജ	14162
ഭരണഘടനയുടെ	14163
സർവ്വീസ്	14164
കഴിവ്	14165
പ്രതികരിച്ചിരുന്നു	14166
ഉണ്ണിക	14167
സയന്‍സ്	14168
മടങ്ങിയത്	14169
ആനുകൂല്യം	14170
സ്വാഭാവികമായും	14171
റിക്രൂട്ട	14172
ദിവസത്തിനകം	14173
അന്തരീക്ഷം	14174
രോഗലക്ഷണങ്ങള്‍	14175
##പാഠി	14176
ആകര്‍ഷ	14177
##നിർദ്ദേശ	14178
ബംഗ്ലാദേശ്	14179
ചതുര	14180
സവിശേഷത	14181
അരുണാച	14182
തുര്‍ക്കി	14183
നൂറുകണക്കിന്	14184
എമിറേറ്റ്	14185
ഇലക്ഷ	14186
ഗ്യം	14187
നഴ്സി	14188
ബര്‍	14189
ഭര	14190
മിന	14191
മെയില്‍	14192
യിലേക്ക	14193
ഷേ	14194
െടുത്ത്	14195
##ോത്സവ	14196
##രന്റെ	14197
##വെന്നാണ്	14198
##ണറെ	14199
##tt	14200
##പ്പാണ്	14201
ക്കാട്	14202
ക്കുമാണ്	14203
##ിവറി	14204
##ുവഴി	14205
##മ്പടി	14206
സിക്‌സ	14207
##തിയായി	14208
##ാകുമ	14209
സംസ്ഥാനമാണ്	14210
ഉണ്ടാക്കാൻ	14211
അറിയുന്നത്	14212
തെലു	14213
കേസിന്	14214
കാണണം	14215
കാലതാമ	14216
##ത്തിലെത്തിയ	14217
കടത്തിയ	14218
അംഗീകരിച്ചു	14219
വളര്‍ത്ത	14220
കോണ്‍ഗ്രസിനും	14221
ചിത്രവും	14222
ബിജെപിക്കും	14223
സമയത്തും	14224
പുറത്തുള്ള	14225
ട്ടും	14226
മുണ്ടക്ക	14227
വിളിക്കുന്നത്	14228
പ്രദേശിലെ	14229
മരണങ്ങളാണ്	14230
സ്ഥലത്തേക്ക്	14231
പരിപാല	14232
കരക	14233
കൾക്കും	14234
അവകാശവാദ	14235
ഏകപക്ഷീയ	14236
മകനാണ്	14237
റിയാദ	14238
വിവാദമായിരുന്നു	14239
കാരണങ്ങള്‍	14240
എണ്ണത്തിന്റെ	14241
സാധിക്കുമെന്നും	14242
ഷോയിൽ	14243
പുലർത്ത	14244
രാജിവച്ച	14245
ലീഗും	14246
ലഭ്യമാ	14247
സമ്മാനിക്കും	14248
സന്തോഷവും	14249
ഉന്നതതല	14250
നിര്‍ണായകമായ	14251
സമ്മതിക്ക	14252
യാളെ	14253
ബാബുവിനെ	14254
ുകൊണ്ട്	14255
അസോസിയേറ്റ്	14256
ലക്ഷ്യമിടുന്ന	14257
ഫ്‌ളാറ്റ	14258
ചുറ്റും	14259
ഇരിക്കൂര്‍	14260
അഗസ്റ്റി	14261
ശ്രീകണ്ഠ	14262
സ്ത്രീകൾക്ക്	14263
ക്വാറന്റൈനിലും	14264
എന്നുള്ളതാണ്	14265
നൗഷ	14266
സോളാര്‍	14267
രക്ഷാപ്രവര്‍ത്തനം	14268
അബ്ദുള്ളക്കുട്ടി	14269
കന്നഡ	14270
സ്ഥിതിഗതികള്‍	14271
അണ്ണാ	14272
തെരുവ്	14273
ലിറ്ററിന്	14274
മരണനിരക്ക്	14275
കാറ്റഗറി	14276
ഡെലിവറി	14277
വിനോദസഞ്ചാര	14278
തൊഴിലുറപ്പ്	14279
സ്തംഭ	14280
രേഷ്മ	14281
അളവ്	14282
ഖേദ	14283
ജലം	14284
റൊ	14285
വാന	14286
ഷിപ്പ്	14287
##ക്രി	14288
##ത്ന	14289
പ്രാവ	14290
##രുമെന്ന്	14291
വിറ്റു	14292
നിരാ	14293
എന്നതിന്റെ	14294
പിറ്റേ	14295
പറഞ്ഞപ്പോള്‍	14296
##പിടി	14297
വാതില്‍	14298
കാരണമെന്ന്	14299
എംടി	14300
ഇന്ത്യക്കാരെ	14301
കാറിൽ	14302
മൂവ	14303
മേജ	14304
നിയമത്തിന്	14305
##നാജ്ഞ	14306
മാത്രമായിരിക്കും	14307
വിജയിച്ച്	14308
സ്ഥാനക്കയ	14309
കാണി	14310
ചിത	14311
ആവശ്യവും	14312
നാൾ	14313
ചിലരെ	14314
കണ്ണൂര	14315
ഉറങ്ങ	14316
##വേലി	14317
10ന്	14318
സമ്മര്‍ദ	14319
മുന്‍തൂക്കം	14320
ആളുകളാണ്	14321
നെതിരായ	14322
പൂട്ടി	14323
എല്‍ജെഡി	14324
റിതു	14325
പ്രദേശം	14326
വിമാനത്തിൽ	14327
നേതാക്കളില്‍	14328
മരണങ്ങൾ	14329
ന്യൂസില	14330
മാസത്തിൽ	14331
സ്ഥാപനങ്ങളിലെ	14332
പ്ലാന	14333
160	14334
സ്വീകരിക്കേണ്ട	14335
വഴങ്ങിയ	14336
നിയമസഭയിലേക്ക്	14337
ശതമാനത്തില്‍	14338
ശതമാനത്തോളം	14339
കാരണവശ	14340
സാധിക്കില്ലെന്നും	14341
ഷോപ്പി	14342
പോസ്റ്റില്‍	14343
ഫ്രഞ്ച്	14344
നമ്പൂ	14345
റോഡിൽ	14346
വാദിച്ചു	14347
വായന	14348
ലംഘിക്കുന്ന	14349
നാടിനെ	14350
നിരോധനാജ്ഞ	14351
മൈത	14352
പേരുകൾ	14353
തസ്തികയിൽ	14354
അച്ഛന്റെ	14355
ഗുണനില	14356
പ്രവാസികളുടെ	14357
ുവെന്നായിരുന്നു	14358
ട്വിറ്ററ	14359
ഫ്ലൈ	14360
ഇടപാടുകള്‍	14361
ഇവിടേക്ക്	14362
പുറത്തെടുത്ത	14363
വ്യോമസേന	14364
ദൈവം	14365
ഇന്‍സ്റ്റിറ്റിയൂ	14366
അരങ്ങേറിയ	14367
ജ്യോതിഷത്തില്‍	14368
തോൽവി	14369
##ിപ്പുറം	14370
മുന്നിലുള്ളത്	14371
കബള	14372
ചില്ലറ	14373
രാകേഷ്	14374
##നീഷ്യന്‍	14375
സീതാറാം	14376
സാമുദായിക	14377
ദാരിദ്ര	14378
ഡിലീറ്റ്	14379
കാരണവശാലും	14380
ആസി	14381
ഇഞ്ച	14382
ഏല	14383
ഓം	14384
കാനം	14385
ചാത്ത	14386
ജാവ	14387
ണമെന്ന	14388
താണെന്നാണ്	14389
ധാര്‍	14390
പാട്	14391
പതിയെ	14392
ബുള്ള	14393
ഭദ്ര	14394
മണ്‍	14395
##യെന്ന്	14396
##യൊരു	14397
##സന്‍	14398
##ാശ്ശേരി	14399
##ിലുമാണ്	14400
വിപ്പ്	14401
##ാലത്ത്	14402
കുളി	14403
പുല്‍	14404
##ിപ്പുറ	14405
അവയുടെ	14406
പേഴ്‌സ	14407
കളിയ	14408
##തുണ	14409
203	14410
##പ്രകാര	14411
ഉണ്ടാ	14412
കാവി	14413
മേരി	14414
##നാപകട	14415
സംഘത്തിലെ	14416
എന്നിവയില്‍	14417
ിരിക്കുകയാണെന്ന്	14418
തീരുമാനത്തെ	14419
ട്രാക്ക	14420
മറ്റൊന്ന്	14421
നേതൃത്വവുമായി	14422
മാറ്റത്തിന്	14423
രാഷ്ട്രീയമായി	14424
പ്രവർത്തകര	14425
കുമാരി	14426
ുണ്ടായിരുന്നില്ല	14427
എത്തിയിരിക്കുകയാണ്	14428
ഒന്നാമ	14429
ഭാരതി	14430
കുറ്റപ്പെടുത്ത	14431
തുറക്കാന്‍	14432
അവസാനിപ്പിച്ച	14433
അപേക്ഷിക്കുന്ന	14434
നഷ്ടപ്പെട്ടു	14435
വര്‍ഷങ്ങള്‍	14436
വാഹനാപകട	14437
പോലീസിനോട്	14438
കമൽ	14439
വഴിയുള്ള	14440
##യ്യി	14441
വർഷത്തിൽ	14442
മത്സരങ്ങളില്‍	14443
മനസ്സില്‍	14444
നേട്ടമുണ്ടാ	14445
ഉന്നയിക്കുന്നത്	14446
വേഗത്തിൽ	14447
എടുക്കേണ്ട	14448
പുലര്‍ത്തിയ	14449
സെന്റർ	14450
ത്രെ	14451
ത്രിക	14452
രംഗത്തെത്തിയിട്ടുണ്ട്	14453
ശ്രമിച്ചെങ്കിലും	14454
സ്‌റ്റോ	14455
!!!	14456
അണക്കെട്ട	14457
എമ്മിന്	14458
കുറിപ്പിന്റെ	14459
കൊണ്ടുപോകുന്ന	14460
മുകളിലേക്ക്	14461
തേടുന്നത്	14462
പന്തളം	14463
സ്റ്റേഷനിലെ	14464
പശ്ചിമേഷ്യ	14465
മല്‍സരിക്ക	14466
ക്രൂരമായ	14467
ഇംഗ്ലണ്ട	14468
ിറങ്ങ	14469
തെരുവു	14470
ഉപകരണങ്ങള്‍	14471
ഒളിഞ്ഞ	14472
മാലിക്	14473
പാരമ്പര്യ	14474
മ്യൂസിയ	14475
അര്‍ജുന്‍	14476
കണക്കിലെടുത്താണ്	14477
വിനായക	14478
സിന്‍ഹ	14479
അപ്‌	14480
ഓര്‍ക്ക	14481
ഓടിച്ച	14482
കർക്ക	14483
ഗഡ്	14484
ഡൗണ	14485
ദ്രാ	14486
പന്ന	14487
ഫയർ	14488
മടക്കി	14489
യുമുള്ള	14490
വയ്ക്കുന്ന	14491
സര	14492
സികെ	14493
ഹാസ	14494
ുമെന്ന്	14495
##നൗ	14496
##സമ്മേള	14497
##പ്പടി	14498
##ന്‍മെന്റ്	14499
തിന്‍റെ	14500
##ുവില	14501
തുഷ	14502
പരിരക്ഷ	14503
ത്തിലേക്കുള്ള	14504
സുഗമ	14505
ചെയ്യുമെന്നാണ്	14506
ചെയ്യുമ്പോൾ	14507
നിന്നുളള	14508
നല്‍കാനുള്ള	14509
##മാനം	14510
പൊരു	14511
ങ്ങളൊക്കെ	14512
മാത്രമുള്ള	14513
ഡിസി	14514
ഇടയ്ക്ക്	14515
ഇടപാട്	14516
വരേണ്ട	14517
ചിരാഗ്	14518
കൈക്കൊണ്ട	14519
##ിലൂടെയാണ്	14520
കടമ്പ	14521
പാലിക്കുക	14522
തിനോട്	14523
സ്ഥിരത	14524
ദിവസത്തിന്	14525
രാഷ്ട്രീയത്തിന്റെ	14526
വിഭാഗീയത	14527
എന്‍ഫോഴ്‌സ്‌മെന്റ്	14528
ഇറങ്ങുന്ന	14529
ഭരണകക്ഷിയായ	14530
ഉള്‍പ്പെടുന്നു	14531
##ച്ചിറ	14532
15ന്	14533
അവസാനിക്കും	14534
ഒഴിവാ	14535
ലഭിച്ചിരിക്കുന്നത്	14536
##ത്തിലുണ്ട്	14537
##വർഷം	14538
തിരമാല	14539
##ഷിദ്	14540
സാമന്ത	14541
ശതമാനത്തിൽ	14542
ആശങ്കയിലാണ്	14543
##മുണ്ടായിരുന്ന	14544
കടുത്തുരുത്തി	14545
േക്കില്ല	14546
രാമന്‍	14547
സംബന്ധിച്ചും	14548
പതിനൊന്ന്	14549
അവസ്ഥയിലാണ്	14550
##ക്കേറിയ	14551
10000	14552
ബഹള	14553
ിരിക്കുന്നതെന്ന്	14554
ക്ഷേത്രത്തില്‍	14555
നാടകം	14556
കൂടുതലും	14557
ാനാവ	14558
കുത്തിവ	14559
സര്‍ക്കാരാണ്	14560
പ്രധാനമന്ത്രിയെ	14561
ബില്ല്	14562
നിര്‍ബന്ധമായും	14563
പ്ലാന്റ	14564
ശാഖ	14565
മണിപ്പൂര്‍	14566
കയറുന്ന	14567
വര്‍ധനവ്	14568
ിറങ്ങിയ	14569
ശുഭകരമായ	14570
സുരേഷിന്റെ	14571
കേൾക്ക	14572
സമഗ്രമായ	14573
പ്രതിമാസ	14574
ഹാരിസ്	14575
സമ്മർദ്ദം	14576
ഒരുമിച്ച	14577
അപൂര്‍വ	14578
കള്ളപ്പണം	14579
ഉരുള്‍പൊട്ട	14580
റൂറല്‍	14581
മൊയ്തീ	14582
കരുനാഗപ്പള്ളി	14583
ജഡേജ	14584
ഷാര്‍ജ	14585
ശൃം	14586
or	14587
ആൽ	14588
ഖാനെ	14589
ഗാർ	14590
തിലേക്ക്	14591
നട്ടെ	14592
മില്‍	14593
യിട്ടുണ്ട്	14594
്റെ	14595
##ോവ	14596
##പ്ട	14597
##വയ	14598
##ൊറ്റ	14599
##ൂരും	14600
##ിയർ	14601
##ല്‍ഡ്	14602
എന്നാലും	14603
മാൻ	14604
കേടു	14605
കൊടും	14606
##ിവരെ	14607
പുട	14608
അവശ	14609
ബിഹാര്‍	14610
പറഞ്ഞിരിക്കുന്നത്	14611
വാള്‍	14612
രാജിക്ക	14613
സുലൈ	14614
ചെയ്യണമെന്നും	14615
ന്റേയും	14616
സ്വദേശികൾ	14617
സംഭവിച്ചു	14618
നടത്തിയിട്ടില്ല	14619
ചേര്‍ത്തു	14620
ശ്രമിക്ക	14621
എത്തുകയും	14622
ശക്തമായിരുന്നു	14623
ഇല്ലെന്നാണ്	14624
എന്‍റെ	14625
വിശാഖ	14626
അടുത്തുള്ള	14627
തടവ്	14628
കല്യാ	14629
സമീപമുള്ള	14630
രേഖപ്പെടുത്തുന്ന	14631
ബ്രാന്‍	14632
ഉൾക്കൊള്ള	14633
മഴയ്ക്കും	14634
മലയാളികൾ	14635
വിധിയെ	14636
ഡ്രോ	14637
ക്കാരന്‍	14638
നിൽക്കാൻ	14639
പ്രവർത്തകർക്ക്	14640
ചുമതലപ്പെടുത്തിയ	14641
അനുഭവപ്പെടും	14642
പ്രഖ്യാപിച്ചതോടെ	14643
വിരുദ്ധത	14644
##നേഹി	14645
സിപിഎമ്മിനെ	14646
തിരിഞ്ഞ്	14647
രംഗത്തെത്തിയിരിക്കുകയാണ്	14648
സൂചിപ്പിച്ച	14649
ബാങ്കില്‍	14650
പ്രവര്‍ത്തകര്‍ക്ക്	14651
ഹോട്ടൽ	14652
കൊലപാതകത്തിന്	14653
അംഗീകരിക്കുന്ന	14654
വരാം	14655
പത്രസമ്മേള	14656
എല്‍ഡിഎഫില്‍	14657
അത്യാവശ്യ	14658
നോക്കിയാല്‍	14659
സ്നേഹം	14660
സാധനങ്ങൾ	14661
െടുക്കാന്‍	14662
പിടിച്ചെടുത്തത്	14663
ഡീസല്‍	14664
തീരുമാനമെടുക്ക	14665
ഫോര്‍മുല	14666
ഡാറ്റാ	14667
ചരക്ക്	14668
പുസ്തകം	14669
ഇനിയുള്ള	14670
ഉളളത്	14671
കഠിനാധ	14672
സര്‍ക്കാരുകള്‍	14673
നൈറ്റ്	14674
മോചനം	14675
ക്വാറന്റൈനില്‍	14676
സസ്‌പെന്‍ഡ്	14677
പ്രേം	14678
ജുനൈ	14679
താത്പര്യം	14680
ശ്രദ്ധയില്‍പ്പെട്ട	14681
മാര്‍ച്ചില്‍	14682
അമരീന്ദർ	14683
പുരസ്കാര	14684
വിശ്വാസമ	14685
വന്യജീവി	14686
ഞായറാഴ്ച്ച	14687
ഓസ്ട്രേലിയ	14688
അശ്	14689
അങ്ങനെയുള്ള	14690
ചവറ	14691
ടണ്‍	14692
ദീ	14693
നൊ	14694
പണ്ട	14695
റമ	14696
ളെ	14697
##ജുവിന്റെ	14698
##in	14699
##പ്പതി	14700
##രുത്ത്	14701
##ള്‍ഡ്	14702
മാക്കാന്‍	14703
##വിമ	14704
##ുവായ	14705
##ുവരിയിൽ	14706
##മ്പോള്‍	14707
സിഎഫ്	14708
##ന്ധര	14709
അതുവഴി	14710
##ുകളുണ്ട്	14711
നിന്നുമാണ്	14712
ഇതില	14713
##രളി	14714
##സംസ്ഥാന	14715
സാധ്യമായ	14716
ങ്ങളിലാണ്	14717
ങ്ങളുമാണ്	14718
കാറ്റ്	14719
ന്നെ	14720
കണ്ടില്ല	14721
വൈരാഗ	14722
നൽകുക	14723
നൽകേണ്ട	14724
വരാനുള്ള	14725
ചോദിച്ചിരുന്നു	14726
പേരില	14727
കോണ്‍ഗ്രസുമായി	14728
ചിത്രീകരിച്ച	14729
വീട്ടുകാർ	14730
ബോസിൽ	14731
എത്തിയതോടെ	14732
ഒഴിക	14733
യാത്രക്കാര്‍ക്ക്	14734
ആദരാ	14735
സ്ഥാപിക്കുന്ന	14736
##താപ്	14737
പരിശോധനയിലാണ്	14738
നീക്കത്തിന്	14739
##ത്തിനാണ്	14740
വരുണ്ട്	14741
ചര്‍ച്ചകള്‍ക്ക്	14742
##ദ്ദീ	14743
അവസാനത്തോടെ	14744
നടക്കുമ്പോള്‍	14745
ക്കുളള	14746
യോജന	14747
സമീപിച്ചിരുന്നു	14748
##േക്കര	14749
സന്ദീപ	14750
##ത്തോടെയാണ്	14751
ാണെങ്കിൽ	14752
ചർച്ചയിൽ	14753
വഴങ്ങ	14754
യാണെങ്കിലും	14755
എതിര്‍ക്കുന്ന	14756
സമരത്തില്‍	14757
സമരത്തെ	14758
ലഭിക്കേണ്ട	14759
ഷോയില്‍	14760
അഭിപ്രായപ്പെടുന്നത്	14761
റഷ്യയില്‍	14762
ജലീൽ	14763
പോസ്റ്റിന്	14764
സഖ്യകക്ഷ	14765
സ്ഥാനാർത്ഥിയെ	14766
തെറ്റു	14767
കൊടുക്കാൻ	14768
എന്നിവിടങ്ങളിലാണ്	14769
ചീത്ത	14770
ഗുരുതരാവസ്ഥ	14771
വർധിച്ച	14772
ഉയർന്നിരുന്നു	14773
ഭേദമായ	14774
മുതലായ	14775
ഉത്തരവാദിത്വ	14776
നിർമ്മാണം	14777
വ്യാഴം	14778
സജ്ജീകരിച്ച	14779
കിടക്കുകയാണ്	14780
തിരിച്ചടിയായി	14781
നിര്‍ണായകമാണ്	14782
ത്തോടെയാണ്	14783
1996	14784
ബൈഡൻ	14785
ബാനർജി	14786
സംഘടിപ്പിക്കുന്ന	14787
ബിരുദവും	14788
ചിന്തിച്ച	14789
കക്ഷികള്‍	14790
അശോക	14791
അതൃപ്	14792
ഉള്‍പ്പടെയുള്ള	14793
ആംബുലന്‍സ്	14794
സുഖം	14795
ജനപ്രീതി	14796
ഇസ്ലാമിക	14797
ജൂനിയർ	14798
മോട്ടോർ	14799
മുപ്പത്	14800
തള്ളിക്കള	14801
ചങ്ങനാശ്ശേരി	14802
ജനതാദ	14803
വിശദീകരണവുമായി	14804
ബ്ലെസ്ലി	14805
പെയ്ത	14806
സ്ട്രാറ്റജി	14807
വസുന്ധര	14808
ഇന്‍സ്റ്റിറ്റിയൂഷണല്‍	14809
re	14810
ആന്ത	14811
ആസാദ	14812
ഉൽ	14813
കട്ടി	14814
ഛിന്ന	14815
തിവ	14816
തുണ്ട്	14817
നിന	14818
നുമായ	14819
പണ്ട്	14820
മരിയ	14821
ലുമായി	14822
##നൈ	14823
##തായിരുന്നു	14824
##രഹിത	14825
##സമ്മ	14826
##െണ്ണം	14827
##ic	14828
##ൊഴി	14829
##ര്‍ഥ	14830
##ടെക്	14831
കോൾ	14832
ക്കര	14833
##രിക്കാം	14834
##ങ്ങളുള്ള	14835
##ങ്കേരി	14836
തിരിക്കാൻ	14837
സ്വര	14838
പേര്‍ക്ക	14839
തുണി	14840
##വാട	14841
ങ്ങ്	14842
വേറ	14843
യുട്യൂ	14844
പറയേണ്ടി	14845
സാധിക്കുക	14846
കഴിഞ്ഞിട്ടില്ല	14847
കാരു	14848
കാസിം	14849
രൂപീകരി	14850
നിരയില്‍	14851
ഇടങ്ങളില്‍	14852
രോഗങ്ങള്‍	14853
സ്ഥാനവും	14854
നടത്തുമെന്നും	14855
ത്തിച്ച	14856
പരാതിയുടെ	14857
തീരുമാനമായി	14858
കൈക്കൂലി	14859
പലർക്കും	14860
മറന്ന്	14861
അറുപ	14862
നേരിട്ടെ	14863
സമ്പൂർ	14864
ഇറാന	14865
അടിച്ചത്	14866
ദില്ലിയിലേക്ക്	14867
നിരീക്ഷക	14868
കിട്ടാതെ	14869
ഉറപ്പായി	14870
വരുന്നതോടെ	14871
സര്‍ക്കാരിനോട്	14872
അന്വേഷണത്തിലാണ്	14873
സ്ഥാപനങ്ങളിലും	14874
പോലീസുകാര്‍	14875
മീഡിയയിലൂടെ	14876
സുധീ	14877
വാഹനങ്ങളുടെ	14878
സംവിധാനങ്ങൾ	14879
സർക്കാരിൻ്റെ	14880
പ്പോലും	14881
സാധിക്കുമെന്ന്	14882
സഹായിക്കാന്‍	14883
പതിച്ച	14884
ആകും	14885
##ളവില്‍	14886
വിനയ	14887
ആഘോഷം	14888
വൃദ്ധ	14889
പോവുക	14890
കള്ളക്കട	14891
ബാങ്കിന്റെ	14892
ഇതുസം	14893
മനസിലാക്കി	14894
പ്രസിഡന്റായി	14895
മുന്നണിക്ക്	14896
ഗുണകര	14897
സന്ദർശന	14898
നെഗറ്റീ	14899
മാനസികമായി	14900
ഏറ്റുമു	14901
യുവാവിന്	14902
കോവിഡിന്റെ	14903
മരുന്നുകള്‍	14904
വെട്ടിക്	14905
രഞ്ജിത്ത്	14906
സ്പെഷ്യൽ	14907
പങ്കുവെച്ച്	14908
നഷ്ടപരിഹാര	14909
സർവീസുകൾ	14910
ഡോക്ടറുടെ	14911
പട്‌ന	14912
ഘോഷയാത്ര	14913
പന്ത്രണ്ട്	14914
കൂത്തുപറമ്പ്	14915
യാഥാർത്ഥ്യ	14916
റിമാന്‍ഡ്	14917
തോതിലുള്ള	14918
അനുശോചനം	14919
ബിഡിജെ	14920
ശൂന്യ	14921
തിവാരി	14922
al	14923
അച	14924
കൽപ്പ	14925
കണ്ണ്	14926
ജിയ	14927
ജാന	14928
തത്വ	14929
ധ്രുവ	14930
ലവ്	14931
സെയ്	14932
ഹയർ	14933
െന്നു	14934
##ംപി	14935
##യിലേക്കുള്ള	14936
##ഴക്ക	14937
##വീ	14938
##വാരം	14939
##ക്കാൾ	14940
പ്രതാപ്	14941
വിന്‍	14942
സ്മാര്‍	14943
പിപി	14944
##േഷിന്	14945
##ഡ്ജ്	14946
സിദ്ധി	14947
പ്രതികാര	14948
##നിന്നും	14949
ത്തുള്ള	14950
ആരാണെന്ന്	14951
ഉണ്ടാക്കാന്‍	14952
കേന്ദ്രത്തിൽ	14953
പ്പാ	14954
മേത്ത	14955
നിയമത്തിലെ	14956
വ്യക്തമാകുന്നത്	14957
##ളിംഗ്	14958
മന്ത്രിക്ക്	14959
##ാറില്ല	14960
##ുകയെന്ന	14961
##ുകയാണെങ്കില്‍	14962
സർക്കാറിന്റെ	14963
ട്രാൻ	14964
ചോദ്യമാണ്	14965
മറ്റൊ	14966
നല്‍കിയാല്‍	14967
കണ്ണി	14968
എന്താ	14969
അനുഭാവ	14970
നാലാമത്തെ	14971
##രിയിലെ	14972
##രിയമ്മ	14973
എന്‍ഡി	14974
അടിച്ച്	14975
തടസം	14976
പോയിന്റ്	14977
കലാശ	14978
നിലപാടു	14979
കോഴിക്കോട്ടെ	14980
ഉദ്യോഗസ്ഥനെ	14981
ചൂട	14982
കണക്കുക	14983
യിലുമാണ്	14984
മണിക്കൂറുകള്‍	14985
ിലായിരുന്നു	14986
യുള്ളു	14987
സർക്കാരിൽ	14988
അകലെ	14989
റ്റിൽ	14990
ഫിസ	14991
മനുഷ്യത്വ	14992
സ്ത്രീധന	14993
അനുഭവപ്പെട്ട	14994
ഫലമാണ്	14995
തിനെക്കുറിച്ച്	14996
സാധ്യതയുണ്ടെന്നാണ്	14997
ആക്രമണത്തിൽ	14998
പതിനായിരം	14999
ഭയങ്കര	15000
പ്രസംഗത്തില്‍	15001
മനസിലാക്ക	15002
ഓഫീസര്‍മാര്‍	15003
രാജ്ഞ	15004
അറിഞ്ഞത്	15005
സമിതിയെ	15006
ഒരാൾക്ക്	15007
ഓപ്പറേഷൻ	15008
ഭാവിയില്‍	15009
ഗൗരിയമ്മ	15010
സൈന്യത്തിന്റെ	15011
വിഭജനം	15012
തുടരുമെന്ന്	15013
യിലേക്കു	15014
അര്‍ഹത	15015
അക്ഷയ	15016
വെബ്‌സൈറ്റ	15017
പേജില്‍	15018
വ്യത്യസ്തമായി	15019
##ാറിന്‍റെ	15020
ലിംഗായത്ത്	15021
ഇലക്ട്രോണിക്	15022
ഹനുമ	15023
ഗോപിനാഥ്	15024
പ്രാബല്യ	15025
ചവിട്ടി	15026
സൗന്ദര്യ	15027
##ന്വേഷണം	15028
ഷിന്‍ഡെ	15029
ചതുരശ്ര	15030
അസഭ	15031
ഘോ	15032
ഫാര്‍	15033
ഫീസ	15034
രുമായി	15035
സയ്യി	15036
ിന്‍റെ	15037
ുകളുടെ	15038
##ഗഡ്	15039
##രേ	15040
##സമ്പ	15041
##ർഭ	15042
##ീരിയ	15043
##ഖ്യാപ	15044
##ക്കുള്ള	15045
##ത്തരം	15046
##ത്തോടൊപ്പം	15047
##പ്പന്‍	15048
പ്രഭാ	15049
##ിക്കോട്	15050
നിട	15051
നിവാസ	15052
എന്നതില്‍	15053
ക്കുമായി	15054
മുടങ്ങ	15055
പോക്‌സോ	15056
കുറി	15057
##േഷനും	15058
##ുവാൻ	15059
സാംസ	15060
##ംഗത്ത്	15061
കളത്തിലിറ	15062
സമവായ	15063
##വാൾ	15064
വീതി	15065
വാറ	15066
പോലെയ	15067
അനുകൂ	15068
##ക്തമായി	15069
നല്‍കാനാണ്	15070
ഉണ്ടാവുന്ന	15071
സെബാ	15072
നിയമിക്കുന്നു	15073
രൂപയില്‍	15074
പെൻ	15075
ഉപദേ	15076
##ിരിക്കുന്നു	15077
കോടികള്‍	15078
മനോഭ	15079
വിജയത്തിന്	15080
തോറ്റു	15081
ട്രസ്റ്റ്	15082
മലേഷ്യ	15083
മറച്ച	15084
മറന്നു	15085
ഡോക്യ	15086
പദ്ധതിയിൽ	15087
കൂട്ടായ	15088
പ്രവർത്തിക്കുന്നത്	15089
പാടി	15090
ആര്‍ട്ടി	15091
മാധ്യമങ്ങളും	15092
ചര്‍ച്ചയായി	15093
പട്ടണ	15094
##സിനു	15095
ചൂഷണം	15096
ലോകത്തിന്	15097
മായുള്ള	15098
സംഘടനകളും	15099
നാട്ടുകാരുടെ	15100
പരിഹാസം	15101
170	15102
ത്തിലോ	15103
വിവാദങ്ങള്‍	15104
കമ്മീഷന്	15105
ഇന്‍ഷുറ	15106
തോമസിനെ	15107
ബോധവത്	15108
ഇൻഫ	15109
ടീമിലെ	15110
റോഡിലെ	15111
ക്കെതിരേ	15112
മാറ്റിയിരുന്നു	15113
ഒരൊറ്റ	15114
##സ്‌കി	15115
മഹാത്മ	15116
സേവനങ്ങൾ	15117
ഭാഷാ	15118
തിങ്കളാഴ്ച്ച	15119
അയച്ചിട്ടുണ്ട്	15120
മാവു	15121
തിരിച്ചടിയായ	15122
സമിതിയില്‍	15123
അങ്ങോട്ട്	15124
ഐക്യരാഷ്ട്ര	15125
മടങ്ങുന്ന	15126
കേള്‍ക്കുന്ന	15127
ജോര്‍ജിനെ	15128
വിജിലൻസ്	15129
നാരായണന്‍	15130
പരാതിയിലാണ്	15131
ചന്ദ്രശേഖര്‍	15132
യുവാക്കളുടെ	15133
വ്യാപാരികള്‍	15134
വ്യോമയാന	15135
രണ്ടാമത്	15136
പടിഞ്ഞാറന്‍	15137
സംഭാഷണം	15138
##വ്യവസ്ഥ	15139
മുൻകരു	15140
ആദ്യഘട്ടത്തില്‍	15141
താല്‍പ്പര്യ	15142
ഉപാധ്യക്ഷ	15143
തക്കാളി	15144
ഉൽപ്പാദ	15145
പ്രചോദന	15146
തസ്തികകളിലേക്ക്	15147
കൃത്രിമ	15148
ശൃംഖല	15149
കാരുണ്യ	15150
സെബാസ്റ്റ	15151
മനോഭാവ	15152
അജി	15153
ആനി	15154
ആഴ്ച്ച	15155
ആക്രമി	15156
ഒപ്ട	15157
ചിര	15158
ജാത	15159
തുകൊണ്ടാണ്	15160
പന്നി	15161
പത്രം	15162
ബലം	15163
മധ	15164
മടിയ	15165
യേശ	15166
റം	15167
്യ	15168
##നിക	15169
##ുലി	15170
##ാഭിമാന	15171
##കിട	15172
##വള	15173
##ബാസ്	15174
##ൂറ്	15175
##ിയൂര്‍	15176
##്രമം	15177
##സ്സി	15178
##ാലിന്	15179
നേര്‍	15180
കുന്ദ	15181
കുട്ടിയ	15182
##ുവേണ്ടി	15183
സാരി	15184
##മ്പി	15185
പ്രതിഷ്ഠ	15186
പ്രതിബദ്ധ	15187
##ാകൂ	15188
ചെയ്യില്ല	15189
ഇതെ	15190
ഇതിലെ	15191
സംസ്ഥാനത്തു	15192
##ഫ്റ്റ	15193
ജില്ലാതല	15194
ആരേയും	15195
നിന്ന്‌	15196
കുറയ്ക്കുന്ന	15197
##നാവി	15198
നിരസ	15199
രോഗികള	15200
ആശയം	15201
സഹായക	15202
ചെയ്തില്ല	15203
ചെയ്തതെന്നും	15204
തിരുവാ	15205
കാലമായി	15206
കോടിക്ക	15207
പരിശോധിക്കുന്ന	15208
ട്രോളി	15209
ട്രാൻസ്	15210
പലവിധ	15211
മറ്റേത	15212
നടന്നുകൊണ്ട	15213
പാർടി	15214
##ഭാഗം	15215
മേഖലയിലേക്ക്	15216
##റുക്കി	15217
റോയി	15218
102	15219
ുണ്ടാക്കിയ	15220
എത്തിയിരിക്കുന്നത്	15221
എത്തിയപ്പോള്‍	15222
മീനം	15223
പുറത്താക്കി	15224
റെഗുല	15225
റിഫ	15226
ഓഫീസിലേക്ക്	15227
വിഷയങ്ങളിൽ	15228
തകർത്ത	15229
മന്ത്രിയായ	15230
കരീം	15231
തൃശൂരിൽ	15232
അവകാശപ്പെടുന്ന	15233
ഹാജി	15234
കണ്ടെത്താനുള്ള	15235
വിമര്‍ശിച്ച	15236
എതിർക്ക	15237
തമിഴ	15238
##ോമണി	15239
അധികാരമേറ്റ	15240
ആണെങ്കിലും	15241
ആത്മാർത്ഥ	15242
നിൽക്കുന്നത്	15243
സ്ഥാനാർത്ഥികൾ	15244
പ്രവർത്തകൻ	15245
ഫലങ്ങൾ	15246
രൂക്ഷവിമ	15247
പുലര്‍ത്തുന്ന	15248
മനസ്സിലാക്ക	15249
മത്സരിക്കുക	15250
കണ്‍സള്‍	15251
മുതലുള്ള	15252
ഏര്‍പ്പെടുത്ത	15253
ഇടിഞ്ഞു	15254
##ാരുമായി	15255
ശിക്ഷാ	15256
റേഡിയോ	15257
പിഴയ	15258
കേസെടുത്തിട്ടുണ്ട്	15259
തേടിയത്	15260
ആദ്യമായിട്ടാണ്	15261
പ്രവാസികളെ	15262
കുത്തക	15263
കശ്മീർ	15264
എവിടെയാണ്	15265
വടക്കാഞ്ചേരി	15266
സുധാകരനും	15267
ശാക്ത	15268
ിടത്ത്	15269
ഏറ്റെടുത്തു	15270
ദ്ദ	15271
ദ്ധ	15272
വിശേഷിപ്പിച്ച	15273
സീറ്റുകളിലാണ്	15274
ചെയ്തിട്ടുള്ള	15275
കുറയ്ക്കാന്‍	15276
##പ്രവർത്തകർ	15277
ശിവശങ്കര്‍	15278
ജീവനക്കാര്‍ക്ക്	15279
ബീഹാറിലെ	15280
സ്ഥലത്തെത്തിയ	15281
ഗര്‍ഭ	15282
ഹാളില്‍	15283
ചാർജ്	15284
ഹൂഡ	15285
മറ്റൊരാള്‍	15286
വയനാട്ടിൽ	15287
ഫിലിപ്പ്	15288
ചെറുപ്പക്കാര	15289
വഷള	15290
എനിക്കും	15291
തമിഴ്നാട്ടിൽ	15292
സീതാരാമന്‍	15293
നെടുമ്പാശ്ശേരി	15294
ഷാരൂഖ്	15295
പാലായില്‍	15296
പണിമുട	15297
ശിരോമണി	15298
കോതമംഗലം	15299
ശിവൻകുട്ടി	15300
ഡെല്‍റ്റ	15301
ത്രികോണ	15302
പ്രതിബദ്ധത	15303
എറിഞ്ഞ	15304
ജം	15305
ജാർ	15306
ദേഷ്യ	15307
ധന്യ	15308
പല്ല	15309
പബ്ലി	15310
മമ	15311
രഹിത	15312
വാരണ	15313
വ്‌ള	15314
ഷന	15315
സകല	15316
ഹം	15317
ാതി	15318
ാനാണ്	15319
##ഗൗ	15320
##റര്‍	15321
##‌എ	15322
##വിനോ	15323
##ഷന്	15324
##ൃതമായ	15325
##്രദ	15326
##ര്‍ട്	15327
##ിക്കട്ടെ	15328
സംയോ	15329
##പ്പെരു	15330
##ുവാന്‍	15331
##തിയുള്ള	15332
അതാത്	15333
നല്‍കാനും	15334
##ഡിഗോ	15335
ജനസം	15336
ഇന്ത്യക്കാര്‍	15337
പുറപ്പെടു	15338
വൈക്കം	15339
ചെയ്താൽ	15340
സംഭവത്തിന്റെ	15341
മോചന	15342
അതിൻ്റെ	15343
കോടികളുടെ	15344
കടൽ	15345
തൊണ്ട	15346
ശ്രമിക്കുക	15347
കോണ്‍ഗ്രസിലേക്ക്	15348
ദുല്‍	15349
##വേത	15350
രാഹുലും	15351
സമ്പ്രദ	15352
ചെയ്തിരിക്കുകയാണ്	15353
ബിജെപിയാണ്	15354
ജിദ്ദ	15355
ആര്‍സിബി	15356
സമയബന്ധ	15357
മാധ്യമങ്ങളുടെ	15358
1500	15359
കലക്ടർ	15360
പട്ടാള	15361
പ്രതിഷേധിക്കുന്ന	15362
മുമ്പായി	15363
ഉത്തരവില്‍	15364
മരണപ്പെട്ടു	15365
പ്രധാനമന്ത്രിക്ക്	15366
വിവരവും	15367
ഉറപ്പാക്കാൻ	15368
ഉൾക്കട	15369
മാസങ്ങള്‍	15370
ണ്ടെ	15371
നേതാവായി	15372
അമേരിക്കയും	15373
ഗ്രൂപ്പി	15374
##ശ്ശിക	15375
എംഎല്‍എമാരുടെ	15376
മത്സരത്തിൽ	15377
ആശങ്കയും	15378
ഫിറ്റ്	15379
സമരത്തിന്റെ	15380
നായരുടെ	15381
എഴുത്ത	15382
ഹിന്ദ	15383
പുലർത്തുന്ന	15384
നികു	15385
കമ്പനികളുടെ	15386
##ാക്ട്	15387
ഇദ്ദേഹത്തിന്	15388
##്യോത്	15389
ചോദിച്ചപ്പോള്‍	15390
വിമര്‍ശനങ്ങള്‍	15391
50000	15392
അവതരിപ്പിക്കുന്ന	15393
ഫൈസല്‍	15394
മണിപ്പൂരില്‍	15395
അപ്രതീക്ഷിതമായ	15396
കുടിശ്ശിക	15397
പ്രതികരിച്ചിട്ടില്ല	15398
##ാടുമുള്ള	15399
കൊലപ്പെടുത്തിയത്	15400
സ്കൂളിൽ	15401
ക്കുവാന്‍	15402
തയ്യാറാകണം	15403
ക്രിസ്ത്യൻ	15404
ങ്ങളിലെല്ലാം	15405
അധ്യക്ഷതയില്‍	15406
രക്ഷപ്പെടാന്‍	15407
രജിസ്ട്രേഷൻ	15408
ചിഹ്നം	15409
മനോഹര	15410
കൈവശമുള്ള	15411
ഹോസ്പിറ്റല്‍	15412
ഛത്തീസ്ഗഡ്	15413
വിശദാംശങ്ങൾ	15414
ആധിപത്യം	15415
ക്വട്ടേഷന്‍	15416
പുടിന്‍	15417
[...]
