[UNK]	0
[CLS]	1
[SEP]	2
[PAD]	3
[MASK]	4
!	5
"	6
#	7
$	8
%	9
&	10
'	11
(	12
)	13
*	14
+	15
,	16
-	17
.	18
/	19
0	20
1	21
2	22
3	23
4	24
5	25
6	26
7	27
8	28
9	29
:	30
;	31
<	32
=	33
>	34
?	35
@	36
[	37
\	38
]	39
_	40
`	41
a	42
b	43
c	44
d	45
e	46
f	47
g	48
h	49
i	50
j	51
k	52
l	53
m	54
n	55
o	56
p	57
q	58
r	59
s	60
t	61
u	62
v	63
w	64
x	65
y	66
z	67
{	68
}	69
	70
£	71
¥	72
°	73
·	74
×	75
â	76
ñ	77
ڇ	78
ڈ	79
ډ	80
ं	81
अ	82
आ	83
इ	84
ए	85
औ	86
क	87
ग	88
च	89
ज	90
ट	91
ठ	92
ण	93
त	94
थ	95
द	96
ध	97
न	98
प	99
ब	100
भ	101
म	102
य	103
र	104
ल	105
व	106
श	107
ष	108
स	109
ह	110
ा	111
ि	112
ी	113
े	114
ो	115
ौ	116
्	117
।	118
ং	119
ব	120
ল	121
া	122
அ	123
ஆ	124
க	125
ச	126
ட	127
ண	128
த	129
ன	130
ப	131
ம	132
ய	133
ல	134
வ	135
ி	136
ீ	137
ு	138
ெ	139
ை	140
்	141
ം	142
ഃ	143
അ	144
ആ	145
ഇ	146
ഈ	147
ഉ	148
ഊ	149
ഋ	150
ഌ	151
എ	152
ഏ	153
ഐ	154
ഒ	155
ഓ	156
ഔ	157
ക	158
ഖ	159
ഗ	160
ഘ	161
ങ	162
ച	163
ഛ	164
ജ	165
ഝ	166
ഞ	167
ട	168
ഠ	169
ഡ	170
ഢ	171
ണ	172
ത	173
ഥ	174
ദ	175
ധ	176
ന	177
പ	178
ഫ	179
ബ	180
ഭ	181
മ	182
യ	183
ര	184
റ	185
ല	186
ള	187
ഴ	188
വ	189
ശ	190
ഷ	191
സ	192
ഹ	193
ാ	194
ി	195
ീ	196
ു	197
ൂ	198
ൃ	199
െ	200
േ	201
ൈ	202
ൊ	203
ോ	204
ൌ	205
്	206
ൗ	207
ൡ	208
൦	209
൪	210
൯	211
ൺ	212
ൻ	213
ർ	214
ൽ	215
ൾ	216
ൿ	217
‌	218
‍	219
‐	220
‟	221
•	222
′	223
⁄	224
€	225
₹	226
⃣	227
∙	228
▪	229
◼	230
◾	231
♀	232
♥	233
✌	234
✨	235
❓	236
❤	237
➡	238
⬛	239
ブ	240
ム	241
ラ	242
ル	243
ー	244
南	245
容	246
湘	247
美	248
	249
︎	250
️	251
🌹	252
🎖	253
🏻	254
🐟	255
👇	256
👉	257
👌	258
👏	259
💎	260
💚	261
🔘	262
🔥	263
🔸	264
🖤	265
🗃	266
😄	267
😍	268
😘	269
🙄	270
🙏	271
🚩	272
🤔	273
🤝	274
🤣	275
🤦	276
🥛	277
🥦	278
##ി	279
##വ	280
##ല	281
##ം	282
##ഗ	283
##ഷ	284
##ട	285
##്	286
##ാ	287
##സ	288
##ഥ	289
##ത	290
##ര	291
##യ	292
##ു	293
##റ	294
##ന	295
##‍	296
##ോ	297
##പ	298
##ഹ	299
##മ	300
##ണ	301
##ക	302
##െ	303
##ആ	304
##േ	305
##ൃ	306
##ള	307
##8	308
##‌	309
##ദ	310
##ധ	311
##ച	312
##3	313
##ൽ	314
##ബ	315
##ൻ	316
##ങ	317
##ീ	318
##r	319
##c	320
##ശ	321
##ർ	322
##ഖ	323
##ൂ	324
##ൗ	325
##ഘ	326
##എ	327
##ഴ	328
##ജ	329
##ൊ	330
##6	331
##ൈ	332
##ൾ	333
##ഡ	334
##ഭ	335
##ഞ	336
##ഫ	337
##ഐ	338
##9	339
##4	340
##ൺ	341
##e	342
##m	343
##i	344
##a	345
##t	346
##s	347
##d	348
##w	349
##2	350
##1	351
##0	352
##n	353
##l	354
##ഛ	355
##ഠ	356
##g	357
##o	358
##′	359
##u	360
##ഃ	361
##7	362
##h	363
##f	364
##5	365
##k	366
##v	367
##ൌ	368
##ഉ	369
##അ	370
##y	371
##j	372
##p	373
##ഓ	374
##南	375
##美	376
##容	377
##ഇ	378
##ഢ	379
##b	380
##"	381
##z	382
##൪	383
##.	384
##ा	385
##इ	386
##क	387
##ഈ	388
##ब	389
##स	390
##े	391
##🏻	392
##ഒ	393
##ि	394
##्	395
##ष	396
##ൡ	397
##व	398
##य	399
##ڈ	400
##q	401
##-	402
##>	403
##া	404
##ং	405
##ল	406
##?	407
##_	408
##൦	409
##@	410
##,	411
##💎	412
##â	413
##x	414
##ह	415
##त	416
##र	417
##ண	418
##்	419
##ட	420
##ி	421
##ன	422
##அ	423
##த	424
##க	425
##/	426
##£	427
##ഊ	428
##ौ	429
##ी	430
##श	431
##;	432
##ഏ	433
##ഝ	434
##थ	435
##ट	436
###	437
##ൿ	438
##൯	439
##ெ	440
##ய	441
##ப	442
##)	443
##!	444
##ഌ	445
##द	446
##ल	447
##'	448
##प	449
##न	450
##️	451
##⃣	452
##ñ	453
##म	454
##भ	455
##ग	456
##ഋ	457
##🐟	458
##ை	459
##:	460
##*	461
##👌	462
##ण	463
##😍	464
##ठ	465
##ं	466
##ध	467
##ए	468
##🤝	469
##$	470
##=	471
##🌹	472
##ो	473
##ー	474
##ム	475
##ブ	476
##ラ	477
##ு	478
##வ	479
##ீ	480
##ډ	481
##ज	482
##😘	483
##👏	484
##ന്	485
##ക്	486
##ത്	487
##്‍	488
##ന്ന	489
##ില	490
##ക്ക	491
##്ട	492
##ത്ത	493
##ും	494
##ിയ	495
##്ര	496
##ര്‍	497
##്യ	498
##ച്	499
##ുന്ന	500
##്പ	501
##ായ	502
##ട്ട	503
##ാണ	504
##രി	505
##പ്പ	506
##ങ്	507
##റ്	508
##സ്	509
##ാണ്	510
##ച്ച	511
##ില്‍	512
##തി	513
##ണ്ട	514
##ങ്ങ	515
##്ല	516
പ്ര	517
##ടെ	518
##ായി	519
##ന്‍	520
##ാന	521
##രു	522
##ിക്ക	523
##ുക	524
##ിന്	525
##ള്‍	526
##റ്റ	527
വി	528
##ഞ്	529
##ിച്ച	530
##ല്‍	531
##്ള	532
##രുന്ന	533
##ിൽ	534
##ള്ള	535
##ാര	536
##ക്ക്	537
സ്	538
##ടു	539
##റെ	540
##ുമ	541
ക്	542
##ന്ന്	543
##െയ	544
##ഞ്ഞ	545
##ിക	546
##ക്ഷ	547
##െന്ന	548
##ിന	549
നി	550
എന്ന	551
##ുള്ള	552
##ുടെ	553
##രുന്നു	554
കോ	555
ക്ക	556
##ല്ല	557
##ത്ര	558
##ദ്	559
മാ	560
##ില്ല	561
ത്	562
സം	563
##ണ്ട്	564
മു	565
##വി	566
##ദേ	567
പറ	568
##ാല	569
##രിക്ക	570
##ാക്ക	571
##പ്പെ	572
##ിലെ	573
നട	574
##ാര്‍	575
രാ	576
പി	577
നേ	578
കേ	579
##ങ്ങള	580
ചെയ	581
പോ	582
##ാന്‍	583
##ടി	584
കു	585
##്മ	586
കൊ	587
##ാവ	588
##ിന്റെ	589
##ങ്ക	590
##ന്ത്	591
##ണം	592
##ുന്നത്	593
##ോഗ	594
##ിവ	595
##ത്ത്	596
##െന്ന്	597
തി	598
##േഷ	599
##ണ്	600
##രെ	601
##ച്ച്	602
##മ്മ	603
##സി	604
സ്വ	605
##ട്	606
പു	607
##സ്ഥ	608
##ുവ	609
##െന്നും	610
##്യാ	611
സാ	612
##ദേശ	613
##ടുത്ത	614
##ങ്ങള്‍	615
ഒരു	616
##ംഗ	617
##രാ	618
##യും	619
##ത്തില്‍	620
##റ്റ്	621
##ന്ദ	622
##ണ്‍	623
##ായിരുന്നു	624
##മ്പ	625
##ിപ്പ	626
##ഡ്	627
##്യമ	628
##ുണ്ട്	629
##ത്തെ	630
അവ	631
ബി	632
കൂ	633
സി	634
##ന്ത	635
പറഞ്ഞ	636
##ട്ട്	637
##പി	638
##യം	639
##ാർ	640
പേ	641
തു	642
##ിലും	643
##ത്തിയ	644
##രിച്ച	645
##തിയ	646
##റി	647
##ിക്കുന്ന	648
##ഗ്ര	649
സ്ഥ	650
കള	651
##രം	652
##തമ	653
##റിയ	654
##ട്ടി	655
പ്രതി	656
##നി	657
##ാം	658
സമ	659
##തു	660
##ീക	661
##ാൻ	662
##ന്ധ	663
##വാ	664
##ഴി	665
##ിച്ചു	666
##െടു	667
അത	668
##്യം	669
##വും	670
വീ	671
##ന്റെ	672
##ത്തി	673
##ാല്‍	674
ചെയ്	675
##യാണ്	676
##സ്ഥാന	677
പരി	678
##ിട്ട	679
##ന്ദ്ര	680
##ന്ത്രി	681
##ിരുന്നു	682
##ശ്	683
വാ	684
##ര്‍ക്ക	685
കാര	686
##ാക	687
##ുകള	688
രാജ	689
ത്ത	690
##നം	691
തുട	692
നേത	693
ങ്	694
##യില്‍	695
തന്ന	696
##ങ്ങൾ	697
##ദ്ധ	698
##ിലേ	699
സു	700
##ഴ്	701
വെ	702
##മായ	703
ങ്ങ	704
പ്രവ	705
##തിന	706
##മായി	707
##ിനെ	708
യും	709
പറഞ്ഞു	710
വേ	711
വ്യ	712
##മാണ്	713
യു	714
പറയ	715
##ദേഹ	716
##യ്	717
പോല	718
കെ	719
##ടിയ	720
##ാത	721
##പ്പെട്ട	722
ചെയ്യ	723
##ത്തിൽ	724
നിന്ന	725
##ഷ്ട	726
അന	727
##ാഗ	728
##ോടെ	729
നിയ	730
##രണ	731
##ദ്ദേഹ	732
##ദ്യ	733
##ക്ര	734
ഇത	735
##ക്തമ	736
##പ്പ്	737
സംസ്ഥാന	738
##ല്‍ക	739
##ഫ്	740
##ത്യ	741
##ീസ്	742
തന്നെ	743
നില	744
നല്‍ക	745
##ുകള്‍	746
##ുന്നു	747
##ാമ	748
ജില്ല	749
##രള	750
ആര	751
##ര്‍ത്ത	752
##രഞ്ഞ	753
എം	754
##ത്തിന്	755
##മാന	756
അദ്ദേഹ	757
##പ്പോ	758
##ഡി	759
##ൂര്‍	760
##റ്റി	761
തീ	762
കോണ്‍	763
##രുടെ	764
##ജെ	765
20	766
##സം	767
##ുമായി	768
##ലി	769
##െങ്ക	770
പൊ	771
##ർക്ക	772
##ിന്ന്	773
##ോട്	774
##പ്ര	775
##രഞ്ഞെടു	776
##ിലേക്ക്	777
നിന്ന്	778
##ഴിഞ്ഞ	779
##ാള	780
##ോട്ട	781
##ന്ത്യ	782
##കള	783
##പ്	784
##ോധ	785
കോണ്‍ഗ്ര	786
ജന	787
##വ്	788
##യി	789
ശ്ര	790
##നെ	791
##ണമ	792
##ിയുടെ	793
##ണ്ണ	794
##ോദ	795
കേരള	796
##ത്സ	797
സാധ	798
ങ്ങള	799
ഉണ്ട	800
##ിലാണ്	801
##ഞ്ച	802
##ുപ	803
രൂ	804
ഇന്ത്യ	805
##ധി	806
##ീയ	807
##ികള	808
ബിജെ	809
ലഭ	810
ആവ	811
ജോ	812
കഴിഞ്ഞ	813
സെ	814
ിട്ട	815
പുറ	816
##തിന്	817
##ത്തിന്റെ	818
കാ	819
##മി	820
അറിയ	821
##ജി	822
കുറ	823
##െന്നാണ്	824
കേന്ദ്ര	825
പ്പ	826
ന്	827
##യുടെ	828
##ണി	829
##സമ	830
മുഖ	831
##ന്ത്ര	832
മൂ	833
മേ	834
##ജ്	835
##ിനി	836
അതേ	837
നിയമ	838
തെ	839
##നാ	840
##ിച്ചത്	841
##രും	842
രൂപ	843
മാത്ര	844
വര്‍	845
##ത്ഥ	846
സീ	847
നിര	848
അധ	849
##ധാന	850
ഡി	851
##ഷ്	852
ആവശ	853
ബാ	854
ദിവ	855
##മു	856
പിന്ന	857
##ാട	858
##കു	859
തിരഞ്ഞെടു	860
##ാരി	861
##ാൽ	862
സംഘ	863
##ലിയ	864
കണ്ട	865
##പ്പെടുത്ത	866
ഇട	867
##ക്കുന്ന	868
##്യാപ	869
എല്ല	870
##സ്റ്റ	871
##തിരെ	872
##വന	873
##ുകയാണ്	874
വിജ	875
##ർത്ത	876
##ഭവ	877
വന്ന	878
##സമയം	879
##വിഡ്	880
അദ്ദേഹം	881
##യിൽ	882
##ാത്ത	883
രോഗ	884
ആശ	885
##േണ്ട	886
##00	887
മുന്ന	888
വ്യക്തമ	889
അതേസമയം	890
സ്വദേശ	891
##ീക്ഷ	892
##ാക്കി	893
എന്നാല്‍	894
ലോ	895
വൈ	896
കേസ	897
പെ	898
##സഭ	899
സര്‍ക്ക	900
##ീസ	901
##ത്വ	902
##ളി	903
##ിപ്പോ	904
യാണ്	905
##ക്കും	906
##ുകയും	907
##ിട്ടുണ്ട്	908
ഉപ	909
##ുകൾ	910
##ികള്‍	911
##ാക്കിയ	912
നിര്‍	913
##്യൂ	914
ശേഷ	915
രാജ്യ	916
##ന്റ	917
അഭ	918
##മാ	919
എന്ന്	920
സ്ഥാന	921
ലക്ഷ	922
ഇവ	923
മുഖ്യമ	924
##കള്‍	925
റിപ്പോ	926
##ുമ്പ	927
ഇത്	928
##ുണ്ട	929
നീ	930
വലിയ	931
##ോപ	932
നടത്ത	933
ബന്ധ	934
##കാര	935
കാണ	936
##ഷ്ട്ര	937
പാര്‍	938
##ന്റ്	939
##ഗ്	940
സഹ	941
എന്നിവ	942
##ിച്ച്	943
##ര്യ	944
##ിരിക്ക	945
##ാതെ	946
##മേ	947
##രുമാന	948
ത്തി	949
##ൊരു	950
മന്ത്രി	951
പരാ	952
##ീകരിച്ച	953
##പു	954
ക്ക്	955
##ോള	956
നൽ	957
##പ്പെട	958
നൽക	959
##ങ്ങിയ	960
മെ	961
ഏറ്റ	962
ിരിക്ക	963
##ിയില്‍	964
എസ്	965
##ക്‌	966
ചെയ്ത	967
തിരു	968
യുടെ	969
പരിശ	970
ബിജെപി	971
##ൂർ	972
ജീ	973
##ിലുള്ള	974
വില	975
##തല്‍	976
##ഴ്ച	977
ഇപ്പോ	978
വർ	979
##ഷ്യ	980
നിന്നും	981
കൊണ്ട	982
##ബ്	983
ില്ല	984
സംഭവ	985
മത്സ	986
##യിലെ	987
##ിര	988
വര	989
കോണ്‍ഗ്രസ്	990
##വേഷ	991
##ാറ	992
##ടക്ക	993
മോ	994
##െയാണ്	995
നടത്തിയ	996
കൂടു	997
##ോട	998
കാല	999
##്യത	1000
##പക്ഷ	1001
അപ	1002
##ഡിയ	1003
അതി	1004
##ക്കെ	1005
ചി	1006
യ്	1007
ചേ	1008
##സ്റ്റ്	1009
പ്രവര്‍ത്ത	1010
##ാട്	1011
##ക്ട	1012
##സ്‌	1013
##ുകയ	1014
##േശ	1015
ഉയ	1016
സൂ	1017
കാര്യ	1018
##രണം	1019
##ലം	1020
അന്	1021
കോട	1022
മന	1023
യാ	1024
##ൂടെ	1025
##ാപ	1026
ഗ്ര	1027
സുര	1028
വരെ	1029
പ്രധാന	1030
##പ്പു	1031
##ിക്കും	1032
##ഡിഎ	1033
ഭാഗ	1034
##ിയെ	1035
അത്	1036
പര	1037
തീരുമാന	1038
കഴ	1039
പരിശോധ	1040
പങ്ക	1041
ചെ	1042
ആവശ്യ	1043
##ക്കാര	1044
വിജയ	1045
നേതാക്ക	1046
##ര്‍ന്ന	1047
##ങ്ങളുടെ	1048
##െടുത്ത	1049
##ണ്ഡ	1050
##ാനുള്ള	1051
തോ	1052
##ന്നും	1053
ഇത്ത	1054
##വിടെ	1055
##ങ്ങളില്‍	1056
വേണ്ട	1057
##ാവ്	1058
##ംഗ്	1059
സർക്ക	1060
പേര്‍	1061
നേര	1062
കൈ	1063
കോൺ	1064
ട്ര	1065
##ത്തിലെ	1066
മുഖ്യമന്ത്രി	1067
##ക്രമ	1068
##െങ്കിലും	1069
രണ്ട്	1070
##ദി	1071
നടപ	1072
##ിക്കുന്നത്	1073
),	1074
##ഷേ	1075
##ിലൂടെ	1076
##ത്തു	1077
രണ്ട	1078
##ക്കി	1079
മല	1080
പല	1081
##ഹി	1082
കട	1083
രാഷ്ട്ര	1084
ഇന്ന്	1085
നേതൃ	1086
പുതിയ	1087
അന്വേഷ	1088
യോഗ	1089
ചോദ	1090
..	1091
##ര്‍ച്ച	1092
ക്ര	1093
പേര	1094
##ോള്‍	1095
പോക	1096
നാ	1097
തൊ	1098
പാല	1099
യെ	1100
##ുംബ	1101
ജെ	1102
##യ്ക്ക്	1103
ശേഷം	1104
കി	1105
##ങ്ങളും	1106
സ്‌	1107
ശ്രമ	1108
##ാനം	1109
##ോണ	1110
എന്നാണ്	1111
##ന്തപു	1112
മറ്റ	1113
ചില	1114
നേതൃത്വ	1115
ആശുപ	1116
##ിയും	1117
പറയുന്നു	1118
പോലീസ്	1119
കോൺഗ്ര	1120
വിവ	1121
നല്‍കിയ	1122
മാറ്റ	1123
തിന	1124
തിരുവന	1125
##ബന്ധ	1126
അധിക	1127
തിരുവനന്തപു	1128
##ക്കു	1129
അവസ	1130
##ത്രി	1131
നടന്ന	1132
പാർ	1133
##ാസ	1134
##വണ	1135
നിർ	1136
##ൈന	1137
സ്ഥിര	1138
സൗ	1139
ടി	1140
എല്ലാ	1141
ആണ്	1142
##യോഗ	1143
കണ്ണ	1144
##ാണെന്ന്	1145
##േഖ	1146
##ോട്ട്	1147
##പ്പം	1148
വയ	1149
സ്റ്റ	1150
##സാ	1151
ഉറ	1152
സാഹ	1153
##േയും	1154
ത്തിന	1155
ഏറ്റവും	1156
##കൾ	1157
##ാനും	1158
പ്രഖ	1159
സീറ്റ	1160
അംഗ	1161
##ബി	1162
തിരഞ്ഞെടുപ്പ	1163
ക്കും	1164
##ഭാഗ	1165
കമ്മ	1166
##ീപ	1167
വള	1168
ഗു	1169
മണ്ഡ	1170
##യെ	1171
##ര്‍ശ	1172
##േറ്റ	1173
അഭി	1174
##ഹു	1175
##ികൾ	1176
തിരിച്ച	1177
മറ	1178
ചെയ്തു	1179
കോണ്‍ഗ്രസ	1180
ആരോപ	1181
##ഖല	1182
വോട്ട	1183
##ാരണ	1184
ിക്ക	1185
മണ	1186
##ിക്കാന്‍	1187
##ാസ്	1188
സ്വദേശി	1189
സാഹച	1190
പൊല	1191
##ളം	1192
##ുമെന്ന്	1193
##ദ്യോഗ	1194
തൃ	1195
വകു	1196
##ക്ഷേ	1197
രംഗ	1198
പ്രതിക	1199
അറ	1200
##വര്‍	1201
ദു	1202
റിപ്പോര്‍	1203
ദിവസ	1204
സര്‍ക്കാര്‍	1205
ഉത്ത	1206
ിരുന്നു	1207
##കര	1208
##ീഷ	1209
##െയും	1210
മേഖല	1211
##വേ	1212
##ാര്‍ത്ഥ	1213
തല	1214
കുട	1215
##ോഗ്യ	1216
##ാശ	1217
##ങ്ങനെ	1218
ഡോ	1219
##െതിരെ	1220
എത്ത	1221
19	1222
കൊവിഡ്	1223
ശതമ	1224
ദിവസം	1225
##ുകയായിരുന്നു	1226
പ്രഖ്യാപ	1227
##ക്തി	1228
പദ്ധ	1229
സിപി	1230
##മെ	1231
കണ്ടെ	1232
ആയ	1233
##സ്ത	1234
ചിത്ര	1235
##എം	1236
##റു	1237
രാഷ്ട്രീയ	1238
##ടന	1239
പിട	1240
##ഷം	1241
##തൽ	1242
നോ	1243
എന്ത	1244
കൂട്ട	1245
വിവാ	1246
എന്നും	1247
വീട്ട	1248
സാധ്യത	1249
നേരത്തെ	1250
201	1251
യില്‍	1252
കോവിഡ്	1253
തിരുവനന്തപുരം	1254
##ദ്ദേശ	1255
##കെ	1256
നിലവ	1257
##ങ്ങളെ	1258
##രുന്നത്	1259
##സ്സ	1260
##മുള്ള	1261
അനു	1262
##േക്ഷ	1263
നേരി	1264
രാഹു	1265
ജയ	1266
##തം	1267
##ങ്ങി	1268
ജില്ലാ	1269
എന്നാൽ	1270
ബോ	1271
പ്രവർത്ത	1272
സമ്പ	1273
കുമ	1274
റോ	1275
##ാണെന്നും	1276
പിന്	1277
##ളള	1278
ശക്തമ	1279
##ാരം	1280
വിഭാഗ	1281
വിഷ	1282
##എസ്	1283
10	1284
സമ്മ	1285
##ീകരിക്ക	1286
പ്രസി	1287
ുണ്ട	1288
##ഞ്ച്	1289
##ന്നു	1290
##േന്ദ്ര	1291
##യാള	1292
പ്രച	1293
കുടുംബ	1294
ഓഫ	1295
ചെയ്തി	1296
##ൂര	1297
വിദ	1298
എത്തിയ	1299
യുവ	1300
##തല	1301
##താണ്	1302
##ബു	1303
##ുമായ	1304
ല്‍	1305
##േരി	1306
നാല	1307
പ്രശ്	1308
##ുകൊ	1309
##േഷ്	1310
ഒഴ	1311
##േക്ക്	1312
ആരോഗ്യ	1313
ബിജെപ	1314
##ടുക്ക	1315
മീ	1316
മുന്‍	1317
തയ	1318
യാത്ര	1319
കൂടി	1320
##മന്ത്രി	1321
സ്ഥിരീകരിച്ച	1322
ജി	1323
മൊ	1324
ഹൈ	1325
##ിക്കുക	1326
മണ്ഡല	1327
##െങ്കില്‍	1328
താ	1329
വിമ	1330
##രിയ	1331
പഞ്ച	1332
##ിട	1333
ആള	1334
##ലെ	1335
പ്രത്യ	1336
##സഭാ	1337
ഗാ	1338
ഇല്ല	1339
##ായിരുന്ന	1340
എന്‍	1341
##െയ്	1342
##രിച്ച്	1343
ഭൂ	1344
കഴിയ	1345
മി	1346
ആദ	1347
പാ	1348
##രിക്കും	1349
##വിധ	1350
##ീം	1351
കൃ	1352
##ക്ത	1353
##ാഴ്ച	1354
സ്ഥാപ	1355
പിന്തു	1356
##ൊപ്പം	1357
മൂന്ന്	1358
കൊണ്ട്	1359
ഇറ	1360
##ല്ലാം	1361
സെക്ര	1362
ഉള്ള	1363
കൂടുതല്‍	1364
സെക്രട്ട	1365
ഉപയോഗ	1366
##ുമാണ്	1367
##ട്ര	1368
##ിച്ചിരുന്നു	1369
##ൃത	1370
അയ	1371
വിശ	1372
##ഷേധ	1373
പ്രസിഡ	1374
ഉദ്യോഗ	1375
കരു	1376
അടുത്ത	1377
##നും	1378
##കര്‍	1379
തുടങ്ങിയ	1380
##ള്ളി	1381
##ംബ	1382
ഭരണ	1383
തൊഴ	1384
ഒന്ന	1385
##ർച്ച	1386
കണ	1387
അടി	1388
##വാസ	1389
##തീക്ഷ	1390
രോഗം	1391
##ധ്യമ	1392
യൂ	1393
സിനി	1394
നെ	1395
തയ്യാ	1396
സര്‍	1397
##താ	1398
സോ	1399
##കം	1400
ഗാന്ധ	1401
ആര്‍	1402
താണ്	1403
##ിരിക്കുന്നത്	1404
പിന്നാല	1405
ചെയ്യുന്ന	1406
ടെ	1407
സാഹചര്യ	1408
##ങ്ങളിൽ	1409
തിരഞ്ഞെടുപ്പ്	1410
പോലും	1411
##ൂല	1412
##ര്‍ന്ന്	1413
##ുമെന്നും	1414
അറിയിച്ചു	1415
തട	1416
ആല	1417
##ോൾ	1418
##രംഭ	1419
വ്യക്തമാക്കി	1420
മോദ	1421
ബാധ	1422
പൂ	1423
മഹ	1424
ഉള്‍	1425
കൊല്ല	1426
പരിശോധന	1427
##ചന	1428
പ്രക	1429
വും	1430
##ച്ചു	1431
##്യക്ഷ	1432
ചിക	1433
കോടി	1434
##ച്ചി	1435
##ുള്ളത്	1436
##ത്തിലാണ്	1437
202	1438
എല്‍	1439
ആയി	1440
സർക്കാർ	1441
പറയുന്നത്	1442
##ൂഹ	1443
ആദ്യ	1444
കയ	1445
ഇവിടെ	1446
ച്	1447
##പ്പെടുത്തിയ	1448
കോഴ	1449
അട	1450
പിന്തുണ	1451
സമയ	1452
##നിക്ക്	1453
നീക്ക	1454
കോടതി	1455
##‌ന	1456
##ത്തിന	1457
ഫോ	1458
##ർശ	1459
കോള	1460
##ക്ഷി	1461
##ട്ടു	1462
12	1463
##ാള്‍	1464
പുറത്ത	1465
റെ	1466
പ്രതിപക്ഷ	1467
ുവ	1468
കൂട	1469
ട്ട	1470
##കൂ	1471
മാധ്യമ	1472
##ശ്ച	1473
വരു	1474
##ഴ്‌	1475
പാര്‍ട്ടി	1476
##ട്ടിയ	1477
സ്ത്ര	1478
##ർന്ന	1479
റ്	1480
##റിച്ച്	1481
പൊലീസ്	1482
ചികി	1483
##തിര	1484
പോയ	1485
സംബന്ധ	1486
11	1487
തയ്യാറ	1488
15	1489
##ുകളും	1490
സാമ്പ	1491
##യുള്ള	1492
റി	1493
##ാനാണ്	1494
മുണ്ട	1495
യുഡിഎ	1496
ചികിത്സ	1497
കോൺഗ്രസ്	1498
വിള	1499
പരാതി	1500
##ശ്വ	1501
നമ്മ	1502
ചര്‍ച്ച	1503
റിപ്പോർ	1504
മുതല്‍	1505
ഭാര	1506
യായിരുന്നു	1507
##പെ	1508
##ദ്ദ	1509
പ്രത്യേ	1510
കല	1511
ദേശ	1512
പട്ട	1513
##ൊക്കെ	1514
##പ്പി	1515
കുറ്റ	1516
ആക്രമ	1517
വാര്‍	1518
##ണമെന്ന്	1519
നിലപ	1520
...	1521
##ാകും	1522
ഇപ്പോള്‍	1523
പ്രതീക്ഷ	1524
അവര്‍	1525
കോഴിക്ക	1526
##സിന	1527
##ഞ്ഞ്	1528
തുറ	1529
പ്രദേശ	1530
വിമാന	1531
ഇതുവ	1532
അവസാന	1533
ഇതി	1534
കുട്ട	1535
ാണ്	1536
അധ്യക്ഷ	1537
മാണ്	1538
##ാധ	1539
##ഷ്ണ	1540
കാരണം	1541
വ്യാപ	1542
ലീ	1543
##പ്പെടെ	1544
പദ്ധതി	1545
ആരംഭ	1546
വേണ്ടി	1547
മാന	1548
ഇതിന	1549
##ന്തര	1550
മറ്റ്	1551
തേ	1552
മണിക്ക	1553
പ്രതിഷേധ	1554
മുമ്പ	1555
##സ്പ	1556
##പ്പിച്ച	1557
##ോഷ	1558
വീണ്ട	1559
##േഷന്‍	1560
##ിക്കുന്നു	1561
ആശുപത്ര	1562
##ാണി	1563
രീ	1564
മാത്രം	1565
ഉദ്യോഗസ്ഥ	1566
ചൂ	1567
മുൻ	1568
ബു	1569
ജീവി	1570
നടക്ക	1571
##തിയില്‍	1572
##ുകളില്‍	1573
##ങ്ങള്‍ക്ക്	1574
വിദ്യാ	1575
നഗ	1576
##കാശ	1577
ക്കു	1578
##ന്യ	1579
ഇരു	1580
##ികളെ	1581
##ികളുടെ	1582
തന്റെ	1583
ലോക	1584
##ിയിൽ	1585
##ഗണ	1586
നൽകിയ	1587
യിൽ	1588
നേതാക്കള	1589
ഉത്തര	1590
##ണറ	1591
സിനിമ	1592
കര്‍	1593
മരണ	1594
എംഎ	1595
അടക്ക	1596
ഒരാ	1597
##ിക്കാ	1598
##ായത്	1599
##ഴും	1600
അതിന	1601
##രിക്കുന്ന	1602
ഒഴിവ	1603
ഇതോടെ	1604
##ൂറ	1605
ും	1606
##ിക്കാൻ	1607
ശതമാനം	1608
യോ	1609
വഴി	1610
കമ്പ	1611
ിട്ടുണ്ട്	1612
##നു	1613
റിപ്പോര്‍ട്ട്	1614
കോഴിക്കോട്	1615
ജോലി	1616
##ജീ	1617
അനുവ	1618
ഓഫീസ	1619
##തായി	1620
പ്രധാനമന്ത്രി	1621
കോട്ട	1622
ലെ	1623
രാശ	1624
##ാലി	1625
പിന്നീ	1626
ലഭിച്ച	1627
മായി	1628
സേ	1629
ന്യൂ	1630
വീണ്ടും	1631
സമീപ	1632
##യ്ക്ക	1633
പ്രത്യേക	1634
പൂര്‍	1635
##വധി	1636
ലക്ഷം	1637
ച്ച	1638
ഇതുവരെ	1639
##തോടെ	1640
നേതാവ്	1641
ഉന്ന	1642
##ാദ	1643
ഇക്കാര	1644
##ഡിയോ	1645
രേഖ	1646
##ഴു	1647
മരിച്ച	1648
നിന്നുള്ള	1649
അപേക്ഷ	1650
കള്‍	1651
ദേശീയ	1652
##നായ	1653
ദില്ല	1654
##ഷക	1655
വൈറ	1656
##ർക്ക്	1657
ക്ല	1658
ശ്രീ	1659
നിരീക്ഷ	1660
തിന്	1661
സെക്രട്ടറി	1662
##രോ	1663
##പ്പെട്ടു	1664
ലി	1665
ഇവര്‍	1666
##ിതി	1667
##ോളം	1668
കിട്ട	1669
ഇന്ന	1670
നിരവധി	1671
##ലും	1672
##ിപ്പ്	1673
വിവിധ	1674
ിരുന്ന	1675
നല്ല	1676
##ാനി	1677
വിവര	1678
സർ	1679
##ുമെന്ന	1680
വിഷയ	1681
ഉട	1682
ഇത്തവണ	1683
അല്ല	1684
നഷ്ട	1685
##കാരം	1686
യിലെ	1687
ായ	1688
##നിയ	1689
ശ്രദ്ധ	1690
ബ്ര	1691
##ട്ടം	1692
മെഡ	1693
30	1694
##ൻ്	1695
മിക	1696
യ്ക്ക്	1697
സംസ്ഥാനത്ത്	1698
ഉറപ്പ	1699
തര	1700
സംസാ	1701
നടപടി	1702
സഖ	1703
ക്യാ	1704
##പ്പെട്ട്	1705
വര്‍ഷ	1706
##മാര	1707
##പ്പെടുന്ന	1708
അനുവദ	1709
##ക്കിയ	1710
തും	1711
##നാട്	1712
##േജ	1713
ഉൾ	1714
24	1715
വളരെ	1716
ഞാന്‍	1717
##േക്ക	1718
ല്ല	1719
വരുന്ന	1720
മുസ്	1721
##വിട	1722
വെള്ള	1723
##്വ	1724
##ത്തിക	1725
പിന്നാലെ	1726
ഇനി	1727
##പര	1728
വകുപ്പ്	1729
ജില്ലയില്‍	1730
പിന്നീട്	1731
മാര	1732
14	1733
##ുമെന്നാണ്	1734
വാഹ	1735
ഗോ	1736
എന്നി	1737
##ദം	1738
##ത്തില	1739
മാത്രമാണ്	1740
##മുഖ	1741
ത്തിന്റെ	1742
പഠ	1743
പിണറ	1744
മെഡിക്ക	1745
##ണമെന്നും	1746
ഹൈക്ക	1747
പഞ്ചായ	1748
വരും	1749
##റും	1750
സ്വന്ത	1751
നില്‍	1752
തെള	1753
പ്രവേശ	1754
##ായം	1755
താര	1756
##ണമെന്ന	1757
ഇതിന്	1758
##ിയായ	1759
സര്‍ക്കാരി	1760
മാര്‍	1761
അന്വേഷണ	1762
##ഷണ	1763
മാസ	1764
മഴ	1765
##രോധ	1766
സ്ഥാപന	1767
പൊതു	1768
##ന്‍റെ	1769
മലയാള	1770
തുടര്‍ന്ന്	1771
##പ്പെടുത്തി	1772
##ത്തും	1773
കമ്മി	1774
ന്‍	1775
സൈ	1776
കേസ്	1777
മോദി	1778
##ദു	1779
13	1780
വിക	1781
##ുകൊണ്ട്	1782
തൊഴില	1783
കണക്ക	1784
##ായക	1785
ലൈ	1786
ആശുപത്രി	1787
വീട	1788
##ക്യ	1789
മായ	1790
##ധ്യ	1791
##മല്ല	1792
##ാക്കുന്ന	1793
ചൂണ്ട	1794
പിണറായി	1795
ിട്ടില്ല	1796
വിദേശ	1797
ണ്ട	1798
##ത്മ	1799
##്യമായ	1800
25	1801
അവരുടെ	1802
നേതാവ	1803
സാമ്പത്തിക	1804
വൈക	1805
കൂടിയ	1806
##ടുവ	1807
വിശദ	1808
##ാർത്ഥ	1809
സംഘടന	1810
എഫ്	1811
തക	1812
രാഹുല്‍	1813
മൂന്ന	1814
ചോദ്യം	1815
##ശ്യ	1816
##ത്തിലുള്ള	1817
ചെയ്തത്	1818
##ിയിലെ	1819
18	1820
മന്ത്ര	1821
##ാലും	1822
##നിടെ	1823
സ്ഥല	1824
എല്ലാവ	1825
##ധിക	1826
വീഡിയോ	1827
സിപിഎം	1828
പാർട്ടി	1829
ആർ	1830
##കട	1831
##ദേശം	1832
നാട്ട	1833
അടിസ്ഥാന	1834
##ാണ്ട	1835
##െങ്കിൽ	1836
##ുമ്പോള്‍	1837
##വർ	1838
##േറ്റ്	1839
നയ	1840
കൊറ	1841
പരിഹ	1842
െന്ന	1843
അമേ	1844
പറഞ്ഞത്	1845
ചോ	1846
സന്ദ	1847
പാര്‍ട്ട	1848
ശക്തമായ	1849
പോലീസ	1850
രക്ഷ	1851
##ന്നി	1852
##ക്ടര്‍	1853
നഗര	1854
##െല്ലാം	1855
##ീന	1856
##പ്പോള്‍	1857
മികച്ച	1858
കൊറോണ	1859
##േസ്	1860
##ാടക	1861
##െടുക്ക	1862
നാല്	1863
ര്‍	1864
##ങ്കിലും	1865
##റം	1866
##ര്‍ക്കും	1867
##ജു	1868
പരിപ	1869
ത്തിന്	1870
ചുമ	1871
അഞ്ച്	1872
##കാര്യ	1873
ുണ്ട്	1874
മുതൽ	1875
ഗാന്ധി	1876
##ണ്ണം	1877
പരിഗണ	1878
##ഷന്‍	1879
ദേ	1880
##തെന്ന്	1881
##തര	1882
ജീവന	1883
##യോ	1884
##പ്പുഴ	1885
മറുപ	1886
നടപ്പ	1887
##ണാക	1888
ജില്ലകള	1889
എന്റെ	1890
പ്ല	1891
##ഞ്ഞു	1892
##ഗ്രഹ	1893
പണം	1894
ചൈന	1895
##ങ്ങന	1896
കൊല	1897
പക	1898
തിര	1899
ചെന്ന	1900
വിവരം	1901
##ുമതി	1902
##തീ	1903
വിവാഹ	1904
എൻ	1905
പക്ഷേ	1906
കര	1907
കൾ	1908
ബാല	1909
തവണ	1910
ഞാൻ	1911
##ിച്ചിട്ടുണ്ട്	1912
പുറത്ത്	1913
അമ്മ	1914
##ഷി	1915
തന്നെയാണ്	1916
തെരഞ്ഞെടു	1917
വ്യാ	1918
അമേരിക്ക	1919
##രുത്ത	1920
നേടിയ	1921
രാവ	1922
സമയം	1923
##രിപ്പ	1924
##ാരാ	1925
തമ്മ	1926
പത്ത	1927
ജാ	1928
ഷാ	1929
ിരിക്കുകയാണ്	1930
സ്വദേശിനി	1931
##ശ്വാസ	1932
##രിൽ	1933
##വുമായി	1934
##ക്കാട്	1935
ഗ്രൂ	1936
##ക്ഷേപ	1937
##ർന്ന്	1938
വാക്‌	1939
##ുളള	1940
ായിരുന്നു	1941
ശിവ	1942
തീരുമാനം	1943
##തെന്നും	1944
##മാര്‍	1945
പ്രസിഡന്റ്	1946
##ർത്ഥ	1947
ത്തെ	1948
##ീപ്	1949
പട്ടിക	1950
##റില്‍	1951
##ൻ്റെ	1952
16	1953
ഓരോ	1954
ിട്ടുണ്ട	1955
##ീവ്	1956
നേതാക്കള്‍	1957
യില	1958
##്‌	1959
##ശ്ശ	1960
സ്ഥാനാര്‍ത്ഥ	1961
സുപ്ര	1962
നടപട	1963
##തിയെ	1964
എറ	1965
അപകട	1966
##രിക	1967
കൂടുതൽ	1968
##സര്‍	1969
നടക്കുന്ന	1970
##തിയുടെ	1971
പ്രാ	1972
ദില	1973
സീറ്റ്	1974
##റോ	1975
##വ്വ	1976
##ണാകു	1977
എറണാകു	1978
##ടങ്ങ	1979
നിയന്ത്ര	1980
##ഹമ്മ	1981
17	1982
തായി	1983
കണ്ണൂര്‍	1984
ബെ	1985
വിധ	1986
മീഡിയ	1987
##ിരുന്ന	1988
തൃശ	1989
കമ	1990
അഭിപ്ര	1991
##ന്‍സ്	1992
നടത്തുന്ന	1993
പൂർ	1994
##ഭാ	1995
##ങ്ങളാണ്	1996
ഇടപെ	1997
വിദ്യ	1998
ക്കാന	1999
പേര്‍ക്ക്	2000
സോഷ്യ	2001
കീ	2002
##യായ	2003
##േണ്ടി	2004
സുരക്ഷ	2005
സ്വര്‍	2006
##ിനെതിരെ	2007
വ്യക്തി	2008
ജീവിത	2009
വോട്ട്	2010
##ത്തോടെ	2011
##ിട്ടില്ല	2012
നും	2013
സുധ	2014
##മെന്റ്	2015
കളും	2016
പ്പെ	2017
##ങ്ങൾക്ക്	2018
പ്രിയ	2019
##തും	2020
റിപ്പോർട്ട്	2021
നേരിട	2022
##ുകളുടെ	2023
പോലെ	2024
മുഖ്യമന്ത്ര	2025
വകുപ്പ	2026
##രന്‍	2027
##െയുള്ള	2028
##ദ്ര	2029
താമ	2030
ജില്ലയിലെ	2031
സ്പ	2032
##ാടി	2033
നിയമസഭാ	2034
പരീക്ഷ	2035
അവകാശ	2036
തോടെ	2037
എടുത്ത	2038
ജനറ	2039
50	2040
ബന്ധപ്പെട്ട	2041
അന്വേഷണം	2042
സ്വീകരിക്ക	2043
##ിരിക്കുകയാണ്	2044
##നില്‍	2045
ത്തില്‍	2046
എംഎല്‍	2047
നര	2048
വിലയി	2049
ഏക	2050
ാണ	2051
ജൂ	2052
മണിക്കൂറ	2053
ിരിക്കുന്നത്	2054
തിരഞ്ഞെടുപ്പില്‍	2055
ആയിരുന്നു	2056
യുണ്ട	2057
പറയുന്ന	2058
പ്രശ്‌ന	2059
##ൊന്നും	2060
കണ്ടെത്തിയ	2061
സൂചന	2062
##ില്ലെന്ന്	2063
യുഎ	2064
ന്റെ	2065
ില	2066
ഹാ	2067
കർ	2068
രാവിലെ	2069
##്യമായി	2070
ചർച്ച	2071
നേതൃത്വം	2072
##ത്തേക്ക്	2073
##രിക്കുന്നത്	2074
എണ്ണം	2075
##ട്ടുണ്ട്	2076
##ിപ്പിച്ച	2077
പ്രതിരോധ	2078
മറ്റൊരു	2079
##ുതി	2080
##മായും	2081
##പോ	2082
##രിച്ചു	2083
എംഎല്‍എ	2084
എന്നീ	2085
വാഹന	2086
ത്തില	2087
##പ്പറ	2088
മത	2089
നടത്തി	2090
##്യമാണ്	2091
വാക്	2092
ഒറ്റ	2093
##ഖ്	2094
തെന്നും	2095
മുഴ	2096
കണ്ടെത്ത	2097
ഹൈക്കോട	2098
അവിടെ	2099
ദില്ലി	2100
ഘട്ട	2101
##ാധി	2102
##ാവും	2103
വഴ	2104
വാർ	2105
ഇങ്ങനെ	2106
##ാൾ	2107
യാണ	2108
##യ്യ	2109
പുര	2110
പശ്ച	2111
##ഹൃ	2112
ബിഗ്	2113
ഫേസ്	2114
പ്രവര്‍ത്തന	2115
##ജന്‍	2116
നിരീക്ഷണ	2117
##തിക	2118
##സന്ധ	2119
##ുകളാണ്	2120
##സിസി	2121
വിമര്‍ശ	2122
22	2123
അല	2124
എനിക്ക്	2125
##സിന്റെ	2126
വർഷ	2127
കാര്‍	2128
തെന്ന്	2129
##കളും	2130
##ികളും	2131
##യിലാണ്	2132
ആലപ്പുഴ	2133
കാര്യം	2134
##ിയാണ്	2135
##ിക്കുകയും	2136
ക്കുന്ന	2137
സുരേന്ദ്ര	2138
##വിധാന	2139
നല്‍കി	2140
സാമ	2141
എൽ	2142
യുള്ള	2143
അതിന്	2144
സംവിധാന	2145
മുമ്പ്	2146
ഏറെ	2147
പീ	2148
##ിച്ചേ	2149
##ിനും	2150
##ാവന	2151
എതി	2152
വ്യക്തമാക്കിയ	2153
##ജന	2154
ആകെ	2155
##ുകൂല	2156
ചെല	2157
രണ്ടാം	2158
ഇപ്പോൾ	2159
അവർ	2160
സിംഗ്	2161
##ൂട്ട	2162
##ത്തിലും	2163
21	2164
വര്‍ധ	2165
##ൗര	2166
വികസ	2167
ഫേസ്ബു	2168
##ുമോ	2169
മക	2170
##ാരാഷ്ട്ര	2171
റിയ	2172
എത്ര	2173
##ഭ്യാ	2174
വാര്‍ത്ത	2175
സന്ത	2176
നിയമസഭ	2177
ഭക്ഷ	2178
##േഷൻ	2179
നവ	2180
താന്‍	2181
##ക്കള	2182
നിലവില്‍	2183
വര്‍ഷം	2184
##ീല	2185
യി	2186
രജി	2187
കോട്ടയം	2188
##ായും	2189
വിവാദ	2190
മാത്രമല്ല	2191
##രുദ്ധ	2192
അറസ്റ്റ്	2193
വെച്ച	2194
##േയ	2195
##മോ	2196
##സിന്	2197
ലാ	2198
പക്ഷ	2199
കമ്മീഷ	2200
ഇന്‍	2201
മത്സര	2202
ബംഗ	2203
##േജ്	2204
തമി	2205
##സില	2206
പരാജ	2207
രംഗത്തെ	2208
റിപ്പോര്‍ട്ട	2209
ദിന	2210
ഗുരു	2211
ശതമാന	2212
ഇത്തര	2213
23	2214
##ുകളിൽ	2215
ഇത്തരം	2216
മറുപടി	2217
##ോമ	2218
അധികാര	2219
ങ്ങള്‍	2220
##റാ	2221
##ില്ലെന്നും	2222
ജീവ	2223
##യായി	2224
##ങ്ക്	2225
ആദ്യം	2226
പ്രതിസന്ധ	2227
സർക്കാരി	2228
മാസം	2229
ആശങ്ക	2230
സംഭവം	2231
കുറിച്ച്	2232
ബൈ	2233
##ബ്ര	2234
##േള	2235
വാങ്ങ	2236
##യില	2237
മനസ്സ	2238
തൊഴിലാള	2239
ആണ	2240
ഏത	2241
##ുവന്ന	2242
ഗ്രാമ	2243
പാലക്കാട്	2244
യുഡിഎഫ്	2245
##സൈ	2246
ചു	2247
##െയി	2248
കേരളത്തില്‍	2249
##ിത്ത	2250
##ാവസ്ഥ	2251
ക്കെതിരെ	2252
##്ട്ര	2253
ക്ഷേ	2254
##തിയിൽ	2255
എറണാകുളം	2256
##ീമ	2257
ഉമ്മ	2258
##ിക്കറ്റ്	2259
സംശ	2260
പോരാ	2261
##ഹമ്മദ്	2262
##പ്പുറം	2263
നരേന്ദ്ര	2264
40	2265
##രീ	2266
ഇന്ത്യന്‍	2267
സ്ത്രീക	2268
##ുകാര	2269
ഡെ	2270
കൊച്ചി	2271
യായി	2272
ഭാ	2273
കാരണ	2274
ിന	2275
അക	2276
മനു	2277
എണ്ണ	2278
കാര്യങ്ങള്‍	2279
സമൂഹ	2280
ശി	2281
സംബന്ധിച്ച്	2282
ആത്മ	2283
##ര്‍ത്തി	2284
രംഗത്ത്	2285
##വെ	2286
##ായ്	2287
രാജ്യത്ത്	2288
##സില്‍	2289
##പ്പള്ളി	2290
നാള	2291
##വല	2292
##ബര്‍	2293
ഡ്ര	2294
##ിത	2295
പുന	2296
കളുടെ	2297
ഭാഗമായി	2298
െന്ന്	2299
ഉണ്ടായി	2300
##രക്ഷ	2301
ഉണ്ടാക	2302
ഇതില്‍	2303
തോമ	2304
കൊല്ലം	2305
പേരാണ്	2306
സുധാക	2307
കൗ	2308
പങ്കെടുത്ത	2309
ഭാര്യ	2310
പേർ	2311
ഭൂരി	2312
ചെയ്യാ	2313
നിലപാട്	2314
റ്റ	2315
പുതു	2316
വ്യക്തമാക്ക	2317
നേട്ട	2318
കേസില്‍	2319
അന്ന്	2320
##ങ്ങളിലും	2321
##നാഥ	2322
##ധികം	2323
ക്കാര	2324
ആഗ്രഹ	2325
െന്നും	2326
##ിക്കണം	2327
##ത്തിലേക്ക്	2328
സ്വകാര്യ	2329
പ്പോ	2330
##ടുത്ത്	2331
മെഡിക്കല്‍	2332
##ാവുന്ന	2333
##മുണ്ട	2334
യുഡിഎഫ	2335
വിത	2336
പറഞ്ഞിരുന്നു	2337
സുപ്രീം	2338
##പ്രദേശ	2339
വിലയിരുത്ത	2340
##ടം	2341
ഫി	2342
വിട്ട	2343
##ത്രം	2344
ഫെ	2345
##രാണ്	2346
##സു	2347
സമര	2348
അഞ്ച	2349
##ക്കാല	2350
സംഘം	2351
വിദ്യാഭ്യാ	2352
അന്ത	2353
യുമായി	2354
മോഹ	2355
നീക്കം	2356
##ക്കം	2357
ത്തിൽ	2358
പ്രകാരം	2359
##കളെ	2360
മില്ല	2361
ചെയ്തിരുന്നു	2362
കൃത്യ	2363
പത്തനം	2364
ജോസ	2365
ഇയ	2366
വനി	2367
##ര്‍മ	2368
##തിട്ട	2369
##േദ	2370
ലഭിക്ക	2371
സാധിക്ക	2372
തദ്ദേശ	2373
പത്തനംതിട്ട	2374
##പ്പെട്ടി	2375
##ിപ്പി	2376
ഉയര്‍ന്ന	2377
##ക്കാര്‍	2378
##ണാടക	2379
മാറ	2380
സമയത്ത്	2381
ബന്ധപ്പെട്ട്	2382
##േന	2383
ധന	2384
കൂടാതെ	2385
തട്ട	2386
കുറഞ്ഞ	2387
പരാജയ	2388
ഷോ	2389
മുഴുവ	2390
നമ്മുടെ	2391
കേരളത്തിലെ	2392
മാണ	2393
ശക്തി	2394
##ുമ്പോൾ	2395
##യിലേക്ക്	2396
പങ്കുവ	2397
കന	2398
സ്വീകരിച്ച	2399
##കളുടെ	2400
ജോര്‍	2401
മാറ്റി	2402
##ട്ടെ	2403
ഉന്നയ	2404
അഭിപ്രായ	2405
നിയന്ത്രണ	2406
റഷ്യ	2407
മാർ	2408
അതുകൊണ്ട്	2409
##ലു	2410
##സോ	2411
അദ്ദേഹത്തിന്റെ	2412
##000	2413
അധികൃത	2414
##ാറ്റ	2415
ആരോപണ	2416
പദ	2417
##ാര്‍ഥ	2418
##ുണ്ടായ	2419
പറ്റ	2420
26	2421
പൊലീസ	2422
##ംപ	2423
ആവശ്യം	2424
28	2425
ഫലം	2426
വിട	2427
ഇക്കാര്യം	2428
##പാത	2429
സുരേഷ്	2430
മനുഷ്യ	2431
അക്ക	2432
പുറത്തു	2433
##ജ്ഞ	2434
200	2435
സ്വന്തം	2436
തെളിവ	2437
നില്‍ക്ക	2438
ദൃ	2439
##വം	2440
ചൂണ്ടിക്കാ	2441
പ്രവര്‍ത്തക	2442
##മായിരുന്നു	2443
ഡയ	2444
സത്യ	2445
പ്രസ	2446
അമി	2447
ജല	2448
##ടേയും	2449
##ാഹ	2450
പോയി	2451
ആഭ	2452
എത്തി	2453
പോസ്റ്റ	2454
ഇര	2455
ഇത്ര	2456
ഭീഷ	2457
താമസ	2458
ഹെ	2459
##ദ്ധി	2460
നായ	2461
##യര്‍	2462
രു	2463
ശു	2464
ചെയ്ത്	2465
27	2466
കൂട്ടിച്ചേ	2467
നിൽ	2468
സഖ്യ	2469
സ്വപ്	2470
കടുത്ത	2471
സാധാരണ	2472
##ത്തിറ	2473
ഇടപെട	2474
അഖ	2475
തിന്റെ	2476
ഫ്ര	2477
##നാണ്	2478
വിശ്വ	2479
സ്ഥാനാർത്ഥ	2480
ദുര	2481
സമ്പർക്ക	2482
ചരി	2483
##ഷ്‌	2484
മാത്രമേ	2485
യ്ക്ക	2486
നമ്പ	2487
വന്‍	2488
അനുകൂല	2489
പ്രവർത്തക	2490
ചെയ്യുന്നത്	2491
േക്ക	2492
##സ്റ്റി	2493
ാല്‍	2494
##പരി	2495
സ്ത്രീ	2496
ചുമതല	2497
##റിഞ്ഞ	2498
മണി	2499
ങ്ങൾ	2500
##ിനിടെ	2501
സ്‌കൂ	2502
##ുകൊണ്ട	2503
വികസന	2504
##ിമ	2505
താഴ	2506
വെച്ച്	2507
കുഞ്ഞ	2508
അനുമതി	2509
വസ്	2510
ഓഫ്	2511
##ീകരണ	2512
കരുത	2513
ബ്ല	2514
##സിന്‍	2515
ആറ്	2516
##കുമ	2517
പ്രൊ	2518
##ണ്‍കു	2519
അനുഭവ	2520
പൈ	2521
തനിക്ക്	2522
##ണു	2523
##ിലായി	2524
നിറ	2525
നേട	2526
##ാന്	2527
##പ്പെട്ടത്	2528
ങ്ങളും	2529
കീഴ	2530
എന്നത്	2531
000	2532
കസ്റ്റ	2533
മലപ്പുറം	2534
ബോധ	2535
പേരും	2536
പ്രതികരണം	2537
യിലും	2538
ആന	2539
##ിലേക്ക	2540
രാജ്യത്തെ	2541
ഉണ്ട്	2542
എഴു	2543
##െതിര	2544
##ഴ്ച്ച	2545
മുന്നറിയ	2546
ഫല	2547
രാശിക്ക	2548
മുംബ	2549
##ൃഷ്ട	2550
##ർക്കും	2551
##ജീവ	2552
സുഹൃ	2553
അടക്കം	2554
വ്യവ	2555
യുഎഇ	2556
സഹായി	2557
സര്‍വ	2558
സാമൂഹ	2559
ചൊ	2560
##മെന്ന്	2561
##ീര്‍	2562
##ച്ഛ	2563
ഉണ്ടായ	2564
ലഭിക്കും	2565
##ിരിക്കുന്ന	2566
വിമർശ	2567
പണ	2568
െങ്കിലും	2569
##യിലും	2570
സാഹചര്യത്തില്‍	2571
മാക	2572
കളില്‍	2573
നല്‍കുന്ന	2574
മുംബൈ	2575
ഹിന്	2576
##രുക	2577
തോന്ന	2578
കൈമാ	2579
മുസ്ലി	2580
കമ്മിറ്റി	2581
##െത്തിയ	2582
രണ്ടു	2583
##സർ	2584
ചന്ദ്ര	2585
കേരളം	2586
പതി	2587
##ര്യം	2588
സോഷ്യല്‍	2589
വിഭാഗം	2590
##ാതി	2591
വിജയം	2592
ആരാ	2593
രാമ	2594
വേഗ	2595
##ുവരി	2596
##ടുക്കി	2597
ഇൻ	2598
##ിക്കറ്റ	2599
തുടർന്ന്	2600
നിര്‍ദേശ	2601
കോടിയ	2602
എല്‍ഡിഎ	2603
ആശുപത്രിയില്‍	2604
തിനെ	2605
സഹോദ	2606
പേര്	2607
അര്‍	2608
##ോഭ	2609
പ്രഖ്യാപിച്ച	2610
മുഹമ്മദ്	2611
മുന്നോട്ട്	2612
ചെറിയ	2613
പോകുന്ന	2614
സാധ്യതയ	2615
കുമാര്‍	2616
നിലപാട	2617
പരാമ	2618
അമ	2619
നാണ്	2620
അങ്ങനെ	2621
ജാമ	2622
##കരണ	2623
##കോ	2624
ചേര്‍ന്ന	2625
ഉള്‍പ്പെടെ	2626
മല്ല	2627
##കളില്‍	2628
##ക്കോ	2629
രാത്രി	2630
രൂക്ഷ	2631
റെയ	2632
##എമ്മ	2633
##ങ്ങളിലെ	2634
##ടിപ്പ	2635
വെളി	2636
##ക്ടർ	2637
ഭൂരിപക്ഷ	2638
തെറ്റ	2639
ഇടതു	2640
##ാബ	2641
മുതി	2642
വിദ്യാഭ്യാസ	2643
എംപി	2644
എടുക്ക	2645
##രിക്കാന്‍	2646
##കാല	2647
സംസ്ഥാനത്തെ	2648
35	2649
പുല	2650
##തമായ	2651
സംരക്ഷ	2652
ആക	2653
##ലാ	2654
##ളവ	2655
ന്ന	2656
##ഫി	2657
പ്രസ്ത	2658
##ഷൻ	2659
##ിക്കേണ്ട	2660
അഭിന	2661
പശ്ചാത്ത	2662
##ഗോ	2663
##ാക്കാന്‍	2664
##സിൽ	2665
കില	2666
##സ്ര	2667
##ജ്ജ	2668
ബിജെപിയുടെ	2669
ഇക്കാര്യ	2670
പ്രോ	2671
##ളെ	2672
##ർത്തി	2673
മാണി	2674
ഇന്നലെ	2675
അടിയ	2676
##ിനു	2677
നടത്തിയത്	2678
പിടിച്ച	2679
കാർ	2680
##ലിന്	2681
##തൃ	2682
ഒരിക്ക	2683
സംബന്ധിച്ച	2684
##തില്‍	2685
##െച്ച	2686
സൃഷ്ട	2687
31	2688
വിന	2689
പെരു	2690
##പ്റ്റ	2691
എക്‌	2692
നിക	2693
ഉൾപ്പെടെ	2694
മായിരുന്നു	2695
പ്രശ്ന	2696
ലീഗ്	2697
മാറി	2698
കുറിച്ച	2699
ഹാജ	2700
29	2701
മൃത	2702
ക്ഷ	2703
അത്ത	2704
##പ്പോൾ	2705
##ാധിപ	2706
വിരുദ്ധ	2707
##പ്രവ	2708
കോളേജ	2709
ലും	2710
കൊടുത്ത	2711
കിട	2712
എല്ലാം	2713
സ്വര്‍ണ	2714
##ലില്‍	2715
ുള്ള	2716
ക്കായി	2717
ഒന്നും	2718
##നേ	2719
സിപിഎമ്മ	2720
മധ്യ	2721
വാർത്ത	2722
ഇടുക്കി	2723
പൗര	2724
യെന്ന	2725
മറ്റു	2726
സോണ	2727
ആരോപണം	2728
വീട്ടില്‍	2729
സമ്പര്‍ക്ക	2730
സമ്മേള	2731
യിലേക്ക്	2732
##ീറ്റ	2733
ചെയ്യും	2734
മൂല	2735
##വാദി	2736
##പ്പെടുന്നത്	2737
വൈറസ്	2738
##ികള്‍ക്ക്	2739
ചോദ്യ	2740
വന്നു	2741
##ല്ലു	2742
##ുപോ	2743
കേന്ദ്രം	2744
ലേ	2745
##മാർ	2746
##ശി	2747
പശ്ചാത്തല	2748
യോഗം	2749
പ്രസ്താവന	2750
ഹൈക്കോടതി	2751
##ളു	2752
മാറിയ	2753
ആവശ്യപ്പെട്ടു	2754
##സ്പി	2755
മുരള	2756
പുരു	2757
തില്‍	2758
ായി	2759
##ബ്ല	2760
വിച	2761
##ോട്ടോ	2762
##ലൈ	2763
##ാരുടെ	2764
##ാകുന്ന	2765
##രുത്	2766
എന്നതാണ്	2767
തൃശൂര്‍	2768
മൃതദേഹ	2769
എന്നായിരുന്നു	2770
45	2771
##ാദ്	2772
പ്രവർത്തന	2773
പീഡ	2774
ഹര്‍	2775
##ക്കെതിരെ	2776
##ൃഷ്ണ	2777
തുടര്‍ന്ന	2778
പ്രിയങ്ക	2779
പുറത്തിറ	2780
##ൂരില്‍	2781
താല്‍	2782
ഇന	2783
എന്നെ	2784
പിടി	2785
ദേവ	2786
എന്ത്	2787
##റിന്റെ	2788
സൗദി	2789
കുമാറ	2790
കമ്പന	2791
##ോടും	2792
##യാ	2793
കിട്ടിയ	2794
സഹായ	2795
ബീ	2796
കൊടുക്ക	2797
ഇന്ത്യൻ	2798
വിപ	2799
നടി	2800
പെണ്‍കു	2801
ചടങ്ങ	2802
ചെന്നിത്ത	2803
അര	2804
ചെന്നിത്തല	2805
സംശയ	2806
സൈന	2807
##ക്കട	2808
60	2809
അറസ്റ്റ	2810
ഹോ	2811
പഴ	2812
എന്നിവിട	2813
വരിക	2814
##വ്ര	2815
മുസ്ല	2816
##ിപ്പിക്കുന്ന	2817
##നിക്ക	2818
ആഘ	2819
##ിട്ട്	2820
##ിയിലേക്ക്	2821
സെന്റ	2822
ജനറല്‍	2823
ഇസ്ര	2824
നു	2825
പരിച	2826
മുന്നില്‍	2827
വ്യത്യ	2828
##സ്റ്റര്‍	2829
പ്രായ	2830
പെട്ട	2831
ത്ര	2832
##ിക്കാനുള്ള	2833
വേദ	2834
നടപടിയ	2835
ആരാധ	2836
ഭീഷണി	2837
അവത	2838
##ാണ്ടി	2839
നിക്ഷേപ	2840
കോര്‍	2841
സ്വർ	2842
##ശം	2843
##മ്പ്	2844
കെട്ടി	2845
##ോടൊപ്പം	2846
ദിലീപ	2847
##ഷിക	2848
സമാ	2849
ലോക്‌	2850
നിര്‍മ	2851
##ുറ	2852
പ്രചാരണ	2853
##ുത	2854
തിരി	2855
സ്വാധ	2856
അക്രമ	2857
##വരുടെ	2858
തുടങ്ങി	2859
##സ്ട്ര	2860
പാർട്ട	2861
നിങ്ങളുടെ	2862
ഇതേ	2863
വയനാട്	2864
വൃ	2865
##സ്യ	2866
ഇതിന്റെ	2867
പൂര്‍ത്തിയ	2868
##വിന്	2869
##ത്തോളം	2870
##ത്തേ	2871
##്യന്തര	2872
സ്ഥാനാര്‍ത്ഥി	2873
അമിത്	2874
മുസ്ലിം	2875
കൊണ്ടുവ	2876
പഞ്ചായത്ത്	2877
ടു	2878
സമിതി	2879
ലോക്	2880
ടീമ	2881
##ിയായി	2882
##ുമില്ല	2883
മന്ത്രാല	2884
യോഗ്യത	2885
സമ്പർക്കം	2886
നമു	2887
തടയ	2888
സൈനിക	2889
കൊലപാത	2890
ഡയറ	2891
സൂര്യ	2892
ക്രമ	2893
##ശ്ര	2894
ആഭ്യന്തര	2895
ഗ്രൂപ്പ	2896
ദൃശ്യ	2897
##സിപ്പ	2898
തള്ള	2899
##ബർ	2900
ക്കുള്ള	2901
ദി	2902
പ്പെടുത്ത	2903
പ്പോള്‍	2904
വുമായി	2905
പേരെ	2906
കളാണ്	2907
##ിക്കപ്പെട്ട	2908
കാലത്ത്	2909
കാലാവസ്ഥ	2910
അതിന്റെ	2911
റിപ്പോർട്ട	2912
പാട	2913
വന്നത്	2914
നോക്ക	2915
##നാട്ട	2916
വർഷം	2917
ആക്രമണ	2918
##ആര്‍	2919
##ിക്കാം	2920
അബ്	2921
പറഞ്ഞ്	2922
ചീ	2923
ശേഷമാണ്	2924
##ടക	2925
##ാവധി	2926
തെരഞ്ഞെടുപ്പ	2927
##ജൻ	2928
ഉള്ളത്	2929
ചെയ്യാന്‍	2930
ചിന്	2931
##ലക്ഷ	2932
##ഴാണ്	2933
##തന്ത്ര	2934
ചിത്രം	2935
##മത	2936
പിന്‍	2937
കൂടെ	2938
വിദ്യാര്‍ത്ഥ	2939
##ീവ	2940
നേതാക്കൾ	2941
നടന്നത്	2942
ഗുരുതര	2943
കഴിയുന്ന	2944
സംസാരിക്ക	2945
നിർദ്ദേശ	2946
ദുബ	2947
##ശ്ശേരി	2948
താരം	2949
##രത്ത്	2950
##ശ്വാ	2951
ജനാധിപ	2952
സ്ഥിരീകരിച്ചത്	2953
സജീവ	2954
##എഫ്	2955
പതിന	2956
##െട്ട	2957
##ല്‍ഹി	2958
പോവ	2959
വ്യാജ	2960
##േഷന	2961
ബോസ്	2962
##ീഷ്	2963
യില്ല	2964
സിന്	2965
ത്തിനും	2966
##വൈ	2967
##ല്ലോ	2968
##രമ	2969
ബുദ്ധി	2970
തോമസ്	2971
നിര്‍മ്മ	2972
ഉച്ച	2973
ശമ്പ	2974
അവരെ	2975
##ുകളെ	2976
സന്ദര്‍ശ	2977
##‌സ്	2978
##ിലി	2979
നിരക്ക്	2980
ഇവരുടെ	2981
വാക്ക	2982
##്വി	2983
##സും	2984
ലഭിച്ചത്	2985
വിദ്യാർത്ഥ	2986
സ്ഥിതി	2987
പ്പെട	2988
മനസ്സില	2989
റോഡ	2990
കള്ള	2991
ക്വാ	2992
പട	2993
ഇരുവ	2994
അതു	2995
ഇന്റ	2996
##യോടെ	2997
മഹാരാഷ്ട്ര	2998
അവസ്ഥ	2999
##യർ	3000
##ൂരി	3001
സമര്‍	3002
##ഭാവ	3003
ഉദ്	3004
സഞ്ച	3005
ഇപ്പോഴും	3006
##ാബ്	3007
##ൗണ്ട	3008
ഡോള	3009
ക്കാന്‍	3010
കേരളത്തിൽ	3011
ഭയ	3012
##ക്കാന്‍	3013
മത്സരിക്ക	3014
കളിൽ	3015
തീവ്ര	3016
കോണ്‍ഗ്രസിന്	3017
ചരിത്ര	3018
ബാധി	3019
നോട്ട	3020
##നത്തിന്	3021
കൊണ്ടാണ്	3022
32	3023
തുക	3024
നിന്നാണ്	3025
സര്‍ക്കാരിന്റെ	3026
##ളുടെ	3027
മെയ്	3028
ഡ്രൈ	3029
##ന്റി	3030
##ച്ചത്	3031
##ദ്യോഗിക	3032
കൃഷ്ണ	3033
ജാഗ്ര	3034
റൂ	3035
##ഘാട	3036
മുരളീ	3037
റാ	3038
##ക്കേ	3039
ദുരന്ത	3040
ട്വ	3041
യെന്ന്	3042
##തമായി	3043
അടക്കമുള്ള	3044
വരുമാന	3045
ജോസ്	3046
ഇവരെ	3047
##കല	3048
സ്വയം	3049
കളെ	3050
##ീകരണം	3051
ഫോണ	3052
ആഗ	3053
എക്	3054
##മെന്നും	3055
രമേ	3056
വിട്ടു	3057
##രിച്ചത്	3058
ഇന്ത്യയുടെ	3059
വയസ്സ	3060
രാജിവ	3061
##പോലെ	3062
ലം	3063
##മല	3064
സതീ	3065
##ിക്	3066
##മാന്‍	3067
പോസ്റ്റ്	3068
##തുമ	3069
ഹിന്ദു	3070
വിധി	3071
##ീകരിച്ച്	3072
നേരിട്ട്	3073
മുരളീധ	3074
##ിടെ	3075
##ചന്ദ്ര	3076
ലഭിക്കുന്ന	3077
എല്ലാവരും	3078
##ചി	3079
##ൻസ്	3080
##ത്താവ	3081
കണ്‍	3082
നല്‍കിയത്	3083
##ുട്ട	3084
##ണര്‍	3085
കോണ്‍ഗ്രസിന്റെ	3086
##ലോ	3087
##ാക്	3088
##ത്തം	3089
##ല്ലുവി	3090
##േല്‍	3091
ലീഗ	3092
##വാദ	3093
ആം	3094
വരുടെ	3095
ലഭ്യമ	3096
##മുണ്ട്	3097
വീണ	3098
##ത്വം	3099
ക്കെതിര	3100
പോസി	3101
ഇനിയും	3102
വല	3103
##ര്‍ത്തു	3104
കടന്ന	3105
##ുകളിലും	3106
യായ	3107
##ഗ്ദ	3108
വർധ	3109
ലോക്ക്	3110
##രില്‍	3111
##ീറ്റ്	3112
പ്രമുഖ	3113
ഏപ്ര	3114
ജൂല	3115
##ഫോ	3116
##ക്കുറിച്ച്	3117
ഔദ്യോഗിക	3118
സാധിക്കും	3119
വര്‍ക്ക്	3120
ലക്ഷ്യമ	3121
ജയില	3122
രംഗത്തെത്തിയ	3123
സീസ	3124
കെപി	3125
ഉയർന്ന	3126
100	3127
##ീന്‍	3128
##രുന്ന്	3129
ഉമ്മന്‍	3130
##പാട്	3131
പിസി	3132
വിമാനത്താവ	3133
തെളിയ	3134
തിരിച്ചു	3135
വെല്ലുവി	3136
വേണം	3137
നൽകി	3138
##ങ്ങുന്ന	3139
രൂപയാണ്	3140
ലക്ഷ്യം	3141
2019	3142
##നാഥ്	3143
##പരമായ	3144
ബഹ	3145
നിശ്ച	3146
ബിസിന	3147
##നിര	3148
ബിജെപിക്ക്	3149
മാറ്റം	3150
നായി	3151
പരിക്ക	3152
##തിയാണ്	3153
മനോ	3154
കണ്ണൂർ	3155
മൂന്നാം	3156
ചാന	3157
##സൂ	3158
##ിയോ	3159
ഉണ്ടാവ	3160
ജോസഫ്	3161
ഇടതുപക്ഷ	3162
കഥ	3163
##ലിന്റെ	3164
##ക്കള്‍	3165
ിരുന്നുവ	3166
ഇസ്രായ	3167
ഏഴ്	3168
##്മി	3169
##സിക്യ	3170
ിരിക്കുന്ന	3171
തങ്ങളുടെ	3172
##സരിച്ച്	3173
നേടി	3174
##ക്ടറ	3175
മാറ്റിയ	3176
ആരും	3177
സ്ഥാനം	3178
ഇയാള്‍	3179
വരുന്നത്	3180
##ത്തിലൂടെ	3181
##്രാ	3182
ജനാധിപത്യ	3183
തെന്നാണ്	3184
വാദ	3185
##പ്പോഴും	3186
ഹി	3187
##ീല്‍	3188
##ുമുള്ള	3189
ക്കാണ്	3190
കര്‍ഷക	3191
കേസിൽ	3192
##റിൽ	3193
ഇഷ്ട	3194
ഗോപ	3195
##ണായക	3196
രാഹുൽ	3197
സമു	3198
സൂച	3199
യുദ്ധ	3200
ബാങ്ക	3201
##ങ്ങനെയാണ്	3202
ഉദ്ഘാട	3203
##വിഡ	3204
ിട്ടുള്ള	3205
നിലവിൽ	3206
വായ	3207
ഗുജ	3208
പകരം	3209
വിശ്വാസ	3210
അഴി	3211
ക്കൊ	3212
ില്ലെന്നും	3213
##ബൈ	3214
പ്രതിഷേധം	3215
##മില്ല	3216
ചെറു	3217
പേരില്‍	3218
വഹ	3219
##കര്യ	3220
##നിധ	3221
മെഡിക്കൽ	3222
എങ്ങനെ	3223
ിട്ടുള്ളത്	3224
കുറവ	3225
വൈദ്യ	3226
എത്തിയത്	3227
##റിച്ച	3228
##ുകാര്‍	3229
ക്ഷേത്ര	3230
യിലാണ്	3231
##ംസ	3232
മട	3233
##ാസ്ത്ര	3234
സഭ	3235
##രുവ	3236
ഒന്നാം	3237
ലംഘ	3238
##ീക്ക	3239
ആരോപിച്ചു	3240
##സിയ	3241
##ണിയ	3242
##ാണോ	3243
ത്തിലെ	3244
മുസ്ലീം	3245
യഥ	3246
##രൻ	3247
ബന്ധു	3248
സമ്മാന	3249
പുരോഗ	3250
പ്രതിസന്ധി	3251
മുള്ള	3252
വിളി	3253
##ാമത്തെ	3254
##ക്കില്‍	3255
ബന്ധം	3256
നാട	3257
ഭേദ	3258
യാത	3259
നിയമം	3260
ശ്രമം	3261
പോളി	3262
നിര്‍ദ്ദേശ	3263
വാക്‌സിന്‍	3264
##ക്കാർ	3265
ങ്ങളുടെ	3266
കുറച്ച്	3267
ുവെന്നും	3268
രോ	3269
##ര്‍ക്കാണ്	3270
കഴിഞ്ഞു	3271
ആളുകള്‍	3272
ാവ	3273
എച്ച്	3274
മമത	3275
##ട്ടിഫ	3276
##കരമായ	3277
മുന്നറിയിപ്പ്	3278
എട്ട്	3279
പവ	3280
മേഖലയില്‍	3281
കനത്ത	3282
ഷി	3283
ഹൗ	3284
##ടേ	3285
##രായ	3286
##ണ്ടി	3287
ആവശ്യപ്പെട്ടി	3288
##ുന	3289
കുട്ടി	3290
##ഹരി	3291
മുഖ്യമന്ത്രിയുടെ	3292
ഞങ്ങള്‍	3293
##ോചന	3294
##ളൂ	3295
##ഖ്യ	3296
മണ്ഡലം	3297
സന്തോഷ	3298
രമേശ്	3299
പത്ത്	3300
പ്രസംഗ	3301
##ൺകു	3302
പിടിക	3303
##ാടിയ	3304
തിരഞ്ഞെടുപ്പിൽ	3305
നടക്കുന്നത്	3306
##ാക്കിയത്	3307
36	3308
കൂടിയാണ്	3309
ശ്രമിച്ച	3310
വാക്‌സിന	3311
##ല്‍പ്പ	3312
സ്വാത	3313
##ുവിന്റെ	3314
താൻ	3315
യോട്	3316
വീതം	3317
കാസര്‍	3318
അവസരം	3319
ഉന്നത	3320
ഒര	3321
##റിന്	3322
##േണ്ടത്	3323
ആവശ്യമ	3324
അധ്യക്ഷന്‍	3325
ഏത്	3326
ഇവർ	3327
നികുതി	3328
വില്‍	3329
െന്നാണ്	3330
തല്ല	3331
##ക്കൊ	3332
പേരുടെ	3333
വരാണ്	3334
ചോദിച്ചു	3335
നേരിട്ട	3336
ഇദ്ദേഹ	3337
##സ്‌ക	3338
ജീവനക്കാര	3339
സുരക്ഷാ	3340
##ഗോഡ്	3341
സോണിയ	3342
പിടികൂ	3343
പ്രവര്‍ത്തകര്‍	3344
സർവ	3345
##യിലുള്ള	3346
നിരോധ	3347
അഭിമുഖ	3348
##മം	3349
##ൗണ്‍	3350
മരണം	3351
സമരം	3352
യോഗത്തില്‍	3353
രീതിയില്‍	3354
വസ്തു	3355
മൈ	3356
##ികെ	3357
ഉടമ	3358
വിതരണം	3359
ആഘോഷ	3360
ണ്	3361
സാധിച്ച	3362
മുതല	3363
അതില്‍	3364
സാഹചര്യം	3365
2021	3366
മര	3367
രൂപയുടെ	3368
മൊഴി	3369
പേരു	3370
##ത്യം	3371
ഇയാള	3372
##ാനെ	3373
എന്താണ്	3374
നമുക്ക്	3375
സ്വാതന്ത്ര	3376
##മാരുടെ	3377
ഇതു	3378
ഏര്‍	3379
തെന്ന	3380
പ്രവച	3381
##മെന്റ	3382
##ശ്മ	3383
വധ	3384
##മതി	3385
##ക്കുന്നത്	3386
നൽകുന്ന	3387
അവസര	3388
സതീശ	3389
കൂടുതല	3390
അധ്യാപ	3391
ബുധ	3392
##ാവി	3393
##തെ	3394
ക്രൈ	3395
##ിരുന്നത്	3396
##വില	3397
##കളിൽ	3398
ഫേസ്ബുക്ക്	3399
തസ്	3400
##ത്തുന്ന	3401
നാളെ	3402
ഇടി	3403
നന്ദ	3404
ജാഗ്രത	3405
തിയ	3406
വിവരങ്ങള്‍	3407
##മാരെ	3408
33	3409
വീട്	3410
##്യോ	3411
80	3412
രി	3413
ഉണ്ടായിരുന്നു	3414
എന്നിവര്‍	3415
സൗകര്യ	3416
പാക	3417
യാതൊരു	3418
ബജ	3419
##പ്പെടുത്തുന്ന	3420
##ഗോപ	3421
കാഴ്ച	3422
പിന്നാലെയാണ്	3423
ജോര്‍ജ്	3424
യാണെന്നും	3425
##ാരു	3426
മനസില	3427
തിനാല്‍	3428
വനിതാ	3429
ഒന്ന്	3430
##ീകരി	3431
കേന്ദ്രസ	3432
##സ്വ	3433
##ുള്ളില്‍	3434
പൂര്‍ണ	3435
ശേഖ	3436
##പിച്ച്	3437
രോഗമു	3438
ചെയ്തിട്ടുണ്ട്	3439
34	3440
ടോ	3441
##ിട്ടും	3442
ശരിയ	3443
##ദിന	3444
സമാന	3445
##ഥി	3446
ങ്ങളെ	3447
പലരും	3448
ദിലീപ്	3449
55	3450
മെന്ന്	3451
##ഗതി	3452
നേരെ	3453
നടത്തുന്നത്	3454
മണ്ഡലത്തില്‍	3455
##ട്ടാണ്	3456
##ഞ്ജ	3457
ക്കൊപ്പം	3458
37	3459
കോടതിയില്‍	3460
മേധ	3461
ശിക്ഷ	3462
ഹോട്ട	3463
##ോറി	3464
ഇല	3465
കല്ല	3466
##റ്റം	3467
##തിനെ	3468
സ്ഥിരീകരിച്ചു	3469
മുണ്ട്	3470
##വിട്ട	3471
വിവാഹം	3472
ഫാ	3473
ലോട്ട	3474
പ്രശ	3475
കര്‍ണാടക	3476
##നേഹ	3477
##ിള	3478
കാത്തി	3479
കേസിലെ	3480
റേ	3481
##ിലായ	3482
യൂത്ത്	3483
നഗരസഭ	3484
ഗൂ	3485
ഞങ്ങൾ	3486
യല്ല	3487
ക്കാനുള്ള	3488
മാതൃ	3489
സൂക്ഷ	3490
##ട്ടില്ല	3491
##സിൻ	3492
പ്പോൾ	3493
ഒരാള്‍	3494
ബിരു	3495
ചെലവ	3496
ചെയ്യുന്നു	3497
പെൺകു	3498
മുഴുവന്‍	3499
അംബ	3500
##ംസ്	3501
കാണുന്ന	3502
അദ്ദേഹത്തെ	3503
സിപിഐ	3504
ില്ലെന്ന്	3505
##സിനെ	3506
നിര്‍ത്ത	3507
യുവതി	3508
ഉത്തരവാദി	3509
പ്രസിഡന്റ	3510
ക്യാമ്പ	3511
പരാമര്‍ശ	3512
##ടുക്കുന്ന	3513
ഡോസ്	3514
ഒടുവ	3515
അറിയിച്ച	3516
കമ്പനി	3517
തസ്തിക	3518
സിറ്റി	3519
കൈവ	3520
നിർമ്മ	3521
48	3522
##ീര	3523
ഒരുപാട്	3524
തീയ	3525
കാര്യത്തില്‍	3526
ിരുന്നത്	3527
ക്കാൻ	3528
സാക്ഷ	3529
##ർത്തു	3530
സേന	3531
കരാ	3532
തിരുവ	3533
ഡിസം	3534
ഒട്ട	3535
കണ്ടു	3536
അമ്പ	3537
ങ്ങളില്‍	3538
റോഡ്	3539
നൂ	3540
ലാണ്	3541
##പ്രതി	3542
##ണമെന്നാണ്	3543
വിജയ്	3544
##ാണിത്	3545
ഗവര്‍	3546
പങ്കെടുക്ക	3547
മീറ്റ	3548
തുറന്ന	3549
ബുദ്ധിമു	3550
ഒരിക്കലും	3551
ാന	3552
##ാനായി	3553
##ിക്കല്‍	3554
കർഷക	3555
വർക്ക്	3556
കൊണ്ടു	3557
75	3558
അർ	3559
ത്തിയ	3560
േക്കും	3561
##ദേശിക	3562
ഉണ്ടായിരുന്ന	3563
ചീഫ്	3564
എന്	3565
ടൂ	3566
##കർ	3567
##ര്‍ത്തിയ	3568
തമിഴ്	3569
പ്രാദേശിക	3570
സ്‌കൂള	3571
വിമാനത്താവള	3572
പിഴ	3573
മുന്നണി	3574
സെക്രട്ടറിയ	3575
ഓഫീസര്‍	3576
കൊലപാതക	3577
ക്കിട	3578
സഹായം	3579
അച്ഛ	3580
ള്ള	3581
##ിപ്പിച്ചു	3582
നിര്‍ദേശം	3583
സംഭവത്തില്‍	3584
പങ്കെടു	3585
##ുകൊണ്ടാണ്	3586
ശബ	3587
സ്വതന്ത്ര	3588
വാഗ്ദ	3589
അതിനിടെ	3590
വിളിച്ച	3591
ഗ്രൂപ്പ്	3592
ലോക്‌സഭാ	3593
ഒപ്പം	3594
##പ്തി	3595
വിദഗ്	3596
എംഎൽ	3597
ഇത്രയും	3598
പണി	3599
##ഴ്‌സ്	3600
അത്ര	3601
പിന്നെ	3602
റദ്ദ	3603
വിശ്വസ	3604
##താഗ	3605
തമിഴ്‌	3606
സമ്മേളന	3607
തായും	3608
ലു	3609
##റന്റ	3610
##ടുള്ള	3611
അഭിഭാ	3612
##പ്രവര്‍ത്ത	3613
പിത	3614
നിലവിലെ	3615
ഉപയോഗിച്ച്	3616
പ്രകട	3617
ജയരാ	3618
##ശ്വാസം	3619
മാണെന്ന്	3620
ാൽ	3621
നിന്നു	3622
താല	3623
തന്ത്ര	3624
മാണെന്നും	3625
##ഘടന	3626
##ാണം	3627
കാര്യങ്ങൾ	3628
സീറ്റുകള്‍	3629
ജൂലൈ	3630
70	3631
നേതൃത്വത്തില്‍	3632
##ീർ	3633
നിങ്ങള്‍	3634
ഫോണ്‍	3635
ുവെന്ന്	3636
ഉദ	3637
നടപ്പില	3638
സബ്	3639
വിഷയത്തില്‍	3640
രാജി	3641
രേഖപ്പെടുത്തിയ	3642
ജൂണ്‍	3643
അശ	3644
##ഹത്യ	3645
രാജ്	3646
ത്തിലും	3647
##ാളി	3648
ട്വി	3649
മദ്യ	3650
##ത്താണ്	3651
സിംഗ	3652
യുഎസ്	3653
ഇന്ത്യയിലെ	3654
##ല്‍ക്ക	3655
ജില്ലയിൽ	3656
##ോച	3657
ഇന്ത്യയില്‍	3658
തൃണമ	3659
തിൽ	3660
എന്നിവരാണ്	3661
ക്ഷണ	3662
##ിക്കുന്നുണ്ട്	3663
##ാമി	3664
##ിലേക്കുള്ള	3665
ഭരണം	3666
യുമ	3667
##ഹ്	3668
##ക്കാൻ	3669
##ടക്കം	3670
മഹാ	3671
പരിപാടിയ	3672
പരിശീല	3673
ഇതിനിടെ	3674
പാകി	3675
##പ്ല	3676
##ഭരണ	3677
ബാങ്ക്	3678
അടിയന്തര	3679
അബ്ദു	3680
43	3681
ചല	3682
യാണെന്ന്	3683
നടപടികള്‍	3684
പൂർത്തിയ	3685
പഴയ	3686
കെപിസിസി	3687
##സേന	3688
കേസുകള്‍	3689
എംഎൽഎ	3690
##ഗീയ	3691
##മിക	3692
സ്കൂ	3693
##്യൂട്ടി	3694
ക്രി	3695
കോളേജ്	3696
##തിയും	3697
തുടങ്ങ	3698
നിലയില്‍	3699
##ാശാല	3700
ഞ്	3701
##ടനാ	3702
##ാണെന്ന	3703
42	3704
മത്സരിച്ച	3705
സുരക്ഷി	3706
38	3707
കേസെടുത്ത	3708
തായ	3709
സന്	3710
ജനങ്ങള്‍	3711
##ികളായ	3712
യെന്നും	3713
ഉദ്യോഗസ്ഥര്‍	3714
തെരഞ്ഞെടുപ്പ്	3715
റെയില്‍	3716
വാദം	3717
ഗുണ	3718
##ീകര	3719
രാജ്യം	3720
പ്രചാര	3721
##ത്തിനായി	3722
##ർന്നു	3723
അഭ്യ	3724
സംഭവിച്ച	3725
ചൂണ്ടിക്ക	3726
ബസ്	3727
##രാമ	3728
##ികൾക്ക്	3729
##ിച്ചാണ്	3730
വ്യക്	3731
പാര്‍ല	3732
തമ്മിലുള്ള	3733
വിധേയ	3734
',	3735
തിരിച്ചടി	3736
പുറത്തുവന്ന	3737
വ്യാപക	3738
##പ്പെടു	3739
തുടക്ക	3740
ആവശ്യപ്പെട്ട	3741
ഫെബ്ര	3742
ചൂണ്ടിക്കാട്ടി	3743
ധാരണ	3744
നിമി	3745
ബാബു	3746
യ്ക്കും	3747
യാദ	3748
വ്യവസ	3749
പ്രണ	3750
തിങ്ക	3751
വോട്ടുകള്‍	3752
കയ്യ	3753
ചെന്നൈ	3754
സാമൂഹിക	3755
##കലാശാല	3756
റണ്‍	3757
##ശേഷ	3758
##റ്റീവ്	3759
സേവന	3760
ചെയ്യാൻ	3761
മൃതദേഹം	3762
ഇപ്പോഴ	3763
##രിത	3764
സംവിധാനം	3765
ത്തിലാണ്	3766
മൊബൈ	3767
##ിനോട്	3768
##മിച്ച്	3769
പേരിൽ	3770
##ണക്ക	3771
നിങ്ങൾ	3772
##ിക്കുകയാണ്	3773
അദ്ദേഹത്തിന്	3774
പഠന	3775
യ്‌	3776
തേടിയ	3777
##ാക്കാൻ	3778
വിചാരണ	3779
സ്വാധീന	3780
സാഹചര്യത്തിൽ	3781
താഴെ	3782
സമാധാന	3783
ചെയ്‌	3784
അഡ	3785
ഖത്ത	3786
വായി	3787
അനുവദിക്ക	3788
ഗണ	3789
##യു	3790
വിസ	3791
വാങ്ങിയ	3792
ഞെട്ട	3793
##ർട്ട്	3794
##ങ്ങളായി	3795
വ്യാഴ	3796
ആദ്യമായി	3797
ആക്രമണം	3798
മണ്ണ	3799
ശബ്	3800
##ർമ	3801
##ന്‍ഡ്	3802
##നെതിരെ	3803
കുറിച്ചു	3804
ഡൽ	3805
പ്	3806
##റ്റില്‍	3807
യുക്ര	3808
അഡ്	3809
സജ്ജ	3810
##മെന്ന	3811
##ഡു	3812
##ിക്കാഴ്ച	3813
ത്‌	3814
കൂടിക്കാഴ്ച	3815
ടിക്കറ്റ്	3816
##ുമ്പോ	3817
ഫിറോ	3818
##േര	3819
മൂലം	3820
പോരാട്ട	3821
ഗുജറാ	3822
##മറ	3823
ആറ	3824
മുല്ല	3825
അസി	3826
യാക	3827
##്യു	3828
##സ്‌ട്ര	3829
ആയു	3830
വീട്ടിൽ	3831
റില	3832
ജീവിതം	3833
പൊലി	3834
ങ്ങളാണ്	3835
സൂപ്പ	3836
ഭാഷ	3837
അജ	3838
രോഗബ	3839
പെരുമാ	3840
ചൂണ്ടിക്കാണ	3841
##ന്‍ഡ	3842
ന്യൂന	3843
ബ്രിട്ട	3844
തിരികെ	3845
44	3846
ഓണ്‍	3847
##പിഎ	3848
പേര്‍ക്കും	3849
ശൈ	3850
ഭൂമി	3851
പദവി	3852
പ്രവാസ	3853
സാമ്പിള	3854
ഗവ	3855
ത്തിലേക്ക്	3856
##പ്പെടുന്നു	3857
അധികം	3858
പ്രമേ	3859
കോർ	3860
##വര്‍ക്ക്	3861
വിഷയം	3862
ശബരി	3863
അഭിഭാഷക	3864
മല്‍	3865
ആരംഭിച്ച	3866
##ജീവി	3867
ഹൃ	3868
##ായിരിക്കും	3869
രഹ	3870
പെട്ര	3871
സ്‌റ്റ	3872
മോഹന്‍	3873
പെണ്‍കുട്ട	3874
39	3875
ആന്റ	3876
##ലങ്ക	3877
കുത്ത	3878
സ്ഥാനാർത്ഥി	3879
ഇള	3880
വച്ച്	3881
സച്ചി	3882
ിന്റെ	3883
##ർപ്പ	3884
##ിക്കുമെന്ന്	3885
##ിക്കുകയായിരുന്നു	3886
സുരേന്ദ്രന്‍	3887
##സിക	3888
കളിലും	3889
വ്യക്തമാക്കുന്നു	3890
കണ്ട്	3891
ഞായ	3892
ജനുവരി	3893
വയസ	3894
##കോട	3895
##ക്കര	3896
തമ്മില്‍	3897
##ോമീറ്റ	3898
';	3899
അന്ന	3900
സംവിധ	3901
തീര	3902
ബ്ലോ	3903
അല്‍	3904
കശ്മ	3905
##ആർ	3906
അംഗീകരിക്ക	3907
ഇല്ലാത	3908
2020	3909
കയറി	3910
കിലോമീറ്റ	3911
പരിചയ	3912
തള്ളി	3913
ബൂ	3914
##ാവില്ല	3915
ിട്ടും	3916
ാം	3917
നീതി	3918
മീഡിയയില്‍	3919
ഭി	3920
മുക	3921
നീണ്ട	3922
കാലം	3923
ഭരണകൂ	3924
!!	3925
ുവെന്ന	3926
അണ	3927
##ംപ്	3928
തിരെ	3929
ഉണ്ടാകും	3930
പക്ഷെ	3931
സ്വപ്ന	3932
രാശിക്കാര്‍	3933
അഫ്	3934
##ുമായുള്ള	3935
ജാമ്യം	3936
##ടിച്ച	3937
##നിൽ	3938
##ികളാണ്	3939
പോകുന്നത്	3940
കോണ്‍ഗ്രസില്‍	3941
ചൗ	3942
നശ	3943
##ിയോടെ	3944
പ്രതികരിച്ചു	3945
ആവശ്യപ്പെട്ട്	3946
2016	3947
അന്താരാഷ്ട്ര	3948
വരാ	3949
##േറിയ	3950
സ്ഥാനാര്‍ഥ	3951
##ൂരിലെ	3952
ഇതിൽ	3953
##ബല	3954
സന്ദർശ	3955
##ശേരി	3956
##തിയായ	3957
മരിച്ചത്	3958
അധികൃതര്‍	3959
ആഴ്ച	3960
##ാക്കുന്നത്	3961
എത്തുന്ന	3962
തുടരുക	3963
മേധാവി	3964
ടൂറി	3965
തിങ്കള	3966
അപ്ര	3967
ക്കാ	3968
##ഹിത	3969
മാര്‍ച്ച്	3970
കൗണ്‍	3971
കാന	3972
ശോഭ	3973
##ില്യ	3974
ങ്ങളിൽ	3975
കുമാർ	3976
വിദഗ്ധ	3977
എവിടെ	3978
ജസ്റ്റി	3979
##തിന്റെ	3980
നിലനി	3981
അഴിമതി	3982
കൊച്ച	3983
##യിട	3984
വൈസ്	3985
എതിരെ	3986
നെഗ	3987
നവംബ	3988
കുഴ	3989
സാന്നി	3990
പേർക്ക്	3991
രീതി	3992
ശാസ്ത്ര	3993
കോര്‍പ്പറ	3994
##േബ	3995
##സ്സ്	3996
പത്ര	3997
##ലിൽ	3998
##ര്‍ശന	3999
##പ്രദേശ്	4000
##നില	4001
പരമ	4002
അംഗീക	4003
എയര്‍	4004
##ൊന്ന	4005
മന്ത്രിസഭ	4006
ബാധിച്ച	4007
ഗോപി	4008
സ്വന്തമ	4009
ക്വാറന്റ	4010
ജ്യോ	4011
##ുവിനെ	4012
##ക്ടോ	4013
##ര്‍ട്ട്	4014
മത്സ്യ	4015
മിനി	4016
##യായിരുന്നു	4017
##ർമ്മ	4018
കാട്ട	4019
ഡിജി	4020
##ാക്കള്‍	4021
##ാരിക	4022
##ോളജി	4023
പാസ	4024
വട	4025
##ങ്ങ്	4026
##ഴ്സ്	4027
##പ്പന	4028
പ്രതികരണ	4029
ലക്ഷ്യ	4030
അയച്ച	4031
മുതിര്‍ന്ന	4032
താലി	4033
##ിയുള്ള	4034
##ാക്കും	4035
മറ്റുള്ള	4036
ടൈ	4037
തര്‍ക്ക	4038
##ഭി	4039
ക്കുകയായിരുന്നു	4040
പ്രകടന	4041
രീതിയ	4042
കർണാടക	4043
സിന്ധ്യ	4044
വെബ്	4045
അടുത്തിടെ	4046
റിപ്പോര്‍ട്ടുകള്‍	4047
ഏതെങ്കിലും	4048
ഇരുവരും	4049
ചാണ്ടി	4050
വക	4051
ക്കുകയും	4052
ഗ്രഹ	4053
എമ്മ	4054
##സ്തി	4055
ട്രെയ	4056
ഉടന്‍	4057
പരിപാടി	4058
വനിത	4059
##ങ്ങനെയ	4060
##കളാണ്	4061
##ബിഐ	4062
ഡോക്ടര്‍	4063
മാനേജ	4064
പരിപാട	4065
വച്ച	4066
##പ്പില്‍	4067
കണക്ക്	4068
ന്യ	4069
ഹർ	4070
##നായി	4071
പ്രദ	4072
ശരീ	4073
##ങ്ങളോട്	4074
വിജയന്‍	4075
ട്വിറ്റ	4076
ഷെ	4077
##ർത്തിയ	4078
##ഫ്ര	4079
##ക്ഷിണ	4080
വെള്ളം	4081
49	4082
ഒപ്പ	4083
##യ്ക്കുന്ന	4084
കുറയ	4085
സ്വദേശിയായ	4086
നമ്മള്‍	4087
ലോട്ടറി	4088
ത്തു	4089
##ഞ്ചേരി	4090
സിനിമാ	4091
ജനറൽ	4092
സന്തോ	4093
എഎ	4094
##ൊക്ക	4095
##ായിക	4096
##ാക്കുക	4097
ജനങ്ങളുടെ	4098
എൽഡിഎ	4099
പൈല	4100
ഉദ്ഘാടനം	4101
ഭാഗത്ത്	4102
പ്രചാരണം	4103
41	4104
##കൃഷ്ണ	4105
##ിട്ടുള്ളത്	4106
തീരുമാനിച്ച	4107
കൂട്ടിച്ചേര്‍ത്തു	4108
ഗെ	4109
കുറിപ്പ	4110
##ത്രിക	4111
കണ്ടെത്തി	4112
ആത്മഹത്യ	4113
##ാന്ത്	4114
##ദിത്യ	4115
തൊഴില്‍	4116
വാക്സിന	4117
46	4118
ഇതാണ്	4119
മരിച്ചു	4120
നേരിടുന്ന	4121
സഹോദര	4122
സര്‍ക്കാര	4123
സ്വാതന്ത്ര്യ	4124
സംവിധായക	4125
തായിരുന്നു	4126
ദക്ഷിണ	4127
പിറ	4128
ിരിക്കുന്നു	4129
കലാപ	4130
എല്‍ഡിഎഫ	4131
തൂ	4132
##രുത്തി	4133
##ങ്കേ	4134
കാര്യമ	4135
ത്തിലൂടെ	4136
തിനും	4137
ഇല്ലാത്ത	4138
ഫോട്ടോ	4139
##പതി	4140
##പുരം	4141
നടത്തിയിരുന്നു	4142
ട്രംപ്	4143
##േക്കാള്‍	4144
പരിക്കേറ്റ	4145
47	4146
65	4147
ടാ	4148
##റുകള്‍	4149
##ിനീയ	4150
##രാജ്	4151
വരെയുള്ള	4152
##ക്കുക	4153
എല്‍ഡിഎഫ്	4154
വേണു	4155
ിരുന്നില്ല	4156
ഏജന്‍	4157
##േക്കും	4158
ക്കേണ്ട	4159
##കള്‍ക്ക്	4160
ചേര്‍ന്ന്	4161
റെക്കോ	4162
സ്പീക്ക	4163
രജിസ്റ്റര്‍	4164
സമുദ	4165
ഹൃദ	4166
കുന്ന	4167
വോ	4168
മാവ	4169
ആവശ്യമായ	4170
കിടക്ക	4171
സുധാകരന്‍	4172
##ാരായ	4173
##തിരായ	4174
ന്യൂഡ	4175
കൃത്യമായ	4176
##ര്‍ഡ്	4177
##ക്‌സ്	4178
യൂണി	4179
ശബരിമല	4180
##ീത	4181
ത്തിനായി	4182
തിരിച്ചടിയ	4183
ഓഫീസ്	4184
പ്രവര്‍ത്തനങ്ങള്‍	4185
##ടിപ്പിച്ച	4186
ആരോഗ	4187
സഹക	4188
സുഹൃത്തു	4189
തുടര്‍ന്നാണ്	4190
വിപണ	4191
കൊണ്ടുപോ	4192
അറേബ	4193
##ത്തിനും	4194
##മാരും	4195
##തിനായി	4196
ഇടത്	4197
അറേബ്യ	4198
52	4199
##ാലോചന	4200
ഗതാഗ	4201
മയ	4202
##രാശ	4203
പ്രവൃ	4204
പരസ	4205
അഡ്വ	4206
ജ്യോതി	4207
വടക്ക	4208
##ായാലും	4209
##ിലേക്കും	4210
ത്തിനു	4211
പ്രതിപക്ഷം	4212
##ര്‍ഡ	4213
##ിക്കൊ	4214
കിഴ	4215
ആശുപത്രിയിൽ	4216
അവി	4217
##റ്റു	4218
##ിപ്പിക്ക	4219
##ികളില്‍	4220
##ുണ്ടായിരുന്ന	4221
ുണ്ടായിരുന്നു	4222
ഏകദേശം	4223
താലിബ	4224
നിര്‍ണായക	4225
പാര്‍ട്ടിയ	4226
90	4227
ഒക്ടോ	4228
യുമാണ്	4229
വന്ന്	4230
ശനിയ	4231
പിൻ	4232
ത്തോടെ	4233
##യ്ക്കും	4234
##ുള്ളിൽ	4235
##െടുത്ത്	4236
അറിയിച്ചത്	4237
മുന്നോട്ട	4238
നേതാക്കളെ	4239
തരംഗ	4240
നില്‍ക്കുന്ന	4241
മെന്നും	4242
ക്കാനും	4243
അപമാന	4244
ഉത്തര്‍	4245
2022	4246
ജില്ലകളില്‍	4247
ിട്ടുണ്ടെന്നും	4248
##േറെ	4249
പ്രതിനിധ	4250
##വ്വാ	4251
199	4252
കൃത്യമായി	4253
ഘടക	4254
##സര	4255
##ോണി	4256
ചികിത്സയില	4257
54	4258
നിയമനം	4259
സമ്മതി	4260
കമ്മിറ്റ	4261
പ്രശ്‌നങ്ങള്‍	4262
കെട്ടിട	4263
ഗ്	4264
##യിച്ച	4265
##മന	4266
##ാകെ	4267
ജോർ	4268
##മന്ത്ര	4269
##ിയാ	4270
അവര്‍ക്ക്	4271
പരമാവധി	4272
കുതി	4273
വേള	4274
മോശ	4275
പ്രചരണ	4276
താത്	4277
##ര്‍മ്മ	4278
ആശയ	4279
സ്ഥാനത്ത്	4280
മന്ത്രാലയം	4281
##നിട	4282
പോലുള്ള	4283
കാലയ	4284
ചോദിച്ച	4285
കണ്ടെത്തിയത്	4286
വിളിച്ച്	4287
മുകള	4288
##ീതി	4289
##രുമായി	4290
പുറമെ	4291
വിജയിച്ച	4292
കുടുംബം	4293
ഭര്‍ത്ത	4294
ക്കുക	4295
##ംഗളൂ	4296
##്യമന്ത്രി	4297
തന്നെയ	4298
തേട	4299
ാലും	4300
##ംഗ്ല	4301
കാണാന്‍	4302
വീട്ടിലെ	4303
പള്ള	4304
##ടുപ്പ	4305
നിഷേധ	4306
മുറ	4307
മാനസിക	4308
##ത്തിനിടെ	4309
##ജിത്	4310
പിന്‍വല	4311
പന്ത	4312
##ീന്ദ്ര	4313
വിട്ട്	4314
വിമര്‍ശന	4315
##ജന്യ	4316
കുടു	4317
മറിക	4318
ബൈഡ	4319
ഉദ്ധ	4320
കേരളത്തിന്റെ	4321
മുന്നിൽ	4322
സുധാകര	4323
##ബോ	4324
##െയര്‍	4325
2018	4326
മാര്‍ഗ	4327
വാക്സിൻ	4328
അറിഞ്ഞ	4329
ഭാഗ്യ	4330
പാർട്ടിയ	4331
##ുഴ	4332
##െടുപ്പ്	4333
വെറും	4334
ഉപതി	4335
സഖ്യം	4336
അഖില	4337
കേട്ട	4338
രൂപയും	4339
ആളുകൾ	4340
ലാഭ	4341
പ്രൊഫ	4342
##ൂട്ടി	4343
ഹാജര	4344
##ണക്കിന്	4345
യാള	4346
അറിയാം	4347
അതിനെ	4348
എന്തിന	4349
പ്രി	4350
മുഖ്യ	4351
അടച്ച	4352
##തീഷ്	4353
ഉപതിരഞ്ഞെടു	4354
##ഥമിക	4355
##ഘട്ട	4356
##ന്‍സ	4357
സമി	4358
ഏറ്റുമ	4359
അഫ്ഗ	4360
ബേ	4361
ചേർന്ന	4362
തിരഞ്ഞെടുപ്പിന്	4363
ഇതിനെ	4364
ശമ്പളം	4365
കവ	4366
##ൈവ	4367
##പിത	4368
മുന്നണ	4369
നേരത്തേ	4370
ഇവര്‍ക്ക്	4371
വൈദ്യുതി	4372
ബാന	4373
##മെന്നാണ്	4374
##മൊരു	4375
പ്രേക്ഷ	4376
##കുമാര്‍	4377
ഇക്കാര്യത്തില്‍	4378
ഫെബ്രുവരി	4379
കപ്പ	4380
##വകു	4381
ഇന്നത്തെ	4382
##ര്‍ഷ	4383
കുറ്റപ്പെടുത്തി	4384
വ്യക്തമാക്കുന്നത്	4385
മുതിർന്ന	4386
അസിസ്റ്റ	4387
ഇക്ക	4388
വരുന്നു	4389
ഉപയോഗിച്ച	4390
##യുമായി	4391
##വാസി	4392
മൂന്നു	4393
പ്രാഥമിക	4394
വേദന	4395
##‌മെന്റ്	4396
ബാബ	4397
ഭീകര	4398
നിയമന	4399
സഹകരണ	4400
ഭക്ഷണം	4401
മെന്ന	4402
ുമ്പ	4403
##ശേഖ	4404
##ിക്കു	4405
##ദ്വ	4406
##ഗ്ഗ	4407
##ക്ട്ര	4408
ഭക്ഷണ	4409
സർക്കാരിന്റെ	4410
സാമൂഹ്യ	4411
ക്കണം	4412
പേര്‍ക്കാണ്	4413
രമ	4414
ുക	4415
##തിൽ	4416
എതിര്‍	4417
പശ്ചാത്തലത്തില്‍	4418
ശക്തമായി	4419
കസ്റ്റഡിയ	4420
ഒക്കെ	4421
കടുവ	4422
ഗെയി	4423
താക്ക	4424
##ഹാറ	4425
##ളയ	4426
വന്നിരുന്നു	4427
ഉദ്ദേശ	4428
തുറന്ന്	4429
കൂട്ടിച്ചേർത്തു	4430
അട്ടി	4431
ക്കുന്നത്	4432
ലഭിച്ചു	4433
പഞ്ചാബ	4434
നേതാക്കളുടെ	4435
സോഷ്യൽ	4436
വ്യക്തമാക്കിയിരുന്നു	4437
ഞങ്ങളുടെ	4438
##ാസി	4439
##ര്‍ദ്ദ	4440
സംഘടിപ്പ	4441
ുവെന്നാണ്	4442
##ഴ്‌സ	4443
സമുദായ	4444
മാതൃക	4445
##െന്റ്	4446
##ക്കിൽ	4447
##ക്കാരുടെ	4448
സംഭ	4449
##്യമുള്ള	4450
കാപ്പ	4451
ഭൂമ	4452
മുൻപ്	4453
തിങ്കളാഴ്ച	4454
യിലൂടെ	4455
##ശങ്ക	4456
##ന്മ	4457
##ില്ലാത്ത	4458
പോയത്	4459
500	4460
പാത	4461
നടത്തും	4462
തേടി	4463
വ്യവസ്ഥ	4464
സ്റ്റേഷന	4465
ഭൂരിപക്ഷം	4466
51	4467
എഫ	4468
ത്ത്	4469
കാസർ	4470
##്യൂണി	4471
മമ്മ	4472
സൗജന്യ	4473
ഉത്തരവ്	4474
ഒള	4475
ചാ	4476
ലേക്ക്	4477
##ായില്ല	4478
##സ്‌ക്	4479
സുപ്രീംകോട	4480
കത്ത	4481
ശ്	4482
##ദാ	4483
നേട്ടം	4484
കളില	4485
##ഴിഞ്ഞ്	4486
ടെസ്റ്റ്	4487
വിവരങ്ങൾ	4488
ചൊവ്വാ	4489
സമര്‍പ്പ	4490
അത്യ	4491
നായിരുന്നു	4492
##ുകാർ	4493
സംസ്ഥാനങ്ങളില്‍	4494
ആലോച	4495
##ദണ്ഡ	4496
പ്രതിഫ	4497
മേഖലയിലെ	4498
2017	4499
യുവാവ	4500
ഒരാള	4501
മലയാളി	4502
ബാഗ	4503
##റിനെ	4504
ക്കി	4505
നിലയിൽ	4506
വുമ	4507
നല്‍കാന്‍	4508
നേതാക്കളും	4509
അഭിനന്ദ	4510
ആഗോള	4511
ബിരുദ	4512
എയർ	4513
പടി	4514
##തുവ	4515
സംഭവത്തിൽ	4516
പ്രവര്‍ത്തിക്കുന്ന	4517
തിരിച്ചറിയ	4518
മാനദണ്ഡ	4519
അക്കൗണ്ട	4520
##ളുപ്പ	4521
##ാന്റെ	4522
സാങ്കേ	4523
കൃഷി	4524
##രെയും	4525
##െത്തി	4526
##ൃതി	4527
##ൈന്‍	4528
ക്കാനാണ്	4529
സ്ഥലം	4530
സൗകര	4531
ബംഗാള	4532
വെളിപ്പെടുത്ത	4533
സിവ	4534
##‌നം	4535
തുടക്കം	4536
സ്റ്റാ	4537
വൻ	4538
##േഷനില്‍	4539
57	4540
##ാലയ	4541
##ിലേറെ	4542
നിയോഗ	4543
റ്റി	4544
തൃണമൂ	4545
##ത്തിനെതിരെ	4546
എന്നു	4547
വാങ്ങി	4548
താലൂ	4549
വേണുഗോപ	4550
##കുന്ന	4551
##രിപ്പിച്ച	4552
##വാഹ	4553
പ്രധാനമന്ത്ര	4554
ഉള്‍പ്പെടെയുള്ള	4555
സ്വർണ	4556
സാങ്കേതിക	4557
സീനിയ	4558
അധികാരം	4559
സിദ്ധ	4560
മത്സരം	4561
ഉറപ്പ്	4562
സാധ്യതയുണ്ട്	4563
വെല്ലുവിളി	4564
##പ്പടെ	4565
തിരിച്ച്	4566
വര്‍ദ്ധ	4567
##സ്റ്റർ	4568
##കോട്	4569
##ന്‍സി	4570
ജനങ്ങളെ	4571
മുന്നേറ്റ	4572
തൃക്ക	4573
എന്‍സി	4574
##ഷണല്‍	4575
##ഡോ	4576
കുവൈ	4577
നിലനില്‍	4578
മണ്ഡലത്തിൽ	4579
പെട്ടെന്ന്	4580
ഐസ	4581
ഡിവ	4582
വിഷ്ണ	4583
##ില്ലെന്ന	4584
##വ്വേ	4585
ഇടപ	4586
തിനു	4587
കര്‍ഷ	4588
നടപടികൾ	4589
പ്രകാര	4590
വോട്ടര്‍	4591
കൊല്ലപ്പെട്ട	4592
##ര്‍ത്ഥ	4593
##ിക്കാനും	4594
പ്രഖ്യാപനം	4595
ആഗ്രഹിക്കുന്ന	4596
അധ്യാപക	4597
ഡല്‍ഹി	4598
##ത്തോട്	4599
##ിക്കുമെന്നും	4600
##ങ്കില്‍	4601
##സ്ഥാന്‍	4602
അന്തി	4603
അനുവദിച്ച	4604
56	4605
ശ്രമിക്കുന്ന	4606
തോന്നിയ	4607
ഇസ്രായേ	4608
ഗവര്‍ണര്‍	4609
നന്ന	4610
കളക്ടര്‍	4611
കുറിപ്പ്	4612
##പ്പുറ	4613
നല്‍കിയിട്ടുണ്ട്	4614
പഞ്ചായത്ത	4615
ചൈനീസ്	4616
58	4617
കെഎസ്	4618
പിന്നില്‍	4619
##പ്പെടും	4620
രീതിയിൽ	4621
പാകിസ്ത	4622
കാനഡ	4623
ടീം	4624
ില്‍	4625
##ൂരിൽ	4626
##ജ്യ	4627
അറിയിച്ചിരുന്നു	4628
ില്ലെന്ന	4629
നല്‍കിയിരുന്നു	4630
##സാദ്	4631
വൈറല	4632
ബാക്കി	4633
തെറ്റി	4634
ചിലര്‍	4635
ച്ചു	4636
അങ്ങ	4637
വാര	4638
##ിലാ	4639
##ിയാഴ്ച	4640
പിടിയ	4641
പറയാന്‍	4642
ുണ്ടെന്നും	4643
ഉടൻ	4644
ഐക്യ	4645
##ക്രിയ	4646
കോടതിയെ	4647
##ക്കാരെ	4648
എന്തെങ്കിലും	4649
വരുത്ത	4650
ള്‍	4651
വിന്	4652
കാറ്റ	4653
##ുണ്ടെന്ന്	4654
ക്ലാസ്	4655
പങ്കുവെച്ച	4656
അരു	4657
##ീയം	4658
വാര്‍ഡ	4659
പശ്ചിമ	4660
തള	4661
##ിക്കെതിരെ	4662
കളി	4663
തിരുവനന്തപുരത്ത്	4664
മുഴുവൻ	4665
ഒമ്പ	4666
യുണ്ട്	4667
റീ	4668
##ജ്ര	4669
##ങ്ങാട്	4670
തുടര്‍ച്ച	4671
രംഗത്ത	4672
ഗം	4673
ബില്ല	4674
##റാഴ്ച	4675
##ക്രോ	4676
ബിജെപിയെ	4677
ബുധനാ	4678
തീയതി	4679
വാഗ്ദാനം	4680
ഞായറാഴ്ച	4681
##ാക്കണം	4682
ബെംഗളൂ	4683
പുതുതായി	4684
വര്‍ക്ക	4685
##വില്‍	4686
##ഞ്ജു	4687
വെടി	4688
പുറമേ	4689
പ്രവര്‍ത്തനം	4690
യോഗി	4691
സീറ്റില്‍	4692
പിടിച്ചു	4693
2023	4694
പാര്‍ട്ടിയുടെ	4695
പ്രവൃത്തി	4696
##കി	4697
##സ്മ	4698
53	4699
ദൗ	4700
യിലുള്ള	4701
ിട്ട്	4702
##മാക്കി	4703
നല്‍കുന്നത്	4704
രോഗമുക്തി	4705
ജസ്റ്റിസ്	4706
സിങ്	4707
വെള്ളിയാഴ്ച	4708
കൺ	4709
ക്കുമെന്നും	4710
കൊള്ള	4711
ന്ന്	4712
നിര്‍ബന്ധ	4713
സംസാരിച്ച	4714
ജില്ലകളിൽ	4715
കാവ	4716
കര്‍ശന	4717
ജഡ്	4718
##ഫോട	4719
അവധി	4720
തുല	4721
രാജ്യത്തിന്റെ	4722
അനുസരിച്ച്	4723
വിമത	4724
എന്‍ഡിഎ	4725
സര്‍വ്വ	4726
##്‌ള	4727
ചിന്തി	4728
ബാധിച്ച്	4729
##രാന്‍	4730
##ർദ്ദ	4731
കളിലെ	4732
പ്രോസിക്യ	4733
അവതരിപ്പ	4734
##േമ	4735
ക്കുമെന്ന്	4736
റെഡ്	4737
##പ്റ്റംബ	4738
രോഹി	4739
തങ്ങള്‍	4740
##ട്ടും	4741
ക്കോ	4742
##രിക്കണം	4743
പരിഗണന	4744
പൗരത്വ	4745
നോട്ടീസ്	4746
ടൂറിസം	4747
##ായ്മ	4748
##ംഗലം	4749
വിൽ	4750
പ്രകടിപ്പ	4751
തുറന്നു	4752
അഭിപ്രായം	4753
പങ്കെടുത്തു	4754
ഏപ്രില്‍	4755
ബ്ലോക്ക്	4756
##ുണ്ടെന്നും	4757
മോഡ	4758
വിളിച്ചു	4759
##ഷണം	4760
വ്യാപനം	4761
വായ്പ	4762
ഒരേ	4763
നന്ദി	4764
രാശിക്കാര്‍ക്ക്	4765
ഏഴ	4766
##ൻഡ്	4767
##ൊപ്പ	4768
ചെയ്യുക	4769
സേവ	4770
ശനിയാഴ്ച	4771
വനം	4772
##ക്കൾ	4773
നടക്കും	4774
കടന്നു	4775
പ്പെട്ട	4776
കരി	4777
മൗ	4778
പ്രാധ	4779
കൊണ്ടുവന്ന	4780
തിനാൽ	4781
ആന്റണി	4782
ഡിവൈ	4783
##ടിച്ച്	4784
അതിൽ	4785
2024	4786
പൊലിസ്	4787
അസം	4788
ബസ	4789
##ശു	4790
##ഞ്ഞാറ	4791
##ിനോ	4792
സിബിഐ	4793
പഞ്ചാബ്	4794
ഗാന്ധിയുടെ	4795
മേല്‍	4796
മോശം	4797
നിർദേശ	4798
തലത്തില്‍	4799
അയ്യ	4800
ശരീര	4801
പച്ച	4802
കാണുന്നത്	4803
##ഷ്യല്‍	4804
സ്ഥലത്ത്	4805
കാസര്‍ഗോഡ്	4806
പ്രകടനം	4807
ഗൗര	4808
ഫു	4809
##റ്റീവ	4810
നടന്നു	4811
ഇറങ്ങിയ	4812
##ിട്ടുള്ള	4813
സാഹചര്യത്തിലാണ്	4814
രാശി	4815
പ്ലാ	4816
സംഗ	4817
##രിക്കാൻ	4818
സമ്പര്‍ക്കം	4819
59	4820
ഏഷ്യ	4821
##തിനിടെ	4822
സംവ	4823
ലൈംഗ	4824
സ്ത്രീകള്‍	4825
വിതരണ	4826
അസ	4827
അഴ	4828
തർക്ക	4829
വേറെ	4830
പ്രഖ്യാപിച്ചു	4831
വകുപ്പിന്റെ	4832
ന്യൂനപക്ഷ	4833
ഏർ	4834
പാറ	4835
മടങ്ങ	4836
സങ്ക	4837
##വരെ	4838
വെറു	4839
ജനങ്ങൾ	4840
വരെയാണ്	4841
ട്രംപ	4842
കയറിയ	4843
വിമര്‍ശനം	4844
റാവ	4845
##പര്യ	4846
ഉപേക്ഷ	4847
ഭക്ഷ്യ	4848
വ്യവസായ	4849
ശാ	4850
##നോ	4851
സ്ഥി	4852
കളുമായി	4853
സെപ്റ്റംബ	4854
##ാറുണ്ട്	4855
തിനുള്ള	4856
ഉൾപ്പെടെയുള്ള	4857
ഇലക്ട്ര	4858
സൂപ്പര്‍	4859
68	4860
അസോ	4861
ടീ	4862
##രിക്കുകയാണ്	4863
നേതൃത്വത്തിലുള്ള	4864
നിയന്ത്രണം	4865
ഇസ്	4866
ിട	4867
##ിറ	4868
മേഖലയിൽ	4869
രക്ഷാ	4870
ട്വീറ്റ്	4871
സൂചിപ്പ	4872
നിർത്ത	4873
ഇന്ത്യയിൽ	4874
##വേഷണ	4875
ദിവസത്തെ	4876
ഹൈദ	4877
##സ്പ്ര	4878
വാഹനം	4879
മല്‍സ	4880
കേള്‍	4881
ഉയർത്ത	4882
##ത്തിനു	4883
വിശദീകരണം	4884
പുരുഷ	4885
കിര	4886
മ്പ	4887
##ക്സ്	4888
കണ്ടത്	4889
എട്ട	4890
വർദ്ധ	4891
പാർല	4892
നോക്കി	4893
ഹര്‍ജി	4894
##കളിലും	4895
പരിശോധനയ്ക്ക്	4896
മന്ത്രാലയ	4897
ശശി	4898
വെട്ട	4899
വ്യക്തമായ	4900
ഗോവ	4901
വിമർശന	4902
വരുമാനം	4903
##ാസം	4904
രാഷ്ട്രീയം	4905
സമ്മാനം	4906
മോദിയുടെ	4907
ക്കുറിച്ച	4908
ഭേദഗതി	4909
ഓട്ട	4910
ശര	4911
##മാണെന്ന്	4912
ഒരുക്കിയ	4913
എസ്‌	4914
അഭിമാന	4915
സ്വര്‍ണം	4916
##ിമിന	4917
എങ്കിലും	4918
##എസ്പി	4919
തിനായി	4920
ക്യാപ്റ്റ	4921
വ്യക്തമാക്കിയത്	4922
ഫൈ	4923
##വറ	4924
##ക്ട്	4925
കുള	4926
പങ്കാള	4927
##ീകരിക്കുന്ന	4928
സര്‍വീസ്	4929
തനിക്ക	4930
രാജസ്ഥാന	4931
മണിക്കുട്ട	4932
കണക്കിലെ	4933
നിൽക്ക	4934
സ്വപ്‌ന	4935
##ീൻ	4936
##ഭോ	4937
സിദ്ദ	4938
അതാണ്	4939
കാര്യമാണ്	4940
##കാര്യം	4941
ബാധിച്ചത്	4942
ചര്‍ച്ചകള്‍	4943
ഒരാൾ	4944
പൂർണ	4945
മകന്‍	4946
ഇത്തരമൊരു	4947
അസോസിയ	4948
കക്ഷ	4949
മുദ്ര	4950
കുടിയ	4951
പൊളി	4952
##ർശന	4953
##ാവശ	4954
തിരഞ്ഞെടുക്ക	4955
##്യൂട്ട	4956
ഏറ്റെടുത്ത	4957
ഉയര്‍ത്ത	4958
രണ്ടാമത്തെ	4959
ക്രൂര	4960
ടെക്	4961
തോടെയാണ്	4962
ഗൂഢ	4963
ഇപ്പോഴത്തെ	4964
ആക്ഷേപ	4965
ക്കുകയാണ്	4966
##പരമായി	4967
കമ്മീഷന്‍	4968
കച്ച	4969
ദ്	4970
വു	4971
വില്ല	4972
##ഗി	4973
##ക്കൂ	4974
ക്കാമ	4975
ദിവസവും	4976
നോക്കിയ	4977
ബോർ	4978
ആദ്യത്തെ	4979
##ലൈന്‍	4980
അന്തിമ	4981
ആധ	4982
ടിക്കറ്റ	4983
ിനെ	4984
##വന്‍	4985
##സ്‌പെ	4986
##ക്കാലിക	4987
സീസണ	4988
അശോ	4989
ദീപ	4990
രാജ്യസഭ	4991
ത്തിനുള്ള	4992
ഫിറോസ്	4993
ലൈംഗിക	4994
സ്നേഹ	4995
നിതീഷ്	4996
അവര	4997
പൂജ	4998
അല്ലെങ്കില്‍	4999
എളുപ്പ	5000
യേയും	5001
##ാവശ്യ	5002
ചിത്രങ്ങള്‍	5003
....	5004
അമേരിക്കന്‍	5005
ഡൽഹി	5006
കര്‍ഷകര്‍	5007
അപ്പ	5008
ക്രിമിന	5009
മണിയോടെ	5010
തടസ്സ	5011
തരത്തിലുള്ള	5012
സര്‍ക്കാരിന്	5013
പാര്‍ട്ടിയില്‍	5014
മറുപടിയ	5015
ഇയാൾ	5016
അതുപോലെ	5017
ആള്‍	5018
##ലിനെ	5019
##ളും	5020
##ര്‍ജി	5021
ന്നു	5022
തൃശ്ശ	5023
ഇതിനായി	5024
ഉന്നയിച്ച	5025
എനിക്ക	5026
##മറി	5027
##േഡ്	5028
ക്കണമെന്നും	5029
ഇറങ്ങ	5030
ഭാരത്	5031
വാര്‍ഡ്	5032
ജാതി	5033
മണിക്ക്	5034
താല്‍പര	5035
##തായും	5036
##മുളള	5037
ത്തിൻ്റെ	5038
സമാനമായ	5039
ആയുധ	5040
അസിസ്റ്റന്റ്	5041
in	5042
മൃ	5043
ആരോ	5044
ങ്ങളില	5045
ഭരണഘടന	5046
തൊഴിൽ	5047
എഐ	5048
ഓപ്പറ	5049
ഗവർ	5050
##ലുകള്‍	5051
വലിയൊരു	5052
##ട്രോ	5053
പദവ	5054
വിനോദ	5055
##ക്കടത്ത്	5056
ബിസിനസ്	5057
മാരുടെ	5058
യുപ	5059
നടത്താന്‍	5060
ഫോൺ	5061
വൈകീ	5062
സുരേന്ദ്രൻ	5063
നല്‍കും	5064
മണിപ്പ	5065
വിശേഷ	5066
വ്യാപന	5067
കരുതുന്നത്	5068
മോഹന്‍ല	5069
ഇന്ധ	5070
മതി	5071
##ൂട്ട്	5072
##ന്നൂര്‍	5073
നിയന്ത്	5074
##ക്‌സി	5075
പരസ്യ	5076
വേണ്ടിയാണ്	5077
കൈകാര്യം	5078
ന്യായ	5079
##ാക്കര	5080
യാഥ	5081
സര്‍ട്ടിഫ	5082
ശിവസേന	5083
##വഹ	5084
##ിവേ	5085
ത്തും	5086
സൗദ	5087
പ്രശ്‌നം	5088
മൊത്തം	5089
ച്ച്	5090
ക്ലാസ	5091
പാവ	5092
##തവും	5093
##ുപേ	5094
##ിരുന്നില്ല	5095
പുരുഷന്‍	5096
അപ്രതീക്ഷ	5097
കാലയളവ	5098
##ൊരാ	5099
പരിശോധനാ	5100
ദുരി	5101
ആര്‍എസ്	5102
കമല്‍	5103
ധനമന്ത്രി	5104
താണെന്ന്	5105
##ോഹ	5106
##ക്ഷോഭ	5107
അവർക്ക്	5108
##തിനാല്‍	5109
കെട്ട	5110
ഭാവ	5111
##നിധി	5112
തോല്‍	5113
നൽകിയത്	5114
സർവ്വ	5115
ബാലചന്ദ്ര	5116
കേന്ദ്രസർക്ക	5117
അധി	5118
എസ്പി	5119
ലാല	5120
ിച്ച	5121
##പറ	5122
സീറ്റുകള	5123
ഇറക്ക	5124
ശമ്പള	5125
കറ	5126
##ണർ	5127
കാരണമ	5128
സാധന	5129
സെക്ക	5130
പരിശോധിച്ച	5131
കയറ	5132
ഡെപ	5133
താമസിക്കുന്ന	5134
ആഹ	5135
##മാക്കിയ	5136
##ായിര	5137
പ്രതികരിച്ചത്	5138
തൃക്കാക്കര	5139
കൈയ്യ	5140
ബിജെപിയില്‍	5141
പട്ടികയില്‍	5142
ചുരു	5143
സച്ചിന്‍	5144
ചൊവ്വാഴ്ച	5145
തിക	5146
##ാകില്ല	5147
കെസി	5148
ജോല	5149
കോടതിയിൽ	5150
പൊതുജന	5151
പരാമർശ	5152
ാക	5153
മാതാ	5154
രാധ	5155
തെലങ്ക	5156
സംഘടനാ	5157
##ുണ്ടാ	5158
കാണാം	5159
സഹി	5160
മെച്ച	5161
യൂണിയ	5162
വരുമ്പ	5163
##ാലിറ്റി	5164
##തുണ്ട്	5165
ക്കാം	5166
കുടി	5167
കഴിവ	5168
ഘട്ടത്തില്‍	5169
തെലങ്കാന	5170
അബു	5171
ഐപിഎ	5172
##വു	5173
##പഞ്ച	5174
അനില്‍	5175
ചെയ്തിട്ട	5176
പെൺകുട്ട	5177
ശബ്ദ	5178
62	5179
ഓഗ	5180
പയ്യ	5181
##വായ	5182
യുപി	5183
കേസുകൾ	5184
വിജയൻ	5185
കോർപ്പറ	5186
##ജ്രിവ	5187
##ഭോക്ത	5188
##ർഷ	5189
##ൗണ്ട്	5190
##ദ്മി	5191
തുടർന്ന	5192
പൊള	5193
മേൽ	5194
സൗഹൃ	5195
അതോറി	5196
പത്രിക	5197
ിന്	5198
##സിലെ	5199
##ക്കായി	5200
കൊട്ട	5201
##ത്തിയത്	5202
പ്രതികരിച്ച	5203
വിദ്യാര്‍ഥ	5204
പെണ്‍കുട്ടി	5205
കഴിഞ്ഞ്	5206
മക്കള	5207
##ൂപ	5208
##ന്നെ	5209
##ാന്‍സ്	5210
##സംഖ്യ	5211
ില്ലെങ്കില്‍	5212
കാലാവധി	5213
നേടിയത്	5214
69	5215
അദ	5216
##രിക്കുക	5217
##ാക്കൾ	5218
##വകുപ്പ്	5219
##ുടേയും	5220
##ുകൂ	5221
അതൃ	5222
##ഡിപി	5223
പദ്ധതിയുടെ	5224
വിഷയത്തിൽ	5225
ഉണ്ണ	5226
എഞ്ച	5227
ജമ്മ	5228
നെടു	5229
##മിന	5230
കൊവിഡ	5231
##േഷ്യ	5232
സാം	5233
ഇതര	5234
##ീകരിച്ചു	5235
മിഥ	5236
തുടങ്ങിയവ	5237
സര്‍വേ	5238
കയറ്റ	5239
ആത്മവി	5240
കിലോ	5241
തുടരുകയാണ്	5242
വീഴ്ച	5243
വരെയും	5244
ദിവസങ്ങളില്‍	5245
ജു	5246
##റ്റിൽ	5247
ആയിരുന്ന	5248
ക്ഷേമ	5249
എന്നിവിടങ്ങളില്‍	5250
പ്രണയ	5251
ബുധനാഴ്ച	5252
63	5253
ഡ്	5254
സില്‍	5255
##ിനാണ്	5256
തിരഞ്ഞ	5257
നിർമ	5258
പ്രഖ്യാപിച്ചത്	5259
ഒടുവില്‍	5260
താൽ	5261
മദ	5262
##ധു	5263
##രാക	5264
##ഴ്സ	5265
കൈമാറ	5266
##ന്യം	5267
പ്രതികളെ	5268
ഇതിലൂടെ	5269
പള്ളി	5270
അതിജീവി	5271
അംഗം	5272
നാലു	5273
അഭിനയ	5274
പീഡന	5275
",	5276
64	5277
72	5278
താണെന്നും	5279
##ത്തുള്ള	5280
കാഞ്ഞ	5281
ഭാഗമായ	5282
മുന്‍പ്	5283
കരുതിയ	5284
പറയുന്നുണ്ട്	5285
കാര്‍ഷിക	5286
വ്യാഴാഴ്ച	5287
##തെന്നാണ്	5288
##ജിത്ത്	5289
നിരക്ക	5290
വര്‍ഷത്തെ	5291
##െയിന്‍	5292
##നാട്ടില്‍	5293
ഗുജറാത്ത്	5294
എഡി	5295
ഒമ	5296
##സ്ഥിതി	5297
##ുവിന്	5298
കെജ്രിവ	5299
ട്ടാണ്	5300
വൃത്ത	5301
ഇന്നും	5302
ഗൗ	5303
ശശ	5304
ആളുകളെ	5305
മുന്നറിയിപ്പ	5306
ഇഡി	5307
##ാവകാശ	5308
##ിപ്പിച്ചത്	5309
കുറയ്ക്ക	5310
റ്റ്	5311
സൈന്യ	5312
കത്ത്	5313
##ിംഗ്	5314
##തന	5315
കോവിഡ	5316
##ങ്ങളിലേക്ക്	5317
മത്സരാ	5318
പോകാന്‍	5319
കോൺഗ്രസിന്	5320
തിരുവനന്തപുര	5321
ചെയ്തിരിക്കുന്നത്	5322
തിരച്ച	5323
##പ്രവർത്ത	5324
##ലിക	5325
##ീണ	5326
തുടരുന്ന	5327
ഉണ്ടായത്	5328
##യോഗം	5329
പ്രവർത്തിക്കുന്ന	5330
ബഹുമ	5331
ഇദ്ദേഹം	5332
സ്ട്ര	5333
##റാം	5334
നടന്‍	5335
പരിധ	5336
രാജീവ്	5337
##ുമായും	5338
ദിലീപിന്റെ	5339
മുല്ലപ്പള്ളി	5340
ഏജൻ	5341
വക്ത	5342
##യല്‍	5343
സ്ഥാനത്തേക്ക്	5344
ുണ്ടെന്ന്	5345
നമ്മൾ	5346
അഞ്ചു	5347
കൈമാറിയ	5348
ഹരി	5349
##വര	5350
##മാക	5351
##ിക്കൽ	5352
ത്തോട്	5353
സംസാരിക്കുകയായിരുന്നു	5354
ആരെ	5355
##റിലെ	5356
##ുകളിലെ	5357
ഗുണം	5358
റോബി	5359
ആശുപത്രിയിലെ	5360
ജീവിതത്തില്‍	5361
ദൃശ്യങ്ങള്‍	5362
ഒട്ടേറെ	5363
ഗതാഗത	5364
ഓഹരി	5365
യോടെ	5366
സിന്റെ	5367
##ന്ദ്	5368
പ്രസിദ്ധ	5369
അടിച്ച	5370
ഇത്തരത്തില്‍	5371
യുഡിഎഫിന്	5372
ഭിന്ന	5373
നാരായ	5374
സല	5375
മാര്‍ക്ക	5376
എന്തായാലും	5377
ിട്ടില്ലെന്നും	5378
ജൂൺ	5379
റെയിൽ	5380
ഇന്ധന	5381
##ാംഗ	5382
##കീയ	5383
ത്തിന്‍റെ	5384
ട്രാ	5385
പദ്ധതിയ	5386
##ത്തിലായിരുന്നു	5387
ആവശ്യപ്പെട്ടിരുന്നു	5388
വയ്ക്ക	5389
##ങ്കിൽ	5390
ഒരുമിച്ച്	5391
ങ്ങളിലും	5392
പരസ്പ	5393
തൊട്ട	5394
തൊഴിലാളി	5395
ഇയാളെ	5396
ട്രെയിന	5397
67	5398
റെയ്	5399
കൊടു	5400
വെള	5401
തുടങ്ങിയത്	5402
വിമാനം	5403
സർട്ടിഫ	5404
എടുത്തു	5405
സംശയം	5406
പിടിച്ച്	5407
രംഗത്തെത്തിയിരുന്നു	5408
ഞ്ഞ	5409
കിഴക്ക	5410
ഗൂഢാലോചന	5411
ധാര	5412
##യുണ്ട്	5413
##പത്	5414
##ില്ലാതെ	5415
രോഗികളുടെ	5416
കഴിയും	5417
ഉറവിട	5418
തിരക്ക	5419
ദളി	5420
നാവ	5421
##ൊന്ന്	5422
##ാളം	5423
ജോലിയ	5424
സംഘപരി	5425
അതിനാല്‍	5426
തകര്‍ന്ന	5427
കരാര്‍	5428
ചിന്ത	5429
തൃണമൂല്‍	5430
ുമായി	5431
സ്വാ	5432
പുഴ	5433
യോഗത്തിൽ	5434
ഗ്രാമപഞ്ച	5435
പ്രവർത്തകർ	5436
##ഭാവിക	5437
ലോക്ക്ഡ	5438
പിതാവ്	5439
കച്ചവ	5440
66	5441
ഓളം	5442
##ന്തരം	5443
ആശ്ര	5444
വിദേശത്ത്	5445
പിടികൂടിയ	5446
എടുത്ത്	5447
ണം	5448
ലഹരി	5449
##ാടു	5450
##ാശ്	5451
പ്രക്ഷോഭ	5452
##ിക്കാത്ത	5453
##ക്ഷന്‍	5454
ന്യൂസ്	5455
റിപ്പോര്‍ട്ടില്‍	5456
അധികൃതർ	5457
മയക്ക	5458
##ൽപ്പ	5459
##ബോധ	5460
##ാനിരിക്കുന്ന	5461
വ്യക്തമല്ല	5462
തലസ്ഥാന	5463
ഡോക്ടർ	5464
പ്രഖ്യാപന	5465
വര്‍ധന	5466
ജോസഫ	5467
സമ്പര്‍ക്കത്തിലൂടെ	5468
ത്രി	5469
ലോക്സഭ	5470
നിമിഷ	5471
എതിര	5472
ക്കുമ്പോള്‍	5473
##ാർക്ക്	5474
എംപ	5475
##പ്പോഴാണ്	5476
പരാതിയില്‍	5477
ട്ടി	5478
ജോര്‍ജ	5479
ഇസ്രായേല്‍	5480
77	5481
##റുടെ	5482
നിങ്ങള്‍ക്ക്	5483
##രാബ	5484
സീറ്റുകൾ	5485
നേതാവും	5486
അടിസ്ഥാനത്തില്‍	5487
ഫേസ്ബുക്കില്‍	5488
ഇസ്ല	5489
74	5490
മരുന്ന	5491
വർക്ക	5492
ിൽ	5493
##ൊഴ	5494
വിലയിരുത്തല്‍	5495
സാധിക്കില്ല	5496
ക്കണമെന്ന്	5497
##ുവെന്നും	5498
##ുകയാണെന്നും	5499
198	5500
ക്കെതിരായ	5501
വെല്ലുവിള	5502
അനി	5503
ആദിത്യ	5504
കും	5505
നാണ	5506
##ണല്‍	5507
ഡിവി	5508
കൊണ്ടിരിക്കുകയാണ്	5509
അധ്യക്ഷൻ	5510
നിറഞ്ഞ	5511
ഡെപ്യൂട്ടി	5512
വെയ്	5513
ൊരു	5514
##ൈസ്	5515
##മായത്	5516
##വേദ	5517
ന്‍റെ	5518
എഴുതിയ	5519
വിഷ്ണു	5520
ആസൂ	5521
ഐടി	5522
##വിരുദ്ധ	5523
##ാലാണ്	5524
##യിച്ച്	5525
പ്രഖ്യാ	5526
ലക്ഷ്യമിട	5527
ബജറ്റ്	5528
ഗള്‍	5529
മതിയ	5530
വല്ല	5531
##െണ്ണ	5532
##ത്തിനെ	5533
##ിക്കാനാണ്	5534
പൊട്ടി	5535
സംഘര്‍ഷ	5536
പെട	5537
മാധ്യമങ്ങള്‍	5538
ഒഴിവാക്ക	5539
ഫ്ല	5540
ബഹി	5541
െടുക്ക	5542
##ിയുമായി	5543
വീഴ	5544
പൊതുമ	5545
##കൾക്ക്	5546
യുവാവ്	5547
പിടിച്ചെടുത്ത	5548
ഹൈദരാബ	5549
നാഗ	5550
ഹരിയ	5551
അത്തരം	5552
ഏജന്‍സ	5553
ഉരു	5554
ഓൺ	5555
ൻ്	5556
##എന്‍	5557
##ങ്ങളിലായി	5558
വെക്ക	5559
എന്നിവരുടെ	5560
##ംബ്രാ	5561
മാർച്ച്	5562
##ഫ്രിക്ക	5563
ഗി	5564
##ായു	5565
##ല്‍ഹ	5566
##ങ്ങളുമായി	5567
യുടെയും	5568
ചികിത്സയിലുള്ള	5569
ക്യാമറ	5570
ക്രൈംബ്രാ	5571
ക്രിസ്	5572
വടകര	5573
അലി	5574
പിയുടെ	5575
മട്ട	5576
‍റെ	5577
##ഹ്‌	5578
##ചാര	5579
##ീൽ	5580
##ിലായിരുന്നു	5581
പാലാ	5582
ആയിര	5583
രംഗത്തെത്തി	5584
ബാധിത	5585
ഏര്‍പ്പെടുത്തിയ	5586
രോഗബാധി	5587
ഡീസ	5588
ശങ്ക	5589
സയ	5590
##താര	5591
പത	5592
വന	5593
##സെ	5594
##േലിയ	5595
അതായത്	5596
യുടേയും	5597
##റ്റിക്	5598
##ികളിൽ	5599
ഏറ്റെടുക്ക	5600
##ബ്ലിക്	5601
മുരളീധരന്‍	5602
ഓണ്‍ലൈന്‍	5603
ന്യൂഡല്‍ഹി	5604
രം	5605
ക്കുമെന്നാണ്	5606
എന്നിവയാണ്	5607
ത്തിനെതിരെ	5608
വോട്ടു	5609
ജയിലില്‍	5610
മൊബൈല്‍	5611
നൂറ	5612
പ്രതികള്‍	5613
പ്രതിദിന	5614
അറിയില്ല	5615
ലോകക	5616
ഗോവിന്	5617
ലൈസ	5618
മധ്യപ്രദേശ	5619
നിർദ്ദേശം	5620
തീവ്രവാദ	5621
സന്ദേശ	5622
ആന്ധ	5623
ഞാന	5624
നാം	5625
നോട്	5626
രക്ത	5627
നിങ്ങളെ	5628
ലക്ഷണ	5629
സ്‌പെ	5630
2014	5631
നഷ്ടപ്പെട്ട	5632
പ്രവേശനം	5633
വിദേശകാര്യ	5634
അപകടം	5635
പാടില്ല	5636
വസ	5637
##ുമായിരുന്നു	5638
##െയില്‍	5639
##രാഗ	5640
സമർപ്പ	5641
ബിജെപിയും	5642
സൈന്യം	5643
ിലേക്ക്	5644
നമ്പര്‍	5645
തള്ളിയ	5646
ബുദ്ധിമുട്ട	5647
##ാരെ	5648
##ാരും	5649
കാണിച്ച	5650
ട്ട്	5651
മടങ്ങിയ	5652
ഇംഗ്ല	5653
ഓണ	5654
പാര	5655
ഫ്‌ള	5656
കൂട്ടി	5657
പലപ്പോഴും	5658
ഉപയോഗിക്കുന്ന	5659
പ്രത്യേകം	5660
ഷാജി	5661
ദുബായ്	5662
ഗൗരവ	5663
മത്സരാർത്ഥ	5664
99	5665
വീതവും	5666
വെട്ടി	5667
തീരുമാനമ	5668
തീരുമാനിച്ചത്	5669
അല്ലെങ്കിൽ	5670
സ്ഥാനാര്‍ഥി	5671
##ണോ	5672
##ഡെ	5673
##ക്കണക്കിന്	5674
##ാണുള്ളത്	5675
വിഭ	5676
തുടര	5677
ഇടയ	5678
ചേർന്ന്	5679
സ്‌ക	5680
##സാധ	5681
നാട്ടിലെ	5682
രാമചന്ദ്ര	5683
വരികയാണ്	5684
ജോർജ്	5685
മറികട	5686
പ്രോസിക്യൂ	5687
ആന്റ്	5688
വുമാണ്	5689
ിറ	5690
##ലാണ്	5691
പ്രയ	5692
##രുത	5693
##ുകെ	5694
മുൻപ	5695
മായിരിക്കും	5696
ജമ്മു	5697
പൊട്ട	5698
അറിയിച്ചിട്ടുണ്ട്	5699
കുറവ്	5700
സ്വാധീ	5701
യാദവ്	5702
##ല്ലി	5703
##വിറ്റി	5704
ഉത്തർ	5705
മുന്‍ക	5706
തൃശൂർ	5707
വാങ്ങുന്ന	5708
തട്ടിപ്പ	5709
കേന്ദ്രസര്‍ക്ക	5710
ഇടപാട	5711
പാസ്	5712
രേ	5713
##ോഗ്ര	5714
ജനത	5715
എന്നിവർ	5716
ഭാഗം	5717
സ്‌പ	5718
കമ്മ്യൂണി	5719
എത്തുന്നത്	5720
പൂര്‍ണമായും	5721
എൽഡിഎഫ്	5722
സഞ്ജ	5723
##ിയിലും	5724
ഇടം	5725
ലോകത്തെ	5726
ശ്രദ്ധേയ	5727
വൈകുന്ന	5728
ഇരട്ട	5729
പരസ്യമായി	5730
ഭർത്ത	5731
##ിക്കര	5732
സംസ്ഥാനം	5733
##ഷ്ഠ	5734
വിവേ	5735
കോണ്‍ഗ്രസും	5736
ശിവശങ്ക	5737
പൂർണ്ണ	5738
പാർട്ടിയുടെ	5739
ചെയ്‌ത	5740
സുപ്രീംകോടതി	5741
പന	5742
##ര്‍ത്ത്	5743
ചെയര്‍മ	5744
##വാള	5745
##മായിരിക്കും	5746
മെന്റ	5747
വീട്ടിലേക്ക്	5748
സമീപം	5749
##ിലേക്കാണ്	5750
അതിജീവിത	5751
ചെയര്‍മാന്‍	5752
85	5753
##റാണ്	5754
##ുമുണ്ട്	5755
##ിനായി	5756
രൂപം	5757
വിജില	5758
ഫോര്‍	5759
വിശദമായ	5760
സ്‌കൂള്‍	5761
സംരക്ഷണ	5762
ഇന്റര്‍	5763
##ക്കൊള്ള	5764
##ഗം	5765
##ുല	5766
##ദ്ദി	5767
##തിനുള്ള	5768
ചെയ്യുകയും	5769
പുറത്തിറക്കിയ	5770
റെയില്‍വേ	5771
78	5772
ആന്‍ഡ്	5773
ഡാറ്റ	5774
പത്മ	5775
സജി	5776
തുടർച്ച	5777
നേതൃത്വത്തിൽ	5778
മണ്ഡലത്തിലെ	5779
നിൽക്കുന്ന	5780
ബോധ്യ	5781
ഡയറക്ടര്‍	5782
റൂമ	5783
സുഹൃത്തുക്കള	5784
മുന്നോട്ടു	5785
നന്നായി	5786
ഗ്രാമപഞ്ചായ	5787
നാമ	5788
രെ	5789
ഉണ്ടാക്കിയ	5790
നിരന്തരം	5791
##ക്കെട്ട	5792
അവസാനിപ്പ	5793
കുട്ടികള്‍	5794
പഠനം	5795
ചുറ്റ	5796
കൗണ്‍സില	5797
ഹരിയാന	5798
മാത്യ	5799
പറമ്പ	5800
ഇതെല്ലാം	5801
മുഖം	5802
##പുല	5803
നൽകാൻ	5804
തീരുമാനിച്ചു	5805
##ക്കിടെ	5806
##ക്കുറി	5807
വിഭാഗത്തില്‍	5808
എറണാകുള	5809
ആരാധക	5810
എപ്പോഴും	5811
ചര	5812
താന	5813
സന്ന	5814
##ഹ്മ	5815
പ്രതിയെ	5816
രാത്ര	5817
##ന്ദര്‍	5818
സര്‍ക്കാരിനെ	5819
ജീവനക്കാര്‍	5820
സതീശന്‍	5821
ബാക്കിയ	5822
##ജെഡി	5823
സ്റ്റോ	5824
വ്യാപാര	5825
വാര്‍ത്തകള്‍	5826
നിയന്ത്രണങ്ങള്‍	5827
തെറ്റായ	5828
സ്വാധീനം	5829
മാപ്പ്	5830
##ഫ്റ്റ്	5831
കോണ്‍ഗ്രസിനെ	5832
കൂടിയായ	5833
മോഹൻ	5834
തട്ടിപ്പ്	5835
കോടിയേരി	5836
മിഥു	5837
ുന്ന	5838
ുമാണ്	5839
##ലജ	5840
##ാന്യ	5841
##ഹ്ല	5842
##‌ഐ	5843
##സ്വാ	5844
സ്വാഗ	5845
കാണാത	5846
മത്സരിപ്പ	5847
ആണെന്ന്	5848
സൗകര്യം	5849
61	5850
കടക്ക	5851
യാവ	5852
##ക്സി	5853
##രുതെന്ന്	5854
ക്കാര്‍	5855
തുടരും	5856
മുന്നോ	5857
ഇവരില്‍	5858
##സിക്യൂട്ട	5859
ഉത്	5860
കാമ	5861
കേരളത്തിന്	5862
താങ്ക	5863
ടെക്‌	5864
അടിസ്ഥാനത്തിലാണ്	5865
കമന്റ	5866
പോരാട്ടം	5867
മില്ലാത്ത	5868
നായക	5869
യായിരുന്ന	5870
വിന്റെ	5871
##േത	5872
##എല്‍	5873
##ണ്ടു	5874
##്മെന്റ്	5875
തുടരു	5876
എന്നിവരെ	5877
ഇതോടെയാണ്	5878
##ാതിരുന്ന	5879
അത്തര	5880
ഗുരുതരമായ	5881
വയസ്സുള്ള	5882
എന്തിനാണ്	5883
##കക്ഷി	5884
##ന്‍റ്	5885
നിങ്ങൾക്ക്	5886
ക്കല്‍	5887
##യ്‌	5888
ആക്രമിച്ച	5889
ാണെന്ന്	5890
ശതമാനവും	5891
വേഗത	5892
കോര്‍പ്പറേഷന്‍	5893
ബല	5894
##ൗണ	5895
യുടേ	5896
ജനകീയ	5897
സംഭാവന	5898
അയാള	5899
അപ്പോള്‍	5900
ആസ്ഥാന	5901
ചാല	5902
ഡല്‍ഹ	5903
##വരാണ്	5904
പുസ്ത	5905
നിന്നെത്തിയ	5906
ക്രൂ	5907
ബ്രാ	5908
നാട്ടുകാര്‍	5909
പാര്‍ലമെന്റ	5910
300	5911
ഖാന്‍	5912
ദശ	5913
##ിയുമായ	5914
മുട്ട	5915
ഒരുങ്ങ	5916
കാരന്‍	5917
കെകെ	5918
പ്രധാനപ്പെട്ട	5919
സ്റ്റേ	5920
സാഹചര	5921
ആരംഭിച്ചത്	5922
##ഷണൽ	5923
ചൂണ്ടിക്കാട്ട	5924
##തുമുന്ന	5925
കാര്യമായ	5926
റിപ്പോർട്ടുകൾ	5927
സുരക്ഷിത	5928
രഹസ്യ	5929
അന്‍	5930
‌സ്	5931
##േശ്വ	5932
##ക്കൂട്ട	5933
പ്രവാസി	5934
ഡിസിസി	5935
ഇടതുമുന്ന	5936
സ്വദേശികളായ	5937
മറ്റും	5938
പ്രദേശത്ത്	5939
##ഗണന	5940
സഹിതം	5941
കക്ഷി	5942
##ചേ	5943
##പ്പെടുവ	5944
പുറപ്പെടുവ	5945
എന്നിവര	5946
എന്നിവരും	5947
ശ്രീന	5948
താരതമ	5949
കൊലപ്പെടുത്തിയ	5950
നേട്ടങ്ങള്‍	5951
പ്രവർത്തനങ്ങൾ	5952
മാതാപിത	5953
മയക്കുമ	5954
73	5955
##നീ	5956
##ണ്യ	5957
##ൗൺ	5958
##െയർ	5959
##സ്ഥത	5960
ില്ലെന്നാണ്	5961
##േറ്റര്‍	5962
താഴ്	5963
##ഴ്‌സി	5964
കുറ്റം	5965
വൈകിട്ട്	5966
പോലീസിന്	5967
നേരിടേണ്ടി	5968
വർധന	5969
സ്കൂള	5970
ഡിജിറ്റ	5971
രാധാക	5972
അങ്ക	5973
ശര്‍മ	5974
##െടുക്കുന്ന	5975
നിർബന്ധ	5976
പിന്തുട	5977
##മാരായ	5978
സര്‍വീസ	5979
അമരീ	5980
ഇരി	5981
ഗ്ല	5982
ക്കൂ	5983
ജെഡിയ	5984
മലയാളം	5985
പുനഃ	5986
എഴുതി	5987
ഇരിക്ക	5988
ഓടി	5989
ചുവ	5990
മരുന്ന്	5991
##ബാ	5992
മാക്ക	5993
സംയു	5994
പ്രതീക്ഷിച്ച	5995
കള്‍ക്ക്	5996
ബാലകൃഷ്ണ	5997
വർഷത്തെ	5998
കായിക	5999
വുമായ	6000
##ിക്കാതെ	6001
ങ്ങളുമായി	6002
രാജ്യങ്ങളില്‍	6003
അല്ലാതെ	6004
പോലീസിന്റെ	6005
ിരുന്നുവെന്നും	6006
സേവനം	6007
അതോറിറ്റി	6008
വേഷ	6009
ശാര	6010
##ിലധികം	6011
##ര്‍ട്ട	6012
വിഡി	6013
അതീവ	6014
ലക്ഷ്മി	6015
ലക്ഷദ്വ	6016
വോട്ടെടുപ്പ്	6017
യൂണ	6018
ഹൃദയ	6019
ആറു	6020
ഇവിട	6021
ഫണ്ട്	6022
യത്	6023
##യിലൂടെ	6024
##്രമ	6025
ല്ലോ	6026
ഡിസംബര്‍	6027
ഇറക്കുമതി	6028
ഓഗസ്റ്റ്	6029
71	6030
ചട്ട	6031
##ൽക്ക	6032
##ർത്ത്	6033
##ിയം	6034
##പ്ത	6035
ടിവി	6036
ആയിരിക്കും	6037
തയ്യാറാക്കിയ	6038
##പ്പെട്ടിരുന്നു	6039
നിര്‍ദ്ദേശം	6040
മുദ്രാവ	6041
76	6042
അറ്റ	6043
അഗ്	6044
മുകളില്‍	6045
ളി	6046
##ായുള്ള	6047
##ംഗം	6048
##്വാനം	6049
പുനര	6050
കണ്‍ട്ര	6051
യഥാര്‍ത്ഥ	6052
വാക്‌സിനേഷന്‍	6053
കിലോമീറ്റര്‍	6054
ആന്റി	6055
യെന്നാണ്	6056
രഞ്	6057
ശരിക്കും	6058
ക്കണമെന്ന	6059
സംസ	6060
സംരംഭ	6061
മുഖേന	6062
ലോകം	6063
രാജ്യസഭാ	6064
ില്ലേ	6065
##ംബര	6066
പുറത്തുവ	6067
ഉം	6068
യേ	6069
സും	6070
##റ്റര്‍	6071
പുത്ത	6072
സാധ്യമ	6073
സൂര	6074
സ്‌നേഹ	6075
കോൺഗ്രസിന്റെ	6076
സ്ഥിരീകരിച്ച്	6077
റിയാസ്	6078
തമിഴ്‌നാട്	6079
സീനിയര്‍	6080
അച്ച	6081
ഇമ	6082
##ത്തുക	6083
##ത്തിന്‍റെ	6084
വേട്ട	6085
ശ്രമിക്കുന്നത്	6086
എന്തുകൊണ്ട്	6087
##താശ്വാസ	6088
ആഗസ്റ്റ്	6089
ഇളവ്	6090
ദുരിതാശ്വാസ	6091
യിലേ	6092
##നീയ	6093
വിപുല	6094
##ുവര	6095
പറയാൻ	6096
യ്ക്കു	6097
വോട്ടുകൾ	6098
ിട്ടുണ്ടെന്ന്	6099
യാണെന്ന	6100
വിമർശനം	6101
സമ്മേളനം	6102
മുരളീധര	6103
ഈട	6104
ഡൗണ്‍	6105
ദ്വ	6106
രവ	6107
കോടതിയുടെ	6108
കുട്ടിയെ	6109
ഹൈക്കമാന്‍	6110
##ഹമ്മദ	6111
സത്യപ്രതി	6112
ശുഭ	6113
പെൺകുട്ടി	6114
ഭരണകൂടം	6115
നെഗറ്റീവ്	6116
താലൂക്ക്	6117
##ുവെന്ന്	6118
കാരി	6119
കുട്ടികളെ	6120
ആരംഭിച്ചു	6121
സുപ്രധാന	6122
സമര്‍പ്പിച്ച	6123
പ്രശാന്ത്	6124
മില്യ	6125
##ഐഎ	6126
പ്രസ്ഥാന	6127
സ്വഭാവ	6128
##രാൻ	6129
ങ്ക	6130
ചെയ്യാന	6131
പരമ്പ	6132
രാഹുലിന്റെ	6133
നിര്‍മാണ	6134
യൂണിവേ	6135
സത്യപ്രതിജ്ഞ	6136
ഇനിയ	6137
##വ്യാപ	6138
കാണാൻ	6139
സുരേഷ	6140
അതിനു	6141
എന്നിങ്ങനെയാണ്	6142
തമ്മിൽ	6143
ദിനം	6144
ഉമ്മൻ	6145
രൂക്ഷമായ	6146
ഒമ്പത്	6147
രോഹിത്	6148
അശോക്	6149
വൈകീട്ട്	6150
രാധാകൃഷ്ണ	6151
അഗ	6152
എകെ	6153
പാന	6154
ശത്	6155
##മാകും	6156
ക്കുമ്പോൾ	6157
സിഎ	6158
##്യൂട്ട്	6159
കണക്കുകള്‍	6160
ായിരിക്കും	6161
ശൈലജ	6162
മുകേഷ്	6163
##ഷന	6164
##ൻഡ	6165
##ഡില്‍	6166
വാഴ	6167
##പ്രകാരം	6168
ശ്രീക	6169
##ഞ്ചി	6170
ആവേശ	6171
രാജ്യങ്ങള്‍	6172
ചിലർ	6173
നിലവിലുള്ള	6174
കല്യ	6175
##മുണ്ടാ	6176
വെബ്‌	6177
88	6178
##കക്ഷ	6179
##ങ്ങളിലാണ്	6180
ചെയ്യണം	6181
ആരാണ്	6182
##ാന്തി	6183
പുരോഗമ	6184
പരിശീലനം	6185
ഭരണകൂട	6186
തരം	6187
ാണി	6188
സംസ്‌	6189
##മ്പതി	6190
നാലാം	6191
കഴിയില്ല	6192
##ാധിക	6193
ഉദ്യോഗസ്ഥർ	6194
##കുമാർ	6195
അര്‍ഹ	6196
കിടക്കുന്ന	6197
പോളിംഗ്	6198
ആദ്മി	6199
##ിക്കണമെന്ന്	6200
##ടിസി	6201
വാടക	6202
നിര്‍ത്തി	6203
നിർദേശം	6204
ഉള്‍പ്പടെ	6205
##ഷ്‌ക	6206
ഹാജരാക	6207
തായാണ്	6208
ഏറ്റുമുട്ട	6209
82	6210
ഓട	6211
വശ	6212
ഹോട്ട്	6213
##ഹാര്‍	6214
##റ്റാണ്ട	6215
പിള്ള	6216
##പ്പോഴ	6217
തെരുവ	6218
ജയിച്ച	6219
മുന്‍പ	6220
വീടുകളില്‍	6221
പുരസ്‌	6222
ചെലവ്	6223
കമ്മീഷൻ	6224
കുറഞ്ഞത്	6225
അക്കാദ	6226
ഡോളര്‍	6227
സിവില്‍	6228
തെറ്റിദ്ധ	6229
അക്ഷ	6230
##ാണെങ്കില്‍	6231
ക്കുവ	6232
ക്കാതെ	6233
##ദ്വേഷ	6234
രാജേഷ്	6235
കുറച്ചു	6236
##പ്പെടുക	6237
സീറ്റുകളില്‍	6238
ദിവസമാണ്	6239
പ്രചരണം	6240
മഹാമ	6241
ലോകത്ത്	6242
##സൈസ്	6243
അൽ	6244
##ലൈന	6245
##പൂര്‍	6246
##ിക്കണമെന്നും	6247
തെളി	6248
ഉപഭോക്ത	6249
ഇത്തവണയും	6250
കുമാറിന്റെ	6251
അരവിന്	6252
അംബാനി	6253
##പ്രവര്‍ത്തക	6254
96	6255
കർശന	6256
പികെ	6257
##വെന്നും	6258
##ക്കാരി	6259
വാത	6260
കാര്യത്തിൽ	6261
അനുസ	6262
ഇറാന്‍	6263
ഇതിനോട	6264
സൈബര്‍	6265
കുറിച്ചും	6266
അംഗീകാരം	6267
മധു	6268
സത്യം	6269
##താം	6270
##കൊ	6271
##ഘാത	6272
##ക്കാം	6273
##ര്‍ജ	6274
ഉപകരണ	6275
##ക്‌സ	6276
കാര്യങ്ങളും	6277
സ്ത്രീകൾ	6278
വക്താവ്	6279
വമ്പ	6280
##ടും	6281
പ്രായം	6282
മാലിന്	6283
രാം	6284
അതുകൊണ്ടാണ്	6285
##ത്സവ	6286
ആവശ്യമാണ്	6287
നടത്താൻ	6288
പ്രത്യേകത	6289
പൂര്‍ണ്ണ	6290
മാരെ	6291
ചരിത്രം	6292
ചടങ്ങില്‍	6293
കുടിയേറ്റ	6294
ബഹു	6295
##ക്കല്‍	6296
##രുടേയും	6297
ആര്യ	6298
##മിറ്റ	6299
പ്പി	6300
ദുര്‍	6301
##ബുല	6302
പ്രശ്നം	6303
പാമ്പ	6304
ഭാരവാഹ	6305
കുട്ടികളുടെ	6306
എല്ലാവര്‍ക്കും	6307
വാര്‍ത്താ	6308
കരുതുന്ന	6309
നാരായണ	6310
79	6311
ആസ്തി	6312
രവി	6313
ശുപ	6314
##ാഴ്ച്ച	6315
##ചക	6316
##ാണു	6317
##നിര്‍	6318
ഇന്ത്യാ	6319
മത്സരിക്കുന്ന	6320
രാഷ്ട്രപതി	6321
കഴിയാത്ത	6322
മാരായ	6323
പോസിറ്റീവ്	6324
വോട്ടി	6325
എഞ്ചിനീയ	6326
ഭവന	6327
ഭരിക്കുന്ന	6328
##വിൽ	6329
##പൊ	6330
##ത്തറ	6331
മാറും	6332
##ാക്കോ	6333
പരാതിയ	6334
ിക്കാന	6335
ഇല്ലാതെ	6336
തകര്‍ക്ക	6337
വസ്ത്ര	6338
ചന്ദ്രശേഖ	6339
ഹോം	6340
##എഫ്ഐ	6341
ഹർജി	6342
94	6343
ആൻഡ്	6344
എട	6345
നാടക	6346
പമ്പ	6347
##മൂ	6348
##ന്തി	6349
##ിവാസ	6350
##ുകയാണെന്ന്	6351
തേജ	6352
ചോദ്യത്തിന്	6353
സന്തോഷം	6354
കേന്ദ്രസർക്കാർ	6355
ഉറവിടം	6356
മുന്നോടിയ	6357
ആശ്വാസ	6358
മുറിയ	6359
പൊതുവ	6360
##ധിച്ച്	6361
##ജ്‌	6362
വേണ്ടത്	6363
##ബന്ധന	6364
യുവാക്ക	6365
##നുസരിച്ച്	6366
മാരും	6367
ബീഹാറ	6368
ഉളള	6369
തിലൂടെ	6370
മഞ്ഞ	6371
ക്കിയ	6372
മാക്കി	6373
ഇതുമായി	6374
ഫോറ	6375
കുട്ടിയുടെ	6376
വ്യാപാരി	6377
##േക്കുള്ള	6378
എന്നിങ്ങനെ	6379
ഉണ്ടായിരുന്നത്	6380
ആനുകൂല	6381
കുറിച്ചുള്ള	6382
സ്വര്‍ണവില	6383
വ്യത്യസ്ത	6384
സർവീസ്	6385
ഗെല	6386
വേളയില്‍	6387
ഇതിനോടകം	6388
89	6389
ഫൈന	6390
മര്‍ദ്ദ	6391
##ഹം	6392
##ബൂ	6393
കളിലേക്ക്	6394
ഉണ്ടാവും	6395
ഡിഎം	6396
അതിക്രമ	6397
പ്രചരിപ്പ	6398
ലീഡ്	6399
നേതാവാണ്	6400
ജില്ലകളിലും	6401
കാലാവസ്ഥാ	6402
രാജിവെ	6403
ഗെയിം	6404
അതൃപ്തി	6405
##സിക്യൂട്ടീവ്	6406
കവി	6407
മിക്ക	6408
നിലനിൽ	6409
ഉണ്ടെന്ന്	6410
ആളാണ്	6411
ഇറങ്ങി	6412
വികസനം	6413
പ്രമേയ	6414
കശ്മീ	6415
ഗോവിന്ദ	6416
കഠ	6417
ചാര്‍	6418
ലഖ്	6419
ക്കുമ	6420
##ാമെന്ന്	6421
##ഴിഞ്ഞു	6422
വന്നതോടെ	6423
എത്തിയിരുന്നു	6424
ദില്ലിയില്‍	6425
മന്ത്രിയുടെ	6426
പരിഹരിക്ക	6427
സന്ദേശം	6428
ബെംഗളൂരു	6429
വെബ്‌സൈ	6430
ചങ്ങ	6431
##ഗമ	6432
##ങ്ങളായ	6433
##ട്‌	6434
അംഗീകരിച്ച	6435
ചികിത്സയില്‍	6436
നാട്ടുകാര	6437
പരിഹാര	6438
ജീവന്‍	6439
ആംബുല	6440
97	6441
ദമ്പതി	6442
##റമ്പ്	6443
പുറത്തെ	6444
കേന്ദ്രമന്ത്രി	6445
കുടുംബാംഗ	6446
സ്ഥലത്തെ	6447
സഹായിക്ക	6448
അറസ്റ്റിലായ	6449
കുറവാണ്	6450
വ്യാപകമായി	6451
86	6452
അങ്ങനെയ	6453
തുമായ	6454
##ഷോ	6455
##മാൻ	6456
##ാനില്‍	6457
ക്കുമെന്ന	6458
##ടിവി	6459
സുഖ	6460
പറയാന	6461
ചെയ്യേണ്ട	6462
##മുറ	6463
വന്നിട്ടുണ്ട്	6464
##വേള	6465
പാട്ട	6466
കോട്ടയ	6467
അപേക്ഷിക്കാം	6468
ദേവസ്	6469
പ്രതിഫല	6470
അജിത്	6471
മന്ദ	6472
സിൽ	6473
ിലെ	6474
##വീന	6475
##ിലായത്	6476
തിരുമാന	6477
##ാരംഭ	6478
സ്ഥിരീകരിച്ചിട്ടുണ്ട്	6479
മിശ്ര	6480
സർക്കാരിന്	6481
ായിരുന്ന	6482
ഉത്തരവാദിത്ത	6483
പ്രമേയം	6484
400	6485
ഇക്കുറി	6486
##റേ	6487
##കൃ	6488
##ിക്കാന	6489
##ിക്കണമെന്ന	6490
##ാവിന്റെ	6491
രാജസ്ഥാന്‍	6492
ജനങ്ങള്‍ക്ക്	6493
നിർണായക	6494
ഓഫീസില്‍	6495
പ്രിയപ്പെട്ട	6496
മണിക്കൂറിനിടെ	6497
എത്രയും	6498
പൗരന്	6499
അഭ്യര്‍ത്ഥ	6500
ഖത്തര്‍	6501
സ്വാഭാവിക	6502
ബിന്	6503
##റുമ	6504
വിദ്വേഷ	6505
കേൾ	6506
##ാമെന്ന	6507
കുറച്ച	6508
അതിവേ	6509
വയസ്	6510
സാധ്യതയുള്ള	6511
മുണ്ടായ	6512
കുറ്റപ	6513
പരിഹസ	6514
നിയമസഭയില്‍	6515
ഇത്തരത്തിൽ	6516
ദുബായ	6517
സൗഹൃദ	6518
തിരഞ്ഞെടുത്ത	6519
അസ്വ	6520
ഒളി	6521
ന്മ	6522
വം	6523
##ിലുണ്ട്	6524
##പ്പിന്	6525
##ാരോഗ്യ	6526
സംസ്	6527
ജനസംഖ്യ	6528
വന്നാല്‍	6529
വരാന്‍	6530
യാത്രാ	6531
ഉദ്യോഗാര്‍ത്ഥ	6532
യൂറോ	6533
ഒരാളെ	6534
ഉറപ്പാണ്	6535
പഞ്ചായത്തിലെ	6536
അടിസ്ഥാനത്തിൽ	6537
സ്വീകരിക്കുന്ന	6538
മറിയ	6539
##വലി	6540
പേജ	6541
ഇപ്പോഴി	6542
മൊഴ	6543
പ്രതീക്ഷിക്കുന്നത്	6544
പ്രത്യേകിച്ച്	6545
കണക്കുകൾ	6546
രജിസ്റ്റർ	6547
കൗൺ	6548
പൈസ	6549
വെളിപ്പെടുത്തിയ	6550
പെട്രോള	6551
പൈലറ്റ്	6552
കൊട്ടാര	6553
ൻ്റെ	6554
എങ്ങനെയാണ്	6555
പാക്ക	6556
പേർക്ക	6557
197	6558
അടക്കമുളള	6559
##ുനിക	6560
ബഹുമാന	6561
ക്രൈംബ്രാഞ്ച്	6562
േണ്ട	6563
##ാദി	6564
##ര്	6565
##ിട്ടു	6566
ആര്	6567
അതിശ	6568
പ്രധാനമായും	6569
ചർച്ചകൾ	6570
എംഎല്‍എമാര്‍	6571
ബംഗാള്‍	6572
മാണിത്	6573
ഇയാളുടെ	6574
എഎപി	6575
ലാഭം	6576
ദളിത്	6577
ിലും	6578
##നോട്	6579
##സ്ത്ര	6580
##ിക്കില്ല	6581
അതും	6582
##റ്റിവിറ്റി	6583
2000	6584
ജോണ്‍	6585
##പ്പെടുത്താന്‍	6586
##ഗ്ന	6587
അതിഥി	6588
കമ്പനിയ	6589
ഓഫീസർ	6590
ഉച്ചയ്ക്ക്	6591
##ത്താന്‍	6592
വോട്ടെണ്ണ	6593
സുധാകരൻ	6594
വേഗം	6595
##ശ്രീ	6596
യുദ്ധം	6597
സാമ്പിളുകളാണ്	6598
വകഭ	6599
സന്തോഷ്	6600
ജഡ്ജി	6601
ദേവസ്വം	6602
).	6603
നടൻ	6604
ന്നും	6605
എത്തിച്ച	6606
ഒന്നര	6607
കണ്ടെത്താന്‍	6608
പരാജയപ്പെട്ട	6609
കഠിന	6610
ലായിരുന്നു	6611
##മംഗലം	6612
##er	6613
പ്രവര്‍ത്തി	6614
ഇതൊക്കെ	6615
കാറ	6616
നടത്തുകയും	6617
പോകാൻ	6618
യെല്ലോ	6619
കഴിയുന്നത്	6620
തയ്യാറെ	6621
നൽകിയിട്ടുണ്ട്	6622
പ്രവേശന	6623
ശതമാനമാണ്	6624
##ാന്യം	6625
തെരഞ്ഞെടുപ്പില്‍	6626
രോഗബാധ	6627
പരസ്പരം	6628
ഉല്‍പ്പ	6629
##വൻ	6630
##ര്‍ക്ക്	6631
##ിക്കി	6632
കളോ	6633
വാക്ക്	6634
രാജേന്ദ്ര	6635
##ഡിറ്റ്	6636
ജനപ്രതി	6637
##ത്സാഹ	6638
വിലക്ക്	6639
രണ്ടും	6640
സ്റ്റേറ്റ്	6641
##സ്പെ	6642
##യ്ക്കായി	6643
നിരീക്ഷണത്തില്‍	6644
ഭാവി	6645
പുലര്‍ച്ച	6646
മൂല്യ	6647
കണ്‍ട്രോള്‍	6648
പറ്റി	6649
##ലുകൾ	6650
##്ക്ക്	6651
എംബ	6652
ഭാഗ്യം	6653
മാധ്യമങ്ങളോട്	6654
തയ്യാറാക	6655
റിക്ര	6656
സ്ഥാപനങ്ങള്‍	6657
അധികാരത്തിലെ	6658
ഫലപ്ര	6659
മാകും	6660
ഏപ്രിൽ	6661
പങ്കെടുക്കുന്ന	6662
കാസർഗോഡ്	6663
04	6664
ദയ	6665
മജി	6666
##വർക്ക്	6667
##ാമ്പ	6668
##ത്താ	6669
##റ്റോ	6670
നിരാശ	6671
##സിസ്	6672
##ട്ടിരുന്നു	6673
##തിനാൽ	6674
വ്യോമ	6675
അനധിക	6676
തീര്‍	6677
അഭ്യൂ	6678
വിജയിച്ചത്	6679
രണ്ടാമ	6680
പ്രഖ്യാപിച്ചിട്ടുണ്ട്	6681
എതിരാ	6682
##യാത്ര	6683
പരിപാടിയില്‍	6684
പ്രേക്ഷക	6685
ഇപ്പോഴിതാ	6686
ക്യൂ	6687
വലു	6688
െടുത്ത	6689
##ട്യൂ	6690
ചെയര്‍	6691
##റ്റ്‌	6692
##ിനിര	6693
##പ്പെടുകയും	6694
ആവശ്യപ്പെട്ടത്	6695
പറ്റിയ	6696
ഹെല്‍	6697
ബന്ധുക്കള	6698
ആരോഗ്യമന്ത്രി	6699
പങ്ക്	6700
ശരാശ	6701
##ീരിക	6702
##ുകു	6703
ക്കാത്ത	6704
സെന്‍	6705
രൂപീകരിച്ച	6706
##കുളം	6707
ഉപരോധ	6708
ചോദിക്കുന്നു	6709
##ന്തരീക്ഷ	6710
ജീവിതത്തിൽ	6711
അഖിൽ	6712
പടിഞ്ഞാറ	6713
##സ്പ്രസ്	6714
കിരീ	6715
ക്രിസ്ത്യ	6716
83	6717
ആര്‍ക്കും	6718
ഗര്‍	6719
ഡൊ	6720
യെയും	6721
വന്	6722
##ാണെന്നാണ്	6723
പ്രളയ	6724
##റ്റിറ്റ	6725
##പ്പെടുത്തുക	6726
##പുര	6727
2015	6728
പരിഹാരം	6729
ഹര്‍ജ	6730
വ്യക്തിയാണ്	6731
വയസുള്ള	6732
ജനം	6733
ഡബ്ല	6734
ഫിന	6735
സായി	6736
##ൃഹ	6737
##ഡിൽ	6738
##ലിശ	6739
ത്തിലായിരുന്നു	6740
നിര്‍മ്മാണ	6741
മടങ്ങി	6742
കഷ്ട	6743
##al	6744
##ക്കയ	6745
ത്തിലുള്ള	6746
ഇന്ത്യയെ	6747
വര്‍ഗീയ	6748
ഗ്രാ	6749
ചെറ	6750
പോകും	6751
വളര്‍ച്ച	6752
പ്ലസ്	6753
ബംഗ്ല	6754
യഥാർത്ഥ	6755
ഗണേഷ്	6756
ശക്ത	6757
മുനി	6758
##തിനും	6759
അനുമ	6760
ലഭിക്കുക	6761
സര്‍ക്കാരു	6762
ദിവസങ്ങളിൽ	6763
2011	6764
##ച്ചിത്ര	6765
ഒറ്റപ്പെട്ട	6766
പങ്കുവച്ച	6767
##ലോക	6768
നവംബര്‍	6769
നൈ	6770
സൊ	6771
##ചാണ്ടി	6772
##ാന്‍ഡ്	6773
കളക്ടർ	6774
സമർ	6775
ങ്ങളിലെ	6776
കേസുകളാണ്	6777
##കരമായി	6778
##ിടിച്ച	6779
ഇതിനകം	6780
ചൂണ്ടിക്കാട്ടിയ	6781
പ്രായമുള്ള	6782
പുരോഗതി	6783
ഇക്കഴിഞ്ഞ	6784
ഏഷ്യാനെ	6785
ഇടതുമുന്നണി	6786
98	6787
92	6788
##രേയും	6789
വിശ്വാസം	6790
##ിപ്പിക്കാന്‍	6791
ആശംസ	6792
നേരിയ	6793
നാശ	6794
അറിവ	6795
മണിക്കൂറിന	6796
നിലപാടാണ്	6797
ഇന്റർ	6798
ക്കൊപ്പ	6799
താലിബാന്‍	6800
മൃഗ	6801
അഹമ്മദ്	6802
കത്തി	6803
ശരി	6804
##ജിനീയ	6805
പ്രതിയായ	6806
കുരു	6807
കളായ	6808
കളിലൂടെ	6809
അതുകൊണ്ട	6810
പാഠ	6811
അധ്യക്ഷത	6812
ഉറപ്പാക്ക	6813
യാണോ	6814
പ്പോഴാണ്	6815
ഉയര്‍ന്നു	6816
കുഞ്ഞിനെ	6817
##ലാത്സ	6818
വിപണി	6819
കൊലപാതകം	6820
തെളിയിക്കുന്ന	6821
ചൗഹ	6822
കസ്റ്റഡിയിലെ	6823
ദ്ര	6824
ഭക്ത	6825
ിക്കുന്ന	6826
പ്രസാദ്	6827
പിക്ക്	6828
കാരനായ	6829
വേണമ	6830
മോച	6831
ഉയരുന്ന	6832
തോറ്റ	6833
നാഥ	6834
##ടനീ	6835
കുറ്റകൃ	6836
വെച്ചാണ്	6837
##പരിഹ	6838
##രമൊരു	6839
രാജിവെച്ച	6840
ചെലവഴ	6841
പരാമര്‍ശം	6842
രഹസ	6843
അഫ്ഗാനി	6844
കരിയ	6845
ചട	6846
ചാണ്ട	6847
പകു	6848
##ദാസ്	6849
##ൂപ്	6850
##ഡറ	6851
##സ്തു	6852
പ്രോഗ്ര	6853
##ുള്ളി	6854
സ്ഥാ	6855
വേണമെന്ന്	6856
വർഗീയ	6857
ബോര്‍ഡ്	6858
ഉത്തരവി	6859
രേഖകള്‍	6860
പക്ഷം	6861
പുറത്തുവിട്ട	6862
കോളേജില്‍	6863
ഇറ്റ	6864
ഇളവ	6865
ഒത്തു	6866
##സേ	6867
##ിച്ചിരുന്ന	6868
എന്നത	6869
##ിവെച്ച	6870
കെഎം	6871
##പ്‌	6872
സെൻ	6873
പെരി	6874
പെന്‍	6875
അതിര്‍ത്തി	6876
പലയിട	6877
ദിവസത്തിന	6878
സിനിമയുടെ	6879
നടപ്പാക്ക	6880
ജാമ്യ	6881
84	6882
##ഭൂ	6883
പ്രോട്ടോ	6884
##ാനു	6885
നിഷ	6886
നടിയെ	6887
##ുവും	6888
സ്‌കോ	6889
ുണ്ടെങ്കിലും	6890
പ്രദേശങ്ങളില്‍	6891
സിനിമയില്‍	6892
വ്യത്യസ്	6893
തമിഴ്നാട്	6894
അന്നത്തെ	6895
ഒതു	6896
##മാണെന്നും	6897
പ്രത	6898
##്യമില്ല	6899
പരിധി	6900
ഭാരത	6901
വര്‍ഷമായി	6902
ലൈന്‍	6903
ലൈഫ്	6904
പരീക്ഷണ	6905
വഴിയ	6906
ഹൗസ്	6907
കാസര്‍കോട്	6908
സന്നദ്ധ	6909
അസു	6910
എടുക്കുന്ന	6911
നെതിരെ	6912
##ര്‍ദ	6913
കുത്തി	6914
സാധിച്ചു	6915
##മിതി	6916
അത്ഭ	6917
പാലം	6918
പ്രകോപ	6919
പ്രകാശ്	6920
രക്ഷപ്പെട	6921
വാക്സിന്‍	6922
കോടിയുടെ	6923
ത്തിയത്	6924
മമ്മൂട്ടി	6925
നിലനില്‍ക്കുന്ന	6926
തിലും	6927
തിനിടെ	6928
റിന്റെ	6929
ുളള	6930
##ലിലെ	6931
##രായി	6932
##കേ	6933
##ര്‍ണ	6934
##ങ്കി	6935
സുനി	6936
കാണാന	6937
##ുകയോ	6938
മലബ	6939
കടന്ന്	6940
ആശുപത്രിയിലേക്ക്	6941
ആശുപത്രികളില്‍	6942
സംയുക്ത	6943
വര്‍ക്കും	6944
##വാണ്	6945
##സഹ	6946
##ര്‍ക്കെതിരെ	6947
വെടിയ	6948
സംഘടിപ്പിച്ച	6949
കേസുകളില്‍	6950
ലോക്‌സഭ	6951
യ്‌ക്കെതിരെ	6952
പ്രധാനമന്ത്രിയുടെ	6953
ഇന്‍സ്	6954
ജന്മ	6955
തോട്ട	6956
പലിശ	6957
ബില്യ	6958
##ലിക്കാ	6959
##നത്തില്‍	6960
##േറ	6961
##ർട്ട	6962
##ുമെല്ലാം	6963
കഴിഞ്ഞാല്‍	6964
തോതില്‍	6965
നല്‍കിയിരിക്കുന്നത്	6966
കോളജ	6967
പാര്‍ട്ടിക്ക്	6968
ല്ലേ	6969
##ത്തിലധികം	6970
സ്വീകരിച്ചത്	6971
അഖില്‍	6972
കസ്റ്റഡ	6973
സ്വർണ്ണ	6974
സംഘപരിവ	6975
95	6976
ധൈ	6977
##ാഥ	6978
##ഗ്രി	6979
സാധിക്കുന്ന	6980
എന്നിവയുടെ	6981
##സാദ	6982
ആക്രമിക്കപ്പെട്ട	6983
സ്പെ	6984
മണിക്കൂറിൽ	6985
പ്പോഴും	6986
കരാർ	6987
ജയരാജന്‍	6988
ചലച്ചിത്ര	6989
അട്ടിമറി	6990
തുടര്‍ച്ചയായി	6991
അധിക്ഷേപ	6992
രും	6993
തിള	6994
##ിക്കുന്നതിന്	6995
കളോട്	6996
പിന്നിൽ	6997
ലോകാര	6998
വേണ്ടിയുള്ള	6999
അംഗങ്ങള്‍	7000
ിക്കാൻ	7001
പ്രവർത്തനം	7002
രജിസ്ട്ര	7003
പൊലീസിന്	7004
പ്രശ്നങ്ങൾ	7005
സഹായത്തോടെ	7006
കഥാപ	7007
ടീച്ച	7008
പാർലമെന്റ	7009
ആര്‍എസ്എസ്	7010
ലോകാരോഗ്യ	7011
പുക	7012
റും	7013
ശസ്ത്ര	7014
പറഞ്ഞാല്‍	7015
വരില്‍	7016
മോഷ്ട	7017
കൂട്ടിയ	7018
യോജ	7019
പൈലറ്റ	7020
ഭര്‍ത്താവ്	7021
കേന്ദ്രസര്‍ക്കാര്‍	7022
അരവിന്ദ്	7023
മുനിസിപ്പ	7024
ജ്വ	7025
ദീര്‍	7026
നറു	7027
##നഷ്ട	7028
##പാദ	7029
##ത്തീസ്	7030
##ക്തമായ	7031
കേസുമായി	7032
ശേഷി	7033
##ക്രമണ	7034
തുറക്ക	7035
ഉദ്യോഗസ്ഥരെ	7036
അതിനാൽ	7037
ചുഴ	7038
##പരിധി	7039
മനോരമ	7040
ദീര്‍ഘ	7041
അടുത്ത്	7042
ാന്‍	7043
##റായ	7044
##േന്ത്യ	7045
##ഘടനാ	7046
കുറഞ്ഞു	7047
ഡിംപ	7048
ഉയർത്തിയ	7049
അവസാനം	7050
റോബ	7051
ഫോണില്‍	7052
അരി	7053
അശ്വ	7054
##ല്	7055
##ൻറെ	7056
##ഡീ	7057
ലഭിക്കുന്നത്	7058
രോഗലക്ഷ	7059
സ്‌ക്	7060
അപകടത്തില്‍	7061
ലോക്സഭാ	7062
പോസിറ്റീവ	7063
കഥാപാ	7064
ശസ്ത്രക്രിയ	7065
നയം	7066
##ള്‍പ്പെടെ	7067
##െയിൽ	7068
സാഹി	7069
കേരളത്തെ	7070
മെട്രോ	7071
തൊട്ടു	7072
പുറത്തേക്ക്	7073
##േക്കാൾ	7074
##യോര	7075
ഡയറക്ടറ	7076
പോസിറ്റിവിറ്റി	7077
പ്രഖ്യാപിച്ച്	7078
ശരാശരി	7079
കഞ്ച	7080
ബില്‍	7081
##ധ്യം	7082
##ീസി	7083
##ാനന്തര	7084
ക്വ	7085
സിസി	7086
കളെല്ലാം	7087
വ്യക്തമായി	7088
കൊണ്ടുള്ള	7089
തിരിച്ചെത്തിയ	7090
പദ്ധതികള്‍	7091
##ത്തിലുള്ളത്	7092
നാട്ടിലേക്ക്	7093
ചുമത്തിയ	7094
##വെള്ള	7095
സഹോദരി	7096
മൂല്യം	7097
ശരിയായ	7098
അഖിലേഷ്	7099
കട്ട	7100
ധരിച്ച	7101
ബദ	7102
മസ്	7103
##റ്റർ	7104
ക്കേ	7105
##ത്രെ	7106
മാല	7107
നല്‍കുക	7108
കാണുന്നു	7109
ഉത്തരം	7110
ുണ്ടോ	7111
##ൂരപ്പ	7112
##ായിരുന്നില്ല	7113
ചെയ്യുന്നുണ്ട്	7114
മാണെന്ന	7115
സിപിഎമ്മിന്റെ	7116
അർഹ	7117
ക്വാറന്റൈന	7118
ശാരീരിക	7119
യൊക്കെ	7120
സ്ര	7121
##േരം	7122
##ിന്റ്	7123
##രുടെയും	7124
ഓഫി	7125
യാത്രക്കാര	7126
ഇതിനു	7127
നേതാവിനെ	7128
അകലം	7129
ചെയ്യാം	7130
വലിച്ച	7131
ഒടുവിൽ	7132
എന്‍സിപി	7133
##വ്യൂ	7134
##ീത്	7135
പോള്‍	7136
##ാറിന്റെ	7137
അയാൾ	7138
ഭരണഘടനാ	7139
ആലുവ	7140
ഒഴിവാക്കിയ	7141
പശ്ചാത്തലത്തിൽ	7142
മീറ്റര്‍	7143
ദൈ	7144
##ദീപ്	7145
കൊന്ന	7146
വീഴ്	7147
ഇടവേള	7148
ഉയര്‍ത്തിയ	7149
ഉറപ്പു	7150
കോണ്‍ഗ്രസിന	7151
തടസ	7152
ബാധ്യത	7153
നടക്കുക	7154
ബ്രി	7155
അക്കൗണ്ട്	7156
ജലനിര	7157
വേഗത്തില്‍	7158
ആരാധകര്‍	7159
പവന്‍	7160
##ുമ്പോഴും	7161
പാർട്ടിയിൽ	7162
ഓട്ടോ	7163
ചികിത്സയിലുള്ളത്	7164
ഇന്‍സ്റ്റിറ്റ	7165
87	7166
ലധികം	7167
##ടിച്ചു	7168
##ഖണ്	7169
##വാടി	7170
നിയോ	7171
ആവര്‍ത്ത	7172
തെക്ക	7173
ഗ്രാം	7174
നേതൃത്വത്തിന്	7175
കസ്റ്റംസ്	7176
നിശ്ചയിച്ച	7177
സംഗീത	7178
ആഹ്വാനം	7179
ധാരാളം	7180
മാത്യു	7181
കസ്റ്റഡിയില്‍	7182
അദ്ധ	7183
കല്‍പ്പ	7184
മുറി	7185
സിദ്ദി	7186
സുന്ദ	7187
##ഴ്സി	7188
വര്‍ഗ	7189
ഉത്തരാ	7190
തലശേരി	7191
വിവാദം	7192
മണ്ഡലങ്ങളില്‍	7193
ിട്ടില്ലെന്ന്	7194
നയിക്കുന്ന	7195
പട്ടികയിൽ	7196
ശുക്ര	7197
അരങ്ങ	7198
പരിശീലന	7199
കാട്ടാന	7200
സ്വാഗതം	7201
എഴ	7202
പാണ്	7203
റിപ്പ	7204
##ാഖ	7205
##ുകി	7206
മാർക്ക	7207
##ണ്ഠ	7208
##രാജ	7209
തുടര്‍	7210
ചെയ്യപ്പെട്ട	7211
##ുപുഴ	7212
##ടക്കി	7213
തിനാണ്	7214
ക്കുറിച്ച്	7215
െന്നായിരുന്നു	7216
പങ്കുവെ	7217
കീഴില്‍	7218
ഒക്ടോബര്‍	7219
പതാക	7220
മുന്നോടിയായി	7221
മകള്‍	7222
##ാറി	7223
##സ്ട	7224
മാസ്	7225
ങ്ങളോ	7226
എന്തുകൊണ്ടാണ്	7227
ടെസ്റ്റ	7228
സംസാരിച്ചു	7229
പരിഗണിച്ച	7230
പ്രോത്സാഹ	7231
ഡയറക്ടർ	7232
വസ്തുത	7233
യുമായിരുന്നു	7234
അജയ്	7235
ലക്ഷ്യമിടുന്നത്	7236
ഓറ	7237
പരു	7238
മംഗ	7239
ഷായ	7240
ഹു	7241
##20	7242
ഒരുക്ക	7243
സുനില്‍	7244
വേണമെന്ന	7245
സെപ്	7246
രൂപീകരിക്ക	7247
കോൺഗ്രസിൽ	7248
ടെലി	7249
##ശ്വര	7250
ദില്ലിയിലെ	7251
നയതന്ത്ര	7252
ിലാണ്	7253
നായര്‍	7254
മുന്നേറ്റം	7255
വാല	7256
##മട	7257
##ത്തൂര്‍	7258
കൊടുക്കുന്ന	7259
##മ്മേള	7260
കളായി	7261
സമഗ്ര	7262
ഉയര്‍ത്തി	7263
ആരോപിക്കുന്നു	7264
ദുരിത	7265
ചിത്രങ്ങൾ	7266
അനുബന്ധ	7267
വിഷമ	7268
തടഞ്ഞ	7269
ഒരാഴ്ച	7270
കിട്ടുന്ന	7271
തൊഴിലാളികള്‍	7272
ഉണ്ടാകുന്ന	7273
കാർഡ്	7274
##ലൈൻ	7275
നിമിഷം	7276
ഗംഭ	7277
ആവി	7278
ഡേ	7279
രുടെ	7280
ഹാള	7281
##ടങ്ങിയ	7282
##പേ	7283
##ൈൻ	7284
##ഫറ	7285
##ഫിയ	7286
##റ്റുകള്‍	7287
സംഭാ	7288
##ക്രമണം	7289
ക്രിക്കറ്റ്	7290
ഒഴിവാക്കി	7291
സർവ്വേ	7292
ചെലു	7293
റണ്‍സ	7294
പുസ്തക	7295
മയക്കുമരുന്ന്	7296
ഓടെ	7297
റവ	7298
വള്ള	7299
സല്‍	7300
##വതി	7301
##നയ	7302
##മയ	7303
വിര	7304
ക്കില്ല	7305
##റിംഗ്	7306
##വാദം	7307
വാസ	7308
വെച്ചു	7309
വ്യക്ത	7310
പറയാനുള്ള	7311
ചിഹ്	7312
കണ്ണൂരില്‍	7313
തിരിച്ചറിഞ്ഞ	7314
വരുത്തിയ	7315
സന്ദീപ്	7316
ഭൂരിഭാഗ	7317
കുഞ്ഞാല	7318
വാക്കുകള്‍	7319
പിൻവല	7320
രവീന്ദ്ര	7321
അസമ	7322
ആക്	7323
പാള	7324
മന്‍	7325
റു	7326
##ാവിനെ	7327
##ുവരെ	7328
അനൂപ്	7329
##ിരിക്കെ	7330
സ്ഥാപിച്ച	7331
തയ്യാറായ	7332
ബുക്ക്	7333
വൈകാതെ	7334
ഫേസ്ബുക്കിൽ	7335
വിചാ	7336
റിപ്പോർട്ടിൽ	7337
ചികിത്സയിലായിരുന്ന	7338
ഒമൈ	7339
ഗൃഹ	7340
മഞ്ജു	7341
വാണി	7342
സന	7343
##ോളി	7344
##്യന്‍	7345
##സ്ഥാൻ	7346
##രാഷ്ട്ര	7347
##ുണ്ടായി	7348
മലപ്പുറ	7349
പേരെയാണ്	7350
നിശ്ചയ	7351
ബന്ധുക്കള്‍	7352
ബിരുദം	7353
സമ്മേളനത്തില്‍	7354
സ്പീക്കര്‍	7355
രോഗബാധിത	7356
ഓക്സി	7357
ചാർ	7358
തുമായി	7359
പകര്‍	7360
ഹൂ	7361
##ബാധ	7362
##പ്പിന്റെ	7363
##സിറ്റ്	7364
##റിഞ്ഞു	7365
രാജു	7366
##ോധ്യ	7367
രൂപയ	7368
സംഘർഷ	7369
ഉയര	7370
മാറ്റങ്ങള്‍	7371
സൗത്ത്	7372
അയോധ്യ	7373
പ്രകൃതി	7374
മാനേജ്	7375
മാര്‍ക്ക്	7376
കരുതുന്നു	7377
ക്കിടയില്‍	7378
ലക്ഷ്യത്തോടെ	7379
മോഹന്‍ലാല്‍	7380
വന്ദേ	7381
അടുപ്പ	7382
ഇന്ദ	7383
താപ	7384
ഫയ	7385
ഹേമ	7386
##േതര	7387
##ായിരം	7388
എന്നതും	7389
##ാകുന്നത്	7390
##ക്രമി	7391
ചിങ്ങ	7392
പ്രവര്‍ത്തകര	7393
##സ്തവ	7394
പ്രദേശ്	7395
മണിക്കൂര്‍	7396
നൽകിയിരുന്നു	7397
നഷ്ടപരിഹ	7398
വീടിന്	7399
ണ്ട്	7400
മുഖ്യമന്ത്രിയെ	7401
േക്കാം	7402
പിടികൂട	7403
ശശീന്ദ്ര	7404
ആസൂത്ര	7405
ടാസ്	7406
റാല	7407
വഞ്ച	7408
്‍	7409
##ടപ	7410
##ിക്കുമെന്ന	7411
ജനപ്ര	7412
ങ്ങളിലൂടെ	7413
##ഷ്യൽ	7414
ചേര്‍ത്ത	7415
നാഷണല്‍	7416
യാണെങ്കില്‍	7417
കാര്‍ഡ്	7418
അനുകൂലമായ	7419
##ുതന്നെ	7420
വെറുതെ	7421
##ാധികാരി	7422
91	7423
ഒടി	7424
ഹമാ	7425
##ണയ	7426
എന്നുള്ള	7427
എന്നിട്ടും	7428
മാധ	7429
##ാര്‍ഡ്	7430
നിർത്തി	7431
ഇതിനെതിരെ	7432
വിദ്യാർ	7433
രേഖപ്പെടുത്ത	7434
രേഖപ്പെടുത്തി	7435
സംസാരിക്കുന്ന	7436
മുഖ്യമന്ത്രിയും	7437
ാണെന്നും	7438
മനോഹ	7439
ഡിസംബർ	7440
##ല്‍ക്കത്ത	7441
ഗള്‍ഫ്	7442
ദശലക്ഷ	7443
അസുഖ	7444
ഗ്യ	7445
ജയ്	7446
ധോണി	7447
പൗ	7448
ലാല്‍	7449
##രേഖ	7450
##ക്രാ	7451
##ത്തിലേ	7452
##പ്പിൽ	7453
നിത	7454
വോട്ടർ	7455
##്യമായാണ്	7456
റിലീസ്	7457
എൽഡിഎഫ	7458
വൈകുന്നേരം	7459
വംശ	7460
അക്കാര	7461
തങ്ങൾ	7462
##ുഖ	7463
##മോദ	7464
##ിയോട്	7465
ക്കാർ	7466
##ല്ലേ	7467
##ാലം	7468
കളയ	7469
സുശ	7470
##മായുള്ള	7471
നേതൃത്വത്തിന്റെ	7472
ബോര്‍ഡ	7473
##ിക്കാരുടെ	7474
നഷ്ടം	7475
കൾക്ക്	7476
രൂക്ഷമായി	7477
വിദ്യാര്‍ത്ഥികള്‍	7478
വാഗ്ദാന	7479
രേഖപ്പെടുത്തിയത്	7480
ശബ്ദം	7481
ആരെങ്കിലും	7482
ഛത്തീസ്	7483
ഞെ	7484
തകര്‍	7485
പനി	7486
പണമ	7487
റൈ	7488
##രെയ	7489
##രൂപ	7490
##േയാണ്	7491
പ്രയോഗ	7492
##ാൻസ്	7493
##ുകളിലേക്ക്	7494
പ്രവർത്തി	7495
സ്‌ഫോട	7496
ഉടനെ	7497
മഴയ്ക്ക്	7498
സജീവമായി	7499
രോഗമുക്ത	7500
അഭ്യർത്ഥ	7501
ഒളിവ	7502
റവന്യ	7503
ഓർ	7504
രായ	7505
ശക്	7506
ിക്കും	7507
കുഞ്ഞു	7508
##റ്റിംഗ്	7509
കോണ്‍ഗ്രസിലെ	7510
എത്തും	7511
ണ്ടാക	7512
പ്ലാന്‍	7513
ത്തെക്കുറിച്ച്	7514
മഹാരാഷ്ട്രയില്‍	7515
ക്ഷണിച്ചു	7516
മാനേജര്‍	7517
ജ്യോതിഷ	7518
സ്ഥിരം	7519
ജലനിരപ്പ്	7520
600	7521
ഞാനും	7522
ലൂടെ	7523
വിയ	7524
സിനെ	7525
സസ്‌പെ	7526
##വരും	7527
##റേയും	7528
##ബദ്ധ	7529
വിറ്റ	7530
##ത്തിരി	7531
തീപി	7532
മേഖലകളില്‍	7533
പ്രത്യക്ഷ	7534
150	7535
ചികിത്സാ	7536
എന്നിങ്ങന	7537
എല്ലാവർക്കും	7538
ബൈജു	7539
കാർഷിക	7540
##ുപോയ	7541
വീണാ	7542
അമ്പല	7543
വിപണിയില്‍	7544
പുലര്‍ച്ചെ	7545
ആപ്പ്	7546
ഉത്ര	7547
മഞ്ച	7548
##കരി	7549
വിരമ	7550
##ുമല്ല	7551
മാസ്‌ക്	7552
മേയ്	7553
##ര്‍ന്നു	7554
ലിമിറ്റ	7555
ജീവനക്കാർ	7556
##െയിൻ	7557
അഭിപ്രായപ്പെട്ടു	7558
അത്തരമൊരു	7559
വാർത്താ	7560
പ്രാധാന്യം	7561
കപ	7562
നുള്ള	7563
ഫണ്ട	7564
യുമായ	7565
ബിഷ	7566
സിം	7567
സുന	7568
നടത്തുക	7569
ശക്തമാണ്	7570
നേതാവായ	7571
യിലായിരുന്നു	7572
##ുകാരെ	7573
കാരണമായി	7574
ശിശു	7575
ഫെഡറ	7576
പ്രസംഗം	7577
മീറ്റർ	7578
കണക്കിലെടുത്ത്	7579
ആൾ	7580
##ുന്നതിന്	7581
##രുന്നുണ്ട്	7582
##ല്ലാ	7583
മുത്ത	7584
സംസ്ഥാനങ്ങളിൽ	7585
എംവി	7586
ഉപയോ	7587
മറ്റൊരാ	7588
യുവതിയുടെ	7589
കരുതി	7590
കുട്ടികൾ	7591
എടുത്തത്	7592
യുണ്ടായ	7593
വിട്ടത്	7594
തെളിവുകള്‍	7595
നിശ്ചിത	7596
ബംഗാളില്‍	7597
ആഴ	7598
മുകളിൽ	7599
##വാല	7600
##തോ	7601
വിഹി	7602
ക്കുന്നു	7603
തിരിക്ക	7604
പേർക്കും	7605
തുടർ	7606
##നാട	7607
കാര്യത്തിലും	7608
എന്തു	7609
തയ്യാറായില്ല	7610
കലക്ടര്‍	7611
വിശദമായി	7612
ജീവൻ	7613
ഹെലിക	7614
സൃഷ്ടിച്ച	7615
തെരഞ്ഞെടുപ്പിൽ	7616
സോണിയാ	7617
പ്രകാരമാണ്	7618
കാഞ്ഞിര	7619
തേജസ്	7620
ആഡ	7621
ിനും	7622
##പ്പാടി	7623
എന്നൊക്കെ	7624
ബിജു	7625
പ്രതിനിധി	7626
നല്‍കണം	7627
സെല്‍	7628
മേയര്‍	7629
തെറ്റ്	7630
ഉപമുഖ	7631
ജെഡിഎ	7632
ിക്കാന്‍	7633
സൈബർ	7634
തോന്നുന്ന	7635
കിടില	7636
വായിക്കാം	7637
അന്തരീക്ഷ	7638
ഓക്‌സി	7639
മെന്നാണ്	7640
വണ്ടി	7641
ഹരിത	7642
##വട്ടം	7643
##ഡര്‍	7644
##രിപ്പി	7645
പ്രമ	7646
പ്രേ	7647
##ാനിയ	7648
##ുകാരുടെ	7649
ആരെയും	7650
വന്നപ്പോള്‍	7651
കേസിന്റെ	7652
മത്സരിക്കുന്നത്	7653
ഉയർന്നു	7654
പരിശോധിച്ച്	7655
ബാധിക്കുന്ന	7656
പിന്തുണയ്ക്കുന്ന	7657
ഇരുപ	7658
##യായും	7659
മകൻ	7660
അധികാരത്തില്‍	7661
എഴുത	7662
താല്‍ക്കാലിക	7663
വാക്കുകൾ	7664
കൈവശ	7665
ജയരാജ	7666
ഉദാഹ	7667
മൊബൈൽ	7668
ഗവർണർ	7669
വരുമ്പോള്‍	7670
ഏജൻസ	7671
ംഗ	7672
ദൈവ	7673
ബയോ	7674
റാലി	7675
##ൻഷൻ	7676
പ്രയോ	7677
##രുതെന്നും	7678
കൊല്‍ക്കത്ത	7679
ങ്ങളെല്ലാം	7680
ആവർത്ത	7681
ില്ലെങ്കിൽ	7682
സംഭവിച്ചത്	7683
വയസ്സ്	7684
ബോം	7685
തട്ടിക്കൊ	7686
##എഫ്‌ഐ	7687
ചാനല	7688
കരാറ	7689
യാളാണ്	7690
താക്കറെ	7691
പങ്കാളിത്ത	7692
ബിന്ദു	7693
##ഖണ്ഡ്	7694
81	7695
ഏരിയ	7696
ദാസ്	7697
##ഷീ	7698
##‌സി	7699
##es	7700
##ാവുക	7701
സ്വാമി	7702
ചെയ്യാനുള്ള	7703
അനുപ	7704
##കുട്ടി	7705
നീള	7706
##പുഴ	7707
നൽകുന്നത്	7708
വരവ്	7709
പ്രകാശ	7710
തയ്യാറായി	7711
വാഹനങ്ങള്‍	7712
നരേന്ദ്രമോദ	7713
ഫ്രണ്ട്	7714
ദൃശ്യങ്ങൾ	7715
വില്‍പ്പന	7716
ാനുള്ള	7717
പാര്‍ലമെന്റ്	7718
ഇസ്ലാമ	7719
ഘട്ടം	7720
തറ	7721
ബോട്ട	7722
ലൂ	7723
സദ	7724
##ലര്‍	7725
##ബറ	7726
##ർജി	7727
പ്രേരി	7728
പിജെ	7729
സാക്ഷി	7730
അവശ്യ	7731
കളുണ്ട്	7732
മാത്രമായിരുന്നു	7733
ശ്രമിച്ചു	7734
ഗാന്ധിയെ	7735
ഒഴിവ്	7736
സംഘടനയുടെ	7737
ജൂനിയ	7738
ഏതാനും	7739
യായിരിക്കും	7740
സർവീസ	7741
പ്രവചനം	7742
ചൗധ	7743
സാന്നിധ്യം	7744
ാണിത്	7745
ചുഴലിക്കാ	7746
ഉറ്റ	7747
വരണ	7748
##േട്ട	7749
##ൽഹി	7750
പറയാം	7751
##സംഘടന	7752
സംഘത്തെ	7753
പെടുത്ത	7754
ശേഷമുള്ള	7755
കാണിക്കുന്ന	7756
കാര്യങ്ങളില്‍	7757
പലതും	7758
വയനാട്ട	7759
തയാറ	7760
വരുത്തി	7761
വഴിയാണ്	7762
സെന്ററ	7763
സ്വയംഭരണ	7764
മുരളീധരൻ	7765
മാറ്റിയത്	7766
ബോർഡ്	7767
ഐശ്വ	7768
ട്	7769
##ാഞ്ചേരി	7770
##നുമായ	7771
##ന്തിര	7772
##വിധി	7773
##ാർഥ	7774
വാഷി	7775
നടത്തുന്നു	7776
മലയോര	7777
കിഫ്	7778
##ട്രി	7779
യാണെന്നാണ്	7780
വ്യക്തമാക്കിയിട്ടുണ്ട്	7781
സർക്കാരിനെ	7782
##കാലിക	7783
നുണ	7784
ലഖ്‌ന	7785
കസ്റ്റഡിയിലെടുത്ത	7786
തിനെതിരെ	7787
നദ	7788
ബലാത്സ	7789
ശാല	7790
##ാട്ട	7791
##ഖണ്ഡ	7792
##തിരി	7793
##ിട്ടാണ്	7794
ശേഷവും	7795
നീട്ട	7796
കോടതിയ	7797
മുമ്പാണ്	7798
ആരോപണങ്ങള്‍	7799
സര്‍വകലാശാല	7800
നൂറ്	7801
സംവിധായകന്‍	7802
വിന്യ	7803
പ്രാധാന്യ	7804
##ഡിപിഐ	7805
രോഗലക്ഷണ	7806
an	7807
ഗാസ	7808
തില്ല	7809
മതിയായ	7810
പിരി	7811
##മ്മി	7812
തുര	7813
##ലിസ്റ്റ്	7814
മേല	7815
യ്ക്കെതിരെ	7816
ഭാഗമാണ്	7817
മാധ്യമങ്ങൾ	7818
പ്രതീക്ഷിക്കുന്ന	7819
ശ്രീധ	7820
##േക്കാണ്	7821
പാര്‍ട്ടികള്‍	7822
കമന്റ്	7823
മതേതര	7824
ഇടപെടല്‍	7825
നമ്പർ	7826
കത്തയ	7827
റെയിൽവേ	7828
കാണാതായ	7829
##ഭൂമി	7830
ലഖ്‌നൗ	7831
യാകും	7832
വണ്‍	7833
##വ്യ	7834
##ണൽ	7835
##ത്തെയും	7836
ബിഹാറ	7837
##ത്തിൻ്റെ	7838
##ിനിട	7839
സംഘമാണ്	7840
നീങ്ങ	7841
കടല	7842
പ്രഖ്യാപിച്ചിരുന്നു	7843
യുവതിയെ	7844
കലാ	7845
ത്തിന്റെയും	7846
ഷാജ	7847
ിട്ടുണ്ടോ	7848
ിലൂടെ	7849
കീഴിലുള്ള	7850
ഇക്കാര്യത്തിൽ	7851
ഉദ്ഘാടന	7852
സാന്നിധ്യ	7853
പിറന്ന	7854
വരുന്നുണ്ട്	7855
ഓറഞ്ച്	7856
ഭീതി	7857
##പാ	7858
##പ്പൂ	7859
നൽകും	7860
വരാനിരിക്കുന്ന	7861
നേതൃത്വത്തെ	7862
##ക്കുറിച്ച	7863
ആരോപിക്കുന്നത്	7864
ഇതിനിട	7865
ശ്രീലങ്ക	7866
ഉറപ്പുവ	7867
നേതാവുമായ	7868
##െടുക്കാന്‍	7869
എതിർ	7870
രാശിക്കാർക്ക്	7871
പരിചയം	7872
പിടികൂടിയത്	7873
##ടനീളം	7874
1000	7875
ഉമ	7876
ഗവേഷണ	7877
ദൂര	7878
സന്നി	7879
##പന	7880
##ിവു	7881
##ികളുമായി	7882
കിഷോ	7883
കലാക	7884
രാശിക്കാരുടെ	7885
##ൻ്റ്	7886
##തരായ	7887
##ക്കാര്‍ക്ക്	7888
സുഹൃത്ത്	7889
ക്ഷമ	7890
കൊടുത്തു	7891
മധ്യപ്രദേശ്	7892
എന്നിവിടങ്ങളിൽ	7893
ബൈഡന്‍	7894
ബേബി	7895
ബാനര്‍ജി	7896
അഭ്യൂഹ	7897
ആരി	7898
ഓര്‍ഡ	7899
ഡ്യൂട്ടി	7900
ബിന	7901
മോട്ടോ	7902
സുവ	7903
##കീ	7904
##കത്ത്	7905
##ന്നൂർ	7906
##പ്പും	7907
നിശ	7908
പ്രതിമാ	7909
##ാംശ	7910
കാര്യവും	7911
പ്രതികരിച്ച്	7912
സമ്പന്ന	7913
മാസത്തെ	7914
നിരീക്ഷണത്തിലുള്ളത്	7915
സ്വീകരിച്ചു	7916
അവതരിപ്പിച്ച	7917
സ്കൂൾ	7918
ജാസ്	7919
ജുന	7920
സുമ	7921
##കന്‍	7922
##ളവ്	7923
##വിള	7924
##ിവാസി	7925
ഇതൊരു	7926
ഉണ്ടാക്ക	7927
സെന്റ്	7928
കാണിച്ച്	7929
എസ്ഡിപിഐ	7930
ആദിവാസി	7931
നടക്കുന്നുണ്ട്	7932
ഇടപെട്ട	7933
ഏകോപ	7934
ആണെന്നും	7935
ിനൊപ്പം	7936
പ്പോഴ	7937
കൈമാറി	7938
വെളിപ്പെടുത്തി	7939
കമ്പനിയുടെ	7940
സീസണ്‍	7941
സതീശൻ	7942
തിയേറ്റ	7943
സര്‍ട്ടിഫിക്കറ്റ	7944
അത്ഭുത	7945
യുമായുള്ള	7946
റില്‍	7947
##റായി	7948
##ാനന്ദ	7949
##ുമാര്‍	7950
ക്കരുത്	7951
ില്ലെങ്കിലും	7952
സൂപ്ര	7953
നാദി	7954
തിനാലാണ്	7955
ചെയ്തിട്ടില്ല	7956
അവസാനിച്ച	7957
നയിച്ച	7958
വിദ്യാഭ്യാസം	7959
േക്കുമെന്നാണ്	7960
##ലക്ഷ്മി	7961
ആവശ്യപ്പെട്ടിട്ടുണ്ട്	7962
ഡൽഹ	7963
നവംബർ	7964
വാര്യ	7965
കുറ്റകൃത്യ	7966
ഭഗ	7967
##ിതമായി	7968
##വരില്‍	7969
##ടകം	7970
##കമായ	7971
##an	7972
പിരിച്ചു	7973
ത്തുന്ന	7974
അനിൽ	7975
##മിത	7976
നീട്ടി	7977
ചിറ	7978
പ്രതികരിക്ക	7979
ഒരാളുടെ	7980
സ്വന്തമായി	7981
താരങ്ങള്‍	7982
ഒരിക്കല്‍	7983
പെരുമ്പ	7984
ട്വീറ്റ	7985
##ാക്യം	7986
മനോജ്	7987
##ക്രോണ്‍	7988
ആരോപിച്ച്	7989
അദാനി	7990
മോഹൻല	7991
ഉപമുഖ്യമന്ത്രി	7992
##യോട്	7993
##റീന	7994
##ജാതി	7995
##ണ്ടെന്നും	7996
##രുപ	7997
അവഗണ	7998
നിലയിലാണ്	7999
ഡിപ്ല	8000
കൊണ്ടിരിക്ക	8001
സംഭവത്തെ	8002
ശ്രമിച്ചത്	8003
ഉള്‍പ്പെടുത്തിയ	8004
പിന്തുണച്ച	8005
ലോകത്തിലെ	8006
കണ്ടെത്തിയിരുന്നു	8007
മത്സരത്തില്‍	8008
റഷ്യന്‍	8009
അടിയന്തിര	8010
##ിക്കുട്ടി	8011
##ബോധന	8012
സഞ്ജയ്	8013
ബോള	8014
ലയ	8015
##ഖി	8016
##ജിന	8017
സ്ഫോട	8018
കോലി	8019
മാത	8020
പറയും	8021
കൂറുമ	8022
പരിസര	8023
സംസ്ഥാനത്തിന്റെ	8024
##ര്‍ത്തുന്ന	8025
##ർത്തുന്ന	8026
രോഗികള്‍	8027
രാഷ്ട്രീയത്തില്‍	8028
പിടിക്കാന്‍	8029
ിരുന്നെങ്കിലും	8030
ഷാഫി	8031
യ്ക്കായി	8032
നിക്ഷേപം	8033
മുദ്രാവാക്യം	8034
അക്കാദമി	8035
ഞങ്ങളെ	8036
ഫീസ്	8037
ലൈന	8038
##പ്പിക്കുന്ന	8039
വന്നിരിക്കുന്നത്	8040
തോൽ	8041
##ക്രമം	8042
പലസ്ത	8043
ത്തിനാണ്	8044
ദിവസമായി	8045
മിഷന്‍	8046
ഫോർ	8047
ബെഞ്ച	8048
നടത്തുന്നുണ്ട്	8049
മണിക്കൂറില്‍	8050
നിരീക്ഷണത്തിലാണ്	8051
ബംഗാൾ	8052
നേടാന്‍	8053
പതിവ്	8054
##ഫിക്	8055
വ്യത്യാസ	8056
ചൂണ്ടിക്കാണിക്കുന്നു	8057
##ദാബി	8058
എങ്കില്‍	8059
കെയര്‍	8060
ഡികെ	8061
പൃ	8062
ഫില	8063
ബൗ	8064
ഹരീ	8065
##വല്‍	8066
##ല്ലൂര്‍	8067
മുള	8068
ചെയർമ	8069
##ിപ്പു	8070
ബിന്‍	8071
കൊണ്ടും	8072
കൊണ്ടിരിക്കുന്നത്	8073
അതിര്‍ത്തിയ	8074
കാര്യങ്ങളാണ്	8075
ഭാഗങ്ങളില്‍	8076
വോട്ടെടു	8077
തലശ്ശേരി	8078
തുറമുഖ	8079
ആരംഭിക്കും	8080
പുറത്തിറങ്ങിയ	8081
പൂര്‍ത്തിയാക്കി	8082
ഇടതുപക്ഷം	8083
ഡോക്ടര്‍മാര്‍	8084
ന്യൂഡൽഹി	8085
പുരുഷന്	8086
ചെയർമാൻ	8087
തങ്ങള്‍ക്ക്	8088
മ്മ	8089
രജ	8090
##ോസ്	8091
##ൻസ	8092
##ൾപ്പെടെ	8093
##ക്കര്‍	8094
##രിട	8095
##െയ്യ	8096
അവലോക	8097
ബിഎസ്പി	8098
കെടി	8099
സംസ്ഥാനത്തിന്	8100
##ക്കുടി	8101
സമ്പാദ	8102
##െയ്‌	8103
വരുമെന്ന്	8104
പട്ടേ	8105
പ്രദേശത്തെ	8106
ലിംഗ	8107
ക്കാനായി	8108
ഘട്ടത്തിൽ	8109
അഞ്ചാം	8110
ചെറുപ്പ	8111
ലുലു	8112
താത്പര	8113
വേണുഗോപാല്‍	8114
തോല്‍വി	8115
മദ്യം	8116
ബംഗ്ലാ	8117
ആകര്‍	8118
റേയും	8119
##മ്	8120
##ശാല	8121
മുപ്പ	8122
കളമ	8123
നിര്‍ത്തിയ	8124
തിരുത്ത	8125
സ്ഥലങ്ങളില്‍	8126
പട്ടികജാതി	8127
തെളിവ്	8128
##സ്പിറ്റ	8129
താല്‍പര്യ	8130
ഹോസ്പിറ്റ	8131
യില്ലാത്ത	8132
സെപ്റ്റംബര്‍	8133
ആധുനിക	8134
വിഹിതം	8135
ഏഴു	8136
##ഷറ	8137
##ങ്ങര	8138
##ിനുള്ള	8139
മാള	8140
##ുവാ	8141
##റിഞ്ഞ്	8142
കുറേ	8143
കുറിച്ചത്	8144
മാത്രമായി	8145
പുതിയതായി	8146
സര്‍വ്വേ	8147
പരിശോധനയില്‍	8148
##ക്കിയത്	8149
പോലീസിനെ	8150
##സുല	8151
നിയന്ത്രണങ്ങൾ	8152
ബ്രിട്ടീഷ്	8153
യുവാവിനെ	8154
ശത്രു	8155
എംബസി	8156
ഛത്തീസ്ഗ	8157
##േദം	8158
##ത്തായി	8159
എന്നോട്	8160
പ്രതികൾ	8161
ജില്ലയിലും	8162
##മുടി	8163
രോഗവ്യാപ	8164
മത്സരിക്കാന്‍	8165
ിക്കുക	8166
കുടുംബത്തിന്	8167
റിസോ	8168
അപേക്ഷിച്ച്	8169
അമ്മയുടെ	8170
താമസം	8171
ഗുരുവായ	8172
തള്ളിക്ക	8173
തിരുവല്ല	8174
ഉദ്ധരിച്ച്	8175
തുടർന്നാണ്	8176
ജുഡീ	8177
റോബിന്‍	8178
കുംഭ	8179
കഥാപാത്ര	8180
സെപ്തം	8181
ചക്ര	8182
ജ്	8183
തുമാണ്	8184
##ഡേ	8185
വിരാ	8186
നിവ	8187
##ഡ്‌	8188
രാജ്യങ്ങളും	8189
കൊണ്ടിരിക്കുന്ന	8190
അപല	8191
196	8192
പ്രസിഡണ്ട്	8193
മുണ്ടെന്ന്	8194
ലഭിച്ചിട്ടുണ്ട്	8195
ശ്രദ്ധയില്‍	8196
പോലീസും	8197
ദിനത്തില്‍	8198
പവന്	8199
അജണ്ട	8200
ഒക്ടോബർ	8201
ഐപിഎല്ല	8202
##വേദന	8203
പൊട്ടിത്തെ	8204
ബാക്കിയുള്ള	8205
മാലിന്യ	8206
ഫലപ്രദ	8207
ഏഷ്യാനെറ്റ്	8208
ww	8209
ഇബ്ര	8210
തെങ്കിലും	8211
യുകെ	8212
ഹാരി	8213
##ാഹി	8214
##നോളജി	8215
##രാഘ	8216
##പിസി	8217
##നിർ	8218
ലഭിച്ചിരുന്നു	8219
മേടം	8220
വ്യക്തമാണ്	8221
ഉപദേശ	8222
രാജ്യങ്ങളിൽ	8223
##ത്തുറ	8224
മീഡിയയിൽ	8225
ഹൈക്കോടതിയെ	8226
വാർത്തകൾ	8227
##ബ്ലി	8228
ഔദ്യോഗികമായി	8229
തളിപ്പ	8230
കൊട്ടാരക്കര	8231
മർദ്ദ	8232
ഷെയ്	8233
്‌	8234
സ്മ	8235
പോപ്പു	8236
അവൾ	8237
ഇതോടൊപ്പം	8238
പൊന്ന	8239
മോഷണം	8240
ിക്കുകയും	8241
മുൻക	8242
വീടുകള്‍	8243
തകര്‍ത്ത	8244
ജീവനക്കാരുടെ	8245
ഓരോരുത്ത	8246
പോരാട	8247
വിദ്യാർത്ഥി	8248
ജീവനക്കാരെ	8249
പച്ചക്ക	8250
അബുദാബി	8251
##സ്വാമി	8252
ആനുകൂല്യ	8253
തേജസ്വി	8254
ആശ്വാസം	8255
ഓർമ്മ	8256
ണമ	8257
ലേഖ	8258
ൊന്ന	8259
##ിക്കുമെന്നാണ്	8260
മാലി	8261
നേരം	8262
##െടുത്തു	8263
സമീപിച്ച	8264
പാർട്ടിക്ക്	8265
നടപ്പാക്കുന്ന	8266
വിധം	8267
കാരണമായ	8268
വരികയ	8269
അബ്ദ	8270
വിദ്യാര്‍ത്ഥി	8271
ഉത്തരവാദിത്തം	8272
##രാമയ്യ	8273
##സ്‌ട്രേലിയ	8274
ഏർപ്പെടുത്തിയ	8275
ആന്ധ്ര	8276
ആഡംബര	8277
ഓപ്പ	8278
ചായ	8279
സായ്	8280
##വത്	8281
##നോട്ട	8282
##വാറ്റ	8283
##ുകയായിരുന്ന	8284
ഉയർത്തി	8285
കിട്ടി	8286
വിഭാഗത്തിന്	8287
##ക്ഷിത	8288
ഉത്തരവ	8289
സമീപന	8290
പ്രവേശിപ്പിച്ചു	8291
വികസി	8292
പുരുഷൻ	8293
ലോക്ഡ	8294
ക്കൊണ്ട്	8295
സാധിച്ചില്ല	8296
ഗവണ്‍	8297
കിലോമീറ്റർ	8298
കൗണ്‍സില്‍	8299
തരംഗം	8300
ശരത്	8301
അണു	8302
എലി	8303
പവാ	8304
ശനി	8305
##ഡിന്റെ	8306
##ക്ല	8307
കൊട	8308
##ാവൂര്‍	8309
##സിച്ച്	8310
വാട്	8311
കേരളത്തിലേക്ക്	8312
വിഭാഗത്തിന്റെ	8313
സ്ത്രീയ	8314
നിരീക്ഷണം	8315
തരൂര്‍	8316
##മുണ്ടായ	8317
ധനസഹ	8318
പ്രൊഡ	8319
ട്വന്റി	8320
യുക്രൈന	8321
കൊച്ചിയില്‍	8322
രീതിയിലുള്ള	8323
അപ്രതീക്ഷിത	8324
ആത്മവിശ്വാസ	8325
ഇട്ട	8326
ഒന്‍	8327
##ഡും	8328
##ിലോ	8329
##ിക്കപ്പെടുന്ന	8330
##റ്റേ	8331
##ിവാര	8332
സാഗ	8333
##ിപ്പിച്ച്	8334
സംസ്ഥാനങ്ങളിലെ	8335
ജനങ്ങൾക്ക്	8336
സംഘത്തിന്	8337
കൊണ്ടായിരുന്നു	8338
കാലത്തെ	8339
##ഷേധിച്ച്	8340
മേഖലകള	8341
195	8342
ബോംബ	8343
ഒന്നിന്	8344
ഗാന്ധിയും	8345
കൊല്ലപ്പെട്ടത്	8346
വീടിന്റെ	8347
നാട്ടില്‍	8348
ഇത്തരത്തിലുള്ള	8349
പീഡിപ്പിച്ച	8350
പ്രതികരണവുമായി	8351
യുപിയില്‍	8352
പാവപ്പെട്ട	8353
ലോക്ക്ഡൗണ്‍	8354
പേർക്കാണ്	8355
ഐസി	8356
കറു	8357
യാണിത്	8358
ഴി	8359
ാത്ത	8360
##റാത്ത	8361
ക്കെ	8362
##ിവെ	8363
വീണു	8364
യുളള	8365
##സംബോധന	8366
സെക്യ	8367
ചിറ്റ	8368
##ിയെടുത്ത	8369
സീറ്റിലും	8370
തിരിച്ചെ	8371
സമ്പദ്	8372
മീന	8373
എൻഡിഎ	8374
ഇന്‍സ്റ്റ	8375
വാങ്ങാന്‍	8376
ിനോട്	8377
മില്ലാതെ	8378
സെന്റര്‍	8379
പ്പെടുന്ന	8380
ഒട്ടും	8381
കോർപ്പറേഷൻ	8382
ഫസ്റ്റ്	8383
##വിക	8384
##രമായ	8385
##ോയ	8386
##ജക	8387
ക്കുമോ	8388
##ഴിച്ച്	8389
നിയമങ്ങള്‍	8390
പലത	8391
യെല്ലാം	8392
സീറ്റും	8393
അഭിസംബോധന	8394
ചിത്രത്തില്‍	8395
അയാള്‍	8396
കോളനി	8397
കോളജ്	8398
വിശദാംശ	8399
##വ്വം	8400
ഒറ്റക്കെട്ട	8401
ശരിയല്ല	8402
മുകു	8403
പാകിസ്താന്‍	8404
ഓൺലൈൻ	8405
നറുക്ക	8406
ഡാമ	8407
##യേ	8408
##ൊല	8409
##ത്തൊഴ	8410
വിനെ	8411
##ല്ലൂർ	8412
##ാവൂ	8413
##േഷന്റെ	8414
##യ്ക്കിടെ	8415
രണ്ടര	8416
അയച്ചത്	8417
പിന്തുണയ്ക്ക	8418
##ഴ്‌ച	8419
പുലർച്ച	8420
കൂടുതലായി	8421
ബജറ്റ	8422
സിദ്ദു	8423
തൃശ്ശൂർ	8424
എഐസിസി	8425
അഗ്നി	8426
നിയോജക	8427
കുഞ്ഞാലിക്കുട്ടി	8428
01	8429
ജയം	8430
പണ്	8431
ബസ്സ	8432
യിരുന്നു	8433
സച്ച	8434
##ാക്ക്	8435
##ജനം	8436
##ഭാര	8437
##ക്ഷൻ	8438
ക്കൽ	8439
##വിഷ	8440
ഡിസ്	8441
വ്യക്തമാക്കുന്ന	8442
നിര്‍വഹ	8443
രംഗത്തിറ	8444
ഡോക്ടറ	8445
ആളുകളുടെ	8446
എൻസി	8447
ചുമതലയുള്ള	8448
കോളേജിൽ	8449
മുസ്ലീ	8450
റദ്ദാക്കിയ	8451
റണ്‍സ്	8452
അതുകൊണ്ടുതന്നെ	8453
ബംഗ്ലാദേശ	8454
93	8455
ആർക്കും	8456
തങ്ങളെ	8457
ലിന്റെ	8458
##ഡീഷ	8459
##ക്കാ	8460
കളിച്ച	8461
വാദി	8462
വേദി	8463
കുറു	8464
കേന്ദ്രീകരിച്ച്	8465
സീരിയ	8466
സര്‍ക്കാറ	8467
ചേര	8468
സീറ്റുകളാണ്	8469
വളർച്ച	8470
കുടുംബത്തിന്റെ	8471
ഇല്ലെന്ന്	8472
മിസൈ	8473
നേതാവിന്റെ	8474
##ാവുന്നതാണ്	8475
ദുരൂഹ	8476
സഹോദരന്‍	8477
സീസൺ	8478
ക്രൈം	8479
പെരുമാറ	8480
ഏജന്‍സി	8481
ുമ്പോ	8482
സിദ്ധരാമയ്യ	8483
ആത്മവിശ്വാസം	8484
ചങ്ങനാ	8485
സമർപ്പിച്ച	8486
മഞ്ചേശ്വ	8487
ഗാന	8488
ചെങ്ക	8489
നാട്	8490
ിച്ചു	8491
െങ്കില്‍	8492
##ദാര്‍	8493
##സ്ഥാപ	8494
##ടുത്തെ	8495
കളുടേയും	8496
##വാഹി	8497
അതെ	8498
##ാമെന്നും	8499
ആരോപിച്ചിരുന്നു	8500
##വേല	8501
ഒഴു	8502
മുണ്ടാക	8503
ക്ലബ്	8504
സർവേ	8505
വിദേശത്തു	8506
ആഗ്രഹം	8507
ഹെൽ	8508
സഹായിച്ച	8509
ലീഗിന്റെ	8510
ചാനല്‍	8511
നീണ്ടു	8512
നാവിക	8513
വിജിലന്‍സ്	8514
ഡൊണ	8515
##ത്തൊഴില	8516
ജഗ	8517
ധരിക്ക	8518
നൗ	8519
##പൂർ	8520
##മീ	8521
##ർഡ്	8522
പ്രീ	8523
നിസ	8524
നേമ	8525
ചെയ്യുമ്പോള്‍	8526
കേന്ദ്രങ്ങള്‍	8527
കഴു	8528
വിജയിച്ചു	8529
ട്രെയിന്‍	8530
പേരിലാണ്	8531
നാഷണൽ	8532
കൂട്ടു	8533
ജിഹ	8534
മൊത്ത	8535
ഒന്നാണ്	8536
അതിനായി	8537
ലിസ്റ്റ	8538
വിവരങ്ങളും	8539
മാസത്തിന	8540
സാമ്പത്തികമായി	8541
കോളേജിലെ	8542
കോര്‍പറ	8543
സർവകലാശാല	8544
പെരുമാറ്റ	8545
പെണ്‍കുട്ടിയെ	8546
രീതിയിലാണ്	8547
മോശമായി	8548
ഉപതിരഞ്ഞെടുപ്പ്	8549
സൂചിപ്പിക്കുന്നത്	8550
ജെഡിയു	8551
അടുക്ക	8552
എല	8553
ഓസ്‌ട്രേലിയ	8554
മറിച്ച്	8555
##ഗണി	8556
##ഥ്വി	8557
##തില്ല	8558
##ുരുത്തി	8559
##പേക്ഷ	8560
##ത്തിലേറെ	8561
##ാനാ	8562
വിസ്ത	8563
വിജ്ഞ	8564
ചെയ്യുകയായിരുന്നു	8565
ലക്ഷത്തോളം	8566
##ടക്കമുള്ള	8567
കാലഘട്ട	8568
തോന്നി	8569
കണ്ണു	8570
തിരഞ്ഞെടുപ്പിലും	8571
വളരെയ	8572
നോമിന	8573
നിലവാര	8574
ഉള്‍പ്പെട്ട	8575
പുറത്താക്കിയ	8576
##കൂട്ടി	8577
പാര്‍ട്ടിയെ	8578
##ാബാദ്	8579
ഡ്രൈവര്‍	8580
തെന്നായിരുന്നു	8581
തൃണമൂല	8582
റിലയ	8583
ഉത്തര്‍പ്രദേശ	8584
അയ്യപ്പ	8585
തിരഞ്ഞെടുക്കപ്പെട്ട	8586
ആശ്രയ	8587
ഗ്രാമപഞ്ചായത്ത്	8588
ഹരീഷ്	8589
ഗ്യാ	8590
ടേ	8591
പട്ടി	8592
ശോ	8593
ഷൂട്ടി	8594
##ഗെ	8595
##ോടുള്ള	8596
##ളളി	8597
##ബല്‍	8598
##ബിന	8599
വികാര	8600
പിള	8601
കൊറിയ	8602
##ാർഥി	8603
##ാകുമെന്ന	8604
തീരത്ത്	8605
അതിർത്തി	8606
വിജയന്റെ	8607
തൊട്ട്	8608
എന്‍ഐഎ	8609
മുണ്ടെന്നും	8610
സ്ഥാപനങ്ങൾ	8611
ിട്ടുണ്ടെന്നാണ്	8612
മത്സരാര്‍ത്ഥ	8613
ദിലീപിനെ	8614
ഓണ്‍ലൈന	8615
ശാസ്ത്രജ്ഞ	8616
ഗെഹ്ല	8617
കയറ്റുമതി	8618
കെജ്രിവാള്‍	8619
സർട്ടിഫിക്കറ്റ	8620
ബ്രാഞ്ച്	8621
എന്നിങ്ങനേയാണ്	8622
ബോംബ്	8623
www	8624
കന്നി	8625
ധര്‍മ	8626
ുമ	8627
##എൻ	8628
##ിലു	8629
##ച്ചും	8630
##ങ്ങാടി	8631
##ുകാരി	8632
ങ്ങളൊന്നും	8633
ഇന്ത്യക്ക്	8634
സെറീന	8635
മേനോ	8636
സംഘവും	8637
##ാത്തത്	8638
##മാറ്റം	8639
ബന്ധപ്പെട	8640
കഴിച്ച	8641
തുടങ്ങിയവര്‍	8642
പദ്ധതിക്ക്	8643
മരണമട	8644
നഷ്ടമായ	8645
##ത്തിലാ	8646
റിയാസ	8647
വിവാദമായ	8648
##യിലായിരുന്നു	8649
സഖ്യത്തിന്	8650
യ്ക്കുള്ള	8651
സിപിഎമ്മിന്	8652
കുമാറിനെ	8653
അക്രമം	8654
ഗുജറാത്ത	8655
ലംഘന	8656
സൂപ്പർ	8657
സംവരണം	8658
ഐശ്വര്യ	8659
ഇപി	8660
ധീര	8661
##വാന്‍	8662
##ധന	8663
##ൻസി	8664
വികാരം	8665
സിസ്റ്റ	8666
കളുമാണ്	8667
കളക്ടറ	8668
സെൽ	8669
ഡിഗ്രി	8670
##െടുത്തത്	8671
അയച്ചു	8672
ആദ്യഘട്ട	8673
റിസര്‍	8674
പ്രവേശിപ്പിച്ച	8675
വീടുകളിലും	8676
മായും	8677
സംഘടനകള്‍	8678
ജില്ലകളിലെ	8679
പത്താം	8680
തൊഴിലാളികളെ	8681
സഞ്ചരിച്ച	8682
ത്തുട	8683
കാലയളവില്‍	8684
പ്രയാസ	8685
ലക്ഷദ്വീപ്	8686
ഹൈക്കമാന്‍ഡ്	8687
ഗുണ്ട	8688
ജയില്‍	8689
റായ്	8690
സോള	8691
##യുന്ന	8692
##ോല	8693
##ജക്ട്	8694
##ന്വേഷണ	8695
##പ്പാട	8696
##െന്നായിരുന്നു	8697
##ണ്ണ്	8698
##ിപ്പിക്കുക	8699
സംസ്ഥാനങ്ങള്‍	8700
കേന്ദ്രത്തിന്റെ	8701
##മേറ്റ	8702
കോൺഗ്രസ	8703
ത്തിനെ	8704
വിഭാഗത്തിൽ	8705
ആലോചന	8706
മരണപ്പെട്ട	8707
അതിനുള്ള	8708
അന്വേഷണത്തിന്	8709
ചൈനയുടെ	8710
വിലയിരുത്തി	8711
പ്രശ്‌നങ്ങള	8712
അലേ	8713
മാണോ	8714
മാണെന്നാണ്	8715
##സ്‌കാരിക	8716
വിശ്വസിക്കുന്ന	8717
യാദവ	8718
കൊച്ചിയിലെ	8719
മറികടക്ക	8720
പഞ്ചാബില്‍	8721
പ്രതിഫലം	8722
സര്‍ട്ടിഫിക്കറ്റ്	8723
വരിൽ	8724
വിക്കറ്റ്	8725
ുമായിരുന്നു	8726
##വറി	8727
##ോയി	8728
##പ്പാ	8729
എന്നറിയ	8730
മാര്‍ച്ച	8731
##ങ്കര	8732
##സിന്‍റെ	8733
##ാകാത്ത	8734
##ാഗ്	8735
സ്റ്റേഷന്‍	8736
കുമ്മ	8737
യൂട്യൂ	8738
ട്ടു	8739
നടക്കുന്നു	8740
തരത്തില്‍	8741
സ്ത്രീകളെ	8742
റഷ്യയുടെ	8743
ജലീല്‍	8744
ആനന്ദ്	8745
##െതിരായ	8746
ചൊവ്വ	8747
ക്രമീകരണ	8748
രക്ഷാപ്രവര്‍ത്ത	8749
ആക്ഷേപം	8750
ഡിഎംകെ	8751
ഓക്‌സിജന്‍	8752
ജേ	8753
പബ്ലിക്	8754
വച്ചു	8755
ിൻ്റെ	8756
ുമുണ്ട്	8757
##ടമ	8758
##ാഫ്രിക്ക	8759
പ്രക്രിയ	8760
##ിക്കുമ്പോള്‍	8761
ചെയർ	8762
##േഷനു	8763
ത്തിനിടെ	8764
മുഖ്യമന്ത്രിക്ക്	8765
പാലിച്ച	8766
അധികാരി	8767
സീറ്റുകളിൽ	8768
തിരഞ്ഞെടുപ്പിനെ	8769
ചിത്രത്തിന്റെ	8770
കൂട്ടം	8771
ുണ്ടെന്നാണ്	8772
ആരോഗ്യവകുപ്പ്	8773
യുള്ളൂ	8774
പ്രതിസന്ധിയ	8775
നെഗറ്റീവ	8776
ദക്ഷിണാഫ്രിക്ക	8777
പൂർണമായും	8778
ഡബ്ല്യു	8779
പലയിടത്തും	8780
ചിങ്ങം	8781
ആരിഫ്	8782
അബ്ദുള്ള	8783
'-	8784
ആണ്‍കു	8785
ഇരുന്ന	8786
ഗതി	8787
ജേക്ക	8788
പര്യ	8789
ഫീ	8790
ഫിലി	8791
യെങ്കിലും	8792
റാം	8793
##ാനിയുടെ	8794
പേടി	8795
##റിങ്	8796
കളിലാണ്	8797
##ട്ടിക്	8798
പറയുകയും	8799
നല്‍കുകയും	8800
ജനവിധി	8801
ങ്ങളിലേക്ക്	8802
നീല	8803
ക്രെ	8804
തൊടു	8805
യെക്കുറിച്ച്	8806
##സാക്ഷി	8807
ആളുകള	8808
മോദിയെ	8809
പദ്ധതികൾ	8810
സ്ത്രീകളും	8811
പ്രചാരണത്തിന്	8812
തടയാന്‍	8813
പവാര്‍	8814
നിർമ്മാണ	8815
വെബ്സൈ	8816
മറുപടിയുമായി	8817
സാംസ്‌കാരിക	8818
കോട്ടയത്ത്	8819
നാശനഷ്ട	8820
ബോളിവു	8821
co	8822
ഞങ്ങള്‍ക്ക്	8823
##മാണിത്	8824
വിസ്മ	8825
ക്കണമെന്നാണ്	8826
##രാകാശ	8827
ത്തേയും	8828
##ജ്ജ്	8829
അന്വേഷിച്ച	8830
##ക്കുട്ടി	8831
മൊന്നും	8832
ഉള്‍പ്പെടുന്ന	8833
സിനിമയിലെ	8834
മായിട്ടാണ്	8835
ആശുപത്രികളിലും	8836
ലാബ	8837
മാർഗ	8838
പറ്റില്ല	8839
കീഴിൽ	8840
ഡിജിപി	8841
ദൗത്യ	8842
വമ്പന്‍	8843
ദുര്‍ബല	8844
വ്യക്തത	8845
ദൂ	8846
നസ	8847
വിക്കറ്റ	8848
##വുമായ	8849
##ദാസ	8850
##am	8851
##ക്കൽ	8852
പരിസ്ഥിതി	8853
മന്ത്രിമാര്‍	8854
##ങ്ങിയത്	8855
##ഭാഗ്യ	8856
യൂസ	8857
മണിക്കൂർ	8858
തവണയും	8859
സ്വീകരിക്കും	8860
##പരിച	8861
ഹിജ	8862
ലംഘിച്ച	8863
സമ്മതിച്ച	8864
ഉദ്ധവ്	8865
വെടിവ	8866
പൃഥ്വി	8867
സന്ധ	8868
##സിച്ച	8869
##ോം	8870
##ഫര്‍	8871
##ന്‍സിപ്പ	8872
മാരു	8873
മാർക്ക്	8874
##സ്ഥിര	8875
##ുവീ	8876
അതിലൂടെ	8877
അതോടൊപ്പം	8878
പ്രവചന	8879
ത്തിനിട	8880
വിജയരാഘ	8881
സമ്മർദ്ദ	8882
ഓഫീസിൽ	8883
അന്വേഷണത്തില്‍	8884
നാട്ടിൽ	8885
വകുപ്പുകള്‍	8886
ജയരാജൻ	8887
##ുമ്പോഴാണ്	8888
റെക്കോര്‍ഡ്	8889
പ്രിന്‍സിപ്പ	8890
ബഹിരാകാശ	8891
ഹൈദരാബാദ്	8892
##രുതെന്ന	8893
കലാകാര	8894
ഒഡീഷ	8895
ധനു	8896
പിയും	8897
സഭാ	8898
##സല്‍	8899
##രുത്തിയ	8900
ജനതാ	8901
##ഞ്ചു	8902
കേന്ദ്രീകരിച്ച	8903
സ്വദേശികള്‍	8904
മെന്റ്	8905
ആവശ്യപ്പെട	8906
##ക്കാരായ	8907
സ്റ്റാര്‍	8908
വോട്ടിന്റെ	8909
പ്രതികൂല	8910
മേഖലകളിൽ	8911
തലത്തിൽ	8912
പൂര്‍ത്ത	8913
എന്നിരുന്ന	8914
പ്രവേശിപ്പിച്ചത്	8915
പേരുടെയും	8916
തിയതി	8917
പെട്രോള്‍	8918
കൊണ്ടുപോക	8919
ട്രംപിന്റെ	8920
സിസിടിവി	8921
കസ	8922
ണി	8923
യിലേക്കുള്ള	8924
സുക	8925
##ളാ	8926
കോയ	8927
ക്കുണ്ട്	8928
##ാലയം	8929
വാട്ട	8930
രോഗി	8931
കേസുകളുടെ	8932
..!	8933
##ബിസി	8934
താങ്ങ	8935
ചര്‍ച്ചയില്‍	8936
അല്ലാത്ത	8937
സത്യവാ	8938
ശുചി	8939
കണ്‍വീന	8940
കര്‍ഷകരുടെ	8941
സര്‍ക്കാരും	8942
##ബോസ്	8943
അട്ടിമറ	8944
പൊതുമരാമ	8945
ക്രൂഡ്	8946
താരതമ്യം	8947
എതിരാള	8948
ഉദാഹരണ	8949
അഹമ്മദ	8950
ഖു	8951
ഗർ	8952
മക്കള്‍	8953
യിലേക്കും	8954
ാൻ	8955
##ോഷം	8956
##ൻസിപ്പ	8957
##ഫലം	8958
##റ്റീ	8959
##ിനൊപ്പം	8960
##ാര്‍ശ	8961
വെട	8962
ഇന്ത്യയ്ക്ക്	8963
ഇവർക്ക്	8964
ചെയ്താല്‍	8965
അടങ്ങിയ	8966
ഉദ്യോഗസ്ഥരുടെ	8967
മരണത്തിന്	8968
വ്യക്തിപരമായ	8969
അവകാശം	8970
##മോഹ	8971
പൊലീസിന്റെ	8972
താല്‍പ്പ	8973
ിരുന്നുവെന്ന്	8974
ാവശ്യ	8975
റദ്ദാക്ക	8976
മത്സ്യത്തൊഴില	8977
കുതിച്ചു	8978
സൗജന്യമായി	8979
മാനദണ്ഡങ്ങള്‍	8980
തിരുവനന്തപുരത്തെ	8981
ആയിരക്കണക്കിന്	8982
അപ്പോൾ	8983
ആരു	8984
ഏതു	8985
കത്തില്‍	8986
സഞ്ജു	8987
##ഡ്യ	8988
##ഡിന	8989
നിബന്ധന	8990
നേടു	8991
##തമാണ്	8992
പോലെയാണ്	8993
എംഎം	8994
കേന്ദ്രത്തില്‍	8995
##സമാ	8996
പരാതിയിൽ	8997
ചേരുന്ന	8998
പരിശോധിച്ചത്	8999
ിക്കാനുള്ള	9000
തടഞ്ഞു	9001
ന്യൂയോ	9002
അമേരിക്കയില്‍	9003
അപകടത്തിൽ	9004
പരാജയം	9005
മാർഗ്ഗ	9006
നില്‍ക്കുകയാണ്	9007
പ്രവര്‍ത്തകരെ	9008
ചടങ്ങിൽ	9009
ഡ്രൈവർ	9010
വിമാനത്താവളത്തില്‍	9011
പ്രിൻസിപ്പ	9012
കമല്‍നാഥ്	9013
തൊട്ടടുത്ത	9014
അമരീന്ദ	9015
റിക്രൂട്ട്	9016
കന്ന	9017
ഗാര്‍	9018
ലളി	9019
ഷീ	9020
ിച്ച്	9021
##ഷുറ	9022
##ത്തായ	9023
##ാനിലെ	9024
##ിനാഥ	9025
ക്കിടെ	9026
നടന്ന്	9027
ഒരുമ	9028
സിഐ	9029
മേഘ	9030
ഇടയില്‍	9031
വിലയില്‍	9032
എന്തൊക്കെ	9033
കൂട്ടായ്മ	9034
സമ്പത്ത്	9035
ബാധക	9036
സര്‍ക്കാരിനെതിരെ	9037
തകർക്ക	9038
മൂന്നാമത്തെ	9039
കമല	9040
പുരസ്	9041
നില്‍ക്കുന്നത്	9042
ക്കൊണ്ട	9043
തിരിച്ചടിയാണ്	9044
മുകളിലുള്ള	9045
സ്റ്റാഫ്	9046
വൈറലായി	9047
##ക്കൂട്ടം	9048
ചൂണ്ടിക്കാട്ടുന്നു	9049
യൂണിവേഴ്‌സി	9050
തെളിഞ്ഞ	9051
##സ്ടി	9052
വാണിജ്യ	9053
താപനില	9054
##വാറ്റുപുഴ	9055
സെക്യൂരി	9056
രാണ്	9057
ലണ്ട	9058
വഷ	9059
ഷം	9060
സൌ	9061
##ഗാ	9062
##െന്നു	9063
സംഖ്യ	9064
പോള	9065
കളേയും	9066
എംബി	9067
സെഞ്ച്	9068
പ്പു	9069
മുന്നിലുള്ള	9070
രാജ്യത്തിന്	9071
##േറ്റു	9072
തലമുറ	9073
എന്താണെന്ന്	9074
ുണ്ടായ	9075
കമ്പ്യൂട്ട	9076
രാശിയില്‍	9077
ച്ചി	9078
സാധ്യതയുണ്ടെന്ന്	9079
അഭിമുഖത്തില്‍	9080
ടൈം	9081
എല്‍ഡിഎഫിന്	9082
ക്രിമിനല്‍	9083
താല്‍പര്യം	9084
റോബിൻ	9085
എന്നിരുന്നാലും	9086
അഹ	9087
ഫീല്‍	9088
ശല	9089
ഷഹ	9090
ാറ	9091
ൊക്കെ	9092
##എസ്‌	9093
##ത്തുപ	9094
##തിരുന്ന	9095
മുക്തി	9096
നേയും	9097
##മ്പ്ര	9098
തുടരുന്നു	9099
##ോടെയാണ്	9100
##ഡിംഗ്	9101
കേരളത്തിലും	9102
കാഴ്ച്ച	9103
പ്പ്	9104
##ാടന	9105
കമ്മറ്റി	9106
ദുർ	9107
നെല്ല	9108
മാധ്യമപ്രവര്‍ത്തക	9109
ആരംഭിച്ചിട്ടുണ്ട്	9110
നടപടിക്രമ	9111
ആർഎസ്	9112
ഇടപെട്ട്	9113
സമാജ്	9114
നിരോധനം	9115
അടിയന്തരമായി	9116
##ശേഷം	9117
തീരദേശ	9118
അണിനിര	9119
ുമ്പോള്‍	9120
എതിര്‍പ്പ	9121
വെടിവെ	9122
സംവരണ	9123
##കേരള	9124
ചൗധരി	9125
ആസാദ്	9126
ആചാര	9127
ബിൽ	9128
ബാര	9129
വട്ട	9130
വരി	9131
##ാലെ	9132
##ിലെത്തി	9133
##രാഗ്	9134
##മ്പുഴ	9135
വീശ	9136
##ര്‍ക്കു	9137
ബന്ധമുണ്ട	9138
അന്യ	9139
വേണ്ടിയ	9140
നടന്നിരുന്നു	9141
അനുശ	9142
എന്‍ജിനീയ	9143
എല്ലാവരെയും	9144
തവണയാണ്	9145
സ്ത്രീകളുടെ	9146
ആളുകള്‍ക്ക്	9147
തന്ത്രം	9148
അഡ്മ	9149
##ുമ്പോഴ	9150
കാര്യമില്ല	9151
കാവ്യ	9152
വനംവകുപ്പ്	9153
##കക്ഷിയായ	9154
അനുമതിയ	9155
പൊതുമരാമത്ത്	9156
05	9157
ഇങ്ങനെയ	9158
ചതു	9159
നദ്ദ	9160
സിലി	9161
##ിങ്	9162
##വുമ	9163
##ഡർ	9164
പ്രഭ	9165
ക്കാരുടെ	9166
കൊടി	9167
ചെയ്യണമെന്ന്	9168
##കളായ	9169
വിജയി	9170
നീര	9171
മെമ്മ	9172
വരവ	9173
സ്റ്റേഷനില്‍	9174
സമ്മര്‍ദ്ദ	9175
നടപ്പാക്കിയ	9176
പുതുപ്പള്ളി	9177
മോഹന	9178
ഭീഷണ	9179
സംരക്ഷണം	9180
ക്ഷാമ	9181
പശ്ചാത്തലത്തിലാണ്	9182
റൂം	9183
ഗോപാല	9184
മുതലാണ്	9185
പ്രശസ്ത	9186
തര്‍ക്കം	9187
പാരമ്പ	9188
ഡിപ്ലോമ	9189
".	9190
എന	9191
തന	9192
ധി	9193
നുമായി	9194
സാര	9195
##ഹാർ	9196
##െയായിരുന്നു	9197
നിത്യ	9198
ത്വ	9199
##ാലിന്റെ	9200
##ങ്ങളില	9201
##ങ്ങളിലൂടെ	9202
##ക്രമിച്ച്	9203
ഇതൊന്നും	9204
സംസ്ഥാനങ്ങളിലും	9205
കേരളാ	9206
പിന്നില	9207
##ഡിയൂരപ്പ	9208
ചെങ്ങ	9209
ബിജെപിയിലേക്ക്	9210
സമീപത്തെ	9211
അവകാശപ്പെടുന്നത്	9212
സമ്പർക്കത്തിലൂടെ	9213
പതിറ്റാണ്ട	9214
നിര്‍ദേശങ്ങള്‍	9215
പങ്കെടുക്കും	9216
##ശേഷി	9217
യൂണിറ്റ്	9218
റെഡ്ഡി	9219
വേട്ടയ	9220
ജനപ്രതിനിധ	9221
ദശലക്ഷം	9222
വിരാട്	9223
അഡ്മിനി	9224
അൻ	9225
അയോഗ	9226
ആഫ്രിക്ക	9227
ഒന്നു	9228
കബ	9229
നല്	9230
മകൾ	9231
##ിള്‍	9232
##ജന്റ	9233
##ിയന്‍	9234
##റിയാം	9235
വെള്ളി	9236
വേര്‍	9237
##ലിം	9238
ിരിക്കണം	9239
അതിര	9240
ഡോസ	9241
സംബന്ധമായ	9242
തൊഴിലാളികളുടെ	9243
ഡെമോ	9244
അകല	9245
##ക്കാലത്ത്	9246
രാമക്ഷേ	9247
വിദ്യാർത്ഥികൾ	9248
##ുനോ	9249
അഭിമുഖം	9250
സൗകര്യങ്ങള്‍	9251
അഭിഭാഷകന്‍	9252
ബൂത്ത	9253
രമ്യ	9254
റാവു	9255
വെളിച്ച	9256
തിരക്കഥ	9257
എറണാകുളത്ത്	9258
ഇരിട്ടി	9259
കാഞ്ഞിരപ്പള്ളി	9260
ഉറ്റുനോ	9261
സന്നിധാന	9262
സെക്യൂരിറ്റി	9263
07	9264
അക്	9265
ആഞ്ഞ	9266
എപ്പി	9267
ഡൗൺ	9268
സവി	9269
##റുകൾ	9270
##ഫ്യൂ	9271
പ്രാപ	9272
##ുവരുന്ന	9273
മേള	9274
ഉപാധ	9275
കാര്യങ്ങളെ	9276
ഭാഗത്തു	9277
സീറ്റിൽ	9278
കുടുംബത്തിലെ	9279
മിണ്ട	9280
സെക്രട്ടേറിയ	9281
അയല്‍	9282
##ൻ്റ	9283
അമേരിക്കയുടെ	9284
ഒറ്റയ്ക്ക്	9285
ക്ഷേത്രം	9286
ഉയര്‍ന്നിരുന്നു	9287
േക്കുമെന്ന	9288
ഹിന്ദി	9289
പ്രസ്താവനയില്‍	9290
കിട്ടിയത്	9291
പോളിങ്	9292
അമ്പര	9293
##പ്രവര്‍ത്തകര്‍	9294
ഉദയ	9295
അബ്ദുള്‍	9296
ഞെട്ടിക്കുന്ന	9297
ഇലക്ട്രോണി	9298
##ായുധ	9299
ശുപാര്‍ശ	9300
ഇവി	9301
പൂര	9302
വുമില്ല	9303
ഒരുപോലെ	9304
##ത്തിമ	9305
ത്താ	9306
##ജെപി	9307
##ാളും	9308
ഉണ്ടെന്നും	9309
ഇന്ത്യയും	9310
എന്നിവയും	9311
കോൺഗ്രസും	9312
പിന്തുണച്ച്	9313
പിന്തുണയും	9314
ചികിത്സയിൽ	9315
കുട്ടികള്‍ക്ക്	9316
യ്ക്കാണ്	9317
ചേര്‍ന്നു	9318
കുത്തനെ	9319
തികച്ചും	9320
ഡല്‍ഹിയില്‍	9321
ദീർ	9322
യാക്കി	9323
##തായ	9324
##ിലില്‍	9325
##ാനോ	9326
##ിച്ചിരിക്കുന്നത്	9327
മാന്‍	9328
പ്രതിഭ	9329
പരിഷ്‌	9330
ചെയ്യുമെന്ന്	9331
തീര്‍ത്ത	9332
ഉപദ്ര	9333
ിരിക്കും	9334
യെഡിയൂരപ്പ	9335
എത്തിച്ചത്	9336
പിടിക്കുന്ന	9337
##ത്തിനുള്ള	9338
120	9339
അനുവദിക്കുന്ന	9340
##്വാന	9341
ഹൈക്കമാ	9342
പ്രവേശിപ്പ	9343
ണ്ടാ	9344
ദേവി	9345
എക്‌സൈസ്	9346
സ്വർണം	9347
നോക്കാം	9348
ആക്രമണത്തില്‍	9349
##വൈസി	9350
മദ്യപ	9351
തുടക്കത്തില്‍	9352
ക്കുറിച്ചും	9353
ക്കുറിച്ചുള്ള	9354
നിവാരണ	9355
ദീർഘ	9356
മ്യൂ	9357
രഘ	9358
##വശ	9359
##വാര	9360
പറഞ്ഞാൽ	9361
തന്നോട്	9362
ചെയ്യാനും	9363
നിയമങ്ങൾ	9364
തെക്ക്	9365
സർക്കാര	9366
##ദിക്	9367
പിടിച്ചത്	9368
ശക്തമാക്കിയ	9369
ചെയ്തിരുന്ന	9370
നല്ലത്	9371
വീഡിയോയില്‍	9372
വർഷമായി	9373
കമ്മീഷണര്‍	9374
കളുടെയും	9375
പുറത്തിറങ്ങ	9376
ഫാത്തിമ	9377
ക്കിടയിൽ	9378
ട്വിറ്ററില്‍	9379
താത്കാലിക	9380
തന്നെയായിരുന്നു	9381
സുധാകരന്റെ	9382
തൊടുപുഴ	9383
ഔട്ട്	9384
വ്	9385
ഹന	9386
വിശ്വാ	9387
##റിയും	9388
##ര്‍ക്കുന്ന	9389
വേണമെന്നും	9390
അനിവാര	9391
പാലിക്കുന്ന	9392
സ്ഥിരമായി	9393
തിരഞ്ഞെടുപ്പിന്റെ	9394
##കരമാണ്	9395
മൊക്കെ	9396
അടിമ	9397
സമയമാണ്	9398
ക്യാമ്പ്	9399
യുണ്ടായി	9400
പ്രവര്‍ത്തകരും	9401
പണിക്ക	9402
ചേര്‍ന്നാണ്	9403
അവതാര	9404
പരിപാടിയിൽ	9405
നിലനിര്‍ത്ത	9406
വീട്ടിലെത്തി	9407
പന്തില്‍	9408
അഴിച്ചു	9409
##പ്രവർത്തക	9410
03	9411
ചില്ല	9412
ഞങ്ങൾക്ക്	9413
പള്‍	9414
യോടും	9415
റഹ	9416
റൺ	9417
ുകള്‍	9418
##തക	9419
##നീഷ	9420
പ്രേമ	9421
ക്കാറ	9422
കുര്യ	9423
##േഷന്	9424
##േഷിന്റെ	9425
##ീകാര	9426
ചെയ്യുകയാണ്	9427
കേന്ദ്രങ്ങളില്‍	9428
സ്ഥാനാർഥി	9429
ചിദ	9430
##സ്‌പോ	9431
ബാധിച്ചു	9432
അടിച്ചു	9433
മുണ്ടാകും	9434
നേതാക്കളായ	9435
ജോലിക്ക്	9436
യിലെത്തിയ	9437
വിശദീകരിക്ക	9438
ജില്ലകളിലായി	9439
സ്വര്‍ണ്ണ	9440
##ക്കളുടെ	9441
ധനകാര്യ	9442
ഉണ്ടായിരുന്നില്ല	9443
##ൊക്കെയാണ്	9444
അവിശ്വാസ	9445
നിയമനടപ	9446
ബെംഗളൂരുവ	9447
റെയ്ഡ്	9448
സാഹചര്യമ	9449
ജ്വല്ല	9450
കഞ്ചാവ്	9451
കടുപ്പ	9452
ചാക്കോ	9453
തമ്പ	9454
മതം	9455
##ാച	9456
##ഹാസ	9457
##എച്ച്	9458
##ത്‌	9459
മുയ	9460
##സിം	9461
##്യാദ	9462
അതോ	9463
ിട്ടു	9464
പെരിയ	9465
##ത്തുട	9466
ശ്രമങ്ങൾ	9467
സ്റ്റു	9468
കുമാര	9469
യുവാക്കള്‍	9470
##ിടുന്ന	9471
പ്രതീക്ഷയിലാണ്	9472
ആരംഭിക്കുന്ന	9473
ഒഴിവുകള്‍	9474
താരത്തിന്റെ	9475
ക്രമസമാ	9476
ഇന്റലി	9477
നേരിട്ടത്	9478
പിടികൂടി	9479
ക്യാപ്റ്റന്‍	9480
സീസണില്‍	9481
കുടിവെള്ള	9482
##പൊട്ട	9483
സൊസൈ	9484
കല്‍പ്പറ്റ	9485
വിദ്യാർഥ	9486
പലതവണ	9487
ക്രമസമാധാന	9488
തക്ക	9489
സ്ക	9490
മാട	9491
മുക്ത	9492
രാക	9493
കൊച്ചു	9494
വെങ്ക	9495
ചെയ്യേണ്ടത്	9496
ജോൺ	9497
കാത്തു	9498
ഇടയിൽ	9499
കേസുകളും	9500
മന്ത്രിസഭാ	9501
സംഭവത്തിന്	9502
ഉയരുന്നത്	9503
കൈപ്പ	9504
രണ്ടാഴ്ച	9505
ഉള്‍പ്പ	9506
മുണ്ടായി	9507
##ഭ്യാസ	9508
ഉണ്ടായിട്ടില്ല	9509
ഉന്നയിച്ചത്	9510
കിടന്ന	9511
പതിനായിര	9512
ഉമ്മന്‍ചാണ്ടി	9513
സമുദ്ര	9514
വരാൻ	9515
കാപ്പന്‍	9516
തനിക്കെതിരെ	9517
യാഥാര്‍ത്ഥ	9518
വോട്ടെണ്ണല്‍	9519
ഗസ്റ്റ്	9520
ചാടി	9521
ജപ്പ	9522
രുന്ന	9523
വന്യ	9524
##ടാ	9525
##ണത	9526
ഉണ്ടാക്കുന്ന	9527
സെല്ല	9528
സംഘത്തിന്റെ	9529
ദിവസങ്ങള്‍	9530
കുടുംബശ്രീ	9531
ആര്‍ജെഡി	9532
30ന്	9533
ലൈൻ	9534
വൈകിയ	9535
സ്ഥാനാര്‍ത്ഥിയായി	9536
ക്കാനുളള	9537
യുഡിഎഫിന്റെ	9538
മാറുന്ന	9539
യുഎഇയില്‍	9540
ജയിലിൽ	9541
ഡിവൈഎഫ്ഐ	9542
തുടർച്ചയായി	9543
ഹെല്‍ത്ത്	9544
എതിരായ	9545
ടാറ്റ	9546
##മര്‍	9547
##ൃതമായി	9548
##ക്കുകയും	9549
സ്വി	9550
കേട്ട്	9551
##സിഡ	9552
സ്വീകാര	9553
പേരി	9554
സുഭാ	9555
കെട്ടിയ	9556
അനാവശ്യ	9557
പിന്നിലെ	9558
##പ്പെടുത്താൻ	9559
##ബ്ദ	9560
സ്‌ക്ര	9561
##ബന്ധിച്ച്	9562
ഉറച്ച്	9563
തൃപ്തി	9564
ആദ്യമായാണ്	9565
പ്രസിഡന്‍റ്	9566
കരുത്ത്	9567
പ്രകടിപ്പിച്ച	9568
അടയ്ക്ക	9569
നീക്കങ്ങള്‍	9570
പുറത്താക്ക	9571
സേനാ	9572
സമീപിച്ചത്	9573
##യ്ക്കല്‍	9574
ലിസ്റ്റ്	9575
250	9576
നേരിടാന്‍	9577
നിരീക്ഷണത്തില	9578
അനുഭവം	9579
തടയുന്ന	9580
കൂടുതലാണ്	9581
അഡീഷ	9582
പരിപാടികള്‍	9583
ഹർജ	9584
കൺട്ര	9585
അഴീക്ക	9586
വൃത്തങ്ങള്‍	9587
ഭിന്നത	9588
സമ്പര്‍ക്കത്തിലൂടെയാണ്	9589
അയാളുടെ	9590
സൂരജ്	9591
മില്യണ്‍	9592
നിലനിൽക്കുന്ന	9593
അതിശക്തമായ	9594
ഹെലികോ	9595
സത്യവാങ്	9596
5000	9597
ഗോള്‍	9598
മെങ്കിലും	9599
യൊന്നും	9600
##ഘോഷ	9601
പുതുമ	9602
വീണ്	9603
##ണ്ണി	9604
ബാംഗ്ല	9605
##്യാപേക്ഷ	9606
##മാശ	9607
വരില്ല	9608
ആവശ്യപ്പെടുന്നത്	9609
സർക്കാറ	9610
##ക്ഷേമ	9611
കയറ്റി	9612
വൈറല്‍	9613
കിട്ടും	9614
ഉടല	9615
ശ്രദ്ധിക്കണം	9616
ഉൾപ്പെട്ട	9617
പഠിച്ച	9618
വിശദീകരണ	9619
ജില്ലകളിലാണ്	9620
സ്ഥാനാര്‍ത്ഥിയെ	9621
വകുപ്പിന്	9622
വെച്ചത്	9623
ഫ്രാന്‍	9624
ജാമ്യാപേക്ഷ	9625
കൊണ്ടുവര	9626
കമ്മിറ്റിയുടെ	9627
സിവിൽ	9628
പ്രസിദ്ധീകരിച്ച	9629
താഴ്ന്ന	9630
ഡിജിറ്റല്‍	9631
ഗെലോട്ട്	9632
ഹിജാബ്	9633
ഇരിക്കുന്ന	9634
ഭയം	9635
സപ്പോ	9636
ഹസ	9637
##വസ്ഥ	9638
##ടാണ്	9639
##മാല	9640
##ഡുകൾ	9641
##ിക്കട	9642
##ിക്കോ	9643
നിഗമ	9644
##ാക്കളുടെ	9645
പറഞ്ഞിട്ടുണ്ട്	9646
പറയേണ്ട	9647
ലഭ്യമായ	9648
നിയമവിരുദ്ധ	9649
##്യൂറോ	9650
അഭയ	9651
ചേരി	9652
അനുയായി	9653
കുടുംബത്തെ	9654
യാത്രക്കാർ	9655
ആദായ	9656
ല്ലാ	9657
ക്കാനോ	9658
പ്പോലെ	9659
പണിയ	9660
ആരാധന	9661
രംഗത്തെത്തിയത്	9662
അഴിമ	9663
തമിഴ്‌നാട്ടില്‍	9664
ആരോഗ്യം	9665
ത്രിപുര	9666
ഉല്‍പ്പാദ	9667
ഞെട്ടി	9668
റവന്യൂ	9669
അളവ	9670
ഉത്സവ	9671
ഓണം	9672
ദോഷ	9673
മഹി	9674
ിംഗ	9675
##ീഖ്	9676
##ര്‍ഷം	9677
സ്റ്റ്	9678
##പിട	9679
ജനങ്ങള	9680
മൂവാറ്റുപുഴ	9681
സ്വദേശിന	9682
ചേട്ട	9683
മാറ്റാന്‍	9684
അഭിഷേ	9685
രാഹുല	9686
പരീക്ഷാ	9687
റിയാദ്	9688
ഉന്നയിക്കുന്ന	9689
##കാലത്ത്	9690
ഒരിക്കൽ	9691
വരികയായിരുന്നു	9692
ടീമിന്റെ	9693
സഞ്ചാര	9694
ഡോളറ	9695
അച്ഛന്‍	9696
സമാധാനം	9697
യുക്രൈന്‍	9698
കുവൈത്ത്	9699
അരുണ്‍	9700
ഭാഗമായാണ്	9701
തിരച്ചില്‍	9702
സർട്ടിഫിക്കറ്റ്	9703
അനുപമ	9704
വിജ്ഞാപ	9705
സവിശേഷ	9706
00	9707
അണിയ	9708
ആധി	9709
ണ്‍	9710
രസ	9711
വക്ക	9712
##റാമ	9713
##മാകുന്ന	9714
##ളായ	9715
##ഡ്ര	9716
##ഫല	9717
##പ്പൊ	9718
##ാൻഡ്	9719
കഴിഞ്ഞത്	9720
മെമ്പ	9721
അപൂര്‍	9722
പരിയ	9723
ട്രോള	9724
രണ്ടുപേ	9725
ചോദിക്കുന്നത്	9726
നേതൃത്വത്തിലാണ്	9727
ടിപി	9728
ടി20	9729
വീട്ടു	9730
മണ്ഡലങ്ങളിലും	9731
ഇറക്കി	9732
സമയത്താണ്	9733
നമ്മളെ	9734
നേതാക്കളുമായി	9735
മാരാർ	9736
വിശദീകരിച്ചു	9737
തിരായ	9738
അമ്മയും	9739
അവകാശപ്പെട്ടു	9740
അര്‍ജു	9741
യഥാ	9742
കുഴപ്പ	9743
വകഭേദ	9744
സംഭാഷണ	9745
go	9746
അസാധ	9747
ജെയ്	9748
ഭീ	9749
##ഡിലെ	9750
മാന്യ	9751
മുടി	9752
വെസ്റ്റ്	9753
എംകെ	9754
##ുണ്ടായിരുന്നു	9755
ആവശ്യപ്പെടുന്ന	9756
..?	9757
പ്രചരിക്കുന്ന	9758
കുടുംബവും	9759
##ാലിദ	9760
നഗരത്തിലെ	9761
റഷ്യൻ	9762
നടപടിയെടുക്ക	9763
ക്രമക്കേ	9764
കൈവശം	9765
ഐസൊല	9766
അപലപ	9767
നിഗമനം	9768
ഓര്‍മ	9769
കായം	9770
താനും	9771
ഭോ	9772
റേഷന്‍	9773
##ഗത	9774
##ാട്ട്	9775
##ിയ്ക്ക്	9776
വിഭവ	9777
കുഴി	9778
##ാവിന്	9779
##യിന്‍	9780
##മിന്ന	9781
അറിയപ്പെടുന്ന	9782
##ഷ്ക	9783
ഇടവം	9784
ചേരു	9785
##ബിള്‍	9786
സോഫ്റ്റ്	9787
തടവ	9788
റെനീഷ	9789
മന്ത്രിയും	9790
പരിഹാസ	9791
നഗരസഭാ	9792
രജിസ്‌ട്ര	9793
സന്ദര്‍ശന	9794
ിരുന്നുവെങ്കിലും	9795
ആവശ്യമുള്ള	9796
ഇടിമിന്ന	9797
സൂക്ഷിച്ച	9798
ക്കേണ്ടതുണ്ട്	9799
ഒരാളാണ്	9800
ലോകകപ്പ്	9801
ശ്രീനിവാസ	9802
##ala	9803
രോഗമുക്തരായി	9804
ഇബ്രാഹി	9805
കം	9806
നൃ	9807
##തല്ല	9808
##െന്നി	9809
പോര	9810
രാജയോഗം	9811
ത്തിലേ	9812
വെക്കുന്ന	9813
പറയണം	9814
ില്ലാത്ത	9815
കടം	9816
ശ്രമങ്ങള്‍	9817
മാറ്റുന്ന	9818
സ്റ്റാന്‍	9819
തിരഞ്ഞെടുപ്പിലെ	9820
ിക്കാനും	9821
മുന്‍സിപ്പ	9822
ഇല്ലെന്നും	9823
ഭാരവാഹി	9824
മാനന്ത	9825
മലയാളികള്‍	9826
##ദ്രോഹ	9827
കണ്ടെത്താൻ	9828
സമൂഹം	9829
യുഡിഎഫും	9830
അമിത	9831
ദിലീപിന്	9832
ഗോപിനാഥ	9833
സിറ്റിംഗ്	9834
##ാവശ്യമായ	9835
##ുകൂടി	9836
ഉറപ്പുവരുത്ത	9837
ഒറ്റക്കെട്ടായി	9838
സിലിണ്ട	9839
800	9840
അവിട	9841
ഇടുക്ക	9842
ഉൽപ്പ	9843
എസ്പ	9844
ഓഡി	9845
പത്തു	9846
ശാസ്	9847
##തൂ	9848
##കത	9849
##േഡിയ	9850
##്യത്തില്‍	9851
##പ്പാട്	9852
##ായിട	9853
മുങ്ങി	9854
ങ്ങളോട്	9855
ബാറ്റ്	9856
വന്നതിന്	9857
പെർ	9858
##ാറില്‍	9859
പ്രവര്‍ത്തിച്ച	9860
ക്രിക്കറ്റ	9861
ചിലവ	9862
വയനാട്ടില്‍	9863
##േറ്റം	9864
വരുമെന്നും	9865
വാര്‍ഷിക	9866
നഗര്‍	9867
നല്ലൊരു	9868
കണക്കാക്ക	9869
പ്ലാസ്	9870
കമ്യൂണി	9871
ക്കുന്നതിന്	9872
പറ്റുന്ന	9873
നേടുന്ന	9874
പതിവ	9875
ആരാധകർ	9876
ഹൗസില്‍	9877
##ടേയുള്ള	9878
നിരോധന	9879
പാര്‍ട്ടിയിലെ	9880
ശാന്ത	9881
സെപ്റ്റംബർ	9882
ഏജൻസി	9883
മധ്യപ്രദേശില്‍	9884
കുറ്റപത്രം	9885
ചടങ്ങ്	9886
ഷായുടെ	9887
08	9888
ഗവേഷ	9889
പാരി	9890
േഴ്‌സ്	9891
##ോണ്‍	9892
##ഡുകള്‍	9893
##ാനാവില്ല	9894
മാസ്റ്റര്‍	9895
##്യമന്ത്ര	9896
വെല്‍	9897
ചെയ്യുമെന്നും	9898
##ണ്ണായക	9899
ഉണ്ടാക്കി	9900
സംഭവങ്ങള്‍	9901
കിറ്റ	9902
##ാസമ്മേള	9903
ിക്കേണ്ട	9904
എത്തിച്ചേ	9905
ഉള്‍പ്പെടുത്തി	9906
തയ്യാറാ	9907
ദേവ്	9908
താമര	9909
മതനിര	9910
അലർട്ട്	9911
വിടുന്ന	9912
2006	9913
ശുദ്ധ	9914
പ്രസ്താവനയിൽ	9915
ഹോസ്റ്റ	9916
സന്ദര്‍ശനം	9917
ലീഗിന്	9918
സാധിച്ചിട്ടില്ല	9919
തമിഴ്നാട്ട	9920
അത്രയും	9921
താല്പ	9922
വ്യവസായി	9923
അഡ്മി	9924
##ൊന്നാണ്	9925
കസ്റ്റഡിയിൽ	9926
കിഴക്കന്‍	9927
പരമ്പര	9928
പരമ്പരാഗ	9929
ദുബായില്‍	9930
നിതീഷ	9931
തളിപ്പറമ്പ്	9932
മതനിരപേക്ഷ	9933
ആകാശ	9934
ഉചി	9935
തങ്ക	9936
തമാശ	9937
ബ്യൂറോ	9938
രുന്നു	9939
രക്ഷിത	9940
വെന്നും	9941
##ൂഖ്	9942
##പ്പള്ള	9943
പ്രമോ	9944
##ാക്കളെ	9945
കൊടുത്ത്	9946
##ിവസം	9947
പ്രതിഷേധിച്ച്	9948
രാജഗോപ	9949
തുടങ്ങുന്ന	9950
രൂപയ്ക്ക്	9951
##ുണ്ടോ	9952
##യെല്ലാം	9953
ുണ്ടെങ്കില്‍	9954
ട്ടെ	9955
പട്ടേല്‍	9956
ഇത്തവണത്തെ	9957
അവകാശവാദം	9958
ജലീല	9959
ആനന്ദ	9960
സഹായിക്കുന്ന	9961
സഞ്ചാരി	9962
സാക്ഷ്യ	9963
എട്ടാം	9964
രാമചന്ദ്രന്‍	9965
കമ്മ്യൂണിസ്റ്റ്	9966
മിഥുനം	9967
അച്ചടക്ക	9968
കശ്മീരി	9969
വഴിയൊരു	9970
മസ്ജി	9971
അദ്ധ്യക്ഷ	9972
വളരെയധികം	9973
വേട്ടയാട	9974
06	9975
ചതി	9976
പട്	9977
വാണ്	9978
##ഡിന്	9979
##ക്കിലെ	9980
പ്രശം	9981
വിരോധ	9982
##ുമൊക്കെ	9983
നിപ	9984
കുണ്ട	9985
##ുവെ	9986
##ംഗ്ട	9987
പൊടി	9988
സാധിച്ചത്	9989
##ണിത്തുറ	9990
##ുണ്ടാകും	9991
കരുത്ത	9992
ചെയ്യുന്നതിന്	9993
രാവില	9994
ങ്ങള്‍ക്ക്	9995
ഡെവല	9996
പങ്കെടുത്തത്	9997
ഭാര്യയും	9998
അന്തരിച്ചു	9999
