<unk>	0
<s>	0
</s>	0
▁്	-0
▁ക	-1
ന്	-2
▁ു	-3
▁ി	-4
▁‍	-5
▁ത	-6
▁പ	-7
്ക	-8
ന്ന	-9
▁ാ	-10
▁വ	-11
▁മ	-12
▁സ	-13
▁യ	-14
▁.	-15
്ത	-16
▁ന	-17
ണ്	-18
▁ക്ക	-19
്ര	-20
▁ര	-21
▁അ	-22
▁ത്ത	-23
▁ച	-24
ില	-25
ട്	-26
്ച	-27
ക്ക	-28
▁ം	-29
▁െ	-30
്പ	-31
▁ുന്ന	-32
്യ	-33
▁എ	-34
ല്	-35
▁ും	-36
ര്	-37
ട്ട	-38
ും	-39
്റ	-40
▁ഇ	-41
ങ്	-42
ത്ത	-43
ങ്ങ	-44
▁റ	-45
▁ആ	-46
യി	-47
▁ന്	-48
▁പ്പ	-49
▁ല	-50
ടെ	-51
▁,	-52
▁മാ	-53
ള്	-54
▁ച്ച	-55
▁ബ	-56
▁ജ	-57
▁ദ	-58
ിന	-59
▁ോ	-60
▁ട	-61
▁ങ്ങ	-62
▁നി	-63
▁േ	-64
▁വി	-65
ണ്ട	-66
▁ശ	-67
▁ുക	-68
▁പ്ര	-69
▁ില	-70
ല്ല	-71
സ്	-72
ാര	-73
▁ത്	-74
തി	-75
ക്	-76
ള്ള	-77
▁ഗ	-78
ച്ച	-79
രു	-80
▁ുന്നു	-81
റ്റ	-82
▁ഉ	-83
▁മു	-84
▁യു	-85
▁ാണ്	-86
ഞ്	-87
▁െന്ന	-88
ിയ	-89
▁യാ	-90
രി	-91
▁യില	-92
▁ിക്ക	-93
▁തി	-94
▁്ര	-95
▁സ്	-96
റെ	-97
▁ാന	-98
മാ	-99
െട	-100
▁ഒ	-101
ത്ര	-102
▁ങ്ങള	-103
▁ീ	-104
പ്പ	-105
▁ണ	-106
▁ത്തില	-107
▁ഡ	-108
ഞ്ഞ	-109
▁ഷ	-110
▁എന്ന	-111
▁ര്	-112
▁ിയ	-113
▁്യ	-114
▁യി	-115
▁ർ	-116
ക്ഷ	-117
▁ിന	-118
▁1	-119
▁ൂ	-120
▁സം	-121
▁ഭ	-122
▁ചെ	-123
▁രാ	-124
▁കോ	-125
▁2	-126
ത്	-127
▁ഹ	-128
▁ട്ട	-129
▁പറ	-130
▁ക്ക്	-131
▁കു	-132
▁ിര	-133
ടി	-134
▁ഫ	-135
▁ുള്ള	-136
ണ്ട്	-137
▁ത്തിന	-138
▁നട	-139
▁0	-140
യിര	-141
വി	-142
▁ിച്ച	-143
▁നേ	-144
▁കള	-145
▁പോ	-146
▁പ്പെട	-147
ങ്ക	-148
▁ില്ല	-149
ദേ	-150
▁കേ	-151
▁ള	-152
▁ചെയ	-153
▁ന്ന	-154
▁ുന്നത	-155
▁ദ്	-156
▁ിൽ	-157
▁യും	-158
▁റ്റ	-159
ാണ	-160
▁പി	-161
▁സി	-162
▁ത്തി	-163
▁ിട്ട	-164
▁വര	-165
▁ഞ	-166
▁വാ	-167
ാന	-168
ില്	-169
▁യുടെ	-170
ഴി	-171
▁ൊ	-172
▁ിന്	-173
▁പാ	-174
്മ	-175
▁്ട	-176
▁ടു	-177
▁കൊ	-178
▁സമ	-179
▁ന്ത	-180
ധി	-181
▁സാ	-182
ോഗ	-183
▁്റെ	-184
▁നിന്ന	-185
▁ുമ	-186
▁പേ	-187
▁സ്വ	-188
▁്ത്ര	-189
▁രി	-190
▁ഗ്ര	-191
▁ഒരു	-192
▁താ	-193
റി	-194
്യാ	-195
▁തു	-196
▁പറഞ്ഞ	-197
▁ുണ്ട്	-198
▁ാന്	-199
▁ുകള	-200
▁വെ	-201
▁പു	-202
▁ൻ	-203
▁മന	-204
▁ക്	-205
▁യെ	-206
▁ില്	-207
▁കാര	-208
▁നാ	-209
▁േക്ക	-210
▁ുകയ	-211
സ്ഥ	-212
▁ബി	-213
▁്ത്രി	-214
▁ത്തെ	-215
▁ഈ	-216
ന്ന്	-217
▁കാ	-218
▁ന്ദ	-219
▁ഏ	-220
▁ായ	-221
▁ുടെ	-222
▁3	-223
രെ	-224
▁അത	-225
▁ക്കാര	-226
▁യാണ്	-227
ക്ത	-228
ഭി	-229
കള	-230
▁രാജ	-231
▁5	-232
▁റി	-233
▁തിന	-234
താ	-235
▁-	-236
▁ഓ	-237
▁4	-238
രണ	-239
രാ	-240
ീസ	-241
▁ദ്ദേ	-242
ംഗ	-243
ഷ്	-244
▁അവ	-245
▁ന്ദ്ര	-246
▁യില്	-247
▁കൂ	-248
▁തെ	-249
▁ധ	-250
▁രു	-251
▁ിന്റെ	-252
ണി	-253
▁ുറ	-254
▁ചെയ്ത	-255
ന്നെ	-256
▁ാല	-257
▁ായി	-258
▁ായിര	-259
▁യിൽ	-260
▁ടുത്ത	-261
ന്ത	-262
▁നടത്ത	-263
▁തന്നെ	-264
▁ചെയ്യ	-265
▁ണ്ട	-266
നി	-267
▁കെ	-268
▁സ്ഥ	-269
ില്ല	-270
▁തീ	-271
▁വീ	-272
▁പ്പോ	-273
▁േക്ക്	-274
▁മാണ്	-275
▁:	-276
▁ത്തിൽ	-277
പി	-278
ളി	-279
▁ഇത	-280
▁പറയ	-281
▁ഴി	-282
▁തുട	-283
▁വും	-284
്റ്റ	-285
▁ൽ	-286
മ്മ	-287
▁യ്ക	-288
▁ട്ടി	-289
ണ്ടാ	-290
▁യ്ക്ക	-291
▁9	-292
രം	-293
▁ാൻ	-294
▁ടി	-295
▁ണ്	-296
▁6	-297
▁നിയ	-298
ധ്യ	-299
▁പോല	-300
▁സ്റ്റ	-301
▁രോഗ	-302
▁ൈ	-303
▁എം	-304
▁ങ്ങൾ	-305
▁വേ	-306
▁ദ്ദേഹ	-307
ല്ലാ	-308
▁ുമാ	-309
െടു	-310
▁ാല്	-311
വാ	-312
▁തിര	-313
▁നല്	-314
▁സംസ്ഥ	-315
സി	-316
▁(	-317
▁7	-318
▁േണ്ട	-319
കര	-320
▁മെ	-321
്രമ	-322
ദ്യ	-323
ന്ധ	-324
▁ഖ	-325
▁ത്ത്	-326
രള	-327
▁മുഖ	-328
▁ബാ	-329
▁െങ്ക	-330
▁ുകയാണ	-331
ടു	-332
▁ഞെടു	-333
ന്റ	-334
▁ുത്ത	-335
▁രൂ	-336
▁)	-337
▁ക്കാ	-338
▁കോണ്	-339
▁ക്ഷ	-340
ുമ	-341
▁8	-342
▁സര്	-343
ിവ	-344
ശ്യ	-345
▁കാര്യ	-346
▁ത്ര	-347
▁ഴിഞ്ഞ	-348
േശ	-349
▁ന്ത്യ	-350
▁ജന	-351
▁ിക	-352
▁ഡി	-353
ായ	-354
▁ക്കും	-355
വര	-356
▁മ്പ	-357
▁്യക്ത	-358
▁ഴ	-359
▁ഭാ	-360
▁മേ	-361
▁കേരള	-362
▁ശേ	-363
ജെ	-364
▁്പ	-365
▁നില	-366
▁ാവ	-367
▁നേതാ	-368
▁ിനെ	-369
▁്രതി	-370
ജെപ	-371
▁ബിജെപ	-372
▁കണ്	-373
▁ിപ്പ	-374
▁സു	-375
▁ചി	-376
▁ാക്ക	-377
കരി	-378
▁്ഥ	-379
▁പൊ	-380
▁മായ	-381
▁പക്ഷ	-382
▁ഐ	-383
▁വല	-384
▁തോ	-385
▁ഗ്രസ്	-386
ദി	-387
▁തിരഞ്	-388
ഡി	-389
▁രൂപ	-390
▁അതേ	-391
ോധ	-392
മ്പ	-393
ാട	-394
▁ലോ	-395
▁ൾ	-396
▁എത്ത	-397
വര്	-398
▁ോട	-399
▁എസ്	-400
▁യായിര	-401
▁ല്	-402
▁യിലെ	-403
▁ദിവ	-404
▁വര്	-405
▁സംഘ	-406
▁യോ	-407
▁പ്പ്	-408
▁ിന്ന	-409
▁വർ	-410
▁മ്മ	-411
വിഡ	-412
▁സീ	-413
▁ലഭി	-414
▁ാണ	-415
▁ദ്ധ	-416
▁നിര്	-417
▁രാജ്യ	-418
ട്ടി	-419
▁ക്കള	-420
▁വൈ	-421
▁വന്ന	-422
▁ദിവസ	-423
▁ബന്ധ	-424
▁ശേഷ	-425
▁ുകയും	-426
▁നിര	-427
സമ	-428
ര്യ	-429
മാന	-430
▁ഇട	-431
▁വിജ	-432
▁മുന്ന	-433
▁നിയമ	-434
▁ുകൾ	-435
ദ്	-436
▁ട്ര	-437
▁ാത്ത	-438
▁ആവ	-439
▁യം	-440
▁െതി	-441
▁കൾ	-442
▁ലക്ഷ	-443
▁ഘ	-444
▁ധി	-445
▁ജില്ല	-446
▁അതേസമ	-447
▁മുഖ്യ	-448
ോട്ട	-449
ീയ	-450
▁ശി	-451
▁പേര്	-452
▁ദേശ	-453
▁ുറത്ത	-454
▁അന	-455
▁ആവശ്യ	-456
ിര	-457
▁ള്ള	-458
▁സ്വദേ	-459
▁ിലും	-460
തെ	-461
ുക	-462
ലി	-463
▁ത്വ	-464
രോ	-465
▁സർ	-466
▁മറ്റ	-467
▁ീകരി	-468
▁തെന്ന	-469
▁ജോ	-470
▁'	-471
▁പരി	-472
▁ുട	-473
▁ജീ	-474
്യാപ	-475
▁എന്	-476
പടി	-477
▁ആശ	-478
ഷ്ട	-479
▁ലി	-480
▁ൃ	-481
▁സഭ	-482
▁റിപ്പ	-483
ഞ്ച	-484
▁പൂ	-485
ായി	-486
▁ംബ	-487
▁എന്ന്	-488
യും	-489
▁ാം	-490
▁ോര്	-491
▁ടുക്ക	-492
▁ണമ	-493
▁ജി	-494
▁െത്ത	-495
▁ല്ല	-496
▁ഇത്	-497
ുടെ	-498
▁വലിയ	-499
▁എല്ലാ	-500
▁പേര	-501
യാ	-502
▁സഹ	-503
▁നൽ	-504
▁പാര്	-505
▁ോടതി	-506
ശ്	-507
▁യോഗ	-508
▁ഞ്ച	-509
▁മി	-510
രുമ	-511
▁പോലീസ	-512
▁ചോ	-513
മി	-514
▁കാണ	-515
▁സംഭ	-516
▁ഉപ	-517
▁െതിരെ	-518
▁;	-519
▁ാർ	-520
▁പരാ	-521
ത്യ	-522
▁ണം	-523
▁ങ്ക	-524
▁ക്കി	-525
▁തിരു	-526
▁നൽക	-527
▁യാണ	-528
▁നീ	-529
▁ഷ്	-530
▁ഉണ്ടാ	-531
▁അറി	-532
▁അറിയി	-533
▁യുള്ള	-534
ണം	-535
▁മായി	-536
തു	-537
▁ുണ്ട	-538
▁അറ	-539
തല	-540
▁്രവര്	-541
▁മാത്ര	-542
ാല	-543
▁ന്ന്	-544
വേ	-545
▁രീ	-546
▁ംഗ	-547
▁ുകള്	-548
▁ച്ച്	-549
▁തിരി	-550
▁സീറ്റ	-551
▁ിട	-552
▁ഭാഗ	-553
▁ക്കു	-554
▁ഗ്രസ	-555
▁ധിക	-556
▁ന്നാ	-557
▁മോ	-558
ദേശ	-559
▁ണ്ട്	-560
▁ചേ	-561
▁ത്രി	-562
▁വരെ	-563
▁പെ	-564
▁്റ്റ	-565
▁യിര	-566
▁ികള	-567
▁ൂടു	-568
▁ഏറ്റ	-569
▁ങ്ങന	-570
▁ച്ചു	-571
▁വില	-572
ിനി	-573
▁ുമായി	-574
▁ശക്ത	-575
▁അഭി	-576
ടന	-577
▁പ്പോള	-578
▁അനു	-579
വർ	-580
▁ങ്ങനെ	-581
▁റെ	-582
ോട	-583
▁േണ്ടി	-584
▁പിടി	-585
▁രിശ	-586
▁തിരുവ	-587
▁ോള	-588
▁തീരുമ	-589
▁യൂ	-590
▁ൗ	-591
▁വയ	-592
▁അത്	-593
▁ാതെ	-594
▁രിശോധ	-595
▁വോട്ട	-596
▁ടക്ക	-597
▁ാഗ	-598
▁ഥ	-599
▁സ്ഥാന	-600
▁പങ്ക	-601
▁അന്	-602
▁്പോ	-603
ാണ്	-604
▁കി	-605
▁ിത	-606
▁നടപടി	-607
▁ക്രമ	-608
▁ത്തന	-609
▁ോട്ട	-610
▁ിലെ	-611
▁മുണ്ട	-612
ിത	-613
▁കൈ	-614
▁ുര	-615
▁്വ	-616
ങ്ങള	-617
ടിയ	-618
▁ജെ	-619
▁ഡോ	-620
മായ	-621
ീപ	-622
▁മാര	-623
ചര	-624
▁രാഷ്ട	-625
▁പോക	-626
▁കോൺ	-627
▁ശ്രമ	-628
▁രണ്ട്	-629
തിയ	-630
▁നേത	-631
▁സൂ	-632
▁്ട്	-633
▁ിൻ	-634
ുപ	-635
▁ഇന്ന്	-636
▁നേതൃ	-637
▁ിറ്റ	-638
▁ാറ്റ	-639
▁പുതിയ	-640
▁നേര	-641
▁ശേഷം	-642
▁ത്ഥ	-643
▁വെന്ന	-644
▁ഞ്ഞ	-645
▁നന്ത	-646
▁സമയ	-647
▁അന്വേ	-648
▁ക്ര	-649
▁ിച്ച്	-650
ഴ്	-651
യില	-652
▁നടക്ക	-653
▁തൊ	-654
▁പല	-655
▁ൊരു	-656
ക്ക്	-657
▁നിർ	-658
▁ഞാ	-659
▁ഓഫ	-660
▁ആര്	-661
▁സാഹ	-662
▁കള്	-663
ുംബ	-664
▁നു	-665
▁കിയ	-666
▁ആശുപ	-667
▁ഭരണ	-668
▁പര	-669
▁്ഥിര	-670
▁മുത	-671
▁നടന്ന	-672
▁ക്കാർ	-673
▁ആണ്	-674
▁കുപ്പ	-675
▁ുള്ളത	-676
▁മണി	-677
▁കാല	-678
▁വെച്ച	-679
▁വിഷ	-680
▁ാത്ര	-681
▁ആരോ	-682
▁ബ്	-683
▁മണ്	-684
▁യായ	-685
▁്രീയ	-686
▁താണ്	-687
▁നേതാവ	-688
വിധ	-689
▁രോഗ്യ	-690
▁്ല	-691
▁ങ്ങള്	-692
▁സെ	-693
▁കളില	-694
▁വിജയ	-695
▁ഏറ്റവ	-696
▁ആദ്യ	-697
▁കുറി	-698
▁കണ്ട	-699
▁തല	-700
▁ഷണ	-701
▁ിംഗ	-702
ീകര	-703
വിടെ	-704
▁ുവ	-705
▁ശത	-706
▁സൗ	-707
▁കണ്ണ	-708
▁കൂടി	-709
വണ	-710
ുകള	-711
ട്ട്	-712
▁കൂട്ട	-713
▁ഖ്യാപ	-714
പാട	-715
▁സംഭവ	-716
▁ിദ	-717
▁ചില	-718
▁പുരം	-719
പ്	-720
▁ക്കിയ	-721
▁മണ്ഡ	-722
ദ്ധ	-723
ഷ്യ	-724
▁ണി	-725
▁പ്രവർ	-726
സരി	-727
▁?	-728
സര	-729
▁പാർ	-730
▁കൊവിഡ	-731
▁റ്റ്	-732
ോട്	-733
▁ീഡ	-734
▁ാധ	-735
▁മേഖ	-736
▁കേസ	-737
ത്തര	-738
▁വിഭ	-739
▁മാറ്റ	-740
▁പ്രസ	-741
▁മേഖല	-742
▁കണ്ടെ	-743
▁മണ്ഡല	-744
വന	-745
ിൽ	-746
▁വള	-747
▁മൊ	-748
▁കൃ	-749
▁ാര	-750
▁്ക	-751
▁സാഹചര	-752
ക്ട	-753
▁ഗു	-754
▁യുണ്ട	-755
▁കോവിഡ	-756
▁ഴ്ച	-757
▁തിക	-758
▁നെ	-759
▁ാക	-760
▁ശ്	-761
ന്ദ	-762
▁ിപ്പി	-763
▁ഉയ	-764
▁ിദ്യാ	-765
▁റാ	-766
▁പ്പോഴ	-767
ജി	-768
▁ിവ	-769
▁െയ	-770
▁മാക്ക	-771
▁കോടി	-772
▁സാധി	-773
▁തോടെ	-774
▁ചിത്ര	-775
▁സാധ്യ	-776
▁ലൈ	-777
▁ിനി	-778
▁ഗോ	-779
▁പൊല	-780
▁ുണ്ടാ	-781
▁വരു	-782
▁ഷ്ട	-783
▁ൂടുതല	-784
▁ശതമാന	-785
▁മൂ	-786
▁പൊലീസ	-787
ാപ	-788
▁്സ	-789
▁യെന്ന	-790
▁ഹി	-791
▁ഫോ	-792
▁ജീവി	-793
ഴിയ	-794
▁ജ്	-795
▁ട്ടറി	-796
ഹു	-797
▁മാസ	-798
▁ദ്ധതി	-799
▁പരാതി	-800
▁വിവാ	-801
▁തുടര്	-802
▁ാനി	-803
രിട	-804
▁തും	-805
▁ില്ലാ	-806
▁്രദേശ	-807
▁ന്യ	-808
▁വിഭാ	-809
▁ദ്ദേശ	-810
▁യാത്ര	-811
▁ന്റെ	-812
▁കട	-813
▁ീഡിയ	-814
▁വരുടെ	-815
▁വു	-816
▁ത്യ	-817
▁രാഹു	-818
▁ാര്യ	-819
▁െത്തി	-820
▁വിഭാഗ	-821
തിന്	-822
▁ന്നാൽ	-823
ത്ഥ	-824
▁നേരിട	-825
ിലെ	-826
▁റോ	-827
മാര	-828
▁നിങ്ങ	-829
▁ഉറ	-830
▁വഴി	-831
▁തായി	-832
▁്യൂ	-833
▁ആള	-834
▁കഴിയ	-835
▁തൃ	-836
ാരണ	-837
▁ുട്ടി	-838
▁വ്	-839
▁്ടു	-840
▁പ്പില	-841
▁ണ്ണ	-842
▁"	-843
▁ഹാ	-844
▁കര്	-845
▁ശ്ര	-846
▁തയ	-847
▁രുത്ത	-848
▁ുടുംബ	-849
▁ജനങ്ങ	-850
▁വാക്	-851
▁രംഗ	-852
▁യുമാ	-853
▁ോർ	-854
ണ്ണ	-855
▁അധ്യ	-856
▁ദു	-857
▁ഷന	-858
▁കണ	-859
▁ാര്	-860
▁ങ്ങിയ	-861
▁വീട്ട	-862
▁ിപി	-863
▁ുള	-864
▁മല്ല	-865
വരെ	-866
▁നിലവ	-867
▁ഭൂ	-868
യോഗ	-869
▁മല	-870
▁എല്	-871
▁മുന്	-872
▁ണ്ടു	-873
▁മുള്ള	-874
ഷേ	-875
▁ൊക്ക	-876
▁ാധ്യ	-877
▁വിന	-878
▁ഒഴി	-879
▁മാറ	-880
▁ടെ	-881
▁രേ	-882
ഷേധ	-883
▁സേ	-884
ശി	-885
▁ൂടെ	-886
രേ	-887
മേ	-888
▁േണ്ടത	-889
▁ന്റ	-890
▁്വീകര	-891
▁റു	-892
ഭ്യ	-893
ക്ര	-894
▁ഇക്ക	-895
▁ന്തു	-896
▁യേ	-897
▁ിസ	-898
ഴ്ച	-899
▁തില	-900
▁താര	-901
▁ഹൈ	-902
▁ിഡ	-903
▁കണ്ണൂ	-904
▁മെന്റ	-905
▁പോയ	-906
▁ിറ	-907
▁ഇല്ല	-908
▁ക്ഷേ	-909
▁അംഗ	-910
▁മില്ല	-911
▁നോ	-912
▁ൂന്ന്	-913
▁ുകളില	-914
▁ഫല	-915
▁ജോലി	-916
▁പ്പോൾ	-917
▁ാലെ	-918
▁ലാ	-919
മന	-920
▁പേക്ഷ	-921
▁ിവര	-922
▁ഉപയോഗ	-923
▁ഉറപ്പ	-924
തിര	-925
▁െക്ര	-926
▁ഉണ്ട	-927
▁രിക്ക	-928
▁ചോദ്യ	-929
▁ത്സരി	-930
▁ാമ	-931
▁ക്കാന	-932
▁വിളി	-933
▁സിനി	-934
▁ോർട്ട	-935
▁ആയിര	-936
▁മത്	-937
▁കുറ	-938
ഗ്	-939
ഹന	-940
▁ാന്ധ	-941
▁സിനിമ	-942
▁ഭാര	-943
▁ധാന	-944
▁രോഗം	-945
▁രക്ഷ	-946
▁വാര്	-947
▁എണ്ണ	-948
▁ളുടെ	-949
▁ഉള്ള	-950
▁ാൽ	-951
▁വിശ	-952
▁ബ്ര	-953
▁മരണ	-954
ിതി	-955
▁ഓഫീസ	-956
▁റിയ	-957
▁നും	-958
▁പ്പു	-959
സാന	-960
▁വാദ	-961
▁തൊഴ	-962
▁ൊക്കെ	-963
ക്ഷണ	-964
▁ഉള്	-965
▁ചിക	-966
▁യ്	-967
▁മഹ	-968
▁പോലും	-969
ശ്വ	-970
▁അഞ്ച	-971
▁ന്തുണ	-972
ിക	-973
സ്സ	-974
▁ോദി	-975
▁ാധ്യമ	-976
▁യർ	-977
▁കര	-978
എം	-979
▁തയ്യാ	-980
▁റ്റി	-981
▁ാനാ	-982
ധാന	-983
▁ഒന്ന	-984
▁്രധാന	-985
▁ശ്രീ	-986
▁ഫ്	-987
▁അറിയ	-988
▁ംബന്ധ	-989
▁എത്തി	-990
▁ധാനമന	-991
▁വിട	-992
▁വിഷയ	-993
▁പ്രായ	-994
▁നായ	-995
▁ഇവിടെ	-996
▁്ത്രീ	-997
▁ത്തോട	-998
▁സ്ത	-999
▁നീക്ക	-1000
▁അവര്	-1001
▁രാഹുല	-1002
▁ുകാര	-1003
▁സൈ	-1004
ാമ	-1005
കട	-1006
▁മായിര	-1007
▁വ്യാപ	-1008
▁ചര്	-1009
▁വിമ	-1010
▁ത്യേ	-1011
▁ശ്രമി	-1012
▁ജീവിത	-1013
▁മരി	-1014
▁ചികിത	-1015
ീഷ	-1016
▁ാളി	-1017
▁കോഴി	-1018
▁തുടര	-1019
▁ക്കൂ	-1020
▁ാറ	-1021
ഡിഎ	-1022
▁യുഡിഎ	-1023
▁സാമ്പ	-1024
▁ലോക	-1025
▁!	-1026
▁തിഷേധ	-1027
▁െല്ലാ	-1028
▁യ്യ	-1029
▁നമ്മ	-1030
▁പങ്കെ	-1031
▁വിശ്വ	-1032
▁നഗ	-1033
▁മുതല്	-1034
▁കമ്മ	-1035
▁ശന	-1036
▁ന്ത്ര	-1037
▁തന്	-1038
▁കണക്ക	-1039
▁സഭാ	-1040
▁ുധ	-1041
▁ത്യേക	-1042
▁ാസ	-1043
▁വരും	-1044
രുത	-1045
▁ദ്ദ	-1046
▁ൺ	-1047
▁പൊതു	-1048
▁വിമാന	-1049
▁യായി	-1050
▁പൂര്	-1051
▁കുറ്റ	-1052
▁തീക്ഷ	-1053
▁ആർ	-1054
▁ുളള	-1055
▁ിംഗ്	-1056
▁വുമ	-1057
▁പഞ്ച	-1058
▁ചോദി	-1059
▁ത്തു	-1060
▁്ത	-1061
▁കോഴിക	-1062
▁വാങ്ങ	-1063
▁ലു	-1064
▁ൊപ്പ	-1065
▁ഇതിന	-1066
▁െടെ	-1067
േജ	-1068
▁ന്തര	-1069
▁ഉദ്യ	-1070
▁ോട്	-1071
▁ശക്തമ	-1072
▁ആരം	-1073
ൂഹ	-1074
▁സംഘടന	-1075
വിട	-1076
കാ	-1077
▁നില്	-1078
▁എന്ത	-1079
▁തുവരെ	-1080
▁ധികാര	-1081
▁മറ്റ്	-1082
▁ആരംഭി	-1083
▁ാത്രം	-1084
▁10	-1085
▁വെള്ള	-1086
▁യത്ത	-1087
▁കാരണം	-1088
▁ുമാണ്	-1089
▁സ്ഥല	-1090
▁പ്	-1091
ഴു	-1092
▁വീണ്ട	-1093
ോടെ	-1094
▁ിത്ത	-1095
▁രേഖ	-1096
▁ശാ	-1097
▁പ്പി	-1098
▁മുൻ	-1099
▁രണ്ട	-1100
▁ലക്ഷം	-1101
ോഷ	-1102
▁മുമ്പ	-1103
ശ്ച	-1104
▁തേ	-1105
▁ൊപ്പം	-1106
▁മാണ	-1107
▁എന്നത	-1108
▁്കോട്	-1109
സാര	-1110
▁തന്റെ	-1111
▁ന്നും	-1112
▁പഞ്ചാ	-1113
▁വച്ച	-1114
▁ിഡന്റ	-1115
▁ണറ	-1116
▁രീതി	-1117
▁ില്ലി	-1118
▁നൽകിയ	-1119
▁നം	-1120
▁പേർ	-1121
▁ഇരു	-1122
▁ിലാ	-1123
▁്പോള്	-1124
▁ബോ	-1125
▁െന്ന്	-1126
▁എഫ	-1127
▁ഇനി	-1128
▁സമീപ	-1129
▁ഇവര്	-1130
വ്	-1131
പണ	-1132
▁രണ്ടാ	-1133
യ്	-1134
▁രാശി	-1135
▁ആര	-1136
▁ഇതോടെ	-1137
▁േറ്റ	-1138
▁തെളി	-1139
▁ഡിഎ	-1140
മാറ	-1141
▁െട	-1142
ക്കി	-1143
▁ിലപാട	-1144
▁സമ്പ	-1145
▁എൽ	-1146
▁വിവര	-1147
▁മീ	-1148
▁വളരെ	-1149
▁തര	-1150
▁ദേശീയ	-1151
▁വർഷ	-1152
▁ഘട്ട	-1153
▁ിയത്	-1154
▁സമ്മ	-1155
▁ഉയര്	-1156
▁ിനിടെ	-1157
▁അപ	-1158
▁സൂച	-1159
▁േസ	-1160
▁സഖ	-1161
▁ആരോപണ	-1162
▁്രദ്ധ	-1163
റു	-1164
വധ	-1165
▁ാനാണ്	-1166
▁ല്ലാ	-1167
▁്ടി	-1168
▁നിരവധ	-1169
▁ചേര്	-1170
▁/	-1171
▁നല്ല	-1172
▁ത്തവണ	-1173
▁കരുത	-1174
▁ഭാഗമാ	-1175
ീവ	-1176
▁ാനും	-1177
▁ാണി	-1178
▁തിന്	-1179
▁മെഡി	-1180
▁ജോസ	-1181
▁ദേ	-1182
ത്ത്	-1183
▁േയും	-1184
▁വൈറ	-1185
▁ആഗ	-1186
പാ	-1187
▁ആക	-1188
▁വിവിധ	-1189
▁മത്സര	-1190
വദ	-1191
▁്ടിര	-1192
▁വിജയി	-1193
▁അല്ല	-1194
▁ദി	-1195
▁ഞ്	-1196
▁ത്തകര	-1197
▁അനുവദ	-1198
▁കുട്ട	-1199
ലാ	-1200
▁സിന	-1201
▁പോലെ	-1202
▁ദ്യ	-1203
▁െടു	-1204
▁്രവ	-1205
▁ള്ളി	-1206
▁പഠ	-1207
▁എഫ്	-1208
▁തെര	-1209
▁ക്കുമ	-1210
▁കൂട	-1211
▁ബാധ	-1212
▁ിലൂ	-1213
▁ക്കുറ	-1214
▁ചൂ	-1215
▁ത്തിക	-1216
▁തങ്ങ	-1217
▁വ്വ	-1218
▁ഞാന്	-1219
▁ർക്ക	-1220
▁്യം	-1221
▁ിലൂടെ	-1222
▁ഹൈക്ക	-1223
കാശ	-1224
▁തക	-1225
▁ക്രമണ	-1226
▁മാര്	-1227
▁ീട്	-1228
▁സന്	-1229
▁വിക	-1230
▁ചാ	-1231
▁ഉത്തര	-1232
▁ടിസ്ഥ	-1233
▁കുള	-1234
▁യുഎ	-1235
▁തുടർ	-1236
ണമ	-1237
▁യുവ	-1238
▁വാഹന	-1239
▁ളി	-1240
▁ണറായി	-1241
▁പ്പിന	-1242
ലെ	-1243
▁ക്യാ	-1244
▁സമര	-1245
▁ഇതിന്	-1246
▁മ്പനി	-1247
▁ക്കല്	-1248
▁ഗ്	-1249
▁അതി	-1250
▁തിനെ	-1251
്റെ	-1252
▁ത്തക	-1253
▁ഷന്	-1254
▁സംവിധ	-1255
▁പ്രശ്	-1256
മസ	-1257
▁തികരി	-1258
▁ടീ	-1259
▁യില്ല	-1260
▁ുത്തി	-1261
▁നാട്ട	-1262
▁തട	-1263
▁കേസ്	-1264
▁എനി	-1265
▁്രവേശ	-1266
▁എൻ	-1267
▁യറ	-1268
▁മഴ	-1269
▁ഷക	-1270
▁താണ	-1271
ൃത	-1272
▁ഒരാ	-1273
▁വിവാഹ	-1274
▁്രാ	-1275
▁്ലാ	-1276
▁നഗര	-1277
▁രെ	-1278
▁ദിന	-1279
▁ലീ	-1280
▁സഖ്യ	-1281
▁ഷൻ	-1282
▁തിൽ	-1283
റോ	-1284
▁മാന	-1285
▁ിടെ	-1286
▁പാല	-1287
▁ാള	-1288
▁ലോക്	-1289
▁വിശദ	-1290
▁നാല്	-1291
▁ചൂണ്ട	-1292
▁പരിഹ	-1293
▁തവണ	-1294
▁ുകൊ	-1295
▁കർ	-1296
▁അവർ	-1297
▁പുറ	-1298
▁ട്	-1299
▁ടിച്ച	-1300
▁തൊഴില	-1301
▁സിംഗ	-1302
▁ണെ	-1303
▁തെരഞ്	-1304
▁രീക്ഷ	-1305
▁വൈക	-1306
▁പ്രാ	-1307
▁രുടെ	-1308
▁ിപിഎം	-1309
▁ാലത്ത	-1310
▁ത്താ	-1311
▁പക്ഷേ	-1312
▁ആല	-1313
▁ബാധി	-1314
▁സഹായ	-1315
▁ാർത്ഥ	-1316
▁ആരോപി	-1317
▁ഉൾ	-1318
▁ചൈ	-1319
▁ീഡിയോ	-1320
▁ാട	-1321
▁േജ	-1322
▁ന്യൂ	-1323
▁ആയ	-1324
▁രും	-1325
▁തിര്	-1326
▁നവ	-1327
▁നഷ്ട	-1328
▁വികസ	-1329
▁അമേ	-1330
▁റില	-1331
▁ജീവന	-1332
▁നടപ്പ	-1333
▁ഴ്	-1334
▁ഉൾപ്പ	-1335
▁ചെന്ന	-1336
▁വ്യാ	-1337
▁ശിനി	-1338
▁വിവ	-1339
▁ക്കാട	-1340
ഷ്ണ	-1341
▁ിങ്	-1342
▁വിദേശ	-1343
▁ൊച്ച	-1344
റോണ	-1345
▁അഞ്ച്	-1346
▁ഇറ	-1347
▁ല്ലാം	-1348
▁ിറ്റി	-1349
▁കൊറോണ	-1350
▁ഷി	-1351
▁ഫി	-1352
▁അന്ത	-1353
▁വ്യ	-1354
▁കളെ	-1355
▁ചൈന	-1356
▁ികച്ച	-1357
▁മുതൽ	-1358
▁ച്ചെ	-1359
▁റുപടി	-1360
▁സ്ഥാപ	-1361
▁ീക്ഷണ	-1362
▁ൊച്ചി	-1363
▁സമയം	-1364
▁എന്റെ	-1365
▁പണം	-1366
▁കമ്മി	-1367
▁വിവരം	-1368
▁ീക	-1369
▁ോട്ടയ	-1370
▁തനി	-1371
▁തിനാല	-1372
▁എസ	-1373
▁ിമ	-1374
▁നേട്ട	-1375
▁ഷം	-1376
▁ലെ	-1377
▁എംഎ	-1378
▁കളുടെ	-1379
▁ഞാൻ	-1380
▁ദുര	-1381
▁ാഴ്ച	-1382
▁ക്ഷേപ	-1383
▁അമ്മ	-1384
▁അതുക	-1385
▁അമേരി	-1386
▁ത്തരം	-1387
▁്മ	-1388
▁ിയെ	-1389
▁രിപാട	-1390
▁ദില	-1391
▁മൂല	-1392
▁ശിവ	-1393
▁ഭാഷ	-1394
▁യിട്ട	-1395
▁യൂണി	-1396
▁ണ്ഡ	-1397
▁ഗ്രൂ	-1398
▁അതുകൊ	-1399
▁റിന	-1400
▁ണെന്ന	-1401
▁കൃഷ്ണ	-1402
ടങ്ങ	-1403
തൽ	-1404
▁ഇടപ	-1405
▁ട്ടിക	-1406
▁തമ്മ	-1407
▁ജയ	-1408
▁ധന	-1409
▁ണ്ടാണ	-1410
▁നുമ	-1411
▁േഷ	-1412
▁ക്കൊ	-1413
▁ടക്കം	-1414
▁ാലും	-1415
▁ക്കര	-1416
▁കാരം	-1417
▁്റ	-1418
▁സംസാര	-1419
▁വന്	-1420
▁്യു	-1421
ണാ	-1422
▁അയ	-1423
▁പ്രീ	-1424
▁ദേവ	-1425
▁ാവിലെ	-1426
▁ഓരോ	-1427
▁ാര്യം	-1428
▁ാലി	-1429
▁അപകട	-1430
▁മത	-1431
▁ക്കൂറ	-1432
▁വന	-1433
▁ൂടുതൽ	-1434
▁ആളുകള	-1435
▁തികരണ	-1436
▁സംഭവി	-1437
▁ടിക്ക	-1438
▁എറ	-1439
▁സിപി	-1440
▁ഞ്ജ	-1441
▁്രോ	-1442
▁കാണി	-1443
▁എറണാ	-1444
▁ാപ	-1445
▁ട്ട്	-1446
▁ഇടപെട	-1447
▁ീകരണ	-1448
▁തൃശ	-1449
▁ഹമ്മ	-1450
▁ഹമ്മദ	-1451
▁്റ്റേ	-1452
▁ത്രണ	-1453
▁കളും	-1454
▁നിയന്	-1455
▁തൃശൂ	-1456
▁അട	-1457
▁ജൂ	-1458
▁ഇന്	-1459
▁ക്കൾ	-1460
▁ദിലീപ	-1461
▁കീ	-1462
▁ോളേജ	-1463
▁ഷ്യ	-1464
▁വിവാദ	-1465
യാള	-1466
▁ബ്ദ	-1467
▁ഡിഎഫ	-1468
▁ധികം	-1469
▁റിഞ്ഞ	-1470
▁അതിന	-1471
▁ങ്ങി	-1472
▁നാഥ	-1473
▁സ്വര്	-1474
▁ൂർ	-1475
▁ഷ്ട്ര	-1476
▁ോസ	-1477
▁തിരെ	-1478
▁പ്പുഴ	-1479
▁ുപ	-1480
▁ഒരാള	-1481
▁ർത്ഥ	-1482
▁സാമ	-1483
▁കുളം	-1484
▁െറ്റ	-1485
റിയ	-1486
▁ആകെ	-1487
▁തിരോധ	-1488
▁വരി	-1489
▁അവകാശ	-1490
▁ത്ഥി	-1491
▁ൂട	-1492
▁ഗ്രാമ	-1493
▁ുരക്ഷ	-1494
▁ചർ	-1495
▁റോഡ	-1496
▁സൂചന	-1497
▁ൂര്	-1498
▁ുറഞ്ഞ	-1499
▁ിയിര	-1500
▁വിലയി	-1501
▁ൊന്ന	-1502
ള്ളി	-1503
▁ത്തര	-1504
▁ഠ	-1505
▁എംഎല്	-1506
▁രാമ	-1507
▁യോടെ	-1508
▁ഡ്	-1509
▁ോണ	-1510
▁ഞ്ചാ	-1511
▁ചർച്ച	-1512
▁രിയ	-1513
▁പുതു	-1514
▁സന്ദ	-1515
▁ിൻ്റെ	-1516
▁ീയ	-1517
▁സമിതി	-1518
▁ാതിര	-1519
ൂല	-1520
▁ളവ	-1521
▁നുക	-1522
▁േരി	-1523
▁നുകൂല	-1524
▁വേണ്ട	-1525
▁േഷ്	-1526
▁എന്നീ	-1527
▁20	-1528
▁ികൾ	-1529
▁തെറ്റ	-1530
▁മെന്ന	-1531
▁നേട	-1532
▁പാലി	-1533
▁പക്ഷം	-1534
▁ഫേ	-1535
▁ുറന്ന	-1536
▁വിമര്	-1537
▁ഫോണ	-1538
▁15	-1539
▁രാജി	-1540
▁കും	-1541
▁ാഗസ്ഥ	-1542
▁പണി	-1543
▁അവസര	-1544
ത്തി	-1545
▁ഞങ്ങ	-1546
▁ഒറ്റ	-1547
▁ഫേസ്	-1548
▁നാട	-1549
▁സിന്	-1550
▁ബിഗ്	-1551
▁ാനത്ത	-1552
▁മനസ്സ	-1553
▁ടുവ	-1554
▁12	-1555
▁മക	-1556
▁േറെ	-1557
▁ഴു	-1558
▁ബാങ്ക	-1559
▁പങ്കു	-1560
▁്പോൾ	-1561
▁കൂള	-1562
▁രിഗ	-1563
സ്ത	-1564
▁ചുമ	-1565
▁വിത	-1566
▁നടി	-1567
▁ചാരണ	-1568
▁കളി	-1569
▁ിയാ	-1570
▁വാസി	-1571
▁സുരേ	-1572
▁വുമാ	-1573
▁ലം	-1574
▁ട്വ	-1575
▁പശ്ച	-1576
▁ഉദ്യേ	-1577
▁എംപി	-1578
▁ാകും	-1579
▁പാട	-1580
▁ിന്ദ	-1581
▁രിഗണി	-1582
▁ഏത	-1583
▁കയ	-1584
▁ുമോ	-1585
▁വുന്ന	-1586
▁ധ്യ	-1587
▁നേടിയ	-1588
▁ക്യ	-1589
▁ന്നയി	-1590
▁െയി	-1591
▁അതിന്	-1592
▁രമ	-1593
▁ാത്രി	-1594
▁ുരേ	-1595
▁ഭ്യാ	-1596
തീ	-1597
▁ഭ്യാസ	-1598
▁ധികൃത	-1599
▁ോടെ	-1600
▁തുക	-1601
▁വികസന	-1602
▁ഏറെ	-1603
▁്ന	-1604
▁കാര്	-1605
▁വിധി	-1606
▁പ്പം	-1607
▁കൊല്ല	-1608
▁യാക്ക	-1609
▁ൂട്ട	-1610
▁ബംഗ	-1611
▁നുമതി	-1612
▁നയി	-1613
▁െയും	-1614
▁ട്രോ	-1615
▁ുമായ	-1616
▁ുറച്ച	-1617
▁ഫേസ്ബ	-1618
▁ചെല	-1619
▁അവിടെ	-1620
▁അവസാന	-1621
▁ാവസ്ഥ	-1622
▁നങ്ങള	-1623
▁11	-1624
▁േഴ്	-1625
▁പ്പറ	-1626
▁്ച	-1627
▁സേന	-1628
▁സമൂഹ	-1629
▁വസാന	-1630
▁പരാജ	-1631
▁ഏക	-1632
▁മ്മീഷ	-1633
▁ോക്ക്	-1634
▁ാറ്റി	-1635
▁ധാ	-1636
▁മ്പര്	-1637
▁ഒഴിവാ	-1638
▁ത്തിയ	-1639
▁സന്ധി	-1640
▁ിയുടെ	-1641
▁ആയി	-1642
▁ശക്തി	-1643
▁പരാജയ	-1644
▁തമി	-1645
▁ണ്ടിര	-1646
▁ക്ട	-1647
▁ൊല്ല	-1648
▁ഇത്തര	-1649
▁താന്	-1650
▁ൂടിയ	-1651
▁മീറ്റ	-1652
▁ളെ	-1653
▁ള്	-1654
▁നോക്ക	-1655
▁ൈല	-1656
▁ടിയ	-1657
ക്ഷി	-1658
▁സംഗ	-1659
▁ടക്കമ	-1660
▁്താ	-1661
▁െഡ	-1662
ത്മ	-1663
▁ആത്മ	-1664
▁അക്ക	-1665
▁യുവാ	-1666
▁ത്തല	-1667
▁പിന്	-1668
▁ആദ്യം	-1669
▁ആശങ്ക	-1670
▁ആണ	-1671
▁ാത	-1672
▁സത്യ	-1673
▁മൂന്ന	-1674
▁യര്	-1675
▁ീറ്റ	-1676
▁പീ	-1677
▁മുട്ട	-1678
▁ക്രി	-1679
▁ഇടതു	-1680
▁മലപ്പ	-1681
▁വസാനി	-1682
▁ൂടിയാ	-1683
▁നരേ	-1684
▁ഗവ	-1685
▁പൂർ	-1686
▁മറ്റു	-1687
▁ബാല	-1688
▁പദ	-1689
നാട	-1690
▁ാണ്ട	-1691
▁വയനാട	-1692
▁വില്ല	-1693
▁രോഗി	-1694
▁വിരു	-1695
▁കക്ഷി	-1696
▁രജി	-1697
▁വേഗ	-1698
▁സംശ	-1699
▁ഭാര്യ	-1700
▁ഭൂരി	-1701
▁സൗദി	-1702
▁തിനാ	-1703
▁വെളി	-1704
▁ൈറ്റ	-1705
▁ാരണ	-1706
▁ിറങ്ങ	-1707
▁24	-1708
▁ബെ	-1709
▁ആഗ്ര	-1710
▁തിർ	-1711
▁ാപ്പ	-1712
▁ചേർ	-1713
▁ആറ	-1714
വസ	-1715
▁ിൽക്ക	-1716
▁ന്തം	-1717
▁സിംഗ്	-1718
▁ുധാ	-1719
▁ൂടാ	-1720
▁ക്ല	-1721
▁സംശയ	-1722
▁രം	-1723
▁ക്രമി	-1724
യം	-1725
▁മുസ്	-1726
▁ലഭ്യ	-1727
▁പ്പറേ	-1728
▁്ഥിതി	-1729
▁ഫലം	-1730
▁ലും	-1731
▁പ്പിൽ	-1732
▁ുവരി	-1733
▁ിരി	-1734
▁ാരാ	-1735
▁പുന	-1736
ഭവ	-1737
▁രോ	-1738
▁റിയി	-1739
▁ുഞ്ഞ	-1740
▁തമിഴ്	-1741
▁ിസ്	-1742
▁ഇതില്	-1743
▁്റ്റാ	-1744
▁തീവ	-1745
▁കൗ	-1746
▁ഹരി	-1747
▁കൊണ്ട	-1748
▁ീന	-1749
▁ല്‍	-1750
▁വശ്യ	-1751
▁ാങ്ക	-1752
▁കിട്ട	-1753
▁ുഴ	-1754
▁കുന്ന	-1755
▁ിഴ	-1756
▁ൂടാതെ	-1757
▁അസ	-1758
▁ൗണ്ട	-1759
▁വൃ	-1760
▁ൊല്ലം	-1761
▁അന്ന്	-1762
▁ുധാകര	-1763
▁നന്ദ	-1764
▁ുറം	-1765
▁ാക്കി	-1766
▁ഫാ	-1767
▁കുമ	-1768
▁ത്തരവ	-1769
▁ഗാ	-1770
▁കുമാര	-1771
▁മാർ	-1772
▁റ്റീവ	-1773
▁പ്രീം	-1774
▁ദാ	-1775
▁വീസ	-1776
ത്തെ	-1777
▁ഭൂമി	-1778
▁ന്തോഷ	-1779
▁ശരി	-1780
▁ീസ്	-1781
▁ആഗ്രഹ	-1782
▁േസില്	-1783
▁ബഹ	-1784
▁കില	-1785
▁്രക	-1786
▁പോരാ	-1787
▁വെക്ക	-1788
▁മുഴു	-1789
▁ക്ത	-1790
ശ്ന	-1791
▁്രശ്ന	-1792
▁ാധാരണ	-1793
▁ക്രൈ	-1794
▁എക്	-1795
▁നിറ	-1796
▁പറ്റ	-1797
▁രണ്ടു	-1798
▁യൂട്ട	-1799
▁രജിസ്	-1800
▁ുവി	-1801
▁ക്കോ	-1802
▁്രൈ	-1803
▁്ടത്	-1804
▁ണാട	-1805
▁വനി	-1806
▁കര്യ	-1807
▁നൂ	-1808
▁ിച്ചേ	-1809
▁താഴ	-1810
▁യോട്	-1811
▁ഔ	-1812
▁ത്തനം	-1813
▁വനിത	-1814
▁തിട്ട	-1815
▁ക്കുക	-1816
▁ണാടക	-1817
▁പേരെ	-1818
ളന	-1819
▁വീണ	-1820
▁ശ്വാ	-1821
▁പേരില	-1822
▁മുഴുവ	-1823
▁റിസ	-1824
▁മന്ത	-1825
▁ാട്ട	-1826
▁പൗ	-1827
▁ക്കം	-1828
▁കുമാറ	-1829
▁അഡ	-1830
▁യാള	-1831
▁ജാ	-1832
▁നാണ്	-1833
▁്മേ	-1834
▁കളിൽ	-1835
▁മായും	-1836
▁്മേളന	-1837
▁ഭീഷ	-1838
ർശ	-1839
▁തിനി	-1840
▁റഷ്യ	-1841
▁ൂന്ന	-1842
ബു	-1843
▁്യത	-1844
▁ഭീഷണി	-1845
▁ഗതി	-1846
▁ജ്ജ	-1847
▁ുടക്ക	-1848
▁ങ്ങളെ	-1849
▁തകര്	-1850
▁ിങ്ങ	-1851
▁വീത	-1852
▁ുക്കി	-1853
▁ീഷ	-1854
്പി	-1855
▁ത്തോ	-1856
▁ത്തേ	-1857
▁ശ്വാസ	-1858
▁ചെലവ	-1859
▁ീര	-1860
▁നുഷ്യ	-1861
▁ച്	-1862
▁നമ	-1863
▁യുവതി	-1864
▁വാക്ക	-1865
▁ുരേഷ്	-1866
▁ല്ലോ	-1867
▁വ്യവസ	-1868
▁ോളം	-1869
▁തെളിവ	-1870
▁നോട്ട	-1871
▁പേരും	-1872
▁ദൃ	-1873
▁ജയി	-1874
▁ജ്ഞ	-1875
▁ാധാന	-1876
▁മഹാ	-1877
▁ശേഖ	-1878
▁14	-1879
▁ംര	-1880
▁രണ	-1881
▁രാജ്	-1882
▁പോരാട	-1883
▁പോയി	-1884
▁ഡോക്ട	-1885
▁സ്വപ്	-1886
▁ല്യ	-1887
ദര	-1888
▁ലുള്ള	-1889
▁വിതരണ	-1890
▁്ഷ	-1891
▁ന്ധ	-1892
▁ഘോഷ	-1893
▁ംരക്ഷ	-1894
▁ഥാ	-1895
▁അമി	-1896
▁ാസ്	-1897
▁മുക്ത	-1898
▁ാളികള	-1899
▁ംഗത്ത	-1900
▁ൂന്നാ	-1901
▁ഇന്ന	-1902
▁ജോസഫ	-1903
▁അനുഭവ	-1904
▁ീസ	-1905
▁സുഹ	-1906
▁ിട്ടു	-1907
▁ഭേ	-1908
▁ിഹ	-1909
▁ാനം	-1910
▁ോഷ്യ	-1911
▁അഖ	-1912
▁ഡല്	-1913
▁ദ്ര	-1914
▁ബ്ല	-1915
▁താല	-1916
▁ോഷ്യല	-1917
▁ലയാ	-1918
▁ായക	-1919
▁െയ്	-1920
▁രിപ്പ	-1921
▁യൊ	-1922
▁റ്റര്	-1923
▁രിത്ര	-1924
▁50	-1925
▁ഖാ	-1926
▁മാറി	-1927
▁തോന്ന	-1928
▁റേ	-1929
▁ചുമതല	-1930
▁ൃത	-1931
▁പ്പമ	-1932
▁ലയാളി	-1933
▁ഭേദ	-1934
▁വലി	-1935
▁ക്വാ	-1936
▁ലൈന	-1937
▁രൂക്ഷ	-1938
▁ഉയര	-1939
▁സഹായി	-1940
▁30	-1941
▁ചു	-1942
▁ീടു	-1943
▁ക്കൽ	-1944
▁വിമർശ	-1945
▁തിനിധ	-1946
▁ലഭ്യമ	-1947
▁സജ	-1948
▁ഓഫ്	-1949
▁ച്ഛ	-1950
▁ലിം	-1951
▁ശീ	-1952
▁ാഗത	-1953
▁ിട്ടി	-1954
▁അര്	-1955
▁ആറ്	-1956
▁ഞങ്ങള	-1957
▁ഉണ്ട്	-1958
▁ആന്റ	-1959
▁ീടുകള	-1960
▁മുംബ	-1961
▁യല്ല	-1962
▁കീഴ	-1963
▁പൗര	-1964
▁അക	-1965
▁പ്പന	-1966
▁യുഎഇ	-1967
ച്ച്	-1968
▁ാഷ	-1969
▁യിട	-1970
▁ലാല	-1971
▁ർത്ത	-1972
▁വരിക	-1973
▁യുമ	-1974
▁ന്നലെ	-1975
▁ഭാവ	-1976
▁മുംബൈ	-1977
▁ോട്ട്	-1978
ോദര	-1979
▁ക്ഷേത	-1980
▁ചടങ്ങ	-1981
▁ന്താണ	-1982
▁ടങ്ങ	-1983
▁പതി	-1984
▁കുത്ത	-1985
▁സാമൂഹ	-1986
▁ൻഡ	-1987
▁ചേര	-1988
▁സുഹൃ	-1989
▁ിന്ദു	-1990
▁കലാ	-1991
▁ിറ്റ്	-1992
▁ഡൗ	-1993
▁ഹാജ	-1994
▁വിജയം	-1995
▁ഹ്	-1996
▁ഫ്ര	-1997
▁ഗ്രഹ	-1998
▁യർന്ന	-1999
▁എതിര	-2000
▁യോഗം	-2001
▁ആരാ	-2002
▁ഇൻ	-2003
▁ോല	-2004
▁ബു	-2005
▁കൈമാറ	-2006
▁വയസ്സ	-2007
▁ോബ	-2008
▁നുസരി	-2009
▁ചെറിയ	-2010
▁പരാമ	-2011
▁ഹര്	-2012
▁ക്കെ	-2013
▁ൃത്യ	-2014
▁ളള	-2015
▁മകന	-2016
▁ഗസ്ഥ	-2017
▁്ലാസ	-2018
▁ംസ	-2019
▁ാടക	-2020
▁ർശ	-2021
▁കുറവ	-2022
▁ാട്ടി	-2023
▁റ്റു	-2024
▁മാക	-2025
▁ന്നി	-2026
▁13	-2027
▁ിഷ	-2028
▁ഗുരു	-2029
▁ബീ	-2030
▁മൊഴി	-2031
▁ൃത്യമ	-2032
▁കം	-2033
▁ായ്	-2034
▁ടാ	-2035
▁സഹോദര	-2036
▁യക്ക	-2037
▁രക്ഷാ	-2038
▁സില	-2039
▁തുറ	-2040
▁എഴു	-2041
▁്രാല	-2042
▁ിസി	-2043
▁ട്രേ	-2044
▁ഏറ്റെ	-2045
▁ദൃശ്യ	-2046
▁മല്	-2047
▁കരമാ	-2048
▁പ്രവ	-2049
ചാര	-2050
▁്യാ	-2051
▁ഉള്ളത	-2052
▁ഹോ	-2053
▁േയ	-2054
▁േശ	-2055
▁കെട്ട	-2056
▁ബംഗാ	-2057
▁ഉദ്യോ	-2058
▁ജയില	-2059
▁ഗുണ	-2060
▁ഏജ	-2061
▁സാക്ഷ	-2062
▁ന്നു	-2063
▁പശ്ചാ	-2064
▁18	-2065
▁പഠന	-2066
▁ിക്	-2067
▁പെണ്	-2068
മസഭ	-2069
▁ുസ്	-2070
▁ിയമസഭ	-2071
▁്രാലയ	-2072
▁ൃഷ്	-2073
▁നയ	-2074
▁ൃഷ്ടി	-2075
▁രുത്	-2076
▁ജനറ	-2077
▁ലിന	-2078
ബ്	-2079
▁ീഗ്	-2080
▁ട്ടെ	-2081
▁ഭക്ഷണ	-2082
▁പെരു	-2083
▁തായും	-2084
▁ജാമ	-2085
▁എമാര	-2086
▁സാധ	-2087
▁മുറി	-2088
▁ജാമ്യ	-2089
▁ാദ	-2090
▁ടീമ	-2091
ശേ	-2092
ധിക	-2093
▁ശാല	-2094
▁ംഗീകര	-2095
▁ന്ദര്	-2096
▁ഷോ	-2097
▁മിഷ	-2098
▁്മി	-2099
▁സൂര്യ	-2100
▁ജു	-2101
▁്യോ	-2102
▁വൈറസ്	-2103
▁ര്യ	-2104
▁വയ്	-2105
▁വന്നു	-2106
ീന	-2107
▁പോള	-2108
▁യോഗി	-2109
▁്രി	-2110
▁ിക്ഷ	-2111
▁കല	-2112
▁എന്നി	-2113
▁പര്യ	-2114
▁ഭാഗ്യ	-2115
▁ിരക്ക	-2116
▁25	-2117
▁സ്ഥാ	-2118
▁സെന്റ	-2119
▁ിരു	-2120
▁ചെറു	-2121
▁പത്ര	-2122
▁തട്ടി	-2123
▁കാസ	-2124
▁ിബ	-2125
▁ുക്ക	-2126
▁കോര്	-2127
▁െട്ടി	-2128
▁ഹൃ	-2129
▁പദവി	-2130
▁്താവന	-2131
▁ിനായി	-2132
രുഷ	-2133
▁ിഫ	-2134
▁ിടക്ക	-2135
▁പുറമ	-2136
▁എസ്പി	-2137
ലീ	-2138
▁സഹകര	-2139
▁എന്നെ	-2140
▁ഥി	-2141
▁േബ	-2142
▁മുരള	-2143
▁ശേഖര	-2144
▁പുരുഷ	-2145
▁പീഡ	-2146
▁ീവ്	-2147
▁പിസി	-2148
▁മധ്യ	-2149
▁്യത്യ	-2150
▁19	-2151
▁ചൊ	-2152
▁വേണമ	-2153
▁ാവും	-2154
▁ത്തോള	-2155
▁ടേ	-2156
▁തടയ	-2157
▁ിയങ്ക	-2158
▁ീത	-2159
ദേഹ	-2160
▁രുത	-2161
▁ാതാ	-2162
▁ുദ്	-2163
▁ൃതദേഹ	-2164
▁യാള്	-2165
▁െയര്	-2166
▁ൂര	-2167
▁ചരണ	-2168
▁ുപോ	-2169
▁രവ	-2170
▁കിട	-2171
▁ഹൃദ	-2172
▁കിലോ	-2173
▁യറ്റ	-2174
▁സിസി	-2175
▁ൻസ	-2176
▁ർഗ	-2177
▁സോ	-2178
▁പ്ലാ	-2179
▁ഫെ	-2180
▁ബാബു	-2181
▁ജനാ	-2182
▁താല്	-2183
▁വാദി	-2184
▁പ്പൂ	-2185
▁അയച്ച	-2186
▁ഹോട്ട	-2187
മസി	-2188
▁താമസി	-2189
ംപ	-2190
▁ട്രംപ	-2191
▁ഞ്ചാബ	-2192
▁ടോ	-2193
▁ണു	-2194
▁ാതി	-2195
▁സഞ്ച	-2196
▁ിവിട	-2197
▁ുദ്ധി	-2198
▁ബിസി	-2199
▁ാടി	-2200
▁ിവി	-2201
▁റൂ	-2202
▁വരുമ	-2203
▁കളക്ട	-2204
▁ിത്തല	-2205
സ്യ	-2206
▁എന്ത്	-2207
▁്രൈവ	-2208
▁ഗത	-2209
▁ഇസ	-2210
▁നിശ്ച	-2211
പാത	-2212
▁ഭയ	-2213
▁ൈസ്	-2214
▁ഹാജരാ	-2215
▁ിറക്ക	-2216
▁ആരാധ	-2217
▁ൂക്ക	-2218
▁രില	-2219
▁ജനറല്	-2220
▁ുവന്ന	-2221
▁ഇസ്ര	-2222
▁തീവ്ര	-2223
▁സൈനി	-2224
▁ദ്യമാ	-2225
▁സിദ്ധ	-2226
▁ധരി	-2227
▁ഭാരത	-2228
▁ലപാത	-2229
▁ളയ	-2230
▁േര	-2231
▁ർജ	-2232
▁ഇതേ	-2233
▁സജീവ	-2234
▁ാധീന	-2235
▁തൊട	-2236
▁ോട്ടോ	-2237
▁ുസ്ലീ	-2238
▁ാട്	-2239
▁രക്ക്	-2240
▁ിനോട്	-2241
▁വരികയ	-2242
▁ോവ	-2243
▁ിടയില	-2244
▁ഊ	-2245
▁എച്ച്	-2246
▁െയിന	-2247
▁സേവന	-2248
▁വീട	-2249
▁വിചാര	-2250
▁കാശ	-2251
▁തോമ	-2252
▁ജെഡി	-2253
▁മലയാള	-2254
▁ുരത്ത	-2255
▁ഇവർ	-2256
▁ലപാതക	-2257
▁സൈനിക	-2258
▁മനസ	-2259
▁ഒഴിവ	-2260
▁ട്രാ	-2261
▁തിനാൽ	-2262
▁പ്റ്റ	-2263
▁ടെക്	-2264
▁ച്ചയാ	-2265
▁പോവ	-2266
▁മോശ	-2267
▁കഴി	-2268
▁്പോഴ	-2269
ാരാ	-2270
▁തീര്	-2271
▁ുമാര്	-2272
▁മര	-2273
▁ഡോസ	-2274
▁്രകടന	-2275
▁ംപ	-2276
▁ടൂ	-2277
▁ഷിക	-2278
▁ആഭ്യ	-2279
▁ർക്കം	-2280
▁ഡൽ	-2281
▁ഇറങ്ങ	-2282
▁മഹാരാ	-2283
▁ടമ	-2284
▁മിന	-2285
▁ുകളും	-2286
▁ഖ്	-2287
▁പണ	-2288
▁നമു	-2289
▁നിയമന	-2290
▁കുടി	-2291
▁ാവധി	-2292
▁സംഘട	-2293
▁ഒരി	-2294
ധര	-2295
▁വെട	-2296
▁കേട്ട	-2297
▁സ്വയം	-2298
▁ശ്വര	-2299
▁നാല	-2300
▁പ്രവച	-2301
▁വില്	-2302
▁നാണ	-2303
▁ടന്ന	-2304
▁ിത്	-2305
▁പരസ്യ	-2306
▁17	-2307
▁കമ	-2308
മാർ	-2309
▁കുമാർ	-2310
ചയ	-2311
▁ലംഘ	-2312
▁ഹിത	-2313
▁യോട	-2314
▁വെടി	-2315
▁ണയ	-2316
▁ഗ്ദ	-2317
▁പരമ	-2318
▁അഭ്യ	-2319
▁വേണ	-2320
▁ാമി	-2321
▁െന്	-2322
▁വിധ	-2323
▁അതില	-2324
▁അക്രമ	-2325
▁ചിന്ത	-2326
▁തേട	-2327
▁മര്	-2328
▁താഴെ	-2329
▁എത്ര	-2330
▁കൂടെ	-2331
▁ിപിഐ	-2332
▁16	-2333
▁കരം	-2334
▁ീകര	-2335
▁യേറ്റ	-2336
▁കാരണ	-2337
▁അവത	-2338
▁ദുബ	-2339
▁ത്തിര	-2340
▁വ്യാജ	-2341
▁തടസ	-2342
▁നിവ	-2343
▁്വാ	-2344
▁ലക്ട	-2345
▁കോട	-2346
▁പുരോ	-2347
▁വൃത്ത	-2348
▁പത്യ	-2349
▁ിള	-2350
▁ജീവ	-2351
▁ജനാധി	-2352
▁തോമസ്	-2353
▁വെല്ല	-2354
▁യാക	-2355
▁വെറ	-2356
ാപി	-2357
▁്ഥാപി	-2358
▁നിത	-2359
്രത	-2360
▁ചീ	-2361
▁ഘാട	-2362
▁ബന്ധു	-2363
▁ഇന്റ	-2364
▁ശാന്ത	-2365
സിൽ	-2366
▁40	-2367
▁ഞ്ച്	-2368
▁അമിത്	-2369
▁ന്തമാ	-2370
▁യറക്ട	-2371
▁രഹ	-2372
▁ഇരുവര	-2373
▁ഡോള	-2374
▁പ്രോ	-2375
▁ൈക്ക	-2376
▁പറയാന	-2377
▁പ്രകട	-2378
മ്പള	-2379
▁കയറ	-2380
▁ശമ്പള	-2381
▁േഹ	-2382
▁ിഞ്ഞ	-2383
▁ുട്ട	-2384
▁ശാസ്ത	-2385
▁വർധ	-2386
▁പത്ത	-2387
▁വിസ	-2388
▁വിട്ട	-2389
മായി	-2390
▁അഖില	-2391
▁ഗ്രാ	-2392
▁ണക്ക	-2393
▁്യോഗ	-2394
▁െല്ല	-2395
▁അവസ്ഥ	-2396
▁മനോ	-2397
▁യോജ	-2398
▁ശീല	-2399
▁ഇവ	-2400
▁ഗമ	-2401
▁നിയും	-2402
▁പരിധി	-2403
▁ോറ	-2404
▁കൃത	-2405
▁ഘാടന	-2406
▁ടം	-2407
▁കള്ള	-2408
▁പത	-2409
▁മിട	-2410
▁താരം	-2411
▁തള്ളി	-2412
▁ാഗ്രത	-2413
▁ഗൗ	-2414
▁ഡൗണ	-2415
▁സതീ	-2416
▁ലുകള	-2417
▁ുവിട	-2418
▁സമര്	-2419
▁ിലക്ക	-2420
▁ുടങ്ങ	-2421
▁നേരെ	-2422
▁ാനേജ	-2423
▁നമ്മള	-2424
▁ബല	-2425
▁മുൻപ	-2426
▁ഒര	-2427
▁ിലി	-2428
▁മൊരു	-2429
▁കാഴ്ച	-2430
▁പ്രചര	-2431
▁വക	-2432
▁തിനു	-2433
▁പ്രിയ	-2434
▁ിഥ	-2435
▁ലോച	-2436
▁നേടി	-2437
▁ഉദ്	-2438
▁ുല്ല	-2439
▁ന്മാര	-2440
▁രുമാന	-2441
▁പക	-2442
▁അവരെ	-2443
▁ിഎ	-2444
▁ബോധ	-2445
▁ജല	-2446
▁സാദ	-2447
▁ാവള	-2448
▁ന്നത	-2449
▁യുഎസ	-2450
▁യുമായ	-2451
▁ാണ്ടി	-2452
▁ൂല	-2453
▁ത്രയ	-2454
▁പ്ല	-2455
▁നീതി	-2456
▁ള്ളൂ	-2457
▁ുഡ	-2458
▁ഉടന	-2459
▁രമേശ	-2460
▁സണ	-2461
▁ികു	-2462
▁ണായ	-2463
▁കപ്പ	-2464
▁ഡിയ	-2465
▁െല്	-2466
▁ീധര	-2467
▁ീറ്റ്	-2468
▁ിനു	-2469
▁വശ്യമ	-2470
▁ദീപ	-2471
▁ുക്ക്	-2472
▁കസ്	-2473
▁ശ്മ	-2474
▁ൊളി	-2475
▁ലീഗ	-2476
▁രുന്ന	-2477
▁ാരണമാ	-2478
▁ാബ	-2479
▁ുല	-2480
▁കരി	-2481
▁ാംഗ	-2482
▁വാദം	-2483
▁നന്തപ	-2484
▁വെട്ട	-2485
▁മോഹന	-2486
▁ശേഷി	-2487
▁പഴ	-2488
▁ഗോപി	-2489
▁ാനല	-2490
▁ാർഡ	-2491
▁ത്താവ	-2492
▁ംഭ	-2493
▁വേള	-2494
▁റ്റഡി	-2495
▁ടവ	-2496
▁െൻ	-2497
▁പഠി	-2498
▁ണായക	-2499
▁പരമായ	-2500
▁ിതാ	-2501
▁പരമാ	-2502
▁ാളെ	-2503
▁മ്മന്	-2504
▁വിടെ	-2505
▁ോക്ക	-2506
▁്രയും	-2507
▁മെയ്	-2508
▁ശനി	-2509
▁ന്നൂ	-2510
▁ശങ്ക	-2511
▁ഉട	-2512
▁്ലി	-2513
▁്ഥാന	-2514
▁െതിരാ	-2515
▁രീര	-2516
▁വയസ	-2517
▁ാർത്ത	-2518
▁ഢ	-2519
▁ഉദ	-2520
▁രവി	-2521
▁സമു	-2522
▁പ്പെ	-2523
▁ിഐ	-2524
▁ാലാ	-2525
▁തല്ല	-2526
▁ാറ്റം	-2527
▁ികുതി	-2528
▁ുവര	-2529
▁ലപ്പ	-2530
▁പട	-2531
▁ുവിളി	-2532
▁ഘടന	-2533
▁ന്യാ	-2534
▁നത്ത	-2535
▁നൽകി	-2536
▁ന്നാം	-2537
▁ച്ചി	-2538
▁ബ്രി	-2539
▁കന	-2540
▁്ധ	-2541
▁ായും	-2542
▁ോണിയ	-2543
▁മത്തെ	-2544
▁നിലന	-2545
▁ങ്കള	-2546
▁ോറി	-2547
▁ട്ടാ	-2548
▁ായേ	-2549
▁ളൂ	-2550
▁ജറ	-2551
▁ലയ	-2552
▁ളു	-2553
▁േത	-2554
▁റാക്ക	-2555
▁സ്മ	-2556
▁ുര്	-2557
▁ശു	-2558
▁ശോ	-2559
▁എമ്മ	-2560
▁ാഭ	-2561
▁പാത	-2562
▁യത്	-2563
▁ൂക്ഷ	-2564
▁റും	-2565
▁ോഭ	-2566
▁സിക്ക	-2567
▁ഹത	-2568
▁യിലാണ	-2569
▁നസ	-2570
▁ണ്ടാ	-2571
▁മുതല	-2572
▁കേസിൽ	-2573
▁സിപിഎ	-2574
▁ബസ	-2575
▁ദര	-2576
▁റിയാ	-2577
▁സിപ്പ	-2578
▁ശര	-2579
▁രായ	-2580
▁ഇവരെ	-2581
▁ാഹ	-2582
▁യാദ	-2583
▁ടഞ്ഞ	-2584
▁ഫൈ	-2585
▁ഏഴ്	-2586
▁ിത്യ	-2587
▁പെട്ട	-2588
▁ഓട	-2589
ശേരി	-2590
▁ലില	-2591
▁സഭയില	-2592
▁്ശേരി	-2593
▁ലേ	-2594
▁രിചയ	-2595
▁ശ്രമം	-2596
▁ിലവ	-2597
▁ഡെ	-2598
▁തിയ	-2599
▁ബാദ	-2600
▁ചല	-2601
▁ദായ	-2602
▁ക്രൂ	-2603
▁യാത	-2604
▁ിസം	-2605
▁ഞെട	-2606
▁എസ്എ	-2607
▁ക്ഷണ	-2608
▁മാസ്	-2609
▁ട്ടു	-2610
▁ൂപ്പ	-2611
▁ഗോഡ	-2612
▁േല്	-2613
▁്ഥാനം	-2614
▁ലര്	-2615
▁സിബ	-2616
▁ിഹാ	-2617
▁െപി	-2618
▁സിനേ	-2619
▁റെയ	-2620
▁സല	-2621
▁ാൾ	-2622
▁ഞ്ചി	-2623
▁ിക്ക്	-2624
▁ഫിക്ക	-2625
▁െന്റ	-2626
▁കാർ	-2627
▁രുങ്ങ	-2628
▁21	-2629
▁കോപ	-2630
▁റ്റിന	-2631
▁ബജ	-2632
▁തസ്	-2633
▁ക്കാല	-2634
▁വൈദ	-2635
▁മാറിയ	-2636
▁ബൈ	-2637
▁യല	-2638
▁നിൽ	-2639
▁പാക	-2640
▁ിം	-2641
▁പത്ത്	-2642
▁രിച്ച	-2643
▁ോക്കി	-2644
▁വർക്ക	-2645
▁ിടത്ത	-2646
▁ളര്	-2647
▁രജ	-2648
▁കുതി	-2649
▁റന്റ	-2650
▁ർഡ	-2651
▁റാം	-2652
▁ക്ഷി	-2653
▁യിക്ക	-2654
▁്രാന്	-2655
▁തീര	-2656
▁ർപ്പ	-2657
▁ിഎം	-2658
▁ഗോപാ	-2659
▁ഴിമ	-2660
▁പള്ളി	-2661
▁്ജ	-2662
▁22	-2663
▁അല	-2664
▁കേസെട	-2665
▁താൻ	-2666
▁സംസ്	-2667
▁ഇയാള	-2668
▁ക്കാള	-2669
▁ച്ചടി	-2670
▁െയില്	-2671
▁ാമ്പ	-2672
സാരി	-2673
▁ശ്ശ	-2674
▁ംസാരി	-2675
▁ഏത്	-2676
▁ഡാ	-2677
▁യുപി	-2678
▁റമ്പ	-2679
▁ുഖ	-2680
▁ിഷ്	-2681
▁സ്വത	-2682
▁േഡ	-2683
▁ണ്ണി	-2684
ാപന	-2685
▁സ്വാ	-2686
▁ീര്	-2687
▁്യൂസ	-2688
▁കോള	-2689
▁ട്ടേ	-2690
▁കരണ	-2691
▁മകള	-2692
▁പ്പാട	-2693
▁ുരു	-2694
▁തേടി	-2695
▁വീട്	-2696
▁്പര്യ	-2697
▁ണ്ടി	-2698
▁രില്	-2699
▁പമ	-2700
▁അടിയ	-2701
▁വശ	-2702
▁ാരി	-2703
▁ീർ	-2704
▁മാതാ	-2705
▁്ഥാപന	-2706
▁ന്റ്	-2707
▁രിൽ	-2708
▁തൃപ്	-2709
▁ിന്നെ	-2710
▁േമ	-2711
▁ദ്വ	-2712
▁ാജ	-2713
▁ൂത്ത	-2714
▁ഹെ	-2715
▁ിരുദ	-2716
▁െക്ക	-2717
▁സ്ത്ര	-2718
▁രാള	-2719
▁ലാപ	-2720
▁തായിര	-2721
▁വരില്	-2722
▁ൊടി	-2723
▁യർത്ത	-2724
▁ുപോലെ	-2725
▁യന	-2726
▁കൊട	-2727
▁പാട്	-2728
▁ദേശിക	-2729
▁ചെയ്	-2730
▁സിലെ	-2731
▁ടേയും	-2732
▁രിമ	-2733
▁മദ്യ	-2734
▁ഘട	-2735
▁വധ	-2736
▁ാകുമ	-2737
▁ലർ	-2738
▁െഗ	-2739
▁ീപ	-2740
▁നീയ	-2741
▁ോണ്	-2742
▁കുറയ	-2743
▁രട്ട	-2744
▁ഷനില	-2745
▁ിസംബ	-2746
▁ത്യാ	-2747
▁ബര്	-2748
▁വറ	-2749
▁ഴ്സ	-2750
▁കടന്ന	-2751
▁കുഴ	-2752
▁ടച്ച	-2753
▁ത്മ	-2754
▁ധാരണ	-2755
▁മാന്	-2756
▁റ്റില	-2757
▁ഞാന	-2758
▁പെട	-2759
▁്ണ	-2760
▁റുക	-2761
▁ാവശ്യ	-2762
▁ർവ്	-2763
▁കില്ല	-2764
▁മ്മിന	-2765
▁േക്കു	-2766
▁ോച	-2767
▁ളജി	-2768
▁ാശ	-2769
▁പോര	-2770
▁ഷാ	-2771
▁ൂണ്	-2772
▁റ്റേ	-2773
▁ുകളിൽ	-2774
▁്രീ	-2775
▁ങ്കില	-2776
▁ോഡ	-2777
▁ഷിക്ക	-2778
▁ുകളാണ	-2779
▁തന	-2780
▁ംസ്	-2781
▁ുവാ	-2782
▁മ്പാ	-2783
▁മൈ	-2784
▁ഖ്യ	-2785
▁ാപക	-2786
▁ഷങ്ങള	-2787
▁വൂ	-2788
▁തായ	-2789
▁ലാം	-2790
▁ിനും	-2791
▁കത്ത്	-2792
▁റ്റോ	-2793
▁സ്യ	-2794
▁നിലനി	-2795
▁ഹര	-2796
▁റ്ററ	-2797
▁ണര്	-2798
▁തകർ	-2799
▁ാസി	-2800
▁റൽ	-2801
▁ാനായി	-2802
▁ച്ചകള	-2803
▁ച്ചില	-2804
▁മോഹ	-2805
▁ടന്നു	-2806
▁അദ	-2807
▁പ്ത	-2808
▁കാന്	-2809
▁ട്ടോ	-2810
▁നമ്പ	-2811
▁മടങ്ങ	-2812
▁റാന	-2813
▁റണ	-2814
▁ുനി	-2815
▁ോഷ	-2816
▁മതി	-2817
സ്തു	-2818
▁വസ്തു	-2819
ർണ	-2820
▁മില	-2821
▁ോസി	-2822
▁60	-2823
▁സ്സ	-2824
▁ഗണ	-2825
▁്പീ	-2826
▁ബ്രാ	-2827
▁കൂടിയ	-2828
▁ിലായി	-2829
▁റ്റല	-2830
▁ുറ്റ	-2831
▁23	-2832
▁കോർ	-2833
▁നശ	-2834
▁തമ്മി	-2835
▁ശിച്ച	-2836
▁്ക്ക്	-2837
▁ീണ്ട	-2838
▁ർവ്വ	-2839
▁ിനാ	-2840
▁ോണി	-2841
▁നിധ	-2842
▁സ്വർണ	-2843
▁അല്	-2844
▁വാസ	-2845
▁േര്	-2846
▁ദേശം	-2847
▁ിഗ	-2848
▁ുന	-2849
▁േറ	-2850
▁ോധ	-2851
▁ഹിക്ക	-2852
▁െന്നത	-2853
▁കാലം	-2854
▁ത്തം	-2855
▁ഥമ	-2856
▁പന്ത	-2857
▁വാക്സ	-2858
▁ധേ	-2859
▁വൻ	-2860
▁ുല്	-2861
▁ോധന	-2862
▁ക്കില	-2863
▁ൌ	-2864
▁യെത്ത	-2865
▁േന	-2866
▁വധി	-2867
▁ഖത്ത	-2868
▁മത്സ	-2869
▁ിഖ	-2870
▁ൈവ	-2871
▁ുമെ	-2872
▁നിക	-2873
▁ിയി	-2874
▁തിരാ	-2875
▁കഥ	-2876
▁എഴുത	-2877
▁ുപ്പ	-2878
▁ർഷ	-2879
▁ടിയാ	-2880
▁ീന്	-2881
▁തരമാ	-2882
▁ിക്കൊ	-2883
▁i	-2884
▁ാലിക	-2885
▁താമസ	-2886
▁ളുകള	-2887
▁താത	-2888
▁ദഗ	-2889
▁ഒക്	-2890
▁ധേയ	-2891
▁ബിന	-2892
▁അങ്ങ	-2893
▁സര	-2894
▁ാന്ത	-2895
▁വിദ	-2896
▁നന്	-2897
▁ക്കന്	-2898
▁ുസ	-2899
▁ിവയ	-2900
▁ോയ്	-2901
▁ംബര്	-2902
▁കളായ	-2903
▁മിച്ച	-2904
▁്ഗ	-2905
▁സ്പ	-2906
▁ലമ	-2907
▁ിജ	-2908
▁മറ	-2909
▁േല	-2910
▁റിൽ	-2911
▁ളമ	-2912
▁ാനമാ	-2913
▁ുണ്ടോ	-2914
▁ൾക്ക	-2915
▁ഉത്	-2916
▁കാന	-2917
▁നായി	-2918
▁ഇതു	-2919
▁മന്	-2920
▁മിനി	-2921
▁ളം	-2922
▁സന	-2923
▁ംബാ	-2924
▁കൃഷ	-2925
▁ാജി	-2926
▁പ്രവര	-2927
▁ലപ്പെ	-2928
▁മറി	-2929
▁ാഴ്	-2930
▁ാലയ	-2931
▁ർശന	-2932
▁യത	-2933
▁്ലോ	-2934
▁ബസ്	-2935
▁ഏഴ	-2936
▁28	-2937
▁ോക്	-2938
▁വിനെ	-2939
▁ിസ്ഥ	-2940
▁മേയ	-2941
▁ീല	-2942
▁്ബ	-2943
▁ൂല്യ	-2944
▁ക്കെട	-2945
▁ശയ	-2946
▁മിക	-2947
▁ഹിച്ച	-2948
▁െച്ച	-2949
▁സിക	-2950
▁ിതര	-2951
▁റവ	-2952
▁തര്	-2953
▁അധിക	-2954
▁കൗണ്	-2955
▁ിർ	-2956
▁ട്ടര്	-2957
▁ഉച്ച	-2958
▁പ്പാ	-2959
▁്ണു	-2960
▁വാട	-2961
▁മസ്	-2962
▁ക്കറ	-2963
▁ധു	-2964
▁സിക്	-2965
▁യറാ	-2966
▁ീഷ്	-2967
▁െബ്	-2968
▁അംഗീ	-2969
▁യാല	-2970
▁ദ്യോഗ	-2971
ങ്ങി	-2972
ങ്ങൾ	-2973
▁കാറ	-2974
▁ദര്	-2975
▁ിജി	-2976
▁ൈസ	-2977
▁ളിത	-2978
▁സാന്	-2979
▁അവര	-2980
▁ര്‍	-2981
▁ക്കണമ	-2982
▁തൃക	-2983
▁പോസി	-2984
▁ാറ്റ്	-2985
▁ക്സ	-2986
▁റച്ച	-2987
▁വായി	-2988
▁്രിസ	-2989
▁കല്ല	-2990
▁ശേരി	-2991
▁ഃ	-2992
▁നിയന	-2993
▁െറ്റ്	-2994
▁വേഷ	-2995
▁ിങ	-2996
▁ിഷേധ	-2997
▁ടില്ല	-2998
▁വഹ	-2999
▁ുടേ	-3000
▁ഉമ്മ	-3001
▁ഷ്ടമാ	-3002
▁ുമതി	-3003
▁ആം	-3004
▁27	-3005
▁ഇര	-3006
▁ചാര	-3007
▁സ്തി	-3008
▁ശ്വ	-3009
▁റ്റർ	-3010
▁ിയോ	-3011
▁കുക	-3012
▁തിവ	-3013
▁്രു	-3014
▁കോട്ട	-3015
▁ലോട്ട	-3016
▁ിലൊ	-3017
▁അത്തര	-3018
▁ഛ	-3019
▁ംശ	-3020
▁കണം	-3021
▁ഇറക്ക	-3022
▁ൽപ്പ	-3023
▁ജഡ	-3024
▁ീക്ഷ	-3025
▁നാള	-3026
▁സ്ട	-3027
▁ശബ	-3028
▁െല	-3029
▁ർമ്മ	-3030
▁കാട്ട	-3031
▁ാർക്ക	-3032
▁കണമ	-3033
▁ക്കാറ	-3034
▁ോട്ടു	-3035
▁കുടു	-3036
▁ഭാവി	-3037
▁കോടതി	-3038
▁ൊള്ള	-3039
▁ച്ചിര	-3040
▁26	-3041
▁റക്ക	-3042
▁ോക	-3043
▁100	-3044
▁ിസ്ഥാ	-3045
▁റന്	-3046
▁സിച്ച	-3047
▁ഴാ	-3048
▁ത്വം	-3049
▁വാഹ	-3050
▁31	-3051
▁ംഗ്	-3052
▁ല്ലി	-3053
▁ടുപ്പ	-3054
▁ോചന	-3055
▁വട	-3056
▁ടത്	-3057
▁ഭി	-3058
▁രുണ	-3059
▁ക്കാണ	-3060
▁ഐസ	-3061
▁കിന	-3062
▁ിനോട	-3063
▁ിഎസ്	-3064
▁മമ	-3065
▁കാത്ത	-3066
▁ങ്കിൽ	-3067
▁നന്ദി	-3068
▁്ഡ	-3069
▁പ്പുറ	-3070
▁കല്	-3071
▁ത്തും	-3072
▁സിറ്റ	-3073
ദ്ദ	-3074
▁വേദ	-3075
▁കയറി	-3076
▁തൂ	-3077
▁ിപ്പോ	-3078
▁ൂട്ട്	-3079
▁ൂവ	-3080
▁യൊരു	-3081
▁ലിസ്	-3082
▁ിയില	-3083
▁ചന	-3084
▁ോടി	-3085
▁രിവാ	-3086
▁യാഴ്ച	-3087
▁നദ	-3088
▁റിക	-3089
▁യാലും	-3090
▁കേഷ	-3091
▁ിലായ	-3092
▁ുക്ത	-3093
▁ക്യൂ	-3094
▁ിസ്ത	-3095
▁35	-3096
▁േലി	-3097
▁കാരി	-3098
▁വകാശ	-3099
▁്രമ	-3100
▁്രേ	-3101
▁ുമാര	-3102
▁ോന്ന	-3103
▁േക്കാ	-3104
▁ൾക്ക്	-3105
▁േക്ഷ	-3106
▁ആന്	-3107
▁്പൂ	-3108
▁യേക്ക	-3109
▁ഔദ	-3110
▁പൈ	-3111
▁റുകള	-3112
▁പ്രതി	-3113
▁ർത്തു	-3114
▁വേശ	-3115
▁കോടിയ	-3116
▁രസ്	-3117
▁വിള	-3118
▁ഴക്ക	-3119
▁്ക്ക	-3120
▁സോഷ്യ	-3121
▁മമത	-3122
▁ിതമാ	-3123
▁ിട്ട്	-3124
▁്യത്ത	-3125
▁സ്ട്ര	-3126
▁ിള്	-3127
▁കൃത്യ	-3128
▁ത്താന	-3129
▁ജയ്	-3130
▁ഡ്ര	-3131
▁ൻ്റ	-3132
▁ധിപ്പ	-3133
▁ഘാ	-3134
▁പഴയ	-3135
▁ഗാന	-3136
▁പകര	-3137
▁േക്ഷക	-3138
▁ദയ	-3139
▁ിശ	-3140
▁ംബര	-3141
▁രാറ	-3142
▁്പര	-3143
▁്വേ	-3144
▁ർദ്ദ	-3145
▁ാവന	-3146
▁ിരോധ	-3147
▁ണിക്ക	-3148
▁യണ	-3149
▁യുട	-3150
▁മ്പത	-3151
▁േട്ട	-3152
▁ണല്	-3153
▁ഉത്ത	-3154
▁ൈന	-3155
▁നഡ	-3156
▁നാട്	-3157
▁്ലിക്	-3158
▁ന്മ	-3159
▁ാലം	-3160
▁ടിന	-3161
▁ൻ്റെ	-3162
▁ഡന	-3163
▁ഇവര	-3164
▁ബർ	-3165
▁സാര	-3166
▁പ്രശ	-3167
▁വിടെയ	-3168
▁തെല	-3169
▁രിത	-3170
▁രുമ	-3171
▁കൊള്ള	-3172
▁യാവ	-3173
▁യിച്ച	-3174
▁ഴിച്ച	-3175
▁തമ	-3176
▁മിക്ക	-3177
▁റില്	-3178
▁കരമായ	-3179
▁പുഴ	-3180
▁ാനമ	-3181
▁കാരന	-3182
▁ട്ടം	-3183
▁വാര	-3184
▁സിഡ	-3185
▁ല്ലേ	-3186
▁ൂഹ	-3187
▁ോദ	-3188
▁മഴയ	-3189
▁െറി	-3190
▁ഴുക	-3191
▁്യമാ	-3192
▁ത്രിക	-3193
▁പ്രതീ	-3194
▁പാറ	-3195
▁താക്ക	-3196
▁ിയാന	-3197
▁ഭക്ഷ	-3198
▁തിരായ	-3199
▁ഗി	-3200
▁റ്റാ	-3201
▁ോളജ	-3202
▁ോടും	-3203
▁ർട്ട	-3204
▁ിയാണ്	-3205
▁അതു	-3206
▁ികളെ	-3207
▁ക്വ	-3208
▁വുക	-3209
▁െസ്	-3210
▁കൈക	-3211
▁ികാര	-3212
ഗണ	-3213
▁റിവ	-3214
▁പരിഗണ	-3215
▁നാഥ്	-3216
▁വിക്ക	-3217
▁രാര്	-3218
▁റീ	-3219
▁നൂറ	-3220
▁സ്ല	-3221
▁െപ്	-3222
▁ഴിവ	-3223
▁ായത	-3224
▁ിമത	-3225
▁ട്ടന	-3226
▁വൈറസ	-3227
▁ഡീ	-3228
▁ാഖ	-3229
▁അജ	-3230
▁ക്ഷിത	-3231
▁റിച്ച	-3232
▁എയ	-3233
▁റബ	-3234
▁ുത	-3235
▁അന്ന	-3236
▁ണിന	-3237
▁മൃത	-3238
▁ഷമ	-3239
▁ായിക	-3240
▁തെക്ക	-3241
▁ദന	-3242
▁േദ	-3243
▁കടല	-3244
▁ക്സ്	-3245
▁സരി	-3246
▁കൺ	-3247
▁വോ	-3248
▁ീമ	-3249
▁യ്പ	-3250
▁രയാ	-3251
▁വിദ്യ	-3252
▁ഷെ	-3253
▁മാല	-3254
▁ിമാ	-3255
▁ോയി	-3256
▁ദ്ധി	-3257
▁ിയും	-3258
▁ൽക്ക	-3259
▁എന്താ	-3260
▁കത്തി	-3261
▁29	-3262
▁ണന	-3263
▁ോഹ	-3264
▁വണ്	-3265
▁താവ	-3266
▁ഫോട	-3267
▁ലിയ	-3268
▁െഡ്	-3269
▁െരു	-3270
▁ർമ	-3271
▁ജിത്	-3272
▁രക്ഷി	-3273
▁ദീ	-3274
▁അധി	-3275
▁ൂപ്	-3276
▁േട	-3277
▁ോര	-3278
▁നായിര	-3279
▁സർവ	-3280
▁േതാ	-3281
▁ുള്	-3282
▁45	-3283
▁താന	-3284
▁ളിവ	-3285
▁ഴുത	-3286
▁ിനേ	-3287
▁ട്ടീ	-3288
▁ഡിയോ	-3289
▁തട്ട	-3290
▁്യമ	-3291
▁അപ്പ	-3292
▁നാലു	-3293
ളം	-3294
▁ർണ്ണ	-3295
▁ിസിസി	-3296
▁ിയായി	-3297
▁ഉയർ	-3298
▁തുത	-3299
▁ബാന	-3300
▁വരാ	-3301
▁ഹാര	-3302
▁ിയറ	-3303
▁ൂറു	-3304
▁ിർത്ത	-3305
▁ഉടൻ	-3306
▁രുവ	-3307
▁ളിന	-3308
▁്രസി	-3309
▁ർച്ച	-3310
▁െസ	-3311
▁റേറ്റ	-3312
▁ിലവില	-3313
▁മ്മു	-3314
▁്ലീ	-3315
▁പറ്റി	-3316
▁വായ	-3317
▁േഷന	-3318
▁നക്ക	-3319
▁അടി	-3320
▁ോപ്പ	-3321
▁80	-3322
▁രപ്പ	-3323
▁ംക	-3324
▁മാത	-3325
▁സിം	-3326
▁്രസിഡ	-3327
▁ഡിപ	-3328
▁ിന്റ	-3329
▁ഗഡ	-3330
▁ൂർണ	-3331
▁േജ്	-3332
▁ളക്ക	-3333
▁ക്ഷമ	-3334
▁ീകരണം	-3335
▁ുപ്പി	-3336
▁ടീം	-3337
▁തന്ന	-3338
▁കൾക്ക	-3339
▁പ്രകാ	-3340
▁ഇയാ	-3341
▁ൻസ്	-3342
▁ഞ്ഞ്	-3343
▁ാധി	-3344
▁ഇവിട	-3345
▁റന്ന	-3346
▁വിന്	-3347
▁േറിയ	-3348
▁െഷ	-3349
▁അഭിമ	-3350
▁കോട്	-3351
▁ങ്	-3352
▁സുപ	-3353
▁ഡുകള	-3354
▁യെങ്ക	-3355
▁സംവ	-3356
▁ജന്	-3357
▁മിത	-3358
▁വിഡ	-3359
▁ടങ്ങി	-3360
▁സികള	-3361
▁ിയാല്	-3362
▁മണ	-3363
▁രിലെ	-3364
▁ക്കിട	-3365
▁ിയൂ	-3366
▁%	-3367
▁ളിയ	-3368
▁ിക്കെ	-3369
▁ലൂ	-3370
▁ടത്ത	-3371
▁ിനാണ	-3372
▁മിറ്റ	-3373
▁വീഴ	-3374
▁ുഷ്	-3375
▁ീട്ട	-3376
▁ഷീ	-3377
▁ങ്ക്	-3378
▁പാദ	-3379
▁ലാണ്	-3380
▁ായത്	-3381
▁വർത്ത	-3382
▁ഭീ	-3383
▁ാനമായ	-3384
▁വം	-3385
▁തിലും	-3386
▁70	-3387
▁ച്ചേ	-3388
▁ുമാന	-3389
▁r	-3390
▁പാക്ക	-3391
▁ിഷന	-3392
▁ലിസ	-3393
▁ിര്	-3394
▁ഡല	-3395
▁ോഗ	-3396
▁ഷിന	-3397
▁ാണോ	-3398
▁ുകാ	-3399
▁ക്കമ	-3400
▁തികള്	-3401
▁റായ	-3402
▁ള്ളവര	-3403
▁ഗള	-3404
▁്പെ	-3405
▁യിലാ	-3406
▁ഴുതി	-3407
▁ിങ്ക	-3408
▁ന്നുമ	-3409
▁്വേഷ	-3410
▁ോന്നി	-3411
▁ലച	-3412
▁ഗോപ	-3413
▁ാപന	-3414
▁്യസ	-3415
▁െട്ര	-3416
▁ക്കണം	-3417
▁കമാ	-3418
▁മുറ	-3419
▁്റേ	-3420
▁ണങ്ങള	-3421
▁ലബ	-3422
▁c	-3423
▁യര	-3424
▁ടിവ	-3425
▁ുളം	-3426
▁റാണ്	-3427
▁ബുക്ക	-3428
▁ച്ചവ	-3429
▁ഞ്ഞു	-3430
▁നടന്	-3431
▁ഐഎ	-3432
▁ലാസ	-3433
▁നല	-3434
▁രസ	-3435
▁പരസ്	-3436
▁ക്കുട	-3437
▁അര	-3438
▁ഓണ	-3439
▁െറ	-3440
▁എല്ല	-3441
▁ചാണ്ട	-3442
▁തോമസ	-3443
▁ുമാണ	-3444
▁ട്ടില	-3445
▁ഷത്തെ	-3446
▁ുറപ്പ	-3447
▁റ്	-3448
▁ാനാവ	-3449
▁രിസ	-3450
▁്സാ	-3451
▁ാഞ്ച	-3452
▁യിലും	-3453
▁ീവ	-3454
▁താപ	-3455
▁ികെ	-3456
▁കത്ത	-3457
▁ിത്ര	-3458
▁്യണ	-3459
▁ധിച്ച	-3460
▁സഫ	-3461
▁പന	-3462
▁ച്ചയ	-3463
▁ിവേ	-3464
▁തള്ള	-3465
▁ാലിന	-3466
▁ിക്ര	-3467
▁ൂട്ടി	-3468
ww	-3469
▁േണ	-3470
▁യതി	-3471
▁ുരുത	-3472
▁എപ	-3473
▁പുല	-3474
▁വിൽ	-3475
▁ിരാ	-3476
▁്ജി	-3477
▁ന്നിര	-3478
▁നാമ	-3479
▁പിറ	-3480
▁ഇത്ര	-3481
▁വുമായ	-3482
▁പിഎ	-3483
▁ീല്	-3484
▁ലത്ത	-3485
▁യക്കു	-3486
▁32	-3487
▁തം	-3488
▁നങ്ങൾ	-3489
▁ളാ	-3490
▁െമ	-3491
▁തലയ	-3492
▁നടന	-3493
▁ാവു	-3494
▁ിനൊ	-3495
▁യച്ച	-3496
▁ഠി	-3497
▁മലയ	-3498
▁ുരുതര	-3499
▁യൻ	-3500
▁ജിത	-3501
▁റായി	-3502
▁ഡിസ	-3503
▁ാരക	-3504
▁രക്ക	-3505
▁വരാന	-3506
▁െതിര	-3507
▁്രകാര	-3508
▁െട്ട	-3509
▁ോകത്ത	-3510
▁ഫീ	-3511
▁മറു	-3512
▁വരാണ്	-3513
▁േഖ	-3514
▁വട്ട	-3515
▁ഷിച്ച	-3516
▁ിച്ചു	-3517
▁ബേ	-3518
▁ടയില	-3519
▁ടത്ത്	-3520
▁ർട്ടി	-3521
▁ർട്ട്	-3522
▁കമായി	-3523
▁രുക്ക	-3524
▁രണ്	-3525
▁സിസ	-3526
▁ധര	-3527
▁വാറ	-3528
▁പിതാ	-3529
▁തോട	-3530
▁്തക	-3531
▁ൻസി	-3532
▁തയില	-3533
▁വത്ത	-3534
▁ീന്ദ	-3535
▁അല്ലെ	-3536
▁ലിച്ച	-3537
▁ൂത	-3538
▁ിഞ്ഞാ	-3539
▁ബുദ	-3540
▁സ്ക	-3541
▁പതിന	-3542
▁േരിയ	-3543
▁ചക	-3544
▁ലായ	-3545
▁്ധ്യ	-3546
▁ീണ	-3547
▁ൊറ	-3548
▁രൂര	-3549
▁്റി	-3550
▁ദേശ്	-3551
▁ള്ളു	-3552
▁ഡിന	-3553
▁ുവിന	-3554
▁യല്	-3555
▁ലക്	-3556
▁ർശി	-3557
▁റക്കി	-3558
▁ശിക്ക	-3559
▁ണവ	-3560
▁ിദ്ധ	-3561
▁ക്കേ	-3562
▁താവ്	-3563
▁ിയായ	-3564
▁ള്ളിയ	-3565
▁ഞ്ഞാ	-3566
▁നിശ	-3567
▁ദ്ധര	-3568
▁നിർമ	-3569
▁ുകാര്	-3570
▁നിലെ	-3571
▁ന്നേ	-3572
▁മാരാ	-3573
▁വൽ	-3574
▁േടി	-3575
▁ഷണം	-3576
▁ക്ഷത	-3577
▁പിട	-3578
▁രത്	-3579
▁വടക	-3580
▁സംര	-3581
▁ട്ടയ	-3582
▁രങ്ങ	-3583
▁മുദ	-3584
▁രാം	-3585
▁ാധാ	-3586
▁ുറി	-3587
▁േഷൻ	-3588
▁ക്ടറ	-3589
▁സവ	-3590
▁ഇറാ	-3591
▁മ്പന	-3592
▁ാസികള	-3593
▁ജൂൺ	-3594
▁ുമ്പ	-3595
▁തിച്ച	-3596
▁മ്പത്	-3597
▁ിയത	-3598
▁്പ്ര	-3599
▁കളില്	-3600
▁ിക്കേ	-3601
▁ിനാണ്	-3602
▁്ടില്	-3603
▁ൈക	-3604
▁റങ്ങി	-3605
▁ുഭ	-3606
▁സെന്	-3607
▁ോൺ	-3608
▁ഹമാ	-3609
▁കാരിക	-3610
െന	-3611
▁in	-3612
▁വരാണ	-3613
▁ാഴ	-3614
▁ഒരേ	-3615
▁തൊരു	-3616
▁ഷ്യല	-3617
▁ുള്ളി	-3618
▁ഫീസ	-3619
▁ുവരു	-3620
▁ചാല	-3621
▁ോത്	-3622
▁്താവ	-3623
▁റ്റിയ	-3624
▁ിരീ	-3625
▁ക്ട്	-3626
▁ിതമായ	-3627
▁ആന	-3628
▁ഭവ	-3629
▁യ്യാ	-3630
ൻസ	-3631
▁ടിസ	-3632
▁വിഡി	-3633
▁ധിക്ക	-3634
▁ബന്ധമ	-3635
▁തെങ്ക	-3636
▁ദശ	-3637
▁പുര	-3638
▁വതി	-3639
▁പ്രദ	-3640
▁നാം	-3641
▁നിധി	-3642
▁അശ	-3643
▁കുട	-3644
▁പറേ	-3645
▁ബില്	-3646
▁്രസ്	-3647
▁ിയിൽ	-3648
▁ിക്കൽ	-3649
▁തറ	-3650
▁വസ	-3651
▁ടിമ	-3652
▁ോലി	-3653
▁കമായ	-3654
െയ	-3655
▁ചുവ	-3656
▁ോട്ടെ	-3657
▁ടല	-3658
▁ത്സ	-3659
▁ോബി	-3660
▁ന്ത്	-3661
▁ന്ദര	-3662
▁പട്ട	-3663
▁ച്ചിട	-3664
▁ീട്ടി	-3665
▁ഫോൺ	-3666
▁ോം	-3667
▁ഇതര	-3668
▁ടയാ	-3669
▁ാബി	-3670
▁ായാണ്	-3671
▁തുകൊ	-3672
▁സെക്	-3673
▁ൈബ	-3674
▁പോര്	-3675
▁A	-3676
▁ിതം	-3677
▁വഹി	-3678
▁മത്തി	-3679
▁ോഡി	-3680
▁േഷന്	-3681
▁ശോഭ	-3682
▁സസ്	-3683
▁ാജ്	-3684
▁ട്ടിയ	-3685
▁34	-3686
▁വസ്	-3687
▁കാണാ	-3688
▁ാഫ	-3689
▁ായില	-3690
ഷന	-3691
▁റഞ്ഞ	-3692
▁ാങ്ങ	-3693
▁ണ്ടാക	-3694
▁n	-3695
▁ശം	-3696
▁െന	-3697
▁യാസ	-3698
▁മാരി	-3699
▁എന്തു	-3700
▁33	-3701
▁സൺ	-3702
▁തരം	-3703
▁പൊട	-3704
▁ാവുമ	-3705
▁തുമായ	-3706
▁േർ	-3707
മാണ്	-3708
▁ിയില്	-3709
▁്രത്യ	-3710
al	-3711
▁മദ	-3712
▁ചിരി	-3713
▁െന്റ്	-3714
▁ഒമ	-3715
▁മത്ത	-3716
▁മ്പ്	-3717
▁37	-3718
▁രാണ്	-3719
▁ൊണ്ട	-3720
▁മെങ്ക	-3721
▁്നങ്ങ	-3722
▁48	-3723
▁ഷറ	-3724
▁യിന	-3725
▁ാനു	-3726
▁ജെപി	-3727
▁അമിത	-3728
▁ന്റി	-3729
▁മം	-3730
▁ലസ	-3731
▁യന്	-3732
▁ിയേ	-3733
▁കാരണമ	-3734
▁പ്രസ്	-3735
▁ഴിക്ക	-3736
▁ണോ	-3737
▁ബറ	-3738
▁ാലു	-3739
▁പ്പട	-3740
▁ടാക്ക	-3741
▁ുന്നേ	-3742
▁ബൂ	-3743
▁വത്	-3744
▁ശശി	-3745
▁ാഗ്	-3746
▁രായി	-3747
▁ുത്തല	-3748
▁ുഷ	-3749
▁സംബ	-3750
▁ികള്	-3751
▁്ട്ര	-3752
▁ഒന്നാ	-3753
▁ക്കാൻ	-3754
▁രവ്	-3755
▁ുങ്ങ	-3756
▁ജ്യ	-3757
▁ണിയ	-3758
▁മ്യ	-3759
▁അവിട	-3760
▁ജിസ്	-3761
▁രംഭി	-3762
▁ട്ടും	-3763
▁ണ്ടും	-3764
▁ർഥ	-3765
▁േയ്	-3766
▁ല്ലു	-3767
▁ഹിന്ദ	-3768
▁ംവ	-3769
▁ക്സി	-3770
▁ച്ചത	-3771
▁വഴ	-3772
▁ുരേഷ	-3773
▁ച്ചേര	-3774
▁കൂല	-3775
▁ഥികള	-3776
▁ുടര്	-3777
▁ടങ്ങള	-3778
▁90	-3779
▁ണാ	-3780
▁ുബ	-3781
▁ർപ	-3782
▁ിലന	-3783
▁േൽ	-3784
▁മേല	-3785
▁ുകയു	-3786
▁ാഡ	-3787
▁ഗണി	-3788
▁പാസ	-3789
▁വൈസ	-3790
▁ാദമ	-3791
▁്രസ	-3792
▁ഞ്ഞി	-3793
▁ന്തോ	-3794
▁ട്ടിന	-3795
▁രെയും	-3796
▁്ഡി	-3797
▁ന്തി	-3798
▁ുദ്ധ	-3799
▁്യന്	-3800
▁36	-3801
▁ോമ	-3802
▁ുവില	-3803
▁ിക്കല	-3804
▁എട	-3805
▁ധാര	-3806
▁ുടി	-3807
▁്കോട	-3808
▁്യാപ	-3809
▁നുമായ	-3810
▁ന്തിന	-3811
▁യോഗ്യ	-3812
▁ഇഡി	-3813
▁നിഷ	-3814
▁ാണു	-3815
▁75	-3816
▁ാകര	-3817
▁ാരം	-3818
▁മ്മി	-3819
▁ാറ്റു	-3820
▁55	-3821
▁ർഹ	-3822
▁ീയത	-3823
▁പ്രേ	-3824
▁യവ	-3825
▁രാശ	-3826
▁ാള്	-3827
▁ുപാ	-3828
▁കാരന്	-3829
▁ക്ടര്	-3830
▁റഹ	-3831
▁തിഷ	-3832
▁രോധ	-3833
▁ന്നീ	-3834
▁ലിൽ	-3835
▁റെടു	-3836
▁ൊഴ	-3837
▁്ലൂ	-3838
▁h	-3839
▁സസ	-3840
▁മുട	-3841
▁പാടില	-3842
▁ാധ്യത	-3843
▁െറ്റി	-3844
▁ധീ	-3845
▁കോഴ	-3846
▁നകള	-3847
▁സിറ	-3848
▁്തീ	-3849
▁ഗ്യ	-3850
▁ുക്ര	-3851
▁ദള	-3852
▁ച്ചട	-3853
▁നിലയ	-3854
▁വിപ	-3855
▁ഷത്ത	-3856
▁ന്വേ	-3857
▁പരിഹാ	-3858
പത	-3859
▁ഫറ	-3860
▁ിണ	-3861
▁വർണ	-3862
▁ിടി	-3863
▁ുതെ	-3864
▁ാട്ടു	-3865
▁പനി	-3866
▁പുക	-3867
▁സക്	-3868
▁ളിപ്പ	-3869
▁ാത്തി	-3870
▁ധവ	-3871
▁്മാര	-3872
▁ഗം	-3873
▁മ്പർ	-3874
▁ലാത്	-3875
▁്ത്യ	-3876
▁്തവ	-3877
▁ിയിട	-3878
കെ	-3879
▁കെയ	-3880
▁ീപ്	-3881
▁റിനെ	-3882
▁42	-3883
▁ചത	-3884
▁മയ	-3885
▁റല്	-3886
▁സുധ	-3887
▁്രിക്	-3888
▁ണല	-3889
▁രാർ	-3890
▁ഒപ്പ	-3891
▁്യാസ	-3892
▁രമി	-3893
▁സേവ	-3894
▁ർമാ	-3895
▁വീഴ്	-3896
▁ാക്	-3897
▁ാഹി	-3898
▁ോന്	-3899
▁ോൾ	-3900
▁രിന	-3901
▁ിപ്പ്	-3902
▁േറ്റ്	-3903
▁o	-3904
▁ശ്ശേ	-3905
▁ൂപ	-3906
▁മുള	-3907
▁രാക	-3908
▁സിയ	-3909
▁ശ്ശേര	-3910
▁I	-3911
▁എഎ	-3912
▁രയ	-3913
▁ൈഡ	-3914
▁ദ്യം	-3915
▁മ്പി	-3916
▁രോട്	-3917
▁ിനിമ	-3918
▁ൂരില	-3919
▁യിലായ	-3920
▁ലിറ്റ	-3921
▁യൽ	-3922
▁ലീസ	-3923
▁ിജെ	-3924
▁ക്കട	-3925
▁ണിത്	-3926
▁പയോഗ	-3927
▁കാരനാ	-3928
▁ഓളം	-3929
▁ലമെന	-3930
▁ക്കൂട	-3931
▁രിയായ	-3932
▁g	-3933
▁1.	-3934
▁ആഴ	-3935
▁സമാ	-3936
▁്തി	-3937
▁കളാണ	-3938
▁അണ	-3939
▁നിസ	-3940
▁ാതക	-3941
▁ാനാക	-3942
യോ	-3943
മാണ	-3944
▁ലധിക	-3945
▁മധ	-3946
▁200	-3947
▁ഥാപ	-3948
▁ലുവ	-3949
▁സിസ്	-3950
▁ൾപ്പ	-3951
an	-3952
▁ിപ	-3953
▁ചിത	-3954
▁വല്	-3955
▁സൈന	-3956
▁ുന്	-3957
▁വയസ്	-3958
▁ജിന	-3959
▁സിൽ	-3960
▁ന്ദ്	-3961
▁െടി	-3962
▁വേഷണ	-3963
▁കോവ	-3964
▁വെള	-3965
▁ോഷി	-3966
▁പെര	-3967
▁്കൂ	-3968
▁സമ്പർ	-3969
▁ബദ	-3970
▁ൊര	-3971
▁്ലേ	-3972
▁യുന്ന	-3973
▁േസെടു	-3974
▁്തിന	-3975
▁യട	-3976
▁ൂഡ	-3977
▁സിഡന്	-3978
▁C	-3979
▁43	-3980
▁റൈ	-3981
▁തയാ	-3982
▁ാണിത്	-3983
▁തീയ	-3984
▁ാനിയ	-3985
▁താക	-3986
▁ബാബ	-3987
▁ിനോ	-3988
▁ുണ്	-3989
▁ബോസ	-3990
▁ലിന്	-3991
▁െയില	-3992
▁ഷ്യല്	-3993
▁38	-3994
▁തകള	-3995
▁ാടന	-3996
▁ുടർ	-3997
▁ൊഴി	-3998
▁്ററി	-3999
▁ൃത്തി	-4000
▁ന്നെ	-4001
▁k	-4002
▁ടണ	-4003
▁കോണ	-4004
▁ാഷ്	-4005
▁ന്ദേ	-4006
▁ന്മാ	-4007
▁രിയാ	-4008
▁യമ	-4009
▁ജനം	-4010
▁ാദ്	-4011
▁41	-4012
▁ണിത	-4013
▁െഡി	-4014
▁നത	-4015
▁ീറ	-4016
▁500	-4017
▁റിലെ	-4018
▁ലക്ക	-4019
▁ൊഴില	-4020
▁ച്ചുവ	-4021
▁ിക്കാ	-4022
▁വസത	-4023
▁വാള	-4024
▁ഇതില	-4025
▁ട്രി	-4026
▁ളില്	-4027
▁വഴിയ	-4028
▁ീം	-4029
▁ിവ്	-4030
▁്യേ	-4031
▁രാക്ക	-4032
▁ർക്ക്	-4033
▁അവി	-4034
▁സജി	-4035
▁ഹോം	-4036
▁െക്	-4037
▁ോലെ	-4038
▁ോസ്	-4039
▁ലീസ്	-4040
▁ലിക്ക	-4041
▁െവ	-4042
▁ഇരി	-4043
▁തികൾ	-4044
▁മായത	-4045
▁കടത്ത	-4046
▁ൂറ	-4047
▁രണമ	-4048
▁ിലേ	-4049
▁ുലി	-4050
▁ോളി	-4051
▁്മത	-4052
▁ഞ്ഞിര	-4053
▁പിന്ത	-4054
▁ലധികം	-4055
▁്റ്റ്	-4056
▁ലങ്ങ	-4057
es	-4058
▁ലന	-4059
▁ഥാന	-4060
▁ശ്ച	-4061
▁39	-4062
▁ഡയ	-4063
▁ഇതാ	-4064
▁ിളി	-4065
▁നയില	-4066
▁ുവരെ	-4067
▁്രയി	-4068
▁തിയായ	-4069
▁നടൻ	-4070
▁സബ്	-4071
▁ലോക്ക	-4072
▁വാർ	-4073
▁ാലോ	-4074
▁ിഡി	-4075
▁ഭാഗം	-4076
▁ടത്തി	-4077
▁ന്നീട	-4078
▁ളിച്ച	-4079
▁5,	-4080
▁േത്	-4081
▁ക്കോട	-4082
▁ൂട്	-4083
▁നിയോ	-4084
▁മുകള	-4085
▁കൊള	-4086
▁നുണ	-4087
▁ബന്	-4088
▁വസര	-4089
▁ച്ചാ	-4090
▁ച്ചും	-4091
▁ിലാണ്	-4092
▁മേള	-4093
▁േന്ദ	-4094
▁ജക	-4095
▁മൃ	-4096
▁ലത	-4097
▁ബില	-4098
▁്രൂ	-4099
▁ബത്ത	-4100
▁സ്വീ	-4101
▁ിനിട	-4102
▁ാവ്	-4103
▁മോദി	-4104
▁റിന്	-4105
▁52	-4106
▁ിമി	-4107
▁കളോട	-4108
▁റങ്ങ	-4109
▁െയ്ത	-4110
▁ക്കാം	-4111
▁പിഴ	-4112
▁s	-4113
▁ളോ	-4114
▁ീഫ	-4115
▁..	-4116
▁ജൻ	-4117
▁മർ	-4118
▁അപ്	-4119
▁ഐടി	-4120
▁ലാണ	-4121
▁ാധക	-4122
▁ാമത	-4123
▁്റം	-4124
▁ിടങ്ങ	-4125
▁2,	-4126
▁ൊടു	-4127
▁്ലാതെ	-4128
▁അലി	-4129
▁്യാപക	-4130
▁രട	-4131
▁ൊണ	-4132
▁ോജ	-4133
▁ുപത	-4134
▁്വി	-4135
▁കേസില	-4136
▁നിച്ച	-4137
▁ൾഡ	-4138
▁റ്റീ	-4139
▁്മാന	-4140
▁ഉം	-4141
▁എകെ	-4142
▁ഉപയോ	-4143
▁പേരാ	-4144
▁േസില	-4145
▁്യങ്ങ	-4146
▁ഇല	-4147
▁ഉമ	-4148
▁ണിക്	-4149
▁ാറില	-4150
▁നയുടെ	-4151
▁ൂണ	-4152
▁ൗണ	-4153
▁കൊല്	-4154
▁യാര്	-4155
▁ഷപ്പ	-4156
▁ുത്തു	-4157
▁49	-4158
▁ുൽ	-4159
▁്ള	-4160
▁ൽപ	-4161
▁ാരമ	-4162
▁്റ്	-4163
▁ടപ്പ	-4164
▁നസ്സ	-4165
▁പോലു	-4166
▁്ടിലെ	-4167
▁51	-4168
▁്ടെ	-4169
▁ചുമത	-4170
▁ടിപ്പ	-4171
▁നുള്ള	-4172
▁ീണ്ടു	-4173
▁65	-4174
▁തത്	-4175
▁നിപ	-4176
▁മെയ	-4177
▁ർത്ഥി	-4178
▁രിക	-4179
▁ാപി	-4180
▁ളോട്	-4181
▁47	-4182
▁ലവ	-4183
▁ശൻ	-4184
▁കൊല	-4185
▁സ്പി	-4186
▁ദാന	-4187
▁ഭിമ	-4188
▁നോട്	-4189
▁സില്	-4190
▁ുങ്ങി	-4191
▁44	-4192
▁ടയ	-4193
▁യൂര	-4194
▁ഇങ്ങ	-4195
▁ഇതോട	-4196
▁ക്കയ	-4197
▁ിയന്	-4198
▁ഇടം	-4199
▁ാനെ	-4200
▁യിന്	-4201
▁രഞ്ഞ	-4202
▁കൊച്ച	-4203
ാർ	-4204
▁t	-4205
▁നബ	-4206
▁ഫസ	-4207
▁ഥാനാർ	-4208
▁കരു	-4209
▁പിള	-4210
▁ുറവ	-4211
▁ദർ	-4212
▁ിയന്ത	-4213
am	-4214
▁നര	-4215
▁ൂരി	-4216
▁ങ്ങാ	-4217
▁മാരെ	-4218
▁വീകര	-4219
▁ടര	-4220
▁േവ	-4221
▁മെട	-4222
▁ാശി	-4223
▁രത്ത	-4224
▁തിക്ക	-4225
▁ടക	-4226
▁യൺ	-4227
▁ലപ	-4228
▁ങ്കി	-4229
▁ടിയില	-4230
▁ർഘ	-4231
▁സീസ	-4232
▁കൗണ്ട	-4233
▁െര	-4234
▁രോട	-4235
▁ലന്	-4236
▁സാന	-4237
▁ന്നുക	-4238
▁ഴ്ച്ച	-4239
▁S	-4240
▁മസ	-4241
▁e	-4242
▁നക	-4243
▁യ്ത	-4244
▁ിലുമ	-4245
▁ഫഷ	-4246
▁ുദ	-4247
▁ാരു	-4248
▁താവിന	-4249
▁െന്നി	-4250
▁റയ	-4251
▁ൈം	-4252
▁ആക്	-4253
▁ടര്	-4254
▁ാരിയ	-4255
▁്കെടു	-4256
▁്ടാണ്	-4257
▁്റ്റി	-4258
▁രല	-4259
▁ൻറ	-4260
▁കേട	-4261
▁തുണ	-4262
▁8,	-4263
▁രത	-4264
▁ൂസ	-4265
▁കാവ	-4266
▁ഖില	-4267
▁കമ്പ	-4268
▁തികള	-4269
▁ട്രെയ	-4270
▁തിപ്പ	-4271
▁ശത്ത്	-4272
▁അബ	-4273
▁ഹസ	-4274
▁ുഹ	-4275
▁ംവി	-4276
▁ുരി	-4277
▁്പി	-4278
▁നെതിര	-4279
▁പട്ടി	-4280
▁7,	-4281
▁മകൻ	-4282
▁ച്ചറ	-4283
▁തത്ത	-4284
▁ൽഡ	-4285
▁എയർ	-4286
▁കമ്	-4287
▁മറ്റൊ	-4288
▁ന്‍	-4289
▁യുക	-4290
▁ള്‍	-4291
▁ദിക്	-4292
▁വാന്	-4293
▁ുതിര	-4294
▁കൽ	-4295
▁ജഗ	-4296
▁ടന	-4297
▁ുച	-4298
യാണ്	-4299
▁കളു	-4300
▁്മാ	-4301
▁ിശ്വ	-4302
▁സരത്ത	-4303
▁6,	-4304
▁റഫ	-4305
▁നയം	-4306
▁ായം	-4307
▁്ഷന	-4308
▁ികമാ	-4309
▁സ്ഥിര	-4310
▁ശക	-4311
▁ഒന്	-4312
▁ാക്ഷ	-4313
▁ന്നോട	-4314
▁പൊട്ട	-4315
▁്യപ്പ	-4316
▁സൽ	-4317
▁ോയ	-4318
▁വിയ	-4319
▁ിടു	-4320
▁ുട്	-4321
▁റുമാ	-4322
▁ചായ	-4323
▁ിലോ	-4324
▁്ലെ	-4325
▁ാര്യമ	-4326
▁്യമാക	-4327
www	-4328
▁www	-4329
▁കനാ	-4330
▁മാവ	-4331
▁മ്മന	-4332
▁്മിന	-4333
▁ഋ	-4334
▁46	-4335
▁അമ	-4336
▁ൊല	-4337
▁ഫഷണ	-4338
▁യൂട	-4339
▁കട്ട	-4340
▁ക്ഷാ	-4341
▁ാന്റ	-4342
▁റ്റിൽ	-4343
▁രാണ	-4344
▁ിബി	-4345
▁ിലയ	-4346
▁കുമോ	-4347
▁ാങ്ക്	-4348
▁ുന്ന്	-4349
▁ജയം	-4350
▁തുമ	-4351
▁രണം	-4352
▁ിടയ	-4353
▁വാങ്	-4354
▁ുള്ളവ	-4355
▁കൻ	-4356
▁ഗറ	-4357
▁ടും	-4358
▁നതാ	-4359
▁ളും	-4360
▁ല്ലായ	-4361
▁54	-4362
▁നിന	-4363
▁ബഹള	-4364
▁വളര	-4365
▁ണ്ടോ	-4366
▁മ്പോ	-4367
▁ാവുക	-4368
▁M	-4369
▁1,	-4370
▁2.	-4371
▁ുശ	-4372
▁ൽഷ	-4373
▁നേയ	-4374
▁പലര	-4375
▁്രെ	-4376
▁വന്ത	-4377
▁വെറു	-4378
▁ലറ	-4379
▁നസ്	-4380
▁ാസമ	-4381
▁റ്റെ	-4382
▁ണ്ടായ	-4383
▁ന്നവര	-4384
▁പര്	-4385
▁മിയ	-4386
▁ാമത്ത	-4387
▁രയില	-4388
▁സ്വര	-4389
▁രമായി	-4390
▁ിപ്പാ	-4391
▁ഇഷ	-4392
▁നീട	-4393
▁മുക	-4394
▁വെല്	-4395
▁പിന്ന	-4396
▁അഭ	-4397
▁യാര	-4398
▁ക്കല	-4399
▁ഫിക്	-4400
▁ലുണ്ട	-4401
▁ർവ	-4402
▁ൾസ	-4403
▁പട്	-4404
▁റ്റും	-4405
▁വിറ്റ	-4406
▁ുണ	-4407
▁ോപ	-4408
▁ആറു	-4409
▁തിനൊ	-4410
▁ളത്ത	-4411
▁56	-4412
▁പടി	-4413
▁വേറ	-4414
▁ാബ്	-4415
▁ിപ്	-4416
▁കൊടു	-4417
▁ണമായി	-4418
▁72	-4419
▁അഴ	-4420
▁ലഡ	-4421
▁ാപ്	-4422
▁മാസം	-4423
▁a	-4424
▁മ്	-4425
▁റിംഗ	-4426
▁െയാണ്	-4427
▁ജമ	-4428
▁ീഴ്	-4429
▁യാല്	-4430
▁രദേശ	-4431
▁ഷ്ടി	-4432
▁ക്ഷന്	-4433
▁ന്നിട	-4434
▁53	-4435
▁പവ	-4436
▁ംസാ	-4437
▁ജിയ	-4438
▁തമാ	-4439
▁ലിക	-4440
▁വാണ	-4441
▁്സ്	-4442
▁തിയാ	-4443
▁വഷ	-4444
▁ഷഹ	-4445
▁ോശ	-4446
▁കാം	-4447
▁കാലി	-4448
▁ണവും	-4449
▁ര്യം	-4450
▁ലിനെ	-4451
▁നിപ്പ	-4452
▁നെന്ന	-4453
▁റച്ച്	-4454
▁തവ	-4455
▁യയ	-4456
▁ഴയ	-4457
▁ിയാല	-4458
▁ദിവസം	-4459
▁പറേഷന	-4460
▁ശിപ്പ	-4461
▁10,	-4462
▁ോള്	-4463
▁ക്ടർ	-4464
▁സദ	-4465
▁ാഥ	-4466
▁150	-4467
▁തകര	-4468
▁തിമ	-4469
▁യിക	-4470
▁ോദ്	-4471
▁ിലാണ	-4472
▁കങ്ങള	-4473
▁ാർട്ട	-4474
▁്ഞ	-4475
▁ജില	-4476
▁വഷള	-4477
▁ചേരി	-4478
▁രാട്	-4479
▁സാരി	-4480
▁െയ്യ	-4481
▁ായു	-4482
▁ിയാണ	-4483
▁യതോടെ	-4484
▁57	-4485
▁ശില	-4486
▁ഷ്മ	-4487
▁ിഗ്	-4488
▁്മയ	-4489
▁ക്ഷന	-4490
▁്രിയ	-4491
▁ർദ	-4492
▁300	-4493
▁നുസ	-4494
▁മരം	-4495
▁ണ്ണൂ	-4496
▁വരുമാ	-4497
on	-4498
▁ഖല	-4499
▁ഹേ	-4500
▁ങ്കു	-4501
▁ൂർത്ത	-4502
▁58	-4503
▁ടർ	-4504
▁രദ്	-4505
▁ിയു	-4506
▁റിസ്	-4507
▁റ്റത	-4508
▁വരില	-4509
▁ത്തുക	-4510
▁ിനിമയ	-4511
▁11,	-4512
▁പോളി	-4513
▁മുസ്ല	-4514
▁ിക്കര	-4515
▁p	-4516
▁അധ	-4517
▁കവ	-4518
▁ഗെ	-4519
▁അപക	-4520
▁പള്	-4521
▁രുപ	-4522
▁ോടു	-4523
▁നിക്	-4524
▁യങ്ക	-4525
▁സ്വീക	-4526
▁്ടായി	-4527
▁തർ	-4528
▁റൺ	-4529
▁മിറ	-4530
▁മെന	-4531
▁ഗങ്ങള	-4532
▁രിട്ട	-4533
▁(1	-4534
▁-1	-4535
▁തസ	-4536
▁സയില	-4537
▁ിന്നാ	-4538
te	-4539
▁പക്	-4540
▁ത്താക	-4541
ov	-4542
▁ഇന	-4543
▁രൂപയ	-4544
▁62	-4545
▁ചോദ	-4546
▁ടിട	-4547
▁ടേയ	-4548
▁പിയ	-4549
▁സൻസ	-4550
▁യ്യാറ	-4551
▁ായത്ത	-4552
▁മ്പു	-4553
▁ലായിര	-4554
▁ിക്കോ	-4555
ഫ്	-4556
▁അസം	-4557
▁കടക	-4558
▁ിറക	-4559
▁ദ്ധത	-4560
▁ലായി	-4561
▁പുത	-4562
▁ീഷണ	-4563
▁ണ്ടാവ	-4564
▁റുകള്	-4565
▁ാര്യത	-4566
▁ിയയില	-4567
▁രഘ	-4568
▁്പു	-4569
▁ണത്ത	-4570
▁നുഭവ	-4571
▁വിക്	-4572
▁ിയതി	-4573
▁്യാര	-4574
▁തുക്ക	-4575
▁യങ്ങള	-4576
▁രള	-4577
▁ശൂ	-4578
▁വനം	-4579
▁റ്റം	-4580
▁ദല	-4581
▁ശവ	-4582
▁രിവ	-4583
▁പാടു	-4584
▁ാരമാ	-4585
▁നിക്ക	-4586
▁പിയില	-4587
▁ഡന്	-4588
▁യമാ	-4589
▁ാങ്	-4590
▁ങ്കാ	-4591
▁ട്ടറ	-4592
▁നങ്ങ	-4593
▁സ്ലി	-4594
▁ീക്ക	-4595
▁അടക്ക	-4596
▁കത	-4597
▁ടിപ	-4598
▁രുന	-4599
▁്യവ	-4600
▁നറ	-4601
▁വജ	-4602
▁മോദ	-4603
▁സുന	-4604
▁ാവി	-4605
▁ഡന്റ	-4606
▁ാരായ	-4607
▁ശങ്ങള	-4608
▁മട	-4609
▁്ദ	-4610
▁അഡ്	-4611
▁ചതി	-4612
▁റേഷ	-4613
▁ദത്ത	-4614
▁ശ്വസ	-4615
▁സന്ത	-4616
▁ാന്ന	-4617
▁്രമം	-4618
▁ക്കാവ	-4619
▁ണക്കു	-4620
ala	-4621
▁റൻ	-4622
▁തരണ	-4623
▁പ്യ	-4624
▁വാന	-4625
▁്ന്	-4626
▁ഡോക്	-4627
▁മങ്ങ	-4628
▁രോപി	-4629
▁പ്പോര	-4630
▁R	-4631
▁59	-4632
▁ഗര	-4633
▁രട്	-4634
▁ാമര	-4635
▁ൂണി	-4636
▁ക്കണ	-4637
▁ഖ്യാ	-4638
▁ഹം	-4639
▁ോന	-4640
▁എംപ	-4641
▁ഹേമ	-4642
▁ളിലെ	-4643
▁്പുഴ	-4644
▁d	-4645
▁9,	-4646
▁നന	-4647
▁മൻ	-4648
▁്യൻ	-4649
▁ട്ടമ	-4650
▁പാക്	-4651
▁മ്മാ	-4652
▁രുടെയ	-4653
▁3,	-4654
▁ഇപി	-4655
▁ഷ്ണ	-4656
▁ാരും	-4657
▁m	-4658
▁(2	-4659
▁85	-4660
▁അൽ	-4661
▁്നാ	-4662
▁ുകളെ	-4663
▁ിന്നി	-4664
▁്ടത്ത	-4665
▁B	-4666
▁ാച	-4667
▁400	-4668
▁ിദ്	-4669
▁ൂലമ	-4670
▁എങ്ങ	-4671
▁ത്യം	-4672
▁സന്ധ	-4673
▁ലേക്ക	-4674
▁ാറില്	-4675
▁ിച്ചത	-4676
▁P	-4677
▁നർ	-4678
▁ുൻ	-4679
▁ർന	-4680
▁ശ്യ	-4681
▁ിവാ	-4682
▁കളുമ	-4683
▁കാതെ	-4684
▁ഡില്	-4685
▁മെന്	-4686
▁വിലെ	-4687
▁ശത്ത	-4688
▁സാനി	-4689
▁സുകള	-4690
▁ാരിക	-4691
▁ചില്ല	-4692
▁ൈക്കോ	-4693
▁ഓണം	-4694
▁ഭ്യ	-4695
▁സായ	-4696
▁ുതാ	-4697
▁ഇപ്പ	-4698
▁	-4699
്	-4700
ി	-4701
ന	-4702
ക	-4703
ത	-4704
ു	-4705
ാ	-4706
ര	-4707
യ	-4708
ട	-4709
പ	-4710
ല	-4711
െ	-4712
മ	-4713
വ	-4714
ം	-4715
സ	-4716
‍	-4717
റ	-4718
ണ	-4719
ച	-4720
ള	-4721
.	-4722
ോ	-4723
േ	-4724
ങ	-4725
ദ	-4726
അ	-4727
ീ	-4728
എ	-4729
ഷ	-4730
ശ	-4731
ജ	-4732
ഗ	-4733
ഞ	-4734
ൂ	-4735
ർ	-4736
ധ	-4737
ഇ	-4738
ബ	-4739
ൽ	-4740
ആ	-4741
,	-4742
ഡ	-4743
ഹ	-4744
ഭ	-4745
ൊ	-4746
ഴ	-4747
ഥ	-4748
ഉ	-4749
ൻ	-4750
ൾ	-4751
ഒ	-4752
ഫ	-4753
0	-4754
ൈ	-4755
1	-4756
2	-4757
ഖ	-4758
ൃ	-4759
5	-4760
3	-4761
4	-4762
ഈ	-4763
ഏ	-4764
ഘ	-4765
-	-4766
9	-4767
ഓ	-4768
6	-4769
7	-4770
ൗ	-4771
8	-4772
:	-4773
)	-4774
(	-4775
ൺ	-4776
ഐ	-4777
'	-4778
;	-4779
?	-4780
ഠ	-4781
"	-4782
!	-4783
/	-4784
a	-4785
e	-4786
ഛ	-4787
i	-4788
n	-4789
o	-4790
ഔ	-4791
t	-4792
r	-4793
s	-4794
ഊ	-4795
ഢ	-4796
l	-4797
w	-4798
c	-4799
%	-4800
m	-4801
ൌ	-4802
d	-4803
ഃ	-4804
h	-4805
A	-4806
I	-4807
g	-4808
p	-4809
S	-4810
u	-4811
C	-4812
P	-4813
v	-4814
k	-4815
M	-4816
R	-4817
y	-4818
T	-4819
D	-4820
E	-4821
B	-4822
f	-4823
L	-4824
ഋ	-4825
b	-4826
N	-4827
F	-4828
O	-4829
V	-4830
W	-4831
K	-4832
&	-4833
G	-4834
·	-4835
#	-4836
U	-4837
H	-4838
*	-4839
ഝ	-4840
J	-4841
+	-4842
x	-4843
ൡ	-4844
@	-4845
=	-4846
]	-4847
[	-4848
∙	-4849
j	-4850
Y	-4851
X	-4852
•	-4853
_	-4854
൪	-4855
൯	-4856
️	-4857
z	-4858
q	-4859
$	-4860
ा	-4861
Q	-4862
Z	-4863
क	-4864
′	-4865
°	-4866
₹	-4867
र	-4868
े	-4869
‐	-4870
ि	-4871
्	-4872
൦	-4873
🔘	-4874
न	-4875
்	-4876
\	-4877
य	-4878
स	-4879
ब	-4880
व	-4881
⁄	-4882
❤	-4883
>	-4884
म	-4885
ൿ	-4886
⃣	-4887
▪	-4888
द	-4889
ह	-4890
ட	-4891
ഌ	-4892
👉	-4893
}	-4894
ग	-4895
♥	-4896
£	-4897
ډ	-4898
ं	-4899
ए	-4900
त	-4901
थ	-4902
प	-4903
ल	-4904
ी	-4905
❓	-4906
⬛	-4907
︎	-4908
🏻	-4909
🙏	-4910
{	-4911
ڇ	-4912
ڈ	-4913
अ	-4914
औ	-4915
ज	-4916
ट	-4917
ण	-4918
ध	-4919
भ	-4920
श	-4921
ष	-4922
ो	-4923
ौ	-4924
া	-4925
க	-4926
ப	-4927
ம	-4928
ய	-4929
ி	-4930
€	-4931
👌	-4932
👏	-4933
💎	-4934
💚	-4935
🔥	-4936
🔸	-4937
😍	-4938
😘	-4939
🚩	-4940
🤝	-4941
<	-4942
`	-4943
	-4944
¥	-4945
×	-4946
â	-4947
ñ	-4948
आ	-4949
इ	-4950
च	-4951
ठ	-4952
।	-4953
ং	-4954
ব	-4955
ল	-4956
அ	-4957
ஆ	-4958
ச	-4959
ண	-4960
த	-4961
ன	-4962
ல	-4963
வ	-4964
ீ	-4965
ு	-4966
ெ	-4967
ை	-4968
‟	-4969
◼	-4970
◾	-4971
♀	-4972
✌	-4973
✨	-4974
➡	-4975
ブ	-4976
ム	-4977
ラ	-4978
ル	-4979
ー	-4980
南	-4981
容	-4982
湘	-4983
美	-4984
	-4985
🎖	-4986
🐟	-4987
👇	-4988
🖤	-4989
🗃	-4990
😄	-4991
🙄	-4992
🤔	-4993
🤣	-4994
🤦	-4995
🥛	-4996
