{
  "version": "1.0",
  "truncation": null,
  "padding": null,
  "added_tokens": [
    {
      "id": 0,
      "content": "[UNK]",
      "single_word": false,
      "lstrip": false,
      "rstrip": false,
      "normalized": false,
      "special": true
    },
    {
      "id": 1,
      "content": "[CLS]",
      "single_word": false,
      "lstrip": false,
      "rstrip": false,
      "normalized": false,
      "special": true
    },
    {
      "id": 2,
      "content": "[SEP]",
      "single_word": false,
      "lstrip": false,
      "rstrip": false,
      "normalized": false,
      "special": true
    },
    {
      "id": 3,
      "content": "[PAD]",
      "single_word": false,
      "lstrip": false,
      "rstrip": false,
      "normalized": false,
      "special": true
    },
    {
      "id": 4,
      "content": "[MASK]",
      "single_word": false,
      "lstrip": false,
      "rstrip": false,
      "normalized": false,
      "special": true
    }
  ],
  "normalizer": {
    "type": "Sequence",
    "normalizers": [
      {
        "type": "NFKC"
      },
      {
        "type": "Lowercase"
      }
    ]
  },
  "pre_tokenizer": {
    "type": "Whitespace"
  },
  "post_processor": null,
  "decoder": {
    "type": "WordPiece",
    "prefix": "##",
    "cleanup": true
  },
  "model": {
    "type": "WordPiece",
    "unk_token": "[UNK]",
    "continuing_subword_prefix": "##",
    "max_input_chars_per_word": 100,
    "vocab": {
      "[UNK]": 0,
      "[CLS]": 1,
      "[SEP]": 2,
      "[PAD]": 3,
      "[MASK]": 4,
      "!": 5,
      "\"": 6,
      "#": 7,
      "$": 8,
      "%": 9,
      "&": 10,
      "'": 11,
      "(": 12,
      ")": 13,
      "*": 14,
      "+": 15,
      ",": 16,
      "-": 17,
      ".": 18,
      "/": 19,
      "0": 20,
      "1": 21,
      "2": 22,
      "3": 23,
      "4": 24,
      "5": 25,
      "6": 26,
      "7": 27,
      "8": 28,
      "9": 29,
      ":": 30,
      ";": 31,
      "<": 32,
      "=": 33,
      ">": 34,
      "?": 35,
      "@": 36,
      "[": 37,
      "\\": 38,
      "]": 39,
      "_": 40,
      "`": 41,
      "a": 42,
      "b": 43,
      "c": 44,
      "d": 45,
      "e": 46,
      "f": 47,
      "g": 48,
      "h": 49,
      "i": 50,
      "j": 51,
      "k": 52,
      "l": 53,
      "m": 54,
      "n": 55,
      "o": 56,
      "p": 57,
      "q": 58,
      "r": 59,
      "s": 60,
      "t": 61,
      "u": 62,
      "v": 63,
      "w": 64,
      "x": 65,
      "y": 66,
      "z": 67,
      "{": 68,
      "}": 69,
      "": 70,
      "£": 71,
      "¥": 72,
      "°": 73,
      "·": 74,
      "×": 75,
      "â": 76,
      "ñ": 77,
      "ڇ": 78,
      "ڈ": 79,
      "ډ": 80,
      "ं": 81,
      "अ": 82,
      "आ": 83,
      "इ": 84,
      "ए": 85,
      "औ": 86,
      "क": 87,
      "ग": 88,
      "च": 89,
      "ज": 90,
      "ट": 91,
      "ठ": 92,
      "ण": 93,
      "त": 94,
      "थ": 95,
      "द": 96,
      "ध": 97,
      "न": 98,
      "प": 99,
      "ब": 100,
      "भ": 101,
      "म": 102,
      "य": 103,
      "र": 104,
      "ल": 105,
      "व": 106,
      "श": 107,
      "ष": 108,
      "स": 109,
      "ह": 110,
      "ा": 111,
      "ि": 112,
      "ी": 113,
      "े": 114,
      "ो": 115,
      "ौ": 116,
      "्": 117,
      "।": 118,
      "ং": 119,
      "ব": 120,
      "ল": 121,
      "া": 122,
      "அ": 123,
      "ஆ": 124,
      "க": 125,
      "ச": 126,
      "ட": 127,
      "ண": 128,
      "த": 129,
      "ன": 130,
      "ப": 131,
      "ம": 132,
      "ய": 133,
      "ல": 134,
      "வ": 135,
      "ி": 136,
      "ீ": 137,
      "ு": 138,
      "ெ": 139,
      "ை": 140,
      "்": 141,
      "ം": 142,
      "ഃ": 143,
      "അ": 144,
      "ആ": 145,
      "ഇ": 146,
      "ഈ": 147,
      "ഉ": 148,
      "ഊ": 149,
      "ഋ": 150,
      "ഌ": 151,
      "എ": 152,
      "ഏ": 153,
      "ഐ": 154,
      "ഒ": 155,
      "ഓ": 156,
      "ഔ": 157,
      "ക": 158,
      "ഖ": 159,
      "ഗ": 160,
      "ഘ": 161,
      "ങ": 162,
      "ച": 163,
      "ഛ": 164,
      "ജ": 165,
      "ഝ": 166,
      "ഞ": 167,
      "ട": 168,
      "ഠ": 169,
      "ഡ": 170,
      "ഢ": 171,
      "ണ": 172,
      "ത": 173,
      "ഥ": 174,
      "ദ": 175,
      "ധ": 176,
      "ന": 177,
      "പ": 178,
      "ഫ": 179,
      "ബ": 180,
      "ഭ": 181,
      "മ": 182,
      "യ": 183,
      "ര": 184,
      "റ": 185,
      "ല": 186,
      "ള": 187,
      "ഴ": 188,
      "വ": 189,
      "ശ": 190,
      "ഷ": 191,
      "സ": 192,
      "ഹ": 193,
      "ാ": 194,
      "ി": 195,
      "ീ": 196,
      "ു": 197,
      "ൂ": 198,
      "ൃ": 199,
      "െ": 200,
      "േ": 201,
      "ൈ": 202,
      "ൊ": 203,
      "ോ": 204,
      "ൌ": 205,
      "്": 206,
      "ൗ": 207,
      "ൡ": 208,
      "൦": 209,
      "൪": 210,
      "൯": 211,
      "ൺ": 212,
      "ൻ": 213,
      "ർ": 214,
      "ൽ": 215,
      "ൾ": 216,
      "ൿ": 217,
      "‌": 218,
      "‍": 219,
      "‐": 220,
      "‟": 221,
      "•": 222,
      "′": 223,
      "⁄": 224,
      "€": 225,
      "₹": 226,
      "⃣": 227,
      "∙": 228,
      "▪": 229,
      "◼": 230,
      "◾": 231,
      "♀": 232,
      "♥": 233,
      "✌": 234,
      "✨": 235,
      "❓": 236,
      "❤": 237,
      "➡": 238,
      "⬛": 239,
      "ブ": 240,
      "ム": 241,
      "ラ": 242,
      "ル": 243,
      "ー": 244,
      "南": 245,
      "容": 246,
      "湘": 247,
      "美": 248,
      "": 249,
      "︎": 250,
      "️": 251,
      "🌹": 252,
      "🎖": 253,
      "🏻": 254,
      "🐟": 255,
      "👇": 256,
      "👉": 257,
      "👌": 258,
      "👏": 259,
      "💎": 260,
      "💚": 261,
      "🔘": 262,
      "🔥": 263,
      "🔸": 264,
      "🖤": 265,
      "🗃": 266,
      "😄": 267,
      "😍": 268,
      "😘": 269,
      "🙄": 270,
      "🙏": 271,
      "🚩": 272,
      "🤔": 273,
      "🤝": 274,
      "🤣": 275,
      "🤦": 276,
      "🥛": 277,
      "🥦": 278,
      "##ാ": 279,
      "##ള": 280,
      "##ണ": 281,
      "##്": 282,
      "##n": 283,
      "##e": 284,
      "##s": 285,
      "##യ": 286,
      "##ി": 287,
      "##ല": 288,
      "##ശ": 289,
      "##സ": 290,
      "##റ": 291,
      "##o": 292,
      "##d": 293,
      "##l": 294,
      "##a": 295,
      "##i": 296,
      "##1": 297,
      "##7": 298,
      "##വ": 299,
      "##6": 300,
      "##9": 301,
      "##ட": 302,
      "##ൗ": 303,
      "##ഹ": 304,
      "##x": 305,
      "##c": 306,
      "##ര": 307,
      "##ക": 308,
      "##െ": 309,
      "##േ": 310,
      "##.": 311,
      "##)": 312,
      "##ു": 313,
      "##മ": 314,
      "##3": 315,
      "##ഐ": 316,
      "##m": 317,
      "##2": 318,
      "##5": 319,
      "##ട": 320,
      "##ജ": 321,
      "##k": 322,
      "##h": 323,
      "##?": 324,
      "##r": 325,
      "##f": 326,
      "##ീ": 327,
      "##ൂ": 328,
      "##t": 329,
      "##ത": 330,
      "##ന": 331,
      "##ബ": 332,
      "##ോ": 333,
      "##ർ": 334,
      "##ൽ": 335,
      "##ൊ": 336,
      "##ൾ": 337,
      "##p": 338,
      "##g": 339,
      "##4": 340,
      "##പ": 341,
      "##ം": 342,
      "##ങ": 343,
      "##ധ": 344,
      "##ദ": 345,
      "##ൈ": 346,
      "##ഗ": 347,
      "##എ": 348,
      "##ൺ": 349,
      "##0": 350,
      "##ഫ": 351,
      "##u": 352,
      "##b": 353,
      "##ഭ": 354,
      "##ൻ": 355,
      "##ഴ": 356,
      "##ച": 357,
      "##ഷ": 358,
      "##y": 359,
      "##ഖ": 360,
      "##ഃ": 361,
      "##8": 362,
      "##v": 363,
      "##ഥ": 364,
      "##ഡ": 365,
      "##ഒ": 366,
      "##w": 367,
      "##‌": 368,
      "##ൃ": 369,
      "##j": 370,
      "##!": 371,
      "##z": 372,
      "##‍": 373,
      "##ഇ": 374,
      "##q": 375,
      "##൪": 376,
      "##ഞ": 377,
      "##ौ": 378,
      "##र": 379,
      "##\"": 380,
      "##ആ": 381,
      "##ഘ": 382,
      "##ഠ": 383,
      "##,": 384,
      "##ൌ": 385,
      "##ा": 386,
      "##थ": 387,
      "##ഉ": 388,
      "##-": 389,
      "##ഢ": 390,
      "##[": 391,
      "##ठ": 392,
      "##ब": 393,
      "##′": 394,
      "##े": 395,
      "##ഛ": 396,
      "##:": 397,
      "##ഋ": 398,
      "##൯": 399,
      "##'": 400,
      "##ഈ": 401,
      "##_": 402,
      "##അ": 403,
      "##ഓ": 404,
      "##ल": 405,
      "##व": 406,
      "##श": 407,
      "##ഌ": 408,
      "##>": 409,
      "##प": 410,
      "##न": 411,
      "##ഊ": 412,
      "##😘": 413,
      "##ண": 414,
      "##ि": 415,
      "##ൡ": 416,
      "##ー": 417,
      "##ム": 418,
      "##ブ": 419,
      "##ラ": 420,
      "##🤝": 421,
      "##ण": 422,
      "##🐟": 423,
      "##ं": 424,
      "##💎": 425,
      "##😍": 426,
      "##स": 427,
      "##ए": 428,
      "##த": 429,
      "##;": 430,
      "##क": 431,
      "##🏻": 432,
      "##त": 433,
      "##द": 434,
      "##ज": 435,
      "##ப": 436,
      "##य": 437,
      "##म": 438,
      "##ഝ": 439,
      "##ഏ": 440,
      "##👌": 441,
      "##南": 442,
      "##美": 443,
      "##容": 444,
      "##ह": 445,
      "##भ": 446,
      "##ñ": 447,
      "##$": 448,
      "##ന്": 449,
      "##്ക": 450,
      "##ന്ന": 451,
      "##്ത": 452,
      "##്ട": 453,
      "ക്ക": 454,
      "##്ര": 455,
      "ത്ത": 456,
      "##ില": 457,
      "##്ച": 458,
      "##ക്ക": 459,
      "##്പ": 460,
      "##്യ": 461,
      "ുന്ന": 462,
      "##ണ്": 463,
      "ും": 464,
      "##ല്": 465,
      "##ര്": 466,
      "##്റ": 467,
      "##ും": 468,
      "##ത്ത": 469,
      "##്ങ": 470,
      "##യി": 471,
      "പ്പ": 472,
      "##ണ്ട": 473,
      "##ട്ട": 474,
      "മാ": 475,
      "ച്ച": 476,
      "ന്": 477,
      "##ടെ": 478,
      "##ിന": 479,
      "##ള്": 480,
      "ങ്ങ": 481,
      "നി": 482,
      "വി": 483,
      "ുക": 484,
      "പ്ര": 485,
      "ില": 486,
      "##സ്": 487,
      "##ാര": 488,
      "ത്": 489,
      "##തി": 490,
      "##ച്ച": 491,
      "##ല്ല": 492,
      "##രു": 493,
      "ുന്നു": 494,
      "##റ്റ": 495,
      "##ക്": 496,
      "മു": 497,
      "യു": 498,
      "ാണ്": 499,
      "െന്ന": 500,
      "##ിയ": 501,
      "യാ": 502,
      "##ള്ള": 503,
      "##രി": 504,
      "യില": 505,
      "ിക്ക": 506,
      "തി": 507,
      "##ഞ്": 508,
      "്ര": 509,
      "ാന": 510,
      "##മാ": 511,
      "സ്": 512,
      "##െട": 513,
      "ങ്ങള": 514,
      "##പ്പ": 515,
      "##റെ": 516,
      "##ത്ര": 517,
      "ത്തില": 518,
      "ര്": 519,
      "എന്ന": 520,
      "ിയ": 521,
      "്യ": 522,
      "യി": 523,
      "##ക്ഷ": 524,
      "ിന": 525,
      "##ഞ്ഞ": 526,
      "സം": 527,
      "ചെ": 528,
      "ട്ട": 529,
      "രാ": 530,
      "കോ": 531,
      "##ത്": 532,
      "പറ": 533,
      "ക്ക്": 534,
      "കു": 535,
      "ിര": 536,
      "നട": 537,
      "ുള്ള": 538,
      "ത്തിന": 539,
      "##ങ്ങ": 540,
      "##യിര": 541,
      "്ട": 542,
      "##വി": 543,
      "ിച്ച": 544,
      "നേ": 545,
      "കള": 546,
      "പോ": 547,
      "പ്പെട": 548,
      "ുണ്ട": 549,
      "##ദേ": 550,
      "ില്ല": 551,
      "കേ": 552,
      "ചെയ": 553,
      "ന്ന": 554,
      "##്ല": 555,
      "ുന്നത": 556,
      "##ടി": 557,
      "ദ്": 558,
      "ിൽ": 559,
      "യും": 560,
      "റ്റ": 561,
      "##ാണ": 562,
      "പി": 563,
      "ന്ത": 564,
      "സി": 565,
      "ിട്ട": 566,
      "ത്തി": 567,
      "വര": 568,
      "വാ": 569,
      "##ാന": 570,
      "യുടെ": 571,
      "ിന്": 572,
      "പാ": 573,
      "##്മ": 574,
      "##ങ്ക": 575,
      "ടു": 576,
      "കൊ": 577,
      "സമ": 578,
      "##ോഗ": 579,
      "സാ": 580,
      "്റെ": 581,
      "നിന്ന": 582,
      "ുമ": 583,
      "##ിക": 584,
      "പേ": 585,
      "സ്വ": 586,
      "്ത്ര": 587,
      "##്യാ": 588,
      "രി": 589,
      "ഗ്ര": 590,
      "ഒരു": 591,
      "താ": 592,
      "തു": 593,
      "പറഞ്ഞ": 594,
      "ുണ്ട്": 595,
      "ാന്": 596,
      "ുകള": 597,
      "##റി": 598,
      "വെ": 599,
      "പു": 600,
      "മന": 601,
      "യെ": 602,
      "ില്": 603,
      "നാ": 604,
      "കാര": 605,
      "േക്ക": 606,
      "ണ്ട": 607,
      "ുകയ": 608,
      "ബി": 609,
      "##സ്ഥ": 610,
      "്ത്രി": 611,
      "ത്തെ": 612,
      "##ന്ന്": 613,
      "കാ": 614,
      "ന്ദ": 615,
      "ായ": 616,
      "ുടെ": 617,
      "##രെ": 618,
      "അത": 619,
      "ക്കാര": 620,
      "യാണ്": 621,
      "##ക്ത": 622,
      "ക്": 623,
      "##ഭി": 624,
      "രാജ": 625,
      "ിക": 626,
      "തിന": 627,
      "##താ": 628,
      "##ിവ": 629,
      "##രണ": 630,
      "##രാ": 631,
      "##ീസ": 632,
      "ദ്ദേ": 633,
      "##ംഗ": 634,
      "അവ": 635,
      "ന്ദ്ര": 636,
      "കൂ": 637,
      "തെ": 638,
      "##ട്": 639,
      "##ധി": 640,
      "റി": 641,
      "രു": 642,
      "ിന്റെ": 643,
      "ുറ": 644,
      "##ണി": 645,
      "ചെയ്ത": 646,
      "##ന്നെ": 647,
      "ാല": 648,
      "ായി": 649,
      "ായിര": 650,
      "യിൽ": 651,
      "ടുത്ത": 652,
      "##ന്ത": 653,
      "നടത്ത": 654,
      "തന്നെ": 655,
      "ചെയ്യ": 656,
      "കെ": 657,
      "സ്ഥ": 658,
      "##ില്ല": 659,
      "തീ": 660,
      "വീ": 661,
      "പ്പോ": 662,
      "േക്ക്": 663,
      "മാണ്": 664,
      "##ുക": 665,
      "ത്തിൽ": 666,
      "ഇത": 667,
      "പറയ": 668,
      "യില്": 669,
      "##പി": 670,
      "തുട": 671,
      "വും": 672,
      "##ളി": 673,
      "##്റ്റ": 674,
      "##മ്മ": 675,
      "##നി": 676,
      "യ്ക": 677,
      "യ്ക്ക": 678,
      "ഴി": 679,
      "##രം": 680,
      "നില": 681,
      "ാൻ": 682,
      "ണ്": 683,
      "നിയ": 684,
      "##ധ്യ": 685,
      "പോല": 686,
      "രോഗ": 687,
      "സ്റ്റ": 688,
      "എം": 689,
      "ങ്ങൾ": 690,
      "ടി": 691,
      "വേ": 692,
      "ദ്ദേഹ": 693,
      "ുമാ": 694,
      "##െടു": 695,
      "ാല്": 696,
      "തിര": 697,
      "നല്": 698,
      "സംസ്ഥ": 699,
      "േണ്ട": 700,
      "മെ": 701,
      "##ദ്യ": 702,
      "##്രമ": 703,
      "##കര": 704,
      "##ന്ധ": 705,
      "ത്ത്": 706,
      "##രള": 707,
      "മുഖ": 708,
      "##സി": 709,
      "ബാ": 710,
      "െങ്ക": 711,
      "ട്ടി": 712,
      "ുകയാണ": 713,
      "ഞെടു": 714,
      "##ന്റ": 715,
      "ുത്ത": 716,
      "രൂ": 717,
      "ക്കാ": 718,
      "കോണ്": 719,
      "ക്ഷ": 720,
      "##ുമ": 721,
      "സര്": 722,
      "ത്ര": 723,
      "ഉണ്ട": 724,
      "##ശ്യ": 725,
      "കാര്യ": 726,
      "##േഷ": 727,
      "##ായ": 728,
      "ഴിഞ്ഞ": 729,
      "##േശ": 730,
      "ന്ത്യ": 731,
      "ജന": 732,
      "ഡി": 733,
      "ക്കും": 734,
      "മ്പ": 735,
      "##വര": 736,
      "്യക്ത": 737,
      "##വാ": 738,
      "ഭാ": 739,
      "മേ": 740,
      "കേരള": 741,
      "രണ്ട": 742,
      "്പ": 743,
      "##ജെ": 744,
      "##ിര": 745,
      "ാവ": 746,
      "നേതാ": 747,
      "ിനെ": 748,
      "##ടു": 749,
      "്രതി": 750,
      "##ില്": 751,
      "ബിജെ": 752,
      "ബിജെപ": 753,
      "ിപ്പ": 754,
      "##ല്ലാ": 755,
      "ാക്ക": 756,
      "##കരി": 757,
      "്ഥ": 758,
      "പൊ": 759,
      "മായ": 760,
      "സു": 761,
      "ല്ല": 762,
      "പക്ഷ": 763,
      "വല": 764,
      "തോ": 765,
      "ഗ്രസ്": 766,
      "ള്": 767,
      "##ദി": 768,
      "തിരഞ്": 769,
      "രൂപ": 770,
      "##ഡി": 771,
      "##മ്പ": 772,
      "അതേ": 773,
      "##ോധ": 774,
      "##ാട": 775,
      "ലോ": 776,
      "എത്ത": 777,
      "##വര്": 778,
      "കണ്ട": 779,
      "ോട": 780,
      "എസ്": 781,
      "യായിര": 782,
      "ല്": 783,
      "യിലെ": 784,
      "ദിവ": 785,
      "വര്": 786,
      "സംഘ": 787,
      "പ്പ്": 788,
      "യോ": 789,
      "ിന്ന": 790,
      "വർ": 791,
      "മ്മ": 792,
      "##വിഡ": 793,
      "സീ": 794,
      "ലഭി": 795,
      "ദ്ധ": 796,
      "ാണ": 797,
      "നിര്": 798,
      "രാജ്യ": 799,
      "##ഷ്ട": 800,
      "##ട്ടി": 801,
      "ക്കള": 802,
      "വൈ": 803,
      "വന്ന": 804,
      "ദിവസ": 805,
      "ബന്ധ": 806,
      "##്വ": 807,
      "ശേഷ": 808,
      "ുകയും": 809,
      "നിര": 810,
      "##സമ": 811,
      "##ര്യ": 812,
      "ഇട": 813,
      "##മാന": 814,
      "##ണ്ണ": 815,
      "വിജ": 816,
      "മുന്ന": 817,
      "നിയമ": 818,
      "ുകൾ": 819,
      "ട്ര": 820,
      "##ദ്": 821,
      "ാത്ത": 822,
      "ആവ": 823,
      "യം": 824,
      "െതി": 825,
      "കൾ": 826,
      "ലക്ഷ": 827,
      "ജില്ല": 828,
      "അതേസമ": 829,
      "മുഖ്യ": 830,
      "ശി": 831,
      "##ോട്ട": 832,
      "##ീയ": 833,
      "സ്വദേ": 834,
      "പേര്": 835,
      "ദേശ": 836,
      "ുറത്ത": 837,
      "അന": 838,
      "ആവശ്യ": 839,
      "ിലും": 840,
      "##തെ": 841,
      "##ലി": 842,
      "ത്വ": 843,
      "ന്റ": 844,
      "##രോ": 845,
      "സർ": 846,
      "മറ്റ": 847,
      "ീകരി": 848,
      "തെന്ന": 849,
      "ജോ": 850,
      "പരി": 851,
      "ുട": 852,
      "ജീ": 853,
      "##്യാപ": 854,
      "സഭ": 855,
      "എന്": 856,
      "ആശ": 857,
      "ഞ്": 858,
      "##പടി": 859,
      "##ഴി": 860,
      "##ഞ്ച": 861,
      "റിപ്പ": 862,
      "പൂ": 863,
      "##ായി": 864,
      "ംബ": 865,
      "ലി": 866,
      "എന്ന്": 867,
      "ാം": 868,
      "##യും": 869,
      "ടുക്ക": 870,
      "ോര്": 871,
      "ണമ": 872,
      "ജി": 873,
      "െത്ത": 874,
      "ഇത്": 875,
      "##ുടെ": 876,
      "വലിയ": 877,
      "എല്ലാ": 878,
      "പേര": 879,
      "സഹ": 880,
      "നൽ": 881,
      "പാര്": 882,
      "ോടതി": 883,
      "യോഗ": 884,
      "ഞ്ച": 885,
      "##രുമ": 886,
      "പോലീസ": 887,
      "ചോ": 888,
      "##മി": 889,
      "കാണ": 890,
      "സംഭ": 891,
      "ഉപ": 892,
      "െതിരെ": 893,
      "ാർ": 894,
      "പരാ": 895,
      "ങ്ക": 896,
      "##ത്യ": 897,
      "ണം": 898,
      "ചി": 899,
      "ക്കി": 900,
      "തിരു": 901,
      "നൽക": 902,
      "യാണ": 903,
      "നീ": 904,
      "ോട്ട": 905,
      "ഉണ്ടാ": 906,
      "അറി": 907,
      "അറിയി": 908,
      "യുള്ള": 909,
      "##ണം": 910,
      "മായി": 911,
      "അറ": 912,
      "##തു": 913,
      "##ഷ്": 914,
      "്രവര്": 915,
      "##തല": 916,
      "മാത്ര": 917,
      "##ാല": 918,
      "ന്ന്": 919,
      "ംഗ": 920,
      "രീ": 921,
      "ുകള്": 922,
      "ച്ച്": 923,
      "തിരി": 924,
      "സീറ്റ": 925,
      "ിട": 926,
      "മി": 927,
      "ഭാഗ": 928,
      "ക്കു": 929,
      "ഗ്രസ": 930,
      "ധിക": 931,
      "##ദേശ": 932,
      "ന്നാ": 933,
      "മോ": 934,
      "ചേ": 935,
      "ണ്ട്": 936,
      "##യാ": 937,
      "പെ": 938,
      "##ുകള": 939,
      "വരെ": 940,
      "്റ്റ": 941,
      "വിശ": 942,
      "യിര": 943,
      "ികള": 944,
      "ൂടു": 945,
      "ഏറ്റ": 946,
      "ങ്ങന": 947,
      "ച്ചു": 948,
      "##ിനി": 949,
      "വില": 950,
      "##വേ": 951,
      "ുമായി": 952,
      "ശക്ത": 953,
      "അഭി": 954,
      "##ടന": 955,
      "പ്പോള": 956,
      "അനു": 957,
      "##വർ": 958,
      "ങ്ങനെ": 959,
      "്വ": 960,
      "##ോട": 961,
      "റെ": 962,
      "പിടി": 963,
      "േണ്ടി": 964,
      "രിശ": 965,
      "തിരുവ": 966,
      "ോള": 967,
      "തീരുമ": 968,
      "യൂ": 969,
      "വയ": 970,
      "ത്രി": 971,
      "അത്": 972,
      "ാതെ": 973,
      "രിശോധ": 974,
      "വോട്ട": 975,
      "ടക്ക": 976,
      "ാഗ": 977,
      "സ്ഥാന": 978,
      "പങ്ക": 979,
      "അന്": 980,
      "്പോ": 981,
      "##ാണ്": 982,
      "കി": 983,
      "ിത": 984,
      "ള്ള": 985,
      "നടപടി": 986,
      "ത്തന": 987,
      "ക്രമ": 988,
      "ിലെ": 989,
      "##ിത": 990,
      "മുണ്ട": 991,
      "കൈ": 992,
      "ുര": 993,
      "ജെ": 994,
      "##ങ്ങള": 995,
      "##ടിയ": 996,
      "ഡോ": 997,
      "##മായ": 998,
      "##ീപ": 999,
      "മാര": 1000,
      "##ചര": 1001,
      "രാഷ്ട": 1002,
      "പോക": 1003,
      "കോൺ": 1004,
      "ശ്രമ": 1005,
      "രണ്ട്": 1006,
      "##തിയ": 1007,
      "നേത": 1008,
      "സൂ": 1009,
      "##ുപ": 1010,
      "്ട്": 1011,
      "ിൻ": 1012,
      "ഇന്ന്": 1013,
      "നേതൃ": 1014,
      "ിറ്റ": 1015,
      "ാറ്റ": 1016,
      "പുതിയ": 1017,
      "നേര": 1018,
      "ശേഷം": 1019,
      "ഞ്ഞ": 1020,
      "ത്ഥ": 1021,
      "വെന്ന": 1022,
      "നന്ത": 1023,
      "സമയ": 1024,
      "അന്വേ": 1025,
      "ക്ര": 1026,
      "ിച്ച്": 1027,
      "##ഴ്": 1028,
      "##യില": 1029,
      "തൊ": 1030,
      "നടക്ക": 1031,
      "പല": 1032,
      "ൊരു": 1033,
      "##ക്ക്": 1034,
      "നിർ": 1035,
      "ഞാ": 1036,
      "ഓഫ": 1037,
      "ആര്": 1038,
      "സാഹ": 1039,
      "##ുംബ": 1040,
      "കള്": 1041,
      "ആശുപ": 1042,
      "കിയ": 1043,
      "ഭരണ": 1044,
      "്ഥിര": 1045,
      "പര": 1046,
      "മുത": 1047,
      "നടന്ന": 1048,
      "ക്കാർ": 1049,
      "ആണ്": 1050,
      "കുപ്പ": 1051,
      "ുള്ളത": 1052,
      "കാല": 1053,
      "വെച്ച": 1054,
      "മണി": 1055,
      "നു": 1056,
      "വിഷ": 1057,
      "ാത്ര": 1058,
      "ആരോ": 1059,
      "രോഗ്യ": 1060,
      "മണ്": 1061,
      "യായ": 1062,
      "്രീയ": 1063,
      "താണ്": 1064,
      "##വിധ": 1065,
      "നേതാവ": 1066,
      "്ല": 1067,
      "ങ്ങള്": 1068,
      "സെ": 1069,
      "കളില": 1070,
      "വിജയ": 1071,
      "ഏറ്റവ": 1072,
      "ആദ്യ": 1073,
      "കുറി": 1074,
      "തല": 1075,
      "ുവ": 1076,
      "ഷണ": 1077,
      "ിംഗ": 1078,
      "##ീകര": 1079,
      "##വിടെ": 1080,
      "കണ്ണ": 1081,
      "ശത": 1082,
      "സൗ": 1083,
      "ാധ": 1084,
      "കൂടി": 1085,
      "##വണ": 1086,
      "കൂട്ട": 1087,
      "ഖ്യാപ": 1088,
      "##പാട": 1089,
      "പുരം": 1090,
      "സംഭവ": 1091,
      "ിദ": 1092,
      "##ൈന": 1093,
      "ചില": 1094,
      "##പ്": 1095,
      "ക്കിയ": 1096,
      "മണ്ഡ": 1097,
      "##ദ്ധ": 1098,
      "##ഷ്യ": 1099,
      "പ്രവർ": 1100,
      "##സരി": 1101,
      "##സര": 1102,
      "തിക": 1103,
      "ണി": 1104,
      "##ോട്": 1105,
      "പാർ": 1106,
      "കൊവിഡ": 1107,
      "റ്റ്": 1108,
      "ീഡ": 1109,
      "മേഖ": 1110,
      "കേസ": 1111,
      "##ത്തര": 1112,
      "വിഭ": 1113,
      "മാറ്റ": 1114,
      "പ്രസ": 1115,
      "മേഖല": 1116,
      "കണ്ടെ": 1117,
      "മണ്ഡല": 1118,
      "##വന": 1119,
      "##ിൽ": 1120,
      "്ക": 1121,
      "മൊ": 1122,
      "വള": 1123,
      "കൃ": 1124,
      "ഷ്ട": 1125,
      "ാര": 1126,
      "സാഹചര": 1127,
      "##ക്ട": 1128,
      "ഗു": 1129,
      "യുണ്ട": 1130,
      "കോവിഡ": 1131,
      "ഴ്ച": 1132,
      "നെ": 1133,
      "ാക": 1134,
      "##ന്ദ": 1135,
      "ിപ്പി": 1136,
      "ഉയ": 1137,
      "ിദ്യാ": 1138,
      "റാ": 1139,
      "പ്പോഴ": 1140,
      "##ജി": 1141,
      "ിവ": 1142,
      "െയ": 1143,
      "മാക്ക": 1144,
      "കോടി": 1145,
      "തോടെ": 1146,
      "ചിത്ര": 1147,
      "സാധ്യ": 1148,
      "ഗോ": 1149,
      "ിനി": 1150,
      "സാധി": 1151,
      "പൊല": 1152,
      "ുണ്ടാ": 1153,
      "വരു": 1154,
      "ൂടുതല": 1155,
      "മൂ": 1156,
      "ശതമാന": 1157,
      "പൊലീസ": 1158,
      "##ാപ": 1159,
      "്സ": 1160,
      "യെന്ന": 1161,
      "ഫോ": 1162,
      "ജീവി": 1163,
      "##ഴിയ": 1164,
      "##േഖ": 1165,
      "ജ്": 1166,
      "ട്ടറി": 1167,
      "##ഹു": 1168,
      "മാസ": 1169,
      "ദ്ധതി": 1170,
      "പരാതി": 1171,
      "വിവാ": 1172,
      "തുടര്": 1173,
      "തും": 1174,
      "##രിട": 1175,
      "ില്ലാ": 1176,
      "ന്യ": 1177,
      "ഹി": 1178,
      "്രദേശ": 1179,
      "ാനി": 1180,
      "വിഭാ": 1181,
      "കട": 1182,
      "ദ്ദേശ": 1183,
      "യാത്ര": 1184,
      "ന്റെ": 1185,
      "ീഡിയ": 1186,
      "വരുടെ": 1187,
      "ത്യ": 1188,
      "വു": 1189,
      "രാഹു": 1190,
      "ാര്യ": 1191,
      "െത്തി": 1192,
      "വിഭാഗ": 1193,
      "##തിന്": 1194,
      "##ശ്": 1195,
      "ന്നാൽ": 1196,
      "##ത്ഥ": 1197,
      "നേരിട": 1198,
      "റോ": 1199,
      "##ിലെ": 1200,
      "##മാര": 1201,
      "നിങ്ങ": 1202,
      "ഉറ": 1203,
      "വഴി": 1204,
      "്യൂ": 1205,
      "തായി": 1206,
      "ആള": 1207,
      "കഴിയ": 1208,
      "തൃ": 1209,
      "##ാരണ": 1210,
      "ുട്ടി": 1211,
      "്ടു": 1212,
      "പ്പില": 1213,
      "ണ്ണ": 1214,
      "ഹാ": 1215,
      "ശ്ര": 1216,
      "കര്": 1217,
      "ുടുംബ": 1218,
      "തയ": 1219,
      "രുത്ത": 1220,
      "ജനങ്ങ": 1221,
      "വാക്": 1222,
      "രംഗ": 1223,
      "യുമാ": 1224,
      "ോർ": 1225,
      "അധ്യ": 1226,
      "ദു": 1227,
      "ഷന": 1228,
      "കണ": 1229,
      "ുള": 1230,
      "ാര്": 1231,
      "ങ്ങിയ": 1232,
      "വീട്ട": 1233,
      "ിപി": 1234,
      "മല": 1235,
      "മല്ല": 1236,
      "##വരെ": 1237,
      "നിലവ": 1238,
      "ഭൂ": 1239,
      "##യോഗ": 1240,
      "എല്": 1241,
      "മുന്": 1242,
      "ണ്ടു": 1243,
      "മുള്ള": 1244,
      "##ഷേ": 1245,
      "ൊക്ക": 1246,
      "ാധ്യ": 1247,
      "വിന": 1248,
      "മാറ": 1249,
      "ടെ": 1250,
      "##ഷേധ": 1251,
      "ശ്": 1252,
      "സേ": 1253,
      "ൂടെ": 1254,
      "##ശി": 1255,
      "##മേ": 1256,
      "##രേ": 1257,
      "േണ്ടത": 1258,
      "്വീകര": 1259,
      "റു": 1260,
      "##ഭ്യ": 1261,
      "##ക്ര": 1262,
      "ബ്": 1263,
      "ഇക്ക": 1264,
      "ന്തു": 1265,
      "ാള": 1266,
      "യേ": 1267,
      "ിസ": 1268,
      "##ഴ്ച": 1269,
      "തില": 1270,
      "താര": 1271,
      "ഹൈ": 1272,
      "കണ്ണൂ": 1273,
      "ിഡ": 1274,
      "മെന്റ": 1275,
      "ിറ": 1276,
      "പോയ": 1277,
      "ക്ഷേ": 1278,
      "ഇല്ല": 1279,
      "അംഗ": 1280,
      "നോ": 1281,
      "മില്ല": 1282,
      "ൂന്ന്": 1283,
      "ുകളില": 1284,
      "ഫല": 1285,
      "ജോലി": 1286,
      "പ്പോൾ": 1287,
      "ാലെ": 1288,
      "ലാ": 1289,
      "##മന": 1290,
      "പേക്ഷ": 1291,
      "ഉപയോഗ": 1292,
      "ിവര": 1293,
      "ഉറപ്പ": 1294,
      "##തിര": 1295,
      "െക്ര": 1296,
      "രിക്ക": 1297,
      "ാസ": 1298,
      "ചോദ്യ": 1299,
      "ത്സരി": 1300,
      "ാമ": 1301,
      "ക്കാന": 1302,
      "സിനി": 1303,
      "വിളി": 1304,
      "ോർട്ട": 1305,
      "ആയിര": 1306,
      "മത്": 1307,
      "കുറ": 1308,
      "##ഗ്": 1309,
      "##ഹന": 1310,
      "ാന്ധ": 1311,
      "സിനിമ": 1312,
      "ഭാര": 1313,
      "ധാന": 1314,
      "രോഗം": 1315,
      "വാര്": 1316,
      "രക്ഷ": 1317,
      "എണ്ണ": 1318,
      "ളുടെ": 1319,
      "ഉള്ള": 1320,
      "ാൽ": 1321,
      "ബ്ര": 1322,
      "മരണ": 1323,
      "##ിതി": 1324,
      "ഓഫീസ": 1325,
      "റിയ": 1326,
      "നും": 1327,
      "പ്പു": 1328,
      "##സാന": 1329,
      "വാദ": 1330,
      "തൊഴ": 1331,
      "കോഴ": 1332,
      "ൊക്കെ": 1333,
      "ഉള്": 1334,
      "##ക്ഷണ": 1335,
      "അഞ്ച": 1336,
      "ചിക": 1337,
      "യ്": 1338,
      "മഹ": 1339,
      "പോലും": 1340,
      "ന്തുണ": 1341,
      "##സ്സ": 1342,
      "ോദി": 1343,
      "ാധ്യമ": 1344,
      "യർ": 1345,
      "കര": 1346,
      "ഫ്": 1347,
      "തയ്യാ": 1348,
      "റ്റി": 1349,
      "ാനാ": 1350,
      "ശ്രീ": 1351,
      "##ധാന": 1352,
      "ഒന്ന": 1353,
      "##എം": 1354,
      "്രധാന": 1355,
      "ംബന്ധ": 1356,
      "അറിയ": 1357,
      "എത്തി": 1358,
      "ധാനമന": 1359,
      "വിട": 1360,
      "വിഷയ": 1361,
      "പ്രായ": 1362,
      "നായ": 1363,
      "ഇവിടെ": 1364,
      "്ത്രീ": 1365,
      "സ്ത": 1366,
      "ത്തോട": 1367,
      "നീക്ക": 1368,
      "നഗ": 1369,
      "അവര്": 1370,
      "രാഹുല": 1371,
      "##കള": 1372,
      "ുകാര": 1373,
      "##ാമ": 1374,
      "മായിര": 1375,
      "വ്യാപ": 1376,
      "##കട": 1377,
      "ചര്": 1378,
      "വിമ": 1379,
      "ത്യേ": 1380,
      "ശ്രമി": 1381,
      "ജീവിത": 1382,
      "യ്യ": 1383,
      "മരി": 1384,
      "ചികിത": 1385,
      "##ീഷ": 1386,
      "ക്കൂ": 1387,
      "തുടര": 1388,
      "ാറ": 1389,
      "യുഡി": 1390,
      "സാമ്പ": 1391,
      "യുഡിഎ": 1392,
      "ലൈ": 1393,
      "ലോക": 1394,
      "െല്ലാ": 1395,
      "തിഷേധ": 1396,
      "നമ്മ": 1397,
      "പങ്കെ": 1398,
      "വിശ്വ": 1399,
      "മുതല്": 1400,
      "കമ്മ": 1401,
      "ശന": 1402,
      "ന്ത്ര": 1403,
      "തന്": 1404,
      "കണക്ക": 1405,
      "ുധ": 1406,
      "സഭാ": 1407,
      "ത്യേക": 1408,
      "വരും": 1409,
      "##രുത": 1410,
      "കുറ്റ": 1411,
      "ദ്ദ": 1412,
      "്ത": 1413,
      "വിമാന": 1414,
      "പൊതു": 1415,
      "യായി": 1416,
      "പൂര്": 1417,
      "തീക്ഷ": 1418,
      "ആർ": 1419,
      "ിംഗ്": 1420,
      "ുളള": 1421,
      "വുമ": 1422,
      "പഞ്ച": 1423,
      "ത്തു": 1424,
      "ചോദി": 1425,
      "കോഴിക": 1426,
      "വാങ്ങ": 1427,
      "ലു": 1428,
      "ൊപ്പ": 1429,
      "ഇതിന": 1430,
      "െടെ": 1431,
      "##േജ": 1432,
      "##ൂഹ": 1433,
      "ന്തര": 1434,
      "ഉദ്യ": 1435,
      "ശക്തമ": 1436,
      "10": 1437,
      "ോട്": 1438,
      "ആരം": 1439,
      "സംഘടന": 1440,
      "##വിട": 1441,
      "##കാ": 1442,
      "വെള്ള": 1443,
      "നില്": 1444,
      "എന്ത": 1445,
      "തുവരെ": 1446,
      "ധികാര": 1447,
      "മറ്റ്": 1448,
      "ആരംഭി": 1449,
      "ാത്രം": 1450,
      "യത്ത": 1451,
      "കാരണം": 1452,
      "സ്ഥല": 1453,
      "ുമാണ്": 1454,
      "##ഴു": 1455,
      "വീണ്ട": 1456,
      "ിത്ത": 1457,
      "##ോടെ": 1458,
      "ശാ": 1459,
      "രേഖ": 1460,
      "പ്പി": 1461,
      "മുൻ": 1462,
      "ലക്ഷം": 1463,
      "##ോഷ": 1464,
      "മുമ്പ": 1465,
      "##ശ്ച": 1466,
      "##ങ്": 1467,
      "തേ": 1468,
      "്കോട്": 1469,
      "ൊപ്പം": 1470,
      "മാണ": 1471,
      "എന്നത": 1472,
      "##സാര": 1473,
      "തന്റെ": 1474,
      "ന്നും": 1475,
      "പഞ്ചാ": 1476,
      "വച്ച": 1477,
      "ിഡന്റ": 1478,
      "ണറ": 1479,
      "ില്ലി": 1480,
      "രീതി": 1481,
      "നൽകിയ": 1482,
      "നം": 1483,
      "പേർ": 1484,
      "ഇരു": 1485,
      "ിലാ": 1486,
      "്പോള്": 1487,
      "ബോ": 1488,
      "െന്ന്": 1489,
      "എഫ": 1490,
      "ഇനി": 1491,
      "സമീപ": 1492,
      "ഇവര്": 1493,
      "ഒഴ": 1494,
      "ഒഴിവ": 1495,
      "##പണ": 1496,
      "രണ്ടാ": 1497,
      "##യ്": 1498,
      "രാശി": 1499,
      "ആര": 1500,
      "ഇതോടെ": 1501,
      "േറ്റ": 1502,
      "ഡിഎ": 1503,
      "##മാറ": 1504,
      "െട": 1505,
      "##ക്കി": 1506,
      "ിലപാട": 1507,
      "സമ്പ": 1508,
      "എൽ": 1509,
      "വിവര": 1510,
      "മീ": 1511,
      "വളരെ": 1512,
      "തര": 1513,
      "ദേശീയ": 1514,
      "ഘട്ട": 1515,
      "വർഷ": 1516,
      "ിയത്": 1517,
      "സമ്മ": 1518,
      "ഉയര്": 1519,
      "ിനിടെ": 1520,
      "##റു": 1521,
      "അപ": 1522,
      "സൂച": 1523,
      "േസ": 1524,
      "്രദ്ധ": 1525,
      "സഖ": 1526,
      "ആരോപണ": 1527,
      "##വധ": 1528,
      "ാനാണ്": 1529,
      "നിരവധ": 1530,
      "ചേര്": 1531,
      "നല്ല": 1532,
      "ത്തവണ": 1533,
      "കരുത": 1534,
      "ഭാഗമാ": 1535,
      "##ീവ": 1536,
      "ാനും": 1537,
      "തിന്": 1538,
      "മെഡി": 1539,
      "ാണി": 1540,
      "ദേ": 1541,
      "ജോസ": 1542,
      "##ത്ത്": 1543,
      "േയും": 1544,
      "വൈറ": 1545,
      "ആഗ": 1546,
      "##പാ": 1547,
      "വിവിധ": 1548,
      "ആക": 1549,
      "മത്സര": 1550,
      "##വദ": 1551,
      "്ടിര": 1552,
      "വിജയി": 1553,
      "ദി": 1554,
      "ത്തകര": 1555,
      "അല്ല": 1556,
      "അനുവദ": 1557,
      "കുട്ട": 1558,
      "ള്ളി": 1559,
      "സിന": 1560,
      "പോലെ": 1561,
      "െടു": 1562,
      "ദ്യ": 1563,
      "്രവ": 1564,
      "ഷ്": 1565,
      "പഠ": 1566,
      "കൂട": 1567,
      "തെര": 1568,
      "എഫ്": 1569,
      "ക്കുമ": 1570,
      "ബാധ": 1571,
      "ിലൂ": 1572,
      "ക്കുറ": 1573,
      "ചൂ": 1574,
      "ത്തിക": 1575,
      "തങ്ങ": 1576,
      "വ്വ": 1577,
      "ർക്ക": 1578,
      "ഞാന്": 1579,
      "കല": 1580,
      "്യം": 1581,
      "ിലൂടെ": 1582,
      "ഹൈക്ക": 1583,
      "##കാശ": 1584,
      "തക": 1585,
      "ക്രമണ": 1586,
      "മാര്": 1587,
      "ീട്": 1588,
      "ചാ": 1589,
      "സന്": 1590,
      "വിക": 1591,
      "ഉത്തര": 1592,
      "കുള": 1593,
      "ടിസ്ഥ": 1594,
      "യുഎ": 1595,
      "ല്ലാ": 1596,
      "ളി": 1597,
      "തുടർ": 1598,
      "##ണമ": 1599,
      "യുവ": 1600,
      "വാഹന": 1601,
      "ണറായി": 1602,
      "പ്പിന": 1603,
      "ക്യാ": 1604,
      "സമര": 1605,
      "ഇതിന്": 1606,
      "##ലെ": 1607,
      "നഗര": 1608,
      "മ്പനി": 1609,
      "ക്കല്": 1610,
      "ഷന്": 1611,
      "അതി": 1612,
      "തിനെ": 1613,
      "##്റെ": 1614,
      "ത്തക": 1615,
      "സംവിധ": 1616,
      "പ്രശ്": 1617,
      "##മസ": 1618,
      "തികരി": 1619,
      "ടീ": 1620,
      "യില്ല": 1621,
      "ുത്തി": 1622,
      "എൻ": 1623,
      "നാട്ട": 1624,
      "തട": 1625,
      "കേസ്": 1626,
      "എനി": 1627,
      "്രവേശ": 1628,
      "യറ": 1629,
      "മഴ": 1630,
      "ഷക": 1631,
      "ാട": 1632,
      "താണ": 1633,
      "##ൃത": 1634,
      "ഒരാ": 1635,
      "ൂട്ട": 1636,
      "്ലാ": 1637,
      "വിവാഹ": 1638,
      "്രാ": 1639,
      "ദിന": 1640,
      "രെ": 1641,
      "ലീ": 1642,
      "സഖ്യ": 1643,
      "ഷൻ": 1644,
      "മാന": 1645,
      "തിൽ": 1646,
      "ിടെ": 1647,
      "##റോ": 1648,
      "ഗ്": 1649,
      "പാല": 1650,
      "ലോക്": 1651,
      "വിശദ": 1652,
      "നാല്": 1653,
      "ചൂണ്ട": 1654,
      "പരിഹ": 1655,
      "തവണ": 1656,
      "ുകൊ": 1657,
      "കർ": 1658,
      "അവർ": 1659,
      "പുറ": 1660,
      "ടിച്ച": 1661,
      "തൊഴില": 1662,
      "ആല": 1663,
      "പ്രാ": 1664,
      "സിംഗ": 1665,
      "ണെ": 1666,
      "രീക്ഷ": 1667,
      "തെരഞ്": 1668,
      "വൈക": 1669,
      "രുടെ": 1670,
      "ാലത്ത": 1671,
      "ിപിഎം": 1672,
      "##ികള": 1673,
      "പക്ഷേ": 1674,
      "ത്താ": 1675,
      "ബാധി": 1676,
      "സഹായ": 1677,
      "ശിനി": 1678,
      "ാർത്ഥ": 1679,
      "ആരോപി": 1680,
      "ഉൾ": 1681,
      "ന്യൂ": 1682,
      "ീഡിയോ": 1683,
      "േജ": 1684,
      "ആയ": 1685,
      "രും": 1686,
      "തിര്": 1687,
      "നവ": 1688,
      "നഷ്ട": 1689,
      "വികസ": 1690,
      "അമേ": 1691,
      "റില": 1692,
      "ജീവന": 1693,
      "നടപ്പ": 1694,
      "ഴ്": 1695,
      "ഉൾപ്പ": 1696,
      "ചെന്ന": 1697,
      "വ്യാ": 1698,
      "ക്കാട": 1699,
      "വിവ": 1700,
      "വിദേശ": 1701,
      "##ഷ്ണ": 1702,
      "ിങ്": 1703,
      "ൊച്ച": 1704,
      "അഞ്ച്": 1705,
      "##റോണ": 1706,
      "ഇറ": 1707,
      "ിറ്റി": 1708,
      "ല്ലാം": 1709,
      "കൊറോണ": 1710,
      "ഷി": 1711,
      "അന്ത": 1712,
      "ഫി": 1713,
      "പ്ല": 1714,
      "വ്യ": 1715,
      "ാപ": 1716,
      "കളെ": 1717,
      "ചൈന": 1718,
      "ികച്ച": 1719,
      "മുതൽ": 1720,
      "ീക്ഷണ": 1721,
      "ച്ചെ": 1722,
      "സ്ഥാപ": 1723,
      "റുപടി": 1724,
      "ൊച്ചി": 1725,
      "സമയം": 1726,
      "ീക": 1727,
      "ോട്ടയ": 1728,
      "എന്റെ": 1729,
      "പണം": 1730,
      "കമ്മി": 1731,
      "വിവരം": 1732,
      "തനി": 1733,
      "ലെ": 1734,
      "തിനാല": 1735,
      "എസ": 1736,
      "ിമ": 1737,
      "നേട്ട": 1738,
      "ഷം": 1739,
      "എംഎ": 1740,
      "കളുടെ": 1741,
      "ാഴ്ച": 1742,
      "ഞാൻ": 1743,
      "ദുര": 1744,
      "ക്ഷേപ": 1745,
      "അമ്മ": 1746,
      "അതുക": 1747,
      "അമേരി": 1748,
      "ത്തരം": 1749,
      "്മ": 1750,
      "ിയെ": 1751,
      "രിപാട": 1752,
      "ദില": 1753,
      "മൂല": 1754,
      "ശിവ": 1755,
      "ഭാഷ": 1756,
      "യിട്ട": 1757,
      "യൂണി": 1758,
      "ഗ്രൂ": 1759,
      "ണ്ഡ": 1760,
      "റിന": 1761,
      "അതുകൊ": 1762,
      "ണെന്ന": 1763,
      "കൃഷ്ണ": 1764,
      "##ടങ്ങ": 1765,
      "##തൽ": 1766,
      "ട്ടിക": 1767,
      "ഇടപ": 1768,
      "തമ്മ": 1769,
      "ജയ": 1770,
      "ക്ട": 1771,
      "ധന": 1772,
      "##വ്": 1773,
      "ണ്ടാണ": 1774,
      "നുമ": 1775,
      "ക്കര": 1776,
      "േഷ": 1777,
      "##റേ": 1778,
      "ക്കൊ": 1779,
      "ടക്കം": 1780,
      "ാലും": 1781,
      "കാരം": 1782,
      "സംസാര": 1783,
      "വന്": 1784,
      "അയ": 1785,
      "##ണാ": 1786,
      "്യു": 1787,
      "പ്രീ": 1788,
      "ദേവ": 1789,
      "ാവിലെ": 1790,
      "ഓരോ": 1791,
      "ാലി": 1792,
      "ാര്യം": 1793,
      "അപകട": 1794,
      "മത": 1795,
      "ക്കൂറ": 1796,
      "വന": 1797,
      "ൂടുതൽ": 1798,
      "ആളുകള": 1799,
      "തികരണ": 1800,
      "സംഭവി": 1801,
      "ടിക്ക": 1802,
      "എറ": 1803,
      "സിപി": 1804,
      "്രോ": 1805,
      "ഞ്ജ": 1806,
      "കാണി": 1807,
      "എറണാ": 1808,
      "ട്ട്": 1809,
      "ഇടപെട": 1810,
      "ധി": 1811,
      "ീകരണ": 1812,
      "തൃശ": 1813,
      "ഹമ്മ": 1814,
      "്റ്റേ": 1815,
      "ഹമ്മദ": 1816,
      "ൂര്": 1817,
      "കീ": 1818,
      "കളും": 1819,
      "ത്രണ": 1820,
      "നിയന്": 1821,
      "തൃശൂ": 1822,
      "അട": 1823,
      "ഇന്": 1824,
      "ജൂ": 1825,
      "ോളേജ": 1826,
      "ക്കൾ": 1827,
      "ദിലീപ": 1828,
      "##യാള": 1829,
      "ഷ്യ": 1830,
      "വിവാദ": 1831,
      "റിഞ്ഞ": 1832,
      "ബ്ദ": 1833,
      "ഡിഎഫ": 1834,
      "ധികം": 1835,
      "അതിന": 1836,
      "ൂർ": 1837,
      "ങ്ങി": 1838,
      "നാഥ": 1839,
      "സ്വര്": 1840,
      "സാമ": 1841,
      "ഷ്ട്ര": 1842,
      "പ്പുഴ": 1843,
      "ോസ": 1844,
      "തിരെ": 1845,
      "ുപ": 1846,
      "ഒരാള": 1847,
      "ർത്ഥ": 1848,
      "കുളം": 1849,
      "െറ്റ": 1850,
      "##റിയ": 1851,
      "ആകെ": 1852,
      "തിരോധ": 1853,
      "വരി": 1854,
      "അവകാശ": 1855,
      "ത്ഥി": 1856,
      "ൂട": 1857,
      "ഗ്രാമ": 1858,
      "ുരക്ഷ": 1859,
      "ചർ": 1860,
      "റോഡ": 1861,
      "സൂചന": 1862,
      "ുറഞ്ഞ": 1863,
      "ിയിര": 1864,
      "ൊന്ന": 1865,
      "വിലയി": 1866,
      "##ള്ളി": 1867,
      "ത്തര": 1868,
      "രാമ": 1869,
      "എംഎല്": 1870,
      "20": 1871,
      "േരി": 1872,
      "ഡ്": 1873,
      "യോടെ": 1874,
      "ോണ": 1875,
      "ഞ്ചാ": 1876,
      "രിയ": 1877,
      "ചർച്ച": 1878,
      "സന്ദ": 1879,
      "പുതു": 1880,
      "ിൻ്റെ": 1881,
      "ാതിര": 1882,
      "ീയ": 1883,
      "സമിതി": 1884,
      "##ൂല": 1885,
      "നുക": 1886,
      "ളവ": 1887,
      "15": 1888,
      "നുകൂല": 1889,
      "സൈ": 1890,
      "വേണ്ട": 1891,
      "േഷ്": 1892,
      "എന്നീ": 1893,
      "ികൾ": 1894,
      "തെറ്റ": 1895,
      "മെന്ന": 1896,
      "12": 1897,
      "നേട": 1898,
      "പക്ഷം": 1899,
      "ഫേ": 1900,
      "ുറന്ന": 1901,
      "വിമര്": 1902,
      "പാലി": 1903,
      "ഫോണ": 1904,
      "രാജി": 1905,
      "കും": 1906,
      "ാഗസ്ഥ": 1907,
      "അവസര": 1908,
      "പണി": 1909,
      "ഞങ്ങ": 1910,
      "##ത്തി": 1911,
      "ഒറ്റ": 1912,
      "നാട": 1913,
      "ഫേസ്": 1914,
      "സിന്": 1915,
      "ാനത്ത": 1916,
      "ബിഗ്": 1917,
      "മനസ്സ": 1918,
      "ടുവ": 1919,
      "മക": 1920,
      "ഴു": 1921,
      "േറെ": 1922,
      "ബാങ്ക": 1923,
      "പങ്കു": 1924,
      "കൂള": 1925,
      "ലം": 1926,
      "്പോൾ": 1927,
      "##സ്ത": 1928,
      "ിയാ": 1929,
      "രിഗ": 1930,
      "നടി": 1931,
      "ചുമ": 1932,
      "വിത": 1933,
      "ചാരണ": 1934,
      "കളി": 1935,
      "വാസി": 1936,
      "ാളി": 1937,
      "പാട": 1938,
      "വുമാ": 1939,
      "ട്വ": 1940,
      "പശ്ച": 1941,
      "ഉദ്യേ": 1942,
      "എംപി": 1943,
      "സുരേ": 1944,
      "ാകും": 1945,
      "രമ": 1946,
      "ിന്ദ": 1947,
      "രിഗണി": 1948,
      "കയ": 1949,
      "ഏത": 1950,
      "ുമോ": 1951,
      "വുന്ന": 1952,
      "ധ്യ": 1953,
      "നേടിയ": 1954,
      "ക്യ": 1955,
      "ന്നയി": 1956,
      "അതിന്": 1957,
      "െയി": 1958,
      "ാത്രി": 1959,
      "ഭ്യാ": 1960,
      "്ന": 1961,
      "ുരേഷ": 1962,
      "ഭ്യാസ": 1963,
      "##തീ": 1964,
      "ധികൃത": 1965,
      "ോടെ": 1966,
      "തുക": 1967,
      "വികസന": 1968,
      "ഏറെ": 1969,
      "കാര്": 1970,
      "11": 1971,
      "വിധി": 1972,
      "പ്പം": 1973,
      "യാക്ക": 1974,
      "കൊല്ല": 1975,
      "ബംഗ": 1976,
      "നുമതി": 1977,
      "നയി": 1978,
      "െയും": 1979,
      "ുറച്ച": 1980,
      "ട്രോ": 1981,
      "ുമായ": 1982,
      "ഫേസ്ബ": 1983,
      "ചെല": 1984,
      "അവിടെ": 1985,
      "അവസാന": 1986,
      "ാവസ്ഥ": 1987,
      "നങ്ങള": 1988,
      "േഴ്": 1989,
      "്ച": 1990,
      "സേന": 1991,
      "സമൂഹ": 1992,
      "ഏക": 1993,
      "വസാന": 1994,
      "പരാജ": 1995,
      "മ്മീഷ": 1996,
      "ോക്ക്": 1997,
      "മ്പര്": 1998,
      "ാറ്റി": 1999,
      "ധാ": 2000,
      "ഒഴിവാ": 2001,
      "ത്തിയ": 2002,
      "സന്ധി": 2003,
      "ആയി": 2004,
      "ിയുടെ": 2005,
      "ശക്തി": 2006,
      "ക്ല": 2007,
      "തമി": 2008,
      "പരാജയ": 2009,
      "ണ്ടിര": 2010,
      "ൊല്ല": 2011,
      "ഇത്തര": 2012,
      "ൂടിയ": 2013,
      "താന്": 2014,
      "മീറ്റ": 2015,
      "ളെ": 2016,
      "നോക്ക": 2017,
      "ടിയ": 2018,
      "ൈല": 2019,
      "##ക്ഷി": 2020,
      "അക്ക": 2021,
      "സംഗ": 2022,
      "ടക്കമ": 2023,
      "െഡ": 2024,
      "്താ": 2025,
      "ആത്": 2026,
      "ആത്മ": 2027,
      "യുവാ": 2028,
      "ത്തല": 2029,
      "പിന്": 2030,
      "ആദ്യം": 2031,
      "ആശങ്ക": 2032,
      "ആണ": 2033,
      "സത്യ": 2034,
      "ാത": 2035,
      "മൂന്ന": 2036,
      "ീറ്റ": 2037,
      "യര്": 2038,
      "മലപ്പ": 2039,
      "പീ": 2040,
      "മുട്ട": 2041,
      "ക്രി": 2042,
      "ഇടതു": 2043,
      "ൂടിയാ": 2044,
      "വസാനി": 2045,
      "നരേ": 2046,
      "ഗവ": 2047,
      "24": 2048,
      "പൂർ": 2049,
      "മറ്റു": 2050,
      "ബാല": 2051,
      "പദ": 2052,
      "##നാട": 2053,
      "വയനാട": 2054,
      "വില്ല": 2055,
      "ാണ്ട": 2056,
      "##റ്": 2057,
      "കക്ഷി": 2058,
      "വിരു": 2059,
      "രോഗി": 2060,
      "രജി": 2061,
      "വേഗ": 2062,
      "ാപ്പ": 2063,
      "##േരി": 2064,
      "സംശ": 2065,
      "ഭാര്യ": 2066,
      "വെളി": 2067,
      "ഭൂരി": 2068,
      "സൗദി": 2069,
      "തിനാ": 2070,
      "ൈറ്റ": 2071,
      "ാരണ": 2072,
      "ിറങ്ങ": 2073,
      "ബെ": 2074,
      "ആഗ്ര": 2075,
      "തിർ": 2076,
      "പ്പറേ": 2077,
      "ചേർ": 2078,
      "ിൽക്ക": 2079,
      "ന്തം": 2080,
      "സിംഗ്": 2081,
      "ുധാ": 2082,
      "ൂടാ": 2083,
      "സംശയ": 2084,
      "രം": 2085,
      "ക്രമി": 2086,
      "ിരി": 2087,
      "##യം": 2088,
      "ലഭ്യ": 2089,
      "മുസ്": 2090,
      "ുഴ": 2091,
      "്ഥിതി": 2092,
      "ലും": 2093,
      "പ്പിൽ": 2094,
      "ഫലം": 2095,
      "ുവരി": 2096,
      "ാരാ": 2097,
      "പുന": 2098,
      "##ഭവ": 2099,
      "രോ": 2100,
      "റിയി": 2101,
      "തമിഴ്": 2102,
      "ുഞ്ഞ": 2103,
      "്റ്റാ": 2104,
      "ാങ്ക": 2105,
      "ിസ്": 2106,
      "ഇതില്": 2107,
      "തീവ": 2108,
      "കൗ": 2109,
      "ഹരി": 2110,
      "കൊണ്ട": 2111,
      "ീന": 2112,
      "ല്‍": 2113,
      "വശ്യ": 2114,
      "കിട്ട": 2115,
      "വ്": 2116,
      "ിഴ": 2117,
      "കുന്ന": 2118,
      "ൂടാതെ": 2119,
      "അസ": 2120,
      "ുറം": 2121,
      "അന്ന്": 2122,
      "ൗണ്ട": 2123,
      "ൊല്ലം": 2124,
      "നന്ദ": 2125,
      "ഫാ": 2126,
      "വൃ": 2127,
      "ുധാകര": 2128,
      "ാക്കി": 2129,
      "കുമാര": 2130,
      "കുമ": 2131,
      "ത്തരവ": 2132,
      "ഗാ": 2133,
      "ദാ": 2134,
      "മാർ": 2135,
      "റ്റീവ": 2136,
      "പ്രീം": 2137,
      "വീസ": 2138,
      "ശരി": 2139,
      "##ത്തെ": 2140,
      "ന്തോഷ": 2141,
      "ഭൂമി": 2142,
      "ീസ്": 2143,
      "ആഗ്രഹ": 2144,
      "േസില്": 2145,
      "കില": 2146,
      "ബഹ": 2147,
      "്രക": 2148,
      "പോരാ": 2149,
      "വെക്ക": 2150,
      "മുഴു": 2151,
      "ക്ത": 2152,
      "്രശ്": 2153,
      "്രശ്ന": 2154,
      "ാധാരണ": 2155,
      "ക്രൈ": 2156,
      "എക്": 2157,
      "നൂ": 2158,
      "നിറ": 2159,
      "രണ്ടു": 2160,
      "പറ്റ": 2161,
      "ുവി": 2162,
      "താഴ": 2163,
      "യൂട്ട": 2164,
      "രജിസ്": 2165,
      "ക്കോ": 2166,
      "്രൈ": 2167,
      "്ടത്": 2168,
      "ണാട": 2169,
      "കര്യ": 2170,
      "വനി": 2171,
      "ിച്ചേ": 2172,
      "ത്തനം": 2173,
      "യോട്": 2174,
      "തിട്ട": 2175,
      "വനിത": 2176,
      "ക്കുക": 2177,
      "ണാടക": 2178,
      "പേരെ": 2179,
      "##ളന": 2180,
      "വീണ": 2181,
      "ശ്വാ": 2182,
      "പേരില": 2183,
      "ാട്ട": 2184,
      "മുഴുവ": 2185,
      "ക്കം": 2186,
      "റിസ": 2187,
      "മന്ത": 2188,
      "പൗ": 2189,
      "കുമാറ": 2190,
      "അഡ": 2191,
      "ജാ": 2192,
      "യാള": 2193,
      "നാണ്": 2194,
      "്മേ": 2195,
      "കളിൽ": 2196,
      "മായും": 2197,
      "്മേളന": 2198,
      "ഭീഷ": 2199,
      "##ർശ": 2200,
      "ൂന്ന": 2201,
      "റഷ്യ": 2202,
      "തിനി": 2203,
      "്യത": 2204,
      "വ്യവ": 2205,
      "##ബു": 2206,
      "ിങ്ങ": 2207,
      "##ളിവ": 2208,
      "ഭീഷണി": 2209,
      "ഗതി": 2210,
      "ജ്ജ": 2211,
      "ുടക്ക": 2212,
      "14": 2213,
      "ങ്ങളെ": 2214,
      "തകര്": 2215,
      "ുക്കി": 2216,
      "വീത": 2217,
      "##്പി": 2218,
      "ീഷ": 2219,
      "ത്തോ": 2220,
      "ത്തേ": 2221,
      "ശ്വാസ": 2222,
      "ചെലവ": 2223,
      "ീര": 2224,
      "നുഷ്യ": 2225,
      "യുവതി": 2226,
      "ച്": 2227,
      "നമ": 2228,
      "വാക്ക": 2229,
      "ോളം": 2230,
      "ുരേഷ്": 2231,
      "ല്ലോ": 2232,
      "വ്യവസ": 2233,
      "നോട്ട": 2234,
      "തെളിവ": 2235,
      "പേരും": 2236,
      "ജയി": 2237,
      "ദൃ": 2238,
      "ശേഖ": 2239,
      "ജ്ഞ": 2240,
      "ാധാന": 2241,
      "മഹാ": 2242,
      "ംര": 2243,
      "രണ": 2244,
      "രാജ്": 2245,
      "പോരാട": 2246,
      "സൈന": 2247,
      "പോയി": 2248,
      "സ്വപ്": 2249,
      "ഡോക്ട": 2250,
      "്ഷ": 2251,
      "ല്യ": 2252,
      "##ദര": 2253,
      "ലുള്ള": 2254,
      "വിതരണ": 2255,
      "ന്ധ": 2256,
      "ഘോഷ": 2257,
      "മുക്ത": 2258,
      "ംരക്ഷ": 2259,
      "അമി": 2260,
      "ഥാ": 2261,
      "ാസ്": 2262,
      "ാളികള": 2263,
      "ംഗത്ത": 2264,
      "ൂന്നാ": 2265,
      "ഇന്ന": 2266,
      "അനുഭവ": 2267,
      "ജോസഫ": 2268,
      "ീസ": 2269,
      "ിട്ടു": 2270,
      "സുഹ": 2271,
      "ഭേ": 2272,
      "താല": 2273,
      "ിഹ": 2274,
      "ോഷ്യ": 2275,
      "ാനം": 2276,
      "രിപ്പ": 2277,
      "50": 2278,
      "അഖ": 2279,
      "ീട": 2280,
      "30": 2281,
      "ഡല്": 2282,
      "ദ്ര": 2283,
      "ബ്ല": 2284,
      "ലയാ": 2285,
      "ോഷ്യല": 2286,
      "ായക": 2287,
      "െയ്": 2288,
      "യൊ": 2289,
      "മാറി": 2290,
      "റ്റര്": 2291,
      "##ച്ച്": 2292,
      "രിത്ര": 2293,
      "തോന്ന": 2294,
      "ലയാളി": 2295,
      "ഖാ": 2296,
      "ചുമതല": 2297,
      "ൃത": 2298,
      "പ്പമ": 2299,
      "വലി": 2300,
      "ഭേദ": 2301,
      "ക്വാ": 2302,
      "ലൈന": 2303,
      "രൂക്ഷ": 2304,
      "ഉയര": 2305,
      "ക്കൽ": 2306,
      "സഹായി": 2307,
      "ചു": 2308,
      "വിമർശ": 2309,
      "തെളി": 2310,
      "തിനിധ": 2311,
      "ലഭ്യമ": 2312,
      "സജ": 2313,
      "ഓഫ്": 2314,
      "ലിം": 2315,
      "ച്ഛ": 2316,
      "ശീ": 2317,
      "ിട്ടി": 2318,
      "ാഗത": 2319,
      "അര്": 2320,
      "കീഴ": 2321,
      "ആറ്": 2322,
      "ഞങ്ങള": 2323,
      "്റ": 2324,
      "ൃഷ്ട": 2325,
      "ഉണ്ട്": 2326,
      "ആന്റ": 2327,
      "ീടുകള": 2328,
      "മുംബ": 2329,
      "യല്ല": 2330,
      "പൗര": 2331,
      "അക": 2332,
      "ാഷ": 2333,
      "പ്പന": 2334,
      "യുഎഇ": 2335,
      "സാമൂഹ": 2336,
      "ലാല": 2337,
      "യിട": 2338,
      "ർത്ത": 2339,
      "വരിക": 2340,
      "ന്നലെ": 2341,
      "യുമ": 2342,
      "ഭാവ": 2343,
      "ോട്ട്": 2344,
      "ക്ഷേത": 2345,
      "മുംബൈ": 2346,
      "ചടങ്ങ": 2347,
      "##ോദര": 2348,
      "ന്താണ": 2349,
      "ടങ്ങ": 2350,
      "കുത്ത": 2351,
      "പതി": 2352,
      "ചേര": 2353,
      "ൻഡ": 2354,
      "ിന്ദു": 2355,
      "സുഹൃ": 2356,
      "കലാ": 2357,
      "13": 2358,
      "ിറ്റ്": 2359,
      "ോല": 2360,
      "ഡൗ": 2361,
      "വിജയം": 2362,
      "ഹാജ": 2363,
      "19": 2364,
      "ഫ്ര": 2365,
      "ഗ്രഹ": 2366,
      "യർന്ന": 2367,
      "ഹ്": 2368,
      "എതിര": 2369,
      "യോഗം": 2370,
      "ആരാ": 2371,
      "ഇൻ": 2372,
      "ബു": 2373,
      "വയസ്സ": 2374,
      "കൈമാറ": 2375,
      "ോബ": 2376,
      "നുസരി": 2377,
      "ചെറിയ": 2378,
      "പരാമ": 2379,
      "ഹര്": 2380,
      "ൃത്യ": 2381,
      "ക്കെ": 2382,
      "ളള": 2383,
      "്ലാസ": 2384,
      "മകന": 2385,
      "ഗസ്ഥ": 2386,
      "ംസ": 2387,
      "ാടക": 2388,
      "ാട്ടി": 2389,
      "ർശ": 2390,
      "ന്നി": 2391,
      "കുറവ": 2392,
      "യക്ക": 2393,
      "റ്റു": 2394,
      "മാക": 2395,
      "ഗുരു": 2396,
      "ിഷ": 2397,
      "ബീ": 2398,
      "മൊഴി": 2399,
      "കം": 2400,
      "ൃത്യമ": 2401,
      "ായ്": 2402,
      "ടാ": 2403,
      "സഹോദര": 2404,
      "കണ്": 2405,
      "രക്ഷാ": 2406,
      "സില": 2407,
      "്യാ": 2408,
      "തുറ": 2409,
      "18": 2410,
      "എഴു": 2411,
      "്രാല": 2412,
      "ിസി": 2413,
      "ട്രേ": 2414,
      "ഏറ്റെ": 2415,
      "ദൃശ്യ": 2416,
      "മല്": 2417,
      "ഹോ": 2418,
      "പ്രവ": 2419,
      "കരമാ": 2420,
      "േയ": 2421,
      "േശ": 2422,
      "##ചാര": 2423,
      "ഉള്ളത": 2424,
      "കെട്ട": 2425,
      "ഉദ്യോ": 2426,
      "ബംഗാ": 2427,
      "ജയില": 2428,
      "ഗുണ": 2429,
      "സാധ": 2430,
      "ഏജ": 2431,
      "സാക്ഷ": 2432,
      "ന്നു": 2433,
      "പശ്ചാ": 2434,
      "ിക്": 2435,
      "പെണ്": 2436,
      "പഠന": 2437,
      "നയ": 2438,
      "ുസ്": 2439,
      "##മസഭ": 2440,
      "ിയമസഭ": 2441,
      "്രാലയ": 2442,
      "ൃഷ്ടി": 2443,
      "രുത്": 2444,
      "ജനറ": 2445,
      "ലിന": 2446,
      "##ബ്": 2447,
      "ീഗ്": 2448,
      "ട്ടെ": 2449,
      "ഭക്ഷണ": 2450,
      "പെരു": 2451,
      "തായും": 2452,
      "എമാര": 2453,
      "ജാമ": 2454,
      "മുറി": 2455,
      "ജാമ്യ": 2456,
      "ാദ": 2457,
      "ടീമ": 2458,
      "ചെറു": 2459,
      "ശാല": 2460,
      "ന്ദര്": 2461,
      "ംഗീകര": 2462,
      "ഷോ": 2463,
      "്മി": 2464,
      "മിഷ": 2465,
      "സൂര്യ": 2466,
      "25": 2467,
      "ജു": 2468,
      "്യോ": 2469,
      "വൈറസ്": 2470,
      "ര്യ": 2471,
      "വന്നു": 2472,
      "കോര്": 2473,
      "വയ്": 2474,
      "##ീന": 2475,
      "പോള": 2476,
      "യോഗി": 2477,
      "്രി": 2478,
      "ിക്ഷ": 2479,
      "എന്നി": 2480,
      "പര്യ": 2481,
      "ിരക്ക": 2482,
      "ഭാഗ്യ": 2483,
      "കാസ": 2484,
      "സ്ഥാ": 2485,
      "സെന്റ": 2486,
      "ിരു": 2487,
      "തട്ടി": 2488,
      "പത്ര": 2489,
      "ിബ": 2490,
      "ുക്ക": 2491,
      "െട്ടി": 2492,
      "ഹൃ": 2493,
      "്താവന": 2494,
      "പദവി": 2495,
      "ിനായി": 2496,
      "ിഫ": 2497,
      "##ലീ": 2498,
      "##രുഷ": 2499,
      "ിടക്ക": 2500,
      "ശേഖര": 2501,
      "പുറമ": 2502,
      "എസ്പി": 2503,
      "എന്നെ": 2504,
      "സഹകര": 2505,
      "േബ": 2506,
      "മുരള": 2507,
      "പുരുഷ": 2508,
      "ീവ്": 2509,
      "പീഡ": 2510,
      "മധ്യ": 2511,
      "്യത്യ": 2512,
      "പിസി": 2513,
      "ചൊ": 2514,
      "വേണമ": 2515,
      "ാവും": 2516,
      "ത്തോള": 2517,
      "ടേ": 2518,
      "ിയങ്ക": 2519,
      "തടയ": 2520,
      "ീത": 2521,
      "##ദേഹ": 2522,
      "ശ്ശ": 2523,
      "രുത": 2524,
      "ാതാ": 2525,
      "ുദ്": 2526,
      "ൃതദേഹ": 2527,
      "ൂര": 2528,
      "യാള്": 2529,
      "െയര്": 2530,
      "ചരണ": 2531,
      "രവ": 2532,
      "ുപോ": 2533,
      "കിട": 2534,
      "യറ്റ": 2535,
      "ൻസ": 2536,
      "സിസി": 2537,
      "കിലോ": 2538,
      "ഹൃദ": 2539,
      "പ്ലാ": 2540,
      "ർഗ": 2541,
      "സോ": 2542,
      "ഫെ": 2543,
      "ബാബു": 2544,
      "വാദി": 2545,
      "താല്": 2546,
      "ജനാ": 2547,
      "പ്പൂ": 2548,
      "ഹോട്ട": 2549,
      "അയച്ച": 2550,
      "##മസി": 2551,
      "താമസി": 2552,
      "ാട്": 2553,
      "##ംപ": 2554,
      "ട്രംപ": 2555,
      "എച്ച്": 2556,
      "ഞ്ചാബ": 2557,
      "ടോ": 2558,
      "ണു": 2559,
      "സഞ്ച": 2560,
      "ാതി": 2561,
      "ിവിട": 2562,
      "ുദ്ധി": 2563,
      "ബിസി": 2564,
      "ാടി": 2565,
      "ിവി": 2566,
      "റൂ": 2567,
      "വരുമ": 2568,
      "കളക്ട": 2569,
      "ിത്തല": 2570,
      "##സ്യ": 2571,
      "എന്ത്": 2572,
      "്രൈവ": 2573,
      "ഗത": 2574,
      "ൂക്ക": 2575,
      "ഇസ": 2576,
      "നിശ്ച": 2577,
      "##പാത": 2578,
      "ഭയ": 2579,
      "ൈസ്": 2580,
      "ിറക്ക": 2581,
      "ഹാജരാ": 2582,
      "ആരാധ": 2583,
      "രില": 2584,
      "ുവന്ന": 2585,
      "ജനറല്": 2586,
      "തീവ്ര": 2587,
      "ഇസ്ര": 2588,
      "സിദ്ധ": 2589,
      "ദ്യമാ": 2590,
      "ധരി": 2591,
      "ലപാത": 2592,
      "തൊട": 2593,
      "ഭാരത": 2594,
      "ളയ": 2595,
      "േര": 2596,
      "ർജ": 2597,
      "ഇതേ": 2598,
      "സജീവ": 2599,
      "ാധീന": 2600,
      "ോട്ടോ": 2601,
      "ുസ്ലീ": 2602,
      "രക്ക്": 2603,
      "ോവ": 2604,
      "ിനോട്": 2605,
      "വരികയ": 2606,
      "ിടയില": 2607,
      "െയിന": 2608,
      "സേവന": 2609,
      "വീട": 2610,
      "മലയാള": 2611,
      "വിചാര": 2612,
      "കാശ": 2613,
      "തോമ": 2614,
      "ുരത്ത": 2615,
      "ജെഡി": 2616,
      "ഇവർ": 2617,
      "സൈനിക": 2618,
      "ലപാതക": 2619,
      "മനസ": 2620,
      "പ്റ്റ": 2621,
      "ട്രാ": 2622,
      "തിനാൽ": 2623,
      "ച്ചയാ": 2624,
      "ടെക്": 2625,
      "ടമ": 2626,
      "പോവ": 2627,
      "മോശ": 2628,
      "17": 2629,
      "കഴി": 2630,
      "്പോഴ": 2631,
      "ംപ": 2632,
      "##ാരാ": 2633,
      "തീര്": 2634,
      "ുമാര്": 2635,
      "ടൂ": 2636,
      "മര": 2637,
      "ഡോസ": 2638,
      "്രകടന": 2639,
      "ആഭ്യ": 2640,
      "ഷിക": 2641,
      "ർക്കം": 2642,
      "ഡൽ": 2643,
      "മഹാരാ": 2644,
      "ഇറങ്ങ": 2645,
      "ുകളും": 2646,
      "പണ": 2647,
      "മിന": 2648,
      "നിയമന": 2649,
      "നമു": 2650,
      "ഖ്": 2651,
      "കുടി": 2652,
      "ാവധി": 2653,
      "സംഘട": 2654,
      "ഒരി": 2655,
      "വെട": 2656,
      "##ധര": 2657,
      "കേട്ട": 2658,
      "സ്വയം": 2659,
      "ശ്വര": 2660,
      "നാല": 2661,
      "പ്രവച": 2662,
      "വില്": 2663,
      "നാണ": 2664,
      "ടന്ന": 2665,
      "ിത്": 2666,
      "പരസ്യ": 2667,
      "കമ": 2668,
      "16": 2669,
      "##മാർ": 2670,
      "കുമാർ": 2671,
      "##ചയ": 2672,
      "ഹിത": 2673,
      "ലംഘ": 2674,
      "യോട": 2675,
      "വെടി": 2676,
      "ണയ": 2677,
      "അഭ്യ": 2678,
      "പരമ": 2679,
      "ഗ്ദ": 2680,
      "ാമി": 2681,
      "ിള": 2682,
      "െന്": 2683,
      "വേണ": 2684,
      "റേ": 2685,
      "വിധ": 2686,
      "അതില": 2687,
      "ചിന്ത": 2688,
      "അക്രമ": 2689,
      "40": 2690,
      "മര്": 2691,
      "തേട": 2692,
      "താഴെ": 2693,
      "എത്ര": 2694,
      "കൂടെ": 2695,
      "ിപിഐ": 2696,
      "കരം": 2697,
      "ീകര": 2698,
      "യേറ്റ": 2699,
      "ത്തിര": 2700,
      "കാരണ": 2701,
      "അവത": 2702,
      "്വാ": 2703,
      "ദുബ": 2704,
      "വ്യാജ": 2705,
      "ലക്ട": 2706,
      "നിവ": 2707,
      "തടസ": 2708,
      "##ധിക": 2709,
      "കോട": 2710,
      "പുരോ": 2711,
      "വൃത്ത": 2712,
      "പത്യ": 2713,
      "വെറ": 2714,
      "വെല്ല": 2715,
      "ജീവ": 2716,
      "ജനാധി": 2717,
      "തോമസ്": 2718,
      "യാക": 2719,
      "##ാപി": 2720,
      "്ഥാപി": 2721,
      "നിത": 2722,
      "ചീ": 2723,
      "##്രത": 2724,
      "ശാന്ത": 2725,
      "ഘാട": 2726,
      "ബന്ധു": 2727,
      "ഇന്റ": 2728,
      "ന്തമാ": 2729,
      "##സിൽ": 2730,
      "ഞ്ച്": 2731,
      "യറക്ട": 2732,
      "അമിത്": 2733,
      "രഹ": 2734,
      "ൈക്ക": 2735,
      "ഇരുവര": 2736,
      "പത്ത": 2737,
      "ിഞ്ഞ": 2738,
      "പ്രോ": 2739,
      "പറയാന": 2740,
      "ഡോള": 2741,
      "ഒഴി": 2742,
      "പ്രകട": 2743,
      "ശാസ്ത": 2744,
      "ശമ്പ": 2745,
      "േഹ": 2746,
      "കയറ": 2747,
      "ശമ്പള": 2748,
      "ുട്ട": 2749,
      "വർധ": 2750,
      "വിസ": 2751,
      "വിട്ട": 2752,
      "##മായി": 2753,
      "ടം": 2754,
      "ണക്ക": 2755,
      "്യോഗ": 2756,
      "ഗ്രാ": 2757,
      "അഖില": 2758,
      "െല്ല": 2759,
      "അവസ്ഥ": 2760,
      "മനോ": 2761,
      "യോജ": 2762,
      "ശീല": 2763,
      "ഇവ": 2764,
      "ഗമ": 2765,
      "നിയും": 2766,
      "പരിധി": 2767,
      "ോറ": 2768,
      "കൃത": 2769,
      "ഘാടന": 2770,
      "കള്ള": 2771,
      "തള്ളി": 2772,
      "പത": 2773,
      "മിട": 2774,
      "ാഗ്രത": 2775,
      "താരം": 2776,
      "ഗൗ": 2777,
      "ലുകള": 2778,
      "സതീ": 2779,
      "ുവിട": 2780,
      "ഡൗണ": 2781,
      "്ശ": 2782,
      "ിലക്ക": 2783,
      "സമര്": 2784,
      "ുടങ്ങ": 2785,
      "ാനേജ": 2786,
      "നേരെ": 2787,
      "നമ്മള": 2788,
      "ബല": 2789,
      "ിലി": 2790,
      "മുൻപ": 2791,
      "ഒര": 2792,
      "മൊരു": 2793,
      "കാഴ്ച": 2794,
      "പ്രചര": 2795,
      "വക": 2796,
      "ുല്ല": 2797,
      "പ്രിയ": 2798,
      "തിനു": 2799,
      "ിഥ": 2800,
      "നേടി": 2801,
      "ലോച": 2802,
      "ഉദ്": 2803,
      "ന്മാര": 2804,
      "രുമാന": 2805,
      "പക": 2806,
      "അവരെ": 2807,
      "ബോധ": 2808,
      "ിഎ": 2809,
      "ന്നൂ": 2810,
      "ജല": 2811,
      "സാദ": 2812,
      "ത്രയ": 2813,
      "ൂല": 2814,
      "യുമായ": 2815,
      "ന്നത": 2816,
      "ാവള": 2817,
      "യുഎസ": 2818,
      "ാണ്ടി": 2819,
      "നീതി": 2820,
      "ള്ളൂ": 2821,
      "ഉടന": 2822,
      "ുഡ": 2823,
      "രമേശ": 2824,
      "സണ": 2825,
      "ികു": 2826,
      "കപ്പ": 2827,
      "ണായ": 2828,
      "ഡിയ": 2829,
      "ടവ": 2830,
      "െല്": 2831,
      "വയസ": 2832,
      "ീധര": 2833,
      "ീറ്റ്": 2834,
      "ിനു": 2835,
      "വശ്യമ": 2836,
      "ദീപ": 2837,
      "ുക്ക്": 2838,
      "കസ്": 2839,
      "ശ്മ": 2840,
      "ൊളി": 2841,
      "വെട്ട": 2842,
      "ലീഗ": 2843,
      "രുന്ന": 2844,
      "ാരണമാ": 2845,
      "കരി": 2846,
      "ാബ": 2847,
      "ാംഗ": 2848,
      "ുല": 2849,
      "നന്തപ": 2850,
      "വാദം": 2851,
      "പഴ": 2852,
      "ശേഷി": 2853,
      "മോഹന": 2854,
      "ഗോപി": 2855,
      "ാനല": 2856,
      "ാർഡ": 2857,
      "ത്താവ": 2858,
      "ംഭ": 2859,
      "െൻ": 2860,
      "റ്റഡി": 2861,
      "വേള": 2862,
      "പരമായ": 2863,
      "പഠി": 2864,
      "ണായക": 2865,
      "ിതാ": 2866,
      "പരമാ": 2867,
      "ോക്ക": 2868,
      "മ്മന്": 2869,
      "ാളെ": 2870,
      "വിടെ": 2871,
      "്രയും": 2872,
      "മെയ്": 2873,
      "പട": 2874,
      "ശങ്ക": 2875,
      "ശനി": 2876,
      "ഉട": 2877,
      "്ലി": 2878,
      "്ഥാന": 2879,
      "െതിരാ": 2880,
      "രീര": 2881,
      "ർട്ട": 2882,
      "രവി": 2883,
      "പ്പെ": 2884,
      "ാർത്ത": 2885,
      "ഉദ": 2886,
      "സമു": 2887,
      "്ശേരി": 2888,
      "തല്ല": 2889,
      "ലപ്പ": 2890,
      "ിഐ": 2891,
      "ാലാ": 2892,
      "ാറ്റം": 2893,
      "ികുതി": 2894,
      "ുവര": 2895,
      "ഘടന": 2896,
      "ുവിളി": 2897,
      "ന്യാ": 2898,
      "നത്ത": 2899,
      "നൽകി": 2900,
      "ന്നാം": 2901,
      "ച്ചി": 2902,
      "ട്ടാ": 2903,
      "ബ്രി": 2904,
      "കന": 2905,
      "മത്തെ": 2906,
      "്ധ": 2907,
      "ായും": 2908,
      "ോണിയ": 2909,
      "നിലന": 2910,
      "ങ്കള": 2911,
      "േത": 2912,
      "ോറി": 2913,
      "ുര്": 2914,
      "ായേ": 2915,
      "ളൂ": 2916,
      "ർവ": 2917,
      "ജറ": 2918,
      "ലയ": 2919,
      "ളു": 2920,
      "റാക്ക": 2921,
      "സ്മ": 2922,
      "ശു": 2923,
      "ശോ": 2924,
      "എമ്മ": 2925,
      "ാഹ": 2926,
      "യത്": 2927,
      "ാഭ": 2928,
      "ൂക്ഷ": 2929,
      "പാത": 2930,
      "റും": 2931,
      "ോഭ": 2932,
      "സിക്ക": 2933,
      "ഹത": 2934,
      "യിലാണ": 2935,
      "നസ": 2936,
      "മുതല": 2937,
      "ണ്ടാ": 2938,
      "കേസിൽ": 2939,
      "സിപിഎ": 2940,
      "ബസ": 2941,
      "ദര": 2942,
      "സിപ്പ": 2943,
      "റിയാ": 2944,
      "ഇവരെ": 2945,
      "ശര": 2946,
      "രായ": 2947,
      "ടഞ്ഞ": 2948,
      "ഫൈ": 2949,
      "യാദ": 2950,
      "ഏഴ്": 2951,
      "ിത്യ": 2952,
      "പെട്ട": 2953,
      "ഓട": 2954,
      "ലില": 2955,
      "സഭയില": 2956,
      "രിചയ": 2957,
      "ശ്രമം": 2958,
      "ിലവ": 2959,
      "ഡെ": 2960,
      "തിയ": 2961,
      "ബാദ": 2962,
      "21": 2963,
      "ചല": 2964,
      "ദായ": 2965,
      "ലേ": 2966,
      "ക്രൂ": 2967,
      "യാത": 2968,
      "ിസം": 2969,
      "ഞെട": 2970,
      "േല്": 2971,
      "ക്ഷണ": 2972,
      "എസ്എ": 2973,
      "മാസ്": 2974,
      "ഗോഡ": 2975,
      "ട്ടു": 2976,
      "ൂപ്പ": 2977,
      "്ഥാനം": 2978,
      "ലര്": 2979,
      "െപി": 2980,
      "സിബ": 2981,
      "സിനേ": 2982,
      "ിഹാ": 2983,
      "റെയ": 2984,
      "സല": 2985,
      "ഞ്ചി": 2986,
      "ാൾ": 2987,
      "െന്റ": 2988,
      "ിക്ക്": 2989,
      "ഫിക്ക": 2990,
      "കാർ": 2991,
      "രുങ്ങ": 2992,
      "കോപ": 2993,
      "റ്റിന": 2994,
      "തസ്": 2995,
      "ബജ": 2996,
      "ക്കാല": 2997,
      "ബൈ": 2998,
      "യല": 2999,
      "വൈദ": 3000,
      "മാറിയ": 3001,
      "നിൽ": 3002,
      "പാക": 3003,
      "22": 3004,
      "പത്ത്": 3005,
      "ിം": 3006,
      "രിച്ച": 3007,
      "ോക്കി": 3008,
      "ിടത്ത": 3009,
      "വർക്ക": 3010,
      "ളര്": 3011,
      "രജ": 3012,
      "റന്റ": 3013,
      "കുതി": 3014,
      "റമ്പ": 3015,
      "ർഡ": 3016,
      "ക്ഷി": 3017,
      "യിക്ക": 3018,
      "റാം": 3019,
      "്രാന്": 3020,
      "തീര": 3021,
      "ർപ്പ": 3022,
      "പള്ളി": 3023,
      "ിഎം": 3024,
      "ഗോപാ": 3025,
      "ഴിമ": 3026,
      "്ജ": 3027,
      "അല": 3028,
      "കേസെട": 3029,
      "സംസ്": 3030,
      "താൻ": 3031,
      "ഇയാള": 3032,
      "ാമ്പ": 3033,
      "ച്ചടി": 3034,
      "കോള": 3035,
      "ക്കാള": 3036,
      "െയില്": 3037,
      "ണ്ടി": 3038,
      "ംസാര": 3039,
      "ംസാരി": 3040,
      "ഏത്": 3041,
      "ഡാ": 3042,
      "യുപി": 3043,
      "ിഷ്": 3044,
      "ുഖ": 3045,
      "സ്വത": 3046,
      "േഡ": 3047,
      "ണ്ണി": 3048,
      "##ാപന": 3049,
      "സ്വാ": 3050,
      "ീര്": 3051,
      "്യൂസ": 3052,
      "പ്പാട": 3053,
      "ട്ടേ": 3054,
      "കരണ": 3055,
      "ഥി": 3056,
      "മകള": 3057,
      "ുരു": 3058,
      "വീട്": 3059,
      "്പര്യ": 3060,
      "തേടി": 3061,
      "രില്": 3062,
      "അടിയ": 3063,
      "പമ": 3064,
      "വശ": 3065,
      "ാരി": 3066,
      "ീർ": 3067,
      "്ഥാപന": 3068,
      "മാതാ": 3069,
      "ൂത്ത": 3070,
      "ന്റ്": 3071,
      "രിൽ": 3072,
      "തൃപ്": 3073,
      "ിന്നെ": 3074,
      "േമ": 3075,
      "ദ്വ": 3076,
      "ഹെ": 3077,
      "ാജ": 3078,
      "കൊട": 3079,
      "സ്ത്ര": 3080,
      "െക്ക": 3081,
      "ിരുദ": 3082,
      "ലാപ": 3083,
      "രാള": 3084,
      "വരില്": 3085,
      "തായിര": 3086,
      "യന": 3087,
      "ശ്വ": 3088,
      "ൊടി": 3089,
      "യർത്ത": 3090,
      "ുപോലെ": 3091,
      "പാട്": 3092,
      "പ്": 3093,
      "ദേശിക": 3094,
      "സിലെ": 3095,
      "ചെയ്": 3096,
      "രിമ": 3097,
      "കടന്ന": 3098,
      "ടേയും": 3099,
      "പെട": 3100,
      "മദ്യ": 3101,
      "ഘട": 3102,
      "വധ": 3103,
      "ാകുമ": 3104,
      "ലർ": 3105,
      "െഗ": 3106,
      "ോണ്": 3107,
      "നീയ": 3108,
      "ീപ": 3109,
      "രട്ട": 3110,
      "കുറയ": 3111,
      "ഷനില": 3112,
      "ിസംബ": 3113,
      "ത്യാ": 3114,
      "രേ": 3115,
      "ബര്": 3116,
      "വറ": 3117,
      "കുഴ": 3118,
      "ഴ്സ": 3119,
      "ടച്ച": 3120,
      "ധാരണ": 3121,
      "റുക": 3122,
      "മാന്": 3123,
      "ത്മ": 3124,
      "റ്റില": 3125,
      "ഞാന": 3126,
      "വൂ": 3127,
      "ിശ": 3128,
      "്ണ": 3129,
      "ാവശ്യ": 3130,
      "കില്ല": 3131,
      "മ്മിന": 3132,
      "േക്കു": 3133,
      "ളജി": 3134,
      "ോച": 3135,
      "ഷാ": 3136,
      "ാശ": 3137,
      "പോര": 3138,
      "ൂണ്": 3139,
      "റ്റേ": 3140,
      "ുകളിൽ": 3141,
      "്രീ": 3142,
      "ങ്കില": 3143,
      "തന": 3144,
      "ോഡ": 3145,
      "ുകളാണ": 3146,
      "ഷിക്ക": 3147,
      "ംസ്": 3148,
      "മൈ": 3149,
      "ുവാ": 3150,
      "മ്പാ": 3151,
      "ഖ്യ": 3152,
      "ാപക": 3153,
      "ഷങ്ങള": 3154,
      "തായ": 3155,
      "ലാം": 3156,
      "കത്ത്": 3157,
      "ിനും": 3158,
      "റ്റോ": 3159,
      "23": 3160,
      "സ്യ": 3161,
      "നിലനി": 3162,
      "റൽ": 3163,
      "ഹര": 3164,
      "റ്ററ": 3165,
      "ണര്": 3166,
      "തകർ": 3167,
      "ാനായി": 3168,
      "ച്ചില": 3169,
      "ച്ചകള": 3170,
      "മോഹ": 3171,
      "ടന്നു": 3172,
      "അദ": 3173,
      "നമ്പ": 3174,
      "പ്ത": 3175,
      "മടങ്ങ": 3176,
      "ട്ടോ": 3177,
      "കാന്": 3178,
      "റാന": 3179,
      "60": 3180,
      "റണ": 3181,
      "ുനി": 3182,
      "മതി": 3183,
      "ോഷ": 3184,
      "വസ്ത": 3185,
      "വസ്തു": 3186,
      "മില": 3187,
      "ോസി": 3188,
      "##ർണ": 3189,
      "സ്സ": 3190,
      "ഗണ": 3191,
      "്പീ": 3192,
      "ീണ്ട": 3193,
      "ിലായി": 3194,
      "കൂടിയ": 3195,
      "ബ്രാ": 3196,
      "ുറ്റ": 3197,
      "റ്റല": 3198,
      "കോർ": 3199,
      "നശ": 3200,
      "്ക്ക്": 3201,
      "ിനാ": 3202,
      "ശിച്ച": 3203,
      "തമ്മി": 3204,
      "ോണി": 3205,
      "ർവ്വ": 3206,
      "ഥമ": 3207,
      "അല്": 3208,
      "നിധ": 3209,
      "സ്വർണ": 3210,
      "ദേശം": 3211,
      "േര്": 3212,
      "വാസ": 3213,
      "ിഗ": 3214,
      "ുന": 3215,
      "ോധ": 3216,
      "ത്തം": 3217,
      "െന്നത": 3218,
      "ഹിക്ക": 3219,
      "കാലം": 3220,
      "പന്ത": 3221,
      "കളായ": 3222,
      "വൻ": 3223,
      "വാക്സ": 3224,
      "ധേ": 3225,
      "ുല്": 3226,
      "ക്കില": 3227,
      "ോധന": 3228,
      "യെത്ത": 3229,
      "ഖത്ത": 3230,
      "വധി": 3231,
      "േന": 3232,
      "മത്സ": 3233,
      "ിഖ": 3234,
      "ൈവ": 3235,
      "ുമെ": 3236,
      "ിയി": 3237,
      "നിക": 3238,
      "തിരാ": 3239,
      "കഥ": 3240,
      "എഴുത": 3241,
      "ുപ്പ": 3242,
      "ർഷ": 3243,
      "ടിയാ": 3244,
      "ീന്": 3245,
      "ിക്കൊ": 3246,
      "തരമാ": 3247,
      "ാലിക": 3248,
      "താമസ": 3249,
      "ളുകള": 3250,
      "േറ": 3251,
      "താത": 3252,
      "ദഗ": 3253,
      "ഒക്": 3254,
      "അങ്ങ": 3255,
      "ബിന": 3256,
      "ധേയ": 3257,
      "സര": 3258,
      "ാന്ത": 3259,
      "വിദ": 3260,
      "നന്": 3261,
      "ക്കന്": 3262,
      "ലമ": 3263,
      "ളം": 3264,
      "ുസ": 3265,
      "ിവയ": 3266,
      "ോയ്": 3267,
      "ംബര്": 3268,
      "മിച്ച": 3269,
      "സ്പ": 3270,
      "േല": 3271,
      "്ഗ": 3272,
      "മറ": 3273,
      "ിജ": 3274,
      "റിൽ": 3275,
      "ളമ": 3276,
      "ാനമാ": 3277,
      "ുണ്ടോ": 3278,
      "ഉത്": 3279,
      "ൾക്ക": 3280,
      "28": 3281,
      "കാന": 3282,
      "സന": 3283,
      "നായി": 3284,
      "മന്": 3285,
      "മിനി": 3286,
      "ഇതു": 3287,
      "ഏഴ": 3288,
      "ാജി": 3289,
      "ംബാ": 3290,
      "കൃഷ": 3291,
      "പ്രവര": 3292,
      "ലപ്പെ": 3293,
      "മറി": 3294,
      "ാഴ്": 3295,
      "ാലയ": 3296,
      "ർശന": 3297,
      "യത": 3298,
      "്ലോ": 3299,
      "ബസ്": 3300,
      "ിസ്ഥ": 3301,
      "ോക്": 3302,
      "പ്പാ": 3303,
      "വിനെ": 3304,
      "മേയ": 3305,
      "ീല": 3306,
      "്ബ": 3307,
      "ക്കെട": 3308,
      "ൂല്യ": 3309,
      "മിക": 3310,
      "ശയ": 3311,
      "##േര": 3312,
      "ഹിച്ച": 3313,
      "െച്ച": 3314,
      "സിക": 3315,
      "ിതര": 3316,
      "റവ": 3317,
      "അധിക": 3318,
      "തര്": 3319,
      "കൗണ്": 3320,
      "ിർ": 3321,
      "ട്ടര്": 3322,
      "ഉച്ച": 3323,
      "വാട": 3324,
      "്ണു": 3325,
      "മസ്": 3326,
      "ക്കറ": 3327,
      "ധു": 3328,
      "സിക്": 3329,
      "ീഷ്": 3330,
      "െബ്": 3331,
      "അംഗീ": 3332,
      "യറാ": 3333,
      "യാല": 3334,
      "ദ്യോഗ": 3335,
      "ദര്": 3336,
      "ിജി": 3337,
      "##ങ്ങി": 3338,
      "##ങ്ങൾ": 3339,
      "കാറ": 3340,
      "ളിത": 3341,
      "ൈസ": 3342,
      "സാന്": 3343,
      "27": 3344,
      "അവര": 3345,
      "ക്കണമ": 3346,
      "ര്‍": 3347,
      "കല്ല": 3348,
      "പോസി": 3349,
      "ാറ്റ്": 3350,
      "തൃക": 3351,
      "വേഷ": 3352,
      "റച്ച": 3353,
      "വായി": 3354,
      "ക്സ": 3355,
      "്രിസ": 3356,
      "ശേരി": 3357,
      "നിയന": 3358,
      "െറ്റ്": 3359,
      "ആം": 3360,
      "ടില്ല": 3361,
      "ിങ": 3362,
      "ിഷേധ": 3363,
      "വഹ": 3364,
      "ഉമ്മ": 3365,
      "ുടേ": 3366,
      "ഷ്ടമാ": 3367,
      "ുമതി": 3368,
      "ഇര": 3369,
      "ചാര": 3370,
      "സ്തി": 3371,
      "കോട്ട": 3372,
      "റ്റർ": 3373,
      "ിയോ": 3374,
      "്രു": 3375,
      "തിവ": 3376,
      "കുക": 3377,
      "ലോട്ട": 3378,
      "അത്തര": 3379,
      "ിലൊ": 3380,
      "ംശ": 3381,
      "കണം": 3382,
      "ഇറക്ക": 3383,
      "26": 3384,
      "ൽപ്പ": 3385,
      "ജഡ": 3386,
      "ീക്ഷ": 3387,
      "സ്ട": 3388,
      "നാള": 3389,
      "ശബ": 3390,
      "െല": 3391,
      "ർമ്മ": 3392,
      "കാട്ട": 3393,
      "ാർക്ക": 3394,
      "കണമ": 3395,
      "31": 3396,
      "ക്കാറ": 3397,
      "ോട്ടു": 3398,
      "കുടു": 3399,
      "ഭാവി": 3400,
      "കോടതി": 3401,
      "ൊള്ള": 3402,
      "ച്ചിര": 3403,
      "റക്ക": 3404,
      "ോക": 3405,
      "100": 3406,
      "ിസ്ഥാ": 3407,
      "റന്": 3408,
      "സിച്ച": 3409,
      "ഴാ": 3410,
      "ത്വം": 3411,
      "വാഹ": 3412,
      "ംഗ്": 3413,
      "ല്ലി": 3414,
      "ടുപ്പ": 3415,
      "ോചന": 3416,
      "ടത്": 3417,
      "വട": 3418,
      "ഭി": 3419,
      "35": 3420,
      "ക്കാണ": 3421,
      "രുണ": 3422,
      "ഐസ": 3423,
      "കിന": 3424,
      "ിനോട": 3425,
      "ിഎസ്": 3426,
      "മമ": 3427,
      "കാത്ത": 3428,
      "ങ്കിൽ": 3429,
      "നന്ദി": 3430,
      "്ഡ": 3431,
      "പ്പുറ": 3432,
      "കല്": 3433,
      "ത്തും": 3434,
      "സിറ്റ": 3435,
      "കയറി": 3436,
      "വേദ": 3437,
      "##ദ്ദ": 3438,
      "തൂ": 3439,
      "ിപ്പോ": 3440,
      "ൂട്ട്": 3441,
      "ൂവ": 3442,
      "യൊരു": 3443,
      "ലിസ്": 3444,
      "ിയില": 3445,
      "ചന": 3446,
      "ോടി": 3447,
      "യാഴ്ച": 3448,
      "രിവാ": 3449,
      "നദ": 3450,
      "റിക": 3451,
      "യാലും": 3452,
      "ുക്ത": 3453,
      "ിലായ": 3454,
      "കേഷ": 3455,
      "ിസ്ത": 3456,
      "ക്യൂ": 3457,
      "വകാശ": 3458,
      "േലി": 3459,
      "ൾക്ക്": 3460,
      "കാരി": 3461,
      "ോന്ന": 3462,
      "്രേ": 3463,
      "്രമ": 3464,
      "ുമാര": 3465,
      "േക്കാ": 3466,
      "ഴക്ക": 3467,
      "േക്ഷ": 3468,
      "വേശ": 3469,
      "്പൂ": 3470,
      "ആന്": 3471,
      "യേക്ക": 3472,
      "വിള": 3473,
      "ഔദ": 3474,
      "പൈ": 3475,
      "റുകള": 3476,
      "പ്രതി": 3477,
      "ർത്തു": 3478,
      "്ക്ക": 3479,
      "കോടിയ": 3480,
      "രസ്": 3481,
      "സോഷ്യ": 3482,
      "ദയ": 3483,
      "ിട്ട്": 3484,
      "ിതമാ": 3485,
      "മമത": 3486,
      "്യത്ത": 3487,
      "സ്ട്ര": 3488,
      "ഡ്ര": 3489,
      "ിള്": 3490,
      "ത്താന": 3491,
      "കൃത്യ": 3492,
      "ജയ്": 3493,
      "ൻ്റ": 3494,
      "ധിപ്പ": 3495,
      "ഘാ": 3496,
      "പഴയ": 3497,
      "ഗാന": 3498,
      "പകര": 3499,
      "േക്ഷക": 3500,
      "രാറ": 3501,
      "്പര": 3502,
      "ംബര": 3503,
      "ർദ്ദ": 3504,
      "നാട്": 3505,
      "ിരോധ": 3506,
      "ാവന": 3507,
      "ണിക്ക": 3508,
      "യണ": 3509,
      "ഴിവ": 3510,
      "േട്ട": 3511,
      "ൈന": 3512,
      "യുട": 3513,
      "മ്പത": 3514,
      "ഉത്ത": 3515,
      "ണല്": 3516,
      "പുഴ": 3517,
      "നഡ": 3518,
      "ന്മ": 3519,
      "ാലം": 3520,
      "്ലിക്": 3521,
      "ട്ടം": 3522,
      "ടിന": 3523,
      "ൻ്റെ": 3524,
      "ഡന": 3525,
      "ഇവര": 3526,
      "ബർ": 3527,
      "സാര": 3528,
      "പ്രശ": 3529,
      "വിടെയ": 3530,
      "രുമ": 3531,
      "കൊള്ള": 3532,
      "രിത": 3533,
      "തെല": 3534,
      "യാവ": 3535,
      "യിച്ച": 3536,
      "ഴിച്ച": 3537,
      "തമ": 3538,
      "മിക്ക": 3539,
      "റില്": 3540,
      "കരമായ": 3541,
      "ാനമ": 3542,
      "റ്റാ": 3543,
      "കാരന": 3544,
      "വാര": 3545,
      "സിഡ": 3546,
      "ല്ലേ": 3547,
      "ൂഹ": 3548,
      "െറി": 3549,
      "ോദ": 3550,
      "മഴയ": 3551,
      "ഴുക": 3552,
      "്യമാ": 3553,
      "പാറ": 3554,
      "ത്രിക": 3555,
      "പ്രതീ": 3556,
      "താക്ക": 3557,
      "ിയാന": 3558,
      "ഭക്ഷ": 3559,
      "തിരായ": 3560,
      "ിയാണ്": 3561,
      "ോടും": 3562,
      "ോളജ": 3563,
      "അതു": 3564,
      "ികളെ": 3565,
      "29": 3566,
      "വുക": 3567,
      "െസ്": 3568,
      "ക്വ": 3569,
      "ികാര": 3570,
      "കൈക": 3571,
      "റിവ": 3572,
      "##ഗണ": 3573,
      "പരിഗണ": 3574,
      "വിക്ക": 3575,
      "നാഥ്": 3576,
      "രാര്": 3577,
      "തെക്ക": 3578,
      "റീ": 3579,
      "െപ്": 3580,
      "സ്ല": 3581,
      "നൂറ": 3582,
      "ട്ടന": 3583,
      "ായത": 3584,
      "വൈറസ": 3585,
      "ിമത": 3586,
      "ഡീ": 3587,
      "ാഖ": 3588,
      "അജ": 3589,
      "റിച്ച": 3590,
      "ക്ഷിത": 3591,
      "അന്ന": 3592,
      "എയ": 3593,
      "റബ": 3594,
      "ുത": 3595,
      "ായിക": 3596,
      "ണിന": 3597,
      "മൃത": 3598,
      "ഷമ": 3599,
      "ോയി": 3600,
      "ദന": 3601,
      "േദ": 3602,
      "ക്സ്": 3603,
      "കടല": 3604,
      "സരി": 3605,
      "കൺ": 3606,
      "ഗി": 3607,
      "യ്പ": 3608,
      "രയാ": 3609,
      "വോ": 3610,
      "ീമ": 3611,
      "വിദ്യ": 3612,
      "45": 3613,
      "കത്തി": 3614,
      "ഷെ": 3615,
      "ിമാ": 3616,
      "ൽക്ക": 3617,
      "മാല": 3618,
      "ിയും": 3619,
      "ദ്ധി": 3620,
      "എന്താ": 3621,
      "ണന": 3622,
      "വണ്": 3623,
      "ോഹ": 3624,
      "താവ": 3625,
      "ഫോട": 3626,
      "ലിയ": 3627,
      "െരു": 3628,
      "##ളം": 3629,
      "െഡ്": 3630,
      "ർമ": 3631,
      "ജിത്": 3632,
      "രക്ഷി": 3633,
      "അധി": 3634,
      "ദീ": 3635,
      "ൂപ്": 3636,
      "േട": 3637,
      "ോര": 3638,
      "നായിര": 3639,
      "േതാ": 3640,
      "സർവ": 3641,
      "ട്": 3642,
      "ുള്": 3643,
      "തട്ട": 3644,
      "താന": 3645,
      "ളിവ": 3646,
      "ട്ടീ": 3647,
      "ഴുത": 3648,
      "ഡിയോ": 3649,
      "അപ്പ": 3650,
      "്യമ": 3651,
      "നാലു": 3652,
      "ർണ്ണ": 3653,
      "ിസിസി": 3654,
      "ിയായി": 3655,
      "രുവ": 3656,
      "ഉയർ": 3657,
      "ബാന": 3658,
      "ഹാര": 3659,
      "ൂറു": 3660,
      "ിയറ": 3661,
      "വരാ": 3662,
      "തുത": 3663,
      "ിർത്ത": 3664,
      "ളിന": 3665,
      "ർച്ച": 3666,
      "്രസി": 3667,
      "ഉടൻ": 3668,
      "െസ": 3669,
      "റേറ്റ": 3670,
      "ിലവില": 3671,
      "മ്മു": 3672,
      "വായ": 3673,
      "്ലീ": 3674,
      "പറ്റി": 3675,
      "ംക": 3676,
      "നക്ക": 3677,
      "േഷന": 3678,
      "80": 3679,
      "ോപ്പ": 3680,
      "അടി": 3681,
      "രപ്പ": 3682,
      "മാത": 3683,
      "സിം": 3684,
      "്രസിഡ": 3685,
      "ിയൂ": 3686,
      "ിന്റ": 3687,
      "ഡിപ": 3688,
      "ഗഡ": 3689,
      "ൂർണ": 3690,
      "ളക്ക": 3691,
      "േജ്": 3692,
      "ക്ഷമ": 3693,
      "ീകരണം": 3694,
      "ുപ്പി": 3695,
      "തന്ന": 3696,
      "പ്രകാ": 3697,
      "കൾക്ക": 3698,
      "ടീം": 3699,
      "ഇയാ": 3700,
      "ൻസ്": 3701,
      "ഞ്ഞ്": 3702,
      "ഇവിട": 3703,
      "മണ": 3704,
      "റന്ന": 3705,
      "ാധി": 3706,
      "വിന്": 3707,
      "േറിയ": 3708,
      "കോട്": 3709,
      "െഷ": 3710,
      "അഭിമ": 3711,
      "ങ്": 3712,
      "സുപ": 3713,
      "ഡുകള": 3714,
      "യെങ്ക": 3715,
      "സംവ": 3716,
      "ലൂ": 3717,
      "ജന്": 3718,
      "വിഡ": 3719,
      "മിത": 3720,
      "ടങ്ങി": 3721,
      "സികള": 3722,
      "ിയാല്": 3723,
      "രിലെ": 3724,
      "ക്കിട": 3725,
      "in": 3726,
      "ളിയ": 3727,
      "ിക്കെ": 3728,
      "ടത്ത": 3729,
      "ിനാണ": 3730,
      "മിറ്റ": 3731,
      "ീട്ട": 3732,
      "ുഷ്": 3733,
      "െട്ട": 3734,
      "വീഴ": 3735,
      "ഷീ": 3736,
      "ങ്ക്": 3737,
      "70": 3738,
      "ലാണ്": 3739,
      "പാദ": 3740,
      "ായത്": 3741,
      "വർത്ത": 3742,
      "ഭീ": 3743,
      "ാനമായ": 3744,
      "വം": 3745,
      "തിലും": 3746,
      "ുമാന": 3747,
      "പാക്ക": 3748,
      "ിഷന": 3749,
      "ിര്": 3750,
      "ലിസ": 3751,
      "ുളം": 3752,
      "ഡല": 3753,
      "ഷിന": 3754,
      "ോഗ": 3755,
      "ക്കമ": 3756,
      "ുകാ": 3757,
      "ാണോ": 3758,
      "തികള്": 3759,
      "റായ": 3760,
      "ിങ്ക": 3761,
      "ള്ളവര": 3762,
      "ഗള": 3763,
      "ലബ": 3764,
      "യിലാ": 3765,
      "ന്നുമ": 3766,
      "്പെ": 3767,
      "ഴുതി": 3768,
      "്വേഷ": 3769,
      "ോന്നി": 3770,
      "ലച": 3771,
      "ഗോപ": 3772,
      "്യസ": 3773,
      "െട്ര": 3774,
      "ാപന": 3775,
      "ക്കണം": 3776,
      "കമാ": 3777,
      "ണങ്ങള": 3778,
      "്റേ": 3779,
      "മുറ": 3780,
      "ടിവ": 3781,
      "യര": 3782,
      "ക്കുട": 3783,
      "32": 3784,
      "റാണ്": 3785,
      "ബുക്ക": 3786,
      "ച്ചവ": 3787,
      "നടന്": 3788,
      "ഞ്ഞു": 3789,
      "ഐഎ": 3790,
      "ലാസ": 3791,
      "നല": 3792,
      "രസ": 3793,
      "പരസ്": 3794,
      "അര": 3795,
      "എല്ല": 3796,
      "ഓണ": 3797,
      "െറ": 3798,
      "ചാണ്ട": 3799,
      "ഷത്തെ": 3800,
      "ട്ടില": 3801,
      "ുറപ്പ": 3802,
      "ുമാണ": 3803,
      "തോമസ": 3804,
      "റ്": 3805,
      "ാഞ്ച": 3806,
      "ാനാവ": 3807,
      "ിത്ര": 3808,
      "യിലും": 3809,
      "രിസ": 3810,
      "്സാ": 3811,
      "കത്ത": 3812,
      "ീവ": 3813,
      "താപ": 3814,
      "ികെ": 3815,
      "്യണ": 3816,
      "ധിച്ച": 3817,
      "രക്ക": 3818,
      "സഫ": 3819,
      "പന": 3820,
      "ച്ചയ": 3821,
      "തള്ള": 3822,
      "ിവേ": 3823,
      "ൂട്ടി": 3824,
      "ിക്ര": 3825,
      "ാലിന": 3826,
      "യതി": 3827,
      "ുരുത": 3828,
      "േണ": 3829,
      "എപ": 3830,
      "വിൽ": 3831,
      "പുല": 3832,
      "്ജി": 3833,
      "ിനേ": 3834,
      "ിരാ": 3835,
      "പിറ": 3836,
      "ന്നിര": 3837,
      "ഇത്ര": 3838,
      "നാമ": 3839,
      "വുമായ": 3840,
      "ലത്ത": 3841,
      "ീല്": 3842,
      "പിഎ": 3843,
      "യക്കു": 3844,
      "തം": 3845,
      "നങ്ങൾ": 3846,
      "യച്ച": 3847,
      "ളാ": 3848,
      "െമ": 3849,
      "ിനൊ": 3850,
      "നടന": 3851,
      "ാവു": 3852,
      "തലയ": 3853,
      "ഠി": 3854,
      "മലയ": 3855,
      "ുരുതര": 3856,
      "യൻ": 3857,
      "റായി": 3858,
      "ജിത": 3859,
      "വരാന": 3860,
      "ഡിസ": 3861,
      "െതിര": 3862,
      "ാരക": 3863,
      "്രകാര": 3864,
      "മറു": 3865,
      "വട്ട": 3866,
      "ോകത്ത": 3867,
      "ഫീ": 3868,
      "വരാണ്": 3869,
      "േഖ": 3870,
      "ിച്ചു": 3871,
      "ഷിച്ച": 3872,
      "കമായി": 3873,
      "ടയില": 3874,
      "ടത്ത്": 3875,
      "ർട്ടി": 3876,
      "ർട്ട്": 3877,
      "രുക്ക": 3878,
      "ബേ": 3879,
      "രണ്": 3880,
      "വത്ത": 3881,
      "സിസ": 3882,
      "ധര": 3883,
      "ൂത": 3884,
      "നിശ": 3885,
      "പിതാ": 3886,
      "വാറ": 3887,
      "ിഞ്ഞാ": 3888,
      "തയില": 3889,
      "ീന്ദ": 3890,
      "ൻസി": 3891,
      "തോട": 3892,
      "ലിച്ച": 3893,
      "്തക": 3894,
      "അല്ലെ": 3895,
      "ലായ": 3896,
      "##െന": 3897,
      "സ്ക": 3898,
      "്റി": 3899,
      "ബുദ": 3900,
      "േരിയ": 3901,
      "പതിന": 3902,
      "ചക": 3903,
      "്ധ്യ": 3904,
      "ുവിന": 3905,
      "ീണ": 3906,
      "ൊറ": 3907,
      "രൂര": 3908,
      "ദേശ്": 3909,
      "ള്ളു": 3910,
      "ഡിന": 3911,
      "യല്": 3912,
      "റക്കി": 3913,
      "ലക്": 3914,
      "ർശി": 3915,
      "ശിക്ക": 3916,
      "ണവ": 3917,
      "ിദ്ധ": 3918,
      "ക്കേ": 3919,
      "ിയായ": 3920,
      "താവ്": 3921,
      "ള്ളിയ": 3922,
      "ഞ്ഞാ": 3923,
      "ദ്ധര": 3924,
      "നിർമ": 3925,
      "ുകാര്": 3926,
      "മാരാ": 3927,
      "ന്നേ": 3928,
      "നിലെ": 3929,
      "വൽ": 3930,
      "േടി": 3931,
      "രങ്ങ": 3932,
      "ഷണം": 3933,
      "ക്ഷത": 3934,
      "രത്": 3935,
      "സംര": 3936,
      "ട്ടയ": 3937,
      "പിട": 3938,
      "വടക": 3939,
      "സവ": 3940,
      "ുറി": 3941,
      "മുദ": 3942,
      "രാം": 3943,
      "മ്പന": 3944,
      "ാധാ": 3945,
      "ക്ടറ": 3946,
      "േഷൻ": 3947,
      "ൊണ്ട": 3948,
      "ുമ്പ": 3949,
      "ാസികള": 3950,
      "ഇറാ": 3951,
      "യ്യാ": 3952,
      "തിച്ച": 3953,
      "മ്പത്": 3954,
      "ജൂൺ": 3955,
      "ിക്കേ": 3956,
      "ിയത": 3957,
      "ിനാണ്": 3958,
      "്ടില്": 3959,
      "കളില്": 3960,
      "്പ്ര": 3961,
      "റങ്ങി": 3962,
      "ൈക": 3963,
      "ുഭ": 3964,
      "സെന്": 3965,
      "ഹമാ": 3966,
      "ോൺ": 3967,
      "കാരിക": 3968,
      "ാഴ": 3969,
      "ആന": 3970,
      "വരാണ": 3971,
      "ഒരേ": 3972,
      "ുള്ളി": 3973,
      "തൊരു": 3974,
      "ഷ്യല": 3975,
      "ചാല": 3976,
      "ഫീസ": 3977,
      "ോം": 3978,
      "ുവരു": 3979,
      "പട്ട": 3980,
      "ോത്": 3981,
      "റ്റിയ": 3982,
      "്താവ": 3983,
      "ിരീ": 3984,
      "ിതമായ": 3985,
      "ക്ട്": 3986,
      "ഭവ": 3987,
      "##ൻസ": 3988,
      "പുര": 3989,
      "ടിസ": 3990,
      "വിഡി": 3991,
      "ബന്ധമ": 3992,
      "ധിക്ക": 3993,
      "തെങ്ക": 3994,
      "ദശ": 3995,
      "വതി": 3996,
      "പ്രദ": 3997,
      "നിധി": 3998,
      "കുട": 3999,
      "നാം": 4000,
      "അശ": 4001,
      "തറ": 4002,
      "ബില്": 4003,
      "്രസ്": 4004,
      "ടിമ": 4005,
      "ിക്കൽ": 4006,
      "ിയിൽ": 4007,
      "കമായ": 4008,
      "വസ": 4009,
      "ോലി": 4010,
      "##െയ": 4011,
      "ഇതര": 4012,
      "ചുവ": 4013,
      "ന്ദര": 4014,
      "ോട്ടെ": 4015,
      "33": 4016,
      "ടല": 4017,
      "ീട്ടി": 4018,
      "ത്സ": 4019,
      "ന്ത്": 4020,
      "ോബി": 4021,
      "ച്ചിട": 4022,
      "ഫോൺ": 4023,
      "34": 4024,
      "ടയാ": 4025,
      "ായാണ്": 4026,
      "ാബി": 4027,
      "സെക്": 4028,
      "തുകൊ": 4029,
      "37": 4030,
      "ൈബ": 4031,
      "പോര്": 4032,
      "ിതം": 4033,
      "മത്തി": 4034,
      "വഹി": 4035,
      "ോഡി": 4036,
      "േഷന്": 4037,
      "വസ്": 4038,
      "സസ്": 4039,
      "ട്ടിയ": 4040,
      "ശോഭ": 4041,
      "ാജ്": 4042,
      "കാണാ": 4043,
      "48": 4044,
      "ാഫ": 4045,
      "ായില": 4046,
      "റഞ്ഞ": 4047,
      "ാങ്ങ": 4048,
      "ണ്ടാക": 4049,
      "ശം": 4050,
      "െന": 4051,
      "മാരി": 4052,
      "യാസ": 4053,
      "എന്തു": 4054,
      "തരം": 4055,
      "സൺ": 4056,
      "പ്പട": 4057,
      "തുമായ": 4058,
      "ാവുമ": 4059,
      "പൊട": 4060,
      "െന്റ്": 4061,
      "േർ": 4062,
      "്രത്യ": 4063,
      "##മാണ്": 4064,
      "ിയില്": 4065,
      "മദ": 4066,
      "ചിരി": 4067,
      "ഒമ": 4068,
      "മത്ത": 4069,
      "മ്പ്": 4070,
      "രാണ്": 4071,
      "മെങ്ക": 4072,
      "്നങ്ങ": 4073,
      "യിന": 4074,
      "ഷറ": 4075,
      "ാനു": 4076,
      "ജെപി": 4077,
      "ഴിക്ക": 4078,
      "ന്റി": 4079,
      "അമിത": 4080,
      "മം": 4081,
      "യന്": 4082,
      "ലസ": 4083,
      "പ്രസ്": 4084,
      "ിയേ": 4085,
      "കാരണമ": 4086,
      "ാലു": 4087,
      "ണോ": 4088,
      "ബറ": 4089,
      "ുന്നേ": 4090,
      "ഞ്ഞി": 4091,
      "ുവില": 4092,
      "ടാക്ക": 4093,
      "36": 4094,
      "ബൂ": 4095,
      "രവ്": 4096,
      "വത്": 4097,
      "ശശി": 4098,
      "ുങ്ങ": 4099,
      "രായി": 4100,
      "ുത്തല": 4101,
      "ാഗ്": 4102,
      "ുഷ": 4103,
      "സംബ": 4104,
      "്ട്ര": 4105,
      "ികള്": 4106,
      "ക്കാൻ": 4107,
      "ഒന്നാ": 4108,
      "ട്ടും": 4109,
      "അവിട": 4110,
      "ജ്യ": 4111,
      "ണിയ": 4112,
      "മ്യ": 4113,
      "ണ്ടും": 4114,
      "ജിസ്": 4115,
      "രംഭി": 4116,
      "േയ്": 4117,
      "ർഥ": 4118,
      "ല്ലു": 4119,
      "ഹിന്ദ": 4120,
      "ംവ": 4121,
      "ച്ചത": 4122,
      "ക്സി": 4123,
      "90": 4124,
      "വഴ": 4125,
      "ച്ചേര": 4126,
      "ടങ്ങള": 4127,
      "ഥികള": 4128,
      "##al": 4129,
      "കൂല": 4130,
      "ുടര്": 4131,
      "ണാ": 4132,
      "ുബ": 4133,
      "ർപ": 4134,
      "ിലന": 4135,
      "55": 4136,
      "ുടി": 4137,
      "േൽ": 4138,
      "ുകയു": 4139,
      "മേല": 4140,
      "ഗണി": 4141,
      "ാഡ": 4142,
      "്രസ": 4143,
      "ട്ടിന": 4144,
      "ന്തോ": 4145,
      "പാസ": 4146,
      "വൈസ": 4147,
      "രെയും": 4148,
      "ാദമ": 4149,
      "75": 4150,
      "ുദ്ധ": 4151,
      "്ഡി": 4152,
      "്യന്": 4153,
      "ന്തി": 4154,
      "എട": 4155,
      "ോമ": 4156,
      "ിക്കല": 4157,
      "ധാര": 4158,
      "്യാപ": 4159,
      "ന്തിന": 4160,
      "യോഗ്യ": 4161,
      "നുമായ": 4162,
      "്കോട": 4163,
      "ഇഡി": 4164,
      "നിഷ": 4165,
      "ാണു": 4166,
      "ാരം": 4167,
      "ാകര": 4168,
      "മ്മി": 4169,
      "ാറ്റു": 4170,
      "ർഹ": 4171,
      "പ്രേ": 4172,
      "ീയത": 4173,
      "യവ": 4174,
      "ാള്": 4175,
      "ുപാ": 4176,
      "രാശ": 4177,
      "കാരന്": 4178,
      "ക്ടര്": 4179,
      "രോധ": 4180,
      "റഹ": 4181,
      "തിഷ": 4182,
      "ന്നീ": 4183,
      "റെടു": 4184,
      "ലിൽ": 4185,
      "ളിപ്പ": 4186,
      "ൊഴ": 4187,
      "്ലൂ": 4188,
      "42": 4189,
      "സസ": 4190,
      "മുട": 4191,
      "ാധ്യത": 4192,
      "െറ്റി": 4193,
      "പാടില": 4194,
      "ധീ": 4195,
      "നകള": 4196,
      "സിറ": 4197,
      "##േഷന": 4198,
      "്തീ": 4199,
      "ഗ്യ": 4200,
      "ുക്ര": 4201,
      "ദള": 4202,
      "ച്ചട": 4203,
      "നിലയ": 4204,
      "ഷത്ത": 4205,
      "വിപ": 4206,
      "ാഹി": 4207,
      "പരിഹാ": 4208,
      "ഫറ": 4209,
      "ിണ": 4210,
      "ിടി": 4211,
      "ുതെ": 4212,
      "##പത": 4213,
      "വർണ": 4214,
      "ാത്തി": 4215,
      "ാട്ടു": 4216,
      "പനി": 4217,
      "സക്": 4218,
      "പുക": 4219,
      "ധവ": 4220,
      "ശ്ശേര": 4221,
      "്മാര": 4222,
      "ഗം": 4223,
      "്ത്യ": 4224,
      "മ്പർ": 4225,
      "ലാത്": 4226,
      "്തവ": 4227,
      "ിയിട": 4228,
      "ീപ്": 4229,
      "കെയ": 4230,
      "റിനെ": 4231,
      "ചത": 4232,
      "മയ": 4233,
      "റല്": 4234,
      "സുധ": 4235,
      "്രിക്": 4236,
      "ഒപ്പ": 4237,
      "ണല": 4238,
      "രാർ": 4239,
      "പെര": 4240,
      "്യാസ": 4241,
      "രമി": 4242,
      "ർമാ": 4243,
      "വീഴ്": 4244,
      "സേവ": 4245,
      "ാക്": 4246,
      "ോന്": 4247,
      "രിന": 4248,
      "ോൾ": 4249,
      "ിപ്പ്": 4250,
      "േറ്റ്": 4251,
      "ൂപ": 4252,
      "മുള": 4253,
      "രോട്": 4254,
      "സിയ": 4255,
      "രാക": 4256,
      "എഎ": 4257,
      "രയ": 4258,
      "ൈഡ": 4259,
      "യിലായ": 4260,
      "മ്പി": 4261,
      "ിനിമ": 4262,
      "ദ്യം": 4263,
      "ൂരില": 4264,
      "ലിറ്റ": 4265,
      "ആഴ": 4266,
      "പയോഗ": 4267,
      "യൽ": 4268,
      "ലീസ": 4269,
      "ിജെ": 4270,
      "ക്കട": 4271,
      "ണിത്": 4272,
      "കാരനാ": 4273,
      "ഓളം": 4274,
      "ക്കൂട": 4275,
      "രിയായ": 4276,
      "ലമെന": 4277,
      "സമാ": 4278,
      "ാസി": 4279,
      "്തി": 4280,
      "##കെ": 4281,
      "കളാണ": 4282,
      "അണ": 4283,
      "നിസ": 4284,
      "ാനാക": 4285,
      "ാതക": 4286,
      "ലധിക": 4287,
      "ൾപ്പ": 4288,
      "##യോ": 4289,
      "##മാണ": 4290,
      "38": 4291,
      "ഥാപ": 4292,
      "മധ": 4293,
      "സിസ്": 4294,
      "ലുവ": 4295,
      "200": 4296,
      "വല്": 4297,
      "ിപ": 4298,
      "ുന്": 4299,
      "സിൽ": 4300,
      "ചിത": 4301,
      "വയസ്": 4302,
      "ജിന": 4303,
      "ന്ദ്": 4304,
      "െടി": 4305,
      "കോവ": 4306,
      "വേഷണ": 4307,
      "വെള": 4308,
      "ോഷി": 4309,
      "43": 4310,
      "്കൂ": 4311,
      "സമ്പർ": 4312,
      "ബദ": 4313,
      "ൊര": 4314,
      "യുന്ന": 4315,
      "്ലേ": 4316,
      "േസെടു": 4317,
      "്തിന": 4318,
      "യട": 4319,
      "ൂഡ": 4320,
      "സിഡന്": 4321,
      "41": 4322,
      "തയാ": 4323,
      "ാണിത്": 4324,
      "റൈ": 4325,
      "ാനിയ": 4326,
      "തീയ": 4327,
      "ിനോ": 4328,
      "താക": 4329,
      "ബാബ": 4330,
      "െയില": 4331,
      "ലിന്": 4332,
      "ബോസ": 4333,
      "ഷ്യല്": 4334,
      "ഇരി": 4335,
      "തകള": 4336,
      "ാടന": 4337,
      "ൃത്തി": 4338,
      "ൊഴി": 4339,
      "ോളി": 4340,
      "ുടർ": 4341,
      "രിയാ": 4342,
      "്ററി": 4343,
      "ന്നെ": 4344,
      "ടണ": 4345,
      "ാഷ്": 4346,
      "ന്മാ": 4347,
      "ന്ദേ": 4348,
      "കോണ": 4349,
      "യമ": 4350,
      "ലങ്ങ": 4351,
      "ാദ്": 4352,
      "ക്കോട": 4353,
      "ജനം": 4354,
      "ണിത": 4355,
      "ലക്ക": 4356,
      "െഡി": 4357,
      "നത": 4358,
      "റിലെ": 4359,
      "ീറ": 4360,
      "ിക്കാ": 4361,
      "ച്ചുവ": 4362,
      "500": 4363,
      "ൊഴില": 4364,
      "ളില്": 4365,
      "വഴിയ": 4366,
      "വാള": 4367,
      "ഇതില": 4368,
      "ട്രി": 4369,
      "കടത്ത": 4370,
      "വസത": 4371,
      "ീം": 4372,
      "ർക്ക്": 4373,
      "്യേ": 4374,
      "രാക്ക": 4375,
      "ിവ്": 4376,
      "39": 4377,
      "അവി": 4378,
      "സജി": 4379,
      "െക്": 4380,
      "ോസ്": 4381,
      "ോലെ": 4382,
      "ലിക്ക": 4383,
      "ലീസ്": 4384,
      "ഹോം": 4385,
      "െവ": 4386,
      "മായത": 4387,
      "ഭാഗം": 4388,
      "തികൾ": 4389,
      "രണമ": 4390,
      "ുലി": 4391,
      "ൂറ": 4392,
      "ിലേ": 4393,
      "പിന്ത": 4394,
      "കൊള": 4395,
      "്റ്റ്": 4396,
      "ഞ്ഞിര": 4397,
      "്മത": 4398,
      "ലധികം": 4399,
      "ൂട്": 4400,
      "ഥാന": 4401,
      "ലന": 4402,
      "ശ്ച": 4403,
      "ഇതാ": 4404,
      "ഡയ": 4405,
      "നയില": 4406,
      "്രയി": 4407,
      "ുവരെ": 4408,
      "തിയായ": 4409,
      "52": 4410,
      "സബ്": 4411,
      "നടൻ": 4412,
      "ലോക്ക": 4413,
      "ടത്തി": 4414,
      "ിഡി": 4415,
      "വാർ": 4416,
      "ാലോ": 4417,
      "ളിച്ച": 4418,
      "ന്നീട": 4419,
      "േത്": 4420,
      "ഫഷ": 4421,
      "മുകള": 4422,
      "നിയോ": 4423,
      "ബന്": 4424,
      "വസര": 4425,
      "ച്ചാ": 4426,
      "ച്ചും": 4427,
      "ിലാണ്": 4428,
      "നുണ": 4429,
      "..": 4430,
      "േന്ദ": 4431,
      "##es": 4432,
      "മേള": 4433,
      "ജക": 4434,
      "ബില": 4435,
      "ബത്ത": 4436,
      "മൃ": 4437,
      "ലത": 4438,
      "ൊടു": 4439,
      "്രൂ": 4440,
      "പേരാ": 4441,
      "സ്വീ": 4442,
      "ിനിട": 4443,
      "ുണ്": 4444,
      "റിന്": 4445,
      "ാവ്": 4446,
      "മോദി": 4447,
      "റങ്ങ": 4448,
      "ിമി": 4449,
      "കളോട": 4450,
      "ക്കാം": 4451,
      "െയ്ത": 4452,
      "പിഴ": 4453,
      "ജൻ": 4454,
      "ളോ": 4455,
      "ിളി": 4456,
      "ീഫ": 4457,
      "്റം": 4458,
      "അപ്": 4459,
      "ഐടി": 4460,
      "മർ": 4461,
      "ലാണ": 4462,
      "ന്വേ": 4463,
      "ിടങ്ങ": 4464,
      "ാധക": 4465,
      "ാമത": 4466,
      "്ലാതെ": 4467,
      "49": 4468,
      "അലി": 4469,
      "ആറ": 4470,
      "്യാപക": 4471,
      "രട": 4472,
      "ൊണ": 4473,
      "ോജ": 4474,
      "്വി": 4475,
      "ൾഡ": 4476,
      "നിച്ച": 4477,
      "കേസില": 4478,
      "ുപത": 4479,
      "47": 4480,
      "44": 4481,
      "ഉമ": 4482,
      "്മാന": 4483,
      "റ്റീ": 4484,
      "51": 4485,
      "ഉം": 4486,
      "എകെ": 4487,
      "യാര്": 4488,
      "്യങ്ങ": 4489,
      "ഉപയോ": 4490,
      "േസില": 4491,
      "നയുടെ": 4492,
      "ഇല": 4493,
      "ഷപ്പ": 4494,
      "ൗണ": 4495,
      "ണിക്": 4496,
      "ാറില": 4497,
      "രഞ്ഞ": 4498,
      "ൂണ": 4499,
      "കൊല്": 4500,
      "ുത്തു": 4501,
      "ടപ്പ": 4502,
      "നസ്സ": 4503,
      "ുൽ": 4504,
      "്ള": 4505,
      "്റ്": 4506,
      "ൽപ": 4507,
      "്ടിലെ": 4508,
      "പോലു": 4509,
      "ാരമ": 4510,
      "്ടെ": 4511,
      "ടിപ്പ": 4512,
      "നുള്ള": 4513,
      "ചുമത": 4514,
      "ീണ്ടു": 4515,
      "65": 4516,
      "തത്": 4517,
      "സ്പി": 4518,
      "ങ്ങാ": 4519,
      "നിപ": 4520,
      "മെയ": 4521,
      "ർത്ഥി": 4522,
      "രിക": 4523,
      "ലവ": 4524,
      "ളോട്": 4525,
      "ശൻ": 4526,
      "കൊല": 4527,
      "ടയ": 4528,
      "ദാന": 4529,
      "നോട്": 4530,
      "സില്": 4531,
      "ുന്ന്": 4532,
      "ുങ്ങി": 4533,
      "ക്കയ": 4534,
      "ഭിമ": 4535,
      "ഇങ്ങ": 4536,
      "ിയന്": 4537,
      "ഇതോട": 4538,
      "യൂര": 4539,
      "ാനെ": 4540,
      "യിന്": 4541,
      "കൊച്ച": 4542,
      "ഇടം": 4543,
      "നബ": 4544,
      "ഫസ": 4545,
      "##ാർ": 4546,
      "##an": 4547,
      "ഥാനാർ": 4548,
      "കരു": 4549,
      "പിള": 4550,
      "ുറവ": 4551,
      "ദർ": 4552,
      "നര": 4553,
      "ിയന്ത": 4554,
      "ൂരി": 4555,
      "മാരെ": 4556,
      "വീകര": 4557,
      "co": 4558,
      "ടര": 4559,
      "മെട": 4560,
      "യ്ത": 4561,
      "രത്ത": 4562,
      "ാശി": 4563,
      "േവ": 4564,
      "തിക്ക": 4565,
      "ടക": 4566,
      "യൺ": 4567,
      "ലപ": 4568,
      "ങ്കി": 4569,
      "ടിയില": 4570,
      "സീസ": 4571,
      "ർഘ": 4572,
      "കൗണ്ട": 4573,
      "രോട": 4574,
      "ലന്": 4575,
      "സാന": 4576,
      "െര": 4577,
      "ന്നുക": 4578,
      "ഴ്ച്ച": 4579,
      "നക": 4580,
      "മസ": 4581,
      "##am": 4582,
      "ാരു": 4583,
      "ിലുമ": 4584,
      "റയ": 4585,
      "ുദ": 4586,
      "ുരി": 4587,
      "െന്നി": 4588,
      "താവിന": 4589,
      "ആക്": 4590,
      "ടര്": 4591,
      "ശത്ത്": 4592,
      "ൈം": 4593,
      "്ടാണ്": 4594,
      "ായം": 4595,
      "്റ്റി": 4596,
      "്കെടു": 4597,
      "ാരിയ": 4598,
      "രല": 4599,
      "ൂസ": 4600,
      "കേട": 4601,
      "തുണ": 4602,
      "കാവ": 4603,
      "കമ്പ": 4604,
      "ഖില": 4605,
      "രത": 4606,
      "ൻറ": 4607,
      "തിപ്പ": 4608,
      "ട്രെയ": 4609,
      "തികള": 4610,
      "ംവി": 4611,
      "അബ": 4612,
      "പട്ടി": 4613,
      "ഹസ": 4614,
      "ുഹ": 4615,
      "്പി": 4616,
      "നെതിര": 4617,
      "ww": 4618,
      "തത്ത": 4619,
      "ച്ചറ": 4620,
      "മകൻ": 4621,
      "ൽഡ": 4622,
      "മറ്റൊ": 4623,
      "കമ്": 4624,
      "എയർ": 4625,
      "www": 4626,
      "46": 4627,
      "ുതിര": 4628,
      "ന്‍": 4629,
      "യുക": 4630,
      "വാന്": 4631,
      "ള്‍": 4632,
      "ദിക്": 4633,
      "കൽ": 4634,
      "ജഗ": 4635,
      "ടന": 4636,
      "ുച": 4637,
      "്മാ": 4638,
      "കളു": 4639,
      "##യാണ്": 4640,
      "ിശ്വ": 4641,
      "സരത്ത": 4642,
      "നയം": 4643,
      "റഫ": 4644,
      "്യപ്പ": 4645,
      "ികമാ": 4646,
      "സ്ഥിര": 4647,
      "്ഷന": 4648,
      "ഒന്": 4649,
      "ശക": 4650,
      "ാക്ഷ": 4651,
      "ന്നോട": 4652,
      "പൊട്ട": 4653,
      "സൽ": 4654,
      "ിടു": 4655,
      "ുട്": 4656,
      "ോയ": 4657,
      "വിയ": 4658,
      "റുമാ": 4659,
      "ചായ": 4660,
      "ിലോ": 4661,
      "്ലെ": 4662,
      "ാര്യമ": 4663,
      "്യമാക": 4664,
      "മാവ": 4665,
      "മ്മന": 4666,
      "്മിന": 4667,
      "കനാ": 4668,
      "54": 4669,
      "അമ": 4670,
      "കട്ട": 4671,
      "ൊല": 4672,
      "റ്റിൽ": 4673,
      "ാന്റ": 4674,
      "ക്ഷാ": 4675,
      "യൂട": 4676,
      "ഫഷണ": 4677,
      "യാര": 4678,
      "ിലയ": 4679,
      "രാണ": 4680,
      "ാങ്ക്": 4681,
      "കുമോ": 4682,
      "ിബി": 4683,
      "കൻ": 4684,
      "രണം": 4685,
      "ുള്ളവ": 4686,
      "ന്നവര": 4687,
      "വാങ്": 4688,
      "തുമ": 4689,
      "ിടയ": 4690,
      "ജയം": 4691,
      "ഗറ": 4692,
      "ടും": 4693,
      "വന്ത": 4694,
      "an": 4695,
      "നതാ": 4696,
      "ളും": 4697,
      "ല്ലായ": 4698,
      "56": 4699,
      "നിന": 4700,
      "ണ്ടോ": 4701,
      "മ്പോ": 4702,
      "ാവുക": 4703,
      "വളര": 4704,
      "ബഹള": 4705,
      "അഴ": 4706,
      "ുശ": 4707,
      "ൽഷ": 4708,
      "്രെ": 4709,
      "നേയ": 4710,
      "വെറു": 4711,
      "പലര": 4712,
      "നസ്": 4713,
      "ലറ": 4714,
      "ാസമ": 4715,
      "റ്റെ": 4716,
      "ണ്ടായ": 4717,
      "പര്": 4718,
      "മിയ": 4719,
      "ാമത്ത": 4720,
      "രയില": 4721,
      "രമായി": 4722,
      "സ്വര": 4723,
      "ിപ്പാ": 4724,
      "ഇഷ": 4725,
      "മുക": 4726,
      "പിന്ന": 4727,
      "വെല്": 4728,
      "നീട": 4729,
      "അഭ": 4730,
      "ക്കല": 4731,
      "ലുണ്ട": 4732,
      "ഫിക്": 4733,
      "പട്": 4734,
      "ൾസ": 4735,
      "വിറ്റ": 4736,
      "റ്റും": 4737,
      "72": 4738,
      "ആറു": 4739,
      "ളത്ത": 4740,
      "ുണ": 4741,
      "ോപ": 4742,
      "തിനൊ": 4743,
      "ണമായി": 4744,
      "പടി": 4745,
      "ാബ്": 4746,
      "ിപ്": 4747,
      "കൊടു": 4748,
      "വേറ": 4749,
      "ലഡ": 4750,
      "ാപ്": 4751,
      "മാസം": 4752,
      "53": 4753,
      "മ്": 4754,
      "െയാണ്": 4755,
      "റിംഗ": 4756,
      "ജമ": 4757,
      "രദേശ": 4758,
      "ീഴ്": 4759,
      "യാല്": 4760,
      "ക്ഷന്": 4761,
      "ഷ്ടി": 4762,
      "ന്നിട": 4763,
      "ജിയ": 4764,
      "തമാ": 4765,
      "പവ": 4766,
      "ലിക": 4767,
      "വാണ": 4768,
      "്സ്": 4769,
      "രിട്ട": 4770,
      "ംസാ": 4771,
      "തിയാ": 4772,
      "58": 4773,
      "റച്ച്": 4774,
      "വഷ": 4775,
      "ഷഹ": 4776,
      "ോശ": 4777,
      "നിപ്പ": 4778,
      "കാം": 4779,
      "കാലി": 4780,
      "നെന്ന": 4781,
      "ലിനെ": 4782,
      "ര്യം": 4783,
      "ണവും": 4784,
      "57": 4785,
      "തവ": 4786,
      "യയ": 4787,
      "ഴയ": 4788,
      "ിയാല": 4789,
      "പറേഷന": 4790,
      "ദിവസം": 4791,
      "ശിപ്പ": 4792,
      "ോള്": 4793,
      "ക്ടർ": 4794,
      "കങ്ങള": 4795,
      "തകര": 4796,
      "സദ": 4797,
      "ാഥ": 4798,
      "ോദ്": 4799,
      "ിലാണ": 4800,
      "തിമ": 4801,
      "യിക": 4802,
      "ാർട്ട": 4803,
      "150": 4804,
      "ജില": 4805,
      "്ഞ": 4806,
      "രാട്": 4807,
      "ചേരി": 4808,
      "െയ്യ": 4809,
      "സാരി": 4810,
      "വഷള": 4811,
      "ിയാണ": 4812,
      "ായു": 4813,
      "യതോടെ": 4814,
      "ശില": 4815,
      "ഷ്മ": 4816,
      "ഹേ": 4817,
      "ിഗ്": 4818,
      "്രിയ": 4819,
      "ക്ഷന": 4820,
      "ണ്ണൂ": 4821,
      "്മയ": 4822,
      "മരം": 4823,
      "ർദ": 4824,
      "നുസ": 4825,
      "വരുമാ": 4826,
      "300": 4827,
      "ഖല": 4828,
      "##te": 4829,
      "ങ്കു": 4830,
      "ൂർത്ത": 4831,
      "ടർ": 4832,
      "രദ്": 4833,
      "ത്തുക": 4834,
      "ിക്കര": 4835,
      "ിയു": 4836,
      "റ്റത": 4837,
      "വരില": 4838,
      "റിസ്": 4839,
      "ിനിമയ": 4840,
      "പോളി": 4841,
      "മുസ്ല": 4842,
      "അധ": 4843,
      "കവ": 4844,
      "ഗെ": 4845,
      "പള്": 4846,
      "യങ്ക": 4847,
      "റൺ": 4848,
      "ോടു": 4849,
      "നിക്": 4850,
      "്ടായി": 4851,
      "രുപ": 4852,
      "അപക": 4853,
      "സ്വീക": 4854,
      "ഗങ്ങള": 4855,
      "തർ": 4856,
      "മെന": 4857,
      "മിറ": 4858,
      "തസ": 4859,
      "സയില": 4860,
      "പറേ": 4861,
      "ിന്നാ": 4862,
      "62": 4863,
      "പക്": 4864,
      "ത്താക": 4865,
      "ഇന": 4866,
      "രുന": 4867,
      "രൂപയ": 4868,
      "പിയ": 4869,
      "സൻസ": 4870,
      "ായത്ത": 4871,
      "ടിട": 4872,
      "ചോദ": 4873,
      "ടേയ": 4874,
      "യ്യാറ": 4875,
      "ശൂ": 4876,
      "ിക്കോ": 4877,
      "മ്പു": 4878,
      "ലായിര": 4879,
      "ലായി": 4880,
      "##ഫ്": 4881,
      "ദ്ധത": 4882,
      "കടക": 4883,
      "ിറക": 4884,
      "അസം": 4885,
      "ിയയില": 4886,
      "പുത": 4887,
      "ാര്യത": 4888,
      "ീഷണ": 4889,
      "ണ്ടാവ": 4890,
      "റുകള്": 4891,
      "go": 4892,
      "ണത്ത": 4893,
      "യങ്ങള": 4894,
      "രള": 4895,
      "രഘ": 4896,
      "വിക്": 4897,
      "ിയതി": 4898,
      "്യാര": 4899,
      "റ്റം": 4900,
      "തുക്ക": 4901,
      "്പു": 4902,
      "നുഭവ": 4903,
      "വനം": 4904,
      "ദല": 4905,
      "ശവ": 4906,
      "നിക്ക": 4907,
      "പാടു": 4908,
      "രിവ": 4909,
      "ാരമാ": 4910,
      "പിയില": 4911,
      "ഡന്": 4912,
      "നങ്ങ": 4913,
      "യമാ": 4914,
      "ാങ്": 4915,
      "ീക്ക": 4916,
      "സ്ലി": 4917,
      "ട്ടറ": 4918,
      "ങ്കാ": 4919,
      "അടക്ക": 4920,
      "59": 4921,
      "കത": 4922,
      "ഡന്റ": 4923,
      "്യവ": 4924,
      "പറമ്പ": 4925,
      "ടിപ": 4926,
      "നറ": 4927,
      "മട": 4928,
      "വജ": 4929,
      "ശങ്ങള": 4930,
      "ാവി": 4931,
      "സുന": 4932,
      "മോദ": 4933,
      "ാരായ": 4934,
      "ചതി": 4935,
      "ദത്ത": 4936,
      "റേഷ": 4937,
      "സന്ത": 4938,
      "ാന്ന": 4939,
      "്ദ": 4940,
      "ക്കാവ": 4941,
      "അഡ്": 4942,
      "ണക്കു": 4943,
      "ശ്വസ": 4944,
      "്രമം": 4945,
      "##ala": 4946,
      "തരണ": 4947,
      "പ്യ": 4948,
      "മങ്ങ": 4949,
      "റൻ": 4950,
      "്ന്": 4951,
      "വാന": 4952,
      "പ്പോര": 4953,
      "ഡോക്": 4954,
      "ാമര": 4955,
      "രോപി": 4956,
      "ഖ്യാ": 4957,
      "ഗര": 4958,
      "മൻ": 4959,
      "രട്": 4960,
      "ഹം": 4961,
      "ൂണി": 4962,
      "ക്കണ": 4963,
      "ളിലെ": 4964,
      "ോന": 4965,
      "എംപ": 4966,
      "ഹേമ": 4967,
      "്പുഴ": 4968,
      "നന": 4969,
      "##ar": 4970,
      "്യൻ": 4971,
      "ട്ടമ": 4972,
      "പാക്": 4973,
      "രുടെയ": 4974,
      "മ്മാ": 4975,
      "85": 4976,
      "ഇപി": 4977,
      "ാരും": 4978,
      "ഷ്ണ": 4979,
      "അൽ": 4980,
      "സുകള": 4981,
      "്ടത്ത": 4982,
      "ുകളെ": 4983,
      "ിന്നി": 4984,
      "്നാ": 4985,
      "ൂലമ": 4986,
      "എങ്ങ": 4987,
      "സന്ധ": 4988,
      "ാച": 4989,
      "ിദ്": 4990,
      "ിച്ചത": 4991,
      "ത്യം": 4992,
      "ാറില്": 4993,
      "400": 4994,
      "ലേക്ക": 4995,
      "ചില്ല": 4996,
      "ഡില്": 4997,
      "നർ": 4998,
      "ശ്യ": 4999
    }
  }
}