<unk>	0
<s>	0
</s>	0
ന്	-0
ക്	-1
ത്	-2
്‍	-3
▁പ	-4
ന്ന	-5
ക്ക	-6
തി	-7
▁ക	-8
്ട	-9
▁സ	-10
ില	-11
▁വ	-12
ും	-13
▁ന	-14
▁മ	-15
▁അ	-16
ര്‍	-17
്ര	-18
ച്	-19
്പ	-20
ിയ	-21
ുന്ന	-22
്യ	-23
ായ	-24
ാണ	-25
ട്ട	-26
ത്തി	-27
ങ്	-28
പ്പ	-29
▁എ	-30
ിക്ക	-31
റ്	-32
ാണ്	-33
ത്ത	-34
സ്	-35
ച്ച	-36
▁ത	-37
▁ഇ	-38
ണ്ട	-39
ങ്ങ	-40
ല്‍	-41
▁ആ	-42
രി	-43
ായി	-44
ുക	-45
്ല	-46
ടെ	-47
▁ച	-48
ില്‍	-49
ന്‍	-50
ാന	-51
▁പ്ര	-52
രു	-53
റ്റ	-54
ള്‍	-55
▁ര	-56
ഞ്	-57
▁വി	-58
ിച്ച	-59
ുന്നു	-60
ക്ക്	-61
▁ബ	-62
ന്ന്	-63
ുമ	-64
െയ	-65
ാര	-66
്ള	-67
▁ജ	-68
ള്ള	-69
▁സ്	-70
ടു	-71
▁ഉ	-72
▁നി	-73
ന്റ	-74
ിക	-75
ക്ഷ	-76
ഞ്ഞ	-77
െന്ന	-78
വി	-79
ുള്ള	-80
▁എന്ന	-81
ിൽ	-82
▁ഒ	-83
ില്ല	-84
ുടെ	-85
ന്റെ	-86
രുന്നു	-87
ത്ര	-88
▁ശ	-89
▁കോ	-90
ദ്	-91
▁ല	-92
ങ്ങള	-93
ദേ	-94
ാക്ക	-95
ിന	-96
ല്ല	-97
▁സം	-98
ണ്ട്	-99
പ്പെ	-100
ാല	-101
രിക്ക	-102
ാര്‍	-103
ുന്നത്	-104
▁പറ	-105
▁മു	-106
▁നട	-107
ാവ	-108
▁യ	-109
▁പി	-110
ടി	-111
▁നേ	-112
▁മാ	-113
ാന്‍	-114
▁കേ	-115
▁ചെയ	-116
റി	-117
്മ	-118
സി	-119
ങ്ക	-120
▁പോ	-121
▁രാ	-122
ണം	-123
▁ഗ	-124
െന്ന്	-125
▁കു	-126
ോഗ	-127
ിലെ	-128
ുകയ	-129
ത്ത്	-130
ന്ത്	-131
ിവ	-132
▁ദ	-133
ുവ	-134
▁കൊ	-135
▁ഭ	-136
േഷ	-137
ച്ച്	-138
ിട്ട	-139
ട്	-140
തിര	-141
ദേശ	-142
െന്നും	-143
▁1	-144
മ്മ	-145
സ്ഥ	-146
ായിരുന്നു	-147
ത്തിയ	-148
ന്ത	-149
▁സ്വ	-150
ങ്ങള്‍	-151
ന്ദ	-152
ത്തില്‍	-153
ണ്	-154
്യമ	-155
▁പു	-156
പി	-157
ംഗ	-158
തിയ	-159
▁സാ	-160
രാ	-161
ത്തെ	-162
റ്റ്	-163
ത്തില	-164
▁ഡ	-165
െടു	-166
▁2	-167
▁ഒരു	-168
ാർ	-169
പ്പോ	-170
ണ്‍	-171
ഡ്	-172
ുകള	-173
റിയ	-174
▁സി	-175
▁കൂ	-176
മ്പ	-177
▁അവ	-178
യം	-179
▁പറഞ്ഞ	-180
നി	-181
തമ	-182
്യാ	-183
▁ബി	-184
▁പേ	-185
രിച്ച	-186
▁ഫ	-187
ുണ്ട്	-188
ഗ്ര	-189
▁ഈ	-190
▁ഹ	-191
ാം	-192
ട്ട്	-193
രം	-194
▁തു	-195
യും	-196
വും	-197
▁റ	-198
▁ഏ	-199
ാക	-200
ന്ധ	-201
▁സ്ഥ	-202
വാ	-203
ട്ടി	-204
ിലും	-205
ീക	-206
ാൻ	-207
യ്	-208
ാല്‍	-209
▁സമ	-210
രെ	-211
ദ്യ	-212
യില്‍	-213
ുപ	-214
▁പ്രതി	-215
വര്‍	-216
ഴി	-217
സ്ഥാന	-218
ിച്ചു	-219
നെ	-220
ിരുന്നു	-221
മായി	-222
ന്ദ്ര	-223
ങ്ങൾ	-224
ുണ്ട	-225
▁ചെയ്	-226
▁വീ	-227
▁അത	-228
ശ്	-229
▁ഓ	-230
ര്‍ക്ക	-231
▁പരി	-232
മാണ്	-233
ക്ര	-234
▁തി	-235
ടിയ	-236
ന്ത്രി	-237
ദ്ധ	-238
നം	-239
▁തുട	-240
▁നേത	-241
ഴ്	-242
കള	-243
▁കാര	-244
മായ	-245
▁ട	-246
▁തന്ന	-247
▁രാജ	-248
പ്പ്	-249
േക്ക്	-250
▁വാ	-251
ികള	-252
ത്തിൽ	-253
േണ്ട	-254
▁പറഞ്ഞു	-255
ദേഹ	-256
▁വ്യ	-257
▁വെ	-258
ിക്കുന്ന	-259
ാത	-260
ാമ	-261
ഡി	-262
ലീ	-263
ത്തിന്	-264
▁പറയ	-265
രുന്ന	-266
പ്പെട്ട	-267
ുകള്‍	-268
്യം	-269
ഷ്ട	-270
ാഗ	-271
▁ചെയ്യ	-272
ണമ	-273
െങ്ക	-274
യുടെ	-275
▁അന	-276
ിയുടെ	-277
ോടെ	-278
ദ്ദേഹ	-279
തിന	-280
▁നിന്ന	-281
സം	-282
▁സു	-283
▁നിയ	-284
ക്തമ	-285
ുമായി	-286
ർക്ക	-287
ത്യ	-288
ല്‍ക	-289
ിരിക്ക	-290
ഫ്	-291
▁(	-292
▁കെ	-293
മാന	-294
രള	-295
ലി	-296
▁സംസ്ഥാന	-297
▁ജില്ല	-298
▁നല്‍ക	-299
▁ആര	-300
ടുത്ത	-301
ജെ	-302
രണ	-303
▁നില	-304
തു	-305
ൂര്‍	-306
പ്ര	-307
റ്റി	-308
ത്തിന്റെ	-309
▁അദ്ദേഹ	-310
രുടെ	-311
▁തന്നെ	-312
ഞ്ഞെടു	-313
ാള	-314
▁കോണ്‍	-315
ീയ	-316
00	-317
ന്ത്ര	-318
ോട്	-319
െന്നാണ്	-320
ഴിഞ്ഞ	-321
ന്ത്യ	-322
▁പൊ	-323
വ്	-324
ോധ	-325
സമ	-326
..	-327
ോട്ട	-328
ിനെ	-329
▁കോണ്‍ഗ്ര	-330
ഞ്ച	-331
▁എം	-332
ണ്ണ	-333
ാധ	-334
ത്സ	-335
▁നിന്ന്	-336
▁തിര	-337
▁ജന	-338
▁ഉണ്ട	-339
ക്കും	-340
യാണ്	-341
▁ഇത	-342
▁സാധ	-343
▁കേരള	-344
▁തീ	-345
▁ശ്ര	-346
ജി	-347
▁രൂ	-348
▁ഇന്ത്യ	-349
▁റി	-350
ിച്ച്	-351
തിന്	-352
▁ലഭ	-353
▁ബിജെ	-354
ിച്ചത്	-355
കു	-356
യില	-357
വർ	-358
▁ജോ	-359
ുകയാണ്	-360
െയും	-361
▁യു	-362
▁അറിയ	-363
ിട്ടുണ്ട്	-364
▁കഴിഞ്ഞ	-365
▁പുറ	-366
▁സെ	-367
റെ	-368
വശ	-369
യിൽ	-370
ജ്	-371
▁ഞ	-372
ാൽ	-373
വര	-374
ിപ്പ	-375
▁അധ	-376
▁കേന്ദ്ര	-377
ലിയ	-378
▁നിയമ	-379
പ്	-380
▁മുഖ	-381
ാട	-382
▁ക്	-383
▁ഷ	-384
▁3	-385
▁അതേ	-386
ത്ഥ	-387
▁മാത്ര	-388
▁രൂപ	-389
▁മൂ	-390
േഖ	-391
വന	-392
▁സീ	-393
സ്റ്റ	-394
ിര	-395
▁ആവശ	-396
ഷ്	-397
▁നിര	-398
▁കാ	-399
ുകയും	-400
▁തിരഞ്ഞെടു	-401
▁20	-402
മി	-403
▁തെ	-404
▁പിന്ന	-405
ാക്കിയ	-406
ോദ	-407
▁ദിവ	-408
ിന്	-409
▁കുറ	-410
ുകൾ	-411
്യാപ	-412
▁ഇട	-413
തിരെ	-414
ുമ്പ	-415
▁കണ്ട	-416
മു	-417
സമയം	-418
ാട്	-419
ഭവ	-420
▁എല്ല	-421
ാത്ത	-422
വിഡ്	-423
▁വിജ	-424
▁സംഘ	-425
പ്പെട	-426
ികള്‍	-427
▁അദ്ദേഹം	-428
▁ആശ	-429
ധാന	-430
▁വ്യക്തമ	-431
മാ	-432
ക്കുന്ന	-433
▁രോഗ	-434
▁മുന്ന	-435
യി	-436
ീക്ഷ	-437
ത്വ	-438
▁സ്വദേശ	-439
▁വേ	-440
▁നിര്‍	-441
▁അതേസമയം	-442
▁എന്നാല്‍	-443
ലീസ്	-444
രും	-445
െയാണ്	-446
▁അതി	-447
ാരി	-448
ിയില്‍	-449
ണി	-450
കള്‍	-451
▁വന്ന	-452
ോള	-453
ക്കെ	-454
വേ	-455
▁പെ	-456
ിലേക്ക്	-457
▁സര്‍ക്ക	-458
യിലെ	-459
ാക്കി	-460
▁ഡി	-461
▁ലോ	-462
▁വൈ	-463
ത്തു	-464
ിനി	-465
പു	-466
▁ഉപ	-467
മേ	-468
ത്തിന	-469
▁കേസ	-470
▁അഭ	-471
▁എന്ന്	-472
കാര	-473
ൊരു	-474
▁റിപ്പോ	-475
ോപ	-476
ിയും	-477
▁മുഖ്യമ	-478
കര	-479
ിക്കും	-480
▁രാജ്യ	-481
▁വലിയ	-482
ന്റ്	-483
▁ഇത്	-484
ഷ്ട്ര	-485
▁ലക്ഷ	-486
▁ഐ	-487
▁എന്നിവ	-488
▁സ്ഥാന	-489
▁ശേഷ	-490
രുമാന	-491
ഗ്	-492
ടക്ക	-493
ങ്ങിയ	-494
▁നീ	-495
ിന്റെ	-496
▁കാണ	-497
▁ബന്ധ	-498
താണ്	-499
ക്കാര	-500
▁പാര്‍	-501
ൂർ	-502
ൽക	-503
▁4	-504
ീകരിച്ച	-505
▁സഹ	-506
▁5	-507
സഭ	-508
യ്ക്ക്	-509
▁പരാ	-510
▁നടത്ത	-511
▁വര്‍	-512
ിയെ	-513
ോട	-514
▁ഏറ്റ	-515
ക്രമ	-516
ാതെ	-517
ഷ്യ	-518
▁നൽക	-519
ഴ്ച	-520
തല്‍	-521
ബ്	-522
ാപ	-523
െങ്കിലും	-524
▁തിരു	-525
▁ഇപ്പോ	-526
▁പരിശ	-527
ങ്ങളുടെ	-528
ിക്കുന്നത്	-529
വേഷ	-530
▁മന്ത്രി	-531
▁മത്സ	-532
ന്യ	-533
▁മെ	-534
ഡിയ	-535
▁ജീ	-536
ക്കു	-537
▁സംഭവ	-538
▁ചെയ്ത	-539
▁വില	-540
▁കോണ്‍ഗ്രസ്	-541
▁നിന്നും	-542
സ്റ്റ്	-543
ക്ട	-544
്യത	-545
ാറ	-546
ങ്ങളും	-547
ങ്ങളില്‍	-548
ത്തിലെ	-549
▁നടത്തിയ	-550
▁അപ	-551
യെ	-552
▁ചി	-553
▁ബിജെപി	-554
▁ധ	-555
▁പ്രവര്‍	-556
▁കൂടു	-557
▁ട്ര	-558
ലം	-559
▁ഉയ	-560
പ്പെടു	-561
ൂടെ	-562
ക്ഷേ	-563
എസ്	-564
▁പോല	-565
▁കോട	-566
▁സൂ	-567
▁ഇതി	-568
ാനുള്ള	-569
▁ചേ	-570
ധി	-571
നാ	-572
ഡിഎ	-573
▁പ്രധാന	-574
▁വിജയ	-575
▁-	-576
▁അന്	-577
▁തീരുമാന	-578
▁മന	-579
ിക്കുന്നു	-580
ുകൊ	-581
▁പങ്ക	-582
▁സുര	-583
▁അത്	-584
േക്ക	-585
ണ്ഡ	-586
▁കാല	-587
▁കഴ	-588
ളി	-589
▁ആവശ്യ	-590
▁കാര്യ	-591
ംഗ്	-592
ര്യ	-593
വിടെ	-594
ര്‍ന്ന	-595
ാവ്	-596
▁പരിശോധ	-597
▁ഇത്ത	-598
പ്പു	-599
▁നേതാക്ക	-600
▁ചെ	-601
▁ഭാഗ	-602
),	-603
▁പേര	-604
ുകയായിരുന്നു	-605
▁നേര	-606
▁പറയുന്നു	-607
യാ	-608
▁ഗ്ര	-609
▁കോൺ	-610
▁കൈ	-611
▁സർക്ക	-612
▁പര	-613
▁വേണ്ട	-614
▁പേര്‍	-615
▁രണ്ട്	-616
പക്ഷ	-617
▁മോ	-618
▁നടപ	-619
എം	-620
ാനം	-621
ിട	-622
▁പല	-623
▁രണ്ട	-624
▁നാ	-625
▁ആയ	-626
▁നേതൃ	-627
▁ഇന്ന്	-628
▁അന്വേഷ	-629
▁പുതിയ	-630
▁തോ	-631
ിലാണ്	-632
ോണ	-633
▁രാഷ്ട്ര	-634
▁എസ്	-635
ബന്ധ	-636
േയും	-637
ബി	-638
ുംബ	-639
ാണെന്ന്	-640
▁യാ	-641
▁മല	-642
ന്തപു	-643
ുള	-644
ികൾ	-645
കൾ	-646
▁എന്നാണ്	-647
▁നിർ	-648
ടുക്ക	-649
ുമ്പോ	-650
▁ആശുപ	-651
ഹി	-652
▁ശ്രമ	-653
ിക്കാന്‍	-654
▁നേതൃത്വ	-655
▁മറ്റ	-656
ാസ്	-657
▁ചില	-658
▁പോലീസ്	-659
ൈന	-660
ുമെന്ന്	-661
ര്‍ച്ച	-662
▁നല്‍കിയ	-663
യോഗ	-664
വണ	-665
വനന്തപു	-666
ത്രി	-667
▁കോൺഗ്ര	-668
ഭാഗ	-669
▁കട	-670
▁പാല	-671
▁അധിക	-672
ാനും	-673
▁മുഖ്യമന്ത്രി	-674
▁യോഗ	-675
▁അവസ	-676
▁തിരുവനന്തപു	-677
േറ്റ	-678
▁കൊണ്ട	-679
ാസ	-680
യ്ക്ക	-681
▁ശേഷം	-682
ുള്ളത്	-683
▁നടന്ന	-684
▁വർ	-685
പ്പം	-686
▁മാറ്റ	-687
കെ	-688
ീകരിക്ക	-689
▁സ്ഥിര	-690
▁തൊ	-691
ോട്ട്	-692
▁ആണ്	-693
ന്നും	-694
▁പാർ	-695
്യൂ	-696
▁വര	-697
▁ഉറ	-698
▁സൗ	-699
▁ഏറ്റവും	-700
▁ജെ	-701
▁ആദ്യ	-702
▁സാഹ	-703
▁അംഗ	-704
ട്ടിയ	-705
വീ	-706
▁പ്രഖ	-707
▁എല്ലാ	-708
ിരിക്കുന്നത്	-709
▁തിരഞ്ഞെടുപ്പ	-710
▁6	-711
ങ്ങളെ	-712
ര്‍ശ	-713
▁കണ്ണ	-714
പ്പെടുത്ത	-715
▁സീറ്റ	-716
ഹു	-717
ുന്നത	-718
േഖല	-719
▁ആരോപ	-720
രണം	-721
ദ്യോഗ	-722
▁തിരിച്ച	-723
▁മണ	-724
▁വരെ	-725
▁അഭി	-726
▁പോക	-727
▁മണ്ഡ	-728
▁വള	-729
▁മറ	-730
▁കമ്മ	-731
▁വയ	-732
▁സാഹച	-733
▁മേ	-734
ാശ	-735
ാരണ	-736
ിച്ചിരുന്നു	-737
ത്തക	-738
ീഷ	-739
▁റിപ്പോര്‍	-740
വാദ	-741
ാര്‍ത്ഥ	-742
യാള	-743
▁തൃ	-744
▁ഉത്ത	-745
▁സ്റ്റ	-746
ടന	-747
രിയ	-748
▁സര്‍ക്കാര്‍	-749
▁ചെയ്തു	-750
▁പ്രഖ്യാപ	-751
ാണെന്നും	-752
മുള്ള	-753
സ്ത	-754
▁ദു	-755
▁ഗു	-756
▁കൊവിഡ്	-757
▁സ്വദേശി	-758
▁ബാ	-759
▁കുട	-760
▁ചോ	-761
▁ശതമ	-762
തായി	-763
▁ദിവസ	-764
▁വകു	-765
േന്ദ്ര	-766
ഷം	-767
ംബ	-768
▁ആരോഗ	-769
▁കണ്ടെ	-770
▁സിപി	-771
തൽ	-772
ന്തു	-773
▁വോട്ട	-774
തോടെ	-775
▁ദിവസം	-776
▁രംഗ	-777
▁പദ്ധ	-778
▁7	-779
▁ബാധ	-780
▁ബോ	-781
ൂര	-782
സ്സ	-783
മാര	-784
▁അറ	-785
ുമാണ്	-786
ദ്ദേശ	-787
▁എന്നും	-788
▁ഡോ	-789
ുവി	-790
▁ബിജെപ	-791
▁രാഷ്ട്രീയ	-792
▁ചിത്ര	-793
തല	-794
േക്ഷ	-795
▁സാധ്യത	-796
▁കോവിഡ്	-797
▁നേരി	-798
▁തിരുവനന്തപുരം	-799
▁നേരത്തെ	-800
ാരം	-801
▁രാഹു	-802
▁201	-803
ുമായ	-804
▁മേഖല	-805
▁പ്രവർ	-806
▁അനു	-807
▁വീട്ട	-808
ങ്ങനെ	-809
മെ	-810
▁തല	-811
▁.	-812
ങ്ങളിൽ	-813
▁ശക്തമ	-814
ുകളും	-815
ഷേ	-816
ത്തിലാണ്	-817
▁എന്നാൽ	-818
സിന്റെ	-819
ഞ്ച്	-820
▁സമ്പ	-821
ലെ	-822
ക്തി	-823
▁എന്ത	-824
ായിരുന്ന	-825
ുമെന്നും	-826
െയ്	-827
▁റോ	-828
ിത	-829
െങ്കില്‍	-830
ിട്ടില്ല	-831
▁പ്രസി	-832
▁കള	-833
▁ജില്ലാ	-834
▁ഓഫ	-835
▁കൂട്ട	-836
▁ചെയ്തി	-837
നും	-838
▁വിഷ	-839
▁എത്തിയ	-840
ാദ	-841
വിധ	-842
േഷ്	-843
ീപ	-844
▁പിട	-845
▁കുടുംബ	-846
ർന്ന	-847
ീസ	-848
ണക്ക	-849
സിന്	-850
▁പ്രച	-851
▁യുവ	-852
▁വിഭാഗ	-853
രിച്ച്	-854
▁സമ്മ	-855
യുള്ള	-856
▁നോ	-857
▁തയ	-858
▁സ്ഥിരീകരിച്ച	-859
▁മുന്‍	-860
ഷേധ	-861
ല്ലാം	-862
▁നാല	-863
▁ടി	-864
രുത	-865
▁വാക്	-866
ക്ത	-867
▁ആള	-868
വാസ	-869
▁ഹൈ	-870
▁പ്രശ്	-871
ായിരിക്ക	-872
പ്പെടുത്തിയ	-873
ങ്ങി	-874
ൊപ്പം	-875
▁വിമ	-876
▁പ്രത്യ	-877
▁ഇല്ല	-878
▁മണ്ഡല	-879
▁ഒന്ന	-880
▁വിള	-881
ങ്ങള്‍ക്ക്	-882
▁ഒഴ	-883
▁കഴിയ	-884
ാഴ്ച	-885
▁ആരോഗ്യ	-886
ുക്ക	-887
മന്ത്രി	-888
ിരുന്ന	-889
▁പിന്തു	-890
ാകും	-891
ത്തും	-892
▁'	-893
▁യാത്ര	-894
ദ്ദ	-895
സിന	-896
െടുക്ക	-897
▁ഖ	-898
ക്രട്ട	-899
▁പഞ്ച	-900
▁ഇറ	-901
▁ഉള്ള	-902
ാന്ധ	-903
▁കൂടുതല്‍	-904
കം	-905
▁ഉപയോഗ	-906
▁മൂന്ന്	-907
തും	-908
ത്തിക്ക	-909
▁മീ	-910
ീസ്	-911
▁നിയമസഭ	-912
▁ഉദ്യോഗ	-913
ര്‍ന്ന്	-914
▁വിശ	-915
▁പ്രസിഡ	-916
്യാറ	-917
▁കി	-918
▁സെക്രട്ട	-919
ൃത	-920
ൂല	-921
തീക്ഷ	-922
വില്‍	-923
ിയിൽ	-924
ുകളില്‍	-925
▁8	-926
ർച്ച	-927
മുണ്ട	-928
ിരിക്കുകയാണ്	-929
▁ഭൂ	-930
▁10	-931
ണമെന്ന്	-932
▁തുടങ്ങിയ	-933
▁രോഗം	-934
▁സ്ഥാപ	-935
▁തയ്യാറ	-936
താ	-937
▁സിനി	-938
ച്ചു	-939
ൂറ	-940
▁പിന്നാല	-941
ാനാണ്	-942
▁സര്‍	-943
▁19	-944
▁ചോദ്യ	-945
▁താ	-946
▁നീക്ക	-947
പ്പോള്‍	-948
ഴിക്ക	-949
▁കൂടി	-950
▁എന്‍	-951
▁തിരഞ്ഞെടുപ്പ്	-952
വിത	-953
ായത്	-954
▁തൊഴ	-955
്യക്ഷ	-956
▁അറിയിച്ചു	-957
▁കൃ	-958
ാർത്ഥ	-959
ുപോ	-960
ചന	-961
▁ഉള്‍	-962
▁അടി	-963
▁ആല	-964
രംഭ	-965
▁തട	-966
▁ഗാന്ധ	-967
▁ഭരണ	-968
▁മോദ	-969
▁വ്യക്തമാക്കി	-970
േരി	-971
▁ഇവ	-972
ത്തന	-973
നിക്ക്	-974
ികളുടെ	-975
▁സോ	-976
▁അട	-977
▁9	-978
▁ചിക	-979
▁പറയുന്നത്	-980
▁പുറത്ത	-981
ൂഹ	-982
▁മാധ	-983
▁ന്യ	-984
▁സാഹചര്യ	-985
▁ഇവിടെ	-986
ിയാണ്	-987
ന്‍റെ	-988
▁മി	-989
ിക്കാൻ	-990
▁സർക്കാർ	-991
ുന്നുണ്ട്	-992
ർശ	-993
▁കൊല്ല	-994
▁പരിശോധന	-995
▁പ്രക	-996
▁മഹ	-997
ൊക്കെ	-998
▁നടക്ക	-999
▁പിന്തുണ	-1000
▁ആക്രമ	-1001
▁ചോദ	-1002
▁കൂട	-1003
▁ജയ	-1004
ശ്ച	-1005
▁പോലും	-1006
▁പ്രതിക	-1007
ഞ്ഞ്	-1008
▁കോള	-1009
▁വിദ്യ	-1010
റിച്ച്	-1011
▁ഘ	-1012
▁പ്രതിപക്ഷ	-1013
▁ഫോ	-1014
▁പൊലീസ്	-1015
ഷക	-1016
തിയില്‍	-1017
ിത്സ	-1018
▁സമയ	-1019
▁കോൺഗ്രസ്	-1020
▁ടെ	-1021
▁പ്രതിഷേധ	-1022
നിടെ	-1023
നിയ	-1024
▁സാമ്പ	-1025
▁കോടതി	-1026
▁ചര്‍ച്ച	-1027
▁ആശുപത്ര	-1028
▁ചികിത്സ	-1029
▁റിപ്പോർ	-1030
▁മൊ	-1031
...	-1032
▁സ്ത്ര	-1033
▁യുഡിഎ	-1034
ഗണ	-1035
▁നമ്മ	-1036
▁കുമ	-1037
▁സംബന്ധ	-1038
വുമായി	-1039
▁പ്രത്യേ	-1040
▁കോടി	-1041
▁അയ	-1042
ിലുള്ള	-1043
ിച്ചിട്ടുണ്ട്	-1044
ജീ	-1045
▁പാ	-1046
ച്ചി	-1047
ുവരെ	-1048
▁മാധ്യമ	-1049
▁നിലപ	-1050
▁ഇപ്പോള്‍	-1051
രുത്ത	-1052
▁അവസാന	-1053
രിപ്പ	-1054
ോഷ	-1055
▁കോഴിക്ക	-1056
▁ദേശ	-1057
▁അധ്യക്ഷ	-1058
▁മുതല്‍	-1059
േഷന്‍	-1060
▁കുട്ട	-1061
▁പ്രതീക്ഷ	-1062
പ്പെടെ	-1063
ൻ്	-1064
ിലൂടെ	-1065
000	-1066
മല്ല	-1067
▁ആരംഭ	-1068
▁കയ	-1069
▁ഭാര	-1070
▁വിമാന	-1071
ഷ്ണ	-1072
▁കുറ്റ	-1073
▁കൊണ്ട്	-1074
ന്തര	-1075
▁പരാതി	-1076
▁തുറ	-1077
ുമെന്നാണ്	-1078
▁മറ്റ്	-1079
▁കാരണം	-1080
▁ആര്‍	-1081
സ്പ	-1082
ണ്ടും	-1083
െടുത്ത	-1084
▁202	-1085
▁മണിക്ക	-1086
▁അവര്‍	-1087
ികളെ	-1088
കാശ	-1089
ണറ	-1090
പര	-1091
▁പട്ട	-1092
പ്പെട്ടു	-1093
▁ഉദ്യോഗസ്ഥ	-1094
ാലും	-1095
▁ജി	-1096
ലും	-1097
എല്‍	-1098
▁വാര്‍	-1099
ായിട്ട	-1100
▁യൂ	-1101
▁ചൂ	-1102
ാവി	-1103
▁മുൻ	-1104
▁സംസ	-1105
ര്‍ത്ത	-1106
ില്ലെന്ന്	-1107
▁ലീ	-1108
▁മാത്രം	-1109
▁കല	-1110
▁സഹായ	-1111
▁മുമ്പ	-1112
വാഹ	-1113
▁മാന	-1114
ള്ളി	-1115
ുകൊണ്ട്	-1116
▁സിനിമ	-1117
▁അടക്ക	-1118
ാണി	-1119
ിയിലെ	-1120
▁തന്റെ	-1121
ില്ലെന്നും	-1122
േജ	-1123
▁എല്‍	-1124
▁പോയ	-1125
ണമെന്നും	-1126
▁ഉത്തര	-1127
▁ഉറപ്പ	-1128
ട്ര	-1129
ഴും	-1130
▁12	-1131
▁മൂന്ന	-1132
മാര്‍	-1133
▁കര്‍	-1134
▁രീ	-1135
▁11	-1136
▁ലോക	-1137
▁സൈ	-1138
▁നൽകിയ	-1139
▁വ്യാപ	-1140
▁ഒരാ	-1141
▁ഒഴിവ	-1142
▁ഇവര്‍	-1143
വേശ	-1144
▁പ്രദേശ	-1145
▁ഇരു	-1146
സില്‍	-1147
ദി	-1148
▁പൂ	-1149
▁നേതാക്കള	-1150
▁പദ്ധതി	-1151
▁റിപ്പോര്‍ട്ട്	-1152
ുളള	-1153
▁അടുത്ത	-1154
▁പാര്‍ട്ടി	-1155
▁ശതമാനം	-1156
ക്കി	-1157
▁വേണ്ടി	-1158
▁ഇതോടെ	-1159
വിട	-1160
▁അനുവ	-1161
പ്പെട്ട്	-1162
ഭാ	-1163
▁ഇന്ന	-1164
▁വീണ്ടും	-1165
▁ഇക്കാര	-1166
▁കോഴിക്കോട്	-1167
▁സമീപ	-1168
▁പിന്നീ	-1169
▁15	-1170
▁വിശ്	-1171
▁നെ	-1172
▁പ്രത്യേക	-1173
ഡിയോ	-1174
▁ഉന്ന	-1175
പെ	-1176
ോളം	-1177
റും	-1178
▁നേതാവ്	-1179
ളം	-1180
വധി	-1181
▁അപേക്ഷ	-1182
രോ	-1183
▁ഇതുവരെ	-1184
ബു	-1185
യോ	-1186
മുഖ	-1187
ങ്ങളാണ്	-1188
▁കമ്പ	-1189
ിയായ	-1190
തെന്ന്	-1191
ട്ടം	-1192
ുകളുടെ	-1193
ീം	-1194
▁രാശ	-1195
തില്‍	-1196
▁ഓഫീസ	-1197
▁ദില്ല	-1198
▁മരിച്ച	-1199
ാവും	-1200
▁ന്യൂ	-1201
ാലി	-1202
നായ	-1203
▁കോട്ട	-1204
▁ദേശീയ	-1205
തെന്നും	-1206
ിക്കാ	-1207
▁ലക്ഷം	-1208
▁ചെയ്യുന്ന	-1209
▁ഉട	-1210
ുകൊണ്ട	-1211
▁സുരക്ഷ	-1212
ത്തിക	-1213
▁നിന്നുള്ള	-1214
▁രേഖ	-1215
▁വൈറ	-1216
ഡിക്ക	-1217
▁നാട്ട	-1218
▁നിരീക്ഷ	-1219
▁കിട്ട	-1220
തം	-1221
▁വിവിധ	-1222
▁ഇത്തവണ	-1223
▁മുസ്	-1224
▁ബു	-1225
▁നഗ	-1226
▁നിരവധി	-1227
▁അല്ല	-1228
▁വിദ	-1229
▁അനുവദ	-1230
▁വിഷയ	-1231
ങ്ങൾക്ക്	-1232
▁നഷ്ട	-1233
▁മുഖ്യമന്ത്ര	-1234
▁ഗോ	-1235
▁ശ്രദ്ധ	-1236
ത്തോടെ	-1237
▁പൂര്‍	-1238
ത്തനം	-1239
▁പ്രധാനമന്ത്രി	-1240
ുമ്പോള്‍	-1241
ിതി	-1242
▁സേ	-1243
ങ്ങന	-1244
▁സംസ്ഥാനത്ത്	-1245
ത്തിലും	-1246
▁മിക	-1247
▁മരണ	-1248
▁ഉൾ	-1249
▁വിവര	-1250
▁സർ	-1251
ുത	-1252
▁ലഭിച്ച	-1253
▁സഖ	-1254
▁ഹൈക്ക	-1255
▁വളരെ	-1256
ക്കിയ	-1257
ന്‍സ്	-1258
▁ജീവിത	-1259
▁ക്ര	-1260
▁ഞാന്‍	-1261
വെ	-1262
ിക്കുകയും	-1263
▁എത്ത	-1264
▁ജില്ലയില്‍	-1265
▁തര	-1266
▁വെള്ള	-1267
▁ന്	-1268
▁ബ്ര	-1269
▁തക	-1270
▁പിന്നീട്	-1271
െങ്കിൽ	-1272
ക്യ	-1273
▁മാത്രമാണ്	-1274
തിനെ	-1275
പ്പുറ	-1276
▁നിയന്ത്ര	-1277
▁ശ്രീ	-1278
ുമെന്ന	-1279
▁സ്വന്ത	-1280
▁പിണറ	-1281
ര്‍പ്പ	-1282
▁കണക്ക	-1283
▁തെള	-1284
▁തേ	-1285
▁പിന്നാലെ	-1286
▁ലി	-1287
▁നല്ല	-1288
വരം	-1289
▁സെക്രട്ടറി	-1290
▁പഠ	-1291
▁വാഹ	-1292
▁മെഡിക്ക	-1293
▁മന്ത്ര	-1294
നില്‍	-1295
▁വകുപ്പ്	-1296
▁ഇതിന്	-1297
കട	-1298
▁എത്തി	-1299
▁അന്വേഷണ	-1300
േറ്റ്	-1301
▁വര്‍ഷ	-1302
▁ജോലി	-1303
▁പ്രവേശ	-1304
▁സര്‍ക്കാരി	-1305
▁ഇനി	-1306
വിൽ	-1307
▁മഴ	-1308
▁തുടര്‍ന്ന്	-1309
▁പാര്‍ട്ട	-1310
▁കേസ്	-1311
▁കൂടിയ	-1312
ാണ്ട	-1313
▁വിട്ട	-1314
▁പഞ്ചായ	-1315
▁രക്ഷ	-1316
ൊന്നും	-1317
▁വഴി	-1318
ിക്കുക	-1319
▁മലയാള	-1320
▁മാര്‍	-1321
രിക	-1322
▁എല്ലാവ	-1323
▁ചൂണ്ട	-1324
ുപ്ര	-1325
ത്മ	-1326
▁,	-1327
ുകളാണ്	-1328
േക്കും	-1329
കാരം	-1330
▁അവരുടെ	-1331
▁വൈക	-1332
തിയുടെ	-1333
▁വിദേശ	-1334
കാര്യ	-1335
▁വിശദ	-1336
ർക്ക്	-1337
യിലാണ്	-1338
▁പരിഗണ	-1339
ാടക	-1340
രഞ്ഞെടു	-1341
▁ചോദ്യം	-1342
▁പോലീ	-1343
▁രാഹുല്‍	-1344
▁വിക	-1345
▁ചെയ്തത്	-1346
ദേശം	-1347
ികളും	-1348
െയുള്ള	-1349
▁ലൈ	-1350
ിത്ത	-1351
▁കമ്മി	-1352
▁സാമ്പത്തിക	-1353
്യമായ	-1354
▁പക	-1355
▁അടിസ്ഥാന	-1356
ത്തിലേക്ക്	-1357
▁മാസ	-1358
കളില്‍	-1359
▁സ്ഥാപന	-1360
ക്കെതിരെ	-1361
ായക	-1362
▁ആയി	-1363
▁വരുന്ന	-1364
▁വീഡിയോ	-1365
കളും	-1366
▁താര	-1367
റിന്റെ	-1368
ത്തിലുള്ള	-1369
ഗ്രഹ	-1370
മോ	-1371
▁നടപടി	-1372
തീ	-1373
രിൽ	-1374
റോണ	-1375
ൻ്റെ	-1376
▁സിപിഎം	-1377
ിനും	-1378
▁തൊഴില	-1379
▁സംഘടന	-1380
ന്നു	-1381
▁പറഞ്ഞത്	-1382
ധിക	-1383
ക്ടര്‍	-1384
തിയെ	-1385
▁പിണറായി	-1386
▁പരിഹ	-1387
ണ്ണം	-1388
ർത്ത	-1389
▁മോദി	-1390
▁സന്ദ	-1391
▁മികച്ച	-1392
പ്പുഴ	-1393
ണമെന്ന	-1394
ത്തിയത്	-1395
ടിപ്പ	-1396
▁അമേ	-1397
▁അതിന	-1398
▁കൊറോണ	-1399
▁ലോക്	-1400
േസ്	-1401
ുകാര	-1402
മായിരുന്നു	-1403
▁ഹി	-1404
▁വ്യാ	-1405
നെതിരെ	-1406
ൂട്ട	-1407
▁സ്പ	-1408
▁ജീവന	-1409
െല്ലാം	-1410
▁നടപ്പ	-1411
▁ശക്തമായ	-1412
▁നയ	-1413
ുന്നതിന	-1414
▁നാല്	-1415
ണാക	-1416
▁അഞ്ച്	-1417
ായും	-1418
▁മറുപ	-1419
▁ആശുപത്രി	-1420
ാരാ	-1421
▁ചുമ	-1422
ഞ്ഞു	-1423
ുകളിൽ	-1424
പ്പെടുത്തി	-1425
േയ	-1426
ാള്‍	-1427
▁എക്	-1428
ശ്യ	-1429
▁വഴ	-1430
▁എന്നി	-1431
▁ആദ	-1432
▁തെരഞ്ഞെടു	-1433
ശ്ശ	-1434
െതിരെ	-1435
നാട്	-1436
ാനി	-1437
റില്‍	-1438
▁ക്ല	-1439
▁14	-1440
യിലേക്ക്	-1441
▁ഇതിന	-1442
രമ	-1443
▁പണം	-1444
ടങ്ങ	-1445
▁ചെന്ന	-1446
ഷന്‍	-1447
▁സ്ഥല	-1448
▁വിവരം	-1449
ജന	-1450
പ്രായ	-1451
വരുടെ	-1452
▁തമ്മ	-1453
▁24	-1454
വസ	-1455
പ്പോൾ	-1456
▁"	-1457
▁നേടിയ	-1458
▁പ്രവര്‍ത്തക	-1459
ർന്ന്	-1460
▁നടപട	-1461
്യമാണ്	-1462
▁പക്ഷേ	-1463
▁ചൈന	-1464
▁വിവാഹ	-1465
▁പൊതു	-1466
ുമോ	-1467
▁മുതൽ	-1468
സും	-1469
ിക്കേണ്ട	-1470
▁പരിപ	-1471
ിട്ടുണ്ട	-1472
ക്ഷണ	-1473
ക്ഷേപ	-1474
▁കൊല	-1475
▁പുറത്ത്	-1476
▁അമേരിക്ക	-1477
യിലും	-1478
▁രാവ	-1479
ിട്ട്	-1480
▁അമ്മ	-1481
ീവ്	-1482
ക്കാട്	-1483
▁നടത്തി	-1484
മായും	-1485
രിക്കുന്നത്	-1486
▁ഞാൻ	-1487
മാണ	-1488
▁എന്റെ	-1489
▁തീരുമാനം	-1490
▁ബാല	-1491
▁നഗര	-1492
▁സമയം	-1493
▁പ്രസിഡന്റ്	-1494
▁നേരിട	-1495
ാതി	-1496
▁തന്നെയാണ്	-1497
സര്‍	-1498
▁സുപ്ര	-1499
▁ഗ്രൂ	-1500
▁സ്ഥാനാര്‍ത്ഥ	-1501
ന്റെയും	-1502
▁റെ	-1503
▁തവണ	-1504
▁ഓരോ	-1505
▁പ്ല	-1506
▁എറ	-1507
▁കൂടുതൽ	-1508
ണാകുള	-1509
▁അപകട	-1510
ര്‍ക്കും	-1511
ഹമ്മ	-1512
▁നേതാക്കള്‍	-1513
▁സ്വീകരിക്ക	-1514
ാബ	-1515
▁ഇടപെ	-1516
ത്തേക്ക്	-1517
▁ദില	-1518
▁ശിവ	-1519
▁വിധ	-1520
തിന്റെ	-1521
▁സീറ്റ്	-1522
ന്നി	-1523
▁തൃശ	-1524
കൂ	-1525
സില	-1526
ിക്കാന	-1527
▁എറണാകുള	-1528
▁13	-1529
ങ്ങളിലും	-1530
▁ദേ	-1531
▁അഭിപ്രായ	-1532
കുമ	-1533
ധാക	-1534
▁വിവാദ	-1535
▁സ്വദേശിനി	-1536
▁പാർട്ടി	-1537
▁നില്‍	-1538
▁ഗാന്ധി	-1539
▁സ്വര്‍	-1540
ബ്ദ	-1541
▁സോഷ്യ	-1542
ഷി	-1543
▁കമ	-1544
▁പേര്‍ക്ക്	-1545
▁വോട്ട്	-1546
ുമതി	-1547
▁റിപ്പോർട്ട്	-1548
▁കണ്ണൂര്‍	-1549
▁മീഡിയ	-1550
ജു	-1551
ീന	-1552
▁വകുപ്പ	-1553
പ്പെട്ടി	-1554
സിനെ	-1555
രന്‍	-1556
ായ്	-1557
▁അവകാശ	-1558
തിരോധ	-1559
▁18	-1560
▁കീ	-1561
▁ജില്ലയിലെ	-1562
നാണ്	-1563
▁കരു	-1564
ഖ്	-1565
ണിയ	-1566
▁ആർ	-1567
▁അന്വേഷണം	-1568
▁ബെ	-1569
യായി	-1570
ജന്‍	-1571
▁താമ	-1572
▁വിലയി	-1573
▁ആയിരുന്നു	-1574
ഴു	-1575
▁പട്ടിക	-1576
വല	-1577
▁വീട	-1578
▁എൻ	-1579
▁ജനറ	-1580
▁നിയമസഭാ	-1581
▁നര	-1582
▁വാഹന	-1583
▁പ്രിയ	-1584
ോമ	-1585
▁എംഎല്‍	-1586
▁കര	-1587
▁പരീക്ഷ	-1588
രുമ	-1589
▁ബന്ധപ്പെട്ട	-1590
▁സൂചന	-1591
▁ഷാ	-1592
പരി	-1593
മാർ	-1594
▁എണ്ണം	-1595
യ്യ	-1596
ിറ	-1597
ദ്ര	-1598
▁ട്	-1599
ുട	-1600
▁വ്യക്തമാക്ക	-1601
▁മറ്റൊരു	-1602
▁നേതൃത്വം	-1603
▁എന്നീ	-1604
വരെ	-1605
▁ഏക	-1606
ഹൃ	-1607
▁ചർച്ച	-1608
▁എംഎല്‍എ	-1609
ിക്കണം	-1610
▁മണിക്കൂറ	-1611
ാക്കിയത്	-1612
യായ	-1613
▁പ്രതിരോധ	-1614
▁ക്യാ	-1615
▁ഒറ്റ	-1616
്യമായി	-1617
▁ഹൈക്കോട	-1618
പ്പെടുന്ന	-1619
ങ്ങളില	-1620
▁വര്‍ധ	-1621
▁കണ്ടെത്ത	-1622
ുവന്ന	-1623
സന്ധ	-1624
കളുടെ	-1625
▁25	-1626
ച്ചത്	-1627
യുണ്ട	-1628
▁പശ്ച	-1629
▁പ്രസ	-1630
▁വ്യക്തി	-1631
▁ജൂ	-1632
▁അവിടെ	-1633
നു	-1634
േഷൻ	-1635
▁ഫേസ്	-1636
▁അല	-1637
▁മുഴ	-1638
▁സംസാര	-1639
▁രാവിലെ	-1640
േദ	-1641
▁കർ	-1642
▁ഹാ	-1643
ാദ്	-1644
രിക്കുന്ന	-1645
▁പൂർ	-1646
ത്തിനും	-1647
പ്രദേശ	-1648
രിക്കും	-1649
ഹ്	-1650
ിരുന്നത്	-1651
തിക	-1652
ക്കോ	-1653
▁ബിഗ്	-1654
▁വിമര്‍ശ	-1655
ബ്ര	-1656
ുകൂല	-1657
വിധാന	-1658
ിക്കുകയായിരുന്നു	-1659
തിയിൽ	-1660
ാവന	-1661
▁എനിക്ക്	-1662
േണ്ടി	-1663
▁ആലപ്പുഴ	-1664
ക്കാ	-1665
▁യുഎ	-1666
ജയ	-1667
▁നിരീക്ഷണ	-1668
ൗര	-1669
▁ലെ	-1670
▁വാർ	-1671
ക്കാര്‍	-1672
▁പ്രവ	-1673
ായിരിക്കും	-1674
കാല	-1675
▁ദില്ലി	-1676
റു	-1677
▁രണ്ടാം	-1678
വം	-1679
ാരാഷ്ട്ര	-1680
രീ	-1681
▁മുമ്പ്	-1682
ഭ്യാ	-1683
ാവസ്ഥ	-1684
▁ഇങ്ങനെ	-1685
പ്പെട്ടത്	-1686
▁റിപ്പോര്‍ട്ട	-1687
▁ആകെ	-1688
▁കാര്യം	-1689
▁സാമ	-1690
ങ്ക്	-1691
▁ഇപ്പോൾ	-1692
▁അസ	-1693
▁വരും	-1694
▁അതിന്	-1695
▁പ്രവര്‍ത്തന	-1696
രുദ്ധ	-1697
▁ചെല	-1698
പ്പി	-1699
▁എത്ര	-1700
▁(2	-1701
▁നിലവില്‍	-1702
േള	-1703
▁അറസ്റ്റ്	-1704
മാക്ക	-1705
ുമ്പോൾ	-1706
പ്പുറം	-1707
▁പോലെ	-1708
രിച്ചു	-1709
▁ജീവ	-1710
▁സംവിധാന	-1711
ീപ്	-1712
▁വർഷ	-1713
മില്ല	-1714
▁വാങ്ങ	-1715
▁രജി	-1716
േജ്	-1717
▁നല്‍കി	-1718
▁16	-1719
ാറ്റ	-1720
▁അധികാര	-1721
സിസി	-1722
▁നടക്കുന്ന	-1723
▁പീ	-1724
എഫ്	-1725
സ്റ്റി	-1726
സിൽ	-1727
▁മാത്രമല്ല	-1728
ർപ്പ	-1729
▁താന്‍	-1730
്ട്ര	-1731
▁കോട്ടയം	-1732
ത്രം	-1733
വരും	-1734
രുന്നത്	-1735
▁എഫ്	-1736
▁തമി	-1737
ിച്ചേ	-1738
▁ചെയ്തിട്ട	-1739
▁വികസ	-1740
▁ഇത്തരം	-1741
്യാഭ്യാ	-1742
▁സ്ത്രീക	-1743
▁17	-1744
▁ആശങ്ക	-1745
▁ഏത	-1746
▁വാര്‍ത്ത	-1747
▁സുരേന്ദ്ര	-1748
▁അവർ	-1749
▁പുര	-1750
▁ബംഗ	-1751
െയി	-1752
േന	-1753
▁ആദ്യം	-1754
▁ശതമാന	-1755
▁സിംഗ്	-1756
▁ഉന്നയ	-1757
▁പ്രതിസന്ധ	-1758
▁ആണ	-1759
കളിൽ	-1760
ഷണ	-1761
▁ഘട്ട	-1762
▁മക	-1763
കരണം	-1764
ക്കാല	-1765
കളെ	-1766
▁കമ്മീഷ	-1767
▁രംഗത്തെ	-1768
▁കേരളത്തില്‍	-1769
വര്‍ക്ക്	-1770
▁സംഭവം	-1771
ടുത്തി	-1772
▁കുറിച്ച്	-1773
▁ല്‍	-1774
ഹമ്മദ്	-1775
▁പ്രാ	-1776
▁സർക്കാരി	-1777
ിക്കാം	-1778
േഴ്	-1779
▁സംശ	-1780
▁യുഡിഎഫ്	-1781
ിക്കാനുള്ള	-1782
▁ഉമ്മ	-1783
▁മത	-1784
▁വര്‍ഷം	-1785
▁നരേന്ദ്ര	-1786
ക്ഷി	-1787
▁ഏറെ	-1788
▁ബൈ	-1789
▁സന്ത	-1790
▁പാലക്കാട്	-1791
▁എറണാകുളം	-1792
▁ഇന്ത്യന്‍	-1793
▁അക	-1794
▁സംബന്ധിച്ച്	-1795
ളെ	-1796
ര്‍മ	-1797
▁മത്സര	-1798
ത്തിലൂടെ	-1799
ികള്‍ക്ക്	-1800
▁30	-1801
▁ഭാഗമായി	-1802
▁മധ	-1803
▁എണ്ണ	-1804
▁നിലവ	-1805
▁പുന	-1806
▁മനസ്സ	-1807
▁ഉണ്ടാക	-1808
റാ	-1809
▁നേട	-1810
ധികം	-1811
▁രാജ്യത്ത്	-1812
▁ൽ	-1813
▁ടീ	-1814
▁മാസം	-1815
▁കാര്യങ്ങള്‍	-1816
▁ഡെ	-1817
▁പക്ഷ	-1818
▁ഇതില്‍	-1819
ൗണ്‍	-1820
▁കാര്‍	-1821
▁ജാ	-1822
▁തമിഴ്	-1823
▁ആത്മ	-1824
▁വാദ	-1825
▁ആഗ്രഹ	-1826
▁നിലപാട്	-1827
▁തോമ	-1828
▁പോരാ	-1829
ുന്നതിന്	-1830
▁നവ	-1831
ുല	-1832
▁ഭൂരി	-1833
ളള	-1834
▁പേരാണ്	-1835
ട്ടെ	-1836
▁കൊല്ലം	-1837
ാടി	-1838
▁പറഞ്ഞിരുന്നു	-1839
▁അന്ന്	-1840
▁ആക	-1841
20	-1842
ആര്‍	-1843
▁ചെയ്തിരുന്നു	-1844
▁കേസില്‍	-1845
▁സുപ്രീം	-1846
▁എൽ	-1847
ീല	-1848
▁ക്ഷേ	-1849
ബര്‍	-1850
കുട്ട	-1851
തിട്ട	-1852
ങ്ങളിലെ	-1853
▁തൊഴിലാള	-1854
▁സമൂഹ	-1855
ടം	-1856
▁വിലയിരുത്ത	-1857
▁യുഡിഎഫ	-1858
▁ശി	-1859
▁രംഗത്ത്	-1860
▁ഗ്രാമ	-1861
▁ഭാര്യ	-1862
▁ഡ്ര	-1863
▁കുറഞ്ഞ	-1864
▁മറുപടി	-1865
▁നേട്ട	-1866
▁പുതു	-1867
▁സാധിക്ക	-1868
ളുടെ	-1869
ർക്കും	-1870
▁മെഡിക്കല്‍	-1871
യര്‍	-1872
▁ദിന	-1873
ഥ്	-1874
▁അഞ്ച	-1875
▁അന്ത	-1876
ാഹ	-1877
▁ഉയര്‍ന്ന	-1878
▁പൊലീ	-1879
ത്തനംതിട്ട	-1880
▁പദ	-1881
▁പങ്കുവ	-1882
▁ഔ	-1883
▁നാള	-1884
പ്പെടുന്നത്	-1885
ൈല	-1886
▁വിദ്യാഭ്യാ	-1887
▁ബന്ധപ്പെട്ട്	-1888
▁നീക്കം	-1889
എമ്മ	-1890
മാക	-1891
ണാടക	-1892
കോ	-1893
▁കൃത്യ	-1894
പാത	-1895
▁തദ്ദേശ	-1896
▁പങ്കെടു	-1897
▁മനു	-1898
▁മുഴുവ	-1899
ജ്ഞ	-1900
ിട്ടും	-1901
▁സുധാക	-1902
േഷന	-1903
▁പേർ	-1904
ീര്‍	-1905
▁കൊച്ചി	-1906
ക്കം	-1907
യായിരുന്നു	-1908
▁സ്വീകരിച്ച	-1909
▁പത്തനംതിട്ട	-1910
▁വനി	-1911
▁വിത	-1912
ിപ	-1913
▁പരാജയ	-1914
▁ചു	-1915
ിച്ചാണ്	-1916
▁ജോര്‍	-1917
ര്‍ക്ക്	-1918
▁നമ്മുടെ	-1919
▁സ്വകാര്യ	-1920
ടുത്ത്	-1921
▁ഫെ	-1922
▁എതി	-1923
▁കന	-1924
ാര്‍ഥ	-1925
▁അധികൃത	-1926
▁കൂടാതെ	-1927
▁ചെയ്യാ	-1928
ജീവ	-1929
▁കേരളത്തിലെ	-1930
▁മോഹ	-1931
▁റഷ്യ	-1932
▁ഇന്‍	-1933
▁സംഘം	-1934
▁ആവശ്യം	-1935
▁അദ്ദേഹത്തിന്റെ	-1936
▁പറ്റ	-1937
▁ഇര	-1938
ുറ	-1939
▁ജോസ	-1940
ാവുന്ന	-1941
ിട്ടുള്ളത്	-1942
▁അതുകൊണ്ട്	-1943
▁ഇക്കാര്യം	-1944
▁ധന	-1945
ല്ലോ	-1946
▁ചൂണ്ടിക്കാ	-1947
ക്കൊ	-1948
സിപ്പ	-1949
▁വെച്ച	-1950
ാണോ	-1951
▁50	-1952
▁ഇടത	-1953
▁സമര	-1954
▁സമയത്ത്	-1955
ത്തിറ	-1956
▁ഇയാ	-1957
റിഞ്ഞ	-1958
ിരിക്കുന്ന	-1959
▁ആഭ	-1960
▁ഷോ	-1961
▁കാരണ	-1962
▁തെളിവ	-1963
▁സ്വന്തം	-1964
▁അമി	-1965
▁ഇടപെട	-1966
▁സുരേഷ്	-1967
▁പ്രായ	-1968
വെന്നും	-1969
▁അക്ക	-1970
▁കൂട്ടിച്ചേ	-1971
▁നിയന്ത്രണ	-1972
▁എടുത്ത	-1973
▁കോടിയ	-1974
▁പ്രകാരം	-1975
ിച്ചിരിക്കുന്നത്	-1976
▁അനുകൂല	-1977
▁ആരോപണ	-1978
ാണിത്	-1979
▁ഇത്ര	-1980
▁ഡയ	-1981
▁മാറ	-1982
മല	-1983
പ്പള്ളി	-1984
വൈ	-1985
റിന്	-1986
▁നിറ	-1987
▁സത്യ	-1988
ുമില്ല	-1989
▁മനുഷ്യ	-1990
▁സ്ഥാനാർത്ഥ	-1991
▁താമസ	-1992
▁മത്സരിക്ക	-1993
▁ദൃ	-1994
രക്ഷ	-1995
▁കടുത്ത	-1996
▁ചെയ്ത്	-1997
▁ഭീഷ	-1998
▁ഫലം	-1999
▁സ്വപ്	-2000
പ്പില്‍	-2001
▁മാത്രമേ	-2002
▁സമ്പർക്ക	-2003
ശ്ര	-2004
▁അഖ	-2005
▁നമ്പ	-2006
▁ചെയ്യുന്നത്	-2007
▁ആന	-2008
▁അനുഭവ	-2009
▁കര്‍ഷക	-2010
▁ഇടുക്ക	-2011
ിക്കറ്റ്	-2012
▁കരുത	-2013
ത്തിനായി	-2014
▁200	-2015
▁ചുമതല	-2016
േത	-2017
സർ	-2018
ഴ്ച്ച	-2019
▁സാധാരണ	-2020
▁തോന്ന	-2021
▁തനിക്ക്	-2022
ാഭ	-2023
ക്കുന്നത്	-2024
ിയിലേക്ക്	-2025
ച്ഛ	-2026
തിരായ	-2027
തിൽ	-2028
▁ഹെ	-2029
▁കസ്റ്റ	-2030
▁(3	-2031
▁എന്നത്	-2032
▁പ്രതികരണം	-2033
▁ചരി	-2034
ൃഷ്ട	-2035
▁താഴ	-2036
ിയായി	-2037
▁കൈമാ	-2038
▁ഉണ്ട്	-2039
▁സാഹചര	-2040
ാക്കാന്‍	-2041
▁21	-2042
▁എടുക്ക	-2043
ഗോ	-2044
ുന	-2045
▁മുന്നറിയ	-2046
▁ഓഫ്	-2047
ുവര	-2048
▁ആറ്	-2049
വരാണ്	-2050
▁സൗകര	-2051
മാരുടെ	-2052
▁അടക്കം	-2053
മുണ്ട്	-2054
▁ശു	-2055
ലില്‍	-2056
ക്കായി	-2057
ിക്കൊ	-2058
ലിന്റെ	-2059
▁ദുര	-2060
ുകളിലും	-2061
▁മലപ്പുറം	-2062
▁കീഴ	-2063
▁ഫ്ര	-2064
ാന്	-2065
▁പ്രൊ	-2066
▁പേരും	-2067
▁രാശിക്ക	-2068
രുത്	-2069
▁ലഭിക്കും	-2070
ുംബൈ	-2071
▁കുഞ്ഞ	-2072
രാജ	-2073
ട്ടു	-2074
ിക്കുകയ	-2075
▁സാഹചര്യത്തില്‍	-2076
ക്കേ	-2077
▁രാജ്യത്തെ	-2078
▁(1	-2079
ുകളെ	-2080
▁വികസന	-2081
▁അഭിന	-2082
മെന്റ്	-2083
▁നടപടിയ	-2084
▁സുഹൃ	-2085
,000	-2086
ീകരണ	-2087
വില	-2088
ിയോ	-2089
ൻസ്	-2090
▁സഖ്യ	-2091
േര	-2092
▁യുഎഇ	-2093
▁നിലപാട	-2094
▁അടിയ	-2095
▁വിമർശ	-2096
▁സോഷ്യല്‍	-2097
യോടെ	-2098
പ്പോഴ	-2099
▁കമ്പന	-2100
▁മുംബൈ	-2101
ിനെതിരെ	-2102
▁ബ്ല	-2103
ോഭ	-2104
െന്നായിരുന്നു	-2105
▁ആരാ	-2106
▁നിര്‍ദേശ	-2107
പോ	-2108
ത്തോളം	-2109
▁ആശുപത്രിയില്‍	-2110
ൃഷ്ണ	-2111
▁മുന്നോട്ട്	-2112
▁ചൊ	-2113
ുണ്ടായ	-2114
▁എല്‍ഡിഎ	-2115
നിര	-2116
▁വിജയം	-2117
യുമായി	-2118
▁മുസ്ലി	-2119
▁ഉള്‍പ്പെടെ	-2120
▁ജാമ	-2121
▁ചെറിയ	-2122
▁കണ്ടെത്തിയ	-2123
തൃ	-2124
▁വ്യക്തമാക്കിയ	-2125
സ്ര	-2126
പ്റ്റ	-2127
▁പരാമ	-2128
▁പേര്	-2129
▁സാമൂഹ	-2130
▁വസ്	-2131
▁കേരളം	-2132
▁റ്റ	-2133
▁നടത്തുന്ന	-2134
▁22	-2135
ൂരില്‍	-2136
െത്തിയ	-2137
വ്വ	-2138
▁വേഗ	-2139
ിപ്പ്	-2140
▁രൂക്ഷ	-2141
▁നേതാവ	-2142
തമായ	-2143
ുമായിരുന്നു	-2144
▁തെറ്റ	-2145
▁അനുമതി	-2146
▁സഹോദ	-2147
ല്‍പ്പ	-2148
ുമുള്ള	-2149
▁ഭൂരിപക്ഷ	-2150
▁വന്‍	-2151
ിക്കുകയാണ്	-2152
ക്ടർ	-2153
▁തുടർന്ന്	-2154
▁മുഹമ്മദ്	-2155
▁ചേര്‍ന്ന	-2156
▁പശ്ചാത്ത	-2157
▁വെളി	-2158
▁ശക്തി	-2159
▁ക്രി	-2160
ബ്ല	-2161
▁പ്രസ്ത	-2162
സ്റ്റര്‍	-2163
▁ബിജെപിയുടെ	-2164
യ്ക്കും	-2165
▁പോയി	-2166
▁എന്നിവര	-2167
▁ചന്ദ്ര	-2168
ുന്നില്ല	-2169
▁അത്ത	-2170
▁തുടര	-2171
ക്കുറിച്ച്	-2172
▁വരു	-2173
▁വായ	-2174
ുവരി	-2175
▁മുതി	-2176
▁നടത്തിയത്	-2177
▁ഫല	-2178
▁ഹാജ	-2179
▁സംസ്ഥാനത്തെ	-2180
ൗണ്ട	-2181
▁ഇക്കാര്യ	-2182
ാധിപ	-2183
▁പുല	-2184
▁ഒരിക്ക	-2185
▁ഉൾപ്പെടെ	-2186
▁പ്രവര്‍ത്തി	-2187
ൈന്‍	-2188
േണ്ടത്	-2189
▁പെണ്‍	-2190
▁സൃഷ്ട	-2191
ിക്കെതിരെ	-2192
▁വൈറസ്	-2193
എൽ	-2194
▁ക്യ	-2195
▁റിയ	-2196
ദ്ധി	-2197
▁വിഭാഗം	-2198
▁വിദ്യാഭ്യാസ	-2199
▁പതി	-2200
പ്പോഴും	-2201
ംസ	-2202
െച്ച	-2203
ോള്‍	-2204
▁ഉയർന്ന	-2205
ിക്കുന്നുണ്ട്	-2206
ണു	-2207
ോടും	-2208
▁മൃത	-2209
▁സിപിഎമ്മ	-2210
ൽക്ക	-2211
▁കില	-2212
ിച്ചും	-2213
▁ഹിന്ദ	-2214
▁പാർട്ട	-2215
▁23	-2216
▁എല്ലാം	-2217
▁വെച്ച്	-2218
▁സ്ത്രീ	-2219
▁ഒന്നും	-2220
ജ്ജ	-2221
▁ലീഗ്	-2222
െയില്‍	-2223
▁ആരോപണം	-2224
ത്തിനുള്ള	-2225
▁സെന്റ	-2226
▁ഉണ്ടായ	-2227
▁എംപി	-2228
▁പ്രോ	-2229
▁ബോധ	-2230
▁രാത്രി	-2231
ലോ	-2232
▁പ്രവർത്തക	-2233
▁ഇൻ	-2234
▁സോണ	-2235
തന്ത്ര	-2236
▁മാറ്റി	-2237
▁പശ്ചാത്തല	-2238
▁രാമ	-2239
▁ചെയ്യും	-2240
യുണ്ട്	-2241
▁ഇന്നലെ	-2242
▁അമ	-2243
▁പിടിച്ച	-2244
▁പൗര	-2245
വർക്ക്	-2246
▁സമ്പര്‍ക്ക	-2247
ഷൻ	-2248
▁ക്വാ	-2249
ുട്ട	-2250
▁അര്‍	-2251
തിനാല്‍	-2252
സ്ട്ര	-2253
▁പ്രസ്താവന	-2254
ശേഷ	-2255
റ്റര്‍	-2256
▁പ്രശ്ന	-2257
ോടൊപ്പം	-2258
ാടിയ	-2259
നിധ	-2260
▁എന്നതാണ്	-2261
▁തള്ള	-2262
▁ഇത്തര	-2263
രിച്ചത്	-2264
▁ആവശ്യപ്പെട്ടു	-2265
▁ഇന	-2266
▁കുറി	-2267
▁അക്രമ	-2268
▁തൃശൂര്‍	-2269
▁പുറത്തിറ	-2270
ിക്	-2271
▁വീട്ടില്‍	-2272
▁നോക്ക	-2273
ക്കാർ	-2274
▁വാർത്ത	-2275
മിന	-2276
തിയാണ്	-2277
▁ട്രം	-2278
▁മൃതദേഹ	-2279
തില	-2280
▁പഴ	-2281
▁ഇടുക്കി	-2282
▁എന്നായിരുന്നു	-2283
▁വേദ	-2284
▁മധ്യ	-2285
▁പ്രിയങ്ക	-2286
ബാധ	-2287
▁സഭ	-2288
▁കോളേജ	-2289
മത	-2290
▁ഭക്ഷ	-2291
▁പോസ്റ്റ	-2292
▁വിച	-2293
▁എന്ത്	-2294
േക്കുള്ള	-2295
▁തുടര്‍ന്ന	-2296
▁ചെന്നിത്ത	-2297
ീവ	-2298
വ്ര	-2299
▁ചെന്നിത്തല	-2300
കല	-2301
▁അവത	-2302
ില്ലാത്ത	-2303
സിയ	-2304
▁താല്‍	-2305
ണമെന്നാണ്	-2306
േറെ	-2307
▁അങ്ങനെ	-2308
▁എന്നിവിട	-2309
തായും	-2310
ോട്ടോ	-2311
▁ഹര്‍	-2312
▁മാറിയ	-2313
▁ആഘ	-2314
▁വിട	-2315
▁ബോസ്	-2316
ഷിക	-2317
ശ്വാസ	-2318
▁പുരു	-2319
▁മുരള	-2320
▁മറ്റു	-2321
പ്ല	-2322
രായ	-2323
▁എന്നെ	-2324
നത്തിന്	-2325
▁വല	-2326
▁സൈന	-2327
▁ഇന്ത്യൻ	-2328
ടിച്ച്	-2329
ിച്ചുവ	-2330
▁40	-2331
2,	-2332
▁ള	-2333
▁ആരാധ	-2334
▁ലഭിക്ക	-2335
മ്പ്	-2336
▁മുന്നില്‍	-2337
▁ജനറല്‍	-2338
▁ക്ഷ	-2339
▁സിന്‍	-2340
▁അറസ്റ്റ	-2341
▁(4	-2342
▁സംശയ	-2343
▁സ്വർ	-2344
▁കുമാര്‍	-2345
▁സ്വാധ	-2346
▁ഹൈക്കോടതി	-2347
▁ഊ	-2348
▁പെരു	-2349
▁ചടങ്ങ	-2350
▁പ്രഖ്യാപിച്ച	-2351
യർ	-2352
ുന്നുണ്ട	-2353
▁വ്യത്യ	-2354
▁ഇസ്ര	-2355
▁കടന്ന	-2356
ിട്ടുള്ള	-2357
▁യോഗം	-2358
ക്ടറ	-2359
ത്വം	-2360
▁നിക്ഷേപ	-2361
▁കമ്മിറ്റി	-2362
ിക്കുന്നതിന	-2363
▁പൂര്‍ത്തിയ	-2364
▁സംബന്ധിച്ച	-2365
▁പുറത്തു	-2366
ത്തേ	-2367
▁പ്രവർത്തന	-2368
ക്കുറ	-2369
ാക്കുന്ന	-2370
▁മോശ	-2371
▁മനസ്സില	-2372
്യന്തര	-2373
കരണ	-2374
▁ഗ്രൂപ്പ	-2375
▁റിപ്പോർട്ട	-2376
▁മണി	-2377
▁മൂല	-2378
ാബ്	-2379
ുപോക	-2380
▁തടയ	-2381
▁സമ്മേള	-2382
▁കിട്ടിയ	-2383
▁അമിത്	-2384
യു	-2385
▁ഇതേ	-2386
തമായി	-2387
▁നിങ്ങളുടെ	-2388
ലക്ഷ	-2389
▁മുസ്ലീ	-2390
▁ബീ	-2391
▁കേന്ദ്രം	-2392
1,	-2393
▁സമ്പർക്കം	-2394
▁നമു	-2395
റിൽ	-2396
▁ചീ	-2397
ൊന്ന	-2398
▁നില്‍ക്ക	-2399
ുകളില	-2400
▁മുസ്ലിം	-2401
▁ഡയറ	-2402
▁ഭാ	-2403
▁പരസ	-2404
4,	-2405
▁കാർ	-2406
തിയും	-2407
▁ഇതിന്റെ	-2408
▁മര	-2409
റ്റില്‍	-2410
▁കിട	-2411
▁യോഗ്യത	-2412
ീഷ്	-2413
▁വയനാട്	-2414
ടക	-2415
▁ഗുരുത	-2416
▁ആഭ്യന്തര	-2417
▁സൈനിക	-2418
സൂ	-2419
ംസ്	-2420
▁പഞ്ചായത്ത്	-2421
▁കൊലപാത	-2422
തെന്നാണ്	-2423
▁27	-2424
▁അതിന്റെ	-2425
സ്വ	-2426
ാലയ	-2427
മാന്‍	-2428
▁മാറി	-2429
19	-2430
▁പണ	-2431
▁കാലാവസ്ഥ	-2432
▁28	-2433
▁ഒരുപ	-2434
▁സൗദി	-2435
▁ഉള്ളത്	-2436
▁നടന്നത്	-2437
▁അര	-2438
ചന്ദ്ര	-2439
മന്ത്ര	-2440
▁രാജിവ	-2441
പ്രവര്‍	-2442
ിച്ചിരുന്ന	-2443
▁സ്ഥിരീകരിച്ചത്	-2444
▁പരിച	-2445
▁വന്നു	-2446
.3	-2447
ൊക്ക	-2448
▁ചികിത്സയില	-2449
▁പിന്‍	-2450
▁രണ്ടു	-2451
▁ലഭ്യമ	-2452
▁സൂര്യ	-2453
പ്പെട്ടിരുന്നു	-2454
ലിന്	-2455
▁വിദ്യാര്‍ത്ഥ	-2456
ര്‍ത്തി	-2457
സഭാ	-2458
നായി	-2459
ീകരിച്ച്	-2460
▁26	-2461
വീസ്	-2462
▁ചെയ്യാന്‍	-2463
ിയില	-2464
നോ	-2465
▁വൃ	-2466
▁എഴു	-2467
ീകരണം	-2468
ുപക്ഷ	-2469
▁തുടങ്ങി	-2470
രത്ത്	-2471
▁തോമസ്	-2472
▁പ്രചാരണ	-2473
▁നേതാക്കൾ	-2474
ദിന	-2475
ളും	-2476
▁ആന്റ	-2477
▁വെല്ല	-2478
ിക്കല്‍	-2479
▁ഇവരുടെ	-2480
ിക്കാനും	-2481
▁ജില്ലകള	-2482
▁നിർദ്ദേശ	-2483
▁ലഭിച്ചത്	-2484
ോസ്	-2485
ുകാര്‍	-2486
▁പറഞ്ഞ്	-2487
▁ഉച്ച	-2488
മാണെന്ന്	-2489
▁ഡോള	-2490
രുമായി	-2491
ാണെന്ന	-2492
ക്കുള്ള	-2493
▁കെട്ടി	-2494
ീധ	-2495
▁ദുബ	-2496
▁അവസ്ഥ	-2497
▁വിദ്യാർത്ഥ	-2498
ബർ	-2499
▁ജനാധിപ	-2500
നില	-2501
▁സന്ദര്‍ശ	-2502
▁ചിത്രം	-2503
▁സജീവ	-2504
▁ഇപ്പോഴും	-2505
▁ശേഷമാണ്	-2506
▁ശമ്പ	-2507
▁താരം	-2508
3,	-2509
▁പൊത	-2510
▁വർഷം	-2511
ദ്യോഗിക	-2512
▁വ്യാജ	-2513
▁കൂടെ	-2514
ആർ	-2515
ല്‍ക്ക	-2516
സോ	-2517
ദ്ഘ	-2518
ാവധി	-2519
▁ആക്രമണ	-2520
▁മഹാരാഷ്ട്ര	-2521
▁ഹോ	-2522
▁ദൃശ്യ	-2523
▁വിരുദ്ധ	-2524
മാരെ	-2525
▁വർധ	-2526
▁നിരക്ക്	-2527
ശി	-2528
സ്പി	-2529
ുകള്‍ക്ക്	-2530
▁അടക്കമുള്ള	-2531
ത്താവ	-2532
▁കേന്ദ്രസ	-2533
▁വാക്ക	-2534
.5	-2535
▁കേരളത്തിൽ	-2536
▁ആഗ	-2537
▁ഭയ	-2538
▁ഇന്റ	-2539
▁തുറന്ന	-2540
▁വന്നത്	-2541
സു	-2542
▁ആവശ്യമ	-2543
ിപ്പിച്ച	-2544
▁യി	-2545
▁നടി	-2546
▁അവരെ	-2547
▁ലക്ഷ്യമ	-2548
ർത്ഥ	-2549
▁ദേവ	-2550
▁മാർ	-2551
▁ചരിത്ര	-2552
▁ജോസ്	-2553
ികൾക്ക്	-2554
▁നോട്ട	-2555
▁കൊടുക്ക	-2556
▁തീവ്ര	-2557
▁സഞ്ച	-2558
ങ്കിലും	-2559
▁ക്രമ	-2560
▁ഉണ്ടാവ	-2561
▁നേരിട്ട്	-2562
▁കോണ്‍ഗ്രസിന്	-2563
▁ഒര	-2564
▁നായ	-2565
▁രമേ	-2566
ല്‍ഹി	-2567
ുണ്ടായിരുന്നു	-2568
ഫോ	-2569
ിനു	-2570
▁പേരെ	-2571
▁സ്വയം	-2572
▁ഇന്ത്യയുടെ	-2573
പ്രതി	-2574
▁ഇള	-2575
▁ഡ്രൈ	-2576
▁ജാഗ്ര	-2577
ടുവ	-2578
▁തിരി	-2579
▁വരുമാന	-2580
▁എല്ലാവരും	-2581
5,	-2582
▁കള്ള	-2583
▁സതീ	-2584
രുന്ന്	-2585
▁നിര്‍മ്മ	-2586
▁പട	-2587
▁പാട	-2588
ൈസ	-2589
ികളാണ്	-2590
▁നിന്നാണ്	-2591
▁കണ	-2592
▁പ്രശ	-2593
▁സര്‍ക്കാരിന്റെ	-2594
▁സമര്‍പ്പ	-2595
ഗ്ദ	-2596
▁നല്‍കിയത്	-2597
▁1,	-2598
ട്ടിഫ	-2599
▁പെട്ട	-2600
ിക്കപ്പെട്ട	-2601
▁ഇവരെ	-2602
▁പോസി	-2603
▁പോസ്റ്റ്	-2604
▁ഞെ	-2605
▁വിപ	-2606
ായേ	-2607
ീക്ക	-2608
▁കണ്‍	-2609
▁ദുരന്ത	-2610
▁ആവശ്യപ്പെട്ട	-2611
ങ്ങനെയ	-2612
▁മദ്യ	-2613
പ്പെടുന്നു	-2614
▁സാധിക്കും	-2615
മം	-2616
റോ	-2617
ദ്ഘാട	-2618
▁കെപി	-2619
▁ഇനിയും	-2620
▁ഗോപ	-2621
ുകൊണ്ടാണ്	-2622
▁ഔദ്യോഗിക	-2623
▁അബ്ദ	-2624
ാലോ	-2625
▁സീസ	-2626
ങ്ങനെയാണ്	-2627
▁സമിതി	-2628
▁ജയില	-2629
ില്ലെന്ന	-2630
സൈ	-2631
▁ഗുരുതര	-2632
▁വീണ	-2633
വെന്ന്	-2634
ശ്ശേരി	-2635
കുട്ടി	-2636
▁ഉമ്മന്‍	-2637
▁ഫോണ	-2638
▁ചാണ്ട	-2639
▁പ്രമുഖ	-2640
ഡില്‍	-2641
ത്തോട്	-2642
▁തെളിയ	-2643
▁മുരളീധ	-2644
▁വെല്ലുവി	-2645
ഘടന	-2646
▁കാലത്ത്	-2647
▁ഏഴ്	-2648
▁സഭാ	-2649
ുവിന്റെ	-2650
▁പരിക്ക	-2651
▁ലോക്ക്	-2652
▁വിമാനത്താവ	-2653
മാരും	-2654
▁മെയ്	-2655
ിക്കറ്റ	-2656
▁ബിജെപിക്ക്	-2657
▁നികു	-2658
സരിച്ച്	-2659
▁കോണ്‍ഗ്രസിന്റെ	-2660
മെന്റ	-2661
▁സംരക്ഷ	-2662
ാൾ	-2663
▁രൂപയാണ്	-2664
▁(5	-2665
▁ജൂല	-2666
▁ഏപ്ര	-2667
ാനാവ	-2668
▁ഇയാള്‍	-2669
▁ലക്ഷ്യം	-2670
ീര	-2671
▁ചാന	-2672
▁ലീഗ	-2673
▁ഇടതുപക്ഷ	-2674
നേ	-2675
വിന്	-2676
▁ലം	-2677
▁ദി	-2678
ക്കട	-2679
▁സ്വര്‍ണ	-2680
ത്താണ്	-2681
▁സെക്രട്ടറിയ	-2682
ികെ	-2683
ണായക	-2684
▁ആരും	-2685
▁ബിസിന	-2686
ളു	-2687
്രാ	-2688
▁സംസാ	-2689
ക്കാണ്	-2690
▁ബുദ്ധി	-2691
▁മൂന്നാം	-2692
കൊ	-2693
വാസം	-2694
▁ജോസഫ്	-2695
▁ഉദ്ഘാട	-2696
▁തങ്ങളുടെ	-2697
ിലി	-2698
ുതി	-2699
ഞ്ജ	-2700
▁ഇഷ്ട	-2701
▁നിശ്ച	-2702
ികളില്‍	-2703
▁പ്രതിഷേധം	-2704
രാമ	-2705
ികൂ	-2706
▁പങ്കെടുക്ക	-2707
▁വഹ	-2708
▁2019	-2709
ര്‍ത്തു	-2710
ൽപ്പ	-2711
▁സൂച	-2712
▁ഉന്നത	-2713
▁ഇസ്രായേ	-2714
▁എത്തിയത്	-2715
▁വേണം	-2716
▁കണ്ണൂർ	-2717
ിച്ചുള്ള	-2718
ിക്കുമെന്ന്	-2719
ൂരി	-2720
വന്‍	-2721
▁ഗുജ	-2722
ചി	-2723
ാനെ	-2724
▁തുടങ്ങ	-2725
▁നിലവിൽ	-2726
ര്‍ത്തിയ	-2727
▁ജനാധിപത്യ	-2728
സിലെ	-2729
പരമായ	-2730
ിള	-2731
▁മനോ	-2732
ംഗം	-2733
ത്തിനെ	-2734
▁രാഹുൽ	-2735
രിക്കാന്‍	-2736
▁കേസിൽ	-2737
ാസ്ത്ര	-2738
▁സാക്ഷ	-2739
▁ഒന്നാം	-2740
▁പകരം	-2741
ബുക്ക്	-2742
6,	-2743
▁അഴി	-2744
▁മാറ്റിയ	-2745
▁ആരോപിച്ചു	-2746
കള്‍ക്ക്	-2747
ത്യം	-2748
റ്റം	-2749
▁യാത	-2750
▁സമു	-2751
▁വൈദ്യ	-2752
▁ഉണ്ടായിരുന്നു	-2753
▁സമ്മാന	-2754
▁പേരില്‍	-2755
ഖ്യ	-2756
▁പറയുന്ന	-2757
▁മെഡിക്കൽ	-2758
▁യഥ	-2759
ത്തിനു	-2760
▁സ്ഥിതി	-2761
രൻ	-2762
ിയ്	-2763
▁ഒഴിവാക്ക	-2764
▁റാ	-2765
ണര്‍	-2766
ബുക്ക	-2767
▁സ്ഥാനം	-2768
▁മമത	-2769
8,	-2770
ാമത്തെ	-2771
കരമായ	-2772
▁മുന്നറിയിപ്പ്	-2773
രുവ	-2774
▁നേടി	-2775
ിനുള്ള	-2776
▁പ്രവർത്തി	-2777
▁പുരോഗ	-2778
▁കുറച്ച്	-2779
▁നിര്‍ദ്ദേശ	-2780
▁റൂ	-2781
▁നൽകി	-2782
ബൈ	-2783
▁ഭീഷണി	-2784
▁സംഘടിപ്പ	-2785
ശ്മ	-2786
▁ഗുജറാ	-2787
▁ബാങ്ക	-2788
▁നടക്കുന്നത്	-2789
▁നിയമം	-2790
▁കഥ	-2791
▁ശരിയ	-2792
▁എട്ട്	-2793
▁രമേശ്	-2794
▁മാറ്റം	-2795
▁ഉത്തരവാദ	-2796
▁ജീവനക്കാര	-2797
വരില്‍	-2798
▁ലംഘ	-2799
▁അവസരം	-2800
▁യുദ്ധ	-2801
▁സന്തോഷ	-2802
▁ഞങ്ങള്‍	-2803
▁പെൺ	-2804
ുടേയും	-2805
▁തിരഞ്ഞെടുപ്പിൽ	-2806
▁തസ്	-2807
▁പ്രവച	-2808
▁അധ്യക്ഷന്‍	-2809
ഗോപ	-2810
▁പോവ	-2811
ഗോഡ്	-2812
വിട്ട	-2813
▁വയസ്സ	-2814
▁മുസ്ലീം	-2815
▁വിശ്വാസ	-2816
പിച്ച്	-2817
▁ശ്രമം	-2818
▁വാക്സി	-2819
െടുത്തി	-2820
▁പിടികൂ	-2821
ത്തിനെതിരെ	-2822
ർത്തി	-2823
▁പത്ത്	-2824
▁ഇദ്ദേഹ	-2825
കളാണ്	-2826
▁കനത്ത	-2827
▁കൃഷ്ണ	-2828
▁ജോര്‍ജ്	-2829
▁ഭേദ	-2830
▁അഭിമുഖ	-2831
ിച്ചാല്‍	-2832
▁മണ്ഡലം	-2833
ില്ലെന്നാണ്	-2834
ീന്‍	-2835
▁തീയ	-2836
▁സിന	-2837
▁കൊച്ച	-2838
▁വധ	-2839
▁ക്ഷേത്ര	-2840
ന്നെ	-2841
കര്‍	-2842
▁സോണിയ	-2843
▁കാസര്‍	-2844
ര്‍ക്കാണ്	-2845
▁ഏത്	-2846
▁പിസി	-2847
▁വീതം	-2848
ിക്കുന്നതിന്	-2849
▁ആഘോഷ	-2850
▁ക്രൈ	-2851
ാക്കും	-2852
റ്റർ	-2853
▁ഉടമ	-2854
▁സാഹചര്യം	-2855
▁അതില്‍	-2856
▁വരുന്നത്	-2857
ടക്കം	-2858
ട്ടാണ്	-2859
▁യുഎസ്	-2860
▁ആലോ	-2861
▁നിരോധ	-2862
▁100	-2863
▁ഇയാള	-2864
െടുത്തത്	-2865
▁എന്താണ്	-2866
നിക്ക	-2867
▁വരിക	-2868
▁രൂപയുടെ	-2869
▁ചെയ്യുന്നു	-2870
്യോ	-2871
▁31	-2872
▁താൻ	-2873
▁പോളി	-2874
ല്ലേ	-2875
!!	-2876
▁മരണം	-2877
ുമായുള്ള	-2878
വുമ	-2879
ര്‍ഷ	-2880
▁ബന്ധം	-2881
▁കൂടുതല	-2882
▁നമുക്ക്	-2883
▁കൂടിയാണ്	-2884
ന്‍സ	-2885
▁സൂക്ഷ	-2886
▁ഫേസ്ബുക്ക	-2887
▁ഫേസ്ബുക്ക്	-2888
ഫി	-2889
▁ജല	-2890
▁തട്ടി	-2891
മാണെന്നും	-2892
▁രീതിയില്‍	-2893
▁ചോദിച്ചു	-2894
ിച്ചിട്ടില്ല	-2895
7,	-2896
9,	-2897
▁മട	-2898
▁യെ	-2899
▁യാതൊരു	-2900
▁സതീശ	-2901
▁അധ്യാപ	-2902
രുദ	-2903
ങ്ങ്	-2904
ിയുമായി	-2905
▁പേരുടെ	-2906
▁അഴിമ	-2907
ള്‍ക്ക്	-2908
▁നടത്തുന്നത്	-2909
സാ	-2910
▁രോഗമു	-2911
▁ചെയ്തിട്ടുണ്ട്	-2912
▁മനസില	-2913
ക്കാന്‍	-2914
▁സ്ഥാനാര്‍ത്ഥി	-2915
നാട്ട	-2916
▁കുറവ	-2917
▁വിശ്വസ	-2918
നിൽ	-2919
▁ബജ	-2920
ാലയം	-2921
▁വിതരണം	-2922
▁കൊടുത്ത	-2923
▁ഹൗ	-2924
▁കൂള	-2925
▁വിന	-2926
േണ്ടത	-2927
▁സമരം	-2928
▁പലരും	-2929
▁പിന്നാലെയാണ്	-2930
▁ലോട്ട	-2931
▁ബുധ	-2932
▁തിയ	-2933
▁അവസര	-2934
▁പതിന	-2935
▁വീട്	-2936
▁കാത്തി	-2937
നാഥ്	-2938
▁ജാഗ്രത	-2939
▁അവതരിപ്പ	-2940
▁വിവരങ്ങള്‍	-2941
▁ക്ക	-2942
▁പാക	-2943
▁ഒട്ട	-2944
▁ഒന്ന്	-2945
▁മുതല	-2946
▁പരിപാടിയ	-2947
▁സമാന	-2948
▁വോ	-2949
▁ഏര്‍	-2950
▁ഹോട്ട	-2951
▁കോടതിയില്‍	-2952
▁സ്ഥിരീകരിച്ചു	-2953
റന്റ	-2954
▁മേഖലയില്‍	-2955
ങ്ങളായി	-2956
ങ്ങളോട്	-2957
മാക്കിയ	-2958
▁എങ്ങനെ	-2959
▁ദിലീപ്	-2960
▁സിറ്റി	-2961
നത്തില്‍	-2962
▁യോഗത്തില്‍	-2963
ാക്	-2964
ടുള്ള	-2965
▁ശിക്ഷ	-2966
▁തന്നെയ	-2967
▁ടോ	-2968
പ്പറ	-2969
▁ഇവർ	-2970
▁മാതൃ	-2971
▁വ്യക്	-2972
▁നേരിട്ട	-2973
▁മുഴുവന്‍	-2974
▁ആറ	-2975
െടുത്ത്	-2976
▁വിവാഹം	-2977
▁അംബ	-2978
ികളായ	-2979
▁നന്ദ	-2980
തിനിടെ	-2981
▁കാഴ്ച	-2982
▁സ്വാത	-2983
▁നല്‍കുന്ന	-2984
0,	-2985
എന്‍	-2986
ത്തിനിടെ	-2987
▁ഗൂ	-2988
▁മണ്ഡലത്തില്‍	-2989
▁മേധ	-2990
ുപോലെ	-2991
▁പ്രസിഡന്റ	-2992
▁പാര്‍ട്ടിയ	-2993
സേന	-2994
ാക്കുന്നത്	-2995
▁വനിതാ	-2996
▁കേസിലെ	-2997
▁കര്‍ണാടക	-2998
▁പരാമര്‍ശ	-2999
ലാ	-3000
ഹരി	-3001
ാക്കാൻ	-3002
ിക്കാണ	-3003
▁സുരക്ഷാ	-3004
▁തിരിച്ചടിയ	-3005
ങ്ങിയത്	-3006
▁യൂത്ത്	-3007
വകു	-3008
▁അദ്ദേഹത്തെ	-3009
▁ശേഖ	-3010
▁നാളെ	-3011
ുന്നതും	-3012
▁തസ്തിക	-3013
▁ഒരുപാട്	-3014
▁ക്യാമ്പ	-3015
▁പിഴ	-3016
ത്തം	-3017
▁മെന്റ്	-3018
ഭാവ	-3019
പ്പെടുത്തിയത്	-3020
ജൻ	-3021
▁രു	-3022
▁സിപിഐ	-3023
▁ഇപ്പോഴ	-3024
▁തുക	-3025
▁ഞങ്ങൾ	-3026
▁ബിരുദ	-3027
▁വിജയ്	-3028
▁35	-3029
▁ഗവര്‍	-3030
▁കൊണ്ടാണ്	-3031
▁ബുദ്ധിമു	-3032
▁ഒരിക്കലും	-3033
ിനോട്	-3034
▁നേരെ	-3035
ാണെങ്കില്‍	-3036
ദേശിക	-3037
ന്ധ്യ	-3038
ുന്നതെന്നും	-3039
ായം	-3040
▁അമ്പ	-3041
▁സ്വാതന്ത്ര	-3042
ിമ	-3043
തോടെയാണ്	-3044
േറിയ	-3045
പ്പിൽ	-3046
▁മക്ക	-3047
ൂരിലെ	-3048
▁ഡിസം	-3049
▁തിരുവ	-3050
ിക്കാനാണ്	-3051
ത്തിയിരുന്നു	-3052
പിട	-3053
രമൊരു	-3054
▁കാര്യമ	-3055
▁എന്	-3056
ായാണ്	-3057
ത്തിന്‍റെ	-3058
▁വിമാനത്താവള	-3059
ഡോ	-3060
▁ഡോസ്	-3061
▁നിര്‍ദേശം	-3062
ൊഴ	-3063
▁അശ	-3064
▁ബഹ	-3065
▁നടപ്പില	-3066
▁പ്രാദേശിക	-3067
രാജ്	-3068
▁രാജ്	-3069
▁പൂര്‍ണ	-3070
മിക	-3071
ല്‍സ	-3072
ിംഗ്	-3073
▁റോഡ	-3074
▁ഒപ്പം	-3075
▁റദ്ദ	-3076
ംപ	-3077
ണയ	-3078
നിട	-3079
്മി	-3080
▁ഒടു	-3081
▁കരാ	-3082
▁ചീഫ്	-3083
▁എത്തിക്ക	-3084
▁നികുതി	-3085
▁സംഭവത്തില്‍	-3086
ഹത്യ	-3087
▁ഉപയോഗിച്ച്	-3088
ായാലും	-3089
▁അഭിഭാ	-3090
▁നിർമ്മ	-3091
തെ	-3092
▁ഷി	-3093
▁അച്ഛ	-3094
▁അത്ര	-3095
▁അതിനിടെ	-3096
▁ഗ്രൂപ്പ്	-3097
ുമു	-3098
▁നേതൃത്വത്തില്‍	-3099
▁രോ	-3100
▁ശബ	-3101
▁വസ്തു	-3102
▁വാഗ്ദ	-3103
ാണെന്നാണ്	-3104
▁0	-3105
വസ്ഥ	-3106
▁ന്ന	-3107
ിച്ചില്ല	-3108
▁കൊലപാതക	-3109
▁എംഎൽ	-3110
▁റോഡ്	-3111
ുണ്ടെന്നും	-3112
▁സര്‍ക്കാര	-3113
▁കാര്യത്തില്‍	-3114
▁ർ	-3115
സ്സ്	-3116
ായിക	-3117
ർത്തു	-3118
▁യുവതി	-3119
▁സഹായം	-3120
▁കഴിഞ്ഞു	-3121
▁ഇല	-3122
ഘട്ട	-3123
▁പ്രവാസ	-3124
▁ഇത്രയും	-3125
▁സൗകര്യ	-3126
▁വിഷയത്തില്‍	-3127
ീർ	-3128
▁നിലവിലെ	-3129
ഹസ	-3130
കോട	-3131
▁ഉദ	-3132
റ്റീവ്	-3133
▁സീറ്റുകള്‍	-3134
▁പ്രചാര	-3135
പാട	-3136
ലിൽ	-3137
▁കർഷക	-3138
▁ട്വി	-3139
▁എന്നിവരാണ്	-3140
▁ലഭിക്കുന്ന	-3141
▁ടെക്	-3142
പിന്റെ	-3143
▁സ്വതന്ത്ര	-3144
▁അണ	-3145
▁ടീമ	-3146
▁താല	-3147
ർട്ട്	-3148
▁പൂർത്തിയ	-3149
▁തൃണമ	-3150
▁ഓഫീസര്‍	-3151
▁കഴിയുന്ന	-3152
▁ജില്ലയിൽ	-3153
േബ	-3154
ങ്ങളുമായി	-3155
▁കാര്യങ്ങൾ	-3156
▁നിങ്ങള്‍	-3157
ാശാല	-3158
';	-3159
ഗീയ	-3160
സിക്യ	-3161
▁പ്രകട	-3162
▁വിദഗ്	-3163
▁അടിയന്തര	-3164
▁പ്രവേശിപ്പ	-3165
▁ഫാ	-3166
▁മത്സരിച്ച	-3167
ലാണ്	-3168
▁അംഗീകരിക്ക	-3169
▁ഇന്ത്യയില്‍	-3170
ളൂ	-3171
▁സംസ്	-3172
ിയുള്ള	-3173
ഗതി	-3174
▁ടൂ	-3175
▁ചെലവ	-3176
▁എംഎൽഎ	-3177
▁ഫോണ്‍	-3178
▁വിധി	-3179
▁ബാങ്ക്	-3180
ത്തിലായിരുന്നു	-3181
ഹിത	-3182
ങ്കള	-3183
▁ഇന്ത്യയിലെ	-3184
▁29	-3185
▁സിദ്ദ	-3186
▁പഴയ	-3187
▁സേന	-3188
ത്രിക	-3189
ിക്കു	-3190
▁ചൂണ്ടിക്കാണ	-3191
▁ജൂലൈ	-3192
▁തേടിയ	-3193
▁കോളേജ്	-3194
▁പെണ്‍കുട്ട	-3195
▁ഇടി	-3196
▁സിംഗ	-3197
▁നടപടികള്‍	-3198
ിക്കുമെന്നും	-3199
സെ	-3200
▁വിസ	-3201
ംബര്‍	-3202
▁അഭ്യ	-3203
▁എതിര	-3204
▁ഭരണം	-3205
▁ഉണ്ടായിരുന്ന	-3206
',	-3207
▁ചല	-3208
ശ്വര	-3209
യിട	-3210
ോറി	-3211
▁ട്വീ	-3212
ുകളിലെ	-3213
▁ജൂണ്‍	-3214
കുമാര്‍	-3215
▁പരിശീല	-3216
▁മാണി	-3217
▁നഗരസഭ	-3218
▁പുറത്തുവന്ന	-3219
▁60	-3220
ീല്‍	-3221
െയിൽ	-3222
▁ക്ഷണ	-3223
▁പാകി	-3224
▁ഇതിനിടെ	-3225
ക്കിട	-3226
ന്‍ഡ്	-3227
▁രീതിയ	-3228
▁തുടക്ക	-3229
▁കമ്മിറ്റ	-3230
▁കയ്യ	-3231
▁തെരഞ്ഞെടുപ്പ്	-3232
ാർഥ	-3233
ർമ്മ	-3234
ുണ്ടാക	-3235
ോമീ	-3236
ാനായി	-3237
കലാശാല	-3238
▁നിലനി	-3239
▁കെപിസിസി	-3240
▁യാദ	-3241
തിനാൽ	-3242
ത്തെയും	-3243
▁മൃതദേഹം	-3244
▁അടുത്തി	-3245
▁കേസുകള്‍	-3246
▁ജനങ്ങള്‍	-3247
▁നിലയില്‍	-3248
▁പാർട്ടിയ	-3249
▁തമ്മിലുള്ള	-3250
രാശ	-3251
▁45	-3252
▁ര്‍	-3253
▁റണ്‍	-3254
▁ഫെബ്ര	-3255
▁വ്യവസ	-3256
▁പാര്‍ല	-3257
▁അഭിഭാഷക	-3258
ഫ്ര	-3259
▁പിന്നെ	-3260
▁രോഗബാധ	-3261
ട്ടുണ്ട്	-3262
▁സാഹചര്യത്തിൽ	-3263
▁നിമി	-3264
▁ചെന്നൈ	-3265
▁കൂടിക്ക	-3266
ിരിക്കുന്നു	-3267
ുണ്ടായിരുന്ന	-3268
▁സ്വാധീന	-3269
▁പ്രധാനമന്ത്ര	-3270
▁തന്ത്ര	-3271
▁ആക്രമണം	-3272
▁രാജ്യം	-3273
▁ചൂണ്ടിക്കാട്ടി	-3274
േക്കാള്‍	-3275
▁അവസാനിപ്പ	-3276
രിക്കുകയാണ്	-3277
ന്‍ഡ	-3278
പുരം	-3279
ാരായ	-3280
കൃഷ്ണ	-3281
പ്പര്‍	-3282
▁കല്ല	-3283
▁സ്കൂ	-3284
▁കൂടിക്കാഴ്ച	-3285
▁ത്തി	-3286
▁ദുരി	-3287
ുന്നതെന്ന്	-3288
ുധ	-3289
▁പേരിൽ	-3290
ത്തുക്ക	-3291
▁ഇല്ലാത	-3292
▁റില	-3293
ുകൾക്ക്	-3294
▁ചെയ്യാൻ	-3295
▁അസി	-3296
▁സന്	-3297
▁ഖത്ത	-3298
▁ബ്രിട്ട	-3299
▁സംവിധാനം	-3300
രാക	-3301
▁അന്ന	-3302
▁നിങ്ങൾ	-3303
താഗ	-3304
സിക	-3305
▁ഫിറ	-3306
▁അപ്ര	-3307
▁വാദം	-3308
▁വ്യാപക	-3309
▁മുല്ല	-3310
▁ആളുകള്‍	-3311
തിരഞ്ഞെടു	-3312
▁ഗണ	-3313
ിയോടെ	-3314
▁വ്യാഴ	-3315
▁കിലോമീ	-3316
▁പ്രവര്‍ത്തിക്ക	-3317
▁പ്രവര്‍ത്തകര്‍	-3318
വറ	-3319
ുകൂ	-3320
▁സേവന	-3321
▁കൊണ്ടുവ	-3322
ഭരണ	-3323
ദ്വീ	-3324
▁ബന്ധുക്ക	-3325
▁യോ	-3326
▁ധാരണ	-3327
▁സമാധ	-3328
▁പെട്ര	-3329
▁മോഹന്‍	-3330
ിക്ക്	-3331
▁അഖില	-3332
പ്പോഴാണ്	-3333
ുണ്ടായി	-3334
▁വിചാരണ	-3335
ുണ്ടെന്ന്	-3336
ിലായിരുന്നു	-3337
ിട്ടുണ്ടെന്നും	-3338
▁ഡൽ	-3339
മാക്കി	-3340
▁ടിക്കറ്റ്	-3341
▁അദ്ദേഹത്തിന്	-3342
▁അധികം	-3343
ിലെത്തി	-3344
▁റെയില്‍	-3345
ക്കര	-3346
ലങ്ക	-3347
▁പരമ	-3348
ക്കുമ	-3349
▁ഓണ്‍	-3350
▁സാമൂഹിക	-3351
ാനാക	-3352
ൂരിൽ	-3353
▁മൊഴി	-3354
▁ശബ്ദ	-3355
▁2021	-3356
▁വിധേയ	-3357
െടുത്തു	-3358
ക്കാരുടെ	-3359
നവും	-3360
▁പെരുമാ	-3361
▁തമ്മില്‍	-3362
▁എന്നിവര്‍	-3363
▁പള്ള	-3364
▁പൊലി	-3365
▁വിഷയം	-3366
ര്‍ട്ട്	-3367
ാര്‍ക്ക്	-3368
യള	-3369
▁ഷെ	-3370
▁യുക്ര	-3371
പ്പെടും	-3372
▁പ്രകടിപ്പ	-3373
▁ബസ്	-3374
▁സാമ്പിള	-3375
▁കുറിച്ചു	-3376
▁പ്രതിനിധ	-3377
▁നശ	-3378
▁അഡ്	-3379
....	-3380
കളിലും	-3381
▁തിരികെ	-3382
▁വീട്ടിൽ	-3383
ൃദ	-3384
ൗൺ	-3385
▁ചേർന്ന	-3386
▁ഹിന്ദു	-3387
▁ഉണ്ടാകും	-3388
മായിരിക്കും	-3389
▁(6	-3390
▁അർ	-3391
▁ഗവ	-3392
ില്യ	-3393
▁ഞായ	-3394
ില്ലാതെ	-3395
▁ശ്രമിച്ച	-3396
ായില്ല	-3397
▁കുഴ	-3398
▁ശബരി	-3399
മെന്ന്	-3400
▁പോകുന്ന	-3401
▁ആവശ്യപ്പെട്ട്	-3402
▁കോണ്‍ഗ്രസില്‍	-3403
▁നീണ്ട	-3404
നങ്ങള്‍	-3405
▁പ്രതികരിച്ചു	-3406
ർമ	-3407
▁അഫ്	-3408
▁ഗുണ	-3409
▁ഒരുമ	-3410
▁മരിച്ചത്	-3411
▁പേര്‍ക്കും	-3412
▁മുക	-3413
ഡിന്റെ	-3414
പ്രദേശ്	-3415
▁പരിപാട	-3416
ിക്കണമെന്ന്	-3417
▁അവര	-3418
ോക്ക്	-3419
റുകള്‍	-3420
▁ജാമ്യം	-3421
▁വോട്ടുകള്‍	-3422
ിക്കാത്ത	-3423
▁മീഡിയയില്‍	-3424
▁അല്‍	-3425
▁ആഴ്ച	-3426
▁ന്യൂന	-3427
▁സന്ദർശ	-3428
▁സമർപ്പ	-3429
▁അന്താരാഷ്ട്ര	-3430
▁ചൗ	-3431
വിന്റെ	-3432
▁അയച്ച	-3433
▁സൂചിപ്പ	-3434
തിയായ	-3435
▁ഭരണകൂ	-3436
▁സ്ഥാനാര്‍ഥ	-3437
▁ജസ്റ്റി	-3438
▁അഡ	-3439
▁എവിടെ	-3440
▁തിങ്കള	-3441
ോഗ്യ	-3442
▁സജ്ജ	-3443
▁ഇതിനെ	-3444
്യമുള്ള	-3445
▁ജീവിതം	-3446
▁അജ	-3447
ക്ടോ	-3448
ാന്ത്	-3449
ര്‍മ്മ	-3450
▁കൗണ്‍	-3451
▁നെഗ	-3452
▁പ്രമേ	-3453
▁ക്വാറന്റ	-3454
പറ	-3455
പ്രവർ	-3456
▁ഒപ്പ	-3457
▁അംഗീക	-3458
▁കണ്ടു	-3459
▁മാനേജ	-3460
ിക്കൊണ്ട	-3461
▁വട	-3462
▁പാസ	-3463
ര്‍ശന	-3464
▁ബാബു	-3465
▁2016	-3466
▁ഹാജര	-3467
▁നിരക്ക	-3468
▁പോരാട്ട	-3469
നിന്ന്	-3470
േക്കാണ്	-3471
ത്തിൻ്റെ	-3472
.4	-3473
▁തീര	-3474
▁ടൂറി	-3475
്യൂട്ടി	-3476
ിച്ചിരിക്കുകയാണ്	-3477
▁ഇതിൽ	-3478
▁കശ്മ	-3479
▁മണ്ണ	-3480
▁പക്ഷെ	-3481
▁പ്പ	-3482
▁മാര്‍ച്ച്	-3483
രുട	-3484
ാകെ	-3485
▁ജ്യോ	-3486
▁വൈസ്	-3487
▁കേട്ട	-3488
▁സംവിധ	-3489
▁ശോഭ	-3490
▁എയര്‍	-3491
▁വില്‍	-3492
▁വാക്സിന	-3493
പ്രവര്‍ത്തക	-3494
▁വെളിപ്പെടുത്ത	-3495
ലൂടെ	-3496
ീകര	-3497
▁2,	-3498
▁എതിരെ	-3499
▁കാട്ട	-3500
▁സുരേന്ദ്രന്‍	-3501
▁കോര്‍പ്പ	-3502
▁മന്ത്രിസഭ	-3503
▁നം	-3504
▁ബൂ	-3505
▁രി	-3506
ശങ്ക	-3507
ുവിനെ	-3508
ിന്ന	-3509
▁കണ്ട്	-3510
ബിഐ	-3511
ുകാർ	-3512
▁പിന്‍വല	-3513
യിലൂടെ	-3514
ാറിന്റെ	-3515
തായിരുന്നു	-3516
േത്	-3517
്മെ	-3518
▁മൈ	-3519
▁വനിത	-3520
▁ഉടന്‍	-3521
ാമെന്ന്	-3522
▁അവി	-3523
▁ഭാഷ	-3524
▁മല്‍സ	-3525
▁സിന്ധ്യ	-3526
▁നടത്തിയിരുന്നു	-3527
▁നാട	-3528
▁ട്രെയ	-3529
▁വിദഗ്ധ	-3530
▁അടുത്തിടെ	-3531
▁കോര്‍പ്പറ	-3532
▁വെല്ലുവിള	-3533
▁തേട	-3534
▁വെബ്	-3535
▁ഇരുവരും	-3536
▁മറ്റുള്ള	-3537
▁പോകുന്നത്	-3538
▁ഏതെങ്കിലും	-3539
▁മൊബൈ	-3540
▁പരിചയ	-3541
▁ജനുവരി	-3542
ുപേ	-3543
ര്‍ഡ്	-3544
▁ഒരാള്‍	-3545
പിത	-3546
▁മുതിര്‍ന്ന	-3547
.1	-3548
മന	-3549
ടനാ	-3550
▁നൂ	-3551
ുപോയ	-3552
▁ആലോച	-3553
▁തര്‍ക്ക	-3554
▁സ്വദേശിയായ	-3555
കർ	-3556
▁ടു	-3557
▁കുറയ	-3558
▁ഡിജി	-3559
▁നിഷേധ	-3560
▁സച്ചി	-3561
▁നേതാവി	-3562
▁പേർക്ക്	-3563
▁ഉദ്ഘാടനം	-3564
▁സ്വപ്ന	-3565
ദായ	-3566
▁ചെറ	-3567
ിയിലും	-3568
▁ഡോക്ടര്‍	-3569
ിക്കണമെന്നും	-3570
▁ജോല	-3571
ക്ഷിണ	-3572
▁താലി	-3573
▁വിജയന്‍	-3574
ുകയാണെന്നും	-3575
▁കാന	-3576
ത്തുന്ന	-3577
ുമുണ്ട്	-3578
ിനീയ	-3579
▁രഹസ	-3580
▁തിരഞ്ഞെടുക്ക	-3581
▁വയസ	-3582
▁ജനറൽ	-3583
▁എൽഡിഎ	-3584
▁ആത്മഹത്യ	-3585
▁വക	-3586
മായത്	-3587
▁താഴെ	-3588
▁ഇതാണ്	-3589
ടുക്കുന്ന	-3590
ങ്ങളിലേക്ക്	-3591
ാന്റെ	-3592
▁മൂലം	-3593
▁കണക്ക്	-3594
▁അധികൃതര്‍	-3595
▁പൈല	-3596
▁ഓണ്‍ല	-3597
▁കർണാടക	-3598
▁ട്രംപ്	-3599
▁സാന്നി	-3600
▁അറസ്റ്റില	-3601
▁നങ്ങള്‍	-3602
▁പരിക്കേറ്റ	-3603
.2	-3604
ത്തുള്ള	-3605
▁റെക്കോ	-3606
▁യുവാക്ക	-3607
▁ഉപതിരഞ്ഞെടു	-3608
▁കലാപ	-3609
▁ഏജന്‍	-3610
▁ന്യൂഡ	-3611
ട്ടിക്ക	-3612
▁രജിസ്റ്റര്‍	-3613
▁ഗെ	-3614
റിനെ	-3615
▁പണി	-3616
▁പീഡ	-3617
▁അടച്ച	-3618
▁സന്തോ	-3619
▁പ്രസംഗ	-3620
▁ഇല്ലാത്ത	-3621
▁കണ്ടെത്തി	-3622
▁പിറ	-3623
ികളിൽ	-3624
▁എല്‍ഡിഎഫ	-3625
▁എല്‍ഡിഎഫ്	-3626
▁ജനങ്ങളുടെ	-3627
ളയ	-3628
▁മാല	-3629
തിക്ക	-3630
▁തൊഴില്‍	-3631
▁നമ്മള്‍	-3632
▁പ്രചാരണം	-3633
േബ്യ	-3634
റ്റിൽ	-3635
ലൈ	-3636
യിലുള്ള	-3637
▁കമ്പനി	-3638
▁ഹർ	-3639
ംഗ്ല	-3640
നോട്	-3641
▁ശനിയ	-3642
▁വോട്ടി	-3643
▁സ്പീക്ക	-3644
പ്തി	-3645
ുഴ	-3646
▁2020	-3647
▁പ്രകടന	-3648
▁സ്റ്റേഷന	-3649
▁തുടര്‍ന്നാണ്	-3650
ൾക്ക്	-3651
▁വിപണ	-3652
▁ചേര്‍ന്ന്	-3653
▁അറിയിച്ചത്	-3654
▁ആശുപത്രിയിൽ	-3655
ാലോചന	-3656
െയര്‍	-3657
▁പ്രദ	-3658
▁സഹോദര	-3659
▁അറേബ്യ	-3660
▁കൃത്യമായി	-3661
ത്തിന്റെയും	-3662
▁പ്രതിസന്ധി	-3663
ാസം	-3664
▁ശരീ	-3665
▁ബംഗാള	-3666
▁ദക്ഷിണ	-3667
▁ശബരിമല	-3668
വീസ	-3669
റ്ററ	-3670
ലിനെ	-3671
▁ഓഫീസ്	-3672
▁താലിബ	-3673
▁തൃണമൂ	-3674
▁പഞ്ചാബ	-3675
▁കൃത്യമായ	-3676
▁നിര്‍ണായക	-3677
▁അറിഞ്ഞ	-3678
▁മരിച്ചു	-3679
▁പ്രതിപക്ഷം	-3680
ശേഖ	-3681
▁ഓക്	-3682
▁ദിലീ	-3683
▁പങ്കാള	-3684
▁വെള്ളം	-3685
▁മുന്നോട്ട	-3686
ഹം	-3687
▁പവ	-3688
▁പദവ	-3689
▁മാര	-3690
ണക്കിന്	-3691
▁ജില്ലകളില്‍	-3692
യോട്	-3693
▁കഴി	-3694
▁സമി	-3695
ുമ്പോഴ	-3696
▁നിലനില്‍	-3697
▁ആം	-3698
▁യൂണി	-3699
▁വേണു	-3700
▁അപമാന	-3701
▁ഉത്തര്‍	-3702
▁പ്രതികരണ	-3703
▁സംവിധായക	-3704
ോൾ	-3705
▁ഫി	-3706
ജന്യ	-3707
▁പ്രവൃ	-3708
▁ഞെട്ട	-3709
ാറുണ്ട്	-3710
▁കിടക്ക	-3711
▁കണ്ടെത്തിയത്	-3712
▁നീതി	-3713
▁മാസ്	-3714
▁മുന്നണി	-3715
തീഷ്	-3716
▁ഭൂമ	-3717
ാവശ്യ	-3718
വിരുദ്ധ	-3719
▁വെള്ളിയ	-3720
ായിട്ടില്ല	-3721
▁അവര്‍ക്ക്	-3722
▁പിൻ	-3723
▁ഗതാഗ	-3724
▁വച്ച്	-3725
െടുപ്പ്	-3726
ീത	-3727
ഗ്ഗ	-3728
▁ആവശ്യമായ	-3729
നാഥ	-3730
▁ആശയ	-3731
▁തൂ	-3732
▁മത്സ്യ	-3733
▁സുഹൃത്തുക്ക	-3734
▁ടൈ	-3735
ങ്കേ	-3736
ഴക്ക	-3737
▁ഉദ്ധ	-3738
ര്‍ദ്ദ	-3739
▁അതിനെ	-3740
▁ജോലിയ	-3741
▁മറുപടിയ	-3742
ായിട്ടുണ്ട്	-3743
കേ	-3744
▁ജോർ	-3745
▁നിയമനം	-3746
).	-3747
▁മയ	-3748
▁ഹൃദ	-3749
▁പ്രി	-3750
▁മിനി	-3751
▁അഭിനയ	-3752
▁കെട്ടിട	-3753
▁ശാസ്ത്ര	-3754
▁ഉറപ്പാക്ക	-3755
മറ	-3756
▁ഹരി	-3757
▁മറിക	-3758
കൾക്ക്	-3759
▁കുടുംബം	-3760
▁ആയിരിക്ക	-3761
ഫല	-3762
▁താത്	-3763
▁വടക്ക	-3764
▁മാനസിക	-3765
▁ഭാഗത്ത്	-3766
▁പുറമെ	-3767
▁ഭര്‍ത്ത	-3768
ഹാറ	-3769
ക്ട്ര	-3770
▁പത്ര	-3771
▁ഒക്ടോ	-3772
▁കെഎസ്	-3773
േഷനില്‍	-3774
▁കാണാന്‍	-3775
േശ	-3776
ംഗളൂ	-3777
വ്വാ	-3778
▁പരമാവധി	-3779
▁ആദ്യമായി	-3780
▁വിളിച്ച്	-3781
▁ഘടക	-3782
▁ബാബ	-3783
ളുപ്പ	-3784
▁അബ്ദു	-3785
▁ലക്ഷ്യ	-3786
▁വരുത്ത	-3787
ുകളിലേക്ക്	-3788
ഷന	-3789
ൈവ	-3790
ിനാണ്	-3791
▁എന്തിന	-3792
▁രൂപയും	-3793
▁നൽകുന്ന	-3794
▁വരെയുള്ള	-3795
വയ	-3796
▁ഇടത്	-3797
ക്കാരെ	-3798
▁കാപ്പ	-3799
▁പ്രൊഫ	-3800
▁വെറും	-3801
▁നിശ്ചയ	-3802
▁വാക്സിൻ	-3803
▁വ്യവസ്ഥ	-3804
▁അസിസ്റ്റ	-3805
▁സുധാകരന്‍	-3806
▁നഴ്	-3807
▁ബൈഡ	-3808
▁അറിയാം	-3809
▁ഏകദേശം	-3810
▁ആരംഭിച്ച	-3811
ംബർ	-3812
പൂര്‍	-3813
▁വന്ന്	-3814
ത്താന്‍	-3815
▁കാലം	-3816
▁മുന്നിൽ	-3817
▁അഫ്ഗ	-3818
▁ഇക്കാര്യത്തില്‍	-3819
പതി	-3820
ൊപ്പ	-3821
▁സബ്	-3822
എച്ച്	-3823
റ്റിന്	-3824
▁സഖ്യം	-3825
▁ഇവര്‍ക്ക്	-3826
▁അത്യ	-3827
▁ഒള	-3828
ഥമിക	-3829
▁കയറി	-3830
▁പിടിയ	-3831
▁മുന്നണ	-3832
▁ഐപി	-3833
▁പഠന	-3834
▁പോലുള്ള	-3835
▁കസ്റ്റഡിയ	-3836
രുക്ക	-3837
▁ഗോപി	-3838
യെന്ന്	-3839
▁നിൽക്ക	-3840
▁സാന്നിധ	-3841
സ്തി	-3842
▁സ്ഥി	-3843
▁പ്രേക്ഷ	-3844
▁കേരളത്തിന്റെ	-3845
ശ്വ	-3846
മാരായ	-3847
റ്റീവ	-3848
പരമായി	-3849
ർത്തിയ	-3850
പ്പിച്ച	-3851
▁ഉണ്ടായി	-3852
▁വന്നിരുന്നു	-3853
▁ശമ്പളം	-3854
▁മുതിർന്ന	-3855
▁പങ്കെടുത്ത	-3856
▁മന്ത്രാലയം	-3857
ാവിക	-3858
▁ബാന	-3859
ായുള്ള	-3860
▁സ്ഥാനത്ത്	-3861
▁2018	-3862
▁അഡ്വ	-3863
▁വര്‍ദ്ധ	-3864
ന്മ	-3865
▁പൊള	-3866
▁നിര്‍മ	-3867
▁പദ്ധതിയ	-3868
▁ഇന്നത്തെ	-3869
▁തിരഞ്ഞെടുപ്പിന്	-3870
ണ്ടി	-3871
▁ഉദ്ദേശ	-3872
്വ	-3873
▁കടുവ	-3874
▁അഴിമതി	-3875
▁പ്രാഥമിക	-3876
▁ലാ	-3877
▁കാലയള	-3878
▁ഫോട്ടോ	-3879
▁ലോട്ടറി	-3880
യ്ക്കുന്ന	-3881
▁നേതാക്കളെ	-3882
▁കുറ്റപ്പെടുത്തി	-3883
▁കൂട്ടിച്ചേർത്തു	-3884
സ്മ	-3885
ക്സ്	-3886
▁199	-3887
▁മാതൃക	-3888
▁പേര്‍ക്കാണ്	-3889
ജീവിത	-3890
ായിട്ടാണ്	-3891
ഞ്ചേരി	-3892
▁അട്ടി	-3893
ോളജി	-3894
▁വേള	-3895
്യൂണി	-3896
▁കോവി	-3897
▁സമുദായ	-3898
▁തിങ്കളാഴ്ച	-3899
ീയം	-3900
▁എഴ	-3901
ക്രോ	-3902
ദണ്ഡ	-3903
▁കുടു	-3904
സ്റ്റർ	-3905
▁നടത്തും	-3906
▁സുപ്രീംകോട	-3907
▁ലാഭ	-3908
ത്തകര	-3909
വുമായ	-3910
ിനിടെ	-3911
▁വച്ച	-3912
ുവെന്നും	-3913
ര്‍ഡ	-3914
▁എച്ച്	-3915
▁ഭക്ഷണം	-3916
▁സോഷ്യൽ	-3917
▁ഉത്തരവ്	-3918
.30	-3919
▁ഇക്ക	-3920
▁ചിന്	-3921
▁ചെറു	-3922
▁ഭൂമി	-3923
ര്‍ത്ഥ	-3924
ുപറ	-3925
▁ഇറങ്ങ	-3926
▁താക്ക	-3927
▁മുൻപ്	-3928
-2	-3929
മാകും	-3930
▁സൗജന്യ	-3931
▁എത്തിച്ച	-3932
രുത്തി	-3933
ാന്‍സ്	-3934
ിരുന്നില്ല	-3935
▁ഭൂരിപക്ഷം	-3936
ങ്ങള്‍ക്കും	-3937
ബോധ	-3938
▁32	-3939
▁തുറന്ന്	-3940
ർഷ	-3941
▁ഞങ്ങളുടെ	-3942
▁ഉദ്യോഗസ്ഥര്‍	-3943
▁തട്ട	-3944
▁തൃക്ക	-3945
▁വിട്ട്	-3946
▁അനുവദിക്ക	-3947
▁തിരിച്ചറിയ	-3948
▁അറിയിച്ചിരുന്നു	-3949
ാവശ	-3950
▁നു	-3951
തില്ല	-3952
▁സുധാകര	-3953
▁സംസ്ഥാനങ്ങളില്‍	-3954
േമ	-3955
▁ഛ	-3956
▁ഗെയി	-3957
▁മുഖ്യ	-3958
▁മാര്‍ഗ	-3959
്യമന്ത്രി	-3960
താര	-3961
▁ഐസ	-3962
▁ചൊവ്വാ	-3963
▁വിളിച്ച	-3964
ിക്കൽ	-3965
▁മാനദണ്ഡ	-3966
▁നേതാക്കളുടെ	-3967
▁എഎ	-3968
സ്വാ	-3969
▁സംഭ	-3970
▁പത്ത	-3971
▁കുമാർ	-3972
സ്ഥാന്‍	-3973
▁അഭിനന്ദ	-3974
▁തുടക്കം	-3975
▁നല്‍കിയിരുന്നു	-3976
മുളള	-3977
▁ആഗോള	-3978
▁തള്ളി	-3979
▁നേരത്തേ	-3980
▁വാങ്ങിയ	-3981
▁ടെസ്റ്റ്	-3982
▁ണ	-3983
െയോ	-3984
▁രമ	-3985
പ്പിന്	-3986
▁കാരണമ	-3987
ങ്കേതിക	-3988
ുന്നതിനായി	-3989
▁ഉള്‍പ്പെടെയുള്ള	-3990
▁വൈദ്യുതി	-3991
▁ഫെബ്രുവരി	-3992
നട	-3993
▁ഭീ	-3994
തല്ല	-3995
▁എയർ	-3996
പ്പടെ	-3997
ഷണല്‍	-3998
▁മമ്മ	-3999
▁അക്കൗണ്ട	-4000
▁നേതാക്കളും	-4001
മൂ	-4002
ക്കൂ	-4003
ല്‍ഹ	-4004
▁ഭാഗ്യ	-4005
▁ഉറപ്പ്	-4006
▁അധികാരം	-4007
ൂപ	-4008
വ്വേ	-4009
ർദ്ദ	-4010
ക്രിയ	-4011
▁കാസർ	-4012
▁സഹകരണ	-4013
▁കുട്ടി	-4014
▁വിവരങ്ങൾ	-4015
▁നല്‍കാന്‍	-4016
▁സ്വാതന്ത്ര്യ	-4017
ഞ്ചായ	-4018
റ്റിയ	-4019
▁2022	-4020
▁കൊവി	-4021
▁പ്രചരണ	-4022
▁സിനിമാ	-4023
▁ബാധിച്ച	-4024
രുന്നുണ്ട്	-4025
ിക്കുന്നുണ്ട	-4026
▁സർക്കാരിന്റെ	-4027
തോ	-4028
▁പരിഹരിക്ക	-4029
▁സാധ്യതയുണ്ട്	-4030
ാറ്റ്	-4031
▁ഒക്കെ	-4032
▁ബുദ്ധിമുട്ട	-4033
▁ഉത്തരവാദിത്ത	-4034
.6	-4035
രാൻ	-4036
ാസി	-4037
▁യുപി	-4038
▁ലഭിച്ചു	-4039
▁സംഭവത്തിൽ	-4040
ജ്ര	-4041
ൊരാ	-4042
▁2017	-4043
▁താലൂ	-4044
▁നന്ന	-4045
▁മേധാവി	-4046
▁വിട്ടു	-4047
പൊ	-4048
▁ഫ്	-4049
▁കപ്പ	-4050
▁ഒരുക്ക	-4051
▁വേണുഗോപ	-4052
▁പ്രവർത്തിക്ക	-4053
▁മടങ്ങ	-4054
▁മത്സരം	-4055
ബല	-4056
▁ലേ	-4057
രായി	-4058
▁തുടർന്ന	-4059
യെന്ന	-4060
▁സീനിയ	-4061
▁പഞ്ചായത്ത	-4062
▁പെട്ടെന്ന്	-4063
▁മുഖ്യമന്ത്രിയ	-4064
▁37	-4065
▁ഡിവ	-4066
▁മുറ	-4067
ഷ്യല്‍	-4068
▁സിദ്ധ	-4069
▁ചാണ്ടി	-4070
▁തിരിച്ച്	-4071
വഹ	-4072
ാമ്പ	-4073
ടുപ്പ	-4074
▁കുവൈ	-4075
▁അന്തി	-4076
ുമെല്ലാം	-4077
▁നടപടികൾ	-4078
▁മണ്ഡലത്തിൽ	-4079
ാട്ട	-4080
▁മോഡ	-4081
▁സംസാരിച്ച	-4082
ചേ	-4083
താവ്	-4084
▁സൗദ	-4085
▁സങ്ക	-4086
കാര്യം	-4087
▁പിന്നില്‍	-4088
▁ഓട	-4089
▁ഉടൻ	-4090
്യൂട്ട	-4091
▁നിലയിൽ	-4092
▁തോന്നിയ	-4093
▁പ്രഖ്യാപനം	-4094
▁നല്‍കുന്നത്	-4095
ൻഡ്	-4096
▁കക്ഷ	-4097
▁വരുമ	-4098
▁വിമത	-4099
ിനെയും	-4100
▁ചൈനീസ്	-4101
▁സമാധാന	-4102
പ്പിന്റെ	-4103
ിലെത്തിയ	-4104
▁80	-4105
ുവും	-4106
റാഴ്ച	-4107
ിക്കെ	-4108
▁സ്ഥലം	-4109
▁മുഴുവൻ	-4110
▁പ്രചരിപ്പ	-4111
▁മുന്നേറ്റ	-4112
▁വര്‍ധിപ്പ	-4113
▁എന്തെങ്കിലും	-4114
ാണം	-4115
▁ടീം	-4116
ിനായി	-4117
ക്കൊപ്പം	-4118
▁ഒമ്പ	-4119
▁പദവി	-4120
രുടെയും	-4121
▁പ്രോസിക്യ	-4122
▁സാങ്കേതിക	-4123
ാണു	-4124
കോട്	-4125
▁അങ്ങ	-4126
▁പുരസ്	-4127
▁പാകിസ്ത	-4128
▁പ്രവൃത്തി	-4129
▁നില്‍ക്കുന്ന	-4130
സ്ല	-4131
▁ഭീകര	-4132
ടിന്റെ	-4133
വകുപ്പ്	-4134
▁അധ്യാപക	-4135
▁ജനങ്ങളെ	-4136
▁കുറിപ്പ്	-4137
▁ഭക്ഷണ	-4138
▁വിഷ്ണ	-4139
▁നേട്ടം	-4140
റ്റിന്റെ	-4141
▁കളക്ടര്‍	-4142
▁ബിജെപിയെ	-4143
▁ഐക്യ	-4144
▁താല്‍പര	-4145
▁പുതുതായി	-4146
▁ശക്തമായി	-4147
▁സംഭവിച്ച	-4148
ുമാന	-4149
▁പുറമേ	-4150
▁പോയത്	-4151
▁പശ്ചിമ	-4152
▁സീറ്റില്‍	-4153
ിക്കുന്നില്ല	-4154
80	-4155
േറ	-4156
ുകെ	-4157
ൂട്ടി	-4158
▁കാനഡ	-4159
▁രീതി	-4160
▁ദിലീപ	-4161
▁നിയോഗ	-4162
ുന്നതാണ്	-4163
▁ഞായറാഴ്ച	-4164
ോക്	-4165
▁ബില്ല	-4166
▁കോടതിയെ	-4167
▁രീതിയിൽ	-4168
▁വ്യവസായ	-4169
▁വാഗ്ദാനം	-4170
▁പാര്‍ട്ടിയുടെ	-4171
ങ്ങാട്	-4172
▁നോട്ടീസ്	-4173
▁ജസ്റ്റിസ്	-4174
▁ജില്ലകളിൽ	-4175
▁നിര്‍ബന്ധ	-4176
▁അനുസരിച്ച്	-4177
in	-4178
റുടെ	-4179
ായ്മ	-4180
ുകയോ	-4181
▁രാജി	-4182
▁ബുധനാ	-4183
▁ക്ലാസ്	-4184
▁യുവാവി	-4185
ാമെന്നും	-4186
▁ജഡ്	-4187
െത്തി	-4188
ശ്വാസം	-4189
▁കര്‍ശന	-4190
▁എന്‍ഡിഎ	-4191
▁സാമൂഹ്യ	-4192
▁അറിയിച്ച	-4193
▁ബാധിച്ച്	-4194
▁വോട്ടര്‍	-4195
.7	-4196
▁33	-4197
▁ബസ	-4198
▁ഭരണഘടന	-4199
▁തുടര്‍ച്ച	-4200
▁പീഡി	-4201
ാണുള്ളത്	-4202
▁അഭിപ്രായം	-4203
െയായിരുന്നു	-4204
വേദ	-4205
ാനോ	-4206
▁ബേ	-4207
ശേരി	-4208
▁പറയാന്‍	-4209
▁നടപ്പാക്ക	-4210
പ്ത	-4211
ൗണ്ട്	-4212
ക്കെതിര	-4213
-1	-4214
ടിഞ്ഞ	-4215
▁തേടി	-4216
▁പ്രാധ	-4217
ര്‍ത്ത്	-4218
▁ഇരിക്ക	-4219
▁ബെംഗളൂ	-4220
▁കൊല്ലപ്പെട്ട	-4221
▁രേഖപ്പെടുത്തിയ	-4222
▁കൺ	-4223
കളില	-4224
നമാണ്	-4225
ീറ്റ്	-4226
▁ട്രേ	-4227
▁നടക്കും	-4228
▁മേഖലയിലെ	-4229
▁അസം	-4230
▁ജലീ	-4231
രുടേയും	-4232
▁നിന്നു	-4233
▁ശനിയാഴ്ച	-4234
▁വെള്ളിയാഴ്ച	-4235
ജിത്	-4236
▁കുതി	-4237
▁രോഗമുക്തി	-4238
▁പ്രവര്‍ത്തനം	-4239
ംഗലം	-4240
പ്പന	-4241
▁തുല	-4242
▁ബാഗ	-4243
▁രോഹി	-4244
▁ഇറക്ക	-4245
▁എന്‍സി	-4246
ക്ട്	-4247
▁പരിധ	-4248
▁വൈറല	-4249
▁പൗരത്വ	-4250
▁പങ്കെടുത്തു	-4251
▁രാശിക്കാര്‍ക്ക്	-4252
ദാ	-4253
▁36	-4254
എസ്എസ്	-4255
▁കാണുന്നത്	-4256
▁കേന്ദ്രസർക്ക	-4257
▁സിബിഐ	-4258
യുടെയും	-4259
▁ടൂറിസം	-4260
▁എടുത്തി	-4261
▁പഞ്ചാബ്	-4262
കക്ഷ	-4263
▁ഗൗര	-4264
▁പാത	-4265
▁വാര	-4266
▁തള	-4267
യോഗം	-4268
▁പരിഗണന	-4269
▁രാജ്യത്തിന്റെ	-4270
▁സാഹചര്യത്തിലാണ്	-4271
ാമറ	-4272
ിനോ	-4273
▁യുപ	-4274
യ്ക്കായി	-4275
ത്തോടെയാണ്	-4276
റ്റും	-4277
▁ഒരാള	-4278
▁ഗ്രഹ	-4279
▁മോശം	-4280
▁ഏപ്രില്‍	-4281
▁പെൺകുട്ട	-4282
▁70	-4283
ംഗിക	-4284
▁ഇതു	-4285
▁വനം	-4286
▁ഉപേക്ഷ	-4287
▁ബ്ലോക്ക്	-4288
ന്‍റ	-4289
▁ഭാവ	-4290
▁രക്ത	-4291
ാകുന്നത്	-4292
▁തങ്ങള്‍	-4293
▁കാസര്‍ഗോഡ്	-4294
▁ഉൾപ്പെടെയുള്ള	-4295
ുമാ	-4296
▁വായ്പ	-4297
▁തീവ്രവാദ	-4298
50	-4299
ഹൃദ	-4300
▁ണ്	-4301
▁അതിൽ	-4302
▁പൊതുജന	-4303
▁സെപ്റ്റ	-4304
▁വിമര്‍ശനം	-4305
നീ	-4306
▁34	-4307
▁അസോ	-4308
▁ഹൈദ	-4309
▁മാതാ	-4310
ുമായും	-4311
▁കൈമാറ	-4312
▁പൊലിസ്	-4313
▁വ്യാപനം	-4314
▁ട്വീറ്റ്	-4315
ാധിക	-4316
▁അരു	-4317
▁ഏഷ്യ	-4318
വെന്നാണ്	-4319
▁സമ്പര്‍ക്കം	-4320
ഭോ	-4321
-19	-4322
▁ഏർ	-4323
▁സീസണ	-4324
▁പോലീസ	-4325
▁ഒരുക്കിയ	-4326
ാംഗ	-4327
▁സഹക	-4328
ജിത്ത്	-4329
▁തീയതി	-4330
▁വിശദീകരണം	-4331
▁വ്യക്തമാക്കിയത്	-4332
്യു	-4333
െന്നു	-4334
ര്‍ട്ട	-4335
▁ഡല്‍ഹി	-4336
▁സ്റ്റാ	-4337
▁ചോദിച്ച	-4338
ബാ	-4339
▁ശര	-4340
▁എംപ	-4341
▁പച്ച	-4342
നത്തിൽ	-4343
▁വാഹനം	-4344
▁ഗാന്ധിയുടെ	-4345
ാക്കിയിട്ടുണ്ട്	-4346
▁ഗം	-4347
▁റെഡ്	-4348
▁വെടി	-4349
▁കുടിയ	-4350
ുകയാണെന്ന്	-4351
വിള	-4352
ോണി	-4353
വേഷണ	-4354
ശേഷം	-4355
▁കാവ	-4356
▁നിർദേശ	-4357
▁പ്രകടനം	-4358
▁സ്വര്‍ണം	-4359
▁ഇന്ത്യയിൽ	-4360
▁ത്	-4361
▁ദൗ	-4362
▁അയാ	-4363
▁പിടി	-4364
▁തെറ്റി	-4365
▁നിതീഷ്	-4366
▁നിര്‍മാണ	-4367
▁മോദിയുടെ	-4368
▁ബാധിച്ചത്	-4369
▁കേന്ദ്രസര്‍ക്ക	-4370
വാള	-4371
▁സേവ	-4372
ത്തുട	-4373
▁ഡിവൈ	-4374
▁കണക്കിലെ	-4375
▁സൂപ്പര്‍	-4376
▁നിയന്ത്രണം	-4377
▁സ്ഥാനാർത്ഥി	-4378
ഭേദ	-4379
▁ഏഴ	-4380
ാരും	-4381
▁ഒരേ	-4382
ൊന്ന്	-4383
ക്കെട്ട	-4384
തിരുന്ന	-4385
▁കണ്ടത്	-4386
▁സമ്മാനം	-4387
▁രാജസ്ഥാന	-4388
▁ഇത്തരമൊരു	-4389
▁കൊണ്ടുവന്ന	-4390
ോഹ	-4391
രോധ	-4392
▁അഭിമാന	-4393
▁അസോസിയ	-4394
▁എങ്കിലും	-4395
▁സ്ഥലത്ത്	-4396
▁ചര്‍ച്ചകള്‍	-4397
▁ആധ	-4398
▁സ്നേ	-4399
▁കേള്‍	-4400
.8	-4401
ർഡ്	-4402
▁പാർല	-4403
▁രക്ഷാ	-4404
ക്കാലിക	-4405
▁ജനങ്ങൾ	-4406
▁കോണ്‍ഗ്രസ	-4407
▁അഴ	-4408
▁ഗൂഢ	-4409
ിയോട്	-4410
▁നാട്	-4411
▁വർദ്ധ	-4412
ിക്കാതെ	-4413
ഭി	-4414
▁മാവ	-4415
▁ഓട്ട	-4416
▁ന്യൂനപക്ഷ	-4417
മുറ	-4418
ിള്‍	-4419
▁തിക	-4420
ക്കാൻ	-4421
▁രാജ്യസഭ	-4422
▁മണിക്കുട്ട	-4423
5),	-4424
ഷണം	-4425
▁കിര	-4426
ജിന്റെ	-4427
ലുകള്‍	-4428
ാത്തത്	-4429
▁ഒരുങ്ങ	-4430
▁വരുമാനം	-4431
െടുക്കുന്ന	-4432
▁കാര്യമാണ്	-4433
▁ഇപ്പോഴത്തെ	-4434
▁പരിശോധനയ്ക്ക്	-4435
ൂട്ട്	-4436
▁തർക്ക	-4437
▁എളുപ്പ	-4438
▁നിരീക്ഷണത്തില	-4439
േയുള്ള	-4440
ന്നൂര്‍	-4441
ാതിരിക്ക	-4442
▁എല്ലാവര	-4443
▁ആദ്യത്തെ	-4444
▁സര്‍വീസ്	-4445
▁സാധ്യതയുണ്ട	-4446
ർശന	-4447
റാണ്	-4448
▁ശരീര	-4449
▁മുദ്ര	-4450
▁അന്തിമ	-4451
ഫലം	-4452
െയ്യ	-4453
▁തൊട്ട	-4454
▁ആന്റണി	-4455
▁ക്യാപ്റ്റ	-4456
▁പ്രഖ്യാപിച്ചു	-4457
ാവകാശ	-4458
▁2023	-4459
പഞ്ചായ	-4460
▁ക്രൂര	-4461
▁രംഗത്ത	-4462
▁ലൈംഗിക	-4463
▁ദിവസത്തെ	-4464
▁അല്ലെങ്കില്‍	-4465
▁നൗ	-4466
▁മൗ	-4467
ച്ചവ	-4468
ുവെന്ന്	-4469
▁ആക്ഷേപ	-4470
▁നോക്കിയ	-4471
▁ഏറ്റെടുക്ക	-4472
▁കോണ്‍ഗ്രസിന	-4473
▁പാര്‍ട്ടിയില്‍	-4474
ുവെ	-4475
▁യൂറ	-4476
▁റാവ	-4477
▁സംഗ	-4478
▁ആയുധ	-4479
▁മകന്‍	-4480
▁പരാതിയ	-4481
▁അപ്രതീക്ഷ	-4482
തവും	-4483
▁ഗോവ	-4484
▁സിങ്	-4485
ിയ്ക്ക്	-4486
▁അസിസ്റ്റന്റ്	-4487
വ്യാപ	-4488
▁അതാണ്	-4489
▁കയറിയ	-4490
▁വിതരണ	-4491
▁വലിയൊരു	-4492
▁കമ്മീഷന്‍	-4493
▁ഗവര്‍ണര്‍	-4494
▁സര്‍ട്ടിഫ	-4495
▁കരുതുന്നത്	-4496
▁രാഷ്ട്രീയം	-4497
ന്റി	-4498
▁നിൽ	-4499
യാത്ര	-4500
ാക്കര	-4501
▁വൈകീ	-4502
▁ചിന്ത	-4503
ിലുണ്ട്	-4504
▁മണിപ്പ	-4505
▁ക്രിക്ക	-4506
▁ക്രിമിന	-4507
▁കൈകാര്യം	-4508
▁നടത്താന്‍	-4509
ിയായിരുന്നു	-4510
▁ശശ	-4511
ാരിക	-4512
▁ഗവർ	-4513
▁നൂറ	-4514
▁അയ്യ	-4515
▁പൂർണ	-4516
വുമാണ്	-4517
▁ക്ലാസ	-4518
ക്താക്ക	-4519
▁ഭക്ഷ്യ	-4520
▁ഇതിനായി	-4521
▁വിജയിച്ച	-4522
പുര	-4523
്രമ	-4524
▁75	-4525
ുവിന്	-4526
▁എട്ട	-4527
▁ആളുകൾ	-4528
▁ഏജന്‍സ	-4529
ങ്ങളെയും	-4530
▁തിരിച്ചടി	-4531
0),	-4532
▁എഐ	-4533
▁ഗ്	-4534
▁റീ	-4535
േല്‍	-4536
▁മസ്	-4537
▁2024	-4538
▁ഉണ്ടാക്ക	-4539
▁അമേരിക്കന്‍	-4540
മീ	-4541
▁(7	-4542
നങ്ങൾ	-4543
ന്‍സി	-4544
▁ഇന്ധ	-4545
▁തൃശ്ശ	-4546
▁ഫിറോസ്	-4547
▁മോഹന്‍ല	-4548
എൻ	-4549
▁യാഥ	-4550
▁പാസ്	-4551
▁നന്ദി	-4552
▁വിശേഷ	-4553
▁മേഖലയിൽ	-4554
▁അപ്പ	-4555
▁നൽകിയത്	-4556
ുകാ	-4557
▁ജനത	-4558
മായാണ്	-4559
ീകരിച്ചു	-4560
▁ട്രെയിന	-4561
ലിക	-4562
▁എമ്മ	-4563
▁തൊഴിൽ	-4564
വകലാശാല	-4565
▁മൊത്തം	-4566
രുതെന്ന്	-4567
▁ബാക്കിയ	-4568
▁തരത്തിലുള്ള	-4569
▁പ്രതികരിച്ചത്	-4570
ഭൂ	-4571
സ്ഥാപ	-4572
▁വിനോദ	-4573
▁ദിവസവും	-4574
ങ്ങളിലൂടെ	-4575
ിക്കുന്നത	-4576
റാം	-4577
ിടെ	-4578
ക്ഷോഭ	-4579
മാണിത്	-4580
▁സ്വർണ	-4581
▁അവർക്ക്	-4582
▁ഇലക്ട്ര	-4583
▁നല്‍കും	-4584
▁പങ്കുവെച്ച	-4585
▁രണ്ടാമത്തെ	-4586
▁ഉണ്ടായിരിക്ക	-4587
യില്ല	-4588
▁ത്രി	-4589
▁ന്യായ	-4590
▁പരിശോധനാ	-4591
▁ബിജെപിയില്‍	-4592
▁അദ	-4593
ടിന്	-4594
▁ഡെപ	-4595
ജ്രിവ	-4596
സംഖ്യ	-4597
▁ഭിന്ന	-4598
▁ശിവസേന	-4599
▁അതുപോലെ	-4600
▁55	-4601
ഞ്ജു	-4602
ര്‍ജ	-4603
ായിര	-4604
▁കരി	-4605
ർപ്പറ	-4606
▁ടാസ്	-4607
ലങ്കാന	-4608
▁തിരിച്ചു	-4609
▁ഗ്രാമപഞ്ചായ	-4610
ബോ	-4611
ചാര	-4612
▁ഫു	-4613
േട്ട	-4614
▁കാണാം	-4615
▁നിര്‍ത്തി	-4616
▁മത്സരിപ്പ	-4617
▁വേണ്ടിയാണ്	-4618
ൃതി	-4619
▁48	-4620
കുമാർ	-4621
ാലാണ്	-4622
▁ആള്‍	-4623
▁യൂണിയ	-4624
▁കോടതിയിൽ	-4625
▁അതോറി	-4626
▁മെച്ച	-4627
ച്ചില്‍	-4628
ങ്ങളിലാണ്	-4629
▁തലത്തില്‍	-4630
ണർ	-4631
ീൻ	-4632
ാമി	-4633
ന്തരം	-4634
▁യോഗി	-4635
▁കൈയ്യ	-4636
▁ശമ്പള	-4637
▁നേടിയത്	-4638
▁ചൊവ്വാഴ്ച	-4639
▁ബാലചന്ദ്ര	-4640
▁തൃക്കാക്കര	-4641
▁പ്രതികരിച്ച	-4642
▁വൻ	-4643
▁പൂജ	-4644
▁മിഥ	-4645
▁പരാമർശ	-4646
▁കോർപ്പറ	-4647
▁സച്ചിന്‍	-4648
ന്യം	-4649
ോക്ക	-4650
▁പാവ	-4651
ുണ്ടാവ	-4652
▁കേസുകൾ	-4653
▁എത്തുന്ന	-4654
▁തെലങ്കാന	-4655
▁വിദ്യാര്‍ഥ	-4656
ന്ദ്	-4657
▁അതൃ	-4658
▁മതി	-4659
നിര്‍	-4660
▁കോര്‍	-4661
▁വിജയൻ	-4662
▁സമാനമായ	-4663
എല്ല	-4664
വിനെ	-4665
▁കുമാറ	-4666
▁ആത്മവി	-4667
▁തിരക്ക	-4668
▁പുരുഷന്‍	-4669
▁ചിത്രങ്ങള്‍	-4670
നയ	-4671
▁43	-4672
ർട്ട	-4673
▁അറി	-4674
▁ആദി	-4675
ന്‍റ്	-4676
▁പുരുഷ	-4677
▁മൂന്നു	-4678
▁പ്രഖ്യാപിച്ചത്	-4679
▁ഒമ	-4680
▁ഓഗ	-4681
ചാണ്ട	-4682
▁മതിയ	-4683
▁കരുതിയ	-4684
▁ജ്യോതി	-4685
▁തീരുമാനമ	-4686
പ്പെടുകയും	-4687
ക്കാര്‍ക്ക്	-4688
▁തുടരുകയാണ്	-4689
8),	-4690
▁ഉയര	-4691
▁പ്രണയ	-4692
▁അനില്‍	-4693
▁44	-4694
▁കറ	-4695
വെന്ന	-4696
▁നേരിടുന്ന	-4697
ിച്ചിരുന്നത്	-4698
ww	-4699
▁അബു	-4700
െയിന്‍	-4701
▁വെട്ട	-4702
▁വയനാട്ട	-4703
▁കുറയ്ക്ക	-4704
ര്‍ദ	-4705
തിച്ച	-4706
ിവില്‍	-4707
▁ഒടുവില്‍	-4708
▁പുറപ്പെടു	-4709
▁വിഷയത്തിൽ	-4710
▁വകുപ്പിന്റെ	-4711
പൂർ	-4712
ോഗ്ര	-4713
്ക്ക്	-4714
▁ഉണ്ണ	-4715
▁കെസി	-4716
ക്കുറി	-4717
റ്റിക്	-4718
▁ചിലര്‍	-4719
▁ഇതിലൂടെ	-4720
▁കഴിഞ്ഞ്	-4721
▁മണിക്ക്	-4722
ങ്ങൾക്കും	-4723
▁വ്യക്തമായ	-4724
ിലേ	-4725
▁അംഗം	-4726
▁എഞ്ച	-4727
▁ബുധനാഴ്ച	-4728
▁വിളിച്ചു	-4729
ിക്കുമ്പോള്‍	-4730
പ്പെടുത്താന്‍	-4731
▁പറയുന്നുണ്ട്	-4732
▁താൽ	-4733
▁ശശി	-4734
▁ജമ്മ	-4735
ാക്കിയിരുന്നു	-4736
▁ദിവസങ്ങളില്‍	-4737
▁സര്‍ക്കാരിന്	-4738
ൈസ്	-4739
ക്ഷന്‍	-4740
▁സൗഹൃദ	-4741
▁കെജ്രിവ	-4742
",	-4743
ോളി	-4744
▁പരസ്യ	-4745
▁ഇന്നും	-4746
▁സര്‍വേ	-4747
▁പദ്ധതിയുടെ	-4748
▁പട്ടികയില്‍	-4749
▁?	-4750
▁ഫോൺ	-4751
രക്ഷണ	-4752
▁ജോസഫ	-4753
േറ്റര്‍	-4754
▁ബിസിനസ്	-4755
▁വാര്‍ഡ്	-4756
▁വ്യാഴാഴ്ച	-4757
▁മുന്നറിയിപ്പ	-4758
കി	-4759
ൻസ	-4760
രാഗ	-4761
വാര	-4762
▁ഇതര	-4763
▁കൈവശ	-4764
പ്പള്ള	-4765
▁ഉണ്ടായത്	-4766
കൃ	-4767
ുര	-4768
നിവ	-4769
രാബ	-4770
▁സെക്ക	-4771
▁ഇദ്ദേഹം	-4772
▁പരിപാടി	-4773
▁മുന്‍പ്	-4774
▁ആയിരുന്ന	-4775
▁കാര്‍ഷിക	-4776
സഹ	-4777
ുഡ	-4778
▁ചേര	-4779
▁ഇടപാട	-4780
▁രാത്ര	-4781
▁ന്യൂസ്	-4782
▁പത്രിക	-4783
▁കൈമാറിയ	-4784
▁ശാ	-4785
▁റെയ്	-4786
▁ഭാരത്	-4787
ന്റേയും	-4788
▁മത്സരാ	-4789
▁ചെയ്യുക	-4790
േണ്ടതില്ല	-4791
▁രൂപീകരിക്ക	-4792
ാളം	-4793
▁3,	-4794
ര്യം	-4795
▁മഹാ	-4796
▁വെള	-4797
▁അവധി	-4798
▁ഓപ്പറ	-4799
▁സൈന്യ	-4800
▁ബാക്കി	-4801
▁വാര്‍ഡ	-4802
▁അങ്ങനെയ	-4803
▁തയ്യാറാക	-4804
.9	-4805
ിതം	-4806
▁ദീപ	-4807
▁ആളുകളെ	-4808
▁ഗുജറാത്ത്	-4809
▁ആശുപത്രിയിലെ	-4810
കീയ	-4811
▁ഏജൻ	-4812
ാഴ്ച്ച	-4813
▁കടക്ക	-4814
▁മണിയോടെ	-4815
.0	-4816
▁എന്നു	-4817
▁ഇത്തരത്തില്‍	-4818
▁താമസിക്കുന്ന	-4819
▁ശ്	-4820
▁പാറ	-4821
നിന്ന	-4822
▁ആരാധക	-4823
▁കാഞ്ഞ	-4824
▁കുന്ന	-4825
▁കൊട്ട	-4826
▁മുന്‍ക	-4827
▁രാജീവ്	-4828
▁ഒരുമിച്ച്	-4829
ഹ്ല	-4830
ൻ്റ	-4831
നെയും	-4832
സ്ത്ര	-4833
▁ഡിവി	-4834
▁പ്രീ	-4835
▁സംശയം	-4836
▁ഒട്ടേറെ	-4837
▁ലോക്ക്ഡ	-4838
▁ബെംഗളൂരു	-4839
ിക്കേണ്ടത്	-4840
▁തിരുവനന്തപുര	-4841
▁ഇയാൾ	-4842
▁പരസ്പ	-4843
▁വീഴ്ച	-4844
ാനിരിക്കുന്ന	-4845
തയും	-4846
▁എഡി	-4847
▁റോബി	-4848
▁പൊതുമ	-4849
▁കഴിയും	-4850
▁സർട്ടിഫ	-4851
▁എന്തായാലും	-4852
▁ആരോ	-4853
സ്ഥിതി	-4854
ിക്കാര	-4855
▁നടന്‍	-4856
▁അതിനാല്‍	-4857
▁തകര്‍ന്ന	-4858
▁പുറത്തുവ	-4859
▁500	-4860
▁ഇരുപ	-4861
േക്കാം	-4862
▁പ്രകാര	-4863
ങ്ങളുടെയും	-4864
▁വിദേശത്ത്	-4865
21	-4866
ിലോ	-4867
▁മൊഴ	-4868
▁അവഗണ	-4869
▁പിടികൂടിയ	-4870
▁ദിലീപിന്റെ	-4871
▁ശ്രമിക്കുന്ന	-4872
▁ഡൽഹി	-4873
ിയുടെയും	-4874
▁തൃണമൂല്‍	-4875
▁പ്രതികളെ	-4876
▁രോഗബാധിത	-4877
▁രോഗികളുടെ	-4878
▁വ്യക്തമല്ല	-4879
ൻഡ	-4880
ണല്‍	-4881
▁ധാര	-4882
▁നും	-4883
▁ഇനിയ	-4884
▁വഴിയ	-4885
▁കൂള്‍	-4886
▁സംഘപരി	-4887
▁എടുത്ത്	-4888
▁മന്ത്രാലയ	-4889
▁കോൺഗ്രസിന്	-4890
▁ജീവിതത്തില്‍	-4891
വ്യ	-4892
റിലെ	-4893
എസ്പി	-4894
ര്‍ജി	-4895
▁തടസ്സ	-4896
▁ബാധിത	-4897
▁ആസ്ഥാന	-4898
▁നശിപ്പ	-4899
ത്തുന്നത്	-4900
▁ദൃശ്യങ്ങള്‍	-4901
▁ഫേസ്ബുക്കില്‍	-4902
▁അടിസ്ഥാനത്തില്‍	-4903
ാരായണ	-4904
▁ക്ഷേമ	-4905
▁ഡല്‍ഹ	-4906
മെന്നും	-4907
▁എഴുതിയ	-4908
▁നടന്നു	-4909
▁ലോക്സഭ	-4910
നത്തിന്റെ	-4911
▁ഗൂഢാലോചന	-4912
▁പ്രസിദ്ധ	-4913
ിക്കണമെന്ന	-4914
▁ലക്ഷ്യമിട	-4915
ൗണ	-4916
ാശ്	-4917
▁കുള	-4918
▁ഇസ്ല	-4919
▁ജാതി	-4920
▁പയ്യ	-4921
േന്ത്യ	-4922
▁കൊള്ള	-4923
▁ഭേദഗതി	-4924
▁മലയാളി	-4925
▁വിമാനം	-4926
▁തലസ്ഥാന	-4927
ിക്കുമെന്നാണ്	-4928
▁നിങ്ങള്‍ക്ക്	-4929
ാദി	-4930
▁കൈവ	-4931
▁ച്ച	-4932
▁ഉറവിട	-4933
പിതാക്ക	-4934
▁കരാര്‍	-4935
▁പിതാവ്	-4936
ികളുമായി	-4937
▁അധ്യക്ഷൻ	-4938
▁പരാതിയില്‍	-4939
▁പുറപ്പെടുവ	-4940
▁ഘട്ടത്തില്‍	-4941
െണ്ണ	-4942
▁ഗുണം	-4943
▁വയസ്	-4944
▁നിമിഷ	-4945
▁വില്ല	-4946
ഫ്രിക്ക	-4947
▁രാജിവെ	-4948
▁ധനമന്ത്രി	-4949
▁വിലയിരുത്തല്‍	-4950
പ്പും	-4951
▁കഴിവ	-4952
▁സ്കൂള	-4953
ക്കൂട്ട	-4954
ക്കൊള്ള	-4955
ുമൊക്കെ	-4956
▁ആദിത്യ	-4957
ങ്ങളിലായി	-4958
നുസരിച്ച്	-4959
▁5,	-4960
സ്തു	-4961
▁ആസൂ	-4962
▁ജൂൺ	-4963
▁വെറ	-4964
ന്ദര്‍	-4965
▁കമല്‍	-4966
▁ഗതാഗത	-4967
▁അടിച്ച	-4968
▁തുടരുന്ന	-4969
▁വര്‍ഷത്തെ	-4970
▁കയറ	-4971
▁ഹരിയ	-4972
▁ഇയാളെ	-4973
▁നമ്മൾ	-4974
▁ഹര്‍ജ	-4975
▁എനിക്ക	-4976
▁നിറഞ്ഞ	-4977
▁പൊട്ടി	-4978
▁ഡെപ്യൂട്ടി	-4979
▁കോണ്‍ഗ്രസിനെ	-4980
▁റേ	-4981
▁കൊട	-4982
ിയുമായ	-4983
▁മെട്ര	-4984
▁വൃത്ത	-4985
▁സഹായി	-4986
്മെന്റ്	-4987
▁തള്ളിയ	-4988
▁യുവാവ്	-4989
ുണ്ടാകും	-4990
ത്തിലധികം	-4991
▁തുടങ്ങിയത്	-4992
ഥി	-4993
വൻ	-4994
വിക	-4995
▁അള	-4996
▁പുത	-4997
▁ബഹി	-4998
▁ലാല	-4999
ംബ്രാ	-5000
വർക്ക	-5001
▁മുൻപ	-5002
▁കമന്റ	-5003
▁വരുമ്പ	-5004
പ്രവർത്തക	-5005
▁സീറ്റുകൾ	-5006
ൃഗ	-5007
പുല	-5008
ാളി	-5009
ഡിപി	-5010
ശ്രീ	-5011
▁വിഭ	-5012
മ്മേള	-5013
രാഷ്ട്ര	-5014
▁ഡോക്ടർ	-5015
▁ഭാരവാഹ	-5016
▁ഹൈദരാബ	-5017
ര്‍മാന്‍	-5018
▁അധികൃതർ	-5019
▁യുഡിഎഫിന്	-5020
ിക്കുന്നതാണ്	-5021
ണിവ	-5022
▁39	-5023
ക്കല്‍	-5024
▁കത്ത്	-5025
▁ജയരാജ	-5026
▁ബജറ്റ്	-5027
ിച്ചതിന്	-5028
▁സംഘര്‍ഷ	-5029
▁രംഗത്തെത്തി	-5030
ദിവ	-5031
വാണ്	-5032
തെന്ന	-5033
▁ഗള്‍	-5034
▁സഞ്ജ	-5035
ങ്ങളായ	-5036
ല്ലാതെ	-5037
▁കൊണ്ടുവര	-5038
▁പ്രക്ഷോഭ	-5039
ങ്ങളെല്ലാം	-5040
നായിരുന്നു	-5041
▁ക്രൈംബ്രാ	-5042
കേരള	-5043
തിനു	-5044
▁അനി	-5045
▁ദളി	-5046
▁അത്തരം	-5047
▁കുത്തി	-5048
ുമ്പോഴും	-5049
▁ഇറങ്ങിയ	-5050
▁കൗണ്‍സില	-5051
ായിരുന്നില്ല	-5052
▁ആരെ	-5053
ിലായി	-5054
▁ലോകക	-5055
നവുമായി	-5056
▁മരുന്ന	-5057
▁മാർച്ച്	-5058
▁മാതാപിതാക്ക	-5059
▁ആവ	-5060
▁ആശ്ര	-5061
▁വടകര	-5062
ുമുന്ന	-5063
ങ്ങുന്ന	-5064
▁കിഴക്ക	-5065
▁നേതാവും	-5066
▁ഓണ്‍ലൈന്‍	-5067
▁എന്നിവയാണ്	-5068
▁മധ്യപ്രദേശ	-5069
ുവീ	-5070
ദ്മി	-5071
▁സംഘടനാ	-5072
▁കാലാവധി	-5073
ക്കണക്കിന്	-5074
▁ഇസ്രായേല്‍	-5075
▁42	-5076
▁സയ	-5077
▁ഇടയ	-5078
ിപ്പറ	-5079
▁ആയിര	-5080
▁അപകടം	-5081
▁ശ്രീക	-5082
്യമന്ത്ര	-5083
▁ജയിലില്‍	-5084
▁എന്നിവരുടെ	-5085
30	-5086
▁ഓൺ	-5087
പര്യ	-5088
ഫോഴ്	-5089
േരിയ	-5090
▁നാഗ	-5091
ുണ്ടോ	-5092
▁ജോർജ്	-5093
▁മേല്‍	-5094
▁സൈന്യം	-5095
▁പാര്‍ലമെന്റ	-5096
▁തീരുമാനിച്ചത്	-5097
▁/	-5098
ഷ്ഠ	-5099
ന്ദു	-5100
ഭാഗം	-5101
▁അധി	-5102
പ്രകാരം	-5103
▁അതിക്രമ	-5104
▁അറിയില്ല	-5105
▁പ്രത്യേകം	-5106
▁സുരേന്ദ്രൻ	-5107
▁പ്രതികരിക്ക	-5108
▁ചൂണ്ടിക്കാട്ട	-5109
ർഡ	-5110
▁നാം	-5111
▁ആവര്‍	-5112
▁ക്യാമറ	-5113
▁നിർദ്ദേശം	-5114
▁പലപ്പോഴും	-5115
▁ബിജെപിയും	-5116
▁പ്രോസിക്യൂ	-5117
രാണ്	-5118
▁വക്ത	-5119
▁ഇന്ധന	-5120
▁തുറക്ക	-5121
ിക്കില്ല	-5122
▁മൊബൈല്‍	-5123
ോടിയ	-5124
തിലും	-5125
വാര്‍	-5126
▁ഇരട്ട	-5127
▁തോറ്റ	-5128
▁പ്രതികള്‍	-5129
▁എത്തുന്നത്	-5130
▁സാധിക്കില്ല	-5131
▁രേഖപ്പെടുത്ത	-5132
ീനം	-5133
▁ഡീസ	-5134
▁ലൈസ	-5135
വിന്ദ	-5136
▁ഓഹരി	-5137
▁സ്നേഹ	-5138
▁മുല്ലപ്പള്ളി	-5139
തക	-5140
ഹ്മ	-5141
▁തന	-5142
▁കത്ത	-5143
▁രാശി	-5144
▁ആന്റ്	-5145
▁നമ്പര്‍	-5146
▁പിന്തുട	-5147
▁പ്രതിദിന	-5148
er	-5149
▁90	-5150
ാണ്ഡ	-5151
▁ആന്ധ	-5152
▁ഒരാൾ	-5153
▁മട്ട	-5154
▁വേദന	-5155
ാക്കണം	-5156
▁വിജില	-5157
▁സ്ട്ര	-5158
ിനൊപ്പം	-5159
▁ദുബായ്	-5160
▁ഹര്‍ജി	-5161
▁നാട്ടില്‍	-5162
ിയം	-5163
▁പത	-5164
▁വരെയാണ്	-5165
മാര്‍ക്ക്	-5166
▁രാമചന്ദ്ര	-5167
▁കോണ്‍ഗ്രസും	-5168
▁പിന്തുണയ്ക്ക	-5169
ന്‍പ	-5170
▁ഇടം	-5171
▁സുധ	-5172
▁2014	-5173
▁ഗൗരവ	-5174
ുമുട്ട	-5175
▁കാണാത	-5176
▁യാദവ്	-5177
▁റെയിൽ	-5178
▁അതായത്	-5179
▁മാറ്റിവ	-5180
▁യോഗത്തിൽ	-5181
ത്രെ	-5182
▁ഇഡി	-5183
▁ഫോറ	-5184
▁കിലോ	-5185
▁രൂപയ	-5186
വിന്ദ്	-5187
ാകുന്ന	-5188
്യത്തില്‍	-5189
▁പരസ്യമായി	-5190
ുന്നതിനുള്ള	-5191
▁അല്ലെങ്കിൽ	-5192
▁ന്യൂഡല്‍ഹി	-5193
▁38	-5194
യെയും	-5195
ർത്ത്	-5196
▁പരിസ	-5197
ബ്ലിക്	-5198
ിലധികം	-5199
▁ഉത്തർ	-5200
▁സന്ദേശ	-5201
ുന്നതിനും	-5202
▁ശ്രദ്ധേയ	-5203
▁പൂര്‍ണമായും	-5204
വേഗ	-5205
▁താന	-5206
▁ഫ്ല	-5207
▁ട്രാ	-5208
ഫ്റ്റ്	-5209
▁ഇംഗ്ല	-5210
▁തൃശൂർ	-5211
▁പുരോഗമ	-5212
▁മത്സരാർത്ഥ	-5213
▁ആസ	-5214
▁ഉരു	-5215
▁പുഴ	-5216
െയുടെ	-5217
▁കൃഷി	-5218
ാർക്ക്	-5219
▁കാറ്റ	-5220
ട്ടിന്റെ	-5221
▁ചേർന്ന്	-5222
▁പ്രവേശനം	-5223
▁കമ്മ്യൂണി	-5224
▁ചെയര്‍മാന്‍	-5225
▁മാധ്യമങ്ങള്‍	-5226
▁പുറത്തിറക്കിയ	-5227
▁സ്ഥാനത്തേക്ക്	-5228
ണോ	-5229
2),	-5230
▁നാമ	-5231
യത്ത്	-5232
സംഘടന	-5233
▁താഴ്	-5234
▁സമീപം	-5235
▁എൽഡിഎഫ്	-5236
▁വിശദമായ	-5237
▁മുരളീധരന്‍	-5238
▁സര്‍ക്കാരിനെ	-5239
ടത്ത്	-5240
ളിഞ്ഞ	-5241
ിട്ടു	-5242
▁തരംഗ	-5243
▁കുറവ്	-5244
റ്റാണ്ട	-5245
▁പാടില്ല	-5246
▁നിര്‍ത്ത	-5247
ില്ലെങ്കില്‍	-5248
▁നേതൃത്വത്തിൽ	-5249
▁ആഗ്രഹിക്കുന്ന	-5250
9),	-5251
ത്തറ	-5252
▁ഹാജരാക	-5253
▁ശിവശങ്ക	-5254
ച്ചിരുന്നു	-5255
▁തീരുമാനിച്ചു	-5256
▁എഫ	-5257
▁ഫയ	-5258
▁വരാ	-5259
▁കെട്ട	-5260
▁ഭർത്ത	-5261
▁സാധ്യമ	-5262
▁ഇതെല്ലാം	-5263
▁എപ്പോഴും	-5264
▁നിരന്തരം	-5265
▁വീട്ടിലേക്ക്	-5266
േവ	-5267
▁ഗൗ	-5268
▁വസ	-5269
ാരംഭ	-5270
▁അത്തര	-5271
▁സ്വാഗ	-5272
▁ചെയ്യുകയും	-5273
ഷോ	-5274
ജ്യ	-5275
▁പൈ	-5276
▁പാര	-5277
▁ആണെന്ന്	-5278
▁തുടർച്ച	-5279
▁സംസ്ഥാനം	-5280
▁കൊണ്ടുപോക	-5281
ിട്ടില്ലെന്നും	-5282
40	-5283
രാജ്യ	-5284
▁അനുമ	-5285
▁പരിഷ്	-5286
▁ഇന്‍സ്	-5287
▁ക്രിസ്	-5288
▁വീതവും	-5289
▁നിങ്ങളെ	-5290
▁വ്യാപാര	-5291
ഷണൽ	-5292
▁ചാല	-5293
ാമെന്ന	-5294
▁ഡാറ്റ	-5295
▁ആന്‍ഡ്	-5296
▁അതിജീവിത	-5297
▁ഉയര്‍ത്ത	-5298
▁ആരംഭിച്ചത്	-5299
ിപ്പിക്കുന്ന	-5300
▁സമാ	-5301
▁അയാള	-5302
▁ഹരിയാന	-5303
▁ഇവരില്‍	-5304
▁സുരക്ഷി	-5305
▁സുരക്ഷിത	-5306
▁സ്വാധീനം	-5307
േണ്ടതുണ്ട്	-5308
▁ഇതോടെയാണ്	-5309
▁നിയന്ത്രണങ്ങള്‍	-5310
▁47	-5311
ദാസ്	-5312
▁വീഴ	-5313
കരമായി	-5314
▁കുത്ത	-5315
▁ദുബായ	-5316
▁മാത്യ	-5317
▁വാങ്ങി	-5318
▁കാണുന്ന	-5319
▁ഡയറക്ടര്‍	-5320
▁പാർട്ടിയുടെ	-5321
ശാല	-5322
ൈലജ	-5323
▁41	-5324
▁പത്മ	-5325
▁പേരു	-5326
▁വിവേ	-5327
▁തുടരും	-5328
▁നോക്കി	-5329
▁വര്‍ധന	-5330
▁ഇന്റര്‍	-5331
▁പ്രതിയെ	-5332
▁റെയില്‍വേ	-5333
3),	-5334
സ്പെ	-5335
രാജന്‍	-5336
ുകളിലാണ്	-5337
യ്ക്കുള്ള	-5338
വര്‍ക്കും	-5339
▁വ്യത്യസ്	-5340
al	-5341
െയർ	-5342
േഷ്യ	-5343
ോപ്പ	-5344
റ്റല്‍	-5345
▁തോല്‍	-5346
▁ഉയർത്ത	-5347
െടുക്കാന്‍	-5348
▁ഉന്നയിച്ച	-5349
▁വയസ്സുള്ള	-5350
▁നിങ്ങൾക്ക്	-5351
ിട്ടുണ്ടെന്ന്	-5352
▁ഉത്	-5353
ായിരം	-5354
ിക്കര	-5355
▁ക്കു	-5356
▁മാപ്പ്	-5357
▁സതീശന്‍	-5358
ാണെങ്കിലും	-5359
▁പോരാട്ടം	-5360
▁ശതമാനവും	-5361
▁അനുവദിച്ച	-5362
▁ഇടതുമുന്ന	-5363
▁എന്തിനാണ്	-5364
യിലായിരുന്നു	-5365
47	-5366
ഗമ	-5367
വാസി	-5368
▁സൂര	-5369
▁അമരീ	-5370
▁കെകെ	-5371
▁മിഥു	-5372
▁ലഹരി	-5373
യ്ക്കു	-5374
▁ജനകീയ	-5375
▁താരതമ	-5376
▁സംഭാവന	-5377
▁ലോകത്തെ	-5378
മായിരുന്ന	-5379
▁പോലീസിന്	-5380
▁വിദേശകാര്യ	-5381
▁നഷ്ടപ്പെട്ട	-5382
ഐഎ	-5383
ംബര	-5384
വിറ്റി	-5385
ിക്കപ്പെട	-5386
▁എന്നിവരും	-5387
▁കുട്ടികള്‍	-5388
▁തീരുമാനിച്ച	-5389
ശു	-5390
ലോക	-5391
▁ഞാന	-5392
▁നെട	-5393
▁നൽകാൻ	-5394
▁കണ്‍ട്ര	-5395
▁അപ്പോള്‍	-5396
▁വിഭാഗത്തില്‍	-5397
▁റിപ്പോർട്ടുകൾ	-5398
▁ചര	-5399
ന്മാ	-5400
വ്യൂ	-5401
ാനിയ	-5402
തമാണ്	-5403
▁അറ്റ	-5404
▁രൂപം	-5405
▁സന്ന	-5406
▁സഹിതം	-5407
▁മയക്കുമ	-5408
▁വൈകിട്ട്	-5409
▁തട്ടിപ്പ്	-5410
ത്തിലൂടെയാണ്	-5411
▁നാട്ടുകാര്‍	-5412
▁പ്രധാനപ്പെട്ട	-5413
ഡിൽ	-5414
മാൻ	-5415
▁അഗ	-5416
▁ഐടി	-5417
ിക്കൂ	-5418
▁ശര്‍മ	-5419
▁കോടതിയ	-5420
▁നിർബന്ധ	-5421
▁പോകാന്‍	-5422
▁സ്ത്രീകള്‍	-5423
▁ഏര്‍പ്പെടുത്തിയ	-5424
60	-5425
ുഖ	-5426
▁ഈട	-5427
▁ദശ	-5428
▁അലി	-5429
▁ക്രൂ	-5430
▁പുനഃ	-5431
▁ഫോര്‍	-5432
▁സ്പ്ര	-5433
▁മറ്റും	-5434
▁നന്നായി	-5435
▁വൈകുന്ന	-5436
രുതെന്നും	-5437
▁എന്നിവരെ	-5438
▁ഗുരുതരമായ	-5439
ല്ലി	-5440
മെന്ന	-5441
▁പഠനം	-5442
ാനില്‍	-5443
▁കയറ്റ	-5444
▁കൊണ്ടു	-5445
▁സൗകര്യം	-5446
▁അനൂ	-5447
▁ത്ര	-5448
▁അച്ച	-5449
▁പാലാ	-5450
▁സംയു	-5451
റിയില്‍	-5452
ിയിലാണ്	-5453
▁പടിഞ്ഞ	-5454
പ്രതിജ്ഞ	-5455
▁കൂടിയായ	-5456
▁തകര്‍ക്ക	-5457
▁വാര്‍ത്തകള്‍	-5458
സീ	-5459
4),	-5460
മാവ	-5461
ഹ്വ	-5462
ഹാര്‍	-5463
▁ചുരു	-5464
▁സാംസ്	-5465
▁നിലനിൽ	-5466
▁സ്വഭാവ	-5467
▁മുദ്രാവ	-5468
▁തുടങ്ങിയവ	-5469
▁ആയിരിക്കും	-5470
▁മണ്ഡലത്തിലെ	-5471
▁4,	-5472
▁റൂമ	-5473
▁അങ്ക	-5474
▁ബ്രാ	-5475
▁എസ്പി	-5476
▁മുഖേന	-5477
▁രാധാക	-5478
▁സിനേഷന്‍	-5479
▁ഇമ	-5480
ാന്യ	-5481
▁പന്	-5482
▁സജി	-5483
ില്ലേ	-5484
▁മോഹൻ	-5485
▁പൂർണ്ണ	-5486
ിലുള്ളത്	-5487
▁എന്നിവർ	-5488
ിക്കുമെന്ന	-5489
▁യഥാര്‍ത്ഥ	-5490
▁ഉണ്ടാക്കിയ	-5491
▁ശ്രമിക്കുന്നത്	-5492
ലുകൾ	-5493
▁ക്ക്	-5494
▁പുനര	-5495
▁വേഗത	-5496
തിലൂടെ	-5497
വരെയും	-5498
ാണെങ്കിൽ	-5499
▁പിടിച്ച്	-5500
▁കേരളത്തിന്	-5501
▁രംഗത്തെത്തിയ	-5502
▁വോട്ടെടുപ്പ്	-5503
▁രാജ്യങ്ങളില്‍	-5504
▁സ്ഥിരീകരിച്ച്	-5505
നിർ	-5506
▁ബല	-5507
▁ഇളവ്	-5508
▁എങ്ക	-5509
ണിവേഴ്	-5510
▁പുസ്ത	-5511
▁ലക്ഷണ	-5512
▁വെക്ക	-5513
▁നിര്‍ദ്ദേശം	-5514
ഗി	-5515
▁അഗ്	-5516
▁മഹാമ	-5517
▁ഖാന്‍	-5518
ോടെയാണ്	-5519
▁പങ്കുവെ	-5520
ാവുന്നതാണ്	-5521
▁പ്രവർത്തകർ	-5522
ാഘ	-5523
ൊഴില	-5524
▁ങ്ങ	-5525
▁ശാര	-5526
▁ഇവിട	-5527
▁പീഡന	-5528
മിന്റെ	-5529
▁കച്ചവ	-5530
▁മില്യ	-5531
▁സേവനം	-5532
▁ദുരിതാ	-5533
▁അല്ലാതെ	-5534
▁ബാലകൃഷ്ണ	-5535
▁ശരിക്കും	-5536
▁ഹൈക്കമാന്‍	-5537
▁കിലോമീറ്റര്‍	-5538
▁കോര്‍പ്പറേഷന്‍	-5539
ദാബ	-5540
▁മുഖം	-5541
▁ഡൗണ്‍	-5542
ത്തിനാണ്	-5543
▁തെറ്റായ	-5544
▁നെഗറ്റീവ്	-5545
▁എന്തുകൊണ്ട്	-5546
4)	-5547
നീയ	-5548
▁51	-5549
▁പന	-5550
ാക്രമ	-5551
ുള്ളൂ	-5552
▁വിശ്വ	-5553
▁മലയാളം	-5554
▁വിമർശനം	-5555
▁ഓഗസ്റ്റ്	-5556
▁മാര്‍ക്ക	-5557
▁സീനിയര്‍	-5558
▁സുപ്രധാന	-5559
ടിച്ച	-5560
്യവും	-5561
▁പന്ത	-5562
▁വിഡി	-5563
▁അശോക്	-5564
▁ഫണ്ട്	-5565
▁വിപുല	-5566
▁തമ്മിൽ	-5567
▁ധരിക്ക	-5568
▁വിഷ്ണു	-5569
ക്കെതിരായ	-5570
▁രാജ്യസഭാ	-5571
▁കോടതിയുടെ	-5572
▁ആവശ്യപ്പെട	-5573
6),	-5574
▁ആക്	-5575
▁അതീവ	-5576
▁കുടി	-5577
▁മുട്ട	-5578
▁പേർക്ക	-5579
റ്റുകള്‍	-5580
▁ഭരണകൂടം	-5581
▁ടിക്കറ്റ	-5582
▁ഡിസംബര്‍	-5583
▁വൈകീട്ട്	-5584
▁സത്യപ്രതിജ്ഞ	-5585
▁എന്നിങ്ങനെയാണ്	-5586
an	-5587
▁ആവേശ	-5588
▁വേറെ	-5589
▁ഒമ്പത്	-5590
▁കുറ്റം	-5591
▁മുന്‍പ	-5592
▁മരുന്ന്	-5593
▁ആഗസ്റ്റ്	-5594
▁ദുരിതാശ്വാസ	-5595
നഗ	-5596
വേള	-5597
പ്പർ	-5598
▁താങ്ക	-5599
▁പാട്ട	-5600
▁സുരേഷ	-5601
▁കടന്നു	-5602
▁ഹോട്ട്	-5603
▁പിടിയില	-5604
▁കോടിയേരി	-5605
▁നാട്ടിലെ	-5606
▁ആരംഭിച്ചു	-5607
▁സ്വദേശികളായ	-5608
23	-5609
േശ്	-5610
▁അബ	-5611
സ്ഥത	-5612
ക്തിയ	-5613
പിപ്പ	-5614
മംഗലം	-5615
▁ഉപഭോ	-5616
▁അര്‍ഹ	-5617
ല്ലാത്ത	-5618
▁റിയാസ്	-5619
▁പ്രേക്ഷക	-5620
▁പ്രശാന്ത്	-5621
▁ൻ	-5622
▁നാശ	-5623
സിയുടെ	-5624
▁കാണാൻ	-5625
▁ജെഡിയ	-5626
▁ഇതിനോട	-5627
▁പിയുടെ	-5628
▁മുകേഷ്	-5629
▁പരിശീലനം	-5630
▁ഉള്‍പ്പടെ	-5631
▁ഏറ്റുമുട്ട	-5632
▁നേരിടേണ്ടി	-5633
ജോ	-5634
ങ്ങളോ	-5635
ീന്ദ്ര	-5636
▁പോളിംഗ്	-5637
▁46	-5638
പരിഹ	-5639
പ്രദ	-5640
▁ആവർ	-5641
▁യും	-5642
ങ്ങും	-5643
ദ്വേഷ	-5644
▁പരിഹസ	-5645
വുമില്ല	-5646
▁കുറച്ച	-5647
▁അട്ടിമറ	-5648
▁താലൂക്ക്	-5649
▁ലക്ഷദ്വീ	-5650
▁തെറ്റിദ്ധ	-5651
▁പ്രവർത്തനങ്ങൾ	-5652
▁എകെ	-5653
▁റാല	-5654
വെള്ള	-5655
▁കല്യ	-5656
▁വർധന	-5657
▁ഹൃദയ	-5658
സിനോട്	-5659
▁സംരംഭ	-5660
ക്കാർക്ക്	-5661
▁പിടിച്ചു	-5662
▁യൂണിവേഴ്	-5663
▁സീറ്റുകളില്‍	-5664
ചക	-5665
േഡ്	-5666
്ലാ	-5667
എഫ്ഐ	-5668
േഡിയ	-5669
▁പരമ്പ	-5670
▁മുരളീധര	-5671
▁അംഗീകാരം	-5672
▁നേട്ടങ്ങള്‍	-5673
▁എത്തിയിരുന്നു	-5674
പട	-5675
സിസ്	-5676
▁സസ്	-5677
ാനുളള	-5678
്യന്‍	-5679
▁ചട്ട	-5680
▁ലോകം	-5681
▁ഉമ്മൻ	-5682
▁നാലാം	-5683
▁പറയാൻ	-5684
▁വിറ്റ	-5685
▁കുറഞ്ഞത്	-5686
▁ഇത്തവണയും	-5687
▁അംഗീകരിച്ച	-5688
▁കണക്കുകള്‍	-5689
▁പെണ്‍കുട്ടി	-5690
സാധ	-5691
▁അക്ഷ	-5692
▁അനുസ	-5693
▁നായക	-5694
▁ആരാണ്	-5695
▁അക്കാദ	-5696
▁ഡോളര്‍	-5697
▁ചെയ്യണം	-5698
▁നടത്താൻ	-5699
▁നിർത്തി	-5700
▁നിർദേശം	-5701
▁വക്താവ്	-5702
ിലൂടെയാണ്	-5703
▁കാര്യമായ	-5704
▁മുകളില്‍	-5705
▁ആവശ്യമാണ്	-5706
▁പോലീസിന്റെ	-5707
▁രാഹുലിന്റെ	-5708
▁വീടുകളില്‍	-5709
▁പുറത്തുവിട്ട	-5710
ഡറ	-5711
മറി	-5712
▁അൽ	-5713
▁ഗ്ല	-5714
മ്പതി	-5715
▁ആന്റി	-5716
▁ജമ്മു	-5717
▁മറികട	-5718
ിക്കുള്ള	-5719
▁ഉത്തരവി	-5720
ങ്ങളൊന്നും	-5721
ട്ടിരുന്നു	-5722
▁പ്രദേശത്ത്	-5723
ത്തെക്കുറിച്ച്	-5724
▁ഉണ്ടായിരുന്നത്	-5725
ുകു	-5726
▁ഇരി	-5727
▁പാന	-5728
ാറിന്	-5729
▁വാടക	-5730
ഴിഞ്ഞു	-5731
▁ഭരണകൂട	-5732
യാണെന്ന്	-5733
ല്ലെന്നും	-5734
▁ഉപയോഗിച്ച	-5735
▁പോസിറ്റീവ്	-5736
▁തെരഞ്ഞെടുപ്പ	-5737
▁സുപ്രീംകോടതി	-5738
2)	-5739
വാർ	-5740
കുളം	-5741
▁നേഹ	-5742
▁ശൈലജ	-5743
െടുപ്പ	-5744
▁സൈബര്‍	-5745
ുണ്ടാവും	-5746
▁കുടിയേറ്റ	-5747
▁ചന്ദ്രശേഖ	-5748
രൂപ	-5749
ത്തോ	-5750
കളിലെ	-5751
തിനും	-5752
▁ആഹ്വ	-5753
▁കർശന	-5754
▁പിൻവല	-5755
▁സില്‍	-5756
ൂട്ടീവ്	-5757
▁ഇറങ്ങി	-5758
▁ഇറാന്‍	-5759
▁വിലക്ക	-5760
ാക്കുകയും	-5761
▁മുന്നോടിയ	-5762
▁അതുകൊണ്ടാണ്	-5763
▁നിന്നെത്തിയ	-5764
ായിരിക്കുകയാണ്	-5765
േല	-5766
▁49	-5767
ന്മാർ	-5768
ത്തേയും	-5769
▁കമ്മീഷൻ	-5770
▁പീഡിപ്പ	-5771
▁എല്ലാവര്‍ക്കും	-5772
▁കേന്ദ്രസർക്കാർ	-5773
▁ആംബ	-5774
▁പികെ	-5775
ുതന്നെ	-5776
▁എഴുതി	-5777
▁സ്വാഭ	-5778
▁ആനുകൂല	-5779
▁രണ്ടാമ	-5780
▁ആക്രമിച്ച	-5781
▁കുറിച്ചും	-5782
▁രാധാകൃഷ്ണ	-5783
▁സ്വര്‍ണവില	-5784
▁വന്നിട്ടുണ്ട്	-5785
▁കേന്ദ്രമന്ത്രി	-5786
ബറ	-5787
ക്ല	-5788
▁65	-5789
▁തേജ	-5790
▁ചിലർ	-5791
▁ന്നു	-5792
▁മഞ്ഞ	-5793
▁വമ്പ	-5794
▁ഷാജി	-5795
▁ബോധ്യ	-5796
▁സെന്ററ	-5797
ുണ്ടായത്	-5798
▁ഇതുമായി	-5799
▁വരുന്നു	-5800
▁ഇതിനോടകം	-5801
▁ഉണ്ടാവും	-5802
▁കുട്ടിയെ	-5803
ഫിയ	-5804
രംഗ	-5805
രേഖ	-5806
▁അതിശ	-5807
▁ലീഡ്	-5808
▁ആളാണ്	-5809
▁സത്യം	-5810
സംസ്ഥാന	-5811
▁ഉറവിടം	-5812
▁വർഷത്തെ	-5813
▁എഞ്ചിനീയ	-5814
▁കാര്യത്തിൽ	-5815
▁സ്വന്തമാക്ക	-5816
ടുത്തെ	-5817
ട്ടിന്	-5818
▁ഉപകരണ	-5819
▁ചെലവ്	-5820
▁വെറുത	-5821
്യൂട്ട്	-5822
▁പ്രശ്നം	-5823
▁ദിവസമാണ്	-5824
▁ഉണ്ടെന്ന്	-5825
▁ചോദ്യത്തിന്	-5826
▁ജില്ലകളിലും	-5827
തന	-5828
▁52	-5829
▁ഉളള	-5830
▁ഒഴി	-5831
▁വേഷ	-5832
റുക്ക	-5833
ാധ്യമ	-5834
▁കായിക	-5835
േണ്ടതാണ്	-5836
▁പ്രചരണം	-5837
▁നേതാവാണ്	-5838
▁വസ്തുക്ക	-5839
ത്തിനുള്ളില്‍	-5840
വരു	-5841
▁കൗ	-5842
▁ശുപ	-5843
▁ആൻഡ്	-5844
▁ദിനം	-5845
ുകാരും	-5846
▁പുത്ത	-5847
▁ബീഹാറ	-5848
റ്റിംഗ്	-5849
▁രാജേഷ്	-5850
ത്തിക്കൊ	-5851
▁പ്രഖ്യാ	-5852
▁സന്തോഷം	-5853
▁പ്രസ്ഥാന	-5854
▁കോൺഗ്രസിന്റെ	-5855
▁ചികിത്സയില്‍	-5856
ത്സവ	-5857
പ്പട	-5858
സാണ്	-5859
▁ലഖ്	-5860
▁ശത്	-5861
▁ആംബുല	-5862
▁അതിവേഗ	-5863
▁മര്‍ദ്ദ	-5864
▁സിവില്‍	-5865
തിരുന്നത്	-5866
▁ചടങ്ങില്‍	-5867
▁ദില്ലിയില്‍	-5868
സംഘ	-5869
പോലെ	-5870
െതിര	-5871
േയാണ്	-5872
▁അസ്വ	-5873
▁ചരിത്രം	-5874
▁തിരുമാന	-5875
▁ലോകത്ത്	-5876
▁സംരക്ഷണ	-5877
▁സാഹചര്യമ	-5878
▁ഇറക്കുമതി	-5879
▁കുട്ടികളുടെ	-5880
▁കുറിച്ചുള്ള	-5881
▁അപേക്ഷിക്കാം	-5882
▁ചോദിക്കുന്നു	-5883
പാ	-5884
▁ചുവ	-5885
▁ഫൈന	-5886
▁ശുഭ	-5887
കുമാറ	-5888
മിറ്റ	-5889
ലിപ്പ	-5890
▁ചാനല	-5891
▁പെന്‍	-5892
▁മിക്ക	-5893
▁കുറ്റപ	-5894
▁സർവീസ്	-5895
▁എത്രയും	-5896
▁ഓഫീസില്‍	-5897
▁സമ്മേളനം	-5898
▁കാര്യങ്ങളും	-5899
▁ഉദ്യോഗാര്‍ത്ഥ	-5900
▁മണിക്കൂറിനിടെ	-5901
▁കഠ	-5902
▁പണമ	-5903
ുപോയി	-5904
▁നിർണായക	-5905
▁സന്ദേശം	-5906
▁കഴിയില്ല	-5907
▁അഭ്യര്‍ത്ഥ	-5908
ിയത്	-5909
ുമാര	-5910
ാന്യം	-5911
▁ശങ്ക	-5912
ഡിറ്റ്	-5913
ിച്ചാൽ	-5914
▁ഇപ്പോഴി	-5915
▁അതുകൊണ്ട	-5916
▁സ്വാഭാവിക	-5917
▁അധികാരത്തിലെ	-5918
▁കസ്റ്റഡിയിലെ	-5919
▁അടിസ്ഥാനത്തിൽ	-5920
▁6,	-5921
ടിവി	-5922
പിന്	-5923
▁ഗുണ്ട	-5924
▁വേട്ട	-5925
▁പ്രായം	-5926
▁ഉറപ്പാണ്	-5927
▁രജിസ്റ്റർ	-5928
▁ഇത്തരത്തിൽ	-5929
▁ശൈ	-5930
ഡിന്	-5931
ുനിക	-5932
▁ബഹു	-5933
തയുടെ	-5934
▁പമ്പ	-5935
▁ഗെയിം	-5936
യെന്നും	-5937
ാലിറ്റി	-5938
ികളെയും	-5939
▁ജീവന്‍	-5940
▁രോഹിത്	-5941
▁വസ്ത്ര	-5942
▁ജനസംഖ്യ	-5943
▁അടക്കമുളള	-5944
▁എങ്ങനെയാണ്	-5945
▁രാജസ്ഥാന്‍	-5946
ാഖ	-5947
▁7,	-5948
▁എട	-5949
രമായ	-5950
▁എംബ	-5951
▁കൗൺ	-5952
▁ദ്ര	-5953
റിയും	-5954
▁ചങ്ങ	-5955
▁ശക്ത	-5956
▁പാക്ക	-5957
▁ഡിസിസി	-5958
▁ഖത്തര്‍	-5959
▁പ്രമേയം	-5960
ണമെങ്കില്‍	-5961
▁കുട്ടികളെ	-5962
▁ഉദ്യോഗസ്ഥർ	-5963
▁നിൽക്കുന്ന	-5964
▁പ്രധാനമായും	-5965
▁സാധ്യതയുള്ള	-5966
▁ക്രൈംബ്രാഞ്ച്	-5967
വീന	-5968
ൻറെ	-5969
▁കാറ	-5970
▁പേജ	-5971
ത്സാഹ	-5972
▁ദേവസ്	-5973
ാനാവില്ല	-5974
▁കുറവാണ്	-5975
▁ചർച്ചകൾ	-5976
▁രക്ഷപ്പെട	-5977
▁ഉച്ചയ്ക്ക്	-5978
▁വിജയിച്ചത്	-5979
▁നിയമസഭയില്‍	-5980
▁54	-5981
നഷ്ട	-5982
സ്ഥല	-5983
▁കാമ	-5984
▁മിശ്ര	-5985
▁ബംഗാള്‍	-5986
▁വേണ്ടത്	-5987
▁പൂര്‍ണ്ണ	-5988
▁കാലാവസ്ഥാ	-5989
▁ജനങ്ങള്‍ക്ക്	-5990
▁പഞ്ചായത്തിലെ	-5991
▁പ്രത്യേകിച്ച്	-5992
ഗ്ന	-5993
▁കേൾ	-5994
▁മജി	-5995
ടിച്ചു	-5996
▁ദുര്‍	-5997
▁നീട്ട	-5998
▁യെല്ലോ	-5999
ന്തരീക്ഷ	-6000
ിലേക്കും	-6001
▁ഇക്കുറി	-6002
▁ഇയാളുടെ	-6003
▁ഗോവിന്ദ	-6004
▁ട്വിറ്റ	-6005
▁പ്രതിഫല	-6006
മില്ലാത്ത	-6007
▁കഴിയുന്നത്	-6008
▁സാമ്പിളുകളാണ്	-6009
▁ചൂണ്ടിക്കാട്ടിയ	-6010
ഡും	-6011
ുകി	-6012
ട്യൂ	-6013
▁നാണ	-6014
▁പൈസ	-6015
▁വാട്	-6016
▁പാമ്പ	-6017
ാതെയാണ്	-6018
▁ദമ്പതി	-6019
▁ബഹുമാന	-6020
▁വ്യക്ത	-6021
ുന്നതോടെ	-6022
▁വോട്ടെണ്ണ	-6023
▁നടത്തുകയും	-6024
▁പ്രിയപ്പെട്ട	-6025
ടനീ	-6026
എസ്എ	-6027
▁ഹോം	-6028
▁ഭാഗം	-6029
▁വഞ്ച	-6030
േക്കാൾ	-6031
▁തടഞ്ഞ	-6032
നിന്നും	-6033
താണെന്ന്	-6034
▁ഉല്‍പ്പ	-6035
▁കുറിച്ച	-6036
▁കൊട്ടാര	-6037
▁പരസ്പരം	-6038
▁പെട്രോള	-6039
▁വേളയില്‍	-6040
▁ക്വാറന്റൈന	-6041
▁രൂപീകരിച്ച	-6042
▁വ്യാപകമായി	-6043
▁കണ്ടെത്താന്‍	-6044
▁മാധ്യമങ്ങളോട്	-6045
തേ	-6046
▁ളി	-6047
കന്‍	-6048
▁മാള	-6049
ബന്ധന	-6050
ാരോഗ്യ	-6051
▁മാറും	-6052
▁പൈലറ്റ്	-6053
▁ക്കെതിരെ	-6054
▁വോട്ടുകൾ	-6055
▁അതോറിറ്റി	-6056
▁കുടുംബാംഗ	-6057
▁പോസിറ്റീവ	-6058
▁പ്രത്യേകത	-6059
▁ആവശ്യപ്പെട്ടത്	-6060
ഫറ	-6061
വത്	-6062
▁198	-6063
▁വളര	-6064
▁നിരാശ	-6065
▁മുണ്ട	-6066
ുവെന്നാണ്	-6067
▁കണക്കുകൾ	-6068
▁ഇപ്പോഴിതാ	-6069
▁പുലര്‍ച്ച	-6070
ക്കുറിച്ചും	-6071
▁നിരീക്ഷണത്തില്‍	-6072
1),	-6073
ഭാര	-6074
ന്തി	-6075
▁കളമ	-6076
▁അഭ്യൂ	-6077
▁കത്തി	-6078
▁ജോണ്‍	-6079
▁പ്രയാ	-6080
▁റിക്ര	-6081
▁ദേവസ്വം	-6082
▁ശതമാനമാണ്	-6083
▁പങ്കെടുത്തി	-6084
ലിശ	-6085
▁ആര്	-6086
ുമല്ല	-6087
▁അതും	-6088
▁കഠിന	-6089
▁ഉപരോധ	-6090
ഡിയില്‍	-6091
▁മാലിന്	-6092
രുമെന്ന്	-6093
▁ജനപ്രതി	-6094
▁വിദ്വേഷ	-6095
▁വന്നാല്‍	-6096
▁വീട്ടിലെ	-6097
▁കണ്‍ട്രോള്‍	-6098
പാദ	-6099
മോദ	-6100
▁ഡൊ	-6101
▁രഞ്	-6102
▁ശരാശ	-6103
▁ഒരാളെ	-6104
▁രഹസ്യ	-6105
▁രൂക്ഷമായ	-6106
ികള്‍ക്കും	-6107
▁8,	-6108
▁രവി	-6109
ത്തുക	-6110
മാറ്റ	-6111
▁നാടക	-6112
▁വെയ്	-6113
▁അനധിക	-6114
▁ഏപ്രിൽ	-6115
▁പരിഹാര	-6116
▁ആര്‍ക്കും	-6117
▁രാജേന്ദ്ര	-6118
▁സ്റ്റേറ്റ്	-6119
▁വ്യക്തിയാണ്	-6120
ഷീ	-6121
▁ഓളം	-6122
▁ആശംസ	-6123
▁ഡിഎം	-6124
▁അതിനു	-6125
▁വകഭേദ	-6126
▁രണ്ടും	-6127
▁വികസനം	-6128
▁പുറത്തെ	-6129
▁നൽകിയിട്ടുണ്ട്	-6130
es	-6131
ഴല	-6132
ൈൻ	-6133
▁മോച	-6134
ജിനീയ	-6135
▁നാലു	-6136
▁ഗണേഷ്	-6137
▁തെക്ക	-6138
▁കമ്പനിയ	-6139
▁കുട്ടിയുടെ	-6140
▁ഭരിക്കുന്ന	-6141
▁മന്ത്രിയുടെ	-6142
ജിന്	-6143
ീരിക	-6144
▁ത്ത	-6145
▁പോര	-6146
▁ക്കാ	-6147
തായാണ്	-6148
▁വെടിയ	-6149
▁ഇതിനകം	-6150
ിപ്പിച്ചു	-6151
▁വളര്‍ച്ച	-6152
റ്റിവിറ്റി	-6153
▁കേസെടുത്തി	-6154
▁വെല്ലുവിളി	-6155
വിയ	-6156
▁197	-6157
▁സുഖ	-6158
ലാത്സ	-6159
▁വേഗം	-6160
ാന്‍ഡ്	-6161
▁അജിത്	-6162
▁ഒന്നര	-6163
▁പലയിട	-6164
കേന്ദ്ര	-6165
സിന്‍റെ	-6166
▁പ്രതിയ	-6167
▁കൂട്ടിയ	-6168
▁നവംബര്‍	-6169
▁വിലക്ക്	-6170
▁സന്തോഷ്	-6171
▁ഇന്ത്യയെ	-6172
▁കാസർഗോഡ്	-6173
▁രജിസ്ട്ര	-6174
രിക്കുന്നു	-6175
▁സർക്കാരിന്	-6176
ക്കുറിച്ചുള്ള	-6177
▁ചെയ്യപ്പെട്ട	-6178
മ്മി	-6179
▁ചൗഹ	-6180
ച്ചും	-6181
▁ആര്യ	-6182
▁ഓഫീസർ	-6183
ിട്ടാണ്	-6184
▁പ്രമേയ	-6185
▁ഭാഗ്യം	-6186
▁ഇല്ലാതെ	-6187
▁പ്രോഗ്ര	-6188
▁കേസുകളാണ്	-6189
▁യാത്രക്കാര	-6190
ാപാ	-6191
▁ചാ	-6192
▁സല	-6193
ദീപ്	-6194
വാസമ	-6195
▁അതു	-6196
▁2015	-6197
▁കഷ്ട	-6198
▁വീഴ്	-6199
പിയുടെ	-6200
ാറില്‍	-6201
▁ചാര്‍	-6202
▁ഏഷ്യാനെ	-6203
▁അധ്യക്ഷത	-6204
▁തിരിച്ചെ	-6205
▁കോളേജില്‍	-6206
▁താലിബാന്‍	-6207
▁നിലപാടാണ്	-6208
▁പരിപാടിയില്‍	-6209
മയ	-6210
ജിന	-6211
▁രം	-6212
▁വന	-6213
▁ഷായ	-6214
ത്താൻ	-6215
ാക്കോ	-6216
▁അഖിൽ	-6217
▁കരാറ	-6218
▁കരിയ	-6219
▁ദളിത്	-6220
▁പങ്ക്	-6221
ച്ചിത്ര	-6222
മായുള്ള	-6223
▁പരിഹാരം	-6224
▁വര്‍ഗീയ	-6225
▁കഴിയാത്ത	-6226
▁ക്രിസ്ത്യ	-6227
▁ഉപയോഗിക്കുന്ന	-6228
▁53	-6229
ളാണ്	-6230
െയില	-6231
▁മുറി	-6232
▁ലാഭം	-6233
▁നേരിയ	-6234
ിരിക്കെ	-6235
ുകയെന്ന	-6236
ുകാരുടെ	-6237
▁ചെയര്‍	-6238
▁വരാന്‍	-6239
▁സ്റ്റോ	-6240
▁യഥാർത്ഥ	-6241
ിക്കുമ്പോൾ	-6242
▁പരാമര്‍ശം	-6243
▁ജീവിതത്തിൽ	-6244
▁നിലവിലുള്ള	-6245
▁പ്രായമുള്ള	-6246
▁ഒറ്റപ്പെട്ട	-6247
▁സ്വീകരിച്ചത്	-6248
7),	-6249
പ്പൊ	-6250
▁ബാര	-6251
▁ആദിവ	-6252
▁കിരീ	-6253
ാര്‍ഡ്	-6254
▁ആദ്മി	-6255
▁ആശ്രയ	-6256
▁തീര്‍	-6257
മായിട്ട	-6258
മുണ്ടായ	-6259
▁വാക്ക്	-6260
▁ലക്ഷ്മി	-6261
▁വരികയാണ്	-6262
▁ഓണ	-6263
ന്ദേ	-6264
▁ഒതു	-6265
▁മലബ	-6266
▁രവീ	-6267
▁ലും	-6268
ാന്‍ഡ	-6269
▁കെഎം	-6270
▁മന്ദ	-6271
ക്കര്‍	-6272
▁അഹമ്മദ്	-6273
▁ഇതൊക്കെ	-6274
▁കുറ്റകൃ	-6275
▁അന്നത്തെ	-6276
▁വ്യാപാരി	-6277
▁ഇക്കഴിഞ്ഞ	-6278
▁വേണമെന്ന്	-6279
▁ദിവസങ്ങളിൽ	-6280
സ്ട	-6281
▁സൊ	-6282
നിധി	-6283
▁ജനം	-6284
▁സുമ	-6285
റിയാം	-6286
▁ഇറ്റ	-6287
▁ഗുരു	-6288
▁മുനി	-6289
▁വിരമ	-6290
▁തനിക്ക	-6291
▁പറ്റിയ	-6292
▁എന്നിങ്ങനെ	-6293
▁രാഷ്ട്രപതി	-6294
▁സിനിമയില്‍	-6295
പ്പെടുത്തുന്ന	-6296
▁പരാജയപ്പെട്ട	-6297
ഷ്യൽ	-6298
▁പകു	-6299
▁ഷാജ	-6300
നുമായ	-6301
▁ഹെല്‍	-6302
▁ഇസ്ലാമ	-6303
▁യുദ്ധം	-6304
ാകുമെന്ന്	-6305
▁പ്രോട്ടോ	-6306
▁വ്യത്യസ്ത	-6307
▁സിനിമയുടെ	-6308
▁ആശുപത്രികളില്‍	-6309
ുളം	-6310
▁കും	-6311
ണിന്റെ	-6312
▁ലോകാര	-6313
ുകളുമായി	-6314
▁സര്‍വീസ	-6315
ിക്കാരുടെ	-6316
▁കൊലപാതകം	-6317
▁സാധിച്ചു	-6318
▁സ്ഥലത്തെ	-6319
▁വാര്‍ത്താ	-6320
▁അതിര്‍ത്തി	-6321
▁നാട്ടിലേക്ക്	-6322
ബ്ബ	-6323
വാദം	-6324
▁രാം	-6325
▁റോബ	-6326
▁വാഴ	-6327
▁അത്ഭ	-6328
▁കാരം	-6329
▁ബില്യ	-6330
▁വ്യോമ	-6331
ത്തൂര്‍	-6332
▁തട്ടിയ	-6333
▁കര്‍ഷകര്‍	-6334
▁57	-6335
▁300	-6336
▁നടൻ	-6337
ക്തമായ	-6338
▁കളക്ടർ	-6339
▁സര്‍വ്	-6340
▁ഡയറക്ടറ	-6341
▁തുറന്നു	-6342
▁ബോര്‍ഡ്	-6343
ങ്ങളുണ്ട്	-6344
ുമ്പോഴാണ്	-6345
ൊക്കെയാണ്	-6346
ംശ	-6347
ൃഹ	-6348
ോല	-6349
ശോധ	-6350
ാൻസ്	-6351
▁പലിശ	-6352
ിന്‍റെ	-6353
▁നടിയെ	-6354
▁കുറച്ചു	-6355
ള്‍പ്പെടെ	-6356
▁അധിക്ഷേപ	-6357
ാനായിരുന്നു	-6358
ാഥ	-6359
ുമെ	-6360
▁ണ്ട	-6361
▁2011	-6362
ാക്കുക	-6363
▁അഖില്‍	-6364
▁ധരിച്ച	-6365
▁എടുത്തു	-6366
▁വര്‍ക്ക	-6367
▁സുധാകരൻ	-6368
▁സർക്കാര	-6369
▁കാണുന്നു	-6370
▁വിശ്വാസം	-6371
ണ്യ	-6372
ിങ്	-6373
▁ബദ	-6374
ക്രാ	-6375
▁ഡൽഹ	-6376
▁ഫോട	-6377
ലക്ഷം	-6378
ീര്‍ഘ	-6379
▁അന്‍	-6380
▁തെരു	-6381
▁സ്പെ	-6382
ത്തീസ്	-6383
ൊഴിലാള	-6384
▁അക്കാര	-6385
ല്ലെന്ന്	-6386
▁പിടികൂട	-6387
▁അരവിന്ദ്	-6388
▁കോടിയുടെ	-6389
▁ലോകാരോഗ്യ	-6390
▁മണിക്കൂറിൽ	-6391
▁ജീവനക്കാര്‍	-6392
▁എംഎല്‍എമാര്‍	-6393
▁ലഭിക്കുന്നത്	-6394
ൻ്റ്	-6395
▁ഫിന	-6396
▁മേൽ	-6397
▁സുന	-6398
ിന്റ്	-6399
▁ഏജൻസ	-6400
▁പ്ലസ്	-6401
▁കല്‍പ്പ	-6402
▁പ്രവാസി	-6403
▁പടിഞ്ഞാറ	-6404
ിച്ചിരുന്നില്ല	-6405
▁പാര്‍ട്ടിക്ക്	-6406
േതര	-6407
േരം	-6408
ൂരപ്പ	-6409
▁കഞ്ച	-6410
▁പൂഞ്ഞ	-6411
▁അംബാനി	-6412
▁അടുത്ത്	-6413
▁ചലച്ചിത്ര	-6414
▁പാർലമെന്റ	-6415
▁മുനിസിപ്പ	-6416
▁എന്നിവയുടെ	-6417
▁അപകടത്തില്‍	-6418
ാലം	-6419
▁56	-6420
ജെഡി	-6421
ന്യൂ	-6422
▁നാണ്	-6423
ാതാക്ക	-6424
ാനന്തര	-6425
▁പ്രളയ	-6426
രിക്കാൻ	-6427
▁നാരായണ	-6428
▁ഇന്ത്യാ	-6429
▁കുഞ്ഞാല	-6430
താണെന്നും	-6431
തിനിടെയാണ്	-6432
സ്ത്രക്രിയ	-6433
▁തമിഴ്നാട്	-6434
▁വാക്സിന്‍	-6435
▁പരിശോധിച്ച	-6436
പുഴ	-6437
ാംശ	-6438
▁ധൈ	-6439
ടിസി	-6440
▁തരം	-6441
▁ഭവന	-6442
▁കോളജ	-6443
▁പ്രണ	-6444
ിക്കാറ	-6445
▁ആസ്തി	-6446
▁ഇന്റർ	-6447
▁മോഷ്ട	-6448
▁ദീര്‍ഘ	-6449
▁രേഖകള്‍	-6450
▁ലോക്സഭാ	-6451
▁സന്നദ്ധ	-6452
▁പൊലീസിന്	-6453
ിക്കുന്നതും	-6454
▁ആര്‍എസ്എസ്	-6455
▁രാജ്യങ്ങള്‍	-6456
▁പോസിറ്റിവിറ്റി	-6457
▁നദ	-6458
▁10,	-6459
▁മാണ	-6460
ന്നത്	-6461
വട്ടം	-6462
▁ടിവി	-6463
ടങ്ങിയ	-6464
▁ടീച്ച	-6465
▁മനോരമ	-6466
▁വർഗീയ	-6467
▁ആശ്വാസ	-6468
▁കടന്ന്	-6469
▁അഖിലേഷ്	-6470
▁ബന്ധപ്പെട	-6471
▁രാശിക്കാര	-6472
▁തുടര്‍ച്ചയായി	-6473
▁പ്രഖ്യാപിച്ച്	-6474
ിക്കുന്നതിനുള്ള	-6475
താപ	-6476
ഷ്പ	-6477
പ്പൂ	-6478
ര്‍ണ	-6479
▁ന്‍	-6480
▁മൃഗ	-6481
▁ഡിംപ	-6482
▁അഞ്ചു	-6483
▁ലൈന്‍	-6484
▁അവസാനം	-6485
▁പിന്നിൽ	-6486
വ്വകലാശാല	-6487
ക്കിടയില്‍	-6488
▁ഭര്‍ത്താവ്	-6489
▁അറസ്റ്റിലായ	-6490
▁തയ്യാറാക്കിയ	-6491
48	-6492
ുസ	-6493
▁ജയ്	-6494
ണിക്ക	-6495
യായും	-6496
▁കരാർ	-6497
▁മഞ്ച	-6498
യാളാണ്	-6499
▁ഇങ്ങനെയ	-6500
▁മടങ്ങിയ	-6501
▁നയതന്ത്ര	-6502
▁കേസുകളില്‍	-6503
▁പശ്ചാത്തലത്തിൽ	-6504
▁11,	-6505
▁അർഹ	-6506
▁ഇളവ	-6507
▁2000	-6508
▁ലൈഫ്	-6509
ുവെന്ന	-6510
▁വിന്യ	-6511
▁ഉത്തരം	-6512
യ്ക്കാണ്	-6513
▁ചെയ്യാം	-6514
▁കാസര്‍കോട്	-6515
▁പുറത്തേക്ക്	-6516
▁ആരോപിക്കുന്നു	-6517
▁ലക്ഷ്യമിടുന്നത്	-6518
സല	-6519
സേ	-6520
എന്ന	-6521
▁ആവി	-6522
പ്പാട	-6523
▁അകലം	-6524
▁അതിര	-6525
▁ഭാരത	-6526
▁ഹൗസ്	-6527
▁ജലനിര	-6528
▁അതിനാൽ	-6529
▁തുടര്‍	-6530
▁ഹോട്ടല	-6531
ായിട്ടും	-6532
▁അഫ്ഗാനി	-6533
▁ആഹ്വാനം	-6534
▁ഉയരുന്ന	-6535
▁എടുക്കുന്ന	-6536
▁ശസ്ത്രക്രിയ	-6537
▁കസ്റ്റഡിയില്‍	-6538
▁സംവ	-6539
ുകാരെ	-6540
▁പെരി	-6541
▁അരങ്ങ	-6542
▁ധാരാളം	-6543
▁തോതില്‍	-6544
▁സംയുക്ത	-6545
▁സ്വർണ്ണ	-6546
▁പറഞ്ഞാല്‍	-6547
▁പ്രോത്സാഹ	-6548
▁പാർട്ടിയിൽ	-6549
▁വേഗത്തില്‍	-6550
മുണ്ടായിരുന്നു	-6551
▁എന്തുകൊണ്ടാണ്	-6552
▁ചെയ്യുന്നുണ്ട്	-6553
▁ഉം	-6554
▁ദൈ	-6555
ഡിംഗ്	-6556
▁ആലുവ	-6557
▁ഫണ്ട	-6558
ക്കിടെ	-6559
▁ആദ്യമ	-6560
ടിയില്‍	-6561
്യമില്ല	-6562
▁എക്സ്പ	-6563
▁ഞെട്ടി	-6564
▁ബാധ്യത	-6565
്യമായാണ്	-6566
▁അനുമതിയ	-6567
▁ഉറപ്പുവ	-6568
▁സ്വാഗതം	-6569
പ്പുറത്ത്	-6570
ബന്ധിച്ച്	-6571
ിക്കാനായി	-6572
▁മന്ത്രിയ	-6573
▁അക്കൗണ്ട്	-6574
▁കോൺഗ്രസിൽ	-6575
ഖണ്	-6576
▁കൂറ	-6577
▁വിയ	-6578
റിംഗ്	-6579
സ്ഥാൻ	-6580
▁അദ്ധ	-6581
▁കട്ട	-6582
▁ഭക്ത	-6583
ത്തിനിട	-6584
ല്ലൂര്‍	-6585
▁വിവാദം	-6586
▁ഫോണില്‍	-6587
▁കേസുമായി	-6588
▁കസ്റ്റംസ്	-6589
▁പ്രദേശങ്ങളില്‍	-6590
22	-6591
90	-6592
ുപുഴ	-6593
▁ഒമൈ	-6594
കത്ത്	-6595
ചെയ്യ	-6596
ന്തിര	-6597
ലുള്ള	-6598
▁തയാറ	-6599
▁കഥാപാ	-6600
▁ചുറ്റ	-6601
▁ഉത്തരാ	-6602
▁ഒടുവിൽ	-6603
▁വലിച്ച	-6604
▁അംഗങ്ങള്‍	-6605
▁പ്രശ്നങ്ങൾ	-6606
▁മണ്ഡലങ്ങളില്‍	-6607
തയ	-6608
▁ൾ	-6609
-20	-6610
▁ദയ	-6611
റ്റോ	-6612
▁അസമ	-6613
▁ഓസ്	-6614
▁നയം	-6615
ൊരുക്ക	-6616
▁പവന്‍	-6617
▁പിള്ള	-6618
ടക്കമുള്ള	-6619
▁രൂക്ഷമായി	-6620
▁അതിര്‍ത്തിയ	-6621
▁തിരിച്ചറിഞ്ഞ	-6622
ിക്കുന്നതിനായി	-6623
ഡിനെ	-6624
▁തിള	-6625
ബ്ല്യു	-6626
▁അതിഥി	-6627
▁സമഗ്ര	-6628
▁ഒരാഴ്ച	-6629
▁താത്പര	-6630
▁പിക്ക്	-6631
യ്ക്കിടെ	-6632
▁പ്രസാദ്	-6633
▁ശാരീരിക	-6634
▁മുന്നേറ്റം	-6635
▁നൽകിയിരുന്നു	-6636
▁കൊലപ്പെടുത്തിയ	-6637
▁1/	-6638
▁എന	-6639
▁പലത	-6640
▁പാഠ	-6641
ാനന്ദ	-6642
▁ഉറ്റ	-6643
▁ക്യൂ	-6644
▁വള്ള	-6645
മാരാണ്	-6646
ിലെയും	-6647
▁റിപ്പ	-6648
ാക്കുന്നു	-6649
▁വെച്ചാണ്	-6650
▁വേണമെന്ന	-6651
▁ജനപ്രതിനിധ	-6652
▁പദ്ധതികള്‍	-6653
▁ക്രിക്കറ്റ്	-6654
▁ഓറ	-6655
▁ഓഫി	-6656
▁പുക	-6657
▁ബിന	-6658
ഗ്രാമ	-6659
കരമാണ്	-6660
▁ജനപ്ര	-6661
▁ബുക്ക്	-6662
▁മെട്രോ	-6663
▁സിദ്ദി	-6664
ിക്കൊപ്പം	-6665
▁ജയരാജന്‍	-6666
▁പ്രതിയായ	-6667
▁പ്രവർത്തനം	-6668
▁റിപ്പോർട്ടിൽ	-6669
ദു	-6670
യോര	-6671
▁നൈ	-6672
കാരി	-6673
റായി	-6674
വല്‍	-6675
▁മായ	-6676
▁റോയ	-6677
േഴ്സ്	-6678
▁ഇടവേള	-6679
▁സർവ്വേ	-6680
▁പരീക്ഷണ	-6681
▁കാരണമായി	-6682
▁നഷ്ടപരിഹ	-6683
▁ലഭിക്കുക	-6684
▁വന്നതോടെ	-6685
▁വികസിപ്പ	-6686
ിലേക്കുള്ള	-6687
▁എന്നിങ്ങന	-6688
▁കണ്ണൂരില്‍	-6689
▁ഫേസ്ബുക്കിൽ	-6690
▁ഉമ്മന്‍ചാണ്ട	-6691
▁മയക്കുമരുന്ന്	-6692
ഡ്ര	-6693
ണ്ഠ	-6694
▁റവ	-6695
▁സുശ	-6696
▁ഉപാധ	-6697
▁എഴുത	-6698
▁കോഴ്	-6699
▁ജനവി	-6700
▁പാലം	-6701
▁റ്റ്	-6702
▁വിഷമ	-6703
▁ശുക്ര	-6704
▁വൈകാതെ	-6705
ിക്കാനാവ	-6706
ാമെന്നാണ്	-6707
▁പറയാനുള്ള	-6708
▁ദില്ലിയിലെ	-6709
ലൈൻ	-6710
▁58	-6711
▁ചട	-6712
▁സ്ര	-6713
▁ഡിസ്	-6714
ക്കിയത്	-6715
▁എന്നതും	-6716
▁കീഴില്‍	-6717
▁ഡയറക്ടർ	-6718
▁കരുതുന്നു	-6719
▁വിശദീകരിക്ക	-6720
▁നേതൃത്വത്തിന്	-6721
▁സിപിഎമ്മിന്റെ	-6722
▁ലയ	-6723
റുകൾ	-6724
െയിൻ	-6725
ോധ്യ	-6726
ർമാർ	-6727
▁ഗെല	-6728
▁ഗര്‍	-6729
▁ദ്വീ	-6730
▁മരണമ	-6731
▁സംഭാ	-6732
▁ഓക്സി	-6733
▁ചിങ്ങ	-6734
▁സംഘർഷ	-6735
▁വയ്ക്ക	-6736
▁വീടിന്	-6737
▁വ്യാപന	-6738
▁സുനില്‍	-6739
ല്‍ക്കത്ത	-6740
▁വര്‍ഷമായി	-6741
പ്പെടുത്താൻ	-6742
▁ആരോഗ്യമന്ത്രി	-6743
മാല	-6744
ീത്	-6745
ഹിതം	-6746
▁ഹർജ	-6747
▁അസുഖ	-6748
▁എഎപി	-6749
▁ചെലു	-6750
▁നിയോ	-6751
▁ഇതുവര	-6752
▁ചെലവഴ	-6753
▁പോകാൻ	-6754
▁ബൈക്ക	-6755
▁ആസൂത്ര	-6756
▁വരെയും	-6757
▁കാണിച്ച	-6758
▁പ്രകാശ്	-6759
▁മറികടക്ക	-6760
▁ഉദ്യോഗസ്ഥരെ	-6761
▁മോഹന്‍ലാല്‍	-6762
ഗു	-6763
രുപ	-6764
പിന്ന	-6765
▁അജയ്	-6766
▁വന്ദേ	-6767
ത്തീസ്ഗ	-6768
▁നിമിഷം	-6769
▁ശരിയായ	-6770
ലിസ്റ്റ്	-6771
▁എന്നുള്ള	-6772
▁പേരെയാണ്	-6773
▁പോലീസിനെ	-6774
▁നിലനില്‍ക്ക	-6775
▁പ്രവര്‍ത്തകര	-6776
താം	-6777
ാങ്ക	-6778
▁വേറ	-6779
▁ആണ്‍	-6780
▁സാഹി	-6781
▁അനൂപ്	-6782
▁അയക്ക	-6783
▁ജഡ്ജി	-6784
▁റിലീസ്	-6785
യോടെയാണ്	-6786
ിക്കരുത്	-6787
▁പെരുമ്പ	-6788
▁വരുത്തിയ	-6789
▁വിദ്യാർഥ	-6790
ായിരിക്കണം	-6791
▁പങ്കുവച്ച	-6792
േക്കുമെന്നാണ്	-6793
ഗണന	-6794
കമായ	-6795
▁ഹേമ	-6796
സിനും	-6797
▁പതാക	-6798
▁സച്ച	-6799
▁അടുക്ക	-6800
▁അയോധ്യ	-6801
▁ജോര്‍ജ	-6802
ുന്നതായി	-6803
▁ജ്യോതിഷ	-6804
▁പിന്നില	-6805
▁അഭ്യർത്ഥ	-6806
▁കേരളത്തെ	-6807
▁പ്ലാറ്റ്	-6808
▁രവീന്ദ്ര	-6809
▁രോഗമുക്ത	-6810
ിനുള്ളില്‍	-6811
▁നിര്‍മ്മാണ	-6812
▁സംസാരിച്ചു	-6813
▁പങ്കെടുക്കുന്ന	-6814
േണ	-6815
▁പൗ	-6816
▁സന	-6817
▁ഹൂ	-6818
ക്ഷൻ	-6819
▁ഗംഭ	-6820
▁പക്ഷം	-6821
▁പൊട്ട	-6822
ക്കാരായ	-6823
▁എത്തും	-6824
ുകളുണ്ട്	-6825
▁സന്ദീപ്	-6826
▁പേര്‍ക്ക	-6827
▁ഒക്ടോബര്‍	-6828
▁എന്നിട്ടും	-6829
▁വൈകുന്നേരം	-6830
▁സ്വര്‍ണക്ക	-6831
▁തയ്യാറായില്ല	-6832
മാസ	-6833
▁നിശ	-6834
▁സിസി	-6835
▁സ്ഥിരം	-6836
ക്കടത്ത്	-6837
▁കാട്ടാന	-6838
▁സജീവമായി	-6839
▁ഉയര്‍ന്നു	-6840
▁ജലനിരപ്പ്	-6841
▁ആരെങ്കിലും	-6842
▁മുന്നോടിയായി	-6843
▁മുഖ്യമന്ത്രിയും	-6844
10	-6845
▁അനുപ	-6846
▁ടെലി	-6847
▁സല്‍	-6848
▁മെന്റ	-6849
▁മേധാവ	-6850
▁ശബ്ദം	-6851
▁ഹെലിക	-6852
▁ഗള്‍ഫ്	-6853
▁മടങ്ങി	-6854
▁എടുത്തത്	-6855
▁തട്ടിപ്പ	-6856
▁പട്ടികയിൽ	-6857
▁എല്ലാവർക്കും	-6858
▁കോണ്‍ഗ്രസിലെ	-6859
ുന്നുണ്ടെന്നും	-6860
▁ലഭിച്ചിരുന്നു	-6861
▁മുഖ്യമന്ത്രിയെ	-6862
▁മഹാരാഷ്ട്രയില്‍	-6863
പേ	-6864
പാല	-6865
▁ആഴ	-6866
മറിയ	-6867
▁ഓടി	-6868
ന്നൂർ	-6869
പ്പാറ	-6870
ക്കാരി	-6871
▁ഉപമുഖ	-6872
▁മകള്‍	-6873
▁അടുപ്പ	-6874
▁എൽഡിഎഫ	-6875
▁തലശേരി	-6876
▁ബിരുദം	-6877
▁മൂല്യം	-6878
▁സൗത്ത്	-6879
▁ലിമിറ്റ	-6880
▁വാഗ്ദാന	-6881
▁കുഞ്ഞിനെ	-6882
▁മഴയ്ക്ക്	-6883
▁ശക്തമാണ്	-6884
▁അത്തരമൊരു	-6885
▁ചിത്രങ്ങൾ	-6886
▁പ്രത്യക്ഷ	-6887
▁വേണ്ടിയുള്ള	-6888
▁കണക്കിലെടുത്ത്	-6889
▁മത്സരിക്കുന്നത്	-6890
99	-6891
യുട	-6892
ൻഷൻ	-6893
▁72	-6894
▁പാള	-6895
▁വംശ	-6896
ട്ടിക	-6897
▁അതില	-6898
▁ഉപയോ	-6899
▁മുൻക	-6900
ടത്തും	-6901
▁നിയമന	-6902
▁സംഗീത	-6903
യെല്ലാം	-6904
▁നാഷണല്‍	-6905
▁പ്ലാന്‍	-6906
▁മറ്റൊരാ	-6907
▁ലഭ്യമാക്ക	-6908
ാമായിരുന്നു	-6909
▁പ്രാധാന്യം	-6910
▁മാറ്റങ്ങള്‍	-6911
▁സ്ഥിരീകരിക്ക	-6912
▁രേഖപ്പെടുത്തി	-6913
കാ	-6914
ുവാ	-6915
▁വശ	-6916
ജാതി	-6917
സിപി	-6918
▁ബിഷ	-6919
ഖണ്ഡ്	-6920
▁മനോഹ	-6921
▁ആപ്പ്	-6922
മുണ്ടാക	-6923
▁എതിരാള	-6924
▁ഡിസംബർ	-6925
▁പിരിച്ച	-6926
▁വേണ്ടിയ	-6927
▁ചുമത്തിയ	-6928
▁നേതാവിനെ	-6929
▁ഇതിനെതിരെ	-6930
▁ഉയര്‍ത്തി	-6931
▁ബംഗാളില്‍	-6932
ുകയായിരുന്ന	-6933
▁അപ്രതീക്ഷി	-6934
57	-6935
ഖണ്ഡ	-6936
▁ട്ട	-6937
▁സ്ഫ	-6938
ച്ചില	-6939
പ്പോയ	-6940
ലക്ഷണ	-6941
▁പറമ്പ	-6942
▁പാണ്ഡ	-6943
▁സമാജ്	-6944
▁നായര്‍	-6945
▁അതൃപ്തി	-6946
▁പ്രദേശ്	-6947
▁വിശദമായി	-6948
▁ശശീന്ദ്ര	-6949
▁യുവതിയുടെ	-6950
▁കഴിഞ്ഞാല്‍	-6951
▁തെളിവുകള്‍	-6952
▁നേതൃത്വത്തിന്റെ	-6953
▁ആഡ	-6954
ക്കൽ	-6955
▁അന്യ	-6956
▁ജന്മ	-6957
▁ഒത്തു	-6958
▁കാർഡ്	-6959
▁പോള്‍	-6960
കാലത്ത്	-6961
▁നിശ്ചിത	-6962
▁വയസുള്ള	-6963
▁വായിക്കാം	-6964
▁മണിക്കൂര്‍	-6965
▁വാക്കുകള്‍	-6966
▁സർക്കാരിനെ	-6967
▁നരേന്ദ്രമോദ	-6968
▁പരിശോധിച്ച്	-6969
▁താല്‍ക്കാലിക	-6970
▁അധികാരത്തില്‍	-6971
8)	-6972
ബൂ	-6973
മോഹ	-6974
വരിൽ	-6975
െല്ല	-6976
▁ലുല	-6977
കക്ഷി	-6978
ാക്ക്	-6979
ർന്നു	-6980
▁തുടർ	-6981
▁ഫിറോ	-6982
ത്തിരി	-6983
▁കത്തയ	-6984
▁നഷ്ടം	-6985
▁പ്രയോഗ	-6986
▁നല്‍കണം	-6987
▁കേള്‍ക്ക	-6988
▁മേഖലകളില്‍	-6989
▁കൊല്‍ക്കത്ത	-6990
▁പ്രവര്‍ത്തിച്ച	-6991
കാലം	-6992
▁ഉയർ	-6993
▁കൃഷ	-6994
▁കോഴ	-6995
▁നിത	-6996
▁ഉദാഹ	-6997
▁കലാക	-6998
▁ചുഴല	-6999
▁സൈബർ	-7000
ിട്ടത്	-7001
േണ്ടിവ	-7002
▁അമ്പല	-7003
▁കാർഷിക	-7004
▁പുസ്തക	-7005
▁ഇടപെട്ട	-7006
ിട്ടുണ്ടോ	-7007
െന്നുമാണ്	-7008
മുണ്ടെന്ന്	-7009
▁സംഭവിച്ചത്	-7010
▁സ്പീക്കര്‍	-7011
▁സമ്മേളനത്തില്‍	-7012
5)	-7013
ളായ	-7014
▁നിക	-7015
▁സരി	-7016
▁ഫെഡറ	-7017
പരിശോധ	-7018
▁കിടില	-7019
▁പോരാട	-7020
കളുമായി	-7021
▁എതിര്‍	-7022
▁വോട്ടു	-7023
മാക്കിയത്	-7024
▁അന്തരീക്ഷ	-7025
▁പെൺകുട്ടി	-7026
▁നടത്തുന്നു	-7027
▁സാധിച്ചില്ല	-7028
67	-7029
▁വു	-7030
▁സദ	-7031
▁താപ	-7032
▁ബോള	-7033
▁സെറ	-7034
ത്തുറ	-7035
പ്പിട	-7036
ാന്തി	-7037
മാധ്യമ	-7038
ിനേയും	-7039
▁ഞാനും	-7040
▁പൊലീസ	-7041
▁പ്രയോ	-7042
▁സുന്ദ	-7043
▁ആരെയും	-7044
▁ഏതാനും	-7045
▁തെറ്റ്	-7046
▁മാർക്ക	-7047
രുമെന്നും	-7048
▁കുട്ടികൾ	-7049
▁മീറ്റര്‍	-7050
▁മത്സരിക്കുന്ന	-7051
▁തെരഞ്ഞെടുപ്പിൽ	-7052
▁മാത്രമായിരുന്നു	-7053
ല്	-7054
ഷറ	-7055
ൊല	-7056
വായ	-7057
ാഗ്	-7058
▁ചൗധ	-7059
▁ള്‍	-7060
▁വാല	-7061
നോട്ട	-7062
ളില്‍	-7063
▁ചിഹ്	-7064
▁പണിയ	-7065
▁വീണാ	-7066
ത്തിലേ	-7067
ുവാന്‍	-7068
േഷന്റെ	-7069
▁പലതും	-7070
▁മൊബൈൽ	-7071
ര്‍ന്നു	-7072
▁വെറുതെ	-7073
ാവുന്നത്	-7074
▁പ്രവചനം	-7075
▁സ്ത്രീയ	-7076
▁കിടക്കുന്ന	-7077
▁വിപണിയില്‍	-7078
▁പാര്‍ലമെന്റ്	-7079
▁സമര്‍പ്പിച്ച	-7080
▁ഫീ	-7081
കളായ	-7082
പരിച	-7083
സ്വി	-7084
്പ്പ	-7085
▁ഹാള	-7086
കാലിക	-7087
ടനീളം	-7088
വാന്‍	-7089
▁എംവി	-7090
▁ഏരിയ	-7091
▁വാഷി	-7092
▁ഐശ്വര	-7093
▁നീങ്ങ	-7094
▁പോകും	-7095
സിലേക്ക്	-7096
▁കുറഞ്ഞു	-7097
കളിലേക്ക്	-7098
യാണെന്നും	-7099
▁നിലനിര്‍ത്ത	-7100
പന	-7101
ീണ	-7102
വാക്	-7103
▁തങ്ങൾ	-7104
▁മേയര്‍	-7105
▁വയസ്സ്	-7106
മില്ലാതെ	-7107
▁ഐപിഎല്ല	-7108
▁കാഞ്ഞിര	-7109
▁നിര്‍വഹ	-7110
ിപ്പിച്ച്	-7111
▁കലക്ടര്‍	-7112
▁ക്ഷണിച്ചു	-7113
▁വന്നപ്പോള്‍	-7114
▁സംസ്ഥാനങ്ങളിൽ	-7115
ാലെ	-7116
▁ള്ള	-7117
ഞ്ഞത്	-7118
ിക്കോ	-7119
▁പിജെ	-7120
▁ഓട്ടോ	-7121
▁ദുരിത	-7122
ക്രോണ്‍	-7123
▁മാത്യു	-7124
തിനെതിരെ	-7125
ിച്ചതായി	-7126
▁പ്രവേശന	-7127
▁ഭാഗമാണ്	-7128
▁ഇടപെടല്‍	-7129
▁നെഗറ്റീവ	-7130
▁മാനേജര്‍	-7131
▁മുമ്പാണ്	-7132
▁രോഗലക്ഷണ	-7133
▁ചുഴലിക്കാ	-7134
▁നൽകുന്നത്	-7135
▁ചെയ്യാനുള്ള	-7136
▁പിടികൂടിയത്	-7137
▁ആരോപിക്കുന്നത്	-7138
സുല	-7139
▁വരവ്	-7140
ടുത്തു	-7141
യുമാണ്	-7142
ുമാര്‍	-7143
▁ഗ്രാം	-7144
▁കൂട്ടി	-7145
▁ഭീഷണിയ	-7146
▁സോണിയാ	-7147
▁പ്രസംഗം	-7148
ിക്കേണ്ടി	-7149
ത്തിനൊപ്പം	-7150
▁തമിഴ്നാട്ട	-7151
▁സ്വന്തമായി	-7152
▁സ്ഥാപനങ്ങള്‍	-7153
▁ഇക്കാര്യത്തിൽ	-7154
ുമെന്നായിരുന്നു	-7155
am	-7156
or	-7157
ടകം	-7158
ോയി	-7159
▁ഗൃഹ	-7160
▁മംഗ	-7161
▁ഹമാ	-7162
ഡിപിഐ	-7163
ാക്യം	-7164
▁ഇന്ദ	-7165
▁ഉടനെ	-7166
▁ജീവൻ	-7167
▁പ്ലാ	-7168
▁മല്ല	-7169
▁ഇതിനു	-7170
▁തോട്ട	-7171
▁ബില്‍	-7172
▁ഇതിനിട	-7173
▁കമന്റ്	-7174
▁നറുക്ക	-7175
▁ശരാശരി	-7176
▁റെയിൽവേ	-7177
▁സ്വദേശിന	-7178
▁എന്നൊക്കെ	-7179
▁സാന്നിധ്യം	-7180
▁ആരോപണങ്ങള്‍	-7181
▁നടപ്പിലാക്ക	-7182
▁മധ്യപ്രദേശ്	-7183
▁എന്നിവിടങ്ങളിൽ	-7184
▁നടക്കുന്നുണ്ട്	-7185
▁9,	-7186
▁ഏറ	-7187
ർമാൻ	-7188
▁നീള	-7189
▁മകൻ	-7190
▁സുവ	-7191
▁കിഫ്	-7192
▁പൊളി	-7193
▁ഒഴിവ്	-7194
▁മുപ്പ	-7195
▁മൂല്യ	-7196
▁സെല്‍	-7197
▁അഭ്യൂഹ	-7198
▁വസ്തുത	-7199
▁വഴിയാണ്	-7200
▁ഛത്തീസ്ഗ	-7201
▁ദൃശ്യങ്ങൾ	-7202
ുകയാണെങ്കില്‍	-7203
▁നടപടിയെടുക്ക	-7204
ഡെ	-7205
ീരി	-7206
ോളജ	-7207
▁ഉമ	-7208
▁ജുന	-7209
▁മുള	-7210
ല്ലൂർ	-7211
ിക്കട	-7212
ിയന്‍	-7213
▁മേയ്	-7214
▁ഹർജി	-7215
സിച്ച്	-7216
ിയെയും	-7217
▁പറയാം	-7218
▁ഓറഞ്ച്	-7219
▁പ്രേരി	-7220
▁സിന്റെ	-7221
▁തിയേറ്റ	-7222
▁ഫ്രണ്ട്	-7223
▁ആണെന്നും	-7224
▁കേസിന്റെ	-7225
▁തള്ളിക്ക	-7226
▁ശ്രീലങ്ക	-7227
▁പ്രാധാന്യ	-7228
ത്തിനുള്ളിൽ	-7229
▁കുമാറിന്റെ	-7230
▁പ്രതികരിച്ച്	-7231
▁രാശിക്കാർക്ക്	-7232
യേ	-7233
▁തറ	-7234
സ്തവ	-7235
▁ആരി	-7236
ുകൂടി	-7237
▁പിതാ	-7238
▁ബോംബ	-7239
▁വാണി	-7240
▁ഗവർണർ	-7241
▁നോമിന	-7242
▁നൽകും	-7243
▁ബിഹാറ	-7244
▁ബൂത്ത	-7245
▁വര്‍ഗ	-7246
▁വീണ്ട	-7247
ാലിന്റെ	-7248
▁ഫലപ്രദ	-7249
▁ബൈഡന്‍	-7250
▁സീസണ്‍	-7251
▁യുവതിയെ	-7252
▁അവര്‍ക്ക	-7253
▁പേർക്കും	-7254
▁ആരോപിച്ച്	-7255
▁ട്രാന്‍സ്	-7256
▁വില്‍പ്പന	-7257
▁സംഘടനയുടെ	-7258
▁സംവിധായകന്‍	-7259
▁സര്‍വകലാശാല	-7260
▁കാര്യത്തിലും	-7261
▁സംഘടിപ്പിച്ച	-7262
ഗ്രി	-7263
വ്വം	-7264
▁ഗാസ	-7265
▁ബയോ	-7266
▁നൂറ്	-7267
▁മന്‍	-7268
▁സായി	-7269
▁നമ്പർ	-7270
ൾപ്പെടെ	-7271
▁കാര്‍ഡ്	-7272
▁പുരോഗതി	-7273
▁ആരാധകര്‍	-7274
▁ഗാന്ധിയെ	-7275
▁വാക്കുകൾ	-7276
17	-7277
ോഷം	-7278
ഡര്‍	-7279
▁ചാർ	-7280
▁ജുഡ	-7281
▁സ്മ	-7282
പ്പുല	-7283
രുവായ	-7284
▁എസ്പ	-7285
▁നാദി	-7286
▁മോഹൻല	-7287
▁സൂപ്ര	-7288
▁സ്കൂൾ	-7289
ിക്കായി	-7290
▁സഞ്ജയ്	-7291
▁ഒരാളുടെ	-7292
▁എസ്ഡിപിഐ	-7293
▁സ്വയംഭരണ	-7294
▁അടിയന്തിര	-7295
▁അനുകൂലമായ	-7296
▁എതിര്‍പ്പ	-7297
▁രാജിവെച്ച	-7298
▁ശ്രമിച്ചത്	-7299
▁ആവശ്യപ്പെട്ടി	-7300
▁തിരിച്ചെത്തിയ	-7301
ിക്കുന്നതെന്നും	-7302
വഴ	-7303
.20	-7304
▁400	-7305
▁തുര	-7306
തന്നെ	-7307
ദാര്‍	-7308
▁പൗരന്	-7309
▁ബോർഡ്	-7310
▁മനോജ്	-7311
▁ശ്രീധ	-7312
▁സെന്‍	-7313
▁മീറ്റർ	-7314
▁റദ്ദാക്ക	-7315
▁സ്ഥാനാർഥ	-7316
ിപ്പിച്ചത്	-7317
ൊന്നുമില്ല	-7318
▁കീഴിലുള്ള	-7319
▁മാറ്റിയത്	-7320
▁കുറ്റകൃത്യ	-7321
▁പുറത്താക്ക	-7322
▁വെളിപ്പെടുത്തി	-7323
ധന	-7324
േം	-7325
രാഘ	-7326
▁..	-7327
▁ഭഗ	-7328
ങ്ങര	-7329
പിസി	-7330
മിക്	-7331
ലിലെ	-7332
▁150	-7333
▁ദൂര	-7334
▁അവലോക	-7335
▁ബംഗാൾ	-7336
▁മുത്ത	-7337
▁സന്നി	-7338
▁കൈമാറി	-7339
▁ചിന്തി	-7340
▁മോട്ടോ	-7341
▁യുക്രൈന	-7342
▁റഷ്യന്‍	-7343
▁സംഘമാണ്	-7344
മുണ്ടായത്	-7345
▁തൊഴിലാളി	-7346
▁നിലയിലാണ്	-7347
▁ഉയര്‍ത്തിയ	-7348
▁പങ്കാളിത്ത	-7349
▁മത്സരത്തില്‍	-7350
▁മുദ്രാവാക്യം	-7351
▁നടത്തുന്നുണ്ട്	-7352
വിദ	-7353
ാഹി	-7354
ർജി	-7355
▁തടസ	-7356
▁ഹരീ	-7357
ാട്ട്	-7358
െയായി	-7359
▁സുനി	-7360
▁അവശ്യ	-7361
▁ജൂനിയ	-7362
▁നവംബർ	-7363
▁ബെഞ്ച	-7364
▁മലയോര	-7365
ത്തിച്ച	-7366
▁കെയര്‍	-7367
▁ന്യൂഡൽ	-7368
തിനാലാണ്	-7369
തുകൊണ്ട്	-7370
ുകളിലായി	-7371
▁നേടാന്‍	-7372
▁അതിനുള്ള	-7373
▁തയ്യാറാവ	-7374
▁ആരംഭിക്കും	-7375
▁തൊഴിലാളികള്‍	-7376
സിഡ	-7377
▁ഇവര	-7378
▁ക്വ	-7379
▁ഗ്യ	-7380
▁സിം	-7381
കുന്ന	-7382
ദിവസം	-7383
വെച്ച	-7384
▁ഇതൊരു	-7385
▁ഗവേഷണ	-7386
▁ജാമ്യ	-7387
▁പതിവ്	-7388
▁പൊതുവ	-7389
▁സിക്യ	-7390
▁തുറമുഖ	-7391
▁ബലാത്സ	-7392
▁മഹാമാര	-7393
▁മുകളിൽ	-7394
▁ഓണ്‍ലൈന	-7395
▁സംഘത്തെ	-7396
ിക്കേണ്ടത	-7397
▁ചര്‍ച്ചയ	-7398
▁മുരളീധരൻ	-7399
▁രോഗവ്യാപ	-7400
▁ശേഷമുള്ള	-7401
▁സുഹൃത്ത്	-7402
▁കുറിച്ചത്	-7403
▁മന്ത്രിസ്ഥാന	-7404
ജെപി	-7405
ബോധന	-7406
▁അസാധ	-7407
▁കിഷോ	-7408
▁കൊടു	-7409
▁തുകയ	-7410
ാണല്ലോ	-7411
▁വർക്ക	-7412
▁പ്രകാശ	-7413
ാതിരുന്ന	-7414
▁പച്ചക്ക	-7415
▁എങ്കില്‍	-7416
▁ഇടതുപക്ഷം	-7417
▁നേതാവുമായ	-7418
▁കമ്പനിയുടെ	-7419
▁നേതൃത്വത്തെ	-7420
▁സ്ഥാനാര്‍ഥി	-7421
▁കാര്യങ്ങളാണ്	-7422
▁മണിക്കൂറില്‍	-7423
▁വിദ്യാഭ്യാസം	-7424
▁സംസ്ഥാനത്തിന്	-7425
▁വെളിപ്പെടുത്തിയ	-7426
25	-7427
▁ആയു	-7428
▁കളി	-7429
▁ഫില	-7430
▁സെൻ	-7431
സ്ഥിര	-7432
▁അനിൽ	-7433
▁ഉത്ര	-7434
▁ജുഡീ	-7435
ഇന്ത്യ	-7436
▁കക്ഷി	-7437
▁സതീശൻ	-7438
▁സെപ്ത	-7439
രുത്തിയ	-7440
ാകുന്നു	-7441
▁ഡോക്ടറ	-7442
▁തെളിവ്	-7443
▁മാനേജ്	-7444
▁മുടക്ക	-7445
▁തിരുത്ത	-7446
▁കാര്യവും	-7447
▁നിര്‍ത്തിയ	-7448
▁വേണുഗോപാല്‍	-7449
▁സംസ്ഥാനത്തിന്റെ	-7450
0)	-7451
തയെ	-7452
▁ഫൈ	-7453
▁12,	-7454
▁ആസ്	-7455
▁ഡാമ	-7456
▁നുണ	-7457
കമായി	-7458
▁അയാൾ	-7459
▁ഭരണഘ	-7460
▁വണ്‍	-7461
▁വായി	-7462
ുകളായി	-7463
▁പലസ്ത	-7464
▁മതേതര	-7465
▁മദ്യം	-7466
▁അഞ്ചാം	-7467
▁ജയിച്ച	-7468
▁ഹോസ്പി	-7469
▁എന്നോട്	-7470
▁ഉദ്ധരിച്ച്	-7471
▁ജില്ലയിലും	-7472
▁പുലര്‍ച്ചെ	-7473
▁അപേക്ഷിച്ച്	-7474
▁ഉപഭോക്താക്ക	-7475
▁പുറത്തിറങ്ങ	-7476
▁മത്സരിക്കാന്‍	-7477
▁കൊല്ലപ്പെട്ടത്	-7478
▁ലഭിച്ചിട്ടുണ്ട്	-7479
ാച	-7480
ബിന	-7481
ിനിര	-7482
▁അപല	-7483
▁കോർ	-7484
▁ജ്വ	-7485
▁ത്യ	-7486
തുമായ	-7487
പേക്ഷ	-7488
▁കെടി	-7489
▁പവന്	-7490
മാറ്റം	-7491
▁പള്ളി	-7492
▁ആധുനിക	-7493
▁സഹോദരി	-7494
േരിയില്‍	-7495
▁ചെറുപ്പ	-7496
▁നല്‍കുക	-7497
രുന്നില്ല	-7498
▁എന്‍സിപി	-7499
▁കാണിച്ച്	-7500
▁സ്ത്രീകൾ	-7501
▁ഒഴിവാക്കി	-7502
▁കണക്കാക്ക	-7503
▁ലോകത്തിലെ	-7504
▁പ്രസിഡണ്ട്	-7505
ിട്ടില്ലെന്ന്	-7506
ജനം	-7507
നേത	-7508
ാതം	-7509
ായു	-7510
▁ആൾ	-7511
ഡ്യൂ	-7512
യറ്റ	-7513
▁ഒടി	-7514
▁ശരി	-7515
▁കുംഭ	-7516
▁ക്ഷമ	-7517
▁ബൈജു	-7518
▁മുകള	-7519
▁റിസോ	-7520
നുമായി	-7521
▁അജണ്ട	-7522
▁താമസം	-7523
▁പരിസര	-7524
▁പൊന്ന	-7525
▁ലോക്ഡ	-7526
▁സ്ഫോട	-7527
ിക്കുമോ	-7528
▁കശ്മീര	-7529
▁നിക്ഷേപം	-7530
▁മീഡിയയിൽ	-7531
▁ഇതോടൊപ്പം	-7532
▁ഒരിക്കല്‍	-7533
▁പുതിയതായി	-7534
▁പൊട്ടിത്തെ	-7535
▁ബ്രിട്ടീഷ്	-7536
▁തങ്ങള്‍ക്ക്	-7537
▁ബാക്കിയുള്ള	-7538
▁ശ്രദ്ധയില്‍	-7539
49	-7540
▁ഡേ	-7541
▁ദൈവ	-7542
വാറ്റ	-7543
▁ഇബ്ര	-7544
▁ഫീസ്	-7545
▁രാജു	-7546
▁വിരാ	-7547
റിഞ്ഞു	-7548
▁ഉപദേശ	-7549
▁ഓർമ്മ	-7550
▁പറ്റി	-7551
▁പിന്മാ	-7552
▁സെന്റ്	-7553
യ്ക്കല്‍	-7554
▁ചെയർമാൻ	-7555
▁ട്രേലിയ	-7556
▁നാട്ടിൽ	-7557
▁പോലീസും	-7558
▁പ്രതികൾ	-7559
▁വിശദാംശ	-7560
▁ഓരോരുത്ത	-7561
▁ചേര്‍ത്ത	-7562
▁സര്‍വ്വേ	-7563
ുണ്ടെന്നാണ്	-7564
▁മാധ്യമങ്ങൾ	-7565
▁വിജിലന്‍സ്	-7566
▁കൊട്ടാരക്കര	-7567
▁ഔദ്യോഗികമായി	-7568
▁സംസ്ഥാനങ്ങളിലെ	-7569
▁പൃ	-7570
▁ഒളി	-7571
ബിള്‍	-7572
ാനിലെ	-7573
▁ഭാവി	-7574
▁മാർഗ	-7575
▁മേടം	-7576
▁സർവ്	-7577
ഡിയുടെ	-7578
രാമയ്യ	-7579
▁മില്ല	-7580
▁മോഷണം	-7581
ക്കാരും	-7582
തിനുള്ള	-7583
രികയാണ്	-7584
ാസമ്മേള	-7585
▁തകർക്ക	-7586
▁വെട്ടി	-7587
▁സമ്പാദ	-7588
▁ആശ്വാസം	-7589
▁സമ്പന്ന	-7590
▁കിലോമീറ്റർ	-7591
▁വ്യക്തമാണ്	-7592
▁ഏഷ്യാനെറ്റ്	-7593
▁കൊച്ചിയില്‍	-7594
▁ജീവനക്കാരുടെ	-7595
▁വരാനിരിക്കുന്ന	-7596
ാളും	-7597
▁അരി	-7598
▁കടല	-7599
▁പവാ	-7600
ര്‍ഷം	-7601
▁ധനസഹ	-7602
ക്രമണം	-7603
▁പറയും	-7604
▁വിപണി	-7605
▁ആന്ധ്ര	-7606
▁മരിക്ക	-7607
ന്‍സിപ്പ	-7608
▁ഉയർത്തി	-7609
▁പ്രകൃതി	-7610
▁തിരുവല്ല	-7611
▁വ്യക്തിയ	-7612
പ്പിക്കുന്ന	-7613
▁പട്ടികജാതി	-7614
▁ഒറ്റക്കെട്ട	-7615
▁ഹൈക്കോടതിയെ	-7616
▁പരിശോധനയില്‍	-7617
▁രാശിക്കാരുടെ	-7618
▁സെപ്റ്റംബര്‍	-7619
▁ഉത്തരവാദിത്തം	-7620
▁59	-7621
▁ബൗ	-7622
പരിധി	-7623
▁ഇടതു	-7624
▁വേണമ	-7625
▁ഷെയ്	-7626
▁ആഡംബര	-7627
▁ചെങ്ക	-7628
▁ബോട്ട	-7629
▁തൊട്ടു	-7630
▁ഗുരുവായ	-7631
▁നടക്കുക	-7632
▁രണ്ടുപേ	-7633
▁സാധിച്ച	-7634
▁കൗണ്‍സില്‍	-7635
▁തുടർന്നാണ്	-7636
▁വരുമ്പോള്‍	-7637
▁പാർട്ടിക്ക്	-7638
▁രാജ്യങ്ങളും	-7639
▁പ്രവേശിപ്പിച്ചു	-7640
മിന്	-7641
മേഖല	-7642
സമാധ	-7643
മേറ്റ	-7644
▁ട്ടി	-7645
ക്കാരന	-7646
സംബോധന	-7647
ാവിന്റെ	-7648
▁പിണറായ	-7649
▁പ്രകോപ	-7650
▁ഒന്നിന്	-7651
▁ടെസ്റ്റ	-7652
▁ഭരണഘടനാ	-7653
▁കൊടുത്തി	-7654
▁ഉത്തരവാദി	-7655
▁യുപിയില്‍	-7656
▁ഏറ്റെടുത്ത	-7657
▁സ്ഥലങ്ങളില്‍	-7658
▁പൂര്‍ത്തിയാക്കി	-7659
ണൽ	-7660
ാംപ	-7661
ജ്ജ്	-7662
ഫിക്	-7663
ുവാൻ	-7664
ോണ്‍	-7665
▁ഡൊണ	-7666
▁1000	-7667
▁അഡ്മ	-7668
▁നിർമ	-7669
▁ആവിഷ്	-7670
▁കൊന്ന	-7671
▁ഘട്ടം	-7672
▁ഡിപ്ല	-7673
▁തരൂര്‍	-7674
▁ശേഷവും	-7675
ിനുള്ളിൽ	-7676
▁ഉയർന്നു	-7677
▁ഒക്ടോബർ	-7678
▁നേതാവായ	-7679
▁മാസത്തെ	-7680
▁വിട്ടത്	-7681
▁കേരളത്തില	-7682
▁സീറ്റിലും	-7683
▁സഹായത്തോടെ	-7684
▁ഭാഗങ്ങളില്‍	-7685
▁പ്രിന്‍സിപ്പ	-7686
▁പ്രതികരണവുമായി	-7687
www	-7688
ല്യ	-7689
▁റൈ	-7690
ുളളത്	-7691
▁ഇട്ട	-7692
തിനായി	-7693
▁കോളജ്	-7694
▁നിയോജ	-7695
▁മർദ്ദ	-7696
▁വളരെയ	-7697
ാനിയുടെ	-7698
▁ഒട്ടും	-7699
▁കലാകാര	-7700
▁മതിയായ	-7701
▁അയച്ചത്	-7702
▁എന്നറിയ	-7703
▁പോപ്പുല	-7704
▁മോശമായി	-7705
▁കഥാപാത്ര	-7706
▁യുവാവിനെ	-7707
▁സെന്റര്‍	-7708
റ്റ്യൂട്ട്	-7709
▁പേർക്കാണ്	-7710
▁വാഹനങ്ങള്‍	-7711
▁ഡോക്ടര്‍മാര്‍	-7712
▁നിയന്ത്രണങ്ങൾ	-7713
▁കേരളത്തിലേക്ക്	-7714
▁ശക്തിപ്പെടുത്ത	-7715
9)	-7716
േഷന്	-7717
ക്കേട	-7718
ിക്കി	-7719
▁ഓപ്പ	-7720
▁ഭീഷണ	-7721
▁യുടെ	-7722
▁വണ്ട	-7723
▁മഞ്ജു	-7724
▁പരിചയം	-7725
▁വിഹിതം	-7726
▁ഫസ്റ്റ്	-7727
▁സീറ്റും	-7728
ത്തൊഴിലാള	-7729
▁അഭിസംബോധന	-7730
▁കോർപ്പറേഷൻ	-7731
▁കാത്തിരിക്ക	-7732
ിക്കുന്നതിനും	-7733
▁ചെയ്തിട്ടില്ല	-7734
▁ആരോപിച്ചിരുന്നു	-7735
▁ഉള്‍പ്പെടുത്തിയ	-7736
▁I	-7737
▁മദ	-7738
ങ്കര	-7739
ങ്കി	-7740
ല്ല്	-7741
ാപ്പ	-7742
▁ലാബ	-7743
ച്ചിൽ	-7744
▁ടാക്	-7745
▁ബിജു	-7746
▁ബേബി	-7747
▁റിലയ	-7748
്ലാദേശ	-7749
▁ഗവണ്‍	-7750
▁പരിമി	-7751
▁സെക്യ	-7752
ാധികാരി	-7753
▁കളക്ടറ	-7754
▁റണ്‍സ്	-7755
ുകൊടുക്ക	-7756
▁അടയ്ക്ക	-7757
▁കോളേജിൽ	-7758
▁പുലർച്ച	-7759
▁റോബിന്‍	-7760
▁ആളുകളുടെ	-7761
▁നിരീക്ഷണം	-7762
▁ബംഗ്ലാദേശ	-7763
ിക്കുകയാണെന്നും	-7764
▁ഇത്തരത്തിലുള്ള	-7765
on	-7766
വു	-7767
ജയം	-7768
▁ജഗ	-7769
വാടി	-7770
ാദ്യ	-7771
രുമ്പ	-7772
▁ജാസ്	-7773
ികളിലും	-7774
▁നിയോജക	-7775
▁നിർമാണ	-7776
▁പുരുഷൻ	-7777
▁വിന്യസ	-7778
▁ഷൂട്ടി	-7779
▁തളിപ്പറ	-7780
ാക്കാനാണ്	-7781
▁ഇല്ലെന്ന്	-7782
▁സ്ഥാപിച്ച	-7783
▁രാജ്യങ്ങളിൽ	-7784
▁ലോക്ക്ഡൗണ്‍	-7785
▁സീറ്റുകളാണ്	-7786
ാവശ്യപ്പെട്ട്	-7787
ിക്കപ്പെടുന്ന	-7788
▁ആത്മവിശ്വാസം	-7789
▁ചിത്രത്തില്‍	-7790
▁ഉത്തര്‍പ്രദേശ	-7791
-3	-7792
▁85	-7793
വരണം	-7794
▁പനി	-7795
▁ഫൈസ	-7796
ത്തായ	-7797
ത്തോട	-7798
വാഹിത	-7799
▁ബസ്സ	-7800
▁ബ്രി	-7801
റ്റിലെ	-7802
▁എൻഡിഎ	-7803
▁ഒന്‍പ	-7804
▁ഓൺലൈൻ	-7805
▁കരുതി	-7806
▁ദുരൂഹ	-7807
▁മുറിയ	-7808
ടുത്തത്	-7809
▁ആഗ്രഹം	-7810
▁ചാനല്‍	-7811
▁സമ്മതി	-7812
▁പെരുമാറ	-7813
▁ന്യൂഡൽഹി	-7814
▁രംഗത്തിറ	-7815
▁വീടിന്റെ	-7816
▁കേസെടുക്ക	-7817
▁ജനങ്ങൾക്ക്	-7818
▁പ്രകാരമാണ്	-7819
▁പ്രദേശത്തെ	-7820
▁കേന്ദ്രീകരിച്ച്	-7821
ഡു	-7822
ഡീഷ	-7823
മൂല	-7824
ിലാ	-7825
▁68	-7826
ന്തം	-7827
ഫര്‍	-7828
▁ജയം	-7829
▁മുകു	-7830
ഷിപ്പ്	-7831
▁ഗെഹ്ല	-7832
▁ചങ്ങനാ	-7833
െടുക്കും	-7834
▁ആർക്കും	-7835
▁ഒന്നാണ്	-7836
▁രോഗികള്‍	-7837
▁താരങ്ങള്‍	-7838
▁പെരുമാറ്റ	-7839
ക്കുന്നതിന്	-7840
▁നയിക്കുന്ന	-7841
▁പാവപ്പെട്ട	-7842
▁രീതിയിലുള്ള	-7843
▁സിദ്ധരാമയ്യ	-7844
▁ചെയ്യുമ്പോള്‍	-7845
▁പാര്‍ട്ടികള്‍	-7846
ലു	-7847
ംബ്	-7848
▁62	-7849
ാമത്	-7850
▁കറു	-7851
▁നേമ	-7852
▁ല്ല	-7853
▁സോള	-7854
സിംഗ്	-7855
▁ഹരിത	-7856
പ്പാടി	-7857
▁കവര്‍	-7858
▁ക്രൈം	-7859
▁തരംഗം	-7860
▁കരുത്ത	-7861
▁സിജന്‍	-7862
▁കാണാതായ	-7863
▁നടത്തുക	-7864
▁വാർത്താ	-7865
▁ചികിത്സാ	-7866
▁ബാനര്‍ജി	-7867
▁തുടരുന്നു	-7868
▁ചുമതലയുള്ള	-7869
▁ജീവനക്കാരെ	-7870
▁തിരിച്ചുവര	-7871
▁നേട്ടമുണ്ട	-7872
▁തുടങ്ങിയവര്‍	-7873
▁പ്രവർത്തിച്ച	-7874
▁സാമ്പത്തികമായി	-7875
▁ഉപതിരഞ്ഞെടുപ്പ്	-7876
1)	-7877
ദാസ	-7878
ദ്മ	-7879
വിന	-7880
▁77	-7881
▁ലു	-7882
ണ്ണ്	-7883
ബല്‍	-7884
മാസം	-7885
പൊട്ട	-7886
▁ഡികെ	-7887
▁സീസൺ	-7888
കാരന്‍	-7889
ക്കുടി	-7890
പ്രകാര	-7891
ാധികാര	-7892
▁കുമ്മ	-7893
▁മൊത്ത	-7894
▁വാര്യ	-7895
▁സെല്ല	-7896
▁വളർച്ച	-7897
▁സമ്പദ്	-7898
ാഫ്രിക്ക	-7899
▁കോര്‍പറ	-7900
▁തൃശ്ശൂർ	-7901
വെങ്കിലും	-7902
▁കൂടുതലായി	-7903
▁ഗാന്ധിയും	-7904
▁ചെയ്യേണ്ട	-7905
▁വാങ്ങുന്ന	-7906
▁ശ്രമിച്ചു	-7907
▁പരാതിക്കാര	-7908
ിച്ചുവെന്നും	-7909
▁കെജ്രിവാള്‍	-7910
▁പാര്‍ട്ടിയെ	-7911
▁എന്നിങ്ങനേയാണ്	-7912
68	-7913
െയെ	-7914
▁63	-7915
േലിയ	-7916
▁ചക്ര	-7917
▁വക്ക	-7918
കൂട്ടി	-7919
ങ്ങല്‍	-7920
സാധ്യത	-7921
▁എന്‍ഐഎ	-7922
▁പിറന്ന	-7923
▁മിഷന്‍	-7924
▁വരുത്തി	-7925
▁ആദ്യഘട്ട	-7926
▁എക്സ്പ്ര	-7927
▁ദിവസമായി	-7928
▁ബ്രാഞ്ച്	-7929
▁മമ്മൂട്ടി	-7930
മുണ്ടെന്നും	-7931
▁ഇന്ത്യക്ക്	-7932
▁ഒഴിവാക്കിയ	-7933
▁പാകിസ്താന്‍	-7934
▁സർട്ടിഫിക്കറ്റ	-7935
സിം	-7936
▁64	-7937
ത്തര	-7938
▁അകല	-7939
▁ആറു	-7940
▁ട്വ	-7941
▁പിള	-7942
ജക്ട്	-7943
▁സായ്	-7944
ലിച്ച്	-7945
▁മരണമട	-7946
▁ഹരീഷ്	-7947
▁അക്രമം	-7948
▁ഉറപ്പു	-7949
▁യാത്രാ	-7950
▁തേജസ്വി	-7951
▁സഭയില്‍	-7952
▁വാർത്തകൾ	-7953
▁സഹോദരന്‍	-7954
▁ഇന്‍സ്റ്റ	-7955
▁സർവകലാശാല	-7956
▁രീതിയിലാണ്	-7957
▁മത്സരാര്‍ത്ഥ	-7958
▁ഹൈക്കമാന്‍ഡ്	-7959
▁ഗ്രാമപഞ്ചായത്ത്	-7960
▁അലേ	-7961
▁ഐസി	-7962
▁നിസ	-7963
▁പണ്	-7964
▁പോള	-7965
▁സൈസ്	-7966
▁കാരിക	-7967
▁വിസ്ത	-7968
▁കടുപ്പ	-7969
▁യൂട്യൂ	-7970
ത്തിലേറെ	-7971
▁മാലിന്യ	-7972
▁പേരിലാണ്	-7973
▁പ്രതിഫലം	-7974
▁സഖ്യകക്ഷ	-7975
▁ട്രെയിന്‍	-7976
▁വാങ്ങാന്‍	-7977
▁സംഘത്തിന്	-7978
▁കൊച്ചിയിലെ	-7979
▁പഞ്ചാബില്‍	-7980
▁വിവരങ്ങളും	-7981
▁കുടുംബത്തിന്	-7982
▁അന്വേഷണത്തിന്	-7983
3)	-7984
ar	-7985
ശോ	-7986
നിറ	-7987
ുവഴി	-7988
▁കുറേ	-7989
▁പേരി	-7990
▁ലിംഗ	-7991
▁സ്ഥാ	-7992
റുകളും	-7993
സുമായി	-7994
ാവൂര്‍	-7995
▁കാണാന	-7996
▁ടിക്ക	-7997
▁ട്രംപ	-7998
▁നാവിക	-7999
▁വിജ്ഞ	-8000
▁പത്താം	-8001
▁കാലഘട്ട	-8002
ികളുടെയും	-8003
▁വിമര്‍ശന	-8004
▁നടപടിക്രമ	-8005
▁വിജയിച്ചു	-8006
▁വീടുകളിലും	-8007
▁വ്യക്തമായി	-8008
ുന്നുണ്ടെന്ന്	-8009
▁സ്ഥാനാര്‍ത്ഥിയ	-8010
'-	-8011
▁C	-8012
ോഗം	-8013
മാണോ	-8014
വാസ്	-8015
▁ജിഹ	-8016
▁ഫോർ	-8017
മ്പ്ര	-8018
രെയും	-8019
▁കന്ന	-8020
▁ന്ന്	-8021
ാദിത്യ	-8022
▁അഹമ്മ	-8023
▁ആലോചന	-8024
▁ബുദ്ധ	-8025
▁രണ്ടര	-8026
▁രാവില	-8027
▁ഞങ്ങളെ	-8028
▁തെളിഞ്ഞ	-8029
ുകളുടെയും	-8030
▁ആനുകൂല്യ	-8031
▁സഞ്ചരിച്ച	-8032
▁പദ്ധതിക്ക്	-8033
▁സീറ്റുകളിൽ	-8034
▁സ്വീകരിച്ചു	-8035
▁ആരോഗ്യമന്ത്ര	-8036
▁തിരഞ്ഞെടുത്ത	-8037
▁നടന്നിരുന്നു	-8038
15	-8039
18	-8040
തിരി	-8041
ുമുഖ	-8042
▁ധീര	-8043
▁നിവ	-8044
▁ലേഖ	-8045
▁സുക	-8046
രാകാശ	-8047
▁ചെയർ	-8048
▁ലുലു	-8049
ത്തായി	-8050
ലിക്ക്	-8051
▁എന്തു	-8052
▁ഓര്‍ഡ	-8053
▁കൗണ്ട	-8054
വർക്കും	-8055
▁ചിങ്ങം	-8056
▁പവാര്‍	-8057
▁ആദിവാസി	-8058
▁ആര്‍ക്ക	-8059
▁തടയാന്‍	-8060
▁അമ്മയുടെ	-8061
▁ഘട്ടത്തിൽ	-8062
▁പൂർണമായും	-8063
▁പലയിടത്തും	-8064
▁വരുന്നുണ്ട്	-8065
ായിരിക്കുന്നത്	-8066
▁ആരോഗ്യവകുപ്പ്	-8067
▁കാര്യങ്ങളില്‍	-8068
▁പെണ്‍കുട്ടിയെ	-8069
▁കേന്ദ്രീകരിച്ച	-8070
ോം	-8071
▁ഋ	-8072
ിവെ	-8073
▁പകര	-8074
ഭാഗ്യ	-8075
▁ധോണി	-8076
▁സണ്‍	-8077
▁സർവേ	-8078
ക്കാലം	-8079
ുമാറ്റ	-8080
▁കൊറിയ	-8081
▁മറക്ക	-8082
▁വിസ്മ	-8083
▁സീരിയ	-8084
ാര്‍ട്ട	-8085
ുവരുന്ന	-8086
▁ആനന്ദ്	-8087
▁ജയില്‍	-8088
▁ബിന്ദു	-8089
▁വെബ്സൈ	-8090
▁സംഘവും	-8091
▁ആക്ഷേപം	-8092
▁അബ്ദുള്ള	-8093
▁തിരിച്ചട	-8094
▁ദിലീപിനെ	-8095
▁ചിന്തിക്ക	-8096
▁വിക്കറ്റ്	-8097
▁സംഘടനകള്‍	-8098
▁സിനിമയിലെ	-8099
▁നല്‍കുകയും	-8100
▁വിഭാഗത്തിൽ	-8101
▁തട്ടിക്കൊണ്ട	-8102
▁പ്രചാരണത്തിന്	-8103
▁ആശുപത്രികളിലും	-8104
65	-8105
69	-8106
നാട	-8107
ാറി	-8108
ദാബി	-8109
ായുധ	-8110
▁ചിറ	-8111
▁ഹെൽ	-8112
റ്റുകൾ	-8113
▁അഗ്നി	-8114
▁അദാനി	-8115
▁ആരിഫ്	-8116
▁നാഷണൽ	-8117
േഷിന്റെ	-8118
▁ഉദ്ധവ്	-8119
▁ജലീല്‍	-8120
▁മോദിയെ	-8121
സ്റ്റിന്	-8122
▁അതിനായി	-8123
▁നാശനഷ്ട	-8124
▁വമ്പന്‍	-8125
▁ശ്രീനിവ	-8126
▁സിസ്റ്റ	-8127
▁ഡ്രൈവര്‍	-8128
▁അതോടൊപ്പം	-8129
▁കോട്ടയത്ത്	-8130
▁സഖ്യത്തിന്	-8131
▁സ്ത്രീകളും	-8132
▁ഉറപ്പുവരുത്ത	-8133
▁അതുകൊണ്ടുതന്നെ	-8134
▁രജ	-8135
▁അതെ	-8136
▁അവധ	-8137
▁അഷ്	-8138
▁വിര	-8139
▁വെട	-8140
▁സാഗ	-8141
▁സിഎ	-8142
▁സ്ക	-8143
▁ആഞ്ഞ	-8144
▁ഗ്യാ	-8145
▁തീപി	-8146
ന്വേഷണ	-8147
▁ട്രോള	-8148
ാഞ്ചേരി	-8149
▁ഉറ്റുന	-8150
▁ഓഫീസിൽ	-8151
▁റിസര്‍	-8152
▁തീരത്ത്	-8153
▁ബഹിരാകാശ	-8154
▁ജില്ലകളിലെ	-8155
▁വോട്ടിന്റെ	-8156
ുന്നതെന്നാണ്	-8157
▁ഇടതുമുന്നണി	-8158
▁ഞങ്ങള്‍ക്ക്	-8159
▁റെക്കോര്‍ഡ്	-8160
▁വിഭാഗത്തിന്	-8161
▁മറുപടിയുമായി	-8162
▁രക്ഷാപ്രവര്‍	-8163
▁ചിത്രത്തിന്റെ	-8164
▁അന്വേഷണത്തില്‍	-8165
▁ദക്ഷിണാഫ്രിക്ക	-8166
ഒരു	-8167
കുള	-8168
▁കസ	-8169
▁ശോ	-8170
എസ്പ	-8171
▁കഴു	-8172
▁സാം	-8173
ടിയും	-8174
▁അപലപ	-8175
▁ഗ്രാ	-8176
▁ഡോളറ	-8177
▁ന്റെ	-8178
▁ഫിലി	-8179
▁ഷാഫി	-8180
ിടിച്ച	-8181
▁ജേക്ക	-8182
▁ബോളിവ	-8183
▁വികാര	-8184
▁ഇരുന്ന	-8185
▁തേടിയെ	-8186
▁തൊട്ട്	-8187
▁പ്രവചന	-8188
▁വികാരം	-8189
▁സംവരണം	-8190
▁അതിലൂടെ	-8191
▁ദുര്‍ബല	-8192
▁എക്സിക്യ	-8193
▁മണിക്കൂർ	-8194
ിച്ചുകൊണ്ട	-8195
▁നിയമങ്ങള്‍	-8196
▁പിരിച്ചുവി	-8197
▁മുന്നോട്ടു	-8198
▁പിടിക്കാന്‍	-8199
▁പരിശോധിച്ചത്	-8200
▁സ്വീകരിക്കും	-8201
37	-8202
പൂ	-8203
ിയാ	-8204
ുകൂട	-8205
▁ചായ	-8206
▁യൂസ	-8207
▁സെൽ	-8208
ുവരിയ	-8209
▁പൃഥ്	-8210
▁ശരത്	-8211
ന്റേത്	-8212
▁ചിറ്റ	-8213
▁താങ്ങ	-8214
▁ധര്‍മ	-8215
▁സഖ്യമ	-8216
▁അത്ഭുത	-8217
▁ഇടപെടല	-8218
▁തങ്ങളെ	-8219
റ്റിയുടെ	-8220
▁ചൈനയുടെ	-8221
▁കോളേജിലെ	-8222
▁താരതമ്യം	-8223
▁പൂര്‍ത്ത	-8224
▁എതിര്‍ക്ക	-8225
▁സമ്മതിച്ച	-8226
▁കാലയളവില്‍	-8227
▁ട്രംപിന്റെ	-8228
▁നേതാവിന്റെ	-8229
▁സ്റ്റേഷന്‍	-8230
ാതിരിക്കാന്‍	-8231
▁അപ്രതീക്ഷിത	-8232
▁ബന്ധുക്കള്‍	-8233
▁തെളിയിക്കുന്ന	-8234
24	-8235
തൂ	-8236
ഷുറ	-8237
ഹാർ	-8238
▁എലി	-8239
▁മീന	-8240
ക്രമണ	-8241
ാര്‍ശ	-8242
▁നാഥ്	-8243
▁ബാധക	-8244
▁കന്നി	-8245
▁രജിസ്	-8246
▁അവകാശം	-8247
▁എഐസിസി	-8248
▁ക്രൂഡ്	-8249
▁സത്യവാ	-8250
▁അടങ്ങിയ	-8251
▁അമരീന്ദ	-8252
▁ഇവർക്ക്	-8253
▁ഹൈദരാബാദ	-8254
▁പെട്രോള്‍	-8255
▁ഹൈദരാബാദ്	-8256
▁ഇന്‍സ്റ്റി	-8257
▁എന്നിരുന്ന	-8258
▁ചര്‍ച്ചയില്‍	-8259
▁ആയിരക്കണക്കിന്	-8260
പടി	-8261
▁കബ	-8262
ജന്റ	-8263
▁കോയ	-8264
▁ഗാന	-8265
▁ഹിജ	-8266
ക്ഷേമ	-8267
ോട്ടെ	-8268
തിനാണ്	-8269
സുകള്‍	-8270
ികളോട്	-8271
ൻസിപ്പ	-8272
▁ചെങ്ങ	-8273
▁ബോംബ്	-8274
രാമത്ത്	-8275
▁ന്യൂയോ	-8276
▁സൂപ്പർ	-8277
▁പരിശീലന	-8278
▁സമ്മേളന	-8279
വാറ്റുപുഴ	-8280
▁തലശ്ശേരി	-8281
▁പദ്ധതികൾ	-8282
▁പരാതിയിൽ	-8283
▁പ്രക്രിയ	-8284
▁പ്രതികൂല	-8285
▁വിജയന്റെ	-8286
▁സഹായിച്ച	-8287
മായിട്ടാണ്	-8288
ുണ്ടാക്കിയ	-8289
▁അപകടത്തിൽ	-8290
▁തരത്തില്‍	-8291
യിലേക്കുള്ള	-8292
▁ദിനത്തില്‍	-8293
▁ശാസ്ത്രജ്ഞ	-8294
▁അമേരിക്കയില്‍	-8295
▁ഉയര്‍ന്നിരുന്നു	-8296
എഫ	-8297
ഫീ	-8298
ാവൂ	-8299
ര്‍ഗ	-8300
റ്റൽ	-8301
വച്ച	-8302
▁തത്	-8303
▁അറിവ	-8304
▁ഒഡീഷ	-8305
▁പര്യ	-8306
▁പിരി	-8307
▁പ്പെ	-8308
▁സെറീന	-8309
▁സർവീസ	-8310
ട്ടില്‍	-8311
▁തവണയും	-8312
▁താപനില	-8313
▁ഇടയില്‍	-8314
▁പബ്ലിക്	-8315
▁മേഖലകളിൽ	-8316
▁റഷ്യയുടെ	-8317
▁സ്റ്റാഫ്	-8318
▁കമല്‍നാഥ്	-8319
▁ചെയ്താല്‍	-8320
ിച്ചുകൊണ്ട്	-8321
▁സൗജന്യമായി	-8322
▁വിലയിരുത്തി	-8323
▁സിപിഎമ്മിന്	-8324
▁സ്വദേശികള്‍	-8325
▁ഏർപ്പെടുത്തിയ	-8326
▁തിരിച്ചടിയാണ്	-8327
▁തിരഞ്ഞെടുപ്പിനെ	-8328
6)	-8329
at	-8330
റം	-8331
▁വഷ	-8332
ഫ്യൂ	-8333
വ്വഹ	-8334
ഷാദ്	-8335
▁ഇവി	-8336
യിന്‍	-8337
ിലേറെ	-8338
ുറപ്പ	-8339
▁അയോഗ	-8340
▁ക്രെ	-8341
റിഞ്ഞ്	-8342
ിനില്‍	-8343
▁നങ്ങള	-8344
▁മിണ്ട	-8345
▁ലാല്‍	-8346
▁സസ്പെ	-8347
ന്മാര്‍	-8348
മാർക്ക്	-8349
ലക്ഷ്മി	-8350
▁ജ്വല്ല	-8351
▁നിയമനട	-8352
▁അയ്യപ്പ	-8353
▁മറിച്ച്	-8354
ാക്കാനുള്ള	-8355
▁പ്രിൻസിപ്പ	-8356
ുണ്ടെങ്കില്‍	-8357
▁എന്താണെന്ന്	-8358
▁ഇന്ത്യയ്ക്ക്	-8359
▁അഭിമുഖത്തില്‍	-8360
▁വിഭാഗത്തിന്റെ	-8361
ിക്കുന്നുവെന്നും	-8362
ചനം	-8363
▁69	-8364
ബിസി	-8365
രാഗ്	-8366
ല്യം	-8367
സമൂഹ	-8368
▁...	-8369
▁അറബ	-8370
▁ധനു	-8371
യേയും	-8372
വിഭാഗ	-8373
ാര്‍ഗ	-8374
ുകാരി	-8375
▁എംഎം	-8376
▁നിഗമ	-8377
▁ഹാരി	-8378
▁കീഴിൽ	-8379
ത്തിനകം	-8380
ാവുകയും	-8381
▁നിലവാര	-8382
▁കണ്‍വീന	-8383
▁വിജയരാഘ	-8384
▁ഹൈക്കമാ	-8385
▁അതിർത്തി	-8386
▁ഇടപെട്ട്	-8387
▁വിലയില്‍	-8388
▁സെക്യൂരി	-8389
േക്കുമെന്ന	-8390
▁മരണത്തിന്	-8391
▁സ്ത്രീകളെ	-8392
▁പതിറ്റാണ്ട	-8393
▁പിന്തുണച്ച	-8394
▁അടിയന്തരമായി	-8395
▁പുറത്തിറങ്ങിയ	-8396
,'	-8397
ുവശ	-8398
▁അഹ	-8399
ല്‍പ	-8400
വേദന	-8401
ാകാം	-8402
▁ഇടപ	-8403
വിശേഷ	-8404
▁ആചാര	-8405
ലുമായി	-8406
ാകട്ടെ	-8407
▁അവതാര	-8408
▁കൂട്ടം	-8409
▁വോട്ടർ	-8410
ക്കുകയും	-8411
▁ലീഗിന്റെ	-8412
▁വീടുകള്‍	-8413
▁പേരുടെയും	-8414
▁മരണപ്പെട്ട	-8415
ിപ്പിക്കാന്‍	-8416
▁ആളുകള്‍ക്ക്	-8417
▁കൊടുക്കുന്ന	-8418
ോറ	-8419
ിരി	-8420
▁ഷഹ	-8421
മാരു	-8422
▁ചതു	-8423
▁ദൃശ	-8424
▁സാര	-8425
യാന്‍	-8426
▁ജെയ്	-8427
▁റായ്	-8428
▁ഇന്നല	-8429
▁വാട്ട	-8430
▁അണിനിര	-8431
▁നിർത്ത	-8432
▁രക്ഷിത	-8433
▁സമ്മർദ്ദ	-8434
▁ഉണ്ടായിട്ട	-8435
▁കമ്പ്യൂട്ട	-8436
▁വനംവകുപ്പ്	-8437
▁അധികാരത്തില	-8438
▁തൊഴിലാളികളെ	-8439
പ്പെടുത്തുന്നു	-8440
▁പ്രതിസന്ധിയില	-8441
▁മാനദണ്ഡങ്ങള്‍	-8442
▁എന്നിരുന്നാലും	-8443
▁കേന്ദ്രത്തിന്റെ	-8444
ഴം	-8445
േൽ	-8446
ൻപ	-8447
ികൊ	-8448
▁ഭര	-8449
▁സൌ	-8450
ഭൂമി	-8451
▁നല്	-8452
▁ലളി	-8453
▁വാസ	-8454
ക്കുഴ	-8455
ീസിന്	-8456
▁ഇതില	-8457
▁നേരം	-8458
▁സിലി	-8459
കളെയും	-8460
ാറില്ല	-8461
ൃതമായി	-8462
▁ആസാദ്	-8463
▁ജയരാജൻ	-8464
▁നടന്ന്	-8465
ഡിയൂരപ്പ	-8466
ികൾക്കും	-8467
▁അഡ്മിനി	-8468
▁അബുദാബി	-8469
▁ചെയ്യാന	-8470
▁നിബന്ധന	-8471
▁നിരോധനം	-8472
▁വ്യക്തത	-8473
▁പറ്റില്ല	-8474
▁കൂട്ടായ്മ	-8475
▁പെന്‍ഷന്‍	-8476
▁എല്ലാവരെയും	-8477
▁വകുപ്പുകള്‍	-8478
▁സ്ത്രീകളുടെ	-8479
▁പങ്കെടുക്കും	-8480
▁സ്റ്റേഷനില്‍	-8481
▁ബിജെപിയിലേക്ക്	-8482
7)	-8483
ർജ	-8484
നീഷ	-8485
നുമ	-8486
ാരു	-8487
ീകാര	-8488
▁ഇപി	-8489
▁യോജ	-8490
▁ലണ്ട	-8491
യൊക്കെ	-8492
ോപിപ്പ	-8493
▁ബിന്‍	-8494
ക്കൊപ്പ	-8495
ക്ഷേത്ര	-8496
തിരിക്ക	-8497
▁അഭിമുഖം	-8498
▁ദശലക്ഷം	-8499
▁അല്ലാത്ത	-8500
▁കത്തില്‍	-8501
▁എന്‍ജിനീയ	-8502
▁ക്രിമിനല്‍	-8503
▁താല്‍പര്യം	-8504
▁പൊലീസിന്റെ	-8505
▁ലക്ഷത്തോളം	-8506
▁എല്‍ഡിഎഫിന്	-8507
▁വീട്ടിലെത്തി	-8508
45	-8509
ov	-8510
വള	-8511
അതേ	-8512
ാമം	-8513
ജീവി	-8514
ടെക്	-8515
ര്യമ	-8516
▁13,	-8517
▁അശ്	-8518
▁ഓടെ	-8519
▁വലു	-8520
▁ഒത്ത	-8521
▁തൊടു	-8522
▁നദ്ദ	-8523
ീല്‍ഡ്	-8524
▁ദൗത്യ	-8525
ദ്ദീന്‍	-8526
▁അയച്ചു	-8527
▁തോന്നി	-8528
▁പരാജയം	-8529
▁വെടിവെ	-8530
▁അടച്ചിട	-8531
▁ചടങ്ങിൽ	-8532
▁ട്വന്റി	-8533
▁അവിശ്വാസ	-8534
▁ഇതൊന്നും	-8535
▁തര്‍ക്കം	-8536
▁നിർമ്മാണ	-8537
▁ശുപാര്‍ശ	-8538
▁സമീപത്തെ	-8539
▁സഹകരിക്ക	-8540
▁വിദേശത്തു	-8541
▁സൃഷ്ടിച്ച	-8542
▁എത്തിച്ചത്	-8543
▁എറണാകുളത്ത്	-8544
▁വ്യക്തിപരമായ	-8545
ിക്കുന്നതെന്ന്	-8546
▁രംഗത്തെത്തിയത്	-8547
▁സിഐ	-8548
നേയും	-8549
മ്പുഴ	-8550
സമിതി	-8551
▁കുരു	-8552
▁സിക്	-8553
ിലേറ്റ	-8554
▁അമ്പര	-8555
▁എപ്പി	-8556
തിലുള്ള	-8557
ുവേണ്ടി	-8558
▁കുഞ്ഞു	-8559
▁പന്ത്ര	-8560
▁തവണയാണ്	-8561
▁നോക്കാം	-8562
▁ക്രമീകരണ	-8563
▁താല്‍പ്പ	-8564
▁പറയുകയും	-8565
▁യൂണിറ്റ്	-8566
▁സ്ത്രീകള	-8567
▁എന്നിവയും	-8568
▁കോൺഗ്രസും	-8569
▁അഭിഭാഷകന്‍	-8570
▁ഉണ്ടെന്നും	-8571
▁ഒറ്റയ്ക്ക്	-8572
▁ചികിത്സയിൽ	-8573
▁ലക്ഷദ്വീപ്	-8574
▁സമ്മര്‍ദ്ദ	-8575
▁ഉന്നയിച്ചത്	-8576
▁പിന്തുണച്ച്	-8577
▁രാജ്യത്തിന്	-8578
▁പൊതുമരാമത്ത്	-8579
തുക	-8580
ഴുത	-8581
ീർഘ	-8582
▁അപ്	-8583
▁യുകെ	-8584
▁ശുചി	-8585
ഡുകള്‍	-8586
▁ഉപദ്ര	-8587
▁ബഹിഷ്	-8588
▁യുവജന	-8589
▁സിനും	-8590
▁എങ്ങനെയ	-8591
▁സീറ്റിൽ	-8592
തിരെയുള്ള	-8593
▁തികച്ചും	-8594
▁വ്യത്യാസ	-8595
▁സംരക്ഷണം	-8596
▁ഇന്ത്യയും	-8597
▁കേസുകളുടെ	-8598
▁പുലര്‍ത്ത	-8599
▁പിന്തുണയും	-8600
▁മുകളിലുള്ള	-8601
▁കേരളത്തിലും	-8602
▁ഡല്‍ഹിയില്‍	-8603
▁ചെയ്യണമെന്ന്	-8604
▁ആക്രമണത്തില്‍	-8605
▁കുടുംബത്തിന്റെ	-8606
▁പ്രസ്താവനയില്‍	-8607
▁സാധിച്ചിട്ടില്ല	-8608
ോടി	-8609
▁ഭി	-8610
ന്തോ	-8611
വായി	-8612
▁ഡിസ	-8613
▁നീര	-8614
▁മിന	-8615
▁മേഘ	-8616
റിയുടെ	-8617
സ്വാമി	-8618
ൊക്കെയ	-8619
▁ബുക്ക	-8620
▁മദ്യപ	-8621
▁മെമ്മ	-8622
ത്തിലിറ	-8623
മാരെയും	-8624
▁അപ്പോൾ	-8625
▁തീരദേശ	-8626
▁വിരാട്	-8627
▁സിദ്ദു	-8628
▁സ്വർണം	-8629
ിച്ചതോടെ	-8630
▁കാഴ്ച്ച	-8631
▁താലൂക്ക	-8632
▁പോലെയാണ്	-8633
▁സന്നിധാന	-8634
ത്തോടൊപ്പം	-8635
▁ഉയരുന്നത്	-8636
▁കര്‍ഷകരുടെ	-8637
▁യെഡിയൂരപ്പ	-8638
▁മനസ്സിലാക്ക	-8639
▁വീഡിയോയില്‍	-8640
▁സര്‍ക്കാരും	-8641
ിക്കണമെന്നാണ്	-8642
▁ട്വിറ്ററില്‍	-8643
▁സെക്രട്ടേറിയ	-8644
▁തുടക്കത്തില്‍	-8645
▁നില്‍ക്കുന്നത്	-8646
▁സംസ്ഥാനങ്ങളിലും	-8647
കൻ	-8648
മോഷ	-8649
ലംഘ	-8650
മന്‍	-8651
സന്‍	-8652
ിവാര	-8653
▁നിപ	-8654
▁റംസ	-8655
▁ലിം	-8656
▁വീശ	-8657
േറ്റം	-8658
▁എംബി	-8659
▁ട്രൈ	-8660
▁ഡെമോ	-8661
▁തല്ല	-8662
▁പള്‍	-8663
ങ്ങാടി	-8664
െന്നത്	-8665
▁ആരാധന	-8666
▁പ്രസ്	-8667
▁റോബിൻ	-8668
▁നല്ലത്	-8669
▁ശക്തിയ	-8670
ില്ലായ്മ	-8671
െയെല്ലാം	-8672
▁അത്യാവശ	-8673
▁അനുബന്ധ	-8674
▁കുത്തനെ	-8675
▁കുറിപ്പ	-8676
▁പരിശ്രമ	-8677
▁മുതലാണ്	-8678
▁അബ്ദുള്‍	-8679
▁ജോലിക്ക്	-8680
▁പന്തില്‍	-8681
▁താത്കാലിക	-8682
▁വരുമെന്ന്	-8683
ത്തിക്കൊണ്ട	-8684
ത്തിലെത്തിയ	-8685
61	-8686
▁ദ്	-8687
▁റു	-8688
പേഴ്	-8689
്യാദ	-8690
▁ശനി	-8691
ത്തിമ	-8692
ൽപ്പന	-8693
▁തടസ്	-8694
▁മാലി	-8695
ാള്‍ഡ്	-8696
▁നിത്യ	-8697
▁നെഞ്ച	-8698
▁പരിധി	-8699
▁പൃഥ്വി	-8700
▁മുക്തി	-8701
▁സെഞ്ച്	-8702
ക്കൂട്ടം	-8703
സിനെതിരെ	-8704
ാനാകില്ല	-8705
▁തിരക്കഥ	-8706
▁ബിജെപിയ	-8707
▁ആഫ്രിക്ക	-8708
▁ക്രമസമാധ	-8709
▁പോകുന്നു	-8710
▁മാത്രമായി	-8711
▁തൊട്ടടുത്ത	-8712
▁ചെയ്യുകയാണ്	-8713
▁ചേര്‍ന്നാണ്	-8714
▁കുട്ടികള്‍ക്ക്	-8715
70	-8716
രാം	-8717
▁കമല	-8718
▁ചിദ	-8719
▁ദുർ	-8720
▁മഹി	-8721
ത്തോള	-8722
പെട്ട	-8723
മ്പാട	-8724
▁ജഡ്ജ	-8725
▁വീണു	-8726
▁കൺട്ര	-8727
▁ചലഞ്ച	-8728
▁തലമുറ	-8729
ൊന്നാണ്	-8730
▁നീണ്ടു	-8731
ത്തിച്ചു	-8732
▁ഉദ്ഘാടന	-8733
▁തൊടുപുഴ	-8734
▁സീസണില്‍	-8735
▁കിട്ടിയത്	-8736
▁നേരിട്ടത്	-8737
▁സ്ഥിരമായി	-8738
▁കല്‍പ്പറ്റ	-8739
▁വേണമെന്നും	-8740
▁സമീപിച്ചത്	-8741
▁ആത്മവിശ്വാസ	-8742
ാനു	-8743
▁83	-8744
▁ഷീ	-8745
ഡിസി	-8746
ഴ്സ്	-8747
ാൻഡ്	-8748
ുകിട	-8749
▁ഡൗൺ	-8750
▁ഫോമ	-8751
▁സുഭാ	-8752
▁സൊസൈ	-8753
▁സ്വി	-8754
▁ഇടയിൽ	-8755
▁ഗോപാല	-8756
▁ചൊവ്വ	-8757
▁പലതവണ	-8758
മാരില്‍	-8759
▁അനിവാര	-8760
▁തെക്ക്	-8761
▁പോളിങ്	-8762
▁റെയ്ഡ്	-8763
▁തന്ത്രം	-8764
▁കാപ്പന്‍	-8765
▁സമ്പത്ത്	-8766
▁സിസിടിവി	-8767
▁ഒഴിവുകള്‍	-8768
▁യാഥാര്‍ത്ഥ	-8769
▁റദ്ദാക്കിയ	-8770
▁സംഭവത്തിന്	-8771
▁ചെയ്യേണ്ടത്	-8772
▁നിര്‍ദേശങ്ങള്‍	-8773
▁നില്‍ക്കുകയാണ്	-8774
പരാ	-8775
മാശ	-8776
മുള	-8777
▁നമ	-8778
▁റൺ	-8779
▁വ്	-8780
▁ഉദയ	-8781
▁യുക	-8782
തയാണ്	-8783
പ്തിയ	-8784
ലധികം	-8785
▁തമ്പ	-8786
▁നായി	-8787
േശ്വരം	-8788
ിനെയാണ്	-8789
▁അപൂര്‍	-8790
▁ഇന്റലി	-8791
▁ഒഴിപ്പ	-8792
▁കിട്ടി	-8793
▁നിവാരണ	-8794
▁വിമർശന	-8795
▁വെച്ചു	-8796
▁ഹെലികോ	-8797
▁കഞ്ചാവ്	-8798
▁കാലത്തെ	-8799
▁തന്നോട്	-8800
▁പുലർത്ത	-8801
▁വെളിച്ച	-8802
ിക്കുട്ടി	-8803
▁കൊടുത്തു	-8804
▁ക്യാമ്പ്	-8805
▁പുനരാരംഭ	-8806
▁ബാധിച്ചു	-8807
ാകുമെന്നും	-8808
▁കുടുംബത്തിലെ	-8809
▁പ്രതീക്ഷിച്ച	-8810
▁വോട്ടെണ്ണല്‍	-8811
▁സുഹൃത്തുക്കള	-8812
ുണ്ടായിരുന്നത്	-8813
▁S	-8814
ുപ്	-8815
▁റഹ	-8816
ംഗ്ട	-8817
കമ്പ	-8818
െയ്ത	-8819
▁ഉടല	-8820
യുമായ	-8821
▁അഡീഷ	-8822
▁അണിയ	-8823
▁തക്ക	-8824
▁മേനോ	-8825
▁രമ്യ	-8826
▁കൂത്ത	-8827
▁കൈപ്പ	-8828
▁വെങ്ക	-8829
▁സംവരണ	-8830
▁സപ്പോ	-8831
▁അതിജീവ	-8832
▁അനുഭവം	-8833
▁അയാള്‍	-8834
▁ഉറച്ച്	-8835
ങ്ങളുള്ള	-8836
▁അധികാരി	-8837
▁ഒരുപോലെ	-8838
▁ചേരുന്ന	-8839
▁തോല്‍വി	-8840
▁സമയമാണ്	-8841
ിക്കൊണ്ട്	-8842
▁കുതിച്ചു	-8843
▁മില്യണ്‍	-8844
▁രണ്ടാഴ്ച	-8845
▁കുടിവെള്ള	-8846
▁ചെയ്യാനും	-8847
▁നേരിടാന്‍	-8848
▁ആദ്യമായാണ്	-8849
ിക്കുന്നതായി	-8850
▁മൂന്നാമത്തെ	-8851
▁ഉദ്യോഗസ്ഥരുടെ	-8852
▁കേന്ദ്രങ്ങള്‍	-8853
▁കേന്ദ്രത്തില്‍	-8854
▁തന്നെയായിരുന്നു	-8855
ട്രി	-8856
സണ്‍	-8857
▁അഭയ	-8858
▁ഒവൈ	-8859
▁ജോൺ	-8860
▁റൂം	-8861
മിന്ന	-8862
്യൂറോ	-8863
▁ആപ്പ	-8864
▁ഭീതി	-8865
പ്പാട്	-8866
▁അയല്‍	-8867
▁കുര്യ	-8868
▁ടാറ്റ	-8869
▁ഫോട്ട	-8870
▁സംഖ്യ	-8871
ശാസ്ത്ര	-8872
ുകാരന്‍	-8873
▁കല്യാണ	-8874
▁കിടന്ന	-8875
▁ചാക്കോ	-8876
്യാപേക്ഷ	-8877
ർക്കെതിരെ	-8878
യ്ക്കെതിരെ	-8879
▁ഉല്‍പ്പാദ	-8880
▁കൂടുതലാണ്	-8881
▁നിലനിർത്ത	-8882
▁വെട്ടിക്ക	-8883
▁സംസാരിക്ക	-8884
▁കാര്യമില്ല	-8885
▁രക്ഷിതാക്ക	-8886
▁ജാമ്യാപേക്ഷ	-8887
▁ചെയ്യുമെന്ന്	-8888
▁ജില്ലകളിലാണ്	-8889
▁ശ്രദ്ധിക്കണം	-8890
63	-8891
കീ	-8892
യറ	-8893
സൗ	-8894
▁71	-8895
▁പശ	-8896
▁14,	-8897
▁ആദായ	-8898
▁ജപ്പ	-8899
▁ദീർഘ	-8900
▁ശിശു	-8901
സിറ്റി	-8902
ുകൂട്ട	-8903
ോടുള്ള	-8904
▁പിയും	-8905
അതേസമയം	-8906
▁ജനവിധി	-8907
▁ജയിലിൽ	-8908
▁അയാളുടെ	-8909
▁കൂളില്‍	-8910
▁ത്രിപുര	-8911
▁ഫ്രാന്‍	-8912
ക്കാലത്ത്	-8913
ിലേക്കാണ്	-8914
▁ഗെലോട്ട്	-8915
▁തകര്‍ത്ത	-8916
▁വിവാദമായ	-8917
▁സത്യവാങ്	-8918
ുകള്‍ക്കും	-8919
▁ഞങ്ങൾക്ക്	-8920
▁പരിഗണിച്ച	-8921
▁പ്രദേശവാസ	-8922
▁യുഎഇയില്‍	-8923
▁രാശിയില്‍	-8924
ിച്ചുവെന്ന്	-8925
▁കുടുംബശ്രീ	-8926
▁ഡിജിറ്റല്‍	-8927
▁പ്രസിഡന്‍റ്	-8928
▁സംസ്ഥാനങ്ങള്‍	-8929
▁പ്രതീക്ഷയിലാണ്	-8930
സ്യ	-8931
ാരോ	-8932
ൂരം	-8933
യല്ല	-8934
സ്ടി	-8935
▁www	-8936
▁ഒരി	-8937
▁മധു	-8938
▁മേല	-8939
ഡിഎസ്	-8940
ദ്രോഹ	-8941
▁നെഹ്	-8942
▁പ്രഭ	-8943
▁മ്യൂ	-8944
പ്പോയി	-8945
ാകാത്ത	-8946
ാലിറ്റ	-8947
▁കേരളാ	-8948
▁നിലപാ	-8949
▁പ്രാപ	-8950
▁റണ്‍സ	-8951
േറ്റീവ്	-8952
▁ഉദാഹരണ	-8953
▁പാരമ്പ	-8954
▁സമുദ്ര	-8955
ക്കുന്നു	-8956
ത്തിച്ച്	-8957
രിച്ചാണ്	-8958
▁കണ്ടെയ്	-8959
▁കാരണമായ	-8960
▁ഗസ്റ്റ്	-8961
▁താഴ്ന്ന	-8962
▁ഡിവൈഎഫ്ഐ	-8963
പ്പടേയുള്ള	-8964
▁ജീവനക്കാർ	-8965
▁തിരച്ചില്‍	-8966
▁ദിവസങ്ങള്‍	-8967
▁ജില്ലകളിലായി	-8968
29	-8969
ഫോമ	-8970
▁67	-8971
ാർഡ്	-8972
▁അവൾ	-8973
▁ഏതു	-8974
▁ടൈം	-8975
ങ്കിൽ	-8976
പക്ഷം	-8977
വിദ്യ	-8978
▁എതിർ	-8979
ാലത്ത്	-8980
▁ഗോള്‍	-8981
▁സൂരജ്	-8982
കുട്ടിയ	-8983
ട്ടിയത്	-8984
▁അര്‍ജു	-8985
▁ആകര്‍ഷ	-8986
▁റവന്യൂ	-8987
▁ഡിപ്ലോമ	-8988
▁കഴിഞ്ഞത്	-8989
▁വോട്ടെടു	-8990
▁പ്രഖ്യാപന	-8991
▁അതിശക്തമായ	-8992
▁പരിപാടിയിൽ	-8993
▁നിയമവിരുദ്ധ	-8994
▁പീഡിപ്പിച്ച	-8995
▁യുഡിഎഫിന്റെ	-8996
▁ചോദിക്കുന്നത്	-8997
▁നേതൃത്വത്തിലാണ്	-8998
▁സർട്ടിഫിക്കറ്റ്	-8999
ഫെ	-9000
വൽ	-9001
മിറ	-9002
ലൈന	-9003
ുപരി	-9004
▁ഓണം	-9005
▁ഭയം	-9006
ിയര്‍	-9007
ുള്ളി	-9008
▁പേഴ്	-9009
▁വിചാ	-9010
സമ്മേള	-9011
▁അഭിഷേ	-9012
▁കുമാര	-9013
▁കൈവശം	-9014
▁നിഗമനം	-9015
▁നെറ്റ്	-9016
▁സഞ്ചാര	-9017
▁അമ്മയും	-9018
▁എല്ലായി	-9019
▁പറഞ്ഞാൽ	-9020
▁വിജ്ഞാപ	-9021
▁ക്ഷേത്രം	-9022
▁ലോകകപ്പ്	-9023
▁ഭാഗമായാണ്	-9024
▁മൂവാറ്റുപുഴ	-9025
▁അമേരിക്കയുടെ	-9026
▁വിദ്യാർത്ഥികൾ	-9027
▁മത്സ്യത്തൊഴിലാള	-9028
വോ	-9029
▁A	-9030
ഭിണ	-9031
സബ്	-9032
ോഗ്	-9033
▁രഘ	-9034
▁ലൂ	-9035
വ്യാ	-9036
സമ്പ	-9037
ാകണം	-9038
ാലിദ	-9039
▁കൊള	-9040
▁മതം	-9041
െന്നി	-9042
▁ഇടവം	-9043
▁നിരസ	-9044
▁റ്റി	-9045
▁വാദി	-9046
ായതോടെ	-9047
▁ഓര്‍മ	-9048
▁ചൗധരി	-9049
▁സഞ്ജു	-9050
▁സ്വാമി	-9051
ൊപ്പമാണ്	-9052
▁അനുഗ്രഹ	-9053
▁ഒരാളാണ്	-9054
▁കരുത്ത്	-9055
▁വാണിജ്യ	-9056
▁വർഷമായി	-9057
▁ഇടിമിന്ന	-9058
▁ഇൻസ്റ്റി	-9059
▁കുവൈത്ത്	-9060
▁പിടികൂടി	-9061
▁സംഭവത്തെ	-9062
▁താരത്തിന്റെ	-9063
▁തുടർച്ചയായി	-9064
▁നടപ്പാക്കിയ	-9065
▁ക്യാപ്റ്റന്‍	-9066
▁രോഗമുക്തരായി	-9067
55	-9068
താമ	-9069
യാട	-9070
ാവസ	-9071
▁ഗർ	-9072
ന്റേ	-9073
വാള്‍	-9074
വൂര്‍	-9075
▁ഐസൊല	-9076
▁ഒഴിയ	-9077
▁മറിയ	-9078
▁വന്യ	-9079
കരിക്ക	-9080
▁തിയതി	-9081
▁വെല്‍	-9082
▁ശുദ്ധ	-9083
യുടേയും	-9084
ിക്കാണ്	-9085
▁അരുണ്‍	-9086
▁കേട്ട്	-9087
▁ജെഡിയു	-9088
▁ബാംഗ്ല	-9089
▁മാർഗ്ഗ	-9090
▁റിയാദ്	-9091
▁സവിശേഷ	-9092
▁ഹിജാബ്	-9093
▁പ്രശസ്ത	-9094
▁ഫാത്തിമ	-9095
▁സിലിണ്ട	-9096
▁കേസുകളും	-9097
▁ടീമിന്റെ	-9098
▁തീര്‍ക്ക	-9099
▁പ്രദര്‍ശ	-9100
▁വിക്കറ്റ	-9101
ിപ്പിക്കാൻ	-9102
▁കുടുംബവും	-9103
▁സമയത്താണ്	-9104
▁ഹെല്‍ത്ത്	-9105
▁ഇല്ലെന്നും	-9106
▁കണ്ടെത്താൻ	-9107
▁മന്ത്രിസഭാ	-9108
▁മുന്‍സിപ്പ	-9109
രിച്ചിരുന്നു	-9110
▁ഹെലികോപ്റ്റ	-9111
▁മന്ത്രിമാര്‍	-9112
▁പ്രവര്‍ത്തകരെ	-9113
ഖി	-9114
ൻറ്	-9115
▁94	-9116
വിനി	-9117
▁ധോണ	-9118
▁ബിൽ	-9119
▁മകൾ	-9120
▁സെഷ	-9121
ഗ്രാം	-9122
▁മോഹന	-9123
▁യൂറോ	-9124
ടിയുടെ	-9125
നെറ്റ്	-9126
ുവെച്ച	-9127
▁ഉൽപ്പ	-9128
▁നമ്പറ	-9129
▁റഷ്യൻ	-9130
രേന്ദ്ര	-9131
▁ഡിജിപി	-9132
▁വൈറല്‍	-9133
▁സ്ഥാനത്ത	-9134
▁പരിസ്ഥിതി	-9135
▁സ്വര്‍ണ്ണ	-9136
▁കുറ്റപത്രം	-9137
▁സുധാകരന്റെ	-9138
▁വയനാട്ടില്‍	-9139
▁സൗകര്യങ്ങള്‍	-9140
ിലുണ്ടായിരുന്ന	-9141
▁നേതാക്കളുമായി	-9142
▁മണ്ഡലങ്ങളിലും	-9143
▁സംസാരിക്കുന്ന	-9144
▁പറഞ്ഞിട്ടുണ്ട്	-9145
▁മധ്യപ്രദേശില്‍	-9146
64	-9147
ഭയ	-9148
തുട	-9149
ൂഖ്	-9150
▁99	-9151
▁കപ	-9152
▁അതോ	-9153
▁ആധി	-9154
▁കടം	-9155
▁തോൽ	-9156
ണറുടെ	-9157
ത്തൂർ	-9158
▁അവിട	-9159
▁ആഭരണ	-9160
▁ജീവി	-9161
▁പോക്	-9162
▁ശേഷി	-9163
ികളായി	-9164
▁അനുപമ	-9165
▁ഓർക്ക	-9166
▁നിതീഷ	-9167
▁നെല്ല	-9168
▁പ്രേമ	-9169
▁മെമ്പ	-9170
ിച്ചതും	-9171
▁പൈലറ്റ	-9172
▁പ്രചോദ	-9173
▁പ്രയാസ	-9174
▁ബാറ്റ്	-9175
▁രാജ്യാ	-9176
▁ഷായുടെ	-9177
നിരപേക്ഷ	-9178
▁അത്രയും	-9179
▁അലർട്ട്	-9180
▁ധനകാര്യ	-9181
▁ബിഎസ്പി	-9182
▁വിശദീകരണ	-9183
ീകരിക്കുന്ന	-9184
ുകളാണുള്ളത്	-9185
▁നല്‍കുന്നു	-9186
ില്ലെങ്കിലും	-9187
▁കസ്റ്റഡിയിൽ	-9188
▁തനിക്കെതിരെ	-9189
▁വൃത്തങ്ങള്‍	-9190
▁പങ്കെടുത്തത്	-9191
▁വിശദീകരിച്ചു	-9192
▁തിരഞ്ഞെടുപ്പിലെ	-9193
28	-9194
മർ	-9195
ാസമ	-9196
ുടമ	-9197
ദിക്	-9198
സഞ്ച	-9199
▁അക്	-9200
▁നീല	-9201
▁ഫാമ	-9202
▁രേവ	-9203
വേറ്റ	-9204
വേഷണം	-9205
െയ്യാ	-9206
▁ആനന്ദ	-9207
▁ഉയര്‍	-9208
▁കാവ്യ	-9209
▁മാരാർ	-9210
▁ഡ്രൈവർ	-9211
▁മിഥുനം	-9212
ിക്കുകയോ	-9213
ിരിക്കും	-9214
▁നല്ലൊരു	-9215
▁സാധ്യതയ	-9216
▁കുടുങ്ങി	-9217
▁കുറ്റവാള	-9218
▁നിയമങ്ങൾ	-9219
▁യുഡിഎഫും	-9220
▁വേട്ടയാട	-9221
മാണെന്നാണ്	-9222
▁അവകാശവാദം	-9223
▁പിടിച്ചത്	-9224
▁വളരെയധികം	-9225
▁ഉള്‍പ്പെട്ട	-9226
▁ആവര്‍ത്തിക്ക	-9227
▁പ്രസ്താവനയിൽ	-9228
▁അവകാശപ്പെട്ടു	-9229
▁ചെയ്യുമെന്നും	-9230
▁പ്രതിഷേധിച്ച്	-9231
പ്പെടുത്തുന്നത്	-9232
▁ഉപമുഖ്യമന്ത്രി	-9233
▁ഒറ്റക്കെട്ടായി	-9234
▁കേന്ദ്രങ്ങളില്‍	-9235
ത്താ	-9236
▁കടമ	-9237
▁കിഴ	-9238
▁പട്	-9239
▁ലൈൻ	-9240
പിള്ള	-9241
യുന്ന	-9242
രില്‍	-9243
ിച്ചത	-9244
▁അമിത	-9245
▁കായം	-9246
കൊണ്ട്	-9247
ഷ്യന്‍	-9248
▁എക്സൈ	-9249
▁പട്ടി	-9250
▁പ്രവി	-9251
▁മാന്യ	-9252
▁റെനീഷ	-9253
▁സിറ്റ	-9254
ണിത്തുറ	-9255
തിരെയും	-9256
മാണെന്ന	-9257
ക്കിടയിൽ	-9258
▁അച്ഛന്‍	-9259
▁കുട്ടിയ	-9260
▁കൊണ്ടും	-9261
▁ലിസ്റ്റ	-9262
▁തയ്യാറായ	-9263
▁പട്ടേല്‍	-9264
▁പരമ്പരാഗ	-9265
▁പൊതുമേഖല	-9266
▁ഭാര്യയും	-9267
▁കയറ്റുമതി	-9268
▁രൂപയ്ക്ക്	-9269
▁ഹിന്ദുക്ക	-9270
▁അന്തരിച്ചു	-9271
▁ഇത്തവണത്തെ	-9272
▁ഒരാള്‍ക്ക്	-9273
▁സെപ്റ്റംബർ	-9274
▁നഷ്ടപരിഹാരം	-9275
▁രാശിക്കാര്‍	-9276
പ്പെടുന്നുണ്ട്	-9277
▁പാര്‍ട്ടിയിലെ	-9278
▁M	-9279
കിയ	-9280
ധാര	-9281
▁എല	-9282
▁600	-9283
ംഗിന്	-9284
വരോട്	-9285
▁ആകാശ	-9286
▁ഡെവല	-9287
▁തമാശ	-9288
▁ഫുട്	-9289
▁വാർഡ	-9290
▁ഉത്സവ	-9291
▁കുണ്ട	-9292
▁ചില്ല	-9293
▁പറയണം	-9294
പ്പൂര്‍	-9295
▁അഴീക്ക	-9296
▁എട്ടാം	-9297
▁ചടങ്ങ്	-9298
▁മാനന്ത	-9299
യിലുണ്ട്	-9300
ുന്നതിനു	-9301
▁വന്ദേഭാര	-9302
▁അദ്ധ്യക്ഷ	-9303
▁എന്നുമാണ്	-9304
▁ചേര്‍ന്നു	-9305
▁സമ്മതിക്ക	-9306
▁സാധിച്ചത്	-9307
▁ഇലക്ട്രോണി	-9308
▁മന്ത്രിയും	-9309
▁ശ്രമങ്ങള്‍	-9310
▁നീക്കങ്ങള്‍	-9311
▁മത്സരിച്ചത്	-9312
പ്പെടുത്തുകയും	-9313
▁ഉള്‍പ്പടേയുള്ള	-9314
▁പ്രവചിക്കുന്നത്	-9315
▁സ്ഥാനാര്‍ത്ഥിയെ	-9316
വസര	-9317
ാത്	-9318
▁ഖു	-9319
യാള്‍	-9320
▁ച്ചു	-9321
▁ട്രെ	-9322
▁സാധന	-9323
ാനാവും	-9324
▁കാമുക	-9325
▁പാലായ	-9326
▁പൊള്ള	-9327
▁മിന്ന	-9328
▁സീതാര	-9329
▁ഒഴിഞ്ഞ	-9330
▁നമ്മളെ	-9331
▁ബ്യൂറോ	-9332
▁സംഭാഷണ	-9333
▁ഇബ്രാഹി	-9334
▁വിവാഹിത	-9335
▁അറിയാന്‍	-9336
▁വാഷിംഗ്ട	-9337
▁വിട്ടുവീ	-9338
▁ശ്രമങ്ങൾ	-9339
വിദ്യാഭ്യാ	-9340
▁നഗരത്തിലെ	-9341
▁മതനിരപേക്ഷ	-9342
▁ഉദ്യോഗാർത്ഥ	-9343
▁ബാധിക്കുന്ന	-9344
▁സിക്യൂട്ടീവ്	-9345
▁സെക്യൂരിറ്റി	-9346
▁ഇന്ത്യയിലേക്ക്	-9347
മാച	-9348
ുഡ്	-9349
▁74	-9350
ങ്കം	-9351
വിന്‍	-9352
ഷന്റെ	-9353
ാണ്ട്	-9354
▁ഇമ്ര	-9355
▁ഐസക്	-9356
▁കങ്ക	-9357
▁താമര	-9358
▁പാരി	-9359
ണ്ണായക	-9360
പ്പോലെ	-9361
വയ്ക്ക	-9362
▁ഗോപിന	-9363
▁സര്‍വ	-9364
പരിശോധന	-9365
▁ഉരുള്‍	-9366
▁കുഴപ്പ	-9367
▁നിങ്ങള	-9368
വരുടെയും	-9369
െടുക്കാൻ	-9370
▁എപ്പിസോ	-9371
▁ഭാഗത്തു	-9372
▁വൃത്തിയ	-9373
▁സാക്ഷ്യ	-9374
▁സീതാരാമ	-9375
▁ഹൗസില്‍	-9376
▁ഉയർത്തിയ	-9377
▁വന്നതിന്	-9378
▁എന്തൊക്കെ	-9379
▁ദുബായില്‍	-9380
▁പ്രതിനിധി	-9381
▁പ്രതിരോധം	-9382
▁ശ്രീനിവാസ	-9383
▁ഉമ്മൻചാണ്ട	-9384
▁മലയാളികള്‍	-9385
▁രാജ്യാന്തര	-9386
▁സന്ദര്‍ശനം	-9387
▁സ്ഥാപനങ്ങൾ	-9388
▁ഉത്തർപ്രദേശ്	-9389
▁കമ്മ്യൂണിസ്റ്റ്	-9390
▁നിലനില്‍ക്കുന്ന	-9391
han	-9392
മതി	-9393
രോഗ	-9394
സിസ	-9395
▁നൃ	-9396
▁കോല	-9397
▁ലൈന	-9398
▁സിൻ	-9399
ത്തിര	-9400
സാക്ഷ	-9401
േശ്വര	-9402
▁2006	-9403
▁അക്ര	-9404
▁ടിപി	-9405
▁മനസ്	-9406
▁റോയ്	-9407
നിയുടെ	-9408
ിലേക്ക	-9409
▁ആരുടെ	-9410
▁ആളുകള	-9411
▁ആർക്ക	-9412
▁എംബസി	-9413
▁ഔട്ട്	-9414
▁താല്പ	-9415
▁ദുരുപ	-9416
▁പണവും	-9417
▁മടക്ക	-9418
▁വിശാല	-9419
േയ്ക്ക്	-9420
▁ഉപദ്രവ	-9421
▁സമിതിയ	-9422
▁ഏറ്റുവാ	-9423
▁കള്ളപ്പ	-9424
▁പ്രയോജന	-9425
ക്കുകയാണ്	-9426
▁കാര്യക്ഷ	-9427
▁പെഷ്യല്‍	-9428
▁സിദ്ദിഖ്	-9429
▁തൃശ്ശൂര്‍	-9430
▁നടപടികളും	-9431
▁ശാസ്ത്രീയ	-9432
▁ചിലപ്പോള്‍	-9433
▁നേതാക്കളായ	-9434
▁മുംബൈയില്‍	-9435
▁റിക്രൂട്ട്	-9436
▁വാക്സിനേഷൻ	-9437
ില്ലായിരുന്നു	-9438
▁തൊഴിലാളികളുടെ	-9439
▁ഉണ്ടായിട്ടില്ല	-9440
▁ദിവസങ്ങള്‍ക്ക്	-9441
▁പ്രവര്‍ത്തകരും	-9442
▁ഹൈക്കോടതിയില്‍	-9443
▁എത്തിയിട്ടുണ്ട്	-9444
▁പ്രസിദ്ധീകരിച്ച	-9445
ഗാ	-9446
..?	-9447
ala	-9448
▁78	-9449
▁രസ	-9450
ജീവന	-9451
മര്‍	-9452
▁ഏഴു	-9453
▁ഓപ്	-9454
▁പെർ	-9455
▁മാട	-9456
ക്കാൾ	-9457
▁എംകെ	-9458
▁വല്ല	-9459
▁പ്രൈവ	-9460
മാകുന്ന	-9461
▁എഴുത്ത	-9462
▁കാത്തു	-9463
▁ഡ്രൈവറ	-9464
▁തീര്‍ഥ	-9465
▁ലീഗിന്	-9466
ന്മാരുടെ	-9467
ുണ്ടെന്ന	-9468
▁കമ്യൂണി	-9469
▁നഷ്ടമായ	-9470
▁നെടുമ്പ	-9471
▁സമാധാനം	-9472
▁അച്ചടക്ക	-9473
▁ഡെമോക്രാ	-9474
▁ദേശീയപാത	-9475
▁സോഫ്റ്റ്	-9476
▁അറിയിപ്പ്	-9477
▁കണ്ണൂരിലെ	-9478
▁തൃശൂരില്‍	-9479
▁പിന്നിട്ട	-9480
▁മാറ്റാന്‍	-9481
▁സിറ്റിംഗ്	-9482
▁സ്ഥിതിഗതി	-9483
▁സ്റ്റേഡിയ	-9484
▁കുറിച്ചാണ്	-9485
▁ഉദ്യോഗസ്ഥന്‍	-9486
▁പുറത്താക്കിയ	-9487
▁രാമചന്ദ്രന്‍	-9488
▁അറസ്റ്റിലായത്	-9489
▁ചെയ്യുന്നതിന്	-9490
ാണെന്നായിരുന്നു	-9491
▁പ്രവേശിപ്പിച്ച	-9492
▁പെണ്‍കുട്ടിയുടെ	-9493
11	-9494
റായ	-9495
ിയൻ	-9496
▁ലഡ	-9497
ണ്ണി	-9498
വിവര	-9499
സിക്	-9500
സുകൾ	-9501
പിയും	-9502
ാബാദ്	-9503
ുടേത്	-9504
▁പരിയ	-9505
▁വരെയ	-9506
▁അബദ്ധ	-9507
▁ഗാര്‍	-9508
▁മസ്ജി	-9509
പ്പെരിയ	-9510
▁പരിഹാസ	-9511
▁പ്രതിഭ	-9512
ാക്കാനും	-9513
▁അടിത്തറ	-9514
▁ഇറക്കിയ	-9515
▁രാജയോഗം	-9516
▁അതൊന്നും	-9517
▁കാരണമാണ്	-9518
▁ചേര്‍ക്ക	-9519
▁ദിലീപിന്	-9520
▁വിശ്വസ്ത	-9521
▁വെസ്റ്റ്	-9522
ിയായിരുന്ന	-9523
▁ചോദിച്ചത്	-9524
▁താല്‍പര്യ	-9525
▁കുടുംബത്തെ	-9526
▁ഏറ്റെടുത്ത്	-9527
▁വിലയിരുത്തൽ	-9528
ിക്കുന്നതില്‍	-9529
▁ഒരുങ്ങുന്നത്	-9530
▁വിമാനത്തില്‍	-9531
ിട്ടുണ്ടെന്നാണ്	-9532
ർണ	-9533
ളളി	-9534
▁ടൊ	-9535
▁യ്	-9536
ബിലി	-9537
▁ദേഹ	-9538
ജിപ്പ	-9539
ടിയിൽ	-9540
ട്ടും	-9541
മുന്ന	-9542
▁ഇതും	-9543
▁ത്തു	-9544
▁ദാസ്	-9545
ചിതമായ	-9546
വിട്ട്	-9547
▁അതോടെ	-9548
▁നാദിറ	-9549
▁കടുവയെ	-9550
▁ഡിഗ്രി	-9551
▁തമ്മില	-9552
▁അനധികൃത	-9553
▁അനുയായി	-9554
▁കര്‍ക്ക	-9555
▁കാറില്‍	-9556
▁മക്കള്‍	-9557
സിന്റെയും	-9558
▁വാര്‍ഷിക	-9559
▁സമ്പൂര്‍	-9560
▁നിര്‍മാണം	-9561
▁വകുപ്പിന്	-9562
▁പരിധിയില്‍	-9563
▁മുന്‍കൂര്‍	-9564
▁സീറ്റുകളും	-9565
▁തളിപ്പറമ്പ്	-9566
▁തൊട്ടുപിന്ന	-9567
▁നിലപാടിലാണ്	-9568
▁പരിപാടികള്‍	-9569
▁ബിരുദാനന്തര	-9570
▁കമ്മിറ്റിയുടെ	-9571
27	-9572
റാമ	-9573
വാൻ	-9574
ർഷം	-9575
ീരിയ	-9576
▁15,	-9577
▁ബഹ്	-9578
▁സജീ	-9579
▁5000	-9580
▁കന്യ	-9581
ട്രല്‍	-9582
▁അതൊരു	-9583
▁ദ്വീപ	-9584
▁ന്‍റെ	-9585
▁വേര്‍	-9586
▁അബുദാബ	-9587
▁പങ്കിട	-9588
▁പരമ്പര	-9589
▁ഭാഗമായ	-9590
▁മുഹമ്മ	-9591
▁രാജഗോപ	-9592
▁സച്ചിൻ	-9593
ക്കുട്ടി	-9594
ിന്റെയും	-9595
▁അനാവശ്യ	-9596
▁കെട്ടിയ	-9597
▁ലാലേട്ട	-9598
▁ട്രീറ്റ്	-9599
▁ഭർത്താവ്	-9600
▁യൂണിയന്‍	-9601
ില്ലെങ്കിൽ	-9602
▁ബീഹാറില്‍	-9603
പ്പെടുത്തും	-9604
▁അമരീന്ദര്‍	-9605
▁കമ്മീഷണര്‍	-9606
▁തോന്നുന്നു	-9607
▁അധ്യക്ഷനായി	-9608
▁ഉത്തർപ്രദേശ	-9609
▁കേസെടുത്തത്	-9610
▁കൗണ്‍സിലര്‍	-9611
ങ്ങളായിരുന്നു	-9612
▁അവതരിപ്പിച്ച	-9613
ിപ്പിക്കുന്നത്	-9614
▁സ്വീകരിക്കുന്ന	-9615
▁ലഭിക്കുമെന്നാണ്	-9616
വാല	-9617
വിഷ	-9618
▁66	-9619
▁73	-9620
▁തഴ	-9621
ഡിങ്	-9622
ൈല്‍	-9623
▁120	-9624
▁ഓഡി	-9625
▁നിഖ	-9626
▁ഷംസ	-9627
▁സിൽ	-9628
േക്കു	-9629
േഷനും	-9630
▁അണ്ണ	-9631
▁പ്രയ	-9632
ാതിനിധ	-9633
▁അനുശോ	-9634
▁കലാപം	-9635
▁ബോള്‍	-9636
▁മറച്ച	-9637
▁യെച്ച	-9638
▁ഹിമാച	-9639
യുണ്ടായ	-9640
▁എക്കാല	-9641
▁കൗൺസില	-9642
▁വിട്ടയ	-9643
ങ്ങളേയും	-9644
▁അതൊക്കെ	-9645
▁ഐശ്വര്യ	-9646
▁കുമ്മനം	-9647
▁പ്രദീപ്	-9648
▁സ്വീകാര	-9649
▁ഹോസ്റ്റ	-9650
▁അബ്ദുല്‍	-9651
▁നഷ്ടമായി	-9652
▁വളര്‍ത്ത	-9653
▁സൂചനയാണ്	-9654
ായിട്ടുള്ള	-9655
▁യുക്രൈന്‍	-9656
▁സമർപ്പിച്ച	-9657
▁നേരിടുന്നത്	-9658
▁മനുഷ്യാവകാശ	-9659
▁വിവാഹത്തിന്	-9660
▁വിമാനത്താവളം	-9661
▁സ്വന്തമാക്കിയ	-9662
ട്ടേ	-9663
▁നിധ	-9664
▁റാം	-9665
▁സഞ്	-9666
ോടാണ്	-9667
▁2012	-9668
▁ബ്ലെ	-9669
▁ശരദ്	-9670
▁സപ്ല	-9671
▁അവശേഷ	-9672
▁തിയ്യ	-9673
▁നേപ്പ	-9674
▁വണ്ടി	-9675
▁വെന്റ	-9676
▁സമൂഹം	-9677
പ്പിള്‍	-9678
ുമെതിരെ	-9679
▁ആരാധകർ	-9680
▁കരിപ്പ	-9681
▁ഗതാഗതം	-9682
▁നഗരസഭാ	-9683
▁ബൈക്ക്	-9684
▁സമീപനം	-9685
▁അംഗത്വം	-9686
▁അംഗീകാര	-9687
▁നടത്തണം	-9688
▁വെച്ചത്	-9689
തെങ്കിലും	-9690
മുണ്ടാകും	-9691
▁ആസൂത്രണം	-9692
▁സിനിമയിൽ	-9693
▁അതിർത്തിയ	-9694
▁ഡൊണാള്‍ഡ്	-9695
▁വാങ്ങിയത്	-9696
ണമായിരുന്നു	-9697
▁ഗാന്ധിക്ക്	-9698
്	-9699
▁	-9700
ി	-9701
ന	-9702
ക	-9703
ത	-9704
ു	-9705
ാ	-9706
ര	-9707
യ	-9708
ട	-9709
പ	-9710
ല	-9711
െ	-9712
മ	-9713
വ	-9714
ം	-9715
സ	-9716
‍	-9717
റ	-9718
ണ	-9719
ച	-9720
ള	-9721
.	-9722
ോ	-9723
േ	-9724
ങ	-9725
ദ	-9726
അ	-9727
ീ	-9728
എ	-9729
ഷ	-9730
ശ	-9731
ജ	-9732
ഗ	-9733
ഞ	-9734
ൂ	-9735
ർ	-9736
ധ	-9737
ഇ	-9738
ബ	-9739
ൽ	-9740
ആ	-9741
,	-9742
ഡ	-9743
ഹ	-9744
ഭ	-9745
ൊ	-9746
ഴ	-9747
ഥ	-9748
ഉ	-9749
ൻ	-9750
ൾ	-9751
ഒ	-9752
ഫ	-9753
0	-9754
ൈ	-9755
1	-9756
2	-9757
ഖ	-9758
ൃ	-9759
5	-9760
3	-9761
4	-9762
ഈ	-9763
ഏ	-9764
ഘ	-9765
-	-9766
9	-9767
ഓ	-9768
6	-9769
7	-9770
ൗ	-9771
8	-9772
:	-9773
)	-9774
(	-9775
ൺ	-9776
ഐ	-9777
'	-9778
;	-9779
?	-9780
ഠ	-9781
"	-9782
!	-9783
/	-9784
a	-9785
e	-9786
ഛ	-9787
i	-9788
n	-9789
o	-9790
ഔ	-9791
t	-9792
r	-9793
s	-9794
ഊ	-9795
ഢ	-9796
l	-9797
w	-9798
c	-9799
%	-9800
m	-9801
ൌ	-9802
d	-9803
ഃ	-9804
h	-9805
A	-9806
I	-9807
g	-9808
p	-9809
S	-9810
u	-9811
C	-9812
P	-9813
v	-9814
k	-9815
M	-9816
R	-9817
y	-9818
T	-9819
D	-9820
E	-9821
B	-9822
f	-9823
L	-9824
ഋ	-9825
b	-9826
N	-9827
F	-9828
O	-9829
V	-9830
W	-9831
K	-9832
&	-9833
G	-9834
·	-9835
#	-9836
U	-9837
H	-9838
*	-9839
ഝ	-9840
J	-9841
+	-9842
x	-9843
ൡ	-9844
@	-9845
=	-9846
]	-9847
[	-9848
∙	-9849
j	-9850
Y	-9851
X	-9852
•	-9853
_	-9854
൪	-9855
൯	-9856
️	-9857
z	-9858
q	-9859
$	-9860
ा	-9861
Q	-9862
Z	-9863
क	-9864
′	-9865
°	-9866
₹	-9867
र	-9868
े	-9869
‐	-9870
ि	-9871
्	-9872
൦	-9873
🔘	-9874
न	-9875
்	-9876
\	-9877
य	-9878
स	-9879
ब	-9880
व	-9881
⁄	-9882
❤	-9883
>	-9884
म	-9885
ൿ	-9886
⃣	-9887
▪	-9888
द	-9889
ह	-9890
ட	-9891
ഌ	-9892
👉	-9893
}	-9894
ग	-9895
♥	-9896
£	-9897
ډ	-9898
ं	-9899
ए	-9900
त	-9901
थ	-9902
प	-9903
ल	-9904
ी	-9905
❓	-9906
⬛	-9907
︎	-9908
🏻	-9909
🙏	-9910
{	-9911
ڇ	-9912
ڈ	-9913
अ	-9914
औ	-9915
ज	-9916
ट	-9917
ण	-9918
ध	-9919
भ	-9920
श	-9921
ष	-9922
ो	-9923
ौ	-9924
া	-9925
க	-9926
ப	-9927
ம	-9928
ய	-9929
ி	-9930
€	-9931
👌	-9932
👏	-9933
💎	-9934
💚	-9935
🔥	-9936
🔸	-9937
😍	-9938
😘	-9939
🚩	-9940
🤝	-9941
<	-9942
`	-9943
	-9944
¥	-9945
×	-9946
â	-9947
ñ	-9948
आ	-9949
इ	-9950
च	-9951
ठ	-9952
।	-9953
ং	-9954
ব	-9955
ল	-9956
அ	-9957
ஆ	-9958
ச	-9959
ண	-9960
த	-9961
ன	-9962
ல	-9963
வ	-9964
ீ	-9965
ு	-9966
ெ	-9967
ை	-9968
‟	-9969
◼	-9970
◾	-9971
♀	-9972
✌	-9973
✨	-9974
➡	-9975
ブ	-9976
ム	-9977
ラ	-9978
ル	-9979
ー	-9980
南	-9981
容	-9982
湘	-9983
美	-9984
	-9985
🎖	-9986
🐟	-9987
👇	-9988
🖤	-9989
🗃	-9990
😄	-9991
🙄	-9992
🤔	-9993
🤣	-9994
🤦	-9995
🥛	-9996
