<unk>	0
<s>	0
</s>	0
▁്	-0
▁ക	-1
ന്	-2
▁ു	-3
▁ി	-4
▁‍	-5
▁ത	-6
▁പ	-7
്ക	-8
ന്ന	-9
▁ാ	-10
▁വ	-11
▁മ	-12
▁സ	-13
▁യ	-14
▁.	-15
്ത	-16
▁ന	-17
ണ്	-18
▁ക്ക	-19
്ര	-20
▁ര	-21
▁അ	-22
▁ത്ത	-23
▁ച	-24
ില	-25
ട്	-26
്ച	-27
ക്ക	-28
▁ം	-29
▁െ	-30
്പ	-31
▁ുന്ന	-32
്യ	-33
▁എ	-34
ല്	-35
▁ും	-36
ര്	-37
ട്ട	-38
ും	-39
്റ	-40
▁ഇ	-41
ങ്	-42
ത്ത	-43
ങ്ങ	-44
▁റ	-45
▁ആ	-46
യി	-47
▁ന്	-48
▁പ്പ	-49
▁ല	-50
ടെ	-51
▁,	-52
▁മാ	-53
ള്	-54
▁ച്ച	-55
▁ബ	-56
▁ജ	-57
▁ദ	-58
ിന	-59
▁ോ	-60
▁ട	-61
▁ങ്ങ	-62
▁നി	-63
▁േ	-64
▁വി	-65
ണ്ട	-66
▁ശ	-67
▁ുക	-68
▁പ്ര	-69
▁ില	-70
ല്ല	-71
സ്	-72
ാര	-73
▁ത്	-74
തി	-75
ക്	-76
ള്ള	-77
▁ഗ	-78
ച്ച	-79
രു	-80
▁ുന്നു	-81
റ്റ	-82
▁ഉ	-83
▁മു	-84
▁യു	-85
▁ാണ്	-86
ഞ്	-87
▁െന്ന	-88
ിയ	-89
▁യാ	-90
രി	-91
▁യില	-92
▁ിക്ക	-93
▁തി	-94
▁്ര	-95
▁സ്	-96
റെ	-97
▁ാന	-98
മാ	-99
െട	-100
▁ഒ	-101
ത്ര	-102
▁ങ്ങള	-103
▁ീ	-104
പ്പ	-105
▁ണ	-106
▁ത്തില	-107
▁ഡ	-108
ഞ്ഞ	-109
▁ഷ	-110
▁എന്ന	-111
▁ര്	-112
▁ിയ	-113
▁്യ	-114
▁യി	-115
▁ർ	-116
ക്ഷ	-117
▁ിന	-118
▁1	-119
▁ൂ	-120
▁സം	-121
▁ഭ	-122
▁ചെ	-123
▁രാ	-124
▁കോ	-125
▁2	-126
ത്	-127
▁ഹ	-128
▁ട്ട	-129
▁പറ	-130
▁ക്ക്	-131
▁കു	-132
▁ിര	-133
ടി	-134
▁ഫ	-135
▁ുള്ള	-136
ണ്ട്	-137
▁ത്തിന	-138
▁നട	-139
▁0	-140
യിര	-141
വി	-142
▁ിച്ച	-143
▁നേ	-144
▁കള	-145
▁പോ	-146
▁പ്പെട	-147
ങ്ക	-148
▁ില്ല	-149
ദേ	-150
▁കേ	-151
▁ള	-152
▁ചെയ	-153
▁ന്ന	-154
▁ുന്നത	-155
▁ദ്	-156
▁ിൽ	-157
▁യും	-158
▁റ്റ	-159
ാണ	-160
▁പി	-161
▁സി	-162
▁ത്തി	-163
▁ിട്ട	-164
▁വര	-165
▁ഞ	-166
▁വാ	-167
ാന	-168
ില്	-169
▁യുടെ	-170
ഴി	-171
▁ൊ	-172
▁ിന്	-173
▁പാ	-174
്മ	-175
▁്ട	-176
▁ടു	-177
▁കൊ	-178
▁സമ	-179
▁ന്ത	-180
ധി	-181
▁സാ	-182
ോഗ	-183
▁്റെ	-184
▁നിന്ന	-185
▁ുമ	-186
▁പേ	-187
▁സ്വ	-188
▁്ത്ര	-189
▁രി	-190
▁ഗ്ര	-191
▁ഒരു	-192
▁താ	-193
റി	-194
്യാ	-195
▁തു	-196
▁പറഞ്ഞ	-197
▁ുണ്ട്	-198
▁ാന്	-199
▁ുകള	-200
▁വെ	-201
▁പു	-202
▁ൻ	-203
▁മന	-204
▁ക്	-205
▁യെ	-206
▁ില്	-207
▁കാര	-208
▁നാ	-209
▁േക്ക	-210
▁ുകയ	-211
സ്ഥ	-212
▁ബി	-213
▁്ത്രി	-214
▁ത്തെ	-215
▁ഈ	-216
ന്ന്	-217
▁കാ	-218
▁ന്ദ	-219
▁ഏ	-220
▁ായ	-221
▁ുടെ	-222
▁3	-223
രെ	-224
▁അത	-225
▁ക്കാര	-226
▁യാണ്	-227
ക്ത	-228
ഭി	-229
കള	-230
▁രാജ	-231
▁5	-232
▁റി	-233
▁തിന	-234
താ	-235
▁-	-236
▁ഓ	-237
▁4	-238
രണ	-239
രാ	-240
ീസ	-241
▁ദ്ദേ	-242
ംഗ	-243
ഷ്	-244
▁അവ	-245
▁ന്ദ്ര	-246
▁യില്	-247
▁കൂ	-248
▁തെ	-249
▁ധ	-250
▁രു	-251
▁ിന്റെ	-252
ണി	-253
▁ുറ	-254
▁ചെയ്ത	-255
ന്നെ	-256
▁ാല	-257
▁ായി	-258
▁ായിര	-259
▁യിൽ	-260
▁ടുത്ത	-261
ന്ത	-262
▁നടത്ത	-263
▁തന്നെ	-264
▁ചെയ്യ	-265
▁ണ്ട	-266
നി	-267
▁കെ	-268
▁സ്ഥ	-269
ില്ല	-270
▁തീ	-271
▁വീ	-272
▁പ്പോ	-273
▁േക്ക്	-274
▁മാണ്	-275
▁:	-276
▁ത്തിൽ	-277
പി	-278
ളി	-279
▁ഇത	-280
▁പറയ	-281
▁ഴി	-282
▁തുട	-283
▁വും	-284
്റ്റ	-285
▁ൽ	-286
മ്മ	-287
▁യ്ക	-288
▁ട്ടി	-289
ണ്ടാ	-290
▁യ്ക്ക	-291
▁9	-292
രം	-293
▁ാൻ	-294
▁ടി	-295
▁ണ്	-296
▁6	-297
▁നിയ	-298
ധ്യ	-299
▁പോല	-300
▁സ്റ്റ	-301
▁രോഗ	-302
▁ൈ	-303
▁എം	-304
▁ങ്ങൾ	-305
▁വേ	-306
▁ദ്ദേഹ	-307
ല്ലാ	-308
▁ുമാ	-309
െടു	-310
▁ാല്	-311
വാ	-312
▁തിര	-313
▁നല്	-314
▁സംസ്ഥ	-315
സി	-316
▁(	-317
▁7	-318
▁േണ്ട	-319
കര	-320
▁മെ	-321
്രമ	-322
ദ്യ	-323
ന്ധ	-324
▁ഖ	-325
▁ത്ത്	-326
രള	-327
▁മുഖ	-328
▁ബാ	-329
▁െങ്ക	-330
▁ുകയാണ	-331
ടു	-332
▁ഞെടു	-333
ന്റ	-334
▁ുത്ത	-335
▁രൂ	-336
▁)	-337
▁ക്കാ	-338
▁കോണ്	-339
▁ക്ഷ	-340
ുമ	-341
▁8	-342
▁സര്	-343
ിവ	-344
ശ്യ	-345
▁കാര്യ	-346
▁ത്ര	-347
▁ഴിഞ്ഞ	-348
േശ	-349
▁ന്ത്യ	-350
▁ജന	-351
▁ിക	-352
▁ഡി	-353
ായ	-354
▁ക്കും	-355
വര	-356
▁മ്പ	-357
▁്യക്ത	-358
▁ഴ	-359
▁ഭാ	-360
▁മേ	-361
▁കേരള	-362
▁ശേ	-363
ജെ	-364
▁്പ	-365
▁നില	-366
▁ാവ	-367
▁നേതാ	-368
▁ിനെ	-369
▁്രതി	-370
ജെപ	-371
▁ബിജെപ	-372
▁കണ്	-373
▁ിപ്പ	-374
▁സു	-375
▁ചി	-376
▁ാക്ക	-377
കരി	-378
▁്ഥ	-379
▁പൊ	-380
▁മായ	-381
▁പക്ഷ	-382
▁ഐ	-383
▁വല	-384
▁തോ	-385
▁ഗ്രസ്	-386
ദി	-387
▁തിരഞ്	-388
ഡി	-389
▁രൂപ	-390
▁അതേ	-391
ോധ	-392
മ്പ	-393
ാട	-394
▁ലോ	-395
▁ൾ	-396
▁എത്ത	-397
വര്	-398
▁ോട	-399
▁എസ്	-400
▁യായിര	-401
▁ല്	-402
▁യിലെ	-403
▁ദിവ	-404
▁വര്	-405
▁സംഘ	-406
▁യോ	-407
▁പ്പ്	-408
▁ിന്ന	-409
▁വർ	-410
▁മ്മ	-411
വിഡ	-412
▁സീ	-413
▁ലഭി	-414
▁ാണ	-415
▁ദ്ധ	-416
▁നിര്	-417
▁രാജ്യ	-418
ട്ടി	-419
▁ക്കള	-420
▁വൈ	-421
▁വന്ന	-422
▁ദിവസ	-423
▁ബന്ധ	-424
▁ശേഷ	-425
▁ുകയും	-426
▁നിര	-427
സമ	-428
ര്യ	-429
മാന	-430
▁ഇട	-431
▁വിജ	-432
▁മുന്ന	-433
▁നിയമ	-434
▁ുകൾ	-435
ദ്	-436
▁ട്ര	-437
▁ാത്ത	-438
▁ആവ	-439
▁യം	-440
▁െതി	-441
▁കൾ	-442
▁ലക്ഷ	-443
▁ഘ	-444
▁ധി	-445
▁ജില്ല	-446
▁അതേസമ	-447
▁മുഖ്യ	-448
ോട്ട	-449
ീയ	-450
▁ശി	-451
▁പേര്	-452
▁ദേശ	-453
▁ുറത്ത	-454
▁അന	-455
▁ആവശ്യ	-456
ിര	-457
▁ള്ള	-458
▁സ്വദേ	-459
▁ിലും	-460
തെ	-461
ുക	-462
ലി	-463
▁ത്വ	-464
രോ	-465
▁സർ	-466
▁മറ്റ	-467
▁ീകരി	-468
▁തെന്ന	-469
▁ജോ	-470
▁'	-471
▁പരി	-472
▁ുട	-473
▁ജീ	-474
്യാപ	-475
▁എന്	-476
പടി	-477
▁ആശ	-478
ഷ്ട	-479
▁ലി	-480
▁ൃ	-481
▁സഭ	-482
▁റിപ്പ	-483
ഞ്ച	-484
▁പൂ	-485
ായി	-486
▁ംബ	-487
▁എന്ന്	-488
യും	-489
▁ാം	-490
▁ോര്	-491
▁ടുക്ക	-492
▁ണമ	-493
▁ജി	-494
▁െത്ത	-495
▁ല്ല	-496
▁ഇത്	-497
ുടെ	-498
▁വലിയ	-499
▁എല്ലാ	-500
▁പേര	-501
യാ	-502
▁സഹ	-503
▁നൽ	-504
▁പാര്	-505
▁ോടതി	-506
ശ്	-507
▁യോഗ	-508
▁ഞ്ച	-509
▁മി	-510
രുമ	-511
▁പോലീസ	-512
▁ചോ	-513
മി	-514
▁കാണ	-515
▁സംഭ	-516
▁ഉപ	-517
▁െതിരെ	-518
▁;	-519
▁ാർ	-520
▁പരാ	-521
ത്യ	-522
▁ണം	-523
▁ങ്ക	-524
▁ക്കി	-525
▁തിരു	-526
▁നൽക	-527
▁യാണ	-528
▁നീ	-529
▁ഷ്	-530
▁ഉണ്ടാ	-531
▁അറി	-532
▁അറിയി	-533
▁യുള്ള	-534
ണം	-535
▁മായി	-536
തു	-537
▁ുണ്ട	-538
▁അറ	-539
തല	-540
▁്രവര്	-541
▁മാത്ര	-542
ാല	-543
▁ന്ന്	-544
വേ	-545
▁രീ	-546
▁ംഗ	-547
▁ുകള്	-548
▁ച്ച്	-549
▁തിരി	-550
▁സീറ്റ	-551
▁ിട	-552
▁ഭാഗ	-553
▁ക്കു	-554
▁ഗ്രസ	-555
▁ധിക	-556
▁ന്നാ	-557
▁മോ	-558
ദേശ	-559
▁ണ്ട്	-560
▁ചേ	-561
▁ത്രി	-562
▁വരെ	-563
▁പെ	-564
▁്റ്റ	-565
▁യിര	-566
▁ികള	-567
▁ൂടു	-568
▁ഏറ്റ	-569
▁ങ്ങന	-570
▁ച്ചു	-571
▁വില	-572
ിനി	-573
▁ുമായി	-574
▁ശക്ത	-575
▁അഭി	-576
ടന	-577
▁പ്പോള	-578
▁അനു	-579
വർ	-580
▁ങ്ങനെ	-581
▁റെ	-582
ോട	-583
▁േണ്ടി	-584
▁പിടി	-585
▁രിശ	-586
▁തിരുവ	-587
▁ോള	-588
▁തീരുമ	-589
▁യൂ	-590
▁ൗ	-591
▁വയ	-592
▁അത്	-593
▁ാതെ	-594
▁രിശോധ	-595
▁വോട്ട	-596
▁ടക്ക	-597
▁ാഗ	-598
▁ഥ	-599
▁സ്ഥാന	-600
▁പങ്ക	-601
▁അന്	-602
▁്പോ	-603
ാണ്	-604
▁കി	-605
▁ിത	-606
▁നടപടി	-607
▁ക്രമ	-608
▁ത്തന	-609
▁ോട്ട	-610
▁ിലെ	-611
▁മുണ്ട	-612
ിത	-613
▁കൈ	-614
▁ുര	-615
▁്വ	-616
ങ്ങള	-617
ടിയ	-618
▁ജെ	-619
▁ഡോ	-620
മായ	-621
ീപ	-622
▁മാര	-623
ചര	-624
▁രാഷ്ട	-625
▁പോക	-626
▁കോൺ	-627
▁ശ്രമ	-628
▁രണ്ട്	-629
തിയ	-630
▁നേത	-631
▁സൂ	-632
▁്ട്	-633
▁ിൻ	-634
ുപ	-635
▁ഇന്ന്	-636
▁നേതൃ	-637
▁ിറ്റ	-638
▁ാറ്റ	-639
▁പുതിയ	-640
▁നേര	-641
▁ശേഷം	-642
▁ത്ഥ	-643
▁വെന്ന	-644
▁ഞ്ഞ	-645
▁നന്ത	-646
▁സമയ	-647
▁അന്വേ	-648
▁ക്ര	-649
▁ിച്ച്	-650
ഴ്	-651
യില	-652
▁നടക്ക	-653
▁തൊ	-654
▁പല	-655
▁ൊരു	-656
ക്ക്	-657
▁നിർ	-658
▁ഞാ	-659
▁ഓഫ	-660
▁ആര്	-661
▁സാഹ	-662
▁കള്	-663
ുംബ	-664
▁നു	-665
▁കിയ	-666
▁ആശുപ	-667
▁ഭരണ	-668
▁പര	-669
▁്ഥിര	-670
▁മുത	-671
▁നടന്ന	-672
▁ക്കാർ	-673
▁ആണ്	-674
▁കുപ്പ	-675
▁ുള്ളത	-676
▁മണി	-677
▁കാല	-678
▁വെച്ച	-679
▁വിഷ	-680
▁ാത്ര	-681
▁ആരോ	-682
▁ബ്	-683
▁മണ്	-684
▁യായ	-685
▁്രീയ	-686
▁താണ്	-687
▁നേതാവ	-688
വിധ	-689
▁രോഗ്യ	-690
▁്ല	-691
▁ങ്ങള്	-692
▁സെ	-693
▁കളില	-694
▁വിജയ	-695
▁ഏറ്റവ	-696
▁ആദ്യ	-697
▁കുറി	-698
▁കണ്ട	-699
▁തല	-700
▁ഷണ	-701
▁ിംഗ	-702
ീകര	-703
വിടെ	-704
▁ുവ	-705
▁ശത	-706
▁സൗ	-707
▁കണ്ണ	-708
▁കൂടി	-709
വണ	-710
ുകള	-711
ട്ട്	-712
▁കൂട്ട	-713
▁ഖ്യാപ	-714
പാട	-715
▁സംഭവ	-716
▁ിദ	-717
▁ചില	-718
▁പുരം	-719
പ്	-720
▁ക്കിയ	-721
▁മണ്ഡ	-722
ദ്ധ	-723
ഷ്യ	-724
▁ണി	-725
▁പ്രവർ	-726
സരി	-727
▁?	-728
സര	-729
▁പാർ	-730
▁കൊവിഡ	-731
▁റ്റ്	-732
ോട്	-733
▁ീഡ	-734
▁ാധ	-735
▁മേഖ	-736
▁കേസ	-737
ത്തര	-738
▁വിഭ	-739
▁മാറ്റ	-740
▁പ്രസ	-741
▁മേഖല	-742
▁കണ്ടെ	-743
▁മണ്ഡല	-744
വന	-745
ിൽ	-746
▁വള	-747
▁മൊ	-748
▁കൃ	-749
▁ാര	-750
▁്ക	-751
▁സാഹചര	-752
ക്ട	-753
▁ഗു	-754
▁യുണ്ട	-755
▁കോവിഡ	-756
▁ഴ്ച	-757
▁തിക	-758
▁നെ	-759
▁ാക	-760
▁ശ്	-761
ന്ദ	-762
▁ിപ്പി	-763
▁ഉയ	-764
▁ിദ്യാ	-765
▁റാ	-766
▁പ്പോഴ	-767
ജി	-768
▁ിവ	-769
▁െയ	-770
▁മാക്ക	-771
▁കോടി	-772
▁സാധി	-773
▁തോടെ	-774
▁ചിത്ര	-775
▁സാധ്യ	-776
▁ലൈ	-777
▁ിനി	-778
▁ഗോ	-779
▁പൊല	-780
▁ുണ്ടാ	-781
▁വരു	-782
▁ഷ്ട	-783
▁ൂടുതല	-784
▁ശതമാന	-785
▁മൂ	-786
▁പൊലീസ	-787
ാപ	-788
▁്സ	-789
▁യെന്ന	-790
▁ഹി	-791
▁ഫോ	-792
▁ജീവി	-793
ഴിയ	-794
▁ജ്	-795
▁ട്ടറി	-796
ഹു	-797
▁മാസ	-798
▁ദ്ധതി	-799
▁പരാതി	-800
▁വിവാ	-801
▁തുടര്	-802
▁ാനി	-803
രിട	-804
▁തും	-805
▁ില്ലാ	-806
▁്രദേശ	-807
▁ന്യ	-808
▁വിഭാ	-809
▁ദ്ദേശ	-810
▁യാത്ര	-811
▁ന്റെ	-812
▁കട	-813
▁ീഡിയ	-814
▁വരുടെ	-815
▁വു	-816
▁ത്യ	-817
▁രാഹു	-818
▁ാര്യ	-819
▁െത്തി	-820
▁വിഭാഗ	-821
തിന്	-822
▁ന്നാൽ	-823
ത്ഥ	-824
▁നേരിട	-825
ിലെ	-826
▁റോ	-827
മാര	-828
▁നിങ്ങ	-829
▁ഉറ	-830
▁വഴി	-831
▁തായി	-832
▁്യൂ	-833
▁ആള	-834
▁കഴിയ	-835
▁തൃ	-836
ാരണ	-837
▁ുട്ടി	-838
▁വ്	-839
▁്ടു	-840
▁പ്പില	-841
▁ണ്ണ	-842
▁"	-843
▁ഹാ	-844
▁കര്	-845
▁ശ്ര	-846
▁തയ	-847
▁രുത്ത	-848
▁ുടുംബ	-849
▁ജനങ്ങ	-850
▁വാക്	-851
▁രംഗ	-852
▁യുമാ	-853
▁ോർ	-854
ണ്ണ	-855
▁അധ്യ	-856
▁ദു	-857
▁ഷന	-858
▁കണ	-859
▁ാര്	-860
▁ങ്ങിയ	-861
▁വീട്ട	-862
▁ിപി	-863
▁ുള	-864
▁മല്ല	-865
വരെ	-866
▁നിലവ	-867
▁ഭൂ	-868
യോഗ	-869
▁മല	-870
▁എല്	-871
▁മുന്	-872
▁ണ്ടു	-873
▁മുള്ള	-874
ഷേ	-875
▁ൊക്ക	-876
▁ാധ്യ	-877
▁വിന	-878
▁ഒഴി	-879
▁മാറ	-880
▁ടെ	-881
▁രേ	-882
ഷേധ	-883
▁സേ	-884
ശി	-885
▁ൂടെ	-886
രേ	-887
മേ	-888
▁േണ്ടത	-889
▁ന്റ	-890
▁്വീകര	-891
▁റു	-892
ഭ്യ	-893
ക്ര	-894
▁ഇക്ക	-895
▁ന്തു	-896
▁യേ	-897
▁ിസ	-898
ഴ്ച	-899
▁തില	-900
▁താര	-901
▁ഹൈ	-902
▁ിഡ	-903
▁കണ്ണൂ	-904
▁മെന്റ	-905
▁പോയ	-906
▁ിറ	-907
▁ഇല്ല	-908
▁ക്ഷേ	-909
▁അംഗ	-910
▁മില്ല	-911
▁നോ	-912
▁ൂന്ന്	-913
▁ുകളില	-914
▁ഫല	-915
▁ജോലി	-916
▁പ്പോൾ	-917
▁ാലെ	-918
▁ലാ	-919
മന	-920
▁പേക്ഷ	-921
▁ിവര	-922
▁ഉപയോഗ	-923
▁ഉറപ്പ	-924
തിര	-925
▁െക്ര	-926
▁ഉണ്ട	-927
▁രിക്ക	-928
▁ചോദ്യ	-929
▁ത്സരി	-930
▁ാമ	-931
▁ക്കാന	-932
▁വിളി	-933
▁സിനി	-934
▁ോർട്ട	-935
▁ആയിര	-936
▁മത്	-937
▁കുറ	-938
ഗ്	-939
ഹന	-940
▁ാന്ധ	-941
▁സിനിമ	-942
▁ഭാര	-943
▁ധാന	-944
▁രോഗം	-945
▁രക്ഷ	-946
▁വാര്	-947
▁എണ്ണ	-948
▁ളുടെ	-949
▁ഉള്ള	-950
▁ാൽ	-951
▁വിശ	-952
▁ബ്ര	-953
▁മരണ	-954
ിതി	-955
▁ഓഫീസ	-956
▁റിയ	-957
▁നും	-958
▁പ്പു	-959
സാന	-960
▁വാദ	-961
▁തൊഴ	-962
▁ൊക്കെ	-963
ക്ഷണ	-964
▁ഉള്	-965
▁ചിക	-966
▁യ്	-967
▁മഹ	-968
▁പോലും	-969
ശ്വ	-970
▁അഞ്ച	-971
▁ന്തുണ	-972
ിക	-973
സ്സ	-974
▁ോദി	-975
▁ാധ്യമ	-976
▁യർ	-977
▁കര	-978
എം	-979
▁തയ്യാ	-980
▁റ്റി	-981
▁ാനാ	-982
ധാന	-983
▁ഒന്ന	-984
▁്രധാന	-985
▁ശ്രീ	-986
▁ഫ്	-987
▁അറിയ	-988
▁ംബന്ധ	-989
▁എത്തി	-990
▁ധാനമന	-991
▁വിട	-992
▁വിഷയ	-993
▁പ്രായ	-994
▁നായ	-995
▁ഇവിടെ	-996
▁്ത്രീ	-997
▁ത്തോട	-998
▁സ്ത	-999
▁നീക്ക	-1000
▁അവര്	-1001
▁രാഹുല	-1002
▁ുകാര	-1003
▁സൈ	-1004
ാമ	-1005
കട	-1006
▁മായിര	-1007
▁വ്യാപ	-1008
▁ചര്	-1009
▁വിമ	-1010
▁ത്യേ	-1011
▁ശ്രമി	-1012
▁ജീവിത	-1013
▁മരി	-1014
▁ചികിത	-1015
ീഷ	-1016
▁ാളി	-1017
▁കോഴി	-1018
▁തുടര	-1019
▁ക്കൂ	-1020
▁ാറ	-1021
ഡിഎ	-1022
▁യുഡിഎ	-1023
▁സാമ്പ	-1024
▁ലോക	-1025
▁!	-1026
▁തിഷേധ	-1027
▁െല്ലാ	-1028
▁യ്യ	-1029
▁നമ്മ	-1030
▁പങ്കെ	-1031
▁വിശ്വ	-1032
▁നഗ	-1033
▁മുതല്	-1034
▁കമ്മ	-1035
▁ശന	-1036
▁ന്ത്ര	-1037
▁തന്	-1038
▁കണക്ക	-1039
▁സഭാ	-1040
▁ുധ	-1041
▁ത്യേക	-1042
▁ാസ	-1043
▁വരും	-1044
രുത	-1045
▁ദ്ദ	-1046
▁ൺ	-1047
▁പൊതു	-1048
▁വിമാന	-1049
▁യായി	-1050
▁പൂര്	-1051
▁കുറ്റ	-1052
▁തീക്ഷ	-1053
▁ആർ	-1054
▁ുളള	-1055
▁ിംഗ്	-1056
▁വുമ	-1057
▁പഞ്ച	-1058
▁ചോദി	-1059
▁ത്തു	-1060
▁്ത	-1061
▁കോഴിക	-1062
▁വാങ്ങ	-1063
▁ലു	-1064
▁ൊപ്പ	-1065
▁ഇതിന	-1066
▁െടെ	-1067
േജ	-1068
▁ന്തര	-1069
▁ഉദ്യ	-1070
▁ോട്	-1071
▁ശക്തമ	-1072
▁ആരം	-1073
ൂഹ	-1074
▁സംഘടന	-1075
വിട	-1076
കാ	-1077
▁നില്	-1078
▁എന്ത	-1079
▁തുവരെ	-1080
▁ധികാര	-1081
▁മറ്റ്	-1082
▁ആരംഭി	-1083
▁ാത്രം	-1084
▁10	-1085
▁വെള്ള	-1086
▁യത്ത	-1087
▁കാരണം	-1088
▁ുമാണ്	-1089
▁സ്ഥല	-1090
▁പ്	-1091
ഴു	-1092
▁വീണ്ട	-1093
ോടെ	-1094
▁ിത്ത	-1095
▁രേഖ	-1096
▁ശാ	-1097
▁പ്പി	-1098
▁മുൻ	-1099
▁രണ്ട	-1100
▁ലക്ഷം	-1101
ോഷ	-1102
▁മുമ്പ	-1103
ശ്ച	-1104
▁തേ	-1105
▁ൊപ്പം	-1106
▁മാണ	-1107
▁എന്നത	-1108
▁്കോട്	-1109
സാര	-1110
▁തന്റെ	-1111
▁ന്നും	-1112
▁പഞ്ചാ	-1113
▁വച്ച	-1114
▁ിഡന്റ	-1115
▁ണറ	-1116
▁രീതി	-1117
▁ില്ലി	-1118
▁നൽകിയ	-1119
▁നം	-1120
▁പേർ	-1121
▁ഇരു	-1122
▁ിലാ	-1123
▁്പോള്	-1124
▁ബോ	-1125
▁െന്ന്	-1126
▁എഫ	-1127
▁ഇനി	-1128
▁സമീപ	-1129
▁ഇവര്	-1130
വ്	-1131
പണ	-1132
▁രണ്ടാ	-1133
യ്	-1134
▁രാശി	-1135
▁ആര	-1136
▁ഇതോടെ	-1137
▁േറ്റ	-1138
▁തെളി	-1139
▁ഡിഎ	-1140
മാറ	-1141
▁െട	-1142
ക്കി	-1143
▁ിലപാട	-1144
▁സമ്പ	-1145
▁എൽ	-1146
▁വിവര	-1147
▁മീ	-1148
▁വളരെ	-1149
▁തര	-1150
▁ദേശീയ	-1151
▁വർഷ	-1152
▁ഘട്ട	-1153
▁ിയത്	-1154
▁സമ്മ	-1155
▁ഉയര്	-1156
▁ിനിടെ	-1157
▁അപ	-1158
▁സൂച	-1159
▁േസ	-1160
▁സഖ	-1161
▁ആരോപണ	-1162
▁്രദ്ധ	-1163
റു	-1164
വധ	-1165
▁ാനാണ്	-1166
▁ല്ലാ	-1167
▁്ടി	-1168
▁നിരവധ	-1169
▁ചേര്	-1170
▁/	-1171
▁നല്ല	-1172
▁ത്തവണ	-1173
▁കരുത	-1174
▁ഭാഗമാ	-1175
ീവ	-1176
▁ാനും	-1177
▁ാണി	-1178
▁തിന്	-1179
▁മെഡി	-1180
▁ജോസ	-1181
▁ദേ	-1182
ത്ത്	-1183
▁േയും	-1184
▁വൈറ	-1185
▁ആഗ	-1186
പാ	-1187
▁ആക	-1188
▁വിവിധ	-1189
▁മത്സര	-1190
വദ	-1191
▁്ടിര	-1192
▁വിജയി	-1193
▁അല്ല	-1194
▁ദി	-1195
▁ഞ്	-1196
▁ത്തകര	-1197
▁അനുവദ	-1198
▁കുട്ട	-1199
ലാ	-1200
▁സിന	-1201
▁പോലെ	-1202
▁ദ്യ	-1203
▁െടു	-1204
▁്രവ	-1205
▁ള്ളി	-1206
▁പഠ	-1207
▁എഫ്	-1208
▁തെര	-1209
▁ക്കുമ	-1210
▁കൂട	-1211
▁ബാധ	-1212
▁ിലൂ	-1213
▁ക്കുറ	-1214
▁ചൂ	-1215
▁ത്തിക	-1216
▁തങ്ങ	-1217
▁വ്വ	-1218
▁ഞാന്	-1219
▁ർക്ക	-1220
▁്യം	-1221
▁ിലൂടെ	-1222
▁ഹൈക്ക	-1223
കാശ	-1224
▁തക	-1225
▁ക്രമണ	-1226
▁മാര്	-1227
▁ീട്	-1228
▁സന്	-1229
▁വിക	-1230
▁ചാ	-1231
▁ഉത്തര	-1232
▁ടിസ്ഥ	-1233
▁കുള	-1234
▁യുഎ	-1235
▁തുടർ	-1236
ണമ	-1237
▁യുവ	-1238
▁വാഹന	-1239
▁ളി	-1240
▁ണറായി	-1241
▁പ്പിന	-1242
ലെ	-1243
▁ക്യാ	-1244
▁സമര	-1245
▁ഇതിന്	-1246
▁മ്പനി	-1247
▁ക്കല്	-1248
▁ഗ്	-1249
▁അതി	-1250
▁തിനെ	-1251
്റെ	-1252
▁ത്തക	-1253
▁ഷന്	-1254
▁സംവിധ	-1255
▁പ്രശ്	-1256
മസ	-1257
▁തികരി	-1258
▁ടീ	-1259
▁യില്ല	-1260
▁ുത്തി	-1261
▁നാട്ട	-1262
▁തട	-1263
▁കേസ്	-1264
▁എനി	-1265
▁്രവേശ	-1266
▁എൻ	-1267
▁യറ	-1268
▁മഴ	-1269
▁ഷക	-1270
▁താണ	-1271
ൃത	-1272
▁ഒരാ	-1273
▁വിവാഹ	-1274
▁്രാ	-1275
▁്ലാ	-1276
▁നഗര	-1277
▁രെ	-1278
▁ദിന	-1279
▁ലീ	-1280
▁സഖ്യ	-1281
▁ഷൻ	-1282
▁തിൽ	-1283
റോ	-1284
▁മാന	-1285
▁ിടെ	-1286
▁പാല	-1287
▁ാള	-1288
▁ലോക്	-1289
▁വിശദ	-1290
▁നാല്	-1291
▁ചൂണ്ട	-1292
▁പരിഹ	-1293
▁തവണ	-1294
▁ുകൊ	-1295
▁കർ	-1296
▁അവർ	-1297
▁പുറ	-1298
▁ട്	-1299
▁ടിച്ച	-1300
▁തൊഴില	-1301
▁സിംഗ	-1302
▁ണെ	-1303
▁തെരഞ്	-1304
▁രീക്ഷ	-1305
▁വൈക	-1306
▁പ്രാ	-1307
▁രുടെ	-1308
▁ിപിഎം	-1309
▁ാലത്ത	-1310
▁ത്താ	-1311
▁പക്ഷേ	-1312
▁ആല	-1313
▁ബാധി	-1314
▁സഹായ	-1315
▁ാർത്ഥ	-1316
▁ആരോപി	-1317
▁ഉൾ	-1318
▁ചൈ	-1319
▁ീഡിയോ	-1320
▁ാട	-1321
▁േജ	-1322
▁ന്യൂ	-1323
▁ആയ	-1324
▁രും	-1325
▁തിര്	-1326
▁നവ	-1327
▁നഷ്ട	-1328
▁വികസ	-1329
▁അമേ	-1330
▁റില	-1331
▁ജീവന	-1332
▁നടപ്പ	-1333
▁ഴ്	-1334
▁ഉൾപ്പ	-1335
▁ചെന്ന	-1336
▁വ്യാ	-1337
▁ശിനി	-1338
▁വിവ	-1339
▁ക്കാട	-1340
ഷ്ണ	-1341
▁ിങ്	-1342
▁വിദേശ	-1343
▁ൊച്ച	-1344
റോണ	-1345
▁അഞ്ച്	-1346
▁ഇറ	-1347
▁ല്ലാം	-1348
▁ിറ്റി	-1349
▁കൊറോണ	-1350
▁ഷി	-1351
▁ഫി	-1352
▁അന്ത	-1353
▁വ്യ	-1354
▁കളെ	-1355
▁ചൈന	-1356
▁ികച്ച	-1357
▁മുതൽ	-1358
▁ച്ചെ	-1359
▁റുപടി	-1360
▁സ്ഥാപ	-1361
▁ീക്ഷണ	-1362
▁ൊച്ചി	-1363
▁സമയം	-1364
▁എന്റെ	-1365
▁പണം	-1366
▁കമ്മി	-1367
▁വിവരം	-1368
▁ീക	-1369
▁ോട്ടയ	-1370
▁തനി	-1371
▁തിനാല	-1372
▁എസ	-1373
▁ിമ	-1374
▁നേട്ട	-1375
▁ഷം	-1376
▁ലെ	-1377
▁എംഎ	-1378
▁കളുടെ	-1379
▁ഞാൻ	-1380
▁ദുര	-1381
▁ാഴ്ച	-1382
▁ക്ഷേപ	-1383
▁അമ്മ	-1384
▁അതുക	-1385
▁അമേരി	-1386
▁ത്തരം	-1387
▁്മ	-1388
▁ിയെ	-1389
▁രിപാട	-1390
▁ദില	-1391
▁മൂല	-1392
▁ശിവ	-1393
▁ഭാഷ	-1394
▁യിട്ട	-1395
▁യൂണി	-1396
▁ണ്ഡ	-1397
▁ഗ്രൂ	-1398
▁അതുകൊ	-1399
▁റിന	-1400
▁ണെന്ന	-1401
▁കൃഷ്ണ	-1402
ടങ്ങ	-1403
തൽ	-1404
▁ഇടപ	-1405
▁ട്ടിക	-1406
▁തമ്മ	-1407
▁ജയ	-1408
▁ധന	-1409
▁ണ്ടാണ	-1410
▁നുമ	-1411
▁േഷ	-1412
▁ക്കൊ	-1413
▁ടക്കം	-1414
▁ാലും	-1415
▁ക്കര	-1416
▁കാരം	-1417
▁്റ	-1418
▁സംസാര	-1419
▁വന്	-1420
▁്യു	-1421
ണാ	-1422
▁അയ	-1423
▁പ്രീ	-1424
▁ദേവ	-1425
▁ാവിലെ	-1426
▁ഓരോ	-1427
▁ാര്യം	-1428
▁ാലി	-1429
▁അപകട	-1430
▁മത	-1431
▁ക്കൂറ	-1432
▁വന	-1433
▁ൂടുതൽ	-1434
▁ആളുകള	-1435
▁തികരണ	-1436
▁സംഭവി	-1437
▁ടിക്ക	-1438
▁എറ	-1439
▁സിപി	-1440
▁ഞ്ജ	-1441
▁്രോ	-1442
▁കാണി	-1443
▁എറണാ	-1444
▁ാപ	-1445
▁ട്ട്	-1446
▁ഇടപെട	-1447
▁ീകരണ	-1448
▁തൃശ	-1449
▁ഹമ്മ	-1450
▁ഹമ്മദ	-1451
▁്റ്റേ	-1452
▁ത്രണ	-1453
▁കളും	-1454
▁നിയന്	-1455
▁തൃശൂ	-1456
▁അട	-1457
▁ജൂ	-1458
▁ഇന്	-1459
▁ക്കൾ	-1460
▁ദിലീപ	-1461
▁കീ	-1462
▁ോളേജ	-1463
▁ഷ്യ	-1464
▁വിവാദ	-1465
യാള	-1466
▁ബ്ദ	-1467
▁ഡിഎഫ	-1468
▁ധികം	-1469
▁റിഞ്ഞ	-1470
▁അതിന	-1471
▁ങ്ങി	-1472
▁നാഥ	-1473
▁സ്വര്	-1474
▁ൂർ	-1475
▁ഷ്ട്ര	-1476
▁ോസ	-1477
▁തിരെ	-1478
▁പ്പുഴ	-1479
▁ുപ	-1480
▁ഒരാള	-1481
▁ർത്ഥ	-1482
▁സാമ	-1483
▁കുളം	-1484
▁െറ്റ	-1485
റിയ	-1486
▁ആകെ	-1487
▁തിരോധ	-1488
▁വരി	-1489
▁അവകാശ	-1490
▁ത്ഥി	-1491
▁ൂട	-1492
▁ഗ്രാമ	-1493
▁ുരക്ഷ	-1494
▁ചർ	-1495
▁റോഡ	-1496
▁സൂചന	-1497
▁ൂര്	-1498
▁ുറഞ്ഞ	-1499
▁ിയിര	-1500
▁വിലയി	-1501
▁ൊന്ന	-1502
ള്ളി	-1503
▁ത്തര	-1504
▁ഠ	-1505
▁എംഎല്	-1506
▁രാമ	-1507
▁യോടെ	-1508
▁ഡ്	-1509
▁ോണ	-1510
▁ഞ്ചാ	-1511
▁ചർച്ച	-1512
▁രിയ	-1513
▁പുതു	-1514
▁സന്ദ	-1515
▁ിൻ്റെ	-1516
▁ീയ	-1517
▁സമിതി	-1518
▁ാതിര	-1519
ൂല	-1520
▁ളവ	-1521
▁നുക	-1522
▁േരി	-1523
▁നുകൂല	-1524
▁വേണ്ട	-1525
▁േഷ്	-1526
▁എന്നീ	-1527
▁20	-1528
▁ികൾ	-1529
▁തെറ്റ	-1530
▁മെന്ന	-1531
▁നേട	-1532
▁പാലി	-1533
▁പക്ഷം	-1534
▁ഫേ	-1535
▁ുറന്ന	-1536
▁വിമര്	-1537
▁ഫോണ	-1538
▁15	-1539
▁രാജി	-1540
▁കും	-1541
▁ാഗസ്ഥ	-1542
▁പണി	-1543
▁അവസര	-1544
ത്തി	-1545
▁ഞങ്ങ	-1546
▁ഒറ്റ	-1547
▁ഫേസ്	-1548
▁നാട	-1549
▁സിന്	-1550
▁ബിഗ്	-1551
▁ാനത്ത	-1552
▁മനസ്സ	-1553
▁ടുവ	-1554
▁12	-1555
▁മക	-1556
▁േറെ	-1557
▁ഴു	-1558
▁ബാങ്ക	-1559
▁പങ്കു	-1560
▁്പോൾ	-1561
▁കൂള	-1562
▁രിഗ	-1563
സ്ത	-1564
▁ചുമ	-1565
▁വിത	-1566
▁നടി	-1567
▁ചാരണ	-1568
▁കളി	-1569
▁ിയാ	-1570
▁വാസി	-1571
▁സുരേ	-1572
▁വുമാ	-1573
▁ലം	-1574
▁ട്വ	-1575
▁പശ്ച	-1576
▁ഉദ്യേ	-1577
▁എംപി	-1578
▁ാകും	-1579
▁പാട	-1580
▁ിന്ദ	-1581
▁രിഗണി	-1582
▁ഏത	-1583
▁കയ	-1584
▁ുമോ	-1585
▁വുന്ന	-1586
▁ധ്യ	-1587
▁നേടിയ	-1588
▁ക്യ	-1589
▁ന്നയി	-1590
▁െയി	-1591
▁അതിന്	-1592
▁രമ	-1593
▁ാത്രി	-1594
▁ുരേ	-1595
▁ഭ്യാ	-1596
തീ	-1597
▁ഭ്യാസ	-1598
▁ധികൃത	-1599
▁ോടെ	-1600
▁തുക	-1601
▁വികസന	-1602
▁ഏറെ	-1603
▁്ന	-1604
▁കാര്	-1605
▁വിധി	-1606
▁പ്പം	-1607
▁കൊല്ല	-1608
▁യാക്ക	-1609
▁ൂട്ട	-1610
▁ബംഗ	-1611
▁നുമതി	-1612
▁നയി	-1613
▁െയും	-1614
▁ട്രോ	-1615
▁ുമായ	-1616
▁ുറച്ച	-1617
▁ഫേസ്ബ	-1618
▁ചെല	-1619
▁അവിടെ	-1620
▁അവസാന	-1621
▁ാവസ്ഥ	-1622
▁നങ്ങള	-1623
▁11	-1624
▁േഴ്	-1625
▁പ്പറ	-1626
▁്ച	-1627
▁സേന	-1628
▁സമൂഹ	-1629
▁വസാന	-1630
▁പരാജ	-1631
▁ഏക	-1632
▁മ്മീഷ	-1633
▁ോക്ക്	-1634
▁ാറ്റി	-1635
▁ധാ	-1636
▁മ്പര്	-1637
▁ഒഴിവാ	-1638
▁ത്തിയ	-1639
▁സന്ധി	-1640
▁ിയുടെ	-1641
▁ആയി	-1642
▁ശക്തി	-1643
▁പരാജയ	-1644
▁തമി	-1645
▁ണ്ടിര	-1646
▁ക്ട	-1647
▁ൊല്ല	-1648
▁ഇത്തര	-1649
▁താന്	-1650
▁ൂടിയ	-1651
▁മീറ്റ	-1652
▁ളെ	-1653
▁ള്	-1654
▁നോക്ക	-1655
▁ൈല	-1656
▁ടിയ	-1657
ക്ഷി	-1658
▁സംഗ	-1659
▁ടക്കമ	-1660
▁്താ	-1661
▁െഡ	-1662
ത്മ	-1663
▁ആത്മ	-1664
▁അക്ക	-1665
▁യുവാ	-1666
▁ത്തല	-1667
▁പിന്	-1668
▁ആദ്യം	-1669
▁ആശങ്ക	-1670
▁ആണ	-1671
▁ാത	-1672
▁സത്യ	-1673
▁മൂന്ന	-1674
▁യര്	-1675
▁ീറ്റ	-1676
▁പീ	-1677
▁മുട്ട	-1678
▁ക്രി	-1679
▁ഇടതു	-1680
▁മലപ്പ	-1681
▁വസാനി	-1682
▁ൂടിയാ	-1683
▁നരേ	-1684
▁ഗവ	-1685
▁പൂർ	-1686
▁മറ്റു	-1687
▁ബാല	-1688
▁പദ	-1689
നാട	-1690
▁ാണ്ട	-1691
▁വയനാട	-1692
▁വില്ല	-1693
▁രോഗി	-1694
▁വിരു	-1695
▁കക്ഷി	-1696
▁രജി	-1697
▁വേഗ	-1698
▁സംശ	-1699
▁ഭാര്യ	-1700
▁ഭൂരി	-1701
▁സൗദി	-1702
▁തിനാ	-1703
▁വെളി	-1704
▁ൈറ്റ	-1705
▁ാരണ	-1706
▁ിറങ്ങ	-1707
▁24	-1708
▁ബെ	-1709
▁ആഗ്ര	-1710
▁തിർ	-1711
▁ാപ്പ	-1712
▁ചേർ	-1713
▁ആറ	-1714
വസ	-1715
▁ിൽക്ക	-1716
▁ന്തം	-1717
▁സിംഗ്	-1718
▁ുധാ	-1719
▁ൂടാ	-1720
▁ക്ല	-1721
▁സംശയ	-1722
▁രം	-1723
▁ക്രമി	-1724
യം	-1725
▁മുസ്	-1726
▁ലഭ്യ	-1727
▁പ്പറേ	-1728
▁്ഥിതി	-1729
▁ഫലം	-1730
▁ലും	-1731
▁പ്പിൽ	-1732
▁ുവരി	-1733
▁ിരി	-1734
▁ാരാ	-1735
▁പുന	-1736
ഭവ	-1737
▁രോ	-1738
▁റിയി	-1739
▁ുഞ്ഞ	-1740
▁തമിഴ്	-1741
▁ിസ്	-1742
▁ഇതില്	-1743
▁്റ്റാ	-1744
▁തീവ	-1745
▁കൗ	-1746
▁ഹരി	-1747
▁കൊണ്ട	-1748
▁ീന	-1749
▁ല്‍	-1750
▁വശ്യ	-1751
▁ാങ്ക	-1752
▁കിട്ട	-1753
▁ുഴ	-1754
▁കുന്ന	-1755
▁ിഴ	-1756
▁ൂടാതെ	-1757
▁അസ	-1758
▁ൗണ്ട	-1759
▁വൃ	-1760
▁ൊല്ലം	-1761
▁അന്ന്	-1762
▁ുധാകര	-1763
▁നന്ദ	-1764
▁ുറം	-1765
▁ാക്കി	-1766
▁ഫാ	-1767
▁കുമ	-1768
▁ത്തരവ	-1769
▁ഗാ	-1770
▁കുമാര	-1771
▁മാർ	-1772
▁റ്റീവ	-1773
▁പ്രീം	-1774
▁ദാ	-1775
▁വീസ	-1776
ത്തെ	-1777
▁ഭൂമി	-1778
▁ന്തോഷ	-1779
▁ശരി	-1780
▁ീസ്	-1781
▁ആഗ്രഹ	-1782
▁േസില്	-1783
▁ബഹ	-1784
▁കില	-1785
▁്രക	-1786
▁പോരാ	-1787
▁വെക്ക	-1788
▁മുഴു	-1789
▁ക്ത	-1790
ശ്ന	-1791
▁്രശ്ന	-1792
▁ാധാരണ	-1793
▁ക്രൈ	-1794
▁എക്	-1795
▁നിറ	-1796
▁പറ്റ	-1797
▁രണ്ടു	-1798
▁യൂട്ട	-1799
▁രജിസ്	-1800
▁ുവി	-1801
▁ക്കോ	-1802
▁്രൈ	-1803
▁്ടത്	-1804
▁ണാട	-1805
▁വനി	-1806
▁കര്യ	-1807
▁നൂ	-1808
▁ിച്ചേ	-1809
▁താഴ	-1810
▁യോട്	-1811
▁ഔ	-1812
▁ത്തനം	-1813
▁വനിത	-1814
▁തിട്ട	-1815
▁ക്കുക	-1816
▁ണാടക	-1817
▁പേരെ	-1818
ളന	-1819
▁വീണ	-1820
▁ശ്വാ	-1821
▁പേരില	-1822
▁മുഴുവ	-1823
▁റിസ	-1824
▁മന്ത	-1825
▁ാട്ട	-1826
▁പൗ	-1827
▁ക്കം	-1828
▁കുമാറ	-1829
▁അഡ	-1830
▁യാള	-1831
▁ജാ	-1832
▁നാണ്	-1833
▁്മേ	-1834
▁കളിൽ	-1835
▁മായും	-1836
▁്മേളന	-1837
▁ഭീഷ	-1838
ർശ	-1839
▁തിനി	-1840
▁റഷ്യ	-1841
▁ൂന്ന	-1842
ബു	-1843
▁്യത	-1844
▁ഭീഷണി	-1845
▁ഗതി	-1846
▁ജ്ജ	-1847
▁ുടക്ക	-1848
▁ങ്ങളെ	-1849
▁തകര്	-1850
▁ിങ്ങ	-1851
▁വീത	-1852
▁ുക്കി	-1853
▁ീഷ	-1854
്പി	-1855
▁ത്തോ	-1856
▁ത്തേ	-1857
▁ശ്വാസ	-1858
▁ചെലവ	-1859
▁ീര	-1860
▁നുഷ്യ	-1861
▁ച്	-1862
▁നമ	-1863
▁യുവതി	-1864
▁വാക്ക	-1865
▁ുരേഷ്	-1866
▁ല്ലോ	-1867
▁വ്യവസ	-1868
▁ോളം	-1869
▁തെളിവ	-1870
▁നോട്ട	-1871
▁പേരും	-1872
▁ദൃ	-1873
▁ജയി	-1874
▁ജ്ഞ	-1875
▁ാധാന	-1876
▁മഹാ	-1877
▁ശേഖ	-1878
▁14	-1879
▁ംര	-1880
▁രണ	-1881
▁രാജ്	-1882
▁പോരാട	-1883
▁പോയി	-1884
▁ഡോക്ട	-1885
▁സ്വപ്	-1886
▁ല്യ	-1887
ദര	-1888
▁ലുള്ള	-1889
▁വിതരണ	-1890
▁്ഷ	-1891
▁ന്ധ	-1892
▁ഘോഷ	-1893
▁ംരക്ഷ	-1894
▁ഥാ	-1895
▁അമി	-1896
▁ാസ്	-1897
▁മുക്ത	-1898
▁ാളികള	-1899
▁ംഗത്ത	-1900
▁ൂന്നാ	-1901
▁ഇന്ന	-1902
▁ജോസഫ	-1903
▁അനുഭവ	-1904
▁ീസ	-1905
▁സുഹ	-1906
▁ിട്ടു	-1907
▁ഭേ	-1908
▁ിഹ	-1909
▁ാനം	-1910
▁ോഷ്യ	-1911
▁അഖ	-1912
▁ഡല്	-1913
▁ദ്ര	-1914
▁ബ്ല	-1915
▁താല	-1916
▁ോഷ്യല	-1917
▁ലയാ	-1918
▁ായക	-1919
▁െയ്	-1920
▁രിപ്പ	-1921
▁യൊ	-1922
▁റ്റര്	-1923
▁രിത്ര	-1924
▁50	-1925
▁ഖാ	-1926
▁മാറി	-1927
▁തോന്ന	-1928
▁റേ	-1929
▁ചുമതല	-1930
▁ൃത	-1931
▁പ്പമ	-1932
▁ലയാളി	-1933
▁ഭേദ	-1934
▁വലി	-1935
▁ക്വാ	-1936
▁ലൈന	-1937
▁രൂക്ഷ	-1938
▁ഉയര	-1939
▁സഹായി	-1940
▁30	-1941
▁ചു	-1942
▁ീടു	-1943
▁ക്കൽ	-1944
▁വിമർശ	-1945
▁തിനിധ	-1946
▁ലഭ്യമ	-1947
▁സജ	-1948
▁ഓഫ്	-1949
▁ച്ഛ	-1950
▁ലിം	-1951
▁ശീ	-1952
▁ാഗത	-1953
▁ിട്ടി	-1954
▁അര്	-1955
▁ആറ്	-1956
▁ഞങ്ങള	-1957
▁ഉണ്ട്	-1958
▁ആന്റ	-1959
▁ീടുകള	-1960
▁മുംബ	-1961
▁യല്ല	-1962
▁കീഴ	-1963
▁പൗര	-1964
▁അക	-1965
▁പ്പന	-1966
▁യുഎഇ	-1967
ച്ച്	-1968
▁ാഷ	-1969
▁യിട	-1970
▁ലാല	-1971
▁ർത്ത	-1972
▁വരിക	-1973
▁യുമ	-1974
▁ന്നലെ	-1975
▁ഭാവ	-1976
▁മുംബൈ	-1977
▁ോട്ട്	-1978
ോദര	-1979
▁ക്ഷേത	-1980
▁ചടങ്ങ	-1981
▁ന്താണ	-1982
▁ടങ്ങ	-1983
▁പതി	-1984
▁കുത്ത	-1985
▁സാമൂഹ	-1986
▁ൻഡ	-1987
▁ചേര	-1988
▁സുഹൃ	-1989
▁ിന്ദു	-1990
▁കലാ	-1991
▁ിറ്റ്	-1992
▁ഡൗ	-1993
▁ഹാജ	-1994
▁വിജയം	-1995
▁ഹ്	-1996
▁ഫ്ര	-1997
▁ഗ്രഹ	-1998
▁യർന്ന	-1999
▁എതിര	-2000
▁യോഗം	-2001
▁ആരാ	-2002
▁ഇൻ	-2003
▁ോല	-2004
▁ബു	-2005
▁കൈമാറ	-2006
▁വയസ്സ	-2007
▁ോബ	-2008
▁നുസരി	-2009
▁ചെറിയ	-2010
▁പരാമ	-2011
▁ഹര്	-2012
▁ക്കെ	-2013
▁ൃത്യ	-2014
▁ളള	-2015
▁മകന	-2016
▁ഗസ്ഥ	-2017
▁്ലാസ	-2018
▁ംസ	-2019
▁ാടക	-2020
▁ർശ	-2021
▁കുറവ	-2022
▁ാട്ടി	-2023
▁റ്റു	-2024
▁മാക	-2025
▁ന്നി	-2026
▁13	-2027
▁ിഷ	-2028
▁ഗുരു	-2029
▁ബീ	-2030
▁മൊഴി	-2031
▁ൃത്യമ	-2032
▁കം	-2033
▁ായ്	-2034
▁ടാ	-2035
▁സഹോദര	-2036
▁യക്ക	-2037
▁രക്ഷാ	-2038
▁സില	-2039
▁തുറ	-2040
▁എഴു	-2041
▁്രാല	-2042
▁ിസി	-2043
▁ട്രേ	-2044
▁ഏറ്റെ	-2045
▁ദൃശ്യ	-2046
▁മല്	-2047
▁കരമാ	-2048
▁പ്രവ	-2049
ചാര	-2050
▁്യാ	-2051
▁ഉള്ളത	-2052
▁ഹോ	-2053
▁േയ	-2054
▁േശ	-2055
▁കെട്ട	-2056
▁ബംഗാ	-2057
▁ഉദ്യോ	-2058
▁ജയില	-2059
▁ഗുണ	-2060
▁ഏജ	-2061
▁സാക്ഷ	-2062
▁ന്നു	-2063
▁പശ്ചാ	-2064
▁18	-2065
▁പഠന	-2066
▁ിക്	-2067
▁പെണ്	-2068
മസഭ	-2069
▁ുസ്	-2070
▁ിയമസഭ	-2071
▁്രാലയ	-2072
▁ൃഷ്	-2073
▁നയ	-2074
▁ൃഷ്ടി	-2075
▁രുത്	-2076
▁ജനറ	-2077
▁ലിന	-2078
ബ്	-2079
▁ീഗ്	-2080
▁ട്ടെ	-2081
▁ഭക്ഷണ	-2082
▁പെരു	-2083
▁തായും	-2084
▁ജാമ	-2085
▁എമാര	-2086
▁സാധ	-2087
▁മുറി	-2088
▁ജാമ്യ	-2089
▁ാദ	-2090
▁ടീമ	-2091
ശേ	-2092
ധിക	-2093
▁ശാല	-2094
▁ംഗീകര	-2095
▁ന്ദര്	-2096
▁ഷോ	-2097
▁മിഷ	-2098
▁്മി	-2099
▁സൂര്യ	-2100
▁ജു	-2101
▁്യോ	-2102
▁വൈറസ്	-2103
▁ര്യ	-2104
▁വയ്	-2105
▁വന്നു	-2106
ീന	-2107
▁പോള	-2108
▁യോഗി	-2109
▁്രി	-2110
▁ിക്ഷ	-2111
▁കല	-2112
▁എന്നി	-2113
▁പര്യ	-2114
▁ഭാഗ്യ	-2115
▁ിരക്ക	-2116
▁25	-2117
▁സ്ഥാ	-2118
▁സെന്റ	-2119
▁ിരു	-2120
▁ചെറു	-2121
▁പത്ര	-2122
▁തട്ടി	-2123
▁കാസ	-2124
▁ിബ	-2125
▁ുക്ക	-2126
▁കോര്	-2127
▁െട്ടി	-2128
▁ഹൃ	-2129
▁പദവി	-2130
▁്താവന	-2131
▁ിനായി	-2132
രുഷ	-2133
▁ിഫ	-2134
▁ിടക്ക	-2135
▁പുറമ	-2136
▁എസ്പി	-2137
ലീ	-2138
▁സഹകര	-2139
▁എന്നെ	-2140
▁ഥി	-2141
▁േബ	-2142
▁മുരള	-2143
▁ശേഖര	-2144
▁പുരുഷ	-2145
▁പീഡ	-2146
▁ീവ്	-2147
▁പിസി	-2148
▁മധ്യ	-2149
▁്യത്യ	-2150
▁19	-2151
▁ചൊ	-2152
▁വേണമ	-2153
▁ാവും	-2154
▁ത്തോള	-2155
▁ടേ	-2156
▁തടയ	-2157
▁ിയങ്ക	-2158
▁ീത	-2159
ദേഹ	-2160
▁രുത	-2161
▁ാതാ	-2162
▁ുദ്	-2163
▁ൃതദേഹ	-2164
▁യാള്	-2165
▁െയര്	-2166
▁ൂര	-2167
▁ചരണ	-2168
▁ുപോ	-2169
▁രവ	-2170
▁കിട	-2171
▁ഹൃദ	-2172
▁കിലോ	-2173
▁യറ്റ	-2174
▁സിസി	-2175
▁ൻസ	-2176
▁ർഗ	-2177
▁സോ	-2178
▁പ്ലാ	-2179
▁ഫെ	-2180
▁ബാബു	-2181
▁ജനാ	-2182
▁താല്	-2183
▁വാദി	-2184
▁പ്പൂ	-2185
▁അയച്ച	-2186
▁ഹോട്ട	-2187
മസി	-2188
▁താമസി	-2189
ംപ	-2190
▁ട്രംപ	-2191
▁ഞ്ചാബ	-2192
▁ടോ	-2193
▁ണു	-2194
▁ാതി	-2195
▁സഞ്ച	-2196
▁ിവിട	-2197
▁ുദ്ധി	-2198
▁ബിസി	-2199
▁ാടി	-2200
▁ിവി	-2201
▁റൂ	-2202
▁വരുമ	-2203
▁കളക്ട	-2204
▁ിത്തല	-2205
സ്യ	-2206
▁എന്ത്	-2207
▁്രൈവ	-2208
▁ഗത	-2209
▁ഇസ	-2210
▁നിശ്ച	-2211
പാത	-2212
▁ഭയ	-2213
▁ൈസ്	-2214
▁ഹാജരാ	-2215
▁ിറക്ക	-2216
▁ആരാധ	-2217
▁ൂക്ക	-2218
▁രില	-2219
▁ജനറല്	-2220
▁ുവന്ന	-2221
▁ഇസ്ര	-2222
▁തീവ്ര	-2223
▁സൈനി	-2224
▁ദ്യമാ	-2225
▁സിദ്ധ	-2226
▁ധരി	-2227
▁ഭാരത	-2228
▁ലപാത	-2229
▁ളയ	-2230
▁േര	-2231
▁ർജ	-2232
▁ഇതേ	-2233
▁സജീവ	-2234
▁ാധീന	-2235
▁തൊട	-2236
▁ോട്ടോ	-2237
▁ുസ്ലീ	-2238
▁ാട്	-2239
▁രക്ക്	-2240
▁ിനോട്	-2241
▁വരികയ	-2242
▁ോവ	-2243
▁ിടയില	-2244
▁ഊ	-2245
▁എച്ച്	-2246
▁െയിന	-2247
▁സേവന	-2248
▁വീട	-2249
▁വിചാര	-2250
▁കാശ	-2251
▁തോമ	-2252
▁ജെഡി	-2253
▁മലയാള	-2254
▁ുരത്ത	-2255
▁ഇവർ	-2256
▁ലപാതക	-2257
▁സൈനിക	-2258
▁മനസ	-2259
▁ഒഴിവ	-2260
▁ട്രാ	-2261
▁തിനാൽ	-2262
▁പ്റ്റ	-2263
▁ടെക്	-2264
▁ച്ചയാ	-2265
▁പോവ	-2266
▁മോശ	-2267
▁കഴി	-2268
▁്പോഴ	-2269
ാരാ	-2270
▁തീര്	-2271
▁ുമാര്	-2272
▁മര	-2273
▁ഡോസ	-2274
▁്രകടന	-2275
▁ംപ	-2276
▁ടൂ	-2277
▁ഷിക	-2278
▁ആഭ്യ	-2279
▁ർക്കം	-2280
▁ഡൽ	-2281
▁ഇറങ്ങ	-2282
▁മഹാരാ	-2283
▁ടമ	-2284
▁മിന	-2285
▁ുകളും	-2286
▁ഖ്	-2287
▁പണ	-2288
▁നമു	-2289
▁നിയമന	-2290
▁കുടി	-2291
▁ാവധി	-2292
▁സംഘട	-2293
▁ഒരി	-2294
ധര	-2295
▁വെട	-2296
▁കേട്ട	-2297
▁സ്വയം	-2298
▁ശ്വര	-2299
▁നാല	-2300
▁പ്രവച	-2301
▁വില്	-2302
▁നാണ	-2303
▁ടന്ന	-2304
▁ിത്	-2305
▁പരസ്യ	-2306
▁17	-2307
▁കമ	-2308
മാർ	-2309
▁കുമാർ	-2310
ചയ	-2311
▁ലംഘ	-2312
▁ഹിത	-2313
▁യോട	-2314
▁വെടി	-2315
▁ണയ	-2316
▁ഗ്ദ	-2317
▁പരമ	-2318
▁അഭ്യ	-2319
▁വേണ	-2320
▁ാമി	-2321
▁െന്	-2322
▁വിധ	-2323
▁അതില	-2324
▁അക്രമ	-2325
▁ചിന്ത	-2326
▁തേട	-2327
▁മര്	-2328
▁താഴെ	-2329
▁എത്ര	-2330
▁കൂടെ	-2331
▁ിപിഐ	-2332
▁16	-2333
▁കരം	-2334
▁ീകര	-2335
▁യേറ്റ	-2336
▁കാരണ	-2337
▁അവത	-2338
▁ദുബ	-2339
▁ത്തിര	-2340
▁വ്യാജ	-2341
▁തടസ	-2342
▁നിവ	-2343
▁്വാ	-2344
▁ലക്ട	-2345
▁കോട	-2346
▁പുരോ	-2347
▁വൃത്ത	-2348
▁പത്യ	-2349
▁ിള	-2350
▁ജീവ	-2351
▁ജനാധി	-2352
▁തോമസ്	-2353
▁വെല്ല	-2354
▁യാക	-2355
▁വെറ	-2356
ാപി	-2357
▁്ഥാപി	-2358
▁നിത	-2359
്രത	-2360
▁ചീ	-2361
▁ഘാട	-2362
▁ബന്ധു	-2363
▁ഇന്റ	-2364
▁ശാന്ത	-2365
സിൽ	-2366
▁40	-2367
▁ഞ്ച്	-2368
▁അമിത്	-2369
▁ന്തമാ	-2370
▁യറക്ട	-2371
▁രഹ	-2372
▁ഇരുവര	-2373
▁ഡോള	-2374
▁പ്രോ	-2375
▁ൈക്ക	-2376
▁പറയാന	-2377
▁പ്രകട	-2378
മ്പള	-2379
▁കയറ	-2380
▁ശമ്പള	-2381
▁േഹ	-2382
▁ിഞ്ഞ	-2383
▁ുട്ട	-2384
▁ശാസ്ത	-2385
▁വർധ	-2386
▁പത്ത	-2387
▁വിസ	-2388
▁വിട്ട	-2389
മായി	-2390
▁അഖില	-2391
▁ഗ്രാ	-2392
▁ണക്ക	-2393
▁്യോഗ	-2394
▁െല്ല	-2395
▁അവസ്ഥ	-2396
▁മനോ	-2397
▁യോജ	-2398
▁ശീല	-2399
▁ഇവ	-2400
▁ഗമ	-2401
▁നിയും	-2402
▁പരിധി	-2403
▁ോറ	-2404
▁കൃത	-2405
▁ഘാടന	-2406
▁ടം	-2407
▁കള്ള	-2408
▁പത	-2409
▁മിട	-2410
▁താരം	-2411
▁തള്ളി	-2412
▁ാഗ്രത	-2413
▁ഗൗ	-2414
▁ഡൗണ	-2415
▁സതീ	-2416
▁ലുകള	-2417
▁ുവിട	-2418
▁സമര്	-2419
▁ിലക്ക	-2420
▁ുടങ്ങ	-2421
▁നേരെ	-2422
▁ാനേജ	-2423
▁നമ്മള	-2424
▁ബല	-2425
▁മുൻപ	-2426
▁ഒര	-2427
▁ിലി	-2428
▁മൊരു	-2429
▁കാഴ്ച	-2430
▁പ്രചര	-2431
▁വക	-2432
▁തിനു	-2433
▁പ്രിയ	-2434
▁ിഥ	-2435
▁ലോച	-2436
▁നേടി	-2437
▁ഉദ്	-2438
▁ുല്ല	-2439
▁ന്മാര	-2440
▁രുമാന	-2441
▁പക	-2442
▁അവരെ	-2443
▁ിഎ	-2444
▁ബോധ	-2445
▁ജല	-2446
▁സാദ	-2447
▁ാവള	-2448
▁ന്നത	-2449
▁യുഎസ	-2450
▁യുമായ	-2451
▁ാണ്ടി	-2452
▁ൂല	-2453
▁ത്രയ	-2454
▁പ്ല	-2455
▁നീതി	-2456
▁ള്ളൂ	-2457
▁ുഡ	-2458
▁ഉടന	-2459
▁രമേശ	-2460
▁സണ	-2461
▁ികു	-2462
▁ണായ	-2463
▁കപ്പ	-2464
▁ഡിയ	-2465
▁െല്	-2466
▁ീധര	-2467
▁ീറ്റ്	-2468
▁ിനു	-2469
▁വശ്യമ	-2470
▁ദീപ	-2471
▁ുക്ക്	-2472
▁കസ്	-2473
▁ശ്മ	-2474
▁ൊളി	-2475
▁ലീഗ	-2476
▁രുന്ന	-2477
▁ാരണമാ	-2478
▁ാബ	-2479
▁ുല	-2480
▁കരി	-2481
▁ാംഗ	-2482
▁വാദം	-2483
▁നന്തപ	-2484
▁വെട്ട	-2485
▁മോഹന	-2486
▁ശേഷി	-2487
▁പഴ	-2488
▁ഗോപി	-2489
▁ാനല	-2490
▁ാർഡ	-2491
▁ത്താവ	-2492
▁ംഭ	-2493
▁വേള	-2494
▁റ്റഡി	-2495
▁ടവ	-2496
▁െൻ	-2497
▁പഠി	-2498
▁ണായക	-2499
▁പരമായ	-2500
▁ിതാ	-2501
▁പരമാ	-2502
▁ാളെ	-2503
▁മ്മന്	-2504
▁വിടെ	-2505
▁ോക്ക	-2506
▁്രയും	-2507
▁മെയ്	-2508
▁ശനി	-2509
▁ന്നൂ	-2510
▁ശങ്ക	-2511
▁ഉട	-2512
▁്ലി	-2513
▁്ഥാന	-2514
▁െതിരാ	-2515
▁രീര	-2516
▁വയസ	-2517
▁ാർത്ത	-2518
▁ഢ	-2519
▁ഉദ	-2520
▁രവി	-2521
▁സമു	-2522
▁പ്പെ	-2523
▁ിഐ	-2524
▁ാലാ	-2525
▁തല്ല	-2526
▁ാറ്റം	-2527
▁ികുതി	-2528
▁ുവര	-2529
▁ലപ്പ	-2530
▁പട	-2531
▁ുവിളി	-2532
▁ഘടന	-2533
▁ന്യാ	-2534
▁നത്ത	-2535
▁നൽകി	-2536
▁ന്നാം	-2537
▁ച്ചി	-2538
▁ബ്രി	-2539
▁കന	-2540
▁്ധ	-2541
▁ായും	-2542
▁ോണിയ	-2543
▁മത്തെ	-2544
▁നിലന	-2545
▁ങ്കള	-2546
▁ോറി	-2547
▁ട്ടാ	-2548
▁ായേ	-2549
▁ളൂ	-2550
▁ജറ	-2551
▁ലയ	-2552
▁ളു	-2553
▁േത	-2554
▁റാക്ക	-2555
▁സ്മ	-2556
▁ുര്	-2557
▁ശു	-2558
▁ശോ	-2559
▁എമ്മ	-2560
▁ാഭ	-2561
▁പാത	-2562
▁യത്	-2563
▁ൂക്ഷ	-2564
▁റും	-2565
▁ോഭ	-2566
▁സിക്ക	-2567
▁ഹത	-2568
▁യിലാണ	-2569
▁നസ	-2570
▁ണ്ടാ	-2571
▁മുതല	-2572
▁കേസിൽ	-2573
▁സിപിഎ	-2574
▁ബസ	-2575
▁ദര	-2576
▁റിയാ	-2577
▁സിപ്പ	-2578
▁ശര	-2579
▁രായ	-2580
▁ഇവരെ	-2581
▁ാഹ	-2582
▁യാദ	-2583
▁ടഞ്ഞ	-2584
▁ഫൈ	-2585
▁ഏഴ്	-2586
▁ിത്യ	-2587
▁പെട്ട	-2588
▁ഓട	-2589
ശേരി	-2590
▁ലില	-2591
▁സഭയില	-2592
▁്ശേരി	-2593
▁ലേ	-2594
▁രിചയ	-2595
▁ശ്രമം	-2596
▁ിലവ	-2597
▁ഡെ	-2598
▁തിയ	-2599
▁ബാദ	-2600
▁ചല	-2601
▁ദായ	-2602
▁ക്രൂ	-2603
▁യാത	-2604
▁ിസം	-2605
▁ഞെട	-2606
▁എസ്എ	-2607
▁ക്ഷണ	-2608
▁മാസ്	-2609
▁ട്ടു	-2610
▁ൂപ്പ	-2611
▁ഗോഡ	-2612
▁േല്	-2613
▁്ഥാനം	-2614
▁ലര്	-2615
▁സിബ	-2616
▁ിഹാ	-2617
▁െപി	-2618
▁സിനേ	-2619
▁റെയ	-2620
▁സല	-2621
▁ാൾ	-2622
▁ഞ്ചി	-2623
▁ിക്ക്	-2624
▁ഫിക്ക	-2625
▁െന്റ	-2626
▁കാർ	-2627
▁രുങ്ങ	-2628
▁21	-2629
▁കോപ	-2630
▁റ്റിന	-2631
▁ബജ	-2632
▁തസ്	-2633
▁ക്കാല	-2634
▁വൈദ	-2635
▁മാറിയ	-2636
▁ബൈ	-2637
▁യല	-2638
▁നിൽ	-2639
▁പാക	-2640
▁ിം	-2641
▁പത്ത്	-2642
▁രിച്ച	-2643
▁ോക്കി	-2644
▁വർക്ക	-2645
▁ിടത്ത	-2646
▁ളര്	-2647
▁രജ	-2648
▁കുതി	-2649
▁റന്റ	-2650
▁ർഡ	-2651
▁റാം	-2652
▁ക്ഷി	-2653
▁യിക്ക	-2654
▁്രാന്	-2655
▁തീര	-2656
▁ർപ്പ	-2657
▁ിഎം	-2658
▁ഗോപാ	-2659
▁ഴിമ	-2660
▁പള്ളി	-2661
▁്ജ	-2662
▁22	-2663
▁അല	-2664
▁കേസെട	-2665
▁താൻ	-2666
▁സംസ്	-2667
▁ഇയാള	-2668
▁ക്കാള	-2669
▁ച്ചടി	-2670
▁െയില്	-2671
▁ാമ്പ	-2672
സാരി	-2673
▁ശ്ശ	-2674
▁ംസാരി	-2675
▁ഏത്	-2676
▁ഡാ	-2677
▁യുപി	-2678
▁റമ്പ	-2679
▁ുഖ	-2680
▁ിഷ്	-2681
▁സ്വത	-2682
▁േഡ	-2683
▁ണ്ണി	-2684
ാപന	-2685
▁സ്വാ	-2686
▁ീര്	-2687
▁്യൂസ	-2688
▁കോള	-2689
▁ട്ടേ	-2690
▁കരണ	-2691
▁മകള	-2692
▁പ്പാട	-2693
▁ുരു	-2694
▁തേടി	-2695
▁വീട്	-2696
▁്പര്യ	-2697
▁ണ്ടി	-2698
▁രില്	-2699
▁പമ	-2700
▁അടിയ	-2701
▁വശ	-2702
▁ാരി	-2703
▁ീർ	-2704
▁മാതാ	-2705
▁്ഥാപന	-2706
▁ന്റ്	-2707
▁രിൽ	-2708
▁തൃപ്	-2709
▁ിന്നെ	-2710
▁േമ	-2711
▁ദ്വ	-2712
▁ാജ	-2713
▁ൂത്ത	-2714
▁ഹെ	-2715
▁ിരുദ	-2716
▁െക്ക	-2717
▁സ്ത്ര	-2718
▁രാള	-2719
▁ലാപ	-2720
▁തായിര	-2721
▁വരില്	-2722
▁ൊടി	-2723
▁യർത്ത	-2724
▁ുപോലെ	-2725
▁യന	-2726
▁കൊട	-2727
▁പാട്	-2728
▁ദേശിക	-2729
▁ചെയ്	-2730
▁സിലെ	-2731
▁ടേയും	-2732
▁രിമ	-2733
▁മദ്യ	-2734
▁ഘട	-2735
▁വധ	-2736
▁ാകുമ	-2737
▁ലർ	-2738
▁െഗ	-2739
▁ീപ	-2740
▁നീയ	-2741
▁ോണ്	-2742
▁കുറയ	-2743
▁രട്ട	-2744
▁ഷനില	-2745
▁ിസംബ	-2746
▁ത്യാ	-2747
▁ബര്	-2748
▁വറ	-2749
▁ഴ്സ	-2750
▁കടന്ന	-2751
▁കുഴ	-2752
▁ടച്ച	-2753
▁ത്മ	-2754
▁ധാരണ	-2755
▁മാന്	-2756
▁റ്റില	-2757
▁ഞാന	-2758
▁പെട	-2759
▁്ണ	-2760
▁റുക	-2761
▁ാവശ്യ	-2762
▁ർവ്	-2763
▁കില്ല	-2764
▁മ്മിന	-2765
▁േക്കു	-2766
▁ോച	-2767
▁ളജി	-2768
▁ാശ	-2769
▁പോര	-2770
▁ഷാ	-2771
▁ൂണ്	-2772
▁റ്റേ	-2773
▁ുകളിൽ	-2774
▁്രീ	-2775
▁ങ്കില	-2776
▁ോഡ	-2777
▁ഷിക്ക	-2778
▁ുകളാണ	-2779
▁തന	-2780
▁ംസ്	-2781
▁ുവാ	-2782
▁മ്പാ	-2783
▁മൈ	-2784
▁ഖ്യ	-2785
▁ാപക	-2786
▁ഷങ്ങള	-2787
▁വൂ	-2788
▁തായ	-2789
▁ലാം	-2790
▁ിനും	-2791
▁കത്ത്	-2792
▁റ്റോ	-2793
▁സ്യ	-2794
▁നിലനി	-2795
▁ഹര	-2796
▁റ്ററ	-2797
▁ണര്	-2798
▁തകർ	-2799
▁ാസി	-2800
▁റൽ	-2801
▁ാനായി	-2802
▁ച്ചകള	-2803
▁ച്ചില	-2804
▁മോഹ	-2805
▁ടന്നു	-2806
▁അദ	-2807
▁പ്ത	-2808
▁കാന്	-2809
▁ട്ടോ	-2810
▁നമ്പ	-2811
▁മടങ്ങ	-2812
▁റാന	-2813
▁റണ	-2814
▁ുനി	-2815
▁ോഷ	-2816
▁മതി	-2817
സ്തു	-2818
▁വസ്തു	-2819
ർണ	-2820
▁മില	-2821
▁ോസി	-2822
▁60	-2823
▁സ്സ	-2824
▁ഗണ	-2825
▁്പീ	-2826
▁ബ്രാ	-2827
▁കൂടിയ	-2828
▁ിലായി	-2829
▁റ്റല	-2830
▁ുറ്റ	-2831
▁23	-2832
▁കോർ	-2833
▁നശ	-2834
▁തമ്മി	-2835
▁ശിച്ച	-2836
▁്ക്ക്	-2837
▁ീണ്ട	-2838
▁ർവ്വ	-2839
▁ിനാ	-2840
▁ോണി	-2841
▁നിധ	-2842
▁സ്വർണ	-2843
▁അല്	-2844
▁വാസ	-2845
▁േര്	-2846
▁ദേശം	-2847
▁ിഗ	-2848
▁ുന	-2849
▁േറ	-2850
▁ോധ	-2851
▁ഹിക്ക	-2852
▁െന്നത	-2853
▁കാലം	-2854
▁ത്തം	-2855
▁ഥമ	-2856
▁പന്ത	-2857
▁വാക്സ	-2858
▁ധേ	-2859
▁വൻ	-2860
▁ുല്	-2861
▁ോധന	-2862
▁ക്കില	-2863
▁ൌ	-2864
▁യെത്ത	-2865
▁േന	-2866
▁വധി	-2867
▁ഖത്ത	-2868
▁മത്സ	-2869
▁ിഖ	-2870
▁ൈവ	-2871
▁ുമെ	-2872
▁നിക	-2873
▁ിയി	-2874
▁തിരാ	-2875
▁കഥ	-2876
▁എഴുത	-2877
▁ുപ്പ	-2878
▁ർഷ	-2879
▁ടിയാ	-2880
▁ീന്	-2881
▁തരമാ	-2882
▁ിക്കൊ	-2883
▁i	-2884
▁ാലിക	-2885
▁താമസ	-2886
▁ളുകള	-2887
▁താത	-2888
▁ദഗ	-2889
▁ഒക്	-2890
▁ധേയ	-2891
▁ബിന	-2892
▁അങ്ങ	-2893
▁സര	-2894
▁ാന്ത	-2895
▁വിദ	-2896
▁നന്	-2897
▁ക്കന്	-2898
▁ുസ	-2899
▁ിവയ	-2900
▁ോയ്	-2901
▁ംബര്	-2902
▁കളായ	-2903
▁മിച്ച	-2904
▁്ഗ	-2905
▁സ്പ	-2906
▁ലമ	-2907
▁ിജ	-2908
▁മറ	-2909
▁േല	-2910
▁റിൽ	-2911
▁ളമ	-2912
▁ാനമാ	-2913
▁ുണ്ടോ	-2914
▁ൾക്ക	-2915
▁ഉത്	-2916
▁കാന	-2917
▁നായി	-2918
▁ഇതു	-2919
▁മന്	-2920
▁മിനി	-2921
▁ളം	-2922
▁സന	-2923
▁ംബാ	-2924
▁കൃഷ	-2925
▁ാജി	-2926
▁പ്രവര	-2927
▁ലപ്പെ	-2928
▁മറി	-2929
▁ാഴ്	-2930
▁ാലയ	-2931
▁ർശന	-2932
▁യത	-2933
▁്ലോ	-2934
▁ബസ്	-2935
▁ഏഴ	-2936
▁28	-2937
▁ോക്	-2938
▁വിനെ	-2939
▁ിസ്ഥ	-2940
▁മേയ	-2941
▁ീല	-2942
▁്ബ	-2943
▁ൂല്യ	-2944
▁ക്കെട	-2945
▁ശയ	-2946
▁മിക	-2947
▁ഹിച്ച	-2948
▁െച്ച	-2949
▁സിക	-2950
▁ിതര	-2951
▁റവ	-2952
▁തര്	-2953
▁അധിക	-2954
▁കൗണ്	-2955
▁ിർ	-2956
▁ട്ടര്	-2957
▁ഉച്ച	-2958
▁പ്പാ	-2959
▁്ണു	-2960
▁വാട	-2961
▁മസ്	-2962
▁ക്കറ	-2963
▁ധു	-2964
▁സിക്	-2965
▁യറാ	-2966
▁ീഷ്	-2967
▁െബ്	-2968
▁അംഗീ	-2969
▁യാല	-2970
▁ദ്യോഗ	-2971
ങ്ങി	-2972
ങ്ങൾ	-2973
▁കാറ	-2974
▁ദര്	-2975
▁ിജി	-2976
▁ൈസ	-2977
▁ളിത	-2978
▁സാന്	-2979
▁അവര	-2980
▁ര്‍	-2981
▁ക്കണമ	-2982
▁തൃക	-2983
▁പോസി	-2984
▁ാറ്റ്	-2985
▁ക്സ	-2986
▁റച്ച	-2987
▁വായി	-2988
▁്രിസ	-2989
▁കല്ല	-2990
▁ശേരി	-2991
▁ഃ	-2992
▁നിയന	-2993
▁െറ്റ്	-2994
▁വേഷ	-2995
▁ിങ	-2996
▁ിഷേധ	-2997
▁ടില്ല	-2998
▁വഹ	-2999
▁ുടേ	-3000
▁ഉമ്മ	-3001
▁ഷ്ടമാ	-3002
▁ുമതി	-3003
▁ആം	-3004
▁27	-3005
▁ഇര	-3006
▁ചാര	-3007
▁സ്തി	-3008
▁ശ്വ	-3009
▁റ്റർ	-3010
▁ിയോ	-3011
▁കുക	-3012
▁തിവ	-3013
▁്രു	-3014
▁കോട്ട	-3015
▁ലോട്ട	-3016
▁ിലൊ	-3017
▁അത്തര	-3018
▁ഛ	-3019
▁ംശ	-3020
▁കണം	-3021
▁ഇറക്ക	-3022
▁ൽപ്പ	-3023
▁ജഡ	-3024
▁ീക്ഷ	-3025
▁നാള	-3026
▁സ്ട	-3027
▁ശബ	-3028
▁െല	-3029
▁ർമ്മ	-3030
▁കാട്ട	-3031
▁ാർക്ക	-3032
▁കണമ	-3033
▁ക്കാറ	-3034
▁ോട്ടു	-3035
▁കുടു	-3036
▁ഭാവി	-3037
▁കോടതി	-3038
▁ൊള്ള	-3039
▁ച്ചിര	-3040
▁26	-3041
▁റക്ക	-3042
▁ോക	-3043
▁100	-3044
▁ിസ്ഥാ	-3045
▁റന്	-3046
▁സിച്ച	-3047
▁ഴാ	-3048
▁ത്വം	-3049
▁വാഹ	-3050
▁31	-3051
▁ംഗ്	-3052
▁ല്ലി	-3053
▁ടുപ്പ	-3054
▁ോചന	-3055
▁വട	-3056
▁ടത്	-3057
▁ഭി	-3058
▁രുണ	-3059
▁ക്കാണ	-3060
▁ഐസ	-3061
▁കിന	-3062
▁ിനോട	-3063
▁ിഎസ്	-3064
▁മമ	-3065
▁കാത്ത	-3066
▁ങ്കിൽ	-3067
▁നന്ദി	-3068
▁്ഡ	-3069
▁പ്പുറ	-3070
▁കല്	-3071
▁ത്തും	-3072
▁സിറ്റ	-3073
ദ്ദ	-3074
▁വേദ	-3075
▁കയറി	-3076
▁തൂ	-3077
▁ിപ്പോ	-3078
▁ൂട്ട്	-3079
▁ൂവ	-3080
▁യൊരു	-3081
▁ലിസ്	-3082
▁ിയില	-3083
▁ചന	-3084
▁ോടി	-3085
▁രിവാ	-3086
▁യാഴ്ച	-3087
▁നദ	-3088
▁റിക	-3089
▁യാലും	-3090
▁കേഷ	-3091
▁ിലായ	-3092
▁ുക്ത	-3093
▁ക്യൂ	-3094
▁ിസ്ത	-3095
▁35	-3096
▁േലി	-3097
▁കാരി	-3098
▁വകാശ	-3099
▁്രമ	-3100
▁്രേ	-3101
▁ുമാര	-3102
▁ോന്ന	-3103
▁േക്കാ	-3104
▁ൾക്ക്	-3105
▁േക്ഷ	-3106
▁ആന്	-3107
▁്പൂ	-3108
▁യേക്ക	-3109
▁ഔദ	-3110
▁പൈ	-3111
▁റുകള	-3112
▁പ്രതി	-3113
▁ർത്തു	-3114
▁വേശ	-3115
▁കോടിയ	-3116
▁രസ്	-3117
▁വിള	-3118
▁ഴക്ക	-3119
▁്ക്ക	-3120
▁സോഷ്യ	-3121
▁മമത	-3122
▁ിതമാ	-3123
▁ിട്ട്	-3124
▁്യത്ത	-3125
▁സ്ട്ര	-3126
▁ിള്	-3127
▁കൃത്യ	-3128
▁ത്താന	-3129
▁ജയ്	-3130
▁ഡ്ര	-3131
▁ൻ്റ	-3132
▁ധിപ്പ	-3133
▁ഘാ	-3134
▁പഴയ	-3135
▁ഗാന	-3136
▁പകര	-3137
▁േക്ഷക	-3138
▁ദയ	-3139
▁ിശ	-3140
▁ംബര	-3141
▁രാറ	-3142
▁്പര	-3143
▁്വേ	-3144
▁ർദ്ദ	-3145
▁ാവന	-3146
▁ിരോധ	-3147
▁ണിക്ക	-3148
▁യണ	-3149
▁യുട	-3150
▁മ്പത	-3151
▁േട്ട	-3152
▁ണല്	-3153
▁ഉത്ത	-3154
▁ൈന	-3155
▁നഡ	-3156
▁നാട്	-3157
▁്ലിക്	-3158
▁ന്മ	-3159
▁ാലം	-3160
▁ടിന	-3161
▁ൻ്റെ	-3162
▁ഡന	-3163
▁ഇവര	-3164
▁ബർ	-3165
▁സാര	-3166
▁പ്രശ	-3167
▁വിടെയ	-3168
▁തെല	-3169
▁രിത	-3170
▁രുമ	-3171
▁കൊള്ള	-3172
▁യാവ	-3173
▁യിച്ച	-3174
▁ഴിച്ച	-3175
▁തമ	-3176
▁മിക്ക	-3177
▁റില്	-3178
▁കരമായ	-3179
▁പുഴ	-3180
▁ാനമ	-3181
▁കാരന	-3182
▁ട്ടം	-3183
▁വാര	-3184
▁സിഡ	-3185
▁ല്ലേ	-3186
▁ൂഹ	-3187
▁ോദ	-3188
▁മഴയ	-3189
▁െറി	-3190
▁ഴുക	-3191
▁്യമാ	-3192
▁ത്രിക	-3193
▁പ്രതീ	-3194
▁പാറ	-3195
▁താക്ക	-3196
▁ിയാന	-3197
▁ഭക്ഷ	-3198
▁തിരായ	-3199
▁ഗി	-3200
▁റ്റാ	-3201
▁ോളജ	-3202
▁ോടും	-3203
▁ർട്ട	-3204
▁ിയാണ്	-3205
▁അതു	-3206
▁ികളെ	-3207
▁ക്വ	-3208
▁വുക	-3209
▁െസ്	-3210
▁കൈക	-3211
▁ികാര	-3212
ഗണ	-3213
▁റിവ	-3214
▁പരിഗണ	-3215
▁നാഥ്	-3216
▁വിക്ക	-3217
▁രാര്	-3218
▁റീ	-3219
▁നൂറ	-3220
▁സ്ല	-3221
▁െപ്	-3222
▁ഴിവ	-3223
▁ായത	-3224
▁ിമത	-3225
▁ട്ടന	-3226
▁വൈറസ	-3227
▁ഡീ	-3228
▁ാഖ	-3229
▁അജ	-3230
▁ക്ഷിത	-3231
▁റിച്ച	-3232
▁എയ	-3233
▁റബ	-3234
▁ുത	-3235
▁അന്ന	-3236
▁ണിന	-3237
▁മൃത	-3238
▁ഷമ	-3239
▁ായിക	-3240
▁തെക്ക	-3241
▁ദന	-3242
▁േദ	-3243
▁കടല	-3244
▁ക്സ്	-3245
▁സരി	-3246
▁കൺ	-3247
▁വോ	-3248
▁ീമ	-3249
▁യ്പ	-3250
▁രയാ	-3251
▁വിദ്യ	-3252
▁ഷെ	-3253
▁മാല	-3254
▁ിമാ	-3255
▁ോയി	-3256
▁ദ്ധി	-3257
▁ിയും	-3258
▁ൽക്ക	-3259
▁എന്താ	-3260
▁കത്തി	-3261
▁29	-3262
▁ണന	-3263
▁ോഹ	-3264
▁വണ്	-3265
▁താവ	-3266
▁ഫോട	-3267
▁ലിയ	-3268
▁െഡ്	-3269
▁െരു	-3270
▁ർമ	-3271
▁ജിത്	-3272
▁രക്ഷി	-3273
▁ദീ	-3274
▁അധി	-3275
▁ൂപ്	-3276
▁േട	-3277
▁ോര	-3278
▁നായിര	-3279
▁സർവ	-3280
▁േതാ	-3281
▁ുള്	-3282
▁45	-3283
▁താന	-3284
▁ളിവ	-3285
▁ഴുത	-3286
▁ിനേ	-3287
▁ട്ടീ	-3288
▁ഡിയോ	-3289
▁തട്ട	-3290
▁്യമ	-3291
▁അപ്പ	-3292
▁നാലു	-3293
ളം	-3294
▁ർണ്ണ	-3295
▁ിസിസി	-3296
▁ിയായി	-3297
▁ഉയർ	-3298
▁തുത	-3299
▁ബാന	-3300
▁വരാ	-3301
▁ഹാര	-3302
▁ിയറ	-3303
▁ൂറു	-3304
▁ിർത്ത	-3305
▁ഉടൻ	-3306
▁രുവ	-3307
▁ളിന	-3308
▁്രസി	-3309
▁ർച്ച	-3310
▁െസ	-3311
▁റേറ്റ	-3312
▁ിലവില	-3313
▁മ്മു	-3314
▁്ലീ	-3315
▁പറ്റി	-3316
▁വായ	-3317
▁േഷന	-3318
▁നക്ക	-3319
▁അടി	-3320
▁ോപ്പ	-3321
▁80	-3322
▁രപ്പ	-3323
▁ംക	-3324
▁മാത	-3325
▁സിം	-3326
▁്രസിഡ	-3327
▁ഡിപ	-3328
▁ിന്റ	-3329
▁ഗഡ	-3330
▁ൂർണ	-3331
▁േജ്	-3332
▁ളക്ക	-3333
▁ക്ഷമ	-3334
▁ീകരണം	-3335
▁ുപ്പി	-3336
▁ടീം	-3337
▁തന്ന	-3338
▁കൾക്ക	-3339
▁പ്രകാ	-3340
▁ഇയാ	-3341
▁ൻസ്	-3342
▁ഞ്ഞ്	-3343
▁ാധി	-3344
▁ഇവിട	-3345
▁റന്ന	-3346
▁വിന്	-3347
▁േറിയ	-3348
▁െഷ	-3349
▁അഭിമ	-3350
▁കോട്	-3351
▁ങ്	-3352
▁സുപ	-3353
▁ഡുകള	-3354
▁യെങ്ക	-3355
▁സംവ	-3356
▁ജന്	-3357
▁മിത	-3358
▁വിഡ	-3359
▁ടങ്ങി	-3360
▁സികള	-3361
▁ിയാല്	-3362
▁മണ	-3363
▁രിലെ	-3364
▁ക്കിട	-3365
▁ിയൂ	-3366
▁%	-3367
▁ളിയ	-3368
▁ിക്കെ	-3369
▁ലൂ	-3370
▁ടത്ത	-3371
▁ിനാണ	-3372
▁മിറ്റ	-3373
▁വീഴ	-3374
▁ുഷ്	-3375
▁ീട്ട	-3376
▁ഷീ	-3377
▁ങ്ക്	-3378
▁പാദ	-3379
▁ലാണ്	-3380
▁ായത്	-3381
▁വർത്ത	-3382
▁ഭീ	-3383
▁ാനമായ	-3384
▁വം	-3385
▁തിലും	-3386
▁70	-3387
▁ച്ചേ	-3388
▁ുമാന	-3389
▁r	-3390
▁പാക്ക	-3391
▁ിഷന	-3392
▁ലിസ	-3393
▁ിര്	-3394
▁ഡല	-3395
▁ോഗ	-3396
▁ഷിന	-3397
▁ാണോ	-3398
▁ുകാ	-3399
▁ക്കമ	-3400
▁തികള്	-3401
▁റായ	-3402
▁ള്ളവര	-3403
▁ഗള	-3404
▁്പെ	-3405
▁യിലാ	-3406
▁ഴുതി	-3407
▁ിങ്ക	-3408
▁ന്നുമ	-3409
▁്വേഷ	-3410
▁ോന്നി	-3411
▁ലച	-3412
▁ഗോപ	-3413
▁ാപന	-3414
▁്യസ	-3415
▁െട്ര	-3416
▁ക്കണം	-3417
▁കമാ	-3418
▁മുറ	-3419
▁്റേ	-3420
▁ണങ്ങള	-3421
▁ലബ	-3422
▁c	-3423
▁യര	-3424
▁ടിവ	-3425
▁ുളം	-3426
▁റാണ്	-3427
▁ബുക്ക	-3428
▁ച്ചവ	-3429
▁ഞ്ഞു	-3430
▁നടന്	-3431
▁ഐഎ	-3432
▁ലാസ	-3433
▁നല	-3434
▁രസ	-3435
▁പരസ്	-3436
▁ക്കുട	-3437
▁അര	-3438
▁ഓണ	-3439
▁െറ	-3440
▁എല്ല	-3441
▁ചാണ്ട	-3442
▁തോമസ	-3443
▁ുമാണ	-3444
▁ട്ടില	-3445
▁ഷത്തെ	-3446
▁ുറപ്പ	-3447
▁റ്	-3448
▁ാനാവ	-3449
▁രിസ	-3450
▁്സാ	-3451
▁ാഞ്ച	-3452
▁യിലും	-3453
▁ീവ	-3454
▁താപ	-3455
▁ികെ	-3456
▁കത്ത	-3457
▁ിത്ര	-3458
▁്യണ	-3459
▁ധിച്ച	-3460
▁സഫ	-3461
▁പന	-3462
▁ച്ചയ	-3463
▁ിവേ	-3464
▁തള്ള	-3465
▁ാലിന	-3466
▁ിക്ര	-3467
▁ൂട്ടി	-3468
ww	-3469
▁േണ	-3470
▁യതി	-3471
▁ുരുത	-3472
▁എപ	-3473
▁പുല	-3474
▁വിൽ	-3475
▁ിരാ	-3476
▁്ജി	-3477
▁ന്നിര	-3478
▁നാമ	-3479
▁പിറ	-3480
▁ഇത്ര	-3481
▁വുമായ	-3482
▁പിഎ	-3483
▁ീല്	-3484
▁ലത്ത	-3485
▁യക്കു	-3486
▁32	-3487
▁തം	-3488
▁നങ്ങൾ	-3489
▁ളാ	-3490
▁െമ	-3491
▁തലയ	-3492
▁നടന	-3493
▁ാവു	-3494
▁ിനൊ	-3495
▁യച്ച	-3496
▁ഠി	-3497
▁മലയ	-3498
▁ുരുതര	-3499
▁യൻ	-3500
▁ജിത	-3501
▁റായി	-3502
▁ഡിസ	-3503
▁ാരക	-3504
▁രക്ക	-3505
▁വരാന	-3506
▁െതിര	-3507
▁്രകാര	-3508
▁െട്ട	-3509
▁ോകത്ത	-3510
▁ഫീ	-3511
▁മറു	-3512
▁വരാണ്	-3513
▁േഖ	-3514
▁വട്ട	-3515
▁ഷിച്ച	-3516
▁ിച്ചു	-3517
▁ബേ	-3518
▁ടയില	-3519
▁ടത്ത്	-3520
▁ർട്ടി	-3521
▁ർട്ട്	-3522
▁കമായി	-3523
▁രുക്ക	-3524
▁രണ്	-3525
▁സിസ	-3526
▁ധര	-3527
▁വാറ	-3528
▁പിതാ	-3529
▁തോട	-3530
▁്തക	-3531
▁ൻസി	-3532
▁തയില	-3533
▁വത്ത	-3534
▁ീന്ദ	-3535
▁അല്ലെ	-3536
▁ലിച്ച	-3537
▁ൂത	-3538
▁ിഞ്ഞാ	-3539
▁ബുദ	-3540
▁സ്ക	-3541
▁പതിന	-3542
▁േരിയ	-3543
▁ചക	-3544
▁ലായ	-3545
▁്ധ്യ	-3546
▁ീണ	-3547
▁ൊറ	-3548
▁രൂര	-3549
▁്റി	-3550
▁ദേശ്	-3551
▁ള്ളു	-3552
▁ഡിന	-3553
▁ുവിന	-3554
▁യല്	-3555
▁ലക്	-3556
▁ർശി	-3557
▁റക്കി	-3558
▁ശിക്ക	-3559
▁ണവ	-3560
▁ിദ്ധ	-3561
▁ക്കേ	-3562
▁താവ്	-3563
▁ിയായ	-3564
▁ള്ളിയ	-3565
▁ഞ്ഞാ	-3566
▁നിശ	-3567
▁ദ്ധര	-3568
▁നിർമ	-3569
▁ുകാര്	-3570
▁നിലെ	-3571
▁ന്നേ	-3572
▁മാരാ	-3573
▁വൽ	-3574
▁േടി	-3575
▁ഷണം	-3576
▁ക്ഷത	-3577
▁പിട	-3578
▁രത്	-3579
▁വടക	-3580
▁സംര	-3581
▁ട്ടയ	-3582
▁രങ്ങ	-3583
▁മുദ	-3584
▁രാം	-3585
▁ാധാ	-3586
▁ുറി	-3587
▁േഷൻ	-3588
▁ക്ടറ	-3589
▁സവ	-3590
▁ഇറാ	-3591
▁മ്പന	-3592
▁ാസികള	-3593
▁ജൂൺ	-3594
▁ുമ്പ	-3595
▁തിച്ച	-3596
▁മ്പത്	-3597
▁ിയത	-3598
▁്പ്ര	-3599
▁കളില്	-3600
▁ിക്കേ	-3601
▁ിനാണ്	-3602
▁്ടില്	-3603
▁ൈക	-3604
▁റങ്ങി	-3605
▁ുഭ	-3606
▁സെന്	-3607
▁ോൺ	-3608
▁ഹമാ	-3609
▁കാരിക	-3610
െന	-3611
▁in	-3612
▁വരാണ	-3613
▁ാഴ	-3614
▁ഒരേ	-3615
▁തൊരു	-3616
▁ഷ്യല	-3617
▁ുള്ളി	-3618
▁ഫീസ	-3619
▁ുവരു	-3620
▁ചാല	-3621
▁ോത്	-3622
▁്താവ	-3623
▁റ്റിയ	-3624
▁ിരീ	-3625
▁ക്ട്	-3626
▁ിതമായ	-3627
▁ആന	-3628
▁ഭവ	-3629
▁യ്യാ	-3630
ൻസ	-3631
▁ടിസ	-3632
▁വിഡി	-3633
▁ധിക്ക	-3634
▁ബന്ധമ	-3635
▁തെങ്ക	-3636
▁ദശ	-3637
▁പുര	-3638
▁വതി	-3639
▁പ്രദ	-3640
▁നാം	-3641
▁നിധി	-3642
▁അശ	-3643
▁കുട	-3644
▁പറേ	-3645
▁ബില്	-3646
▁്രസ്	-3647
▁ിയിൽ	-3648
▁ിക്കൽ	-3649
▁തറ	-3650
▁വസ	-3651
▁ടിമ	-3652
▁ോലി	-3653
▁കമായ	-3654
െയ	-3655
▁ചുവ	-3656
▁ോട്ടെ	-3657
▁ടല	-3658
▁ത്സ	-3659
▁ോബി	-3660
▁ന്ത്	-3661
▁ന്ദര	-3662
▁പട്ട	-3663
▁ച്ചിട	-3664
▁ീട്ടി	-3665
▁ഫോൺ	-3666
▁ോം	-3667
▁ഇതര	-3668
▁ടയാ	-3669
▁ാബി	-3670
▁ായാണ്	-3671
▁തുകൊ	-3672
▁സെക്	-3673
▁ൈബ	-3674
▁പോര്	-3675
▁A	-3676
▁ിതം	-3677
▁വഹി	-3678
▁മത്തി	-3679
▁ോഡി	-3680
▁േഷന്	-3681
▁ശോഭ	-3682
▁സസ്	-3683
▁ാജ്	-3684
▁ട്ടിയ	-3685
▁34	-3686
▁വസ്	-3687
▁കാണാ	-3688
▁ാഫ	-3689
▁ായില	-3690
ഷന	-3691
▁റഞ്ഞ	-3692
▁ാങ്ങ	-3693
▁ണ്ടാക	-3694
▁n	-3695
▁ശം	-3696
▁െന	-3697
▁യാസ	-3698
▁മാരി	-3699
▁എന്തു	-3700
▁33	-3701
▁സൺ	-3702
▁തരം	-3703
▁പൊട	-3704
▁ാവുമ	-3705
▁തുമായ	-3706
▁േർ	-3707
മാണ്	-3708
▁ിയില്	-3709
▁്രത്യ	-3710
al	-3711
▁മദ	-3712
▁ചിരി	-3713
▁െന്റ്	-3714
▁ഒമ	-3715
▁മത്ത	-3716
▁മ്പ്	-3717
▁37	-3718
▁രാണ്	-3719
▁ൊണ്ട	-3720
▁മെങ്ക	-3721
▁്നങ്ങ	-3722
▁48	-3723
▁ഷറ	-3724
▁യിന	-3725
▁ാനു	-3726
▁ജെപി	-3727
▁അമിത	-3728
▁ന്റി	-3729
▁മം	-3730
▁ലസ	-3731
▁യന്	-3732
▁ിയേ	-3733
▁കാരണമ	-3734
▁പ്രസ്	-3735
▁ഴിക്ക	-3736
▁ണോ	-3737
▁ബറ	-3738
▁ാലു	-3739
▁പ്പട	-3740
▁ടാക്ക	-3741
▁ുന്നേ	-3742
▁ബൂ	-3743
▁വത്	-3744
▁ശശി	-3745
▁ാഗ്	-3746
▁രായി	-3747
▁ുത്തല	-3748
▁ുഷ	-3749
▁സംബ	-3750
▁ികള്	-3751
▁്ട്ര	-3752
▁ഒന്നാ	-3753
▁ക്കാൻ	-3754
▁രവ്	-3755
▁ുങ്ങ	-3756
▁ജ്യ	-3757
▁ണിയ	-3758
▁മ്യ	-3759
▁അവിട	-3760
▁ജിസ്	-3761
▁രംഭി	-3762
▁ട്ടും	-3763
▁ണ്ടും	-3764
▁ർഥ	-3765
▁േയ്	-3766
▁ല്ലു	-3767
▁ഹിന്ദ	-3768
▁ംവ	-3769
▁ക്സി	-3770
▁ച്ചത	-3771
▁വഴ	-3772
▁ുരേഷ	-3773
▁ച്ചേര	-3774
▁കൂല	-3775
▁ഥികള	-3776
▁ുടര്	-3777
▁ടങ്ങള	-3778
▁90	-3779
▁ണാ	-3780
▁ുബ	-3781
▁ർപ	-3782
▁ിലന	-3783
▁േൽ	-3784
▁മേല	-3785
▁ുകയു	-3786
▁ാഡ	-3787
▁ഗണി	-3788
▁പാസ	-3789
▁വൈസ	-3790
▁ാദമ	-3791
▁്രസ	-3792
▁ഞ്ഞി	-3793
▁ന്തോ	-3794
▁ട്ടിന	-3795
▁രെയും	-3796
▁്ഡി	-3797
▁ന്തി	-3798
▁ുദ്ധ	-3799
▁്യന്	-3800
▁36	-3801
▁ോമ	-3802
▁ുവില	-3803
▁ിക്കല	-3804
▁എട	-3805
▁ധാര	-3806
▁ുടി	-3807
▁്കോട	-3808
▁്യാപ	-3809
▁നുമായ	-3810
▁ന്തിന	-3811
▁യോഗ്യ	-3812
▁ഇഡി	-3813
▁നിഷ	-3814
▁ാണു	-3815
▁75	-3816
▁ാകര	-3817
▁ാരം	-3818
▁മ്മി	-3819
▁ാറ്റു	-3820
▁55	-3821
▁ർഹ	-3822
▁ീയത	-3823
▁പ്രേ	-3824
▁യവ	-3825
▁രാശ	-3826
▁ാള്	-3827
▁ുപാ	-3828
▁കാരന്	-3829
▁ക്ടര്	-3830
▁റഹ	-3831
▁തിഷ	-3832
▁രോധ	-3833
▁ന്നീ	-3834
▁ലിൽ	-3835
▁റെടു	-3836
▁ൊഴ	-3837
▁്ലൂ	-3838
▁h	-3839
▁സസ	-3840
▁മുട	-3841
▁പാടില	-3842
▁ാധ്യത	-3843
▁െറ്റി	-3844
▁ധീ	-3845
▁കോഴ	-3846
▁നകള	-3847
▁സിറ	-3848
▁്തീ	-3849
▁ഗ്യ	-3850
▁ുക്ര	-3851
▁ദള	-3852
▁ച്ചട	-3853
▁നിലയ	-3854
▁വിപ	-3855
▁ഷത്ത	-3856
▁ന്വേ	-3857
▁പരിഹാ	-3858
പത	-3859
▁ഫറ	-3860
▁ിണ	-3861
▁വർണ	-3862
▁ിടി	-3863
▁ുതെ	-3864
▁ാട്ടു	-3865
▁പനി	-3866
▁പുക	-3867
▁സക്	-3868
▁ളിപ്പ	-3869
▁ാത്തി	-3870
▁ധവ	-3871
▁്മാര	-3872
▁ഗം	-3873
▁മ്പർ	-3874
▁ലാത്	-3875
▁്ത്യ	-3876
▁്തവ	-3877
▁ിയിട	-3878
കെ	-3879
▁കെയ	-3880
▁ീപ്	-3881
▁റിനെ	-3882
▁42	-3883
▁ചത	-3884
▁മയ	-3885
▁റല്	-3886
▁സുധ	-3887
▁്രിക്	-3888
▁ണല	-3889
▁രാർ	-3890
▁ഒപ്പ	-3891
▁്യാസ	-3892
▁രമി	-3893
▁സേവ	-3894
▁ർമാ	-3895
▁വീഴ്	-3896
▁ാക്	-3897
▁ാഹി	-3898
▁ോന്	-3899
▁ോൾ	-3900
▁രിന	-3901
▁ിപ്പ്	-3902
▁േറ്റ്	-3903
▁o	-3904
▁ശ്ശേ	-3905
▁ൂപ	-3906
▁മുള	-3907
▁രാക	-3908
▁സിയ	-3909
▁ശ്ശേര	-3910
▁I	-3911
▁എഎ	-3912
▁രയ	-3913
▁ൈഡ	-3914
▁ദ്യം	-3915
▁മ്പി	-3916
▁രോട്	-3917
▁ിനിമ	-3918
▁ൂരില	-3919
▁യിലായ	-3920
▁ലിറ്റ	-3921
▁യൽ	-3922
▁ലീസ	-3923
▁ിജെ	-3924
▁ക്കട	-3925
▁ണിത്	-3926
▁പയോഗ	-3927
▁കാരനാ	-3928
▁ഓളം	-3929
▁ലമെന	-3930
▁ക്കൂട	-3931
▁രിയായ	-3932
▁g	-3933
▁1.	-3934
▁ആഴ	-3935
▁സമാ	-3936
▁്തി	-3937
▁കളാണ	-3938
▁അണ	-3939
▁നിസ	-3940
▁ാതക	-3941
▁ാനാക	-3942
യോ	-3943
മാണ	-3944
▁ലധിക	-3945
▁മധ	-3946
▁200	-3947
▁ഥാപ	-3948
▁ലുവ	-3949
▁സിസ്	-3950
▁ൾപ്പ	-3951
an	-3952
▁ിപ	-3953
▁ചിത	-3954
▁വല്	-3955
▁സൈന	-3956
▁ുന്	-3957
▁വയസ്	-3958
▁ജിന	-3959
▁സിൽ	-3960
▁ന്ദ്	-3961
▁െടി	-3962
▁വേഷണ	-3963
▁കോവ	-3964
▁വെള	-3965
▁ോഷി	-3966
▁പെര	-3967
▁്കൂ	-3968
▁സമ്പർ	-3969
▁ബദ	-3970
▁ൊര	-3971
▁്ലേ	-3972
▁യുന്ന	-3973
▁േസെടു	-3974
▁്തിന	-3975
▁യട	-3976
▁ൂഡ	-3977
▁സിഡന്	-3978
▁C	-3979
▁43	-3980
▁റൈ	-3981
▁തയാ	-3982
▁ാണിത്	-3983
▁തീയ	-3984
▁ാനിയ	-3985
▁താക	-3986
▁ബാബ	-3987
▁ിനോ	-3988
▁ുണ്	-3989
▁ബോസ	-3990
▁ലിന്	-3991
▁െയില	-3992
▁ഷ്യല്	-3993
▁38	-3994
▁തകള	-3995
▁ാടന	-3996
▁ുടർ	-3997
▁ൊഴി	-3998
▁്ററി	-3999
▁ൃത്തി	-4000
▁ന്നെ	-4001
▁k	-4002
▁ടണ	-4003
▁കോണ	-4004
▁ാഷ്	-4005
▁ന്ദേ	-4006
▁ന്മാ	-4007
▁രിയാ	-4008
▁യമ	-4009
▁ജനം	-4010
▁ാദ്	-4011
▁41	-4012
▁ണിത	-4013
▁െഡി	-4014
▁നത	-4015
▁ീറ	-4016
▁500	-4017
▁റിലെ	-4018
▁ലക്ക	-4019
▁ൊഴില	-4020
▁ച്ചുവ	-4021
▁ിക്കാ	-4022
▁വസത	-4023
▁വാള	-4024
▁ഇതില	-4025
▁ട്രി	-4026
▁ളില്	-4027
▁വഴിയ	-4028
▁ീം	-4029
▁ിവ്	-4030
▁്യേ	-4031
▁രാക്ക	-4032
▁ർക്ക്	-4033
▁അവി	-4034
▁സജി	-4035
▁ഹോം	-4036
▁െക്	-4037
▁ോലെ	-4038
▁ോസ്	-4039
▁ലീസ്	-4040
▁ലിക്ക	-4041
▁െവ	-4042
▁ഇരി	-4043
▁തികൾ	-4044
▁മായത	-4045
▁കടത്ത	-4046
▁ൂറ	-4047
▁രണമ	-4048
▁ിലേ	-4049
▁ുലി	-4050
▁ോളി	-4051
▁്മത	-4052
▁ഞ്ഞിര	-4053
▁പിന്ത	-4054
▁ലധികം	-4055
▁്റ്റ്	-4056
▁ലങ്ങ	-4057
es	-4058
▁ലന	-4059
▁ഥാന	-4060
▁ശ്ച	-4061
▁39	-4062
▁ഡയ	-4063
▁ഇതാ	-4064
▁ിളി	-4065
▁നയില	-4066
▁ുവരെ	-4067
▁്രയി	-4068
▁തിയായ	-4069
▁നടൻ	-4070
▁സബ്	-4071
▁ലോക്ക	-4072
▁വാർ	-4073
▁ാലോ	-4074
▁ിഡി	-4075
▁ഭാഗം	-4076
▁ടത്തി	-4077
▁ന്നീട	-4078
▁ളിച്ച	-4079
▁5,	-4080
▁േത്	-4081
▁ക്കോട	-4082
▁ൂട്	-4083
▁നിയോ	-4084
▁മുകള	-4085
▁കൊള	-4086
▁നുണ	-4087
▁ബന്	-4088
▁വസര	-4089
▁ച്ചാ	-4090
▁ച്ചും	-4091
▁ിലാണ്	-4092
▁മേള	-4093
▁േന്ദ	-4094
▁ജക	-4095
▁മൃ	-4096
▁ലത	-4097
▁ബില	-4098
▁്രൂ	-4099
▁ബത്ത	-4100
▁സ്വീ	-4101
▁ിനിട	-4102
▁ാവ്	-4103
▁മോദി	-4104
▁റിന്	-4105
▁52	-4106
▁ിമി	-4107
▁കളോട	-4108
▁റങ്ങ	-4109
▁െയ്ത	-4110
▁ക്കാം	-4111
▁പിഴ	-4112
▁s	-4113
▁ളോ	-4114
▁ീഫ	-4115
▁..	-4116
▁ജൻ	-4117
▁മർ	-4118
▁അപ്	-4119
▁ഐടി	-4120
▁ലാണ	-4121
▁ാധക	-4122
▁ാമത	-4123
▁്റം	-4124
▁ിടങ്ങ	-4125
▁2,	-4126
▁ൊടു	-4127
▁്ലാതെ	-4128
▁അലി	-4129
▁്യാപക	-4130
▁രട	-4131
▁ൊണ	-4132
▁ോജ	-4133
▁ുപത	-4134
▁്വി	-4135
▁കേസില	-4136
▁നിച്ച	-4137
▁ൾഡ	-4138
▁റ്റീ	-4139
▁്മാന	-4140
▁ഉം	-4141
▁എകെ	-4142
▁ഉപയോ	-4143
▁പേരാ	-4144
▁േസില	-4145
▁്യങ്ങ	-4146
▁ഇല	-4147
▁ഉമ	-4148
▁ണിക്	-4149
▁ാറില	-4150
▁നയുടെ	-4151
▁ൂണ	-4152
▁ൗണ	-4153
▁കൊല്	-4154
▁യാര്	-4155
▁ഷപ്പ	-4156
▁ുത്തു	-4157
▁49	-4158
▁ുൽ	-4159
▁്ള	-4160
▁ൽപ	-4161
▁ാരമ	-4162
▁്റ്	-4163
▁ടപ്പ	-4164
▁നസ്സ	-4165
▁പോലു	-4166
▁്ടിലെ	-4167
▁51	-4168
▁്ടെ	-4169
▁ചുമത	-4170
▁ടിപ്പ	-4171
▁നുള്ള	-4172
▁ീണ്ടു	-4173
▁65	-4174
▁തത്	-4175
▁നിപ	-4176
▁മെയ	-4177
▁ർത്ഥി	-4178
▁രിക	-4179
▁ാപി	-4180
▁ളോട്	-4181
▁47	-4182
▁ലവ	-4183
▁ശൻ	-4184
▁കൊല	-4185
▁സ്പി	-4186
▁ദാന	-4187
▁ഭിമ	-4188
▁നോട്	-4189
▁സില്	-4190
▁ുങ്ങി	-4191
▁44	-4192
▁ടയ	-4193
▁യൂര	-4194
▁ഇങ്ങ	-4195
▁ഇതോട	-4196
▁ക്കയ	-4197
▁ിയന്	-4198
▁ഇടം	-4199
▁ാനെ	-4200
▁യിന്	-4201
▁രഞ്ഞ	-4202
▁കൊച്ച	-4203
ാർ	-4204
▁t	-4205
▁നബ	-4206
▁ഫസ	-4207
▁ഥാനാർ	-4208
▁കരു	-4209
▁പിള	-4210
▁ുറവ	-4211
▁ദർ	-4212
▁ിയന്ത	-4213
am	-4214
▁നര	-4215
▁ൂരി	-4216
▁ങ്ങാ	-4217
▁മാരെ	-4218
▁വീകര	-4219
▁ടര	-4220
▁േവ	-4221
▁മെട	-4222
▁ാശി	-4223
▁രത്ത	-4224
▁തിക്ക	-4225
▁ടക	-4226
▁യൺ	-4227
▁ലപ	-4228
▁ങ്കി	-4229
▁ടിയില	-4230
▁ർഘ	-4231
▁സീസ	-4232
▁കൗണ്ട	-4233
▁െര	-4234
▁രോട	-4235
▁ലന്	-4236
▁സാന	-4237
▁ന്നുക	-4238
▁ഴ്ച്ച	-4239
▁S	-4240
▁മസ	-4241
▁e	-4242
▁നക	-4243
▁യ്ത	-4244
▁ിലുമ	-4245
▁ഫഷ	-4246
▁ുദ	-4247
▁ാരു	-4248
▁താവിന	-4249
▁െന്നി	-4250
▁റയ	-4251
▁ൈം	-4252
▁ആക്	-4253
▁ടര്	-4254
▁ാരിയ	-4255
▁്കെടു	-4256
▁്ടാണ്	-4257
▁്റ്റി	-4258
▁രല	-4259
▁ൻറ	-4260
▁കേട	-4261
▁തുണ	-4262
▁8,	-4263
▁രത	-4264
▁ൂസ	-4265
▁കാവ	-4266
▁ഖില	-4267
▁കമ്പ	-4268
▁തികള	-4269
▁ട്രെയ	-4270
▁തിപ്പ	-4271
▁ശത്ത്	-4272
▁അബ	-4273
▁ഹസ	-4274
▁ുഹ	-4275
▁ംവി	-4276
▁ുരി	-4277
▁്പി	-4278
▁നെതിര	-4279
▁പട്ടി	-4280
▁7,	-4281
▁മകൻ	-4282
▁ച്ചറ	-4283
▁തത്ത	-4284
▁ൽഡ	-4285
▁എയർ	-4286
▁കമ്	-4287
▁മറ്റൊ	-4288
▁ന്‍	-4289
▁യുക	-4290
▁ള്‍	-4291
▁ദിക്	-4292
▁വാന്	-4293
▁ുതിര	-4294
▁കൽ	-4295
▁ജഗ	-4296
▁ടന	-4297
▁ുച	-4298
യാണ്	-4299
▁കളു	-4300
▁്മാ	-4301
▁ിശ്വ	-4302
▁സരത്ത	-4303
▁6,	-4304
▁റഫ	-4305
▁നയം	-4306
▁ായം	-4307
▁്ഷന	-4308
▁ികമാ	-4309
▁സ്ഥിര	-4310
▁ശക	-4311
▁ഒന്	-4312
▁ാക്ഷ	-4313
▁ന്നോട	-4314
▁പൊട്ട	-4315
▁്യപ്പ	-4316
▁സൽ	-4317
▁ോയ	-4318
▁വിയ	-4319
▁ിടു	-4320
▁ുട്	-4321
▁റുമാ	-4322
▁ചായ	-4323
▁ിലോ	-4324
▁്ലെ	-4325
▁ാര്യമ	-4326
▁്യമാക	-4327
www	-4328
▁www	-4329
▁കനാ	-4330
▁മാവ	-4331
▁മ്മന	-4332
▁്മിന	-4333
▁ഋ	-4334
▁46	-4335
▁അമ	-4336
▁ൊല	-4337
▁ഫഷണ	-4338
▁യൂട	-4339
▁കട്ട	-4340
▁ക്ഷാ	-4341
▁ാന്റ	-4342
▁റ്റിൽ	-4343
▁രാണ	-4344
▁ിബി	-4345
▁ിലയ	-4346
▁കുമോ	-4347
▁ാങ്ക്	-4348
▁ുന്ന്	-4349
▁ജയം	-4350
▁തുമ	-4351
▁രണം	-4352
▁ിടയ	-4353
▁വാങ്	-4354
▁ുള്ളവ	-4355
▁കൻ	-4356
▁ഗറ	-4357
▁ടും	-4358
▁നതാ	-4359
▁ളും	-4360
▁ല്ലായ	-4361
▁54	-4362
▁നിന	-4363
▁ബഹള	-4364
▁വളര	-4365
▁ണ്ടോ	-4366
▁മ്പോ	-4367
▁ാവുക	-4368
▁M	-4369
▁1,	-4370
▁2.	-4371
▁ുശ	-4372
▁ൽഷ	-4373
▁നേയ	-4374
▁പലര	-4375
▁്രെ	-4376
▁വന്ത	-4377
▁വെറു	-4378
▁ലറ	-4379
▁നസ്	-4380
▁ാസമ	-4381
▁റ്റെ	-4382
▁ണ്ടായ	-4383
▁ന്നവര	-4384
▁പര്	-4385
▁മിയ	-4386
▁ാമത്ത	-4387
▁രയില	-4388
▁സ്വര	-4389
▁രമായി	-4390
▁ിപ്പാ	-4391
▁ഇഷ	-4392
▁നീട	-4393
▁മുക	-4394
▁വെല്	-4395
▁പിന്ന	-4396
▁അഭ	-4397
▁യാര	-4398
▁ക്കല	-4399
▁ഫിക്	-4400
▁ലുണ്ട	-4401
▁ർവ	-4402
▁ൾസ	-4403
▁പട്	-4404
▁റ്റും	-4405
▁വിറ്റ	-4406
▁ുണ	-4407
▁ോപ	-4408
▁ആറു	-4409
▁തിനൊ	-4410
▁ളത്ത	-4411
▁56	-4412
▁പടി	-4413
▁വേറ	-4414
▁ാബ്	-4415
▁ിപ്	-4416
▁കൊടു	-4417
▁ണമായി	-4418
▁72	-4419
▁അഴ	-4420
▁ലഡ	-4421
▁ാപ്	-4422
▁മാസം	-4423
▁a	-4424
▁മ്	-4425
▁റിംഗ	-4426
▁െയാണ്	-4427
▁ജമ	-4428
▁ീഴ്	-4429
▁യാല്	-4430
▁രദേശ	-4431
▁ഷ്ടി	-4432
▁ക്ഷന്	-4433
▁ന്നിട	-4434
▁53	-4435
▁പവ	-4436
▁ംസാ	-4437
▁ജിയ	-4438
▁തമാ	-4439
▁ലിക	-4440
▁വാണ	-4441
▁്സ്	-4442
▁തിയാ	-4443
▁വഷ	-4444
▁ഷഹ	-4445
▁ോശ	-4446
▁കാം	-4447
▁കാലി	-4448
▁ണവും	-4449
▁ര്യം	-4450
▁ലിനെ	-4451
▁നിപ്പ	-4452
▁നെന്ന	-4453
▁റച്ച്	-4454
▁തവ	-4455
▁യയ	-4456
▁ഴയ	-4457
▁ിയാല	-4458
▁ദിവസം	-4459
▁പറേഷന	-4460
▁ശിപ്പ	-4461
▁10,	-4462
▁ോള്	-4463
▁ക്ടർ	-4464
▁സദ	-4465
▁ാഥ	-4466
▁150	-4467
▁തകര	-4468
▁തിമ	-4469
▁യിക	-4470
▁ോദ്	-4471
▁ിലാണ	-4472
▁കങ്ങള	-4473
▁ാർട്ട	-4474
▁്ഞ	-4475
▁ജില	-4476
▁വഷള	-4477
▁ചേരി	-4478
▁രാട്	-4479
▁സാരി	-4480
▁െയ്യ	-4481
▁ായു	-4482
▁ിയാണ	-4483
▁യതോടെ	-4484
▁57	-4485
▁ശില	-4486
▁ഷ്മ	-4487
▁ിഗ്	-4488
▁്മയ	-4489
▁ക്ഷന	-4490
▁്രിയ	-4491
▁ർദ	-4492
▁300	-4493
▁നുസ	-4494
▁മരം	-4495
▁ണ്ണൂ	-4496
▁വരുമാ	-4497
on	-4498
▁ഖല	-4499
▁ഹേ	-4500
▁ങ്കു	-4501
▁ൂർത്ത	-4502
▁58	-4503
▁ടർ	-4504
▁രദ്	-4505
▁ിയു	-4506
▁റിസ്	-4507
▁റ്റത	-4508
▁വരില	-4509
▁ത്തുക	-4510
▁ിനിമയ	-4511
▁11,	-4512
▁പോളി	-4513
▁മുസ്ല	-4514
▁ിക്കര	-4515
▁p	-4516
▁അധ	-4517
▁കവ	-4518
▁ഗെ	-4519
▁അപക	-4520
▁പള്	-4521
▁രുപ	-4522
▁ോടു	-4523
▁നിക്	-4524
▁യങ്ക	-4525
▁സ്വീക	-4526
▁്ടായി	-4527
▁തർ	-4528
▁റൺ	-4529
▁മിറ	-4530
▁മെന	-4531
▁ഗങ്ങള	-4532
▁രിട്ട	-4533
▁(1	-4534
▁-1	-4535
▁തസ	-4536
▁സയില	-4537
▁ിന്നാ	-4538
te	-4539
▁പക്	-4540
▁ത്താക	-4541
ov	-4542
▁ഇന	-4543
▁രൂപയ	-4544
▁62	-4545
▁ചോദ	-4546
▁ടിട	-4547
▁ടേയ	-4548
▁പിയ	-4549
▁സൻസ	-4550
▁യ്യാറ	-4551
▁ായത്ത	-4552
▁മ്പു	-4553
▁ലായിര	-4554
▁ിക്കോ	-4555
ഫ്	-4556
▁അസം	-4557
▁കടക	-4558
▁ിറക	-4559
▁ദ്ധത	-4560
▁ലായി	-4561
▁പുത	-4562
▁ീഷണ	-4563
▁ണ്ടാവ	-4564
▁റുകള്	-4565
▁ാര്യത	-4566
▁ിയയില	-4567
▁രഘ	-4568
▁്പു	-4569
▁ണത്ത	-4570
▁നുഭവ	-4571
▁വിക്	-4572
▁ിയതി	-4573
▁്യാര	-4574
▁തുക്ക	-4575
▁യങ്ങള	-4576
▁രള	-4577
▁ശൂ	-4578
▁വനം	-4579
▁റ്റം	-4580
▁ദല	-4581
▁ശവ	-4582
▁രിവ	-4583
▁പാടു	-4584
▁ാരമാ	-4585
▁നിക്ക	-4586
▁പിയില	-4587
▁ഡന്	-4588
▁യമാ	-4589
▁ാങ്	-4590
▁ങ്കാ	-4591
▁ട്ടറ	-4592
▁നങ്ങ	-4593
▁സ്ലി	-4594
▁ീക്ക	-4595
▁അടക്ക	-4596
▁കത	-4597
▁ടിപ	-4598
▁രുന	-4599
▁്യവ	-4600
▁നറ	-4601
▁വജ	-4602
▁മോദ	-4603
▁സുന	-4604
▁ാവി	-4605
▁ഡന്റ	-4606
▁ാരായ	-4607
▁ശങ്ങള	-4608
▁മട	-4609
▁്ദ	-4610
▁അഡ്	-4611
▁ചതി	-4612
▁റേഷ	-4613
▁ദത്ത	-4614
▁ശ്വസ	-4615
▁സന്ത	-4616
▁ാന്ന	-4617
▁്രമം	-4618
▁ക്കാവ	-4619
▁ണക്കു	-4620
ala	-4621
▁റൻ	-4622
▁തരണ	-4623
▁പ്യ	-4624
▁വാന	-4625
▁്ന്	-4626
▁ഡോക്	-4627
▁മങ്ങ	-4628
▁രോപി	-4629
▁പ്പോര	-4630
▁R	-4631
▁59	-4632
▁ഗര	-4633
▁രട്	-4634
▁ാമര	-4635
▁ൂണി	-4636
▁ക്കണ	-4637
▁ഖ്യാ	-4638
▁ഹം	-4639
▁ോന	-4640
▁എംപ	-4641
▁ഹേമ	-4642
▁ളിലെ	-4643
▁്പുഴ	-4644
▁d	-4645
▁9,	-4646
▁നന	-4647
▁മൻ	-4648
▁്യൻ	-4649
▁ട്ടമ	-4650
▁പാക്	-4651
▁മ്മാ	-4652
▁രുടെയ	-4653
▁3,	-4654
▁ഇപി	-4655
▁ഷ്ണ	-4656
▁ാരും	-4657
▁m	-4658
▁(2	-4659
▁85	-4660
▁അൽ	-4661
▁്നാ	-4662
▁ുകളെ	-4663
▁ിന്നി	-4664
▁്ടത്ത	-4665
▁B	-4666
▁ാച	-4667
▁400	-4668
▁ിദ്	-4669
▁ൂലമ	-4670
▁എങ്ങ	-4671
▁ത്യം	-4672
▁സന്ധ	-4673
▁ലേക്ക	-4674
▁ാറില്	-4675
▁ിച്ചത	-4676
▁P	-4677
▁നർ	-4678
▁ുൻ	-4679
▁ർന	-4680
▁ശ്യ	-4681
▁ിവാ	-4682
▁കളുമ	-4683
▁കാതെ	-4684
▁ഡില്	-4685
▁മെന്	-4686
▁വിലെ	-4687
▁ശത്ത	-4688
▁സാനി	-4689
▁സുകള	-4690
▁ാരിക	-4691
▁ചില്ല	-4692
▁ൈക്കോ	-4693
▁ഓണം	-4694
▁ഭ്യ	-4695
▁സായ	-4696
▁ുതാ	-4697
▁ഇപ്പ	-4698
▁ക്തി	-4699
▁ാപിക	-4700
▁ൃത്ത	-4701
▁ഭഗ	-4702
▁അവൾ	-4703
▁തല്	-4704
▁പ്പര്	-4705
▁സമി	-4706
▁ോഷ്	-4707
▁നുകള	-4708
▁രുതി	-4709
▁ശ്ചി	-4710
▁ിക്കു	-4711
▁്ടപ്പ	-4712
▁പകട	-4713
▁സുമ	-4714
▁്നി	-4715
▁ധിപത	-4716
▁പേരു	-4717
▁വിഡ്	-4718
▁കാക്ക	-4719
▁പറമ്പ	-4720
▁പം	-4721
▁കടം	-4722
▁യേറ	-4723
▁നവും	-4724
▁ഗാന്ധ	-4725
▁പരിചയ	-4726
▁ൂത്ത്	-4727
▁െയ്യാ	-4728
▁്യവും	-4729
▁4,	-4730
▁ഫറന	-4731
▁്ടാ	-4732
▁പരിച	-4733
),	-4734
ar	-4735
▁പൈസ	-4736
▁രെയ	-4737
▁എന്റ	-4738
▁ളിയാ	-4739
▁ാനിക്	-4740
▁ിങ്ങള	-4741
▁ബര	-4742
▁ലഘ	-4743
▁ചിര	-4744
▁്ടം	-4745
▁പുറം	-4746
▁ുമാനം	-4747
▁്റ്റു	-4748
▁An	-4749
▁ആദ	-4750
▁രച	-4751
▁ഹന	-4752
▁gov	-4753
▁ാടു	-4754
▁്ചാ	-4755
▁കണക്	-4756
▁ുകു	-4757
▁തുമാ	-4758
▁ത്തയ	-4759
▁ിഎഫ്	-4760
▁ാലിക്	-4761
▁ഴക	-4762
▁ൂന	-4763
▁ബദല	-4764
▁സുക	-4765
▁ാശ്	-4766
▁ാധിക	-4767
▁എന്നാ	-4768
▁63	-4769
▁ണത	-4770
▁han	-4771
▁ഭഗവ	-4772
▁ദില്	-4773
▁ാതിക	-4774
▁കരുടെ	-4775
▁ക്കളെ	-4776
▁ബന്ധി	-4777
▁ിരഞ്ഞ	-4778
▁സറ	-4779
▁ംപ്	-4780
▁ഏതു	-4781
▁നീത	-4782
▁മായാ	-4783
▁വിദേ	-4784
▁പെരുമ	-4785
▁റേഷന്	-4786
wes	-4787
▁ke	-4788
▁ലഹ	-4789
▁തരാ	-4790
▁ലൈൻ	-4791
▁മ്മയ	-4792
▁കളുമാ	-4793
▁രങ്ങള	-4794
▁ലാക്ക	-4795
▁േഷനില	-4796
▁അതോ	-4797
▁ഉടമ	-4798
▁ലപ്	-4799
▁തുകയ	-4800
▁Anwes	-4801
▁hanam	-4802
▁ബുദ്ധ	-4803
▁ഏഴു	-4804
▁കാൻ	-4805
▁ഗവൺ	-4806
▁ുമു	-4807
▁േക്	-4808
▁്മദ	-4809
▁്യന	-4810
▁ക്കാമ	-4811
▁്പത്ത	-4812
▁കിസ	-4813
▁ടുമ	-4814
▁ബിര	-4815
▁സും	-4816
▁ിയല	-4817
▁ീവി	-4818
▁ഷിന്	-4819
▁ക്കമാ	-4820
▁ന്നത്	-4821
▁മ്മില	-4822
▁66	-4823
▁71	-4824
▁മൺ	-4825
▁വഗ	-4826
▁ഓടി	-4827
▁േയു	-4828
▁േസ്	-4829
▁യാന്	-4830
▁രിസ്	-4831
▁ണെങ്ക	-4832
▁ാധിപത	-4833
.5	-4834
▁ീശ	-4835
▁അക്	-4836
▁ക്ഷയ	-4837
▁പ്രി	-4838
▁കളാണ്	-4839
▁77	-4840
▁അം	-4841
▁തള	-4842
▁പഥ	-4843
▁രൊ	-4844
▁റൂം	-4845
▁ന്ദു	-4846
▁പിഎം	-4847
▁ഫഷണല	-4848
▁ിപ്ര	-4849
▁െറിയ	-4850
▁ച്ചത്	-4851
▁ിശ്വസ	-4852
▁D	-4853
▁64	-4854
▁ഒപ	-4855
▁കറ	-4856
▁ർണ	-4857
▁യേല	-4858
▁വിര	-4859
▁ികാ	-4860
▁മ്പള	-4861
▁തങ്ങള	-4862
▁്തിരി	-4863
▁്ത്യന	-4864
▁ഇഒ	-4865
▁ടൈ	-4866
▁ണബ	-4867
▁ഥവ	-4868
▁ൂഷ	-4869
▁പാണ	-4870
▁ാരന	-4871
▁ോഡ്	-4872
▁ടാക്	-4873
▁നുമാ	-4874
▁ുക്കള	-4875
▁l	-4876
▁ർബ	-4877
▁നഗർ	-4878
▁മകൾ	-4879
▁rala	-4880
▁മിന്	-4881
▁ായാല	-4882
▁ൊട്ട	-4883
▁്തര്	-4884
▁T	-4885
▁68	-4886
▁ടൺ	-4887
▁ഡബ	-4888
▁രൺ	-4889
▁പോയത	-4890
▁ല്ലെ	-4891
▁റിക്ക	-4892
ധാ	-4893
▁ഡൻ	-4894
▁രക	-4895
▁േള	-4896
▁ൊവ	-4897
▁ആളെ	-4898
▁ഭയം	-4899
▁യാന	-4900
▁സെന	-4901
▁അറിയാ	-4902
▁&	-4903
▁12,	-4904
▁യുണ	-4905
▁ാബു	-4906
▁ിവെ	-4907
▁കറ്റ	-4908
▁പ്രധാ	-4909
▁ദിയ	-4910
▁നൂര	-4911
▁ലമാ	-4912
▁ിണറ	-4913
▁ുരം	-4914
▁ിനാല	-4915
▁ണങ്ങൾ	-4916
▁ണ്ടിയ	-4917
▁ത്തത്	-4918
▁ത്രിമ	-4919
at	-4920
▁61	-4921
▁ഖി	-4922
▁െണ	-4923
▁മതം	-4924
▁മേൽ	-4925
▁രമണ	-4926
▁രാട	-4927
▁ലെട	-4928
▁സ്ബ	-4929
▁്പാ	-4930
▁ിവരു	-4931
▁ുപോക	-4932
▁തലത്ത	-4933
▁ചട	-4934
▁ോഴ	-4935
▁കന്	-4936
▁കരമ	-4937
▁ഡൗൺ	-4938
▁നെത	-4939
▁ന്താ	-4940
▁പോസ്	-4941
▁ാറിന	-4942
▁ർന്ന	-4943
▁67	-4944
▁റല	-4945
▁ഷേ	-4946
▁ടന്	-4947
▁ടൈം	-4948
▁ലയി	-4949
▁യുമെ	-4950
▁ലില്	-4951
▁ാനില	-4952
▁്യാന	-4953
▁രധ	-4954
▁കാട	-4955
▁ൂഹത	-4956
▁പാർട	-4957
▁റുകൾ	-4958
▁ിമാന	-4959
▁(3	-4960
▁ഗർ	-4961
▁ൂള	-4962
▁ജിസ	-4963
▁ോപ്	-4964
▁തീരു	-4965
▁മിക്	-4966
▁വർഷം	-4967
▁സ്തു	-4968
▁ക്കിന	-4969
▁മാനമാ	-4970
▁ഓടെ	-4971
▁മനു	-4972
▁ോഗ്	-4973
▁്ക്	-4974
▁മാക്	-4975
▁റേഷന	-4976
▁ാടിയ	-4977
▁ിസിസ	-4978
▁ിക്കി	-4979
▁്യമാണ	-4980
▁്യാന്	-4981
▁99	-4982
▁വൺ	-4983
▁250	-4984
▁പിക	-4985
▁റസ്	-4986
▁ശിയ	-4987
▁ങ്കയ	-4988
▁റ്റഡ	-4989
▁ാകരന	-4990
▁ുപ്ര	-4991
▁്രെയ	-4992
▁്സില	-4993
▁ടക്കാ	-4994
▁ഈര	-4995
▁ലക	-4996
▁13,	-4997
▁ംഗി	-4998
▁ംപി	-4999
▁തനാ	-5000
▁മുഹ	-5001
▁്കോ	-5002
▁്രചാര	-5003
▁ഗൾ	-5004
▁ചവ	-5005
▁ളക	-5006
▁നോട	-5007
▁ലോട്	-5008
▁വുകള	-5009
▁രാട്ട	-5010
▁ുമാനി	-5011
ai	-5012
or	-5013
▁·	-5014
▁14,	-5015
▁പൂര	-5016
▁റാണ	-5017
▁ഴിയ	-5018
▁വാത	-5019
▁വെയ	-5020
▁ാനവ	-5021
▁ന്നല	-5022
▁ിക്കൂ	-5023
▁u	-5024
▁69	-5025
▁78	-5026
▁ഏറ	-5027
▁600	-5028
▁ചരി	-5029
▁ാറാ	-5030
▁ത്രമ	-5031
▁സുപ്ര	-5032
▁#	-5033
▁നിമ	-5034
▁രിട	-5035
▁റിപ	-5036
▁ൂടി	-5037
▁്രഹ	-5038
▁ളായി	-5039
▁നമാണ്	-5040
▁റഞ്ഞത	-5041
▁ിഞ്ഞു	-5042
▁95	-5043
▁ജസ	-5044
▁ഹക	-5045
▁ദേഹ	-5046
▁പായ	-5047
▁വധശ	-5048
▁നാവി	-5049
▁രണമാ	-5050
▁ച്ചവര	-5051
▁യോഗിക	-5052
▁ായില്	-5053
▁N	-5054
▁നൊ	-5055
▁ൽമ	-5056
▁ഫോർ	-5057
▁ത്രാ	-5058
▁രവും	-5059
▁തിരുന	-5060
▁ാക്കള	-5061
▁ാമ്പത	-5062
▁ാമ്പി	-5063
▁ിയതിന	-5064
▁ഉച	-5065
▁യശ	-5066
▁സള	-5067
▁്ടത	-5068
▁ചന്ദ	-5069
▁ണ്ണം	-5070
▁രമായ	-5071
▁തിയാക	-5072
▁്യമായ	-5073
▁്വേഷണ	-5074
▁നൈ	-5075
▁റസ	-5076
▁...	-5077
▁നാവ	-5078
▁്രം	-5079
▁യങ്ങ	-5080
▁യ്യി	-5081
▁സ്താ	-5082
യർ	-5083
ർമ	-5084
▁ഗൾഫ	-5085
▁രതി	-5086
▁സ്ര	-5087
▁ോടൊ	-5088
▁്രന	-5089
▁അത്ത	-5090
▁ജിക്	-5091
▁ിനായ	-5092
▁േസിൽ	-5093
▁ഉഷ	-5094
▁ൽസ	-5095
▁കിം	-5096
▁ഡില	-5097
▁തനം	-5098
▁ണമായ	-5099
▁ാപനം	-5100
▁ൃഷ്ണ	-5101
▁ികളും	-5102
▁74	-5103
▁ടെയ	-5104
▁രീത	-5105
▁്രപ	-5106
▁നികള	-5107
▁ന്നോ	-5108
▁വ്യത	-5109
▁േരിട	-5110
▁ച്ചതാ	-5111
▁പത്തി	-5112
▁വിച്ച	-5113
▁ുജ	-5114
▁ജനത	-5115
▁ഡാം	-5116
▁ണില	-5117
▁മും	-5118
▁തോളം	-5119
▁ുപാട	-5120
▁ടുന്ന	-5121
▁പത്തന	-5122
▁ോട്ടി	-5123
▁82	-5124
▁ുഗ	-5125
▁120	-5126
▁ion	-5127
▁ഡയറ	-5128
▁രാവ	-5129
▁ലവി	-5130
▁ിരോ	-5131
▁ത്രീ	-5132
▁റ്റക	-5133
▁റ്റൊ	-5134
▁ലയില	-5135
▁ുപോല	-5136
▁കുഞ്ഞ	-5137
▁ട്ടുമ	-5138
തീക	-5139
▁76	-5140
▁or	-5141
▁ഇള	-5142
▁ഗസ	-5143
▁ഇടത	-5144
▁ധനു	-5145
▁നബി	-5146
▁ലീം	-5147
▁കളക്	-5148
▁കാട്	-5149
▁പദ്ധ	-5150
▁തമായി	-5151
▁്രതീക	-5152
▁റമ	-5153
▁ഹു	-5154
▁ബിൽ	-5155
▁നുഷ്	-5156
▁വിലയ	-5157
▁ത്താൻ	-5158
▁ാത്തത	-5159
▁ായിക്	-5160
▁ഉള	-5161
▁നപ	-5162
▁15,	-5163
▁ജസ്	-5164
▁തുള	-5165
▁ടെന്	-5166
▁ന്റേ	-5167
▁ഗീ	-5168
▁അവൻ	-5169
▁കരെ	-5170
▁കാമ	-5171
▁യമന	-5172
▁രാന	-5173
▁ുദാ	-5174
▁്രയ	-5175
▁ണങ്ങ	-5176
▁നമായ	-5177
▁ന്നൊ	-5178
▁സാമ്	-5179
▁സ്വദ	-5180
▁ഗ്രഹി	-5181
▁73	-5182
▁ആത	-5183
▁അഴി	-5184
▁ഇടി	-5185
▁പത്	-5186
▁ഹങ്	-5187
▁്വര	-5188
▁ക്കന	-5189
▁റപ്പ	-5190
▁ിയോട	-5191
▁ിലിന	-5192
▁പദ്ധത	-5193
▁രമാണ്	-5194
▁ാക്കു	-5195
▁W	-5196
▁96	-5197
▁മള	-5198
▁ത്യയ	-5199
▁പില്	-5200
▁ികരി	-5201
▁ിനെയ	-5202
▁ാലിന്	-5203
▁ിപ്പു	-5204
▁K	-5205
▁3.	-5206
▁84	-5207
▁86	-5208
▁91	-5209
▁അനി	-5210
▁കെട	-5211
▁നറി	-5212
▁േശ്	-5213
▁തിലെ	-5214
▁മനസ്	-5215
▁മ്പര	-5216
▁ക്ഷമാ	-5217
▁ഇബ	-5218
▁എല	-5219
▁ണർ	-5220
▁ഗോവ	-5221
▁നേക	-5222
▁െളി	-5223
▁ൽവർ	-5224
▁മേരി	-5225
▁തില്ല	-5226
▁ങ	-5227
▁83	-5228
▁92	-5229
▁ഒറ	-5230
▁ടൻ	-5231
▁ുയ	-5232
▁ൈമ	-5233
▁കമല	-5234
▁യറി	-5235
▁ിഡ്	-5236
▁ിലീ	-5237
▁്മന	-5238
▁ടിന്	-5239
▁ികളാ	-5240
▁ോലും	-5241
▁ത്തുമ	-5242
▁ിച്ചി	-5243
▁ുന്നവ	-5244
▁f	-5245
▁88	-5246
▁ണൽ	-5247
▁തഴ	-5248
▁-19	-5249
▁എപി	-5250
▁ഹിക	-5251
▁ിലക	-5252
▁ണ്ടെ	-5253
▁തമിഴ	-5254
▁തിയെ	-5255
▁്കര്	-5256
▁കേണ്ട	-5257
▁മാരും	-5258
▁റ്റൊര	-5259
▁79	-5260
▁co	-5261
▁ഡു	-5262
▁തൽ	-5263
▁ീരു	-5264
▁ധ്യാ	-5265
▁മക്ക	-5266
▁സിനെ	-5267
▁ാടുക	-5268
▁്രക്ക	-5269
▁87	-5270
▁94	-5271
▁അദ്	-5272
▁ജോൺ	-5273
▁ലുമ	-5274
▁ാരെ	-5275
▁ുതു	-5276
▁താവള	-5277
▁യപ്പ	-5278
▁സ്സി	-5279
▁ിംഗി	-5280
▁ടയില്	-5281
▁*	-5282
▁ഗഢ	-5283
▁രദ	-5284
▁സഡ	-5285
▁ടതി	-5286
▁ദർശ	-5287
▁നഷ്	-5288
▁പദം	-5289
▁്രത	-5290
▁ട്ടുക	-5291
▁ത്തായ	-5292
▁ാക്സി	-5293
▁V	-5294
▁4.	-5295
▁ടൽ	-5296
▁രന	-5297
▁ഗ്ല	-5298
▁നാക	-5299
▁പോൾ	-5300
▁രന്	-5301
▁ശുപ	-5302
▁േടാ	-5303
▁േറി	-5304
▁നികു	-5305
▁വെന്	-5306
▁ിമാര	-5307
▁ിലില	-5308
▁ുമാർ	-5309
▁ളിക്ക	-5310
▁89	-5311
▁ടോം	-5312
▁നാധ	-5313
▁ലങ്	-5314
▁ലാവ	-5315
▁ാഹു	-5316
▁കില്	-5317
▁ടുകള	-5318
▁നമാണ	-5319
▁വുകയ	-5320
▁ൃഷ്ട	-5321
▁കാനും	-5322
▁നമ്മു	-5323
▁നികുത	-5324
▁്കറ്റ	-5325
▁അച	-5326
▁വണ	-5327
▁ൈറ	-5328
▁ൻവ	-5329
▁ആണോ	-5330
▁്ഞാ	-5331
▁റ്റന്	-5332
▁(4	-5333
▁ഫു	-5334
▁യൂസ	-5335
▁ാജന	-5336
▁ാവാ	-5337
▁്വത	-5338
▁തികര	-5339
▁ദമായ	-5340
▁ിക്യ	-5341
▁്പര്	-5342
▁്രമാ	-5343
▁്റില	-5344
▁ടിയും	-5345
▁നത്തെ	-5346
▁നുമാണ	-5347
▁93	-5348
▁ദം	-5349
▁പൂജ	-5350
▁്ധര	-5351
▁ൻവർ	-5352
▁തമായ	-5353
▁ന്ധു	-5354
▁ഫറൻസ	-5355
▁മില്	-5356
▁ാഗ്യ	-5357
▁ുറന്	-5358
▁ആദ്യമ	-5359
▁സ്ഥിത	-5360
▁ിന്നു	-5361
▁81	-5362
▁തഫ	-5363
▁വത	-5364
▁ൈദ	-5365
▁ഒരോ	-5366
▁ഫോം	-5367
▁്ഞി	-5368
▁രോപണ	-5369
▁ആക്രമ	-5370
▁ചാത്ത	-5371
▁ച്ചാല	-5372
▁ുറ്റപ	-5373
▁്ക്കു	-5374
▁ർത്താ	-5375
ബി	-5376
▁17,	-5377
▁രീം	-5378
▁റൺസ	-5379
▁ുറക	-5380
▁ജിന്	-5381
▁പിക്	-5382
▁വീടു	-5383
▁ശ്ചാ	-5384
▁തിരെയ	-5385
▁യയുടെ	-5386
▁സുകള്	-5387
▁്ത്യൻ	-5388
▁E	-5389
▁കയി	-5390
▁ണന്	-5391
▁പില	-5392
▁ളുക	-5393
▁ാദി	-5394
▁ടിക്	-5395
▁തില്	-5396
▁നസില	-5397
▁രുവി	-5398
▁്ടുപ	-5399
▁െന്നു	-5400
▁ോത	-5401
▁ബിൻ	-5402
▁ഴുവ	-5403
▁വാഗ	-5404
▁സീറ	-5405
▁ജനറല	-5406
▁ഫിന്	-5407
▁തിനിട	-5408
▁L	-5409
▁v	-5410
▁സൾ	-5411
▁16,	-5412
▁ജഗന	-5413
▁നാര	-5414
▁രാധ	-5415
▁്പട	-5416
▁കാരമ	-5417
▁ക്ലാ	-5418
▁ടിയേ	-5419
▁ത്സര	-5420
▁പരിശ	-5421
▁്റിൽ	-5422
▁ഇതുവര	-5423
▁റ്റുമ	-5424
▁േഴ	-5425
▁140	-5426
▁റയ്	-5427
▁ട്ടിൽ	-5428
▁്തിനെ	-5429
▁ഝ	-5430
▁മൽ	-5431
▁റൊ	-5432
▁ലൗ	-5433
▁സത	-5434
▁ഉളള	-5435
▁ഖാൻ	-5436
▁മീറ	-5437
▁ലോട	-5438
▁ാമത്	-5439
▁്തും	-5440
▁ിട്ടത	-5441
പ്ര	-5442
▁ംത	-5443
▁ദൾ	-5444
▁ൃദ	-5445
▁ൗര	-5446
▁ജഗദ	-5447
▁്ചര	-5448
▁യപ്ര	-5449
▁യുള്	-5450
▁വീണ്	-5451
▁ത്തുന	-5452
▁യുമെന	-5453
▁ുപക്ഷ	-5454
▁b	-5455
▁ഒട	-5456
▁ധയ	-5457
▁കളാ	-5458
▁ബസവ	-5459
▁മസി	-5460
▁രവാ	-5461
▁ഴിക	-5462
▁ികര	-5463
▁ൈന്	-5464
▁്ടവ	-5465
▁ടിയു	-5466
▁ദ്രസ	-5467
▁ങ്ങളോ	-5468
▁97	-5469
▁18,	-5470
▁ഭവന	-5471
▁ലാക	-5472
▁ുഖ്	-5473
▁്പന	-5474
▁വരെയ	-5475
▁സിലാ	-5476
▁ുവിള	-5477
▁്ലിയ	-5478
▁മയുടെ	-5479
▁റ്റത്	-5480
▁ശ്ചാത	-5481
▁F	-5482
▁ഥന	-5483
▁െക	-5484
▁ജലം	-5485
▁ടനാ	-5486
▁തോള	-5487
▁ുതര	-5488
▁ൻസർ	-5489
▁ത്രം	-5490
▁ഭരണക	-5491
▁യന്ത	-5492
▁റത്ത	-5493
▁ച്ചുക	-5494
▁പിച്ച	-5495
▁ർത്തി	-5496
▁w	-5497
ഞ്ഞ്	-5498
▁്തോ	-5499
▁കൂടാ	-5500
▁ധാനം	-5501
▁ഇന്നല	-5502
▁ത്താണ	-5503
▁രാത്ര	-5504
▁െന്റി	-5505
di	-5506
ഡിയ	-5507
▁തെറ	-5508
▁ളിക	-5509
▁ന്ധം	-5510
▁ക്കുള	-5511
▁ഡന്റ്	-5512
▁തൃശൂര	-5513
▁പരിപാ	-5514
▁മീഡിയ	-5515
▁ുക്കു	-5516
ഖഫ	-5517
ഹദ	-5518
▁O	-5519
▁(5	-5520
▁ബന	-5521
▁ംഗം	-5522
▁അബ്	-5523
▁ദമാ	-5524
▁നീക	-5525
▁നുപ	-5526
▁പൊത	-5527
▁മരു	-5528
▁രുക	-5529
▁വഖഫ	-5530
▁ാനേ	-5531
▁െലവ	-5532
▁അറസ്	-5533
▁യെടു	-5534
▁ോധിക	-5535
▁ലക്ഷ്	-5536
▁ഷമാണ്	-5537
▁േഹത്ത	-5538
▁്യാപി	-5539
▁വച	-5540
▁സൃ	-5541
▁370	-5542
▁രതീ	-5543
▁രുട	-5544
▁്റു	-5545
▁കൃഷ്	-5546
▁ന്ദി	-5547
ps	-5548
▁ചൽ	-5549
▁ഡേ	-5550
▁ണക	-5551
▁യസ	-5552
▁19,	-5553
▁800	-5554
▁തിൻ	-5555
▁ഫഹദ	-5556
▁രംഭ	-5557
▁റുമ	-5558
▁ിതമ	-5559
▁ീവന	-5560
▁ുവന	-5561
▁്ചറ	-5562
▁ിന്ത	-5563
▁ഇങ്ങന	-5564
▁ങ്കുവ	-5565
▁പ്രവാ	-5566
▁ിഞ്ഞ്	-5567
▁ഭര	-5568
▁ംഗാ	-5569
▁ആരെ	-5570
▁നയാ	-5571
▁പദ്	-5572
▁പിണ	-5573
▁യതാ	-5574
▁സദസ	-5575
▁േസമ	-5576
▁ക്തമ	-5577
▁ങ്ങു	-5578
▁തന്റ	-5579
▁യതിന	-5580
▁യമായ	-5581
▁ിനേഷ	-5582
▁ീസില	-5583
▁ആലപ്പ	-5584
▁റത്തി	-5585
▁റ്റെട	-5586
▁്രിയാ	-5587
ic	-5588
▁G	-5589
▁കഴ	-5590
▁വൾ	-5591
▁ൻഷ	-5592
▁110	-5593
▁കളോ	-5594
▁ളാണ	-5595
▁ൂല്	-5596
▁ഉന്ന	-5597
▁രാഷ്	-5598
▁ഷ്യം	-5599
▁റ്ററി	-5600
▁ലയില്	-5601
ച്	-5602
▁ആൾ	-5603
▁നഹ	-5604
▁റം	-5605
▁130	-5606
▁നെയ	-5607
▁ളക്	-5608
▁ഹണി	-5609
▁ാതന	-5610
▁ാരോ	-5611
▁ികയ	-5612
▁രന്റ	-5613
▁്തില്	-5614
▁6.	-5615
▁ലഗ	-5616
▁വദ	-5617
▁േക	-5618
▁ണത്	-5619
▁ബലം	-5620
▁ശാന	-5621
▁്തര	-5622
▁്തല	-5623
▁പാലക	-5624
▁ിവരാ	-5625
▁കുകള്	-5626
▁േസമയം	-5627
യൽ	-5628
▁കഫ	-5629
▁റന	-5630
▁േഗ	-5631
▁ൊട	-5632
▁144	-5633
▁com	-5634
▁ഫയൽ	-5635
▁മദ്	-5636
▁യാറ	-5637
▁യാർ	-5638
▁ലരു	-5639
▁ൊറോ	-5640
▁്ലക	-5641
▁കുള്	-5642
▁ഫഷണൽ	-5643
▁പ്പോർ	-5644
▁ിനാല്	-5645
▁ുത്താ	-5646
▁്റിക്	-5647
▁ർക്കു	-5648
▁7.	-5649
▁പഹ	-5650
▁രശ	-5651
▁ഗത്	-5652
▁ടനം	-5653
▁സജീ	-5654
▁ിമു	-5655
▁േട്	-5656
▁കാണു	-5657
▁കൂടു	-5658
▁മാനി	-5659
▁വസ്ഥ	-5660
▁്രമണ	-5661
▁ചിക്ക	-5662
▁ദിക്ക	-5663
ro	-5664
▁ലൻ	-5665
▁ഹവ	-5666
▁108	-5667
▁എസി	-5668
▁ളോട	-5669
▁ഷറഫ	-5670
▁ോദര	-5671
▁്മെ	-5672
▁കാനാ	-5673
▁ലീഗ്	-5674
▁ാവില	-5675
▁്ലാവ	-5676
▁നെയും	-5677
▁ോടെയാ	-5678
▁്രമാണ	-5679
ts	-5680
tt	-5681
▁125	-5682
▁ടാക	-5683
▁ടിക	-5684
▁നയ്	-5685
▁നുവ	-5686
▁ലകള	-5687
▁ുംബ	-5688
▁്രണ	-5689
▁നിയാ	-5690
▁മാനം	-5691
▁രസ്യ	-5692
▁ശപ്പ	-5693
▁ാണിത	-5694
▁ുഖ്യ	-5695
▁െടുത	-5696
▁ക്കേറ	-5697
▁ച്ചറി	-5698
▁ാനില്	-5699
▁ിപ്രാ	-5700
le	-5701
▁ഫഡ	-5702
▁മഡ	-5703
▁സൻ	-5704
▁െബ	-5705
▁തിട	-5706
▁നാസ	-5707
▁ഷകര	-5708
▁ാത്	-5709
▁ീതി	-5710
▁ോഗി	-5711
▁തപ്പ	-5712
▁ലെടു	-5713
▁ല്ലം	-5714
▁വിവി	-5715
▁സ്ഥി	-5716
ഖ്	-5717
▁ഭ്	-5718
▁ൊത	-5719
▁കളം	-5720
▁വാവ	-5721
▁ുക്	-5722
▁ോകു	-5723
▁തോട്	-5724
▁സംഘം	-5725
▁റുണ്ട	-5726
▁98	-5727
▁ഘവ	-5728
▁ബഫ	-5729
▁ൽബ	-5730
▁160	-5731
▁പടം	-5732
▁്വം	-5733
▁ൾസർ	-5734
▁പാണ്	-5735
▁ഗിച്ച	-5736
▁ടപ്പാ	-5737
▁ലത്ത്	-5738
▁ാകരന്	-5739
▁ാനങ്ങ	-5740
▁ിച്ചാ	-5741
▁്വന്ത	-5742
▁U	-5743
▁ഐഷ	-5744
▁ഥ്	-5745
ന്ദ്	-5746
▁1.5	-5747
▁അതെ	-5748
▁പകൽ	-5749
▁ലവ്	-5750
▁ിടക	-5751
▁ൊന്	-5752
▁ർഡ്	-5753
▁അനുമ	-5754
▁രാന്	-5755
▁ലുമാ	-5756
▁ാനാണ	-5757
▁ചന്ദ്	-5758
▁ളുകള്	-5759
▁്യയില	-5760
ail	-5761
▁ൻപ	-5762
▁21,	-5763
▁22,	-5764
▁ഹത്	-5765
▁ൈമാ	-5766
▁സോണി	-5767
▁േതാവ	-5768
▁ോദിയ	-5769
▁്രമേ	-5770
▁ക്തമാ	-5771
▁യിപ്പ	-5772
▁്ഥാനമ	-5773
re	-5774
st	-5775
▁ഓം	-5776
▁ഹർ	-5777
▁700	-5778
▁ഐഡി	-5779
▁ണമാ	-5780
▁സുര	-5781
▁ഹായ	-5782
▁ിതി	-5783
▁ുത്	-5784
▁ശങ്ങ	-5785
▁ിൻ്റ	-5786
▁മ്പോൾ	-5787
▁യതായി	-5788
ce	-5789
▁0.	-5790
▁5.	-5791
▁er	-5792
▁സക	-5793
▁ൽവ	-5794
mail	-5795
▁180	-5796
▁നുഷ	-5797
▁പരീ	-5798
▁ഫാം	-5799
▁മക്	-5800
▁മധു	-5801
▁ശൂര	-5802
▁ോപാ	-5803
▁ംവിധ	-5804
▁കമാണ	-5805
▁ടായി	-5806
▁സത്ത	-5807
▁്മിറ	-5808
▁കരുത്	-5809
▁ടെയാണ	-5810
▁ണക്കാ	-5811
▁ന്വേഷ	-5812
▁യങ്ങൾ	-5813
▁ിയിലെ	-5814
▁+	-5815
▁ൡ	-5816
▁24,	-5817
▁htt	-5818
▁കോൾ	-5819
▁മനം	-5820
▁ലാന	-5821
▁ശാസ	-5822
▁സകല	-5823
▁ിപാ	-5824
▁്പല	-5825
▁റിക്	-5826
▁ാരാണ	-5827
▁ാസിക	-5828
▁ോഴും	-5829
▁ത്തുവ	-5830
▁മനുഷ്	-5831
▁സ്താവ	-5832
▁െങ്കി	-5833
▁െയ്തി	-5834
▁്വദേശ	-5835
▁(1)	-5836
▁20,	-5837
▁org	-5838
▁ഫർമ	-5839
▁ലത്	-5840
▁സിഐ	-5841
▁്ബു	-5842
▁ഗ്രത	-5843
▁നിങ്	-5844
▁നുസര	-5845
▁യ്ക്	-5846
▁രിനെ	-5847
▁്ഷന്	-5848
▁കറ്റി	-5849
▁ടുള്ള	-5850
▁രിയില	-5851
▁രേന്ദ	-5852
▁റിറ്റ	-5853
▁റ്റുക	-5854
▁സ്സില	-5855
▁ുമ്പോ	-5856
▁ഹബ	-5857
▁അരി	-5858
▁ഇടയ	-5859
▁ഥിയ	-5860
▁വസാ	-5861
▁ുപ്	-5862
▁്ഷാ	-5863
▁ഇത്ത	-5864
▁എട്ട	-5865
▁തിലു	-5866
▁ഴിവു	-5867
▁വിലക	-5868
▁ൂണ്ട	-5869
▁ാരുടെ	-5870
▁ുസ്ലി	-5871
▁േരില്	-5872
▁്റ്റന	-5873
in	-5874
▁@	-5875
▁th	-5876
▁കപ	-5877
▁തപ	-5878
▁25,	-5879
▁ഇസ്	-5880
▁ബീന	-5881
▁യസ്	-5882
▁ളിപ	-5883
▁ുതി	-5884
▁ഞ്ഞെ	-5885
▁തുമെ	-5886
▁നപ്പ	-5887
▁ട്രീയ	-5888
▁രുദ്ധ	-5889
▁സെക്ര	-5890
▁ികളായ	-5891
▁ുന്നി	-5892
▁്തോളം	-5893
▁്യക്ഷ	-5894
▁=	-5895
▁H	-5896
ഗ്ര	-5897
▁തത	-5898
▁ൽഫ	-5899
▁തോഷ	-5900
▁യതോ	-5901
▁യാമ	-5902
▁ലമെ	-5903
▁വുന	-5904
▁സിൻ	-5905
▁ഹയർ	-5906
▁ാമാ	-5907
▁്കാ	-5908
▁ഡ്രൈ	-5909
▁പ്രയ	-5910
▁്യാമ	-5911
▁ഗിക്ക	-5912
▁നിക്ഷ	-5913
▁രക്കാ	-5914
▁രുമായ	-5915
▁ിഎമ്മ	-5916
er	-5917
▁]	-5918
▁164	-5919
▁ഫിന	-5920
▁ൂറി	-5921
▁്റോ	-5922
▁ട്രീ	-5923
▁ദ്യേ	-5924
▁[	-5925
▁!!	-5926
▁-2	-5927
▁ഥയ	-5928
▁ളര	-5929
▁ൈയ	-5930
▁അമല	-5931
▁ആശാ	-5932
▁പോർ	-5933
▁ളിൽ	-5934
▁െറു	-5935
▁്തൂ	-5936
▁നാര്	-5937
▁നിരു	-5938
▁ിടെയ	-5939
▁ഡിക്ക	-5940
▁്പിക്	-5941
ad	-5942
▁1)	-5943
▁In	-5944
▁an	-5945
▁ബൽ	-5946
▁മഥ	-5947
▁്ശ	-5948
▁105	-5949
▁2.5	-5950
▁അബു	-5951
▁ഇളയ	-5952
▁ണ്‍	-5953
▁ദഗ്	-5954
▁ലാൽ	-5955
▁വിറ	-5956
▁ശിക	-5957
▁ാവര	-5958
▁ിഷേ	-5959
▁്തമ	-5960
▁ആക്ര	-5961
▁ഒരുക	-5962
▁ഥിയാ	-5963
▁യുകയ	-5964
▁ീപിന	-5965
▁്രീം	-5966
▁ദിച്ച	-5967
▁പോർട്	-5968
▁രത്ത്	-5969
▁ല്ലുവ	-5970
▁∙	-5971
▁102	-5972
▁ആനി	-5973
▁ചവറ	-5974
▁ടേം	-5975
▁നേഷ	-5976
▁യവര	-5977
▁രഖ്	-5978
▁രമേ	-5979
▁്തപ	-5980
▁ബാക്	-5981
▁ാമ്യ	-5982
▁്ലായ	-5983
▁മന്ത്	-5984
▁യ്യാന	-5985
▁ഹത്തി	-5986
▁ിച്ചെ	-5987
▁്യന്ത	-5988
ുര	-5989
dia	-5990
▁എഐ	-5991
▁പള	-5992
▁ഭട	-5993
▁ീഴ	-5994
▁ആണവ	-5995
▁കൊറ	-5996
▁തലം	-5997
▁ളില	-5998
▁സാം	-5999
▁ാറു	-6000
▁ൂരു	-6001
▁മിതി	-6002
▁രേഷ്	-6003
▁നുണ്ട	-6004
▁െയ്തത	-6005
ve	-6006
▁st	-6007
▁ഊഹ	-6008
▁കസ	-6009
▁ഡവ	-6010
ഗ്രസ	-6011
▁101	-6012
▁23,	-6013
▁27,	-6014
▁ംഭി	-6015
▁അസൽ	-6016
▁ഉന്	-6017
▁യാൻ	-6018
▁രവേ	-6019
▁സത്	-6020
▁മാനത	-6021
▁്യുമ	-6022
▁്തപുര	-6023
▁ൺഗ്രസ	-6024
▁y	-6025
രുട	-6026
▁nt	-6027
▁ഗജ	-6028
▁ടൗ	-6029
▁ബബ	-6030
▁ൃപ	-6031
▁107	-6032
▁170	-6033
▁28,	-6034
▁അഭയ	-6035
▁കായ	-6036
▁വാക	-6037
▁ാഗമ	-6038
▁ുതല	-6039
▁ുവെ	-6040
▁്പം	-6041
▁കാരു	-6042
▁തന്ത	-6043
▁ദ്യോ	-6044
▁ീരുമ	-6045
▁്ച്ച	-6046
▁ക്ലാസ	-6047
▁ണിച്ച	-6048
▁മുക്ക	-6049
▁റത്ത്	-6050
▁റുന്ന	-6051
▁ികയില	-6052
▁െട്ടാ	-6053
is	-6054
▁CO	-6055
▁ംഗീ	-6056
▁ഋതു	-6057
▁ധീന	-6058
▁നകം	-6059
▁ഭീം	-6060
▁മയി	-6061
▁യനാ	-6062
▁റാക	-6063
▁ളുട	-6064
▁വെന	-6065
▁ൊക്	-6066
▁്റന	-6067
▁ൻസല	-6068
▁സൃഷ്	-6069
▁്ടതാ	-6070
▁അവരുട	-6071
▁ക്തിക	-6072
▁രാവില	-6073
▁ല്ലിയ	-6074
▁ാരാഷ്	-6075
▁ർന്നു	-6076
▁െത	-6077
▁114	-6078
▁ംഗത	-6079
▁കേര	-6080
▁ധിപ	-6081
▁മുന	-6082
▁മുസ	-6083
▁മേശ	-6084
▁സീമ	-6085
▁ാഗസ	-6086
▁ൊതു	-6087
▁്നല	-6088
▁്പർ	-6089
▁ടാണ്	-6090
▁ഷ്ടമ	-6091
▁സുധാ	-6092
▁ികയാ	-6093
▁അങ്ങന	-6094
▁ചിട്ട	-6095
▁റാത്ത	-6096
▁സർക്ക	-6097
it	-6098
▁ഗഫ	-6099
▁103	-6100
▁112	-6101
▁350	-6102
▁ഉംറ	-6103
▁ഒമർ	-6104
▁നാൾ	-6105
▁ലോൺ	-6106
▁സെൽ	-6107
▁ാറി	-6108
▁ിലപ	-6109
▁താവന	-6110
▁തുക്	-6111
▁ത്തവ	-6112
▁പടിയ	-6113
▁മ്മേ	-6114
▁ലമായ	-6115
▁സ്രാ	-6116
▁സ്ലീ	-6117
▁ാറിയ	-6118
▁്യതയ	-6119
▁ായിരി	-6120
▁ികളില	-6121
▁ിട്ടാ	-6122
▁ുക്കാ	-6123
ഴവ	-6124
ൈവ	-6125
▁(6	-6126
▁ലഭ	-6127
▁ഷൺ	-6128
▁ഉമാ	-6129
▁കൈവ	-6130
▁തുവ	-6131
▁റക്	-6132
▁ാപാ	-6133
▁അനുക	-6134
▁ഞ്ഞത	-6135
▁ഇപ്പോ	-6136
▁ക്തിയ	-6137
▁ട്ടിര	-6138
▁യന്ത്	-6139
▁ലീസിന	-6140
▁െട്ട്	-6141
▁ൊന്നു	-6142
▁II	-6143
▁ണര	-6144
▁ദോ	-6145
▁യച	-6146
▁pro	-6147
▁ഗാസ	-6148
▁ചോര	-6149
▁റിമ	-6150
▁റോണ	-6151
▁വട്	-6152
▁വദേ	-6153
▁േശം	-6154
▁േഷണ	-6155
▁കാഴ്	-6156
▁ട്ടര	-6157
▁രേന്	-6158
▁ളിക്	-6159
▁https	-6160
▁ശേഷമാ	-6161
▁ാക്കൾ	-6162
▁ുപ്പു	-6163
ഷി	-6164
▁ണസ	-6165
▁ബം	-6166
▁ഷല	-6167
▁ൊന	-6168
▁104	-6169
▁111	-6170
▁ആപ്	-6171
▁ടൗൺ	-6172
▁തയ്	-6173
▁ബദൽ	-6174
▁ഷീബ	-6175
▁ീഡി	-6176
▁്മീ	-6177
▁്യപ	-6178
▁ടുതല	-6179
▁ണിയി	-6180
▁ധിക്	-6181
▁മുള്	-6182
▁ഹോദര	-6183
▁േത്ര	-6184
▁ദേശിന	-6185
▁ലാത്ത	-6186
▁ാരങ്ങ	-6187
▁ീക്ഷി	-6188
id	-6189
▁(9	-6190
▁8.	-6191
▁119	-6192
▁ആശയ	-6193
▁കൺസ	-6194
▁ഗിക	-6195
▁ഗിന	-6196
▁പും	-6197
▁പോസ	-6198
▁ഫയർ	-6199
▁ായാ	-6200
▁െയെ	-6201
▁േരാ	-6202
▁ത്യക	-6203
▁പള്ള	-6204
▁റിലാ	-6205
▁ക്ഷണം	-6206
▁ന്നതാ	-6207
▁യമാണ്	-6208
▁െന്നാ	-6209
▁്രെയി	-6210
▁re	-6211
▁ഘോ	-6212
▁ണൂ	-6213
▁ലഷ	-6214
▁ഷബ	-6215
▁ീട	-6216
▁ൽക	-6217
▁26,	-6218
▁ആലപ	-6219
▁കാത	-6220
▁ഡോക	-6221
▁പവൻ	-6222
▁പവർ	-6223
▁പിഐ	-6224
▁ഴില	-6225
▁വധു	-6226
▁അക്ര	-6227
▁കാലാ	-6228
▁ച്ചക	-6229
▁ഴ്ചയ	-6230
▁ശേഷമ	-6231
▁സ്ത്	-6232
▁്പന്	-6233
▁ക്കായ	-6234
▁ട്ടയം	-6235
▁പാടിയ	-6236
me	-6237
ol	-6238
▁-3	-6239
▁01	-6240
▁ഏര	-6241
▁ൗദ	-6242
▁106	-6243
▁113	-6244
▁240	-6245
▁കടൽ	-6246
▁ണുക	-6247
▁ിയൊ	-6248
▁ർച്	-6249
▁കാരാ	-6250
▁ടികള	-6251
▁സ്ഥര	-6252
▁കേരളം	-6253
▁റ്റാണ	-6254
▁ിന്ന്	-6255
▁ുത്ത്	-6256
▁ൊണ്ടി	-6257
▁ൊണ്ട്	-6258
▁്പോര്	-6259
are	-6260
▁2)	-6261
▁ct	-6262
▁ടപ	-6263
▁ടൊ	-6264
▁117	-6265
▁122	-6266
▁ഏതോ	-6267
▁നക്	-6268
▁വക്	-6269
▁്ടോ	-6270
▁സ്സ്	-6271
▁ാരനാ	-6272
▁ണ്ടാം	-6273
▁രന്റെ	-6274
he	-6275
ri	-6276
ൂഡ	-6277
ൌൺ	-6278
ted	-6279
▁(7	-6280
▁4)	-6281
▁ഗല	-6282
▁ഞെ	-6283
▁തബ	-6284
▁രഥ	-6285
▁ലഫ	-6286
െടുക	-6287
▁230	-6288
▁30,	-6289
▁50%	-6290
▁ആരു	-6291
▁എവി	-6292
▁കേറ	-6293
▁ടുക	-6294
▁ണമെ	-6295
▁പരം	-6296
▁പിൽ	-6297
▁യതു	-6298
▁രഘു	-6299
▁റൻസ	-6300
▁ലസ്	-6301
▁ാഗി	-6302
▁േശി	-6303
▁cted	-6304
▁തുള്	-6305
▁യോഗ്	-6306
▁email	-6307
▁prote	-6308
▁ക്കലു	-6309
▁വന്നത	-6310
▁ൂണ്ടി	-6311
▁്കില്	-6312
▁്റ്റഡ	-6313
DF	-6314
pe	-6315
▁Re	-6316
▁ധ്	-6317
▁ശല	-6318
▁ൂക	-6319
▁ൃഷ	-6320
▁1.8	-6321
▁118	-6322
▁175	-6323
▁280	-6324
▁32,	-6325
▁എഎം	-6326
▁തൃത	-6327
▁ന്വ	-6328
▁മണൽ	-6329
▁മീഷ	-6330
▁യാഴ	-6331
▁ാമന	-6332
▁ിലര	-6333
▁േണ്	-6334
▁ൈനി	-6335
▁്തു	-6336
▁ൗണ്	-6337
▁ൻവറ	-6338
▁അഭിന	-6339
▁രികള	-6340
▁ഷിക്	-6341
▁ാധിപ	-6342
▁ോടിയ	-6343
▁്യുന	-6344
▁ദേശിയ	-6345
IS	-6346
ou	-6347
ഷധ	-6348
▁ഊര	-6349
▁ബള	-6350
▁145	-6351
▁ഔഷധ	-6352
▁കറി	-6353
▁ഗീത	-6354
▁ചയി	-6355
▁തരു	-6356
▁ഹൂഡ	-6357
▁ിലു	-6358
▁നിമയ	-6359
▁ലിക്	-6360
▁ാരന്	-6361
▁ാവിന	-6362
▁മ്മേള	-6363
▁ാനമാണ	-6364
▁J	-6365
▁ac	-6366
▁ദഹ	-6367
▁ധമ	-6368
▁യദ	-6369
▁രൻ	-6370
▁ളശ	-6371
▁ൾക	-6372
▁135	-6373
▁3.5	-6374
▁nic	-6375
▁കാൽ	-6376
▁നീല	-6377
▁ഷമി	-6378
▁്ഷത	-6379
▁കരണം	-6380
▁ടമായ	-6381
▁ഴിവാ	-6382
▁ിയാക	-6383
▁ീതിയ	-6384
▁്താന	-6385
▁ംവിധാ	-6386
▁കളിലെ	-6387
▁ഞ്ഞിട	-6388
▁ണുന്ന	-6389
▁ളിലും	-6390
▁ാലക്ക	-6391
ാം	-6392
▁3)	-6393
▁നഖ	-6394
▁യഹ	-6395
▁രൈ	-6396
▁ഹല	-6397
▁116	-6398
▁124	-6399
▁220	-6400
▁31,	-6401
▁450	-6402
▁ഡൌൺ	-6403
▁പാൻ	-6404
▁ബയോ	-6405
▁മാധ	-6406
▁റുപ	-6407
▁ൂപീ	-6408
▁ോഗം	-6409
▁്കറ	-6410
▁്റാ	-6411
▁കച്ച	-6412
▁രുമാ	-6413
▁ിമുട	-6414
▁്രാമ	-6415
▁ഡയറക്	-6416
▁മ്പോള	-6417
▁യമായി	-6418
▁രങ്ങൾ	-6419
▁ികമായ	-6420
▁ഈന	-6421
▁ഗൺ	-6422
▁ചര	-6423
▁ജര	-6424
▁ിധ	-6425
▁115	-6426
▁900	-6427
▁ആഴം	-6428
▁എണ്	-6429
▁ഓഫർ	-6430
▁കാള	-6431
▁കിൽ	-6432
▁പാൽ	-6433
▁ഫഷന	-6434
▁ഫസർ	-6435
▁മൻസ	-6436
▁രേയ	-6437
▁റര്	-6438
▁ുപട	-6439
▁്പ്	-6440
▁ട്രെ	-6441
▁തയ്യ	-6442
▁രയും	-6443
▁ാമസി	-6444
▁ങ്ങാന	-6445
▁ലങ്ങള	-6446
▁േർന്ന	-6447
▁്യക്ക	-6448
▁ൾക്കു	-6449
CC	-6450
as	-6451
ay	-6452
et	-6453
il	-6454
▁_	-6455
യിൽ	-6456
▁(8	-6457
▁CP	-6458
▁ar	-6459
▁of	-6460
▁ഓൺ	-6461
▁നൗ	-6462
▁രഭ	-6463
▁ൂമ	-6464
▁29,	-6465
▁403	-6466
▁ഋഷി	-6467
▁ഏഴര	-6468
▁കരാ	-6469
▁കുന	-6470
▁കൂറ	-6471
▁ബിജ	-6472
▁യയെ	-6473
▁രമന	-6474
▁ററി	-6475
▁ാഭ്	-6476
▁ാലക	-6477
▁ാളു	-6478
▁്ലയ	-6479
▁്വയ	-6480
▁ഡിക്	-6481
▁ദ്രത	-6482
▁ശാന്	-6483
▁സ്ബു	-6484
▁ാക്സ	-6485
▁ീസിന	-6486
▁്ടര്	-6487
▁രിയും	-6488
▁ലത്തെ	-6489
▁െട്ടു	-6490
▁്തുകള	-6491
▁്യാര്	-6492
nt	-6493
▁൪	-6494
▁5)	-6495
▁രൽ	-6496
▁റഡ	-6497
▁ളീ	-6498
▁െപ	-6499
▁ൻമ	-6500
▁109	-6501
▁137	-6502
▁34,	-6503
▁35,	-6504
▁40,	-6505
▁ing	-6506
▁ഓവർ	-6507
▁കയാ	-6508
▁കവി	-6509
▁കൺവ	-6510
▁ബാർ	-6511
▁രനെ	-6512
▁ഷനു	-6513
▁ഷോൺ	-6514
▁ഹംസ	-6515
▁ിടാ	-6516
▁ിമര	-6517
▁ിയന	-6518
▁ുഴു	-6519
▁്ചേ	-6520
▁ർട്	-6521
▁കങ്ങ	-6522
▁ക്കത	-6523
▁ക്ഷം	-6524
▁രവാദ	-6525
▁ുഷ്യ	-6526
▁്കാര	-6527
▁്പൂര	-6528
▁ട്ടിട	-6529
▁നമായി	-6530
▁യത്തി	-6531
▁യ്യും	-6532
▁റിയില	-6533
▁ോടതിയ	-6534
ir	-6535
ate	-6536
▁9.	-6537
▁oo	-6538
▁ri	-6539
▁ളന	-6540
▁ഷർ	-6541
▁സബ	-6542
▁ഹറ	-6543
▁(1,	-6544
▁(2)	-6545
▁1.2	-6546
▁126	-6547
▁128	-6548
▁132	-6549
▁149	-6550
▁165	-6551
▁182	-6552
▁33,	-6553
▁50,	-6554
▁ഇകെ	-6555
▁എബി	-6556
▁ഐജി	-6557
▁ജനന	-6558
▁ണിക	-6559
▁തടി	-6560
▁നത്	-6561
▁പിത	-6562
▁ബലി	-6563
▁യക്	-6564
▁രമാ	-6565
▁രാഹ	-6566
▁ളുമ	-6567
▁ഷീല	-6568
▁സാക	-6569
▁ാമസ	-6570
▁ാരവ	-6571
▁്ടറ	-6572
▁അന്വ	-6573
▁ചികി	-6574
▁ണ്ടത	-6575
▁റ്റവ	-6576
▁ിഡന്	-6577
▁്രന്	-6578
▁ട്ടിപ	-6579
▁പ്പുക	-6580
▁രയില്	-6581
▁ുമാനമ	-6582
▁ുമുള്	-6583
ne	-6584
▁j	-6585
▁0,	-6586
▁to	-6587
▁ul	-6588
▁ലര	-6589
▁ഹമ	-6590
▁ീഗ	-6591
▁131	-6592
▁136	-6593
▁190	-6594
▁അയൽ	-6595
▁ഇനം	-6596
▁ജൈവ	-6597
▁ടല്	-6598
▁ടുത	-6599
▁ടോൾ	-6600
▁വംഗ	-6601
▁ഹിന	-6602
▁ിഗണ	-6603
▁ുമി	-6604
▁െണ്	-6605
▁്ലു	-6606
▁ആരംഭ	-6607
▁കലും	-6608
▁തമാണ	-6609
▁ന്നറ	-6610
▁പാടി	-6611
▁വിമർ	-6612
▁ഇല്ലാ	-6613
▁ടക്കു	-6614
▁പനങ്ങ	-6615
▁പേരാണ	-6616
▁മാറിന	-6617
▁യപ്പെ	-6618
▁ിർദ്ദ	-6619
▁ുന്നോ	-6620
ha	-6621
▁൯	-6622
▁•	-6623
വാസ	-6624
▁02	-6625
▁me	-6626
▁ലഖ	-6627
▁വമ	-6628
▁ർസ	-6629
▁(3)	-6630
▁121	-6631
▁129	-6632
▁154	-6633
▁3),	-6634
▁ഇതി	-6635
▁ഈസ്	-6636
▁മീര	-6637
▁യൊര	-6638
▁ശുഭ	-6639
▁ശർമ	-6640
▁ാമ്	-6641
▁ായമ	-6642
▁െടാ	-6643
▁്പമ	-6644
▁തൊഴി	-6645
▁നെന്	-6646
▁യുവത	-6647
▁വ്യവ	-6648
▁ശാസ്	-6649
▁ാജ്യ	-6650
▁െളിവ	-6651
▁്പോള	-6652
▁ടർന്ന	-6653
▁റെയും	-6654
▁ഷണത്ത	-6655
▁േരത്ത	-6656
▁്രവാസ	-6657
ൃഹ	-6658
▁-4	-6659
▁6)	-6660
▁IN	-6661
▁ംഘ	-6662
▁ഷവ	-6663
കര്യ	-6664
▁1.6	-6665
▁320	-6666
▁kar	-6667
▁res	-6668
▁ആദം	-6669
▁ഗസ്	-6670
▁ഗൃഹ	-6671
▁പന്	-6672
▁പാര	-6673
▁മേട	-6674
▁ാഹന	-6675
▁ുബാ	-6676
▁േളന	-6677
▁്വന	-6678
▁ർണാ	-6679
▁ഇനിയ	-6680
▁ചര്യ	-6681
▁ണൂര്	-6682
▁പറയാ	-6683
▁വീഡി	-6684
▁ാഭ്യ	-6685
▁ാർട്	-6686
▁ികൃത	-6687
▁മ്മദ്	-6688
▁യുകയാ	-6689
▁റുള്ള	-6690
▁സുധാക	-6691
▁ാതിരി	-6692
▁ിഞ്ഞത	-6693
▁െല്ലു	-6694
▁്കപ്പ	-6695
▁്വത്ത	-6696
▁ൗകര്യ	-6697
JP	-6698
ot	-6699
▁IP	-6700
▁ഇഎ	-6701
▁ഊണ	-6702
▁ഖോ	-6703
▁ഗൂ	-6704
▁ജേ	-6705
▁പശ	-6706
▁ശമ	-6707
▁(4)	-6708
▁174	-6709
▁194	-6710
▁750	-6711
▁for	-6712
▁കോര	-6713
▁നോൺ	-6714
▁ഫൻസ	-6715
▁മീൻ	-6716
▁രമം	-6717
▁ഷിയ	-6718
▁സർക	-6719
▁ീഷന	-6720
▁ോഴി	-6721
▁്കയ	-6722
▁്തം	-6723
▁്തത	-6724
▁്യക	-6725
▁ദ്രമ	-6726
▁ന്തപ	-6727
▁ലെന്	-6728
▁ഹങ്ങ	-6729
▁ാരണം	-6730
▁ാളിക	-6731
▁ണക്കി	-6732
▁തേക്ക	-6733
▁ത്യമാ	-6734
▁ന്നാല	-6735
▁വിജയന	-6736
▁ുവിന്	-6737
▁ർത്തന	-6738
LA	-6739
ct	-6740
ed	-6741
ls	-6742
ut	-6743
▁KS	-6744
▁ഖേ	-6745
▁ഗഗ	-6746
▁തഹ	-6747
▁റഗ	-6748
▁1.4	-6749
▁139	-6750
▁142	-6751
▁224	-6752
▁243	-6753
▁9),	-6754
▁കപട	-6755
▁ഗനി	-6756
▁ദിശ	-6757
▁നാൽ	-6758
▁ഫുൾ	-6759
▁ഭവി	-6760
▁രക്	-6761
▁രാര	-6762
▁ലെന	-6763
▁ളേജ	-6764
▁ഷംന	-6765
▁സഫ്	-6766
▁സാർ	-6767
▁സോണ	-6768
▁ഹകര	-6769
▁ാകാ	-6770
▁ാകു	-6771
▁ികം	-6772
▁ുതൽ	-6773
▁ുമ്	-6774
▁ുറന	-6775
▁്വസ	-6776
▁ക്രട	-6777
▁ഗാന്	-6778
▁ദ്യമ	-6779
▁ന്ധി	-6780
▁പ്പര	-6781
▁യ്യു	-6782
▁റിയത	-6783
▁റെയി	-6784
▁ഹിന്	-6785
▁ിലാക	-6786
▁്പും	-6787
▁അമ്മയ	-6788
▁ഞ്ഞാല	-6789
▁ഡിഎഫ്	-6790
▁തിന്റ	-6791
▁തുണ്ട	-6792
▁മാധ്യ	-6793
▁മ്മുട	-6794
▁യയില്	-6795
▁04	-6796
▁ആൽ	-6797
▁ഷൽ	-6798
▁ൻബ	-6799
▁138	-6800
▁146	-6801
▁188	-6802
▁425	-6803
▁BJP	-6804
▁con	-6805
▁nor	-6806
▁ഉഴവ	-6807
▁കൺഫ	-6808
▁ഗുര	-6809
▁ജാഥ	-6810
▁മടി	-6811
▁മീണ	-6812
▁മീന	-6813
▁റയാ	-6814
▁വധഗ	-6815
▁വൃത	-6816
▁ാണെ	-6817
▁ിയയ	-6818
▁്ദാ	-6819
▁ൾഡൻ	-6820
▁ത്യന	-6821
▁യിലി	-6822
▁ിയതാ	-6823
▁്കിൽ	-6824
▁ട്ടാണ	-6825
▁സുകാര	-6826
▁സൃഷ്ട	-6827
▁ൂരില്	-6828
▁െക്കു	-6829
▁്ദ്രത	-6830
▁്ലെന്	-6831
eo	-6832
pp	-6833
se	-6834
ur	-6835
▁️	-6836
▁05	-6837
▁അള	-6838
▁ഇൽ	-6839
▁ഊഴ	-6840
▁ഓൾ	-6841
▁ഖമ	-6842
▁ജബ	-6843
▁ടറ	-6844
▁തൻ	-6845
▁ഭക	-6846
▁രഗ	-6847
▁ഷൈ	-6848
▁ിച	-6849
▁134	-6850
▁153	-6851
▁181	-6852
▁193	-6853
▁49,	-6854
▁8),	-6855
▁കസബ	-6856
▁ജിവ	-6857
▁ടിം	-6858
▁തലേ	-6859
▁നേജ	-6860
▁രാത	-6861
▁സോൺ	-6862
▁ാണാ	-6863
▁്കള	-6864
▁്രദ	-6865
▁ൽപ്	-6866
▁oots	-6867
▁കയാണ	-6868
▁ടുതൽ	-6869
▁രാവി	-6870
▁രിന്	-6871
▁വാണ്	-6872
▁ുപടി	-6873
▁്കിന	-6874
▁്നില	-6875
▁കെടുക	-6876
▁ണിപ്പ	-6877
▁ന്നാണ	-6878
▁യനാട്	-6879
▁രത്തി	-6880
▁റ്റിക	-6881
▁ോഗികള	-6882
▁്ട്രീ	-6883
ss	-6884
▁ധം	-6885
▁ലൊ	-6886
▁വഡ	-6887
▁ൊള	-6888
▁ൻക	-6889
▁ർധ	-6890
▁1.3	-6891
▁10%	-6892
▁123	-6893
▁127	-6894
▁133	-6895
▁151	-6896
▁210	-6897
▁43,	-6898
▁Res	-6899
▁അണി	-6900
▁ആള്	-6901
▁ഇടവ	-6902
▁കലു	-6903
▁കോയ	-6904
▁ജാഗ	-6905
▁ധനം	-6906
▁ബോറ	-6907
▁മകര	-6908
▁യുപ	-6909
▁ലൈം	-6910
▁വരൻ	-6911
▁വശം	-6912
▁സാറ	-6913
▁സൗര	-6914
▁ിവസ	-6915
▁ുരള	-6916
▁്നറ	-6917
▁്പത	-6918
▁COIS	-6919
▁Read	-6920
▁തിക്	-6921
▁തുണയ	-6922
▁നിൽക	-6923
▁യ്തു	-6924
▁റക്ട	-6925
▁ാലക്	-6926
▁ിലക്	-6927
▁്തോള	-6928
▁gmail	-6929
▁നയില്	-6930
▁നില്ല	-6931
▁ന്നില	-6932
▁യത്തു	-6933
▁വനക്ക	-6934
▁ശ്യപ്	-6935
▁ാങ്ങി	-6936
▁ാറിന്	-6937
▁ിങ്ങൾ	-6938
▁ുണ്ടെ	-6939
%,	-6940
ul	-6941
us	-6942
നന	-6943
യെ	-6944
lso	-6945
▁ni	-6946
▁ty	-6947
▁ഝാ	-6948
▁രപ	-6949
▁റര	-6950
▁ലധ	-6951
▁ഷര	-6952
▁ഷൂ	-6953
▁(2,	-6954
▁(20	-6955
▁-2,	-6956
▁141	-6957
▁176	-6958
▁270	-6959
▁310	-6960
▁4.5	-6961
▁45,	-6962
▁550	-6963
▁അജു	-6964
▁കടമ	-6965
▁ഖനന	-6966
▁ഘടക	-6967
▁ണിച	-6968
▁നമാ	-6969
▁പശു	-6970
▁പാഷ	-6971
▁ബാവ	-6972
▁മണർ	-6973
▁യുന	-6974
▁രണയ	-6975
▁രസം	-6976
▁റയി	-6977
▁ലീന	-6978
▁ലീപ	-6979
▁ുങ്	-6980
▁ുടു	-6981
▁Also	-6982
▁care	-6983
▁നുവദ	-6984
▁മിത്	-6985
▁യയിൽ	-6986
▁സൂര്	-6987
▁ിപിഎ	-6988
▁്കാന	-6989
▁്വന്	-6990
▁കയാണ്	-6991
▁ണ്ടെന	-6992
▁നിലപാ	-6993
▁ര്യമാ	-6994
▁ളുണ്ട	-6995
▁സാധിക	-6996
▁്കത്ത	-6997
ge	-6998
li	-6999
▁03	-7000
▁7)	-7001
▁ce	-7002
▁de	-7003
▁it	-7004
▁ആൺ	-7005
▁ഖഷ	-7006
▁േധ	-7007
alam	-7008
▁143	-7009
▁152	-7010
▁177	-7011
▁183	-7012
▁2.2	-7013
▁420	-7014
▁48,	-7015
▁6.5	-7016
▁and	-7017
▁ംശയ	-7018
▁ഇഷാ	-7019
▁ഈഴവ	-7020
▁ഐബി	-7021
▁കമൽ	-7022
▁കെഎ	-7023
▁ടാന	-7024
▁തിച	-7025
▁തിജ	-7026
▁ധീര	-7027
▁യങ്	-7028
▁രാഷ	-7029
▁ലതാ	-7030
▁ലീല	-7031
▁വിച	-7032
▁ാവശ	-7033
▁ാസം	-7034
▁ീനി	-7035
▁ുമത	-7036
▁ുരത	-7037
▁േറ്	-7038
▁ോയെ	-7039
▁്ധി	-7040
▁ംഗീക	-7041
▁കിന്	-7042
▁കുന്	-7043
▁കേസു	-7044
▁ചേരു	-7045
▁ത്യൻ	-7046
▁ന്നവ	-7047
▁പ്പള	-7048
▁ബുക്	-7049
▁ഭാര്	-7050
▁മലയാ	-7051
▁മുഖ്	-7052
▁മുണ്	-7053
▁സ്വയ	-7054
▁ഹാജര	-7055
▁ഹോട്	-7056
▁്രാന	-7057
▁കാനാണ	-7058
▁ഗീകരി	-7059
▁തിനും	-7060
▁ത്യന്	-7061
▁നക്കാ	-7062
▁പിക്ക	-7063
▁െരഞ്ഞ	-7064
▁േശത്ത	-7065
0)	-7066
ശോ	-7067
▁07	-7068
▁al	-7069
▁ch	-7070
▁ed	-7071
▁ic	-7072
▁ry	-7073
▁ഈർ	-7074
▁ബഗ	-7075
▁ൂച	-7076
▁(0)	-7077
▁-4,	-7078
▁147	-7079
▁156	-7080
▁157	-7081
▁163	-7082
▁173	-7083
▁178	-7084
▁179	-7085
▁201	-7086
▁213	-7087
▁38,	-7088
▁LDF	-7089
▁MLA	-7090
▁അതാ	-7091
▁ആലം	-7092
▁കവർ	-7093
▁കോം	-7094
▁ഗൗഡ	-7095
▁നാഗ	-7096
▁പൊള	-7097
▁മഴവ	-7098
▁മാൻ	-7099
▁രീന	-7100
▁ലയു	-7101
▁ശമാ	-7102
▁ാമൂ	-7103
▁ോവി	-7104
▁്നത	-7105
▁ടാന്	-7106
▁നാലെ	-7107
▁മ്മീ	-7108
▁രാക്	-7109
▁രൂപീ	-7110
▁ഴിയാ	-7111
▁ാധാര	-7112
▁ാനായ	-7113
▁ിവര്	-7114
▁ങ്ങളാ	-7115
▁ന്നതി	-7116
▁ഷമായി	-7117
▁േരാണ്	-7118
ID	-7119
av	-7120
oo	-7121
▁$	-7122
▁06	-7123
▁08	-7124
▁2-	-7125
▁9)	-7126
▁St	-7127
▁lo	-7128
▁അഥ	-7129
▁ഖര	-7130
▁ഡഡ	-7131
▁ദസ	-7132
▁ധക	-7133
▁ഹൗ	-7134
▁ർആ	-7135
▁ർഭ	-7136
▁ൽജ	-7137
▁-1,	-7138
▁158	-7139
▁159	-7140
▁185	-7141
▁198	-7142
▁2.4	-7143
▁202	-7144
▁212	-7145
▁216	-7146
▁225	-7147
▁272	-7148
▁295	-7149
▁543	-7150
▁7.5	-7151
▁ആൽഫ	-7152
▁ഊരി	-7153
▁കരൾ	-7154
▁ജമാ	-7155
▁തരി	-7156
▁തെന	-7157
▁ദോഹ	-7158
▁നേർ	-7159
▁യവു	-7160
▁രളം	-7161
▁ലഹള	-7162
▁ശിന	-7163
▁സൂം	-7164
▁ാർക	-7165
▁ിഎസ	-7166
▁ീരി	-7167
▁െൻറ	-7168
▁്ടേ	-7169
▁ൻസൻ	-7170
▁ഗികള	-7171
▁ടിപ്	-7172
▁ദ്രം	-7173
▁ധമായ	-7174
▁പാതക	-7175
▁വിദ്	-7176
▁സ്സു	-7177
▁ാനിക	-7178
▁ിചാര	-7179
▁ിലൂട	-7180
▁്തുമ	-7181
▁്പിന	-7182
▁്ലുവ	-7183
▁കമ്പന	-7184
▁ടുതല്	-7185
▁ദ്ധിക	-7186
▁പക്ഷത	-7187
▁്പള്ള	-7188
SC	-7189
എൻ	-7190
ഡ്	-7191
ൺസ	-7192
ർജ	-7193
▁-5	-7194
▁1-	-7195
▁??	-7196
▁ge	-7197
▁mm	-7198
▁rs	-7199
▁ആഘ	-7200
▁ഈസ	-7201
▁കഷ	-7202
▁ഗദ	-7203
▁ററ	-7204
▁ളഗ	-7205
▁സപ	-7206
▁(7)	-7207
▁162	-7208
▁167	-7209
▁169	-7210
▁245	-7211
▁39,	-7212
▁41,	-7213
▁46,	-7214
▁51,	-7215
▁53,	-7216
▁60%	-7217
▁Con	-7218
▁UDF	-7219
▁ംബന	-7220
▁ആറോ	-7221
▁ഈശോ	-7222
▁ഊർജ	-7223
▁ഓർമ	-7224
▁ഔൺസ	-7225
▁ചരൺ	-7226
▁ജഗത	-7227
▁ഡോൺ	-7228
▁തയു	-7229
▁നാർ	-7230
▁ഫാൻ	-7231
▁ഭവൻ	-7232
▁മാള	-7233
▁യൂണ	-7234
▁യെത	-7235
▁രചന	-7236
▁റൂൾ	-7237
▁ലയന	-7238
▁ഷഹന	-7239
▁ൊവി	-7240
▁്വീ	-7241
▁ചില്	-7242
▁ടിയെ	-7243
▁ദ്യാ	-7244
▁യാഴ്	-7245
▁ാറായ	-7246
▁െള്ള	-7247
▁്കെയ	-7248
▁്ധതി	-7249
▁്നിവ	-7250
▁india	-7251
▁ക്കള്	-7252
▁ലിയില	-7253
▁വത്തി	-7254
▁ാരത്ത	-7255
▁ിയാക്	-7256
▁ർന്ന്	-7257
IM	-7258
ak	-7259
ch	-7260
qu	-7261
ഗോ	-7262
▁ा	-7263
ain	-7264
▁09	-7265
▁gh	-7266
▁pl	-7267
▁se	-7268
▁ss	-7269
▁ആൻ	-7270
▁ഇഇ	-7271
▁ഈഴ	-7272
▁ഗൽ	-7273
▁യഥ	-7274
▁രൾ	-7275
▁ൽഗ	-7276
ideo	-7277
▁11.	-7278
▁275	-7279
▁340	-7280
▁36,	-7281
▁42,	-7282
▁5.5	-7283
▁506	-7284
▁6.8	-7285
▁650	-7286
▁IPL	-7287
▁ആറര	-7288
▁ഐസി	-7289
▁ഐസ്	-7290
▁കൗർ	-7291
▁തലാ	-7292
▁തഴവ	-7293
▁മാൾ	-7294
▁റോൾ	-7295
▁വ്ര	-7296
▁വർഗ	-7297
▁വർമ	-7298
▁ഷണൽ	-7299
▁സ്റ	-7300
▁ാലത	-7301
▁ാവധ	-7302
▁ിപത	-7303
▁ൈയി	-7304
▁്തന	-7305
▁്ദി	-7306
▁്ദു	-7307
▁ർഘദ	-7308
▁ർഷം	-7309
▁ംസ്ഥ	-7310
▁കയും	-7311
▁ജില്	-7312
▁യിലേ	-7313
▁രനായ	-7314
▁രവര്	-7315
▁രികയ	-7316
▁റാന്	-7317
▁ലാളി	-7318
▁ശുപത	-7319
▁ിയുമ	-7320
▁ുടക്	-7321
▁േരില	-7322
▁്യല്	-7323
▁India	-7324
▁yalam	-7325
▁മണിക്	-7326
▁രണങ്ങ	-7327
PC	-7328
ig	-7329
nd	-7330
ആർ	-7331
യു	-7332
ali	-7333
▁3-	-7334
▁6-	-7335
▁MP	-7336
▁am	-7337
▁ha	-7338
▁sh	-7339
▁എഗ	-7340
▁ചയ	-7341
▁ഡസ	-7342
▁സധ	-7343
▁(6)	-7344
▁1.7	-7345
▁148	-7346
▁189	-7347
▁191	-7348
▁197	-7349
▁203	-7350
▁233	-7351
▁239	-7352
▁293	-7353
▁302	-7354
▁312	-7355
▁323	-7356
▁360	-7357
▁62,	-7358
▁ive	-7359
▁ഈദ്	-7360
▁ഒപി	-7361
▁കടി	-7362
▁കുത	-7363
▁ജഡം	-7364
▁ഡോർ	-7365
▁ദൈവ	-7366
▁ഭവം	-7367
▁രാല	-7368
▁രുഷ	-7369
▁റീന	-7370
▁ലയ്	-7371
▁ലവറ	-7372
▁വടി	-7373
▁വസി	-7374
▁സൂര	-7375
▁ിരെ	-7376
▁േന്	-7377
▁ോധി	-7378
▁്ചി	-7379
▁്തേ	-7380
▁ൻസൺ	-7381
▁http	-7382
▁കിയത	-7383
▁കേട്	-7384
▁ത്യമ	-7385
▁പരിപ	-7386
▁രിമാ	-7387
▁രിയി	-7388
▁വങ്ങ	-7389
▁ിരുത	-7390
▁ിവാദ	-7391
▁ുവന്	-7392
▁ോർട്	-7393
▁ച്ചതെ	-7394
▁ടപ്പെ	-7395
▁ടിയായ	-7396
▁നിയമസ	-7397
▁പ്രസി	-7398
▁മാർക്	-7399
▁മ്പോഴ	-7400
▁യത്ത്	-7401
▁ലിന്റ	-7402
▁വിന്റ	-7403
▁ാവിന്	-7404
▁ിയാഴ്	-7405
▁ിലുള്	-7406
▁്പിന്	-7407
▁ർത്തക	-7408
FI	-7409
IA	-7410
IT	-7411
ms	-7412
ob	-7413
ow	-7414
▁Q	-7415
▁x	-7416
▁z	-7417
▁क	-7418
air	-7419
ast	-7420
ips	-7421
▁--	-7422
▁ab	-7423
▁is	-7424
▁ഇഖ	-7425
▁ഈഡ	-7426
▁ഈല	-7427
▁ഉല	-7428
▁ഉൻ	-7429
▁ഖദ	-7430
▁ഘം	-7431
▁ഘർ	-7432
▁തൈ	-7433
▁നജ	-7434
▁രബ	-7435
▁ളപ	-7436
▁ൾവ	-7437
▁(10	-7438
▁(5)	-7439
▁(9)	-7440
▁15)	-7441
▁155	-7442
▁161	-7443
▁168	-7444
▁204	-7445
▁242	-7446
▁52,	-7447
▁CPM	-7448
▁The	-7449
▁rat	-7450
▁the	-7451
▁ഇക്	-7452
▁ഇജെ	-7453
▁ഐയെ	-7454
▁ഖേര	-7455
▁ഖോസ	-7456
▁ഗതാ	-7457
▁ഗാൾ	-7458
▁ജിഷ	-7459
▁ടപട	-7460
▁ടവർ	-7461
▁നദി	-7462
▁പഴം	-7463
▁പിൻ	-7464
▁ബഫർ	-7465
▁മണം	-7466
▁മീപ	-7467
▁റിഫ	-7468
▁ഴും	-7469
▁വയു	-7470
▁വരൂ	-7471
▁ശശ്	-7472
▁ഷമാ	-7473
▁ഷിത	-7474
▁സനു	-7475
▁ുറയ	-7476
▁ോലീ	-7477
▁്കു	-7478
▁്ളൂ	-7479
▁്ഷണ	-7480
▁Mala	-7481
▁Tips	-7482
▁അതേസ	-7483
▁എച്ച	-7484
▁ച്ചപ	-7485
▁മാണി	-7486
▁യിലൂ	-7487
▁രന്ത	-7488
▁വകാര	-7489
▁ാസ്ത	-7490
▁ോടെയ	-7491
▁്തേക	-7492
▁അദ്ദേ	-7493
▁എങ്ങന	-7494
▁ണ്ണൂര	-7495
▁നെയാണ	-7496
▁പെടുക	-7497
▁രമല്ല	-7498
▁ിത്രം	-7499
▁ിയപ്പ	-7500
▁ീറ്റി	-7501
▁േസുകള	-7502
▁്യതയു	-7503
▁്രസില	-7504
ET	-7505
ag	-7506
om	-7507
ya	-7508
ജ്	-7509
▁₹	-7510
oin	-7511
▁De	-7512
▁at	-7513
▁en	-7514
▁le	-7515
▁ഖബ	-7516
▁ചൗ	-7517
▁ഡൈ	-7518
▁ദറ	-7519
▁ാങ	-7520
▁േപ	-7521
▁ർള	-7522
iral	-7523
ovid	-7524
▁(3,	-7525
▁(35	-7526
▁0.4	-7527
▁0.9	-7528
▁10.	-7529
▁13)	-7530
▁166	-7531
▁184	-7532
▁195	-7533
▁2.0	-7534
▁20%	-7535
▁208	-7536
▁211	-7537
▁219	-7538
▁222	-7539
▁228	-7540
▁232	-7541
▁234	-7542
▁288	-7543
▁290	-7544
▁304	-7545
▁328	-7546
▁330	-7547
▁332	-7548
▁354	-7549
▁376	-7550
▁440	-7551
▁540	-7552
▁WCC	-7553
▁ght	-7554
▁അജി	-7555
▁ഈനല	-7556
▁ഉഷാ	-7557
▁എഴ്	-7558
▁ഐപി	-7559
▁കയെ	-7560
▁കൃപ	-7561
▁ഘടി	-7562
▁ടില	-7563
▁ണറാ	-7564
▁ണർവ	-7565
▁താഹ	-7566
▁തീം	-7567
▁ധവള	-7568
▁നവി	-7569
▁നാശ	-7570
▁ന്പ	-7571
▁ബത്	-7572
▁ബെം	-7573
▁മയം	-7574
▁മൃഗ	-7575
▁യുഡ	-7576
▁രസി	-7577
▁രോപ	-7578
▁ലിറ	-7579
▁ശക്	-7580
▁ഷൈൻ	-7581
▁സർഷ	-7582
▁ഹിമ	-7583
▁ാകി	-7584
▁ിമർ	-7585
▁േരെ	-7586
▁േഷി	-7587
▁്നേ	-7588
▁ults	-7589
▁ഒരുപ	-7590
▁ജയന്	-7591
▁ട്ടവ	-7592
▁ത്രക	-7593
▁നോക്	-7594
▁പ്രച	-7595
▁യസ്സ	-7596
▁രതിന	-7597
▁ലൂടെ	-7598
▁ശ്യം	-7599
▁ാഷ്ട	-7600
▁്ധമാ	-7601
▁്പനി	-7602
▁ഇക്കാ	-7603
▁ത്രിയ	-7604
▁മയത്ത	-7605
▁യതിന്	-7606
▁്രങ്ങ	-7607
AS	-7608
de	-7609
ie	-7610
ra	-7611
▁‐	-7612
est	-7613
▁-6	-7614
▁IX	-7615
▁NB	-7616
▁Pr	-7617
▁Rs	-7618
▁cm	-7619
▁em	-7620
▁ir	-7621
▁ng	-7622
▁on	-7623
▁su	-7624
▁അർ	-7625
▁ഊള	-7626
▁ണപ	-7627
▁ഥല	-7628
▁ദൽ	-7629
▁ഫർ	-7630
▁ബധ	-7631
▁ബൺ	-7632
▁ബൻ	-7633
▁യജ	-7634
▁ലശ	-7635
▁ളറ	-7636
▁ളേ	-7637
▁ളൻ	-7638
▁ഴഗ	-7639
▁സഥ	-7640
▁ർക	-7641
▁ർഫ	-7642
▁ൾറ	-7643
▁(30	-7644
▁(32	-7645
▁(8,	-7646
▁1.1	-7647
▁1.9	-7648
▁12)	-7649
▁171	-7650
▁187	-7651
▁196	-7652
▁2.1	-7653
▁205	-7654
▁206	-7655
▁209	-7656
▁214	-7657
▁236	-7658
▁283	-7659
▁294	-7660
▁3.0	-7661
▁3.2	-7662
▁365	-7663
▁37,	-7664
▁375	-7665
▁4),	-7666
▁4.4	-7667
▁430	-7668
▁560	-7669
▁60,	-7670
▁63,	-7671
▁അമൽ	-7672
▁ഐഷി	-7673
▁കക്	-7674
▁കയർ	-7675
▁കുപ	-7676
▁ഗൂഢ	-7677
▁ജാം	-7678
▁ജിം	-7679
▁ജൂത	-7680
▁ടിൽ	-7681
▁തലത	-7682
▁ധിത	-7683
▁നേഹ	-7684
▁പഴി	-7685
▁ബദറ	-7686
▁ബിഎ	-7687
▁മീശ	-7688
▁മോൾ	-7689
▁ലാത	-7690
▁ലാഭ	-7691
▁വധം	-7692
▁ശോധ	-7693
▁ഷപ്	-7694
▁ഹൈക	-7695
▁ൊലീ	-7696
▁ർഘവ	-7697
▁CPIM	-7698
▁ndia	-7699
▁കൊവി	-7700
▁ന്ററ	-7701
▁രിയു	-7702
▁ിഹാര	-7703
▁ൈറസ്	-7704
▁്യാർ	-7705
▁caree	-7706
▁കയായി	-7707
▁ടെന്ന	-7708
▁നിലവി	-7709
▁നിവര്	-7710
▁ാനാര്	-7711
▁ിഞ്ഞി	-7712
▁ുകയായ	-7713
▁െച്ച്	-7714
▁്പില്	-7715
▁്യാപന	-7716
EL	-7717
MS	-7718
RS	-7719
RT	-7720
SS	-7721
cc	-7722
os	-7723
th	-7724
um	-7725
ൗമ	-7726
▁Y	-7727
▁°	-7728
ace	-7729
hat	-7730
ust	-7731
▁-7	-7732
▁4-	-7733
▁BA	-7734
▁Dr	-7735
▁OT	-7736
▁SA	-7737
▁ex	-7738
▁nd	-7739
▁ne	-7740
▁vs	-7741
▁എബ	-7742
▁ദൂ	-7743
▁ഫഖ	-7744
▁ബൾ	-7745
▁മഷ	-7746
▁ഹച	-7747
▁ൻഫ	-7748
▁ൽന	-7749
▁(8)	-7750
▁-5,	-7751
▁248	-7752
▁251	-7753
▁260	-7754
▁3.6	-7755
▁301	-7756
▁315	-7757
▁344	-7758
▁356	-7759
▁40%	-7760
▁44,	-7761
▁47,	-7762
▁5),	-7763
▁58,	-7764
▁7.2	-7765
▁COV	-7766
▁For	-7767
▁ine	-7768
▁nce	-7769
▁ult	-7770
▁അർധ	-7771
▁ആട്	-7772
▁ആയോ	-7773
▁ഈഗോ	-7774
▁ഈഡൻ	-7775
▁എടാ	-7776
▁എലി	-7777
▁കരന	-7778
▁കുവ	-7779
▁ഗിൽ	-7780
▁ഗീക	-7781
▁ചലോ	-7782
▁ചൗള	-7783
▁ജഗൻ	-7784
▁ജനൽ	-7785
▁തൃപ	-7786
▁ദിഷ	-7787
▁നടപ	-7788
▁നതു	-7789
▁നമോ	-7790
▁ബഹദ	-7791
▁ഭിന	-7792
▁ഭൗമ	-7793
▁മേഘ	-7794
▁രയു	-7795
▁രിപ	-7796
▁റപ്	-7797
▁റവു	-7798
▁വകു	-7799
▁വാൻ	-7800
▁ശരൺ	-7801
▁സമീ	-7802
▁സീൻ	-7803
▁സീൽ	-7804
▁ഹഖ്	-7805
▁ാദം	-7806
▁ാദേ	-7807
▁ുടര	-7808
▁ോരാ	-7809
▁്ടർ	-7810
▁ൻസറ	-7811
▁കരിക	-7812
▁കുകള	-7813
▁ങ്കെ	-7814
▁നിരീ	-7815
▁ന്ധ്	-7816
▁രിയെ	-7817
▁രൂപ്	-7818
▁റിയു	-7819
▁ളവര്	-7820
▁ാഗത്	-7821
▁ിതത്	-7822
▁ിയെട	-7823
▁്തിക	-7824
▁്രായ	-7825
▁Video	-7826
▁കയില്	-7827
▁ക്കളു	-7828
▁ടിയാണ	-7829
▁ടുകയാ	-7830
▁ദില്ല	-7831
▁യ്യുക	-7832
▁ല്ലാത	-7833
▁സമ്പര	-7834
▁സിന്റ	-7835
TS	-7836
ac	-7837
ap	-7838
au	-7839
dm	-7840
fe	-7841
fi	-7842
ll	-7843
va	-7844
നീ	-7845
വൺ	-7846
ൾഡ	-7847
▁्	-7848
ent	-7849
ഖ്യ	-7850
▁8)	-7851
▁AI	-7852
▁He	-7853
▁KL	-7854
▁ks	-7855
▁ro	-7856
▁un	-7857
▁ഇദ	-7858
▁ഇൗ	-7859
▁ഈറ	-7860
▁ചഭ	-7861
▁ജൽ	-7862
▁ധർ	-7863
▁നഫ	-7864
▁മൗ	-7865
▁ളജ	-7866
▁വവ	-7867
▁ശൽ	-7868
▁ഹള	-7869
▁ൻച	-7870
െടുത	-7871
▁(13	-7872
▁(29	-7873
▁(5,	-7874
▁(6,	-7875
▁14)	-7876
▁15%	-7877
▁16)	-7878
▁172	-7879
▁192	-7880
▁199	-7881
▁2),	-7882
▁2.3	-7883
▁217	-7884
▁227	-7885
▁238	-7886
▁252	-7887
▁256	-7888
▁258	-7889
▁265	-7890
▁266	-7891
▁268	-7892
▁273	-7893
▁281	-7894
▁30%	-7895
▁325	-7896
▁326	-7897
▁343	-7898
▁346	-7899
▁362	-7900
▁4.8	-7901
▁480	-7902
▁490	-7903
▁510	-7904
▁527	-7905
▁57,	-7906
▁590	-7907
▁61,	-7908
▁7),	-7909
▁75,	-7910
▁80%	-7911
▁80,	-7912
▁COP	-7913
▁Pro	-7914
▁ഇയർ	-7915
▁ഈസി	-7916
▁എജി	-7917
▁ഒഫ്	-7918
▁ഒലി	-7919
▁കടു	-7920
▁കളർ	-7921
▁കീശ	-7922
▁ഖനി	-7923
▁ഗർഭ	-7924
▁ടയർ	-7925
▁ടിഒ	-7926
▁ണൾഡ	-7927
▁ധമി	-7928
▁നടീ	-7929
▁പാവ	-7930
▁പെൺ	-7931
▁പേന	-7932
▁ബഹു	-7933
▁വാൾ	-7934
▁ഷാൻ	-7935
▁ഷാൾ	-7936
▁ഷീജ	-7937
▁സൺസ	-7938
▁ഹബ്	-7939
▁ഹീന	-7940
▁ഹൗറ	-7941
▁ാറ്	-7942
▁ുറമ	-7943
▁ൃതര	-7944
▁െങ്	-7945
▁കുപ്	-7946
▁ടികൾ	-7947
▁ണിയു	-7948
▁തമാക	-7949
▁തേസമ	-7950
▁ദിയു	-7951
▁ബിന്	-7952
▁റയാന	-7953
▁വർക്	-7954
▁ശ്യപ	-7955
▁സ്റ്	-7956
▁ാതിയ	-7957
▁ിരായ	-7958
▁ിളിക	-7959
▁്കാവ	-7960
▁്കിയ	-7961
▁്ദര്	-7962
▁്മദ്	-7963
▁covid	-7964
▁ional	-7965
▁ഇനിയു	-7966
▁കെടുത	-7967
▁കേന്ദ	-7968
▁തുള്ള	-7969
▁രിയിൽ	-7970
▁റക്കു	-7971
▁ലയിലെ	-7972
▁ളിലാണ	-7973
▁വരുത്	-7974
▁ാണിക്	-7975
▁ാഹുല്	-7976
▁ിക്കണ	-7977
▁ിത്രത	-7978
▁ിരുത്	-7979
▁ിലാക്	-7980
▁ുഹമ്മ	-7981
▁െയായി	-7982
▁്രഖ്യ	-7983
IC	-7984
PR	-7985
du	-7986
ly	-7987
oc	-7988
ue	-7989
▁X	-7990
▁൦	-7991
▁🔘	-7992
avy	-7993
ice	-7994
oli	-7995
our	-7996
ove	-7997
ree	-7998
▁',	-7999
▁-0	-8000
▁2:	-8001
▁5%	-8002
▁5-	-8003
▁CA	-8004
▁DY	-8005
▁IS	-8006
▁Me	-8007
▁SS	-8008
▁ae	-8009
▁be	-8010
▁hi	-8011
▁iv	-8012
▁ka	-8013
▁ow	-8014
▁qu	-8015
▁si	-8016
▁te	-8017
▁അഗ	-8018
▁അൺ	-8019
▁ഈദ	-8020
▁ഐഫ	-8021
▁ഓഖ	-8022
▁ഗേ	-8023
▁ചഹ	-8024
▁ജഖ	-8025
▁ദവ	-8026
▁പസ	-8027
▁പൽ	-8028
▁മഠ	-8029
▁ൻഹ	-8030
▁ർട	-8031
▁ൾഫ	-8032
▁ൾബ	-8033
otte	-8034
▁!!!	-8035
▁(12	-8036
▁(14	-8037
▁(25	-8038
▁(40	-8039
▁(42	-8040
▁(50	-8041
▁(9,	-8042
▁-3,	-8043
▁0.5	-8044
▁186	-8045
▁19)	-8046
▁2.8	-8047
▁20.	-8048
▁215	-8049
▁218	-8050
▁223	-8051
▁226	-8052
▁229	-8053
▁231	-8054
▁235	-8055
▁244	-8056
▁246	-8057
▁259	-8058
▁262	-8059
▁264	-8060
▁269	-8061
▁274	-8062
▁297	-8063
▁306	-8064
▁307	-8065
▁318	-8066
▁336	-8067
▁385	-8068
▁386	-8069
▁501	-8070
▁509	-8071
▁54,	-8072
▁577	-8073
▁65,	-8074
▁660	-8075
▁7.4	-8076
▁7.8	-8077
▁76,	-8078
▁8.5	-8079
▁850	-8080
▁III	-8081
▁cat	-8082
▁ent	-8083
▁gle	-8084
▁nat	-8085
▁net	-8086
▁ure	-8087
▁അകം	-8088
▁അനഘ	-8089
▁ആണു	-8090
▁ഇവി	-8091
▁ഉൾപ	-8092
▁ഊഴം	-8093
▁എഎൻ	-8094
▁എച്	-8095
▁എയെ	-8096
▁ഓഡി	-8097
▁ഗഡു	-8098
▁ഗോൾ	-8099
▁ഡസൻ	-8100
▁ഡീൻ	-8101
▁നഖം	-8102
▁പറഞ	-8103
▁പഴശ	-8104
▁പാം	-8105
▁പൂൾ	-8106
▁ബസു	-8107
▁മേര	-8108
▁യദു	-8109
▁രയി	-8110
▁രൂക	-8111
▁റബർ	-8112
▁ലഘു	-8113
▁ലഡു	-8114
▁വാല	-8115
▁വാഴ	-8116
▁വീര	-8117
▁ശാഖ	-8118
▁സദാ	-8119
▁സനൽ	-8120
▁സാൻ	-8121
▁ഹലോ	-8122
▁ാരത	-8123
▁ൂക്	-8124
▁േസി	-8125
▁്കൊ	-8126
▁്യയ	-8127
▁Hair	-8128
▁കിലു	-8129
▁ടാതെ	-8130
▁ത്തണ	-8131
▁പറഞ്	-8132
▁ഫഷനല	-8133
▁മണിക	-8134
▁മാനമ	-8135
▁ാഗ്ര	-8136
▁ുമുള	-8137
▁േശിന	-8138
▁ോക്ട	-8139
▁ോദ്യ	-8140
▁്കാൻ	-8141
▁്നതാ	-8142
▁്രദേ	-8143
▁്രിമ	-8144
▁Viral	-8145
▁ംഗങ്ങ	-8146
▁ംബത്ത	-8147
▁ടത്തു	-8148
▁തേസമയ	-8149
▁ന്നതു	-8150
▁രവാദി	-8151
▁ിക്കറ	-8152
▁ുമ്പ്	-8153
▁ൊലപാത	-8154
▁്കാരി	-8155
▁്താന്	-8156
▁്ത്രാ	-8157
AT	-8158
EC	-8159
EM	-8160
ci	-8161
ee	-8162
fl	-8163
hi	-8164
ws	-8165
▁ि	-8166
▁்	-8167
ame	-8168
ess	-8169
ild	-8170
ish	-8171
ost	-8172
▁00	-8173
▁3:	-8174
▁5:	-8175
▁CM	-8176
▁Co	-8177
▁Ke	-8178
▁MK	-8179
▁PM	-8180
▁PR	-8181
▁Se	-8182
▁UA	-8183
▁We	-8184
▁di	-8185
▁ly	-8186
▁nn	-8187
▁no	-8188
▁ns	-8189
▁pr	-8190
▁tt	-8191
▁ur	-8192
▁vi	-8193
▁എഴ	-8194
▁ഐഡ	-8195
▁ഔഫ	-8196
▁കഡ	-8197
▁ജം	-8198
▁രഫ	-8199
▁ലല	-8200
▁വഫ	-8201
▁ഷഫ	-8202
▁ർഖ	-8203
ELTS	-8204
▁(27	-8205
▁1),	-8206
▁14.	-8207
▁19:	-8208
▁2.6	-8209
▁2.7	-8210
▁207	-8211
▁237	-8212
▁241	-8213
▁25%	-8214
▁254	-8215
▁255	-8216
▁287	-8217
▁292	-8218
▁296	-8219
▁305	-8220
▁319	-8221
▁322	-8222
▁337	-8223
▁338	-8224
▁353	-8225
▁377	-8226
▁380	-8227
▁395	-8228
▁4.9	-8229
▁418	-8230
▁421	-8231
▁504	-8232
▁520	-8233
▁532	-8234
▁6.9	-8235
▁640	-8236
▁66,	-8237
▁7.7	-8238
▁70,	-8239
▁720	-8240
▁74,	-8241
▁90%	-8242
▁93,	-8243
▁day	-8244
▁mar	-8245
▁ups	-8246
▁wor	-8247
▁you	-8248
▁ആഡ്	-8249
▁ഇളം	-8250
▁ഊണ്	-8251
▁ഓമന	-8252
▁കരൺ	-8253
▁കിത	-8254
▁കൂൾ	-8255
▁ഗതം	-8256
▁ഗമാ	-8257
▁ചീര	-8258
▁ജയൻ	-8259
▁ടമാ	-8260
▁ടെൽ	-8261
▁ഡോം	-8262
▁ണുന	-8263
▁തിസ	-8264
▁തേജ	-8265
▁ധരം	-8266
▁നുഭ	-8267
▁ഫഷൻ	-8268
▁ഫിഫ	-8269
▁ബദര	-8270
▁ബെൻ	-8271
▁ഭാൽ	-8272
▁ഭിച	-8273
▁ഭീമ	-8274
▁മദൻ	-8275
▁മുഴ	-8276
▁മൂസ	-8277
▁യാപ	-8278
▁രഞ്	-8279
▁രമു	-8280
▁രുദ	-8281
▁ലേല	-8282
▁ലോല	-8283
▁വനഗ	-8284
▁വളം	-8285
▁ഷേധ	-8286
▁ഷൺമ	-8287
▁സദറ	-8288
▁ഹരം	-8289
▁ഹാൾ	-8290
▁േഹം	-8291
▁്നു	-8292
▁Care	-8293
▁Cent	-8294
▁join	-8295
▁കയായ	-8296
▁ചരിത	-8297
▁ടുംബ	-8298
▁ടുക്	-8299
▁ടുകൾ	-8300
▁ടേണ്	-8301
▁ദിത്	-8302
▁ധ്യമ	-8303
▁നതായ	-8304
▁ന്നയ	-8305
▁ഫഷനൽ	-8306
▁മൂന്	-8307
▁യാത്	-8308
▁യാറാ	-8309
▁യെന്	-8310
▁ല്ലയ	-8311
▁ളികള	-8312
▁വരുട	-8313
▁ശിക്	-8314
▁ഹത്ത	-8315
▁ാനത്	-8316
▁ാവസ്	-8317
▁ോരാട	-8318
▁്കുള	-8319
▁്രമി	-8320
▁്ഷ്യ	-8321
▁COVID	-8322
▁IELTS	-8323
▁ഇത്തവ	-8324
▁കേസുക	-8325
▁ക്കുന	-8326
▁ഞ്ഞെട	-8327
▁ണ്ടിക	-8328
▁തിയാണ	-8329
▁ഥലത്ത	-8330
▁രവാസി	-8331
▁ലെങ്ക	-8332
▁വരങ്ങ	-8333
▁വ്യക്	-8334
▁സാരിക	-8335
▁സ്വാധ	-8336
▁ഹചര്യ	-8337
▁െയ്ത്	-8338
▁്രത്ത	-8339
DS	-8340
PF	-8341
RE	-8342
be	-8343
ff	-8344
pt	-8345
ആം	-8346
ഘഠ	-8347
ഹർ	-8348
ാള	-8349
ോദ	-8350
′′	-8351
▁Z	-8352
▁\	-8353
ive	-8354
uit	-8355
ഘഠഇ	-8356
ടുക	-8357
▁".	-8358
▁1:	-8359
▁4%	-8360
▁Bo	-8361
▁Di	-8362
▁Ex	-8363
▁IM	-8364
▁MA	-8365
▁Ne	-8366
▁SR	-8367
▁Te	-8368
▁To	-8369
▁Tw	-8370
▁WW	-8371
▁ck	-8372
▁cr	-8373
▁do	-8374
▁du	-8375
▁he	-8376
▁ki	-8377
▁ku	-8378
▁ms	-8379
▁og	-8380
▁ra	-8381
▁sc	-8382
▁sp	-8383
▁tv	-8384
▁ഇം	-8385
▁ഇഐ	-8386
▁ഖജ	-8387
▁ജൈ	-8388
▁ണട	-8389
▁ഭജ	-8390
▁മഗ	-8391
▁റഷ	-8392
▁ലട	-8393
▁ഴവ	-8394
▁ഷഡ	-8395
▁ഷദ	-8396
തിയു	-8397
▁(15	-8398
▁(38	-8399
▁(45	-8400
▁(7,	-8401
▁---	-8402
▁10)	-8403
▁11)	-8404
▁20)	-8405
▁22)	-8406
▁247	-8407
▁257	-8408
▁263	-8409
▁267	-8410
▁278	-8411
▁28)	-8412
▁285	-8413
▁298	-8414
▁299	-8415
▁3.8	-8416
▁345	-8417
▁348	-8418
▁363	-8419
▁364	-8420
▁371	-8421
▁4.2	-8422
▁4.6	-8423
▁410	-8424
▁419	-8425
▁424	-8426
▁432	-8427
▁435	-8428
▁458	-8429
▁481	-8430
▁5.2	-8431
▁526	-8432
▁528	-8433
▁542	-8434
▁570	-8435
▁593	-8436
▁6),	-8437
▁6-7	-8438
▁6.2	-8439
▁618	-8440
▁620	-8441
▁624	-8442
▁627	-8443
▁695	-8444
▁70%	-8445
▁711	-8446
▁73,	-8447
▁78,	-8448
▁781	-8449
▁820	-8450
▁96,	-8451
▁97,	-8452
▁Act	-8453
▁Big	-8454
▁Nat	-8455
▁One	-8456
▁SFI	-8457
▁fri	-8458
▁ity	-8459
▁nts	-8460
▁അലൻ	-8461
▁ഐവി	-8462
▁ഒറു	-8463
▁ഓകെ	-8464
▁ഓഖി	-8465
▁ഓട്	-8466
▁കനി	-8467
▁കയ്	-8468
▁കേണ	-8469
▁ഖത്	-8470
▁ഗവി	-8471
▁ഗും	-8472
▁ചഹല	-8473
▁ചാത	-8474
▁ജബൽ	-8475
▁ടറി	-8476
▁ണാക	-8477
▁തപ്	-8478
▁തഹ്	-8479
▁ദോശ	-8480
▁ധർണ	-8481
▁നസി	-8482
▁നോറ	-8483
▁പാഠ	-8484
▁പിന	-8485
▁ഫറല	-8486
▁മമാ	-8487
▁മഷി	-8488
▁മൈൽ	-8489
▁യുള	-8490
▁രനാ	-8491
▁രവന	-8492
▁ലാള	-8493
▁ലെയ	-8494
▁വചസ	-8495
▁വലം	-8496
▁വേല	-8497
▁ശ്ന	-8498
▁ഷീന	-8499
▁സഞ്	-8500
▁സരം	-8501
▁സെൻ	-8502
▁സോന	-8503
▁ഹജ്	-8504
▁ഹറം	-8505
▁ഹസൻ	-8506
▁ഹിൽ	-8507
▁ാധീ	-8508
▁ിചാ	-8509
▁ിനീ	-8510
▁ിമയ	-8511
▁ിൽക	-8512
▁ീക്	-8513
▁ീമി	-8514
▁ുകൂ	-8515
▁േഷം	-8516
▁ൊള്	-8517
▁ോഹന	-8518
▁്ടപ	-8519
▁്നൊ	-8520
▁്സര	-8521
▁Rain	-8522
▁ions	-8523
▁nifl	-8524
▁rate	-8525
▁ഇടുക	-8526
▁കുകയ	-8527
▁താവാ	-8528
▁ദിലീ	-8529
▁പോള്	-8530
▁ഭീഷണ	-8531
▁മുക്	-8532
▁യക്ഷ	-8533
▁രജിസ	-8534
▁ര്യമ	-8535
▁വരുത	-8536
▁സഹോദ	-8537
▁സാഹച	-8538
▁ുമതല	-8539
▁ൂര്യ	-8540
▁്കറി	-8541
▁്ഥാപ	-8542
▁forms	-8543
▁ഇഎഘഠഇ	-8544
▁കമ്മീ	-8545
▁ടിന്റ	-8546
▁ണ്ടുവ	-8547
▁മിന്റ	-8548
▁ഴിലാള	-8549
▁ശ്വസി	-8550
▁സാധാര	-8551
▁ിവുകള	-8552
▁െഡിക്	-8553
▁്തിയു	-8554
BT	-8555
CT	-8556
ED	-8557
HO	-8558
II	-8559
la	-8560
ma	-8561
sp	-8562
ys	-8563
ഓൾ	-8564
ഘർ	-8565
ബെ	-8566
▁य	-8567
▁र	-8568
▁स	-8569
▁❤	-8570
Ele	-8571
ake	-8572
ale	-8573
ama	-8574
and	-8575
ith	-8576
oll	-8577
ook	-8578
pec	-8579
ിലാ	-8580
ൃത്	-8581
▁-8	-8582
▁0-	-8583
▁1%	-8584
▁AM	-8585
▁BS	-8586
▁Be	-8587
▁IV	-8588
▁MG	-8589
▁PA	-8590
▁SI	-8591
▁ma	-8592
▁rn	-8593
▁ti	-8594
▁के	-8595
▁ഈട	-8596
▁ഊബ	-8597
▁ഓറ	-8598
▁തണ	-8599
▁ഭബ	-8600
▁ലൌ	-8601
▁സയ	-8602
▁ഹീ	-8603
▁ൡല	-8604
▁ൽഹ	-8605
▁(11	-8606
▁(21	-8607
▁(22	-8608
▁(23	-8609
▁(24	-8610
▁(28	-8611
▁(31	-8612
▁(36	-8613
▁(56	-8614
▁0.7	-8615
▁15.	-8616
▁18.	-8617
▁2-3	-8618
▁21)	-8619
▁25.	-8620
▁253	-8621
▁261	-8622
▁271	-8623
▁276	-8624
▁277	-8625
▁28.	-8626
▁282	-8627
▁286	-8628
▁3.4	-8629
▁3.9	-8630
▁30.	-8631
▁303	-8632
▁308	-8633
▁309	-8634
▁31)	-8635
▁324	-8636
▁342	-8637
▁35%	-8638
▁358	-8639
▁368	-8640
▁372	-8641
▁384	-8642
▁387	-8643
▁390	-8644
▁391	-8645
▁4.3	-8646
▁405	-8647
▁408	-8648
▁415	-8649
▁434	-8650
▁437	-8651
▁453	-8652
▁457	-8653
▁462	-8654
▁473	-8655
▁484	-8656
▁499	-8657
▁505	-8658
▁516	-8659
▁517	-8660
▁52)	-8661
▁530	-8662
▁537	-8663
▁55%	-8664
▁55)	-8665
▁56,	-8666
▁59,	-8667
▁6.4	-8668
▁607	-8669
▁608	-8670
▁67,	-8671
▁672	-8672
▁675	-8673
▁69,	-8674
▁690	-8675
▁737	-8676
▁81,	-8677
▁82,	-8678
▁870	-8679
▁888	-8680
▁950	-8681
▁KSU	-8682
▁Mar	-8683
▁RSS	-8684
▁WWW	-8685
▁ant	-8686
▁cmd	-8687
▁edu	-8688
▁ers	-8689
▁est	-8690
▁ial	-8691
▁man	-8692
▁ort	-8693
▁pat	-8694
▁rcc	-8695
▁tvm	-8696
▁ual	-8697
▁ംതി	-8698
▁അണു	-8699
▁അപു	-8700
▁അമർ	-8701
▁അൽപ	-8702
▁ആബെ	-8703
▁ആലി	-8704
▁ഉലമ	-8705
▁എആർ	-8706
▁എഡ്	-8707
▁ഏക്	-8708
▁ഏഴോ	-8709
▁ഔഡി	-8710
▁കഫേ	-8711
▁കാൾ	-8712
▁കീം	-8713
▁ഖോഡ	-8714
▁ഗംഗ	-8715
▁ഗഡ്	-8716
▁ചക്	-8717
▁ചരമ	-8718
▁ജാവ	-8719
▁ജിഐ	-8720
▁ജൻമ	-8721
▁ടുണ	-8722
▁ടൂർ	-8723
▁ണമല	-8724
▁തോന	-8725
▁ദവെ	-8726
▁ദൂര	-8727
▁ധർമ	-8728
▁നയന	-8729
▁പദവ	-8730
▁പയോ	-8731
▁പോൺ	-8732
▁ബസർ	-8733
▁ബാം	-8734
▁ബിഗ	-8735
▁ബോൾ	-8736
▁ബൾബ	-8737
▁മെഡ	-8738
▁മൊര	-8739
▁യാഭ	-8740
▁രജത	-8741
▁രണക	-8742
▁രാസ	-8743
▁റംല	-8744
▁റൻറ	-8745
▁ലൂണ	-8746
▁ലേഖ	-8747
▁ലോധ	-8748
▁വിഎ	-8749
▁വിൻ	-8750
▁വർബ	-8751
▁ശിഖ	-8752
▁ഷെൽ	-8753
▁സ്ഐ	-8754
▁ികി	-8755
▁ുഡി	-8756
▁ുവത	-8757
▁ൂന്	-8758
▁െത്	-8759
▁ൊല്	-8760
▁ോലു	-8761
▁്ഡല	-8762
▁്ത്	-8763
▁ർമൽ	-8764
▁DYFI	-8765
▁Inte	-8766
▁Onei	-8767
▁SARS	-8768
▁SRIT	-8769
▁date	-8770
▁with	-8771
▁ഈഴവര	-8772
▁കാണ്	-8773
▁കോടത	-8774
▁ചിക്	-8775
▁ടിയന	-8776
▁തിരഞ	-8777
▁നടപട	-8778
▁ന്തമ	-8779
▁ന്ധമ	-8780
▁ന്നപ	-8781
▁പൂരി	-8782
▁ലയിൽ	-8783
▁സാക്	-8784
▁സിപ്	-8785
▁ികരണ	-8786
▁ികിത	-8787
▁ിയവര	-8788
▁ിരിക	-8789
▁ിവാക	-8790
▁ുകൂല	-8791
▁്നാം	-8792
▁്പിൽ	-8793
▁KLEle	-8794
▁കാണാന	-8795
▁ക്കെയ	-8796
▁ച്ചാണ	-8797
▁ടുകള്	-8798
▁തിയിര	-8799
▁നിട്ട	-8800
▁രണത്ത	-8801
▁വ്യത്	-8802
▁സംഭവം	-8803
▁ുമാറി	-8804
▁ുറിച്	-8805
▁ുഹൃത്	-8806
▁്പിലാ	-8807
20	-8808
30	-8809
DA	-8810
ES	-8811
PA	-8812
RA	-8813
RF	-8814
WP	-8815
ep	-8816
je	-8817
mi	-8818
my	-8819
od	-8820
sc	-8821
ഡം	-8822
നു	-8823
സാ	-8824
ഹാ	-8825
ുന	-8826
്ദ	-8827
▁न	-8828
▁व	-8829
▁ൿ	-8830
▁⃣	-8831
▁▪	-8832
ISF	-8833
RTC	-8834
all	-8835
dit	-8836
ind	-8837
ine	-8838
ing	-8839
lle	-8840
ood	-8841
rea	-8842
▁",	-8843
▁"-	-8844
▁,1	-8845
▁8%	-8846
▁Ag	-8847
▁BR	-8848
▁CR	-8849
▁DA	-8850
▁FB	-8851
▁GP	-8852
▁IT	-8853
▁MB	-8854
▁Mo	-8855
▁PG	-8856
▁Ph	-8857
▁Pl	-8858
▁SB	-8859
▁ST	-8860
▁Sh	-8861
▁WA	-8862
▁ai	-8863
▁as	-8864
▁bu	-8865
▁cy	-8866
▁ll	-8867
▁my	-8868
▁nc	-8869
▁pm	-8870
▁അങ	-8871
▁അഞ	-8872
▁ഐബ	-8873
▁ഓല	-8874
▁ഗൈ	-8875
▁ഘി	-8876
▁ങള	-8877
▁ഡമ	-8878
▁ണള	-8879
▁തഗ	-8880
▁ദബ	-8881
▁ദൻ	-8882
▁നഭ	-8883
▁നഷ	-8884
▁പഗ	-8885
▁പച	-8886
▁ബഡ	-8887
▁ബത	-8888
▁ഭം	-8889
▁റജ	-8890
▁ളർ	-8891
▁വബ	-8892
▁ഷപ	-8893
▁ഹഖ	-8894
▁ീധ	-8895
▁െച	-8896
▁ൊക	-8897
▁′′	-8898
astu	-8899
▁(26	-8900
▁(37	-8901
▁(52	-8902
▁-6,	-8903
▁..?	-8904
▁0.6	-8905
▁0.8	-8906
▁012	-8907
▁12.	-8908
▁17)	-8909
▁249	-8910
▁25)	-8911
▁26)	-8912
▁279	-8913
▁284	-8914
▁29)	-8915
▁291	-8916
▁3%,	-8917
▁3.1	-8918
▁3.3	-8919
▁3.7	-8920
▁30)	-8921
▁311	-8922
▁314	-8923
▁317	-8924
▁321	-8925
▁33%	-8926
▁334	-8927
▁341	-8928
▁351	-8929
▁355	-8930
▁357	-8931
▁389	-8932
▁409	-8933
▁451	-8934
▁456	-8935
▁47)	-8936
▁470	-8937
▁474	-8938
▁476	-8939
▁477	-8940
▁483	-8941
▁489	-8942
▁496	-8943
▁497	-8944
▁498	-8945
▁5.7	-8946
▁5.8	-8947
▁508	-8948
▁514	-8949
▁515	-8950
▁518	-8951
▁538	-8952
▁55,	-8953
▁581	-8954
▁583	-8955
▁594	-8956
▁6,7	-8957
▁6.3	-8958
▁60.	-8959
▁614	-8960
▁617	-8961
▁619	-8962
▁621	-8963
▁622	-8964
▁623	-8965
▁625	-8966
▁634	-8967
▁638	-8968
▁64,	-8969
▁647	-8970
▁649	-8971
▁665	-8972
▁673	-8973
▁7.6	-8974
▁71,	-8975
▁72,	-8976
▁79,	-8977
▁8.2	-8978
▁8.3	-8979
▁8.6	-8980
▁830	-8981
▁841	-8982
▁853	-8983
▁87,	-8984
▁880	-8985
▁89,	-8986
▁905	-8987
▁906	-8988
▁91,	-8989
▁941	-8990
▁99,	-8991
▁999	-8992
▁App	-8993
▁CIT	-8994
▁Can	-8995
▁Dis	-8996
▁KSE	-8997
▁OET	-8998
▁OTT	-8999
▁SEC	-9000
▁act	-9001
▁ate	-9002
▁cor	-9003
▁her	-9004
▁ice	-9005
▁ini	-9006
▁ivi	-9007
▁not	-9008
▁por	-9009
▁ser	-9010
▁ter	-9011
▁tta	-9012
▁അടൽ	-9013
▁അധമ	-9014
▁അ്ദ	-9015
▁ആജ്	-9016
▁ആഡം	-9017
▁ആധി	-9018
▁ആസ്	-9019
▁ഇവൻ	-9020
▁ഉമർ	-9021
▁ഊര്	-9022
▁എജെ	-9023
▁എത്	-9024
▁എറെ	-9025
▁ഏകെ	-9026
▁ഏറി	-9027
▁ഐഎം	-9028
▁കത്	-9029
▁ഗുഹ	-9030
▁ഗ്ധ	-9031
▁ചലന	-9032
▁ചോല	-9033
▁ഡിം	-9034
▁ഡും	-9035
▁തിപ	-9036
▁തോൾ	-9037
▁ഥിക	-9038
▁ഥിര	-9039
▁ദോബ	-9040
▁നദീ	-9041
▁നമ്	-9042
▁നലബ	-9043
▁നിങ	-9044
▁നീച	-9045
▁ഫസൽ	-9046
▁ബുൾ	-9047
▁ബെൽ	-9048
▁ഭജന	-9049
▁ഭാമ	-9050
▁മഠം	-9051
▁മയോ	-9052
▁മഴു	-9053
▁മൂന	-9054
▁മോൻ	-9055
▁മ്ബ	-9056
▁മൺവ	-9057
▁മൻറ	-9058
▁യമു	-9059
▁യാജ	-9060
▁രമൺ	-9061
▁രവധ	-9062
▁റഫർ	-9063
▁റാസ	-9064
▁ലഫ്	-9065
▁ലുള	-9066
▁വടം	-9067
▁വനജ	-9068
▁വമാ	-9069
▁വൈൻ	-9070
▁വൽസ	-9071
▁ശവം	-9072
▁സതി	-9073
▁ഹഗ്	-9074
▁ഹരേ	-9075
▁ാഥ്	-9076
▁ായെ	-9077
▁ുസര	-9078
▁െച്	-9079
▁്കട	-9080
▁്കര	-9081
▁്റീ	-9082
▁ർദ്	-9083
▁ർമല	-9084
▁ൽകു	-9085
▁ൽഘർ	-9086
▁book	-9087
▁poli	-9088
▁ress	-9089
▁അവസ്	-9090
▁കക്ഷ	-9091
▁ജോര്	-9092
▁ടിലെ	-9093
▁ഥിതി	-9094
▁ധ്യത	-9095
▁മാരു	-9096
▁മൂല്	-9097
▁യേണ്	-9098
▁രുകയ	-9099
▁ഷ്ട്	-9100
▁ഹാരാ	-9101
▁ിറക്	-9102
▁െസ്റ	-9103
▁്യാഭ	-9104
▁്രത്	-9105
▁്വാസ	-9106
▁Heavy	-9107
▁KSRTC	-9108
▁Vastu	-9109
▁conte	-9110
▁lotte	-9111
▁അംഗീക	-9112
▁കിയത്	-9113
▁കോളേജ	-9114
▁ക്ഷത്	-9115
▁ക്സിന	-9116
▁ഗത്തെ	-9117
▁ഞ്ഞത്	-9118
▁ട്ടായ	-9119
▁ണ്ടുപ	-9120
▁തിനാണ	-9121
▁തുടരു	-9122
▁ന്നുവ	-9123
▁ന്റെയ	-9124
▁ാകുന്	-9125
▁ിണറായ	-9126
▁ോൺഗ്ര	-9127
).	-9128
AI	-9129
CU	-9130
DC	-9131
HE	-9132
OT	-9133
PI	-9134
PM	-9135
SP	-9136
gi	-9137
hr	-9138
ju	-9139
ke	-9140
na	-9141
op	-9142
pc	-9143
pm	-9144
rc	-9145
ണല	-9146
നോ	-9147
ബജ	-9148
മല	-9149
ഴല	-9150
ഷം	-9151
ഹ്	-9152
⁄4	-9153
▁>	-9154
▁q	-9155
▁ब	-9156
▁म	-9157
▁👉	-9158
DRF	-9159
IPR	-9160
PCC	-9161
TPC	-9162
act	-9163
agi	-9164
agr	-9165
ank	-9166
ara	-9167
ass	-9168
ath	-9169
ave	-9170
ays	-9171
bai	-9172
dmi	-9173
ill	-9174
ils	-9175
ote	-9176
pri	-9177
ult	-9178
une	-9179
ിന്	-9180
▁,2	-9181
▁1/	-9182
▁3%	-9183
▁4:	-9184
▁6%	-9185
▁6:	-9186
▁7%	-9187
▁7-	-9188
▁9%	-9189
▁AL	-9190
▁Ad	-9191
▁Am	-9192
▁As	-9193
▁DS	-9194
▁Do	-9195
▁EK	-9196
▁GS	-9197
▁IA	-9198
▁MD	-9199
▁ME	-9200
▁MW	-9201
▁NH	-9202
▁PS	-9203
▁Qu	-9204
▁Sc	-9205
▁Sk	-9206
▁TE	-9207
▁Th	-9208
▁Tr	-9209
▁VE	-9210
▁ay	-9211
▁ca	-9212
▁go	-9213
▁ho	-9214
▁km	-9215
▁mg	-9216
▁mi	-9217
▁nk	-9218
▁od	-9219
▁pu	-9220
▁rc	-9221
▁rt	-9222
▁we	-9223
▁ആമ	-9224
▁ഈണ	-9225
▁ഈവ	-9226
▁ഓജ	-9227
▁കദ	-9228
▁ഗയ	-9229
▁ഗൻ	-9230
▁ഘല	-9231
▁ദെ	-9232
▁ദൈ	-9233
▁ധൻ	-9234
▁നഇ	-9235
▁ബവ	-9236
▁മൾ	-9237
▁യഗ	-9238
▁ഴല	-9239
▁ഴെ	-9240
▁ഴൻ	-9241
▁ശഖ	-9242
▁ശൈ	-9243
▁ഷസ	-9244
▁ഹഗ	-9245
▁ഹഫ	-9246
▁ൾപ	-9247
IAPF	-9248
ices	-9249
leep	-9250
▁(19	-9251
▁(33	-9252
▁(4,	-9253
▁(47	-9254
▁(55	-9255
▁-12	-9256
▁-17	-9257
▁-7,	-9258
▁.30	-9259
▁0.1	-9260
▁0.2	-9261
▁000	-9262
▁01,	-9263
▁07,	-9264
▁10-	-9265
▁11-	-9266
▁12%	-9267
▁16-	-9268
▁17:	-9269
▁18%	-9270
▁18)	-9271
▁2-4	-9272
▁22%	-9273
▁22.	-9274
▁221	-9275
▁23.	-9276
▁24)	-9277
▁26:	-9278
▁27%	-9279
▁29.	-9280
▁3-5	-9281
▁31.	-9282
▁313	-9283
▁32)	-9284
▁331	-9285
▁339	-9286
▁36.	-9287
▁366	-9288
▁367	-9289
▁373	-9290
▁378	-9291
▁38%	-9292
▁396	-9293
▁397	-9294
▁399	-9295
▁412	-9296
▁416	-9297
▁42%	-9298
▁422	-9299
▁433	-9300
▁442	-9301
▁446	-9302
▁449	-9303
▁45%	-9304
▁45)	-9305
▁455	-9306
▁46%	-9307
▁460	-9308
▁466	-9309
▁467	-9310
▁468	-9311
▁471	-9312
▁485	-9313
▁487	-9314
▁488	-9315
▁495	-9316
▁5.1	-9317
▁502	-9318
▁503	-9319
▁507	-9320
▁51)	-9321
▁512	-9322
▁529	-9323
▁53)	-9324
▁549	-9325
▁552	-9326
▁553	-9327
▁557	-9328
▁562	-9329
▁567	-9330
▁579	-9331
▁589	-9332
▁596	-9333
▁6.6	-9334
▁6.7	-9335
▁601	-9336
▁610	-9337
▁633	-9338
▁636	-9339
▁637	-9340
▁641	-9341
▁656	-9342
▁667	-9343
▁67)	-9344
▁679	-9345
▁68,	-9346
▁680	-9347
▁692	-9348
▁7%,	-9349
▁7.1	-9350
▁7.3	-9351
▁701	-9352
▁714	-9353
▁715	-9354
▁740	-9355
▁742	-9356
▁760	-9357
▁77,	-9358
▁783	-9359
▁790	-9360
▁8.1	-9361
▁814	-9362
▁83,	-9363
▁835	-9364
▁85)	-9365
▁866	-9366
▁879	-9367
▁9.2	-9368
▁9.5	-9369
▁9.9	-9370
▁904	-9371
▁920	-9372
▁938	-9373
▁990	-9374
▁AED	-9375
▁Aut	-9376
▁But	-9377
▁CoV	-9378
▁Ele	-9379
▁GPT	-9380
▁IAS	-9381
▁IPS	-9382
▁Ind	-9383
▁Job	-9384
▁PSC	-9385
▁TDS	-9386
▁Tri	-9387
▁UAE	-9388
▁WHO	-9389
▁ary	-9390
▁cal	-9391
▁dau	-9392
▁det	-9393
▁hip	-9394
▁iss	-9395
▁job	-9396
▁ore	-9397
▁per	-9398
▁ral	-9399
▁ric	-9400
▁sex	-9401
▁son	-9402
▁tal	-9403
▁tha	-9404
▁war	-9405
▁അപര	-9406
▁അബി	-9407
▁അവശ	-9408
▁അസി	-9409
▁ആണി	-9410
▁ഇവൾ	-9411
▁എടി	-9412
▁എറണ	-9413
▁എവേ	-9414
▁ഒകെ	-9415
▁ഒബജ	-9416
▁ഓക്	-9417
▁ഓടം	-9418
▁ഓണർ	-9419
▁കനം	-9420
▁കയു	-9421
▁കലി	-9422
▁കൂൺ	-9423
▁ഗിൾ	-9424
▁ഗോള	-9425
▁ഗൺമ	-9426
▁ജഗജ	-9427
▁ജരാ	-9428
▁ജലജ	-9429
▁ജൈന	-9430
▁ടാണ	-9431
▁ടിഐ	-9432
▁ടിൻ	-9433
▁ടൂൾ	-9434
▁ടെക	-9435
▁ഡീൽ	-9436
▁തണൽ	-9437
▁തഴമ	-9438
▁ത്ക	-9439
▁ദസറ	-9440
▁ദോഷ	-9441
▁ധാം	-9442
▁നീര	-9443
▁ഫറസ	-9444
▁ഫറാ	-9445
▁ഫീൽ	-9446
▁ഫൈൻ	-9447
▁ബാൽ	-9448
▁ബൂം	-9449
▁ബോം	-9450
▁ഭഗൽ	-9451
▁മതല	-9452
▁മദർ	-9453
▁മഹി	-9454
▁മീം	-9455
▁മുണ	-9456
▁മോർ	-9457
▁യഥാ	-9458
▁യമം	-9459
▁യഷ്	-9460
▁യൻസ	-9461
▁രമദ	-9462
▁രഹന	-9463
▁റഫാ	-9464
▁ററു	-9465
▁റുള	-9466
▁റൊര	-9467
▁ലറൽ	-9468
▁ലോറ	-9469
▁ളാഹ	-9470
▁ളിം	-9471
▁ഴക്	-9472
▁വനവ	-9473
▁വയല	-9474
▁വെൻ	-9475
▁വോറ	-9476
▁വർല	-9477
▁ശരണ	-9478
▁ശഷം	-9479
▁ഷൈല	-9480
▁സജു	-9481
▁സലേ	-9482
▁സഹാ	-9483
▁സിഎ	-9484
▁സീന	-9485
▁സുഖ	-9486
▁സുജ	-9487
▁സൈൻ	-9488
▁സോയ	-9489
▁സൗദ	-9490
▁ഹുല	-9491
▁ഹൃത	-9492
▁ാവസ	-9493
▁ിരവ	-9494
▁ിർദ	-9495
▁ൂമി	-9496
▁െട്	-9497
▁േരു	-9498
▁ൈക്	-9499
▁ൊണ്	-9500
▁്ടന	-9501
▁്ടീ	-9502
▁്ധം	-9503
▁്യര	-9504
▁്രശ	-9505
▁ൻസമ	-9506
▁ൻസൽ	-9507
▁ർമന	-9508
▁Boss	-9509
▁Chat	-9510
▁KPCC	-9511
▁PGWP	-9512
▁Spec	-9513
▁WIPR	-9514
▁abha	-9515
▁ally	-9516
▁atha	-9517
▁cont	-9518
▁game	-9519
▁inat	-9520
▁jagr	-9521
▁love	-9522
▁mala	-9523
▁post	-9524
▁ruit	-9525
▁sama	-9526
▁sime	-9527
▁than	-9528
▁upsc	-9529
▁will	-9530
▁അവസാ	-9531
▁കൊലപ	-9532
▁ക്ഷപ	-9533
▁ടില്	-9534
▁ണെന്	-9535
▁നിത്	-9536
▁നുള്	-9537
▁മാനേ	-9538
▁രാതി	-9539
▁രുതു	-9540
▁റിപ്	-9541
▁ലേക്	-9542
▁ളാണ്	-9543
▁ളിലേ	-9544
▁ഹുല്	-9545
▁ിനാൽ	-9546
▁ിരുവ	-9547
▁ിലേറ	-9548
▁ുകയാ	-9549
▁്പാക	-9550
▁FIAPF	-9551
▁Sleep	-9552
▁vices	-9553
▁video	-9554
▁കൂടുത	-9555
▁ഗത്ത്	-9556
▁ഗ്രസി	-9557
▁തിയും	-9558
▁നത്തി	-9559
▁പരിശോ	-9560
▁റത്തു	-9561
▁സന്തോ	-9562
▁ാക്കാ	-9563
▁ികളാണ	-9564
▁ുപ്പ്	-9565
▁േറ്റി	-9566
▁ൊണ്ടാ	-9567
▁്കാര്	-9568
▁്കിന്	-9569
▁ർക്കാ	-9570
LC	-9571
MA	-9572
NA	-9573
NP	-9574
OC	-9575
OG	-9576
OH	-9577
OS	-9578
RI	-9579
VE	-9580
ab	-9581
bi	-9582
bt	-9583
ld	-9584
mb	-9585
mp	-9586
pi	-9587
we	-9588
പല	-9589
പേ	-9590
ലം	-9591
ൽസ	-9592
▁}	-9593
▁ग	-9594
▁द	-9595
▁े	-9596
▁ட	-9597
▁♥	-9598
IDE	-9599
RCC	-9600
ach	-9601
ans	-9602
ard	-9603
ase	-9604
bse	-9605
iss	-9606
one	-9607
ore	-9608
row	-9609
und	-9610
രുന	-9611
▁'-	-9612
▁,4	-9613
▁.8	-9614
▁/-	-9615
▁2%	-9616
▁7:	-9617
▁8-	-9618
▁?"	-9619
▁?;	-9620
▁AN	-9621
▁AS	-9622
▁AT	-9623
▁Ac	-9624
▁Ar	-9625
▁Ch	-9626
▁Cr	-9627
▁EM	-9628
▁En	-9629
▁GO	-9630
▁ID	-9631
▁Le	-9632
▁Lo	-9633
▁MV	-9634
▁Mu	-9635
▁NS	-9636
▁Nb	-9637
▁Si	-9638
▁Up	-9639
▁VI	-9640
▁Vi	-9641
▁ap	-9642
▁bs	-9643
▁cd	-9644
▁cl	-9645
▁dr	-9646
▁es	-9647
▁et	-9648
▁fb	-9649
▁fl	-9650
▁gc	-9651
▁gy	-9652
▁hu	-9653
▁ip	-9654
▁ko	-9655
▁mo	-9656
▁mu	-9657
▁ol	-9658
▁pt	-9659
▁rd	-9660
▁sm	-9661
▁tw	-9662
▁us	-9663
▁ve	-9664
▁ഇഡ	-9665
▁കജ	-9666
▁ഖം	-9667
▁ഖഗ	-9668
▁ഖൈ	-9669
▁ചധ	-9670
▁ഡഗ	-9671
▁ദൗ	-9672
▁ധപ	-9673
▁നൻ	-9674
▁പപ	-9675
▁പർ	-9676
▁രറ	-9677
▁റദ	-9678
▁റപ	-9679
▁റൗ	-9680
▁ശശ	-9681
▁ഷജ	-9682
▁ഷട	-9683
▁ഷു	-9684
▁സഊ	-9685
▁സൊ	-9686
▁ഹഡ	-9687
▁ഹൽ	-9688
ange	-9689
oint	-9690
▁(18	-9691
▁(41	-9692
▁(44	-9693
▁(48	-9694
▁(49	-9695
▁(58	-9696
▁-23	-9697
▁1-2	-9698
▁	-9699
്	-9700
ി	-9701
ന	-9702
ക	-9703
ത	-9704
ു	-9705
ാ	-9706
ര	-9707
യ	-9708
ട	-9709
പ	-9710
ല	-9711
െ	-9712
മ	-9713
വ	-9714
ം	-9715
സ	-9716
‍	-9717
റ	-9718
ണ	-9719
ച	-9720
ള	-9721
.	-9722
ോ	-9723
േ	-9724
ങ	-9725
ദ	-9726
അ	-9727
ീ	-9728
എ	-9729
ഷ	-9730
ശ	-9731
ജ	-9732
ഗ	-9733
ഞ	-9734
ൂ	-9735
ർ	-9736
ധ	-9737
ഇ	-9738
ബ	-9739
ൽ	-9740
ആ	-9741
,	-9742
ഡ	-9743
ഹ	-9744
ഭ	-9745
ൊ	-9746
ഴ	-9747
ഥ	-9748
ഉ	-9749
ൻ	-9750
ൾ	-9751
ഒ	-9752
ഫ	-9753
0	-9754
ൈ	-9755
1	-9756
2	-9757
ഖ	-9758
ൃ	-9759
5	-9760
3	-9761
4	-9762
ഈ	-9763
ഏ	-9764
ഘ	-9765
-	-9766
9	-9767
ഓ	-9768
6	-9769
7	-9770
ൗ	-9771
8	-9772
:	-9773
)	-9774
(	-9775
ൺ	-9776
ഐ	-9777
'	-9778
;	-9779
?	-9780
ഠ	-9781
"	-9782
!	-9783
/	-9784
a	-9785
e	-9786
ഛ	-9787
i	-9788
n	-9789
o	-9790
ഔ	-9791
t	-9792
r	-9793
s	-9794
ഊ	-9795
ഢ	-9796
l	-9797
w	-9798
c	-9799
%	-9800
m	-9801
ൌ	-9802
d	-9803
ഃ	-9804
h	-9805
A	-9806
I	-9807
g	-9808
p	-9809
S	-9810
u	-9811
C	-9812
P	-9813
v	-9814
k	-9815
M	-9816
R	-9817
y	-9818
T	-9819
D	-9820
E	-9821
B	-9822
f	-9823
L	-9824
ഋ	-9825
b	-9826
N	-9827
F	-9828
O	-9829
V	-9830
W	-9831
K	-9832
&	-9833
G	-9834
·	-9835
#	-9836
U	-9837
H	-9838
*	-9839
ഝ	-9840
J	-9841
+	-9842
x	-9843
ൡ	-9844
@	-9845
=	-9846
]	-9847
[	-9848
∙	-9849
j	-9850
Y	-9851
X	-9852
•	-9853
_	-9854
൪	-9855
൯	-9856
️	-9857
z	-9858
q	-9859
$	-9860
ा	-9861
Q	-9862
Z	-9863
क	-9864
′	-9865
°	-9866
₹	-9867
र	-9868
े	-9869
‐	-9870
ि	-9871
्	-9872
൦	-9873
🔘	-9874
न	-9875
்	-9876
\	-9877
य	-9878
स	-9879
ब	-9880
व	-9881
⁄	-9882
❤	-9883
>	-9884
म	-9885
ൿ	-9886
⃣	-9887
▪	-9888
द	-9889
ह	-9890
ட	-9891
ഌ	-9892
👉	-9893
}	-9894
ग	-9895
♥	-9896
£	-9897
ډ	-9898
ं	-9899
ए	-9900
त	-9901
थ	-9902
प	-9903
ल	-9904
ी	-9905
❓	-9906
⬛	-9907
︎	-9908
🏻	-9909
🙏	-9910
{	-9911
ڇ	-9912
ڈ	-9913
अ	-9914
औ	-9915
ज	-9916
ट	-9917
ण	-9918
ध	-9919
भ	-9920
श	-9921
ष	-9922
ो	-9923
ौ	-9924
া	-9925
க	-9926
ப	-9927
ம	-9928
ய	-9929
ி	-9930
€	-9931
👌	-9932
👏	-9933
💎	-9934
💚	-9935
🔥	-9936
🔸	-9937
😍	-9938
😘	-9939
🚩	-9940
🤝	-9941
<	-9942
`	-9943
	-9944
¥	-9945
×	-9946
â	-9947
ñ	-9948
आ	-9949
इ	-9950
च	-9951
ठ	-9952
।	-9953
ং	-9954
ব	-9955
ল	-9956
அ	-9957
ஆ	-9958
ச	-9959
ண	-9960
த	-9961
ன	-9962
ல	-9963
வ	-9964
ீ	-9965
ு	-9966
ெ	-9967
ை	-9968
‟	-9969
◼	-9970
◾	-9971
♀	-9972
✌	-9973
✨	-9974
➡	-9975
ブ	-9976
ム	-9977
ラ	-9978
ル	-9979
ー	-9980
南	-9981
容	-9982
湘	-9983
美	-9984
	-9985
🎖	-9986
🐟	-9987
👇	-9988
🖤	-9989
🗃	-9990
😄	-9991
🙄	-9992
🤔	-9993
🤣	-9994
🤦	-9995
🥛	-9996
