<unk>	0
<s>	0
</s>	0
ന്	-0
ക്	-1
ത്	-2
്‍	-3
▁പ	-4
ന്ന	-5
▁ക	-6
ക്ക	-7
തി	-8
▁സ	-9
്ട	-10
▁വ	-11
ില	-12
▁മ	-13
ും	-14
▁ന	-15
▁അ	-16
ര്‍	-17
്ര	-18
ച്	-19
ുന്ന	-20
്യ	-21
്പ	-22
ായ	-23
ാണ	-24
ട്ട	-25
ിയ	-26
▁ത	-27
ത്തി	-28
ങ്	-29
▁എ	-30
രി	-31
റ്	-32
പ്പ	-33
ാണ്	-34
ത്ത	-35
സ്	-36
ച്ച	-37
▁യ	-38
▁ഇ	-39
ണ്ട	-40
ങ്ങ	-41
ല്‍	-42
▁ആ	-43
▁ച	-44
്ല	-45
ടെ	-46
ായി	-47
▁പ്ര	-48
ില്‍	-49
ന്‍	-50
ാന	-51
രു	-52
▁ര	-53
ിക്ക	-54
ുക	-55
റ്റ	-56
ള്‍	-57
▁വി	-58
ഞ്	-59
▁ബ	-60
ിച്ച	-61
ക്ക്	-62
ന്ന്	-63
▁ജ	-64
▁സ്	-65
്ള	-66
രുന്ന	-67
ള്ള	-68
ാര	-69
റെ	-70
ടു	-71
▁നി	-72
▁ഉ	-73
ുമ	-74
▁ല	-75
ക്ഷ	-76
ഞ്ഞ	-77
െയ	-78
െന്ന	-79
ിക	-80
ിൽ	-81
ുള്ള	-82
▁ഒ	-83
▁,	-84
▁എന്ന	-85
ന്റെ	-86
▁ശ	-87
ില്ല	-88
ുടെ	-89
രുന്നു	-90
▁ക്ക	-91
▁കോ	-92
വി	-93
ത്ര	-94
ദ്	-95
ങ്ങള	-96
ദേ	-97
▁മാ	-98
▁തി	-99
ുണ്ട	-100
▁സം	-101
▁.	-102
ടി	-103
ല്ല	-104
റി	-105
ാല	-106
രിക്ക	-107
▁പറ	-108
▁മു	-109
ാക്ക	-110
സി	-111
പ്പെ	-112
▁പി	-113
ാര്‍	-114
▁നട	-115
▁രാ	-116
▁നേ	-117
▁കേ	-118
▁ഗ	-119
▁പോ	-120
▁ി	-121
▁ചെയ	-122
ാന്‍	-123
▁കു	-124
▁കൊ	-125
ങ്ക	-126
്മ	-127
ന്ത്	-128
ണം	-129
ുന്നത്	-130
▁ദ	-131
ാവ	-132
െന്ന്	-133
▁1	-134
▁സി	-135
ിലെ	-136
ോഗ	-137
▁ഭ	-138
ത്ത്	-139
നി	-140
നെ	-141
ട്	-142
േഷ	-143
രെ	-144
ദേശ	-145
ച്ച്	-146
ിവ	-147
▁2	-148
െന്നും	-149
മ്മ	-150
ുവ	-151
▁ഡ	-152
▁സ്വ	-153
▁പു	-154
സ്ഥ	-155
ന്ത	-156
ങ്ങള്‍	-157
ുണ്ട്	-158
പി	-159
ണ്	-160
ന്ദ	-161
ത്തില്‍	-162
▁സാ	-163
െടു	-164
ത്തിയ	-165
ായിരുന്നു	-166
യും	-167
ത്തെ	-168
ംഗ	-169
▁ഒരു	-170
റ്റ്	-171
രാ	-172
ത്തില	-173
▁കൂ	-174
ണ്‍	-175
ാർ	-176
▁സമ	-177
ഡ്	-178
▁ബി	-179
്യമ	-180
ട്ടി	-181
▁അവ	-182
▁ഫ	-183
ട്ട്	-184
▁റ	-185
▁പറഞ്ഞ	-186
▁പേ	-187
യം	-188
▁ഹ	-189
▁തു	-190
്യാ	-191
▁പ്രതി	-192
രിച്ച	-193
▁ഈ	-194
ഗ്ര	-195
▁സ്ഥ	-196
▁കള	-197
തമ	-198
ാം	-199
രം	-200
റിയ	-201
▁ഏ	-202
പ്പോ	-203
ിക്കുന്ന	-204
ന്ധ	-205
യില്‍	-206
ാൻ	-207
ഴി	-208
ീക	-209
ിലും	-210
വാ	-211
മ്പ	-212
ാല്‍	-213
ദ്യ	-214
യാണ്	-215
ിച്ചു	-216
▁വീ	-217
വും	-218
▁ട	-219
▁ചെയ്	-220
▁അത	-221
ന്ദ്ര	-222
▁ഓ	-223
സ്ഥാന	-224
▁പരി	-225
ങ്ങൾ	-226
ന്ത്രി	-227
▁കാര	-228
ാക	-229
ുകള	-230
ശ്	-231
ണ്ട്	-232
▁വാ	-233
ര്‍ക്ക	-234
ിട്ട	-235
▁രാജ	-236
നം	-237
ക്ര	-238
▁തുട	-239
▁നേത	-240
▁തന്ന	-241
ദ്ധ	-242
ഴ്	-243
ലി	-244
▁വെ	-245
▁സു	-246
േക്ക്	-247
പ്പ്	-248
▁പ്രവ	-249
മായ	-250
ത്തിൽ	-251
തിയ	-252
ഡി	-253
മായി	-254
റ്റി	-255
▁യും	-256
▁പറഞ്ഞു	-257
ിരുന്നു	-258
യ്	-259
▁വ്യ	-260
▁വേ	-261
ദേഹ	-262
▁പറയ	-263
ത്തിന്	-264
ാത	-265
മാണ്	-266
ലീ	-267
ടിയ	-268
പ്പെട്ട	-269
▁ചെയ്യ	-270
തു	-271
മി	-272
ഷ്ട	-273
▁നിന്ന	-274
്യം	-275
ാഗ	-276
െങ്ക	-277
▁കെ	-278
ോടെ	-279
▁അന	-280
▁നിയ	-281
രണ	-282
ദ്ദേഹ	-283
▁ത്	-284
▁-	-285
ക്തമ	-286
ുകള്‍	-287
▁(	-288
ല്‍ക	-289
▁നില	-290
ഫ്	-291
ത്തിന്റെ	-292
▁തന്നെ	-293
▁സംസ്ഥാന	-294
▁നല്‍ക	-295
▁ജില്ല	-296
ത്യ	-297
▁യു	-298
രള	-299
ുന്നു	-300
▁ആര	-301
ധി	-302
രഞ്ഞ	-303
▁അതി	-304
മാന	-305
ൂര്‍	-306
▁അദ്ദേഹ	-307
ജി	-308
▁റി	-309
ജെ	-310
ുമായി	-311
ണി	-312
രുടെ	-313
ളി	-314
രഞ്ഞെടു	-315
സം	-316
▁തീ	-317
ാമ	-318
▁കോണ്‍	-319
▁3	-320
▁പൊ	-321
ർക്ക	-322
ോട്	-323
00	-324
പ്ര	-325
ണമ	-326
▁എം	-327
▁ക്	-328
▁നിന്ന്	-329
ഴിഞ്ഞ	-330
ന്ത്യ	-331
നാ	-332
ുപ	-333
ടുത്ത	-334
വ്	-335
▁കോണ്‍ഗ്ര	-336
▁ഷ	-337
പ്	-338
▁ശ്ര	-339
ിയുടെ	-340
ഞ്ച	-341
ത്സ	-342
▁കേരള	-343
▁സാധ	-344
▁ങ്ങള	-345
െന്നാണ്	-346
യി	-347
▁ഉണ്ട	-348
കള	-349
▁രൂ	-350
ോധ	-351
▁ഇന്ത്യ	-352
ോട്ട	-353
ീയ	-354
ികള	-355
▁ബിജെ	-356
▁ലഭ	-357
▁ആവ	-358
▁ഇത	-359
▁കാ	-360
▁ജോ	-361
▁സെ	-362
▁കഴിഞ്ഞ	-363
▁ഇതി	-364
▁ിട്ട	-365
▁പുറ	-366
യാ	-367
▁ജന	-368
▁അറിയ	-369
ണ്ണ	-370
യുടെ	-371
ര്‍ത്ത	-372
▁കേന്ദ്ര	-373
▁പ്പ	-374
▁ഞ	-375
▁മോ	-376
ക്കുന്ന	-377
സമ	-378
കു	-379
▁മുഖ	-380
▁20	-381
ന്ത്ര	-382
▁മേ	-383
▁മൂ	-384
ജ്	-385
▁അതേ	-386
▁നിയമ	-387
▁തെ	-388
ദി	-389
ിലേക്ക്	-390
രും	-391
▁രൂപ	-392
▁മാത്ര	-393
▁വര്‍	-394
ത്ഥ	-395
▁സീ	-396
▁നിര	-397
ിച്ചത്	-398
ധാന	-399
▁നാ	-400
▁4	-401
▁തിരഞ്ഞെടു	-402
▁5	-403
▁അധ	-404
പ്പി	-405
▁ആവശ	-406
ഷ്	-407
▁ബാ	-408
▁ദിവ	-409
▁പിന്ന	-410
▁കുറ	-411
ലിയ	-412
▁ഡി	-413
യിൽ	-414
▁സംഘ	-415
േണ്ട	-416
▁കണ്ട	-417
▁ഇട	-418
ുകയാണ്	-419
▁പെ	-420
▁എല്ല	-421
തിരെ	-422
വന	-423
്യാപ	-424
ാരി	-425
▁വിജ	-426
ഭവ	-427
സമയം	-428
▁വന്ന	-429
വിഡ്	-430
▁അദ്ദേഹം	-431
▁രോഗ	-432
▁ആശ	-433
▁വ്യക്തമ	-434
▁മുന്ന	-435
ാൽ	-436
▁അതേസമയം	-437
ാക്കി	-438
സ്റ്റ	-439
▁ലോ	-440
ാത്ത	-441
ീക്ഷ	-442
▁എന്നാല്‍	-443
▁സ്വദേശ	-444
ലീസ്	-445
▁ത്തി	-446
▁സര്‍ക്ക	-447
▁വൈ	-448
ത്തു	-449
ുമ്പ	-450
ത്വ	-451
ുകയും	-452
▁യാണ്	-453
ുകൾ	-454
പാ	-455
േക്ക	-456
▁നിര്‍	-457
ളം	-458
മാ	-459
▁മെ	-460
▁ന്	-461
ാക്കിയ	-462
നും	-463
▁ശേഷ	-464
▁ഐ	-465
▁കേസ	-466
▁രാജ്യ	-467
▁അഭ	-468
മു	-469
ികള്‍	-470
▁എന്ന്	-471
▁സ്ഥാന	-472
▁ലക്ഷ	-473
▁ഇവ	-474
നു	-475
▁മുഖ്യമ	-476
ിട്ടുണ്ട്	-477
ൊരു	-478
ന്റ്	-479
▁റിപ്പോ	-480
▁നീ	-481
▁ഉപ	-482
▁ചി	-483
കള്‍	-484
▁ചോ	-485
▁ഇത്	-486
▁വലിയ	-487
ന്റ	-488
▁ബന്ധ	-489
ഷ്ട്ര	-490
ാതെ	-491
▁കാണ	-492
▁പാര്‍	-493
▁എന്നിവ	-494
▁സഹ	-495
ര്യ	-496
രുമാന	-497
രിക്കുന്നത്	-498
മേ	-499
ഗ്	-500
▁ക്ക്	-501
പു	-502
▁മന്ത്രി	-503
▁പരാ	-504
ീകരിച്ച	-505
ൂർ	-506
ിലാണ്	-507
▁നടത്ത	-508
▁നൽ	-509
ോപ	-510
ങ്ങിയ	-511
പ്പെട	-512
▁നൽക	-513
സഭ	-514
▁ഏറ്റ	-515
ിയില്‍	-516
▁'	-517
▁യുടെ	-518
▁തിരു	-519
▁പരിശ	-520
ഷ്യ	-521
▁ബിജെപി	-522
▁ജീ	-523
ഴ്ച	-524
▁വർ	-525
ക്കി	-526
▁ചെയ്ത	-527
െങ്കിലും	-528
▁വില	-529
▁യാ	-530
തല്‍	-531
▁ഇപ്പോ	-532
▁നിന്നും	-533
▁കൊണ്ട	-534
ബ്	-535
▁ില്ല	-536
▁സംഭവ	-537
കാര	-538
▁മത്സ	-539
▁വര	-540
യിലെ	-541
▁ധ	-542
▁പോല	-543
▁കോണ്‍ഗ്രസ്	-544
▁സ്വദേശി	-545
വേഷ	-546
ോട	-547
ക്രമ	-548
പ്പെടു	-549
ിര	-550
▁ട്ര	-551
ത്തിലെ	-552
▁പാ	-553
▁6	-554
പ്പു	-555
▁നടത്തിയ	-556
▁കൂടു	-557
െയാണ്	-558
്യത	-559
▁കാല	-560
പക്ഷ	-561
▁അപ	-562
ഡിയ	-563
▁ത്ത	-564
സ്റ്റ്	-565
▁യ്	-566
ുകയ	-567
▁ചേ	-568
ടക്ക	-569
ക്ട	-570
▁സൂ	-571
▁ഉയ	-572
▁കാര്യ	-573
രണം	-574
▁അന്	-575
ലം	-576
▁കോട	-577
ൂടെ	-578
▁ഗ്ര	-579
ിക്കും	-580
▁വരെ	-581
▁പ്രധാന	-582
ഡിഎ	-583
ക്ഷേ	-584
▁ഭാഗ	-585
ാനുള്ള	-586
▁അത്	-587
▁ു	-588
▁സുര	-589
▁പര	-590
▁തീരുമാന	-591
ർത്ത	-592
▁7	-593
ഹി	-594
▁പങ്ക	-595
▁തോ	-596
▁ആവശ്യ	-597
▁കഴ	-598
▁അഭി	-599
▁ചെ	-600
▁എസ്	-601
ക്കെ	-602
ര്‍ന്ന	-603
ിച്ച്	-604
▁നേതാക്ക	-605
ിയെ	-606
ങ്ങളുടെ	-607
ണ്ഡ	-608
ംഗ്	-609
രിക്കുന്ന	-610
ാപ	-611
ബി	-612
ക്കാര	-613
▁ഇത്ത	-614
വിടെ	-615
ങ്ങളില്‍	-616
▁വേണ്ട	-617
ാവ്	-618
▁വിജയ	-619
▁സർക്ക	-620
▁പേര്‍	-621
▁നേര	-622
▁കൈ	-623
▁പരിശോധ	-624
▁കോൺ	-625
▁കി	-626
▁മുഖ്യമന്ത്രി	-627
▁രണ്ട്	-628
▁നടപ	-629
▁രണ്ട	-630
),	-631
▁പല	-632
എസ്	-633
ക്കും	-634
▁രാഷ്ട്ര	-635
▁ഇന്ന്	-636
▁നേതൃ	-637
▁പുതിയ	-638
▁കട	-639
▁ഡോ	-640
▁അന്വേഷ	-641
▁യോഗ	-642
ിക്കുന്നത്	-643
ര്‍ച്ച	-644
▁മല	-645
▁പോക	-646
▁പേര	-647
ോള്‍	-648
▁തൊ	-649
▁പാല	-650
▁യെ	-651
▁ത്തില	-652
യ്ക്ക്	-653
ുംബ	-654
▁ശേഷം	-655
ങ്ങളും	-656
വേ	-657
▁ശ്രമ	-658
ാനം	-659
▁എന്നാണ്	-660
ാണെന്ന്	-661
ന്തപു	-662
▁മറ്റ	-663
▁ചില	-664
▁നേതൃത്വ	-665
▁ആശുപ	-666
▁പോലീസ്	-667
ിയും	-668
▁കോൺഗ്ര	-669
▁നല്‍കിയ	-670
▁പറയുന്നു	-671
▁തിരുവന	-672
▁8	-673
ബന്ധ	-674
▁അധിക	-675
▁തിരുവനന്തപു	-676
▁മാറ്റ	-677
ിപ്പ	-678
▁നിർ	-679
യെ	-680
▁അവസ	-681
ോണ	-682
േയും	-683
എം	-684
▁9	-685
▁ജെ	-686
▁നടന്ന	-687
▁പാർ	-688
വണ	-689
ത്രി	-690
▁എല്ലാ	-691
▁സ്ഥിര	-692
▁സൗ	-693
▁റെ	-694
യോഗ	-695
▁ആണ്	-696
പ്പം	-697
ാനും	-698
▁ആദ്യ	-699
സാ	-700
േഖ	-701
▁ഒന്ന	-702
ോട്ട്	-703
▁ഉറ	-704
ൈന	-705
▁സാഹ	-706
▁വിവ	-707
▁സ്റ്റ	-708
▁പ്രവര്‍ത്ത	-709
▁ഏറ്റവും	-710
▁പ്രതിക	-711
▁വയ	-712
▁പ്രഖ	-713
▁അംഗ	-714
▁ക്കും	-715
്യൂ	-716
ഭാഗ	-717
ക്തി	-718
▁കമ്മ	-719
ടന	-720
ങ്ങി	-721
▁കണ്ണ	-722
▁വള	-723
ര്‍ശ	-724
▁മണ്ഡ	-725
കെ	-726
ഹു	-727
▁..	-728
ുമെന്ന്	-729
▁മി	-730
▁മന	-731
▁തിരിച്ച	-732
ക്കു	-733
▁ചെയ്തു	-734
▁മറ	-735
ഖല	-736
▁ആരോപ	-737
ാരണ	-738
▁സീറ്റ	-739
▁ബോ	-740
േറ്റ	-741
ികൾ	-742
▁സാഹച	-743
▁ടി	-744
ദ്യോഗ	-745
നായി	-746
▁ഗു	-747
യൂ	-748
▁വകു	-749
▁തൃ	-750
▁രംഗ	-751
ിക്കാന്‍	-752
ീസ്	-753
വര്‍	-754
▁ദു	-755
▁റിപ്പോര്‍	-756
▁ദിവസ	-757
▁;	-758
▁സര്‍ക്കാര്‍	-759
▁ഉത്ത	-760
രിക്കുകയാണ്	-761
▁ിരുന്നു	-762
▁നോ	-763
ീഷ	-764
ാര്‍ത്ഥ	-765
▁മേഖല	-766
ാസ്	-767
ടക	-768
ങ്ങനെ	-769
കൾ	-770
െയും	-771
▁തല	-772
െടുത്ത	-773
ാശ	-774
▁കുട	-775
▁കൊവിഡ്	-776
▁ശതമ	-777
▁ദിവസം	-778
ുകയായിരുന്നു	-779
ോഗ്യ	-780
ച്ചി	-781
▁പ്രഖ്യാപ	-782
▁ം	-783
ായിരുന്ന	-784
▁പദ്ധ	-785
▁സിപി	-786
ാണെന്നും	-787
ുള്ളത്	-788
▁കൂട്ട	-789
ന്തു	-790
▁കണ്ടെ	-791
സ്ത	-792
രിക്കും	-793
ക്കാ	-794
▁ചിത്ര	-795
▁രാഷ്ട്രീയ	-796
▁ആയ	-797
▁റോ	-798
▁പിട	-799
തൽ	-800
ഷം	-801
▁അറ	-802
▁വോട്ട	-803
ബു	-804
തിന്	-805
▁എന്നും	-806
▁വിവാ	-807
▁സാധ്യത	-808
ദ്ദേശ	-809
▁നേരത്തെ	-810
▁മണ	-811
▁കോവിഡ്	-812
▁201	-813
▁തിരുവനന്തപുരം	-814
▁ിക്ക	-815
▁യില്‍	-816
ച്ചു	-817
റു	-818
▁നിലവ	-819
ങ്ങളെ	-820
▁അനു	-821
ീസ	-822
▁രാഹു	-823
▁കോടതി	-824
േക്ഷ	-825
▁നേരി	-826
▁വീട്ട	-827
ളള	-828
▁എന്നാൽ	-829
▁ജില്ലാ	-830
തം	-831
ാരം	-832
▁സമ്പ	-833
ിന്	-834
▁കുമ	-835
ളെ	-836
▁ജയ	-837
ന്നു	-838
ൂര	-839
മുള്ള	-840
▁ശക്തമ	-841
▁്	-842
▁ചെയ്തി	-843
▁യില	-844
▁വിഭാഗ	-845
െതിരെ	-846
ഞ്ച്	-847
ുമായ	-848
▁വിഷ	-849
▁എന്ത	-850
ഷേ	-851
▁സമ്മ	-852
ാറ	-853
േന്ദ്ര	-854
▁പ്രസി	-855
പ്പിച്ച	-856
▁ുണ്ട	-857
ിന്റെ	-858
▁പ്രച	-859
ുകൊ	-860
▁ഓഫ	-861
െങ്കില്‍	-862
▁കുടുംബ	-863
▁ഗാ	-864
▁എത്തിയ	-865
▁ഖ	-866
ുമാണ്	-867
േഷ്	-868
താ	-869
താണ്	-870
തല	-871
▁യുവ	-872
▁വാക്	-873
▁നാല	-874
▁പ്രശ്	-875
▁താ	-876
▁10	-877
▁ബിജെപ	-878
േരി	-879
▁മുന്‍	-880
▁യാത്ര	-881
▁മീ	-882
▁കൂടി	-883
മന്ത്രി	-884
▁ആരോഗ്യ	-885
▁സ്ഥിരീകരിച്ച	-886
രുന്നത്	-887
▁മൊ	-888
▁സോ	-889
ലെ	-890
▁ഹൈ	-891
▁മണ്ഡല	-892
രിയ	-893
സിന്	-894
▁വിമ	-895
സ്സ	-896
▁പഞ്ച	-897
കര	-898
ര്‍ത്തി	-899
▁കൃ	-900
▁19	-901
▁പ്രത്യ	-902
ള്ളി	-903
▁ഇല്ല	-904
രിച്ച്	-905
▁ല്‍	-906
ീപ	-907
▁:	-908
▁കഴിയ	-909
▁ഭൂ	-910
രുത	-911
സിന്റെ	-912
വാസ	-913
വിധ	-914
ൊപ്പം	-915
▁ഒഴ	-916
▁പിന്തു	-917
▁ജി	-918
▁കൊണ്ട്	-919
▁മൂന്ന്	-920
▁പരാതി	-921
▁സ്ഥാപ	-922
യ്യാ	-923
▁ഇറ	-924
▁സെക്ര	-925
ല്ലാം	-926
നിടെ	-927
▁കൂടുതല്‍	-928
▁സെക്രട്ട	-929
▁ഉപയോഗ	-930
▁നിയമസഭ	-931
ിക്കുക	-932
▁"	-933
▁എന്‍	-934
▁തിരഞ്ഞെടുപ്പ	-935
ാഴ്ച	-936
▁ഫോ	-937
ഷേധ	-938
ാനി	-939
▁പ്രസിഡ	-940
▁ആള	-941
▁ഉള്ള	-942
▁ഉദ്യോഗ	-943
ിന	-944
▁ഘ	-945
▁തുടങ്ങിയ	-946
▁വിശ	-947
ര്‍ന്ന്	-948
ംബ	-949
▁ഭരണ	-950
▁സര്‍	-951
▁തൊഴ	-952
▁അടി	-953
ുമെന്നും	-954
▁നെ	-955
▁കണ	-956
തീക്ഷ	-957
▁രോഗം	-958
ൃത	-959
ധ്യമ	-960
ന്നും	-961
▁യൂ	-962
▁സിനി	-963
▁തയ്യാ	-964
▁ചോദ്യ	-965
ട്ടു	-966
ക്ത	-967
▁ചെയ്യുന്ന	-968
▁ഗാന്ധ	-969
ർച്ച	-970
▁താണ്	-971
▁ടെ	-972
▁പിന്നാല	-973
▁സാഹചര്യ	-974
▁പുറത്ത	-975
ങ്ങളിൽ	-976
▁തിരഞ്ഞെടുപ്പ്	-977
▁പോലും	-978
▁അറിയിച്ചു	-979
പ്പെടുത്ത	-980
▁തട	-981
ോൾ	-982
▁വ്യക്തമാക്കി	-983
ിച്ചിരുന്നു	-984
▁ബാധ	-985
നെതിരെ	-986
▁ആല	-987
ാർത്ഥ	-988
▁ഉള്‍	-989
▁പരിശോധന	-990
മെ	-991
ചന	-992
▁പ്രക	-993
▁വും	-994
▁ആയി	-995
▁കൊല്ല	-996
രംഭ	-997
്യക്ഷ	-998
▁മഹ	-999
▁ചിക	-1000
ടുക്ക	-1001
▁കോടി	-1002
ത്തിലാണ്	-1003
ാണി	-1004
ൂല	-1005
▁സർക്കാർ	-1006
▁പറയുന്നത്	-1007
ട്ടിയ	-1008
▁പദ്ധതി	-1009
ിലുള്ള	-1010
▁ഇവിടെ	-1011
ുകളും	-1012
ക്ഷി	-1013
ൂഹ	-1014
▁അട	-1015
പ്പെടുത്തിയ	-1016
െയ്	-1017
▁202	-1018
നിക്ക്	-1019
ൊക്കെ	-1020
▁പിന്തുണ	-1021
ാസ	-1022
▁നീക്ക	-1023
▁കോഴ	-1024
േക	-1025
▁ലി	-1026
▁സമയ	-1027
▁ആര്‍	-1028
▁കയ	-1029
ർശ	-1030
▁വിദ്യ	-1031
▁കോൺഗ്രസ്	-1032
ാനാണ്	-1033
ാകും	-1034
▁ുവ	-1035
നുള്ള	-1036
▁കോള	-1037
▁ലോക	-1038
േശ	-1039
▁കൂട	-1040
▁പ്രതിപക്ഷ	-1041
▁മാധ്യമ	-1042
ശ്ച	-1043
ണമെന്ന്	-1044
റിച്ച്	-1045
▁വരു	-1046
▁പാര്‍ട്ടി	-1047
ർന്ന	-1048
ദ്ദ	-1049
▁പൊലീസ്	-1050
▁ചികി	-1051
ഷക	-1052
തിര	-1053
▁എത്തി	-1054
▁സംബന്ധ	-1055
▁സ്ത്ര	-1056
▁തയ്യാറ	-1057
▁സാമ്പ	-1058
▁യുഡിഎ	-1059
▁ചികിത്സ	-1060
▁മുണ്ട	-1061
യുള്ള	-1062
▁നമ്മ	-1063
▁ചര്‍ച്ച	-1064
▁റിപ്പോർ	-1065
ിരിക്കുന്നത്	-1066
▁ദേശ	-1067
▁മുതല്‍	-1068
▁യായിരുന്നു	-1069
▁പ്രത്യേക	-1070
▁ഭാര	-1071
▁12	-1072
ഞ്ഞ്	-1073
ാള	-1074
▁അയ	-1075
▁ആക്രമ	-1076
ങ്ങള്‍ക്ക്	-1077
▁നിലപാ	-1078
▁പട്ട	-1079
▁ഇപ്പോള്‍	-1080
▁പ്രതീക്ഷ	-1081
▁കല	-1082
▁അവര്‍	-1083
▁വാര്‍	-1084
ശ്വ	-1085
▁11	-1086
▁വിമാന	-1087
▁പ്രദേശ	-1088
▁തുറ	-1089
▁ഇതുവ	-1090
▁കോഴിക്ക	-1091
▁കുട്ട	-1092
▁കുറ്റ	-1093
ാലി	-1094
▁ാണ്	-1095
▁അധ്യക്ഷ	-1096
▁ചോദ	-1097
▁മാണ്	-1098
000	-1099
▁ലീ	-1100
ഷ്ണ	-1101
▁കാരണം	-1102
▁എല്‍	-1103
പ്പെടെ	-1104
▁വേണ്ടി	-1105
▁ആരംഭ	-1106
▁പൂ	-1107
ന്തര	-1108
▁മറ്റ്	-1109
▁മണിക്ക	-1110
ിക്കുന്നു	-1111
▁പ്രതിഷേധ	-1112
▁മുമ്പ	-1113
േഷന്‍	-1114
▁പ്രവർത്ത	-1115
▁15	-1116
ൻ്	-1117
ുകളില്‍	-1118
ോഷ	-1119
▁വിള	-1120
▁വീണ്ട	-1121
▁ൽ	-1122
▁തേ	-1123
▁കര്‍	-1124
▁ആശുപത്ര	-1125
നിയ	-1126
▁മാത്രം	-1127
▁ഉദ്യോഗസ്ഥ	-1128
▁ചൂ	-1129
▁ബു	-1130
▁രീ	-1131
▁മുൻ	-1132
▁ജീവി	-1133
നായ	-1134
▁സൈ	-1135
▁മാന	-1136
▁പൂര്‍	-1137
ികളെ	-1138
ർത്തി	-1139
ന്യ	-1140
▁അവസാന	-1141
കാശ	-1142
▁ക്കു	-1143
▁ഇരു	-1144
▁പോയ	-1145
▁തന്റെ	-1146
ിതി	-1147
▁റ്റ	-1148
ികളുടെ	-1149
▁വ്യാപ	-1150
ാലും	-1151
▁നൽകിയ	-1152
ഗണ	-1153
ാവി	-1154
ായത്	-1155
സ്പ	-1156
▁യോ	-1157
▁യിൽ	-1158
▁ഉത്തര	-1159
ിട	-1160
▁മരണ	-1161
▁അടുത്ത	-1162
▁സിനിമ	-1163
ണറ	-1164
ിക്കാ	-1165
ിയിൽ	-1166
ഴും	-1167
▁ഒരാ	-1168
▁നഗ	-1169
ിലൂടെ	-1170
ന്‍റെ	-1171
▁എംഎ	-1172
▁ഇതോടെ	-1173
▁അടക്ക	-1174
▁നടക്ക	-1175
▁ും	-1176
▁ഒഴിവ	-1177
▁ശതമാനം	-1178
യായ	-1179
▁വഴി	-1180
▁കമ്പ	-1181
▁ിട്ടുണ്ട്	-1182
ഴു	-1183
▁റിപ്പോര്‍ട്ട്	-1184
ജീ	-1185
▁ജോലി	-1186
ാധ	-1187
▁കോഴിക്കോട്	-1188
▁പ്രധാനമന്ത്രി	-1189
▁സേ	-1190
ഡിയോ	-1191
▁രാശ	-1192
▁കോട്ട	-1193
▁പിന്നീ	-1194
▁അനുവ	-1195
▁ലഭിച്ച	-1196
▁ഗോ	-1197
▁മായി	-1198
ട്ര	-1199
▁വീണ്ടും	-1200
തായി	-1201
▁സമീപ	-1202
▁ന്യൂ	-1203
ർക്ക്	-1204
വധി	-1205
ുവി	-1206
▁ലക്ഷം	-1207
ഭാ	-1208
▁ഇതുവരെ	-1209
തോടെ	-1210
▁നേതാവ്	-1211
▁ഉന്ന	-1212
നാണ്	-1213
▁ഇക്കാര	-1214
▁രേഖ	-1215
▁മരിച്ച	-1216
▁നിന്നുള്ള	-1217
▁എത്ത	-1218
▁അപേക്ഷ	-1219
▁കള്‍	-1220
▁ലെ	-1221
▁വിദ	-1222
▁ദേശീയ	-1223
▁ദില്ല	-1224
▁വൈറ	-1225
രോ	-1226
കര്‍	-1227
ുമെന്ന	-1228
▁നിരീക്ഷ	-1229
ീം	-1230
▁ശ്രീ	-1231
▁തിന്	-1232
▁സെക്രട്ടറി	-1233
ന്നി	-1234
മാര	-1235
പ്പെട്ടു	-1236
▁മുസ്	-1237
▁ഇവര്‍	-1238
▁ക്ര	-1239
ണാ	-1240
▁നിരവധി	-1241
▁ഉട	-1242
▁കിട്ട	-1243
ദം	-1244
▁...	-1245
ട്ടം	-1246
▁വിവിധ	-1247
െടുക്ക	-1248
▁ിരുന്ന	-1249
▁സർ	-1250
▁വിവര	-1251
▁നാട്ട	-1252
▁വിഷയ	-1253
▁ഇത്തവണ	-1254
▁നല്ല	-1255
▁അല്ല	-1256
▁നഷ്ട	-1257
ോളം	-1258
▁ശ്രദ്ധ	-1259
ിക്കാൻ	-1260
▁ബ്ര	-1261
ീകരിക്ക	-1262
യ്ക്ക	-1263
▁യിലെ	-1264
ളുടെ	-1265
▁മിക	-1266
ണമെന്നും	-1267
▁യ്ക്ക്	-1268
▁സംസ്ഥാനത്ത്	-1269
▁തര	-1270
ന്തി	-1271
▁മെഡ	-1272
▁സംസാ	-1273
▁ഓഫീസ	-1274
▁നടപടി	-1275
▁സഖ	-1276
പ്പെട്ട്	-1277
ുമെന്നാണ്	-1278
▁വര്‍ഷ	-1279
പ്പെടുന്ന	-1280
െട	-1281
▁തും	-1282
ണമെന്ന	-1283
▁ഉൾ	-1284
▁വളരെ	-1285
▁ല്ല	-1286
▁വരുന്ന	-1287
ാരാ	-1288
▁എന്നി	-1289
▁ഞാന്‍	-1290
ക്കിയ	-1291
റും	-1292
▁വെള്ള	-1293
▁ഇനി	-1294
▁പിന്നാലെ	-1295
പര	-1296
▁വകുപ്പ്	-1297
▁ജില്ലയില്‍	-1298
▁പിന്നീട്	-1299
▁?	-1300
▁ലൈ	-1301
▁അനുവദ	-1302
▁ാ	-1303
ത്തിക	-1304
മുഖ	-1305
▁വാഹ	-1306
▁മാത്രമാണ്	-1307
ുകൊണ്ട്	-1308
▁ത്തിന്റെ	-1309
▁ഉറപ്പ	-1310
▁പഠ	-1311
▁ഇന്ന	-1312
ടം	-1313
▁പിണറ	-1314
▁ഹൈക്ക	-1315
▁പഞ്ചായ	-1316
▁വരും	-1317
▁സ്വന്ത	-1318
ുമ്പോള്‍	-1319
▁നില്‍	-1320
▁തക	-1321
▁മെഡിക്ക	-1322
▁പ്രവേശ	-1323
▁തെള	-1324
സില്‍	-1325
▁സര്‍ക്കാരി	-1326
▁മലയാ	-1327
▁മാര്‍	-1328
രുത്ത	-1329
▁അന്വേഷണ	-1330
▁ഇതിന്	-1331
▁താര	-1332
▁മാസ	-1333
▁മഴ	-1334
▁സ്ഥാപന	-1335
ായക	-1336
▁കേസ്	-1337
െങ്കിൽ	-1338
ോള	-1339
▁പൊതു	-1340
▁തുടര്‍ന്ന്	-1341
▁കമ്മി	-1342
പ്പെടുത്തി	-1343
രോധ	-1344
ായം	-1345
ിനെ	-1346
േജ	-1347
▁മോദി	-1348
▁വിക	-1349
ന്‍സ്	-1350
▁തൊഴില	-1351
വീ	-1352
ൻ്റെ	-1353
▁ഹി	-1354
▁മാര	-1355
▁ആശുപത്രി	-1356
▁മായ	-1357
ാവും	-1358
▁പതി	-1359
ാക്കുന്ന	-1360
രിക	-1361
▁14	-1362
▁ചൂണ്ട	-1363
പ്പുറ	-1364
▁24	-1365
മല്ല	-1366
▁ിട്ടില്ല	-1367
▁പിണറായി	-1368
്യമായ	-1369
▁വിദേശ	-1370
▁അവരുടെ	-1371
ിയിലെ	-1372
▁വൈക	-1373
േറ്റ്	-1374
കാരം	-1375
▁കൂടിയ	-1376
▁സാമ്പത്തിക	-1377
▁വിശദ	-1378
പ്പോള്‍	-1379
ത്തും	-1380
▁രാഹുല്‍	-1381
▁ചോദ്യം	-1382
▁ചെയ്തത്	-1383
▁പോലീ	-1384
ത്മ	-1385
ശ്യ	-1386
▁വ്യക്തി	-1387
ലും	-1388
▁മന്ത്ര	-1389
▁എല്ലാവ	-1390
ിയായ	-1391
▁സ്ഥല	-1392
▁ഇയാ	-1393
ധിക	-1394
▁വീഡിയോ	-1395
▁പാർട്ടി	-1396
▁സിപിഎം	-1397
▁സംഘടന	-1398
▁അടിസ്ഥാന	-1399
▁മൂന്ന	-1400
ാണ്ട	-1401
ദേശം	-1402
ഞ്ഞു	-1403
▁കര	-1404
▁എക്	-1405
▁കൊറ	-1406
േക്കും	-1407
▁പരിഹ	-1408
ര്‍ക്കും	-1409
റില്‍	-1410
▁വ്യാ	-1411
െല്ലാം	-1412
▁13	-1413
▁അമേ	-1414
▁പറഞ്ഞത്	-1415
കം	-1416
▁സന്ദ	-1417
▁പാര്‍ട്ട	-1418
▁ശക്തമായ	-1419
▁ലോക്	-1420
▁രക്ഷ	-1421
വർ	-1422
ക്ടര്‍	-1423
ഷി	-1424
ോദ	-1425
▁നയ	-1426
▁മികച്ച	-1427
▁കൊറോണ	-1428
▁തെരഞ്ഞെടു	-1429
യില	-1430
▁അപക	-1431
▁നാല്	-1432
ണ്ണം	-1433
▁സ്പ	-1434
▁ത്തിന്	-1435
ുമതി	-1436
നാട്	-1437
▁ചുമ	-1438
▁അഞ്ച്	-1439
▁തിന	-1440
കാര്യ	-1441
▁ുണ്ട്	-1442
സിന	-1443
▁മുതൽ	-1444
റിന്റെ	-1445
ജു	-1446
▁ഗാന്ധി	-1447
ട്ടുണ്ട്	-1448
▁പരിഗണ	-1449
▁പക	-1450
▁ജീവന	-1451
▁ആർ	-1452
പ്പുഴ	-1453
▁നടത്തി	-1454
▁മറുപ	-1455
▁നടപ്പ	-1456
ണാക	-1457
േസ്	-1458
രിൽ	-1459
▁18	-1460
▁പ്ല	-1461
▁ജില്ലകള	-1462
▁ദേ	-1463
▁ജാ	-1464
ക്ഷണ	-1465
▁പണം	-1466
ങ്ങന	-1467
▁കണക്ക	-1468
ഗ്രഹ	-1469
▁കൊല	-1470
▁തിര	-1471
യോ	-1472
▁വിവരം	-1473
▁ചെന്ന	-1474
▁വിവാഹ	-1475
▁പക്ഷേ	-1476
▁നഗര	-1477
▁പൂർ	-1478
▁കൾ	-1479
▁ബാല	-1480
▁ഷാ	-1481
▁തവണ	-1482
▁എന്റെ	-1483
▁പുറത്ത്	-1484
റാ	-1485
▁തന്നെയാണ്	-1486
തീ	-1487
▁ചൈന	-1488
▁ിരിക്ക	-1489
▁അമേരിക്ക	-1490
▁നേടിയ	-1491
▁രാവ	-1492
▁സമയം	-1493
▁തമ്മ	-1494
▁നടക്കുന്ന	-1495
▁ിരിക്കുകയാണ്	-1496
ക്കാട്	-1497
▁അമ്മ	-1498
ങ്ങൾക്ക്	-1499
▁)	-1500
ശ്വാസ	-1501
മാര്‍	-1502
നില്‍	-1503
▁ഞാൻ	-1504
വിട	-1505
▁25	-1506
▁പത്ത	-1507
വുമായി	-1508
▁ര്‍	-1509
▁ഗ്രൂ	-1510
ർന്ന്	-1511
▁ഇടപ	-1512
ക്ഷേപ	-1513
▁പരിപാ	-1514
▁ായിരുന്നു	-1515
▁തീരുമാനം	-1516
▁പ്രസിഡന്റ്	-1517
പ്പറ	-1518
▁ണ്ട	-1519
▁ട്	-1520
▁ത്തെ	-1521
ൊന്നും	-1522
ഷന്‍	-1523
▁ഓരോ	-1524
ീവ്	-1525
▁ിട്ടുണ്ട	-1526
▁ശിവ	-1527
▁ട്ട	-1528
▁നേതാക്കള്‍	-1529
▁സ്ഥാനാര്‍ത്ഥ	-1530
▁നടപട	-1531
▁സ്വദേശിനി	-1532
ുകളുടെ	-1533
▁സുപ്ര	-1534
▁ക്ല	-1535
േണ്ടി	-1536
ിച്ചിട്ടുണ്ട്	-1537
▁എറ	-1538
▁കൂടുതൽ	-1539
▁പട്ടിക	-1540
ത്തിലുള്ള	-1541
വില്‍	-1542
▁എൻ	-1543
▁ഹാ	-1544
▁നടത്തുന്ന	-1545
▁ആദ	-1546
യ്യ	-1547
▁ദില	-1548
ണാകു	-1549
▁ബെ	-1550
▁പ്രാ	-1551
ഹമ്മ	-1552
▁നിയന്ത്ര	-1553
▁എറണാകു	-1554
▁കീ	-1555
ുളള	-1556
▁തായി	-1557
▁സീറ്റ്	-1558
▁തൃശ	-1559
▁മീഡിയ	-1560
ശ്ശ	-1561
െയി	-1562
▁അഭിപ്ര	-1563
▁വിധ	-1564
▁കമ	-1565
▁പ്രവര്‍ത്തി	-1566
ുണ്ടായ	-1567
▁ജീവിത	-1568
ങ്ങളാണ്	-1569
▁കണ്ണൂര്‍	-1570
▁പേര്‍ക്ക്	-1571
▁യി	-1572
▁സോഷ്യ	-1573
▁സുരക്ഷ	-1574
▁സ്വര്‍	-1575
▁ക്കെതിരെ	-1576
▁ച്ച	-1577
▁വോട്ട്	-1578
സര്‍	-1579
▁നും	-1580
▁കളും	-1581
▁പ്രിയ	-1582
▁റിപ്പോർട്ട്	-1583
ത്തോടെ	-1584
▁മണിക്കൂ	-1585
▁നേരിട	-1586
തും	-1587
ധാക	-1588
▁പോലെ	-1589
വ്വ	-1590
▁മുഖ്യമന്ത്ര	-1591
രന്‍	-1592
െയുള്ള	-1593
▁പറയുന്ന	-1594
▁ക്കാന	-1595
▁എഫ്	-1596
▁ജില്ലയിലെ	-1597
ോടതി	-1598
▁താമ	-1599
▁16	-1600
▁നിയമസഭാ	-1601
▁പരീക്ഷ	-1602
▁ന്‍	-1603
▁അവകാശ	-1604
▁കരു	-1605
▁തോടെ	-1606
ബാ	-1607
▁അന്വേഷണം	-1608
▁ബന്ധപ്പെട്ട	-1609
▁!	-1610
രിപ്പ	-1611
▁ജനറ	-1612
▁ത്തില്‍	-1613
▁വിലയി	-1614
▁നര	-1615
▁േ	-1616
▁കർ	-1617
ഖ്	-1618
▁എംഎല്‍	-1619
ിട്ടില്ല	-1620
▁ആയിരുന്നു	-1621
▁ിരിക്കുന്നത്	-1622
▁ക്യാ	-1623
റോ	-1624
▁കണ്ടെത്തിയ	-1625
▁ജൂ	-1626
▁സൂചന	-1627
▁രാവിലെ	-1628
▁ന്റെ	-1629
്യമായി	-1630
▁ഏക	-1631
▁നേതൃത്വം	-1632
▁ചർച്ച	-1633
ത്തേക്ക്	-1634
▁എണ്ണം	-1635
▁17	-1636
തിയുടെ	-1637
▁പ്രതിരോധ	-1638
▁തെന്നും	-1639
▁മറ്റൊരു	-1640
ടങ്ങ	-1641
ുകളാണ്	-1642
▁എംഎല്‍എ	-1643
▁എന്നീ	-1644
▁വാഹന	-1645
ദ്ര	-1646
സിനെ	-1647
്യമാണ്	-1648
▁ഒറ്റ	-1649
▁ലാ	-1650
▁മണി	-1651
▁കണ്ടെത്ത	-1652
▁വഴ	-1653
▁അവിടെ	-1654
▁ദില്ലി	-1655
▁30	-1656
▁ഘട്ട	-1657
▁മില്ല	-1658
▁തെന്ന്	-1659
▁വാർ	-1660
▁ഇങ്ങനെ	-1661
ിരുന്ന	-1662
ഹൃ	-1663
▁പുര	-1664
▁ഫേസ്	-1665
കൂ	-1666
ുമോ	-1667
▁മുഴ	-1668
▁പശ്ച	-1669
▁ബിഗ്	-1670
▁പ്രവര്‍ത്തന	-1671
▁ദിലീ	-1672
ജന്‍	-1673
മായും	-1674
▁നിരീക്ഷണ	-1675
സന്ധ	-1676
സിസി	-1677
▁വിമര്‍ശ	-1678
▁എനിക്ക്	-1679
▁യാണ	-1680
▁വർഷ	-1681
ായ്	-1682
▁പീ	-1683
ികളും	-1684
യിലാണ്	-1685
▁സിംഗ്	-1686
▁ക്കുന്ന	-1687
▁ആലപ്പുഴ	-1688
ിയാണ്	-1689
വെ	-1690
▁കാര്യം	-1691
▁അല	-1692
▁കാര്‍	-1693
▁നല്‍കി	-1694
▁സംവി	-1695
▁യുള്ള	-1696
▁മുമ്പ്	-1697
▁സംവിധാന	-1698
സു	-1699
ഹ്	-1700
▁ഏറെ	-1701
▁യുഎ	-1702
▁സാമ	-1703
ത്തിലും	-1704
ജന	-1705
ാവന	-1706
▁വ്യക്തമാക്കിയ	-1707
▁എതി	-1708
േഷൻ	-1709
▁ആകെ	-1710
▁അതിന്	-1711
ുകൂല	-1712
▁ചെല	-1713
സ്റ്റി	-1714
▁രണ്ടാം	-1715
▁ഇപ്പോൾ	-1716
▁അവർ	-1717
തെന്നും	-1718
ൗര	-1719
▁വികസ	-1720
▁ഫേസ്ബു	-1721
ധ്യ	-1722
ീന	-1723
ായും	-1724
ാരാഷ്ട്ര	-1725
ാവസ്ഥ	-1726
▁റിയ	-1727
ങ്ക്	-1728
▁എത്ര	-1729
ഭ്യാ	-1730
▁വാര്‍ത്ത	-1731
സും	-1732
രിച്ചു	-1733
▁രജി	-1734
പ്പുറം	-1735
സില	-1736
▁താന്‍	-1737
▁നിലവില്‍	-1738
▁വര്‍ഷം	-1739
ുകളിൽ	-1740
തെന്ന്	-1741
▁വിവാദ	-1742
േയ	-1743
▁മാത്രമല്ല	-1744
▁മക	-1745
രുദ്ധ	-1746
▁അറസ്റ്റ്	-1747
േജ്	-1748
▁50	-1749
▁കോട്ടയം	-1750
തിക	-1751
മോ	-1752
ാവുന്ന	-1753
ിരിക്കുകയാണ്	-1754
▁0	-1755
▁പക്ഷ	-1756
▁ോ	-1757
▁മത	-1758
▁വീട	-1759
▁കമ്മീഷ	-1760
ിക്കുകയും	-1761
▁മത്സര	-1762
ളും	-1763
▁പരാജ	-1764
▁രംഗത്തെ	-1765
▁ബംഗ	-1766
യായി	-1767
▁തമി	-1768
▁ശതമാന	-1769
ുപോ	-1770
▁ഇത്തര	-1771
ബ്ദ	-1772
▁മറുപടി	-1773
▁അധികാര	-1774
▁ഇത്തരം	-1775
▁സുരേന്ദ്ര	-1776
▁ജീവ	-1777
▁എൽ	-1778
▁ആദ്യം	-1779
▁പ്രതിസന്ധ	-1780
ാള്‍	-1781
▁സർക്കാരി	-1782
തിയെ	-1783
▁മാസം	-1784
▁ആശങ്ക	-1785
▁സംഭവം	-1786
ബ്ര	-1787
▁കുറിച്ച്	-1788
്യാഭ്യാ	-1789
േള	-1790
▁ബൈ	-1791
▁വാങ്ങ	-1792
ില്ലെന്ന്	-1793
▁രീതി	-1794
▁ഡെ	-1795
ുകാര	-1796
ുവന്ന	-1797
▁യുഡിഎഫ്	-1798
▁(2	-1799
ുമ്പോൾ	-1800
കളും	-1801
തിയിൽ	-1802
▁പോയി	-1803
▁കേരളത്തില്‍	-1804
ഷണ	-1805
▁ഏത	-1806
▁ചു	-1807
▁പാലക്കാട്	-1808
▁ആണ	-1809
▁യുണ്ട	-1810
▁ക്ഷേ	-1811
രീ	-1812
▁ഉമ്മ	-1813
▁സന്ത	-1814
▁എറണാകുളം	-1815
ോമ	-1816
▁സംശ	-1817
▁പോരാ	-1818
ഹമ്മദ്	-1819
▁നരേന്ദ്ര	-1820
▁ഇന്ത്യന്‍	-1821
▁കൊച്ചി	-1822
▁ടീ	-1823
▁സ്ത്രീക	-1824
െട്ട	-1825
▁കാരണ	-1826
▁മനു	-1827
▁യായി	-1828
്ട്ര	-1829
നാഥ	-1830
▁അക	-1831
▁ക്കാര	-1832
▁കാര്യങ്ങള്‍	-1833
▁സമൂഹ	-1834
ഫി	-1835
▁സംബന്ധിച്ച്	-1836
▁രംഗത്ത്	-1837
▁രാജ്യത്ത്	-1838
▁റിപ്പോര്‍ട്ട	-1839
▁ശി	-1840
▁ന്ന	-1841
▁എടുത്ത	-1842
ബര്‍	-1843
▁ഫി	-1844
▁ൻ	-1845
▁കളുടെ	-1846
▁പുന	-1847
▁ഭാഗമായി	-1848
വല	-1849
പ്പള്ളി	-1850
▁ഡ്ര	-1851
▁വെച്ച	-1852
▁െന്ന്	-1853
▁22	-1854
▁കൗ	-1855
▁നവ	-1856
നോ	-1857
▁ഉണ്ടാക	-1858
▁തോമ	-1859
▁ഇതില്‍	-1860
▁തമിഴ്	-1861
ധികം	-1862
▁ഭാര്യ	-1863
▁പേരാണ്	-1864
▁പേർ	-1865
▁ആത്മ	-1866
▁ഭൂരി	-1867
ക്കാന്‍	-1868
▁കൊല്ലം	-1869
▁ചെയ്യാ	-1870
▁നിലപാട്	-1871
▁രു	-1872
ത്രം	-1873
രാണ്	-1874
▁പുതു	-1875
▁വ്യക്തമാക്ക	-1876
▁പ്പോ	-1877
ത്തിലേക്ക്	-1878
▁നേട്ട	-1879
▁കേസില്‍	-1880
▁വിലയിരുത്ത	-1881
ഥി	-1882
▁അന്ന്	-1883
ങ്ങളിലും	-1884
ിച്ചേ	-1885
▁െന്നും	-1886
▁ർ	-1887
ന്റി	-1888
▁ദി	-1889
▁മനസ്സ	-1890
▁ശക്തി	-1891
▁ലഭിക്ക	-1892
▁21	-1893
▁ആഗ്രഹ	-1894
പ്പാ	-1895
▁വിത	-1896
▁സ്വകാര്യ	-1897
▁പറഞ്ഞിരുന്നു	-1898
▁സുപ്രീം	-1899
പ്രദേശ	-1900
▁സാധിക്ക	-1901
ിത	-1902
▁പങ്കെടു	-1903
▁മെഡിക്കല്‍	-1904
▁വിട്ട	-1905
..	-1906
▁മോഹ	-1907
▁ഫെ	-1908
▁മാറ്റി	-1909
▁സമര	-1910
▁സംഘം	-1911
▁വിദ്യാഭ്യാ	-1912
▁ഷോ	-1913
▁നീക്കം	-1914
ക്കാല	-1915
▁ത്തിൽ	-1916
▁യുമായി	-1917
▁പ്രകാരം	-1918
▁ള	-1919
▁മാർ	-1920
െത്തിയ	-1921
ലാ	-1922
▁എണ്ണ	-1923
▁ചെയ്തിരുന്നു	-1924
▁കൃത്യ	-1925
▁അന്ത	-1926
▁ഔ	-1927
ക്കം	-1928
▁അഞ്ച	-1929
▁ങ്ങള്‍	-1930
▁വനി	-1931
▁ഇന്‍	-1932
▁പത്തനം	-1933
▁പൊലീ	-1934
▁സുധാക	-1935
ണാടക	-1936
ദ്ധി	-1937
തിട്ട	-1938
▁തദ്ദേശ	-1939
▁ഉയര്‍ന്ന	-1940
ക്കാര്‍	-1941
പ്പെട്ടി	-1942
▁സമയത്ത്	-1943
▁പത്തനംതിട്ട	-1944
▁മലയാള	-1945
▁ബന്ധപ്പെട്ട്	-1946
▁കൂടാതെ	-1947
യിലേക്ക്	-1948
▁പരാജയ	-1949
▁കുറഞ്ഞ	-1950
▁മുഴുവ	-1951
▁നമ്മുടെ	-1952
േദ	-1953
▁കേരളത്തിലെ	-1954
▁ധന	-1955
▁200	-1956
▁പ്രവർത്തി	-1957
▁പങ്കുവ	-1958
▁മാണ	-1959
▁ജോര്‍	-1960
▁23	-1961
▁സ്വീകരിച്ച	-1962
▁ഉന്നയ	-1963
▁അഭിപ്രായ	-1964
േന	-1965
▁പദ	-1966
▁െന്ന	-1967
പ്പിന്	-1968
▁നിയന്ത്രണ	-1969
▁ഗ്രാമ	-1970
▁നിറ	-1971
▁റഷ്യ	-1972
▁അതുകൊണ്ട്	-1973
ക്കുന്നത്	-1974
ില്ലെന്നും	-1975
▁അദ്ദേഹത്തിന്റെ	-1976
ന്ദു	-1977
▁അധികൃത	-1978
▁ആരോപണ	-1979
വം	-1980
ധിപ	-1981
▁/	-1982
▁അടു	-1983
▁പറ്റ	-1984
ലു	-1985
▁ആവശ്യം	-1986
▁ജോസ	-1987
എഫ്	-1988
കളെ	-1989
▁ഫലം	-1990
▁വിട	-1991
▁ഇക്കാര്യം	-1992
ജ്ഞ	-1993
▁കന	-1994
▁മനുഷ്യ	-1995
▁സുരേഷ്	-1996
പാത	-1997
▁പുറത്തു	-1998
യര്‍	-1999
▁സ്വന്തം	-2000
▁അമി	-2001
▁മാറ	-2002
▁വസ്	-2003
▁ചൂണ്ടിക്കാ	-2004
▁തെളിവ	-2005
▁പ്രവര്‍ത്തക	-2006
▁ദൃ	-2007
▁അപകട	-2008
▁പ്രസ	-2009
▁ഡയ	-2010
▁കര്‍ഷക	-2011
ടേയും	-2012
▁സത്യ	-2013
▁േക്ക	-2014
▁ആഭ	-2015
▁40	-2016
▁ഹെ	-2017
▁ഭീഷ	-2018
▁ഇത്ര	-2019
ട്ടെ	-2020
▁കരുത	-2021
▁താമസ	-2022
▁ഇര	-2023
ീല	-2024
▁ക്കാ	-2025
▁ചെയ്ത്	-2026
സിൽ	-2027
▁നിൽ	-2028
▁കൂട്ടിച്ചേ	-2029
▁സഖ്യ	-2030
▁സ്വപ്	-2031
▁അനുമതി	-2032
ീകരണ	-2033
▁കടുത്ത	-2034
▁സാധാരണ	-2035
▁നായ	-2036
▁വ്യവ	-2037
▁ശു	-2038
ത്തിറ	-2039
▁ഇടപെട	-2040
ണു	-2041
▁ഫ്ര	-2042
▁തിന്റെ	-2043
▁സ്ഥാനാർത്ഥ	-2044
▁സമ്പർക്ക	-2045
ാളി	-2046
▁പൈ	-2047
▁ദുര	-2048
▁വിശ്വ	-2049
▁ചരി	-2050
കളുടെ	-2051
▁മാത്രമേ	-2052
▁നമ്പ	-2053
▁അഖ	-2054
▁വന്‍	-2055
▁അനുകൂല	-2056
▁പ്രവർത്തക	-2057
ച്ചത്	-2058
▁ചെയ്യുന്നത്	-2059
ുകൊണ്ട	-2060
▁ാല്‍	-2061
പരി	-2062
▁സംര	-2063
ർക്കും	-2064
▁ചുമതല	-2065
ിലായി	-2066
റിഞ്ഞ	-2067
▁വികസന	-2068
▁താഴ	-2069
ിക്കണം	-2070
▁വെച്ച്	-2071
ര്‍മ	-2072
സോ	-2073
ാണിത്	-2074
ാറ്റ	-2075
▁ഓഫ്	-2076
▁പണ	-2077
എമ്മ	-2078
▁ആറ്	-2079
ണ്‍കു	-2080
▁അനുഭവ	-2081
നോട്	-2082
▁പ്രൊ	-2083
▁കുഞ്ഞ	-2084
▁തനിക്ക്	-2085
▁ഹൈക്കോടതി	-2086
▁നേട	-2087
ടുവ	-2088
പ്പെട്ടത്	-2089
കുമ	-2090
▁ബ്ല	-2091
▁ങ്ങളും	-2092
ിക്കറ്റ്	-2093
▁എന്നത്	-2094
▁സ്ത്രീ	-2095
ച്ഛ	-2096
ടനം	-2097
▁കസ്റ്റ	-2098
▁പേരും	-2099
▁പ്രതികരണം	-2100
▁യിലും	-2101
▁രാജ്യത്തെ	-2102
▁എഴു	-2103
ഴ്ച്ച	-2104
▁ഉണ്ട്	-2105
ളു	-2106
റിന്	-2107
▁കീഴ	-2108
▁മുന്നറിയ	-2109
▁മലപ്പുറം	-2110
▁രാശിക്ക	-2111
▁ആന	-2112
ൃഷ്ട	-2113
▁മുംബ	-2114
▁സുഹൃ	-2115
▁അടക്കം	-2116
രുക	-2117
▁ഫല	-2118
▁സഹായി	-2119
▁യ്ക്ക	-2120
▁യുഎഇ	-2121
▁യുഡിഎഫ	-2122
പ്പില്‍	-2123
പ്പിന്റെ	-2124
▁ഉണ്ടായ	-2125
▁ലഭിക്കും	-2126
▁വിമർശ	-2127
യിലും	-2128
ിപ്പ്	-2129
▁െങ്കിലും	-2130
▁(3	-2131
ജീവ	-2132
▁സാഹചര്യത്തില്‍	-2133
▁മാക	-2134
▁കളില്‍	-2135
▁നല്‍കുന്ന	-2136
▁ചൊ	-2137
▁മുംബൈ	-2138
▁കൈമാ	-2139
▁തോന്ന	-2140
▁കമ്മിറ്റി	-2141
▁മുസ്ലി	-2142
സർ	-2143
▁വെളി	-2144
▁രണ്ടു	-2145
▁കേരളം	-2146
▁സാമൂഹ	-2147
ര്യം	-2148
▁സോഷ്യല്‍	-2149
▁വിഭാഗം	-2150
▁പേര്	-2151
▁ചന്ദ്ര	-2152
▁വിജയം	-2153
ടുക്കി	-2154
▁ആരാ	-2155
▁വേഗ	-2156
ുവരി	-2157
മാർ	-2158
▁കുറി	-2159
▁ക്രി	-2160
▁തുടർന്ന്	-2161
▁നിര്‍ദേശ	-2162
▁രാമ	-2163
▁കോടിയ	-2164
▁എല്‍ഡിഎ	-2165
▁ആശുപത്രിയില്‍	-2166
ീര്‍	-2167
▁തിനെ	-2168
▁സഹോദ	-2169
▁അര്‍	-2170
▁പ്രഖ്യാപിച്ച	-2171
ോഭ	-2172
▁മുഹമ്മദ്	-2173
▁ചെറിയ	-2174
▁കുമാര്‍	-2175
▁പോകുന്ന	-2176
▁സാധ്യതയ	-2177
▁മുന്നോട്ട്	-2178
▁നേതാവ	-2179
▁സര്‍വ	-2180
ശി	-2181
▁പരാമ	-2182
രിക്കാന്‍	-2183
▁അങ്ങനെ	-2184
യു	-2185
▁ചേര്‍ന്ന	-2186
▁ഉള്‍പ്പെടെ	-2187
▁മല്ല	-2188
▁റൂ	-2189
റിൽ	-2190
മുണ്ട	-2191
▁രൂക്ഷ	-2192
ങ്ങളിലെ	-2193
▁രാത്രി	-2194
നിര	-2195
ക്ടർ	-2196
▁ക്കെ	-2197
▁ഭൂരിപക്ഷ	-2198
▁സമാ	-2199
▁28	-2200
▁അമ	-2201
,000	-2202
▁ഇടതു	-2203
▁വിദ്യാഭ്യാസ	-2204
▁എംപി	-2205
▁മുതി	-2206
പ്പിക്കുന്ന	-2207
▁26	-2208
▁ഇൻ	-2209
▁സംസ്ഥാനത്തെ	-2210
കാല	-2211
▁ബോധ	-2212
▁സമിതി	-2213
തമായ	-2214
േറെ	-2215
▁ാണ	-2216
▁പുല	-2217
▁ക്ഷ	-2218
▁ജാമ	-2219
▁ആക	-2220
തില്‍	-2221
▁മാറി	-2222
▁പ്രസ്ത	-2223
▁പശ്ചാത്ത	-2224
ായിരിക്കും	-2225
▁27	-2226
▁സ്വീകരിക്ക	-2227
സ്ര	-2228
ആര്‍	-2229
▁കില	-2230
▁നാണ്	-2231
കളില്‍	-2232
ാക്കാന്‍	-2233
ഗോ	-2234
ക്കോ	-2235
▁ഇക്കാര്യ	-2236
▁ബിജെപിയുടെ	-2237
▁തെറ്റ	-2238
▁പ്രോ	-2239
പ്പോൾ	-2240
▁അഭിന	-2241
തിരായ	-2242
തൃ	-2243
▁ഇന്നലെ	-2244
▁നടത്തിയത്	-2245
▁അടിയ	-2246
ത്തല	-2247
▁ങ്ങ	-2248
▁െ	-2249
▁എടു	-2250
ലില്‍	-2251
▁പിടിച്ച	-2252
▁ഭാ	-2253
നിക്ക	-2254
▁പോസ്റ്റ	-2255
▁കാർ	-2256
▁ഒരിക്ക	-2257
▁സംബന്ധിച്ച	-2258
▁സൃഷ്ട	-2259
▁പെരു	-2260
ബ്ല	-2261
പ്റ്റ	-2262
▁ങ്ങൾ	-2263
▁ഉൾപ്പെടെ	-2264
▁വൈറസ്	-2265
▁ലീഗ്	-2266
▁മായിരുന്നു	-2267
▁പ്രശ്ന	-2268
▁കുറിച്ച	-2269
▁(1	-2270
▁ഹാജ	-2271
ൂരില്‍	-2272
▁കോര്‍	-2273
▁തൊഴിലാള	-2274
▁മൃത	-2275
▁കെട്ടി	-2276
▁അത്ത	-2277
ാകുന്ന	-2278
▁വിരുദ്ധ	-2279
▁എടുക്ക	-2280
▁എല്ലാം	-2281
▁ദിന	-2282
▁ഒന്നും	-2283
▁സിപിഎമ്മ	-2284
▁മധ്യ	-2285
▁വാർത്ത	-2286
▁യെന്ന	-2287
▁മറ്റു	-2288
▁പൗര	-2289
ചി	-2290
പ്രവ	-2291
▁ആരോപണം	-2292
▁സമ്മേള	-2293
▁വീട്ടില്‍	-2294
▁മൂല	-2295
▁യിലേക്ക്	-2296
▁ഇടുക്കി	-2297
▁ചെയ്യും	-2298
▁സഭ	-2299
പ്പെടുന്നത്	-2300
ിലി	-2301
▁സഹക	-2302
ികള്‍ക്ക്	-2303
▁സമ്പര്‍ക്ക	-2304
ദാ	-2305
ശം	-2306
▁പിടി	-2307
ധന	-2308
▁നൂ	-2309
▁ക്വാ	-2310
▁വന്നു	-2311
ിക്കേണ്ട	-2312
▁ണ	-2313
▁കിട	-2314
മായിരുന്നു	-2315
▁പശ്ചാത്തല	-2316
▁യോഗം	-2317
▁പ്രസ്താവന	-2318
▁സോണ	-2319
▁ലും	-2320
▁ബീ	-2321
രുത്	-2322
▁മാറിയ	-2323
▁ആവശ്യപ്പെട്ടു	-2324
സ്പി	-2325
ോടും	-2326
▁പുരു	-2327
▁തില്‍	-2328
▁ഉണ്ടായി	-2329
▁നടി	-2330
ുക്ക	-2331
ോട്ടോ	-2332
▁തൃശൂര്‍	-2333
▁എന്നതാണ്	-2334
േഴ്	-2335
▁മൃതദേഹ	-2336
▁എന്നായിരുന്നു	-2337
ഷൻ	-2338
മെന്റ്	-2339
▁ബോസ്	-2340
▁പ്രവർത്തന	-2341
▁ട്രം	-2342
ൃഷ്ണ	-2343
ക്കൂ	-2344
ൈന്‍	-2345
ുമില്ല	-2346
▁ക്കായി	-2347
▁തുടര്‍ന്ന	-2348
ക്യൂ	-2349
▁പ്രിയങ്ക	-2350
▁ഹര്‍	-2351
▁താല്‍	-2352
▁കേന്ദ്രം	-2353
▁പുറത്തിറ	-2354
▁എന്നെ	-2355
▁സ്വര്‍ണ	-2356
വൈ	-2357
▁എന്ത്	-2358
▁മുരള	-2359
▁പഞ്ചാ	-2360
▁സൗദി	-2361
ോടൊപ്പം	-2362
▁ഇന	-2363
▁കിട്ടിയ	-2364
▁സഹായ	-2365
▁ചെന്നി	-2366
▁ഇന്ത്യൻ	-2367
രായ	-2368
▁പെണ്‍കു	-2369
▁വിപ	-2370
▁നിലപാട	-2371
▁ചെന്നിത്തല	-2372
▁ഹോ	-2373
▁അര	-2374
നാൽ	-2375
ാണ്ടി	-2376
വാദി	-2377
്മി	-2378
റ്റര്‍	-2379
▁സിന്‍	-2380
▁എന്നിവിട	-2381
▁പഴ	-2382
ക്കട	-2383
▁വരിക	-2384
വ്ര	-2385
▁സൈന	-2386
▁സ്ഥിതി	-2387
▁ആഘ	-2388
ിയിലേക്ക്	-2389
ധിച്ച്	-2390
കുതി	-2391
▁ഭക്ഷ	-2392
▁മുന്നില്‍	-2393
▁സ്വീക	-2394
▁വ്യത്യ	-2395
സ്റ്റര്‍	-2396
▁പെട്ട	-2397
▁നു	-2398
▁ഇസ്ര	-2399
▁പ്രായ	-2400
▁നടപടിയ	-2401
▁ഭീഷണി	-2402
▁സ്വർ	-2403
▁ജനറല്‍	-2404
▁ചീ	-2405
▁വേദ	-2406
▁കൊടുത്ത	-2407
ഷിക	-2408
▁നിര്‍മ	-2409
▁നിക്ഷേപ	-2410
▁പ്രചാരണ	-2411
▁ഊ	-2412
▁അവത	-2413
▁തിരി	-2414
▁ഉണ്ടായിരുന്ന	-2415
വരുടെ	-2416
▁അക്രമ	-2417
ലിന്റെ	-2418
▁തുടങ്ങി	-2419
▁1,	-2420
▁കോളേജ	-2421
▁സ്വാധ	-2422
▁പാർട്ട	-2423
▁പരിച	-2424
▁നിങ്ങളുടെ	-2425
▁വൃ	-2426
▁ഇതിന്റെ	-2427
▁പൂര്‍ത്തിയ	-2428
▁കമ്പന	-2429
ത്തോളം	-2430
്യന്തര	-2431
▁മുസ്ലീ	-2432
▁അമിത്	-2433
▁വയനാട്	-2434
▁സ്ഥാനാര്‍ത്ഥി	-2435
ജ്ജ	-2436
ാക്	-2437
ധിപത്യ	-2438
▁കൊണ്ടുവ	-2439
ലിന്	-2440
▁മുസ്ലിം	-2441
▁പഞ്ചായത്ത്	-2442
ശ്ര	-2443
സ്ട്ര	-2444
▁സംശയ	-2445
▁മന്ത്രാല	-2446
ണ്ണി	-2447
ത്തം	-2448
▁സമ്പർക്കം	-2449
▁യോഗ്യത	-2450
▁നമു	-2451
▁ക്കുള്ള	-2452
▁സൈനിക	-2453
▁വിളി	-2454
▁കൊലപാത	-2455
മത	-2456
▁(4	-2457
▁31	-2458
▁ഡയറ	-2459
▁ുള്ള	-2460
സ്യ	-2461
▁തടയ	-2462
ിയായി	-2463
▁ആഭ്യന്തര	-2464
ുകളെ	-2465
▁സെന്റ	-2466
ബർ	-2467
▁തള്ള	-2468
▁അറസ്റ്റ	-2469
▁ഗുരുത	-2470
▁ദൃശ്യ	-2471
േക്കുള്ള	-2472
▁പ്പോള്‍	-2473
ിട്ട്	-2474
▁സൂര്യ	-2475
▁പേരെ	-2476
▁വുമായി	-2477
▁കളാണ്	-2478
▁കൊടുക്ക	-2479
▁കാലാവസ്ഥ	-2480
ിക്കപ്പെട്ട	-2481
▁വകുപ്പ	-2482
▁അതിന്റെ	-2483
▁കാലത്ത്	-2484
രമ	-2485
▁വന്നത്	-2486
▁‍	-2487
▁ദേവ	-2488
▁ബാബു	-2489
▁വർഷം	-2490
▁ആക്രമണ	-2491
▁35	-2492
▁ഇതേ	-2493
▁ക്രമ	-2494
മെന്ന്	-2495
▁ിന	-2496
▁വിച	-2497
▁പറഞ്ഞ്	-2498
ശാ	-2499
ാവധി	-2500
▁ജനാ	-2501
▁ശേഷമാണ്	-2502
ജൻ	-2503
▁ഉള്ളത്	-2504
▁ചെയ്യാന്‍	-2505
തന്ത്ര	-2506
ാട്	-2507
ഴാണ്	-2508
▁തോമസ്	-2509
▁പിന്‍	-2510
▁നേതാക്കള	-2511
ാദ	-2512
▁വിദ്യാര്‍ത്ഥ	-2513
▁കൂടെ	-2514
▁നടന്നത്	-2515
▁നേതാക്കൾ	-2516
മ്പ്	-2517
▁കഴിയുന്ന	-2518
ീഷ്	-2519
▁നിർദ്ദേശ	-2520
രത്ത്	-2521
▁താരം	-2522
▁വെല്ല	-2523
ംസ്	-2524
ല്ലോ	-2525
ശ്വാ	-2526
▁സ്ഥിരീകരിച്ചത്	-2527
▁ദുബ	-2528
▁ചിത്രം	-2529
▁പോവ	-2530
ല്‍ഹി	-2531
ഘാ	-2532
യോടെ	-2533
▁വാക്സി	-2534
▁വ്യാജ	-2535
യർ	-2536
ുത	-2537
▁റാ	-2538
ോട്ടി	-2539
▁പാട	-2540
▁യില്ല	-2541
▁ത്തിനും	-2542
▁നില്‍ക്ക	-2543
▁സംസാരിക്ക	-2544
▁ബുദ്ധി	-2545
ിക്കാനുള്ള	-2546
സഭാ	-2547
▁നിര്‍മ്മ	-2548
▁അവരെ	-2549
▁ഉച്ച	-2550
▁സന്ദര്‍ശ	-2551
▁ശമ്പ	-2552
▁ഇവരുടെ	-2553
▁നിരക്ക്	-2554
▁സജീവ	-2555
▁അക്ക	-2556
▁ലഭിച്ചത്	-2557
▁വിദ്യാർത്ഥ	-2558
▁പ്പെട	-2559
▁മനസ്സില	-2560
▁29	-2561
▁ഇരുവ	-2562
▁കള്ള	-2563
▁പട	-2564
ന്ദി	-2565
▁മോദ	-2566
ത്തിയത്	-2567
▁മഹാരാഷ്ട്ര	-2568
ീവ	-2569
ാതി	-2570
▁അവസ്ഥ	-2571
▁സമര്‍	-2572
ഭാവ	-2573
്രാ	-2574
▁ഉദ്	-2575
▁സഞ്ച	-2576
▁ഇപ്പോഴും	-2577
▁ഗുരുതര	-2578
േഷന	-2579
ൗണ്ട	-2580
▁ഡോള	-2581
▁ക്കാന്‍	-2582
ത്തേ	-2583
ുമുള്ള	-2584
▁കേരളത്തിൽ	-2585
പോ	-2586
ധിത	-2587
▁കളിൽ	-2588
▁തീവ്ര	-2589
▁മട	-2590
▁ചരിത്ര	-2591
▁കൊടു	-2592
▁ചടങ്ങ	-2593
▁കൊണ്ടാണ്	-2594
▁ഷി	-2595
▁ഇന്റ	-2596
▁നിന്നാണ്	-2597
▁സര്‍ക്കാരിന്റെ	-2598
▁തുക	-2599
▁60	-2600
മല	-2601
ൻസ്	-2602
▁ഡ്രൈ	-2603
▁കൃഷ്ണ	-2604
▁ജാഗ്ര	-2605
ദ്യോഗിക	-2606
▁മത്സരിക്ക	-2607
▁നോട്ട	-2608
▁വാക്ക	-2609
രിച്ചത്	-2610
▁സംഘടി	-2611
▁ഭയ	-2612
▁ദുരന്ത	-2613
▁യെന്ന്	-2614
ശ്ശേരി	-2615
▁അടക്കമുള്ള	-2616
▁കോണ്‍ഗ്രസിന്	-2617
കല	-2618
ീധ	-2619
▁ഇവരെ	-2620
▁ജോസ്	-2621
▁വരുമാന	-2622
▁കളെ	-2623
▁സ്വയം	-2624
▁ആഗ	-2625
▁റിപ്പോർട്ട	-2626
▁രമേ	-2627
▁വിട്ടു	-2628
▁ഇന്ത്യയുടെ	-2629
▁രാജിവ	-2630
റിനെ	-2631
▁ലം	-2632
ത്താവ	-2633
▁ഇതിന	-2634
▁സതീ	-2635
▁മദ്യ	-2636
ിക്കാം	-2637
േല്‍	-2638
ചന്ദ്ര	-2639
▁പോസ്റ്റ്	-2640
▁ചാ	-2641
ുകളിലും	-2642
▁നേരിട്ട്	-2643
▁എല്ലാവരും	-2644
▁ലഭിക്കുന്ന	-2645
▁ഇള	-2646
▁ഹിന്ദു	-2647
▁കണ്‍	-2648
▁നല്‍കിയത്	-2649
സൂ	-2650
തുമ	-2651
തമായി	-2652
സൈ	-2653
ുതി	-2654
ലൂടെ	-2655
▁ടു	-2656
▁കോണ്‍ഗ്രസിന്റെ	-2657
▁സഭാ	-2658
ണര്‍	-2659
▁ലീഗ	-2660
▁മെന്റ്	-2661
▁മെയ്	-2662
ിപ്പിച്ച	-2663
▁അബ്ദ	-2664
▁വരുടെ	-2665
വാദ	-2666
▁വിധി	-2667
▁ലഭ്യമ	-2668
നത്തിന്	-2669
ത്വം	-2670
ണായക	-2671
ണ്ടി	-2672
സിപ്പ	-2673
▁പോസി	-2674
▁ഇനിയും	-2675
ര്‍ത്തു	-2676
ിക്കറ്റ	-2677
▁ആം	-2678
ർത്ഥ	-2679
▁യായ	-2680
മാന്‍	-2681
▁ലോക്ക്	-2682
▁പ്രമുഖ	-2683
മിന	-2684
▁മുരളീധ	-2685
▁സിറ്റി	-2686
▁ഔദ്യോഗിക	-2687
▁വര്‍ക്ക്	-2688
▁സാധിക്കും	-2689
▁തട്ടി	-2690
▁ദിലീപി	-2691
▁ലക്ഷ്യമ	-2692
ഗ്ദ	-2693
▁സീസ	-2694
▁നൽകി	-2695
ിയോ	-2696
▁കെപി	-2697
▁ക്കൊ	-2698
▁ഉയർന്ന	-2699
▁പോളി	-2700
പാട്	-2701
രുവ	-2702
ക്കാൻ	-2703
മതി	-2704
▁ഏഴ്	-2705
▁ഫോണ	-2706
രുന്ന്	-2707
▁ഉമ്മന്‍	-2708
▁തെളിയ	-2709
▁വിമാനത്താവ	-2710
▁ടോ	-2711
▁ഏപ്ര	-2712
▁തിരിച്ചു	-2713
▁രി	-2714
വിന്	-2715
▁ജൂല	-2716
▁വേണം	-2717
▁വെല്ലുവി	-2718
▁ജയില	-2719
ങ്ങുന്ന	-2720
▁രൂപയാണ്	-2721
▁ലക്ഷ്യം	-2722
▁തെന്നാണ്	-2723
ുറ	-2724
പരമായ	-2725
▁100	-2726
▁ബിസിന	-2727
▁മാറ്റം	-2728
▁ബിജെപിക്ക്	-2729
▁നിശ്ച	-2730
▁കണ്ണൂർ	-2731
▁പരിക്ക	-2732
▁മൂന്നാം	-2733
▁ക്കൊപ്പം	-2734
▁ചാന	-2735
▁2019	-2736
▁ജോസഫ്	-2737
▁ഉണ്ടാവ	-2738
▁നികുതി	-2739
▁ിരുന്നുവ	-2740
▁45	-2741
▁മനോ	-2742
ാമത്തെ	-2743
▁ഇടതുപക്ഷ	-2744
▁ിരിക്കുന്ന	-2745
▁നേടി	-2746
സരിച്ച്	-2747
▁തങ്ങളുടെ	-2748
▁കഥ	-2749
▁കളില	-2750
ങ്കിലും	-2751
▁മാറ്റിയ	-2752
▁വാദ	-2753
▁ആരും	-2754
▁ഉദ്ഘാ	-2755
▁ഇയാള്‍	-2756
▁സ്ഥാനം	-2757
▁ഇസ്രായ	-2758
ത്തിലൂടെ	-2759
▁വരുന്നത്	-2760
▁ജനാധിപത്യ	-2761
ുട്ട	-2762
റിച്ച	-2763
▁ആരാധ	-2764
ക്ടറ	-2765
രില്‍	-2766
▁(5	-2767
▁ക്കാണ്	-2768
▁കേസിൽ	-2769
▁ഇഷ്ട	-2770
▁രാജ്	-2771
▁രാഹുൽ	-2772
നേ	-2773
▁അഴി	-2774
▁സമു	-2775
▁നായി	-2776
▁കടന്ന	-2777
▁ബാങ്ക	-2778
▁യുദ്ധ	-2779
ങ്ങനെയാണ്	-2780
▁ഇല	-2781
ക്കുക	-2782
ുകാര്‍	-2783
▁നിലവിൽ	-2784
▁ിട്ടുള്ള	-2785
ക്കുറിച്ച്	-2786
ുമ്പോ	-2787
▁പകരം	-2788
▁വിശ്വാസ	-2789
ബൈ	-2790
വില	-2791
▁പിസി	-2792
▁ില്ലെന്നും	-2793
സ്വ	-2794
▁ഗുജ	-2795
▁പ്രതിഷേധം	-2796
ീകരണം	-2797
ക്കൊ	-2798
▁മാണി	-2799
▁പേരില്‍	-2800
ിയാ	-2801
േണ്ടത്	-2802
കര്യ	-2803
നിധ	-2804
നാല്‍	-2805
മാരുടെ	-2806
▁ചെറു	-2807
ിക്	-2808
ക്കേ	-2809
▁വൈദ്യ	-2810
പ്പോഴും	-2811
▁എങ്ങനെ	-2812
▁ജോര്‍ജ്	-2813
▁എത്തിയത്	-2814
▁ിട്ടുള്ളത്	-2815
▁റോഡ	-2816
▁ക്ഷേത്ര	-2817
ടിച്ച	-2818
▁യിലാണ്	-2819
▁ഒര	-2820
▁ഒന്നാം	-2821
രൻ	-2822
ാലോ	-2823
▁ലംഘ	-2824
▁ഗുജറാ	-2825
▁മെഡിക്കൽ	-2826
▁ആരോപിച്ചു	-2827
ാണോ	-2828
▁ത്തിലെ	-2829
▁യഥ	-2830
▁പുരോഗ	-2831
▁പ്രതിസന്ധി	-2832
ണിയ	-2833
▁ബന്ധം	-2834
▁മുള്ള	-2835
▁സമ്മാന	-2836
ുമായിരുന്നു	-2837
▁യാത	-2838
▁നിയമം	-2839
▁ശ്രമം	-2840
നാഥ്	-2841
▁നിര്‍ദ്ദേശ	-2842
▁സൂച	-2843
ക്കാർ	-2844
▁ുവെന്നും	-2845
▁രോ	-2846
▁ആളുകള്‍	-2847
▁കഴിഞ്ഞു	-2848
▁കുറച്ച്	-2849
▁ങ്ങളുടെ	-2850
ര്‍ക്കാണ്	-2851
▁വഹ	-2852
▁മമത	-2853
ട്ടിഫ	-2854
▁മുന്നറിയിപ്പ്	-2855
▁1.	-2856
▁പവ	-2857
▁എട്ട്	-2858
▁കനത്ത	-2859
ാക്കിയത്	-2860
▁മേഖലയില്‍	-2861
ഹരി	-2862
▁ആവശ്യപ്പെട്ടി	-2863
▁കുട്ടി	-2864
ടേ	-2865
ഖ്യ	-2866
▁ഹൗ	-2867
▁തല്ല	-2868
▁ഉന്നത	-2869
▁ഞങ്ങള്‍	-2870
▁രമേശ്	-2871
▁മണ്ഡലം	-2872
▁സന്തോഷ	-2873
ാനെ	-2874
മാരെ	-2875
▁പ്രസംഗ	-2876
▁മുസ്ലീം	-2877
ൺകു	-2878
▁പത്ത്	-2879
▁പിടിക	-2880
▁സാധിച്ച	-2881
സിയ	-2882
െച്ച	-2883
ട്ടാണ്	-2884
▁നടക്കുന്നത്	-2885
▁തിരഞ്ഞെടുപ്പിൽ	-2886
▁കൂടിയാണ്	-2887
▁ശ്രമിച്ച	-2888
▁താൻ	-2889
▁യോട്	-2890
▁വീതം	-2891
▁അവസരം	-2892
▁സ്വാത	-2893
▁ചികിത്സയില	-2894
ൊന്ന	-2895
▁വിന	-2896
▁കല്ല	-2897
▁ആവശ്യമ	-2898
▁സംരക്ഷ	-2899
▁അധ്യക്ഷന്‍	-2900
▁ഇവർ	-2901
▁ഏത്	-2902
▁തസ്	-2903
▁കാസര്‍	-2904
▁യുഎസ്	-2905
▁ഭേദ	-2906
▁കുറവ	-2907
▁വസ്തു	-2908
▁വില്‍	-2909
▁െന്നാണ്	-2910
▁വരാണ്	-2911
▁സച്ചി	-2912
▁ചോദിച്ചു	-2913
▁ക്രൈ	-2914
▁ഇദ്ദേഹ	-2915
▁പേരുടെ	-2916
▁സുരക്ഷാ	-2917
▁ജീവനക്കാര	-2918
▁കുമാ	-2919
ീകരിച്ച്	-2920
▁പിടികൂ	-2921
ഗതി	-2922
ഗോഡ്	-2923
▁ജല	-2924
▁വല	-2925
എല്‍	-2926
ീക്ക	-2927
ട്ടില്ല	-2928
▁അഭിമുഖ	-2929
മം	-2930
ൗണ്‍	-2931
▁വായ	-2932
▁സമരം	-2933
▁രീതിയില്‍	-2934
▁യോഗത്തില്‍	-2935
▁പ്രവര്‍ത്തകര്‍	-2936
ികെ	-2937
▁മര	-2938
▁ആഘോഷ	-2939
▁മരണം	-2940
▁വിതരണം	-2941
▁ഉടമ	-2942
▁മുതല	-2943
▁അതില്‍	-2944
▁ശാസ്	-2945
▁സാഹചര്യം	-2946
ംസ	-2947
▁മൊഴി	-2948
▁യുവതി	-2949
▁രൂപയുടെ	-2950
▁പേരു	-2951
പ്ല	-2952
▁ഫാ	-2953
ിരുന്നത്	-2954
▁എന്താണ്	-2955
▁നമുക്ക്	-2956
ീപ്	-2957
മില്ല	-2958
ക്കിന്	-2959
▁സ്വാതന്ത്ര	-2960
▁അയാ	-2961
▁ഇതു	-2962
▁ഏര്‍	-2963
▁തെന്ന	-2964
▁പ്രവച	-2965
ണമെന്നാണ്	-2966
ശ്മ	-2967
▁വധ	-2968
ത്യം	-2969
▁ആലോ	-2970
▁സതീശ	-2971
▁നൽകുന്ന	-2972
▁അവസര	-2973
▁കൂടുതല	-2974
▁അധ്യാപ	-2975
▁നേരിട്ട	-2976
ത്തുന്ന	-2977
▁ഫേസ്ബുക്ക്	-2978
▁നാളെ	-2979
▁ജാഗ്രത	-2980
▁വിവരങ്ങള്‍	-2981
▁32	-2982
▁മക്ക	-2983
▁വീട്	-2984
ക്യ	-2985
ോറി	-2986
്യോ	-2987
▁ലേ	-2988
▁ഇടി	-2989
▁സൗകര്യ	-2990
▁എന്നിവര്‍	-2991
▁ഉണ്ടായിരുന്നു	-2992
▁പാക	-2993
▁യാതൊരു	-2994
▁ബജ	-2995
പ്പെടുത്തുന്ന	-2996
▁കാഴ്ച	-2997
▁പിന്നാലെയാണ്	-2998
▁അംഗീക	-2999
▁മനസില	-3000
▁വനിതാ	-3001
▁തിനാല്‍	-3002
▁യാണെന്നും	-3003
▁പങ്കെടുത്ത	-3004
▁ഒന്ന്	-3005
▁കേന്ദ്രസ	-3006
ഗോപ	-3007
▁സർവ	-3008
▁പൂര്‍ണ	-3009
▁ശേഖ	-3010
ാര്‍ഥ	-3011
പിച്ച്	-3012
▁ചെയ്തിട്ടുണ്ട്	-3013
▁ബുധ	-3014
▁ഗോപി	-3015
ിട്ടും	-3016
▁രോഗമു	-3017
പ്പിച്ച്	-3018
▁സമാന	-3019
▁ശരിയ	-3020
▁ങ്ങളെ	-3021
▁പലരും	-3022
റ്റില്‍	-3023
▁മൈ	-3024
ീന്‍	-3025
▁നേരെ	-3026
▁ദിലീപ്	-3027
▁മെന്ന്	-3028
▁നടത്തുന്നത്	-3029
▁മണ്ഡലത്തില്‍	-3030
കോ	-3031
▁റേ	-3032
ക്കെതിരെ	-3033
ക്കില്‍	-3034
▁കോടതിയില്‍	-3035
റ്റർ	-3036
▁മേധ	-3037
▁2021	-3038
▁ശിക്ഷ	-3039
ഫോ	-3040
▁ലോട്ട	-3041
▁ഹോട്ട	-3042
▁കാണുന്ന	-3043
▁സ്ഥിരീകരിച്ചു	-3044
▁മുണ്ട്	-3045
▁വിവാഹം	-3046
ൂരി	-3047
▁സാക്ഷ	-3048
▁കാത്തി	-3049
▁കേസിലെ	-3050
▁കര്‍ണാടക	-3051
▁യൂത്ത്	-3052
▁മാതൃ	-3053
▁യല്ല	-3054
▁സൂക്ഷ	-3055
ിക്കല്‍	-3056
▁ക്കാനുള്ള	-3057
റ്റം	-3058
ാനായി	-3059
▁ഗൂ	-3060
കളിൽ	-3061
▁ക്യ	-3062
പ്രതി	-3063
▁പ്പോൾ	-3064
▁ഒരാള്‍	-3065
▁സേന	-3066
▁ബിരു	-3067
▁പ്പെടുത്ത	-3068
▁ില	-3069
▁പെൺകു	-3070
▁മുഴുവന്‍	-3071
നിട	-3072
▁അംബ	-3073
▁വിജയ്	-3074
▁അദ്ദേഹത്തെ	-3075
▁ില്ലെന്ന്	-3076
▁ഉത്തരവാദി	-3077
ഘടന	-3078
▁ക്യാമ്പ	-3079
▁പരാമര്‍ശ	-3080
▁ഡോസ്	-3081
▁ഞങ്ങൾ	-3082
▁സിപിഐ	-3083
▁കമ്പനി	-3084
▁തസ്തിക	-3085
▁സാമ്പി	-3086
▁അറിയിച്ച	-3087
കരമായ	-3088
▁നിർമ്മ	-3089
പ്തി	-3090
▁വർക്ക്	-3091
▁തീയ	-3092
▁ക്കാൻ	-3093
▁ഒരുപാട്	-3094
▁കാര്യത്തില്‍	-3095
ന്ധ്യ	-3096
ർത്തു	-3097
▁ിരുന്നത്	-3098
▁കരാ	-3099
▁തിരുവ	-3100
▁ടെക്	-3101
▁ഡിസം	-3102
ഞ്ജ	-3103
▁സന്	-3104
▁ഒട്ട	-3105
▁കണ്ടു	-3106
ിലായ	-3107
▁കൈവ	-3108
▁മുന്നണി	-3109
▁ങ്ങളില്‍	-3110
▁റോഡ്	-3111
റ്റു	-3112
▁അമ്പ	-3113
▁ഗവര്‍	-3114
▁തുറന്ന	-3115
▁ബുദ്ധിമു	-3116
ലോ	-3117
▁ഒരിക്കലും	-3118
▁കർഷക	-3119
▁ടൂ	-3120
▁കൊണ്ടു	-3121
ആർ	-3122
ദേശിക	-3123
▁വയസ്	-3124
▁േക്കും	-3125
▁ചീഫ്	-3126
▁അർ	-3127
▁പ്രാദേശിക	-3128
▁വിമാനത്താവള	-3129
▁പിഴ	-3130
▁ഓഫീസര്‍	-3131
▁കൊലപാതക	-3132
▁സെക്രട്ടറിയ	-3133
ലമെ	-3134
▁ബസ്	-3135
▁ക്കിട	-3136
▁വയസ്സ	-3137
▁സഹായം	-3138
▁പങ്കെടുക്ക	-3139
▁രംഗത്തെത്തിയ	-3140
▁നിര്‍ദേശം	-3141
30	-3142
ഹാ	-3143
േറിയ	-3144
▁പണി	-3145
▁അച്ഛ	-3146
ുകൊണ്ടാണ്	-3147
▁ചെയ്യുന്നു	-3148
▁സംഭവത്തില്‍	-3149
ഹിത	-3150
▁വാഗ്ദ	-3151
▁അതിനിടെ	-3152
▁വിളിച്ച	-3153
▁ഗ്രൂപ്പ്	-3154
ീര	-3155
▁രാജി	-3156
▁ഒപ്പം	-3157
▁വിദഗ്	-3158
▁ശബ	-3159
▁ലാണ്	-3160
ുമായുള്ള	-3161
▁ഇത്രയും	-3162
▁അത്ര	-3163
▁റ്റി	-3164
▁പിന്നെ	-3165
▁മഹാ	-3166
▁സിന	-3167
▁എംഎൽ	-3168
▁റദ്ദ	-3169
▁സംസ്	-3170
▁വിശ്വസ	-3171
▁സ്വതന്ത്ര	-3172
ളൂ	-3173
▁സമ്മേളന	-3174
ടുള്ള	-3175
▁അഭിഭാ	-3176
▁തായും	-3177
▁80	-3178
▁ക്വാറ	-3179
▁നിലവിലെ	-3180
▁ഉപയോഗിച്ച്	-3181
▁ജയരാ	-3182
ശ്വാസം	-3183
▁ഫോണ്‍	-3184
▁ബഹ	-3185
▁ാൽ	-3186
▁ക്കി	-3187
▁മാണെന്ന്	-3188
പ്രവര്‍ത്ത	-3189
ാണം	-3190
▁തന്ത്ര	-3191
▁നിന്നു	-3192
▁കാര്യങ്ങൾ	-3193
▁മാണെന്നും	-3194
▁സീറ്റുകള്‍	-3195
മുണ്ട്	-3196
▁അഴിമതി	-3197
▁നേതൃത്വത്തില്‍	-3198
▁സിംഗ	-3199
▁ുവെന്ന്	-3200
▁നിങ്ങള്‍	-3201
▁നടപ്പില	-3202
▁ബാങ്ക്	-3203
▁വിഷയത്തില്‍	-3204
സിലെ	-3205
▁ജൂണ്‍	-3206
▁രേഖപ്പെടുത്തിയ	-3207
േര	-3208
ഹത്യ	-3209
▁ട്വി	-3210
▁ത്തിലും	-3211
കർ	-3212
രാമ	-3213
▁ഇന്ത്യയിലെ	-3214
▁ജില്ലയിൽ	-3215
▁തൃണമ	-3216
▁ഇന്ത്യയില്‍	-3217
▁തിൽ	-3218
▁നിരോധ	-3219
▁ജൂലൈ	-3220
▁എന്നിവരാണ്	-3221
▁താല	-3222
▁ക്ഷണ	-3223
രുമായി	-3224
്യൂട്ടി	-3225
ടക്കം	-3226
▁ഭരണം	-3227
ുമുണ്ട്	-3228
▁പരിപാടിയ	-3229
വിൽ	-3230
▁പ്	-3231
▁പാകി	-3232
▁ഇതിനിടെ	-3233
ഭരണ	-3234
▁കൂള	-3235
▁അടിയന്തര	-3236
▁പഴയ	-3237
▁കെപിസിസി	-3238
▁പൂർത്തിയ	-3239
▁യാണെന്ന്	-3240
▁നടപടികള്‍	-3241
ത്താണ്	-3242
▁എംഎൽഎ	-3243
▁കേസുകള്‍	-3244
ഗീയ	-3245
▁അശ	-3246
ങ്ങ്	-3247
ാശാല	-3248
▁സ്കൂ	-3249
ിച്ചാണ്	-3250
▁തുടങ്ങ	-3251
▁നിലയില്‍	-3252
ടനാ	-3253
▁കോളേജ്	-3254
ാണെന്ന	-3255
െടുത്ത്	-3256
▁ഗോപ	-3257
▁അഭിഭാഷക	-3258
▁സുരക്ഷി	-3259
▁മത്സരിച്ച	-3260
മിക	-3261
▁നഗരസഭ	-3262
വിട്ട	-3263
▁യെന്നും	-3264
▁ജനങ്ങള്‍	-3265
▁ഉദ്യോഗസ്ഥര്‍	-3266
▁തെരഞ്ഞെടുപ്പ്	-3267
▁വാദം	-3268
റുകള്‍	-3269
റ്റീവ്	-3270
▁വോട്ടി	-3271
ന്യം	-3272
▁കോർ	-3273
▁കയ്യ	-3274
▁ട്വീ	-3275
▁ങ്ങളില	-3276
▁പ്രചാര	-3277
▁രാജ്യം	-3278
ത്തിനായി	-3279
തെ	-3280
ർന്നു	-3281
▁അഭ്യ	-3282
▁സംഭവിച്ച	-3283
▁ചൂണ്ടിക്ക	-3284
ീർ	-3285
ൂരിലെ	-3286
സേന	-3287
▁വിധേയ	-3288
ികൾക്ക്	-3289
▁തമ്മിലുള്ള	-3290
▁തിരിച്ചടി	-3291
▁പുറത്തുവന്ന	-3292
▁2,	-3293
▁പ്രണ	-3294
▁ഫെബ്ര	-3295
▁തുടക്ക	-3296
▁വ്യാപക	-3297
▁ആവശ്യപ്പെട്ട	-3298
▁ചൂണ്ടിക്കാട്ടി	-3299
▁യാദ	-3300
▁ധാരണ	-3301
▁നിമി	-3302
▁വര്‍ധ	-3303
▁വ്യവസ	-3304
▁യ്ക്കും	-3305
നിൽ	-3306
▁ചല	-3307
കലാശാല	-3308
▁വോട്ടുകള്‍	-3309
ശേഷ	-3310
▁37	-3311
▁ഗുണ	-3312
▁റില	-3313
▁റണ്‍	-3314
▁സേവന	-3315
ാക്കാൻ	-3316
ട്ടിക്ക	-3317
▁ചെയ്യാൻ	-3318
▁മൃതദേഹം	-3319
▁തിങ്ക	-3320
▁ഇപ്പോഴ	-3321
▁ചെന്നൈ	-3322
▁36	-3323
നാട്ട	-3324
്വ	-3325
▁മൊബൈ	-3326
▁ത്തിലാണ്	-3327
▁സംവിധാനം	-3328
മിച്ച്	-3329
▁ത്തിന	-3330
മെന്നും	-3331
▁പേരിൽ	-3332
രിത	-3333
ീകര	-3334
ലക്ഷ	-3335
പ്പിൽ	-3336
ികളായ	-3337
▁നിങ്ങൾ	-3338
▁പരിശീല	-3339
സ്തി	-3340
▁പഠന	-3341
▁എച്ച്	-3342
▁അദ്ദേഹത്തിന്	-3343
▁തേടിയ	-3344
▁മോഹന്‍	-3345
▁ഗണ	-3346
▁വിചാരണ	-3347
▁സ്വാധീന	-3348
▁താഴെ	-3349
▁സമാധാന	-3350
▁സാഹചര്യത്തിൽ	-3351
▁ഘടക	-3352
വിന്റെ	-3353
ുണ്ടെന്നും	-3354
▁വായി	-3355
പ്പര്‍	-3356
▁അനുവദിക്ക	-3357
ീല്‍	-3358
▁വാങ്ങിയ	-3359
തിനെ	-3360
▁വീണ	-3361
▁സാമൂഹിക	-3362
ാടി	-3363
▁അഡ	-3364
▁അല്‍	-3365
▁ഖത്ത	-3366
▁ആക്രമണം	-3367
▁ആദ്യമായി	-3368
▁നം	-3369
▁ള്ള	-3370
▁കുറിച്ചു	-3371
ഡില്‍	-3372
ൽഹി	-3373
▁നീതി	-3374
▁വിസ	-3375
ാവില്ല	-3376
ിക്കാഴ്ച	-3377
▁കൂടിക്കാഴ്ച	-3378
▁ഫിറോ	-3379
▁സജ്ജ	-3380
▁ടിക്കറ്റ്	-3381
▁അഡ്	-3382
▁വ്യാഴ	-3383
▁പോരാട്ട	-3384
ീകരി	-3385
സിക്യൂ	-3386
▁റെയില്‍	-3387
ൃദ	-3388
േത	-3389
▁അസി	-3390
▁യാക	-3391
ർട്ട്	-3392
ര്‍ത്തിയ	-3393
ുധ	-3394
▁മുല്ല	-3395
▁വീട്ടിൽ	-3396
▁അഖില	-3397
▁ജീവിതം	-3398
പതി	-3399
ർജി	-3400
▁ഭാഷ	-3401
▁പൊലി	-3402
▁വീടി	-3403
▁ങ്ങളാണ്	-3404
ാൾ	-3405
ജീവി	-3406
▁പ്രവേശിപ്പ	-3407
▁ചൂണ്ടിക്കാണ	-3408
▁ചെലവ	-3409
▁ന്യൂന	-3410
▁തിരികെ	-3411
▁ബ്രിട്ട	-3412
▁),	-3413
▁അജ	-3414
▁ഓണ്‍	-3415
ങ്ങളായി	-3416
▁പേര്‍ക്കും	-3417
▁പദവി	-3418
▁ഭൂമി	-3419
4,	-3420
താഗ	-3421
▁പ്രവാസ	-3422
▁സാമ്പിള	-3423
▁55	-3424
▁ഗവ	-3425
ായാലും	-3426
▁അധികം	-3427
▁യുക്ര	-3428
പ്പെടുന്നു	-3429
▁ത്തിലേക്ക്	-3430
▁ശബരി	-3431
ല്‍ക്ക	-3432
▁പ്രമേ	-3433
▁വിഷയം	-3434
വര്‍ക്ക്	-3435
പ്പന	-3436
▁കയറി	-3437
▁മല്‍	-3438
▁ആരംഭിച്ച	-3439
▁രഹ	-3440
▁പെട്ര	-3441
▁പെണ്‍കുട്ട	-3442
▁ആന്റ	-3443
▁ത്തിനു	-3444
▁സ്ഥാനാർത്ഥി	-3445
▁വച്ച്	-3446
▁പെരുമാ	-3447
ോമീ	-3448
▁ശൈ	-3449
▁സ്വാ	-3450
▁ിന്റെ	-3451
▁കളിലും	-3452
ലിൽ	-3453
ോണി	-3454
▁70	-3455
ന്‍ഡ്	-3456
▁കണ്ട്	-3457
▁ജനുവരി	-3458
സിക	-3459
▁33	-3460
ലങ്ക	-3461
▁കിലോമീ	-3462
▁അടുത്തി	-3463
▁തമ്മില്‍	-3464
യള	-3465
നില	-3466
▁തീര	-3467
▁അന്ന	-3468
▁പ്രകടി	-3469
▁ഞായ	-3470
▁കശ്മ	-3471
▁ഇതിനെ	-3472
▁പരിചയ	-3473
▁ഇല്ലാത	-3474
▁ബൂ	-3475
▁സമർ	-3476
▁സംവിധ	-3477
▁ിട്ടും	-3478
▁48	-3479
▁തള്ളി	-3480
▁ബന്ധുക്ക	-3481
▁മീഡിയയില്‍	-3482
▁ഭി	-3483
▁മുക	-3484
▁കാലം	-3485
▁ഭരണകൂ	-3486
▁!!	-3487
▁ാന	-3488
▁വൈസ്	-3489
ത്തിനും	-3490
▁ുവെന്ന	-3491
▁തിയ	-3492
▁തിരെ	-3493
▁മൂലം	-3494
▁പക്ഷെ	-3495
▁സ്വപ്ന	-3496
▁ജസ്റ്റി	-3497
▁ഉണ്ടാകും	-3498
▁രാശിക്കാര്‍	-3499
▁2020	-3500
▁ബ്ലോ	-3501
▁ജാമ്യം	-3502
ഡു	-3503
ളാണ്	-3504
ൊക്ക	-3505
▁അഫ്	-3506
▁നീണ്ട	-3507
ത്തിനുള്ള	-3508
▁പോകുന്നത്	-3509
▁കോണ്‍ഗ്രസില്‍	-3510
▁75	-3511
▁ചൗ	-3512
▁പ്രതികരിച്ചു	-3513
▁ണ്	-3514
▁2016	-3515
െടുത്തു	-3516
▁അന്താരാഷ്ട്ര	-3517
▁ആവശ്യപ്പെട്ട്	-3518
▁കാന	-3519
▁ഇതിൽ	-3520
▁സന്ദർശ	-3521
ബല	-3522
▁ജു	-3523
ശേരി	-3524
▁ജ്യോ	-3525
▁ടൂറി	-3526
▁മരിച്ചത്	-3527
▁അധികൃതര്‍	-3528
▁ആഴ്ച	-3529
▁എത്തുന്ന	-3530
ാക്കുന്നത്	-3531
ടുന്ന	-3532
▁മിനി	-3533
▁തുടരുക	-3534
▁മേധാവി	-3535
▁വരാ	-3536
▁കൗണ്‍	-3537
▁തിങ്കള	-3538
▁മാര്‍ച്ച്	-3539
19	-3540
ില്യ	-3541
▁അപ്ര	-3542
▁കുമാർ	-3543
▁ങ്ങളിൽ	-3544
ലൈ	-3545
▁ശോഭ	-3546
▁റോബി	-3547
ികളാണ്	-3548
▁എവിടെ	-3549
▁നിലനി	-3550
ിക്കുന്നുണ്ട്	-3551
▁കൊച്ച	-3552
▁നെഗ	-3553
▁നവംബ	-3554
▁എതിരെ	-3555
▁',	-3556
▁(6	-3557
ാവശ്യ	-3558
▁പ്രി	-3559
▁സാന്നി	-3560
▁പേർക്ക്	-3561
▁ശാസ്ത്ര	-3562
ിയോടെ	-3563
ര്‍ശന	-3564
▁പത്ര	-3565
പ്രദേശ്	-3566
▁നേതാവി	-3567
ഭി	-3568
▁പരമ	-3569
ിക്കുകയായിരുന്നു	-3570
▁എയര്‍	-3571
▁വിദഗ്ധ	-3572
▁ബാധിച്ച	-3573
▁സ്വന്തമ	-3574
▁മന്ത്രിസഭ	-3575
ര്‍ട്ട്	-3576
▁മത്സ്യ	-3577
▁ഷെ	-3578
മാരും	-3579
▁ക്വാറന്റ	-3580
യായിരുന്നു	-3581
േബ	-3582
▁പീഡ	-3583
▁വയസ	-3584
ാക്കള്‍	-3585
ർമ്മ	-3586
▁സുരേന്ദ്രന്‍	-3587
▁കർണാടക	-3588
▁പ്രതികരണ	-3589
▁ചാണ്ടി	-3590
▁ലക്ഷ്യ	-3591
▁ക്കേണ്ട	-3592
▁മുതിര്‍ന്ന	-3593
▁ടൈ	-3594
▁താലി	-3595
ാക്കും	-3596
ിയുള്ള	-3597
▁മറ്റുള്ള	-3598
.5	-3599
ക്കര	-3600
▁ഡിജി	-3601
▁രീതിയ	-3602
▁പ്രകടന	-3603
▁തര്‍ക്ക	-3604
▁സിന്ധ്യ	-3605
▁നിര്‍ത്ത	-3606
▁നേതാക്കളെ	-3607
▁ക്കുകയായിരുന്നു	-3608
ക്ടോ	-3609
▁കുഴ	-3610
▁നാള	-3611
▁വെബ്	-3612
▁കാട്ട	-3613
▁ഇരുവരും	-3614
▁അടുത്തിടെ	-3615
▁ഏതെങ്കിലും	-3616
▁വക	-3617
ത്തിന	-3618
ുണ്ടെന്ന്	-3619
▁ക്കുകയും	-3620
▁മണിക്കൂറി	-3621
▁ഫ്	-3622
▁ഗ്രഹ	-3623
▁ഉടന്‍	-3624
▁പരിപാടി	-3625
ടകര	-3626
▁കോര്‍പ്പറ	-3627
നീയ	-3628
▁പരിപാട	-3629
▁ഡോക്ടര്‍	-3630
▁വനിത	-3631
▁നോക്ക	-3632
▁കണക്ക്	-3633
ീതി	-3634
▁പ്രദ	-3635
ിമ	-3636
ബിഐ	-3637
ങ്ങളോട്	-3638
▁കിടക്ക	-3639
▁വിജയന്‍	-3640
▁മാസ്	-3641
▁വടക്ക	-3642
▁വെള്ളം	-3643
▁ശരീ	-3644
▁മതിയ	-3645
▁നമ്മള്‍	-3646
▁ലോട്ടറി	-3647
യ്ക്കുന്ന	-3648
▁സ്വദേശിയായ	-3649
▁ത്തു	-3650
▁സന്തോ	-3651
▁സിനിമാ	-3652
ഞ്ചേരി	-3653
ാക്കുക	-3654
▁എൽഡിഎ	-3655
▁മാനേജ	-3656
▁ഉദ്ഘാടനം	-3657
▁ജനങ്ങളുടെ	-3658
ീത	-3659
▁പൈല	-3660
▁ജനറൽ	-3661
▁പ്രചാരണം	-3662
▁ഗെ	-3663
കൃഷ്ണ	-3664
ത്തുക്ക	-3665
▁ഭാഗത്ത്	-3666
▁തീരുമാനിച്ച	-3667
യിട	-3668
ത്രിക	-3669
രുത്തി	-3670
▁ആത്മഹത്യ	-3671
▁കണ്ടെത്തി	-3672
ഫ്ര	-3673
▁തൂ	-3674
▁ലു	-3675
ായിക	-3676
ദിത്യ	-3677
▁അവി	-3678
▁ഇതാണ്	-3679
▁സഹോദര	-3680
▁തൊഴില്‍	-3681
▁മരിച്ചു	-3682
▁നേരിടുന്ന	-3683
▁പ്രസിഡന്റ	-3684
2,	-3685
▁സര്‍ക്കാര	-3686
▁സ്വാതന്ത്ര്യ	-3687
മന	-3688
ിരിക്കുന്ന	-3689
▁തായിരുന്നു	-3690
▁ിരിക്കുന്നു	-3691
▁43	-3692
▁ആറ	-3693
ങ്ങനെയ	-3694
▁തിനും	-3695
▁ദക്ഷി	-3696
▁കാര്യമ	-3697
▁ഇല്ലാത്ത	-3698
▁ത്തിലൂടെ	-3699
▁സംവിധായക	-3700
വു	-3701
▁പിറ	-3702
▁ട്രംപ്	-3703
▁ഫോട്ടോ	-3704
പ്പിച്ചു	-3705
േക്കാള്‍	-3706
▁നിര്‍ണായക	-3707
▁നടത്തിയിരുന്നു	-3708
ംപ	-3709
▁തൃണമൂ	-3710
ാകെ	-3711
▁';	-3712
▁സ്പീക്ക	-3713
▁വരെയുള്ള	-3714
▁എല്‍ഡിഎഫ്	-3715
▁വേണു	-3716
▁ിരുന്നില്ല	-3717
▁സമുദ	-3718
▁ഏജന്‍	-3719
▁റെക്കോ	-3720
കള്‍ക്ക്	-3721
▁ചേര്‍ന്ന്	-3722
▁രജിസ്റ്റര്‍	-3723
▁നങ്ങള്‍	-3724
▁ആവശ്യമായ	-3725
▁ന്യൂഡ	-3726
▁കൃത്യമായ	-3727
ളയ	-3728
▁നശ	-3729
ന്‍ഡ	-3730
ര്‍ഡ്	-3731
▁യൂണി	-3732
▁ട്രെയി	-3733
▁ശബരിമല	-3734
▁ശാ	-3735
▁ഓഫീസ്	-3736
▁സിന്റെ	-3737
▁ത്തിനായി	-3738
ിക്കുകയാണ്	-3739
▁തിരിച്ചടിയ	-3740
▁ഓക്	-3741
ൃത്തി	-3742
▁വിപണ	-3743
ുവിന്റെ	-3744
▁തുടര്‍ന്നാണ്	-3745
ർമ	-3746
േബ്യ	-3747
▁സോണിയ	-3748
േക്കാണ്	-3749
▁കൊണ്ടുപോ	-3750
രാജ്	-3751
▁ഹൃദ	-3752
▁ഇടത്	-3753
▁കലാപ	-3754
▁അറേബ്യ	-3755
▁വര്‍ധി	-3756
ാലോചന	-3757
▁കുന്ന	-3758
ിലെത്തി	-3759
▁വ്യവസ്ഥ	-3760
▁പരസ	-3761
▁ഗതാഗ	-3762
▁എന്തി	-3763
▁ജ്യോതി	-3764
▁അഡ്വ	-3765
ാര്‍ഥി	-3766
▁സൂചിപ്പ	-3767
▁പ്രതിപക്ഷം	-3768
ടും	-3769
▁ഗ്	-3770
▁കഴി	-3771
▁അതിനെ	-3772
▁അയച്ച	-3773
▁ആശുപത്രിയിൽ	-3774
ാരായ	-3775
▁കിഴ	-3776
െടുത്തി	-3777
ുണ്ടായിരുന്ന	-3778
▁ുണ്ടായിരുന്നു	-3779
രിക്കണം	-3780
▁ഗ്രൂപ്പ	-3781
▁എഎ	-3782
▁തായ	-3783
▁അബ്ദു	-3784
▁പാര്‍ട്ടിയ	-3785
▁വന്ന്	-3786
യ്ക്കും	-3787
▁ത്തോടെ	-3788
▁പിൻ	-3789
▁ശനിയ	-3790
▁യുമാണ്	-3791
▁മുന്നോട്ട	-3792
▁അറിയിച്ചത്	-3793
▁നില്‍ക്കുന്ന	-3794
റുക	-3795
▁2022	-3796
▁തരംഗ	-3797
▁അപമാന	-3798
▁ഉത്തര്‍	-3799
▁ക്കാനും	-3800
▁മെന്നും	-3801
▁എല്‍ഡിഎഫ	-3802
▁ജില്ലകളില്‍	-3803
▁ിട്ടുണ്ടെന്നും	-3804
വ്വാ	-3805
കളാണ്	-3806
▁ബിസിനസ്	-3807
▁പ്രതിനിധ	-3808
▁കൃത്യമായി	-3809
▁നിയമനം	-3810
▁സമ്മതി	-3811
▁കെട്ടിട	-3812
▁കമ്മിറ്റ	-3813
▁വൈദ്യുതി	-3814
ിട്ടുള്ളത്	-3815
യിച്ച	-3816
▁വെടി	-3817
മന്ത്ര	-3818
▁പ്രവൃത്തി	-3819
▁ഓണ്‍ല	-3820
െടുപ്പ്	-3821
▁പരമാവധി	-3822
▁അവര്‍ക്ക്	-3823
▁മോശ	-3824
▁വേള	-3825
▁കുതി	-3826
▁താത്	-3827
▁പ്രചരണ	-3828
▁പരിക്കേറ്റ	-3829
സര	-3830
▁ദ്	-3831
പുരം	-3832
▁199	-3833
▁ആശയ	-3834
െടുത്തത്	-3835
▁സ്ഥാനത്ത്	-3836
▁മന്ത്രാലയം	-3837
ോക്	-3838
▁34	-3839
▁ചോദിച്ച	-3840
▁പോലുള്ള	-3841
▁വിളിച്ച്	-3842
▁കണ്ടെത്തിയത്	-3843
▁മുകള	-3844
▁പുറമെ	-3845
▁കുടുംബം	-3846
▁വിജയിച്ച	-3847
ംഗളൂ	-3848
▁റ്റ്	-3849
▁കാലയള	-3850
▁കെഎസ്	-3851
▁ക്കുക	-3852
്യമന്ത്രി	-3853
താവ്	-3854
▁സബ്	-3855
▁തന്നെയ	-3856
▁ഭര്‍ത്ത	-3857
ാരു	-3858
ംഗ്ല	-3859
▁ത്ര	-3860
▁ാലും	-3861
▁കാണാന്‍	-3862
തീഷ്	-3863
ൂരിൽ	-3864
▁ആരോഗ	-3865
▁ഒക്ടോ	-3866
▁നിഷേധ	-3867
▁മാനസിക	-3868
▁സുധാകരന്‍	-3869
▁തിനു	-3870
▁കേട്ട	-3871
ത്തിനിടെ	-3872
ൂട്ടി	-3873
െയര്‍	-3874
തിനായി	-3875
ര്‍മ്മ	-3876
▁വിട്ട്	-3877
ുമെല്ലാം	-3878
▁വിമര്‍ശന	-3879
ജന്യ	-3880
▁ബൈഡ	-3881
▁കുടു	-3882
▁മറിക	-3883
യുമായി	-3884
ികളില്‍	-3885
▁38	-3886
▁നഴ്	-3887
▁ഉദ്ധ	-3888
▁ഞെട്ട	-3889
▁മുന്നിൽ	-3890
▁കേരളത്തിന്റെ	-3891
▁മാര്‍ഗ	-3892
▁സ്റ്റാ	-3893
▁വാക്സിൻ	-3894
▁2018	-3895
▁ഭാഗ്യ	-3896
▁അറിഞ്ഞ	-3897
▁പാർട്ടിയ	-3898
രാശ	-3899
▁മയ	-3900
ജിത്	-3901
▁ഉപതി	-3902
▁സഖ്യം	-3903
ലിനെ	-3904
▁അനി	-3905
▁ലാഭ	-3906
▁ആളുകൾ	-3907
▁പ്രൊഫ	-3908
▁വെറും	-3909
▁രൂപയും	-3910
ധു	-3911
വാസി	-3912
▁യുപി	-3913
▁ഹാജര	-3914
▁സില്‍	-3915
ണക്കിന്	-3916
▁ഏകദേശം	-3917
▁ബേ	-3918
▁ഐപി	-3919
▁അറിയാം	-3920
▁ഉപതിരഞ്ഞെടു	-3921
ഘട്ട	-3922
▁അഫ്ഗ	-3923
▁മുഖ്യ	-3924
പിത	-3925
▁39	-3926
ളിച്ച	-3927
▁ഏറ്റുമ	-3928
▁ചേർന്ന	-3929
▁അംഗീകരിക്ക	-3930
▁തിരഞ്ഞെടുപ്പിന്	-3931
വിഡി	-3932
ലാണ്	-3933
▁ശമ്പളം	-3934
▁നേരത്തേ	-3935
▁ഇവര്‍ക്ക്	-3936
മൊരു	-3937
▁ബാന	-3938
ൾക്ക്	-3939
▁വച്ച	-3940
കുമാര്‍	-3941
▁ക്കെതിര	-3942
▁പ്രേക്ഷ	-3943
▁ഫെബ്രുവരി	-3944
▁ഇക്കാര്യത്തില്‍	-3945
▁മതി	-3946
▁ഇന്നത്തെ	-3947
▁90	-3948
ങ്കേ	-3949
▁പിന്‍വല	-3950
▁അസിസ്റ്റ	-3951
▁കുറ്റപ്പെടുത്തി	-3952
വകു	-3953
ഥമിക	-3954
▁വരുന്നു	-3955
▁മുതിർന്ന	-3956
തുവ	-3957
▁മൂന്നു	-3958
▁ഉപയോഗിച്ച	-3959
20	-3960
ന്മ	-3961
▁സുധാകര	-3962
▁ഒപ്പ	-3963
▁ഭീകര	-3964
▁നിയമന	-3965
▁സഹകരണ	-3966
▁ഭക്ഷണം	-3967
▁അവസാനിപ്പ	-3968
ിക്കുമെന്ന്	-3969
▁കവ	-3970
ക്ട്ര	-3971
▁ഭക്ഷണ	-3972
▁മെന്ന	-3973
▁സർക്കാരിന്റെ	-3974
ജ്യ	-3975
ബാധ	-3976
▁ക്കണം	-3977
▁സാമൂഹ്യ	-3978
▁പേര്‍ക്കാണ്	-3979
ഗ്ഗ	-3980
▁രമ	-3981
ശങ്ക	-3982
▁എമ്മ	-3983
▁അട്ടി	-3984
ഥ്	-3985
▁എതിര്‍	-3986
▁ശക്തമായി	-3987
▁കസ്റ്റഡിയ	-3988
ശേഖ	-3989
▁കടുവ	-3990
▁ഗെയി	-3991
▁ഒക്കെ	-3992
▁പ്രാഥമിക	-3993
▁വന്നിരുന്നു	-3994
ുകാർ	-3995
▁ട്രേ	-3996
▁ഉദ്ദേശ	-3997
▁തുറന്ന്	-3998
▁സുഹൃത്തുക്ക	-3999
▁കൂട്ടിച്ചേർത്തു	-4000
ുഴ	-4001
▁താക്ക	-4002
▁മുന്നണ	-4003
▁സോഷ്യൽ	-4004
▁ലഭിച്ചു	-4005
▁ക്കുന്നത്	-4006
▁നേതാക്കളുടെ	-4007
ാലയ	-4008
▁കുറയ	-4009
▁സമുദായ	-4010
▁ഞങ്ങളുടെ	-4011
▁ുവെന്നാണ്	-4012
▁മാതൃക	-4013
▁ഛ	-4014
ന്‍സ	-4015
▁ഭൂമ	-4016
▁സംഭ	-4017
െന്റ്	-4018
▁മുൻപ്	-4019
്യമുള്ള	-4020
ക്കാരുടെ	-4021
▁തിങ്കളാഴ്ച	-4022
▁ായി	-4023
്യൂണി	-4024
ർത്തിയ	-4025
▁പോയത്	-4026
▁യിലൂടെ	-4027
▁ടീമ	-4028
▁പാത	-4029
▁തേടി	-4030
▁നാട്	-4031
▁നടത്തും	-4032
▁സ്റ്റേഷന	-4033
▁ഭൂരിപക്ഷം	-4034
ൈവ	-4035
ൃതി	-4036
▁ശ്	-4037
▁ത്ത്	-4038
▁സംഘര്‍	-4039
രിപ്പിച്ച	-4040
▁മമ്മ	-4041
▁തീയതി	-4042
▁സൗജന്യ	-4043
▁ഉത്തരവ്	-4044
യിലുള്ള	-4045
▁ലേക്ക്	-4046
▁സുപ്രീംക	-4047
▁കൃഷി	-4048
▁ചൊവ്വാ	-4049
▁തെറ്റി	-4050
ില്ലാത്ത	-4051
▁ടെസ്റ്റ്	-4052
▁വിവരങ്ങൾ	-4053
▁അത്യ	-4054
▁ആലോച	-4055
▁കാസർ	-4056
▁സങ്ക	-4057
▁നേട്ടം	-4058
▁നായിരുന്നു	-4059
▁സംസ്ഥാനങ്ങളില്‍	-4060
ദണ്ഡ	-4061
▁2017	-4062
▁പ്രതിഫ	-4063
▁മേഖലയിലെ	-4064
▁അട്ടിമ	-4065
▁നിലയിൽ	-4066
▁ബാഗ	-4067
▁ആഗോള	-4068
▁ന്യായ	-4069
▁ബിരുദ	-4070
▁അഭിനന്ദ	-4071
▁നല്‍കാന്‍	-4072
▁നേതാക്കളും	-4073
ോളി	-4074
▁എയർ	-4075
ാന്‍സ്	-4076
▁മാനദണ്ഡ	-4077
▁അക്കൗണ്ട	-4078
▁സംഭവത്തിൽ	-4079
▁തിരിച്ചറിയ	-4080
▁മലയാളി	-4081
▁44	-4082
▁കരി	-4083
രെയും	-4084
▁സൗകര	-4085
▁സ്ഥലം	-4086
ങ്കേതിക	-4087
▁ക്കാനാണ്	-4088
▁വെളിപ്പെടുത്ത	-4089
▁സിങ്	-4090
ിക്കാനും	-4091
▁തുടക്കം	-4092
മെന്ന	-4093
ര്‍ദ്ദ	-4094
▁തോല്‍	-4095
േഷനില്‍	-4096
▁വൻ	-4097
▁കാപ്പ	-4098
▁നിയോഗ	-4099
ദന	-4100
വിനെ	-4101
▁പള്ള	-4102
▁എന്നു	-4103
▁വാങ്ങി	-4104
▁വേണുഗോപ	-4105
ത്തിനെതിരെ	-4106
ടുവില്‍	-4107
▁സാങ്കേതിക	-4108
▁പ്രധാനമന്ത്ര	-4109
▁ഉള്‍പ്പെടെയുള്ള	-4110
ാഹ	-4111
▁ഇസ്	-4112
▁അധികാരം	-4113
▁പടി	-4114
ന്‍സി	-4115
▁ക്കോ	-4116
ത്തോട്	-4117
▁സിദ്ധ	-4118
▁ഉറപ്പ്	-4119
▁മത്സരം	-4120
▁വെല്ലുവിളി	-4121
▁സാധ്യതയുണ്ട്	-4122
കരണ	-4123
സ്റ്റർ	-4124
▁വര്‍ദ്ധ	-4125
▁തിരിച്ച്	-4126
1,	-4127
വ്വേ	-4128
പ്പടെ	-4129
▁താലൂ	-4130
▁സീനിയ	-4131
▁ബാക്കി	-4132
▁ജനങ്ങളെ	-4133
▁മുന്നേറ്റ	-4134
െത്തി	-4135
▁കുവൈ	-4136
▁ക്ലാസ്	-4137
▁നിലനില്‍	-4138
▁പെട്ടെന്ന്	-4139
▁മണ്ഡലത്തിൽ	-4140
▁ഐസ	-4141
▁ഡിവ	-4142
റ്റിൽ	-4143
▁മേല്‍	-4144
▁വിഷ്ണ	-4145
▁നടപടികൾ	-4146
ൂട്ട	-4147
ൊപ്പ	-4148
▁തൃക്ക	-4149
▁പ്രകാര	-4150
▁വോട്ടര്‍	-4151
▁കൊല്ലപ്പെട്ട	-4152
സ്ഥാന്‍	-4153
▁പ്രഖ്യാപനം	-4154
▁ആഗ്രഹിക്കുന്ന	-4155
▁കളി	-4156
▁അന്തി	-4157
▁ഡല്‍ഹി	-4158
▁അധ്യാപക	-4159
▁എത്തിച്ച	-4160
▁അനുവദിച്ച	-4161
▁ഇസ്രായേ	-4162
▁തോന്നിയ	-4163
▁ഗവര്‍ണര്‍	-4164
▁ശ്രമിക്കുന്ന	-4165
▁വാര	-4166
ളുപ്പ	-4167
▁പോലീസ	-4168
▁എന്‍സി	-4169
▁ചൈനീസ്	-4170
▁കളക്ടര്‍	-4171
▁കുറിപ്പ്	-4172
ിലാ	-4173
▁46	-4174
ിക്കു	-4175
▁നന്ന	-4176
▁പുരസ്	-4177
പ്പെടും	-4178
▁പാകിസ്ത	-4179
▁രീതിയിൽ	-4180
▁പിന്നില്‍	-4181
സാദ്	-4182
▁ടീം	-4183
▁കപ്പ	-4184
▁ില്‍	-4185
ാറുണ്ട്	-4186
▁ില്ലെന്ന	-4187
▁നല്‍കിയിരുന്നു	-4188
▁അറിയിച്ചിരുന്നു	-4189
ദിന	-4190
ബാദ്	-4191
ഷണല്‍	-4192
▁ച്ചു	-4193
▁വിമത	-4194
ക്കൂട്ട	-4195
▁ചിലര്‍	-4196
▁രോഗമുക്തി	-4197
▁ഉടൻ	-4198
ിയാഴ്ച	-4199
▁പിടിയ	-4200
▁പറയാന്‍	-4201
▁ുണ്ടെന്നും	-4202
ൊരാ	-4203
▁47	-4204
▁പ്ലാ	-4205
▁യോഗി	-4206
ക്കാരെ	-4207
▁നന്ദി	-4208
▁കോടതിയെ	-4209
▁അണ	-4210
▁500	-4211
▁മാവ	-4212
▁ള്‍	-4213
ടുത്ത്	-4214
ലമെന്റ	-4215
▁എന്തെങ്കിലും	-4216
പോലെ	-4217
▁സ്നേ	-4218
▁പശ്ചിമ	-4219
▁49	-4220
▁റീ	-4221
ക്രോ	-4222
ോളജി	-4223
▁കാനഡ	-4224
▁മുഴുവൻ	-4225
ിക്കെതിരെ	-4226
ജ്ര	-4227
ഞ്ജു	-4228
▁ഐക്യ	-4229
▁ഒമ്പ	-4230
▁യുണ്ട്	-4231
▁രംഗത്ത	-4232
▁തുടര്‍ച്ച	-4233
▁ഗം	-4234
▁അധി	-4235
ക്കിൽ	-4236
റാഴ്ച	-4237
▁മാതാ	-4238
▁ബുധനാ	-4239
▁ബിജെപിയെ	-4240
▁വാഗ്ദാനം	-4241
ീയം	-4242
ാക്കണം	-4243
▁ബെംഗളൂ	-4244
▁പുതുതായി	-4245
▁ട്ടി	-4246
▁പതിന	-4247
റ്റിന്	-4248
▁പുറമേ	-4249
▁ബില്ല	-4250
രിക്കാൻ	-4251
▁വരുത്ത	-4252
▁വര്‍ക്ക	-4253
▁ഞായറാഴ്ച	-4254
▁പിടിച്ചു	-4255
▁സീറ്റില്‍	-4256
▁പ്രവര്‍ത്തനം	-4257
▁പാര്‍ട്ടിയുടെ	-4258
േമ	-4259
ളിവ	-4260
▁ജലീ	-4261
ഹാറ	-4262
▁ദൗ	-4263
▁അരു	-4264
ട്ടും	-4265
▁2023	-4266
മാക്കി	-4267
▁ബംഗാള	-4268
▁ിട്ട്	-4269
▁ജസ്റ്റിസ്	-4270
▁പഞ്ചായത്ത	-4271
▁നല്‍കുന്നത്	-4272
വാര	-4273
▁ടീമി	-4274
▁പീഡി	-4275
രിക്കുക	-4276
▁ത്തിയ	-4277
ഹം	-4278
▁ഏർ	-4279
▁ന്ന്	-4280
▁കൊള്ള	-4281
▁ചിന്ത	-4282
▁തയ്യാറായ	-4283
▁ജില്ലകളിൽ	-4284
▁നിര്‍ബന്ധ	-4285
▁സംസാരിച്ച	-4286
▁ക്കുമെന്നും	-4287
▁65	-4288
▁അസ	-4289
▁ജഡ്	-4290
▁തുല	-4291
▁അവധി	-4292
▁സ്വർണ	-4293
▁കര്‍ശന	-4294
▁ചിന്തി	-4295
▁എന്‍ഡിഎ	-4296
▁ബാധിച്ച്	-4297
▁അനുസരിച്ച്	-4298
▁രാജ്യത്തിന്റെ	-4299
▁കൺ	-4300
▁കളിലെ	-4301
വന്‍	-4302
ായ്മ	-4303
▁കാവ	-4304
▁രോഹി	-4305
▁റെഡ്	-4306
പ്റ്റംബ	-4307
▁ക്കുമെന്ന്	-4308
▁ടൂറിസം	-4309
▁പരിഗണന	-4310
▁പൗരത്വ	-4311
▁തങ്ങള്‍	-4312
▁നോട്ടീസ്	-4313
▁പ്രോസിക്യൂ	-4314
▁വെള്ളിയാഴ്ച	-4315
ക്രിയ	-4316
കോട്	-4317
▁പാസ	-4318
▁യുവാവി	-4319
▁തുറന്നു	-4320
▁അഭിപ്രായം	-4321
▁പങ്കെടുത്തു	-4322
ൻഡ്	-4323
▁വിൽ	-4324
▁താലിബ	-4325
▁വിളിച്ചു	-4326
ഷണം	-4327
ാടക	-4328
▁2.	-4329
▁ഉദ	-4330
▁ഒരേ	-4331
ങ്ങാട്	-4332
▁വായ്പ	-4333
▁ക്രിസ്	-4334
▁വ്യാപനം	-4335
▁രാശിക്കാര്‍ക്ക്	-4336
▁സേവ	-4337
രാന്‍	-4338
▁ചെയ്യുക	-4339
▁ശനിയാഴ്ച	-4340
...	-4341
▁വനം	-4342
▁കടന്നു	-4343
▁നടക്കും	-4344
▁പ്പെട്ട	-4345
▁മൗ	-4346
ർദ്ദ	-4347
▁ഡിവൈ	-4348
ര്‍ത്ഥ	-4349
▁തിനാൽ	-4350
▁ആന്റണി	-4351
▁കോണ്‍ഗ്രസ	-4352
▁ത്തിനുള്ള	-4353
▁കൊണ്ടുവന്ന	-4354
▁2024	-4355
▁അതിൽ	-4356
▁കുത്തി	-4357
▁പൊലിസ്	-4358
ഴ്സ്	-4359
▁ഭാരവാ	-4360
▁സിബിഐ	-4361
▁പഞ്ചാബ്	-4362
▁ബ്ലോക്ക്	-4363
▁ഗാന്ധിയുടെ	-4364
ംഗലം	-4365
▁അസം	-4366
▁മോശം	-4367
▁നിർദേശ	-4368
▁തലത്തില്‍	-4369
എന്‍	-4370
▁മോഡ	-4371
▁ശരീര	-4372
ഷ്യല്‍	-4373
▁പ്രകടനം	-4374
▁സ്ഥലത്ത്	-4375
▁കാണുന്നത്	-4376
്യു	-4377
▁ഫു	-4378
▁ഗൗര	-4379
കുന്ന	-4380
റ്റീവ	-4381
▁പ്രാധ	-4382
▁ഇറങ്ങിയ	-4383
in	-4384
ഗി	-4385
▁അതു	-4386
ുപോലെ	-4387
▁പച്ച	-4388
▁രാശി	-4389
ടിച്ച്	-4390
▁നടന്നു	-4391
▁ഏപ്രില്‍	-4392
▁സാഹചര്യത്തിലാണ്	-4393
▁നാടി	-4394
▁കാസര്‍ഗോഡ്	-4395
ാമറ	-4396
ഞ്ചി	-4397
▁ഏഷ്യ	-4398
▁ലൈംഗ	-4399
തിനിടെ	-4400
▁വിതരണ	-4401
▁പ്രാധാ	-4402
▁സ്ത്രീകള്‍	-4403
ഡോ	-4404
▁സംഗ	-4405
▁വേറെ	-4406
▁തർക്ക	-4407
▁ന്യൂനപക്ഷ	-4408
▁വകുപ്പിന്റെ	-4409
▁പ്രഖ്യാപിച്ചു	-4410
പാട	-4411
വരെ	-4412
▁ഫൈ	-4413
▁വെറു	-4414
ത്തിനു	-4415
▁കയറിയ	-4416
▁ജനങ്ങൾ	-4417
▁വരെയാണ്	-4418
▁നിര്‍ത്തി	-4419
▁വിമര്‍ശനം	-4420
ാവശ	-4421
പര്യ	-4422
▁റാവ	-4423
▁ഉപേക്ഷ	-4424
▁ഭക്ഷ്യ	-4425
▁വ്യവസായ	-4426
▁സമ്പര്‍ക്കം	-4427
എസ്പി	-4428
തിന്റെ	-4429
▁കളുമായി	-4430
▁തിനുള്ള	-4431
▁സൂപ്പര്‍	-4432
▁സെപ്റ്റംബ	-4433
▁ഉൾപ്പെടെയുള്ള	-4434
▁42	-4435
ക്ട്	-4436
▁അസോ	-4437
▁നിയന്ത്രണം	-4438
വേഷണ	-4439
ാമെന്ന്	-4440
▁മേഖലയിൽ	-4441
▁ട്വീറ്റ്	-4442
തിൽ	-4443
▁മല്‍സ	-4444
▁രക്ഷാ	-4445
▁വാഹനം	-4446
▁ദിവസത്തെ	-4447
▁ഇന്ത്യയിൽ	-4448
▁സംവ	-4449
▁ഹൈദ	-4450
▁ഗ്രാ	-4451
▁കേള്‍	-4452
▁വിശദീകരണം	-4453
▁കിര	-4454
▁ജോർ	-4455
▁മ്പ	-4456
▁പുരുഷ	-4457
▁കണ്ടത്	-4458
▁മടങ്ങ	-4459
▁നോക്കി	-4460
▁ഹര്‍ജി	-4461
ിട്ടുള്ള	-4462
▁മന്ത്രാലയ	-4463
▁പരിശോധനയ്ക്ക്	-4464
▁ശശി	-4465
▁ജാതി	-4466
▁വിമർശന	-4467
▁വരുമാനം	-4468
▁വ്യക്തമായ	-4469
▁സമ്മാനം	-4470
▁സര്‍വ്വ	-4471
▁മോദിയുടെ	-4472
▁ക്കുറിച്ച	-4473
▁രാഷ്ട്രീയം	-4474
▁എഫ	-4475
▁ശര	-4476
ഞ്ഞാറ	-4477
▁വൈറല	-4478
▁വില്ല	-4479
▁അഭിമാന	-4480
▁നിതീഷ്	-4481
▁ഒരുക്കിയ	-4482
▁സ്വര്‍ണം	-4483
വറ	-4484
▁മസ്	-4485
▁തിനായി	-4486
▁എങ്കിലും	-4487
▁വ്യക്തമാക്കിയത്	-4488
▁ത്രി	-4489
▁പള്ളി	-4490
▁ബാധിത	-4491
▁സര്‍വീസ്	-4492
ീകരിക്കുന്ന	-4493
▁അഴ	-4494
▁ഓട്ട	-4495
▁തനിക്ക	-4496
▁നിൽക്ക	-4497
▁കണക്കിലെ	-4498
▁രാജസ്ഥാന	-4499
▁മണിക്കുട്ട	-4500
ാവകാശ	-4501
ീറ്റ്	-4502
▁കുടി	-4503
▁പൂർണ	-4504
▁അതാണ്	-4505
▁കുത്ത	-4506
▁മകന്‍	-4507
▁സിദ്ദ	-4508
▁അസോസിയ	-4509
▁ഇത്തരമൊരു	-4510
▁കാര്യമാണ്	-4511
▁ബാധിച്ചത്	-4512
▁ചര്‍ച്ചകള്‍	-4513
ർശന	-4514
ുവിനെ	-4515
▁കക്ഷ	-4516
▁പൊളി	-4517
കാര്യം	-4518
പ്പിനെ	-4519
▁മുദ്ര	-4520
▁വാക്സിന	-4521
ഥു	-4522
▁ഗൂഢ	-4523
▁ഗോവ	-4524
ലുകള്‍	-4525
▁ക്രൂര	-4526
▁തോടെയാണ്	-4527
▁ഇപ്പോഴത്തെ	-4528
▁രണ്ടാമത്തെ	-4529
▁തിരഞ്ഞെടുക്ക	-4530
▁അയ്യ	-4531
പരമായി	-4532
▁കുടിയ	-4533
▁ആക്ഷേപ	-4534
▁പഞ്ചാബ	-4535
▁പൊട്ടി	-4536
▁കമ്മീഷന്‍	-4537
▁ക്കുകയാണ്	-4538
▁അന്തിമ	-4539
▁ദിവസവും	-4540
▁നോക്കിയ	-4541
▁ആദ്യത്തെ	-4542
ാസി	-4543
▁നൗ	-4544
▁വു	-4545
▁ിനെ	-4546
ക്കാലിക	-4547
മാണെന്ന്	-4548
▁ഹൈക്കോട	-4549
▁അവതരിപ്പ	-4550
▁ക്യാപ്റ്റ	-4551
▁തിക	-4552
▁ബോർ	-4553
▁കച്ച	-4554
▁ഫിറോസ്	-4555
▁ലൈംഗിക	-4556
▁രാജ്യസഭ	-4557
▁അവര	-4558
▁പാറ	-4559
▁ഭേദഗതി	-4560
▁അല്ലെങ്കില്‍	-4561
▁പൂജ	-4562
ബാധിത	-4563
ര്‍ജി	-4564
▁അങ്ങ	-4565
▁ഡൽഹി	-4566
▁യേയും	-4567
▁എളുപ്പ	-4568
▁ക്രിക്ക	-4569
െടുക്കുന്ന	-4570
▁കര്‍ഷകര്‍	-4571
▁അമേരിക്കന്‍	-4572
▁ചിത്രങ്ങള്‍	-4573
▁നിരീക്ഷണത്തില	-4574
▁തടസ്സ	-4575
▁അതുപോലെ	-4576
▁ക്രിമിന	-4577
▁മണിയോടെ	-4578
▁മറുപടിയ	-4579
▁തരത്തിലുള്ള	-4580
▁സര്‍ക്കാരിന്	-4581
▁പാര്‍ട്ടിയില്‍	-4582
0),	-4583
റാം	-4584
▁ആള്‍	-4585
▁ന്നു	-4586
▁ഇതിനായി	-4587
▁ഉന്നയിച്ച	-4588
ുമായും	-4589
▁എനിക്ക	-4590
▁താല്‍പര	-4591
▁മണിക്ക്	-4592
▁ക്കണമെന്നും	-4593
▁41	-4594
ന്ദ്	-4595
തായും	-4596
▁ആയുധ	-4597
▁കത്തി	-4598
▁തൃശ്ശ	-4599
ില്ലെന്ന	-4600
▁പദ്ധതിയ	-4601
▁സമാനമായ	-4602
▁ത്തിൻ്റെ	-4603
▁അസിസ്റ്റന്റ്	-4604
.30	-4605
▁അബു	-4606
▁ആരോ	-4607
▁തൊഴിൽ	-4608
▁ഭരണഘടന	-4609
▁ഇലക്ട്ര	-4610
▁57	-4611
▁എഐ	-4612
▁ഗവർ	-4613
▁പദവ	-4614
ക്കടത്ത്	-4615
▁വലിയൊരു	-4616
▁ബസ	-4617
▁അറി	-4618
▁യുപ	-4619
▁വൈകീ	-4620
▁മാരുടെ	-4621
▁ആര്‍എസ്	-4622
▁നടത്താന്‍	-4623
കളിലും	-4624
▁വിശേഷ	-4625
ാലിറ്റി	-4626
▁വ്യാപന	-4627
▁നല്‍കും	-4628
▁മോഹന്‍ല	-4629
▁കരുതുന്നത്	-4630
▁ഇന്ധ	-4631
ക്ഷന്‍	-4632
▁പരസ്യ	-4633
▁നിയന്ത്	-4634
▁കൈകാര്യം	-4635
▁വേണ്ടിയാണ്	-4636
തവും	-4637
▁യാഥ	-4638
ാക്കര	-4639
ുണ്ടാ	-4640
പ്പിച്ചത്	-4641
▁സര്‍ട്ടിഫ	-4642
▁a	-4643
ങ്കി	-4644
▁ച്ച്	-4645
▁ത്തും	-4646
▁ശിവസേന	-4647
▁ക്കെതിരായ	-4648
ുപേ	-4649
▁54	-4650
▁സൗദ	-4651
ൊന്ന്	-4652
▁മൊത്തം	-4653
▁പുരുഷന്‍	-4654
▁അപ്രതീക്ഷ	-4655
▁3,	-4656
▁ഫോൺ	-4657
▁ദുരി	-4658
▁മാലി	-4659
▁കമല്‍	-4660
▁പരിശോധനാ	-4661
▁ധനമന്ത്രി	-4662
മുളള	-4663
ക്ഷോഭ	-4664
റ്റിക്	-4665
ാകില്ല	-4666
തിനാല്‍	-4667
ുമൊക്കെ	-4668
▁അവർക്ക്	-4669
▁താണെന്ന്	-4670
▁56	-4671
നിധി	-4672
▁പാവ	-4673
▁ഭാവ	-4674
ശാന്ത്	-4675
▁നൽകിയത്	-4676
▁ബാലചന്ദ്ര	-4677
▁കേന്ദ്രസർക്ക	-4678
പറ	-4679
▁58	-4680
▁കെസി	-4681
▁ടാസ്	-4682
▁ശമ്പള	-4683
▁സീറ്റുകള	-4684
▁ഡെപ	-4685
▁താൽ	-4686
▁സാധന	-4687
▁ക്ലാസ	-4688
▁സെക്ക	-4689
▁മണിക്കൂറ	-4690
▁പരിശോധിച്ച	-4691
▁താമസിക്കുന്ന	-4692
ാരിക	-4693
▁അതിന	-4694
▁ഭാരത്	-4695
മാക്കിയ	-4696
▁പ്രതികരിച്ചത്	-4697
ണർ	-4698
▁കുള	-4699
▁സും	-4700
▁ചുരു	-4701
▁സച്ചിന്‍	-4702
▁ചൊവ്വാഴ്ച	-4703
▁തൃക്കാക്കര	-4704
▁പട്ടികയില്‍	-4705
▁ബിജെപിയില്‍	-4706
ൊഴ	-4707
െയിന	-4708
▁ജോല	-4709
▁കൈയ്യ	-4710
▁പരാമർശ	-4711
▁പൊതുജന	-4712
▁മണിപ്പ	-4713
▁കോടതിയിൽ	-4714
▁പുറപ്പെടു	-4715
ദ്മി	-4716
▁സഹി	-4717
ാമെന്ന	-4718
▁കാണാം	-4719
▁മെച്ച	-4720
▁യൂണിയ	-4721
▁തെലങ്ക	-4722
▁വരുമ്പ	-4723
▁സംഘടനാ	-4724
▁സുപ്രീംകോടതി	-4725
ശു	-4726
തുണ്ട്	-4727
▁കാരണമ	-4728
▁ക്കാം	-4729
▁തെലങ്കാന	-4730
▁ഘട്ടത്തില്‍	-4731
ോഹ	-4732
▁ഡ്	-4733
പഞ്ച	-4734
▁ശബ്ദ	-4735
▁അനില്‍	-4736
▁പെൺകുട്ട	-4737
▁ചെയ്തിട്ട	-4738
▁ഓഗ	-4739
രായി	-4740
ജ്രിവ	-4741
▁സീസണ	-4742
▁വിജയൻ	-4743
▁കേസുകൾ	-4744
▁കോർപ്പറ	-4745
▁മേൽ	-4746
▁സൗഹൃ	-4747
മെന്നാണ്	-4748
▁തുടർന്ന	-4749
▁വാര്‍ഡ്	-4750
ിറ	-4751
▁5,	-4752
▁വേദന	-4753
▁അതോറി	-4754
▁എസ്പി	-4755
▁ഓപ്പറ	-4756
▁പത്രിക	-4757
▁സര്‍വേ	-4758
▁പെണ്‍കുട്ടി	-4759
▁പ്രതികരിച്ച	-4760
▁ിന്	-4761
സംഖ്യ	-4762
▁ഇറക്ക	-4763
▁ട്രംപി	-4764
▁കഴിഞ്ഞ്	-4765
▁കാലാവധി	-4766
▁നേടിയത്	-4767
▁ില്ലെങ്കില്‍	-4768
-19	-4769
ാഹി	-4770
ൗണ്ട്	-4771
▁മുറി	-4772
വകുപ്പ്	-4773
ാസം	-4774
▁(7	-4775
▁അതൃ	-4776
▁വിഷയത്തിൽ	-4777
▁പദ്ധതിയുടെ	-4778
വഹ	-4779
ന്നെ	-4780
▁കിലോ	-4781
▁ജമ്മ	-4782
▁കയറ്റ	-4783
▁വിജയി	-4784
▁ആത്മവി	-4785
ീകരിച്ചു	-4786
▁തുടങ്ങിയവ	-4787
▁തുടരുകയാണ്	-4788
ാദ്	-4789
ുകൂ	-4790
▁അദ	-4791
▁വീഴ്ച	-4792
▁വരെയും	-4793
▁ദിവസങ്ങളില്‍	-4794
▁ദളി	-4795
▁ദീപ	-4796
▁ഇക്ക	-4797
▁ക്ഷേമ	-4798
▁സ്ട്ര	-4799
▁ആയിരുന്ന	-4800
▁ബുധനാഴ്ച	-4801
▁ൾ	-4802
▁ഓര്‍	-4803
▁നിർമ	-4804
▁യിലുള്ള	-4805
▁ഒടുവില്‍	-4806
▁പ്രഖ്യാപിച്ചത്	-4807
ർഷ	-4808
രാക	-4809
▁ഒമ	-4810
▁ിട	-4811
▁നെടു	-4812
5),	-4813
ഡിപി	-4814
▁ഇതര	-4815
▁ഒളി	-4816
▁മണ്ണ	-4817
ല്‍പ്പ	-4818
▁കത്ത്	-4819
ർത്തുന്ന	-4820
▁ഇതിലൂടെ	-4821
▁പ്രതികളെ	-4822
ലുള്ള	-4823
▁അംഗം	-4824
▁നാലു	-4825
▁പീഡന	-4826
്യൂട്ട	-4827
▁അതിജീവി	-4828
▁ട്വിറ്റ	-4829
▁യുവാക്ക	-4830
റിലെ	-4831
▁അനൂ	-4832
ന്നൂര്‍	-4833
▁കരുതിയ	-4834
▁ഭാഗമായ	-4835
▁മുന്‍പ്	-4836
▁കാര്‍ഷിക	-4837
▁താണെന്നും	-4838
▁പറയുന്നുണ്ട്	-4839
▁തേട	-4840
ാലാണ്	-4841
ജിത്ത്	-4842
▁കാഞ്ഞ	-4843
▁വര്‍ഷത്തെ	-4844
ുകയാണെന്നും	-4845
ക്സ്	-4846
▁കും	-4847
സ്ഥിതി	-4848
▁പ്രണയ	-4849
▁ട്ടാണ്	-4850
▁ന്യൂസ്	-4851
▁കെജ്രിവ	-4852
▁ഗൗ	-4853
ക്കായി	-4854
▁ആളുകളെ	-4855
▁ഇന്നും	-4856
▁ദക്ഷിണ	-4857
▁വ്യാഴാഴ്ച	-4858
മാക	-4859
▁53	-4860
▁വ്യക്	-4861
▁സൈന്യ	-4862
▁ഗുജറാത്ത്	-4863
▁റെയ്	-4864
▁ഇറങ്ങ	-4865
▁തിരച്ച	-4866
▁മത്സരാ	-4867
പ്രവർത്ത	-4868
▁പോകാന്‍	-4869
ങ്ങളിലേക്ക്	-4870
▁കോൺഗ്രസിന്	-4871
▁തിരുവനന്തപുര	-4872
ലിക	-4873
▁ചട	-4874
യോഗം	-4875
▁എഡി	-4876
▁ക്ലി	-4877
▁ഇദ്ദേഹം	-4878
▁ഉണ്ടായത്	-4879
▁തുടരുന്ന	-4880
ൂട്ട്	-4881
▁പരിധ	-4882
▁ബഹുമ	-4883
▁നടന്‍	-4884
▁രാജീവ്	-4885
▁ദിലീപിന്റെ	-4886
▁മുല്ലപ്പള്ളി	-4887
▁ഏജൻ	-4888
▁നാടക	-4889
▁കൊട്ട	-4890
▁സർവ്വ	-4891
▁കൈമാറിയ	-4892
▁ുണ്ടെന്ന്	-4893
▁സ്ഥാനത്തേക്ക്	-4894
ബോധ	-4895
▁ഹരി	-4896
▁പയ്യ	-4897
▁അഞ്ചു	-4898
ിക്കാനാണ്	-4899
നിക	-4900
യല്‍	-4901
▁ആരെ	-4902
▁ഇയാൾ	-4903
▁ഗുണം	-4904
▁ട്രാ	-4905
▁അഭിനയ	-4906
▁ഗതാഗത	-4907
▁ഒട്ടേറെ	-4908
▁ദൃശ്യങ്ങള്‍	-4909
▁ആശുപത്രിയിലെ	-4910
▁ജീവിതത്തില്‍	-4911
ww	-4912
▁സമി	-4913
▁ഓഹരി	-4914
▁കഴിവ	-4915
▁യോടെ	-4916
▁അടിച്ച	-4917
▁പ്രസിദ്ധ	-4918
▁സുരക്ഷിത	-4919
▁ഇത്തരത്തില്‍	-4920
▁ഇഡി	-4921
എച്ച്	-4922
ാരായണ	-4923
▁ഇന്ധന	-4924
▁വൃത്ത	-4925
▁ത്തോട്	-4926
▁വെട്ടി	-4927
▁മാര്‍ക്ക	-4928
▁എന്തായാലും	-4929
▁ിട്ടില്ലെന്നും	-4930
കീയ	-4931
പത്	-4932
ിരിക്ക	-4933
▁ത്തിന്‍റെ	-4934
▁പങ്കുവെച്ച	-4935
▁52	-4936
▁68	-4937
▁ഗി	-4938
റുടെ	-4939
▁മിഥു	-4940
▁ഇയാളെ	-4941
▁പരസ്പ	-4942
▁ങ്ങളിലും	-4943
▁ഒരുമിച്ച്	-4944
സ്മ	-4945
ഹ്ല	-4946
ത്തിനെ	-4947
▁തൊട്ട	-4948
▁വിനോദ	-4949
▁സംശയം	-4950
▁കിഴക്ക	-4951
▁വിമാനം	-4952
രുതെന്ന്	-4953
▁എടുത്തു	-4954
▁വയനാട്ട	-4955
▁സർട്ടിഫ	-4956
▁ഗൂഢാലോചന	-4957
▁തൊഴിലാളി	-4958
▁പിടിച്ച്	-4959
▁തുടങ്ങിയത്	-4960
ീൻ	-4961
ാന്റെ	-4962
യുണ്ട്	-4963
▁ജോർജ്	-4964
ത്തുള്ള	-4965
▁കഴിയും	-4966
▁തിരക്ക	-4967
▁പങ്കാളി	-4968
ിരുന്നില്ല	-4969
▁രോഗികളുടെ	-4970
▁ശശ	-4971
ക്കുറി	-4972
▁കടക്ക	-4973
▁ജോലിയ	-4974
▁കരാര്‍	-4975
▁സംഘപരി	-4976
▁അതിനാല്‍	-4977
▁തൃണമൂല്‍	-4978
തന	-4979
ഭാവിക	-4980
▁മെട്ര	-4981
▁ുമായി	-4982
▁പിതാവ്	-4983
▁ലോക്ക്ഡ	-4984
▁കുറയ്ക്ക	-4985
▁തകര്‍ന്ന	-4986
▁യോഗത്തിൽ	-4987
▁ഗ്രാമപഞ്ച	-4988
▁പ്രവർത്തകർ	-4989
▁ഓളം	-4990
▁ജൂൺ	-4991
ന്തരം	-4992
▁കൂള്‍	-4993
▁പിടികൂടിയ	-4994
▁വിദേശത്ത്	-4995
▁ണം	-4996
▁ായ	-4997
▁കയറ	-4998
▁നാവ	-4999
▁പുഴ	-5000
▁ലഹരി	-5001
▁കച്ചവ	-5002
▁വർദ്ധ	-5003
▁വയ്ക്ക	-5004
▁അധികൃതർ	-5005
▁എടുത്ത്	-5006
▁പ്രക്ഷോഭ	-5007
▁ളി	-5008
ണല്‍	-5009
ദ്ദി	-5010
▁ആശ്ര	-5011
▁നമ്മൾ	-5012
▁നിമിഷ	-5013
▁മയക്ക	-5014
ില്ലാതെ	-5015
▁ഡോക്ടർ	-5016
▁ലോക്സഭ	-5017
▁വര്‍ധന	-5018
▁തലസ്ഥാന	-5019
▁പ്രഖ്യാപന	-5020
▁യുഡിഎഫിന്	-5021
▁വ്യക്തമല്ല	-5022
ാനിരിക്കുന്ന	-5023
▁ൂ	-5024
▁എംപ	-5025
▁എതിര	-5026
▁ഡിവി	-5027
ുടേയും	-5028
പ്പോഴാണ്	-5029
▁പരാതിയില്‍	-5030
▁ക്കുമ്പോള്‍	-5031
ക്കുകയും	-5032
▁നേതാവും	-5033
▁സീറ്റുകൾ	-5034
▁ക്കണമെന്ന്	-5035
▁നിങ്ങള്‍ക്ക്	-5036
▁ഫേസ്ബുക്കില്‍	-5037
▁അടിസ്ഥാനത്തില്‍	-5038
▁ിൽ	-5039
▁അപ്പ	-5040
▁പ്പെ	-5041
▁വർക്ക	-5042
▁മരുന്ന	-5043
▁സാധിക്കില്ല	-5044
▁വിലയിരുത്തല്‍	-5045
▁ടാ	-5046
▁നാഗ	-5047
▁വെയ്	-5048
ങ്ങളില	-5049
ബ്ലിക്	-5050
▁രിക്ക	-5051
ുവെന്നും	-5052
ബോ	-5053
▁198	-5054
▁നാണ	-5055
േന്ത്യ	-5056
▁ഭിന്ന	-5057
▁ആദിത്യ	-5058
▁നിറഞ്ഞ	-5059
▁അധ്യക്ഷൻ	-5060
▁ഡെപ്യൂട്ടി	-5061
▁ൊരു	-5062
മായത്	-5063
▁ന്‍റെ	-5064
▁എഴുതിയ	-5065
▁വിഷ്ണു	-5066
▁ഇസ്രായേല്‍	-5067
കി	-5068
▁59	-5069
▁ആസൂ	-5070
▁നാം	-5071
▁നുള്ള	-5072
വിരുദ്ധ	-5073
▁നിരക്ക	-5074
▁ബജറ്റ്	-5075
ിക്കാത്ത	-5076
▁പ്രഖ്യാ	-5077
▁ലക്ഷ്യമിട	-5078
▁4,	-5079
▁അള	-5080
ല്ലി	-5081
സ്വാ	-5082
▁ഉപഭ	-5083
▁ബഹി	-5084
▁ഗള്‍	-5085
▁പരിഷ്	-5086
▁സംഘര്‍ഷ	-5087
▁ഒഴിവാക്ക	-5088
ിക്കുമെന്നും	-5089
▁മാധ്യമങ്ങള്‍	-5090
▁വീഴ	-5091
ിയുമായി	-5092
▁യുവാവ്	-5093
ചാര	-5094
ാർഥ	-5095
▁51	-5096
▁ഫ്ല	-5097
▁ലാല	-5098
ിക്കൽ	-5099
▁ഹൈദരാ	-5100
▁അത്തരം	-5101
▁ഏജന്‍സ	-5102
െടുക്കാന്‍	-5103
▁ഉരു	-5104
▁ഐടി	-5105
ംബ്രാ	-5106
വിന്ദ	-5107
ഫ്രിക്ക	-5108
▁മാർച്ച്	-5109
▁തീരുമാനമ	-5110
▁എന്നിവരുടെ	-5111
▁ഓൺ	-5112
ല്‍ഹ	-5113
▁വടകര	-5114
▁ഹരിയ	-5115
▁പൊതുമ	-5116
▁ക്യാമറ	-5117
▁ത്തിനെ	-5118
▁യുടെയും	-5119
ങ്ങളിലായി	-5120
ങ്ങളുമായി	-5121
▁ക്രൈംബ്രാ	-5122
രൂ	-5123
ാശ്	-5124
▁അലി	-5125
▁‍റെ	-5126
▁ആയിര	-5127
▁പാലാ	-5128
▁മുൻപ	-5129
▁രോഗബാധിത	-5130
▁നാട്ടില്‍	-5131
▁രംഗത്തെത്തി	-5132
▁ഏര്‍പ്പെടുത്തിയ	-5133
▁ശങ്ക	-5134
▁കൂട്ടി	-5135
താര	-5136
ാംഗ	-5137
▁ഇരി	-5138
േക്കു	-5139
▁കൈമാറ	-5140
▁അതായത്	-5141
▁യുടേയും	-5142
▁ഉയര്‍ത്ത	-5143
▁ഓണ്‍ലൈന്‍	-5144
▁ന്യൂഡല്‍ഹി	-5145
8),	-5146
ൈസ്	-5147
▁പത	-5148
▁രം	-5149
▁ാവ	-5150
സ്ത്ര	-5151
▁ക്കൂ	-5152
േറ്റര്‍	-5153
▁വോട്ടു	-5154
▁മൊബൈല്‍	-5155
▁ജയിലില്‍	-5156
▁എന്നിവയാണ്	-5157
▁ത്തിനെതിരെ	-5158
▁ക്കുമെന്നാണ്	-5159
▁സയ	-5160
▁ലൈസ	-5161
▁ലോകക	-5162
ാർക്ക്	-5163
▁അറിയില്ല	-5164
▁തീവ്രവാദ	-5165
▁നിർദ്ദേശം	-5166
▁പ്രതികള്‍	-5167
▁മധ്യപ്രദേശ	-5168
ൃഗ	-5169
▁സജി	-5170
▁2014	-5171
▁ആന്ധ	-5172
▁നോട്	-5173
▁രക്ത	-5174
ുകളിലെ	-5175
▁അപകടം	-5176
▁ലക്ഷണ	-5177
▁സന്ദേശ	-5178
▁നിങ്ങളെ	-5179
▁പാടില്ല	-5180
▁പ്രവേശനം	-5181
▁വിദേശകാര്യ	-5182
▁സുരേന്ദ്രൻ	-5183
▁നഷ്ടപ്പെട്ട	-5184
രാഗ	-5185
▁69	-5186
▁ഡീസ	-5187
▁സ്ഥി	-5188
▁തള്ളിയ	-5189
▁സൈന്യം	-5190
▁നമ്പര്‍	-5191
▁ബിജെപിയും	-5192
പ്പിക്കാന്‍	-5193
▁ബുദ്ധിമുട്ട	-5194
▁ട്ട്	-5195
െയില്‍	-5196
▁കാണിച്ച	-5197
▁മടങ്ങിയ	-5198
▁ിലേക്ക്	-5199
▁ബെംഗളൂരു	-5200
ീണ	-5201
▁ഗൗരവ	-5202
▁ഷാജി	-5203
▁അടച്ച	-5204
▁ഇംഗ്ല	-5205
▁ഫോര്‍	-5206
▁പലപ്പോഴും	-5207
▁പ്രത്യേകം	-5208
▁മത്സരാർത്ഥ	-5209
▁ഉപയോഗിക്കുന്ന	-5210
▁വന	-5211
െണ്ണ	-5212
▁പാര	-5213
ക്കാം	-5214
▁വീതവും	-5215
▁അല്ലെങ്കിൽ	-5216
▁സ്ഥാനാര്‍ഥി	-5217
▁തീരുമാനിച്ചത്	-5218
ികളിൽ	-5219
▁തുടര	-5220
▁മട്ട	-5221
▁റെയിൽ	-5222
▁രാജിവെ	-5223
ാണുള്ളത്	-5224
▁ചേർന്ന്	-5225
▁വരികയാണ്	-5226
ക്കണക്കിന്	-5227
▁രാമചന്ദ്ര	-5228
വര	-5229
▁ിറ	-5230
▁വിഭ	-5231
▁ഒരാൾ	-5232
▁കത്ത	-5233
▁താഴ്	-5234
▁ആന്റ്	-5235
▁ജമ്മു	-5236
▁വുമാണ്	-5237
▁കോണ്‍ഗ്രസി	-5238
▁മായിരിക്കും	-5239
▁യുക	-5240
▁വല്ല	-5241
▁കുറവ്	-5242
▁യാദവ്	-5243
▁ദുബായ്	-5244
▁സ്വാധീ	-5245
▁സുധ	-5246
▁ഉത്തർ	-5247
▁തൃശൂർ	-5248
▁മുന്‍ക	-5249
▁വാങ്ങുന്ന	-5250
▁കേന്ദ്രസര്‍ക്ക	-5251
തക	-5252
▁ഇടയ	-5253
▁ജനത	-5254
▁ഫോറ	-5255
▁ജോസഫ	-5256
▁വക്ത	-5257
▁എന്നിവർ	-5258
▁എൽഡിഎഫ്	-5259
▁കമ്മ്യൂണി	-5260
▁എത്തുന്നത്	-5261
▁പൂര്‍ണമായും	-5262
▁ഞെ	-5263
▁ഇടം	-5264
▁ബ്രാ	-5265
▁സഞ്ജ	-5266
ിയിലും	-5267
▁ഇരട്ട	-5268
▁ലോകത്തെ	-5269
▁വൈകുന്ന	-5270
▁വീട്ടിലെ	-5271
▁ആവര്‍ത്തി	-5272
▁പരസ്യമായി	-5273
ിലായിരുന്നു	-5274
▁മുരളീധരന്‍	-5275
▁സമര്‍പ്പിച്ച	-5276
▁A	-5277
ഷ്ഠ	-5278
▁ഏഴ	-5279
▁ഭാഗം	-5280
▁മോഹൻ	-5281
▁വിവേ	-5282
വിന്ദ്	-5283
▁ഭർത്ത	-5284
▁പങ്കുവെ	-5285
▁ശ്രദ്ധേയ	-5286
ിക്കണമെന്നും	-5287
▁കോണ്‍ഗ്രസും	-5288
▁പാർട്ടിയുടെ	-5289
▁ങ	-5290
റാണ്	-5291
ന്ദര്‍	-5292
▁സമീപം	-5293
ര്‍മാന്‍	-5294
▁ശിവശങ്ക	-5295
▁അതിജീവിത	-5296
മായിരിക്കും	-5297
▁ചെയര്‍മാന്‍	-5298
▁വീട്ടിലേക്ക്	-5299
▁രൂപം	-5300
▁വിജില	-5301
ക്കൊള്ള	-5302
▁ഇന്റര്‍	-5303
▁വിശദമായ	-5304
▁സംരക്ഷണ	-5305
▁രഞ്	-5306
▁എതിർ	-5307
തിനുള്ള	-5308
▁വസ്തുക്ക	-5309
▁റെയില്‍വേ	-5310
▁ചെയ്യുകയും	-5311
▁പുറത്തിറക്കിയ	-5312
▁നാമ	-5313
▁എഞ്ച	-5314
▁പ്രശ	-5315
വിറ്റി	-5316
▁ഡാറ്റ	-5317
▁ബോധ്യ	-5318
▁മറികട	-5319
▁ആന്‍ഡ്	-5320
▁തുടർച്ച	-5321
▁ഡയറക്ടര്‍	-5322
▁നിൽക്കുന്ന	-5323
▁മുന്നോട്ടു	-5324
▁ഗ്രാമപഞ്ചായ	-5325
▁മണ്ഡലത്തിലെ	-5326
▁നേതൃത്വത്തിൽ	-5327
പുല	-5328
▁രെ	-5329
▁പഠനം	-5330
▁മനസ്	-5331
▁ആസ്തി	-5332
▁സ്നേഹ	-5333
▁പൂർണ്ണ	-5334
▁നന്നായി	-5335
▁നിർത്തി	-5336
▁കൗണ്‍സില	-5337
▁നിരന്തരം	-5338
▁സംസ്ഥാനം	-5339
▁ഉണ്ടാക്കിയ	-5340
▁കുട്ടികള്‍	-5341
▁കറ	-5342
▁മുഖം	-5343
ക്കിടെ	-5344
▁നൽകാൻ	-5345
▁പറമ്പ	-5346
▁മാത്യ	-5347
▁എറണാകുള	-5348
▁ഇതെല്ലാം	-5349
▁തീരുമാനിച്ചു	-5350
▁വിഭാഗത്തില്‍	-5351
ഹ്മ	-5352
▁ചര	-5353
▁വസ	-5354
▁താന	-5355
▁സന്ന	-5356
ട്ടീവ്	-5357
▁ആരാധക	-5358
▁രാത്ര	-5359
▁എഞ്ചിന	-5360
▁ഹരിയാന	-5361
▁പ്രതിയെ	-5362
▁സതീശന്‍	-5363
▁എപ്പോഴും	-5364
▁ജീവനക്കാര്‍	-5365
▁സര്‍ക്കാരിനെ	-5366
ലജ	-5367
ൻഡ	-5368
▁66	-5369
▁രേ	-5370
▁ഒടുവ	-5371
▁ിച്ച	-5372
ലമെന്റ്	-5373
▁ബാക്കിയ	-5374
▁വ്യാപാര	-5375
▁സ്വാധീനം	-5376
▁വാര്‍ത്തകള്‍	-5377
▁നിയന്ത്രണങ്ങള്‍	-5378
ണിവ	-5379
▁99	-5380
▁പന	-5381
ഫ്റ്റ്	-5382
ാത്തത്	-5383
▁സാംസ്	-5384
റ്റിന്റെ	-5385
▁കൂടിയായ	-5386
▁തെറ്റായ	-5387
▁കോടിയേരി	-5388
▁തട്ടിപ്പ്	-5389
▁വെല്ലുവിള	-5390
▁കോണ്‍ഗ്രസിനെ	-5391
ംഗം	-5392
▁77	-5393
▁കാണാത	-5394
▁സ്വാഗ	-5395
▁ുമാണ്	-5396
ങ്കില്‍	-5397
▁ആണെന്ന്	-5398
▁സൗകര്യം	-5399
▁യാവ	-5400
ജിന്റെ	-5401
▁തുടരും	-5402
▁മാപ്പ്	-5403
▁മുന്നോ	-5404
▁വാര്‍ഡ	-5405
▁ഇവരില്‍	-5406
▁ക്കാര്‍	-5407
മാരായ	-5408
▁താങ്ക	-5409
▁സ്റ്റേ	-5410
▁ടിക്കറ്റ	-5411
▁പോരാട്ടം	-5412
▁ഇറക്കുമതി	-5413
▁കേരളത്തിന്	-5414
▁ഉത്	-5415
▁സിന്	-5416
▁അത്തര	-5417
▁തുടരു	-5418
്മെന്റ്	-5419
▁എന്നിവരെ	-5420
▁ഇതോടെയാണ്	-5421
▁എന്തിനാണ്	-5422
▁ഗുരുതരമായ	-5423
▁യായിരുന്ന	-5424
▁വയസ്സുള്ള	-5425
ിക്കണമെന്ന്	-5426
കക്ഷി	-5427
ന്‍റ്	-5428
▁നായക	-5429
▁വേഗത	-5430
▁ാണെന്ന്	-5431
▁ശതമാനവും	-5432
▁ആക്രമിച്ച	-5433
▁നിങ്ങൾക്ക്	-5434
er	-5435
സാധ	-5436
▁നാട	-5437
▁പത്മ	-5438
▁യുടേ	-5439
▁ജനകീയ	-5440
▁വിന്റെ	-5441
▁സംഭാവന	-5442
ത്തിലായിരുന്നു	-5443
▁63	-5444
ജെഡി	-5445
ാരും	-5446
ൊണ്ട	-5447
▁ഞാന	-5448
വരാണ്	-5449
▁ക്രൂ	-5450
▁ഡല്‍ഹ	-5451
▁പുസ്ത	-5452
▁ഇറങ്ങി	-5453
▁ക്കല്‍	-5454
▁അപ്പോള്‍	-5455
▁നാട്ടുകാര്‍	-5456
▁നിന്നെത്തിയ	-5457
ൗൺ	-5458
▁s	-5459
ഷണൽ	-5460
▁അന്‍	-5461
▁കെകെ	-5462
▁പന്ത	-5463
ിയുമായ	-5464
▁ഖാന്‍	-5465
▁സാഹചര	-5466
തുമുന്ന	-5467
▁ഒരുങ്ങ	-5468
▁കാരന്‍	-5469
തെന്നാണ്	-5470
ുമ്പോഴും	-5471
▁ആരംഭിച്ചത്	-5472
▁ചൂണ്ടിക്കാട്ട	-5473
▁പ്രധാനപ്പെട്ട	-5474
ുകാ	-5475
▁ദാ	-5476
▁ചാല	-5477
▁പ്പി	-5478
▁അഡ്മി	-5479
▁രഹസ്യ	-5480
▁ആസ്ഥാന	-5481
▁ഇന്‍സ്	-5482
▁ട്രെയിന	-5483
▁കാര്യമായ	-5484
▁റിപ്പോർട്ടുകൾ	-5485
ഗണന	-5486
വിടം	-5487
▁സഹിതം	-5488
▁ഡിസിസി	-5489
▁പിയുടെ	-5490
▁മറ്റും	-5491
▁പ്രവാസി	-5492
▁ഇടതുമുന്ന	-5493
▁മത്സരിപ്പ	-5494
▁പ്രദേശത്ത്	-5495
▁300	-5496
ഡിന്റെ	-5497
▁കക്ഷി	-5498
▁താരതമ	-5499
▁പെന്‍	-5500
▁എന്നിവര	-5501
▁മാതാപിത	-5502
▁എന്നിവരും	-5503
▁പുറപ്പെടുവ	-5504
▁നേട്ടങ്ങള്‍	-5505
▁പ്രവർത്തനങ്ങൾ	-5506
▁കൊലപ്പെടുത്തിയ	-5507
സ്ഥത	-5508
▁ക്യൂ	-5509
▁വർധന	-5510
▁രാധാക	-5511
▁കുറ്റം	-5512
▁മയക്കുമ	-5513
▁പോലീസിന്	-5514
▁വൈകിട്ട്	-5515
▁നേരിടേണ്ടി	-5516
▁ില്ലെന്നാണ്	-5517
ണ്യ	-5518
െയർ	-5519
▁ബല	-5520
▁ആക്	-5521
▁ഒഴി	-5522
▁അമരീ	-5523
▁അക്കാ	-5524
▁അബുദാ	-5525
▁മുട്ട	-5526
▁ശര്‍മ	-5527
▁നിർബന്ധ	-5528
▁പിന്തുട	-5529
▁സര്‍വീസ	-5530
േശ്വ	-5531
റ്റും	-5532
ാവാക്	-5533
▁പുനഃ	-5534
▁എഴുതി	-5535
▁ജെഡിയ	-5536
▁ഓടി	-5537
▁ചുവ	-5538
▁സംയു	-5539
▁അതിനു	-5540
▁മരുന്ന്	-5541
▁വർഷത്തെ	-5542
▁കള്‍ക്ക്	-5543
▁ബാലകൃഷ്ണ	-5544
ിക്കണമെന്ന	-5545
▁പ്രതീക്ഷിച്ച	-5546
മീ	-5547
▁ഗ്ല	-5548
▁സസ്	-5549
▁ഡൗണ്‍	-5550
▁വുമായ	-5551
▁സേവനം	-5552
▁സ്പ്ര	-5553
ര്‍ത്ത്	-5554
ിക്കാതെ	-5555
▁അല്ലാതെ	-5556
▁ഡിജിറ്റ	-5557
▁അതോറിറ്റി	-5558
▁ങ്ങളുമായി	-5559
▁പോലീസിന്റെ	-5560
▁മുന്നറിയിപ്പ	-5561
▁രാജ്യങ്ങളില്‍	-5562
▁ിരുന്നുവെന്നും	-5563
ാരെ	-5564
േഷ്യ	-5565
▁ശാര	-5566
ിക്കര	-5567
▁അതീവ	-5568
▁വിഡി	-5569
ത്താന്‍	-5570
▁വോട്ടെടുപ്പ്	-5571
്രമ	-5572
▁ആറു	-5573
▁ല്ലോ	-5574
▁ഹൃദയ	-5575
▁ഫണ്ട്	-5576
▁മുന്‍പ	-5577
▁ലക്ഷ്മി	-5578
▁ഓഗസ്റ്റ്	-5579
▁ഡിസംബര്‍	-5580
▁യത്	-5581
▁ടിവി	-5582
യിലൂടെ	-5583
ക്കെട്ട	-5584
▁ചർച്ചകൾ	-5585
▁ആയിരിക്കും	-5586
▁മുദ്രാവാക്	-5587
▁നിര്‍ദ്ദേശം	-5588
▁തയ്യാറാക്കിയ	-5589
പ്പെട്ടിരുന്നു	-5590
2),	-5591
▁7,	-5592
▁85	-5593
▁അഗ	-5594
▁അൽ	-5595
▁അഗ്	-5596
▁റൂമ	-5597
▁അറ്റ	-5598
▁പുനര	-5599
▁ഇടപാട	-5600
▁കണ്‍ട്ര	-5601
▁മുകളില്‍	-5602
▁സിനേഷന്‍	-5603
▁യഥാര്‍ത്ഥ	-5604
▁കിലോമീറ്റര്‍	-5605
ംബര	-5606
ാരംഭ	-5607
▁വേഷ	-5608
▁ചട്ട	-5609
▁ലോകം	-5610
▁ആന്റി	-5611
▁മുഖേന	-5612
▁സംരംഭ	-5613
▁ില്ലേ	-5614
▁കമ്പനിയ	-5615
▁പുറത്തുവ	-5616
▁യെന്നാണ്	-5617
▁രാജ്യസഭാ	-5618
▁ഉയര്‍ത്തി	-5619
▁ക്കണമെന്ന	-5620
▁കോര്‍പ്പറേഷന്‍	-5621
ിയം	-5622
▁കടു	-5623
▁സംസ	-5624
▁സൂര	-5625
പ്പും	-5626
▁കോവി	-5627
▁കായിക	-5628
▁ഇരിക്ക	-5629
▁റിയാസ്	-5630
▁സാധ്യമ	-5631
▁സീനിയര്‍	-5632
ിപ്പിക്കുന്ന	-5633
▁കോൺഗ്രസിന്റെ	-5634
▁സ്ഥിരീകരിച്ച്	-5635
മൂ	-5636
ഹ്വ	-5637
▁6,	-5638
▁ഉം	-5639
ത്തുക	-5640
▁ഇളവ്	-5641
▁വേട്ട	-5642
▁സ്കൂള	-5643
താശ്വാസ	-5644
ത്തിന്‍റെ	-5645
▁ആഗസ്റ്റ്	-5646
▁ശരിക്കും	-5647
▁എന്തുകൊണ്ട്	-5648
▁ദുരിതാശ്വാസ	-5649
▁ശ്രമിക്കുന്നത്	-5650
ുവര	-5651
പ്പർ	-5652
▁പറയാൻ	-5653
▁വിപുല	-5654
▁യ്ക്കു	-5655
▁പുരോഗതി	-5656
▁മുരളീധര	-5657
▁യാണെന്ന	-5658
▁വിമർശനം	-5659
▁വോട്ടുകൾ	-5660
▁സമ്മേളനം	-5661
▁ിട്ടുണ്ടെന്ന്	-5662
ുല	-5663
▁8,	-5664
▁ഈട	-5665
▁ശുഭ	-5666
▁തില്ല	-5667
▁മലയാളം	-5668
ാമെന്നും	-5669
▁ഭരണകൂടം	-5670
▁കുട്ടിയെ	-5671
▁കോടതിയുടെ	-5672
▁നെഗറ്റീവ്	-5673
▁പെൺകുട്ടി	-5674
▁സത്യപ്രതി	-5675
▁ഹൈക്കമാന്‍	-5676
ാധിക	-5677
▁സിൽ	-5678
▁കാരി	-5679
▁വെക്ക	-5680
ുവെന്ന്	-5681
▁ലക്ഷദ്	-5682
▁ആരംഭിച്ചു	-5683
▁കുട്ടികളെ	-5684
▁പ്രശാന്ത്	-5685
▁മില്ലാത്ത	-5686
ഐഎ	-5687
രാൻ	-5688
ളായ	-5689
▁67	-5690
▁റു	-5691
ോക്ത	-5692
▁മുറ	-5693
വ്യാപ	-5694
▁സിനെ	-5695
▁പരമ്പ	-5696
▁മില്യ	-5697
▁മെന്റ	-5698
▁യൂണിവ	-5699
▁സ്വഭാവ	-5700
▁ചെയ്യാന	-5701
▁നിര്‍മാണ	-5702
▁പ്രസ്ഥാന	-5703
▁സുപ്രധാന	-5704
▁ഏറ്റെടുക്ക	-5705
▁രാഹുലിന്റെ	-5706
▁സത്യപ്രതിജ്ഞ	-5707
9),	-5708
▁ഇനിയ	-5709
▁ഗുരു	-5710
▁തെളി	-5711
▁ദിനം	-5712
▁ഉമ്മൻ	-5713
▁കാണാൻ	-5714
▁സുരേഷ	-5715
▁ഒമ്പത്	-5716
▁തമ്മിൽ	-5717
▁രോഹിത്	-5718
▁സ്റ്റോ	-5719
▁രൂക്ഷമായ	-5720
▁വൈകീട്ട്	-5721
▁രാധാകൃഷ്ണ	-5722
▁സ്വദേശികളായ	-5723
▁എന്നിങ്ങനെയാണ്	-5724
പൊ	-5725
ടിസി	-5726
▁എകെ	-5727
മാകും	-5728
ിലധികം	-5729
▁അശോക്	-5730
▁കമന്റ	-5731
▁മുകേഷ്	-5732
▁യൂണിവേഴ്	-5733
▁ക്കുമ്പോൾ	-5734
▁കണക്കുകള്‍	-5735
▁ായിരിക്കും	-5736
▁78	-5737
▁വാഴ	-5738
▁ശത്	-5739
▁സുമ	-5740
മ്പതി	-5741
▁ആവേശ	-5742
▁കല്യ	-5743
▁ചിലർ	-5744
മുണ്ടാ	-5745
പ്രകാരം	-5746
രുടെയും	-5747
▁കൊവിഡി	-5748
▁താലൂക്ക്	-5749
▁രാജ്യങ്ങള്‍	-5750
കക്ഷ	-5751
▁ദ്ര	-5752
പ്പോഴ	-5753
▁അച്ച	-5754
▁ആരാണ്	-5755
▁പുരോഗമ	-5756
▁ഭരണകൂട	-5757
▁ചെയ്യണം	-5758
ങ്ങളിലാണ്	-5759
▁കരുതുന്ന	-5760
▁പരിശീലനം	-5761
ണോ	-5762
സെ	-5763
3),	-5764
വേഗ	-5765
▁തരം	-5766
കുമാർ	-5767
▁അര്‍ഹ	-5768
▁നാലാം	-5769
▁നിർണായക	-5770
▁പോളിംഗ്	-5771
▁മുണ്ടായ	-5772
▁കഴിയില്ല	-5773
▁ഉദ്യോഗസ്ഥർ	-5774
▁കിടക്കുന്ന	-5775
▁വാടക	-5776
ീന്ദ്ര	-5777
▁ആദ്മി	-5778
▁ക്കാതെ	-5779
▁തായാണ്	-5780
▁ഹാജരാക	-5781
▁അതൃപ്തി	-5782
▁നിർദേശം	-5783
▁ഉള്‍പ്പടെ	-5784
▁അതിര്‍ത്തി	-5785
ഡര്‍	-5786
ഹാര്‍	-5787
▁കുമാറ	-5788
▁ചെലവ്	-5789
▁പിള്ള	-5790
രുടേയും	-5791
▁അക്കാദ	-5792
▁ജയിച്ച	-5793
▁ഡോളര്‍	-5794
▁ഹോട്ട്	-5795
▁കമ്മീഷൻ	-5796
▁സിവില്‍	-5797
▁കുറഞ്ഞത്	-5798
▁തെറ്റിദ്ധ	-5799
▁ഏറ്റുമുട്ട	-5800
▁വീടുകളില്‍	-5801
വലി	-5802
▁വശ	-5803
▁നിഗ	-5804
ദ്വേഷ	-5805
▁അക്ഷ	-5806
▁മഹാമ	-5807
▁ക്കുവ	-5808
പ്പെടുക	-5809
▁രാജേഷ്	-5810
▁പ്രചരണം	-5811
▁ലോകത്ത്	-5812
▁ദിവസമാണ്	-5813
ാണെങ്കില്‍	-5814
▁സീറ്റുകളില്‍	-5815
▁ഇമ	-5816
▁പാന	-5817
പൂര്‍	-5818
▁അംബാനി	-5819
▁കുറച്ചു	-5820
▁ഇത്തവണയും	-5821
പ്രവര്‍ത്തക	-5822
▁കുമാറിന്റെ	-5823
ഷന	-5824
ർജ	-5825
▁യേ	-5826
വീപ്	-5827
▁10,	-5828
▁അനുസ	-5829
▁കർശന	-5830
▁പാസ്	-5831
▁പികെ	-5832
ക്കാരി	-5833
▁കെട്ട	-5834
വെന്നും	-5835
▁ഇതിനോട	-5836
▁ഇറാന്‍	-5837
▁സൈബര്‍	-5838
▁അംഗീകാരം	-5839
▁കുറിച്ചും	-5840
4)	-5841
എൻ	-5842
ബൂ	-5843
ഘാത	-5844
ോഗ്ര	-5845
▁പിന്	-5846
▁ശൈലജ	-5847
ങ്ങളായ	-5848
▁ഉപകരണ	-5849
▁പുത്ത	-5850
▁സത്യം	-5851
▁വക്താവ്	-5852
▁കാര്യത്തിൽ	-5853
▁കാര്യങ്ങളും	-5854
▁11,	-5855
▁മധു	-5856
▁മാരെ	-5857
▁വമ്പ	-5858
▁ദുര്‍	-5859
▁പ്രായം	-5860
▁ചരിത്രം	-5861
▁നടത്താൻ	-5862
▁പൂര്‍ണ്ണ	-5863
▁വ്യത്യസ്	-5864
▁ആവശ്യമാണ്	-5865
▁കുടിയേറ്റ	-5866
▁ചടങ്ങില്‍	-5867
▁അതുകൊണ്ടാണ്	-5868
ചക	-5869
ബുല	-5870
▁3.	-5871
ത്സവ	-5872
ര്‍ജ	-5873
വ്യൂ	-5874
ാർഥി	-5875
▁ആര്യ	-5876
▁പ്രസ്	-5877
▁ശ്രീക	-5878
▁ഹെല്‍	-5879
▁നാരായണ	-5880
▁ഭാരവാഹ	-5881
▁പ്രശ്നം	-5882
▁പ്രത്യേകത	-5883
▁വാര്‍ത്താ	-5884
▁കുട്ടികളുടെ	-5885
▁എല്ലാവര്‍ക്കും	-5886
ാണു	-5887
▁",	-5888
▁രവി	-5889
▁രാം	-5890
▁ശുപ	-5891
നിര്‍	-5892
ുവിന്	-5893
▁പ്രീ	-5894
ാഴ്ച്ച	-5895
▁പാമ്പ	-5896
▁മാരായ	-5897
റ്റാണ്ട	-5898
▁ഇന്ത്യാ	-5899
▁ഉത്തരവി	-5900
▁എഞ്ചിനീയ	-5901
▁പോസിറ്റീവ്	-5902
▁രാഷ്ട്രപതി	-5903
▁മത്സരിക്കുന്ന	-5904
വാള	-5905
▁ഓണ	-5906
എഫ്ഐ	-5907
വാരണ	-5908
▁ബഹു	-5909
▁ഭവന	-5910
▁ഹോം	-5911
ാക്കോ	-5912
▁വർധി	-5913
▁ഹർജി	-5914
▁മാറും	-5915
▁പരാതിയ	-5916
▁ഇല്ലാതെ	-5917
▁തകര്‍ക്ക	-5918
▁ചന്ദ്രശേഖ	-5919
▁ഭരിക്കുന്ന	-5920
താം	-5921
ത്തറ	-5922
▁ആഹ്വ	-5923
▁ആൻഡ്	-5924
▁ഉറവിടം	-5925
▁എടുത്തി	-5926
▁സന്തോഷം	-5927
ുകയാണെന്ന്	-5928
▁മുന്നോടിയ	-5929
ായിരുന്നില്ല	-5930
▁ചോദ്യത്തിന്	-5931
▁കേന്ദ്രസർക്കാർ	-5932
ലാം	-5933
▁എട	-5934
ബന്ധന	-5935
▁പമ്പ	-5936
▁പരിശോ	-5937
▁പൊതുവ	-5938
▁മുറിയ	-5939
▁ആശ്വാസ	-5940
▁വസ്ത്ര	-5941
▁ക്കൊപ്പ	-5942
▁വേണ്ടത്	-5943
നുസരിച്ച്	-5944
▁ഉളള	-5945
▁ഗെല	-5946
▁തേജ	-5947
െട്ട്	-5948
▁മാരും	-5949
▁ആനുകൂല	-5950
▁തിലൂടെ	-5951
▁മാക്കി	-5952
▁സർവീസ്	-5953
▁ഇതുമായി	-5954
▁ഇതിനോടകം	-5955
▁വേളയില്‍	-5956
▁വ്യത്യസ്ത	-5957
▁എന്നിങ്ങനെ	-5958
▁കുട്ടിയുടെ	-5959
▁സ്വര്‍ണവില	-5960
▁കുറിച്ചുള്ള	-5961
▁ഉണ്ടായിരുന്നത്	-5962
റേ	-5963
▁ഫൈന	-5964
▁ഡിഎം	-5965
▁ലീഡ്	-5966
▁ക്കിയ	-5967
▁ഗെയിം	-5968
▁അതിക്രമ	-5969
▁ഉണ്ടാവും	-5970
▁നേതാവാണ്	-5971
▁വ്യാപാരി	-5972
▁കളിലേക്ക്	-5973
▁കാലാവസ്ഥാ	-5974
▁ജില്ലകളിലും	-5975
4),	-5976
▁അണി	-5977
▁കവി	-5978
▁ലഖ്	-5979
▁മഞ്ഞ	-5980
ാരോഗ്യ	-5981
▁ആളാണ്	-5982
▁കശ്മീ	-5983
▁മിക്ക	-5984
▁നിലനിൽ	-5985
▁പ്രമേയ	-5986
▁വികസനം	-5987
▁ഉണ്ടെന്ന്	-5988
ാമത്	-5989
ഴിഞ്ഞു	-5990
▁ചാര്‍	-5991
ര്‍ക്ക്	-5992
▁ആവർത്തി	-5993
▁ഗോവിന്ദ	-5994
▁വന്നതോടെ	-5995
▁പരിഹരിക്ക	-5996
▁ദില്ലിയില്‍	-5997
▁മന്ത്രിയുടെ	-5998
▁എത്തിയിരുന്നു	-5999
മുറ	-6000
▁72	-6001
ുകയോ	-6002
▁ചങ്ങ	-6003
▁ആംബുല	-6004
▁ജീവന്‍	-6005
▁നിർത്ത	-6006
▁പരിഹാര	-6007
▁ഉയർത്തി	-6008
▁നാട്ടിലെ	-6009
▁നാട്ടുകാര	-6010
▁അംഗീകരിച്ച	-6011
▁ചികിത്സയില്‍	-6012
ഡിൽ	-6013
വീന	-6014
▁കഠ	-6015
▁....	-6016
▁ദമ്പതി	-6017
▁ിക്കാന	-6018
▁കുറവാണ്	-6019
▁സ്ഥലത്തെ	-6020
▁കുടുംബാംഗ	-6021
▁അറസ്റ്റിലായ	-6022
▁കേന്ദ്രമന്ത്രി	-6023
കൃ	-6024
6),	-6025
വേള	-6026
േഡ്	-6027
▁76	-6028
▁96	-6029
ടിവി	-6030
▁ഇവിട	-6031
ാനില്‍	-6032
▁തുമായ	-6033
▁ദേവസ്	-6034
▁പറയാന	-6035
്യൂട്ട്	-6036
▁കോട്ടയ	-6037
▁സന്ദേശം	-6038
▁ക്കുമെന്ന	-6039
▁ചെയ്യേണ്ട	-6040
▁വ്യാപകമായി	-6041
▁അപേക്ഷിക്കാം	-6042
▁വന്നിട്ടുണ്ട്	-6043
▁64	-6044
മിറ്റ	-6045
രുക്ക	-6046
ർത്ത്	-6047
ിലായത്	-6048
▁അജിത്	-6049
▁മാക്ക	-6050
▁മിശ്ര	-6051
ന്റിന്റെ	-6052
▁തിരുമാന	-6053
▁പ്രമേയം	-6054
▁സർക്കാരിന്	-6055
▁ഉത്തരവാദിത്ത	-6056
ത്താ	-6057
▁400	-6058
▁എട്ട	-6059
▁ഇക്കുറി	-6060
▁എത്രയും	-6061
▁ഓഫീസില്‍	-6062
▁സ്വാഭാവിക	-6063
▁അഭ്യര്‍ത്ഥ	-6064
▁രാജസ്ഥാന്‍	-6065
ക്കുന്നുണ്ട്	-6066
▁ജനങ്ങള്‍ക്ക്	-6067
▁പ്രിയപ്പെട്ട	-6068
▁സംഘടിപ്പിച്ച	-6069
▁മണിക്കൂറിനിടെ	-6070
ഡെ	-6071
▁ാം	-6072
വാണ്	-6073
സിസ്	-6074
▁കേൾ	-6075
▁ിലെ	-6076
▁ജഡ്ജി	-6077
▁ദുബായ	-6078
▁പരിഹസ	-6079
▁പൗരന്	-6080
▁സൗഹൃദ	-6081
▁കുറച്ച	-6082
▁കുറ്റപ	-6083
▁ഇത്തരത്തിൽ	-6084
▁നിയമസഭയില്‍	-6085
▁സാധ്യതയുള്ള	-6086
റുമ	-6087
ൽക്ക	-6088
▁യൂറോ	-6089
▁ഒരാളെ	-6090
▁യാത്രാ	-6091
▁വരാന്‍	-6092
▁ജനസംഖ്യ	-6093
▁ഉറപ്പാണ്	-6094
▁വന്നാല്‍	-6095
▁പഞ്ചായത്തിലെ	-6096
▁അടിസ്ഥാനത്തിൽ	-6097
▁ഉദ്യോഗാര്‍ത്ഥ	-6098
▁സ്വീകരിക്കുന്ന	-6099
േറ	-6100
പുര	-6101
മാൻ	-6102
റായ	-6103
▁വം	-6104
▁പൈസ	-6105
▁മൊഴ	-6106
▁മറിയ	-6107
▁ൻ്റെ	-6108
▁ലൈന്‍	-6109
▁ഇപ്പോഴി	-6110
▁ഖത്തര്‍	-6111
▁കണക്കുകൾ	-6112
▁രജിസ്റ്റർ	-6113
▁പ്രത്യേകിച്ച്	-6114
▁വെളിപ്പെടുത്തിയ	-6115
വൻ	-6116
▁197	-6117
▁കൗൺ	-6118
ഡിറ്റ്	-6119
ര്‍ട്ട	-6120
▁പാക്ക	-6121
▁പേർക്ക	-6122
▁ബഹുമാന	-6123
▁കൊട്ടാര	-6124
▁പൈലറ്റ്	-6125
▁വിദ്വേഷ	-6126
▁അടക്കമുളള	-6127
▁എങ്ങനെയാണ്	-6128
▁ക്രൈംബ്രാഞ്ച്	-6129
മിക്	-6130
ശ്രീ	-6131
▁ആര്	-6132
▁പൊള	-6133
▁അതിശ	-6134
▁അസ്വ	-6135
▁ലാഭം	-6136
▁ദളിത്	-6137
▁മാണിത്	-6138
▁ഇയാളുടെ	-6139
▁ബംഗാള്‍	-6140
▁പ്രധാനമായും	-6141
▁എംഎല്‍എമാര്‍	-6142
കേ	-6143
ഗ്ന	-6144
ാൻസ്	-6145
▁പെട	-6146
▁2000	-6147
▁അതും	-6148
▁ിലും	-6149
▁അതിഥി	-6150
▁ഓഫീസർ	-6151
▁ജോണ്‍	-6152
റ്റിവിറ്റി	-6153
▁യ്ക്കുള്ള	-6154
▁ഉച്ചയ്ക്ക്	-6155
പ്പെടുത്താന്‍	-6156
ചേ	-6157
▁വകഭ	-6158
▁വേഗം	-6159
▁പ്രയാ	-6160
▁അതിവേഗ	-6161
▁യുദ്ധം	-6162
▁ദേവസ്വം	-6163
▁സന്തോഷ്	-6164
▁സാമ്പിളുകളാണ്	-6165
ഡിന	-6166
▁റൈ	-6167
▁നടൻ	-6168
▁ഒന്നര	-6169
▁മടങ്ങി	-6170
ത്തിലധികം	-6171
▁കണ്ടെത്താന്‍	-6172
▁പരാജയപ്പെട്ട	-6173
ഷോ	-6174
ലുകൾ	-6175
▁വർധ	-6176
ങ്കിൽ	-6177
മംഗലം	-6178
▁വാട്	-6179
▁വീഴ്	-6180
ടിച്ചു	-6181
▁പോകാൻ	-6182
▁യെല്ലോ	-6183
▁രോഗബാധ	-6184
▁ഇതൊക്കെ	-6185
▁തയ്യാറെ	-6186
▁പരസ്പരം	-6187
▁ശതമാനമാണ്	-6188
▁കഴിയുന്നത്	-6189
▁നടത്തുകയും	-6190
▁ലായിരുന്നു	-6191
▁നൽകിയിട്ടുണ്ട്	-6192
ഖം	-6193
സ്പെ	-6194
▁കളോ	-6195
▁ഞ്ഞ	-6196
▁എഎപി	-6197
▁ഗര്‍	-6198
▁ന്നും	-6199
▁സെന്‍	-6200
▁രണ്ടും	-6201
▁വാക്ക്	-6202
ന്തരീക്ഷ	-6203
യ്ക്കായി	-6204
▁ജനപ്രതി	-6205
▁പ്രവേശന	-6206
▁വിലക്ക്	-6207
▁പുലര്‍ച്ച	-6208
▁പ്രചരിപ്പ	-6209
▁രാജേന്ദ്ര	-6210
▁നിലവിലുള്ള	-6211
▁കണ്‍ട്രോള്‍	-6212
▁നിരീക്ഷണത്തില്‍	-6213
2)	-6214
▁ഡൊ	-6215
▁ിയ	-6216
▁കഥാ	-6217
്ക്ക്	-6218
▁അങ്ക	-6219
▁ഭാവി	-6220
▁സായി	-6221
▁പന്തി	-6222
▁പറ്റി	-6223
▁ഫലപ്ര	-6224
▁മാകും	-6225
▁മൂല്യ	-6226
▁റിക്ര	-6227
▁ഏപ്രിൽ	-6228
▁പ്പോഴും	-6229
▁മര്‍ദ്ദ	-6230
▁തയ്യാറാക	-6231
▁സര്‍ക്കാ	-6232
▁സ്റ്റേറ്റ്	-6233
▁അധികാരത്തിലെ	-6234
▁സ്ഥാപനങ്ങള്‍	-6235
▁മാധ്യമങ്ങളോട്	-6236
നീ	-6237
▁വ്	-6238
▁ാക	-6239
▁മജി	-6240
തിനാൽ	-6241
യാത്ര	-6242
▁അനധിക	-6243
▁അഭ്യൂ	-6244
▁എതിരാ	-6245
▁തീര്‍	-6246
▁ഭാഗ്യം	-6247
▁മുന്നില	-6248
▁പ്രേക്ഷക	-6249
ട്ടിരുന്നു	-6250
▁ഇപ്പോഴിതാ	-6251
▁വിജയിച്ചത്	-6252
▁പരിപാടിയില്‍	-6253
എൽ	-6254
▁79	-6255
▁നൈ	-6256
▁ഭീ	-6257
ട്യൂ	-6258
▁എംബ	-6259
▁കാമ	-6260
▁നേഹ	-6261
▁മൃഗ	-6262
▁വലു	-6263
ിട്ടു	-6264
യിച്ച്	-6265
▁ബോര്‍	-6266
▁ഞെട്ടി	-6267
▁പറ്റിയ	-6268
പ്പെടുകയും	-6269
▁ആരോഗ്യമന്ത്രി	-6270
▁ആവശ്യപ്പെട്ടത്	-6271
ീൽ	-6272
▁c	-6273
ീരിക	-6274
▁ഫിന	-6275
▁അഖിൽ	-6276
▁കിരീ	-6277
▁ഹൗസ്	-6278
സിനോട്	-6279
▁ഉപരോധ	-6280
▁പങ്ക്	-6281
▁പ്ലസ്	-6282
▁ചെയര്‍	-6283
▁അങ്ങനെയ	-6284
▁ക്രിസ്ത്യ	-6285
▁ജീവിതത്തിൽ	-6286
▁രൂപീകരിച്ച	-6287
▁ചോദിക്കുന്നു	-6288
▁74	-6289
▁97	-6290
▁വന്	-6291
▁2015	-6292
▁ശരാശ	-6293
▁യെയും	-6294
▁വ്യോമ	-6295
▁ഹര്‍ജ	-6296
▁പരിഹാരം	-6297
ാണെന്നാണ്	-6298
▁കാസർഗോഡ്	-6299
▁ആര്‍ക്കും	-6300
പ്പെടുത്തുക	-6301
▁വ്യക്തിയാണ്	-6302
ൃഹ	-6303
ലിശ	-6304
ലോക	-6305
▁73	-6306
▁88	-6307
▁89	-6308
▁ജനം	-6309
▁മുട	-6310
രുതെന്നും	-6311
▁നിര്‍മ്മാണ	-6312
▁ത്തിലായിരുന്നു	-6313
▁ദശ	-6314
ബദ്ധ	-6315
ളില്‍	-6316
▁കഷ്ട	-6317
▁ഭാരത	-6318
മിന്റെ	-6319
▁ഗണേഷ്	-6320
▁പോകും	-6321
▁പ്രളയ	-6322
▁ബംഗ്ല	-6323
▁യഥാർത്ഥ	-6324
▁വര്‍ഗീയ	-6325
▁ഇന്ത്യയെ	-6326
▁വളര്‍ച്ച	-6327
▁62	-6328
എല്ല	-6329
▁ജയ്	-6330
തിനും	-6331
▁2011	-6332
▁ശക്ത	-6333
ച്ചിത്ര	-6334
▁നവംബര്‍	-6335
▁ലഭിക്കുക	-6336
▁പങ്കുവച്ച	-6337
▁ദിവസങ്ങളിൽ	-6338
▁ഒറ്റപ്പെട്ട	-6339
▁വിദ്യാര്‍ത്ഥി	-6340
ര്	-6341
പ്ത	-6342
▁4.	-6343
▁തില	-6344
ുമല്ല	-6345
▁മുനി	-6346
ാന്‍ഡ്	-6347
▁പാട്ട	-6348
▁ഇതിനകം	-6349
▁കളക്ടർ	-6350
▁ഏഷ്യാനെ	-6351
▁ങ്ങളിലെ	-6352
ണമെങ്കില്‍	-6353
▁ഇക്കഴിഞ്ഞ	-6354
▁കേസുകളാണ്	-6355
▁പ്രായമുള്ള	-6356
▁ഇടതുമുന്നണി	-6357
▁ചൂണ്ടിക്കാട്ടിയ	-6358
▁സൊ	-6359
▁രവീ	-6360
ജിനീയ	-6361
രേയും	-6362
▁ആദിവ	-6363
▁ആശംസ	-6364
▁ക്കുമ	-6365
▁നേരിയ	-6366
▁ബീഹാറ	-6367
റ്റിറ്റ	-6368
▁െടുക്ക	-6369
▁കഴിയാത്ത	-6370
▁വിശ്വാസം	-6371
▁താലിബാന്‍	-6372
▁നിലപാടാണ്	-6373
കുളം	-6374
മ്പി	-6375
▁പാഠ	-6376
▁പേജ	-6377
▁ശരി	-6378
ലാത്സ	-6379
▁കളായ	-6380
▁യാണോ	-6381
▁വിപണി	-6382
▁അഹമ്മദ്	-6383
▁കളിലൂടെ	-6384
▁അതുകൊണ്ട	-6385
▁അധ്യക്ഷത	-6386
▁കുഞ്ഞിനെ	-6387
▁കൊലപാതകം	-6388
▁പ്രതിയായ	-6389
▁ഉയര്‍ന്നു	-6390
▁ഉറപ്പാക്ക	-6391
▁വോട്ടെണ്ണ	-6392
▁കസ്റ്റഡിയിലെ	-6393
▁തെളിയിക്കുന്ന	-6394
ടനീ	-6395
ക്കയ	-6396
പരിഹ	-6397
▁രഹസ	-6398
രമൊരു	-6399
▁ഭക്ത	-6400
▁ചെലവഴ	-6401
▁കാരനായ	-6402
▁അഫ്ഗാനി	-6403
▁ഉയരുന്ന	-6404
▁കുറ്റകൃ	-6405
▁പ്രസാദ്	-6406
▁പ്പോഴാണ്	-6407
▁വെച്ചാണ്	-6408
▁ിക്കുന്ന	-6409
▁പരാമര്‍ശം	-6410
▁തള	-6411
ദാസ്	-6412
ുവും	-6413
▁നാശ	-6414
▁ഇറ്റ	-6415
▁കരിയ	-6416
▁സ്ഥാ	-6417
ക്കല്‍	-6418
ചാണ്ടി	-6419
▁ചാണ്ട	-6420
▁പക്ഷം	-6421
▁വർഗീയ	-6422
▁ശരിയായ	-6423
▁ബോര്‍ഡ്	-6424
▁രേഖകള്‍	-6425
▁കോളേജില്‍	-6426
▁വേണമെന്ന്	-6427
▁പുറത്തുവിട്ട	-6428
al	-6429
▁കെഎം	-6430
▁ഡിസ്	-6431
▁സല്‍	-6432
▁ഒത്തു	-6433
▁ജാമ്യ	-6434
▁പലയിട	-6435
▁നടപ്പാക്ക	-6436
▁സിനിമയുടെ	-6437
ഖി	-6438
പം	-6439
ാനു	-6440
മ്പാ	-6441
▁ക്വ	-6442
▁കരുതി	-6443
▁നടിയെ	-6444
▁അന്നത്തെ	-6445
▁പ്രോട്ടോ	-6446
▁സിനിമയില്‍	-6447
▁നാട്ടിലേക്ക്	-6448
▁ുണ്ടെങ്കിലും	-6449
▁പ്രദേശങ്ങളില്‍	-6450
ൻറെ	-6451
മിന്	-6452
▁ഒതു	-6453
▁സെൻ	-6454
▁ലൈഫ്	-6455
▁വഴിയ	-6456
വർക്ക്	-6457
▁പരിധി	-6458
്യമില്ല	-6459
▁നശിപ്പ	-6460
▁പ്രതിഫല	-6461
▁മാറ്റിവ	-6462
▁സന്നദ്ധ	-6463
▁തമിഴ്നാട്	-6464
▁വര്‍ഷമായി	-6465
▁കാസര്‍കോട്	-6466
▁സ്ഥാനാര്‍ഥ	-6467
▁പാര്‍ലമെന്റ	-6468
ഡറ	-6469
1),	-6470
മിതി	-6471
▁അസു	-6472
▁ഉപാ	-6473
▁നിഷ	-6474
▁അത്ഭ	-6475
▁പാലം	-6476
കൾക്ക്	-6477
ിക്കാന	-6478
▁നെതിരെ	-6479
റ്റുകള്‍	-6480
▁ത്തിയത്	-6481
▁പ്രകാശ്	-6482
▁കോടിയുടെ	-6483
▁സാധിച്ചു	-6484
▁മമ്മൂട്ടി	-6485
▁രക്ഷപ്പെട	-6486
▁വാക്സിന്‍	-6487
▁എടുക്കുന്ന	-6488
▁വിദ്യാർത്ഥി	-6489
ലിലെ	-6490
▁ുളള	-6491
▁സുനി	-6492
▁തിലും	-6493
▁തോറ്റ	-6494
▁കടന്ന്	-6495
▁തിനിടെ	-6496
▁റിന്റെ	-6497
▁ആശുപത്രികളില്‍	-6498
▁തളി	-6499
▁േഴ്	-6500
▁വെടിയ	-6501
▁വര്‍ക്കും	-6502
ര്‍ക്കെതിരെ	-6503
▁കേസുകളില്‍	-6504
സഹ	-6505
ിംഗ്	-6506
ള്‍ഡ്	-6507
▁ജന്മ	-6508
▁പലിശ	-6509
▁ല്ലേ	-6510
ലിക്കാ	-6511
▁തോട്ട	-6512
▁ബില്യ	-6513
▁അഖില്‍	-6514
നത്തില്‍	-6515
▁കസ്റ്റഡ	-6516
▁തോതില്‍	-6517
▁സ്വർണ്ണ	-6518
▁കഴിഞ്ഞാല്‍	-6519
▁പാര്‍ട്ടിക്ക്	-6520
ഭൂ	-6521
▁ധൈ	-6522
ഗ്രി	-6523
ര്‍ദ	-6524
ുള്ളി	-6525
▁കരാർ	-6526
▁കാരം	-6527
▁സ്പെ	-6528
▁അട്ടിമറി	-6529
▁അധിക്ഷേപ	-6530
▁ജയരാജന്‍	-6531
▁ചലച്ചിത്ര	-6532
▁എന്നിവയുടെ	-6533
▁മണിക്കൂറിൽ	-6534
▁സാധിക്കുന്ന	-6535
▁സ്വീകരിച്ചത്	-6536
▁തുടര്‍ച്ചയായി	-6537
▁തിള	-6538
▁രും	-6539
സംഘടന	-6540
▁ണ്ട്	-6541
▁കളോട്	-6542
▁ലോകാര	-6543
▁ിക്കാൻ	-6544
▁പിന്നിൽ	-6545
▁സുധാകരൻ	-6546
▁പൊലീസിന്	-6547
▁രജിസ്ട്ര	-6548
▁അംഗങ്ങള്‍	-6549
▁പരിഗണിച്ച	-6550
▁ലോകാരോഗ്യ	-6551
▁ആര്‍എസ്എസ്	-6552
▁പ്രവർത്തനം	-6553
▁പ്രശ്നങ്ങൾ	-6554
▁വിദ്യാര്‍ഥ	-6555
▁സഹായത്തോടെ	-6556
▁വേണ്ടിയുള്ള	-6557
ൻ്റ്	-6558
▁റും	-6559
▁ഡബ്ല	-6560
▁മന്‍	-6561
▁ഇന്റർ	-6562
▁കാണാന	-6563
▁പൊലീസ	-6564
▁വരില്‍	-6565
▁ശസ്ത്ര	-6566
▁കൂട്ടിയ	-6567
▁അരവിന്ദ്	-6568
▁പറഞ്ഞാല്‍	-6569
▁ഭര്‍ത്താവ്	-6570
ഗാ	-6571
ടപ	-6572
നഷ്ട	-6573
▁ചുഴ	-6574
▁നറു	-6575
▁ഫോട	-6576
ക്രമണ	-6577
പരിധി	-6578
ിക്കി	-6579
ീര്‍ഘ	-6580
▁ശേഷി	-6581
ക്തമായ	-6582
ത്തീസ്	-6583
▁മനോരമ	-6584
▁മോഷ്ട	-6585
▁അതിനാൽ	-6586
▁ദീര്‍ഘ	-6587
▁കേസുമായി	-6588
▁പടിഞ്ഞാറ	-6589
▁ഉദ്യോഗസ്ഥരെ	-6590
ഡീ	-6591
ഘടനാ	-6592
▁പുക	-6593
▁കുരു	-6594
▁ധാരാ	-6595
▁ഫണ്ട	-6596
▁ാന്‍	-6597
ാര്‍ഡ്	-6598
തിരുന്ന	-6599
▁അവസാനം	-6600
▁അടുത്ത്	-6601
▁ഉദ്ഘാടന	-6602
▁കുറഞ്ഞു	-6603
▁പരീക്ഷണ	-6604
▁ഫോണില്‍	-6605
▁സംയുക്ത	-6606
▁മുനിസിപ്പ	-6607
▁86	-6608
▁തട്ട	-6609
▁പെരി	-6610
ുമ്പോഴ	-6611
▁കഥാപാ	-6612
▁ടീച്ച	-6613
▁ലോക്സഭാ	-6614
▁അപകടത്തില്‍	-6615
▁ശസ്ത്രക്രിയ	-6616
ത്തിനുള്ളില്‍	-6617
▁ലഭിക്കുന്നത്	-6618
▁I	-6619
ഖണ്	-6620
യോര	-6621
െയിൽ	-6622
▁അരി	-6623
▁നയം	-6624
▁ഡിംപ	-6625
▁നന്ദ	-6626
▁സാഹി	-6627
േക്കാൾ	-6628
▁പോള്‍	-6629
▁തൊട്ടു	-6630
▁മെട്രോ	-6631
▁ഡയറക്ടറ	-6632
▁പിന്നില	-6633
ള്‍പ്പെടെ	-6634
▁കേരളത്തെ	-6635
▁പോസിറ്റീവ	-6636
▁പുറത്തേക്ക്	-6637
▁പ്രഖ്യാപിച്ച്	-6638
▁പോസിറ്റിവിറ്റി	-6639
കൊ	-6640
സീ	-6641
▁98	-6642
▁ഓർ	-6643
▁ബദ	-6644
ധ്യം	-6645
വെള്ള	-6646
▁കഞ്ച	-6647
▁സിസി	-6648
ാനന്തര	-6649
▁തട്ടിയ	-6650
▁പിക്ക്	-6651
▁മൂല്യം	-6652
▁ശരാശരി	-6653
▁സഹോദരി	-6654
▁അഖിലേഷ്	-6655
▁കളെല്ലാം	-6656
▁ചുമത്തിയ	-6657
▁കൊണ്ടുള്ള	-6658
▁പദ്ധതികള്‍	-6659
▁വ്യക്തമായി	-6660
▁തിരിച്ചെത്തിയ	-6661
ല്	-6662
ഹര	-6663
ത്രെ	-6664
▁അർഹ	-6665
▁കാറ	-6666
ൂരപ്പ	-6667
▁ക്കേ	-6668
▁വെട്ട	-6669
▁ുണ്ടോ	-6670
▁ഉത്തരം	-6671
▁ധരിച്ച	-6672
ുന്നതിന്	-6673
▁ഇടപെട്ട	-6674
▁നല്‍കുക	-6675
▁മാണെന്ന	-6676
▁ശാരീരിക	-6677
▁ഏറ്റെടുത്ത	-6678
▁സിപിഎമ്മിന്റെ	-6679
▁ചെയ്യുന്നുണ്ട്	-6680
▁പങ്കെടുക്കുന്ന	-6681
േരം	-6682
▁ഓഫി	-6683
▁സ്ര	-6684
▁അകലം	-6685
▁ഉല്‍	-6686
▁വിന്	-6687
കരമായി	-6688
▁ഇതിനു	-6689
▁ഉണ്ണി	-6690
▁തെരുവ	-6691
▁നിരാശ	-6692
▁ബില്‍	-6693
▁ഒടുവിൽ	-6694
▁യൊക്കെ	-6695
▁വലിച്ച	-6696
▁ചെയ്യാം	-6697
▁എന്‍സിപി	-6698
▁നേതാവിനെ	-6699
▁യാത്രക്കാര	-6700
0)	-6701
ചനം	-6702
ഡും	-6703
▁വോ	-6704
▁ഓസ്	-6705
▁ആലുവ	-6706
▁സെപ്	-6707
▁ബുക്ക്	-6708
▁ഭരണഘടനാ	-6709
▁മീറ്റര്‍	-6710
▁ഒഴിവാക്കിയ	-6711
▁പശ്ചാത്തലത്തിൽ	-6712
ജാ	-6713
▁94	-6714
ദീപ്	-6715
▁തടസ	-6716
▁വാദി	-6717
ുതന്നെ	-6718
▁ഇടവേള	-6719
▁ഓട്ടോ	-6720
▁ജലനിര	-6721
▁പവന്‍	-6722
▁ഉറപ്പു	-6723
▁ബാധ്യത	-6724
▁നടക്കുക	-6725
▁പതിനായി	-6726
▁ആരാധകര്‍	-6727
▁അക്കൗണ്ട്	-6728
▁പാർട്ടിയിൽ	-6729
▁വേഗത്തില്‍	-6730
▁ഡേ	-6731
▁ദൈ	-6732
വാടി	-6733
▁നിയോ	-6734
▁കൊന്ന	-6735
▁തെക്ക	-6736
▁വര്‍ഗ	-6737
▁കരുത്ത	-6738
▁ധാരാളം	-6739
▁മാത്യു	-6740
ുന്നില്ല	-6741
▁ആഹ്വാനം	-6742
▁കസ്റ്റംസ്	-6743
▁നിശ്ചയിച്ച	-6744
▁കസ്റ്റഡിയില്‍	-6745
▁നേതൃത്വത്തിന്	-6746
ര്‍ണ	-6747
▁കലാ	-6748
▁അദ്ധ	-6749
▁ച്ചി	-6750
▁േണ്ട	-6751
▁പ്രകട	-6752
▁സംഗീത	-6753
▁ഉത്തരാ	-6754
▁തലശേരി	-6755
▁വിവാദം	-6756
▁സിദ്ദി	-6757
▁കാട്ടാന	-6758
▁പരിശീലന	-6759
▁വയസുള്ള	-6760
▁സ്വാഗതം	-6761
▁പട്ടികയിൽ	-6762
▁നയിക്കുന്ന	-6763
▁മണ്ഡലങ്ങളില്‍	-6764
▁ിട്ടില്ലെന്ന്	-6765
▁തയാ	-6766
▁മലബ	-6767
▁സിം	-6768
▁പതാക	-6769
▁പാണ്	-6770
▁അരങ്ങ	-6771
▁സുന്ദ	-6772
▁തിനാണ്	-6773
▁തുടര്‍	-6774
▁മാർക്ക	-6775
ിക്കില്ല	-6776
▁ഉപഭോക്ത	-6777
▁കീഴില്‍	-6778
▁ക്കുറിച്ച്	-6779
▁ക്വാറന്റൈന	-6780
▁ചെയ്യപ്പെട്ട	-6781
▁മുന്നോടിയായി	-6782
▁െന്നായിരുന്നു	-6783
സ്ട	-6784
▁1/	-6785
▁എഴ	-6786
ായിര	-6787
ർട്ട	-6788
▁ശബ്	-6789
▁അജയ്	-6790
▁നാഥ്	-6791
▁ങ്ങളോ	-6792
▁മകള്‍	-6793
▁വികസി	-6794
▁വസ്തുത	-6795
▁ഡയറക്ടർ	-6796
▁പ്രോത്സ	-6797
മാണെന്നും	-6798
▁സംസാരിച്ചു	-6799
▁യുമായിരുന്നു	-6800
▁എന്തുകൊണ്ടാണ്	-6801
▁ലക്ഷ്യമിടുന്നത്	-6802
▁ഓറ	-6803
ശ്വര	-6804
▁ഗംഭ	-6805
▁ഷായ	-6806
ാക്കൾ	-6807
▁ടെലി	-6808
▁പ്രത	-6809
▁മണ്ണി	-6810
▁റിപ്പ	-6811
▁ിലാണ്	-6812
▁ഒരുക്ക	-6813
▁നായര്‍	-6814
▁സുനില്‍	-6815
ടിക്കുന്ന	-6816
▁നയതന്ത്ര	-6817
▁വേണമെന്ന	-6818
▁കോൺഗ്രസിൽ	-6819
▁ദില്ലിയിലെ	-6820
▁മുന്നേറ്റം	-6821
ത്തിലൂടെയാണ്	-6822
ഫറ	-6823
മട	-6824
ാദി	-6825
▁95	-6826
മ്മേള	-6827
▁കളായി	-6828
▁കാർഡ്	-6829
▁ഗ്രാം	-6830
▁തടഞ്ഞ	-6831
▁ദുരിത	-6832
▁സമഗ്ര	-6833
▁ഒരാഴ്ച	-6834
▁നിമിഷം	-6835
ാതിരുന്ന	-6836
▁അനുബന്ധ	-6837
▁സഹായിക്ക	-6838
▁ായിരുന്ന	-6839
▁ചിത്രങ്ങൾ	-6840
▁ഉണ്ടാകുന്ന	-6841
▁തൊഴിലാളികള്‍	-6842
▁ആരോപിക്കുന്നു	-6843
7),	-6844
ഫിയ	-6845
▁ദയ	-6846
▁മംഗ	-6847
▁വാല	-6848
▁ചെലു	-6849
▁സംഭാ	-6850
ക്രമണം	-6851
▁റണ്‍സ	-6852
ുണ്ടായി	-6853
▁പുസ്തക	-6854
▁സർവ്വേ	-6855
▁സംഘപരിവ	-6856
▁ഒഴിവാക്കി	-6857
▁ക്രിക്കറ്റ്	-6858
▁മയക്കുമരുന്ന്	-6859
വതി	-6860
▁റവ	-6861
▁ഹു	-6862
വാദം	-6863
▁ആവി	-6864
ക്രമി	-6865
▁വള്ള	-6866
▁പിൻവല	-6867
▁വെച്ചു	-6868
▁സാക്ഷി	-6869
▁സ്വാമി	-6870
▁കുഞ്ഞാല	-6871
▁ക്കില്ല	-6872
▁ഭൂരിഭാഗ	-6873
▁സന്ദീപ്	-6874
▁കാണുന്നു	-6875
▁വരുത്തിയ	-6876
▁പറയാനുള്ള	-6877
▁കണ്ണൂരില്‍	-6878
▁വാക്കുകള്‍	-6879
▁തിരിച്ചറിഞ്ഞ	-6880
▁സന	-6881
▁ഒമൈ	-6882
▁ഓഫീ	-6883
▁വിര	-6884
▁കോളജ	-6885
▁ചിഹ്	-6886
▁വിചാ	-6887
▁അനൂപ്	-6888
▁വൈകാതെ	-6889
▁തട്ടിക്ക	-6890
▁രവീന്ദ്ര	-6891
▁സ്ഥാപിച്ച	-6892
▁ഫേസ്ബുക്കിൽ	-6893
▁റിപ്പോർട്ടിൽ	-6894
▁04	-6895
▁ഹൂ	-6896
ജിന്	-6897
ുപുഴ	-6898
▁എലി	-6899
▁ഗതി	-6900
▁ഗൃഹ	-6901
സ്ഥാൻ	-6902
്യന്‍	-6903
▁വാണി	-6904
▁മഞ്ജു	-6905
▁ശുക്ര	-6906
ങ്ങിയത്	-6907
രാഷ്ട്ര	-6908
▁നിശ്ചയ	-6909
▁ബിരുദം	-6910
▁മലപ്പുറ	-6911
▁യുണ്ടായ	-6912
▁പേരെയാണ്	-6913
▁സ്പീക്കര്‍	-6914
▁ബന്ധുക്കള്‍	-6915
▁തിരഞ്ഞെടുത്ത	-6916
▁സമ്മേളനത്തില്‍	-6917
▁C	-6918
ലൈൻ	-6919
▁ഉൽ	-6920
ക്രാ	-6921
ോധ്യ	-6922
▁ഉയര	-6923
▁ചാർ	-6924
▁ജ്വ	-6925
▁മുള	-6926
▁അനുമ	-6927
▁രാജു	-6928
▁ഓക്സി	-6929
▁പൊട്ട	-6930
▁വന്ദേ	-6931
▁സംഘർഷ	-6932
ത്തൂര്‍	-6933
▁അയോധ്യ	-6934
▁തുമായി	-6935
▁മാനേജ്	-6936
▁പ്രകൃതി	-6937
▁എത്തിക്ക	-6938
▁മാര്‍ക്ക്	-6939
▁ക്കിടയില്‍	-6940
▁മാറ്റങ്ങള്‍	-6941
▁മോഹന്‍ലാല്‍	-6942
▁ലക്ഷ്യത്തോടെ	-6943
es	-6944
ണ്ഠ	-6945
വ്യ	-6946
തിരി	-6947
സ്തവ	-6948
▁താപ	-6949
▁ഹേമ	-6950
രിപ്പി	-6951
▁ചിങ്ങ	-6952
▁ആസൂത്ര	-6953
▁വീടിന്	-6954
▁േക്കാം	-6955
ാകുന്നത്	-6956
▁എന്നതും	-6957
▁പ്രദേശ്	-6958
▁നഷ്ടപരിഹ	-6959
▁ശശീന്ദ്ര	-6960
▁മണിക്കൂര്‍	-6961
▁നൽകിയിരുന്നു	-6962
▁പ്രവര്‍ത്തകര	-6963
▁മുഖ്യമന്ത്രിയെ	-6964
ാലം	-6965
▁്‍	-6966
ദിനം	-6967
ഷ്യൽ	-6968
▁റാല	-6969
▁വാസ	-6970
▁ബ്രി	-6971
▁ജനപ്ര	-6972
ാധികാരി	-6973
▁വെറുതെ	-6974
▁കാര്‍ഡ്	-6975
▁നാഷണല്‍	-6976
▁ചേര്‍ത്ത	-6977
▁അനുകൂലമായ	-6978
▁ങ്ങളിലൂടെ	-6979
▁യാണെങ്കില്‍	-6980
▁83	-6981
▁ഫയ	-6982
▁12,	-6983
▁നുണ	-6984
▁തേജസ്	-6985
▁സിനും	-6986
▁ഗള്‍ഫ്	-6987
▁ഡിസംബർ	-6988
▁ദശലക്ഷ	-6989
▁സൗത്ത്	-6990
ല്‍ക്കത്ത	-6991
▁എന്നുള്ള	-6992
▁സമര്‍പ്പ	-6993
▁ാണെന്നും	-6994
▁ഇതിനെതിരെ	-6995
▁എന്നിട്ടും	-6996
▁രേഖപ്പെടുത്ത	-6997
▁രേഖപ്പെടുത്തി	-6998
▁സംസാരിക്കുന്ന	-6999
▁മുഖ്യമന്ത്രിയും	-7000
▁ഗ്യ	-7001
▁നിത	-7002
▁മാധ	-7003
▁മാല	-7004
▁ഭീതി	-7005
▁വഞ്ച	-7006
▁ലാല്‍	-7007
▁റിലീസ്	-7008
▁വോട്ടർ	-7009
്യമായാണ്	-7010
▁പ്ലാറ്റ്	-7011
▁വൈകുന്നേരം	-7012
വിക	-7013
▁87	-7014
▁ണി	-7015
▁പൗ	-7016
▁കളയ	-7017
▁വംശ	-7018
ിയോട്	-7019
▁ധോണി	-7020
▁ക്കാർ	-7021
▁തങ്ങൾ	-7022
▁നഷ്ടം	-7023
▁ശബ്ദം	-7024
▁അക്കാര	-7025
▁എക്സ്പ	-7026
▁കൾക്ക്	-7027
▁സർക്കാ	-7028
▁വാഗ്ദാന	-7029
ിക്കാരുടെ	-7030
▁സംഘടിപ്പ	-7031
▁രൂക്ഷമായി	-7032
▁ആരെങ്കിലും	-7033
▁നേതൃത്വത്തിന്റെ	-7034
ൗണ	-7035
രെയ	-7036
രേഖ	-7037
ട്രി	-7038
▁ഒടി	-7039
▁പനി	-7040
േയാണ്	-7041
▁ഉടനെ	-7042
▁ഒളിവ	-7043
▁ഫിലി	-7044
▁രൂപയ	-7045
ുകാരുടെ	-7046
▁പ്രയോഗ	-7047
▁സെന്ററ	-7048
▁അഭ്യർത്ഥ	-7049
▁മഴയ്ക്ക്	-7050
▁രോഗമുക്ത	-7051
▁സജീവമായി	-7052
ുകളിലേക്ക്	-7053
മയ	-7054
വാല	-7055
ുകി	-7056
▁71	-7057
▁9,	-7058
റായി	-7059
േട്ട	-7060
▁രായ	-7061
▁പ്രേ	-7062
▁ണ്ടാക	-7063
റ്റിംഗ്	-7064
▁എത്തും	-7065
▁സ്ഥിരം	-7066
▁ിക്കും	-7067
▁ഛത്തീസ്	-7068
▁ജ്യോതിഷ	-7069
▁പ്ലാന്‍	-7070
▁ഒക്ടോബര്‍	-7071
▁ക്ഷണിച്ചു	-7072
▁ജലനിരപ്പ്	-7073
▁കോണ്‍ഗ്രസിലെ	-7074
▁ത്തെക്കുറിച്ച്	-7075
▁മഹാരാഷ്ട്രയില്‍	-7076
വീപ	-7077
ക്ഷൻ	-7078
വരും	-7079
ുപോയ	-7080
▁600	-7081
▁വിയ	-7082
▁വുമ	-7083
തില്ല	-7084
▁തീപി	-7085
▁ബൈജു	-7086
▁ലൂടെ	-7087
▁വീണാ	-7088
ത്തിരി	-7089
▁ആപ്പ്	-7090
▁ഞാനും	-7091
▁കാർഷിക	-7092
▁കുഞ്ഞു	-7093
▁ചികിത്സാ	-7094
▁തള്ളിക്ക	-7095
▁എന്നിങ്ങന	-7096
▁പ്രത്യക്ഷ	-7097
▁പുലര്‍ച്ചെ	-7098
▁മേഖലകളില്‍	-7099
▁വിപണിയില്‍	-7100
▁എല്ലാവർക്കും	-7101
▁13,	-7102
▁സ്ഫ	-7103
▁മഞ്ച	-7104
▁മേയ്	-7105
▁വിരമ	-7106
പ്പാടി	-7107
▁മീറ്റ	-7108
▁സമാജ്	-7109
ര്‍ന്നു	-7110
▁തുറക്ക	-7111
▁ലിമിറ്റ	-7112
▁വാർത്താ	-7113
ാവുന്നതാണ്	-7114
▁അത്തരമൊരു	-7115
▁കരുതുന്നു	-7116
▁ജീവനക്കാർ	-7117
▁ത്തിലുള്ള	-7118
▁പ്രാധാന്യം	-7119
▁കൊടുക്കുന്ന	-7120
▁തെരഞ്ഞെടുപ്പ	-7121
ജക	-7122
ൈൻ	-7123
േതര	-7124
▁ംഗ	-7125
ല്ലാ	-7126
▁150	-7127
▁ബിഷ	-7128
ുകാരെ	-7129
▁കട്ട	-7130
▁ഫെഡറ	-7131
▁അമ്പല	-7132
▁യുമായ	-7133
▁മീറ്റർ	-7134
▁വ്യക്ത	-7135
▁ക്കാത്ത	-7136
▁നടത്തുക	-7137
▁നേതാവായ	-7138
▁പ്രസംഗം	-7139
▁കാരണമായി	-7140
▁ശക്തമാണ്	-7141
▁അവതരിപ്പിച്ച	-7142
▁യിലായിരുന്നു	-7143
▁കണക്കിലെടുത്ത്	-7144
ൽഹ	-7145
▁ങ്	-7146
▁ഉദാ	-7147
▁അനുപ	-7148
▁ഉപയോ	-7149
▁മാർഗ	-7150
▁മുത്ത	-7151
▁മറ്റൊരാ	-7152
▁വിട്ടത്	-7153
നുള്ളില്‍	-7154
▁എടുത്തത്	-7155
▁കുട്ടികൾ	-7156
രുന്നുണ്ട്	-7157
▁ബംഗാളില്‍	-7158
▁യുവതിയുടെ	-7159
▁തെളിവുകള്‍	-7160
▁സംസ്ഥാനങ്ങളിൽ	-7161
ബാദ	-7162
▁ലൂ	-7163
ജിനെ	-7164
ല്ലേ	-7165
▁ഹമാ	-7166
▁ജീവൻ	-7167
▁തുടർ	-7168
▁വിഹി	-7169
▁എന്തു	-7170
▁ഹെലിക	-7171
▁മുകളിൽ	-7172
▁സോണിയാ	-7173
▁കാഞ്ഞിര	-7174
▁തിരിക്ക	-7175
▁വരുത്തി	-7176
▁കലക്ടര്‍	-7177
▁ക്കുന്നു	-7178
▁പേർക്കും	-7179
▁വിശദമായി	-7180
▁സൃഷ്ടിച്ച	-7181
▁പ്രകാരമാണ്	-7182
▁കാര്യത്തിലും	-7183
▁തയ്യാറായില്ല	-7184
▁തെരഞ്ഞെടുപ്പിൽ	-7185
നൈ	-7186
▁ആഡ	-7187
▁നിക	-7188
ന്ദിര	-7189
▁ദാസ്	-7190
▁ബിജു	-7191
▁സൈബർ	-7192
▁ിനും	-7193
▁ഉപമുഖ	-7194
▁കിടില	-7195
▁ജെഡിഎ	-7196
▁സെല്‍	-7197
▁തെറ്റ്	-7198
▁മേയര്‍	-7199
▁നല്‍കണം	-7200
▁നിശ്ചിത	-7201
▁മാനേജര്‍	-7202
▁ിക്കാന്‍	-7203
▁എന്നൊക്കെ	-7204
▁പ്രതിനിധി	-7205
▁വായിക്കാം	-7206
▁തിരഞ്ഞെടുപ്പി	-7207
ണയ	-7208
േൽ	-7209
▁ആഴ	-7210
▁കപ	-7211
▁ജ്	-7212
ാനിയ	-7213
▁മകൻ	-7214
▁മാള	-7215
▁ഹാള	-7216
യായും	-7217
▁എഴുത	-7218
▁ഏജൻസ	-7219
▁കൈവശ	-7220
▁ഗവർണർ	-7221
▁ജയരാജ	-7222
▁മൊബൈൽ	-7223
▁വണ്ടി	-7224
▁ആരെയും	-7225
▁ഉയർന്നു	-7226
ക്കുറിച്ച	-7227
▁കേസിന്റെ	-7228
▁മെന്നാണ്	-7229
▁വാക്കുകൾ	-7230
▁അന്തരീക്ഷ	-7231
▁ട്രാന്‍സ്	-7232
▁വരുമ്പോള്‍	-7233
▁പരിശോധിച്ച്	-7234
▁ബാധിക്കുന്ന	-7235
▁വന്നപ്പോള്‍	-7236
▁താല്‍ക്കാലിക	-7237
▁അധികാരത്തില്‍	-7238
▁മത്സരിക്കുന്നത്	-7239
ഷീ	-7240
▁i	-7241
▁ൊ	-7242
നീഷ	-7243
പുഴ	-7244
ൻഷൻ	-7245
റ്റോ	-7246
▁തോൽ	-7247
▁ദൈവ	-7248
▁ബയോ	-7249
▁ബോം	-7250
ഖണ്ഡ്	-7251
▁റാലി	-7252
▁പ്രയോ	-7253
▁വിറ്റ	-7254
▁നീണ്ടു	-7255
▁യാളാണ്	-7256
▁വയസ്സ്	-7257
▁സംഭവിച്ചത്	-7258
▁ില്ലെങ്കിൽ	-7259
ിക്കുന്നതിന്	-7260
▁കൊല്‍ക്കത്ത	-7261
▁സദ	-7262
ഡിന്	-7263
ാവുക	-7264
▁ങ്ക	-7265
▁നീള	-7266
ന്തിര	-7267
വട്ടം	-7268
▁ഏരിയ	-7269
▁ഹരിത	-7270
കുട്ടി	-7271
▁എന്നത	-7272
▁പ്രകാശ	-7273
▁ാനുള്ള	-7274
▁ഫ്രണ്ട്	-7275
▁തയ്യാറായി	-7276
▁ദൃശ്യങ്ങൾ	-7277
▁നൽകുന്നത്	-7278
▁വില്‍പ്പന	-7279
▁ങ്ങളെല്ലാം	-7280
▁വാഹനങ്ങള്‍	-7281
▁ചെയ്യാനുള്ള	-7282
▁പാര്‍ലമെന്റ്	-7283
▁അസമ	-7284
▁ചൗധ	-7285
▁പിരി	-7286
▁അവശ്യ	-7287
▁ഘട്ടം	-7288
▁ചുറ്റ	-7289
▁സർവീസ	-7290
▁ാണിത്	-7291
▁ഏതാനും	-7292
▁പ്രേരി	-7293
▁സമ്പദ്	-7294
▁കളുണ്ട്	-7295
▁താക്കറെ	-7296
▁പ്രവചനം	-7297
▁ഗാന്ധിയെ	-7298
▁ചുഴലിക്കാ	-7299
▁ശ്രമിച്ചു	-7300
▁സംഘടനയുടെ	-7301
▁കേസെടുത്തി	-7302
▁സര്‍ക്കാരു	-7303
▁സാന്നിധ്യം	-7304
▁യായിരിക്കും	-7305
▁മാത്രമായിരുന്നു	-7306
▁തറ	-7307
▁ന്ത	-7308
▁വരണ	-7309
▁പിജെ	-7310
▁പിതാ	-7311
▁വരവ്	-7312
▁പറയാം	-7313
▁പലതും	-7314
▁ബോർഡ്	-7315
▁വഴിയാണ്	-7316
▁സംഘത്തെ	-7317
▁ശേഷമുള്ള	-7318
▁സ്വയംഭരണ	-7319
▁മാറ്റിയത്	-7320
▁കാണിക്കുന്ന	-7321
▁കാര്യങ്ങളില്‍	-7322
▁82	-7323
വിധി	-7324
െയ്യ	-7325
▁ഐശ്വ	-7326
▁കിഫ്	-7327
▁വാഷി	-7328
▁മലയോര	-7329
▁അടുപ്പ	-7330
▁യാണെന്നാണ്	-7331
▁സർക്കാരിനെ	-7332
▁നദ	-7333
▁ഇളവ	-7334
പ്പുല	-7335
റിംഗ്	-7336
ലക്ഷണ	-7337
▁നൂറ്	-7338
ാഞ്ചേരി	-7339
▁കോടതിയ	-7340
▁ബിന്ദു	-7341
▁ശേഷവും	-7342
▁പ്രോഗ്ര	-7343
▁തിനെതിരെ	-7344
▁മുമ്പാണ്	-7345
▁രോഗലക്ഷണ	-7346
▁തെങ്കിലും	-7347
▁പ്രാധാന്യ	-7348
▁ആരോപണങ്ങള്‍	-7349
▁സംവിധായകന്‍	-7350
▁സര്‍വകലാശാല	-7351
ഭൂമി	-7352
മ്മി	-7353
▁ആയു	-7354
▁തുര	-7355
▁ഫോർ	-7356
കാലിക	-7357
നിടയിൽ	-7358
▁കത്തയ	-7359
▁നമ്പർ	-7360
▁മനോജ്	-7361
▁എൽഡിഎഫ	-7362
▁കമന്റ്	-7363
▁മതിയായ	-7364
▁കാണാതായ	-7365
▁ഭാഗമാണ്	-7366
▁റെയിൽവേ	-7367
▁ഇടപെടല്‍	-7368
▁മാധ്യമങ്ങൾ	-7369
▁യ്ക്കെതിരെ	-7370
▁പാര്‍ട്ടികള്‍	-7371
ീത്	-7372
▁0.	-7373
▁ആധ	-7374
പ്പൂ	-7375
▁ഷാജ	-7376
▁സെറ	-7377
▁നീങ്ങ	-7378
▁മതേതര	-7379
▁യാകും	-7380
▁ിലൂടെ	-7381
ത്തെയും	-7382
▁ഓറഞ്ച്	-7383
▁പിറന്ന	-7384
▁പ്പെടു	-7385
▁ബലാത്സ	-7386
ത്തിൻ്റെ	-7387
▁യുവതിയെ	-7388
▁സംഘമാണ്	-7389
▁കീഴിലുള്ള	-7390
▁സാന്നിധ്യ	-7391
▁ിട്ടുണ്ടോ	-7392
▁ത്തിന്റെയും	-7393
▁വരുന്നുണ്ട്	-7394
▁ഇക്കാര്യത്തിൽ	-7395
ണൽ	-7396
മിത	-7397
ൻസി	-7398
▁-1	-7399
കമായ	-7400
▁ഓടെ	-7401
▁ത്യ	-7402
ടനീളം	-7403
▁ഉദാഹ	-7404
▁നാദി	-7405
▁സണ്‍	-7406
▁നൽകും	-7407
▁പരിചയം	-7408
▁ഷൂട്ടി	-7409
▁ഉറപ്പുവ	-7410
▁ശ്രീലങ്ക	-7411
▁നേതാവുമായ	-7412
▁നേതൃത്വത്തെ	-7413
▁പിടികൂടിയത്	-7414
▁രാശിക്കാർക്ക്	-7415
▁ആരോപിക്കുന്നത്	-7416
▁വരാനിരിക്കുന്ന	-7417
▁61	-7418
▁പലത	-7419
കത്ത്	-7420
നുമായ	-7421
▁1000	-7422
▁കലാക	-7423
▁കിഷോ	-7424
▁ബേബി	-7425
▁ഒഴിവ്	-7426
▁ഗവേഷണ	-7427
▁ജൂനിയ	-7428
▁സന്നി	-7429
▁അഭ്യൂഹ	-7430
▁ഉയർത്ത	-7431
▁ബൈഡന്‍	-7432
ികളുമായി	-7433
▁കൊടുത്തു	-7434
▁ബാനര്‍ജി	-7435
▁സുഹൃത്ത്	-7436
ക്കാര്‍ക്ക്	-7437
▁മധ്യപ്രദേശ്	-7438
▁രാശിക്കാരുടെ	-7439
▁പ്രകടിപ്പിച്ച	-7440
▁എന്നിവിടങ്ങളിൽ	-7441
ാംശ	-7442
കന്‍	-7443
യോട്	-7444
▁ആരി	-7445
▁ദൂര	-7446
ന്നൂർ	-7447
▁ക്ഷമ	-7448
▁ശിശു	-7449
ക്കര്‍	-7450
▁സ്കൂൾ	-7451
▁മോട്ടോ	-7452
ട്ടിന്റെ	-7453
ലിസ്റ്റ്	-7454
▁പ്രതിമാ	-7455
▁മാസത്തെ	-7456
▁സമ്പന്ന	-7457
▁കാര്യവും	-7458
▁ഡ്യൂട്ടി	-7459
▁തയ്യാറെടു	-7460
▁സ്വീകരിച്ചു	-7461
▁പ്രതികരിച്ച്	-7462
ൊല	-7463
കരി	-7464
ോസ്	-7465
▁ഉമ	-7466
ഖണ്ഡ	-7467
ജാതി	-7468
▁ഇറാ	-7469
▁ഗാസ	-7470
ഡിപിഐ	-7471
ിപ്പി	-7472
▁കരാറ	-7473
ട്ടിന്	-7474
▁ഇതൊരു	-7475
▁പ്പോഴ	-7476
▁സതീശൻ	-7477
▁അത്ഭുത	-7478
▁കൈമാറി	-7479
▁സീസണ്‍	-7480
▁സെന്റ്	-7481
▁ആദിവാസി	-7482
▁തിയേറ്റ	-7483
▁ിനൊപ്പം	-7484
▁ആണെന്നും	-7485
▁ഉണ്ടാക്ക	-7486
▁എസ്ഡിപിഐ	-7487
▁കാണിച്ച്	-7488
▁പാർലമെന്റ	-7489
▁കമ്പനിയുടെ	-7490
▁നടക്കുന്നുണ്ട്	-7491
▁വെളിപ്പെടുത്തി	-7492
▁ഡൽഹ	-7493
▁ജാസ്	-7494
▁നവംബർ	-7495
▁പകര്‍	-7496
▁റില്‍	-7497
▁വാര്യ	-7498
▁ശ്രീധ	-7499
▁സൂപ്ര	-7500
ലക്ഷ്മി	-7501
▁നയിച്ച	-7502
▁ക്കരുത്	-7503
▁അതിർത്തി	-7504
▁തിനാലാണ്	-7505
▁പ്രതിദിന	-7506
▁അവസാനിച്ച	-7507
▁യുമായുള്ള	-7508
▁കുറ്റകൃത്യ	-7509
▁വിദ്യാഭ്യാസം	-7510
▁ില്ലെങ്കിലും	-7511
▁ചെയ്തിട്ടില്ല	-7512
▁േക്കുമെന്നാണ്	-7513
ോയി	-7514
▁ഭഗ	-7515
വല്‍	-7516
ാനന്ദ	-7517
▁അനിൽ	-7518
▁അയാൾ	-7519
▁വണ്‍	-7520
വരില്‍	-7521
ിതമായി	-7522
▁അദാനി	-7523
▁മോഹൻല	-7524
ക്രോണ്‍	-7525
▁നീട്ടി	-7526
▁ഒരാളുടെ	-7527
▁ത്തുന്ന	-7528
▁ആരോപിച്ച്	-7529
▁ഒരിക്കല്‍	-7530
▁താരങ്ങള്‍	-7531
▁സ്വന്തമായി	-7532
▁പ്രതികരിക്ക	-7533
▁ഉപമുഖ്യമന്ത്രി	-7534
an	-7535
ദനം	-7536
ുപറ	-7537
▁സുവ	-7538
▁അവഗണ	-7539
ശാന്തി	-7540
▁ഡിപ്ല	-7541
▁നെല്ല	-7542
▁കെയര്‍	-7543
▁സഞ്ജയ്	-7544
▁തേജസ്വി	-7545
▁നാട്ടിൽ	-7546
▁റഷ്യന്‍	-7547
ിക്കുട്ടി	-7548
▁മുരളീധരൻ	-7549
▁സംഭവത്തെ	-7550
▁അടിയന്തിര	-7551
▁നിലയിലാണ്	-7552
▁ലോകത്തിലെ	-7553
▁സൂക്ഷിച്ച	-7554
▁പിന്തുണച്ച	-7555
▁ശ്രമിച്ചത്	-7556
▁മത്സരത്തില്‍	-7557
▁ഉള്‍പ്പെടുത്തിയ	-7558
സേ	-7559
▁S	-7560
ൻ്റ	-7561
▁ഫീ	-7562
ിനും	-7563
▁ആധു	-7564
▁ഉത്ര	-7565
▁കോലി	-7566
▁പേടി	-7567
▁ഷാഫി	-7568
ക്കുടി	-7569
▁കൂറുമ	-7570
▁പരിസര	-7571
▁പറയും	-7572
▁പങ്കാള	-7573
▁നിക്ഷേപം	-7574
▁യ്ക്കായി	-7575
▁രോഗികള്‍	-7576
ര്‍ത്തുന്ന	-7577
▁രാജിവെച്ച	-7578
▁പിടിക്കാന്‍	-7579
▁മുദ്രാവാക്യം	-7580
▁ിരുന്നെങ്കിലും	-7581
▁സംസ്ഥാനത്തിന്റെ	-7582
5)	-7583
ചിത	-7584
▁6.	-7585
ഫിക്	-7586
ബോധന	-7587
ക്രമം	-7588
രുവായ	-7589
▁കണ്ണു	-7590
▁പതിവ്	-7591
▁ബംഗാൾ	-7592
▁സ്ഫോട	-7593
▁അടച്ചി	-7594
▁ഞങ്ങളെ	-7595
▁മിഷന്‍	-7596
▁നേടാന്‍	-7597
▁ത്തിനാണ്	-7598
▁ദിവസമായി	-7599
▁വ്യത്യാസ	-7600
▁രൂപീകരിക്ക	-7601
ിക്കപ്പെടുന്ന	-7602
▁മണിക്കൂറില്‍	-7603
▁നടത്തുന്നുണ്ട്	-7604
പന	-7605
ഭാര	-7606
▁ബൗ	-7607
ർമാൻ	-7608
▁ഹരീ	-7609
▁ഡികെ	-7610
▁ഫീസ്	-7611
▁വേണമ	-7612
ഡുകള്‍	-7613
▁ബിന്‍	-7614
▁തുറമുഖ	-7615
പ്പറമ്പ്	-7616
▁കൊണ്ടും	-7617
▁ചെയർമാൻ	-7618
▁പുരുഷന്	-7619
▁എങ്കില്‍	-7620
▁ന്യൂഡൽഹി	-7621
▁വോട്ടെടു	-7622
▁സ്ത്രീകൾ	-7623
▁ആരംഭിക്കും	-7624
▁സമർപ്പിച്ച	-7625
▁അതിര്‍ത്തിയ	-7626
▁ഭാഗങ്ങളില്‍	-7627
▁കാര്യങ്ങളാണ്	-7628
▁ഡോക്ടര്‍മാര്‍	-7629
▁പൂര്‍ത്തിയാക്കി	-7630
8)	-7631
or	-7632
സുല	-7633
ഞ്ചു	-7634
ുവരെ	-7635
▁കെടി	-7636
▁ടാക്	-7637
▁ലിംഗ	-7638
▁സിക്	-7639
▁അവലോക	-7640
▁മദ്യം	-7641
ൾപ്പെടെ	-7642
▁അഞ്ചാം	-7643
▁താത്പര	-7644
▁ബംഗ്ലാ	-7645
▁ചെറുപ്പ	-7646
▁തോല്‍വി	-7647
▁ക്കാനായി	-7648
▁ഇടതുപക്ഷം	-7649
▁ഘട്ടത്തിൽ	-7650
▁വരുമെന്ന്	-7651
▁പ്രദേശത്തെ	-7652
▁തങ്ങള്‍ക്ക്	-7653
▁വേണുഗോപാല്‍	-7654
▁സംസ്ഥാനത്തിന്	-7655
ളളി	-7656
ാലെ	-7657
ോപന	-7658
ോപി	-7659
▁കളമ	-7660
▁മ്മ	-7661
▁ലുലു	-7662
▁വിഷമ	-7663
▁ആകര്‍	-7664
▁മുപ്പ	-7665
▁റേയും	-7666
▁ആധുനിക	-7667
▁തെളിവ്	-7668
▁വിഹിതം	-7669
▁താല്‍പര്യ	-7670
▁നിര്‍ത്തിയ	-7671
▁പട്ടികജാതി	-7672
▁സെപ്റ്റംബര്‍	-7673
▁സ്ഥലങ്ങളില്‍	-7674
ഷറ	-7675
ഴ്സ	-7676
വായ	-7677
ശാല	-7678
▁ആൾ	-7679
▁പൃ	-7680
▁വട	-7681
▁ഏഴു	-7682
▁അതില	-7683
▁കല്‍	-7684
▁കുറേ	-7685
സ്വാമി	-7686
▁എംബസി	-7687
▁പലസ്ത	-7688
മുണ്ടായ	-7689
▁നറുക്ക	-7690
▁പോലീസിനെ	-7691
▁യുവാവിനെ	-7692
▁സര്‍വ്വേ	-7693
▁കിട്ടുന്ന	-7694
▁കുറിച്ചത്	-7695
▁പുതിയതായി	-7696
▁മാത്രമായി	-7697
▁തമിഴ്നാട്ട	-7698
▁ബ്രിട്ടീഷ്	-7699
▁പരിശോധനയില്‍	-7700
▁നിയന്ത്രണങ്ങൾ	-7701
േദം	-7702
▁ചിറ	-7703
▁കുംഭ	-7704
▁ജുഡീ	-7705
▁താമസം	-7706
▁ബോട്ട	-7707
സ്പിറ്റ	-7708
▁സെപ്തം	-7709
▁ിക്കുക	-7710
▁എന്നോട്	-7711
▁പ്രതികൾ	-7712
▁റോബിന്‍	-7713
▁അമ്മയുടെ	-7714
▁കഥാപാത്ര	-7715
▁ഛത്തീസ്ഗ	-7716
▁തിരുവല്ല	-7717
▁രോഗവ്യാപ	-7718
▁ഹോസ്പിറ്റ	-7719
▁ഉദ്ധരിച്ച്	-7720
▁ജില്ലയിലും	-7721
▁തുടർന്നാണ്	-7722
▁അപേക്ഷിച്ച്	-7723
▁കുടുംബത്തിന്	-7724
▁മത്സരിക്കാന്‍	-7725
വയ	-7726
ബ്ലി	-7727
മുടി	-7728
വേദന	-7729
സിപി	-7730
▁196	-7731
▁അപല	-7732
▁പവന്	-7733
▁ഷെയ്	-7734
▁അജണ്ട	-7735
▁തുമാണ്	-7736
▁ഫലപ്രദ	-7737
▁ശ്രീനി	-7738
ത്തിലേറെ	-7739
▁ഐപിഎല്ല	-7740
▁ഒക്ടോബർ	-7741
▁ഗുരുവായ	-7742
▁പിടികൂട	-7743
▁പോലീസും	-7744
▁മാലിന്യ	-7745
▁ദിനത്തില്‍	-7746
▁പൊട്ടിത്തെ	-7747
▁പ്രസിഡണ്ട്	-7748
▁മുണ്ടെന്ന്	-7749
▁ഏഷ്യാനെറ്റ്	-7750
▁ബാക്കിയുള്ള	-7751
▁രാജ്യങ്ങളും	-7752
▁ശ്രദ്ധയില്‍	-7753
▁കൊണ്ടിരിക്കുന്ന	-7754
▁ലഭിച്ചിട്ടുണ്ട്	-7755
▁t	-7756
നിർ	-7757
രാഘ	-7758
▁84	-7759
ങ്ങര	-7760
ത്തുറ	-7761
▁ഇബ്ര	-7762
▁ചക്ര	-7763
▁പുടി	-7764
▁മേടം	-7765
▁യുകെ	-7766
▁റിസോ	-7767
▁വിരാ	-7768
▁ഹാരി	-7769
▁ഉപദേശ	-7770
▁വിന്യ	-7771
▁സമർപ്പ	-7772
▁പെരുമ്പ	-7773
▁മീഡിയയിൽ	-7774
▁വാർത്തകൾ	-7775
▁വിജിലന്‍സ്	-7776
▁വ്യക്തമാണ്	-7777
▁രാജ്യങ്ങളിൽ	-7778
▁ഹൈക്കോടതിയെ	-7779
▁ഔദ്യോഗികമായി	-7780
▁ലഭിച്ചിരുന്നു	-7781
-2	-7782
മനം	-7783
▁ചൗഹ	-7784
▁സ്മ	-7785
▁മുൻക	-7786
▁സായ്	-7787
▁മോഷണം	-7788
▁അബുദാബി	-7789
▁ട്രേലിയ	-7790
▁പച്ചക്ക	-7791
▁പോപ്പുല	-7792
▁മാക്കിയ	-7793
▁ആനുകൂല്യ	-7794
▁ഓരോരുത്ത	-7795
▁തകര്‍ത്ത	-7796
▁വീടുകള്‍	-7797
▁ഇതോടൊപ്പം	-7798
▁ിക്കുകയും	-7799
▁ഉയര്‍ത്തിയ	-7800
▁ജീവനക്കാരെ	-7801
▁പ്രോത്സാഹി	-7802
▁കൊട്ടാരക്കര	-7803
▁ജീവനക്കാരുടെ	-7804
തോ	-7805
മ്	-7806
▁ശോ	-7807
▁ഷീ	-7808
സിനു	-7809
▁കടല	-7810
▁ലേഖ	-7811
നോട്ട	-7812
▁എംവി	-7813
▁നേരം	-7814
▁വിധം	-7815
▁ൊന്ന	-7816
ട്ടര്‍	-7817
ന്വേഷണ	-7818
▁ആഡംബര	-7819
▁ഓർമ്മ	-7820
▁വരികയ	-7821
▁ആന്ധ്ര	-7822
▁ആശ്വാസം	-7823
▁കാരണമായ	-7824
▁സഭയില്‍	-7825
▁സമീപിച്ച	-7826
▁പാർട്ടിക്ക്	-7827
▁ഉത്തരവാദിത്തം	-7828
▁ഏർപ്പെടുത്തിയ	-7829
▁നടപ്പാക്കുന്ന	-7830
ുഖ	-7831
രിട	-7832
വത്	-7833
വന്റി	-7834
സ്ഥാപ	-7835
▁രുടെ	-7836
▁ശരത്	-7837
രാമയ്യ	-7838
▁ഗവണ്‍	-7839
▁തരംഗം	-7840
▁പൊന്ന	-7841
▁ലോക്ഡ	-7842
▁സമീപന	-7843
രുതെന്ന	-7844
▁കളിച്ച	-7845
▁കിട്ടി	-7846
▁ഇറക്കിയ	-7847
▁ക്കൊണ്ട്	-7848
ുകയായിരുന്ന	-7849
▁കിലോമീറ്റർ	-7850
▁കൗണ്‍സില്‍	-7851
▁വിഭാഗത്തിന്	-7852
▁സാധിച്ചില്ല	-7853
▁പ്രവേശിപ്പിച്ചു	-7854
ക്ല	-7855
ന്യൂ	-7856
▁പവാ	-7857
▁ശാല	-7858
വാറ്റ	-7859
വെച്ച	-7860
▁ധനസഹ	-7861
▁സെമി	-7862
സിച്ച്	-7863
▁പ്രൊഡ	-7864
▁ബിഹാറ	-7865
▁തരൂര്‍	-7866
▁പുരുഷൻ	-7867
▁സ്ത്രീയ	-7868
▁നിരീക്ഷണം	-7869
▁അപ്രതീക്ഷിത	-7870
▁ആത്മവിശ്വാസ	-7871
▁കൊച്ചിയില്‍	-7872
▁രീതിയിലുള്ള	-7873
▁വിഭാഗത്തിന്റെ	-7874
▁കേരളത്തിലേക്ക്	-7875
▁പ്രവര്‍ത്തിച്ച	-7876
▁n	-7877
▁5.	-7878
▁രജ	-7879
▁195	-7880
▁ഇട്ട	-7881
▁ഒന്‍	-7882
▁ആവിഷ്	-7883
ഷേധിച്ച്	-7884
▁ഒന്നിന്	-7885
▁കാലത്തെ	-7886
▁ബിഎസ്പി	-7887
▁വീടിന്റെ	-7888
▁ഗാന്ധിയും	-7889
▁പേർക്കാണ്	-7890
▁യുപിയില്‍	-7891
▁സംഘത്തിന്	-7892
▁ജനങ്ങൾക്ക്	-7893
▁പാവപ്പെട്ട	-7894
▁പീഡിപ്പിച്ച	-7895
▁ലോക്ക്ഡൗണ്‍	-7896
▁ഇത്തരത്തിലുള്ള	-7897
▁കൊണ്ടായിരുന്നു	-7898
▁കൊല്ലപ്പെട്ടത്	-7899
▁പ്രതികരണവുമായി	-7900
▁സംസ്ഥാനങ്ങളിലെ	-7901
ാനാ	-7902
▁ശനി	-7903
▁സാഗ	-7904
▁ഹെൽ	-7905
യുന്ന	-7906
▁ഓപ്പ	-7907
▁ബോംബ	-7908
▁യുളള	-7909
▁വീണു	-7910
രിക്കെ	-7911
സംബോധന	-7912
▁ബന്ധു	-7913
▁ിനോട്	-7914
▁ഒട്ടും	-7915
▁യാണിത്	-7916
▁മില്ലാതെ	-7917
▁സെന്റര്‍	-7918
▁ഇന്‍സ്റ്റ	-7919
▁പ്പെടുന്ന	-7920
▁വാങ്ങാന്‍	-7921
▁സീറ്റിലും	-7922
▁കോർപ്പറേഷൻ	-7923
▁p	-7924
ഗണി	-7925
ലിന	-7926
വിള	-7927
വ്വം	-7928
ാദ്യ	-7929
▁കറു	-7930
▁ബാബ	-7931
▁സാം	-7932
▁മാണോ	-7933
▁മുകു	-7934
▁ഓൺലൈൻ	-7935
▁കോളജ്	-7936
▁തിയതി	-7937
▁അയാള്‍	-7938
▁ക്കുമോ	-7939
▁ഫസ്റ്റ്	-7940
▁യെല്ലാം	-7941
▁വിശദാംശ	-7942
▁ശരിയല്ല	-7943
▁സീറ്റും	-7944
▁മറികടക്ക	-7945
▁അഭിസംബോധന	-7946
▁നിയമങ്ങള്‍	-7947
▁ഒറ്റക്കെട്ട	-7948
▁പാകിസ്താന്‍	-7949
ാവശ്യപ്പെട്ട്	-7950
▁ചിത്രത്തില്‍	-7951
9)	-7952
ാവൂ	-7953
ക്ഷിത	-7954
ത്തൊഴ	-7955
▁പ്രമ	-7956
▁വിനെ	-7957
▁വിനോ	-7958
▁സൈസ്	-7959
▁ുന്ന	-7960
േഷന്റെ	-7961
▁നീട്ട	-7962
▁പട്ടാ	-7963
▁ബെഞ്ച	-7964
▁എഐസിസി	-7965
▁നിയോജക	-7966
▁സിദ്ദു	-7967
യ്ക്കിടെ	-7968
▁അയച്ചത്	-7969
▁പുലർച്ച	-7970
▁കൂടുതലായി	-7971
▁പിന്തുണയ്ക്ക	-7972
▁വീട്ടിലെത്തി	-7973
▁നിലനില്‍ക്കുന്ന	-7974
ൻസ	-7975
▁ഋ	-7976
പൂർ	-7977
മസ്	-7978
▁92	-7979
കുമാ	-7980
▁14,	-7981
▁ജയം	-7982
▁പണ്	-7983
▁ഇരുപ	-7984
▁ഒരാള	-7985
▁ക്കൽ	-7986
സിറ്റി	-7987
▁ഡോക്ടറ	-7988
▁റണ്‍സ്	-7989
▁കോളേജിൽ	-7990
▁വേട്ടയാ	-7991
▁അതിനുള്ള	-7992
▁ആളുകളുടെ	-7993
▁തലശ്ശേരി	-7994
▁യിരുന്നു	-7995
▁രംഗത്തിറ	-7996
▁ബംഗ്ലാദേശ	-7997
▁ചുമതലയുള്ള	-7998
▁റദ്ദാക്കിയ	-7999
▁അതുകൊണ്ടുതന്നെ	-8000
▁വ്യക്തമാക്കുന്ന	-8001
ഡീഷ	-8002
ിലേ	-8003
▁ഴി	-8004
ന്റു	-8005
ുക്ത	-8006
▁അക്	-8007
▁ചേര	-8008
▁മിസൈ	-8009
▁വേദി	-8010
▁സീസൺ	-8011
ണിന്റെ	-8012
ത്തായി	-8013
െയിന്‍	-8014
▁കോളനി	-8015
▁ക്രൈം	-8016
▁മർദ്ദ	-8017
▁രജിസ്	-8018
▁രണ്ടര	-8019
▁ലധികം	-8020
▁സീരിയ	-8021
▁ചങ്ങനാ	-8022
▁തങ്ങളെ	-8023
▁ലിന്റെ	-8024
▁വളർച്ച	-8025
▁ആർക്കും	-8026
▁ഏജന്‍സി	-8027
▁തൃശ്ശൂർ	-8028
▁മഞ്ചേശ്വ	-8029
▁സഹോദരന്‍	-8030
▁ഇല്ലെന്ന്	-8031
▁നേതാവിന്റെ	-8032
▁സിദ്ധരാമയ്യ	-8033
▁സീറ്റുകളാണ്	-8034
▁ആത്മവിശ്വാസം	-8035
▁കുടുംബത്തിന്റെ	-8036
▁കേന്ദ്രീകരിച്ച്	-8037
വറി	-8038
▁അതെ	-8039
▁നിശ	-8040
▁റാം	-8041
ദാര്‍	-8042
പേക്ഷ	-8043
▁ട്രോ	-8044
▁റായ്	-8045
▁സർവേ	-8046
ങ്ങാടി	-8047
ടുത്തെ	-8048
▁എൻഡിഎ	-8049
▁ക്ലബ്	-8050
▁ദുരൂഹ	-8051
▁ിച്ചു	-8052
ത്തൊഴില	-8053
▁ആഗ്രഹം	-8054
▁ചാനല്‍	-8055
▁രണ്ടാമ	-8056
▁ടെസ്റ്റ	-8057
▁മുണ്ടാക	-8058
▁കളുടേയും	-8059
▁ലീഗിന്റെ	-8060
▁സഹായിച്ച	-8061
▁െങ്കില്‍	-8062
▁ആരോപിച്ചിരുന്നു	-8063
സല	-8064
ോറ	-8065
ജനം	-8066
ഡ്യ	-8067
ാഗ്	-8068
▁ജഗ	-8069
▁ടേ	-8070
െയില	-8071
▁കഴു	-8072
ന്തിന്	-8073
▁ഉറ്റു	-8074
▁നാഷണൽ	-8075
▁മാന്‍	-8076
▁മൊത്ത	-8077
▁കൂട്ടു	-8078
▁ജെഡിയു	-8079
▁ധരിക്ക	-8080
▁അതിനായി	-8081
▁ഒന്നാണ്	-8082
▁കോര്‍പറ	-8083
▁ട്വന്റി	-8084
▁മോശമായി	-8085
▁കോളേജിലെ	-8086
▁പേരിലാണ്	-8087
▁ട്രെയിന്‍	-8088
▁പെരുമാറ്റ	-8089
▁വിജയിച്ചു	-8090
▁സർവകലാശാല	-8091
▁രീതിയിലാണ്	-8092
▁വിവരങ്ങളും	-8093
▁കേന്ദ്രങ്ങള്‍	-8094
▁ചെയ്യുമ്പോള്‍	-8095
▁പെണ്‍കുട്ടിയെ	-8096
▁സാമ്പത്തികമായി	-8097
▁ഉപതിരഞ്ഞെടുപ്പ്	-8098
▁ീ	-8099
ലാമ	-8100
▁കം	-8101
▁ലയ	-8102
ങ്കര	-8103
ഥ്വി	-8104
▁ഐസി	-8105
▁ഗാന	-8106
▁നേമ	-8107
▁റിലയ	-8108
കൂട്ടി	-8109
▁ആശ്രയ	-8110
▁ചെങ്ക	-8111
▁വളരെയ	-8112
▁വിജ്ഞ	-8113
▁വിസ്ത	-8114
▁ഹരീഷ്	-8115
▁അടുക്ക	-8116
▁തോന്നി	-8117
▁നിലവാര	-8118
▁അയ്യപ്പ	-8119
▁കാലഘട്ട	-8120
▁മറിച്ച്	-8121
ടക്കമുള്ള	-8122
▁ട്രെയിനി	-8123
▁ഡ്രൈവര്‍	-8124
▁ലക്ഷത്തോളം	-8125
▁അധികാരത്തില	-8126
▁ഉള്‍പ്പെട്ട	-8127
▁പാര്‍ട്ടിയെ	-8128
▁പുറത്താക്കിയ	-8129
▁ഉത്തര്‍പ്രദേശ	-8130
▁തെന്നായിരുന്നു	-8131
▁ഗ്രാമപഞ്ചായത്ത്	-8132
പാല	-8133
ബല്‍	-8134
▁പിള	-8135
▁മീന	-8136
▁ഗ്യാ	-8137
രിറ്റി	-8138
▁കൊറിയ	-8139
▁ഗെഹ്ല	-8140
▁നാവിക	-8141
▁പട്ടി	-8142
▁ബോംബ്	-8143
▁വികാര	-8144
▁എന്‍ഐഎ	-8145
▁തൊട്ട്	-8146
ാകുമെന്ന	-8147
▁ഓണ്‍ലൈന	-8148
▁തീരത്ത്	-8149
▁ദിലീപിനെ	-8150
▁ബ്രാഞ്ച്	-8151
▁വിജയന്റെ	-8152
▁കയറ്റുമതി	-8153
▁യില്ലാത്ത	-8154
▁ശാസ്ത്രജ്ഞ	-8155
▁സ്ഥാപനങ്ങൾ	-8156
▁കെജ്രിവാള്‍	-8157
▁മുണ്ടെന്നും	-8158
▁മത്സരാര്‍ത്ഥ	-8159
▁എന്നിങ്ങനേയാണ്	-8160
▁ിട്ടുണ്ടെന്നാണ്	-8161
ഗെ	-8162
ാടന	-8163
▁ww	-8164
കേരള	-8165
▁അപ്	-8166
ച്ചും	-8167
ുകാരി	-8168
ുണ്ടോ	-8169
▁മേനോ	-8170
▁ലംഘന	-8171
ത്തിലാ	-8172
മാറ്റം	-8173
ായില്ല	-8174
▁കന്നി	-8175
▁ചിറ്റ	-8176
▁ധര്‍മ	-8177
▁മരണമട	-8178
▁അക്രമം	-8179
▁കഴിച്ച	-8180
▁സംഘവും	-8181
▁ഐശ്വര്യ	-8182
▁നഷ്ടമായ	-8183
ുമ്പോഴാണ്	-8184
▁കുമാറിനെ	-8185
▁വിവാദമായ	-8186
▁ബന്ധപ്പെട	-8187
▁വിദേശത്തു	-8188
▁ഇന്ത്യക്ക്	-8189
▁ങ്ങളൊന്നും	-8190
▁നടത്തുന്നു	-8191
▁പദ്ധതിക്ക്	-8192
▁സഖ്യത്തിന്	-8193
യിലായിരുന്നു	-8194
▁തുടങ്ങിയവര്‍	-8195
ബറ	-8196
ോല	-8197
ടെക്	-8198
▁ഇപി	-8199
▁ധീര	-8200
▁സെൽ	-8201
▁ഡൊണാ	-8202
▁അഹമ്മ	-8203
▁ത്തുട	-8204
▁നങ്ങള	-8205
▁മായും	-8206
▁അയച്ചു	-8207
▁കളക്ടറ	-8208
▁കോവിഡി	-8209
▁ഡിഗ്രി	-8210
▁പത്താം	-8211
▁പ്രയാസ	-8212
▁റിസര്‍	-8213
▁വികാരം	-8214
▁െടുത്ത	-8215
▁കളുമാണ്	-8216
▁സിസ്റ്റ	-8217
▁ആദ്യഘട്ട	-8218
▁ഉയർത്തിയ	-8219
▁എക്സ്പ്ര	-8220
▁സംഘടനകള്‍	-8221
▁സഞ്ചരിച്ച	-8222
▁കാലയളവില്‍	-8223
▁ജില്ലകളിലെ	-8224
▁വീടുകളിലും	-8225
▁തൊഴിലാളികളെ	-8226
▁പങ്കെടുത്തി	-8227
▁ഹൈക്കമാന്‍ഡ്	-8228
▁പ്രവേശിപ്പിച്ച	-8229
▁7.	-8230
ണ്ണ്	-8231
ാലയം	-8232
ോണ്‍	-8233
▁അലേ	-8234
▁നിസ	-8235
▁സോള	-8236
ജക്ട്	-8237
മേറ്റ	-8238
▁ജോയി	-8239
▁ആലോചന	-8240
▁കാരിക	-8241
▁ജയില്‍	-8242
▁മേഖലകള	-8243
▁ചൈനയുടെ	-8244
▁പിരിച്ച	-8245
▁പ്രതിഫലം	-8246
▁കൊച്ചിയിലെ	-8247
▁പഞ്ചാബില്‍	-8248
▁മരണപ്പെട്ട	-8249
▁മാണെന്നാണ്	-8250
▁വിഭാഗത്തിൽ	-8251
▁വിലയിരുത്തി	-8252
▁അന്വേഷണത്തിന്	-8253
▁സംസ്ഥാനങ്ങള്‍	-8254
▁വിശ്വസിക്കുന്ന	-8255
▁കേന്ദ്രത്തിന്റെ	-8256
3,	-8257
ദു	-8258
▁M	-8259
ുകു	-8260
▁ചായ	-8261
▁പണമ	-8262
▁ട്ടു	-8263
▁വരിൽ	-8264
ാകാത്ത	-8265
▁ക്യാം	-8266
ധിപത്യം	-8267
▁ആനന്ദ്	-8268
▁ജലീല്‍	-8269
▁ഡിഎംകെ	-8270
▁യൂട്യൂ	-8271
▁സംവരണം	-8272
▁സിജന്‍	-8273
▁ആക്ഷേപം	-8274
▁എന്നറിയ	-8275
▁ക്രമീകരണ	-8276
▁മാര്‍ച്ച	-8277
▁റഷ്യയുടെ	-8278
ിക്കുമെന്ന	-8279
▁തരത്തില്‍	-8280
▁വിക്കറ്റ്	-8281
▁സ്ത്രീകളെ	-8282
▁സ്റ്റേഷന്‍	-8283
▁ുമായിരുന്നു	-8284
ളാ	-8285
▁e	-8286
േഷനു	-8287
▁കൊവി	-8288
▁ചാനല	-8289
▁ചെയർ	-8290
റ്റിനെ	-8291
▁ആരിഫ്	-8292
▁കുമ്മ	-8293
▁ചൊവ്വ	-8294
▁വച്ചു	-8295
▁സെറീന	-8296
▁ിൻ്റെ	-8297
▁കൂട്ടം	-8298
▁ചിങ്ങം	-8299
▁യുള്ളൂ	-8300
▁അധികാരി	-8301
▁കല്‍പ്പ	-8302
▁ദക്ഷിണാ	-8303
▁പബ്ലിക്	-8304
▁പാലിച്ച	-8305
▁ുമുണ്ട്	-8306
▁അബ്ദുള്ള	-8307
▁ത്തിനിടെ	-8308
▁നെഗറ്റീവ	-8309
▁പ്രക്രിയ	-8310
▁പൂർണമായും	-8311
▁പലയിടത്തും	-8312
▁സീറ്റുകളിൽ	-8313
ിക്കുമ്പോള്‍	-8314
▁പ്രതിസന്ധിയ	-8315
▁ുണ്ടെന്നാണ്	-8316
▁ആരോഗ്യവകുപ്പ്	-8317
▁ചിത്രത്തിന്റെ	-8318
▁ദക്ഷിണാഫ്രിക്ക	-8319
▁തിരഞ്ഞെടുപ്പിനെ	-8320
3)	-8321
ടമ	-8322
ർഡ്	-8323
ളിവു	-8324
▁അഷ്	-8325
▁ക്രെ	-8326
▁തൊടു	-8327
▁പര്യ	-8328
മാണിത്	-8329
▁ആളുകള	-8330
▁സെല്ല	-8331
ാനിയുടെ	-8332
▁ആണ്‍കു	-8333
▁ഇരുന്ന	-8334
▁ജനവിധി	-8335
▁പവാര്‍	-8336
▁ബോളിവു	-8337
▁മോദിയെ	-8338
▁വെബ്സൈ	-8339
▁കളിലാണ്	-8340
▁തടയാന്‍	-8341
▁നാശനഷ്ട	-8342
▁കോൺഗ്രസി	-8343
▁നിർമ്മാണ	-8344
▁പദ്ധതികൾ	-8345
▁പറയുകയും	-8346
▁യെങ്കിലും	-8347
ത്തിനുള്ളിൽ	-8348
▁കോട്ടയത്ത്	-8349
▁നല്‍കുകയും	-8350
▁സ്ത്രീകളും	-8351
▁ങ്ങളിലേക്ക്	-8352
▁മറുപടിയുമായി	-8353
▁യെക്കുറിച്ച്	-8354
പ്രവര്‍ത്തകര്‍	-8355
▁പ്രചാരണത്തിന്	-8356
▁'-	-8357
ജ്ജ്	-8358
ന്ധി	-8359
റ്റീ	-8360
രാകാശ	-8361
▁കാറ്റ	-8362
▁കീഴിൽ	-8363
▁ജേക്ക	-8364
▁ദൗത്യ	-8365
▁വിസ്മ	-8366
▁ഡിജിപി	-8367
ക്കുട്ടി	-8368
▁ത്തേയും	-8369
▁ദുര്‍ബല	-8370
▁മൊന്നും	-8371
▁ലിസ്റ്റ	-8372
▁വമ്പന്‍	-8373
▁വ്യക്തത	-8374
▁പറ്റില്ല	-8375
▁സിനിമയിലെ	-8376
▁അന്വേഷിച്ച	-8377
▁മായിട്ടാണ്	-8378
▁ഞങ്ങള്‍ക്ക്	-8379
▁ക്കണമെന്നാണ്	-8380
▁തട്ടിക്കൊണ്ട	-8381
▁ഉള്‍പ്പെടുന്ന	-8382
▁പുറത്തിറങ്ങിയ	-8383
▁ആശുപത്രികളിലും	-8384
രുപ	-8385
▁ദൂ	-8386
പ്പൊ	-8387
▁യൂസ	-8388
ഭാഗ്യ	-8389
വുമായ	-8390
നുള്ളിൽ	-8391
▁ഉദ്ധവ്	-8392
▁തവണയും	-8393
▁പൃഥ്വി	-8394
▁സൂപ്പർ	-8395
▁ലംഘിച്ച	-8396
▁മണിക്കൂർ	-8397
▁പരിസ്ഥിതി	-8398
▁സമ്മതിച്ച	-8399
▁മന്ത്രിമാര്‍	-8400
▁സ്വീകരിക്കും	-8401
ാട	-8402
ുവീ	-8403
ജെപി	-8404
ഫര്‍	-8405
▁വലി	-8406
സിച്ച	-8407
സ്ഥിര	-8408
ിനാണ്	-8409
▁ഗൂഗി	-8410
▁ട്രൈ	-8411
▁മാരു	-8412
▁നോമിന	-8413
േഷിന്റെ	-8414
▁ഓഫീസിൽ	-8415
▁കലാകാര	-8416
▁ജയരാജൻ	-8417
▁പ്രവചന	-8418
▁അതിലൂടെ	-8419
▁നിര്‍വഹ	-8420
▁മാർക്ക്	-8421
▁യുഡിഎഫി	-8422
▁വിജയരാഘ	-8423
▁താമസിച്ച	-8424
▁ബഹിരാകാശ	-8425
▁സമ്മർദ്ദ	-8426
▁അതോടൊപ്പം	-8427
▁പെന്‍ഷന്‍	-8428
▁റെക്കോര്‍ഡ്	-8429
▁വകുപ്പുകള്‍	-8430
▁അന്വേഷണത്തില്‍	-8431
സമാ	-8432
ാനോ	-8433
ുവാ	-8434
ോഷം	-8435
പിസി	-8436
▁ധനു	-8437
▁സുന	-8438
▁ഒഡീഷ	-8439
▁ജനതാ	-8440
▁അഗ്നി	-8441
ക്കാരായ	-8442
രുത്തിയ	-8443
▁തലത്തിൽ	-8444
▁തിരിച്ചെ	-8445
▁പൂര്‍ത്ത	-8446
▁പ്രതികൂല	-8447
▁മേഖലകളിൽ	-8448
▁സിസിടിവി	-8449
▁കൊണ്ടുപോക	-8450
▁പെട്രോള്‍	-8451
▁പേരുടെയും	-8452
▁സ്റ്റാര്‍	-8453
▁ഹൈദരാബാദ്	-8454
▁ആവശ്യപ്പെട	-8455
▁എന്നിരുന്ന	-8456
▁ട്രംപിന്റെ	-8457
▁വോട്ടിന്റെ	-8458
▁കൊണ്ടിരിക്ക	-8459
▁സ്വദേശികള്‍	-8460
▁പ്രവർത്തിച്ച	-8461
▁കേന്ദ്രീകരിച്ച	-8462
▁സർട്ടിഫിക്കറ്റ	-8463
വേല	-8464
▁കസ	-8465
▁ാൻ	-8466
ബിസി	-8467
▁കോയ	-8468
▁രോഗി	-8469
▁ശുചി	-8470
ാവൂര്‍	-8471
▁താങ്ങ	-8472
▁ഉദാഹരണ	-8473
▁എതിരാള	-8474
▁ക്രൂഡ്	-8475
▁സത്യവാ	-8476
▁അട്ടിമറ	-8477
▁കണ്‍വീന	-8478
▁യുക്രൈന	-8479
▁അല്ലാത്ത	-8480
▁ക്കുണ്ട്	-8481
▁താരതമ്യം	-8482
▁പോസ്റ്റി	-8483
▁കേസുകളുടെ	-8484
▁കര്‍ഷകരുടെ	-8485
▁ലക്ഷദ്വീപ്	-8486
▁യിലേക്കുള്ള	-8487
▁സര്‍ക്കാരും	-8488
▁സിപിഎമ്മിന്	-8489
▁ചര്‍ച്ചയില്‍	-8490
am	-8491
ഫലം	-8492
▁ഖു	-8493
▁ഗർ	-8494
ാര്‍ശ	-8495
ിലേറെ	-8496
▁കുഴി	-8497
▁അവകാശം	-8498
▁സെക്യൂ	-8499
സിപ്പല്‍	-8500
▁അടങ്ങിയ	-8501
▁ഇവർക്ക്	-8502
ൊക്കെയാണ്	-8503
▁കുതിച്ചു	-8504
▁താല്‍പ്പ	-8505
▁റദ്ദാക്ക	-8506
▁ചെയ്താല്‍	-8507
▁മരണത്തിന്	-8508
▁യിലേക്കും	-8509
▁പൊലീസിന്റെ	-8510
▁സൗജന്യമായി	-8511
▁ഇന്ത്യയ്ക്ക്	-8512
▁വ്യക്തിപരമായ	-8513
▁ഉദ്യോഗസ്ഥരുടെ	-8514
▁മത്സ്യത്തൊഴില	-8515
▁മാനദണ്ഡങ്ങള്‍	-8516
▁ിരുന്നുവെന്ന്	-8517
▁ആയിരക്കണക്കിന്	-8518
ഷുറ	-8519
ക്കൽ	-8520
▁ആരു	-8521
▁ഏതു	-8522
▁സുഖ	-8523
▁സ്ക	-8524
തമാണ്	-8525
മ്പ്ര	-8526
▁എംഎം	-8527
▁നേടു	-8528
▁സാണ്	-8529
▁സഞ്ജു	-8530
രാമത്ത്	-8531
▁അപ്പോൾ	-8532
▁തടഞ്ഞു	-8533
▁നെറ്റ്	-8534
▁ന്യൂയോ	-8535
▁പരാജയം	-8536
▁മാർഗ്ഗ	-8537
▁അമരീന്ദ	-8538
▁ചടങ്ങിൽ	-8539
▁ചേരുന്ന	-8540
▁തിരുത്ത	-8541
▁നിബന്ധന	-8542
▁മക്കള്‍	-8543
▁കത്തില്‍	-8544
▁പരാതിയിൽ	-8545
▁പോലെയാണ്	-8546
▁അപകടത്തിൽ	-8547
▁കമല്‍നാഥ്	-8548
▁തൊട്ടടുത്ത	-8549
▁റിക്രൂട്ട്	-8550
▁ിക്കാനുള്ള	-8551
▁പരിശോധിച്ചത്	-8552
▁അമേരിക്കയില്‍	-8553
▁പ്രവര്‍ത്തകരെ	-8554
▁കേന്ദ്രത്തില്‍	-8555
▁നില്‍ക്കുകയാണ്	-8556
കട	-8557
ോയ	-8558
വാസ്	-8559
സ്ടി	-8560
▁സായ	-8561
ത്തായ	-8562
ാനിലെ	-8563
▁ബാധക	-8564
▁ഹിജാ	-8565
▁ഗാര്‍	-8566
▁ഗുണ്ട	-8567
▁ിച്ച്	-8568
ല്ലൂര്‍	-8569
▁ക്കിടെ	-8570
▁ഡ്രൈവർ	-8571
▁തകർക്ക	-8572
▁താപനില	-8573
▁നടന്ന്	-8574
ക്കൂട്ടം	-8575
▁ഇടയില്‍	-8576
▁തെളിഞ്ഞ	-8577
▁വാണിജ്യ	-8578
▁വൈറലായി	-8579
വാറ്റുപുഴ	-8580
▁വിലയില്‍	-8581
▁സമ്പത്ത്	-8582
▁സ്റ്റാഫ്	-8583
▁എന്തൊക്കെ	-8584
▁കൂട്ടായ്മ	-8585
▁മുകളിലുള്ള	-8586
▁മൂന്നാമത്തെ	-8587
▁തിരിച്ചടിയാണ്	-8588
▁നില്‍ക്കുന്നത്	-8589
ളോ	-8590
ശോ	-8591
▁ഡാ	-8592
▁വഷ	-8593
▁ഷം	-8594
▁സൌ	-8595
റിങ്	-8596
▁..!	-8597
▁www	-8598
▁കമല	-8599
▁ടൈം	-8600
▁ലളി	-8601
▁സുക	-8602
ല്ലൂർ	-8603
▁അസുഖ	-8604
▁എംബി	-8605
▁ജെയ്	-8606
▁രാണ്	-8607
▁ലണ്ട	-8608
▁ആർഎസ്	-8609
▁തലമുറ	-8610
▁റോബിൻ	-8611
▁സംഖ്യ	-8612
ിട്ടാണ്	-8613
▁കളേയും	-8614
▁സെഞ്ച്	-8615
▁ുണ്ടായ	-8616
നിടയില്‍	-8617
▁കേസെടുത്ത	-8618
▁തിരിച്ചറി	-8619
▁രാശിയില്‍	-8620
▁കമ്പ്യൂട്ട	-8621
▁ക്രിമിനല്‍	-8622
▁താല്‍പര്യം	-8623
▁എന്താണെന്ന്	-8624
▁എല്‍ഡിഎഫിന്	-8625
▁രാജ്യത്തിന്	-8626
▁ഉറപ്പുവരുത്ത	-8627
▁അഭിമുഖത്തില്‍	-8628
▁എന്നിരുന്നാലും	-8629
ല്യം	-8630
ശേഷം	-8631
ഡിംഗ്	-8632
ാക്ക്	-8633
േറ്റു	-8634
▁അറിവ	-8635
▁കന്ന	-8636
▁അയല്‍	-8637
▁ചൗധരി	-8638
▁നേയും	-8639
▁സംവരണ	-8640
▁ൊക്കെ	-8641
▁അണിനിര	-8642
▁തീരദേശ	-8643
▁മുക്തി	-8644
▁കാഴ്ച്ച	-8645
▁നിരോധനം	-8646
▁ഇടപെട്ട്	-8647
▁കമ്മറ്റി	-8648
▁ുമ്പോള്‍	-8649
▁തുടരുന്നു	-8650
▁നടപടിക്രമ	-8651
▁കേരളത്തിലും	-8652
▁അടിയന്തരമായി	-8653
ഡർ	-8654
▁9.	-8655
▁ഓട	-8656
▁മദ	-8657
രാഗ്	-8658
സല്‍	-8659
▁ദുർ	-8660
▁നല്	-8661
▁ബിൽ	-8662
▁മേഘ	-8663
▁വരി	-8664
▁വീശ	-8665
▁ആചാര	-8666
▁ആസാദ്	-8667
▁കാവ്യ	-8668
▁മിണ്ട	-8669
ത്തിനകം	-8670
ര്‍ക്കു	-8671
കക്ഷിയായ	-8672
▁അനുമതിയ	-8673
▁തന്ത്രം	-8674
▁തവണയാണ്	-8675
▁വേണ്ടിയ	-8676
▁എന്‍ജിനീയ	-8677
▁ബന്ധമുണ്ട	-8678
▁കാര്യമില്ല	-8679
▁വനംവകുപ്പ്	-8680
▁ആളുകള്‍ക്ക്	-8681
▁എല്ലാവരെയും	-8682
▁സ്ത്രീകളുടെ	-8683
ുണ്ടായിരുന്നു	-8684
▁നടന്നിരുന്നു	-8685
വുമ	-8686
ിലോ	-8687
ഫോഴ്	-8688
ളോട്	-8689
വായി	-8690
▁18,	-8691
▁ചതു	-8692
▁ബാര	-8693
▁റൂം	-8694
▁സിഐ	-8695
▁സുഗ	-8696
റേയും	-8697
▁കൊടി	-8698
▁പണിയ	-8699
▁പ്പ്	-8700
▁ഭീഷണ	-8701
▁സിലി	-8702
പിയുടെ	-8703
▁ക്ഷാമ	-8704
▁ഗോപാല	-8705
▁മെമ്മ	-8706
▁ജ്വല്ല	-8707
▁പാരമ്പ	-8708
▁സിക്യൂ	-8709
▁ഇങ്ങനെയ	-8710
▁ഡിപ്ലോമ	-8711
▁പെരുമാറ	-8712
▁പ്രശസ്ത	-8713
▁മുതലാണ്	-8714
▁തര്‍ക്കം	-8715
▁സംരക്ഷണം	-8716
▁വര്‍ധിപ്പ	-8717
▁സമ്മര്‍ദ്ദ	-8718
▁നടപ്പാക്കിയ	-8719
▁പുതുപ്പള്ളി	-8720
▁ചെയ്യണമെന്ന്	-8721
▁സ്റ്റേഷനില്‍	-8722
ഹാർ	-8723
▁91	-8724
▁അഹ	-8725
▁ഷഹ	-8726
ടാണ്	-8727
ശേഷി	-8728
▁നൂറ	-8729
▁ലിം	-8730
▁ശക്	-8731
▁കഠിന	-8732
▁നദ്ദ	-8733
▁റിയാ	-8734
▁വട്ട	-8735
ുമാര്‍	-8736
▁കേരളാ	-8737
▁ചെങ്ങ	-8738
▁നിത്യ	-8739
ാലിന്റെ	-8740
▁നിലവില	-8741
▁നുമായി	-8742
▁റെഡ്ഡി	-8743
ഡിയൂരപ്പ	-8744
▁ഡബ്ല്യു	-8745
▁ദശലക്ഷം	-8746
▁പ്രിന്‍	-8747
ക്രമിച്ച്	-8748
ങ്ങളിലൂടെ	-8749
▁ഇതൊന്നും	-8750
▁യൂണിറ്റ്	-8751
▁സമീപത്തെ	-8752
െയായിരുന്നു	-8753
▁ജനപ്രതിനിധ	-8754
▁പങ്കെടുക്കും	-8755
▁നിര്‍ദേശങ്ങള്‍	-8756
▁ബിജെപിയിലേക്ക്	-8757
▁സംസ്ഥാനങ്ങളിലും	-8758
ാരോ	-8759
▁(8	-8760
▁അൻ	-8761
▁എന	-8762
▁ഡോസ	-8763
▁ത്വ	-8764
▁മകൾ	-8765
▁സാര	-8766
റിയാം	-8767
ിയന്‍	-8768
▁അയോഗ	-8769
▁ഡെമോ	-8770
▁ത്തോ	-8771
▁രമ്യ	-8772
▁റാവു	-8773
പ്പാട്	-8774
▁ഒന്നു	-8775
▁ബൂത്ത	-8776
▁വേര്‍	-8777
▁ജാസ്മി	-8778
▁നമ്മളെ	-8779
▁പഠിച്ച	-8780
▁വഹിച്ച	-8781
▁വിരാട്	-8782
▁അഡ്മിനി	-8783
▁അഭിമുഖം	-8784
▁ഉറ്റുനോ	-8785
▁തിരക്കഥ	-8786
▁രാമക്ഷേ	-8787
▁വെളിച്ച	-8788
▁ആഫ്രിക്ക	-8789
▁സന്നിധാന	-8790
▁ിരിക്കണം	-8791
▁സംബന്ധമായ	-8792
▁അഭിഭാഷകന്‍	-8793
▁എറണാകുളത്ത്	-8794
ിക്കുമെന്നാണ്	-8795
▁പൊതുമരാമത്ത്	-8796
▁സെക്യൂരിറ്റി	-8797
▁സൗകര്യങ്ങള്‍	-8798
▁തൊഴിലാളികളുടെ	-8799
▁വിദ്യാർത്ഥികൾ	-8800
▁കാഞ്ഞിരപ്പള്ളി	-8801
ല്യ	-8802
▁ജേ	-8803
ഫ്യൂ	-8804
▁അകല	-8805
▁ഡൗൺ	-8806
▁മേള	-8807
▁സവി	-8808
▁ആഞ്ഞ	-8809
ീല്‍ഡ്	-8810
▁അമ്പര	-8811
▁എപ്പി	-8812
▁പ്രാപ	-8813
ുവരുന്ന	-8814
▁പോളിങ്	-8815
▁വെള്ളി	-8816
▁ഭാഗത്തു	-8817
▁സീറ്റിൽ	-8818
▁അബ്ദുള്‍	-8819
▁ക്ഷേത്രം	-8820
▁ശുപാര്‍ശ	-8821
▁കിട്ടിയത്	-8822
▁ഒറ്റയ്ക്ക്	-8823
▁കാര്യങ്ങളെ	-8824
▁േക്കുമെന്ന	-8825
▁അമേരിക്കയുടെ	-8826
▁കുടുംബത്തിലെ	-8827
▁സെക്രട്ടേറിയ	-8828
▁ഞെട്ടിക്കുന്ന	-8829
▁പ്രസ്താവനയില്‍	-8830
▁ഉയര്‍ന്നിരുന്നു	-8831
▁in	-8832
▁ധി	-8833
▁അവൾ	-8834
▁ഇവി	-8835
▁നിപ	-8836
▁നീര	-8837
▁പൂര	-8838
▁യോജ	-8839
ത്തിമ	-8840
▁അന്യ	-8841
▁തെരു	-8842
▁ത്താ	-8843
▁പേരി	-8844
ങ്ങിനെ	-8845
▁കാന്‍	-8846
ക്കുള്ള	-8847
▁ഒരുപോലെ	-8848
▁കുത്തനെ	-8849
▁വുമില്ല	-8850
▁തികച്ചും	-8851
▁യ്ക്കാണ്	-8852
▁ഇന്ത്യയും	-8853
▁എന്നിവയും	-8854
▁കോൺഗ്രസും	-8855
▁ചേര്‍ന്നു	-8856
▁ഉണ്ടെന്നും	-8857
▁ചികിത്സയിൽ	-8858
▁പിന്തുണയും	-8859
▁ഡല്‍ഹിയില്‍	-8860
▁പിന്തുണച്ച്	-8861
▁കുട്ടികള്‍ക്ക്	-8862
വശ	-8863
ഡ്ര	-8864
ീർഘ	-8865
▁കബ	-8866
വൈസി	-8867
▁120	-8868
▁മഹി	-8869
▁സിഎ	-8870
ത്തുട	-8871
▁ണ്ടാ	-8872
▁ദേവി	-8873
▁മോഹന	-8874
ദിച്ച്	-8875
ന്റിന്	-8876
▁ഉപദ്ര	-8877
▁ബഹിഷ്	-8878
▁മദ്യപ	-8879
ാവിന്റെ	-8880
▁ഇസ്ലാമ	-8881
▁നിവാരണ	-8882
▁പ്രതിഭ	-8883
▁സ്വർണം	-8884
പ്പുകള്‍	-8885
▁കുറിപ്പ	-8886
▁പെടുത്ത	-8887
▁ഹൈക്കമാ	-8888
ക്കാലത്ത്	-8889
▁കുടുങ്ങി	-8890
▁തീര്‍ത്ത	-8891
▁ിരിക്കും	-8892
▁എത്തിച്ചത്	-8893
▁യെഡിയൂരപ്പ	-8894
▁ക്കുറിച്ചും	-8895
▁പിടിക്കുന്ന	-8896
▁ചെയ്യുമെന്ന്	-8897
▁അനുവദിക്കുന്ന	-8898
▁ആക്രമണത്തില്‍	-8899
▁ക്കുറിച്ചുള്ള	-8900
▁തുടക്കത്തില്‍	-8901
ിച്ചിരിക്കുന്നത്	-8902
▁രക്ഷാപ്രവര്‍ത്ത	-8903
മറി	-8904
ുപ്	-8905
ദിക്	-8906
▁ലൈൻ	-8907
▁മിസ്	-8908
റ്റിലെ	-8909
▁നല്ലത്	-8910
▁യാക്കി	-8911
സിലേക്ക്	-8912
▁തന്നോട്	-8913
▁തൊടുപുഴ	-8914
▁പറഞ്ഞാൽ	-8915
▁ഫാത്തിമ	-8916
▁വർഷമായി	-8917
▁കളുടെയും	-8918
▁ക്കിടയിൽ	-8919
▁നിയമങ്ങൾ	-8920
▁ചെയ്യാനും	-8921
▁താത്കാലിക	-8922
▁തോന്നുന്ന	-8923
▁പിടിച്ചത്	-8924
▁കമ്മീഷണര്‍	-8925
▁ചെയ്തിരുന്ന	-8926
▁പുറത്തിറങ്ങ	-8927
▁വീഡിയോയില്‍	-8928
▁ശക്തമാക്കിയ	-8929
▁ട്വിറ്ററില്‍	-8930
1)	-8931
ഘു	-8932
▁ാല	-8933
്യാദ	-8934
▁അശ്	-8935
റിയും	-8936
▁അടിമ	-8937
▁ദീർഘ	-8938
▁പ്രഭ	-8939
▁മ്യൂ	-8940
▁അവതാര	-8941
▁ഔട്ട്	-8942
▁ടിക്ക	-8943
▁പകുതി	-8944
▁അനിവാര	-8945
▁മൊക്കെ	-8946
▁വിശ്വാ	-8947
▁അഴിച്ചു	-8948
▁നോക്കാം	-8949
▁സമയമാണ്	-8950
പ്രവർത്തക	-8951
▁ക്യാമ്പ്	-8952
▁പന്തില്‍	-8953
▁യുണ്ടായി	-8954
ര്‍ക്കുന്ന	-8955
▁എക്സിക്യൂ	-8956
▁സ്ഥിരമായി	-8957
▁പരിപാടിയിൽ	-8958
▁വേണമെന്നും	-8959
▁കോണ്‍ഗ്രസിന	-8960
▁ചേര്‍ന്നാണ്	-8961
▁നിലനിര്‍ത്ത	-8962
▁പാലിക്കുന്ന	-8963
▁പ്രവര്‍ത്തകരും	-8964
▁തന്നെയായിരുന്നു	-8965
ov	-8966
സിം	-8967
▁തന	-8968
▁റഹ	-8969
▁റൺ	-8970
▁ഹന	-8971
റല്‍	-8972
േഷന്	-8973
▁ചിദ	-8974
▁ലാബ	-8975
ോട്ടെ	-8976
▁പള്‍	-8977
സാക്ഷി	-8978
ാറില്ല	-8979
▁കുര്യ	-8980
▁ചില്ല	-8981
▁പിയും	-8982
▁പ്രേമ	-8983
▁യോടും	-8984
▁ുകള്‍	-8985
േയ്ക്ക്	-8986
▁തെക്ക്	-8987
▁റെയ്ഡ്	-8988
▁ഹിന്ദി	-8989
▁അടിച്ചു	-8990
▁കഞ്ചാവ്	-8991
▁കണ്ടെയ്	-8992
▁നിയമനടപ	-8993
▁അവിശ്വാസ	-8994
▁ജോലിക്ക്	-8995
▁ബാധിച്ചു	-8996
▁ലിസ്റ്റ്	-8997
▁സാഹചര്യമ	-8998
▁ഞങ്ങൾക്ക്	-8999
▁മുണ്ടാകും	-9000
▁യിലെത്തിയ	-9001
▁സ്ഥാനാർഥി	-9002
▁സ്വര്‍ണ്ണ	-9003
▁നേതാക്കളായ	-9004
▁പതിറ്റാണ്ട	-9005
▁ചെയ്യുകയാണ്	-9006
▁ജില്ലകളിലായി	-9007
▁കേന്ദ്രങ്ങളില്‍	-9008
സിഡ	-9009
▁81	-9010
▁ഏജ	-9011
ഡിലെ	-9012
താക്	-9013
ന്യാ	-9014
ാട്ട	-9015
▁15,	-9016
▁അണു	-9017
▁മതം	-9018
▁മുയ	-9019
പൊട്ട	-9020
ിക്കൂ	-9021
▁സൊസൈ	-9022
സമാധാന	-9023
ാസ്ത്ര	-9024
▁കുണ്ട	-9025
▁കുമാര	-9026
▁ക്കായ	-9027
▁പലതവണ	-9028
▁ിട്ടു	-9029
ുരുത്തി	-9030
▁ഇന്റലി	-9031
▁സ്റ്റു	-9032
▁ധനകാര്യ	-9033
▁പ്രതികള	-9034
▁പിടികൂടി	-9035
▁ശ്രമങ്ങൾ	-9036
▁സീസണില്‍	-9037
▁ഒഴിവുകള്‍	-9038
▁കുടിവെള്ള	-9039
▁നേരിട്ടത്	-9040
▁കല്‍പ്പറ്റ	-9041
▁യുവാക്കള്‍	-9042
▁താരത്തിന്റെ	-9043
▁ആരംഭിക്കുന്ന	-9044
▁എത്തിക്കുന്ന	-9045
▁ഇന്‍സ്റ്റിറ്റ	-9046
▁പ്രതീക്ഷയിലാണ്	-9047
റുകൾ	-9048
▁16,	-9049
▁ജോൺ	-9050
▁രാക	-9051
പ്പോയ	-9052
▁ഇതില	-9053
▁നെഹ്	-9054
▁വരാൻ	-9055
▁ഇടയിൽ	-9056
▁കൈപ്പ	-9057
▁മുക്ത	-9058
▁വെങ്ക	-9059
▁കാത്തു	-9060
▁കിടന്ന	-9061
▁കൊച്ചു	-9062
▁ചാക്കോ	-9063
▁സമുദ്ര	-9064
▁ഉള്‍പ്പ	-9065
▁കാപ്പന്‍	-9066
▁കേസുകളും	-9067
▁പതിനായിര	-9068
▁മുണ്ടായി	-9069
▁രണ്ടാഴ്ച	-9070
▁ഉയരുന്നത്	-9071
▁മന്ത്രിസഭാ	-9072
▁യാഥാര്‍ത്ഥ	-9073
▁സംഭവത്തിന്	-9074
▁ഉന്നയിച്ചത്	-9075
▁ചെയ്യേണ്ടത്	-9076
▁തനിക്കെതിരെ	-9077
െന്നായിരുന്നു	-9078
▁വോട്ടെണ്ണല്‍	-9079
▁ഉമ്മന്‍ചാണ്ടി	-9080
▁ഉണ്ടായിട്ടില്ല	-9081
ണത	-9082
ാളും	-9083
മ്പുഴ	-9084
▁ഒരുമ	-9085
▁കൺട്ര	-9086
▁വൈകിയ	-9087
▁ജയിലിൽ	-9088
▁വ്യാപി	-9089
ിപ്പിക്ക	-9090
▁ഗസ്റ്റ്	-9091
▁ആര്‍ജെഡി	-9092
▁ക്കാനുളള	-9093
▁ഡിവൈഎഫ്ഐ	-9094
▁യുഎഇയില്‍	-9095
▁ഹെല്‍ത്ത്	-9096
▁കുടുംബശ്രീ	-9097
▁ക്രമസമാധാന	-9098
▁ദിവസങ്ങള്‍	-9099
▁തുടർച്ചയായി	-9100
▁യുഡിഎഫിന്റെ	-9101
▁സംഘത്തിന്റെ	-9102
▁ഉണ്ടാക്കുന്ന	-9103
മര്‍	-9104
ാൻഡ്	-9105
▁ഹർജ	-9106
െന്നു	-9107
▁അഡീഷ	-9108
▁പെയ്	-9109
▁പോക്	-9110
▁ബസ്സ	-9111
▁സുഭാ	-9112
▁സേനാ	-9113
▁സ്വി	-9114
▁ഹെഡ്	-9115
▁ാത്ത	-9116
ൃതമായി	-9117
▁അതോടെ	-9118
▁ടാറ്റ	-9119
▁വെല്‍	-9120
▁സൂരജ്	-9121
▁അനുഭവം	-9122
▁ഉറച്ച്	-9123
▁എതിരായ	-9124
▁കേട്ട്	-9125
▁തൃപ്തി	-9126
▁ഭിന്നത	-9127
▁ഹെലികോ	-9128
യ്ക്കല്‍	-9129
▁അനാവശ്യ	-9130
▁അയാളുടെ	-9131
▁കരുത്ത്	-9132
▁തടയുന്ന	-9133
▁സ്വീകാര	-9134
ബന്ധിച്ച്	-9135
▁മില്യണ്‍	-9136
▁സത്യവാങ്	-9137
▁കൂടുതലാണ്	-9138
▁നേരിടാന്‍	-9139
പ്പെടുത്താൻ	-9140
▁അതിശക്തമായ	-9141
▁ആദ്യമായാണ്	-9142
▁പുറത്താക്ക	-9143
▁സമീപിച്ചത്	-9144
▁നീക്കങ്ങള്‍	-9145
▁പരിപാടികള്‍	-9146
▁പ്രസിഡന്‍റ്	-9147
▁വൃത്തങ്ങള്‍	-9148
പെ	-9149
ഘോഷ	-9150
മാശ	-9151
▁അതോ	-9152
▁ഉടല	-9153
▁പകര	-9154
ക്ഷേമ	-9155
▁5000	-9156
▁ചേരി	-9157
▁വീണ്	-9158
ചിതമായ	-9159
▁പുതുമ	-9160
▁കയറ്റി	-9161
▁ബാംഗ്ല	-9162
▁വരില്ല	-9163
▁വൈറല്‍	-9164
്യാപേക്ഷ	-9165
▁ഇരിട്ടി	-9166
▁കിട്ടും	-9167
▁കെട്ടിയ	-9168
▁താഴ്ന്ന	-9169
▁ഫ്രാന്‍	-9170
▁യൊന്നും	-9171
▁വെച്ചത്	-9172
▁കൊണ്ടുവര	-9173
▁ഗെലോട്ട്	-9174
▁വിശദീകരണ	-9175
▁ഉൾപ്പെട്ട	-9176
▁മെങ്കിലും	-9177
▁വകുപ്പിന്	-9178
▁ഹിന്ദുക്ക	-9179
▁ഡിജിറ്റല്‍	-9180
▁ജാമ്യാപേക്ഷ	-9181
▁ജില്ലകളിലാണ്	-9182
▁ശ്രദ്ധിക്കണം	-9183
▁കമ്മിറ്റിയുടെ	-9184
▁പ്രസിദ്ധീകരിച്ച	-9185
▁സ്ഥാനാര്‍ത്ഥിയെ	-9186
▁m	-9187
ുമു	-9188
െസ്	-9189
ഡുകൾ	-9190
▁അഭയ	-9191
▁ഭയം	-9192
ിക്കട	-9193
ോണിക്	-9194
്യൂറോ	-9195
▁ആദായ	-9196
▁പ്രയ	-9197
▁ല്ലാ	-9198
ണ്ണായക	-9199
▁ആരാധന	-9200
▁ഗോള്‍	-9201
▁സപ്പോ	-9202
▁ക്കാനോ	-9203
▁പ്പോലെ	-9204
▁റവന്യൂ	-9205
▁ഹിജാബ്	-9206
▁െത്തിയ	-9207
ാക്കളുടെ	-9208
▁അനുയായി	-9209
▁കൂളില്‍	-9210
▁ത്രിപുര	-9211
▁പറയേണ്ട	-9212
▁ലഭ്യമായ	-9213
▁ഉല്‍പ്പാ	-9214
▁പെട്രോളി	-9215
▁ഇരിക്കുന്ന	-9216
▁കുടുംബത്തെ	-9217
▁യാത്രക്കാർ	-9218
▁നിയമവിരുദ്ധ	-9219
▁പറഞ്ഞിട്ടുണ്ട്	-9220
▁രംഗത്തെത്തിയത്	-9221
7)	-9222
ബിന	-9223
ീഖ്	-9224
▁ഉദയ	-9225
▁ഓണം	-9226
▁ദോഷ	-9227
▁നീല	-9228
▁ിംഗ	-9229
▁വന്യ	-9230
▁അനുപമ	-9231
▁അഭിഷേ	-9232
▁പെരിയ	-9233
കാലത്ത്	-9234
ടിസ്ഥാന	-9235
▁അരുണ്‍	-9236
▁റിയാദ്	-9237
▁സഞ്ചാര	-9238
▁സവിശേഷ	-9239
▁അച്ഛന്‍	-9240
▁ഒരിക്കൽ	-9241
▁പരീക്ഷാ	-9242
▁വിജ്ഞാപ	-9243
▁സമാധാനം	-9244
▁കുവൈത്ത്	-9245
▁ടീമിന്റെ	-9246
▁ഭാഗമായാണ്	-9247
▁മാറ്റാന്‍	-9248
▁തിരച്ചില്‍	-9249
▁മൂവാറ്റുപുഴ	-9250
▁ുണ്ടായിരുന്ന	-9251
▁ഉന്നയിക്കുന്ന	-9252
▁വരികയായിരുന്നു	-9253
▁സർട്ടിഫിക്കറ്റ്	-9254
6)	-9255
റം	-9256
മാല	-9257
▁).	-9258
▁ഹസ	-9259
പരിച	-9260
വിനി	-9261
▁250	-9262
▁ണ്‍	-9263
▁ഭൂപ	-9264
▁യഥാ	-9265
▁അണിയ	-9266
▁ചാടി	-9267
▁ടിപി	-9268
▁റ്റോ	-9269
▁വക്ക	-9270
ളിന്റെ	-9271
▁ഉത്സവ	-9272
▁ട്രോള	-9273
▁തിരായ	-9274
▁മാരാർ	-9275
▁മെമ്പ	-9276
▁വകഭേദ	-9277
മാകുന്ന	-9278
▁അപൂര്‍	-9279
▁അര്‍ജു	-9280
▁ഇറക്കി	-9281
▁കുഴപ്പ	-9282
▁വീട്ടു	-9283
▁സംഭാഷണ	-9284
▁സ്റ്റ്	-9285
▁അമ്മയും	-9286
▁രണ്ടുപേ	-9287
▁കഴിഞ്ഞത്	-9288
▁സമയത്താണ്	-9289
▁സുധാകരന്റെ	-9290
▁അധ്യക്ഷനായി	-9291
▁ക്യാപ്റ്റന്‍	-9292
▁വിശദീകരിച്ചു	-9293
▁അവകാശപ്പെട്ടു	-9294
▁ചോദിക്കുന്നത്	-9295
▁നേതാക്കളുമായി	-9296
▁മണ്ഡലങ്ങളിലും	-9297
▁നേതൃത്വത്തിലാണ്	-9298
തൂ	-9299
്പ്	-9300
മിന്ന	-9301
ാലിനെ	-9302
▁അപലപ	-9303
▁എംകെ	-9304
▁ഐസൊല	-9305
▁ദേവ്	-9306
▁പൊടി	-9307
▁മുടി	-9308
▁സിലെ	-9309
▁അകാലി	-9310
▁കൈവശം	-9311
▁ദിലീപ	-9312
▁റഷ്യൻ	-9313
▁നിഗമനം	-9314
▁ക്രമക്കേ	-9315
▁വിക്കറ്റ	-9316
▁കുടുംബവും	-9317
▁നഗരത്തിലെ	-9318
▁വെട്ടിക്ക	-9319
▁നടപടിയെടുക്ക	-9320
▁പ്രചരിക്കുന്ന	-9321
▁ആവശ്യപ്പെടുന്ന	-9322
5,	-9323
on	-9324
▁P	-9325
വച്ച	-9326
▁കരണ	-9327
▁ഇടവം	-9328
▁കായം	-9329
▁കുറു	-9330
▁ചേരു	-9331
▁വിഭവ	-9332
വിട്ടി	-9333
ാക്കളെ	-9334
▁ചേട്ട	-9335
▁താനും	-9336
▁മാന്യ	-9337
▁റെനീഷ	-9338
ിയ്ക്ക്	-9339
▁പരിഹാസ	-9340
▁പ്ലാസ്	-9341
▁റേഷന്‍	-9342
▁ഇബ്രാഹി	-9343
▁ഒരാളാണ്	-9344
▁വിവാഹിത	-9345
▁ഇടിമിന്ന	-9346
▁ക്കാരുടെ	-9347
▁ലോകകപ്പ്	-9348
▁വെസ്റ്റ്	-9349
▁സോഫ്റ്റ്	-9350
▁സന്ദര്‍ശന	-9351
▁ആവശ്യമുള്ള	-9352
▁മന്ത്രിയും	-9353
▁രോഗമുക്തരായി	-9354
▁അറിയപ്പെടുന്ന	-9355
▁ക്കേണ്ടതുണ്ട്	-9356
തര	-9357
ിങ്	-9358
▁നൃ	-9359
തല്ല	-9360
▁കടം	-9361
▁തനി	-9362
▁ദേഹ	-9363
▁മാട	-9364
ുകൂടി	-9365
▁അമിത	-9366
▁അസാധ	-9367
▁പറയണം	-9368
▁രാവില	-9369
▁സമൂഹം	-9370
ദ്ദീന്‍	-9371
▁മാനന്ത	-9372
ാവശ്യമായ	-9373
▁കൂട്ടുക	-9374
▁ഭാരവാഹി	-9375
▁രാജയോഗം	-9376
▁സിലിണ്ട	-9377
▁അക്കാദമി	-9378
▁ദിലീപിന്	-9379
▁യുഡിഎഫും	-9380
▁ിക്കാനും	-9381
▁ില്ലാത്ത	-9382
▁മാറ്റുന്ന	-9383
▁സിറ്റിംഗ്	-9384
▁സ്റ്റാന്‍	-9385
▁ഇല്ലെന്നും	-9386
▁കണ്ടെത്താൻ	-9387
▁മലയാളികള്‍	-9388
▁ശ്രമങ്ങള്‍	-9389
▁ഒറ്റക്കെട്ടായി	-9390
▁തിരഞ്ഞെടുപ്പിലെ	-9391
▁ഥ	-9392
ala	-9393
ഹാര	-9394
▁8.	-9395
▁ഭോ	-9396
▁ഷ്	-9397
ായിട	-9398
േഡിയ	-9399
▁ഓഡി	-9400
▁പട്	-9401
▁പെർ	-9402
ബിള്‍	-9403
േറ്റം	-9404
▁എസ്പ	-9405
▁ചിലവ	-9406
▁ഫുട്	-9407
ദിന്റെ	-9408
ാമില്‍	-9409
▁ഏജൻസി	-9410
▁പത്തു	-9411
▁സിവിൽ	-9412
ടേയുള്ള	-9413
റ്റിനും	-9414
▁അഴീക്ക	-9415
▁ആരാധകർ	-9416
▁ഇടുക്ക	-9417
▁കുമാറി	-9418
▁ചടങ്ങ്	-9419
▁നിരോധന	-9420
▁മുങ്ങി	-9421
▁മുഹമ്മ	-9422
▁വെച്ചി	-9423
▁ഷായുടെ	-9424
▁കമ്യൂണി	-9425
▁ങ്ങളോട്	-9426
▁നല്ലൊരു	-9427
▁നേടുന്ന	-9428
▁മാറുന്ന	-9429
▁ഹൗസില്‍	-9430
്യത്തില്‍	-9431
▁വന്നതിന്	-9432
▁വാര്‍ഷിക	-9433
▁കണക്കാക്ക	-9434
▁കുറ്റപത്രം	-9435
▁വരുമെന്നും	-9436
▁സെപ്റ്റംബർ	-9437
▁ക്കുന്നതിന്	-9438
▁റിപ്പബ്ലിക്	-9439
▁വയനാട്ടില്‍	-9440
▁പാര്‍ട്ടിയിലെ	-9441
▁മധ്യപ്രദേശില്‍	-9442
▁B	-9443
സുര	-9444
സ്തു	-9445
▁പോര	-9446
ചിത്ര	-9447
പ്പാട	-9448
▁2006	-9449
▁ജിഹാ	-9450
▁ട്ടെ	-9451
▁പാരി	-9452
ൻസിപ്പ	-9453
▁താല്പ	-9454
▁നിതീഷ	-9455
▁പ്രസാ	-9456
▁മതനിര	-9457
▁ശുദ്ധ	-9458
ര്‍ക്കി	-9459
ാസമ്മേള	-9460
ൊന്നാണ്	-9461
▁പരമ്പര	-9462
▁ബാറ്റ്	-9463
▁ലീഗിന്	-9464
▁സംഘാടക	-9465
ാനാവില്ല	-9466
്യമന്ത്ര	-9467
▁അത്രയും	-9468
▁അലർട്ട്	-9469
▁തയ്യാറാ	-9470
▁സർക്കാര	-9471
▁ഹോസ്റ്റ	-9472
▁പരമ്പരാഗ	-9473
▁വ്യവസായി	-9474
▁ിക്കേണ്ട	-9475
▁കാര്യങ്ങള	-9476
▁കിഴക്കന്‍	-9477
▁ദുബായില്‍	-9478
▁പ്രിൻസിപ്പ	-9479
▁മതനിരപേക്ഷ	-9480
▁സംഭവങ്ങള്‍	-9481
▁സന്ദര്‍ശനം	-9482
▁കസ്റ്റഡിയിൽ	-9483
▁പ്രസ്താവനയിൽ	-9484
▁ചെയ്യുമെന്നും	-9485
▁ഉള്‍പ്പെടുത്തി	-9486
▁സാധിച്ചിട്ടില്ല	-9487
ഡേ	-9488
ഴം	-9489
ളജി	-9490
ൂഖ്	-9491
ത്തര	-9492
പ്പണ	-9493
മന്‍	-9494
ിവസം	-9495
▁17,	-9496
▁ഗവേഷ	-9497
▁ജപ്പ	-9498
▁തമാശ	-9499
▁താമര	-9500
പ്പള്ള	-9501
▁എംഎസ്	-9502
▁എക്സൈ	-9503
▁പ്രമോ	-9504
▁ബോള്‍	-9505
▁മസ്ജി	-9506
ടിയില്‍	-9507
യെല്ലാം	-9508
▁എന്നയാ	-9509
▁ബ്യൂറോ	-9510
▁മിഥുനം	-9511
▁രാജഗോപ	-9512
▁സമ്പാദ	-9513
▁കശ്മീരി	-9514
▁പഞ്ചാബി	-9515
▁വഴിയൊരു	-9516
▁വീട്ടില	-9517
▁വെന്നും	-9518
▁സഞ്ചാരി	-9519
▁സാക്ഷ്യ	-9520
ാമെന്നാണ്	-9521
▁അച്ചടക്ക	-9522
▁കൊടുത്ത്	-9523
▁പട്ടേല്‍	-9524
▁സ്ഥാനത്ത	-9525
▁അദ്ധ്യക്ഷ	-9526
▁അവകാശവാദം	-9527
▁ഉണ്ടാക്കി	-9528
▁കേരളത്തില	-9529
▁രൂപയ്ക്ക്	-9530
▁വളരെയധികം	-9531
▁ഇത്തവണത്തെ	-9532
▁തുടങ്ങുന്ന	-9533
▁രാമചന്ദ്രന്‍	-9534
▁സഹായിക്കുന്ന	-9535
▁ുണ്ടെങ്കില്‍	-9536
▁പ്രതിഷേധിച്ച്	-9537
▁കമ്മ്യൂണിസ്റ്റ്	-9538
ോം	-9539
ാന്	-9540
ുവെ	-9541
▁ളാ	-9542
▁ുമ	-9543
ംഗ്ട	-9544
▁19,	-9545
▁ചതി	-9546
▁ബഹ്	-9547
▁വർഗ	-9548
▁അശ്വ	-9549
▁ആകാശ	-9550
▁ഡെവല	-9551
▁തങ്ക	-9552
▁വാണ്	-9553
▁ാകും	-9554
ക്കിലെ	-9555
▁ചലഞ്ച	-9556
▁പ്രശം	-9557
▁മനോഹര	-9558
ണിത്തുറ	-9559
▁എട്ടാം	-9560
▁തേടിയെ	-9561
▁രുന്നു	-9562
▁വെടിവെ	-9563
ുണ്ടാകും	-9564
▁അബ്ദുല്‍	-9565
▁ഭാര്യയും	-9566
▁മാതൃഭൂമി	-9567
▁അനുസരിച്ച	-9568
▁കൊണ്ടുപോയ	-9569
▁തൃശ്ശൂര്‍	-9570
▁സാധിച്ചത്	-9571
▁അന്തരിച്ചു	-9572
▁ഒരാള്‍ക്ക്	-9573
▁ങ്ങള്‍ക്ക്	-9574
▁പരിധിയില്‍	-9575
▁മാസ്റ്റര്‍	-9576
▁നഷ്ടപരിഹാരം	-9577
▁പങ്കെടുത്തത്	-9578
▁ചെയ്യുന്നതിന്	-9579
▁R	-9580
ഴുത	-9581
ഹാസ	-9582
മോദി	-9583
ിള്‍	-9584
ങ്ങും	-9585
▁2013	-9586
▁ഇതും	-9587
▁ഏല്‍	-9588
▁ഐസക്	-9589
▁ട്രെ	-9590
▁പരിയ	-9591
▁റാണ്	-9592
▁റോയ്	-9593
▁ഇത്രയ	-9594
▁എട്ടു	-9595
▁പ്രൈവ	-9596
▁ലുള്ള	-9597
▁അനധികൃത	-9598
▁മഹാമാരി	-9599
▁നാടിന്റെ	-9600
▁പ്രദര്‍ശ	-9601
▁സിദ്ദിഖ്	-9602
▁എന്നുമാണ്	-9603
▁കൊടുത്തത്	-9604
▁നടപടികളും	-9605
▁കൗണ്‍സിലര്‍	-9606
▁മത്സരിച്ചത്	-9607
▁ഉത്തർപ്രദേശ്	-9608
ിട്ടുണ്ടെന്നും	-9609
▁ഉള്‍പ്പടേയുള്ള	-9610
▁പ്രവചിക്കുന്നത്	-9611
കത	-9612
യാള	-9613
സബ്	-9614
▁കൽ	-9615
ന്തം	-9616
വ്വഹ	-9617
▁800	-9618
▁ഓപ്	-9619
ാട്ട്	-9620
െന്നി	-9621
▁ആഘാത	-9622
▁കങ്ക	-9623
▁ജോയ്	-9624
▁മേയർ	-9625
▁ഹിമാ	-9626
▁ആരുടെ	-9627
▁കലാപം	-9628
▁ദിവ്യ	-9629
▁പണവും	-9630
▁പൊള്ള	-9631
▁വിശാല	-9632
്യാന്തര	-9633
▁കടുവയെ	-9634
▁കരിപ്പ	-9635
▁കല്യാണ	-9636
▁ക്കാരെ	-9637
▁തൊഴിലവ	-9638
▁സച്ചിൻ	-9639
▁ൊന്നും	-9640
▁അംഗീകൃത	-9641
▁അതൊക്കെ	-9642
▁ഒരുപക്ഷ	-9643
നിടയിലാണ്	-9644
▁അറിയാന്‍	-9645
▁കാരണമാണ്	-9646
▁കാര്യക്ഷ	-9647
▁ഡെമോക്രാ	-9648
▁തുകൊണ്ട്	-9649
▁പുലർച്ചെ	-9650
▁എത്തിച്ചു	-9651
▁പരാതികള്‍	-9652
▁ശ്രീനിവാസ	-9653
▁പരാതിക്കാര	-9654
▁രാജ്യാന്തര	-9655
▁സാധനങ്ങള്‍	-9656
▁ചോദ്യങ്ങള്‍	-9657
▁സിക്യൂട്ടീവ്	-9658
▁അനുവദിക്കില്ല	-9659
▁ഉറപ്പാക്കുന്ന	-9660
▁ഇന്ത്യയിലേക്ക്	-9661
ഗു	-9662
ഭയ	-9663
തായ	-9664
മോഹ	-9665
▁അം	-9666
▁ടൊ	-9667
ട്ടർ	-9668
സിബി	-9669
▁താവ	-9670
താരാമ	-9671
വൂര്‍	-9672
സമിതി	-9673
▁ഒഴിയ	-9674
▁ിംഗ്	-9675
▁നാദിറ	-9676
▁പൂഞ്ഞ	-9677
▁പ്രവി	-9678
▁മറ്റെ	-9679
പ്പിള്‍	-9680
▁അവളുടെ	-9681
▁ഉരുള്‍	-9682
▁ടീമിനെ	-9683
▁പിന്മാ	-9684
▁മാനേജർ	-9685
▁മോശമായ	-9686
▁അനുഗ്രഹ	-9687
▁എപ്പിസോ	-9688
▁പ്രദീപ്	-9689
▁സീതാരാമ	-9690
▁ക്രൈസ്തവ	-9691
▁വാഷിംഗ്ട	-9692
▁സിനിമയിൽ	-9693
▁ഉറപ്പിച്ച	-9694
▁കണ്ണൂരിലെ	-9695
▁ശാസ്ത്രീയ	-9696
▁കുറിച്ചാണ്	-9697
▁ചിലപ്പോള്‍	-9698
▁വാക്സിനേഷൻ	-9699
▁ഉദ്യോഗാർത്ഥ	-9700
▁ഉദ്യോഗസ്ഥന്‍	-9701
▁പൂര്‍ത്തിയായ	-9702
▁പരിഗണിക്കുന്ന	-9703
▁വോട്ടര്‍മാര്‍	-9704
▁പെണ്‍കുട്ടിയുടെ	-9705
നഗ	-9706
മർ	-9707
ജക്	-9708
ിയൂ	-9709
▁തഴ	-9710
▁ഏഴി	-9711
▁ഒഴു	-9712
▁ഫില	-9713
▁കെവി	-9714
▁ജിയോ	-9715
▁തല്‍	-9716
▁റിസർ	-9717
▁വസതി	-9718
ക്കാലം	-9719
രാത്രി	-9720
ഴ്ത്തി	-9721
▁ദുരുപ	-9722
▁മറക്ക	-9723
▁ശ്വാസ	-9724
▁ഉച്ചകോ	-9725
▁കൗൺസില	-9726
▁ജനങ്ങള	-9727
▁നഗരസഭാ	-9728
▁രക്ഷിത	-9729
▁ുമ്പോൾ	-9730
ില്ലായ്മ	-9731
▁അറിയാതെ	-9732
▁ത്താന്‍	-9733
▁പ്രയോജന	-9734
▁തുടങ്ങും	-9735
▁പറ്റാത്ത	-9736
▁പെഷ്യല്‍	-9737
▁വിശ്വസ്ത	-9738
▁സൂചനയാണ്	-9739
▁അടങ്ങുന്ന	-9740
▁നിര്‍മാണം	-9741
▁നേട്ടങ്ങൾ	-9742
▁പ്രകടിപ്പ	-9743
▁സ്ഥിതിഗതി	-9744
▁സ്റ്റേഡിയ	-9745
▁സൗദിയില്‍	-9746
▁മുംബൈയില്‍	-9747
▁ജീവിതത്തിലെ	-9748
▁ബിരുദാനന്തര	-9749
▁വിലയിരുത്തൽ	-9750
▁വിവാഹത്തിന്	-9751
▁ഹെലികോപ്റ്റ	-9752
▁നില്‍ക്കാന്‍	-9753
▁സര്‍വീസുകള്‍	-9754
▁പിടിച്ചെടുത്ത	-9755
▁ദിവസങ്ങള്‍ക്ക്	-9756
▁ഹൈക്കോടതിയില്‍	-9757
വൽ	-9758
▁കടമ	-9759
▁യുമ	-9760
ത്താൻ	-9761
യിന്‍	-9762
യ്യതി	-9763
▁അണ്ണ	-9764
▁ഇമ്ര	-9765
▁പുറം	-9766
▁മുളള	-9767
▁അതൊരു	-9768
▁അബദ്ധ	-9769
▁നഗര്‍	-9770
▁പട്ടേ	-9771
▁ുള്ളൂ	-9772
▁തീര്‍ഥ	-9773
▁മാത്രമ	-9774
▁മായാണ്	-9775
▁സമീപനം	-9776
ക്കിന്റെ	-9777
▁അടിത്തറ	-9778
▁ആന്ധ്രാ	-9779
▁കാറില്‍	-9780
▁മാകുന്ന	-9781
▁ഇംഗ്ലീഷ്	-9782
▁എല്ലായിട	-9783
▁ജ്വല്ലറി	-9784
▁നിയമിച്ച	-9785
▁ഭർത്താവ്	-9786
▁യൂണിയന്‍	-9787
▁വിട്ടുവീ	-9788
▁അറിയിപ്പ്	-9789
▁ചോദിച്ചത്	-9790
▁തൃശൂരില്‍	-9791
▁മാക്കുന്ന	-9792
▁ഗാന്ധിക്ക്	-9793
▁ഉത്തർപ്രദേശ	-9794
▁ഏറ്റെടുത്ത്	-9795
▁മനുഷ്യാവകാശ	-9796
▁നരേന്ദ്രമോദി	-9797
▁ലഭിച്ചിട്ടില്ല	-9798
ഫല	-9799
ടകം	-9800
വിയ	-9801
ോയ്	-9802
▁രസ	-9803
പേഴ്	-9804
▁ജനി	-9805
▁യിട	-9806
▁യൂറ	-9807
ണറുടെ	-9808
ദ്രോഹ	-9809
▁ഉണ്ണ	-9810
▁ബല്‍	-9811
ടങ്ങിയ	-9812
ത്തേരി	-9813
▁ഇന്നി	-9814
▁ഹിമാച	-9815
▁ഡ്രൈവറ	-9816
ുണ്ടാവും	-9817
▁ജാഗ്രതാ	-9818
▁ലാലേട്ട	-9819
▁വിടുന്ന	-9820
▁ിരിക്കെ	-9821
സ്റ്റിറ്റ	-9822
▁കളൊന്നും	-9823
▁ക്കാരനായ	-9824
▁ക്കേണ്ടി	-9825
▁ട്രീറ്റ്	-9826
▁രാഹുലിന്	-9827
▁പ്രതിരോധം	-9828
▁ബീഹാറില്‍	-9829
▁യുക്രൈന്‍	-9830
▁വര്‍ധിച്ച	-9831
▁വാങ്ങിയത്	-9832
▁വെക്കുന്ന	-9833
▁പ്രായപരിധി	-9834
▁ഭരണാധികാരി	-9835
▁മില്ലെന്ന്	-9836
▁നിലപാടിലാണ്	-9837
▁കണ്ടെത്തുന്ന	-9838
▁ഗ്രൂപ്പിന്റെ	-9839
▁തുടര്‍ച്ചയായ	-9840
▁വിമാനത്തില്‍	-9841
▁അറസ്റ്റിലായത്	-9842
▁അന്വേഷിക്കുന്ന	-9843
ടാ	-9844
ഠി	-9845
▁k	-9846
▁93	-9847
▁അസ്	-9848
▁മുന	-9849
▁മേല	-9850
▁ാണോ	-9851
ാന്ത്	-9852
▁2012	-9853
▁ആഭരണ	-9854
▁തയാറ	-9855
▁പേരാ	-9856
▁ബോഡി	-9857
▁കർഷകർ	-9858
▁മുരളി	-9859
▁മൂര്‍	-9860
▁ലഭ്യത	-9861
നായുള്ള	-9862
മായുള്ള	-9863
▁കച്ചവട	-9864
▁ഗതാഗതം	-9865
▁നീക്കി	-9866
▁നോക്കൂ	-9867
▁പങ്കിട	-9868
▁ഭാരതീയ	-9869
▁മന്ദിര	-9870
▁വിദഗ്ദ	-9871
▁ഹോട്ടല	-9872
▁ജേക്കബ്	-9873
▁താരതമ്യ	-9874
▁വിലക്കയ	-9875
▁അതൊന്നും	-9876
▁മരണമടഞ്ഞ	-9877
▁യിലുണ്ട്	-9878
▁സമ്പൂര്‍	-9879
▁സെന്‍ട്ര	-9880
▁അമരീന്ദര്‍	-9881
▁പങ്കാളിത്ത	-9882
▁മുന്‍കൂര്‍	-9883
▁സീറ്റുകളും	-9884
▁തളിപ്പറമ്പ്	-9885
▁ഒരുങ്ങുന്നത്	-9886
▁രാജസ്ഥാനില്‍	-9887
▁വിമാനത്താവളം	-9888
▁ലഭിക്കുമെന്നാണ്	-9889
ൈസ	-9890
▁h	-9891
▁r	-9892
േജി	-9893
ൊടി	-9894
ാർഡ്	-9895
▁700	-9896
▁അറബ	-9897
▁കളു	-9898
▁നാഥ	-9899
▁നിഖ	-9900
▁ുകൾ	-9901
പ്പാറ	-9902
ഭിമാന	-9903
ശ്ചിത	-9904
▁ഗുപ്	-9905
▁തെറി	-9906
▁നക്ഷ	-9907
▁പരിസ	-9908
▁പുരം	-9909
▁മിനു	-9910
▁മൊയ്	-9911
▁യിലോ	-9912
ിലേറ്റ	-9913
▁പ്രസവ	-9914
▁യെച്ച	-9915
ിയിലാണ്	-9916
▁എക്കാല	-9917
▁പ്രണയം	-9918
▁ബെഞ്ച്	-9919
▁ശാന്തി	-9920
▁പൊതുമേഖ	-9921
▁സഹായവും	-9922
▁അറിയുന്ന	-9923
▁തസ്തികകള	-9924
▁ദേശീയപാത	-9925
▁വന്ദേഭാര	-9926
▁ശേഖരിച്ച	-9927
▁നാട്ടുകാർ	-9928
▁പരിഹസിച്ചു	-9929
▁മുഖ്യമന്ത്	-9930
▁വിളിക്കുന്ന	-9931
▁പ്രദേശങ്ങളിൽ	-9932
▁മന്ത്രിസ്ഥാന	-9933
▁സ്വന്തമാക്കിയ	-9934
▁നേതാക്കള്‍ക്ക്	-9935
▁ലഡ	-9936
ബിലി	-9937
റ്റേ	-9938
▁റിന	-9939
▁ളും	-9940
▁സജീ	-9941
▁സഞ്	-9942
ക്കണം	-9943
നിയായ	-9944
വാന്‍	-9945
▁ജോഷി	-9946
▁പാക്	-9947
▁പാചക	-9948
▁രണ്‍	-9949
▁ലോറി	-9950
▁സാനി	-9951
രുകയും	-9952
ായുക്ത	-9953
▁അനുശോ	-9954
▁കുമ്പ	-9955
▁വാന്‍	-9956
▁ശാന്ത	-9957
▁കുഞ്ഞ്	-9958
▁ഗര്‍ഭി	-9959
▁ബൈക്ക്	-9960
▁യന്ത്ര	-9961
▁വിട്ടയ	-9962
▁വിസ്മയ	-9963
െടുക്കും	-9964
▁അംഗത്വം	-9965
▁കുമ്മനം	-9966
▁സ്പ്രസ്	-9967
▁കുമാറിന്	-9968
▁കേസെടുക്ക	-9969
▁പാലിക്കണം	-9970
▁ലോകായുക്ത	-9971
▁സഹമന്ത്രി	-9972
▁പ്രാര്‍ത്ഥ	-9973
▁യോഗ്യതയുള്ള	-9974
▁പ്രവര്‍ത്തകരുടെ	-9975
ലംഘ	-9976
ാമു	-9977
ിലു	-9978
▁ഘോഷ	-9979
▁ജിഎ	-9980
▁ഡിസ	-9981
▁തടവ	-9982
▁ലൈന	-9983
▁വിറ	-9984
▁2009	-9985
▁ശരദ്	-9986
▁സപ്ല	-9987
▁ഇന്നല	-9988
▁കങ്കണ	-9989
▁തുല്യ	-9990
▁മിന്ന	-9991
▁സമസ്ത	-9992
▁ജൂലായ്	-9993
▁മകളുടെ	-9994
▁മാരാണ്	-9995
▁യുടേത്	-9996
▁അംഗീകാര	-9997
▁ഗ്രാമീണ	-9998
▁നടത്തണം	-9999
▁സാഹിത്യ	-10000
ിക്കേഷന്‍	-10001
▁ആസൂത്രണം	-10002
▁സംഘര്‍ഷം	-10003
▁കളമശ്ശേരി	-10004
▁കാര്യമായി	-10005
▁ചിത്രമാണ്	-10006
▁തെങ്കില്‍	-10007
▁പ്രൈവറ്റ്	-10008
▁ലിമിറ്റഡ്	-10009
▁നേരിടുന്നത്	-10010
▁മില്ലെന്നും	-10011
▁വിദ്യാര്‍ഥി	-10012
▁ശ്രമത്തിലാണ്	-10013
▁എക്സിക്യൂട്ടീവ്	-10014
han	-10015
▁അഥ	-10016
▁ആളെ	-10017
▁ധാര	-10018
▁നഗർ	-10019
▁പ്രഥ	-10020
▁റേത്	-10021
നെറ്റ്	-10022
റ്റിങ്	-10023
ിട്ടത്	-10024
ുകളായി	-10025
▁അങ്ങന	-10026
▁അല്ലേ	-10027
▁ഫോണിൽ	-10028
▁യുവജന	-10029
▁വെന്റ	-10030
▁സസ്പെ	-10031
ോടെയാണ്	-10032
▁അകാലിദ	-10033
▁അമ്മയെ	-10034
▁അവലോകന	-10035
▁ചെക്ക്	-10036
▁ശിവന്‍	-10037
▁സൈറ്റ്	-10038
▁ിനേയും	-10039
▁യുമില്ല	-10040
▁വസ്ത്രം	-10041
▁ജയിച്ചത്	-10042
▁തൊട്ടുപി	-10043
▁പറ്റുന്ന	-10044
▁പ്രതിദിനം	-10045
▁വ്യാപകമായ	-10046
▁സമിതിയുടെ	-10047
▁ആവശ്യമില്ല	-10048
▁മാനന്തവാടി	-10049
▁വാര്‍ഡില്‍	-10050
▁മണിയോടെയാണ്	-10051
▁ദക്ഷിണേന്ത്യ	-10052
▁പ്രതിനിധികള്‍	-10053
▁ഉണ്ടായിട്ടുണ്ട്	-10054
മുള	-10055
ൻറ്	-10056
ങ്കോ	-10057
ദിനെ	-10058
പാടു	-10059
▁21,	-10060
▁മരു	-10061
▁മിഷ	-10062
ക്കുഴ	-10063
റ്ററി	-10064
▁ഉപാധ	-10065
▁കോഴ്	-10066
സാധ്യത	-10067
ാവാത്ത	-10068
ാർഥികൾ	-10069
▁ഇസ്ലാ	-10070
▁കാല്‍	-10071
▁ചിഹ്ന	-10072
▁വരോട്	-10073
ത്തിലിറ	-10074
േറ്റീവ്	-10075
▁എത്രയോ	-10076
▁ദുബായി	-10077
യോടെയാണ്	-10078
▁ധര്‍മ്മ	-10079
▁ബീഹാര്‍	-10080
▁റോഡില്‍	-10081
▁വരികയും	-10082
▁കാണിച്ചു	-10083
▁ഉയര്‍ന്ന്	-10084
▁കാറ്റിനും	-10085
▁കമ്പനികള്‍	-10086
▁കേസെടുത്തു	-10087
▁ഗുരുതരമായി	-10088
▁നിരക്കില്‍	-10089
▁പഠിക്കുന്ന	-10090
▁പ്രവേശിച്ച	-10091
▁വേണ്ടെന്ന്	-10092
▁അനുവദിച്ചത്	-10093
▁സർവ്വകലാശാല	-10094
▁നടത്തുമെന്ന്	-10095
▁മൃതദേഹങ്ങള്‍	-10096
▁രൂപയായിരുന്നു	-10097
▁പ്രോസിക്യൂഷന്‍	-10098
ലേഖ	-10099
വാഹ	-10100
▁എല	-10101
▁തൈ	-10102
▁20,	-10103
▁റംസ	-10104
▁ലേല	-10105
ലത്ത്	-10106
▁അപകീ	-10107
▁ആറാം	-10108
▁തായ്	-10109
▁മറുവ	-10110
▁റിനോ	-10111
▁വിടു	-10112
▁വീടു	-10113
ിച്ചും	-10114
▁ദില്‍	-10115
▁പോട്ട	-10116
▁രേഖകൾ	-10117
▁അപകടകര	-10118
▁പരുക്ക	-10119
▁ഷെയ്ഖ്	-10120
▁അംഗങ്ങൾ	-10121
▁ട്രെയിൻ	-10122
▁വഹിച്ചു	-10123
▁ജ്യോതിരാ	-10124
ിക്കേണ്ടത്	-10125
▁പ്രതിയുടെ	-10126
▁കോൺഗ്രസിനെ	-10127
▁നല്‍കുന്നു	-10128
▁മാസത്തില്‍	-10129
▁അധികാരത്തിൽ	-10130
▁ഇൻസ്റ്റിറ്റ	-10131
▁യോഗത്തിലാണ്	-10132
▁വര്‍ഷങ്ങളായി	-10133
▁വ്യത്യസ്തമായ	-10134
▁സ്ഥലത്തെത്തി	-10135
▁മാധ്യമങ്ങളില്‍	-10136
▁ഉപയോഗിക്കുന്നത്	-10137
▁d	-10138
കിയ	-10139
ദ്മ	-10140
ബ്ബ	-10141
മൂല	-10142
കാലം	-10143
ഡ്യൂ	-10144
പന്ന	-10145
ാവലി	-10146
▁എപി	-10147
▁സെഷ	-10148
കാരിക	-10149
▁ചിരി	-10150
▁നന്മ	-10151
▁മെഡി	-10152
▁ഉത്പാ	-10153
▁കാണും	-10154
▁കിരീട	-10155
▁പൂച്ച	-10156
▁പോരാട	-10157
▁ബുദ്ധ	-10158
▁കറുത്ത	-10159
▁വൈറ്റ്	-10160
▁അത്യാവശ	-10161
▁എന്നുളള	-10162
▁നടിയുടെ	-10163
▁പരിശ്രമ	-10164
▁പുതുമുഖ	-10165
▁അറിയാത്ത	-10166
▁ഉണ്ടാവുക	-10167
▁തിരുമാനം	-10168
▁പാര്‍ലമെ	-10169
▁ലോട്ടറിയ	-10170
▁ഡൊണാള്‍ഡ്	-10171
▁പോവുകയാണ്	-10172
▁അധ്യക്ഷനായ	-10173
▁എത്രത്തോളം	-10174
▁തൊഴിലാളികൾ	-10175
▁മണ്ണിടിച്ച	-10176
▁ലഭിക്കാത്ത	-10177
▁അസോസിയേഷന്‍	-10178
▁പൂര്‍ത്തിയാ	-10179
▁ഉദ്യോഗസ്ഥരും	-10180
▁ക്കെതിരെയുള്ള	-10181
▁സ്വര്‍ണത്തിന്	-10182
▁എന്നിവിടങ്ങളിലെ	-10183
gov	-10184
ദാസ	-10185
▁ളു	-10186
ുദ്ധ	-10187
▁10.	-10188
▁ഭൂഷ	-10189
രിയിൽ	-10190
വേറ്റ	-10191
▁അശ്ല	-10192
▁ന്നി	-10193
▁പിഎം	-10194
▁മകളെ	-10195
▁ലോഡ്	-10196
ഷ്യന്‍	-10197
▁അതല്ല	-10198
▁കൂത്ത	-10199
▁പെൻഷൻ	-10200
ച്ചില്‍	-10201
പ്പൂര്‍	-10202
സംസ്ഥാന	-10203
▁കളെയും	-10204
▁ചുമതലയ	-10205
▁റൂട്ട്	-10206
▁വിനോദ്	-10207
▁സംസാരി	-10208
ാറുള്ളത്	-10209
▁ഐപിഎല്‍	-10210
▁കളിലായി	-10211
▁തിരക്ക്	-10212
▁വയസുകാര	-10213
▁ഏറ്റുമാന	-10214
▁കാസർകോട്	-10215
▁കൂടിക്കാ	-10216
▁വിരമിച്ച	-10217
▁ക്രൂരമായി	-10218
▁ചാലക്കുടി	-10219
▁പ്രദേശവാസ	-10220
ാമായിരുന്നു	-10221
▁പിരിച്ചുവി	-10222
▁മത്സരിച്ച്	-10223
▁ആശുപത്രികള്‍	-10224
▁മന്ത്രിമാരും	-10225
▁കണക്കിലെടുത്ത	-10226
▁ചികിത്സയിലാണ്	-10227
▁പൂര്‍ണ്ണമായും	-10228
▁സൃഷ്ടിക്കുന്ന	-10229
▁സ്വാതന്ത്ര്യം	-10230
▁ഉദ്ദേശിക്കുന്ന	-10231
▁എത്തിയിട്ടുണ്ട്	-10232
▁ഭീഷണിപ്പെടുത്തി	-10233
▁മത്സ്യത്തൊഴിലാള	-10234
ജോ	-10235
▁ൺ	-10236
▁An	-10237
വാരി	-10238
ാഘാത	-10239
നിന്ന	-10240
▁അവിട	-10241
▁കാശ്	-10242
▁താണോ	-10243
▁പ്ലേ	-10244
▁വണ്ട	-10245
▁ഇരയായ	-10246
▁കാമുക	-10247
▁ട്രാവ	-10248
▁പ്രഥമ	-10249
പ്പെരിയ	-10250
▁കിഫ്ബി	-10251
▁തൃപ്പൂ	-10252
▁പന്ത്ര	-10253
▁മഹാമാര	-10254
▁ല്ലാതെ	-10255
▁െങ്കിൽ	-10256
▁ആരോഗ്യം	-10257
▁ക്കൊണ്ട	-10258
▁വിൽപ്പന	-10259
▁പാലിച്ച്	-10260
▁പുറത്തായ	-10261
▁സർക്കാരു	-10262
▁ക്ലിനിക്ക	-10263
▁പെരുമാറിയ	-10264
▁അവസരങ്ങള്‍	-10265
▁എക്സ്പ്രസ്	-10266
▁ക്കുമെതിരെ	-10267
▁ഗോവിന്ദന്‍	-10268
▁സഹായിക്കും	-10269
▁ഏജന്‍സികള്‍	-10270
▁തിനേക്കാള്‍	-10271
▁പദ്ധതിയില്‍	-10272
▁ദിവസത്തേക്ക്	-10273
▁കര്‍ണാടകയില്‍	-10274
▁പഞ്ചായത്തില്‍	-10275
▁അതിര്‍ത്തിയില്‍	-10276
▁പ്രിന്‍സിപ്പല്‍	-10277
▁സ്വര്‍ണക്കടത്ത്	-10278
▁".	-10279
▁ഗേ	-10280
▁ഷൻ	-10281
ഡിങ്	-10282
ത്മക	-10283
▁ഇവര	-10284
▁എമി	-10285
▁നബി	-10286
▁സിൻ	-10287
കരോട്	-10288
ങ്ങളു	-10289
സിനും	-10290
ോടാണ്	-10291
▁അഭിവ	-10292
▁ഡോളറ	-10293
▁ഫുഡ്	-10294
▁റ്റു	-10295
ഡിയുടെ	-10296
യ്ക്കു	-10297
റ്റുകൾ	-10298
▁അര്‍ധ	-10299
▁ഇസ്രയ	-10300
▁ചെറുക	-10301
▁നിർവഹ	-10302
▁ഫിലിം	-10303
▁ഉപദ്രവ	-10304
▁എഴുന്ന	-10305
▁കടത്തി	-10306
▁കളുള്ള	-10307
▁തർക്കം	-10308
▁മാവോയി	-10309
ക്കുന്നു	-10310
നിര്‍ദേശ	-10311
▁ഓര്‍മ്മ	-10312
▁എത്താന്‍	-10313
▁കമല്‍നാഥ	-10314
▁കെട്ടിടം	-10315
▁പരീക്ഷണം	-10316
▁മനസ്സിലാ	-10317
▁എതിര്‍പ്പ	-10318
▁ങ്ങളുണ്ട്	-10319
▁പിന്നാക്ക	-10320
▁വിചാരിച്ച	-10321
▁വിളിച്ചത്	-10322
▁സാധ്യതയും	-10323
▁കളിക്കുന്ന	-10324
▁താൽക്കാലിക	-10325
▁ഗവണ്‍മെന്റ്	-10326
▁ജീവിക്കുന്ന	-10327
▁സമ്മേളനത്തിൽ	-10328
▁സാമ്പിളുകള്‍	-10329
▁ജ്യോതിരാദിത്യ	-10330
▁പറഞ്ഞിട്ടില്ല	-10331
te	-10332
ർണ	-10333
യടി	-10334
▁എള	-10335
നല്‍	-10336
ന്‍റ	-10337
▁194	-10338
▁നെയ	-10339
▁യാള	-10340
▁വീര	-10341
ത്തൂർ	-10342
▁വരെയ	-10343
േക്കാം	-10344
▁മജിസ്	-10345
▁മറുവശ	-10346
▁ല്ലാം	-10347
▁വിഭജന	-10348
മാർക്ക്	-10349
▁അതിജീവ	-10350
▁എത്തുക	-10351
▁ഏതാണ്ട	-10352
▁തലവേദന	-10353
▁സ്വത്ത്	-10354
▁കണ്ണൂരിൽ	-10355
▁പോകുന്നു	-10356
▁സിറ്റിങ്	-10357
▁സ്റ്റാലി	-10358
▁എംപിമാര്‍	-10359
▁മേഖലയിലും	-10360
▁സെഞ്ച്വറി	-10361
▁യുണ്ടെന്ന്	-10362
▁ിക്കുകയാണ്	-10363
▁ഉൾപ്പെടുന്ന	-10364
▁ഗുജറാത്തിലെ	-10365
▁ചോദിക്കുന്ന	-10366
▁രംഗത്തുവന്ന	-10367
▁സെന്‍ട്രല്‍	-10368
▁രാജ്യങ്ങളുടെ	-10369
▁സ്ഥാപനങ്ങളും	-10370
▁എല്ലായിടത്തും	-10371
▁എന്നതായിരുന്നു	-10372
▁ഴ	-10373
താമ	-10374
ബിയ	-10375
▁07	-10376
▁സല	-10377
ണിന്	-10378
സണ്‍	-10379
ാറിയ	-10380
▁ദൃശ	-10381
▁ഐസിയ	-10382
▁കാബൂ	-10383
▁ഫ്രീ	-10384
▁ഷന്‍	-10385
▁ചെല്ല	-10386
▁പങ്കു	-10387
▁യാള്‍	-10388
▁ുകളും	-10389
▁അകത്ത്	-10390
▁അവതാരക	-10391
▁ഉപരോധം	-10392
▁തന്‍റെ	-10393
▁തൂങ്ങി	-10394
▁നിശബ്ദ	-10395
▁ഇടക്കാല	-10396
▁എക്സൈസ്	-10397
▁അധ്യാപിക	-10398
▁അറബിക്കട	-10399
▁ലൈസന്‍സ്	-10400
▁അവസാനമായി	-10401
▁ആഗ്രഹിച്ച	-10402
▁നിയോഗിച്ച	-10403
▁സൂപ്രണ്ട്	-10404
▁ഉയർത്തുന്ന	-10405
▁ഒമൈക്രോണ്‍	-10406
▁സ്ഥലങ്ങളിൽ	-10407
▁കേസെടുത്തത്	-10408
▁പരാതിയുമായി	-10409
▁മരിച്ചവരുടെ	-10410
▁സ്വദേശിനിയായ	-10411
▁പറഞ്ഞിരുന്നത്	-10412
▁പ്രവര്‍ത്തകന്‍	-10413
▁ബിജെപിക്കെതിരെ	-10414
▁ിട്ടില്ലെന്നാണ്	-10415
രാം	-10416
▁ബൊ	-10417
▁ഹര	-10418
ഴുതി	-10419
▁26,	-10420
▁സലീ	-10421
റങ്ങി	-10422
▁പുരോ	-10423
▁യോജി	-10424
നത്തിൽ	-10425
▁ആനന്ദ	-10426
▁എൻ്റെ	-10427
▁കിംഗ്	-10428
▁ഡിസ്ച	-10429
▁ചേർത്ത	-10430
▁നവകേരള	-10431
▁മുടക്ക	-10432
▁സ്മൃതി	-10433
▁അഹമ്മദാ	-10434
▁പെട്രോൾ	-10435
▁കണക്കിന്	-10436
▁ഡിജിറ്റൽ	-10437
▁സംഘടനയായ	-10438
▁ത്തുന്നത്	-10439
▁െന്നുമാണ്	-10440
▁എടുക്കാന്‍	-10441
▁ക്കാറുണ്ട്	-10442
▁അറസ്റ്റില്‍	-10443
▁ചിത്രങ്ങളും	-10444
▁പ്രോട്ടോക്ക	-10445
▁രാജസ്ഥാനിലെ	-10446
▁വര്‍ഷത്തില്‍	-10447
▁വിഷയങ്ങളില്‍	-10448
▁തൃപ്പൂണിത്തുറ	-10449
▁പരാജയപ്പെട്ടു	-10450
9,	-10451
wes	-10452
ുളം	-10453
▁തപ	-10454
▁ധാ	-10455
▁ബ്	-10456
ക്യം	-10457
ളിന്	-10458
വ്യാ	-10459
▁22,	-10460
▁23,	-10461
▁24,	-10462
▁സീത	-10463
hanam	-10464
ിട്ടി	-10465
▁അനുന	-10466
▁കീഴ്	-10467
▁ന്നാ	-10468
▁മോഷണ	-10469
▁വൈറൽ	-10470
ലുമായി	-10471
▁Anwes	-10472
▁അവള്‍	-10473
▁കണ്ണി	-10474
▁പൂക്ക	-10475
▁ഫയര്‍	-10476
▁വിഎസ്	-10477
▁സംപ്ര	-10478
ഗണിച്ച്	-10479
▁ഇടപെടല	-10480
▁ട്രേഡ്	-10481
▁പ്രാതി	-10482
▁ബൂത്ത്	-10483
▁യുക്രൈ	-10484
▁വാർഷിക	-10485
▁അതിവേഗം	-10486
▁എന്തിന്	-10487
▁ക്കാരും	-10488
▁ജെഡിഎസ്	-10489
▁നിലപാടി	-10490
പ്പെടേണ്ട	-10491
ുവരിയില്‍	-10492
ർക്കുന്നു	-10493
▁പ്രവിശ്യ	-10494
▁സ്പീക്കർ	-10495
▁ജോലിയില്‍	-10496
▁തയ്യാറാണ്	-10497
▁പിടിയിലായ	-10498
▁ബന്ധമുള്ള	-10499
▁മണ്ഡലമാണ്	-10500
▁യാണെങ്കിൽ	-10501
▁ഹിന്ദുത്വ	-10502
▁Anweshanam	-10503
▁ക്കപ്പെട്ട	-10504
▁നഗരത്തില്‍	-10505
▁പോരാട്ടമാണ്	-10506
▁ഹര്‍ജിയില്‍	-10507
▁ചരിത്രത്തിലെ	-10508
▁മെച്ചപ്പെട്ട	-10509
▁വിജയിക്കാന്‍	-10510
▁സമൂഹത്തിന്റെ	-10511
▁സ്ഥാപനങ്ങളുടെ	-10512
▁പരിഗണിക്കുന്നത്	-10513
ാത്	-10514
▁യം	-10515
തിനു	-10516
മറിയ	-10517
▁-19	-10518
▁ഗവൺ	-10519
▁പകർ	-10520
▁സരി	-10521
ശ്ചിക	-10522
ാവിനെ	-10523
േറ്റർ	-10524
▁അഭാവ	-10525
▁മദ്ര	-10526
ആർടിസി	-10527
ക്കിങ്	-10528
▁ഗംഭീര	-10529
▁തരൂരി	-10530
▁പെര്‍	-10531
വുമില്ല	-10532
▁മരിക്ക	-10533
▁സിറ്റ്	-10534
▁ധനസഹായം	-10535
▁പാലക്കാ	-10536
▁വകുപ്പി	-10537
▁വൃത്തിയ	-10538
▁സ്വപ്നം	-10539
ടിപ്പിച്ച	-10540
▁അറസ്റ്റു	-10541
▁ഇക്കൂട്ട	-10542
▁കശ്മീര്‍	-10543
▁കാലയളവിൽ	-10544
▁നിര്‍മാത	-10545
▁പൊലീസിനെ	-10546
▁ലഭ്യമാണ്	-10547
▁ജനങ്ങളോട്	-10548
▁പറയുകയാണ്	-10549
▁പേരാമ്പ്ര	-10550
▁പോലെയുള്ള	-10551
▁രാജ്യമാണ്	-10552
▁ആദിത്യനാഥ്	-10553
▁കൊണ്ടുപോയി	-10554
▁ക്രെഡിറ്റ്	-10555
▁വോട്ടുകളും	-10556
▁ിക്കുന്നത്	-10557
▁ആവശ്യങ്ങള്‍	-10558
▁കെഎസ്ആർടിസി	-10559
▁തൊട്ടുപിന്ന	-10560
▁പിടിയിലായത്	-10561
▁കൊണ്ടുവരുന്ന	-10562
▁വന്നിട്ടില്ല	-10563
▁അനുഭവിക്കുന്ന	-10564
▁സര്‍ക്കാരില്‍	-10565
സന	-10566
ജും	-10567
്മണ	-10568
▁ോള	-10569
മിനെ	-10570
▁ഇതാ	-10571
▁കിം	-10572
▁ഷാര	-10573
ക്ടറി	-10574
ഗ്രാം	-10575
ത്തോള	-10576
▁ഒത്ത	-10577
▁ഡോളർ	-10578
▁റിനെ	-10579
▁വാതക	-10580
ന്ത്യം	-10581
ായത്ത്	-10582
▁അവന്‍	-10583
▁ഏകോപി	-10584
▁ഓഡിയോ	-10585
▁പാലായ	-10586
▁പീഡനം	-10587
▁മെക്ക	-10588
▁വിപ്ല	-10589
▁അവരോട്	-10590
▁കിരീടം	-10591
▁ഇൻസ്റ്റ	-10592
▁കുമാറും	-10593
▁നാണക്കേ	-10594
▁പ്രകോപന	-10595
▁പ്രധാനം	-10596
▁ിട്ടാണ്	-10597
▁ഒരുപക്ഷേ	-10598
▁വീടുകളിൽ	-10599
▁സൊസൈറ്റി	-10600
▁കുറ്റപത്ര	-10601
▁ചെയര്‍മാന	-10602
▁ബിസിനസ്സ്	-10603
▁അങ്ങനെയാണ്	-10604
▁ഓപ്പറേഷന്‍	-10605
▁ണമെങ്കില്‍	-10606
▁രോഗവ്യാപനം	-10607
▁മലപ്പുറത്ത്	-10608
▁നാട്ടിലെത്തി	-10609
▁അപ്രതീക്ഷിതമായി	-10610
▁പാര്‍ലമെന്റില്‍	-10611
ധാ	-10612
ഗിരി	-10613
നിവേ	-10614
ോടനു	-10615
ോര്‍	-10616
▁കാൻ	-10617
▁കേവ	-10618
▁ചോര	-10619
▁നാസ	-10620
▁മരം	-10621
▁ആയത്	-10622
▁ങ്ങി	-10623
▁ജെപി	-10624
▁നഗ്ന	-10625
▁ഫോഴ്	-10626
ബറില്‍	-10627
റുകളും	-10628
▁ഉറച്ച	-10629
▁കുതിര	-10630
▁നെഞ്ച	-10631
▁നേടാന	-10632
▁ഹമാസ്	-10633
▁അവസാനി	-10634
▁എൻസിപി	-10635
▁പ്രാബല	-10636
▁ബ്ലെസ്	-10637
▁മോഡല്‍	-10638
▁അഭിഷേക്	-10639
▁ഉടമസ്ഥത	-10640
▁പെട്രോള	-10641
▁മാറിയത്	-10642
▁അഭിനന്ദന	-10643
▁ഗ്രാമിന്	-10644
▁വകുപ്പും	-10645
▁നീക്കമാണ്	-10646
▁പാർട്ടിയെ	-10647
▁ബാധിക്കും	-10648
▁യോഗത്തിന്	-10649
▁ഉണ്ടാവില്ല	-10650
▁ക്കാമെന്ന്	-10651
▁തോന്നുന്നു	-10652
▁സാധ്യതകള്‍	-10653
▁സിപിഎമ്മും	-10654
▁കുറിപ്പില്‍	-10655
▁തായിരിക്കും	-10656
▁പ്രോസിക്യൂഷ	-10657
▁മാധ്യമങ്ങളെ	-10658
▁വസ്തുക്കള്‍	-10659
▁വോട്ടുകളാണ്	-10660
▁സാഹചര്യമാണ്	-10661
▁തിരിച്ചെത്തി	-10662
▁നിര്‍ദേശിച്ചു	-10663
▁മണിക്കുട്ടന്‍	-10664
▁വ്യക്തിപരമായി	-10665
▁ചെയ്തിട്ടുള്ളത്	-10666
ൂറ	-10667
ാവസ	-10668
േശ്	-10669
▁3/	-10670
▁ഉണ	-10671
ംബരം	-10672
പിടി	-10673
▁25,	-10674
▁മേയ	-10675
മ്പലം	-10676
▁അർജു	-10677
▁മ്പോ	-10678
▁ലിനെ	-10679
▁വിഷം	-10680
▁ൂര്‍	-10681
ച്ചേരി	-10682
ാര്‍ജ്	-10683
▁കേവലം	-10684
▁ജാര്‍	-10685
▁പണിമു	-10686
▁യോഗ്യ	-10687
▁റിട്ട	-10688
▁വിലാസ	-10689
പ്പിക്ക	-10690
▁ക്വട്ട	-10691
▁നൊപ്പം	-10692
▁സുഭാഷ്	-10693
▁കോണ്‍ഫറ	-10694
▁തിയ്യതി	-10695
▁നേമത്ത്	-10696
▁യുമായും	-10697
▁അനിശ്ചിത	-10698
▁തകര്‍ച്ച	-10699
▁പുറത്തും	-10700
▁പെക്ടര്‍	-10701
▁കൈക്കൊള്ള	-10702
▁ചെയ്തതായി	-10703
▁ചെയ്യാത്ത	-10704
▁പഞ്ചാബിലെ	-10705
▁വ്യത്യാസം	-10706
▁അനുകൂലമായി	-10707
▁കെജ്രിവാളി	-10708
▁സംഘടനകളുടെ	-10709
▁സേവനങ്ങള്‍	-10710
▁ആവശ്യത്തിന്	-10711
▁പരിഗണിക്കും	-10712
▁സംസ്ഥാനങ്ങൾ	-10713
▁അഫ്ഗാനിസ്ഥാന	-10714
▁കൊണ്ടുവന്നത്	-10715
▁നിര്‍മ്മിച്ച	-10716
▁ബിജെപിയുമായി	-10717
▁ബുദ്ധിമുട്ട്	-10718
▁സംഭവിക്കുന്ന	-10719
▁സുരേന്ദ്രന്റെ	-10720
▁പ്രതിഷേധവുമായി	-10721
▁മന്ത്രിസഭയില്‍	-10722
▁യുണ്ടായിരുന്നു	-10723
ിയൻ	-10724
ോടി	-10725
▁ഇഷ	-10726
▁ചൈ	-10727
ങ്കം	-10728
തോളം	-10729
▁കോമ	-10730
▁ദിശ	-10731
▁വ്ര	-10732
erala	-10733
ോട്ടു	-10734
▁അറബ്	-10735
▁പ്രൈ	-10736
▁ബാലു	-10737
ടുത്തു	-10738
നിവാരണ	-10739
ന്റിനെ	-10740
▁ദ്വീപ	-10741
▁യൂറോപ	-10742
▁അടച്ചു	-10743
▁തകർന്ന	-10744
▁തമ്മില	-10745
▁മര്യാദ	-10746
▁മല്ലിക	-10747
▁സന്ധ്യ	-10748
ിക്കുള്ള	-10749
▁അടയ്ക്ക	-10750
▁ഏതാണ്ട്	-10751
▁മോഹൻലാൽ	-10752
▁രോഗികളെ	-10753
▁ശ്രീരാമ	-10754
▁പുത്തന്‍	-10755
▁പുനരാരംഭ	-10756
▁ബംഗാളിലെ	-10757
▁ആന്റിജന്‍	-10758
▁മറികടന്ന്	-10759
▁സംവിധായകൻ	-10760
▁പ്പെടുത്തി	-10761
▁രാശിക്കാരെ	-10762
▁നടത്തുകയാണ്	-10763
▁മത്സരാർത്ഥി	-10764
▁സമൂഹത്തില്‍	-10765
▁ആക്രമണത്തിന്	-10766
▁തൊഴിലില്ലായ്മ	-10767
▁മന്ത്രിസ്ഥാനം	-10768
ധിവ	-10769
▁01	-10770
ുമാര	-10771
▁ഫോം	-10772
▁ബിന	-10773
▁വത്	-10774
ചാണ്ട	-10775
ടിക്ക	-10776
ടുമ്പ	-10777
▁കോഡ്	-10778
▁നിഷ്	-10779
ഷിപ്പ്	-10780
▁ഇഷ്ടം	-10781
▁കൊയില	-10782
▁ഗള്‍ഫ	-10783
▁തുലാം	-10784
▁ബ്രാഹ	-10785
▁ലോകമെ	-10786
▁വിനായ	-10787
▁കോന്നി	-10788
▁കൗൺസിൽ	-10789
▁പ്രവണത	-10790
▁ആസൂത്രി	-10791
▁ഇതുപോലെ	-10792
▁ഈസ്റ്റ്	-10793
▁എസ്എഫ്ഐ	-10794
▁ഓക്സിജൻ	-10795
▁കച്ചവടം	-10796
▁ബത്തേരി	-10797
▁റാവത്ത്	-10798
▁ിട്ടുളള	-10799
▁കഴിഞ്ഞാൽ	-10800
▁തീര്‍ച്ച	-10801
▁നൽകുകയും	-10802
▁വര്‍ദ്ധന	-10803
▁വിപുലമായ	-10804
▁ഹോട്ടല്‍	-10805
▁നിലനിർത്ത	-10806
▁പച്ചക്കറി	-10807
▁പ്രതിമാസം	-10808
▁പ്രോഗ്രാം	-10809
▁ചടങ്ങുകള്‍	-10810
▁ലഭിച്ചില്ല	-10811
സിപ്പാലിറ്റി	-10812
▁നിര്‍മ്മാണം	-10813
▁സംസാരിച്ചത്	-10814
▁ഉപയോഗിച്ചാണ്	-10815
▁ലക്ഷത്തിലധികം	-10816
▁ഇക്കാര്യങ്ങള്‍	-10817
▁മുണ്ടായിരുന്നു	-10818
▁സ്ഥാപനങ്ങളില്‍	-10819
▁l	-10820
കുള	-10821
നാട	-10822
ാവു	-10823
ൊഴി	-10824
▁ഡീ	-10825
▁ലൗ	-10826
എംപി	-10827
ക്സി	-10828
രുമേ	-10829
ശ്ശി	-10830
▁11.	-10831
▁അനാ	-10832
▁കിണ	-10833
▁ഘടന	-10834
▁ഞ്ച	-10835
▁രജന	-10836
▁അമൃത	-10837
▁ഏഴാം	-10838
▁ഗുഡ്	-10839
▁ചാരി	-10840
▁തകരാ	-10841
കരമാണ്	-10842
▁എക്സ്	-10843
▁ടൈംസ്	-10844
▁പണ്ഡി	-10845
▁വട്ടം	-10846
▁വിരോധ	-10847
▁സോണ്‍	-10848
▁അങ്ങേയ	-10849
▁കരുണാക	-10850
▁കേസുകള	-10851
▁ങ്ങളായ	-10852
▁ടെലിവി	-10853
▁നിർമാണ	-10854
▁ിനൊപ്പ	-10855
യാണെന്ന്	-10856
▁നക്ഷത്ര	-10857
▁നീക്കിയ	-10858
▁രൂപയായി	-10859
▁തയ്യാറാവ	-10860
▁സമീപത്ത്	-10861
▁അക്കാര്യം	-10862
▁കൊല്ലത്ത്	-10863
▁ക്കേണ്ടത്	-10864
▁നിഷേധിച്ച	-10865
▁നോര്‍ത്ത്	-10866
▁പരമ്പരാഗത	-10867
▁റെക്കോർഡ്	-10868
▁ശ്രദ്ധയിൽ	-10869
▁ലഭിക്കാന്‍	-10870
▁സമ്മാനമായി	-10871
▁നിരീക്ഷണത്തിൽ	-10872
▁ഉത്തര്‍പ്രദേശ്	-10873
▁ിരുന്നെങ്കില്‍	-10874
ജിത	-10875
ദാർ	-10876
പരാ	-10877
ഫലി	-10878
▁ബഷ	-10879
നിലെ	-10880
▁എവി	-10881
▁കായ	-10882
▁കോണ	-10883
▁ദിൽ	-10884
▁പാദ	-10885
▁സ്ല	-10886
ിയര്‍	-10887
▁എന്റ	-10888
▁ഒമാന	-10889
▁ജംഗ്	-10890
▁പ്പു	-10891
▁ഫ്രാ	-10892
വെന്ന്	-10893
▁ഇന്നു	-10894
▁കോർപറ	-10895
▁ഡിപ്പ	-10896
▁രജിത്	-10897
▁സഖ്യമ	-10898
ടുക്കിയ	-10899
▁കുറയും	-10900
▁ക്യാംപ	-10901
▁പുള്ളി	-10902
▁മേഖലയെ	-10903
▁സമൂഹമാ	-10904
▁കിഴക്കൻ	-10905
▁നിരന്തര	-10906
▁പാണ്ഡ്യ	-10907
▁പോകേണ്ട	-10908
▁വന്നുചേ	-10909
▁അന്‍വര്‍	-10910
▁ങ്ങൾക്ക്	-10911
▁ചൈനയില്‍	-10912
▁പോര്‍ട്ട	-10913
▁മോദിക്ക്	-10914
▁ആരോപണങ്ങൾ	-10915
▁ക്കെല്ലാം	-10916
▁പാസാക്കിയ	-10917
▁പ്രചരിച്ച	-10918
▁മറുവശത്ത്	-10919
▁ിക്കാനാണ്	-10920
▁അംബാനിയുടെ	-10921
▁അനുവദിച്ചു	-10922
▁കണ്ടെത്താന	-10923
▁പലര്‍ക്കും	-10924
▁വീട്ടുകാര്‍	-10925
▁സ്വദേശിയാണ്	-10926
▁കൊണ്ടുവരാന്‍	-10927
▁മനസ്സിലാക്കിയ	-10928
ക്വ	-10929
മരം	-10930
ാർശ	-10931
▁ദീ	-10932
ീകൃത	-10933
▁ജമാ	-10934
യില്ല	-10935
യെന്ന	-10936
▁മിഷൻ	-10937
ക്കാണ്	-10938
ഫോഴ്സ്	-10939
▁എന്തോ	-10940
▁കളിക്ക	-10941
▁പ്രചോദ	-10942
▁റിനോഷ്	-10943
▁സൃഷ്ടി	-10944
▁ഏറ്റവുമ	-10945
▁ചികില്‍	-10946
▁തരത്തിൽ	-10947
▁പരാമർശം	-10948
▁പൊലീസും	-10949
▁മാത്രമെ	-10950
▁ക്രിമിനൽ	-10951
▁നിർത്തിയ	-10952
▁മമ്മൂട്ട	-10953
▁മല്ലാത്ത	-10954
▁മോര്‍ച്ച	-10955
▁സത്യസന്ധ	-10956
ര്‍ക്കാന്‍	-10957
▁രാശിക്കാര	-10958
▁കമ്മീഷന്റെ	-10959
▁വിഷയങ്ങള്‍	-10960
▁പറയാനുള്ളത്	-10961
▁പ്രവാസികള്‍	-10962
▁വാഹനത്തില്‍	-10963
▁വിശദീകരിക്ക	-10964
▁പൊട്ടിത്തെറി	-10965
▁ഭാഗ്യലക്ഷ്മി	-10966
▁നിലനിൽക്കുന്ന	-10967
▁ഇദ്ദേഹത്തിന്റെ	-10968
▁പാര്‍ട്ടികളുടെ	-10969
▁സ്വീകരിക്കാന്‍	-10970
വിദ	-10971
ീനി	-10972
▁ച്	-10973
നിക്	-10974
സ്പദ	-10975
െന്റ	-10976
▁ആസ്	-10977
ായിരം	-10978
▁അഥവാ	-10979
▁ഒരിട	-10980
▁തോതി	-10981
▁പോസ്	-10982
▁ബന്ദ	-10983
▁മലിന	-10984
▁മഹാസ	-10985
▁ക്കുറ	-10986
▁പാല്‍	-10987
▁ബാര്‍	-10988
▁ശർമ്മ	-10989
▁സുല്‍	-10990
▁എസ്റ്റ	-10991
▁കോയമ്പ	-10992
▁ദൗത്യം	-10993
▁ബിസിനസ	-10994
▁വന്നാൽ	-10995
▁സഹകരണം	-10996
കൃഷ്ണന്‍	-10997
▁തെല്ലാം	-10998
▁റ്റില്‍	-10999
▁വകുപ്പു	-11000
▁കേസുകളിൽ	-11001
▁കോടിയോളം	-11002
▁കോണ്‍സുല	-11003
▁തൊഴിലവസര	-11004
▁ഭൂരിഭാഗം	-11005
▁മിനിറ്റ്	-11006
▁ശ്രമമാണ്	-11007
▁ിരിക്കുക	-11008
▁അലര്‍ട്ട്	-11009
▁ചേര്‍ത്ത്	-11010
▁പൊലീസില്‍	-11011
▁മുംബൈയിലെ	-11012
ുണ്ടെന്നാണ്	-11013
▁യുഡിഎഫില്‍	-11014
▁നാട്ടുകാരും	-11015
▁മത്സരിക്കും	-11016
▁നിര്‍ദേശിച്ച	-11017
▁രാധാകൃഷ്ണന്‍	-11018
▁ശ്രദ്ധേയമാണ്	-11019
▁ലക്ഷക്കണക്കിന്	-11020
6,	-11021
ഷ്പ	-11022
ീയത	-11023
ത്മാ	-11024
സഞ്ച	-11025
▁ഡാം	-11026
▁ദുഃ	-11027
▁ാണു	-11028
ക്കുട	-11029
പ്പണം	-11030
വാള്‍	-11031
▁കാലി	-11032
▁ജയ്പ	-11033
▁തടസ്	-11034
▁നായ്	-11035
▁പര്‍	-11036
▁ബാഗ്	-11037
▁റിസ്	-11038
▁വാതി	-11039
▁വെളു	-11040
▁ശൈലി	-11041
▁ശോഭാ	-11042
മ്പാടി	-11043
▁ഒവൈസി	-11044
▁കളഞ്ഞ	-11045
▁കോള്‍	-11046
▁പതിനെ	-11047
▁പിഎസ്	-11048
▁വെടിവ	-11049
ാരിന്റെ	-11050
ിനെതിരെ	-11051
▁ചടങ്ങി	-11052
▁ഡ്രൈവി	-11053
▁തുപോലെ	-11054
▁രാജന്‍	-11055
▁റാങ്ക്	-11056
▁വെന്ന്	-11057
▁വെള്ളാ	-11058
▁സീനിയർ	-11059
▁സെൻട്ര	-11060
▁ിക്കാം	-11061
ണമെങ്കിൽ	-11062
വേലിക്കര	-11063
ുണ്ടെന്ന	-11064
്യാഭ്യാസ	-11065
▁ഏതൊക്കെ	-11066
▁വർക്കും	-11067
▁ഹെൽത്ത്	-11068
ിക്കേണ്ടി	-11069
ിടക്കുന്ന	-11070
▁ഇബ്രാഹിം	-11071
▁കാലത്തും	-11072
▁യില്ലാതെ	-11073
▁യെച്ചൂരി	-11074
▁രാഹുലിനെ	-11075
▁അഭിനയിച്ച	-11076
▁അമേരിക്കൻ	-11077
▁കുടുങ്ങിയ	-11078
▁നിയമസഭയിൽ	-11079
▁പരിഗണിക്ക	-11080
▁പ്രക്ഷോഭം	-11081
▁പ്രേക്ഷകർ	-11082
▁മുറിയില്‍	-11083
▁റദ്ദാക്കി	-11084
▁റെയില്‍വെ	-11085
വിദ്യാഭ്യാസ	-11086
▁ട്വിറ്റര്‍	-11087
▁പോയിരുന്നു	-11088
▁ഇന്ത്യക്കാര	-11089
▁ജനസംഖ്യയുടെ	-11090
▁ദിവസങ്ങളായി	-11091
▁രക്ഷപ്പെട്ട	-11092
▁വോട്ടുകളുടെ	-11093
▁ദുരന്തനിവാരണ	-11094
▁യാത്രക്കാര്‍	-11095
▁സീറ്റുകളിലും	-11096
▁പെൺകുട്ടിയുടെ	-11097
▁മാതാപിതാക്കള്‍	-11098
▁സംബന്ധിച്ചുള്ള	-11099
▁സംസാരിക്കുന്നത്	-11100
ോത	-11101
▁T	-11102
▁o	-11103
മുല	-11104
▁ശന	-11105
ന്തോ	-11106
▁അദ്	-11107
▁ഇമേ	-11108
▁ഒമി	-11109
▁കോം	-11110
▁ഖാൻ	-11111
ട്ടിക	-11112
ത്താല	-11113
രാജ്യ	-11114
▁കസേര	-11115
▁നിധി	-11116
▁ലിന്	-11117
▁വലതു	-11118
▁സേഫ്	-11119
ഡസ്ട്ര	-11120
സിറ്റ്	-11121
▁ചേരും	-11122
▁ച്ചത്	-11123
▁നെയും	-11124
▁പെഷ്യ	-11125
▁യുപിഎ	-11126
▁സൗന്ദ	-11127
ന്‍സിക്	-11128
▁അപ്പോഴ	-11129
▁അബുദാബ	-11130
▁കൃത്രി	-11131
▁ഗുസ്തി	-11132
▁ജയശങ്ക	-11133
▁പ്രതിമ	-11134
▁മറിച്ച	-11135
▁എന്നൊരു	-11136
▁ടീമില്‍	-11137
▁ഡൽഹിയിൽ	-11138
▁ത്തന്നെ	-11139
▁ഫോർട്ട്	-11140
▁ആകെയുള്ള	-11141
▁കൂത്തുപറ	-11142
▁കോടിയാണ്	-11143
▁തെളിവുകൾ	-11144
▁പള്‍സര്‍	-11145
▁ുമായുള്ള	-11146
▁ചന്ദ്രന്‍	-11147
▁പറമ്പില്‍	-11148
▁പൂർത്തിയാ	-11149
▁ബിജെപിയിൽ	-11150
▁വൃത്തങ്ങൾ	-11151
▁സല്‍മാന്‍	-11152
▁ബാബുവിന്റെ	-11153
▁വരുത്തുന്ന	-11154
▁ാണെങ്കിലും	-11155
▁സംഘപരിവാര്‍	-11156
▁ക്കപ്പെടുന്ന	-11157
▁കുടുംബത്തില്‍	-11158
▁അടിസ്ഥാനമാക്കി	-11159
▁തസ്തികയിലേക്ക്	-11160
ar	-11161
ഹേള	-11162
ുമാ	-11163
ോഗം	-11164
▁,'	-11165
▁-2	-11166
ഞ്ഞി	-11167
നൈസ്	-11168
ശേഖര	-11169
ാവായ	-11170
▁110	-11171
▁ആസാ	-11172
▁എബി	-11173
▁എയ്	-11174
▁നിധ	-11175
▁മറു	-11176
ന്വേഷ	-11177
▁അധ്യ	-11178
▁ഉദ്യ	-11179
▁പൂരം	-11180
▁മകനെ	-11181
▁റഹ്മ	-11182
▁അങ്ങ്	-11183
▁അണിയറ	-11184
▁ഐഎന്‍	-11185
▁കാമ്പ	-11186
▁പുഷ്പ	-11187
▁ലാന്‍	-11188
▁ശ്രേയ	-11189
▁സംവാദ	-11190
▁സൂചിക	-11191
സിന്‍റെ	-11192
ാലക്കുട	-11193
▁കരിച്ച	-11194
▁തീവ്രത	-11195
▁നിങ്ങള	-11196
▁പൊതുവെ	-11197
▁പ്രതാപ	-11198
▁മുന്നേ	-11199
▁സമയവും	-11200
▁ിക്കണം	-11201
▁കൺട്രോൾ	-11202
▁ജീവിച്ച	-11203
▁മുഖത്ത്	-11204
▁യിലേക്ക	-11205
▁സൂക്ഷ്മ	-11206
▁ട്രാഫിക്	-11207
▁നിന്നായി	-11208
▁പിന്‍വലി	-11209
▁മന്ത്രിയ	-11210
▁വാഹനങ്ങൾ	-11211
▁വിദ്യാലയ	-11212
▁ഹൈദരാബാദ	-11213
▁ുണ്ടെന്ന	-11214
▁അവസ്ഥയാണ്	-11215
▁പരിസരത്ത്	-11216
▁മാറ്റങ്ങൾ	-11217
▁ഉത്തരാഖണ്ഡ	-11218
▁വന്ദേഭാരത്	-11219
▁സമൂഹമാധ്യമ	-11220
▁സാംസ്കാരിക	-11221
▁എംഎല്‍എമാരെ	-11222
▁കണ്ടെത്തല്‍	-11223
▁വേണമെന്നാണ്	-11224
▁ക്രിസ്ത്യന്‍	-11225
▁ഗുജറാത്തില്‍	-11226
▁ഗ്രൂപ്പുകള്‍	-11227
▁നല്‍കുമെന്ന്	-11228
▁രാജ്യങ്ങളിലെ	-11229
▁ചുഴലിക്കാറ്റ്	-11230
▁പങ്കെടുക്കാന്‍	-11231
▁D	-11232
രൂപ	-11233
ുകര	-11234
▁ഓവ	-11235
▁മൻ	-11236
▁ഷൈ	-11237
ര്‍ഷ	-11238
േലിയ	-11239
▁ചാര	-11240
▁നവീ	-11241
▁റിൽ	-11242
ശിക്ഷ	-11243
ുള്ളൂ	-11244
േഷിനെ	-11245
▁2010	-11246
▁3000	-11247
▁ക്ലീ	-11248
▁വിയോ	-11249
▁സിബി	-11250
ണ്ടര്‍	-11251
നൊപ്പം	-11252
▁അവഹേള	-11253
▁ആർക്ക	-11254
▁ഇങ്ങന	-11255
▁ഇന്ദി	-11256
▁ഏതൊരു	-11257
▁ഡോക്ട	-11258
▁നായിക	-11259
▁മികവ്	-11260
▁ലിറ്റ	-11261
▁വീണത്	-11262
▁വെന്ന	-11263
▁വേദനി	-11264
▁അശ്ലീല	-11265
▁കത്തിൽ	-11266
▁ജനിച്ച	-11267
▁തൃണമൂൽ	-11268
▁വട്ടിയ	-11269
▁വർദ്ധന	-11270
▁ഏറ്റുവാ	-11271
▁കോൺഗ്രസ	-11272
▁പൊളിച്ച	-11273
▁ബോസില്‍	-11274
▁മെമ്മറി	-11275
ക്കുകയാണ്	-11276
▁കുറയുന്ന	-11277
▁ട്രേഷന്‍	-11278
▁തട്ടിപ്പ	-11279
▁നയിച്ചത്	-11280
▁യാഥാർത്ഥ	-11281
▁രാജ്യത്ത	-11282
▁വന്നാലും	-11283
▁വേട്ടയാട	-11284
▁സ്റ്റോറി	-11285
▁നിയന്ത്രി	-11286
▁നൂറ്റാണ്ട	-11287
▁വോട്ടിംഗ്	-11288
▁ശതമാനമായി	-11289
▁സംഘപരിവാർ	-11290
▁തിരിച്ചുവര	-11291
▁രൂപപ്പെട്ട	-11292
▁കണ്ടിരുന്നു	-11293
▁പ്രശ്നങ്ങള്‍	-11294
▁സന്ദര്‍ശിച്ച	-11295
▁പ്പെടുത്തുന്ന	-11296
▁സ്ത്രീകള്‍ക്ക്	-11297
സറ	-11298
പിട	-11299
ോഗ്	-11300
▁പശ	-11301
ഡന്‍	-11302
േവാല	-11303
▁ജൂണ	-11304
▁ഫോമ	-11305
▁രഘു	-11306
▁വേത	-11307
ഗ്ഗീയ	-11308
രിഞ്ഞ	-11309
▁അട്ട	-11310
▁അതത്	-11311
▁മയ്യ	-11312
▁വഴിവ	-11313
▁വൈകി	-11314
ുകാരും	-11315
ോറിക്ഷ	-11316
▁അച്ഛൻ	-11317
▁ഒടിടി	-11318
▁നേടാൻ	-11319
▁പുന്ന	-11320
▁ഹാര്‍	-11321
▁അപ്പുറ	-11322
▁ആര്‍ടി	-11323
▁കിരണ്‍	-11324
▁നാളായി	-11325
▁നിരപരാ	-11326
▁പൂർത്ത	-11327
▁റാന്നി	-11328
▁വകഭേദം	-11329
▁വടക്ക്	-11330
▁എല്ലാവര	-11331
▁ഡിവൈഎഫ്	-11332
▁പിടിക്ക	-11333
▁അവാര്‍ഡ്	-11334
▁കണ്ടാല്‍	-11335
▁ജൂനിയര്‍	-11336
▁പാക്കേജ്	-11337
▁രാജസ്ഥാൻ	-11338
▁വര്‍ഷവും	-11339
▁തെളിയിച്ച	-11340
▁പിന്നിട്ട	-11341
▁യുവാക്കളെ	-11342
▁അംഗങ്ങളുടെ	-11343
▁ഓട്ടോറിക്ഷ	-11344
▁കണ്‍വീനര്‍	-11345
▁തുടര്‍ന്നു	-11346
▁നശിപ്പിച്ച	-11347
▁പ്രതികളുടെ	-11348
▁രാമക്ഷേത്ര	-11349
▁ാണെങ്കില്‍	-11350
ട്ടിട്ടുണ്ട്	-11351
്യമന്ത്രാലയം	-11352
▁ആരോപണവുമായി	-11353
▁ഉത്തരാഖണ്ഡ്	-11354
▁നേതാക്കളാണ്	-11355
▁പ്രകാരമുള്ള	-11356
▁യാത്രക്കാരെ	-11357
▁വികസനത്തിന്	-11358
▁ഇലക്ട്രോണിക്	-11359
▁ഉണ്ടെങ്കില്‍	-11360
▁വേണമെങ്കിലും	-11361
▁&	-11362
മയം	-11363
ളിൽ	-11364
▁ഇം	-11365
ണ്ടു	-11366
രൂപം	-11367
ല്ല്	-11368
ിന്ന	-11369
▁140	-11370
▁27,	-11371
▁ംഗ്	-11372
▁അശോ	-11373
▁ഒരോ	-11374
▁ജയി	-11375
▁താണ	-11376
▁മറി	-11377
▁ശരണ	-11378
ക്കിട	-11379
▁ഫാസി	-11380
▁ലാബ്	-11381
ക്കുളം	-11382
ുവെന്ന	-11383
▁ഉണ്ടോ	-11384
▁ടൗണ്‍	-11385
▁ബംഗളൂ	-11386
▁മാഫിയ	-11387
▁മേധാവ	-11388
▁അണുബാധ	-11389
▁കടന്നാ	-11390
▁കിറ്റ്	-11391
▁ക്രൂരത	-11392
▁ഗ്യാസ്	-11393
▁ത്തോളം	-11394
▁പറയാതെ	-11395
▁ബോട്ട്	-11396
▁മനസ്സ്	-11397
▁വെല്‍ഫ	-11398
▁സെന്റി	-11399
▁ഹാജരായ	-11400
▁ആവശ്യകത	-11401
▁മുകുന്ദ	-11402
▁യോടുള്ള	-11403
▁സജീവമായ	-11404
▁പറഞ്ഞാണ്	-11405
▁പ്രതിജ്ഞ	-11406
▁സൈനികര്‍	-11407
▁ഇടയാക്കിയ	-11408
▁തകര്‍ന്നു	-11409
▁പോസ്റ്റിൽ	-11410
▁ലേക്കുള്ള	-11411
▁പരിശോധനയിൽ	-11412
▁പ്രത്യാഘാത	-11413
▁മേഖലകളിലും	-11414
▁രാജ്യദ്രോഹ	-11415
▁പെൺകുട്ടിയെ	-11416
ോടനുബന്ധിച്ച്	-11417
▁സ്വാധീനമുള്ള	-11418
▁പരിഹരിക്കുന്ന	-11419
▁സംസാരിക്കാന്‍	-11420
▁അടക്കമുള്ളവര്‍	-11421
▁%	-11422
ജിയ	-11423
ഭേദ	-11424
ർഷം	-11425
മ്പു	-11426
വിളി	-11427
്വാന	-11428
▁തത്	-11429
▁നെത	-11430
▁മജീ	-11431
▁സില	-11432
ന്തുറ	-11433
െയുടെ	-11434
▁ഇങ്ങ	-11435
▁കടകം	-11436
▁മര്‍	-11437
▁ഷിജു	-11438
▁ഗത്ത്	-11439
▁പുതുവ	-11440
▁റിനോഷ	-11441
▁ശരീരം	-11442
ക്കൊണ്ട	-11443
രിക്കാം	-11444
▁ഇരട്ടി	-11445
▁കളോടും	-11446
▁ദുരൂഹത	-11447
▁റോയല്‍	-11448
ക്കെട്ട്	-11449
▁ചിദംബരം	-11450
▁താണെന്ന	-11451
▁ത്തെയും	-11452
▁നിര്‍ണയ	-11453
▁പാടുള്ള	-11454
▁പെരുന്ന	-11455
▁വിഴിഞ്ഞ	-11456
പ്പിക്കാൻ	-11457
▁ഡിവിഷന്‍	-11458
▁മാര്‍ഗ്ഗ	-11459
▁മുമ്പാകെ	-11460
▁ഒന്നിച്ച്	-11461
▁ഞെട്ടിച്ച	-11462
▁രാശിക്കാർ	-11463
▁വിദഗ്ധര്‍	-11464
▁വൈറസിന്റെ	-11465
▁കുഞ്ഞിന്റെ	-11466
▁കുട്ടികളും	-11467
▁പരിശോധനയും	-11468
▁ഹോട്ടലില്‍	-11469
▁ഉണ്ടെന്നാണ്	-11470
▁ക്ലസ്റ്റര്‍	-11471
▁തിരിക്കാന്‍	-11472
▁ബാലകൃഷ്ണന്‍	-11473
▁മുന്‍കൂട്ടി	-11474
▁പ്രിയങ്കയുടെ	-11475
▁ആശുപത്രിയിലും	-11476
▁കൊല്ലപ്പെട്ടു	-11477
▁മന്ത്രിമാരുടെ	-11478
▁സംവിധാനങ്ങള്‍	-11479
▁സംരക്ഷിക്കുന്ന	-11480
▁പ്രവാസികള്‍ക്ക്	-11481
ഇഒ	-11482
നാഭ	-11483
▁ാര	-11484
സള്‍	-11485
്യൂണ	-11486
▁ബലി	-11487
▁വാള	-11488
▁കവിത	-11489
▁ബയോഡ	-11490
▁മാരാ	-11491
▁ശ്യാ	-11492
▁സെലി	-11493
ട്ടിക്	-11494
തൂക്കം	-11495
യെന്ന്	-11496
▁ആയിരം	-11497
▁ആറ്റി	-11498
▁തടയാൻ	-11499
▁നിസ്സ	-11500
▁ഭോപ്പ	-11501
▁ലില്‍	-11502
▁ലുക്ക	-11503
▁ലേക്ക	-11504
▁വിഷമം	-11505
▁സുതാര	-11506
▁അക്രമി	-11507
▁അന്ത്യ	-11508
▁ഇറ്റലി	-11509
▁ഗുണ്ടാ	-11510
▁തീർത്ത	-11511
▁ബെന്നി	-11512
▁ശുപാർശ	-11513
▁സൗഹൃദം	-11514
▁അച്ഛനും	-11515
▁ട്രാൻസ്	-11516
▁ണമെന്ന്	-11517
▁പരിക്ക്	-11518
ാക്കുകയും	-11519
▁അധികമായി	-11520
▁ആലോചിച്ച	-11521
▁കാരണങ്ങള	-11522
▁കുറ്റ്യാ	-11523
▁കർഷകരുടെ	-11524
▁മജിസ്ട്ര	-11525
▁അനുഭവിച്ച	-11526
▁എത്തിച്ച്	-11527
▁തയ്യാറല്ല	-11528
▁പാർട്ടികൾ	-11529
▁ഇങ്ങനെയാണ്	-11530
▁തള്ളിക്കളയ	-11531
▁യുവാവിന്റെ	-11532
▁വഹിക്കുന്ന	-11533
▁കൂട്ടത്തോടെ	-11534
▁തുടക്കത്തിൽ	-11535
▁പയ്യന്നൂര്‍	-11536
▁പ്രിൻസിപ്പൽ	-11537
▁യാത്രയ്ക്ക്	-11538
▁വര്‍ധിക്കും	-11539
▁സ്ഥാനത്താണ്	-11540
▁േക്കുമെന്ന്	-11541
▁കുട്ടികൾക്ക്	-11542
▁സുരക്ഷിതമായി	-11543
▁അറിയിക്കുകയും	-11544
▁സാഹചര്യങ്ങള്‍	-11545
▁രാഷ്ട്രീയത്തിൽ	-11546
▁വിമര്‍ശനവുമായി	-11547
▁നടപ്പിലാക്കുന്ന	-11548
ബൂബ	-11549
ജിപി	-11550
ാനിട	-11551
▁ആണോ	-11552
▁കിസ	-11553
▁ാലോ	-11554
പക്ഷം	-11555
യാന്‍	-11556
▁കുറെ	-11557
▁കേവല	-11558
▁ചൂട്	-11559
▁തീരം	-11560
▁നിരാ	-11561
▁ബോധം	-11562
▁മൗനം	-11563
▁ഷിബു	-11564
▁സിഇഒ	-11565
റ്റിംഗ	-11566
ാറില്‍	-11567
▁ഗുലാം	-11568
▁ഗോപിക	-11569
▁നൽകണം	-11570
▁ഭാഗിക	-11571
▁മഹേഷ്	-11572
▁ഒളിച്ച	-11573
▁കുഞ്ഞി	-11574
▁ഹിറ്റ്	-11575
ആര്‍ടിസി	-11576
ര്യമുള്ള	-11577
▁നിലപാടെ	-11578
▁റിമാന്‍	-11579
▁വിജയനും	-11580
▁ശര്‍മ്മ	-11581
▁ഇന്നിംഗ്	-11582
▁കയ്യില്‍	-11583
▁കൃഷ്ണന്‍	-11584
▁ചികില്‍സ	-11585
▁നഷ്ടമായി	-11586
▁പേരുകള്‍	-11587
▁മുന്‍ഗണന	-11588
▁വ്യാപാരം	-11589
▁സീറ്റാണ്	-11590
▁അഴീക്കോട്	-11591
▁ആളുകൾക്ക്	-11592
▁കുറിപ്പിൽ	-11593
▁ദുരുപയോഗം	-11594
▁രാജ്യങ്ങൾ	-11595
▁വകുപ്പുകൾ	-11596
▁വന്നപ്പോൾ	-11597
▁സമരത്തിന്	-11598
▁ആണ്‍കുട്ടി	-11599
▁ഓണ്‍ലൈനായി	-11600
▁ചാണ്ടിയുടെ	-11601
▁മത്സ്യബന്ധ	-11602
▁ഉള്‍ക്കൊള്ള	-11603
▁ജീവനക്കാരും	-11604
▁പ്രവർത്തകരെ	-11605
▁സുരേന്ദ്രനെ	-11606
▁എന്‍ജിനീയര്‍	-11607
▁കണ്ടിട്ടില്ല	-11608
▁വര്‍ക്കെതിരെ	-11609
▁അറിയിക്കുന്നു	-11610
▁കെഎസ്ആര്‍ടിസി	-11611
▁നടപ്പിലാക്കിയ	-11612
▁പ്രദേശങ്ങളിലും	-11613
▁വെച്ചായിരുന്നു	-11614
സസ്	-11615
ൾഡ്	-11616
▁ഗൊ	-11617
ക്തം	-11618
ബ്രി	-11619
▁ചെറ	-11620
▁നാക	-11621
▁പിത	-11622
▁ലക്	-11623
▁ഹിമ	-11624
ാക്കു	-11625
▁കൂലി	-11626
▁ദിൽഷ	-11627
▁റിന്	-11628
▁വിപി	-11629
െറിഞ്ഞ	-11630
▁അവശേഷ	-11631
▁ഇടിവ്	-11632
▁ഏകദിന	-11633
▁പന്ത്	-11634
▁പരമായ	-11635
▁ബിഎസ്	-11636
▁മനീഷ്	-11637
▁സുനിൽ	-11638
രികയാണ്	-11639
ശാസ്ത്ര	-11640
▁എന്തിന	-11641
▁കശ്മീര	-11642
▁ക്കാതി	-11643
▁തൃണമൂല	-11644
▁ബില്യൺ	-11645
▁യൂണിയൻ	-11646
▁വീടുകള	-11647
▁സഭയുടെ	-11648
▁ുകയാണ്	-11649
▁ജിഎസ്ടി	-11650
▁പരിയാരം	-11651
▁പോവുന്ന	-11652
▁അതെല്ലാം	-11653
▁നാണെന്ന്	-11654
▁മുന്നിലെ	-11655
▁സംഭവങ്ങൾ	-11656
▁ജോര്‍ജ്ജ്	-11657
▁നഷ്ടമായത്	-11658
▁ബിജെപിക്ക	-11659
▁വിഭാഗത്തെ	-11660
▁അങ്ങേയറ്റം	-11661
▁ഉത്തരവിട്ട	-11662
▁പദ്ധതികളും	-11663
▁ഭൂരിഭാഗവും	-11664
▁പരിശോധനാഫലം	-11665
▁ഉയരുന്നുണ്ട്	-11666
▁കഴിഞ്ഞിരുന്ന	-11667
▁ചരിത്രത്തില്‍	-11668
▁നല്‍കുമെന്നും	-11669
▁പരിഹരിക്കാന്‍	-11670
▁മഹാരാഷ്ട്രയിലെ	-11671
▁കണക്കാക്കുന്നത്	-11672
ാതല	-11673
▁സവ	-11674
കമ്പ	-11675
▁ണ്ണ	-11676
▁പാണ	-11677
ത്തിര	-11678
പ്പിട	-11679
▁ഇതാദ	-11680
▁നായർ	-11681
▁ലാലു	-11682
▁.....	-11683
▁ആക്കി	-11684
▁കൊടുവ	-11685
▁ണ്ടാവ	-11686
▁പോര്‍	-11687
▁സിറിയ	-11688
ബിനറ്റ്	-11689
▁ഇരുപത്	-11690
▁ഉപയോഗം	-11691
▁ഓയില്‍	-11692
▁ക്ഷാമം	-11693
▁തീർക്ക	-11694
▁പിണറായ	-11695
▁പോർട്ട	-11696
▁വീടുകൾ	-11697
▁ശ്ശേരി	-11698
▁ാണെന്ന	-11699
▁ിലുള്ള	-11700
▁പൂന്തുറ	-11701
▁വച്ചാണ്	-11702
▁സ്ഥാപനം	-11703
ത്തുന്നത്	-11704
ല്‍പ്പന്ന	-11705
▁അസ്വസ്ഥത	-11706
▁ത്തേക്ക്	-11707
▁പിന്നിലെ	-11708
▁ലംഘിച്ച്	-11709
▁വയസ്സിന്	-11710
▁വില്ലേജ്	-11711
▁വീട്ടമ്മ	-11712
▁സംക്രമണം	-11713
▁സംഘപരിവാ	-11714
▁ചെറിയാന്‍	-11715
▁നറുക്കെടു	-11716
▁പടിഞ്ഞാറൻ	-11717
▁പോലീസില്‍	-11718
▁പോലുമില്ല	-11719
▁ബലാത്സംഗം	-11720
▁രാജ്യത്തു	-11721
▁അധികൃതരുടെ	-11722
▁ചേര്‍ന്നത്	-11723
▁സമൂഹത്തിന്	-11724
▁സ്റ്റേഷനിൽ	-11725
▁ഹാജരാക്കിയ	-11726
▁ിരുന്നതായി	-11727
▁എണ്ണത്തില്‍	-11728
▁വിട്ടുവീഴ്ച	-11729
▁വ്യക്തിയുടെ	-11730
▁ക്കരുതെന്നും	-11731
▁ആരംഭിക്കുന്നത്	-11732
▁പുറപ്പെടുവിച്ച	-11733
▁നിലയിലായിരുന്നു	-11734
ബൽ	-11735
▁·	-11736
തുക	-11737
ധാര	-11738
ലൈന	-11739
ദിന്	-11740
മണ്ണ	-11741
വാളി	-11742
സ്റ്	-11743
▁ഗംഗ	-11744
റ്റിയ	-11745
ാന്ധി	-11746
▁ഇടിയ	-11747
▁ച്ചെ	-11748
▁പോര്	-11749
▁േട്ട	-11750
േയുള്ള	-11751
▁അയാളെ	-11752
▁കാക്ക	-11753
▁തകര്‍	-11754
▁ത്യാഗ	-11755
▁നമ്മു	-11756
▁ഫയല്‍	-11757
▁മകനും	-11758
▁മരണനിര	-11759
▁മോന്‍സ	-11760
▁കല്യാണം	-11761
▁ചേർത്ത്	-11762
▁ചൗഹാന്‍	-11763
▁തെങ്കിൽ	-11764
▁പ്പിച്ച	-11765
▁പ്രമോദ്	-11766
▁രേഖകളും	-11767
▁സേനയുടെ	-11768
▁സ്വഭാവം	-11769
▁കത്തയച്ച	-11770
▁താത്പര്യ	-11771
▁സന്ദർശനം	-11772
▁അതിർത്തിയ	-11773
▁അറിയിച്ച്	-11774
▁ആരംഭിച്ച്	-11775
▁ആവശ്യമായി	-11776
▁കാരണമായത്	-11777
▁ക്കായുള്ള	-11778
▁നടക്കാന്‍	-11779
▁സിംഗിന്റെ	-11780
▁കൊവിഡിന്റെ	-11781
▁എല്ലാവരേയും	-11782
▁തേടിയെത്തും	-11783
▁അത്തരത്തില്‍	-11784
▁എന്നിവരെയാണ്	-11785
▁വിമര്‍ശിച്ചു	-11786
▁കര്‍ഷകര്‍ക്ക്	-11787
▁തീര്‍ച്ചയായും	-11788
▁പ്രവർത്തകരുടെ	-11789
▁മണിക്കൂറുകള്‍	-11790
▁പൂർത്തിയാക്കിയ	-11791
▁സാധിച്ചിരുന്നു	-11792
';	-11793
ിഴ	-11794
ോഗി	-11795
്യൻ	-11796
▁ലഘ	-11797
▁ഹീ	-11798
ുമാർ	-11799
▁ഫാമ	-11800
▁റാണ	-11801
▁ലാൽ	-11802
പള്ളി	-11803
ൃദ്ധി	-11804
▁ആല്‍	-11805
▁കെയർ	-11806
▁ട്രി	-11807
▁പുനല	-11808
▁സിഎഎ	-11809
ണ്ണാടക	-11810
പിന്റെ	-11811
▁ഉള്ളൂ	-11812
▁ദയനീയ	-11813
▁സഖാവ്	-11814
▁സാംപി	-11815
▁ഹൃദയാ	-11816
▁50,000	-11817
▁ഒപ്പുവ	-11818
▁കനേഡിയ	-11819
▁ചൊല്ലി	-11820
▁ജുനൈസ്	-11821
▁തീർച്ച	-11822
▁ന്യൂനമ	-11823
▁പാലാരി	-11824
▁ബിനീഷ്	-11825
▁ഭരിച്ച	-11826
▁രോഗികൾ	-11827
▁ുന്നത്	-11828
ത്തെത്തി	-11829
▁കര്‍ക്ക	-11830
▁ജയിച്ചു	-11831
▁നീട്ടിയ	-11832
▁മോദിയും	-11833
▁വാങ്ങാൻ	-11834
▁സുകുമാര	-11835
▁സ്വീകരണ	-11836
തിനിടെയാണ്	-11837
▁അപമാനിച്ച	-11838
▁എമ്മിന്റെ	-11839
▁താഴെയുള്ള	-11840
▁പുലര്‍ത്ത	-11841
▁പോവുന്നത്	-11842
▁ബാധിതരുടെ	-11843
▁അഖിലേന്ത്യ	-11844
▁പാർലമെന്റ്	-11845
▁കളായിരുന്നു	-11846
▁ഗ്രഹങ്ങളുടെ	-11847
▁നടക്കുകയാണ്	-11848
▁പറയുമ്പോള്‍	-11849
▁ശശീന്ദ്രന്‍	-11850
ണ്ടിരിക്കുന്ന	-11851
▁എന്നിവർക്കും	-11852
▁തുടരുമെന്നും	-11853
▁പരിശോധിക്കും	-11854
▁ലക്ഷ്യമിട്ട്	-11855
▁സംശയിക്കുന്ന	-11856
▁തീരുമാനങ്ങള്‍	-11857
▁സര്‍വ്വകലാശാല	-11858
▁ചികിത്സയിലുള്ള	-11859
▁നേടിയിട്ടുണ്ട്	-11860
▁സ്ഥാനാർത്ഥികളെ	-11861
ലിവ	-11862
▁ഒൻ	-11863
▁ജഡ	-11864
▁നസ	-11865
▁പയ	-11866
▁മർ	-11867
▁ുക	-11868
▁പോള	-11869
▁ശുച	-11870
ഞ്ജലി	-11871
മാൻഡ്	-11872
▁ഒഴുക	-11873
▁ഗിരി	-11874
▁ജോജു	-11875
▁തരൂർ	-11876
▁ദിഗ്	-11877
▁ബിനോ	-11878
▁യാണു	-11879
▁വിനു	-11880
▁ശേഖര	-11881
ീതമായി	-11882
▁അവഗണന	-11883
▁ചൊല്ല	-11884
▁പത്മജ	-11885
▁യല്ലേ	-11886
▁റോള്‍	-11887
▁സങ്കട	-11888
▁സുബ്ര	-11889
▁ഹൃദയം	-11890
ല്ലാത്ത	-11891
▁ഇടപെടൽ	-11892
▁ഇരിങ്ങ	-11893
▁ഉറച്ചു	-11894
▁തീർത്ഥ	-11895
▁നിന്നോ	-11896
▁മറച്ചു	-11897
▁മൈക്രോ	-11898
▁രാജയോഗ	-11899
▁ലൈറ്റ്	-11900
▁ഉചിതമായ	-11901
▁കയറിയത്	-11902
▁ഡീസലിന്	-11903
▁പുനരധിവ	-11904
▁പൗരത്വം	-11905
▁സ്റ്റാഫ	-11906
▁സ്റ്റാർ	-11907
▁കടന്നുപോ	-11908
▁കൊവിഡിനെ	-11909
▁ങ്ങളേയും	-11910
▁യുപിയിലെ	-11911
▁സമൂഹത്തെ	-11912
▁ഇവിടുത്തെ	-11913
▁കാര്യക്ഷമ	-11914
▁ദില്ലിയിൽ	-11915
▁നല്‍കേണ്ട	-11916
▁പൂഞ്ഞാര്‍	-11917
▁കഴിഞ്ഞില്ല	-11918
▁നേട്ടമുണ്ട	-11919
▁സെന്ററില്‍	-11920
▁സൗകര്യങ്ങൾ	-11921
▁ഇന്ത്യക്കാർ	-11922
▁ഉത്തരേന്ത്യ	-11923
▁കേന്ദ്രങ്ങൾ	-11924
▁ക്കുമ്പോഴും	-11925
▁തയ്യാറാക്കി	-11926
▁യുണ്ടെന്നും	-11927
▁വാങ്ങുന്നത്	-11928
▁വെക്കുന്നത്	-11929
▁എത്തിക്കാന്‍	-11930
▁ദിവസങ്ങളിലും	-11931
▁പാര്‍ട്ടിയും	-11932
▁മുല്ലപ്പെരിയ	-11933
▁വികസിപ്പിച്ച	-11934
▁സഖ്യത്തിന്റെ	-11935
▁കാണിക്കുന്നത്	-11936
▁ക്കാനായിരുന്നു	-11937
▁ഉല	-11938
▁ഗീ	-11939
▁ഭൗ	-11940
▁റഫ	-11941
▁വൺ	-11942
ണ്ടം	-11943
വസ്ഥ	-11944
വാസം	-11945
ോഗിക	-11946
▁..?	-11947
▁അവൻ	-11948
▁എസി	-11949
▁ഐഡി	-11950
▁ബിൻ	-11951
▁ആപ്ല	-11952
▁ഐഎസ്	-11953
▁പിയെ	-11954
▁ഫെയ്	-11955
▁ഫോടന	-11956
▁മൊരു	-11957
▁രുത്	-11958
▁വികെ	-11959
▁വിഡ്	-11960
▁അടയാള	-11961
▁കരുതല	-11962
▁ചട്ടം	-11963
▁ദാമ്പ	-11964
▁നൂറുക	-11965
▁മുക്ക	-11966
▁സിറ്റ	-11967
▁സ്ക്ര	-11968
ങ്ങളോളം	-11969
്യാറ്റി	-11970
▁അടൂര്‍	-11971
▁ഗേറ്റ്	-11972
▁നമുക്ക	-11973
▁നേരത്ത	-11974
▁മകന്റെ	-11975
▁ശ്രുതി	-11976
▁ിച്ചത്	-11977
▁കഴിയാതെ	-11978
▁ചേർന്നു	-11979
▁നിന്നത്	-11980
▁പേരെയും	-11981
▁ബിഷപ്പ്	-11982
▁യെന്നത്	-11983
▁വൈകാരിക	-11984
രുന്നില്ല	-11985
▁ആർഎസ്എസ്	-11986
▁ഇതിനുള്ള	-11987
▁തിരിച്ചട	-11988
▁തിരുത്തി	-11989
▁ഫലങ്ങള്‍	-11990
▁മാണിയുടെ	-11991
▁ശത്രുക്ക	-11992
▁സൂചനകള്‍	-11993
ിലേക്കുള്ള	-11994
▁അംഗങ്ങളായ	-11995
▁അഡ്മിനിസ്	-11996
▁ചെയ്തതിന്	-11997
▁തകര്‍ന്ന്	-11998
▁നിയമനടപടി	-11999
▁സില്‍വര്‍	-12000
▁നടക്കുന്നു	-12001
▁രാത്രിയോടെ	-12002
▁ുവെങ്കിലും	-12003
▁തിരുവമ്പാടി	-12004
▁പരിശോധനകള്‍	-12005
▁തെറ്റിദ്ധാരണ	-12006
▁ഉൾപ്പെടുത്തിയ	-12007
▁ചെയ്തിരുന്നത്	-12008
▁പാര്‍ട്ടികളും	-12009
▁അവകാശപ്പെടുന്നു	-12010
▁പരിശോധനയ്ക്കായി	-12011
▁08	-12012
▁നൊ	-12013
ജിക്	-12014
ദ്ദീ	-12015
▁130	-12016
▁ബിഎ	-12017
▁രാഘ	-12018
▁റായ	-12019
▁ശീല	-12020
▁ോടെ	-12021
ച്ഛായ	-12022
ദ്ധ്യ	-12023
▁ഉരുൾ	-12024
▁ക്യു	-12025
▁ഗ്ലോ	-12026
▁നൂതന	-12027
▁പേഴ്	-12028
▁കാശ്മ	-12029
▁ചാറ്റ	-12030
▁വീടും	-12031
▁ഹയര്‍	-12032
ക്കേണ്ട	-12033
റ്റോറിയ	-12034
ിക്കന്‍	-12035
▁ചേച്ചി	-12036
▁ടീമിന്	-12037
▁പരസ്യം	-12038
▁മഴയാണ്	-12039
▁മാസ്ക്	-12040
▁വരേയും	-12041
▁വഴിയും	-12042
▁ഷിന്‍ഡ	-12043
മില്ലാതെ	-12044
യ്ക്കാണ്	-12045
▁അടച്ചിട	-12046
▁അര്‍ത്ഥ	-12047
▁ഒഴിഞ്ഞു	-12048
▁പ്രസ്തു	-12049
▁വധശിക്ഷ	-12050
ീകരിക്കും	-12051
▁ആറ്റിങ്ങ	-12052
▁പുതിയൊരു	-12053
▁ുമെല്ലാം	-12054
▁ഇരുവരെയും	-12055
▁കമ്പനിയായ	-12056
▁കോടതിക്ക്	-12057
▁തങ്ങൾക്ക്	-12058
▁പറഞ്ഞതായി	-12059
▁ബജറ്റില്‍	-12060
▁മോട്ടോര്‍	-12061
▁വിശേഷിപ്പ	-12062
▁ഉപേക്ഷിച്ച	-12063
▁എന്നുള്ളത്	-12064
▁ഒന്നിലധികം	-12065
▁ജുഡീഷ്യല്‍	-12066
▁ുണ്ടെങ്കിൽ	-12067
▁ഇന്റര്‍വ്യൂ	-12068
▁ഏറ്റവുമധികം	-12069
▁ഐപിഎല്ലില്‍	-12070
▁നേരിട്ടുള്ള	-12071
▁പ്രസിഡന്റും	-12072
▁മുന്നോട്ടുവ	-12073
▁ഇരിങ്ങാലക്കുട	-12074
▁പ്രചരിപ്പിച്ച	-12075
▁യാത്രക്കാരുടെ	-12076
▁ഉണ്ടായിരിക്കണം	-12077
▁സംസ്ഥാനങ്ങളുടെ	-12078
ഫോം	-12079
വേദ	-12080
െയോ	-12081
ങ്ങാ	-12082
ന്ദന	-12083
ാവൂർ	-12084
▁ആംആ	-12085
▁നടു	-12086
▁വാൻ	-12087
▁വുഹ	-12088
കുതിയ	-12089
വര്‍ഗ	-12090
▁ആകാം	-12091
▁കാരൻ	-12092
▁ശിഹാ	-12093
▁ഹാഷ്	-12094
▁ടൂര്‍	-12095
▁നാള്‍	-12096
▁പറയുക	-12097
▁മൂത്ത	-12098
▁ഷാര്‍	-12099
▁ാവശ്യ	-12100
▁അവന്റെ	-12101
▁എസ്എസ്	-12102
▁കണക്കു	-12103
▁തിരഞ്ഞ	-12104
▁നിലമ്പ	-12105
▁നുമാണ്	-12106
▁വിവേചന	-12107
▁വർധനവ്	-12108
തോടെയാണ്	-12109
▁ഇരട്ടിയ	-12110
▁കാരിയായ	-12111
▁ഡോളറാണ്	-12112
▁ദുരന്തം	-12113
▁പട്ടിണി	-12114
▁പൂഞ്ഞാറ	-12115
▁വോട്ടും	-12116
▁സെൻട്രൽ	-12117
▁അഫ്ഗാന്‍	-12118
▁അഭിഭാഷകൻ	-12119
▁ആരാധനാലയ	-12120
▁ഇളവുകള്‍	-12121
▁ഇസ്രായേൽ	-12122
▁എടുക്കാൻ	-12123
▁കുട്ടികള	-12124
▁ചോദിച്ച്	-12125
▁ദിവസങ്ങൾ	-12126
▁നോര്‍ക്ക	-12127
▁ബ്ലാക്ക്	-12128
▁യൂട്യൂബ്	-12129
▁വരുമ്പോൾ	-12130
▁വ്യക്തിയ	-12131
▁സാക്ഷ്യം	-12132
▁സാധിക്കൂ	-12133
▁കോവിഡില്‍	-12134
▁ജില്ലയുടെ	-12135
▁ജീവിതത്തെ	-12136
▁നോക്കുന്ന	-12137
▁വിനോദസഞ്ച	-12138
▁സ്ട്രാറ്റ	-12139
▁ഇവിടെയുള്ള	-12140
▁ചങ്ങനാശേരി	-12141
▁നെയ്യാറ്റി	-12142
▁പൂര്‍ണമായി	-12143
▁അനധികൃതമായി	-12144
▁അന്വേഷിച്ച്	-12145
▁ഭാരവാഹികള്‍	-12146
▁മണിക്കൂറോളം	-12147
▁മുദ്രാവാക്യ	-12148
▁ഉയര്‍ത്തുന്ന	-12149
▁എന്നിവയ്ക്ക്	-12150
▁ഒരുങ്ങുകയാണ്	-12151
▁ക്കായിരുന്നു	-12152
▁നിർദ്ദേശങ്ങൾ	-12153
▁വാക്സിനേഷന്‍	-12154
▁ശേഷമായിരുന്നു	-12155
▁ആഗ്രഹിക്കുന്നു	-12156
▁ചെന്നിത്തലയുടെ	-12157
▁യൂണിവേഴ്സിറ്റി	-12158
▁മാധ്യമങ്ങളിലൂടെ	-12159
നൽ	-12160
നാഗ	-12161
ളയം	-12162
▁ഏൽ	-12163
കരണം	-12164
ക്കർ	-12165
▁ദിർ	-12166
▁ദോഹ	-12167
▁ശിര	-12168
▁സജ്	-12169
ദര്‍ശ	-12170
വിന്‍	-12171
േഴ്സ്	-12172
▁അപ്ല	-12173
▁എമിറ	-12174
▁ഓടിയ	-12175
▁ജയിൽ	-12176
▁ദിനാ	-12177
▁പിവി	-12178
▁പ്പാ	-12179
▁മകരം	-12180
▁മോഡി	-12181
▁ശശിക	-12182
▁സമാപ	-12183
ക്കൊടി	-12184
വിട്ട്	-12185
ിലില്‍	-12186
▁അതിലെ	-12187
▁ജോർജി	-12188
▁പുല്ല	-12189
▁ഫോട്ട	-12190
▁മഹിളാ	-12191
▁മായാവ	-12192
▁യാവും	-12193
▁രക്തം	-12194
▁ലംഘനം	-12195
▁വീശിയ	-12196
▁ശത്രു	-12197
ിക്കാട്	-12198
▁അംഗത്വ	-12199
▁അബ്ദുറ	-12200
▁ആണെന്ന	-12201
▁കേരളീയ	-12202
▁ദില്‍ഷ	-12203
▁നിന്റെ	-12204
▁പ്രദർശ	-12205
▁വികാസ്	-12206
▁ുള്ളത്	-12207
റ്റിയുടെ	-12208
▁അസാധാരണ	-12209
▁ആശയവിനി	-12210
▁ഇറ്റലിയ	-12211
▁എണ്ണവും	-12212
▁കര്‍മ്മ	-12213
▁കുറഞ്ഞ്	-12214
▁തൃത്താല	-12215
▁പകരുന്ന	-12216
▁ഇമ്രാന്‍	-12217
▁ടെസ്റ്റി	-12218
▁യുമൊക്കെ	-12219
▁രാശിയിലെ	-12220
▁വിട്ടുകൊ	-12221
▁ഹൃദയാഘാത	-12222
▁ക്കാമെന്ന	-12223
▁പോര്‍ട്ട്	-12224
▁സമ്പൂര്‍ണ	-12225
▁ഉല്‍പ്പന്ന	-12226
▁കുറ്റക്കാര	-12227
▁ക്കിടയിലും	-12228
▁തീര്‍ത്തും	-12229
▁തുടർച്ചയായ	-12230
▁ത്തിനൊപ്പം	-12231
▁വിശ്വാസ്യത	-12232
▁സാന്നിധ്യമ	-12233
▁സാധിക്കാത്ത	-12234
▁ഹൈക്കമാന്റ്	-12235
▁നല്‍കണമെന്ന്	-12236
▁സ്ഥിരീകരിക്ക	-12237
▁കേന്ദ്രത്തിന്	-12238
▁പുറത്തുവരുന്ന	-12239
▁ഏറ്റെടുക്കുന്ന	-12240
▁സുഹൃത്തുക്കള്‍	-12241
▁ആവശ്യപ്പെടുന്നു	-12242
ഫു	-12243
ദാന	-12244
ദേവ	-12245
▁ഉഷ	-12246
ാറാം	-12247
▁1.5	-12248
▁അയൽ	-12249
▁ഈജി	-12250
▁ഈരാ	-12251
▁കഠി	-12252
▁ടോം	-12253
▁ധോണ	-12254
വന്ത്	-12255
▁ട്യൂ	-12256
▁നൂറു	-12257
▁നേമം	-12258
▁റ്റേ	-12259
▁വേഷം	-12260
മാരാണ്	-12261
സിയുടെ	-12262
▁എയർപോ	-12263
▁കട്ടി	-12264
▁കുംഭം	-12265
▁ങ്ങളു	-12266
▁ചാമ്പ	-12267
▁ഞങ്ങള	-12268
▁ടാങ്ക	-12269
▁നടനും	-12270
▁സജ്ജമ	-12271
▁സഭയിൽ	-12272
▁സ്മാര	-12273
ാനുണ്ട്	-12274
▁എന്തും	-12275
▁കൂളിലെ	-12276
▁തെക്കൻ	-12277
▁നോട്ട്	-12278
▁ഭൂകമ്പ	-12279
▁വിപ്ലവ	-12280
▁വിയോജി	-12281
▁സൈക്കി	-12282
▁കാട്ടിയ	-12283
▁ജോലിക്ക	-12284
▁രംഗത്തു	-12285
▁വട്ടിയൂ	-12286
▁അറിയിപ്പ	-12287
▁ആര്‍എസ്എ	-12288
▁ങ്ങളെയും	-12289
▁ബോളിവുഡ്	-12290
▁അപ്പോഴാണ്	-12291
▁കാരണമാകും	-12292
▁തരത്തിലും	-12293
▁ലോകമെമ്പാ	-12294
▁ലോക്ഡൗണ്‍	-12295
▁വേണുഗോപാൽ	-12296
▁വേദിയില്‍	-12297
▁ഉന്നയിച്ച്	-12298
▁തരത്തിലാണ്	-12299
▁നിയമപരമായി	-12300
▁നിര്‍മ്മാത	-12301
▁ഫോറന്‍സിക്	-12302
▁ബിജെപിയിലെ	-12303
▁യിലേക്കാണ്	-12304
▁ശിവകുമാര്‍	-12305
▁സര്‍വ്വീസ്	-12306
▁നിലയിലേക്ക്	-12307
▁മണ്ഡലങ്ങളിൽ	-12308
▁മലയാളികളുടെ	-12309
▁വരുമെന്നാണ്	-12310
▁നേടിയിരുന്നു	-12311
▁മരണപ്പെട്ടത്	-12312
▁അപമാനിക്കുന്ന	-12313
▁ചെന്നിത്തലയും	-12314
▁മുണ്ടായിരുന്ന	-12315
▁സർക്കാരിനെതിരെ	-12316
▁ആഗ്രഹിക്കുന്നത്	-12317
ഗുല	-12318
ജറി	-12319
േദ്	-12320
ർട്	-12321
▁റ്	-12322
ടാതെ	-12323
സിക്	-12324
▁28,	-12325
▁ബൗള	-12326
▁റോയ	-12327
തിന്‍	-12328
നെയും	-12329
സിസിഐ	-12330
ിക്കോ	-12331
▁അതിര	-12332
▁നഴ്സ	-12333
▁പാതി	-12334
▁ബര്‍	-12335
▁ബിനു	-12336
▁മരവി	-12337
▁രംഗം	-12338
▁റായി	-12339
▁വരണം	-12340
▁വാഗ്	-12341
▁സുബൈ	-12342
▁സെയ്	-12343
▁ാവും	-12344
പ്പിലെ	-12345
▁ആന്റണ	-12346
▁ഖാര്‍	-12347
▁ജര്‍മ	-12348
▁നാല്‍	-12349
▁നോളജി	-12350
▁വഴക്ക	-12351
▁വൈവിധ	-12352
▁ശല്യം	-12353
▁ഉത്തരവ	-12354
▁കാട്ടി	-12355
▁കാറ്റഗ	-12356
▁താൽപ്പ	-12357
▁പിന്നോ	-12358
▁വിദ്യാ	-12359
▁അടുക്കള	-12360
▁അധിനിവേ	-12361
▁പോലീസിൽ	-12362
▁ബിസിസിഐ	-12363
▁ഭാര്യയെ	-12364
▁ആശയക്കുഴ	-12365
▁കുറ്റവാള	-12366
▁പ്രസ്തുത	-12367
▁പ്രാർത്ഥ	-12368
▁യിലെത്തി	-12369
▁ഹാജരാകണം	-12370
▁ആദിത്യനാഥ	-12371
▁എത്തിച്ചേ	-12372
▁കിലോമീറ്റ	-12373
▁ക്കാവുന്ന	-12374
▁ചോദ്യങ്ങൾ	-12375
▁നീക്കങ്ങൾ	-12376
▁പുനഃസംഘടന	-12377
▁ബെംഗളൂരുവ	-12378
▁മുണ്ടായത്	-12379
▁സിനിമകള്‍	-12380
▁ഇദ്ദേഹത്തെ	-12381
▁വിരുദ്ധമായ	-12382
▁അനുവദിക്കും	-12383
▁ചിത്രത്തിലെ	-12384
▁രംഗത്തുണ്ട്	-12385
▁സഖ്യത്തില്‍	-12386
▁അമേരിക്കയിലെ	-12387
▁ക്കുന്നുണ്ട്	-12388
▁ട്ടായിരുന്നു	-12389
▁കേന്ദ്രത്തിലെ	-12390
▁ലഭ്യമാക്കുന്ന	-12391
▁ആരംഭിച്ചിരുന്നു	-12392
▁കാത്തിരിക്കുന്ന	-12393
ൌൺ	-12394
ോഡ്	-12395
▁ആച	-12396
▁ഗൾ	-12397
▁തഹ	-12398
▁ശൂ	-12399
▁ദരി	-12400
▁ധാർ	-12401
▁നുമ	-12402
▁പിണ	-12403
▁വേർ	-12404
▁വൈദ	-12405
യുമായ	-12406
▁ട്രൂ	-12407
▁പരിഭ	-12408
▁ബോക്	-12409
▁സാബു	-12410
▁ഹൈവേ	-12411
▁അനുയോ	-12412
▁ഇവരിൽ	-12413
▁ഓർക്ക	-12414
▁കരസ്ഥ	-12415
▁കൂറ്റ	-12416
▁ഞായറാ	-12417
ക്കറ്റ്	-12418
▁അംഗമായ	-12419
▁അയോഗ്യ	-12420
▁ദരിദ്ര	-12421
▁യടക്കം	-12422
▁വടക്കൻ	-12423
▁ാവുന്ന	-12424
▁ഉപയോക്ത	-12425
▁ചിലരുടെ	-12426
▁ജനപ്രിയ	-12427
▁പൂട്ടിയ	-12428
▁മാരില്‍	-12429
▁മുമ്പും	-12430
▁സംഘടനകൾ	-12431
▁സംസ്കാര	-12432
ർക്കെതിരെ	-12433
▁ഇന്ധനവില	-12434
▁നടപടിയും	-12435
▁ുമെന്നും	-12436
▁കൈമാറിയത്	-12437
▁പലസ്തീന്‍	-12438
▁പിടിക്കാൻ	-12439
▁മായിരുന്ന	-12440
▁സർക്കാരും	-12441
▁മേല്‍നോട്ട	-12442
▁യില്ലെന്ന്	-12443
▁സൂചനയുണ്ട്	-12444
▁കാഞ്ഞങ്ങാട്	-12445
▁കൊടുക്കാന്‍	-12446
▁ക്കരുതെന്ന്	-12447
▁ക്കാനാവില്ല	-12448
▁പങ്കെടുത്ത്	-12449
▁പാർട്ടിയിലെ	-12450
▁മാനദണ്ഡങ്ങൾ	-12451
▁ലക്ഷണങ്ങള്‍	-12452
▁വ്യക്തികള്‍	-12453
▁നിര്‍ത്താന്‍	-12454
▁വില്‍ക്കുന്ന	-12455
▁വിവാദത്തില്‍	-12456
▁വിദ്യാർത്ഥികളെ	-12457
▁അടിസ്ഥാനമാക്കിയ	-12458
▁തെരഞ്ഞെടുപ്പിന്	-12459
▁വര്‍ഷങ്ങള്‍ക്ക്	-12460
▁സ്വന്തമാക്കിയത്	-12461
വൂർ	-12462
▁370	-12463
▁ആഷി	-12464
▁കൂൾ	-12465
▁കൃഷ	-12466
▁ചാവ	-12467
▁തണു	-12468
▁പരു	-12469
▁മനഃ	-12470
▁മെസ	-12471
▁വെള	-12472
റ്റഡ്	-12473
റ്റില	-12474
വിദ്യ	-12475
▁അവനെ	-12476
▁ഉപരി	-12477
▁ഗൗതം	-12478
▁ഘടകം	-12479
▁ബഹളം	-12480
▁ഭാരം	-12481
▁വിവി	-12482
പ്പുകൾ	-12483
റങ്ങിയ	-12484
ോട്ടും	-12485
▁അനീതി	-12486
▁ഓൺലൈന	-12487
▁ജനവാസ	-12488
▁ടൈറ്റ	-12489
▁ഡ്രൈവ	-12490
▁പെയ്യ	-12491
▁പ്രവീ	-12492
▁വെങ്ങ	-12493
▁േഴ്സ്	-12494
ന്‍ഡര്‍	-12495
▁അനുസ്മ	-12496
▁ഓസ്ട്ര	-12497
▁പണിമുട	-12498
▁പുനര്‍	-12499
▁പ്രതീക	-12500
▁പ്രസാദ	-12501
▁വിശ്രമ	-12502
▁സുന്ദര	-12503
ക്കമുള്ള	-12504
▁ഓഫീസിന്	-12505
▁പോയാല്‍	-12506
▁മഞ്ചേരി	-12507
▁റൂമില്‍	-12508
▁അപ്പീല്‍	-12509
▁ണമെന്നും	-12510
▁തുടരാന്‍	-12511
▁നടപ്പിലാ	-12512
▁ബ്രാഹ്മണ	-12513
▁ഭൂമിയുടെ	-12514
▁വേണ്ടത്ര	-12515
▁വോട്ടിന്	-12516
▁അടച്ചിട്ട	-12517
▁ദീര്‍ഘകാല	-12518
▁പിന്തുണയ്	-12519
▁പ്രോജക്ട്	-12520
▁മുണ്ടാവും	-12521
▁ശ്രീധരന്‍	-12522
▁സാക്ഷികളെ	-12523
▁താരങ്ങളുടെ	-12524
▁പ്രദേശില്‍	-12525
▁പ്രധാനമാണ്	-12526
▁മല്‍സരിച്ച	-12527
▁വിജയകരമായി	-12528
▁വിമർശിച്ചു	-12529
▁പരാതിക്കാരി	-12530
▁പോസിറ്റീവായ	-12531
▁വാഷിംഗ്ടണ്‍	-12532
▁സ്വീകരിച്ച്	-12533
▁ഇല്ലെങ്കില്‍	-12534
▁കോര്‍പറേഷന്‍	-12535
▁ലക്ഷ്യമിടുന്ന	-12536
ഗത	-12537
ഫെ	-12538
യവ	-12539
▁u	-12540
ബിൾ	-12541
ോണം	-12542
ജീവന	-12543
മാലി	-12544
മിനി	-12545
രക്ഷ	-12546
സമൂഹ	-12547
▁125	-12548
▁കുല	-12549
▁പദം	-12550
ക്രോൺ	-12551
തീവ്ര	-12552
ദിവസം	-12553
ൊണ്ട്	-12554
▁ഊര്‍	-12555
▁കഴുക	-12556
▁ഗ്രി	-12557
▁പോലി	-12558
▁ബിഡി	-12559
▁മാഹി	-12560
▁ലളിത	-12561
▁വിടി	-12562
▁ഷട്ട	-12563
▁സാമു	-12564
▁ആറിന്	-12565
▁ഈജിപ്	-12566
▁എംപ്ല	-12567
▁നേടും	-12568
▁മഹാരാ	-12569
▁രില്‍	-12570
▁ശരണ്യ	-12571
ട്ടില്‍	-12572
ത്തിലായ	-12573
▁എഴുത്ത	-12574
▁കിടിലം	-12575
▁പഠിപ്പ	-12576
▁മൂന്നര	-12577
▁രണ്ടിട	-12578
▁ലഡാക്ക	-12579
▁സഹോദരൻ	-12580
ിക്കരുത്	-12581
▁വല്ലാതെ	-12582
▁വൈറസിനെ	-12583
ക്കാനുള്ള	-12584
▁പൊതുസമൂഹ	-12585
▁ബലാത്സംഗ	-12586
▁ആണെന്നാണ്	-12587
▁യിലുണ്ടായ	-12588
▁യുമെല്ലാം	-12589
▁ലക്ഷദ്വീപ	-12590
▁വന്നവരാണ്	-12591
▁ഉണ്ടാകില്ല	-12592
▁ഉദ്ദേശിച്ച	-12593
▁തുടരുന്നത്	-12594
▁തുറക്കുന്ന	-12595
▁പെട്രോളിന്	-12596
▁പെട്രോളിയം	-12597
▁കഴിഞ്ഞദിവസം	-12598
▁ണ്ടായിരുന്ന	-12599
▁പരിശോധിച്ചു	-12600
▁മത്സരിക്കാൻ	-12601
▁വെന്റിലേറ്റ	-12602
▁സജ്ജമാക്കിയ	-12603
▁ിട്ടുമുണ്ട്	-12604
▁ഉൾപ്പെടുത്തി	-12605
▁ഒഴിവാക്കാന്‍	-12606
▁വിമർശനവുമായി	-12607
▁കൂടിക്കാഴ്ച്ച	-12608
▁ങ്ങളായിരുന്നു	-12609
▁രക്ഷാപ്രവർത്ത	-12610
▁താമസിക്കുന്നത്	-12611
സൺ	-12612
▁#	-12613
ൊഴു	-12614
▁ശൃ	-12615
സ്പോ	-12616
▁ഫ്ള	-12617
▁ഭീക	-12618
▁മെഷ	-12619
▁സൗമ	-12620
ീശ്വര	-12621
▁ഇടപെ	-12622
▁ഉക്ര	-12623
▁എബ്ര	-12624
▁തിലെ	-12625
▁നമസ്	-12626
▁പുരി	-12627
▁പുലി	-12628
▁അങ്കണ	-12629
▁ഇറാനി	-12630
▁ഒന്‍പ	-12631
▁ഒബിസി	-12632
▁കൂടും	-12633
▁ഗുപ്ത	-12634
▁ഡെലിവ	-12635
▁ഹജ്ജ്	-12636
ക്കില്ല	-12637
▁ഇന്ദ്ര	-12638
▁ഈരാറ്റ	-12639
▁കടകള്‍	-12640
▁കാത്ത്	-12641
▁ക്കാരി	-12642
▁ധൈര്യം	-12643
▁നാലിന്	-12644
▁പതിനാല	-12645
▁പത്തനാ	-12646
▁പൗരന്‍	-12647
▁യൂസഫലി	-12648
▁വയസിന്	-12649
▁വ്യതിയ	-12650
▁സിയുടെ	-12651
സിനെതിരെ	-12652
▁ഉയർന്ന്	-12653
▁എങ്ങനെയ	-12654
▁ഓര്‍ഡിന	-12655
▁കുത്തിയ	-12656
▁ങ്ങളായി	-12657
▁തേടുന്ന	-12658
▁നേരിടാൻ	-12659
▁രാശിയിൽ	-12660
▁വെടിക്ക	-12661
▁എന്‍ഫോഴ്	-12662
▁കരുതിയത്	-12663
▁ജോലികള്‍	-12664
▁നേരിട്ടു	-12665
▁മണ്ഡലമായ	-12666
▁ആവശ്യങ്ങൾ	-12667
▁കള്‍ക്കും	-12668
▁കുതിച്ചുയ	-12669
▁പദവിയില്‍	-12670
▁പോകാനുള്ള	-12671
▁ഭൂമിയില്‍	-12672
▁സമൂഹത്തിൽ	-12673
▁സെക്കന്‍ഡ	-12674
▁സൈറ്റില്‍	-12675
▁ഉന്നയിച്ചു	-12676
▁കേസെടുത്ത്	-12677
▁ഗെഹ്ലോട്ട്	-12678
▁പുതുപ്പള്ള	-12679
▁െടുക്കുന്ന	-12680
▁ൊന്നുമില്ല	-12681
▁ഉമ്മൻചാണ്ടി	-12682
▁ക്കാമെന്നും	-12683
▁പാലിക്കേണ്ട	-12684
▁വിഭാഗത്തിലെ	-12685
▁വിമാനങ്ങള്‍	-12686
▁ശ്രദ്ധേയമായ	-12687
▁അവസാനിക്കുന്ന	-12688
▁ഉപയോഗിക്കാന്‍	-12689
▁പ്രതിഷേധത്തിന്	-12690
ഹൈ	-12691
▁V	-12692
▁ഹർ	-12693
ത്തീ	-12694
വേലി	-12695
▁32,	-12696
▁ലിൽ	-12697
▁സൗര	-12698
കമായി	-12699
▁കൈകോ	-12700
▁കോതമ	-12701
▁ഗുണഭ	-12702
▁ഞ്ഞു	-12703
▁ദുഃഖ	-12704
▁നിരോ	-12705
▁ഫിഷറ	-12706
▁റസിഡ	-12707
▁റഹീം	-12708
▁റേഷൻ	-12709
▁ആവേശം	-12710
▁ചെമ്പ	-12711
▁ധൈര്യ	-12712
▁വാർഡ്	-12713
▁സണ്ണി	-12714
▁സൈറ്റ	-12715
▁സ്രോത	-12716
▁ിനായി	-12717
▁ുകയും	-12718
ക്കിംഗ്	-12719
ാതെയാണ്	-12720
▁കരുനാഗ	-12721
▁റേഡിയോ	-12722
▁ലൈസൻസ്	-12723
▁എയര്‍പോ	-12724
▁ഒത്തുതീ	-12725
▁കപ്പല്‍	-12726
▁കാരണമാക	-12727
▁കുന്നത്	-12728
▁കൂടുന്ന	-12729
▁ചാര്‍ജ്	-12730
▁ചുമത്തി	-12731
▁ചെറുകിട	-12732
▁നിലവാരം	-12733
▁മമതയുടെ	-12734
▁വിക്ഷേപ	-12735
▁അഗസ്റ്റി	-12736
▁ഉച്ചയോടെ	-12737
▁കേസിലാണ്	-12738
▁ഗോപിയുടെ	-12739
▁ഗ്രൂപ്പി	-12740
▁ദാമ്പത്യ	-12741
▁മരണസംഖ്യ	-12742
▁മുന്നൊരു	-12743
▁യഥാക്രമം	-12744
▁വോട്ടാണ്	-12745
ത്തിനൊപ്പം	-12746
▁എന്നിട്ട്	-12747
▁ഡോക്ടർമാർ	-12748
▁തോമസിന്റെ	-12749
▁പാര്‍ക്ക്	-12750
▁മുമ്പില്‍	-12751
▁വിദ്യാർഥി	-12752
▁ഉണ്ടെങ്കിൽ	-12753
▁ഒഴിവാക്കണം	-12754
▁തുടങ്ങിയവർ	-12755
▁നല്‍കേണ്ടി	-12756
▁പ്രായപൂര്‍	-12757
▁മണിക്കൂറും	-12758
▁രാവിലെയാണ്	-12759
▁വർഷങ്ങളായി	-12760
▁ജനപ്രതിനിധി	-12761
▁പദ്ധതികളുടെ	-12762
▁മട്ടാഞ്ചേരി	-12763
▁യെക്കുറിച്ച	-12764
▁മന്ത്രിമാരായ	-12765
▁മുന്നണിയില്‍	-12766
▁ശ്രദ്ധിക്കുക	-12767
▁സംസ്ഥാനങ്ങളും	-12768
▁ില്ലായിരുന്നു	-12769
▁പ്രതീക്ഷിക്കാം	-12770
▁നടപ്പാക്കുന്നത്	-12771
▁പുറത്തുവരുന്നത്	-12772
▁വാര്‍ത്താസമ്മേള	-12773
ഭ്	-12774
കും	-12775
പകട	-12776
▁മഠ	-12777
ങ്ങു	-12778
▁12.	-12779
▁40,	-12780
▁അസാ	-12781
▁കോല	-12782
▁രഹി	-12783
ങ്കാര	-12784
ദായിക	-12785
പ്പടി	-12786
രന്റെ	-12787
ഷ്യസ്	-12788
ിനോട്	-12789
▁2004	-12790
▁2008	-12791
▁ആശ്വ	-12792
▁ക്കര	-12793
▁ജോഡോ	-12794
▁ജോണി	-12795
▁ണ്ടി	-12796
▁ദാരി	-12797
▁മൂടി	-12798
▁യിലേ	-12799
▁റിതു	-12800
ക്കൂലി	-12801
പ്പാണ്	-12802
റുണ്ട്	-12803
▁10.30	-12804
▁പേരില	-12805
▁ബോസിൽ	-12806
▁രഞ്ജി	-12807
▁സായുധ	-12808
ാര്‍ട്ട	-12809
▁അറിയാൻ	-12810
▁ഇതുവഴി	-12811
▁ഒമാന്‍	-12812
▁കാണാതെ	-12813
▁താങ്കൾ	-12814
▁പാമ്പ്	-12815
▁മല്‍സര	-12816
▁മുൻപിൽ	-12817
▁റുകള്‍	-12818
▁വിജയന്	-12819
▁ശക്തിയ	-12820
▁അടിച്ചമ	-12821
▁ചേരാന്‍	-12822
▁തൊഴിലുറ	-12823
▁മലബാര്‍	-12824
▁വായിച്ച	-12825
▁വൈദ്യുത	-12826
▁സൗകര്യമ	-12827
ുവെന്നാണ്	-12828
▁അഡീഷണല്‍	-12829
▁കൂളുകള്‍	-12830
▁ജനപ്രീതി	-12831
▁തുടർന്നു	-12832
▁വരുമെന്ന	-12833
▁ആരോഗ്യനില	-12834
▁ഇന്റർവ്യൂ	-12835
▁നിയമപരമായ	-12836
▁യേക്കാള്‍	-12837
▁ാണെന്നാണ്	-12838
▁ങ്ങളുടെയും	-12839
▁ശ്രദ്ധിച്ച	-12840
▁ക്കെതിരെയും	-12841
▁പാലാരിവട്ടം	-12842
▁പിന്തുണയോടെ	-12843
▁മത്സരങ്ങള്‍	-12844
▁ിക്കപ്പെട്ട	-12845
▁ആശുപത്രികളിൽ	-12846
▁ഒഴിവാക്കുന്ന	-12847
▁കാണുന്നുണ്ട്	-12848
▁പരിശോധിക്കാം	-12849
▁പ്രവർത്തകരും	-12850
▁മന്ത്രിയുമായ	-12851
▁ഇല്ലായിരുന്നു	-12852
▁ഇഷ്ടപ്പെടുന്ന	-12853
▁എന്നിവര്‍ക്ക്	-12854
▁തയ്യാറാണെന്ന്	-12855
▁പിന്തുണയുമായി	-12856
▁സെക്രട്ടറിയും	-12857
▁കൂടിയായിരുന്നു	-12858
സൽ	-12859
ലിയെ	-12860
▁അവധ	-12861
▁തീർ	-12862
▁ധ്യ	-12863
▁നിഴ	-12864
▁സെല	-12865
ലധികം	-12866
ിതമായ	-12867
▁ആസ്വ	-12868
▁ക്കട	-12869
▁ഗായക	-12870
▁പല്ല	-12871
▁റിലെ	-12872
ത്തേത്	-12873
നിന്ന്	-12874
ശ്രദ്ധ	-12875
▁അർത്ഥ	-12876
▁ആക്ട്	-12877
▁കില്‍	-12878
▁ത്തുക	-12879
▁ദുർബല	-12880
▁പ്പാറ	-12881
▁മറന്ന	-12882
▁വിശകല	-12883
റിയില്‍	-12884
▁കടുപ്പ	-12885
▁കിന്റെ	-12886
▁കോപ്പി	-12887
▁നിന്നെ	-12888
▁പെട്ടി	-12889
▁പ്രമോഷ	-12890
▁മാതാവ്	-12891
▁മുൻഗണന	-12892
▁വിഡിയോ	-12893
▁വിന്യസ	-12894
▁സമിതിയ	-12895
▁സ്ഥാപക	-12896
േറ്റില്‍	-12897
▁ഇന്റലിജ	-12898
▁ഉൾപ്പടെ	-12899
▁എട്ടിന്	-12900
▁കാലയളവ്	-12901
▁ഡിംപല്‍	-12902
▁തുടക്കമ	-12903
▁നിയമലംഘ	-12904
▁പ്പറ്റി	-12905
▁ഫിഷറീസ്	-12906
▁രണ്ടിന്	-12907
▁രൂപീകരണ	-12908
▁ശിവരാജ്	-12909
▁ശ്രീറാം	-12910
▁സുസ്ഥിര	-12911
▁അങ്കമാലി	-12912
▁കമ്പനികൾ	-12913
▁ട്രേറ്റ്	-12914
▁പ്രായമായ	-12915
▁മേല്‍ക്ക	-12916
▁യോടൊപ്പം	-12917
▁റിസര്‍വ്	-12918
▁സമ്പാദ്യ	-12919
▁സിസ്റ്റം	-12920
▁സ്ത്രീയെ	-12921
▁ഹര്‍ദിക്	-12922
▁കച്ചവടക്ക	-12923
▁കാര്യമല്ല	-12924
▁കിട്ടാത്ത	-12925
▁തീപിടുത്ത	-12926
▁നടത്തേണ്ട	-12927
▁നാണെന്നും	-12928
▁പ്രതിക്ക്	-12929
▁പ്രായോഗിക	-12930
▁ഭാര്യയുടെ	-12931
▁മുമ്പുള്ള	-12932
▁യാത്രകള്‍	-12933
▁രൂപയുമാണ്	-12934
▁ആസ്ഥാനത്ത്	-12935
▁എതിര്‍പ്പ്	-12936
▁കേന്ദ്രഭരണ	-12937
▁ജനാധിപത്യം	-12938
▁ലഭിച്ചാല്‍	-12939
▁വന്നുചേരും	-12940
▁വ്യക്തിത്വ	-12941
▁സുപ്രീംകോട	-12942
▁അതിനിടെയാണ്	-12943
▁കിട്ടിയില്ല	-12944
▁കൊടിക്കുന്ന	-12945
▁ചരിത്രത്തിൽ	-12946
▁മണിക്കുട്ടൻ	-12947
▁വിഭാഗങ്ങള്‍	-12948
▁സാധ്യതയില്ല	-12949
▁സ്വന്തമാക്ക	-12950
▁പ്രതിഷേധിച്ച	-12951
▁സ്വീകരിക്കാൻ	-12952
▁സ്വീകരിക്കുക	-12953
▁കമ്മ്യൂണിറ്റി	-12954
▁മധ്യപ്രദേശിലെ	-12955
▁ലഭിക്കുമെന്ന്	-12956
▁ഡെമോക്രാറ്റിക്	-12957
കാ	-12958
ാമോ	-12959
ോമാ	-12960
ൾസ്	-12961
ഡിഎം	-12962
▁കാൽ	-12963
▁ഗൂഡ	-12964
▁പോൾ	-12965
▁മകള	-12966
▁വരവ	-12967
▁ഷംസ	-12968
നോളജി	-12969
േഷനിൽ	-12970
▁പട്ര	-12971
▁പായി	-12972
▁മധുര	-12973
▁മെഗാ	-12974
▁സലാം	-12975
ുപേട്ട	-12976
ൊരിക്ക	-12977
▁അന്തർ	-12978
▁കഠിനാ	-12979
▁തക്കാ	-12980
▁തലപ്പ	-12981
▁തൻ്റെ	-12982
▁ദേവിക	-12983
▁പൂട്ട	-12984
▁രണ്ടോ	-12985
▁രുന്ന	-12986
▁റ്റിൽ	-12987
▁ലൊക്ക	-12988
▁വേതനം	-12989
▁സപ്ലൈ	-12990
▁ആര്‍മി	-12991
▁ശിഹാബ്	-12992
▁അന്തര്‍	-12993
▁ഇരുന്ന്	-12994
▁നടത്തിവ	-12995
▁ലേക്കും	-12996
▁വില്‍പന	-12997
▁വൃശ്ചിക	-12998
ാക്കാനാണ്	-12999
▁അംഗങ്ങളെ	-13000
▁അതിതീവ്ര	-13001
▁ആരോപിച്ച	-13002
▁എല്‍ജെപി	-13003
▁കവര്‍ച്ച	-13004
▁ടീച്ചര്‍	-13005
▁താരങ്ങളെ	-13006
▁ഭക്ഷണവും	-13007
▁വെടിയുതി	-13008
ശാന്തിന്റെ	-13009
▁അംഗങ്ങളും	-13010
▁ഖത്തറില്‍	-13011
▁മന്ത്രിയെ	-13012
▁വിജ്ഞാപനം	-13013
▁അക്രമികള്‍	-13014
▁ആശുപത്രികള	-13015
▁ഉണ്ടായിട്ട	-13016
▁ഉയര്‍ന്നത്	-13017
▁കോൺഗ്രസ്സ്	-13018
▁ചെയ്യാനാണ്	-13019
▁ഡല്‍ഹിയിലെ	-13020
▁നേതൃത്വവും	-13021
▁പരിഗണിച്ച്	-13022
▁വര്‍ധിച്ചു	-13023
▁ശ്രീജിത്ത്	-13024
▁ഇതിനിടെയാണ്	-13025
▁ഉപേക്ഷിച്ച്	-13026
▁ക്കുള്ളില്‍	-13027
▁ചിത്രത്തിന്	-13028
▁ചെയ്തതെന്ന്	-13029
▁തീർച്ചയായും	-13030
▁ശരീരത്തില്‍	-13031
▁ഈരാറ്റുപേട്ട	-13032
▁ത്തുടര്‍ന്ന്	-13033
▁രാജേന്ദ്രന്‍	-13034
▁സൗകര്യങ്ങളും	-13035
▁പ്പെടുത്താന്‍	-13036
▁മുഖ്യമന്ത്രിയ	-13037
▁വര്‍ഷത്തിനിടെ	-13038
▁ഒറ്റപ്പെട്ടയിട	-13039
▁താല്‍പര്യമില്ല	-13040
▁പ്രഖ്യാപിക്കും	-13041
▁വ്യാപനത്തിന്റെ	-13042
▁ജീവിതത്തിലേക്ക്	-13043
▁വിദ്യാര്‍ഥികള്‍	-13044
7,	-13045
ിരി	-13046
▁ആമ	-13047
▁ഐഎ	-13048
▁ഇളയ	-13049
▁കുര	-13050
▁തുള	-13051
▁മകര	-13052
▁രത്	-13053
▁ിനു	-13054
കുറ്റ	-13055
▁2001	-13056
▁അവളെ	-13057
▁എൻഐഎ	-13058
▁ജഡ്ജ	-13059
▁പദ്മ	-13060
▁വേലി	-13061
▁സരിത	-13062
നിധ്യം	-13063
▁ഏറ്റു	-13064
▁കനയ്യ	-13065
▁ഗ്വാള	-13066
▁ജർമ്മ	-13067
▁പെണ്ണ	-13068
▁സംസാര	-13069
ൽക്കത്ത	-13070
▁കയ്യിൽ	-13071
▁ജിഹാദ്	-13072
▁തികഞ്ഞ	-13073
▁പണിക്ക	-13074
▁ബഷീര്‍	-13075
▁ബാലഗോപ	-13076
▁രാജകുമ	-13077
▁ഷൂട്ട്	-13078
▁അതിനോട്	-13079
▁അപേക്ഷാ	-13080
▁അസ്വസ്ഥ	-13081
▁ആംആദ്മി	-13082
▁താരമാണ്	-13083
▁പുറത്താ	-13084
▁പ്രത്യയ	-13085
▁ശങ്കര്‍	-13086
▁ശ്രീലേഖ	-13087
▁സ്റ്റാൻ	-13088
മില്ലാത്ത	-13089
സുരേന്ദ്ര	-13090
▁കായംകുളം	-13091
▁ചെയ്യാതെ	-13092
▁തിനൊപ്പം	-13093
▁തീര്‍ത്ഥ	-13094
▁ദിനത്തിൽ	-13095
▁നിക്ഷേപക	-13096
▁പാമ്പിനെ	-13097
▁റ്റിന്റെ	-13098
▁ലേക്കാണ്	-13099
▁വടക്കന്‍	-13100
▁ുണ്ടാവും	-13101
▁കമ്മിഷന്‍	-13102
▁തലത്തിലും	-13103
▁പേരിലുള്ള	-13104
▁പ്രതിയാണ്	-13105
▁ഫേസ്ബുക്ക	-13106
▁മേഖലകളിലെ	-13107
▁സൈന്യത്തെ	-13108
ുകളാണുള്ളത്	-13109
▁കുട്ടിക്ക്	-13110
▁കുറ്റ്യാടി	-13111
▁പോപ്പുലര്‍	-13112
▁സ്വീകാര്യത	-13113
▁തുണ്ടെന്നും	-13114
▁പോകുന്നില്ല	-13115
▁വര്‍ഷത്തിന്	-13116
▁സാധാരണക്കാര	-13117
▁സുരക്ഷിതമായ	-13118
ീകരിക്കുന്നത്	-13119
▁കഴിഞ്ഞിട്ടും	-13120
▁തെരഞ്ഞെടുക്ക	-13121
▁പ്രാതിനിധ്യം	-13122
▁പ്ലാസ്റ്റിക്	-13123
▁നല്‍കണമെന്നും	-13124
▁പ്രവൃത്തിപരിച	-13125
▁മരിച്ചിരുന്നു	-13126
▁പുറത്തുവിട്ടത്	-13127
▁ശക്തിപ്പെടുത്ത	-13128
▁ങ്ങളെക്കുറിച്ച്	-13129
നട	-13130
താപ	-13131
ഷനു	-13132
ക്രം	-13133
ഞ്ഞാ	-13134
മുറി	-13135
റട്ട	-13136
▁900	-13137
▁ആശി	-13138
▁ഖാദ	-13139
▁പരോ	-13140
▁ജുനൈ	-13141
▁നഗരം	-13142
▁പിറക	-13143
▁ഭാവന	-13144
▁രമേശ	-13145
▁ലൈവ്	-13146
▁സമവാ	-13147
▁സലീം	-13148
▁സിഖ്	-13149
▁സ്രവ	-13150
മിറ്റ്	-13151
ലിന്യം	-13152
▁അഞ്ചര	-13153
▁എഫിന്	-13154
▁ഒഴികെ	-13155
▁കടല്‍	-13156
▁ഗ്രസ്	-13157
▁ചേര്‍	-13158
▁ദര്‍ശ	-13159
▁ദീപക്	-13160
▁ധർമ്മ	-13161
▁ന്ദ്ര	-13162
▁ഭീകരാ	-13163
▁മര്‍ദ	-13164
▁വയാണ്	-13165
ക്കിയത്	-13166
ടുമുള്ള	-13167
ര്‍ട്ടം	-13168
▁അരിക്ക	-13169
▁ഒഴിഞ്ഞ	-13170
▁പരസ്പര	-13171
▁പ്രശംസ	-13172
▁മുണ്ടോ	-13173
▁യുണ്ടാ	-13174
▁അന്ത്യം	-13175
▁എതിരാളി	-13176
▁എന്‍സിപ	-13177
▁കടലില്‍	-13178
▁കമ്മിഷണ	-13179
▁താരത്തെ	-13180
▁നടപടികള	-13181
▁പോയിന്റ	-13182
▁ഫാക്ടറി	-13183
▁വല്‍ക്ക	-13184
▁വീഴ്ച്ച	-13185
▁വേദിയിൽ	-13186
▁സാനിറ്റ	-13187
▁ഒളിവില്‍	-13188
▁തെളിഞ്ഞു	-13189
▁നൽകുന്നു	-13190
▁പ്പെട്ടു	-13191
▁മാലിന്യം	-13192
▁വിഭാഗവും	-13193
▁ഇറങ്ങിയത്	-13194
▁താരത്തിന്	-13195
▁യുണ്ടാകും	-13196
▁റിലയന്‍സ്	-13197
▁ങ്ങളുടേയും	-13198
▁മരിക്കുന്ന	-13199
▁മാവേലിക്കര	-13200
▁മേഖലയ്ക്ക്	-13201
▁പൂർണ്ണമായും	-13202
▁പ്രേക്ഷകര്‍	-13203
▁മണ്ഡലങ്ങള്‍	-13204
▁ഘട്ടത്തിലാണ്	-13205
▁രോഗബാധിതരുടെ	-13206
▁സ്വന്തമാക്കി	-13207
▁ഹൈക്കോടതിയിൽ	-13208
▁പ്രതിപക്ഷത്തെ	-13209
▁വെള്ളാപ്പള്ളി	-13210
▁അംഗീകരിക്കാന്‍	-13211
▁തയ്യാറാക്കുന്ന	-13212
▁നല്‍കുന്നുണ്ട്	-13213
▁പ്രകടിപ്പിച്ചു	-13214
▁പ്രായപൂര്‍ത്തിയ	-13215
▁സ്ഥാനാർത്ഥിയായി	-13216
▁N	-13217
▁ഠ	-13218
വാർ	-13219
▁':	-13220
ബറിൽ	-13221
്രുവ	-13222
▁ആദര	-13223
▁കളം	-13224
▁ഡാമ	-13225
▁ഡില	-13226
▁താക	-13227
▁റഷീ	-13228
▁വയ്	-13229
ധികാര	-13230
മ്പടി	-13231
▁കോഴി	-13232
▁ങ്കി	-13233
▁ജമാഅ	-13234
▁ദൂരം	-13235
▁ല്ലെ	-13236
▁സ്തം	-13237
നിരയായ	-13238
പ്പളളി	-13239
വ്യാധി	-13240
ിപ്പനി	-13241
▁പോണ്‍	-13242
▁ബേക്ക	-13243
▁വിള്ള	-13244
▁സിൽവർ	-13245
▁kerala	-13246
▁കുണ്ടറ	-13247
▁താലിബാ	-13248
▁പൂട്ടി	-13249
▁പോലൊരു	-13250
▁ഫിറ്റ്	-13251
▁മിനിമം	-13252
▁വൃത്തി	-13253
▁സംഘർഷം	-13254
▁സെറ്റ്	-13255
ുണ്ടായത്	-13256
േരിയില്‍	-13257
▁അഞ്ചിന്	-13258
▁എണ്ണവില	-13259
▁കണ്ടാണ്	-13260
▁ചവിട്ടി	-13261
▁തായുള്ള	-13262
▁നിറഞ്ഞു	-13263
▁ബാലറ്റ്	-13264
▁മഹാസഖ്യ	-13265
▁വിടാന്‍	-13266
▁വിദഗ്ധർ	-13267
▁സംപ്രേഷ	-13268
▁അപേക്ഷകൾ	-13269
▁എംഎൽഎമാർ	-13270
▁കാത്തിരി	-13271
▁ക്കെതിരേ	-13272
▁ചടങ്ങുകൾ	-13273
▁നടക്കാനി	-13274
▁പൊളിച്ചു	-13275
▁യുഎഇയിലെ	-13276
▁ലോക്കല്‍	-13277
▁വലിച്ചിഴ	-13278
▁സഹകരിക്ക	-13279
രിക്കെതിരെ	-13280
ിക്കാവുന്ന	-13281
▁കൂറുമാറിയ	-13282
▁ചെയ്താലും	-13283
▁നിരോധിച്ച	-13284
▁പട്ടാമ്പി	-13285
▁വകുപ്പിലെ	-13286
▁വയസ്സുകാര	-13287
▁വീഡിയോയിൽ	-13288
▁കളിലേക്കും	-13289
▁കൊയിലാണ്ടി	-13290
▁തിനിടെയാണ്	-13291
▁നടത്താനാണ്	-13292
▁നിര്‍മിച്ച	-13293
▁പദ്ധതിയാണ്	-13294
▁കാത്തിരിക്ക	-13295
▁നടത്താനുള്ള	-13296
▁നിര്‍ബന്ധിത	-13297
▁പിന്‍വലിച്ച	-13298
▁ആലപ്പുഴയില്‍	-13299
▁വിലയിരുത്തിയ	-13300
▁എല്ലാവരുടെയും	-13301
▁പിടിച്ചെടുക്ക	-13302
▁മത്സരാര്‍ത്ഥി	-13303
▁ചെയ്യപ്പെടുന്ന	-13304
▁സെക്രട്ടറിയുടെ	-13305
▁പാലിക്കണമെന്നും	-13306
▁പോവുകയായിരുന്നു	-13307
നുസ	-13308
യാന	-13309
ഷ്മ	-13310
ഹിക	-13311
ങ്കു	-13312
പട്ട	-13313
മൂലം	-13314
▁31,	-13315
▁50,	-13316
▁കൊള	-13317
▁നകം	-13318
▁മാൻ	-13319
▁വസു	-13320
▁േനെ	-13321
ഴുതിയ	-13322
േഷിന്	-13323
ോഗ്രാ	-13324
▁ഗോഡ്	-13325
▁ചാനൽ	-13326
▁താരി	-13327
▁ദാനം	-13328
▁പോഷക	-13329
▁ഫോളോ	-13330
▁മാധവ	-13331
▁റ്റർ	-13332
▁ലേറെ	-13333
▁വിപര	-13334
▁സമാഹ	-13335
▁ഇൻഷുറ	-13336
▁കരഞ്ഞ	-13337
▁കേസും	-13338
▁കൊടിയ	-13339
▁ദൗര്‍	-13340
▁നിഷ്പ	-13341
▁ഫൗണ്ട	-13342
▁വധശ്ര	-13343
▁വിഹിത	-13344
▁സതീഷ്	-13345
▁ആയാലും	-13346
▁ഖാന്റെ	-13347
▁ങ്ങല്‍	-13348
▁ബംഗാളി	-13349
▁യുഎന്‍	-13350
▁ഷെഡ്യൂ	-13351
▁ഇല്ലാതാ	-13352
▁ഉടമകള്‍	-13353
▁ഓഫീസിലെ	-13354
▁നഷ്ടമാക	-13355
▁പെരിങ്ങ	-13356
▁മസ്ജിദ്	-13357
▁മാര്‍ഗം	-13358
▁യുക്രൈൻ	-13359
▁സിംഗിനെ	-13360
▁ഹർജിയിൽ	-13361
▁ുമൊക്കെ	-13362
ത്തെത്തിയ	-13363
മുണ്ടായത്	-13364
▁ഉത്തരവിറ	-13365
▁ജോയിന്റ്	-13366
▁ബില്യണ്‍	-13367
▁മുന്‍കരു	-13368
▁മൂന്നിന്	-13369
▁വിഷയങ്ങൾ	-13370
▁എണ്ണത്തിൽ	-13371
▁ക്കാർക്ക്	-13372
▁ചെയ്തില്ല	-13373
▁പൊതുമേഖലാ	-13374
▁ഭാഗങ്ങളിൽ	-13375
▁വ്യക്തിയെ	-13376
▁ശേഷിയുള്ള	-13377
▁കശ്മീരില്‍	-13378
▁കൂടുതലുള്ള	-13379
▁ചെയര്‍പേഴ്	-13380
▁തലസ്ഥാനമായ	-13381
▁പരിചയമുള്ള	-13382
▁മണിക്കൂറുകൾ	-13383
▁വെല്‍ഫെയര്‍	-13384
▁ിക്കുമെന്ന്	-13385
▁ക്വാറന്റൈന്‍	-13386
▁ഡയറക്ടറേറ്റ്	-13387
▁നിയമത്തിന്റെ	-13388
▁മന്ത്രിസഭയിൽ	-13389
▁ഹൈക്കോടതിയുടെ	-13390
▁ഇടതുപക്ഷത്തിന്	-13391
▁E	-13392
ണറെ	-13393
▁ബൽ	-13394
▁ളെ	-13395
പാഠി	-13396
ര്‍ഹ	-13397
▁(2,	-13398
▁115	-13399
▁എയി	-13400
▁ഗോൾ	-13401
▁കൊമേ	-13402
▁ഖാനെ	-13403
▁മണ്ട	-13404
▁ാനും	-13405
▁ഐസിഎം	-13406
▁ക്കാൾ	-13407
▁ബയോടെ	-13408
▁ബൗണ്ട	-13409
▁വരുമോ	-13410
▁വഴിയോ	-13411
▁വിനിയ	-13412
▁വിവേക	-13413
▁വേരിയ	-13414
▁സംഭരണ	-13415
▁സയൻസ്	-13416
▁സൗമ്യ	-13417
▁കേട്ടു	-13418
▁പുത്തൻ	-13419
▁ഫലമായി	-13420
▁മാപ്പു	-13421
ക്കുകള്‍	-13422
ടങ്ങുന്ന	-13423
▁എഡിജിപി	-13424
▁എൻജിനീയ	-13425
▁ഏജൻസികൾ	-13426
▁കിഷോര്‍	-13427
▁ക്കാരായ	-13428
▁ജോലിയിൽ	-13429
▁താലിബാൻ	-13430
▁നേരിടും	-13431
▁പിന്‍മാ	-13432
▁മാറ്റാൻ	-13433
▁മേനോന്‍	-13434
▁വേഗതയിൽ	-13435
▁ശനിയുടെ	-13436
ക്കേസില്‍	-13437
പ്പിക്കുക	-13438
▁അപ്പോഴും	-13439
▁ആയിരിക്ക	-13440
▁കേള്‍ക്ക	-13441
▁ഗോവയില്‍	-13442
▁തിരച്ചിൽ	-13443
▁പുനസ്ഥാപ	-13444
▁വര്‍ഗീസ്	-13445
▁വുമുണ്ട്	-13446
റ്റിറ്റിയൂ	-13447
▁കശ്മീരിലെ	-13448
▁ഡിവൈഎസ്പി	-13449
▁നടത്താനും	-13450
▁നേട്ടമാണ്	-13451
▁മരണങ്ങളും	-13452
ിരിക്കുന്നു	-13453
▁അപേക്ഷകള്‍	-13454
▁ഇയാള്‍ക്ക്	-13455
▁ഒന്നുമില്ല	-13456
▁കര്‍ശനമായി	-13457
▁നിർമ്മിച്ച	-13458
▁പൂർത്തിയായ	-13459
▁മറുപടിയായി	-13460
▁രക്തസാക്ഷി	-13461
▁വയനാട്ടിലെ	-13462
▁സംഭവിക്കും	-13463
▁സര്‍ക്കാറി	-13464
▁സെപ്തംബര്‍	-13465
▁എല്ലാവരോടും	-13466
▁ജോര്‍ജിന്റെ	-13467
▁ത്തിലുണ്ടായ	-13468
▁നിലപാടുകള്‍	-13469
▁മറ്റുള്ളവരെ	-13470
▁വിശദീകരിച്ച	-13471
▁സിന്ധ്യയുടെ	-13472
▁ഇന്റലിജന്‍സ്	-13473
▁കാരണമെന്നാണ്	-13474
▁തുറന്നടിച്ചു	-13475
▁പ്രതിഷേധമാണ്	-13476
▁വിമര്‍ശിച്ച്	-13477
▁ചികിത്സയിലുളള	-13478
▁ഭാഗമായിട്ടാണ്	-13479
▁വെല്ലുവിളിയാണ്	-13480
▁ആഭ്യന്തരമന്ത്രി	-13481
",	-13482
രേ	-13483
▁f	-13484
പ്ട	-13485
ിനു	-13486
▁ഷേ	-13487
▁സര	-13488
കാരി	-13489
ഖ്യാ	-13490
ച്യു	-13491
താംക	-13492
ന്യു	-13493
െയിൻ	-13494
▁108	-13495
▁43,	-13496
▁രേഷ	-13497
ച്ചിൽ	-13498
പ്പൂർ	-13499
മുക്ത	-13500
▁അർഹത	-13501
▁പന്ന	-13502
▁മഞ്ജ	-13503
▁മരുമ	-13504
▁യിലു	-13505
▁റുടെ	-13506
▁റോഷി	-13507
▁ശിവൻ	-13508
ക്കേസ്	-13509
പക്ഷീയ	-13510
ഷനില്‍	-13511
ാനുമതി	-13512
▁ഓഫര്‍	-13513
▁ഓര്‍മ	-13514
▁കണ്ണട	-13515
▁കഴിയൂ	-13516
▁ചന്നി	-13517
▁ഡെല്‍	-13518
▁ത്താൻ	-13519
▁പവര്‍	-13520
▁ബൊമ്മ	-13521
ക്കോളജി	-13522
▁എങ്കിൽ	-13523
▁എന്നതി	-13524
▁എസ്എഫ്	-13525
▁എൻട്രി	-13526
▁കപില്‍	-13527
▁കുപ്പി	-13528
▁ഗ്രേഡ്	-13529
▁പരോക്ഷ	-13530
▁പാക്കി	-13531
▁പാർലമെ	-13532
▁പ്രയത്	-13533
▁ഫ്രണ്ട	-13534
▁മാനേജി	-13535
▁ശക്തമാ	-13536
▁സമുച്ച	-13537
ിടത്തോളം	-13538
▁ഇടിച്ചു	-13539
▁ഇറാന്റെ	-13540
▁ഒന്‍പത്	-13541
▁ക്കട്ടെ	-13542
▁തനിച്ച്	-13543
▁നോക്കുക	-13544
▁പരിഭ്രാ	-13545
▁പാക്കേജ	-13546
▁പുരോഗമന	-13547
▁ഭേദമായി	-13548
▁മതപരമായ	-13549
▁മാറാന്‍	-13550
▁മാസമായി	-13551
▁മുന്നേറ	-13552
▁വരുമായി	-13553
▁വിധേയമാ	-13554
▁അലേർട്ട്	-13555
▁കമ്മീഷണർ	-13556
▁കര്‍ഷകരെ	-13557
▁കുമെന്ന്	-13558
▁താഴെയാണ്	-13559
▁പൊന്നാനി	-13560
▁ഭരണസമിതി	-13561
▁മറികടന്ന	-13562
▁വിഴിഞ്ഞം	-13563
▁വ്യക്തമാ	-13564
▁അന്തരിച്ച	-13565
▁അറ്റകുറ്റ	-13566
▁കൊൽക്കത്ത	-13567
▁വഴിത്തിരി	-13568
▁കഴിക്കുന്ന	-13569
▁മഞ്ചേശ്വരം	-13570
▁മന്ത്രിമാർ	-13571
▁മരണത്തില്‍	-13572
▁യായിട്ടാണ്	-13573
▁ശക്തമാക്കി	-13574
▁ചെന്നൈയില്‍	-13575
▁പറയുന്നില്ല	-13576
▁മുന്നൊരുക്ക	-13577
▁സത്യവാങ്മൂല	-13578
▁അവകാശപ്പെട്ട	-13579
▁നടത്തണമെന്ന്	-13580
▁പ്രദേശങ്ങള്‍	-13581
▁മനസ്സിലാക്കി	-13582
▁ശിവന്‍കുട്ടി	-13583
▁എഞ്ചിനീയറിംഗ്	-13584
▁നടത്തുന്നതിന്	-13585
▁പുറത്തുവന്നത്	-13586
▁പൂർത്തിയാക്കി	-13587
▁ഉടമസ്ഥതയിലുള്ള	-13588
▁കഴിയില്ലെന്നും	-13589
▁പരാമര്‍ശങ്ങള്‍	-13590
▁പ്രവർത്തിക്കാൻ	-13591
▁ശ്രദ്ധിക്കേണ്ട	-13592
▁പെണ്‍കുട്ടികള്‍	-13593
റൽ	-13594
സബ	-13595
▁K	-13596
▁g	-13597
ണാച	-13598
ിവ്	-13599
▁00	-13600
▁ഊർ	-13601
യ്യി	-13602
ൊമ്പ	-13603
▁105	-13604
▁ഐഎം	-13605
▁കൃത	-13606
▁ഗഡ്	-13607
▁ടൗണ	-13608
▁നവജ	-13609
▁ഭംഗ	-13610
▁ഭീമ	-13611
▁വാവ	-13612
▁ഹണി	-13613
ക്കുറ	-13614
പിള്ള	-13615
▁അരുൺ	-13616
▁ഇറാഖ	-13617
▁ചതുര	-13618
▁നിറം	-13619
▁മിസോ	-13620
▁യാണി	-13621
▁രഹിത	-13622
ലിലാണ്	-13623
സ്റ്റു	-13624
▁കഴിവ്	-13625
▁കൗണ്ട	-13626
പ്പൊക്ക	-13627
യുണ്ടായ	-13628
▁10,000	-13629
▁അരുണാച	-13630
▁ആകര്‍ഷ	-13631
▁ഇക്കാല	-13632
▁ഉണ്ണിക	-13633
▁കഴിയുക	-13634
▁കുന്നം	-13635
▁കൊന്നു	-13636
▁പിൻവലി	-13637
▁മുമ്പേ	-13638
▁ലക്ഷ്മ	-13639
▁ലിങ്ക്	-13640
▁വിജയനെ	-13641
▁ശ്വാസം	-13642
▁സ്റ്റി	-13643
▁സ്റ്റൈ	-13644
▁ഹരിപ്പ	-13645
നിർദ്ദേശ	-13646
▁എന്നല്ല	-13647
▁ഒരുക്കി	-13648
▁ധരിച്ച്	-13649
▁ന്റെയും	-13650
▁പ്പെടും	-13651
▁മനസ്സിൽ	-13652
▁മുള്ളത്	-13653
▁സയന്‍സ്	-13654
▁സവിശേഷത	-13655
▁സ്വരാജ്	-13656
▁ിക്കാതെ	-13657
▁ക്ഷണിച്ച	-13658
▁തെറ്റായി	-13659
▁വന്നതാണ്	-13660
▁വാട്ടര്‍	-13661
▁സജീവമാണ്	-13662
▁സുധാകരനെ	-13663
▁സർവ്വീസ്	-13664
▁അസോസിയേഷൻ	-13665
▁ആനുകൂല്യം	-13666
▁കൃഷ്ണദാസ്	-13667
▁കൊച്ചിയിൽ	-13668
▁ടെക്നോളജി	-13669
▁തുര്‍ക്കി	-13670
▁പരിപാടികൾ	-13671
▁പുതുക്കിയ	-13672
▁ബന്ധുക്കൾ	-13673
▁മടങ്ങിയത്	-13674
▁റിക്രൂട്ട	-13675
▁ഹാജരാക്കി	-13676
▁അന്തരീക്ഷം	-13677
▁ആരോപിച്ചത്	-13678
▁ഗ്രൂപ്പിന്	-13679
▁പിന്നീടാണ്	-13680
▁പുറപ്പെട്ട	-13681
▁പോകുമെന്ന്	-13682
▁പ്രതിച്ഛായ	-13683
▁ബംഗ്ലാദേശ്	-13684
▁ഭരണഘടനയുടെ	-13685
▁മുന്നിലാണ്	-13686
▁ചെയ്യണമെന്ന	-13687
▁ദിവസത്തിനകം	-13688
▁നിയമപ്രകാരം	-13689
▁പരിക്കേറ്റു	-13690
▁പ്പെടുത്തിയ	-13691
▁സ്ഥാപനത്തിൽ	-13692
▁എടുക്കുന്നത്	-13693
▁നൂറുകണക്കിന്	-13694
▁വെള്ളപ്പൊക്ക	-13695
▁തിരഞ്ഞെടുപ്പു	-13696
▁അവതരിപ്പിച്ചത്	-13697
▁രോഗലക്ഷണങ്ങള്‍	-13698
▁സ്വാഭാവികമായും	-13699
▁കോണ്‍ഗ്രസിന്‍റെ	-13700
▁ശ്രമിച്ചിരുന്നു	-13701
ാദം	-13702
▁05	-13703
▁കഫ	-13704
▁ഡൗ	-13705
▁ഭര	-13706
രഹിത	-13707
ാകുമ	-13708
ുവഴി	-13709
▁കരക	-13710
▁നൗഷ	-13711
▁മെന	-13712
മേല്‍	-13713
റുന്ന	-13714
ോത്സവ	-13715
▁കുളി	-13716
▁ഗ്യം	-13717
▁തെലു	-13718
▁ത്തേ	-13719
▁പടിയ	-13720
▁ബ്ലൂ	-13721
▁മാക്	-13722
▁യാളെ	-13723
▁അണ്ണാ	-13724
▁കന്നഡ	-13725
▁കാണണം	-13726
▁ചാന്‍	-13727
▁ട്ടും	-13728
▁നമ്പറ	-13729
▁മക്കള	-13730
▁രേഷ്മ	-13731
▁റിയാദ	-13732
▁ലീഗും	-13733
▁ഷോയിൽ	-13734
▁സ്തംഭ	-13735
ുമെത്തി	-13736
▁കാലതാമ	-13737
▁കേസിന്	-13738
▁ഡാറ്റാ	-13739
▁തെരുവ്	-13740
▁പരിപാല	-13741
▁മകനാണ്	-13742
▁ലഭ്യമാ	-13743
വെന്നാണ്	-13744
▁ഉന്നതതല	-13745
▁കടത്തിയ	-13746
▁കൾക്കും	-13747
▁ചുറ്റും	-13748
▁ഡെലിവറി	-13749
▁പുലർത്ത	-13750
▁സോളാര്‍	-13751
▁ുകൊണ്ട്	-13752
▁െടുത്ത്	-13753
▁അവകാശവാദ	-13754
▁ഏകപക്ഷീയ	-13755
▁ക്കുമാണ്	-13756
▁ഗെലോട്ടി	-13757
▁ചിത്രവും	-13758
▁നിറവേറ്റ	-13759
▁ബാബുവിനെ	-13760
▁മുണ്ടക്ക	-13761
▁രാജിവച്ച	-13762
▁വളര്‍ത്ത	-13763
▁സമയത്തും	-13764
▁എമിറേറ്റ്	-13765
▁പ്രദേശിലെ	-13766
▁ലിറ്ററിന്	-13767
▁സന്തോഷവും	-13768
ത്തിലെത്തിയ	-13769
▁അറിയുന്നത്	-13770
▁കാരണങ്ങള്‍	-13771
▁പുറത്തുള്ള	-13772
▁മരണങ്ങളാണ്	-13773
▁മരണനിരക്ക്	-13774
▁അംഗീകരിച്ചു	-13775
▁അസോസിയേറ്റ്	-13776
▁തൊഴിലുറപ്പ്	-13777
▁ബിജെപിക്കും	-13778
▁വിനോദസഞ്ചാര	-13779
▁സംസ്ഥാനമാണ്	-13780
പ്പെടുത്തിയത്	-13781
▁എണ്ണത്തിന്റെ	-13782
▁എന്നുള്ളതാണ്	-13783
▁നിര്‍ണായകമായ	-13784
▁സമ്മാനിക്കും	-13785
▁സ്ത്രീകൾക്ക്	-13786
▁സ്ഥലത്തേക്ക്	-13787
▁കോണ്‍ഗ്രസിനും	-13788
▁വര്‍ധിപ്പിച്ച	-13789
▁വിളിക്കുന്നത്	-13790
▁സ്ഥിതിഗതികള്‍	-13791
▁ക്വാറന്റൈനിലും	-13792
▁വിവാദമായിരുന്നു	-13793
▁സാധിക്കുമെന്നും	-13794
ai	-13795
▁W	-13796
ഹാം	-13797
▁06	-13798
▁09	-13799
▁റൊ	-13800
ടന്‍	-13801
ട്ടാ	-13802
രമായ	-13803
സന്‍	-13804
ുകളി	-13805
▁160	-13806
▁35,	-13807
▁ഖേദ	-13808
▁ജലം	-13809
▁നാൾ	-13810
▁മേജ	-13811
▁മൈത	-13812
നാജ്ഞ	-13813
പ്പുര	-13814
▁അളവ്	-13815
▁എംടി	-13816
▁കാണി	-13817
▁പാട്	-13818
▁പേസ്	-13819
▁ഫ്ലൈ	-13820
▁വായന	-13821
▁വിഷു	-13822
▁സിഡി	-13823
വശാലും	-13824
വിട്ടു	-13825
▁ഉറങ്ങ	-13826
▁കാറിൽ	-13827
▁ചിലരെ	-13828
▁തോൽവി	-13829
▁നമ്പൂ	-13830
▁നഴ്സി	-13831
▁പ്രഭാ	-13832
▁പ്ലാന	-13833
▁റോഡിൽ	-13834
▁കണ്ണൂര	-13835
▁കയ്യില	-13836
▁കുറ്റി	-13837
▁ഗുണനില	-13838
▁ചില്ലറ	-13839
▁നാടിനെ	-13840
▁നാടിന്	-13841
▁പിറ്റേ	-13842
▁പേരുകൾ	-13843
▁ഭയങ്കര	-13844
▁രാകേഷ്	-13845
▁വിറ്റു	-13846
▁ഷിപ്പ്	-13847
▁ഷോപ്പി	-13848
രുമെന്ന്	-13849
▁ദാരിദ്ര	-13850
▁നെതിരായ	-13851
▁ന്യൂസില	-13852
▁പ്രദേശം	-13853
▁ഫ്രഞ്ച്	-13854
▁ബസുകള്‍	-13855
▁മരണങ്ങൾ	-13856
▁വഴങ്ങിയ	-13857
▁വാതില്‍	-13858
▁സീതാറാം	-13859
ിലേക്കാണ്	-13860
▁അച്ഛന്റെ	-13861
▁ആളുകളാണ്	-13862
▁ആവശ്യവും	-13863
▁എല്‍ജെഡി	-13864
▁ട്വിറ്ററ	-13865
▁ഡിലീറ്റ്	-13866
▁മാസത്തിൽ	-13867
▁വാദിച്ചു	-13868
▁വ്യോമസേന	-13869
▁സമ്മര്‍ദ	-13870
▁അരങ്ങേറിയ	-13871
▁ഇവിടേക്ക്	-13872
▁തസ്തികയിൽ	-13873
▁വിജയിച്ച്	-13874
▁സാമുദായിക	-13875
▁സ്ഥാനക്കയ	-13876
▁ഇടപാടുകള്‍	-13877
▁ഉണ്ടാക്കാൻ	-13878
▁എന്നതിന്റെ	-13879
▁കാരണമെന്ന്	-13880
▁കാരണവശാലും	-13881
▁നിയമത്തിന്	-13882
▁നിരോധനാജ്ഞ	-13883
▁വിമാനത്തിൽ	-13884
▁പോസ്റ്റില്‍	-13885
▁മുന്‍തൂക്കം	-13886
▁ലംഘിക്കുന്ന	-13887
▁ശതമാനത്തോളം	-13888
▁ഇന്ത്യക്കാരെ	-13889
▁നേതാക്കളില്‍	-13890
▁പറഞ്ഞപ്പോള്‍	-13891
▁പ്രവാസികളുടെ	-13892
▁ശതമാനത്തില്‍	-13893
▁മുന്നിലുള്ളത്	-13894
▁സ്ഥാപനങ്ങളിലെ	-13895
▁ജ്യോതിഷത്തില്‍	-13896
▁നിയമസഭയിലേക്ക്	-13897
▁സ്വീകരിക്കേണ്ട	-13898
▁ുവെന്നായിരുന്നു	-13899
ti	-13900
▁ഏല	-13901
▁ഓം	-13902
യൊരു	-13903
▁!!!	-13904
▁-1,	-13905
▁1,0	-13906
▁ആസി	-13907
▁പൂന	-13908
▁സിയ	-13909
▁ഇഞ്ച	-13910
▁കാനം	-13911
▁കാവി	-13912
▁ടണ്‍	-13913
▁ത്രെ	-13914
▁ദൈവം	-13915
▁ന്നെ	-13916
▁മണ്‍	-13917
▁മേരി	-13918
▁സുധീ	-13919
പ്രകാര	-13920
ഭേദഗതി	-13921
ലുകളും	-13922
ാലത്ത്	-13923
▁ഉണ്ടാ	-13924
▁ടാസ്ക	-13925
▁ത്രിക	-13926
▁ധാര്‍	-13927
▁പതിയെ	-13928
▁പുല്‍	-13929
▁പ്രാവ	-13930
▁ബുള്ള	-13931
▁ഭാരതി	-13932
▁വാഹനാ	-13933
ിലുമാണ്	-13934
▁അനുനയി	-13935
▁അവയുടെ	-13936
▁ണമെന്ന	-13937
▁തെരുവു	-13938
▁പന്തളം	-13939
▁മാലിക്	-13940
▁വിനായക	-13941
▁വിപ്പ്	-13942
▁സിന്‍ഹ	-13943
▁സുകള്‍	-13944
▁സെന്റർ	-13945
▁മ്യൂസിയ	-13946
▁ശിവകുമാ	-13947
▁ഇംഗ്ലണ്ട	-13948
▁ക്രൂരമായ	-13949
▁വഴിയുള്ള	-13950
▁വേഗത്തിൽ	-13951
▁വർഷത്തിൽ	-13952
▁അര്‍ജുന്‍	-13953
▁തേടുന്നത്	-13954
▁പാരമ്പര്യ	-13955
▁മനസ്സില്‍	-13956
▁മറ്റൊന്ന്	-13957
▁സംഘത്തിലെ	-13958
▁എടുക്കേണ്ട	-13959
▁താണെന്നാണ്	-13960
▁തുറക്കാന്‍	-13961
▁പശ്ചിമേഷ്യ	-13962
▁പോലീസിനോട്	-13963
▁പ്രവർത്തകര	-13964
▁മല്‍സരിക്ക	-13965
▁ഉപകരണങ്ങള്‍	-13966
▁എന്നിവയില്‍	-13967
▁തീരുമാനത്തെ	-13968
▁നേട്ടമുണ്ടാ	-13969
▁പുലര്‍ത്തിയ	-13970
▁മട്ടന്നൂര്‍	-13971
▁മാറ്റത്തിന്	-13972
▁മുകളിലേക്ക്	-13973
▁വര്‍ഷങ്ങള്‍	-13974
▁സ്റ്റേഷനിലെ	-13975
▁കുറിപ്പിന്റെ	-13976
▁നഷ്ടപ്പെട്ടു	-13977
▁അവസാനിപ്പിച്ച	-13978
▁കൊണ്ടുപോകുന്ന	-13979
▁നേതൃത്വവുമായി	-13980
▁മത്സരങ്ങളില്‍	-13981
▁രാഷ്ട്രീയമായി	-13982
▁അപേക്ഷിക്കുന്ന	-13983
▁ഉന്നയിക്കുന്നത്	-13984
om	-13985
ബെ	-13986
ോടു	-13987
▁ഒള	-13988
ബോധം	-13989
മാനം	-13990
മ്പോ	-13991
വാനി	-13992
വർഷം	-13993
ഷിദ്	-13994
ുവില	-13995
▁30,	-13996
▁ചിത	-13997
▁ജാവ	-13998
▁ഫയർ	-13999
▁ബഹള	-14000
▁റോള	-14001
▁വാന	-14002
▁ശാഖ	-14003
▁ശൃം	-14004
▁ഹാസ	-14005
ച്ചിറ	-14006
▁കബളി	-14007
▁കളിയ	-14008
▁ജഡേജ	-14009
▁ദുഷ്	-14010
▁പൊരു	-14011
▁ബിപി	-14012
▁റെസ്	-14013
▁വൈറസ	-14014
▁സികെ	-14015
▁സുഗമ	-14016
▁ാനാവ	-14017
ക്കോടി	-14018
ഡുമായി	-14019
വിയുടെ	-14020
സമ്മേള	-14021
▁10000	-14022
▁ഒഴിവാ	-14023
▁ക്രിയ	-14024
▁മൊഴിയ	-14025
▁മോചിത	-14026
സ്റ്റോറ	-14027
▁ഇടപാട്	-14028
▁ഒന്നാമ	-14029
▁ഒളിഞ്ഞ	-14030
▁ഓടിച്ച	-14031
▁കഴിക്ക	-14032
▁കുമാരി	-14033
▁ക്കാട്	-14034
▁ചിരാഗ്	-14035
▁തിനോട്	-14036
▁തിരമാല	-14037
▁ബില്ല്	-14038
▁മടക്കി	-14039
▁മൊയ്തീ	-14040
▁രാമന്‍	-14041
▁റൂറല്‍	-14042
▁വരേണ്ട	-14043
▁സാമന്ത	-14044
▁സ്ഥിരത	-14045
▁ഹാരിസ്	-14046
▁അപൂര്‍വ	-14047
▁കയറുന്ന	-14048
▁തിന്‍റെ	-14049
▁പരിരക്ഷ	-14050
▁യുമുള്ള	-14051
▁വില്ലേജ	-14052
▁വിശ്വസി	-14053
▁ിറങ്ങിയ	-14054
▁ുമെന്ന്	-14055
ിലൂടെയാണ്	-14056
▁ഇടയ്ക്ക്	-14057
▁ഒരുമിച്ച	-14058
▁കൂടുതലും	-14059
▁നിന്നുളള	-14060
▁പ്രതിമാസ	-14061
▁വര്‍ധനവ്	-14062
▁വിഭാഗീയത	-14063
▁ശുഭകരമായ	-14064
▁സമഗ്രമായ	-14065
▁േക്കില്ല	-14066
▁ഇറങ്ങുന്ന	-14067
▁കള്ളപ്പണം	-14068
▁കൈക്കൊണ്ട	-14069
▁ങ്ങളൊക്കെ	-14070
▁പതിനൊന്ന്	-14071
▁പാലിക്കുക	-14072
▁സമ്മർദ്ദം	-14073
▁ദിവസത്തിന്	-14074
▁മണിപ്പൂര്‍	-14075
▁മാത്രമുള്ള	-14076
▁വയ്ക്കുന്ന	-14077
▁ശതമാനത്തിൽ	-14078
▁സുരേഷിന്റെ	-14079
▁അവസാനിക്കും	-14080
▁അവസ്ഥയിലാണ്	-14081
▁ആശങ്കയിലാണ്	-14082
▁ഉരുള്‍പൊട്ട	-14083
▁ചെയ്യുമ്പോൾ	-14084
▁നല്‍കാനുള്ള	-14085
▁ഭരണകക്ഷിയായ	-14086
മുണ്ടായിരുന്ന	-14087
▁സംബന്ധിച്ചും	-14088
▁സര്‍ക്കാരാണ്	-14089
▁കടുത്തുരുത്തി	-14090
▁ത്തിലേക്കുള്ള	-14091
▁ഉള്‍പ്പെടുന്നു	-14092
▁കുറ്റപ്പെടുത്ത	-14093
▁ക്ഷേത്രത്തില്‍	-14094
▁ചെയ്യുമെന്നാണ്	-14095
▁നിര്‍ബന്ധമായും	-14096
▁പ്രധാനമന്ത്രിയെ	-14097
േല	-14098
ോവ	-14099
രളി	-14100
വാത	-14101
ഹ്ന	-14102
ൂസ്	-14103
▁ആൽ	-14104
വാരം	-14105
ൂരും	-14106
ൊറ്റ	-14107
▁2.5	-14108
▁അവശ	-14109
▁ഗാർ	-14110
▁തുഷ	-14111
▁നഷ്	-14112
▁വാറ	-14113
▁ാണി	-14114
▁്റെ	-14115
ല്‍ഡ്	-14116
▁അവന്	-14117
▁കീഴട	-14118
▁കേടു	-14119
▁കോളേ	-14120
▁തടവ്	-14121
▁ഭദ്ര	-14122
▁വരാം	-14123
▁സുലൈ	-14124
ക്കോട്	-14125
േറ്റത്	-14126
▁ഉളളത്	-14127
▁കൊടും	-14128
▁കർക്ക	-14129
▁നട്ടെ	-14130
▁നാടകം	-14131
▁പിയിൽ	-14132
▁പ്രേം	-14133
▁മക്കൾ	-14134
▁മോചനം	-14135
▁വാള്‍	-14136
▁സിഎസ്	-14137
▁അശ്വതി	-14138
▁എന്‍റെ	-14139
▁കഠിനാധ	-14140
▁ചരക്ക്	-14141
▁നൈറ്റ്	-14142
▁വിധിയെ	-14143
▁സ്നേഹം	-14144
▁ഹോട്ടൽ	-14145
▁എഫിന്റെ	-14146
▁നോട്ടീസ	-14147
▁ന്റേയും	-14148
▁പുസ്തകം	-14149
▁പെന്‍ഡ്	-14150
▁ബിഹാര്‍	-14151
▁രാജിക്ക	-14152
ന്‍മെന്റ്	-14153
▁അമരീന്ദർ	-14154
▁ഇനിയുള്ള	-14155
▁എന്നാലും	-14156
▁ക്കാരന്‍	-14157
▁തിരിഞ്ഞ്	-14158
▁തിലേക്ക്	-14159
▁നിൽക്കാൻ	-14160
▁പുരസ്കാര	-14161
▁ഫോര്‍മുല	-14162
▁മലയാളികൾ	-14163
▁വിരുദ്ധത	-14164
▁വിശ്വാസമ	-14165
▁സാധനങ്ങൾ	-14166
▁അത്യാവശ്യ	-14167
▁ഉൾക്കൊള്ള	-14168
▁എത്തുകയും	-14169
▁ചേര്‍ത്തു	-14170
▁താത്പര്യം	-14171
▁ബാങ്കില്‍	-14172
▁മഴയ്ക്കും	-14173
▁സംഭവിച്ചു	-14174
▁സമീപമുള്ള	-14175
▁സ്വദേശികൾ	-14176
▁അടുത്തുള്ള	-14177
[...]
