{
  "version": "1.0",
  "truncation": null,
  "padding": null,
  "added_tokens": [
    {
      "id": 0,
      "content": "[UNK]",
      "single_word": false,
      "lstrip": false,
      "rstrip": false,
      "normalized": false,
      "special": true
    },
    {
      "id": 1,
      "content": "[CLS]",
      "single_word": false,
      "lstrip": false,
      "rstrip": false,
      "normalized": false,
      "special": true
    },
    {
      "id": 2,
      "content": "[SEP]",
      "single_word": false,
      "lstrip": false,
      "rstrip": false,
      "normalized": false,
      "special": true
    },
    {
      "id": 3,
      "content": "[PAD]",
      "single_word": false,
      "lstrip": false,
      "rstrip": false,
      "normalized": false,
      "special": true
    },
    {
      "id": 4,
      "content": "[MASK]",
      "single_word": false,
      "lstrip": false,
      "rstrip": false,
      "normalized": false,
      "special": true
    }
  ],
  "normalizer": {
    "type": "Sequence",
    "normalizers": [
      {
        "type": "NFKC"
      },
      {
        "type": "Lowercase"
      }
    ]
  },
  "pre_tokenizer": {
    "type": "Whitespace"
  },
  "post_processor": null,
  "decoder": {
    "type": "WordPiece",
    "prefix": "##",
    "cleanup": true
  },
  "model": {
    "type": "WordPiece",
    "unk_token": "[UNK]",
    "continuing_subword_prefix": "##",
    "max_input_chars_per_word": 100,
    "vocab": {
      "[UNK]": 0,
      "[CLS]": 1,
      "[SEP]": 2,
      "[PAD]": 3,
      "[MASK]": 4,
      "!": 5,
      "\"": 6,
      "#": 7,
      "$": 8,
      "%": 9,
      "&": 10,
      "'": 11,
      "(": 12,
      ")": 13,
      "*": 14,
      "+": 15,
      ",": 16,
      "-": 17,
      ".": 18,
      "/": 19,
      "0": 20,
      "1": 21,
      "2": 22,
      "3": 23,
      "4": 24,
      "5": 25,
      "6": 26,
      "7": 27,
      "8": 28,
      "9": 29,
      ":": 30,
      ";": 31,
      "<": 32,
      "=": 33,
      ">": 34,
      "?": 35,
      "@": 36,
      "[": 37,
      "\\": 38,
      "]": 39,
      "^": 40,
      "_": 41,
      "a": 42,
      "b": 43,
      "c": 44,
      "d": 45,
      "e": 46,
      "f": 47,
      "g": 48,
      "h": 49,
      "i": 50,
      "j": 51,
      "k": 52,
      "l": 53,
      "m": 54,
      "n": 55,
      "o": 56,
      "p": 57,
      "q": 58,
      "r": 59,
      "s": 60,
      "t": 61,
      "u": 62,
      "v": 63,
      "w": 64,
      "x": 65,
      "y": 66,
      "z": 67,
      "{": 68,
      "|": 69,
      "}": 70,
      "~": 71,
      "¢": 72,
      "£": 73,
      "¤": 74,
      "¥": 75,
      "¦": 76,
      "§": 77,
      "©": 78,
      "¬": 79,
      "®": 80,
      "°": 81,
      "±": 82,
      "¶": 83,
      "·": 84,
      "¿": 85,
      "×": 86,
      "ß": 87,
      "à": 88,
      "á": 89,
      "â": 90,
      "ã": 91,
      "ä": 92,
      "å": 93,
      "æ": 94,
      "ç": 95,
      "è": 96,
      "é": 97,
      "ê": 98,
      "ë": 99,
      "ì": 100,
      "í": 101,
      "î": 102,
      "ï": 103,
      "ð": 104,
      "ñ": 105,
      "ò": 106,
      "ó": 107,
      "ô": 108,
      "õ": 109,
      "ö": 110,
      "÷": 111,
      "ø": 112,
      "ú": 113,
      "û": 114,
      "ü": 115,
      "ý": 116,
      "þ": 117,
      "ÿ": 118,
      "ā": 119,
      "ă": 120,
      "ć": 121,
      "č": 122,
      "đ": 123,
      "ē": 124,
      "ĕ": 125,
      "ė": 126,
      "ę": 127,
      "ě": 128,
      "ğ": 129,
      "ī": 130,
      "į": 131,
      "ı": 132,
      "ĸ": 133,
      "ľ": 134,
      "ł": 135,
      "ń": 136,
      "ň": 137,
      "ō": 138,
      "œ": 139,
      "ř": 140,
      "ś": 141,
      "ş": 142,
      "š": 143,
      "ť": 144,
      "ŧ": 145,
      "ū": 146,
      "ů": 147,
      "ž": 148,
      "ƒ": 149,
      "ư": 150,
      "ǎ": 151,
      "ǐ": 152,
      "ǿ": 153,
      "ɇ": 154,
      "ɐ": 155,
      "ɑ": 156,
      "ɗ": 157,
      "ə": 158,
      "ɪ": 159,
      "ɲ": 160,
      "ɴ": 161,
      "ɵ": 162,
      "ʀ": 163,
      "ʏ": 164,
      "ʜ": 165,
      "ʟ": 166,
      "ˈ": 167,
      "ˌ": 168,
      "ː": 169,
      "˗": 170,
      "̀": 171,
      "́": 172,
      "̄": 173,
      "̇": 174,
      "̈": 175,
      "̌": 176,
      "̵": 177,
      "̷": 178,
      "̸": 179,
      "͜": 180,
      "͞": 181,
      "ά": 182,
      "ή": 183,
      "ί": 184,
      "α": 185,
      "β": 186,
      "γ": 187,
      "δ": 188,
      "ε": 189,
      "η": 190,
      "θ": 191,
      "ι": 192,
      "κ": 193,
      "λ": 194,
      "μ": 195,
      "ν": 196,
      "ο": 197,
      "π": 198,
      "ρ": 199,
      "ς": 200,
      "σ": 201,
      "τ": 202,
      "υ": 203,
      "φ": 204,
      "ψ": 205,
      "ω": 206,
      "ό": 207,
      "ύ": 208,
      "ώ": 209,
      "а": 210,
      "б": 211,
      "в": 212,
      "г": 213,
      "д": 214,
      "е": 215,
      "ж": 216,
      "з": 217,
      "и": 218,
      "й": 219,
      "к": 220,
      "л": 221,
      "м": 222,
      "н": 223,
      "о": 224,
      "п": 225,
      "р": 226,
      "с": 227,
      "т": 228,
      "у": 229,
      "ф": 230,
      "х": 231,
      "ц": 232,
      "ч": 233,
      "ш": 234,
      "щ": 235,
      "ъ": 236,
      "ы": 237,
      "ь": 238,
      "э": 239,
      "ю": 240,
      "я": 241,
      "ѐ": 242,
      "ё": 243,
      "ђ": 244,
      "ѓ": 245,
      "є": 246,
      "ѕ": 247,
      "і": 248,
      "ї": 249,
      "ј": 250,
      "њ": 251,
      "ћ": 252,
      "ќ": 253,
      "ў": 254,
      "џ": 255,
      "ѳ": 256,
      "҉": 257,
      "ґ": 258,
      "ғ": 259,
      "ҕ": 260,
      "җ": 261,
      "қ": 262,
      "ҡ": 263,
      "ң": 264,
      "ҥ": 265,
      "ү": 266,
      "ұ": 267,
      "ҳ": 268,
      "ҷ": 269,
      "һ": 270,
      "ӄ": 271,
      "ӈ": 272,
      "ӏ": 273,
      "ӑ": 274,
      "ӓ": 275,
      "ә": 276,
      "ӝ": 277,
      "ӣ": 278,
      "ӧ": 279,
      "ө": 280,
      "ӯ": 281,
      "ӱ": 282,
      "ա": 283,
      "գ": 284,
      "դ": 285,
      "ե": 286,
      "զ": 287,
      "ը": 288,
      "ի": 289,
      "լ": 290,
      "խ": 291,
      "կ": 292,
      "ղ": 293,
      "մ": 294,
      "յ": 295,
      "ն": 296,
      "ո": 297,
      "չ": 298,
      "ս": 299,
      "վ": 300,
      "տ": 301,
      "ր": 302,
      "ց": 303,
      "ւ": 304,
      "ք": 305,
      "א": 306,
      "ב": 307,
      "ג": 308,
      "ה": 309,
      "ו": 310,
      "ז": 311,
      "ט": 312,
      "י": 313,
      "ל": 314,
      "מ": 315,
      "נ": 316,
      "ע": 317,
      "פ": 318,
      "ר": 319,
      "ת": 320,
      "،": 321,
      "؟": 322,
      "أ": 323,
      "إ": 324,
      "ا": 325,
      "ب": 326,
      "ة": 327,
      "ت": 328,
      "ج": 329,
      "ح": 330,
      "خ": 331,
      "د": 332,
      "ذ": 333,
      "ر": 334,
      "ز": 335,
      "س": 336,
      "ش": 337,
      "ص": 338,
      "ض": 339,
      "ط": 340,
      "ع": 341,
      "غ": 342,
      "ف": 343,
      "ق": 344,
      "ك": 345,
      "ل": 346,
      "م": 347,
      "ن": 348,
      "ه": 349,
      "و": 350,
      "ى": 351,
      "ي": 352,
      "َ": 353,
      "ک": 354,
      "ہ": 355,
      "ۇ": 356,
      "ی": 357,
      "ە": 358,
      "ं": 359,
      "इ": 360,
      "ए": 361,
      "क": 362,
      "ज": 363,
      "ब": 364,
      "र": 365,
      "ल": 366,
      "़": 367,
      "ा": 368,
      "ि": 369,
      "ै": 370,
      "१": 371,
      "४": 372,
      "७": 373,
      "९": 374,
      "অ": 375,
      "ই": 376,
      "ক": 377,
      "চ": 378,
      "ত": 379,
      "দ": 380,
      "ন": 381,
      "ব": 382,
      "র": 383,
      "া": 384,
      "ি": 385,
      "ু": 386,
      "ে": 387,
      "্": 388,
      "ਂ": 389,
      "ਕ": 390,
      "ਟ": 391,
      "ਪ": 392,
      "ਮ": 393,
      "ਰ": 394,
      "ਸ": 395,
      "ਹ": 396,
      "ਾ": 397,
      "ਿ": 398,
      "ੀ": 399,
      "ੂ": 400,
      "ੈ": 401,
      "ੌ": 402,
      "க": 403,
      "ட": 404,
      "ழ": 405,
      "ா": 406,
      "ி": 407,
      "ூ": 408,
      "ை": 409,
      "்": 410,
      "ೋ": 411,
      "ก": 412,
      "ค": 413,
      "ง": 414,
      "จ": 415,
      "ซ": 416,
      "ด": 417,
      "ต": 418,
      "ท": 419,
      "น": 420,
      "ฝ": 421,
      "พ": 422,
      "ฟ": 423,
      "ภ": 424,
      "ม": 425,
      "ย": 426,
      "ล": 427,
      "ว": 428,
      "ษ": 429,
      "ส": 430,
      "ห": 431,
      "ฬ": 432,
      "อ": 433,
      "ั": 434,
      "า": 435,
      "ิ": 436,
      "ี": 437,
      "ึ": 438,
      "เ": 439,
      "แ": 440,
      "โ": 441,
      "ใ": 442,
      "ไ": 443,
      "่": 444,
      "้": 445,
      "์": 446,
      "྆": 447,
      "࿐": 448,
      "တ": 449,
      "န": 450,
      "မ": 451,
      "လ": 452,
      "သ": 453,
      "ဦ": 454,
      "ိ": 455,
      "ု": 456,
      "ေ": 457,
      "့": 458,
      "း": 459,
      "္": 460,
      "်": 461,
      "ြ": 462,
      "၊": 463,
      "ᄀ": 464,
      "ᄂ": 465,
      "ᄅ": 466,
      "ᄆ": 467,
      "ᄇ": 468,
      "ᄋ": 469,
      "ᄏ": 470,
      "ᄒ": 471,
      "ᅮ": 472,
      "ᅲ": 473,
      "ᅳ": 474,
      "ᅵ": 475,
      "ᆞ": 476,
      "ᐉ": 477,
      "᠋": 478,
      "ᠠ": 479,
      "ᠡ": 480,
      "ᠢ": 481,
      "ᠤ": 482,
      "ᠥ": 483,
      "ᠦ": 484,
      "ᠨ": 485,
      "ᠫ": 486,
      "ᠬ": 487,
      "ᠭ": 488,
      "ᠮ": 489,
      "ᠯ": 490,
      "ᠰ": 491,
      "ᠱ": 492,
      "ᠳ": 493,
      "ᠴ": 494,
      "ᠵ": 495,
      "ᠶ": 496,
      "ᠷ": 497,
      "ᠹ": 498,
      "ᠻ": 499,
      "ᠼ": 500,
      "᭄": 501,
      "ᴀ": 502,
      "ᴄ": 503,
      "ᴇ": 504,
      "ᴍ": 505,
      "ᴜ": 506,
      "ᴠ": 507,
      "ᵯ": 508,
      "ᵴ": 509,
      "ḍ": 510,
      "ḥ": 511,
      "ṃ": 512,
      "ṅ": 513,
      "ṇ": 514,
      "ṭ": 515,
      "ẙ": 516,
      "ầ": 517,
      "ắ": 518,
      "ằ": 519,
      "ế": 520,
      "ễ": 521,
      "ớ": 522,
      "ờ": 523,
      "ἰ": 524,
      "‐": 525,
      "―": 526,
      "‖": 527,
      "†": 528,
      "‡": 529,
      "•": 530,
      "‣": 531,
      "‰": 532,
      "′": 533,
      "‹": 534,
      "›": 535,
      "※": 536,
      "⁄": 537,
      "₩": 538,
      "₪": 539,
      "€": 540,
      "₮": 541,
      "₹": 542,
      "₽": 543,
      "⃣": 544,
      "←": 545,
      "↑": 546,
      "→": 547,
      "↓": 548,
      "↔": 549,
      "↖": 550,
      "↙": 551,
      "↳": 552,
      "⇒": 553,
      "⇨": 554,
      "∂": 555,
      "∆": 556,
      "∈": 557,
      "−": 558,
      "∙": 559,
      "√": 560,
      "∞": 561,
      "≈": 562,
      "≠": 563,
      "≤": 564,
      "≥": 565,
      "≫": 566,
      "⋆": 567,
      "⋯": 568,
      "⌚": 569,
      "⎪": 570,
      "⏱": 571,
      "│": 572,
      "╒": 573,
      "╘": 574,
      "╟": 575,
      "╢": 576,
      "█": 577,
      "▍": 578,
      "■": 579,
      "□": 580,
      "▨": 581,
      "▪": 582,
      "▲": 583,
      "▶": 584,
      "►": 585,
      "▼": 586,
      "◆": 587,
      "◇": 588,
      "◊": 589,
      "○": 590,
      "●": 591,
      "◦": 592,
      "☀": 593,
      "☂": 594,
      "★": 595,
      "☆": 596,
      "☈": 597,
      "☎": 598,
      "☑": 599,
      "☔": 600,
      "☕": 601,
      "☘": 602,
      "☛": 603,
      "☝": 604,
      "☞": 605,
      "☤": 606,
      "☮": 607,
      "☹": 608,
      "☺": 609,
      "☻": 610,
      "♀": 611,
      "♂": 612,
      "♏": 613,
      "♔": 614,
      "♚": 615,
      "♛": 616,
      "♠": 617,
      "♡": 618,
      "♣": 619,
      "♥": 620,
      "♦": 621,
      "♪": 622,
      "♫": 623,
      "♻": 624,
      "⚃": 625,
      "⚕": 626,
      "⚙": 627,
      "⚠": 628,
      "⚡": 629,
      "⚫": 630,
      "⚽": 631,
      "✅": 632,
      "✈": 633,
      "✌": 634,
      "✍": 635,
      "✓": 636,
      "✔": 637,
      "✞": 638,
      "✨": 639,
      "✯": 640,
      "✿": 641,
      "❀": 642,
      "❂": 643,
      "❃": 644,
      "❄": 645,
      "❏": 646,
      "❖": 647,
      "❗": 648,
      "❤": 649,
      "❷": 650,
      "❹": 651,
      "❼": 652,
      "➜": 653,
      "➡": 654,
      "➢": 655,
      "➥": 656,
      "➳": 657,
      "⠀": 658,
      "⦁": 659,
      "⭐": 660,
      "⿱": 661,
      "、": 662,
      "。": 663,
      "《": 664,
      "》": 665,
      "「": 666,
      "」": 667,
      "『": 668,
      "』": 669,
      "【": 670,
      "】": 671,
      "〓": 672,
      "あ": 673,
      "い": 674,
      "う": 675,
      "え": 676,
      "お": 677,
      "か": 678,
      "が": 679,
      "き": 680,
      "ぎ": 681,
      "く": 682,
      "ぐ": 683,
      "け": 684,
      "げ": 685,
      "こ": 686,
      "ご": 687,
      "さ": 688,
      "ざ": 689,
      "し": 690,
      "じ": 691,
      "す": 692,
      "せ": 693,
      "そ": 694,
      "た": 695,
      "だ": 696,
      "ち": 697,
      "っ": 698,
      "つ": 699,
      "て": 700,
      "で": 701,
      "と": 702,
      "ど": 703,
      "な": 704,
      "に": 705,
      "ぬ": 706,
      "の": 707,
      "は": 708,
      "ば": 709,
      "ひ": 710,
      "ぶ": 711,
      "べ": 712,
      "ほ": 713,
      "ま": 714,
      "み": 715,
      "め": 716,
      "も": 717,
      "ゃ": 718,
      "や": 719,
      "ゅ": 720,
      "ゆ": 721,
      "ょ": 722,
      "よ": 723,
      "ら": 724,
      "り": 725,
      "る": 726,
      "れ": 727,
      "ろ": 728,
      "わ": 729,
      "を": 730,
      "ん": 731,
      "ィ": 732,
      "イ": 733,
      "ウ": 734,
      "カ": 735,
      "ガ": 736,
      "キ": 737,
      "ギ": 738,
      "ク": 739,
      "ゲ": 740,
      "コ": 741,
      "ゴ": 742,
      "サ": 743,
      "シ": 744,
      "ジ": 745,
      "セ": 746,
      "ゼ": 747,
      "ソ": 748,
      "タ": 749,
      "ダ": 750,
      "チ": 751,
      "ツ": 752,
      "ヅ": 753,
      "デ": 754,
      "ド": 755,
      "ナ": 756,
      "ニ": 757,
      "ハ": 758,
      "バ": 759,
      "ヒ": 760,
      "ビ": 761,
      "フ": 762,
      "ブ": 763,
      "ベ": 764,
      "ペ": 765,
      "マ": 766,
      "ミ": 767,
      "ム": 768,
      "モ": 769,
      "ャ": 770,
      "ョ": 771,
      "ラ": 772,
      "リ": 773,
      "ル": 774,
      "ン": 775,
      "・": 776,
      "ー": 777,
      "ㄍ": 778,
      "ㄎ": 779,
      "ㄟ": 780,
      "ㄨ": 781,
      "一": 782,
      "七": 783,
      "万": 784,
      "三": 785,
      "上": 786,
      "下": 787,
      "不": 788,
      "世": 789,
      "业": 790,
      "个": 791,
      "中": 792,
      "么": 793,
      "乐": 794,
      "也": 795,
      "二": 796,
      "云": 797,
      "互": 798,
      "交": 799,
      "京": 800,
      "人": 801,
      "今": 802,
      "介": 803,
      "仔": 804,
      "他": 805,
      "付": 806,
      "代": 807,
      "们": 808,
      "件": 809,
      "任": 810,
      "企": 811,
      "伊": 812,
      "休": 813,
      "众": 814,
      "会": 815,
      "位": 816,
      "住": 817,
      "何": 818,
      "作": 819,
      "你": 820,
      "使": 821,
      "便": 822,
      "係": 823,
      "保": 824,
      "信": 825,
      "修": 826,
      "俺": 827,
      "們": 828,
      "停": 829,
      "健": 830,
      "側": 831,
      "僕": 832,
      "優": 833,
      "儿": 834,
      "元": 835,
      "光": 836,
      "克": 837,
      "免": 838,
      "八": 839,
      "公": 840,
      "内": 841,
      "册": 842,
      "再": 843,
      "冯": 844,
      "出": 845,
      "分": 846,
      "划": 847,
      "別": 848,
      "前": 849,
      "势": 850,
      "動": 851,
      "勖": 852,
      "務": 853,
      "勧": 854,
      "包": 855,
      "化": 856,
      "北": 857,
      "医": 858,
      "十": 859,
      "午": 860,
      "华": 861,
      "南": 862,
      "博": 863,
      "卡": 864,
      "参": 865,
      "古": 866,
      "叫": 867,
      "召": 868,
      "台": 869,
      "号": 870,
      "合": 871,
      "名": 872,
      "向": 873,
      "吗": 874,
      "君": 875,
      "员": 876,
      "周": 877,
      "味": 878,
      "命": 879,
      "和": 880,
      "品": 881,
      "唐": 882,
      "售": 883,
      "唱": 884,
      "商": 885,
      "問": 886,
      "喵": 887,
      "器": 888,
      "回": 889,
      "団": 890,
      "図": 891,
      "国": 892,
      "图": 893,
      "國": 894,
      "圖": 895,
      "地": 896,
      "址": 897,
      "型": 898,
      "基": 899,
      "場": 900,
      "塑": 901,
      "塚": 902,
      "士": 903,
      "声": 904,
      "夂": 905,
      "変": 906,
      "夕": 907,
      "夜": 908,
      "夢": 909,
      "天": 910,
      "太": 911,
      "奇": 912,
      "奋": 913,
      "好": 914,
      "妹": 915,
      "委": 916,
      "姿": 917,
      "娱": 918,
      "子": 919,
      "字": 920,
      "学": 921,
      "宅": 922,
      "安": 923,
      "宗": 924,
      "定": 925,
      "室": 926,
      "宽": 927,
      "密": 928,
      "导": 929,
      "小": 930,
      "少": 931,
      "局": 932,
      "展": 933,
      "属": 934,
      "履": 935,
      "山": 936,
      "岩": 937,
      "峮": 938,
      "州": 939,
      "巡": 940,
      "巣": 941,
      "工": 942,
      "帝": 943,
      "带": 944,
      "帮": 945,
      "帯": 946,
      "平": 947,
      "年": 948,
      "庆": 949,
      "府": 950,
      "康": 951,
      "建": 952,
      "开": 953,
      "异": 954,
      "弦": 955,
      "当": 956,
      "录": 957,
      "形": 958,
      "彩": 959,
      "後": 960,
      "御": 961,
      "心": 962,
      "必": 963,
      "志": 964,
      "忘": 965,
      "忙": 966,
      "快": 967,
      "怎": 968,
      "恩": 969,
      "悔": 970,
      "您": 971,
      "悲": 972,
      "情": 973,
      "意": 974,
      "愛": 975,
      "憎": 976,
      "我": 977,
      "戒": 978,
      "戰": 979,
      "戸": 980,
      "手": 981,
      "打": 982,
      "払": 983,
      "抢": 984,
      "拶": 985,
      "指": 986,
      "挨": 987,
      "探": 988,
      "掲": 989,
      "提": 990,
      "改": 991,
      "故": 992,
      "文": 993,
      "斗": 994,
      "斥": 995,
      "斯": 996,
      "新": 997,
      "族": 998,
      "日": 999,
      "早": 1000,
      "时": 1001,
      "昌": 1002,
      "星": 1003,
      "是": 1004,
      "昴": 1005,
      "時": 1006,
      "普": 1007,
      "暲": 1008,
      "曜": 1009,
      "曲": 1010,
      "更": 1011,
      "書": 1012,
      "會": 1013,
      "月": 1014,
      "有": 1015,
      "望": 1016,
      "朝": 1017,
      "本": 1018,
      "机": 1019,
      "李": 1020,
      "村": 1021,
      "松": 1022,
      "林": 1023,
      "査": 1024,
      "株": 1025,
      "格": 1026,
      "椰": 1027,
      "楫": 1028,
      "業": 1029,
      "楽": 1030,
      "概": 1031,
      "構": 1032,
      "横": 1033,
      "機": 1034,
      "歌": 1035,
      "止": 1036,
      "歳": 1037,
      "残": 1038,
      "毛": 1039,
      "民": 1040,
      "气": 1041,
      "気": 1042,
      "水": 1043,
      "永": 1044,
      "江": 1045,
      "沖": 1046,
      "没": 1047,
      "河": 1048,
      "治": 1049,
      "沿": 1050,
      "法": 1051,
      "注": 1052,
      "泰": 1053,
      "洛": 1054,
      "洞": 1055,
      "流": 1056,
      "浙": 1057,
      "浜": 1058,
      "淮": 1059,
      "済": 1060,
      "渡": 1061,
      "湖": 1062,
      "漏": 1063,
      "演": 1064,
      "点": 1065,
      "照": 1066,
      "燼": 1067,
      "版": 1068,
      "牛": 1069,
      "特": 1070,
      "玉": 1071,
      "现": 1072,
      "理": 1073,
      "甘": 1074,
      "生": 1075,
      "用": 1076,
      "田": 1077,
      "町": 1078,
      "画": 1079,
      "留": 1080,
      "発": 1081,
      "登": 1082,
      "百": 1083,
      "的": 1084,
      "皇": 1085,
      "盘": 1086,
      "眉": 1087,
      "码": 1088,
      "破": 1089,
      "礦": 1090,
      "社": 1091,
      "祉": 1092,
      "祐": 1093,
      "神": 1094,
      "福": 1095,
      "离": 1096,
      "私": 1097,
      "秘": 1098,
      "称": 1099,
      "稳": 1100,
      "站": 1101,
      "等": 1102,
      "简": 1103,
      "管": 1104,
      "米": 1105,
      "糞": 1106,
      "紀": 1107,
      "紇": 1108,
      "経": 1109,
      "給": 1110,
      "線": 1111,
      "红": 1112,
      "线": 1113,
      "网": 1114,
      "美": 1115,
      "翻": 1116,
      "考": 1117,
      "者": 1118,
      "聲": 1119,
      "胡": 1120,
      "能": 1121,
      "腕": 1122,
      "臨": 1123,
      "自": 1124,
      "舞": 1125,
      "航": 1126,
      "良": 1127,
      "華": 1128,
      "葵": 1129,
      "蒙": 1130,
      "藏": 1131,
      "藤": 1132,
      "蘭": 1133,
      "蛋": 1134,
      "蠟": 1135,
      "行": 1136,
      "衛": 1137,
      "表": 1138,
      "袖": 1139,
      "裏": 1140,
      "製": 1141,
      "西": 1142,
      "要": 1143,
      "見": 1144,
      "視": 1145,
      "親": 1146,
      "见": 1147,
      "解": 1148,
      "言": 1149,
      "証": 1150,
      "話": 1151,
      "誉": 1152,
      "誌": 1153,
      "語": 1154,
      "説": 1155,
      "諸": 1156,
      "識": 1157,
      "讃": 1158,
      "计": 1159,
      "让": 1160,
      "记": 1161,
      "译": 1162,
      "语": 1163,
      "请": 1164,
      "读": 1165,
      "课": 1166,
      "豚": 1167,
      "象": 1168,
      "貸": 1169,
      "費": 1170,
      "賃": 1171,
      "資": 1172,
      "賞": 1173,
      "责": 1174,
      "趋": 1175,
      "路": 1176,
      "身": 1177,
      "車": 1178,
      "軒": 1179,
      "載": 1180,
      "輝": 1181,
      "软": 1182,
      "载": 1183,
      "辉": 1184,
      "输": 1185,
      "辺": 1186,
      "込": 1187,
      "达": 1188,
      "运": 1189,
      "近": 1190,
      "返": 1191,
      "还": 1192,
      "迴": 1193,
      "迹": 1194,
      "送": 1195,
      "通": 1196,
      "逢": 1197,
      "連": 1198,
      "進": 1199,
      "過": 1200,
      "達": 1201,
      "選": 1202,
      "郑": 1203,
      "部": 1204,
      "都": 1205,
      "配": 1206,
      "里": 1207,
      "重": 1208,
      "金": 1209,
      "鈴": 1210,
      "鑑": 1211,
      "钱": 1212,
      "银": 1213,
      "镇": 1214,
      "长": 1215,
      "間": 1216,
      "関": 1217,
      "门": 1218,
      "问": 1219,
      "间": 1220,
      "阒": 1221,
      "际": 1222,
      "陝": 1223,
      "险": 1224,
      "陳": 1225,
      "随": 1226,
      "際": 1227,
      "雑": 1228,
      "電": 1229,
      "面": 1230,
      "革": 1231,
      "韬": 1232,
      "音": 1233,
      "響": 1234,
      "題": 1235,
      "類": 1236,
      "颚": 1237,
      "駅": 1238,
      "马": 1239,
      "高": 1240,
      "鵬": 1241,
      "麦": 1242,
      "黄": 1243,
      "黑": 1244,
      "龙": 1245,
      "龶": 1246,
      "꧁": 1247,
      "꧂": 1248,
      "가": 1249,
      "갑": 1250,
      "갤": 1251,
      "거": 1252,
      "걸": 1253,
      "것": 1254,
      "게": 1255,
      "겠": 1256,
      "격": 1257,
      "경": 1258,
      "계": 1259,
      "고": 1260,
      "골": 1261,
      "공": 1262,
      "과": 1263,
      "관": 1264,
      "교": 1265,
      "구": 1266,
      "국": 1267,
      "굴": 1268,
      "권": 1269,
      "규": 1270,
      "긋": 1271,
      "기": 1272,
      "긱": 1273,
      "김": 1274,
      "끼": 1275,
      "나": 1276,
      "남": 1277,
      "내": 1278,
      "너": 1279,
      "노": 1280,
      "뉴": 1281,
      "는": 1282,
      "니": 1283,
      "다": 1284,
      "단": 1285,
      "달": 1286,
      "답": 1287,
      "대": 1288,
      "더": 1289,
      "도": 1290,
      "돈": 1291,
      "동": 1292,
      "둥": 1293,
      "딩": 1294,
      "떻": 1295,
      "또": 1296,
      "뚜": 1297,
      "뚝": 1298,
      "라": 1299,
      "랑": 1300,
      "래": 1301,
      "랫": 1302,
      "러": 1303,
      "렘": 1304,
      "려": 1305,
      "로": 1306,
      "루": 1307,
      "룬": 1308,
      "룰": 1309,
      "류": 1310,
      "르": 1311,
      "를": 1312,
      "리": 1313,
      "린": 1314,
      "림": 1315,
      "릿": 1316,
      "마": 1317,
      "만": 1318,
      "말": 1319,
      "매": 1320,
      "먹": 1321,
      "메": 1322,
      "며": 1323,
      "명": 1324,
      "모": 1325,
      "몽": 1326,
      "무": 1327,
      "문": 1328,
      "뭘": 1329,
      "뮤": 1330,
      "미": 1331,
      "민": 1332,
      "바": 1333,
      "반": 1334,
      "밥": 1335,
      "배": 1336,
      "백": 1337,
      "밴": 1338,
      "버": 1339,
      "번": 1340,
      "법": 1341,
      "베": 1342,
      "벼": 1343,
      "변": 1344,
      "병": 1345,
      "보": 1346,
      "부": 1347,
      "불": 1348,
      "뷔": 1349,
      "브": 1350,
      "븐": 1351,
      "블": 1352,
      "비": 1353,
      "빈": 1354,
      "뻐": 1355,
      "뿌": 1356,
      "사": 1357,
      "상": 1358,
      "새": 1359,
      "생": 1360,
      "서": 1361,
      "석": 1362,
      "선": 1363,
      "설": 1364,
      "섭": 1365,
      "성": 1366,
      "세": 1367,
      "송": 1368,
      "수": 1369,
      "숙": 1370,
      "스": 1371,
      "슨": 1372,
      "습": 1373,
      "승": 1374,
      "시": 1375,
      "식": 1376,
      "신": 1377,
      "실": 1378,
      "싼": 1379,
      "쌍": 1380,
      "아": 1381,
      "안": 1382,
      "알": 1383,
      "야": 1384,
      "양": 1385,
      "어": 1386,
      "업": 1387,
      "없": 1388,
      "에": 1389,
      "엘": 1390,
      "엥": 1391,
      "여": 1392,
      "역": 1393,
      "연": 1394,
      "열": 1395,
      "영": 1396,
      "예": 1397,
      "오": 1398,
      "올": 1399,
      "옷": 1400,
      "와": 1401,
      "왔": 1402,
      "외": 1403,
      "요": 1404,
      "용": 1405,
      "우": 1406,
      "울": 1407,
      "웆": 1408,
      "워": 1409,
      "원": 1410,
      "월": 1411,
      "유": 1412,
      "윤": 1413,
      "율": 1414,
      "으": 1415,
      "은": 1416,
      "을": 1417,
      "응": 1418,
      "의": 1419,
      "이": 1420,
      "인": 1421,
      "일": 1422,
      "있": 1423,
      "자": 1424,
      "잘": 1425,
      "장": 1426,
      "재": 1427,
      "저": 1428,
      "적": 1429,
      "전": 1430,
      "정": 1431,
      "제": 1432,
      "조": 1433,
      "죄": 1434,
      "죻": 1435,
      "주": 1436,
      "즈": 1437,
      "지": 1438,
      "직": 1439,
      "진": 1440,
      "짓": 1441,
      "짱": 1442,
      "찌": 1443,
      "찡": 1444,
      "차": 1445,
      "창": 1446,
      "찾": 1447,
      "채": 1448,
      "청": 1449,
      "체": 1450,
      "초": 1451,
      "최": 1452,
      "침": 1453,
      "칩": 1454,
      "칫": 1455,
      "카": 1456,
      "커": 1457,
      "케": 1458,
      "코": 1459,
      "콕": 1460,
      "콧": 1461,
      "크": 1462,
      "키": 1463,
      "탄": 1464,
      "탓": 1465,
      "태": 1466,
      "탠": 1467,
      "터": 1468,
      "토": 1469,
      "통": 1470,
      "튜": 1471,
      "트": 1472,
      "티": 1473,
      "틴": 1474,
      "팅": 1475,
      "팝": 1476,
      "퍼": 1477,
      "펄": 1478,
      "평": 1479,
      "폰": 1480,
      "푸": 1481,
      "플": 1482,
      "픽": 1483,
      "하": 1484,
      "학": 1485,
      "한": 1486,
      "함": 1487,
      "항": 1488,
      "해": 1489,
      "햄": 1490,
      "혀": 1491,
      "현": 1492,
      "혜": 1493,
      "호": 1494,
      "홈": 1495,
      "홍": 1496,
      "화": 1497,
      "횊": 1498,
      "회": 1499,
      "횒": 1500,
      "횗": 1501,
      "횜": 1502,
      "후": 1503,
      "훈": 1504,
      "흐": 1505,
      "흥": 1506,
      "희": 1507,
      "︎": 1508,
      "️": 1509,
      "￼": 1510,
      "�": 1511,
      "𖢘": 1512,
      "🆕": 1513,
      "🇫": 1514,
      "🇰": 1515,
      "🇲": 1516,
      "🇳": 1517,
      "🇷": 1518,
      "🇸": 1519,
      "🇺": 1520,
      "🇽": 1521,
      "🌃": 1522,
      "🌄": 1523,
      "🌅": 1524,
      "🌈": 1525,
      "🌍": 1526,
      "🌐": 1527,
      "🌙": 1528,
      "🌟": 1529,
      "🌡": 1530,
      "🌱": 1531,
      "🌳": 1532,
      "🌸": 1533,
      "🌻": 1534,
      "🍀": 1535,
      "🍁": 1536,
      "🍇": 1537,
      "🍑": 1538,
      "🍞": 1539,
      "🍩": 1540,
      "🍯": 1541,
      "🍰": 1542,
      "🍱": 1543,
      "🍷": 1544,
      "🍹": 1545,
      "🍽": 1546,
      "🍾": 1547,
      "🎀": 1548,
      "🎁": 1549,
      "🎄": 1550,
      "🎧": 1551,
      "🎬": 1552,
      "🎯": 1553,
      "🎶": 1554,
      "🏆": 1555,
      "🏋": 1556,
      "🏠": 1557,
      "🏣": 1558,
      "🏦": 1559,
      "🏻": 1560,
      "🏼": 1561,
      "👀": 1562,
      "👉": 1563,
      "👍": 1564,
      "👎": 1565,
      "👏": 1566,
      "👐": 1567,
      "👑": 1568,
      "👦": 1569,
      "👧": 1570,
      "👨": 1571,
      "👩": 1572,
      "👷": 1573,
      "👽": 1574,
      "💀": 1575,
      "💁": 1576,
      "💃": 1577,
      "💅": 1578,
      "💉": 1579,
      "💋": 1580,
      "💎": 1581,
      "💐": 1582,
      "💔": 1583,
      "💕": 1584,
      "💙": 1585,
      "💚": 1586,
      "💜": 1587,
      "💝": 1588,
      "💡": 1589,
      "💢": 1590,
      "💥": 1591,
      "💩": 1592,
      "💪": 1593,
      "💫": 1594,
      "💯": 1595,
      "💰": 1596,
      "💵": 1597,
      "💸": 1598,
      "💻": 1599,
      "💼": 1600,
      "📁": 1601,
      "📅": 1602,
      "📌": 1603,
      "📍": 1604,
      "📎": 1605,
      "📕": 1606,
      "📖": 1607,
      "📞": 1608,
      "📣": 1609,
      "📦": 1610,
      "📱": 1611,
      "📲": 1612,
      "📷": 1613,
      "🔄": 1614,
      "🔅": 1615,
      "🔊": 1616,
      "🔌": 1617,
      "🔑": 1618,
      "🔥": 1619,
      "🔬": 1620,
      "🔰": 1621,
      "🔴": 1622,
      "🔵": 1623,
      "🔶": 1624,
      "🔸": 1625,
      "🔹": 1626,
      "🕑": 1627,
      "🕘": 1628,
      "🕯": 1629,
      "🖐": 1630,
      "🖤": 1631,
      "🗃": 1632,
      "🗓": 1633,
      "😀": 1634,
      "😁": 1635,
      "😂": 1636,
      "😃": 1637,
      "😄": 1638,
      "😅": 1639,
      "😆": 1640,
      "😇": 1641,
      "😈": 1642,
      "😉": 1643,
      "😊": 1644,
      "😋": 1645,
      "😍": 1646,
      "😎": 1647,
      "😐": 1648,
      "😑": 1649,
      "😓": 1650,
      "😔": 1651,
      "😘": 1652,
      "😛": 1653,
      "😜": 1654,
      "😝": 1655,
      "😡": 1656,
      "😢": 1657,
      "😥": 1658,
      "😦": 1659,
      "😩": 1660,
      "😫": 1661,
      "😭": 1662,
      "😮": 1663,
      "😰": 1664,
      "😱": 1665,
      "😲": 1666,
      "😶": 1667,
      "😷": 1668,
      "🙁": 1669,
      "🙂": 1670,
      "🙃": 1671,
      "🙆": 1672,
      "🙋": 1673,
      "🙌": 1674,
      "🙎": 1675,
      "🙏": 1676,
      "🚀": 1677,
      "🚗": 1678,
      "🚘": 1679,
      "🚩": 1680,
      "🚫": 1681,
      "🛍": 1682,
      "🛑": 1683,
      "🛒": 1684,
      "🛡": 1685,
      "🛫": 1686,
      "🤍": 1687,
      "🤑": 1688,
      "🤓": 1689,
      "🤔": 1690,
      "🤗": 1691,
      "🤘": 1692,
      "🤟": 1693,
      "🤡": 1694,
      "🤣": 1695,
      "🤩": 1696,
      "🤪": 1697,
      "🤫": 1698,
      "🤮": 1699,
      "🥄": 1700,
      "🥇": 1701,
      "🥰": 1702,
      "🥳": 1703,
      "🥺": 1704,
      "🦉": 1705,
      "🦊": 1706,
      "🦋": 1707,
      "🦸": 1708,
      "🧤": 1709,
      "🧨": 1710,
      "🧼": 1711,
      "##а": 1712,
      "##р": 1713,
      "##м": 1714,
      "##х": 1715,
      "##н": 1716,
      "##е": 1717,
      "##к": 1718,
      "##э": 1719,
      "##и": 1720,
      "##т": 1721,
      "##у": 1722,
      "##л": 1723,
      "##ь": 1724,
      "##д": 1725,
      "##с": 1726,
      "##є": 1727,
      "##й": 1728,
      "##u": 1729,
      "##a": 1730,
      "##d": 1731,
      "##g": 1732,
      "##n": 1733,
      "##i": 1734,
      "##o": 1735,
      "##г": 1736,
      "##ц": 1737,
      "##в": 1738,
      "##ч": 1739,
      "##v": 1740,
      "##ж": 1741,
      "##о": 1742,
      "##2": 1743,
      "##4": 1744,
      "##ю": 1745,
      "##б": 1746,
      "##з": 1747,
      "##ү": 1748,
      "##9": 1749,
      "##0": 1750,
      "##ө": 1751,
      "##ы": 1752,
      "##6": 1753,
      "##1": 1754,
      "##8": 1755,
      "##k": 1756,
      "##e": 1757,
      "##ш": 1758,
      "##l": 1759,
      "##f": 1760,
      "##я": 1761,
      "##щ": 1762,
      "##7": 1763,
      "##b": 1764,
      "##п": 1765,
      "##s": 1766,
      "##t": 1767,
      "##r": 1768,
      "##*": 1769,
      "##m": 1770,
      "##c": 1771,
      "##5": 1772,
      "##ё": 1773,
      "##ѳ": 1774,
      "##h": 1775,
      "##.": 1776,
      "##?": 1777,
      "##ë": 1778,
      "##î": 1779,
      "##ã": 1780,
      "##ф": 1781,
      "##y": 1782,
      "##p": 1783,
      "##ї": 1784,
      "##j": 1785,
      "##ا": 1786,
      "##م": 1787,
      "##ع": 1788,
      "##3": 1789,
      "##ü": 1790,
      "##ş": 1791,
      "##x": 1792,
      "##q": 1793,
      "##/": 1794,
      "##z": 1795,
      "##ъ": 1796,
      "##ң": 1797,
      "##ҕ": 1798,
      "##ø": 1799,
      "##_": 1800,
      "##à": 1801,
      "##ế": 1802,
      "##\"": 1803,
      "##:": 1804,
      "##w": 1805,
      "##́": 1806,
      "##း": 1807,
      "##回": 1808,
      "##ر": 1809,
      "##ي": 1810,
      "##â": 1811,
      "##ä": 1812,
      "##ন": 1813,
      "##ু": 1814,
      "##ব": 1815,
      "##া": 1816,
      "##দ": 1817,
      "##西": 1818,
      "##路": 1819,
      "##)": 1820,
      "##-": 1821,
      "##š": 1822,
      "##💁": 1823,
      "##ó": 1824,
      "##í": 1825,
      "##ñ": 1826,
      "##і": 1827,
      "##便": 1828,
      "##り": 1829,
      "##💃": 1830,
      "##!": 1831,
      "##言": 1832,
      "##え": 1833,
      "##な": 1834,
      "##い": 1835,
      "##朝": 1836,
      "##も": 1837,
      "##>": 1838,
      "##<": 1839,
      "##ҥ": 1840,
      "##译": 1841,
      "##é": 1842,
      "##,": 1843,
      "##子": 1844,
      "##的": 1845,
      "##小": 1846,
      "##画": 1847,
      "##册": 1848,
      "##ђ": 1849,
      "##+": 1850,
      "##•": 1851,
      "##ń": 1852,
      "##˗": 1853,
      "##ґ": 1854,
      "##ᠳ": 1855,
      "##ᠡ": 1856,
      "##ᠬ": 1857,
      "##ᠦ": 1858,
      "###": 1859,
      "##ý": 1860,
      "##、": 1861,
      "##ə": 1862,
      "##し": 1863,
      "##ご": 1864,
      "##サ": 1865,
      "##ぶ": 1866,
      "##һ": 1867,
      "##ょ": 1868,
      "##う": 1869,
      "##ひ": 1870,
      "##ん": 1871,
      "##қ": 1872,
      "##ѐ": 1873,
      "##💥": 1874,
      "##[": 1875,
      "##ð": 1876,
      "##나": 1877,
      "##서": 1878,
      "##つ": 1879,
      "##や": 1880,
      "##る": 1881,
      "##の": 1882,
      "##松": 1883,
      "##鵬": 1884,
      "##җ": 1885,
      "##十": 1886,
      "##一": 1887,
      "##💯": 1888,
      "##ö": 1889,
      "##ै": 1890,
      "##ं": 1891,
      "##क": 1892,
      "##세": 1893,
      "##요": 1894,
      "##😂": 1895,
      "##€": 1896,
      "##ل": 1897,
      "##أ": 1898,
      "##è": 1899,
      "##ɵ": 1900,
      "##후": 1901,
      "##수": 1902,
      "##庆": 1903,
      "##时": 1904,
      "##彩": 1905,
      "##个": 1906,
      "##位": 1907,
      "##必": 1908,
      "##中": 1909,
      "##õ": 1910,
      "##]": 1911,
      "##@": 1912,
      "##᠋": 1913,
      "##ᠤ": 1914,
      "##🛒": 1915,
      "##'": 1916,
      "##ì": 1917,
      "##♪": 1918,
      "##♫": 1919,
      "##概": 1920,
      "##要": 1921,
      "##ӣ": 1922,
      "##칫": 1923,
      "##ў": 1924,
      "##џ": 1925,
      "##ɪ": 1926,
      "##ˈ": 1927,
      "##ɐ": 1928,
      "##송": 1929,
      "##ә": 1930,
      "##월": 1931,
      "##의": 1932,
      "##😍": 1933,
      "##ĕ": 1934,
      "##̈": 1935,
      "##μ": 1936,
      "##~": 1937,
      "##;": 1938,
      "##=": 1939,
      "##ャ": 1940,
      "##ン": 1941,
      "##ペ": 1942,
      "##ー": 1943,
      "##れ": 1944,
      "##か": 1945,
      "##ら": 1946,
      "##時": 1947,
      "##間": 1948,
      "##🤟": 1949,
      "##软": 1950,
      "##件": 1951,
      "##皇": 1952,
      "##恩": 1953,
      "##娱": 1954,
      "##乐": 1955,
      "##ᄏ": 1956,
      "##ε": 1957,
      "##ṃ": 1958,
      "##🤩": 1959,
      "##ћ": 1960,
      "##}": 1961,
      "##อ": 1962,
      "##ง": 1963,
      "##ใ": 1964,
      "##ส": 1965,
      "##่": 1966,
      "##แ": 1967,
      "##ว": 1968,
      "##น": 1969,
      "##ต": 1970,
      "##า": 1971,
      "##±": 1972,
      "##田": 1973,
      "##く": 1974,
      "##み": 1975,
      "##ย": 1976,
      "##ภ": 1977,
      "##ค": 1978,
      "##は": 1979,
      "##ま": 1980,
      "##き": 1981,
      "##{": 1982,
      "##👐": 1983,
      "##ắ": 1984,
      "##ӈ": 1985,
      "##ç": 1986,
      "##^": 1987,
      "##₮": 1988,
      "##ҳ": 1989,
      "##ك": 1990,
      "##ة": 1991,
      "##տ": 1992,
      "##ք": 1993,
      "##ը": 1994,
      "##ѕ": 1995,
      "##際": 1996,
      "##経": 1997,
      "##済": 1998,
      "##学": 1999,
      "##部": 2000,
      "##😀": 2001,
      "##😁": 2002,
      "##ク": 2003,
      "##ニ": 2004,
      "##チ": 2005,
      "##ソ": 2006,
      "##ウ": 2007,
      "##悲": 2008,
      "##夢": 2009,
      "##を": 2010,
      "##見": 2011,
      "##て": 2012,
      "##민": 2013,
      "##권": 2014,
      "##ب": 2015,
      "##ن": 2016,
      "##行": 2017,
      "##æ": 2018,
      "##ұ": 2019,
      "##د": 2020,
      "##タ": 2021,
      "##卡": 2022,
      "##米": 2023,
      "##洛": 2024,
      "##س": 2025,
      "##と": 2026,
      "##ت": 2027,
      "##و": 2028,
      "##ی": 2029,
      "##خ": 2030,
      "##楽": 2031,
      "##鑑": 2032,
      "##賞": 2033,
      "##찌": 2034,
      "##매": 2035,
      "##를": 2036,
      "##≈": 2037,
      "##ќ": 2038,
      "##ه": 2039,
      "##に": 2040,
      "##ō": 2041,
      "##¬": 2042,
      "##&": 2043,
      "##이": 2044,
      "##(": 2045,
      "##で": 2046,
      "##よ": 2047,
      "##💙": 2048,
      "##❷": 2049,
      "##❹": 2050,
      "##❼": 2051,
      "##י": 2052,
      "##נ": 2053,
      "##ה": 2054,
      "##א": 2055,
      "##ר": 2056,
      "##ט": 2057,
      "##🖤": 2058,
      "##安": 2059,
      "##门": 2060,
      "##让": 2061,
      "##我": 2062,
      "##们": 2063,
      "##记": 2064,
      "##住": 2065,
      "##っ": 2066,
      "##토": 2067,
      "##끼": 2068,
      "##안": 2069,
      "##비": 2070,
      "##회": 2071,
      "##로": 2072,
      "##제": 2073,
      "##한": 2074,
      "##ḥ": 2075,
      "##إ": 2076,
      "##영": 2077,
      "##규": 2078,
      "##ā": 2079,
      "##ほ": 2080,
      "##니": 2081,
      "##통": 2082,
      "##🤪": 2083,
      "##√": 2084,
      "##ê": 2085,
      "##á": 2086,
      "##와": 2087,
      "##ω": 2088,
      "##τ": 2089,
      "##ο": 2090,
      "##γ": 2091,
      "##ρ": 2092,
      "##α": 2093,
      "##φ": 2094,
      "##ί": 2095,
      "##야": 2096,
      "##르": 2097,
      "##태": 2098,
      "##ă": 2099,
      "##故": 2100,
      "##キ": 2101,
      "##ミ": 2102,
      "##出": 2103,
      "##逢": 2104,
      "##た": 2105,
      "##だ": 2106,
      "##ろ": 2107,
      "##華": 2108,
      "##商": 2109,
      "##場": 2110,
      "##보": 2111,
      "##ū": 2112,
      "##̇": 2113,
      "##엥": 2114,
      "##🇳": 2115,
      "##մ": 2116,
      "##뮤": 2117,
      "##티": 2118,
      "##적": 2119,
      "##☘": 2120,
      "##黄": 2121,
      "##韬": 2122,
      "##̄": 2123,
      "##指": 2124,
      "##리": 2125,
      "##긱": 2126,
      "##라": 2127,
      "##시": 2128,
      "##며": 2129,
      "##$": 2130,
      "##⠀": 2131,
      "##̀": 2132,
      "##ۇ": 2133,
      "##ى": 2134,
      "##ە": 2135,
      "##●": 2136,
      "##😇": 2137,
      "##們": 2138,
      "##江": 2139,
      "##ú": 2140,
      "##ば": 2141,
      "##昴": 2142,
      "##♥": 2143,
      "##召": 2144,
      "##上": 2145,
      "##が": 2146,
      "##さ": 2147,
      "##類": 2148,
      "##残": 2149,
      "##′": 2150,
      "##ı": 2151,
      "##λ": 2152,
      "##ι": 2153,
      "##ώ": 2154,
      "##○": 2155,
      "##せ": 2156,
      "##ô": 2157,
      "##▼": 2158,
      "##저": 2159,
      "##사": 2160,
      "##트": 2161,
      "##👏": 2162,
      "##ò": 2163,
      "##題": 2164,
      "##意": 2165,
      "##識": 2166,
      "##开": 2167,
      "##机": 2168,
      "##号": 2169,
      "##介": 2170,
      "##わ": 2171,
      "##天": 2172,
      "##世": 2173,
      "##紀": 2174,
      "##お": 2175,
      "##け": 2176,
      "##モ": 2177,
      "##ゴ": 2178,
      "##ル": 2179,
      "##諸": 2180,
      "##族": 2181,
      "##文": 2182,
      "##字": 2183,
      "##改": 2184,
      "##革": 2185,
      "##聲": 2186,
      "##免": 2187,
      "##費": 2188,
      "##下": 2189,
      "##載": 2190,
      "##返": 2191,
      "##す": 2192,
      "##ᅲ": 2193,
      "##ē": 2194,
      "##☮": 2195,
      "##פ": 2196,
      "##ע": 2197,
      "##語": 2198,
      "##夜": 2199,
      "##止": 2200,
      "##め": 2201,
      "##정": 2202,
      "##부": 2203,
      "##👍": 2204,
      "##는": 2205,
      "##ᠷ": 2206,
      "##ᠨ": 2207,
      "##ᠢ": 2208,
      "##❀": 2209,
      "##線": 2210,
      "##電": 2211,
      "##話": 2212,
      "##機": 2213,
      "##채": 2214,
      "##린": 2215,
      "##😆": 2216,
      "##夕": 2217,
      "##़": 2218,
      "##र": 2219,
      "##ा": 2220,
      "##û": 2221,
      "##업": 2222,
      "##장": 2223,
      "##변": 2224,
      "##경": 2225,
      "##팝": 2226,
      "##계": 2227,
      "##올": 2228,
      "##림": 2229,
      "##픽": 2230,
      "##대": 2231,
      "##̷": 2232,
      "##ầ": 2233,
      "##係": 2234,
      "##역": 2235,
      "##ř": 2236,
      "##♚": 2237,
      "##命": 2238,
      "##ư": 2239,
      "##ớ": 2240,
      "##☤": 2241,
      "##形": 2242,
      "##包": 2243,
      "##ג": 2244,
      "##☈": 2245,
      "##\\": 2246,
      "##・": 2247,
      "##🤑": 2248,
      "##🇺": 2249,
      "##°": 2250,
      "##%": 2251,
      "##ᴇ": 2252,
      "##ɴ": 2253,
      "##変": 2254,
      "##ぬ": 2255,
      "##ち": 2256,
      "##早": 2257,
      "##南": 2258,
      "##品": 2259,
      "##연": 2260,
      "##ح": 2261,
      "##ف": 2262,
      "##叫": 2263,
      "##医": 2264,
      "##生": 2265,
      "##水": 2266,
      "##😜": 2267,
      "##≤": 2268,
      "##京": 2269,
      "##β": 2270,
      "##ี": 2271,
      "##ک": 2272,
      "##😢": 2273,
      "##😭": 2274,
      "##∞": 2275,
      "##仔": 2276,
      "##工": 2277,
      "##衛": 2278,
      "##星": 2279,
      "##打": 2280,
      "##げ": 2281,
      "##能": 2282,
      "##帮": 2283,
      "##忙": 2284,
      "##吗": 2285,
      "##元": 2286,
      "##云": 2287,
      "##務": 2288,
      "##局": 2289,
      "##提": 2290,
      "##書": 2291,
      "##슨": 2292,
      "##상": 2293,
      "##아": 2294,
      "##¿": 2295,
      "##連": 2296,
      "##ו": 2297,
      "##ל": 2298,
      "##ת": 2299,
      "##돈": 2300,
      "##ć": 2301,
      "##糞": 2302,
      "##노": 2303,
      "##胡": 2304,
      "##挨": 2305,
      "##拶": 2306,
      "##−": 2307,
      "##💅": 2308,
      "##इ": 2309,
      "##ए": 2310,
      "##조": 2311,
      "##🍇": 2312,
      "##🍞": 2313,
      "##🍑": 2314,
      "##ז": 2315,
      "##ӏ": 2316,
      "##☛": 2317,
      "##古": 2318,
      "##國": 2319,
      "##礦": 2320,
      "##山": 2321,
      "##展": 2322,
      "##會": 2323,
      "##ม": 2324,
      "##จ": 2325,
      "##미": 2326,
      "##🏻": 2327,
      "##🇽": 2328,
      "##情": 2329,
      "##味": 2330,
      "##儿": 2331,
      "##没": 2332,
      "##有": 2333,
      "##航": 2334,
      "##国": 2335,
      "##际": 2336,
      "##平": 2337,
      "##台": 2338,
      "##説": 2339,
      "##内": 2340,
      "##️": 2341,
      "##|": 2342,
      "##ј": 2343,
      "##🌙": 2344,
      "##💰": 2345,
      "##曲": 2346,
      "##名": 2347,
      "##称": 2348,
      "##📌": 2349,
      "##ě": 2350,
      "##计": 2351,
      "##划": 2352,
      "##稳": 2353,
      "##定": 2354,
      "##版": 2355,
      "##떻": 2356,
      "##게": 2357,
      "##带": 2358,
      "##🤗": 2359,
      "##🇸": 2360,
      "##声": 2361,
      "##ť": 2362,
      "##어": 2363,
      "##ո": 2364,
      "##ն": 2365,
      "##ղ": 2366,
      "##լ": 2367,
      "##ա": 2368,
      "##կ": 2369,
      "##夂": 2370,
      "##🙏": 2371,
      "##ӱ": 2372,
      "##δ": 2373,
      "##›": 2374,
      "##훈": 2375,
      "##ナ": 2376,
      "##ǐ": 2377,
      "##😱": 2378,
      "##斥": 2379,
      "##责": 2380,
      "##人": 2381,
      "##怎": 2382,
      "##么": 2383,
      "##心": 2384,
      "##そ": 2385,
      "##선": 2386,
      "##ざ": 2387,
      "##斯": 2388,
      "##泰": 2389,
      "##ฬ": 2390,
      "##เ": 2391,
      "##🏆": 2392,
      "##려": 2393,
      "##ゲ": 2394,
      "##あ": 2395,
      "##답": 2396,
      "##자": 2397,
      "##њ": 2398,
      "##ę": 2399,
      "##ś": 2400,
      "##은": 2401,
      "##僕": 2402,
      "##ど": 2403,
      "##ṅ": 2404,
      "##ī": 2405,
      "##ӓ": 2406,
      "##🛫": 2407,
      "##💵": 2408,
      "##π": 2409,
      "##ǿ": 2410,
      "##ᵯ": 2411,
      "##ɇ": 2412,
      "##ᵴ": 2413,
      "##ŧ": 2414,
      "##θ": 2415,
      "##ό": 2416,
      "##ᠠ": 2417,
      "##ᠮ": 2418,
      "##ᠫ": 2419,
      "##ᠴ": 2420,
      "##국": 2421,
      "##터": 2422,
      "##ï": 2423,
      "##내": 2424,
      "##지": 2425,
      "##웆": 2426,
      "##주": 2427,
      "##항": 2428,
      "##じ": 2429,
      "##ぐ": 2430,
      "##ѓ": 2431,
      "##企": 2432,
      "##业": 2433,
      "##社": 2434,
      "##会": 2435,
      "##任": 2436,
      "##コ": 2437,
      "##ビ": 2438,
      "##讃": 2439,
      "##歌": 2440,
      "##န": 2441,
      "##္": 2442,
      "##တ": 2443,
      "##လ": 2444,
      "##ေ": 2445,
      "##မ": 2446,
      "##ြ": 2447,
      "##ိ": 2448,
      "##ု": 2449,
      "##့": 2450,
      "##響": 2451,
      "##団": 2452,
      "##창": 2453,
      "##å": 2454,
      "##表": 2455,
      "##겠": 2456,
      "##长": 2457,
      "##븐": 2458,
      "##틴": 2459,
      "##问": 2460,
      "##᭄": 2461,
      "##ᴀ": 2462,
      "##ᴍ": 2463,
      "##ʀ": 2464,
      "##¤": 2465,
      "##ด": 2466,
      "##ս": 2467,
      "##趋": 2468,
      "##势": 2469,
      "##盘": 2470,
      "##点": 2471,
      "##唱": 2472,
      "##🚘": 2473,
      "##으": 2474,
      "##君": 2475,
      "##먹": 2476,
      "##을": 2477,
      "##👎": 2478,
      "##♏": 2479,
      "##⃣": 2480,
      "##탠": 2481,
      "##ش": 2482,
      "##身": 2483,
      "##∆": 2484,
      "##č": 2485,
      "##∂": 2486,
      "##카": 2487,
      "##콕": 2488,
      "##크": 2489,
      "##舞": 2490,
      "##浜": 2491,
      "##駅": 2492,
      "##マ": 2493,
      "##フ": 2494,
      "##ム": 2495,
      "##ド": 2496,
      "##憎": 2497,
      "##£": 2498,
      "##ṇ": 2499,
      "##ḍ": 2500,
      "##帝": 2501,
      "##イ": 2502,
      "##カ": 2503,
      "##湖": 2504,
      "##☞": 2505,
      "##ᠶ": 2506,
      "##ᠯ": 2507,
      "##ᠥ": 2508,
      "##ᠭ": 2509,
      "##ᠵ": 2510,
      "##루": 2511,
      "##짱": 2512,
      "##ゃ": 2513,
      "##ㄟ": 2514,
      "##ᅮ": 2515,
      "##룰": 2516,
      "##ᅵ": 2517,
      "##こ": 2518,
      "##自": 2519,
      "##信": 2520,
      "##œ": 2521,
      "##🦉": 2522,
      "##ė": 2523,
      "##팅": 2524,
      "##😫": 2525,
      "##ั": 2526,
      "##ก": 2527,
      "##ษ": 2528,
      "##์": 2529,
      "##近": 2530,
      "##戰": 2531,
      "##ج": 2532,
      "##재": 2533,
      "##ベ": 2534,
      "##울": 2535,
      "##도": 2536,
      "##관": 2537,
      "##̌": 2538,
      "##դ": 2539,
      "##ր": 2540,
      "##ւ": 2541,
      "##ṭ": 2542,
      "##交": 2543,
      "##通": 2544,
      "##运": 2545,
      "##输": 2546,
      "##ص": 2547,
      "##ط": 2548,
      "##혜": 2549,
      "##원": 2550,
      "##법": 2551,
      "##勧": 2552,
      "##성": 2553,
      "##ğ": 2554,
      "##「": 2555,
      "##전": 2556,
      "##藏": 2557,
      "##治": 2558,
      "##州": 2559,
      "##😎": 2560,
      "##غ": 2561,
      "##ÿ": 2562,
      "##リ": 2563,
      "##호": 2564,
      "##😋": 2565,
      "##🔥": 2566,
      "##유": 2567,
      "##빈": 2568,
      "##랑": 2569,
      "##해": 2570,
      "##둥": 2571,
      "##🤘": 2572,
      "##誌": 2573,
      "##玉": 2574,
      "##良": 2575,
      "##가": 2576,
      "##왔": 2577,
      "##다": 2578,
      "##込": 2579,
      "##証": 2580,
      "##面": 2581,
      "##🤔": 2582,
      "##😅": 2583,
      "##♛": 2584,
      "##ึ": 2585,
      "##ซ": 2586,
      "##้": 2587,
      "##ห": 2588,
      "##ไ": 2589,
      "##ฟ": 2590,
      "##法": 2591,
      "##😔": 2592,
      "##🤮": 2593,
      "##ㄨ": 2594,
      "##望": 2595,
      "##ӧ": 2596,
      "##💉": 2597,
      "##💔": 2598,
      "##士": 2599,
      "##破": 2600,
      "##解": 2601,
      "##😄": 2602,
      "##😊": 2603,
      "##벼": 2604,
      "##기": 2605,
      "##賃": 2606,
      "##貸": 2607,
      "##宅": 2608,
      "##희": 2609,
      "##万": 2610,
      "##蒙": 2611,
      "##图": 2612,
      "##格": 2613,
      "##里": 2614,
      "##克": 2615,
      "##ิ": 2616,
      "##โ": 2617,
      "##η": 2618,
      "##섭": 2619,
      "##分": 2620,
      "##製": 2621,
      "##作": 2622,
      "##器": 2623,
      "##⭐": 2624,
      "##❤": 2625,
      "##ł": 2626,
      "##💕": 2627,
      "##✿": 2628,
      "##ғ": 2629,
      "##🤣": 2630,
      "##☺": 2631,
      "##新": 2632,
      "##休": 2633,
      "##昌": 2634,
      "##♦": 2635,
      "##≥": 2636,
      "##💫": 2637,
      "##💼": 2638,
      "##用": 2639,
      "##者": 2640,
      "##ि": 2641,
      "##ल": 2642,
      "##흐": 2643,
      "##藤": 2644,
      "##留": 2645,
      "##美": 2646,
      "##վ": 2647,
      "##―": 2648,
      "##😘": 2649,
      "##登": 2650,
      "##录": 2651,
      "##地": 2652,
      "##址": 2653,
      "##🌈": 2654,
      "##動": 2655,
      "##車": 2656,
      "##ե": 2657,
      "##★": 2658,
      "##親": 2659,
      "##帯": 2660,
      "##臨": 2661,
      "##特": 2662,
      "##別": 2663,
      "##給": 2664,
      "##付": 2665,
      "##金": 2666,
      "##ƒ": 2667,
      "##还": 2668,
      "##型": 2669,
      "##健": 2670,
      "##康": 2671,
      "##险": 2672,
      "##停": 2673,
      "##售": 2674,
      "##间": 2675,
      "##密": 2676,
      "##照": 2677,
      "##동": 2678,
      "##차": 2679,
      "##軒": 2680,
      "##튜": 2681,
      "##브": 2682,
      "##청": 2683,
      "##ਾ": 2684,
      "##ਪ": 2685,
      "##ੂ": 2686,
      "##말": 2687,
      "##đ": 2688,
      "##辺": 2689,
      "##祐": 2690,
      "##🌃": 2691,
      "##©": 2692,
      "##พ": 2693,
      "##ล": 2694,
      "##蛋": 2695,
      "##🏼": 2696,
      "##너": 2697,
      "##블": 2698,
      "##💋": 2699,
      "##龙": 2700,
      "##阒": 2701,
      "##९": 2702,
      "##४": 2703,
      "##७": 2704,
      "##ի": 2705,
      "##🦊": 2706,
      "##구": 2707,
      "##함": 2708,
      "##ҡ": 2709,
      "##κ": 2710,
      "##ά": 2711,
      "##姿": 2712,
      "##뷔": 2713,
      "##御": 2714,
      "##妹": 2715,
      "##塑": 2716,
      "##公": 2717,
      "##众": 2718,
      "##象": 2719,
      "##载": 2720,
      "##҉": 2721,
      "##͜": 2722,
      "##̸": 2723,
      "##̵": 2724,
      "##͞": 2725,
      "##曜": 2726,
      "##日": 2727,
      "##🚫": 2728,
      "##하": 2729,
      "##₪": 2730,
      "##용": 2731,
      "##悔": 2732,
      "##ੌ": 2733,
      "##ਟ": 2734,
      "##ਰ": 2735,
      "##်": 2736,
      "##ে": 2737,
      "##্": 2738,
      "##ই": 2739,
      "##키": 2740,
      "##렘": 2741,
      "##✨": 2742,
      "##¥": 2743,
      "##〓": 2744,
      "##紇": 2745,
      "##골": 2746,
      "##뉴": 2747,
      "##스": 2748,
      "##代": 2749,
      "##委": 2750,
      "##员": 2751,
      "##建": 2752,
      "##ː": 2753,
      "##♡": 2754,
      "##ᄀ": 2755,
      "##짓": 2756,
      "##👀": 2757,
      "##ゅ": 2758,
      "##ᠼ": 2759,
      "##յ": 2760,
      "##현": 2761,
      "##숙": 2762,
      "##승": 2763,
      "##에": 2764,
      "##業": 2765,
      "##管": 2766,
      "##理": 2767,
      "##午": 2768,
      "##🍷": 2769,
      "##誉": 2770,
      "##网": 2771,
      "##오": 2772,
      "##플": 2773,
      "##랫": 2774,
      "##ǎ": 2775,
      "##룬": 2776,
      "##직": 2777,
      "##発": 2778,
      "##都": 2779,
      "##ィ": 2780,
      "##シ": 2781,
      "##ョ": 2782,
      "##本": 2783,
      "##횊": 2784,
      "##횒": 2785,
      "##횗": 2786,
      "##인": 2787,
      "##保": 2788,
      "##🥺": 2789,
      "##식": 2790,
      "##裏": 2791,
      "##過": 2792,
      "##査": 2793,
      "##ூ": 2794,
      "##ழ": 2795,
      "##ை": 2796,
      "##க": 2797,
      "##்": 2798,
      "##ி": 2799,
      "##ட": 2800,
      "##ா": 2801,
      "##ů": 2802,
      "##🥄": 2803,
      "##զ": 2804,
      "##ύ": 2805,
      "##ν": 2806,
      "##ς": 2807,
      "##好": 2808,
      "##즈": 2809,
      "##싼": 2810,
      "##ジ": 2811,
      "##ガ": 2812,
      "##ਿ": 2813,
      "##ਸ": 2814,
      "##ਮ": 2815,
      "##생": 2816,
      "##명": 2817,
      "##과": 2818,
      "##학": 2819,
      "##楫": 2820,
      "##流": 2821,
      "##†": 2822,
      "##갑": 2823,
      "##습": 2824,
      "##진": 2825,
      "##무": 2826,
      "##흥": 2827,
      "##🇷": 2828,
      "##月": 2829,
      "##ق": 2830,
      "##ɑ": 2831,
      "##칩": 2832,
      "##ӄ": 2833,
      "##ذ": 2834,
      "##。": 2835,
      "##ἰ": 2836,
      "##υ": 2837,
      "##ờ": 2838,
      "##气": 2839,
      "##ή": 2840,
      "##太": 2841,
      "##宗": 2842,
      "##暲": 2843,
      "##陝": 2844,
      "##燼": 2845,
      "##勖": 2846,
      "##ʟ": 2847,
      "##ᴜ": 2848,
      "##ʜ": 2849,
      "##뻐": 2850,
      "##ľ": 2851,
      "##眉": 2852,
      "##毛": 2853,
      "##체": 2854,
      "##♠": 2855,
      "##ẙ": 2856,
      "##弦": 2857,
      "##ʏ": 2858,
      "##辉": 2859,
      "##林": 2860,
      "##ੈ": 2861,
      "##ੀ": 2862,
      "##ӑ": 2863,
      "##ằ": 2864,
      "##💚": 2865,
      "##考": 2866,
      "##엘": 2867,
      "##向": 2868,
      "##側": 2869,
      "##視": 2870,
      "##码": 2871,
      "##화": 2872,
      "##찡": 2873,
      "##긋": 2874,
      "##푸": 2875,
      "##딩": 2876,
      "##和": 2877,
      "##音": 2878,
      "##ブ": 2879,
      "##ハ": 2880,
      "##ض": 2881,
      "##격": 2882,
      "##←": 2883,
      "##化": 2884,
      "##뚝": 2885,
      "##배": 2886,
      "##실": 2887,
      "##래": 2888,
      "##예": 2889,
      "##😝": 2890,
      "##🦋": 2891,
      "##🌸": 2892,
      "##红": 2893,
      "##华": 2894,
      "##ᠰ": 2895,
      "##র": 2896,
      "##ক": 2897,
      "##ি": 2898,
      "##🖐": 2899,
      "##😉": 2900,
      "##☻": 2901,
      "##율": 2902,
      "##🙃": 2903,
      "##读": 2904,
      "##🥰": 2905,
      "##二": 2906,
      "##奇": 2907,
      "##迹": 2908,
      "##ň": 2909,
      "##ہ": 2910,
      "##気": 2911,
      "##是": 2912,
      "##ễ": 2913,
      "##送": 2914,
      "##钱": 2915,
      "##站": 2916,
      "##ゼ": 2917,
      "##ギ": 2918,
      "##普": 2919,
      "##選": 2920,
      "##べ": 2921,
      "##蘭": 2922,
      "##府": 2923,
      "##達": 2924,
      "##等": 2925,
      "##չ": 2926,
      "##现": 2927,
      "##펄": 2928,
      "##설": 2929,
      "##류": 2930,
      "##→": 2931,
      "##前": 2932,
      "##离": 2933,
      "##线": 2934,
      "##ゆ": 2935,
      "##歳": 2936,
      "##더": 2937,
      "##걸": 2938,
      "##福": 2939,
      "##祉": 2940,
      "##ぎ": 2941,
      "##🗃": 2942,
      "##🔌": 2943,
      "##ҷ": 2944,
      "##폰": 2945,
      "##밥": 2946,
      "##」": 2947,
      "##塚": 2948,
      "##優": 2949,
      "##斗": 2950,
      "##갤": 2951,
      "##러": 2952,
      "##문": 2953,
      "##😃": 2954,
      "##×": 2955,
      "##语": 2956,
      "##ß": 2957,
      "##🥳": 2958,
      "##✈": 2959,
      "##📦": 2960,
      "##漏": 2961,
      "##洞": 2962,
      "##ӯ": 2963,
      "##우": 2964,
      "##고": 2965,
      "##达": 2966,
      "##见": 2967,
      "##초": 2968,
      "##코": 2969,
      "##릿": 2970,
      "##죻": 2971,
      "##į": 2972,
      "##윤": 2973,
      "##굴": 2974,
      "##÷": 2975,
      "##█": 2976,
      "##·": 2977,
      "##ий": 2978,
      "##аа": 2979,
      "##ай": 2980,
      "##ээ": 2981,
      "##ан": 2982,
      "##ар": 2983,
      "##ол": 2984,
      "бай": 2985,
      "##уу": 2986,
      "##ийн": 2987,
      "##ал": 2988,
      "##аг": 2989,
      "##үү": 2990,
      "##эг": 2991,
      "##эн": 2992,
      "##эл": 2993,
      "##эр": 2994,
      "##он": 2995,
      "бол": 2996,
      "##үй": 2997,
      "##ах": 2998,
      "##ын": 2999,
      "##ил": 3000,
      "##өр": 3001,
      "##ин": 3002,
      "##оо": 3003,
      "##эд": 3004,
      "##гүй": 3005,
      "нь": 3006,
      "##гаа": 3007,
      "хү": 3008,
      "##ийг": 3009,
      "##эх": 3010,
      "би": 3011,
      "##ад": 3012,
      "##сан": 3013,
      "##уул": 3014,
      "##на": 3015,
      "##ам": 3016,
      "##өө": 3017,
      "##ээр": 3018,
      "##эж": 3019,
      "##ур": 3020,
      "##ог": 3021,
      "##нэ": 3022,
      "##ох": 3023,
      "##өн": 3024,
      "##ыг": 3025,
      "байна": 3026,
      "##эй": 3027,
      "##сэн": 3028,
      "##аар": 3029,
      "бү": 3030,
      "юм": 3031,
      "##тай": 3032,
      "##ор": 3033,
      "##нд": 3034,
      "##тэй": 3035,
      "##ой": 3036,
      "ор": 3037,
      "##ууд": 3038,
      "энэ": 3039,
      "##гийн": 3040,
      "##өл": 3041,
      "##ас": 3042,
      "##ний": 3043,
      "##эм": 3044,
      "хэр": 3045,
      "хар": 3046,
      "##иг": 3047,
      "##ны": 3048,
      "байгаа": 3049,
      "##өг": 3050,
      "##үүл": 3051,
      "##даг": 3052,
      "##га": 3053,
      "аж": 3054,
      "гэж": 3055,
      "ту": 3056,
      "ху": 3057,
      "##чи": 3058,
      "##од": 3059,
      "та": 3060,
      "##ом": 3061,
      "ав": 3062,
      "##тг": 3063,
      "нэг": 3064,
      "##лаг": 3065,
      "гар": 3066,
      "ам": 3067,
      "##даа": 3068,
      "эр": 3069,
      "##аж": 3070,
      "##эв": 3071,
      "##ээд": 3072,
      "байх": 3073,
      "өөр": 3074,
      "мэд": 3075,
      "##..": 3076,
      "##той": 3077,
      "##онг": 3078,
      "хэрэг": 3079,
      "ул": 3080,
      "бу": 3081,
      "##аас": 3082,
      "ол": 3083,
      "хам": 3084,
      "##йл": 3085,
      "хо": 3086,
      "##ээс": 3087,
      "##ав": 3088,
      "ал": 3089,
      "тэр": 3090,
      "...": 3091,
      "##сон": 3092,
      "ир": 3093,
      "##өх": 3094,
      "ар": 3095,
      "##өв": 3096,
      "ажил": 3097,
      "##ир": 3098,
      "хүн": 3099,
      "##аад": 3100,
      "хэл": 3101,
      "хий": 3102,
      "##үүд": 3103,
      "##нг": 3104,
      "үү": 3105,
      "уу": 3106,
      "сай": 3107,
      "байсан": 3108,
      "##ьд": 3109,
      "##ээл": 3110,
      "##алт": 3111,
      "##жээ": 3112,
      "бид": 3113,
      "яв": 3114,
      "их": 3115,
      "##хан": 3116,
      "##дээ": 3117,
      "сан": 3118,
      "улс": 3119,
      "##ат": 3120,
      "##дэг": 3121,
      "тан": 3122,
      "##но": 3123,
      "дар": 3124,
      "##ая": 3125,
      "хув": 3126,
      "эх": 3127,
      "үз": 3128,
      "##лаа": 3129,
      "хүр": 3130,
      "##үүх": 3131,
      "бар": 3132,
      "болох": 3133,
      "##им": 3134,
      "##оор": 3135,
      "бод": 3136,
      "##дал": 3137,
      "гэ": 3138,
      "дээр": 3139,
      "##онгол": 3140,
      "өг": 3141,
      "##ер": 3142,
      "##ов": 3143,
      "төр": 3144,
      "ан": 3145,
      "зүй": 3146,
      "үйл": 3147,
      "цаг": 3148,
      "##гаар": 3149,
      "мин": 3150,
      "##доо": 3151,
      "ий": 3152,
      "##чл": 3153,
      "бүр": 3154,
      "##гуул": 3155,
      "ас": 3156,
      "20": 3157,
      "тал": 3158,
      "жил": 3159,
      "##эс": 3160,
      "##аш": 3161,
      "##их": 3162,
      "##гээ": 3163,
      "##гээр": 3164,
      "монгол": 3165,
      "бүх": 3166,
      "##өөд": 3167,
      "гэд": 3168,
      "мөн": 3169,
      "болно": 3170,
      "##нийг": 3171,
      "##уур": 3172,
      "үе": 3173,
      "##ул": 3174,
      "##аз": 3175,
      "зөв": 3176,
      "чад": 3177,
      "##лээ": 3178,
      "өм": 3179,
      "вэ": 3180,
      "ур": 3181,
      "##мар": 3182,
      "түү": 3183,
      "юу": 3184,
      "байдаг": 3185,
      "##аан": 3186,
      "олон": 3187,
      "тог": 3188,
      "дээ": 3189,
      "##чих": 3190,
      "##лах": 3191,
      "гэх": 3192,
      "ил": 3193,
      "сур": 3194,
      "##хай": 3195,
      "##анд": 3196,
      "ямар": 3197,
      "гэсэн": 3198,
      "##сөн": 3199,
      "##мүү": 3200,
      "##энд": 3201,
      "зүйл": 3202,
      "хүмүү": 3203,
      "шин": 3204,
      "##хий": 3205,
      "##лэг": 3206,
      "зар": 3207,
      "эм": 3208,
      "##ож": 3209,
      "баг": 3210,
      "яр": 3211,
      "##этг": 3212,
      "хүмүүс": 3213,
      "##чил": 3214,
      "хэм": 3215,
      "гэр": 3216,
      "газ": 3217,
      "##цаа": 3218,
      "тэд": 3219,
      "##өөр": 3220,
      "өд": 3221,
      "##дл": 3222,
      "тэг": 3223,
      "##уулах": 3224,
      "шүү": 3225,
      "үн": 3226,
      "хүүх": 3227,
      "тус": 3228,
      "ер": 3229,
      "хоё": 3230,
      "##шиг": 3231,
      "ман": 3232,
      "##арын": 3233,
      "##ут": 3234,
      "##гал": 3235,
      "тү": 3236,
      "одоо": 3237,
      "өмн": 3238,
      "##омж": 3239,
      "төл": 3240,
      "ёс": 3241,
      "хоёр": 3242,
      "##чин": 3243,
      "амьд": 3244,
      "дараа": 3245,
      "##охи": 3246,
      "##агд": 3247,
      "маш": 3248,
      "##лийн": 3249,
      "##гийг": 3250,
      "хамгийн": 3251,
      "биш": 3252,
      "хол": 3253,
      "##лэл": 3254,
      "чин": 3255,
      "дэл": 3256,
      "##дв": 3257,
      "ний": 3258,
      "зас": 3259,
      "тий": 3260,
      "##жил": 3261,
      "эрх": 3262,
      "##ахгүй": 3263,
      "##өд": 3264,
      "эс": 3265,
      "өр": 3266,
      "##оод": 3267,
      "##ос": 3268,
      "##ис": 3269,
      "хүс": 3270,
      "сайн": 3271,
      "нар": 3272,
      "тухай": 3273,
      "хэд": 3274,
      "тийм": 3275,
      "боломж": 3276,
      "үр": 3277,
      "хя": 3278,
      "##энэ": 3279,
      "он": 3280,
      "##үүр": 3281,
      "##лэх": 3282,
      "##лага": 3283,
      "дах": 3284,
      "ийм": 3285,
      "асууд": 3286,
      "байгуул": 3287,
      "нам": 3288,
      "##аал": 3289,
      "гэдэг": 3290,
      "бус": 3291,
      "дү": 3292,
      "##вэл": 3293,
      "##чид": 3294,
      "##дийн": 3295,
      "бүт": 3296,
      "хэрэгтэй": 3297,
      "сон": 3298,
      "зор": 3299,
      "тав": 3300,
      "анх": 3301,
      "миний": 3302,
      "##лын": 3303,
      "болон": 3304,
      "##эгд": 3305,
      "харин": 3306,
      "болг": 3307,
      "##айр": 3308,
      "##уй": 3309,
      "##от": 3310,
      "өн": 3311,
      "##лд": 3312,
      "##гд": 3313,
      "холб": 3314,
      "##олд": 3315,
      "сэтг": 3316,
      "ын": 3317,
      "##үүлэх": 3318,
      "хур": 3319,
      "##ид": 3320,
      "хэ": 3321,
      "нэр": 3322,
      "##оос": 3323,
      "манай": 3324,
      "шиг": 3325,
      "##рал": 3326,
      "болсон": 3327,
      "бая": 3328,
      "201": 3329,
      "ашиг": 3330,
      "су": 3331,
      "хор": 3332,
      "ду": 3333,
      "хуул": 3334,
      "##ик": 3335,
      "хийх": 3336,
      "зур": 3337,
      "өмнө": 3338,
      "даа": 3339,
      "##тэл": 3340,
      "болов": 3341,
      "##амж": 3342,
      "##дог": 3343,
      "##хэн": 3344,
      "ёстой": 3345,
      "эн": 3346,
      "##иш": 3347,
      "##гө": 3348,
      "дуу": 3349,
      "удаа": 3350,
      "##онд": 3351,
      "##двэр": 3352,
      "ший": 3353,
      "өдөр": 3354,
      "##вал": 3355,
      "##бар": 3356,
      "##иж": 3357,
      "##гэл": 3358,
      "хэн": 3359,
      "бие": 3360,
      "бас": 3361,
      "сонг": 3362,
      "##ээн": 3363,
      "##лог": 3364,
      "бур": 3365,
      "ун": 3366,
      "мэдээл": 3367,
      "шинэ": 3368,
      "##00": 3369,
      "дур": 3370,
      "##иу": 3371,
      "байж": 3372,
      "талаар": 3373,
      "##лан": 3374,
      "хуга": 3375,
      "##чир": 3376,
      "##лөг": 3377,
      "##лг": 3378,
      "зал": 3379,
      "том": 3380,
      "##уулж": 3381,
      "ирг": 3382,
      "нас": 3383,
      "чинь": 3384,
      "хугацаа": 3385,
      "авах": 3386,
      "##лаж": 3387,
      "газар": 3388,
      "болж": 3389,
      "үед": 3390,
      "улсын": 3391,
      "хан": 3392,
      "гэхдээ": 3393,
      "##тын": 3394,
      "##ен": 3395,
      "өнг": 3396,
      "тө": 3397,
      "##эгтэй": 3398,
      "илүү": 3399,
      "##тр": 3400,
      "байр": 3401,
      "нөх": 3402,
      "##олц": 3403,
      "тод": 3404,
      "##вар": 3405,
      "инг": 3406,
      "бат": 3407,
      "шаар": 3408,
      "##нээс": 3409,
      "##тан": 3410,
      "хөг": 3411,
      "тэм": 3412,
      "гад": 3413,
      "хэмжээ": 3414,
      "ком": 3415,
      "таны": 3416,
      "зү": 3417,
      "тогл": 3418,
      "##лал": 3419,
      "оны": 3420,
      "##эмж": 3421,
      "бөг": 3422,
      "үг": 3423,
      "##үүн": 3424,
      "тай": 3425,
      "##илц": 3426,
      "ай": 3427,
      "##лыг": 3428,
      "өв": 3429,
      "өөрийн": 3430,
      "ган": 3431,
      "нийт": 3432,
      "жилийн": 3433,
      "шаард": 3434,
      "хийж": 3435,
      "##элт": 3436,
      "##эхгүй": 3437,
      "зах": 3438,
      "бэл": 3439,
      "гэв": 3440,
      "##дын": 3441,
      "чи": 3442,
      "##айг": 3443,
      "тогт": 3444,
      "##эрг": 3445,
      "хүний": 3446,
      "сарын": 3447,
      "гээд": 3448,
      "ойл": 3449,
      "буй": 3450,
      "над": 3451,
      "өнөөд": 3452,
      "сал": 3453,
      "хувьд": 3454,
      "##иул": 3455,
      "##эхээр": 3456,
      "нэгэн": 3457,
      "##өнхий": 3458,
      "амьдрал": 3459,
      "сар": 3460,
      "зохи": 3461,
      "дав": 3462,
      "хайр": 3463,
      "эд": 3464,
      "авч": 3465,
      "ерөнхий": 3466,
      "төс": 3467,
      "най": 3468,
      "##ьж": 3469,
      "хүнд": 3470,
      "бөгөөд": 3471,
      "хон": 3472,
      "сэтгэл": 3473,
      "##рийн": 3474,
      "биз": 3475,
      "бич": 3476,
      "ойлг": 3477,
      "##рын": 3478,
      "##сн": 3479,
      "алб": 3480,
      "дот": 3481,
      "##өөс": 3482,
      "бил": 3483,
      "комп": 3484,
      "##гах": 3485,
      "онд": 3486,
      "##хал": 3487,
      "үнд": 3488,
      "хаа": 3489,
      "зам": 3490,
      "##асан": 3491,
      "##ес": 3492,
      "##оон": 3493,
      "##огд": 3494,
      "сайхан": 3495,
      "##даж": 3496,
      "ийн": 3497,
      "хүлээ": 3498,
      "хал": 3499,
      "##хийн": 3500,
      "##хөн": 3501,
      "##өлөө": 3502,
      "минь": 3503,
      "хэв": 3504,
      "байхгүй": 3505,
      "##ив": 3506,
      "түүний": 3507,
      "хой": 3508,
      "тоо": 3509,
      "суу": 3510,
      "орон": 3511,
      "өнгөр": 3512,
      "##ит": 3513,
      "19": 3514,
      "шал": 3515,
      "##аагүй": 3516,
      "бий": 3517,
      "хувь": 3518,
      "##чийн": 3519,
      "хамт": 3520,
      "##лагаа": 3521,
      "баяр": 3522,
      "санал": 3523,
      "##хаа": 3524,
      "гиш": 3525,
      "##хүү": 3526,
      "худал": 3527,
      "зарим": 3528,
      "##нууд": 3529,
      "даг": 3530,
      "##адаг": 3531,
      "асуудал": 3532,
      "ох": 3533,
      "##тад": 3534,
      "тур": 3535,
      "##орх": 3536,
      "##ван": 3537,
      "нэм": 3538,
      "##ич": 3539,
      "##шин": 3540,
      "##гаж": 3541,
      "уул": 3542,
      "иргэд": 3543,
      "ард": 3544,
      "##тгэл": 3545,
      "хэс": 3546,
      "гур": 3547,
      "бэ": 3548,
      "дол": 3549,
      "учир": 3550,
      "засгийн": 3551,
      "##дан": 3552,
      "эсвэл": 3553,
      "уд": 3554,
      "үүнийг": 3555,
      "мар": 3556,
      "10": 3557,
      "ах": 3558,
      "компан": 3559,
      "мэдээ": 3560,
      "арга": 3561,
      "тохи": 3562,
      "төрийн": 3563,
      "##ун": 3564,
      "##охир": 3565,
      "##үүлж": 3566,
      "эмэгтэй": 3567,
      "##уулсан": 3568,
      "ут": 3569,
      "яаг": 3570,
      "хөгж": 3571,
      "хө": 3572,
      "тат": 3573,
      "нут": 3574,
      "ганц": 3575,
      "өнөөдөр": 3576,
      "ажиллагаа": 3577,
      "##орхой": 3578,
      "залуу": 3579,
      "төлөө": 3580,
      "чу": 3581,
      "хоол": 3582,
      "байдл": 3583,
      "хоног": 3584,
      "тодорхой": 3585,
      "##агч": 3586,
      "боломжтой": 3587,
      "яагаад": 3588,
      "билээ": 3589,
      "хэдэн": 3590,
      "төг": 3591,
      "##алтын": 3592,
      "үнэ": 3593,
      "##дсан": 3594,
      "үнэн": 3595,
      "##чүүд": 3596,
      "байлаа": 3597,
      "оролц": 3598,
      "хөр": 3599,
      "##сг": 3600,
      "##оё": 3601,
      "санаа": 3602,
      "##лоо": 3603,
      "ой": 3604,
      "##дөө": 3605,
      "энд": 3606,
      "эхэл": 3607,
      "ханд": 3608,
      "хөд": 3609,
      "уг": 3610,
      "сүүл": 3611,
      "маг": 3612,
      "##гаан": 3613,
      "хэрхэн": 3614,
      "##өм": 3615,
      "##ган": 3616,
      "##иа": 3617,
      "анг": 3618,
      "яг": 3619,
      "##эхүү": 3620,
      "тулд": 3621,
      "##гөө": 3622,
      "##чууд": 3623,
      "##өлт": 3624,
      "өнд": 3625,
      "ба": 3626,
      "байдал": 3627,
      "##дах": 3628,
      "##чр": 3629,
      "гэдгийг": 3630,
      "үйлдвэр": 3631,
      "хүүхд": 3632,
      "заа": 3633,
      "##уун": 3634,
      "##жилт": 3635,
      "те": 3636,
      "эз": 3637,
      "##ирх": 3638,
      "хич": 3639,
      "хүүхэд": 3640,
      "өөрчл": 3641,
      "чам": 3642,
      "бүгд": 3643,
      "албан": 3644,
      "дахин": 3645,
      "бүтээ": 3646,
      "бусад": 3647,
      "зөвхөн": 3648,
      "тэн": 3649,
      "сургуул": 3650,
      "хүртэл": 3651,
      "холбоо": 3652,
      "гол": 3653,
      "дэлхийн": 3654,
      "хүч": 3655,
      "мөр": 3656,
      "шил": 3657,
      "турш": 3658,
      "##эт": 3659,
      "##айн": 3660,
      "ид": 3661,
      "ая": 3662,
      "ном": 3663,
      "##илг": 3664,
      "бидний": 3665,
      "сү": 3666,
      "эц": 3667,
      "##эц": 3668,
      "надад": 3669,
      "учр": 3670,
      "аль": 3671,
      "маан": 3672,
      "##лийг": 3673,
      "##ист": 3674,
      "тар": 3675,
      "чан": 3676,
      "бурхан": 3677,
      "түр": 3678,
      "бүс": 3679,
      "маань": 3680,
      "##оол": 3681,
      "##чилгээ": 3682,
      "дахь": 3683,
      "намайг": 3684,
      "ад": 3685,
      "сая": 3686,
      "##зээ": 3687,
      "анхаар": 3688,
      "дэмж": 3689,
      "болохгүй": 3690,
      "үргэл": 3691,
      "##er": 3692,
      "тэгээд": 3693,
      "##тээ": 3694,
      "##дар": 3695,
      "##in": 3696,
      "гай": 3697,
      "дунд": 3698,
      "ин": 3699,
      "бага": 3700,
      "хууль": 3701,
      "хэрэв": 3702,
      "##хээ": 3703,
      "##уг": 3704,
      "машин": 3705,
      "##ус": 3706,
      "ирсэн": 3707,
      "түүнийг": 3708,
      "##олтой": 3709,
      "шаардлага": 3710,
      "өндөр": 3711,
      "##иал": 3712,
      "хамгаа": 3713,
      "зэр": 3714,
      "##өж": 3715,
      "гүй": 3716,
      "гарч": 3717,
      "хот": 3718,
      "ээ": 3719,
      "##on": 3720,
      "муу": 3721,
      "төв": 3722,
      "ээж": 3723,
      "тохиолд": 3724,
      "амь": 3725,
      "##ээрээ": 3726,
      "##ек": 3727,
      "##олт": 3728,
      "чухал": 3729,
      "ял": 3730,
      "сонирх": 3731,
      "чадахгүй": 3732,
      "##ак": 3733,
      "##гой": 3734,
      "эл": 3735,
      "шийдвэр": 3736,
      "хэмээн": 3737,
      "ажлын": 3738,
      "өөрөө": 3739,
      "##дөг": 3740,
      "##тар": 3741,
      "магад": 3742,
      "хариу": 3743,
      "##хи": 3744,
      "тиймээс": 3745,
      "ус": 3746,
      "##ем": 3747,
      "зээл": 3748,
      "эрг": 3749,
      "цаа": 3750,
      "хойш": 3751,
      "##ср": 3752,
      "##тал": 3753,
      "хүрг": 3754,
      "хятад": 3755,
      "хэзээ": 3756,
      "##бөр": 3757,
      "нү": 3758,
      "мөнгө": 3759,
      "##айл": 3760,
      "эхл": 3761,
      "ирэх": 3762,
      "үндэс": 3763,
      "##элц": 3764,
      "##рэг": 3765,
      "##хон": 3766,
      "##эсэн": 3767,
      "сонс": 3768,
      "хийсэн": 3769,
      "сол": 3770,
      "руу": 3771,
      "монголын": 3772,
      "ажилл": 3773,
      "ою": 3774,
      "өгөх": 3775,
      "онц": 3776,
      "уулз": 3777,
      "айм": 3778,
      "зураг": 3779,
      "хэсэг": 3780,
      "эдгээр": 3781,
      "хөдөл": 3782,
      "200": 3783,
      "түүх": 3784,
      "дүр": 3785,
      "мэдээлэл": 3786,
      "##ро": 3787,
      "##арч": 3788,
      "##мын": 3789,
      "нүүр": 3790,
      "авсан": 3791,
      "кин": 3792,
      "гэнэ": 3793,
      "яаж": 3794,
      "##гөн": 3795,
      "##гэр": 3796,
      "##иад": 3797,
      "үгүй": 3798,
      "##агүй": 3799,
      "##аарай": 3800,
      "төлөв": 3801,
      "##ийгөө": 3802,
      "##гаад": 3803,
      "уих": 3804,
      "мэт": 3805,
      "нийг": 3806,
      "мэрг": 3807,
      "унш": 3808,
      "яах": 3809,
      "##из": 3810,
      "##дсэн": 3811,
      "##эдэг": 3812,
      "##осон": 3813,
      "##ээгүй": 3814,
      "байв": 3815,
      "##чим": 3816,
      "охин": 3817,
      "##аараа": 3818,
      "хөл": 3819,
      "тэмц": 3820,
      "##галт": 3821,
      "##алтай": 3822,
      "эрд": 3823,
      "ажиллаж": 3824,
      "ану": 3825,
      "##хн": 3826,
      "ерөнхийлөг": 3827,
      "сонгуул": 3828,
      "##гасан": 3829,
      "##уудыг": 3830,
      "##үүлсэн": 3831,
      "бодож": 3832,
      "хөрөн": 3833,
      "##тер": 3834,
      "##эхэд": 3835,
      "##эгч": 3836,
      "##дэл": 3837,
      "найз": 3838,
      "тэрб": 3839,
      "дэв": 3840,
      "##ье": 3841,
      "уур": 3842,
      "удир": 3843,
      "учраас": 3844,
      "##тл": 3845,
      "үнэхээр": 3846,
      "##лбар": 3847,
      "ух": 3848,
      "өөрс": 3849,
      "зориул": 3850,
      "энэхүү": 3851,
      "##лж": 3852,
      "хугацаанд": 3853,
      "хүү": 3854,
      "аз": 3855,
      "##an": 3856,
      "тохир": 3857,
      "зөвш": 3858,
      "дуус": 3859,
      "зог": 3860,
      "газрын": 3861,
      "##уудын": 3862,
      "орж": 3863,
      "үргэлж": 3864,
      "өнгөрсөн": 3865,
      "чиг": 3866,
      "болохоор": 3867,
      "##рах": 3868,
      "аав": 3869,
      "танд": 3870,
      "##гч": 3871,
      "боловср": 3872,
      "эдийн": 3873,
      "хая": 3874,
      "##агт": 3875,
      "##өлд": 3876,
      "##ац": 3877,
      "гэтэл": 3878,
      "тэдний": 3879,
      "хүүхдүүд": 3880,
      "амжилт": 3881,
      "түм": 3882,
      "харагд": 3883,
      "шалт": 3884,
      "##чиж": 3885,
      "##ана": 3886,
      "дарга": 3887,
      "тухайн": 3888,
      "орос": 3889,
      "ог": 3890,
      "##угаар": 3891,
      "хийг": 3892,
      "тул": 3893,
      "барим": 3894,
      "эрүүл": 3895,
      "дор": 3896,
      "зогс": 3897,
      "##лөө": 3898,
      "байхад": 3899,
      "##ооны": 3900,
      "хэлб": 3901,
      "явах": 3902,
      "заг": 3903,
      "нөлөө": 3904,
      "зөвшөөр": 3905,
      "хэлж": 3906,
      "ажиллах": 3907,
      "гурван": 3908,
      "##охгүй": 3909,
      "тол": 3910,
      "нөхц": 3911,
      "явж": 3912,
      "ирээд": 3913,
      "##ar": 3914,
      "##гаас": 3915,
      "адил": 3916,
      "аю": 3917,
      "оруул": 3918,
      "олг": 3919,
      "таа": 3920,
      "судал": 3921,
      "##оно": 3922,
      "зүгээр": 3923,
      "ингэж": 3924,
      "##нес": 3925,
      "хэлэлц": 3926,
      "сайд": 3927,
      "##мийн": 3928,
      "итг": 3929,
      "##алд": 3930,
      "зөвл": 3931,
      "##лэж": 3932,
      "хэрэгж": 3933,
      "мэргэж": 3934,
      "##гоор": 3935,
      "үйлчилгээ": 3936,
      "\"-": 3937,
      "өөрийгөө": 3938,
      "тэрээр": 3939,
      "байгууллаг": 3940,
      "аюул": 3941,
      "##аасаа": 3942,
      "##эвэр": 3943,
      "зэрэг": 3944,
      "мэнд": 3945,
      "илэр": 3946,
      "дэлхий": 3947,
      "##даггүй": 3948,
      "олж": 3949,
      "мэдэх": 3950,
      "өс": 3951,
      "буруу": 3952,
      "суур": 3953,
      "сүүлийн": 3954,
      "холбоотой": 3955,
      "тэмдэг": 3956,
      "бүрэн": 3957,
      "холбогд": 3958,
      "##одог": 3959,
      "##сний": 3960,
      "##ьсан": 3961,
      "дотор": 3962,
      "гадаад": 3963,
      "зорилг": 3964,
      "##оом": 3965,
      "авт": 3966,
      "хад": 3967,
      "харь": 3968,
      "танилц": 3969,
      "аа": 3970,
      "##таа": 3971,
      "##энх": 3972,
      "##or": 3973,
      "наад": 3974,
      "##баа": 3975,
      "улсад": 3976,
      "цааш": 3977,
      "үх": 3978,
      "дуртай": 3979,
      "байгааг": 3980,
      "асуул": 3981,
      "хав": 3982,
      "үл": 3983,
      "мя": 3984,
      "##ет": 3985,
      "бизнес": 3986,
      "газр": 3987,
      "шат": 3988,
      "12": 3989,
      "гэм": 3990,
      "##маар": 3991,
      "үлд": 3992,
      "##илт": 3993,
      "хууд": 3994,
      "##гай": 3995,
      "үеийн": 3996,
      "магадгүй": 3997,
      "гүйц": 3998,
      "асуу": 3999,
      "##жиг": 4000,
      "ойр": 4001,
      "чанар": 4002,
      "амар": 4003,
      "зов": 4004,
      "бүсгүй": 4005,
      "##ей": 4006,
      "бүтээгд": 4007,
      "хэлсэн": 4008,
      "гишүүн": 4009,
      "шаардлагатай": 4010,
      "энх": 4011,
      "шууд": 4012,
      "##хөө": 4013,
      "##ахад": 4014,
      "жиш": 4015,
      "гэвч": 4016,
      "жин": 4017,
      "долоо": 4018,
      "##сийн": 4019,
      "##жин": 4020,
      "дөр": 4021,
      "харж": 4022,
      "##лэлийн": 4023,
      "тэгвэл": 4024,
      "болдог": 4025,
      "дугаар": 4026,
      "там": 4027,
      "өгсөн": 4028,
      "хөт": 4029,
      "хүлээн": 4030,
      "хат": 4031,
      "##юу": 4032,
      "##гар": 4033,
      "ев": 4034,
      "##лэгч": 4035,
      "##сү": 4036,
      "11": 4037,
      "иргэн": 4038,
      "за": 4039,
      "хай": 4040,
      "зөр": 4041,
      "салбар": 4042,
      "##аалт": 4043,
      "##төн": 4044,
      "##анк": 4045,
      "му": 4046,
      "байвал": 4047,
      "болоод": 4048,
      "чөлөө": 4049,
      "##оц": 4050,
      "##лөгөө": 4051,
      "нуу": 4052,
      "асуудлыг": 4053,
      "##яа": 4054,
      "зохион": 4055,
      "мал": 4056,
      "байн": 4057,
      "санагд": 4058,
      "гарсан": 4059,
      "багш": 4060,
      "бодлог": 4061,
      "##оны": 4062,
      "мэдэгд": 4063,
      "айл": 4064,
      "##пор": 4065,
      "##дэх": 4066,
      "буюу": 4067,
      "##үүдийн": 4068,
      "##en": 4069,
      "цах": 4070,
      "нэмэгд": 4071,
      "##дугаар": 4072,
      "засаг": 4073,
      "ярилц": 4074,
      "##ерик": 4075,
      "хөрөнгө": 4076,
      "мэдээж": 4077,
      "дан": 4078,
      "##члэн": 4079,
      "100": 4080,
      "##нө": 4081,
      "тооц": 4082,
      "сэр": 4083,
      "той": 4084,
      "америк": 4085,
      "15": 4086,
      "##ел": 4087,
      "нөг": 4088,
      "төрлийн": 4089,
      "хөн": 4090,
      "##ээнд": 4091,
      "гаруй": 4092,
      "анхны": 4093,
      "##арт": 4094,
      "##рам": 4095,
      "дараах": 4096,
      "хоор": 4097,
      "##наас": 4098,
      "арг": 4099,
      "бүтээл": 4100,
      "##аргал": 4101,
      "ач": 4102,
      "гал": 4103,
      "##эгт": 4104,
      "##вээ": 4105,
      "##хам": 4106,
      "хэлэх": 4107,
      "дүн": 4108,
      "шинж": 4109,
      "##саар": 4110,
      "мэдэхгүй": 4111,
      "хичээл": 4112,
      "##!!": 4113,
      "шүүх": 4114,
      "##цүү": 4115,
      "баримт": 4116,
      "##ээрэй": 4117,
      "гарах": 4118,
      "хүүхдийн": 4119,
      "дээд": 4120,
      "##игд": 4121,
      "шу": 4122,
      "эв": 4123,
      "зүйлийг": 4124,
      "ашигл": 4125,
      "техн": 4126,
      "##ст": 4127,
      "##гоо": 4128,
      "цэц": 4129,
      "гү": 4130,
      "цэвэр": 4131,
      "настай": 4132,
      "минут": 4133,
      "өдр": 4134,
      "үндсэн": 4135,
      "өмнөх": 4136,
      "батал": 4137,
      "##шил": 4138,
      "дүүр": 4139,
      "хуулийн": 4140,
      "пр": 4141,
      "тас": 4142,
      "боллоо": 4143,
      "бр": 4144,
      "mn": 4145,
      "##es": 4146,
      "бор": 4147,
      "өрөө": 4148,
      "##агс": 4149,
      "##длаа": 4150,
      "##ент": 4151,
      "##үүдийг": 4152,
      "боловч": 4153,
      "итгэл": 4154,
      "шү": 4155,
      "ерөнхийлөгч": 4156,
      "##ок": 4157,
      "нөгөө": 4158,
      "байгаад": 4159,
      "##нз": 4160,
      "гэвэл": 4161,
      "##ли": 4162,
      "санхүү": 4163,
      "хариул": 4164,
      "үүс": 4165,
      "тайлбар": 4166,
      "ня": 4167,
      "эхний": 4168,
      "болгох": 4169,
      "хариуц": 4170,
      "байдлаар": 4171,
      "өөрт": 4172,
      "дээрх": 4173,
      "судалгаа": 4174,
      "хян": 4175,
      "хүнийг": 4176,
      "хаан": 4177,
      "явдал": 4178,
      "бүхэн": 4179,
      "##ээсээ": 4180,
      "30": 4181,
      "##лох": 4182,
      "болгон": 4183,
      "##мөр": 4184,
      ".\"": 4185,
      "##сгал": 4186,
      "евро": 4187,
      "тэрбээр": 4188,
      "##баатар": 4189,
      "##тэн": 4190,
      "илэрхий": 4191,
      "##бал": 4192,
      "гаргах": 4193,
      "доо": 4194,
      "##ины": 4195,
      "улаан": 4196,
      "хэцүү": 4197,
      "##лүүл": 4198,
      "чадвар": 4199,
      "ярьж": 4200,
      "хүмүүсийн": 4201,
      "авна": 4202,
      "болжээ": 4203,
      "урьд": 4204,
      "үзүүл": 4205,
      "орчин": 4206,
      "өдрийн": 4207,
      "##элж": 4208,
      "хэрвээ": 4209,
      "нөхцөл": 4210,
      "шалтгаан": 4211,
      "хүчин": 4212,
      "компани": 4213,
      "бүл": 4214,
      "өөрчлөлт": 4215,
      "орох": 4216,
      "баа": 4217,
      "ингээд": 4218,
      "толгой": 4219,
      "ихэнх": 4220,
      "##оогүй": 4221,
      "ирж": 4222,
      "##өгд": 4223,
      "гу": 4224,
      "##ээв": 4225,
      "хэт": 4226,
      "дагуу": 4227,
      "хөтөл": 4228,
      "өгч": 4229,
      "сард": 4230,
      "хадгал": 4231,
      "##нэл": 4232,
      "гаргаж": 4233,
      "цагдаа": 4234,
      "тун": 4235,
      "монголчууд": 4236,
      "өглөө": 4237,
      "оюут": 4238,
      "оч": 4239,
      "гэхэд": 4240,
      "захир": 4241,
      "##ман": 4242,
      "##le": 4243,
      "түүн": 4244,
      "мэдр": 4245,
      "зав": 4246,
      "##at": 4247,
      "бараг": 4248,
      "буур": 4249,
      "гүйцэтг": 4250,
      "##амс": 4251,
      "нутгийн": 4252,
      "..": 4253,
      "хийдэг": 4254,
      "тогтоо": 4255,
      "##инд": 4256,
      "##гуй": 4257,
      "ст": 4258,
      "##уулдаг": 4259,
      "чадах": 4260,
      "үс": 4261,
      "18": 4262,
      "яп": 4263,
      "##уулан": 4264,
      "##илцаа": 4265,
      "мах": 4266,
      "эсрэг": 4267,
      "дамж": 4268,
      "зан": 4269,
      "тэнд": 4270,
      "##дад": 4271,
      "##шгүй": 4272,
      "жагс": 4273,
      "дэлг": 4274,
      "##ъя": 4275,
      "##олог": 4276,
      "##тгал": 4277,
      "жиж": 4278,
      "таар": 4279,
      "##нээ": 4280,
      "харилцаа": 4281,
      "##истем": 4282,
      "##иар": 4283,
      "хэрэггүй": 4284,
      "алга": 4285,
      "цагийн": 4286,
      "##элд": 4287,
      "үзэх": 4288,
      "үүр": 4289,
      "монголд": 4290,
      "европ": 4291,
      "систем": 4292,
      "##oo": 4293,
      "ярих": 4294,
      "хүлээж": 4295,
      "банк": 4296,
      "##al": 4297,
      "гэрээ": 4298,
      "буц": 4299,
      "бидэнд": 4300,
      "##үүдэд": 4301,
      "таныг": 4302,
      "цэр": 4303,
      "од": 4304,
      "нээ": 4305,
      "боддог": 4306,
      "заавал": 4307,
      "мэддэг": 4308,
      "ашиглах": 4309,
      "байжээ": 4310,
      "##агн": 4311,
      "##чдын": 4312,
      "нд": 4313,
      "##дү": 4314,
      "түүнд": 4315,
      "үүний": 4316,
      "##лэн": 4317,
      "##дыг": 4318,
      "намын": 4319,
      "бүү": 4320,
      "хотын": 4321,
      "байгал": 4322,
      "төгс": 4323,
      "барил": 4324,
      "нөхөр": 4325,
      "найр": 4326,
      "бутл": 4327,
      "үзэж": 4328,
      "##нэр": 4329,
      "##маа": 4330,
      "202": 4331,
      "##гын": 4332,
      "бос": 4333,
      "гоё": 4334,
      "бутлуур": 4335,
      "худалдаа": 4336,
      "чиний": 4337,
      "алдаа": 4338,
      "хувийн": 4339,
      "ярь": 4340,
      "##дэж": 4341,
      "эмнэл": 4342,
      "хөтөлбөр": 4343,
      "төрөл": 4344,
      "туш": 4345,
      "хамаар": 4346,
      "жижиг": 4347,
      "нэв": 4348,
      "жишээ": 4349,
      "##өөн": 4350,
      "байгаагүй": 4351,
      "кино": 4352,
      "##гээс": 4353,
      "тохиолдолд": 4354,
      "огт": 4355,
      "эхнэр": 4356,
      "бүрийн": 4357,
      "##сны": 4358,
      "жаргал": 4359,
      "тэгэхээр": 4360,
      "##агдсан": 4361,
      "нүд": 4362,
      "төлбөр": 4363,
      "##ласан": 4364,
      "хаана": 4365,
      "өнөө": 4366,
      "долл": 4367,
      "төгр": 4368,
      "##st": 4369,
      "##өмж": 4370,
      "##рх": 4371,
      "гаргасан": 4372,
      "түв": 4373,
      "ухаан": 4374,
      "##гн": 4375,
      "уурхай": 4376,
      "хөөр": 4377,
      "гурав": 4378,
      "соё": 4379,
      "тэрг": 4380,
      "онг": 4381,
      "хамгаалах": 4382,
      "дал": 4383,
      "үүнээс": 4384,
      "хэрэгс": 4385,
      "харьц": 4386,
      "эмэгтэйчүүд": 4387,
      "харах": 4388,
      "зүйлс": 4389,
      "##лэдэг": 4390,
      "сэд": 4391,
      "хооронд": 4392,
      "##вор": 4393,
      "утас": 4394,
      "эрдэнэ": 4395,
      "##алдаа": 4396,
      "болчих": 4397,
      "эцэг": 4398,
      "##ac": 4399,
      "дай": 4400,
      "##лалт": 4401,
      "хоногийн": 4402,
      "амьдралын": 4403,
      "мянг": 4404,
      "##төнц": 4405,
      "##лэсэн": 4406,
      "ирээдүй": 4407,
      "ертөнц": 4408,
      "чамайг": 4409,
      "орсон": 4410,
      "хурдан": 4411,
      "цагт": 4412,
      "бүхий": 4413,
      "таван": 4414,
      "нис": 4415,
      "гадна": 4416,
      "аас": 4417,
      "тань": 4418,
      "цагаан": 4419,
      "##двар": 4420,
      "##элтэй": 4421,
      "дууд": 4422,
      "агаар": 4423,
      "хуудас": 4424,
      "##чээ": 4425,
      "##өхөөр": 4426,
      "бэлэн": 4427,
      "хайртай": 4428,
      "##ou": 4429,
      "боломжгүй": 4430,
      "нийгэм": 4431,
      "тойр": 4432,
      "##об": 4433,
      "14": 4434,
      "##гэн": 4435,
      "янз": 4436,
      "аюулгүй": 4437,
      "##лагдсан": 4438,
      "асуулт": 4439,
      "##уулна": 4440,
      "эзэн": 4441,
      "хаг": 4442,
      "хувц": 4443,
      "хүссэн": 4444,
      "аймгийн": 4445,
      "##ран": 4446,
      "эсэх": 4447,
      "үндэсний": 4448,
      "нууц": 4449,
      "##уудад": 4450,
      "жү": 4451,
      "нарын": 4452,
      "##it": 4453,
      "##элээ": 4454,
      "тов": 4455,
      "солонг": 4456,
      "хэмжээний": 4457,
      "цар": 4458,
      "ме": 4459,
      "дээрээ": 4460,
      "хийн": 4461,
      "март": 4462,
      "##өмб": 4463,
      "мянган": 4464,
      "цал": 4465,
      "чадна": 4466,
      "дөрв": 4467,
      "өөрийнхөө": 4468,
      "##мэл": 4469,
      "##бая": 4470,
      "тоглоом": 4471,
      "##ууны": 4472,
      "##тгий": 4473,
      "насны": 4474,
      "рүү": 4475,
      "мэдэж": 4476,
      "бүртг": 4477,
      "уран": 4478,
      "эрс": 4479,
      "##лалаа": 4480,
      "##ум": 4481,
      "амьдар": 4482,
      "хуу": 4483,
      "##чилж": 4484,
      "дараагийн": 4485,
      "##олцоо": 4486,
      "удирд": 4487,
      "##ино": 4488,
      "орны": 4489,
      "##аб": 4490,
      "##чилсан": 4491,
      "ны": 4492,
      "##орж": 4493,
      "цуг": 4494,
      "аваад": 4495,
      "аг": 4496,
      "##om": 4497,
      "явсан": 4498,
      "##дүгээр": 4499,
      "хил": 4500,
      "##ic": 4501,
      "угаа": 4502,
      "дут": 4503,
      "##ээлт": 4504,
      "шаардлаг": 4505,
      "хэлбэр": 4506,
      "шөн": 4507,
      "##мж": 4508,
      "хүмүүст": 4509,
      "эхэлсэн": 4510,
      "урт": 4511,
      "цалин": 4512,
      "оронд": 4513,
      "ажилд": 4514,
      "##чихсан": 4515,
      "шилдэг": 4516,
      "болохыг": 4517,
      "цу": 4518,
      "орч": 4519,
      "орлог": 4520,
      "үнэл": 4521,
      "бя": 4522,
      "##өөл": 4523,
      "орой": 4524,
      "өөртөө": 4525,
      "эрт": 4526,
      "##тэйгээ": 4527,
      "агуул": 4528,
      "түүнээс": 4529,
      "бууд": 4530,
      "тулг": 4531,
      "байхдаа": 4532,
      "##члал": 4533,
      "загвар": 4534,
      "##олоо": 4535,
      "##ио": 4536,
      "хөдөлгөө": 4537,
      "мат": 4538,
      "солонгос": 4539,
      "##халтай": 4540,
      "нийтийн": 4541,
      "орнууд": 4542,
      "тоглолт": 4543,
      "дэлгэр": 4544,
      "оноос": 4545,
      "бн": 4546,
      "шар": 4547,
      "##алц": 4548,
      "өөрөөр": 4549,
      "арай": 4550,
      "хям": 4551,
      "асуудл": 4552,
      "битгий": 4553,
      "амьдарч": 4554,
      "иргэдийн": 4555,
      "давх": 4556,
      "авар": 4557,
      "унт": 4558,
      "ажлыг": 4559,
      "##олын": 4560,
      "гэртээ": 4561,
      "нийгмийн": 4562,
      "үйлчл": 4563,
      "бэр": 4564,
      "явц": 4565,
      "сонгол": 4566,
      "эхлээд": 4567,
      "##лана": 4568,
      "##аах": 4569,
      "ажлаа": 4570,
      "##гүйгээр": 4571,
      "төрсөн": 4572,
      "##сай": 4573,
      "ийг": 4574,
      "алдар": 4575,
      "хэдий": 4576,
      "зайл": 4577,
      "бичсэн": 4578,
      "үеэр": 4579,
      "шилж": 4580,
      "зорилго": 4581,
      "##ограм": 4582,
      "##бай": 4583,
      "болгож": 4584,
      "##сээр": 4585,
      "бөх": 4586,
      "мод": 4587,
      "түмэн": 4588,
      "нэвтр": 4589,
      "##өөц": 4590,
      "##хэг": 4591,
      "амр": 4592,
      "##vй": 4593,
      "бичл": 4594,
      "бичиг": 4595,
      "олох": 4596,
      "##сныг": 4597,
      "##даад": 4598,
      "бодит": 4599,
      "эмч": 4600,
      "нийс": 4601,
      "##руулах": 4602,
      "сайж": 4603,
      "удаан": 4604,
      "ахуй": 4605,
      "##уулалт": 4606,
      "технолог": 4607,
      "хамтр": 4608,
      "##vv": 4609,
      "програм": 4610,
      "##ныг": 4611,
      "тэтг": 4612,
      "тээв": 4613,
      "##re": 4614,
      "##саа": 4615,
      "хүсч": 4616,
      "гэлээ": 4617,
      "199": 4618,
      "танай": 4619,
      "үүсг": 4620,
      "мэдээллийг": 4621,
      "төгрөг": 4622,
      "сонголт": 4623,
      "гэмт": 4624,
      "сав": 4625,
      "харамс": 4626,
      "17": 4627,
      "ухаа": 4628,
      "байдлыг": 4629,
      "13": 4630,
      "бурханы": 4631,
      "16": 4632,
      "зохиц": 4633,
      "бал": 4634,
      "зу": 4635,
      "дотоод": 4636,
      "дөрвөн": 4637,
      "хэлбэл": 4638,
      "үзсэн": 4639,
      "хуур": 4640,
      "оруулах": 4641,
      "сэтгүүл": 4642,
      "энгийн": 4643,
      "##эхүүн": 4644,
      "##уулга": 4645,
      "байхыг": 4646,
      "тусл": 4647,
      "чамд": 4648,
      "##үүлэг": 4649,
      "тэднийг": 4650,
      "дүү": 4651,
      "##ахыг": 4652,
      "дүгн": 4653,
      "зориулсан": 4654,
      "бодох": 4655,
      "гишүүд": 4656,
      "цахим": 4657,
      "гом": 4658,
      "##ol": 4659,
      "хувцас": 4660,
      "мөнгөн": 4661,
      "бүтээгдэхүүн": 4662,
      "түвшин": 4663,
      "хяз": 4664,
      "амьдрах": 4665,
      "буу": 4666,
      "##санд": 4667,
      "хэмжээнд": 4668,
      "зо": 4669,
      "тон": 4670,
      "төхөөр": 4671,
      "ажилладаг": 4672,
      "сек": 4673,
      "барих": 4674,
      "чиглэл": 4675,
      "эрэгтэй": 4676,
      "ариу": 4677,
      "##хийг": 4678,
      "##ааны": 4679,
      "##хэнэ": 4680,
      "хөгжил": 4681,
      "ха": 4682,
      "##хны": 4683,
      "бололтой": 4684,
      "50": 4685,
      "мор": 4686,
      "дээш": 4687,
      "дэвш": 4688,
      "25": 4689,
      "төлөвлөгөө": 4690,
      "жур": 4691,
      "эцэс": 4692,
      "хэрэглэх": 4693,
      "хязгаар": 4694,
      "шудар": 4695,
      "худалдан": 4696,
      "өч": 4697,
      "##иан": 4698,
      "хулг": 4699,
      "байгууллага": 4700,
      "төхөөрөмж": 4701,
      "##уулаад": 4702,
      "хориг": 4703,
      "зүрх": 4704,
      "эзэм": 4705,
      "##лайн": 4706,
      "сургууль": 4707,
      "тэдгээр": 4708,
      "##ев": 4709,
      "захиал": 4710,
      "##аахан": 4711,
      "төлөвл": 4712,
      "сайт": 4713,
      "пар": 4714,
      "##лагч": 4715,
      "маргаа": 4716,
      "арил": 4717,
      "тос": 4718,
      "жинхэнэ": 4719,
      "##огч": 4720,
      "бичлэг": 4721,
      "##баяр": 4722,
      "нэл": 4723,
      "##дэггүй": 4724,
      "##омжтой": 4725,
      "суурь": 4726,
      "өвч": 4727,
      "явдаг": 4728,
      "##хгүй": 4729,
      "зарц": 4730,
      "жүжиг": 4731,
      "дас": 4732,
      "мэднэ": 4733,
      "##агдаж": 4734,
      "улам": 4735,
      "орчим": 4736,
      "эргэл": 4737,
      "сонирхолтой": 4738,
      "шир": 4739,
      "мэдээллийн": 4740,
      "нутаг": 4741,
      "##гу": 4742,
      "##нээр": 4743,
      "гэдгээ": 4744,
      "бүлийн": 4745,
      "##гөж": 4746,
      "үүрэг": 4747,
      "гайх": 4748,
      "тушаал": 4749,
      "##ья": 4750,
      "эхлэх": 4751,
      "онлайн": 4752,
      "##варын": 4753,
      "харилц": 4754,
      "мэргэжлийн": 4755,
      "суралц": 4756,
      "байл": 4757,
      "##лон": 4758,
      "орд": 4759,
      "##лаад": 4760,
      "интер": 4761,
      "хэрэглээ": 4762,
      "бүлэг": 4763,
      "барьж": 4764,
      "баталгаа": 4765,
      "жилд": 4766,
      "очиж": 4767,
      "гайхалтай": 4768,
      "үнэг": 4769,
      "хийнэ": 4770,
      "##лагын": 4771,
      "##есс": 4772,
      "улир": 4773,
      "ижил": 4774,
      "шийд": 4775,
      "байнга": 4776,
      "жир": 4777,
      "бүрд": 4778,
      "гэдэгт": 4779,
      "сургуулийн": 4780,
      "туслах": 4781,
      "өнгө": 4782,
      "дэх": 4783,
      "##кс": 4784,
      "##порт": 4785,
      "гер": 4786,
      "яам": 4787,
      "##арх": 4788,
      "сонин": 4789,
      "ялгаа": 4790,
      "##вэр": 4791,
      "##огт": 4792,
      "маргааш": 4793,
      "шагн": 4794,
      "##тийн": 4795,
      "##өөсөө": 4796,
      "##мс": 4797,
      "##пп": 4798,
      "санхүүгийн": 4799,
      "##am": 4800,
      "бодлого": 4801,
      "##икийн": 4802,
      "хоногт": 4803,
      "одоогоор": 4804,
      "нөөц": 4805,
      "чул": 4806,
      "тусгай": 4807,
      "удаагийн": 4808,
      "хөдөлмөр": 4809,
      "өрс": 4810,
      "сууж": 4811,
      "гэрийн": 4812,
      "2020": 4813,
      "аргагүй": 4814,
      "онгоц": 4815,
      "!!!": 4816,
      "тут": 4817,
      "хүрт": 4818,
      "хятадын": 4819,
      "эрчим": 4820,
      "##ээх": 4821,
      "болз": 4822,
      "өгнө": 4823,
      "хаш": 4824,
      "##лжээ": 4825,
      "шударга": 4826,
      "##гаараа": 4827,
      "##ed": 4828,
      "##длыг": 4829,
      "сул": 4830,
      "тусламж": 4831,
      "зай": 4832,
      "авдаг": 4833,
      "ашиглаж": 4834,
      "хөгжлийн": 4835,
      "##охой": 4836,
      "алив": 4837,
      "хангалт": 4838,
      "сэрг": 4839,
      "хэрэглэг": 4840,
      "англи": 4841,
      "хийгээд": 4842,
      "вид": 4843,
      "насан": 4844,
      "гр": 4845,
      "шинжил": 4846,
      "үнэгүй": 4847,
      "өргөн": 4848,
      "өөрсдөө": 4849,
      "хамр": 4850,
      "биднийг": 4851,
      "зүйн": 4852,
      "хохир": 4853,
      "##мээр": 4854,
      "компанийн": 4855,
      "өөрчлөгд": 4856,
      "тэнгэр": 4857,
      "хос": 4858,
      "өөрсдийн": 4859,
      "эргэн": 4860,
      "##лүүлэх": 4861,
      "##агдах": 4862,
      "худалдаж": 4863,
      "24": 4864,
      "##тайгаа": 4865,
      "байдаггүй": 4866,
      "гарг": 4867,
      "виде": 4868,
      "яваа": 4869,
      "##el": 4870,
      "минутын": 4871,
      "##is": 4872,
      "сонгуулийн": 4873,
      "чим": 4874,
      "##энтэй": 4875,
      "##ау": 4876,
      "төсөл": 4877,
      "мө": 4878,
      "сургалт": 4879,
      "цэг": 4880,
      "одоогийн": 4881,
      "баярлалаа": 4882,
      "##гыг": 4883,
      "шор": 4884,
      "байгууллагын": 4885,
      "##цээ": 4886,
      "чаддаг": 4887,
      "арван": 4888,
      "замын": 4889,
      "доллар": 4890,
      "удахгүй": 4891,
      "##төр": 4892,
      "##гvй": 4893,
      "##барын": 4894,
      "##ээж": 4895,
      "суул": 4896,
      "##лагд": 4897,
      "тээр": 4898,
      "##лагатай": 4899,
      "хүмүүсийг": 4900,
      "##лээд": 4901,
      "багт": 4902,
      "оруулж": 4903,
      "ажээ": 4904,
      "өгдөг": 4905,
      "##вол": 4906,
      "##ериал": 4907,
      "кон": 4908,
      "##ноо": 4909,
      "##энгүй": 4910,
      "хатуу": 4911,
      "шинжилгээ": 4912,
      "өгөө": 4913,
      "нийтлэл": 4914,
      "нутагт": 4915,
      "нээлт": 4916,
      "##иуд": 4917,
      "ne": 4918,
      "##оохон": 4919,
      "бичих": 4920,
      "ойлгож": 4921,
      "хаал": 4922,
      "##шаа": 4923,
      "тусгаар": 4924,
      "өгүүл": 4925,
      "хүсэлт": 4926,
      "2016": 4927,
      "##хоо": 4928,
      "##агийн": 4929,
      "##гааны": 4930,
      "хүрээнд": 4931,
      "бэрх": 4932,
      "гуй": 4933,
      "тэгж": 4934,
      "хувил": 4935,
      "##шигч": 4936,
      "##нүүд": 4937,
      "тохиолдол": 4938,
      "хаж": 4939,
      "##луулах": 4940,
      "##ндаа": 4941,
      "төсв": 4942,
      "##ro": 4943,
      "хараад": 4944,
      "##эгдэл": 4945,
      "бүгдийг": 4946,
      "тавьж": 4947,
      "гэжээ": 4948,
      "бариг": 4949,
      "европын": 4950,
      "материал": 4951,
      "тах": 4952,
      "зөвлөгөө": 4953,
      "бүртгэл": 4954,
      "##as": 4955,
      "##ед": 4956,
      "юмаа": 4957,
      "тэнэг": 4958,
      "##уулагч": 4959,
      "хотод": 4960,
      "##...": 4961,
      "шах": 4962,
      "хүй": 4963,
      "пор": 4964,
      "энэт": 4965,
      "яд": 4966,
      "тавих": 4967,
      "бээл": 4968,
      "##маас": 4969,
      "бөмб": 4970,
      "##ги": 4971,
      "блог": 4972,
      "##гт": 4973,
      "##ay": 4974,
      "үүнд": 4975,
      "мөрөөд": 4976,
      "салбарт": 4977,
      "##еж": 4978,
      "чадсан": 4979,
      "гэхээр": 4980,
      "хамаагүй": 4981,
      "утга": 4982,
      "идэв": 4983,
      "япон": 4984,
      "үедээ": 4985,
      "##акц": 4986,
      "хамтран": 4987,
      "доор": 4988,
      "нарийн": 4989,
      "40": 4990,
      "##ашин": 4991,
      "өмс": 4992,
      "хялбар": 4993,
      "үнэндээ": 4994,
      "##гана": 4995,
      "цагдаагийн": 4996,
      "олд": 4997,
      "##тол": 4998,
      "21": 4999
    }
  }
}