<unk>	0
<s>	0
</s>	0
.	-2.91147
,	-4.01602
▁нь	-4.2072
▁байна	-4.71247
▁юм	-4.86815
▁ч	-5.00694
д	-5.05557
▁гэж	-5.16763
▁л	-5.1769
-	-5.23785
ын	-5.26823
ийн	-5.27551
▁байгаа	-5.3021
▁	-5.30898
▁"	-5.3229
"	-5.346
▁-	-5.35136
?	-5.35246
▁бол	-5.43678
г	-5.50901
н	-5.53479
:	-5.54298
▁энэ	-5.58914
ийг	-5.59616
гүй	-5.59766
ыг	-5.60371
▁Энэ	-5.63882
▁байсан	-5.65164
т	-5.73364
▁нэг	-5.82286
▁байх	-5.8231
▁хүн	-5.87872
ээ	-5.94796
▁уу	-6.00074
аа	-6.01986
▁болно	-6.04046
▁их	-6.06844
тай	-6.08755
х	-6.10684
р	-6.12885
▁би	-6.13904
▁вэ	-6.15454
▁та	-6.16601
▁байдаг	-6.18988
ж	-6.19195
...	-6.20323
▁гэсэн	-6.23014
▁дээр	-6.24509
▁дээ	-6.24846
▁...	-6.2856
с	-6.29226
▁олон	-6.3178
тэй	-6.33385
▁ямар	-6.34697
▁Би	-6.35323
▁юу	-6.35685
▁шүү	-6.39243
▁тэр	-6.4169
▁биш	-6.43603
ны	-6.49184
ч	-6.55335
▁хамгийн	-6.56751
аар	-6.56961
▁хэрэгтэй	-6.58155
▁болон	-6.58494
▁сайн	-6.59559
▁болох	-6.59732
аас	-6.61701
▁бид	-6.62868
▁Та	-6.66556
)	-6.67089
▁болсон	-6.67617
ад	-6.68365
▁хоёр	-6.6877
▁гэдэг	-6.68846
▁зүйл	-6.73473
▁шиг	-6.73728
л	-6.74511
▁ёстой	-6.74774
▁өмнө	-6.74897
▁байж	-6.77246
▁(	-6.77895
!	-6.78699
▁чинь	-6.78828
▁үед	-6.80814
▁бүх	-6.8094
▁болж	-6.81855
▁Тэр	-6.82421
▁улс	-6.82961
▁жил	-6.83213
▁үү	-6.84507
▁цаг	-6.8461
▁маш	-6.85017
▁Харин	-6.8831
▁хүмүүс	-6.89603
сан	-6.90488
▁илүү	-6.91337
▁даа	-6.9194
▁талаар	-6.92043
▁оны	-6.92837
ээр	-6.93103
▁өөр	-6.94786
▁бас	-6.94989
▁хийж	-6.96189
▁гээд	-6.98088
▁жилийн	-6.98276
▁дараа	-6.99077
▁хувьд	-6.99184
▁сарын	-7.00366
▁бөгөөд	-7.02045
▁тухай	-7.02344
▁2	-7.02498
▁өдөр	-7.0256
▁Монгол	-7.03287
▁газар	-7.04972
▁үйл	-7.05289
даа	-7.05548
гийн	-7.05732
ээс	-7.05822
▁Гэхдээ	-7.06415
▁авах	-7.0656
▁буй	-7.07208
▁хийх	-7.07456
▁бүр	-7.07675
▁ийм	-7.07764
▁онд	-7.08983
▁ажил	-7.09392
▁одоо	-7.10245
а	-7.10293
▁нар	-7.10338
▁минь	-7.1041
▁үг	-7.10908
▁авч	-7.11651
▁байхгүй	-7.12862
▁Бид	-7.13362
▁бий	-7.13682
▁хэн	-7.14216
▁бэ	-7.1526
ний	-7.16879
▁.	-7.18337
эд	-7.18413
▁хүний	-7.18958
▁үр	-7.19317
▁нэгэн	-7.19451
▁эрх	-7.20382
оо	-7.20594
▁сайхан	-7.20699
нд	-7.20877
▁миний	-7.22079
▁арга	-7.23068
▁улсын	-7.23416
▁шинэ	-7.23952
даг	-7.25421
в	-7.26751
▁билээ	-7.27008
▁ба	-7.27135
▁том	-7.27868
▁боломжтой	-7.27944
▁нэр	-7.2849
▁байлаа	-7.29176
на	-7.29993
▁Б	-7.30695
▁удаа	-7.32888
ан	-7.34414
▁тулд	-7.34477
▁хэрэг	-7.34528
▁гэдгийг	-7.3573
▁Мөн	-7.36808
▁хэдэн	-7.37622
▁хэрхэн	-7.37965
дээ	-7.3829
▁мөн	-7.38747
▁аж	-7.38991
▁эсвэл	-7.39274
v	-7.39653
ц	-7.39713
▁1	-7.39736
▁асуудал	-7.39838
ш	-7.40218
▁3	-7.40871
▁орон	-7.41011
/	-7.41308
▁таны	-7.41692
▁маань	-7.42396
▁дахь	-7.4399
▁гэр	-7.44186
▁санал	-7.44561
ы	-7.45699
ууд	-7.45706
▁чи	-7.46151
▁хүртэл	-7.466
▁болохгүй	-7.47246
▁гэх	-7.47658
▁ирсэн	-7.47952
▁тийм	-7.48138
ий	-7.4816
▁дахин	-7.48286
▁10	-7.50172
▁Одоо	-7.50308
▁манай	-7.50347
▁өөрийн	-7.50387
▁ээ	-7.50395
▁Миний	-7.50945
▁зөв	-7.51224
▁хэмээн	-7.52558
▁чадахгүй	-7.52835
▁чухал	-7.53041
той	-7.53198
▁С	-7.53379
м	-7.55147
▁тус	-7.55787
▁Тиймээс	-7.5799
▁хийсэн	-7.5849
▁төлөө	-7.58624
▁авсан	-7.60088
▁хүнд	-7.60424
▁аль	-7.60619
▁эх	-7.60816
▁түүний	-7.61048
▁гар	-7.61276
▁бие	-7.61512
▁хар	-7.61613
▁хувь	-7.61755
▁/	-7.6222
▁төрийн	-7.6232
▁бага	-7.62413
▁байв	-7.63051
▁гарч	-7.6334
▁Х	-7.63579
сэн	-7.63679
▁хэзээ	-7.64055
й	-7.6493
▁ажиллаж	-7.65144
▁гол	-7.65247
▁өөрөө	-7.65359
▁бодож	-7.66471
▁албан	-7.66576
▁УИХ	-7.66639
▁зөвхөн	-7.66714
▁хойш	-7.66758
▁Хэрэв	-7.66819
▁учраас	-7.67928
▁биз	-7.68166
аад	-7.68167
▁Д	-7.68459
з	-7.68683
▁бусад	-7.69006
▁ард	-7.69617
▁надад	-7.69771
▁өндөр	-7.69969
▁яаж	-7.70053
ид	-7.704
▁руу	-7.70741
▁АНУ	-7.71012
▁мэдээлэл	-7.71087
▁5	-7.71113
▁болов	-7.72198
▁Тэд	-7.72307
▁үнэ	-7.72768
▁орж	-7.73009
лаа	-7.73888
▁хэл	-7.74191
▁яагаад	-7.74446
▁мөнгө	-7.74473
▁байдал	-7.74611
▁хууль	-7.74841
▁сэтгэл	-7.74994
ах	-7.75176
▁яг	-7.75257
▁тэд	-7.75291
▁4	-7.75363
▁хугацаанд	-7.75658
▁Н	-7.75749
▁сая	-7.76005
▁намайг	-7.76037
▁хамт	-7.76711
▁Монголын	-7.77231
▁болохоор	-7.77432
▁байхад	-7.77571
▁хүүхэд	-7.77604
▁Нэг	-7.77907
▁зарим	-7.78234
▁хэлж	-7.78241
▁явж	-7.78842
▁гэнэ	-7.79987
▁Манай	-7.80063
▁байр	-7.80089
▁ажлын	-7.8038
▁тодорхой	-7.80792
▁бус	-7.81088
▁дарга	-7.81159
▁Т	-7.81165
▁мэт	-7.81511
▁тул	-7.81552
▁газрын	-7.81916
хан	-7.82524
▁Гэтэл	-7.83124
▁үүнийг	-7.83453
э	-7.8359
▁бидний	-7.83743
о	-7.84215
▁олж	-7.84235
▁Засгийн	-7.84292
▁аа	-7.85829
эн	-7.86501
▁санаа	-7.86541
▁зураг	-7.86801
s	-7.86933
оор	-7.87047
▁өнөөдөр	-7.87947
ь	-7.87984
и	-7.88007
"-	-7.881
▁х	-7.88447
▁Тэгээд	-7.88698
▁муу	-7.88847
▁дотор	-7.88925
▁ирэх	-7.89078
▁_	-7.89688
хүү	-7.90009
▁үнэхээр	-7.90231
▁үе	-7.90372
▁дуртай	-7.91137
▁түүнийг	-7.9116
▁Ийм	-7.91491
▁бүрэн	-7.91553
▁хэсэг	-7.91834
▁байгааг	-7.9186
өө	-7.92087
▁нас	-7.92119
▁тал	-7.92254
▁дэлхийн	-7.92674
▁өгөх	-7.93239
жээ	-7.93377
;	-7.93636
▁дуу	-7.93779
▁харж	-7.93946
▁мэдэх	-7.93975
гаа	-7.94307
▁эмэгтэй	-7.94499
▁гурван	-7.94524
оос	-7.94674
▁эдийн	-7.94938
▁өгсөн	-7.94953
▁Чи	-7.95007
▁Таны	-7.95354
▁болоод	-7.95867
▁байвал	-7.95876
▁сайд	-7.96218
▁сар	-7.96556
▁холбоотой	-7.967
▁хүлээн	-7.9694
▁хэлсэн	-7.97127
▁энд	-7.97494
▁буюу	-7.97557
▁учир	-7.97596
▁Улсын	-7.97659
▁гарсан	-7.97703
▁өөрийгөө	-7.97961
▁шаардлагатай	-7.98684
▁танд	-7.98701
▁А	-7.9894
▁хугацаа	-7.9894
▁ганц	-7.98942
▁зохион	-7.99322
▁Г	-7.99343
▁асуудлыг	-7.99374
▁боломж	-7.99531
▁тоо	-7.99553
▁М	-7.99669
▁үгүй	-7.99829
▁долоо	-7.99943
▁Гэвч	-8.00738
▁төрлийн	-8.0087
▁гаруй	-8.00875
▁явах	-8.00896
он	-8.01177
▁засгийн	-8.01193
▁ам	-8.01571
од	-8.0177
▁төр	-8.01771
ав	-8.02025
▁үнэн	-8.0215
▁үеийн	-8.02247
▁ажиллах	-8.02346
▁харин	-8.02376
Би	-8.02838
▁гишүүн	-8.03045
дэг	-8.03209
▁Түүний	-8.03615
▁дунд	-8.03784
▁хэмжээ	-8.03948
▁ш	-8.0479
▁зүйлийг	-8.05951
Д	-8.06074
▁улсад	-8.06245
▁залуу	-8.06329
▁эрүүл	-8.06394
▁7	-8.06532
▁байдлаар	-8.06715
ал	-8.06762
▁зүгээр	-8.068
Т	-8.06974
▁ингэж	-8.07142
▁яах	-8.07399
▁зам	-8.0745
▁боллоо	-8.07519
▁Тийм	-8.07538
▁хөрөнгө	-8.07636
▁Ц	-8.07818
С	-8.07909
үүд	-8.08011
▁мэдэхгүй	-8.08279
▁дугаар	-8.08336
▁боловч	-8.08344
▁уг	-8.08357
▁зах	-8.08414
нэ	-8.08675
▁гэвэл	-8.09015
▁анх	-8.09375
▁20	-8.09462
▁хэр	-8.10232
▁хэд	-8.10524
хаа	-8.1087
лээ	-8.11021
▁найз	-8.11487
▁он	-8.11636
▁бай	-8.11709
▁хэцүү	-8.12091
▁авна	-8.12177
▁Өнөөдөр	-8.12326
▁нийт	-8.12397
▁Олон	-8.12473
▁дагуу	-8.12486
▁алга	-8.1261
▁ярьж	-8.13022
▁ажиллагаа	-8.13135
▁Хүн	-8.13379
▁У	-8.13391
▁Ямар	-8.13496
е	-8.1351
▁Үүнийг	-8.13516
▁б	-8.13914
▁болжээ	-8.14066
сон	-8.14269
▁сард	-8.14669
▁бүгд	-8.14701
к	-8.14736
А	-8.14838
▁машин	-8.14938
Х	-8.15477
▁6	-8.15508
▁гаргаж	-8.15727
▁нөхцөл	-8.15781
▁хоол	-8.15811
▁ирж	-8.16703
▁болдог	-8.16768
▁гэхэд	-8.1684
▁явдал	-8.17141
▁Их	-8.17196
▁өнгөрсөн	-8.17318
Б	-8.17405
▁Ер	-8.1771
▁анхны	-8.17864
▁Тэгвэл	-8.182
наас	-8.18211
чин	-8.18263
▁эр	-8.18501
▁Уг	-8.18616
▁шууд	-8.18637
▁зэрэг	-8.18672
лах	-8.18889
▁байгаад	-8.19205
▁гэв	-8.19309
▁Улс	-8.1967
▁настай	-8.19708
▁ээж	-8.20272
▁хүнийг	-8.2043
▁мэдээ	-8.20834
ин	-8.20924
▁нам	-8.21168
▁О	-8.21188
▁шийдвэр	-8.21685
чих	-8.21782
▁8	-8.21839
▁хүлээж	-8.22156
▁болгон	-8.22178
▁тэдний	-8.22218
▁Хамгийн	-8.22359
▁хуулийн	-8.22782
▁буруу	-8.22914
▁байжээ	-8.23066
▁тухайн	-8.23172
▁хэрэггүй	-8.2346
▁Бүх	-8.24157
гээ	-8.24396
▁гарах	-8.24502
вал	-8.24608
▁үзэж	-8.24812
▁чадах	-8.24834
▁хүү	-8.24968
▁хийдэг	-8.25145
ар	-8.25668
▁хүмүүсийн	-8.25724
▁охин	-8.25734
▁компани	-8.26333
▁хоног	-8.2707
▁За	-8.27132
▁тохиолдолд	-8.27606
▁амьдрал	-8.27681
▁магадгүй	-8.27682
▁гаргах	-8.27812
▁өдрийн	-8.28014
▁бараг	-8.28254
▁19	-8.2856
▁боддог	-8.28685
аж	-8.28761
▁өгч	-8.28903
▁бүхэн	-8.29045
▁Тэрээр	-8.29202
Н	-8.2927
▁бүрийн	-8.29614
лан	-8.29694
▁иргэд	-8.29766
▁бүү	-8.29884
▁нутгийн	-8.29955
▁сүүлийн	-8.3006
анд	-8.30154
▁хот	-8.3019
▁Эдгээр	-8.30302
▁ном	-8.30509
▁болгох	-8.30516
я	-8.30571
Г	-8.30615
▁гаргасан	-8.30948
▁үзэх	-8.31015
▁хэлэх	-8.31382
▁цагийн	-8.31441
▁Хэрвээ	-8.3175
ор	-8.31797
▁гадна	-8.31867
▁монгол	-8.31939
y	-8.31986
▁кино	-8.32099
▁Ч	-8.32125
▁АН	-8.32141
б	-8.32143
e	-8.32253
▁S	-8.32331
▁эдгээр	-8.32466
▁үргэлж	-8.33006
Та	-8.33184
▁дээрх	-8.33745
▁хоногийн	-8.33864
▁орсон	-8.3419
▁багш	-8.3443
▁Дэлхийн	-8.34531
гаар	-8.34648
гүйгээр	-8.34726
▁баяр	-8.35072
▁З	-8.35588
▁заавал	-8.35801
▁Яагаад	-8.3591
▁байгаагүй	-8.3606
▁цагт	-8.36176
▁боломжгүй	-8.36778
▁12	-8.36881
▁чадна	-8.36986
▁адил	-8.37075
▁бүхий	-8.37092
▁эсрэг	-8.37113
▁хэмжээний	-8.3758
▁Учир	-8.37774
▁МАН	-8.37863
▁зээл	-8.37975
эл	-8.38626
▁хаана	-8.38939
▁аав	-8.39884
▁мэдэж	-8.39934
▁Монголд	-8.39946
У	-8.40075
▁энэхүү	-8.40365
▁дээрээ	-8.40444
▁явсан	-8.40653
▁дээд	-8.40803
▁аваад	-8.41263
▁эхэлсэн	-8.41359
▁эхний	-8.41612
▁дараах	-8.4164
уудыг	-8.41932
▁бэлэн	-8.41975
▁эд	-8.42111
уу	-8.42208
▁бидэнд	-8.42407
хэн	-8.42556
▁хөл	-8.42564
▁орох	-8.42858
▁Л	-8.4297
▁Тэгэхээр	-8.43017
p	-8.43058
▁хурдан	-8.43074
▁Шинэ	-8.43129
▁11	-8.43234
▁амжилт	-8.43258
▁Зарим	-8.43357
▁Ерөнхийлөгч	-8.43417
▁хувийн	-8.43649
▁хамгаалах	-8.43791
▁байхдаа	-8.43792
▁болохыг	-8.43832
▁мянган	-8.43966
▁нарын	-8.44044
үү	-8.44102
▁хүчин	-8.44166
2	-8.44206
▁тань	-8.44549
өөр	-8.44606
▁огт	-8.44615
гээр	-8.44921
ам	-8.45041
▁оноос	-8.45106
▁т	-8.45111
▁100	-8.45125
▁гэхдээ	-8.45138
▁шаардлага	-8.4521
1	-8.45275
ов	-8.45312
▁оронд	-8.45594
▁Ингээд	-8.45726
эх	-8.45832
▁Үүний	-8.46189
▁ашиглах	-8.4641
▁хүмүүст	-8.46661
▁амьдарч	-8.46684
▁дүн	-8.46726
o	-8.47332
▁хүч	-8.4738
М	-8.47521
▁30	-8.47597
ил	-8.47653
▁дэлхий	-8.47728
▁үл	-8.47806
▁ажлыг	-8.4784
доо	-8.47853
▁хүсч	-8.47915
▁болгож	-8.47918
▁турш	-8.47939
▁гоё	-8.47992
▁өөрчлөлт	-8.47996
▁ах	-8.48186
▁И	-8.48564
▁харах	-8.48832
a	-8.48983
3	-8.49332
но	-8.4935
▁баримт	-8.49397
▁15	-8.49854
▁аюулгүй	-8.49956
у	-8.49979
▁ер	-8.50018
▁ажилд	-8.50078
▁Төрийн	-8.50245
▁аз	-8.50418
▁ярих	-8.50471
▁бичсэн	-8.50513
vv	-8.50619
▁ус	-8.50863
▁Э	-8.50901
ээд	-8.5119
▁•	-8.51262
▁ашиг	-8.51341
▁хайртай	-8.51354
лэг	-8.51563
▁Тэрбээр	-8.51659
▁9	-8.51837
▁шалтгаан	-8.51847
ө	-8.51992
▁дор	-8.52185
▁Ерөнхий	-8.52216
▁хүссэн	-8.52246
▁Яг	-8.52258
га	-8.52544
▁үеэр	-8.52633
▁хотын	-8.52657
▁мэддэг	-8.5291
▁намын	-8.5294
▁засаг	-8.53081
▁насны	-8.53118
▁байдлыг	-8.53184
▁ажлаа	-8.53203
▁Бурхан	-8.53424
▁хэлбэл	-8.53473
ер	-8.53574
▁Мэдээж	-8.53899
▁а	-8.5401
▁явдаг	-8.54013
Л	-8.54077
▁орны	-8.54149
▁Бас	-8.5425
▁Бидний	-8.54929
▁мэдээллийг	-8.54945
▁тэгээд	-8.55026
▁амьдралын	-8.55306
▁аймгийн	-8.55376
▁бүл	-8.55492
▁хэмжээнд	-8.55933
▁зориулсан	-8.55957
▁хуудас	-8.56038
▁хайр	-8.5614
▁гэлээ	-8.56257
ас	-8.56292
▁рүү	-8.56384
▁төрсөн	-8.56404
▁ажилладаг	-8.56418
▁урт	-8.56483
▁бололтой	-8.56592
▁за	-8.56722
▁хүүхдийн	-8.56854
эр	-8.57119
▁гишүүд	-8.5715
▁өөртөө	-8.57267
Энэ	-8.57427
аараа	-8.57699
▁ил	-8.5784
хээ	-8.57863
▁гэдэгт	-8.57929
▁нөгөө	-8.58033
▁чамайг	-8.58096
▁Хэн	-8.58118
▁эмч	-8.58283
▁Ж	-8.58409
mn	-8.58422
▁мэднэ	-8.58659
өөс	-8.58692
▁арай	-8.58729
▁ав	-8.58863
▁шинж	-8.59016
Р	-8.59094
▁18	-8.59257
▁удаан	-8.59482
▁иргэн	-8.59495
▁байхыг	-8.59778
▁нийтийн	-8.59839
▁ял	-8.60131
▁битгий	-8.60348
▁с	-8.60387
▁түүнд	-8.60552
▁гэдгээ	-8.60614
▁тун	-8.60858
▁барьж	-8.60861
ү	-8.60963
▁үзсэн	-8.61516
▁өөрийнхөө	-8.61584
▁B	-8.61613
▁уран	-8.61783
▁Бурханы	-8.61785
▁түмэн	-8.61818
▁таныг	-8.62101
чид	-8.62217
▁Хятад	-8.6224
▁баг	-8.62329
И	-8.62978
▁хийнэ	-8.6306
эг	-8.6311
лэн	-8.6313
▁өмнөх	-8.63225
▁C	-8.63319
▁үүрэг	-8.63394
▁шилдэг	-8.63402
▁хэдий	-8.63446
ай	-8.63717
▁н	-8.63739
D	-8.6388
▁эцэг	-8.63939
лийн	-8.64002
нээс	-8.64548
▁Үүнээс	-8.64851
▁доо	-8.64897
▁Хоёр	-8.65079
▁байгууллага	-8.65084
▁амь	-8.65106
▁сууж	-8.65114
▁ихэнх	-8.65203
▁бизнес	-8.65257
лэх	-8.65334
▁улам	-8.65425
▁хол	-8.65427
▁Орос	-8.65561
▁удаагийн	-8.65913
Э	-8.66268
▁очиж	-8.66375
▁нутаг	-8.66447
▁дүр	-8.66588
▁өгнө	-8.66617
▁Нүүр	-8.6664
▁түүх	-8.6672
]	-8.66735
▁хоногт	-8.66787
▁бүсгүй	-8.66979
▁үйлчилгээ	-8.67174
ана	-8.67404
▁ирээд	-8.67581
4	-8.67587
▁авдаг	-8.67601
уудын	-8.67604
▁чиний	-8.67697
О	-8.67716
i	-8.6825
▁бодлого	-8.6832
▁хийгээд	-8.68417
▁хүүхдүүд	-8.68425
▁ашиглаж	-8.68441
▁оруулж	-8.68459
▁К	-8.68491
5	-8.68515
▁худалдан	-8.69163
▁зүйн	-8.692
P	-8.69228
▁чанар	-8.69338
▁барих	-8.69509
▁ач	-8.69543
▁дэх	-8.69587
▁орчим	-8.69655
▁төв	-8.69707
▁нөхөр	-8.69722
лаг	-8.6984
▁ёс	-8.69861
▁хий	-8.69942
▁гэртээ	-8.70003
▁итгэл	-8.70089
▁жижиг	-8.70124
▁орчин	-8.70153
▁олох	-8.70168
▁сонирхолтой	-8.70225
▁·	-8.70364
гч	-8.70464
▁байнга	-8.70525
▁сан	-8.70575
▁Дараа	-8.70685
▁дүү	-8.70724
▁салбарт	-8.70765
▁бичиг	-8.70823
▁Тус	-8.70995
▁үндсэн	-8.7104
▁минутын	-8.71176
▁хооронд	-8.71205
▁Хар	-8.71304
▁худалдаж	-8.71358
▁бүтээл	-8.71784
▁бутлуур	-8.71896
▁амьдрах	-8.71983
▁тоглоом	-8.72528
▁Энд	-8.72781
▁холбоо	-8.72842
▁Тэдний	-8.72877
▁чаддаг	-8.73014
t	-8.73026
▁ойлгож	-8.73065
саар	-8.73111
▁янз	-8.73173
▁дөрвөн	-8.73298
▁бичлэг	-8.73316
дог	-8.73351
▁таван	-8.73646
▁тохиолдол	-8.73685
▁аргагүй	-8.73741
▁ажээ	-8.7375
▁бүтээгдэхүүн	-8.73802
▁хариу	-8.73844
▁гайхалтай	-8.74069
▁өглөө	-8.7434
▁Гэр	-8.74467
▁хүрээнд	-8.74529
▁14	-8.74535
▁иргэдийн	-8.746
▁бодит	-8.74632
▁гэмт	-8.74713
▁төгрөг	-8.74723
▁энгийн	-8.74865
▁байдаггүй	-8.7489
▁жилд	-8.75383
▁ур	-8.75547
▁A	-8.75758
S	-8.7579
▁өргөн	-8.76072
аасаа	-8.76241
▁сонин	-8.76278
▁тавьж	-8.76393
c	-8.76523
эв	-8.76532
8	-8.76567
▁сонголт	-8.76645
▁сургууль	-8.76734
▁үздэг	-8.7677
▁гэхээр	-8.76775
▁П	-8.76846
▁туслах	-8.76853
ри	-8.76881
▁яваа	-8.76971
▁зан	-8.77206
▁хараад	-8.77248
▁нийгмийн	-8.77303
▁эхлээд	-8.77334
▁г	-8.77384
▁эргэн	-8.77827
▁бүс	-8.77992
▁төсөл	-8.78184
▁өөрсдөө	-8.78193
▁жинхэнэ	-8.78235
▁v	-8.7824
▁яриа	-8.78386
аг	-8.78518
▁тэрээр	-8.78561
▁Тухай	-8.78594
'	-8.786
▁тэнд	-8.78605
▁чамд	-8.78675
тан	-8.78681
лоо	-8.78861
▁гэрээ	-8.78901
▁явна	-8.78901
лын	-8.78904
▁гадаад	-8.78908
u	-8.79138
▁оруулах	-8.79181
▁дээш	-8.79447
З	-8.79514
эм	-8.79631
▁үзэл	-8.79632
▁хамаагүй	-8.79672
▁Өөрөөр	-8.79852
▁анги	-8.79932
лт	-8.79968
▁хатуу	-8.79985
▁мэдээллийн	-8.80098
▁Ш	-8.80201
▁үедээ	-8.80629
▁ор	-8.80717
▁өрөө	-8.80743
ээрээ	-8.80762
▁цагаан	-8.80763
▁хүмүүсийг	-8.80768
▁ерөнхий	-8.80815
ол	-8.80944
▁Хүний	-8.81069
▁зүйлс	-8.81225
лж	-8.81359
▁бээлий	-8.81394
▁Түүнийг	-8.81492
▁Зөвхөн	-8.81503
ир	-8.8151
▁мэнд	-8.81516
▁бүлийн	-8.81563
▁хотод	-8.8181
энд	-8.81813
ээсээ	-8.81888
▁сурах	-8.82398
▁толгой	-8.82462
өд	-8.82607
▁P	-8.82632
сөн	-8.82724
▁бүхнийг	-8.82744
▁ха	-8.82764
▁Намайг	-8.82945
▁үзүүлэх	-8.83066
▁зорилго	-8.83137
▁Өнгөрсөн	-8.83212
▁ижил	-8.83428
лаад	-8.83488
▁д	-8.83594
C	-8.83681
▁тусгай	-8.83751
▁хамтран	-8.83756
тайгаа	-8.83821
▁ажиллагааны	-8.8387
▁T	-8.8405
▁Хятадын	-8.84302
▁хэт	-8.84304
▁2020	-8.84337
▁[	-8.84499
▁Европын	-8.84622
▁байдалд	-8.84696
▁ухаан	-8.84878
▁гал	-8.85153
▁үнэгүй	-8.8522
маар	-8.85288
өл	-8.8544
▁2016	-8.85454
▁сургуулийн	-8.85474
▁халдвар	-8.85495
▁хүчний	-8.85578
▁жишээ	-8.85807
▁м	-8.85928
▁компанийн	-8.86008
п	-8.86264
▁загвар	-8.86373
6	-8.86417
▁уул	-8.86468
▁салбар	-8.86492
▁Сайн	-8.86495
▁тэднийг	-8.86506
▁нүүр	-8.86557
▁гэжээ	-8.8656
▁нууц	-8.86812
▁утас	-8.87121
▁татаж	-8.8726
тэйгээ	-8.8741
▁з	-8.87659
▁өгдөг	-8.87682
▁M	-8.87784
▁төхөөрөмж	-8.87805
▁бичиж	-8.87851
▁мэндийн	-8.87857
чил	-8.87935
▁газарт	-8.88048
хон	-8.88163
дан	-8.88205
▁байгууллагын	-8.88517
▁дараагийн	-8.88572
▁хүргэж	-8.88575
▁хүрч	-8.88619
Ш	-8.88672
▁эхнэр	-8.8869
ийнхээ	-8.8871
▁Бусад	-8.889
7	-8.89248
▁хангалттай	-8.89376
▁хүсэл	-8.89442
уул	-8.89521
ье	-8.89531
▁1-	-8.89821
▁50	-8.89824
▁Хүмүүс	-8.89846
▁хэлэхэд	-8.89925
жин	-8.89928
▁орой	-8.89979
▁мал	-8.90036
▁асуулт	-8.90038
▁сонгох	-8.90091
▁юмаа	-8.90355
▁нийтлэл	-8.90564
▁зүрх	-8.90627
▁хүчтэй	-8.90773
▁ярьдаг	-8.90947
▁F	-8.90968
▁сул	-8.91002
▁бичих	-8.91037
▁бүгдийг	-8.91179
▁2012	-8.9121
▁адилхан	-8.91266
им	-8.91373
▁17	-8.91549
▁үз	-8.91656
▁хор	-8.9171
▁хугацааны	-8.91802
▁улмаас	-8.91811
▁бодол	-8.91946
▁хүрсэн	-8.9204
▁уурхайн	-8.92076
▁нэлээд	-8.92326
сээр	-8.92607
▁нарийн	-8.9263
▁ар	-8.92725
▁хөгжлийн	-8.92744
n	-8.9283
▁санхүүгийн	-8.92971
▁хичээл	-8.93031
▁шударга	-8.93125
▁түр	-8.93196
▁яваад	-8.93336
▁үйлдвэр	-8.93522
▁тавих	-8.9355
▁тавьсан	-8.93713
▁бна	-8.93736
▁байгуулах	-8.9378
x	-8.93892
эй	-8.94038
▁I	-8.94064
G	-8.94076
▁мэргэжлийн	-8.94097
▁байдлын	-8.941
▁алдаа	-8.94178
▁өнгө	-8.94184
▁онгоц	-8.94223
▁13	-8.94341
лаж	-8.94347
▁тэрбум	-8.94604
гуй	-8.94668
дын	-8.94681
▁нутагт	-8.94689
▁Надад	-8.94961
▁хүнтэй	-8.94984
▁эхлэх	-8.95098
I	-8.95238
▁цахим	-8.95438
▁16	-8.95494
▁амьдардаг	-8.95534
чихсан	-8.95579
▁бүрт	-8.95593
▁яриад	-8.95639
▁ажилласан	-8.95652
▁давуу	-8.95661
▁хангах	-8.9576
▁хүрэх	-8.95845
▁40	-8.95856
▁Гэсэн	-8.96123
M	-8.96149
▁2017	-8.96191
MN	-8.96345
▁гараад	-8.9638
▁чадаагүй	-8.96438
▁Монголчууд	-8.96558
аагүй	-8.96575
▁баярлалаа	-8.96655
▁хэрэглэх	-8.96939
▁ОХУ	-8.97193
▁биднийг	-8.97245
▁байгаагаа	-8.97339
▁үйлдэл	-8.97341
▁үгийг	-8.97423
ун	-8.9744
гоо	-8.97489
▁тэнэг	-8.9752
▁алба	-8.97582
er	-8.97712
даж	-8.97825
▁мэдээж	-8.97851
▁эрэгтэй	-8.98056
▁сайт	-8.98245
▁харсан	-8.98255
▁боломжийг	-8.98293
▁зарна	-8.98344
Ц	-8.98365
▁амьд	-8.98369
ъя	-8.98423
▁амжилттай	-8.98429
▁шүүх	-8.98438
▁ирнэ	-8.98481
▁хэрэгсэл	-8.98518
▁Сүүлийн	-8.98577
▁үндэсний	-8.98613
▁хэв	-8.9863
▁минут	-8.98776
T	-8.99108
тал	-8.99181
B	-8.99203
▁хувцас	-8.99225
▁суурь	-8.99251
▁Ээж	-8.99283
9	-8.99347
▁жаахан	-8.99384
▁хэрэгжүүлэх	-8.99544
▁2018	-8.99703
▁судалгаа	-8.99963
▁бодсон	-8.99993
▁нарт	-9.0006
▁амар	-9.00066
▁амьдралд	-9.00114
▁хэлдэг	-9.00133
▁амиа	-9.00198
▁ёсны	-9.00278
▁харагдаж	-9.00288
▁Эх	-9.00356
!!!	-9.00387
▁хэргийн	-9.00507
▁талд	-9.00716
▁үнэтэй	-9.00727
▁хайж	-9.01071
ла	-9.01104
▁Гар	-9.0113
гийг	-9.01219
▁үлдсэн	-9.01305
▁бүтэн	-9.01405
дөө	-9.01525
▁амьтан	-9.01537
үүл	-9.01811
▁|	-9.01977
ли	-9.02011
▁сургуульд	-9.0202
▁төрөл	-9.02071
нууд	-9.02122
▁замын	-9.02309
▁G	-9.02434
▁бодох	-9.02439
▁уур	-9.02497
▁гурав	-9.02647
▁хаан	-9.0268
аарай	-9.02684
▁нөлөө	-9.02685
▁хаа	-9.02788
▁ахуйн	-9.02818
▁хялбар	-9.02832
A	-9.03074
сны	-9.03203
▁удахгүй	-9.03256
▁хэмжээг	-9.03271
O	-9.03328
▁зээлийн	-9.0335
▁лээ	-9.03482
▁систем	-9.03679
▁гардаг	-9.03726
вэл	-9.03728
▁дахиад	-9.03948
?"	-9.04004
▁газраас	-9.04047
▁ойр	-9.04404
▁ярьсан	-9.04418
▁мэд	-9.04422
▁маргааш	-9.04618
▁нэрийг	-9.04676
ни	-9.04687
▁цэргийн	-9.04732
▁Түүнчлэн	-9.04733
чууд	-9.0481
▁гарын	-9.04876
▁аварга	-9.04891
би	-9.04898
▁ажиллагааг	-9.0528
ос	-9.05429
▁дэмжиж	-9.05439
▁ойлгох	-9.05442
ка	-9.05453
▁суух	-9.05718
▁бод	-9.05752
өн	-9.05803
▁оролцох	-9.05817
▁дэмжлэг	-9.06146
▁эсэхийг	-9.06326
▁Ажил	-9.06454
▁хүсэж	-9.06503
Я	-9.06522
m	-9.0666
таа	-9.06669
▁яахав	-9.06709
E	-9.06747
▁ойлголт	-9.06815
▁тэдэнд	-9.06914
даггүй	-9.06989
▁ирдэг	-9.06995
▁дургүй	-9.07147
▁сонгуулийн	-9.07221
▁салбарын	-9.07472
▁Өөр	-9.0766
an	-9.07672
▁чадвар	-9.07851
▁2019	-9.07931
▁ороод	-9.08256
▁анхаарал	-9.08337
▁итгэлтэй	-9.08362
in	-9.08385
▁харилцаа	-9.08449
▁өөрчлөх	-9.08449
гаас	-9.08727
▁2-	-9.08751
▁24	-9.08807
▁төгс	-9.08863
▁эрчим	-9.08895
▁унших	-9.08911
▁томоохон	-9.08911
▁зүй	-9.08932
▁нөөц	-9.08993
▁нарыг	-9.09041
▁жаргалтай	-9.09052
▁дүнд	-9.09071
▁алдсан	-9.09135
▁соёл	-9.09156
▁чадсан	-9.09157
▁хүсдэг	-9.09268
▁Түүнээс	-9.0942
ю	-9.09453
d	-9.09667
▁шаардлагагүй	-9.09671
ит	-9.09806
▁Я	-9.09816
▁эм	-9.09833
▁ёсоор	-9.09962
▁Үндсэн	-9.09983
▁видео	-9.10011
▁эв	-9.10055
▁зар	-9.10141
▁оршин	-9.10161
▁2015	-9.10666
▁E	-9.10779
▁Магадгүй	-9.10931
үүдийг	-9.1098
▁ашигтай	-9.10989
▁Улаанбаатар	-9.11049
▁явуулж	-9.11065
Ү	-9.11139
▁алхам	-9.11143
▁тусламж	-9.1115
▁Америкийн	-9.11326
▁бараа	-9.11353
К	-9.11363
та	-9.11419
▁өөрсдийн	-9.11527
▁Цаг	-9.11571
▁эзэн	-9.11618
▁Ерөнхийлөгчийн	-9.11683
▁тод	-9.11725
▁нэмэлт	-9.11756
▁онцгой	-9.11807
▁тэгж	-9.11839
хи	-9.11945
▁Ф	-9.11999
▁хороо	-9.12084
▁тоног	-9.12125
▁талаас	-9.12391
▁хэлээд	-9.12398
▁Өмнөх	-9.12661
▁мод	-9.1277
▁Өөрийн	-9.12868
▁онлайн	-9.12878
▁дэмжих	-9.12899
▁цалин	-9.12926
▁Ө	-9.12988
▁Эсвэл	-9.13146
▁хэсэгт	-9.13247
▁тоглох	-9.13259
▁тээврийн	-9.13283
▁ир	-9.1341
▁дур	-9.13487
▁утга	-9.13502
▁сургалт	-9.13598
▁тээрэм	-9.13773
▁асуудлаар	-9.13777
▁шинээр	-9.1382
▁хэрэглэж	-9.13872
▁ол	-9.13939
▁байгуулсан	-9.13947
хгүй	-9.13984
▁идэх	-9.1405
▁бүлэг	-9.14059
ран	-9.14123
▁тоглолт	-9.14157
ен	-9.1418
▁ирлээ	-9.14325
▁25	-9.14647
▁давхар	-9.14689
▁зөвлөгөө	-9.1469
▁явуулах	-9.14802
▁D	-9.14807
▁Ажлын	-9.14991
L	-9.15008
▁учиртай	-9.15111
ох	-9.15127
b	-9.15136
▁тэмдэг	-9.15156
▁Эд	-9.15318
ган	-9.15324
уулах	-9.15463
al	-9.15501
▁эс	-9.15578
▁яв	-9.15667
▁#	-9.15714
▁Юу	-9.15787
▁компаниуд	-9.15876
руу	-9.15906
▁шалгалт	-9.15971
▁амархан	-9.16026
▁сонгуульд	-9.16046
тэн	-9.16132
Ж	-9.1617
ур	-9.16219
▁түүнээс	-9.16243
▁Нөгөө	-9.16247
▁Ар	-9.16318
▁хэвээр	-9.16328
ф	-9.16448
▁уншиж	-9.16507
▁шөнө	-9.16577
▁түвшинд	-9.16587
00	-9.16663
▁орнууд	-9.16761
ой	-9.16833
▁тохиромжтой	-9.16899
▁дэд	-9.17207
▁шагнал	-9.17303
Ч	-9.17425
В	-9.17569
▁програм	-9.1759
▁хяналт	-9.17669
▁доллар	-9.17825
▁холбогдох	-9.17829
▁хандаж	-9.17846
▁бэлэг	-9.17854
▁гэрэл	-9.17863
▁Ингэснээр	-9.17961
▁буу	-9.17967
▁замаар	-9.18058
ив	-9.18065
▁хөтөлбөр	-9.18183
▁очих	-9.18197
▁арван	-9.18233
▁ой	-9.18269
▁2014	-9.18285
▁Оросын	-9.18347
▁олгох	-9.18365
▁өдөрт	-9.18378
▁баяртай	-9.18496
өх	-9.18669
▁ид	-9.18733
▁асар	-9.18755
▁өвчин	-9.18784
▁шар	-9.18808
▁хувилбар	-9.1883
▁эгч	-9.18865
▁ганцаараа	-9.19029
маа	-9.19052
▁2008	-9.19093
▁хамтдаа	-9.19265
ынхаа	-9.19472
▁шат	-9.19478
дөг	-9.19595
дах	-9.19792
ing	-9.19905
▁нохой	-9.19906
▁цэвэр	-9.20047
уур	-9.20055
▁айл	-9.2008
▁Орон	-9.20172
▁даяар	-9.20255
▁мах	-9.20277
▁эрхийг	-9.2028
▁бодоод	-9.20371
▁хүүхдээ	-9.20481
▁тоглож	-9.205
▁татвар	-9.20528
▁хариуцлага	-9.20533
▁блог	-9.20922
▁чиг	-9.20944
▁түмний	-9.2103
▁харахад	-9.21085
ог	-9.2109
▁хийхэд	-9.21179
▁хоолой	-9.21397
▁Аав	-9.214
мн	-9.21461
▁В	-9.21479
▁байнаа	-9.2153
▁бэлтгэл	-9.21601
en	-9.21645
▁Япон	-9.21647
Ө	-9.21706
▁сонгууль	-9.21717
▁тэрбээр	-9.21768
▁Хүүхэд	-9.21825
▁олсон	-9.21876
иа	-9.21955
▁эхэлж	-9.22002
▁оролцож	-9.22047
▁онцлог	-9.2217
▁монголчууд	-9.22173
▁Жишээ	-9.22186
▁эрт	-9.22216
▁худалдаа	-9.22278
Эрдэнэ	-9.22317
▁тайван	-9.22326
▁банк	-9.22362
▁дотоод	-9.22575
▁хандах	-9.2259
▁в	-9.22606
▁гоо	-9.22612
▁болгосон	-9.22614
▁эхэллээ	-9.22615
l	-9.22624
▁байранд	-9.22679
▁өг	-9.22747
▁зургийг	-9.22749
▁үзээрэй	-9.22751
▁тайлбар	-9.22812
дийн	-9.22846
▁тав	-9.22853
▁дүрэм	-9.22909
▁татах	-9.22935
▁Хүүхдийн	-9.22937
оод	-9.23131
▁бүхэнд	-9.23293
▁эргэж	-9.23356
▁гарна	-9.23443
▁дүгнэлт	-9.23502
▁Үндэсний	-9.23511
рах	-9.23522
▁байсныг	-9.23699
le	-9.23726
▁Ард	-9.2376
за	-9.2376
▁зүйлээ	-9.23803
▁зүйтэй	-9.23826
▁худлаа	-9.23871
▁Ингэж	-9.23897
▁зүгээс	-9.23914
▁ажилтан	-9.24005
▁уулзалт	-9.24012
ноос	-9.24055
▁H	-9.24064
▁Хууль	-9.2422
▁хагас	-9.24303
▁талын	-9.24319
▁эхлэн	-9.24348
▁хүргэх	-9.24371
▁гэрийн	-9.24373
▁аялал	-9.24533
иг	-9.24615
▁s	-9.24717
▁Аль	-9.24798
▁зардал	-9.24873
▁оноо	-9.24876
▁цаашид	-9.24906
▁оруулсан	-9.25063
▁Өдөр	-9.2529
▁бөх	-9.25377
▁?	-9.25485
▁Өмнөд	-9.25594
лээд	-9.25867
Монгол	-9.25896
▁өр	-9.26067
▁Америк	-9.26148
▁санагддаг	-9.26179
▁ашигладаг	-9.26234
▁2013	-9.26241
▁хуучин	-9.2632
▁*	-9.26385
▁багийн	-9.26394
ба	-9.26465
▁зай	-9.26516
▁60	-9.26618
▁аливаа	-9.26636
▁тушаал	-9.26905
уулж	-9.27069
10	-9.27073
▁дүүрэн	-9.27187
▁Эрүүл	-9.27291
▁бар	-9.27334
▁Эр	-9.2757
▁хариулт	-9.27581
0	-9.27585
▁дүнтэй	-9.27639
▁шалгах	-9.27659
▁эсэх	-9.27712
ё	-9.27807
▁ц	-9.2788
▁чиглэлээр	-9.27929
▁чаддаггүй	-9.27968
▁нэртэй	-9.28034
▁бөмбөг	-9.2819
▁үзнэ	-9.28249
ул	-9.28281
▁зориулж	-9.28315
▁Англи	-9.28388
▁гараа	-9.28447
▁хэвийн	-9.28462
▁хэлний	-9.28509
▁танай	-9.28542
▁хувийг	-9.28569
▁зуун	-9.28594
жиг	-9.28687
▁K	-9.28796
▁порно	-9.28801
ra	-9.28807
Чи	-9.28821
▁сур	-9.28887
▁төлөх	-9.29051
ел	-9.29054
▁итгэж	-9.29078
▁шийдэх	-9.29252
▁хэргийг	-9.29292
▁чулуу	-9.2932
▁к	-9.29326
▁цахилгаан	-9.29408
▁болоогүй	-9.29524
ом	-9.29587
▁орлого	-9.29593
r	-9.29597
▁нээлттэй	-9.297
▁мэдрэмж	-9.29703
f	-9.29838
▁нэгдсэн	-9.29888
▁21	-9.30008
▁Зүгээр	-9.30049
▁мэдлэг	-9.3007
▁орно	-9.30153
үүдийн	-9.30157
▁Гадаад	-9.30508
▁зорилгоор	-9.3055
▁оролцсон	-9.30613
▁эрхтэй	-9.30655
▁бурхан	-9.30745
▁ихэвчлэн	-9.30753
▁урьдчилан	-9.30757
▁хүргэе	-9.30759
▁п	-9.30798
▁алдартай	-9.31157
Бид	-9.31203
▁Есүс	-9.31212
▁ганцхан	-9.3136
▁ерөнхийлөгч	-9.3138
▁эмэгтэйчүүд	-9.31481
▁чанартай	-9.3155
▁оо	-9.31569
▁одоогийн	-9.3161
лэл	-9.31614
▁тос	-9.31626
▁оруулалт	-9.31795
▁дасгал	-9.31895
▁цагдаагийн	-9.32114
▁юмуу	-9.32137
▁анхаарах	-9.32222
▁нэмж	-9.32313
▁архи	-9.32333
их	-9.32397
▁Солонгос	-9.32456
▁сайдын	-9.32625
рч	-9.32657
өр	-9.3273
▁Төв	-9.33134
▁ХХК	-9.33218
▁наад	-9.33351
w	-9.33362
ст	-9.33364
▁байлгүй	-9.33387
▁Дэлхий	-9.33447
▁дэлгэрэнгүй	-9.3352
▁хэрэгт	-9.33574
▁номын	-9.33711
▁Одоогоор	-9.33797
▁Ор	-9.33861
▁цааш	-9.33906
▁чадвартай	-9.33921
үй	-9.33986
or	-9.33989
хоо	-9.33996
▁агаарын	-9.34004
▁Бага	-9.34058
▁тогтвортой	-9.34149
▁халуун	-9.34149
▁0	-9.34345
▁цагдаа	-9.34382
▁талаарх	-9.34411
ож	-9.34595
▁нөхцөлд	-9.34733
▁хоёрын	-9.3479
▁төлөвлөгөө	-9.348
▁ердөө	-9.34844
▁дайн	-9.34905
▁технологи	-9.35081
▁хэмээх	-9.35092
▁баруун	-9.35181
▁эцсийн	-9.35297
▁үнэндээ	-9.35335
▁санаж	-9.3538
▁сав	-9.35395
уудад	-9.35411
▁хуулийг	-9.35571
▁биеэ	-9.35743
▁хөгжүүлэх	-9.35748
чи	-9.35827
%	-9.35913
▁дүгээр	-9.35934
▁зургаан	-9.35935
▁Төр	-9.36021
▁и	-9.36176
▁надаас	-9.36187
▁хэлбэр	-9.36219
▁ажиллана	-9.36286
▁барилга	-9.36293
▁хаанаас	-9.36313
ло	-9.36325
▁материал	-9.36406
▁Танд	-9.36417
лал	-9.36644
▁лав	-9.36847
▁ухааны	-9.36881
▁байлгах	-9.36894
???	-9.3691
▁Өмнө	-9.37061
▁үйлчилгээний	-9.37165
эс	-9.37178
▁дарж	-9.37241
▁богино	-9.37319
▁сэдэв	-9.37353
▁БНХАУ	-9.37356
▁ашиглан	-9.37608
▁туршлага	-9.37717
g	-9.37822
▁байгуулж	-9.37986
R	-9.37991
▁урьд	-9.37993
▁Бат	-9.38057
▁нөхөд	-9.38146
▁мэдсэн	-9.38223
▁3-	-9.38304
▁тутмын	-9.38309
▁од	-9.38322
▁НҮБ	-9.38324
▁муухай	-9.38361
▁харагдах	-9.38397
го	-9.38421
мээр	-9.38553
▁тэг	-9.38598
▁биеийн	-9.38751
ик	-9.38867
▁мөнгийг	-9.38902
▁Үнэхээр	-9.39011
▁жин	-9.39117
▁мянга	-9.39293
▁хүсье	-9.393
агч	-9.39305
▁Дараагийн	-9.39306
re	-9.39335
▁сурч	-9.39339
лийг	-9.39347
андаа	-9.39508
▁гүн	-9.39562
H	-9.39592
F	-9.39607
▁даргын	-9.39632
▁дүнг	-9.39641
▁Ү	-9.39672
гоор	-9.39678
▁байгаарай	-9.39703
▁у	-9.39712
▁ангийн	-9.39736
чдын	-9.39796
Миний	-9.39796
▁сууц	-9.39841
▁22	-9.39891
▁зүүн	-9.39906
▁бусдад	-9.39982
▁эцэст	-9.40092
▁ажиллагаанд	-9.4011
▁аргаар	-9.40149
ласан	-9.40175
хай	-9.40202
▁урд	-9.40227
▁Том	-9.40236
▁Р	-9.40303
▁агаар	-9.40306
▁мөнгөө	-9.40401
▁идэж	-9.40473
ая	-9.40489
▁хэлэв	-9.40558
▁сэтгэгдэл	-9.40625
▁хямд	-9.4074
▁төлбөр	-9.40815
ar	-9.41003
▁No	-9.41032
▁яасан	-9.41034
▁агуу	-9.41046
▁иргэний	-9.41064
▁V	-9.41077
▁W	-9.41144
▁сумын	-9.41153
▁одоогоор	-9.41263
ет	-9.41273
▁хил	-9.41286
▁байгаль	-9.41317
▁бодлоо	-9.41432
▁явц	-9.41456
▁Ихэнх	-9.41505
▁хөдөлгөөн	-9.41529
▁тогтоох	-9.41609
N	-9.41623
▁хөдөө	-9.41629
ат	-9.41735
▁зав	-9.41743
k	-9.4191
▁хэллээ	-9.41969
ей	-9.42084
▁2011	-9.42377
ус	-9.42449
сний	-9.42516
▁цэг	-9.42538
▁боловсрол	-9.42694
▁боловсруулах	-9.42716
▁яам	-9.42756
▁R	-9.4287
▁хугацааг	-9.42965
▁N	-9.42969
▁өгөхгүй	-9.42971
▁болзошгүй	-9.42997
▁найдаж	-9.43003
тын	-9.43042
раа	-9.43086
▁бизнесийн	-9.43089
▁хэрэглэдэг	-9.43236
▁тэмцэх	-9.43277
ed	-9.43287
▁цар	-9.43326
лох	-9.43422
▁хөгжим	-9.43517
K	-9.43534
тон	-9.43666
▁сонсох	-9.43781
энэ	-9.43849
us	-9.43979
▁газрыг	-9.4403
▁шийдвэрлэх	-9.44037
▁компьютер	-9.44039
▁Анх	-9.44073
▁гүйцэтгэх	-9.44151
▁Тухайлбал	-9.44206
▁хэмжээгээр	-9.44207
▁ховор	-9.44214
▁болгодог	-9.4422
▁шалгаж	-9.44263
рын	-9.44266
▁дагаж	-9.44267
▁орчинд	-9.44502
▁эрхэм	-9.44685
▁хаяг	-9.44691
▁сонссон	-9.44781
▁над	-9.45005
▁сурвалж	-9.4502
▁дотроо	-9.45065
▁Гол	-9.45084
▁шинжлэх	-9.45136
▁замыг	-9.45137
on	-9.45141
▁худалдааны	-9.45265
лон	-9.45293
лог	-9.4531
▁төсвийн	-9.45333
дсан	-9.45359
▁хэрэглээ	-9.4536
▁Цагаан	-9.45372
▁зааж	-9.45384
үүлэх	-9.455
▁хог	-9.45527
▁өмнөөс	-9.4564
▁хэрэв	-9.45662
снаар	-9.45792
▁хадгалах	-9.45919
▁Засаг	-9.45968
▁чанарын	-9.46044
▁L	-9.46064
▁Хан	-9.46093
▁хэлэлцэх	-9.46235
▁Нийт	-9.46244
лыг	-9.46307
▁дэлхийд	-9.46351
▁хүсэлт	-9.4639
U	-9.46401
лд	-9.46648
▁улаан	-9.46716
▁сэргийлэх	-9.46882
>	-9.46906
▁охид	-9.4692
▁шинжилгээ	-9.46971
▁асууж	-9.47006
▁хоорондоо	-9.471
▁хурал	-9.47106
▁залуус	-9.47173
▁хамтын	-9.47184
▁[...]	-9.47197
▁сөрөг	-9.472
Бат	-9.47218
▁ингээд	-9.47224
▁иргэдэд	-9.47265
▁нийтэд	-9.47311
▁байшин	-9.47366
▁хүүхэдтэй	-9.47423
▁болчихсон	-9.47423
▁сайжруулах	-9.47439
▁бат	-9.4744
▁хязгаар	-9.47624
ис	-9.47836
▁тэргүүн	-9.4788
▁тусгаар	-9.47897
▁аваарай	-9.47944
▁цор	-9.48081
ol	-9.48201
вол	-9.48267
▁англи	-9.4837
▁саналыг	-9.48398
▁хөөрхөн	-9.48459
▁вирус	-9.48488
▁хэрэгжүүлж	-9.48618
▁үсэг	-9.48654
▁зо	-9.48658
П	-9.48688
▁жаргал	-9.48728
▁үзүүлж	-9.48732
▁түрүүнд	-9.48789
▁өдрүүдэд	-9.48864
▁дандаа	-9.48894
▁хос	-9.48918
▁Үүнд	-9.49032
▁Бу	-9.4908
▁чөлөө	-9.49141
▁Тэнд	-9.49178
▁очоод	-9.49189
▁тамхи	-9.49196
▁хө	-9.49202
рал	-9.49223
▁2009	-9.49245
йл	-9.49248
▁хувиар	-9.49343
▁хөгжил	-9.49356
▁аюултай	-9.494
▁гаргадаг	-9.4955
тээ	-9.49568
▁хүнсний	-9.4968
▁ойлгомжтой	-9.49731
▁хоолны	-9.49792
▁тооцоо	-9.49828
▁хийхгүй	-9.49891
▁очсон	-9.49957
▁сум	-9.49964
▁асуудалд	-9.5005
▁байхаа	-9.50056
▁Чиний	-9.50081
▁баталгаа	-9.50098
▁Бүгд	-9.50145
▁зүйлд	-9.50167
▁эхэлнэ	-9.50175
▁засвар	-9.50182
▁ахуй	-9.50221
▁уулзах	-9.50247
гаад	-9.5029
▁албаны	-9.50406
at	-9.50409
▁хэм	-9.50431
▁санагдаж	-9.50477
▁иймэрхүү	-9.50491
гай	-9.50614
▁мөр	-9.50739
▁холбооны	-9.50752
▁байхаар	-9.50805
ri	-9.50828
▁талбай	-9.50834
▁өдрийг	-9.50837
▁Дараах	-9.50845
▁гэрт	-9.50847
▁уулзаж	-9.50848
▁үзээгүй	-9.50853
▁заасан	-9.50873
▁үйлдвэрийн	-9.50944
▁хэлээр	-9.50948
▁заримдаа	-9.50962
уй	-9.5103
▁харагддаг	-9.51119
За	-9.51128
▁жолооч	-9.51138
▁бүхний	-9.51175
чилж	-9.51178
▁нээх	-9.51343
▁дамжуулан	-9.51417
лэж	-9.51456
▁байгалийн	-9.51496
▁дав	-9.51568
▁хэтэрхий	-9.51589
▁ханш	-9.51692
▁авлаа	-9.51702
▁усны	-9.51735
▁ертөнц	-9.51749
-19	-9.5175
it	-9.51955
▁нэмэх	-9.52012
▁орондоо	-9.52164
▁үлдэх	-9.52248
▁Эмэгтэй	-9.52377
▁Ха	-9.52414
▁'	-9.52423
▁нүд	-9.52439
▁Японы	-9.5245
▁үлгэр	-9.52479
▁дэргэд	-9.52498
▁нийгэм	-9.52527
h	-9.52538
▁үүнд	-9.52624
▁дар	-9.52711
▁зохиол	-9.52756
▁алд	-9.52786
▁сонирхол	-9.52827
▁ядаж	-9.52915
▁машины	-9.52927
▁цай	-9.52955
▁царай	-9.53023
▁на	-9.53085
▁Эрх	-9.53095
чээ	-9.53267
▁тэмцээн	-9.53313
▁эргээд	-9.53317
▁итгэх	-9.5338
▁Маш	-9.53382
el	-9.53403
▁амьдралыг	-9.53432
▁хятад	-9.53436
▁c	-9.53446
▁хөдөлмөр	-9.53467
▁зарчим	-9.53469
▁хаалга	-9.53483
▁шийдсэн	-9.53502
▁үйлчилгээг	-9.53534
▁аюул	-9.53672
▁цол	-9.5378
▁төсөв	-9.53837
▁оюутан	-9.53847
▁бусдын	-9.53972
чихаад	-9.53994
▁орд	-9.54023
W	-9.54119
▁бодис	-9.54137
▁ширхэг	-9.5423
ro	-9.54232
▁Ардчилсан	-9.54267
▁төлөв	-9.54275
нүүд	-9.54375
гар	-9.54379
▁сонсож	-9.5443
▁сонгосон	-9.54639
ья	-9.54748
▁тэгш	-9.54763
▁зөвшөөрөл	-9.54777
▁Ялангуяа	-9.54807
▁үүссэн	-9.54825
▁судалгааны	-9.5485
▁хоёрдугаар	-9.54859
▁эрхийн	-9.54883
▁төслийг	-9.55001
▁өссөн	-9.55004
▁бутлуурын	-9.55026
▁мөнгөний	-9.55061
▁манайд	-9.55075
▁сэтгэлийн	-9.55087
▁өв	-9.55164
▁O	-9.55166
шил	-9.55287
▁нийгэмд	-9.55358
▁ал	-9.55508
лл	-9.55518
▁гадаадын	-9.55523
жил	-9.55551
▁хурд	-9.55636
▁бэрхшээл	-9.55736
ко	-9.55755
▁зайлшгүй	-9.55779
▁ая	-9.55783
▁байгууллагууд	-9.55856
чихсэн	-9.55862
▁Уул	-9.55888
▁цагаар	-9.56047
▁ёсгүй	-9.56069
lo	-9.56118
▁Харамсалтай	-9.56177
▁бүтээгдэхүүний	-9.56191
▁юуг	-9.56279
▁гомдол	-9.56301
▁өөрсдийгөө	-9.56362
ма	-9.56407
тер	-9.56572
▁Үр	-9.56605
▁тэмцээнд	-9.56619
▁Ирэх	-9.56637
лага	-9.56668
▁хяналтын	-9.56723
▁төрд	-9.56756
▁Сайхан	-9.56776
▁Y	-9.56812
▁Хүүхдүүд	-9.57
▁утасны	-9.57029
V	-9.57086
▁да	-9.57148
▁оюун	-9.57156
▁зууны	-9.57189
шиг	-9.57213
▁хэвлэл	-9.57259
дэх	-9.57389
▁уух	-9.57394
▁олны	-9.57441
шин	-9.57539
▁зүйлийн	-9.57578
▁уруу	-9.5772
▁хэсгийг	-9.57745
▁Хойд	-9.57746
гээд	-9.57844
▁Үнэ	-9.57854
ээгүй	-9.57902
▁хэхэ	-9.57908
▁хал	-9.57934
▁байгуулагдсан	-9.5806
▁ихээр	-9.58121
▁бодлогын	-9.58141
нө	-9.58154
▁шатны	-9.58195
▁саад	-9.58233
▁өнөөгийн	-9.58236
▁гэм	-9.58244
▁карт	-9.58298
▁хэнд	-9.58309
▁найзууд	-9.5831
▁чин	-9.58323
▁тухайд	-9.58336
▁сүүлд	-9.58391
▁тооны	-9.58418
▁худал	-9.5848
▁Хо	-9.58651
▁саналаа	-9.58661
▁тогтмол	-9.58741
▁Бүр	-9.58743
▁80	-9.58756
▁эмнэлгийн	-9.58764
▁харилцан	-9.58793
▁хүнс	-9.58823
▁зөндөө	-9.58949
▁2010	-9.5898
▁суралцах	-9.59032
алт	-9.59037
▁Одоогийн	-9.59051
онд	-9.59067
▁засах	-9.59081
▁Эхний	-9.59087
▁секс	-9.5909
▁70	-9.59118
▁10-	-9.59247
▁бүртгэл	-9.59361
▁Түүнд	-9.59515
am	-9.59582
▁баян	-9.59616
▁Иргэд	-9.59666
▁үс	-9.59734
▁гуай	-9.59919
▁барсан	-9.59938
▁Герман	-9.60023
дэж	-9.60077
▁Иймд	-9.60083
Е	-9.60118
▁Дээр	-9.60121
▁гэнэт	-9.60165
▁жүжигчин	-9.60172
▁өө	-9.60175
▁вакцин	-9.60194
▁Нийслэлийн	-9.60198
▁орос	-9.602
▁байрны	-9.60219
▁хөгжилтэй	-9.60221
▁банкны	-9.60234
▁ган	-9.60306
▁асуух	-9.60312
▁дүүргийн	-9.60359
▁удирдлага	-9.60362
Тэр	-9.60452
_	-9.60491
▁цөөн	-9.60501
▁хийлээ	-9.60516
▁нисэх	-9.60564
гээс	-9.60598
▁наадам	-9.60604
▁хорооны	-9.60646
▁эрсдэл	-9.60689
▁хуульд	-9.60731
▁дэндүү	-9.60775
▁авахгүй	-9.60796
баяр	-9.60828
▁зовлон	-9.60918
▁нэгж	-9.6111
▁зээлд	-9.61121
▁үүнээс	-9.61158
▁технологийн	-9.61186
▁киноны	-9.61197
▁өгөөч	-9.61207
▁туршлагатай	-9.61328
▁стандарт	-9.61346
үүн	-9.6135
▁журам	-9.61373
▁News	-9.6139
дар	-9.61476
▁ордог	-9.61478
рай	-9.6152
хий	-9.61565
▁бүтээсэн	-9.61615
▁хан	-9.61673
▁Өнөөдрийн	-9.61683
▁ихээхэн	-9.61798
рийн	-9.61845
▁хараа	-9.61853
▁хүлээх	-9.61913
▁болдоггүй	-9.62014
▁хажууд	-9.6202
▁нэмэгдүүлэх	-9.62057
▁эрс	-9.62173
?!	-9.6227
▁шал	-9.62319
▁төмөр	-9.62418
▁холбогдсон	-9.62424
▁зүйлсийг	-9.62436
▁чөлөөтэй	-9.62572
▁цагийг	-9.62574
▁код	-9.62596
▁үзүүлэлт	-9.62637
▁найман	-9.62657
өв	-9.62803
▁харуулж	-9.62826
▁харуулах	-9.62844
▁нэн	-9.62863
▁дөнгөж	-9.62876
▁удаад	-9.62885
▁надтай	-9.62954
▁цагаас	-9.63054
▁өөрт	-9.63088
ѳ	-9.63155
нээ	-9.63213
арч	-9.63219
▁дарамт	-9.63249
▁цус	-9.63299
z	-9.63351
▁цэцэг	-9.63351
жиж	-9.63459
▁байнгын	-9.63466
▁өрөөнд	-9.63603
▁ажилдаа	-9.63656
▁өнөөдрийн	-9.63678
▁хүнээс	-9.63723
▁мэддэггүй	-9.63724
11	-9.63725
▁бүгдээрээ	-9.63742
▁сонс	-9.63745
▁эрч	-9.63758
▁явцад	-9.63833
▁ялангуяа	-9.63909
▁болоо	-9.63938
▁чанга	-9.63955
▁хандлага	-9.63956
▁алдах	-9.63989
▁тэнгэр	-9.63994
аач	-9.64
хөө	-9.6407
▁эмээ	-9.64118
Манай	-9.64118
ист	-9.64168
▁зориг	-9.64211
▁Европ	-9.64248
▁нунтаг	-9.64274
▁бич	-9.64275
▁өчигдөр	-9.64327
▁барилгын	-9.64396
аль	-9.6447
▁X	-9.64484
▁хийхийг	-9.64506
▁ойролцоо	-9.64514
▁айж	-9.64587
et	-9.64659
▁хуур	-9.64719
▁90	-9.64766
▁үзээд	-9.6478
ва	-9.64814
ic	-9.64832
▁ж	-9.64845
▁Ал	-9.64855
▁идэвхтэй	-9.64865
▁Үүн	-9.6488
▁болтол	-9.64889
▁хүйтэн	-9.64947
▁ийнхүү	-9.64984
▁зогсоох	-9.64991
▁23	-9.65013
▁суу	-9.6502
▁эмнэлэгт	-9.65036
▁эмэгтэйчүүдийн	-9.65042
▁бороо	-9.6525
▁Улсад	-9.65274
▁эерэг	-9.65276
лөө	-9.65281
▁Хайр	-9.65307
лагдсан	-9.65357
▁барьсан	-9.65403
▁виз	-9.65442
st	-9.65465
▁зорилготой	-9.65575
ро	-9.65586
▁мэдэгдсэн	-9.65605
ги	-9.65607
ахгүй	-9.6562
▁дутуу	-9.65635
бал	-9.65636
▁Эцэг	-9.65637
▁$	-9.65754
▁яаралтай	-9.65806
▁өмч	-9.65951
▁жагсаалт	-9.65969
▁этгээд	-9.65977
▁эндээс	-9.65994
▁тогтоосон	-9.66035
▁далд	-9.66104
▁бичгийн	-9.66113
▁болохоос	-9.66113
▁насанд	-9.66197
▁хүүхдийг	-9.66236
▁шийдэл	-9.66269
▁удирдах	-9.6627
▁хэлнэ	-9.66445
▁дугуй	-9.66464
ак	-9.66495
АЛ	-9.6655
бо	-9.66564
▁нэгдүгээр	-9.66599
▁улиралд	-9.66724
▁арьс	-9.66752
▁хүүхдэд	-9.66841
▁a	-9.66883
өж	-9.66951
▁хэдхэн	-9.66993
▁гаргаад	-9.67033
▁Таныг	-9.67039
▁мундаг	-9.67113
▁тайлан	-9.6715
лагч	-9.67164
▁Газар	-9.67168
▁үйлдвэрлэл	-9.67185
▁хав	-9.67218
▁юунд	-9.67238
ман	-9.67253
▁хүрэхгүй	-9.67284
▁хүсвэл	-9.67334
йн	-9.67336
▁үндэс	-9.67355
▁хэлбэрээр	-9.67397
▁шил	-9.67405
▁жилүүдэд	-9.67429
▁алх	-9.67461
▁хөх	-9.67506
▁долоон	-9.67585
АН	-9.67918
▁>	-9.67919
▁зөрчил	-9.68021
▁га	-9.68037
▁Нэр	-9.68041
▁угаах	-9.6805
▁байгууллагад	-9.68132
▁Сан	-9.68165
▁Өглөө	-9.68203
▁төслийн	-9.68203
▁үзвэл	-9.68227
эж	-9.68252
▁амын	-9.68306
▁Залуу	-9.68368
▁уурхай	-9.68384
▁ухаалаг	-9.68422
50	-9.68463
▁ялгаатай	-9.68505
▁хэрэглэгч	-9.68524
дал	-9.6854
Энхболд	-9.68591
▁эрчүүд	-9.68606
▁Хүү	-9.68615
▁бодлоор	-9.6871
▁200	-9.68728
АР	-9.68754
▁өгөөд	-9.68784
▁шашин	-9.6879
да	-9.68839
▁дууссан	-9.68868
▁МАХН	-9.68907
▁авахад	-9.69066
▁чиглэл	-9.69079
▁буцаж	-9.691
▁тэдгээр	-9.69118
▁хүрээ	-9.69222
▁ихтэй	-9.69287
▁маск	-9.69313
▁цөм	-9.69326
▁энх	-9.69373
▁асуудлууд	-9.69386
▁Дээрх	-9.69396
ра	-9.69405
инг	-9.69423
▁алдаж	-9.69426
▁эмнэлэг	-9.6944
өөд	-9.69449
▁магадлалтай	-9.69539
▁Өөрөө	-9.69556
▁ангид	-9.69563
▁боловсролын	-9.69635
ur	-9.69643
▁хүүхэн	-9.69753
▁хэсгийн	-9.69776
▁баярын	-9.69853
▁хангамж	-9.69919
▁дэлгүүр	-9.70001
▁Хэдэ	-9.70008
▁Үнэндээ	-9.70043
▁тас	-9.70242
▁цагаа	-9.70292
гөө	-9.70302
▁хэдийн	-9.70354
▁үнэлгээ	-9.70365
хад	-9.70414
▁я	-9.70479
▁март	-9.70508
үүр	-9.70524
мал	-9.70551
▁маргаан	-9.70586
▁Ав	-9.70586
▁Гал	-9.70588
үүлж	-9.7062
▁хамтлаг	-9.70682
▁элс	-9.70743
▁ф	-9.70842
▁хай	-9.70879
▁дурдсан	-9.70898
▁Хэзээ	-9.70923
▁болоход	-9.70955
▁зөвлөл	-9.70997
▁хугацаагаар	-9.71049
▁хоосон	-9.7111
▁J	-9.71119
▁Үгүй	-9.71132
▁дайны	-9.71204
▁үнэр	-9.71231
вар	-9.71245
▁Нас	-9.71282
▁саяхан	-9.71622
▁ашигласан	-9.71632
▁о	-9.71644
▁бууруулах	-9.71702
жилт	-9.7176
▁өөрчилж	-9.71778
▁баялаг	-9.71793
▁гарахгүй	-9.71797
▁сал	-9.7187
уулна	-9.71875
▁дээрээс	-9.71905
▁сонгож	-9.71916
илж	-9.71972
▁нээ	-9.71979
▁ху	-9.71989
даад	-9.72085
▁сүү	-9.72096
▁тат	-9.72157
▁иргэдийг	-9.7219
▁сургалтын	-9.72226
▁онцлов	-9.72253
▁олгодог	-9.72279
▁Иймээс	-9.72321
12	-9.72404
▁заалт	-9.7248
мэл	-9.7258
▁шоронд	-9.72587
▁Шүүх	-9.72698
▁авалт	-9.72699
▁ээлжит	-9.72718
▁Нар	-9.72725
▁хааны	-9.72739
▁анхаарлаа	-9.72769
▁Ам	-9.72771
ян	-9.72772
▁Эхнэр	-9.72772
гий	-9.72982
▁сайхны	-9.73002
▁вий	-9.73064
хны	-9.7312
▁АТГ	-9.73129
▁авахыг	-9.73156
▁захирал	-9.73175
▁хэвээрээ	-9.73207
▁хүсэхгүй	-9.73221
▁зүүд	-9.73246
ээрэй	-9.73248
▁байдалтай	-9.73274
▁хориг	-9.73277
▁ойлгосон	-9.73427
un	-9.73476
▁түүнтэй	-9.73488
▁утгаараа	-9.73535
▁даруй	-9.73559
▁Хэл	-9.73577
▁төлөвлөж	-9.73672
єє	-9.73702
▁дөө	-9.73776
▁ярилцлага	-9.7379
мж	-9.73799
▁гарлаа	-9.738
▁Эзэн	-9.73841
▁ялгаа	-9.73861
▁таатай	-9.73893
▁шийдвэрийг	-9.73942
сийн	-9.73948
▁удирдагч	-9.7403
▁тэрэг	-9.74042
ви	-9.74055
▁орнуудын	-9.74151
▁мэдэгдэл	-9.74306
▁Энэтхэг	-9.74313
▁хангаж	-9.74318
▁өсөлт	-9.74322
▁байтугай	-9.74345
▁тэмдэглэл	-9.74387
цаа	-9.74433
▁ууж	-9.74434
▁үхэх	-9.74444
▁хөдлөх	-9.74472
аз	-9.74582
▁Ан	-9.74593
наа	-9.74675
▁хайх	-9.74677
▁төвд	-9.74698
▁сангийн	-9.74754
▁хичнээн	-9.7481
▁техник	-9.74835
▁&	-9.74837
▁аймагт	-9.74902
▁ертөнцөд	-9.75064
15	-9.7507
▁хэлжээ	-9.75074
▁багц	-9.75095
▁Өөрийгөө	-9.75097
▁устгах	-9.75114
▁Заримдаа	-9.75139
гэн	-9.75149
▁хулгай	-9.7517
джээ	-9.75184
▁4-	-9.75272
▁унтаж	-9.75305
▁хүмүүстэй	-9.75318
▁айлын	-9.75338
ad	-9.75338
▁товч	-9.7538
▁яа	-9.75383
▁хэрэгцээ	-9.75395
▁буудал	-9.75459
инд	-9.755
▁мэдэрч	-9.75567
▁!	-9.75615
лэсэн	-9.75656
▁хуулиар	-9.75751
▁загварын	-9.75752
▁төстэй	-9.75779
▁анхаарч	-9.75796
▁гаргана	-9.75903
жих	-9.75924
▁Амьдрал	-9.75929
▁хойд	-9.76
▁Танай	-9.76203
лав	-9.76217
▁бүтээх	-9.76255
▁тоглогч	-9.76287
ум	-9.76327
▁Үнэн	-9.76376
▁судалж	-9.7639
▁түүхэн	-9.76416
▁хамтарч	-9.7645
▁Сэтгэл	-9.76464
▁харамсалтай	-9.76473
▁чадвал	-9.76476
уулсан	-9.76534
▁Нам	-9.76547
▁бүсгүйчүүд	-9.76576
▁шоу	-9.76604
▁Хотын	-9.76721
▁бүлгийн	-9.76786
▁хүсэлтэй	-9.76801
ди	-9.76849
чиг	-9.7686
▁батлах	-9.76878
▁хойно	-9.76901
▁хямрал	-9.76918
ухлыг	-9.76997
▁цэвэрлэх	-9.77014
▁шигээ	-9.77032
тэл	-9.77058
▁гишүүдийн	-9.77072
▁мэргэжил	-9.77107
▁үнийн	-9.77198
▁хардаг	-9.77214
▁унш	-9.77233
▁тавьдаг	-9.77253
▁Ганц	-9.77297
▁ногоон	-9.77299
20	-9.77309
аргыг	-9.77378
▁чөлөөт	-9.77381
▁5-	-9.77385
▁амьсгал	-9.77418
тар	-9.77437
▁хийгээгүй	-9.77447
▁ойрхон	-9.77465
▁доош	-9.77534
▁алт	-9.77548
▁итгэдэг	-9.77567
▁U	-9.77591
▁туршид	-9.77601
▁хаяж	-9.77638
▁нэмэгдэж	-9.77681
▁үүднээс	-9.77691
▁b	-9.7774
▁үеэс	-9.77807
▁үзэн	-9.77848
сныг	-9.77881
▁хоорондын	-9.77964
▁цуврал	-9.77976
▁ойрын	-9.78042
▁Ю	-9.78118
▁Азийн	-9.78136
луулах	-9.7815
▁p	-9.78176
▁бгаа	-9.78257
▁гаралтай	-9.78275
▁болгоно	-9.78315
лгүй	-9.7833
▁туршилт	-9.78412
▁мэс	-9.78581
▁суулгах	-9.78663
▁мөнгөн	-9.78789
▁ариутгагч	-9.789
▁нөхөн	-9.78902
▁Гурван	-9.78984
▁тоог	-9.79033
үн	-9.79065
▁тусам	-9.79096
▁сонирхож	-9.79145
▁бэлгийн	-9.79218
▁дуусах	-9.7927
▁Да	-9.79277
▁На	-9.79317
▁дууг	-9.79329
▁Ли	-9.79341
ку	-9.79422
▁төрж	-9.79436
▁үйлдвэрлэлийн	-9.79452
оороо	-9.79474
▁доор	-9.79569
▁урлаг	-9.79613
▁дүрс	-9.79668
▁Google	-9.79681
*	-9.79699
Y	-9.79825
▁шдээ	-9.79838
▁тогтоол	-9.79881
▁Солонгосын	-9.7997
▁гарц	-9.8
▁э	-9.80003
▁удирдлагууд	-9.80131
te	-9.80155
▁Тэгсэн	-9.80158
от	-9.80216
▁илэрхийлж	-9.80222
▁чанарыг	-9.80252
▁хэлэлцээр	-9.80257
th	-9.8026
▁Ма	-9.80395
▁өнөө	-9.80406
хөн	-9.8044
▁үзэсгэлэн	-9.80443
▁болтугай	-9.80457
ынхан	-9.80552
▁иржээ	-9.80552
▁түүхийг	-9.80601
▁дөрөв	-9.80629
▁ойлгодог	-9.80667
▁гүй	-9.80674
▁явуулсан	-9.80735
▁эмчилгээ	-9.80752
▁данс	-9.80811
▁газраа	-9.80816
▁ялалт	-9.80847
▁нэрээр	-9.80879
▁тоглоомын	-9.80939
▁500	-9.80949
▁хүр	-9.80957
▁1000	-9.80986
▁вэб	-9.81001
ха	-9.81015
▁Хэдийг	-9.81022
АХ	-9.8115
▁магадлал	-9.81201
▁үх	-9.81359
▁ядуу	-9.81434
▁төдийгүй	-9.81492
▁Франц	-9.81529
▁цаана	-9.8154
▁биелүүлэх	-9.81546
өөсөө	-9.81553
▁дуучин	-9.81565
▁залуучууд	-9.81588
▁тодорхойгүй	-9.81597
▁үүсгэх	-9.81637
▁хүртэлх	-9.81752
▁гэ	-9.81773
▁унтах	-9.81803
▁сурсан	-9.81804
▁гээч	-9.8184
▁үгс	-9.81852
▁санд	-9.81866
▁хана	-9.81872
уулдаг	-9.81897
аш	-9.82001
▁аймаг	-9.82047
дсэн	-9.82075
▁бодолтой	-9.82117
▁захиа	-9.8213
▁цэрэг	-9.82163
нөөс	-9.82239
лсан	-9.82303
▁танил	-9.82311
▁олгоно	-9.82408
▁хорих	-9.82416
▁ирээдүйд	-9.8242
▁эрхгүй	-9.82435
▁орчны	-9.82505
▁камер	-9.82648
▁хөгжиж	-9.82651
▁Эцэст	-9.82681
▁Маргааш	-9.82688
▁байгуулалт	-9.82727
▁гарт	-9.82758
▁Зүүн	-9.82758
▁x	-9.82831
▁хөрөнгийн	-9.82902
▁шийдэж	-9.82909
Баттулга	-9.82919
▁амралтын	-9.8292
▁нунтаглах	-9.82944
▁Зураг	-9.82954
▁хүчээр	-9.82983
▁мөнгөөр	-9.8304
▁бэрхшээлтэй	-9.83136
▁сараас	-9.83154
▁авто	-9.83158
▁шийд	-9.8318
▁зохицуулалт	-9.83204
дэл	-9.83236
▁сэргээх	-9.83372
▁кофе	-9.83416
il	-9.83436
▁Ай	-9.83596
нийг	-9.83641
▁ирэв	-9.8371
▁тодорхойлох	-9.83717
хийн	-9.83767
▁Чингис	-9.8377
▁Багш	-9.83787
▁гарчээ	-9.83797
▁хүрээд	-9.83807
▁төдий	-9.83837
▁санах	-9.83884
▁муутай	-9.84041
ель	-9.84139
▁бүрийг	-9.84145
▁нэрлэдэг	-9.8424
▁тор	-9.84255
бу	-9.8426
▁ирээдүй	-9.843
▁солих	-9.84336
▁талтай	-9.84336
▁m	-9.84352
▁утсаар	-9.84393
▁хэ	-9.84455
▁ай	-9.84521
▁үүний	-9.84524
▁үнэнийг	-9.84577
se	-9.84579
▁Ми	-9.84632
▁аяга	-9.84633
то	-9.84662
▁үнэнч	-9.84662
▁Сар	-9.84702
▁мөрөөдөл	-9.84708
▁мөч	-9.84832
▁хохирол	-9.84921
▁Үйл	-9.84979
▁Ка	-9.85109
▁бал	-9.85151
▁түвшин	-9.85231
▁нэгийг	-9.85234
▁спортын	-9.85267
▁Мал	-9.85296
▁Эм	-9.85297
!"	-9.85337
▁Аливаа	-9.85363
▁спорт	-9.85366
▁Е	-9.85382
▁эхчүүд	-9.85416
▁27	-9.85436
▁ариун	-9.8549
▁зогсож	-9.85493
▁сүлжээ	-9.85505
▁бусдыг	-9.85508
▁ундаа	-9.85539
▁төрөх	-9.8554
▁үнэт	-9.85562
▁галт	-9.85591
!!	-9.85626
▁дундаж	-9.85645
▁Дуу	-9.85683
▁зургууд	-9.85701
▁бүтээн	-9.85702
алж	-9.85769
▁сэтгүүлч	-9.85782
▁буцах	-9.85793
баатар	-9.858
▁хэлмээр	-9.85822
ших	-9.859
▁явуул	-9.85912
▁Ном	-9.85945
▁хатан	-9.86153
▁хулгайч	-9.86167
снаас	-9.8625
la	-9.86288
▁гарагт	-9.8629
▁төгссөн	-9.86311
▁байхын	-9.86312
▁Баяр	-9.86347
▁буцааж	-9.86407
лана	-9.86439
▁төлөөлөгч	-9.86459
▁захиалга	-9.86542
▁үргэлжилж	-9.86573
▁хэлэхдээ	-9.86581
▁муж	-9.86628
▁тусдаа	-9.86636
▁Мөнгө	-9.86652
▁морь	-9.86681
▁эхлэл	-9.86686
▁28	-9.86701
▁буд	-9.86703
▁тай	-9.86739
is	-9.8675
ne	-9.86764
▁тэс	-9.86808
▁ноцтой	-9.86809
▁ни	-9.86812
▁давж	-9.86875
▁Бай	-9.86882
▁хийхээр	-9.86905
Таны	-9.8692
ch	-9.86938
▁ул	-9.86945
▁ажилтнууд	-9.8695
▁эл	-9.86952
es	-9.87026
▁Эл	-9.87072
уулаад	-9.87103
▁зорилт	-9.87117
▁Ху	-9.87144
▁үгээр	-9.87146
алсан	-9.8715
▁соёлын	-9.87219
▁дэглэм	-9.87234
▁найдвартай	-9.87245
▁юмсан	-9.87258
▁Найз	-9.87313
▁дотно	-9.87343
▁чуулган	-9.87366
▁баталсан	-9.87379
X	-9.87439
арга	-9.87451
▁26	-9.87469
▁ойлгохгүй	-9.87507
▁шугам	-9.87547
▁байдлаас	-9.87557
▁бүтээлч	-9.8757
▁жирийн	-9.87616
▁зарах	-9.87635
▁суугаа	-9.87666
▁гараагүй	-9.87694
▁тов	-9.87733
j	-9.87778
▁2000	-9.87803
▁татан	-9.87822
▁нүүрс	-9.8784
лга	-9.87841
▁усан	-9.8786
▁орнуудад	-9.8787
▁зочид	-9.87904
▁урам	-9.87947
▁аврах	-9.87968
▁оч	-9.88006
▁зөвлөж	-9.88071
▁ирэхэд	-9.88172
▁байтал	-9.88219
▁дурсамж	-9.8825
▁шүүхийн	-9.88294
▁Жон	-9.88316
▁Бие	-9.88371
▁чухам	-9.88416
▁дэмждэг	-9.8847
▁хийлгэх	-9.88493
оё	-9.88567
▁утаа	-9.88584
ти	-9.88592
▁тэ	-9.88665
▁заяа	-9.88667
▁цөөхөн	-9.88686
▁шалгуур	-9.8869
30	-9.88727
▁кинонд	-9.88794
саа	-9.88799
▁Су	-9.88804
▁дуудлага	-9.88852
▁Хэрэг	-9.88894
▁зун	-9.88925
▁шид	-9.88998
▁хоёулаа	-9.89024
▁хэрэглэгчид	-9.89026
дорж	-9.89038
▁хамгаалалт	-9.89062
▁ярилцах	-9.89127
▁шашны	-9.89229
▁түгээмэл	-9.89232
▁үргэлжлүүлэн	-9.89239
as	-9.89245
▁Эхлээд	-9.89305
▁6-	-9.89323
▁байсангүй	-9.89371
▁руугаа	-9.89381
▁таарна	-9.89398
ia	-9.89444
рт	-9.89472
▁бууж	-9.89482
▁урлагийн	-9.89542
өнө	-9.89569
ут	-9.8959
▁бичээд	-9.89597
▁араас	-9.89612
▁Охин	-9.89631
раг	-9.89634
өөрөө	-9.8977
▁төгөлдөр	-9.89774
▁халамж	-9.89808
▁салхи	-9.8989
үүдэд	-9.9
▁Жишээлбэл	-9.90048
▁нээж	-9.90048
▁үзэгдэл	-9.90056
▁цаас	-9.90184
шгүй	-9.90284
▁илэрхийлэх	-9.90316
ок	-9.90318
▁хэлэлцэж	-9.90326
рэн	-9.90402
▁төрх	-9.90456
▁суугаад	-9.90463
▁зөвлөх	-9.90496
оны	-9.90516
▁шаардлагыг	-9.90598
▁ярилцаж	-9.90611
▁оюутнууд	-9.90622
▁Цагдаагийн	-9.90644
▁зургаа	-9.907
▁1.	-9.90806
гал	-9.90855
▁Өндөр	-9.9095
▁2021	-9.90958
▁явлаа	-9.90967
▁ухаантай	-9.9098
▁гадаа	-9.90989
▁Улаан	-9.91012
▁номыг	-9.91051
▁тутамд	-9.91093
гэж	-9.91151
▁харьцуулахад	-9.91186
▁бидэнтэй	-9.91247
▁удаагаа	-9.91261
▁санааг	-9.91269
▁сэтгэлийг	-9.91334
▁цэцэрлэг	-9.91411
▁асуу	-9.91411
▁зохих	-9.91412
▁бяцхан	-9.91442
▁БНСУ	-9.91452
гэр	-9.91456
▁санагдсан	-9.91471
▁гэхээс	-9.91477
▁нөлөөлж	-9.91547
▁Зөв	-9.91569
рээ	-9.91599
▁ан	-9.91671
▁талыг	-9.91706
▁хийгдсэн	-9.91718
▁тэгвэл	-9.91728
▁Аз	-9.91752
▁санхүүжилт	-9.9181
▁бүтээгдэхүүнийг	-9.91823
▁дэвшигч	-9.91921
▁Ийнхүү	-9.91993
▁жилдээ	-9.91994
▁үзье	-9.92025
▁унаж	-9.92067
▁Re	-9.92068
▁хэлье	-9.92109
▁хичээлийн	-9.92121
Хүрэлсүх	-9.92147
▁Хөл	-9.92151
▁тариа	-9.92198
уд	-9.92255
▁сууцны	-9.92291
лэ	-9.92408
▁хорио	-9.92424
оосоо	-9.92455
li	-9.92472
▁нэмэр	-9.92475
▁утгатай	-9.92491
▁то	-9.92571
нийхээ	-9.92579
▁холбогдолтой	-9.92594
▁сонгон	-9.92627
▁улсууд	-9.92639
▁h	-9.92671
▁со	-9.92676
▁үйлдвэрлэгч	-9.92766
▁газрууд	-9.92778
рэх	-9.92799
эгч	-9.92801
▁вэбсайт	-9.92808
▁зөөлөн	-9.92831
рам	-9.92855
▁ажиллагаагаа	-9.92903
▁зөвшөөрч	-9.92988
▁үүсвэр	-9.93021
▁сонсоод	-9.93126
▁уншсан	-9.93234
▁татварын	-9.93282
▁Ах	-9.93348
шиж	-9.93397
▁наадмын	-9.93403
▁хандив	-9.93405
▁7-	-9.93521
▁талбайд	-9.93544
▁Ардын	-9.93618
▁шаарддаг	-9.93726
▁байршил	-9.9374
▁шигшээ	-9.9376
▁гайгүй	-9.93768
▁хэмжээтэй	-9.93826
▁манайх	-9.93834
▁зэвсэг	-9.93869
▁гуравдугаар	-9.93972
▁сонгодог	-9.93997
ахад	-9.94005
▁тавиад	-9.94035
▁жагсаал	-9.94091
▁дэг	-9.94241
▁унт	-9.94279
▁хамгаалж	-9.94348
▁гай	-9.94359
▁нэгэнт	-9.94362
ага	-9.94403
▁тайлбарлаж	-9.94487
▁өөрөөр	-9.94536
▁хөөр	-9.94555
▁тахл	-9.94579
є	-9.94652
Энхбаяр	-9.94688
▁сонго	-9.94718
▁тү	-9.94751
▁оруулалтын	-9.94797
▁усанд	-9.94886
▁Чамайг	-9.94923
,000	-9.94939
▁хорт	-9.94949
▁төгрөгийн	-9.94949
▁эртний	-9.94998
арсан	-9.9509
▁хаашаа	-9.95164
▁салах	-9.95239
элж	-9.95262
▁хэний	-9.95266
чихлаа	-9.95281
▁8-	-9.95342
▁нэмэгдсэн	-9.95418
▁баригчид	-9.95427
▁батлагдсан	-9.95446
▁бусдаас	-9.95457
▁яс	-9.95565
тэр	-9.95591
эт	-9.95638
нээсээ	-9.95667
▁дохио	-9.95669
14	-9.95686
▁мэдрэх	-9.95696
▁Мэдээ	-9.95725
▁нийтлэг	-9.95797
▁хуралд	-9.95822
▁амьдар	-9.95901
▁төгсгөл	-9.95924
▁амьдралдаа	-9.95927
▁эхэлдэг	-9.96033
▁судлах	-9.96038
моор	-9.96068
▁насандаа	-9.96134
▁онц	-9.96142
▁ханддаг	-9.96151
▁үүрэгтэй	-9.96208
▁Албан	-9.96209
▁хэрэглэгчийн	-9.96212
▁боль	-9.96232
▁сүүлчийн	-9.96278
▁Илүү	-9.9634
▁нэм	-9.96348
▁монголын	-9.96354
▁суусан	-9.96412
▁тустай	-9.96461
ио	-9.96481
▁сэтгүүл	-9.96545
ес	-9.96557
▁мэдэл	-9.96621
▁долларын	-9.96624
▁орноо	-9.96699
▁унах	-9.96746
ми	-9.96754
▁зуны	-9.96758
▁зохиолч	-9.96779
▁Өөрийнхөө	-9.96847
▁автомат	-9.96861
▁далайн	-9.96867
▁гутал	-9.96903
▁баярлаж	-9.96926
лэгч	-9.96947
чихээд	-9.97014
▁амьдралаа	-9.97059
▁Си	-9.9708
▁зовж	-9.97115
▁бариад	-9.97132
▁харьцангуй	-9.97153
▁дийлэнх	-9.97154
ац	-9.97169
▁аваагүй	-9.97208
▁хичээдэг	-9.97219
▁Энэтхэгийн	-9.97232
ee	-9.97251
оно	-9.97277
▁аялах	-9.97297
▁хувьцаа	-9.97421
▁эхлүүлэх	-9.97429
▁Тэднийг	-9.97436
аасай	-9.97493
▁харилцааны	-9.97496
▁Британийн	-9.97504
▁Өө	-9.97616
ЫН	-9.97639
▁түүн	-9.97702
▁тээ	-9.97745
▁дахиж	-9.97746
яа	-9.9777
дгийг	-9.9777
▁тавь	-9.97848
▁наймаа	-9.97935
чүүд	-9.97938
▁хашаа	-9.97966
нь	-9.98
▁тогтолцоо	-9.98014
▁нөлөөлдөг	-9.98041
▁хүчирхэг	-9.98041
▁Тэгж	-9.98205
▁11-	-9.98207
▁Нийгмийн	-9.9824
▁зуур	-9.98275
▁дэмий	-9.98287
лөх	-9.98317
▁гишүүний	-9.98332
▁Трамп	-9.98415
▁ирээдүйн	-9.98496
▁бор	-9.98588
гуу	-9.98605
▁Он	-9.98625
▁байдгийг	-9.98674
▁даасан	-9.98706
▁гадаадад	-9.98762
▁үүр	-9.98876
▁лам	-9.98903
▁зэргийн	-9.98937
▁хур	-9.98939
▁зэрэгцээ	-9.98939
▁мэдээллээ	-9.98978
▁хөөрхий	-9.99
▁Facebook	-9.99006
▁олгож	-9.99013
лол	-9.99017
▁харуулсан	-9.99088
▁Ман	-9.9909
▁байсаар	-9.99093
▁өдрөөс	-9.99173
▁үйлдвэрлэх	-9.99177
▁хэчнээн	-9.99241
▁оруулна	-9.99267
25	-9.99324
▁биед	-9.9934
▁Бидэнд	-9.99351
доллар	-9.99434
16	-9.99496
▁Зам	-9.99502
▁мэтээр	-9.99506
▁хангалуун	-9.99538
▁шүүгч	-9.99541
▁Тэдгээр	-9.9964
▁бичдэг	-9.99702
сын	-9.9972
▁дулаан	-9.99832
▁хуралдаан	-9.99838
▁тохирсон	-9.99848
▁биздээ	-9.99885
▁чадаж	-9.999
ль	-9.99944
▁Холбоо	-9.99992
агдсан	-9.99996
лүүлэх	-10.0002
▁зуу	-10.0003
▁Шар	-10.0009
▁зөрчсөн	-10.0014
▁Орчин	-10.002
▁нэгний	-10.0025
▁Нэгэн	-10.0029
▁Анхны	-10.0033
▁жимс	-10.0034
▁хүрээлэн	-10.0035
▁улсаас	-10.0038
▁доод	-10.0039
лээр	-10.004
▁Са	-10.0043
дэд	-10.0044
▁Улмаар	-10.0045
▁тойм	-10.0046
▁бөө	-10.0046
▁харагдана	-10.0047
▁хайрлах	-10.0048
аны	-10.0056
▁найр	-10.0058
▁өдрүүд	-10.0061
▁харна	-10.0066
▁Дээд	-10.0071
▁баатар	-10.0072
▁медаль	-10.0076
▁автомашин	-10.0077
▁больсон	-10.0079
▁хосууд	-10.0079
▁to	-10.008
▁тооцох	-10.008
▁гэрээг	-10.0081
▁уншаад	-10.0081
мб	-10.0083
бар	-10.0086
▁300	-10.009
▁Ко	-10.0107
▁программ	-10.0108
▁өгье	-10.0109
лэнэ	-10.0112
эндээ	-10.0113
▁алс	-10.012
элт	-10.0132
▁шөнийн	-10.0137
▁өөрчлөгдсөн	-10.0137
▁урьж	-10.0137
▁суурин	-10.0137
▁авгай	-10.0143
▁Дэлгэрэнгүй	-10.0146
▁даван	-10.0148
▁сэтгэлээсээ	-10.0151
▁хоёрыг	-10.0152
ем	-10.016
ладаг	-10.0161
▁билүү	-10.0165
com	-10.0165
▁Наад	-10.0167
▁тасралтгүй	-10.0167
бай	-10.0171
▁засагт	-10.0174
▁доорх	-10.0181
▁Ла	-10.0184
▁талдаа	-10.0184
▁замд	-10.0185
ИЙН	-10.0187
ЭЛ	-10.0189
▁ман	-10.0196
▁овоо	-10.0199
▁булан	-10.02
▁Цаашид	-10.02
▁төлж	-10.0201
▁арилгах	-10.0201
▁Машин	-10.0205
▁урсгал	-10.0205
▁шүүхэд	-10.0205
▁гэгч	-10.0206
▁дан	-10.0225
▁хайрлаж	-10.0228
▁байснаа	-10.023
▁улирал	-10.023
сс	-10.0232
▁дундуур	-10.0236
▁хүсэх	-10.0241
хар	-10.0242
жав	-10.0255
▁хүүхдүүдэд	-10.0258
▁сүнс	-10.0259
▁хөгжмийн	-10.026
▁тоглосон	-10.0263
▁хамрагдах	-10.0269
▁зөвлөлийн	-10.0269
▁Сонгуулийн	-10.0269
уудаас	-10.027
▁Баян	-10.0272
▁эхээр	-10.0274
▁зүг	-10.0276
▁Германы	-10.0279
▁даваа	-10.0288
▁оруул	-10.0288
▁гадуур	-10.0294
▁үзүүлсэн	-10.0297
▁дагаад	-10.0301
▁олдохгүй	-10.0306
▁юун	-10.0308
▁хөнгөн	-10.0318
▁эхэлжээ	-10.0321
чийн	-10.0322
▁секунд	-10.0323
▁бодвол	-10.0325
▁бүтэц	-10.0335
▁зохицуулах	-10.0336
айн	-10.0336
▁иддэг	-10.034
дэр	-10.0344
▁аян	-10.0355
▁Ингэхдээ	-10.0358
ce	-10.0366
▁хам	-10.0367
▁сайтай	-10.0372
▁цом	-10.0374
▁үүргээ	-10.0377
▁Эмч	-10.0378
▁амт	-10.0381
▁төвийн	-10.0383
▁сүм	-10.0389
▁Христ	-10.039
▁үзүүлдэг	-10.0396
▁тонн	-10.0397
▁үзэхэд	-10.0398
▁захиргааны	-10.0399
▁Нийгэм	-10.0401
▁нөлөөлөх	-10.0406
..."	-10.0407
үүлэн	-10.0407
лэгдсэн	-10.0407
цан	-10.0408
▁Бар	-10.0409
▁өөд	-10.0412
ки	-10.0412
▁шалга	-10.0413
▁хэрэглээний	-10.0417
▁асуудлын	-10.0417
▁талууд	-10.0417
▁нойр	-10.0418
▁тамирчин	-10.0418
соор	-10.0419
▁хиймэл	-10.0419
▁даатгалын	-10.0424
▁нутгаар	-10.0431
▁хүндрэл	-10.0436
лин	-10.0436
17	-10.0437
▁процесс	-10.0446
▁бх	-10.0447
▁шуурхай	-10.0449
үүлсэн	-10.045
▁барил	-10.0453
▁зарцуулах	-10.0464
▁багт	-10.0467
▁өвчний	-10.0472
▁үргэлжлэх	-10.0476
▁явдлыг	-10.048
▁үнийг	-10.0481
▁Нью	-10.0483
▁Саяхан	-10.0483
▁Секс	-10.0484
▁Өчигдөр	-10.0485
▁хүлээсэн	-10.0486
▁хань	-10.049
▁анхаар	-10.049
▁Байгаль	-10.0491
▁Муу	-10.0491
▁түргэн	-10.0494
▁компанид	-10.0504
рэл	-10.0506
▁цас	-10.0507
▁The	-10.0508
▁хэнийг	-10.0511
хуу	-10.0511
▁өнцөг	-10.0512
▁хамаарна	-10.0512
▁эрхлэх	-10.0513
▁Ядаж	-10.0515
▁завгүй	-10.0518
нуудыг	-10.0523
▁цоо	-10.0523
АА	-10.0526
▁оролцоо	-10.0528
▁харвал	-10.0544
▁Ба	-10.0546
▁ажилчид	-10.0547
▁f	-10.055
▁сайтар	-10.0552
▁баймаар	-10.0553
▁шир	-10.0559
▁хянах	-10.0566
Одоо	-10.0567
▁системийн	-10.0569
дэн	-10.0574
▁9-	-10.0578
ддаг	-10.0579
▁аргууд	-10.058
▁түүхэнд	-10.0584
▁2007	-10.0586
▁35	-10.0586
18	-10.0588
▁хөлс	-10.0592
▁Жил	-10.0599
▁хуваалцах	-10.06
▁хамаг	-10.06
▁татсан	-10.0601
▁чам	-10.0602
▁ихэд	-10.0604
▁түүнийгээ	-10.0607
ск	-10.0616
▁зовох	-10.0618
▁Үг	-10.062
▁тухтай	-10.0621
▁сууна	-10.0627
хэд	-10.0631
▁хичээ	-10.0639
▁төл	-10.0649
▁ярь	-10.0649
▁Ро	-10.0654
▁ашгийг	-10.0673
▁асуудалтай	-10.0673
▁р	-10.0674
▁зөвшөөрсөн	-10.0674
▁ирээгүй	-10.0675
▁танилцуулж	-10.0676
▁2006	-10.0678
▁харилцах	-10.0678
▁Мэргэжлийн	-10.0678
тны	-10.0679
▁зур	-10.0683
▁өгөөгүй	-10.0687
▁эрүү	-10.069
▁сэ	-10.0692
▁ойлго	-10.0696
▁хүлээ	-10.0696
▁хя	-10.0701
▁элдэв	-10.0706
оп	-10.0707
угаалгын	-10.071
▁бичжээ	-10.0711
13	-10.0712
▁багагүй	-10.0713
▁асуусан	-10.0717
▁ин	-10.0721
ед	-10.0721
ter	-10.0721
тнүүд	-10.0725
▁Яаж	-10.0726
▁багатай	-10.0727
▁живх	-10.0739
▁ерөөсөө	-10.0741
▁цонх	-10.0742
oo	-10.0751
▁Манайх	-10.0753
▁тусалж	-10.0754
▁хадгалж	-10.0756
▁сэр	-10.0756
▁айдас	-10.0758
▁ургамал	-10.0771
лэв	-10.0775
▁Хэдий	-10.0777
▁түлхүүр	-10.0783
na	-10.0784
гууд	-10.0784
ll	-10.0785
▁шатанд	-10.0785
▁хөрш	-10.0792
▁байгаагаар	-10.0796
▁казино	-10.0801
▁нэвтрүүлэг	-10.0803
▁Өнөө	-10.0803
▁Путин	-10.0809
▁хэрнээ	-10.0809
▁бэлтгэх	-10.0814
▁Сангийн	-10.0817
▁авчээ	-10.0822
▁Ган	-10.0828
▁засал	-10.0834
▁кг	-10.0836
▁Сүүлд	-10.0838
▁хас	-10.0838
▁Элчин	-10.084
▁хачин	-10.0846
▁хэрэгжиж	-10.0846
▁жилээр	-10.0847
жир	-10.0849
▁20-	-10.0855
дэггүй	-10.0859
ина	-10.0862
гэ	-10.0868
▁илэрхийлсэн	-10.0872
▁урамшуулал	-10.0876
бол	-10.0879
▁ертөнцийн	-10.0879
▁юуны	-10.0881
▁хамааралтай	-10.0882
чиж	-10.0884
19	-10.0894
▁дэвших	-10.0903
▁не	-10.0906
ot	-10.0906
▁юмыг	-10.0909
▁новш	-10.0914
▁асуудлаа	-10.0917
▁угаасаа	-10.0918
$	-10.0919
▁Хоол	-10.0923
▁бн	-10.0924
▁холбогдол	-10.0931
▁үнэмлэх	-10.0935
▁харанхуй	-10.0936
▁улсыг	-10.0937
раад	-10.0946
▁орохгүй	-10.0951
▁болсныг	-10.0953
▁Бурханд	-10.0955
▁түрүү	-10.0958
▁нийслэл	-10.0966
▁хүмүүсээс	-10.0966
▁Жижиг	-10.097
снээр	-10.0972
▁Хувь	-10.098
▁өргө	-10.098
Нэг	-10.0982
▁төрөлхтөн	-10.0982
▁таг	-10.0983
▁загас	-10.0989
▁байрлал	-10.0992
▁интернет	-10.0995
▁Ун	-10.0996
▁чадсангүй	-10.1004
▁Удахгүй	-10.1004
▁ирэхгүй	-10.1005
▁сэтгэлд	-10.1006
▁байгуул	-10.1011
ЭР	-10.1011
▁шинжилгээний	-10.1015
▁хэрээр	-10.1018
▁дай	-10.102
▁багадаа	-10.1022
▁Га	-10.1027
луулж	-10.1027
▁Ин	-10.1031
▁галзуу	-10.1034
▁хаха	-10.1046
▁хурлын	-10.1049
▁хаагч	-10.1054
ay	-10.1065
үр	-10.1067
▁цааз	-10.107
▁эвгүй	-10.1071
▁үндэстэн	-10.1071
▁нартай	-10.1072
▁айдаг	-10.1072
▁сурталчилгаа	-10.1076
рх	-10.1083
▁хийн	-10.1084
▁жүжиг	-10.1084
▁өөрөөсөө	-10.1086
▁хувьсгал	-10.1089
▁па	-10.1089
▁Японд	-10.1097
▁ханд	-10.1102
▁бөөн	-10.1104
▁дотоодын	-10.1105
▁Францын	-10.1105
▁гарцаагүй	-10.1105
▁олгосон	-10.1106
▁бутлах	-10.1109
▁Цахим	-10.1109
▁Над	-10.1115
▁шд	-10.1115
▁нэрийн	-10.1115
▁менежер	-10.1121
▁хичээж	-10.1138
вч	-10.1138
▁нислэг	-10.1145
гдсан	-10.1146
▁дэлгэц	-10.1146
▁км	-10.115
лэдэг	-10.1155
J	-10.1156
▁суудаг	-10.1156
▁ү	-10.1159
me	-10.1165
▁үнээр	-10.1171
▁Ус	-10.1173
▁Санхүүгийн	-10.1174
▁явахад	-10.1174
▁Газрын	-10.1176
▁хараахан	-10.1178
ho	-10.118
▁юү	-10.1182
▁бөхийн	-10.1183
▁бүхэндээ	-10.1185
уудаа	-10.1187
ев	-10.1187
▁авахаар	-10.1188
▁ажиллуулах	-10.1193
▁бүртгэлийн	-10.1193
▁амрах	-10.1195
▁дууны	-10.1197
иар	-10.1203
▁сууриа	-10.1206
▁дундаа	-10.1206
▁байгууламж	-10.1215
тик	-10.1226
▁өрсөлдөх	-10.124
+	-10.124
▁тавдугаар	-10.124
▁Хот	-10.1245
▁унасан	-10.1246
▁нээрээ	-10.1248
▁явуулдаг	-10.127
▁ачаа	-10.127
▁чимээ	-10.1274
▁өргөдөл	-10.1274
▁мэргэжилтнүүд	-10.1275
▁хангасан	-10.128
▁Гэртээ	-10.1283
дад	-10.1286
▁үйлдсэн	-10.1287
▁нүдэнд	-10.1288
▁d	-10.1302
▁Со	-10.1305
▁зайл	-10.1307
▁осол	-10.1308
▁on	-10.1312
▁дуул	-10.1317
ваа	-10.132
▁байн	-10.1323
▁t	-10.133
▁хүнээ	-10.1336
▁зөрүү	-10.1339
▁махбод	-10.1343
▁өөрчлөгдөж	-10.1343
си	-10.1344
▁ардчилсан	-10.1347
▁12-	-10.1349
▁хутга	-10.1349
▁гарга	-10.1357
наасаа	-10.1363
▁Хятадад	-10.1366
▁амралт	-10.1374
▁of	-10.1375
▁саван	-10.1377
▁шалтгаанаар	-10.138
24	-10.138
▁тоглодог	-10.1382
▁Юм	-10.1387
▁зургийн	-10.1387
▁явахгүй	-10.1388
▁чадал	-10.1394
▁харуул	-10.1406
▁өвөрмөц	-10.1413
▁удирдлагын	-10.1413
▁явагдаж	-10.1413
▁уриа	-10.142
▁холбоотойгоор	-10.142
▁шүлэг	-10.1424
▁татгалзах	-10.1442
▁эхлэв	-10.1442
лагын	-10.1445
жуулах	-10.1446
▁Бараг	-10.1449
▁+	-10.1451
▁зарласан	-10.1454
▁автобус	-10.1456
▁байрлах	-10.1458
▁хүүгээ	-10.1459
▁алтан	-10.1464
um	-10.1464
▁Чамд	-10.1464
▁гараар	-10.1466
▁хурц	-10.1467
▁буян	-10.148
▁нүүрсний	-10.1486
▁ун	-10.1486
▁Хуучин	-10.1487
▁илгээх	-10.1496
▁идсэн	-10.1497
▁хийд	-10.1498
гаагүй	-10.15
Баяр	-10.1503
пи	-10.1508
▁агуулга	-10.1511
▁цэцэрлэгт	-10.1512
▁эрсдэлтэй	-10.1513
▁яамны	-10.1514
▁анхаарлыг	-10.1519
▁мэдэгджээ	-10.1519
▁Боловсрол	-10.1528
▁Итали	-10.1528
▁ахмад	-10.1532
ре	-10.1533
▁өргөж	-10.1534
▁гаргажээ	-10.1538
▁цэнэтэй	-10.1543
▁шинэчлэл	-10.1547
ьд	-10.1549
зо	-10.155
▁нэлээн	-10.1553
▁тэмцэж	-10.1554
▁нүх	-10.1554
▁ДАШТ	-10.1554
хаар	-10.1558
▁хариулах	-10.1558
▁бүхнээ	-10.156
ГҮЙ	-10.1561
▁санагдах	-10.1565
▁хандсан	-10.1565
▁буур	-10.1566
ta	-10.1568
▁хүрнэ	-10.1573
▁Жи	-10.1575
▁Эс	-10.1575
▁уламжлалт	-10.1584
▁бохир	-10.1586
▁ня	-10.1589
▁зорьж	-10.1589
▁цэргүүд	-10.1589
▁суралцаж	-10.159
:)	-10.1591
▁Ши	-10.1593
▁хамтлагийн	-10.1594
сүрэн	-10.1606
гоос	-10.1609
▁Дахин	-10.161
▁олго	-10.1611
мс	-10.1614
ван	-10.1614
▁танилцуулах	-10.1621
▁холбогдуулан	-10.1624
▁хөгжих	-10.1625
▁маяг	-10.1626
▁санагдаад	-10.1626
▁нулимс	-10.1626
Тийм	-10.1626
▁туршиж	-10.1627
ент	-10.163
▁ойн	-10.1635
▁тэн	-10.1642
▁нээлт	-10.1645
арт	-10.1652
▁дуулж	-10.1653
▁=	-10.1655
▁наадамд	-10.1658
▁төгрөгөөр	-10.1659
▁бодлогыг	-10.166
маг	-10.1663
▁шив	-10.1664
▁тогло	-10.1665
▁(1	-10.1666
▁орлоо	-10.1669
▁бо	-10.1669
▁ашиглалтад	-10.167
▁өвөө	-10.1671
▁хүүхдүүдийн	-10.1679
▁уралдаан	-10.168
▁шуу	-10.1686
▁гараг	-10.1691
▁станц	-10.1693
ек	-10.1694
▁охины	-10.1696
▁ду	-10.1705
▁тайлбарлах	-10.1706
60	-10.171
im	-10.1714
рээд	-10.1715
йг	-10.1718
▁бүхэл	-10.1722
▁хөтөлбөрт	-10.1726
22	-10.1737
цэцэг	-10.1745
ндаа	-10.1755
▁дарна	-10.1761
▁хайрла	-10.1762
▁Москва	-10.1768
▁зарж	-10.1772
▁онлайнаар	-10.1772
▁ийн	-10.1773
▁системийг	-10.1776
▁<	-10.1777
▁Тэнгэр	-10.1778
▁амаргүй	-10.178
▁там	-10.178
01	-10.1783
ie	-10.1784
▁нэгнийг	-10.1801
▁шаардаж	-10.1807
▁Apple	-10.181
▁ажлууд	-10.181
▁адуу	-10.1812
▁бүүр	-10.1813
▁уулзсан	-10.1813
▁сурагч	-10.182
дох	-10.1824
??	-10.1824
▁зогсохгүй	-10.1829
▁хуваарь	-10.1841
▁төрөлхтний	-10.1841
иж	-10.1845
▁түрээс	-10.1848
▁Ариун	-10.1863
▁Таван	-10.1867
▁тодорхойлолт	-10.1877
▁уучлаарай	-10.1877
▁ноён	-10.1878
▁өмсөх	-10.1878
▁Тэгэхэд	-10.188
▁ө	-10.1882
жи	-10.1888
▁алдар	-10.1888
▁гадны	-10.1892
▁болгонд	-10.1893
▁Z	-10.1905
▁Турк	-10.1908
▁уламжлал	-10.191
▁гайх	-10.1911
▁өвөл	-10.1916
▁Ур	-10.1916
▁Зар	-10.1922
▁Хуулийн	-10.1923
▁биенээ	-10.1924
▁бодоход	-10.1924
▁ёслол	-10.1938
ts	-10.194
▁Ази	-10.194
▁гээ	-10.1942
тайгаар	-10.1942
▁телевиз	-10.1945
длаа	-10.1945
▁бүрэлдэхүүн	-10.1946
▁45	-10.1948
▁киног	-10.195
▁эрдэмтэд	-10.195
▁бул	-10.1953
▁эхийн	-10.1954
▁но	-10.1954
▁биедээ	-10.1957
▁техникийн	-10.1957
уулан	-10.1963
▁хо	-10.1965
id	-10.1966
▁дараахь	-10.1973
агийн	-10.1973
▁ту	-10.1976
▁Кино	-10.1977
▁тархи	-10.1982
▁үзүүл	-10.1984
▁Америкт	-10.1985
ul	-10.1987
▁анд	-10.1988
▁хүргэсэн	-10.1991
▁хуурай	-10.1993
▁тэмдэглэх	-10.1997
▁Баруун	-10.1998
▁тэжээл	-10.1999
▁дууд	-10.2002
ныхаа	-10.2004
▁төрөөс	-10.2011
▁Хүнд	-10.2013
▁шим	-10.2015
▁тогтоож	-10.2016
▁ух	-10.202
▁өгчээ	-10.2022
▁Мо	-10.2024
чихсон	-10.2024
▁онол	-10.2025
▁Хувийн	-10.2026
▁ачаалал	-10.2026
▁хөлөг	-10.2026
▁суурьтай	-10.2032
▁хэрүүл	-10.2035
▁илт	-10.2039
▁Британи	-10.2048
▁сэтгэлээ	-10.2053
▁мэндэд	-10.2055
▁санаатай	-10.2057
▁есдүгээр	-10.2062
зан	-10.2062
хир	-10.2066
▁Мэдээлл	-10.2066
▁өнгөрч	-10.2087
лаарай	-10.2089
▁болчих	-10.2097
▁даалгавар	-10.2099
▁зогсоо	-10.2101
▁клуб	-10.2102
▁амлалт	-10.2104
▁суудал	-10.2105
▁үгээ	-10.2105
▁нэгэнд	-10.2109
▁Ангилал	-10.2109
▁зу	-10.2111
▁Бизнес	-10.2113
▁хүртэх	-10.2113
▁шин	-10.2114
▁асуулга	-10.2114
▁хамаатай	-10.212
▁ногоо	-10.2136
▁менежмент	-10.2136
▁үндэслэл	-10.2137
▁гайхаж	-10.2139
▁Дуучин	-10.214
▁үзлээ	-10.2144
ent	-10.2144
▁байснаас	-10.2152
рүү	-10.2163
▁e	-10.2166
цгаа	-10.2171
▁хая	-10.2174
▁дөрөвдүгээр	-10.2174
▁өрсөлдөөн	-10.2174
луулсан	-10.2175
▁хураалт	-10.2181
▁энийг	-10.2182
тор	-10.219
▁дээгүүр	-10.219
хыг	-10.2197
▁Нэгэнт	-10.2199
▁хүрээгүй	-10.22
▁Ая	-10.2201
тийн	-10.2206
▁зөвшөөрөх	-10.2206
▁захидал	-10.2212
▁нэвтрэх	-10.2212
▁Дөрвө	-10.2217
▁Намын	-10.2219
гор	-10.222
▁бүрдүүлэх	-10.2224
Ха	-10.2228
гэл	-10.2231
▁Үл	-10.2232
▁жилээс	-10.2232
ОН	-10.2234
▁авагч	-10.2234
▁дэ	-10.2244
шир	-10.2244
▁буруутай	-10.2245
▁төсөвт	-10.2252
▁Аймгийн	-10.2254
▁чимээгүй	-10.2254
▁цохилт	-10.2254
▁хаах	-10.2256
co	-10.2257
hi	-10.2257
▁түүхтэй	-10.2258
▁Гу	-10.2258
▁босго	-10.2262
▁санаанд	-10.2265
▁Замын	-10.2269
▁Манайд	-10.227
аб	-10.2277
▁Эрэгтэй	-10.2278
▁уучлалт	-10.228
▁зүү	-10.2282
▁тансаг	-10.2288
▁мэдэгдэж	-10.2289
▁хайрцаг	-10.2289
▁гаргалаа	-10.2292
▁үйлчлэх	-10.2299
бэл	-10.2303
алгүй	-10.2312
▁мэх	-10.2319
▁амттай	-10.2322
рав	-10.2322
####	-10.2326
▁групп	-10.2326
▁нөлөөлсөн	-10.2326
▁бүртгэгдсэн	-10.2327
▁сонгогдсон	-10.233
40	-10.2338
▁боол	-10.2349
▁гүйцэтгэж	-10.235
▁нэрээ	-10.2353
▁бүтээж	-10.2357
▁ороогүй	-10.2357
ип	-10.2357
▁хоолоо	-10.2358
ut	-10.2358
▁хуурамч	-10.2364
▁төслүүд	-10.2364
▁тойронд	-10.2365
▁толь	-10.2368
▁зориулан	-10.2369
▁Home	-10.2371
таж	-10.2371
▁тулгарч	-10.2374
▁HD	-10.2376
▁хавар	-10.2377
Хүн	-10.2381
▁тодорхойлж	-10.2387
▁зас	-10.2392
▁машиныг	-10.2399
▁таарсан	-10.2399
▁жирэмсэн	-10.2403
▁хамааран	-10.2404
▁түмэнд	-10.2404
▁Хөдөө	-10.2405
▁харьцаа	-10.2407
▁улирлын	-10.2407
▁хэлснээр	-10.2408
▁Хүрэлсүх	-10.2412
өм	-10.2416
гүүд	-10.2421
огийн	-10.2427
▁хөтөлбөрийг	-10.2433
▁хун	-10.2437
▁талаараа	-10.2439
▁өнгөрөх	-10.244
▁оновчтой	-10.2441
▁15-	-10.2447
▁нөөцийн	-10.2453
▁Кон	-10.246
ийх	-10.2461
▁тэмдэглэж	-10.2461
▁чиглэлийн	-10.2463
▁Эрдэнэ	-10.247
ээсэй	-10.2475
▁орших	-10.2476
▁төлбөрийн	-10.2479
▁дархлаа	-10.2481
▁Төгс	-10.2482
▁хилийн	-10.2489
хийг	-10.2493
▁дуугар	-10.2496
▁хамгаал	-10.2498
▁буцаан	-10.2499
▁нийслэлийн	-10.2501
▁тэдгээрийг	-10.2506
▁гуйж	-10.2509
▁ажилтай	-10.2511
▁эмийн	-10.2515
▁өнөөдрий	-10.2518
▁функц	-10.2519
▁гэтэл	-10.252
▁хааяа	-10.2522
▁дэмжсэн	-10.2522
▁бодитой	-10.2523
▁яруу	-10.2525
▁Урьд	-10.2525
▁Эндээс	-10.2536
▁ялгаагүй	-10.2545
ly	-10.2549
▁асан	-10.2551
▁Ил	-10.2552
▁Тодруулбал	-10.2558
▁ойролцоогоор	-10.2562
лоод	-10.2563
▁далай	-10.2565
▁Санал	-10.2566
▁шалгалтын	-10.2567
дав	-10.2573
▁Жинхэнэ	-10.2576
▁эрхтэн	-10.2583
▁жагсаалтыг	-10.2586
▁ажигла	-10.2594
▁итгэ	-10.2595
▁тулаан	-10.2598
▁i	-10.2601
▁хүсэлтийг	-10.2602
▁найруулагч	-10.2604
▁in	-10.2605
▁тийш	-10.2612
▁Биднийг	-10.2626
▁ордонд	-10.263
ЭЭ	-10.2631
Ь	-10.2632
▁гарвал	-10.2634
▁төлөвлөсөн	-10.2638
▁талархаж	-10.2638
гаараа	-10.2642
▁Дан	-10.2646
▁үхсэн	-10.2646
▁сэтгэлтэй	-10.2647
▁эргэлт	-10.2657
ir	-10.2663
▁чиглэлд	-10.2666
▁Израил	-10.2666
▁татгалз	-10.2666
lu	-10.2669
▁эхэнд	-10.2674
▁the	-10.2674
▁зорчих	-10.2676
▁Нөхөр	-10.268
▁хийвэл	-10.2683
▁жижигхэн	-10.2687
▁үүсгэн	-10.2688
эмж	-10.2692
ation	-10.2694
▁бөхчүүд	-10.2696
сар	-10.2705
Энх	-10.2707
▁эрэлт	-10.2711
лөг	-10.2713
▁эрхээ	-10.2714
▁орлогын	-10.2716
▁өвгөн	-10.2716
▁шалтгааныг	-10.2716
▁Асуулт	-10.2717
▁хажуугаар	-10.2718
▁хамтарсан	-10.2722
▁зээлийг	-10.2724
▁Долоо	-10.2727
▁өртөг	-10.273
▁дундаас	-10.2737
бер	-10.2739
▁рүүгээ	-10.274
▁ихийг	-10.274
▁тосны	-10.274
▁амжилтанд	-10.2741
▁бичнэ	-10.2741
▁Христийн	-10.2745
Оюун	-10.2749
лүүлж	-10.2755
▁явдлын	-10.2756
▁хэсгүүд	-10.2756
▁байгуулалтын	-10.2757
▁шилжих	-10.2757
▁илтгэл	-10.2758
▁борлуулах	-10.2762
▁хөндий	-10.277
▁ну	-10.277
▁айлд	-10.2771
▁үйлчлүүлэгч	-10.2781
▁хэлээгүй	-10.2788
үүлнэ	-10.2791
вэр	-10.2793
▁ккк	-10.2795
▁учрыг	-10.2795
▁дотны	-10.2796
цгээе	-10.28
▁үүсэх	-10.2805
▁Сүхбаатар	-10.2807
▁Өр	-10.2809
▁борлуулалт	-10.281
▁хугацаатай	-10.2812
▁хийжээ	-10.2816
▁хэлэхгүй	-10.2818
▁өөрчлөлтийг	-10.282
▁таагүй	-10.2821
ОР	-10.2823
▁будаа	-10.2828
мын	-10.2828
▁~	-10.2832
▁намар	-10.2833
▁дут	-10.2836
▁амьтад	-10.2836
▁мө	-10.2838
▁гуниг	-10.2841
▁хаагчид	-10.2843
▁2005	-10.2844
АЙ	-10.2845
▁Шилдэг	-10.2847
▁бур	-10.2852
▁Холбооны	-10.2856
▁танхим	-10.2858
▁цуг	-10.286
▁өнгөтэй	-10.2865
▁Бүсгүй	-10.2868
дээд	-10.2868
ралт	-10.2869
▁Эв	-10.287
▁гайхамшигтай	-10.2872
▁эрин	-10.2873
▁иргэдээ	-10.2876
▁жоохон	-10.2876
▁зориулагдсан	-10.2876
▁байгаагаас	-10.2877
лиг	-10.2878
цаг	-10.2881
▁худалдах	-10.2886
▁хэвлэлийн	-10.2893
▁өрх	-10.2896
▁интернэт	-10.2899
чихдаг	-10.2909
▁Дар	-10.2911
▁телевизийн	-10.2912
▁эрдэм	-10.2915
▁уулз	-10.2916
▁зардлыг	-10.2916
па	-10.2919
▁болго	-10.2919
▁Хөрөнгө	-10.2921
луу	-10.2922
▁ма	-10.2924
▁Зо	-10.293
▁нэмэгдэх	-10.2931
▁боловсруулж	-10.2934
▁хамаа	-10.2938
дуулж	-10.294
▁амгалан	-10.2947
▁уучлал	-10.2948
▁үзэсгэлэнтэй	-10.2952
уун	-10.2953
▁Өдрийн	-10.2955
▁эрэг	-10.2955
▁Австрали	-10.2957
▁суурилсан	-10.2957
▁нилээд	-10.2959
▁Олимп	-10.296
▁дуурай	-10.2965
▁хуруу	-10.2966
▁байг	-10.2967
▁үйлс	-10.2974
▁чулуун	-10.2975
▁Жич	-10.2975
▁хүүг	-10.2983
▁уулын	-10.2983
гуул	-10.2988
▁бил	-10.2996
▁сонгоно	-10.2998
▁өмгөөлөгч	-10.2998
▁тохиолдсон	-10.3
▁байгаасай	-10.3
▁Бо	-10.3001
бэ	-10.3001
▁хуудсууд	-10.3008
▁түүхийн	-10.3009
▁бү	-10.3014
▁хуваагд	-10.3014
▁даг	-10.3016
▁зүйлээс	-10.3021
▁шавь	-10.3021
▁өсч	-10.3028
Ф	-10.303
▁хөвгүүд	-10.3033
▁удирдаж	-10.304
▁зүс	-10.3042
▁олоод	-10.3043
▁Co	-10.3045
▁гуйх	-10.3045
▁утсаа	-10.3048
тр	-10.305
▁зоригтой	-10.3051
▁гаригт	-10.3052
▁засл	-10.3057
▁хөдөлмөрийн	-10.3061
▁жагсаалтад	-10.3063
▁Эрчүүд	-10.3063
▁инженер	-10.3065
▁g	-10.3072
▁музей	-10.3074
▁өдгөө	-10.308
▁эзэмших	-10.308
▁химийн	-10.3081
▁санагдана	-10.3081
▁заавар	-10.3082
▁Видео	-10.3083
▁хүртсэн	-10.3085
▁бүтээ	-10.3086
▁Зах	-10.3086
▁зов	-10.3087
▁мэдээг	-10.3092
▁гүйцэтгэл	-10.3102
▁Хэт	-10.3103
▁хаалт	-10.3105
▁Бурханыг	-10.3106
▁тэмцэл	-10.3111
[	-10.3112
09	-10.3115
ac	-10.312
▁өвчтэй	-10.3121
▁хүсээгүй	-10.3122
▁чадварыг	-10.3124
▁хат	-10.3125
▁Од	-10.3127
▁төсөөл	-10.3136
▁солонгос	-10.3136
▁найдвар	-10.3137
▁100%	-10.314
▁жуулчлалын	-10.3146
▁29	-10.3146
лаагүй	-10.3149
▁32	-10.3151
▁ко	-10.3158
▁Хэрэглэгч	-10.3162
▁санааны	-10.3163
son	-10.3164
▁Windows	-10.3166
▁олдог	-10.3167
▁тутам	-10.3172
▁өөрсдийнхөө	-10.3172
▁хайрладаг	-10.3175
▁сон	-10.3176
иуд	-10.3186
▁авчрах	-10.319
▁Хамт	-10.319
Элбэгдорж	-10.3197
▁салж	-10.3197
▁засаглал	-10.3203
▁ертөнцийг	-10.3204
▁стресс	-10.3205
▁мөрдөх	-10.3206
▁хуу	-10.3212
▁зориулалттай	-10.3212
▁магад	-10.3212
▁Энгийн	-10.3213
▁тэдэнтэй	-10.3218
▁орхиж	-10.3222
▁гүнзгий	-10.3224
мийн	-10.3226
▁бүртгүүлэх	-10.3228
▁дамжин	-10.3229
▁авахын	-10.3231
▁түг	-10.3234
эхэд	-10.3238
▁ширээ	-10.3245
▁үеийг	-10.3246
▁амжаагүй	-10.3246
▁холбогдож	-10.3247
▁брэнд	-10.3248
дож	-10.3249
рон	-10.3249
▁хичээх	-10.325
▁Соёл	-10.3254
▁аймшигтай	-10.3257
▁голын	-10.3258
▁парламент	-10.3262
▁үнэлж	-10.3264
▁хад	-10.3264
ї	-10.327
Хар	-10.3272
▁уншигч	-10.3278
▁насыг	-10.3279
▁сам	-10.3283
▁батлан	-10.3284
дсон	-10.3287
▁хасах	-10.3289
▁тухайгаа	-10.3289
▁тохиолддог	-10.3289
▁маягаар	-10.3291
▁Энэтхэгт	-10.3298
ap	-10.33
▁гаргахгүй	-10.33
▁байгуулна	-10.3301
▁хүмүүсээ	-10.3304
▁шинжтэй	-10.3306
фи	-10.3308
ag	-10.3312
▁харилцаанд	-10.3312
▁Гэрийн	-10.3313
▁сургуулиуд	-10.3321
▁тэнгис	-10.3331
са	-10.3331
лэлт	-10.3331
▁ас	-10.3332
▁хүүхдүүдээ	-10.3333
▁хүртлээ	-10.3333
▁урьдчилсан	-10.3333
зи	-10.3337
▁тоглолтын	-10.3337
▁хөдөлгөөний	-10.3338
80	-10.3339
▁айх	-10.3342
▁буурсан	-10.3343
▁хэрэгцээг	-10.3346
▁таалагддаг	-10.3353
▁түүхий	-10.3354
▁шилжүүлэх	-10.3355
▁хүүхдүүдийг	-10.3355
▁оролд	-10.3356
▁хамгаалагч	-10.3359
▁тийшээ	-10.3359
цгаая	-10.336
▁Уран	-10.3365
▁оролцогч	-10.3365
▁цөөнгүй	-10.3365
23	-10.3368
▁эн	-10.3372
▁ямагт	-10.3373
▁талаархи	-10.3374
▁болгоомжтой	-10.3374
▁хөгшин	-10.3376
▁азтай	-10.3376
▁даргыг	-10.3376
▁цомог	-10.3382
▁Му	-10.3385
▁агентлаг	-10.3391
▁ааш	-10.3391
▁юманд	-10.3392
▁албанд	-10.3392
▁байгууллагаас	-10.3394
▁таних	-10.3395
из	-10.3404
▁го	-10.3405
▁халаа	-10.3406
▁хариуцлагатай	-10.3408
▁таарч	-10.341
▁тогтоо	-10.3415
▁Ch	-10.3415
▁хэрвээ	-10.3418
▁бааха	-10.342
агдах	-10.3422
▁тохирох	-10.3422
▁авлага	-10.3423
▁гуй	-10.3426
дөх	-10.3426
28	-10.3435
▁төсөөлж	-10.3436
▁тогооны	-10.3446
.00	-10.3449
ши	-10.345
▁гариг	-10.3451
▁Үс	-10.3453
Шинэ	-10.3455
▁чадалтай	-10.3457
▁судлаачид	-10.3462
▁хайрын	-10.3465
▁дэлхийг	-10.3466
АС	-10.3466
▁эмзэг	-10.3467
дам	-10.3475
▁дуусгах	-10.3475
▁сонсдог	-10.3475
▁тэрхүү	-10.3476
лагдах	-10.348
чуудын	-10.348
▁гэрээний	-10.3481
▁Шууд	-10.3485
▁баталж	-10.3486
▁үүсгэж	-10.3488
хам	-10.3494
▁төлбөргүй	-10.3496
▁ардын	-10.3499
▁суурийг	-10.3501
▁есөн	-10.3503
▁Хэрхэн	-10.3503
▁ирэхээр	-10.3503
▁элэг	-10.3513
▁тусмаа	-10.3518
▁шаа	-10.3521
▁хөтөлбөрийн	-10.3523
▁шувуу	-10.3533
гчид	-10.3534
▁хөгжилд	-10.3535
▁өөрийг	-10.3541
▁байгаам	-10.3544
▁Тайлбар	-10.3544
ex	-10.3547
▁нуу	-10.3547
▁файл	-10.3548
▁санхүү	-10.3551
▁байгаагийн	-10.3552
▁Нэгдсэн	-10.3555
▁олонх	-10.3558
▁чих	-10.3559
▁дарс	-10.3563
▁тэмцээний	-10.3569
▁туулах	-10.3571
▁хүчийг	-10.3573
▁шилэн	-10.3576
члах	-10.3577
▁оролдож	-10.3588
ари	-10.3591
▁сонгуулиар	-10.3592
▁хи	-10.3592
▁ерөнхийдөө	-10.3593
сг	-10.3594
▁түрүүлж	-10.3595
▁w	-10.3597
▁тур	-10.3597
▁асуултад	-10.3599
▁Сайд	-10.3603
▁сү	-10.3606
▁буц	-10.3627
▁болих	-10.3629
▁мөртлөө	-10.3631
▁хэрэгслийн	-10.3631
▁Хөгжлийн	-10.3631
▁өгүүлбэр	-10.3631
▁өгвөл	-10.3632
-1	-10.3635
▁туу	-10.3636
▁амин	-10.3639
▁мөнгөтэй	-10.364
▁хянаж	-10.3643
▁хэрэглэсэн	-10.3646
тоо	-10.3655
▁ми	-10.3656
▁ка	-10.3659
▁асуухад	-10.3659
▁арилжаа	-10.3662
дүү	-10.3662
·	-10.3663
эхгүй	-10.3668
бат	-10.3672
▁са	-10.3673
▁Онлайн	-10.3675
▁таалагдсан	-10.3678
▁өвлийн	-10.3679
ханд	-10.3681
▁Толгой	-10.3681
вөл	-10.3681
араа	-10.3689
▁багтсан	-10.369
▁чуулганы	-10.3692
▁жолоо	-10.37
рил	-10.37
▁хүчингүй	-10.3706
▁ярьжээ	-10.3706
▁нягт	-10.3709
▁Юуны	-10.3711
▁нүдээ	-10.3712
▁хийхдээ	-10.3716
▁илэрсэн	-10.3721
▁ээлж	-10.3722
▁бусаар	-10.3727
▁бүрд	-10.3728
▁ярина	-10.3728
▁хязгаарлалт	-10.3733
▁хүндэтгэл	-10.3734
ig	-10.3734
▁охиноо	-10.3735
ҮҮ	-10.3737
▁цохи	-10.3737
▁дарах	-10.3751
all	-10.3752
▁Ван	-10.3755
▁Оюун	-10.376
▁чамаас	-10.3764
▁удалгүй	-10.3765
▁харахгүй	-10.3766
▁хүрдэг	-10.3767
▁Онцгой	-10.3767
тнууд	-10.3768
▁өнөөх	-10.3771
▁Ол	-10.3773
Заавал	-10.3776
▁Сэр	-10.3778
▁тохиож	-10.3781
▁заах	-10.3782
▁нэгдэж	-10.3785
▁шаард	-10.3786
▁цац	-10.3787
▁захиргаа	-10.3788
ma	-10.3794
▁нэвтрүүлэх	-10.3798
▁де	-10.3799
&	-10.3802
▁өглөөний	-10.3802
and	-10.3807
▁нүдний	-10.3807
▁Miss	-10.3807
▁үзэг	-10.3808
▁мартаж	-10.3812
снээс	-10.3816
▁Манайхан	-10.3822
ап	-10.3823
▁хэрэглэнэ	-10.3824
бү	-10.3825
▁шийтгэл	-10.3826
de	-10.3829
▁ордон	-10.3833
▁суулга	-10.3835
жүүлэх	-10.3839
▁Канад	-10.384
▁гүүр	-10.3841
▁хүчээ	-10.3842
юу	-10.3844
▁олимп	-10.3849
▁өсөх	-10.3853
▁чармайлт	-10.3853
▁өргөө	-10.3857
лүү	-10.3859
▁нуур	-10.386
▁мэдлэгтэй	-10.386
▁алджээ	-10.3861
▁Жо	-10.3867
▁Бал	-10.3868
▁хувьдаа	-10.3868
▁охиныг	-10.3878
ийнх	-10.3882
▁танилц	-10.3886
снийг	-10.3888
sh	-10.3888
▁Гэрээ	-10.3888
▁жор	-10.389
mo	-10.3896
▁халдлага	-10.3896
чилсэн	-10.3899
▁сонирхдог	-10.3901
▁үйлдлийг	-10.3901
▁ажиллаад	-10.3904
▁сор	-10.3907
▁Ким	-10.3914
▁сүүл	-10.3917
жаргал	-10.3919
▁ороход	-10.392
▁юунаас	-10.392
ино	-10.3924
▁үлдээ	-10.3926
члал	-10.3931
▁өрнөж	-10.3941
▁өөрийнх	-10.3941
▁бодлыг	-10.3944
ver	-10.3947
изм	-10.3949
ша	-10.3951
Их	-10.3953
▁үгэнд	-10.3955
ang	-10.3956
▁Амьдралын	-10.3959
▁хүүгийн	-10.3964
уулга	-10.3965
▁дурлал	-10.3971
не	-10.3971
90	-10.3982
▁Энх	-10.3982
саг	-10.3982
алз	-10.3983
▁YOLO	-10.3986
▁хөшөө	-10.3988
▁төвөгтэй	-10.3991
▁дүүрэг	-10.3995
▁Тэг	-10.3996
▁1990	-10.3999
▁дэвшил	-10.3999
▁гарган	-10.4001
▁сүр	-10.4008
▁арилжааны	-10.4012
▁жи	-10.4025
▁даргаар	-10.403
▁үд	-10.4031
▁элбэг	-10.4031
▁журмын	-10.4031
▁мужийн	-10.4031
▁тууштай	-10.4032
▁чиглэсэн	-10.4033
▁мэргэжилтэн	-10.4033
▁үүргийг	-10.4033
▁чамтай	-10.4034
▁үлдэж	-10.4036
чны	-10.4037
▁мэдэрдэг	-10.4037
▁фото	-10.4038
▁доторх	-10.4042
▁дуулах	-10.4043
▁төхөөрөмжийн	-10.4047
▁дуудаж	-10.4049
▁үүсч	-10.4059
▁дуугүй	-10.4059
▁багаар	-10.4062
▁шүүмжлэл	-10.4062
▁түлш	-10.4069
▁Ле	-10.4076
▁нэгдэх	-10.4078
алтын	-10.4081
▁судалгаагаар	-10.4081
▁эг	-10.4084
03	-10.4087
▁Бол	-10.409
-2	-10.4092
▁про	-10.4093
чдийн	-10.4097
▁биеэр	-10.4099
▁үлдээх	-10.41
▁алдарт	-10.4101
▁өвс	-10.4111
▁31	-10.4114
▁хөнд	-10.412
▁туулж	-10.4121
▁стратеги	-10.4121
▁авлига	-10.4122
▁орчлон	-10.4122
▁боомт	-10.4122
▁Эцс	-10.4123
21	-10.4126
▁шарх	-10.4126
▁болгоод	-10.4129
▁дайсан	-10.4136
▁хараагүй	-10.4136
инээв	-10.4137
▁Дунд	-10.4141
дугаар	-10.4141
▁нотлох	-10.4141
▁үзлэг	-10.4141
▁Иргэний	-10.4142
▁De	-10.4142
▁хэрэглэгчдийн	-10.4142
▁тойрон	-10.4143
▁шингэн	-10.4146
▁эмх	-10.4148
▁харц	-10.4153
єн	-10.4155
сэл	-10.4155
▁утгагүй	-10.4158
▁биелүүлж	-10.4158
▁Аж	-10.4158
ле	-10.416
▁Сая	-10.4161
▁Иргэдийн	-10.4161
▁мэдээлж	-10.4166
▁хүчирхийлэл	-10.4168
▁дасгалжуулагч	-10.4168
▁төдийлөн	-10.4169
▁зүйлүүд	-10.417
уг	-10.4175
▁тусалдаг	-10.4175
▁үйлдлийн	-10.4176
ion	-10.4176
▁талархал	-10.4177
▁II	-10.418
ow	-10.4181
▁өнгийн	-10.4183
▁зурсан	-10.4183
Болд	-10.4191
▁цаашдаа	-10.4194
▁ашиглалт	-10.4197
▁харлаа	-10.4198
Монголын	-10.42
▁оройн	-10.4204
▁өн	-10.4205
▁утгаар	-10.4207
▁бүлд	-10.4208
▁монголд	-10.4214
▁нүгэл	-10.4214
▁үнс	-10.4215
▁туйлын	-10.4216
▁Уу	-10.4219
▁сэдвээр	-10.422
▁буудлын	-10.422
06	-10.4229
▁Тоо	-10.4242
▁n	-10.4245
▁Эн	-10.4254
Өнөөдөр	-10.4257
▁Бор	-10.426
▁нөхдүүд	-10.4261
▁овог	-10.4267
▁хадгал	-10.4274
▁зогсоож	-10.4274
▁хүндтэй	-10.4277
тгэл	-10.4279
уудтай	-10.4284
▁Эрдэнэт	-10.4288
мэн	-10.429
▁Тэдэнд	-10.4294
▁зөвлөмж	-10.4294
▁урагш	-10.4295
▁танилцах	-10.4297
▁Хэд	-10.4301
▁Ma	-10.4303
оль	-10.4305
▁мөрдөн	-10.4306
▁хөв	-10.4306
▁түвшний	-10.4307
▁байрыг	-10.4308
▁Африкийн	-10.4308
▁уд	-10.4313
▁боловсруулсан	-10.4313
▁барина	-10.4313
лалт	-10.4313
▁төсөлд	-10.4313
▁авчирч	-10.4313
лдаг	-10.4314
▁Ерөнхийдөө	-10.4315
▁шаардах	-10.4315
▁хариуг	-10.4317
▁шинэчлэх	-10.432
▁тахал	-10.4323
▁гаднаас	-10.4323
▁ачаар	-10.4324
▁Хаан	-10.4329
▁барьцаа	-10.4331
Мөнх	-10.4332
▁Сү	-10.4334
ээл	-10.4335
эгдэж	-10.4339
▁зурах	-10.4339
үүлээд	-10.4341
▁үнэлэх	-10.4343
▁багасгах	-10.4347
▁судлаач	-10.4348
дэнэ	-10.4351
Танай	-10.4353
▁тавина	-10.4353
1-	-10.4354
▁горим	-10.4354
▁курс	-10.4354
op	-10.4356
▁даралт	-10.4357
▁хандан	-10.4358
▁хэлэлцээ	-10.4359
▁тоон	-10.436
▁байрладаг	-10.436
▁салаа	-10.436
▁үгийн	-10.436
▁тусална	-10.4361
▁сурагчид	-10.4361
70	-10.4367
▁ажлаас	-10.4367
▁Ди	-10.4367
▁Шударга	-10.4371
▁шүд	-10.4377
▁экспорт	-10.4379
▁Айл	-10.4382
▁амны	-10.4383
▁сүйр	-10.4383
▁хацарт	-10.4387
▁Архи	-10.4392
▁ороо	-10.4395
Ма	-10.4397
▁Дорнод	-10.4399
▁амийг	-10.4399
▁хуваа	-10.44
▁дагавар	-10.4401
▁хураамж	-10.4401
▁хийгдэж	-10.4401
▁ээлтэй	-10.4402
гүүр	-10.4403
▁Амжилт	-10.4403
▁тавилан	-10.4403
▁шалгаруулах	-10.4405
▁үүрд	-10.4411
▁байя	-10.4413
▁дураараа	-10.4414
▁тээвэр	-10.4416
▁хэлэлцүүлэг	-10.4416
ОХ	-10.4421
ме	-10.4422
чилсан	-10.4426
▁нараас	-10.443
▁Ме	-10.4437
▁зүтгэл	-10.4437
▁орныг	-10.4438
▁Оросууд	-10.4443
▁эмчилгээний	-10.4445
Нямдорж	-10.4446
▁Де	-10.4447
▁Чухам	-10.4448
▁Жүжигчин	-10.4449
▁хэрэгжилт	-10.4454
луул	-10.4455
▁Юун	-10.4457
▁таньж	-10.4457
▁бос	-10.4457
▁нуруу	-10.4459
▁хэрэгжих	-10.4461
-20	-10.4464
▁бүсгүйн	-10.4465
об	-10.4468
▁мэдээгүй	-10.4469
▁битүү	-10.4477
ss	-10.4477
▁ЭЗЭН	-10.4483
▁загварыг	-10.4485
▁мэдээд	-10.4487
▁олно	-10.4495
▁хүүхнүүд	-10.4495
▁хүдр	-10.4496
▁тогтоомж	-10.4496
▁дурсгал	-10.4496
▁тамирчид	-10.4496
▁учраа	-10.4497
ЭХ	-10.4498
▁гудамж	-10.4504
▁төлбөрийг	-10.4506
лууд	-10.4513
est	-10.4513
▁насаа	-10.4525
ху	-10.4528
▁Эрхэм	-10.4529
▁олборлох	-10.453
гас	-10.4532
өрсөн	-10.4532
▁гэрээсээ	-10.4538
члан	-10.4539
▁шалгаруулалт	-10.454
▁автомашины	-10.454
▁аравдугаар	-10.4543
▁Кар	-10.4543
▁Английн	-10.4545
▁2004	-10.4545
05	-10.4545
▁төлөөлөл	-10.4548
▁тантай	-10.455
▁татдаг	-10.4551
дуу	-10.4555
▁зогсоол	-10.4558
▁авир	-10.4562
▁нэгдэл	-10.4562
▁америк	-10.4563
▁УБ	-10.4568
сал	-10.4572
▁тэнцүү	-10.4575
ct	-10.4578
ци	-10.4578
▁ашигт	-10.4587
▁То	-10.4589
▁зорьсон	-10.4591
▁дуустал	-10.4592
▁үндэстний	-10.4592
▁луу	-10.4593
▁хандлагатай	-10.4594
▁явсаар	-10.4597
▁өгөв	-10.4599
▁бодохгүй	-10.46
▁ердийн	-10.4603
▁шү	-10.4603
▁айлчлал	-10.4606
▁зогсох	-10.4608
ру	-10.4609
▁хүс	-10.4612
▁ордны	-10.4612
▁дуулсан	-10.4613
to	-10.4619
▁зүйлсийн	-10.4626
ял	-10.463
▁зайлуул	-10.4632
▁бүхэлд	-10.4633
▁нэх	-10.4635
▁мөнх	-10.4637
тэйгөө	-10.4641
▁сандал	-10.4641
▁хувир	-10.4643
▁орныхоо	-10.4646
▁яадаг	-10.4653
▁парламентын	-10.4655
▁үхэр	-10.4657
▁шийднэ	-10.4657
▁Орой	-10.4658
екс	-10.4659
▁ахлах	-10.4659
мар	-10.466
▁иж	-10.466
▁дараалан	-10.4671
▁Мар	-10.4672
▁танилцуулга	-10.4673
▁алхах	-10.4675
▁бут	-10.4675
▁мань	-10.4682
▁нийлж	-10.4684
▁Бразил	-10.4687
▁лиценз	-10.4687
▁St	-10.4688
▁буцаад	-10.4689
▁цүнх	-10.469
▁суртал	-10.469
▁Дархан	-10.4691
▁гэрчилгээ	-10.4697
▁толгойд	-10.4713
лаас	-10.4714
▁Авто	-10.4716
▁гэрлэх	-10.4718
▁33	-10.4722
▁яана	-10.4723
▁яриаг	-10.4724
▁зарцуулж	-10.4724
▁нөлөөтэй	-10.4724
▁Өнгө	-10.4734
▁байцаагч	-10.4734
▁дипломат	-10.4736
▁48	-10.4737
▁хожим	-10.4737
▁бухимд	-10.4739
▁хариуцсан	-10.474
▁Барилгын	-10.4741
▁хамрагдсан	-10.4742
▁ЖДҮ	-10.4744
▁ван	-10.4748
▁төрдөг	-10.4748
▁2-3	-10.475
▁дүгнэж	-10.475
▁шороо	-10.4752
▁Ра	-10.4758
▁өгчих	-10.4758
фф	-10.4763
▁даатгал	-10.4764
▁36	-10.4765
▁ээжийн	-10.4769
▁up	-10.4771
▁үүнийгээ	-10.4773
▁устга	-10.4774
▁мөрийн	-10.4774
▁компанийг	-10.4775
▁бүсэд	-10.4777
▁хараат	-10.4778
▁танихгүй	-10.4779
▁хөдлөл	-10.4786
гээрээ	-10.4787
▁манайхан	-10.4789
▁хуудсыг	-10.4789
▁үлдээсэн	-10.479
лүүд	-10.4792
▁Яв	-10.4794
▁Ви	-10.4796
▁үндэслэн	-10.4809
▁ганцаар	-10.481
▁Хөдөлмөрийн	-10.4813
▁гарахад	-10.4813
▁дэм	-10.4815
▁өмнөд	-10.4818
ha	-10.4825
шээ	-10.4826
▁дэвсгэр	-10.4826
▁харилцааг	-10.4829
▁стратегийн	-10.4834
od	-10.4834
▁харагдахгүй	-10.4836
▁орхисон	-10.4836
▁малын	-10.4837
▁янзын	-10.4837
▁инээд	-10.4837
хээр	-10.4842
▁150	-10.4853
▁Төмөр	-10.4855
▁бэлд	-10.4856
▁харь	-10.4857
▁бүсийн	-10.4864
▁цээж	-10.4864
▁Ё	-10.4867
▁Эмэгтэйчүүд	-10.4868
▁хөрөнгийг	-10.4883
▁завсар	-10.4883
▁хүснэгт	-10.4883
▁компаниудын	-10.4886
▁Бодит	-10.4889
▁цалинг	-10.4891
▁зөвшөөрөхгүй	-10.4891
▁албагүй	-10.4895
▁хажуу	-10.4895
▁материалыг	-10.4898
▁сахи	-10.4899
лэгдэж	-10.49
▁бололцоо	-10.4901
▁Яа	-10.4901
▁сүүлээр	-10.4903
▁орхи	-10.4906
▁бүрдүүлж	-10.4906
2012	-10.4906
▁гоол	-10.4907
▁түгээ	-10.4907
▁тэднээс	-10.4907
▁оргил	-10.4908
▁хурдтай	-10.4917
▁Ре	-10.4918
▁Хөх	-10.4918
▁бэл	-10.4918
▁сургуулиа	-10.492
Ер	-10.4922
▁буудалд	-10.4926
▁хөлбөмбөгийн	-10.4926
▁оршдог	-10.4932
▁зохистой	-10.4932
ест	-10.4933
▁үзүүр	-10.4935
▁НӨАТ	-10.4936
▁ярилаа	-10.4937
▁Жа	-10.4937
▁тэндээс	-10.4938
▁чадлаа	-10.4938
▁туйл	-10.4946
▁Сир	-10.495
▁намд	-10.4951
▁ялах	-10.4951
сай	-10.4957
▁Хайртай	-10.4958
▁амьсгалын	-10.4959
▁Ду	-10.4962
▁мэдэгдэх	-10.4962
▁буйг	-10.4963
бэр	-10.4965
ори	-10.4972
▁насан	-10.4976
өрөө	-10.4977
▁тэдгээрийн	-10.4979
▁одоог	-10.498
▁буулга	-10.4981
▁харгалзан	-10.4982
▁олигтой	-10.4982
▁Болзоо	-10.4982
Тэгвэл	-10.4983
▁апп	-10.4984
▁засгийг	-10.4984
▁төлсөн	-10.4985
▁сургаал	-10.4986
▁Мөнх	-10.4987
▁авчирсан	-10.4988
алд	-10.4992
▁нээсэн	-10.4993
▁уншдаг	-10.4993
▁тоогоор	-10.4996
тойгоо	-10.5002
▁байхаас	-10.5003
▁яар	-10.5004
▁гэмээр	-10.5008
▁зал	-10.501
▁хэргээр	-10.5011
▁Тай	-10.5012
ry	-10.5014
▁хугацаандаа	-10.5015
br	-10.5015
шд	-10.5017
дэв	-10.5019
▁яри	-10.5023
▁ардчилал	-10.5032
▁Австралий	-10.5033
▁Эрчим	-10.5033
▁Есүсийн	-10.5037
▁хаях	-10.5043
▁Африк	-10.5048
▁баримтлал	-10.5049
▁илэрхийл	-10.5051
▁дорой	-10.5062
Уул	-10.5064
▁Шинээр	-10.5065
▁гэрэлт	-10.5071
ba	-10.5071
▁эхэл	-10.5079
▁дэл	-10.5081
▁хөтөч	-10.5082
▁Гурав	-10.5082
▁ашгийн	-10.5082
▁хүндээ	-10.5082
▁чөлөөлөх	-10.5083
асан	-10.5084
▁хошуу	-10.5084
▁хавдр	-10.5084
▁хүргэдэг	-10.5089
▁эхлүүлсэн	-10.5089
▁амраг	-10.509
▁имэйл	-10.5091
▁тэмдэгт	-10.5093
му	-10.5095
▁тест	-10.5096
▁асуув	-10.5097
Эр	-10.51
▁Хоёрдугаарт	-10.5101
▁нутагтаа	-10.5105
▁хамтрагч	-10.511
снаа	-10.5114
▁харьцах	-10.5116
лай	-10.5116
чихаж	-10.5117
Эх	-10.5118
▁Ло	-10.5119
▁зарлиг	-10.512
рсан	-10.512
▁төлөвтэй	-10.5129
Гэр	-10.5129
▁тогтолцоог	-10.5129
▁шулуун	-10.5133
▁яригдаж	-10.5133
▁боломжийн	-10.5134
▁Богд	-10.5134
▁Ёстой	-10.5136
най	-10.5137
▁байгууллагуудын	-10.514
▁үүнтэй	-10.514
▁and	-10.514
▁явахдаа	-10.514
▁ялга	-10.5141
▁тодруулах	-10.5143
гуур	-10.5145
▁Хай	-10.515
▁болчихлоо	-10.5152
Сан	-10.5158
▁буух	-10.516
ard	-10.5161
▁хувилбарыг	-10.5171
лц	-10.5175
▁тоглолтоо	-10.5177
▁тайланг	-10.5179
▁Дор	-10.5179
▁нээлтээ	-10.5179
▁нартаа	-10.5181
▁авьяас	-10.5182
лээгүй	-10.5183
▁коронавирус	-10.5183
▁75	-10.5183
▁гудамжинд	-10.5184
▁Урт	-10.5186
▁танилцаж	-10.5187
руулах	-10.5191
▁ярилцсан	-10.5192
▁нааш	-10.5193
ашгүй	-10.5193
▁Дарга	-10.5193
▁жилийг	-10.5194
▁очиход	-10.5196
ант	-10.5198
▁тохируулах	-10.5199
▁болгохын	-10.5199
▁Банк	-10.52
▁будаг	-10.5201
▁давс	-10.5208
▁дамжуулах	-10.5209
▁болчихоод	-10.5211
▁орчныг	-10.5214
▁бүгдэд	-10.5214
▁Хаана	-10.5221
шаа	-10.5223
▁багшийн	-10.5226
▁дэлгэ	-10.5228
▁суманд	-10.5232
▁даашинз	-10.5234
▁үргэлжилнэ	-10.5235
сөөр	-10.5235
▁09	-10.5238
▁бодно	-10.5238
элсэн	-10.5239
▁МАНАН	-10.524
Олон	-10.5241
өнд	-10.5242
▁Өдөрт	-10.5247
▁амьтны	-10.5248
▁төлөвлөгөөг	-10.5253
Эрдэнэбат	-10.5254
▁тааруу	-10.5254
мо	-10.5255
▁төгсгөлд	-10.5256
хэл	-10.5259
ым	-10.5265
▁комисс	-10.5268
▁дагах	-10.5273
▁хөө	-10.5274
▁Лондон	-10.5277
дон	-10.5282
▁магт	-10.5282
▁өчүүхэн	-10.5286
▁ажилгүй	-10.5286
кс	-10.5287
оорой	-10.5288
▁тохиолдох	-10.529
хэ	-10.529
▁нарны	-10.5291
кк	-10.5294
▁өрсөлдөгч	-10.5297
ён	-10.5304
▁бодохоор	-10.5304
▁сорилт	-10.531
▁дүрд	-10.5311
иас	-10.5311
▁тайл	-10.5311
шуу	-10.5312
▁Гоо	-10.5312
▁дурс	-10.5313
▁дуудах	-10.5317
▁таарах	-10.5319
▁удам	-10.5322
▁байдлаа	-10.5322
▁шав	-10.5323
дуулсан	-10.5324
▁тогтнол	-10.5325
▁хагалгаа	-10.5326
▁алчуур	-10.5337
▁Увс	-10.5338
▁сургамж	-10.5338
▁ангилал	-10.5339
рин	-10.5339
▁номоо	-10.534
Ямар	-10.5341
▁алтны	-10.5341
▁l	-10.5343
▁хамгаалалтын	-10.5344
▁асуултанд	-10.5347
▁очдог	-10.5349
▁Гэмт	-10.536
▁Ас	-10.536
ТГ	-10.5365
чихлээ	-10.5366
пер	-10.5369
▁алдааг	-10.5372
▁хааж	-10.5376
▁сайхныг	-10.5377
▁мэргэн	-10.538
▁дуусч	-10.5381
лэлийн	-10.5382
▁Санаа	-10.5386
0,000	-10.5386
▁Иймэрхүү	-10.5389
▁радио	-10.5389
▁журмыг	-10.5389
▁дажгүй	-10.539
▁онцлох	-10.5391
om	-10.5391
▁насаар	-10.5391
▁татгалзаж	-10.5392
▁Тун	-10.5393
▁Хөвсгөл	-10.5394
▁хэсгээс	-10.5395
▁Иран	-10.5395
▁18-	-10.5398
▁багтаа	-10.5399
▁сурдаг	-10.5401
▁танилцсан	-10.5401
▁сайтын	-10.5403
гу	-10.5404
▁уйл	-10.5412
▁Хав	-10.5415
man	-10.5415
▁Үргэлж	-10.542
амба	-10.5421
▁хандуулах	-10.5426
▁оюутны	-10.5426
▁хорвоо	-10.5428
29	-10.5431
ate	-10.5432
▁өрөөний	-10.5433
▁Ямартай	-10.5433
▁давсан	-10.5435
▁багаж	-10.5438
▁хэрэгжүүл	-10.544
▁хуулбар	-10.5441
▁Тэгтэл	-10.5442
▁өөрчилсөн	-10.5442
▁хийгээрэй	-10.5443
▁Post	-10.5444
Өдрийн	-10.5444
▁ярихгүй	-10.5444
Алтан	-10.5444
▁муур	-10.5444
▁iPhone	-10.5445
▁явган	-10.5446
▁хувьцааны	-10.5446
ины	-10.5447
▁сэтгэлээр	-10.545
▁зуунд	-10.5453
▁Хор	-10.5453
▁зурагт	-10.5455
▁өөрчлөгдөх	-10.5457
лэгдэх	-10.5458
▁In	-10.5458
▁талаасаа	-10.546
04	-10.5462
▁дог	-10.5462
өлөө	-10.5463
▁Блог	-10.5464
▁арав	-10.5466
▁ре	-10.5467
▁зориул	-10.547
▁тойрог	-10.5471
илл	-10.5472
▁уналт	-10.5472
▁Мод	-10.5472
▁хэллэг	-10.5475
▁анхааралтай	-10.5477
тлаа	-10.5481
▁намууд	-10.5481
▁хэлчих	-10.5484
АД	-10.5488
▁охинтой	-10.5493
▁хэрэгслүүд	-10.5494
▁→	-10.5495
▁анхдагч	-10.5495
▁цагтаа	-10.5498
▁34	-10.5503
▁Ингэх	-10.5507
ийм	-10.5508
▁уян	-10.551
▁гаргахад	-10.5512
os	-10.5515
▁хийв	-10.5516
▁атга	-10.5516
▁сольж	-10.5518
▁ди	-10.552
▁зарлах	-10.5525
▁баримтлах	-10.5528
▁хохирогч	-10.553
▁зү	-10.5531
сыг	-10.5533
▁дуус	-10.5537
▁400	-10.5541
▁явдлууд	-10.5546
▁оффис	-10.5546
▁хэрэгслийг	-10.5546
▁хэмээсэн	-10.5546
down	-10.5546
▁тасалбар	-10.5547
▁эсэргүүцэж	-10.5547
▁тооцож	-10.5547
Очир	-10.5548
▁Өөртөө	-10.5549
▁суваг	-10.5553
▁мэдэгдлээ	-10.5553
длийн	-10.5556
▁балай	-10.5557
▁тарх	-10.5557
▁o	-10.5558
▁min	-10.5562
▁сүлжээний	-10.5562
дод	-10.5562
▁олдсон	-10.5563
▁аавын	-10.5567
▁тэнц	-10.5567
▁Худалда	-10.5568
▁Па	-10.5569
▁Mo	-10.5577
▁Аюулгүй	-10.558
▁дэв	-10.5592
▁очно	-10.5593
▁Солонгост	-10.5594
▁ерөнхийлөгчийн	-10.5594
▁статистик	-10.5599
▁туслалцаа	-10.5599
▁өртсөн	-10.5599
▁нялх	-10.5599
▁тэтгэмж	-10.56
▁хэрэглэгчдэд	-10.56
мэд	-10.5601
▁үлдэнэ	-10.5603
хо	-10.5603
сайхан	-10.5607
▁Битгий	-10.5608
ong	-10.5609
▁Элбэгдорж	-10.5609
%-	-10.5609
▁тэтгэвэр	-10.5609
▁Өнөөгийн	-10.5613
▁(19	-10.5614
▁(1)	-10.5622
чихвал	-10.5625
▁гэмтэл	-10.5625
▁үргэлжлүүлэх	-10.5629
▁сув	-10.5637
▁төрүүлж	-10.5637
логдсон	-10.564
▁хөгж	-10.5644
▁Гоолингоо	-10.5652
▁Сургуулийн	-10.5652
▁жишиг	-10.5653
▁таалагдаж	-10.5653
▁уншина	-10.5654
▁эрхлэгч	-10.5656
▁эрхэлдэг	-10.5657
▁эмчлэх	-10.5661
▁хөдөлгөөнийг	-10.5662
▁огцруулах	-10.5663
гджээ	-10.5668
ИН	-10.5674
▁Гадаадын	-10.5674
▁си	-10.5678
сах	-10.5683
▁тахил	-10.5685
02	-10.5686
▁Монголыг	-10.569
▁зайлсхийх	-10.569
▁30-	-10.5692
nd	-10.5694
▁салбарыг	-10.5695
шдээ	-10.5695
▁баригч	-10.5696
▁Сири	-10.5697
go	-10.5702
▁бүтээлийн	-10.5704
▁гаж	-10.5706
▁дээл	-10.5707
оч	-10.5708
▁уншаарай	-10.5708
▁ОУВС	-10.5709
▁ирэхийг	-10.5713
▁төлөөлөгчид	-10.5715
▁улстөр	-10.5716
▁байгаан	-10.5717
▁эхнээс	-10.5718
▁намаас	-10.572
▁уриалж	-10.572
▁ЭНД	-10.5721
▁Алтан	-10.5723
▁Үз	-10.5724
ээврийн	-10.5726
гэсэн	-10.5728
▁Ro	-10.5729
▁угааж	-10.573
▁хүндрэлтэй	-10.5736
▁төлөвлөлт	-10.5744
үүдээс	-10.5744
рэг	-10.5747
▁настайдаа	-10.5747
▁хураа	-10.5748
▁Нийтийн	-10.5754
▁Хичээл	-10.5756
▁согтуу	-10.5759
▁огцор	-10.576
▁бузар	-10.576
▁дунджаар	-10.576
▁хэвтэж	-10.5761
▁тогтсон	-10.5762
▁малгай	-10.5764
▁дамжуул	-10.5764
▁томилох	-10.5765
▁Цагдаа	-10.5766
▁төлбөрөө	-10.5766
▁Хүмүүсийн	-10.5767
▁оролцдог	-10.5767
▁хайрыг	-10.5768
▁хариулсан	-10.5769
▁таашаал	-10.5771
▁цуглаан	-10.5772
▁Тусгай	-10.5774
▁эрүүгийн	-10.5774
▁ТВ	-10.5776
үүлдэг	-10.5786
▁To	-10.5792
▁шуугиан	-10.5793
▁бу	-10.5794
тах	-10.5797
▁босоо	-10.5798
те	-10.5801
▁хөдөлгөөнт	-10.5808
▁эзэмшигч	-10.5808
▁итгэхгүй	-10.5813
▁эзэмшсэн	-10.5817
▁хэрэгтээ	-10.5817
тэйгээр	-10.5819
▁зочин	-10.5822
▁зарцуулсан	-10.5823
▁огтхон	-10.5825
▁татгалзсан	-10.5827
мон	-10.5828
aa	-10.583
em	-10.5836
▁талбар	-10.5839
▁заавр	-10.5844
▁буулгах	-10.5844
жуу	-10.5845
▁арил	-10.5846
цэн	-10.5848
▁дийл	-10.5848
▁сайгүй	-10.585
▁оржээ	-10.5856
арай	-10.5856
туяа	-10.5859
▁тави	-10.5866
▁үер	-10.5867
▁Бусдын	-10.5868
▁утгыг	-10.5868
▁сонирхлыг	-10.5868
▁хамаарч	-10.5869
▁үргэлжилсэн	-10.5869
▁ханамж	-10.5869
▁агуулсан	-10.587
▁хуралдаанаар	-10.5872
Йорк	-10.5873
ers	-10.5874
▁зогссон	-10.5874
▁хувьтай	-10.5875
▁Төсвийн	-10.5875
▁21-	-10.5876
▁зул	-10.5878
▁сонгуул	-10.5879
ия	-10.5879
▁үзүүлнэ	-10.5879
ве	-10.588
▁саа	-10.5881
▁Арай	-10.5887
▁чоно	-10.589
▁мэдүүлэг	-10.5894
аал	-10.5896
▁талх	-10.5897
▁хамар	-10.5897
▁зүтгэж	-10.5898
▁Монголдоо	-10.59
▁агуулах	-10.5901
▁Дотоод	-10.5902
Таныг	-10.5904
▁хож	-10.5906
▁олборлолт	-10.5908
хний	-10.5914
▁арал	-10.5914
су	-10.5922
▁чөтгөр	-10.5923
▁хорооллын	-10.5923
▁унаа	-10.5923
▁тайлбарласан	-10.5933
▁мөчид	-10.5935
▁торго	-10.5936
өс	-10.5939
▁хөрс	-10.594
▁элчин	-10.5943
▁мэдээллээр	-10.5946
100	-10.5947
▁дурын	-10.5951
мин	-10.5956
анг	-10.5957
▁хийчих	-10.5963
27	-10.5964
▁баримтууд	-10.5968
▁Гэрэл	-10.5968
▁Яах	-10.5969
▁Тиймээ	-10.5975
▁Испани	-10.5977
▁мессеж	-10.5978
▁тангараг	-10.5978
▁температур	-10.5978
▁оролцоно	-10.5978
▁Чөлөөт	-10.598
▁нтр	-10.5981
Z	-10.5983
Хэрэв	-10.5983
лээс	-10.5984
▁Аялал	-10.5984
▁Дур	-10.5986
▁Компанийн	-10.5986
▁2003	-10.5987
▁тайлах	-10.599
▁асуултууд	-10.599
▁бусын	-10.5993
▁Хий	-10.5996
▁Жин	-10.5998
▁модон	-10.6001
▁бүтээлүүд	-10.6001
▁төрүүлэх	-10.6003
▁карьер	-10.6004
▁маркетингийн	-10.6006
▁хортой	-10.6009
▁зуух	-10.6012
▁му	-10.6015
▁по	-10.6018
▁системд	-10.6019
луур	-10.6021
Аав	-10.6021
долларын	-10.6023
шилт	-10.6027
▁эцэс	-10.603
▁герман	-10.6033
▁одоохондоо	-10.6033
▁хэмээв	-10.6033
▁бүтцийн	-10.6033
▁наймдугаар	-10.6033
▁хөгжсөн	-10.6034
НЫ	-10.6036
ӨӨ	-10.6038
▁зураач	-10.6038
~	-10.6038
Яагаад	-10.6039
Сайн	-10.6045
▁сүлжээнд	-10.6049
ста	-10.6051
ga	-10.6051
▁хатга	-10.6052
▁Мэд	-10.6053
гаарай	-10.6053
▁Уур	-10.6055
▁баримтыг	-10.6061
▁цуглуулах	-10.6062
мэг	-10.6063
▁Нэгдүгээрт	-10.6063
▁хуулиа	-10.6063
▁Дэ	-10.6064
▁vv	-10.6069
▁бэлтгэж	-10.6071
▁Тал	-10.6074
▁цугла	-10.6074
▁Сарын	-10.6077
▁La	-10.6079
▁зорчигч	-10.6082
▁өлсгөлөн	-10.6088
▁Шинжлэх	-10.6088
▁холбох	-10.6088
▁зуршил	-10.609
▁бахархаж	-10.609
▁амарч	-10.6091
▁өмс	-10.6092
▁сай	-10.6092
шүү	-10.6094
▁тоглогчид	-10.6099
▁авчих	-10.6104
▁дүүргэ	-10.6105
ИС	-10.6107
▁Байгалийн	-10.6107
цгээ	-10.6108
гана	-10.6112
▁компаний	-10.6113
▁Гэ	-10.6122
єр	-10.6125
▁дагуулж	-10.6126
▁бүсгүйг	-10.6126
▁Шөнө	-10.6129
нуудын	-10.6132
лөн	-10.6132
▁авт	-10.6134
▁бэрх	-10.6134
▁харилцаатай	-10.6137
▁нитрил	-10.6144
▁Сингапур	-10.6144
▁ажилла	-10.6148
▁алхаж	-10.6151
тэ	-10.6151
Алтанхуяг	-10.6151
▁Тодорхой	-10.6151
▁аймаар	-10.6153
▁таньдаг	-10.6156
лож	-10.6158
▁Орхон	-10.616
▁Баярлалаа	-10.6163
▁кон	-10.617
▁хийе	-10.6176
▁Даваа	-10.6178
▁цэц	-10.618
▁Хол	-10.6181
▁хөнгөлөлт	-10.6182
▁шах	-10.6189
▁илүүтэй	-10.6191
рох	-10.6192
▁тэгэх	-10.6195
рс	-10.6199
ту	-10.6199
▁өөрийнхөөрөө	-10.6203
▁Грек	-10.6206
▁дамжуулж	-10.6207
▁дайр	-10.6208
▁гэрлэлт	-10.6209
▁залууг	-10.6212
▁барилдаан	-10.6213
▁хэдийнэ	-10.6219
ber	-10.6222
▁тохиргоо	-10.6222
▁зарцуул	-10.6225
пп	-10.6226
▁хүрт	-10.6231
▁өнгөрөө	-10.6239
▁Судалгаа	-10.6239
▁цэнэ	-10.624
▁хээ	-10.6244
▁алдаг	-10.6248
▁ингэх	-10.6248
▁театр	-10.6248
Дахиад	-10.6251
лагдаж	-10.6255
▁тараах	-10.6255
▁(0)	-10.6257
▁тоонд	-10.6257
▁мэдээлснээр	-10.6257
▁түүнчлэн	-10.6257
▁Фэйсбүүк	-10.626
▁Оюу	-10.6261
▁мэдээлсэн	-10.6262
▁найрагч	-10.6273
▁онош	-10.6274
▁бааз	-10.6274
▁шунал	-10.6275
▁санаарай	-10.6276
иб	-10.6279
▁идэвх	-10.6279
▁төрч	-10.6287
▁Агаарын	-10.6287
bi	-10.6291
▁шог	-10.6292
▁мэдэхийг	-10.6294
▁Mar	-10.63
sa	-10.6301
▁барааны	-10.6304
▁Дээрээс	-10.6305
▁зөвлөгөөг	-10.6309
▁бүхнээс	-10.6312
Амгалан	-10.6314
▁холболт	-10.6314
▁ургамл	-10.6314
▁гурил	-10.6314
▁тусламжтайгаар	-10.6316
▁байхав	-10.6317
▁зовлонг	-10.6318
▁Эрүүгийн	-10.6318
мэйл	-10.6319
▁банкууд	-10.632
▁олохгүй	-10.6322
The	-10.6322
▁явцыг	-10.6325
▁оруулаад	-10.6326
▁зарцуулдаг	-10.6326
цэх	-10.6327
▁биднээс	-10.6328
▁баярыг	-10.6334
mp	-10.6336
2019	-10.6341
▁бонд	-10.6341
▁хэлтэс	-10.6342
УУЛ	-10.6345
▁ю	-10.6347
▁анзаар	-10.6352
▁эмгэг	-10.6353
▁илгээ	-10.6354
▁Аа	-10.6358
сэг	-10.6358
▁шагналыг	-10.6359
▁Цаашд	-10.6364
ич	-10.6367
▁хоригло	-10.6368
▁гүйж	-10.6368
▁Бод	-10.637
▁тодотгол	-10.637
▁Байгууллагын	-10.6371
▁зэргийг	-10.6371
▁тусгасан	-10.6371
▁Интернэт	-10.6374
da	-10.6376
▁ингэ	-10.6378
▁япон	-10.6378
▁Хүнсний	-10.6381
уулагч	-10.6381
▁эрхэлж	-10.6386
▁хүрчээ	-10.6388
▁амраа	-10.6388
▁дуунууд	-10.639
▁19-	-10.6392
▁монголчуудын	-10.6392
▁онцлогтой	-10.6393
рга	-10.6394
▁залбир	-10.6397
▁болмоор	-10.64
▁салсан	-10.6401
төр	-10.6403
▁асуудаг	-10.641
иц	-10.641
▁эзлэх	-10.6411
▁тог	-10.6413
▁Тэрнээс	-10.6415
▁наа	-10.6415
▁Буруу	-10.6423
▁хаалттай	-10.6424
▁Худалдаа	-10.6428
▁огцом	-10.6428
▁Мексик	-10.6428
▁клип	-10.6428
▁амжилтад	-10.6428
▁хавдар	-10.6428
▁харамсаж	-10.643
▁гүйцэтгэдэг	-10.6432
▁жигд	-10.6432
▁ААН	-10.6438
дана	-10.6438
35	-10.6439
▁орхих	-10.644
▁үйлчлэгч	-10.6446
▁өнгөрүүлэх	-10.6446
▁сайдыг	-10.6449
▁Хө	-10.645
▁эсрэгээрээ	-10.6453
▁уна	-10.6461
▁Сэ	-10.6463
▁асуудлуудыг	-10.6466
per	-10.6468
▁хамаарах	-10.647
алдаг	-10.647
▁дуугаа	-10.6472
▁таалагдах	-10.6476
▁таараа	-10.6476
агдаж	-10.6478
▁хотоос	-10.6478
▁до	-10.6478
▁Ки	-10.6482
▁99	-10.6486
▁Next	-10.6486
▁Цэргийн	-10.6486
▁Өдгөө	-10.6486
▁мэдэхэд	-10.6486
▁атаарх	-10.6487
▁өгүүллэг	-10.6487
▁Төрөл	-10.6488
▁зэргээр	-10.6491
▁@	-10.6491
▁ирвэл	-10.6492
▁хонь	-10.6492
▁хүрлээ	-10.6493
Ам	-10.6494
▁чихэр	-10.6495
EE	-10.6496
▁16-	-10.6497
▁Энхбаяр	-10.6499
▁эсэргүүц	-10.6501
▁Хэр	-10.6501
▁болбол	-10.6505
▁хир	-10.6507
▁Угаасаа	-10.6508
▁ялгаж	-10.651
▁Түр	-10.6511
▁ярилц	-10.6513
▁өмд	-10.6514
▁өнөөг	-10.6515
▁өвчтөн	-10.6516
▁дансанд	-10.6518
▁алдагдал	-10.6522
▁ажиллуулж	-10.6524
▁хамгаалахын	-10.6526
▁мөрөө	-10.6538
▁тух	-10.654
▁таар	-10.6543
▁хариулж	-10.6544
▁Интернет	-10.6544
▁хангалтгүй	-10.6544
чихгүй	-10.6545
▁бүрээс	-10.6546
▁дахинд	-10.6546
▁үлдлээ	-10.6547
▁Le	-10.6547
▁Цахилгаан	-10.6548
▁Марк	-10.6549
▁хором	-10.655
▁зохи	-10.6551
▁талбайн	-10.6551
.....	-10.6554
▁Хү	-10.6557
▁зайд	-10.6558
таг	-10.656
▁дутагдал	-10.6561
▁үсээ	-10.6562
оу	-10.6562
▁ашигла	-10.6563
со	-10.6564
▁шанал	-10.6567
аагаад	-10.6568
▁Жилийн	-10.6569
▁49	-10.6569
▁наснаас	-10.657
▁хараарай	-10.6571
di	-10.6573
▁хариултыг	-10.6575
лгын	-10.6576
▁хайрт	-10.6579
▁Но	-10.6584
▁баригд	-10.6584
▁дизайн	-10.6585
▁худалдаанд	-10.6588
чихсөн	-10.6589
гээгүй	-10.6593
▁боловсон	-10.6599
▁Ой	-10.6602
▁хотноо	-10.6603
▁хүдэр	-10.6603
▁шилжилт	-10.6605
▁төлдөг	-10.6605
▁төмрийн	-10.6606
▁үйлдвэрт	-10.6611
▁Канадын	-10.6613
▁гэнээ	-10.6615
▁хийг	-10.6618
▁нэрлэсэн	-10.662
▁ЗХУ	-10.662
▁татаад	-10.6621
▁Амар	-10.6623
▁хийлгэ	-10.6623
▁идээ	-10.6632
▁хянан	-10.6633
▁санадаг	-10.6634
▁энерги	-10.6637
▁болгоход	-10.6638
▁хичээлээ	-10.6644
▁дүнгээ	-10.6645
Ар	-10.6646
▁баар	-10.6653
▁Сур	-10.6656
үл	-10.6661
▁форум	-10.6662
▁бэлдэж	-10.6663
▁хэлэлц	-10.6665
▁Баг	-10.6666
▁ярианы	-10.6667
▁цаасан	-10.6668
▁багтаж	-10.6669
▁ядан	-10.6671
▁бусадтай	-10.668
вээ	-10.668
ЭГ	-10.668
▁боловсролтой	-10.668
▁хү	-10.6681
26	-10.6684
▁хийлгэж	-10.6685
▁анхан	-10.6685
▁Амьд	-10.6691
▁ханга	-10.6694
лз	-10.6695
▁оруулагч	-10.6697
▁нүүрний	-10.6697
▁судалгааг	-10.6703
▁брэндийн	-10.6705
ань	-10.6706
ve	-10.6708
лтын	-10.6709
▁байгуулагч	-10.6712
▁зүйлгүй	-10.6714
хэр	-10.6715
▁орц	-10.672
▁өвдөлт	-10.6721
▁ИТХ	-10.6721
▁Итгэл	-10.6721
▁нийцсэн	-10.6724
▁оролдлого	-10.6725
▁бичигдсэн	-10.6725
▁уйлж	-10.6726
▁луйвар	-10.6728
▁хүсдэггүй	-10.6729
▁сэтгэлгээ	-10.673
▁домог	-10.673
▁хүсэн	-10.673
єл	-10.6734
▁өөх	-10.6734
▁сайтууд	-10.6735
▁тэнгэрийн	-10.6737
▁чинээ	-10.6738
▁co	-10.6739
▁Өглөөний	-10.6742
▁үгүйсгэхгүй	-10.6745
▁өсгөх	-10.6745
▁гүйлгээ	-10.6745
▁хүйс	-10.6747
▁гэрийнхэн	-10.6748
▁06	-10.6749
▁дуусна	-10.6749
Эдийн	-10.6751
▁өршөө	-10.6751
уль	-10.6753
▁хоёрт	-10.6758
▁чадваргүй	-10.6759
▁зугаа	-10.6764
▁эзэлж	-10.6767
▁ихэнхдээ	-10.6769
▁Иргэн	-10.6769
хаан	-10.677
▁Хаяг	-10.6771
▁ажиллагаатай	-10.6772
▁бүлэгт	-10.6775
▁зөвшөөр	-10.6775
▁нүцгэн	-10.678
▁үйлчилдэг	-10.678
бичгийг	-10.6785
▁Халдвар	-10.6788
▁Арьс	-10.6789
▁Сэлэнгэ	-10.679
йд	-10.6793
▁шилжүүл	-10.6793
лүүлсэн	-10.6797
▁эхэн	-10.6799
▁анхаарна	-10.6801
▁үеэ	-10.6809
эрч	-10.6809
олж	-10.6812
доод	-10.6815
ороо	-10.6818
▁сэргээ	-10.6818
▁До	-10.6818
▁Монголбанк	-10.6819
▁хурим	-10.6823
▁тунгаа	-10.6823
▁Жу	-10.6825
▁цө	-10.6827
▁ажиллахыг	-10.683
▁дүүрэгт	-10.683
лам	-10.683
Цаг	-10.6831
▁зөн	-10.6831
▁арми	-10.6831
лов	-10.6832
▁байгаадаа	-10.6832
▁сунга	-10.6833
▁су	-10.6833
▁алах	-10.6836
▁хүнээр	-10.6838
▁ажиллахгүй	-10.6839
агддаг	-10.684
▁Гэнэт	-10.684
▁долдугаар	-10.684
▁Сон	-10.6841
▁хийгдэх	-10.6841
▁технологийг	-10.6842
еп	-10.6842
▁ягаан	-10.6842
▁үйлдвэрлэсэн	-10.6843
▁үйлчилгээнд	-10.6844
▁цэс	-10.6845
▁илгээсэн	-10.6845
▁дууслаа	-10.6845
▁мэдлээ	-10.6847
▁харьяа	-10.6848
дол	-10.685
▁хус	-10.6851
шн	-10.6851
▁эрчимтэй	-10.6852
▁цэцэрлэгийн	-10.6855
▁Монголчуудын	-10.6858
▁хөдөлгөөнд	-10.686
▁өгөхөд	-10.6864
УУ	-10.6865
▁от	-10.6866
▁суралц	-10.6868
▁тавтай	-10.6879
цал	-10.688
▁Пи	-10.6883
▁хувааж	-10.6887
▁толгойгоо	-10.6887
бан	-10.6889
08	-10.689
▁нэгжүүд	-10.6891
▁хориглох	-10.6893
▁Цар	-10.6893
▁зарлаж	-10.6894
▁Хал	-10.6894
▁оросын	-10.6896
▁оюуны	-10.6898
▁хүүтэй	-10.69
▁хүчилтөрөгч	-10.69
▁зурвас	-10.69
▁дадлага	-10.69
▁цэнхэр	-10.6901
▁хөдөлгүүр	-10.6901
▁бохирдол	-10.6901
▁хөдөлж	-10.6904
▁тушаалд	-10.6904
▁тэргүүлж	-10.6906
гээрэй	-10.6906
Үгүй	-10.691
▁шинэхэн	-10.691
▁мужид	-10.6911
ддэг	-10.6915
▁хариуд	-10.6916
si	-10.6917
▁эсэхээ	-10.6921
▁тэнцэх	-10.6924
▁байрлаж	-10.6924
▁Ингэхэд	-10.6926
▁бүрдсэн	-10.6928
▁ажилчдын	-10.6931
▁залуучуудын	-10.6935
▁бэлтгэ	-10.6936
ее	-10.6937
▁уя	-10.6938
▁өгөөж	-10.6941
ni	-10.6944
▁ондоо	-10.6948
▁зохиогч	-10.695
АТ	-10.695
▁Мон	-10.6951
эгдсэн	-10.6951
▁Байр	-10.6952
▁сургуул	-10.6954
▁эхнэрээ	-10.6954
▁нэрлэж	-10.6957
art	-10.6959
▁Бээжин	-10.696
▁тавигдах	-10.6961
▁зөөврийн	-10.6961
▁самбар	-10.6962
▁залуутай	-10.6962
▁хориглосон	-10.6965
▁мэдэрсэн	-10.6965
▁шинэчлэлт	-10.6967
▁ирц	-10.6968
▁прокурор	-10.697
▁ослы	-10.6973
▁одон	-10.6973
▁Тусгаар	-10.6979
▁танхимд	-10.6981
уухан	-10.6981
▁Баасан	-10.6981
Анх	-10.6982
▁түвшинг	-10.6982
▁болоосой	-10.6984
▁сэрээ	-10.6985
вер	-10.6988
▁явуулна	-10.6989
▁амьдр	-10.699
▁хэлтэй	-10.699
▁хүлээлт	-10.6991
▁цаашаа	-10.6993
▁таньд	-10.6995
▁таамаглаж	-10.6995
рөө	-10.6997
ОО	-10.6998
ланд	-10.6998
▁май	-10.6999
▁зээлээ	-10.7002
▁болгоныг	-10.7006
Бо	-10.7009
▁25-	-10.7011
▁Ээ	-10.7012
▁Сайт	-10.7015
▁сана	-10.7016
мм	-10.7018
▁уруул	-10.7021
▁механизм	-10.7022
▁Швед	-10.7022
▁текст	-10.7022
▁туршилтын	-10.7023
▁өмсөж	-10.7023
▁Тэнэг	-10.7023
▁буйгаа	-10.7024
▁Нямдорж	-10.7025
▁хаврын	-10.7026
▁Мэдээлэл	-10.7027
▁хадгаламж	-10.7027
▁шингэ	-10.7029
▁хэмээжээ	-10.703
▁сайтад	-10.7031
де	-10.7032
▁хүрэл	-10.7032
▁цэвэрхэн	-10.7032
▁Pro	-10.7032
▁Ганцхан	-10.7032
▁баригдсан	-10.7033
▁даанч	-10.7036
Ээж	-10.7039
▁Хороо	-10.7039
▁хангамжийн	-10.704
▁бишүү	-10.7042
ондоо	-10.7045
▁тархалт	-10.7047
▁давхи	-10.7048
▁уугаад	-10.7049
▁стандартын	-10.7053
▁нутгаас	-10.7056
▁хорин	-10.7056
▁цогц	-10.7056
▁хүсэлтээ	-10.7057
▁Нэм	-10.7059
цгоо	-10.7059
▁өргөх	-10.706
мөөр	-10.7072
ук	-10.7075
▁эдлэх	-10.7076
▁дэмж	-10.7076
▁болохын	-10.7077
▁дэлгэр	-10.7079
tion	-10.7082
▁сервер	-10.7083
▁тулгамдсан	-10.7083
▁фэйсбүүк	-10.7083
▁ээлжинд	-10.7084
▁Монголоос	-10.7086
▁ажиллахад	-10.7091
▁Халуун	-10.7091
ЭМ	-10.7098
▁бэлтгэлээ	-10.7102
▁Хур	-10.7107
олт	-10.711
▁хүлээдэг	-10.7111
▁хүслээ	-10.7113
▁сунгах	-10.7114
▁Далай	-10.7115
дуулах	-10.7116
цийн	-10.7118
▁үүл	-10.7122
эгдэх	-10.7126
хой	-10.7126
07	-10.7127
▁хул	-10.7127
▁мо	-10.7132
▁орчуул	-10.7134
▁биет	-10.7135
▁Болд	-10.7141
▁захирамж	-10.7145
▁үүдэлтэй	-10.7145
уз	-10.7146
▁томилгоо	-10.7146
▁гүйцэтгэсэн	-10.7148
▁ХҮН	-10.7155
▁Парис	-10.7155
▁санасан	-10.7158
▁захын	-10.7162
▁юмнууд	-10.7162
▁түмнийг	-10.7162
▁тэнцвэр	-10.7164
▁маягт	-10.7168
▁амьдарсан	-10.7169
▁тушаалтнууд	-10.7171
▁шалтгааны	-10.7172
▁нэгээр	-10.7177
Улс	-10.7179
▁дээж	-10.7181
члэн	-10.7183
▁Ге	-10.7187
▁эрдэнэ	-10.7187
ез	-10.7188
▁ширтэ	-10.7189
▁цэвэрлэгч	-10.719
▁товчоо	-10.7193
▁бүрээр	-10.7193
▁дүгнэ	-10.7193
чихна	-10.7195
▁өмчийн	-10.72
▁улстөрч	-10.7201
▁Түүнтэй	-10.7202
▁хийхээс	-10.7207
ОЛ	-10.7207
▁гэрч	-10.7207
үйц	-10.7208
***	-10.7209
▁толгойн	-10.721
▁орхиод	-10.7211
▁Төлбөр	-10.7212
▁Хүүхдэд	-10.7213
▁000	-10.7213
▁өгдөггүй	-10.7214
▁тамхины	-10.7215
▁ашгаа	-10.7216
▁аврал	-10.7219
▁жагс	-10.7221
чдыг	-10.7222
▁ирээдүйг	-10.7223
▁төрөлд	-10.7223
mi	-10.7225
ine	-10.7227
▁харилцагч	-10.7227
її	-10.7229
▁шахуу	-10.7236
АГ	-10.7236
▁талбайг	-10.7238
▁барьдаг	-10.7239
▁бүтээгч	-10.7239
▁зоог	-10.7243
▁заалтыг	-10.7246
Ган	-10.725
▁МУ	-10.7251
▁65	-10.7252
▁Үе	-10.726
▁өдрөө	-10.7261
▁Нүд	-10.7261
▁те	-10.7266
▁угаа	-10.7267
▁Польш	-10.727
▁Даанч	-10.727
▁супер	-10.727
▁ходоод	-10.727
▁тодорхойл	-10.727
▁дэвтэр	-10.7271
▁тэнгэрт	-10.7271
▁хэмнэх	-10.7272
▁тээрмийн	-10.7273
руулж	-10.7274
эк	-10.7274
.2.	-10.7274
хор	-10.7278
▁авилга	-10.7278
▁Цэвэр	-10.7279
гү	-10.7281
▁илрэл	-10.7283
▁дэмжинэ	-10.7283
Надад	-10.7283
▁оров	-10.7287
▁Тав	-10.7293
үүлэгч	-10.7294
зай	-10.7296
агүй	-10.7297
▁шийтгэ	-10.7299
▁Ни	-10.7302
▁Эмэгтэйчүүдийн	-10.7302
▁бүлээ	-10.7308
▁тойр	-10.7312
▁14-	-10.7314
▁эмчид	-10.7318
▁бүхэлдээ	-10.7318
▁метр	-10.7319
Яг	-10.732
▁Усан	-10.7321
▁дал	-10.7324
▁суулгаж	-10.7324
муу	-10.7325
▁Алт	-10.7326
тол	-10.7328
ийж	-10.7328
▁Мор	-10.7329
▁доктор	-10.7333
▁зөрчиж	-10.7333
▁өгөгдөл	-10.7333
▁дэвсгэрт	-10.7334
▁бүтээмж	-10.7334
▁ахиад	-10.7334
▁томъёо	-10.734
▁Wi	-10.7341
▁тодорхойлсон	-10.7342
▁жам	-10.7342
▁үйлдвэрлэгчид	-10.7343
▁Хаа	-10.7346
▁!!!	-10.7346
▁туулсан	-10.7348
УИХ	-10.7349
▁Mac	-10.7352
вин	-10.7356
▁таслан	-10.7358
▁авав	-10.7361
▁чөлөөг	-10.7361
▁усыг	-10.7361
▁42	-10.7362
▁үйлчилж	-10.7363
2018	-10.7363
▁тогоо	-10.7367
ью	-10.7376
▁нэрлэх	-10.7378
▁үйлдэх	-10.7381
лер	-10.7387
▁хороололд	-10.739
▁зарчмыг	-10.7396
▁объект	-10.7396
▁платформ	-10.7396
▁хачирхалтай	-10.7396
▁аппарат	-10.7396
▁Нохой	-10.7396
▁олонхи	-10.7396
▁өгөөрэй	-10.7397
▁хүслийг	-10.7397
▁явагдах	-10.7397
▁буйгаар	-10.7398
▁Арван	-10.7398
Хү	-10.7399
▁гайхах	-10.74
рэй	-10.7403
▁шаардагдах	-10.7403
▁Зөвлөл	-10.7403
▁асуултын	-10.7405
▁газраар	-10.7405
ns	-10.7407
▁сануул	-10.7409
▁бирж	-10.7411
▁сэргийл	-10.7411
▁Бүс	-10.7412
▁хогийн	-10.7413
**	-10.7413
▁яд	-10.7413
▁хаясан	-10.7413
▁хэлээрэй	-10.7413
pa	-10.7415
▁больчих	-10.7417
▁хүүхдийнхээ	-10.742
▁ХК	-10.742
▁зөвшөөрдөг	-10.7423
▁Арга	-10.7424
▁хаш	-10.7425
▁боломжууд	-10.7428
▁бүлийнхэн	-10.7431
▁зайг	-10.7431
▁урагшаа	-10.7433
▁гэвч	-10.7438
ков	-10.7443
▁удаагүй	-10.7444
▁Дүү	-10.7447
▁дах	-10.7448
▁сурталчилгааны	-10.7448
▁тоглолтыг	-10.7452
bo	-10.7455
▁дуулга	-10.7456
▁Европт	-10.7456
Жавхлан	-10.746
▁зургадугаар	-10.746
▁мэндийг	-10.7461
▁мэтчилэн	-10.7461
огдсон	-10.7463
▁тэргүүлэх	-10.7465
▁сураг	-10.7465
▁тоос	-10.7472
Бидний	-10.7474
Сарын	-10.7475
▁бүжиг	-10.7476
▁адал	-10.7478
үүдээ	-10.7479
▁єєр	-10.7482
▁бүтэхгүй	-10.7491
45	-10.7491
хээс	-10.7493
▁гайхамшиг	-10.7494
▁800	-10.7494
▁бүлэглэл	-10.7496
кийн	-10.7497
ant	-10.7499
▁даргад	-10.7499
▁багаас	-10.7506
▁Ойрын	-10.7506
▁таларх	-10.7506
▁гут	-10.7507
▁тушаалын	-10.7507
▁оруулахгүй	-10.7508
▁38	-10.7509
▁түү	-10.7509
▁зантай	-10.7511
Хо	-10.7515
▁элсэн	-10.7515
лгийн	-10.7519
▁зөвшөөрлий	-10.7523
▁Сэтгэгдэл	-10.7524
▁нилээн	-10.7524
▁Хүүхдээ	-10.7524
▁мэдээллүүд	-10.7524
▁ширүүн	-10.7525
▁явбал	-10.7527
-10	-10.7527
▁засаж	-10.7528
▁хөгжүүл	-10.7529
▁хоорондох	-10.7532
▁илэрхийлдэг	-10.7533
▁нэрс	-10.7537
▁аваач	-10.7537
▁төлөөх	-10.7537
▁өдөрлөг	-10.7538
▁заа	-10.7539
▁Энийг	-10.754
▁гомдоо	-10.7542
▁нүүрээ	-10.7543
▁шатаа	-10.7544
▁харагд	-10.7544
▁харагдсан	-10.7544
▁дугаарт	-10.7546
▁Түүх	-10.7551
▁залхуу	-10.7553
▁чат	-10.7555
▁авахдаа	-10.7557
▁дас	-10.7557
▁сэтгэц	-10.756
▁байрлуулах	-10.756
ЭН	-10.756
▁55	-10.7565
▁байд	-10.7576
▁өдий	-10.758
io	-10.758
▁Өв	-10.7585
▁өсвөр	-10.7588
рол	-10.7589
до	-10.7591
▁найм	-10.7591
▁Ховд	-10.7591
▁хандуул	-10.7592
хү	-10.7593
AR	-10.7596
▁бсан	-10.7597
▁яав	-10.7597
▁гавьяа	-10.7598
99	-10.7598
нэг	-10.7599
▁ойлгуулах	-10.7602
▁07	-10.7603
▁ээждээ	-10.7606
▁болхоор	-10.761
ph	-10.7611
▁биеийг	-10.7612
▁оруулдаг	-10.7612
▁үүгээр	-10.7614
▁тө	-10.7614
▁олоход	-10.7614
▁Надаас	-10.7615
▁дагуул	-10.7617
▁хийхээ	-10.7621
▁тушаалтан	-10.7622
▁Не	-10.7625
▁зардаг	-10.7626
сөө	-10.7627
▁Эрт	-10.7627
стер	-10.7629
▁сонгогд	-10.763
pe	-10.7634
▁орил	-10.7635
▁тушаа	-10.7638
▁замдаа	-10.7639
▁Бизнесийн	-10.764
▁өөрчил	-10.7643
▁зэрэглэлийн	-10.7643
age	-10.7645
▁Сүнс	-10.7648
лсэн	-10.765
ru	-10.7651
▁замбараагүй	-10.7653
▁нутгийг	-10.7653
▁Хөөрхий	-10.7653
▁Нутгийн	-10.7653
▁айраг	-10.7657
▁бэр	-10.7659
▁эзэмшдэг	-10.7661
Жи	-10.7662
▁байгууллаа	-10.7662
▁эрхлэгчид	-10.7662
▁шийдвэрлэж	-10.7663
▁Цалин	-10.7668
Болор	-10.7669
▁Цааш	-10.7676
▁инээ	-10.7677
▁тусгаарлах	-10.7678
▁модны	-10.768
элгүй	-10.7684
лаар	-10.7685
▁гэл	-10.7687
▁хүснэ	-10.7698
Төрийн	-10.7699
ара	-10.77
▁өөрчлөлтийн	-10.7701
▁авдаггүй	-10.7704
агдаагүй	-10.7707
▁Ад	-10.7708
лна	-10.7708
▁сургах	-10.7708
tt	-10.7708
▁хүүхэлдэйн	-10.771
▁хє	-10.771
▁бэлдэх	-10.7711
▁тохируул	-10.7713
▁гэлтгүй	-10.7719
▁тендер	-10.772
▁зурхай	-10.772
▁Гадны	-10.7721
▁Хариулт	-10.7721
▁элемент	-10.7724
▁Буу	-10.7727
▁Шаардлагатай	-10.7728
▁нэмсэн	-10.7729
▁яваарай	-10.7729
алтай	-10.773
▁нягтлан	-10.7734
▁байршуулах	-10.7736
▁намыг	-10.7738
▁унд	-10.7738
хаас	-10.7742
po	-10.7746
▁золиос	-10.7748
▁ги	-10.7751
▁ашиглана	-10.7754
Ин	-10.7757
мент	-10.7757
▁Компани	-10.7759
гаасаа	-10.7765
▁сэргээн	-10.7765
▁хурааж	-10.7772
▁арын	-10.7774
▁явчих	-10.7774
▁Баттулга	-10.778
▁сэв	-10.7781
▁сансрын	-10.7784
▁цогцолбор	-10.7784
▁хатагтай	-10.7784
▁цамц	-10.7784
▁тохиолдож	-10.7785
▁өндөг	-10.7786
▁агуулдаг	-10.7786
▁эрдэмтэн	-10.7786
▁үхэл	-10.7786
▁аймар	-10.7786
▁Баянзүрх	-10.7788
▁шилжүүлэн	-10.7789
▁ярилцлаа	-10.7789
▁тэмдэглэдэг	-10.779
▁удаж	-10.7793
▁салга	-10.7793
▁Тоглоом	-10.7799
▁буурч	-10.78
▁босох	-10.78
▁Бүрэн	-10.78
▁Кан	-10.78
▁нараа	-10.78
Намайг	-10.7801
▁хоёрхон	-10.7802
▁хөнгө	-10.7803
ck	-10.7807
▁давах	-10.7809
ЧИ	-10.781
▁ёслолын	-10.7811
▁гарав	-10.7811
огдох	-10.7812
лэгддэг	-10.7813
▁хоолойг	-10.7813
▁төрхийг	-10.7815
▁13-	-10.7815
▁барууны	-10.7815
▁зохицуулж	-10.7816
▁учирсан	-10.7818
▁самар	-10.7825
▁асуултыг	-10.7828
▁Арабын	-10.7829
▁сэн	-10.7831
▁хуц	-10.7833
95	-10.7835
нер	-10.7839
▁Хэнтий	-10.784
▁цөл	-10.7843
▁Зөвлөлт	-10.7843
ok	-10.7845
▁өрхийн	-10.7845
УС	-10.7848
he	-10.785
▁контент	-10.785
▁түймэр	-10.785
▁наяд	-10.7851
▁тараа	-10.7851
▁нэмэгдэнэ	-10.7851
▁Зөндөө	-10.7853
▁нөхрөө	-10.7853
Өвлийн	-10.7854
▁Тэгэхдээ	-10.7854
▁08	-10.7855
САН	-10.7856
▁хэрэглэгддэг	-10.7857
▁тоглоод	-10.7857
тра	-10.786
▁төрүүлсэн	-10.786
▁танилцуулсан	-10.7861
▁Хятадууд	-10.7861
ity	-10.7862
▁мөсөн	-10.7864
▁зорилгодоо	-10.7866
▁шаардсан	-10.7866
▁Машины	-10.7869
▁оролдсон	-10.787
▁европ	-10.7871
лгэ	-10.7872
▁Шин	-10.7872
▁үзжээ	-10.7874
▁Ст	-10.7875
ack	-10.789
!!!!	-10.7894
▁хооллох	-10.7894
▁машинд	-10.7897
▁дүгнэх	-10.7897
▁өгө	-10.7899
▁хэлбэртэй	-10.7902
лсон	-10.7905
Хө	-10.791
▁Ажлаа	-10.7911
▁02	-10.7911
гдсэн	-10.7916
▁Богино	-10.7917
▁хязгаарлагдмал	-10.7917
▁зэрлэг	-10.7917
▁Цэцэрлэг	-10.7923
no	-10.7924
▁ойлгоно	-10.7924
▁Сал	-10.7927
▁Ирак	-10.793
▁хамарсан	-10.793
▁хөлд	-10.7938
төө	-10.7939
окс	-10.7939
▁саруул	-10.794
чим	-10.7942
▁Хөг	-10.7943
▁Зургаа	-10.7944
▁хийц	-10.7944
▁тулга	-10.7946
▁хийхийн	-10.7948
атор	-10.7949
▁Ял	-10.7949
Ху	-10.7949
▁Оюутолгойн	-10.7954
дахгүй	-10.7956
▁сураггүй	-10.7956
▁хуульч	-10.7958
▁Се	-10.7958
▁хэрэгжүүлнэ	-10.7961
one	-10.7964
▁ширээний	-10.7968
ами	-10.7968
Бар	-10.797
▁тэтгэвэрт	-10.7972
▁хэнтэй	-10.7974
▁Охид	-10.7975
▁барах	-10.7977
▁Хам	-10.7977
Баасанхүү	-10.7982
▁Обама	-10.7984
▁хойч	-10.7986
▁Нь	-10.7986
▁айгаад	-10.7986
ош	-10.7987
▁Шү	-10.7988
▁эдэлж	-10.799
лаач	-10.7992
▁өсгө	-10.7992
▁Нууц	-10.7997
үг	-10.7998
▁шалгана	-10.8
▁k	-10.8
ҮХ	-10.8001
Бүх	-10.8003
▁урамшуулл	-10.8007
▁дээшлүүлэх	-10.8009
ого	-10.8011
▁чигээрээ	-10.8011
▁үстэй	-10.8012
▁жинтэй	-10.8015
▁Хил	-10.8016
▁бахархал	-10.8019
вр	-10.802
▁тавин	-10.8022
Й	-10.8026
▁үзэхийг	-10.8029
▁нийтээрээ	-10.803
Дэлхийн	-10.803
▁гэгээн	-10.8031
▁саатуул	-10.8032
▁Загвар	-10.8034
▁бүтээлээ	-10.8035
уулалт	-10.8037
▁тэргүүний	-10.804
▁төлөвлөгөөтэй	-10.8041
▁Be	-10.805
▁ДЭМБ	-10.8052
▁сошиал	-10.8052
▁сэдвийг	-10.8052
▁Өөрсдөө	-10.8052
▁өсөж	-10.8052
▁бизнесээ	-10.8053
▁дам	-10.8055
▁ад	-10.8055
▁00	-10.8056
▁Хув	-10.8059
▁нийл	-10.8059
▁чимэглэл	-10.8065
▁хичээсэн	-10.8069
#	-10.807
▁тарааж	-10.8071
▁үхэж	-10.8071
▁өдрөөр	-10.8072
▁Гоё	-10.8072
▁үлд	-10.8076
▁Израиль	-10.8078
▁мэдэлд	-10.8079
▁буулгаж	-10.8084
▁гаа	-10.8086
Тэг	-10.8086
▁баржээ	-10.8086
▁хэлбэрийн	-10.8088
▁дүнгийн	-10.809
▁байлгаж	-10.809
▁Хэв	-10.8091
▁асуудалгүй	-10.8094
▁хэлээ	-10.8094
▁өс	-10.81
▁оролц	-10.81
▁зогс	-10.8101
иш	-10.8101
▁Сургууль	-10.8102
▁нур	-10.8104
ийнхаа	-10.8104
▁хүрэхийн	-10.8105
▁бариул	-10.8106
▁болохоороо	-10.8109
Эрдэнэт	-10.811
▁хайлтын	-10.811
▁олгогч	-10.8113
▁тэсэ	-10.8117
▁Хи	-10.8118
▁байгуулдаг	-10.8119
▁санамсаргүй	-10.812
▁хүзүү	-10.812
▁Дубай	-10.812
▁хэвлэх	-10.8121
▁хөгжлийг	-10.8121
▁явагддаг	-10.8121
▁тарих	-10.8121
▁байлга	-10.8122
▁ирүүлсэн	-10.8123
уулаа	-10.8124
▁Програм	-10.8124
▁тоглоно	-10.8125
ast	-10.8127
▁үүсгэдэг	-10.8128
▁тусламжийн	-10.8128
▁ЗГ	-10.8129
Да	-10.8129
▁алдахгүй	-10.813
▁ком	-10.813
▁асуулаа	-10.8131
▁ижилхэн	-10.8136
ика	-10.8137
Зориг	-10.8139
▁Ри	-10.814
▁ялгах	-10.8142
▁харамс	-10.8142
▁ажилтны	-10.8144
▁ялсан	-10.8145
▁сэргэ	-10.8146
▁Зуны	-10.8147
▁улай	-10.815
▁Нээрээ	-10.8152
орт	-10.8153
▁Чин	-10.8155
▁архив	-10.8156
ЭД	-10.8158
▁унадаг	-10.816
▁ажлаасаа	-10.8161
▁онцолж	-10.8162
▁хон	-10.8163
▁хүрэхэд	-10.817
▁Тө	-10.8171
▁Ням	-10.8174
▁бө	-10.8174
ач	-10.8174
ment	-10.818
▁шилж	-10.818
▁гэрээнд	-10.8181
▁тэтгэлэг	-10.8182
▁эрчүүдийн	-10.8185
▁тогооч	-10.8186
▁түмнээ	-10.8187
▁дэр	-10.8187
▁Архангай	-10.8188
▁бялуу	-10.8188
▁ухаар	-10.8189
▁мөрдөж	-10.8189
гэх	-10.819
▁хаягдал	-10.8191
▁хөөж	-10.8193
▁хийлгэсэн	-10.8196
▁үзэгчид	-10.8196
ОГ	-10.8197
▁захиалагч	-10.8203
▁Ша	-10.8204
орго	-10.8205
▁малчин	-10.8208
▁нүдээр	-10.8208
▁тэгсэн	-10.8209
▁Урд	-10.8209
▁доллараар	-10.8212
алгаа	-10.8214
▁нуух	-10.8214
▁халх	-10.8218
▁шийддэг	-10.8219
▁мартсан	-10.8219
▁цуглуулга	-10.822
▁1-2	-10.8222
▁илгээж	-10.8226
Бу	-10.8227
▁гарагийн	-10.8228
▁Библи	-10.8232
▁хүргэнэ	-10.8233
▁хороонд	-10.8233
вуу	-10.8235
▁тулгуур	-10.8235
▁өгөхөөр	-10.8235
чихэж	-10.8237
▁Эмээ	-10.8238
лосон	-10.8238
▁хөнөө	-10.8239
▁01	-10.824
ell	-10.8241
▁зүйлсээ	-10.8245
▁амжилтыг	-10.8247
▁мартах	-10.8249
▁r	-10.8253
▁YouTube	-10.8257
▁БНАСАУ	-10.8257
▁шалтгаална	-10.8257
▁Sonin	-10.8257
▁хүрэлцэн	-10.8258
▁Малайз	-10.8258
▁нотолгоо	-10.8258
▁согтууруулах	-10.8258
▁Бүгдийг	-10.8259
▁Оюутан	-10.8259
▁шуурга	-10.8259
▁эзэлдэг	-10.826
ех	-10.826
лас	-10.8261
▁Me	-10.8262
▁Бурхны	-10.8263
▁өгүүлсэн	-10.8263
▁Жолооч	-10.8263
▁Сэтгүүлч	-10.8267
эе	-10.8273
▁Уучлаарай	-10.8274
гэнэ	-10.8275
Тэд	-10.8286
ca	-10.8288
▁эргүүл	-10.8288
ход	-10.829
▁мэдрэмжийг	-10.8291
▁Өг	-10.8294
▁зүйрлэ	-10.8294
▁хураах	-10.8302
Эм	-10.8305
▁дутагдалтай	-10.8307
▁зурж	-10.8314
▁for	-10.832
▁дотроос	-10.8323
▁танаас	-10.8327
▁арчилгаа	-10.8327
▁холбож	-10.8327
▁хувцсаа	-10.8327
▁нөхөрлөл	-10.8327
▁салшгүй	-10.8328
▁оршиж	-10.833
▁мэтийн	-10.8332
▁өвчлөл	-10.8334
ард	-10.8335
▁буурах	-10.8336
▁сонсогдож	-10.8337
▁байртай	-10.8339
▁машинаа	-10.8341
▁таалагдахгүй	-10.8342
▁Авлига	-10.8343
ъ	-10.8344
шоо	-10.8344
▁багууд	-10.8346
iz	-10.8348
▁давтан	-10.8351
ea	-10.8351
▁дэлгүүрийн	-10.8353
▁зорилгоо	-10.8354
▁хайл	-10.8358
▁шан	-10.836
▁эмэгтэйчүүдэд	-10.8362
тин	-10.8362
рей	-10.8365
▁ангилалд	-10.8366
▁түрээсийн	-10.8375
игийн	-10.8376
▁ов	-10.8379
▁өгүүлэх	-10.838
▁илэрч	-10.8383
▁ойлгодоггүй	-10.839
▁Жан	-10.8394
▁залуугийн	-10.8395
▁ОУ	-10.8396
▁иргэдээс	-10.8396
▁Байнгын	-10.8397
▁огцрох	-10.8397
▁робот	-10.8397
▁Умард	-10.8397
▁Гишүүд	-10.8397
▁нийлүүл	-10.8398
▁хориглоно	-10.8399
▁Яахав	-10.8401
▁хаагчдын	-10.8402
▁хугар	-10.8403
▁хийдэггүй	-10.8404
▁дараалал	-10.8408
▁дэвшүүл	-10.8408
▁байцаалт	-10.8408
кер	-10.8408
▁БАЙ	-10.8408
▁шахалт	-10.8411
▁Ногоон	-10.8418
ite	-10.8418
▁захиалах	-10.8421
▁үүргийн	-10.8424
▁бодоогүй	-10.8427
▁Шөн	-10.8429
▁аял	-10.843
▁уудаг	-10.8432
кү	-10.8436
тсан	-10.844
=	-10.8441
▁гээл	-10.8441
▁ашиглахыг	-10.8445
оз	-10.8447
▁эрэн	-10.8453
▁бодлогоо	-10.8453
▁бэх	-10.8458
▁хоолонд	-10.8458
▁хүчинд	-10.8459
▁1:	-10.8461
▁туяа	-10.8462
ft	-10.8464
▁Ир	-10.8464
▁уусан	-10.8466
▁осолд	-10.8466
▁шалтгаалан	-10.8467
▁МУИС	-10.8467
▁Улаанбаатарт	-10.8468
▁махан	-10.8468
▁Фото	-10.8469
▁дүрмий	-10.847
▁Хурдан	-10.8475
▁хороолол	-10.8477
▁авъя	-10.8477
▁босоод	-10.8481
▁ресторан	-10.8483
АВ	-10.8486
▁идээд	-10.8487
▁дэлгүүрт	-10.8489
▁Ян	-10.849
▁дуусга	-10.8494
▁бөмбөгийн	-10.8501
▁өнгөр	-10.8501
▁анхааралд	-10.8503
▁өдөө	-10.8504
▁хов	-10.8505
▁шүүмжилж	-10.8505
▁вакцины	-10.8507
▁өндөртэй	-10.8508
▁борлуулалтын	-10.8514
▁шийдлээ	-10.8514
▁гэнэтийн	-10.8516
▁алсан	-10.8516
лалын	-10.8516
ld	-10.8522
НИЙ	-10.8526
Үүл	-10.8526
▁хэтрүүл	-10.8528
▁газартай	-10.8528
IN	-10.8535
▁хөлбөмбөг	-10.8536
▁бишээ	-10.8537
▁Вашингтон	-10.8538
▁хужаа	-10.8538
▁Нэмэлт	-10.8539
▁хөтлөх	-10.8539
▁Бүтэн	-10.8539
▁амаа	-10.8539
▁үүсдэг	-10.8539
болд	-10.854
▁өвдөх	-10.854
▁j	-10.8542
▁илрүүл	-10.8542
▁шивээс	-10.8543
▁багтдаг	-10.8543
▁хорлох	-10.8544
▁тархины	-10.8546
▁Эгч	-10.8547
▁хальс	-10.8547
▁дэвш	-10.8548
▁орууллаа	-10.8549
▁шинэчилсэн	-10.855
▁Даг	-10.8551
ова	-10.8552
▁сурагчдын	-10.8552
▁44	-10.8554
Хамгийн	-10.856
Хоёр	-10.856
мол	-10.8563
▁тоглоомыг	-10.8564
▁болчихдог	-10.8569
▁үүдэн	-10.8571
▁сексийн	-10.8581
▁Ну	-10.8581
▁Тэ	-10.8585
▁тэрийг	-10.8586
▁жа	-10.8587
▁Ве	-10.8587
▁Афганистан	-10.859
SS	-10.8593
▁дүнгээр	-10.8596
▁сун	-10.8596
▁Анд	-10.86
▁зайтай	-10.86
▁захирагч	-10.861
▁түрээслүүлнэ	-10.861
▁Сонин	-10.861
▁Ba	-10.861
▁1992	-10.8611
▁эргэх	-10.8611
▁доогуур	-10.8612
▁хэрэглэ	-10.8613
▁нэмээд	-10.8615
▁эргүүлэн	-10.8615
▁ядарсан	-10.8615
▁тайзан	-10.8617
▁импорт	-10.8617
▁мөргө	-10.8617
▁ичих	-10.8618
▁Эртний	-10.8619
▁Ноён	-10.8621
▁журмаар	-10.8622
▁эрхэнд	-10.8628
▁хэвт	-10.863
тний	-10.863
▁эмгэнэл	-10.8631
билэг	-10.8632
▁Li	-10.8633
▁05	-10.8635
лтийн	-10.8635
▁замаа	-10.8636
▁мөнхийн	-10.8637
▁нэвтрүүл	-10.8638
эрсэн	-10.8638
▁хамгаална	-10.8641
▁санаагаа	-10.8641
▁туул	-10.8645
▁шавьж	-10.8646
▁унаад	-10.8647
▁тайлбарла	-10.8649
▁сургалтанд	-10.865
▁авахаас	-10.8653
гөөр	-10.8654
▁гардаггүй	-10.8655
хныг	-10.8657
▁тоглоомууд	-10.8659
▁бодисын	-10.866
▁Дэд	-10.8661
▁зэрэглэл	-10.8661
▁Зориг	-10.8662
▁Оюутолгой	-10.8662
▁хэрэглээнд	-10.8663
▁Бөө	-10.8672
▁тоглолтонд	-10.8677
оло	-10.8678
▁үдэш	-10.8679
гол	-10.868
▁Порно	-10.8681
▁чадамж	-10.8682
▁шүүлтүүр	-10.8682
▁ээжийгээ	-10.8683
▁алдагдсан	-10.8684
▁зэрэгцэн	-10.8686
▁Туул	-10.8686
▁Төслийн	-10.8687
▁авбал	-10.8688
▁Асуудал	-10.8689
▁дэлгэцийн	-10.8689
▁2:	-10.8693
▁дууссаны	-10.8695
Эрдэн	-10.8695
▁арч	-10.8698
▁тэргүүлэгч	-10.8699
▁ухамсар	-10.8699
▁элч	-10.8699
▁учиргүй	-10.8702
▁үеийнхэн	-10.8704
▁аминд	-10.8704
▁сараар	-10.8704
Эрүүл	-10.8706
Ийм	-10.8706
▁мэргэжилтэй	-10.8706
▁Мах	-10.8707
▁хэрэглээг	-10.871
▁Ами	-10.8713
▁газруудад	-10.8714
олон	-10.8714
▁тоохгүй	-10.8714
▁ойлголттой	-10.8715
▁танилцуул	-10.8724
▁залуусын	-10.8725
▁Ойр	-10.8727
▁алдаатай	-10.8731
▁устгаж	-10.8733
▁хүлээнэ	-10.8736
▁хүргэ	-10.8739
ынхоо	-10.8744
▁цуглуул	-10.8745
▁Тү	-10.8749
▁Хариу	-10.8749
▁амьдарна	-10.8749
тур	-10.8752
▁нэгтгэх	-10.8752
▁хагар	-10.8753
▁Previous	-10.8754
▁Чингэлтэй	-10.8754
▁паспорт	-10.8754
▁ТББ	-10.8754
▁гацаа	-10.8754
▁төслөө	-10.8754
▁өнгөрлөө	-10.8755
▁Үлдсэн	-10.8755
▁хүлээгээд	-10.8755
ери	-10.8756
▁авъяас	-10.8756
Хэн	-10.8757
▁хивс	-10.8758
▁Ром	-10.8758
▁танилцууллаа	-10.8758
раагүй	-10.8759
▁эдлэл	-10.8761
ka	-10.8766
▁пи	-10.8766
▁болсны	-10.8771
▁эргэлд	-10.8771
▁баталгаатай	-10.8772
▁дайнд	-10.8773
▁эхлэхээс	-10.8774
▁ооо	-10.8776
▁ялагч	-10.8779
▁нийлүүлэх	-10.8787
▁хүрээг	-10.8794
▁хоно	-10.8795
▁байгууллаг	-10.8802
дай	-10.8803
▁заан	-10.8809
▁харьцуул	-10.8809
▁Суу	-10.8811
▁цээр	-10.8812
▁гамшиг	-10.8812
▁Май	-10.8816
▁гаран	-10.8818
▁бүртгэлтэй	-10.882
▁хадгаламжийн	-10.882
▁цэвэрлэгээ	-10.8821
▁шаар	-10.8823
гах	-10.8824
▁ашиглахад	-10.8825
ng	-10.8826
▁өнөөдрөөс	-10.8827
▁хурдацтай	-10.8827
▁цаад	-10.8829
нүүдийг	-10.883
▁төлнө	-10.883
▁үйлдвэрлэдэг	-10.883
гдаж	-10.8832
▁Оюутнууд	-10.8833
▁навч	-10.8835
▁аргачлал	-10.8839
▁анзаарсан	-10.884
зүйн	-10.8844
онг	-10.8845
▁цуцлах	-10.8849
▁яамнаас	-10.8849
▁хуваалц	-10.885
▁рок	-10.885
▁гартаа	-10.8856
▁хятадууд	-10.8859
▁тэжээ	-10.8861
▁Ухаан	-10.8862
ээч	-10.8867
▁гүйцэтгэгч	-10.8868
▁удирдан	-10.8868
эхээр	-10.8874
уйц	-10.8875
▁залги	-10.8881
▁дааж	-10.8884
авар	-10.8886
алдаа	-10.8892
▁илүүд	-10.8893
▁холбоос	-10.8898
▁ялыг	-10.8898
ge	-10.89
▁ерөөл	-10.8901
▁адилгүй	-10.8901
▁байшинг	-10.8902
▁онцлон	-10.8902
▁Цай	-10.8903
өрө	-10.8904
▁эмийг	-10.8904
▁зааг	-10.8907
▁тасал	-10.8907
▁босгох	-10.8909
лалтын	-10.8914
▁алж	-10.8914
▁баталгаажуулах	-10.892
▁тусалсан	-10.892
▁гүрэн	-10.892
▁Тамхи	-10.8923
▁22-	-10.8927
▁орлоготой	-10.8929
▁хүндэт	-10.893
▁Туркийн	-10.893
55	-10.8931
▁цэнийг	-10.8931
▁цайны	-10.8933
▁шүүдээ	-10.8933
▁тэвчээр	-10.8935
▁бичил	-10.8938
▁ахин	-10.8938
▁зохиолын	-10.894
▁May	-10.8944
▁суга	-10.8951
▁Чан	-10.8952
төл	-10.8956
▁зуурын	-10.8957
▁е	-10.8958
▁дуулдаг	-10.8959
▁дүүс	-10.8959
▁хавтан	-10.8964
▁тулж	-10.8965
по	-10.8971
сч	-10.8972
▁франц	-10.8974
▁Филиппин	-10.8974
▁мөрийтэй	-10.8974
▁нөхцлий	-10.8975
▁амьсгаа	-10.8975
▁нойтон	-10.8975
▁дуулиан	-10.8975
▁дэвшиж	-10.8976
▁сартай	-10.8976
▁Al	-10.8976
ОМ	-10.8976
▁дуусаагүй	-10.8977
▁тэгэж	-10.8979
▁хумс	-10.8979
▁этгээдүүд	-10.8981
▁арслан	-10.8985
▁зориулалтаар	-10.8986
цэж	-10.8989
▁оролдох	-10.899
▁улстөрийн	-10.8992
үрэн	-10.8996
▁тунхагла	-10.8997
Q	-10.8998
Сүүлийн	-10.9
▁бичгээр	-10.9
up	-10.9006
▁агаарт	-10.9006
охгүй	-10.9012
▁ген	-10.9013
▁төрчид	-10.9013
▁зардлаа	-10.9017
▁Нэгдүгээр	-10.9018
▁доошгүй	-10.902
▁дүгнэлтийг	-10.9022
▁сурга	-10.9025
▁Нийслэл	-10.9027
ТАЙ	-10.9029
▁будалт	-10.903
▁тиймээс	-10.9032
▁тодруул	-10.9035
▁боддоггүй	-10.9036
▁Se	-10.9036
Мянга	-10.9038
элтийн	-10.9044
▁ХӨСҮТ	-10.9049
▁генерал	-10.9049
▁үүсээд	-10.9049
▁хүртэж	-10.905
▁сонирхлын	-10.905
▁чадлы	-10.9051
гоороо	-10.9052
▁XNUMX	-10.9053
▁үнэлдэг	-10.9053
▁өнгөрүүлсэн	-10.9054
▁үүсгэсэн	-10.9054
▁гарахыг	-10.9054
▁Коронавирус	-10.9055
nk	-10.9061
▁начин	-10.9061
▁эрж	-10.9061
▁бичигт	-10.9062
▁сайдад	-10.9065
▁шийдвэрээ	-10.9065
▁даавуу	-10.9068
▁2001	-10.9069
снээ	-10.907
▁яддаг	-10.907
▁хялбархан	-10.9075
ER	-10.9084
▁аялж	-10.9086
▁төлөвлөгөөний	-10.9086
▁ХХ	-10.9086
▁холд	-10.9089
ѳѳ	-10.909
▁эргүү	-10.9091
▁хаяад	-10.9092
БХ	-10.9092
▁салгаж	-10.9093
▁Дав	-10.9094
▁Булган	-10.9096
▁ХҮ	-10.9097
▁өнгөрөөх	-10.9098
▁нийтээр	-10.9098
▁машинтай	-10.9099
▁салгах	-10.9101
▁Номын	-10.9103
▁ме	-10.9106
▁эмчийн	-10.9107
гүйгээс	-10.9112
▁гунигтай	-10.9118
▁машинууд	-10.9118
▁тамир	-10.912
-3	-10.9121
▁Сөүл	-10.9124
рваннэгдүгээр	-10.9124
▁суудлын	-10.9124
▁агуулгыг	-10.9124
▁хомсдол	-10.9124
▁өмсөгч	-10.9124
▁гуравдагч	-10.9125
▁ЭМЯ	-10.9125
▁Алхам	-10.9125
37	-10.9126
▁мэргэшсэн	-10.9127
▁ахиц	-10.9127
▁түшиг	-10.9128
▁хүсээд	-10.9128
▁диск	-10.9128
▁улмаар	-10.9128
▁үйлдвэрлэж	-10.913
▁харагдаад	-10.913
▁Цу	-10.913
▁хамаатан	-10.9131
▁эхлүүлж	-10.9132
▁тулгардаг	-10.9134
▁39	-10.9134
▁Петр	-10.9134
▁шүдний	-10.9137
▁тамга	-10.9137
32	-10.9141
▁шагна	-10.9141
▁хүнийхээ	-10.9142
▁нийлүүлэгч	-10.9144
▁залбирч	-10.9148
▁буруутга	-10.9149
Ё	-10.915
уулахгүй	-10.9152
чдад	-10.916
▁уралдаанд	-10.9161
▁хаягаар	-10.9163
▁үгсийг	-10.9163
49	-10.9164
нээр	-10.9166
Ор	-10.9167
▁Же	-10.9167
▁ё	-10.9168
▁сануулж	-10.9172
лээрэй	-10.9172
▁солилцоо	-10.9174
▁єг	-10.9175
ГА	-10.9178
▁Тавантолгой	-10.9178
хийл	-10.9179
:30	-10.9184
▁хэрэглэхэд	-10.9185
▁оронч	-10.9185
▁Ру	-10.9185
▁засварын	-10.9186
▁51	-10.9186
▁сонголтоо	-10.9188
▁хилээр	-10.9188
▁зэ	-10.919
агчид	-10.9191
▁Евро	-10.9193
▁Bo	-10.9199
▁сургалтад	-10.9199
▁практик	-10.92
▁дотуур	-10.92
рванхоёрдугаар	-10.92
▁өвөг	-10.92
▁зохиосон	-10.9202
▁өмссөн	-10.9202
▁асуугаад	-10.9202
аагаа	-10.9202
▁хэлэлцэнэ	-10.9203
▁тогтооно	-10.9204
▁аяллын	-10.9207
лгах	-10.9209
ak	-10.9211
▁харан	-10.9212
▁ярив	-10.9213
▁үнээ	-10.9214
Хүрэлбаатар	-10.9214
ъё	-10.9215
▁цалинтай	-10.9215
▁амласан	-10.9215
▁заль	-10.9216
▁Биеийн	-10.922
▁Аг	-10.9223
▁гишүүнээр	-10.9227
▁Мин	-10.9238
▁дарагд	-10.9238
▁үлдээж	-10.924
36	-10.9242
▁олдох	-10.9242
▁см	-10.9245
▁Үнэнийг	-10.9246
▁манд	-10.9247
▁төлөвлө	-10.9247
▁аварч	-10.9249
єг	-10.9249
▁Африкт	-10.9251
▁Мак	-10.9254
▁хятадын	-10.9255
чихвэл	-10.9258
▁нууцыг	-10.926
үүхэн	-10.9265
▁хохироо	-10.9267
сен	-10.9269
шсан	-10.927
▁120	-10.9273
▁Түлхүүр	-10.9276
▁сэтгэгдлээ	-10.9276
▁анагаах	-10.9276
▁онгойлго	-10.9276
▁философи	-10.9276
▁хэлтсийн	-10.9276
▁роман	-10.9276
▁өөдрөг	-10.9277
▁бүртгүүл	-10.9278
чихдэг	-10.9278
▁хашгир	-10.9279
▁кинонууд	-10.9279
▁санагдлаа	-10.928
▁хавч	-10.9281
ina	-10.9281
йм	-10.9288
▁тэртээ	-10.929
▁эвсэл	-10.929
баа	-10.9291
▁бүлээрээ	-10.9294
▁хийсний	-10.9295
ахдаа	-10.9296
▁хуудсанд	-10.93
▁нэвтэрч	-10.93
▁Араб	-10.9304
▁царайг	-10.9305
▁Зүрх	-10.9306
▁маягийн	-10.931
▁түнш	-10.9311
▁жу	-10.9313
▁by	-10.9315
▁юугаа	-10.9317
▁сэргээж	-10.9317
▁барилдах	-10.9322
▁асуудлаас	-10.9323
▁бүтээгдэхүүнүүд	-10.9323
▁амтай	-10.9324
▁нүүж	-10.9332
▁нэгжийн	-10.9333
▁даан	-10.9336
▁стандартыг	-10.9338
▁амил	-10.9338
▁хэмжээнээс	-10.9339
▁тооц	-10.934
▁мөргөл	-10.9341
▁Алс	-10.9344
▁бодисыг	-10.9348
▁өөрчлөлтүүд	-10.9348
есс	-10.9349
▁бүтээгдэхүүнээ	-10.935
▁эргэлзээ	-10.935
▁толгойг	-10.935
▁зүтгэх	-10.935
▁дулаахан	-10.9353
▁нийгмийг	-10.9353
▁бэлчээр	-10.9353
▁алин	-10.9354
▁зориуд	-10.9354
▁Хожим	-10.9354
▁Италийн	-10.9355
▁өнцгөөс	-10.9357
▁жаргалыг	-10.9357
▁шилжсэн	-10.9359
▁айн	-10.936
▁сонирхох	-10.9363
▁Сургалт	-10.9364
▁хуралдаж	-10.9366
▁харахаар	-10.9367
▁тархсан	-10.9368
2-	-10.9371
▁гэрлэсэн	-10.9372
▁биетэй	-10.9373
дас	-10.9375
лэхэд	-10.9376
▁авчир	-10.9377
▁гаригийн	-10.9378
заяа	-10.9381
Хүмүүс	-10.9382
▁сайтыг	-10.9383
▁барааг	-10.9383
▁Амьдралд	-10.9384
▁багахан	-10.9387
▁Хараа	-10.9391
▁Ку	-10.9392
▁санахгүй	-10.9395
▁нуугд	-10.9397
▁re	-10.94
▁мэдээлжээ	-10.9403
ду	-10.9404
US	-10.9406
▁нүү	-10.9407
▁зайлуулах	-10.9407
▁ши	-10.9408
стр	-10.9411
▁гишгэ	-10.9413
ийнхөө	-10.9414
доггүй	-10.9422
▁хэрэглэхгүй	-10.9425
▁Америкчууд	-10.943
▁бөмбөлөг	-10.9431
▁нөлөөлнө	-10.9431
▁өгөгдлийг	-10.9431
▁Вэб	-10.9431
▁Баримт	-10.9431
▁анкет	-10.9431
▁шалтаг	-10.9432
▁толбо	-10.9432
▁айхтар	-10.9432
Дөнгөж	-10.9432
▁тэмдэглэгээ	-10.9432
▁Кэ	-10.9436
▁авлигын	-10.9437
▁Хэвлэл	-10.9443
▁37	-10.9444
▁Бэлг	-10.9444
▁малчид	-10.9445
▁тагнуулын	-10.9449
▁ихэр	-10.9449
рен	-10.9453
оц	-10.9454
▁Гараа	-10.9455
▁цахимаар	-10.9456
▁дараагаар	-10.9459
▁He	-10.9459
Тэгэхээр	-10.946
▁04	-10.946
▁250	-10.9462
алга	-10.9468
▁БИ	-10.9469
▁кк	-10.9469
▁шүүмж	-10.9472
▁тэргүү	-10.9474
▁хувцасны	-10.9476
31	-10.9479
▁гишүүнтэй	-10.9481
▁24-	-10.9485
гүүл	-10.9486
▁буцаа	-10.9496
▁автобусны	-10.9498
▁барь	-10.95
Юу	-10.9501
▁шинэлэг	-10.9503
▁зоос	-10.9504
амп	-10.9506
▁бооцоо	-10.9509
▁дижитал	-10.9509
▁сувилагч	-10.9509
▁сөргөө	-10.9509
▁сэтгэхүй	-10.9509
▁шимтгэл	-10.951
▁урва	-10.9512
IS	-10.9513
▁ямаа	-10.9513
▁сүмийн	-10.9515
▁бүртгэх	-10.9515
▁Стандарт	-10.9516
▁алийг	-10.9516
▁такси	-10.9517
▁үйлчлүүлэгчид	-10.9518
▁Завхан	-10.952
▁бахархдаг	-10.9521
▁дотооддоо	-10.9521
▁улсуудын	-10.9521
▁Ираны	-10.9522
▁бахарх	-10.9526
▁хойноос	-10.9526
▁уулзалтын	-10.9526
▁сэтгүүлчид	-10.9527
▁шоо	-10.9529
75	-10.9529
▁ТА	-10.9531
▁өвчнийг	-10.9531
▁Банкны	-10.9532
орон	-10.9533
▁эсэргүүцэл	-10.9533
▁зэвсэгт	-10.9536
▁хэрэгцээнд	-10.9536
▁Гэгээн	-10.9536
▁хөлөө	-10.9538
▁оросууд	-10.954
▁золго	-10.9541
65	-10.9543
▁засч	-10.9543
▁давт	-10.9547
▁гадагш	-10.9548
▁гоёл	-10.9549
▁сонины	-10.9551
вай	-10.9554
ung	-10.9556
гуулах	-10.9557
▁дүрмийн	-10.9557
ля	-10.9558
▁Цэц	-10.9565
▁олз	-10.9565
▁иш	-10.9567
▁зэс	-10.9568
▁үндсэндээ	-10.957
▁тагнуул	-10.957
▁илрүүлэх	-10.9573
▁үйлдвэрүүд	-10.9578
▁Di	-10.9582
▁хандуулж	-10.9582
▁хаасан	-10.9582
▁17-	-10.9585
▁шудрага	-10.9588
▁мөрөөдлөө	-10.9588
▁ингэснээр	-10.9588
▁бизнест	-10.9588
▁Женко	-10.9589
▁хайгаад	-10.959
▁тээрэмдэх	-10.9592
ура	-10.9593
▁суугчид	-10.9593
▁Өсвөр	-10.9596
▁Ho	-10.9597
▁угсаа	-10.9598
▁тойргийн	-10.9599
иу	-10.9604
▁зүүх	-10.9606
▁охидын	-10.9607
▁явчихсан	-10.9608
▁харшил	-10.9608
▁баасан	-10.961
▁зайлсхий	-10.9611
Са	-10.9615
▁Ar	-10.9617
▁албаныхан	-10.9619
▁се	-10.962
оф	-10.9624
▁болгоны	-10.9626
▁So	-10.9627
▁хараал	-10.9632
▁үзэхээр	-10.9632
лли	-10.9634
▁явцын	-10.9641
элдэг	-10.9643
▁Ахмад	-10.9645
2017	-10.9646
▁хэлхээ	-10.9647
▁тогт	-10.9655
▁больж	-10.9657
▁оролцохгүй	-10.966
▁байшингийн	-10.9663
нуудаа	-10.9666
▁тэмц	-10.9666
▁график	-10.9667
▁физик	-10.9667
▁Хэсэг	-10.9667
▁Гай	-10.9668
▁хүсэлтээр	-10.9668
▁сонсогч	-10.9668
▁өмсдөг	-10.9668
чихжээ	-10.9669
▁илэрхийлье	-10.9669
▁үдэшлэг	-10.9669
▁шатахуун	-10.9669
▁томьёо	-10.967
▁үзэмж	-10.967
▁Бур	-10.9671
▁болохоо	-10.9672
▁хээр	-10.9674
▁атлаа	-10.9674
▁унтраах	-10.9674
▁улстөрчид	-10.9676
▁хоч	-10.9677
▁нэгнээ	-10.9677
ото	-10.9678
▁төсөөлөл	-10.968
▁өнгөөр	-10.9681
▁дамжуулагч	-10.9682
▁эхлүүл	-10.9683
▁нийгэмлэг	-10.9688
▁ширээн	-10.9691
▁ойд	-10.9692
▁доошоо	-10.9694
лөгч	-10.9694
▁хүрээний	-10.9695
▁америкчууд	-10.9698
хнаас	-10.9699
▁илэрхий	-10.97
▁бариа	-10.9706
▁гадагшаа	-10.9707
▁Хатуу	-10.9708
▁усаар	-10.9711
чүүдийн	-10.9711
▁эргүүлж	-10.9714
▁засгаа	-10.9715
иад	-10.9717
▁хорвоог	-10.972
▁2002	-10.9721
▁болноо	-10.9733
▁мэдээлэлд	-10.9734
▁номонд	-10.9739
▁компьютерийн	-10.9743
ям	-10.9744
sk	-10.9746
мер	-10.9747
▁градус	-10.9747
▁албыг	-10.9747
▁хуулинд	-10.9747
▁парк	-10.9747
▁голомт	-10.9747
▁мэдэгдэв	-10.9748
▁аятайхан	-10.9749
▁дайрч	-10.975
▁Зав	-10.9753
48	-10.9753
▁Хяналт	-10.9754
▁оруулагчид	-10.9754
▁Go	-10.9758
▁баярласан	-10.9758
▁Архив	-10.9759
онго	-10.976
▁мин	-10.9761
▁хэрэгжүүлсэн	-10.9761
арна	-10.9764
▁Зул	-10.9771
лалаа	-10.9773
▁элсэх	-10.9774
qu	-10.9775
▁Жааха	-10.9776
Гэхдээ	-10.9778
▁авалтын	-10.978
ата	-10.9781
▁гараараа	-10.9783
tr	-10.9784
▁орчимд	-10.9785
▁ажиглаж	-10.9789
con	-10.9793
▁товчийг	-10.9794
хэвч	-10.9795
▁ОР	-10.9795
▁ахмадууд	-10.9797
олд	-10.9798
▁элсэлт	-10.9798
▁заадаг	-10.9799
▁байрлалтай	-10.9802
▁Q	-10.9802
НЭ	-10.9804
▁нэмэгдүүлж	-10.9805
▁мэдрэг	-10.9807
▁хөгжүүлж	-10.9808
▁мэдээлэх	-10.981
▁Тоглоомын	-10.981
▁Цагийн	-10.9811
▁хүчинтэй	-10.9811
▁Ча	-10.9814
▁алаг	-10.9821
▁гурв	-10.9825
▁ихэнхи	-10.9825
MS	-10.9825
гїй	-10.9826
гер	-10.9826
▁Хугацаа	-10.9828
▁бүдүүлэг	-10.9828
▁хариуцлагыг	-10.9828
▁хүмүүн	-10.9828
▁явагдана	-10.9829
▁бодъё	-10.9829
▁зорилтот	-10.9829
▁бардам	-10.983
лахад	-10.9831
▁гишүүдэд	-10.9832
▁дансны	-10.9833
▁По	-10.9834
▁команд	-10.9834
▁Ерөнхийлөгчид	-10.9835
▁судла	-10.9837
▁чадварлаг	-10.9839
▁шийджээ	-10.9839
▁уурын	-10.984
▁өнгийг	-10.9841
▁гадаргуу	-10.9841
▁цалингаа	-10.9841
▁ням	-10.9841
▁үзэхгүй	-10.9843
▁хаячих	-10.9844
▁багтаан	-10.9845
ana	-10.9845
▁алдалгүй	-10.9846
▁эмэгтэйн	-10.9846
▁хийснээр	-10.9848
▁нөх	-10.9851
▁ээжийнхээ	-10.9853
ice	-10.9854
▁эртнээс	-10.9854
ah	-10.9855
тро	-10.9858
▁үзэгч	-10.9858
▁зүрхний	-10.9862
▁ки	-10.9864
▁чимэг	-10.9866
▁авсны	-10.9867
▁тарьж	-10.9867
сэж	-10.9867
▁хамрагд	-10.9867
▁гомдлы	-10.9869
38	-10.9872
▁гэдэс	-10.9872
▁хязгааргүй	-10.9874
▁орчих	-10.9877
метр	-10.9878
▁зэсийн	-10.9881
▁кар	-10.9882
▁пара	-10.9885
▁цэгүүд	-10.9889
▁байсны	-10.989
han	-10.989
▁хөдлөлт	-10.9892
▁амжилтын	-10.9892
▁улстай	-10.9892
▁амьдралтай	-10.9902
▁дэмжихгүй	-10.9904
▁гр	-10.9906
УУД	-10.9908
▁мэндчилгээ	-10.9909
▁орлогыг	-10.9909
ров	-10.9909
▁тайвшир	-10.9909
▁далбаа	-10.9909
Хүүхдийг	-10.9909
▁өвдөж	-10.9909
▁эргэлзэж	-10.991
▁төмс	-10.991
▁хөнөөсөн	-10.9911
▁аялгуу	-10.9911
▁гүйцэтгэнэ	-10.9911
▁тойрсон	-10.9913
▁төгсөөд	-10.9913
▁1999	-10.9914
▁хэвшил	-10.9914
▁орчихсон	-10.9915
гдах	-10.9915
▁сангаас	-10.9918
▁ZA	-10.9921
▁Янз	-10.9921
▁иргэддээ	-10.9922
▁өөдөөс	-10.9923
▁гаргав	-10.9923
.......	-10.9924
▁суулгасан	-10.9927
▁ойг	-10.9928
мор	-10.9929
▁зориулалтын	-10.9936
▁эмэгтэйг	-10.9938
▁ордын	-10.9938
▁хөнөөл	-10.9941
▁зугтаа	-10.9942
▁чөлөөний	-10.9944
▁ажиглагд	-10.9946
▁судлалын	-10.9946
▁Пе	-10.9949
▁цуглуулж	-10.9955
▁судалгаанд	-10.9955
▁тив	-10.9955
▁тавилга	-10.9956
▁уурхайд	-10.9957
su	-10.9959
▁зэрэгтэй	-10.996
лгээ	-10.9967
▁Германд	-10.9969
▁шивнэ	-10.9971
▁Залуус	-10.9971
рахгүй	-10.9973
▁тогтоожээ	-10.9974
▁оролцуулах	-10.9975
▁ялгар	-10.9977
▁явахаар	-10.9978
▁Боломж	-10.9986
▁Пакистан	-10.9988
▁цав	-10.9988
▁загна	-10.9989
▁дэвшүүлж	-10.9989
▁дараалл	-10.999
▁Microsoft	-10.9991
▁Парламент	-10.9991
RMED	-10.9991
▁гээгүй	-10.9991
▁хамаардаг	-10.9991
▁тооцогддог	-10.9992
▁шалгарсан	-10.9992
үд	-10.9992
▁Хааяа	-10.9992
зу	-10.9992
▁хамгааллын	-10.9994
▁уулзана	-10.9995
огт	-10.9995
Ард	-10.9996
▁эзэд	-10.9998
▁хэлэлцсэн	-10.9998
ув	-11.0005
]]	-11.0009
▁байшинд	-11.001
▁сүүлчээ	-11.001
▁Харри	-11.0011
▁Бямба	-11.0013
▁тэгэхээр	-11.0013
▁гүрний	-11.0015
▁гэдгээрээ	-11.0016
▁нэмэргүй	-11.0018
▁Амралтын	-11.002
▁авчихсан	-11.002
▁цэвэрлэж	-11.0021
ain	-11.0021
▁чадвараа	-11.0024
▁анзаарч	-11.0027
ds	-11.0027
▁сүүлдээ	-11.0029
▁боловсруул	-11.0031
uk	-11.0032
▁аяндаа	-11.0032
▁хийл	-11.0034
▁даган	-11.0034
▁төсвий	-11.0036
▁гишүүнийг	-11.004
▁инээж	-11.0041
▁тайлж	-11.0042
▁Ca	-11.0043
▁Цус	-11.0043
▁заал	-11.0049
▁Do	-11.0054
▁сонсгол	-11.0056
▁76	-11.006
▁төвлөр	-11.0061
▁Ехова	-11.0065
▁хайлт	-11.0068
Үүр	-11.0069
агтун	-11.0069
▁Компьютер	-11.0071
▁Бусдыг	-11.0074
▁Гагцхүү	-11.0074
▁Найрамдах	-11.0074
▁түгжрэл	-11.0074
▁удирдамж	-11.0074
▁хаалгыг	-11.0074
▁мөрөөдөж	-11.0074
▁хандлагыг	-11.0074
▁ялгаварла	-11.0074
▁өрсөлдөж	-11.0074
▁аваас	-11.0076
▁баригдаж	-11.0077
▁экс	-11.0078
▁Лу	-11.0079
▁тахиа	-11.0079
▁хуй	-11.0079
▁хэрэгслээр	-11.008
лахгүй	-11.008
▁аймшигт	-11.0081
цах	-11.0081
ist	-11.0081
▁иргэншил	-11.0082
▁цаашдын	-11.0083
▁амьдраад	-11.0083
">	-11.0085
▁гаргаагүй	-11.0086
▁баталгаажуул	-11.0087
▁учрах	-11.0089
▁600	-11.0091
▁дарсан	-11.0094
nt	-11.0097
▁боломжит	-11.0097
▁солиор	-11.0098
длийг	-11.0102
▁байгуулахаар	-11.0103
▁3000	-11.0103
▁Билл	-11.0105
цгооё	-11.0106
▁u	-11.0108
лдэг	-11.0109
▁сургуулиас	-11.0113
▁Алдаа	-11.0113
▁Хас	-11.0114
▁хуримын	-11.0114
щ	-11.0117
▁малтмалын	-11.0119
▁арьсны	-11.0123
▁оролцуул	-11.0126
▁An	-11.0128
ширч	-11.0128
▁буусан	-11.0136
dy	-11.014
▁тунг	-11.014
so	-11.0141
ki	-11.0142
ганы	-11.0145
▁эрэгтэйчүүд	-11.0146
▁шалгуул	-11.0148
▁ялаа	-11.0149
▁судал	-11.0149
өгч	-11.015
логч	-11.0154
▁шатахууны	-11.0154
▁бүртээ	-11.0155
▁Вьетнам	-11.0157
▁өртөж	-11.0157
▁хобби	-11.0157
▁аваргын	-11.0157
▁зүйлдээ	-11.0158
▁шүүгээ	-11.0159
ирч	-11.016
▁тогтоогдсон	-11.016
▁төсөөлөх	-11.0161
лөсөн	-11.0163
▁Хажуу	-11.0163
▁тэмдэглэсэн	-11.0163
▁оролцогчид	-11.0166
▁уулзлаа	-11.0166
▁чуулганаар	-11.0167
▁тэтгэврийн	-11.0169
▁сүйтгэ	-11.0169
▁дэвшигчид	-11.0171
▁Алтай	-11.0174
▁Яасан	-11.0176
▁ээжүүд	-11.0178
▁хамруулах	-11.0183
▁сөнө	-11.0184
▁хэлбэрийг	-11.0185
▁үзүүлэлтүүд	-11.0185
▁хүрээтэй	-11.0185
▁Мөнгөний	-11.0187
▁ХА	-11.0187
▁гу	-11.0187
кар	-11.0191
Өмнө	-11.0191
▁Шал	-11.02
▁ян	-11.0201
▁дэвшүүлэх	-11.0204
▁Тайланд	-11.0205
▁бэхжүүлэх	-11.0211
▁наалд	-11.0211
▁гарчиг	-11.0213
▁болсноор	-11.0214
▁IP	-11.0214
▁ажилчин	-11.0217
▁санг	-11.0222
▁эхлэхэд	-11.0223
▁мэргэжлээр	-11.0227
ологийн	-11.0228
гтун	-11.0234
▁дэмжигч	-11.0237
▁цад	-11.0239
ҥ	-11.0241
▁хүргүүлсэн	-11.0241
▁Хөгжим	-11.0241
▁Өмнөговь	-11.0241
▁Татварын	-11.0242
▁үзүүлбэр	-11.0242
▁нөхөж	-11.0242
жсан	-11.0242
33	-11.0243
▁болчихож	-11.0243
▁бөгс	-11.0243
▁тооцно	-11.0243
▁шилжиж	-11.0244
▁тєр	-11.0244
▁хорхой	-11.0245
▁Өвөл	-11.0245
▁яриагүй	-11.0247
fe	-11.0249
дөл	-11.0249
▁хүүхэлдэй	-11.0252
▁үлддэг	-11.0254
лий	-11.0255
▁цалингийн	-11.0255
єх	-11.0257
▁хүргэлт	-11.0257
▁сайдаар	-11.0258
▁тэвчээртэй	-11.0258
▁ес	-11.0258
▁наран	-11.0258
▁Чам	-11.026
▁de	-11.0262
ny	-11.0267
▁бясалгал	-11.0267
фа	-11.0272
▁холбоог	-11.0274
▁Цэцэг	-11.0278
▁агшин	-11.028
▁Ердөө	-11.0281
▁Тэгэхгүй	-11.0283
АЛТ	-11.0286
▁мэр	-11.0286
▁харахыг	-11.0287
▁хурлаар	-11.0288
▁Лав	-11.0289
day	-11.0289
▁сагсан	-11.0289
ёо	-11.029
▁хичээлдээ	-11.0293
▁туг	-11.0299
▁Үнэгүй	-11.03
▁Британид	-11.0302
▁Токио	-11.0305
▁сэтгэ	-11.0306
▁тэтгэ	-11.0307
▁олжээ	-11.0308
акт	-11.0309
одоо	-11.031
▁Өргө	-11.031
▁учирч	-11.0315
▁уйлах	-11.0315
▁хотууд	-11.0316
▁түүгээр	-11.0316
ейн	-11.0322
яцхан	-11.0323
▁түлх	-11.0326
▁оныг	-11.0326
▁хонгил	-11.0326
▁таамаглал	-11.0326
▁найрсаг	-11.0327
▁зээ	-11.0328
▁унага	-11.0329
▁баримталдаг	-11.0329
Ю	-11.0331
▁мэдлийг	-11.0332
▁Зөвлөгөө	-11.0333
▁хүнтэйгээ	-11.0334
▁Чад	-11.0334
▁Адам	-11.0336
▁уулзаад	-11.0336
▁Говь	-11.0337
▁гайхаад	-11.0337
▁зохиож	-11.0338
▁Шат	-11.0339
▁үхлийн	-11.0341
▁Ги	-11.0341
▁Өрөө	-11.0342
▁бүрдэнэ	-11.0343
if	-11.0344
▁баяс	-11.0347
▁залбирал	-11.0348
▁дэн	-11.0349
ална	-11.0349
▁гайхсан	-11.035
хүн	-11.0353
▁Буян	-11.0353
▁гарсны	-11.0356
▁байс	-11.0358
▁Монголбанкны	-11.036
▁айсан	-11.0361
▁хадгалагд	-11.0362
Өнгөрсөн	-11.0362
Хэрвээ	-11.0362
Улаанбаатар	-11.0362
▁ашиглаад	-11.0363
▁хувьсгалын	-11.0363
▁сургаж	-11.0367
▁авмаар	-11.0368
▁хув	-11.0368
▁цагаач	-11.0369
▁тоглолтод	-11.037
▁Хог	-11.0371
▁тооцоолж	-11.0372
▁Райли	-11.0373
▁Сам	-11.0373
бит	-11.0373
▁Март	-11.0375
▁Зээл	-11.0377
▁залга	-11.0379
▁Sh	-11.0381
▁Харилцаа	-11.0381
▁бодоо	-11.0383
▁олгохгүй	-11.0384
76	-11.0385
НА	-11.0391
▁хотхонд	-11.0393
▁юугаараа	-11.0395
▁харамсах	-11.0397
▁түмнээс	-11.0399
▁Барууны	-11.04
▁Хурд	-11.0404
нуу	-11.0407
▁масс	-11.041
▁тааламжтай	-11.0411
▁шүршигч	-11.0411
▁НИТХ	-11.0411
▁СЕХ	-11.0411
▁бүжгийн	-11.0411
▁наадмыг	-11.0411
▁эзэмшиж	-11.0412
▁товчлуур	-11.0412
▁санамж	-11.0412
▁Бүртгэл	-11.0412
▁олоогүй	-11.0412
авч	-11.0414
▁шилжүүлж	-11.0414
▁Эргэн	-11.0417
▁олныг	-11.0417
▁зүтгэ	-11.0418
▁эдгээ	-11.0418
▁Ардчилал	-11.0418
▁цусны	-11.0418
▁танилцуулна	-11.042
-11	-11.0421
▁саат	-11.0421
▁өндөрлөг	-11.0422
▁хязгаарлах	-11.0423
▁гөлөг	-11.0423
▁орчуулга	-11.0424
▁бурхны	-11.0428
▁хэрэгтэн	-11.043
▁учруулж	-11.0431
▁халаас	-11.0433
▁Хүсэл	-11.0433
▁ортой	-11.0433
▁авчирдаг	-11.0436
▁задар	-11.0439
▁баярлах	-11.044
▁эхээс	-11.0443
лайн	-11.0443
▁адилаар	-11.0444
▁үзүүлэгч	-11.0444
▁Баатар	-11.0446
▁чанарууд	-11.0447
эгдэл	-11.0454
▁сэрэх	-11.0455
▁гэдгээс	-11.0456
▁Халх	-11.0457
▁хорвоод	-11.0457
иод	-11.046
▁хорьж	-11.0461
▁болъё	-11.0462
500	-11.0464
иль	-11.0466
63	-11.0468
▁1990-	-11.0477
өхө	-11.0479
▁ашиггүй	-11.048
▁харуулдаг	-11.0483
▁татна	-11.0485
▁оршино	-11.0486
▁Тур	-11.0488
5-	-11.0489
лс	-11.049
▁гахай	-11.0494
▁арилга	-11.0494
▁start	-11.0497
▁эелдэг	-11.0497
▁хичээгээрэй	-11.0498
▁1998	-11.0499
▁завсарлага	-11.0499
▁сонгогчдын	-11.0499
▁гаалийн	-11.05
▁анхааруулж	-11.05
ион	-11.05
▁тусгаж	-11.05
▁хуваалцаж	-11.05
▁жилүүд	-11.0501
▁мартаарай	-11.0502
▁унтраа	-11.0504
▁Ганцаараа	-11.0504
чихоод	-11.0507
▁мэдлийн	-11.0513
▁сонгогдох	-11.0513
▁донт	-11.0514
▁хориотой	-11.0514
Өө	-11.0515
▁таваг	-11.0516
▁шууги	-11.0518
▁гуйсан	-11.0518
▁Усны	-11.052
▁хэсгээр	-11.0524
ide	-11.0528
▁этгээдийн	-11.0531
эгчид	-11.0532
дахь	-11.0533
▁шууданг	-11.0535
Хайр	-11.0535
▁экспортын	-11.0535
ОД	-11.0536
▁зарла	-11.0536
чимэг	-11.0538
▁банкнаас	-11.0539
Харин	-11.0541
▁Тог	-11.0542
лар	-11.0543
ьяа	-11.0547
47	-11.055
▁Түрүү	-11.0556
▁хөг	-11.0559
▁нэгтгэ	-11.0559
▁ухаанд	-11.0566
▁чадалгүй	-11.0568
ara	-11.0568
▁поп	-11.0569
буу	-11.0569
▁хариул	-11.0571
▁зүйлээр	-11.0571
▁46	-11.0577
▁жив	-11.0579
▁дуугаар	-11.0583
▁евро	-11.0583
▁Дэлгүүр	-11.0584
▁хуримтлал	-11.0584
▁мөргөлдөөн	-11.0585
▁байгуулагдаж	-11.0586
▁Доорх	-11.0586
▁ажлуудыг	-11.0586
▁нийц	-11.0586
▁26-	-11.0587
▁шахам	-11.0588
еэ	-11.0588
▁торгууль	-11.0589
▁Хувцас	-11.0589
▁Чанар	-11.0589
▁батлагд	-11.0592
▁хоёроос	-11.0593
▁охидууд	-11.0595
▁машинаар	-11.0595
▁хурдны	-11.0596
▁чадахаа	-11.0598
лб	-11.0598
▁баясгалан	-11.0599
▁өгүүл	-11.0599
▁хийчихсэн	-11.0599
▁өрөөндөө	-11.06
ИЙГ	-11.0601
▁устгасан	-11.0602
▁уялдаа	-11.0605
▁морины	-11.0607
хал	-11.0607
▁аргаа	-11.0608
▁43	-11.0614
▁анг	-11.0622
MA	-11.0628
ӨХ	-11.0628
гүү	-11.063
77	-11.0632
▁эвлэр	-11.0642
89	-11.0642
▁Хоёрдугаар	-11.0643
үүний	-11.0648
▁аялалд	-11.0649
дер	-11.0651
өгөө	-11.0651
▁Инээ	-11.0653
▁5000	-11.0654
▁найд	-11.066
ГАА	-11.0661
▁дом	-11.0662
▁байраа	-11.0662
eg	-11.0663
▁бэлгэ	-11.0663
▁хуудасны	-11.0663
▁You	-11.0663
▁Jun	-11.0667
▁тэндээ	-11.0669
лүүр	-11.0671
▁механик	-11.0672
▁Үйлчлүүлэгч	-11.0672
▁алуурчин	-11.0672
▁араншин	-11.0672
▁фракц	-11.0672
▁үргэлжилсээр	-11.0672
▁бүтцийг	-11.0672
▁Удалгүй	-11.0672
▁ойлгоогүй	-11.0672
Бай	-11.0672
▁Жорж	-11.0672
▁Дотор	-11.0673
ууштай	-11.0673
▁Сонирхолтой	-11.0674
▁бичээрэй	-11.0675
▁гял	-11.0676
▁ирээрэй	-11.0676
вэ	-11.0678
▁орвол	-11.0679
▁байраар	-11.0684
▁Ирээдүйд	-11.0688
▁дангаараа	-11.0688
▁багасга	-11.0688
▁найраг	-11.0693
-12	-11.0693
▁Энхболд	-11.0694
▁Мөнгөн	-11.0695
▁Бари	-11.0701
оли	-11.0702
▁инээдтэй	-11.0704
ash	-11.0705
▁мэ	-11.0705
▁хэдийгээр	-11.0705
▁бутлуурыг	-11.0707
▁Египет	-11.0709
▁жуулчлал	-11.0709
▁өрийн	-11.0711
▁хэрэглэхийг	-11.0713
▁тиймээ	-11.0718
▁үгтэй	-11.0718
▁байцаа	-11.0719
▁нохойн	-11.0722
▁гарсаар	-11.0724
▁айлга	-11.0725
▁Украины	-11.0725
▁Зээлийн	-11.0726
▁мэдээл	-11.0727
▁маа	-11.073
▁дүрийг	-11.0732
▁Зохио	-11.0732
end	-11.0734
▁байршуул	-11.0738
▁хуурч	-11.0742
▁галзуур	-11.0742
▁зүрхэнд	-11.0747
▁морин	-11.0748
▁хорь	-11.0748
▁дуугарах	-11.0749
ab	-11.0751
▁валютын	-11.0754
илсан	-11.0755
ух	-11.0755
▁Ту	-11.0756
▁олноор	-11.0758
▁Android	-11.0761
▁зарчмын	-11.0761
▁баавгай	-11.0761
▁өшөө	-11.0761
▁огноо	-11.0761
▁харгис	-11.0761
▁тохиолдлууд	-11.0761
▁романтик	-11.0761
▁содон	-11.0761
▁нутгаа	-11.0762
▁хошин	-11.0762
▁нярай	-11.0762
▁нөхөх	-11.0762
▁цутга	-11.0763
▁саналын	-11.0764
▁өгүүлэл	-11.0765
▁бүртгэж	-11.0765
▁тани	-11.0766
RE	-11.0766
▁хичээллэж	-11.0767
▁дэвшүүлсэн	-11.0767
▁баярладаг	-11.0767
▁тооцсон	-11.0768
▁Цөм	-11.0768
▁Мань	-11.0769
▁захиалгаар	-11.0769
▁сайжирч	-11.0769
▁Дэлхийд	-11.077
▁тогтворгүй	-11.0774
▁ат	-11.0774
▁Төрсөн	-11.0776
▁гэснээ	-11.0777
▁Онц	-11.0778
▁хэргүүд	-11.0779
хөөр	-11.078
▁заяаг	-11.078
сныхаа	-11.0789
▁идэвхитэй	-11.079
200	-11.0792
Мо	-11.08
▁тохируулж	-11.0802
▁Го	-11.0804
▁танин	-11.0805
лэлээ	-11.0809
▁ташаа	-11.0811
▁махны	-11.0812
▁сэрүүн	-11.0813
4-	-11.0818
▁жагсаа	-11.082
лэе	-11.082
▁Агуу	-11.0822
▁гаргагч	-11.0823
▁утсы	-11.0823
▁Хос	-11.0827
▁хэрэгцээтэй	-11.0828
▁бууруулж	-11.0831
▁шүүлт	-11.0837
▁гиш	-11.084
▁нүдийг	-11.0848
▁таамаг	-11.0849
▁конвенц	-11.085
▁өчнөөн	-11.085
▁индекс	-11.085
▁хуулиуд	-11.085
▁мөрөөддөг	-11.085
▁хэнээс	-11.085
▁лекц	-11.085
▁металл	-11.085
▁зэвүүн	-11.085
▁нисдэг	-11.0851
▁УОК	-11.0851
▁dur	-11.0851
▁морилно	-11.0852
▁Read	-11.0852
▁III	-11.0854
▁ногдол	-11.0854
▁жүжигчид	-11.0855
▁амьдралаас	-11.0855
▁Сауд	-11.0856
▁Жилд	-11.0856
▁(2	-11.0856
▁сонгогч	-11.0858
▁янзаар	-11.0858
▁Давхар	-11.0859
▁пост	-11.0859
▁үсний	-11.0861
▁Сум	-11.0864
▁тойрч	-11.0867
▁шүүмжлэх	-11.0867
▁Сол	-11.0869
▁эргэлз	-11.0871
▁эргэлзээтэй	-11.0871
97	-11.0871
▁Хоёулаа	-11.0871
▁хэвлий	-11.0874
▁залгамж	-11.0876
▁Утаа	-11.0877
▁тавиул	-11.0877
ала	-11.0878
ON	-11.0879
▁тохирч	-11.088
өнгө	-11.088
▁дэлгүүрүүд	-11.0881
41	-11.0883
рүүлж	-11.0886
▁хөрөнгөө	-11.0887
Ерөнхийлөгч	-11.089
▁илүүдэл	-11.0894
43	-11.0902
▁Спорт	-11.0904
лэхгүй	-11.0905
▁сэтгэж	-11.0906
ке	-11.0907
▁тайлбарыг	-11.0908
▁хэлэхийг	-11.0908
▁Далайн	-11.0909
ud	-11.0913
▁огцруул	-11.0922
▁яриагаа	-11.0927
ьж	-11.0927
▁хөдөл	-11.093
уга	-11.0934
39	-11.094
ТЭЙ	-11.094
▁Ухаалаг	-11.094
▁нандин	-11.094
▁өртөх	-11.094
▁блок	-11.094
▁аажмаар	-11.094
▁лавлагаа	-11.094
▁лидер	-11.094
▁Худлаа	-11.0941
▁бөөнөөр	-11.0942
▁хамрагдаж	-11.0943
▁шийдлийг	-11.0943
▁шт	-11.0944
▁байрандаа	-11.0945
▁онгон	-11.0945
▁баримталж	-11.0947
▁Шилэн	-11.0947
▁шингээ	-11.0947
▁анхнаасаа	-11.0948
▁дурьдсан	-11.0948
тав	-11.0951
▁угаагч	-11.0951
▁ялгааг	-11.0951
▁гэсээр	-11.0952
▁саарал	-11.0952
▁илэрхийлэл	-11.0952
агдана	-11.0953
▁хонож	-11.0954
▁хариуцах	-11.0954
лнэ	-11.0954
▁зэрэгт	-11.0954
▁жаал	-11.0955
яг	-11.0956
▁жишээтэй	-11.0957
▁удирдагчид	-11.0958
▁хэрэглээд	-11.0959
▁Сумын	-11.0959
▁төрлөөр	-11.0966
▁цуу	-11.0969
эйн	-11.0969
▁бүсгүйчүүдийн	-11.097
цон	-11.0971
▁Sp	-11.0972
▁тэв	-11.0975
▁суугч	-11.0976
▁садан	-11.0977
▁Ат	-11.0979
▁харилцаагаа	-11.098
▁бодитоор	-11.098
▁гун	-11.0985
▁давтагд	-11.0985
олсон	-11.0989
▁сагс	-11.099
▁сууцанд	-11.0991
▁багтах	-11.0995
▁23-	-11.0998
▁жингээ	-11.0998
▁яр	-11.0999
▁татам	-11.1
▁мэдээлэлтэй	-11.1002
▁цэнгэл	-11.1002
▁Lo	-11.1003
▁Үүгээр	-11.1004
▁төлөөлөгчдий	-11.1008
▁Мөр	-11.1009
▁Тайван	-11.101
чээд	-11.1011
▁Шүүгч	-11.1013
▁үсийг	-11.1016
▁нууж	-11.1022
▁шүүхээр	-11.1024
▁хуультай	-11.1025
▁аманд	-11.1026
▁Хүр	-11.1029
▁цемент	-11.1031
▁Хонконг	-11.1031
▁Шийдвэр	-11.1031
▁ерөөе	-11.1031
▁Баабар	-11.1031
▁тохижилт	-11.1031
▁бетон	-11.1031
▁Ирланд	-11.1031
▁мастер	-11.1031
▁Удаан	-11.1032
▁мухар	-11.1032
▁бөгж	-11.1032
▁бодогч	-11.1033
▁дэмжээд	-11.1034
▁нүдэн	-11.1034
▁ашиглалтанд	-11.1036
▁ахиж	-11.1037
өндөө	-11.1037
▁хүндэлдэг	-11.1037
май	-11.1038
▁талт	-11.1038
▁мм	-11.1039
▁Jo	-11.1039
▁гэдсээр	-11.104
ийнхэн	-11.104
▁голдуу	-11.1041
▁Twitter	-11.1042
▁Дани	-11.1042
▁зүйлтэй	-11.1043
▁цэврийн	-11.1043
▁авар	-11.1044
▁өнгөрөөж	-11.1045
▁тохиолдлын	-11.1048
▁намры	-11.1049
▁нийлүүлэлт	-11.105
▁Tr	-11.1052
▁боловсруулалт	-11.1053
▁гарыг	-11.1059
▁Хэнд	-11.1063
▁дурлаж	-11.1064
▁ухааныг	-11.1065
▁Тэдгээрийн	-11.1066
▁Асуудлы	-11.1067
▁өдөртөө	-11.1069
▁үүсэл	-11.107
▁Сонгууль	-11.1072
Засгийн	-11.1073
▁загварууд	-11.1073
Ганбаатар	-11.1074
▁Нийтлэл	-11.1074
▁мөрд	-11.1081
▁материалын	-11.1082
▁саванд	-11.1084
▁шинэчлэн	-11.1084
mb	-11.1085
▁хичээлийг	-11.1086
▁түш	-11.1088
▁цэн	-11.1088
▁хэтэр	-11.1092
sc	-11.1093
▁иргэнд	-11.1094
▁41	-11.1095
▁Насанд	-11.1097
ty	-11.1098
▁жарга	-11.1099
▁хүртээ	-11.1103
▁асаа	-11.1104
эрэг	-11.1105
▁андуур	-11.1105
▁хэлэлцүүл	-11.111
▁үнэлгээний	-11.1111
шт	-11.1113
▁уралдааны	-11.1119
▁Ашиг	-11.112
▁1996	-11.1121
▁ичээ	-11.1121
▁нөхрийн	-11.1122
▁Дасгал	-11.1122
▁Систем	-11.1123
▁найрамдах	-11.1123
▁Бусдад	-11.1123
▁үймээн	-11.1123
▁гүйцэд	-11.1123
▁эцгийн	-11.1123
▁амьтдын	-11.1123
▁Буриад	-11.1123
▁ноолуур	-11.1123
▁Хүчит	-11.1124
уулахад	-11.1124
▁орлогч	-11.1124
▁шалгаруул	-11.1124
▁ёсондоо	-11.1125
▁томилогдсон	-11.1125
▁[[	-11.1126
▁амжсан	-11.1127
▁Гайхалтай	-11.1129
▁оршуул	-11.113
▁зарлалаа	-11.113
рна	-11.113
Аз	-11.1132
▁болзоо	-11.1137
▁Татвар	-11.1137
▁ханиад	-11.1138
▁зовоож	-11.1139
сноос	-11.114
Үүд	-11.1141
гин	-11.1141
▁олголт	-11.1144
▁яаманд	-11.1144
▁хандана	-11.1145
▁Дэн	-11.1147
▁Хийх	-11.1148
▁цагдаад	-11.1148
▁шавар	-11.1153
▁манлай	-11.1155
▁эзгүй	-11.1159
▁үй	-11.1161
▁доромжилж	-11.1163
▁соёлтой	-11.1163
▁гадуурх	-11.1164
▁ра	-11.1164
нэн	-11.1166
▁хурлаа	-11.1167
▁хуралдааны	-11.1168
▁дол	-11.1172
▁гашуу	-11.1172
Хүний	-11.1175
▁Хүлээ	-11.1184
сэх	-11.1184
▁шороон	-11.119
▁занг	-11.119
▁Mi	-11.1192
ДАА	-11.1194
▁дууддаг	-11.1194
▁баатрууд	-11.1197
лүүлнэ	-11.1199
▁батал	-11.1202
▁лигийн	-11.1202
ТА	-11.1202
айл	-11.1205
▁босч	-11.1207
▁хожигд	-11.1209
Энхбаярын	-11.1211
▁хэдийнээ	-11.1214
Тэмүүжин	-11.1215
▁нөхрийг	-11.1215
▁үйлдлүүд	-11.1215
▁гүйцээ	-11.1215
▁онцолсон	-11.1216
▁бодоорой	-11.1217
▁хослол	-11.1218
▁дадал	-11.1219
▁очлоо	-11.1221
▁бүртгүүлсэн	-11.1221
▁Бүгдээрээ	-11.1223
▁тогтоолын	-11.1227
пе	-11.1227
лая	-11.1228
▁тийн	-11.1228
ени	-11.1229
орой	-11.123
▁баяраар	-11.1232
▁хяна	-11.1235
▁чадавх	-11.1236
▁сп	-11.1239
▁58	-11.124
▁Дай	-11.1247
our	-11.125
▁нийтдээ	-11.1251
▁Отгон	-11.1253
▁цэгт	-11.1258
Батболд	-11.126
▁нислэгийн	-11.126
▁гүтгэ	-11.1261
42	-11.1262
МН	-11.1264
▁тоож	-11.1267
▁нээнэ	-11.127
▁бараан	-11.1271
▁хүртээл	-11.1271
▁бүрэлдэхүүнд	-11.1271
Ал	-11.1273
▁хууч	-11.1273
▁малаа	-11.1278
▁зори	-11.1279
64	-11.1279
▁Ene	-11.1282
Гү	-11.1284
▁амнаас	-11.1286
▁хувилбарууд	-11.1287
алтыг	-11.1287
▁Ёс	-11.1287
va	-11.1288
хэнд	-11.1291
▁Шада	-11.1291
▁дээрэмд	-11.1291
Өөр	-11.1294
ууллаа	-11.1298
▁дурсах	-11.1301
▁санаачилга	-11.1303
▁уй	-11.1305
иан	-11.1305
▁халдварт	-11.1308
{	-11.1309
Энхтүвшин	-11.1309
▁мунхаг	-11.1309
▁Хүссэн	-11.1309
▁Үзэсгэлэн	-11.1309
▁үлдэгдэл	-11.1309
▁Бичлэг	-11.1309
▁хавсралт	-11.1309
▁Барилга	-11.131
▁4:	-11.131
▁арчаагүй	-11.1311
▁инээмсэглэл	-11.1311
▁өртөө	-11.1312
▁1970	-11.1314
▁тодорхойлдог	-11.1314
ууууу	-11.1316
▁алим	-11.1317
▁дуг	-11.1319
уудаар	-11.1319
▁тэнцсэн	-11.132
▁харуулна	-11.1322
▁засаглалын	-11.1324
▁Майкл	-11.1325
▁аварсан	-11.1325
▁эрхлэлт	-11.1327
▁бүрдээ	-11.1327
▁нөгөөх	-11.1327
▁төсвөөс	-11.1331
жид	-11.1331
▁мар	-11.1333
▁хямдхан	-11.1334
ys	-11.1335
▁заалга	-11.1336
тү	-11.1337
▁мэдэхийн	-11.1338
▁амлаж	-11.1339
46	-11.1341
▁хүлээлгэн	-11.1341
▁идэхгүй	-11.1341
▁алдаад	-11.1342
▁03	-11.1345
▁үргэлжлүүлж	-11.1345
▁харваа	-11.1347
▁шинжилгээнд	-11.1351
▁цасан	-11.1353
▁халаалт	-11.1354
▁гудамжны	-11.1357
▁50%	-11.1358
▁аудитын	-11.1359
▁бутлагч	-11.1359
жуулж	-11.1369
▁бүлтэй	-11.137
▁Ромын	-11.1377
▁you	-11.1377
▁зохиц	-11.1378
Дуу	-11.1384
▁шалгаад	-11.1389
▁чулууг	-11.1389
▁файлыг	-11.1389
▁чанарт	-11.1395
be	-11.1395
▁хаалганы	-11.1396
▁оролцоог	-11.1398
▁батга	-11.1399
▁Сургалтын	-11.1399
▁уралд	-11.14
▁(200	-11.1402
▁Гүйцэтгэх	-11.1403
▁Налайх	-11.1403
▁бүдүүн	-11.1403
▁Түүгээр	-11.1403
▁хариуцлагын	-11.1403
▁гэгддэг	-11.1403
▁формат	-11.1403
▁эхэлснээс	-11.1404
▁сурталчлах	-11.1404
▁өвдсөн	-11.1404
▁аавыгаа	-11.1404
▁мөрийг	-11.1405
▁Хурлын	-11.1405
▁мулт	-11.1407
▁шахаж	-11.1407
▁ойлголоо	-11.1407
насан	-11.1408
▁болгожээ	-11.1409
▁өсөн	-11.1409
▁туслаач	-11.1411
▁ойлгоод	-11.1413
▁гарууд	-11.1414
▁зурагнууд	-11.1416
хнийг	-11.1417
▁Батлан	-11.1418
▁холбоогүй	-11.1425
▁эмчилгээг	-11.1426
ацгаая	-11.1431
мөнх	-11.1432
▁гэгээ	-11.1432
▁өдөржин	-11.1433
▁нийслэлд	-11.1433
▁дурла	-11.1436
▁зохицуул	-11.1437
Энхсайхан	-11.144
▁сүртэй	-11.144
▁болвол	-11.1444
▁эмэгтэйчүүдийг	-11.1445
ноосоо	-11.1446
▁сулла	-11.145
яр	-11.1451
АЖ	-11.1462
▁байрлуул	-11.1466
▁харам	-11.1468
▁эцэслэн	-11.1469
▁Аб	-11.1469
ллаа	-11.1474
▁гуйв	-11.1475
▁гац	-11.1475
уш	-11.1476
Хан	-11.1477
▁үнэмш	-11.1478
▁Дахи	-11.1478
▁тэсвэр	-11.1482
▁тусад	-11.1482
▁сайнаар	-11.1486
▁хорионы	-11.1487
нар	-11.1488
▁муугаар	-11.1493
▁Жаргал	-11.1493
▁үгүйсгэх	-11.1497
ддог	-11.1497
▁коллеж	-11.1498
▁Жирэмсэн	-11.1498
▁Ихэвчлэн	-11.1498
▁нухацтай	-11.1498
▁зузаан	-11.1498
▁Eguur	-11.1498
▁ойртож	-11.1498
▁задгай	-11.1498
▁зардлын	-11.1498
▁хүндийг	-11.1499
▁ажиллахаар	-11.15
ik	-11.1501
▁байгуулагдах	-11.1502
▁нөлөөлөл	-11.1502
▁няцаа	-11.1502
▁тарьсан	-11.1502
▁тооцоолох	-11.1502
▁унагаа	-11.1503
▁зурган	-11.1503
▁зүүж	-11.1504
▁Найр	-11.1504
Дэлхий	-11.1505
▁товчхон	-11.1505
▁баралт	-11.1505
▁бэлтгэсэн	-11.1506
▁шилжүүлсэн	-11.1507
▁өөрчлөгд	-11.1508
▁залууст	-11.1508
▁сонгоод	-11.1509
▁Вакцин	-11.1509
▁сэтгүүлийн	-11.151
▁эз	-11.1511
▁Те	-11.1512
чий	-11.1516
▁алдаагаа	-11.1517
▁баттай	-11.1521
▁тусгал	-11.1522
▁зугт	-11.1525
▁үргэлжлүүл	-11.1525
ian	-11.1529
Сайханбилэг	-11.153
▁төрнө	-11.1531
кв	-11.1532
▁сарыг	-11.1533
▁хум	-11.1533
ner	-11.1535
▁Тохи	-11.1535
айз	-11.1537
мааргүй	-11.1538
▁пуужин	-11.1542
сноор	-11.1543
▁Өөрт	-11.1546
▁авиа	-11.1547
▁Бос	-11.1549
▁бөглөх	-11.1551
▁тэжээх	-11.1553
цар	-11.1553
▁бүгдийн	-11.1559
илга	-11.1564
▁төлөөлж	-11.1566
▁Бер	-11.1567
нийгээ	-11.1569
▁харав	-11.1573
лөлт	-11.1573
▁бичлэгүүд	-11.1583
лу	-11.1583
▁болсноос	-11.1584
▁Бен	-11.1585
▁өнгөт	-11.1586
өрнө	-11.1589
▁шинжээч	-11.159
▁мөс	-11.1591
▁Дон	-11.1594
▁иднэ	-11.1594
▁наадах	-11.1594
▁давамгай	-11.1594
▁Шуурхай	-11.1594
▁МОНГОЛ	-11.1594
▁Хорвоо	-11.1594
II	-11.1595
▁нэгдмэл	-11.1595
▁уншигчдад	-11.1596
▁босож	-11.1596
▁Жирийн	-11.1597
нуудад	-11.1597
▁дө	-11.1598
▁дулааны	-11.1598
▁анхаараарай	-11.1598
ai	-11.1599
▁Ковид	-11.1604
str	-11.1604
▁хилэн	-11.1605
▁туршлагаас	-11.1607
▁албадан	-11.1607
һ	-11.1608
▁халах	-11.1609
▁оронтой	-11.161
мог	-11.1611
▁намынхан	-11.1611
▁алддаг	-11.1611
▁хүндэлж	-11.1612
▁шийдэгдэх	-11.1617
хэж	-11.1617
▁Паул	-11.1617
▁дурлалын	-11.1618
▁аавынхаа	-11.1619
▁олохын	-11.162
▁үзэсгэлэнт	-11.1621
▁Али	-11.1624
▁уйд	-11.1625
Үү	-11.1625
▁ялна	-11.1626
уус	-11.1626
Хур	-11.1628
▁нуруун	-11.1629
▁тулгуурлан	-11.163
▁эзэнт	-11.163
▁газруудын	-11.1635
▁Хурал	-11.1637
ый	-11.1638
елл	-11.1638
▁гарал	-11.1639
▁аудит	-11.1639
зар	-11.164
▁дуудсан	-11.1642
Амьдрал	-11.1642
▁түгээх	-11.1643
ake	-11.1644
▁үүсгэ	-11.1646
▁Үйлдвэр	-11.1649
▁Агаар	-11.1651
▁үгнээс	-11.1651
▁өсөлтийг	-11.1652
▁Мэ	-11.1658
▁хүмүүжүүл	-11.1661
hu	-11.1662
▁багийнхан	-11.1662
▁Кол	-11.1662
▁минийх	-11.1664
▁тулгарах	-11.1664
▁саар	-11.1667
ies	-11.1667
▁нэмнэ	-11.1668
чаад	-11.1674
гой	-11.1678
анда	-11.1686
▁Индонез	-11.1691
▁давтамж	-11.1691
▁хувцастай	-11.1692
▁Баянгол	-11.1692
▁давалгаа	-11.1693
▁Өвөр	-11.1693
▁болтлоо	-11.1693
▁ичиж	-11.1694
▁банкинд	-11.1696
▁Хэдхэн	-11.1696
▁түрүүлсэн	-11.1697
▁гаднын	-11.17
▁шийдвэрлэнэ	-11.17
▁тулгарсан	-11.1701
▁бэлдсэн	-11.1702
▁байдгийн	-11.1706
▁давхарт	-11.1707
▁солигд	-11.1707
▁ардчиллын	-11.171
▁нүүдэл	-11.1711
▁асга	-11.1711
▁Сай	-11.1717
▁хэсэгтээ	-11.1719
44	-11.1721
Ганхуяг	-11.1723
▁хуудсаар	-11.1723
▁боов	-11.1725
▁амьдралаар	-11.1725
▁ятга	-11.1726
▁алдлаа	-11.1726
агаа	-11.1731
ныхоо	-11.1734
▁сайжруулж	-11.1734
int	-11.1737
iv	-11.1739
▁Дотоодын	-11.174
▁Тамгы	-11.1741
EN	-11.1741
ерс	-11.1745
▁итгэдэггүй	-11.1745
▁оно	-11.1749
Мэдээж	-11.1751
▁хоригийг	-11.1752
▁сүлжээг	-11.1752
▁хоёул	-11.1754
▁анхаардаг	-11.1761
▁өсөлтийн	-11.1762
▁байгуулжээ	-11.1762
▁тээж	-11.1763
▁хагал	-11.1765
▁зөрүүтэй	-11.1767
▁яваагүй	-11.1767
рэм	-11.1769
бл	-11.177
▁шатандаа	-11.177
▁1.5	-11.1772
▁Япончууд	-11.1775
▁гэд	-11.1777
▁аг	-11.1778
агт	-11.178
▁хага	-11.1781
▁хойшлуул	-11.1785
▁АВ	-11.1785
▁хөтөлбөрүүд	-11.1786
▁харьц	-11.1788
▁диплом	-11.1789
are	-11.1789
▁Дашрамд	-11.1789
▁зорилгыг	-11.1789
▁нэрэмжит	-11.1789
▁профессор	-11.1789
▁эрдэс	-11.179
▁орохоор	-11.179
▁хөвгүүн	-11.179
▁харилцаж	-11.179
▁ДНБ	-11.1792
Мөнгө	-11.1793
▁үйлчлэл	-11.1794
▁ялагд	-11.1795
▁барилдаж	-11.1796
▁хөдөлгө	-11.1798
▁хэлэнд	-11.18
▁шийдвэрлэсэн	-11.1801
▁алинд	-11.1804
▁эгэл	-11.1807
хуяг	-11.1808
тов	-11.1808
▁хангана	-11.181
▁Хамтдаа	-11.181
хайр	-11.1812
▁сонинд	-11.1813
▁тэм	-11.1819
▁ярихдаа	-11.1819
▁дон	-11.1825
▁нэмэгд	-11.1826
▁47	-11.1827
▁Шу	-11.1831
азар	-11.1831
▁мөрөн	-11.1832
▁үйлдэж	-11.1832
▁мартагд	-11.1833
▁БОЛ	-11.1834
▁оюутнуудад	-11.1835
▁Тос	-11.1835
▁дампуу	-11.1836
▁тавьчих	-11.1839
▁ЭМ	-11.1839
▁олборло	-11.1839
ock	-11.1841
▁төвийг	-11.1842
▁нууцлаг	-11.1844
▁зугаатай	-11.1847
▁програмууд	-11.1849
▁иргэдийнхээ	-11.185
="	-11.185
▁доорхи	-11.1851
▁орчноо	-11.1851
▁зэмлэ	-11.1851
▁Du	-11.1851
▁шахаа	-11.1852
▁оюутнуудын	-11.1853
▁академи	-11.1854
▁угтан	-11.1855
алдах	-11.1857
▁Бараа	-11.1858
▁Түүн	-11.1859
▁линк	-11.1859
34	-11.1859
▁сөхө	-11.186
▁эзэмш	-11.1863
▁барилгы	-11.1865
▁95	-11.1866
▁хөрвүүл	-11.1866
▁57	-11.1866
▁сэтгэлдээ	-11.1868
▁эрсдэлийг	-11.1871
▁Дорж	-11.1872
do	-11.1875
▁сугалаа	-11.1875
▁нийлэх	-11.1876
▁эрэмбэ	-11.1882
▁дугаарын	-11.1883
▁болсноо	-11.1884
▁сонирхуул	-11.1887
Ду	-11.1887
️	-11.1888
à	-11.1888
▁Казино	-11.1888
▁бямба	-11.1888
▁реклам	-11.1888
▁сайжирсан	-11.1888
▁Өвөрхангай	-11.1888
▁Удирдах	-11.1889
Номтойбаяр	-11.1889
▁яригдах	-11.1889
▁магтаал	-11.189
▁бүрмөсөн	-11.189
▁халбага	-11.1891
▁зугтаж	-11.1891
▁болзол	-11.1891
▁хожих	-11.1892
▁нугал	-11.1893
▁давтаж	-11.1894
▁Давид	-11.1895
▁амттан	-11.1896
▁төрлүүд	-11.1898
▁уурхайг	-11.1898
▁дурдахад	-11.1899
▁хайраа	-11.19
▁төгсөх	-11.1902
▁төрүүлдэг	-11.1902
▁зарчмаар	-11.1907
▁Тамир	-11.1911
▁сэтгэлзүй	-11.1911
енко	-11.1912
▁нэгэнтэй	-11.1915
▁жишээг	-11.1915
▁цэгцтэй	-11.1916
▁итгэсэн	-11.1918
▁хэзээнээс	-11.1918
port	-11.1921
▁харих	-11.1923
▁хайрласан	-11.1927
▁амьдрахыг	-11.1928
▁Хоолны	-11.1929
51	-11.1929
▁холбогд	-11.1931
Fi	-11.1932
▁төвөөс	-11.1933
▁хадгална	-11.1935
Нийгэм	-11.1939
▁шалгуулах	-11.1941
уулав	-11.1943
▁мэдэгдэхгүй	-11.1944
ологи	-11.1946
▁Сүү	-11.1946
▁гэгээр	-11.1946
▁одооноос	-11.1947
Үнэн	-11.1948
▁нэгээс	-11.1949
▁хүмүүстээ	-11.1951
▁гүнж	-11.1951
▁харъяа	-11.1957
▁барахгүй	-11.1957
▁торгуул	-11.1958
▁эрэл	-11.1958
▁түүндээ	-11.196
Нам	-11.1961
▁ургац	-11.1963
жлийн	-11.1963
▁Багийн	-11.1965
▁төсвөө	-11.1965
▁гү	-11.1965
▁цувралын	-11.1966
▁байгуулалттай	-11.1968
▁ханган	-11.1969
▁Зун	-11.1973
▁орлогоо	-11.1974
чив	-11.1974
агдлаа	-11.1974
▁оролцогчды	-11.1976
▁Пүрэв	-11.1979
▁ажлынхаа	-11.198
илт	-11.1981
▁чадварын	-11.1981
▁дага	-11.1982
▁насныхан	-11.1982
▁иргэдтэй	-11.1982
этэрхий	-11.1985
том	-11.1988
î	-11.1988
▁амьжиргаа	-11.1988
▁африк	-11.1988
▁шоколад	-11.1988
▁өгөгдлийн	-11.1988
▁БЗД	-11.1988
▁хавтгай	-11.1988
▁Бэлэн	-11.1989
▁хөтлөгч	-11.1989
▁хонгор	-11.1989
▁Хувьцаа	-11.199
▁ололт	-11.1991
▁хаанчлал	-11.1991
▁учруулах	-11.1992
▁Чех	-11.1993
▁армийн	-11.1993
▁анхаарлын	-11.1994
▁Загас	-11.1995
▁сануулах	-11.1995
▁дороо	-11.1997
хөд	-11.1998
▁жуулчин	-11.1999
▁ийш	-11.1999
▁буцаах	-11.2
▁тооцдог	-11.2001
▁коммунист	-11.2002
▁(2)	-11.2003
▁цуглуулсан	-11.2003
▁барж	-11.2003
Хүрэлсүхийн	-11.2006
!!!!!!	-11.2007
▁үнэмшил	-11.2007
▁үзэгчдийн	-11.2009
▁дийлэхгүй	-11.201
58	-11.2014
▁хамгаалсан	-11.2014
▁гул	-11.2015
▁Ком	-11.2016
▁хариуцлагаа	-11.2019
▁оролцоогүй	-11.2021
ии	-11.2023
▁шагналын	-11.2024
▁замууд	-11.2024
▁мэдэхээр	-11.2024
лен	-11.2025
▁ирмэг	-11.2025
▁тавцан	-11.2028
▁төхөөрөмжүүд	-11.2033
▁pre	-11.2033
▁Үнийн	-11.2035
▁Улстөр	-11.2035
▁мини	-11.2036
▁гам	-11.2038
▁сонирхлоо	-11.2038
монгол	-11.204
▁Яам	-11.2041
▁түмэндээ	-11.2042
▁Su	-11.2044
▁гарахаар	-11.2044
▁намаа	-11.2046
▁үйлдвэрийг	-11.2046
▁уугуул	-11.2051
олоо	-11.2052
▁жий	-11.2052
▁санаанууд	-11.2054
▁зэв	-11.2057
▁мэдэгдлий	-11.2057
▁зайн	-11.2059
▁төрөө	-11.206
▁тоглолтууд	-11.2064
▁Хятадаас	-11.2066
▁Урлаг	-11.2067
▁буруутгаж	-11.207
На	-11.2075
der	-11.2075
▁компанитай	-11.208
▁үгүйсгэ	-11.2085
▁чамдаа	-11.2089
лет	-11.2089
▁SEO	-11.2089
▁ивээн	-11.209
▁хурандаа	-11.2092
▁хариуцаж	-11.2093
▁нийлээд	-11.2093
▁онгоцоор	-11.2094
▁шалтгаантай	-11.2096
▁илэрдэг	-11.2096
▁тэжээлийн	-11.2097
▁сонслоо	-11.2097
▁сахилга	-11.2097
▁илрэх	-11.2097
▁олноороо	-11.2099
▁Одоохондоо	-11.2099
▁залгах	-11.2099
▁хамааралгүй	-11.2099
▁өндий	-11.21
▁Хэргий	-11.2101
▁Үзсэн	-11.2102
▁дүй	-11.2102
илсэн	-11.2105
▁дайралт	-11.2105
▁хямралын	-11.2106
▁америкийн	-11.211
▁тоолох	-11.211
▁үйлчилгээтэй	-11.2112
▁Танилц	-11.2114
▁Нарийн	-11.2117
ЗХ	-11.2119
мээ	-11.2119
огддог	-11.2123
▁орохдоо	-11.2124
▁гүйх	-11.2124
кин	-11.2127
▁лаборатори	-11.2128
же	-11.2128
▁буцаагаа	-11.2129
▁залгаж	-11.213
▁томилогд	-11.2133
▁худаг	-11.2134
▁Хүч	-11.2135
▁залбирах	-11.2149
▁томил	-11.215
▁өрийг	-11.215
▁29-	-11.2152
▁сайжруул	-11.2152
▁цэгц	-11.2152
▁Асуу	-11.2153
ST	-11.2154
▁Салхи	-11.2154
▁чихэнд	-11.2155
▁системтэй	-11.2156
▁хайран	-11.216
▁сонирх	-11.2162
▁хөгш	-11.2162
ton	-11.2163
ААР	-11.2163
өөрэй	-11.2165
▁ажилтнуудын	-11.217
▁юугаар	-11.2171
▁тархинд	-11.2171
▁зөвлөмжийг	-11.2171
▁туссан	-11.2172
rd	-11.2172
ive	-11.2176
▁зохиох	-11.2177
▁ти	-11.2178
▁нэвт	-11.2186
▁тариалан	-11.2189
▁Венесуэл	-11.2192
▁Нөгөөтэйгүүр	-11.2192
▁баримжаа	-11.2192
▁электрон	-11.2192
▁эсхүл	-11.2192
▁кампани	-11.2192
▁түрэмгий	-11.2192
▁туршлагыг	-11.2192
▁ТУЗ	-11.2192
▁чансаа	-11.2192
▁бэлдмэл	-11.2193
▁бөлгөө	-11.2194
▁оролцлоо	-11.2194
▁солиотой	-11.2194
Хор	-11.2194
▁конусан	-11.2195
▁явагдсан	-11.2195
▁мэдэгд	-11.2195
▁ирчихсэн	-11.2197
▁ашиглахгүй	-11.2198
▁ангиуд	-11.2199
▁хэтэрсэн	-11.2199
▁Төсөв	-11.22
▁гэргий	-11.2201
▁суртахуун	-11.2202
▁даатга	-11.2202
▁Хаалга	-11.2203
▁уурлаж	-11.2204
▁үлджээ	-11.2206
▁Саруул	-11.2207
▁Хэ	-11.2208
эль	-11.221
▁мартахгүй	-11.2211
▁санагдав	-11.2213
AT	-11.2214
96	-11.2215
▁газартаа	-11.2217
▁урьдын	-11.2218
▁Пол	-11.2219
▁Бороо	-11.222
▁харьцаанд	-11.2221
▁зовдог	-11.2223
еле	-11.2224
▁гэрээс	-11.2224
▁түншлэл	-11.2225
▁хуудсан	-11.2226
ийхээ	-11.2227
▁тэмдэглэн	-11.2227
▁хорооноос	-11.2228
ерт	-11.2228
▁ууланд	-11.2232
▁үнэний	-11.2232
▁морил	-11.2233
▁хамгаалдаг	-11.2233
▁me	-11.2236
▁дээдэс	-11.2239
▁минутанд	-11.224
▁хаалгаа	-11.2245
Гадаад	-11.2245
▁Хэний	-11.2247
▁үрс	-11.2248
▁хатаа	-11.2249
du	-11.2251
Энхбат	-11.2253
▁акт	-11.2253
▁тэмүүл	-11.2254
▁зүгт	-11.2255
▁дуусгава	-11.2255
▁хаант	-11.226
Баярсайхан	-11.2261
▁суудалтай	-11.2263
▁сүйд	-11.2267
▁орноос	-11.2268
шинэ	-11.2268
рос	-11.2271
▁хугацаанаас	-11.2275
▁өөрчлөн	-11.2275
илсон	-11.2276
▁Карл	-11.2277
▁Лхагва	-11.2277
ном	-11.2279
▁гэмгүй	-11.2281
Ав	-11.2286
▁надаар	-11.2289
өргө	-11.2292
▁Дэлгэц	-11.2295
▁нарийвчлан	-11.2295
▁оффшор	-11.2295
▁холимог	-11.2295
▁ЭСЯ	-11.2295
▁хэвшлийн	-11.2295
▁онигоо	-11.2295
▁сонсоогүй	-11.2295
▁Дональд	-11.2295
▁Шагнал	-11.2295
▁сургуулилт	-11.2295
▁Уншигч	-11.2295
▁зөвшөөрөгдсөн	-11.2295
▁Крис	-11.2295
▁тавигдсан	-11.2295
▁өөрчлөгддөг	-11.2296
▁ашиглагддаг	-11.2296
▁хүмүүжил	-11.2297
ial	-11.2299
▁давтах	-11.2301
▁Дараачийн	-11.2301
▁сонгогчид	-11.2301
▁естой	-11.2302
▁ирүүлэх	-11.2302
▁Шүлэг	-11.2304
▁хариулав	-11.2306
▁далайд	-11.2307
▁сэд	-11.2308
▁Хатан	-11.2308
▁Хад	-11.2309
▁нэвтрүүлгийн	-11.231
▁эртхэн	-11.2311
▁Эхлэл	-11.2311
ник	-11.2313
дор	-11.2314
OS	-11.2316
▁Элс	-11.2322
▁АМ	-11.2323
▁ялж	-11.2325
▁сэдэвт	-11.2325
▁марк	-11.2327
Амарсайхан	-11.2327
▁For	-11.2328
▁харьцдаг	-11.2329
ps	-11.2334
▁Бүтээгдэхүүний	-11.2339
▁Бүү	-11.234
▁дурьд	-11.2341
▁z	-11.2345
▁түрүүн	-11.2346
▁гулга	-11.235
Улаан	-11.2352
▁гэмтсэн	-11.2353
▁тайланд	-11.2355
mm	-11.2355
▁өршөөл	-11.2356
ОВ	-11.2357
▁Ha	-11.2359
▁хаагчийн	-11.2367
▁тэвч	-11.2367
▁өнгөрчээ	-11.2369
рой	-11.2373
▁ахлагч	-11.2374
▁Лос	-11.2375
▁хүрд	-11.2376
рэв	-11.2379
▁зол	-11.2379
▁Тэги	-11.238
▁давхарга	-11.2382
рак	-11.2385
▁алдаагүй	-11.2386
bu	-11.2388
▁баглаа	-11.2389
▁тусах	-11.2389
▁зарсан	-11.239
▁бухимдал	-11.239
▁мат	-11.2391
▁Үйлчилгээ	-11.2391
▁баярт	-11.2392
▁хувьцааг	-11.2392
▁Библид	-11.2393
аци	-11.2394
▁аман	-11.2395
▁явдалд	-11.2396
▁өрөвд	-11.2397
▁үйлчилнэ	-11.2399
▁тунадас	-11.2399
▁санаачлага	-11.2399
▁гагц	-11.2399
▁зорилгын	-11.2399
▁сэдвийн	-11.2399
▁хүндэтгэх	-11.2399
▁мотор	-11.24
▁шаардлагын	-11.24
▁таалал	-11.24
▁өнгөрдөг	-11.24
▁тавиур	-11.2401
▁дулаар	-11.2401
▁зөвшөөрнө	-11.2401
▁Байшин	-11.2402
▁заалдах	-11.2402
▁Зочин	-11.2406
▁байршлы	-11.2407
▁эргэ	-11.2407
▁заншил	-11.2407
▁хонх	-11.2408
▁улсынхаа	-11.2408
▁зодог	-11.241
▁намтар	-11.2411
▁судалсан	-11.2411
▁өвдөг	-11.2412
эч	-11.2412
▁бодлын	-11.2414
▁шагай	-11.2415
Эрдэнэс	-11.2416
Жаргалсайхан	-11.2417
▁авснаас	-11.2419
▁суурилуулах	-11.242
▁явжээ	-11.2422
uu	-11.2424
▁дуугарч	-11.2424
▁хоцорч	-11.2427
▁зочлох	-11.2428
▁шийдвэрт	-11.2431
▁хичээн	-11.2433
▁зарлаг	-11.2436
▁ядах	-11.2436
2013	-11.2437
▁Хүнийг	-11.244
▁сүүдэр	-11.2443
▁өт	-11.245
тог	-11.2451
▁85	-11.2454
▁жаргалын	-11.2455
юм	-11.2456
Хууль	-11.2456
▁гайхамшигт	-11.2458
▁Шан	-11.2458
▁хүүхэдтэйгээ	-11.246
▁хичээллэх	-11.2463
нуур	-11.2464
▁түлхүү	-11.2466
гөр	-11.2467
▁Эргэ	-11.2467
▁Во	-11.247
▁хээрийн	-11.247
▁болгохоор	-11.2472
▁Тэндээс	-11.2472
ike	-11.2472
▁y	-11.2473
▁гэрлээ	-11.2475
▁Sa	-11.2475
гэдэг	-11.2477
▁хотхон	-11.2479
▁орхин	-11.2479
▁Ак	-11.248
▁ноо	-11.2482
Алтай	-11.2482
фе	-11.2488
▁удаатай	-11.2488
▁нд	-11.249
ааааа	-11.249
▁болгоомжил	-11.249
▁цуцал	-11.2491
▁тэмцээнийг	-11.2495
▁шөл	-11.2495
▁ог	-11.2502
▁Маркетинг	-11.2504
▁тэмдгүүд	-11.2504
Mongolia	-11.2504
▁Борлуулалт	-11.2504
▁Иерусалим	-11.2504
▁статус	-11.2504
▁түгшүүр	-11.2504
▁илрээгүй	-11.2504
▁хавтас	-11.2504
элтэй	-11.2504
▁Хагас	-11.2506
▁арвин	-11.2506
▁шалгаарай	-11.2507
үм	-11.2507
▁1997	-11.2507
▁болгоё	-11.2507
▁гүйгээд	-11.2508
▁хэмнэл	-11.2508
▁үзэгдэх	-11.2508
▁тулгамдаж	-11.2509
▁барилгууд	-11.2509
▁шинжээчид	-11.2509
▁цаанаа	-11.251
▁төрөлх	-11.2511
▁валют	-11.2512
рик	-11.2517
▁зөвлөлд	-11.2519
▁шээс	-11.2521
6)	-11.2523
ls	-11.2523
▁авчирна	-11.2524
▁нэгэндээ	-11.2524
▁урсгалыг	-11.2526
чдийг	-11.2526
▁одод	-11.2528
▁хөтөлбөрөө	-11.253
▁болгочих	-11.253
▁чуулга	-11.2531
▁салалт	-11.2532
▁ааа	-11.2533
▁тивийн	-11.2536
▁хамаарахгүй	-11.2537
▁шалгасан	-11.2538
▁Цаад	-11.2539
▁батлуул	-11.2539
▁турах	-11.2543
▁тогтнох	-11.2543
▁тойрогт	-11.2544
▁Найзууд	-11.2549
▁баяж	-11.2549
59	-11.2551
Өр	-11.2553
▁Зи	-11.2553
▁Хүүгийн	-11.256
▁Бан	-11.2561
Цагаан	-11.2562
▁хүчил	-11.2562
▁Ge	-11.2565
▁урвал	-11.2567
Хурц	-11.2567
▁тэрбумын	-11.2568
▁төлөвлөгөөнд	-11.2571
▁сэлбэг	-11.2571
▁Виз	-11.2572
▁зориулах	-11.2572
стой	-11.2572
▁нө	-11.2573
▁барилд	-11.2574
▁бүтэлгүйт	-11.2576
▁сорил	-11.2578
үүллээ	-11.258
72	-11.2584
▁тер	-11.2586
▁гомд	-11.2593
▁баас	-11.2593
▁ажлаар	-11.2595
ген	-11.2595
▁дүрүүд	-11.2596
▁таслах	-11.2597
_:	-11.2598
▁Онгоц	-11.26
▁нууцаар	-11.26
▁эгнээ	-11.2604
▁охинд	-11.2606
▁Хөдөлгөөн	-11.261
▁Эмнэлгийн	-11.261
▁туурви	-11.261
▁Шулуун	-11.261
▁Хуудас	-11.261
▁элдв	-11.2611
▁Нобел	-11.2611
▁ШХАБ	-11.2611
▁хүндэтгэж	-11.2611
▁хэвлүүл	-11.2611
▁Хөгшин	-11.2612
▁цэнгэлдэх	-11.2612
Өлгий	-11.2612
▁сайшаа	-11.2612
▁олуулаа	-11.2612
▁Page	-11.2613
▁хөлсний	-11.2614
▁тоот	-11.2614
▁Гадна	-11.2615
▁танилцана	-11.2615
▁түрүүлэх	-11.2615
Байна	-11.2617
▁манан	-11.2618
▁байгуулав	-11.2621
▁цэвэрлэгээний	-11.2622
ама	-11.2622
▁илэрхийлжээ	-11.2624
▁баригдах	-11.2626
▁илэрхийллээ	-11.2629
▁амжихгүй	-11.2629
▁хаягийг	-11.263
Баярцогт	-11.2632
▁Фо	-11.2632
▁элссэн	-11.2634
▁цуваа	-11.2635
▁хомс	-11.2636
Батбаяр	-11.2636
▁настнууд	-11.2637
au	-11.2641
лагчид	-11.2645
▁Даш	-11.265
SA	-11.2651
▁52	-11.2655
еми	-11.2657
▁Хосууд	-11.2658
Мөнхбат	-11.2662
ьё	-11.2663
▁ёо	-11.2666
чулуун	-11.2668
▁Наран	-11.267
Залуу	-11.2671
▁харьцуулж	-11.2676
лүүлдэг	-11.268
▁урлал	-11.2682
56	-11.2685
▁Гуравдугаар	-11.2686
тгал	-11.2686
▁гараас	-11.2691
▁зөвшөөрөлтэй	-11.2692
▁наана	-11.2694
▁урлагт	-11.2695
ҮТ	-11.2697
▁болиоч	-11.2697
▁хөгшир	-11.2698
▁бүрэлд	-11.2698
▁зураас	-11.2704
▁тэжээж	-11.2709
▁эзний	-11.2711
▁файлууд	-11.2712
ЛЭГ	-11.2713
▁хэлц	-11.2715
▁Удирдлаг	-11.2718
▁Украйн	-11.2718
▁хуванцар	-11.2718
▁зогсолт	-11.2718
▁Алдарт	-11.2718
▁логик	-11.2719
▁зогсоно	-11.2719
▁маргаантай	-11.2719
▁1993	-11.272
▁нэмрээ	-11.272
▁сахих	-11.2724
▁зогсоосон	-11.2726
▁илрүүлсэн	-11.2727
Гантулга	-11.2728
▁өвчнөөс	-11.2731
рүүлэх	-11.2733
▁эмчилж	-11.2734
▁Sc	-11.2738
▁3-4	-11.2738
▁уйтгартай	-11.2739
▁царайтай	-11.274
▁гарахаас	-11.274
▁64	-11.2742
▁марга	-11.2742
▁тэргүүнд	-11.2743
▁үйлчлүүлэгчдийн	-11.2743
▁түншүүд	-11.2744
▁хоногоос	-11.2744
▁өвөр	-11.2745
сээн	-11.2745
▁Гүн	-11.2748
▁төвүүд	-11.2751
les	-11.2754
▁дуусгаж	-11.2756
ae	-11.2757
▁бөөр	-11.2759
▁спортоор	-11.276
▁???	-11.276
▁мэдрэлийн	-11.2762
▁бух	-11.2762
▁зөвшөөрөлгүй	-11.2764
Бурхан	-11.2764
▁хали	-11.2764
▁амжуул	-11.2766
▁бга	-11.2767
▁Санд	-11.2772
▁Азаар	-11.2773
▁байгал	-11.2776
▁хөөх	-11.2776
▁амарна	-11.2777
▁аяны	-11.2777
Зарим	-11.2777
снийхээ	-11.2779
▁Хөдөлмөр	-11.278
▁төрөлхийн	-11.278
▁хуучны	-11.2781
Хүү	-11.2781
Тэгээд	-11.2781
▁чада	-11.2782
▁лаборатор	-11.2786
өсө	-11.2787
зе	-11.2789
▁байгууллагуудад	-11.279
▁Ингэ	-11.2791
-2020	-11.2791
▁ѳ	-11.2799
▁Про	-11.2803
▁харьцуулах	-11.2803
▁Үүл	-11.2805
▁хэмжээнүүд	-11.2805
▁өнгөрүүл	-11.2807
▁мана	-11.2809
▁толи	-11.281
▁Хилийн	-11.2811
▁сад	-11.2812
чний	-11.2813
лжээ	-11.2815
▁тэдэн	-11.2816
▁будах	-11.2818
▁Бурханаас	-11.2819
▁суухгүй	-11.282
охио	-11.2823
▁Эргээ	-11.2825
▁өмгөөл	-11.2825
▁явдлаас	-11.2827
▁аугаа	-11.2827
▁Зорилго	-11.2827
▁олдоогүй	-11.2827
▁Сүлжээ	-11.2827
▁Туршилт	-11.2827
▁дөхөж	-11.2827
▁гишүүнчлэл	-11.2827
▁илүүдэхгүй	-11.2828
▁энгэр	-11.2828
▁тохирно	-11.2829
▁чаджээ	-11.2829
▁тулгар	-11.2829
▁хэмжих	-11.283
▁өснө	-11.283
▁зөвөлгөө	-11.2831
▁нээгдсэн	-11.2831
▁өгчихсөн	-11.2832
▁дурджээ	-11.2832
▁ишлэл	-11.2832
▁хуваарилалт	-11.2832
ие	-11.2833
▁нэгдэн	-11.2834
▁мөнхөд	-11.2837
▁зохицох	-11.2838
▁байлдааны	-11.284
руулсан	-11.2841
▁хаус	-11.2841
▁тараасан	-11.2843
акс	-11.2845
▁орсны	-11.2846
▁дуусдаг	-11.2846
▁ажиллуулдаг	-11.2847
МАН	-11.2847
▁бохирдлыг	-11.2847
▁Хонгор	-11.285
▁700	-11.2851
▁тоосон	-11.2853
аааааа	-11.2854
fi	-11.2856
өгдөж	-11.2858
▁Шалгалт	-11.2861
▁тэмээ	-11.2866
▁шаналж	-11.2866
▁хөхний	-11.2867
▁нисгэгч	-11.2869
▁бүтээлчид	-11.2869
▁ухаанаар	-11.2871
хүүгийн	-11.2872
▁бүлдээ	-11.2878
▁төлөөлөгчийн	-11.2878
охо	-11.288
▁Эрээн	-11.2881
▁засгаас	-11.2884
▁яара	-11.2885
▁Лю	-11.2887
▁дата	-11.2887
тэх	-11.2888
ИЙ	-11.289
▁болдоо	-11.2894
▁новшнууд	-11.2898
▁бүртгүүлж	-11.2901
▁хулхи	-11.2901
▁Ти	-11.2902
▁хоцор	-11.2904
▁аюулаас	-11.2904
▁Киноны	-11.2907
▁хэвтэх	-11.2908
▁булш	-11.2908
▁зарлага	-11.2912
▁төлөгч	-11.2912
▁гайхуул	-11.2913
▁(20	-11.2913
▁дэлгэрүүл	-11.2914
ther	-11.2915
▁нээлтийн	-11.2916
▁намынхаа	-11.2917
▁төлөвлөх	-11.2917
▁төртэй	-11.2919
тэг	-11.2919
▁элементүүд	-11.2927
▁үдээс	-11.2929
жингөө	-11.2931
▁аван	-11.2936
То	-11.2936
ý	-11.2937
}	-11.2937
▁Хацарт	-11.2937
▁боловсронгуй	-11.2937
▁дэвшилтэт	-11.2937
▁тодорлоо	-11.2937
▁өрнөсөн	-11.2937
▁Төсөл	-11.2937
▁веб	-11.2937
▁porn	-11.2937
▁Багануур	-11.2938
▁Nov	-11.2938
▁Яриа	-11.2938
▁танилцуулъя	-11.2939
▁аймгаас	-11.2939
▁зөвлөдөг	-11.2941
▁баталлаа	-11.2942
ug	-11.2943
▁илгээнэ	-11.2943
▁Тэглээ	-11.2944
өгдөх	-11.2944
▁эгнээнд	-11.2945
▁бари	-11.2947
ардаг	-11.2948
▁тохируулан	-11.2948
▁Мэдлэг	-11.2951
▁буруутгах	-11.2953
▁багтаасан	-11.2958
▁Сав	-11.2958
▁гарснаас	-11.2958
▁цу	-11.2959
▁мэдэгдэлд	-11.2959
▁төрлийг	-11.296
▁байрлуулсан	-11.296
▁буруугүй	-11.2962
▁байгуулахад	-11.2962
▁тойрны	-11.2966
▁Утас	-11.297
▁Тер	-11.297
▁үндэслэлтэй	-11.297
▁нураа	-11.2972
▁холбооноос	-11.2972
▁дээшээ	-11.2972
min	-11.2976
▁эрчүүдэд	-11.2978
yo	-11.2978
▁файлуудыг	-11.298
хө	-11.2981
▁зохио	-11.2982
▁эхлэнэ	-11.2984
▁нийтлэлд	-11.2989
▁хуралдаанд	-11.299
OP	-11.2991
ess	-11.2991
▁хадгалдаг	-11.2994
▁дуусахгүй	-11.2995
▁Сонг	-11.2996
▁Рио	-11.2997
▁идэвхи	-11.2998
▁хориог	-11.2998
Америк	-11.2998
Тухай	-11.2998
▁тэврэ	-11.2999
net	-11.3001
▁Сүм	-11.3002
▁Фи	-11.3003
▁шоунд	-11.3004
▁Амь	-11.3005
▁агуулгатай	-11.3008
АНУ	-11.3009
▁талбарт	-11.301
▁ариутгал	-11.301
▁цохиж	-11.3019
▁сурна	-11.3022
▁хүүхдүүддээ	-11.3024
ГИЙН	-11.3025
▁дэмжин	-11.3034
▁хүмүүж	-11.3036
▁ахиу	-11.3043
инь	-11.3043
▁бодлоготой	-11.3044
▁Ярилц	-11.3046
▁лого	-11.3047
▁хойноо	-11.3048
▁Товчхондоо	-11.3048
▁булчирхай	-11.3048
▁оператор	-11.3048
▁харгалзах	-11.3048
▁Хэлэлцэ	-11.3048
▁тооллын	-11.3048
▁урилга	-11.3048
▁цэргээ	-11.3049
▁Түргэн	-11.3049
▁Испанийн	-11.3049
▁1994	-11.305
▁өсгөсөн	-11.305
тен	-11.3051
▁Эхэндээ	-11.3052
▁найзуудтайгаа	-11.3056
▁хуваах	-11.3056
▁утсанд	-11.3056
▁санаачилсан	-11.3057
▁эрхлэгчдэ	-11.3057
▁хүрээлэнд	-11.3057
q	-11.306
▁тэгдэг	-11.3061
▁хоцрох	-11.3063
▁Bu	-11.3063
▁гишүүдээс	-11.3063
Төр	-11.3065
▁хийсээр	-11.3067
▁хэргээ	-11.3068
▁туслахыг	-11.307
▁онуудад	-11.307
▁Мөрдө	-11.3071
▁цаасны	-11.3072
▁унтдаг	-11.3072
▁ирснийг	-11.3073
▁ангиас	-11.3073
▁хэс	-11.3073
▁зугтах	-11.3075
▁зовоо	-11.3075
атга	-11.3077
▁ээжтэйгээ	-11.3079
▁Там	-11.3081
OR	-11.3081
▁My	-11.3082
▁алдан	-11.3082
▁шун	-11.3084
ҕ	-11.3084
▁туршдаа	-11.3085
▁27-	-11.3086
▁бүрдэх	-11.3087
▁гүйцэтгэ	-11.3087
▁Тэднээс	-11.3088
▁айлууд	-11.3091
uck	-11.3093
ХАА	-11.3095
▁оруулалтыг	-11.3095
▁үргэлжлэл	-11.3097
▁гарчихсан	-11.31
▁хэвлэ	-11.3102
Оюу	-11.3104
▁Францад	-11.3104
▁үнэлгээг	-11.3104
▁тушаалаа	-11.3106
▁далан	-11.3107
▁мэдэр	-11.3108
▁бидэн	-11.3108
▁цөөнх	-11.3108
▁тайлангаа	-11.3109
▁амандаа	-11.311
^	-11.311
▁харъя	-11.3112
▁зарлаад	-11.3113
▁Эз	-11.3114
ES	-11.3116
▁болио	-11.3118
Co	-11.3118
▁галын	-11.312
лгаж	-11.3127
лоогүй	-11.3129
▁албанаас	-11.3129
▁Зү	-11.3129
▁Эдгээрийг	-11.3129
▁этгээдийг	-11.313
Уран	-11.313
▁оролцохоор	-11.3131
</	-11.3131
Ном	-11.3132
98	-11.3137
▁хохир	-11.3139
мен	-11.3141
▁Зур	-11.3143
ати	-11.3145
▁сүрдүүл	-11.3145
mon	-11.3147
▁залх	-11.3148
▁айхгүй	-11.3149
▁Технологий	-11.3152
▁заана	-11.3155
▁болсондоо	-11.3156
▁өөрөөс	-11.3159
▁Роберт	-11.316
▁Талийгаач	-11.316
▁горьд	-11.316
▁Youtube	-11.316
▁Казахстан	-11.316
▁тодруулж	-11.316
▁багассан	-11.3161
▁довтолгоо	-11.3161
▁Наадмын	-11.3161
▁утсан	-11.3163
▁сүлд	-11.3163
▁оролдоод	-11.3163
▁аргын	-11.3164
▁шаргал	-11.3165
▁бээ	-11.3165
▁даруухан	-11.3165
▁өмчит	-11.3166
▁боломжоо	-11.3168
▁зүтгэсэн	-11.3169
▁шийтгэх	-11.317
▁царайлаг	-11.317
▁орноосоо	-11.317
▁зогсоод	-11.3171
▁цаашлаад	-11.3171
▁явъя	-11.3171
▁тунгалаг	-11.3172
▁уншигчид	-11.3172
▁харцгаая	-11.3173
▁тасрах	-11.3174
төн	-11.3177
жсэн	-11.3177
▁эдний	-11.318
▁Библийн	-11.3185
▁хэдийг	-11.3185
▁таниулах	-11.3186
▁ва	-11.3186
▁гон	-11.3186
сийм	-11.3188
сєн	-11.3195
▁биелэх	-11.3195
▁зүйг	-11.3198
▁багтай	-11.3199
лөж	-11.3199
▁урамшуул	-11.32
▁тохир	-11.3203
бус	-11.3203
▁зорилтыг	-11.3204
▁ХАА	-11.3206
▁нэгнээс	-11.3207
▁цагаасаа	-11.3209
tic	-11.321
▁Чен	-11.3211
▁ачааны	-11.3211
▁тайлагна	-11.3215
мат	-11.3215
оосой	-11.3219
▁барихад	-11.3222
▁пуужинг	-11.3222
Төмөр	-11.3224
▁өөрсдийнх	-11.3225
gen	-11.3225
Япон	-11.3226
ыхоо	-11.3232
Зөв	-11.3232
Уг	-11.3235
wa	-11.3235
Түүний	-11.3235
▁Бүтээгдэхүүн	-11.3235
▁сэтгүүлд	-11.3235
▁Шо	-11.3236
)))	-11.3237
▁өртөгтэй	-11.3241
▁56	-11.3241
али	-11.3247
▁Дал	-11.3251
▁Лам	-11.3254
▁гавьяат	-11.3257
▁72	-11.326
це	-11.3265
▁гараж	-11.3265
▁еврог	-11.3265
▁томчууд	-11.3267
ОС	-11.3269
▁дархан	-11.3269
▁Тулга	-11.327
▁капитал	-11.3273
▁Долоон	-11.3274
▁WordPress	-11.3274
▁зовиур	-11.3274
▁шалтгаалж	-11.3274
▁ISO	-11.3274
▁орчмын	-11.3274
▁шумуул	-11.3274
▁Туршлага	-11.3274
▁ивээл	-11.3274
▁Хөлбөмбөг	-11.3274
▁мансууруулах	-11.3274
▁бүтээгдсэн	-11.3274
▁Эсрэг	-11.3275
▁мөчлөг	-11.3275
▁уулзвар	-11.3275
▁хожиж	-11.3277
▁харьцаж	-11.3277
▁засварлах	-11.3277
▁тодорхойлно	-11.3277
▁дарааллаар	-11.328
▁хэвлэгдэ	-11.328
▁дэвшигчдийн	-11.3281
▁дайчин	-11.3283
▁ch	-11.3284
▁дэргэдэх	-11.3287
▁оруулав	-11.3288
ster	-11.3288
▁бүлгүүд	-11.3291
▁байгуулаад	-11.3291
▁AM	-11.3292
▁тэсвэртэй	-11.3295
бөөний	-11.3296
аф	-11.3297
▁зэвсгийн	-11.3298
чихнэ	-11.3298
▁салхинд	-11.3306
▁хүүдээ	-11.3307
▁гав	-11.3308
▁эмчилгээнд	-11.331
ово	-11.3311
wi	-11.3312
▁дуулна	-11.3314
▁хойшлуулах	-11.3315
▁компаниас	-11.3315
▁54	-11.3318
чуул	-11.3319
▁хурлы	-11.3325
гээсээ	-11.3325
CA	-11.3325
▁хэлээч	-11.3327
▁залруул	-11.3329
УН	-11.333
▁маркетинг	-11.333
Бага	-11.333
▁шорон	-11.3331
▁хариулжээ	-11.3332
▁Ник	-11.3333
▁сэргийлж	-11.3333
▁мэдрэгч	-11.3335
▁зээлээр	-11.3336
жим	-11.3338
Иргэд	-11.3339
▁Египетийн	-11.334
▁ули	-11.3343
ыхаа	-11.3345
▁холын	-11.3345
▁даргаа	-11.3347
▁нөхдөө	-11.3348
▁цэнгэ	-11.335
▁Мартин	-11.3353
ke	-11.3353
▁Анги	-11.3353
▁най	-11.3357
▁Монголоо	-11.3358
чихав	-11.3359
▁хайгуул	-11.3359
▁хийснийг	-11.3369
0.000	-11.337
▁орохоос	-11.3371
ҮҮЛ	-11.3374
лөөд	-11.3374
▁66	-11.3378
▁сэхээ	-11.3378
▁зуслан	-11.338
69	-11.338
▁шуудан	-11.3381
▁алдана	-11.3381
▁Баярын	-11.3385
▁микро	-11.3389
▁Хичнээн	-11.3389
▁өөрчлөгдөөгүй	-11.3389
▁ковид	-11.3389
▁тайвны	-11.3389
▁нийцэж	-11.3389
▁боломгүй	-11.339
▁нэмэгдсээр	-11.339
▁тайзнаа	-11.339
▁чанд	-11.3391
▁өргөжүүлэх	-11.3392
▁дизайнер	-11.3393
▁өргөтгөл	-11.3394
▁бодлогоор	-11.3394
▁дэвшсэн	-11.3396
▁Є	-11.3397
▁мэргэ	-11.3397
▁итгэгч	-11.3398
▁Санхүү	-11.3399
Чиний	-11.34
▁хориглодог	-11.34
▁даруу	-11.3402
▁бээр	-11.3405
▁тогтоогд	-11.3406
▁асуувал	-11.3407
▁дурласан	-11.3408
▁Лин	-11.3409
▁замаас	-11.3412
▁нотло	-11.3412
▁Болор	-11.3413
▁Ядуу	-11.3413
▁Da	-11.3415
▁сургуулиудын	-11.3415
▁баялгийн	-11.3415
▁суулаа	-11.3416
rs	-11.3416
▁бүрддэг	-11.3419
▁төвшинд	-11.3419
▁хүлээлгэж	-11.342
▁солилц	-11.3423
▁180	-11.3424
кэ	-11.3429
▁Зай	-11.3431
▁Будд	-11.3433
оддын	-11.3435
▁28-	-11.3437
гаач	-11.3438
▁Dec	-11.3438
▁шүүхээс	-11.3443
▁50-	-11.3445
▁төлөвлөгөөгөө	-11.3449
▁хагаст	-11.3451
эвч	-11.3452
▁тодорч	-11.3453
▁Спортын	-11.3455
Энд	-11.3456
▁бүртгэлд	-11.3457
ЫГ	-11.3458
▁хавь	-11.346
▁театрын	-11.346
▁өч	-11.3461
Гар	-11.3462
▁төрүүл	-11.3465
▁Галт	-11.3465
▁гэдгээр	-11.3471
▁импортын	-11.3472
-18	-11.3474
▁шаардлагад	-11.3477
AC	-11.3477
▁гуд	-11.3481
▁шөнөгүй	-11.3486
саан	-11.3489
▁тохирохгүй	-11.349
▁тогтолцооны	-11.3491
▁ШУ	-11.3494
гэрэл	-11.3496
тус	-11.3497
▁Ad	-11.3497
▁мэдэлтэй	-11.3498
▁гутаа	-11.3499
бид	-11.3501
▁Хайрын	-11.3504
Занданшатар	-11.3505
▁үнэлэмж	-11.3505
▁талийгаач	-11.3505
▁Гаалийн	-11.3505
▁Шанхай	-11.3506
▁явуулахад	-11.3506
▁өнж	-11.3506
▁оролцоод	-11.3507
▁1991	-11.3507
▁Олны	-11.3508
▁Дугуй	-11.3508
▁Instagram	-11.3508
▁Цонх	-11.3508
▁эвдэрсэн	-11.3509
▁уншихад	-11.351
▁тэнхээ	-11.3512
▁1960	-11.3513
▁Хөөрхөн	-11.3515
▁Play	-11.3516
▁ДОХ	-11.3516
▁нэрлэгддэг	-11.3517
▁дагасан	-11.3518
▁нэгтгэн	-11.3519
▁оролцохыг	-11.3521
▁түмнийхээ	-11.3522
▁Кен	-11.3522
айна	-11.3522
▁газ	-11.3523
▁Хим	-11.3523
▁цэцгийн	-11.3523
▁оршихуй	-11.3523
▁зарлана	-11.3525
▁суудалд	-11.3526
▁санагд	-11.3528
▁Улаанбаатарын	-11.3531
DA	-11.3533
▁Na	-11.3535
▁болой	-11.3536
Ы	-11.3536
▁Манж	-11.3543
▁Уянга	-11.3544
▁Харь	-11.3549
▁Элэг	-11.3549
▁Эй	-11.3551
▁хахаха	-11.3552
▁дурдах	-11.3554
▁худалдаалах	-11.3554
ax	-11.3555
зэх	-11.356
we	-11.3561
▁гашуун	-11.3562
▁бүрэлдэхүүнтэй	-11.3565
өрөг	-11.3566
▁Аавын	-11.3573
nder	-11.3574
gg	-11.3575
▁бой	-11.3576
элтийг	-11.3578
▁олонтаа	-11.3579
▁наашаа	-11.358
▁Ачаа	-11.3581
▁дасан	-11.3581
▁үзэсгэлэнг	-11.3584
ский	-11.3586
▁Шалга	-11.3587
▁нэгтгэж	-11.3587
▁тэжээвэ	-11.3588
АК	-11.3591
▁буг	-11.3591
▁ег	-11.3591
пол	-11.3592
vi	-11.3595
▁Ва	-11.3596
▁Тор	-11.3596
▁хэвлэлд	-11.3601
▁сүмд	-11.3602
▁биенд	-11.3602
ита	-11.3603
ЕГ	-11.3606
▁таниул	-11.361
▁1950	-11.3611
▁ядарч	-11.3613
▁Байгаа	-11.3613
▁тохиолд	-11.3616
рат	-11.3617
ЕР	-11.3618
▁зохиолыг	-11.3619
▁Гадаа	-11.3619
94	-11.3619
▁Үйлдвэрийн	-11.3621
▁Мэргэжил	-11.3622
▁язгуур	-11.3623
▁хувцсы	-11.3623
▁дамжиггүй	-11.3623
▁сахиулах	-11.3623
▁ноёд	-11.3623
▁Гишүүн	-11.3623
▁тооцвол	-11.3624
▁оноог	-11.3624
▁үзмэр	-11.3624
▁цацраг	-11.3624
ене	-11.3624
▁болчихвол	-11.3625
▁шүтэн	-11.3625
▁хулгана	-11.3626
▁уриалга	-11.3627
▁өргөсөн	-11.3628
▁оймс	-11.3628
▁бүрдүүлдэг	-11.3628
▁сонирхсон	-11.3629
▁Хамаг	-11.3629
▁сахиус	-11.363
▁ухаж	-11.3631
▁мэдмээр	-11.3631
▁тухайлбал	-11.3631
▁Үйлчилгээний	-11.3631
▁уулзав	-11.3632
▁үзмээр	-11.3632
▁Худал	-11.3633
▁номлол	-11.3633
▁зовоох	-11.3634
▁ут	-11.3635
▁Түүхэн	-11.3636
▁програмын	-11.3636
▁хүчирхийллийн	-11.3637
▁ирдэггүй	-11.3641
▁оролддог	-11.3642
дөр	-11.3642
▁суралцсан	-11.3643
уулъя	-11.3644
▁хөөн	-11.3644
▁байрлуулж	-11.3647
▁англиар	-11.3649
▁дүүгээ	-11.365
▁шу	-11.3651
▁Тэгснээ	-11.3653
▁Хөтөлбөр	-11.3656
▁таавар	-11.3658
▁байгуулаг	-11.3659
▁хаад	-11.3659
▁хойших	-11.3659
▁газруудыг	-11.366
▁төрлөө	-11.3661
▁таалагд	-11.3664
▁дагадаг	-11.3665
▁судлал	-11.3665
▁унтсан	-11.3666
▁урагшлах	-11.3666
▁тогоонд	-11.3668
фо	-11.3669
▁арилгаж	-11.3669
▁хүмүүжүүлэх	-11.367
▁хүрэн	-11.3672
▁түүхээ	-11.3672
▁хайсан	-11.3675
▁лавтай	-11.3676
▁шинэчлэлийн	-11.3677
▁мэдрэмжтэй	-11.3679
▁Ri	-11.368
▁нэгдүгээрт	-11.3681
▁асууна	-11.3683
Батзандан	-11.3692
Ариун	-11.3692
▁үетэй	-11.37
▁тогтнолын	-11.3701
TE	-11.3701
▁ум	-11.3702
▁уламжлалтай	-11.3703
▁Con	-11.3705
▁Ирээдүй	-11.3711
▁гарахдаа	-11.3713
тнуудын	-11.3714
▁Мари	-11.3715
▁нэгтээ	-11.3719
▁мон	-11.372
▁өртэй	-11.372
▁сэжиг	-11.3723
▁хандалт	-11.3725
▁ярихад	-11.3727
▁залуухан	-11.3733
▁тодотго	-11.3734
▁өд	-11.3734
▁хурууны	-11.3736
▁шул	-11.374
▁загалмай	-11.3742
▁нэхэмжлэл	-11.3742
▁эзэгтэй	-11.3742
▁консул	-11.3742
▁Байнга	-11.3742
▁хавсарга	-11.3742
▁баячууд	-11.3742
▁Оюутны	-11.3743
-2016	-11.3743
▁муудалц	-11.3743
▁цэнэг	-11.3743
▁дутахгүй	-11.3743
▁сахал	-11.3744
▁Маск	-11.3744
▁зодож	-11.3744
истууд	-11.3744
▁хулгайлсан	-11.3744
жүүлж	-11.3744
▁шинэчлэгдсэн	-11.3745
▁ачааллы	-11.3745
▁маягтай	-11.3745
▁шаргуу	-11.3746
▁больё	-11.3746
▁1995	-11.3746
▁литр	-11.3747
▁учруулсан	-11.3747
▁хямдрал	-11.3748
▁харагдуулах	-11.3748
▁омог	-11.3749
▁НЭГ	-11.375
▁Иван	-11.3751
▁Австралид	-11.3751
▁хөдөлгөөнтэй	-11.3751
▁орноор	-11.3752
▁яривал	-11.3753
▁хэлснийг	-11.3754
way	-11.3754
▁Ажилд	-11.3754
▁тавьжээ	-11.3755
мас	-11.3755
Ай	-11.3757
▁тавилаа	-11.3757
сноо	-11.3758
▁түрээслэх	-11.3759
▁Үн	-11.3761
▁цэл	-11.3761
▁4-5	-11.3762
▁хүүхдүүдтэй	-11.3762
▁бодов	-11.3763
жүүлсэн	-11.3763
▁ажиллалаа	-11.3764
▁ялагдсан	-11.3765
▁найрлага	-11.3766
▁Хаанаас	-11.3766
сайн	-11.3768
gi	-11.3768
▁өрсөлд	-11.377
▁гаргахаар	-11.3772
▁борлуулагч	-11.3773
▁хагалгаанд	-11.3773
▁дизайны	-11.3773
▁авхуул	-11.3777
ya	-11.3779
▁гэрлэж	-11.378
▁нийтлэх	-11.3781
▁заяаны	-11.3783
▁хоногоор	-11.3785
▁бнаа	-11.3785
▁тавихгүй	-11.3785
Даваасүрэн	-11.3786
▁сэргээлт	-11.3786
▁арьсанд	-11.3792
▁суут	-11.3795
▁татвараа	-11.3796
▁зө	-11.3796
▁хэлдэггүй	-11.3799
▁эрсдлий	-11.3799
▁Гэж	-11.3804
▁Com	-11.3806
▁засаглалтай	-11.3807
▁суучих	-11.3807
лю	-11.3808
▁яаа	-11.3811
▁нуурын	-11.3814
▁нөхөрт	-11.3816
▁Цог	-11.3819
▁санхүүжилтийн	-11.3819
▁барьц	-11.382
▁шаттай	-11.3821
▁Автобус	-11.3823
▁сонголттой	-11.3824
▁таарахгүй	-11.383
▁Цэцийн	-11.3832
жуулсан	-11.3833
▁тайвшруул	-11.3834
▁Нүдний	-11.3835
ингийн	-11.3836
ийсэн	-11.3837
▁шийдвэрүүд	-11.3837
дэнтэй	-11.3838
▁зүйч	-11.3838
ave	-11.3839
▁кэ	-11.3849
▁булчин	-11.385
▁ялгарах	-11.3855
уха	-11.3855
уйн	-11.3856
▁мэргэжлийг	-11.3862
▁Өвгөн	-11.3862
▁тариф	-11.3862
▁үзэгчдэд	-11.3863
▁тиймэрхүү	-11.3863
▁хохирлыг	-11.3863
▁совин	-11.3863
▁шахмал	-11.3863
▁Алекс	-11.3864
▁хэлбэрт	-11.3864
▁хийгддэг	-11.3864
▁цогцос	-11.3864
▁жуулчид	-11.3865
▁хохирсон	-11.3865
▁Бүтээл	-11.3866
хил	-11.3866
▁>>	-11.3866
▁нэмэгджээ	-11.3867
▁сонсоно	-11.3867
▁бэлэглэсэн	-11.3867
▁хэлсэнчлэн	-11.3869
▁хахууль	-11.3869
▁Буцаа	-11.3869
▁зовсон	-11.3871
▁шингэсэн	-11.3872
▁гэдгийн	-11.3874
▁хүрэв	-11.3875
▁2030	-11.3876
▁цагдан	-11.3876
▁бичээч	-11.3877
ууу	-11.3877
▁Хийсэн	-11.3878
▁захиалж	-11.3878
▁улсуудад	-11.3879
▁эрхэлсэн	-11.388
▁Хичээлийн	-11.3883
▁хариуц	-11.3885
▁хүүхдэдээ	-11.3888
▁алдав	-11.3894
өдөр	-11.3898
▁салбарууд	-11.39
▁хохирч	-11.3901
kh	-11.3902
▁хуруугаа	-11.3905
▁тээвэрлэх	-11.391
▁буурчээ	-11.3913
▁Хэрэглээ	-11.3914
луулдаг	-11.3915
gr	-11.3916
▁1500	-11.3917
лик	-11.3918
▁жагсаалтаас	-11.3923
олдог	-11.3924
▁лаг	-11.3924
ko	-11.3925
▁төг	-11.3926
91	-11.393
▁нэгдлийн	-11.3933
▁тэмцэлд	-11.3934
Отгон	-11.3934
▁өмнөхөн	-11.3939
▁Анхаар	-11.3939
ооооооо	-11.3945
▁зөрчлий	-11.3945
▁Vi	-11.3946
by	-11.3948
▁Qu	-11.3948
▁цэнэглэ	-11.3949
▁Калифорни	-11.3957
▁засалт	-11.3964
her	-11.3966
мэйлээр	-11.3967
▁Дуртай	-11.3972
▁худалдагч	-11.3974
▁хүүхэддээ	-11.3979
▁тарах	-11.398
▁дэлбэрэлт	-11.3984
▁дуулгавартай	-11.3984
▁социализм	-11.3984
▁Хүйтэн	-11.3984
ХҮ	-11.3984
▁шүтлэг	-11.3984
▁өргөдлөө	-11.3984
▁Өнөөдрөө	-11.3984
▁сэтгэгдлий	-11.3984
▁Кофе	-11.3985
▁Сэдэв	-11.3985
▁сүсэг	-11.3985
▁дамжаа	-11.3985
▁дусал	-11.3985
▁аваргууд	-11.3986
▁хашаанд	-11.3986
▁соли	-11.3986
▁Oct	-11.3986
▁самуун	-11.3987
▁мисс	-11.3987
▁мэдэлгүй	-11.3987
▁Хашаа	-11.3987
▁хоцорсон	-11.3987
▁түм	-11.3987
88	-11.3987
▁эвдэр	-11.3988
▁хадгалагдаж	-11.3988
▁зургаар	-11.3989
▁метро	-11.3989
▁удирддаг	-11.3989
▁Дөрөвдүгээр	-11.3989
▁Samsung	-11.399
▁өвчнөөр	-11.3991
▁сүнслэг	-11.3992
▁биечлэн	-11.3994
▁гардуулах	-11.3994
▁цан	-11.3997
▁эш	-11.3998
▁хүргээд	-11.4001
сэндээ	-11.4002
▁ээлжийн	-11.4005
▁булчинг	-11.4006
▁зарц	-11.4006
▁гүр	-11.4008
▁Эдний	-11.4012
▁байлгана	-11.4012
▁үндэслэлээр	-11.4016
▁сө	-11.4018
▁эсэргүүцлий	-11.402
▁тогтох	-11.4021
▁хүрээлэнгийн	-11.4022
▁цаадах	-11.4022
▁толгойтой	-11.4022
▁хаяа	-11.4024
▁комиссын	-11.4026
▁Аан	-11.4027
▁хилээ	-11.4028
▁сонсч	-11.403
▁Мат	-11.4033
▁Украин	-11.4033
▁болсоор	-11.4035
▁хангагд	-11.4036
бор	-11.4036
▁шударгаар	-11.4036
▁Монголынхоо	-11.4037
▁тосыг	-11.4038
▁ойлгуул	-11.4043
лүүлээд	-11.4045
▁театрт	-11.4051
Сайхан	-11.4058
Баатар	-11.4058
Ко	-11.406
▁өвд	-11.406
▁тушаалаас	-11.4063
▁тоолж	-11.4063
▁бүрхэг	-11.4063
ЛАГ	-11.4064
▁гэхэв	-11.4064
▁хүндэтгэлтэй	-11.4065
▁Ra	-11.4066
▁хуралдах	-11.4067
лбал	-11.4072
▁өөрчлөгдөхгүй	-11.4072
▁ангийнхан	-11.4074
▁хаягдлы	-11.4077
▁эхнэртэй	-11.4079
▁бүтээжээ	-11.4079
▁онолын	-11.4086
▁Mon	-11.4088
▁зарууд	-11.4089
▁заалтууд	-11.4096
▁цэрэгт	-11.4097
▁болино	-11.4105
▁Эрдэм	-11.4106
▁порт	-11.4107
▁буруугаа	-11.4107
▁Дөрөв	-11.4107
▁Баянхонгор	-11.4107
▁бензин	-11.4107
▁органик	-11.4107
▁твиттер	-11.4107
▁гамшгийн	-11.4107
▁гавъяа	-11.4107
▁тийз	-11.4108
▁завшаан	-11.4108
▁Тагнуулын	-11.4108
▁хөргөгч	-11.4108
▁Хөө	-11.4108
▁могой	-11.4108
▁байлдан	-11.4108
▁шүтээн	-11.4108
дүүлж	-11.4109
▁лангуу	-11.4109
▁ТҮЦ	-11.4109
▁маргалд	-11.4109
▁хөрөнгөөр	-11.4109
▁More	-11.411
▁төвлөрсөн	-11.411
▁Никол	-11.411
▁өмчлөх	-11.411
▁Унгар	-11.4111
▁нуугдаж	-11.4112
▁болголоо	-11.4112
▁дурлах	-11.4118
▁дуусаад	-11.4119
▁сайжруулсан	-11.412
▁мэдээлэв	-11.412
▁←	-11.4124
TS	-11.4125
▁Кор	-11.4126
▁Мэнд	-11.4127
▁тол	-11.4127
▁видеог	-11.4128
▁Бү	-11.4129
▁төлөвлөжээ	-11.413
▁харууллаа	-11.413
▁өгүүлжээ	-11.4133
▁Шил	-11.4135
▁аянд	-11.4137
▁хангадаг	-11.4138
чу	-11.4139
▁Үх	-11.4139
▁гаралт	-11.4139
огч	-11.4145
▁өсгөж	-11.4145
▁төлбөрт	-11.4145
лэр	-11.4146
▁даргатай	-11.4151
стан	-11.4152
▁өм	-11.4154
▁Залуучууд	-11.4154
▁босгож	-11.4155
▁тулааны	-11.4157
▁энэтхэг	-11.4161
▁үзэв	-11.4161
▁хүл	-11.4167
▁Зас	-11.4171
▁Үндсэндээ	-11.4172
ance	-11.4176
▁кр	-11.4183
Хамт	-11.4183
pt	-11.4183
Хүүхэд	-11.4183
▁Ану	-11.4184
Нийт	-11.4184
▁зорих	-11.4185
ach	-11.419
▁хамгаалалттай	-11.4191
▁эргэлзэх	-11.4192
▁санхүүжүүл	-11.4192
▁бясалга	-11.4193
цаж	-11.4194
▁хэрэлд	-11.4197
▁нотолж	-11.4197
▁гэрийнхээ	-11.4199
▁Тоглолтын	-11.42
▁морд	-11.4202
▁хамтаар	-11.4204
▁зүйлүүдийг	-11.4205
▁жолоочийн	-11.4205
▁үнэртэй	-11.4207
ser	-11.4214
▁баримтаа	-11.4217
▁чамгүй	-11.4219
▁клубын	-11.4221
цгааж	-11.4221
ссэн	-11.4222
▁суув	-11.4226
▁эргэцүүл	-11.4229
▁53	-11.423
▁НАТО	-11.4232
ü	-11.4232
▁Групп	-11.4232
▁Нөхцөл	-11.4232
▁организм	-11.4232
▁эрлийз	-11.4232
▁эмнэлгээс	-11.4232
▁Бутлуур	-11.4232
▁Найман	-11.4233
▁сэдвүүд	-11.4233
▁өндрөө	-11.4233
▁Мосе	-11.4233
▁гадарла	-11.4233
▁гэцгээ	-11.4234
▁тарган	-11.4234
▁хишиг	-11.4234
▁хольж	-11.4235
▁мэндэлсэн	-11.4236
▁ээээээ	-11.4236
▁бичээгүй	-11.4238
▁Зочид	-11.4238
▁луйварчин	-11.4239
▁зөвлөсөн	-11.4242
▁Орчлон	-11.4242
▁эсэргүүцсэн	-11.4243
▁бичигдэж	-11.4243
єнгє	-11.4244
▁гүм	-11.4244
▁томилсон	-11.4245
▁Ex	-11.4246
▁тэтгэлэгт	-11.4248
▁баривчилжээ	-11.425
▁!!	-11.4252
▁Багшийн	-11.4253
уууу	-11.4256
Хятад	-11.4257
▁тавихад	-11.4261
▁залруулах	-11.4262
▁цонхоор	-11.4263
able	-11.4266
ear	-11.4268
▁хооллож	-11.4268
▁учрал	-11.427
▁ногооны	-11.427
▁Гуравдугаарт	-11.427
Монголчууд	-11.4272
▁зэм	-11.4274
ren	-11.4275
▁Анна	-11.4275
▁Судалгаан	-11.4276
▁төлөвлөлтийн	-11.4276
!!!!!	-11.4276
▁Загварын	-11.4276
▁ярианд	-11.4277
Батхүү	-11.4277
▁төлбөртэй	-11.4279
▁санхүүжүүлэх	-11.4283
▁бууруул	-11.4285
уа	-11.4289
▁цолтой	-11.4291
аши	-11.4292
▁хамг	-11.4292
▁хязгаарла	-11.4295
▁Сэтгэлийн	-11.4296
лодог	-11.4296
▁амьдрахад	-11.4297
▁хөдөөний	-11.4305
Хүүхдийн	-11.4309
▁үгүйсгэж	-11.4311
▁болгондоо	-11.4312
log	-11.4313
чихлоо	-11.4315
▁Нүүрс	-11.4316
▁Чулуун	-11.4316
▁бүжиглэ	-11.4318
хнээ	-11.432
▁эрсдэлд	-11.4323
><	-11.4324
▁гайхан	-11.4329
▁IT	-11.433
▁үзүүлэлтийг	-11.4333
▁хуримаа	-11.4335
▁настан	-11.4335
▁Тайлан	-11.4341
граф	-11.4343
▁тэмдгий	-11.4344
);	-11.4347
▁явуулахгүй	-11.4349
Алдар	-11.435
▁Орд	-11.435
лагддаг	-11.4353
▁дуунд	-11.4355
▁танигд	-11.4357
▁World	-11.4359
▁Аргентин	-11.4359
▁Тэтгэвэр	-11.4359
▁аппликейшн	-11.4359
▁зарчмууд	-11.4359
▁шилдгүүд	-11.4359
▁дайснууд	-11.4359
▁зиндаа	-11.4359
▁Нөөц	-11.4359
▁хуваарийг	-11.4359
▁өгөгдсөн	-11.4359
▁Нутаг	-11.436
▁өмхий	-11.436
▁ярилцлагын	-11.436
▁халуухан	-11.436
▁Бодвол	-11.4361
▁судар	-11.4361
▁зөвшөөрлөө	-11.4361
▁эзэмшлийн	-11.4362
▁эрхлэгчдийн	-11.4365
▁өрнүүл	-11.4365
▁нөхөртөө	-11.4366
▁өгүүлэв	-11.4367
▁Зурагт	-11.4367
▁мен	-11.4368
▁Наадам	-11.4368
▁Бүлэг	-11.4369
▁замнал	-11.4369
▁сарнай	-11.4369
▁Тэм	-11.4371
▁хожсон	-11.4371
▁балет	-11.4372
▁туузан	-11.4374
цсэн	-11.4375
▁Нээлттэй	-11.4379
▁нүүрэн	-11.4379
▁хүрэлцээ	-11.4379
▁авраг	-11.4384
▁төрөлт	-11.4385
▁Бүсгүйчүүд	-11.4385
▁эмчлүүлж	-11.4386
▁нөлөөг	-11.4387
▁журамд	-11.4389
og	-11.4389
▁вакцинд	-11.439
▁хоёуланг	-11.4392
▁удсан	-11.4393
▁ХАР	-11.4395
▁Зургий	-11.4395
▁уяа	-11.4397
▁станцын	-11.4398
▁31-	-11.4398
▁хувиараа	-11.4399
▁мэргэжлээрээ	-11.4399
74	-11.4403
▁ирээдүйгээ	-11.4404
▁догол	-11.4407
83	-11.4407
▁заасны	-11.4408
▁унагах	-11.4411
▁дагуулаад	-11.4412
▁уяач	-11.4412
86	-11.4415
▁орчуулах	-11.4417
▁Гүй	-11.4418
▁архины	-11.4421
▁ижий	-11.4424
▁Ганбаатар	-11.4431
▁бүрдэл	-11.4432
▁уулздаг	-11.4439
▁Gu	-11.4446
▁үзэлтэй	-11.4453
уда	-11.4454
▁эдгэр	-11.4458
отой	-11.4459
▁чанараа	-11.4459
▁компаниудыг	-11.4467
▁do	-11.4467
▁нийгэмлэгийн	-11.4467
▁зөө	-11.4471
▁хүлээлгэ	-11.4471
▁харьяат	-11.4473
▁Израйл	-11.4475
▁бүсгүйтэй	-11.4476
▁Владимир	-11.4487
▁Зэвсэгт	-11.4487
▁агууламж	-11.4487
▁Хөрөнгий	-11.4487
▁эдүгээ	-11.4487
▁Оролцогч	-11.4487
▁тохиолдуулан	-11.4488
▁өлсөж	-11.4488
▁өрнөх	-11.4488
▁сонгоорой	-11.4488
quot	-11.4488
▁шалгагдаж	-11.4488
▁тушаалаар	-11.4488
▁Латин	-11.4488
▁Талбай	-11.4488
▁тогтож	-11.4489
▁экспортлох	-11.449
▁Дайн	-11.449
▁Tags	-11.449
▁ярилцана	-11.4491
▁бүтсэн	-11.4492
▁хэлэлцэн	-11.4492
▁араб	-11.4492
▁солилцох	-11.4493
▁маягийг	-11.4494
▁Дэв	-11.4494
▁багтана	-11.4494
▁болчихно	-11.4495
RA	-11.4497
▁мэдүүлсэн	-11.4497
▁дайрах	-11.4497
▁хоер	-11.4498
ҮГ	-11.4499
▁сайтаас	-11.4499
▁тасарсан	-11.45
▁гаргачих	-11.45
ark	-11.45
▁баяжуулах	-11.4501
▁байснаар	-11.4501
▁мор	-11.4504
▁Бурхантай	-11.4505
▁ви	-11.4507
Улсын	-11.4508
▁бодолд	-11.4509
▁түлшний	-11.4509
▁шахсан	-11.4511
ххх	-11.4512
▁ургах	-11.4516
▁уулзахаар	-11.4517
▁яриул	-11.4517
▁зургуудаас	-11.4518
▁дамжи	-11.4518
кон	-11.4518
сү	-11.4519
▁тэмүүлэл	-11.4519
▁Цас	-11.452
▁жимсний	-11.4521
▁инээх	-11.4521
Ухаа	-11.4521
▁телевизээр	-11.4522
▁тавилгатай	-11.4523
▁суралцдаг	-11.4527
▁дүрслэл	-11.4527
▁хавьгүй	-11.4529
▁бурханы	-11.4529
▁сэг	-11.4529
соны	-11.4531
▁Тоглолт	-11.4531
▁алан	-11.4533
▁хүүхний	-11.4534
▁нийлэхгүй	-11.4537
▁онцолжээ	-11.4537
▁цог	-11.4538
▁чөлөөлж	-11.4538
▁ухаарч	-11.454
▁бодон	-11.4544
▁шалгаруулж	-11.4548
▁охиндоо	-11.4549
▁тосгоны	-11.4549
▁биелүүл	-11.4551
▁Урлагийн	-11.4553
▁төөрөг	-11.4555
ать	-11.4556
▁нарынхаа	-11.4565
Чингис	-11.4568
nce	-11.4569
▁мэдрэл	-11.4569
▁сэт	-11.4569
ау	-11.4573
▁үхнэ	-11.4576
Маш	-11.4578
▁PM	-11.4589
▁цоож	-11.459
▁журамтай	-11.4594
▁хувирч	-11.4601
▁уулзалтад	-11.4603
▁Камер	-11.4605
▁буйдан	-11.4605
▁харамла	-11.4606
▁цахилгааны	-11.4607
нэр	-11.4614
▁мотоцикл	-11.4617
▁офицер	-11.4617
Ганзориг	-11.4617
▁виртуал	-11.4617
▁протокол	-11.4617
▁Жэнко	-11.4617
▁асрамж	-11.4617
▁Хэцүү	-11.4617
▁ёроол	-11.4617
▁кафе	-11.4618
▁ШИНЭ	-11.4618
▁асуугаарай	-11.4618
▁жолоодох	-11.4618
▁хамаараад	-11.4619
▁өмсөөд	-11.4619
▁агуулгын	-11.4619
▁илтгэх	-11.4619
▁үндэстнүүд	-11.462
▁захиалсан	-11.462
▁сонголтууд	-11.462
▁урьдчилгаа	-11.462
▁өнгөрөөсөн	-11.4621
RI	-11.4621
▁Түмэн	-11.4621
▁тохирол	-11.4621
▁гэрэлтэй	-11.4622
▁ферм	-11.4623
▁тулгараад	-11.4624
lt	-11.4625
▁Экс	-11.4626
чдаас	-11.4628
fa	-11.4628
▁Яруу	-11.4628
▁хадам	-11.4629
▁сайжрах	-11.4629
▁Man	-11.463
▁Чой	-11.4631
▁заагаад	-11.4631
▁98	-11.4631
▁Ижил	-11.4631
▁Сатан	-11.4634
вий	-11.4634
▁явчихдаг	-11.4635
▁бодолгүй	-11.4635
▁цоч	-11.4637
▁залуусыг	-11.4638
▁захиалгын	-11.4641
▁лавлах	-11.4642
▁биелүүлсэн	-11.4642
▁хөрг	-11.4643
▁багачууд	-11.4644
▁шинжилгээг	-11.4647
▁буцсан	-11.4647
▁найдах	-11.4648
▁гуайн	-11.4648
▁Мөнгөө	-11.465
▁шалгаруулалтад	-11.4652
▁мэдээний	-11.4652
▁нийцэхгүй	-11.4653
▁дүнгээс	-11.4656
Ажил	-11.4657
▁хассан	-11.4658
кет	-11.4661
▁Ирээдүйн	-11.4661
▁Жак	-11.4663
▁тохироо	-11.4666
▁дэглэмийг	-11.467
дүүлсэн	-11.4671
org	-11.4672
▁гэс	-11.4673
▁номууд	-11.4676
▁бүхэнтэй	-11.4679
53	-11.4679
МС	-11.4682
бө	-11.4686
▁унтлагы	-11.4687
▁Чулуу	-11.4689
Монголд	-11.4691
▁нэхэх	-11.4692
тэж	-11.4692
▁Биеэ	-11.4692
▁дуулаад	-11.4695
▁жингийн	-11.4699
Банк	-11.4699
▁цэвэрлэ	-11.4701
өлсөн	-11.4705
алгүйгээр	-11.4706
Дараа	-11.4711
▁явсны	-11.4714
▁хүндэтгэн	-11.4717
▁хамруул	-11.4719
▁саванг	-11.472
▁сэрэмжлүүл	-11.4723
cy	-11.4723
▁зөрчилтэй	-11.4724
▁мян	-11.4725
NS	-11.4727
▁прокурорын	-11.4729
▁Маг	-11.4732
▁дэлгүүрээс	-11.4734
▁залуусаа	-11.4735
зул	-11.4735
▁холбоонд	-11.4736
▁ажиглалт	-11.4737
амар	-11.4738
▁Тэгэх	-11.4739
ендер	-11.4741
▁ро	-11.4742
▁хэлэхээр	-11.4744
▁өдийг	-11.4745
ОЙ	-11.4746
▁Байгууллага	-11.4749
¬	-11.4749
▁Casino	-11.4749
▁Сонгинохайрхан	-11.4749
▁диваажин	-11.4749
▁тоомсорло	-11.4749
▁хөндлөнгөөс	-11.4749
▁тэнхлэг	-11.4749
▁Хөнгөн	-11.4749
▁энхрий	-11.4749
▁үерхэж	-11.4749
мой	-11.4749
▁мөрөөдлийн	-11.4749
▁үйлчлүүлэх	-11.475
▁түүхээс	-11.475
▁Цаашлаад	-11.4752
▁тэмцэнэ	-11.4752
▁холбогдоно	-11.4752
▁дагалдах	-11.4752
▁хөндсөн	-11.4753
▁илэрхийлэв	-11.4753
▁Өвөө	-11.4756
▁сүрхий	-11.4757
▁хэрэгжсэн	-11.4757
▁зориулав	-11.4757
▁модель	-11.4758
▁Time	-11.4759
▁Болж	-11.4761
▁тусгах	-11.4763
▁илрүүлж	-11.4763
▁хүртээмжтэй	-11.4764
▁Сүнсний	-11.4765
▁баталгаажуулсан	-11.4766
▁хуваалцсан	-11.4767
ямар	-11.4767
▁Тогтвортой	-11.4768
▁эндүүр	-11.4772
AL	-11.4772
▁болгов	-11.4774
▁мэдүүл	-11.4774
▁автсан	-11.4777
▁хувиа	-11.4778
▁нуусан	-11.4779
Тиймээ	-11.478
▁гүйлт	-11.4782
▁явав	-11.4782
▁цайгаа	-11.4789
▁парламентад	-11.4789
▁хэрэгжүүлдэг	-11.4794
▁төрсний	-11.4797
54	-11.4799
▁Сп	-11.48
▁шүүмжлэлтэй	-11.4801
ниас	-11.4804
эсвэл	-11.4805
▁ани	-11.4812
▁шийдвэрлэхэд	-11.4812
IM	-11.4814
▁Ач	-11.4815
▁оргилд	-11.4816
▁фэнүүд	-11.4818
Ганболд	-11.4818
▁шаг	-11.4818
▁БН	-11.4819
▁ёстойгоо	-11.482
▁үеийнхээ	-11.4822
▁хамаарал	-11.4824
▁манга	-11.4827
эгтлээ	-11.4832
▁ярьцгаа	-11.4838
Мөн	-11.4838
▁ядар	-11.4839
▁шалгарч	-11.484
▁нэвтэр	-11.484
▁билэг	-11.4841
▁тэнцвэртэй	-11.4841
▁зургаас	-11.4843
▁зөвөөр	-11.4847
▁чихр	-11.4849
ger	-11.4852
ЖИЛ	-11.4854
▁үеэрээ	-11.4856
▁тохио	-11.4856
▁бэлэглэх	-11.4858
▁Магад	-11.4859
▁хүргэн	-11.486
▁хамруулж	-11.4862
▁Бул	-11.4865
▁автобусанд	-11.4866
57	-11.4869
▁буланд	-11.487
▁үйлчл	-11.4872
▁тоглохыг	-11.4873
▁эхэндээ	-11.4875
чүүл	-11.4879
▁Карт	-11.488
▁төгсөгч	-11.4882
▁шошго	-11.4882
▁холбосон	-11.4882
▁Зеланд	-11.4882
▁Дагуурын	-11.4882
▁бужигна	-11.4882
▁батламж	-11.4882
▁хэрэгсэхгүй	-11.4882
▁өнгөрөгч	-11.4882
▁сохор	-11.4883
▁орхигдуул	-11.4884
сугай	-11.4884
▁мэйл	-11.4884
▁Голланд	-11.4884
▁солино	-11.4884
ком	-11.4884
▁залхаж	-11.4885
▁Захиргааны	-11.4886
ИХ	-11.4887
▁үйлдлээ	-11.4887
▁таалагдлаа	-11.4887
▁зочилж	-11.4888
▁нигүүлс	-11.4888
ЛТ	-11.4888
▁нийтэлсэн	-11.489
▁€	-11.489
▁уршиг	-11.4893
▁корпорац	-11.4894
▁Хавр	-11.4896
▁танхимын	-11.4898
▁өрөөг	-11.4898
▁нимгэн	-11.4898
▁баригчдын	-11.4899
▁Цэрэн	-11.4903
▁(3)	-11.4905
▁уншлаа	-11.4907
▁дээрхи	-11.4909
▁гөл	-11.4912
▁явуулаад	-11.4912
▁шохойн	-11.4915
▁биелэлт	-11.4916
▁агуй	-11.4916
▁зөвлө	-11.4919
▁ургадаг	-11.492
▁Намар	-11.492
▁барихаар	-11.492
▁хасч	-11.4921
▁олборлолтын	-11.4921
▁тэмдэглэв	-11.4923
▁өгөхдөө	-11.4926
Энхбаярыг	-11.4927
▁хөнгөлөлттэй	-11.4927
▁хөхүүл	-11.4931
мэр	-11.4931
▁хэлэлцээд	-11.4936
ii	-11.4938
yy	-11.4938
▁ЭЗЭНий	-11.494
▁эхлэхээр	-11.4942
▁өдрүүдийн	-11.4943
ГАН	-11.4944
▁мэдэн	-11.4944
▁тэрийгээ	-11.4948
олгоо	-11.495
▁ЭХ	-11.4953
▁авилгал	-11.4955
ДС	-11.4956
яя	-11.4956
▁эхийнхээ	-11.4964
▁сэдэвтэй	-11.4964
▁pro	-11.4971
▁тохиох	-11.4974
▁ярьдаггүй	-11.4977
▁залуудаа	-11.4981
land	-11.4982
cc	-11.4982
▁дагал	-11.4986
▁материалууд	-11.4987
▁халж	-11.4989
▁нойрс	-11.499
▁сонсогдох	-11.4994
руугаа	-11.4994
▁Авлиг	-11.5
▁хичээнэ	-11.5
▁халамжийн	-11.5001
▁шалгалтанд	-11.5001
▁байлдаа	-11.5004
агсад	-11.5007
жүүлэлт	-11.5011
▁сэргэж	-11.5012
▁Жам	-11.5012
▁зөвшилц	-11.5014
▁үхэ	-11.5015
охь	-11.5017
▁Португал	-11.5017
▁Яаралтай	-11.5017
▁тооллого	-11.5017
▁хүмүүнлэгийн	-11.5017
▁урьсан	-11.5017
▁хийгдээгүй	-11.5017
▁буцалтгүй	-11.5017
▁хөгжинө	-11.5018
▁өвдөөд	-11.5018
ИД	-11.5018
▁нэхэж	-11.5019
▁бичвэр	-11.5019
▁хоршоо	-11.502
▁захидлы	-11.5021
▁Тэдэнтэй	-11.5021
▁цэнэглэх	-11.5022
▁зохино	-11.5022
▁мэтгэлцээн	-11.5022
▁ядаргаа	-11.5023
Нөхөн	-11.5023
▁санана	-11.5023
▁нөхдийн	-11.5024
▁алдааны	-11.5026
▁Хориг	-11.5026
▁оруулаагүй	-11.5026
▁драм	-11.5027
▁гахайн	-11.5028
▁ярилцаад	-11.5028
▁Пу	-11.5034
▁Иохан	-11.5038
▁арлын	-11.5038
▁салахгүй	-11.5039
▁япончууд	-11.504
▁танайх	-11.5042
Ман	-11.5044
▁киногоо	-11.5045
▁тосон	-11.5047
▁Зүүд	-11.5047
▁is	-11.5049
▁Тайвань	-11.505
▁Цагаа	-11.5051
▁мэдүүлэх	-11.5052
▁тоглуулах	-11.5054
▁ширээнд	-11.5057
▁ханиа	-11.5057
▁урвагч	-11.5057
▁сонор	-11.5058
▁ором	-11.5059
▁холдох	-11.5061
▁хаягдлын	-11.5061
▁одсон	-11.5063
▁сурвалжил	-11.5063
магц	-11.5064
▁бүтээдэг	-11.5067
▁мангас	-11.5068
▁Ихэнхдээ	-11.5069
огдож	-11.5072
▁Зуун	-11.5075
▁аялан	-11.5077
цуу	-11.5077
▁малтмал	-11.5079
▁эсэргүүцэх	-11.5086
▁жижиглэн	-11.5089
▁ирэн	-11.5091
▁үсгийн	-11.5093
▁Бэлтгэл	-11.5094
▁мянгаар	-11.5095
▁төгсгөлийн	-11.51
oon	-11.5102
AP	-11.5102
Шударга	-11.5105
Бүгд	-11.5105
жу	-11.5108
▁явдалтай	-11.5111
3)	-11.5121
▁онгоцонд	-11.5121
▁88	-11.5123
▁төрөөд	-11.5125
ургуул	-11.5129
▁худалч	-11.5132
▁эргэлзэхгүй	-11.5133
▁жагсаалтын	-11.5133
▁үгэндээ	-11.5135
ks	-11.5135
▁нийцэх	-11.5136
▁Эрдэнэтийн	-11.5136
▁Тэгэ	-11.5138
▁суртахууны	-11.5141
▁гялалз	-11.5142
▁тохижуул	-11.5143
▁дөрв	-11.5146
▁тасар	-11.5148
▁өгөхөөс	-11.5149
▁сонирхолгүй	-11.5151
▁илчлэг	-11.5151
▁гайхамшг	-11.5154
▁цилиндр	-11.5154
▁subject	-11.5154
▁ГХЯ	-11.5154
▁Статистик	-11.5154
▁захирлууд	-11.5154
▁ойлголцох	-11.5154
▁өвчилсөн	-11.5154
▁захирлын	-11.5154
▁латекс	-11.5154
▁СХД	-11.5154
▁тохиролцсон	-11.5154
▁эрдмийн	-11.5154
▁дурдвал	-11.5154
▁зөрчих	-11.5154
▁Нисэх	-11.5155
▁Месси	-11.5155
▁эргүүлэх	-11.5155
▁аваачиж	-11.5155
▁жигүүр	-11.5155
▁Байден	-11.5155
▁өвддөг	-11.5155
▁бүтнээр	-11.5156
▁Баталгаа	-11.5156
▁гүйцэх	-11.5156
▁хуваарийн	-11.5157
▁posts	-11.5157
▁comments	-11.5158
▁Хэмжээ	-11.5158
Бямбацогт	-11.5158
▁өнгөрүүлдэг	-11.5159
▁хичээллэдэг	-11.516
▁азтан	-11.516
лцах	-11.516
▁Сөрөг	-11.5161
гэхдээ	-11.5161
▁аллага	-11.5161
▁арьстай	-11.5161
▁түймрийн	-11.5164
лей	-11.5167
▁хамрах	-11.5167
▁цэгцлэх	-11.5167
▁сандарч	-11.5168
▁сансар	-11.5168
▁оруулахыг	-11.5168
гүүт	-11.5169
▁суухад	-11.5169
члэх	-11.517
зэж	-11.517
▁тогтоодог	-11.5172
лим	-11.5174
▁өрөөнөөс	-11.5175
▁ахих	-11.5175
гддэг	-11.5175
▁хөршийн	-11.518
▁ойгоо	-11.5182
▁сансарт	-11.5187
****	-11.5187
▁намуудын	-11.519
▁хоолтой	-11.5192
ED	-11.5194
▁130	-11.5194
▁энергийн	-11.5197
▁салон	-11.5197
▁Дам	-11.5197
▁Босоо	-11.5198
▁ариутга	-11.5199
▁үүрэх	-11.52
▁орчуулагч	-11.5202
ахи	-11.5204
out	-11.5205
▁Сургуульд	-11.5206
▁TV	-11.5207
85	-11.5208
▁цэгцэл	-11.5209
▁бэхжүүл	-11.521
▁төрхтэй	-11.5213
▁Ga	-11.5214
▁зурагтаар	-11.5218
луулаад	-11.5219
аяа	-11.5224
▁унана	-11.5225
эрхэг	-11.5226
▁Ашигт	-11.5226
▁гадныхан	-11.5227
▁дуусахад	-11.5227
▁балар	-11.5229
ГЧ	-11.5231
▁буурахгүй	-11.5233
▁зөвшөөрдөггүй	-11.5235
ЛАА	-11.5235
еф	-11.5242
▁байран	-11.5242
▁Хийж	-11.5245
OM	-11.5246
▁ТҮ	-11.5249
▁файлын	-11.5253
▁байгууламжийн	-11.5253
▁mo	-11.5254
▁суурилуул	-11.5254
▁туршаад	-11.5254
▁оноосон	-11.5254
▁илч	-11.5255
▁зайлах	-11.5255
▁Ажиллах	-11.5258
бби	-11.5259
▁Тэмцээний	-11.5264
пу	-11.5265
▁топ	-11.5266
▁Өргөн	-11.5267
2020	-11.5269
▁мөнгөнөөс	-11.5271
▁болоорой	-11.5272
Сур	-11.5275
▁Хайрт	-11.5275
▁даавуун	-11.5279
▁тохируулга	-11.5282
▁ХААН	-11.5283
▁Тэс	-11.5283
▁төржээ	-11.5285
▁нүдтэй	-11.5286
эвтэр	-11.529
Нэр	-11.5293
▁дагна	-11.5293
▁ЕБС	-11.5293
\	-11.5293
unread	-11.5293
▁ЭЕШ	-11.5293
▁хэмжүүр	-11.5293
▁Гамшг	-11.5293
▁бөгөөс	-11.5293
▁фунт	-11.5293
▁хүргүүлж	-11.5293
▁гэрээгээ	-11.5293
▁дүүрсэн	-11.5293
▁шаардлагууд	-11.5293
▁Товч	-11.5293
▁хэрхэх	-11.5293
▁салбарынхан	-11.5295
▁үрчлээ	-11.5296
▁нөхрийнхөө	-11.5296
▁үлдээд	-11.5296
▁Хэвлэх	-11.5297
▁1989	-11.5297
▁хурдаар	-11.5297
▁сольсон	-11.5298
▁хоносон	-11.5299
▁Галзуу	-11.5299
▁зодоон	-11.5299
▁сүрэг	-11.5299
▁баривчилсан	-11.53
▁бяр	-11.5301
▁шалгадаг	-11.5302
▁Парисын	-11.5303
▁хугал	-11.5304
▁боломжоор	-11.5305
▁угтаж	-11.5305
▁шийдээд	-11.5305
▁сураагүй	-11.5306
▁дайраад	-11.5307
▁Мэдэхгүй	-11.5307
▁засагтай	-11.5307
▁Нор	-11.5308
▁гей	-11.5308
▁бололцоотой	-11.5308
▁талархлаа	-11.5309
▁буулт	-11.531
▁Туяа	-11.5312
ting	-11.5313
▁Орчуул	-11.5314
▁сэдэл	-11.5314
▁амжиж	-11.5315
▁хариуцдаг	-11.5316
▁Хавар	-11.5319
▁Сансар	-11.532
▁эээ	-11.532
▁цув	-11.5321
▁хонох	-11.5321
Ганц	-11.5322
▁байз	-11.5322
▁Гом	-11.5324
▁илүүтэйгээр	-11.5325
▁агш	-11.5328
▁гэснээс	-11.5328
▁өсгий	-11.5329
▁гүйцэтгэлийн	-11.533
▁мэндээ	-11.533
▁багтааж	-11.5332
▁хотуудын	-11.5332
▁суулт	-11.5332
/1	-11.5333
<	-11.5333
▁зууралд	-11.5334
▁next	-11.5335
▁Ja	-11.5335
▁ярья	-11.5335
▁дуудаад	-11.5338
▁сэлгээ	-11.534
▁мангар	-11.5341
▁Hi	-11.5342
▁нээгд	-11.5346
▁алдагдалтай	-11.5348
▁62	-11.5349
▁тайлбарлав	-11.5349
▁блогоо	-11.535
▁гайхдаг	-11.5351
▁өргөл	-11.5351
▁өвлө	-11.5355
▁дэхь	-11.5358
▁Рон	-11.5358
чихдог	-11.5359
үлэг	-11.536
.000	-11.5362
▁засуул	-11.5366
▁Хулгайч	-11.5367
▁шүүгчийн	-11.537
▁багана	-11.5373
▁суралцагч	-11.5373
▁нууцлал	-11.5374
▁айм	-11.5374
▁алгаа	-11.5376
▁Хайлт	-11.5378
лэсний	-11.5379
OL	-11.5383
93	-11.5384
Үндэсний	-11.5384
Баян	-11.5384
▁ядраа	-11.5385
▁мэдээгээр	-11.5387
▁барив	-11.5388
▁ухаарах	-11.5389
▁бокс	-11.5389
тугай	-11.539
▁Залуучуудын	-11.5392
▁тоглуул	-11.5392
▁Ертөнц	-11.5394
ико	-11.5399
▁тохиролцоо	-11.5401
▁тэсэх	-11.5402
▁европын	-11.5403
Нийслэлийн	-11.5403
▁ярихаас	-11.5404
ргэлж	-11.5406
▁тох	-11.541
▁өнгөрүүлж	-11.5413
▁цайр	-11.5415
▁сурвалжууд	-11.5417
▁дөх	-11.5418
1)	-11.5419
▁хэрэгжүүлэхээр	-11.5419
▁1980	-11.542
▁корпораци	-11.5422
EL	-11.5423
▁дү	-11.5427
▁Жэ	-11.5427
7)	-11.5429
▁таардаг	-11.5429
▁App	-11.5433
▁Хэвлэлийн	-11.5434
é	-11.5434
í	-11.5434
▁article	-11.5434
▁Цэнхэр	-11.5434
▁олдвор	-11.5434
▁онцоллоо	-11.5434
▁туранхай	-11.5434
▁Өрсөлдө	-11.5434
▁Дизайн	-11.5434
▁Төлөвлөгөө	-11.5434
▁зугат	-11.5434
▁үүснэ	-11.5435
▁буриад	-11.5435
▁нямбай	-11.5435
▁тасархай	-11.5435
▁алхмууд	-11.5435
▁дутмаг	-11.5435
▁мандат	-11.5436
▁хамгаалагдсан	-11.5436
▁ална	-11.5436
▁коронавирусийн	-11.5436
▁Интер	-11.5437
▁ёр	-11.5437
▁хайч	-11.5438
▁дагалдагч	-11.5438
▁хөрөг	-11.5439
▁шаардана	-11.544
▁админ	-11.544
ско	-11.5442
▁удирдсан	-11.5442
▁инээмсэглэн	-11.5444
▁дүүргэх	-11.5444
▁тоглогчдын	-11.5445
▁босгосон	-11.5445
▁хөгийн	-11.5445
▁2022	-11.5446
▁жорлон	-11.5448
▁оллоо	-11.5451
▁Ислам	-11.5452
▁бүрчлэн	-11.5454
▁тэмцэгч	-11.5454
▁бүжиглэж	-11.5457
▁ялагдал	-11.5459
▁үрэх	-11.546
▁үзүүлэлттэй	-11.5461
▁буурна	-11.5463
▁базаа	-11.5463
▁ажилтантай	-11.5463
▁мэлхий	-11.5465
▁санаачилж	-11.5465
▁архаг	-11.5466
▁багасгаж	-11.5467
▁COVID	-11.5468
AS	-11.5474
▁Hu	-11.5479
▁амины	-11.5479
▁үүрч	-11.5479
▁сураад	-11.5481
▁чамайгаа	-11.5481
▁наадмаар	-11.5482
▁аялагч	-11.5486
▁цомгийн	-11.5487
▁илэрчээ	-11.5488
▁хүссэнээрээ	-11.5488
▁халдвартай	-11.5489
▁холбогдлы	-11.5489
2014	-11.549
▁Хэм	-11.5492
▁ярилцдаг	-11.5493
▁Min	-11.5494
▁al	-11.5498
▁байрлалд	-11.5502
▁өгөөжтэй	-11.5508
▁Гэх	-11.551
▁шүүгчид	-11.5512
▁манайхаас	-11.5516
ght	-11.5516
nu	-11.5518
▁санаандгүй	-11.5519
зүй	-11.5521
▁стандартад	-11.5522
▁өсчээ	-11.5527
Өглөө	-11.5527
▁Сор	-11.5527
Учир	-11.5527
▁сонсогдо	-11.5531
Үүнийг	-11.5533
PA	-11.5534
▁ухаангүй	-11.5542
▁эмгэн	-11.5545
▁метрийн	-11.5551
▁гараагаа	-11.5553
▁номер	-11.5554
▁Te	-11.5558
Амар	-11.5558
▁Чуулган	-11.5561
▁дангаар	-11.5564
▁Засвар	-11.5571
сти	-11.5571
▁comment	-11.5573
▁заваа	-11.5573
▁байхаасаа	-11.5576
▁цамхаг	-11.5577
ә	-11.5577
▁даалгавраа	-11.5577
▁өрөөсгөл	-11.5577
▁ярилцлагыг	-11.5577
www	-11.5577
▁долгион	-11.5577
▁эвдрэл	-11.5577
▁эвслийн	-11.5577
▁хэмээлээ	-11.5577
▁үргэлжилдэг	-11.5577
▁Амазон	-11.5577
пор	-11.5577
▁булаам	-11.5577
▁инээмсэглэж	-11.5577
▁ЗДТГ	-11.5578
▁дутагдаж	-11.5578
▁тээвэрлэлт	-11.5578
▁олдоно	-11.5578
▁Дүрэм	-11.5578
▁гутрал	-11.5579
▁1984	-11.5579
▁Берлин	-11.5579
▁шаардагдана	-11.5579
▁сэтгүүлчдэд	-11.558
▁сэргэлэн	-11.5581
▁Дүр	-11.5581
▁хэвлэгдсэн	-11.5583
▁дагавр	-11.5583
▁хэрэглэвэл	-11.5585
▁шийдэв	-11.5586
▁Фу	-11.5586
▁илэрхийлнэ	-11.5586
▁араасаа	-11.5586
▁бацаан	-11.5586
НХ	-11.5587
▁нэмэгдэл	-11.5588
▁үзүүлээд	-11.559
▁террорист	-11.5591
▁ЕХ	-11.5592
▁Хэрэглэгчид	-11.5593
▁ЕС	-11.5594
▁үрэгдсэн	-11.5595
▁музейн	-11.5597
▁нийлүүлж	-11.5598
▁тулалдаан	-11.5598
▁хөлдөө	-11.5599
▁хүмүүстэйгээ	-11.5599
хэв	-11.5601
▁мөнгөнд	-11.5605
▁Тэргүүн	-11.5606
▁засагч	-11.5607
▁сонгохдоо	-11.5607
▁бүтээлтэй	-11.5612
▁барилаа	-11.5612
▁арьсан	-11.5613
▁Угтаа	-11.5615
▁зарцуулалт	-11.5616
▁что	-11.5617
▁эрхтний	-11.5617
▁ойлгуулж	-11.562
▁ойртуул	-11.5621
▁зөөгч	-11.5622
▁насос	-11.5623
▁дансаа	-11.5624
▁маргах	-11.5625
▁Дэлхийг	-11.5627
бас	-11.5627
▁хуваарилах	-11.563
▁ярилцлагадаа	-11.5632
усын	-11.5634
▁Бүхэл	-11.564
▁хайгуулын	-11.5642
исс	-11.5642
▁Аюул	-11.5643
▁зардлаар	-11.5645
▁дуучид	-11.5645
▁төвлөрүүл	-11.5646
▁Сүр	-11.5646
▁хайраар	-11.5646
▁мэдлэгийг	-11.5647
▁хүлээхгүй	-11.5647
▁оруулчих	-11.5653
GB	-11.5656
ja	-11.5657
▁Хаха	-11.5657
-12-	-11.5658
bb	-11.5659
▁тогтоолоор	-11.566
▁зовоод	-11.5661
▁бүт	-11.5663
гдсөн	-11.5663
▁төвөг	-11.5666
▁Хурц	-11.5667
▁тохиргоог	-11.5667
ish	-11.5667
▁манлайлагч	-11.5669
▁мөрдөгдө	-11.5669
▁шатаах	-11.5669
иймаа	-11.5671
Чамайг	-11.5672
Нийгмийн	-11.5672
Багш	-11.5672
▁Зуу	-11.5672
▁ажиллуул	-11.5673
▁Бөх	-11.5676
Ням	-11.5676
ИК	-11.568
▁яанаа	-11.5682
▁чуулганд	-11.5685
ron	-11.5685
▁явцгаа	-11.5686
зэн	-11.5692
▁зөгийн	-11.5694
▁зочло	-11.5698
▁бууны	-11.57
▁шийдвэрээр	-11.5701
өлгөө	-11.5701
▁хорон	-11.5702
▁шоуны	-11.5707
▁Pi	-11.5708
▁бууз	-11.571
▁bo	-11.5711
эээээээ	-11.5718
▁ТЭЗҮ	-11.5722
▁Харанхуй	-11.5722
▁сүрьеэ	-11.5722
▁ханцуй	-11.5722
▁хөтөлдөг	-11.5722
▁бөөгнөр	-11.5722
▁тактик	-11.5722
▁хүргье	-11.5722
▁тууз	-11.5722
▁хөрвө	-11.5722
▁БАЙНА	-11.5722
▁нийлбэр	-11.5722
▁гсн	-11.5723
▁гитар	-11.5723
▁найруулга	-11.5724
▁хавьтал	-11.5724
▁бодогдох	-11.5724
▁шийдлүүд	-11.5724
▁саваа	-11.5725
▁Барак	-11.5725
▁зөвлөлдөх	-11.5725
▁очвол	-11.5726
▁Компьютерийн	-11.5727
[...]
