<unk>	0
<s>	0
</s>	0
▁б	-0
▁х	-1
ий	-2
аа	-3
ай	-4
ээ	-5
▁т	-6
ан	-7
ар	-8
ол	-9
▁н	-10
уу	-11
▁бай	-12
ал	-13
▁г	-14
ийн	-15
үү	-16
эн	-17
аг	-18
эг	-19
▁д	-20
эр	-21
он	-22
үй	-23
▁с	-24
эл	-25
▁а	-26
▁з	-27
▁бол	-28
ил	-29
ын	-30
өө	-31
ах	-32
▁м	-33
ор	-34
ин	-35
эд	-36
эх	-37
гүй	-38
▁нь	-39
гаа	-40
ийг	-41
▁ч	-42
оо	-43
▁хү	-44
уул	-45
ад	-46
сан	-47
▁ш	-48
▁ү	-49
на	-50
▁у	-51
ам	-52
өр	-53
өн	-54
ээр	-55
▁я	-56
▁Т	-57
▁ю	-58
ог	-59
эж	-60
ох	-61
▁Х	-62
▁би	-63
ой	-64
ур	-65
ыг	-66
..	-67
аар	-68
▁байна	-69
өг	-70
эй	-71
сэн	-72
ир	-73
эм	-74
▁Б	-75
тай	-76
▁юм	-77
тэй	-78
жил	-79
▁бү	-80
ууд	-81
их	-82
өл	-83
гийн	-84
▁Э	-85
од	-86
▁ор	-87
ний	-88
▁ц	-89
ас	-90
иг	-91
▁л	-92
▁М	-93
▁байгаа	-94
үүл	-95
нд	-96
даг	-97
өөр	-98
га	-99
▁гэж	-100
нэ	-101
▁хэр	-102
ны	-103
ом	-104
▁А	-105
▁ху	-106
эв	-107
энэ	-108
▁ту	-109
ав	-110
тг	-111
▁ав	-112
лаг	-113
▁ө	-114
даа	-115
▁хар	-116
ээд	-117
аж	-118
▁"	-119
▁гар	-120
▁байх	-121
▁-	-122
үйл	-123
ид	-124
▁нэг	-125
онг	-126
аас	-127
▁мэд	-128
той	-129
▁1	-130
▁ам	-131
ээс	-132
▁Г	-133
▁хэрэг	-134
▁2	-135
▁өөр	-136
▁эр	-137
сон	-138
...	-139
үүд	-140
өх	-141
аад	-142
өв	-143
▁хо	-144
ат	-145
эс	-146
▁бу	-147
▁ол	-148
▁хам	-149
▁хий	-150
▁энэ	-151
▁хэл	-152
▁ажил	-153
▁Н	-154
жээ	-155
ээл	-156
▁байсан	-157
ер	-158
▁ир	-159
алт	-160
▁С	-161
ьд	-162
▁хүн	-163
▁Энэ	-164
лс	-165
▁ал	-166
хан	-167
▁яв	-168
▁У	-169
им	-170
▁сай	-171
▁он	-172
дээ	-173
▁Д	-174
▁уу	-175
лаа	-176
▁ар	-177
дэг	-178
но	-179
ая	-180
▁О	-181
▁в	-182
▁их	-183
▁З	-184
▁хув	-185
▁сан	-186
ов	-187
үүх	-188
▁үз	-189
▁болох	-190
үүн	-191
▁И	-192
анд	-193
онгол	-194
▁хүр	-195
эсэн	-196
▁дар	-197
▁ж	-198
дал	-199
▁бод	-200
дөр	-201
▁к	-202
▁Ө	-203
чл	-204
үүс	-205
ул	-206
ийм	-207
▁эх	-208
▁дээр	-209
▁өг	-210
өнг	-211
▁бар	-212
энд	-213
гээ	-214
гээр	-215
▁үйл	-216
▁тал	-217
аш	-218
▁бүр	-219
▁улс	-220
▁тэр	-221
▁жил	-222
гаар	-223
▁болно	-224
▁гэд	-225
уур	-226
▁ас	-227
гуул	-228
оор	-229
▁үе	-230
мар	-231
аз	-232
хий	-233
▁Ү	-234
▁төр	-235
▁цаг	-236
▁20	-237
▁чад	-238
▁вэ	-239
▁байдаг	-240
лах	-241
чих	-242
▁дээ	-243
▁зүйл	-244
▁бид	-245
лээ	-246
хай	-247
үр	-248
этг	-249
▁ил	-250
лг	-251
▁тог	-252
сөн	-253
цаа	-254
▁юу	-255
▁ан	-256
мн	-257
ож	-258
▁та	-259
▁тан	-260
инь	-261
мүүс	-262
▁гэсэн	-263
лэг	-264
чил	-265
▁зөв	-266
▁сур	-267
▁Би	-268
▁хэм	-269
▁ур	-270
уулах	-271
үүр	-272
▁яр	-273
дл	-274
▁бүх	-275
ут	-276
арын	-277
гал	-278
▁олон	-279
шиг	-280
аан	-281
▁...	-282
▁шүү	-283
▁газ	-284
ёр	-285
▁Монгол	-286
▁хүмүүс	-287
үн	-288
жл	-289
▁ё	-290
▁ямар	-291
чин	-292
агд	-293
▁баг	-294
охи	-295
омж	-296
өөд	-297
▁ёс	-298
▁төл	-299
▁үн	-300
иний	-301
▁биш	-302
▁шин	-303
ос	-304
оод	-305
иж	-306
▁зар	-307
▁тус	-308
▁эм	-309
дв	-310
▁гэр	-311
▁Тэр	-312
ахгүй	-313
лэл	-314
▁амьд	-315
гийг	-316
▁маш	-317
▁Я	-318
ис	-319
▁хол	-320
▁хоёр	-321
лийн	-322
нг	-323
▁хүүх	-324
эгд	-325
от	-326
онд	-327
▁ой	-328
лд	-329
00	-330
▁өмн	-331
▁хүс	-332
▁боломж	-333
өд	-334
лага	-335
▁Е	-336
▁эрх	-337
олд	-338
уй	-339
▁Хар	-340
▁гэдэг	-341
вэл	-342
▁өр	-343
эт	-344
чид	-345
айр	-346
▁асууд	-347
▁байгуул	-348
▁хамгийн	-349
анай	-350
▁өн	-351
▁нар	-352
▁дараа	-353
▁Ш	-354
▁хэрэгтэй	-355
▁болон	-356
▁үр	-357
эц	-358
▁эс	-359
оос	-360
▁(	-361
▁дах	-362
▁сайн	-363
гд	-364
▁болг	-365
эхдээ	-366
хэн	-367
тээ	-368
айл	-369
рал	-370
үүлэх	-371
▁зор	-372
аал	-373
▁3	-374
▁хэд	-375
▁шиг	-376
лэх	-377
▁сон	-378
▁болсон	-379
▁тухай	-380
▁ний	-381
▁тав	-382
ик	-383
иш	-384
▁холб	-385
▁нэр	-386
▁Ц	-387
▁од	-388
▁хийх	-389
▁ашиг	-390
дог	-391
▁бус	-392
▁даа	-393
▁анх	-394
▁Тэг	-395
двэр	-396
▁ёстой	-397
▁сэтг	-398
бар	-399
вал	-400
▁болов	-401
▁Ч	-402
▁удаа	-403
чд	-404
лог	-405
гэл	-406
иу	-407
▁тэд	-408
▁Ж	-409
▁өмнө	-410
▁хур	-411
уулж	-412
ен	-413
▁ший	-414
▁талаар	-415
гацаа	-416
▁байж	-417
чир	-418
лөг	-419
▁201	-420
▁чинь	-421
▁дэл	-422
▁нам	-423
▁Та	-424
▁ду	-425
ээн	-426
▁үү	-427
▁хор	-428
▁хугацаа	-429
гэж	-430
доо	-431
лаж	-432
амж	-433
өнгө	-434
▁авах	-435
▁о	-436
▁үед	-437
▁р	-438
▁болж	-439
▁дуу	-440
▁зур	-441
▁Бид	-442
▁дур	-443
эгтэй	-444
▁К	-445
▁мэдээл	-446
▁зас	-447
үүнийг	-448
аяр	-449
эхээр	-450
эз	-451
ит	-452
▁хуул	-453
вар	-454
▁ун	-455
▁нас	-456
▁и	-457
▁су	-458
олц	-459
анг	-460
▁тү	-461
▁өдөр	-462
▁одоо	-463
ус	-464
▁газар	-465
үүний	-466
▁Харин	-467
▁бие	-468
▁том	-469
▁илүү	-470
▁байр	-471
▁сонг	-472
▁хэмжээ	-473
ана	-474
▁хамт	-475
▁хя	-476
ийнх	-477
▁бич	-478
▁шаар	-479
▁бөг	-480
ээж	-481
▁зал	-482
өс	-483
▁оны	-484
▁п	-485
лоо	-486
гэд	-487
илц	-488
▁.	-489
▁эд	-490
анц	-491
эхгүй	-492
▁бас	-493
▁нөх	-494
▁тод	-495
▁үг	-496
айг	-497
эмж	-498
▁хийж	-499
сн	-500
▁буй	-501
лал	-502
▁аж	-503
▁гээд	-504
▁тэм	-505
▁ин	-506
элт	-507
▁Хэр	-508
▁шаард	-509
▁жилийн	-510
▁хэн	-511
▁хувьд	-512
▁ийм	-513
▁ер	-514
▁хөг	-515
тын	-516
▁сарын	-517
иул	-518
өнхий	-519
ес	-520
▁гэх	-521
▁Ер	-522
др	-523
▁тогт	-524
▁бөгөөд	-525
ьж	-526
аны	-527
▁5	-528
▁авч	-529
▁шинэ	-530
▁ком	-531
өөс	-532
▁4	-533
гэн	-534
огд	-535
▁ойлг	-536
▁ай	-537
▁бэл	-538
өм	-539
хал	-540
▁Гэхдээ	-541
ив	-542
▁сал	-543
▁Тийм	-544
▁нийт	-545
▁зохи	-546
өлөө	-547
оон	-548
▁зах	-549
асан	-550
хийн	-551
▁онд	-552
▁хүнд	-553
▁хон	-554
даж	-555
лын	-556
хөн	-557
▁нэгэн	-558
▁минь	-559
▁биз	-560
адаг	-561
айн	-562
▁байхгүй	-563
▁бил	-564
ун	-565
▁хүлээ	-566
▁сэтгэл	-567
▁өв	-568
▁алб	-569
тэл	-570
аагүй	-571
▁төс	-572
▁суу	-573
▁хаа	-574
пан	-575
▁бий	-576
▁дот	-577
рын	-578
▁тоо	-579
лагаа	-580
▁сар	-581
▁амьдрал	-582
нийг	-583
ич	-584
орх	-585
▁дав	-586
нууд	-587
тад	-588
▁хүний	-589
▁най	-590
▁гад	-591
үгээр	-592
чийн	-593
шин	-594
▁Тэд	-595
гаж	-596
▁зам	-597
агаад	-598
▁хэв	-599
▁ажл	-600
тгэл	-601
ван	-602
лыг	-603
▁асуудал	-604
▁хайр	-605
▁аа	-606
сд	-607
▁гиш	-608
▁миний	-609
▁санал	-610
▁шал	-611
уулсан	-612
▁сайхан	-613
▁улсын	-614
▁бэ	-615
гах	-616
хаа	-617
▁хувь	-618
▁хэс	-619
арт	-620
▁хүүхд	-621
▁хой	-622
тр	-623
▁нэм	-624
▁өнг	-625
үүлж	-626
охир	-627
▁тохи	-628
өөдөр	-629
▁Одоо	-630
▁манай	-631
орхой	-632
▁Улс	-633
▁над	-634
▁ажиллагаа	-635
хүү	-636
▁АН	-637
▁хал	-638
▁арга	-639
▁худал	-640
▁байдл	-641
▁тат	-642
▁билээ	-643
▁уул	-644
▁хоног	-645
▁Ор	-646
▁боломжтой	-647
▁баяр	-648
▁даг	-649
чүүд	-650
▁төлөө	-651
алтын	-652
▁мөн	-653
▁байлаа	-654
▁Эр	-655
▁ул	-656
▁19	-657
дсан	-658
▁Ар	-659
▁нут	-660
оол	-661
▁компан	-662
өж	-663
▁тодорхой	-664
▁тур	-665
▁Мөн	-666
▁эхэл	-667
гаан	-668
▁оролц	-669
▁тогл	-670
ист	-671
оё	-672
иа	-673
▁Өөр	-674
жилт	-675
▁эн	-676
▁ханд	-677
▁тэг	-678
▁10	-679
▁ут	-680
▁тулд	-681
▁иргэд	-682
▁бат	-683
чууд	-684
▁бүтээ	-685
өлт	-686
▁бүт	-687
▁санаа	-688
▁гэдгийг	-689
▁Л	-690
дах	-691
уун	-692
▁байдал	-693
чр	-694
▁П	-695
ирх	-696
▁өнгөр	-697
▁хоол	-698
▁орон	-699
▁хүртэл	-700
▁хэдэн	-701
йм	-702
илг	-703
▁хэрхэн	-704
лан	-705
▁төг	-706
уг	-707
▁эсвэл	-708
▁Ам	-709
▁өөрчл	-710
▁ид	-711
▁аг	-712
▁уд	-713
▁тийм	-714
▁ба	-715
▁заа	-716
дан	-717
▁гэв	-718
▁гур	-719
▁таны	-720
▁ах	-721
▁маан	-722
in	-723
тан	-724
▁чу	-725
урхан	-726
▁хө	-727
▁учр	-728
▁ажилл	-729
▁маань	-730
вр	-731
▁хүч	-732
▁залуу	-733
▁дол	-734
▁үнд	-735
▁хөр	-736
▁ээ	-737
чилгээ	-738
▁ганц	-739
▁турш	-740
▁дахь	-741
on	-742
▁дахин	-743
агч	-744
ек	-745
▁үйлдвэр	-746
▁холбоо	-747
▁эмэгтэй	-748
араа	-749
▁хич	-750
▁болохгүй	-751
лийг	-752
▁Ерөнхий	-753
▁дэмж	-754
арч	-755
▁Бү	-756
өлд	-757
er	-758
нх	-759
▁ял	-760
олтой	-761
▁ард	-762
▁ирсэн	-763
иал	-764
гэр	-765
▁анхаар	-766
▁өдр	-767
ем	-768
▁мөр	-769
▁тохиолд	-770
!!	-771
▁6	-772
олт	-773
агт	-774
хн	-775
▁зэр	-776
▁өөрийн	-777
▁гарч	-778
▁сургуул	-779
өдөл	-780
агад	-781
ээрээ	-782
▁Миний	-783
▁S	-784
лон	-785
▁үргэл	-786
ак	-787
ср	-788
гөө	-789
▁хамгаа	-790
гой	-791
▁чан	-792
▁чухал	-793
▁7	-794
▁ох	-795
▁чи	-796
уд	-797
▁чадахгүй	-798
хи	-799
▁үнэ	-800
лагатай	-801
▁хэмээн	-802
▁Хү	-803
▁Инг	-804
▁Үүн	-805
ээгүй	-806
▁шил	-807
▁бүгд	-808
▁дунд	-809
▁үнэн	-810
эзээ	-811
▁хойш	-812
▁ая	-813
▁шийдвэр	-814
бөр	-815
аат	-816
▁бүс	-817
эхэд	-818
▁сонс	-819
элц	-820
▁гай	-821
▁гол	-822
▁хүүхэд	-823
▁түр	-824
▁тэн	-825
▁Ийм	-826
▁Манай	-827
▁амь	-828
тал	-829
▁Тиймээс	-830
▁ад	-831
▁өгөх	-832
▁хийсэн	-833
▁хот	-834
▁өндөр	-835
мын	-836
▁муу	-837
▁учир	-838
АН	-839
▁сонирх	-840
ИХ	-841
▁/	-842
▁авсан	-843
▁руу	-844
▁сая	-845
▁машин	-846
▁хариу	-847
▁үүс	-848
▁бага	-849
▁аль	-850
алтай	-851
▁ном	-852
▁Зас	-853
иад	-854
агүй	-855
ийгөө	-856
▁зээл	-857
аарай	-858
▁ф	-859
▁эз	-860
▁түүний	-861
▁Нэг	-862
из	-863
эхүү	-864
▁чам	-865
▁хэсэг	-866
▁8	-867
осон	-868
▁зарим	-869
гаад	-870
▁мэт	-871
ааш	-872
ино	-873
20	-874
аараа	-875
▁төрийн	-876
▁байв	-877
▁дүр	-878
чим	-879
дын	-880
▁бусад	-881
лж	-882
▁уулз	-883
▁мэдээлэл	-884
огт	-885
▁M	-886
▁албан	-887
уудыг	-888
▁гэнэ	-889
гасан	-890
▁Бурхан	-891
▁ажиллаж	-892
үүлсэн	-893
▁төлөв	-894
▁өөрөө	-895
▁хан	-896
▁хөгж	-897
▁бодож	-898
▁УИХ	-899
▁зөвхөн	-900
▁Хэрэв	-901
▁Өн	-902
an	-903
▁хэзээ	-904
▁хууль	-905
▁бур	-906
тер	-907
ье	-908
▁ус	-909
▁учраас	-910
▁эхл	-911
хон	-912
▁мөнгө	-913
▁те	-914
дөг	-915
эгч	-916
▁сүүл	-917
▁унш	-918
▁дүн	-919
▁Хя	-920
▁хугацаанд	-921
▁оч	-922
▁дуус	-923
▁надад	-924
уудын	-925
▁төв	-926
▁200	-927
▁яаж	-928
▁түүх	-929
▁тар	-930
▁ханг	-931
▁сэр	-932
эвч	-933
▁гүй	-934
▁зориул	-935
▁АНУ	-936
наас	-937
▁онц	-938
▁шийд	-939
▁A	-940
▁тэмц	-941
нээс	-942
▁Дэл	-943
▁айм	-944
▁монгол	-945
алд	-946
▁болохоор	-947
этэл	-948
▁тайл	-949
▁Ал	-950
▁В	-951
юу	-952
▁дэв	-953
▁эл	-954
▁орж	-955
▁тохир	-956
тл	-957
▁эц	-958
угаар	-959
▁Монголын	-960
▁чиг	-961
▁зог	-962
▁хөдөл	-963
▁яах	-964
ахад	-965
▁үүр	-966
▁яагаад	-967
▁анг	-968
охгүй	-969
▁зөвш	-970
ац	-971
ооны	-972
гаас	-973
▁харагд	-974
▁яг	-975
▁үүнийг	-976
▁байхад	-977
▁ух	-978
▁удир	-979
▁ажлын	-980
оп	-981
▁хийг	-982
▁намайг	-983
▁зүй	-984
▁Ф	-985
▁шалт	-986
дөө	-987
лөгч	-988
мийн	-989
▁охин	-990
▁мэр	-991
▁хэлб	-992
▁хэлж	-993
▁нөлөө	-994
үг	-995
▁зогс	-996
▁явж	-997
▁олг	-998
▁оруул	-999
▁энд	-1000
лэж	-1001
гоор	-1002
▁C	-1003
▁өрг	-1004
▁түүнийг	-1005
оц	-1006
▁ажиллах	-1007
▁магад	-1008
рах	-1009
▁тул	-1010
эвэр	-1011
▁адил	-1012
юул	-1013
▁нөхц	-1014
▁зөвшөөр	-1015
▁9	-1016
эдэг	-1017
▁Эд	-1018
▁өөрсд	-1019
▁үгүй	-1020
▁дарга	-1021
▁хэрэгж	-1022
"-	-1023
▁P	-1024
▁өм	-1025
ar	-1026
▁шалг	-1027
▁газрын	-1028
▁зураг	-1029
нес	-1030
▁Хам	-1031
лөө	-1032
лаан	-1033
▁өс	-1034
▁Хятад	-1035
▁зэрэг	-1036
▁Гэтэл	-1037
▁барим	-1038
эрхий	-1039
▁уур	-1040
▁амжилт	-1041
▁бидний	-1042
оронд	-1043
даггүй	-1044
▁Засгийн	-1045
▁үндэс	-1046
▁ээж	-1047
▁олж	-1048
▁найз	-1049
▁итг	-1050
▁хая	-1051
▁мэдэх	-1052
ьсан	-1053
одог	-1054
үүнд	-1055
▁Р	-1056
ув	-1057
▁холбогд	-1058
▁сайд	-1059
▁холбоотой	-1060
▁сонгуул	-1061
▁боловср	-1062
▁хэлэлц	-1063
ет	-1064
элд	-1065
or	-1066
▁мөнг	-1067
▁Ир	-1068
олгой	-1069
▁мэнд	-1070
▁байгааг	-1071
▁үйлчилгээ	-1072
▁өнөөдөр	-1073
▁пр	-1074
үүдийн	-1075
▁суур	-1076
▁тэмдэг	-1077
үд	-1078
маар	-1079
▁ирэх	-1080
▁Тэгээд	-1081
илт	-1082
▁хөл	-1083
▁байгууллаг	-1084
▁_	-1085
▁явах	-1086
оно	-1087
▁дотор	-1088
▁зорилг	-1089
▁газр	-1090
▁үнэхээр	-1091
ган	-1092
▁уг	-1093
жиг	-1094
ей	-1095
▁судал	-1096
▁дуртай	-1097
▁буруу	-1098
▁ирээд	-1099
чдын	-1100
▁Мэд	-1101
▁бүрэн	-1102
гай	-1103
▁аюул	-1104
▁танилц	-1105
сний	-1106
▁гишүүн	-1107
дсэн	-1108
▁харь	-1109
▁дэлхийн	-1110
гдэх	-1111
аалт	-1112
▁таа	-1113
▁асуу	-1114
▁хүү	-1115
▁хэлсэн	-1116
▁заг	-1117
▁нийг	-1118
анк	-1119
▁гурван	-1120
▁эдийн	-1121
▁харж	-1122
▁Таны	-1123
үүдийг	-1124
▁өгсөн	-1125
▁үлд	-1126
▁хууд	-1127
яа	-1128
▁болдог	-1129
▁түм	-1130
▁болоод	-1131
▁байвал	-1132
төн	-1133
сийн	-1134
▁зөвл	-1135
ок	-1136
▁зов	-1137
аргал	-1138
▁шат	-1139
ээсээ	-1140
▁санагд	-1141
▁хүрг	-1142
▁мин	-1143
▁хүлээн	-1144
▁танд	-1145
▁Улсын	-1146
эгт	-1147
ел	-1148
таа	-1149
▁дугаар	-1150
▁гарсан	-1151
▁T	-1152
өрийн	-1153
▁буюу	-1154
ээнд	-1155
▁Хүүх	-1156
▁өөрийгөө	-1157
дугаар	-1158
▁салбар	-1159
en	-1160
алын	-1161
▁N	-1162
лөгөө	-1163
лэлийн	-1164
▁шаардлагатай	-1165
▁үл	-1166
▁мэдэгд	-1167
арга	-1168
ерик	-1169
▁хад	-1170
▁I	-1171
▁нэмэгд	-1172
хам	-1173
оны	-1174
▁мя	-1175
аатар	-1176
▁асуул	-1177
▁асуудлыг	-1178
рам	-1179
члэн	-1180
аасаа	-1181
▁үеийн	-1182
пор	-1183
▁гүйц	-1184
▁Хүн	-1185
▁зохион	-1186
▁алд	-1187
▁мэргэж	-1188
нө	-1189
тэн	-1190
▁гэм	-1191
▁Дараа	-1192
шил	-1193
▁Гэвч	-1194
▁гаруй	-1195
▁төрлийн	-1196
▁байн	-1197
▁засгийн	-1198
артай	-1199
ины	-1200
▁харин	-1201
▁бодлог	-1202
▁B	-1203
▁тооц	-1204
▁Шин	-1205
инд	-1206
▁зөр	-1207
гоо	-1208
дэнэ	-1209
гээд	-1210
саар	-1211
вээ	-1212
өгөө	-1213
ээрэй	-1214
▁долоо	-1215
үүдэд	-1216
▁ашигл	-1217
Би	-1218
хайн	-1219
▁хав	-1220
▁хөт	-1221
▁зүйлийг	-1222
▁хай	-1223
▁Түүний	-1224
▁хооронд	-1225
▁Ямар	-1226
ийнхөө	-1227
▁ойр	-1228
▁гарах	-1229
ум	-1230
▁улсад	-1231
▁бүсгүй	-1232
арим	-1233
рийн	-1234
▁чөлөө	-1235
▁100	-1236
st	-1237
ойр	-1238
▁дор	-1239
▁ярилц	-1240
▁бүтээл	-1241
▁шууд	-1242
▁зүгээр	-1243
ли	-1244
▁бизнес	-1245
▁ингэж	-1246
▁минут	-1247
▁мэдэхгүй	-1248
▁боллоо	-1249
ст	-1250
▁ач	-1251
▁нуу	-1252
▁үх	-1253
▁Өмн	-1254
▁боловч	-1255
▁эрүүл	-1256
▁настай	-1257
▁Гэр	-1258
ент	-1259
лэн	-1260
▁тогтоо	-1261
▁байгаад	-1262
▁бүтээгдэх	-1263
▁Үү	-1264
▁Эн	-1265
▁гэвэл	-1266
▁Орос	-1267
агс	-1268
le	-1269
▁болгох	-1270
▁байдлаар	-1271
бээр	-1272
▁төгс	-1273
элтэй	-1274
▁нүүр	-1275
▁авт	-1276
▁хэц	-1277
."	-1278
▁арг	-1279
▁хөрөнгө	-1280
өөн	-1281
▁бүхэн	-1282
рэг	-1283
сгал	-1284
▁Чи	-1285
▁батал	-1286
▁мар	-1287
▁баримт	-1288
уулдаг	-1289
▁явдал	-1290
▁гаргах	-1291
▁аав	-1292
▁илэрхий	-1293
▁Их	-1294
▁ерөнхий	-1295
▁мэдээ	-1296
хээ	-1297
▁Өнөөдөр	-1298
лох	-1299
▁0	-1300
▁болжээ	-1301
▁Үүнийг	-1302
бал	-1303
▁Олон	-1304
▁сол	-1305
▁хат	-1306
үүнээс	-1307
▁тай	-1308
▁наад	-1309
▁авна	-1310
▁ярьж	-1311
▁12	-1312
өгд	-1313
▁амар	-1314
оогүй	-1315
▁11	-1316
▁дүүр	-1317
▁үзүүл	-1318
▁чадвар	-1319
агн	-1320
▁доо	-1321
??	-1322
▁тас	-1323
▁оронд	-1324
▁болгон	-1325
▁иргэн	-1326
▁дагуу	-1327
инг	-1328
▁хэт	-1329
▁дөр	-1330
▁өгч	-1331
▁орох	-1332
▁хүнийг	-1333
▁15	-1334
▁H	-1335
▁гаргаж	-1336
амс	-1337
▁Үн	-1338
юут	-1339
▁сард	-1340
оёр	-1341
▁мэдр	-1342
▁хэцүү	-1343
▁Цаг	-1344
▁хичээл	-1345
▁шалтгаан	-1346
▁гэхэд	-1347
▁хүчин	-1348
төө	-1349
өлбөр	-1350
▁ирж	-1351
▁G	-1352
▁там	-1353
▁цэвэр	-1354
▁итгэл	-1355
▁өнгөрсөн	-1356
йл	-1357
эхийг	-1358
▁анхны	-1359
▁нөхцөл	-1360
▁хариуц	-1361
илцаа	-1362
▁өөрчлөлт	-1363
▁Зөв	-1364
▁хийдэг	-1365
▁Тэгвэл	-1366
▁дэлхий	-1367
▁хян	-1368
уулан	-1369
▁Ю	-1370
▁хариул	-1371
at	-1372
арсан	-1373
▁техн	-1374
▁чадах	-1375
▁Зарим	-1376
олог	-1377
▁бүл	-1378
ъя	-1379
▁D	-1380
истем	-1381
гий	-1382
▁компани	-1383
▁Уг	-1384
al	-1385
▁буур	-1386
гч	-1387
вроп	-1388
▁Ав	-1389
▁дээд	-1390
▁өрөө	-1391
ран	-1392
▁Нам	-1393
орж	-1394
▁тайлбар	-1395
▁дамж	-1396
рөг	-1397
▁таар	-1398
▁эв	-1399
▁F	-1400
шгүй	-1401
▁боддог	-1402
▁тоглоо	-1403
▁тухайн	-1404
длаа	-1405
▁байжээ	-1406
▁бая	-1407
▁улам	-1408
баатар	-1409
чиг	-1410
▁Хамгийн	-1411
▁хадгал	-1412
нз	-1413
▁му	-1414
ээх	-1415
▁жин	-1416
▁тэдний	-1417
▁хэрэггүй	-1418
▁хүлээж	-1419
▁алга	-1420
▁хэрэглэг	-1421
▁цааш	-1422
-1	-1423
ижиг	-1424
▁ярих	-1425
▁Бүх	-1426
▁эсрэг	-1427
сны	-1428
▁засаг	-1429
сү	-1430
oo	-1431
▁судалгаа	-1432
▁э	-1433
▁мэддэг	-1434
▁ашиглах	-1435
▁хуулийн	-1436
алттай	-1437
чдийн	-1438
▁сү	-1439
▁үзэж	-1440
ийнхээ	-1441
▁цах	-1442
гын	-1443
▁багш	-1444
▁Эх	-1445
▁хүмүүсийн	-1446
▁Америк	-1447
ласан	-1448
нэл	-1449
▁Эдгээр	-1450
▁гадаад	-1451
▁харилцаа	-1452
▁МАН	-1453
даад	-1454
ишээ	-1455
гүүр	-1456
▁жагс	-1457
▁дан	-1458
▁ярь	-1459
re	-1460
үүлэг	-1461
агдсан	-1462
▁Ту	-1463
▁гүйцэтг	-1464
▁дараах	-1465
▁нутгийн	-1466
▁байгаагүй	-1467
▁ст	-1468
вэр	-1469
▁хамаар	-1470
▁тохиолдолд	-1471
▁систем	-1472
▁магадгүй	-1473
▁аз	-1474
▁толгой	-1475
▁сург	-1476
▁шүүх	-1477
▁туш	-1478
▁бүрийн	-1479
▁бутл	-1480
▁огт	-1481
олоо	-1482
дийн	-1483
▁Эм	-1484
▁бүү	-1485
▁Тэрээр	-1486
иар	-1487
▁захир	-1488
▁хэлэх	-1489
▁бутлуур	-1490
өмж	-1491
▁цагийн	-1492
▁өдрийн	-1493
жин	-1494
▁30	-1495
▁айл	-1496
маа	-1497
арх	-1498
▁гаргасан	-1499
▁[	-1500
▁сүүлийн	-1501
▁санхүү	-1502
▁орчин	-1503
об	-1504
Эр	-1505
▁зүйлс	-1506
▁цэр	-1507
лэдэг	-1508
▁Хэрвээ	-1509
▁хэрэгс	-1510
энх	-1511
▁зав	-1512
▁бараг	-1513
▁Сан	-1514
▁болчих	-1515
▁эдгээр	-1516
▁Үнд	-1517
▁дээрх	-1518
▁нэв	-1519
▁үс	-1520
төнц	-1521
лэсэн	-1522
▁хүүхдүүд	-1523
▁үнэл	-1524
▁барил	-1525
▁хамгаалах	-1526
▁Ний	-1527
нээ	-1528
▁үзэх	-1529
▁төгрөг	-1530
ууны	-1531
▁хаан	-1532
▁хоногийн	-1533
▁харах	-1534
уулна	-1535
▁орсон	-1536
▁Дэлхийн	-1537
уулга	-1538
өхөөр	-1539
элээ	-1540
▁цагт	-1541
▁Европ	-1542
▁гэрээ	-1543
▁чанар	-1544
▁хөтөлбөр	-1545
▁нэгд	-1546
ac	-1547
▁бор	-1548
▁урьд	-1549
▁18	-1550
ou	-1551
уудад	-1552
▁заавал	-1553
▁Яагаад	-1554
иуд	-1555
▁гоё	-1556
▁боломжгүй	-1557
000	-1558
▁тань	-1559
▁харьц	-1560
чээ	-1561
▁бос	-1562
▁цэц	-1563
▁бүхий	-1564
алз	-1565
▁тун	-1566
▁төрөл	-1567
▁нарын	-1568
▁гадна	-1569
▁хэмжээний	-1570
өмб	-1571
▁Монголд	-1572
▁тойр	-1573
▁Учир	-1574
it	-1575
лагдсан	-1576
▁ухаан	-1577
тгий	-1578
алдаа	-1579
▁дээрээ	-1580
▁мянг	-1581
vv	-1582
олцоо	-1583
▁кино	-1584
▁Бай	-1585
▁чадна	-1586
▁худалдаа	-1587
▁W	-1588
▁Яп	-1589
▁Тус	-1590
тийн	-1591
чилж	-1592
▁гарг	-1593
▁алдаа	-1594
▁төлбөр	-1595
▁Энэхүү	-1596
▁намын	-1597
▁эмнэл	-1598
мд	-1599
▁түв	-1600
▁энэхүү	-1601
▁рүү	-1602
аахан	-1603
▁мэдэж	-1604
▁R	-1605
ман	-1606
▁E	-1607
чилсан	-1608
....	-1609
▁явсан	-1610
▁орны	-1611
▁хийн	-1612
▁L	-1613
▁хуудас	-1614
▁дууд	-1615
чихсан	-1616
▁аваад	-1617
▁нөхөр	-1618
лалаа	-1619
▁эхний	-1620
▁эхэлсэн	-1621
онгос	-1622
▁болохыг	-1623
тэйгээ	-1624
▁Хэн	-1625
▁банк	-1626
▁бэлэн	-1627
өнө	-1628
олын	-1629
▁зан	-1630
▁жаргал	-1631
▁ертөнц	-1632
▁насны	-1633
▁мал	-1634
▁хаана	-1635
▁байхдаа	-1636
▁Шинэ	-1637
▁бидэнд	-1638
▁Тэгэхээр	-1639
гуй	-1640
▁буц	-1641
▁Хоёр	-1642
▁тэрг	-1643
мэл	-1644
▁сэд	-1645
▁утас	-1646
▁хэлбэр	-1647
▁бичиг	-1648
▁шаардлаг	-1649
▁хурдан	-1650
▁онг	-1651
▁хүссэн	-1652
вор	-1653
баяр	-1654
▁Ерөнхийлөгч	-1655
ic	-1656
▁нүд	-1657
халтай	-1658
▁найр	-1659
▁удирд	-1660
▁дут	-1661
▁бүртг	-1662
▁цуг	-1663
▁орнууд	-1664
▁үргэлж	-1665
▁янз	-1666
▁оноос	-1667
алц	-1668
өрсөн	-1669
▁гэхдээ	-1670
▁мянган	-1671
▁тээ	-1672
▁сайт	-1673
ахыг	-1674
өөл	-1675
хийг	-1676
▁хүмүүст	-1677
om	-1678
▁асуудл	-1679
▁дай	-1680
▁Ингээд	-1681
▁хувийн	-1682
▁зү	-1683
бай	-1684
▁Бар	-1685
▁тулг	-1686
үүлэн	-1687
▁хувц	-1688
▁Бус	-1689
▁жижиг	-1690
Бат	-1691
сай	-1692
▁амьдарч	-1693
▁кин	-1694
ныг	-1695
гүйгээр	-1696
▁Үүний	-1697
▁март	-1698
▁үеэр	-1699
▁явц	-1700
▁ажлыг	-1701
▁хориг	-1702
ограм	-1703
▁ажилд	-1704
мж	-1705
лээд	-1706
▁болгож	-1707
▁хаг	-1708
ио	-1709
▁нис	-1710
өөц	-1711
▁угаа	-1712
▁орлог	-1713
▁Сол	-1714
▁бууд	-1715
үүлнэ	-1716
▁дүг	-1717
▁хөөр	-1718
лагын	-1719
алин	-1720
▁амьдралын	-1721
огц	-1722
▁нууц	-1723
▁шилж	-1724
хэг	-1725
руулах	-1726
▁аюулгүй	-1727
▁тоглолт	-1728
▁Хэд	-1729
▁Төрийн	-1730
▁бичсэн	-1731
▁хайртай	-1732
▁орч	-1733
сныг	-1734
▁Ур	-1735
▁хөдөлгөө	-1736
▁шинж	-1737
▁•	-1738
▁олох	-1739
▁үйлд	-1740
▁өмнөх	-1741
▁амьдар	-1742
нэр	-1743
▁Баг	-1744
▁бэр	-1745
саа	-1746
▁сонгол	-1747
аб	-1748
▁Тэрбээр	-1749
▁хотын	-1750
члэг	-1751
▁хүсч	-1752
▁14	-1753
Энх	-1754
▁зай	-1755
ээлт	-1756
▁зорилго	-1757
▁сайж	-1758
▁ихэнх	-1759
▁асуулт	-1760
▁хөн	-1761
▁унт	-1762
▁Бр	-1763
дол	-1764
▁Энд	-1765
үрх	-1766
▁түүнд	-1767
▁тоглоом	-1768
▁байдлыг	-1769
▁тов	-1770
▁хэлбэл	-1771
вөн	-1772
▁Ард	-1773
▁Мэдээж	-1774
▁Яг	-1775
▁ирээдүй	-1776
хгүй	-1777
▁байхыг	-1778
▁шаардлага	-1779
▁Бас	-1780
ью	-1781
өмбөг	-1782
▁ахуй	-1783
▁ажлаа	-1784
▁Над	-1785
es	-1786
эндээ	-1787
омжтой	-1788
▁тусл	-1789
▁мэдээллийг	-1790
▁Бидний	-1791
▁тэгээд	-1792
▁нэвтр	-1793
▁загвар	-1794
▁цар	-1795
▁зохиц	-1796
▁аймгийн	-1797
▁оруулах	-1798
▁агаар	-1799
▁үргэлжл	-1800
▁хэмжээнд	-1801
▁Нүүр	-1802
хар	-1803
▁урт	-1804
▁зориулсан	-1805
уулалт	-1806
Та	-1807
ших	-1808
▁соё	-1809
▁гэлээ	-1810
▁төрсөн	-1811
▁ажилладаг	-1812
▁нөгөө	-1813
▁бололтой	-1814
хэнэ	-1815
▁чиглэл	-1816
▁барих	-1817
ааны	-1818
згаар	-1819
▁бодох	-1820
лайн	-1821
уулаад	-1822
өхөөрөмж	-1823
▁өөртөө	-1824
▁өглөө	-1825
▁эмэгтэйчүүд	-1826
▁сонголт	-1827
▁Анг	-1828
▁эхнэр	-1829
mn	-1830
▁Сур	-1831
▁чамайг	-1832
▁хүүхдийн	-1833
▁ме	-1834
▁удаан	-1835
▁гурав	-1836
екс	-1837
▁Гад	-1838
▁За	-1839
үжиг	-1840
▁тэнд	-1841
▁Улаан	-1842
лалт	-1843
агдаж	-1844
гааны	-1845
ев	-1846
ян	-1847
дэггүй	-1848
▁арай	-1849
▁цагдаа	-1850
▁бүрд	-1851
гээс	-1852
▁явдаг	-1853
▁нийтийн	-1854
лагд	-1855
▁дээш	-1856
▁орчим	-1857
сээр	-1858
лар	-1859
нээр	-1860
▁мэднэ	-1861
▁гишүүд	-1862
▁Бол	-1863
▁үйлчл	-1864
▁төхөөрөмж	-1865
▁Өнг	-1866
▁эзэм	-1867
амд	-1868
▁битгий	-1869
санд	-1870
▁үндсэн	-1871
▁орд	-1872
▁гэдгээ	-1873
▁дал	-1874
▁төлөвл	-1875
▁хязгаар	-1876
жлийн	-1877
▁үзсэн	-1878
▁бүлийн	-1879
▁зарц	-1880
Энэ	-1881
уяа	-1882
▁буу	-1883
▁таныг	-1884
уучин	-1885
▁өөрийнхөө	-1886
▁бүтээгдэхүүн	-1887
хны	-1888
▁Бурханы	-1889
сг	-1890
ант	-1891
варын	-1892
▁мат	-1893
▁түмэн	-1894
▁Сүүл	-1895
▁орой	-1896
ашин	-1897
▁оюут	-1898
▁дүгн	-1899
▁жур	-1900
▁програм	-1901
▁технолог	-1902
▁199	-1903
▁түвшин	-1904
▁шилдэг	-1905
▁төлөвлөгөө	-1906
▁хийнэ	-1907
порт	-1908
▁гуй	-1909
▁өнөө	-1910
▁гэдэгт	-1911
▁Солонгос	-1912
гааш	-1913
▁уран	-1914
▁барьж	-1915
▁хэрэглэх	-1916
▁суурь	-1917
▁бөх	-1918
▁дэх	-1919
▁эргэл	-1920
▁t	-1921
▁сав	-1922
өөсөө	-1923
цээ	-1924
аах	-1925
▁хэдий	-1926
▁хувцас	-1927
икийн	-1928
▁гайх	-1929
▁эрт	-1930
лаад	-1931
▁тон	-1932
▁бодит	-1933
▁удаагийн	-1934
есс	-1935
▁хил	-1936
▁байгал	-1937
▁хөгжил	-1938
▁нэл	-1939
лагч	-1940
▁Бат	-1941
▁байл	-1942
ударга	-1943
▁Үүнээс	-1944
▁амр	-1945
▁эцэг	-1946
▁мод	-1947
am	-1948
▁очиж	-1949
▁нутаг	-1950
▁эхлэх	-1951
▁хоногт	-1952
▁Аз	-1953
энтэй	-1954
▁сууж	-1955
▁ня	-1956
▁тут	-1957
гаараа	-1958
▁нийгэм	-1959
▁чиний	-1960
▁хүрт	-1961
лжээ	-1962
▁өгнө	-1963
▁амьдрах	-1964
энгүй	-1965
этгэл	-1966
▁ээл	-1967
▁багт	-1968
ип	-1969
▁,	-1970
▁v	-1971
▁БН	-1972
эгүй	-1973
▁гэмт	-1974
▁p	-1975
кс	-1976
▁гом	-1977
агдах	-1978
▁хуур	-1979
▁авдаг	-1980
▁халдв	-1981
▁J	-1982
охой	-1983
▁байгууллага	-1984
▁тос	-1985
▁суралц	-1986
▁ашиглаж	-1987
▁хийгээд	-1988
врийн	-1989
▁ялгаа	-1990
сөлд	-1991
▁бариг	-1992
▁бодлого	-1993
▁13	-1994
▁туслах	-1995
олб	-1996
▁зүйн	-1997
мээр	-1998
▁өвч	-1999
▁ухаа	-2000
▁16	-2001
үнд	-2002
▁улир	-2003
тайгаа	-2004
▁хэрэглээ	-2005
ХА	-2006
эгдсэн	-2007
▁гэртээ	-2008
▁17	-2009
▁байдаггүй	-2010
201	-2011
▁эмч	-2012
▁сонирхолтой	-2013
▁·	-2014
▁хамр	-2015
▁бичлэг	-2016
▁яд	-2017
▁ижил	-2018
▁бүлэг	-2019
лөгчийн	-2020
ра	-2021
▁арил	-2022
гүү	-2023
иде	-2024
ноо	-2025
▁50	-2026
▁байнга	-2027
▁минутын	-2028
▁өөрчлөгд	-2029
▁шир	-2030
▁сургууль	-2031
ья	-2032
▁шү	-2033
▁жилд	-2034
▁сэтгүүл	-2035
▁худалдаж	-2036
ХУ	-2037
ro	-2038
элж	-2039
лэгч	-2040
**	-2041
длыг	-2042
нүүд	-2043
▁цалин	-2044
▁үүрэг	-2045
ед	-2046
барын	-2047
▁тусламж	-2048
▁баталгаа	-2049
эст	-2050
иваа	-2051
андаа	-2052
▁аргагүй	-2053
▁худалдан	-2054
▁захиал	-2055
агийн	-2056
жилгээ	-2057
▁Хүмүүс	-2058
▁ажээ	-2059
▁мах	-2060
▁нөөц	-2061
▁өгдөг	-2062
ериал	-2063
▁Тэдний	-2064
өдөө	-2065
▁Y	-2066
▁дөрвөн	-2067
эгдэл	-2068
▁чаддаг	-2069
оохон	-2070
▁оруулж	-2071
вол	-2072
!!!	-2073
.1	-2074
is	-2075
эрч	-2076
өсөн	-2077
▁хулг	-2078
▁яваа	-2079
▁гайхалтай	-2080
дэж	-2081
лам	-2082
▁дас	-2083
▁шагн	-2084
▁таван	-2085
▁хүрээнд	-2086
▁ойлгож	-2087
сыг	-2088
▁1-	-2089
▁сул	-2090
▁энгийн	-2091
▁иргэдийн	-2092
аасан	-2093
▁харилц	-2094
лбар	-2095
▁Дээр	-2096
ндаа	-2097
un	-2098
үүлдэг	-2099
▁тохиолдол	-2100
▁Хуул	-2101
▁25	-2102
тор	-2103
▁нутагт	-2104
▁зайл	-2105
▁хохир	-2106
▁гэхээр	-2107
▁дотоод	-2108
▁өгөө	-2109
he	-2110
▁цэг	-2111
лөх	-2112
▁Эц	-2113
▁c	-2114
▁өрсөлд	-2115
луулах	-2116
▁тавьж	-2117
▁зо	-2118
▁хүсэл	-2119
▁Түүн	-2120
▁гэжээ	-2121
▁хараад	-2122
▁суул	-2123
▁өнгө	-2124
▁эхлээд	-2125
▁бичих	-2126
дэх	-2127
▁юмаа	-2128
▁онгоц	-2129
▁тэрээр	-2130
маас	-2131
▁тавих	-2132
▁хувил	-2133
▁тушаал	-2134
гар	-2135
▁бэрх	-2136
▁тээр	-2137
▁Мар	-2138
▁яам	-2139
▁нийгмийн	-2140
▁тэрб	-2141
▁салбарт	-2142
хоо	-2143
▁хүмүүсийг	-2144
▁s	-2145
▁чадсан	-2146
акц	-2147
▁үедээ	-2148
оф	-2149
▁2020	-2150
еж	-2151
▁чамд	-2152
▁Түүнийг	-2153
юун	-2154
▁өргөн	-2155
▁дүү	-2156
▁мор	-2157
▁үүд	-2158
▁жишээ	-2159
▁сонин	-2160
▁төсөл	-2161
унд	-2162
▁хамаагүй	-2163
эсний	-2164
▁Өөрөөр	-2165
▁Монголчууд	-2166
▁ха	-2167
▁хаш	-2168
▁шинжилгээ	-2169
▁мэдээллийн	-2170
▁Анх	-2171
▁эргэн	-2172
▁Эс	-2173
эрлэг	-2174
Эрдэнэ	-2175
▁олд	-2176
▁е	-2177
▁бя	-2178
▁биел	-2179
ладаг	-2180
▁мөнгөн	-2181
эе	-2182
▁гал	-2183
уулагч	-2184
▁Тухайн	-2185
▁бээл	-2186
0-	-2187
сэг	-2188
▁явна	-2189
▁Хүний	-2190
▁O	-2191
огч	-2192
▁Зөвхөн	-2193
ирус	-2194
ay	-2195
гыг	-2196
▁хотод	-2197
ИЙ	-2198
et	-2199
▁m	-2200
▁Тан	-2201
▁өөрсдөө	-2202
гэх	-2203
▁нийтлэл	-2204
▁Өв	-2205
сын	-2206
▁зу	-2207
▁бүхнийг	-2208
ина	-2209
▁сууц	-2210
▁цахим	-2211
▁жинхэнэ	-2212
▁материал	-2213
АР	-2214
ing	-2215
▁Ажил	-2216
▁ажиллагааны	-2217
▁зүг	-2218
▁утга	-2219
▁үздэг	-2220
▁Өнгөрсөн	-2221
▁зүрх	-2222
Монгол	-2223
▁үнэгүй	-2224
▁2-	-2225
▁цагаан	-2226
▁Намайг	-2227
▁онлайн	-2228
▁хялбар	-2229
▁Хятадын	-2230
▁үзүүлэх	-2231
гүүд	-2232
▁шах	-2233
пп	-2234
▁дэвш	-2235
ol	-2236
▁чул	-2237
▁хамтран	-2238
▁24	-2239
▁бусд	-2240
ноос	-2241
▁Европын	-2242
ааж	-2243
хим	-2244
▁идэв	-2245
ad	-2246
унт	-2247
▁Ан	-2248
үрэн	-2249
▁Сайн	-2250
▁тэднийг	-2251
▁төд	-2252
эсгэл	-2253
▁байдалд	-2254
▁2016	-2255
гэрэнгүй	-2256
el	-2257
▁Сай	-2258
▁ман	-2259
▁жүжиг	-2260
▁эрэгтэй	-2261
▁Хув	-2262
▁бал	-2263
?"	-2264
дагч	-2265
▁нээ	-2266
▁хийлг	-2267
▁эрчим	-2268
▁хатуу	-2269
төр	-2270
▁газарт	-2271
▁Гер	-2272
▁сургалт	-2273
il	-2274
▁хурд	-2275
▁сургуулийн	-2276
▁сууд	-2277
аач	-2278
шээл	-2279
угай	-2280
ангуяа	-2281
▁татаж	-2282
▁тах	-2283
▁зогсоо	-2284
лх	-2285
▁оролцох	-2286
▁мэндийн	-2287
as	-2288
▁Энэт	-2289
▁бичиж	-2290
▁эрд	-2291
аалга	-2292
▁насан	-2293
▁дараагийн	-2294
▁хаж	-2295
маг	-2296
▁бээлий	-2297
▁хоолой	-2298
▁байгууллагын	-2299
▁яриа	-2300
▁үзэл	-2301
▁сонгох	-2302
▁шинэчл	-2303
▁тавь	-2304
▁хүргэж	-2305
▁бүртгэл	-2306
▁хүчний	-2307
▁алх	-2308
▁болт	-2309
▁очих	-2310
▁Бусад	-2311
▁хувилбар	-2312
▁үргэлжил	-2313
идео	-2314
▁Амьд	-2315
жлэх	-2316
▁бодол	-2317
болд	-2318
▁орх	-2319
▁чим	-2320
▁хангалттай	-2321
▁болз	-2322
▁эрсд	-2323
▁нарийн	-2324
▁байгуулах	-2325
ed	-2326
▁хүрч	-2327
▁ариу	-2328
▁хэлэхэд	-2329
).	-2330
▁Эл	-2331
▁нү	-2332
▁Үйл	-2333
▁хөдл	-2334
▁Фр	-2335
▁компанийн	-2336
агчид	-2337
▁Сонг	-2338
▁хүрэх	-2339
сийг	-2340
▁хүчтэй	-2341
▁бүгдийг	-2342
уулахад	-2343
ги	-2344
▁нийл	-2345
члал	-2346
▁мая	-2347
▁Ас	-2348
▁2012	-2349
▁хүнтэй	-2350
наа	-2351
▁адилхан	-2352
оонд	-2353
▁ярьдаг	-2354
▁хугацааны	-2355
эснээр	-2356
▁төдий	-2357
▁тусгаар	-2358
▁U	-2359
ag	-2360
лээр	-2361
▁лээ	-2362
длийг	-2363
▁улмаас	-2364
тгалз	-2365
▁хүрсэн	-2366
АХ	-2367
лиг	-2368
вийн	-2369
▁нэлээд	-2370
ээний	-2371
▁яри	-2372
▁түүн	-2373
▁яваад	-2374
огийн	-2375
өөдрийн	-2376
▁санхүүгийн	-2377
▁буцаа	-2378
аана	-2379
▁жир	-2380
▁мэдлэг	-2381
гад	-2382
▁татгалз	-2383
▁хэрэгжүүлэх	-2384
ow	-2385
▁тавьсан	-2386
▁шударга	-2387
▁V	-2388
▁Хур	-2389
▁боль	-2390
мыг	-2391
▁өрт	-2392
▁тэрбум	-2393
▁байдлын	-2394
▁мэргэжлийн	-2395
бэр	-2396
▁хүсэлт	-2397
▁зөвлөгөө	-2398
удал	-2399
▁өмс	-2400
▁хөгжлийн	-2401
▁тэнц	-2402
▁арван	-2403
▁ойлголт	-2404
▁урам	-2405
▁бэрхшээл	-2406
ахын	-2407
▁Надад	-2408
▁яриад	-2409
амсалтай	-2410
▁тэнэг	-2411
▁хос	-2412
▁үгийг	-2413
▁байшин	-2414
▁тусгай	-2415
▁биднийг	-2416
▁Гур	-2417
▁тусал	-2418
▁тоглох	-2419
▁21	-2420
▁Юу	-2421
▁ажилласан	-2422
▁Ээж	-2423
▁гараад	-2424
▁байгаагаа	-2425
рай	-2426
▁бэлэг	-2427
наж	-2428
▁нээлт	-2429
иц	-2430
▁уурхайн	-2431
длын	-2432
▁2017	-2433
▁тэтг	-2434
▁Гэсэн	-2435
▁талбай	-2436
▁(1	-2437
даас	-2438
▁чадаагүй	-2439
▁лав	-2440
▁хүй	-2441
ьютер	-2442
▁хөдөлм	-2443
▁илэрхийл	-2444
▁баярлалаа	-2445
▁бна	-2446
▁оршин	-2447
▁ОХУ	-2448
▁анги	-2449
▁боломжийг	-2450
▁өгүүл	-2451
▁мэдээж	-2452
▁дасгал	-2453
▁гу	-2454
▁Зур	-2455
▁дэлгүүр	-2456
айз	-2457
▁дургүй	-2458
▁салбарын	-2459
▁амжилттай	-2460
▁Хайр	-2461
үрэл	-2462
▁цэн	-2463
▁сүлжээ	-2464
пьютер	-2465
▁харсан	-2466
▁нарт	-2467
▁дэмжих	-2468
▁үндэсний	-2469
▁чин	-2470
▁илр	-2471
▁сах	-2472
ух	-2473
▁тээрэм	-2474
▁тэдгээр	-2475
▁амьдардаг	-2476
өмөр	-2477
▁талд	-2478
▁хуваал	-2479
орон	-2480
▁Зал	-2481
унтаг	-2482
▁суух	-2483
▁унших	-2484
▁зохиол	-2485
▁ойлгох	-2486
ош	-2487
итан	-2488
орын	-2489
өхгүй	-2490
▁блог	-2491
▁амьдралд	-2492
нээн	-2493
ot	-2494
▁ээлж	-2495
▁давуу	-2496
▁жаахан	-2497
▁сэргээ	-2498
өгч	-2499
▁доор	-2500
▁Сүүлийн	-2501
MN	-2502
ааг	-2503
▁2018	-2504
▁зарна	-2505
орно	-2506
▁алт	-2507
▁ёсны	-2508
лагийн	-2509
▁бодсон	-2510
▁үнэтэй	-2511
▁замын	-2512
▁томил	-2513
▁Эмэгтэй	-2514
▁хэргийн	-2515
▁үзэсгэл	-2516
▁харагдаж	-2517
▁онцлог	-2518
▁хэлдэг	-2519
▁монголчууд	-2520
гт	-2521
ирч	-2522
▁Өр	-2523
▁Өдөр	-2524
▁бэлтг	-2525
▁Үндсэн	-2526
▁ирнэ	-2527
▁оролд	-2528
▁гүн	-2529
чихсэн	-2530
▁станд	-2531
▁хүл	-2532
▁сурвал	-2533
▁суртал	-2534
▁Өг	-2535
▁нур	-2536
▁дэмжлэг	-2537
▁эрг	-2538
▁бэлтгэл	-2539
▁хайж	-2540
▁автом	-2541
▁үлдсэн	-2542
Бид	-2543
▁бүтэн	-2544
▁гарын	-2545
өөрөө	-2546
▁ажиг	-2547
▁|	-2548
бэл	-2549
үүлэгч	-2550
▁Магад	-2551
▁b	-2552
эргүү	-2553
оог	-2554
▁Төр	-2555
▁бүрт	-2556
▁нэрийг	-2557
▁татвар	-2558
▁амж	-2559
эрхүү	-2560
▁хамгаал	-2561
▁зэв	-2562
▁ахуйн	-2563
▁40	-2564
▁#	-2565
▁удахгүй	-2566
уудаа	-2567
▁Он	-2568
▁зээлийн	-2569
АЛ	-2570
бат	-2571
▁муж	-2572
▁Есү	-2573
▁гардаг	-2574
▁мө	-2575
▁2019	-2576
▁дахиад	-2577
ахаар	-2578
▁нунтаг	-2579
▁кон	-2580
тнууд	-2581
▁амиа	-2582
илгын	-2583
ага	-2584
▁ярьсан	-2585
▁чуул	-2586
▁тэнгэр	-2587
эргүүц	-2588
луул	-2589
▁цэргийн	-2590
▁Түүнчлэн	-2591
шаа	-2592
ЭН	-2593
▁нэгж	-2594
▁үлдээ	-2595
▁явуулах	-2596
лэнэ	-2597
ээээ	-2598
▁дүнд	-2599
▁Ком	-2600
▁дэмжиж	-2601
▁жагсаалт	-2602
▁хэрэгсэл	-2603
жлын	-2604
▁нохой	-2605
▁мэдрэмж	-2606
▁яар	-2607
алтыг	-2608
▁интер	-2609
эрсэн	-2610
▁маргааш	-2611
▁эсэхийг	-2612
▁ажиллагааг	-2613
▁дэг	-2614
▁охид	-2615
▁онцгой	-2616
▁магадлал	-2617
▁?	-2618
ондоо	-2619
▁ов	-2620
▁2015	-2621
▁хүсэж	-2622
▁1.	-2623
▁Хэрэг	-2624
▁яахав	-2625
▁за	-2626
▁сөр	-2627
длийн	-2628
игийн	-2629
▁эсэх	-2630
▁Хүүхд	-2631
▁тоног	-2632
▁Газ	-2633
ion	-2634
снээр	-2635
чигдөр	-2636
тон	-2637
үүлээд	-2638
▁ирдэг	-2639
▁хөдөлгөөн	-2640
▁тэж	-2641
▁хэмжээг	-2642
ew	-2643
▁шар	-2644
▁итгэлтэй	-2645
▁шаардлагагүй	-2646
рист	-2647
снаас	-2648
уб	-2649
заар	-2650
▁сонгуулийн	-2651
▁ороод	-2652
слэлийн	-2653
▁Гадаад	-2654
ur	-2655
▁илгээ	-2656
▁хуваалц	-2657
▁гут	-2658
чүүдийн	-2659
▁Ин	-2660
▁Япон	-2661
▁Нөгөө	-2662
ээч	-2663
▁хас	-2664
▁гэрийн	-2665
▁газраас	-2666
▁тэдэнд	-2667
▁элс	-2668
▁бодис	-2669
▁доллар	-2670
▁халдвар	-2671
▁жаргалтай	-2672
▁оо	-2673
▁огц	-2674
илгаан	-2675
этгээд	-2676
▁алдсан	-2677
▁үйлдэл	-2678
▁уй	-2679
▁байлг	-2680
▁томоохон	-2681
▁ёсоор	-2682
▁давхар	-2683
▁хүсдэг	-2684
▁сургуульд	-2685
▁нарыг	-2686
-2	-2687
чдад	-2688
▁сурах	-2689
▁амьтан	-2690
▁ашигтай	-2691
▁Аав	-2692
▁тарх	-2693
▁хүчир	-2694
▁пар	-2695
▁байнаа	-2696
игд	-2697
▁бөмбөг	-2698
▁түмний	-2699
єє	-2700
▁хяналт	-2701
▁эсэргүүц	-2702
тний	-2703
шигч	-2704
▁сэргий	-2705
▁зөвлөл	-2706
▁эмчилгээ	-2707
▁Бая	-2708
▁шагнал	-2709
▁шалгар	-2710
▁Магадгүй	-2711
▁гарга	-2712
▁этгээд	-2713
▁Түүнээс	-2714
▁алхам	-2715
▁цэцэрлэг	-2716
▁зүтг	-2717
иас	-2718
▁Ерөнхийлөгчийн	-2719
▁вэб	-2720
▁ног	-2721
▁аялал	-2722
▁идэвх	-2723
▁Америкийн	-2724
▁үзүүлэлт	-2725
шээ	-2726
▁бр	-2727
▁дуул	-2728
▁хулгай	-2729
уууу	-2730
оорой	-2731
▁тэгж	-2732
▁нэмэлт	-2733
▁өөрсдийн	-2734
▁22	-2735
слэл	-2736
▁зуу	-2737
▁тэс	-2738
▁Бүгд	-2739
▁Франц	-2740
▁талаас	-2741
▁хэлээд	-2742
▁компаниуд	-2743
▁хятад	-2744
id	-2745
▁Өмнөх	-2746
▁дүгнэлт	-2747
▁хурал	-2748
▁хэсэгт	-2749
▁өөрчлөх	-2750
ТГ	-2751
чдыг	-2752
▁хагас	-2753
▁Өөрийн	-2754
▁Улаанбаатар	-2755
▁ос	-2756
▁2014	-2757
▁шүүм	-2758
▁сэдэв	-2759
▁Аф	-2760
▁өвд	-2761
▁төсөв	-2762
▁хариулт	-2763
▁ХХ	-2764
▁дотр	-2765
▁мөрд	-2766
эвчлэн	-2767
▁Эсвэл	-2768
▁орос	-2769
▁тээврийн	-2770
▁сор	-2771
оосон	-2772
цгаа	-2773
▁бах	-2774
▁тогтвор	-2775
▁хэрэглэж	-2776
▁3-	-2777
▁учиртай	-2778
▁анхаарал	-2779
ьс	-2780
▁ирлээ	-2781
▁Британ	-2782
▁хэрэгцээ	-2783
▁асуудлаар	-2784
▁байгуулсан	-2785
▁X	-2786
▁Ажлын	-2787
▁Амьдрал	-2788
▁дэр	-2789
▁Цааш	-2790
us	-2791
гаасаа	-2792
портын	-2793
▁Энэтхэг	-2794
мал	-2795
▁өдөрт	-2796
▁орлого	-2797
дрийн	-2798
огино	-2799
▁стр	-2800
▁эзэн	-2801
▁амархан	-2802
##	-2803
АА	-2804
чдэд	-2805
▁бараа	-2806
▁Тав	-2807
▁дая	-2808
▁хуваар	-2809
▁явуулж	-2810
▁шав	-2811
▁шөнө	-2812
▁алдаг	-2813
▁тамир	-2814
▁мас	-2815
▁2008	-2816
▁вакц	-2817
▁хөнг	-2818
▁уншиж	-2819
▁дэд	-2820
▁урьдчил	-2821
▁Ганц	-2822
▁Хор	-2823
▁авчир	-2824
▁хэвээр	-2825
▁тохиромжтой	-2826
имп	-2827
▁баяртай	-2828
▁d	-2829
▁сүр	-2830
▁чих	-2831
▁сурвалж	-2832
▁Оросын	-2833
▁Үр	-2834
лагыг	-2835
▁эрхийг	-2836
▁сонгуульд	-2837
гэ	-2838
▁хямд	-2839
▁хандаж	-2840
▁дурс	-2841
ent	-2842
▁Хот	-2843
▁тор	-2844
өндөө	-2845
▁танай	-2846
▁багийн	-2847
▁хэдийн	-2848
хад	-2849
▁цөөн	-2850
▁шинээр	-2851
▁Хөг	-2852
▁жолоо	-2853
▁олгох	-2854
▁хуралдаа	-2855
▁орно	-2856
▁хурим	-2857
▁өвчин	-2858
▁тоглог	-2859
▁холбогдох	-2860
ch	-2861
▁Баяр	-2862
▁товч	-2863
▁хамтдаа	-2864
▁Дэлхий	-2865
▁хэвлэл	-2866
▁ганцаараа	-2867
21	-2868
▁ажилтан	-2869
▁амьсгал	-2870
▁түүнээс	-2871
▁хаяг	-2872
▁бурхан	-2873
зан	-2874
▁байд	-2875
▁түвшинд	-2876
ээдэг	-2877
▁эрдэм	-2878
УУ	-2879
▁талын	-2880
▁бодоод	-2881
▁замаар	-2882
▁сонгууль	-2883
▁жуул	-2884
▁K	-2885
▁Гар	-2886
▁хийхэд	-2887
ихгүй	-2888
▁зориг	-2889
▁хөө	-2890
▁харахад	-2891
eb	-2892
АЙ	-2893
▁нот	-2894
▁Холб	-2895
▁Аль	-2896
▁Хал	-2897
▁ойролцоо	-2898
уц	-2899
▁аш	-2900
▁Нийт	-2901
▁зүйлээ	-2902
▁Ингэснээр	-2903
▁цом	-2904
▁олсон	-2905
▁Хүүхэд	-2906
▁бүхэнд	-2907
▁тэрбээр	-2908
евиз	-2909
элийн	-2910
▁нийц	-2911
▁оролцож	-2912
бор	-2913
▁өө	-2914
▁эхэлж	-2915
уудаас	-2916
үрэлсү	-2917
▁видео	-2918
▁төрөлх	-2919
▁өл	-2920
▁мөрөөд	-2921
▁байранд	-2922
▁зургийг	-2923
▁тэмцээн	-2924
▁шалгалт	-2925
▁үзээрэй	-2926
▁болгосон	-2927
▁Нар	-2928
▁алба	-2929
▁дүрэм	-2930
▁уурхай	-2931
▁эхэллээ	-2932
ъё	-2933
▁Тур	-2934
▁Ихэн	-2935
▁Иргэд	-2936
илга	-2937
▁Бүр	-2938
үүдээ	-2939
▁эргэж	-2940
▁тайван	-2941
кк	-2942
▁тел	-2943
▁Үндэсний	-2944
▁багас	-2945
▁зүйтэй	-2946
▁тоглож	-2947
▁хэрэгт	-2948
ель	-2949
асны	-2950
▁Эрх	-2951
▁Залуу	-2952
▁цагдаагийн	-2953
оу	-2954
ойд	-2955
▁амт	-2956
▁барь	-2957
огдсон	-2958
▁Ингэж	-2959
▁ангил	-2960
▁зүгээс	-2961
▁бул	-2962
▁цай	-2963
▁Өмнөд	-2964
▁Ой	-2965
▁Жишээ	-2966
▁даатг	-2967
▁эхлэн	-2968
▁Ял	-2969
▁давт	-2970
▁худлаа	-2971
▁компьютер	-2972
▁хож	-2973
удамж	-2974
▁аварга	-2975
▁нэртэй	-2976
▁байсныг	-2977
▁оноо	-2978
▁гарна	-2979
▁f	-2980
лол	-2981
▁зардал	-2982
▁цаашид	-2983
▁уулзалт	-2984
▁өсөлт	-2985
▁оруулсан	-2986
ub	-2987
руул	-2988
▁эгч	-2989
амжийн	-2990
▁Энх	-2991
▁асар	-2992
▁эргэлз	-2993
онх	-2994
наар	-2995
▁Дав	-2996
▁Маш	-2997
▁Том	-2998
ба	-2999
би	-3000
пер	-3001
улга	-3002
▁зөвшөөрөл	-3003
лбал	-3004
▁тоол	-3005
гаагүй	-3006
▁2013	-3007
▁Нийг	-3008
▁хоёрын	-3009
▁ашигладаг	-3010
▁Уул	-3011
▁хуучин	-3012
▁*	-3013
▁Сон	-3014
▁соёл	-3015
ангийн	-3016
▁шалтгаа	-3017
енеж	-3018
нгын	-3019
▁ангийн	-3020
▁дий	-3021
▁ялг	-3022
▁хааг	-3023
▁дүнтэй	-3024
Ал	-3025
▁зая	-3026
▁хэлний	-3027
шуул	-3028
▁чаддаггүй	-3029
▁хариуцлага	-3030
▁дүүрэн	-3031
▁хүүхдээ	-3032
оль	-3033
▁им	-3034
▁өрн	-3035
▁чулуу	-3036
▁хөв	-3037
▁Эрүүл	-3038
▁хэвийн	-3039
▁хувьцаа	-3040
гам	-3041
сар	-3042
▁гоо	-3043
▁гэрэл	-3044
▁хөдөлмөр	-3045
▁санагддаг	-3046
▁боо	-3047
▁Орон	-3048
▁эрхтэй	-3049
шөө	-3050
▁Сү	-3051
▁Бод	-3052
▁зуун	-3053
бир	-3054
шиж	-3055
▁2.	-3056
▁хөх	-3057
▁хувийг	-3058
лана	-3059
▁буул	-3060
▁албаны	-3061
▁сув	-3062
▁итгэж	-3063
▁хангах	-3064
рийг	-3065
илийн	-3066
▁уламжл	-3067
▁хэргийг	-3068
▁болоогүй	-3069
▁анзаар	-3070
▁түрээс	-3071
ла	-3072
ҮБ	-3073
чихаад	-3074
▁нөхөд	-3075
▁төгсг	-3076
▁нээлттэй	-3077
лов	-3078
мад	-3079
▁Ихэнх	-3080
▁дөрөв	-3081
▁зориулж	-3082
▁нэгдсэн	-3083
▁чиглэлээр	-3084
анх	-3085
▁Ил	-3086
▁Төв	-3087
▁үзэг	-3088
▁Хүүхдийн	-3089
▁юмуу	-3090
▁Зүгээр	-3091
▁дайр	-3092
▁дэлг	-3093
▁сайдын	-3094
▁шалгах	-3095
▁цахилгаан	-3096
лолт	-3097
▁Хууль	-3098
▁зорилгоор	-3099
чиж	-3100
▁одоогийн	-3101
сайхан	-3102
▁номын	-3103
▁хүргэе	-3104
▁ихэвчлэн	-3105
▁оролцсон	-3106
▁чанартай	-3107
▁урьдчилан	-3108
▁i	-3109
▁Ох	-3110
▁мян	-3111
▁цув	-3112
дүгээр	-3113
▁хөдөө	-3114
▁сонсох	-3115
▁алдартай	-3116
▁Оюут	-3117
▁ганцхан	-3118
▁Зах	-3119
▁дайн	-3120
▁аливаа	-3121
тгах	-3122
▁зуур	-3123
▁үзнэ	-3124
▁даяар	-3125
даагүй	-3126
▁хям	-3127
▁стандарт	-3128
ям	-3129
▁талаарх	-3130
▁порно	-3131
▁төлөх	-3132
▁хичээ	-3133
▁нөхцөлд	-3134
▁шийдвэрлэх	-3135
ЭГ	-3136
ХАУ	-3137
лгэр	-3138
лөл	-3139
тэд	-3140
▁өд	-3141
мол	-3142
▁ХХК	-3143
▁бохир	-3144
▁хүрээл	-3145
▁Ах	-3146
▁эг	-3147
▁Мэр	-3148
тэр	-3149
▁агаарын	-3150
▁үнэлгээ	-3151
▁байлгүй	-3152
▁Одоогоор	-3153
▁чадвартай	-3154
▁дэлгэрэнгүй	-3155
30	-3156
▁эрхэм	-3157
▁сам	-3158
▁тогтвортой	-3159
лоор	-3160
▁хэмээ	-3161
▁Үз	-3162
▁тогтоол	-3163
улаа	-3164
эхэ	-3165
амын	-3166
▁2011	-3167
▁санаж	-3168
▁хэмээх	-3169
▁үнэндээ	-3170
гэдэг	-3171
ерийн	-3172
▁нэмж	-3173
50	-3174
▁Танд	-3175
ийгээр	-3176
▁менеж	-3177
▁засвар	-3178
▁хуулийг	-3179
адаа	-3180
▁хоё	-3181
▁идэх	-3182
▁зөрчил	-3183
im	-3184
АТ	-3185
алтгүй	-3186
▁ердөө	-3187
▁дүгээр	-3188
▁Ун	-3189
▁хог	-3190
▁царай	-3191
▁надаас	-3192
▁зургаан	-3193
▁сайжруулах	-3194
ook	-3195
ноор	-3196
▁Тэнд	-3197
▁уучл	-3198
чуудын	-3199
▁хөгжүүлэх	-3200
фф	-3201
▁Тог	-3202
▁сум	-3203
элсэн	-3204
▁түгээ	-3205
▁ажиллана	-3206
pp	-3207
ри	-3208
▁60	-3209
гээрээ	-3210
▁биеийн	-3211
▁үйлчилгээний	-3212
лав	-3213
▁198	-3214
▁биеэ	-3215
шигтай	-3216
▁зад	-3217
агдаад	-3218
▁заалт	-3219
▁жагсаал	-3220
ex	-3221
ангуй	-3222
▁баруун	-3223
▁дэргэд	-3224
▁ухааны	-3225
▁тогтоох	-3226
▁Бур	-3227
▁БНХАУ	-3228
▁найдв	-3229
▁сураг	-3230
▁эцсийн	-3231
▁хаанаас	-3232
▁Уд	-3233
▁Дар	-3234
▁зох	-3235
▁тараа	-3236
▁Өглөө	-3237
▁ашиглан	-3238
▁No	-3239
▁хөнд	-3240
лагдаж	-3241
снаа	-3242
▁арх	-3243
▁Эз	-3244
▁тий	-3245
▁мэдсэн	-3246
▁байгуулж	-3247
тны	-3248
▁НҮБ	-3249
оосоо	-3250
өнгөж	-3251
▁дарж	-3252
▁тутмын	-3253
▁ерөнхийлөгч	-3254
▁ат	-3255
▁Чам	-3256
огдох	-3257
▁гаргадаг	-3258
олл	-3259
▁зорилт	-3260
▁23	-3261
▁Христ	-3262
▁мөнгийг	-3263
▁Үнэхээр	-3264
жүүлэх	-3265
▁олбор	-3266
▁хүндр	-3267
▁муухай	-3268
▁Дараагийн	-3269
жаа	-3270
▁хүсье	-3271
▁байгаарай	-3272
ко	-3273
▁Тухай	-3274
ec	-3275
▁экс	-3276
▁сумын	-3277
▁даргын	-3278
ате	-3279
▁хүм	-3280
ошгүй	-3281
элдэг	-3282
▁Тэн	-3283
,"	-3284
and	-3285
▁Төс	-3286
▁богино	-3287
▁Ном	-3288
Миний	-3289
▁англи	-3290
▁эцэст	-3291
▁хандах	-3292
▁идэж	-3293
уудтай	-3294
чилгаа	-3295
▁эрчүүд	-3296
▁зүйлд	-3297
▁мөнгөө	-3298
▁хэлэв	-3299
▁Эрдэнэ	-3300
▁телевиз	-3301
ддэг	-3302
▁ураг	-3303
▁яасан	-3304
▁аргаар	-3305
йн	-3306
▁шив	-3307
страл	-3308
▁одоогоор	-3309
ews	-3310
алж	-3311
гөн	-3312
▁үнэм	-3313
▁байхаа	-3314
.2	-3315
▁суд	-3316
▁өгөхгүй	-3317
▁сүй	-3318
алгүй	-3319
▁дугуй	-3320
▁хэллээ	-3321
▁өрөөнд	-3322
ia	-3323
▁Кан	-3324
эхийн	-3325
▁үнэр	-3326
▁дууссан	-3327
▁цус	-3328
кет	-3329
саг	-3330
ийгээ	-3331
▁Өмнө	-3332
ууллаа	-3333
члалын	-3334
▁гараа	-3335
▁бодлоо	-3336
▁улстөр	-3337
▁халуун	-3338
▁оруулалт	-3339
ter	-3340
▁дэм	-3341
▁Нэгэн	-3342
▁гайхам	-3343
ап	-3344
орн	-3345
▁Сар	-3346
ынхаа	-3347
▁боловсруулах	-3348
▁найдаж	-3349
▁болзошгүй	-3350
▁w	-3351
▁Ол	-3352
▁сурч	-3353
агддаг	-3354
▁гудамж	-3355
Ам	-3356
,000	-3357
▁сек	-3358
▁дүнг	-3359
▁хөгжим	-3360
▁анхаарах	-3361
▁хэрэглэдэг	-3362
▁Ё	-3363
обус	-3364
▁хах	-3365
өнгийн	-3366
▁замыг	-3367
▁бусдад	-3368
Чи	-3369
ерэг	-3370
ИЙН	-3371
▁газрыг	-3372
▁үзэсгэлэн	-3373
▁n	-3374
руу	-3375
▁Сая	-3376
▁хэвт	-3377
▁Англи	-3378
▁дагаж	-3379
▁Тухайлбал	-3380
Тэг	-3381
ааз	-3382
▁хамтын	-3383
ЭЭ	-3384
▁ховор	-3385
▁бизнесийн	-3386
ig	-3387
▁хэ	-3388
...]	-3389
▁таларх	-3390
▁чанарын	-3391
▁болгодог	-3392
ОН	-3393
гууд	-3394
▁Хүү	-3395
тайгаар	-3396
▁гомдол	-3397
▁сонссон	-3398
▁худалдааны	-3399
▁Тод	-3400
уухан	-3401
▁орхи	-3402
▁дотроо	-3403
em	-3404
▁өөд	-3405
▁бүхний	-3406
▁хямрал	-3407
▁дууг	-3408
▁инээ	-3409
▁байхаар	-3410
▁саналыг	-3411
▁шинжлэх	-3412
▁хэрэв	-3413
▁шалгаж	-3414
▁өмнөөс	-3415
▁цох	-3416
▁дэлхийд	-3417
▁хийхгүй	-3418
▁оюутнууд	-3419
▁залуус	-3420
▁асуудалд	-3421
▁үд	-3422
▁бут	-3423
▁туу	-3424
ээхэн	-3425
▁зүүн	-3426
ингийн	-3427
▁орчинд	-3428
▁төсвийн	-3429
▁хүүхэдтэй	-3430
▁вакцин	-3431
▁o	-3432
▁Хэл	-3433
▁Эхний	-3434
▁хороо	-3435
▁Цагаан	-3436
▁бүрэлд	-3437
▁сэргийлэх	-3438
▁Дах	-3439
▁давх	-3440
▁агуул	-3441
▁журам	-3442
▁нийтэд	-3443
▁иргэдэд	-3444
дсон	-3445
▁урд	-3446
▁[...]	-3447
▁сөрөг	-3448
▁ингээд	-3449
▁мэргэжилт	-3450
▁хоорондоо	-3451
▁юуг	-3452
▁авар	-3453
▁файл	-3454
дээгүй	-3455
▁болчихсон	-3456
нет	-3457
▁Бие	-3458
▁Мал	-3459
▁цац	-3460
▁Үнэн	-3461
▁үлгэр	-3462
ОЛ	-3463
иан	-3464
▁цагаа	-3465
▁хороол	-3466
▁зүүд	-3467
▁Үүнд	-3468
▁аваарай	-3469
▁хугацааг	-3470
▁бөө	-3471
галаа	-3472
насан	-3473
▁улаан	-3474
жих	-3475
▁гэг	-3476
снаар	-3477
▁хоолны	-3478
▁хоц	-3479
алгаа	-3480
▁Чиний	-3481
▁вирус	-3482
▁Сонгуул	-3483
▁хөөрхөн	-3484
▁26	-3485
▁гр	-3486
члах	-3487
▁гэрт	-3488
▁түрүүнд	-3489
▁Из	-3490
ийнхүү	-3491
▁эзэмш	-3492
▁дандаа	-3493
▁өдрүүдэд	-3494
▁тэгш	-3495
▁технологи	-3496
▁Афр	-3497
эндүү	-3498
▁2009	-3499
бөмбөг	-3500
▁ордог	-3501
▁очоод	-3502
▁аюултай	-3503
▁хүнсний	-3504
▁байгуулагдсан	-3505
▁ажиллагаанд	-3506
▁Наад	-3507
▁агуу	-3508
▁ширх	-3509
▁татах	-3510
▁Байгал	-3511
▁нэгдүгээр	-3512
▁ойлгомжтой	-3513
???	-3514
▁эрс	-3515
▁очсон	-3516
▁түг	-3517
▁Засаг	-3518
▁барив	-3519
▁>	-3520
▁Герман	-3521
▁хүүхдэд	-3522
▁холбооны	-3523
▁хэрэгжүүлж	-3524
▁Дот	-3525
▁зааж	-3526
▁манайд	-3527
▁тухайд	-3528
▁заримдаа	-3529
▁санагдаж	-3530
лэм	-3531
▁шан	-3532
▁иймэрхүү	-3533
▁удирдлаг	-3534
▁усны	-3535
▁суурил	-3536
▁уулзаж	-3537
▁хувиар	-3538
▁эрхийн	-3539
▁өдрийг	-3540
▁үзээгүй	-3541
орм	-3542
▁заасан	-3543
▁эхэлнэ	-3544
▁зүйлийн	-3545
ларын	-3546
▁ойлгодог	-3547
▁'	-3548
▁үүнд	-3549
▁мянга	-3550
▁иргэний	-3551
▁дамжуулан	-3552
▁кам	-3553
▁цугл	-3554
▁Цагдаа	-3555
▁хэтэрхий	-3556
▁Хөр	-3557
Манай	-3558
▁босг	-3559
▁авлаа	-3560
▁хэмжээгээр	-3561
▁дарам	-3562
▁тэмцэх	-3563
▁орондоо	-3564
▁тэргүүн	-3565
то	-3566
ээтэй	-3567
▁Есүс	-3568
▁Дараах	-3569
▁Австрал	-3570
▁амьдралыг	-3571
▁сэтгэгдэл	-3572
▁үйлдвэрийн	-3573
▁Гол	-3574
▁машины	-3575
иф	-3576
▁Пр	-3577
тулга	-3578
▁нээх	-3579
▁тайлан	-3580
▁барилга	-3581
▁байгалийн	-3582
▁нэх	-3583
▁хамаа	-3584
▁дэлгэц	-3585
▁уст	-3586
чдийг	-3587
▁ядаж	-3588
өлтийн	-3589
мийг	-3590
▁Цах	-3591
▁хэнд	-3592
▁зовлон	-3593
10	-3594
ка	-3595
үл	-3596
▁h	-3597
▁є	-3598
▁Нөх	-3599
▁Хан	-3600
▁Сайхан	-3601
▁эргээд	-3602
▁уралдаа	-3603
▁27	-3604
▁Японы	-3605
▁болгоо	-3606
▁зарчим	-3607
▁шийдсэн	-3608
▁гадаадын	-3609
вөл	-3610
▁кл	-3611
лаар	-3612
лүүд	-3613
▁шуур	-3614
▁байцаа	-3615
▁авахгүй	-3616
▁байгаль	-3617
▁үйлдвэрлэл	-3618
one	-3619
лэгийн	-3620
▁бусдын	-3621
▁цагаар	-3622
▁мэргэжил	-3623
▁бутлуурын	-3624
▁архи	-3625
лагдах	-3626
▁парлам	-3627
▁үзүүлж	-3628
ir	-3629
▁асууж	-3630
▁спорт	-3631
▁эерэг	-3632
▁Ардчилсан	-3633
▁сэтгэлийн	-3634
ест	-3635
цаг	-3636
жилж	-3637
цийн	-3638
▁уух	-3639
элийг	-3640
▁сонсож	-3641
▁чуулган	-3642
▁мөнгөний	-3643
▁судалгааны	-3644
▁80	-3645
▁доош	-3646
▁ханш	-3647
▁судлаа	-3648
▁сонгосон	-3649
▁4-	-3650
ооноос	-3651
үүлэлт	-3652
▁үүссэн	-3653
▁Ялангуяа	-3654
▁хоёрдугаар	-3655
▁үйлчилгээг	-3656
ээг	-3657
▁Цэц	-3658
алтад	-3659
▁цогц	-3660
▁ихээр	-3661
▁өссөн	-3662
▁төслийг	-3663
▁боловсрол	-3664
▁Сэтг	-3665
▁төрд	-3666
гаарай	-3667
▁ёсгүй	-3668
▁тэмцээнд	-3669
▁хяналтын	-3670
бэг	-3671
▁ну	-3672
▁цөө	-3673
▁брэнд	-3674
▁итгэдэг	-3675
▁28	-3676
▁шуг	-3677
далгүй	-3678
▁Худал	-3679
▁ариутг	-3680
▁утасны	-3681
ег	-3682
▁$	-3683
Баяр	-3684
▁Тэм	-3685
▁апп	-3686
▁шийдэх	-3687
▁зайлшгүй	-3688
▁бүтээгдэхүүний	-3689
-0	-3690
ut	-3691
иб	-3692
ишээл	-3693
енд	-3694
▁Пар	-3695
▁хувир	-3696
▁цуврал	-3697
▁тогтолцоо	-3698
▁Харамсалтай	-3699
ul	-3700
Ар	-3701
▁өөрсдийгөө	-3702
▁шид	-3703
▁Тайл	-3704
▁олны	-3705
▁Эдийн	-3706
▁уриал	-3707
▁явуул	-3708
Энхбаяр	-3709
орт	-3710
▁хуу	-3711
▁мунд	-3712
үрэлсүх	-3713
▁цагийг	-3714
дэн	-3715
гэсэн	-3716
▁юмыг	-3717
▁төсөөл	-3718
art	-3719
ланд	-3720
▁Ман	-3721
чихлаа	-3722
ерт	-3723
▁зээлд	-3724
▁удаад	-3725
▁шөн	-3726
▁өнц	-3727
▁тооны	-3728
▁жолооч	-3729
хаг	-3730
үйм	-3731
▁Ая	-3732
▁10-	-3733
▁хэсгийг	-3734
▁сонирхол	-3735
ap	-3736
os	-3737
-19	-3738
:00	-3739
кийн	-3740
▁ууж	-3741
▁шуу	-3742
▁Иймд	-3743
▁Хойд	-3744
▁үсэг	-3745
▁өөрт	-3746
наасаа	-3747
▁шатны	-3748
▁өнөөгийн	-3749
стой	-3750
огчид	-3751
▁бодлогын	-3752
▁харагддаг	-3753
гуу	-3754
▁гэс	-3755
▁хэлээр	-3756
▁Одоогийн	-3757
▁үндэслэл	-3758
▁зууны	-3759
▁байрны	-3760
оороо	-3761
эгдэж	-3762
▁саад	-3763
▁гэнэт	-3764
▁таамаг	-3765
▁тогтмол	-3766
▁баталгааж	-3767
▁эмнэлгийн	-3768
овч	-3769
олж	-3770
▁оюун	-3771
▁нэгтг	-3772
▁зөндөө	-3773
ҮҮ	-3774
тар	-3775
ханд	-3776
▁зод	-3777
▁зөөл	-3778
▁Түүнд	-3779
▁киноны	-3780
▁нийгэмд	-3781
бүү	-3782
▁утг	-3783
▁хуульд	-3784
▁харагдах	-3785
Тэр	-3786
▁Түр	-3787
▁Шил	-3788
▁байт	-3789
▁сүүлд	-3790
эш	-3791
▁зол	-3792
▁саналаа	-3793
▁хийхийг	-3794
АХН	-3795
▁цэцэг	-3796
▁банкны	-3797
▁хөгжилтэй	-3798
ва	-3799
▁Тү	-3800
ганы	-3801
▁Ирэх	-3802
▁төвл	-3803
▁барсан	-3804
▁жүжигчин	-3805
▁Нийслэлийн	-3806
gle	-3807
игт	-3808
лэлт	-3809
▁Өнөө	-3810
▁наадам	-3811
▁хорооны	-3812
▁дүүргийн	-3813
▁болдоггүй	-3814
▁анд	-3815
▁даруй	-3816
▁байхын	-3817
АГ	-3818
▁2010	-3819
шр	-3820
лэв	-3821
▁3.	-3822
снийг	-3823
▁зарч	-3824
▁танхим	-3825
▁хийлээ	-3826
▁цагаас	-3827
▁туршлагатай	-3828
▁a	-3829
бол	-3830
▁5-	-3831
▁төрх	-3832
▁хүргэх	-3833
?!	-3834
▁код	-3835
▁News	-3836
▁технологийн	-3837
хнэр	-3838
цхан	-3839
▁бүтээсэн	-3840
▁зүйлсийг	-3841
имс	-3842
үйц	-3843
хтай	-3844
▁Танай	-3845
▁дэндүү	-3846
▁оюутан	-3847
▁страте	-3848
▁Сургуул	-3849
▁ажилдаа	-3850
▁ихээхэн	-3851
▁маргаан	-3852
улуун	-3853
лэгчид	-3854
▁ургам	-3855
▁нэмэгдүүлэх	-3856
гил	-3857
сал	-3858
▁ес	-3859
▁урсгал	-3860
▁чөлөөтэй	-3861
▁гүйцэтгэх	-3862
▁шаш	-3863
огдож	-3864
уурын	-3865
▁ихтэй	-3866
▁урлаг	-3867
▁хүнээс	-3868
▁харилцан	-3869
▁мэддэггүй	-3870
▁холбогдсон	-3871
▁Мэргэж	-3872
▁харамс	-3873
эгдүгээр	-3874
▁хамтлаг	-3875
▁нэн	-3876
▁төмөр	-3877
▁шашин	-3878
▁бахарх	-3879
▁залбир	-3880
▁надтай	-3881
ЭЛ	-3882
▁Ис	-3883
агаа	-3884
енер	-3885
▁зуг	-3886
oogle	-3887
▁нэмэр	-3888
▁байрлал	-3889
ck	-3890
▁Тал	-3891
ингис	-3892
▁хорв	-3893
▁гадуур	-3894
▁Өнөөдрийн	-3895
▁сэдв	-3896
▁түлх	-3897
▁дөнгөж	-3898
▁найман	-3899
▁хөрөнг	-3900
▁өөрчил	-3901
▁байнгын	-3902
бан	-3903
▁баян	-3904
▁зөрч	-3905
▁ажилтнууд	-3906
▁бүгдээрээ	-3907
iv	-3908
атор	-3909
моор	-3910
члан	-3911
шигт	-3912
▁дэвс	-3913
▁явцад	-3914
▁ялангуяа	-3915
отг	-3916
▁Ул	-3917
▁алдах	-3918
▁найзууд	-3919
▁туршлага	-3920
уя	-3921
▁гү	-3922
галан	-3923
▁галз	-3924
▁өчигдөр	-3925
▁барилгын	-3926
уулахгүй	-3927
нэт	-3928
▁Бага	-3929
▁Найз	-3930
чихсон	-3931
▁Улсад	-3932
▁үзээд	-3933
▁идэвхтэй	-3934
▁мөрг	-3935
▁ийнхүү	-3936
▁үүнээс	-3937
лүүлэх	-3938
▁Таныг	-3939
▁урамшуул	-3940
▁айж	-3941
▁виз	-3942
▁болоо	-3943
▁өгөөч	-3944
▁болтол	-3945
▁барьсан	-3946
▁зорилготой	-3947
лаас	-3948
сгүй	-3949
▁дуур	-3950
▁даалга	-3951
▁долоон	-3952
▁мэдэгдсэн	-3953
▁хэхэ	-3954
▁өргөж	-3955
▁ширхэг	-3956
▁яаралтай	-3957
▁эмэгтэйчүүдийн	-3958
▁гун	-3959
▁зөө	-3960
▁өсг	-3961
▁гуай	-3962
▁Хэдэн	-3963
▁хажуу	-3964
▁насанд	-3965
▁эндээс	-3966
▁бичгийн	-3967
▁тогтоосон	-3968
овь	-3969
▁Ст	-3970
▁айд	-3971
▁хажууд	-3972
▁хүүхдийг	-3973
▁эрүү	-3974
▁хүрэхгүй	-3975
▁Хэдийгээр	-3976
▁байсангүй	-3977
▁бүсгүйчүүд	-3978
хыг	-3979
▁гор	-3980
▁жив	-3981
▁хүлээх	-3982
ost	-3983
▁өнөөд	-3984
dow	-3985
▁Хоол	-3986
▁амын	-3987
▁дутуу	-3988
▁хэдхэн	-3989
авдугаар	-3990
▁автобус	-3991
▁удирдах	-3992
▁болохоос	-3993
▁уя	-3994
лэхгүй	-3995
▁Канад	-3996
▁медал	-3997
▁хүсвэл	-3998
▁жилүүдэд	-3999
▁!	-4000
лож	-4001
үйн	-4002
сгөл	-4003
▁цуц	-4004
▁секс	-4005
чихдаг	-4006
лэгдсэн	-4007
▁авахад	-4008
▁гаргаад	-4009
▁өнгөрөө	-4010
изм	-4011
инэ	-4012
▁Бэл	-4013
▁Багш	-4014
▁эмчл	-4015
▁яриг	-4016
▁баярын	-4017
▁In	-4018
бэгд	-4019
чийг	-4020
▁буд	-4021
▁ийн	-4022
агчийн	-4023
▁үзвэл	-4024
▁авахыг	-4025
▁мундаг	-4026
▁төслийн	-4027
▁Нэр	-4028
▁сэл	-4029
▁Эцэг	-4030
▁карт	-4031
▁бодлоор	-4032
▁байгууллагад	-4033
ИЛ	-4034
баат	-4035
лдөг	-4036
▁түл	-4037
лосон	-4038
▁нойр	-4039
▁өгөөд	-4040
▁дэглэм	-4041
▁тооцоол	-4042
▁ухаалаг	-4043
▁ялгаатай	-4044
▁Өнд	-4045
▁МАХН	-4046
▁гарц	-4047
▁хэлэлцээр	-4048
▁боловсролын	-4049
үүж	-4050
▁той	-4051
▁шим	-4052
▁эрч	-4053
▁буцаж	-4054
Энхболд	-4055
бэгдорж	-4056
▁улиралд	-4057
▁харуулах	-4058
ийх	-4059
▁Дөр	-4060
▁Герм	-4061
▁өвөр	-4062
▁алдаж	-4063
▁таалагд	-4064
▁хэлбэрээр	-4065
чны	-4066
мсэг	-4067
ebook	-4068
▁түмн	-4069
▁итгэх	-4070
ишээлбэл	-4071
▁гарахгүй	-4072
▁эмнэлэгт	-4073
▁магадлалтай	-4074
тах	-4075
мент	-4076
▁кар	-4077
▁маск	-4078
▁хэсгийн	-4079
▁эмнэлэг	-4080
ез	-4081
лалын	-4082
▁хэлнэ	-4083
▁Сэтгэл	-4084
▁Үнэндээ	-4085
▁болоход	-4086
өнх	-4087
алаа	-4088
▁Үгүй	-4089
огчдын	-4090
▁нийслэл	-4091
▁хангамж	-4092
▁хүчирхий	-4093
АС	-4094
мс	-4095
ьт	-4096
▁Зор	-4097
үүхэн	-4098
▁нээл	-4099
▁хэлт	-4100
▁юунд	-4101
▁Мэдээл	-4102
▁уулзах	-4103
▁дээрээс	-4104
▁харуулж	-4105
дар	-4106
шир	-4107
▁Тэдгээр	-4108
▁дурдсан	-4109
▁хадгалах	-4110
▁сургалтын	-4111
дэв	-4112
енз	-4113
▁хоосон	-4114
▁иргэдийг	-4115
▁хэлэлцэх	-4116
▁хугацаагаар	-4117
▁Гр	-4118
▁цаас	-4119
▁төсөө	-4120
▁саяхан	-4121
Ган	-4122
▁шор	-4123
▁хайл	-4124
▁эмээ	-4125
▁байрш	-4126
▁зугаа	-4127
▁хүндэтг	-4128
▁ашигласан	-4129
▁өнөөдрийн	-4130
▁цөм	-4131
▁Иймээс	-4132
▁ганцаар	-4133
өтг	-4134
гана	-4135
▁Ган	-4136
▁Эзэн	-4137
▁асуух	-4138
▁бүхэл	-4139
▁хөлбөмбөг	-4140
▁&	-4141
▁70	-4142
▁90	-4143
хондоо	-4144
▁онцлов	-4145
▁шоронд	-4146
▁олгодог	-4147
▁хүмүүстэй	-4148
▁шийдвэрийг	-4149
um	-4150
▁Шүүх	-4151
▁таср	-4152
ЭМ	-4153
етр	-4154
овш	-4155
▁Биз	-4156
▁ноц	-4157
▁Эхнэр	-4158
▁шигээ	-4159
▁америк	-4160
▁ээлжит	-4161
▁хэвээрээ	-4162
11	-4163
▁АТГ	-4164
▁вий	-4165
▁дөө	-4166
▁хүнс	-4167
▁хэлжээ	-4168
▁хүсэхгүй	-4169
өлдөр	-4170
▁нэгийг	-4171
ото	-4172
▁Хөдөл	-4173
▁ачаал	-4174
▁тамхи	-4175
▁юмсан	-4176
▁сайхны	-4177
▁утгаараа	-4178
▁байдалтай	-4179
өгс	-4180
▁(2	-4181
элгүй	-4182
▁хүйтэн	-4183
Ор	-4184
▁Айм	-4185
▁тайв	-4186
▁Дээрх	-4187
▁цорын	-4188
▁гарлаа	-4189
▁тээвэр	-4190
▁хаалга	-4191
▁төлөвлөж	-4192
▁загварын	-4193
▁орнуудын	-4194
▁хандлага	-4195
▁сангийн	-4196
▁ойлгосон	-4197
▁тодорхойлох	-4198
op	-4199
Хэр	-4200
эйс	-4201
▁Су	-4202
▁айлын	-4203
▁Өөрөө	-4204
acebook	-4205
▁Бизнес	-4206
▁аймагт	-4207
▁дэвсгэр	-4208
▁бууруулах	-4209
▁Z	-4210
гис	-4211
▁Жил	-4212
▁аял	-4213
▁жирэм	-4214
▁хичнээн	-4215
▁Заримдаа	-4216
▁гав	-4217
уулын	-4218
лөгчид	-4219
▁Газар	-4220
▁мэдэр	-4221
▁шугам	-4222
▁байтугай	-4223
▁ертөнцөд	-4224
▁Өөрийгөө	-4225
!!!!	-4226
гуур	-4227
▁500	-4228
▁унтаж	-4229
▁таатай	-4230
▁техник	-4231
▁анхаарлаа	-4232
▁Ай	-4233
▁нил	-4234
▁төвд	-4235
оронав	-4236
үүлжээ	-4237
үүллээ	-4238
▁хүсэлтэй	-4239
жиж	-4240
▁..	-4241
алсан	-4242
▁цэнэ	-4243
▁Мөнгө	-4244
▁төстэй	-4245
▁хүлээл	-4246
илаа	-4247
штай	-4248
▁Хэв	-4249
олтын	-4250
▁Хувь	-4251
▁хойд	-4252
▁ангид	-4253
▁хааны	-4254
up	-4255
СУ	-4256
офе	-4257
▁Жин	-4258
▁Хотын	-4259
▁дайны	-4260
оронавирус	-4261
▁Ад	-4262
▁каз	-4263
▁Интер	-4264
▁дутаг	-4265
▁нисэх	-4266
▁үүний	-4267
▁чадвал	-4268
▁анхаарч	-4269
▁бүлгийн	-4270
▁гаргана	-4271
▁хамтарч	-4272
▁өөрийнх	-4273
▁суралцах	-4274
▁хоорондын	-4275
▁харамсалтай	-4276
оён	-4277
▁Те	-4278
▁Там	-4279
▁цол	-4280
▁батлах	-4281
▁хангаж	-4282
▁үүсвэр	-4283
-201	-4284
итал	-4285
▁Итал	-4286
агдана	-4287
▁ойрын	-4288
▁хойно	-4289
▁өөрчилж	-4290
▁мэдэгдэл	-4291
ЫН	-4292
▁засах	-4293
▁үнийн	-4294
▁хардаг	-4295
!"	-4296
кт	-4297
олдл	-4298
▁сүн	-4299
▁дүрс	-4300
▁клуб	-4301
▁хайх	-4302
▁хөрш	-4303
▁бүжиг	-4304
▁Компан	-4305
▁багтаа	-4306
▁туршид	-4307
▁эрхгүй	-4308
▁төгсгөл	-4309
▁гишүүдийн	-4310
▁танилцуул	-4311
▁хийгээгүй	-4312
онт	-4313
▁Тат	-4314
▁шоу	-4315
▁үеэс	-4316
▁гадаа	-4317
▁тэрэг	-4318
▁чөлөөт	-4319
▁үүднээс	-4320
▁нэмэгдэж	-4321
▁санхүүжилт	-4322
ейн	-4323
▁St	-4324
чээр	-4325
▁Бор	-4326
▁тоог	-4327
▁үзэн	-4328
▁ойрхон	-4329
▁сонгож	-4330
▁түүнтэй	-4331
Дэл	-4332
айд	-4333
амб	-4334
амсар	-4335
▁Азийн	-4336
▁баялаг	-4337
▁гаралтай	-4338
▁197	-4339
▁шдээ	-4340
хүүгийн	-4341
▁тулгар	-4342
▁l	-4343
аст	-4344
▁га	-4345
▁Кар	-4346
▁төрж	-4347
аанаас	-4348
▁мэдэрч	-4349
ИН	-4350
▁магт	-4351
▁ахмад	-4352
▁тусам	-4353
▁Гурван	-4354
▁судалж	-4355
▁ариутгагч	-4356
▁тодорхойгүй	-4357
od	-4358
єр	-4359
ӨР	-4360
▁g	-4361
▁Биб	-4362
▁Дал	-4363
▁мэс	-4364
▁уруу	-4365
▁иржээ	-4366
▁нөхөн	-4367
▁бэлгийн	-4368
▁чанарыг	-4369
▁тоглоомын	-4370
▁Солонгосын	-4371
ваа	-4372
▁Хөл	-4373
▁бэх	-4374
▁гүйл	-4375
▁Зураг	-4376
▁амьдр	-4377
▁бүрийг	-4378
▁төвлөр	-4379
▁үйлдвэрлэлийн	-4380
оход	-4381
ьсон	-4382
▁Ийн	-4383
▁Google	-4384
▁түүхэн	-4385
▁хүртэлх	-4386
өнд	-4387
▁Од	-4388
▁Изра	-4389
▁дохи	-4390
▁Хэзээ	-4391
▁болгоно	-4392
ИС	-4393
лөн	-4394
▁борл	-4395
▁проц	-4396
▁илүүд	-4397
▁олимп	-4398
ологийн	-4399
▁Тэгсэн	-4400
▁харьцаа	-4401
▁сонирхож	-4402
▁цэвэрлэх	-4403
▁хэрэглэгч	-4404
ee	-4405
▁МУ	-4406
доггүй	-4407
лаагүй	-4408
▁дором	-4409
▁шүүмжл	-4410
▁илэрхийлж	-4411
ЭР	-4412
оооо	-4413
соор	-4414
▁Заг	-4415
емент	-4416
снээс	-4417
▁биен	-4418
▁тэвч	-4419
▁бүтээх	-4420
▁нэгний	-4421
▁болтугай	-4422
▁явуулсан	-4423
▁арьс	-4424
▁аргыг	-4425
▁тогтн	-4426
▁ардчил	-4427
▁дурсамж	-4428
▁Чух	-4429
▁Зүүн	-4430
▁Урьд	-4431
▁хаяж	-4432
▁угаах	-4433
▁ухаар	-4434
▁ногоон	-4435
▁төдийгүй	-4436
▁хүрээлэн	-4437
.0	-4438
▁x	-4439
эцэг	-4440
▁вэбсай	-4441
▁гарчээ	-4442
▁дуучин	-4443
▁хувьсгал	-4444
▁амьт	-4445
чихээд	-4446
▁нэмэх	-4447
▁станц	-4448
▁газраа	-4449
▁сурсан	-4450
▁хуралд	-4451
▁бодолтой	-4452
▁байгууллагууд	-4453
ers	-4454
аав	-4455
ямд	-4456
▁Чухлыг	-4457
▁Бу	-4458
▁196	-4459
▁Жон	-4460
▁Сал	-4461
▁Сир	-4462
▁гарт	-4463
▁цаана	-4464
▁үнэнийг	-4465
▁залуучууд	-4466
▁гам	-4467
▁халд	-4468
▁хэмн	-4469
лахгүй	-4470
▁авлиг	-4471
▁аймаг	-4472
▁болго	-4473
▁олгоно	-4474
▁амралтын	-4475
АШ	-4476
Хар	-4477
өөгүй	-4478
▁багц	-4479
▁манд	-4480
ийнхаа	-4481
▁муутай	-4482
▁сараас	-4483
▁хөгжиж	-4484
▁хөдлөх	-4485
▁Маргааш	-4486
▁мөнгөөр	-4487
▁биелүүлэх	-4488
▁үнэт	-4489
▁орчны	-4490
▁шийдэж	-4491
▁түүхийг	-4492
▁инээмсэг	-4493
▁нунтаглах	-4494
▁хөрөнгийн	-4495
▁бэрхшээлтэй	-4496
аалд	-4497
▁судл	-4498
▁үлдэх	-4499
▁манайх	-4500
▁талтай	-4501
лом	-4502
ого	-4503
▁тол	-4504
▁хангал	-4505
▁хүрээд	-4506
овср	-4507
рамп	-4508
▁инг	-4509
▁луй	-4510
▁эрсдэл	-4511
даан	-4512
▁Онц	-4513
▁таг	-4514
ation	-4515
▁далд	-4516
▁ирэв	-4517
▁нэрээр	-4518
▁шийдэл	-4519
Ер	-4520
атр	-4521
хныг	-4522
▁согт	-4523
ээлийн	-4524
▁хорио	-4525
▁зогсоох	-4526
▁нэрлэдэг	-4527
ab	-4528
сэл	-4529
▁Нас	-4530
өнгөн	-4531
▁Чингис	-4532
▁эхчүүд	-4533
ov	-4534
▁бүд	-4535
иудын	-4536
▁санд	-4537
▁спортын	-4538
▁бүтэц	-4539
▁хорих	-4540
▁суулгах	-4541
өц	-4542
▁Хич	-4543
▁шув	-4544
th	-4545
АМ	-4546
дэл	-4547
лсөн	-4548
▁бит	-4549
▁галт	-4550
▁усан	-4551
чилсэн	-4552
▁Иргэн	-4553
▁бүтээн	-4554
▁дундаж	-4555
▁4.	-4556
▁на	-4557
▁өч	-4558
анхуй	-4559
▁гарагт	-4560
▁тусдаа	-4561
▁хүүхэн	-4562
▁хийхээр	-4563
▁хэлмээр	-4564
лт	-4565
▁айх	-4566
▁диз	-4567
▁сайжр	-4568
▁буудал	-4569
▁зогсож	-4570
▁соёлын	-4571
▁хуулиар	-4572
▁Үйлдвэр	-4573
джээ	-4574
▁дад	-4575
▁захирал	-4576
▁төгссөн	-4577
▁хэлэхдээ	-4578
▁ойлгохгүй	-4579
ҮЙ	-4580
пон	-4581
▁29	-4582
▁Үнэ	-4583
▁новш	-4584
▁нөлөөлөх	-4585
ome	-4586
гчид	-4587
лгын	-4588
▁Мос	-4589
өгтэй	-4590
▁өгчих	-4591
▁ноцтой	-4592
▁тооцоо	-4593
▁туршилт	-4594
▁гараагүй	-4595
ong	-4596
ийв	-4597
Таны	-4598
ыгаа	-4599
▁Шал	-4600
иплом	-4601
▁гээч	-4602
ямдорж	-4603
▁шүүхийн	-4604
▁найдвартай	-4605
▁ариун	-4606
▁захид	-4607
▁татан	-4608
▁хүчээр	-4609
▁тавьдаг	-4610
еф	-4611
▁7-	-4612
▁жиг	-4613
▁боол	-4614
▁танил	-4615
▁буцааж	-4616
▁жирийн	-4617
▁ирэхэд	-4618
▁харгал	-4619
▁баталсан	-4620
▁орнуудад	-4621
ьяас	-4622
чнээн	-4623
▁1000	-4624
▁2000	-4625
▁бухим	-4626
▁зочид	-4627
▁төрөх	-4628
▁хаалт	-4629
:)	-4630
▁Үх	-4631
▁зун	-4632
▁нөхд	-4633
нуудыг	-4634
▁хатан	-4635
▁байтал	-4636
▁ирээдүйд	-4637
▁сэтгэлийг	-4638
av	-4639
..."	-4640
▁Гал	-4641
▁Дорн	-4642
▁чухам	-4643
▁зөвлөмж	-4644
ne	-4645
ахдаа	-4646
▁бөөн	-4647
▁талыг	-4648
▁үгээр	-4649
▁харуул	-4650
▁цөөхөн	-4651
ее	-4652
лэ	-4653
▁арь	-4654
эгдэх	-4655
▁мууд	-4656
▁цонх	-4657
▁Аливаа	-4658
▁руугаа	-4659
▁хоёулаа	-4660
▁хэрэглэгчид	-4661
үх	-4662
ект	-4663
сээ	-4664
▁6-	-4665
▁сун	-4666
▁авто	-4667
▁номыг	-4668
▁өмгөө	-4669
▁Эхлээд	-4670
▁санааг	-4671
▁түгээмэл	-4672
▁үргэлжлүүлэн	-4673
дэр	-4674
итой	-4675
▁Цэр	-4676
▁дам	-4677
▁ойрт	-4678
▁араас	-4679
▁цэрэг	-4680
▁бичээд	-4681
Баттулга	-4682
▁шалгуур	-4683
▁Дан	-4684
▁жор	-4685
▁хураа	-4686
▁эхлэл	-4687
▁жилдээ	-4688
▁суугаад	-4689
▁төгөлдөр	-4690
▁Re	-4691
▁дөх	-4692
▁камер	-4693
▁дэвшиг	-4694
▁байлгах	-4695
▁Жишээлбэл	-4696
▁бүтээгдэхүүнийг	-4697
авч	-4698
▁өмч	-4699
дааны	-4700
▁Эцэст	-4701
▁солих	-4702
▁бүрэлдэх	-4703
▁урлагийн	-4704
▁ухаантай	-4705
▁хэлэлцэж	-4706
▁хамгаалалт	-4707
II	-4708
иун	-4709
▁киног	-4710
▁зөвлөх	-4711
▁кинонд	-4712
▁ярилцаж	-4713
▁Цагдаагийн	-4714
▁шаардлагыг	-4715
вөр	-4716
▁гя	-4717
▁тэв	-4718
▁2021	-4719
▁унаг	-4720
▁явлаа	-4721
▁устгах	-4722
▁шийдэг	-4723
▁тулгуур	-4724
1-	-4725
Өн	-4726
Тийм	-4727
шний	-4728
▁Мөр	-4729
▁энх	-4730
▁дуусах	-4731
▁таарна	-4732
▁бидэнтэй	-4733
▁харьцуулахад	-4734
ack	-4735
амч	-4736
▁ОУ	-4737
бүүк	-4738
▁БНСУ	-4739
▁бууж	-4740
▁гэгч	-4741
▁дарх	-4742
▁Өндөр	-4743
▁бяцхан	-4744
▁татварын	-4745
эйл	-4746
эйн	-4747
Одоо	-4748
илан	-4749
▁App	-4750
▁үнэнч	-4751
▁тэгвэл	-4752
▁хоёрыг	-4753
▁хийгдсэн	-4754
▁санагдсан	-4755
▁тодорхойл	-4756
▁хичээлийн	-4757
▁үргэлжилж	-4758
ТХ	-4759
арм	-4760
дож	-4761
итр	-4762
▁гэн	-4763
▁юун	-4764
цгаая	-4765
▁Охин	-4766
▁нягт	-4767
▁ядуу	-4768
▁үзье	-4769
▁хэлье	-4770
▁дарамт	-4771
▁дэлгэр	-4772
▁сууцны	-4773
▁өөрөөр	-4774
),	-4775
▁You	-4776
▁Хат	-4777
лахад	-4778
▁морь	-4779
▁булан	-4780
▁Ийнхүү	-4781
▁сонгон	-4782
▁онгоцны	-4783
▁тэмдэглэл	-4784
▁хэмжээтэй	-4785
▁шд	-4786
▁Ардын	-4787
▁монголын	-4788
▁холбогдолтой	-4789
зэг	-4790
лээс	-4791
▁биед	-4792
▁тасал	-4793
▁бусдыг	-4794
▁удаагаа	-4795
▁утгатай	-4796
Хү	-4797
акт	-4798
▁Ут	-4799
▁Ху	-4800
гөөр	-4801
▁дом	-4802
▁Хамт	-4803
▁зөөлөн	-4804
▁сонсоод	-4805
ОО	-4806
үнш	-4807
▁300	-4808
▁ган	-4809
▁тавиг	-4810
▁гайгүй	-4811
▁зөвлөж	-4812
▁суугаа	-4813
▁наадмын	-4814
▁оруулалтын	-4815
АШТ	-4816
бод	-4817
исс	-4818
▁35	-4819
аааа	-4820
жийн	-4821
өлөг	-4822
▁уйл	-4823
иулах	-4824
▁зэвс	-4825
цаагүй	-4826
▁нислэг	-4827
▁байршил	-4828
▁төгрөгийн	-4829
▁тайлбарлаж	-4830
▁ажиллагаагаа	-4831
иль	-4832
▁Хүнд	-4833
▁эцэс	-4834
жуулах	-4835
▁дотно	-4836
▁хашаа	-4837
▁тавиад	-4838
▁тустай	-4839
▁гуравдугаар	-4840
lo	-4841
▁данс	-4842
▁уншсан	-4843
▁Тэднийг	-4844
▁сонгодог	-4845
илж	-4846
амжтай	-4847
▁үүрэгтэй	-4848
ak	-4849
ri	-4850
упп	-4851
▁давж	-4852
▁найм	-4853
▁аврах	-4854
▁хандив	-4855
▁эртний	-4856
▁амьдралдаа	-4857
ло	-4858
▁Тай	-4859
чихгүй	-4860
▁инээд	-4861
▁долларын	-4862
ext	-4863
иод	-4864
▁Хав	-4865
▁орш	-4866
▁зургаа	-4867
▁баригчид	-4868
▁нэмэгдсэн	-4869
▁батлагдсан	-4870
▁y	-4871
ube	-4872
▁үгс	-4873
▁доод	-4874
▁авалт	-4875
▁гадны	-4876
▁нийтлэг	-4877
▁оролцоо	-4878
▁насандаа	-4879
▁төрөлхтөн	-4880
hone	-4881
ынхан	-4882
▁цэгц	-4883
▁орших	-4884
▁хаашаа	-4885
▁сэргээх	-4886
▁хохирол	-4887
▁интернет	-4888
▁мөрөөдөл	-4889
%-	-4890
▁илэр	-4891
▁нааш	-4892
▁сурталчилгаа	-4893
▁мөч	-4894
▁агент	-4895
▁амжил	-4896
▁бороо	-4897
▁орноо	-4898
▁усанд	-4899
▁даасан	-4900
▁далайн	-4901
▁гишүүний	-4902
▁хамгаалж	-4903
▁амьдралаа	-4904
▁Энэтхэгийн	-4905
▁хэрэглэгчийн	-4906
▁8-	-4907
▁шүд	-4908
▁үүн	-4909
имийн	-4910
▁нээж	-4911
▁Албан	-4912
▁хүнээ	-4913
▁бариад	-4914
▁баярлаж	-4915
▁талбайд	-4916
▁харилцааны	-4917
таж	-4918
▁Яр	-4919
▁кофе	-4920
▁нөхр	-4921
▁дийлэн	-4922
▁суусан	-4923
үүлэгчид	-4924
▁аваагүй	-4925
▁автомат	-4926
▁дэмждэг	-4927
▁хичээдэг	-4928
▁харьцангуй	-4929
▁Шв	-4930
еб	-4931
банк	-4932
ишиг	-4933
лөгд	-4934
▁дог	-4935
эгчид	-4936
▁замд	-4937
▁зовж	-4938
▁хорт	-4939
▁мөрөө	-4940
▁тодотг	-4941
▁нэвтрүүл	-4942
▁тэтгэвэр	-4943
▁Британийн	-4944
▁илэрхийлэх	-4945
▁айдас	-4946
▁дахиж	-4947
▁улсаас	-4948
▁эхэлдэг	-4949
▁үзэгдэл	-4950
▁нөлөөлдөг	-4951
агтай	-4952
▁төсв	-4953
▁Трамп	-4954
▁луйвар	-4955
▁нөлөөлж	-4956
▁гадаадад	-4957
▁хүчирхэг	-4958
го	-4959
▁Дур	-4960
▁Хэт	-4961
▁Тэгж	-4962
жаргал	-4963
▁хараа	-4964
▁мэтээр	-4965
▁утсаар	-4966
▁хүрэлц	-4967
▁үгүйсг	-4968
▁байдгийг	-4969
За	-4970
▁<	-4971
мэлз	-4972
▁авр	-4973
луулж	-4974
▁галзуу	-4975
▁байсаар	-4976
▁зэргийн	-4977
▁Facebook	-4978
▁Нийгмийн	-4979
▁байдлаас	-4980
▁харуулсан	-4981
.3	-4982
аф	-4983
▁бгаа	-4984
▁залх	-4985
▁тодр	-4986
▁Бидэнд	-4987
▁биздээ	-4988
▁засагт	-4989
▁хэчнээн	-4990
▁үнэмлэх	-4991
▁төлөөлөгч	-4992
тол	-4993
луулсан	-4994
▁нэгэнт	-4995
▁хангалуун	-4996
.5	-4997
оож	-4998
▁фр	-4999
Мөнх	-5000
дана	-5001
▁инж	-5002
▁лам	-5003
гуулах	-5004
▁Анхны	-5005
▁Африк	-5006
▁чадаж	-5007
▁гэрээг	-5008
▁байгаан	-5009
▁тохиролц	-5010
▁тохирсон	-5011
▁ярилцлага	-5012
аль	-5013
аанч	-5014
▁20-	-5015
▁зуны	-5016
▁унаж	-5017
▁Орчин	-5018
▁улсыг	-5019
▁солилц	-5020
▁Үүнтэй	-5021
▁зөрчсөн	-5022
▁ханддаг	-5023
99	-5024
ore	-5025
Оюун	-5026
▁ккк	-5027
▁төм	-5028
сүрэн	-5029
▁Дээд	-5030
▁хэтр	-5031
▁зориу	-5032
▁зохих	-5033
▁Улмаар	-5034
▁талдаа	-5035
▁сүүлчийн	-5036
▁мэдээллээ	-5037
чи	-5038
ьер	-5039
үрэв	-5040
▁194	-5041
▁уншаад	-5042
уулалтын	-5043
▁больсон	-5044
▁Хүүхдүүд	-5045
▁дуудлага	-5046
▁эхлүүлэх	-5047
атай	-5048
өдөг	-5049
▁нул	-5050
▁ойл	-5051
өлгөө	-5052
▁өгье	-5053
▁Бүсгүй	-5054
▁дулаан	-5055
▁санаанд	-5056
▁шаардаг	-5057
ss	-5058
одоо	-5059
▁гаж	-5060
аасай	-5061
▁явдл	-5062
▁өвөө	-5063
▁харна	-5064
▁эрмэлз	-5065
▁үйлдвэрлэх	-5066
▁сэтгэлээсээ	-5067
▁өөрчлөгдсөн	-5068
▁Банк	-5069
▁даван	-5070
▁дагав	-5071
▁амралт	-5072
▁шүүхэд	-5073
▁процесс	-5074
▁хайрлаж	-5075
▁захиалга	-5076
▁ирээдүйн	-5077
▁тэмдэглэж	-5078
▁харагдана	-5079
▁Өөрийнхөө	-5080
▁Дэлгэрэнгүй	-5081
єн	-5082
▁on	-5083
▁ич	-5084
нөөс	-5085
Алтан	-5086
▁ихэд	-5087
▁таал	-5088
нуудын	-5089
▁буцах	-5090
▁гуниг	-5091
▁Цаашид	-5092
▁Чамайг	-5093
▁шөнийн	-5094
▁тоглогч	-5095
▁автомашин	-5096
12	-5097
ни	-5098
ийд	-5099
▁Зохи	-5100
▁зайлс	-5101
▁дундуур	-5102
▁оруулна	-5103
▁хүүхдүүдэд	-5104
өт	-5105
▁Ch	-5106
▁Авт	-5107
ентын	-5108
▁юуны	-5109
▁Судал	-5110
▁тариал	-5111
▁үйлчил	-5112
▁агуулга	-5113
▁хөөрхий	-5114
▁эхэлжээ	-5115
▁тоглосон	-5116
ЗЭН	-5117
▁гүр	-5118
▁муз	-5119
архал	-5120
▁хөлс	-5121
▁гутал	-5122
▁хаалг	-5123
▁баатар	-5124
▁дагаад	-5125
▁нэрийн	-5126
▁хөнгөн	-5127
▁багагүй	-5128
▁олдохгүй	-5129
▁үзүүлсэн	-5130
▁Сонгуулийн	-5131
мэн	-5132
▁Кр	-5133
шүүр	-5134
▁Яах	-5135
▁маяг	-5136
ээнээс	-5137
▁авчээ	-5138
▁доорх	-5139
▁дэмий	-5140
▁бодвол	-5141
▁нөлөөл	-5142
▁секунд	-5143
▁дэлхийг	-5144
▁хөгжмийн	-5145
еп	-5146
▁+	-5147
▁11-	-5148
▁айлд	-5149
▁тойм	-5150
▁нээгд	-5151
▁зэвсэг	-5152
▁сайтай	-5153
▁үзэхэд	-5154
Хүрэлсүх	-5155
▁арилгах	-5156
▁Ингэхдээ	-5157
▁түүнийгээ	-5158
▁байгаагаар	-5159
ik	-5160
ҮТ	-5161
ang	-5162
илл	-5163
ддаг	-5164
▁стат	-5165
▁үхэх	-5166
▁Нийгэм	-5167
▁эрхлэх	-5168
▁байснаа	-5169
▁сэтгэлд	-5170
▁компанид	-5171
▁даатгалын	-5172
▁асуудалтай	-5173
▁захиргааны	-5174
▁тасралтгүй	-5175
▁хэрэглээний	-5176
iss	-5177
авх	-5178
▁Гай	-5179
▁шашны	-5180
▁түргэн	-5181
▁хиймэл	-5182
▁ирэхгүй	-5183
▁асуудлын	-5184
▁тамирчин	-5185
▁удирдагч	-5186
▁зөвлөлийн	-5187
▁бн	-5188
андан	-5189
▁Дунд	-5190
▁хурц	-5191
▁эхээр	-5192
▁завгүй	-5193
▁өдрүүд	-5194
▁өдрөөс	-5195
дыг	-5196
▁An	-5197
▁of	-5198
окур	-5199
хины	-5200
▁Нью	-5201
▁унд	-5202
▁Найр	-5203
▁урьж	-5204
▁үнийг	-5205
▁Саяхан	-5206
▁явдлыг	-5207
▁Боловср	-5208
▁Германы	-5209
▁хулгайч	-5210
▁Өчигдөр	-5211
▁хүлээсэн	-5212
▁Нэгдүгээр	-5213
▁системийн	-5214
▁Хон	-5215
▁Ядаж	-5216
▁өвөл	-5217
▁Ирээд	-5218
▁арилж	-5219
▁ихийг	-5220
уулахыг	-5221
▁амлалт	-5222
▁өвчний	-5223
▁багатай	-5224
▁шуурхай	-5225
▁Зам	-5226
▁Илүү	-5227
▁хэний	-5228
▁сайтар	-5229
▁судлах	-5230
▁баймаар	-5231
▁дархлаа	-5232
▁хамаарна	-5233
▁Хоёрдугаар	-5234
▁Ук	-5235
члон	-5236
▁2007	-5237
▁бэлд	-5238
▁метр	-5239
▁түнш	-5240
▁билүү	-5241
▁дулаа	-5242
▁медаль	-5243
▁наймаа	-5244
▁Эрэгтэй	-5245
▁байгаам	-5246
▁дутагдал	-5247
дох	-5248
мөц	-5249
ооч	-5250
▁Аж	-5251
ment	-5252
▁Пут	-5253
▁үер	-5254
дгийг	-5255
олсон	-5256
▁олгож	-5257
▁санах	-5258
▁тутам	-5259
▁жилээр	-5260
▁татсан	-5261
▁тухтай	-5262
▁улсууд	-5263
▁хэнийг	-5264
▁засаглал	-5265
ОР	-5266
▁хум	-5267
▁мөнх	-5268
▁эрэлт	-5269
▁завсар	-5270
▁менежер	-5271
▁зохицуулалт	-5272
УР	-5273
та	-5274
▁The	-5275
▁2006	-5276
▁төлж	-5277
огддог	-5278
▁алдар	-5279
▁хуваа	-5280
▁ашгийг	-5281
▁төвийн	-5282
▁вэбсайт	-5283
▁ирээгүй	-5284
▁орохгүй	-5285
▁өгөөгүй	-5286
▁зөвшөөрч	-5287
▁Мэргэжлийн	-5288
▁зөвшөөрсөн	-5289
▁Яаж	-5290
▁Машин	-5291
▁аялах	-5292
▁элдэв	-5293
▁өнцөг	-5294
▁бичдэг	-5295
▁бичжээ	-5296
▁диплом	-5297
▁чимээгүй	-5298
ук	-5299
ord	-5300
▁Уур	-5301
▁хөтл	-5302
агчдын	-5303
▁охины	-5304
▁хамаг	-5305
Нэг	-5306
▁ям	-5307
үүлт	-5308
ацарт	-5309
ашгүй	-5310
оосой	-5311
▁чанга	-5312
▁шийтг	-5313
▁дуугар	-5314
▁мэдрэх	-5315
ууруулах	-5316
▁ажилчид	-5317
▁дийлэнх	-5318
▁ерөөсөө	-5319
▁түлхүүр	-5320
▁хадгалж	-5321
li	-5322
иос	-5323
хын	-5324
▁Уу	-5325
▁кг	-5326
уулт	-5327
▁Хий	-5328
▁Чин	-5329
▁шүт	-5330
уулаа	-5331
▁тоон	-5332
▁хань	-5333
▁нэгэнд	-5334
▁хэрнээ	-5335
▁шатанд	-5336
▁Байгуул	-5337
▁Бурханд	-5338
▁Сангийн	-5339
▁асуудлууд	-5340
Бол	-5341
двал	-5342
өхөд	-5343
▁Ойр	-5344
▁унтр	-5345
▁харц	-5346
▁Мэдээ	-5347
▁Элчин	-5348
▁дууны	-5349
▁хачин	-5350
▁хуруу	-5351
▁Байгаль	-5352
▁хэрэгжиж	-5353
▁ууд	-5354
ахаас	-5355
▁энер	-5356
▁болсныг	-5357
▁нэгнийг	-5358
▁дотоодын	-5359
▁илэрхийлсэн	-5360
▁хамааралтай	-5361
шд	-5362
▁-"	-5363
сангүй	-5364
▁ундаа	-5365
▁авьяас	-5366
▁дэвших	-5367
▁нартай	-5368
▁тусалж	-5369
▁бусдаас	-5370
▁газрууд	-5371
▁шаарддаг	-5372
▁чадсангүй	-5373
OL	-5374
ия	-5375
ard	-5376
мун	-5377
▁in	-5378
илал	-5379
гадаг	-5380
▁занг	-5381
▁бүтээлч	-5382
▁нутгаар	-5383
▁явахгүй	-5384
▁угаалгын	-5385
▁харанхуй	-5386
аныг	-5387
▁офф	-5388
гээрэй	-5389
▁эвгүй	-5390
▁ялалт	-5391
руулбал	-5392
▁хөнгөл	-5393
▁авахаар	-5394
▁угаасаа	-5395
▁асуудлаа	-5396
▁шинжилгээний	-5397
ob	-5398
да	-5399
ех	-5400
ск	-5401
▁Жир	-5402
▁Жижиг	-5403
▁Японд	-5404
▁Холбоо	-5405
▁үүргээ	-5406
▁Удахгүй	-5407
эрэл	-5408
▁сүм	-5409
үүдээс	-5410
▁харья	-5411
▁Хөдөлм	-5412
▁хурлын	-5413
▁үүсгэх	-5414
▁Францын	-5415
▁холбогдол	-5416
▁хүмүүсээс	-5417
ОХ	-5418
▁Сүх	-5419
▁талб	-5420
лагчид	-5421
▁сууна	-5422
▁уншиг	-5423
▁Сонирх	-5424
▁дундаа	-5425
▁явахад	-5426
▁баримтал	-5427
▁бүхэндээ	-5428
оз	-5429
▁9-	-5430
▁цо	-5431
▁Хүс	-5432
▁үнс	-5433
чихаж	-5434
чихна	-5435
▁Цахим	-5436
▁мэдэл	-5437
▁хүрээ	-5438
▁суудаг	-5439
▁олгосон	-5440
▁өөрөөсөө	-5441
▁гарцаагүй	-5442
▁бүртгэлийн	-5443
ce	-5444
сандаа	-5445
эврийн	-5446
▁хаагч	-5447
▁заавар	-5448
▁ертөнцийн	-5449
Ир	-5450
▁45	-5451
▁Чу	-5452
аард	-5453
▁Хаа	-5454
▁тагн	-5455
уулжээ	-5456
▁Газрын	-5457
▁бөхийн	-5458
▁ажилгүй	-5459
▁хүүгийн	-5460
▁хараахан	-5461
▁Санхүүгийн	-5462
▁үйлдвэрлэгч	-5463
all	-5464
ахаа	-5465
сууд	-5466
эмжл	-5467
▁Бал	-5468
оодог	-5469
▁живх	-5470
▁эмзэг	-5471
эйсбүүк	-5472
▁зорчиг	-5473
▁хичээж	-5474
ДҮ	-5475
алю	-5476
орч	-5477
▁км	-5478
▁тр	-5479
▁Заа	-5480
▁Хүр	-5481
гдсан	-5482
гээний	-5483
лээгүй	-5484
▁шүүгч	-5485
▁Тэнгэр	-5486
▁тэтгэл	-5487
▁үзүүлдэг	-5488
▁тавдугаар	-5489
НД	-5490
▁аяга	-5491
▁төөр	-5492
доллар	-5493
▁булаа	-5494
нүүдийн	-5495
▁Гэртээ	-5496
▁үйлдсэн	-5497
▁хангасан	-5498
ӨӨ	-5499
com	-5500
лаач	-5501
▁Win	-5502
▁өгөг	-5503
▁Өөрсд	-5504
▁Манайх	-5505
▁тутамд	-5506
▁шигшээ	-5507
▁Хятадад	-5508
▁зайлсхий	-5509
▁шалтгаанаар	-5510
▁ХҮ	-5511
охыг	-5512
▁шүр	-5513
▁өрх	-5514
▁загас	-5515
тэйгээр	-5516
▁гараар	-5517
▁гэрэлт	-5518
▁махбод	-5519
▁нээрээ	-5520
▁унасан	-5521
▁гаргажээ	-5522
▁Оюутолгой	-5523
▁ардчилсан	-5524
▁өөрчлөгдөж	-5525
▁хом	-5526
▁саат	-5527
▁Хөдөө	-5528
▁зөрүү	-5529
▁хүсэх	-5530
▁эхлэв	-5531
▁үнээр	-5532
▁улирал	-5533
▁цохилт	-5534
▁зургийн	-5535
▁тоглодог	-5536
▁зохицуулах	-5537
ЕГ	-5538
гас	-5539
ерр	-5540
цэн	-5541
згий	-5542
▁сүү	-5543
эгддэг	-5544
▁Бүтээ	-5545
▁багадаа	-5546
▁явагдаж	-5547
▁өвөрмөц	-5548
▁сэтгүүлч	-5549
▁удирдлагын	-5550
▁холбоотойгоор	-5551
▁иж	-5552
длөө	-5553
омын	-5554
▁дов	-5555
▁Баян	-5556
▁ЭЗЭН	-5557
▁олиг	-5558
▁хори	-5559
▁яамны	-5560
▁Дотоод	-5561
▁алдарт	-5562
▁бутлах	-5563
▁болгонд	-5564
▁зарласан	-5565
▁нүүрсний	-5566
▁удирдлага	-5567
▁нэвтрүүлэг	-5568
▁=	-5569
галт	-5570
▁Каз	-5571
▁идсэн	-5572
▁Хуучин	-5573
▁эрсдэлтэй	-5574
▁Монголбанк	-5575
Эл	-5576
өч	-5577
раф	-5578
ынх	-5579
элэн	-5580
▁сэж	-5581
▁хош	-5582
▁анхаарлыг	-5583
▁мэдэгджээ	-5584
▁бүрэлдэхүүн	-5585
ѳѳ	-5586
▁Хөв	-5587
▁цас	-5588
▁ДАШТ	-5589
▁зарах	-5590
▁нэлээн	-5591
▁тэмцэж	-5592
▁хамрагдах	-5593
:1	-5594
AR	-5595
▁Q	-5596
цан	-5597
онгор	-5598
▁Араб	-5599
▁Техн	-5600
▁бүүр	-5601
▁хоцр	-5602
▁үгээ	-5603
▁Бараг	-5604
▁Манайд	-5605
▁харвал	-5606
▁цөмийн	-5607
▁байрлах	-5608
▁түүхэнд	-5609
▁ургамал	-5610
▁суралцаж	-5611
▁уламжлалт	-5612
▁тив	-5613
▁туй	-5614
▁илтг	-5615
▁Дахин	-5616
▁хүрнэ	-5617
▁эхийн	-5618
▁туршиж	-5619
үүлэхийг	-5620
▁цэнэтэй	-5621
▁зэрэгцээ	-5622
▁байгаагийн	-5623
▁хүүхдүүдийн	-5624
▁холбогдуулан	-5625
унк	-5626
▁1,	-5627
dows	-5628
▁Хая	-5629
▁Моск	-5630
▁Түүх	-5631
▁Өвөр	-5632
▁Агаар	-5633
▁механ	-5634
▁өгөгд	-5635
▁Дорнод	-5636
▁Тоглоо	-5637
▁тулгам	-5638
▁өвчтөн	-5639
▁амаргүй	-5640
▁зохиолч	-5641
▁бодлогыг	-5642
▁санагдаад	-5643
▁системийг	-5644
▁ашиглалтад	-5645
▁танилцуулж	-5646
мэг	-5647
▁авъя	-5648
▁чарм	-5649
▁авгай	-5650
▁төгрөгөөр	-5651
▁HD	-5652
адад	-5653
атур	-5654
▁Най	-5655
▁амс	-5656
▁урв	-5657
уулав	-5658
ээсэй	-5659
▁зург	-5660
▁гараг	-5661
▁оргил	-5662
ао	-5663
иур	-5664
****	-5665
ориг	-5666
▁евр	-5667
▁Амар	-5668
▁наадамд	-5669
▁хандсан	-5670
▁талаараа	-5671
▁явуулдаг	-5672
▁үндэстэн	-5673
▁зогсохгүй	-5674
▁онлайнаар	-5675
ate	-5676
▁ойн	-5677
өлдөө	-5678
▁Хаан	-5679
элтийн	-5680
▁Apple	-5681
▁Испан	-5682
▁алтан	-5683
▁орлоо	-5684
▁урагш	-5685
▁халамж	-5686
▁шаардаж	-5687
▁өргөдөл	-5688
УУЛ	-5689
гэг	-5690
лөж	-5691
▁36	-5692
лагад	-5693
▁Асууд	-5694
▁Таван	-5695
▁дарна	-5696
▁цэнэг	-5697
▁шүлэг	-5698
▁биедээ	-5699
▁маркет	-5700
▁хайрлах	-5701
▁санаатай	-5702
▁зарцуулах	-5703
25	-5704
вас	-5705
▁УБ	-5706
эхэн	-5707
▁өгчээ	-5708
▁Тэгэхэд	-5709
▁болгоомж	-5710
▁техникийн	-5711
▁уучлаарай	-5712
▁цэцэрлэгт	-5713
▁байгуулалт	-5714
ra	-5715
ts	-5716
ооно	-5717
удит	-5718
▁Орой	-5719
▁тунх	-5720
▁Нөхөр	-5721
үүлэхэд	-5722
▁Америкт	-5723
▁бодоход	-5724
▁холбоос	-5725
▁хүүхэлд	-5726
40	-5727
▁Дуу	-5728
▁сүнс	-5729
▁хамтр	-5730
▁дараахь	-5731
▁ойлголц	-5732
▁эрдэмтэд	-5733
ine	-5734
ууль	-5735
нээсээ	-5736
▁Жүжиг	-5737
▁иддэг	-5738
▁нэрээ	-5739
▁чадал	-5740
гүүдийн	-5741
▁авахын	-5742
▁сэтгэлээ	-5743
▁хүргэсэн	-5744
эб	-5745
▁iP	-5746
адар	-5747
▁жиш	-5748
▁зүү	-5749
▁эмх	-5750
▁Мөнх	-5751
▁зарж	-5752
▁сүйр	-5753
▁мэндэд	-5754
▁хэрүүл	-5755
▁ажилтай	-5756
▁машиныг	-5757
▁тогтоож	-5758
▁гэрчилгээ	-5759
▁үргэлжлэх	-5760
▁урамшуулал	-5761
ous	-5762
ард	-5763
▁жол	-5764
▁луу	-5765
илтын	-5766
▁Секс	-5767
▁дуулж	-5768
▁нуруу	-5769
▁хөнөө	-5770
▁жилээс	-5771
▁сууриа	-5772
▁хэрээр	-5773
▁асуусан	-5774
▁есдүгээр	-5775
▁суурьтай	-5776
▁байгууламж	-5777
▁хамтлагийн	-5778
▁Хад	-5779
▁Шар	-5780
ийгаа	-5781
▁Чамд	-5782
▁гүүр	-5783
▁устг	-5784
▁оновч	-5785
▁түмэнд	-5786
▁төрөөс	-5787
▁хийжээ	-5788
▁өнгөрч	-5789
▁буруутай	-5790
▁хамаатай	-5791
▁хуваарил	-5792
▁коронавирус	-5793
22	-5794
uck	-5795
▁об	-5796
▁юү	-5797
▁Бул	-5798
▁тааш	-5799
▁тонн	-5800
▁түйм	-5801
▁хянах	-5802
▁Дуучин	-5803
▁гайхаж	-5804
▁зурагт	-5805
▁тэжээл	-5806
▁хөдөлг	-5807
▁хүрээгүй	-5808
бил	-5809
ост	-5810
▁5.	-5811
▁to	-5812
вшин	-5813
▁толь	-5814
▁Замын	-5815
▁Хувийн	-5816
▁гэхээс	-5817
▁талбар	-5818
▁хуурай	-5819
▁гүнзгий	-5820
▁дээгүүр	-5821
▁түүхтэй	-5822
▁бололцоо	-5823
▁дөрөвдүгээр	-5824
))	-5825
уны	-5826
▁зорьж	-5827
▁хөлөг	-5828
гүүдийг	-5829
▁бүхнээ	-5830
▁хүүгээ	-5831
ЭД	-5832
▁Май	-5833
ашины	-5834
өөрэй	-5835
▁онош	-5836
нийхээ	-5837
▁амрах	-5838
▁чимэг	-5839
▁шатах	-5840
▁биенээ	-5841
▁Аймгийн	-5842
▁менежмент	-5843
gu	-5844
хаар	-5845
▁Муу	-5846
▁Оюу	-5847
▁Соё	-5848
гавар	-5849
▁нүүрс	-5850
▁Хуулийн	-5851
▁уучлалт	-5852
▁гаргалаа	-5853
▁мэдэгдэж	-5854
▁хэлэхгүй	-5855
▁даалгавар	-5856
▁хэвлэлийн	-5857
ВС	-5858
уяг	-5859
▁оё	-5860
тлөө	-5861
▁Төгс	-5862
▁үүсг	-5863
▁групп	-5864
▁саван	-5865
▁ялгар	-5866
▁амттай	-5867
▁Биднийг	-5868
▁нөөцийн	-5869
▁ороогүй	-5870
▁интернэт	-5871
▁гүйцэтгэж	-5872
▁нөлөөлсөн	-5873
▁сонгогдсон	-5874
▁бүртгэгдсэн	-5875
▁хөтөлбөрийг	-5876
5-	-5877
ft	-5878
ГА	-5879
est	-5880
▁st	-5881
цийг	-5882
▁Сүн	-5883
▁Хул	-5884
▁Хөөр	-5885
▁Шууд	-5886
▁эмийн	-5887
▁бүтээж	-5888
▁тансаг	-5889
▁тооцох	-5890
▁хилийн	-5891
▁тулгарч	-5892
▁шалгалтын	-5893
.00	-5894
ast	-5895
▁31	-5896
▁Яв	-5897
логч	-5898
▁цоо	-5899
▁(201	-5900
▁Тогт	-5901
▁үдэш	-5902
▁голын	-5903
▁кинон	-5904
▁илгээх	-5905
▁улирлын	-5906
▁хуурамч	-5907
▁жирэмсэн	-5908
▁зориулан	-5909
▁хэрэгжилт	-5910
qu	-5911
гон	-5912
эмт	-5913
▁Кон	-5914
▁Сэр	-5915
▁ром	-5916
естор	-5917
▁Аюул	-5918
▁хэвш	-5919
тэйгөө	-5920
▁даваа	-5921
▁дорой	-5922
▁эрхээ	-5923
▁өмнөд	-5924
▁тахлын	-5925
▁оновчтой	-5926
▁хамааран	-5927
▁~	-5928
rev	-5929
иор	-5930
гоос	-5931
▁195	-5932
▁Зар	-5933
▁Хөх	-5934
цэцэг	-5935
▁бүлг	-5936
▁Ангилал	-5937
▁зээлийг	-5938
▁уулзсан	-5939
▁цэвэрлэг	-5940
▁ялгаагүй	-5941
▁гаргахгүй	-5942
▁төлбөрийн	-5943
▁чиглэлийн	-5944
▁шалтгааныг	-5945
ерв	-5946
▁да	-5947
▁Оюун	-5948
▁асан	-5949
▁гард	-5950
▁функ	-5951
▁гэтэл	-5952
▁эмгэн	-5953
▁дизайн	-5954
▁төсөвт	-5955
▁бодитой	-5956
▁дэмжсэн	-5957
▁сэтгэлтэй	-5958
▁хүсэлтийг	-5959
▁хөтөлбөрт	-5960
▁жагсаалтыг	-5961
▁тэдгээрийг	-5962
▁Зав	-5963
▁тох	-5964
▁цам	-5965
ацтай	-5966
▁боом	-5967
▁Эндээс	-5968
▁хэрэгл	-5969
▁зөвшөөрөх	-5970
▁Тодруулбал	-5971
▁ойролцоогоор	-5972
▁12-	-5973
▁жар	-5974
▁Home	-5975
▁дээл	-5976
▁месс	-5977
огчийн	-5978
тэлгүй	-5979
▁үгийн	-5980
▁албанд	-5981
▁гарвал	-5982
▁нийслэлийн	-5983
▁удирдлагууд	-5984
▁өөрчлөлтийг	-5985
дөж	-5986
ууц	-5987
▁32	-5988
Хүүх	-5989
олон	-5990
▁15-	-5991
▁даж	-5992
▁яруу	-5993
өгчийн	-5994
▁Намын	-5995
▁гадаг	-5996
▁далай	-5997
▁засал	-5998
▁театр	-5999
▁эхэнд	-6000
▁үхсэн	-6001
нүүдийг	-6002
▁Баруун	-6003
▁доторх	-6004
▁нүдэнд	-6005
▁дэвшигч	-6006
▁чиглэлд	-6007
▁ярилцах	-6008
▁талархаж	-6009
▁төлөвлөсөн	-6010
ль	-6011
лик	-6012
▁Sh	-6013
абор	-6014
гээе	-6015
лонг	-6016
эхээ	-6017
▁гээ	-6018
▁Удир	-6019
▁сунг	-6020
▁айдаг	-6021
▁тосны	-6022
жуулагч	-6023
▁нарийв	-6024
▁сурагч	-6025
▁тунхаг	-6026
▁хийвэл	-6027
▁үүсгэн	-6028
чилгааны	-6029
▁өгөхийг	-6030
▁Бурханыг	-6031
▁жижигхэн	-6032
▁өнөөдрийг	-6033
▁байгуулалтын	-6034
▁Эрд	-6035
▁шун	-6036
▁буян	-6037
▁нэвт	-6038
▁ордны	-6039
▁дараал	-6040
▁рүүгээ	-6041
▁суурин	-6042
▁орлогын	-6043
▁өрсөлдөх	-6044
▁хамтарсан	-6045
▁тодорхойлолт	-6046
ГҮЙ	-6047
Улс	-6048
луу	-6049
хэгт	-6050
▁Ашиг	-6051
▁голд	-6052
чихвал	-6053
▁уулын	-6054
▁Нэгэнт	-6055
▁олдсон	-6056
▁явдлын	-6057
▁Жинхэнэ	-6058
▁иргэдээ	-6059
▁тэвчээр	-6060
▁хүндрэл	-6061
▁Христийн	-6062
▁хэлээгүй	-6063
▁хүмүүсээ	-6064
▁борлуулах	-6065
▁тоглолтын	-6066
▁хажуугаар	-6067
▁аян	-6068
шгийн	-6069
энхэр	-6070
▁заяа	-6071
▁саар	-6072
▁тийш	-6073
▁цаад	-6074
хэндээ	-6075
▁зовох	-6076
▁учрыг	-6077
▁өвгөн	-6078
▁илтгэл	-6079
▁таагүй	-6080
▁өөрийг	-6081
▁өнгөтэй	-6082
▁хэлснээр	-6083
▁хугацаатай	-6084
Йор	-6085
лого	-6086
▁the	-6087
алдах	-6088
үүлэв	-6089
▁Турк	-6090
▁осол	-6091
▁хаал	-6092
▁ногоо	-6093
▁үеийг	-6094
▁Шилдэг	-6095
▁амьтад	-6096
▁эргэлт	-6097
▁дундаас	-6098
▁таарсан	-6099
▁Холбооны	-6100
▁гайхамшигтай	-6101
oc	-6102
лад	-6103
рөөс	-6104
▁ЖДҮ	-6105
▁жим	-6106
дөггүй	-6107
▁ардын	-6108
▁насыг	-6109
▁хавар	-6110
▁хүчил	-6111
▁Үргэл	-6112
▁ордонд	-6113
▁борлуул	-6114
▁ирэхээр	-6115
▁охинтой	-6116
▁түүхийн	-6117
▁хуралдаан	-6118
▁телевизийн	-6119
▁зориулагдсан	-6120
ry	-6121
▁цу	-6122
чдод	-6123
▁Алд	-6124
▁2005	-6125
▁зардлыг	-6126
▁санааны	-6127
▁хаагчид	-6128
▁байснаас	-6129
▁Улаанбаат	-6130
▁үзэсгэлэнтэй	-6131
Гэр	-6132
Хам	-6133
дам	-6134
ганд	-6135
▁Ази	-6136
▁Жич	-6137
▁зэс	-6138
лахыг	-6139
▁ачаа	-6140
▁хаха	-6141
▁Олимп	-6142
▁хоёул	-6143
▁юманд	-6144
▁дээрэм	-6145
▁жоохон	-6146
▁нилээд	-6147
▁хорвоо	-6148
▁тушаалт	-6149
▁шалтгаал	-6150
▁амжилтанд	-6151
▁суурилсан	-6152
▁байгаагаас	-6153
.)	-6154
ill	-6155
гэш	-6156
раа	-6157
Амар	-6158
адан	-6159
лоно	-6160
▁Нүд	-6161
▁ноён	-6162
▁онол	-6163
▁тоос	-6164
▁цохи	-6165
▁Алтан	-6166
▁Путин	-6167
▁сургаа	-6168
▁хоолоо	-6169
▁Өдрийн	-6170
▁чадварыг	-6171
▁байгаасай	-6172
▁тохиолдсон	-6173
▁шалгаруулалт	-6174
ED	-6175
▁Ег	-6176
▁музей	-6177
▁олоод	-6178
▁салах	-6179
▁өртөг	-6180
▁гаригт	-6181
▁ажиллаг	-6182
▁сонгоно	-6183
▁тойронд	-6184
▁удирдаж	-6185
▁хувьдаа	-6186
▁зоригтой	-6187
▁жагсаалтад	-6188
лас	-6189
▁Эв	-6190
▁Нут	-6191
▁зул	-6192
лодог	-6193
лүүлж	-6194
лүүлнэ	-6195
үүлийн	-6196
▁Шаард	-6197
▁бичнэ	-6198
▁өдгөө	-6199
▁прокур	-6200
▁химийн	-6201
▁бэлтгэх	-6202
▁хүртсэн	-6203
▁эзэмших	-6204
▁элемент	-6205
▁хөдөлмөрийн	-6206
▁хариуцлагатай	-6207
нах	-6208
чуур	-6209
▁Эмч	-6210
▁түү	-6211
▁өсч	-6212
▁чийг	-6213
▁шавь	-6214
▁өмчл	-6215
▁Ариун	-6216
▁утсаа	-6217
▁барилг	-6218
▁өвчтэй	-6219
▁Хөрөнгө	-6220
▁солонгос	-6221
▁хүсээгүй	-6222
▁ертөнцийг	-6223
▁хайрладаг	-6224
▁жуулчлалын	-6225
.4	-6226
ьц	-6227
ess	-6228
Бай	-6229
Нам	-6230
енн	-6231
хэд	-6232
▁Гиш	-6233
▁эрэл	-6234
▁өрөв	-6235
▁шилжих	-6236
антолгой	-6237
▁Windows	-6238
▁зүйлээс	-6239
▁санаачил	-6240
▁санагдана	-6241
▁тодорхойлж	-6242
▁хүүхдүүдийг	-6243
Цаг	-6244
хой	-6245
▁хэмж	-6246
▁хүүг	-6247
▁Энгийн	-6248
▁суудал	-6249
▁хийлгэх	-6250
▁шинжтэй	-6251
▁өнгөрөх	-6252
▁тухайгаа	-6253
▁тэмдэглэх	-6254
▁зориулалттай	-6255
▁ЭМ	-6256
дорж	-6257
умын	-6258
▁Фил	-6259
▁цүн	-6260
▁хийд	-6261
▁азтай	-6262
▁намар	-6263
▁энийг	-6264
▁яриаг	-6265
▁уучлал	-6266
▁эрхтэн	-6267
үүлээгүй	-6268
Элбэгдорж	-6269
▁амжаагүй	-6270
▁хагалгаа	-6271
▁аймшигтай	-6272
▁холбогдож	-6273
лай	-6274
Өөр	-6275
гэнд	-6276
▁кур	-6277
▁рад	-6278
.....	-6279
▁Лонд	-6280
хангай	-6281
▁аваач	-6282
▁тулал	-6283
▁үзлээ	-6284
▁тэрхүү	-6285
▁хэлийг	-6286
▁шинжээ	-6287
▁цөөнгүй	-6288
▁харахгүй	-6289
Хүн	-6290
▁даав	-6291
▁санс	-6292
▁хөрв	-6293
▁Гурав	-6294
▁тийшээ	-6295
▁хэлчих	-6296
▁хүчийг	-6297
аборатор	-6298
▁стандар	-6299
▁тэнцвэр	-6300
▁хүртлээ	-6301
▁Энэтхэгт	-6302
▁талаархи	-6303
▁байгуулна	-6304
▁ажиллуулах	-6305
▁урьдчилсан	-6306
ung	-6307
тгал	-6308
▁Нэм	-6309
одоод	-6310
оциал	-6311
▁малт	-6312
▁элэг	-6313
▁таних	-6314
▁ямагт	-6315
▁баахан	-6316
▁тохиол	-6317
▁хэлэлцүүл	-6318
▁хөнгөлөлт	-6319
▁болгоомжтой	-6320
▁хөдөлгөөний	-6321
are	-6322
агц	-6323
▁НӨ	-6324
▁ог	-6325
####	-6326
айлт	-6327
инээ	-6328
айхан	-6329
амдах	-6330
иценз	-6331
орсон	-6332
▁Болз	-6333
▁байг	-6334
▁япон	-6335
▁Видео	-6336
▁өмсөх	-6337
▁Гэрийн	-6338
▁дамжин	-6339
▁хайрын	-6340
▁хичээх	-6341
▁хэрвээ	-6342
▁үүсгэж	-6343
▁тогооны	-6344
▁төсөөлж	-6345
▁мөнгөтэй	-6346
▁харилцах	-6347
▁чадалтай	-6348
-3	-6349
="	-6350
ail	-6351
▁Юм	-6352
мнэл	-6353
▁Даг	-6354
▁Дүр	-6355
▁Мак	-6356
▁Хов	-6357
▁Хүч	-6358
▁хир	-6359
▁....	-6360
▁хашг	-6361
▁гадар	-6362
▁дурьд	-6363
▁хөгжл	-6364
▁хөгшин	-6365
▁ярьжээ	-6366
▁алдагдал	-6367
▁программ	-6368
▁хүчингүй	-6369
▁судлаачид	-6370
▁амьдралынхаа	-6371
▁байгууллагаас	-6372
ерм	-6373
▁ак	-6374
▁100%	-6375
▁есөн	-6376
▁холд	-6377
▁хүмүү	-6378
▁Асуулт	-6379
▁баталж	-6380
▁охиныг	-6381
▁тусмаа	-6382
▁түүхий	-6383
▁барьцаа	-6384
▁зогсоол	-6385
▁суурийг	-6386
▁хуваарь	-6387
▁бичлэгийг	-6388
▁халдварын	-6389
▁тохиолддог	-6390
иаг	-6391
▁Ус	-6392
гэлт	-6393
зүйн	-6394
слан	-6395
▁сөх	-6396
▁шаг	-6397
▁амин	-6398
▁утаа	-6399
лагддаг	-6400
▁Хэрхэн	-6401
▁бусаар	-6402
▁хуримт	-6403
▁хөгжих	-6404
▁Нэгдсэн	-6405
▁инженер	-6406
▁хийхдээ	-6407
▁агентлаг	-6408
▁асуултад	-6409
▁гэрээний	-6410
▁тэмцээний	-6411
▁өөрсдийнхөө	-6412
end	-6413
Мэд	-6414
▁Үл	-6415
▁Өд	-6416
айны	-6417
лөөр	-6418
▁БАЙ	-6419
билэг	-6420
огоон	-6421
чимэг	-6422
▁Долоо	-6423
▁буцаан	-6424
▁даргыг	-6425
▁Британи	-6426
▁Тайлбар	-6427
▁амгалан	-6428
▁дуусгах	-6429
▁маягаар	-6430
▁оролдож	-6431
▁хайрцаг	-6432
▁худалдах	-6433
▁парламент	-6434
▁ерөнхийдөө	-6435
if	-6436
ain	-6437
аци	-6438
аяа	-6439
вад	-6440
▁48	-6441
▁Даш	-6442
▁Тар	-6443
▁гаш	-6444
▁Юуны	-6445
▁авир	-6446
▁гуйж	-6447
▁жимс	-6448
▁өгвөл	-6449
▁дуугүй	-6450
▁хосууд	-6451
▁асуухад	-6452
▁байхаас	-6453
▁мөртлөө	-6454
▁тогтоогд	-6455
▁сонгуулиар	-6456
▁хэрэглэсэн	-6457
▁хэрэгслийн	-6458
▁хөтөлбөрийн	-6459
24	-6460
ct	-6461
ми	-6462
баа	-6463
▁09	-6464
▁up	-6465
▁ХӨ	-6466
сэнд	-6467
шсан	-6468
▁арв	-6469
▁гац	-6470
истан	-6471
октор	-6472
▁огцр	-6473
▁хааяа	-6474
▁хянаж	-6475
▁Онлайн	-6476
▁Толгой	-6477
▁нэрлэж	-6478
▁шингэн	-6479
▁өвлийн	-6480
▁удирдаг	-6481
▁хөгжилд	-6482
▁тэдэнтэй	-6483
▁өгүүлбэр	-6484
▁төлбөргүй	-6485
▁таалагдсан	-6486
▁боловсруулж	-6487
Их	-6488
хуу	-6489
▁пл	-6490
длоо	-6491
▁Бээж	-6492
▁нуур	-6493
▁нүүд	-6494
▁нүдээ	-6495
▁хүчээ	-6496
▁эдгэр	-6497
▁мэдээг	-6498
▁нэгдэж	-6499
олдугаар	-6500
үүлэхгүй	-6501
▁буурсан	-6502
▁захидал	-6503
▁илэрсэн	-6504
▁шийтгэл	-6505
▁Хөгжлийн	-6506
io	-6507
үж	-6508
асс	-6509
лин	-6510
▁Өс	-6511
лууд	-6512
▁зөг	-6513
▁уна	-6514
▁хуц	-6515
▁нутг	-6516
▁өвчл	-6517
лолтын	-6518
▁Захир	-6519
▁Хэдий	-6520
▁үзлэг	-6521
▁өгөөж	-6522
▁Дөрвөн	-6523
▁Мөнгөн	-6524
▁Онцгой	-6525
▁батлан	-6526
▁оролдл	-6527
▁өглөөний	-6528
лий	-6529
нын	-6530
хаан	-6531
эвэл	-6532
▁урс	-6533
▁Miss	-6534
▁Байр	-6535
▁Егип	-6536
▁бүлд	-6537
▁заал	-6538
▁ногд	-6539
▁хээр	-6540
лэгчийн	-6541
▁байрыг	-6542
▁гарган	-6543
▁дүүрэг	-6544
▁жилийг	-6545
▁мартаж	-6546
▁мэдээд	-6547
▁юунаас	-6548
▁удалгүй	-6549
▁Тодорхой	-6550
▁мэдлэгтэй	-6551
60	-6552
OLO	-6553
воо	-6554
▁Зо	-6555
▁Тун	-6556
иараа	-6557
аалийн	-6558
▁биеэр	-6559
▁ярина	-6560
▁үнэлж	-6561
▁алджээ	-6562
агдаагүй	-6563
▁тохирох	-6564
▁хэрэглэнэ	-6565
▁тайлбарлах	-6566
▁мэргэжилтнүүд	-6567
18	-6568
зар	-6569
▁33	-6570
лэлд	-6571
▁шарх	-6572
галтын	-6573
▁дундж	-6574
▁ороход	-6575
▁туршлаг	-6576
▁утгагүй	-6577
▁ажиллаад	-6578
▁санагдах	-6579
▁үйлдлийг	-6580
▁төрөлхтний	-6581
▁төхөөрөмжийн	-6582
ie	-6583
ым	-6584
Нар	-6585
▁зэм	-6586
үүгийн	-6587
▁зөрчл	-6588
▁орчих	-6589
▁үгэнд	-6590
▁Дархан	-6591
▁бодлыг	-6592
▁танилцуулах	-6593
0)	-6594
ИД	-6595
ect	-6596
гор	-6597
▁кр	-6598
▁Өө	-6599
гайл	-6600
шийн	-6601
▁Син	-6602
▁YOLO	-6603
▁амны	-6604
▁амийг	-6605
▁европ	-6606
▁сувил	-6607
▁нүдний	-6608
▁чулуун	-6609
▁монголд	-6610
▁нэвтрэх	-6611
▁хүндтэй	-6612
▁төвөгтэй	-6613
▁арилжааны	-6614
▁бүрдүүлэх	-6615
▁харилцаанд	-6616
▁хүүхдүүдээ	-6617
тү	-6618
ьё	-6619
раг	-6620
▁II	-6621
▁ис	-6622
угаа	-6623
▁30-	-6624
▁зүр	-6625
▁буйг	-6626
алтаар	-6627
дахгүй	-6628
доогүй	-6629
▁үйлдл	-6630
▁үлдэж	-6631
▁Амжилт	-6632
▁дуудаж	-6633
▁журмын	-6634
▁тохиож	-6635
▁чамаас	-6636
Монголын	-6637
▁түрүүлж	-6638
▁үүргийг	-6639
▁Манайхан	-6640
▁хараагүй	-6641
▁чиглэсэн	-6642
▁хүндэтгэл	-6643
▁сургуулиуд	-6644
жим	-6645
▁баа	-6646
▁хун	-6647
▁хут	-6648
ийтэй	-6649
▁Уран	-6650
▁бөмб	-6651
▁шилэн	-6652
▁шувуу	-6653
▁ёслол	-6654
▁өнөөх	-6655
▁зорчих	-6656
▁мужийн	-6657
▁багтсан	-6658
▁Австрали	-6659
og	-6660
Бү	-6661
хр	-6662
▁ив	-6663
▁Мор	-6664
▁Цар	-6665
▁залг	-6666
▁үйлс	-6667
▁зарлаж	-6668
▁казино	-6669
▁төсөлд	-6670
▁болгоод	-6671
▁мэдээгүй	-6672
▁уралдаан	-6673
▁Ха	-6674
▁Үг	-6675
снээ	-6676
▁Хөт	-6677
ангар	-6678
▁Уулз	-6679
▁салж	-6680
▁эрин	-6681
▁Санал	-6682
▁мэдэг	-6683
▁олонх	-6684
▁орныг	-6685
▁таарч	-6686
▁томъё	-6687
▁өрнөж	-6688
лагдлаа	-6689
▁охиноо	-6690
▁туйлын	-6691
▁уншигч	-6692
▁өнгийн	-6693
▁даргаар	-6694
▁мэдээлж	-6695
▁найдвар	-6696
▁цаашдаа	-6697
▁бүтэлгүй	-6698
▁төдийлөн	-6699
▁сэтгэлгээ	-6700
,,	-6701
19	-6702
окс	-6703
▁Al	-6704
▁ХА	-6705
Болд	-6706
▁Нис	-6707
▁айр	-6708
▁инд	-6709
▁таш	-6710
▁цал	-6711
гуулж	-6712
▁1990	-6713
▁ороо	-6714
▁ачаар	-6715
▁зурсан	-6716
▁импорт	-6717
▁утгаар	-6718
▁хариуг	-6719
▁Иргэний	-6720
▁буудлын	-6721
▁ухамсар	-6722
▁үйлчлэх	-6723
▁бодохгүй	-6724
▁уламжлал	-6725
Эм	-6726
Эх	-6727
▁e	-6728
▁иш	-6729
▁Ким	-6730
▁арч	-6731
▁чир	-6732
чилэн	-6733
▁Эрхэм	-6734
▁шүүлт	-6735
▁авчрах	-6736
▁сайжир	-6737
▁болохын	-6738
▁тусалдаг	-6739
▁татгалзах	-6740
/0	-6741
2-	-6742
тоо	-6743
хов	-6744
▁Аб	-6745
удын	-6746
сноор	-6747
▁адуу	-6748
▁үерх	-6749
omment	-6750
агдлаа	-6751
▁таньж	-6752
Өнөөдөр	-6753
▁Ардчил	-6754
▁ажлаас	-6755
▁хүндээ	-6756
▁Африкийн	-6757
▁загварыг	-6758
▁Ерөнхийдөө	-6759
▁судалгаагаар	-6760
▁боловсруулсан	-6761
▁k	-6762
дад	-6763
хин	-6764
єєр	-6765
Шинэ	-6766
овид	-6767
▁Чад	-6768
эцийн	-6769
▁Зөвл	-6770
▁горим	-6771
▁малын	-6772
▁насаа	-6773
▁тархи	-6774
▁туулж	-6775
▁барина	-6776
▁мөрдөн	-6777
▁тэнгис	-6778
▁хандан	-6779
лэгчдийн	-6780
▁байрладаг	-6781
oun	-6782
аха	-6783
▁IP	-6784
тгон	-6785
шина	-6786
▁мэх	-6787
▁хэз	-6788
▁үүл	-6789
Танай	-6790
▁Болд	-6791
▁Гүйц	-6792
▁байя	-6793
▁баяж	-6794
▁хавь	-6795
▁ашигт	-6796
▁дэмжиг	-6797
▁мөрдөх	-6798
▁тавина	-6799
▁харлаа	-6800
▁ачаалал	-6801
▁сэдвээр	-6802
▁тууштай	-6803
▁хийгдэж	-6804
▁дураараа	-6805
▁сурагчид	-6806
▁үүнийгээ	-6807
▁төлбөрийг	-6808
пур	-6809
цын	-6810
▁Ня	-6811
нэгт	-6812
▁Амь	-6813
▁бан	-6814
▁илт	-6815
▁кор	-6816
ошиал	-6817
▁Авлиг	-6818
▁Чухам	-6819
▁Чөлөө	-6820
▁салхи	-6821
▁ямарч	-6822
▁олноор	-6823
▁хацарт	-6824
▁хүртэх	-6825
▁хүртээ	-6826
▁эрдэнэ	-6827
▁тоогоор	-6828
▁тусална	-6829
▁Жүжигчин	-6830
▁багасгах	-6831
▁мэдэгдэх	-6832
▁хэлэлцүүлэг	-6833
▁шалгаруулах	-6834
ЭХ	-6835
▁бх	-6836
екст	-6837
сдөг	-6838
сөөр	-6839
▁эвл	-6840
▁2004	-6841
▁унах	-6842
мунист	-6843
үүдтэй	-6844
▁Эмнэл	-6845
▁болих	-6846
▁болсн	-6847
▁үүсэх	-6848
Нямдорж	-6849
члаарай	-6850
▁Тэдэнд	-6851
▁Эцсийн	-6852
▁бүхэлд	-6853
▁тойрон	-6854
▁тэмцэл	-6855
▁ээлтэй	-6856
▁хураамж	-6857
▁Монголыг	-6858
▁гэрээсээ	-6859
▁тамирчид	-6860
▁тогтоомж	-6861
▁борлуулалт	-6862
▁эмчилгээний	-6863
ah	-6864
СҮТ	-6865
ъяа	-6866
▁яс	-6867
▁Дол	-6868
▁Чан	-6869
▁уян	-6870
үүлье	-6871
▁дамп	-6872
▁тэмд	-6873
▁чимээ	-6874
▁карьер	-6875
▁тантай	-6876
үүлээрэй	-6877
▁Английн	-6878
▁дуулсан	-6879
▁хүлээлт	-6880
▁Иргэдийн	-6881
▁зүйлсийн	-6882
▁олборлох	-6883
▁Мэдээллийн	-6884
▁аравдугаар	-6885
▁парламентын	-6886
▁хандлагатай	-6887
жав	-6888
▁2,	-6889
▁Ув	-6890
▁Mac	-6891
▁ёсл	-6892
ээлээ	-6893
▁хаах	-6894
▁өгөв	-6895
▁өргө	-6896
▁Итали	-6897
▁аудит	-6898
▁янзын	-6899
▁дүгнэж	-6900
▁золиос	-6901
▁нотлох	-6902
▁сандал	-6903
▁чамтай	-6904
▁явсаар	-6905
▁дуустал	-6906
▁зорьсон	-6907
▁зургууд	-6908
▁дараалан	-6909
15	-6910
OS	-6911
жр	-6912
▁Ду	-6913
▁Си	-6914
▁ТУ	-6915
▁тем	-6916
▁хаз	-6917
▁Браз	-6918
▁валю	-6919
▁туур	-6920
▁ахлах	-6921
▁хөшөө	-6922
▁яадаг	-6923
▁мөрийн	-6924
▁биелүүлж	-6925
▁нөлөөтэй	-6926
▁төлөөлөл	-6927
▁хуудсууд	-6928
▁компаниудын	-6929
▁мэргэжилтэн	-6930
▁хугацаандаа	-6931
АУ	-6932
age	-6933
дав	-6934
▁34	-6935
▁193	-6936
▁Хил	-6937
измын	-6938
▁овоо	-6939
▁цааз	-6940
▁үхэр	-6941
агцхүү	-6942
уудаар	-6943
▁Арван	-6944
▁унтах	-6945
▁дайсан	-6946
▁лиценз	-6947
▁рестор	-6948
▁шийднэ	-6949
▁албагүй	-6950
▁гарахад	-6951
▁зовлонг	-6952
▁торгуул	-6953
▁харагдахгүй	-6954
оч	-6955
нэн	-6956
▁Са	-6957
уурч	-6958
▁2-3	-6959
▁Сам	-6960
▁гах	-6961
▁нүц	-6962
▁сэн	-6963
Улаан	-6964
эгдлээ	-6965
▁бүсэд	-6966
▁одоог	-6967
▁оройн	-6968
▁хожим	-6969
▁буцаад	-6970
▁бүсийн	-6971
▁хараат	-6972
▁хөдлөл	-6973
▁цэнгэл	-6974
▁орныхоо	-6975
▁Барилгын	-6976
▁болгохын	-6977
▁дипломат	-6978
▁танихгүй	-6979
▁компанийг	-6980
▁хариуцсан	-6981
▁хамрагдсан	-6982
ОГ	-6983
ian	-6984
лип	-6985
▁хуй	-6986
төрийн	-6987
▁Цалин	-6988
▁дохио	-6989
▁орхиж	-6990
▁багаар	-6991
▁нараас	-6992
▁хийчих	-6993
үүлэхээр	-6994
▁түвшний	-6995
▁хуудсыг	-6996
▁материалыг	-6997
ice	-6998
▁Bl	-6999
▁Об	-7000
▁Шү	-7001
ахан	-7002
шинз	-7003
▁Хож	-7004
уулъя	-7005
▁болх	-7006
▁нарны	-7007
▁сэжиг	-7008
▁Заавал	-7009
▁Шударга	-7010
▁Эрдэнэт	-7011
▁орхисон	-7012
▁чуулганы	-7013
▁шинэчлэл	-7014
▁үйлдлийн	-7015
▁байгаадаа	-7016
▁найруулагч	-7017
▁стратегийн	-7018
▁Хөдөлмөрийн	-7019
Хур	-7020
▁38	-7021
авал	-7022
илын	-7023
▁Дон	-7024
▁нүх	-7025
▁фор	-7026
▁Охид	-7027
▁хөөц	-7028
▁эрэг	-7029
гээгүй	-7030
▁олдог	-7031
▁түрүү	-7032
▁хөндл	-7033
▁цомог	-7034
▁сайтын	-7035
▁толгойд	-7036
▁хөвгүүд	-7037
▁үлдээсэн	-7038
▁амьсгалын	-7039
▁боломжийн	-7040
▁харилцааг	-7041
▁хөрөнгийг	-7042
▁өрсөлдөгч	-7043
▁Эмэгтэйчүүд	-7044
▁зөвшөөрөхгүй	-7045
:3	-7046
ти	-7047
ийж	-7048
мөөр	-7049
▁Пак	-7050
▁зүс	-7051
анаас	-7052
уужин	-7053
▁НӨАТ	-7054
▁гоол	-7055
лэлийг	-7056
▁үзүүр	-7057
▁авчирч	-7058
▁дурлал	-7059
▁тангар	-7060
▁ярилаа	-7061
▁Есүсийн	-7062
▁Цаашдаа	-7063
▁бөхчүүд	-7064
▁хүснэгт	-7065
чирхалтай	-7066
▁зохистой	-7067
▁Амьдралын	-7068
▁тэдгээрийн	-7069
▁үйлчлүүлэг	-7070
▁хөлбөмбөгийн	-7071
шн	-7072
ity	-7073
тыг	-7074
ианы	-7075
елийн	-7076
▁конт	-7077
▁багаж	-7078
▁гариг	-7079
▁морил	-7080
▁нийлж	-7081
▁Египет	-7082
▁гэмээр	-7083
▁төлсөн	-7084
▁Хайртай	-7085
▁бүтээгд	-7086
▁засгийг	-7087
▁зүйлгүй	-7088
▁олигтой	-7089
▁сонсдог	-7090
▁цэргүүд	-7091
▁хэрэгцээг	-7092
▁Австралийн	-7093
▁байгууллагуудын	-7094
ber	-7095
исан	-7096
огоо	-7097
▁400	-7098
▁Хос	-7099
ацгаа	-7100
ингоо	-7101
өтгөр	-7102
Тэгвэл	-7103
▁Эрчим	-7104
▁бясал	-7105
▁даргад	-7106
▁нартаа	-7107
▁санаач	-7108
▁талууд	-7109
▁сүүлээр	-7110
▁экспорт	-7111
▁явахдаа	-7112
▁нутагтаа	-7113
▁хувилбарыг	-7114
▁хэрэглэгчдийн	-7115
▁and	-7116
▁Мод	-7117
▁Гоол	-7118
▁хэлм	-7119
▁Афган	-7120
▁асуув	-7121
▁хавдр	-7122
▁шууги	-7123
▁ашгийн	-7124
▁нээсэн	-7125
▁туслал	-7126
▁Ирээдүй	-7127
▁болгоом	-7128
▁тохиргоо	-7129
▁төлөвтэй	-7130
▁хүргэдэг	-7131
▁үндэслэн	-7132
▁тодруулах	-7133
▁эхлүүлсэн	-7134
▁Хоёрдугаарт	-7135
уз	-7136
орд	-7137
▁мөх	-7138
еррор	-7139
иотой	-7140
өхийн	-7141
▁Ёстой	-7142
▁бүлээ	-7143
▁шанал	-7144
ператур	-7145
▁бүгдэд	-7146
▁дахинд	-7147
▁заслын	-7148
▁зүтгэл	-7149
▁орчныг	-7150
▁яригдаж	-7151
▁мэдэрдэг	-7152
▁хамгаалагч	-7153
ff	-7154
хөө	-7155
эвс	-7156
▁re	-7157
адын	-7158
шдээ	-7159
эмгий	-7160
▁зүйр	-7161
▁түрх	-7162
▁фото	-7163
гуудын	-7164
▁бусын	-7165
уулахын	-7166
▁очиход	-7167
▁үүнтэй	-7168
гадугаар	-7169
▁Ямартай	-7170
▁гаднаас	-7171
▁ирэхийг	-7172
▁ярихгүй	-7173
▁бүрдүүлж	-7174
▁танилцаж	-7175
▁болчихлоо	-7176
▁болчихоод	-7177
▁төлөвлөгөөг	-7178
ББ	-7179
єх	-7180
ийр	-7181
азар	-7182
дээд	-7183
емат	-7184
▁Арх	-7185
▁муур	-7186
▁Бодит	-7187
▁МАНАН	-7188
▁Сэлэн	-7189
▁дотны	-7190
▁ордон	-7191
▁тэжээ	-7192
▁хотыг	-7193
▁чинээ	-7194
▁мэргэн	-7195
▁цагтаа	-7196
▁Тиймдээ	-7197
▁бүсгүйн	-7198
▁нээлтээ	-7199
▁тэднээс	-7200
▁хулгайл	-7201
▁хөөцөлд	-7202
▁хамгаалалтын	-7203
-20	-7204
wit	-7205
өөе	-7206
▁75	-7207
▁Pl	-7208
лоод	-7209
▁Son	-7210
▁Богд	-7211
▁Укра	-7212
▁тэвр	-7213
▁түлш	-7214
▁Төмөр	-7215
▁алтны	-7216
▁зуунд	-7217
▁Шинээр	-7218
▁алдааг	-7219
▁амьтны	-7220
▁сайхныг	-7221
▁өчүүхэн	-7222
▁оролцогч	-7223
▁сэтгэлээр	-7224
▁танилцуулга	-7225
13	-7226
ud	-7227
▁дэ	-7228
Олон	-7229
алай	-7230
гдаж	-7231
▁Буд	-7232
▁Шөн	-7233
▁орц	-7234
▁түш	-7235
айгаа	-7236
▁Prev	-7237
▁дүрд	-7238
▁цээж	-7239
▁нүгэл	-7240
▁олонд	-7241
▁элбэг	-7242
▁оршдог	-7243
▁Нийслэл	-7244
▁Энхбаяр	-7245
▁айлчлал	-7246
▁арилжаа	-7247
▁зогсоож	-7248
▁хэргээр	-7249
▁манайхан	-7250
▁талаасаа	-7251
▁талархал	-7252
▁төгсгөлд	-7253
▁Сүхбаатар	-7254
▁хувьцааны	-7255
▁үргэлжилнэ	-7256
▁анхааралтай	-7257
▁үйлчлүүлэгч	-7258
70	-7259
ht	-7260
oy	-7261
ОМ	-7262
ӨХ	-7263
Тэд	-7264
Уул	-7265
ирт	-7266
▁тэ	-7267
Ямар	-7268
аарх	-7269
шилж	-7270
▁150	-7271
▁Кин	-7272
▁Мат	-7273
▁гомд	-7274
▁дүрв	-7275
▁оржээ	-7276
▁авлага	-7277
▁гэрлэх	-7278
▁дажгүй	-7279
▁журмыг	-7280
▁тэсвэр	-7281
▁байдлаа	-7282
▁өрөөний	-7283
лагдаагүй	-7284
▁Иймэрхүү	-7285
▁авчирсан	-7286
▁гаргахад	-7287
▁татгалзаж	-7288
14	-7289
єг	-7290
our	-7291
уйц	-7292
▁Ос	-7293
адем	-7294
▁Шүү	-7295
▁нух	-7296
лэлээ	-7297
▁Post	-7298
▁Блог	-7299
▁төсл	-7300
▁үүрд	-7301
▁Хаана	-7302
▁будаа	-7303
▁явган	-7304
▁Тэгтэл	-7305
▁алчуур	-7306
▁дэвшил	-7307
▁асуулга	-7308
▁доромжл	-7309
▁хувьтай	-7310
▁бодохоор	-7311
▁хийгээрэй	-7312
▁хуваалцах	-7313
▁өөрчилсөн	-7314
▁автомашины	-7315
▁таалагддаг	-7316
az	-7317
▁→	-7318
Ний	-7319
УУД	-7320
инк	-7321
исын	-7322
ойлг	-7323
▁Евр	-7324
▁арав	-7325
▁хөлд	-7326
лалтын	-7327
Өдрийн	-7328
▁iPhone	-7329
▁тойрог	-7330
▁хайрыг	-7331
▁илүүтэй	-7332
▁статист	-7333
▁салбарыг	-7334
▁өмгөөлөгч	-7335
▁хөдөлгөөнийг	-7336
Ан	-7337
ist	-7338
чинд	-7339
гапур	-7340
▁Март	-7341
▁мань	-7342
▁харв	-7343
▁Сүүлд	-7344
▁осолд	-7345
▁хасах	-7346
жилтийн	-7347
▁тооцож	-7348
▁Өөртөө	-7349
▁буудалд	-7350
▁тайланг	-7351
▁хураалт	-7352
▁Хүрэлсүх	-7353
▁чөлөөлөх	-7354
▁Компьютер	-7355
▁Элбэгдорж	-7356
▁харгалзан	-7357
▁үндэстний	-7358
▁хэрэгслийг	-7359
▁эсэргүүцэж	-7360
▁ерөнхийлөгчийн	-7361
::	-7362
aw	-7363
iz	-7364
єл	-7365
-10	-7366
.1.	-7367
вен	-7368
мин	-7369
▁Un	-7370
▁vv	-7371
гүүн	-7372
андын	-7373
лгийн	-7374
удлаа	-7375
▁Товч	-7376
▁ихэс	-7377
▁нитр	-7378
▁хана	-7379
авхлан	-7380
▁мэргэш	-7381
▁онцлох	-7382
▁шулуун	-7383
▁ээжийн	-7384
▁өртсөн	-7385
▁Аюулгүй	-7386
▁Нийтийн	-7387
▁иргэнийг	-7388
▁нэмэгдэх	-7389
▁Өнөөгийн	-7390
▁гудамжинд	-7391
▁шилжүүлэх	-7392
▁хэрэглэгчдэд	-7393
23	-7394
эк	-7395
▁@	-7396
▁от	-7397
▁эт	-7398
ософ	-7399
хээр	-7400
▁Кал	-7401
зориг	-7402
▁зугт	-7403
▁удам	-7404
▁Битгий	-7405
▁Дахиад	-7406
▁Тиймээ	-7407
▁ердийн	-7408
▁даашинз	-7409
▁настайдаа	-7410
▁огцруулах	-7411
▁сүлжээний	-7412
▁таалагдаж	-7413
▁танилцсан	-7414
▁туслалцаа	-7415
▁r	-7416
рээ	-7417
цар	-7418
▁49	-7419
▁Бя	-7420
ress	-7421
▁min	-7422
▁Гэг	-7423
▁Инд	-7424
▁Ший	-7425
▁ЭНД	-7426
▁үйм	-7427
▁өлс	-7428
лөсөн	-7429
▁ОУВС	-7430
▁хийв	-7431
▁нотол	-7432
▁нулимс	-7433
▁орноос	-7434
▁үлдэнэ	-7435
▁Сэтгүүл	-7436
▁тавилга	-7437
▁хурдтай	-7438
▁итгэхгүй	-7439
▁уншаарай	-7440
▁хэрэгтээ	-7441
▁Хүмүүсийн	-7442
▁хүндрэлтэй	-7443
▁хөдөлгөөнт	-7444
▁төлөөлөгчид	-7445
▁хязгаарлагд	-7446
EE	-7447
ID	-7448
aa	-7449
яг	-7450
-12	-7451
уйн	-7452
ямб	-7453
▁ТВ	-7454
цээнд	-7455
▁туйл	-7456
▁үүсч	-7457
онгийн	-7458
шилтай	-7459
▁аятай	-7460
▁угааж	-7461
▁Болзоо	-7462
▁буруут	-7463
▁давсан	-7464
▁хэвтэж	-7465
▁тогтсон	-7466
▁баримтыг	-7467
▁дунджаар	-7468
▁зарцуулж	-7469
▁мэдэхийг	-7470
▁эрүүгийн	-7471
▁Монголдоо	-7472
NU	-7473
▁j	-7474
Ном	-7475
удр	-7476
▁99	-7477
▁ЗГ	-7478
анаа	-7479
идер	-7480
обот	-7481
окол	-7482
чний	-7483
юуны	-7484
▁Амр	-7485
▁Жен	-7486
инээв	-7487
чихсөн	-7488
▁Цэвэр	-7489
▁Эрчүүд	-7490
▁огтхон	-7491
▁сайгүй	-7492
▁хүнээр	-7493
▁багшийн	-7494
▁Гадаадын	-7495
▁эзэмшсэн	-7496
▁Гоолингоо	-7497
▁Солонгост	-7498
▁бүтээлийн	-7499
▁лаборатор	-7500
▁зарцуулсан	-7501
▁Тавантолгой	-7502
ip	-7503
иск	-7504
хоёр	-7505
▁Mar	-7506
▁эвс	-7507
Таныг	-7508
агаах	-7509
гчийн	-7510
ерман	-7511
▁намд	-7512
▁нялх	-7513
алтанд	-7514
өгдсөн	-7515
▁утгыг	-7516
▁хоёрт	-7517
▁ширээ	-7518
▁Бусдын	-7519
▁гэмтэл	-7520
▁дуулах	-7521
▁зүтгэж	-7522
▁татдаг	-7523
▁тэрийг	-7524
▁төрдөг	-7525
▁уншина	-7526
▁ээээээ	-7527
▁зогссон	-7528
▁тэндээс	-7529
▁хамаарч	-7530
▁агуулсан	-7531
▁ярилцсан	-7532
▁сонирхлыг	-7533
▁төлөвлөлт	-7534
ля	-7535
ive	-7536
айж	-7537
эээ	-7538
удар	-7539
▁Юун	-7540
▁сөн	-7541
▁хов	-7542
▁гурв	-7543
▁хааж	-7544
эхүүнд	-7545
▁Сарын	-7546
▁мөчид	-7547
▁сольж	-7548
▁супер	-7549
▁хөтөч	-7550
▁Тусгай	-7551
▁байхав	-7552
▁олохгүй	-7553
▁тавилан	-7554
▁харгалз	-7555
▁хэмээсэн	-7556
▁Бүтээгдэх	-7557
▁асуултанд	-7558
▁сонирхдог	-7559
▁хорооллын	-7560
▁үргэлжилсэн	-7561
▁тайлбарласан	-7562
ly	-7563
лга	-7564
атын	-7565
▁Айл	-7566
аасны	-7567
ллийн	-7568
олгүй	-7569
▁2003	-7570
▁Арай	-7571
▁Кино	-7572
▁яана	-7573
▁тоонд	-7574
▁Сирийн	-7575
▁ажлууд	-7576
▁баярыг	-7577
▁сайдыг	-7578
▁хортой	-7579
долларын	-7580
▁Төсвийн	-7581
▁анхдагч	-7582
▁бэлтгэж	-7583
▁системд	-7584
▁хуулбар	-7585
▁Үүнийгээ	-7586
▁олборлолт	-7587
▁температур	-7588
▁маркетингийн	-7589
ug	-7590
Ав	-7591
рт	-7592
Аав	-7593
ань	-7594
лид	-7595
най	-7596
галж	-7597
овол	-7598
▁(1)	-7599
▁Тээ	-7600
▁Шат	-7601
▁нтр	-7602
Хэрэв	-7603
лээрээ	-7604
▁аварч	-7605
▁амарч	-7606
▁бодно	-7607
▁сорилт	-7608
▁хэмээв	-7609
▁судлаач	-7610
▁тэтгэмж	-7611
▁хийхийн	-7612
▁хөгжсөн	-7613
▁оролцоно	-7614
▁сүлжээнд	-7615
▁чармайлт	-7616
▁сургуулиа	-7617
▁цуглуулах	-7618
▁Үйлчилгээ	-7619
▁Нэгдүгээрт	-7620
▁наймдугаар	-7621
▁одоохондоо	-7622
▁татгалзсан	-7623
▁харилцаатай	-7624
▁хязгаарлалт	-7625
ep	-7626
лз	-7627
ort	-7628
out	-7629
Дав	-7630
хор	-7631
өлж	-7632
хонд	-7633
▁мот	-7634
▁пас	-7635
▁заах	-7636
Яагаад	-7637
▁анхан	-7638
▁онцол	-7639
▁уудаг	-7640
▁функц	-7641
▁элчин	-7642
▁Баасан	-7643
▁нэгээр	-7644
▁өлсгөл	-7645
▁Шинжлэх	-7646
▁бичгийг	-7647
▁бүтцийн	-7648
▁дагуулж	-7649
▁үзүүлнэ	-7650
▁бахархаж	-7651
▁тоглогчид	-7652
▁хамгаалахын	-7653
▁шо	-7654
????	-7655
Сайн	-7656
илоо	-7657
иулж	-7658
шинд	-7659
▁Гоо	-7660
ралын	-7661
▁Доор	-7662
▁хийе	-7663
аагаад	-7664
▁аавын	-7665
▁алхаж	-7666
▁аймаар	-7667
▁хуулиа	-7668
▁хүрдэг	-7669
▁юмнууд	-7670
▁барааны	-7671
▁Сингапур	-7672
▁шинэчлэх	-7673
▁Байгалийн	-7674
▁Баярлалаа	-7675
▁дасгалжуулагч	-7676
ион	-7677
▁не	-7678
Очир	-7679
двол	-7680
▁18-	-7681
▁Ток	-7682
▁фил	-7683
ижитал	-7684
тойгоо	-7685
▁номоо	-7686
▁явцыг	-7687
адаггүй	-7688
▁тулаан	-7689
▁хэллэг	-7690
▁хэдийнэ	-7691
▁шагналыг	-7692
▁эрхэлдэг	-7693
▁баримтлах	-7694
▁бүртгүүлэх	-7695
▁мэдээллээр	-7696
▁өөрийнхөөрөө	-7697
4-	-7698
хх	-7699
ипп	-7700
хэм	-7701
▁ом	-7702
▁ын	-7703
шилт	-7704
▁Pro	-7705
▁мэл	-7706
▁ням	-7707
▁шул	-7708
архан	-7709
гаанд	-7710
▁Ехов	-7711
▁Зүрх	-7712
▁бөөр	-7713
▁виде	-7714
▁олно	-7715
сгалан	-7716
▁дурын	-7717
▁зочин	-7718
▁харъя	-7719
▁өргөө	-7720
лэлтийн	-7721
эгчдийн	-7722
▁суманд	-7723
▁сурдаг	-7724
▁тэнцүү	-7725
▁Агаарын	-7726
▁биднээс	-7727
▁буулгах	-7728
▁талбайн	-7729
▁Гадаадад	-7730
▁санаарай	-7731
▁стратеги	-7732
▁тасалбар	-7733
▁түүнчлэн	-7734
▁мэдээлсэн	-7735
▁мэдээлснээр	-7736
нам	-7737
▁Онг	-7738
▁рек	-7739
▁баар	-7740
▁овог	-7741
▁очно	-7742
▁серв	-7743
чихлээ	-7744
▁очдог	-7745
▁өршөө	-7746
логдсон	-7747
▁Хэлэлц	-7748
▁баригч	-7749
▁бүрээс	-7750
▁мессеж	-7751
▁хэлтэс	-7752
▁ярианы	-7753
▁болмоор	-7754
▁зүйлүүд	-7755
▁тогтолц	-7756
▁Эрүүгийн	-7757
▁амжилтад	-7758
▁оруулаад	-7759
▁ажиллахыг	-7760
▁мэдэгдлээ	-7761
▁ажиллахгүй	-7762
▁тусламжтайгаар	-7763
6-	-7764
бэ	-7765
шг	-7766
ant	-7767
вит	-7768
хэр	-7769
өөх	-7770
▁(3	-7771
▁Тр	-7772
down	-7773
инох	-7774
соно	-7775
уунд	-7776
▁(0)	-7777
▁Мах	-7778
▁Ник	-7779
▁зус	-7780
екийн	-7781
рафик	-7782
▁Мекс	-7783
▁бааз	-7784
▁зайд	-7785
▁ялах	-7786
▁Дарга	-7787
▁Орхон	-7788
▁орхих	-7789
▁зарлиг	-7790
▁эрхэлж	-7791
▁Хүнсний	-7792
▁асуудаг	-7793
▁зэргийг	-7794
▁мэдэхэд	-7795
▁удаагүй	-7796
▁бусадтай	-7797
▁итгэлийг	-7798
▁компаний	-7799
▁тусгасан	-7800
▁онцлогтой	-7801
▁асуудлуудыг	-7802
▁Байгууллагын	-7803
The	-7804
ide	-7805
Анх	-7806
мэд	-7807
Нийг	-7808
▁19-	-7809
▁ААН	-7810
▁Бос	-7811
▁Вэб	-7812
▁дон	-7813
▁дээж	-7814
лагаар	-7815
▁босоо	-7816
▁будаг	-7817
▁огцом	-7818
▁товчл	-7819
▁өмөөр	-7820
▁болбол	-7821
▁дуугаа	-7822
▁замбар	-7823
▁хүрчээ	-7824
▁Үүгээр	-7825
агдахгүй	-7826
▁Дээрээс	-7827
▁Тэрнээс	-7828
▁хэсгээс	-7829
▁харамсаж	-7830
▁Компанийн	-7831
▁хариултыг	-7832
▁эсрэгээрээ	-7833
▁өөрчлөгдөх	-7834
.8	-7835
ime	-7836
ver	-7837
ИЙГ	-7838
элэг	-7839
▁ген	-7840
▁ная	-7841
▁Next	-7842
▁Авто	-7843
▁бонд	-7844
▁гүйж	-7845
▁клип	-7846
▁цүнх	-7847
элтгүй	-7848
▁Ахмад	-7849
▁Насан	-7850
▁боомт	-7851
▁захын	-7852
▁ирвэл	-7853
▁оройт	-7854
▁ялгаж	-7855
▁Өдгөө	-7856
▁өнөөг	-7857
лэгддэг	-7858
▁Жилийн	-7859
▁зогсох	-7860
▁тунгаа	-7861
▁хариуд	-7862
▁хүрлээ	-7863
▁явахыг	-7864
▁өргөтг	-7865
▁Цэргийн	-7866
▁бүхнээс	-7867
▁дампуур	-7868
▁дамжуулж	-7869
▁хаалттай	-7870
▁Сургуулийн	-7871
▁зарцуулдаг	-7872
▁Гуравдугаар	-7873
▁гүйцэтгэдэг	-7874
▁ажиллагаатай	-7875
▁хуралдаанаар	-7876
28	-7877
БН	-7878
мм	-7879
oft	-7880
ros	-7881
лер	-7882
▁Sp	-7883
▁сп	-7884
▁21-	-7885
эхээс	-7886
▁тест	-7887
▁өдөө	-7888
▁авагч	-7889
▁гэнээ	-7890
▁таньд	-7891
▁Тайван	-7892
▁суртах	-7893
▁хотоос	-7894
▁хийлгэж	-7895
▁Интернет	-7896
▁болгоныг	-7897
▁боловсон	-7898
▁тохиолдл	-7899
▁хараарай	-7900
▁таалагдах	-7901
▁чадваргүй	-7902
▁хангалтгүй	-7903
ЗД	-7904
ӨН	-7905
Зөв	-7906
▁шт	-7907
гөөс	-7908
эрэн	-7909
янга	-7910
▁ЗХУ	-7911
▁Урт	-7912
▁дэн	-7913
▁олз	-7914
▁хус	-7915
ойтон	-7916
▁хийц	-7917
▁бишээ	-7918
▁сонсг	-7919
▁хүдэр	-7920
▁ядуур	-7921
▁дүнгээ	-7922
▁уншдаг	-7923
▁хотноо	-7924
▁хүлээд	-7925
▁үлдлээ	-7926
▁Канадын	-7927
▁Угаасаа	-7928
▁даатгал	-7929
▁хариулж	-7930
▁асуултын	-7931
▁болгоход	-7932
▁нэрлэсэн	-7933
▁зөвлөгөөг	-7934
▁хүсдэггүй	-7935
▁өрсөлдөөн	-7936
▁хөдөлгөөнд	-7937
▁монголчуудын	-7938
▁АМ	-7939
хаас	-7940
дахад	-7941
▁Гэмт	-7942
▁ядан	-7943
▁Буруу	-7944
▁ондоо	-7945
▁багтаж	-7946
▁бэлдэж	-7947
▁татаад	-7948
▁хашгир	-7949
▁хэлтэй	-7950
▁чадлаа	-7951
▁дурсгал	-7952
▁төмрийн	-7953
▁эрхлэгч	-7954
▁үйлдвэрт	-7955
▁тэнгэрийн	-7956
▁боловсролтой	-7957
сс	-7958
илд	-7959
ойн	-7960
тэж	-7961
уус	-7962
хуяг	-7963
▁ИТХ	-7964
▁шог	-7965
▁хүсэн	-7966
▁Өдөрт	-7967
▁бөөний	-7968
▁оюутны	-7969
▁сэтгэх	-7970
▁хийхээ	-7971
уууууууу	-7972
▁нийцсэн	-7973
▁таашаал	-7974
▁ихэнхдээ	-7975
▁хариулах	-7976
▁Өглөөний	-7977
▁бичигдсэн	-7978
▁худалдаанд	-7979
▁үгүйсгэхгүй	-7980
AN	-7981
▁Үс	-7982
Үгүй	-7983
▁Сэд	-7984
▁сод	-7985
▁угт	-7986
лдсэн	-7987
▁..."	-7988
▁Гэнэ	-7989
▁тенд	-7990
Сайхан	-7991
▁Жолоо	-7992
▁Халдв	-7993
▁Хариу	-7994
▁харам	-7995
▁эзлэх	-7996
▁өрөвд	-7997
▁биеийг	-7998
▁нүцгэн	-7999
▁оросын	-8000
▁тавтай	-8001
▁цалинг	-8002
▁Шүүхийн	-8003
▁сургамж	-8004
▁брэндийн	-8005
▁хүүхнүүд	-8006
▁ажиллуулж	-8007
▁тохируулах	-8008
▁залуучуудын	-8009
▁үйлчилгээнд	-8010
▁Монголчуудын	-8011
АД	-8012
ХБ	-8013
ӨВ	-8014
Бар	-8015
▁Ме	-8016
▁ХУ	-8017
врыг	-8018
▁Ром	-8019
▁өмд	-8020
аанаа	-8021
▁Швей	-8022
▁цээр	-8023
▁эхэн	-8024
▁юмны	-8025
▁үсээ	-8026
үүгээр	-8027
▁Жирэм	-8028
▁Санаа	-8029
▁байлд	-8030
▁эмгэг	-8031
▁ягаан	-8032
Ерөнхий	-8033
▁Чөлөөт	-8034
▁жолоод	-8035
▁стресс	-8036
▁цаашаа	-8037
▁энерги	-8038
▁өгөхөд	-8039
▁Хөвсгөл	-8040
▁дууслаа	-8041
▁нүүрний	-8042
▁шинэхэн	-8043
▁анхаарна	-8044
▁эрчимтэй	-8045
▁дамжуулах	-8046
▁долдугаар	-8047
▁сонголтыг	-8048
▁туршилтын	-8049
▁хариулсан	-8050
▁технологийг	-8051
▁үйлдвэрлэсэн	-8052
ач	-8053
Сар	-8054
атф	-8055
олыг	-8056
ъект	-8057
▁Хоё	-8058
▁бүж	-8059
иагүй	-8060
тнүүд	-8061
▁Хаяг	-8062
witter	-8063
огдоно	-8064
▁алуур	-8065
▁мужид	-8066
▁хором	-8067
▁Хичээл	-8068
▁бүрээр	-8069
▁дуусна	-8070
▁орчуул	-8071
▁пуужин	-8072
▁туулах	-8073
▁цэнхэр	-8074
▁эсэхээ	-8075
▁Ингэхэд	-8076
▁байрлаж	-8077
▁бүрдсэн	-8078
▁зэргээр	-8079
▁төрүүлж	-8080
▁харьяал	-8081
▁ажилчдын	-8082
▁хүчилтөр	-8083
▁ажиллахад	-8084
▁хөдөлгүүр	-8085
▁стандартын	-8086
▁хангамжийн	-8087
7-	-8088
te	-8089
ЗХ	-8090
ьяа	-8091
▁Am	-8092
▁ДЭМ	-8093
▁бир	-8094
портл	-8095
▁Говь	-8096
▁уйлж	-8097
▁хонь	-8098
▁Аялал	-8099
▁жишиг	-8100
▁занал	-8101
▁сайтад	-8102
▁салсан	-8103
▁уугаад	-8104
▁Нямдорж	-8105
▁Тусгаар	-8106
▁тушаалд	-8107
▁шүүмжил	-8108
▁эхнэрээ	-8109
▁болоосой	-8110
▁залуутай	-8111
▁зөөврийн	-8112
▁мэдэрсэн	-8113
▁хэрэгжих	-8114
▁өгдөггүй	-8115
▁байгаатай	-8116
▁баримтлал	-8117
▁таамаглаж	-8118
▁хориглосон	-8119
▁цэцэрлэгийн	-8120
ЕХ	-8121
Од	-8122
ама	-8123
▁55	-8124
▁Ат	-8125
Йорк	-8126
гооё	-8127
гээж	-8128
ятад	-8129
▁Стр	-8130
▁Хаг	-8131
▁алс	-8132
агтаа	-8133
актик	-8134
ологи	-8135
▁Поль	-8136
▁зочл	-8137
▁нүүл	-8138
▁усыг	-8139
гоороо	-8140
▁бишүү	-8141
▁даанч	-8142
▁оюуны	-8143
▁үлдэг	-8144
▁өмсөж	-8145
▁апплик	-8146
▁дуулга	-8147
▁малгай	-8148
▁төлөөх	-8149
▁хаврын	-8150
▁хүүтэй	-8151
▁үнэлэх	-8152
▁Ганцхан	-8153
▁түмнийг	-8154
▁явуулна	-8155
▁илгээсэн	-8156
▁хэмээжээ	-8157
▁цэвэрхэн	-8158
▁Монголоос	-8159
▁баригдсан	-8160
▁тогтолцоог	-8161
▁Боловсролын	-8162
PS	-8163
ТО	-8164
Ээж	-8165
бур	-8166
сул	-8167
▁En	-8168
▁цор	-8169
▁Майк	-8170
▁гүтг	-8171
▁өсөх	-8172
апитал	-8173
лэгдэж	-8174
▁Автом	-8175
▁Дөрөв	-8176
▁нараа	-8177
▁орган	-8178
▁үгүйс	-8179
▁машинд	-8180
▁таарах	-8181
▁зарцуул	-8182
▁танхимд	-8183
▁тэмдэгт	-8184
▁хүлээдэг	-8185
▁хүсэлтээ	-8186
▁бэлтгэлээ	-8187
▁бүтээлийг	-8188
▁тоглолтоо	-8189
▁асуудалгүй	-8190
▁тулгамдсан	-8191
ld	-8192
ram	-8193
ена	-8194
ьет	-8195
▁АС	-8196
▁ий	-8197
▁000	-8198
▁16-	-8199
▁800	-8200
▁Сум	-8201
▁Хүй	-8202
▁бак	-8203
▁зөн	-8204
▁хоч	-8205
агдан	-8206
анхай	-8207
үүгээ	-8208
▁байс	-8209
дөөгүй	-8210
▁хүрэл	-8211
▁юмгүй	-8212
▁буйгаа	-8213
▁бүлэгт	-8214
▁зарлах	-8215
▁нитрил	-8216
▁томилг	-8217
▁хавдар	-8218
▁цаасан	-8219
▁заалтыг	-8220
▁зөвлөлд	-8221
▁санасан	-8222
▁тамхины	-8223
▁тавигдах	-8224
▁хамтрагч	-8225
▁үүдэлтэй	-8226
▁амьдарсан	-8227
▁шалтгааны	-8228
▁гүйцэтгэсэн	-8229
ue	-8230
фр	-8231
її	-8232
ile	-8233
ейт	-8234
арат	-8235
ектр	-8236
мард	-8237
▁БОЛ	-8238
▁уут	-8239
▁эвд	-8240
▁буух	-8241
▁хийл	-8242
▁хэрх	-8243
▁бузар	-8244
▁дуусч	-8245
▁учраа	-8246
▁updown	-8247
▁Төлбөр	-8248
▁орхиод	-8249
▁өмчийн	-8250
▁Хүүхдэд	-8251
▁авахдаа	-8252
▁мэндийг	-8253
▁таньдаг	-8254
▁тодруул	-8255
▁төлбөрөө	-8256
▁судалгааг	-8257
▁өөрчлөлтийн	-8258
80	-8259
200	-8260
инж	-8261
нов	-8262
лалз	-8263
нөөн	-8264
оолд	-8265
▁Бил	-8266
▁ним	-8267
▁Өрг	-8268
айсан	-8269
андин	-8270
галаг	-8271
▁арал	-8272
▁гэвч	-8273
▁оров	-8274
▁хонг	-8275
этгэлц	-8276
▁Даанч	-8277
▁балай	-8278
▁модон	-8279
▁намыг	-8280
▁тулаа	-8281
▁эмчид	-8282
Амгалан	-8283
▁булчин	-8284
▁хогийн	-8285
▁ходоод	-8286
▁чөтгөр	-8287
▁томилох	-8288
▁ээлжинд	-8289
▁гэхээсээ	-8290
▁тээрмийн	-8291
▁хориглох	-8292
▁тоглолтыг	-8293
▁Эмэгтэйчүүдийн	-8294
,5	-8295
Яг	-8296
икр	-8297
▁Ач	-8298
▁Өм	-8299
гэлз	-8300
ширч	-8301
▁Mic	-8302
▁жам	-8303
Надад	-8304
лэхэд	-8305
▁Сайд	-8306
▁авав	-8307
▁биет	-8308
▁тайз	-8309
удрага	-8310
уугийн	-8311
▁ахиад	-8312
▁суваг	-8313
▁доктор	-8314
▁дэвтэр	-8315
▁зөрчиж	-8316
▁мэтийн	-8317
▁тайлах	-8318
▁хувааж	-8319
▁хэнтэй	-8320
▁Түүнтэй	-8321
▁гүйлгээ	-8322
▁дүүрэгт	-8323
▁туулсан	-8324
▁бүхэлдээ	-8325
▁ирээдүйг	-8326
▁Израилийн	-8327
▁хороололд	-8328
▁оруулахгүй	-8329
▁зөвшөөрлийг	-8330
▁тодорхойлсон	-8331
▁үйлдвэрлэгчид	-8332
uk	-8333
СК	-8334
рыг	-8335
▁00	-8336
▁ХК	-8337
рамд	-8338
▁Баа	-8339
▁Сат	-8340
▁ХҮН	-8341
▁ааш	-8342
▁алж	-8343
▁үеэ	-8344
▁өвс	-8345
алдаг	-8346
иарай	-8347
өлийн	-8348
▁даан	-8349
▁толб	-8350
▁Нохой	-8351
▁платф	-8352
▁өдрөө	-8353
▁Халуун	-8354
▁аргууд	-8355
▁зантай	-8356
▁террор	-8357
▁холбог	-8358
▁Оросууд	-8359
▁зарчмыг	-8360
▁урагшаа	-8361
▁хүслийг	-8362
▁өгөөрэй	-8363
▁авдаггүй	-8364
▁танилцах	-8365
▁хэлээрэй	-8366
▁өгүүллэг	-8367
▁хачирхалтай	-8368
▁төхөөрөмжийг	-8369
▁сурталчилгааны	-8370
IN	-8371
ok	-8372
хү	-8373
лок	-8374
уут	-8375
хир	-8376
▁Ням	-8377
▁чат	-8378
агсан	-8379
даанд	-8380
нзүрх	-8381
огоор	-8382
▁хэлц	-8383
▁эрэм	-8384
Баасан	-8385
▁Ойрын	-8386
▁Энийг	-8387
▁модны	-8388
▁таниг	-8389
▁тахал	-8390
▁хожиг	-8391
▁Захиал	-8392
▁замдаа	-8393
▁намаас	-8394
▁төрөлд	-8395
▁уриалж	-8396
▁хөдөлж	-8397
▁чөлөөг	-8398
▁нөхдүүд	-8399
▁бүтэхгүй	-8400
▁захиргаа	-8401
▁мэтчилэн	-8402
▁тушаалын	-8403
▁хичээлээ	-8404
▁зөвшөөрдөг	-8405
▁зургадугаар	-8406
▁хүүхдийнхээ	-8407
ӨЛ	-8408
ОНГ	-8409
УИХ	-8410
ааа	-8411
бад	-8412
омт	-8413
тул	-8414
▁ёр	-8415
.000	-8416
раад	-8417
тлээ	-8418
▁Арг	-8419
▁Дас	-8420
▁Лив	-8421
▁маг	-8422
▁поп	-8423
Сарын	-8424
лэвэл	-8425
▁адал	-8426
▁арын	-8427
омжгүй	-8428
▁Төрөл	-8429
▁засаж	-8430
▁уусан	-8431
▁явбал	-8432
▁Өнөөд	-8433
гаанаас	-8434
жүүлсэн	-8435
▁Хариул	-8436
▁арьсан	-8437
▁нилээн	-8438
▁хоолыг	-8439
▁ээждээ	-8440
▁буйгаар	-8441
▁хайгуул	-8442
▁хийхээс	-8443
▁өдөрлөг	-8444
▁ардчилал	-8445
▁болгохыг	-8446
▁мэдүүлэг	-8447
▁байрлуулах	-8448
ИГ	-8449
ОК	-8450
▁гэ	-8451
Tube	-8452
▁25-	-8453
▁мул	-8454
▁Үүр	-8455
лгийг	-8456
▁дарс	-8457
▁жигд	-8458
▁конц	-8459
▁оныг	-8460
эгджээ	-8461
▁Бүрэн	-8462
лагагүй	-8463
▁Надаас	-8464
▁олоход	-8465
▁социал	-8466
▁ширүүн	-8467
▁газраар	-8468
▁дагавар	-8469
▁дэмжинэ	-8470
▁хуримтл	-8471
▁хүдрийн	-8472
▁шаардах	-8473
▁үзэхийг	-8474
▁асуултыг	-8475
▁газартай	-8476
▁дэвсгэрт	-8477
▁санамсар	-8478
▁төлөөлөг	-8479
нь	-8480
orn	-8481
Зас	-8482
өрч	-8483
▁39	-8484
ious	-8485
гөөд	-8486
усан	-8487
эсэг	-8488
▁Бер	-8489
▁бад	-8490
логын	-8491
эсээр	-8492
▁Тэтг	-8493
▁бсан	-8494
▁хайрт	-8495
▁залууг	-8496
▁нүүрээ	-8497
▁үлдээх	-8498
уулаагүй	-8499
▁Нутгийн	-8500
▁нутгийг	-8501
Эрдэнэбат	-8502
▁Сургууль	-8503
▁оролцдог	-8504
▁эрхлэгчид	-8505
▁байгууллаа	-8506
▁шийдвэрлэж	-8507
▁замбараагүй	-8508
8-	-8509
MX	-8510
~~	-8511
БС	-8512
ash	-8513
Бая	-8514
тий	-8515
▁44	-8516
▁ДН	-8517
атин	-8518
▁гул	-8519
▁сэрг	-8520
▁форм	-8521
Төрийн	-8522
аангуй	-8523
монгол	-8524
▁Тэнэг	-8525
▁Ярилц	-8526
▁генер	-8527
▁сонго	-8528
▁текст	-8529
▁хянан	-8530
▁Европт	-8531
▁идэвхи	-8532
▁солигд	-8533
▁сургах	-8534
▁хүслээ	-8535
▁үеийнх	-8536
▁өвдөлт	-8537
▁тэнгэрт	-8538
▁төрхийг	-8539
▁хоолойг	-8540
▁хоёрхон	-8541
▁эзэмшиг	-8542
▁яваарай	-8543
▁ёслолын	-8544
▁ашиглана	-8545
▁гайхамшиг	-8546
▁толгойгоо	-8547
▁Шаардлагатай	-8548
єв	-8549
ace	-8550
шинэ	-8551
▁уус	-8552
алдаж	-8553
длүүд	-8554
өөдөг	-8555
▁амил	-8556
▁гуйх	-8557
▁удаж	-8558
▁өдий	-8559
▁аймар	-8560
▁гарав	-8561
▁дарах	-8562
▁өндөг	-8563
▁Арабын	-8564
▁авлига	-8565
▁олонхи	-8566
▁самбар	-8567
▁таслан	-8568
▁ангилал	-8569
▁гэлтгүй	-8570
▁дүнгийн	-8571
▁сансрын	-8572
▁сэргээн	-8573
▁цогцолб	-8574
▁үйлчилж	-8575
▁тангараг	-8576
▁хамаарах	-8577
▁хүрэхийн	-8578
▁ширээний	-8579
▁ярилцлаа	-8580
▁Сэтгэгдэл	-8581
▁тохиолдож	-8582
▁хоорондох	-8583
▁шилжүүлэн	-8584
▁автоматаар	-8585
▁хүчирхийлэл	-8586
:4	-8587
AS	-8588
ма	-8589
ха	-8590
шт	-8591
Тэм	-8592
АСАУ	-8593
гоод	-8594
члоо	-8595
өлөв	-8596
▁!!!	-8597
▁Эрт	-8598
хнаас	-8599
эмжээ	-8600
▁Ухаа	-8601
▁Хуур	-8602
▁зайн	-8603
Намайг	-8604
аснаар	-8605
▁мөсөн	-8606
▁ослын	-8607
▁эзэлж	-8608
▁үзжээ	-8609
▁Зөндөө	-8610
▁зурвас	-8611
▁тойрны	-8612
▁түймэр	-8613
▁хүмүүн	-8614
▁өрхийн	-8615
▁барууны	-8616
▁бүтээмж	-8617
▁тоглоод	-8618
▁Тэгэхдээ	-8619
▁алдахгүй	-8620
▁амжилтыг	-8621
▁бүлэглэл	-8622
▁дарангуй	-8623
▁хатагтай	-8624
▁шаардсан	-8625
▁Бизнесийн	-8626
▁нэмэгдэнэ	-8627
▁тэмдэглэг	-8628
▁тэргүүлэх	-8629
▁төрүүлсэн	-8630
▁зорилгодоо	-8631
▁тусламжийн	-8632
▁танилцуулсан	-8633
3-	-8634
95	-8635
ax	-8636
уа	-8637
аск	-8638
год	-8639
жел	-8640
рэх	-8641
▁Нь	-8642
члэл	-8643
▁Анд	-8644
▁лог	-8645
ашинг	-8646
оотой	-8647
үүлээ	-8648
▁(200	-8649
▁баяс	-8650
▁проф	-8651
гэлтэй	-8652
▁Хүлээ	-8653
▁зурах	-8654
▁маягт	-8655
▁тариа	-8656
▁тодор	-8657
▁герман	-8658
▁нэмсэн	-8659
▁саруул	-8660
▁байртай	-8661
▁өдөржин	-8662
▁оролдсон	-8663
▁сураггүй	-8664
▁хамарсан	-8665
▁эрдэмтэн	-8666
▁ярилцлаг	-8667
▁хийдэггүй	-8668
▁илэрхийлдэг	-8669
▁тэмдэглэдэг	-8670
▁хязгаарлагдмал	-8671
):	-8672
ai	-8673
ox	-8674
гн	-8675
лл	-8676
▁ѳ	-8677
ell	-8678
ite	-8679
Сан	-8680
гав	-8681
▁42	-8682
▁ян	-8683
гоны	-8684
үгээ	-8685
▁Кам	-8686
▁Тел	-8687
үүдэр	-8688
▁Word	-8689
▁Иран	-8690
▁дааж	-8691
түвшин	-8692
уулбал	-8693
▁гавья	-8694
▁тавин	-8695
▁эдлэх	-8696
▁элсэн	-8697
▁өргөх	-8698
▁айгаад	-8699
▁дэлбэр	-8700
▁жинтэй	-8701
▁зардаг	-8702
▁зэрлэг	-8703
▁намууд	-8704
▁нэгдэл	-8705
▁нүүдэл	-8706
▁холбох	-8707
▁хүмүүж	-8708
▁Хөөрхий	-8709
▁аппарат	-8710
▁дугаарт	-8711
▁шалгана	-8712
▁ялгавар	-8713
▁тэргүүлж	-8714
▁чигээрээ	-8715
▁зохицуулж	-8716
▁нийтээрээ	-8717
▁хэлбэрийн	-8718
▁цэвэрлэгч	-8719
▁Оюутолгойн	-8720
▁байгуулагч	-8721
▁болохоороо	-8722
▁зэрэглэлийн	-8723
.6	-8724
ont	-8725
ust	-8726
Хор	-8727
ерс	-8728
уал	-8729
ьдог	-8730
өжээ	-8731
▁Гоё	-8732
▁Элс	-8733
▁нүг	-8734
▁хив	-8735
▁хүз	-8736
▁цээ	-8737
анцар	-8738
гажээ	-8739
▁ДЭМБ	-8740
▁чоно	-8741
▁үхэж	-8742
▁өсөж	-8743
эгдээд	-8744
элтийг	-8745
үүрийн	-8746
▁казин	-8747
▁хомсд	-8748
▁эдэлж	-8749
▁үстэй	-8750
Дэлхийн	-8751
▁баржээ	-8752
▁орхигд	-8753
▁сошиал	-8754
▁танаас	-8755
▁хаясан	-8756
▁өдрөөр	-8757
баатарын	-8758
▁Сэлэнгэ	-8759
▁гадуурх	-8760
▁зөвшилц	-8761
▁сэдвийг	-8762
▁учиргүй	-8763
▁хайлтын	-8764
▁өгөгдөл	-8765
▁байцаагч	-8766
▁бизнесээ	-8767
▁хичээсэн	-8768
▁ашиглахыг	-8769
▁баримтууд	-8770
▁бүлийнхэн	-8771
▁хэлбэртэй	-8772
▁үйлчилдэг	-8773
▁дээшлүүлэх	-8774
▁нэвтрүүлэх	-8775
▁төлөвлөгөөтэй	-8776
:0	-8777
se	-8778
зүй	-8779
▁БИ	-8780
атар	-8781
▁физ	-8782
ongol	-8783
ныхаа	-8784
▁Мөнг	-8785
▁зайг	-8786
▁Өрөө	-8787
виттер	-8788
уулийн	-8789
▁Гэрээ	-8790
▁болио	-8791
▁захиа	-8792
▁хорин	-8793
гийнхээ	-8794
▁Загвар	-8795
▁Филипп	-8796
▁төрийг	-8797
▁Бүгдийг	-8798
▁Програм	-8799
▁асуулаа	-8800
▁бүсгүйг	-8801
▁гэрээнд	-8802
▁ижилхэн	-8803
▁нягтлан	-8804
▁суулгаж	-8805
▁учирсан	-8806
▁хүрэхэд	-8807
▁шуугиан	-8808
▁ажлаасаа	-8809
▁гэдэгтэй	-8810
▁ирүүлсэн	-8811
▁хөгжлийг	-8812
▁үүсгэдэг	-8813
▁өндөртэй	-8814
▁залуугийн	-8815
▁мэдрэмжийг	-8816
▁хэрэгжүүлнэ	-8817
▁хэрэглэгддэг	-8818
.7	-8819
ӨГ	-8820
Өнг	-8821
NUMX	-8822
лдаа	-8823
нөөр	-8824
члээ	-8825
▁Дэв	-8826
▁жүж	-8827
егийн	-8828
▁колл	-8829
нуудаа	-8830
▁Итгэл	-8831
▁амраг	-8832
▁архив	-8833
▁хэлээ	-8834
▁Нээрээ	-8835
▁арслан	-8836
▁корпор	-8837
▁мөрдөж	-8838
▁нэрлэх	-8839
▁нүдээр	-8840
▁онцолж	-8841
▁согтуу	-8842
▁тэгсэн	-8843
▁Швейцар	-8844
▁байлгаж	-8845
▁болхоор	-8846
▁ойлгоно	-8847
▁тоглоно	-8848
▁хаягдал	-8849
▁хороонд	-8850
▁үзэгчид	-8851
▁өгөхөөр	-8852
▁Цэцэрлэг	-8853
▁шүүмжлэл	-8854
▁доллараар	-8855
▁тэргүүний	-8856
▁хийлгэсэн	-8857
pt	-8858
ark	-8859
бер	-8860
оох	-8861
стр	-8862
-200	-8863
арна	-8864
жигн	-8865
▁Хян	-8866
▁тэл	-8867
өлдөг	-8868
▁салх	-8869
Бурхан	-8870
▁Sonin	-8871
▁буурч	-8872
Эрдэнэт	-8873
▁БНАСАУ	-8874
▁Малайз	-8875
▁гэгээр	-8876
▁гялалз	-8877
▁эмчлэх	-8878
▁Гүйцэтг	-8879
▁дотроос	-8880
▁хүргэнэ	-8881
▁захирамж	-8882
▁өгүүлсэн	-8883
▁Уучлаарай	-8884
▁бөмбөгийн	-8885
▁тоглоомыг	-8886
▁ойлгодоггүй	-8887
▁Улаанбаатарт	-8888
▁согтууруулах	-8889
▁таалагдахгүй	-8890
90	-8891
:5	-8892
***	-8893
ond	-8894
▁--	-8895
▁Ex	-8896
истр	-8897
лайл	-8898
▁Ван	-8899
▁Даа	-8900
▁Мон	-8901
▁лаг	-8902
▁сэв	-8903
▁шум	-8904
▁гээл	-8905
▁наяд	-8906
▁уйтг	-8907
▁эрэн	-8908
▁ялаг	-8909
▁замаа	-8910
▁метал	-8911
▁оршиж	-8912
▁хүснэ	-8913
▁ялсан	-8914
▁Үйлчл	-8915
лэгчдэд	-8916
үүлгийн	-8917
▁зээлээ	-8918
▁хурааж	-8919
▁Хүүхдээ	-8920
▁барьдаг	-8921
▁контент	-8922
▁салшгүй	-8923
▁Өөрсдөө	-8924
▁Мэдээлэл	-8925
▁ангилалд	-8926
▁гэнэтийн	-8927
▁дугаарыг	-8928
▁мэдээлэлд	-8929
▁оролдлого	-8930
▁сонсогдож	-8931
▁хадгаламж	-8932
▁дэлгүүрийн	-8933
▁шалтгаална	-8934
▁дутагдалтай	-8935
▁эмэгтэйчүүдэд	-8936
OV	-8937
УЛ	-8938
цоо	-8939
▁01	-8940
▁06	-8941
▁Яд	-8942
▁то	-8943
мэйл	-8944
▁13-	-8945
▁Гом	-8946
▁Дэд	-8947
▁Мин	-8948
▁Роб	-8949
▁шаа	-8950
Хятад	-8951
жүүлж	-8952
эмээр	-8953
▁Зуны	-8954
гүүдэд	-8955
▁Библи	-8956
▁Яахав	-8957
▁битүү	-8958
▁идээд	-8959
▁робот	-8960
▁тушаа	-8961
▁Машины	-8962
▁босоод	-8963
▁комисс	-8964
▁мэдлээ	-8965
▁намрын	-8966
▁холбож	-8967
▁шүүдээ	-8968
▁comment	-8969
▁Байнгын	-8970
▁адилгүй	-8971
▁зүйлсээ	-8972
▁тархины	-8973
▁эрэлхий	-8974
▁бодоогүй	-8975
▁хаагчдын	-8976
▁бизнесийг	-8977
▁гардаггүй	-8978
▁түрээсийн	-8979
▁хориглоно	-8980
▁эрчүүдийн	-8981
▁ашиглалтын	-8982
▁тусгаарлах	-8983
▁борлуулалтын	-8984
4)	-8985
сөг	-8986
Үнд	-8987
▁37	-8988
▁65	-8989
▁єг	-8990
ерын	-8991
лсэн	-8992
оныг	-8993
▁1-2	-8994
▁Увс	-8995
Пүрэв	-8996
Эрдэн	-8997
омгүй	-8998
▁МУИС	-8999
▁Нууц	-9000
▁амаа	-9001
▁хөөж	-9002
▁Барим	-9003
▁алсан	-9004
▁дайнд	-9005
▁илэрч	-9006
▁чихэр	-9007
▁өсгөх	-9008
▁Вашинг	-9009
▁Оюутан	-9010
▁Хурдан	-9011
▁авилга	-9012
▁болсны	-9013
▁малчин	-9014
▁мэдэлд	-9015
▁хичээн	-9016
▁хүчинд	-9017
▁YouTube	-9018
▁дүрмийг	-9019
▁машинаа	-9020
▁сексийн	-9021
▁толгойн	-9022
▁хооллох	-9023
▁үнэмшил	-9024
▁Баянзүрх	-9025
▁Хөтөлбөр	-9026
▁гарагийн	-9027
▁залуусын	-9028
▁фэйсбүүк	-9029
▁хохирогч	-9030
▁шалтгаалан	-9031
НА	-9032
їй	-9033
ууу	-9034
▁ге	-9035
▁эк	-9036
▁for	-9037
▁МЭД	-9038
▁ядр	-9039
актор	-9040
▁Авар	-9041
▁манг	-9042
▁хавт	-9043
▁ялыг	-9044
▁Бүтэн	-9045
▁сахиу	-9046
▁унаад	-9047
▁Богино	-9048
▁Зөвлөл	-9049
▁Нэмэлт	-9050
▁сараар	-9051
▁сартай	-9052
▁тэнцэх	-9053
▁төлдөг	-9054
▁улстай	-9055
уулахаар	-9056
▁гарахыг	-9057
▁дансанд	-9058
▁Тээврийн	-9059
▁дараалал	-9060
▁орууллаа	-9061
▁санаагаа	-9062
▁хүртээмж	-9063
▁хүрэлцэн	-9064
▁эзэмшдэг	-9065
▁явагддаг	-9066
▁боддоггүй	-9067
▁сурагчдын	-9068
▁хандуулах	-9069
▁сургуулийг	-9070
▁шинэчилсэн	-9071
6)	-9072
АЛТ	-9073
Ард	-9074
Сур	-9075
мөр	-9076
рав	-9077
Амьд	-9078
Хоёр	-9079
гэнэ	-9080
имог	-9081
▁Дор	-9082
чдээс	-9083
▁Петр	-9084
▁дүүс	-9085
▁илрэл	-9086
▁тарих	-9087
▁шавьж	-9088
Хамгийн	-9089
▁Эртний	-9090
▁зайтай	-9091
▁нэмээд	-9092
▁хураах	-9093
▁авахаас	-9094
▁бодисын	-9095
▁доогуур	-9096
▁мөнхийн	-9097
▁нутгаас	-9098
▁холболт	-9099
▁хуваагд	-9100
▁цуглуул	-9101
▁эзэлдэг	-9102
▁ядарсан	-9103
▁агуулдаг	-9104
▁алдаатай	-9105
▁багаасаа	-9106
▁зохиолын	-9107
▁эргүүлэн	-9108
▁дэлгэцийн	-9109
▁зайлсхийх	-9110
▁коммунист	-9111
▁ойлголтыг	-9112
▁хэрэглээнд	-9113
▁хүүхэлдэйн	-9114
17	-9115
EO	-9116
өе	-9117
ика	-9118
▁Үе	-9119
ight	-9120
▁120	-9121
▁Бич	-9122
▁Бут	-9123
▁Хол	-9124
▁бог	-9125
▁веб	-9126
▁ноё	-9127
▁өнд	-9128
лхүүр	-9129
▁Хувц	-9130
лэгдэх	-9131
▁авбал	-9132
▁алхах	-9133
▁шорон	-9134
▁эмийг	-9135
▁үүдэн	-9136
▁Ногоон	-9137
▁солиор	-9138
▁тайзан	-9139
▁хотхон	-9140
▁хөгжин	-9141
▁эмчийн	-9142
▁Өвлийн	-9143
уулаарай	-9144
▁Төслийн	-9145
▁больчих	-9146
▁хүлээнэ	-9147
▁Фэйсбүүк	-9148
▁ээжийгээ	-9149
▁алдагдсан	-9150
▁ашиглахад	-9151
▁газруудад	-9152
▁чөлөөлөгд	-9153
▁ойлголттой	-9154
▁баталгаатай	-9155
▁мэргэжилтэй	-9156
▁түрээслүүлнэ	-9157
АВ	-9158
Ур	-9159
чх	-9160
ён	-9161
Ийм	-9162
ара	-9163
▁Сав	-9164
▁ТББ	-9165
▁Чим	-9166
▁ирц	-9167
▁мун	-9168
▁хул	-9169
▁эрж	-9170
▁1992	-9171
▁хийс	-9172
rosoft	-9173
аалтын	-9174
агчдад	-9175
▁Бараа	-9176
▁Даваа	-9177
▁Далай	-9178
▁бичил	-9179
▁тэгэх	-9180
▁Өмнөг	-9181
▁өсвөр	-9182
▁академ	-9183
▁болноо	-9184
▁гартаа	-9185
▁гэрээс	-9186
▁объект	-9187
▁орчлон	-9188
▁тайлаг	-9189
▁хорлох	-9190
▁Үлдсэн	-9191
▁ирэхдээ	-9192
▁найрагч	-9193
▁найруул	-9194
▁нөөцийг	-9195
▁тиймээс	-9196
▁хийсний	-9197
▁үзэхгүй	-9198
▁Previous	-9199
▁бүтээлээ	-9200
▁оруулдаг	-9201
▁прокурор	-9202
▁өнгөрлөө	-9203
▁Чингэлтэй	-9204
▁хамгаална	-9205
▁хүлээгээд	-9206
▁бүртгэлтэй	-9207
▁шаардагдах	-9208
▁танилцууллаа	-9209
org	-9210
зон	-9211
▁07	-9212
▁08	-9213
▁ОР	-9214
осын	-9215
▁Кор	-9216
▁Ниг	-9217
▁рок	-9218
охоор	-9219
▁Архи	-9220
▁амьс	-9221
▁бөгл	-9222
▁донт	-9223
▁найд	-9224
▁тулж	-9225
▁хаях	-9226
▁багад	-9227
▁комис	-9228
▁хилэн	-9229
▁сайдад	-9230
▁хэмнэх	-9231
▁ёстойг	-9232
▁Туркийн	-9233
▁амжилтын	-9234
▁дууссаны	-9235
▁дэлгүүрт	-9236
▁тариалан	-9237
▁хэлэлцээ	-9238
▁Цахилгаан	-9239
▁дүгнэлтийг	-9240
▁хадгаламжийн	-9241
▁үйлдвэрлэдэг	-9242
SO	-9243
br	-9244
АЖ	-9245
Бүх	-9246
ата	-9247
▁95	-9248
▁хи	-9249
▁May	-9250
▁Итг	-9251
▁Кол	-9252
▁Эгч	-9253
▁ааж	-9254
▁лаа	-9255
Эрүүл	-9256
▁төрч	-9257
Бидний	-9258
▁Номын	-9259
▁амтай	-9260
▁төлнө	-9261
▁хошуу	-9262
▁шахуу	-9263
▁Дандаа	-9264
▁Соёлын	-9265
▁авъяас	-9266
▁агаарт	-9267
▁байсны	-9268
▁биетэй	-9269
▁онцлон	-9270
▁цэнийг	-9271
▁доошгүй	-9272
▁машинтай	-9273
▁төрүүлэх	-9274
▁шийдвэрээ	-9275
▁өнөөдрөөс	-9276
16	-9277
Гад	-9278
ЖИЛ	-9279
шор	-9280
▁МҮ	-9281
▁ТҮ	-9282
уурь	-9283
цогт	-9284
эдэн	-9285
архай	-9286
малын	-9287
▁орил	-9288
▁хөрг	-9289
▁ядах	-9290
амжгүй	-9291
нуудад	-9292
▁ангиж	-9293
▁тэгэж	-9294
▁түгжр	-9295
▁форум	-9296
▁франц	-9297
▁цайны	-9298
▁бариул	-9299
▁давтан	-9300
▁дэвшиж	-9301
▁зуршил	-9302
▁нойтон	-9303
▁нууцыг	-9304
▁төрчид	-9305
▁мартсан	-9306
▁нийтээр	-9307
▁тойрогт	-9308
▁тоохгүй	-9309
▁шийддэг	-9310
▁яамнаас	-9311
▁явагдах	-9312
үүлэлтийн	-9313
▁Баттулга	-9314
▁амьдарна	-9315
▁засварын	-9316
▁зэрэгцэн	-9317
▁мөрийтэй	-9318
хоёрдугаар	-9319
▁дуусаагүй	-9320
▁орлоготой	-9321
▁тохиолдох	-9322
▁улстөрийн	-9323
▁хэрэглээг	-9324
▁байгуулдаг	-9325
▁үргэлжлүүлэх	-9326
sh	-9327
son	-9328
Тав	-9329
▁Ми	-9330
▁Сө	-9331
▁Tag	-9332
▁бет	-9333
▁дул	-9334
▁ахин	-9335
▁линк	-9336
▁эрхт	-9337
▁XNUMX	-9338
▁Порно	-9339
▁ХӨСҮТ	-9340
▁аминд	-9341
▁оронч	-9342
▁юугаа	-9343
Сүүлийн	-9344
▁Шөнийн	-9345
▁гэгээн	-9346
▁дагуул	-9347
▁дараад	-9348
▁зураач	-9349
▁тарааж	-9350
▁таргал	-9351
▁тогооч	-9352
▁унадаг	-9353
▁хүртэж	-9354
▁эрхэнд	-9355
▁үгсийг	-9356
▁үүсээд	-9357
▁саналын	-9358
▁шалгуул	-9359
нэгдүгээр	-9360
▁Худалдан	-9361
▁насаараа	-9362
▁тэтгэлэг	-9363
▁үүсгэсэн	-9364
▁Мэдээжийн	-9365
▁сонирхлын	-9366
▁уулзалтын	-9367
▁харагдсан	-9368
▁хялбархан	-9369
▁Коронавирус	-9370
▁өнгөрүүлсэн	-9371
▁төлөвлөгөөний	-9372
ER	-9373
ТЭ	-9374
Эн	-9375
ial	-9376
man	-9377
old	-9378
ЛЭГ	-9379
эгс	-9380
▁Ad	-9381
▁un	-9382
▁ни	-9383
амин	-9384
бирч	-9385
гээх	-9386
▁14-	-9387
▁And	-9388
▁Алс	-9389
▁Буц	-9390
▁Төг	-9391
▁Урд	-9392
▁ЭМЯ	-9393
сралт	-9394
▁2001	-9395
▁Холл	-9396
▁ахиц	-9397
▁санг	-9398
▁такс	-9399
▁уялд	-9400
▁хутг	-9401
▁ядар	-9402
▁үхэл	-9403
агджээ	-9404
лахаар	-9405
чилжээ	-9406
▁Алхам	-9407
▁бялуу	-9408
▁дагах	-9409
▁заалд	-9410
лүүлсэн	-9411
▁Анхаар	-9412
▁бохирд	-9413
▁гайхах	-9414
▁зэрэгц	-9415
▁насаар	-9416
▁сайтыг	-9417
▁улмаар	-9418
▁хүсээд	-9419
▁шүдний	-9420
▁үүгээр	-9421
▁Хариулт	-9422
▁болохоо	-9423
▁нэгжийн	-9424
▁суудлын	-9425
▁философ	-9426
▁шийдлээ	-9427
▁Үнэнийг	-9428
▁агуулгыг	-9429
▁заналхий	-9430
▁цалинтай	-9431
▁гишүүдийг	-9432
▁мэргэшсэн	-9433
▁сургалтад	-9434
▁тушаалтан	-9435
▁харагдаад	-9436
▁сонгуулийг	-9437
▁хэрэглэхэд	-9438
▁үйлдвэрлэж	-9439
▁зориулалтаар	-9440
пр	-9441
ass	-9442
▁ск	-9443
▁Зөр	-9444
▁Ноён	-9445
▁болц	-9446
▁заан	-9447
▁талх	-9448
▁цамц	-9449
гахгүй	-9450
сондоо	-9451
▁начин	-9452
▁түшиг	-9453
▁Москва	-9454
▁аяллын	-9455
▁бурууд	-9456
▁дотуур	-9457
▁нэгдэх	-9458
▁орчимд	-9459
▁охидын	-9460
▁салгаж	-9461
▁санаан	-9462
▁хэвлэх	-9463
▁өмссөн	-9464
үүлэхдээ	-9465
▁амласан	-9466
▁бичгээр	-9467
▁бодисыг	-9468
▁маягийн	-9469
▁хятадын	-9470
▁үүргийн	-9471
▁жаргалыг	-9472
▁зохиосон	-9473
▁нөхөрлөл	-9474
▁тогтооно	-9475
▁улсуудын	-9476
▁шатахуун	-9477
▁эмэгтэйн	-9478
▁үйлчлэгч	-9479
▁болчихдог	-9480
▁гишүүнийг	-9481
▁гишүүнээр	-9482
▁гуравдагч	-9483
▁уралдаанд	-9484
▁хэлэлцэнэ	-9485
▁хүүхэлдэй	-9486
▁стандартыг	-9487
ST	-9488
eg	-9489
ey	-9490
ХЯ	-9491
oin	-9492
лая	-9493
сүх	-9494
▁51	-9495
▁Tr	-9496
▁by	-9497
ений	-9498
тайн	-9499
элнэ	-9500
▁600	-9501
▁Тас	-9502
▁Чих	-9503
▁баз	-9504
▁ван	-9505
▁өөх	-9506
Болор	-9507
антик	-9508
хагва	-9509
эмжит	-9510
▁post	-9511
▁ярив	-9512
▁өвөг	-9513
гээдэг	-9514
▁хаяад	-9515
▁чадав	-9516
▁Африкт	-9517
▁Жаргал	-9518
▁Надтай	-9519
▁барааг	-9520
▁гэмтээ	-9521
▁сэтгэг	-9522
▁үүсдэг	-9523
▁өөдрөг	-9524
▁анагаах	-9525
▁болгоны	-9526
▁дүнгээр	-9527
▁залбирч	-9528
▁онгойлг	-9529
▁түвшинг	-9530
▁асуугаад	-9531
▁гаригийн	-9532
▁иргэдээс	-9533
▁санахгүй	-9534
▁хамаатан	-9535
▁хуудсанд	-9536
▁гишүүнтэй	-9537
▁санагдлаа	-9538
▁байршуулах	-9539
▁оролцохгүй	-9540
▁хэрэглэхгүй	-9541
oh	-9542
ШУ	-9543
ear	-9544
алм	-9545
екц	-9546
▁кк	-9547
▁нд	-9548
▁оф	-9549
идаг	-9550
▁Вик	-9551
▁хөм	-9552
▁цон	-9553
ээлэг	-9554
▁Дорж	-9555
▁зүүх	-9556
ландын	-9557
тэйхэн	-9558
▁Хожим	-9559
▁ажилт	-9560
▁айраг	-9561
▁нулим	-9562
▁уурын	-9563
▁халаа	-9564
▁хувьс	-9565
▁эргэц	-9566
▁яддаг	-9567
▁сонины	-9568
▁сүмийн	-9569
▁шивээс	-9570
▁Италийн	-9571
▁бэлчээр	-9572
▁мэтгэлц	-9573
▁хэсгүүд	-9574
▁үзэхээр	-9575
▁бүлээрээ	-9576
▁гаргахыг	-9577
▁гэрлэсэн	-9578
▁дулаахан	-9579
▁зорилгоо	-9580
▁нийгмийг	-9581
▁хороолол	-9582
▁хуралдаж	-9583
▁цахимаар	-9584
▁асуудлаас	-9585
▁гэрийнхэн	-9586
▁мэдээлжээ	-9587
▁сэтгэцийн	-9588
▁тагнуулын	-9589
▁тулгардаг	-9590
▁менежментийн	-9591
,4	-9592
▁й	-9593
her	-9594
ick	-9595
ИТХ	-9596
Хэн	-9597
мор	-9598
▁Аг	-9599
Гант	-9600
гэвч	-9601
лоос	-9602
луур	-9603
чрал	-9604
▁Вен	-9605
▁хээ	-9606
▁шам	-9607
ацийн	-9608
▁Вакц	-9609
▁Фото	-9610
Хүмүүс	-9611
▁Умард	-9612
▁Эрдэм	-9613
▁домог	-9614
▁ойлго	-9615
▁айхтар	-9616
▁бичигт	-9617
▁нөхрөө	-9618
▁сервер	-9619
▁хилээр	-9620
▁өндөрл	-9621
▁Түлхүүр	-9622
▁авалтын	-9623
▁авлигын	-9624
▁амьсгаа	-9625
▁багахан	-9626
▁багтдаг	-9627
▁дуулдаг	-9628
▁мөргөлд	-9629
▁тархсан	-9630
▁шилжсэн	-9631
▁шинэлэг	-9632
▁өвчнийг	-9633
▁өнцгөөс	-9634
▁Архангай	-9635
▁гунигтай	-9636
▁нөлөөлнө	-9637
▁хэлтсийн	-9638
▁өгөгдлийг	-9639
▁нийтлэлийг	-9640
.9	-9641
▁БО	-9642
▁Ди	-9643
▁Лу	-9644
▁Па	-9645
▁ди	-9646
▁ум	-9647
▁Хаж	-9648
▁ойд	-9649
атрын	-9650
ессор	-9651
▁Дүүр	-9652
▁Шөнө	-9653
▁град	-9654
▁диск	-9655
▁ихэр	-9656
▁цайр	-9657
дэхгүй	-9658
лаараа	-9659
лаарай	-9660
чуудыг	-9661
▁Оролц	-9662
▁Станд	-9663
▁баатр	-9664
▁ингэх	-9665
▁олдох	-9666
▁томьё	-9667
▁явцын	-9668
▁Банкны	-9669
▁Биеийн	-9670
▁Цагийн	-9671
▁бодолд	-9672
▁мөрдөг	-9673
Тэгэхээр	-9674
▁дижитал	-9675
▁журмаар	-9676
▁толгойг	-9677
▁хойноос	-9678
▁шимтгэл	-9679
▁гэдэгтээ	-9680
▁платформ	-9681
▁шүүмжилж	-9682
▁дараагаар	-9683
▁дотооддоо	-9684
▁нөхцөлийг	-9685
▁үндсэндээ	-9686
▁байшингийн	-9687
▁сэтгүүлчид	-9688
▁тоглолтонд	-9689
▁хэрэгцээнд	-9690
▁үйлчлүүлэгчид	-9691
:-	-9692
SD	-9693
MED	-9694
ire	-9695
зэн	-9696
мен	-9697
мон	-9698
одн	-9699
▁эш	-9700
roid	-9701
▁Фин	-9702
▁нөг	-9703
▁хоб	-9704
▁цаа	-9705
гэлэн	-9706
елдэг	-9707
▁Марк	-9708
▁аялж	-9709
▁зурж	-9710
▁нүүж	-9711
▁туул	-9712
▁харш	-9713
өөнөөс	-9714
▁больж	-9715
▁явчих	-9716
Хүрэлсү	-9717
жуулалт	-9718
лагдана	-9719
▁Бурхны	-9720
▁Ертөнц	-9721
▁баасан	-9722
▁зориуд	-9723
▁зуурын	-9724
▁малчид	-9725
▁хөтлөх	-9726
агдашгүй	-9727
▁зэвсэгт	-9728
▁суугчид	-9729
▁хайгаад	-9730
▁харьцах	-9731
▁хаягаар	-9732
▁Интернэт	-9733
▁тойргийн	-9734
▁тусалсан	-9735
▁хүчинтэй	-9736
▁эхлэхээс	-9737
▁явчихсан	-9738
▁автобусны	-9739
▁анхааралд	-9740
▁хурдацтай	-9741
▁амьдралтай	-9742
]]	-9743
вв	-9744
▁Й	-9745
▁🙂	-9746
нэг	-9747
алуу	-9748
альд	-9749
раас	-9750
▁22-	-9751
▁250	-9752
▁ийг	-9753
▁үср	-9754
айнга	-9755
гэлээ	-9756
мөсөн	-9757
элгээ	-9758
▁1996	-9759
▁Чуул	-9760
▁торг	-9761
▁шүүс	-9762
чихоод	-9763
эмжтэй	-9764
▁алийг	-9765
▁атлаа	-9766
▁олжээ	-9767
▁ордын	-9768
▁хагал	-9769
лэлтийг	-9770
▁доошоо	-9771
▁Үргэлж	-9772
▁Тоглоом	-9773
▁буулгаж	-9774
▁дүрмийн	-9775
▁зүйлдээ	-9776
▁практик	-9777
▁товчийг	-9778
▁бөмбөлөг	-9779
▁гадагшаа	-9780
▁гараараа	-9781
▁зэрэгтэй	-9782
▁хувцасны	-9783
▁хүрээний	-9784
▁бахархдаг	-9785
▁дэмжихгүй	-9786
▁нийгэмлэг	-9787
▁ойролцоох	-9788
▁тээрэмдэх	-9789
▁улстөрчид	-9790
▁илэрхийлье	-9791
▁хүчилтөрөгчийн	-9792
29	-9793
pr	-9794
▁z	-9795
ame	-9796
ree	-9797
ари	-9798
▁2:	-9799
▁Ar	-9800
orld	-9801
гайн	-9802
тсэн	-9803
члэх	-9804
▁зуз	-9805
▁уяа	-9806
▁хөд	-9807
▁цэс	-9808
өгчид	-9809
▁бүрх	-9810
ектрон	-9811
лагаас	-9812
сэндээ	-9813
▁Архив	-9814
▁Ираны	-9815
▁Хэсэг	-9816
▁албыг	-9817
▁анкет	-9818
▁усаар	-9819
▁хужаа	-9820
▁хөлөө	-9821
▁дансны	-9822
▁хаасан	-9823
▁хараал	-9824
▁хэрэлд	-9825
▁шалтаг	-9826
▁өмсдөг	-9827
▁Германд	-9828
▁ажиглаж	-9829
▁зүйлтэй	-9830
▁сануулж	-9831
▁хэлмэгд	-9832
▁Тэгэхгүй	-9833
▁аятайхан	-9834
▁бодлогоо	-9835
▁гишүүдэд	-9836
▁мэдэгдэв	-9837
▁татварыг	-9838
▁хүнийхээ	-9839
▁Тоглоомын	-9840
▁барилдаан	-9841
▁баярласан	-9842
▁хэрэгтэйг	-9843
▁байрлалтай	-9844
▁оруулагчид	-9845
▁хязгааргүй	-9846
▁компьютерийн	-9847
▁хэрэгжүүлсэн	-9848
▁Ерөнхийлөгчид	-9849
">	-9850
ХД	-9851
ки	-9852
hat	-9853
ies	-9854
ino	-9855
мэр	-9856
ооо	-9857
▁Кл	-9858
иныг	-9859
лган	-9860
саны	-9861
талж	-9862
угар	-9863
▁24-	-9864
▁айн	-9865
▁тач	-9866
▁хак	-9867
▁шур	-9868
Гэхдээ	-9869
чуудад	-9870
үүдээр	-9871
▁Гэрэл	-9872
▁Онгоц	-9873
▁Төлөө	-9874
▁аврал	-9875
▁бодъё	-9876
▁шороо	-9877
▁үгтэй	-9878
▁бардам	-9879
▁градус	-9880
▁гээгүй	-9881
▁зэсийн	-9882
▁тиймээ	-9883
▁тэртээ	-9884
▁чөлөөл	-9885
▁өнгийг	-9886
▁өнгөөр	-9887
▁Хугацаа	-9888
▁гуравны	-9889
▁санадаг	-9890
▁сөргөөр	-9891
▁уурхайд	-9892
▁харахыг	-9893
▁эргүүлж	-9894
▁явахаар	-9895
▁яриагүй	-9896
▁зорилтот	-9897
▁иргэддээ	-9898
▁нотолгоо	-9899
▁хандуулж	-9900
▁харахаар	-9901
▁эзэмшигч	-9902
▁явагдана	-9903
▁төгрөгийг	-9904
▁ээжийнхээ	-9905
▁хариуцлагыг	-9906
8)	-9907
hy	-9908
СЯ	-9909
бит	-9910
жир	-9911
рий	-9912
ьян	-9913
2012	-9914
заяа	-9915
ндээ	-9916
хөөр	-9917
▁(19	-9918
▁Лав	-9919
▁Хас	-9920
▁Экс	-9921
▁Янз	-9922
▁1999	-9923
▁2002	-9924
▁Улам	-9925
▁аялг	-9926
▁давс	-9927
▁засч	-9928
▁микр	-9929
▁хард	-9930
▁хойч	-9931
гээсээ	-9932
▁Гадны	-9933
▁Пүрэв	-9934
▁гарыг	-9935
▁өвдөж	-9936
лангийн	-9937
▁Гэгээн	-9938
▁Дөнгөж	-9939
▁Жаахан	-9940
▁Испани	-9941
▁арьсны	-9942
▁бүртээ	-9943
▁гаргав	-9944
▁соёлыг	-9945
▁хэвшил	-9946
▁цэвэрш	-9947
▁шинийн	-9948
▁Компани	-9949
▁ашиггүй	-9950
▁зүрхний	-9951
▁математ	-9952
▁орлогыг	-9953
▁сүүлдээ	-9954
▁тойрсон	-9955
▁төгсөөд	-9956
▁хувцсаа	-9957
▁хөдлөлт	-9958
▁шийджээ	-9959
▁нэмэргүй	-9960
▁орчихсон	-9961
▁судлалын	-9962
▁тэрэгний	-9963
▁хөнөөсөн	-9964
▁чөлөөний	-9965
▁шүүлтүүр	-9966
▁эргэлзэж	-9967
▁суулгасан	-9968
▁тогтоожээ	-9969
▁хүсэлтээр	-9970
▁гүйцэтгэнэ	-9971
▁өнгөрүүлэх	-9972
▁зориулалтын	-9973
▁хэрэгжүүлэхэд	-9974
▁^	-9975
-15	-9976
мээ	-9977
▁58	-9978
▁De	-9979
▁бо	-9980
врын	-9981
▁17-	-9982
▁Res	-9983
▁Бад	-9984
▁Сах	-9985
▁Хаш	-9986
▁фэн	-9987
артаа	-9988
галах	-9989
гатай	-9990
эгийн	-9991
өлтэй	-9992
▁Fuck	-9993
▁Ховд	-9994
▁баав	-9995
▁загн	-9996
▁талт	-9997
▁эзэд	-9998
▁гэдэс	-9999
▁даган	-10000
▁юутай	-10001
▁Парлам	-10002
▁аяндаа	-10003
▁буурах	-10004
▁даралт	-10005
▁дуурай	-10006
▁зурхай	-10007
▁тараах	-10008
▁тэмүүл	-10009
▁дургүйц	-10010
▁зорчигч	-10011
▁сайдаар	-10012
▁хийгдэх	-10013
▁эртнээс	-10014
▁Амралтын	-10015
▁авчихсан	-10016
▁бүдүүлэг	-10017
▁тэгэхээр	-10018
▁хүрээтэй	-10019
▁хөгжүүлж	-10020
▁цэвэрлэж	-10021
▁Microsoft	-10022
▁гэдгээрээ	-10023
▁хэлбэрийг	-10024
▁чадварлаг	-10025
▁шалгарсан	-10026
▁мэндчилгээ	-10027
▁сургалтанд	-10028
▁сургуулиас	-10029
▁хамгааллын	-10030
▁байгуулахаар	-10031
-11	-10032
:30	-10033
ank	-10034
ure	-10035
инт	-10036
янг	-10037
▁76	-10038
овын	-10039
шөөр	-10040
▁ZAR	-10041
▁Иер	-10042
▁Нор	-10043
▁май	-10044
MEDEE	-10045
ифорн	-10046
нөсөн	-10047
▁Вьет	-10048
▁Шуур	-10049
▁аран	-10050
▁халб	-10051
уурсан	-10052
▁Гэнэт	-10053
▁Төлөв	-10054
▁гурил	-10055
▁зардл	-10056
▁төвөг	-10057
мааргүй	-10058
▁байраа	-10059
▁орохыг	-10060
▁Үнэгүй	-10061
▁Гагцхүү	-10062
▁агуулах	-10063
▁аймшигт	-10064
▁дэвшилт	-10065
▁төсвийг	-10066
▁унтраах	-10067
▁хаалгыг	-10068
▁холбоог	-10069
▁цаашдын	-10070
▁үнэлдэг	-10071
▁Олимпийн	-10072
▁амьдраад	-10073
▁баригдаж	-10074
▁боломжит	-10075
▁иргэншил	-10076
▁мөрөөдөж	-10077
▁олгохгүй	-10078
▁халдлага	-10079
▁цуглуулж	-10080
▁өрсөлдөж	-10081
▁Найрамдах	-10082
▁гаргаагүй	-10083
▁малтмалын	-10084
▁хандлагыг	-10085
▁хэлэлцсэн	-10086
▁цалингийн	-10087
▁хэрэгслээр	-10088
▁Хэрэглэгчийн	-10089
АЯ	-10090
ock	-10091
Өмн	-10092
▁Ли	-10093
▁Му	-10094
OVID	-10095
ject	-10096
Сонг	-10097
онго	-10098
▁Бүт	-10099
▁Сув	-10100
▁аср	-10101
ОНГОЛ	-10102
▁3000	-10103
▁Хэнд	-10104
▁гуйв	-10105
▁шилд	-10106
зандан	-10107
▁Яасан	-10108
▁инээж	-10109
▁шүүмж	-10110
▁өртөж	-10111
▁Хэвлэл	-10112
▁босгох	-10113
▁бэлдэх	-10114
▁гамшиг	-10115
▁зөрчиг	-10116
▁маргал	-10117
▁нэгнээ	-10118
▁тоосон	-10119
▁ухаанд	-10120
▁шуудан	-10121
▁Израиль	-10122
▁Тайланд	-10123
▁аваргын	-10124
▁байшинд	-10125
▁бизнест	-10126
▁уулзлаа	-10127
▁эхлэхэд	-10128
▁Британид	-10129
▁Татварын	-10130
▁Харилцаа	-10131
▁болсноор	-10132
▁мэдэхийн	-10133
▁эмэгтэйг	-10134
▁бэхжүүлэх	-10135
▁дэвшигчид	-10136
▁хамруулах	-10137
▁хүнтэйгээ	-10138
▁оролцогчид	-10139
▁хэмжээнээс	-10140
▁хэрэгслүүд	-10141
▁санамсаргүй	-10142
▁тогтоогдсон	-10143
▁тэмдэглэсэн	-10144
26	-10145
ON	-10146
рх	-10147
ish	-10148
ейс	-10149
огс	-10150
▁05	-10151
▁46	-10152
▁47	-10153
▁АР	-10154
▁Ак	-10155
▁ТО	-10156
▁ШУ	-10157
алыг	-10158
лдэг	-10159
усал	-10160
ьтай	-10161
▁Хуу	-10162
▁жан	-10163
▁ред	-10164
▁түд	-10165
▁цад	-10166
▁үрж	-10167
агнай	-10168
жуулж	-10169
▁Райл	-10170
▁Санд	-10171
▁Швед	-10172
▁инст	-10173
▁масс	-10174
▁ноол	-10175
жилтын	-10176
огчдод	-10177
▁1990-	-10178
▁нөхөж	-10179
▁олныг	-10180
▁үсний	-10181
▁Хулгай	-10182
▁буусан	-10183
▁график	-10184
▁нэгээс	-10185
▁сунгах	-10186
▁тооцно	-10187
▁хуульч	-10188
▁шилжиж	-10189
▁адилаар	-10190
▁ажилчин	-10191
▁залгамж	-10192
▁ойлгуул	-10193
▁тагнуул	-10194
▁түдгэлз	-10195
▁уулзана	-10196
▁хуримын	-10197
▁хүндийг	-10198
▁шудрага	-10199
▁эхлүүлж	-10200
▁ZARMEDEE	-10201
▁Мөнгөний	-10202
▁Хятадууд	-10203
▁болчихож	-10204
▁үзүүлбэр	-10205
▁албаныхан	-10206
▁хичээлдээ	-10207
▁мэргэжлээр	-10208
▁хүргүүлсэн	-10209
▁бүтээгдэхүүнээ	-10210
вч	-10211
жи	-10212
рүү	-10213
хүл	-10214
▁Ск	-10215
▁ЭР	-10216
▁см	-10217
атал	-10218
нийх	-10219
▁Дуг	-10220
▁Лин	-10221
▁ойг	-10222
аатай	-10223
аггүй	-10224
нэсэн	-10225
овийн	-10226
сдийн	-10227
үүтэй	-10228
▁Туул	-10229
▁Эмээ	-10230
▁имэй	-10231
▁ихэн	-10232
▁манс	-10233
▁уриа	-10234
▁Ердөө	-10235
▁Парис	-10236
▁алсын	-10237
▁гаран	-10238
▁гүрэн	-10239
▁махан	-10240
▁наалд	-10241
▁Дасгал	-10242
▁атаарх	-10243
▁дуудах	-10244
▁дүрийг	-10245
▁эхнээс	-10246
▁үхлийн	-10247
▁байраар	-10248
▁бүрдэнэ	-10249
▁гайхаад	-10250
▁мэдлийг	-10251
▁найрсаг	-10252
▁нэвтэрч	-10253
▁сангаас	-10254
▁сэргээж	-10255
▁уулзаад	-10256
▁хоолонд	-10257
▁хорвоод	-10258
Баасанхүү	-10259
▁Зөвлөгөө	-10260
▁алдалгүй	-10261
▁аргачлал	-10262
▁ашиглаад	-10263
▁олимпийн	-10264
▁хэлэхийг	-10265
▁юугаараа	-10266
үрэлбаатар	-10267
▁бутлуурыг	-10268
▁зургуудыг	-10269
▁ойлгуулах	-10270
▁програмыг	-10271
▁этгээдийн	-10272
▁Судалгааны	-10273
▁хувьсгалын	-10274
▁чуулганаар	-10275
▁Є	-10276
Хал	-10277
Хув	-10278
▁43	-10279
▁Гу	-10280
чоод	-10281
▁СЕХ	-10282
▁Хай	-10283
▁Цус	-10284
▁урь	-10285
асаар	-10286
онгуй	-10287
▁НИТХ	-10288
▁Тэмц	-10289
▁Усны	-10290
Хэрвээ	-10291
ацгаая	-10292
▁Сонин	-10293
▁Хурим	-10294
▁болъё	-10295
▁гацаа	-10296
▁ортой	-10297
▁тайлж	-10298
▁тогоо	-10299
▁цусны	-10300
өгчдийн	-10301
▁Тэрийг	-10302
▁Хөгжим	-10303
▁багийг	-10304
▁салгах	-10305
▁тэндээ	-10306
▁устгаж	-10307
Өнгөрсөн	-10308
▁Асуудал	-10309
▁Дэлхийд	-10310
▁Телевиз	-10311
▁бүжгийн	-10312
▁вакцины	-10313
▁зайлуул	-10314
▁зүйлээр	-10315
▁наадмыг	-10316
▁олоогүй	-10317
▁хотхонд	-10318
▁шүршигч	-10319
▁бохирдол	-10320
▁захиалах	-10321
▁хуультай	-10322
▁чадвараа	-10323
▁өлсгөлөн	-10324
▁анзаарсан	-10325
▁ингэснээр	-10326
▁экспортын	-10327
▁гүйцэтгэгч	-10328
▁тэтгэврийн	-10329
▁танилцуулна	-10330
▁хэрэглэхийг	-10331
▁Монголбанкны	-10332
7)	-10333
uu	-10334
▁02	-10335
▁ХО	-10336
▁но	-10337
,...	-10338
read	-10339
аанд	-10340
ворж	-10341
гаач	-10342
идог	-10343
логд	-10344
тгай	-10345
▁For	-10346
▁Мад	-10347
▁тэй	-10348
индаа	-10349
чилна	-10350
▁Арга	-10351
ээсээр	-10352
▁start	-10353
▁тахил	-10354
▁өрийн	-10355
ангэрэл	-10356
портлох	-10357
▁Санхүү	-10358
▁Хамгаа	-10359
▁гадагш	-10360
▁даавуу	-10361
▁довтол	-10362
▁иргэнд	-10363
▁морины	-10364
▁оршино	-10365
▁хайрла	-10366
▁эелдэг	-10367
▁Барууны	-10368
▁Бүртгэл	-10369
▁Энхболд	-10370
▁ажилтны	-10371
▁багтаан	-10372
▁гаалийн	-10373
▁мэдлийн	-10374
▁паспорт	-10375
▁сайнаар	-10376
▁ухааныг	-10377
▁хоёроос	-10378
▁эзэмшиж	-10379
▁явдлууд	-10380
▁Калифорн	-10381
▁ажлуудыг	-10382
▁тушаалыг	-10383
▁хориотой	-10384
▁чадалгүй	-10385
▁Ганцаараа	-10386
▁мартаарай	-10387
▁тоглолтод	-10388
▁хуваалцаж	-10389
▁цуглуулга	-10390
▁шинэчлэлт	-10391
▁оролцоогүй	-10392
▁сонгогчдын	-10393
▁судалгаанд	-10394
▁тооцогддог	-10395
▁мэдээлэлтэй	-10396
▁хичээгээрэй	-10397
ѳр	-10398
ool	-10399
ХАБ	-10400
ХАЙ	-10401
ери	-10402
лор	-10403
шоо	-10404
▁На	-10405
Хайр	-10406
игоо	-10407
нгол	-10408
▁Бөх	-10409
▁Дээ	-10410
▁Шир	-10411
▁ниг	-10412
Харин	-10413
▁Ирак	-10414
▁Хонг	-10415
▁Хууд	-10416
▁зоос	-10417
▁халх	-10418
околад	-10419
▁Казах	-10420
▁Эргэн	-10421
▁аргаа	-10422
▁гөлөг	-10423
▁дайрч	-10424
▁зочил	-10425
▁оффис	-10426
▁радио	-10427
▁сүйтг	-10428
▁шахам	-10429
▁өнгөн	-10430
илгааны	-10431
лагчийн	-10432
▁Бусдыг	-10433
▁дарсан	-10434
▁доройт	-10435
▁хурдны	-10436
▁хэнээс	-10437
▁үндэст	-10438
▁өөдөөс	-10439
▁Дэлгүүр	-10440
▁дуулиан	-10441
▁шилжилт	-10442
▁бясалгал	-10443
▁гадаргуу	-10444
▁устгасан	-10445
▁хуудасны	-10446
▁өрөөндөө	-10447
▁нийлүүлэх	-10448
▁статистик	-10449
▁хийчихсэн	-10450
▁хэрэглээд	-10451
▁байгуулагдаж	-10452
НЕ	-10453
юс	-10454
вай	-10455
▁1:	-10456
▁яз	-10457
адас	-10458
анди	-10459
гааг	-10460
лдог	-10461
онез	-10462
оёрх	-10463
сдын	-10464
▁Алт	-10465
▁Тоо	-10466
▁ноо	-10467
▁єєр	-10468
▁Жорж	-10469
▁сууг	-10470
▁ямаа	-10471
агчдыг	-10472
▁аваас	-10473
▁орвол	-10474
▁сарыг	-10475
▁тарьж	-10476
▁учирч	-10477
▁фракц	-10478
▁хагар	-10479
▁ялагч	-10480
▁Боломж	-10481
▁Жолооч	-10482
▁засгаа	-10483
▁илгээж	-10484
▁ихэнхи	-10485
▁нүдийг	-10486
▁тааруу	-10487
▁хорхой	-10488
▁үлддэг	-10489
▁Сүүлдээ	-10490
▁Удалгүй	-10491
▁бүтцийг	-10492
▁валютын	-10493
▁гарсаар	-10494
▁зардлаа	-10495
▁ирээрэй	-10496
▁талбайг	-10497
▁тусгайл	-10498
▁учруулж	-10499
▁цуглаан	-10500
▁бичээрэй	-10501
▁зохицуул	-10502
▁инээдтэй	-10503
▁нөхцлийг	-10504
▁ургамлын	-10505
▁хэрэгтэн	-10506
▁дангаараа	-10507
▁ойлгоогүй	-10508
▁тайлбарыг	-10509
▁тэнгисийн	-10510
▁хэдийгээр	-10511
▁шатахууны	-10512
▁нэмэгдүүлж	-10513
▁Сонирхолтой	-10514
▁үргэлжилсээр	-10515
гэв	-10516
Бямб	-10517
соны	-10518
чуул	-10519
ьжир	-10520
▁190	-10521
▁Гам	-10522
▁Нур	-10523
▁Цөм	-10524
▁сох	-10525
элжээ	-10526
▁1998	-10527
▁золг	-10528
......	-10529
ийгаач	-10530
лэхийг	-10531
чилсөн	-10532
чихвэл	-10533
▁Ажилт	-10534
▁Нарны	-10535
▁Хатуу	-10536
▁далан	-10537
▁махны	-10538
▁содон	-10539
▁танин	-10540
▁татна	-10541
▁урамш	-10542
▁хошин	-10543
▁шудар	-10544
лүүдийг	-10545
▁Баримт	-10546
▁Гудамж	-10547
▁Лондон	-10548
▁Төрсөн	-10549
▁Харилц	-10550
▁алдаад	-10551
▁аялалд	-10552
▁баривч	-10553
▁гомдоо	-10554
▁манлай	-10555
▁минийх	-10556
▁таараа	-10557
▁харгис	-10558
▁шилжин	-10559
өгдөөгүй	-10560
▁Android	-10561
▁Зээлийн	-10562
▁бүртгэж	-10563
▁зарчмын	-10564
▁зүрхэнд	-10565
▁нэгтгэх	-10566
▁банкнаас	-10567
▁барилдах	-10568
▁романтик	-10569
▁хийснээр	-10570
▁үеийнхэн	-10571
▁байрандаа	-10572
▁баярладаг	-10573
▁зайлуулах	-10574
▁хичээлийг	-10575
▁хичээллэж	-10576
▁дэвшүүлсэн	-10577
▁захиалгаар	-10578
▁тогтворгүй	-10579
▁хэрэгцээтэй	-10580
/.	-10581
SS	-10582
Аз	-10583
еш	-10584
act	-10585
ary	-10586
Баг	-10587
вин	-10588
дөн	-10589
жид	-10590
обу	-10591
сад	-10592
лгах	-10593
охын	-10594
▁III	-10595
▁Jun	-10596
▁dur	-10597
▁ЗӨВ	-10598
▁УОК	-10599
▁5000	-10600
▁Read	-10601
▁Влад	-10602
▁алах	-10603
▁тоож	-10604
▁тэнх	-10605
▁хүйс	-10606
▁өшөө	-10607
амжийг	-10608
оогийн	-10609
чихдэг	-10610
эгдэнэ	-10611
▁Сумын	-10612
▁тайвш	-10613
▁татам	-10614
▁үсийг	-10615
▁өргөм	-10616
▁Далайн	-10617
▁Завхан	-10618
▁зэвүүн	-10619
▁зэрэгт	-10620
▁конвен	-10621
▁нутгаа	-10622
▁саванд	-10623
▁сэтгэж	-10624
▁төлөөл	-10625
▁хавтан	-10626
▁цуцлах	-10627
▁ширээн	-10628
▁өчнөөн	-10629
▁Хоёулаа	-10630
▁анзаарч	-10631
▁араншин	-10632
▁генерал	-10633
▁идэхгүй	-10634
▁манлайл	-10635
▁морилно	-10636
▁улстөрч	-10637
▁цагдаад	-10638
▁жишээтэй	-10639
▁жүжигчид	-10640
▁машинаар	-10641
▁оруулагч	-10642
▁товчлуур	-10643
▁өндөрлөг	-10644
▁тохируулж	-10645
▁тэвчээртэй	-10646
▁эргэлзээтэй	-10647
▁бүсгүйчүүдийн	-10648
45	-10649
ae	-10650
де	-10651
ams	-10652
Гал	-10653
ТЭЙ	-10654
гая	-10655
мба	-10656
мог	-10657
тэг	-10658
уль	-10659
ГИЙН	-10660
охан	-10661
▁Тон	-10662
▁Чой	-10663
▁Яар	-10664
амгай	-10665
▁Галз	-10666
▁Жагс	-10667
▁Хонк	-10668
▁аваа	-10669
▁блок	-10670
▁хөгш	-10671
луудын	-10672
▁Гараа	-10673
▁Дубай	-10674
▁Польш	-10675
▁Спорт	-10676
▁Шилэн	-10677
▁аманд	-10678
▁улсаа	-10679
▁уруул	-10680
▁утсыг	-10681
▁эргэх	-10682
▁эргүү	-10683
▁Өсвөр	-10684
▁Өөрчл	-10685
▁Саудын	-10686
▁Худлаа	-10687
▁авмаар	-10688
▁гэсэнд	-10689
▁гэсээр	-10690
▁дурлаж	-10691
▁заадаг	-10692
▁нандин	-10693
▁ногдол	-10694
▁Ухаалаг	-10695
▁аажмаар	-10696
▁бөөнөөр	-10697
▁дадлага	-10698
▁дуунууд	-10699
▁наснаас	-10700
▁тооцсон	-10701
▁чадахаа	-10702
▁авчирдаг	-10703
▁бодитоор	-10704
▁дугаарын	-10705
▁шийдлийг	-10706
▁анхнаасаа	-10707
▁баримталж	-10708
▁захиалагч	-10709
▁идэвхитэй	-10710
▁хамрагдаж	-10711
▁харуулдаг	-10712
▁хэрэгжүүл	-10713
▁шалгалтыг	-10714
▁Тэдгээрийн	-10715
▁удирдагчид	-10716
▁баримталдаг	-10717
▁бүрэлдэхүүнд	-10718
sp	-10719
ЭЗ	-10720
бу	-10721
ЛАГ	-10722
анз	-10723
гат	-10724
▁57	-10725
▁Нү	-10726
отын	-10727
өрөө	-10728
▁Рон	-10729
▁Хой	-10730
▁мөс	-10731
▁цөл	-10732
▁Inst	-10733
▁зоог	-10734
▁эвдр	-10735
▁өндр	-10736
▁Шадар	-10737
▁ерөөе	-10738
▁зодог	-10739
▁огцор	-10740
▁самар	-10741
▁сандр	-10742
▁таваг	-10743
▁юмдаа	-10744
▁Хариуц	-10745
▁Эргээд	-10746
▁бэлгэд	-10747
▁мастер	-10748
▁нисдэг	-10749
▁олохын	-10750
▁сургаж	-10751
▁ханиад	-10752
▁эндүүр	-10753
▁ялгааг	-10754
▁үлдээж	-10755
▁Twitter	-10756
▁Сургалт	-10757
▁Шийдвэр	-10758
▁дэмжээд	-10759
▁шүүхээр	-10760
▁өдөртөө	-10761
▁болгожээ	-10762
▁лавлагаа	-10763
▁нэгэнтэй	-10764
▁сонголтоо	-10765
▁тогтоолын	-10766
▁холбоогүй	-10767
▁материалын	-10768
▁тааламжтай	-10769
▁тохиолдлын	-10770
▁цэвэрлэгээ	-10771
▁ашиглалтанд	-10772
▁байгууллагыг	-10773
BA	-10774
la	-10775
ИР	-10776
вл	-10777
яр	-10778
Өр	-10779
.2.	-10780
ink	-10781
имд	-10782
нан	-10783
охь	-10784
▁04	-10785
▁Gr	-10786
▁Th	-10787
▁[[	-10788
▁Уй	-10789
▁Үд	-10790
дахь	-10791
дийг	-10792
осны	-10793
сайн	-10794
▁мон	-10795
агтун	-10796
▁жаал	-10797
▁нууж	-10798
▁нэрв	-10799
нээрээ	-10800
▁Тэгэх	-10801
▁Удаан	-10802
▁Хүчит	-10803
▁авчих	-10804
▁толил	-10805
▁хамар	-10806
▁эзгүй	-10807
▁үзэгч	-10808
▁өнгөт	-10809
Засгийн	-10810
тэйгүүр	-10811
▁Буриад	-10812
▁Бээжин	-10813
▁Систем	-10814
▁Түрээс	-10815
▁голдуу	-10816
▁гуйсан	-10817
▁гэхгүй	-10818
▁гүйцэд	-10819
▁зовоож	-10820
▁зохиож	-10821
▁лигийн	-10822
▁суулга	-10823
▁түмнээ	-10824
▁хүндэт	-10825
▁царайг	-10826
▁явдалд	-10827
▁амьтдын	-10828
▁нийтдээ	-10829
▁соёлтой	-10830
▁төрлөөр	-10831
▁хавдрын	-10832
▁хандана	-10833
▁цэврийн	-10834
▁ёсондоо	-10835
▁үдэшлэг	-10836
▁алуурчин	-10837
▁дурьдсан	-10838
▁тогтворж	-10839
▁Гайхалтай	-10840
▁мөрөөддөг	-10841
▁найрамдах	-10842
▁хамаардаг	-10843
▁үнэлгээний	-10844
▁бэрхшээлийг	-10845
▁томилогдсон	-10846
▁харилцаагаа	-10847
ци	-10848
ays	-10849
Мар	-10850
ХАН	-10851
ова	-10852
▁XX	-10853
▁Хо	-10854
▁ре	-10855
асын	-10856
гэгч	-10857
ранс	-10858
эцүү	-10859
▁26-	-10860
▁Жан	-10861
▁гон	-10862
▁гуд	-10863
▁каб	-10864
▁цав	-10865
ламын	-10866
чихэж	-10867
ягмар	-10868
өгийн	-10869
▁Мань	-10870
▁Сонс	-10871
▁Угаа	-10872
▁ахиж	-10873
▁завш	-10874
▁сагс	-10875
▁хоос	-10876
▁хорь	-10877
▁шүүр	-10878
ааргүй	-10879
огдоод	-10880
чилдаг	-10881
▁Ухаан	-10882
▁барах	-10883
▁очлоо	-10884
▁тусад	-10885
▁хайлт	-10886
▁цасан	-10887
▁эхээс	-10888
лагчдын	-10889
▁Татвар	-10890
▁Хүнийг	-10891
▁болвол	-10892
▁угаагч	-10893
▁уялдаа	-10894
▁хүнгүй	-10895
▁хөнөөл	-10896
▁Украины	-10897
▁баяраар	-10898
▁хорвоог	-10899
▁хурлаар	-10900
▁яваагүй	-10901
▁Амьдралд	-10902
▁бодоорой	-10903
▁зарлалаа	-10904
▁онцолсон	-10905
▁хаалганы	-10906
▁чадварын	-10907
▁шинэчлэн	-10908
▁Бүгдээрээ	-10909
▁асуултууд	-10910
▁нислэгийн	-10911
▁ажиллахаар	-10912
▁засаглалын	-10913
▁сэтгэгдлээ	-10914
▁бүртгүүлсэн	-10915
▁эмэгтэйчүүдийг	-10916
1)	-10917
27	-10918
ph	-10919
ww	-10920
Он	-10921
ata	-10922
енс	-10923
икт	-10924
▁PC	-10925
▁Же	-10926
ахах	-10927
дэгч	-10928
стан	-10929
▁Egu	-10930
▁Авр	-10931
▁Офф	-10932
▁Шагн	-10933
▁алим	-10934
▁гийн	-10935
▁ичих	-10936
▁навч	-10937
▁тунг	-10938
▁Өөрт	-10939
вортой	-10940
иогийн	-10941
▁Анжел	-10942
▁Ромын	-10943
▁Хааяа	-10944
▁амлаж	-10945
▁тойрч	-10946
▁тугал	-10947
▁хаагд	-10948
▁хуурч	-10949
Батболд	-10950
ээлттэй	-10951
▁Бусдад	-10952
▁мөрийг	-10953
▁сонинд	-10954
▁тохирч	-10955
▁төлөөд	-10956
▁файлыг	-10957
эгдээгүй	-10958
▁аварсан	-10959
▁аудитын	-10960
▁нийтийг	-10961
▁төслүүд	-10962
▁удирдан	-10963
▁шалгаад	-10964
▁Үзэсгэл	-10965
▁Сонгууль	-10966
▁Хүүхдийг	-10967
▁арчаагүй	-10968
▁нийслэлд	-10969
▁орчуулга	-10970
▁хэдийнээ	-10971
▁Өмнөговь	-10972
▁өнгөрөөх	-10973
▁Сургалтын	-10974
▁газруудын	-10975
▁сонгогдох	-10976
▁тэтгэвэрт	-10977
▁цогцолбор	-10978
▁амьдралаас	-10979
▁сэтгүүлийн	-10980
▁тодорхойлдог	-10981
▁баталгаажуулах	-10982
,7	-10983
.,	-10984
AT	-10985
ѳн	-10986
Инг	-10987
есу	-10988
нөө	-10989
сэр	-10990
цэр	-10991
самб	-10992
▁Ene	-10993
▁яав	-10994
Хүний	-10995
гийнх	-10996
шгийг	-10997
өлсөн	-10998
▁Дууд	-10999
▁Сири	-11000
▁бишр	-11001
▁босч	-11002
▁бөгж	-11003
▁гэрч	-11004
▁ирэн	-11005
▁парк	-11006
▁ёсыг	-11007
▁үнээ	-11008
▁өсөн	-11009
истаны	-11010
ралтай	-11011
▁Дотор	-11012
▁Крист	-11013
▁Налай	-11014
▁горьд	-11015
▁нээнэ	-11016
▁нүдэн	-11017
▁огноо	-11018
▁охинд	-11019
▁хонож	-11020
▁шахаж	-11021
▁Батлан	-11022
▁Булган	-11023
▁Хурлын	-11024
▁бүдүүн	-11025
▁жилүүд	-11026
▁команд	-11027
▁мартах	-11028
▁саарал	-11029
▁сагсан	-11030
▁төвийг	-11031
▁ярихыг	-11032
▁үйлийн	-11033
▁өвдсөн	-11034
▁аавыгаа	-11035
▁бүгдийн	-11036
▁гэгддэг	-11037
▁дуугаар	-11038
▁илүүдэл	-11039
▁ойлгоод	-11040
▁оронтой	-11041
▁төсвөөс	-11042
▁удаатай	-11043
▁хорионы	-11044
▁хямдхан	-11045
▁бууруулж	-11046
▁гудамжны	-11047
▁жуулчлал	-11048
▁ойлголоо	-11049
▁сувилагч	-11050
▁таамаглал	-11051
▁илэрхийлэл	-11052
▁мэдэгдэхгүй	-11053
▁хариуцлагын	-11054
▁үргэлжлүүлж	-11055
▁байгуулалттай	-11056
▁арваннэгдүгээр	-11057
AC	-11058
ҮР	-11059
oon	-11060
бая	-11061
ехн	-11062
муу	-11063
▁41	-11064
▁US	-11065
▁Үй	-11066
амба	-11067
лийз	-11068
туяа	-11069
чаад	-11070
▁Вал	-11071
▁Сүр	-11072
олдог	-11073
өмбөр	-11074
▁Сайт	-11075
▁идээ	-11076
▁прод	-11077
▁чанд	-11078
гоогүй	-11079
нэхээр	-11080
▁Eguur	-11081
▁малаа	-11082
▁мухар	-11083
▁угсаа	-11084
▁ухамс	-11085
▁шохой	-11086
тойбаяр	-11087
▁Хүссэн	-11088
▁баттай	-11089
▁бүлтэй	-11090
▁бөглөх	-11091
▁коллеж	-11092
▁номонд	-11093
▁нэгтэй	-11094
▁ойртож	-11095
▁сүртэй	-11096
▁ургуул	-11097
▁хуйвал	-11098
▁хуучир	-11099
▁гэдгээс	-11100
▁зардлын	-11101
▁муугаар	-11102
▁сонгоод	-11103
▁тарьсан	-11104
▁туслаач	-11105
▁хүртээл	-11106
▁Жирэмсэн	-11107
▁Ирээдүйд	-11108
▁Ихэвчлэн	-11109
▁алдаагаа	-11110
▁доромжил	-11111
▁нухацтай	-11112
▁торгууль	-11113
▁хэсэгтээ	-11114
▁шагналын	-11115
▁өсөлтийг	-11116
▁Гүйцэтгэх	-11117
▁амьдрахыг	-11118
▁бэлтгэсэн	-11119
▁хүмүүстээ	-11120
▁шилжүүлсэн	-11121
▁үзэсгэлэнт	-11122
35	-11123
IS	-11124
OM	-11125
St	-11126
ib	-11127
цах	-11128
элх	-11129
▁6.	-11130
▁7.	-11131
▁Жи	-11132
манд	-11133
мбэр	-11134
▁1.5	-11135
▁Дом	-11136
▁Пер	-11137
▁мөө	-11138
▁хэх	-11139
иггүй	-11140
үүжин	-11141
▁Билл	-11142
▁Хурд	-11143
▁итгэ	-11144
▁Ажлаа	-11145
▁Алдаа	-11146
▁Гадаа	-11147
▁Ковид	-11148
▁босож	-11149
▁ерөөл	-11150
▁наран	-11151
▁ордыг	-11152
▁харав	-11153
▁хөөгд	-11154
енерийн	-11155
▁Баатар	-11156
▁Давхар	-11157
▁Жирийн	-11158
▁МОНГОЛ	-11159
▁мэдүүл	-11160
▁Дараахь	-11161
▁албадан	-11162
▁гэдсээр	-11163
▁нэгдмэл	-11164
▁тэнцсэн	-11165
▁түүндээ	-11166
▁төлөөлж	-11167
▁хүндэлж	-11168
▁өгүүлэх	-11169
жуулалтын	-11170
▁Дотоодын	-11171
▁багтаамж	-11172
▁вакциныг	-11173
▁мэдэхээр	-11174
▁хоригийг	-11175
▁өсөлтийн	-11176
▁гүйцэтгэл	-11177
▁доромжилж	-11178
▁сэтгэлдээ	-11179
▁уншигчдад	-11180
▁байгуулжээ	-11181
▁итгэдэггүй	-11182
▁анхаараарай	-11183
▁хамаарахгүй	-11184
,0	-11185
pe	-11186
гү	-11187
ку	-11188
сл	-11189
▁ї	-11190
100	-11191
ike	-11192
Зур	-11193
бид	-11194
двэл	-11195
орту	-11196
отой	-11197
райн	-11198
ьдаг	-11199
▁Зул	-11200
▁лай	-11201
▁сад	-11202
▁сий	-11203
▁арми	-11204
▁заас	-11205
▁иднэ	-11206
▁ичиж	-11207
▁курс	-11208
▁нуух	-11209
▁тээж	-11210
▁чигл	-11211
▁Өвөл	-11212
аагуур	-11213
алдсан	-11214
вартай	-11215
иулсан	-11216
лалтад	-11217
саараа	-11218
ууддаа	-11219
▁төрнө	-11220
▁явжээ	-11221
▁Хэдхэн	-11222
▁аялгуу	-11223
▁сэрүүн	-11224
▁яаманд	-11225
▁үгнээс	-11226
▁Бэлгийн	-11227
▁Индонез	-11228
▁Шуурхай	-11229
▁баярлах	-11230
▁болтлоо	-11231
▁бэлдсэн	-11232
▁гайхсан	-11233
▁дууддаг	-11234
▁интернэ	-11235
▁механик	-11236
▁сайжирч	-11237
▁сууцанд	-11238
▁ярихдаа	-11239
▁аавынхаа	-11240
▁халдварт	-11241
▁харуулна	-11242
▁шатандаа	-11243
▁ардчиллын	-11244
▁тулгарсан	-11245
▁түрүүлсэн	-11246
▁эрсдэлийг	-11247
▁ашиглахгүй	-11248
▁компанитай	-11249
▁үйлдвэрийг	-11250
▁сургуульдаа	-11251
▁шийдвэрлэнэ	-11252
▁шинжилгээнд	-11253
pl	-11254
МН	-11255
Өг	-11256
ood	-11257
Зор	-11258
▁85	-11259
▁Ян	-11260
▁ҮХ	-11261
▁үй	-11262
Оюут	-11263
ламж	-11264
ожээ	-11265
онус	-11266
▁ДНБ	-11267
▁Пол	-11268
▁авх	-11269
▁афр	-11270
▁нүү	-11271
▁элч	-11272
руулж	-11273
▁Зээл	-11274
▁угср	-11275
Байгал	-11276
Мэдээж	-11277
алтаас	-11278
▁Удирд	-11279
▁алинд	-11280
▁няцаа	-11281
▁тэвэр	-11282
▁тэдэн	-11283
▁цочир	-11284
▁эвлэр	-11285
▁эзэнт	-11286
Жавхлан	-11287
▁Бяцхан	-11288
▁Тамгын	-11289
▁Холлив	-11290
▁Хоолны	-11291
▁алдлаа	-11292
▁барагд	-11293
▁гүрний	-11294
▁залхуу	-11295
▁зүтгэх	-11296
▁нөгөөх	-11297
▁туссан	-11298
▁формат	-11299
▁хөндий	-11300
▁чамдаа	-11301
▁юугаар	-11302
▁үйлдэж	-11303
▁Дашрамд	-11304
▁Хамтдаа	-11305
▁бүтээгч	-11306
▁хангана	-11307
▁эцэслэн	-11308
▁байдгийн	-11309
▁барилгыг	-11310
▁барилдаж	-11311
▁дурлалын	-11312
▁зорилгыг	-11313
▁зөрүүтэй	-11314
▁илрүүлэх	-11315
▁нэрэмжит	-11316
▁сэтгэхүй	-11317
▁тэрбумын	-11318
▁харилцаж	-11319
▁цалингаа	-11320
▁өнгөрөөж	-11321
▁болгоомжл	-11322
▁мөрөөдлөө	-11323
▁террорист	-11324
▁эхэлснээс	-11325
▁амьдралаар	-11326
▁оюутнуудад	-11327
▁компаниудад	-11328
▁шийдвэрлэсэн	-11329
▁арванхоёрдугаар	-11330
82	-11331
9)	-11332
na	-11333
бү	-11334
се	-11335
ans	-11336
ААН	-11337
имж	-11338
цаж	-11339
эрх	-11340
▁го	-11341
жсөн	-11342
итар	-11343
хиад	-11344
▁Сер	-11345
▁Фор	-11346
▁явд	-11347
эггүй	-11348
өлгүй	-11349
▁Буян	-11350
▁Мэнд	-11351
▁Тагн	-11352
▁барж	-11353
▁зүүж	-11354
▁ширт	-11355
▁ялна	-11356
олтгүй	-11357
чирхий	-11358
чихжээ	-11359
▁Давид	-11360
▁Отгон	-11361
▁Цэцэг	-11362
▁ашгаа	-11363
▁сайхн	-11364
▁харан	-11365
▁эрдэс	-11366
▁ялгах	-11367
▁яригд	-11368
▁Нарийн	-11369
▁Тэмдэг	-11370
▁авахаа	-11371
▁бараан	-11372
▁гарчиг	-11373
▁давтаж	-11374
▁доорхи	-11375
▁жингээ	-11376
▁зугтаж	-11377
▁кампан	-11378
▁хэлхээ	-11379
▁үнэний	-11380
▁Удирдах	-11381
▁болсноо	-11382
▁итгэсэн	-11383
▁оролдох	-11384
▁яриагаа	-11385
▁Хятадаас	-11386
▁ажлынхаа	-11387
▁алдаагүй	-11388
▁барахгүй	-11389
▁бүрмөсөн	-11390
▁газартаа	-11391
▁дурдахад	-11392
▁захирагч	-11393
▁зугаатай	-11394
▁иргэдтэй	-11395
▁одооноос	-11396
▁оролцоог	-11397
▁түмэндээ	-11398
▁хямралын	-11399
▁сайжруулж	-11400
▁хайрласан	-11401
▁хувцастай	-11402
▁нийлүүлэгч	-11403
▁иргэдийнхээ	-11404
▁шалтгаантай	-11405
▁үйлчилгээтэй	-11406
,6	-11407
AM	-11408
бул	-11409
мэй	-11410
уух	-11411
▁Ог	-11412
оолж	-11413
▁23-	-11414
▁БЗД	-11415
▁Бүс	-11416
▁Гав	-11417
▁Жэн	-11418
▁ХАР	-11419
▁эгн	-11420
чихав	-11421
▁Зүүд	-11422
▁Паул	-11423
▁Стив	-11424
▁Хийх	-11425
▁алаг	-11426
▁сүрд	-11427
▁тоот	-11428
▁хүүр	-11429
Нийгэм	-11430
лээрэй	-11431
▁Баянх	-11432
▁Бэлэн	-11433
▁намаа	-11434
лагджээ	-11435
▁Баабар	-11436
▁Бичлэг	-11437
▁Насанд	-11438
▁амьжир	-11439
▁уугуул	-11440
▁хайраа	-11441
▁ханган	-11442
▁хэмжиг	-11443
▁хүрээг	-11444
▁шүүгээ	-11445
▁Хувьцаа	-11446
▁дуудсан	-11447
▁орлогоо	-11448
▁хэсгээр	-11449
▁цэгцтэй	-11450
Энхбаярын	-11451
▁арчилгаа	-11452
▁насныхан	-11453
▁нэгэндээ	-11454
▁цувралын	-11455
▁анхаарлын	-11456
▁дийлэхгүй	-11457
▁суудалтай	-11458
▁тэжээлийн	-11459
▁өгөгдлийн	-11460
▁дамжуулагч	-11461
▁тулгуурлан	-11462
▁цуглуулсан	-11463
▁хөгжүүлэхэд	-11464
5)	-11465
ГЖ	-11466
бр	-11467
яя	-11468
ork	-11469
Гар	-11470
лет	-11471
сол	-11472
Үүл	-11473
Үүн	-11474
▁54	-11475
оцик	-11476
▁SEO	-11477
▁pre	-11478
▁Бям	-11479
▁Зов	-11480
▁Тул	-11481
антай	-11482
илгал	-11483
лахын	-11484
цгээе	-11485
элтэн	-11486
▁Турш	-11487
▁Усан	-11488
▁урга	-11489
▁хүйт	-11490
▁ялаа	-11491
▁Харри	-11492
▁галын	-11493
▁лидер	-11494
▁оддын	-11495
▁онгон	-11496
▁хорьж	-11497
▁юмтай	-11498
▁өрийг	-11499
обусанд	-11500
▁Маркет	-11501
▁Танилц	-11502
▁Хэнтий	-11503
▁бурхны	-11504
▁гэмгүй	-11505
▁задгай	-11506
▁зузаан	-11507
▁санамж	-11508
▁тендер	-11509
▁тэжээх	-11510
▁төвөөс	-11511
▁үйлийг	-11512
▁Автобус	-11513
▁Барилга	-11514
▁нийлээд	-11515
▁орохдоо	-11516
▁сонслоо	-11517
▁хуулинд	-11518
▁ямархуу	-11519
▁дэвшүүлж	-11520
▁олноороо	-11521
▁хадгална	-11522
▁хариуцаж	-11523
▁хөрөнгөө	-11524
▁америкийн	-11525
▁байлгахыг	-11526
▁мартахгүй	-11527
▁сайжирсан	-11528
▁уралдааны	-11529
▁хүлээлгэн	-11530
▁Одоохондоо	-11531
▁зөвлөмжийг	-11532
▁оюутнуудын	-11533
2.	-11534
AD	-11535
RE	-11536
НЫ	-11537
Ту	-11538
ЭВ	-11539
Өө	-11540
ake	-11541
САН	-11542
айт	-11543
еон	-11544
нал	-11545
ууж	-11546
▁03	-11547
▁1/	-11548
▁64	-11549
▁66	-11550
▁Хө	-11551
?...	-11552
ибер	-11553
тган	-11554
шлын	-11555
▁Дүү	-11556
▁Ноб	-11557
▁Пал	-11558
▁Хум	-11559
▁пор	-11560
▁шош	-11561
итнес	-11562
▁Дэлг	-11563
▁Ханг	-11564
▁анал	-11565
▁дорд	-11566
▁тайр	-11567
ууштай	-11568
▁Төсөв	-11569
▁Урлаг	-11570
▁баярт	-11571
▁бямба	-11572
▁морин	-11573
▁мөрөн	-11574
▁хайрц	-11575
▁худаг	-11576
▁эсхүл	-11577
▁Үзсэн	-11578
▁Үнийн	-11579
▁үзэмж	-11580
▁өвдөх	-11581
Эмэгтэй	-11582
▁Венесу	-11583
▁бооцоо	-11584
▁бөлгөө	-11585
▁гавьяа	-11586
▁голомт	-11587
▁далайд	-11588
▁дүгнэх	-11589
▁залгаж	-11590
▁мунхаг	-11591
▁надаар	-11592
▁огцрох	-11593
▁орлогч	-11594
▁уурлаж	-11595
▁цемент	-11596
▁үлджээ	-11597
▁өөрөөс	-11598
▁банкинд	-11599
▁дулааны	-11600
▁конусан	-11601
▁орохоор	-11602
▁сургаал	-11603
Ганбаатар	-11604
▁буруугүй	-11605
▁жаргалын	-11606
▁ирчихсэн	-11607
▁намынхан	-11608
▁ойлгоход	-11609
▁оролцлоо	-11610
▁солиотой	-11611
▁тооцоолж	-11612
▁хэтэрсэн	-11613
▁шилжүүлж	-11614
▁явагдсан	-11615
▁буцаагаад	-11616
▁дуусгавар	-11617
▁туршлагыг	-11618
▁тэмдэглэн	-11619
▁өөрсдийнх	-11620
Улаанбаатар	-11621
▁тэмцээнийг	-11622
▁Нөгөөтэйгүүр	-11623
-5	-11624
ge	-11625
sy	-11626
ИМ	-11627
ый	-11628
les	-11629
net	-11630
гөл	-11631
жий	-11632
эль	-11633
▁56	-11634
▁ны	-11635
azon	-11636
анда	-11637
емин	-11638
мууд	-11639
▁Бел	-11640
▁Виз	-11641
▁Лос	-11642
▁ТАН	-11643
▁ТУЗ	-11644
▁ЭСЯ	-11645
▁орк	-11646
agram	-11647
иудыг	-11648
оноос	-11649
▁Play	-11650
▁Адам	-11651
▁Жилд	-11652
▁Месс	-11653
▁Тарх	-11654
▁Цаад	-11655
▁дөрв	-11656
▁тусг	-11657
▁цуур	-11658
гаатай	-11659
▁Майкл	-11660
▁Хатан	-11661
▁гахай	-11662
▁давах	-11663
▁дадал	-11664
▁естой	-11665
▁нэмнэ	-11666
▁хаант	-11667
▁Багийн	-11668
▁Библид	-11669
▁Бразил	-11670
▁Цөмийн	-11671
▁амнаас	-11672
▁армийн	-11673
▁болдоо	-11674
▁индекс	-11675
▁нийлэх	-11676
▁сэдэвт	-11677
▁хэзээд	-11678
▁эртхэн	-11679
▁янзаар	-11680
▁Дональд	-11681
▁байцгаа	-11682
▁болсонд	-11683
▁гэмтсэн	-11684
▁жуулчин	-11685
▁нөхрийн	-11686
▁хаалгаа	-11687
▁хуудсан	-11688
Алтанхуяг	-11689
▁Худалдаа	-11690
▁машинууд	-11691
▁минутанд	-11692
▁онгоцоор	-11693
▁сүүлчээр	-11694
▁тэргүүнд	-11695
▁хаагчийн	-11696
▁хариулав	-11697
▁хурандаа	-11698
▁хэвшлийн	-11699
▁хүмүүжил	-11700
▁өнгөрчээ	-11701
▁Түүнийгээ	-11702
▁бүтээлүүд	-11703
▁сонгогчид	-11704
▁сонсоогүй	-11705
▁тавигдсан	-11706
▁хэзээнээс	-11707
▁хүндэлдэг	-11708
▁нарийвчлан	-11709
▁тэргүүлэгч	-11710
▁хамгаалсан	-11711
▁хамааралгүй	-11712
▁зөвшөөрөгдсөн	-11713
_:	-11714
си	-11715
ТАЙ	-11716
Чам	-11717
вий	-11718
мит	-11719
чий	-11720
▁АВ	-11721
▁Да	-11722
2019	-11723
atch	-11724
отик	-11725
чээд	-11726
▁(2)	-11727
▁Бит	-11728
▁Тах	-11729
▁гаа	-11730
▁кан	-11731
▁мог	-11732
▁ялж	-11733
▁өгс	-11734
Press	-11735
гахад	-11736
ерууд	-11737
▁Грек	-11738
▁Дани	-11739
▁Сүнс	-11740
▁аман	-11741
▁болд	-11742
▁зөгн	-11743
▁опер	-11744
▁хаад	-11745
иртуал	-11746
лөөгүй	-11747
сныхаа	-11748
▁Доорх	-11749
▁Зочин	-11750
▁гарал	-11751
▁махыг	-11752
▁орхин	-11753
▁ташаа	-11754
▁эвсэл	-11755
аасүрэн	-11756
▁бодлын	-11757
▁гарууд	-11758
▁дулаар	-11759
▁жишээг	-11760
▁зохимж	-11761
▁тавиур	-11762
▁тогтно	-11763
▁тэнэгт	-11764
▁төлөвш	-11765
▁хэдийг	-11766
▁цаанаа	-11767
▁чансаа	-11768
▁Иерусал	-11769
▁дуугарч	-11770
▁тэмцэлд	-11771
▁хаягийг	-11772
▁хээрийн	-11773
▁бахархал	-11774
▁нөлөөлөл	-11775
▁судалсан	-11776
▁түрэмгий	-11777
▁улсынхаа	-11778
▁урсгалыг	-11779
▁хангахад	-11780
▁хариуцах	-11781
▁үйлчилнэ	-11782
▁өрсөлдөө	-11783
▁Дараачийн	-11784
▁болгохоор	-11785
▁тусгайлан	-11786
▁төрүүлдэг	-11787
▁харьцаанд	-11788
▁хорооноос	-11789
▁үзэгчдийн	-11790
▁шаардлагад	-11791
▁урамшууллын	-11792
▁хүүхэдтэйгээ	-11793
ave	-11794
ААР	-11795
Хөг	-11796
ейд	-11797
▁Se	-11798
▁ch	-11799
▁ЭХ	-11800
тгөн	-11801
▁Гут	-11802
▁Тор	-11803
▁ШИН	-11804
▁арм	-11805
▁жиж	-11806
өгдөх	-11807
▁Евро	-11808
▁Манд	-11809
▁Тэги	-11810
▁гэлц	-11811
▁даар	-11812
▁даах	-11813
▁одод	-11814
▁прот	-11815
▁сайш	-11816
▁цоор	-11817
▁цочр	-11818
▁цөөр	-11819
▁шууг	-11820
Дэлхий	-11821
анданш	-11822
▁Шүлэг	-11823
▁Эрдэн	-11824
▁тэсэн	-11825
▁үнэрт	-11826
▁өвдөг	-11827
гэлтийн	-11828
лагдаад	-11829
тнуудын	-11830
▁Зорилг	-11831
▁андуур	-11832
▁болгоё	-11833
▁статус	-11834
▁сүүдэр	-11835
▁төртэй	-11836
▁өмсөгч	-11837
▁өндөрт	-11838
ээээээээ	-11839
▁Зургаан	-11840
▁гүйгээд	-11841
▁давхарт	-11842
▁капитал	-11843
▁нууцаар	-11844
▁суухгүй	-11845
▁түгшүүр	-11846
▁холимог	-11847
▁хөлсний	-11848
▁Судалгаа	-11849
▁давалгаа	-11850
▁илрээгүй	-11851
▁мэдээлэх	-11852
▁хойшлуул	-11853
▁шалгасан	-11854
▁үгүйсгэх	-11855
▁Эдгээрийг	-11856
▁зөвшөөрнө	-11857
▁суртахуун	-11858
▁тулгамдаж	-11859
▁шалгаарай	-11860
▁шинжээчид	-11861
▁анхааруулж	-11862
▁гайхамшигт	-11863
▁хамгаалдаг	-11864
▁илэрхийлжээ	-11865
▁төлөвлөгөөнд	-11866
FC	-11867
ei	-11868
tt	-11869
АБ	-11870
Ин	-11871
НЭ	-11872
Тү	-11873
бо	-11874
ina	-11875
ult	-11876
аза	-11877
ник	-11878
нэм	-11879
энт	-11880
▁sh	-11881
▁хє	-11882
илог	-11883
линг	-11884
мөнх	-11885
срэг	-11886
тхэг	-11887
▁29-	-11888
▁700	-11889
▁Хог	-11890
▁Яам	-11891
▁лал	-11892
▁наа	-11893
▁фен	-11894
дгээр	-11895
ентад	-11896
иймаа	-11897
чилан	-11898
члийн	-11899
эрийн	-11900
▁Стат	-11901
▁ШХАБ	-11902
▁халт	-11903
▁хунд	-11904
▁элдв	-11905
amsung	-11906
варлах	-11907
▁Баган	-11908
▁арвин	-11909
▁аргад	-11910
▁хобби	-11911
▁Улстөр	-11912
▁Хөгшин	-11913
▁гаднын	-11914
▁гараас	-11915
▁зарсан	-11916
▁сэлбэг	-11917
▁тамирч	-11918
▁түлхүү	-11919
▁ууланд	-11920
▁хурлыг	-11921
▁элссэн	-11922
▁эрдэмт	-11923
▁өвчлөл	-11924
▁Зөвшөөр	-11925
▁Халдвар	-11926
▁авчирна	-11927
▁заримыг	-11928
▁олуулаа	-11929
▁сурахад	-11930
▁сүлжээг	-11931
▁шоколад	-11932
▁Хөдөлгөө	-11933
▁амжихгүй	-11934
▁туслахыг	-11935
▁хувьцааг	-11936
▁царайтай	-11937
▁Хэрэглэгч	-11938
▁байгуулав	-11939
▁системтэй	-11940
▁хүндэтгэж	-11941
▁маргаантай	-11942
▁ажилтнуудын	-11943
▁ашиглагддаг	-11944
▁цэвэрлэгээний	-11945
&#	-11946
,8	-11947
48	-11948
9-	-11949
ЫГ	-11950
кү	-11951
юм	-11952
log	-11953
лэе	-11954
рон	-11955
▁!!	-11956
▁53	-11957
...?	-11958
алав	-11959
илин	-11960
олик	-11961
ороо	-11962
өрөг	-11963
▁Nov	-11964
▁Төм	-11965
▁аан	-11966
▁орг	-11967
▁сов	-11968
санаа	-11969
▁1997	-11970
▁Конг	-11971
▁Найм	-11972
▁бирж	-11973
▁боов	-11974
▁эгэл	-11975
Гадаад	-11976
истанд	-11977
луулна	-11978
эснээс	-11979
▁Азаар	-11980
▁Обама	-11981
▁туурв	-11982
▁физик	-11983
▁хожих	-11984
▁холын	-11985
▁Алдарт	-11986
▁Гайхам	-11987
▁Дэлгэр	-11988
▁Хилийн	-11989
▁алддаг	-11990
▁бодогч	-11991
▁бүлдээ	-11992
▁бөмбөр	-11993
▁дээшээ	-11994
▁олголт	-11995
▁тивийн	-11996
▁тэжээж	-11997
▁хослол	-11998
▁чанарт	-11999
үүлэхийн	-12000
▁зогсоно	-12001
▁тайланд	-12002
▁Үргэлжл	-12003
▁албанаас	-12004
▁болгочих	-12005
▁бухимдал	-12006
▁гарахаар	-12007
▁ресторан	-12008
▁тодотгол	-12009
▁хоногоос	-12010
▁электрон	-12011
▁эхнээсээ	-12012
▁Бурханаас	-12013
▁Вашингтон	-12014
▁Эмнэлгийн	-12015
▁байлгахын	-12016
▁зогсоосон	-12017
▁илрүүлсэн	-12018
▁танилцана	-12019
▁уйтгартай	-12020
▁эсэргүүцэл	-12021
▁өөрчлөлтүүд	-12022
▁зөвшөөрөлтэй	-12023
▁төлөөлөгчийн	-12024
▁байгууллагуудад	-12025
TM	-12026
ky	-12027
ОВ	-12028
ЦС	-12029
за	-12030
нү	-12031
oom	-12032
Гур	-12033
Мөн	-12034
Оюу	-12035
ори	-12036
снө	-12037
элз	-12038
▁""	-12039
▁My	-12040
▁Сп	-12041
▁Ши	-12042
▁мм	-12043
араг	-12044
гдэж	-12045
жсан	-12046
лзий	-12047
лсан	-12048
мүүн	-12049
▁Зун	-12050
▁Унг	-12051
▁бээ	-12052
▁гэц	-12053
Зарим	-12054
агаар	-12055
▁1993	-12056
▁Бууд	-12057
▁аним	-12058
▁бнаа	-12059
▁бээр	-12060
▁тийн	-12061
Тэгээд	-12062
алдаад	-12063
тгалын	-12064
▁Эхлэл	-12065
▁аугаа	-12066
▁бидэн	-12067
▁дөхөж	-12068
▁төрөө	-12069
▁уралд	-12070
▁энгэр	-12071
үүлсээр	-12072
▁Израил	-12073
▁Киноны	-12074
▁Сүлжээ	-12075
▁Хөгжил	-12076
▁амарна	-12077
▁баглаа	-12078
▁бараад	-12079
▁буулга	-12080
▁мөнхөд	-12081
▁нэгдэн	-12082
▁нэмрээ	-12083
▁нөхөрт	-12084
▁хөхний	-12085
▁чаджээ	-12086
▁шаналж	-12087
▁Ерөөсөө	-12088
▁аюулаас	-12089
▁дурджээ	-12090
▁илэрдэг	-12091
▁хэмнэлт	-12092
▁Хэтэрхий	-12093
▁зөвөлгөө	-12094
▁нээгдсэн	-12095
▁нээлтийн	-12096
▁олдоогүй	-12097
▁спортоор	-12098
▁үлдэгдэл	-12099
▁өгчихсөн	-12100
▁өнгөрдөг	-12101
▁багийнхан	-12102
▁боломжууд	-12103
▁бохирдлыг	-12104
▁бүтээлчид	-12105
▁дуусахгүй	-12106
▁мэдрэлийн	-12107
▁тогтоолыг	-12108
▁харьцуулж	-12109
▁хуримтлал	-12110
Хүрэлсүхийн	-12111
▁илүүдэхгүй	-12112
▁мэдээллүүд	-12113
▁оруулалтыг	-12114
▁хуралдааны	-12115
▁хязгаарлах	-12116
▁байгуулахад	-12117
▁байгуулагдах	-12118
▁Улаанбаатарын	-12119
1.	-12120
IP	-12121
df	-12122
-18	-12123
:_:	-12124
ics	-12125
ДӨР	-12126
Сүх	-12127
нэж	-12128
▁Cl	-12129
ааль	-12130
аган	-12131
ацар	-12132
райл	-12133
хайр	-12134
▁Com	-12135
▁sub	-12136
▁Бен	-12137
▁Дай	-12138
▁Дэн	-12139
▁Маг	-12140
▁Мер	-12141
▁буя	-12142
▁зээ	-12143
▁кил	-12144
▁саа	-12145
Наран	-12146
снөөс	-12147
▁porn	-12148
▁Нэмж	-12149
▁Ойлг	-12150
▁зүгт	-12151
▁нэгт	-12152
▁нэрс	-12153
▁хууч	-12154
▁хүүд	-12155
Цагаан	-12156
шруулж	-12157
▁Тамир	-12158
▁Хагас	-12159
▁сахих	-12160
▁сугал	-12161
жуулсан	-12162
▁Зохиол	-12163
▁Тэглээ	-12164
▁Тэрхүү	-12165
▁Хацарт	-12166
▁даргаа	-12167
▁дээдэс	-12168
▁урлагт	-12169
▁царайл	-12170
▁эмчилж	-12171
▁үйлдэг	-12172
▁банкууд	-12173
▁бэлдмэл	-12174
▁илгээнэ	-12175
▁тайвшир	-12176
▁товчхон	-12177
▁туршдаа	-12178
▁төрлийг	-12179
▁эгнээнд	-12180
▁өрнөсөн	-12181
▁Пакистан	-12182
▁баталлаа	-12183
▁даалгавр	-12184
▁зорилгын	-12185
▁зөвлөдөг	-12186
▁кампанит	-12187
▁намынхаа	-12188
▁нийтлэлд	-12189
▁сонирхох	-12190
▁тодорлоо	-12191
▁цагаасаа	-12192
▁эрчүүдэд	-12193
▁багтаасан	-12194
▁болсондоо	-12195
▁буруутгаж	-12196
▁дэвшилтэт	-12197
▁төрөлхийн	-12198
▁файлуудыг	-12199
▁хүрээлэнд	-12200
▁эмчилгээг	-12201
▁этгээдийг	-12202
▁агуулгатай	-12203
▁тохируулан	-12204
▁байрлуулсан	-12205
▁илэрхийллээ	-12206
▁хүүхдүүддээ	-12207
▁боловсронгуй	-12208
▁нэвтрүүлгийн	-12209
In	-12210
ХС	-12211
ory	-12212
АНУ	-12213
МАН	-12214
Тус	-12215
ити	-12216
▁AM	-12217
▁Be	-12218
▁Мо	-12219
orts	-12220
Ганц	-12221
өжин	-12222
▁180	-12223
▁Cas	-12224
▁Зел	-12225
▁Унд	-12226
▁аас	-12227
▁цуу	-12228
▁өрш	-12229
гагүй	-12230
▁Согт	-12231
▁мөчл	-12232
▁студ	-12233
▁өснө	-12234
Америк	-12235
Жаргал	-12236
муудыг	-12237
ноосоо	-12238
эцгээе	-12239
өнгөөс	-12240
▁Цагаа	-12241
▁дороо	-12242
▁ололт	-12243
▁суугч	-12244
▁шавар	-12245
▁эдлэл	-12246
▁эрийн	-12247
▁Саруул	-12248
▁Түргэн	-12249
▁ангиас	-12250
▁булчир	-12251
▁гэснээ	-12252
▁зугтаа	-12253
▁сайдаа	-12254
▁түрүүн	-12255
▁хойноо	-12256
▁хэлэнд	-12257
▁хэмжих	-12258
▁хэргээ	-12259
▁эхлэнэ	-12260
▁Баянгол	-12261
▁Францад	-12262
▁Эхэндээ	-12263
▁амандаа	-12264
▁барихад	-12265
▁зарлаад	-12266
▁ирснийг	-12267
▁онуудад	-12268
▁сэдвийн	-12269
▁театрын	-12270
▁тооллын	-12271
▁тохирно	-12272
▁хийсээр	-12273
▁цаазаар	-12274
▁явдлаас	-12275
▁өсгөсөн	-12276
▁Испанийн	-12277
▁зарчмаар	-12278
▁зорилтыг	-12279
▁мөнгөгүй	-12280
▁сэтгүүлд	-12281
▁тараасан	-12282
▁тутамдаа	-12283
▁тушаалаа	-12284
▁шүүмжлэх	-12285
▁байлдааны	-12286
▁баясгалан	-12287
▁гарчихсан	-12288
▁профессор	-12289
▁ээжтэйгээ	-12290
▁Товчхондоо	-12291
▁бодлоготой	-12292
▁сургуулилт	-12293
▁холбооноос	-12294
▁хуралдаанд	-12295
▁шаардлагын	-12296
▁санаачилсан	-12297
▁танилцуулъя	-12298
▁эрэгтэйчүүд	-12299
▁найзуудтайгаа	-12300
</	-12301
MS	-12302
TS	-12303
ii	-12304
ll	-12305
Юу	-12306
өй	-12307
uro	-12308
ОТО	-12309
анс	-12310
гїй	-12311
зас	-12312
оом	-12313
хаж	-12314
хүн	-12315
цэл	-12316
line	-12317
имир	-12318
▁3-4	-12319
▁Apr	-12320
▁Dec	-12321
▁Min	-12322
▁pro	-12323
▁мөл	-12324
еннис	-12325
измыг	-12326
члаад	-12327
▁Page	-12328
▁Yout	-12329
▁Утас	-12330
▁амыг	-12331
▁гоёл	-12332
▁зурш	-12333
▁пост	-12334
▁хаач	-12335
▁хаус	-12336
рахгүй	-12337
▁Ажилд	-12338
▁алгас	-12339
▁болой	-12340
▁босох	-12341
▁гараж	-12342
▁заана	-12343
▁залил	-12344
▁угаар	-12345
▁өмчит	-12346
▁Долоон	-12347
▁айхгүй	-12348
▁ачааны	-12349
▁багтай	-12350
▁гэргий	-12351
▁реклам	-12352
▁тэргүй	-12353
▁урьдын	-12354
▁цаасны	-12355
▁шахалт	-12356
▁үймээн	-12357
оодоггүй	-12358
▁Библийн	-12359
▁Наадмын	-12360
▁Тэднээс	-12361
▁Тэндээс	-12362
▁Түүгээр	-12363
▁авснаас	-12364
▁аймгаас	-12365
▁байгаач	-12366
▁гэдгээр	-12367
▁залууст	-12368
▁зээлээр	-12369
▁нууцлаг	-12370
▁талбарт	-12371
▁шөнөгүй	-12372
▁даруухан	-12373
▁зүтгэсэн	-12374
▁орноосоо	-12375
▁оролдоод	-12376
▁харцгаая	-12377
▁харьцдаг	-12378
▁хуванцар	-12379
▁цаашлаад	-12380
▁чимэглэл	-12381
▁өртөгтэй	-12382
▁оролцохыг	-12383
▁салбартаа	-12384
▁тооцоолох	-12385
▁Америкчууд	-12386
▁оролцохоор	-12387
▁ажиллуулдаг	-12388
OP	-12389
АЗ	-12390
ть	-12391
own	-12392
Чин	-12393
▁Ёс	-12394
▁ИР	-12395
хний	-12396
▁ISO	-12397
▁Куб	-12398
▁Нэв	-12399
▁Нэх	-12400
▁гоц	-12401
▁ихс	-12402
▁неф	-12403
▁сой	-12404
▁чий	-12405
Төмөр	-12406
Хууль	-12407
арчээ	-12408
оксын	-12409
ометр	-12410
▁1994	-12411
▁Дэмж	-12412
▁Зэвс	-12413
▁зовн	-12414
▁одон	-12415
▁явъя	-12416
▁Өнгө	-12417
осноор	-12418
▁Райли	-12419
▁Хамтр	-12420
▁Эсрэг	-12421
▁аргын	-12422
▁догдл	-12423
▁ивээн	-12424
▁нуугд	-12425
▁нөхөх	-12426
▁садан	-12427
▁улайр	-12428
▁харих	-12429
▁хожиж	-12430
▁хоцор	-12431
▁үетэй	-12432
инохайр	-12433
▁Байшин	-12434
▁Шулуун	-12435
▁ажлаар	-12436
▁дуулна	-12437
▁дэвжээ	-12438
▁зовиур	-12439
▁орчмын	-12440
▁тусгал	-12441
▁хагаст	-12442
▁хуваах	-12443
▁хүүдээ	-12444
▁үйлдэх	-12445
оодугаар	-12446
▁заалдах	-12447
▁зогсоод	-12448
▁магтаал	-12449
▁нэгнээс	-12450
▁нэхэмжл	-12451
▁оросууд	-12452
▁оруулав	-12453
▁салхинд	-12454
▁харьцаж	-12455
▁хэвлэлд	-12456
▁боломжоо	-12457
▁гарахаас	-12458
▁ирдэггүй	-12459
▁оролцоод	-12460
▁төсөөлөл	-12461
▁WordPress	-12462
▁Боловсрол	-12463
▁Египетийн	-12464
▁компаниас	-12465
▁програмын	-12466
▁сургалтыг	-12467
▁тэсвэртэй	-12468
▁хариулжээ	-12469
▁байгуулаад	-12470
▁бүтээгдсэн	-12471
▁сурталчлах	-12472
▁хойшлуулах	-12473
▁тодорхойлно	-12474
▁зөвшөөрөлгүй	-12475
▁мансууруулах	-12476
▁сургуулиудын	-12477
ix	-12478
alt	-12479
anc	-12480
per	-12481
Сол	-12482
Төс	-12483
ЭЭЛ	-12484
дэд	-12485
пот	-12486
цөл	-12487
2020	-12488
огүй	-12489
▁Off	-12490
▁Гүн	-12491
▁Оны	-12492
▁бам	-12493
▁гэл	-12494
▁дус	-12495
▁цан	-12496
Иргэд	-12497
Чиний	-12498
лавал	-12499
шүүрт	-12500
▁Галт	-12501
▁Утаа	-12502
▁Хөгж	-12503
▁Элэг	-12504
▁евро	-12505
▁лекц	-12506
▁томр	-12507
▁өрөм	-12508
итамин	-12509
▁Бүртг	-12510
▁Юутай	-12511
▁гэнэн	-12512
▁ковид	-12513
▁сурна	-12514
▁суулт	-12515
▁хөөрг	-12516
▁цохиж	-12517
▁шоунд	-12518
Эрдэнэс	-12519
члэлийн	-12520
▁Гишүүд	-12521
▁Хадгал	-12522
▁Хайрын	-12523
▁бодолц	-12524
▁гарсны	-12525
▁заяаны	-12526
▁найраг	-12527
▁нийцэж	-12528
▁суулаа	-12529
▁түгээх	-12530
▁чихэнд	-12531
▁Спортын	-12532
▁Хичнээн	-12533
▁асуувал	-12534
▁гавьяат	-12535
▁засгаас	-12536
▁зөрчилд	-12537
▁нөхрийг	-12538
▁олонтаа	-12539
▁сэрэмжл	-12540
▁тавьжээ	-12541
▁тунадас	-12542
▁уншихад	-12543
▁шүүхээс	-12544
▁яригдах	-12545
▁Монголоо	-12546
▁Хөдөлмөр	-12547
▁баялгийн	-12548
▁боломгүй	-12549
▁бүртгэлд	-12550
▁дасгалыг	-12551
▁дурласан	-12552
▁дэргэдэх	-12553
▁зохиолыг	-12554
▁импортын	-12555
▁мэдэлтэй	-12556
▁сэргийлж	-12557
▁тавихгүй	-12558
▁уншигчид	-12559
▁шийдвэрт	-12560
▁Хөлбөмбөг	-12561
▁анхаардаг	-12562
▁хэлдэггүй	-12563
▁хүлээлгэж	-12564
▁хүндэтгэх	-12565
▁шалтгаалж	-12566
▁явуулахад	-12567
▁Афганистан	-12568
▁нэмэгдсээр	-12569
▁оролцоотой	-12570
▁тохирохгүй	-12571
▁хориглодог	-12572
▁дэвшигчдийн	-12573
▁тогтолцооны	-12574
▁тушаалтнууд	-12575
▁өөрчлөгдөөгүй	-12576
▁Бүтээгдэхүүний	-12577
,9	-12578
ET	-12579
ux	-12580
ЛС	-12581
ве	-12582
ял	-12583
str	-12584
Төр	-12585
Энд	-12586
үүг	-12587
▁88	-12588
▁Жо	-12589
▁Лю	-12590
▁НД	-12591
▁са	-12592
гээн	-12593
чтэй	-12594
▁27-	-12595
▁40-	-12596
▁ДОХ	-12597
▁Жек	-12598
▁Чех	-12599
▁бой	-12600
▁ооо	-12601
▁чил	-12602
▁шөл	-12603
ирийн	-12604
▁адис	-12605
▁гүнж	-12606
▁даал	-12607
▁орчл	-12608
▁сүлд	-12609
▁хавч	-12610
▁шээс	-12611
Баттул	-12612
логчид	-12613
▁Агуул	-12614
▁Женко	-12615
▁амгал	-12616
▁дасан	-12617
▁оноог	-12618
▁уйлах	-12619
▁урууд	-12620
▁учрах	-12621
▁хаягд	-12622
лүүдийн	-12623
ортугал	-12624
▁Баярын	-12625
▁алдана	-12626
▁гашууд	-12627
▁гашуун	-12628
▁дайчин	-12629
▁дархан	-12630
▁лавтай	-12631
▁намтар	-12632
▁нохойн	-12633
▁томъёо	-12634
▁тусгаж	-12635
▁хуучны	-12636
▁хөрсөн	-12637
▁явцгаа	-12638
▁ярихад	-12639
▁Youtube	-12640
▁Гаалийн	-12641
▁Хөөрхөн	-12642
▁бүрддэг	-12643
▁бүртгэх	-12644
▁дагасан	-12645
▁дэвшсэн	-12646
▁зарлана	-12647
▁нэгтгэж	-12648
▁сайтууд	-12649
▁тархинд	-12650
▁цэцгийн	-12651
▁өвчнөөс	-12652
▁өөрчлөн	-12653
уулагчийн	-12654
▁Ардчилал	-12655
▁гарахдаа	-12656
▁гарснаас	-12657
▁даргатай	-12658
▁зэвсгийн	-12659
▁тунгалаг	-12660
▁хийснийг	-12661
▁царайлаг	-12662
▁эвдэрсэн	-12663
▁Instagram	-12664
▁газруудыг	-12665
▁гаргахаар	-12666
▁тогтнолын	-12667
▁түмнийхээ	-12668
▁хадгалдаг	-12669
Сайханбилэг	-12670
Хүрэлбаатар	-12671
▁казиногийн	-12672
▁нэгдүгээрт	-12673
▁нэрлэгддэг	-12674
▁шийдвэрийн	-12675
▁Өвөрхангай	-12676
▁оролцогчдын	-12677
▁хүүхдүүдтэй	-12678
▁шинэчлэлийн	-12679
▁үндэслэлтэй	-12680
▁бүтээгдэхүүнүүд	-12681
,3	-12682
ove	-12683
елл	-12684
икс	-12685
рэн	-12686
эрт	-12687
▁Le	-12688
▁Sc	-12689
▁МИ	-12690
ower	-12691
ивал	-12692
имаг	-12693
ицер	-12694
тгаж	-12695
▁art	-12696
▁Гүр	-12697
▁Жам	-12698
▁ТӨР	-12699
▁туя	-12700
армаа	-12701
ектор	-12702
ичууд	-12703
▁алдр	-12704
▁бенз	-12705
▁догд	-12706
▁ууна	-12707
▁ухаж	-12708
▁шүүж	-12709
анхуяг	-12710
хинаас	-12711
эмжийн	-12712
▁Хэний	-12713
▁алдан	-12714
▁больё	-12715
▁шүтэн	-12716
▁өртэй	-12717
снаасаа	-12718
▁инстит	-12719
▁нэгтээ	-12720
▁оффшор	-12721
▁уулзав	-12722
▁халаас	-12723
▁хойших	-12724
▁чулууг	-12725
▁шаттай	-12726
▁галзуур	-12727
▁жолооны	-12728
▁мэдмээр	-12729
▁тогоонд	-12730
▁тооцвол	-12731
▁халбага	-12732
▁хурууны	-12733
▁хэлбэрт	-12734
▁Өөрийнх	-12735
▁өргөсөн	-12736
▁Нобелийн	-12737
▁Стандарт	-12738
▁багассан	-12739
▁гэсэндээ	-12740
▁залуухан	-12741
▁секундын	-12742
▁Австралид	-12743
▁болчихвол	-12744
▁дамжиггүй	-12745
▁тайлангаа	-12746
▁тухайлбал	-12747
▁чиглэлийг	-12748
▁мэдрэмжтэй	-12749
▁эмчилгээнд	-12750
▁Үйлдвэрийн	-12751
▁үйлдвэрүүд	-12752
▁уламжлалтай	-12753
▁хөдөлгөөнтэй	-12754
▁Үйлчилгээний	-12755
▁хүчирхийллийн	-12756
3.	-12757
БЭ	-12758
пт	-12759
уш	-12760
ana	-12761
Бад	-12762
Тэн	-12763
аяг	-12764
зай	-12765
оби	-12766
рат	-12767
▁AP	-12768
▁Hy	-12769
▁Sl	-12770
▁Аа	-12771
▁Гү	-12772
▁ми	-12773
icle	-12774
авын	-12775
март	-12776
▁28-	-12777
▁Air	-12778
▁Гэж	-12779
▁Кат	-12780
▁НЭГ	-12781
▁ХАА	-12782
▁кал	-12783
▁оор	-12784
▁тух	-12785
▁тєр	-12786
Эдийн	-12787
гэжээ	-12788
илгыг	-12789
сгалт	-12790
▁араа	-12791
▁баас	-12792
▁гүнд	-12793
▁сүмд	-12794
▁тавц	-12795
▁үнэд	-12796
ангууд	-12797
▁Inter	-12798
▁Австр	-12799
▁Хамаг	-12800
▁Шатах	-12801
▁айсан	-12802
▁зодож	-12803
▁имэйл	-12804
▁тосыг	-12805
▁эгнээ	-12806
▁үдээс	-12807
▁үнэнд	-12808
▁Mongol	-12809
▁Байнга	-12810
▁Цэцийн	-12811
▁асууна	-12812
▁гэрлэж	-12813
▁загалм	-12814
▁наашаа	-12815
▁нөгөөд	-12816
▁олгогч	-12817
▁түүхээ	-12818
▁төгсөх	-12819
▁хонгор	-12820
▁хотууд	-12821
▁хэлээч	-12822
▁цагдан	-12823
▁цуглар	-12824
▁шаргуу	-12825
▁эрүүлж	-12826
▁яривал	-12827
▁үзмээр	-12828
▁англиар	-12829
▁арилгаж	-12830
▁гагцхүү	-12831
▁гэрлийн	-12832
▁хувцсыг	-12833
▁эзэгтэй	-12834
гаадугаар	-12835
▁болсноос	-12836
▁дутахгүй	-12837
▁залбирал	-12838
▁зэрэглэл	-12839
▁улсуудад	-12840
▁ухаанаар	-12841
▁хоногоор	-12842
▁ялагдсан	-12843
инохайрхан	-12844
▁ажиллалаа	-12845
▁бүлийнхээ	-12846
▁савангийн	-12847
▁таарахгүй	-12848
▁учруулсан	-12849
▁хүүхдэдээ	-12850
▁хүүхэддээ	-12851
▁сонголттой	-12852
▁сурвалжийн	-12853
▁засаглалтай	-12854
▁инээмсэглэл	-12855
▁хамгаалалтад	-12856
▁хүндэтгэлтэй	-12857
▁шинэчлэгдсэн	-12858
▁санхүүжилтийн	-12859
3)	-12860
BC	-12861
ыы	-12862
Өв	-12863
Даш	-12864
ЛӨГ	-12865
ден	-12866
ерн	-12867
игч	-12868
▁98	-12869
▁>>	-12870
▁Хэ	-12871
ount	-12872
урын	-12873
шээд	-12874
▁Med	-12875
▁you	-12876
▁ДАР	-12877
▁Кир	-12878
▁Чул	-12879
▁дэс	-12880
▁руб	-12881
▁1991	-12882
▁1995	-12883
▁2030	-12884
▁Сөүл	-12885
▁Ханд	-12886
▁аянд	-12887
▁мини	-12888
▁мууг	-12889
▁хүрд	-12890
лэхийн	-12891
хандаа	-12892
▁авсны	-12893
▁логик	-12894
▁тариф	-12895
▁угтан	-12896
▁урвал	-12897
▁хугар	-12898
▁хэтэр	-12899
▁хүрэн	-12900
▁эгшиг	-12901
▁Өвгөн	-12902
үүлсний	-12903
▁Хийсэн	-12904
▁амжсан	-12905
▁арьсыг	-12906
▁багаас	-12907
▁багтах	-12908
▁бурууг	-12909
▁консул	-12910
▁нуурын	-12911
▁онолын	-12912
▁хамаат	-12913
▁харийн	-12914
▁хороод	-12915
▁хэвлэг	-12916
▁хүргэн	-12917
▁шаргал	-12918
▁ээжүүд	-12919
▁Хүүгийн	-12920
▁болсоор	-12921
▁буурчээ	-12922
▁гомдлыг	-12923
▁дуусгаж	-12924
▁тавилаа	-12925
▁тооцдог	-12926
▁төвшинд	-12927
▁эмгэнэл	-12928
▁өмнөхөн	-12929
▁Сэтгүүлч	-12930
▁комиссын	-12931
▁татвараа	-12932
▁тэжээвэр	-12933
▁хохирлыг	-12934
▁хохирсон	-12935
▁хэлснийг	-12936
▁хятадууд	-12937
▁шингэсэн	-12938
▁эрхэлсэн	-12939
▁эхнэртэй	-12940
▁үзэгчдэд	-12941
▁Хичээлийн	-12942
▁гишүүдээс	-12943
▁зурагнууд	-12944
▁мэдэгдэлд	-12945
▁нэмэгджээ	-12946
▁сонирхсон	-12947
▁бэлэглэсэн	-12948
▁бүрдүүлдэг	-12949
▁мэргэжлийг	-12950
▁санаачилга	-12951
▁хэлсэнчлэн	-12952
▁эрхлэгчдэд	-12953
▁суурилуулах	-12954
▁хариуцлагаа	-12955
);	-12956
72	-12957
?.	-12958
EL	-12959
ps	-12960
БХ	-12961
йг	-12962
са	-12963
ашё	-12964
ени	-12965
ҮҮЛ	-12966
▁/>	-12967
▁Qu	-12968
▁БС	-12969
▁Ки	-12970
▁де	-12971
ound	-12972
ийлг	-12973
лсон	-12974
усын	-12975
▁Oct	-12976
▁Бөө	-12977
▁Тос	-12978
▁мол	-12979
аметр	-12980
иймэл	-12981
шлийн	-12982
▁1500	-12983
▁довт	-12984
▁унаа	-12985
▁хатг	-12986
▁энэр	-12987
жилсэн	-12988
луулан	-12989
▁Сэдэв	-12990
▁алдав	-12991
▁гэхэв	-12992
▁кодыг	-12993
▁колон	-12994
▁хүрэв	-12995
▁шүтээ	-12996
▁элсэх	-12997
▁Өгүүл	-12998
▁Дуртай	-12999
▁болино	-13000
▁дэгдээ	-13001
▁унтдаг	-13002
▁хайсан	-13003
▁цэрэгт	-13004
▁энхийг	-13005
аанаасаа	-13006
огдохгүй	-13007
▁Samsung	-13008
▁Нийтлэл	-13009
▁Хүрэлсү	-13010
▁биечлэн	-13011
▁жуулчид	-13012
▁маягтай	-13013
▁ногооны	-13014
▁нэгжүүд	-13015
▁нэгтгэн	-13016
▁сугалаа	-13017
▁сүнслэг	-13018
▁хамтаар	-13019
▁хэмжээс	-13020
▁эрсдэлд	-13021
▁үзэлтэй	-13022
▁Оюутнууд	-13023
▁бүтээжээ	-13024
▁зөрчлийг	-13025
▁мэдэлгүй	-13026
▁нэгдлийн	-13027
▁томилгоо	-13028
▁удирддаг	-13029
▁хоцорсон	-13030
▁бодлогоор	-13031
▁тиймэрхүү	-13032
▁толгойтой	-13033
▁завсарлага	-13034
▁зүйлүүдийг	-13035
▁инженерийн	-13036
▁тоглоомууд	-13037
▁төлөвлөжээ	-13038
▁явуулахгүй	-13039
▁Дөрөвдүгээр	-13040
▁хадгалагдаж	-13041
▁хүмүүжүүлэх	-13042
▁үндэслэлээр	-13043
▁хамгаалалттай	-13044
▁өөрчлөгдөхгүй	-13045
AL	-13046
ЕМ	-13047
кв	-13048
үс	-13049
▁←	-13050
-17	-13051
ton	-13052
Ням	-13053
ЭЭР	-13054
вуу	-13055
шны	-13056
▁тє	-13057
лөөд	-13058
стай	-13059
тийг	-13060
хээс	-13061
▁Ану	-13062
▁Бүү	-13063
▁Гэм	-13064
▁ТҮЦ	-13065
▁лиг	-13066
▁таб	-13067
эшгүй	-13068
▁Агуу	-13069
▁Соёл	-13070
▁алив	-13071
▁зааг	-13072
▁ланг	-13073
▁очин	-13074
▁тийз	-13075
▁төмс	-13076
вөлжин	-13077
даасаа	-13078
истууд	-13079
эгчдэд	-13080
▁Хүсэл	-13081
▁албад	-13082
▁байрт	-13083
▁болуу	-13084
▁босго	-13085
▁заяаг	-13086
▁зөвтг	-13087
▁утсан	-13088
▁хөгшр	-13089
▁цолыг	-13090
▁яахын	-13091
▁ядарч	-13092
дагдсан	-13093
илжааны	-13094
снаараа	-13095
▁Хувцас	-13096
▁архины	-13097
▁барилд	-13098
▁гаргал	-13099
▁дүүгээ	-13100
▁замаас	-13101
▁зарууд	-13102
▁зураас	-13103
▁клубын	-13104
▁тавигд	-13105
▁тоолох	-13106
▁харшил	-13107
▁цолтой	-13108
▁шахмал	-13109
▁Дэлхийг	-13110
▁вирусын	-13111
▁гэдгийн	-13112
▁гэрлэлт	-13113
▁дуусаад	-13114
▁мэдрэгч	-13115
▁нуугдаж	-13116
▁органик	-13117
▁тавихад	-13118
▁твиттер	-13119
▁уулзвар	-13120
▁хүргээд	-13121
▁ээлжийн	-13122
▁үнэртэй	-13123
▁өвчнөөр	-13124
▁өгүүлэл	-13125
Энхтүвшин	-13126
▁Загварын	-13127
▁аргуудыг	-13128
▁байлгана	-13129
▁болголоо	-13130
▁гамшгийн	-13131
▁зурагтай	-13132
▁механизм	-13133
▁мэдээлэв	-13134
▁хаягдлыг	-13135
▁өгүүлжээ	-13136
▁Бурхантай	-13137
▁Сэтгэлийн	-13138
▁Тагнуулын	-13139
▁Тоглолтын	-13140
▁амьдрахад	-13141
▁гардуулах	-13142
▁гэрийнхээ	-13143
▁жолоочийн	-13144
▁суралцсан	-13145
▁төвлөрсөн	-13146
▁харууллаа	-13147
▁шударгаар	-13148
▁Үндсэндээ	-13149
▁хагалгаанд	-13150
▁хулгайлсан	-13151
▁Технологийн	-13152
▁компаниудыг	-13153
▁сайжруулсан	-13154
▁хугацаанаас	-13155
▁үзүүлэлтийг	-13156
▁төлөвлөгөөгөө	-13157
-4	-13158
OR	-13159
US	-13160
ЕШ	-13161
Уг	-13162
юр	-13163
.3.	-13164
ict	-13165
ith	-13166
ohn	-13167
ose	-13168
АТО	-13169
Бус	-13170
ГАА	-13171
▁Te	-13172
етер	-13173
поны	-13174
хэнд	-13175
▁31-	-13176
▁50-	-13177
▁Jan	-13178
▁Жак	-13179
▁Суд	-13180
▁цөх	-13181
алдан	-13182
дрийг	-13183
лажээ	-13184
самбл	-13185
үдний	-13186
▁Гарч	-13187
▁Маск	-13188
▁НАТО	-13189
▁Хайл	-13190
▁аяны	-13191
▁долл	-13192
▁сөрг	-13193
Хүүхэд	-13194
▁Алтай	-13195
▁Групп	-13196
▁Зочид	-13197
▁Эмийн	-13198
▁бизээ	-13199
▁бодов	-13200
▁будах	-13201
▁зорих	-13202
▁тамга	-13203
▁толбо	-13204
▁тоолж	-13205
▁хилээ	-13206
▁хольж	-13207
сдүгээр	-13208
▁Байгаа	-13209
▁Нүдний	-13210
▁Оюутны	-13211
▁Роберт	-13212
▁ангийг	-13213
▁гайхан	-13214
▁дундын	-13215
▁оршуул	-13216
▁төслөө	-13217
▁чамгүй	-13218
▁эрлийз	-13219
▁Хаанаас	-13220
▁вакцинд	-13221
▁захиалж	-13222
▁төөрөгд	-13223
ахгүйгээр	-13224
▁бичигдэж	-13225
▁бичээгүй	-13226
▁бодолгүй	-13227
▁гэрэлтэй	-13228
▁зөвлөсөн	-13229
▁санагдав	-13230
▁томилсон	-13231
▁тэмдгийг	-13232
▁удирдамж	-13233
▁эмэгтэйд	-13234
▁үнэлгээг	-13235
▁бичлэгийн	-13236
▁болгондоо	-13237
▁залруулах	-13238
▁мэндэлсэн	-13239
▁тэтгэлэгт	-13240
▁Өнөөдрөөс	-13241
▁дарааллаар	-13242
▁харьцуулах	-13243
▁Монголынхоо	-13244
▁баривчилжээ	-13245
▁тэмдэглэгээ	-13246
▁эсэргүүцсэн	-13247
▁Гуравдугаарт	-13248
▁дуулгавартай	-13249
▁санхүүжүүлэх	-13250
▁төлөвлөлтийн	-13251
▁хүрээлэнгийн	-13252
▁эсэргүүцлийн	-13253
▁боловсруулалт	-13254
4.	-13255
ТЗ	-13256
УС	-13257
eng	-13258
шүү	-13259
▁52	-13260
▁IT	-13261
▁th	-13262
▁АЛ	-13263
жлэн	-13264
▁Диз	-13265
▁Дэм	-13266
▁Жол	-13267
▁Орд	-13268
▁аар	-13269
▁лиз	-13270
▁мур	-13271
▁под	-13272
▁сэг	-13273
▁ээр	-13274
-2020	-13275
ivers	-13276
агаас	-13277
атекс	-13278
сноос	-13279
▁More	-13280
▁Алив	-13281
▁Мянг	-13282
▁Нөөц	-13283
▁болс	-13284
▁хөөн	-13285
▁өчиг	-13286
outube	-13287
▁World	-13288
▁Бүлэг	-13289
▁Наран	-13290
▁гайхш	-13291
▁дайсн	-13292
▁удсан	-13293
▁уналт	-13294
▁хагац	-13295
▁халах	-13296
▁үзэгд	-13297
ational	-13298
Монголд	-13299
▁Аргент	-13300
▁Бодвол	-13301
▁Хаврын	-13302
▁Хорвоо	-13303
▁видеог	-13304
▁журамд	-13305
▁зовсон	-13306
▁зохиох	-13307
▁нөлөөг	-13308
▁таавар	-13309
▁хайран	-13310
▁цэгүүд	-13311
▁үеэрээ	-13312
▁Трампын	-13313
▁байлдан	-13314
▁маягийг	-13315
▁муудалц	-13316
▁сонсоно	-13317
▁станцын	-13318
▁тогтнол	-13319
▁хооллож	-13320
▁хуримаа	-13321
▁хүргэлт	-13322
▁хөтлөгч	-13323
олцоогоор	-13324
▁Нээлттэй	-13325
▁Тэтгэвэр	-13326
▁аппликей	-13327
▁нөхөртөө	-13328
▁саналаар	-13329
▁унтлагын	-13330
▁халуухан	-13331
▁хангадаг	-13332
▁хийгддэг	-13333
▁хувиараа	-13334
▁хэлэхээр	-13335
▁явдаггүй	-13336
▁өгөгдсөн	-13337
▁Эдгээрийн	-13338
▁бүсгүйтэй	-13339
▁дагуулаад	-13340
▁төлбөртэй	-13341
▁харилцагч	-13342
▁хуваарийг	-13343
▁эдгээрийг	-13344
▁эзэмшлийн	-13345
▁ярилцлагын	-13346
▁мэргэжлээрээ	-13347
ens	-13348
ica	-13349
НИЙ	-13350
биш	-13351
ймс	-13352
фля	-13353
хэл	-13354
▁4:	-13355
▁59	-13356
▁Ph	-13357
▁is	-13358
▁Ла	-13359
▁ОН	-13360
mart	-13361
quot	-13362
Уран	-13363
аран	-13364
идын	-13365
мсор	-13366
цтай	-13367
▁4-5	-13368
▁Зөө	-13369
▁ХЭР	-13370
▁акт	-13371
▁каф	-13372
▁нуг	-13373
Улсын	-13374
витой	-13375
чихнэ	-13376
▁****	-13377
▁Tags	-13378
▁Голл	-13379
▁Ээлж	-13380
▁араб	-13381
▁бөгс	-13382
▁дайл	-13383
▁зуух	-13384
▁хивс	-13385
▁хөөх	-13386
▁цэгт	-13387
▁үзэв	-13388
нүүдэд	-13389
онгоос	-13390
талсан	-13391
▁бөөгн	-13392
▁диваа	-13393
▁ивээл	-13394
▁инээл	-13395
▁сэхээ	-13396
▁такси	-13397
▁шалга	-13398
▁шунал	-13399
▁өлсөж	-13400
лагдагч	-13401
▁Израйл	-13402
▁бүлийг	-13403
▁бүтсэн	-13404
▁дүрийн	-13405
▁залгах	-13406
▁залууд	-13407
▁зочлох	-13408
▁зурган	-13409
▁намдаа	-13410
▁театрт	-13411
▁тогтож	-13412
▁тэгдэг	-13413
▁хориог	-13414
▁хоцорч	-13415
▁эдүгээ	-13416
▁багтана	-13417
▁жимсний	-13418
▁завшаан	-13419
▁охидууд	-13420
▁охиндоо	-13421
▁сайтаас	-13422
▁суудалд	-13423
▁тоомсор	-13424
▁түлшний	-13425
▁хавьгүй	-13426
▁Владимир	-13427
▁баримтаа	-13428
▁болчихно	-13429
▁бүхэнтэй	-13430
▁журамтай	-13431
▁мэдээний	-13432
▁онцолжээ	-13433
▁тасарсан	-13434
▁тоглохыг	-13435
▁хэлэлцэн	-13436
▁явдалтай	-13437
▁ярилцана	-13438
▁өргөдлөө	-13439
анданшатар	-13440
үүлэгчдийн	-13441
▁дэглэмийг	-13442
▁мэдүүлсэн	-13443
▁нийлэхгүй	-13444
▁сонгоорой	-13445
▁тушаалаар	-13446
▁түрээслэх	-13447
▁уулзалтад	-13448
▁хөрөнгөөр	-13449
▁шалгагдаж	-13450
▁ярьдаггүй	-13451
▁Зөвлөлтийн	-13452
▁тавилгатай	-13453
▁телевизээр	-13454
▁шуудангийн	-13455
▁жагсаалтаас	-13456
▁Бүтээгдэхүүн	-13457
▁нийгэмлэгийн	-13458
▁тохиолдуулан	-13459
▁төлөөлөгчдийн	-13460
▁бүрэлдэхүүнтэй	-13461
-8	-13462
77	-13463
IT	-13464
cc	-13465
ЕР	-13466
ЙЛ	-13467
ро	-13468
ҮХ	-13469
-03	-13470
ara	-13471
Анг	-13472
акс	-13473
иус	-13474
лот	-13475
лүү	-13476
урт	-13477
цог	-13478
▁3:	-13479
▁Dr	-13480
▁PM	-13481
▁Со	-13482
есст	-13483
Үнэн	-13484
▁Лам	-13485
▁зүд	-13486
▁туг	-13487
▁цэл	-13488
иунаа	-13489
огдов	-13490
остер	-13491
▁Ижил	-13492
▁Олны	-13493
▁Яруу	-13494
▁алан	-13495
▁ганг	-13496
▁зорч	-13497
▁оных	-13498
▁шант	-13499
▁энэн	-13500
Баатар	-13501
Чингис	-13502
ааваас	-13503
антуяа	-13504
инохон	-13505
оцгооё	-13506
чилдэг	-13507
чихдог	-13508
чихлоо	-13509
шуухан	-13510
▁Алекс	-13511
▁Латин	-13512
▁Тохир	-13513
▁агшин	-13514
▁бодоо	-13515
▁гуайн	-13516
▁ноогд	-13517
▁тусыг	-13518
▁халам	-13519
▁Өнгөр	-13520
▁өдийг	-13521
▁өртөх	-13522
▁өрөөг	-13523
▁өрөөс	-13524
▁өсгөж	-13525
▁өхөөр	-13526
хнээсээ	-13527
▁Найман	-13528
▁Палест	-13529
▁Хүйтэн	-13530
▁амттан	-13531
▁багууд	-13532
▁бактер	-13533
▁босгож	-13534
▁дээрхи	-13535
▁сонгог	-13536
▁туузан	-13537
▁тэнхээ	-13538
▁хожсон	-13539
▁хурдыг	-13540
▁цогцос	-13541
▁шахсан	-13542
▁шүтлэг	-13543
▁эргүүл	-13544
▁язгуур	-13545
▁өмсөөд	-13546
▁өмчлөх	-13547
Хүүхдийн	-13548
▁Москвад	-13549
▁Тоглолт	-13550
▁гарахын	-13551
▁дагадаг	-13552
▁дизайны	-13553
▁дуулаад	-13554
▁дүнгээс	-13555
▁заагаад	-13556
▁зургаар	-13557
▁мотоцик	-13558
▁тархалт	-13559
▁төлбөрт	-13560
▁хэрхэвч	-13561
▁ширээнд	-13562
▁энэтхэг	-13563
үүлэгчийн	-13564
▁Хэрэглээ	-13565
▁агуулгын	-13566
▁гаргахын	-13567
▁залуусыг	-13568
▁итгэлгүй	-13569
▁нарынхаа	-13570
▁тулгарах	-13571
▁холбоонд	-13572
▁эмчлүүлж	-13573
▁явчихдаг	-13574
▁үгүйсгэж	-13575
эвэрдэггүй	-13576
▁дэвшүүлэх	-13577
▁захиалгын	-13578
▁захиалсан	-13579
▁зөрчилтэй	-13580
▁луйварчин	-13581
▁наснаасаа	-13582
▁нийцэхгүй	-13583
▁оруулахыг	-13584
▁тулгараад	-13585
▁хамаараад	-13586
▁Худалдааны	-13587
▁асуугаарай	-13588
▁биелүүлсэн	-13589
▁жагсаалтын	-13590
▁прокурорын	-13591
▁ялгаварлан	-13592
▁өнгөрөөсөн	-13593
▁эрхлэгчдийн	-13594
▁хэрэгжилтийг	-13595
▁шалгаруулалтад	-13596
IC	-13597
co	-13598
▁ы	-13599
ach	-13600
der	-13601
зөв	-13602
кин	-13603
ный	-13604
тун	-13605
төг	-13606
хем	-13607
цыг	-13608
єєд	-13609
▁72	-13610
▁On	-13611
етик	-13612
шрут	-13613
▁10,	-13614
▁Алб	-13615
▁амб	-13616
▁мэн	-13617
▁рез	-13618
▁өгз	-13619
Алтай	-13620
Залуу	-13621
Цэрэн	-13622
анцуй	-13623
▁Банг	-13624
▁Иван	-13625
▁аван	-13626
▁ахын	-13627
▁ерөө	-13628
▁омог	-13629
▁сарн	-13630
▁хэвл	-13631
▁явав	-13632
▁Өвөө	-13633
Тухайн	-13634
сүмбэр	-13635
цээний	-13636
▁Загас	-13637
▁валют	-13638
▁инээх	-13639
▁ирмэг	-13640
▁нярай	-13641
▁салаа	-13642
▁тосон	-13643
▁тусах	-13644
▁хутга	-13645
▁Үндэс	-13646
▁үүсэл	-13647
▁өлгий	-13648
▁Мэдлэг	-13649
▁Мягмар	-13650
▁Хөнгөн	-13651
▁ашигла	-13652
▁болгов	-13653
▁гаргас	-13654
▁гуйлга	-13655
▁зөвөөр	-13656
▁наадах	-13657
▁тарган	-13658
▁ханамж	-13659
▁хэмнэл	-13660
▁шуурга	-13661
▁энхрий	-13662
▁эцгийн	-13663
▁ээжийг	-13664
▁үерхэж	-13665
▁Сүнсний	-13666
▁Шалгалт	-13667
▁бурханы	-13668
▁зохиогч	-13669
▁зургаас	-13670
▁илрүүлж	-13671
▁цонхоор	-13672
▁эхэндээ	-13673
▁өгүүлэв	-13674
▁Ирээдүйн	-13675
▁Урлагийн	-13676
▁Цаашлаад	-13677
▁Япончууд	-13678
▁барихаар	-13679
▁зориулав	-13680
▁настнууд	-13681
▁тодруулж	-13682
▁чанарууд	-13683
▁Мексикийн	-13684
▁баяжуулах	-13685
▁маркетинг	-13686
▁халамжийн	-13687
▁хэлэлцээд	-13688
▁эмнэлгээс	-13689
▁өөртэйгөө	-13690
▁Тогтвортой	-13691
▁америкчууд	-13692
▁зургуудаас	-13693
▁илэрхийлэв	-13694
▁ирээдүйгээ	-13695
▁холбогдоно	-13696
▁цахилгааны	-13697
▁олборлолтын	-13698
▁парламентад	-13699
▁хамгаалахад	-13700
▁хүртээмжтэй	-13701
▁хөндлөнгөөс	-13702
▁шүүмжлэлтэй	-13703
▁шийдвэрлэхэд	-13704
▁баталгаажуулсан	-13705
▁үйлчлүүлэгчдийн	-13706
.[	-13707
1]	-13708
АК	-13709
Ай	-13710
Уу	-13711
кг	-13712
▁€	-13713
-14	-13714
том	-13715
урс	-13716
▁tr	-13717
▁ЗД	-13718
▁Ээ	-13719
▁со	-13720
▁ѳѳ	-13721
атан	-13722
мүүд	-13723
тгар	-13724
чина	-13725
▁50%	-13726
▁Аан	-13727
▁Шив	-13728
▁бот	-13729
▁цух	-13730
▁чип	-13731
Дараа	-13732
сарын	-13733
▁Арьс	-13734
▁Урал	-13735
▁Халх	-13736
▁дэгд	-13737
▁суув	-13738
▁хавд	-13739
▁хөрс	-13740
▁юман	-13741
▁үхнэ	-13742
гуудыг	-13743
ексийн	-13744
лахаас	-13745
▁Бямба	-13746
▁админ	-13747
▁ардаа	-13748
▁арилг	-13749
▁архид	-13750
▁архит	-13751
▁барьц	-13752
▁морьд	-13753
▁хишиг	-13754
▁яаран	-13755
▁өмхий	-13756
Амьдрал	-13757
луулдаг	-13758
ээлтийн	-13759
▁Залуус	-13760
▁Социал	-13761
▁Уламжл	-13762
▁ажилла	-13763
▁ахлагч	-13764
▁буцаах	-13765
▁визний	-13766
▁дэмжин	-13767
▁жорлон	-13768
▁залхаж	-13769
▁зовдог	-13770
▁солино	-13771
▁сүрхий	-13772
▁уншлаа	-13773
▁цуглаа	-13774
▁үлдээд	-13775
▁Зэвсэгт	-13776
▁аваргад	-13777
▁алдааны	-13778
▁буруутг	-13779
▁бутлагч	-13780
▁орохоос	-13781
▁сэргийл	-13782
▁ургадаг	-13783
▁хамрагд	-13784
▁хэлбэлз	-13785
▁хөндсөн	-13786
▁чанараа	-13787
▁үзэгдэх	-13788
▁өгөхдөө	-13789
▁Дагуурын	-13790
▁баримжаа	-13791
▁давхарга	-13792
▁дагалдах	-13793
▁засагтай	-13794
▁зориулах	-13795
▁намуудын	-13796
▁оператор	-13797
▁салахгүй	-13798
▁сэдэвтэй	-13799
▁танхимын	-13800
▁тэрийгээ	-13801
▁төлөвлөх	-13802
▁холбосон	-13803
▁хөдөөний	-13804
▁чанаргүй	-13805
▁явуулаад	-13806
▁ёстойгоо	-13807
▁Тэнгэрийн	-13808
▁баригчдын	-13809
▁дугаартай	-13810
▁нартайгаа	-13811
▁нийтэлсэн	-13812
▁суралцдаг	-13813
▁хичээллэх	-13814
▁хэрэгжсэн	-13815
▁өдрүүдийн	-13816
▁Захиргааны	-13817
▁дэлгүүрээс	-13818
▁таалагдлаа	-13819
▁сонирхолгүй	-13820
▁хэрэгсэхгүй	-13821
▁лабораторийн	-13822
▁хөнгөлөлттэй	-13823
ym	-13824
Ах	-13825
ДС	-13826
ИК	-13827
amb	-13828
eek	-13829
oot	-13830
rom	-13831
СКО	-13832
УУР	-13833
айх	-13834
бын	-13835
мой	-13836
сєн	-13837
цөг	-13838
▁Де	-13839
▁Др	-13840
▁Ма	-13841
▁Ов	-13842
▁СУ	-13843
Банк	-13844
гүйн	-13845
ский	-13846
▁900	-13847
▁Ажл	-13848
▁Гит	-13849
▁Хак	-13850
▁ааа	-13851
▁мед	-13852
▁юмс	-13853
Отгон	-13854
гооны	-13855
эсвэл	-13856
үүдэн	-13857
▁-201	-13858
▁Болж	-13859
▁Зуун	-13860
▁Мэдр	-13861
▁Стал	-13862
▁Шалт	-13863
▁бүтц	-13864
▁драм	-13865
▁илчл	-13866
▁хост	-13867
Дэлгэр	-13868
бадрах	-13869
үүлбэл	-13870
өлтийг	-13871
▁Нэвтр	-13872
▁Түмэн	-13873
▁Хохир	-13874
▁алгаа	-13875
▁арлын	-13876
▁бетон	-13877
▁бодон	-13878
▁дусал	-13879
▁илрэх	-13880
▁мэдэн	-13881
▁нэхэж	-13882
▁учрал	-13883
▁хувиа	-13884
▁үзмэр	-13885
васүрэн	-13886
▁Мартин	-13887
▁Номхон	-13888
▁Нөхцөл	-13889
▁Хамтын	-13890
▁Чулуун	-13891
▁байран	-13892
▁бичвэр	-13893
▁будалт	-13894
▁дүндээ	-13895
▁зохино	-13896
▁модель	-13897
▁нимгэн	-13898
▁олохыг	-13899
▁орчинг	-13900
▁санаад	-13901
▁суухад	-13902
▁төржээ	-13903
▁төрөөд	-13904
▁урьсан	-13905
▁ухаарч	-13906
▁хахаха	-13907
▁хэтийн	-13908
▁чуулга	-13909
▁шороон	-13910
▁шумуул	-13911
▁өвдөөд	-13912
▁Бэлтгэл	-13913
▁Зөвлөлт	-13914
▁арьстай	-13915
▁жингийн	-13916
▁ноолуур	-13917
▁тогтнох	-13918
▁тулааны	-13919
▁уулздаг	-13920
▁хомсдол	-13921
▁хөвгүүн	-13922
▁үгэндээ	-13923
▁Ихэнхдээ	-13924
▁Португал	-13925
▁Яаралтай	-13926
▁бүтээдэг	-13927
▁залуудаа	-13928
▁залуусаа	-13929
▁оролддог	-13930
▁хаягдлын	-13931
▁эргэлзээ	-13932
▁эхийнхээ	-13933
▁ярилцаад	-13934
▁өнгөрөгч	-13935
▁байрлуулж	-13936
▁байхаасаа	-13937
▁бүртгүүлж	-13938
▁уулзахаар	-13939
▁хүмүүсээр	-13940
▁оруулаагүй	-13941
▁тэнцвэртэй	-13942
▁төгсгөлийн	-13943
▁хийгдээгүй	-13944
▁сэтгэгдлийг	-13945
▁эргэлзэхгүй	-13946
▁статистикийн	-13947
▁хүмүүнлэгийн	-13948
▁Ерөнхийлөгчийг	-13949
▁Сонгинохайрхан	-13950
ЭЖ	-13951
су	-13952
III	-13953
its	-13954
min	-13955
Цэр	-13956
Шил	-13957
ака	-13958
Үйл	-13959
▁TV	-13960
▁ad	-13961
▁Эй	-13962
Бүгд	-13963
гүүт	-13964
ееее	-13965
жсэн	-13966
ресс	-13967
срын	-13968
улан	-13969
цтэй	-13970
▁ГХЯ	-13971
▁СХД	-13972
▁Тэс	-13973
▁Чар	-13974
▁Шан	-13975
▁вин	-13976
▁гөл	-13977
▁доп	-13978
▁топ	-13979
НЕСКО	-13980
ийхээ	-13981
омоор	-13982
үүдэл	-13983
өөлөн	-13984
▁ХААН	-13985
▁байз	-13986
▁бичл	-13987
▁доог	-13988
▁заль	-13989
▁такт	-13990
уугаар	-13991
▁posts	-13992
▁Сөрөг	-13993
▁Токио	-13994
▁бугуй	-13995
▁иннов	-13996
▁нойрс	-13997
▁одсон	-13998
▁сөнөө	-13999
▁уртас	-14000
▁цилин	-14001
▁чийгш	-14002
▁Өргөн	-14003
▁Мексик	-14004
▁гардан	-14005
▁мэндээ	-14006
▁нотолж	-14007
▁нүдтэй	-14008
▁таалал	-14009
▁унтсан	-14010
▁хассан	-14011
▁шохойн	-14012
▁үсгийн	-14013
▁subject	-14014
▁Статист	-14015
▁Христэд	-14016
▁аваачиж	-14017
▁дурдвал	-14018
▁дэмжигч	-14019
▁малтмал	-14020
▁онгоцыг	-14021
▁оноосон	-14022
▁сандарч	-14023
▁сансарт	-14024
▁тосгоны	-14025
▁туршаад	-14026
▁тэмцэнэ	-14027
▁хичээнэ	-14028
▁хоолтой	-14029
▁ялгарах	-14030
▁өгөхөөс	-14031
▁comments	-14032
▁Одоогоос	-14033
▁баатрууд	-14034
▁байцаалт	-14035
▁бодлогод	-14036
▁болоорой	-14037
▁гэрээгээ	-14038
▁дуусахад	-14039
▁жижиглэн	-14040
▁захирлын	-14041
▁новшнууд	-14042
▁түймрийн	-14043
▁ухаангүй	-14044
▁хоногтоо	-14045
▁хотуудын	-14046
▁хямралыг	-14047
▁чамайгаа	-14048
▁энергийн	-14049
▁өвчилсөн	-14050
Номтойбаяр	-14051
▁Зөвлөлийн	-14052
▁Хөрөнгийн	-14053
▁буруутгах	-14054
▁буурахгүй	-14055
▁найзтайгаа	-14056
▁нийлүүлэлт	-14057
▁халдвартай	-14058
▁хичээллэдэг	-14059
▁эргэлзээгүй	-14060
▁өнгөрүүлдэг	-14061
▁гүйцэтгэлийн	-14062
▁байгууламжийн	-14063
▁зөвшөөрдөггүй	-14064
▁байгууллагатай	-14065
mp	-14066
гр	-14067
дин	-14068
ита	-14069
тен	-14070
төл	-14071
▁Ub	-14072
▁ag	-14073
▁ЕС	-14074
азер	-14075
дсөн	-14076
мсог	-14077
орыг	-14078
▁(3)	-14079
▁ЕБС	-14080
▁СУР	-14081
▁Сул	-14082
▁Уил	-14083
▁Хэм	-14084
▁Цэн	-14085
▁ЭЕШ	-14086
▁гей	-14087
▁мут	-14088
▁няг	-14089
phone	-14090
амаар	-14091
гэрэл	-14092
орхон	-14093
уугаа	-14094
▁1980	-14095
▁1989	-14096
▁next	-14097
▁Амиа	-14098
▁Очир	-14099
▁Тийн	-14100
▁дэхь	-14101
▁олдв	-14102
▁тарв	-14103
▁халж	-14104
▁шүүл	-14105
▁үрээ	-14106
иагийн	-14107
когийн	-14108
▁Ашигт	-14109
▁Гарын	-14110
▁Дахиж	-14111
▁Малын	-14112
▁Охины	-14113
▁Төсөл	-14114
▁Хэцүү	-14115
▁амжиж	-14116
▁бууны	-14117
▁модыг	-14118
▁сонсч	-14119
▁угтаж	-14120
▁хатаа	-14121
▁хордл	-14122
Шударга	-14123
члалтай	-14124
▁Виктор	-14125
▁Хэвлэх	-14126
▁автсан	-14127
▁буйдан	-14128
▁бөгөөс	-14129
▁гахайн	-14130
▁жинхэн	-14131
▁найдах	-14132
▁нуруун	-14133
▁оргилд	-14134
▁орноор	-14135
▁сэргэж	-14136
▁тавцан	-14137
▁таниас	-14138
▁утсанд	-14139
▁хонгил	-14140
▁хөгийн	-14141
▁Өрсөлд	-14142
чдийнхээ	-14143
элгээний	-14144
▁Багшийн	-14145
▁Грекийн	-14146
▁Парисын	-14147
▁авилгал	-14148
▁арьсанд	-14149
▁гэрийнх	-14150
▁дайраад	-14151
▁дуудаад	-14152
▁дүүрсэн	-14153
▁зааврыг	-14154
▁зоогийн	-14155
▁зохицох	-14156
▁зүрхийг	-14157
▁тэгтлээ	-14158
▁түүгээр	-14159
▁төрлүүд	-14160
▁төрхтэй	-14161
▁хоносон	-14162
▁шийдээд	-14163
▁үнэлэмж	-14164
▁Бидэнтэй	-14165
▁Мэдэхгүй	-14166
▁ирсэнгүй	-14167
▁саналтай	-14168
▁сахиулах	-14169
▁сонсохыг	-14170
▁сураагүй	-14171
▁таниулах	-14172
▁шүүгчийн	-14173
▁эхлэхээр	-14174
▁Иерусалим	-14175
▁Чингисийн	-14176
▁Эдгээрээс	-14177
▁айлчлалын	-14178
▁зурагтаар	-14179
▁мэдлэгийг	-14180
▁одоогийнх	-14181
▁ажилтантай	-14182
▁мэдэгдлийг	-14183
▁хангамжийг	-14184
▁Залуучуудын	-14185
▁алдагдалтай	-14186
▁баривчилсан	-14187
▁бололцоотой	-14188
▁илүүтэйгээр	-14189
▁хэлэлцээрийн	-14190
▁хариуцлагагүй	-14191
▁коронавирусийн	-14192
▁хэрэгжүүлэхээр	-14193
./	-14194
IV	-14195
БА	-14196
вд	-14197
ви	-14198
lic	-14199
ДАЛ	-14200
сен	-14201
єнг	-14202
▁al	-14203
▁Че	-14204
▁яа	-14205
able	-14206
олол	-14207
омол	-14208
чдаа	-14209
▁11,	-14210
▁60-	-14211
▁Сор	-14212
▁алм	-14213
▁гүм	-14214
▁жүд	-14215
▁зэх	-14216
▁пад	-14217
▁пал	-14218
▁шиж	-14219
адсан	-14220
амдал	-14221
батын	-14222
сандр	-14223
цгааж	-14224
өгдөж	-14225
▁2022	-14226
▁Амаз	-14227
▁Жуул	-14228
▁Кофе	-14229
▁Хийж	-14230
▁авиа	-14231
▁жинд	-14232
▁зайр	-14233
▁сүйд	-14234
▁ярья	-14235
▁үүрч	-14236
▁COVID	-14237
▁Дугуй	-14238
▁Намар	-14239
▁Сирид	-14240
▁амины	-14241
▁багаа	-14242
▁байхг	-14243
▁батга	-14244
▁бацаа	-14245
▁буулт	-14246
▁гэгээ	-14247
▁даруу	-14248
▁долги	-14249
▁оллоо	-14250
▁саяын	-14251
▁сүрье	-14252
▁унана	-14253
▁хакер	-14254
▁яанаа	-14255
▁үрэвс	-14256
▁үүснэ	-14257
▁өртөө	-14258
▁өсчээ	-14259
▁Casino	-14260
▁unread	-14261
▁Казино	-14262
▁Тэрний	-14263
▁Хонгор	-14264
▁Хэмжээ	-14265
▁Цэнхэр	-14266
▁буриад	-14267
▁буурна	-14268
▁дүгнэл	-14269
▁зөгийн	-14270
▁ногдох	-14271
▁онигоо	-14272
▁сураад	-14273
▁тосгон	-14274
▁файлын	-14275
▁цэгийн	-14276
▁янзтай	-14277
▁үүрэгт	-14278
Үндэсний	-14279
▁article	-14280
▁араасаа	-14281
▁бүрчлэн	-14282
▁гишүүнд	-14283
▁гэснээс	-14284
▁европын	-14285
▁илэрчээ	-14286
▁метрийн	-14287
▁нөхдийн	-14288
▁сольсон	-14289
▁түмнээс	-14290
▁түүхээс	-14291
▁төрсний	-14292
▁хөгжинө	-14293
▁шинжээч	-14294
▁шүүгчид	-14295
▁эрдмийн	-14296
▁ялагдал	-14297
Энхсайхан	-14298
▁Асуудлыг	-14299
▁Тэдэнтэй	-14300
▁багасгаж	-14301
▁босгосон	-14302
▁бүжиглэж	-14303
▁гүнзгийр	-14304
▁онцоллоо	-14305
▁тасархай	-14306
▁туранхай	-14307
▁удирдсан	-14308
▁хамаарал	-14309
▁хуралдах	-14310
▁хүрэхийг	-14311
▁шаардана	-14312
▁үздэггүй	-14313
Нийслэлийн	-14314
▁Авлигатай	-14315
▁Хэвлэлийн	-14316
▁бүтэлгүйт	-14317
▁засварлах	-14318
▁манайхаас	-14319
▁махбодийн	-14320
▁нэлээдгүй	-14321
▁орнуудаас	-14322
▁сонсохгүй	-14323
▁тэмдэглэв	-14324
▁уулзалтыг	-14325
▁хүлээхгүй	-14326
▁Төлөвлөгөө	-14327
▁дэмжлэгийг	-14328
▁нөхрийнхөө	-14329
▁стандартад	-14330
▁тоглогчдын	-14331
▁тохируулга	-14332
▁шийдвэрээр	-14333
▁шинжилгээг	-14334
▁өмнөхөөсөө	-14335
▁хүссэнээрээ	-14336
▁өөрчлөгддөг	-14337
▁хүмүүстэйгээ	-14338
▁хамгаалагдсан	-14339
ru	-14340
sc	-14341
ЬД	-14342
ЭС	-14343
не	-14344
ner	-14345
Бод	-14346
нер	-14347
унг	-14348
хув	-14349
▁am	-14350
▁кв	-14351
Ажил	-14352
Учир	-14353
двар	-14354
лгий	-14355
лөөс	-14356
цолд	-14357
чдөд	-14358
єлєє	-14359
▁130	-14360
▁Дам	-14361
▁Инж	-14362
▁ТЭЗ	-14363
▁гид	-14364
▁деп	-14365
▁цог	-14366
▁өвг	-14367
имаар	-14368
оосны	-14369
ууууу	-14370
ээлэн	-14371
▁ЗДТГ	-14372
▁Тэрг	-14373
▁гүйх	-14374
▁литр	-14375
▁сана	-14376
гээсэн	-14377
онгоор	-14378
▁Зориг	-14379
▁Мөрөө	-14380
▁Харьц	-14381
▁архаг	-14382
▁аялан	-14383
▁дуунд	-14384
▁роман	-14385
▁сүүлч	-14386
▁турах	-14387
▁ханын	-14388
▁чичир	-14389
чүүдийг	-14390
▁ЭЗЭНий	-14391
▁байдын	-14392
▁буланд	-14393
▁дутмаг	-14394
▁дуучид	-14395
▁жишээн	-14396
▁латекс	-14397
▁олдоно	-14398
▁орохын	-14399
▁сардаа	-14400
▁тусгах	-14401
▁төрөлт	-14402
▁хоргод	-14403
▁хурдас	-14404
▁хурлаа	-14405
▁цаазын	-14406
▁шийдэв	-14407
эмээргүй	-14408
▁баавгай	-14409
▁байцаал	-14410
▁виртуал	-14411
▁гайхдаг	-14412
▁дангаар	-14413
▁дүрслэл	-14414
▁олимпод	-14415
▁оршихуй	-14416
▁санхүүж	-14417
▁хямралд	-14418
▁цомгийн	-14419
▁шийтгэх	-14420
▁эвслийн	-14421
▁барилдаа	-14422
▁гараагаа	-14423
▁дутагдаж	-14424
▁сэргэлэн	-14425
▁хангахын	-14426
▁хуудсаар	-14427
▁хэмээлээ	-14428
▁чуулганд	-14429
▁үзүүлээд	-14430
▁үрэгдсэн	-14431
▁өгөөжтэй	-14432
▁өрөөсгөл	-14433
▁Ганбаатар	-14434
▁бүтээлтэй	-14435
▁гадаадаас	-14436
▁нэгнийгээ	-14437
▁сонгохдоо	-14438
▁талархлаа	-14439
▁тэргүүтэй	-14440
▁түүнийхээ	-14441
▁хайгуулын	-14442
▁хуваарийн	-14443
▁шийдэгдэх	-14444
▁Эрдэнэтийн	-14445
▁илэрхийлнэ	-14446
▁санаандгүй	-14447
▁суртахууны	-14448
▁төрөлхтөнд	-14449
▁хэвлэгдсэн	-14450
▁хэрэглэвэл	-14451
▁ярилцлагыг	-14452
▁Хэрэглэгчид	-14453
▁инээмсэглэж	-14454
▁сэтгүүлчдэд	-14455
▁хэрэглэгдэх	-14456
▁шаардагдана	-14457
▁үзүүлэлттэй	-14458
▁хүндэтгэлийн	-14459
▁ярилцлагадаа	-14460
49	-14461
ES	-14462
fe	-14463
oe	-14464
ьф	-14465
-25	-14466
any	-14467
Сум	-14468
ада	-14469
дөх	-14470
жоо	-14471
или	-14472
ков	-14473
ойм	-14474
тав	-14475
эйт	-14476
▁("	-14477
▁8.	-14478
▁He	-14479
▁Hu	-14480
▁Бл	-14481
▁Им	-14482
ovid	-14483
Наад	-14484
аалж	-14485
едит	-14486
лээн	-14487
окер	-14488
снөө	-14489
хнаа	-14490
шийг	-14491
▁140	-14492
▁???	-14493
▁НАС	-14494
▁Нэл	-14495
▁Пит	-14496
▁Тув	-14497
▁Чен	-14498
▁нав	-14499
▁нян	-14500
▁хит	-14501
▁хуг	-14502
▁шок	-14503
▁ээд	-14504
Эрхэм	-14505
ацогт	-14506
ийсэн	-14507
инжин	-14508
ложээ	-14509
снэгт	-14510
Өглөө	-14511
өсний	-14512
▁1984	-14513
▁Time	-14514
▁Гэрт	-14515
▁ТЭЗҮ	-14516
▁ахих	-14517
▁гарз	-14518
▁дурд	-14519
▁нэрт	-14520
▁хэрц	-14521
▁хөөс	-14522
▁өнхр	-14523
▁өөрс	-14524
вадорж	-14525
▁Барак	-14526
▁Дэвид	-14527
▁Ехова	-14528
▁Улсыг	-14529
▁Хайрт	-14530
▁азгүй	-14531
▁давам	-14532
▁ноёрх	-14533
▁очвол	-14534
▁талаа	-14535
▁тахиа	-14536
▁цацаж	-14537
▁эхтэй	-14538
▁Улсаас	-14539
▁Хуудас	-14540
▁болзол	-14541
▁болохг	-14542
▁буудаж	-14543
▁буцсан	-14544
▁дамжиж	-14545
▁зочилж	-14546
▁музейн	-14547
▁нээлээ	-14548
▁нямбай	-14549
▁санана	-14550
▁судлал	-14551
▁тэтгэв	-14552
▁хавсар	-14553
▁хамрах	-14554
▁хоноод	-14555
▁хүргье	-14556
▁хөндөг	-14557
▁чадлын	-14558
▁элсэлт	-14559
▁Үндэст	-14560
Нийгмийн	-14561
уудынхаа	-14562
▁Ажилгүй	-14563
▁Ганцаар	-14564
▁байшинг	-14565
▁гарааны	-14566
▁гаргуул	-14567
▁мөнгөнд	-14568
▁нийлбэр	-14569
▁түгжрэл	-14570
▁хайраар	-14571
▁хөндийр	-14572
▁чөлөөлж	-14573
Батзандан	-14574
▁Харанхуй	-14575
▁Хэрэгтэй	-14576
▁Хяналтын	-14577
▁байгальд	-14578
▁бичихдээ	-14579
▁ойлгуулж	-14580
▁онгоцонд	-14581
▁сонсоход	-14582
▁төлөхгүй	-14583
▁хоногийг	-14584
▁хөтөлдөг	-14585
▁үзүүлэгч	-14586
хагвасүрэн	-14587
▁богинохон	-14588
▁сонирхолд	-14589
▁тээвэрлэх	-14590
▁уулзаагүй	-14591
▁хариуцдаг	-14592
▁хэсэгчлэн	-14593
▁цэнгэлдэх	-14594
▁чиглүүлэх	-14595
▁автобусанд	-14596
▁тогтоолоор	-14597
▁боломжуудыг	-14598
▁сэтгэлээрээ	-14599
▁тохиролцсон	-14600
2)	-14601
75	-14602
76	-14603
ДЛ	-14604
Эц	-14605
зо	-14606
.10	-14607
enc	-14608
ode	-14609
osh	-14610
Нэр	-14611
заг	-14612
нол	-14613
роо	-14614
укс	-14615
шуу	-14616
▁Ге	-14617
▁МЭ	-14618
▁Эг	-14619
▁Эк	-14620
▁хх	-14621
▁ҮН	-14622
ussy	-14623
амик	-14624
дүүд	-14625
лгэн	-14626
цсан	-14627
▁Бет	-14628
▁Рио	-14629
▁САЙ	-14630
▁Таа	-14631
▁Цуг	-14632
▁Шув	-14633
▁гсн	-14634
инаас	-14635
лобал	-14636
онгоо	-14637
уулал	-14638
эсийн	-14639
өхийг	-14640
▁Карл	-14641
▁Хямд	-14642
▁бдаг	-14643
▁бууз	-14644
▁бялд	-14645
▁занш	-14646
▁стер	-14647
▁схем	-14648
▁тууз	-14649
▁фунт	-14650
▁хоер	-14651
Гурван	-14652
агчийг	-14653
луудыг	-14654
▁Аавын	-14655
▁БАЙНА	-14656
▁Москв	-14657
▁Нидер	-14658
▁Оройн	-14659
▁Орост	-14660
▁Татаж	-14661
▁Ургам	-14662
▁буцал	-14663
▁зарли	-14664
▁огтор	-14665
▁сорон	-14666
▁хашиж	-14667
▁хуурт	-14668
▁хөрөг	-14669
▁шоуны	-14670
▁яалаа	-14671
▁үрийн	-14672
▁Өмгөө	-14673
▁Бөхийн	-14674
▁Дугаар	-14675
▁Страте	-14676
▁Харвар	-14677
▁ЮНЕСКО	-14678
▁аавдаа	-14679
▁алдагд	-14680
▁байсын	-14681
▁болиод	-14682
▁бужигн	-14683
▁булаам	-14684
▁бүрдэл	-14685
▁бүрдээ	-14686
▁гажууд	-14687
▁гэрийг	-14688
▁даваад	-14689
▁заншил	-14690
▁сануул	-14691
▁танайд	-14692
▁тараад	-14693
▁тэрний	-14694
▁төвтэй	-14695
▁угаана	-14696
▁урилга	-14697
▁ханцуй	-14698
▁хиймор	-14699
▁холоос	-14700
▁хувирч	-14701
▁худалч	-14702
▁хөлдөө	-14703
▁цаадах	-14704
▁цайгаа	-14705
▁чадлыг	-14706
▁чигтээ	-14707
▁шатаах	-14708
▁өвддөг	-14709
▁Comment	-14710
▁бүсгүйд	-14711
▁бүтээлд	-14712
▁конвенц	-14713
▁маршрут	-14714
▁минутад	-14715
▁олимпын	-14716
▁тэмцсэн	-14717
▁халдсан	-14718
▁хахууль	-14719
Баярлалаа	-14720
▁бариарай	-14721
▁бодогдож	-14722
▁буцахгүй	-14723
▁дорвитой	-14724
▁зогсооно	-14725
▁наадмаар	-14726
▁тооцооны	-14727
▁тэмдгийн	-14728
▁хоригдож	-14729
▁хосуудын	-14730
▁хувирсан	-14731
▁чинээлэг	-14732
▁өсөлттэй	-14733
▁Залуучууд	-14734
▁Шинжилгээ	-14735
▁байгуулан	-14736
▁гудамжаар	-14737
▁давамгайл	-14738
▁зөрчилдөө	-14739
▁мэдээгээр	-14740
▁мөнгөөрөө	-14741
▁суугаагүй	-14742
▁хичээнгүй	-14743
▁хүндэтгэн	-14744
▁ажиглагдаж	-14745
▁байдлаараа	-14746
▁тайлангийн	-14747
▁хүүгийнхээ	-14748
▁хөтөлбөрөө	-14749
▁өнгөрөөдөг	-14750
▁баримтуудыг	-14751
▁сайжруулахад	-14752
":	-14753
33	-14754
ev	-14755
рг	-14756
ши	-14757
ых	-14758
юү	-14759
▁°	-14760
00-	-14761
oll	-14762
ДАА	-14763
зул	-14764
пин	-14765
сур	-14766
хуя	-14767
▁Gu	-14768
▁ЕХ	-14769
▁ку	-14770
енко	-14771
ерей	-14772
жинг	-14773
сайт	-14774
стөр	-14775
сээс	-14776
трах	-14777
цаач	-14778
▁2.5	-14779
▁iOS	-14780
▁Арь	-14781
▁Гун	-14782
▁Шав	-14783
▁чон	-14784
▁ҮАБ	-14785
Зориг	-14786
астай	-14787
гдсэн	-14788
естер	-14789
игтай	-14790
ийхан	-14791
хнийг	-14792
хнээс	-14793
▁more	-14794
▁Азид	-14795
▁Бель	-14796
▁ШИНЭ	-14797
▁будл	-14798
▁зүйг	-14799
▁тамх	-14800
▁удах	-14801
▁эсэн	-14802
Чамайг	-14803
лэхдээ	-14804
▁Никол	-14805
▁Угтаа	-14806
▁Усанд	-14807
▁Хавар	-14808
▁арьст	-14809
▁асууя	-14810
▁барин	-14811
▁гучин	-14812
▁жилээ	-14813
▁ламын	-14814
▁могой	-14815
▁сохор	-14816
▁тавил	-14817
▁хадам	-14818
▁шатар	-14819
▁эхийг	-14820
▁үрийг	-14821
▁үүсэж	-14822
ийнхээс	-14823
мэйлээр	-14824
шуулсан	-14825
эдэнбал	-14826
▁Бүтээл	-14827
▁Гадуур	-14828
▁Зохион	-14829
▁Суралц	-14830
▁Утасны	-14831
▁арьсаа	-14832
▁баяраа	-14833
▁болзоо	-14834
▁болиоч	-14835
▁бурхад	-14836
▁бүрхэг	-14837
▁дансаа	-14838
▁доголд	-14839
▁жирэмс	-14840
▁зарлан	-14841
▁зугтах	-14842
▁илтгэх	-14843
▁төсвөө	-14844
▁ууртай	-14845
▁фитнес	-14846
▁хэрэгч	-14847
▁хүнийх	-14848
▁хөндөж	-14849
потекийн	-14850
▁Есүсийг	-14851
▁Найзууд	-14852
▁багтааж	-14853
▁биеэрээ	-14854
▁больжээ	-14855
▁гэгчээр	-14856
▁нийлсэн	-14857
▁номноос	-14858
▁нүүрийг	-14859
▁сайдтай	-14860
▁тэрнээс	-14861
▁хавтгай	-14862
▁харьяат	-14863
▁хэмжүүр	-14864
▁хэрэглэ	-14865
▁Багануур	-14866
▁Худалдах	-14867
▁Хуралдаа	-14868
▁баримтат	-14869
▁барихгүй	-14870
▁вирусийн	-14871
▁зардлаар	-14872
▁кинонууд	-14873
▁нийлүүлж	-14874
▁хотуудад	-14875
▁эргэлзэх	-14876
▁ярилцдаг	-14877
▁өөрөөрөө	-14878
▁Арилжааны	-14879
▁Шалгалтын	-14880
▁буцалтгүй	-14881
▁гаргахдаа	-14882
▁дагуулсан	-14883
▁маргааныг	-14884
▁мэдэгдэнэ	-14885
▁нэгтгэсэн	-14886
▁татвараас	-14887
▁тогтоодог	-14888
▁хоолойгоо	-14889
▁чадлаараа	-14890
▁эргэлтийн	-14891
▁этгээдүүд	-14892
▁ирээдүйтэй	-14893
▁хорвоогийн	-14894
▁хуваалцсан	-14895
▁Парламентын	-14896
▁нөлөөлөхгүй	-14897
▁тэмдэглэжээ	-14898
▁харагдуулах	-14899
▁үзүүлэлтүүд	-14900
▁Маркетингийн	-14901
▁сайжруулахын	-14902
▁хуваалцаарай	-14903
//	-14904
86	-14905
89	-14906
BS	-14907
ТА	-14908
ere	-14909
ert	-14910
ota	-14911
ron	-14912
ИЛЦ	-14913
Сон	-14914
Хүү	-14915
вэй	-14916
Үүд	-14917
▁(4	-14918
▁79	-14919
▁??	-14920
▁хд	-14921
▁хї	-14922
ance	-14923
Цогт	-14924
опол	-14925
сээн	-14926
цаар	-14927
чдоо	-14928
▁10.	-14929
▁Сод	-14930
▁Топ	-14931
▁Унт	-14932
▁лүү	-14933
▁оос	-14934
▁реф	-14935
▁тит	-14936
▁цов	-14937
▁эгд	-14938
▁яад	-14939
▁яая	-14940
аграм	-14941
ендер	-14942
лалыг	-14943
ласны	-14944
ортой	-14945
эргэж	-14946
▁Гант	-14947
▁ФОТО	-14948
▁ална	-14949
▁гагн	-14950
▁гуйя	-14951
▁завх	-14952
▁зөвт	-14953
▁номд	-14954
лохгүй	-14955
Үүнийг	-14956
▁.....	-14957
▁Камер	-14958
▁Элбэг	-14959
▁Явган	-14960
▁азтан	-14961
▁аягүй	-14962
▁илжиг	-14963
▁клубт	-14964
▁цөөнх	-14965
▁эсийн	-14966
▁ээжид	-14967
▁өтгөн	-14968
▁Вьетна	-14969
▁Дорног	-14970
▁Ирланд	-14971
▁Сонгол	-14972
▁Хиймэл	-14973
▁Хүлээн	-14974
▁биелэх	-14975
▁булаац	-14976
▁дурлах	-14977
▁дурсан	-14978
▁заасны	-14979
▁засагч	-14980
▁зодолд	-14981
▁металл	-14982
▁мөрөөр	-14983
▁нийцэх	-14984
▁нуусан	-14985
▁нэвтэр	-14986
▁сантай	-14987
▁товчоо	-14988
▁тогтох	-14989
▁тоотой	-14990
▁хойшил	-14991
▁хохирч	-14992
▁хөлийн	-14993
▁хөнгөв	-14994
▁цонхны	-14995
▁эрхээр	-14996
лөгчдийн	-14997
уулалтыг	-14998
▁youtube	-14999
▁Хуурамч	-15000
▁гүйцсэн	-15001
▁киногоо	-15002
▁сэтгэгд	-15003
▁тайзнаа	-15004
▁хавьтал	-15005
▁хиймээр	-15006
▁өнгөний	-15007
▁Филиппин	-15008
▁байрлалд	-15009
▁байрлуул	-15010
▁зарагдаж	-15011
▁огторгуй	-15012
[...]
