<unk>	0
<s>	0
</s>	0
.	-3.16282
д	-4.23996
,	-4.27389
▁нь	-4.46597
▁	-4.53703
т	-4.68823
г	-4.76537
ийн	-4.88862
л	-4.92128
х	-4.93447
ын	-4.94521
▁байна	-4.96031
н	-5.03515
р	-5.06493
▁юм	-5.07946
ж	-5.12822
гүй	-5.14762
с	-5.1583
▁ч	-5.20435
-	-5.29198
ийг	-5.35888
▁л	-5.38676
▁гэж	-5.40277
ыг	-5.40869
ээ	-5.41989
▁байгаа	-5.50954
▁бол	-5.52651
тай	-5.52737
?	-5.53891
"	-5.54522
ч	-5.54808
аа	-5.56232
▁"	-5.58765
▁-	-5.61983
тэй	-5.66687
сан	-5.66924
:	-5.75665
ны	-5.8002
ц	-5.80192
▁энэ	-5.84438
▁байсан	-5.89684
▁Энэ	-5.89824
▁нэг	-5.92854
ад	-5.98921
▁байх	-5.99393
м	-6.02252
▁хүн	-6.04715
ан	-6.0992
▁уу	-6.12506
▁та	-6.14888
в	-6.15258
ах	-6.15294
аар	-6.16019
▁их	-6.22976
а	-6.24941
ээр	-6.29201
▁болно	-6.29283
ал	-6.32401
▁би	-6.3251
гийн	-6.32918
даг	-6.35203
и	-6.37515
...	-6.37671
ш	-6.37875
▁вэ	-6.3879
аас	-6.40265
ний	-6.42333
▁Х	-6.42337
оо	-6.43485
сэн	-6.4424
на	-6.4437
▁байдаг	-6.44733
▁дээ	-6.45098
▁юу	-6.45747
е	-6.46081
▁дээр	-6.4646
ам	-6.46961
▁гэсэн	-6.48906
▁Би	-6.51711
з	-6.51991
ь	-6.52879
▁тэр	-6.52957
даа	-6.53477
▁олон	-6.54141
▁...	-6.54985
эд	-6.55977
ар	-6.56064
▁шүү	-6.56844
эр	-6.57411
аг	-6.58139
ээс	-6.58978
эн	-6.59581
▁Та	-6.60412
▁ямар	-6.60569
эл	-6.60717
нд	-6.62607
ууд	-6.64873
▁биш	-6.66248
о	-6.66305
e	-6.67475
ай	-6.6807
▁Б	-6.6832
эх	-6.68525
лаа	-6.69098
Х	-6.70027
▁зүйл	-6.70799
▁болох	-6.73321
у	-6.73469
ий	-6.73667
)	-6.74229
дэг	-6.76087
▁Д	-6.76437
ор	-6.77158
!	-6.77952
дээ	-6.7802
o	-6.78064
ин	-6.78067
уу	-6.78887
он	-6.79146
▁үү	-6.80038
▁хоёр	-6.80308
гаа	-6.8093
аж	-6.81089
сон	-6.81562
▁цаг	-6.82352
▁хамгийн	-6.8264
▁С	-6.83311
▁хэрэгтэй	-6.84179
▁сайн	-6.84529
▁болон	-6.84682
▁(	-6.85223
ол	-6.85647
▁А	-6.87106
▁бид	-6.87352
▁Т	-6.87698
▁ш	-6.88125
ав	-6.8948
a	-6.89589
өө	-6.90825
▁эрх	-6.91153
▁улс	-6.92593
▁Г	-6.92693
ил	-6.92708
▁болсон	-6.92863
▁гэдэг	-6.94047
▁гар	-6.94228
▁жил	-6.94298
▁бүх	-6.94482
▁шиг	-6.94831
к	-6.94851
той	-6.95004
▁хар	-6.96903
▁өмнө	-6.97457
А	-6.97693
▁ажил	-6.98011
▁өөр	-6.98118
ү	-6.98667
эг	-6.99489
б	-6.99738
▁ёстой	-6.99781
▁даа	-7.00801
э	-7.0086
▁авах	-7.00981
▁хүмүүс	-7.01074
үүд	-7.01316
чих	-7.01687
▁бүр	-7.01902
▁үйл	-7.02392
Т	-7.02534
▁Тэр	-7.02934
▁байж	-7.0334
▁талаар	-7.03485
▁Н	-7.03958
▁хийх	-7.0462
▁чинь	-7.04706
▁М	-7.06536
жээ	-7.06748
▁үед	-7.06945
▁хэл	-7.07011
ид	-7.07342
анд	-7.07529
хан	-7.07719
лээ	-7.07836
нэ	-7.07926
▁үг	-7.08173
▁х	-7.08557
2	-7.09487
▁илүү	-7.09499
▁болж	-7.09518
▁нэр	-7.10137
▁маш	-7.10797
га	-7.11084
▁ав	-7.12699
өл	-7.129
ы	-7.13677
▁нар	-7.14096
▁Харин	-7.14206
үү	-7.14308
▁дараа	-7.14544
ер	-7.14737
аад	-7.1504
▁2	-7.1572
▁тухай	-7.15947
▁авч	-7.16613
▁оны	-7.17188
▁т	-7.17279
▁ам	-7.17384
▁тус	-7.17418
Г	-7.17548
гээ	-7.17876
лэг	-7.18225
ө	-7.18927
▁ба	-7.19018
s	-7.19153
▁хэн	-7.19154
▁хийж	-7.19229
▁б	-7.19443
▁төр	-7.19789
▁Монгол	-7.20317
▁бас	-7.20861
▁хэрэг	-7.219
эв	-7.22193
сөн	-7.22284
▁хувьд	-7.22855
од	-7.22881
я	-7.23251
▁буй	-7.23843
▁өдөр	-7.23871
Б	-7.24147
▁гээд	-7.24162
лын	-7.24333
t	-7.24538
ох	-7.24658
▁жилийн	-7.24681
▁3	-7.25094
▁м	-7.26065
▁сарын	-7.26445
С	-7.26697
i	-7.26769
лт	-7.269
▁газар	-7.27763
▁бөгөөд	-7.2792
▁бэ	-7.28074
1	-7.28144
▁одоо	-7.28291
ас	-7.2905
Н	-7.29526
5	-7.30988
▁бай	-7.31024
▁Гэхдээ	-7.3228
▁У	-7.32564
ир	-7.32566
▁нэгэн	-7.32736
▁гэр	-7.32926
оор	-7.32969
лах	-7.33394
▁шинэ	-7.33529
▁ийм	-7.33633
▁З	-7.33663
Д	-7.33753
чин	-7.33786
п	-7.34159
▁Бид	-7.3416
v	-7.34293
▁бие	-7.3441
▁онд	-7.34587
▁том	-7.34796
▁үр	-7.35607
дог	-7.36238
▁минь	-7.36284
▁удаа	-7.372
▁г	-7.37823
▁сэтгэл	-7.37898
▁с	-7.38035
й	-7.38173
▁үнэ	-7.39122
▁байхгүй	-7.39574
▁бий	-7.39769
3	-7.39811
ен	-7.40415
өр	-7.40746
▁эх	-7.40798
лан	-7.4086
▁хүний	-7.42142
▁ор	-7.4366
▁эр	-7.43782
4	-7.43973
эж	-7.44011
▁1	-7.44558
▁арга	-7.45004
▁асуудал	-7.45446
▁миний	-7.46019
▁д	-7.46306
▁санал	-7.46332
p	-7.46517
▁дуу	-7.46526
▁сайхан	-7.46707
00	-7.47055
чил	-7.47177
▁тоо	-7.47229
▁ха	-7.47233
▁байр	-7.47479
▁4	-7.47822
лэх	-7.48205
▁улсын	-7.48618
▁Ш	-7.48949
▁бага	-7.49012
У	-7.49308
И	-7.50599
▁манай	-7.51122
лийн	-7.51157
8	-7.51374
ээд	-7.51556
О	-7.51668
чид	-7.51717
алт	-7.51823
эм	-7.51855
▁Ц	-7.52343
▁5	-7.52881
▁билээ	-7.5307
ог	-7.53212
▁10	-7.53654
▁боломжтой	-7.53846
y	-7.54379
▁мөн	-7.54494
▁байлаа	-7.55191
▁санаа	-7.55219
▁тал	-7.55648
u	-7.55992
▁О	-7.56495
ул	-7.56519
▁Мөн	-7.56919
ов	-7.57009
/	-7.57029
Э	-7.57393
им	-7.58031
d	-7.58247
М	-7.58296
9	-7.59141
▁Э	-7.59684
▁нас	-7.60026
▁орон	-7.60946
▁тулд	-7.60964
▁сан	-7.61201
▁мөнгө	-7.61262
гаар	-7.61303
▁гэдгийг	-7.61604
но	-7.61686
▁Одоо	-7.62298
ур	-7.62465
▁чи	-7.62497
▁гэх	-7.6292
▁хий	-7.62977
▁хүртэл	-7.63409
▁хэдэн	-7.63554
▁хэрхэн	-7.63865
уул	-7.6398
оос	-7.6438
▁Ж	-7.6443
хүү	-7.65081
▁эсвэл	-7.65143
өөр	-7.65226
▁19	-7.65403
уур	-7.65471
өх	-7.66031
▁аж	-7.66149
▁тийм	-7.6624
▁ц	-7.6624
▁төлөө	-7.67586
▁ур	-7.67645
ана	-7.67647
ф	-7.67653
▁таны	-7.67865
үүл	-7.68045
наас	-7.68049
▁маань	-7.6827
h	-7.68345
▁а	-7.68705
▁зөв	-7.68735
▁хамт	-7.696
▁хүнд	-7.69847
▁дахь	-7.69853
▁дахин	-7.70042
▁өөрийн	-7.70745
лаг	-7.70919
▁Ү	-7.71233
нээс	-7.71337
ат	-7.71867
▁з	-7.71922
өн	-7.72117
7	-7.72873
▁тодорхой	-7.73259
уулах	-7.73267
▁болохгүй	-7.73781
▁ирсэн	-7.73946
g	-7.73965
ой	-7.74035
тан	-7.74727
▁гол	-7.74836
▁хэр	-7.74884
▁хувь	-7.75055
6	-7.75114
▁мэдээ	-7.75681
▁за	-7.75959
▁үз	-7.76207
▁ээ	-7.7659
ож	-7.76623
▁Миний	-7.76919
▁Ч	-7.77043
b	-7.77053
▁ард	-7.77095
▁чухал	-7.78149
▁хэмээн	-7.78431
▁к	-7.78711
▁гарч	-7.78724
▁чадахгүй	-7.78753
▁хууль	-7.79307
▁зам	-7.79536
▁яв	-7.79581
хи	-7.79622
▁S	-7.79952
▁ар	-7.80013
гээр	-7.80338
▁дунд	-7.80434
▁хойш	-7.80706
▁ал	-7.80881
▁Ө	-7.80885
▁өөрөө	-7.81056
▁он	-7.81556
▁хүүхэд	-7.81857
энд	-7.81869
▁Ийм	-7.82133
эс	-7.8216
Ө	-7.82252
▁Манай	-7.82342
▁ирэх	-7.82555
▁гэнэ	-7.82892
▁.	-7.82939
лж	-7.83075
▁албан	-7.8387
▁Тиймээс	-7.83896
гоо	-7.84329
▁Я	-7.8435
▁мэт	-7.84404
▁муу	-7.84411
▁өгөх	-7.84439
▁хийсэн	-7.84539
▁өндөр	-7.84587
n	-7.84671
▁түүний	-7.84903
▁үе	-7.8499
▁сар	-7.84991
▁биз	-7.85114
▁хө	-7.85636
ом	-7.85644
хэн	-7.85648
k	-7.85808
▁болов	-7.85835
▁тэд	-7.85935
▁руу	-7.861
хаа	-7.86113
▁сая	-7.86173
▁авсан	-7.86641
▁Тэд	-7.86719
▁/	-7.86728
▁байдал	-7.86751
▁К	-7.86825
▁ном	-7.86831
гч	-7.86908
▁аль	-7.86931
ахгүй	-7.86967
▁өв	-7.87068
▁хэзээ	-7.87088
лэл	-7.8745
▁сайд	-7.87695
▁хоол	-7.88004
▁И	-7.88217
▁байв	-7.89171
▁мэд	-7.89436
өөс	-7.89591
▁төрийн	-7.89666
S	-7.89675
лоо	-7.89726
уулж	-7.89807
үүлэх	-7.89874
▁мэдээлэл	-7.90033
▁бусад	-7.90039
лал	-7.90394
доо	-7.90742
▁ил	-7.9075
▁ол	-7.90821
лийг	-7.90893
▁ажиллаж	-7.91209
▁дарга	-7.91354
▁нам	-7.91438
▁7	-7.9155
дөө	-7.91951
рах	-7.92171
аагүй	-7.92355
▁бодож	-7.92378
▁УИХ	-7.9249
▁хугацаа	-7.92501
ик	-7.92507
▁дав	-7.92586
▁зөвхөн	-7.9259
▁бус	-7.92637
▁Хэрэв	-7.92667
▁ху	-7.9292
▁тул	-7.93038
вал	-7.93602
▁учраас	-7.93827
▁Ха	-7.9384
▁П	-7.93914
ит	-7.94127
▁баяр	-7.94616
▁амьдрал	-7.95024
▁хугацаанд	-7.95393
мж	-7.95467
▁орж	-7.95559
▁ир	-7.95653
▁надад	-7.95712
▁яг	-7.9589
▁зар	-7.95979
▁хэлж	-7.96111
▁яаж	-7.96262
ри	-7.96361
▁явах	-7.96721
▁АНУ	-7.96844
▁н	-7.96865
▁6	-7.97439
иа	-7.97599
▁бич	-7.97782
er	-7.97828
лыг	-7.9813
Л	-7.98585
▁зураг	-7.98614
гийг	-7.98732
▁бари	-7.98758
▁болохоор	-7.99395
▁гишүүн	-7.99485
▁нийт	-7.99568
▁кино	-7.99571
▁шийдвэр	-7.99678
▁Нэг	-7.99749
▁20	-7.99772
агч	-7.99983
on	-8.00299
▁яагаад	-8.00324
▁үнэн	-8.00673
▁За	-8.00783
ээрээ	-8.00786
▁Монголын	-8.00969
ун	-8.01018
0	-8.01035
▁мэдэх	-8.01057
▁боломж	-8.01826
▁намайг	-8.0191
▁зах	-8.02393
▁үүнийг	-8.02446
дөг	-8.02627
▁явж	-8.02894
▁ажлын	-8.0304
▁Л	-8.03126
▁хүү	-8.03381
▁охин	-8.04001
вар	-8.0404
▁зарим	-8.041
▁өр	-8.04216
▁энд	-8.04451
▁байхад	-8.0446
даж	-8.04608
▁M	-8.04677
▁машин	-8.04735
▁уг	-8.04737
гал	-8.0492
дах	-8.05223
▁залуу	-8.05307
өж	-8.05368
I	-8.05558
ив	-8.05619
▁Таны	-8.05873
▁ял	-8.06022
▁ажиллах	-8.06086
▁дотор	-8.06364
уудыг	-8.06844
▁иргэд	-8.06995
▁хэмжээ	-8.07015
▁Ар	-8.0709
▁дар	-8.07212
▁га	-8.07354
▁олж	-8.07455
▁хор	-8.07531
үүн	-8.0757
▁газрын	-8.0779
▁учир	-8.08145
▁аа	-8.08259
▁түүнийг	-8.08389
▁C	-8.08472
▁ганц	-8.08544
▁долоо	-8.08671
▁8	-8.08958
▁Гэтэл	-8.08996
уудын	-8.09068
in	-8.09142
▁бидний	-8.09409
▁ээж	-8.09642
▁Засгийн	-8.10147
▁Чи	-8.10357
▁болгон	-8.10385
▁бу	-8.10498
шиг	-8.10558
▁дур	-8.10855
дал	-8.11072
▁гарах	-8.11122
▁эмэгтэй	-8.11219
▁A	-8.11276
A	-8.11448
▁бүл	-8.11677
▁холбоотой	-8.11837
▁төв	-8.11973
▁суу	-8.12422
▁компани	-8.13488
▁анх	-8.13595
"-	-8.13712
ar	-8.13723
▁өнөөдөр	-8.13822
үй	-8.13933
ье	-8.14015
є	-8.14018
▁бод	-8.1403
▁хэсэг	-8.1405
▁зээл	-8.14239
c	-8.14267
;	-8.14405
▁Тэгээд	-8.14602
▁хүч	-8.1472
▁үйлдвэр	-8.15032
▁нөхцөл	-8.15066
рийн	-8.15125
▁_	-8.15164
▁Хүн	-8.15174
▁үргэлж	-8.15575
▁үл	-8.15621
▁хол	-8.15695
Р	-8.15728
▁хайр	-8.15852
▁зо	-8.15925
дын	-8.16056
▁үнэхээр	-8.16105
▁зэрэг	-8.16108
▁байгааг	-8.16156
▁баримт	-8.16297
маар	-8.16578
▁асуу	-8.166
ак	-8.17218
▁Улс	-8.17298
▁дуртай	-8.17411
an	-8.17532
гай	-8.17764
▁бүрэн	-8.1777
эхгүй	-8.17791
▁хот	-8.17912
гөө	-8.1801
▁э	-8.18117
▁хариу	-8.18175
лга	-8.18285
▁хэлэх	-8.18577
аарай	-8.18734
▁дэлхийн	-8.18904
Ү	-8.19323
З	-8.19353
▁түүх	-8.19555
▁хүүхдүүд	-8.19622
▁үеийн	-8.19711
▁хүлээн	-8.19955
E	-8.20137
▁хэлсэн	-8.20177
▁P	-8.2037
▁гурван	-8.20419
нээ	-8.20687
▁өгсөн	-8.20876
▁эдийн	-8.2133
▁дагуу	-8.21753
m	-8.21784
▁дүр	-8.21831
хгүй	-8.21843
▁харж	-8.21846
▁болоод	-8.21876
тал	-8.21939
▁буруу	-8.21946
Би	-8.22008
▁байвал	-8.22019
▁турш	-8.22155
▁эд	-8.22196
▁болдог	-8.22327
▁у	-8.22535
их	-8.22762
▁ажиллагаа	-8.22781
үүлж	-8.22881
▁Эр	-8.23092
▁хэд	-8.23371
дийн	-8.23379
▁буюу	-8.23436
эй	-8.23534
▁чанар	-8.23653
▁танд	-8.23686
▁өөрийгөө	-8.23834
▁Улсын	-8.23927
▁дугаар	-8.24053
▁T	-8.2446
▁шаардлагатай	-8.24669
▁хал	-8.24708
▁гарсан	-8.24731
▁Тийм	-8.24906
▁бар	-8.24973
▁асуудлыг	-8.25249
▁хөрөнгө	-8.2533
▁зохион	-8.25524
▁үзэх	-8.25721
▁да	-8.25778
▁үгүй	-8.25996
▁тү	-8.26067
тэн	-8.2622
шил	-8.26307
▁ай	-8.26358
▁хо	-8.26411
ос	-8.2656
▁Гэвч	-8.26604
▁анги	-8.2671
▁гаруй	-8.26806
▁төрлийн	-8.2691
▁бүгд	-8.2706
▁засгийн	-8.27203
▁орох	-8.27599
or	-8.27602
▁гаргах	-8.27609
лог	-8.2761
l	-8.27625
▁зур	-8.27661
жин	-8.27866
▁хаа	-8.27951
▁сур	-8.28441
уулсан	-8.28461
өм	-8.28477
▁харин	-8.28563
энэ	-8.2859
▁Түүний	-8.28626
▁Ер	-8.28863
▁B	-8.28864
▁дэлхий	-8.2889
w	-8.2891
жиг	-8.29004
▁ирж	-8.29041
P	-8.29183
▁ярьж	-8.29357
▁хөл	-8.29451
▁I	-8.29621
▁монгол	-8.30323
▁мөр	-8.30391
алд	-8.3042
▁Ямар	-8.30724
▁буу	-8.30797
en	-8.3085
▁эрүүл	-8.30984
гэ	-8.31166
▁гаргаж	-8.31185
▁шалтгаан	-8.31211
лэн	-8.31293
▁гэ	-8.31311
▁доо	-8.31334
аараа	-8.31471
▁баг	-8.31575
ран	-8.31625
▁ах	-8.31652
x	-8.31687
саар	-8.31713
▁яах	-8.31728
аасаа	-8.31875
▁үх	-8.31995
▁чөлөө	-8.32125
сны	-8.32127
▁Тэг	-8.32161
D	-8.32227
рын	-8.32381
T	-8.32447
▁байдлаар	-8.32561
ра	-8.32624
▁зүгээр	-8.32669
▁улсад	-8.32685
▁амжилт	-8.32693
▁шат	-8.32769
▁зүйлийг	-8.32812
▁бизнес	-8.32956
▁шууд	-8.33173
▁ингэж	-8.33176
▁тави	-8.33465
▁хүр	-8.3352
оод	-8.3361
ээгүй	-8.33729
▁найз	-8.33756
▁боллоо	-8.33825
▁болгох	-8.33872
▁и	-8.3415
▁гарга	-8.34276
▁хүс	-8.34289
▁мэдэхгүй	-8.34359
▁ф	-8.34477
▁боловч	-8.34642
▁Гэр	-8.34708
▁Бу	-8.34883
▁гэвэл	-8.35017
▁настай	-8.35037
▁явдал	-8.35153
дэж	-8.3517
▁бүтээл	-8.35186
▁амь	-8.35261
▁Уг	-8.35406
ээсээ	-8.35418
▁өнгө	-8.35703
аш	-8.35719
гаад	-8.35752
r	-8.35848
▁9	-8.35902
ъя	-8.35946
нууд	-8.36007
▁хав	-8.36147
элт	-8.36231
▁нүүр	-8.36257
үр	-8.36282
▁ер	-8.36516
Ц	-8.36697
▁В	-8.36801
ли	-8.37194
лага	-8.37491
▁өгч	-8.37552
▁12	-8.37556
▁Хар	-8.37763
▁алга	-8.37848
▁хэцүү	-8.37966
хон	-8.37968
▁аав	-8.38107
▁Өнөөдөр	-8.38255
▁гэв	-8.38276
ган	-8.38316
▁Олон	-8.38332
дэл	-8.38474
▁авна	-8.38569
ус	-8.38757
▁үйлчилгээ	-8.38867
▁Их	-8.38941
▁айл	-8.39268
өөд	-8.3934
рал	-8.39368
▁тань	-8.3999
O	-8.40177
▁Үүнийг	-8.40217
сний	-8.40519
го	-8.40643
C	-8.40648
▁байгуул	-8.40756
▁то	-8.40767
онд	-8.41085
дан	-8.41124
▁байгууллага	-8.41169
хий	-8.41219
▁илэрхийл	-8.41261
▁бүтээ	-8.41462
▁болжээ	-8.41582
▁бүү	-8.41632
нө	-8.41666
▁ханд	-8.42088
ей	-8.42487
тээ	-8.42558
▁сард	-8.42602
▁хүчин	-8.42841
▁гэхэд	-8.42934
лөг	-8.42949
▁өнгөрсөн	-8.43192
▁ту	-8.43355
▁нөлөө	-8.43371
▁өөрчлөлт	-8.43639
шин	-8.43691
гуул	-8.43692
▁хэв	-8.43712
▁анхны	-8.43744
таа	-8.43784
▁11	-8.43845
▁хоног	-8.43875
▁Тэгвэл	-8.44151
▁сайт	-8.44157
бар	-8.44201
Я	-8.44218
▁хийдэг	-8.44302
ет	-8.44557
▁гэрээ	-8.4462
ё	-8.4465
▁чадах	-8.447
▁мал	-8.44868
▁эмч	-8.44928
▁уна	-8.45093
оно	-8.45215
▁200	-8.45218
гэл	-8.4523
▁гишүүд	-8.45361
▁Ор	-8.45373
▁Зарим	-8.45461
▁хичээл	-8.45627
▁Бурхан	-8.45628
▁на	-8.45655
▁бүхэн	-8.45729
▁Р	-8.45851
▁түр	-8.45884
▁адил	-8.46292
уй	-8.46368
▁сонго	-8.46543
өд	-8.4666
▁хай	-8.46798
▁гадна	-8.46896
▁Бүх	-8.46929
▁яа	-8.47037
▁D	-8.47102
лох	-8.47292
▁15	-8.47357
▁боддог	-8.47573
▁гадаад	-8.47688
▁30	-8.47708
вэл	-8.47778
▁тэдний	-8.47791
ахад	-8.47952
▁багш	-8.47953
▁F	-8.4803
▁Ф	-8.48061
▁ашиг	-8.48064
▁Хамгийн	-8.48195
та	-8.48236
үүдийг	-8.48404
▁ус	-8.48575
▁хүлээж	-8.48633
f	-8.48654
▁хуулийн	-8.48692
▁эв	-8.49126
▁хүнийг	-8.49146
▁зүйлс	-8.4919
▁зан	-8.49492
лаж	-8.4958
▁хүлээ	-8.49609
би	-8.49697
▁эсрэг	-8.49742
▁холбоо	-8.49771
▁100	-8.49807
йн	-8.49848
ю	-8.49856
▁байжээ	-8.4991
ис	-8.49917
▁шийд	-8.50168
▁тухайн	-8.50175
▁дор	-8.50196
▁тоглоом	-8.50342
ел	-8.50352
▁хэм	-8.50437
▁хэрэггүй	-8.5048
▁харах	-8.50554
▁асуулт	-8.50581
▁хэдий	-8.50626
▁бараг	-8.50719
өв	-8.50779
▁ярих	-8.50801
▁үзэж	-8.50805
▁унш	-8.50926
▁ая	-8.50939
▁харилцаа	-8.51105
▁ашиглах	-8.51107
▁эм	-8.51128
уд	-8.51246
▁Хө	-8.51291
▁мэддэг	-8.51323
▁Ам	-8.51324
Та	-8.51337
▁Эдгээр	-8.5134
▁МАН	-8.51499
үүлсэн	-8.51573
гүйгээр	-8.51604
ги	-8.51754
▁засаг	-8.51835
▁Шинэ	-8.51837
▁зас	-8.51915
▁ажлаа	-8.51956
M	-8.52128
ийнхээ	-8.52277
%	-8.5238
▁нутгийн	-8.52488
▁тун	-8.52813
▁анхаар	-8.52936
арга	-8.53004
▁хүмүүсийн	-8.53164
Ж	-8.5322
▁Хятад	-8.53273
даггүй	-8.53335
▁систем	-8.53347
▁бү	-8.53424
▁дараах	-8.53555
▁толгой	-8.53563
▁магадгүй	-8.53598
үүр	-8.53687
▁таар	-8.53738
Ш	-8.53753
хай	-8.53806
▁өдрийн	-8.5389
▁Дараа	-8.53895
re	-8.53914
▁ёс	-8.53964
▁тохиолдолд	-8.53983
▁су	-8.54028
▁өг	-8.54321
чууд	-8.54347
▁загвар	-8.54378
үүдийн	-8.54508
▁шинж	-8.54627
▁аз	-8.54659
▁айм	-8.54881
▁огт	-8.54882
▁мэнд	-8.54889
тэйгээ	-8.55034
▁орны	-8.55036
▁бутлуур	-8.55144
андаа	-8.55167
▁АН	-8.55338
цаа	-8.55407
▁Тэрээр	-8.55516
▁H	-8.55544
▁нүд	-8.55594
ко	-8.5562
al	-8.5571
агдсан	-8.55782
ба	-8.55829
ээрэй	-8.55848
▁сүүлийн	-8.55892
▁сал	-8.56315
▁шаард	-8.56332
иг	-8.56406
▁Да	-8.56459
▁шү	-8.56674
▁тохир	-8.56957
▁зай	-8.57124
алтын	-8.57134
▁хэлэлц	-8.57163
Эрдэнэ	-8.57165
▁төгрөг	-8.57198
▁гаргасан	-8.57225
▁орчин	-8.57298
▁0	-8.57357
▁бүрийн	-8.57368
мар	-8.57452
▁цагт	-8.57484
▁Хэрвээ	-8.57592
▁Ал	-8.57636
▁хамаа	-8.57737
ван	-8.57822
▁яриа	-8.57959
▁даг	-8.58044
▁хооронд	-8.58146
▁тэмдэглэ	-8.58323
▁эдгээр	-8.5834
инд	-8.58395
▁шалга	-8.58538
▁хичээ	-8.58763
гоор	-8.58833
В	-8.58941
▁зав	-8.58976
гэн	-8.58996
эгч	-8.59184
рч	-8.5919
▁ухаан	-8.59296
▁цагийн	-8.59332
▁дээрээ	-8.59427
дар	-8.59465
▁шүүх	-8.59544
▁байгаад	-8.59566
АН	-8.59681
▁хамгаалах	-8.59768
тол	-8.59772
▁алдаа	-8.5983
▁холбогд	-8.59864
▁ярилц	-8.59871
▁ид	-8.5993
▁хоногийн	-8.6011
▁нээ	-8.60165
▁гу	-8.60176
▁орсон	-8.60401
▁тоглолт	-8.60503
▁Дэлхийн	-8.60528
▁дээд	-8.60697
дугаар	-8.60805
▁Ху	-8.60979
Е	-8.61047
▁хөтөлбөр	-8.61088
▁бүсгүй	-8.61122
▁Ерөнхийлөгч	-8.61141
ян	-8.61219
өгч	-8.61351
▁заавал	-8.61674
▁Яагаад	-8.61732
хээ	-8.61962
▁гоё	-8.61977
▁дээрх	-8.62222
▁хүрэх	-8.62231
▁шил	-8.62291
тер	-8.62675
саа	-8.62843
▁чадна	-8.62867
вол	-8.63043
▁боломжгүй	-8.63092
▁Хэн	-8.63149
▁бүхий	-8.63342
]	-8.63389
▁түмэн	-8.63513
▁Монголд	-8.63539
▁Учир	-8.63629
▁тойр	-8.63636
▁хэмжээний	-8.63664
ст	-8.63727
▁18	-8.64111
лэж	-8.64129
▁дүн	-8.64164
▁Ерөнхий	-8.64227
▁төгс	-8.64354
айн	-8.64524
▁гэдгээ	-8.64701
ноос	-8.6477
20	-8.65007
оё	-8.65031
▁ашигла	-8.65032
эхэд	-8.65061
▁хаана	-8.65098
▁хая	-8.6511
▁Тус	-8.65226
▁төлбөр	-8.65257
'	-8.65378
▁рүү	-8.65423
vv	-8.65459
▁мэдэгд	-8.65464
▁олох	-8.65474
▁шаардлага	-8.65498
▁G	-8.65549
▁Бидний	-8.6575
▁үүрэг	-8.65835
▁мэдэж	-8.65933
▁бодол	-8.66055
от	-8.66143
▁бүтээгдэхүүн	-8.66199
гар	-8.66239
▁энэхүү	-8.6643
▁хэрэглэгч	-8.66472
▁тушаал	-8.66542
сээр	-8.66562
▁яри	-8.66838
▁хуудас	-8.66852
▁байгаагүй	-8.6687
▁нэмэгд	-8.66943
▁Хү	-8.6697
▁тат	-8.66981
ес	-8.67041
▁нөхөр	-8.67047
st	-8.6718
аны	-8.67237
▁явсан	-8.67297
▁Ав	-8.67328
▁эхэлсэн	-8.67342
ль	-8.67378
нийг	-8.67394
▁иргэн	-8.67412
▁Хо	-8.67463
▁аваад	-8.67496
▁E	-8.67636
ек	-8.67689
гаас	-8.67743
▁бэлэн	-8.67891
▁L	-8.67892
▁эхний	-8.67969
▁болгож	-8.68188
▁тэ	-8.68374
▁оноос	-8.68432
▁бидэнд	-8.68437
члал	-8.68438
▁бодох	-8.68469
ва	-8.68514
▁нөх	-8.68598
▁гэмт	-8.68642
▁чадвар	-8.68667
К	-8.68752
чээ	-8.68845
▁Тэгэхээр	-8.68847
▁Хоёр	-8.68911
то	-8.69068
▁насны	-8.69082
▁бичиг	-8.69128
▁хурдан	-8.69132
▁хэлбэр	-8.69153
чдын	-8.692
▁до	-8.69265
▁тас	-8.69358
▁намын	-8.69428
▁нарын	-8.69434
▁хувийн	-8.69483
▁утга	-8.69514
▁хүссэн	-8.69642
маа	-8.69817
лөө	-8.70043
▁найр	-8.70124
▁ойр	-8.70142
▁өрөө	-8.70145
▁Өөр	-8.70147
арсан	-8.70165
▁мянган	-8.70182
B	-8.70363
▁хүмүүст	-8.7037
агдах	-8.704
▁ихэнх	-8.70416
ла	-8.70521
▁болохыг	-8.70589
▁орнууд	-8.70657
▁байхдаа	-8.70691
▁янз	-8.70694
▁ажилд	-8.70698
баатар	-8.70703
R	-8.70882
ок	-8.70901
▁дэмж	-8.70926
▁хороо	-8.70954
▁хэт	-8.71096
▁Үүний	-8.71108
▁бодлого	-8.71162
▁гэхдээ	-8.71178
▁дүү	-8.71314
дсэн	-8.71338
иу	-8.71362
▁Ингээд	-8.71603
▁хүүхдийн	-8.71922
!!!	-8.71985
▁Сан	-8.71994
▁танилцуул	-8.72045
▁орхи	-8.72045
үн	-8.72127
▁жижиг	-8.72134
▁үс	-8.72333
▁дай	-8.724
иж	-8.72492
гуй	-8.72567
it	-8.72568
N	-8.72583
▁амьдарч	-8.72586
▁март	-8.72995
▁бодит	-8.7308
жилт	-8.73106
эт	-8.73339
лон	-8.73351
▁бүс	-8.73404
раа	-8.73452
▁хамгаал	-8.73675
▁тани	-8.73694
▁үеэр	-8.73695
▁ажлыг	-8.73804
▁оронд	-8.73957
ем	-8.73995
▁нөгөө	-8.74022
ая	-8.74245
▁нууц	-8.74306
лэсэн	-8.74322
▁амар	-8.74327
▁хүсч	-8.74508
за	-8.74657
▁ө	-8.74673
лаад	-8.74777
▁Тэдний	-8.74791
чихсан	-8.74822
гий	-8.74882
▁тогтоо	-8.74946
ро	-8.74969
▁сургалт	-8.75152
▁ну	-8.75279
▁зогсоо	-8.75537
уудад	-8.75622
▁Орос	-8.75696
▁ханга	-8.75733
at	-8.75738
▁алд	-8.75824
дэх	-8.75854
▁аюулгүй	-8.75857
▁өргө	-8.76118
тайгаа	-8.76159
▁Бай	-8.76394
▁зу	-8.76498
▁Төрийн	-8.765
▁бичсэн	-8.76722
▁судалгаа	-8.76754
▁бо	-8.7681
▁сонс	-8.76835
▁тэмцээн	-8.7711
▁•	-8.77152
▁өөрийнхөө	-8.77246
мэл	-8.77316
▁Бурханы	-8.77442
▁гайх	-8.7747
▁Тэрбээр	-8.77535
▁хайртай	-8.77623
▁хур	-8.77632
▁хөдөлгөөн	-8.77686
вэр	-8.77699
es	-8.7777
▁п	-8.77796
▁тэнд	-8.77846
▁зөвшөөр	-8.77865
▁сонирх	-8.77869
▁хүрээ	-8.78062
>	-8.78155
ви	-8.78306
▁үндэс	-8.78352
▁чамайг	-8.78919
вч	-8.78951
▁хотын	-8.78982
ист	-8.78993
▁түүнд	-8.78996
▁байдлыг	-8.7906
▁тав	-8.79062
▁Энд	-8.79127
▁Ма	-8.79151
ка	-8.79177
▁хэлбэл	-8.79339
▁үүсгэ	-8.79434
▁хүрт	-8.79461
▁сонголт	-8.79654
▁14	-8.79853
▁ирээдүй	-8.79855
▁буц	-8.79897
▁ой	-8.79909
▁оруул	-8.79936
▁Мэдээж	-8.80013
▁буур	-8.8007
▁гал	-8.80132
мээр	-8.80489
▁Бас	-8.80564
▁урт	-8.80667
▁явдаг	-8.807
▁мэдээллийг	-8.80819
▁Яг	-8.80821
лөх	-8.80837
▁сэ	-8.80913
▁үүр	-8.8092
▁тэгээд	-8.80953
▁тохиолд	-8.81004
▁хүсэл	-8.81187
▁аймгийн	-8.81482
▁ойлго	-8.81554
Энэ	-8.81713
▁Нүүр	-8.81864
▁хэмжээнд	-8.81989
▁зориулсан	-8.82137
▁гэлээ	-8.82207
Ч	-8.82241
▁хяналт	-8.82399
▁өглөө	-8.82417
▁ажилладаг	-8.82454
▁бололтой	-8.82469
▁оруулах	-8.8256
▁ни	-8.82605
▁төрсөн	-8.82623
▁агуу	-8.82635
арч	-8.82705
▁дуус	-8.82851
▁өөртөө	-8.83124
▁уулз	-8.83198
▁санагд	-8.83236
▁эмэгтэйчүүд	-8.83376
▁эхнэр	-8.83635
▁амьдрах	-8.83741
▁үзүүл	-8.83751
▁сонин	-8.83806
▁төл	-8.83845
▁цалин	-8.8385
агдаж	-8.839
ѳ	-8.83995
mn	-8.84066
▁угаа	-8.84174
онго	-8.84307
▁өс	-8.84348
▁орд	-8.84422
▁зорилго	-8.84437
▁дээш	-8.8447
▁авдаг	-8.84473
▁өмнөх	-8.84688
▁50	-8.8469
▁амьдралын	-8.84741
гүүр	-8.84857
▁бат	-8.84925
▁унт	-8.84991
▁барих	-8.85008
▁тооц	-8.85218
▁мэднэ	-8.85221
▁улам	-8.85331
▁Ка	-8.85355
▁арай	-8.85365
ынхаа	-8.85418
▁хан	-8.85638
▁орчим	-8.85771
ио	-8.85924
бал	-8.85929
▁явуул	-8.85981
▁өгүүл	-8.86102
L	-8.86162
▁төхөөрөмж	-8.86219
▁битгий	-8.86234
▁төсөл	-8.86445
▁төрөл	-8.8665
▁барьж	-8.86674
▁нийтийн	-8.86706
лагын	-8.86765
жих	-8.86782
▁удаан	-8.86815
▁үндсэн	-8.86821
▁хараа	-8.87272
▁W	-8.87379
▁ерөнхий	-8.87426
▁ман	-8.87551
▁байхыг	-8.87633
луулах	-8.87636
уун	-8.87691
▁үзсэн	-8.87829
▁бүрт	-8.88114
▁цу	-8.88159
▁салбар	-8.88189
▁өөрчлөгд	-8.88207
▁бөх	-8.88259
▁хөгж	-8.88305
▁зов	-8.88428
▁зарла	-8.88495
▁гэдэгт	-8.88559
▁өн	-8.88576
▁соёл	-8.88577
▁Жи	-8.88581
▁жишээ	-8.88649
▁орой	-8.88757
▁програм	-8.88802
длаа	-8.88906
аач	-8.88939
▁зориул	-8.89041
▁алба	-8.89099
▁хийнэ	-8.891
лагч	-8.89114
▁дуул	-8.89143
▁өгнө	-8.89259
▁уран	-8.89296
хоо	-8.89347
▁шилдэг	-8.89423
▁төлөвлөгөө	-8.89439
▁бараа	-8.8945
▁Бол	-8.8949
▁в	-8.89555
▁хэрэглээ	-8.8959
▁зал	-8.89637
▁но	-8.89759
▁таныг	-8.89776
▁хэрэглэх	-8.89802
▁эцэг	-8.89808
▁Солонгос	-8.89885
эмж	-8.89921
▁Үнэ	-8.89982
▁хувцас	-8.90275
▁суурь	-8.90277
▁яд	-8.90463
▁Үүнээс	-8.90832
▁бичлэг	-8.90863
▁яваа	-8.90961
ороо	-8.90976
▁эхлэх	-8.91054
▁хөгжил	-8.91083
▁зохи	-8.91112
▁нутаг	-8.91162
un	-8.91167
▁зүрх	-8.91225
▁дэх	-8.91447
▁тогло	-8.91466
▁гуй	-8.91475
▁хайрла	-8.91557
▁Ан	-8.92017
▁сай	-8.92045
аз	-8.9208
▁ойлгох	-8.92249
▁очиж	-8.92263
▁удаагийн	-8.92316
лол	-8.92422
▁хил	-8.92552
▁мод	-8.92561
▁сууж	-8.92632
▁нийгэм	-8.92647
инг	-8.92795
▁зогс	-8.92819
▁бул	-8.92855
▁хоногт	-8.92933
тар	-8.93171
ори	-8.93248
▁зө	-8.93259
▁эрт	-8.93388
▁бүлийн	-8.93436
▁ач	-8.93522
▁Ко	-8.93562
▁ирээд	-8.93579
▁зарцуул	-8.93763
▁доллар	-8.93879
▁Ур	-8.93888
▁олго	-8.93904
▁шар	-8.93939
▁татвар	-8.93981
▁халдвар	-8.94097
ни	-8.94099
▁чиний	-8.94115
▁цааш	-8.94205
▁ялгаа	-8.94237
▁J	-8.94262
▁хийгээд	-8.94311
▁амьд	-8.946
▁цэг	-8.94688
▁тос	-8.94715
▁тулга	-8.94737
▁талбай	-8.94781
кс	-8.94851
▁[	-8.94894
▁худалдан	-8.95022
▁ашиглаж	-8.95125
▁туслах	-8.95254
▁итгэл	-8.95285
▁зүйн	-8.9538
▁таалагд	-8.95601
le	-8.95629
▁Эм	-8.95733
йм	-8.95829
▁оруулж	-8.95846
▁гэртээ	-8.95864
өөсөө	-8.95931
огт	-8.95999
▁Юу	-8.96072
▁сонирхолтой	-8.9611
▁чамд	-8.9611
гуу	-8.96202
▁ижил	-8.96336
▁байнга	-8.96397
▁тавьж	-8.96459
▁·	-8.96556
▁боловсрол	-8.9656
▁туршлага	-8.96663
▁Ду	-8.96672
гэр	-8.96717
▁бүлэг	-8.96717
▁жилд	-8.96777
▁Цаг	-8.96799
ic	-8.96815
▁са	-8.96908
▁Ард	-8.97002
▁салбарт	-8.97141
▁худалдаж	-8.97254
▁минутын	-8.97301
▁v	-8.97513
снээр	-8.97654
▁удирд	-8.97682
ум	-8.97738
▁тусламж	-8.97815
▁од	-8.97888
▁16	-8.97935
▁p	-8.97985
▁чиг	-8.98001
▁оч	-8.98034
тгэл	-8.98106
Й	-8.98141
▁зөвлө	-8.98207
бол	-8.98422
▁13	-8.98558
▁Хүмүүс	-8.98605
▁хаяг	-8.9867
▁чаддаг	-8.98688
▁иргэдийн	-8.9876
▁Са	-8.9877
асан	-8.98796
▁нөөц	-8.98832
▁өгдөг	-8.98882
▁тохиолдол	-8.98891
▁тайлбарла	-8.98926
▁ертөнц	-8.98978
жиж	-8.99028
▁жагсаалт	-8.99066
▁болчих	-8.99111
▁дөрвөн	-8.99172
йл	-8.99185
▁17	-8.9924
▁үзэл	-8.99247
▁Ажил	-8.99271
▁өмс	-8.99321
▁То	-8.99371
ми	-8.99582
▁зүй	-8.99614
▁хуу	-8.99636
▁ойлгож	-8.9983
▁хүрч	-8.99857
дөх	-8.99877
▁гайхалтай	-8.99944
бо	-8.99958
▁таван	-9.00053
▁Анх	-9.00064
ur	-9.00111
маг	-9.00185
яа	-9.00223
Бат	-9.0023
▁тэмц	-9.00451
▁өөрсдөө	-9.00513
▁хүрээнд	-9.00558
▁ажээ	-9.00663
▁аргагүй	-9.00689
ce	-9.00712
▁1-	-9.00729
▁энгийн	-9.00744
▁хам	-9.0081
мын	-9.00835
▁анхаарал	-9.00883
▁над	-9.01032
▁харуул	-9.01122
▁яам	-9.01212
▁байгуулах	-9.01241
▁оролцох	-9.01306
G	-9.01608
▁сургууль	-9.0171
ne	-9.01741
▁бос	-9.01749
▁со	-9.01899
▁дотоод	-9.01942
▁Хүү	-9.01982
▁хэвээр	-9.02123
аль	-9.02278
▁Дээр	-9.0229
ro	-9.02361
▁оролд	-9.02393
10	-9.02441
▁хураа	-9.02558
АР	-9.02559
▁хариуцлага	-9.02646
▁хүргэ	-9.02661
▁нутагт	-9.02797
▁тэг	-9.02841
▁сул	-9.02878
мс	-9.03025
▁нийгмийн	-9.03178
▁гэхээр	-9.03183
▁эхлээд	-9.03186
▁зүү	-9.0331
▁үздэг	-9.03369
▁байдаггүй	-9.03378
уулдаг	-9.0341
▁онгоц	-9.03448
▁өргөн	-9.03472
▁Япон	-9.03558
▁Хүний	-9.0362
▁жи	-9.03702
чүүд	-9.03856
▁худалдаа	-9.03902
▁чадсан	-9.03931
▁жинхэнэ	-9.03979
▁соли	-9.04002
▁хүсэлт	-9.0401
раг	-9.0403
▁На	-9.04115
▁нийтлэл	-9.04146
▁банк	-9.04225
▁болго	-9.04357
джээ	-9.04358
▁Эх	-9.04399
▁шал	-9.0444
▁Тухай	-9.04456
▁зохиол	-9.04511
▁2020	-9.04573
▁танилц	-9.04619
ип	-9.04771
чилж	-9.04783
*	-9.04789
▁тэрбум	-9.04791
эндээ	-9.0483
▁бичих	-9.04904
руу	-9.05025
▁хараад	-9.05074
▁эргэн	-9.05135
▁хаан	-9.05215
▁бөө	-9.05224
▁явна	-9.05272
▁тод	-9.05358
▁цагаан	-9.05386
▁урьд	-9.05458
ласан	-9.0562
лиг	-9.05638
▁гараа	-9.05641
▁хатуу	-9.05724
▁тэрээр	-9.05733
▁N	-9.05735
▁бодлоо	-9.05749
▁Америк	-9.05852
▁ух	-9.0591
▁Өөрөөр	-9.05923
▁тавих	-9.05944
▁Монголчууд	-9.0595
▁шинжилгээ	-9.0597
▁мэдээллийн	-9.05972
екс	-9.0609
▁шалгалт	-9.061
▁мэргэжил	-9.06129
▁Бат	-9.06164
▁багт	-9.06244
▁Е	-9.06299
▁хамаагүй	-9.06487
Ю	-9.06509
гээд	-9.06553
ch	-9.06584
▁уур	-9.0679
дэггүй	-9.06799
z	-9.06888
▁сургуулийн	-9.06981
▁бээлий	-9.07281
▁Зөвхөн	-9.07356
▁оруулалт	-9.07488
▁хурд	-9.07564
шаа	-9.07669
▁Тү	-9.07709
▁минут	-9.07733
▁утас	-9.07796
▁хотод	-9.07815
▁хүмүүсийг	-9.07817
▁сууц	-9.08015
▁аял	-9.08044
Монгол	-9.08088
▁үедээ	-9.08089
дол	-9.08296
▁өгө	-9.08404
▁бүхнийг	-9.08465
▁цахим	-9.08469
▁нуу	-9.08528
▁алх	-9.08551
▁материал	-9.08562
сар	-9.08647
▁онлайн	-9.08656
▁Намайг	-9.08751
ing	-9.08777
гэж	-9.08875
уулан	-9.08903
▁Өнгөрсөн	-9.09147
▁Түүнийг	-9.09182
агчид	-9.09326
▁цэвэрлэ	-9.09377
▁O	-9.09386
▁хялбар	-9.09504
▁Сайн	-9.09636
▁ажиллагааны	-9.0965
▁хамтран	-9.09708
▁ярьдаг	-9.09753
▁тусгай	-9.09801
▁Өв	-9.09824
▁газарт	-9.09901
▁гэрэл	-9.09919
▁зү	-9.09939
▁уул	-9.09957
▁үзүүлэх	-9.10106
▁m	-9.10138
▁хос	-9.10166
▁тэнэг	-9.10183
▁сурах	-9.10263
▁ажиллагааг	-9.10304
▁хувилбар	-9.10359
F	-9.10375
▁чулуу	-9.10484
▁компаниуд	-9.10518
▁байгаагаа	-9.10634
▁25	-9.10677
▁Европын	-9.10721
▁оролц	-9.10764
▁Хятадын	-9.10776
▁сонгох	-9.10835
▁шударга	-9.10838
▁хийлгэ	-9.1086
▁хулгай	-9.10935
▁R	-9.1119
▁2016	-9.11335
▁эрэгтэй	-9.11516
▁2-	-9.11566
▁шах	-9.11721
▁ма	-9.11781
▁компанийн	-9.11858
am	-9.11867
▁шагнал	-9.11899
▁Улаанбаатар	-9.11905
▁хөө	-9.11939
▁хариул	-9.11963
▁эрчим	-9.11997
илж	-9.12152
▁хүчний	-9.12187
▁наад	-9.1224
▁24	-9.12277
гээс	-9.12568
ага	-9.12616
▁давхар	-9.12618
▁40	-9.12696
▁үлдээ	-9.12697
▁бна	-9.12739
▁амьдралд	-9.12778
▁Үүн	-9.1285
▁сэр	-9.13016
▁дүнг	-9.13019
жил	-9.13023
▁үнэгүй	-9.13101
▁татаж	-9.1327
▁тооцоо	-9.13335
▁эс	-9.13367
▁тэднийг	-9.13562
▁Сү	-9.13592
▁архи	-9.13706
▁байдалд	-9.13772
▁бичиж	-9.13847
лгын	-9.1385
▁бүртгэл	-9.13896
▁Энэтхэг	-9.13956
▁хуваа	-9.13993
▁хоолой	-9.14007
бэр	-9.14023
▁Эл	-9.1414
▁байгууллагын	-9.14184
▁гурав	-9.14336
▁явц	-9.14437
▁мэндийн	-9.1464
АА	-9.14649
▁Ша	-9.14687
▁очих	-9.14695
▁төдий	-9.14705
▁суулга	-9.14716
▁Бусад	-9.14754
▁эзэмш	-9.14757
et	-9.1479
▁нарт	-9.14993
▁Гар	-9.15003
▁дараагийн	-9.15213
▁хангалттай	-9.15251
▁сурга	-9.1531
ото	-9.15344
▁цэвэр	-9.15385
▁хэвлэл	-9.1545
▁хүргэж	-9.15673
▁орлого	-9.15889
el	-9.1592
▁Су	-9.15963
▁хажуу	-9.15966
▁хэлэхэд	-9.16165
▁зөвлөл	-9.16199
▁эхэлж	-9.162
-20	-9.16435
▁тө	-9.16605
▁Герман	-9.16664
▁ачаа	-9.16665
▁суух	-9.16775
ad	-9.16779
чиг	-9.16808
ed	-9.16875
▁Ир	-9.16943
▁2012	-9.17001
▁хүчтэй	-9.17162
▁адилхан	-9.17247
▁дэвш	-9.17357
▁хүсдэг	-9.17363
▁бүгдийг	-9.17419
▁ойлголт	-9.17486
▁түмний	-9.17603
элж	-9.17613
▁товч	-9.1764
▁тусгаар	-9.17679
▁улмаас	-9.17686
▁тэмдэг	-9.17695
▁маяг	-9.17811
▁Төр	-9.17852
▁тавь	-9.18068
ших	-9.1807
▁ялга	-9.18117
▁уурхайн	-9.18132
▁нэлээд	-9.18201
▁Нийт	-9.1821
▁хугацааны	-9.18218
▁хүрсэн	-9.1826
▁худал	-9.18316
▁U	-9.18506
▁захиа	-9.18516
▁бэлэг	-9.18601
U	-9.18619
оны	-9.18685
▁хэрэгжүүлэх	-9.1872
▁цай	-9.18752
▁хөгжлийн	-9.18781
▁санхүүгийн	-9.18823
▁эз	-9.18941
▁хэлдэг	-9.19154
▁чиглэл	-9.19162
▁оноо	-9.19184
▁тоглох	-9.19209
▁устга	-9.19252
▁батал	-9.19297
▁татгалз	-9.19343
▁гардаг	-9.19396
▁Бү	-9.19448
▁цэн	-9.19487
▁мэдлэг	-9.19525
▁тэнц	-9.19567
us	-9.19645
▁талд	-9.19659
сныг	-9.1973
▁эрсдэл	-9.19763
▁Эд	-9.19842
▁тавьсан	-9.19898
il	-9.19965
▁мэргэжлийн	-9.19972
▁байдлын	-9.19979
лэлт	-9.19992
▁өнөө	-9.20045
▁зөвлөгөө	-9.2011
V	-9.20203
ol	-9.20267
▁тогт	-9.20296
▁бэрхшээл	-9.20499
▁хэрэгцээ	-9.2051
▁элс	-9.2063
▁эргэ	-9.20645
▁нийл	-9.20657
▁яваад	-9.20695
▁Надад	-9.2072
▁V	-9.20795
оп	-9.20941
АЛ	-9.21044
▁байшин	-9.21073
▁хуур	-9.21113
▁нарийн	-9.21241
▁эхлүүл	-9.2132
ay	-9.21387
▁амьдардаг	-9.21549
▁найд	-9.21577
MN	-9.21677
▁ажилласан	-9.21837
▁Ээж	-9.21862
▁зүтгэ	-9.21887
▁Бар	-9.21912
▁Гэсэн	-9.21991
▁2017	-9.22007
▁эхэл	-9.22173
ондоо	-9.22187
▁талаас	-9.22209
мал	-9.22297
▁чадаагүй	-9.22316
▁залуус	-9.2243
▁төсөөл	-9.22527
▁баярлалаа	-9.22527
as	-9.22739
▁оршин	-9.22778
▁мах	-9.23034
дэнэ	-9.23036
▁хүнтэй	-9.23037
▁бэлтгэ	-9.23058
▁хангах	-9.23064
▁ОХУ	-9.23067
▁хөдөлмөр	-9.23176
▁хөнд	-9.23258
▁явуулах	-9.23388
▁үйлдэл	-9.23415
▁давуу	-9.23464
▁арьс	-9.2348
▁сүлжээ	-9.23501
▁дэлгүүр	-9.23502
50	-9.23523
▁эмнэлэг	-9.2372
▁Хайр	-9.23757
члэн	-9.23823
▁яриад	-9.23879
▁үйлдвэрлэл	-9.23959
▁нэм	-9.24147
▁гараад	-9.2415
эрсэн	-9.24237
▁сэтгэ	-9.24239
▁ирдэг	-9.24242
▁дэмжих	-9.24315
▁Сүүлийн	-9.24381
▁хэрэгсэл	-9.24458
раад	-9.24541
лэлийн	-9.24554
▁тээрэм	-9.24597
▁амжилттай	-9.24616
из	-9.24626
▁жин	-9.24663
▁зарна	-9.24702
▁тэдгээр	-9.24775
▁боломжийг	-9.24778
▁спорт	-9.24817
▁хадгал	-9.24841
▁унших	-9.24875
▁биднийг	-9.24894
тнууд	-9.24922
▁үгийг	-9.2496
▁уулзалт	-9.25005
▁үндэсний	-9.25079
▁өмч	-9.25117
▁блог	-9.25163
шир	-9.25219
▁жаахан	-9.25259
▁тайлан	-9.25324
▁кон	-9.25424
▁ирнэ	-9.2543
▁дургүй	-9.25461
▁2018	-9.25506
▁шүүмж	-9.25546
▁салбарын	-9.25638
▁Хур	-9.25691
▁эзэн	-9.25694
▁мэдээж	-9.25889
▁илгээ	-9.25947
▁мэдрэмж	-9.26038
H	-9.2612
▁бодсон	-9.26162
▁амиа	-9.26235
▁онцлог	-9.26261
▁монголчууд	-9.26331
▁видео	-9.26373
▁Үндсэн	-9.26375
▁Өдөр	-9.26377
▁харагдаж	-9.26393
▁эсэх	-9.26439
▁үзэсгэлэн	-9.26485
▁ёсны	-9.26542
▁s	-9.26549
▁төлөвлө	-9.26579
▁итгэ	-9.26596
▁стандарт	-9.26597
▁хуваалц	-9.26712
сэл	-9.26738
▁21	-9.2677
▁шөнө	-9.26771
ям	-9.26796
агдана	-9.26859
▁хэргийн	-9.27059
▁дэмжлэг	-9.27071
уулга	-9.27122
уулаад	-9.27162
▁үлдсэн	-9.27219
▁харсан	-9.27233
▁өөрсдийн	-9.27293
▁бүтэн	-9.2733
▁үргэлжлүүл	-9.27375
алга	-9.27386
өнө	-9.27472
▁лав	-9.27485
▁амьтан	-9.27518
▁хамрагд	-9.27783
баяр	-9.27825
АЙ	-9.27855
чихсэн	-9.27856
▁|	-9.27865
▁өрсөлд	-9.27933
12	-9.27939
▁Нам	-9.27942
ot	-9.27944
▁тэтгэ	-9.27959
▁гоо	-9.28049
снаар	-9.28091
▁үнэтэй	-9.28183
▁хайж	-9.28258
жир	-9.28418
ra	-9.28546
▁сүү	-9.28566
▁Англи	-9.28586
▁өөрчлөх	-9.28774
▁ахуйн	-9.28844
▁бор	-9.28983
уулна	-9.29052
▁сургуульд	-9.29057
▁удахгүй	-9.2914
▁идэх	-9.29198
▁инээ	-9.29357
▁ка	-9.29469
is	-9.29546
▁Сур	-9.29606
▁2019	-9.29792
▁дахиад	-9.29792
▁муж	-9.29823
▁урлаг	-9.29835
хир	-9.29954
бат	-9.29969
▁Нөгөө	-9.30025
▁Мар	-9.30097
▁Бүр	-9.30122
цэцэг	-9.30126
▁гэрийн	-9.30138
▁замын	-9.30161
▁хэсэгт	-9.30227
▁бөмбөг	-9.30257
▁газраас	-9.30301
▁аварга	-9.30305
▁тэнгэр	-9.30374
үүлнэ	-9.30438
▁Есүс	-9.3049
▁маргааш	-9.3049
▁сурвалж	-9.30491
▁ярьсан	-9.30509
▁Түүнчлэн	-9.30607
▁цэргийн	-9.30608
▁тамир	-9.30617
li	-9.30815
▁зээлийн	-9.30884
▁ня	-9.30916
Бид	-9.31145
▁Гадаад	-9.31196
▁бүхэнд	-9.31254
▁дэмжиж	-9.31342
▁бал	-9.31394
▁олгох	-9.31398
▁ажигла	-9.31427
▁ду	-9.31435
▁нохой	-9.31444
▁мөнгөө	-9.31536
▁сэргээ	-9.31544
▁хэмжээг	-9.31615
▁магадлал	-9.31678
ци	-9.31693
▁үйлчл	-9.3172
▁бэлтгэл	-9.31734
▁уд	-9.31782
▁Ин	-9.31835
▁Өөрийн	-9.31863
▁зуун	-9.31865
▁ерөнхийлөгч	-9.31902
▁Сон	-9.31932
▁онцгой	-9.3202
▁охид	-9.32027
▁дүгнэлт	-9.32077
▁хэрэгт	-9.32245
▁хариулт	-9.32342
▁2015	-9.32401
▁эсэхийг	-9.32404
▁бодис	-9.3241
▁царай	-9.32508
▁хүсэж	-9.32532
▁b	-9.32651
▁нэрийг	-9.32669
▁тоног	-9.32738
▁шилжүүл	-9.32776
▁яахав	-9.32778
▁тэдэнд	-9.32891
ag	-9.32922
Чи	-9.32993
ого	-9.33034
ri	-9.33067
▁данс	-9.3311
▁таларх	-9.33352
▁сонгуулийн	-9.33426
▁дууд	-9.33468
▁тэжээ	-9.33745
▁#	-9.3376
▁итгэлтэй	-9.33806
ья	-9.34054
▁ороод	-9.34135
▁Дэлхий	-9.34209
хой	-9.34285
70	-9.34393
мб	-9.34403
▁хэрэглэ	-9.34653
▁томоохон	-9.34785
▁сор	-9.34786
▁жаргалтай	-9.34939
▁тэс	-9.35003
эгдэх	-9.3501
▁Түүнээс	-9.35274
▁өдөрт	-9.35317
▁цөөн	-9.354
▁алдсан	-9.35577
▁шаардлагагүй	-9.35617
$	-9.35641
▁тайлбар	-9.35889
▁ёсоор	-9.35936
▁аялал	-9.35942
▁цэцэрлэг	-9.36011
▁үзүүлэлт	-9.3606
▁буд	-9.36131
▁тор	-9.36321
▁нарыг	-9.36335
▁эсэргүүц	-9.36381
▁сум	-9.36394
▁дайн	-9.36532
▁гарын	-9.36569
▁эмчилгээ	-9.3663
▁ашигтай	-9.36718
єє	-9.36729
▁Магадгүй	-9.36754
▁байгууллагууд	-9.36756
▁этгээд	-9.36879
▁дүнд	-9.36948
▁Аав	-9.37116
▁алхам	-9.37214
▁тэргүүн	-9.37396
▁сав	-9.37414
▁харагдах	-9.3743
▁технологи	-9.37481
▁хаагч	-9.3749
▁боловсруул	-9.37511
▁хүүхдээ	-9.3765
▁нэмэлт	-9.37657
УУ	-9.37765
▁Бүгд	-9.37769
▁Америкийн	-9.3779
▁Ро	-9.37897
▁Франц	-9.38005
▁байранд	-9.38023
үүдэд	-9.38054
уулагч	-9.38064
▁хятад	-9.38133
▁бэлд	-9.38197
▁хаалга	-9.38337
▁эхлэн	-9.38353
▁22	-9.38381
▁тэгж	-9.38416
▁ногоо	-9.38499
агддаг	-9.38504
▁хагас	-9.38521
om	-9.38541
▁чуулган	-9.38597
▁хэлээд	-9.38605
▁гэм	-9.38681
▁2014	-9.38763
▁сэдэв	-9.38765
▁Ерөнхийлөгчийн	-9.38776
▁баталгаа	-9.38846
▁төсөв	-9.3889
▁хямд	-9.38896
▁явуулж	-9.389
▁амралт	-9.38971
▁Өмнөх	-9.38984
▁Эсвэл	-9.39017
▁хас	-9.391
▁тээврийн	-9.39144
▁орос	-9.39334
▁улирал	-9.39399
үүлэгч	-9.39467
Ё	-9.39526
▁Мэдээ	-9.39584
▁хон	-9.39624
▁хамтлаг	-9.3973
▁*	-9.39783
▁асуудлаар	-9.39897
▁баруун	-9.39923
▁Сар	-9.3999
▁зохицуул	-9.40069
▁хүндэт	-9.40136
▁багийн	-9.40208
▁хориг	-9.4023
▁дотроо	-9.40302
▁зохио	-9.40346
▁жаргал	-9.40407
▁Ун	-9.40425
өнгө	-9.40464
Энх	-9.40478
зан	-9.4051
▁шинээр	-9.40516
▁хэрэглэж	-9.40519
▁ирлээ	-9.40547
▁дут	-9.40691
▁байгуулсан	-9.40712
▁ажилтан	-9.40727
ино	-9.40793
▁Амьдрал	-9.40812
▁Ажлын	-9.40819
▁суугаа	-9.40855
▁харагд	-9.40942
▁төлөв	-9.41108
бу	-9.41222
▁зовлон	-9.41233
▁наадам	-9.41407
▁Бага	-9.41507
▁төлөөлөгч	-9.41612
▁гүн	-9.41675
▁учиртай	-9.41678
▁цуглуул	-9.41744
▁дуусга	-9.41852
▁түүнээс	-9.41986
▁амархан	-9.42025
▁бүрдүүл	-9.42027
▁агаар	-9.4207
▁судла	-9.42086
▁сүр	-9.4223
11	-9.42252
▁вакцин	-9.42378
▁Өмнө	-9.42383
▁уншиж	-9.42421
▁2008	-9.42515
элсэн	-9.42557
▁сонгуульд	-9.42614
▁60	-9.42659
За	-9.4276
▁тохиромжтой	-9.42773
30	-9.42845
▁3-	-9.42895
▁мөч	-9.4324
▁түвшинд	-9.4338
хөн	-9.43415
чиж	-9.43539
ї	-9.43569
▁Ганц	-9.43576
▁дэд	-9.43784
▁Ингэснээр	-9.43835
▁холбогдох	-9.43864
ter	-9.43887
▁суралц	-9.43965
&	-9.43968
▁танай	-9.44003
▁хандаж	-9.44065
ель	-9.44105
▁хоригло	-9.4414
▁уя	-9.44168
▁арван	-9.4421
▁цахилгаан	-9.4437
оороо	-9.44487
lo	-9.44616
▁асар	-9.44632
▁Эрх	-9.44691
бэ	-9.44701
▁Оросын	-9.4471
▁баяртай	-9.44714
▁ганцаараа	-9.44873
▁уйл	-9.44891
▁замаар	-9.44904
▁ажилла	-9.44952
▁өвчин	-9.44958
▁дамжуул	-9.44972
▁эрчүүд	-9.45049
шиж	-9.45147
▁амьсгал	-9.45179
▁бурхан	-9.45452
▁төлөх	-9.45461
▁Баяр	-9.45501
▁биеэ	-9.45524
▁цагдаа	-9.45584
▁хамтдаа	-9.45637
▁хандлага	-9.4585
▁Оюу	-9.45897
гаараа	-9.45905
▁зориг	-9.45906
▁даяар	-9.4613
лагдсан	-9.46144
▁бодоод	-9.4623
ЭН	-9.4627
▁хя	-9.46369
▁өнөөдрий	-9.46392
▁ре	-9.46458
өхө	-9.46623
▁сонсох	-9.46683
▁хорио	-9.46789
▁Залуу	-9.4683
▁ойролцоо	-9.46952
▁сонгууль	-9.46954
▁байгуулалт	-9.47073
▁Аль	-9.47155
▁Орон	-9.47187
ладаг	-9.4722
▁K	-9.47299
▁эгч	-9.47324
▁улстөр	-9.47513
▁цохи	-9.47519
▁харахад	-9.47596
▁Хүүхэд	-9.47644
▁тэрбээр	-9.47646
▁цом	-9.47785
▁нийц	-9.47849
j	-9.4792
▁тоглож	-9.4796
▁оролцож	-9.47981
▁хийхэд	-9.48034
▁туу	-9.48038
▁Жишээ	-9.48061
▁Нар	-9.48093
▁хөдөө	-9.48101
▁жа	-9.48166
▁олсон	-9.48192
▁тайван	-9.4821
▁Ту	-9.48234
▁далай	-9.48315
Хүрэлсүх	-9.48338
???	-9.48423
▁Мөнгө	-9.48528
▁эхэллээ	-9.4859
▁болгосон	-9.48652
есс	-9.48701
▁үзээрэй	-9.48724
▁зургийг	-9.48746
▁Хүүхдийн	-9.48759
▁Иргэд	-9.48901
тик	-9.48915
▁дүрэм	-9.48952
▁Ай	-9.48979
▁хуралдаан	-9.49006
▁Y	-9.49006
▁Ихэнх	-9.49052
▁богино	-9.49179
99	-9.49293
▁тамхи	-9.49304
▁Үндэсний	-9.4932
▁No	-9.49364
+	-9.49461
▁байсныг	-9.49554
▁Си	-9.49566
▁Ингэж	-9.49758
▁уриа	-9.49759
▁зүгээс	-9.49763
▁цагдаагийн	-9.49799
▁худлаа	-9.49823
изм	-9.50018
▁Хууль	-9.50029
▁зүйтэй	-9.5003
▁эргэж	-9.50153
▁дэв	-9.5017
Энхбаяр	-9.50179
▁зөвшөөрөл	-9.50188
бай	-9.50207
▁хандах	-9.50237
▁компьютер	-9.50311
▁мөрөө	-9.50377
▁шийдэх	-9.5043
▁дасгал	-9.50454
▁засвар	-9.50573
▁тоглогч	-9.50587
▁дурла	-9.50613
▁татах	-9.50628
▁дэлгэ	-9.50643
▁өсөлт	-9.50741
▁нийслэл	-9.50883
▁гарна	-9.50888
▁цаашид	-9.50894
▁зардал	-9.50895
▁му	-9.50921
үүлэн	-9.50951
ut	-9.50979
▁хож	-9.51067
өөрөө	-9.51074
▁тараа	-9.51125
▁асуух	-9.51138
▁техник	-9.51169
▁Уул	-9.51234
үүлдэг	-9.51291
▁итгэх	-9.51315
▁хэ	-9.51389
▁орно	-9.51505
▁хүргэх	-9.51612
▁Өмнөд	-9.51641
П	-9.51719
▁оруулсан	-9.51781
▁чин	-9.51802
▁сув	-9.51876
▁оролцоо	-9.51935
▁түүхэн	-9.52028
▁2013	-9.52034
▁Гол	-9.52138
▁хуучин	-9.52291
сайхан	-9.52466
▁аливаа	-9.52471
▁сахи	-9.52536
▁санагддаг	-9.52538
▁тогтолцоо	-9.52615
▁нэвтрүүл	-9.52628
▁Том	-9.52639
▁мянга	-9.52701
▁Нийслэл	-9.52761
▁мэдэл	-9.52791
▁шалгаруул	-9.52798
өргө	-9.52817
▁ашигладаг	-9.52841
▁ангийн	-9.529
▁эмээ	-9.52937
▁түрээс	-9.53035
▁дүүрэн	-9.53055
▁Эрүүл	-9.53267
▁газрууд	-9.53346
th	-9.53355
гуур	-9.5342
▁f	-9.53638
▁дүнтэй	-9.53662
нийхээ	-9.53748
▁хувьцаа	-9.53762
▁амьдар	-9.53897
▁уурхай	-9.53926
▁Ингэх	-9.54115
▁өдрөө	-9.54134
▁чиглэлээр	-9.54153
▁чаддаггүй	-9.54221
▁Ши	-9.54233
▁c	-9.54246
▁Но	-9.54356
▁хувийг	-9.54384
▁нэвт	-9.54465
▁Дав	-9.54535
▁Европ	-9.54559
▁заалт	-9.54613
▁порно	-9.54676
▁оюун	-9.54676
▁анзаар	-9.54824
▁болоогүй	-9.55175
▁уулзах	-9.55188
▁нөхөд	-9.55328
▁хэргийг	-9.55355
▁Бод	-9.55429
▁шалгах	-9.55475
▁доош	-9.55494
▁бүтээгдэхүүний	-9.55507
аргыг	-9.55556
▁зориулж	-9.55564
▁ухааны	-9.5559
▁байгуулж	-9.55603
▁албаны	-9.55645
▁сурагч	-9.55709
▁нээлттэй	-9.55722
оорой	-9.55738
▁итгэж	-9.55811
▁Зүгээр	-9.55873
▁хэвийн	-9.5595
▁па	-9.56009
▁Төв	-9.5602
▁үзнэ	-9.5607
▁ашиглан	-9.56264
▁нэгдсэн	-9.56334
▁эцэст	-9.5645
▁хог	-9.56475
▁хэлний	-9.56488
▁зорилгоор	-9.56606
=	-9.56627
▁ихэвчлэн	-9.56628
▁урьдчилан	-9.56628
▁оролцсон	-9.56651
▁заяа	-9.56666
▁ингэ	-9.56715
наасаа	-9.56724
▁байснаа	-9.5682
▁хүргэе	-9.5689
▁бахарх	-9.57084
ll	-9.5713
▁усан	-9.57217
▁хуралд	-9.57294
▁мэргэ	-9.57299
▁хөх	-9.573
▁зорилт	-9.57311
▁алдартай	-9.57317
▁ганцхан	-9.57465
▁хуулиа	-9.57702
▁зуу	-9.57794
▁хэвт	-9.57811
▁шийдвэрлэх	-9.57874
▁Зөв	-9.58029
▁чанартай	-9.58155
чихаад	-9.58164
▁одоогийн	-9.58288
~	-9.58309
Z	-9.58464
la	-9.58483
▁зори	-9.58675
▁Хан	-9.58728
_	-9.58825
▁Ли	-9.58973
▁ХХК	-9.59084
▁тайл	-9.59098
▁бохир	-9.59107
▁гомдол	-9.59173
▁үнэлгээ	-9.59246
▁байлгүй	-9.59289
▁дэлгэрэнгүй	-9.59395
▁журам	-9.59395
▁англи	-9.59409
▁нэмж	-9.59485
▁уламжлал	-9.59551
атга	-9.59575
▁Одоогоор	-9.5969
арай	-9.59776
▁анхаарах	-9.5978
▁хязгаар	-9.59816
▁тогтоох	-9.59892
▁тогтвортой	-9.60059
tion	-9.60065
▁халуун	-9.60106
ОН	-9.60126
▁секс	-9.60139
▁Тэнд	-9.60219
18	-9.6022
▁чадал	-9.60223
▁агаарын	-9.60248
▁батлагд	-9.60276
члах	-9.60319
▁бүхэл	-9.60319
▁чадвартай	-9.60476
▁хэрэгжүүл	-9.60486
дорж	-9.60577
▁барилга	-9.60611
▁зуур	-9.60653
▁буулга	-9.60684
▁залга	-9.60692
▁X	-9.60818
▁эрхэм	-9.60828
▁по	-9.60904
▁боловсруулах	-9.60956
▁хэмээх	-9.60976
K	-9.61043
▁хойно	-9.61047
▁эцсийн	-9.61124
▁хамгаалалт	-9.61155
▁2011	-9.61167
▁Үз	-9.61305
▁ярь	-9.61354
▁утсаа	-9.61372
▁ердөө	-9.61378
▁шингэ	-9.61388
▁алдар	-9.61456
өрө	-9.61465
▁хуулийг	-9.61521
▁Хор	-9.61577
▁үнэндээ	-9.6158
▁зөрчил	-9.61603
▁хувиар	-9.61761
▁дүгээр	-9.61761
▁нүү	-9.61789
▁сайхны	-9.61926
▁санаж	-9.61993
▁80	-9.61993
▁тодруул	-9.6201
▁сүүлд	-9.62022
Үү	-9.62121
id	-9.62184
▁зургаан	-9.62235
▁Холбоо	-9.62241
▁надаас	-9.62242
▁буудал	-9.62272
▁ажиллана	-9.62285
▁дүгнэ	-9.62324
▁тогоо	-9.62357
▁Өглөө	-9.62402
сүрэн	-9.62561
▁асуудлууд	-9.62563
▁тэмцэх	-9.62612
▁сайжруулах	-9.62644
▁хаанаас	-9.62669
▁хөгжүүлэх	-9.62798
▁дэргэд	-9.63046
▁байлгах	-9.63185
▁БНХАУ	-9.63208
▁ховор	-9.63209
▁төгсгөл	-9.6321
▁аюул	-9.63228
▁уруу	-9.63285
W	-9.63309
снийг	-9.63376
▁олны	-9.63514
▁үйлчилгээний	-9.63634
▁хоёул	-9.63695
▁Христ	-9.63697
▁дэвшигч	-9.63703
▁жолооч	-9.6391
▁иргэний	-9.64136
▁НҮБ	-9.64184
▁тутмын	-9.64185
▁23	-9.64227
▁бүртгүүл	-9.64312
▁муухай	-9.64314
▁тарх	-9.64342
▁залбир	-9.64351
▁хангамж	-9.64601
▁Үнэхээр	-9.64843
▁Ман	-9.6488
лэдэг	-9.64904
im	-9.64947
▁мэдсэн	-9.64948
▁мөнгийг	-9.6499
▁тариа	-9.65109
Миний	-9.65131
▁тогтоол	-9.65163
▁орчуул	-9.65173
▁Гал	-9.65212
▁байгаарай	-9.6522
▁хүсье	-9.65278
▁сэтгүүл	-9.65278
▁гариг	-9.65307
▁олборло	-9.65335
өрөө	-9.65412
▁машины	-9.65519
▁Дараагийн	-9.65564
▁даргын	-9.65584
▁Мо	-9.65773
эгдсэн	-9.65775
▁бусдад	-9.65853
▁ажиллагаанд	-9.65869
▁сонирхол	-9.65991
▁сам	-9.66024
▁гаргадаг	-9.66125
▁цол	-9.66184
and	-9.66243
▁цаас	-9.66338
em	-9.66388
▁сэтгэгдэл	-9.665
▁идэж	-9.66615
▁өнгөрүүл	-9.66623
▁телевиз	-9.66668
эгчид	-9.66846
ЭГ	-9.66954
▁чимээ	-9.66974
ОЛ	-9.6707
▁найзууд	-9.67156
▁байгаль	-9.67174
▁файл	-9.6719
▁одоогоор	-9.67214
15	-9.67269
▁дайр	-9.67272
▁хэлэв	-9.67299
▁сурч	-9.67321
▁аргаар	-9.67324
▁шив	-9.67361
ia	-9.67392
▁Нэгэн	-9.67438
▁Ном	-9.67487
▁нутгаа	-9.67489
▁алдах	-9.67617
▁дугуй	-9.67703
▁сэтгүүлч	-9.67738
▁сумын	-9.67767
▁хурим	-9.67796
▁орчны	-9.67863
▁ширээ	-9.67868
▁цор	-9.67951
▁яасан	-9.67979
X	-9.68177
▁өрөөнд	-9.68184
▁Хэрэг	-9.68491
▁багтаа	-9.68671
▁даатгал	-9.68708
▁дууссан	-9.68746
▁цус	-9.68801
sh	-9.68859
▁хэллээ	-9.68864
▁болзошгүй	-9.68871
<	-9.69043
▁найдаж	-9.69048
▁гудамж	-9.69215
▁хөгжим	-9.69501
▁хэрэглэдэг	-9.69561
▁хувир	-9.69563
▁мө	-9.6968
ИЙН	-9.69732
▁нийлүүл	-9.69764
▁Re	-9.69799
▁газрыг	-9.69905
▁гүйцэтгэх	-9.69905
▁өнгөрөө	-9.69916
▁ээлж	-9.69987
▁Тухайлбал	-9.70078
▁шоу	-9.70086
▁болгодог	-9.70205
▁хэмжээгээр	-9.70232
▁зүүн	-9.70259
▁сонгогд	-9.70332
▁цар	-9.70411
▁дагаж	-9.70456
▁сэргэ	-9.70482
▁үйлдвэрлэгч	-9.70555
▁про	-9.70577
▁урамшуул	-9.706
▁хямрал	-9.706
▁туршилт	-9.70605
▁бүсгүйчүүд	-9.70651
ir	-9.70663
▁хурал	-9.70886
▁сонссон	-9.70886
▁Цагаан	-9.70974
▁мэдээллээ	-9.70975
▁цугла	-9.7101
▁төсвийн	-9.71124
▁шинжлэх	-9.71139
▁өмнөөс	-9.71482
▁худалдааны	-9.71538
▁цаана	-9.71767
▁зааж	-9.71788
▁Засаг	-9.71833
▁идэвх	-9.71851
▁нээлт	-9.71883
▁хэрэв	-9.71998
▁оюутнууд	-9.72005
Энхболд	-9.72005
▁хэхэ	-9.72063
▁сүм	-9.72364
зөрч	-9.72372
▁Зам	-9.72463
▁улаан	-9.72554
▁залуучууд	-9.72689
▁гуай	-9.72708
▁газраа	-9.72827
Оюун	-9.72886
▁цац	-9.72898
▁сэргийлэх	-9.72914
▁хадгалах	-9.72994
▁Эхний	-9.73028
▁Ми	-9.73034
▁[...]	-9.73071
▁сөрөг	-9.73072
▁ингээд	-9.73246
▁Жил	-9.73253
▁хоорондоо	-9.73284
▁болчихсон	-9.7331
▁чанга	-9.73446
▁үлгэр	-9.73499
▁Бари	-9.73512
▁хэлэлцэх	-9.73619
▁иргэдэд	-9.73649
▁нийтэд	-9.73708
▁шашин	-9.73791
▁ярилцлага	-9.73975
▁түвшин	-9.74045
▁хөдөл	-9.74093
-19	-9.74112
▁аваарай	-9.74174
▁урагш	-9.7419
Таны	-9.74248
▁вирус	-9.7433
▁хөөрхөн	-9.74331
лэгдсэн	-9.74439
▁тэгш	-9.74456
▁түрүүнд	-9.74656
▁үсэг	-9.74756
▁өдрүүдэд	-9.74815
▁дандаа	-9.74946
▁очоод	-9.75114
▁байгуулагдсан	-9.75131
▁зургаа	-9.75136
▁баригд	-9.75224
▁2009	-9.75264
уухан	-9.75316
▁хэрэгжүүлж	-9.75332
▁гомд	-9.75354
▁жүжиг	-9.75357
▁эргүүл	-9.75361
ЭЛ	-9.75374
ЭР	-9.75449
▁аюултай	-9.75509
▁босго	-9.75536
▁Африк	-9.75605
▁нэгдүгээр	-9.75605
▁ойлгомжтой	-9.75605
▁хохир	-9.75724
▁ордог	-9.75852
▁хүнсний	-9.75895
▁ахуй	-9.7593
▁захиргаа	-9.75973
Баттулга	-9.75974
▁очсон	-9.76033
▁ойлгодог	-9.7614
▁хүүхдэд	-9.76157
оосоо	-9.76249
▁иймэрхүү	-9.76342
▁эхэлнэ	-9.76437
▁эрхлэгч	-9.76456
▁дуусах	-9.7654
Манай	-9.76607
▁Чиний	-9.76644
▁өдрийг	-9.76712
▁санагдаж	-9.76737
▁хөгш	-9.76762
▁Наад	-9.76776
▁заасан	-9.76831
▁үзээгүй	-9.76907
▁уулзаж	-9.76993
▁автомашин	-9.77083
▁автобус	-9.77083
ЭЭ	-9.77152
▁заримдаа	-9.7718
▁холбооны	-9.77223
▁түрүү	-9.77252
▁байгалийн	-9.77273
▁маргаан	-9.77274
▁Нас	-9.77357
▁хэтэрхий	-9.77456
▁хана	-9.77526
▁дамжуулан	-9.77577
▁үзүүлж	-9.77586
▁харагддаг	-9.77629
▁тохио	-9.77645
▁Ла	-9.77946
▁усны	-9.77946
▁нэх	-9.78004
▁шинэчлэл	-9.78044
▁2010	-9.78093
▁үлдэх	-9.78165
▁ханш	-9.78181
▁Эмэгтэй	-9.78187
цгаая	-9.7824
▁90	-9.78283
▁Японы	-9.78344
▁бүртгэгд	-9.78441
▁хязгаарла	-9.78451
мэйл	-9.7853
▁орондоо	-9.78546
▁Австрали	-9.78583
▁брэнд	-9.78592
▁Баян	-9.78775
▁дэлгэц	-9.78982
▁ядаж	-9.79043
▁26	-9.7906
▁авлаа	-9.79277
ҮҮ	-9.79285
▁ядуу	-9.79317
▁Ая	-9.7932
▁нэмэх	-9.79334
▁зарчим	-9.79342
▁энх	-9.79425
▁нэгтгэ	-9.79451
▁эргээд	-9.79553
01	-9.79626
▁Маш	-9.7965
▁оюутан	-9.79722
▁биелүүл	-9.79859
▁шийдсэн	-9.79918
▁үйлчлүүлэгч	-9.79928
▁авалт	-9.80005
▁бусдын	-9.80081
▁парламент	-9.80105
▁ширхэг	-9.80105
▁эерэг	-9.80105
▁Ардчилсан	-9.80105
▁Үйл	-9.80218
▁уралдаан	-9.80299
▁сонсож	-9.80415
▁дарамт	-9.80521
Баяр	-9.80614
▁эрүү	-9.80633
▁Ялангуяа	-9.80682
▁сурталчилгаа	-9.80682
▁үүссэн	-9.807
▁төслийг	-9.80875
▁Цэц	-9.80877
▁сонгосон	-9.80907
▁хоёрдугаар	-9.81048
▁өссөн	-9.81066
▁судалгааны	-9.81144
доллар	-9.81202
▁удирдагч	-9.8126
▁мэдэгдэл	-9.81286
▁орноо	-9.8131
▁зайлшгүй	-9.81651
метр	-9.81661
рөг	-9.81907
▁Харамсалтай	-9.82041
▁цуврал	-9.82041
▁утасны	-9.82085
▁итгэдэг	-9.82126
▁өөрсдийгөө	-9.82237
▁хүрэл	-9.82268
▁Ни	-9.82577
▁Сайхан	-9.82631
▁Ирэх	-9.82742
▁Хүүхдүүд	-9.82826
▁судлаач	-9.82944
▁зууны	-9.83144
чимэг	-9.83164
com	-9.83173
▁үндэслэл	-9.83374
▁сунга	-9.83479
▁тохируул	-9.83526
ul	-9.83535
▁хэсгийг	-9.83618
▁Хойд	-9.83639
▁хүндрэл	-9.83824
▁карт	-9.8385
▁сонгуул	-9.83905
▁бодлогын	-9.84016
▁оролцогч	-9.84043
▁өнөөгийн	-9.84187
▁шугам	-9.84215
▁хүрээлэн	-9.84305
үүлээд	-9.8432
▁гайхамшиг	-9.84415
▁27	-9.84523
▁харамс	-9.84536
Q	-9.84615
▁харилцан	-9.84615
▁тогтмол	-9.84616
▁эмнэлгийн	-9.84617
эрэг	-9.84657
▁зөндөө	-9.84817
▁Сэтгэл	-9.84828
▁саад	-9.84893
▁бууруулах	-9.84943
▁Түүнд	-9.85037
▁цонх	-9.8504
▁харьцуул	-9.85198
ъё	-9.85423
▁үгүйсгэ	-9.8554
▁байрлал	-9.85665
▁илрүүл	-9.85713
▁баян	-9.8573
▁суралцах	-9.85835
co	-9.85898
▁арил	-9.86096
▁жүжигчин	-9.86102
▁тийш	-9.86236
▁дүүргийн	-9.86238
▁Эзэн	-9.8624
▁удирдлага	-9.86339
▁нисэх	-9.86444
▁захиалга	-9.8647
▁банкны	-9.86507
▁даруй	-9.86565
▁тархи	-9.86639
▁дэндүү	-9.86661
▁танхим	-9.86847
▁засах	-9.87026
▁хийлээ	-9.87055
▁өгөөч	-9.87055
▁төвлөр	-9.87056
▁жуулч	-9.87077
▁технологийн	-9.87086
▁хандуул	-9.87136
▁хорооны	-9.87186
▁төлөвлөж	-9.8724
▁News	-9.87258
▁Өнөөдрийн	-9.87464
▁урсгал	-9.87466
▁өсгө	-9.87495
▁ихээхэн	-9.87677
огдох	-9.87718
Цааш	-9.87769
▁стратеги	-9.87878
▁код	-9.87995
▁нэмэгдүүлэх	-9.88004
▁хашаа	-9.88017
▁бүтээсэн	-9.88138
▁төмөр	-9.88293
▁ком	-9.88414
мог	-9.88454
▁найман	-9.88501
·	-9.88511
уулалт	-9.88599
▁холбогдсон	-9.88688
▁зэвсэг	-9.8871
▁дөнгөж	-9.88711
09	-9.88894
▁гадуур	-9.89135
огдсон	-9.8917
▁нэмэр	-9.89187
▁туул	-9.89286
▁явчих	-9.89334
▁байнгын	-9.8934
▁цэрэг	-9.89397
17	-9.89713
▁нэн	-9.89715
▁бүгдээрээ	-9.89724
▁ажилтнууд	-9.89735
▁ялангуяа	-9.8976
▁шийтгэ	-9.89777
чдыг	-9.89952
▁Машин	-9.90012
▁явцад	-9.90085
16	-9.9011
▁нунтаг	-9.90114
▁өчигдөр	-9.90184
▁болгоомж	-9.90187
▁хорвоо	-9.90191
▁дуугар	-9.90208
▁барилгын	-9.90252
▁харуулах	-9.90325
▁Зураг	-9.90538
▁Найз	-9.90612
▁галзуу	-9.90616
▁хүйтэн	-9.90822
▁Багш	-9.90831
▁ийнхүү	-9.90898
▁дэвшүүл	-9.90999
▁идэвхтэй	-9.91032
▁уншигч	-9.9105
▁Хэдэ	-9.91084
▁өдрүүд	-9.91107
▁үзээд	-9.91109
▁зөвшөөрөх	-9.91201
▁байлга	-9.91213
▁барьсан	-9.91253
▁виз	-9.91293
▁зугт	-9.91329
ow	-9.91417
▁Эцэг	-9.91467
[	-9.91506
▁далд	-9.91514
▁зорилготой	-9.91531
▁бороо	-9.91586
ct	-9.91601
▁бүрэлдэхүүн	-9.91679
▁яаралтай	-9.9168
▁дутуу	-9.91783
▁Ойр	-9.91909
▁мэдэгдсэн	-9.92064
▁хүүхдийг	-9.92111
▁осол	-9.92117
▁эрдэм	-9.9212
Y	-9.9216
▁тогтоосон	-9.92232
▁саван	-9.92399
▁шийдэл	-9.92654
▁нислэг	-9.92763
▁туйл	-9.92858
▁Газар	-9.9298
▁мундаг	-9.92983
▁хэдхэн	-9.92988
▁зургууд	-9.9308
▁Канад	-9.93232
▁хүсвэл	-9.93302
▁хэлэлцээр	-9.93331
▁жилүүдэд	-9.9337
▁Хоол	-9.93488
▁магт	-9.93521
▁удирдах	-9.93663
снаа	-9.938
▁дамжи	-9.93988
▁Хувь	-9.94077
▁төслийн	-9.94078
▁үзвэл	-9.94262
▁ухаалаг	-9.94298
▁дэглэм	-9.94518
▁нойр	-9.94522
80	-9.94619
▁өгөөд	-9.94672
▁МАХН	-9.9474
▁арилжаа	-9.94743
▁авто	-9.94839
▁суудал	-9.94971
▁маск	-9.95188
▁цөм	-9.9523
▁гадны	-9.95244
▁үзэгч	-9.95298
▁буцаж	-9.95315
▁Өөрөө	-9.95401
ийнхөө	-9.95529
▁хэсгийн	-9.95635
▁хүүхэн	-9.95698
▁гэгээ	-9.95797
▁Үнэндээ	-9.95861
▁алдаж	-9.95865
▁Зур	-9.95934
▁салхи	-9.96021
ОР	-9.96064
▁эзэл	-9.96236
▁эхчүүд	-9.9631
▁өвчний	-9.96559
▁Хэзээ	-9.96758
▁санхүүжилт	-9.96758
▁морь	-9.9676
▁дурдсан	-9.9679
▁хоосон	-9.96993
▁хугацаагаар	-9.97
▁үд	-9.97101
▁Тэдгээр	-9.97122
▁халамж	-9.97224
06	-9.97343
▁хөлбөмбөг	-9.9744
▁өөрчилж	-9.97474
▁баялаг	-9.97669
Өдрийн	-9.98052
▁онцлов	-9.98126
▁шоронд	-9.98133
um	-9.98167
▁зугаа	-9.98239
▁олгодог	-9.98306
▁тодорхойлох	-9.98335
▁апп	-9.98356
▁Шүүх	-9.98364
▁дулаан	-9.9857
▁америк	-9.98587
▁Эхнэр	-9.98591
▁Худалда	-9.98619
▁ээлжит	-9.98637
▁Охин	-9.98662
▁асуудлаа	-9.98717
▁АТГ	-9.98819
туяа	-9.98827
▁хөрш	-9.98828
▁захирал	-9.99051
▁анхаарлаа	-9.99159
▁вий	-9.99193
▁Британи	-9.99269
▁утгаараа	-9.99283
▁хөтл	-9.99397
▁засаглал	-9.99459
▁ойлгосон	-9.99637
Элбэгдорж	-9.99747
▁тээвэр	-9.99749
▁нягт	-9.99795
▁таатай	-9.99834
▁дуудлага	-10.001
▁байтугай	-10.0021
▁Бизнес	-10.0045
▁дэвсгэр	-10.0045
▁мэдэрч	-10.0068
▁евро	-10.0068
▁хичнээн	-10.0068
▁баталгаажуул	-10.008
▁Өөрийгөө	-10.0092
▁ёслол	-10.0098
▁ертөнцөд	-10.0098
▁унтаж	-10.0151
▁өнгөрч	-10.0153
▁төстэй	-10.0164
▁сануул	-10.0164
▁зовоо	-10.0177
▁хойд	-10.0192
Алтан	-10.0204
▁Хотын	-10.0214
▁хамтарч	-10.0229
▁харамсалтай	-10.0235
▁чадвал	-10.0236
▁нуруу	-10.0246
▁үүсвэр	-10.0259
▁клуб	-10.0283
▁харьцаа	-10.0283
▁батлах	-10.0285
ухлыг	-10.0286
▁үнийн	-10.031
ЫН	-10.0313
юу	-10.0318
йцэтгэ	-10.0323
▁тэгэх	-10.0328
▁хувьсгал	-10.0331
▁хийгээгүй	-10.0332
▁ойрхон	-10.034
▁яс	-10.0352
▁үүднээс	-10.0358
▁нэмэгдэж	-10.0378
▁Компани	-10.0379
▁таамагла	-10.038
▁үеэс	-10.039
▁Зүүн	-10.0406
▁гаралтай	-10.0406
▁дурсамж	-10.0428
▁Гурав	-10.0428
▁хөгжүүл	-10.0431
▁Турк	-10.0453
▁Гурван	-10.0477
▁хуруу	-10.0477
▁ахмад	-10.0478
▁ариутгагч	-10.0479
▁жимс	-10.0484
▁нөхөн	-10.0494
▁экспорт	-10.0502
▁бэлгийн	-10.0504
▁агуулга	-10.0511
▁сонирхож	-10.0517
▁хаха	-10.0549
▁Google	-10.0551
▁сүнс	-10.0577
▁салга	-10.06
▁олимп	-10.0601
▁удирдлагууд	-10.0601
▁станц	-10.0601
▁Урьд	-10.0601
▁болтугай	-10.0625
▁Израил	-10.065
▁дөрөв	-10.065
▁хоно	-10.0654
60	-10.0656
▁унага	-10.0661
▁гээч	-10.0666
жаргал	-10.0683
ууууу	-10.0692
▁Итали	-10.0705
▁багасга	-10.0711
▁сайжруул	-10.0713
▁вэбсайт	-10.0726
▁мэдрэх	-10.0781
▁жолоо	-10.0793
▁Ви	-10.0814
▁олгоно	-10.0843
▁хорих	-10.0848
▁Эцэст	-10.0852
▁Маргааш	-10.0852
▁камер	-10.0852
▁новш	-10.0853
▁хөнөө	-10.0855
▁хөгжиж	-10.0858
▁хөрөнгийн	-10.0878
▁инээмсэгл	-10.0878
▁нунтаглах	-10.0886
▁борлуулалт	-10.0903
▁ажлууд	-10.0925
▁кофе	-10.0929
▁зөрүү	-10.093
▁биелүүлэх	-10.0952
▁Чингис	-10.0955
▁дүүрэг	-10.0955
▁цэц	-10.0984
▁зохицуулалт	-10.0986
эмнэл	-10.0994
40	-10.0998
▁Албан	-10.1011
▁Баруун	-10.1014
▁нэрлэдэг	-10.1019
▁гэгч	-10.1041
Ь	-10.1058
▁мөрөөдөл	-10.1058
▁хохирол	-10.1073
▁бүтэц	-10.1084
▁учруул	-10.1084
▁шавь	-10.1085
▁ундаа	-10.1087
▁нөлөөлөх	-10.1093
▁Аливаа	-10.111
▁гуниг	-10.1137
▁ариун	-10.1137
▁бусдыг	-10.1142
Мөнх	-10.1143
▁зогсож	-10.115
лэгддэг	-10.1179
▁Үйлдвэр	-10.1189
▁буцааж	-10.1217
▁эргэлт	-10.1235
▁үргэлжилж	-10.1251
▁ноцтой	-10.1268
▁байрлуул	-10.1276
Ы	-10.1751
q	-10.1955
Ф	-10.2437
J	-10.3689
^	-10.4141
@	-10.4761
#	-10.5482
ъ	-10.5669
→	-10.7822
щ	-11.0047
һ	-11.0572
î	-11.1341
Є	-11.1787
₮	-11.2175
️	-11.2415
ҕ	-11.2828
ҥ	-11.2828
°	-11.2999
←	-11.3803
{	-11.3896
ا	-11.4086
à	-11.4476
′	-11.4882
}	-11.5524
ý	-11.5524
ر	-11.5635
€	-11.5861
ü	-11.682
¬	-11.7336
\	-11.7881
é	-11.8021
í	-11.8021
●	-11.8021
ә	-11.8164
ñ	-11.8605
ë	-11.8605
ѐ	-11.9067
¿	-11.9551
ل	-11.9718
ò	-11.9718
›	-12.0414
😀	-12.0595
â	-12.1358
©	-12.1558
(	-12.1866
Ъ	-12.197
س	-12.24
è	-12.24
Ѳ	-12.2622
ã	-12.2622
ة	-12.285
❤	-12.3082
ك	-12.3082
•	-12.3216
ح	-12.332
Í	-12.3564
®	-12.4071
ä	-12.4071
ð	-12.4334
ج	-12.4334
́	-12.4604
√	-12.4882
£	-12.5168
♥	-12.5168
😉	-12.5168
Ї	-12.5462
🎁	-12.5462
õ	-12.6077
い	-12.6077
á	-12.64
Щ	-12.7078
ó	-12.7078
★	-12.7435
ᄏ	-12.7435
な	-12.7806
ö	-12.819
ん	-12.819
Џ	-12.859
ѕ	-12.859
م	-12.859
时	-12.859
し	-12.9442
の	-12.9896
ў	-12.9896
・	-12.9896
|	-13.0268
≤	-13.0372
す	-13.0372
☞	-13.0372
ي	-13.0372
ң	-13.0872
×	-13.0872
🙏	-13.1399
😍	-13.1399
ā	-13.1954
і	-13.1954
⁄	-13.1954
ì	-13.1954
る	-13.2542
😭	-13.2542
μ	-13.2542
÷	-13.2542
ま	-13.2542
Ќ	-13.3167
Ø	-13.3167
😂	-13.3167
😅	-13.3167
う	-13.3167
て	-13.3167
§	-13.3834
ћ	-13.3834
қ	-13.3834
に	-13.3834
이	-13.3834
🔥	-13.3834
😊	-13.3834
ᅲ	-13.4548
ï	-13.4548
җ	-13.4548
ế	-13.4548
≈	-13.4548
】	-13.4548
名	-13.4548
ø	-13.4548
ら	-13.5318
で	-13.5318
û	-13.5318
ن	-13.5318
♦	-13.5318
♪	-13.5318
✿	-13.5318
【	-13.5318
そ	-13.5318
か	-13.6151
±	-13.6151
ќ	-13.6151
ɵ	-13.6151
Ў	-13.6151
「	-13.6151
歌	-13.6151
ç	-13.6151
た	-13.706
α	-13.706
こ	-13.706
🏻	-13.706
æ	-13.706
ə	-13.706
あ	-13.706
く	-13.706
ع	-13.706
و	-13.706
曲	-13.706
称	-13.706
І	-13.706
요	-13.706
γ	-13.806
👏	-13.806
ー	-13.806
¥	-13.806
د	-13.806
💵	-13.806
🤗	-13.806
」	-13.806
よ	-13.806
れ	-13.806
🤩	-13.806
と	-13.806
り	-13.806
を	-13.9171
。	-13.9171
ş	-13.9171
Õ	-13.9171
‐	-13.9171
が	-13.9171
国	-13.9171
😦	-13.9171
だ	-13.9171
は	-13.9171
나	-13.9171
ン	-14.0421
お	-14.0421
き	-14.0421
書	-14.0421
学	-14.0421
👍	-14.0421
Á	-14.0421
Ü	-14.0421
ه	-14.0421
−	-14.0421
⋆	-14.0421
☈	-14.0421
♚	-14.0421
も	-14.0421
š	-14.0421
†	-14.0421
📌	-14.0421
😢	-14.0421
어	-14.0421
유	-14.0421
っ	-14.0421
け	-14.185
ɪ	-14.185
Ћ	-14.185
ف	-14.185
기	-14.185
¦	-14.185
Ş	-14.185
ƒ	-14.185
ר	-14.185
ᄂ	-14.185
◆	-14.185
☺	-14.185
♡	-14.185
ば	-14.185
日	-14.185
💯	-14.185
י	-14.185
○	-14.185
리	-14.185
ո	-14.185
ル	-14.3516
め	-14.3516
̷	-14.3516
せ	-14.3516
Ç	-14.3516
π	-14.3516
א	-14.3516
≥	-14.3516
☆	-14.3516
✨	-14.3516
ち	-14.3516
つ	-14.3516
ˈ	-14.3516
ι	-14.3516
ی	-14.3516
ᄅ	-14.3516
、	-14.3516
人	-14.3516
会	-14.3516
楽	-14.3516
É	-14.3516
β	-14.3516
ᠠ	-14.3516
ᠢ	-14.3516
ұ	-14.3516
わ	-14.3516
니	-14.3516
다	-14.3516
ն	-14.3516
時	-14.3516
ư	-14.3516
ớ	-14.3516
表	-14.5516
江	-14.5516
ο	-14.5516
一	-14.5516
路	-14.5516
∞	-14.5516
지	-14.5516
ґ	-14.5516
ط	-14.5516
배	-14.5516
¤	-14.5516
џ	-14.5516
ե	-14.5516
ᠳ	-14.5516
―	-14.5516
‹	-14.5516
⃣	-14.5516
◊	-14.5516
ご	-14.5516
じ	-14.5516
図	-14.5516
済	-14.5516
経	-14.5516
部	-14.5516
際	-14.5516
사	-14.5516
서	-14.5516
하	-14.5516
🔴	-14.5516
😁	-14.5516
😘	-14.5516
Һ	-14.5516
Ò	-14.5516
غ	-14.5516
말	-14.5516
정	-14.5516
ß	-14.5516
ա	-14.5516
մ	-14.5516
行	-14.5516
返	-14.5516
語	-14.8016
平	-14.8016
ō	-14.8016
ค	-14.8016
え	-14.8016
台	-14.8016
Ý	-14.8016
₩	-14.8016
영	-14.8016
İ	-14.8016
ғ	-14.8016
文	-14.8016
한	-14.8016
Ë	-14.8016
ú	-14.8016
ל	-14.8016
ق	-14.8016
᠋	-14.8016
ᠷ	-14.8016
▼	-14.8016
☛	-14.8016
ㄟ	-14.8016
月	-14.8016
本	-14.8016
間	-14.8016
대	-14.8016
세	-14.8016
아	-14.8016
제	-14.8016
😃	-14.8016
😆	-14.8016
😇	-14.8016
😜	-14.8016
😝	-14.8016
🥳	-14.8016
Ѕ	-14.8016
げ	-14.8016
비	-14.8016
저	-14.8016
🇷	-14.8016
ᠨ	-14.8016
원	-14.8016
À	-14.8016
Ñ	-14.8016
☻	-14.8016
ω	-14.8016
내	-14.8016
中	-14.8016
や	-15.135
க	-15.135
フ	-15.135
å	-15.135
〓	-15.135
リ	-15.135
信	-15.135
高	-15.135
🤘	-15.135
스	-15.135
č	-15.135
ī	-15.135
ӓ	-15.135
ন	-15.135
โ	-15.135
ṭ	-15.135
❗	-15.135
《	-15.135
下	-15.135
국	-15.135
💜	-15.135
Ҥ	-15.135
ӈ	-15.135
天	-15.135
신	-15.135
우	-15.135
Ä	-15.135
Ð	-15.135
ê	-15.135
Ā	-15.135
Œ	-15.135
ʀ	-15.135
̀	-15.135
Δ	-15.135
ί	-15.135
ӧ	-15.135
տ	-15.135
ք	-15.135
ע	-15.135
أ	-15.135
ش	-15.135
ى	-15.135
ਰ	-15.135
ง	-15.135
ย	-15.135
่	-15.135
ᠡ	-15.135
ḥ	-15.135
‖	-15.135
∙	-15.135
⚡	-15.135
⚫	-15.135
➢	-15.135
⦁	-15.135
ど	-15.135
シ	-15.135
ナ	-15.135
法	-15.135
现	-15.135
的	-15.135
自	-15.135
达	-15.135
音	-15.135
구	-15.135
뉴	-15.135
는	-15.135
법	-15.135
부	-15.135
수	-15.135
야	-15.135
의	-15.135
인	-15.135
자	-15.135
장	-15.135
주	-15.135
티	-15.135
함	-15.135
해	-15.135
횊	-15.135
후	-15.135
︎	-15.135
🍷	-15.135
🏠	-15.135
👨	-15.135
💚	-15.135
💫	-15.135
💰	-15.135
🤑	-15.135
🤟	-15.135
🤮	-15.135
🥇	-15.135
Ö	-15.135
ô	-15.135
θ	-15.135
Ӏ	-15.135
ӱ	-15.135
🌈	-15.135
λ	-15.135
ս	-15.135
נ	-15.135
น	-15.135
ม	-15.135
ᴇ	-15.135
》	-15.135
み	-15.135
子	-15.135
경	-15.135
오	-15.135
태	-15.135
토	-15.135
현	-15.135
회	-15.135
ѓ	-15.135
ᠦ	-15.135
ひ	-15.135
キ	-15.135
上	-15.135
出	-15.135
版	-15.135
라	-15.135
로	-15.135
我	-15.135
通	-15.135
ゃ	-15.135
代	-15.6349
言	-15.6349
ν	-15.635
း	-15.635
世	-15.635
族	-15.635
紀	-15.635
達	-15.635
皇	-15.635
ソ	-15.635
န	-15.635
မ	-15.635
ウ	-15.635
ク	-15.635
ャ	-15.635
御	-15.635
水	-15.635
証	-15.635
身	-15.635
金	-15.635
😎	-15.635
ت	-15.635
ص	-15.635
⎪	-15.635
ギ	-15.635
ブ	-15.635
回	-15.635
ÿ	-15.635
❄	-15.635
サ	-15.635
李	-15.635
민	-15.635
선	-15.635
안	-15.635
크	-15.635
🦉	-15.635
Æ	-15.635
ć	-15.635
đ	-15.635
ė	-15.635
Ł	-15.635
ś	-15.635
ɐ	-15.635
Ω	-15.635
κ	-15.635
ς	-15.635
ј	-15.635
њ	-15.635
Ґ	-15.635
ҳ	-15.635
ӣ	-15.635
ր	-15.635
ג	-15.635
ה	-15.635
ו	-15.635
خ	-15.635
ذ	-15.635
ک	-15.635
क	-15.635
ब	-15.635
ल	-15.635
ा	-15.635
া	-15.635
ু	-15.635
্	-15.635
ਟ	-15.635
ਪ	-15.635
ਸ	-15.635
ก	-15.635
ซ	-15.635
ด	-15.635
ล	-15.635
ส	-15.635
อ	-15.635
ี	-15.635
เ	-15.635
ใ	-15.635
้	-15.635
྆	-15.635
့	-15.635
ᠬ	-15.635
ᠭ	-15.635
ᠮ	-15.635
ḍ	-15.635
ṅ	-15.635
ṇ	-15.635
‣	-15.635
₽	-15.635
↔	-15.635
⇨	-15.635
∂	-15.635
≠	-15.635
█	-15.635
□	-15.635
▶	-15.635
♏	-15.635
♔	-15.635
♠	-15.635
⚽	-15.635
✈	-15.635
❀	-15.635
⠀	-15.635
ぐ	-15.635
ぶ	-15.635
ろ	-15.635
イ	-15.635
コ	-15.635
ㄨ	-15.635
介	-15.635
仔	-15.635
们	-15.635
住	-15.635
作	-15.635
内	-15.635
十	-15.635
南	-15.635
号	-15.635
品	-15.635
商	-15.635
图	-15.635
地	-15.635
夢	-15.635
安	-15.635
展	-15.635
山	-15.635
形	-15.635
松	-15.635
気	-15.635
流	-15.635
点	-15.635
理	-15.635
生	-15.635
用	-15.635
田	-15.635
発	-15.635
管	-15.635
線	-15.635
网	-15.635
翻	-15.635
者	-15.635
話	-15.635
誌	-15.635
译	-15.635
載	-15.635
门	-15.635
고	-15.635
권	-15.635
규	-15.635
남	-15.635
노	-15.635
도	-15.635
르	-15.635
린	-15.635
미	-15.635
역	-15.635
연	-15.635
예	-15.635
올	-15.635
으	-15.635
전	-15.635
즈	-15.635
초	-15.635
통	-15.635
트	-15.635
희	-15.635
🇺	-15.635
🌙	-15.635
🌸	-15.635
👀	-15.635
👐	-15.635
👷	-15.635
💁	-15.635
💃	-15.635
💅	-15.635
💙	-15.635
🔅	-15.635
🔵	-15.635
🔸	-15.635
😋	-15.635
😓	-15.635
😔	-15.635
🙁	-15.635
🙃	-15.635
🚫	-15.635
🛫	-15.635
🤔	-15.635
🤪	-15.635
🥰	-15.635
🥺	-15.635
🦸	-15.635
ń	-15.635
ε	-15.635
胡	-15.635
창	-15.635
È	-15.635
ʜ	-15.635
ิ	-15.635
ᠥ	-15.635
ᠶ	-15.635
ゅ	-15.635
ョ	-15.635
是	-15.635
止	-15.635
简	-15.635
美	-15.635
近	-15.635
게	-15.635
동	-15.635
루	-15.635
무	-15.635
보	-15.635
시	-15.635
은	-15.635
을	-15.635
화	-15.635
훈	-15.635
너	-15.635
ū	-15.635
ǿ	-15.635
͜	-15.635
φ	-15.635
կ	-15.635
ղ	-15.635
ᄀ	-15.635
ᵴ	-15.635
业	-15.635
交	-15.635
便	-15.635
解	-15.635
责	-15.635
🔌	-15.635
🗃	-15.635
个	-15.635
分	-15.635
革	-15.635
🙌	-16.6231
🔶	-16.6232
🔑	-16.6233
📎	-16.6234
🎧	-16.6235
🌱	-16.6236
🇲	-16.6237
🇰	-16.6238
튜	-16.6239
최	-16.624
직	-16.6241
없	-16.6242
알	-16.6243
새	-16.6244
브	-16.6245
꧁	-16.6246
龙	-16.6247
黑	-16.6248
麦	-16.6249
類	-16.625
鈴	-16.6251
重	-16.6252
请	-16.6253
聲	-16.6254
社	-16.6255
曜	-16.6256
手	-16.6257
後	-16.6258
変	-16.6259
基	-16.626
団	-16.6261
合	-16.6262
ㄎ	-16.6263
ㄍ	-16.6264
ド	-16.6265
ダ	-16.6266
❼	-16.6267
❹	-16.6268
❷	-16.6269
☹	-16.627
│	-16.6271
⏱	-16.6272
∆	-16.6273
⇒	-16.6274
‰	-16.6275
ᆞ	-16.6276
ת	-16.6277
ב	-16.6278
Ҳ	-16.6279
ρ	-16.628
δ	-16.6281
̌	-16.6282
ˌ	-16.6283
ł	-16.6284
ğ	-16.6285
ĕ	-16.6286
Č	-16.6287
🚗	-16.6288
🔰	-16.6289
🔬	-16.629
👎	-16.6291
🎯	-16.6292
바	-16.6293
软	-16.6294
件	-16.6295
モ	-16.6296
ゴ	-16.6297
ざ	-16.6298
☎	-16.6299
◦	-16.63
ւ	-16.6301
σ	-16.6302
þ	-16.6303
📍	-16.6304
💥	-16.6305
💎	-16.6306
👩	-16.6307
🌟	-16.6308
ょ	-16.6309
♂	-16.631
ہ	-16.6311
ب	-16.6312
Ã	-16.6313
蒙	-16.6314
愛	-16.6315
古	-16.6316
♀	-16.6317
☀	-16.6318
▲	-16.6319
김	-16.632
さ	-16.6321
➡	-16.6322
➜	-16.6323
▪	-16.6324
¢	-16.6325
■	-16.6326
😱	-16.6327
✓	-16.6328
↙	-16.6329
↓	-16.633
🤣	-16.6331
👉	-16.6332
⭐	-16.6333
̈	-16.6334
彩	-16.6335
♫	-16.6336
※	-16.6337
̄	-16.6338
🔊	-16.6339
ı	-16.634
😛	-16.6341
♛	-16.6342
☮	-16.6343
✔	-16.6344
✅	-16.6345
₪	-16.6346
►	-16.6347
↑	-16.6348
员	-16.6349
委	-16.6349
建	-16.6349
浙	-16.6349
密	-16.6349
တ	-16.6349
လ	-16.6349
ေ	-16.6349
奋	-16.6349
带	-16.6349
楫	-16.6349
諸	-16.6349
🙂	-16.6349
Μ	-16.6349
Τ	-16.6349
ύ	-16.6349
إ	-16.6349
ழ	-16.6349
ூ	-16.6349
ை	-16.6349
்	-16.6349
္	-16.6349
べ	-16.6349
チ	-16.6349
ニ	-16.6349
ヒ	-16.6349
マ	-16.6349
ム	-16.6349
址	-16.6349
娱	-16.6349
府	-16.6349
恩	-16.6349
払	-16.6349
照	-16.6349
祉	-16.6349
福	-16.6349
蘭	-16.6349
資	-16.6349
込	-16.6349
送	-16.6349
選	-16.6349
钱	-16.6349
ě	-16.635
ʟ	-16.635
ז	-16.635
ฬ	-16.635
သ	-16.635
ᴜ	-16.635
』	-16.635
タ	-16.635
保	-16.635
君	-16.635
妹	-16.635
导	-16.635
帝	-16.635
牛	-16.635
神	-16.635
視	-16.635
讃	-16.635
读	-16.635
輝	-16.635
马	-16.635
모	-16.635
밥	-16.635
폰	-16.635
🇳	-16.635
📞	-16.635
Ô	-16.635
ľ	-16.635
ǐ	-16.635
ᄇ	-16.635
ẙ	-16.635
⌚	-16.635
⚙	-16.635
ゆ	-16.635
志	-16.635
陳	-16.635
거	-16.635
룬	-16.635
짓	-16.635
탠	-16.635
🌳	-16.635
📣	-16.635
¶	-16.635
Â	-16.635
Ì	-16.635
Î	-16.635
ă	-16.635
ē	-16.635
Ė	-16.635
Į	-16.635
ĸ	-16.635
ň	-16.635
œ	-16.635
ť	-16.635
ů	-16.635
Ž	-16.635
Ɗ	-16.635
ǎ	-16.635
ɑ	-16.635
ɲ	-16.635
ɴ	-16.635
ʏ	-16.635
ː	-16.635
˗	-16.635
̵	-16.635
͞	-16.635
Η	-16.635
Ο	-16.635
Φ	-16.635
Ψ	-16.635
ά	-16.635
ή	-16.635
η	-16.635
υ	-16.635
ό	-16.635
ώ	-16.635
Ђ	-16.635
҉	-16.635
Җ	-16.635
Қ	-16.635
ҡ	-16.635
ҷ	-16.635
ӄ	-16.635
Ӈ	-16.635
Ә	-16.635
ӯ	-16.635
Ա	-16.635
Գ	-16.635
Ե	-16.635
Ո	-16.635
դ	-16.635
զ	-16.635
ը	-16.635
ի	-16.635
խ	-16.635
յ	-16.635
չ	-16.635
վ	-16.635
ց	-16.635
ט	-16.635
מ	-16.635
פ	-16.635
،	-16.635
؟	-16.635
ض	-16.635
َ	-16.635
ۇ	-16.635
ە	-16.635
ं	-16.635
इ	-16.635
ए	-16.635
ज	-16.635
र	-16.635
़	-16.635
ि	-16.635
ै	-16.635
१	-16.635
४	-16.635
७	-16.635
९	-16.635
অ	-16.635
ই	-16.635
ক	-16.635
চ	-16.635
ত	-16.635
দ	-16.635
ব	-16.635
র	-16.635
ি	-16.635
ে	-16.635
ਂ	-16.635
ਕ	-16.635
ਮ	-16.635
ਹ	-16.635
ਾ	-16.635
ਿ	-16.635
ੀ	-16.635
ੂ	-16.635
ੈ	-16.635
ੌ	-16.635
ட	-16.635
ா	-16.635
ி	-16.635
ೋ	-16.635
จ	-16.635
ต	-16.635
ท	-16.635
ฝ	-16.635
พ	-16.635
ฟ	-16.635
ภ	-16.635
ว	-16.635
ษ	-16.635
ห	-16.635
ั	-16.635
า	-16.635
ึ	-16.635
แ	-16.635
ไ	-16.635
์	-16.635
࿐	-16.635
ဦ	-16.635
ိ	-16.635
ု	-16.635
်	-16.635
ြ	-16.635
၊	-16.635
ᄆ	-16.635
ᄋ	-16.635
ᄒ	-16.635
ᅳ	-16.635
ᐉ	-16.635
ᠤ	-16.635
ᠫ	-16.635
ᠯ	-16.635
ᠰ	-16.635
ᠱ	-16.635
ᠴ	-16.635
ᠵ	-16.635
ᠻ	-16.635
ᠼ	-16.635
᭄	-16.635
ᴀ	-16.635
ᴍ	-16.635
ᴠ	-16.635
ṃ	-16.635
ầ	-16.635
ắ	-16.635
ằ	-16.635
ễ	-16.635
ờ	-16.635
ἰ	-16.635
‡	-16.635
₹	-16.635
↖	-16.635
↳	-16.635
∈	-16.635
≫	-16.635
⋯	-16.635
╘	-16.635
╟	-16.635
╢	-16.635
▍	-16.635
▨	-16.635
◇	-16.635
☂	-16.635
☑	-16.635
☔	-16.635
☕	-16.635
☘	-16.635
☝	-16.635
☤	-16.635
♣	-16.635
♻	-16.635
⚃	-16.635
⚠	-16.635
✌	-16.635
✍	-16.635
✞	-16.635
✯	-16.635
❂	-16.635
❃	-16.635
❏	-16.635
❖	-16.635
➥	-16.635
➳	-16.635
⿱	-16.635
『	-16.635
ぎ	-16.635
ぬ	-16.635
ィ	-16.635
カ	-16.635
ガ	-16.635
ゲ	-16.635
ジ	-16.635
セ	-16.635
ツ	-16.635
ヅ	-16.635
デ	-16.635
ハ	-16.635
バ	-16.635
ビ	-16.635
ベ	-16.635
ペ	-16.635
ミ	-16.635
ラ	-16.635
七	-16.635
万	-16.635
三	-16.635
乐	-16.635
也	-16.635
二	-16.635
云	-16.635
互	-16.635
京	-16.635
他	-16.635
任	-16.635
休	-16.635
众	-16.635
使	-16.635
係	-16.635
修	-16.635
俺	-16.635
們	-16.635
側	-16.635
優	-16.635
儿	-16.635
元	-16.635
光	-16.635
克	-16.635
免	-16.635
八	-16.635
公	-16.635
册	-16.635
再	-16.635
冯	-16.635
前	-16.635
势	-16.635
動	-16.635
勖	-16.635
勧	-16.635
包	-16.635
化	-16.635
北	-16.635
医	-16.635
午	-16.635
华	-16.635
叫	-16.635
召	-16.635
向	-16.635
吗	-16.635
周	-16.635
味	-16.635
和	-16.635
唐	-16.635
唱	-16.635
問	-16.635
喵	-16.635
器	-16.635
國	-16.635
圖	-16.635
場	-16.635
塑	-16.635
塚	-16.635
声	-16.635
夂	-16.635
夕	-16.635
太	-16.635
奇	-16.635
好	-16.635
姿	-16.635
字	-16.635
宅	-16.635
宗	-16.635
定	-16.635
室	-16.635
宽	-16.635
小	-16.635
少	-16.635
局	-16.635
属	-16.635
岩	-16.635
峮	-16.635
州	-16.635
巡	-16.635
巣	-16.635
工	-16.635
年	-16.635
异	-16.635
弦	-16.635
当	-16.635
录	-16.635
心	-16.635
忘	-16.635
快	-16.635
悔	-16.635
您	-16.635
悲	-16.635
情	-16.635
意	-16.635
憎	-16.635
戸	-16.635
打	-16.635
抢	-16.635
拶	-16.635
挨	-16.635
探	-16.635
掲	-16.635
提	-16.635
故	-16.635
斗	-16.635
斯	-16.635
新	-16.635
早	-16.635
昌	-16.635
星	-16.635
昴	-16.635
普	-16.635
會	-16.635
有	-16.635
望	-16.635
朝	-16.635
机	-16.635
村	-16.635
林	-16.635
株	-16.635
格	-16.635
椰	-16.635
業	-16.635
概	-16.635
構	-16.635
横	-16.635
機	-16.635
歳	-16.635
残	-16.635
毛	-16.635
民	-16.635
气	-16.635
永	-16.635
沖	-16.635
没	-16.635
河	-16.635
治	-16.635
注	-16.635
泰	-16.635
浜	-16.635
淮	-16.635
渡	-16.635
湖	-16.635
演	-16.635
燼	-16.635
甘	-16.635
町	-16.635
画	-16.635
登	-16.635
盘	-16.635
眉	-16.635
码	-16.635
礦	-16.635
祐	-16.635
离	-16.635
私	-16.635
秘	-16.635
稳	-16.635
站	-16.635
等	-16.635
糞	-16.635
紇	-16.635
红	-16.635
线	-16.635
考	-16.635
腕	-16.635
舞	-16.635
航	-16.635
良	-16.635
華	-16.635
葵	-16.635
藏	-16.635
蛋	-16.635
蠟	-16.635
衛	-16.635
袖	-16.635
裏	-16.635
製	-16.635
西	-16.635
要	-16.635
見	-16.635
见	-16.635
誉	-16.635
説	-16.635
識	-16.635
让	-16.635
记	-16.635
语	-16.635
课	-16.635
豚	-16.635
象	-16.635
貸	-16.635
費	-16.635
賃	-16.635
賞	-16.635
趋	-16.635
車	-16.635
軒	-16.635
载	-16.635
辉	-16.635
辺	-16.635
迴	-16.635
迹	-16.635
進	-16.635
都	-16.635
配	-16.635
里	-16.635
鑑	-16.635
银	-16.635
镇	-16.635
长	-16.635
関	-16.635
问	-16.635
陝	-16.635
雑	-16.635
電	-16.635
面	-16.635
韬	-16.635
響	-16.635
題	-16.635
颚	-16.635
駅	-16.635
鵬	-16.635
黄	-16.635
龶	-16.635
꧂	-16.635
갤	-16.635
걸	-16.635
것	-16.635
격	-16.635
계	-16.635
골	-16.635
공	-16.635
과	-16.635
관	-16.635
교	-16.635
굴	-16.635
긋	-16.635
긱	-16.635
끼	-16.635
달	-16.635
답	-16.635
더	-16.635
돈	-16.635
둥	-16.635
딩	-16.635
떻	-16.635
또	-16.635
뚜	-16.635
뚝	-16.635
랑	-16.635
래	-16.635
랫	-16.635
러	-16.635
렘	-16.635
류	-16.635
를	-16.635
림	-16.635
릿	-16.635
마	-16.635
매	-16.635
며	-16.635
명	-16.635
몽	-16.635
문	-16.635
뭘	-16.635
뮤	-16.635
백	-16.635
밴	-16.635
버	-16.635
번	-16.635
벼	-16.635
변	-16.635
병	-16.635
불	-16.635
븐	-16.635
뻐	-16.635
뿌	-16.635
생	-16.635
석	-16.635
설	-16.635
성	-16.635
송	-16.635
슨	-16.635
승	-16.635
식	-16.635
실	-16.635
싼	-16.635
쌍	-16.635
양	-16.635
업	-16.635
에	-16.635
엘	-16.635
엥	-16.635
여	-16.635
열	-16.635
옷	-16.635
와	-16.635
용	-16.635
울	-16.635
웆	-16.635
월	-16.635
윤	-16.635
율	-16.635
응	-16.635
일	-16.635
재	-16.635
적	-16.635
조	-16.635
죄	-16.635
죻	-16.635
진	-16.635
짱	-16.635
찌	-16.635
차	-16.635
찾	-16.635
채	-16.635
청	-16.635
체	-16.635
침	-16.635
칩	-16.635
칫	-16.635
카	-16.635
커	-16.635
케	-16.635
코	-16.635
콕	-16.635
키	-16.635
탄	-16.635
탓	-16.635
터	-16.635
틴	-16.635
팅	-16.635
팝	-16.635
펄	-16.635
평	-16.635
플	-16.635
픽	-16.635
학	-16.635
항	-16.635
햄	-16.635
혀	-16.635
혜	-16.635
호	-16.635
홈	-16.635
홍	-16.635
횒	-16.635
횗	-16.635
횜	-16.635
흐	-16.635
흥	-16.635
￼	-16.635
𖢘	-16.635
🆕	-16.635
🇫	-16.635
🇸	-16.635
🇽	-16.635
🌃	-16.635
🌄	-16.635
🌅	-16.635
🌍	-16.635
🌐	-16.635
🌡	-16.635
🌻	-16.635
🍁	-16.635
🍇	-16.635
🍑	-16.635
🍞	-16.635
🍩	-16.635
🍯	-16.635
🍰	-16.635
🍱	-16.635
🍹	-16.635
🍽	-16.635
🍾	-16.635
🎀	-16.635
🎄	-16.635
🎬	-16.635
🎶	-16.635
🏆	-16.635
🏋	-16.635
🏣	-16.635
🏦	-16.635
🏼	-16.635
👑	-16.635
👦	-16.635
👧	-16.635
👽	-16.635
💀	-16.635
💉	-16.635
💋	-16.635
💐	-16.635
💔	-16.635
💕	-16.635
💝	-16.635
💡	-16.635
💢	-16.635
💩	-16.635
💪	-16.635
💸	-16.635
💻	-16.635
💼	-16.635
📁	-16.635
📅	-16.635
📕	-16.635
📖	-16.635
📦	-16.635
📱	-16.635
📷	-16.635
🔄	-16.635
🕑	-16.635
🕘	-16.635
🕯	-16.635
🖐	-16.635
🖤	-16.635
🗓	-16.635
😄	-16.635
😈	-16.635
😐	-16.635
😑	-16.635
😡	-16.635
😥	-16.635
😩	-16.635
😫	-16.635
😮	-16.635
😰	-16.635
😲	-16.635
😶	-16.635
😷	-16.635
🙆	-16.635
🙋	-16.635
🙎	-16.635
🚀	-16.635
🚘	-16.635
🚩	-16.635
🛍	-16.635
🛑	-16.635
🛒	-16.635
🛡	-16.635
🤍	-16.635
🤓	-16.635
🤡	-16.635
🤫	-16.635
🥄	-16.635
🦊	-16.635
🦋	-16.635
🧤	-16.635
🧨	-16.635
ř	-16.635
ӑ	-16.635
ӝ	-16.635
╒	-16.635
⚕	-16.635
玉	-16.635
郑	-16.635
만	-16.635
섭	-16.635
있	-16.635
🍀	-16.635
📲	-16.635
🔹	-16.635
Ê	-16.635
ę	-16.635
Κ	-16.635
Ң	-16.635
Ұ	-16.635
ز	-16.635
ᅮ	-16.635
ᅵ	-16.635
ᠹ	-16.635
ᴄ	-16.635
ほ	-16.635
不	-16.635
卡	-16.635
参	-16.635
命	-16.635
开	-16.635
戒	-16.635
戰	-16.635
指	-16.635
暲	-16.635
更	-16.635
査	-16.635
沿	-16.635
洛	-16.635
留	-16.635
米	-16.635
連	-16.635
過	-16.635
가	-16.635
갑	-16.635
겠	-16.635
단	-16.635
려	-16.635
룰	-16.635
먹	-16.635
메	-16.635
반	-16.635
베	-16.635
뷔	-16.635
블	-16.635
빈	-16.635
상	-16.635
숙	-16.635
습	-16.635
왔	-16.635
외	-16.635
워	-16.635
잘	-16.635
찡	-16.635
콧	-16.635
퍼	-16.635
푸	-16.635
ŧ	-16.635
ɇ	-16.635
̸	-16.635
τ	-16.635
լ	-16.635
ᵯ	-16.635
ゼ	-16.635
么	-16.635
今	-16.635
企	-16.635
伊	-16.635
位	-16.635
何	-16.635
你	-16.635
僕	-16.635
划	-16.635
務	-16.635
博	-16.635
士	-16.635
夜	-16.635
履	-16.635
帮	-16.635
必	-16.635
忙	-16.635
怎	-16.635
斥	-16.635
洞	-16.635
漏	-16.635
百	-16.635
破	-16.635
能	-16.635
藤	-16.635
计	-16.635
输	-16.635
运	-16.635
逢	-16.635
间	-16.635
阒	-16.635
际	-16.635
随	-16.635
ђ	-16.635
付	-16.635
停	-16.635
健	-16.635
別	-16.635
售	-16.635
型	-16.635
帯	-16.635
庆	-16.635
康	-16.635
改	-16.635
特	-16.635
給	-16.635
臨	-16.635
親	-16.635
还	-16.635
险	-16.635
