{
  "version": "1.0",
  "truncation": null,
  "padding": null,
  "added_tokens": [
    {
      "id": 0,
      "content": "[UNK]",
      "single_word": false,
      "lstrip": false,
      "rstrip": false,
      "normalized": false,
      "special": true
    },
    {
      "id": 1,
      "content": "[CLS]",
      "single_word": false,
      "lstrip": false,
      "rstrip": false,
      "normalized": false,
      "special": true
    },
    {
      "id": 2,
      "content": "[SEP]",
      "single_word": false,
      "lstrip": false,
      "rstrip": false,
      "normalized": false,
      "special": true
    },
    {
      "id": 3,
      "content": "[PAD]",
      "single_word": false,
      "lstrip": false,
      "rstrip": false,
      "normalized": false,
      "special": true
    },
    {
      "id": 4,
      "content": "[MASK]",
      "single_word": false,
      "lstrip": false,
      "rstrip": false,
      "normalized": false,
      "special": true
    }
  ],
  "normalizer": {
    "type": "Sequence",
    "normalizers": [
      {
        "type": "NFKC"
      },
      {
        "type": "Lowercase"
      }
    ]
  },
  "pre_tokenizer": {
    "type": "Whitespace"
  },
  "post_processor": null,
  "decoder": {
    "type": "WordPiece",
    "prefix": "##",
    "cleanup": true
  },
  "model": {
    "type": "WordPiece",
    "unk_token": "[UNK]",
    "continuing_subword_prefix": "##",
    "max_input_chars_per_word": 100,
    "vocab": {
      "[UNK]": 0,
      "[CLS]": 1,
      "[SEP]": 2,
      "[PAD]": 3,
      "[MASK]": 4,
      "!": 5,
      "\"": 6,
      "#": 7,
      "$": 8,
      "%": 9,
      "&": 10,
      "'": 11,
      "(": 12,
      ")": 13,
      "*": 14,
      "+": 15,
      ",": 16,
      "-": 17,
      ".": 18,
      "/": 19,
      "0": 20,
      "1": 21,
      "2": 22,
      "3": 23,
      "4": 24,
      "5": 25,
      "6": 26,
      "7": 27,
      "8": 28,
      "9": 29,
      ":": 30,
      ";": 31,
      "<": 32,
      "=": 33,
      ">": 34,
      "?": 35,
      "@": 36,
      "[": 37,
      "\\": 38,
      "]": 39,
      "^": 40,
      "_": 41,
      "a": 42,
      "b": 43,
      "c": 44,
      "d": 45,
      "e": 46,
      "f": 47,
      "g": 48,
      "h": 49,
      "i": 50,
      "j": 51,
      "k": 52,
      "l": 53,
      "m": 54,
      "n": 55,
      "o": 56,
      "p": 57,
      "q": 58,
      "r": 59,
      "s": 60,
      "t": 61,
      "u": 62,
      "v": 63,
      "w": 64,
      "x": 65,
      "y": 66,
      "z": 67,
      "{": 68,
      "|": 69,
      "}": 70,
      "~": 71,
      "¢": 72,
      "£": 73,
      "¤": 74,
      "¥": 75,
      "¦": 76,
      "§": 77,
      "©": 78,
      "¬": 79,
      "®": 80,
      "°": 81,
      "±": 82,
      "¶": 83,
      "·": 84,
      "¿": 85,
      "×": 86,
      "ß": 87,
      "à": 88,
      "á": 89,
      "â": 90,
      "ã": 91,
      "ä": 92,
      "å": 93,
      "æ": 94,
      "ç": 95,
      "è": 96,
      "é": 97,
      "ê": 98,
      "ë": 99,
      "ì": 100,
      "í": 101,
      "î": 102,
      "ï": 103,
      "ð": 104,
      "ñ": 105,
      "ò": 106,
      "ó": 107,
      "ô": 108,
      "õ": 109,
      "ö": 110,
      "÷": 111,
      "ø": 112,
      "ú": 113,
      "û": 114,
      "ü": 115,
      "ý": 116,
      "þ": 117,
      "ÿ": 118,
      "ā": 119,
      "ă": 120,
      "ć": 121,
      "č": 122,
      "đ": 123,
      "ē": 124,
      "ĕ": 125,
      "ė": 126,
      "ę": 127,
      "ě": 128,
      "ğ": 129,
      "ī": 130,
      "į": 131,
      "ı": 132,
      "ĸ": 133,
      "ľ": 134,
      "ł": 135,
      "ń": 136,
      "ň": 137,
      "ō": 138,
      "œ": 139,
      "ř": 140,
      "ś": 141,
      "ş": 142,
      "š": 143,
      "ť": 144,
      "ŧ": 145,
      "ū": 146,
      "ů": 147,
      "ž": 148,
      "ƒ": 149,
      "ư": 150,
      "ǎ": 151,
      "ǐ": 152,
      "ǿ": 153,
      "ɇ": 154,
      "ɐ": 155,
      "ɑ": 156,
      "ɗ": 157,
      "ə": 158,
      "ɪ": 159,
      "ɲ": 160,
      "ɴ": 161,
      "ɵ": 162,
      "ʀ": 163,
      "ʏ": 164,
      "ʜ": 165,
      "ʟ": 166,
      "ˈ": 167,
      "ˌ": 168,
      "ː": 169,
      "˗": 170,
      "̀": 171,
      "́": 172,
      "̄": 173,
      "̇": 174,
      "̈": 175,
      "̌": 176,
      "̵": 177,
      "̷": 178,
      "̸": 179,
      "͜": 180,
      "͞": 181,
      "ά": 182,
      "ή": 183,
      "ί": 184,
      "α": 185,
      "β": 186,
      "γ": 187,
      "δ": 188,
      "ε": 189,
      "η": 190,
      "θ": 191,
      "ι": 192,
      "κ": 193,
      "λ": 194,
      "μ": 195,
      "ν": 196,
      "ο": 197,
      "π": 198,
      "ρ": 199,
      "ς": 200,
      "σ": 201,
      "τ": 202,
      "υ": 203,
      "φ": 204,
      "ψ": 205,
      "ω": 206,
      "ό": 207,
      "ύ": 208,
      "ώ": 209,
      "а": 210,
      "б": 211,
      "в": 212,
      "г": 213,
      "д": 214,
      "е": 215,
      "ж": 216,
      "з": 217,
      "и": 218,
      "й": 219,
      "к": 220,
      "л": 221,
      "м": 222,
      "н": 223,
      "о": 224,
      "п": 225,
      "р": 226,
      "с": 227,
      "т": 228,
      "у": 229,
      "ф": 230,
      "х": 231,
      "ц": 232,
      "ч": 233,
      "ш": 234,
      "щ": 235,
      "ъ": 236,
      "ы": 237,
      "ь": 238,
      "э": 239,
      "ю": 240,
      "я": 241,
      "ѐ": 242,
      "ё": 243,
      "ђ": 244,
      "ѓ": 245,
      "є": 246,
      "ѕ": 247,
      "і": 248,
      "ї": 249,
      "ј": 250,
      "њ": 251,
      "ћ": 252,
      "ќ": 253,
      "ў": 254,
      "џ": 255,
      "ѳ": 256,
      "҉": 257,
      "ґ": 258,
      "ғ": 259,
      "ҕ": 260,
      "җ": 261,
      "қ": 262,
      "ҡ": 263,
      "ң": 264,
      "ҥ": 265,
      "ү": 266,
      "ұ": 267,
      "ҳ": 268,
      "ҷ": 269,
      "һ": 270,
      "ӄ": 271,
      "ӈ": 272,
      "ӏ": 273,
      "ӑ": 274,
      "ӓ": 275,
      "ә": 276,
      "ӝ": 277,
      "ӣ": 278,
      "ӧ": 279,
      "ө": 280,
      "ӯ": 281,
      "ӱ": 282,
      "ա": 283,
      "գ": 284,
      "դ": 285,
      "ե": 286,
      "զ": 287,
      "ը": 288,
      "ի": 289,
      "լ": 290,
      "խ": 291,
      "կ": 292,
      "ղ": 293,
      "մ": 294,
      "յ": 295,
      "ն": 296,
      "ո": 297,
      "չ": 298,
      "ս": 299,
      "վ": 300,
      "տ": 301,
      "ր": 302,
      "ց": 303,
      "ւ": 304,
      "ք": 305,
      "א": 306,
      "ב": 307,
      "ג": 308,
      "ה": 309,
      "ו": 310,
      "ז": 311,
      "ט": 312,
      "י": 313,
      "ל": 314,
      "מ": 315,
      "נ": 316,
      "ע": 317,
      "פ": 318,
      "ר": 319,
      "ת": 320,
      "،": 321,
      "؟": 322,
      "أ": 323,
      "إ": 324,
      "ا": 325,
      "ب": 326,
      "ة": 327,
      "ت": 328,
      "ج": 329,
      "ح": 330,
      "خ": 331,
      "د": 332,
      "ذ": 333,
      "ر": 334,
      "ز": 335,
      "س": 336,
      "ش": 337,
      "ص": 338,
      "ض": 339,
      "ط": 340,
      "ع": 341,
      "غ": 342,
      "ف": 343,
      "ق": 344,
      "ك": 345,
      "ل": 346,
      "م": 347,
      "ن": 348,
      "ه": 349,
      "و": 350,
      "ى": 351,
      "ي": 352,
      "َ": 353,
      "ک": 354,
      "ہ": 355,
      "ۇ": 356,
      "ی": 357,
      "ە": 358,
      "ं": 359,
      "इ": 360,
      "ए": 361,
      "क": 362,
      "ज": 363,
      "ब": 364,
      "र": 365,
      "ल": 366,
      "़": 367,
      "ा": 368,
      "ि": 369,
      "ै": 370,
      "१": 371,
      "४": 372,
      "७": 373,
      "९": 374,
      "অ": 375,
      "ই": 376,
      "ক": 377,
      "চ": 378,
      "ত": 379,
      "দ": 380,
      "ন": 381,
      "ব": 382,
      "র": 383,
      "া": 384,
      "ি": 385,
      "ু": 386,
      "ে": 387,
      "্": 388,
      "ਂ": 389,
      "ਕ": 390,
      "ਟ": 391,
      "ਪ": 392,
      "ਮ": 393,
      "ਰ": 394,
      "ਸ": 395,
      "ਹ": 396,
      "ਾ": 397,
      "ਿ": 398,
      "ੀ": 399,
      "ੂ": 400,
      "ੈ": 401,
      "ੌ": 402,
      "க": 403,
      "ட": 404,
      "ழ": 405,
      "ா": 406,
      "ி": 407,
      "ூ": 408,
      "ை": 409,
      "்": 410,
      "ೋ": 411,
      "ก": 412,
      "ค": 413,
      "ง": 414,
      "จ": 415,
      "ซ": 416,
      "ด": 417,
      "ต": 418,
      "ท": 419,
      "น": 420,
      "ฝ": 421,
      "พ": 422,
      "ฟ": 423,
      "ภ": 424,
      "ม": 425,
      "ย": 426,
      "ล": 427,
      "ว": 428,
      "ษ": 429,
      "ส": 430,
      "ห": 431,
      "ฬ": 432,
      "อ": 433,
      "ั": 434,
      "า": 435,
      "ิ": 436,
      "ี": 437,
      "ึ": 438,
      "เ": 439,
      "แ": 440,
      "โ": 441,
      "ใ": 442,
      "ไ": 443,
      "่": 444,
      "้": 445,
      "์": 446,
      "྆": 447,
      "࿐": 448,
      "တ": 449,
      "န": 450,
      "မ": 451,
      "လ": 452,
      "သ": 453,
      "ဦ": 454,
      "ိ": 455,
      "ု": 456,
      "ေ": 457,
      "့": 458,
      "း": 459,
      "္": 460,
      "်": 461,
      "ြ": 462,
      "၊": 463,
      "ᄀ": 464,
      "ᄂ": 465,
      "ᄅ": 466,
      "ᄆ": 467,
      "ᄇ": 468,
      "ᄋ": 469,
      "ᄏ": 470,
      "ᄒ": 471,
      "ᅮ": 472,
      "ᅲ": 473,
      "ᅳ": 474,
      "ᅵ": 475,
      "ᆞ": 476,
      "ᐉ": 477,
      "᠋": 478,
      "ᠠ": 479,
      "ᠡ": 480,
      "ᠢ": 481,
      "ᠤ": 482,
      "ᠥ": 483,
      "ᠦ": 484,
      "ᠨ": 485,
      "ᠫ": 486,
      "ᠬ": 487,
      "ᠭ": 488,
      "ᠮ": 489,
      "ᠯ": 490,
      "ᠰ": 491,
      "ᠱ": 492,
      "ᠳ": 493,
      "ᠴ": 494,
      "ᠵ": 495,
      "ᠶ": 496,
      "ᠷ": 497,
      "ᠹ": 498,
      "ᠻ": 499,
      "ᠼ": 500,
      "᭄": 501,
      "ᴀ": 502,
      "ᴄ": 503,
      "ᴇ": 504,
      "ᴍ": 505,
      "ᴜ": 506,
      "ᴠ": 507,
      "ᵯ": 508,
      "ᵴ": 509,
      "ḍ": 510,
      "ḥ": 511,
      "ṃ": 512,
      "ṅ": 513,
      "ṇ": 514,
      "ṭ": 515,
      "ẙ": 516,
      "ầ": 517,
      "ắ": 518,
      "ằ": 519,
      "ế": 520,
      "ễ": 521,
      "ớ": 522,
      "ờ": 523,
      "ἰ": 524,
      "‐": 525,
      "―": 526,
      "‖": 527,
      "†": 528,
      "‡": 529,
      "•": 530,
      "‣": 531,
      "‰": 532,
      "′": 533,
      "‹": 534,
      "›": 535,
      "※": 536,
      "⁄": 537,
      "₩": 538,
      "₪": 539,
      "€": 540,
      "₮": 541,
      "₹": 542,
      "₽": 543,
      "⃣": 544,
      "←": 545,
      "↑": 546,
      "→": 547,
      "↓": 548,
      "↔": 549,
      "↖": 550,
      "↙": 551,
      "↳": 552,
      "⇒": 553,
      "⇨": 554,
      "∂": 555,
      "∆": 556,
      "∈": 557,
      "−": 558,
      "∙": 559,
      "√": 560,
      "∞": 561,
      "≈": 562,
      "≠": 563,
      "≤": 564,
      "≥": 565,
      "≫": 566,
      "⋆": 567,
      "⋯": 568,
      "⌚": 569,
      "⎪": 570,
      "⏱": 571,
      "│": 572,
      "╒": 573,
      "╘": 574,
      "╟": 575,
      "╢": 576,
      "█": 577,
      "▍": 578,
      "■": 579,
      "□": 580,
      "▨": 581,
      "▪": 582,
      "▲": 583,
      "▶": 584,
      "►": 585,
      "▼": 586,
      "◆": 587,
      "◇": 588,
      "◊": 589,
      "○": 590,
      "●": 591,
      "◦": 592,
      "☀": 593,
      "☂": 594,
      "★": 595,
      "☆": 596,
      "☈": 597,
      "☎": 598,
      "☑": 599,
      "☔": 600,
      "☕": 601,
      "☘": 602,
      "☛": 603,
      "☝": 604,
      "☞": 605,
      "☤": 606,
      "☮": 607,
      "☹": 608,
      "☺": 609,
      "☻": 610,
      "♀": 611,
      "♂": 612,
      "♏": 613,
      "♔": 614,
      "♚": 615,
      "♛": 616,
      "♠": 617,
      "♡": 618,
      "♣": 619,
      "♥": 620,
      "♦": 621,
      "♪": 622,
      "♫": 623,
      "♻": 624,
      "⚃": 625,
      "⚕": 626,
      "⚙": 627,
      "⚠": 628,
      "⚡": 629,
      "⚫": 630,
      "⚽": 631,
      "✅": 632,
      "✈": 633,
      "✌": 634,
      "✍": 635,
      "✓": 636,
      "✔": 637,
      "✞": 638,
      "✨": 639,
      "✯": 640,
      "✿": 641,
      "❀": 642,
      "❂": 643,
      "❃": 644,
      "❄": 645,
      "❏": 646,
      "❖": 647,
      "❗": 648,
      "❤": 649,
      "❷": 650,
      "❹": 651,
      "❼": 652,
      "➜": 653,
      "➡": 654,
      "➢": 655,
      "➥": 656,
      "➳": 657,
      "⠀": 658,
      "⦁": 659,
      "⭐": 660,
      "⿱": 661,
      "、": 662,
      "。": 663,
      "《": 664,
      "》": 665,
      "「": 666,
      "」": 667,
      "『": 668,
      "』": 669,
      "【": 670,
      "】": 671,
      "〓": 672,
      "あ": 673,
      "い": 674,
      "う": 675,
      "え": 676,
      "お": 677,
      "か": 678,
      "が": 679,
      "き": 680,
      "ぎ": 681,
      "く": 682,
      "ぐ": 683,
      "け": 684,
      "げ": 685,
      "こ": 686,
      "ご": 687,
      "さ": 688,
      "ざ": 689,
      "し": 690,
      "じ": 691,
      "す": 692,
      "せ": 693,
      "そ": 694,
      "た": 695,
      "だ": 696,
      "ち": 697,
      "っ": 698,
      "つ": 699,
      "て": 700,
      "で": 701,
      "と": 702,
      "ど": 703,
      "な": 704,
      "に": 705,
      "ぬ": 706,
      "の": 707,
      "は": 708,
      "ば": 709,
      "ひ": 710,
      "ぶ": 711,
      "べ": 712,
      "ほ": 713,
      "ま": 714,
      "み": 715,
      "め": 716,
      "も": 717,
      "ゃ": 718,
      "や": 719,
      "ゅ": 720,
      "ゆ": 721,
      "ょ": 722,
      "よ": 723,
      "ら": 724,
      "り": 725,
      "る": 726,
      "れ": 727,
      "ろ": 728,
      "わ": 729,
      "を": 730,
      "ん": 731,
      "ィ": 732,
      "イ": 733,
      "ウ": 734,
      "カ": 735,
      "ガ": 736,
      "キ": 737,
      "ギ": 738,
      "ク": 739,
      "ゲ": 740,
      "コ": 741,
      "ゴ": 742,
      "サ": 743,
      "シ": 744,
      "ジ": 745,
      "セ": 746,
      "ゼ": 747,
      "ソ": 748,
      "タ": 749,
      "ダ": 750,
      "チ": 751,
      "ツ": 752,
      "ヅ": 753,
      "デ": 754,
      "ド": 755,
      "ナ": 756,
      "ニ": 757,
      "ハ": 758,
      "バ": 759,
      "ヒ": 760,
      "ビ": 761,
      "フ": 762,
      "ブ": 763,
      "ベ": 764,
      "ペ": 765,
      "マ": 766,
      "ミ": 767,
      "ム": 768,
      "モ": 769,
      "ャ": 770,
      "ョ": 771,
      "ラ": 772,
      "リ": 773,
      "ル": 774,
      "ン": 775,
      "・": 776,
      "ー": 777,
      "ㄍ": 778,
      "ㄎ": 779,
      "ㄟ": 780,
      "ㄨ": 781,
      "一": 782,
      "七": 783,
      "万": 784,
      "三": 785,
      "上": 786,
      "下": 787,
      "不": 788,
      "世": 789,
      "业": 790,
      "个": 791,
      "中": 792,
      "么": 793,
      "乐": 794,
      "也": 795,
      "二": 796,
      "云": 797,
      "互": 798,
      "交": 799,
      "京": 800,
      "人": 801,
      "今": 802,
      "介": 803,
      "仔": 804,
      "他": 805,
      "付": 806,
      "代": 807,
      "们": 808,
      "件": 809,
      "任": 810,
      "企": 811,
      "伊": 812,
      "休": 813,
      "众": 814,
      "会": 815,
      "位": 816,
      "住": 817,
      "何": 818,
      "作": 819,
      "你": 820,
      "使": 821,
      "便": 822,
      "係": 823,
      "保": 824,
      "信": 825,
      "修": 826,
      "俺": 827,
      "們": 828,
      "停": 829,
      "健": 830,
      "側": 831,
      "僕": 832,
      "優": 833,
      "儿": 834,
      "元": 835,
      "光": 836,
      "克": 837,
      "免": 838,
      "八": 839,
      "公": 840,
      "内": 841,
      "册": 842,
      "再": 843,
      "冯": 844,
      "出": 845,
      "分": 846,
      "划": 847,
      "別": 848,
      "前": 849,
      "势": 850,
      "動": 851,
      "勖": 852,
      "務": 853,
      "勧": 854,
      "包": 855,
      "化": 856,
      "北": 857,
      "医": 858,
      "十": 859,
      "午": 860,
      "华": 861,
      "南": 862,
      "博": 863,
      "卡": 864,
      "参": 865,
      "古": 866,
      "叫": 867,
      "召": 868,
      "台": 869,
      "号": 870,
      "合": 871,
      "名": 872,
      "向": 873,
      "吗": 874,
      "君": 875,
      "员": 876,
      "周": 877,
      "味": 878,
      "命": 879,
      "和": 880,
      "品": 881,
      "唐": 882,
      "售": 883,
      "唱": 884,
      "商": 885,
      "問": 886,
      "喵": 887,
      "器": 888,
      "回": 889,
      "団": 890,
      "図": 891,
      "国": 892,
      "图": 893,
      "國": 894,
      "圖": 895,
      "地": 896,
      "址": 897,
      "型": 898,
      "基": 899,
      "場": 900,
      "塑": 901,
      "塚": 902,
      "士": 903,
      "声": 904,
      "夂": 905,
      "変": 906,
      "夕": 907,
      "夜": 908,
      "夢": 909,
      "天": 910,
      "太": 911,
      "奇": 912,
      "奋": 913,
      "好": 914,
      "妹": 915,
      "委": 916,
      "姿": 917,
      "娱": 918,
      "子": 919,
      "字": 920,
      "学": 921,
      "宅": 922,
      "安": 923,
      "宗": 924,
      "定": 925,
      "室": 926,
      "宽": 927,
      "密": 928,
      "导": 929,
      "小": 930,
      "少": 931,
      "局": 932,
      "展": 933,
      "属": 934,
      "履": 935,
      "山": 936,
      "岩": 937,
      "峮": 938,
      "州": 939,
      "巡": 940,
      "巣": 941,
      "工": 942,
      "帝": 943,
      "带": 944,
      "帮": 945,
      "帯": 946,
      "平": 947,
      "年": 948,
      "庆": 949,
      "府": 950,
      "康": 951,
      "建": 952,
      "开": 953,
      "异": 954,
      "弦": 955,
      "当": 956,
      "录": 957,
      "形": 958,
      "彩": 959,
      "後": 960,
      "御": 961,
      "心": 962,
      "必": 963,
      "志": 964,
      "忘": 965,
      "忙": 966,
      "快": 967,
      "怎": 968,
      "恩": 969,
      "悔": 970,
      "您": 971,
      "悲": 972,
      "情": 973,
      "意": 974,
      "愛": 975,
      "憎": 976,
      "我": 977,
      "戒": 978,
      "戰": 979,
      "戸": 980,
      "手": 981,
      "打": 982,
      "払": 983,
      "抢": 984,
      "拶": 985,
      "指": 986,
      "挨": 987,
      "探": 988,
      "掲": 989,
      "提": 990,
      "改": 991,
      "故": 992,
      "文": 993,
      "斗": 994,
      "斥": 995,
      "斯": 996,
      "新": 997,
      "族": 998,
      "日": 999,
      "早": 1000,
      "时": 1001,
      "昌": 1002,
      "星": 1003,
      "是": 1004,
      "昴": 1005,
      "時": 1006,
      "普": 1007,
      "暲": 1008,
      "曜": 1009,
      "曲": 1010,
      "更": 1011,
      "書": 1012,
      "會": 1013,
      "月": 1014,
      "有": 1015,
      "望": 1016,
      "朝": 1017,
      "本": 1018,
      "机": 1019,
      "李": 1020,
      "村": 1021,
      "松": 1022,
      "林": 1023,
      "査": 1024,
      "株": 1025,
      "格": 1026,
      "椰": 1027,
      "楫": 1028,
      "業": 1029,
      "楽": 1030,
      "概": 1031,
      "構": 1032,
      "横": 1033,
      "機": 1034,
      "歌": 1035,
      "止": 1036,
      "歳": 1037,
      "残": 1038,
      "毛": 1039,
      "民": 1040,
      "气": 1041,
      "気": 1042,
      "水": 1043,
      "永": 1044,
      "江": 1045,
      "沖": 1046,
      "没": 1047,
      "河": 1048,
      "治": 1049,
      "沿": 1050,
      "法": 1051,
      "注": 1052,
      "泰": 1053,
      "洛": 1054,
      "洞": 1055,
      "流": 1056,
      "浙": 1057,
      "浜": 1058,
      "淮": 1059,
      "済": 1060,
      "渡": 1061,
      "湖": 1062,
      "漏": 1063,
      "演": 1064,
      "点": 1065,
      "照": 1066,
      "燼": 1067,
      "版": 1068,
      "牛": 1069,
      "特": 1070,
      "玉": 1071,
      "现": 1072,
      "理": 1073,
      "甘": 1074,
      "生": 1075,
      "用": 1076,
      "田": 1077,
      "町": 1078,
      "画": 1079,
      "留": 1080,
      "発": 1081,
      "登": 1082,
      "百": 1083,
      "的": 1084,
      "皇": 1085,
      "盘": 1086,
      "眉": 1087,
      "码": 1088,
      "破": 1089,
      "礦": 1090,
      "社": 1091,
      "祉": 1092,
      "祐": 1093,
      "神": 1094,
      "福": 1095,
      "离": 1096,
      "私": 1097,
      "秘": 1098,
      "称": 1099,
      "稳": 1100,
      "站": 1101,
      "等": 1102,
      "简": 1103,
      "管": 1104,
      "米": 1105,
      "糞": 1106,
      "紀": 1107,
      "紇": 1108,
      "経": 1109,
      "給": 1110,
      "線": 1111,
      "红": 1112,
      "线": 1113,
      "网": 1114,
      "美": 1115,
      "翻": 1116,
      "考": 1117,
      "者": 1118,
      "聲": 1119,
      "胡": 1120,
      "能": 1121,
      "腕": 1122,
      "臨": 1123,
      "自": 1124,
      "舞": 1125,
      "航": 1126,
      "良": 1127,
      "華": 1128,
      "葵": 1129,
      "蒙": 1130,
      "藏": 1131,
      "藤": 1132,
      "蘭": 1133,
      "蛋": 1134,
      "蠟": 1135,
      "行": 1136,
      "衛": 1137,
      "表": 1138,
      "袖": 1139,
      "裏": 1140,
      "製": 1141,
      "西": 1142,
      "要": 1143,
      "見": 1144,
      "視": 1145,
      "親": 1146,
      "见": 1147,
      "解": 1148,
      "言": 1149,
      "証": 1150,
      "話": 1151,
      "誉": 1152,
      "誌": 1153,
      "語": 1154,
      "説": 1155,
      "諸": 1156,
      "識": 1157,
      "讃": 1158,
      "计": 1159,
      "让": 1160,
      "记": 1161,
      "译": 1162,
      "语": 1163,
      "请": 1164,
      "读": 1165,
      "课": 1166,
      "豚": 1167,
      "象": 1168,
      "貸": 1169,
      "費": 1170,
      "賃": 1171,
      "資": 1172,
      "賞": 1173,
      "责": 1174,
      "趋": 1175,
      "路": 1176,
      "身": 1177,
      "車": 1178,
      "軒": 1179,
      "載": 1180,
      "輝": 1181,
      "软": 1182,
      "载": 1183,
      "辉": 1184,
      "输": 1185,
      "辺": 1186,
      "込": 1187,
      "达": 1188,
      "运": 1189,
      "近": 1190,
      "返": 1191,
      "还": 1192,
      "迴": 1193,
      "迹": 1194,
      "送": 1195,
      "通": 1196,
      "逢": 1197,
      "連": 1198,
      "進": 1199,
      "過": 1200,
      "達": 1201,
      "選": 1202,
      "郑": 1203,
      "部": 1204,
      "都": 1205,
      "配": 1206,
      "里": 1207,
      "重": 1208,
      "金": 1209,
      "鈴": 1210,
      "鑑": 1211,
      "钱": 1212,
      "银": 1213,
      "镇": 1214,
      "长": 1215,
      "間": 1216,
      "関": 1217,
      "门": 1218,
      "问": 1219,
      "间": 1220,
      "阒": 1221,
      "际": 1222,
      "陝": 1223,
      "险": 1224,
      "陳": 1225,
      "随": 1226,
      "際": 1227,
      "雑": 1228,
      "電": 1229,
      "面": 1230,
      "革": 1231,
      "韬": 1232,
      "音": 1233,
      "響": 1234,
      "題": 1235,
      "類": 1236,
      "颚": 1237,
      "駅": 1238,
      "马": 1239,
      "高": 1240,
      "鵬": 1241,
      "麦": 1242,
      "黄": 1243,
      "黑": 1244,
      "龙": 1245,
      "龶": 1246,
      "꧁": 1247,
      "꧂": 1248,
      "가": 1249,
      "갑": 1250,
      "갤": 1251,
      "거": 1252,
      "걸": 1253,
      "것": 1254,
      "게": 1255,
      "겠": 1256,
      "격": 1257,
      "경": 1258,
      "계": 1259,
      "고": 1260,
      "골": 1261,
      "공": 1262,
      "과": 1263,
      "관": 1264,
      "교": 1265,
      "구": 1266,
      "국": 1267,
      "굴": 1268,
      "권": 1269,
      "규": 1270,
      "긋": 1271,
      "기": 1272,
      "긱": 1273,
      "김": 1274,
      "끼": 1275,
      "나": 1276,
      "남": 1277,
      "내": 1278,
      "너": 1279,
      "노": 1280,
      "뉴": 1281,
      "는": 1282,
      "니": 1283,
      "다": 1284,
      "단": 1285,
      "달": 1286,
      "답": 1287,
      "대": 1288,
      "더": 1289,
      "도": 1290,
      "돈": 1291,
      "동": 1292,
      "둥": 1293,
      "딩": 1294,
      "떻": 1295,
      "또": 1296,
      "뚜": 1297,
      "뚝": 1298,
      "라": 1299,
      "랑": 1300,
      "래": 1301,
      "랫": 1302,
      "러": 1303,
      "렘": 1304,
      "려": 1305,
      "로": 1306,
      "루": 1307,
      "룬": 1308,
      "룰": 1309,
      "류": 1310,
      "르": 1311,
      "를": 1312,
      "리": 1313,
      "린": 1314,
      "림": 1315,
      "릿": 1316,
      "마": 1317,
      "만": 1318,
      "말": 1319,
      "매": 1320,
      "먹": 1321,
      "메": 1322,
      "며": 1323,
      "명": 1324,
      "모": 1325,
      "몽": 1326,
      "무": 1327,
      "문": 1328,
      "뭘": 1329,
      "뮤": 1330,
      "미": 1331,
      "민": 1332,
      "바": 1333,
      "반": 1334,
      "밥": 1335,
      "배": 1336,
      "백": 1337,
      "밴": 1338,
      "버": 1339,
      "번": 1340,
      "법": 1341,
      "베": 1342,
      "벼": 1343,
      "변": 1344,
      "병": 1345,
      "보": 1346,
      "부": 1347,
      "불": 1348,
      "뷔": 1349,
      "브": 1350,
      "븐": 1351,
      "블": 1352,
      "비": 1353,
      "빈": 1354,
      "뻐": 1355,
      "뿌": 1356,
      "사": 1357,
      "상": 1358,
      "새": 1359,
      "생": 1360,
      "서": 1361,
      "석": 1362,
      "선": 1363,
      "설": 1364,
      "섭": 1365,
      "성": 1366,
      "세": 1367,
      "송": 1368,
      "수": 1369,
      "숙": 1370,
      "스": 1371,
      "슨": 1372,
      "습": 1373,
      "승": 1374,
      "시": 1375,
      "식": 1376,
      "신": 1377,
      "실": 1378,
      "싼": 1379,
      "쌍": 1380,
      "아": 1381,
      "안": 1382,
      "알": 1383,
      "야": 1384,
      "양": 1385,
      "어": 1386,
      "업": 1387,
      "없": 1388,
      "에": 1389,
      "엘": 1390,
      "엥": 1391,
      "여": 1392,
      "역": 1393,
      "연": 1394,
      "열": 1395,
      "영": 1396,
      "예": 1397,
      "오": 1398,
      "올": 1399,
      "옷": 1400,
      "와": 1401,
      "왔": 1402,
      "외": 1403,
      "요": 1404,
      "용": 1405,
      "우": 1406,
      "울": 1407,
      "웆": 1408,
      "워": 1409,
      "원": 1410,
      "월": 1411,
      "유": 1412,
      "윤": 1413,
      "율": 1414,
      "으": 1415,
      "은": 1416,
      "을": 1417,
      "응": 1418,
      "의": 1419,
      "이": 1420,
      "인": 1421,
      "일": 1422,
      "있": 1423,
      "자": 1424,
      "잘": 1425,
      "장": 1426,
      "재": 1427,
      "저": 1428,
      "적": 1429,
      "전": 1430,
      "정": 1431,
      "제": 1432,
      "조": 1433,
      "죄": 1434,
      "죻": 1435,
      "주": 1436,
      "즈": 1437,
      "지": 1438,
      "직": 1439,
      "진": 1440,
      "짓": 1441,
      "짱": 1442,
      "찌": 1443,
      "찡": 1444,
      "차": 1445,
      "창": 1446,
      "찾": 1447,
      "채": 1448,
      "청": 1449,
      "체": 1450,
      "초": 1451,
      "최": 1452,
      "침": 1453,
      "칩": 1454,
      "칫": 1455,
      "카": 1456,
      "커": 1457,
      "케": 1458,
      "코": 1459,
      "콕": 1460,
      "콧": 1461,
      "크": 1462,
      "키": 1463,
      "탄": 1464,
      "탓": 1465,
      "태": 1466,
      "탠": 1467,
      "터": 1468,
      "토": 1469,
      "통": 1470,
      "튜": 1471,
      "트": 1472,
      "티": 1473,
      "틴": 1474,
      "팅": 1475,
      "팝": 1476,
      "퍼": 1477,
      "펄": 1478,
      "평": 1479,
      "폰": 1480,
      "푸": 1481,
      "플": 1482,
      "픽": 1483,
      "하": 1484,
      "학": 1485,
      "한": 1486,
      "함": 1487,
      "항": 1488,
      "해": 1489,
      "햄": 1490,
      "혀": 1491,
      "현": 1492,
      "혜": 1493,
      "호": 1494,
      "홈": 1495,
      "홍": 1496,
      "화": 1497,
      "횊": 1498,
      "회": 1499,
      "횒": 1500,
      "횗": 1501,
      "횜": 1502,
      "후": 1503,
      "훈": 1504,
      "흐": 1505,
      "흥": 1506,
      "희": 1507,
      "︎": 1508,
      "️": 1509,
      "￼": 1510,
      "�": 1511,
      "𖢘": 1512,
      "🆕": 1513,
      "🇫": 1514,
      "🇰": 1515,
      "🇲": 1516,
      "🇳": 1517,
      "🇷": 1518,
      "🇸": 1519,
      "🇺": 1520,
      "🇽": 1521,
      "🌃": 1522,
      "🌄": 1523,
      "🌅": 1524,
      "🌈": 1525,
      "🌍": 1526,
      "🌐": 1527,
      "🌙": 1528,
      "🌟": 1529,
      "🌡": 1530,
      "🌱": 1531,
      "🌳": 1532,
      "🌸": 1533,
      "🌻": 1534,
      "🍀": 1535,
      "🍁": 1536,
      "🍇": 1537,
      "🍑": 1538,
      "🍞": 1539,
      "🍩": 1540,
      "🍯": 1541,
      "🍰": 1542,
      "🍱": 1543,
      "🍷": 1544,
      "🍹": 1545,
      "🍽": 1546,
      "🍾": 1547,
      "🎀": 1548,
      "🎁": 1549,
      "🎄": 1550,
      "🎧": 1551,
      "🎬": 1552,
      "🎯": 1553,
      "🎶": 1554,
      "🏆": 1555,
      "🏋": 1556,
      "🏠": 1557,
      "🏣": 1558,
      "🏦": 1559,
      "🏻": 1560,
      "🏼": 1561,
      "👀": 1562,
      "👉": 1563,
      "👍": 1564,
      "👎": 1565,
      "👏": 1566,
      "👐": 1567,
      "👑": 1568,
      "👦": 1569,
      "👧": 1570,
      "👨": 1571,
      "👩": 1572,
      "👷": 1573,
      "👽": 1574,
      "💀": 1575,
      "💁": 1576,
      "💃": 1577,
      "💅": 1578,
      "💉": 1579,
      "💋": 1580,
      "💎": 1581,
      "💐": 1582,
      "💔": 1583,
      "💕": 1584,
      "💙": 1585,
      "💚": 1586,
      "💜": 1587,
      "💝": 1588,
      "💡": 1589,
      "💢": 1590,
      "💥": 1591,
      "💩": 1592,
      "💪": 1593,
      "💫": 1594,
      "💯": 1595,
      "💰": 1596,
      "💵": 1597,
      "💸": 1598,
      "💻": 1599,
      "💼": 1600,
      "📁": 1601,
      "📅": 1602,
      "📌": 1603,
      "📍": 1604,
      "📎": 1605,
      "📕": 1606,
      "📖": 1607,
      "📞": 1608,
      "📣": 1609,
      "📦": 1610,
      "📱": 1611,
      "📲": 1612,
      "📷": 1613,
      "🔄": 1614,
      "🔅": 1615,
      "🔊": 1616,
      "🔌": 1617,
      "🔑": 1618,
      "🔥": 1619,
      "🔬": 1620,
      "🔰": 1621,
      "🔴": 1622,
      "🔵": 1623,
      "🔶": 1624,
      "🔸": 1625,
      "🔹": 1626,
      "🕑": 1627,
      "🕘": 1628,
      "🕯": 1629,
      "🖐": 1630,
      "🖤": 1631,
      "🗃": 1632,
      "🗓": 1633,
      "😀": 1634,
      "😁": 1635,
      "😂": 1636,
      "😃": 1637,
      "😄": 1638,
      "😅": 1639,
      "😆": 1640,
      "😇": 1641,
      "😈": 1642,
      "😉": 1643,
      "😊": 1644,
      "😋": 1645,
      "😍": 1646,
      "😎": 1647,
      "😐": 1648,
      "😑": 1649,
      "😓": 1650,
      "😔": 1651,
      "😘": 1652,
      "😛": 1653,
      "😜": 1654,
      "😝": 1655,
      "😡": 1656,
      "😢": 1657,
      "😥": 1658,
      "😦": 1659,
      "😩": 1660,
      "😫": 1661,
      "😭": 1662,
      "😮": 1663,
      "😰": 1664,
      "😱": 1665,
      "😲": 1666,
      "😶": 1667,
      "😷": 1668,
      "🙁": 1669,
      "🙂": 1670,
      "🙃": 1671,
      "🙆": 1672,
      "🙋": 1673,
      "🙌": 1674,
      "🙎": 1675,
      "🙏": 1676,
      "🚀": 1677,
      "🚗": 1678,
      "🚘": 1679,
      "🚩": 1680,
      "🚫": 1681,
      "🛍": 1682,
      "🛑": 1683,
      "🛒": 1684,
      "🛡": 1685,
      "🛫": 1686,
      "🤍": 1687,
      "🤑": 1688,
      "🤓": 1689,
      "🤔": 1690,
      "🤗": 1691,
      "🤘": 1692,
      "🤟": 1693,
      "🤡": 1694,
      "🤣": 1695,
      "🤩": 1696,
      "🤪": 1697,
      "🤫": 1698,
      "🤮": 1699,
      "🥄": 1700,
      "🥇": 1701,
      "🥰": 1702,
      "🥳": 1703,
      "🥺": 1704,
      "🦉": 1705,
      "🦊": 1706,
      "🦋": 1707,
      "🦸": 1708,
      "🧤": 1709,
      "🧨": 1710,
      "🧼": 1711,
      "##а": 1712,
      "##н": 1713,
      "##и": 1714,
      "##л": 1715,
      "##ц": 1716,
      "##у": 1717,
      "##в": 1718,
      "##з": 1719,
      "##ы": 1720,
      "##е": 1721,
      "##ь": 1722,
      "##г": 1723,
      "##о": 1724,
      "##й": 1725,
      "##с": 1726,
      "##д": 1727,
      "##р": 1728,
      "##ж": 1729,
      "##т": 1730,
      "##э": 1731,
      "##e": 1732,
      "##p": 1733,
      "##t": 1734,
      "##m": 1735,
      "##b": 1736,
      "##r": 1737,
      "##х": 1738,
      "##ү": 1739,
      "##i": 1740,
      "##c": 1741,
      "##k": 1742,
      "##ө": 1743,
      "##м": 1744,
      "##я": 1745,
      "##.": 1746,
      "##\"": 1747,
      "##)": 1748,
      "##o": 1749,
      "##y": 1750,
      "##x": 1751,
      "##ч": 1752,
      "##f": 1753,
      "##g": 1754,
      "##h": 1755,
      "##s": 1756,
      "##п": 1757,
      "##б": 1758,
      "##к": 1759,
      "##ш": 1760,
      "##n": 1761,
      "##є": 1762,
      "##3": 1763,
      "##a": 1764,
      "##现": 1765,
      "##ѳ": 1766,
      "##1": 1767,
      "##u": 1768,
      "##ю": 1769,
      "##ё": 1770,
      "##ҥ": 1771,
      "##v": 1772,
      "##l": 1773,
      "##+": 1774,
      "##d": 1775,
      "###": 1776,
      "##ф": 1777,
      "##🇳": 1778,
      "##5": 1779,
      "##җ": 1780,
      "##і": 1781,
      "##8": 1782,
      "##9": 1783,
      "##ъ": 1784,
      "##]": 1785,
      "##2": 1786,
      "##ý": 1787,
      "##һ": 1788,
      "##-": 1789,
      "##7": 1790,
      "##z": 1791,
      "##*": 1792,
      "##w": 1793,
      "##0": 1794,
      "##q": 1795,
      "##6": 1796,
      "##j": 1797,
      "##4": 1798,
      "##際": 1799,
      "##経": 1800,
      "##済": 1801,
      "##学": 1802,
      "##部": 1803,
      "##_": 1804,
      "##ї": 1805,
      "##́": 1806,
      "##어": 1807,
      "##제": 1808,
      "##이": 1809,
      "##미": 1810,
      "##ي": 1811,
      "##م": 1812,
      "##ن": 1813,
      "##ك": 1814,
      "##世": 1815,
      "##紀": 1816,
      "##に": 1817,
      "##お": 1818,
      "##け": 1819,
      "##る": 1820,
      "##モ": 1821,
      "##ン": 1822,
      "##ゴ": 1823,
      "##ル": 1824,
      "##諸": 1825,
      "##族": 1826,
      "##の": 1827,
      "##文": 1828,
      "##字": 1829,
      "##改": 1830,
      "##革": 1831,
      "##つ": 1832,
      "##い": 1833,
      "##て": 1834,
      "##タ": 1835,
      "##ー": 1836,
      "##щ": 1837,
      "##ó": 1838,
      "##ҡ": 1839,
      "##ҕ": 1840,
      "##浜": 1841,
      "##駅": 1842,
      "##ü": 1843,
      "##š": 1844,
      "##ð": 1845,
      "##ñ": 1846,
      "##じ": 1847,
      "##ょ": 1848,
      "##う": 1849,
      "##ぐ": 1850,
      "##ち": 1851,
      "##찌": 1852,
      "##龙": 1853,
      "##江": 1854,
      "##时": 1855,
      "##彩": 1856,
      "##阒": 1857,
      "##?": 1858,
      "##暲": 1859,
      "##陝": 1860,
      "##燼": 1861,
      "##勖": 1862,
      "##ѕ": 1863,
      "##џ": 1864,
      "##á": 1865,
      "##န": 1866,
      "##့": 1867,
      "##်": 1868,
      "##・": 1869,
      "##。": 1870,
      "##」": 1871,
      "##ә": 1872,
      "##î": 1873,
      "##=": 1874,
      "##☺": 1875,
      "##ђ": 1876,
      "##ん": 1877,
      "##げ": 1878,
      "##ö": 1879,
      "##ң": 1880,
      "##!": 1881,
      "##직": 1882,
      "##à": 1883,
      "##書": 1884,
      "##🏆": 1885,
      "##:": 1886,
      "##ë": 1887,
      "##な": 1888,
      "##た": 1889,
      "##と": 1890,
      "##生": 1891,
      "##き": 1892,
      "##れ": 1893,
      "##ն": 1894,
      "##ք": 1895,
      "##🗃": 1896,
      "##🔌": 1897,
      "##;": 1898,
      "##🌃": 1899,
      "##題": 1900,
      "##意": 1901,
      "##識": 1902,
      "##α": 1903,
      "##η": 1904,
      "##¬": 1905,
      "##æ": 1906,
      "##ì": 1907,
      "##è": 1908,
      "##é": 1909,
      "##í": 1910,
      "##청": 1911,
      "##ã": 1912,
      "##/": 1913,
      "##イ": 1914,
      "##カ": 1915,
      "##湖": 1916,
      "##ô": 1917,
      "##'": 1918,
      "##\\": 1919,
      "##~": 1920,
      "##ャ": 1921,
      "##ク": 1922,
      "##ニ": 1923,
      "##チ": 1924,
      "##ソ": 1925,
      "##ウ": 1926,
      "##칫": 1927,
      "##ہ": 1928,
      "##ا": 1929,
      "##̄": 1930,
      "##🦋": 1931,
      "##🌸": 1932,
      "##ա": 1933,
      "##ս": 1934,
      "##մ": 1935,
      "##ե": 1936,
      "##կ": 1937,
      "##便": 1938,
      "##斥": 1939,
      "##责": 1940,
      "##人": 1941,
      "##怎": 1942,
      "##么": 1943,
      "##行": 1944,
      "##ä": 1945,
      "##қ": 1946,
      "##뻐": 1947,
      "##요": 1948,
      "##带": 1949,
      "##一": 1950,
      "##路": 1951,
      "##̇": 1952,
      "##ø": 1953,
      "##,": 1954,
      "##라": 1955,
      "##ā": 1956,
      "##ś": 1957,
      "##û": 1958,
      "##蛋": 1959,
      "##ò": 1960,
      "##골": 1961,
      "##뉴": 1962,
      "##스": 1963,
      "##太": 1964,
      "##宗": 1965,
      "##[": 1966,
      "##ㄟ": 1967,
      "##르": 1968,
      "##식": 1969,
      "##ł": 1970,
      "##엥": 1971,
      "##ӈ": 1972,
      "##古": 1973,
      "##国": 1974,
      "##交": 1975,
      "##通": 1976,
      "##运": 1977,
      "##输": 1978,
      "##ş": 1979,
      "##ı": 1980,
      "##😇": 1981,
      "##ل": 1982,
      "##č": 1983,
      "##ћ": 1984,
      "##間": 1985,
      "##🏻": 1986,
      "##姿": 1987,
      "##ѐ": 1988,
      "##ゆ": 1989,
      "##歳": 1990,
      "##{": 1991,
      "##ï": 1992,
      "##召": 1993,
      "##し": 1994,
      "##上": 1995,
      "##が": 1996,
      "##り": 1997,
      "##く": 1998,
      "##だ": 1999,
      "##さ": 2000,
      "##õ": 2001,
      "##ע": 2002,
      "##ר": 2003,
      "##י": 2004,
      "##ご": 2005,
      "##え": 2006,
      "##ゅ": 2007,
      "##ɪ": 2008,
      "##ᴇ": 2009,
      "##ɴ": 2010,
      "##}": 2011,
      "##ă": 2012,
      "##ص": 2013,
      "##ط": 2014,
      "##ف": 2015,
      "##ى": 2016,
      "##ў": 2017,
      "##ǐ": 2018,
      "##万": 2019,
      "##蒙": 2020,
      "##图": 2021,
      "##格": 2022,
      "##里": 2023,
      "##克": 2024,
      "##ѓ": 2025,
      "##💥": 2026,
      "##ど": 2027,
      "##ゃ": 2028,
      "##よ": 2029,
      "##信": 2030,
      "##こ": 2031,
      "##か": 2032,
      "##で": 2033,
      "##â": 2034,
      "##지": 2035,
      "##니": 2036,
      "##태": 2037,
      "##ế": 2038,
      "##语": 2039,
      "##ま": 2040,
      "##す": 2041,
      "##와": 2042,
      "##나": 2043,
      "##화": 2044,
      "##찡": 2045,
      "##긋": 2046,
      "##ค": 2047,
      "##้": 2048,
      "##ด": 2049,
      "##เ": 2050,
      "##พ": 2051,
      "##ล": 2052,
      "##ง": 2053,
      "##א": 2054,
      "##å": 2055,
      "##튜": 2056,
      "##브": 2057,
      "##♥": 2058,
      "##(": 2059,
      "##○": 2060,
      "##^": 2061,
      "##辺": 2062,
      "##祐": 2063,
      "##ˈ": 2064,
      "##ɐ": 2065,
      "##ʜ": 2066,
      "##ʀ": 2067,
      "##ʏ": 2068,
      "##國": 2069,
      "##礦": 2070,
      "##山": 2071,
      "##展": 2072,
      "##會": 2073,
      "##는": 2074,
      "##ṃ": 2075,
      "##و": 2076,
      "##د": 2077,
      "##ر": 2078,
      "##ة": 2079,
      "##원": 2080,
      "##희": 2081,
      "##ろ": 2082,
      "##は": 2083,
      "##自": 2084,
      "##あ": 2085,
      "##长": 2086,
      "##ㄨ": 2087,
      "##航": 2088,
      "##际": 2089,
      "##平": 2090,
      "##台": 2091,
      "##表": 2092,
      "##裏": 2093,
      "##紇": 2094,
      "##뷔": 2095,
      "##ิ": 2096,
      "##♦": 2097,
      "##せ": 2098,
      "##過": 2099,
      "##査": 2100,
      "##証": 2101,
      "##ᄏ": 2102,
      "##경": 2103,
      "##훈": 2104,
      "##돈": 2105,
      "##장": 2106,
      "##야": 2107,
      "##@": 2108,
      "##서": 2109,
      "##율": 2110,
      "##唱": 2111,
      "##회": 2112,
      "##ě": 2113,
      "##°": 2114,
      "##ː": 2115,
      "##ə": 2116,
      "##♠": 2117,
      "##️": 2118,
      "##務": 2119,
      "##局": 2120,
      "##提": 2121,
      "##出": 2122,
      "##類": 2123,
      "##御": 2124,
      "##妹": 2125,
      "##γ": 2126,
      "##ざ": 2127,
      "##민": 2128,
      "##규": 2129,
      "##🥺": 2130,
      "##₪": 2131,
      "##情": 2132,
      "##味": 2133,
      "##儿": 2134,
      "##没": 2135,
      "##有": 2136,
      "##聲": 2137,
      "##免": 2138,
      "##費": 2139,
      "##下": 2140,
      "##載": 2141,
      "##華": 2142,
      "##商": 2143,
      "##場": 2144,
      "##ќ": 2145,
      "##ذ": 2146,
      "##达": 2147,
      "##👏": 2148,
      "##ӏ": 2149,
      "##ح": 2150,
      "##も": 2151,
      "##本": 2152,
      "##和": 2153,
      "##音": 2154,
      "##μ": 2155,
      "##⃣": 2156,
      "##ÿ": 2157,
      "##望": 2158,
      "##塚": 2159,
      "##優": 2160,
      "##斗": 2161,
      "##β": 2162,
      "##ή": 2163,
      "##二": 2164,
      "##月": 2165,
      "##的": 2166,
      "##奇": 2167,
      "##迹": 2168,
      "##ひ": 2169,
      "##ה": 2170,
      "##פ": 2171,
      "##⠀": 2172,
      "##ฬ": 2173,
      "##还": 2174,
      "##型": 2175,
      "##健": 2176,
      "##康": 2177,
      "##险": 2178,
      "##停": 2179,
      "##售": 2180,
      "##间": 2181,
      "##ľ": 2182,
      "##ม": 2183,
      "##ใ": 2184,
      "##จ": 2185,
      "##語": 2186,
      "##挨": 2187,
      "##拶": 2188,
      "##😆": 2189,
      "##新": 2190,
      "##休": 2191,
      "##止": 2192,
      "##ᅲ": 2193,
      "##☘": 2194,
      "##❤": 2195,
      "##ਰ": 2196,
      "##ਿ": 2197,
      "##ਸ": 2198,
      "##ਮ": 2199,
      "##概": 2200,
      "##要": 2201,
      "##ờ": 2202,
      "##̌": 2203,
      "##ু": 2204,
      "##র": 2205,
      "##্": 2206,
      "##ক": 2207,
      "##ি": 2208,
      "##士": 2209,
      "##破": 2210,
      "##解": 2211,
      "##版": 2212,
      "##ұ": 2213,
      "##ṅ": 2214,
      "##տ": 2215,
      "##わ": 2216,
      "##현": 2217,
      "##숙": 2218,
      "##ᄀ": 2219,
      "##재": 2220,
      "##ո": 2221,
      "##ղ": 2222,
      "##լ": 2223,
      "##リ": 2224,
      "##용": 2225,
      "##하": 2226,
      "##기": 2227,
      "##😅": 2228,
      "##金": 2229,
      "##̀": 2230,
      "##통": 2231,
      "##糞": 2232,
      "##企": 2233,
      "##业": 2234,
      "##社": 2235,
      "##会": 2236,
      "##任": 2237,
      "##ɵ": 2238,
      "##を": 2239,
      "##📦": 2240,
      "##격": 2241,
      "##誌": 2242,
      "##💔": 2243,
      "##ゲ": 2244,
      "##内": 2245,
      "##作": 2246,
      "##業": 2247,
      "##管": 2248,
      "##理": 2249,
      "##者": 2250,
      "##>": 2251,
      "##化": 2252,
      "##보": 2253,
      "##세": 2254,
      "##غ": 2255,
      "##ی": 2256,
      "##ṭ": 2257,
      "##적": 2258,
      "##元": 2259,
      "##云": 2260,
      "##都": 2261,
      "##ę": 2262,
      "##载": 2263,
      "##ら": 2264,
      "##向": 2265,
      "##側": 2266,
      "##ै": 2267,
      "##ं": 2268,
      "##क": 2269,
      "##ύ": 2270,
      "##ρ": 2271,
      "##ν": 2272,
      "##ο": 2273,
      "##ς": 2274,
      "##😭": 2275,
      "##굴": 2276,
      "##ҳ": 2277,
      "##으": 2278,
      "##ւ": 2279,
      "##զ": 2280,
      "##펄": 2281,
      "##즈": 2282,
      "##설": 2283,
      "##류": 2284,
      "##マ": 2285,
      "##フ": 2286,
      "##ム": 2287,
      "##ド": 2288,
      "##ė": 2289,
      "##勧": 2290,
      "##め": 2291,
      "##해": 2292,
      "##린": 2293,
      "##ぶ": 2294,
      "##賃": 2295,
      "##貸": 2296,
      "##住": 2297,
      "##宅": 2298,
      "##떻": 2299,
      "##게": 2300,
      "##ğ": 2301,
      "##代": 2302,
      "##回": 2303,
      "##😍": 2304,
      "##ั": 2305,
      "##ก": 2306,
      "##ษ": 2307,
      "##์": 2308,
      "##田": 2309,
      "##ω": 2310,
      "##τ": 2311,
      "##φ": 2312,
      "##ί": 2313,
      "##😄": 2314,
      "##😊": 2315,
      "##흐": 2316,
      "##動": 2317,
      "##車": 2318,
      "##用": 2319,
      "##س": 2320,
      "##ғ": 2321,
      "##名": 2322,
      "##웆": 2323,
      "##주": 2324,
      "##송": 2325,
      "##ض": 2326,
      "##品": 2327,
      "##ī": 2328,
      "##ǎ": 2329,
      "##ば": 2330,
      "##連": 2331,
      "##ṇ": 2332,
      "##ḍ": 2333,
      "##胡": 2334,
      "##辉": 2335,
      "##林": 2336,
      "##ḥ": 2337,
      "##가": 2338,
      "##왔": 2339,
      "##다": 2340,
      "##🙏": 2341,
      "##☮": 2342,
      "##残": 2343,
      "##っ": 2344,
      "##룬": 2345,
      "##ը": 2346,
      "##🥄": 2347,
      "##ੈ": 2348,
      "##ੀ": 2349,
      "##$": 2350,
      "##ū": 2351,
      "##见": 2352,
      "##们": 2353,
      "##💼": 2354,
      "##초": 2355,
      "##코": 2356,
      "##릿": 2357,
      "##죻": 2358,
      "##아": 2359,
      "##먹": 2360,
      "##을": 2361,
      "##ூ": 2362,
      "##ழ": 2363,
      "##ை": 2364,
      "##க": 2365,
      "##்": 2366,
      "##ி": 2367,
      "##ட": 2368,
      "##ா": 2369,
      "##매": 2370,
      "##를": 2371,
      "##҉": 2372,
      "##͜": 2373,
      "##̸": 2374,
      "##̵": 2375,
      "##͞": 2376,
      "##读": 2377,
      "##🤪": 2378,
      "##시": 2379,
      "##며": 2380,
      "##ه": 2381,
      "##ґ": 2382,
      "##昌": 2383,
      "##נ": 2384,
      "##ט": 2385,
      "##비": 2386,
      "##โ": 2387,
      "##น": 2388,
      "##故": 2389,
      "##キ": 2390,
      "##ミ": 2391,
      "##逢": 2392,
      "##로": 2393,
      "##토": 2394,
      "##끼": 2395,
      "##や": 2396,
      "##身": 2397,
      "##照": 2398,
      "##진": 2399,
      "##법": 2400,
      "##무": 2401,
      "##인": 2402,
      "##⭐": 2403,
      "##💉": 2404,
      "##僕": 2405,
      "##ת": 2406,
      "##前": 2407,
      "##离": 2408,
      "##线": 2409,
      "##수": 2410,
      "##연": 2411,
      "##ᠠ": 2412,
      "##ᠭ": 2413,
      "##ᠰ": 2414,
      "##ᠢ": 2415,
      "##ᠶ": 2416,
      "##윤": 2417,
      "##%": 2418,
      "##号": 2419,
      "##码": 2420,
      "##사": 2421,
      "##말": 2422,
      "##🤘": 2423,
      "##🥰": 2424,
      "##ō": 2425,
      "##君": 2426,
      "##<": 2427,
      "##🛒": 2428,
      "##帝": 2429,
      "##ի": 2430,
      "##ր": 2431,
      "##ć": 2432,
      "##ç": 2433,
      "##ו": 2434,
      "##ג": 2435,
      "##ל": 2436,
      "##إ": 2437,
      "##¿": 2438,
      "##问": 2439,
      "##曲": 2440,
      "##称": 2441,
      "##ʟ": 2442,
      "##ᴜ": 2443,
      "##ほ": 2444,
      "##ب": 2445,
      "##դ": 2446,
      "##🔥": 2447,
      "##★": 2448,
      "##ে": 2449,
      "##ন": 2450,
      "##া": 2451,
      "##ই": 2452,
      "##☤": 2453,
      "##ィ": 2454,
      "##シ": 2455,
      "##ョ": 2456,
      "##ナ": 2457,
      "##日": 2458,
      "##구": 2459,
      "##함": 2460,
      "##趋": 2461,
      "##势": 2462,
      "##盘": 2463,
      "##点": 2464,
      "##変": 2465,
      "##ぬ": 2466,
      "##早": 2467,
      "##送": 2468,
      "##钱": 2469,
      "##网": 2470,
      "##站": 2471,
      "##ย": 2472,
      "##庆": 2473,
      "##个": 2474,
      "##位": 2475,
      "##必": 2476,
      "##中": 2477,
      "##ӱ": 2478,
      "##蘭": 2479,
      "##府": 2480,
      "##水": 2481,
      "##達": 2482,
      "##等": 2483,
      "##역": 2484,
      "##ᠷ": 2485,
      "##ᠳ": 2486,
      "##ᠡ": 2487,
      "##ᠨ": 2488,
      "##π": 2489,
      "##ß": 2490,
      "##노": 2491,
      "##᠋": 2492,
      "##ᠤ": 2493,
      "##🇷": 2494,
      "##是": 2495,
      "##软": 2496,
      "##件": 2497,
      "##皇": 2498,
      "##恩": 2499,
      "##娱": 2500,
      "##乐": 2501,
      "##울": 2502,
      "##도": 2503,
      "##관": 2504,
      "##ਾ": 2505,
      "##ਪ": 2506,
      "##ੂ": 2507,
      "##္": 2508,
      "##တ": 2509,
      "##လ": 2510,
      "##ေ": 2511,
      "##း": 2512,
      "##မ": 2513,
      "##ြ": 2514,
      "##ိ": 2515,
      "##ု": 2516,
      "##λ": 2517,
      "##ε": 2518,
      "##ι": 2519,
      "##ώ": 2520,
      "##線": 2521,
      "##電": 2522,
      "##話": 2523,
      "##機": 2524,
      "##命": 2525,
      "##西": 2526,
      "##🤣": 2527,
      "##天": 2528,
      "##●": 2529,
      "##ằ": 2530,
      "##ĕ": 2531,
      "##̈": 2532,
      "##南": 2533,
      "##藏": 2534,
      "##治": 2535,
      "##州": 2536,
      "##ব": 2537,
      "##দ": 2538,
      "##🤔": 2539,
      "##😱": 2540,
      "##♛": 2541,
      "##ภ": 2542,
      "##ầ": 2543,
      "##∞": 2544,
      "##÷": 2545,
      "##ӄ": 2546,
      "##짓": 2547,
      "##ع": 2548,
      "##🌙": 2549,
      "##ۇ": 2550,
      "##ە": 2551,
      "##리": 2552,
      "##칩": 2553,
      "##호": 2554,
      "##내": 2555,
      "##气": 2556,
      "##気": 2557,
      "##発": 2558,
      "##̷": 2559,
      "##❹": 2560,
      "##❼": 2561,
      "##∂": 2562,
      "##›": 2563,
      "##ј": 2564,
      "##机": 2565,
      "##←": 2566,
      "##저": 2567,
      "##트": 2568,
      "##에": 2569,
      "##门": 2570,
      "##☛": 2571,
      "##🇸": 2572,
      "##💃": 2573,
      "##᭄": 2574,
      "##ᴀ": 2575,
      "##ᴍ": 2576,
      "##仔": 2577,
      "##£": 2578,
      "##ů": 2579,
      "##정": 2580,
      "##😢": 2581,
      "##😉": 2582,
      "##💋": 2583,
      "##부": 2584,
      "##込": 2585,
      "##面": 2586,
      "##¤": 2587,
      "##횊": 2588,
      "##횒": 2589,
      "##횗": 2590,
      "##普": 2591,
      "##벼": 2592,
      "##曜": 2593,
      "##ń": 2594,
      "##չ": 2595,
      "##ि": 2596,
      "##ल": 2597,
      "##😫": 2598,
      "##ึ": 2599,
      "##ซ": 2600,
      "##อ": 2601,
      "##ห": 2602,
      "##ี": 2603,
      "##ไ": 2604,
      "##ฟ": 2605,
      "##ƒ": 2606,
      "##ک": 2607,
      "##푸": 2608,
      "##딩": 2609,
      "##ư": 2610,
      "##ớ": 2611,
      "##티": 2612,
      "##엘": 2613,
      "##أ": 2614,
      "##藤": 2615,
      "##留": 2616,
      "##美": 2617,
      "##子": 2618,
      "##誉": 2619,
      "##安": 2620,
      "##让": 2621,
      "##我": 2622,
      "##记": 2623,
      "##斯": 2624,
      "##泰": 2625,
      "##軒": 2626,
      "##후": 2627,
      "##夕": 2628,
      "##眉": 2629,
      "##毛": 2630,
      "##탠": 2631,
      "##😝": 2632,
      "##ז": 2633,
      "##保": 2634,
      "##み": 2635,
      "##🍷": 2636,
      "##🦊": 2637,
      "##혜": 2638,
      "##塑": 2639,
      "##公": 2640,
      "##众": 2641,
      "##形": 2642,
      "##象": 2643,
      "##響": 2644,
      "##楽": 2645,
      "##団": 2646,
      "##θ": 2647,
      "##👍": 2648,
      "##į": 2649,
      "##選": 2650,
      "##べ": 2651,
      "##의": 2652,
      "##💚": 2653,
      "##☈": 2654,
      "##ť": 2655,
      "##👐": 2656,
      "##悔": 2657,
      "##ê": 2658,
      "##😋": 2659,
      "##ᅮ": 2660,
      "##루": 2661,
      "##룰": 2662,
      "##ᅵ": 2663,
      "##려": 2664,
      "##ú": 2665,
      "##채": 2666,
      "##小": 2667,
      "##画": 2668,
      "##册": 2669,
      "##叫": 2670,
      "##医": 2671,
      "##💯": 2672,
      "##💅": 2673,
      "##′": 2674,
      "##체": 2675,
      "##€": 2676,
      "##짱": 2677,
      "##😘": 2678,
      "##🤮": 2679,
      "##近": 2680,
      "##戰": 2681,
      "##ت": 2682,
      "##خ": 2683,
      "##우": 2684,
      "##고": 2685,
      "##福": 2686,
      "##祉": 2687,
      "##法": 2688,
      "##ぎ": 2689,
      "##ペ": 2690,
      "##✨": 2691,
      "##▼": 2692,
      "##국": 2693,
      "##터": 2694,
      "##슨": 2695,
      "##대": 2696,
      "##ҷ": 2697,
      "##ӣ": 2698,
      "##ش": 2699,
      "##•": 2700,
      "##ň": 2701,
      "##ジ": 2702,
      "##ガ": 2703,
      "##팅": 2704,
      "##₮": 2705,
      "##🚘": 2706,
      "##悲": 2707,
      "##夢": 2708,
      "##見": 2709,
      "##선": 2710,
      "##☻": 2711,
      "##업": 2712,
      "##변": 2713,
      "##🖐": 2714,
      "##영": 2715,
      "##👎": 2716,
      "##親": 2717,
      "##帯": 2718,
      "##臨": 2719,
      "##時": 2720,
      "##特": 2721,
      "##別": 2722,
      "##給": 2723,
      "##付": 2724,
      "##∆": 2725,
      "##そ": 2726,
      "##分": 2727,
      "##憎": 2728,
      "##œ": 2729,
      "##玉": 2730,
      "##良": 2731,
      "##返": 2732,
      "##싼": 2733,
      "##指": 2734,
      "##յ": 2735,
      "##키": 2736,
      "##렘": 2737,
      "##±": 2738,
      "##둥": 2739,
      "##자": 2740,
      "##¥": 2741,
      "##섭": 2742,
      "##💫": 2743,
      "##문": 2744,
      "##😂": 2745,
      "##생": 2746,
      "##명": 2747,
      "##과": 2748,
      "##학": 2749,
      "##💙": 2750,
      "##ा": 2751,
      "##इ": 2752,
      "##ए": 2753,
      "##계": 2754,
      "##올": 2755,
      "##림": 2756,
      "##픽": 2757,
      "##븐": 2758,
      "##틴": 2759,
      "##コ": 2760,
      "##ビ": 2761,
      "##讃": 2762,
      "##歌": 2763,
      "##ᠮ": 2764,
      "##ᠫ": 2765,
      "##ᠦ": 2766,
      "##ᠴ": 2767,
      "##能": 2768,
      "##帮": 2769,
      "##忙": 2770,
      "##吗": 2771,
      "##카": 2772,
      "##콕": 2773,
      "##크": 2774,
      "##ɑ": 2775,
      "##©": 2776,
      "##弦": 2777,
      "##흥": 2778,
      "##红": 2779,
      "##华": 2780,
      "##登": 2781,
      "##录": 2782,
      "##地": 2783,
      "##址": 2784,
      "##่": 2785,
      "##ό": 2786,
      "##🌈": 2787,
      "##오": 2788,
      "##플": 2789,
      "##랫": 2790,
      "##心": 2791,
      "##승": 2792,
      "##ᠼ": 2793,
      "##ӑ": 2794,
      "##、": 2795,
      "##답": 2796,
      "##ӯ": 2797,
      "##😔": 2798,
      "##們": 2799,
      "##😎": 2800,
      "##工": 2801,
      "##衛": 2802,
      "##星": 2803,
      "##打": 2804,
      "##🖤": 2805,
      "##サ": 2806,
      "##창": 2807,
      "##ē": 2808,
      "##卡": 2809,
      "##米": 2810,
      "##洛": 2811,
      "##😀": 2812,
      "##😁": 2813,
      "##午": 2814,
      "##너": 2815,
      "##블": 2816,
      "##전": 2817,
      "##ส": 2818,
      "##แ": 2819,
      "##ว": 2820,
      "##ต": 2821,
      "##า": 2822,
      "##🇽": 2823,
      "##♪": 2824,
      "##♫": 2825,
      "##ẙ": 2826,
      "##韬": 2827,
      "##楫": 2828,
      "##流": 2829,
      "##💕": 2830,
      "##ᠥ": 2831,
      "##ᠵ": 2832,
      "##유": 2833,
      "##팝": 2834,
      "##计": 2835,
      "##划": 2836,
      "##稳": 2837,
      "##定": 2838,
      "##×": 2839,
      "##한": 2840,
      "##ゼ": 2841,
      "##ブ": 2842,
      "##ギ": 2843,
      "##항": 2844,
      "##松": 2845,
      "##視": 2846,
      "##ӧ": 2847,
      "##声": 2848,
      "##뮤": 2849,
      "##製": 2850,
      "##器": 2851,
      "##갑": 2852,
      "##습": 2853,
      "##κ": 2854,
      "##ά": 2855,
      "##ق": 2856,
      "##동": 2857,
      "##차": 2858,
      "##🤑": 2859,
      "##漏": 2860,
      "##洞": 2861,
      "##考": 2862,
      "##긱": 2863,
      "##안": 2864,
      "##겠": 2865,
      "##성": 2866,
      "##█": 2867,
      "##&": 2868,
      "##十": 2869,
      "##९": 2870,
      "##४": 2871,
      "##७": 2872,
      "##ἰ": 2873,
      "##δ": 2874,
      "##υ": 2875,
      "##ᠬ": 2876,
      "##ੌ": 2877,
      "##ਟ": 2878,
      "##係": 2879,
      "##🍇": 2880,
      "##🍞": 2881,
      "##🍑": 2882,
      "##ǿ": 2883,
      "##ᵯ": 2884,
      "##ɇ": 2885,
      "##ᵴ": 2886,
      "##ŧ": 2887,
      "##♚": 2888,
      "##վ": 2889,
      "##京": 2890,
      "##˗": 2891,
      "##鑑": 2892,
      "##賞": 2893,
      "##包": 2894,
      "##ắ": 2895,
      "##🤟": 2896,
      "##ӓ": 2897,
      "##빈": 2898,
      "##랑": 2899,
      "##ハ": 2900,
      "##🛫": 2901,
      "##💵": 2902,
      "##介": 2903,
      "##ễ": 2904,
      "##ᠯ": 2905,
      "##夂": 2906,
      "##译": 2907,
      "##🏼": 2908,
      "##권": 2909,
      "##폰": 2910,
      "##밥": 2911,
      "##뚝": 2912,
      "##배": 2913,
      "##실": 2914,
      "##래": 2915,
      "##예": 2916,
      "##은": 2917,
      "##言": 2918,
      "##朝": 2919,
      "##ج": 2920,
      "##昴": 2921,
      "##़": 2922,
      "##र": 2923,
      "##đ": 2924,
      "##🇺": 2925,
      "##ベ": 2926,
      "##☞": 2927,
      "##説": 2928,
      "##더": 2929,
      "##걸": 2930,
      "##갤": 2931,
      "##러": 2932,
      "##委": 2933,
      "##员": 2934,
      "##建": 2935,
      "##好": 2936,
      "##夜": 2937,
      "##〓": 2938,
      "##ий": 2939,
      "##аа": 2940,
      "##ай": 2941,
      "##ээ": 2942,
      "##ан": 2943,
      "##ар": 2944,
      "##ол": 2945,
      "бай": 2946,
      "##уу": 2947,
      "##ийн": 2948,
      "##ал": 2949,
      "##аг": 2950,
      "##эг": 2951,
      "##үү": 2952,
      "##эн": 2953,
      "##эр": 2954,
      "##эл": 2955,
      "##он": 2956,
      "бол": 2957,
      "##үй": 2958,
      "##ах": 2959,
      "##ил": 2960,
      "##өр": 2961,
      "##ын": 2962,
      "##ин": 2963,
      "##оо": 2964,
      "##эд": 2965,
      "нь": 2966,
      "хү": 2967,
      "##гаа": 2968,
      "##гүй": 2969,
      "##эх": 2970,
      "би": 2971,
      "##ийг": 2972,
      "##сан": 2973,
      "##ад": 2974,
      "##на": 2975,
      "##уул": 2976,
      "##ам": 2977,
      "##өө": 2978,
      "##ээр": 2979,
      "##эж": 2980,
      "##ур": 2981,
      "##нэ": 2982,
      "##ог": 2983,
      "##ох": 2984,
      "##өн": 2985,
      "байна": 2986,
      "##эй": 2987,
      "##сэн": 2988,
      "бү": 2989,
      "##аар": 2990,
      "##ыг": 2991,
      "юм": 2992,
      "##ор": 2993,
      "##нд": 2994,
      "##ой": 2995,
      "ор": 2996,
      "энэ": 2997,
      "##тэй": 2998,
      "##тай": 2999,
      "##ас": 3000,
      "##ууд": 3001,
      "##өл": 3002,
      "##гийн": 3003,
      "хэр": 3004,
      "##эм": 3005,
      "##ний": 3006,
      "хар": 3007,
      "##иг": 3008,
      "байгаа": 3009,
      "##ны": 3010,
      "##өг": 3011,
      "##га": 3012,
      "##даг": 3013,
      "##үүл": 3014,
      "аж": 3015,
      "ту": 3016,
      "гэж": 3017,
      "ху": 3018,
      "та": 3019,
      "##од": 3020,
      "ав": 3021,
      "##ом": 3022,
      "##чи": 3023,
      "нэг": 3024,
      "гар": 3025,
      "ам": 3026,
      "##тг": 3027,
      "эр": 3028,
      "##аж": 3029,
      "##лаг": 3030,
      "##эв": 3031,
      "өөр": 3032,
      "##ээд": 3033,
      "байх": 3034,
      "мэд": 3035,
      "ий": 3036,
      "##даа": 3037,
      "уу": 3038,
      "##..": 3039,
      "ал": 3040,
      "ол": 3041,
      "хэрэг": 3042,
      "##онг": 3043,
      "ул": 3044,
      "бу": 3045,
      "үү": 3046,
      "хам": 3047,
      "##йл": 3048,
      "хо": 3049,
      "##той": 3050,
      "...": 3051,
      "тэр": 3052,
      "ар": 3053,
      "ир": 3054,
      "##ав": 3055,
      "##сон": 3056,
      "##өх": 3057,
      "ажил": 3058,
      "хүн": 3059,
      "##өв": 3060,
      "хий": 3061,
      "хэл": 3062,
      "##ир": 3063,
      "##аад": 3064,
      "##ээс": 3065,
      "##нг": 3066,
      "##аас": 3067,
      "сай": 3068,
      "байсан": 3069,
      "##үүд": 3070,
      "##ьд": 3071,
      "их": 3072,
      "бид": 3073,
      "яв": 3074,
      "##ээл": 3075,
      "##алт": 3076,
      "сан": 3077,
      "##хан": 3078,
      "тан": 3079,
      "##жээ": 3080,
      "улс": 3081,
      "дар": 3082,
      "##но": 3083,
      "##дэг": 3084,
      "##ат": 3085,
      "хув": 3086,
      "##ая": 3087,
      "##дээ": 3088,
      "эх": 3089,
      "үз": 3090,
      "##эс": 3091,
      "хүр": 3092,
      "бар": 3093,
      "##их": 3094,
      "##үүх": 3095,
      "##лаа": 3096,
      "болох": 3097,
      "##им": 3098,
      "ан": 3099,
      "бод": 3100,
      "дээр": 3101,
      "өг": 3102,
      "##дал": 3103,
      "төр": 3104,
      "##онгол": 3105,
      "цаг": 3106,
      "зүй": 3107,
      "гэ": 3108,
      "үйл": 3109,
      "##ов": 3110,
      "мин": 3111,
      "##ер": 3112,
      "20": 3113,
      "##оор": 3114,
      "жил": 3115,
      "бүр": 3116,
      "ас": 3117,
      "тал": 3118,
      "##гуул": 3119,
      "##гаар": 3120,
      "дээ": 3121,
      "##доо": 3122,
      "##чл": 3123,
      "##аш": 3124,
      "монгол": 3125,
      "бүх": 3126,
      "гэд": 3127,
      "мөн": 3128,
      "болно": 3129,
      "##өөд": 3130,
      "##гээ": 3131,
      "##гээр": 3132,
      "үе": 3133,
      "##нийг": 3134,
      "##уур": 3135,
      "ур": 3136,
      "##лах": 3137,
      "зөв": 3138,
      "вэ": 3139,
      "чад": 3140,
      "##аз": 3141,
      "өм": 3142,
      "ил": 3143,
      "юу": 3144,
      "түү": 3145,
      "##мар": 3146,
      "байдаг": 3147,
      "олон": 3148,
      "##лээ": 3149,
      "гэх": 3150,
      "тог": 3151,
      "##аан": 3152,
      "ын": 3153,
      "сур": 3154,
      "гүй": 3155,
      "##ул": 3156,
      "гэсэн": 3157,
      "ямар": 3158,
      "##хай": 3159,
      "##мүү": 3160,
      "зүйл": 3161,
      "##сөн": 3162,
      "шин": 3163,
      "хүмүү": 3164,
      "##анд": 3165,
      "эм": 3166,
      "##энд": 3167,
      "##хий": 3168,
      "өд": 3169,
      "зар": 3170,
      "гэр": 3171,
      "баг": 3172,
      "яр": 3173,
      "##ож": 3174,
      "хэм": 3175,
      "хүмүүс": 3176,
      "тэд": 3177,
      "газ": 3178,
      "##лэг": 3179,
      "##этг": 3180,
      "##цаа": 3181,
      "ер": 3182,
      "тэг": 3183,
      "шүү": 3184,
      "##чил": 3185,
      "үн": 3186,
      "сар": 3187,
      "тус": 3188,
      "хүүх": 3189,
      "##уулах": 3190,
      "ийн": 3191,
      "ман": 3192,
      "хоё": 3193,
      "##дл": 3194,
      "##шиг": 3195,
      "##нө": 3196,
      "##ут": 3197,
      "тү": 3198,
      "одоо": 3199,
      "##гал": 3200,
      "төл": 3201,
      "нар": 3202,
      "##омж": 3203,
      "ний": 3204,
      "ёс": 3205,
      "хоёр": 3206,
      "##чих": 3207,
      "##өөр": 3208,
      "дараа": 3209,
      "амьд": 3210,
      "##охи": 3211,
      "чин": 3212,
      "маш": 3213,
      "##агд": 3214,
      "даа": 3215,
      "хамгийн": 3216,
      "тай": 3217,
      "хол": 3218,
      "биш": 3219,
      "##гийг": 3220,
      "##чин": 3221,
      "##лийн": 3222,
      "##ос": 3223,
      "дэл": 3224,
      "##лэл": 3225,
      "өр": 3226,
      "зас": 3227,
      "тий": 3228,
      "эс": 3229,
      "##дв": 3230,
      "эрх": 3231,
      "он": 3232,
      "##оод": 3233,
      "хүс": 3234,
      "сайн": 3235,
      "##жил": 3236,
      "хэд": 3237,
      "тухай": 3238,
      "##ис": 3239,
      "тийм": 3240,
      "үр": 3241,
      "##лага": 3242,
      "боломж": 3243,
      "дах": 3244,
      "эд": 3245,
      "хя": 3246,
      "ийм": 3247,
      "##лэх": 3248,
      "асууд": 3249,
      "байгуул": 3250,
      "##ахгүй": 3251,
      "##энэ": 3252,
      "гэдэг": 3253,
      "нам": 3254,
      "##үүр": 3255,
      "бус": 3256,
      "сон": 3257,
      "дү": 3258,
      "бүт": 3259,
      "##лд": 3260,
      "##вэл": 3261,
      "##лын": 3262,
      "хэрэгтэй": 3263,
      "зор": 3264,
      "##гд": 3265,
      "анх": 3266,
      "тав": 3267,
      "миний": 3268,
      "хө": 3269,
      "болон": 3270,
      "өмнө": 3271,
      "##эгд": 3272,
      "харин": 3273,
      "өн": 3274,
      "хай": 3275,
      "болг": 3276,
      "холб": 3277,
      "ээ": 3278,
      "##уй": 3279,
      "сэтг": 3280,
      "хэ": 3281,
      "шиг": 3282,
      "##от": 3283,
      "хур": 3284,
      "нэр": 3285,
      "##бар": 3286,
      "##чид": 3287,
      "бая": 3288,
      "манай": 3289,
      "##олд": 3290,
      "##үүлэх": 3291,
      "##гө": 3292,
      "201": 3293,
      "##рал": 3294,
      "##ид": 3295,
      "болсон": 3296,
      "су": 3297,
      "хэн": 3298,
      "ашиг": 3299,
      "ду": 3300,
      "хор": 3301,
      "хуул": 3302,
      "хийх": 3303,
      "зур": 3304,
      "##иу": 3305,
      "эн": 3306,
      "тө": 3307,
      "хаа": 3308,
      "болов": 3309,
      "##ик": 3310,
      "##амж": 3311,
      "дуу": 3312,
      "##тэл": 3313,
      "##дог": 3314,
      "ёстой": 3315,
      "хан": 3316,
      "##вар": 3317,
      "удаа": 3318,
      "##иш": 3319,
      "##двэр": 3320,
      "өдөр": 3321,
      "ший": 3322,
      "ун": 3323,
      "бие": 3324,
      "бас": 3325,
      "##иж": 3326,
      "сонг": 3327,
      "шинэ": 3328,
      "бур": 3329,
      "най": 3330,
      "##оос": 3331,
      "##ээн": 3332,
      "##лг": 3333,
      "##гэл": 3334,
      "мэдээл": 3335,
      "байж": 3336,
      "дур": 3337,
      "талаар": 3338,
      "##уулж": 3339,
      "##вал": 3340,
      "хуга": 3341,
      "нас": 3342,
      "##онд": 3343,
      "##лог": 3344,
      "том": 3345,
      "##чир": 3346,
      "зал": 3347,
      "ирг": 3348,
      "чинь": 3349,
      "##00": 3350,
      "##лан": 3351,
      "##лөг": 3352,
      "##хэн": 3353,
      "авах": 3354,
      "хугацаа": 3355,
      "газар": 3356,
      "болж": 3357,
      "үед": 3358,
      "улсын": 3359,
      "гэхдээ": 3360,
      "##лаж": 3361,
      "өнг": 3362,
      "хамт": 3363,
      "##ен": 3364,
      "илүү": 3365,
      "##эгтэй": 3366,
      "бат": 3367,
      "байр": 3368,
      "ийг": 3369,
      "ай": 3370,
      "нөх": 3371,
      "тод": 3372,
      "инг": 3373,
      "##олц": 3374,
      "шаар": 3375,
      "оны": 3376,
      "##лал": 3377,
      "гад": 3378,
      "хөг": 3379,
      "тэм": 3380,
      "ком": 3381,
      "таны": 3382,
      "хэмжээ": 3383,
      "##үүн": 3384,
      "аа": 3385,
      "зү": 3386,
      "ыг": 3387,
      "үг": 3388,
      "тогл": 3389,
      "өв": 3390,
      "чи": 3391,
      "##лыг": 3392,
      "ган": 3393,
      "##эмж": 3394,
      "бөг": 3395,
      "##тан": 3396,
      "##дын": 3397,
      "##илц": 3398,
      "өөрийн": 3399,
      "##нээс": 3400,
      "гээд": 3401,
      "жилийн": 3402,
      "сарын": 3403,
      "нийт": 3404,
      "хийж": 3405,
      "шаард": 3406,
      "гэв": 3407,
      "хүүхд": 3408,
      "бэл": 3409,
      "зах": 3410,
      "тогт": 3411,
      "##рын": 3412,
      "ойл": 3413,
      "хүний": 3414,
      "буй": 3415,
      "над": 3416,
      "сал": 3417,
      "##элт": 3418,
      "##эрг": 3419,
      "өнөөд": 3420,
      "##айг": 3421,
      "хон": 3422,
      "хувьд": 3423,
      "##тын": 3424,
      "авч": 3425,
      "онд": 3426,
      "нэгэн": 3427,
      "амьдрал": 3428,
      "зохи": 3429,
      "##өнхий": 3430,
      "##рийн": 3431,
      "дав": 3432,
      "ерөнхий": 3433,
      "төс": 3434,
      "##ьж": 3435,
      "сэтгэл": 3436,
      "бөгөөд": 3437,
      "ойлг": 3438,
      "биз": 3439,
      "##эхгүй": 3440,
      "хүнд": 3441,
      "алб": 3442,
      "##аал": 3443,
      "дот": 3444,
      "##эхээр": 3445,
      "комп": 3446,
      "сайхан": 3447,
      "бил": 3448,
      "уул": 3449,
      "бич": 3450,
      "##гах": 3451,
      "үнд": 3452,
      "даг": 3453,
      "зам": 3454,
      "хайр": 3455,
      "##хал": 3456,
      "##асан": 3457,
      "тоо": 3458,
      "##огд": 3459,
      "хүлээ": 3460,
      "##ес": 3461,
      "##өлөө": 3462,
      "##дөө": 3463,
      "хал": 3464,
      "хэв": 3465,
      "минь": 3466,
      "##ит": 3467,
      "түүний": 3468,
      "баяр": 3469,
      "байхгүй": 3470,
      "ах": 3471,
      "хой": 3472,
      "##даж": 3473,
      "19": 3474,
      "ад": 3475,
      "орон": 3476,
      "суу": 3477,
      "##хөн": 3478,
      "##ив": 3479,
      "өнгөр": 3480,
      "##оон": 3481,
      "бий": 3482,
      "шал": 3483,
      "хувь": 3484,
      "##иул": 3485,
      "##хийн": 3486,
      "ох": 3487,
      "##лагаа": 3488,
      "санал": 3489,
      "гиш": 3490,
      "##аагүй": 3491,
      "зарим": 3492,
      "худал": 3493,
      "##агч": 3494,
      "асуудал": 3495,
      "аас": 3496,
      "тур": 3497,
      "бэ": 3498,
      "ард": 3499,
      "10": 3500,
      "##орх": 3501,
      "##ван": 3502,
      "нэм": 3503,
      "##адаг": 3504,
      "иргэд": 3505,
      "##тад": 3506,
      "##гаж": 3507,
      "##тгэл": 3508,
      "дол": 3509,
      "хэс": 3510,
      "гур": 3511,
      "арга": 3512,
      "учир": 3513,
      "##хүү": 3514,
      "уд": 3515,
      "засгийн": 3516,
      "мар": 3517,
      "мэдээ": 3518,
      "##шин": 3519,
      "эсвэл": 3520,
      "##өөс": 3521,
      "##ич": 3522,
      "үүнийг": 3523,
      "энд": 3524,
      "ут": 3525,
      "компан": 3526,
      "##тр": 3527,
      "##сн": 3528,
      "тохи": 3529,
      "төрийн": 3530,
      "эмэгтэй": 3531,
      "##охир": 3532,
      "ид": 3533,
      "яаг": 3534,
      "##үүлж": 3535,
      "ажиллагаа": 3536,
      "хөгж": 3537,
      "нут": 3538,
      "залуу": 3539,
      "өнөөдөр": 3540,
      "##дан": 3541,
      "ганц": 3542,
      "чу": 3543,
      "төлөө": 3544,
      "##орхой": 3545,
      "хоног": 3546,
      "үнэ": 3547,
      "хоол": 3548,
      "тодорхой": 3549,
      "төг": 3550,
      "тат": 3551,
      "байдл": 3552,
      "ой": 3553,
      "##ун": 3554,
      "боломжтой": 3555,
      "билээ": 3556,
      "яагаад": 3557,
      "##иа": 3558,
      "хэдэн": 3559,
      "##уулсан": 3560,
      "##нууд": 3561,
      "үнэн": 3562,
      "ба": 3563,
      "байлаа": 3564,
      "санаа": 3565,
      "оролц": 3566,
      "хөр": 3567,
      "уг": 3568,
      "ханд": 3569,
      "маг": 3570,
      "##оё": 3571,
      "##чүүд": 3572,
      "##лоо": 3573,
      "эхэл": 3574,
      "сүүл": 3575,
      "##алтын": 3576,
      "ух": 3577,
      "хэрхэн": 3578,
      "заа": 3579,
      "анг": 3580,
      "##дсан": 3581,
      "яг": 3582,
      "бүгд": 3583,
      "##гаан": 3584,
      "те": 3585,
      "өнд": 3586,
      "##өм": 3587,
      "тулд": 3588,
      "тэн": 3589,
      "##сг": 3590,
      "байдал": 3591,
      "##уун": 3592,
      "гэдгийг": 3593,
      "##дөл": 3594,
      "эз": 3595,
      "үйлдвэр": 3596,
      "тэй": 3597,
      "уч": 3598,
      "хич": 3599,
      "шил": 3600,
      "хүүхэд": 3601,
      "албан": 3602,
      "##гөө": 3603,
      "өөрчл": 3604,
      "гол": 3605,
      "дахин": 3606,
      "бүтээ": 3607,
      "##ирх": 3608,
      "сү": 3609,
      "холбоо": 3610,
      "хүч": 3611,
      "чам": 3612,
      "сургуул": 3613,
      "бусад": 3614,
      "##эхүү": 3615,
      "зөвхөн": 3616,
      "хүртэл": 3617,
      "ая": 3618,
      "##чийн": 3619,
      "##эт": 3620,
      "дэлхийн": 3621,
      "##жилт": 3622,
      "мөр": 3623,
      "аль": 3624,
      "ном": 3625,
      "эл": 3626,
      "турш": 3627,
      "ин": 3628,
      "##дийн": 3629,
      "эц": 3630,
      "бидний": 3631,
      "надад": 3632,
      "##дах": 3633,
      "##илг": 3634,
      "##раас": 3635,
      "маан": 3636,
      "тар": 3637,
      "бурхан": 3638,
      "бүс": 3639,
      "түр": 3640,
      "дахь": 3641,
      "чан": 3642,
      "##өлт": 3643,
      "##ист": 3644,
      "маань": 3645,
      "сая": 3646,
      "##эц": 3647,
      "##ган": 3648,
      "##чилгээ": 3649,
      "##айн": 3650,
      "намайг": 3651,
      "гай": 3652,
      "бага": 3653,
      "анхаар": 3654,
      "аар": 3655,
      "дэмж": 3656,
      "болохгүй": 3657,
      "үргэл": 3658,
      "##зээ": 3659,
      "хариу": 3660,
      "тэгээд": 3661,
      "дунд": 3662,
      "муу": 3663,
      "хууль": 3664,
      "##лийг": 3665,
      "хэрэв": 3666,
      "ирсэн": 3667,
      "машин": 3668,
      "шаардлага": 3669,
      "түүнийг": 3670,
      "гарч": 3671,
      "өндөр": 3672,
      "##дөг": 3673,
      "##дар": 3674,
      "ээж": 3675,
      "хамгаа": 3676,
      "хот": 3677,
      "өөрөө": 3678,
      "ял": 3679,
      "##чууд": 3680,
      "зэр": 3681,
      "##олт": 3682,
      "руу": 3683,
      "ус": 3684,
      "төв": 3685,
      "##хи": 3686,
      "амь": 3687,
      "##тар": 3688,
      "##олтой": 3689,
      "тохиолд": 3690,
      "чухал": 3691,
      "сонирх": 3692,
      "чадахгүй": 3693,
      "##иал": 3694,
      "цу": 3695,
      "##гой": 3696,
      "##тээ": 3697,
      "шийдвэр": 3698,
      "хэмээн": 3699,
      "цаа": 3700,
      "##ро": 3701,
      "##ек": 3702,
      "ажлын": 3703,
      "магад": 3704,
      "тиймээс": 3705,
      "зээл": 3706,
      "эрг": 3707,
      "хойш": 3708,
      "хятад": 3709,
      "##өж": 3710,
      "##оол": 3711,
      "хэзээ": 3712,
      "мөнгө": 3713,
      "нү": 3714,
      "ирэх": 3715,
      "##бөр": 3716,
      "хүрг": 3717,
      "##рэг": 3718,
      "үндэс": 3719,
      "##ак": 3720,
      "##гай": 3721,
      "##ем": 3722,
      "сонс": 3723,
      "хийсэн": 3724,
      "эхл": 3725,
      "##ср": 3726,
      "сол": 3727,
      "монголын": 3728,
      "гэнэ": 3729,
      "ою": 3730,
      "200": 3731,
      "зураг": 3732,
      "чих": 3733,
      "айм": 3734,
      "өгөх": 3735,
      "онц": 3736,
      "хэсэг": 3737,
      "хөдөл": 3738,
      "уулз": 3739,
      "той": 3740,
      "түүх": 3741,
      "эдгээр": 3742,
      "нүүр": 3743,
      "дүр": 3744,
      "##элц": 3745,
      "мэдээлэл": 3746,
      "авсан": 3747,
      "##гт": 3748,
      "ажилл": 3749,
      "кин": 3750,
      "##on": 3751,
      "яаж": 3752,
      "##эсэн": 3753,
      "##er": 3754,
      "хүү": 3755,
      "үгүй": 3756,
      "##гөн": 3757,
      "##арч": 3758,
      "##лж": 3759,
      "нийг": 3760,
      "мэт": 3761,
      "##агүй": 3762,
      "төлөв": 3763,
      "##хон": 3764,
      "дэлг": 3765,
      "салбар": 3766,
      "уих": 3767,
      "##хээ": 3768,
      "##иад": 3769,
      "##ийгөө": 3770,
      "унш": 3771,
      "мэрг": 3772,
      "##тал": 3773,
      "яах": 3774,
      "уур": 3775,
      "хөл": 3776,
      "охин": 3777,
      "байв": 3778,
      "##ээрээ": 3779,
      "##мын": 3780,
      "ану": 3781,
      "тэмц": 3782,
      "эрд": 3783,
      "ажиллаж": 3784,
      "##осон": 3785,
      "##галт": 3786,
      "##гаад": 3787,
      "##рах": 3788,
      "ерөнхийлөг": 3789,
      "##гч": 3790,
      "сонгуул": 3791,
      "##эгч": 3792,
      "##in": 3793,
      "##чим": 3794,
      "##ээгүй": 3795,
      "бодож": 3796,
      "хөрөн": 3797,
      "##эдэг": 3798,
      "дэв": 3799,
      "найз": 3800,
      "хэлэх": 3801,
      "##гасан": 3802,
      "аз": 3803,
      "тэрб": 3804,
      "##дсэн": 3805,
      "##из": 3806,
      "удир": 3807,
      "учраас": 3808,
      "##лбар": 3809,
      "үнэхээр": 3810,
      "##аарай": 3811,
      "##дэл": 3812,
      "энэхүү": 3813,
      "өөрс": 3814,
      "##тер": 3815,
      "хугацаанд": 3816,
      "танд": 3817,
      "орж": 3818,
      "чанар": 3819,
      "чиг": 3820,
      "##алтай": 3821,
      "##лөө": 3822,
      "газрын": 3823,
      "зог": 3824,
      "тохир": 3825,
      "##үүлсэн": 3826,
      "дуус": 3827,
      "зориул": 3828,
      "зөвш": 3829,
      "аав": 3830,
      "үргэлж": 3831,
      "тул": 3832,
      "өнгөрсөн": 3833,
      "##ана": 3834,
      "хийг": 3835,
      "болохоор": 3836,
      "эдийн": 3837,
      "##ус": 3838,
      "таа": 3839,
      "дарга": 3840,
      "дор": 3841,
      "##ье": 3842,
      "амжилт": 3843,
      "боловср": 3844,
      "гэтэл": 3845,
      "хүүхдүүд": 3846,
      "тэдний": 3847,
      "хая": 3848,
      "түм": 3849,
      "харагд": 3850,
      "шалт": 3851,
      "##хн": 3852,
      "эрүүл": 3853,
      "тухайн": 3854,
      "орос": 3855,
      "гийн": 3856,
      "тол": 3857,
      "барим": 3858,
      "өмн": 3859,
      "олг": 3860,
      "хэлж": 3861,
      "зогс": 3862,
      "явах": 3863,
      "байхад": 3864,
      "нөлөө": 3865,
      "мэдэх": 3866,
      "заг": 3867,
      "хэлб": 3868,
      "гурван": 3869,
      "ажиллах": 3870,
      "##өд": 3871,
      "зөвшөөр": 3872,
      "##өлд": 3873,
      "##агт": 3874,
      "##угаар": 3875,
      "явж": 3876,
      "нөхц": 3877,
      "##чиж": 3878,
      "ирээд": 3879,
      "ээс": 3880,
      "адил": 3881,
      "оруул": 3882,
      "аю": 3883,
      "сайд": 3884,
      "##ооны": 3885,
      "өс": 3886,
      "судал": 3887,
      "ингэж": 3888,
      "##ац": 3889,
      "зүгээр": 3890,
      "хэлэлц": 3891,
      "##оно": 3892,
      "##ран": 3893,
      "##нес": 3894,
      "үйлчилгээ": 3895,
      "зөвл": 3896,
      "итг": 3897,
      "мэргэж": 3898,
      "##хаа": 3899,
      "өөрийгөө": 3900,
      "тэрээр": 3901,
      "ууд": 3902,
      "##аатар": 3903,
      "аюул": 3904,
      "хэрэгж": 3905,
      "буруу": 3906,
      "зэрэг": 3907,
      "##эвэр": 3908,
      "олж": 3909,
      "мэнд": 3910,
      "байгууллаг": 3911,
      "илэр": 3912,
      "дэлхий": 3913,
      "##мийн": 3914,
      "шу": 3915,
      "хөт": 3916,
      "ээр": 3917,
      "за": 3918,
      "зай": 3919,
      "суур": 3920,
      "##лэж": 3921,
      "жин": 3922,
      "ны": 3923,
      "хад": 3924,
      "бүрэн": 3925,
      "холбогд": 3926,
      "сүүлийн": 3927,
      "холбоотой": 3928,
      "##an": 3929,
      "тэмдэг": 3930,
      "үл": 3931,
      "гадаад": 3932,
      "##ет": 3933,
      "12": 3934,
      "авт": 3935,
      "дотор": 3936,
      "наад": 3937,
      "##одог": 3938,
      "##ьсан": 3939,
      "зорилг": 3940,
      "##аараа": 3941,
      "үх": 3942,
      "##оом": 3943,
      "танилц": 3944,
      "харь": 3945,
      "цааш": 3946,
      "улсад": 3947,
      "##ar": 3948,
      "##гоор": 3949,
      "гэм": 3950,
      "дуртай": 3951,
      "хав": 3952,
      "##энх": 3953,
      "асуул": 3954,
      "мя": 3955,
      "бизнес": 3956,
      "байгааг": 3957,
      "шат": 3958,
      "##рам": 3959,
      "доо": 3960,
      "гишүүн": 3961,
      "үлд": 3962,
      "хууд": 3963,
      "амар": 3964,
      "үеийн": 3965,
      "магадгүй": 3966,
      "##охгүй": 3967,
      "гүйц": 3968,
      "##наас": 3969,
      "##илт": 3970,
      "ойр": 3971,
      "му": 3972,
      "11": 3973,
      "зов": 3974,
      "мал": 3975,
      "асуу": 3976,
      "хэлсэн": 3977,
      "##сний": 3978,
      "энх": 3979,
      "шууд": 3980,
      "бүсгүй": 3981,
      "##яа": 3982,
      "бүтээгд": 3983,
      "шаардлагатай": 3984,
      "долоо": 3985,
      "гэвч": 3986,
      "##алд": 3987,
      "дугаар": 3988,
      "ев": 3989,
      "харж": 3990,
      "жиш": 3991,
      "##жиг": 3992,
      "айл": 3993,
      "##ей": 3994,
      "дан": 3995,
      "өгсөн": 3996,
      "дөр": 3997,
      "болдог": 3998,
      "тэгвэл": 3999,
      "хүлээн": 4000,
      "гарах": 4001,
      "хат": 4002,
      "эв": 4003,
      "##дэх": 4004,
      "иргэн": 4005,
      "там": 4006,
      "##лэгч": 4007,
      "дай": 4008,
      "болоод": 4009,
      "байвал": 4010,
      "зөр": 4011,
      "нуу": 4012,
      "##or": 4013,
      "харах": 4014,
      "чөлөө": 4015,
      "##юу": 4016,
      "##гаас": 4017,
      "гарсан": 4018,
      "асуудлыг": 4019,
      "15": 4020,
      "##тл": 4021,
      "##төн": 4022,
      "зохион": 4023,
      "багш": 4024,
      "##лөгөө": 4025,
      "санагд": 4026,
      "хөрөнгө": 4027,
      "мэдэгд": 4028,
      "цах": 4029,
      "бодлог": 4030,
      "нэмэгд": 4031,
      "буюу": 4032,
      "100": 4033,
      "засаг": 4034,
      "гал": 4035,
      "##лэлийн": 4036,
      "дээд": 4037,
      "ач": 4038,
      "бан": 4039,
      "хөн": 4040,
      "##пор": 4041,
      "ярилц": 4042,
      "баримт": 4043,
      "сэр": 4044,
      "цэц": 4045,
      "##ерик": 4046,
      "##уудыг": 4047,
      "мэдээж": 4048,
      "##дугаар": 4049,
      "үүд": 4050,
      "##оц": 4051,
      "##хөө": 4052,
      "##маар": 4053,
      "америк": 4054,
      "тооц": 4055,
      "хоор": 4056,
      "байн": 4057,
      "нөг": 4058,
      "гаруй": 4059,
      "анхны": 4060,
      "төрлийн": 4061,
      "дараах": 4062,
      "од": 4063,
      "##цүү": 4064,
      "##уудын": 4065,
      "гү": 4066,
      "##сү": 4067,
      "бүтээл": 4068,
      "арг": 4069,
      "##члэн": 4070,
      "##ли": 4071,
      "##арт": 4072,
      "шинж": 4073,
      "##аргал": 4074,
      "дүн": 4075,
      "хичээл": 4076,
      "мэдэхгүй": 4077,
      "техн": 4078,
      "нд": 4079,
      "##ээнд": 4080,
      "##жин": 4081,
      "хүүхдийн": 4082,
      "шүүх": 4083,
      "##хам": 4084,
      "##вээ": 4085,
      "зүйлийг": 4086,
      "өрөө": 4087,
      "болгон": 4088,
      "үзэх": 4089,
      "##сийн": 4090,
      "##эгт": 4091,
      "настай": 4092,
      "##ст": 4093,
      "цэвэр": 4094,
      "##ел": 4095,
      "өдрийн": 4096,
      "ашигл": 4097,
      "минут": 4098,
      "өдр": 4099,
      "үндсэн": 4100,
      "##баатар": 4101,
      "хаан": 4102,
      "хуулийн": 4103,
      "бр": 4104,
      "бор": 4105,
      "##ент": 4106,
      "өмнөх": 4107,
      "боллоо": 4108,
      "гэвэл": 4109,
      "чадвар": 4110,
      "mn": 4111,
      "батал": 4112,
      "дүүр": 4113,
      "өө": 4114,
      "үүс": 4115,
      "##гар": 4116,
      "итгэл": 4117,
      "##длаа": 4118,
      "30": 4119,
      "ерөнхийлөгч": 4120,
      "боловч": 4121,
      "нөгөө": 4122,
      "пр": 4123,
      "шү": 4124,
      "ня": 4125,
      "байгаад": 4126,
      "тайлбар": 4127,
      "санхүү": 4128,
      "##лох": 4129,
      "тас": 4130,
      "эхний": 4131,
      "аг": 4132,
      "дээрх": 4133,
      "болгох": 4134,
      "##нз": 4135,
      "өөрт": 4136,
      "байдлаар": 4137,
      "судалгаа": 4138,
      "хариуц": 4139,
      "евро": 4140,
      "##таа": 4141,
      "##агс": 4142,
      "хүнийг": 4143,
      "хян": 4144,
      "##гоо": 4145,
      "явдал": 4146,
      "##игд": 4147,
      "##!!": 4148,
      "бүхэн": 4149,
      "##сгал": 4150,
      "хэцүү": 4151,
      "улаан": 4152,
      "гаргах": 4153,
      "тэрбээр": 4154,
      "##мөр": 4155,
      "илэрхий": 4156,
      "нээ": 4157,
      "авна": 4158,
      "##ок": 4159,
      "гишүүд": 4160,
      "ярьж": 4161,
      "##ээрэй": 4162,
      "ирж": 4163,
      "тун": 4164,
      "урьд": 4165,
      "шалтгаан": 4166,
      "орчин": 4167,
      "компани": 4168,
      "толгой": 4169,
      "орох": 4170,
      "хүмүүсийн": 4171,
      "ст": 4172,
      "##даггүй": 4173,
      "үзүүл": 4174,
      "оч": 4175,
      "##шил": 4176,
      "бүл": 4177,
      "гу": 4178,
      "болжээ": 4179,
      "дагуу": 4180,
      "нөхцөл": 4181,
      "хэрвээ": 4182,
      "өгч": 4183,
      "18": 4184,
      "##саар": 4185,
      "хүчин": 4186,
      "##en": 4187,
      "хэт": 4188,
      "өөрчлөлт": 4189,
      "жиж": 4190,
      "ихэнх": 4191,
      "##элж": 4192,
      "ингээд": 4193,
      "##аалт": 4194,
      "сард": 4195,
      "##ааны": 4196,
      "гэхэд": 4197,
      "хөтөл": 4198,
      "загвар": 4199,
      "бараг": 4200,
      "өглөө": 4201,
      "монголчууд": 4202,
      "гаргаж": 4203,
      "түүн": 4204,
      "\"-": 4205,
      "хадгал": 4206,
      "зав": 4207,
      "цагдаа": 4208,
      "##ээв": 4209,
      "захир": 4210,
      "үс": 4211,
      "оюут": 4212,
      "##нэл": 4213,
      "зан": 4214,
      "мэдр": 4215,
      "алга": 4216,
      "##тэн": 4217,
      "##оны": 4218,
      "тогтоо": 4219,
      "хийдэг": 4220,
      "буур": 4221,
      "тэнд": 4222,
      "нутгийн": 4223,
      "үүр": 4224,
      "мах": 4225,
      "чадах": 4226,
      "яп": 4227,
      "цагийн": 4228,
      "##илцаа": 4229,
      "##оогүй": 4230,
      "гүйцэтг": 4231,
      "эсрэг": 4232,
      "##бал": 4233,
      "банк": 4234,
      "##двар": 4235,
      "гэрээ": 4236,
      "харилцаа": 4237,
      "##ины": 4238,
      "##амс": 4239,
      "цэр": 4240,
      "##уулдаг": 4241,
      "таар": 4242,
      "жагс": 4243,
      "дамж": 4244,
      "алдаа": 4245,
      "жаргал": 4246,
      "##истем": 4247,
      "##лар": 4248,
      "хүлээж": 4249,
      "систем": 4250,
      "үүний": 4251,
      "таныг": 4252,
      "хэрэггүй": 4253,
      "бидэнд": 4254,
      "төгс": 4255,
      "##шгүй": 4256,
      "ярих": 4257,
      "монголд": 4258,
      "европ": 4259,
      "буц": 4260,
      "огт": 4261,
      "##ман": 4262,
      "бүү": 4263,
      "##le": 4264,
      "заавал": 4265,
      "мэддэг": 4266,
      "боддог": 4267,
      "ашиглах": 4268,
      "##тгал": 4269,
      "түүнд": 4270,
      "байжээ": 4271,
      "байгал": 4272,
      "хотын": 4273,
      "барил": 4274,
      "намын": 4275,
      "##олог": 4276,
      "зу": 4277,
      "##нээ": 4278,
      "нөхөр": 4279,
      "гоё": 4280,
      "##дү": 4281,
      "##иар": 4282,
      "үзэж": 4283,
      "##инд": 4284,
      "бутл": 4285,
      "худалдаа": 4286,
      "бос": 4287,
      "##уулан": 4288,
      "202": 4289,
      "##oo": 4290,
      "кино": 4291,
      "##шаа": 4292,
      "чиний": 4293,
      "бутлуур": 4294,
      "хувийн": 4295,
      "жишээ": 4296,
      "##гэр": 4297,
      "##лэн": 4298,
      "ярь": 4299,
      "жижиг": 4300,
      "эмнэл": 4301,
      "төрөл": 4302,
      "нэв": 4303,
      "##нэр": 4304,
      "##агн": 4305,
      "хариул": 4306,
      "##дад": 4307,
      "##st": 4308,
      "хөтөлбөр": 4309,
      "##лүүл": 4310,
      "эрдэнэ": 4311,
      "эхнэр": 4312,
      "газр": 4313,
      "нүд": 4314,
      "өнөө": 4315,
      "тохиолдолд": 4316,
      "хамаар": 4317,
      "рүү": 4318,
      "бүрийн": 4319,
      "##агдсан": 4320,
      "##сны": 4321,
      "дал": 4322,
      "тэгэхээр": 4323,
      "төлбөр": 4324,
      "байгаагүй": 4325,
      "хаана": 4326,
      "түв": 4327,
      "төгр": 4328,
      "##огч": 4329,
      "##гн": 4330,
      "үүнээс": 4331,
      "##өмж": 4332,
      "онг": 4333,
      "гаргасан": 4334,
      "ухаан": 4335,
      "соё": 4336,
      "##аасаа": 4337,
      "уурхай": 4338,
      "гурав": 4339,
      "хийн": 4340,
      "14": 4341,
      "хамгаалах": 4342,
      "##дэж": 4343,
      "эмэгтэйчүүд": 4344,
      "эцэг": 4345,
      "хэрэгс": 4346,
      "хөөр": 4347,
      "сэд": 4348,
      "цагаан": 4349,
      "агаар": 4350,
      "орсон": 4351,
      "зүйлс": 4352,
      "хооронд": 4353,
      "утас": 4354,
      "хоногийн": 4355,
      "харьц": 4356,
      "оо": 4357,
      "гэл": 4358,
      "##өгд": 4359,
      "##рх": 4360,
      "##вор": 4361,
      "##гын": 4362,
      "тэрг": 4363,
      "ирээдүй": 4364,
      "ертөн": 4365,
      "амьдралын": 4366,
      "хурал": 4367,
      "гадна": 4368,
      "мянг": 4369,
      "нис": 4370,
      "ертөнц": 4371,
      "хурдан": 4372,
      "цагт": 4373,
      "эсэх": 4374,
      "доллар": 4375,
      "чамайг": 4376,
      "болчих": 4377,
      "таван": 4378,
      "бүхий": 4379,
      "ха": 4380,
      "хуудас": 4381,
      "##al": 4382,
      "##лалт": 4383,
      "##ъя": 4384,
      "тань": 4385,
      "бэлэн": 4386,
      "хайртай": 4387,
      "цар": 4388,
      "нийгэм": 4389,
      "асуулт": 4390,
      "тов": 4391,
      "аюулгүй": 4392,
      "боломжгүй": 4393,
      "##лэдэг": 4394,
      "нарын": 4395,
      "янз": 4396,
      "тойр": 4397,
      "эзэн": 4398,
      "##ласан": 4399,
      "дууд": 4400,
      "хуу": 4401,
      "үндэсний": 4402,
      "хувц": 4403,
      "нууц": 4404,
      "хүссэн": 4405,
      "дээрээ": 4406,
      "аймгийн": 4407,
      "жү": 4408,
      "солонг": 4409,
      "март": 4410,
      "##дыг": 4411,
      "хэмжээний": 4412,
      "мянган": 4413,
      "##ино": 4414,
      "чадна": 4415,
      "##олцоо": 4416,
      "цал": 4417,
      "насны": 4418,
      "өөрийнхөө": 4419,
      "##ээсээ": 4420,
      "хаг": 4421,
      "##өмб": 4422,
      "уран": 4423,
      "дөрв": 4424,
      "тоглоом": 4425,
      "эрс": 4426,
      "арай": 4427,
      "##тгий": 4428,
      "##лэсэн": 4429,
      "##элд": 4430,
      "мэдэж": 4431,
      "удирд": 4432,
      "орны": 4433,
      "##мэл": 4434,
      "##at": 4435,
      "хил": 4436,
      "орой": 4437,
      "урт": 4438,
      "дараагийн": 4439,
      "ме": 4440,
      "аваад": 4441,
      "##ио": 4442,
      "##өөн": 4443,
      "##гэн": 4444,
      "##маа": 4445,
      "явсан": 4446,
      "##руул": 4447,
      "##re": 4448,
      "##аахан": 4449,
      "эрт": 4450,
      "угаа": 4451,
      "##ac": 4452,
      "хэлбэр": 4453,
      "дут": 4454,
      "цалин": 4455,
      "гуй": 4456,
      "шөн": 4457,
      "оронд": 4458,
      "өргө": 4459,
      "##руулах": 4460,
      "хүмүүст": 4461,
      "эхэлсэн": 4462,
      "орч": 4463,
      "амьдар": 4464,
      "шилдэг": 4465,
      "орлог": 4466,
      "##об": 4467,
      "ажилд": 4468,
      "цуг": 4469,
      "##дүгээр": 4470,
      "##мж": 4471,
      "##гуй": 4472,
      "##ууны": 4473,
      "##ум": 4474,
      "болохыг": 4475,
      "бүртг": 4476,
      "##ээлт": 4477,
      "өөртөө": 4478,
      "бя": 4479,
      "##лагдсан": 4480,
      "шар": 4481,
      "оноос": 4482,
      "дэлгэр": 4483,
      "түүнээс": 4484,
      "шаардлаг": 4485,
      "##ou": 4486,
      "##өөл": 4487,
      "##чилж": 4488,
      "in": 4489,
      "##лалаа": 4490,
      "##члал": 4491,
      "байхдаа": 4492,
      "солонгос": 4493,
      "мат": 4494,
      "бууд": 4495,
      "авар": 4496,
      "##чилсан": 4497,
      "агуул": 4498,
      "бал": 4499,
      "хөдөлгөө": 4500,
      "нийтийн": 4501,
      "##өхөөр": 4502,
      "орнууд": 4503,
      "эмч": 4504,
      "тоглолт": 4505,
      "##халтай": 4506,
      "битгий": 4507,
      "хям": 4508,
      "өөрөөр": 4509,
      "бэр": 4510,
      "давх": 4511,
      "амьдарч": 4512,
      "##үүдэд": 4513,
      "иргэдийн": 4514,
      "дэх": 4515,
      "асуудл": 4516,
      "бн": 4517,
      "гэртээ": 4518,
      "үнэл": 4519,
      "унт": 4520,
      "нийгмийн": 4521,
      "тулг": 4522,
      "ажлыг": 4523,
      "##элтэй": 4524,
      "эхлээд": 4525,
      "явц": 4526,
      "алдар": 4527,
      "сонгол": 4528,
      "ажлаа": 4529,
      "төрсөн": 4530,
      "хэдий": 4531,
      "##олоо": 4532,
      "шилж": 4533,
      "зорилго": 4534,
      "##гээс": 4535,
      "үйлчл": 4536,
      "хүсч": 4537,
      "бичсэн": 4538,
      "ахуй": 4539,
      "мод": 4540,
      "татвар": 4541,
      "олох": 4542,
      "түмэн": 4543,
      "бөх": 4544,
      "амр": 4545,
      "##om": 4546,
      "16": 4547,
      "##орж": 4548,
      "үеэр": 4549,
      "болгож": 4550,
      "##ограм": 4551,
      "бичиг": 4552,
      "нэвтр": 4553,
      "##нүүд": 4554,
      "13": 4555,
      "##хэг": 4556,
      "бодит": 4557,
      "17": 4558,
      "технолог": 4559,
      "бичл": 4560,
      "нийс": 4561,
      "##өөц": 4562,
      "##vй": 4563,
      "дуул": 4564,
      "гэлээ": 4565,
      "##луул": 4566,
      "дүү": 4567,
      "##эхэд": 4568,
      "удаан": 4569,
      "сайж": 4570,
      "##алц": 4571,
      "50": 4572,
      "програм": 4573,
      "##ныг": 4574,
      "тээв": 4575,
      "##эхүүн": 4576,
      "зо": 4577,
      "энгийн": 4578,
      "199": 4579,
      "сонголт": 4580,
      "тэтг": 4581,
      "бүтээгдэхүүн": 4582,
      "төгрөг": 4583,
      "лээ": 4584,
      "танай": 4585,
      "гэмт": 4586,
      "гүйгээр": 4587,
      "мэдээллийг": 4588,
      "##даад": 4589,
      "тон": 4590,
      "##аб": 4591,
      "оруулах": 4592,
      "дотоод": 4593,
      "буу": 4594,
      "##лагч": 4595,
      "байдлыг": 4596,
      "бурханы": 4597,
      "хэлбэл": 4598,
      "сав": 4599,
      "дөрвөн": 4600,
      "үүсг": 4601,
      "##it": 4602,
      "харамс": 4603,
      "зохиц": 4604,
      "хуур": 4605,
      "үзсэн": 4606,
      "сэтгүүл": 4607,
      "##аах": 4608,
      "сек": 4609,
      "байхыг": 4610,
      "25": 4611,
      "энхб": 4612,
      "түвшин": 4613,
      "бодох": 4614,
      "чамд": 4615,
      "тэднийг": 4616,
      "##олын": 4617,
      "зориулсан": 4618,
      "цахим": 4619,
      "дүгн": 4620,
      "хувцас": 4621,
      "гом": 4622,
      "хяз": 4623,
      "мор": 4624,
      "амьдрах": 4625,
      "##үүлэг": 4626,
      "ne": 4627,
      "байгууллага": 4628,
      "хөгжил": 4629,
      "чиглэл": 4630,
      "эрэгтэй": 4631,
      "мөнгөн": 4632,
      "ариу": 4633,
      "дээш": 4634,
      "##лана": 4635,
      "хэмжээнд": 4636,
      "жинх": 4637,
      "##нээр": 4638,
      "##саа": 4639,
      "шир": 4640,
      "өч": 4641,
      "барих": 4642,
      "ажилладаг": 4643,
      "байсн": 4644,
      "##ic": 4645,
      "бололтой": 4646,
      "төхөөр": 4647,
      "эцэс": 4648,
      "хязгаар": 4649,
      "тусл": 4650,
      "төлөвлөгөө": 4651,
      "жур": 4652,
      "хориг": 4653,
      "сургууль": 4654,
      "төхөөрөмж": 4655,
      "шудар": 4656,
      "##ту": 4657,
      "хэрэглэх": 4658,
      "дэвш": 4659,
      "худалдан": 4660,
      "өвч": 4661,
      "хулг": 4662,
      "зүрх": 4663,
      "эзэм": 4664,
      "тэдгээр": 4665,
      "пар": 4666,
      "жинхэнэ": 4667,
      "##ги": 4668,
      "тос": 4669,
      "##лайн": 4670,
      "сайт": 4671,
      "суурь": 4672,
      "бичлэг": 4673,
      "төлөвл": 4674,
      "##агдах": 4675,
      "дас": 4676,
      "маргаа": 4677,
      "улам": 4678,
      "нэл": 4679,
      "өнгө": 4680,
      "мэднэ": 4681,
      "жүжиг": 4682,
      "лав": 4683,
      "явдаг": 4684,
      "орчим": 4685,
      "үүрэг": 4686,
      "##эгүй": 4687,
      "зарц": 4688,
      "##омжтой": 4689,
      "##агдаж": 4690,
      "эргэл": 4691,
      "орд": 4692,
      "нутаг": 4693,
      "сонирхолтой": 4694,
      "захиал": 4695,
      "!!!": 4696,
      "чул": 4697,
      "мэдээллийн": 4698,
      "##лт": 4699,
      "##бай": 4700,
      "гэдгээ": 4701,
      "онлайн": 4702,
      "бүлийн": 4703,
      "арил": 4704,
      "##ээх": 4705,
      "эхлэх": 4706,
      "##есс": 4707,
      "##порт": 4708,
      "##ра": 4709,
      "жир": 4710,
      "гайх": 4711,
      "хийнэ": 4712,
      "жилд": 4713,
      "мэргэжлийн": 4714,
      "хэрэглээ": 4715,
      "##ланг": 4716,
      "суул": 4717,
      "интер": 4718,
      "өөрсдөө": 4719,
      "##ев": 4720,
      "суралц": 4721,
      "баталгаа": 4722,
      "барьж": 4723,
      "очиж": 4724,
      "##ахад": 4725,
      "бүлэг": 4726,
      "##кс": 4727,
      "байл": 4728,
      "харилц": 4729,
      "гайхалтай": 4730,
      "бодлого": 4731,
      "##лон": 4732,
      "зайл": 4733,
      "баа": 4734,
      "##үүдийг": 4735,
      "##мс": 4736,
      "байнга": 4737,
      "гер": 4738,
      "халдвар": 4739,
      "сургуулийн": 4740,
      "дэг": 4741,
      "ижил": 4742,
      "улир": 4743,
      "тусгай": 4744,
      "гэдэгт": 4745,
      "туслах": 4746,
      "ялгаа": 4747,
      "насан": 4748,
      "зүйн": 4749,
      "ов": 4750,
      "яам": 4751,
      "сонин": 4752,
      "хоногт": 4753,
      "маргааш": 4754,
      "##ol": 4755,
      "санхүүгийн": 4756,
      "##сай": 4757,
      "2020": 4758,
      "одоогоор": 4759,
      "оос": 4760,
      "нөөц": 4761,
      "шагн": 4762,
      "##уудад": 4763,
      "бүрд": 4764,
      "гэрийн": 4765,
      "удаагийн": 4766,
      "өрс": 4767,
      "хөдөлмөр": 4768,
      "өгнө": 4769,
      "чим": 4770,
      "хятадын": 4771,
      "онгоц": 4772,
      "##пп": 4773,
      "сууж": 4774,
      "шударга": 4775,
      "тут": 4776,
      "аргагүй": 4777,
      "##вэр": 4778,
      "эрчим": 4779,
      "##дий": 4780,
      "##иуд": 4781,
      "хүрт": 4782,
      "сул": 4783,
      "англи": 4784,
      "хаш": 4785,
      "хийгээд": 4786,
      "авдаг": 4787,
      "24": 4788,
      "тусламж": 4789,
      "алив": 4790,
      "өргөн": 4791,
      "ашиглаж": 4792,
      "хөгжлийн": 4793,
      "##арх": 4794,
      "хос": 4795,
      "##шигч": 4796,
      "вид": 4797,
      "хангалт": 4798,
      "шийд": 4799,
      "##охой": 4800,
      "эргэн": 4801,
      "##лагын": 4802,
      "хохир": 4803,
      "##лөх": 4804,
      "биднийг": 4805,
      "тэнгэр": 4806,
      "компанийн": 4807,
      "##аны": 4808,
      "мө": 4809,
      "гоо": 4810,
      "үнэгүй": 4811,
      "хатуу": 4812,
      "өөрсдийн": 4813,
      "хэрэглэг": 4814,
      "##чээ": 4815,
      "худалдаж": 4816,
      "шинжил": 4817,
      "##длыг": 4818,
      "болз": 4819,
      "цэг": 4820,
      "##es": 4821,
      "яваа": 4822,
      "виде": 4823,
      "##сээр": 4824,
      "байдаггүй": 4825,
      "төсөл": 4826,
      "минутын": 4827,
      "##vv": 4828,
      "гарг": 4829,
      "өөрчлөгд": 4830,
      "сонгуулийн": 4831,
      "сэрг": 4832,
      "##санд": 4833,
      "##чихсан": 4834,
      "замын": 4835,
      "##тэйгээ": 4836,
      "арван": 4837,
      "одоогийн": 4838,
      "сургалт": 4839,
      "өгөө": 4840,
      "баярлалаа": 4841,
      "байгууллагын": 4842,
      "##хны": 4843,
      "тээр": 4844,
      "чаддаг": 4845,
      "удахгүй": 4846,
      "оруулж": 4847,
      "кон": 4848,
      "ажээ": 4849,
      "##эгдэл": 4850,
      "шор": 4851,
      "өгдөг": 4852,
      "##ян": 4853,
      "##огт": 4854,
      "алд": 4855,
      "..": 4856,
      "##цээ": 4857,
      "хүмүүсийг": 4858,
      "2012": 4859,
      "ойлгож": 4860,
      "нээлт": 4861,
      "олд": 4862,
      "багт": 4863,
      "нутагт": 4864,
      "40": 4865,
      "нийтлэл": 4866,
      "улаанбаатар": 4867,
      "##ериал": 4868,
      "шинжилгээ": 4869,
      "тохиолдол": 4870,
      "тусгаар": 4871,
      "##ау": 4872,
      "##оохон": 4873,
      "бичих": 4874,
      "##ээж": 4875,
      "##лжээ": 4876,
      "2016": 4877,
      "бэрх": 4878,
      "про": 4879,
      "##лга": 4880,
      "##энгүй": 4881,
      "##аяр": 4882,
      "##уулна": 4883,
      "хүсэлт": 4884,
      "##дагч": 4885,
      "тэгж": 4886,
      "хулгай": 4887,
      "оор": 4888,
      "хүрээнд": 4889,
      "##энтэй": 4890,
      "хувил": 4891,
      "хараад": 4892,
      "гэжээ": 4893,
      "төсв": 4894,
      "үүнд": 4895,
      "утга": 4896,
      "тэнэг": 4897,
      "хаж": 4898,
      "бүгдийг": 4899,
      "на": 4900,
      "пор": 4901,
      "тавьж": 4902,
      "##лаад": 4903,
      "туш": 4904,
      "ос": 4905,
      "бариг": 4906,
      "өгүүл": 4907,
      "зөвлөгөө": 4908,
      "хурд": 4909,
      "##икийн": 4910,
      "европын": 4911,
      "материал": 4912,
      "хүй": 4913,
      "гэхээр": 4914,
      "үздэг": 4915,
      "бүртгэл": 4916,
      "##гам": 4917,
      "##лээд": 4918,
      "хотод": 4919,
      "яд": 4920,
      "##вол": 4921,
      "бөмб": 4922,
      "доор": 4923,
      "##лүүлэх": 4924,
      "шах": 4925,
      "##ro": 4926,
      "##am": 4927,
      "хамр": 4928,
      "тах": 4929,
      "хүрэл": 4930,
      "чуул": 4931,
      "оюун": 4932,
      "чадсан": 4933,
      "блог": 4934,
      "тавих": 4935,
      "бээл": 4936,
      "##уулалт": 4937,
      "энэт": 4938,
      "салбарт": 4939,
      "япон": 4940,
      "хамтран": 4941,
      "юмаа": 4942,
      "хамаагүй": 4943,
      "идэв": 4944,
      "өмс": 4945,
      "ог": 4946,
      "бна": 4947,
      "##үүдийн": 4948,
      "үедээ": 4949,
      "##акц": 4950,
      "түл": 4951,
      "нарийн": 4952,
      "мөрөөд": 4953,
      "th": 4954,
      "##лагатай": 4955,
      "бодол": 4956,
      "хялбар": 4957,
      "цагдаагийн": 4958,
      "##еж": 4959,
      "бүхнийг": 4960,
      "татаж": 4961,
      "үнэндээ": 4962,
      "онцгой": 4963,
      "##хийг": 4964,
      "##гааны": 4965,
      "21": 4966,
      "цай": 4967,
      "өдөрт": 4968,
      "үзэл": 4969,
      "##ашин": 4970,
      "фран": 4971,
      "хэрэглэгч": 4972,
      "??": 4973,
      "хөө": 4974,
      "яриа": 4975,
      "цэн": 4976,
      "явна": 4977,
      "хүрэх": 4978,
      "##гаараа": 4979,
      "ажиллагааны": 4980,
      "##маас": 4981,
      "сууц": 4982,
      "хоолой": 4983,
      "гээ": 4984,
      "сууд": 4985,
      "##луулах": 4986,
      "алх": 4987,
      "##хгүй": 4988,
      "шинэчл": 4989,
      "герман": 4990,
      "##чдын": 4991,
      "##ay": 4992,
      "##ааж": 4993,
      "өрт": 4994,
      "ног": 4995,
      "##ью": 4996,
      "##ирус": 4997,
      "##ед": 4998,
      "##төр": 4999,
      "урлаг": 5000,
      "дасгал": 5001,
      "##ина": 5002,
      "дахиад": 5003,
      "шалг": 5004,
      "хүсэл": 5005,
      "хувилбар": 5006,
      "дэд": 5007,
      "мэдлэг": 5008,
      "үзүүлэх": 5009,
      "хөдөө": 5010,
      "хүчтэй": 5011,
      "автом": 5012,
      "сах": 5013,
      "давхар": 5014,
      "аливаа": 5015,
      "цэргийн": 5016,
      "байгуулах": 5017,
      "##гана": 5018,
      "2017": 5019,
      "газарт": 5020,
      "мэндийн": 5021,
      "гр": 5022,
      "2018": 5023,
      "бээлий": 5024,
      "##is": 5025,
      "##ндаа": 5026,
      "тавь": 5027,
      "станд": 5028,
      "бүтээгдэхүү": 5029,
      "байшин": 5030,
      "яар": 5031,
      "дэлгүүр": 5032,
      "##лагд": 5033,
      "ерөнхийлөгчийн": 5034,
      "оролцох": 5035,
      "цаашид": 5036,
      "##тийн": 5037,
      "бичиж": 5038,
      "тэдэнд": 5039,
      "элс": 5040,
      "видео": 5041,
      "##эсгэл": 5042,
      "очих": 5043,
      "##тол": 5044,
      "##даан": 5045,
      "дэлгэрэнгүй": 5046,
      "түүнчлэн": 5047,
      "##хим": 5048,
      "хангалттай": 5049,
      "жаахан": 5050,
      "сонгох": 5051,
      "байдалд": 5052,
      "2019": 5053,
      "##лөгч": 5054,
      "зогсоо": 5055,
      "охид": 5056,
      "нохой": 5057,
      "##эрлэг": 5058,
      "бүтэн": 5059,
      "st": 5060,
      "тор": 5061,
      "зохиол": 5062,
      "бараа": 5063,
      "анги": 5064,
      "үлдсэн": 5065,
      "22": 5066,
      "мая": 5067,
      "##мээр": 5068,
      "уурхайн": 5069,
      "ну": 5070,
      "яланг": 5071,
      "##өөсөө": 5072,
      "адилхан": 5073,
      "ялангу": 5074,
      "##унт": 5075,
      "хүчний": 5076,
      "нэлээд": 5077,
      "##сыг": 5078,
      "эрчүүд": 5079,
      "амьдралд": 5080,
      "хийлг": 5081,
      "тогтвор": 5082,
      "тэрбум": 5083,
      "ялангуяа": 5084,
      "үзэсгэл": 5085,
      "зээлийн": 5086,
      "##маг": 5087,
      "сүлжээ": 5088,
      "зэв": 5089,
      "ханг": 5090,
      "зүүн": 5091,
      "##шээл": 5092,
      "салбарын": 5093,
      "##ed": 5094,
      "хүрч": 5095,
      "хүнтэй": 5096,
      "нур": 5097,
      "эрсдэл": 5098,
      "##тор": 5099,
      "хөдл": 5100,
      "##өгийн": 5101,
      "урам": 5102,
      "үргэлжил": 5103,
      "##рай": 5104,
      "аялал": 5105,
      "өнөөдрийн": 5106,
      "хүргэж": 5107,
      "an": 5108,
      "хөх": 5109,
      "##ноо": 5110,
      "сурах": 5111,
      "хуучин": 5112,
      "хас": 5113,
      "орх": 5114,
      "хүсдэг": 5115,
      "мэдэр": 5116,
      "хугацааны": 5117,
      "хэлэхэд": 5118,
      "тамир": 5119,
      "шагнал": 5120,
      "хөв": 5121,
      "яри": 5122,
      "дүнг": 5123,
      "бэлэг": 5124,
      "яахав": 5125,
      "##гыг": 5126,
      "цэцэрлэг": 5127,
      "##рэн": 5128,
      "вэб": 5129,
      "хх": 5130,
      "##ладаг": 5131,
      "оршин": 5132,
      "##даас": 5133,
      "найр": 5134,
      "хэлдэг": 5135,
      "мас": 5136,
      "##үүлэгч": 5137,
      "гарын": 5138,
      "заримдаа": 5139,
      "баян": 5140,
      "төдий": 5141,
      "хэрэгжүүлэх": 5142,
      "ярьдаг": 5143,
      "өмнөд": 5144,
      "000": 5145,
      "хог": 5146,
      "00": 5147,
      "боль": 5148,
      "яваад": 5149,
      "давуу": 5150,
      "үгийг": 5151,
      "##эе": 5152,
      "улмаас": 5153,
      "тоглох": 5154,
      "бэлтгэл": 5155,
      "?\"": 5156,
      "##el": 5157,
      "хүрсэн": 5158,
      "сэргээ": 5159,
      "товч": 5160,
      "бог": 5161,
      "##ow": 5162,
      "гараад": 5163,
      "шинээр": 5164,
      "унших": 5165,
      "##тгалз": 5166,
      "татгалз": 5167,
      "үүл": 5168,
      "зориг": 5169,
      "амжилттай": 5170,
      "франц": 5171,
      "оху": 5172,
      "бэрхшээл": 5173,
      "талбай": 5174,
      "эцэст": 5175,
      "эгч": 5176,
      "##as": 5177,
      "хэргийн": 5178,
      "оросын": 5179,
      "##эгдсэн": 5180,
      "##лам": 5181,
      "ангил": 5182,
      "##ших": 5183,
      "сум": 5184,
      "байдлын": 5185,
      "##ья": 5186,
      "##гий": 5187,
      "алтан": 5188,
      "нэмэлт": 5189,
      "барилг": 5190,
      "тавьсан": 5191,
      "цахил": 5192,
      "шөнө": 5193,
      "##эснээр": 5194,
      "стр": 5195,
      "ойлголт": 5196,
      "ажиг": 5197,
      "хариулт": 5198,
      "яриад": 5199,
      "сор": 5200,
      "жолоо": 5201,
      "##дол": 5202,
      "хүл": 5203,
      "хойд": 5204,
      "амиа": 5205,
      "хаяг": 5206,
      "зөн": 5207,
      "##уулаад": 5208,
      "сурвал": 5209,
      "илэрхийл": 5210,
      "америкийн": 5211,
      "аф": 5212,
      "##un": 5213,
      "алт": 5214,
      "хож": 5215,
      "шалгар": 5216,
      "суртал": 5217,
      "тээрэм": 5218,
      "##il": 5219,
      "##үүлнэ": 5220,
      "##тгээд": 5221,
      "тусал": 5222,
      "харамсалтай": 5223,
      "харсан": 5224,
      "алхам": 5225,
      "ажилласан": 5226,
      "арь": 5227,
      "ирдэг": 5228,
      "явуулах": 5229,
      "шалгалт": 5230,
      "тээврийн": 5231,
      "дэмжих": 5232,
      "гут": 5233,
      "дургүй": 5234,
      "боломжийг": 5235,
      "ат": 5236,
      "##наж": 5237,
      "байгаагаа": 5238,
      "хяналт": 5239,
      "засвар": 5240,
      "ойлгох": 5241,
      "хуваал": 5242,
      "ахуйн": 5243,
      "сөр": 5244,
      "чадаагүй": 5245,
      "гэрэл": 5246,
      "нарт": 5247,
      "оноо": 5248,
      "кар": 5249,
      "амж": 5250,
      "өчигд": 5251,
      "зарна": 5252,
      "##ахыг": 5253,
      "ажл": 5254,
      "мөнх": 5255,
      "эрхэм": 5256,
      "үнэтэй": 5257,
      "2015": 5258,
      "үйлдэл": 5259,
      "бүрт": 5260,
      "##ьютер": 5261,
      "##лээр": 5262,
      "##лиг": 5263,
      "тайван": 5264,
      "эрдэм": 5265,
      "багийн": 5266,
      "анд": 5267,
      "тэж": 5268,
      "##ага": 5269,
      "##длын": 5270,
      "##ad": 5271,
      "нэгдсэн": 5272,
      "##гис": 5273,
      "##сын": 5274,
      "суух": 5275,
      "амьдардаг": 5276,
      "ээлж": 5277,
      "хайж": 5278,
      "кор": 5279,
      "##үүц": 5280,
      "баруун": 5281,
      "вакц": 5282,
      "муж": 5283,
      "##итан": 5284,
      "ирнэ": 5285,
      "no": 5286,
      "##агчид": 5287,
      "бодсон": 5288,
      "талд": 5289,
      "сург": 5290,
      "эсэрг": 5291,
      "онцлог": 5292,
      "компьютер": 5293,
      "тоног": 5294,
      "нунт": 5295,
      "нунтаг": 5296,
      "##тнууд": 5297,
      "нэрийг": 5298,
      "сам": 5299,
      "төсөв": 5300,
      "зөвлөл": 5301,
      "##үүлдэг": 5302,
      "томил": 5303,
      "байгаль": 5304,
      "##ээний": 5305,
      "хүчир": 5306,
      "##үүлэн": 5307,
      "илр": 5308,
      "жуул": 5309,
      "##бэр": 5310,
      "харагдаж": 5311,
      "##оп": 5312,
      "тарх": 5313,
      "ёсны": 5314,
      "есү": 5315,
      "тэс": 5316,
      "##тугай": 5317,
      "##длийг": 5318,
      "##сгөл": 5319,
      "дэмжлэг": 5320,
      "##гөөр": 5321,
      "##сийг": 5322,
      "##гөж": 5323,
      "бэлтг": 5324,
      "хөдөлгөөн": 5325,
      "нэгдүгээр": 5326,
      "оно": 5327,
      "нэгж": 5328,
      "хагас": 5329,
      "##хоо": 5330,
      "##арсан": 5331,
      "сэдэв": 5332,
      "тел": 5333,
      "дүгнэлт": 5334,
      "##оу": 5335,
      "эмчилгээ": 5336,
      "сургуульд": 5337,
      "##нээн": 5338,
      "гардаг": 5339,
      "сонгууль": 5340,
      "жагсаалт": 5341,
      "им": 5342,
      "хурим": 5343,
      "##ланд": 5344,
      "анхаарал": 5345,
      "##оонд": 5346,
      "мэдрэмж": 5347,
      "##et": 5348,
      "алдаг": 5349,
      "томоохон": 5350,
      "##лалтай": 5351,
      "ганцаараа": 5352,
      "дэм": 5353,
      "арх": 5354,
      "газраас": 5355,
      "##аач": 5356,
      "хангах": 5357,
      "өөрчлөх": 5358,
      "дэмжиж": 5359,
      "цөөн": 5360,
      "хамтдаа": 5361,
      "түрүү": 5362,
      "тушаал": 5363,
      "ярьсан": 5364,
      "60": 5365,
      "алдсан": 5366,
      "урьдчил": 5367,
      "энэтхэг": 5368,
      "зуу": 5369,
      "##эрхүү": 5370,
      "огц": 5371,
      "илгээ": 5372,
      "мөрд": 5373,
      "ням": 5374,
      "амьтан": 5375,
      "ороод": 5376,
      "ардчилсан": 5377,
      "хэрэгсэл": 5378,
      "хуваалц": 5379,
      "##ноос": 5380,
      "эцсийн": 5381,
      "наадам": 5382,
      "дотр": 5383,
      "жаргалтай": 5384,
      "2014": 5385,
      "##инг": 5386,
      "ажиллагааг": 5387,
      "өл": 5388,
      "уучл": 5389,
      "манайд": 5390,
      "ядаж": 5391,
      "##уулга": 5392,
      "бодис": 5393,
      "дүнд": 5394,
      "үлдээ": 5395,
      "британ": 5396,
      "##ээээ": 5397,
      "хүсэж": 5398,
      "чуулган": 5399,
      "эсэргүүц": 5400,
      "хэвлэл": 5401,
      "дөрөв": 5402,
      "итгэлтэй": 5403,
      "хамгаал": 5404,
      "уулзалт": 5405,
      "эсэхийг": 5406,
      "хоёрдугаар": 5407,
      "шаардлагагүй": 5408,
      "бах": 5409,
      "хv": 5410,
      "ингэснээр": 5411,
      "##өгч": 5412,
      "хүүхдээ": 5413,
      "сув": 5414,
      ").": 5415,
      "on": 5416,
      "хэмжээг": 5417,
      "re": 5418,
      "шан": 5419,
      "олсон": 5420,
      "биеийн": 5421,
      "хэтэр": 5422,
      "аш": 5423,
      "из": 5424,
      "хоо": 5425,
      "##ла": 5426,
      "##заар": 5427,
      "ганцхан": 5428,
      "агаарын": 5429,
      "худлаа": 5430,
      "үзүүлэлт": 5431,
      "##рист": 5432,
      "##бор": 5433,
      "##гүүд": 5434,
      "орлого": 5435,
      "өчигдөр": 5436,
      "номын": 5437,
      "түмний": 5438,
      "ашигтай": 5439,
      "2008": 5440,
      "нийслэлийн": 5441,
      "ли": 5442,
      "##ээдэг": 5443,
      "идэвх": 5444,
      "ийнхүү": 5445,
      "хамтлаг": 5446,
      "сурвалж": 5447,
      "##id": 5448,
      "гуд": 5449,
      "наа": 5450,
      "этгээд": 5451,
      "үүн": 5452,
      "улстөр": 5453,
      "нарыг": 5454,
      "цахилгаан": 5455,
      "хямд": 5456,
      "гарга": 5457,
      "шав": 5458,
      "##гууд": 5459,
      "байд": 5460,
      "ис": 5461,
      "тэв": 5462,
      "##оф": 5463,
      "##мал": 5464,
      "манайх": 5465,
      "сонгуульд": 5466,
      "холбогдох": 5467,
      "өвчин": 5468,
      "баяртай": 5469,
      "зая": 5470,
      "ёсоор": 5471,
      "гvй": 5472,
      "сэл": 5473,
      "##андаа": 5474,
      "хэлээд": 5475,
      "сэргий": 5476,
      "дая": 5477,
      "сүр": 5478,
      "түрээс": 5479,
      "##ur": 5480,
      "бөө": 5481,
      "ди": 5482,
      "байлг": 5483,
      "аварга": 5484,
      "алба": 5485,
      "ойролцоо": 5486,
      "уйл": 5487,
      "амьсгал": 5488,
      "##ондоо": 5489,
      "оролд": 5490,
      "ангийн": 5491,
      "уншиж": 5492,
      "##ag": 5493,
      "хэрэгцээ": 5494,
      "холбооны": 5495,
      "дүрэм": 5496,
      "хэрэглэж": 5497,
      "порно": 5498,
      "төмөр": 5499,
      "гэг": 5500,
      "##бир": 5501,
      "тоглог": 5502,
      "ухаа": 5503,
      "соёл": 5504,
      "хуваар": 5505,
      "уудыг": 5506,
      "ажилтан": 5507,
      "надаас": 5508,
      "талаас": 5509,
      "халуун": 5510,
      "ихэв": 5511,
      "хэсэгт": 5512,
      "талын": 5513,
      "ирлээ": 5514,
      "the": 5515,
      "уламж": 5516,
      "амархан": 5517,
      "иргэний": 5518,
      "чулуу": 5519,
      "##ко": 5520,
      "цог": 5521,
      "цом": 5522,
      "2013": 5523,
      "ихэвчлэн": 5524,
      "##айл": 5525,
      "амт": 5526,
      "дурс": 5527,
      "тэнц": 5528,
      "асуудлаар": 5529,
      "##ба": 5530,
      "хувьцаа": 5531,
      "цэцэг": 5532,
      "төсвийн": 5533,
      "богино": 5534,
      "гаа": 5535,
      "мн": 5536,
      "мен": 5537,
      "to": 5538,
      "байгуулсан": 5539,
      "нээлттэй": 5540,
      "##гад": 5541,
      "##дэд": 5542,
      "##мыг": 5543,
      "учиртай": 5544,
      "учр": 5545,
      "саяхан": 5546,
      "##уулагч": 5547,
      "##снээр": 5548,
      "байнаа": 5549,
      "асар": 5550,
      "шинжлэх": 5551,
      "нот": 5552,
      "буцаа": 5553,
      "тохиромжтой": 5554,
      "стандарт": 5555,
      "бодоод": 5556,
      "зөвшөөрөл": 5557,
      "зуун": 5558,
      "экс": 5559,
      "элб": 5560,
      "кам": 5561,
      "##хаг": 5562,
      "##гүүр": 5563,
      "##зан": 5564,
      "секс": 5565,
      "кл": 5566,
      "##ion": 5567,
      "урал": 5568,
      "бизнесийн": 5569,
      "бөмбөг": 5570,
      "23": 5571,
      "##тул": 5572,
      "явуулж": 5573,
      "кан": 5574,
      "##эндээ": 5575,
      "эргэж": 5576,
      "эхлэн": 5577,
      "зэвс": 5578,
      "хэвээр": 5579,
      "##портын": 5580,
      "олгох": 5581,
      "гараа": 5582,
      "эрхийг": 5583,
      "хариуцлага": 5584,
      "##гөл": 5585,
      "барь": 5586,
      "##лэнэ": 5587,
      "сангийн": 5588,
      "ердөө": 5589,
      "дайн": 5590,
      "##рийг": 5591,
      "өвөр": 5592,
      "хүрэлсү": 5593,
      "##шээ": 5594,
      "зургийг": 5595,
      "эндээс": 5596,
      "дөө": 5597,
      "иймэрхүү": 5598,
      "хандаж": 5599,
      "харахад": 5600,
      "##эхдээ": 5601,
      "хэдийн": 5602,
      "##наа": 5603,
      "##длийн": 5604,
      "цув": 5605,
      "дий": 5606,
      "дулаа": 5607,
      "зургаан": 5608,
      "уй": 5609,
      "хүнсний": 5610,
      "байгалийн": 5611,
      "яасан": 5612,
      "##орын": 5613,
      "##тгах": 5614,
      "даяар": 5615,
      "оруулалт": 5616,
      "гадаадын": 5617,
      "тогтвортой": 5618,
      "авчир": 5619,
      "түвшинд": 5620,
      "дөн": 5621,
      "замаар": 5622,
      "ес": 5623,
      "##ри": 5624,
      "хэргийг": 5625,
      "залуучууд": 5626,
      "царай": 5627,
      "сэтгэгдэл": 5628,
      "өсөлт": 5629,
      "төрөлх": 5630,
      "ной": 5631,
      "сэн": 5632,
      "##бэл": 5633,
      "##**": 5634,
      "архи": 5635,
      "сумын": 5636,
      "хийхэд": 5637,
      "зүтг": 5638,
      "##үүний": 5639,
      "тоглож": 5640,
      "хүүхдэд": 5641,
      "эхэлж": 5642,
      "##эш": 5643,
      "хэлний": 5644,
      "##оорой": 5645,
      "байранд": 5646,
      "ch": 5647,
      "##өсөн": 5648,
      "хэрэгт": 5649,
      "төлөх": 5650,
      "дэлхийд": 5651,
      "##уд": 5652,
      "бусдын": 5653,
      "мян": 5654,
      "урьдчилан": 5655,
      "хээ": 5656,
      "тушаа": 5657,
      "сайдын": 5658,
      "зүйлээ": 5659,
      "##чиг": 5660,
      "жүжигчин": 5661,
      "үд": 5662,
      "оролцож": 5663,
      "үйлчилгээний": 5664,
      "гарна": 5665,
      "##имп": 5666,
      "##дана": 5667,
      "оруулсан": 5668,
      "бүхэнд": 5669,
      "нэртэй": 5670,
      "албаны": 5671,
      "нэмж": 5672,
      "##хад": 5673,
      "өөрсд": 5674,
      "##eb": 5675,
      "зардал": 5676,
      "эхэллээ": 5677,
      "шив": 5678,
      "үзээрэй": 5679,
      "нийц": 5680,
      "тайлан": 5681,
      "##тэр": 5682,
      "##ot": 5683,
      "##уулахад": 5684,
      "хаанаас": 5685,
      "телев": 5686,
      "каз": 5687,
      "бусдад": 5688,
      "болгосон": 5689,
      "хороо": 5690,
      "хөгжим": 5691,
      "зүйтэй": 5692,
      "алдартай": 5693,
      "хах": 5694,
      "хэнд": 5695,
      "барилгын": 5696,
      "бохир": 5697,
      "өнөөгийн": 5698,
      "хэвийн": 5699,
      "үнэлгээ": 5700,
      "урд": 5701,
      "телевиз": 5702,
      "ap": 5703,
      "##ег": 5704,
      "оюутнууд": 5705,
      "байсныг": 5706,
      "хоёрын": 5707,
      "давт": 5708,
      "##огдсон": 5709,
      "идэх": 5710,
      "хэдийг": 5711,
      "зүгээс": 5712,
      "зуур": 5713,
      "христ": 5714,
      "##лол": 5715,
      "2011": 5716,
      "гайхам": 5717,
      "анзаар": 5718,
      "цагаа": 5719,
      "хэх": 5720,
      "багас": 5721,
      "дүүрэн": 5722,
      "26": 5723,
      "сонсох": 5724,
      "гудамж": 5725,
      "сүүлд": 5726,
      "##кк": 5727,
      "эг": 5728,
      "##ch": 5729,
      "чанартай": 5730,
      "дандаа": 5731,
      "##чихсэн": 5732,
      "##гээд": 5733,
      "биеэ": 5734,
      "80": 5735,
      "##ub": 5736,
      "эрүү": 5737,
      "менеж": 5738,
      "лаа": 5739,
      "итгэж": 5740,
      "санагддаг": 5741,
      "ашигладаг": 5742,
      "вал": 5743,
      "хуулийг": 5744,
      "дуучин": 5745,
      "##гаасаа": 5746,
      "##лбал": 5747,
      "усны": 5748,
      "нөлөөл": 5749,
      "машины": 5750,
      "га": 5751,
      "##пер": 5752,
      "##лагыг": 5753,
      "198": 5754,
      "болоогүй": 5755,
      "шалгах": 5756,
      "ариун": 5757,
      "зүүд": 5758,
      "##уб": 5759,
      "##онх": 5760,
      "хүрээл": 5761,
      "дүнтэй": 5762,
      "new": 5763,
      "журам": 5764,
      "##нгын": 5765,
      "хүндэтг": 5766,
      "агуу": 5767,
      "##тон": 5768,
      "##ъё": 5769,
      "чаддаггүй": 5770,
      "нөхөд": 5771,
      "барилга": 5772,
      "даш": 5773,
      "орно": 5774,
      "тэмцээн": 5775,
      "боловсрол": 5776,
      "гэс": 5777,
      "##шуул": 5778,
      "автоб": 5779,
      "28": 5780,
      "дарж": 5781,
      "тухайлбал": 5782,
      "өвд": 5783,
      "зориулж": 5784,
      "гүн": 5785,
      "эрхтэй": 5786,
      "##ing": 5787,
      "зөрчил": 5788,
      "##рэл": 5789,
      "хувийг": 5790,
      "сүн": 5791,
      "вакцин": 5792,
      "##тний": 5793,
      "##шөө": 5794,
      "оролцсон": 5795,
      "хараа": 5796,
      "хөөрхөн": 5797,
      "эзэмш": 5798,
      "тоол": 5799,
      "хамаа": 5800,
      "буул": 5801,
      "ардын": 5802,
      "com": 5803,
      "##дийг": 5804,
      "##тайгаа": 5805,
      "найдвар": 5806,
      "##ель": 5807,
      "???": 5808,
      "үзэсгэлэн": 5809,
      "27": 5810,
      "баатар": 5811,
      "зол": 5812,
      "##сныг": 5813,
      "чиглэлээр": 5814,
      "шуур": 5815,
      "уудын": 5816,
      "##ихгүй": 5817,
      "мөнгөө": 5818,
      "шүүмж": 5819,
      "шийдвэрлэх": 5820,
      "спорт": 5821,
      "олимп": 5822,
      "санаж": 5823,
      "хоолны": 5824,
      "шалтгаа": 5825,
      "ххк": 5826,
      "##оог": 5827,
      "бул": 5828,
      "##амжийн": 5829,
      "хүргэе": 5830,
      "оюутан": 5831,
      "үзнэ": 5832,
      "залбир": 5833,
      "афр": 5834,
      "##иас": 5835,
      "хамтын": 5836,
      "ардчил": 5837,
      "##мад": 5838,
      "шийдэх": 5839,
      "зорилгоор": 5840,
      "хувиар": 5841,
      "ачаа": 5842,
      "##us": 5843,
      "##анг": 5844,
      "түгээ": 5845,
      "бүсгүйчүүд": 5846,
      "худалдааны": 5847,
      "##илга": 5848,
      "ураг": 5849,
      "сурагч": 5850,
      "эмэгтэйчүүдийн": 5851,
      "парлам": 5852,
      "компаниуд": 5853,
      "нийслэл": 5854,
      "##хау": 5855,
      "түг": 5856,
      "тогтоол": 5857,
      "татах": 5858,
      "en": 5859,
      "бнхау": 5860,
      "мөнгөний": 5861,
      "зөндөө": 5862,
      "дам": 5863,
      "дүгээр": 5864,
      "зорилт": 5865,
      "сэтгэлийн": 5866,
      "залуус": 5867,
      "хичээ": 5868,
      "банкны": 5869,
      "ноё": 5870,
      "талаарх": 5871,
      "жолооч": 5872,
      "авлиг": 5873,
      "үнэр": 5874,
      "баттул": 5875,
      "муухай": 5876,
      "чадвартай": 5877,
      "500": 5878,
      "юмуу": 5879,
      "найзууд": 5880,
      "дэрг": 5881,
      "судалгааны": 5882,
      "дэргэд": 5883,
      "шоу": 5884,
      "##чээр": 5885,
      "байлгүй": 5886,
      "мөнгийг": 5887,
      "суд": 5888,
      "эргээд": 5889,
      "нөхцөлд": 5890,
      "технологи": 5891,
      "сөрөг": 5892,
      "наас": 5893,
      "буд": 5894,
      "үйлдвэрийн": 5895,
      "борлуул": 5896,
      "өөс": 5897,
      "##уууу": 5898,
      "##ent": 5899,
      "тэгш": 5900,
      "идэж": 5901,
      "ухааны": 5902,
      "сэдв": 5903,
      "вирус": 5904,
      "сүй": 5905,
      "##жаа": 5906,
      "олбор": 5907,
      "зад": 5908,
      "амьт": 5909,
      "тогтоох": 5910,
      "нэх": 5911,
      "ip": 5912,
      "саар": 5913,
      "##фф": 5914,
      "дэлгэц": 5915,
      "гүйцэтгэх": 5916,
      "ногоон": 5917,
      "байнгын": 5918,
      "##ирч": 5919,
      "эмээ": 5920,
      "хэмээх": 5921,
      "үлг": 5922,
      "хорв": 5923,
      "боловсролын": 5924,
      "хямрал": 5925,
      "сурталчил": 5926,
      "хэтэрхий": 5927,
      "даргын": 5928,
      "гэрт": 5929,
      "марк": 5930,
      "тодорхойл": 5931,
      "хандах": 5932,
      "##сар": 5933,
      "хөгжүүлэх": 5934,
      "нүб": 5935,
      "түлх": 5936,
      "туу": 5937,
      "##мол": 5938,
      "жагсаал": 5939,
      "мэргэжил": 5940,
      "##ook": 5941,
      "##наар": 5942,
      "гэнэт": 5943,
      "сайжруулах": 5944,
      "өрсөл": 5945,
      "дотроо": 5946,
      "авст": 5947,
      "ажиллана": 5948,
      "үргэлжлүүл": 5949,
      "гомдол": 5950,
      "дэнд": 5951,
      "мэдсэн": 5952,
      "дээрээс": 5953,
      "чанарын": 5954,
      "ялг": 5955,
      "өрөөнд": 5956,
      "##бат": 5957,
      "надтай": 5958,
      "дон": 5959,
      "иргэдэд": 5960,
      "##оомж": 5961,
      "үлгэр": 5962,
      "##лүүлж": 5963,
      "##агдаад": 5964,
      "ховор": 5965,
      "таларх": 5966,
      "үнэм": 5967,
      "##үүлээд": 5968,
      "аргаар": 5969,
      "##агддаг": 5970,
      "тэргүүн": 5971,
      "ашиглан": 5972,
      "ахмад": 5973,
      "инээ": 5974,
      "авто": 5975,
      "##...": 5976,
      "зох": 5977,
      "байгуулж": 5978,
      "дугуй": 5979,
      "төслийн": 5980,
      "тутмын": 5981,
      "гаргадаг": 5982,
      "##лоор": 5983,
      "хүүхэдтэй": 5984,
      "аараа": 5985,
      "чөлөөт": 5986,
      "даатгал": 5987,
      "дөнгөж": 5988,
      "гайхамшиг": 5989,
      "co": 5990,
      "өрсөлд": 5991,
      "цац": 5992,
      "##цгаа": 5993,
      "2009": 5994,
      "мэргэжилт": 5995,
      "галз": 5996,
      "бүтээгдэхүүний": 5997,
      "сурч": 5998,
      "зүйлийн": 5999,
      "эмнэлгийн": 6000,
      "you": 6001,
      "хүсье": 6002,
      "баярын": 6003,
      "нэгэнт": 6004,
      "жирэм": 6005,
      "se": 6006,
      "заалт": 6007,
      "##өхгүй": 6008,
      "дууссан": 6009,
      "##лов": 6010,
      "орхи": 6011,
      "хэвт": 6012,
      "анхаарах": 6013,
      "боловсруулах": 6014,
      "энхбаяр": 6015,
      "90": 6016,
      "байгаарай": 6017,
      "##даагүй": 6018,
      "бодлоо": 6019,
      "эрхийн": 6020,
      "хийхгүй": 6021,
      "олны": 6022,
      "жим": 6023,
      "##ддэг": 6024,
      "хэлэв": 6025,
      "тутам": 6026,
      "болзо": 6027,
      "2010": 6028,
      "юуны": 6029,
      "шалгаж": 6030,
      "киноны": 6031,
      "зовлон": 6032,
      "хоорондоо": 6033,
      "эер": 6034,
      "японы": 6035,
      "зүйлд": 6036,
      "70": 6037,
      "судлаа": 6038,
      "захи": 6039,
      "чухам": 6040,
      "технологийн": 6041,
      "хэдийгээр": 6042,
      "##ка": 6043,
      "хяналтын": 6044,
      "мянга": 6045,
      "хэллээ": 6046,
      "аад": 6047,
      "цөм": 6048,
      "бүгдээрээ": 6049,
      "сонссон": 6050,
      "ухаалаг": 6051,
      "болзошгүй": 6052,
      "лам": 6053,
      "##ху": 6054,
      "өгөхгүй": 6055,
      "очоод": 6056,
      "зөөл": 6057,
      "##гчид": 6058,
      "хүрээ": 6059,
      "замыг": 6060,
      "ойрын": 6061,
      "зөрч": 6062,
      "гор": 6063,
      "юуг": 6064,
      "##изм": 6065,
      "энхболд": 6066,
      "австрал": 6067,
      "##ri": 6068,
      "хэрэглэдэг": 6069,
      "##дэггүй": 6070,
      "газрыг": 6071,
      "утасны": 6072,
      "шдээ": 6073,
      "дагаж": 6074,
      "аюултай": 6075,
      "шуу": 6076,
      "байхаа": 6077,
      "хүүхдийг": 6078,
      "тэмцэх": 6079,
      "насанд": 6080,
      "##лүүд": 6081,
      "##жүүлэх": 6082,
      "##члах": 6083,
      "найдаж": 6084,
      "төсөөл": 6085,
      "хороол": 6086,
      "үйлдвэрлэл": 6087,
      "түүнтэй": 6088,
      "сэтгүүлч": 6089,
      "##элийн": 6090,
      "хэмжээгээр": 6091,
      "##екс": 6092,
      "цох": 6093,
      "##енер": 6094,
      "эерэг": 6095,
      "нууд": 6096,
      "орг": 6097,
      "бүхний": 6098,
      "хүргэх": 6099,
      "уулзах": 6100,
      "саналыг": 6101,
      "##єр": 6102,
      "таалаг": 6103,
      "өмнөөс": 6104,
      "брэнд": 6105,
      "##би": 6106,
      "төрд": 6107,
      "болгодог": 6108,
      "news": 6109,
      "да": 6110,
      "уух": 6111,
      "долоон": 6112,
      "##гуур": 6113,
      "бут": 6114,
      "явуул": 6115,
      "асуудалд": 6116,
      "ка": 6117,
      "хоц": 6118,
      "тэмцээнд": 6119,
      "удирдах": 6120,
      "виз": 6121,
      "өөд": 6122,
      "найман": 6123,
      "нийтэд": 6124,
      "цуврал": 6125,
      "al": 6126,
      "ром": 6127,
      "##ia": 6128,
      "хэдхэн": 6129,
      "шүүхийн": 6130,
      "нэн": 6131,
      "байхаар": 6132,
      "тайгаа": 6133,
      "амьдралыг": 6134,
      "хажуу": 6135,
      "##...]": 6136,
      "апп": 6137,
      "гам": 6138,
      "ордог": 6139,
      "хураа": 6140,
      "хаагч": 6141,
      "очсон": 6142,
      "страт": 6143,
      "сэргийлэх": 6144,
      "##саг": 6145,
      "барив": 6146,
      "сургалтын": 6147,
      "##дорж": 6148,
      "тэгсэн": 6149,
      "хугацааг": 6150,
      "хоригл": 6151,
      "хэхэ": 6152,
      "[...]": 6153,
      "фор": 6154,
      "##os": 6155,
      "интернэ": 6156,
      "тогтмол": 6157,
      "дүрс": 6158,
      "бодлогын": 6159,
      "орчинд": 6160,
      "гун": 6161,
      "төлөөлөгч": 6162,
      "мунд": 6163,
      "ойлгомжтой": 6164,
      "уулзаж": 6165,
      "нийгэмд": 6166,
      "уна": 6167,
      "үй": 6168,
      "байгуулагдсан": 6169,
      "орондоо": 6170,
      "харагдах": 6171,
      "бутлуурын": 6172,
      "долларын": 6173,
      "түрүүнд": 6174,
      "дүүргийн": 6175,
      "болчихсон": 6176,
      "есүс": 6177,
      "аваарай": 6178,
      "##дээгүй": 6179,
      "ургам": 6180,
      "ширх": 6181,
      "##лөр": 6182,
      "уст": 6183,
      "доош": 6184,
      "босг": 6185,
      "нисэх": 6186,
      "##члалын": 6187,
      "зууны": 6188,
      "үзээгүй": 6189,
      "##огдох": 6190,
      "цогц": 6191,
      "код": 6192,
      "об": 6193,
      "##ap": 6194,
      "юун": 6195,
      "нэгд": 6196,
      "танхим": 6197,
      "үнэнийг": 6198,
      "заасан": 6199,
      "саад": 6200,
      "##агийн": 6201,
      "хэрэгжүүлж": 6202,
      "хөгжилтэй": 6203,
      "өөрсдийгөө": 6204,
      "дэндүү": 6205,
      "гав": 6206,
      "##ээхэн": 6207,
      "байцаа": 6208,
      "тодруул": 6209,
      "оюу": 6210,
      "суурил": 6211,
      "инд": 6212,
      "өдрүүдэд": 6213,
      "яаралтай": 6214,
      "##иан": 6215,
      "юмыг": 6216,
      "санд": 6217,
      "хорооны": 6218,
      "сонирхол": 6219,
      "өдрийг": 6220,
      "атг": 6221,
      "##баяр": 6222,
      "гадуур": 6223,
      "тоглоо": 6224,
      "сүм": 6225,
      "маск": 6226,
      "шаш": 6227,
      "##ош": 6228,
      "##элдэг": 6229,
      "дарам": 6230,
      "зарчим": 6231,
      "хүрэлсүх": 6232,
      "хуульд": 6233,
      "ажиллагаанд": 6234,
      "нээх": 6235,
      "далай": 6236,
      "##нет": 6237,
      "шашин": 6238,
      "##эгчид": 6239,
      "##гаагүй": 6240,
      "....": 6241,
      "ханш": 6242,
      "авлаа": 6243,
      "ойлгодог": 6244,
      "эхэлнэ": 6245,
      "####": 6246,
      "айд": 6247,
      "зааж": 6248,
      "дайр": 6249,
      "sh": 6250,
      "даан": 6251,
      "##бөмб": 6252,
      "сонгосон": 6253,
      "##снаас": 6254,
      "хөлбөмб": 6255,
      "дамжуулан": 6256,
      "автобус": 6257,
      "тухайд": 6258,
      "гадаа": 6259,
      "санагдаж": 6260,
      "соёлын": 6261,
      "үүнтэй": 6262,
      "300": 6263,
      "нүүд": 6264,
      "##тэд": 6265,
      "ажилдаа": 6266,
      "амгал": 6267,
      "цагийг": 6268,
      "эрч": 6269,
      "гадаадад": 6270,
      "удирдлаг": 6271,
      "төслийг": 6272,
      "хажууд": 6273,
      "цол": 6274,
      "цагаар": 6275,
      "асууж": 6276,
      "зайлшгүй": 6277,
      "##um": 6278,
      "болд": 6279,
      "ууж": 6280,
      "үйлчилгээг": 6281,
      "po": 6282,
      "өнц": 6283,
      "амралтын": 6284,
      "##im": 6285,
      "хүнс": 6286,
      "сонсож": 6287,
      "тоглоомын": 6288,
      "урсгал": 6289,
      "байрны": 6290,
      "танилцуул": 6291,
      "35": 6292,
      "шугам": 6293,
      "гуравдугаар": 6294,
      "зөө": 6295,
      "шийдсэн": 6296,
      "тогтолцоо": 6297,
      "хадгалах": 6298,
      "интернет": 6299,
      "нойр": 6300,
      "не": 6301,
      "алдах": 6302,
      "үзүүлж": 6303,
      "тамхи": 6304,
      "үүссэн": 6305,
      "тооны": 6306,
      "##ig": 6307,
      "##ото": 6308,
      "хүйтэн": 6309,
      "##илж": 6310,
      "goo": 6311,
      "уя": 6312,
      "маргаан": 6313,
      "дад": 6314,
      "шим": 6315,
      "##улаа": 6316,
      "##үн": 6317,
      "айж": 6318,
      "туршлагатай": 6319,
      "үндэслэл": 6320,
      "өссөн": 6321,
      "баттулга": 6322,
      "саа": 6323,
      "##ut": 6324,
      "харан": 6325,
      "амын": 6326,
      "ихээр": 6327,
      "хаалга": 6328,
      "страте": 6329,
      "нов": 6330,
      "хувир": 6331,
      "##лэлт": 6332,
      "fac": 6333,
      "карт": 6334,
      "арав": 6335,
      "үнийн": 6336,
      "үсэг": 6337,
      "нээрээ": 6338,
      "авахгүй": 6339,
      "бэлгийн": 6340,
      "туршлага": 6341,
      "зээлд": 6342,
      "тасал": 6343,
      "un": 6344,
      "ак": 6345,
      "таамаг": 6346,
      "итгэх": 6347,
      "ёсгүй": 6348,
      "аасаа": 6349,
      "ганцаар": 6350,
      "баталгааж": 6351,
      "##ve": 6352,
      "итгэдэг": 6353,
      "дууг": 6354,
      "нислэг": 6355,
      "шд": 6356,
      "##иулах": 6357,
      "зод": 6358,
      "саналаа": 6359,
      "хичнээн": 6360,
      "загварын": 6361,
      "харилцан": 6362,
      "урамшуул": 6363,
      "канад": 6364,
      "мундаг": 6365,
      "хүчирхий": 6366,
      "харуул": 6367,
      "бяц": 6368,
      "##вч": 6369,
      "##ee": 6370,
      "##огчид": 6371,
      "ажилтнууд": 6372,
      "хэлээр": 6373,
      "бүхэл": 6374,
      "жив": 6375,
      "хүнээс": 6376,
      "удаад": 6377,
      "төвлөр": 6378,
      "шатны": 6379,
      "усан": 6380,
      "уриал": 6381,
      "хорио": 6382,
      "эмнэлэгт": 6383,
      "##огийн": 6384,
      "өгөг": 6385,
      "29": 6386,
      "##ва": 6387,
      "##сб": 6388,
      "##далгүй": 6389,
      "иймд": 6390,
      "камер": 6391,
      "тр": 6392,
      "хоёулаа": 6393,
      "даалга": 6394,
      "хүсвэл": 6395,
      "найруул": 6396,
      "кол": 6397,
      "шид": 6398,
      "найм": 6399,
      "хэсгийг": 6400,
      "хи": 6401,
      "##лэм": 6402,
      "харагддаг": 6403,
      "хэлэлцэх": 6404,
      "ашиглалт": 6405,
      "корон": 6406,
      "хоосон": 6407,
      "галт": 6408,
      "шул": 6409,
      "зарч": 6410,
      "##галаа": 6411,
      "татварын": 6412,
      "##сайхан": 6413,
      "##өнө": 6414,
      "хааны": 6415,
      "бичгийн": 6416,
      "хатан": 6417,
      "идэвхтэй": 6418,
      "боо": 6419,
      "##иц": 6420,
      "##луулж": 6421,
      "даруй": 6422,
      "шийдэл": 6423,
      "техник": 6424,
      "ашигласан": 6425,
      "зун": 6426,
      "цаас": 6427,
      "орш": 6428,
      "нэгийг": 6429,
      "алдаж": 6430,
      "хөөрхий": 6431,
      "эртний": 6432,
      "вий": 6433,
      "коф": 6434,
      "утг": 6435,
      "##гэ": 6436,
      "болоо": 6437,
      "ихтэй": 6438,
      "юунд": 6439,
      "яриг": 6440,
      "элчин": 6441,
      "бахарх": 6442,
      "жиг": 6443,
      "барсан": 6444,
      "хийхийг": 6445,
      "өөрийнх": 6446,
      "er": 6447,
      "бv": 6448,
      "мөнгөөр": 6449,
      "хуулиар": 6450,
      "бүтээсэн": 6451,
      "чөлөөтэй": 6452,
      "##дэр": 6453,
      "##ter": 6454,
      "хийлээ": 6455,
      "нягт": 6456,
      "эмнэлэг": 6457,
      "хуралдаан": 6458,
      "дуур": 6459,
      "далд": 6460,
      "май": 6461,
      "##олтын": 6462,
      "##ооноос": 6463,
      "##амсар": 6464,
      "дутуу": 6465,
      "мэс": 6466,
      "ихээхэн": 6467,
      "холбогдсон": 6468,
      "болдоггүй": 6469,
      "махн": 6470,
      "жирийн": 6471,
      "арьс": 6472,
      "цөө": 6473,
      "##атор": 6474,
      "хүлээх": 6475,
      "##дсон": 6476,
      "байхын": 6477,
      "##огдож": 6478,
      "байгууллагууд": 6479,
      "дайны": 6480,
      "##гvй": 6481,
      "##ck": 6482,
      "##пан": 6483,
      "цагаас": 6484,
      "##овь": 6485,
      "иргэдийг": 6486,
      "спортын": 6487,
      "##элгүй": 6488,
      "эхлэл": 6489,
      "байгуулалт": 6490,
      "айлын": 6491,
      "дог": 6492,
      "фил": 6493,
      "##gle": 6494,
      "##єє": 6495,
      "үзээд": 6496,
      "иймээс": 6497,
      "түүхэн": 6498,
      "зуны": 6499,
      "зүйлсийг": 6500,
      "медал": 6501,
      "##ангуй": 6502,
      "нөхөн": 6503,
      "гишүүдийн": 6504,
      "байлгах": 6505,
      "итал": 6506,
      "нил": 6507,
      "чингис": 6508,
      "гадны": 6509,
      "өвөл": 6510,
      "##ест": 6511,
      "хэлэлцээр": 6512,
      "нэмэгдүүлэх": 6513,
      "хэрэглэгчийн": 6514,
      "ширхэг": 6515,
      "угаасаа": 6516,
      "##су": 6517,
      "нэмэр": 6518,
      "ирээдүйд": 6519,
      "бяцхан": 6520,
      "доод": 6521,
      "туйл": 6522,
      "##эгдэж": 6523,
      "хөрш": 6524,
      "ээлжит": 6525,
      "мэддэггүй": 6526,
      "хөдөлмөрийн": 6527,
      "##лаар": 6528,
      "##жих": 6529,
      "хурц": 6530,
      "шөнийн": 6531,
      "өгөөч": 6532,
      "сир": 6533,
      "##вуу": 6534,
      "болохоос": 6535,
      "бусдыг": 6536,
      "санхүүжилт": 6537,
      "дом": 6538,
      "кр": 6539,
      "##адаа": 6540,
      "турк": 6541,
      "нэмэх": 6542,
      "азийн": 6543,
      "шоронд": 6544,
      "google": 6545,
      "##ангийн": 6546,
      "бүжиг": 6547,
      "үйлдвэрлэлийн": 6548,
      "##one": 6549,
      "гуай": 6550,
      "vv": 6551,
      "тохиол": 6552,
      "буцаж": 6553,
      "зорилготой": 6554,
      "уучлаарай": 6555,
      "тер": 6556,
      "##лэ": 6557,
      "өгөөд": 6558,
      "даваа": 6559,
      "явцад": 6560,
      "суралцах": 6561,
      "##алын": 6562,
      "##гээрээ": 6563,
      "хамгаалалт": 6564,
      "хонг": 6565,
      "өөрчил": 6566,
      "засах": 6567,
      "баасан": 6568,
      "согт": 6569,
      "таг": 6570,
      "фото": 6571,
      "##дааны": 6572,
      "барьсан": 6573,
      "үлдэх": 6574,
      "of": 6575,
      "үер": 6576,
      "харуулах": 6577,
      "далайн": 6578,
      "тээвэр": 6579,
      "урлагийн": 6580,
      "ноц": 6581,
      "##ноор": 6582,
      "болтол": 6583,
      "эхийн": 6584,
      "цуц": 6585,
      "асуух": 6586,
      "хашаа": 6587,
      "галзуу": 6588,
      "##үүк": 6589,
      "хөрөнгийн": 6590,
      "дэглэм": 6591,
      "de": 6592,
      "диз": 6593,
      "##иф": 6594,
      "гарц": 6595,
      "хэний": 6596,
      "төгсгөл": 6597,
      "##сгэр": 6598,
      "гарахгүй": 6599,
      "эхчүүд": 6600,
      "төвд": 6601,
      "зочид": 6602,
      "жон": 6603,
      "##тик": 6604,
      "##уухан": 6605,
      "хүмүүстэй": 6606,
      "хэсгийн": 6607,
      "сүх": 6608,
      "мэдэгдсэн": 6609,
      "зугаа": 6610,
      "ялгаатай": 6611,
      "##лав": 6612,
      "##тайгаар": 6613,
      "гариг": 6614,
      "тогтоосон": 6615,
      "унд": 6616,
      "##раад": 6617,
      "улмаар": 6618,
      "авахыг": 6619,
      "ерөнхийдөө": 6620,
      "197": 6621,
      "изра": 6622,
      "жи": 6623,
      "лаг": 6624,
      "##ir": 6625,
      "гаргаад": 6626,
      "хүрэхгүй": 6627,
      "?!": 6628,
      "##алгүй": 6629,
      "2000": 6630,
      "##эгдорж": 6631,
      "манайхан": 6632,
      "элбэгдорж": 6633,
      "клуб": 6634,
      "хүрээлэн": 6635,
      "45": 6636,
      "##сал": 6637,
      "##ct": 6638,
      "##асны": 6639,
      "##лдөг": 6640,
      "өнгөрөө": 6641,
      "хичээлийн": 6642,
      "израил": 6643,
      "элэг": 6644,
      "хэлнэ": 6645,
      "хэлбэрээр": 6646,
      "##лөл": 6647,
      "авахад": 6648,
      "цорын": 6649,
      "жилүүдэд": 6650,
      "баялаг": 6651,
      "зугт": 6652,
      "солонгосын": 6653,
      "##цийн": 6654,
      "##dow": 6655,
      "жишээл": 6656,
      "унтаж": 6657,
      "төрх": 6658,
      "үгүйсг": 6659,
      "улиралд": 6660,
      "##th": 6661,
      "тух": 6662,
      "нэгтг": 6663,
      "үзвэл": 6664,
      "наран": 6665,
      "хайх": 6666,
      "ээжийн": 6667,
      "наадмын": 6668,
      "бодлоор": 6669,
      "нийлүүл": 6670,
      "бүлгийн": 6671,
      "!!": 6672,
      "байгууллагад": 6673,
      "амралт": 6674,
      "өрнө": 6675,
      "дорн": 6676,
      "харуулж": 6677,
      "өмгөө": 6678,
      "хэмээ": 6679,
      "уншигч": 6680,
      "гэн": 6681,
      "луй": 6682,
      "тооцоо": 6683,
      "мөч": 6684,
      "хулгайч": 6685,
      "манд": 6686,
      "танил": 6687,
      "багц": 6688,
      "магадлалтай": 6689,
      "зориулалт": 6690,
      "мэдэгдэл": 6691,
      "##мсэг": 6692,
      "хангамж": 6693,
      "##алж": 6694,
      "гарлаа": 6695,
      "үнэт": 6696,
      "ядуу": 6697,
      "app": 6698,
      "жишээлбэл": 6699,
      "түлхүүр": 6700,
      "инээмсэг": 6701,
      "li": 6702,
      "аан": 6703,
      "офф": 6704,
      "энийг": 6705,
      "##отг": 6706,
      "##мийг": 6707,
      "##пл": 6708,
      "хувьсгал": 6709,
      "цаана": 6710,
      "дэвшигч": 6711,
      "вэбсай": 6712,
      "өөрчилж": 6713,
      "болоход": 6714,
      "цэвэрлэх": 6715,
      "амгалан": 6716,
      "ре": 6717,
      "##элсэн": 6718,
      "сайхны": 6719,
      "хугацаагаар": 6720,
      "шийдвэрийг": 6721,
      "олгодог": 6722,
      "1000": 6723,
      "ертөнцөд": 6724,
      "тайв": 6725,
      "дурдсан": 6726,
      "айх": 6727,
      "морь": 6728,
      "стан": 6729,
      "цонх": 6730,
      "тэрийг": 6731,
      "ойлгосон": 6732,
      "дутаг": 6733,
      "хэрэглэгчид": 6734,
      "ar": 6735,
      "хэлт": 6736,
      "эмчл": 6737,
      "байрш": 6738,
      "анхаарлаа": 6739,
      "шуурхай": 6740,
      "де": 6741,
      "##гуу": 6742,
      "биб": 6743,
      "##тгагч": 6744,
      "бидэнтэй": 6745,
      "хамтарч": 6746,
      "новш": 6747,
      "үзэн": 6748,
      "уруу": 6749,
      "шигээ": 6750,
      "нийтлэг": 6751,
      "хандлага": 6752,
      "##ebook": 6753,
      "кофе": 6754,
      "am": 6755,
      "...\"": 6756,
      "утгаараа": 6757,
      "таатай": 6758,
      "бууруулах": 6759,
      "заяа": 6760,
      "##мент": 6761,
      "тодорхойлох": 6762,
      "аймаг": 6763,
      "аймшиг": 6764,
      "дэвсгэр": 6765,
      "аавын": 6766,
      "цаашдаа": 6767,
      "төлөвлөж": 6768,
      "ангилал": 6769,
      "элд": 6770,
      "байсангүй": 6771,
      "##енз": 6772,
      "196": 6773,
      "чух": 6774,
      "онцлов": 6775,
      "захирал": 6776,
      "дурсамж": 6777,
      "цэнэ": 6778,
      "##бан": 6779,
      "төрж": 6780,
      "хүсэхгүй": 6781,
      "хүүхдүүдийн": 6782,
      "бороо": 6783,
      "проц": 6784,
      "##руулж": 6785,
      "хэвээрээ": 6786,
      "төгөлд": 6787,
      "##огчдын": 6788,
      "угаах": 6789,
      "орнуудын": 6790,
      "тоглогч": 6791,
      "байтугай": 6792,
      "авалт": 6793,
      "дарх": 6794,
      "халд": 6795,
      "компаниу": 6796,
      "##өлтийн": 6797,
      "хүүгийн": 6798,
      "өглөөний": 6799,
      "зогсоох": 6800,
      "facebook": 6801,
      "дохи": 6802,
      "тв": 6803,
      "бит": 6804,
      "ухаар": 6805,
      "туршилт": 6806,
      "аймагт": 6807,
      "таалагд": 6808,
      "зөвлөмж": 6809,
      "жор": 6810,
      "байдалтай": 6811,
      "онцол": 6812,
      "тооцоол": 6813,
      "төгөлдөр": 6814,
      "файл": 6815,
      "##алтгүй": 6816,
      "чадвал": 6817,
      "өвөө": 6818,
      "буудал": 6819,
      "доорх": 6820,
      "зөөлөн": 6821,
      "бо": 6822,
      "даж": 6823,
      "иж": 6824,
      "усанд": 6825,
      "шүүгч": 6826,
      "##өөрөө": 6827,
      "тоог": 6828,
      "аял": 6829,
      "стат": 6830,
      "ирээдүйн": 6831,
      "үйлчлүүлэгч": 6832,
      "тэтгэвэр": 6833,
      "хүлээл": 6834,
      "ноён": 6835,
      "ядар": 6836,
      "##чны": 6837,
      "авр": 6838,
      "багтаа": 6839,
      "хорих": 6840,
      "хангаж": 6841,
      "төстэй": 6842,
      "үйлдвэрлэгч": 6843,
      "удирдагч": 6844,
      "таср": 6845,
      "ми": 6846,
      "гарт": 6847,
      "буян": 6848,
      "батлах": 6849,
      "түүхийг": 6850,
      "юмсан": 6851,
      "хуваа": 6852,
      "##чихаад": 6853,
      "сонгож": 6854,
      "тэмдэглэл": 6855,
      "хоорондын": 6856,
      "ма": 6857,
      "##моор": 6858,
      "хардаг": 6859,
      "теат": 6860,
      "тэйгээ": 6861,
      "ойрхон": 6862,
      "бэх": 6863,
      "ван": 6864,
      "чид": 6865,
      "##члан": 6866,
      "хойно": 6867,
      "орчны": 6868,
      "гоол": 6869,
      "лан": 6870,
      "гаргана": 6871,
      "хэлжээ": 6872,
      "өдгөө": 6873,
      "сонирхож": 6874,
      "##вс": 6875,
      "тэрэг": 6876,
      "сонгодог": 6877,
      "ангид": 6878,
      "нүүрс": 6879,
      "ооо": 6880,
      "ерөөсөө": 6881,
      "дахиж": 6882,
      "##лалын": 6883,
      "тодорхойгүй": 6884,
      "анхаарч": 6885,
      "pre": 6886,
      "##авирус": 6887,
      "сурсан": 6888,
      "инж": 6889,
      "##хондоо": 6890,
      "хийгээгүй": 6891,
      "доромж": 6892,
      "зөвлөх": 6893,
      "коронавирус": 6894,
      "ii": 6895,
      "ma": 6896,
      "##хуй": 6897,
      "##ого": 6898,
      "нэгний": 6899,
      "түн": 6900,
      "дундаж": 6901,
      "түүнийгээ": 6902,
      "цэрэг": 6903,
      "гуниг": 6904,
      "бад": 6905,
      "эдл": 6906,
      "##лаас": 6907,
      "сүүлчийн": 6908,
      "түргэн": 6909,
      "дийл": 6910,
      "for": 6911,
      "судалж": 6912,
      "үүсвэр": 6913,
      "мөрөөдөл": 6914,
      "үргэлжлүүлэн": 6915,
      "цоо": 6916,
      "хүсэлтэй": 6917,
      "инээд": 6918,
      "руугаа": 6919,
      "үүднээс": 6920,
      "дотоодын": 6921,
      "эргэлз": 6922,
      "##алгаа": 6923,
      "эрхгүй": 6924,
      "сонгон": 6925,
      "хөгжиж": 6926,
      "луу": 6927,
      "хүүхэн": 6928,
      "бүтээх": 6929,
      "туршид": 6930,
      "бүтээлч": 6931,
      "аргыг": 6932,
      "ухаантай": 6933,
      "авья": 6934,
      "гаралтай": 6935,
      "үеэс": 6936,
      "бүтээн": 6937,
      "хорт": 6938,
      "##емент": 6939,
      "нэмэгдэж": 6940,
      "буцах": 6941,
      "газраа": 6942,
      "суулгах": 6943,
      "хөдлөх": 6944,
      "мэдэрч": 6945,
      "африк": 6946,
      "ноцтой": 6947,
      "зүү": 6948,
      "##лэв": 6949,
      "##гэх": 6950,
      "##яг": 6951,
      "илүүд": 6952,
      "өрн": 6953,
      "уншсан": 6954,
      "чанарыг": 6955,
      "ариутгагч": 6956,
      "09": 6957,
      "##штай": 6958,
      "цус": 6959,
      "хаяж": 6960,
      "онгоцны": 6961,
      "нунтаглах": 6962,
      "чухлыг": 6963,
      "сүү": 6964,
      "тагн": 6965,
      "хим": 6966,
      "##луулсан": 6967,
      "иржээ": 6968,
      "улсаас": 6969,
      "бүрийг": 6970,
      "сураг": 6971,
      "дэлхийг": 6972,
      "болгоомж": 6973,
      "хурлын": 6974,
      "унаг": 6975,
      "байршил": 6976,
      "хөнгөн": 6977,
      "үхэх": 6978,
      "сүнс": 6979,
      "нээс": 6980,
      "##ul": 6981,
      "төрөх": 6982,
      "тусам": 6983,
      "судл": 6984,
      "##снаар": 6985,
      "2021": 6986,
      "найдвартай": 6987,
      "айдас": 6988,
      "цөөхөн": 6989,
      "гя": 6990,
      "үгээр": 6991,
      "ярилцлага": 6992,
      "bl": 6993,
      "гаж": 6994,
      "хэнийг": 6995,
      "амьдралдаа": 6996,
      "хүртэлх": 6997,
      "магадлал": 6998,
      "шүд": 6999,
      "шүт": 7000,
      "станц": 7001,
      "араас": 7002,
      "болго": 7003,
      "гээч": 7004,
      "болтугай": 7005,
      "хамаг": 7006,
      "##гаарай": 7007,
      "болгоно": 7008,
      "##дөөн": 7009,
      "үнэнч": 7010,
      "харьцаа": 7011,
      "жав": 7012,
      "трам": 7013,
      "##te": 7014,
      "үзэгч": 7015,
      "##аанаас": 7016,
      "тавиг": 7017,
      "биелүүлэх": 7018,
      "кинонд": 7019,
      "нямдорж": 7020,
      "оргил": 7021,
      "мос": 7022,
      "явуулсан": 7023,
      "хүрээд": 7024,
      "тогтн": 7025,
      "гарчээ": 7026,
      "киног": 7027,
      "илэрхийлж": 7028,
      "но": 7029,
      "хац": 7030,
      "чар": 7031,
      "хиймэл": 7032,
      "улсыг": 7033,
      "##доод": 7034,
      "сараас": 7035,
      "тусдаа": 7036,
      "дуусах": 7037,
      "захиргааны": 7038,
      "and": 7039,
      "гээр": 7040,
      "##то": 7041,
      "бодвол": 7042,
      "олгоно": 7043,
      "гүр": 7044,
      "зөвлөлийн": 7045,
      "интернэт": 7046,
      "##снийг": 7047,
      "##илаа": 7048,
      "эрхлэгч": 7049,
      "хаалт": 7050,
      "үүнийгээ": 7051,
      "##ейн": 7052,
      "бям": 7053,
      "төдийгүй": 7054,
      "маркет": 7055,
      "##сбүүк": 7056,
      "гаас": 7057,
      "##ьсон": 7058,
      "бүд": 7059,
      "автомат": 7060,
      "дөх": 7061,
      "ям": 7062,
      "##үр": 7063,
      "дархан": 7064,
      "бодолтой": 7065,
      "хань": 7066,
      "шийдэж": 7067,
      "чулуун": 7068,
      "түгээмэл": 7069,
      "##ни": 7070,
      "##эгдэх": 7071,
      "тойм": 7072,
      "автомашин": 7073,
      "жилдээ": 7074,
      "##ome": 7075,
      "зул": 7076,
      "ккк": 7077,
      "тэ": 7078,
      "чууд": 7079,
      "ирэв": 7080,
      "талтай": 7081,
      "зургаа": 7082,
      "данс": 7083,
      "буцааж": 7084,
      "мон": 7085,
      "##лож": 7086,
      "бүтэц": 7087,
      "хангал": 7088,
      "номыг": 7089,
      "бэрхшээлтэй": 7090,
      "авлига": 7091,
      "цөмийн": 7092,
      "фэй": 7093,
      "гараагүй": 7094,
      "зогсож": 7095,
      "харилцааны": 7096,
      "төгссөн": 7097,
      "захиалга": 7098,
      "##рыг": 7099,
      "өрг": 7100,
      "нэрээр": 7101,
      "хаашаа": 7102,
      "муутай": 7103,
      "устгах": 7104,
      "дарамт": 7105,
      "трамп": 7106,
      "us": 7107,
      "жээ": 7108,
      "хов": 7109,
      "өвлийн": 7110,
      "31": 7111,
      "##вөл": 7112,
      "бухим": 7113,
      "хандив": 7114,
      "эрдэн": 7115,
      "дуудлага": 7116,
      "шалгуур": 7117,
      "сер": 7118,
      "сэтгэлийг": 7119,
      "нөлөөлөх": 7120,
      "бууж": 7121,
      "тэжээл": 7122,
      "татан": 7123,
      "##агдана": 7124,
      "нэрлэдэг": 7125,
      "охины": 7126,
      "унтах": 7127,
      "##эйл": 7128,
      "хэлмээр": 7129,
      "##гуулах": 7130,
      "ойлгохгүй": 7131,
      "хэвлэлийн": 7132,
      "194": 7133,
      "хүчээр": 7134,
      "ээсээ": 7135,
      "ing": 7136,
      "бүтээгдэхүүнийг": 7137,
      "##нээсээ": 7138,
      "гайгүй": 7139,
      "гээс": 7140,
      "тийн": 7141,
      "түй": 7142,
      "##лөн": 7143,
      "төсөө": 7144,
      "хөгжмийн": 7145,
      "баталсан": 7146,
      "агент": 7147,
      "агуулга": 7148,
      "шв": 7149,
      "орол": 7150,
      "тулаа": 7151,
      "магт": 7152,
      "бнсу": 7153,
      "даатгалын": 7154,
      "оу": 7155,
      "чил": 7156,
      "аврах": 7157,
      "хийхээр": 7158,
      "утсаар": 7159,
      "гутал": 7160,
      "луйвар": 7161,
      "шүлэг": 7162,
      "01": 7163,
      "win": 7164,
      "ич": 7165,
      "орших": 7166,
      "өмч": 7167,
      "##ект": 7168,
      "дараахь": 7169,
      "арилж": 7170,
      "эрүүгийн": 7171,
      "менежер": 7172,
      "гэгч": 7173,
      "уян": 7174,
      "##вөр": 7175,
      "өгчих": 7176,
      "бүрэл": 7177,
      "хэмн": 7178,
      "хэлэхдээ": 7179,
      "муз": 7180,
      "асуудлууд": 7181,
      "өвөрм": 7182,
      "##плом": 7183,
      "элдэв": 7184,
      "гаар": 7185,
      "ит": 7186,
      "##гас": 7187,
      "гарагт": 7188,
      "санах": 7189,
      "##улим": 7190,
      "ээрээ": 7191,
      "үүдийг": 7192,
      "диплом": 7193,
      "ск": 7194,
      "##енд": 7195,
      "##xt": 7196,
      "##ээч": 7197,
      "##өөгүй": 7198,
      "бичээд": 7199,
      "хэлэлцэж": 7200,
      "сурталчилгаа": 7201,
      "авьяас": 7202,
      "булан": 7203,
      ".....": 7204,
      "талыг": 7205,
      "##исс": 7206,
      "давж": 7207,
      "суугаад": 7208,
      "чанга": 7209,
      "тулгар": 7210,
      "sp": 7211,
      "бээ": 7212,
      "цас": 7213,
      "##тны": 7214,
      "##май": 7215,
      "хум": 7216,
      "явчих": 7217,
      "дууны": 7218,
      "санааг": 7219,
      "ирэхэд": 7220,
      "солих": 7221,
      "##ack": 7222,
      "орнуудад": 7223,
      "тулгуур": 7224,
      "бөхийн": 7225,
      "гру": 7226,
      "тавьдаг": 7227,
      "харанхуй": 7228,
      "##унд": 7229,
      "харгал": 7230,
      "замд": 7231,
      "ялалт": 7232,
      "загас": 7233,
      "харьцангуй": 7234,
      "угаалг": 7235,
      "шаардлагыг": 7236,
      "ук": 7237,
      "##үүдээ": 7238,
      "##нөөр": 7239,
      "залх": 7240,
      "чихсан": 7241,
      "нэвтрүүл": 7242,
      "парламен": 7243,
      "жирэмсэн": 7244,
      "цаад": 7245,
      "##чнээн": 7246,
      "##ss": 7247,
      "байтал": 7248,
      "хэчнээн": 7249,
      "амьдралаа": 7250,
      "шашны": 7251,
      "дархлаа": 7252,
      "инженер": 7253,
      "тагнуул": 7254,
      "дэн": 7255,
      "тээ": 7256,
      "##ra": 7257,
      "##эйн": 7258,
      "##даанд": 7259,
      "##наасаа": 7260,
      "ярилцаж": 7261,
      "1990": 7262,
      "хохирол": 7263,
      "кг": 7264,
      "пол": 7265,
      "си": 7266,
      "##лай": 7267,
      "##го": 7268,
      "амжил": 7269,
      "явлаа": 7270,
      "батлагдсан": 7271,
      "##art": 7272,
      "монголчуудын": 7273,
      "##ех": 7274,
      "британийн": 7275,
      "##лагдаж": 7276,
      "тиймээ": 7277,
      "биед": 7278,
      "дотно": 7279,
      "##итал": 7280,
      "нээгд": 7281,
      "системийн": 7282,
      "мууд": 7283,
      "##дөж": 7284,
      "##аасан": 7285,
      "##ингийн": 7286,
      "орчих": 7287,
      "араб": 7288,
      "хэлье": 7289,
      "байрлал": 7290,
      "төвийн": 7291,
      "ертөнцийн": 7292,
      "энэтхэгийн": 7293,
      "36": 7294,
      "пут": 7295,
      "эээээ": 7296,
      "##ьт": 7297,
      "##ьер": 7298,
      "##ce": 7299,
      "одоог": 7300,
      "бусдаас": 7301,
      "тавдугаар": 7302,
      "хайрц": 7303,
      "гишүүний": 7304,
      "төгрөгийн": 7305,
      "хилийн": 7306,
      "дуулж": 7307,
      "хүнээ": 7308,
      "хайрлах": 7309,
      "шатах": 7310,
      "илэрхийлэх": 7311,
      "хэрэглээний": 7312,
      "тоон": 7313,
      "төрөөс": 7314,
      "нийл": 7315,
      "шийдэг": 7316,
      "суугаа": 7317,
      "хүүхдүүдэд": 7318,
      "техникийн": 7319,
      "боол": 7320,
      "месс": 7321,
      "нуур": 7322,
      "##мжил": 7323,
      "энер": 7324,
      "санаанд": 7325,
      "сонсоод": 7326,
      "таарна": 7327,
      "зохиолч": 7328,
      "үргэлжилж": 7329,
      "##ube": 7330,
      "pl": 7331,
      "эхээр": 7332,
      "удаагаа": 7333,
      "2007": 7334,
      "хийгдсэн": 7335,
      "зөвлөж": 7336,
      "уудад": 7337,
      "нэмэгдсэн": 7338,
      "сууцны": 7339,
      "up": 7340,
      "wor": 7341,
      "хори": 7342,
      "аялах": 7343,
      "харьцуулахад": 7344,
      "хүчирхэг": 7345,
      "судлах": 7346,
      "жар": 7347,
      "сод": 7348,
      "##жуулах": 7349,
      "асуудлын": 7350,
      "хуралд": 7351,
      "санагдсан": 7352,
      "дөрөвдүгээр": 7353,
      "үнэмлэх": 7354,
      "32": 7355,
      "is": 7356,
      "нулим": 7357,
      "##зэг": 7358,
      "##гавар": 7359,
      "ажилгүй": 7360,
      "хоёрыг": 7361,
      "үгс": 7362,
      "ойн": 7363,
      "гэрээг": 7364,
      "утгатай": 7365,
      "дийлэнх": 7366,
      "үзье": 7367,
      "хайрын": 7368,
      "хөгш": 7369,
      "оролцоо": 7370,
      "нүүрсний": 7371,
      "холбогдолтой": 7372,
      "эрдэнэт": 7373,
      "насандаа": 7374,
      "германы": 7375,
      "дэмий": 7376,
      "гүүр": 7377,
      "кал": 7378,
      "лин": 7379,
      "туул": 7380,
      "##дэхүүн": 7381,
      "өргөдөл": 7382,
      "түнш": 7383,
      "ааа": 7384,
      "##амч": 7385,
      "улсууд": 7386,
      "үзэгдэл": 7387,
      "хайрлаж": 7388,
      "оруулалтын": 7389,
      "ауд": 7390,
      "үнийг": 7391,
      "зургийн": 7392,
      "хэмжээтэй": 7393,
      "процесс": 7394,
      "бариад": 7395,
      "засагт": 7396,
      "тавиад": 7397,
      "хааяа": 7398,
      "бэлд": 7399,
      "өртөг": 7400,
      "сэргээх": 7401,
      "фэйсбүүк": 7402,
      "угаалгын": 7403,
      "унаж": 7404,
      "##олгой": 7405,
      "эмийн": 7406,
      "уншаад": 7407,
      "оюутолгой": 7408,
      "##соор": 7409,
      "##өц": 7410,
      "##лэгчид": 7411,
      "тустай": 7412,
      "нарий": 7413,
      "сэтгэлд": 7414,
      "суусан": 7415,
      "ажиллагаагаа": 7416,
      "##дөгч": 7417,
      "хамгаалж": 7418,
      "тайлбарлаж": 7419,
      "цэгц": 7420,
      ":)": 7421,
      "даасан": 7422,
      "хуруу": 7423,
      "мэдрэх": 7424,
      "үүрэгтэй": 7425,
      "өвчний": 7426,
      "вэбсайт": 7427,
      "нээл": 7428,
      "##шн": 7429,
      "##чилсэн": 7430,
      "үнс": 7431,
      "төвөг": 7432,
      "завгүй": 7433,
      "газрууд": 7434,
      "талбайд": 7435,
      "групп": 7436,
      "min": 7437,
      "pro": 7438,
      "хом": 7439,
      "өсг": 7440,
      "##др": 7441,
      "##үүхэн": 7442,
      "яруу": 7443,
      "утаа": 7444,
      "бурханд": 7445,
      "шүүхэд": 7446,
      "хачин": 7447,
      "есдүгээр": 7448,
      "дов": 7449,
      "нө": 7450,
      "сэж": 7451,
      "##илан": 7452,
      "##гдсан": 7453,
      "##элтийн": 7454,
      "үйлдвэрлэх": 7455,
      "шилэн": 7456,
      "ойрт": 7457,
      "зовж": 7458,
      "тэтгэл": 7459,
      "баригчид": 7460,
      "зохих": 7461,
      "мак": 7462,
      "амлалт": 7463,
      "ажилчид": 7464,
      "зорчиг": 7465,
      "зургууд": 7466,
      "өвгөн": 7467,
      "##итр": 7468,
      "баярлаж": 7469,
      "өргөж": 7470,
      "удалгүй": 7471,
      "##hone": 7472,
      "орноо": 7473,
      "өөрөөсөө": 7474,
      "уулын": 7475,
      "сун": 7476,
      "батлан": 7477,
      "эхэлдэг": 7478,
      "2006": 7479,
      "зохицуулалт": 7480,
      "чимээгүй": 7481,
      "яриаг": 7482,
      "ноос": 7483,
      "##ke": 7484,
      "чадаж": 7485,
      "халамж": 7486,
      "удирдлагын": 7487,
      "чимэг": 7488,
      "тамирчин": 7489,
      "хожим": 7490,
      "төрөлхтөн": 7491,
      "##ез": 7492,
      "аваагүй": 7493,
      "нэрийн": 7494,
      "хөлс": 7495,
      "нөлөөлж": 7496,
      "тасралтгүй": 7497,
      "роб": 7498,
      "цэрг": 7499,
      "гэрэлт": 7500,
      "тэгэхэд": 7501,
      "ийнхээ": 7502,
      "өрх": 7503,
      "мэдээллээ": 7504,
      "тодотг": 7505,
      "тоглолтын": 7506,
      "дэмждэг": 7507,
      "дулаан": 7508,
      "хорвоо": 7509,
      "асан": 7510,
      "амс": 7511,
      "##андан": 7512,
      "хичээдэг": 7513,
      "аяга": 7514,
      "солилц": 7515,
      "хавар": 7516,
      "испан": 7517,
      "##итой": 7518,
      "##истан": 7519,
      "ингэхдээ": 7520,
      "тариал": 7521,
      "эхлүүлэх": 7522,
      "нээж": 7523,
      "өөрчлөгдсөн": 7524,
      "бгаа": 7525,
      "намар": 7526,
      "хөгшин": 7527,
      "##ong": 7528,
      "уламжлалт": 7529,
      "жол": 7530,
      "##кур": 7531,
      "нью": 7532,
      "байдлаас": 7533,
      "үргэлжлэх": 7534,
      "зэвсэг": 7535,
      "post": 7536,
      "##шний": 7537,
      "хүрэлц": 7538,
      "хаалг": 7539,
      "дагаад": 7540,
      "хаха": 7541,
      "дорнод": 7542,
      "тайвш": 7543,
      "то": 7544,
      "##рох": 7545,
      "##tube": 7546,
      "урьж": 7547,
      "багадаа": 7548,
      "нөлөөлдөг": 7549,
      "өдрөөс": 7550,
      "шалгалтын": 7551,
      "te": 7552,
      "##нөөс": 7553,
      "бүртгэлийн": 7554,
      "##банк": 7555,
      "ээд": 7556,
      "##гэж": 7557,
      "харц": 7558,
      "харуулсан": 7559,
      "##лагдах": 7560,
      "өөрийг": 7561,
      "ихэд": 7562,
      "##ерт": 7563,
      "##000": 7564,
      "ханддаг": 7565,
      "мэтээр": 7566,
      "тохирсон": 7567,
      "эвс": 7568,
      "ярилцах": 7569,
      "нэвтрүүлэг": 7570,
      "хуурамч": 7571,
      "байдгийг": 7572,
      "зөрчсөн": 7573,
      "өнцөг": 7574,
      "ундаа": 7575,
      "юү": 7576,
      "##да": 7577,
      "##тах": 7578,
      "байсаар": 7579,
      "нарны": 7580,
      "эрхлэх": 7581,
      "хэтр": 7582,
      "зэргийн": 7583,
      "хуурай": 7584,
      "it": 7585,
      "дийн": 7586,
      "##ло": 7587,
      "##лх": 7588,
      "##эвч": 7589,
      "тэрхүү": 7590,
      "өгье": 7591,
      "багагүй": 7592,
      "төлж": 7593,
      "тоглосон": 7594,
      "дундуур": 7595,
      "завсар": 7596,
      "удирдлага": 7597,
      "youtube": 7598,
      "ургамал": 7599,
      "лах": 7600,
      "пүр": 7601,
      "##өлөг": 7602,
      "биздээ": 7603,
      "өвчтөн": 7604,
      "улирал": 7605,
      "маяг": 7606,
      "хангалуун": 7607,
      "зэс": 7608,
      "гарцаа": 7609,
      "олиг": 7610,
      "оруулна": 7611,
      "ойролцоогоор": 7612,
      "le": 7613,
      "байгаан": 7614,
      "талдаа": 7615,
      "найрам": 7616,
      "компанид": 7617,
      "францын": 7618,
      "даанч": 7619,
      "медаль": 7620,
      "агентлаг": 7621,
      "рес": 7622,
      "##раг": 7623,
      "харна": 7624,
      "хун": 7625,
      "шигшээ": 7626,
      "харагдана": 7627,
      "тэмдэглэж": 7628,
      "үүсгэх": 7629,
      "арилгах": 7630,
      "эрдэмтэд": 7631,
      "рад": 7632,
      "##ддаг": 7633,
      "##рөөс": 7634,
      "орчл": 7635,
      "явдл": 7636,
      "195": 7637,
      "үхсэн": 7638,
      "секунд": 7639,
      "шинжилгээний": 7640,
      "больсон": 7641,
      "оё": 7642,
      "уб": 7643,
      "##ль": 7644,
      "##ваа": 7645,
      "##og": 7646,
      "хятадад": 7647,
      "шүр": 7648,
      "цэцэрлэгт": 7649,
      "син": 7650,
      "##ie": 7651,
      "болсн": 7652,
      "эрмэл": 7653,
      "##лэгийн": 7654,
      "##лэгдсэн": 7655,
      "сэтгэлээсээ": 7656,
      "хүндрэл": 7657,
      "##and": 7658,
      "тамх": 7659,
      "олдохгүй": 7660,
      "дизайн": 7661,
      "дутагдал": 7662,
      "эрмэлз": 7663,
      "авгай": 7664,
      "зарах": 7665,
      "даван": 7666,
      "хөнгөл": 7667,
      "нүдний": 7668,
      "зайлс": 7669,
      "овоо": 7670,
      "бүүр": 7671,
      "##бэ": 7672,
      "##болд": 7673,
      "##архал": 7674,
      "сайтар": 7675,
      "хээр": 7676,
      "##өлгөө": 7677,
      "булаа": 7678,
      "жилээр": 7679,
      "хүүхэлд": 7680,
      "холд": 7681,
      "унтр": 7682,
      "шаардаг": 7683,
      "дагав": 7684,
      "түүхийн": 7685,
      "өдрүүд": 7686,
      "бл": 7687,
      "лу": 7688,
      "##чит": 7689,
      "сайхн": 7690,
      "сунг": 7691,
      "салах": 7692,
      "өнөөдрийг": 7693,
      "эхэлжээ": 7694,
      "олгож": 7695,
      "дээл": 7696,
      "кур": 7697,
      "##єн": 7698,
      "##ver": 7699,
      "үзүүлсэн": 7700,
      "##оороо": 7701,
      "тогоо": 7702,
      "эмзэг": 7703,
      "хүлээсэн": 7704,
      "асуудалтай": 7705,
      "зурагт": 7706,
      "хүүгээ": 7707,
      "үүргээ": 7708,
      "японд": 7709,
      "пүрэв": 7710,
      "48": 7711,
      "дуулах": 7712,
      "##лээс": 7713,
      "ихийг": 7714,
      "талб": 7715,
      "билүү": 7716,
      "оролцогч": 7717,
      "заавар": 7718,
      "эвгүй": 7719,
      "next": 7720,
      "тухтай": 7721,
      "##игийн": 7722,
      "байгаагаар": 7723,
      "сайтай": 7724,
      "дуугар": 7725,
      "авчээ": 7726,
      "татсан": 7727,
      "үндэстэн": 7728,
      "үзэхэд": 7729,
      "прокур": 7730,
      "жан": 7731,
      "цо": 7732,
      "байснаа": 7733,
      "яамны": 7734,
      "мэргэжилтнүүд": 7735,
      "км": 7736,
      "##цар": 7737,
      "асуудлаа": 7738,
      "багатай": 7739,
      "зөвшөөрсөн": 7740,
      "цуглуул": 7741,
      "онлайнаар": 7742,
      "төөр": 7743,
      "ян": 7744,
      "##чдийн": 7745,
      "##баа": 7746,
      "эрэлт": 7747,
      "##огддог": 7748,
      "зөрүү": 7749,
      "зохицуулах": 7750,
      "химийн": 7751,
      "түйм": 7752,
      "##ее": 7753,
      "##шүүр": 7754,
      "баймаар": 7755,
      "орохгүй": 7756,
      "явдлыг": 7757,
      "тансаг": 7758,
      "зөвшөөрч": 7759,
      "багшийн": 7760,
      "хамаарна": 7761,
      "телевизийн": 7762,
      "жам": 7763,
      "лаад": 7764,
      "арс": 7765,
      "ирэхгүй": 7766,
      "ирээгүй": 7767,
      "нартай": 7768,
      "хүсэх": 7769,
      "##эгддэг": 7770,
      "тэдгээрийн": 7771,
      "тусалж": 7772,
      "казино": 7773,
      "at": 7774,
      "##иб": 7775,
      "##лгээ": 7776,
      "##раа": 7777,
      "##ab": 7778,
      "мэдэл": 7779,
      "үйлчил": 7780,
      "зориу": 7781,
      "наймаа": 7782,
      "аян": 7783,
      "америкт": 7784,
      "хосууд": 7785,
      "нуруу": 7786,
      "үдэш": 7787,
      "бутлах": 7788,
      "унасан": 7789,
      "найруулагч": 7790,
      "apple": 7791,
      "сп": 7792,
      "сөн": 7793,
      "гараар": 7794,
      "комм": 7795,
      "хадгалж": 7796,
      "ашгийг": 7797,
      "iphone": 7798,
      "son": 7799,
      "нэ": 7800,
      "##үүлт": 7801,
      "тохиролц": 7802,
      "зарцуулах": 7803,
      "хамрагдах": 7804,
      "өвөрмөц": 7805,
      "06": 7806,
      "##өнд": 7807,
      "авъя": 7808,
      "санс": 7809,
      "хүмүүсээс": 7810,
      "мань": 7811,
      "сэтгэлгээ": 7812,
      "хамааралтай": 7813,
      "төлбөрийн": 7814,
      "тэдгээрийг": 7815,
      "өгөөгүй": 7816,
      "mo": 7817,
      "очир": 7818,
      "##ts": 7819,
      "##бод": 7820,
      "амин": 7821,
      "тулгам": 7822,
      "саван": 7823,
      "хамтлагийн": 7824,
      "удирдлагууд": 7825,
      "сүхбаатар": 7826,
      "бх": 7827,
      "шаг": 7828,
      "##най": 7829,
      "##лтын": 7830,
      "##ment": 7831,
      "бичжээ": 7832,
      "бичдэг": 7833,
      "хариулах": 7834,
      "мөнгөтэй": 7835,
      "олгосон": 7836,
      "өсвөр": 7837,
      "хөтөлбөрт": 7838,
      "механ": 7839,
      "нэлээн": 7840,
      "цохилт": 7841,
      "бүрэлдэхүүн": 7842,
      "гарцаагүй": 7843,
      "дуулсан": 7844,
      "ков": 7845,
      "маар": 7846,
      "чийг": 7847,
      "##ore": 7848,
      "##сүрэн": 7849,
      "бөхчүүд": 7850,
      "эргэлзээ": 7851,
      "нотол": 7852,
      "захидал": 7853,
      "урамшуулал": 7854,
      "hd": 7855,
      "хир": 7856,
      "##етр": 7857,
      "##ханд": 7858,
      "нутгаар": 7859,
      "төлөөлөг": 7860,
      "дундаа": 7861,
      "тэмцээний": 7862,
      "холбогдол": 7863,
      "home": 7864,
      "тив": 7865,
      "цам": 7866,
      "үгээ": 7867,
      "##рагч": 7868,
      "хэрнээ": 7869,
      "нэгэнд": 7870,
      "тэдэнтэй": 7871,
      "хичээж": 7872,
      "хэрэгжиж": 7873,
      "шатанд": 7874,
      "хацарт": 7875,
      "путин": 7876,
      "тоос": 7877,
      "үгийн": 7878,
      "##лсан": 7879,
      "##лууд": 7880,
      "болсныг": 7881,
      "хэрүүл": 7882,
      "нэгнийг": 7883,
      "##авч": 7884,
      "##ууруулах": 7885,
      "эмх": 7886,
      "өнгөрөх": 7887,
      "ази": 7888,
      "##iss": 7889,
      "##цгаая": 7890,
      "##илтын": 7891,
      "хараахан": 7892,
      "илтгэл": 7893,
      "нэрээ": 7894,
      "худалдах": 7895,
      "харилцах": 7896,
      "чадсангүй": 7897,
      "илэрхийлсэн": 7898,
      "шүүмжлэл": 7899,
      "тодорхойлолт": 7900,
      "***": 7901,
      "33": 7902,
      "маа": 7903,
      "эрэл": 7904,
      "манан": 7905,
      "шаарддаг": 7906,
      "салхи": 7907,
      "арилжааны": 7908,
      "qu": 7909,
      "ом": 7910,
      "##аст": 7911,
      "хут": 7912,
      "хамтарсан": 7913,
      "хянах": 7914,
      "зочин": 7915,
      "##джээ": 7916,
      "дарна": 7917,
      "авахаар": 7918,
      "сууна": 7919,
      "ухамсар": 7920,
      "голын": 7921,
      "хөтөлбөрийн": 7922,
      "живх": 7923,
      "99": 7924,
      "шун": 7925,
      "одоохондоо": 7926,
      "ашигт": 7927,
      "нөхр": 7928,
      "түүхэнд": 7929,
      "явахад": 7930,
      "оройн": 7931,
      "ех": 7932,
      "ждү": 7933,
      "сөх": 7934,
      "фр": 7935,
      "амрах": 7936,
      "монголбанк": 7937,
      "хэмж": 7938,
      "идсэн": 7939,
      "машиныг": 7940,
      "махбод": 7941,
      "гац": 7942,
      "дын": 7943,
      "жен": 7944,
      "##үүллээ": 7945,
      "##эврийн": 7946,
      "арч": 7947,
      "явахгүй": 7948,
      "сэтгэлээ": 7949,
      "малын": 7950,
      "гэрээний": 7951,
      "суудаг": 7952,
      "дашт": 7953,
      "гайхамшигтай": 7954,
      "моск": 7955,
      "зайлсхий": 7956,
      "ed": 7957,
      "шаа": 7958,
      "##мэг": 7959,
      "орлоо": 7960,
      "гараг": 7961,
      "үзэг": 7962,
      "шүүмжил": 7963,
      "шийтг": 7964,
      "##ээнээс": 7965,
      "амжилтанд": 7966,
      "тооцох": 7967,
      "бүхэндээ": 7968,
      "эрсдэлтэй": 7969,
      "наадамд": 7970,
      "менежмент": 7971,
      "ардчилал": 7972,
      "шулуун": 7973,
      "75": 7974,
      "илт": 7975,
      "тодор": 7976,
      "гадаг": 7977,
      "өнгөрч": 7978,
      "баримтал": 7979,
      "рүүгээ": 7980,
      "метр": 7981,
      "цэнэг": 7982,
      "!\"": 7983,
      "голд": 7984,
      "##шиж": 7985,
      "болор": 7986,
      "зарласан": 7987,
      "тэгэх": 7988,
      "байгууламж": 7989,
      "холбоос": 7990,
      "толь": 7991,
      "##раф": 7992,
      "шинэчлэл": 7993,
      "гэгээн": 7994,
      "даалгавар": 7995,
      "mar": 7996,
      "жич": 7997,
      "##фор": 7998,
      "##гүйгээр": 7999,
      "хош": 8000,
      "арв": 8001,
      "хоёул": 8002,
      "##длоо": 8003,
      "урьдчилсан": 8004,
      "үзүүлдэг": 8005,
      "нүдэнд": 8006,
      "программ": 8007,
      "нөөцийн": 8008,
      "өөрчлөгдөж": 8009,
      "осол": 8010,
      "төсөвт": 8011,
      "есөн": 8012,
      "##ыгаа": 8013,
      "эмгэн": 8014,
      "байрлах": 8015,
      "тоглодог": 8016,
      "мөрт": 8017,
      "хэлэлцүүл": 8018,
      "системийг": 8019,
      "ашиглалтад": 8020,
      "ad": 8021,
      "ни": 8022,
      "от": 8023,
      "ход": 8024,
      "үйлдсэн": 8025,
      "хангасан": 8026,
      "хүүг": 8027,
      "амаргүй": 8028,
      "улирлын": 8029,
      "нэгдүгээрт": 8030,
      "онош": 8031,
      "сувил": 8032,
      "христийн": 8033,
      "ааш": 8034,
      "жилээс": 8035,
      "чадал": 8036,
      "үнээр": 8037,
      "суурин": 8038,
      "хуудс": 8039,
      "шалтгаанаар": 8040,
      "илгээх": 8041,
      "мөрдөн": 8042,
      "тутамд": 8043,
      "##хуяг": 8044,
      "ге": 8045,
      "ынхан": 8046,
      "##доггүй": 8047,
      "тэмд": 8048,
      "туршиж": 8049,
      "2005": 8050,
      "хөлөг": 8051,
      "зэрэгцээ": 8052,
      "танилцуулж": 8053,
      "асуусан": 8054,
      "зөрчл": 8055,
      "гүнз": 8056,
      "гаргажээ": 8057,
      "урагш": 8058,
      "борлуулалт": 8059,
      "тодруулбал": 8060,
      "##алаа": 8061,
      "тэднээс": 8062,
      "эхлэв": 8063,
      "суралцаж": 8064,
      "ла": 8065,
      "тох": 8066,
      "ши": 8067,
      "##ийд": 8068,
      "ажилтай": 8069,
      "явагдаж": 8070,
      "дээгүүр": 8071,
      "илтг": 8072,
      "тайланд": 8073,
      "##лэхгүй": 8074,
      "анхаарлыг": 8075,
      "холбоотойгоор": 8076,
      "бодлогыг": 8077,
      "жижигхэн": 8078,
      "нэвтрэх": 8079,
      "me": 8080,
      "дэ": 8081,
      "жоохон": 8082,
      "пл": 8083,
      "тантай": 8084,
      "гэрчилгээ": 8085,
      "болгонд": 8086,
      "##логч": 8087,
      "##унк": 8088,
      "тэмцэж": 8089,
      "чимээ": 8090,
      "гах": 8091,
      "цохи": 8092,
      "харвал": 8093,
      "хүрнэ": 8094,
      "дорж": 8095,
      "төгрөгөөр": 8096,
      "бэлтгэх": 8097,
      "парламент": 8098,
      "window": 8099,
      "парламентын": 8100,
      "коммун": 8101,
      "гүнзгий": 8102,
      "биедээ": 8103,
      "хүндр": 8104,
      "утсаа": 8105,
      "чамаас": 8106,
      "мэдэгджээ": 8107,
      "цэнэтэй": 8108,
      "be": 8109,
      "иш": 8110,
      "са": 8111,
      "таагүй": 8112,
      "хандсан": 8113,
      "чамтай": 8114,
      "суудал": 8115,
      "амттай": 8116,
      "элбэг": 8117,
      "хажуугаар": 8118,
      "сад": 8119,
      "ороо": 8120,
      "##оосоо": 8121,
      "зүг": 8122,
      "уулзсан": 8123,
      "борлуулах": 8124,
      "тайлбарлах": 8125,
      "орлогын": 8126,
      "бодоход": 8127,
      "халдварын": 8128,
      "театр": 8129,
      "windows": 8130,
      "##снээс": 8131,
      "байгаагийн": 8132,
      "санагдаад": 8133,
      "сургаа": 8134,
      "зарж": 8135,
      "тэнгис": 8136,
      "соли": 8137,
      "түүхий": 8138,
      "холбогдуулан": 8139,
      "хөнд": 8140,
      "соц": 8141,
      "##нах": 8142,
      "амны": 8143,
      "талбар": 8144,
      "азтай": 8145,
      "архив": 8146,
      "##лөж": 8147,
      "##агтай": 8148,
      "амьтад": 8149,
      "онцлох": 8150,
      "бүртгүүлэх": 8151,
      "австрали": 8152,
      "сэжиг": 8153,
      "34": 8154,
      "##гадаг": 8155,
      "явуулдаг": 8156,
      "шингэн": 8157,
      "эрхээ": 8158,
      "унах": 8159,
      "аарай": 8160,
      "ажиллуулах": 8161,
      "зөвшөөрөх": 8162,
      "буруутай": 8163,
      "##ологийн": 8164,
      "тонн": 8165,
      "болзоо": 8166,
      "оновч": 8167,
      "уралдаан": 8168,
      "статист": 8169,
      "кат": 8170,
      "алс": 8171,
      "арм": 8172,
      "##лэгээ": 8173,
      "саруул": 8174,
      "төм": 8175,
      "талаараа": 8176,
      "бурханыг": 8177,
      "харья": 8178,
      "зовоо": 8179,
      "тэндээс": 8180,
      "нэвтэр": 8181,
      "бүрдүүлэх": 8182,
      "стандар": 8183,
      "хийлгэх": 8184,
      "учрыг": 8185,
      "38": 8186,
      "##op": 8187,
      "бололцоо": 8188,
      "##үйн": 8189,
      "шинжээ": 8190,
      "##шигчид": 8191,
      "##двал": 8192,
      "нөхд": 8193,
      "шаардаж": 8194,
      "дагал": 8195,
      "иддэг": 8196,
      "санаатай": 8197,
      "үхэр": 8198,
      "дэвших": 8199,
      "лог": 8200,
      "##цан": 8201,
      "авчих": 8202,
      "хэрэгжилт": 8203,
      "урв": 8204,
      "засал": 8205,
      "сонгогдсон": 8206,
      "халх": 8207,
      "иргэдээ": 8208,
      "хүүхдүүдээ": 8209,
      "зогсохгүй": 8210,
      "өгчээ": 8211,
      "хөтөлбөрийг": 8212,
      "##ation": 8213,
      "алдарт": 8214,
      "дасгалж": 8215,
      "уучлалт": 8216,
      "шавь": 8217,
      "тэвчээр": 8218,
      "барьцаа": 8219,
      "боом": 8220,
      "баахан": 8221,
      "яс": 8222,
      "##иос": 8223,
      "хэлчих": 8224,
      "гэхээс": 8225,
      "193": 8226,
      "мэдэгдэх": 8227,
      "дүүрэг": 8228,
      "хариуцлагатай": 8229,
      "тэнгэрийн": 8230,
      "ногоо": 8231,
      "хоцор": 8232,
      "02": 8233,
      "цгаа": 8234,
      "хүчил": 8235,
      "авагч": 8236,
      "эрин": 8237,
      "##атур": 8238,
      "үйлс": 8239,
      "зорьж": 8240,
      "ээжийг": 8241,
      "нүдээ": 8242,
      "##жинд": 8243,
      "судалгаагаар": 8244,
      "тунхаг": 8245,
      "бүртгэгдсэн": 8246,
      "гайхаж": 8247,
      "ердийн": 8248,
      "хоолоо": 8249,
      "зээлийг": 8250,
      "охинтой": 8251,
      "алтны": 8252,
      "өрсөлдөгч": 8253,
      "өрсөлдөх": 8254,
      "ив": 8255,
      "мэл": 8256,
      "цүн": 8257,
      "шт": 8258,
      "##онгийн": 8259,
      "барууны": 8260,
      "талууд": 8261,
      "хүмүүсээ": 8262,
      "##амжтай": 8263,
      "авахын": 8264,
      "ойлголц": 8265,
      "хүргэсэн": 8266,
      "түмэнд": 8267,
      "оросууд": 8268,
      "танилцуулах": 8269,
      "евр": 8270,
      "тулгарч": 8271,
      "үүсгэн": 8272,
      "ордны": 8273,
      "mac": 8274,
      "функ": 8275,
      "##орк": 8276,
      "хэрээр": 8277,
      "гарвал": 8278,
      "алтай": 8279,
      "анхан": 8280,
      "эрхтэн": 8281,
      "ингэхэд": 8282,
      "чиглэлийн": 8283,
      "мэндэд": 8284,
      "сууриа": 8285,
      "тогтоож": 8286,
      "өнөөх": 8287,
      "амьдралынхаа": 8288,
      "суурьтай": 8289,
      "тахлын": 8290,
      "хуримт": 8291,
      "07": 8292,
      "нор": 8293,
      "##тнүүд": 8294,
      "ороогүй": 8295,
      "##уудаа": 8296,
      "тунг": 8297,
      "уучлал": 8298,
      "хүрээгүй": 8299,
      "сурагчид": 8300,
      "айдаг": 8301,
      "өөрчлөлтийг": 8302,
      "автомаш": 8303,
      "жагсаалтыг": 8304,
      "хамаатай": 8305,
      "роман": 8306,
      "аравдугаар": 8307,
      "гаш": 8308,
      "заал": 8309,
      "##нэгт": 8310,
      "##вас": 8311,
      "##чдад": 8312,
      "байгаам": 8313,
      "үүдийн": 8314,
      "##оодог": 8315,
      "тархи": 8316,
      "хүүхдүүдийг": 8317,
      "мэдэгдэж": 8318,
      "таарсан": 8319,
      "өвчтэй": 8320,
      "хуваарил": 8321,
      "##оход": 8322,
      "зовох": 8323,
      "олдсон": 8324,
      "үзэсгэлэнтэй": 8325,
      "оновчтой": 8326,
      "ку": 8327,
      "##еб": 8328,
      "##рээ": 8329,
      "##энгэ": 8330,
      "хуц": 8331,
      "бүхнээ": 8332,
      "хүснэгт": 8333,
      "бүтээж": 8334,
      "түүхтэй": 8335,
      "төлөвлөсөн": 8336,
      "хүсэлтийг": 8337,
      "өмсөх": 8338,
      "зоригтой": 8339,
      "судлаачид": 8340,
      "музей": 8341,
      "нарийв": 8342,
      "ex": 8343,
      "биенээ": 8344,
      "ингэх": 8345,
      "ахлах": 8346,
      "кинон": 8347,
      "##лүүлнэ": 8348,
      "ертөнцийг": 8349,
      "эргэлт": 8350,
      "ялгаагүй": 8351,
      "хэрэглэгчдийн": 8352,
      "хvн": 8353,
      "жимс": 8354,
      "ким": 8355,
      "отг": 8356,
      "үүгээр": 8357,
      "эхэнд": 8358,
      "хөшөө": 8359,
      "илүүтэй": 8360,
      "оюутны": 8361,
      "хөдөлгөөний": 8362,
      "карьер": 8363,
      "05": 8364,
      "55": 8365,
      "гаг": 8366,
      "##иур": 8367,
      "гаргалаа": 8368,
      "##лаагүй": 8369,
      "бодитой": 8370,
      "монголыг": 8371,
      "урс": 8372,
      "ямарч": 8373,
      "хаах": 8374,
      "гаднаас": 8375,
      "зохис": 8376,
      "хувьдаа": 8377,
      "##аци": 8378,
      "америкчууд": 8379,
      "нилээд": 8380,
      "or": 8381,
      "аб": 8382,
      "лаб": 8383,
      "лхаг": 8384,
      "со": 8385,
      "##лолт": 8386,
      "##ft": 8387,
      "хийжээ": 8388,
      "гүйцэтгэж": 8389,
      "хагалгаа": 8390,
      "цэнгэл": 8391,
      "шалгаруулалт": 8392,
      "нөлөөлсөн": 8393,
      "хөлбөмбөгийн": 8394,
      "ниг": 8395,
      "##өч": 8396,
      "явган": 8397,
      "манлай": 8398,
      "онол": 8399,
      "салх": 8400,
      "дэмжсэн": 8401,
      "сонгуулиар": 8402,
      "зориулан": 8403,
      "##ard": 8404,
      "босоо": 8405,
      "ширээ": 8406,
      "тосны": 8407,
      "өөрсдийнхөө": 8408,
      "гудамжинд": 8409,
      "өмгөөлөгч": 8410,
      "болгоомжтой": 8411,
      "хөнгөлөлт": 8412,
      "03": 8413,
      "хуй": 8414,
      "хийвэл": 8415,
      "үйлд": 8416,
      "зорчих": 8417,
      "элемент": 8418,
      "тэмцэл": 8419,
      "хавдар": 8420,
      "хамааран": 8421,
      "тэнцвэр": 8422,
      "итали": 8423,
      "tr": 8424,
      "нүү": 8425,
      "##uck": 8426,
      "##үүлэлт": 8427,
      "олонх": 8428,
      "тийш": 8429,
      "гадар": 8430,
      "сэтгэлтэй": 8431,
      "##ang": 8432,
      "08": 8433,
      "sa": 8434,
      "##врийн": 8435,
      "##уулалтын": 8436,
      "авир": 8437,
      "##уурын": 8438,
      "юунаас": 8439,
      "тийшээ": 8440,
      "супер": 8441,
      "хөрв": 8442,
      "2004": 8443,
      "##ine": 8444,
      "шалтгааныг": 8445,
      "гаргахгүй": 8446,
      "стратегийн": 8447,
      "),": 8448,
      "бөөн": 8449,
      "##дод": 8450,
      "байг": 8451,
      "зардлыг": 8452,
      "гэрээсээ": 8453,
      "##длүүд": 8454,
      "зүс": 8455,
      "төгсг": 8456,
      "дэмжин": 8457,
      "үйлчлэх": 8458,
      "чиглэлд": 8459,
      "хүртэх": 8460,
      "400": 8461,
      "тэл": 8462,
      "##лөөр": 8463,
      "##үүлжээ": 8464,
      "хэлэхгүй": 8465,
      "дээрэм": 8466,
      "залг": 8467,
      "охиноо": 8468,
      "охиныг": 8469,
      "өсөх": 8470,
      "ордонд": 8471,
      "валю": 8472,
      "маркетингийн": 8473,
      "##алсан": 8474,
      "юманд": 8475,
      "##гээрэй": 8476,
      "##оосой": 8477,
      "албанд": 8478,
      "доторх": 8479,
      "хаврын": 8480,
      "зовл": 8481,
      "##ate": 8482,
      "өгүүлбэр": 8483,
      "талархаж": 8484,
      "хайрцаг": 8485,
      "пас": 8486,
      "эй": 8487,
      "хэвш": 8488,
      "192": 8489,
      "адуу": 8490,
      "өгөхийг": 8491,
      "шувуу": 8492,
      "танилцуулга": 8493,
      "британи": 8494,
      "чуулганы": 8495,
      "уламжлал": 8496,
      "ачаалал": 8497,
      "bo": 8498,
      "фай": 8499,
      "цан": 8500,
      "##ip": 8501,
      "##ъяа": 8502,
      "олоод": 8503,
      "өрөв": 8504,
      "хүсээгүй": 8505,
      "байгуулалтын": 8506,
      "нүгэл": 8507,
      "хуваалцах": 8508,
      "хүчирхийлэл": 8509,
      "рестор": 8510,
      "пак": 8511,
      "##гөөс": 8512,
      "##хэгт": 8513,
      "##бо": 8514,
      "##эсний": 8515,
      "хоёрт": 8516,
      "дуугүй": 8517,
      "бэлг": 8518,
      "удам": 8519,
      "##снаа": 8520,
      "санааны": 8521,
      "бүсийн": 8522,
      "хөнөө": 8523,
      "шилжих": 8524,
      "энэтхэгт": 8525,
      "функц": 8526,
      "04": 8527,
      "##se": 8528,
      "туяа": 8529,
      "хэлээгүй": 8530,
      "явдлын": 8531,
      "өргөө": 8532,
      "##тана": 8533,
      "цааз": 8534,
      "тэмдэглэх": 8535,
      "өнгөтэй": 8536,
      "аймшигтай": 8537,
      "зориулагдсан": 8538,
      "долд": 8539,
      "док": 8540,
      "##жиж": 8541,
      "##чдыг": 8542,
      "хэлснээр": 8543,
      "сонгоно": 8544,
      "##лөгд": 8545,
      "хугацаатай": 8546,
      "буцаад": 8547,
      "хоёрдугаарт": 8548,
      "залуучуудын": 8549,
      "кап": 8550,
      "лабор": 8551,
      "miss": 8552,
      "го": 8553,
      "цэнх": 8554,
      "тэрнээс": 8555,
      "арын": 8556,
      "үеийг": 8557,
      "хаагчид": 8558,
      "насыг": 8559,
      "бичнэ": 8560,
      "дундаас": 8561,
      "үндэстний": 8562,
      "дорой": 8563,
      "өлс": 8564,
      "хуваарь": 8565,
      "олимпийн": 8566,
      "жагсаалтад": 8567,
      "цэнхэр": 8568,
      "49": 8569,
      "лонд": 8570,
      "мэх": 8571,
      "##цэн": 8572,
      "эрэг": 8573,
      "ирэхээр": 8574,
      "гэрлэх": 8575,
      "хэз": 8576,
      "хана": 8577,
      "тодорхойлж": 8578,
      "мэргэн": 8579,
      "өсч": 8580,
      "занг": 8581,
      "төлбөрийг": 8582,
      "эзэмших": 8583,
      "конс": 8584,
      "суурилсан": 8585,
      "дипломат": 8586,
      "автомашины": 8587,
      "шүүлт": 8588,
      "##лий": 8589,
      "##io": 8590,
      "##лаач": 8591,
      "##ашгүй": 8592,
      "хятадууд": 8593,
      "хэлэлцүүлэг": 8594,
      "чадварыг": 8595,
      "гомд": 8596,
      "байснаас": 8597,
      "амжаагүй": 8598,
      "эмчилгээний": 8599,
      "африкийн": 8600,
      "хөлбөмбөг": 8601,
      "йорк": 8602,
      "өлг": 8603,
      "##уулаа": 8604,
      "байгаасай": 8605,
      "##тгөр": 8606,
      "##гээе": 8607,
      "хайрт": 8608,
      "хөгжих": 8609,
      "таалагдсан": 8610,
      "оруулагч": 8611,
      "бүсгүйн": 8612,
      "засаглал": 8613,
      "ихэнхдээ": 8614,
      "дамжин": 8615,
      "өгөөж": 8616,
      "ажлаас": 8617,
      "алдагдал": 8618,
      "саат": 8619,
      "наймдугаар": 8620,
      "богд": 8621,
      "говь": 8622,
      "##дам": 8623,
      "##үрэн": 8624,
      "байгаагаас": 8625,
      "хэлийг": 8626,
      "##лээгүй": 8627,
      "эдгэр": 8628,
      "тохиолдсон": 8629,
      "мэргэш": 8630,
      "хөндл": 8631,
      "гуйж": 8632,
      "арилжаа": 8633,
      "лиц": 8634,
      "экспорт": 8635,
      "оюуны": 8636,
      "fi": 8637,
      "чө": 8638,
      "##хой": 8639,
      "алж": 8640,
      "таних": 8641,
      "өмчл": 8642,
      "бүтэлгүй": 8643,
      "хайрладаг": 8644,
      "##огдол": 8645,
      "##ооно": 8646,
      "мөргөл": 8647,
      "туршлаг": 8648,
      "хамгаалагч": 8649,
      "нүц": 8650,
      "удирдаж": 8651,
      "##all": 8652,
      "тойронд": 8653,
      "тушаалт": 8654,
      "гаригт": 8655,
      "ямагт": 8656,
      "65": 8657,
      "еги": 8658,
      "##чуур": 8659,
      "хэрэглэсэн": 8660,
      "үзлэг": 8661,
      "чадалтай": 8662,
      "санагдана": 8663,
      "өрөөний": 8664,
      "хүртсэн": 8665,
      "мэргэжилтэн": 8666,
      "егип": 8667,
      "la": 8668,
      "агд": 8669,
      "эээ": 8670,
      "багаар": 8671,
      "бурхны": 8672,
      "бак": 8673,
      "санагдах": 8674,
      "шилжүүлэх": 8675,
      "бичлэгийг": 8676,
      "жуулчлалын": 8677,
      "ковид": 8678,
      "бонд": 8679,
      "поп": 8680,
      "см": 8681,
      "##гчийн": 8682,
      "##бил": 8683,
      "үйлдлийн": 8684,
      "ямартай": 8685,
      "зүйлээс": 8686,
      "санаачил": 8687,
      "хичээх": 8688,
      "түрүүлж": 8689,
      "тохирох": 8690,
      "##ацтай": 8691,
      "нялх": 8692,
      "##ess": 8693,
      "хөвгүүд": 8694,
      "##ill": 8695,
      "импорт": 8696,
      "=\"": 8697,
      "##лик": 8698,
      "##oc": 8699,
      "##ээсэй": 8700,
      "##доогүй": 8701,
      "эмг": 8702,
      "##ост": 8703,
      "тухайгаа": 8704,
      "шийтгэл": 8705,
      "##лган": 8706,
      "төсөлд": 8707,
      "хүчээ": 8708,
      "суурийг": 8709,
      "асуултад": 8710,
      "шинжтэй": 8711,
      "буцаан": 8712,
      "мартаж": 8713,
      "зориулалттай": 8714,
      "хэлтэс": 8715,
      "бөөр": 8716,
      "лат": 8717,
      "муур": 8718,
      "мэйл": 8719,
      "гард": 8720,
      "алсан": 8721,
      "сайтын": 8722,
      "үзлээ": 8723,
      "тогооны": 8724,
      "сүүлдээ": 8725,
      "тек": 8726,
      "нүх": 8727,
      "холбогдож": 8728,
      "##өгдсөн": 8729,
      "сүйр": 8730,
      "туйлын": 8731,
      "үерх": 8732,
      "хаз": 8733,
      "##шгийн": 8734,
      "даргыг": 8735,
      "гүйлгээ": 8736,
      "боломжийн": 8737,
      "байгуулна": 8738,
      "дурьд": 8739,
      "тем": 8740,
      "тохиолддог": 8741,
      "зогсоол": 8742,
      "баталж": 8743,
      "хэрэгслийн": 8744,
      "##olo": 8745,
      "алджээ": 8746,
      "татгалзах": 8747,
      "цөөнгүй": 8748,
      "тууштай": 8749,
      "дасгалжуулагч": 8750,
      "лэн": 8751,
      "рай": 8752,
      "туулж": 8753,
      "##бэг": 8754,
      "##эрч": 8755,
      "##өгчийн": 8756,
      "танихгүй": 8757,
      "биеэр": 8758,
      "талаархи": 8759,
      "өвчл": 8760,
      "хүчийг": 8761,
      "зорилгод": 8762,
      "хүчингүй": 8763,
      "буурсан": 8764,
      "хүртлээ": 8765,
      "лаборатор": 8766,
      "чөтгөр": 8767,
      "su": 8768,
      "зэм": 8769,
      "хараагүй": 8770,
      "##длого": 8771,
      "хянаж": 8772,
      "инээв": 8773,
      "дуусгах": 8774,
      "боловсруулж": 8775,
      "байгууллагаас": 8776,
      "илэрсэн": 8777,
      "үүсэх": 8778,
      "тамирчид": 8779,
      "социал": 8780,
      "отгон": 8781,
      "лиценз": 8782,
      "зус": 8783,
      "ник": 8784,
      "өөх": 8785,
      "хийчих": 8786,
      "тусмаа": 8787,
      "хүүхнүүд": 8788,
      "үгэнд": 8789,
      "салж": 8790,
      "мэдээг": 8791,
      "загварыг": 8792,
      "үүсгэж": 8793,
      "хөгжилд": 8794,
      "ялгар": 8795,
      "prev": 8796,
      "төсөөлж": 8797,
      "мот": 8798,
      "өгвөл": 8799,
      "хашг": 8800,
      "стресс": 8801,
      "оролдож": 8802,
      "малт": 8803,
      "яадаг": 8804,
      "барааны": 8805,
      "##азил": 8806,
      "тавилга": 8807,
      "дураараа": 8808,
      "ондоо": 8809,
      "дундж": 8810,
      "дайсан": 8811,
      "тавантол": 8812,
      "мужийн": 8813,
      "амьсгалын": 8814,
      "нотлох": 8815,
      "тавантолгой": 8816,
      "as": 8817,
      "##эхэн": 8818,
      "харахгүй": 8819,
      "амийг": 8820,
      "байхаас": 8821,
      "##хангай": 8822,
      "бусаар": 8823,
      "хийхдээ": 8824,
      "өнөөдрөөс": 8825,
      "##үүлэгчид": 8826,
      "тосг": 8827,
      "амьтны": 8828,
      "тын": 8829,
      "умар": 8830,
      "##сэг": 8831,
      "##аасай": 8832,
      "анхдагч": 8833,
      "өнгийн": 8834,
      "бүгдэд": 8835,
      "чихаад": 8836,
      "харилцаанд": 8837,
      "хачир": 8838,
      "торгуул": 8839,
      "маягаар": 8840,
      "сүлжээний": 8841,
      "мөртлөө": 8842,
      "cl": 8843,
      "мээр": 8844,
      "ъя": 8845,
      "##ийгаа": 8846,
      "өрхийн": 8847,
      "нэрлэж": 8848,
      "хоригд": 8849,
      "батз": 8850,
      "тохиож": 8851,
      "тараа": 8852,
      "##эцэг": 8853,
      "зөвшөөрдөг": 8854,
      "асуухад": 8855,
      "сэрэмж": 8856,
      "төлбөргүй": 8857,
      "журмын": 8858,
      "нутагтаа": 8859,
      "хөвг": 8860,
      "цэцэрлэгийн": 8861,
      "шууги": 8862,
      "олигтой": 8863,
      "найрамдах": 8864,
      "бер": 8865,
      "дис": 8866,
      "нал": 8867,
      "па": 8868,
      "цээж": 8869,
      "##ийтэй": 8870,
      "хүд": 8871,
      "нэгдэж": 8872,
      "##лагчид": 8873,
      "хүртээ": 8874,
      "үнэлж": 8875,
      "хаал": 8876,
      "насаа": 8877,
      "мөрийн": 8878,
      "элсэн": 8879,
      "хариуд": 8880,
      "үлдэж": 8881,
      "буудлын": 8882,
      "конт": 8883,
      "багтсан": 8884,
      "нутг": 8885,
      "дамп": 8886,
      "олборлох": 8887,
      "утгагүй": 8888,
      "дохио": 8889,
      "чармай": 8890,
      "хөндлөн": 8891,
      "##лосон": 8892,
      "##ob": 8893,
      "орц": 8894,
      "цагтаа": 8895,
      "зүйлсийн": 8896,
      "ярина": 8897,
      "баял": 8898,
      "авчрах": 8899,
      "баярыг": 8900,
      "дэмжиг": 8901,
      "үсээ": 8902,
      "нэвтрүүлэх": 8903,
      "хараат": 8904,
      "оффис": 8905,
      "төвөгтэй": 8906,
      "долдугаар": 8907,
      "доктор": 8908,
      "гул": 8909,
      "сны": 8910,
      "туур": 8911,
      "ток": 8912,
      "яана": 8913,
      "##вад": 8914,
      "гарган": 8915,
      "сандал": 8916,
      "саран": 8917,
      "айн": 8918,
      "хонь": 8919,
      "халаа": 8920,
      "тенд": 8921,
      "хариуг": 8922,
      "таарч": 8923,
      "ярьжээ": 8924,
      "төхөөрөмжийн": 8925,
      "афган": 8926,
      "мөрдөх": 8927,
      "нулимс": 8928,
      "хомс": 8929,
      "гагц": 8930,
      "төгсгөлд": 8931,
      "yolo": 8932,
      "ген": 8933,
      "саг": 8934,
      "##ганд": 8935,
      "бүлд": 8936,
      "буз": 8937,
      "таньд": 8938,
      "бодлыг": 8939,
      "жилийг": 8940,
      "шинэхэн": 8941,
      "байрыг": 8942,
      "мэдлэгтэй": 8943,
      "торг": 8944,
      "горим": 8945,
      "el": 8946,
      "tw": 8947,
      "ааж": 8948,
      "туулах": 8949,
      "##жаргал": 8950,
      "##үл": 8951,
      "орхон": 8952,
      "хул": 8953,
      "нэгдэл": 8954,
      "хэрэглэнэ": 8955,
      "будаа": 8956,
      "үйлдлийг": 8957,
      "зурсан": 8958,
      "мэдээлж": 8959,
      "томъё": 8960,
      "хэвлэх": 8961,
      "ажиллаад": 8962,
      "боловсруулсан": 8963,
      "хатагтай": 8964,
      "ороход": 8965,
      "дуудаж": 8966,
      "хувьцааны": 8967,
      "согтуу": 8968,
      "##ry": 8969,
      "##хар": 8970,
      "##gu": 8971,
      "##уужин": 8972,
      "бүрэлд": 8973,
      "тэгтэл": 8974,
      "нийтэл": 8975,
      "бразил": 8976,
      "хамгаалалтын": 8977,
      "түрээсийн": 8978,
      "төрөлхтний": 8979,
      "42": 8980,
      "гоор": 8981,
      "мэр": 8982,
      "эк": 8983,
      "ялах": 8984,
      "##огчийн": 8985,
      "орныг": 8986,
      "мэдээд": 8987,
      "багаж": 8988,
      "##чихсон": 8989,
      "хорин": 8990,
      "хайрыг": 8991,
      "150": 8992,
      "хүлээлт": 8993,
      "өрнөж": 8994,
      "арслан": 8995,
      "төмрийн": 8996,
      "con": 8997,
      "чой": 8998,
      "##гэсэн": 8999,
      "##та": 9000,
      "алуур": 9001,
      "ёсл": 9002,
      "ёслол": 9003,
      "хүндтэй": 9004,
      "утгаар": 9005,
      "тохиргоо": 9006,
      "ачаар": 9007,
      "бүтээлийн": 9008,
      "хариуцсан": 9009,
      "үүргийг": 9010,
      "хураамж": 9011,
      "тагнуулын": 9012,
      "хуудсууд": 9013,
      "бет": 9014,
      "ээлтэй": 9015,
      "##тгар": 9016,
      "буйг": 9017,
      "чиглэсэн": 9018,
      "айлчлал": 9019,
      "бясал": 9020,
      "грек": 9021,
      "эрчүүдийн": 9022,
      "укра": 9023,
      "##вер": 9024,
      "харв": 9025,
      "хийд": 9026,
      "тангар": 9027,
      "даргаар": 9028,
      "зарлаж": 9029,
      "зорьсон": 9030,
      "болгоод": 9031,
      "зурхай": 9032,
      "дурлал": 9033,
      "английн": 9034,
      "цаасан": 9035,
      "ээрэй": 9036,
      "төдийлөн": 9037,
      "золиос": 9038,
      "зовлонг": 9039,
      "граф": 9040,
      "мү": 9041,
      "тест": 9042,
      "ээл": 9043,
      "харлаа": 9044,
      "мэдэг": 9045,
      "олдог": 9046,
      "таньж": 9047,
      "намрын": 9048,
      "биелүүлж": 9049,
      "мэдээгүй": 9050,
      "заах": 9051,
      "##окс": 9052,
      "эхнэрээ": 9053,
      "шалгаруулах": 9054,
      "тусална": 9055,
      "хөдөлгөөнт": 9056,
      "терр": 9057,
      "сош": 9058,
      "чат": 9059,
      "##жийн": 9060,
      "##члэл": 9061,
      "сургуулиа": 9062,
      "хөтөч": 9063,
      "дүгнэж": 9064,
      "тусалдаг": 9065,
      "сэдвээр": 9066,
      "сирийн": 9067,
      "бээжин": 9068,
      "нөат": 9069,
      "дэр": 9070,
      "хак": 9071,
      "##бб": 9072,
      "байя": 9073,
      "талархал": 9074,
      "шилжилт": 9075,
      "бусадтай": 9076,
      "харагдахгүй": 9077,
      "хавь": 9078,
      "хуудсыг": 9079,
      "гарахад": 9080,
      "төлөвлөгөөг": 9081,
      "түлш": 9082,
      "цомог": 9083,
      "нягтлан": 9084,
      "бямба": 9085,
      "египет": 9086,
      "##руулсан": 9087,
      "##айх": 9088,
      "бүлээ": 9089,
      "бүхэлд": 9090,
      "өршөө": 9091,
      "##жилж": 9092,
      "хэнтэй": 9093,
      "дотны": 9094,
      "компаний": 9095,
      "нэмэгдэх": 9096,
      "толгойд": 9097,
      "үүрд": 9098,
      "овог": 9099,
      "багасгах": 9100,
      "зөөврийн": 9101,
      "кли": 9102,
      "мик": 9103,
      "пер": 9104,
      "ум": 9105,
      "##руу": 9106,
      "##vid": 9107,
      "##эгс": 9108,
      "##тэйгөө": 9109,
      "явсаар": 9110,
      "чинээ": 9111,
      "ахиад": 9112,
      "хандан": 9113,
      "зэрлэг": 9114,
      "тойрон": 9115,
      "ордон": 9116,
      "осолд": 9117,
      "800": 9118,
      "пуужин": 9119,
      "болих": 9120,
      "бир": 9121,
      "барина": 9122,
      "болохын": 9123,
      "зүйр": 9124,
      "байрладаг": 9125,
      "нөхрийн": 9126,
      "компанийг": 9127,
      "төлөөлөл": 9128,
      "аймаар": 9129,
      "өчүүхэн": 9130,
      "хязгаарлалт": 9131,
      "өгүүллэг": 9132,
      "шинэчлэх": 9133,
      "comment": 9134,
      "##ьс": 9135,
      "##жгийн": 9136,
      "##ii": 9137,
      "##өөрэй": 9138,
      "намд": 9139,
      "тавина": 9140,
      "хандлагатай": 9141,
      "дүрв": 9142,
      "хийгдэж": 9143,
      "харилцааг": 9144,
      "цэргүүд": 9145,
      "цүнх": 9146,
      "сошиал": 9147,
      "баар": 9148,
      "##лер": 9149,
      "##мин": 9150,
      "олноор": 9151,
      "үзүүр": 9152,
      "хүргэл": 9153,
      "юутай": 9154,
      "хүмүүн": 9155,
      "төлсөн": 9156,
      "тоогоор": 9157,
      "угт": 9158,
      "туршилтын": 9159,
      "дуустал": 9160,
      "гэмээр": 9161,
      "алдааг": 9162,
      "орныхоо": 9163,
      "хамрагдсан": 9164,
      "шалтгаал": 9165,
      "хоцр": 9166,
      "жавх": 9167,
      "гд": 9168,
      "дох": 9169,
      "лж": 9170,
      "рек": 9171,
      "##ууллаа": 9172,
      "юмнууд": 9173,
      "авлага": 9174,
      "уут": 9175,
      "бодохгүй": 9176,
      "төрдөг": 9177,
      "монголдоо": 9178,
      "##чихлаа": 9179,
      "даашин": 9180,
      "тогтоомж": 9181,
      "гурв": 9182,
      "нүүрний": 9183,
      "чөлөөлөх": 9184,
      "хөндий": 9185,
      "янзын": 9186,
      "гаалийн": 9187,
      "судлаач": 9188,
      "зохистой": 9189,
      "39": 9190,
      "ag": 9191,
      "рок": 9192,
      "сий": 9193,
      "олз": 9194,
      "##алтыг": 9195,
      "##лэлийг": 9196,
      "асуулга": 9197,
      "##сүт": 9198,
      "үндсэндээ": 9199,
      "сайжир": 9200,
      "коммунист": 9201,
      "wh": 9202,
      "мөх": 9203,
      "##нын": 9204,
      "##ue": 9205,
      "өгөв": 9206,
      "дараал": 9207,
      "дараалан": 9208,
      "хуулиа": 9209,
      "хөрөнгийг": 9210,
      "нөлөөтэй": 9211,
      "гэмтэл": 9212,
      "гүйцэтгэл": 9213,
      "түвшний": 9214,
      "51": 9215,
      "man": 9216,
      "вол": 9217,
      "зг": 9218,
      "шок": 9219,
      "##єл": 9220,
      "##айз": 9221,
      "##насан": 9222,
      "бүлг": 9223,
      "##аарх": 9224,
      "тулал": 9225,
      "##эвэл": 9226,
      "ажиллаг": 9227,
      "биднээс": 9228,
      "баяж": 9229,
      "захиа": 9230,
      "сэтгэлээр": 9231,
      "##шина": 9232,
      "заав": 9233,
      "##дөлт": 9234,
      "хотыг": 9235,
      "хугацаандаа": 9236,
      "айлд": 9237,
      "хүүхдийнхээ": 9238,
      "солонгост": 9239,
      "##туяа": 9240,
      "шийднэ": 9241,
      "ядуур": 9242,
      "хасах": 9243,
      "зэвсэгт": 9244,
      "авчирч": 9245,
      "компаниудын": 9246,
      "мо": 9247,
      "хэрэгл": 9248,
      "нараас": 9249,
      "нийлж": 9250,
      "засгийг": 9251,
      "намууд": 9252,
      "бүсэд": 9253,
      "явахдаа": 9254,
      "шув": 9255,
      "дамжуулах": 9256,
      "өнөөг": 9257,
      "эзэмшигч": 9258,
      "хэрэглэгчдэд": 9259,
      "хогийн": 9260,
      "##ung": 9261,
      "борлуулалтын": 9262,
      "дажгүй": 9263,
      "гагцхүү": 9264,
      "лэх": 9265,
      "хөөц": 9266,
      "##ым": 9267,
      "##рэх": 9268,
      "өдөржин": 9269,
      "албагүй": 9270,
      "тэнцүү": 9271,
      "##ганы": 9272,
      "устг": 9273,
      "итгэхгүй": 9274,
      "болгохын": 9275,
      "материалыг": 9276,
      "##лагддаг": 9277,
      "очиход": 9278,
      "хөдлөл": 9279,
      "компьютерийн": 9280,
      "есүсийн": 9281,
      "орхисон": 9282,
      "тамхины": 9283,
      "прокурор": 9284,
      "стандартын": 9285,
      "37": 9286,
      "gr": 9287,
      "чоно": 9288,
      "##пур": 9289,
      "##үйц": 9290,
      "хийв": 9291,
      "сонсг": 9292,
      "суугч": 9293,
      "гишүү": 9294,
      "санаач": 9295,
      "сонсдог": 9296,
      "2003": 9297,
      "толгойн": 9298,
      "тэнгэрт": 9299,
      "орхиж": 9300,
      "ярианы": 9301,
      "үлдээсэн": 9302,
      "түгж": 9303,
      "гамшиг": 9304,
      "стратеги": 9305,
      "текст": 9306,
      "лал": 9307,
      "мун": 9308,
      "физ": 9309,
      "##тү": 9310,
      "ажилчдын": 9311,
      "хүнээр": 9312,
      "хэлм": 9313,
      "нартаа": 9314,
      "хуулбар": 9315,
      "тодруулах": 9316,
      "эхлүүлсэн": 9317,
      "зөвшөөрөхгүй": 9318,
      "эсрэгээрээ": 9319,
      "зүрхний": 9320,
      "сургамж": 9321,
      "авчирсан": 9322,
      "мессеж": 9323,
      "террор": 9324,
      "даашинз": 9325,
      "95": 9326,
      "jo": 9327,
      "фин": 9328,
      "##цэцэг": 9329,
      "хус": 9330,
      "ярилаа": 9331,
      "ерөө": 9332,
      "түш": 9333,
      "тавилан": 9334,
      "##идер": 9335,
      "хүндээ": 9336,
      "сүүлээр": 9337,
      "тохируулах": 9338,
      "зөвлө": 9339,
      "ярилцсан": 9340,
      "нээсэн": 9341,
      "захиргаа": 9342,
      "балай": 9343,
      "бүрдүүлж": 9344,
      "ашгийн": 9345,
      "хэрэгцээг": 9346,
      "австралийн": 9347,
      "оршдог": 9348,
      "өөрийнхөөрөө": 9349,
      "темпер": 9350,
      "ph": 9351,
      "ууууу": 9352,
      "##лин": 9353,
      "##ингоо": 9354,
      "холбог": 9355,
      "хамтрагч": 9356,
      "зүтгэл": 9357,
      "албад": 9358,
      "##снээ": 9359,
      "өндөг": 9360,
      "түрх": 9361,
      "анхааралтай": 9362,
      "зогсох": 9363,
      "танилцсан": 9364,
      "тойрог": 9365,
      "оосоо": 9366,
      "тэсвэр": 9367,
      "тоглогчид": 9368,
      "нүцгэн": 9369,
      "br": 9370,
      "id": 9371,
      "гон": 9372,
      "лэг": 9373,
      "нитр": 9374,
      "таал": 9375,
      "##кет": 9376,
      "даргад": 9377,
      "зүйлгүй": 9378,
      "тэгэхдээ": 9379,
      "бусын": 9380,
      "тогтсон": 9381,
      "байгууллагуудын": 9382,
      "асуув": 9383,
      "хурдтай": 9384,
      "авлигын": 9385,
      "нүүдэл": 9386,
      "хуралдаанаар": 9387,
      "жишиг": 9388,
      "зорчигч": 9389,
      "##билэг": 9390,
      "хачирхалтай": 9391,
      "хөөцөлд": 9392,
      "мм": 9393,
      "ная": 9394,
      "ним": 9395,
      "ялаг": 9396,
      "##ти": 9397,
      "##манд": 9398,
      "орноос": 9399,
      "авилга": 9400,
      "будаг": 9401,
      "танаас": 9402,
      "зарлах": 9403,
      "##чилгаа": 9404,
      "биел": 9405,
      "дурын": 9406,
      "одон": 9407,
      "аргууд": 9408,
      "цэвэрхэн": 9409,
      "морил": 9410,
      "хувилбарыг": 9411,
      "шанал": 9412,
      "боомт": 9413,
      "дунджаар": 9414,
      "44": 9415,
      "лиг": 9416,
      "сат": 9417,
      "##зд": 9418,
      "нэгдэх": 9419,
      "алчуур": 9420,
      "туслал": 9421,
      "тариа": 9422,
      "хүргэдэг": 9423,
      "үндэслэн": 9424,
      "хөдөлгүүр": 9425,
      "төлөвтэй": 9426,
      "болчихлоо": 9427,
      "цуглаа": 9428,
      "журмыг": 9429,
      "парис": 9430,
      "төлөвлөлт": 9431,
      "өлсгөл": 9432,
      "хориотой": 9433,
      "##форм": 9434,
      "ходоод": 9435,
      "##єх": 9436,
      "орган": 9437,
      "төрч": 9438,
      "заслын": 9439,
      "тиймдээ": 9440,
      "дахинд": 9441,
      "аятай": 9442,
      "номоо": 9443,
      "дэвшил": 9444,
      "цаашаа": 9445,
      "орчныг": 9446,
      "##ice": 9447,
      "зарцуул": 9448,
      "хохирогч": 9449,
      "өөрчлөгдөх": 9450,
      "мэдэрдэг": 9451,
      "ажлууд": 9452,
      "огцруулах": 9453,
      "яригдаж": 9454,
      "оувс": 9455,
      "сайхныг": 9456,
      "малтмал": 9457,
      "температур": 9458,
      "ra": 9459,
      "нанд": 9460,
      "##тгаж": 9461,
      "##оооо": 9462,
      "байгаадаа": 9463,
      "аваа": 9464,
      "хийл": 9465,
      "анаг": 9466,
      "хортой": 9467,
      "зургад": 9468,
      "ээждээ": 9469,
      "хотоос": 9470,
      "ирэхийг": 9471,
      "дүрд": 9472,
      "салбарыг": 9473,
      "танилцаж": 9474,
      "системд": 9475,
      "ярихгүй": 9476,
      "болчихоод": 9477,
      "угааж": 9478,
      "захиалагч": 9479,
      "үргэлжилнэ": 9480,
      "гоолингоо": 9481,
      "нээлтээ": 9482,
      "талбайн": 9483,
      "бузар": 9484,
      "зургадугаар": 9485,
      "fuck": 9486,
      "пал": 9487,
      "##ип": 9488,
      "##лад": 9489,
      "хүдэр": 9490,
      "үзэгчид": 9491,
      "талх": 9492,
      "чадав": 9493,
      "##чилэн": 9494,
      "бүтцийн": 9495,
      "тавтай": 9496,
      "сэтгэц": 9497,
      "захын": 9498,
      "салсан": 9499,
      "##дөөс": 9500,
      "##емат": 9501,
      "шүл": 9502,
      "тэргүү": 9503,
      "бодохоор": 9504,
      "самбар": 9505,
      "өрсөлдөөн": 9506,
      "хорооллын": 9507,
      "өөрчилсөн": 9508,
      "синга": 9509,
      "ic": 9510,
      "mic": 9511,
      "##ия": 9512,
      "##дох": 9513,
      "##ма": 9514,
      "##шаал": 9515,
      "##эмгий": 9516,
      "аврал": 9517,
      "иран": 9518,
      "талийгаа": 9519,
      "олонд": 9520,
      "нараа": 9521,
      "##агдлаа": 9522,
      "хайлтын": 9523,
      "өвс": 9524,
      "танилцах": 9525,
      "үүсч": 9526,
      "эрдэнэбат": 9527,
      "тэтгэмж": 9528,
      "буух": 9529,
      "зарцуулж": 9530,
      "алхаж": 9531,
      "зуунд": 9532,
      "хаалттай": 9533,
      "tim": 9534,
      "болх": 9535,
      "хэргээр": 9536,
      "олно": 9537,
      "хийц": 9538,
      "талаасаа": 9539,
      "монголоос": 9540,
      "мөнхийн": 9541,
      "сэтгэх": 9542,
      "зурах": 9543,
      "сольж": 9544,
      "гэнэтийн": 9545,
      "эвдэр": 9546,
      "тунгаа": 9547,
      "өргөтг": 9548,
      "сексийн": 9549,
      "зогсоож": 9550,
      "эсэргүүцэж": 9551,
      "нааш": 9552,
      "бөөний": 9553,
      "даалгав": 9554,
      "битүү": 9555,
      "төлөөлөгчид": 9556,
      "жавхлан": 9557,
      "нитрил": 9558,
      "яав": 9559,
      "байдлаа": 9560,
      "бичил": 9561,
      "оржээ": 9562,
      "арьсан": 9563,
      "дээж": 9564,
      "зүйлүүд": 9565,
      "тайланг": 9566,
      "дэлбэр": 9567,
      "хором": 9568,
      "комисс": 9569,
      "давсан": 9570,
      "хандуулах": 9571,
      "уншаарай": 9572,
      "хийгээрэй": 9573,
      "мэдээжийн": 9574,
      "гаргахад": 9575,
      "нөхөрт": 9576,
      "охидын": 9577,
      "татгалзаж": 9578,
      "буулгах": 9579,
      "таалагдаж": 9580,
      "акад": 9581,
      "харгалзан": 9582,
      "дагавар": 9583,
      "сансрын": 9584,
      "клип": 9585,
      "da": 9586,
      "ье": 9587,
      "##еш": 9588,
      "##ориг": 9589,
      "арал": 9590,
      "өмөөр": 9591,
      "байгуулагч": 9592,
      "хувьтай": 9593,
      "усыг": 9594,
      "малгай": 9595,
      "онгой": 9596,
      "асуултанд": 9597,
      "харилцагч": 9598,
      "өртсөн": 9599,
      "тасалбар": 9600,
      "канадын": 9601,
      "таалагддаг": 9602,
      "хүндрэлтэй": 9603,
      "туслалцаа": 9604,
      "by": 9605,
      "pe": 9606,
      "ro": 9607,
      "жигд": 9608,
      "шог": 9609,
      "##ци": 9610,
      "##ьё": 9611,
      "##if": 9612,
      "##ѳр": 9613,
      "##гуулж": 9614,
      "боловсон": 9615,
      "ганбаатар": 9616,
      "нүүрээ": 9617,
      "малчид": 9618,
      "баримтлах": 9619,
      "оройт": 9620,
      "буудалд": 9621,
      "хөдөлгөөнийг": 9622,
      "амраг": 9623,
      "нух": 9624,
      "форм": 9625,
      "утгыг": 9626,
      "амжилтад": 9627,
      "хошуу": 9628,
      "дул": 9629,
      "мекс": 9630,
      "нтр": 9631,
      "ягаан": 9632,
      "##ао": 9633,
      "##луу": 9634,
      "##ht": 9635,
      "##шг": 9636,
      "##овол": 9637,
      "уруул": 9638,
      "өмчийн": 9639,
      "хайгуул": 9640,
      "хураалт": 9641,
      "хааж": 9642,
      "уншина": 9643,
      "хөгжсөн": 9644,
      "машинд": 9645,
      "үргэлжлүүлэх": 9646,
      "##are": 9647,
      "тооцож": 9648,
      "хадгаламж": 9649,
      "хэрэгслийг": 9650,
      "ирээдүйг": 9651,
      "##ous": 9652,
      "үнэлэх": 9653,
      "модон": 9654,
      "парк": 9655,
      "зарцуулсан": 9656,
      "үргэлжилсэн": 9657,
      "тархины": 9658,
      "сэлэнгэ": 9659,
      "хонгор": 9660,
      "хэмээсэн": 9661,
      "сураггүй": 9662,
      "шуугиан": 9663,
      "сингапур": 9664,
      "академ": 9665,
      "генер": 9666,
      "лаж": 9667,
      "##умын": 9668,
      "##ьш": 9669,
      "##гор": 9670,
      "санамсар": 9671,
      "тэгэхгүй": 9672,
      "##чихдаг": 9673,
      "бүтц": 9674,
      "дуугаа": 9675,
      "давс": 9676,
      "иргэнийг": 9677,
      "##сгалан": 9678,
      "огтхон": 9679,
      "бааз": 9680,
      "хөвсгөл": 9681,
      "татгалзсан": 9682,
      "булчин": 9683,
      "олборлолт": 9684,
      "хүүхэлдэйн": 9685,
      "дампуур": 9686,
      "тангараг": 9687,
      "he": 9688,
      "гий": 9689,
      "дуулдаг": 9690,
      "увс": 9691,
      "ядах": 9692,
      "##уйл": 9693,
      "хужаа": 9694,
      "##омт": 9695,
      "амарч": 9696,
      "эрэн": 9697,
      "эхэн": 9698,
      "зарлиг": 9699,
      "даатг": 9700,
      "оныг": 9701,
      "##эгдлээ": 9702,
      "сургуулиу": 9703,
      "чихлаа": 9704,
      "настайдаа": 9705,
      "тогтоогд": 9706,
      "гуйх": 9707,
      "агуулах": 9708,
      "эзэмшсэн": 9709,
      "шүдний": 9710,
      "ехов": 9711,
      "go": 9712,
      "lo": 9713,
      "ко": 9714,
      "хны": 9715,
      "цон": 9716,
      "хэрэгтээ": 9717,
      "сонирхлыг": 9718,
      "үлдэнэ": 9719,
      "малчин": 9720,
      "ярилцлаг": 9721,
      "баримтыг": 9722,
      "цалинг": 9723,
      "тэтгэврийн": 9724,
      "баригч": 9725,
      "огцом": 9726,
      "уйлж": 9727,
      "##age": 9728,
      "хахах": 9729,
      "гавья": 9730,
      "хүчирхийл": 9731,
      "адал": 9732,
      "##рөг": 9733,
      "ихэс": 9734,
      "үйлдвэрлэсэн": 9735,
      "голомт": 9736,
      "сүмийн": 9737,
      "мэдэхийг": 9738,
      "үхэл": 9739,
      "итгэлийг": 9740,
      "хариулсан": 9741,
      "товчл": 9742,
      "идэвхи": 9743,
      "сүлжээнд": 9744,
      "шагналыг": 9745,
      "сорилт": 9746,
      "улстөрч": 9747,
      "хэвтэж": 9748,
      "робот": 9749,
      "туулсан": 9750,
      "топ": 9751,
      "хив": 9752,
      "эш": 9753,
      "##iz": 9754,
      "##ахан": 9755,
      "үүдэл": 9756,
      "сайгүй": 9757,
      "хүмүүж": 9758,
      "эмчийн": 9759,
      "зуршил": 9760,
      "дуунууд": 9761,
      "ойлго": 9762,
      "гурил": 9763,
      "уулзалтын": 9764,
      "үлдэг": 9765,
      "цэрэн": 9766,
      "математ": 9767,
      "агуулсан": 9768,
      "read": 9769,
      "сурталчилгааны": 9770,
      "брэндийн": 9771,
      "үйм": 9772,
      "майк": 9773,
      "чармайлт": 9774,
      "em": 9775,
      "ha": 9776,
      "##дож": 9777,
      "##ne": 9778,
      "##аааа": 9779,
      "хүз": 9780,
      "такс": 9781,
      "аварч": 9782,
      "өдий": 9783,
      "##ософ": 9784,
      "сонго": 9785,
      "мэдээллээр": 9786,
      "бэлчээр": 9787,
      "татдаг": 9788,
      "зогссон": 9789,
      "хамаарч": 9790,
      "орчуул": 9791,
      "хуримын": 9792,
      "зүтгэж": 9793,
      "сурагчдын": 9794,
      "өгөгдөл": 9795,
      "энерги": 9796,
      "word": 9797,
      "орчлон": 9798,
      "41": 9799,
[...]
