<unk>	0
<s>	0
</s>	0
▁б	-0
▁х	-1
ий	-2
аа	-3
ай	-4
ээ	-5
▁т	-6
ан	-7
ар	-8
ол	-9
▁н	-10
уу	-11
▁бай	-12
▁г	-13
ал	-14
ийн	-15
үү	-16
эн	-17
▁д	-18
аг	-19
эг	-20
эр	-21
он	-22
▁с	-23
үй	-24
▁а	-25
эл	-26
▁з	-27
▁бол	-28
ил	-29
ын	-30
▁м	-31
өө	-32
ах	-33
ор	-34
ин	-35
эд	-36
эх	-37
▁ч	-38
▁нь	-39
ийг	-40
гүй	-41
гаа	-42
оо	-43
▁хү	-44
▁ш	-45
уул	-46
сан	-47
▁ү	-48
▁у	-49
ад	-50
на	-51
ам	-52
өр	-53
өн	-54
ээр	-55
▁Т	-56
▁я	-57
▁ю	-58
▁Х	-59
ог	-60
эж	-61
ох	-62
▁би	-63
ой	-64
▁.	-65
ур	-66
ыг	-67
аар	-68
▁байна	-69
өг	-70
▁и	-71
эй	-72
▁Б	-73
сэн	-74
▁л	-75
эм	-76
▁юм	-77
▁"	-78
жил	-79
▁бү	-80
▁,	-81
ууд	-82
тэй	-83
тай	-84
▁Э	-85
▁-	-86
өл	-87
▁ор	-88
▁ц	-89
од	-90
гийн	-91
ний	-92
▁М	-93
ас	-94
иг	-95
▁байгаа	-96
үүл	-97
га	-98
даг	-99
өөр	-100
нд	-101
▁гэж	-102
▁А	-103
нэ	-104
▁хэр	-105
ом	-106
ны	-107
▁ху	-108
▁ту	-109
энэ	-110
эв	-111
▁ав	-112
чи	-113
▁ө	-114
..	-115
ав	-116
тг	-117
▁хар	-118
▁гар	-119
▁1	-120
ээд	-121
аж	-122
лаг	-123
▁байх	-124
үйл	-125
▁2	-126
аас	-127
▁нэг	-128
даа	-129
онг	-130
▁Г	-131
▁мэд	-132
▁ам	-133
▁өөр	-134
ээс	-135
той	-136
▁хэрэг	-137
▁эр	-138
сон	-139
▁Н	-140
үүд	-141
▁хо	-142
аад	-143
өх	-144
▁ол	-145
өв	-146
▁бу	-147
эс	-148
▁С	-149
ир	-150
▁хам	-151
▁энэ	-152
▁хий	-153
ат	-154
▁ал	-155
▁хэл	-156
▁ажил	-157
▁ир	-158
▁байсан	-159
ер	-160
ээл	-161
▁...	-162
▁У	-163
▁Д	-164
▁Энэ	-165
ьд	-166
▁хүн	-167
▁он	-168
жээ	-169
▁уу	-170
лс	-171
алт	-172
▁яв	-173
▁сай	-174
▁ар	-175
хан	-176
▁в	-177
▁О	-178
дэг	-179
но	-180
▁Би	-181
лаа	-182
▁З	-183
ая	-184
▁сан	-185
дээ	-186
▁их	-187
▁ж	-188
▁хув	-189
▁И	-190
ов	-191
▁үз	-192
үүх	-193
▁болох	-194
үүн	-195
▁к	-196
▁Ө	-197
им	-198
дал	-199
▁дар	-200
онгол	-201
▁хүр	-202
эсэн	-203
▁бод	-204
анд	-205
▁эх	-206
дөр	-207
үүс	-208
▁өг	-209
▁дээр	-210
▁бар	-211
ийм	-212
ул	-213
өнг	-214
энд	-215
▁тал	-216
▁дээ	-217
▁жил	-218
чл	-219
▁тэр	-220
▁үйл	-221
▁улс	-222
▁бүр	-223
▁гэд	-224
▁20	-225
гээ	-226
аш	-227
▁болно	-228
гээр	-229
▁ас	-230
▁Ү	-231
▁үе	-232
гуул	-233
их	-234
оор	-235
мар	-236
гаар	-237
уур	-238
▁цаг	-239
▁төр	-240
аз	-241
хий	-242
▁вэ	-243
▁чад	-244
▁байдаг	-245
▁бид	-246
▁зүйл	-247
лах	-248
▁ан	-249
▁ил	-250
▁та	-251
хай	-252
лээ	-253
үр	-254
этг	-255
▁тог	-256
▁юу	-257
▁гүй	-258
▁тан	-259
сөн	-260
ож	-261
цаа	-262
мн	-263
лг	-264
▁гэсэн	-265
▁ур	-266
мүүс	-267
инь	-268
▁зөв	-269
▁сур	-270
▁хэм	-271
уулах	-272
▁яр	-273
үүр	-274
лэг	-275
чил	-276
▁олон	-277
▁бүх	-278
▁шүү	-279
ут	-280
дл	-281
охи	-282
▁Монгол	-283
шиг	-284
аан	-285
▁ээ	-286
▁газ	-287
арын	-288
ёр	-289
гал	-290
▁хүмүүс	-291
▁ё	-292
агд	-293
үн	-294
▁ямар	-295
чих	-296
омж	-297
▁баг	-298
▁аж	-299
▁төл	-300
▁ёс	-301
өөд	-302
▁үн	-303
▁:	-304
▁шин	-305
иний	-306
чин	-307
▁биш	-308
▁даа	-309
▁эм	-310
▁зар	-311
лийн	-312
лэл	-313
▁тус	-314
▁гэр	-315
▁Я	-316
ос	-317
оод	-318
▁Тэр	-319
дв	-320
▁р	-321
▁амьд	-322
▁3	-323
▁маш	-324
гийг	-325
▁ой	-326
▁хол	-327
▁хоёр	-328
▁Е	-329
лага	-330
▁хүүх	-331
▁Ш	-332
эгд	-333
▁хүс	-334
▁өмн	-335
▁Хар	-336
нг	-337
▁боломж	-338
▁өр	-339
лэх	-340
ис	-341
▁эрх	-342
ахгүй	-343
от	-344
▁гэдэг	-345
лын	-346
▁аа	-347
лд	-348
▁тай	-349
эт	-350
өд	-351
▁өн	-352
00	-353
▁асууд	-354
онд	-355
▁ний	-356
уй	-357
▁хамгийн	-358
▁байгуул	-359
▁нар	-360
▁дах	-361
вэл	-362
олд	-363
анай	-364
айр	-365
▁эс	-366
▁дараа	-367
▁үр	-368
▁хэрэгтэй	-369
▁болон	-370
▁сайн	-371
▁(	-372
эц	-373
▁Ц	-374
оос	-375
▁болг	-376
гд	-377
чид	-378
▁бүт	-379
▁шиг	-380
▁гэх	-381
үүлэх	-382
▁сон	-383
▁хэд	-384
▁од	-385
▁зор	-386
рал	-387
▁болсон	-388
▁тухай	-389
ид	-390
▁Ч	-391
▁тав	-392
▁нэр	-393
▁холб	-394
▁Ж	-395
хэн	-396
▁хийх	-397
амж	-398
▁о	-399
▁ашиг	-400
ик	-401
▁Тэг	-402
▁бус	-403
дог	-404
▁анх	-405
▁ай	-406
иш	-407
▁үү	-408
▁201	-409
▁сэтг	-410
двэр	-411
▁ёстой	-412
уулж	-413
▁удаа	-414
▁Та	-415
▁болов	-416
ээн	-417
▁тэд	-418
иж	-419
бар	-420
▁хур	-421
▁өмнө	-422
▁ийн	-423
ен	-424
▁ший	-425
▁байж	-426
▁талаар	-427
вал	-428
▁дэл	-429
гацаа	-430
▁К	-431
гэл	-432
аал	-433
лог	-434
▁ду	-435
иу	-436
▁эд	-437
чир	-438
▁чинь	-439
▁нам	-440
лөг	-441
▁хор	-442
▁дуу	-443
өнгө	-444
▁хугацаа	-445
▁авах	-446
▁Бид	-447
лан	-448
▁үед	-449
▁зур	-450
▁болж	-451
▁дур	-452
▁4	-453
лаж	-454
▁зас	-455
гэж	-456
▁мэдээл	-457
▁5	-458
аяр	-459
доо	-460
үүнийг	-461
▁хан	-462
▁ун	-463
эгтэй	-464
эз	-465
▁хуул	-466
▁су	-467
▁нас	-468
эхдээ	-469
▁одоо	-470
▁тү	-471
▁өдөр	-472
вар	-473
▁газар	-474
▁Харин	-475
▁п	-476
олц	-477
▁хэн	-478
үүний	-479
▁илүү	-480
▁том	-481
▁бие	-482
▁оны	-483
▁байр	-484
▁сонг	-485
▁хэмжээ	-486
▁ин	-487
▁хамт	-488
▁хя	-489
ус	-490
▁шаар	-491
эмж	-492
▁зал	-493
▁бөг	-494
лал	-495
▁ер	-496
лоо	-497
чд	-498
өс	-499
▁бас	-500
лыг	-501
илц	-502
▁нөх	-503
▁гээд	-504
▁хаа	-505
▁үг	-506
▁тод	-507
ит	-508
гэд	-509
▁хийж	-510
элт	-511
анц	-512
▁Хэр	-513
▁ийм	-514
▁жилийн	-515
айг	-516
▁Ер	-517
▁буй	-518
▁тэм	-519
▁шаард	-520
▁сарын	-521
▁хувьд	-522
▁хөг	-523
▁шинэ	-524
▁авч	-525
өнхий	-526
иул	-527
ес	-528
▁тогт	-529
ьж	-530
▁ком	-531
▁бөгөөд	-532
др	-533
эхгүй	-534
▁бэл	-535
▁онд	-536
▁ойлг	-537
өөс	-538
эхээр	-539
▁Гэхдээ	-540
огд	-541
гэн	-542
▁сал	-543
▁хон	-544
▁Тийм	-545
▁ыг	-546
гах	-547
өм	-548
▁ийг	-549
ун	-550
▁зохи	-551
▁нийт	-552
▁зах	-553
▁ын	-554
хал	-555
асан	-556
аны	-557
тын	-558
өлөө	-559
▁бич	-560
▁өв	-561
▁хүрт	-562
▁хүнд	-563
▁минь	-564
▁нэгэн	-565
▁биз	-566
сн	-567
ив	-568
▁тоо	-569
хөн	-570
▁бил	-571
▁гад	-572
▁байхгүй	-573
▁хүлээ	-574
▁уул	-575
▁сэтгэл	-576
▁даг	-577
оон	-578
даж	-579
▁алб	-580
▁сар	-581
▁суу	-582
хийн	-583
▁бий	-584
▁төс	-585
▁өөрийн	-586
пан	-587
айн	-588
▁дот	-589
лагаа	-590
▁амьдрал	-591
аагүй	-592
рын	-593
▁Тэд	-594
▁/	-595
▁най	-596
▁хүний	-597
▁дав	-598
▁сайхан	-599
үгээр	-600
адаг	-601
орх	-602
▁зам	-603
▁19	-604
▁хэв	-605
ана	-606
▁хайр	-607
ван	-608
▁бэ	-609
гаж	-610
тад	-611
▁миний	-612
тгэл	-613
▁асуудал	-614
нийг	-615
▁гиш	-616
▁санал	-617
хүү	-618
▁!	-619
▁улсын	-620
▁шал	-621
дийн	-622
▁Л	-623
▁ад	-624
ич	-625
▁Эр	-626
шин	-627
▁АН	-628
үүлж	-629
▁хувь	-630
▁Одоо	-631
▁хой	-632
▁баяр	-633
▁хэс	-634
▁Ор	-635
▁Улс	-636
▁өнг	-637
▁10	-638
▁нэм	-639
▁арга	-640
уулсан	-641
▁аг	-642
охир	-643
▁тохи	-644
өөдөр	-645
▁над	-646
▁манай	-647
▁Ар	-648
▁ажиллагаа	-649
орхой	-650
тр	-651
▁6	-652
▁хал	-653
агаад	-654
▁худал	-655
▁эн	-656
▁байдл	-657
▁билээ	-658
▁хоног	-659
арт	-660
▁ул	-661
▁ах	-662
▁мөн	-663
иа	-664
▁тат	-665
▁боломжтой	-666
нууд	-667
▁төлөө	-668
▁Өөр	-669
▁Мөн	-670
▁байлаа	-671
тан	-672
агч	-673
▁ид	-674
▁нут	-675
▁7	-676
өж	-677
▁П	-678
▁компан	-679
▁тодорхой	-680
...	-681
▁тур	-682
чүүд	-683
▁Ам	-684
▁бат	-685
▁ханд	-686
алтын	-687
▁эхэл	-688
▁тэг	-689
▁тогл	-690
▁оролц	-691
▁ут	-692
▁ба	-693
дсан	-694
гаан	-695
▁)	-696
дөө	-697
оё	-698
▁санаа	-699
▁иргэд	-700
▁тулд	-701
ээж	-702
уун	-703
▁гэдгийг	-704
▁өнгөр	-705
▁байдал	-706
▁орон	-707
олоо	-708
▁хөгж	-709
▁уд	-710
өлт	-711
жилт	-712
▁төг	-713
ирх	-714
чр	-715
▁хэдэн	-716
▁хүртэл	-717
▁S	-718
чийн	-719
▁хэрхэн	-720
йм	-721
▁8	-722
▁гэв	-723
▁эсвэл	-724
▁таны	-725
▁өөрчл	-726
▁тийм	-727
илг	-728
дах	-729
▁хө	-730
▁гур	-731
▁заа	-732
ист	-733
оол	-734
хаа	-735
▁Бү	-736
▁маан	-737
▁чу	-738
урхан	-739
▁учр	-740
▁залуу	-741
▁хоол	-742
дан	-743
▁дахь	-744
▁маань	-745
▁үнд	-746
▁Ерөнхий	-747
in	-748
▁хөр	-749
▁ганц	-750
▁хүч	-751
чилгээ	-752
▁дахин	-753
▁турш	-754
вр	-755
▁чи	-756
уг	-757
▁ард	-758
▁холбоо	-759
▁эмэгтэй	-760
▁үйлдвэр	-761
▁хич	-762
on	-763
ек	-764
▁болохгүй	-765
▁дэмж	-766
лийг	-767
▁ирсэн	-768
▁тэй	-769
▁өдр	-770
▁анхаар	-771
чууд	-772
өдөл	-773
▁мөр	-774
▁Хү	-775
хи	-776
▁чан	-777
▁Миний	-778
▁тохиолд	-779
гэр	-780
▁бүтээ	-781
▁гарч	-782
олтой	-783
арч	-784
▁сургуул	-785
▁зэр	-786
нх	-787
араа	-788
▁үнэ	-789
ем	-790
олт	-791
тээ	-792
er	-793
▁шил	-794
агад	-795
▁Үүн	-796
▁үргэл	-797
▁аас	-798
дөг	-799
иал	-800
▁хамгаа	-801
лон	-802
▁ая	-803
гой	-804
▁M	-805
▁хэмээн	-806
▁Инг	-807
▁чухал	-808
▁руу	-809
▁шаардлага	-810
дын	-811
▁чадахгүй	-812
▁тэн	-813
▁ууд	-814
ср	-815
ээрээ	-816
агт	-817
▁9	-818
гөө	-819
▁гай	-820
лж	-821
▁ф	-822
▁үнэн	-823
▁бүгд	-824
▁дунд	-825
эзээ	-826
▁муу	-827
▁сонс	-828
▁аар	-829
▁гол	-830
▁бүс	-831
▁хойш	-832
▁Манай	-833
ак	-834
▁шийдвэр	-835
▁Ийм	-836
бөр	-837
ээгүй	-838
▁түр	-839
▁хүүхэд	-840
▁амь	-841
элц	-842
▁Тиймээс	-843
▁хүүхд	-844
хн	-845
▁аль	-846
аат	-847
▁A	-848
▁хот	-849
▁өгөх	-850
▁хийсэн	-851
▁өндөр	-852
▁эл	-853
▁бага	-854
▁сая	-855
▁ял	-856
▁Зас	-857
▁ном	-858
▁учир	-859
уд	-860
▁сонирх	-861
▁хариу	-862
▁ажилл	-863
▁Нэг	-864
▁машин	-865
▁авсан	-866
▁үүс	-867
ИХ	-868
эгч	-869
▁өөрөө	-870
▁түүний	-871
ино	-872
▁эз	-873
▁чих	-874
▁гэнэ	-875
▁зээл	-876
▁төрийн	-877
▁зарим	-878
▁хэсэг	-879
▁мэт	-880
айл	-881
ийгөө	-882
▁чам	-883
эхэд	-884
▁ус	-885
галт	-886
▁Бурхан	-887
осон	-888
иад	-889
▁200	-890
▁байв	-891
▁дүр	-892
ааш	-893
мын	-894
хээ	-895
тал	-896
эхүү	-897
▁бусад	-898
▁Өн	-899
▁C	-900
▁мэдээлэл	-901
▁албан	-902
▁УИХ	-903
▁уулз	-904
▁Хя	-905
▁В	-906
▁ажиллаж	-907
чим	-908
▁Ал	-909
▁төлөв	-910
▁те	-911
▁Хэрэв	-912
гаад	-913
▁зөвхөн	-914
▁хууль	-915
агүй	-916
▁энд	-917
▁бур	-918
▁бодож	-919
▁той	-920
▁хэзээ	-921
гасан	-922
үүлсэн	-923
▁Дэл	-924
огт	-925
АН	-926
▁мөнгө	-927
из	-928
▁учраас	-929
ье	-930
▁сүүл	-931
▁унш	-932
▁АНУ	-933
▁тар	-934
аарай	-935
an	-936
алтай	-937
▁надад	-938
▁эхл	-939
▁дүн	-940
▁хугацаанд	-941
▁түүх	-942
▁төв	-943
▁s	-944
▁яаж	-945
▁дуус	-946
▁монгол	-947
▁P	-948
▁сэр	-949
▁зориул	-950
тер	-951
▁онц	-952
▁үүр	-953
▁шийд	-954
▁айм	-955
▁тэмц	-956
▁чиг	-957
▁орж	-958
▁хөдөл	-959
▁дэв	-960
▁эц	-961
▁болохоор	-962
▁анг	-963
▁Ф	-964
▁зүй	-965
хон	-966
▁хийг	-967
этэл	-968
▁Монголын	-969
эвч	-970
▁тохир	-971
▁зог	-972
▁яагаад	-973
▁яах	-974
▁ох	-975
▁?	-976
▁яг	-977
рах	-978
лбар	-979
лөө	-980
угаар	-981
▁зөвш	-982
▁харагд	-983
юу	-984
▁үүнийг	-985
▁ух	-986
▁тул	-987
▁намайг	-988
лөгч	-989
▁олг	-990
▁ажлын	-991
▁байхад	-992
▁удир	-993
ооны	-994
▁шалт	-995
▁Р	-996
нээс	-997
▁мэр	-998
▁өрг	-999
▁охин	-1000
чиж	-1001
▁Хам	-1002
▁хэлж	-1003
▁хэлб	-1004
▁нөлөө	-1005
цөл	-1006
▁уур	-1007
▁Хятад	-1008
▁хөл	-1009
▁оруул	-1010
▁явах	-1011
наас	-1012
▁зогс	-1013
▁явж	-1014
▁өөрс	-1015
▁түүнийг	-1016
оп	-1017
▁ажиллах	-1018
▁магад	-1019
▁өс	-1020
▁дарга	-1021
мийн	-1022
▁үргэлж	-1023
ац	-1024
▁адил	-1025
▁өм	-1026
эвэр	-1027
▁зөвшөөр	-1028
лаан	-1029
юул	-1030
▁зураг	-1031
▁_	-1032
▁үгүй	-1033
үг	-1034
имт	-1035
▁Ир	-1036
▁T	-1037
▁хүү	-1038
▁0	-1039
▁ээж	-1040
▁газрын	-1041
гай	-1042
▁хэрэгж	-1043
оц	-1044
▁Гэтэл	-1045
▁олж	-1046
нес	-1047
▁Засгийн	-1048
▁зэрэг	-1049
▁амжилт	-1050
лэж	-1051
▁сайд	-1052
▁илэр	-1053
▁бидний	-1054
▁I	-1055
▁найз	-1056
эдэг	-1057
▁үндэс	-1058
алд	-1059
▁мэдэх	-1060
ar	-1061
оронд	-1062
▁хая	-1063
▁итг	-1064
одог	-1065
▁сонгуул	-1066
▁холбогд	-1067
ьсан	-1068
▁үүд	-1069
аараа	-1070
▁хэлэлц	-1071
▁холбоотой	-1072
▁боловср	-1073
ган	-1074
▁Мэд	-1075
ет	-1076
гоор	-1077
▁уг	-1078
▁мэнд	-1079
▁пр	-1080
▁мөнг	-1081
▁үйлчилгээ	-1082
олгой	-1083
охгүй	-1084
▁Тэгээд	-1085
▁ирэх	-1086
▁өнөөдөр	-1087
▁суур	-1088
▁N	-1089
▁буруу	-1090
▁тэмдэг	-1091
▁байгааг	-1092
ув	-1093
үүнд	-1094
оно	-1095
▁байгууллаг	-1096
▁дотор	-1097
▁B	-1098
▁таа	-1099
▁зорилг	-1100
or	-1101
▁нөхцөл	-1102
▁үнэхээр	-1103
▁газр	-1104
▁нийг	-1105
яа	-1106
▁дуртай	-1107
▁судал	-1108
илт	-1109
▁бүрэн	-1110
▁ирээд	-1111
▁доо	-1112
үд	-1113
▁аюул	-1114
ей	-1115
▁үеийн	-1116
▁дэлхийн	-1117
20	-1118
▁танилц	-1119
▁гишүүн	-1120
гдэх	-1121
▁хөт	-1122
▁заг	-1123
▁харь	-1124
жиг	-1125
▁Таны	-1126
гаас	-1127
▁эдийн	-1128
▁алд	-1129
▁хэлсэн	-1130
▁хүүхдүүд	-1131
▁танд	-1132
▁Хүүх	-1133
▁асуу	-1134
▁Улсын	-1135
ел	-1136
▁гурван	-1137
▁харж	-1138
▁Төр	-1139
дэл	-1140
▁өгсөн	-1141
▁үл	-1142
▁хууд	-1143
дсэн	-1144
!!	-1145
олл	-1146
аалт	-1147
аатар	-1148
▁болдог	-1149
анк	-1150
▁түм	-1151
▁үлд	-1152
▁мин	-1153
▁зов	-1154
▁болоод	-1155
▁байвал	-1156
▁хад	-1157
▁гарах	-1158
▁дугаар	-1159
сний	-1160
▁шат	-1161
▁зөвл	-1162
▁санагд	-1163
▁э	-1164
лэлийн	-1165
▁гарсан	-1166
▁Дараа	-1167
▁хүлээн	-1168
төн	-1169
▁хүрг	-1170
▁Хүн	-1171
▁буюу	-1172
▁салбар	-1173
▁Эд	-1174
▁өөрийгөө	-1175
аргал	-1176
▁шаардлагатай	-1177
▁Шин	-1178
▁нэмэгд	-1179
▁гэм	-1180
▁мэдэгд	-1181
▁11	-1182
▁t	-1183
▁100	-1184
уудыг	-1185
▁харах	-1186
лөгөө	-1187
▁мя	-1188
▁Гэвч	-1189
ерик	-1190
хөө	-1191
▁гийн	-1192
дугаар	-1193
▁асуул	-1194
▁асуудлыг	-1195
▁гүйц	-1196
▁зохион	-1197
▁12	-1198
ок	-1199
▁бут	-1200
▁хай	-1201
эгт	-1202
▁мэргэж	-1203
маар	-1204
рам	-1205
уудын	-1206
▁ээс	-1207
арга	-1208
пор	-1209
ээнд	-1210
▁гаруй	-1211
▁төрлийн	-1212
▁засгийн	-1213
▁дор	-1214
▁харин	-1215
лох	-1216
члэн	-1217
▁15	-1218
нө	-1219
▁бодлог	-1220
дэнэ	-1221
ээрэй	-1222
▁Гэр	-1223
▁зөр	-1224
▁тооц	-1225
▁чанар	-1226
▁Түүний	-1227
en	-1228
рийн	-1229
▁долоо	-1230
▁Ямар	-1231
▁G	-1232
хам	-1233
▁хав	-1234
▁Зар	-1235
▁ойр	-1236
сийн	-1237
▁H	-1238
▁Өмн	-1239
▁зүйлийг	-1240
▁жин	-1241
▁хооронд	-1242
▁D	-1243
▁байн	-1244
өгөө	-1245
▁баримт	-1246
хайн	-1247
чдын	-1248
▁Чи	-1249
▁шууд	-1250
▁Орос	-1251
вээ	-1252
▁ач	-1253
▁улсад	-1254
▁бүсгүй	-1255
элд	-1256
▁эрүүл	-1257
▁бүтээл	-1258
▁төгс	-1259
▁чөлөө	-1260
шил	-1261
▁ярилц	-1262
▁нуу	-1263
▁үх	-1264
▁зүгээр	-1265
▁ингэж	-1266
▁Эн	-1267
▁минут	-1268
▁Үү	-1269
▁бизнес	-1270
ент	-1271
▁мэдэхгүй	-1272
алын	-1273
▁боллоо	-1274
лэн	-1275
▁гэвэл	-1276
▁настай	-1277
▁F	-1278
лалт	-1279
▁бүтээгдэх	-1280
тэн	-1281
▁мар	-1282
ум	-1283
▁тогтоо	-1284
▁боловч	-1285
гоо	-1286
▁болгон	-1287
▁байгаад	-1288
ины	-1289
таа	-1290
▁аав	-1291
▁нүүр	-1292
▁авт	-1293
▁хөрөнгө	-1294
ли	-1295
▁Үүнийг	-1296
▁i	-1297
▁Цаг	-1298
▁Их	-1299
▁болгох	-1300
▁мэдээ	-1301
▁хэц	-1302
▁байдлаар	-1303
ласан	-1304
агс	-1305
▁наад	-1306
▁арг	-1307
бээр	-1308
▁эв	-1309
▁a	-1310
▁бүхэн	-1311
▁Өнөөдөр	-1312
сгал	-1313
▁Олон	-1314
үүнээс	-1315
уулдаг	-1316
гар	-1317
▁гаргах	-1318
▁ерөнхий	-1319
▁явдал	-1320
рэг	-1321
▁батал	-1322
▁илэрхий	-1323
мж	-1324
▁хат	-1325
▁Зөв	-1326
▁амар	-1327
▁Үн	-1328
гээд	-1329
▁сол	-1330
▁өрөө	-1331
le	-1332
▁авна	-1333
▁ярьж	-1334
▁дагуу	-1335
▁болжээ	-1336
ст	-1337
инд	-1338
▁шинж	-1339
▁Ю	-1340
▁дээд	-1341
Би	-1342
▁оронд	-1343
▁өгч	-1344
▁чадвар	-1345
▁иргэн	-1346
▁орох	-1347
▁дүүр	-1348
▁Ав	-1349
▁хэт	-1350
йл	-1351
▁үзүүл	-1352
▁ирж	-1353
саар	-1354
▁оо	-1355
даггүй	-1356
▁гэхэд	-1357
▁хэцүү	-1358
▁дөр	-1359
▁тас	-1360
▁сард	-1361
▁хүнийг	-1362
▁шалтгаан	-1363
▁[	-1364
▁гаргаж	-1365
▁Тэгвэл	-1366
▁цэвэр	-1367
▁хүчин	-1368
▁хичээл	-1369
▁мэдр	-1370
▁итгэл	-1371
▁там	-1372
юут	-1373
▁Нам	-1374
▁өнгөрсөн	-1375
▁30	-1376
өлбөр	-1377
▁анхны	-1378
төө	-1379
▁техн	-1380
▁хариуц	-1381
агн	-1382
▁оч	-1383
▁Зарим	-1384
▁хийдэг	-1385
▁өөрчлөлт	-1386
илцаа	-1387
▁хян	-1388
▁дэлхий	-1389
амс	-1390
▁Уг	-1391
өгд	-1392
▁дан	-1393
▁v	-1394
гч	-1395
▁Хамгийн	-1396
оёр	-1397
▁алга	-1398
▁чадах	-1399
▁бүл	-1400
оны	-1401
▁гишүүд	-1402
▁компани	-1403
▁ээр	-1404
бал	-1405
оогүй	-1406
истем	-1407
ран	-1408
▁хариул	-1409
▁m	-1410
▁буур	-1411
▁гадаад	-1412
▁таар	-1413
▁18	-1414
вроп	-1415
▁Бүх	-1416
▁бая	-1417
▁зан	-1418
▁Америк	-1419
▁тайлбар	-1420
▁тухайн	-1421
▁МАН	-1422
▁дамж	-1423
рөг	-1424
▁Эм	-1425
▁тоглоо	-1426
ээх	-1427
▁ст	-1428
луур	-1429
▁аз	-1430
▁сү	-1431
▁тэдний	-1432
▁боддог	-1433
агдсан	-1434
▁хүлээж	-1435
▁хүмүүсийн	-1436
▁Эх	-1437
▁хэлэх	-1438
▁хадгал	-1439
▁хуулийн	-1440
▁;	-1441
баатар	-1442
▁хэрэггүй	-1443
▁байжээ	-1444
▁цааш	-1445
▁E	-1446
ъя	-1447
▁Эдгээр	-1448
нз	-1449
▁Сан	-1450
▁хэрэглэг	-1451
▁цах	-1452
▁засаг	-1453
▁Ту	-1454
▁эсрэг	-1455
шгүй	-1456
▁ярих	-1457
олог	-1458
длаа	-1459
▁багш	-1460
ижиг	-1461
▁L	-1462
▁ашиглах	-1463
▁судалгаа	-1464
уулан	-1465
▁мэддэг	-1466
▁R	-1467
▁үзэх	-1468
инг	-1469
▁үзэж	-1470
▁харилцаа	-1471
ишээ	-1472
▁толгой	-1473
re	-1474
гий	-1475
▁c	-1476
ээсээ	-1477
чиг	-1478
oo	-1479
▁жагс	-1480
▁W	-1481
уулга	-1482
аасаа	-1483
өмж	-1484
▁ярь	-1485
▁огт	-1486
▁нутгийн	-1487
▁төрөл	-1488
▁дараах	-1489
▁алдаа	-1490
▁систем	-1491
▁Бар	-1492
лүүл	-1493
▁бүү	-1494
▁магадгүй	-1495
▁тохиолдолд	-1496
▁p	-1497
▁Ний	-1498
▁өдрийн	-1499
▁бүрийн	-1500
сү	-1501
▁шүүх	-1502
▁гүйцэтг	-1503
▁хамаар	-1504
▁рүү	-1505
▁цэц	-1506
▁Тэрээр	-1507
гүүр	-1508
▁байгаагүй	-1509
вэр	-1510
▁туш	-1511
▁Үнд	-1512
▁цагийн	-1513
▁цэр	-1514
▁бутлуур	-1515
▁Бай	-1516
▁захир	-1517
гуй	-1518
нэл	-1519
▁хаан	-1520
орж	-1521
▁сүүлийн	-1522
▁орчин	-1523
▁үс	-1524
▁санхүү	-1525
▁зав	-1526
▁бараг	-1527
▁гаргасан	-1528
▁Хэрвээ	-1529
гын	-1530
▁дээрх	-1531
иар	-1532
▁нэв	-1533
▁тун	-1534
st	-1535
▁эдгээр	-1536
▁хэрэгс	-1537
▁зүйлс	-1538
▁Дэлхийн	-1539
▁орсон	-1540
▁урьд	-1541
▁хоногийн	-1542
сны	-1543
▁барил	-1544
▁гэрээ	-1545
▁болчих	-1546
▁жаргал	-1547
▁төгрөг	-1548
▁хамгаалах	-1549
төнц	-1550
▁бор	-1551
▁Европ	-1552
▁гуй	-1553
▁хийн	-1554
▁Яп	-1555
▁Яагаад	-1556
▁Учир	-1557
▁цагт	-1558
▁Тус	-1559
энх	-1560
▁гоё	-1561
өөн	-1562
ладаг	-1563
▁"-	-1564
▁хөтөлбөр	-1565
▁мал	-1566
лэдэг	-1567
▁заавал	-1568
▁14	-1569
▁Монголд	-1570
двар	-1571
иуд	-1572
▁эсэх	-1573
▁бос	-1574
▁нарын	-1575
чдийн	-1576
▁тань	-1577
▁үнэл	-1578
▁боломжгүй	-1579
▁худалдаа	-1580
al	-1581
элээ	-1582
▁кино	-1583
▁Энэхүү	-1584
об	-1585
▁гадна	-1586
олцоо	-1587
▁бүхий	-1588
▁харьц	-1589
▁дээрээ	-1590
▁ухаан	-1591
▁хэмжээний	-1592
ууны	-1593
өмб	-1594
арх	-1595
өлд	-1596
▁тойр	-1597
тгий	-1598
▁мянг	-1599
лэсэн	-1600
▁чадна	-1601
ou	-1602
алз	-1603
жин	-1604
▁түв	-1605
гүүд	-1606
▁Шинэ	-1607
▁төлбөр	-1608
▁Хэн	-1609
▁эмнэл	-1610
▁намын	-1611
маа	-1612
▁энэхүү	-1613
▁мэдэж	-1614
▁банк	-1615
▁орны	-1616
▁гарг	-1617
аахан	-1618
▁тээ	-1619
▁нөхөр	-1620
▁хуудас	-1621
▁е	-1622
▁эхний	-1623
▁Ерөнхийлөгч	-1624
▁дай	-1625
▁явсан	-1626
арсан	-1627
▁аваад	-1628
үүлэг	-1629
▁Хоёр	-1630
000	-1631
▁эхэлсэн	-1632
▁хаана	-1633
элтэй	-1634
▁бэлэн	-1635
онгос	-1636
▁болохыг	-1637
▁насны	-1638
▁Тэгэхээр	-1639
▁онг	-1640
уулна	-1641
▁ертөнц	-1642
▁оноос	-1643
ээлт	-1644
▁сэд	-1645
▁дууд	-1646
▁бидэнд	-1647
▁Бус	-1648
▁утас	-1649
чилж	-1650
▁хурдан	-1651
алдаа	-1652
▁хувийн	-1653
нээ	-1654
▁хэлбэр	-1655
▁буц	-1656
▁нүд	-1657
▁гэхдээ	-1658
▁Ур	-1659
▁байхдаа	-1660
at	-1661
лалаа	-1662
мэл	-1663
▁найр	-1664
▁хүссэн	-1665
▁бичиг	-1666
мд	-1667
▁удирд	-1668
өнө	-1669
вор	-1670
ман	-1671
▁цуг	-1672
лагдсан	-1673
▁дут	-1674
▁эрс	-1675
▁тэрг	-1676
чилсан	-1677
▁шаардлаг	-1678
▁янз	-1679
▁мянган	-1680
▁орнууд	-1681
өхөөр	-1682
▁Сол	-1683
▁жижиг	-1684
▁сайт	-1685
▁Ингээд	-1686
халтай	-1687
ac	-1688
ио	-1689
▁ий	-1690
лөх	-1691
▁хүүхдийн	-1692
▁хүмүүст	-1693
▁b	-1694
▁зү	-1695
▁хувц	-1696
▁зай	-1697
▁асуудл	-1698
▁Баг	-1699
▁Хэд	-1700
▁март	-1701
▁хөн	-1702
нүүд	-1703
▁дэх	-1704
▁амьдарч	-1705
▁Үүний	-1706
▁му	-1707
үрх	-1708
▁бүртг	-1709
▁кин	-1710
▁Төрийн	-1711
▁нис	-1712
▁явц	-1713
▁За	-1714
▁хориг	-1715
▁ажилд	-1716
▁ажлыг	-1717
▁ы	-1718
▁хүсч	-1719
ограм	-1720
▁үеэр	-1721
▁болгож	-1722
▁орлог	-1723
▁угаа	-1724
▁тулг	-1725
▁хөөр	-1726
▁аюулгүй	-1727
▁Ард	-1728
▁шилж	-1729
▁нууц	-1730
даад	-1731
▁бууд	-1732
▁гэмт	-1733
▁амьдралын	-1734
▁•	-1735
▁орч	-1736
▁хаг	-1737
▁нэгд	-1738
▁олох	-1739
▁хайртай	-1740
алц	-1741
▁бэр	-1742
алин	-1743
▁дүг	-1744
▁тоглолт	-1745
огц	-1746
▁Гад	-1747
▁Сур	-1748
om	-1749
уулалт	-1750
▁бичсэн	-1751
▁Энд	-1752
▁Бол	-1753
хэг	-1754
▁хотын	-1755
▁хөдөлгөө	-1756
▁Бр	-1757
олын	-1758
▁тов	-1759
▁арай	-1760
ныг	-1761
▁сонгол	-1762
▁Тэрбээр	-1763
▁ахуй	-1764
▁зорилго	-1765
▁Бат	-1766
▁Над	-1767
лээд	-1768
▁Бас	-1769
▁өмнөх	-1770
порт	-1771
▁агаар	-1772
үүдэд	-1773
??	-1774
▁тоглоом	-1775
▁амьдар	-1776
▁гүйгээр	-1777
▁Мэдээж	-1778
члэг	-1779
▁асуулт	-1780
▁сайж	-1781
▁ихэнх	-1782
руулах	-1783
▁цар	-1784
▁Улаан	-1785
▁унт	-1786
▁түүнд	-1787
өмбөг	-1788
▁хэлбэл	-1789
▁урт	-1790
агдах	-1791
▁Нүүр	-1792
▁Яг	-1793
▁d	-1794
▁байдлыг	-1795
▁16	-1796
▁ме	-1797
▁гэлээ	-1798
▁лээ	-1799
вөн	-1800
▁ирээдүй	-1801
▁17	-1802
▁Бидний	-1803
▁13	-1804
▁тэгээд	-1805
▁загвар	-1806
лагын	-1807
▁байхыг	-1808
▁оруулах	-1809
▁ажлаа	-1810
▁Анг	-1811
▁199	-1812
ью	-1813
▁нэвтр	-1814
▁түмэн	-1815
екс	-1816
▁мэдээллийг	-1817
▁айл	-1818
▁чин	-1819
▁өө	-1820
▁соё	-1821
▁зохиц	-1822
▁аймгийн	-1823
▁давх	-1824
▁нөгөө	-1825
лана	-1826
омжтой	-1827
▁төрсөн	-1828
▁хэмжээнд	-1829
нэр	-1830
агдаж	-1831
▁тэнд	-1832
▁зориулсан	-1833
▁бусд	-1834
ламж	-1835
▁Өнг	-1836
▁O	-1837
▁50	-1838
нхб	-1839
▁өглөө	-1840
▁сонголт	-1841
▁ажилладаг	-1842
▁эмэгтэйчүүд	-1843
▁бодох	-1844
▁байсн	-1845
▁өөртөө	-1846
it	-1847
▁чиглэл	-1848
▁бололтой	-1849
▁барих	-1850
▁эхнэр	-1851
▁e	-1852
нээр	-1853
өрсөн	-1854
өөл	-1855
згаар	-1856
ааны	-1857
өхөөрөмж	-1858
▁ман	-1859
хэнэ	-1860
▁J	-1861
▁удаан	-1862
аб	-1863
мөр	-1864
▁дал	-1865
▁гурав	-1866
▁чамайг	-1867
▁Сүүл	-1868
▁буу	-1869
▁Бурханы	-1870
Эр	-1871
ги	-1872
лайн	-1873
▁дээш	-1874
▁нийтийн	-1875
▁1-	-1876
үжиг	-1877
▁орой	-1878
▁орд	-1879
ян	-1880
▁дэвш	-1881
▁25	-1882
ахад	-1883
▁цагдаа	-1884
Та	-1885
▁дүгн	-1886
Бат	-1887
▁явдаг	-1888
▁мэднэ	-1889
▁орчим	-1890
▁битгий	-1891
▁үйлчл	-1892
ic	-1893
▁n	-1894
лагатай	-1895
▁амьдрах	-1896
▁эзэм	-1897
▁Солонгос	-1898
▁төхөөрөмж	-1899
▁үндсэн	-1900
бай	-1901
▁хязгаар	-1902
▁таныг	-1903
▁гэдгээ	-1904
▁мат	-1905
▁бүтээгдэхүүн	-1906
▁тон	-1907
▁технолог	-1908
▁эрт	-1909
▁өөрийнхөө	-1910
лагч	-1911
▁өнөө	-1912
▁бүлийн	-1913
▁үзсэн	-1914
▁зарц	-1915
mn	-1916
▁Аз	-1917
▁түвшин	-1918
есс	-1919
▁програм	-1920
▁оюут	-1921
▁уран	-1922
ра	-1923
▁БН	-1924
ланг	-1925
▁жур	-1926
▁мах	-1927
▁хийнэ	-1928
▁хэрэглэх	-1929
▁шилдэг	-1930
уучин	-1931
▁суурь	-1932
▁төлөвлөгөө	-1933
▁Өөрийн	-1934
▁хил	-1935
аах	-1936
гааш	-1937
▁бөх	-1938
варын	-1939
гааны	-1940
ашин	-1941
▁улам	-1942
▁барьж	-1943
▁гэдэгт	-1944
▁ха	-1945
▁эргэл	-1946
▁байгал	-1947
▁сав	-1948
▁зүйн	-1949
▁эхлэх	-1950
▁Үүнээс	-1951
дэх	-1952
▁хөгжил	-1953
лаад	-1954
▁мод	-1955
▁бодит	-1956
амд	-1957
▁хэдий	-1958
▁эцэг	-1959
▁хувцас	-1960
▁гайх	-1961
ев	-1962
уудад	-1963
▁ня	-1964
гөл	-1965
▁нэл	-1966
▁иргэдийн	-1967
саа	-1968
▁байл	-1969
ударга	-1970
▁чиний	-1971
▁хоногт	-1972
▁удаагийн	-1973
▁Y	-1974
▁нутаг	-1975
уулагч	-1976
сай	-1977
▁шир	-1978
▁ээл	-1979
▁амр	-1980
▁өгнө	-1981
▁очиж	-1982
▁эмч	-1983
▁хуур	-1984
▁долл	-1985
▁тут	-1986
уяа	-1987
лэгч	-1988
эгдсэн	-1989
кс	-1990
өөц	-1991
▁сууж	-1992
▁нийгэм	-1993
▁хийгээд	-1994
цээ	-1995
▁ны	-1996
▁гом	-1997
▁тос	-1998
▁багт	-1999
дэж	-2000
▁өвч	-2001
▁авдаг	-2002
▁байгууллага	-2003
тийн	-2004
ro	-2005
▁бодлого	-2006
уулаад	-2007
▁суралц	-2008
▁бариг	-2009
▁ашиглаж	-2010
▁ялгаа	-2011
охой	-2012
гэх	-2013
▁Аж	-2014
энгүй	-2015
этгэл	-2016
▁·	-2017
▁туслах	-2018
▁ухаа	-2019
чээ	-2020
▁төлөвл	-2021
энтэй	-2022
длыг	-2023
эгүй	-2024
▁Хуул	-2025
▁гэртээ	-2026
врийн	-2027
пп	-2028
▁яд	-2029
▁улир	-2030
▁үүрэг	-2031
▁хэрэглээ	-2032
▁нээ	-2033
▁байдаггүй	-2034
▁2-	-2035
өөсөө	-2036
▁арил	-2037
▁жилд	-2038
▁ижил	-2039
▁Хүмүүс	-2040
▁бичлэг	-2041
▁сонирхолтой	-2042
▁24	-2043
▁байнга	-2044
огч	-2045
▁бүлэг	-2046
▁лав	-2047
чихсан	-2048
vv	-2049
▁цалин	-2050
▁минутын	-2051
▁Тэдний	-2052
▁сэтгүүл	-2053
▁хамр	-2054
▁хангалт	-2055
аасан	-2056
▁энгийн	-2057
▁сургууль	-2058
хийг	-2059
▁шү	-2060
лөгчийн	-2061
иде	-2062
гүү	-2063
▁худалдаж	-2064
▁баталгаа	-2065
олб	-2066
▁Мар	-2067
▁дэг	-2068
тэйгээ	-2069
▁худалдан	-2070
▁өөрчлөгд	-2071
▁U	-2072
▁ажээ	-2073
▁тусламж	-2074
▁аргагүй	-2075
эгдэл	-2076
ноо	-2077
сээр	-2078
▁оруулж	-2079
**	-2080
▁Дээр	-2081
▁өгдөг	-2082
хны	-2083
▁зо	-2084
▁өрс	-2085
▁1.	-2086
▁дүү	-2087
▁Өв	-2088
өдөө	-2089
эндээ	-2090
▁дас	-2091
жилгээ	-2092
▁чаддаг	-2093
▁Эц	-2094
▁таван	-2095
▁хулг	-2096
▁дөрвөн	-2097
▁гайхалтай	-2098
иваа	-2099
▁гал	-2100
лагд	-2101
▁бал	-2102
ериал	-2103
оохон	-2104
▁яваа	-2105
▁Ажил	-2106
▁ойлгож	-2107
▁ов	-2108
▁2020	-2109
▁өнгө	-2110
эст	-2111
лжээ	-2112
▁олд	-2113
▁сул	-2114
▁өгөө	-2115
▁захиал	-2116
барын	-2117
he	-2118
ХУ	-2119
▁l	-2120
▁тохиолдол	-2121
▁хүрээнд	-2122
элж	-2123
▁цэг	-2124
▁шагн	-2125
▁гэжээ	-2126
▁u	-2127
өсөн	-2128
▁харилц	-2129
ант	-2130
▁Монголчууд	-2131
▁хохир	-2132
▁дотоод	-2133
▁Тан	-2134
▁нөөц	-2135
лүүлэх	-2136
▁Түүнийг	-2137
▁нутагт	-2138
икийн	-2139
ья	-2140
▁гэхээр	-2141
ХА	-2142
▁тавьж	-2143
▁өмс	-2144
▁Зөвхөн	-2145
▁нийгмийн	-2146
▁зүрх	-2147
▁үздэг	-2148
▁эхлээд	-2149
▁V	-2150
▁Түүн	-2151
▁тээр	-2152
▁хараад	-2153
▁хөө	-2154
вол	-2155
▁өөрсдийн	-2156
▁Эс	-2157
хгүй	-2158
▁тэрээр	-2159
▁мор	-2160
▁Анх	-2161
луулах	-2162
▁онгоц	-2163
▁хувил	-2164
▁жишээ	-2165
▁Ан	-2166
▁бүрд	-2167
▁бэрх	-2168
▁шалг	-2169
▁тавих	-2170
▁төсөл	-2171
▁бичих	-2172
▁'	-2173
▁сонин	-2174
▁өргөн	-2175
▁тэрб	-2176
▁Хув	-2177
▁хүсэлт	-2178
▁чадсан	-2179
▁салбарт	-2180
▁чул	-2181
▁яам	-2182
▁суул	-2183
▁хүмүүсийг	-2184
▁Өөрөөр	-2185
ед	-2186
юун	-2187
үнд	-2188
▁Хятадын	-2189
▁үедээ	-2190
▁чамд	-2191
акц	-2192
үүдийг	-2193
▁Хүний	-2194
▁Тухайн	-2195
▁цагаан	-2196
▁40	-2197
▁Сай	-2198
▁юмаа	-2199
▁эргэн	-2200
артай	-2201
үүлнэ	-2202
▁бя	-2203
▁хаш	-2204
▁хамаагүй	-2205
▁шинжилгээ	-2206
эсний	-2207
▁утга	-2208
▁Өнгөрсөн	-2209
es	-2210
▁Сайн	-2211
▁зайл	-2212
▁мэдээллийн	-2213
еж	-2214
тор	-2215
эрлэг	-2216
▁мөнгөн	-2217
▁2012	-2218
▁ханг	-2219
▁сургуулийн	-2220
▁жинхэнэ	-2221
▁явна	-2222
гаараа	-2223
ина	-2224
▁бээл	-2225
▁өөрсдөө	-2226
▁хотод	-2227
▁Намайг	-2228
маас	-2229
▁зу	-2230
▁Сонг	-2231
төр	-2232
▁нийтлэл	-2233
Энэ	-2234
ирус	-2235
▁Гер	-2236
▁хатуу	-2237
▁онлайн	-2238
▁бүхнийг	-2239
am	-2240
▁o	-2241
ахыг	-2242
▁цахим	-2243
▁материал	-2244
▁Үйл	-2245
▁Амьд	-2246
▁сууц	-2247
▁зүг	-2248
▁хурд	-2249
оф	-2250
▁!!!	-2251
▁чим	-2252
▁2016	-2253
▁үнэгүй	-2254
▁Европын	-2255
▁үзүүлэх	-2256
▁шах	-2257
▁ажиллагааны	-2258
▁#	-2259
сэг	-2260
▁насан	-2261
▁хүрэх	-2262
▁эрэгтэй	-2263
▁хялбар	-2264
▁хамтран	-2265
санд	-2266
▁гээ	-2267
▁оос	-2268
▁сургалт	-2269
▁оор	-2270
үүлдэг	-2271
▁f	-2272
ing	-2273
үрэн	-2274
▁идэв	-2275
▁тусгай	-2276
▁төд	-2277
▁21	-2278
▁тэднийг	-2279
▁алх	-2280
ay	-2281
▁Эл	-2282
▁жүжиг	-2283
дагч	-2284
▁сууд	-2285
гэрэнгүй	-2286
сыг	-2287
эсгэл	-2288
▁байдалд	-2289
хим	-2290
▁яриа	-2291
▁Ас	-2292
▁нээлт	-2293
▁эрчим	-2294
унт	-2295
▁компанийн	-2296
эе	-2297
▁үзэл	-2298
▁Бусад	-2299
▁Юу	-2300
мээр	-2301
▁тах	-2302
▁Энэт	-2303
▁татаж	-2304
▁газарт	-2305
▁Хур	-2306
үүдийн	-2307
▁за	-2308
▁Фр	-2309
▁зогсоо	-2310
гээс	-2311
▁бодол	-2312
▁бээлий	-2313
▁мэндийн	-2314
▁Ху	-2315
члал	-2316
▁хийлг	-2317
лангуяа	-2318
▁хоолой	-2319
▁оролцох	-2320
АР	-2321
идео	-2322
шээл	-2323
▁очих	-2324
▁бичиж	-2325
маг	-2326
▁дараагийн	-2327
ааж	-2328
гыг	-2329
▁хаж	-2330
▁нү	-2331
лам	-2332
ших	-2333
▁эрд	-2334
үүлэн	-2335
▁тавь	-2336
▁байгууллагын	-2337
▁сонгох	-2338
▁..	-2339
▁ариу	-2340
▁бүртгэл	-2341
▁уй	-2342
▁хүрч	-2343
өөдрийн	-2344
▁хүргэж	-2345
▁шинэчл	-2346
андаа	-2347
▁хүчний	-2348
▁байгуулах	-2349
▁хувилбар	-2350
▁гоо	-2351
▁нарийн	-2352
▁үргэлжил	-2353
аач	-2354
▁хангалттай	-2355
Эрдэнэ	-2356
▁Ээж	-2357
▁мэдэр	-2358
ндаа	-2359
▁орх	-2360
▁хос	-2361
▁хөдл	-2362
▁хэлэхэд	-2363
▁хүчтэй	-2364
▁ээлж	-2365
▁бүгдийг	-2366
▁Зур	-2367
▁мая	-2368
▁гэрийн	-2369
▁хүсдэг	-2370
▁жир	-2371
▁хэлдэг	-2372
▁g	-2373
▁Өр	-2374
▁адилхан	-2375
▁тусгаар	-2376
▁хүнтэй	-2377
▁хугацааны	-2378
▁ярьдаг	-2379
▁цэн	-2380
▁анги	-2381
▁хүсэл	-2382
▁Хайр	-2383
▁хэрэгжүүлэх	-2384
▁болт	-2385
▁улмаас	-2386
▁шударга	-2387
▁хүрсэн	-2388
тгалз	-2389
вийн	-2390
▁яваад	-2391
▁нэлээд	-2392
лх	-2393
▁гу	-2394
▁2017	-2395
▁буцаа	-2396
▁Гур	-2397
▁болз	-2398
▁хөгжлийн	-2399
▁санхүүгийн	-2400
▁Эмэгтэй	-2401
ноос	-2402
▁арван	-2403
▁тушаал	-2404
▁тэрбум	-2405
▁уурхайн	-2406
▁өрт	-2407
▁тэнэг	-2408
▁мэдлэг	-2409
эснээр	-2410
▁Надад	-2411
▁мэргэжлийн	-2412
▁боль	-2413
▁татгалз	-2414
▁зөвлөгөө	-2415
▁бна	-2416
▁гараад	-2417
is	-2418
▁тавьсан	-2419
▁яри	-2420
▁байдлын	-2421
▁түүн	-2422
▁урам	-2423
лиг	-2424
▁хүй	-2425
▁тэнц	-2426
▁ойлголт	-2427
▁баярлалаа	-2428
угай	-2429
▁Зал	-2430
▁тоглох	-2431
▁байшин	-2432
▁бэрхшээл	-2433
▁ОХУ	-2434
Энхб	-2435
▁үгийг	-2436
аана	-2437
▁яриад	-2438
▁эрсдэл	-2439
длийг	-2440
▁Сүүлийн	-2441
ow	-2442
▁бэлэг	-2443
▁ирдэг	-2444
амсалтай	-2445
▁биднийг	-2446
▁явуулах	-2447
▁Өг	-2448
▁салбарын	-2449
un	-2450
▁2018	-2451
▁Гэсэн	-2452
▁ажилласан	-2453
▁байгаагаа	-2454
наж	-2455
длын	-2456
АХ	-2457
▁тэтг	-2458
бэр	-2459
рай	-2460
▁Өдөр	-2461
▁оршин	-2462
▁хөдөлмөр	-2463
▁22	-2464
▁мэдээж	-2465
оонд	-2466
▁дуул	-2467
▁давуу	-2468
▁тусал	-2469
▁Гадаад	-2470
il	-2471
▁харсан	-2472
▁чадаагүй	-2473
▁сах	-2474
▁h	-2475
▁доор	-2476
▁бараа	-2477
ol	-2478
et	-2479
лээр	-2480
ьютер	-2481
▁дасгал	-2482
▁2.	-2483
▁Он	-2484
▁дэлгүүр	-2485
▁боломжийг	-2486
▁амжилттай	-2487
▁нарт	-2488
▁сүлжээ	-2489
?"	-2490
▁дургүй	-2491
▁илэрхийл	-2492
▁амьдардаг	-2493
▁бүрт	-2494
▁Үндсэн	-2495
үрэл	-2496
өмөр	-2497
▁гүн	-2498
▁ойлгох	-2499
▁талбай	-2500
▁амж	-2501
▁Баяр	-2502
▁Магад	-2503
▁унших	-2504
▁шалгар	-2505
▁тэдгээр	-2506
▁үндэсний	-2507
агчид	-2508
▁талд	-2509
пьютер	-2510
▁дэмжих	-2511
▁сэргээ	-2512
▁ирнэ	-2513
▁2019	-2514
▁суух	-2515
▁тээрэм	-2516
унтаг	-2517
▁блог	-2518
ла	-2519
▁на	-2520
▁Хэрэг	-2521
▁замын	-2522
▁зохиол	-2523
орно	-2524
▁үйлдэл	-2525
▁монголчууд	-2526
▁є	-2527
дол	-2528
▁илр	-2529
▁жаахан	-2530
▁хуваал	-2531
▁амьдралд	-2532
▁өгүүл	-2533
▁гарын	-2534
▁үнэтэй	-2535
▁*	-2536
▁Бая	-2537
▁оноо	-2538
▁зарна	-2539
▁бодсон	-2540
▁|	-2541
унд	-2542
ээний	-2543
▁ёсны	-2544
▁оролд	-2545
▁томил	-2546
гэ	-2547
итан	-2548
▁станд	-2549
▁хэргийн	-2550
▁сурах	-2551
▁үзэсгэл	-2552
▁r	-2553
▁Ком	-2554
▁дэд	-2555
▁хайж	-2556
▁суртал	-2557
▁харагдаж	-2558
▁онцлог	-2559
▁халдвар	-2560
нээн	-2561
▁2015	-2562
▁ахуйн	-2563
ага	-2564
▁хүл	-2565
▁ажиг	-2566
хоо	-2567
▁Ин	-2568
▁Газ	-2569
▁w	-2570
лагийн	-2571
▁бэлтг	-2572
▁сурвал	-2573
▁үлдсэн	-2574
MN	-2575
▁нур	-2576
▁бүтэн	-2577
▁хулгай	-2578
▁бэлтгэл	-2579
▁дэмжлэг	-2580
▁чуул	-2581
айз	-2582
▁гардаг	-2583
▁зээлийн	-2584
▁Есү	-2585
▁автом	-2586
▁3-	-2587
▁татвар	-2588
▁эг	-2589
эргүү	-2590
▁нэрийг	-2591
орон	-2592
сын	-2593
▁ажл	-2594
гт	-2595
▁зэв	-2596
ух	-2597
▁X	-2598
наа	-2599
▁мө	-2600
▁тэж	-2601
▁ос	-2602
▁кон	-2603
▁тэнгэр	-2604
-1	-2605
▁K	-2606
▁муж	-2607
▁хангах	-2608
▁хяналт	-2609
▁удахгүй	-2610
▁Япон	-2611
▁дахиад	-2612
▁амиа	-2613
длийн	-2614
▁Аав	-2615
эрхүү	-2616
el	-2617
▁нунтаг	-2618
▁маргааш	-2619
▁Түүнчлэн	-2620
ирч	-2621
▁өд	-2622
▁цэргийн	-2623
ad	-2624
▁яар	-2625
▁ярьсан	-2626
ош	-2627
мыг	-2628
▁охи	-2629
▁жагсаалт	-2630
▁ажиллагааг	-2631
▁элс	-2632
▁нэгж	-2633
▁нохой	-2634
▁мэдрэмж	-2635
▁өөрчлөх	-2636
▁хэрэгсэл	-2637
илгын	-2638
▁дүнд	-2639
▁үлдээ	-2640
▁Ерөнхийлөгчийн	-2641
эргүүц	-2642
▁онцгой	-2643
▁дэмжиж	-2644
анг	-2645
▁Хүүхд	-2646
▁интер	-2647
▁илгээ	-2648
▁алдсан	-2649
▁Хор	-2650
▁Нөгөө	-2651
▁магадлал	-2652
▁эсэхийг	-2653
сийг	-2654
▁дүгнэлт	-2655
▁Бүгд	-2656
▁ороод	-2657
▁шар	-2658
▁яахав	-2659
▁сонгуулийн	-2660
▁тоног	-2661
▁хүсэж	-2662
▁Америкийн	-2663
▁хөдөлгөөн	-2664
▁давхар	-2665
чигдөр	-2666
▁итгэлтэй	-2667
▁2014	-2668
▁хэмжээг	-2669
▁шалгалт	-2670
рист	-2671
▁сөр	-2672
▁Цааш	-2673
слэлийн	-2674
▁бөмбөг	-2675
▁Магадгүй	-2676
▁шаардлагагүй	-2677
▁Түүнээс	-2678
▁хуваалц	-2679
▁Улаанбаатар	-2680
▁Хал	-2681
▁ног	-2682
▁гут	-2683
Монгол	-2684
▁алдаг	-2685
▁бодис	-2686
▁жаргалтай	-2687
as	-2688
▁эрг	-2689
илгаан	-2690
▁хас	-2691
▁Ne	-2692
▁нарыг	-2693
▁этг	-2694
▁доллар	-2695
▁огц	-2696
▁гарга	-2697
▁зөвлөл	-2698
▁газраас	-2699
▁компаниуд	-2700
иц	-2701
▁тэдэнд	-2702
▁Амьдрал	-2703
шигч	-2704
▁Франц	-2705
▁Өмнөх	-2706
▁томоохон	-2707
агш	-2708
▁бр	-2709
▁пар	-2710
▁хамгаал	-2711
▁амьтан	-2712
наар	-2713
▁Тав	-2714
▁ёсоор	-2715
▁багийн	-2716
▁Нийт	-2717
▁ашигтай	-2718
▁цэцэрлэг	-2719
▁сургуульд	-2720
▁өл	-2721
▁Хөг	-2722
▁эмчилгээ	-2723
▁хүчир	-2724
гууд	-2725
▁Ажлын	-2726
▁үзүүлэлт	-2727
▁хог	-2728
▁хятад	-2729
▁вэб	-2730
▁байлг	-2731
▁түмний	-2732
▁этгээд	-2733
▁эсэргүүц	-2734
заар	-2735
▁шагнал	-2736
ИЙ	-2737
▁нэмэлт	-2738
▁сэргий	-2739
▁тэс	-2740
▁тарх	-2741
▁аялал	-2742
▁Аф	-2743
▁Нар	-2744
▁2008	-2745
▁жуул	-2746
▁алхам	-2747
▁Эсвэл	-2748
▁ХХ	-2749
▁зуу	-2750
▁60	-2751
▁тэгж	-2752
▁өвд	-2753
▁олсон	-2754
▁хэлээд	-2755
▁орос	-2756
▁Ганц	-2757
▁Гар	-2758
▁хурал	-2759
▁Оросын	-2760
▁талаас	-2761
▁хариулт	-2762
▁сэдэв	-2763
ьс	-2764
▁зүтг	-2765
▁хэсэгт	-2766
лол	-2767
▁сург	-2768
▁тогтвор	-2769
ag	-2770
ип	-2771
▁тор	-2772
ot	-2773
▁хагас	-2774
уб	-2775
▁дотр	-2776
▁идэвх	-2777
▁ирлээ	-2778
▁тээврийн	-2779
▁Энэтхэг	-2780
▁мөрд	-2781
эвчлэн	-2782
▁төсөв	-2783
▁уудыг	-2784
▁ат	-2785
▁дэр	-2786
▁мас	-2787
огино	-2788
▁Су	-2789
илга	-2790
▁тамир	-2791
▁Британ	-2792
▁анхаарал	-2793
▁асуудлаар	-2794
гад	-2795
▁сурвалж	-2796
▁хэрэглэж	-2797
▁хэрэгцээ	-2798
▁байгуулсан	-2799
АЛ	-2800
▁Үр	-2801
слэл	-2802
▁эгч	-2803
▁Дэлхий	-2804
▁уулзалт	-2805
▁стр	-2806
▁Холб	-2807
▁дурс	-2808
▁байнаа	-2809
▁орлого	-2810
▁учиртай	-2811
▁Хот	-2812
тон	-2813
шээ	-2814
▁3.	-2815
тний	-2816
уулахад	-2817
▁баяртай	-2818
орын	-2819
дрийн	-2820
снээр	-2821
▁шөнө	-2822
үүлэгч	-2823
▁өдөрт	-2824
тны	-2825
▁бах	-2826
▁эзэн	-2827
▁жолоо	-2828
ЭН	-2829
▁Дав	-2830
▁хоо	-2831
▁Залуу	-2832
▁амархан	-2833
▁түүнээс	-2834
лэнэ	-2835
▁хож	-2836
▁явуулж	-2837
▁сор	-2838
▁орно	-2839
▁хямд	-2840
портын	-2841
▁уншиж	-2842
▁хуваар	-2843
▁урьдчил	-2844
▁товч	-2845
▁цөөн	-2846
▁дая	-2847
▁сүр	-2848
▁вакц	-2849
▁хуралдаа	-2850
ed	-2851
▁Ой	-2852
▁им	-2853
▁Иргэд	-2854
▁олгох	-2855
▁бурхан	-2856
▁хэвээр	-2857
▁эрчүүд	-2858
▁23	-2859
Бид	-2860
▁тохиромжтой	-2861
▁Аль	-2862
▁алба	-2863
▁шинээр	-2864
ur	-2865
▁цай	-2866
▁танай	-2867
ТГ	-2868
тнууд	-2869
▁цугл	-2870
▁эрхийг	-2871
▁сонгуульд	-2872
▁холбогдох	-2873
ондоо	-2874
▁хандаж	-2875
▁хэдийн	-2876
▁ажилтан	-2877
▁Бүр	-2878
▁Тур	-2879
▁дөө	-2880
▁шав	-2881
▁зориг	-2882
▁өвчин	-2883
▁Эрдэнэ	-2884
▁Үндэсний	-2885
201	-2886
▁Эрх	-2887
▁гэрэл	-2888
▁ганцаараа	-2889
▁хамтдаа	-2890
ion	-2891
▁хэтэр	-2892
▁амьсгал	-2893
тгах	-2894
▁Нийг	-2895
▁эрдэм	-2896
▁аш	-2897
▁тоглог	-2898
▁түвшинд	-2899
▁оруулалт	-2900
бэл	-2901
игд	-2902
▁Сү	-2903
▁байд	-2904
▁амт	-2905
▁хаяг	-2906
▁талын	-2907
▁Хүүхэд	-2908
▁ойролцоо	-2909
▁дол	-2910
▁авчир	-2911
өнгөн	-2912
▁сонгууль	-2913
▁нот	-2914
▁бодоод	-2915
▁замаар	-2916
▁зая	-2917
▁хийхэд	-2918
▁Хүүхдийн	-2919
▁анд	-2920
▁Өмнөд	-2921
▁цом	-2922
▁видео	-2923
▁Бод	-2924
оорой	-2925
▁Сон	-2926
▁Ихэн	-2927
▁харахад	-2928
ээдэг	-2929
▁өөрсд	-2930
иас	-2931
▁зүйлээ	-2932
▁Ингэснээр	-2933
▁Уул	-2934
▁ангийн	-2935
▁тайван	-2936
▁боо	-2937
▁Ингэж	-2938
▁Оюут	-2939
▁гарна	-2940
▁хээ	-2941
дүгээр	-2942
▁бүхэнд	-2943
▁тэрбээр	-2944
АЙ	-2945
өгч	-2946
▁Зах	-2947
▁Жишээ	-2948
▁зургийг	-2949
оу	-2950
евиз	-2951
▁Том	-2952
▁тел	-2953
▁төлөх	-2954
▁эхэлж	-2955
▁аварга	-2956
▁оролцож	-2957
имп	-2958
үүлээд	-2959
▁дүрэм	-2960
▁2013	-2961
үрэлсү	-2962
▁эргэж	-2963
▁тоглож	-2964
▁тэмцээн	-2965
▁эхэллээ	-2966
▁болгосон	-2967
▁нийц	-2968
▁зүйтэй	-2969
▁байранд	-2970
▁соёл	-2971
ийнхээ	-2972
огдсон	-2973
▁төрөлх	-2974
▁үзээрэй	-2975
▁мөрөөд	-2976
ба	-2977
ъё	-2978
▁Ил	-2979
▁худлаа	-2980
▁Маш	-2981
лга	-2982
▁Төв	-2983
▁дий	-2984
▁барь	-2985
▁чулуу	-2986
▁компьютер	-2987
тэр	-2988
▁оруулсан	-2989
▁зөвшөөрөл	-2990
АА	-2991
▁байсныг	-2992
▁цагдаагийн	-2993
▁эхлэн	-2994
▁цаашид	-2995
▁хариуцлага	-2996
▁уламж	-2997
▁зүгээс	-2998
▁бул	-2999
▁асар	-3000
▁Эрүүл	-3001
▁нэртэй	-3002
▁хэвлэл	-3003
ель	-3004
лөл	-3005
чдад	-3006
▁Орон	-3007
▁өсөлт	-3008
зан	-3009
улга	-3010
▁багас	-3011
▁(1	-3012
лагыг	-3013
удамж	-3014
▁мен	-3015
▁хааг	-3016
▁улстөр	-3017
▁зардал	-3018
▁уурхай	-3019
▁хэрэгт	-3020
▁хуучин	-3021
▁зөн	-3022
чихсэн	-3023
▁Зүгээр	-3024
онх	-3025
▁эргэлз	-3026
ко	-3027
ent	-3028
▁давт	-3029
▁охид	-3030
▁хоёрын	-3031
▁хаал	-3032
▁ашигладаг	-3033
▁санагддаг	-3034
▁26	-3035
▁Ох	-3036
▁цу	-3037
гаасаа	-3038
оог	-3039
лбал	-3040
▁тол	-3041
▁хөх	-3042
▁сув	-3043
▁Хууль	-3044
▁Үз	-3045
▁зуун	-3046
▁даатг	-3047
▁дүүрэн	-3048
мал	-3049
▁хэлний	-3050
▁НҮ	-3051
▁Төс	-3052
▁хүүхдээ	-3053
▁дүнтэй	-3054
нгын	-3055
▁дайн	-3056
▁идэх	-3057
▁Хан	-3058
▁хөв	-3059
▁Ихэнх	-3060
▁хэвийн	-3061
▁чаддаггүй	-3062
▁Мэр	-3063
▁Ах	-3064
тайгаа	-3065
▁хөдөө	-3066
▁асуух	-3067
▁зориулж	-3068
▁хувьцаа	-3069
▁эрхтэй	-3070
▁Ун	-3071
ээээ	-3072
▁ангил	-3073
▁хувийг	-3074
ааг	-3075
шуул	-3076
▁Тог	-3077
▁түрээс	-3078
▁одоогийн	-3079
▁Одоогоор	-3080
▁цахилгаан	-3081
▁198	-3082
▁өрн	-3083
▁итгэж	-3084
шөө	-3085
▁албаны	-3086
▁анзаар	-3087
▁нээлттэй	-3088
▁80	-3089
чдэд	-3090
▁мян	-3091
▁нэгдсэн	-3092
id	-3093
пер	-3094
▁Уд	-3095
▁нөхөд	-3096
▁хэргийг	-3097
▁болоогүй	-3098
▁өөд	-3099
▁зуур	-3100
▁номын	-3101
▁чиглэлээр	-3102
йн	-3103
бор	-3104
ихгүй	-3105
▁дөрөв	-3106
▁No	-3107
▁цув	-3108
▁дайр	-3109
▁Өглөө	-3110
▁шалгах	-3111
▁шалтгаа	-3112
▁сэн	-3113
сныг	-3114
▁үзэг	-3115
амжийн	-3116
▁сайдын	-3117
▁сонсох	-3118
ойд	-3119
▁царай	-3120
▁эзэмш	-3121
ub	-3122
▁2011	-3123
▁урьдчилан	-3124
бир	-3125
▁Хэл	-3126
▁алдартай	-3127
▁оролцсон	-3128
▁зорилгоор	-3129
▁ганцхан	-3130
▁ихэвчлэн	-3131
▁чанартай	-3132
мад	-3133
лолт	-3134
▁Чам	-3135
▁буул	-3136
▁үзнэ	-3137
▁порно	-3138
▁хүргэе	-3139
▁стандарт	-3140
асны	-3141
▁Жил	-3142
▁аливаа	-3143
▁борл	-3144
▁сам	-3145
▁даяар	-3146
▁y	-3147
ри	-3148
▁27	-3149
▁Ном	-3150
▁Тэнд	-3151
##	-3152
гэц	-3153
▁шийдвэрлэх	-3154
▁ХХК	-3155
▁талаарх	-3156
eb	-3157
▁хичээ	-3158
▁дэлгэрэнгүй	-3159
▁Тэн	-3160
▁юмуу	-3161
кк	-3162
▁Бур	-3163
ХАУ	-3164
▁Эз	-3165
▁БНХАУ	-3166
▁бохир	-3167
▁Ган	-3168
▁байлгүй	-3169
ch	-3170
▁хям	-3171
▁ялг	-3172
▁дүгээр	-3173
▁агаарын	-3174
▁үнэлгээ	-3175
▁Сар	-3176
▁тоол	-3177
▁нөхцөлд	-3178
▁28	-3179
▁сум	-3180
▁$	-3181
тэл	-3182
▁Танд	-3183
агддаг	-3184
▁эрхэм	-3185
▁чадвартай	-3186
эхэ	-3187
▁>	-3188
▁Ол	-3189
▁Дар	-3190
өөрөө	-3191
▁тогтвортой	-3192
▁уудын	-3193
▁биеийн	-3194
▁зургаан	-3195
▁үнэндээ	-3196
▁Христ	-3197
▁эцсийн	-3198
▁хэмээх	-3199
члах	-3200
▁лаа	-3201
▁хэмээ	-3202
▁засвар	-3203
▁Дараагийн	-3204
огдох	-3205
▁зөрчил	-3206
▁менеж	-3207
▁Ё	-3208
▁Зам	-3209
▁хоё	-3210
▁дарж	-3211
▁хуулийг	-3212
▁тий	-3213
▁нэмж	-3214
▁санаж	-3215
▁хөгжүүлэх	-3216
мол	-3217
лгэр	-3218
▁тараа	-3219
▁надаас	-3220
▁4.	-3221
▁НҮБ	-3222
▁биеэ	-3223
▁ердөө	-3224
▁Үнэхээр	-3225
▁үйлчилгээний	-3226
▁цэцэг	-3227
▁сайжруулах	-3228
▁хэ	-3229
руул	-3230
▁арх	-3231
▁хах	-3232
▁баруун	-3233
▁тайлан	-3234
▁ажиллана	-3235
ям	-3236
▁хөнд	-3237
▁англи	-3238
▁хүрээл	-3239
▁хаанаас	-3240
▁шив	-3241
▁хандах	-3242
▁тогтоох	-3243
рийг	-3244
▁ган	-3245
▁экс	-3246
▁ной	-3247
▁богино	-3248
фф	-3249
бат	-3250
лүүлж	-3251
агдаад	-3252
ook	-3253
▁on	-3254
▁Нэгэн	-3255
▁дэргэд	-3256
▁ухааны	-3257
▁202	-3258
▁Тухай	-3259
▁аргаар	-3260
▁мун	-3261
▁заалт	-3262
▁ашиглан	-3263
▁муухай	-3264
долл	-3265
▁ург	-3266
▁мэдсэн	-3267
▁ерөнхийлөгч	-3268
рэл	-3269
▁Ман	-3270
ийгээр	-3271
▁гараа	-3272
▁байгуулж	-3273
▁гаргадаг	-3274
▁Бу	-3275
▁шүүмж	-3276
▁Англи	-3277
▁тутмын	-3278
▁in	-3279
улаа	-3280
▁зорилт	-3281
ЭГ	-3282
▁зад	-3283
▁хүм	-3284
өнгөж	-3285
▁Өмнө	-3286
▁татах	-3287
▁хороо	-3288
▁мөнгийг	-3289
▁x	-3290
▁урд	-3291
элдэг	-3292
хамшиг	-3293
чилгаа	-3294
▁сумын	-3295
▁түгээ	-3296
▁Цагаан	-3297
лоор	-3298
▁идэж	-3299
▁хүсье	-3300
▁бусдад	-3301
УУ	-3302
▁an	-3303
▁Хүү	-3304
▁суд	-3305
▁сураг	-3306
▁Байгал	-3307
us	-3308
▁даргын	-3309
▁байгаарай	-3310
лов	-3311
▁Дах	-3312
▁олбор	-3313
▁найдвар	-3314
ws	-3315
сар	-3316
цгаа	-3317
чдыг	-3318
▁эцэст	-3319
▁Тод	-3320
▁аараа	-3321
▁мөнгөө	-3322
▁халуун	-3323
▁шийдэх	-3324
▁Сонгуул	-3325
АТ	-3326
▁Бие	-3327
▁яасан	-3328
▁одоогоор	-3329
▁Мал	-3330
ошгүй	-3331
▁хэлэв	-3332
▁телевиз	-3333
▁зүйлд	-3334
жаа	-3335
кет	-3336
ддэг	-3337
▁Кан	-3338
▁Сая	-3339
▁дэм	-3340
▁сүй	-3341
▁уучл	-3342
▁4-	-3343
▁гаа	-3344
▁цус	-3345
▁үнэм	-3346
▁дугуй	-3347
ате	-3348
▁хэллээ	-3349
▁зох	-3350
▁үнэр	-3351
▁өрөөнд	-3352
▁жагсаал	-3353
▁хийхгүй	-3354
▁өгөхгүй	-3355
чүүдийн	-3356
▁бодлоо	-3357
страл	-3358
▁Үнэн	-3359
▁дууссан	-3360
▁анхаарах	-3361
єр	-3362
▁га	-3363
ноор	-3364
▁орхи	-3365
▁барим	-3366
лүүд	-3367
▁сурч	-3368
▁шдээ	-3369
▁Тухайлбал	-3370
гөн	-3371
элсэн	-3372
өхгүй	-3373
▁байхаа	-3374
▁өрсөлд	-3375
▁бизнесийн	-3376
▁агуу	-3377
▁хэнд	-3378
▁төдий	-3379
▁найдаж	-3380
▁боловсруулах	-3381
▁).	-3382
▁гр	-3383
огийн	-3384
▁дүнг	-3385
▁Из	-3386
▁Тү	-3387
▁ну	-3388
▁хэвт	-3389
▁тогтоол	-3390
▁болзошгүй	-3391
▁хэмжээгээр	-3392
▁&	-3393
▁улаан	-3394
▁хэрэглэдэг	-3395
▁үд	-3396
▁Тэм	-3397
▁авар	-3398
▁гудамж	-3399
▁хүргэх	-3400
▁үзэсгэлэн	-3401
▁Дот	-3402
▁Нөх	-3403
даагүй	-3404
▁Цэц	-3405
▁замыг	-3406
▁5-	-3407
ерэг	-3408
▁90	-3409
▁дагаж	-3410
▁ховор	-3411
▁газрыг	-3412
▁шалгаж	-3413
▁чанарын	-3414
▁шинжлэх	-3415
▁технологи	-3416
енер	-3417
алгаа	-3418
▁Эхний	-3419
▁таларх	-3420
▁хямрал	-3421
▁болгодог	-3422
ангуй	-3423
▁зүүд	-3424
▁хэрэв	-3425
▁хамтын	-3426
▁гү	-3427
▁зүүн	-3428
▁худалдааны	-3429
обус	-3430
▁Хөр	-3431
▁хөгжим	-3432
▁сонссон	-3433
▁Гол	-3434
▁Наад	-3435
▁Үүнд	-3436
▁үүнд	-3437
▁дотроо	-3438
▁залуус	-3439
▁төсвийн	-3440
▁гэг	-3441
▁туу	-3442
агийн	-3443
▁вирус	-3444
▁бүхний	-3445
▁тэмцэх	-3446
▁саналыг	-3447
▁үргэлжлүүл	-3448
го	-3449
дэр	-3450
▁ес	-3451
...]	-3452
ланд	-3453
▁инээ	-3454
▁тайгаа	-3455
▁өмнөөс	-3456
▁байхаар	-3457
▁дэлхийд	-3458
баяр	-3459
▁ордог	-3460
▁2009	-3461
▁оюутнууд	-3462
pp	-3463
,000	-3464
▁архи	-3465
▁журам	-3466
▁өрсөл	-3467
▁залуучууд	-3468
▁бөө	-3469
▁[...]	-3470
▁цагаа	-3471
▁Герман	-3472
▁хөөрхөн	-3473
изм	-3474
▁нууд	-3475
▁Чиний	-3476
▁очоод	-3477
▁вакцин	-3478
▁ингээд	-3479
▁орчинд	-3480
▁хүүхэдтэй	-3481
▁юуг	-3482
▁асуудалд	-3483
▁70	-3484
▁сек	-3485
▁цац	-3486
▁сөрөг	-3487
▁нийтэд	-3488
▁сэргийлэх	-3489
то	-3490
орн	-3491
үүж	-3492
▁Афр	-3493
▁түг	-3494
▁хамаа	-3495
▁Сайхан	-3496
▁иргэдэд	-3497
▁тэгш	-3498
▁болчихсон	-3499
▁хоорондоо	-3500
▁уух	-3501
▁шуу	-3502
▁саар	-3503
▁Японы	-3504
▁2010	-3505
▁гэрт	-3506
дээгүй	-3507
▁Засаг	-3508
өнгийн	-3509
▁Худал	-3510
▁хоолны	-3511
▁аваарай	-3512
ia	-3513
ка	-3514
▁хоц	-3515
▁хуу	-3516
▁шан	-3517
▁Сэтг	-3518
ec	-3519
▁Пр	-3520
▁цох	-3521
гэдэг	-3522
гаагүй	-3523
дэггүй	-3524
▁дандаа	-3525
▁хугацааг	-3526
эндүү	-3527
▁үлгэр	-3528
▁Цагдаа	-3529
▁хэрэгжүүлж	-3530
▁Цах	-3531
▁гэс	-3532
▁барилга	-3533
▁мэргэжилт	-3534
тэд	-3535
▁нээх	-3536
▁усны	-3537
▁ширх	-3538
▁явуул	-3539
▁аюултай	-3540
▁түрүүнд	-3541
▁өдрүүдэд	-3542
ээхэн	-3543
▁хүнсний	-3544
▁Есүс	-3545
▁Австрал	-3546
саг	-3547
▁Дараах	-3548
▁хороол	-3549
▁заримдаа	-3550
▁мэргэжил	-3551
▁байгуулагдсан	-3552
лагдаж	-3553
▁мянга	-3554
▁хувиар	-3555
▁зүйлийн	-3556
▁хүүхдэд	-3557
▁ойлгомжтой	-3558
▁ажиллагаанд	-3559
▁очсон	-3560
▁бүрэлд	-3561
▁иймэрхүү	-3562
▁нэгдүгээр	-3563
▁Те	-3564
▁кл	-3565
▁барив	-3566
▁сэтгэгдэл	-3567
члалын	-3568
▁заасан	-3569
▁манайд	-3570
▁эхэлнэ	-3571
▁найзууд	-3572
▁тэргүүн	-3573
▁ойлгодог	-3574
▁харагдах	-3575
▁байгалийн	-3576
▁k	-3577
▁алт	-3578
▁кам	-3579
▁зааж	-3580
▁төсөө	-3581
▁эрхийн	-3582
▁уст	-3583
▁үүл	-3584
бөмбөг	-3585
▁иргэний	-3586
▁холбооны	-3587
ап	-3588
иан	-3589
орм	-3590
▁тухайд	-3591
▁орондоо	-3592
▁үзээгүй	-3593
▁санагдаж	-3594
▁үйлдвэрийн	-3595
▁Түр	-3596
▁уна	-3597
▁....	-3598
▁авлаа	-3599
▁уулзаж	-3600
▁уралдаа	-3601
▁өдрийг	-3602
▁хүрээ	-3603
▁суурил	-3604
▁дамжуулан	-3605
▁нэх	-3606
▁машины	-3607
нет	-3608
▁дарам	-3609
▁хэтэрхий	-3610
▁Ардчилсан	-3611
Миний	-3612
▁байгаль	-3613
▁нд	-3614
▁сэтгэлийн	-3615
▁уулзах	-3616
▁амьдралыг	-3617
▁Пар	-3618
▁ханш	-3619
▁ядаж	-3620
▁дэлгэц	-3621
▁гадаадын	-3622
▁доош	-3623
▁цагаар	-3624
ЭЛ	-3625
ва	-3626
имс	-3627
▁захи	-3628
▁Одоогийн	-3629
снаас	-3630
▁бусдын	-3631
▁зовлон	-3632
▁Сургуул	-3633
▁танилцуул	-3634
▁цөө	-3635
▁спорт	-3636
▁зарчим	-3637
▁эргээд	-3638
▁шийдсэн	-3639
ter	-3640
тулга	-3641
Чи	-3642
алж	-3643
▁Шил	-3644
▁саад	-3645
▁асууж	-3646
▁үүнээс	-3647
▁боловсрол	-3648
дсон	-3649
▁бутлуурын	-3650
ОН	-3651
уууу	-3652
▁апп	-3653
▁Хойд	-3654
▁байцаа	-3655
▁парлам	-3656
▁Ялангуяа	-3657
▁удирдлаг	-3658
▁Харамсалтай	-3659
бэг	-3660
▁Хөгж	-3661
▁амын	-3662
▁Эдийн	-3663
▁ихээр	-3664
▁эерэг	-3665
▁үзүүлж	-3666
▁гүйцэтгэх	-3667
▁шуур	-3668
▁сонсож	-3669
▁чуулган	-3670
▁мөнгөний	-3671
▁тогтолцоо	-3672
▁судалгааны	-3673
▁хоёрдугаар	-3674
▁үйлдвэрлэл	-3675
▁үйлчилгээг	-3676
ааз	-3677
▁цогц	-3678
▁алдах	-3679
▁өссөн	-3680
im	-3681
ОЛ	-3682
▁өнц	-3683
▁судлаа	-3684
▁үүссэн	-3685
▁сонгосон	-3686
галаа	-3687
▁Өнөө	-3688
▁агуул	-3689
▁төслийг	-3690
▁брэнд	-3691
▁хяналтын	-3692
гуу	-3693
▁үй	-3694
ийгээ	-3695
▁аасаа	-3696
▁ёсгүй	-3697
▁жолооч	-3698
▁тэмцээнд	-3699
▁шуг	-3700
▁утасны	-3701
▁итгэдэг	-3702
▁зайлшгүй	-3703
хаг	-3704
▁Ая	-3705
▁олны	-3706
▁төрд	-3707
▁шд	-3708
▁Эхн	-3709
▁оюун	-3710
▁бүтээгдэхүүний	-3711
▁байт	-3712
▁зөөл	-3713
▁ариутг	-3714
▁болгоо	-3715
▁цуврал	-3716
▁сонирхол	-3717
▁өөрсдийгөө	-3718
жилж	-3719
эгдэж	-3720
▁секс	-3721
▁зээлд	-3722
▁хувир	-3723
▁авахгүй	-3724
ig	-3725
иф	-3726
▁юмыг	-3727
▁цагийг	-3728
▁Нийслэлийн	-3729
огчид	-3730
уухан	-3731
үрэлсүх	-3732
игийн	-3733
▁Түүнд	-3734
▁удаад	-3735
▁ууж	-3736
анх	-3737
лав	-3738
▁35	-3739
▁10-	-3740
▁зол	-3741
▁код	-3742
▁үсэг	-3743
ооноос	-3744
▁тооны	-3745
▁үндэслэл	-3746
лэм	-3747
▁5.	-3748
▁айж	-3749
алгүй	-3750
▁Иймд	-3751
▁Ирэх	-3752
далгүй	-3753
▁уриал	-3754
▁өнөөгийн	-3755
элгүй	-3756
▁Танай	-3757
▁Мэргэж	-3758
иб	-3759
▁гэнэт	-3760
▁банкны	-3761
▁хэлээр	-3762
▁хэсгийг	-3763
▁гайхамшиг	-3764
▁эмнэлгийн	-3765
▁Өнөөдрийн	-3766
▁Найз	-3767
▁шатны	-3768
▁таамаг	-3769
▁бодлогын	-3770
▁харагддаг	-3771
гил	-3772
▁нэн	-3773
▁шөн	-3774
▁байрны	-3775
▁технологийн	-3776
▁News	-3777
▁Бага	-3778
▁Багш	-3779
▁баян	-3780
▁өөрт	-3781
▁зууны	-3782
▁төмөр	-3783
▁зөндөө	-3784
▁наадам	-3785
▁тогтмол	-3786
▁вал	-3787
▁эрч	-3788
▁дууг	-3789
▁итгэх	-3790
▁киноны	-3791
▁хуульд	-3792
▁туршлага	-3793
ишээл	-3794
▁хэхэ	-3795
▁үгүйс	-3796
▁нийгэмд	-3797
▁баталгааж	-3798
▁In	-3799
▁500	-3800
огдож	-3801
▁ихтэй	-3802
▁сүүлд	-3803
лагдах	-3804
▁тушаа	-3805
▁барсан	-3806
▁урсгал	-3807
▁саналаа	-3808
▁хийхийг	-3809
▁хөгжилтэй	-3810
▁<	-3811
:00	-3812
▁Нэр	-3813
өлтийн	-3814
▁оюутан	-3815
лэ	-3816
▁Ст	-3817
▁зод	-3818
▁орш	-3819
▁хийлээ	-3820
▁дүүргийн	-3821
▁жүжигчин	-3822
▁хадгалах	-3823
▁Тал	-3824
▁вий	-3825
▁болдоггүй	-3826
▁Ис	-3827
гэсэн	-3828
▁хорооны	-3829
art	-3830
АХН	-3831
▁жив	-3832
▁сэл	-3833
▁даруй	-3834
▁байхын	-3835
▁дэндүү	-3836
▁29	-3837
атор	-3838
▁танхим	-3839
▁хажууд	-3840
▁цагаас	-3841
▁маргаан	-3842
▁туршлагатай	-3843
сайхан	-3844
▁байгуулалт	-3845
gle	-3846
өгс	-3847
▁Дөр	-3848
▁гор	-3849
▁төвл	-3850
ест	-3851
▁гун	-3852
▁түлх	-3853
▁ургам	-3854
▁зүйлсийг	-3855
▁Ул	-3856
лаар	-3857
мийг	-3858
▁болоо	-3859
▁урлаг	-3860
▁шашин	-3861
▁шугам	-3862
▁баярын	-3863
▁ажилдаа	-3864
▁ихээхэн	-3865
▁бүтээсэн	-3866
ve	-3867
цхан	-3868
Манай	-3869
▁зарч	-3870
▁страте	-3871
▁хүнээс	-3872
▁байлгах	-3873
▁нэмэгдүүлэх	-3874
тах	-3875
▁Бэл	-3876
▁алдаж	-3877
▁байнгын	-3878
▁харилцан	-3879
бүү	-3880
вөл	-3881
▁Тай	-3882
▁шид	-3883
▁Эцэг	-3884
лэгийн	-3885
▁нисэх	-3886
▁гомдол	-3887
▁чөлөөтэй	-3888
▁холбогдсон	-3889
▁Өнд	-3890
ингис	-3891
▁Таныг	-3892
Энхбаяр	-3893
▁дөнгөж	-3894
▁надтай	-3895
▁найман	-3896
▁мэддэггүй	-3897
яг	-3898
галан	-3899
▁галз	-3900
▁хорв	-3901
▁өгөөч	-3902
▁залбир	-3903
мс	-3904
овч	-3905
▁гадуур	-3906
эгдүгээр	-3907
▁болохоос	-3908
▁урамшуул	-3909
▁ялангуяа	-3910
▁Хэдийгээр	-3911
▁өнөөдрийн	-3912
єє	-3913
▁Z	-3914
▁айд	-3915
▁утг	-3916
oogle	-3917
▁Улсад	-3918
▁нэмэр	-3919
▁өргөж	-3920
▁бахарх	-3921
▁харамс	-3922
▁ширхэг	-3923
▁байрлал	-3924
лэлт	-3925
▁шаш	-3926
▁санд	-3927
▁барилгын	-3928
▁эмэгтэйчүүдийн	-3929
▁зуг	-3930
▁Хэдэн	-3931
▁нэгтг	-3932
▁бүгдээрээ	-3933
▁Зор	-3934
▁МАХН	-3935
▁дэвс	-3936
▁нүүд	-3937
▁явцад	-3938
▁хэлэлцэх	-3939
▁ажилтнууд	-3940
▁виз	-3941
▁Хөдөл	-3942
▁хажуу	-3943
▁Сэтгэл	-3944
▁даалга	-3945
▁хамтлаг	-3946
▁өчигдөр	-3947
▁+	-3948
овь	-3949
офе	-3950
▁Яр	-3951
▁кар	-3952
▁гуай	-3953
▁зөрч	-3954
▁хүлээх	-3955
▁Хоол	-3956
▁Эхнэр	-3957
▁байгууллагад	-3958
▁St	-3959
ганы	-3960
▁Сал	-3961
▁Герм	-3962
▁Эзэн	-3963
▁сэдв	-3964
▁эмээ	-3965
▁эрүү	-3966
▁үзээд	-3967
▁насанд	-3968
▁идэвхтэй	-3969
▁байгууллагууд	-3970
эш	-3971
стой	-3972
▁Мэдээл	-3973
▁болтол	-3974
▁эндээс	-3975
ir	-3976
игт	-3977
▁Бүс	-3978
▁Канад	-3979
▁ийнхүү	-3980
▁өөрчил	-3981
▁Үнэндээ	-3982
▁ашиглалт	-3983
▁яаралтай	-3984
▁зорилготой	-3985
▁]	-3986
дөөн	-3987
▁карт	-3988
▁өгөөд	-3989
▁долоон	-3990
▁барьсан	-3991
▁бичгийн	-3992
▁Өөрийгөө	-3993
▁дад	-3994
▁Шүүх	-3995
▁дутуу	-3996
▁автобус	-3997
▁Од	-3998
▁Хий	-3999
▁мундаг	-4000
уулалтын	-4001
▁мэдэгдсэн	-4002
ото	-4003
▁Үнэ	-4004
▁Мөнгө	-4005
▁үлдэх	-4006
▁тогтоосон	-4007
би	-4008
ингийн	-4009
▁авахыг	-4010
▁хүсвэл	-4011
▁харуулах	-4012
▁хүүхдийг	-4013
▁Айм	-4014
▁лам	-4015
▁хайх	-4016
▁медал	-4017
▁хэдхэн	-4018
▁гаргаад	-4019
▁хүрэхгүй	-4020
▁бүсгүйчүүд	-4021
шаа	-4022
▁өсг	-4023
one	-4024
раил	-4025
ралт	-4026
▁удирдах	-4027
▁гарахгүй	-4028
ap	-4029
жих	-4030
знес	-4031
▁хэлнэ	-4032
▁Бизнес	-4033
▁өнгөрөө	-4034
▁хэлбэрээр	-4035
үл	-4036
▁Хэв	-4037
тайгаар	-4038
▁авахад	-4039
▁=	-4040
▁яриг	-4041
▁хаалга	-4042
▁жилүүдэд	-4043
цийн	-4044
▁түл	-4045
▁цуц	-4046
улуун	-4047
▁засах	-4048
▁үүний	-4049
▁төслийн	-4050
▁хэлэлцээр	-4051
ck	-4052
dow	-4053
▁гарц	-4054
▁өвөр	-4055
▁Тэдгээр	-4056
▁ухаалаг	-4057
▁зөө	-4058
▁маск	-4059
▁нойр	-4060
▁Ад	-4061
▁уя	-4062
▁цаас	-4063
▁үзвэл	-4064
▁бодлоор	-4065
▁суралцах	-4066
отг	-4067
▁er	-4068
▁шор	-4069
▁дуур	-4070
▁Үгүй	-4071
▁харуул	-4072
▁ялгаатай	-4073
ost	-4074
▁197	-4075
▁Там	-4076
▁төрх	-4077
▁буцаж	-4078
▁урагш	-4079
▁дэглэм	-4080
▁боловсролын	-4081
▁Цэр	-4082
▁харуулж	-4083
▁7-	-4084
бэгд	-4085
▁Гал	-4086
элийн	-4087
▁Газар	-4088
▁тамхи	-4089
бэгдорж	-4090
▁улиралд	-4091
овш	-4092
▁45	-4093
▁АТГ	-4094
▁Жин	-4095
▁нэмэх	-4096
▁хэсгийн	-4097
▁эмнэлэг	-4098
▁магадлалтай	-4099
▁Бор	-4100
▁түмн	-4101
▁гарлаа	-4102
авдугаар	-4103
ишээлбэл	-4104
▁таалагд	-4105
▁эмнэлэгт	-4106
▁хамгаалалт	-4107
▁vv	-4108
мсэг	-4109
▁инг	-4110
▁манайх	-4111
▁хоосон	-4112
Ал	-4113
гис	-4114
олж	-4115
▁цөм	-4116
ангийн	-4117
ерт	-4118
лдөг	-4119
▁Дээрх	-4120
▁Иймээс	-4121
▁болоход	-4122
▁дээрээс	-4123
▁сургалтын	-4124
▁хөлбөмбөг	-4125
▁й	-4126
дэв	-4127
сал	-4128
▁1000	-4129
▁Хувь	-4130
▁юунд	-4131
▁хангамж	-4132
▁хугацаагаар	-4133
ut	-4134
АГ	-4135
▁6-	-4136
▁лаг	-4137
▁тух	-4138
▁дурдсан	-4139
▁иргэдийг	-4140
▁хүчирхий	-4141
ЭР	-4142
бан	-4143
▁Ай	-4144
▁Гр	-4145
▁Хөл	-4146
▁бүхэл	-4147
▁америк	-4148
▁олгодог	-4149
▁санхүүжилт	-4150
▁зугаа	-4151
▁саяхан	-4152
▁хүйтэн	-4153
оён	-4154
лаас	-4155
▁Энх	-4156
▁ганцаар	-4157
▁ашигласан	-4158
▁наас	-4159
▁Интер	-4160
▁угаах	-4161
▁шигээ	-4162
▁нийслэл	-4163
▁Заримдаа	-4164
▁Өөрөө	-4165
▁шоронд	-4166
▁ойлгосон	-4167
▁бууруулах	-4168
шр	-4169
▁Дал	-4170
▁Хэзээ	-4171
▁Санхүү	-4172
▁196	-4173
▁..."	-4174
▁төрж	-4175
▁онцлов	-4176
▁байсангүй	-4177
▁хэрэглэгч	-4178
▁хүмүүстэй	-4179
▁шийдвэрийг	-4180
▁тодорхойлох	-4181
▁~	-4182
гуур	-4183
мент	-4184
▁дог	-4185
▁цол	-4186
▁цэнэ	-4187
▁Компан	-4188
▁нийлүүл	-4189
▁утгаараа	-4190
енз	-4191
▁ноц	-4192
▁Урьд	-4193
огчдын	-4194
▁сайхны	-4195
▁ээлжит	-4196
▁орнуудын	-4197
▁хэвээрээ	-4198
▁зориулалт	-4199
ого	-4200
эйс	-4201
үйц	-4202
өтг	-4203
▁Тайл	-4204
▁хүнс	-4205
▁нэгийг	-4206
▁техник	-4207
▁тээвэр	-4208
▁сангийн	-4209
▁байтугай	-4210
▁хүсэхгүй	-4211
адаа	-4212
▁гав	-4213
ebook	-4214
өлдөр	-4215
▁дүрс	-4216
▁уруу	-4217
▁хааны	-4218
АС	-4219
▁буд	-4220
▁байрш	-4221
▁зогсоох	-4222
▁өөрчилж	-4223
▁хандлага	-4224
▁байдалтай	-4225
тар	-4226
▁жиг	-4227
▁Зүүн	-4228
▁Турк	-4229
лэгчид	-4230
▁авалт	-4231
▁айлын	-4232
em	-4233
▁Кар	-4234
▁шоу	-4235
гуулах	-4236
▁цорын	-4237
▁Израил	-4238
▁дэвсгэр	-4239
▁загварын	-4240
▁төлөвлөж	-4241
▁анхаарлаа	-4242
ul	-4243
▁Итал	-4244
▁хойд	-4245
▁эмчл	-4246
▁Азийн	-4247
▁Хотын	-4248
▁дутаг	-4249
▁жирэм	-4250
▁хангаж	-4251
▁Зураг	-4252
▁Заг	-4253
▁босг	-4254
▁далд	-4255
чихаад	-4256
▁юмсан	-4257
acebook	-4258
▁аймагт	-4259
▁таатай	-4260
▁тохиол	-4261
▁төгсгөл	-4262
ез	-4263
илж	-4264
лалын	-4265
▁доод	-4266
▁дайны	-4267
▁баатар	-4268
▁тэйгээ	-4269
▁хардаг	-4270
▁хичнээн	-4271
▁хүндэтг	-4272
члан	-4273
▁нил	-4274
▁хэлт	-4275
гээрээ	-4276
▁чөлөөт	-4277
▁ертөнцөд	-4278
ьт	-4279
▁шим	-4280
▁2000	-4281
▁Иргэн	-4282
▁унтаж	-4283
▁хэлжээ	-4284
▁гаргана	-4285
▁мэдэгдэл	-4286
▁Нас	-4287
▁таг	-4288
▁ангид	-4289
▁ачаал	-4290
Энхболд	-4291
▁Мөр	-4292
▁сүн	-4293
▁тэв	-4294
▁төвд	-4295
жүүлэх	-4296
▁Google	-4297
▁төстэй	-4298
▁хөрөнг	-4299
▁анхаарч	-4300
▁цэвэрлэх	-4301
▁Солонгосын	-4302
▁МУ	-4303
үүхэн	-4304
хондоо	-4305
▁бүлгийн	-4306
▁хамтарч	-4307
лөн	-4308
▁Ня	-4309
▁тайв	-4310
▁үзэн	-4311
авирус	-4312
▁ойрын	-4313
▁сонгож	-4314
▁тооцоол	-4315
оронавирус	-4316
▁харамсалтай	-4317
os	-4318
▁клуб	-4319
▁тэрэг	-4320
▁үнийн	-4321
▁батлах	-4322
▁төдийг	-4323
▁чадвал	-4324
▁хоорондын	-4325
лэв	-4326
▁st	-4327
▁Онц	-4328
▁өөс	-4329
үүдээ	-4330
▁тоог	-4331
▁Гурван	-4332
▁багтаа	-4333
▁баялаг	-4334
▁ойрхон	-4335
▁үүсвэр	-4336
даан	-4337
▁мөч	-4338
▁хөрш	-4339
▁бүжиг	-4340
▁хойно	-4341
▁өнөөд	-4342
▁Чингис	-4343
▁руугаа	-4344
▁үүднээс	-4345
▁хүсэлтэй	-4346
▁гишүүдийн	-4347
▁to	-4348
▁Тат	-4349
▁каз	-4350
▁мэс	-4351
амсар	-4352
▁Энхб	-4353
▁Тэгсэн	-4354
▁хүлээл	-4355
▁эрхгүй	-4356
▁хийгээгүй	-4357
ЫН	-4358
бүүк	-4359
▁Ийн	-4360
▁Хүс	-4361
▁айх	-4362
иулах	-4363
▁аргыг	-4364
▁туршид	-4365
▁түүнтэй	-4366
лож	-4367
▁Хич	-4368
емент	-4369
эгдэх	-4370
▁үеэс	-4371
▁ахмад	-4372
▁тооцоо	-4373
▁гаралтай	-4374
▁нэмэгдэж	-4375
моор	-4376
▁ногоон	-4377
▁Өдрийн	-4378
▁бэлгийн	-4379
ri	-4380
ЭМ	-4381
ейн	-4382
нэт	-4383
▁Жон	-4384
▁нөхөн	-4385
▁Үйлдвэр	-4386
лт	-4387
дэн	-4388
дөж	-4389
▁дохи	-4390
агдана	-4391
▁иржээ	-4392
▁бүрийг	-4393
▁бүтээх	-4394
▁мэдэрч	-4395
▁түүхэн	-4396
▁үйлдвэрлэлийн	-4397
▁Re	-4398
▁арьс	-4399
▁гарт	-4400
▁Маргааш	-4401
▁өөрийнх	-4402
▁ариутгагч	-4403
▁тодорхойгүй	-4404
▁энх	-4405
снаар	-4406
▁тусам	-4407
▁ардчил	-4408
▁дуучин	-4409
▁судалж	-4410
▁сонирхож	-4411
▁300	-4412
▁авто	-4413
▁магт	-4414
▁олимп	-4415
▁чанарыг	-4416
▁тоглоомын	-4417
▁Үх	-4418
▁???	-4419
▁Биб	-4420
лосон	-4421
гаарай	-4422
▁төвлөр	-4423
▁хүртэлх	-4424
0-	-4425
▁Сир	-4426
▁Шал	-4427
▁гээч	-4428
▁хаяж	-4429
▁хөнг	-4430
▁болго	-4431
▁харьцаа	-4432
чны	-4433
олтын	-4434
▁болгоно	-4435
ИЛ	-4436
СУ	-4437
▁галт	-4438
▁ухаар	-4439
▁нэгний	-4440
▁нийтлэг	-4441
th	-4442
ИЙН	-4443
инэ	-4444
агаа	-4445
▁гам	-4446
▁авлиг	-4447
▁танил	-4448
▁гарчээ	-4449
▁төсөөл	-4450
▁дурсамж	-4451
▁амралтын	-4452
▁болтугай	-4453
▁хүрээлэн	-4454
▁явуулсан	-4455
▁илэрхийлж	-4456
▁да	-4457
сайт	-4458
▁бэх	-4459
▁даж	-4460
▁сараас	-4461
▁дам	-4462
▁олгоно	-4463
▁хувьсгал	-4464
▁проц	-4465
▁үнэт	-4466
лөгчид	-4467
▁цаана	-4468
▁буудал	-4469
▁газраа	-4470
▁төдийгүй	-4471
орт	-4472
ьсон	-4473
▁Чух	-4474
▁станц	-4475
▁тогтн	-4476
▁аймшиг	-4477
▁хөдлөх	-4478
▁биелүүлэх	-4479
▁Хат	-4480
▁биен	-4481
▁амралт	-4482
▁дарамт	-4483
▁сурсан	-4484
▁бодолтой	-4485
▁аял	-4486
▁новш	-4487
▁усан	-4488
наасаа	-4489
▁Чухлыг	-4490
▁мөнгөөр	-4491
▁үнэнийг	-4492
▁өлс	-4493
чдийг	-4494
▁хайл	-4495
▁аймаг	-4496
▁ариун	-4497
ӨР	-4498
эйл	-4499
гана	-4500
мдорж	-4501
▁2021	-4502
▁ирэв	-4503
▁чууд	-4504
▁хорио	-4505
▁талтай	-4506
ome	-4507
▁гэн	-4508
▁дөх	-4509
▁луй	-4510
▁чид	-4511
▁багц	-4512
▁орчны	-4513
▁хөгжиж	-4514
▁шийдэж	-4515
▁захирал	-4516
▁бэрхшээлтэй	-4517
енд	-4518
▁Хамт	-4519
▁нягт	-4520
▁сайжр	-4521
▁хүрээд	-4522
▁түүхийг	-4523
▁гараагүй	-4524
▁инээмсэг	-4525
▁нунтаглах	-4526
▁хөрөнгийн	-4527
етр	-4528
▁жээ	-4529
▁судл	-4530
▁муутай	-4531
▁нэрээр	-4532
онт	-4533
▁шүт	-4534
ерийн	-4535
снийг	-4536
▁дуусах	-4537
▁шийдэл	-4538
рамп	-4539
▁Хав	-4540
▁үнэнч	-4541
▁Өндөр	-4542
▁спортын	-4543
▁суулгах	-4544
Тэг	-4545
▁8-	-4546
▁зун	-4547
▁хорих	-4548
▁хуримт	-4549
ИС	-4550
ШТ	-4551
▁Дан	-4552
▁Аливаа	-4553
▁Эхлээд	-4554
▁хүүхэн	-4555
▁хуулиар	-4556
▁нэрлэдэг	-4557
▁31	-4558
▁ээсээ	-4559
▁дэлгэр	-4560
▁эхчүүд	-4561
▁хэлмээр	-4562
ИН	-4563
лом	-4564
штай	-4565
▁Мос	-4566
▁шув	-4567
▁Дорн	-4568
▁кофе	-4569
▁устгах	-4570
ҮҮ	-4571
▁файл	-4572
▁бүтэц	-4573
▁нөлөөлөх	-4574
ект	-4575
▁Ут	-4576
▁диз	-4577
▁амьт	-4578
▁халд	-4579
▁хатан	-4580
▁зогсож	-4581
▁соёлын	-4582
▁тусдаа	-4583
▁хангал	-4584
▁194	-4585
▁цонх	-4586
▁хураа	-4587
▁бүтээн	-4588
▁дундаж	-4589
▁туршилт	-4590
▁хийхээр	-4591
▁шүүхийн	-4592
анхуй	-4593
▁Болов	-4594
▁илүүд	-4595
▁буцааж	-4596
ло	-4597
ишиг	-4598
▁You	-4599
▁хуралд	-4600
▁төгссөн	-4601
▁ОУ	-4602
▁уйл	-4603
▁гэгч	-4604
▁жирийн	-4605
▁хэлэхдээ	-4606
▁ойлгохгүй	-4607
▁найдвартай	-4608
▁өч	-4609
▁арь	-4610
▁араас	-4611
▁хаалт	-4612
▁ээрээ	-4613
▁өгчих	-4614
▁гарагт	-4615
▁зөвлөх	-4616
▁ноцтой	-4617
ne	-4618
um	-4619
▁БНСУ	-4620
▁зочид	-4621
▁хүчээр	-4622
▁болгоомж	-4623
вөр	-4624
ээч	-4625
иплом	-4626
▁гээр	-4627
▁татан	-4628
▁тулгар	-4629
▁баталсан	-4630
исс	-4631
ьяас	-4632
эгчид	-4633
▁дарх	-4634
▁согт	-4635
▁хэмн	-4636
▁явчих	-4637
▁үгээр	-4638
▁ирэхэд	-4639
▁тавьдаг	-4640
▁Нийгмийн	-4641
▁бүрэлдэх	-4642
▁орнуудад	-4643
▁Жишээлбэл	-4644
▁Цагдаагийн	-4645
атр	-4646
▁-0	-4647
▁сун	-4648
▁Хаан	-4649
▁бөөн	-4650
▁ядуу	-4651
▁бухим	-4652
▁харгал	-4653
▁зөвлөмж	-4654
▁төгөлдөр	-4655
▁App	-4656
▁ккк	-4657
▁Охин	-4658
▁бууж	-4659
▁гүйл	-4660
▁төрөх	-4661
▁цэрэг	-4662
▁чихсан	-4663
лсөн	-4664
▁ing	-4665
чнээн	-4666
▁Амар	-4667
▁чухам	-4668
▁байтал	-4669
▁тэжээл	-4670
▁ирээдүйд	-4671
▁асуудлууд	-4672
▁сэтгэлийг	-4673
"-	-4674
▁юун	-4675
▁данс	-4676
▁Эцэст	-4677
▁талыг	-4678
▁өмгөө	-4679
▁цөөхөн	-4680
▁суугаад	-4681
өц	-4682
гас	-4683
▁гаж	-4684
▁боол	-4685
▁номыг	-4686
▁санааг	-4687
▁хоёулаа	-4688
▁шалгуур	-4689
▁урлагийн	-4690
▁хэрэглэгчид	-4691
!!!	-4692
ore	-4693
дыг	-4694
эйн	-4695
үйн	-4696
▁II	-4697
итал	-4698
женер	-4699
▁заяа	-4700
агнуул	-4701
элтийн	-4702
▁камер	-4703
▁тасал	-4704
ологийн	-4705
▁бичээд	-4706
▁тулгуур	-4707
▁үргэлжлүүлэн	-4708
1.	-4709
30	-4710
▁Банк	-4711
▁айдас	-4712
▁хашаа	-4713
▁Тэднийг	-4714
▁түгээмэл	-4715
▁ухаантай	-4716
лгын	-4717
▁түн	-4718
снээс	-4719
▁мууд	-4720
▁Ардын	-4721
▁далай	-4722
▁орчих	-4723
▁жилдээ	-4724
xt	-4725
илл	-4726
▁үүн	-4727
▁эхлэл	-4728
▁үүдийг	-4729
▁мөрөөдөл	-4730
▁бүтээгдэхүүнийг	-4731
цаг	-4732
▁(2	-4733
▁9-	-4734
▁ДА	-4735
▁цоо	-4736
ынхаа	-4737
өөгүй	-4738
▁.....	-4739
▁киног	-4740
▁солих	-4741
▁бяцхан	-4742
▁тэгвэл	-4743
▁илэрхийлэх	-4744
op	-4745
еф	-4746
дар	-4747
▁жор	-4748
андан	-4749
▁Зохи	-4750
▁булан	-4751
▁уншсан	-4752
▁хэлэлцэж	-4753
ee	-4754
ваа	-4755
▁Хүнд	-4756
▁Албан	-4757
▁буцах	-4758
▁хэлье	-4759
▁явлаа	-4760
▁таарна	-4761
▁ярилцаж	-4762
▁монголын	-4763
▁шаардлагыг	-4764
амч	-4765
▁дом	-4766
уурын	-4767
▁аврах	-4768
▁уудад	-4769
▁хурим	-4770
▁кинонд	-4771
▁шийдэг	-4772
▁удаагаа	-4773
ҮЙ	-4774
▁20-	-4775
▁Мэдээ	-4776
▁хэний	-4777
▁Ийнхүү	-4778
▁дэвшиг	-4779
▁зөөлөн	-4780
▁бидэнтэй	-4781
▁татварын	-4782
▁харьцуулахад	-4783
ийв	-4784
▁ак	-4785
▁Ашиг	-4786
▁морь	-4787
▁өөрөөр	-4788
▁санагдсан	-4789
▁үргэлжилж	-4790
▁ь	-4791
лай	-4792
▁re	-4793
болд	-4794
▁сонгон	-4795
▁суугаа	-4796
▁хоёрыг	-4797
▁утгатай	-4798
▁хохирол	-4799
▁хийгдсэн	-4800
▁хичээлийн	-4801
▁Хө	-4802
▁ЭЗ	-4803
дааны	-4804
▁Төгс	-4805
▁гээс	-4806
▁зэвс	-4807
▁үзье	-4808
▁дуулж	-4809
▁зөвлөж	-4810
▁сууцны	-4811
▁онгоцны	-4812
▁тэмдэглэл	-4813
▁ич	-4814
▁өмч	-4815
▁Ирээд	-4816
▁бусдыг	-4817
▁Боловср	-4818
▁Дэлгэрэнгүй	-4819
илан	-4820
▁биед	-4821
▁бороо	-4822
▁эхээр	-4823
▁гайгүй	-4824
▁улсууд	-4825
▁төгрөгийн	-4826
▁холбогдолтой	-4827
ack	-4828
▁-1	-4829
▁гя	-4830
▁хэмжээтэй	-4831
▁Өөрийнхөө	-4832
итр	-4833
оль	-4834
▁Гай	-4835
▁үгс	-4836
▁эцэс	-4837
▁гадаа	-4838
▁тавиг	-4839
▁усанд	-4840
▁хандив	-4841
▁сонсоод	-4842
▁гуравдугаар	-4843
ube	-4844
зэг	-4845
▁6.	-4846
чээр	-4847
▁Хэт	-4848
▁үхэх	-4849
▁чанга	-4850
▁зургаа	-4851
▁наадмын	-4852
▁сонгодог	-4853
▁оруулалтын	-4854
od	-4855
▁кг	-4856
илаа	-4857
▁дотно	-4858
эйсбүүк	-4859
▁тавиад	-4860
▁тустай	-4861
▁эртний	-4862
▁байршил	-4863
▁хамгаалж	-4864
▁тайлбарлаж	-4865
▁ажиллагаагаа	-4866
▁36	-4867
шний	-4868
▁бит	-4869
▁Дээд	-4870
▁давж	-4871
▁даасан	-4872
▁хулгайч	-4873
▁үзэгдэл	-4874
▁үүрэгтэй	-4875
▁сурталчилгаа	-4876
▁!!	-4877
чилсэн	-4878
▁Орчин	-4879
▁нислэг	-4880
▁газрууд	-4881
▁хэрэглэгчийн	-4882
lo	-4883
иун	-4884
▁Ch	-4885
▁иж	-4886
▁Дур	-4887
▁хаашаа	-4888
▁интернет	-4889
упп	-4890
▁Шв	-4891
нөөс	-4892
▁инээд	-4893
▁баригчид	-4894
▁долларын	-4895
▁амьдралдаа	-4896
ЭЭ	-4897
▁j	-4898
шир	-4899
▁Уу	-4900
▁Яах	-4901
▁даан	-4902
▁метр	-4903
▁нээл	-4904
▁Анхны	-4905
▁гадны	-4906
▁Бидэнд	-4907
▁Бүсгүй	-4908
▁галзуу	-4909
▁далайн	-4910
▁сэргээх	-4911
▁сүүлчийн	-4912
▁батлагдсан	-4913
ТХ	-4914
hone	-4915
соор	-4916
▁бүд	-4917
▁хорт	-4918
▁Трамп	-4919
▁судлах	-4920
Баттулга	-4921
▁эхэлдэг	-4922
▁Facebook	-4923
▁Британийн	-4924
▁Нэгдүгээр	-4925
▁нэмэгдсэн	-4926
луулж	-4927
▁замд	-4928
▁өвөл	-4929
▁агент	-4930
▁орших	-4931
▁халдв	-4932
▁ялалт	-4933
▁тоглогч	-4934
▁насандаа	-4935
▁төрөлхтөн	-4936
▁шүд	-4937
▁Тэгж	-4938
▁гаар	-4939
▁ойрт	-4940
▁цэгц	-4941
▁төвөг	-4942
ралтгүй	-4943
▁Чамайг	-4944
▁мэдрэх	-4945
▁суусан	-4946
▁аваагүй	-4947
▁автомат	-4948
▁оролцоо	-4949
▁Өчигдөр	-4950
▁Энэтхэгийн	-4951
▁харилцааны	-4952
▁фр	-4953
лээс	-4954
▁луу	-4955
▁найм	-4956
▁унаг	-4957
▁хори	-4958
▁санах	-4959
▁ийнхээ	-4960
▁үнэмлэх	-4961
▁нэвтрүүл	-4962
▁амьдралаа	-4963
▁ог	-4964
Баяр	-4965
▁нааш	-4966
▁аялах	-4967
▁дахиж	-4968
▁баярлаж	-4969
▁гишүүний	-4970
▁тэтгэвэр	-4971
▁хичээдэг	-4972
▁харьцангуй	-4973
Энх	-4974
▁тр	-4975
итой	-4976
▁Авт	-4977
▁Бал	-4978
▁Сүх	-4979
▁нээж	-4980
▁мөрөө	-4981
▁орноо	-4982
▁хараа	-4983
▁хүнээ	-4984
▁бариад	-4985
▁нөлөөлж	-4986
▁талбайд	-4987
▁эхлүүлэх	-4988
▁ярилцлага	-4989
гчид	-4990
өлөг	-4991
▁авр	-4992
оосоо	-4993
▁асан	-4994
▁зовж	-4995
▁тэвч	-4996
▁дийлэн	-4997
▁дэмждэг	-4998
▁хүчирхэг	-4999
акт	-5000
▁бгаа	-5001
▁өвөө	-5002
▁Сарын	-5003
▁луйвар	-5004
▁дуудлага	-5005
▁захиалга	-5006
▁үйлдвэрлэх	-5007
ra	-5008
өнх	-5009
▁09	-5010
▁An	-5011
▁баа	-5012
▁залх	-5013
▁нийл	-5014
▁Цаашид	-5015
▁улсаас	-5016
▁хайрлах	-5017
▁төлөөлөгч	-5018
дож	-5019
▁Чин	-5020
▁2007	-5021
▁эхийн	-5022
▁тодотг	-5023
▁утсаар	-5024
▁гадаадад	-5025
▁нөлөөлдөг	-5026
▁Сонгуулийн	-5027
▁ЭН	-5028
▁The	-5029
▁Найр	-5030
▁нөхд	-5031
▁гуниг	-5032
▁нээрээ	-5033
▁Эрэгтэй	-5034
▁хөөрхий	-5035
▁зохицуулалт	-5036
Ган	-5037
▁Дунд	-5038
▁ихэд	-5039
▁тодр	-5040
▁Африк	-5041
▁Судал	-5042
▁дулаан	-5043
▁мэтээр	-5044
▁ханддаг	-5045
▁хэчнээн	-5046
▁байдгийг	-5047
▁харуулсан	-5048
АМ	-5049
Тэр	-5050
хар	-5051
▁Ойр	-5052
▁Мөнх	-5053
▁байсаар	-5054
▁зэргийн	-5055
▁байдлаас	-5056
▁of	-5057
иудын	-5058
▁төлж	-5059
▁унаж	-5060
▁гутал	-5061
▁өртөг	-5062
▁засагт	-5063
▁нэгэнт	-5064
▁Үүнтэй	-5065
▁Германы	-5066
▁хүүгийн	-5067
гөлд	-5068
▁Хон	-5069
▁Илүү	-5070
▁зуны	-5071
▁маяг	-5072
▁улсыг	-5073
▁чадаж	-5074
▁Нийгэм	-5075
▁биздээ	-5076
▁агуулга	-5077
▁мэдээллээ	-5078
▁хангалуун	-5079
хад	-5080
ьер	-5081
ханд	-5082
▁доорх	-5083
▁гэрээг	-5084
▁оруулна	-5085
▁Хүүхдүүд	-5086
▁тохирсон	-5087
шн	-5088
шиж	-5089
▁ойл	-5090
▁айлд	-5091
▁мөнх	-5092
лалтын	-5093
▁амжил	-5094
▁зохих	-5095
▁солилц	-5096
▁талдаа	-5097
▁уншаад	-5098
▁хүрэлц	-5099
▁байгаан	-5100
▁зөрчсөн	-5101
пон	-5102
баат	-5103
▁тер	-5104
▁2006	-5105
▁урьж	-5106
▁Алтан	-5107
▁Машин	-5108
▁харна	-5109
▁Улмаар	-5110
▁Холбоо	-5111
▁шөнийн	-5112
▁Байгаль	-5113
▁процесс	-5114
▁санаанд	-5115
▁харагдана	-5116
джээ	-5117
▁Нью	-5118
▁Уур	-5119
▁нул	-5120
▁төм	-5121
имийн	-5122
▁төсв	-5123
▁өгье	-5124
▁хөнгөн	-5125
▁больсон	-5126
▁Хөдөлмөр	-5127
▁өөрчлөгдсөн	-5128
арм	-5129
аст	-5130
▁32	-5131
раад	-5132
▁төвийн	-5133
▁Байгуул	-5134
▁хайрлаж	-5135
▁ирээдүйн	-5136
еб	-5137
мэлз	-5138
▁хөлс	-5139
лэгдсэн	-5140
▁наймаа	-5141
▁нэрийн	-5142
▁секунд	-5143
▁шүүхэд	-5144
▁олдохгүй	-5145
▁автомашин	-5146
▁Хоёрдугаар	-5147
▁тасралтгүй	-5148
▁сэтгэлээсээ	-5149
ее	-5150
ong	-5151
▁195	-5152
▁гаас	-5153
▁явдл	-5154
▁даван	-5155
▁халамж	-5156
▁хиймэл	-5157
▁эрмэлз	-5158
▁эрхлэх	-5159
▁үүсгэх	-5160
▁арилгах	-5161
▁хөгжмийн	-5162
▁тэмдэглэж	-5163
▁Ук	-5164
▁Чу	-5165
▁стат	-5166
▁тойм	-5167
▁Жижиг	-5168
▁ундаа	-5169
▁Газрын	-5170
▁Сангийн	-5171
▁дундуур	-5172
▁зөвлөлийн	-5173
▁Кр	-5174
үрэв	-5175
өлгөө	-5176
▁Баян	-5177
▁Ядаж	-5178
эгддэг	-5179
▁арилж	-5180
▁өнцөг	-5181
▁багагүй	-5182
▁зургууд	-5183
▁хүүхдүүдэд	-5184
да	-5185
дөгч	-5186
▁Сэр	-5187
▁юуны	-5188
▁зайлс	-5189
▁олгож	-5190
▁дагаад	-5191
▁Удахгүй	-5192
▁эхэлжээ	-5193
▁Ингэхдээ	-5194
▁тоглосон	-5195
ce	-5196
дох	-5197
▁гүр	-5198
▁муз	-5199
▁түй	-5200
цаагүй	-5201
▁Саяхан	-5202
▁бодвол	-5203
▁өвчний	-5204
▁үзүүлсэн	-5205
▁Мэргэжлийн	-5206
▁асуудалтай	-5207
▁үйлчлүүлэг	-5208
єн	-5209
чит	-5210
Таны	-5211
ддаг	-5212
логч	-5213
▁Жир	-5214
▁хань	-5215
▁хэтр	-5216
▁билүү	-5217
▁дагав	-5218
▁дэмий	-5219
▁ихийг	-5220
▁унтах	-5221
▁чимэг	-5222
▁үнийг	-5223
▁түргэн	-5224
▁дэлхийг	-5225
▁сэтгэлд	-5226
▁шаардаг	-5227
▁дутагдал	-5228
▁Q	-5229
and	-5230
өнд	-5231
▁дов	-5232
▁унд	-5233
архал	-5234
▁авчээ	-5235
▁Тэнгэр	-5236
▁дуугар	-5237
▁завгүй	-5238
▁зэвсэг	-5239
▁сайтай	-5240
▁үзэхэд	-5241
▁өдрөөс	-5242
▁түүнийгээ	-5243
▁байгаагаар	-5244
▁захиргааны	-5245
▁хэрэглээний	-5246
авх	-5247
▁Оюун	-5248
▁ЭЗЭН	-5249
▁Өөрс	-5250
▁Хөдөө	-5251
луулсан	-5252
▁амлалт	-5253
▁медаль	-5254
▁байснаа	-5255
▁компанид	-5256
▁сэтгүүлч	-5257
▁Оюутолгой	-5258
▁даатгалын	-5259
УР	-5260
▁лан	-5261
оороо	-5262
▁дийн	-5263
▁хурц	-5264
▁шашны	-5265
▁Манайх	-5266
▁хэнийг	-5267
▁өдрүүд	-5268
▁багатай	-5269
▁менежер	-5270
▁асуудлын	-5271
▁тамирчин	-5272
▁системийн	-5273
▁үргэлжлэх	-5274
ver	-5275
шүүр	-5276
ээтэй	-5277
▁манд	-5278
огддог	-5279
▁бүтээлч	-5280
▁дархлаа	-5281
▁хүндрэл	-5282
▁шуурхай	-5283
▁хүлээсэн	-5284
бод	-5285
таж	-5286
▁1,	-5287
▁Дуу	-5288
▁Пут	-5289
▁сүм	-5290
▁гүүр	-5291
жуулах	-5292
▁алдар	-5293
▁зарах	-5294
▁явдлыг	-5295
Хүрэлсүх	-5296
▁Бурханд	-5297
▁ажилчид	-5298
▁баймаар	-5299
▁инженер	-5300
▁орохгүй	-5301
▁удирдагч	-5302
▁хамаарна	-5303
ss	-5304
ОО	-5305
сэл	-5306
окур	-5307
▁Заа	-5308
▁Най	-5309
▁түнш	-5310
▁хамаг	-5311
▁хуруу	-5312
▁элдэв	-5313
▁жилээр	-5314
▁татсан	-5315
▁ирэхгүй	-5316
еп	-5317
▁км	-5318
гэлж	-5319
▁Яаж	-5320
▁сайтар	-5321
▁үйлчил	-5322
▁вэбсайт	-5323
амб	-5324
▁ям	-5325
▁Win	-5326
▁үер	-5327
▁дулаа	-5328
▁тутам	-5329
▁авьяас	-5330
▁тухтай	-5331
▁ярилцах	-5332
▁засаглал	-5333
▁зөвшөөрч	-5334
▁уламжлал	-5335
▁чимээгүй	-5336
▁зөвшөөрсөн	-5337
ху	-5338
мөц	-5339
ээг	-5340
илал	-5341
үүлт	-5342
өдөг	-5343
▁офф	-5344
▁лаад	-5345
▁Элчин	-5346
▁нүүрс	-5347
▁завсар	-5348
▁тодорхойл	-5349
алаа	-5350
хины	-5351
хныг	-5352
▁наа	-5353
▁сүү	-5354
▁дууны	-5355
▁зориу	-5356
▁мэдэл	-5357
▁ашгийг	-5358
▁диплом	-5359
▁түлхүүр	-5360
▁өгөөгүй	-5361
▁Санхүүгийн	-5362
ie	-5363
ни	-5364
лууд	-5365
оход	-5366
▁хун	-5367
▁Түүх	-5368
▁аяга	-5369
▁тоон	-5370
▁Дахин	-5371
▁Японд	-5372
▁нээгд	-5373
▁охины	-5374
▁Дотоод	-5375
▁Францын	-5376
▁ирээгүй	-5377
▁удирдлага	-5378
▁хамрагдах	-5379
За	-5380
▁11-	-5381
▁Хаа	-5382
▁Хүр	-5383
▁Агаар	-5384
▁хуваа	-5385
▁бичдэг	-5386
▁бичжээ	-5387
▁тусалж	-5388
▁олгосон	-5389
▁хөвгүүд	-5390
▁ертөнцийн	-5391
ҮТ	-5392
тол	-5393
▁үнс	-5394
▁маар	-5395
▁Цахим	-5396
▁дийлэнх	-5397
▁дуулсан	-5398
▁ерөөсөө	-5399
▁хадгалж	-5400
▁бэлд	-5401
▁хачин	-5402
▁Сонирх	-5403
▁Хуучин	-5404
▁нартай	-5405
▁тохиролц	-5406
▁зарцуулах	-5407
авч	-5408
члон	-5409
▁Хөв	-5410
ацарт	-5411
▁таал	-5412
▁унтр	-5413
▁энер	-5414
▁Бараг	-5415
▁нэгэнд	-5416
▁хэрнээ	-5417
▁шатанд	-5418
▁үүргээ	-5419
▁угаасаа	-5420
▁дотоодын	-5421
▁хэрэгжиж	-5422
өч	-5423
▁48	-5424
▁ХҮ	-5425
▁бн	-5426
▁цо	-5427
▁хүсэх	-5428
▁Гэртээ	-5429
ууруулах	-5430
▁болсныг	-5431
▁бусдаас	-5432
▁нэгнийг	-5433
▁угаалгын	-5434
▁холбогдол	-5435
▁нэвтрүүлэг	-5436
банк	-5437
▁Оюу	-5438
▁уншиг	-5439
▁дуулах	-5440
▁харанхуй	-5441
▁хэвлэлийн	-5442
▁чадсангүй	-5443
▁илэрхийлсэн	-5444
▁хамааралтай	-5445
iss	-5446
▁Муу	-5447
▁тариал	-5448
▁шаарддаг	-5449
▁үйлдвэрлэгч	-5450
▁шинжилгээний	-5451
▁Хул	-5452
▁инд	-5453
▁чил	-5454
▁харц	-5455
▁хаалг	-5456
▁бөхийн	-5457
▁дундаа	-5458
▁шигшээ	-5459
▁нутгаар	-5460
мэр	-5461
▁ЖД	-5462
доллар	-5463
▁зөрүү	-5464
▁нөлөөл	-5465
▁унасан	-5466
▁хөнгөл	-5467
▁авахаар	-5468
▁асуудлаа	-5469
▁Сэл	-5470
▁амс	-5471
▁хум	-5472
▁хурлын	-5473
▁хүмүүсээс	-5474
▁зохицуулах	-5475
ОР	-5476
▁УБ	-5477
▁Бул	-5478
▁Каз	-5479
▁Соё	-5480
ээнээс	-5481
▁Асууд	-5482
▁алтан	-5483
▁эвгүй	-5484
▁бутлах	-5485
▁явахад	-5486
▁өөрөөсөө	-5487
▁Монголбанк	-5488
▁бүрэлдэхүүн	-5489
▁удирдлагууд	-5490
▁юү	-5491
дана	-5492
▁ДАШТ	-5493
▁Орой	-5494
агчийн	-5495
эврийн	-5496
үүллээ	-5497
▁Жүжиг	-5498
▁оргил	-5499
▁сууна	-5500
▁шийтг	-5501
▁суудаг	-5502
▁Хуулийн	-5503
▁явахгүй	-5504
▁шүр	-5505
цгаая	-5506
▁Техн	-5507
▁хэмж	-5508
▁шүүм	-5509
▁заавар	-5510
▁хичээж	-5511
▁Хятадад	-5512
▁багадаа	-5513
▁ургамал	-5514
▁өргөдөл	-5515
▁бүхэндээ	-5516
▁гарцаагүй	-5517
▁бүртгэлийн	-5518
ord	-5519
▁ойн	-5520
▁живх	-5521
▁ороо	-5522
▁Өвөр	-5523
▁Нөхөр	-5524
▁эрэлт	-5525
▁Дорнод	-5526
▁рүүгээ	-5527
▁өнгөрөх	-5528
▁баримтал	-5529
▁ардчилсан	-5530
▁75	-5531
▁сэж	-5532
ентын	-5533
▁талб	-5534
▁үгээ	-5535
амжтай	-5536
▁эмзэг	-5537
▁зайлсхий	-5538
▁хараахан	-5539
аф	-5540
▁шүүгч	-5541
руулбал	-5542
▁явуулдаг	-5543
▁үзүүлдэг	-5544
▁тавдугаар	-5545
▁техникийн	-5546
ak	-5547
мун	-5548
ыгаа	-5549
▁өрх	-5550
▁олиг	-5551
▁төөр	-5552
▁өгөг	-5553
▁загас	-5554
▁салах	-5555
▁хянах	-5556
▁Манайд	-5557
▁гэрэлт	-5558
▁улирал	-5559
▁экспорт	-5560
▁мэргэжилтнүүд	-5561
лөж	-5562
▁Яв	-5563
уулт	-5564
▁лах	-5565
▁цас	-5566
▁Моск	-5567
▁сүнс	-5568
▁Таван	-5569
▁дарна	-5570
▁Хичээл	-5571
▁гараар	-5572
▁зорчиг	-5573
▁импорт	-5574
▁махбод	-5575
▁тэтгэл	-5576
▁зохиолч	-5577
▁үйлдсэн	-5578
▁хангасан	-5579
▁z	-5580
нах	-5581
ment	-5582
▁хом	-5583
▁хээр	-5584
▁Замын	-5585
▁авгай	-5586
▁гараг	-5587
▁үнээр	-5588
▁тутамд	-5589
▁зарласан	-5590
▁шалтгаанаар	-5591
ab	-5592
▁ѳ	-5593
???	-5594
руу	-5595
▁HD	-5596
▁Хад	-5597
▁Хая	-5598
▁авъя	-5599
▁саат	-5600
доггүй	-5601
▁идсэн	-5602
гүйгээр	-5603
▁цохилт	-5604
▁зургийн	-5605
▁өвөрмөц	-5606
▁гаргажээ	-5607
▁тоглодог	-5608
▁өөрчлөгдөж	-5609
унк	-5610
▁Ром	-5611
▁тив	-5612
▁тэмд	-5613
үүлэлт	-5614
▁хуудс	-5615
▁эхлэв	-5616
▁маркет	-5617
▁байрлах	-5618
▁удирдлагын	-5619
li	-5620
ао	-5621
рэх	-5622
згий	-5623
лэхгүй	-5624
▁Бүтээ	-5625
▁яамны	-5626
▁Тоглоо	-5627
▁Хувийн	-5628
▁Америкт	-5629
▁ажилгүй	-5630
▁явагдаж	-5631
▁нүүрсний	-5632
▁сэтгэлгээ	-5633
▁танилцуулж	-5634
▁хүүхдүүдийн	-5635
▁холбоотойгоор	-5636
мэг	-5637
раф	-5638
▁оё	-5639
▁дын	-5640
▁алдарт	-5641
▁Аймгийн	-5642
▁болгонд	-5643
▁хамтлагийн	-5644
ard	-5645
▁Шар	-5646
▁урв	-5647
▁Араб	-5648
▁Аюул	-5649
▁орлоо	-5650
▁харвал	-5651
▁цөмийн	-5652
▁шүүмжлэл	-5653
▁эрсдэлтэй	-5654
ӨӨ	-5655
▁Май	-5656
▁Хил	-5657
▁сөн	-5658
уудаа	-5659
▁бүүр	-5660
▁нэлээн	-5661
▁тэмцэж	-5662
▁Биднийг	-5663
▁цэнэтэй	-5664
▁цэргүүд	-5665
▁харилцах	-5666
▁анхаарлыг	-5667
▁мэдэгджээ	-5668
▁уламжлалт	-5669
▁iP	-5670
▁ne	-5671
▁Ха	-5672
▁ЖДҮ	-5673
Алтан	-5674
▁Испан	-5675
▁онцол	-5676
▁хүрнэ	-5677
▁Дуучин	-5678
▁төрөөс	-5679
▁түүхэнд	-5680
▁хандсан	-5681
ОХ	-5682
иос	-5683
▁ИЙ	-5684
▁но	-5685
dows	-5686
длөө	-5687
луул	-5688
▁Хөх	-5689
▁евр	-5690
ынхан	-5691
▁чийг	-5692
▁амрах	-5693
▁механ	-5694
▁Мөнгөн	-5695
▁туршиж	-5696
▁өвчтөн	-5697
▁Тэгэхэд	-5698
▁зэрэгцээ	-5699
▁суралцаж	-5700
OL	-5701
рох	-5702
▁at	-5703
гдсан	-5704
элхий	-5705
▁Чамд	-5706
▁Шууд	-5707
▁дээл	-5708
▁Apple	-5709
▁илгээх	-5710
▁өнгөрч	-5711
▁амаргүй	-5712
▁санагдаад	-5713
▁уучлаарай	-5714
▁байгаагийн	-5715
▁тайлбарлах	-5716
▁урамшуулал	-5717
▁холбогдуулан	-5718
ег	-5719
▁Секс	-5720
▁даваа	-5721
▁бодлогыг	-5722
▁системийг	-5723
▁төгрөгөөр	-5724
▁ашиглалтад	-5725
лаач	-5726
▁Зав	-5727
▁Хөөр	-5728
лаагүй	-5729
▁хаагч	-5730
▁чадал	-5731
).	-5732
орч	-5733
ост	-5734
▁33	-5735
▁99	-5736
Оюун	-5737
аран	-5738
▁зүү	-5739
▁ачаа	-5740
▁чарм	-5741
▁аарай	-5742
▁уулын	-5743
▁тулгам	-5744
▁асуусан	-5745
▁үндэстэн	-5746
▁онлайнаар	-5747
ЕГ	-5748
ооч	-5749
алсан	-5750
▁харья	-5751
▁хөлөг	-5752
▁шүлэг	-5753
▁хүмүүж	-5754
▁чулуун	-5755
▁наадамд	-5756
▁уулзсан	-5757
▁хийлгэх	-5758
▁талаараа	-5759
ук	-5760
▁туй	-5761
▁-201	-5762
▁Home	-5763
▁зовоо	-5764
▁иддэг	-5765
▁нэрээ	-5766
▁цэнэг	-5767
▁өгөгд	-5768
▁дэвших	-5769
▁хуурай	-5770
▁Ангилал	-5771
▁бэлтгэх	-5772
▁холбоос	-5773
▁шаардаж	-5774
▁бололцоо	-5775
▁санаатай	-5776
ех	-5777
мэн	-5778
▁up	-5779
▁Өс	-5780
▁илт	-5781
▁зарж	-5782
▁авчих	-5783
▁өгчээ	-5784
▁биедээ	-5785
▁зогсохгүй	-5786
▁цэцэрлэгт	-5787
se	-5788
орк	-5789
▁7.	-5790
атур	-5791
удит	-5792
▁the	-5793
▁Эмч	-5794
ation	-5795
оодог	-5796
▁Шаар	-5797
▁толь	-5798
▁тунх	-5799
▁гэхээс	-5800
▁нэвтэр	-5801
▁хэлчих	-5802
▁хүүхэлд	-5803
▁Гэм	-5804
▁Даш	-5805
▁Тогт	-5806
▁Удир	-5807
▁орол	-5808
▁тонн	-5809
▁хаха	-5810
▁нуруу	-5811
▁бодоход	-5812
▁эрдэмтэд	-5813
2.	-5814
▁Sh	-5815
▁об	-5816
▁Ариун	-5817
▁голын	-5818
▁театр	-5819
▁тооцох	-5820
▁дараахь	-5821
▁машиныг	-5822
?!	-5823
ьц	-5824
▁нэ	-5825
двал	-5826
▁Эрд	-5827
▁эмх	-5828
▁цгаа	-5829
▁шатах	-5830
▁үгийн	-5831
жуулагч	-5832
▁авахын	-5833
▁жилээс	-5834
▁хэрүүл	-5835
▁хөдөлг	-5836
▁Хөрөнгө	-5837
▁ажилтай	-5838
▁сэтгэлээ	-5839
▁хүргэсэн	-5840
▁танилцуулах	-5841
гөөр	-5842
▁Алд	-5843
▁Нут	-5844
▁ром	-5845
гавар	-5846
▁зорьж	-5847
▁гарвал	-5848
▁мэндэд	-5849
▁сууриа	-5850
▁таагүй	-5851
▁талбар	-5852
▁хэрээр	-5853
▁хүүгээ	-5854
▁Жинхэнэ	-5855
▁гүнзгий	-5856
▁ойлголц	-5857
▁тогтоож	-5858
▁есдүгээр	-5859
▁суурьтай	-5860
▁гэрчилгээ	-5861
▁даалгавар	-5862
ik	-5863
иод	-5864
▁01	-5865
▁Ос	-5866
лого	-5867
▁Кон	-5868
▁Сүн	-5869
▁зул	-5870
агтай	-5871
▁цаад	-5872
▁булаа	-5873
▁оновч	-5874
▁ороогүй	-5875
▁хамаатай	-5876
▁хүрээгүй	-5877
▁ажиллуулах	-5878
▁дөрөвдүгээр	-5879
▁коронавирус	-5880
****	-5881
оосой	-5882
▁онош	-5883
▁цохи	-5884
чуудын	-5885
▁гэтэл	-5886
▁эмийн	-5887
▁байгаам	-5888
▁захидал	-5889
▁буруутай	-5890
▁хуваарил	-5891
▁байгууламж	-5892
▁ойролцоогоор	-5893
вас	-5894
иур	-5895
▁Фил	-5896
▁аян	-5897
онгор	-5898
▁гайхаж	-5899
▁түмэнд	-5900
▁менежмент	-5901
ob	-5902
ль	-5903
ийд	-5904
▁38	-5905
длоо	-5906
энгэ	-5907
сүрэн	-5908
▁буян	-5909
▁үдэш	-5910
аанаас	-5911
▁айдаг	-5912
▁засал	-5913
▁саван	-5914
▁Баруун	-5915
▁Эндээс	-5916
▁бүхнээ	-5917
▁зурагт	-5918
▁тансаг	-5919
▁дээгүүр	-5920
▁түүхтэй	-5921
▁зөвшөөрөх	-5922
▁төлбөрийн	-5923
▁:)	-5924
▁15-	-5925
длүүд	-5926
▁унах	-5927
лүүлнэ	-5928
▁ардын	-5929
▁групп	-5930
▁Гэрийн	-5931
▁биенээ	-5932
▁тахлын	-5933
▁бүрдүүлэх	-5934
▁шалгалтын	-5935
дөх	-5936
ъяа	-5937
▁тох	-5938
▁тааш	-5939
▁яруу	-5940
▁хавар	-5941
▁амттай	-5942
▁илүүтэй	-5943
▁нөөцийн	-5944
▁уучлалт	-5945
▁мэдэгдэж	-5946
▁чиглэлийн	-5947
▁хөтөлбөрийг	-5948
▁Эв	-5949
▁Нэм	-5950
▁Намын	-5951
▁эрхээ	-5952
▁таарсан	-5953
▁улирлын	-5954
▁Христийн	-5955
▁гаргалаа	-5956
▁мэдэгдэх	-5957
▁хэрэгжилт	-5958
ue	-5959
▁тэ	-5960
жийн	-5961
рагч	-5962
▁арч	-5963
▁жиш	-5964
▁хош	-5965
▁залг	-5966
▁ноён	-5967
▁одоог	-5968
▁бүтээж	-5969
▁хийжээ	-5970
▁хилийн	-5971
▁жирэмсэн	-5972
▁интернэт	-5973
▁гүйцэтгэж	-5974
▁нөлөөлсөн	-5975
▁нийслэлийн	-5976
▁сонгогдсон	-5977
▁бүртгэгдсэн	-5978
ort	-5979
▁Үл	-5980
▁Pre	-5981
▁Нүд	-5982
▁Үргэлж	-5983
▁өөрийг	-5984
▁тулгарч	-5985
▁хуурамч	-5986
▁зориулан	-5987
▁шинэчлэл	-5988
▁34	-5989
▁то	-5990
рөөс	-5991
▁Ази	-5992
▁Гиш	-5993
уулаа	-5994
▁илтг	-5995
▁Олимп	-5996
▁Шаард	-5997
▁өмсөх	-5998
▁Амжилт	-5999
▁олдсон	-6000
▁Холбооны	-6001
▁оновчтой	-6002
▁хамааран	-6003
▁тэдгээрийг	-6004
com	-6005
▁ЭМ	-6006
▁2005	-6007
▁боом	-6008
▁мөрт	-6009
▁үхсэн	-6010
▁өмнөд	-6011
▁Шилдэг	-6012
▁дизайн	-6013
▁тунхаг	-6014
▁нэвтрэх	-6015
▁ялгаагүй	-6016
▁сэтгэлтэй	-6017
илтын	-6018
▁осол	-6019
▁функ	-6020
▁хийд	-6021
▁зовох	-6022
▁эмгэн	-6023
▁Нэгэнт	-6024
▁Энгийн	-6025
▁суурин	-6026
▁дэмжсэн	-6027
▁зээлийг	-6028
▁тагнуул	-6029
▁Бурханыг	-6030
▁гаргахгүй	-6031
▁хуралдаан	-6032
▁хөтөлбөрт	-6033
▁Тодруулбал	-6034
▁шалтгааныг	-6035
uck	-6036
аци	-6037
Тийм	-6038
▁Дүр	-6039
▁урс	-6040
▁цам	-6041
естор	-6042
▁месс	-6043
▁Долоо	-6044
▁төсөвт	-6045
▁Windows	-6046
▁бодитой	-6047
▁чиглэлд	-6048
▁жижигхэн	-6049
▁хүсэлтийг	-6050
▁жагсаалтыг	-6051
адар	-6052
ооно	-6053
▁зэс	-6054
ашгүй	-6055
▁бүлг	-6056
үүлжээ	-6057
▁кинон	-6058
▁эргэлт	-6059
▁амгалан	-6060
▁хэлэхгүй	-6061
▁өрсөлдөх	-6062
▁Улаанбаат	-6063
▁өөрчлөлтийг	-6064
Өн	-6065
ate	-6066
▁),	-6067
▁Зо	-6068
▁гэ	-6069
▁шун	-6070
▁Зээл	-6071
▁хүүг	-6072
гээрэй	-6073
▁намар	-6074
▁эхэнд	-6075
▁өвгөн	-6076
▁албанд	-6077
▁нүдэнд	-6078
▁хүртэх	-6079
▁талархаж	-6080
Хэр	-6081
▁12-	-6082
▁дэн	-6083
▁жимс	-6084
▁сунг	-6085
▁тийш	-6086
▁тосны	-6087
▁хийвэл	-6088
▁үүсгэн	-6089
▁дэвшигч	-6090
▁тэвчээр	-6091
▁өгөхийг	-6092
▁борлуулах	-6093
▁тоглолтын	-6094
▁өнөөдрийг	-6095
▁төлөвлөсөн	-6096
▁хөдөлмөрийн	-6097
▁тодорхойлолт	-6098
ft	-6099
бэ	-6100
-19	-6101
сээ	-6102
Мөнх	-6103
▁Жич	-6104
▁хут	-6105
▁Уран	-6106
▁голд	-6107
▁цээж	-6108
▁ногоо	-6109
▁олоод	-6110
▁ордны	-6111
▁зорчих	-6112
▁амжилтанд	-6113
▁хамтарсан	-6114
▁байгуулалтын	-6115
▁НӨ	-6116
▁дэ	-6117
абор	-6118
оооо	-6119
хэгт	-6120
▁Тун	-6121
ашины	-6122
▁байг	-6123
▁хөнөө	-6124
▁Дөрвөн	-6125
▁илтгэл	-6126
▁шилжих	-6127
▁орлогын	-6128
▁хэсгүүд	-6129
▁Тодорхой	-6130
▁программ	-6131
▁хажуугаар	-6132
▁гайхамшигтай	-6133
Ар	-6134
эрч	-6135
▁ск	-6136
ориг	-6137
▁Мак	-6138
▁нээс	-6139
▁тийн	-6140
▁хаах	-6141
▁элэг	-6142
гэхгүй	-6143
▁Путин	-6144
▁учрыг	-6145
▁хүчил	-6146
▁ээээээ	-6147
▁явдлын	-6148
▁иргэдээ	-6149
▁өнгөтэй	-6150
▁хэлээгүй	-6151
▁телевизийн	-6152
ct	-6153
Ам	-6154
ГА	-6155
ерв	-6156
▁55	-6157
▁ни	-6158
снаа	-6159
▁жол	-6160
аасай	-6161
▁Болд	-6162
▁Бээж	-6163
▁нөхц	-6164
▁Видео	-6165
▁Толгой	-6166
▁амьтад	-6167
▁доторх	-6168
▁ордонд	-6169
▁түүхийн	-6170
▁үйлчлэх	-6171
▁хэлснээр	-6172
▁хугацаатай	-6173
ЭД	-6174
дад	-6175
▁Ус	-6176
▁кур	-6177
▁100%	-6178
▁Төмөр	-6179
▁азтай	-6180
▁бичнэ	-6181
▁насыг	-6182
▁хүндр	-6183
▁энийг	-6184
▁үеийг	-6185
▁жоохон	-6186
▁нарийв	-6187
▁суудал	-6188
▁химийн	-6189
▁дундаас	-6190
▁охинтой	-6191
▁хаагчид	-6192
AR	-6193
дам	-6194
▁ХА	-6195
▁ив	-6196
▁ом	-6197
▁and	-6198
▁өсч	-6199
тнүүд	-6200
▁Болз	-6201
▁нөхр	-6202
▁онол	-6203
▁хэвш	-6204
▁дорой	-6205
▁уучлал	-6206
▁хэрвээ	-6207
▁ирэхээр	-6208
▁элемент	-6209
▁зоригтой	-6210
▁борлуулалт	-6211
▁тодорхойлж	-6212
▁зориулагдсан	-6213
▁Өө	-6214
вшин	-6215
▁Даг	-6216
энхэр	-6217
▁Хэдий	-6218
▁Асуулт	-6219
▁Онцгой	-6220
▁хоолоо	-6221
▁хорвоо	-6222
▁үүдийн	-6223
чилгааны	-6224
▁зардлыг	-6225
▁санааны	-6226
▁амжаагүй	-6227
▁байснаас	-6228
▁чадварыг	-6229
▁тэмдэглэх	-6230
▁үзэсгэлэнтэй	-6231
▁ис	-6232
эцэг	-6233
▁Лонд	-6234
▁Шинж	-6235
▁амин	-6236
▁овоо	-6237
▁утсаа	-6238
▁хоёул	-6239
▁юманд	-6240
▁өдгөө	-6241
▁гадагш	-6242
▁зэрэгц	-6243
▁нилээд	-6244
▁Нэгдсэн	-6245
▁хувьдаа	-6246
▁Хөгжлийн	-6247
▁солонгос	-6248
▁шалтгаал	-6249
▁байгаасай	-6250
▁суурилсан	-6251
айх	-6252
лик	-6253
аныг	-6254
атай	-6255
гээе	-6256
истан	-6257
▁тоос	-6258
▁Гурав	-6259
▁Хэрхэн	-6260
▁сонгоно	-6261
▁байгаагаас	-6262
▁тохиолдсон	-6263
▁шалгаруулалт	-6264
ВС	-6265
ау	-6266
Нэг	-6267
агц	-6268
гэш	-6269
▁Си	-6270
лөөр	-6271
▁193	-6272
▁Хов	-6273
▁жим	-6274
▁Юуны	-6275
▁шавь	-6276
▁Захир	-6277
▁гаригт	-6278
▁прокур	-6279
▁сурагч	-6280
▁хосууд	-6281
▁өвчтэй	-6282
▁тойронд	-6283
▁тушаалт	-6284
▁удирдаж	-6285
▁хүмүүсээ	-6286
▁хүсээгүй	-6287
▁ертөнцийг	-6288
▁жагсаалтад	-6289
▁хариуцлагатай	-6290
Эл	-6291
оз	-6292
ine	-6293
гип	-6294
раа	-6295
Йорк	-6296
▁400	-6297
▁хир	-6298
▁зовл	-6299
▁нуур	-6300
▁Дархан	-6301
▁Онлайн	-6302
▁сургаа	-6303
▁хайрын	-6304
▁хүртсэн	-6305
▁эзэмших	-6306
▁хагалгаа	-6307
▁санагдана	-6308
▁хайрладаг	-6309
all	-6310
▁2,	-6311
▁Юм	-6312
адан	-6313
чуур	-6314
▁түү	-6315
шгийн	-6316
▁Ардчил	-6317
▁Энэтхэгт	-6318
▁санагдах	-6319
▁тэдэнтэй	-6320
▁жуулчлалын	-6321
ang	-6322
гон	-6323
▁65	-6324
айлт	-6325
хуяг	-6326
▁Амь	-6327
▁Тар	-6328
▁Эмн	-6329
▁рад	-6330
▁шаг	-6331
ацтай	-6332
▁Байр	-6333
▁хөрв	-6334
▁музей	-6335
▁дээрэм	-6336
▁хичээх	-6337
▁эрдэнэ	-6338
▁зүйлээс	-6339
▁хүүхдүүдийг	-6340
▁хөтөлбөрийн	-6341
▁-2	-6342
▁ХӨ	-6343
▁Өд	-6344
▁цүн	-6345
▁амны	-6346
▁япон	-6347
▁функц	-6348
▁дараал	-6349
▁тэрхүү	-6350
▁хөгшин	-6351
▁эрхтэн	-6352
▁Иргэний	-6353
▁барьцаа	-6354
▁шинжтэй	-6355
▁тухайгаа	-6356
▁бүртгүүлэх	-6357
▁урьдчилсан	-6358
▁зориулалттай	-6359
ээсэй	-6360
▁авир	-6361
▁заал	-6362
▁үзлээ	-6363
▁хэлийг	-6364
▁тэнцвэр	-6365
▁холбогдож	-6366
▁найруулагч	-6367
▁хөдөлгөөний	-6368
ми	-6369
аааа	-6370
▁устг	-6371
▁утаа	-6372
▁өрөв	-6373
▁дурьд	-6374
▁алджээ	-6375
▁баахан	-6376
▁барилг	-6377
▁даргыг	-6378
▁түүхий	-6379
▁шингэн	-6380
▁цөөнгүй	-6381
▁Австрали	-6382
▁байгуулна	-6383
▁хөнгөлөлт	-6384
▁шилжүүлэх	-6385
▁тохиолддог	-6386
are	-6387
жиж	-6388
▁Үг	-6389
▁Жен	-6390
▁Чад	-6391
▁сөх	-6392
▁даав	-6393
өгчийн	-6394
▁Авлиг	-6395
▁туулж	-6396
▁тийшээ	-6397
▁хүчийг	-6398
▁буурсан	-6399
▁стандар	-6400
▁хүртлээ	-6401
Элбэгдорж	-6402
▁гэрээний	-6403
▁мөнгөтэй	-6404
▁талаархи	-6405
▁цэвэрлэг	-6406
▁хэлэлцүүл	-6407
▁болгоомжтой	-6408
гэг	-6409
лас	-6410
▁49	-6411
▁000	-6412
▁БАЙ	-6413
▁Мор	-6414
▁Нис	-6415
▁айр	-6416
алдах	-6417
длого	-6418
оциал	-6419
өтгөр	-6420
▁Зөвл	-6421
▁есөн	-6422
▁таних	-6423
▁ямагт	-6424
▁дамжин	-6425
аборатор	-6426
▁Тайлбар	-6427
▁дуусгах	-6428
▁суурийг	-6429
▁тогооны	-6430
▁алдагдал	-6431
▁санаачил	-6432
▁чадалтай	-6433
▁парламент	-6434
▁ерөнхийдөө	-6435
▁сургуулиуд	-6436
▁боловсруулж	-6437
▁байгууллагаас	-6438
▁8.	-6439
эхэн	-6440
▁лэн	-6441
иценз	-6442
▁эрин	-6443
▁алсан	-6444
▁ялгар	-6445
▁тусмаа	-6446
▁хийчих	-6447
▁үүсгэж	-6448
▁Британи	-6449
▁төсөөлж	-6450
▁Манайхан	-6451
▁агентлаг	-6452
▁худалдах	-6453
.00	-6454
окс	-6455
▁Хөт	-6456
амдах	-6457
▁Эмнэл	-6458
▁хааяа	-6459
▁баталж	-6460
▁нүдний	-6461
▁өвлийн	-6462
▁тохирох	-6463
▁хүчингүй	-6464
▁судлаачид	-6465
▁халдварын	-6466
▁амьдралынхаа	-6467
гор	-6468
хэх	-6469
▁яс	-6470
азил	-6471
▁Цар	-6472
▁Чан	-6473
▁гуйж	-6474
▁санс	-6475
▁Санал	-6476
▁яриаг	-6477
▁дуугүй	-6478
▁казино	-6479
▁охиныг	-6480
▁талууд	-6481
▁оролдож	-6482
▁хайрцаг	-6483
▁хуваарь	-6484
▁уралдаан	-6485
▁аймшигтай	-6486
▁бичлэгийг	-6487
▁татгалзах	-6488
▁хуваалцах	-6489
▁өөрсдийнхөө	-6490
▁06	-6491
▁бх	-6492
▁Син	-6493
▁гард	-6494
▁бусаар	-6495
▁хөгжих	-6496
▁шинжээ	-6497
антолгой	-6498
▁байхаас	-6499
▁хийхдээ	-6500
▁асуултад	-6501
▁харахгүй	-6502
▁өгүүлбэр	-6503
▁тэмцээний	-6504
▁сонгуулиар	-6505
▁хэрэглэсэн	-6506
io	-6507
▁пл	-6508
члэл	-6509
▁кор	-6510
▁мэх	-6511
▁Эрхэм	-6512
▁нүдээ	-6513
▁хүчээ	-6514
▁үүсэх	-6515
▁батлан	-6516
▁буцаан	-6517
▁чихаад	-6518
▁маягаар	-6519
▁мөртлөө	-6520
▁түрүүлж	-6521
▁удалгүй	-6522
▁Жүжигчин	-6523
▁өглөөний	-6524
▁гац	-6525
▁зөг	-6526
▁лог	-6527
▁(201	-6528
▁Егип	-6529
▁мээр	-6530
▁Цалин	-6531
▁Чөлөө	-6532
▁нотол	-6533
▁олонх	-6534
▁хянаж	-6535
▁эдгэр	-6536
▁өгвөл	-6537
▁нэрлэж	-6538
▁юунаас	-6539
▁асуухад	-6540
▁удирдаг	-6541
▁Барилгын	-6542
▁төлбөргүй	-6543
▁Мэдээллийн	-6544
▁зөвшөөрдөг	-6545
▁таалагдсан	-6546
▁хэрэгслийн	-6547
▁Al	-6548
▁от	-6549
ганд	-6550
▁арв	-6551
▁хуц	-6552
октор	-6553
▁малт	-6554
▁салж	-6555
▁фото	-6556
▁хашг	-6557
агчдын	-6558
▁гадар	-6559
▁үнэлж	-6560
▁мартаж	-6561
▁мэдээг	-6562
▁нэгдэж	-6563
▁багтсан	-6564
▁илэрсэн	-6565
▁шийтгэл	-6566
▁Иргэдийн	-6567
▁БИ	-6568
▁ход	-6569
лагчид	-6570
▁ярина	-6571
▁өгөөж	-6572
олдугаар	-6573
▁зүйлсийн	-6574
▁Баярлалаа	-6575
▁арилжааны	-6576
▁Ерөнхийдөө	-6577
▁нэвтрүүлэх	-6578
ry	-6579
эб	-6580
хой	-6581
▁Ду	-6582
▁ТУ	-6583
▁кр	-6584
слан	-6585
▁Хос	-6586
▁маа	-6587
▁сны	-6588
▁салхи	-6589
▁таарч	-6590
▁Заавал	-6591
▁гарган	-6592
▁дүүрэг	-6593
▁тохиож	-6594
▁ярьжээ	-6595
▁Хөдөлмөрийн	-6596
▁төхөөрөмжийн	-6597
▁ъя	-6598
▁бан	-6599
▁Miss	-6600
▁бүлд	-6601
хангай	-6602
▁тархи	-6603
▁үгэнд	-6604
▁үзлэг	-6605
▁байрыг	-6606
▁жилийг	-6607
▁өнгийн	-6608
▁Сүхбаатар	-6609
▁мэдлэгтэй	-6610
▁хүндэтгэл	-6611
рээ	-6612
▁00	-6613
▁IP	-6614
▁ди	-6615
тгон	-6616
ууллаа	-6617
▁Чухам	-6618
▁биеэр	-6619
▁зөрчл	-6620
▁ороход	-6621
▁монголд	-6622
▁мэдээлж	-6623
▁ажиллаад	-6624
▁үйлдлийг	-6625
▁хэрэглэнэ	-6626
ast	-6627
▁0.	-6628
▁Bl	-6629
▁ch	-6630
▁le	-6631
▁зэм	-6632
▁фор	-6633
▁1990	-6634
▁2004	-6635
▁Гүйц	-6636
▁өвчл	-6637
▁өмчл	-6638
▁ондоо	-6639
▁чимээ	-6640
▁өнөөх	-6641
▁чамаас	-6642
▁төрөлхтний	-6643
сд	-6644
OLO	-6645
ill	-6646
асс	-6647
▁иш	-6648
▁не	-6649
▁шт	-6650
Одоо	-6651
▁Ким	-6652
▁Мод	-6653
▁Охид	-6654
▁Эрүү	-6655
огчийн	-6656
хэндээ	-6657
чихсон	-6658
▁Итали	-6659
▁амийг	-6660
▁нүгэл	-6661
▁орныг	-6662
▁шилэн	-6663
▁шувуу	-6664
▁өрнөж	-6665
▁авчрах	-6666
▁бодлыг	-6667
▁мужийн	-6668
▁мэдээд	-6669
▁мөрдөх	-6670
▁хариуг	-6671
▁Эрдэнэт	-6672
▁Африкийн	-6673
▁загварыг	-6674
▁төвөгтэй	-6675
▁мэргэжилтэн	-6676
воо	-6677
лоно	-6678
▁гах	-6679
▁гаш	-6680
орсон	-6681
▁YOLO	-6682
▁нутг	-6683
лэлийг	-6684
▁европ	-6685
▁хөшөө	-6686
▁ёслол	-6687
▁Тэдэнд	-6688
▁дуудаж	-6689
▁утгаар	-6690
▁Ирээдүй	-6691
▁утгагүй	-6692
▁ухамсар	-6693
▁хүндтэй	-6694
▁үүргийг	-6695
▁тогтоогд	-6696
▁харилцаанд	-6697
▁хүүхдүүдээ	-6698
▁хэрэглэгчдийн	-6699
ро	-6700
бил	-6701
▁Un	-6702
▁Ув	-6703
▁дон	-6704
▁тын	-6705
насан	-6706
өөрэй	-6707
▁буйг	-6708
▁эрэг	-6709
▁дохио	-6710
▁үлдэж	-6711
▁Эцсийн	-6712
▁журмын	-6713
▁тантай	-6714
▁туулах	-6715
▁тэмцэл	-6716
▁бүтэлгүй	-6717
▁хараагүй	-6718
▁чиглэсэн	-6719
▁судалгаагаар	-6720
▁2-3	-6721
▁com	-6722
▁Уулз	-6723
▁шарх	-6724
▁оройн	-6725
▁ээрэй	-6726
▁зарлаж	-6727
▁төсөлд	-6728
▁ачаалал	-6729
▁болгоод	-6730
▁даргаар	-6731
▁цаашдаа	-6732
▁хариулах	-6733
▁хуудсууд	-6734
▁Эмэгтэйчүүд	-6735
ED	-6736
аха	-6737
нэгт	-6738
▁Mac	-6739
▁min	-6740
▁алж	-6741
▁жар	-6742
▁уян	-6743
▁шаа	-6744
▁ачаар	-6745
▁дундж	-6746
▁олдог	-6747
▁түрүү	-6748
▁ажлаас	-6749
▁нотлох	-6750
▁охиноо	-6751
▁харлаа	-6752
▁ээжийн	-6753
▁Нийслэл	-6754
▁Сэтгүүл	-6755
▁биелүүлж	-6756
▁мэдээгүй	-6757
▁хүчирхийлэл	-6758
ht	-6759
▁192	-6760
▁Дон	-6761
▁Зөн	-6762
▁Шүү	-6763
▁үйлс	-6764
▁томъё	-6765
▁Баасан	-6766
▁Жилийн	-6767
▁ердийн	-6768
▁зурсан	-6769
▁туйлын	-6770
▁ээлтэй	-6771
▁Энхбаяр	-6772
▁буудлын	-6773
▁сэдвээр	-6774
▁тусалдаг	-6775
▁төдийлөн	-6776
▁үйлдлийн	-6777
og	-6778
инээ	-6779
▁фай	-6780
▁цал	-6781
агдлаа	-6782
гээний	-6783
▁Бодит	-6784
▁ашигт	-6785
▁горим	-6786
▁шүүлт	-6787
▁мөрдөн	-6788
▁Цаашдаа	-6789
▁багшийн	-6790
▁гарахад	-6791
ail	-6792
ain	-6793
вад	-6794
лад	-6795
▁эт	-6796
▁Ший	-6797
▁хуй	-6798
▁НӨАТ	-6799
▁Ёстой	-6800
▁уншигч	-6801
▁эрхлэг	-6802
▁Шударга	-6803
▁Монголыг	-6804
▁багасгах	-6805
▁нэмэгдэх	-6806
▁Амьдралын	-6807
▁эмчилгээний	-6808
ung	-6809
▁07	-6810
▁Pl	-6811
▁en	-6812
▁Зу	-6813
эвэл	-6814
▁Дол	-6815
▁жиж	-6816
▁Хөвс	-6817
▁адуу	-6818
▁ногд	-6819
▁өргө	-6820
тэйгөө	-6821
▁Арван	-6822
▁малын	-6823
▁таньж	-6824
▁шууги	-6825
▁манлай	-6826
▁тэнгис	-6827
▁хандан	-6828
▁тууштай	-6829
▁хүлээлт	-6830
▁зорилгод	-6831
▁боловсруулсан	-6832
oc	-6833
ия	-6834
үж	-6835
ууц	-6836
умын	-6837
▁Mar	-6838
▁Кал	-6839
▁ЭНД	-6840
▁лин	-6841
▁байя	-6842
▁заах	-6843
лолтын	-6844
лээгүй	-6845
▁насаа	-6846
▁барина	-6847
▁хацарт	-6848
▁болохын	-6849
▁тусална	-6850
▁дураараа	-6851
▁сурагчид	-6852
▁байрладаг	-6853
▁хэлэлцүүлэг	-6854
лин	-6855
▁?!	-6856
▁Sp	-6857
▁ТО	-6858
овид	-6859
▁150	-6860
▁фил	-6861
иараа	-6862
огоон	-6863
▁гоол	-6864
▁туур	-6865
▁аудит	-6866
▁ямарч	-6867
▁Бразил	-6868
▁Шинээр	-6869
▁дайсан	-6870
▁дэмжиг	-6871
▁тавина	-6872
▁тойрон	-6873
▁эхнээс	-6874
▁хийгдэж	-6875
▁хураамж	-6876
▁үүнийгээ	-6877
▁боломжийн	-6878
▁төлбөрийг	-6879
▁харилцааг	-6880
▁шалгаруулах	-6881
лз	-6882
ess	-6883
▁Шү	-6884
адад	-6885
дсөн	-6886
▁Бям	-6887
▁нүц	-6888
ошиал	-6889
▁биел	-6890
▁холд	-6891
▁үхэр	-6892
мунист	-6893
▁ахлах	-6894
▁болих	-6895
▁мэдэг	-6896
▁бүсийн	-6897
▁гэмээр	-6898
▁нэгдэл	-6899
▁олноор	-6900
▁цэнгэл	-6901
▁Өөртөө	-6902
▁Төсвийн	-6903
▁тоогоор	-6904
▁торгуул	-6905
▁хөгжилд	-6906
▁хүүхнүүд	-6907
0)	-6908
цан	-6909
▁Арх	-6910
▁Гоо	-6911
▁гер	-6912
▁дамп	-6913
▁Эрчим	-6914
▁янзын	-6915
▁мөргөл	-6916
▁юмнууд	-6917
▁Хайртай	-6918
▁бодохгүй	-6919
▁гэрээсээ	-6920
▁олборлох	-6921
▁тамирчид	-6922
▁тогтоомж	-6923
▁парламентын	-6924
▁танилцуулга	-6925
▁хандлагатай	-6926
дорж	-6927
▁ялах	-6928
▁үйлд	-6929
чихлаа	-6930
▁хожим	-6931
▁авлага	-6932
▁бүхэлд	-6933
▁Английн	-6934
▁хүснэгт	-6935
▁Гадаадын	-6936
▁төлөөлөл	-6937
▁аравдугаар	-6938
ous	-6939
СҮТ	-6940
мин	-6941
▁al	-6942
▁Сам	-6943
▁Хож	-6944
▁цан	-6945
▁Богд	-6946
▁валю	-6947
▁цааз	-6948
▁өгөв	-6949
▁гариг	-6950
▁дором	-6951
▁яадаг	-6952
▁iPhone	-6953
▁Тиймээ	-6954
▁дүгнэж	-6955
▁золиос	-6956
▁мөрийн	-6957
▁хараат	-6958
▁чамтай	-6959
▁явсаар	-6960
▁үүнтэй	-6961
▁Аюулгүй	-6962
▁дуустал	-6963
▁зовлонг	-6964
▁зорьсон	-6965
▁орныхоо	-6966
▁дараалан	-6967
▁нөлөөтэй	-6968
▁хамгаалагч	-6969
qu	-6970
кт	-6971
баа	-6972
▁Об	-6973
аарх	-6974
гэлт	-6975
шина	-6976
▁ёсл	-6977
▁арын	-6978
▁баяж	-6979
▁бөмб	-6980
▁Афган	-6981
▁сэжиг	-6982
▁тулал	-6983
▁тэжээ	-6984
▁авчирч	-6985
▁багаар	-6986
▁буцаад	-6987
▁сайжир	-6988
▁сандал	-6989
▁Нийтийн	-6990
▁арилжаа	-6991
▁туршлаг	-6992
▁танихгүй	-6993
▁компаниудын	-6994
▁хугацаандаа	-6995
пур	-6996
▁!"	-6997
тгал	-6998
▁Гэг	-6999
▁Зүрх	-7000
агцхүү	-7001
▁бүсэд	-7002
▁нарны	-7003
▁нийлж	-7004
▁хоёрт	-7005
▁лиценз	-7006
▁нараас	-7007
▁рестор	-7008
▁төрдөг	-7009
▁шийднэ	-7010
▁шинэчлэх	-7011
▁хариуцсан	-7012
▁хамрагдсан	-7013
▁дасгалжуулагч	-7014
нын	-7015
▁08	-7016
екст	-7017
▁30-	-7018
▁буз	-7019
▁зүс	-7020
▁тем	-7021
▁Март	-7022
▁хийл	-7023
▁Насан	-7024
▁болсн	-7025
▁хөтөл	-7026
▁чинээ	-7027
лагддаг	-7028
▁Тусгай	-7029
▁карьер	-7030
▁төлсөн	-7031
▁хөдлөл	-7032
▁Есүсийн	-7033
▁албагүй	-7034
▁тавилга	-7035
▁толгойд	-7036
▁түвшний	-7037
▁хуудсыг	-7038
▁Иймэрхүү	-7039
▁болгохын	-7040
▁дипломат	-7041
▁чуулганы	-7042
▁компанийг	-7043
▁материалыг	-7044
▁харагдахгүй	-7045
▁хөлбөмбөгийн	-7046
єл	-7047
шинз	-7048
▁нүх	-7049
▁орц	-7050
▁тэл	-7051
▁уут	-7052
▁хэз	-7053
▁Укра	-7054
▁сүйр	-7055
▁хийв	-7056
▁хоцр	-7057
галтын	-7058
▁орхиж	-7059
▁сувил	-7060
лагдлаа	-7061
▁Египет	-7062
▁асуулга	-7063
▁тэднээс	-7064
▁зохистой	-7065
▁тохиргоо	-7066
▁үлдээсэн	-7067
▁амьсгалын	-7068
▁Нэгдүгээрт	-7069
▁стратегийн	-7070
рор	-7071
▁АМ	-7072
азар	-7073
айны	-7074
▁Son	-7075
▁Юун	-7076
▁Товч	-7077
▁Сүүлд	-7078
▁алтны	-7079
▁багаж	-7080
▁цомог	-7081
▁гэрлэх	-7082
▁нартаа	-7083
▁ажиллаг	-7084
▁айлчлал	-7085
▁орхисон	-7086
▁хөрөнгийг	-7087
▁өмгөөлөгч	-7088
▁өрсөлдөгч	-7089
▁Сургуулийн	-7090
▁Тавантолгой	-7091
▁төлөвлөгөөг	-7092
▁зөвшөөрөхгүй	-7093
АУ	-7094
▁%	-7095
лип	-7096
хов	-7097
▁лж	-7098
▁Кин	-7099
▁Пак	-7100
▁хов	-7101
▁Хариу	-7102
▁ордон	-7103
▁элбэг	-7104
▁үзүүр	-7105
▁нээсэн	-7106
▁оршдог	-7107
▁сайтын	-7108
▁хүндээ	-7109
▁сүүлээр	-7110
▁бүрдүүлж	-7111
▁хэрэгцээг	-7112
▁Австралийн	-7113
▁тэдгээрийн	-7114
▁үйлчлүүлэгч	-7115
▁@	-7116
▁02	-7117
▁it	-7118
снээ	-7119
чдод	-7120
гараг	-7121
ингоо	-7122
сноор	-7123
▁арав	-7124
▁гоор	-7125
▁оосоо	-7126
▁хасах	-7127
▁хөндл	-7128
▁Дахиад	-7129
▁зүтгэл	-7130
▁хөөцөл	-7131
▁ярилаа	-7132
▁бөхчүүд	-7133
▁олигтой	-7134
▁Гадаадад	-7135
▁Бүтээгдэх	-7136
▁Хоёрдугаарт	-7137
лий	-7138
▁37	-7139
▁39	-7140
▁42	-7141
▁95	-7142
▁Pro	-7143
▁Бөх	-7144
▁ааж	-7145
▁Post	-7146
▁Арай	-7147
▁Кино	-7148
▁конт	-7149
▁түлш	-7150
▁МАНАН	-7151
▁аавын	-7152
▁бусын	-7153
▁даргад	-7154
▁Ямартай	-7155
▁засгийг	-7156
▁зүйлгүй	-7157
▁сонсдог	-7158
чирхалтай	-7159
▁авчирсан	-7160
▁нутагтаа	-7161
▁төгсгөлд	-7162
▁тодруулах	-7163
▁хязгаарлалт	-7164
▁байгууллагуудын	-7165
иор	-7166
▁Бя	-7167
▁ТВ	-7168
▁800	-7169
▁Буд	-7170
▁Евр	-7171
лодог	-7172
▁Блог	-7173
▁Орхон	-7174
▁бясал	-7175
▁бүлээ	-7176
▁морил	-7177
▁хавдр	-7178
члаарай	-7179
▁аргууд	-7180
▁тэнцүү	-7181
▁шулуун	-7182
▁явахдаа	-7183
▁Компьютер	-7184
▁Хүмүүсийн	-7185
▁хувилбарыг	-7186
хэж	-7187
шсан	-7188
▁таш	-7189
алтыг	-7190
▁2003	-7191
▁Гоол	-7192
▁аваа	-7193
▁мөрг	-7194
авхлан	-7195
▁Ахмад	-7196
▁асуув	-7197
▁хөтөч	-7198
▁Бусдын	-7199
▁ашгийн	-7200
▁бүгдэд	-7201
▁очиход	-7202
▁хэрэгл	-7203
▁цагтаа	-7204
▁оролцогч	-7205
▁төлөвтэй	-7206
▁хүргэдэг	-7207
▁чөлөөлөх	-7208
▁үндэслэн	-7209
▁болчихлоо	-7210
▁эхлүүлсэн	-7211
▁Үйлчилгээ	-7212
gu	-7213
та	-7214
єх	-7215
ect	-7216
гэнд	-7217
▁Мат	-7218
▁Шөн	-7219
ийтэй	-7220
▁зүйр	-7221
▁хавь	-7222
доогүй	-7223
▁Цэвэр	-7224
▁будаа	-7225
▁ширээ	-7226
ператур	-7227
▁Битгий	-7228
▁ажлууд	-7229
▁дахинд	-7230
▁доромж	-7231
▁дэвшил	-7232
▁заслын	-7233
▁орчныг	-7234
Монголын	-7235
▁Тиймдээ	-7236
▁бүсгүйн	-7237
▁зогсоол	-7238
▁сайхныг	-7239
▁яригдаж	-7240
▁мэдэрдэг	-7241
▁тохируулах	-7242
УУЛ	-7243
аяа	-7244
луу	-7245
▁44	-7246
▁хи	-7247
▁Бос	-7248
▁ням	-7249
▁эвс	-7250
билэг	-7251
гадаг	-7252
▁Гэмт	-7253
▁ОУВС	-7254
▁яана	-7255
айлсан	-7256
нуудын	-7257
▁Дарга	-7258
▁дотны	-7259
▁хотыг	-7260
▁шанал	-7261
▁Болзоо	-7262
▁дурлал	-7263
▁мэргэн	-7264
▁нулимс	-7265
гадугаар	-7266
▁гаднаас	-7267
▁ирэхийг	-7268
▁нээлтээ	-7269
▁ярихгүй	-7270
▁өрөөний	-7271
▁салбарыг	-7272
▁танилцаж	-7273
▁Байгалийн	-7274
▁байгаадаа	-7275
▁болчихоод	-7276
▁гудамжинд	-7277
▁дамжуулах	-7278
▁үргэлжилнэ	-7279
▁хамгаалалтын	-7280
ым	-7281
▁→	-7282
oun	-7283
раг	-7284
▁Айл	-7285
▁Мах	-7286
чилэн	-7287
▁Prev	-7288
▁Даан	-7289
▁муур	-7290
▁Хаана	-7291
▁Эрчүүд	-7292
▁алдааг	-7293
▁амьтны	-7294
▁баярыг	-7295
▁туслал	-7296
▁өчүүхэн	-7297
▁бодохоор	-7298
▁сэтгэлээр	-7299
▁хувьцааны	-7300
Ня	-7301
▁ье	-7302
▁Шат	-7303
▁пуу	-7304
эмгий	-7305
▁үүрд	-7306
▁үүсч	-7307
▁Парис	-7308
▁зуунд	-7309
▁олонд	-7310
▁алчуур	-7311
▁зогсох	-7312
▁орноос	-7313
▁санаач	-7314
▁Агаарын	-7315
▁Хэрэглэг	-7316
▁Хүрэлсүх	-7317
▁зарцуулж	-7318
▁манайхан	-7319
▁талархал	-7320
енн	-7321
▁51	-7322
емат	-7323
▁мөх	-7324
итрил	-7325
▁болх	-7326
▁дүрд	-7327
▁мань	-7328
▁олно	-7329
▁Тэгтэл	-7330
▁дажгүй	-7331
▁зарлах	-7332
▁тэсвэр	-7333
▁Шинжлэх	-7334
▁зогсоож	-7335
▁хэргээр	-7336
▁талаасаа	-7337
▁танилцсан	-7338
▁ерөнхийлөгчийн	-7339
Хү	-7340
үх	-7341
өөе	-7342
гүүн	-7343
▁ген	-7344
▁дүрв	-7345
▁удам	-7346
жаргал	-7347
▁анхан	-7348
▁оржээ	-7349
▁элсэн	-7350
▁явган	-7351
Нямдорж	-7352
▁давсан	-7353
▁журмыг	-7354
▁онцлох	-7355
▁байдлаа	-7356
▁зүйлүүд	-7357
▁статист	-7358
▁тайланг	-7359
▁Эрүүгийн	-7360
▁гаргахад	-7361
▁Өнөөгийн	-7362
▁татгалзаж	-7363
▁хандуулах	-7364
▁харгалзан	-7365
▁хийгээрэй	-7366
▁өөрчилсөн	-7367
▁өөрчлөгдөх	-7368
ББ	-7369
▁ї	-7370
▁05	-7371
▁9.	-7372
▁Ух	-7373
адем	-7374
▁Тээ	-7375
Танай	-7376
▁харв	-7377
▁хийц	-7378
▁Синга	-7379
▁боомт	-7380
▁тойрог	-7381
▁Тайланд	-7382
▁анхдагч	-7383
▁зарцуул	-7384
▁хувьтай	-7385
▁Гоолингоо	-7386
▁Элбэгдорж	-7387
▁бүтээлийн	-7388
▁үндэстний	-7389
▁автомашины	-7390
▁таалагддаг	-7391
▁анхааралтай	-7392
ov	-7393
ьё	-7394
▁ЗГ	-7395
идер	-7396
▁19-	-7397
▁Хай	-7398
▁түш	-7399
гуулж	-7400
▁өсөх	-7401
▁жишиг	-7402
▁онгой	-7403
▁сольж	-7404
▁өргөө	-7405
▁Цагийн	-7406
▁мэргэш	-7407
▁хайрыг	-7408
▁буудалд	-7409
▁Монголдоо	-7410
▁баримтлах	-7411
▁сүлжээний	-7412
▁хөдөлгөөнийг	-7413
ice	-7414
our	-7415
вен	-7416
▁1:	-7417
▁Se	-7418
▁УУ	-7419
овол	-7420
▁Баа	-7421
▁Ням	-7422
▁Онг	-7423
▁ная	-7424
иотой	-7425
▁Доор	-7426
▁намд	-7427
▁босоо	-7428
▁уудаг	-7429
▁тооцож	-7430
▁үнэлэх	-7431
▁тавилан	-7432
▁хураалт	-7433
▁хэмээсэн	-7434
▁Компанийн	-7435
▁Солонгост	-7436
▁хэрэгслийг	-7437
▁эсэргүүцэж	-7438
▁үргэлжлүүлэх	-7439
ѳр	-7440
Дэл	-7441
аль	-7442
▁un	-7443
▁Аб	-7444
▁Өм	-7445
▁(1)	-7446
▁Даа	-7447
▁Инд	-7448
▁аад	-7449
▁нух	-7450
▁хаз	-7451
▁туул	-7452
сгалан	-7453
чихдаг	-7454
▁Жолоо	-7455
▁Сирийн	-7456
▁тулаан	-7457
▁тэрийг	-7458
▁өртсөн	-7459
▁даашинз	-7460
▁иргэнийг	-7461
▁огцруулах	-7462
▁туслалцаа	-7463
▁хөдөлгөөнт	-7464
▁хэрэглэгчдэд	-7465
II	-7466
ӨХ	-7467
тгаж	-7468
▁нтр	-7469
▁Авто	-7470
▁Хаяг	-7471
▁гуйх	-7472
▁оныг	-7473
эгдлээ	-7474
▁амарч	-7475
▁аятай	-7476
▁зочин	-7477
▁осолд	-7478
▁Халуун	-7479
▁уншина	-7480
▁чихлаа	-7481
▁буулгах	-7482
▁дуулдаг	-7483
▁хурдтай	-7484
▁уншаарай	-7485
▁эрхэлдэг	-7486
▁настайдаа	-7487
▁таалагдаж	-7488
av	-7489
уурч	-7490
▁маг	-7491
▁рек	-7492
▁Ехов	-7493
▁бүтц	-7494
▁зурах	-7495
▁супер	-7496
▁угааж	-7497
▁утгыг	-7498
▁гамшиг	-7499
▁стресс	-7500
▁чөтгөр	-7501
▁үлдэнэ	-7502
▁Шүүхийн	-7503
▁тогтсон	-7504
▁баримтыг	-7505
▁итгэхгүй	-7506
▁хэрэгтээ	-7507
▁эрүүгийн	-7508
▁ярилцлаг	-7509
▁ярилцсан	-7510
▁хүндрэлтэй	-7511
▁төлөөлөгчид	-7512
wit	-7513
ари	-7514
омт	-7515
▁04	-7516
▁из	-7517
▁шо	-7518
янга	-7519
▁лэг	-7520
▁пас	-7521
▁үйм	-7522
▁ихэс	-7523
▁туйл	-7524
▁хааж	-7525
▁алхаж	-7526
▁элчин	-7527
▁Тайван	-7528
▁хэвтэж	-7529
▁Сингапур	-7530
▁дунджаар	-7531
▁мэдэхийг	-7532
▁Үүнийгээ	-7533
▁лаборатор	-7534
▁төлөвлөлт	-7535
▁хариулсан	-7536
ah	-7537
єг	-7538
▁ХУ	-7539
▁шу	-7540
обот	-7541
▁Урт	-7542
▁хны	-7543
агдан	-7544
зориг	-7545
▁Тэмц	-7546
▁нялх	-7547
▁Хэлэлц	-7548
▁нитрил	-7549
▁нэгдэх	-7550
▁огтхон	-7551
▁сайгүй	-7552
▁хортой	-7553
▁хэнтэй	-7554
▁хүнээр	-7555
▁бүтцийн	-7556
▁бүтээгд	-7557
▁судлаач	-7558
▁агуулсан	-7559
▁чармайлт	-7560
▁эзэмшсэн	-7561
▁зарцуулсан	-7562
▁татгалзсан	-7563
▁Монголчуудын	-7564
▁маркетингийн	-7565
▁монголчуудын	-7566
▁Ат	-7567
▁бо	-7568
▁го	-7569
ософ	-7570
шилж	-7571
▁Ник	-7572
▁лаж	-7573
▁лэх	-7574
лгийн	-7575
▁овог	-7576
▁аймаар	-7577
▁зүтгэж	-7578
▁мессеж	-7579
▁татдаг	-7580
▁Тусгаар	-7581
▁зогссон	-7582
▁тэндээс	-7583
▁хамаарч	-7584
▁хуулбар	-7585
▁танилцах	-7586
▁сонирхлыг	-7587
▁сургуулиа	-7588
▁мэдээллээр	-7589
▁үргэлжилсэн	-7590
▁Байгууллагын	-7591
ки	-7592
рон	-7593
▁Am	-7594
▁Ме	-7595
окол	-7596
▁өнд	-7597
агаах	-7598
▁зайд	-7599
▁аварч	-7600
▁мөчид	-7601
лагдмал	-7602
Өнөөдөр	-7603
▁Чөлөөт	-7604
▁сайдыг	-7605
▁тайлах	-7606
▁хэмээв	-7607
▁Нямдорж	-7608
▁Хөвсгөл	-7609
▁Цэргийн	-7610
▁системд	-7611
▁тэтгэмж	-7612
▁стратеги	-7613
▁төрүүлэх	-7614
▁асуултанд	-7615
▁зөвлөгөөг	-7616
▁сонирхдог	-7617
▁хорооллын	-7618
▁температур	-7619
▁тайлбарласан	-7620
oy	-7621
ьяа	-7622
иулж	-7623
▁Бүт	-7624
▁Ток	-7625
▁олз	-7626
▁Сайд	-7627
▁буух	-7628
▁лээд	-7629
▁серв	-7630
сандаа	-7631
▁Буруу	-7632
▁Санаа	-7633
▁бодно	-7634
▁очдог	-7635
▁тоонд	-7636
▁өмөөр	-7637
▁авлига	-7638
▁сэтгэх	-7639
▁цаасан	-7640
▁өлсгөл	-7641
▁Тэрнээс	-7642
▁Хүнсний	-7643
▁бэлтгэж	-7644
▁бүхнээс	-7645
▁олохгүй	-7646
▁үзүүлнэ	-7647
▁Фэйсбүүк	-7648
▁оролцоно	-7649
▁сүлжээнд	-7650
▁баримтууд	-7651
▁олборлолт	-7652
▁наймдугаар	-7653
▁Боловсролын	-7654
▁Эмэгтэйчүүдийн	-7655
ЭХ	-7656
ма	-7657
end	-7658
▁2:	-7659
▁сп	-7660
▁Үс	-7661
Болд	-7662
ольш	-7663
▁21-	-7664
▁Вэб	-7665
▁Сум	-7666
▁Хүй	-7667
▁жам	-7668
▁мот	-7669
▁Үүр	-7670
▁Мекс	-7671
▁гомд	-7672
▁гурв	-7673
▁очно	-7674
▁сээр	-7675
чихээд	-7676
▁Эрдэм	-7677
▁будаг	-7678
▁снаар	-7679
▁байхав	-7680
▁хуулиа	-7681
долларын	-7682
▁бичгийг	-7683
▁нөхрийн	-7684
▁харгалз	-7685
▁хийхийн	-7686
▁хөгжсөн	-7687
▁захиргаа	-7688
▁цуглуулах	-7689
▁одоохондоо	-7690
▁өнгөрүүлэх	-7691
▁хамгаалахын	-7692
▁харилцаатай	-7693
▁АС	-7694
▁191	-7695
▁ХҮН	-7696
▁айн	-7697
▁саа	-7698
▁хул	-7699
амайг	-7700
чимэг	-7701
▁Next	-7702
▁тест	-7703
▁хийе	-7704
▁гарав	-7705
▁захиа	-7706
▁Өдөрт	-7707
▁зуршил	-7708
▁нэгээр	-7709
▁таарах	-7710
▁тунгаа	-7711
▁барааны	-7712
▁дагуулж	-7713
▁туулсан	-7714
▁Интернет	-7715
▁бахархаж	-7716
▁оруулаад	-7717
▁тоглогчид	-7718
NU	-7719
if	-7720
Хүн	-7721
эгс	-7722
▁47	-7723
▁БОЛ	-7724
▁сод	-7725
▁уус	-7726
актик	-7727
сралт	-7728
▁түгж	-7729
▁үүсг	-7730
▁Автом	-7731
▁Аялал	-7732
▁дурын	-7733
▁номоо	-7734
▁сорилт	-7735
▁сэрэмж	-7736
▁хүрдэг	-7737
▁Ганцхан	-7738
▁Дээрээс	-7739
▁Сэлэнгэ	-7740
▁Хүүхдэд	-7741
▁биднээс	-7742
▁даатгал	-7743
▁хэдийнэ	-7744
▁дамжуулж	-7745
▁компаний	-7746
▁өөрийнхөөрөө	-7747
тү	-7748
out	-7749
ейц	-7750
ирт	-7751
цах	-7752
зүйн	-7753
▁10.	-7754
▁for	-7755
▁ААН	-7756
▁оюу	-7757
▁хус	-7758
инээв	-7759
▁дээж	-7760
▁жигд	-7761
▁цүнх	-7762
ижитал	-7763
▁гэнээ	-7764
▁явцыг	-7765
▁дуулга	-7766
▁зарлиг	-7767
▁хэллэг	-7768
▁хүрчээ	-7769
▁Угаасаа	-7770
▁талбайн	-7771
▁хуваагд	-7772
▁шагналыг	-7773
▁тэнгэрийн	-7774
▁Гуравдугаар	-7775
ама	-7776
▁Му	-7777
▁МҮ	-7778
▁Тр	-7779
▁ян	-7780
ианы	-7781
олон	-7782
▁(0)	-7783
▁Хоё	-7784
лөсөн	-7785
рафик	-7786
удлаа	-7787
▁бааз	-7788
▁бөөр	-7789
▁хонь	-7790
▁Дөрөв	-7791
▁бузар	-7792
▁уусан	-7793
▁Өдгөө	-7794
▁Төлбөр	-7795
▁салсан	-7796
▁суманд	-7797
▁сурдаг	-7798
▁чихээд	-7799
▁ярианы	-7800
▁Үүгээр	-7801
▁Канадын	-7802
▁сургамж	-7803
▁томилох	-7804
▁санаарай	-7805
▁түүнчлэн	-7806
▁хаалттай	-7807
▁Өглөөний	-7808
▁мэдээлсэн	-7809
▁мэдээлснээр	-7810
▁ed	-7811
▁18-	-7812
▁ИТХ	-7813
▁Хаг	-7814
▁алс	-7815
▁шог	-7816
Таныг	-7817
гэрэл	-7818
▁Говь	-7819
▁бонд	-7820
▁гүйж	-7821
▁джээ	-7822
▁клип	-7823
▁ноос	-7824
апитал	-7825
▁Далай	-7826
▁Ярилц	-7827
▁дарах	-7828
▁огцом	-7829
▁орхих	-7830
▁тариа	-7831
▁өнөөг	-7832
▁бүрээс	-7833
▁дуугаа	-7834
▁эрхэлж	-7835
▁болмоор	-7836
▁зэргийг	-7837
▁мэдэхэд	-7838
▁нүүрний	-7839
▁хариулж	-7840
▁амжилтад	-7841
▁Уучлаарай	-7842
▁ажиллахыг	-7843
▁мэдэгдлээ	-7844
▁ажиллахгүй	-7845
▁зарцуулдаг	-7846
▁тусламжтайгаар	-7847
▁Ми	-7848
лоод	-7849
соно	-7850
угаа	-7851
▁ИЙН	-7852
▁Өрг	-7853
▁Грек	-7854
▁баар	-7855
▁болд	-7856
▁уйлж	-7857
▁хомс	-7858
▁ядан	-7859
▁Жирэм	-7860
▁алуур	-7861
▁захын	-7862
▁эзлэх	-7863
▁айгаад	-7864
▁төлдөг	-7865
▁хавдар	-7866
▁хэлтэс	-7867
▁асуудаг	-7868
▁удаагүй	-7869
▁бусадтай	-7870
▁итгэлийг	-7871
▁тусгасан	-7872
▁онцлогтой	-7873
▁асуудлуудыг	-7874
▁58	-7875
▁Ди	-7876
▁Ли	-7877
ахан	-7878
чний	-7879
▁Com	-7880
▁ДЭМ	-7881
▁гий	-7882
длууд	-7883
услан	-7884
▁аагүй	-7885
▁занал	-7886
▁нуугд	-7887
▁хүрэл	-7888
▁дэлбэр	-7889
▁хариуд	-7890
▁хэлтэй	-7891
▁хүртээ	-7892
▁чихсэн	-7893
▁өргөтг	-7894
▁зэргээр	-7895
▁хэсгээс	-7896
▁эрхлэгч	-7897
▁боловсон	-7898
▁харамсаж	-7899
▁үйлдвэрт	-7900
▁Израилийн	-7901
▁ажиллуулж	-7902
▁хариултыг	-7903
▁эсрэгээрээ	-7904
▁гүйцэтгэдэг	-7905
▁хуралдаанаар	-7906
ля	-7907
ime	-7908
oft	-7909
▁En	-7910
▁ёр	-7911
ъект	-7912
▁Эрт	-7913
▁усыг	-7914
өгдсөн	-7915
▁Нохой	-7916
▁байлд	-7917
▁ирвэл	-7918
▁оройт	-7919
▁ялгаж	-7920
▁идэвхи	-7921
▁нүцгэн	-7922
▁хүрлээ	-7923
▁хөндий	-7924
▁явахыг	-7925
▁брэндийн	-7926
▁таалагдах	-7927
▁чадваргүй	-7928
▁өрсөлдөөн	-7929
▁хангалтгүй	-7930
▁худалдаанд	-7931
▁ажиллагаатай	-7932
шг	-7933
лэр	-7934
най	-7935
▁??	-7936
▁ХО	-7937
▁Mic	-7938
▁ЗХУ	-7939
▁дис	-7940
▁цээр	-7941
▁чдын	-7942
▁Даваа	-7943
▁Тэнэг	-7944
▁Төрөл	-7945
▁таньд	-7946
▁хором	-7947
▁бэлдэж	-7948
▁гээгүй	-7949
▁дүнгээ	-7950
▁хотоос	-7951
▁цэнхэр	-7952
▁үлдлээ	-7953
▁Ингэхэд	-7954
▁Оросууд	-7955
▁дуунууд	-7956
▁нөхдүүд	-7957
▁санадаг	-7958
▁хийлгэж	-7959
▁болгоныг	-7960
▁хараарай	-7961
▁хүсдэггүй	-7962
▁цэцэрлэгийн	-7963
ти	-7964
ипп	-7965
▁Хо	-7966
down	-7967
▁Стр	-7968
▁Сэд	-7969
▁өмд	-7970
айхан	-7971
▁Гэнэ	-7972
▁Майк	-7973
▁Тэтг	-7974
▁арал	-7975
▁эхэн	-7976
▁ойлго	-7977
▁хүдэр	-7978
▁ягаан	-7979
▁өсгөх	-7980
▁баригч	-7981
▁суртах	-7982
▁уншдаг	-7983
▁хийхээ	-7984
▁хотноо	-7985
▁чадлаа	-7986
▁Түүнтэй	-7987
▁төмрийн	-7988
▁шилжилт	-7989
▁Сургууль	-7990
▁асуултын	-7991
▁болгоход	-7992
▁нэрлэсэн	-7993
ld	-7994
Их	-7995
ард	-7996
вит	-7997
ейт	-7998
▁46	-7999
мэйл	-8000
▁Бер	-8001
▁ааш	-8002
галаг	-8003
▁гүйн	-8004
▁занг	-8005
▁оров	-8006
▁үсээ	-8007
▁сонго	-8008
▁өргөх	-8009
▁багтаж	-8010
▁биеийг	-8011
▁оросын	-8012
▁татаад	-8013
▁уугаад	-8014
▁хүүтэй	-8015
▁энерги	-8016
▁үлдээх	-8017
▁Нутгийн	-8018
▁дурсгал	-8019
▁таашаал	-8020
▁шинэхэн	-8021
▁ихэнхдээ	-8022
▁тангараг	-8023
▁хөдөлгөөнд	-8024
▁үйлчилгээнд	-8025
▁боловсролтой	-8026
az	-8027
age	-8028
хин	-8029
▁хх	-8030
галж	-8031
мард	-8032
▁Вал	-8033
▁ээд	-8034
▁виде	-8035
▁заас	-8036
▁тенд	-8037
▁Бүрэн	-8038
▁авагч	-8039
▁хошуу	-8040
▁хүсэн	-8041
▁өршөө	-8042
▁бөөний	-8043
▁дуусна	-8044
▁оюутны	-8045
▁тавтай	-8046
▁цаашаа	-8047
▁цалинг	-8048
бараагүй	-8049
▁нийцсэн	-8050
▁танхимд	-8051
▁шаардах	-8052
▁Мэдээлэл	-8053
▁Цэцэрлэг	-8054
▁ардчилал	-8055
▁бүлэглэл	-8056
▁тасалбар	-8057
▁Монголоос	-8058
▁бичигдсэн	-8059
▁гүйцэтгэл	-8060
▁туршилтын	-8061
▁залуучуудын	-8062
▁үгүйсгэхгүй	-8063
EE	-8064
ai	-8065
ѳѳ	-8066
▁ТЭ	-8067
▁ХК	-8068
илоо	-8069
▁бак	-8070
▁бир	-8071
▁өвс	-8072
▁Хуур	-8073
▁гэвч	-8074
▁хэлм	-8075
▁Пүрэв	-8076
▁балай	-8077
▁эвдэр	-8078
▁Оюутан	-8079
▁дуурай	-8080
▁малгай	-8081
▁намууд	-8082
▁согтуу	-8083
▁хэрэгц	-8084
▁эмчлэх	-8085
▁шуугиан	-8086
▁Судалгаа	-8087
▁анхаарна	-8088
▁зөөврийн	-8089
▁хүчилтөр	-8090
▁өгдөггүй	-8091
▁долдугаар	-8092
▁сонголтыг	-8093
aw	-8094
ӨН	-8095
ена	-8096
лид	-8097
▁Ач	-8098
▁Ял	-8099
▁600	-8100
▁ноо	-8101
▁шул	-8102
эцийн	-8103
▁зугт	-8104
▁хаях	-8105
▁юмны	-8106
▁Хүлээ	-8107
▁Швейц	-8108
▁аврал	-8109
▁товчл	-8110
▁эмгэг	-8111
▁Надаас	-8112
▁бүрээр	-8113
▁нэрлэх	-8114
▁хүлээд	-8115
▁хөдөлж	-8116
▁эсэхээ	-8117
▁өгөхөд	-8118
▁бүрдсэн	-8119
▁дууслаа	-8120
▁тэмдэгт	-8121
▁төрүүлж	-8122
▁шүүмжил	-8123
▁илгээсэн	-8124
▁хориглох	-8125
▁цэвэрхэн	-8126
▁эрчимтэй	-8127
▁хөдөлгүүр	-8128
▁технологийг	-8129
▁үйлдвэрлэсэн	-8130
ЗД	-8131
Цаг	-8132
хуу	-8133
▁41	-8134
арат	-8135
инох	-8136
▁бүж	-8137
▁лал	-8138
▁цор	-8139
ллийн	-8140
уулав	-8141
▁Лхаг	-8142
▁форм	-8143
элтгүй	-8144
▁даанч	-8145
▁мужид	-8146
▁орган	-8147
▁тахал	-8148
▁учраа	-8149
▁булчин	-8150
▁хашгир	-8151
▁хогийн	-8152
▁холбох	-8153
▁өмчийн	-8154
агдаагүй	-8155
▁байрлаж	-8156
▁эхнэрээ	-8157
лагдаагүй	-8158
▁ажилчдын	-8159
▁ирээдүйг	-8160
▁хамтрагч	-8161
▁хэрэгжих	-8162
▁өгүүллэг	-8163
▁Бизнесийн	-8164
▁ажиллахад	-8165
▁баригдсан	-8166
▁таамаглаж	-8167
▁асуудалгүй	-8168
▁стандартын	-8169
▁хангамжийн	-8170
▁хориглосон	-8171
OS	-8172
ly	-8173
ide	-8174
атф	-8175
орд	-8176
эвс	-8177
▁бл	-8178
▁гд	-8179
удар	-8180
▁Лив	-8181
▁ван	-8182
▁ним	-8183
нзүрх	-8184
▁төсл	-8185
witter	-8186
▁Гэрэл	-8187
▁Энийг	-8188
▁модон	-8189
▁оюуны	-8190
▁эдлэх	-8191
▁үлдэг	-8192
▁Захиал	-8193
▁комисс	-8194
▁машинд	-8195
▁пуужин	-8196
▁сайтад	-8197
▁тогтолц	-8198
▁тушаалд	-8199
▁түмнийг	-8200
▁явуулна	-8201
▁Баянзүрх	-8202
▁болоосой	-8203
▁залуутай	-8204
▁мэдэрсэн	-8205
▁тавигдах	-8206
▁фэйсбүүк	-8207
▁үүдэлтэй	-8208
▁байгаатай	-8209
▁баримтлал	-8210
te	-8211
▁is	-8212
Шинэ	-8213
исан	-8214
ууль	-8215
шинд	-8216
элэг	-8217
▁16-	-8218
▁Мон	-8219
▁гээл	-8220
▁нүүл	-8221
▁Даанч	-8222
▁Польш	-8223
▁алхах	-8224
▁бишээ	-8225
▁эмчид	-8226
▁өмсөж	-8227
▁Лондон	-8228
▁нэрлэг	-8229
▁төлөөх	-8230
▁хаврын	-8231
▁ээлжинд	-8232
▁тогтолцоог	-8233
ff	-8234
Эх	-8235
нэн	-8236
Олон	-8237
гоос	-8238
▁Ван	-8239
▁үеэ	-8240
ологи	-8241
▁байс	-8242
▁тэвр	-8243
▁хөгш	-8244
▁Өрөө	-8245
огдоно	-8246
▁Итгэл	-8247
▁нараа	-8248
▁ядуур	-8249
эгчдийн	-8250
▁Жаргал	-8251
▁Загвар	-8252
▁апплик	-8253
▁буйгаа	-8254
▁биелүүл	-8255
▁тамхины	-8256
▁таньдаг	-8257
▁Баттулга	-8258
▁хүлээдэг	-8259
▁хүсэлтээ	-8260
▁Сэтгэгдэл	-8261
▁бэлтгэлээ	-8262
▁бүтээлийг	-8263
▁тоглолтоо	-8264
▁тулгамдсан	-8265
▁гүйцэтгэсэн	-8266
ity	-8267
ros	-8268
▁мм	-8269
врыг	-8270
гооё	-8271
▁Дас	-8272
▁Чим	-8273
▁дул	-8274
▁мэл	-8275
▁хоч	-8276
андин	-8277
▁гийг	-8278
▁дарс	-8279
▁лийн	-8280
▁аваач	-8281
▁битүү	-8282
▁дуусч	-8283
▁намыг	-8284
▁оффис	-8285
▁хайрт	-8286
логдсон	-8287
▁updown	-8288
▁бүлэгт	-8289
▁дэвтэр	-8290
▁террор	-8291
▁томилг	-8292
▁гүйлгээ	-8293
▁заалтыг	-8294
▁санасан	-8295
▁авдаггүй	-8296
▁гэхээсээ	-8297
▁тээрмийн	-8298
▁төлбөрөө	-8299
▁амьдарсан	-8300
▁хороололд	-8301
▁цэвэрлэгч	-8302
▁шалтгааны	-8303
▁Оюутолгойн	-8304
Уул	-8305
ерс	-8306
цоо	-8307
ьет	-8308
▁бад	-8309
галах	-8310
цэцэг	-8311
▁Ухаа	-8312
▁хана	-8313
нийхээ	-8314
эхүүнд	-8315
▁сонсг	-8316
▁гэмтэл	-8317
▁орхиод	-8318
▁ходоод	-8319
▁авахдаа	-8320
▁дүүрэгт	-8321
▁мэндийг	-8322
▁өгөөрэй	-8323
▁тушаалын	-8324
▁хэмээжээ	-8325
▁судалгааг	-8326
▁тоглолтыг	-8327
▁байгуулагч	-8328
▁өөрчлөлтийн	-8329
▁сурталчилгааны	-8330
ск	-8331
лер	-8332
ойн	-8333
▁ОР	-8334
▁ге	-8335
нөөн	-8336
▁Гоё	-8337
▁Зөр	-8338
▁Төл	-8339
▁поп	-8340
▁саг	-8341
драга	-8342
▁авав	-8343
гуудын	-8344
▁ахиад	-8345
▁дгийг	-8346
▁модны	-8347
▁суваг	-8348
▁текст	-8349
▁Өнөөд	-8350
▁өдрөө	-8351
▁арьсан	-8352
▁доктор	-8353
▁олоход	-8354
▁хувааж	-8355
▁хэмнэх	-8356
▁Бүгдийг	-8357
▁Хөөрхий	-8358
▁дагавар	-8359
▁бүхэлдээ	-8360
▁хэрэгжүүл	-8361
▁хачирхалтай	-8362
▁Шаардлагатай	-8363
▁тодорхойлсон	-8364
ци	-8365
ӨВ	-8366
est	-8367
чив	-8368
ress	-8369
эрэл	-8370
Үгүй	-8371
▁Бад	-8372
▁чат	-8373
айгаа	-8374
▁Дорж	-8375
▁Иран	-8376
▁конс	-8377
▁Гэрээ	-8378
▁Ойрын	-8379
▁харам	-8380
▁хувьс	-8381
▁авилга	-8382
▁дурдах	-8383
▁жолоод	-8384
▁зантай	-8385
▁зөрчиж	-8386
▁мэтийн	-8387
▁Програм	-8388
▁газраар	-8389
▁үйлчилж	-8390
▁Тэгэхдээ	-8391
▁дэвсгэрт	-8392
▁оруулахгүй	-8393
▁зургадугаар	-8394
▁зөвшөөрлийг	-8395
▁хүүхдийнхээ	-8396
▁үйлдвэрлэгчид	-8397
▁or	-8398
▁ит	-8399
мөөр	-8400
шилт	-8401
▁Мин	-8402
▁Элс	-8403
▁яав	-8404
аанаа	-8405
▁адал	-8406
▁бсан	-8407
▁зочл	-8408
▁тайз	-8409
▁талх	-8410
▁толб	-8411
▁удаж	-8412
▁эрэм	-8413
▁Отгон	-8414
▁болио	-8415
▁оороо	-8416
▁платф	-8417
▁таниг	-8418
▁намаас	-8419
▁хаясан	-8420
▁өрхийн	-8421
▁агуулах	-8422
▁аппарат	-8423
▁зарчмыг	-8424
▁урагшаа	-8425
▁хайгуул	-8426
▁хүслийг	-8427
▁мэтчилэн	-8428
▁хэлээрэй	-8429
▁төхөөрөмжийг	-8430
▁^	-8431
ber	-8432
өөх	-8433
▁SE	-8434
▁ум	-8435
ight	-8436
ектр	-8437
длага	-8438
лдсэн	-8439
▁Сонс	-8440
▁дааж	-8441
▁ураг	-8442
▁өдий	-8443
▁тэгэх	-8444
▁хожиг	-8445
▁явбал	-8446
▁замдаа	-8447
▁зардаг	-8448
▁нүүдэл	-8449
▁социал	-8450
▁төрөлд	-8451
▁уриалж	-8452
▁чөлөөг	-8453
▁ээждээ	-8454
▁бүтэхгүй	-8455
▁хичээлээ	-8456
▁тэргүүлэх	-8457
ID	-8458
ЕХ	-8459
▁Й	-8460
▁sh	-8461
▁ДН	-8462
-201	-8463
Tube	-8464
гөөс	-8465
онго	-8466
▁Арг	-8467
▁ГҮЙ	-8468
▁Дэд	-8469
▁Сат	-8470
▁Тел	-8471
▁лүү	-8472
▁мул	-8473
гчийн	-8474
▁амаа	-8475
▁биет	-8476
▁хонг	-8477
▁чоно	-8478
уулгын	-8479
▁Бараа	-8480
▁дагах	-8481
▁засаж	-8482
▁мөсөн	-8483
▁өндөг	-8484
▁өсвөр	-8485
▁залууг	-8486
▁нилээн	-8487
▁хоолыг	-8488
▁ширүүн	-8489
▁Өвлийн	-8490
▁Хүүхдээ	-8491
▁буйгаар	-8492
▁дэмжинэ	-8493
▁толгойн	-8494
▁тэнгэрт	-8495
▁хийхээс	-8496
▁өдөрлөг	-8497
▁болгохыг	-8498
▁газартай	-8499
▁хамаарах	-8500
▁харагдсан	-8501
▁хоорондох	-8502
▁байрлуулах	-8503
▁тусгаарлах	-8504
▁илэрхийлдэг	-8505
ge	-8506
СК	-8507
▁АР	-8508
▁На	-8509
▁єг	-8510
гэлз	-8511
лалз	-8512
▁Дэв	-8513
▁Хэс	-8514
▁вэл	-8515
▁угт	-8516
▁хив	-8517
▁1992	-8518
▁Word	-8519
▁гүтг	-8520
▁зайн	-8521
▁хэлц	-8522
Тэгвэл	-8523
рахгүй	-8524
▁маягт	-8525
▁уналт	-8526
лэлтийн	-8527
▁Европт	-8528
▁Зөндөө	-8529
▁Соёлын	-8530
▁алдаад	-8531
▁саруул	-8532
▁төрийг	-8533
▁хүмүүн	-8534
▁өвдөлт	-8535
▁ангилал	-8536
▁дампуур	-8537
▁харьцах	-8538
▁хоолойг	-8539
▁хүдрийн	-8540
▁үзэхийг	-8541
▁Өөрсдөө	-8542
▁асуултыг	-8543
▁оролдсон	-8544
▁санамсар	-8545
▁оролдлого	-8546
▁толгойгоо	-8547
▁зэрэглэлийн	-8548
50	-8549
вч	-8550
уус	-8551
▁43	-8552
атар	-8553
члоо	-8554
▁25-	-8555
▁Хэм	-8556
▁Хян	-8557
▁аан	-8558
▁БНАС	-8559
▁ДЭМБ	-8560
▁Нууц	-8561
▁алах	-8562
▁Өнгө	-8563
лээрээ	-8564
▁аймар	-8565
▁хэлээ	-8566
▁хянан	-8567
▁Нээрээ	-8568
▁Хариул	-8569
▁Хурдан	-8570
▁нэмсэн	-8571
▁нүүрээ	-8572
▁самбар	-8573
▁сургах	-8574
▁тараах	-8575
▁барууны	-8576
▁гэлтгүй	-8577
▁нутгийг	-8578
▁нягтлан	-8579
▁сансрын	-8580
▁сэргээн	-8581
▁хоёрхон	-8582
▁цогцолб	-8583
▁өдөржин	-8584
▁ашиглана	-8585
▁мэдүүлэг	-8586
▁оролцдог	-8587
▁эзэмшдэг	-8588
▁ярилцлаа	-8589
▁хэлбэрийн	-8590
▁эрхлэгчид	-8591
▁эрчүүдийн	-8592
▁автоматаар	-8593
▁байгууллаа	-8594
▁байршуулах	-8595
▁шийдвэрлэж	-8596
▁замбараагүй	-8597
ip	-8598
ЗХ	-8599
The	-8600
бад	-8601
▁.0	-8602
▁76	-8603
▁US	-8604
▁ЭР	-8605
▁Анд	-8606
▁Кам	-8607
▁гул	-8608
▁зүр	-8609
▁физ	-8610
агнай	-8611
үүлэв	-8612
▁Вакц	-8613
▁Хувц	-8614
▁Эмээ	-8615
▁баяс	-8616
▁конц	-8617
▁төрч	-8618
▁эрэн	-8619
дөөгүй	-8620
енерал	-8621
үүгээр	-8622
▁Наран	-8623
▁гурил	-8624
▁тавин	-8625
▁Арабын	-8626
▁Богино	-8627
▁герман	-8628
▁зурвас	-8629
▁олонхи	-8630
▁унадаг	-8631
▁хүслээ	-8632
▁Төслийн	-8633
▁тодруул	-8634
▁төрхийг	-8635
▁учирсан	-8636
▁харьяал	-8637
▁яваарай	-8638
▁ёслолын	-8639
▁байцаагч	-8640
▁хатагтай	-8641
▁ширээний	-8642
▁эрдэмтэн	-8643
▁гардаггүй	-8644
▁тохиолдох	-8645
▁хэлбэртэй	-8646
▁шилжүүлэн	-8647
▁хүүхэлдэйн	-8648
))	-8649
ace	-8650
ian	-8651
▁Гу	-8652
▁Нь	-8653
▁Яд	-8654
Очир	-8655
гээж	-8656
рамд	-8657
сөөр	-8658
▁Увс	-8659
▁сэв	-8660
▁Зуны	-8661
▁ичих	-8662
▁туяа	-8663
▁бишүү	-8664
▁уруул	-8665
▁хорин	-8666
▁Үйлчл	-8667
▁Нэмэлт	-8668
▁зэрлэг	-8669
▁сартай	-8670
▁таслан	-8671
▁тойрны	-8672
▁үүгээр	-8673
▁Байнгын	-8674
▁байртай	-8675
▁дүнгийн	-8676
▁зөвлөлд	-8677
▁тоглоод	-8678
▁агуулдаг	-8679
▁хүрэхийн	-8680
▁зохицуулж	-8681
▁нэмэгдэнэ	-8682
▁тохиолдож	-8683
▁хийдэггүй	-8684
▁тусламжийн	-8685
▁тэмдэглэдэг	-8686
▁Улаанбаатарт	-8687
▁хязгаарлагдмал	-8688
la	-8689
ОК	-8690
аул	-8691
зон	-8692
сөг	-8693
тий	-8694
цын	-8695
▁03	-8696
▁by	-8697
ious	-8698
двол	-8699
▁pre	-8700
анхай	-8701
иарай	-8702
логын	-8703
▁2001	-8704
▁Петр	-8705
▁Холл	-8706
▁бэрт	-8707
▁наяд	-8708
▁ширт	-8709
аангуй	-8710
лаарай	-8711
этгэлц	-8712
▁Яахав	-8713
▁ослын	-8714
▁харъя	-8715
▁эзэлж	-8716
▁үзжээ	-8717
▁БНАСАУ	-8718
▁жинтэй	-8719
▁тэгсэн	-8720
▁тэнцэх	-8721
▁түймэр	-8722
▁уудаас	-8723
▁холбог	-8724
▁өдрөөр	-8725
▁бүтээмж	-8726
▁дугаарт	-8727
▁контент	-8728
▁хооллох	-8729
▁Тээврийн	-8730
▁алдахгүй	-8731
▁амжилтыг	-8732
▁дарангуй	-8733
▁сураггүй	-8734
▁чигээрээ	-8735
▁шаардсан	-8736
▁төрүүлсэн	-8737
▁зорилгодоо	-8738
▁танилцуулсан	-8739
▁хэрэглэгддэг	-8740
ram	-8741
жел	-8742
шоо	-8743
▁Jo	-8744
▁см	-8745
▁1-2	-8746
▁ирц	-8747
▁үрж	-8748
▁МУИС	-8749
омжгүй	-8750
▁архив	-8751
▁юмгүй	-8752
▁сошиал	-8753
▁танаас	-8754
▁шалгана	-8755
▁ялгавар	-8756
▁өгөгдөл	-8757
▁төлөөлөг	-8758
▁хамарсан	-8759
▁хийлгэсэн	-8760
▁болохоороо	-8761
▁төлөвлөгөөтэй	-8762
MX	-8763
ud	-8764
ug	-8765
Ер	-8766
ОНГ	-8767
иль	-8768
хир	-8769
Амар	-8770
Ямар	-8771
▁250	-8772
▁Ваш	-8773
архан	-8774
үүдэр	-8775
▁Архи	-8776
▁проф	-8777
▁ээээ	-8778
▁үхэж	-8779
▁өсөж	-8780
▁Библи	-8781
▁тулаа	-8782
▁эдэлж	-8783
▁ялсан	-8784
▁үстэй	-8785
▁Өсвөр	-8786
▁Банкны	-8787
▁Зөвлөл	-8788
▁Малайз	-8789
▁Ногоон	-8790
▁Филипп	-8791
▁хурааж	-8792
▁хэвлэх	-8793
▁YouTube	-8794
▁гадуурх	-8795
▁хайлтын	-8796
▁Хөтөлбөр	-8797
▁гарагийн	-8798
▁захирамж	-8799
▁тэргүүлж	-8800
▁үйлчлэгч	-8801
▁Цахилгаан	-8802
▁нийтээрээ	-8803
▁дээшлүүлэх	-8804
▁Коронавирус	-8805
aa	-8806
єв	-8807
аск	-8808
▁57	-8809
▁ья	-8810
▁Үе	-8811
атин	-8812
ьдог	-8813
▁Гом	-8814
▁нүг	-8815
▁сий	-8816
▁хүз	-8817
▁чир	-8818
▁Ноён	-8819
▁зайг	-8820
▁хийс	-8821
▁хөөж	-8822
гээгүй	-8823
▁амтай	-8824
▁метал	-8825
▁робот	-8826
▁шахуу	-8827
▁шороо	-8828
▁Вашинг	-8829
▁Машины	-8830
▁баржээ	-8831
▁гэгээр	-8832
▁даггүй	-8833
▁зээлээ	-8834
▁корпор	-8835
▁онцолж	-8836
▁Гүйцэтг	-8837
▁байлгаж	-8838
▁гэрээнд	-8839
▁мартсан	-8840
▁сексийн	-8841
▁сэдвийг	-8842
▁түвшинг	-8843
▁хүрэхэд	-8844
▁үүргийн	-8845
▁бизнесээ	-8846
▁ирүүлсэн	-8847
▁хичээсэн	-8848
▁ашиглахыг	-8849
▁бүлийнхэн	-8850
▁бөмбөгийн	-8851
▁залуугийн	-8852
▁үйлчилдэг	-8853
▁хэрэгжүүлнэ	-8854
iz	-8855
Яг	-8856
Ном	-8857
Төр	-8858
▁De	-8859
▁Ex	-8860
▁кк	-8861
▁эк	-8862
▁Роб	-8863
▁Урд	-8864
▁шум	-8865
иагүй	-8866
▁Авар	-8867
▁колл	-8868
виттер	-8869
▁Бүтэн	-8870
▁бялуу	-8871
▁замаа	-8872
▁тахил	-8873
▁хүснэ	-8874
▁Чингэл	-8875
▁даралт	-8876
▁дуудах	-8877
▁нүдээр	-8878
▁Хариулт	-8879
▁асуулаа	-8880
▁ижилхэн	-8881
▁ойлгоно	-8882
▁суулгаж	-8883
▁тоглоно	-8884
▁хаягдал	-8885
▁ажлаасаа	-8886
▁гэдэгтэй	-8887
▁хөгжлийг	-8888
▁явагддаг	-8889
▁үүсгэдэг	-8890
▁өндөртэй	-8891
▁доллараар	-8892
▁тоглоомыг	-8893
▁түрээсийн	-8894
▁мэдрэмжийг	-8895
▁эмэгтэйчүүдэд	-8896
год	-8897
дав	-8898
уал	-8899
шор	-8900
▁Le	-8901
▁ре	-8902
NUMX	-8903
гоод	-8904
гөөд	-8905
▁Кол	-8906
▁Сав	-8907
▁дыг	-8908
▁жүж	-8909
▁сэх	-8910
даанд	-8911
лагад	-8912
ээлээ	-8913
▁Туул	-8914
▁амил	-8915
Яагаад	-8916
▁амраг	-8917
▁илрэл	-8918
▁чихэр	-8919
▁Өмнөг	-8920
▁Эртний	-8921
▁гялалз	-8922
▁малчин	-8923
▁мөрдөж	-8924
▁хураах	-8925
▁болхоор	-8926
▁бүсгүйг	-8927
▁тархины	-8928
▁учиргүй	-8929
▁хороонд	-8930
▁эзэмшиг	-8931
▁үзэгчид	-8932
▁өгөхөөр	-8933
▁гэнэтийн	-8934
▁дараалал	-8935
▁тэргүүний	-8936
▁дэлгүүрийн	-8937
▁шаардагдах	-8938
▁шинэчилсэн	-8939
▁ойлгодоггүй	-8940
up	-8941
▁th	-8942
▁ЫН	-8943
▁Дор	-8944
ongol	-8945
▁идээ	-8946
▁уйтг	-8947
▁Sonin	-8948
▁XNUMX	-8949
▁буурч	-8950
▁илэрч	-8951
▁Баатар	-8952
▁сараар	-8953
▁Асуудал	-8954
▁барьдаг	-8955
▁дотроос	-8956
▁залгамж	-8957
▁мөнхийн	-8958
▁тайгаар	-8959
▁хүргэнэ	-8960
▁эзэлдэг	-8961
▁ангилалд	-8962
▁хүрэлцэн	-8963
▁өгүүлсэн	-8964
▁барилдаан	-8965
▁ашиглалтын	-8966
▁шалтгаална	-8967
▁борлуулалтын	-8968
▁согтууруулах	-8969
▁таалагдахгүй	-8970
ӨЛ	-8971
дөн	-8972
екц	-8973
жав	-8974
▁(3	-8975
▁Ес	-8976
▁ТҮ	-8977
▁May	-8978
▁Алс	-8979
▁Амр	-8980
▁ТББ	-8981
Хэрэв	-8982
агтаа	-8983
▁2002	-8984
Баасан	-8985
▁Номын	-8986
▁дагал	-8987
▁дайнд	-8988
▁ингэх	-8989
▁оршиж	-8990
▁түшиг	-8991
▁эхээс	-8992
▁Биеийн	-8993
▁Ертөнц	-8994
▁Москва	-8995
▁холбож	-8996
▁Туркийн	-8997
▁Энхболд	-8998
▁зайлуул	-8999
▁машинаа	-9000
▁салшгүй	-9001
▁өгүүлэх	-9002
▁дугаарыг	-9003
▁хохирогч	-9004
▁бизнесийг	-9005
▁зайлсхийх	-9006
▁мэдээлэлд	-9007
▁сонсогдож	-9008
▁тэмдэглэг	-9009
▁шинэчлэлт	-9010
▁дутагдалтай	-9011
###	-9012
***	-9013
orn	-9014
ика	-9015
▁БО	-9016
▁Бил	-9017
▁рок	-9018
Надад	-9019
▁заан	-9020
▁барах	-9021
▁унаад	-9022
▁үүдэн	-9023
▁Дандаа	-9024
▁босоод	-9025
▁гайхах	-9026
▁дагуул	-9027
▁итгэмж	-9028
▁мэдлээ	-9029
▁намрын	-9030
▁орчлон	-9031
▁солигд	-9032
▁уууууу	-9033
▁хичээн	-9034
▁comment	-9035
▁адилгүй	-9036
▁амласан	-9037
▁бодисын	-9038
▁зүйлсээ	-9039
▁ядарсан	-9040
▁бодоогүй	-9041
▁дэлгүүрт	-9042
▁хаагчдын	-9043
▁хүртээмж	-9044
▁хадгаламж	-9045
▁хориглоно	-9046
pt	-9047
БС	-9048
ери	-9049
лет	-9050
▁Кл	-9051
▁ми	-9052
имог	-9053
мууд	-9054
огоо	-9055
тлээ	-9056
▁120	-9057
▁Кор	-9058
▁Хол	-9059
▁цаа	-9060
▁ядр	-9061
▁ядах	-9062
▁ялыг	-9063
▁үхэл	-9064
гуудыг	-9065
үүлийн	-9066
▁айраг	-9067
▁атлаа	-9068
▁идээд	-9069
▁цайны	-9070
▁шавьж	-9071
▁Хэвлэл	-9072
▁атаарх	-9073
▁болсны	-9074
▁мэдэлд	-9075
▁хорлох	-9076
▁хүчинд	-9077
▁эмчийн	-9078
▁үүлсэн	-9079
▁дадлага	-9080
▁дансанд	-9081
▁дүрмийг	-9082
▁хятадын	-9083
▁эрэлхий	-9084
▁явагдах	-9085
▁Үнэнийг	-9086
▁үнэмшил	-9087
▁Худалдан	-9088
▁алдаатай	-9089
▁жаргалыг	-9090
▁залуусын	-9091
▁орууллаа	-9092
▁алдагдсан	-9093
▁дэлгэцийн	-9094
▁коммунист	-9095
▁шалтгаалан	-9096
PS	-9097
ИГ	-9098
уйц	-9099
▁And	-9100
▁Тоо	-9101
▁бет	-9102
▁веб	-9103
▁мик	-9104
▁эрж	-9105
▁өөх	-9106
ьетна	-9107
өөдөг	-9108
▁орил	-9109
▁уриа	-9110
ийгаач	-9111
▁Порно	-9112
▁Умард	-9113
▁авбал	-9114
▁гавья	-9115
▁сахиу	-9116
▁эмийг	-9117
▁үйлдл	-9118
▁Надтай	-9119
▁Хариуц	-9120
▁гэгээн	-9121
▁дуулна	-9122
▁насаар	-9123
▁тайзан	-9124
▁улстай	-9125
▁хөтлөх	-9126
▁Үлдсэн	-9127
▁авахаас	-9128
▁гарахыг	-9129
▁доогуур	-9130
▁зорчигч	-9131
▁найрагч	-9132
▁явдлууд	-9133
▁зохиолын	-9134
▁санаагаа	-9135
▁эргүүлэн	-9136
▁боддоггүй	-9137
▁болчихдог	-9138
▁сурагчдын	-9139
▁сургуулийг	-9140
▁3,	-9141
▁Ad	-9142
▁Аг	-9143
▁НИ	-9144
Хүүх	-9145
гээх	-9146
▁МЭД	-9147
▁Ниг	-9148
▁Хас	-9149
▁Чой	-9150
Улаан	-9151
елийн	-9152
▁Буян	-9153
▁тулж	-9154
лахгүй	-9155
▁тарих	-9156
▁тасар	-9157
▁уурын	-9158
▁франц	-9159
▁шорон	-9160
▁зайтай	-9161
▁нэмээд	-9162
▁хотхон	-9163
▁Сургалт	-9164
▁нутгаас	-9165
▁тиймээс	-9166
▁холболт	-9167
Эрдэнэбат	-9168
▁Previous	-9169
▁Татварын	-9170
▁багаасаа	-9171
▁оруулдаг	-9172
▁хэлэлцээ	-9173
▁ээжийгээ	-9174
▁ойлголтыг	-9175
▁хамгаална	-9176
▁хэрэглээнд	-9177
▁баталгаатай	-9178
▁түрээслүүлнэ	-9179
ers	-9180
Бол	-9181
▁IS	-9182
▁эш	-9183
чрал	-9184
▁Эгч	-9185
▁Экс	-9186
▁Түлх	-9187
▁ахин	-9188
▁дүүс	-9189
▁Станд	-9190
▁Анхаар	-9191
▁Бурхны	-9192
▁Гэгээн	-9193
▁Хулгай	-9194
▁авъяас	-9195
▁арслан	-9196
▁объект	-9197
▁сунгах	-9198
▁тогооч	-9199
▁хөгжин	-9200
▁хүлээнэ	-9201
▁Хятадууд	-9202
▁амьдарна	-9203
▁нөхөрлөл	-9204
▁прокурор	-9205
▁чөлөөлөг	-9206
▁шүүлтүүр	-9207
▁Чингэлтэй	-9208
▁ашиглахад	-9209
▁газруудад	-9210
▁нийлүүлэх	-9211
▁ойлголттой	-9212
▁мэргэжилтэй	-9213
ox	-9214
юс	-9215
ree	-9216
ааа	-9217
инж	-9218
мон	-9219
▁98	-9220
усан	-9221
▁Вен	-9222
▁Дуг	-9223
▁ойд	-9224
▁шиж	-9225
анцар	-9226
гээлт	-9227
▁амьс	-9228
▁линк	-9229
rosoft	-9230
▁бичил	-9231
▁төлнө	-9232
▁юугаа	-9233
▁академ	-9234
▁барааг	-9235
▁больчих	-9236
▁зөвшилц	-9237
▁ирэхдээ	-9238
▁нөөцийг	-9239
▁тоохгүй	-9240
▁хийсний	-9241
▁бүтээлээ	-9242
▁өнгөрлөө	-9243
▁орлоготой	-9244
▁хүлээгээд	-9245
▁өнөөдрөөс	-9246
▁бүртгэлтэй	-9247
▁танилцууллаа	-9248
▁хадгаламжийн	-9249
▁үйлдвэрлэдэг	-9250
їй	-9251
▁54	-9252
▁64	-9253
▁ка	-9254
▁оф	-9255
▁са	-9256
Сайн	-9257
гоны	-9258
кийн	-9259
тгай	-9260
▁Итг	-9261
▁Лин	-9262
▁цон	-9263
актор	-9264
ардаг	-9265
лгийг	-9266
омгүй	-9267
уулъя	-9268
▁1999	-9269
▁post	-9270
▁Фото	-9271
▁Халх	-9272
▁давс	-9273
▁довт	-9274
▁такс	-9275
уулбал	-9276
▁Алтай	-9277
▁Гадны	-9278
▁Тэгэх	-9279
▁Төлөв	-9280
▁ХӨСҮТ	-9281
▁олдох	-9282
▁оронч	-9283
▁тогоо	-9284
▁яддаг	-9285
▁үнэрт	-9286
▁гартаа	-9287
▁гэрээс	-9288
▁дарсан	-9289
▁зуурын	-9290
▁нууцыг	-9291
▁сайдад	-9292
▁тайлаг	-9293
▁хавтан	-9294
▁хайрла	-9295
▁цуцлах	-9296
▁Түлхүүр	-9297
▁яамнаас	-9298
▁амжилтын	-9299
▁дууссаны	-9300
▁захиалах	-9301
▁тусалсан	-9302
▁тэтгэлэг	-9303
▁анзаарсан	-9304
▁дүгнэлтийг	-9305
ile	-9306
нов	-9307
ууу	-9308
хор	-9309
▁CO	-9310
▁Да	-9311
▁Жи	-9312
▁Сө	-9313
▁аф	-9314
анаа	-9315
дэгч	-9316
лгуу	-9317
▁190	-9318
▁Сув	-9319
чдаас	-9320
▁!!!!	-9321
▁1996	-9322
▁аялж	-9323
▁дийг	-9324
▁ялаг	-9325
түвшин	-9326
▁Онгоц	-9327
▁Сонин	-9328
▁форум	-9329
▁хилэн	-9330
▁Дасгал	-9331
▁Шөнийн	-9332
▁агаарт	-9333
▁биетэй	-9334
▁давтан	-9335
▁дараад	-9336
▁дэвшиж	-9337
▁онцлон	-9338
▁салгаж	-9339
▁төрчид	-9340
▁хилээр	-9341
▁цэнийг	-9342
▁Компани	-9343
▁Швейцар	-9344
▁бичгээр	-9345
▁доошгүй	-9346
▁саналын	-9347
▁Интернэт	-9348
▁машинтай	-9349
▁насаараа	-9350
▁Мэдээжийн	-9351
▁улстөрийн	-9352
▁шийдвэрээ	-9353
▁үйлдвэрлэг	-9354
▁баталгаажуулах	-9355
ХБ	-9356
гох	-9357
рыг	-9358
▁4:	-9359
▁ОН	-9360
бирч	-9361
члээ	-9362
үгээ	-9363
▁Бут	-9364
▁ЭМЯ	-9365
▁мон	-9366
▁цэс	-9367
▁цөл	-9368
амгай	-9369
▁Арга	-9370
▁Шөнө	-9371
▁талт	-9372
▁хойч	-9373
▁өвөг	-9374
▁Алхам	-9375
▁Хожим	-9376
▁алийг	-9377
▁аминд	-9378
▁казин	-9379
▁тэгэж	-9380
▁уулах	-9381
▁хаяад	-9382
▁Жолооч	-9383
▁Төрсөн	-9384
▁зураач	-9385
▁нойтон	-9386
▁улмаар	-9387
▁үеийнх	-9388
▁үүсээд	-9389
▁Италийн	-9390
▁амьсгаа	-9391
▁нийтээр	-9392
▁тойрогт	-9393
▁толгойг	-9394
▁шийддэг	-9395
▁шийдлээ	-9396
▁Архангай	-9397
▁Сонгууль	-9398
▁засварын	-9399
▁зэрэгцэн	-9400
▁мөрийтэй	-9401
▁тариалан	-9402
▁хамаатан	-9403
▁эмэгтэйн	-9404
▁дуусаагүй	-9405
▁тушаалтан	-9406
▁хэрэглээг	-9407
▁байгуулдаг	-9408
▁зориулалтаар	-9409
▁төлөвлөгөөний	-9410
сад	-9411
сүх	-9412
▁56	-9413
▁Лу	-9414
хонд	-9415
▁Tag	-9416
▁Хаж	-9417
▁Янз	-9418
▁уяа	-9419
▁єєр	-9420
измын	-9421
руулж	-9422
▁####	-9423
▁диск	-9424
▁халх	-9425
▁хоос	-9426
▁цамц	-9427
Сайхан	-9428
эгджээ	-9429
▁Яасан	-9430
▁ангиж	-9431
▁начин	-9432
▁Жаахан	-9433
▁буурах	-9434
▁луулах	-9435
▁тарааж	-9436
▁тэмүүл	-9437
▁хүндэт	-9438
▁хүртэж	-9439
▁шивээс	-9440
▁эрхэнд	-9441
▁үгсийг	-9442
▁өвчлөл	-9443
▁Хугацаа	-9444
▁болохоо	-9445
▁суудлын	-9446
▁хороолол	-9447
▁хувцасны	-9448
▁шатахуун	-9449
▁үүсгэсэн	-9450
▁мэргэшсэн	-9451
▁сонирхлын	-9452
▁уулзалтын	-9453
▁хялбархан	-9454
▁цуглуулга	-9455
▁хэмжээнээс	-9456
▁өнгөрүүлсэн	-9457
▁Хэрэглэгчийн	-9458
▁Ерөнхийлөгчид	-9459
ax	-9460
ИД	-9461
ТО	-9462
шд	-9463
ite	-9464
▁de	-9465
▁АЖ	-9466
▁АЛ	-9467
нөөр	-9468
▁22-	-9469
▁Гам	-9470
▁Дүү	-9471
▁Фин	-9472
▁Яар	-9473
▁5000	-9474
▁Fuck	-9475
▁Дүүр	-9476
▁Мөнг	-9477
▁Тийн	-9478
▁Усны	-9479
▁ахиц	-9480
▁масс	-9481
▁ярив	-9482
Намайг	-9483
амжгүй	-9484
лагаар	-9485
▁ортой	-9486
▁хужаа	-9487
▁Баримт	-9488
▁мэдүүл	-9489
▁охидын	-9490
▁сайтыг	-9491
▁хүсээд	-9492
▁шүдний	-9493
▁анагаах	-9494
▁залбирч	-9495
▁нэгжийн	-9496
▁онгойлг	-9497
▁философ	-9498
▁хойноос	-9499
нэгдүгээр	-9500
▁Амралтын	-9501
▁Мөнгөний	-9502
▁агуулгыг	-9503
▁нотолгоо	-9504
▁цалинтай	-9505
▁Microsoft	-9506
▁гишүүдийг	-9507
▁гуравдагч	-9508
▁сургалтад	-9509
▁харагдаад	-9510
▁хэлэлцэнэ	-9511
▁сонгуулийг	-9512
▁стандартыг	-9513
▁хэрэглэхэд	-9514
▁үйлдвэрлэж	-9515
ХЯ	-9516
ён	-9517
ust	-9518
Гэр	-9519
ара	-9520
бур	-9521
уйн	-9522
▁Ши	-9523
хоёр	-9524
▁май	-9525
▁сох	-9526
▁next	-9527
▁Чуул	-9528
▁бөгл	-9529
▁донт	-9530
▁нүүж	-9531
▁хөрг	-9532
▁Хатуу	-9533
▁баатр	-9534
▁Африкт	-9535
▁Түрээс	-9536
▁аяллын	-9537
▁болноо	-9538
▁дотуур	-9539
▁огцрох	-9540
▁орчимд	-9541
▁сонины	-9542
▁чихдаг	-9543
▁ёстойг	-9544
▁үүсдэг	-9545
▁өмссөн	-9546
▁Германд	-9547
▁бодисыг	-9548
▁маягийн	-9549
▁нэгтгэх	-9550
▁практик	-9551
▁сэргийл	-9552
▁асуугаад	-9553
▁зохиосон	-9554
▁тогтооно	-9555
▁улсуудын	-9556
хоёрдугаар	-9557
үрэлбаатар	-9558
▁асуудлаас	-9559
▁гишүүнийг	-9560
▁гишүүнээр	-9561
▁дараагаар	-9562
▁тулгардаг	-9563
▁уралдаанд	-9564
AS	-9565
▁us	-9566
▁ШУ	-9567
▁Хой	-9568
▁хөм	-9569
▁Марк	-9570
ектрон	-9571
▁Оролц	-9572
▁Хэсэг	-9573
▁гаран	-9574
▁домог	-9575
▁олжээ	-9576
▁ордын	-9577
▁радио	-9578
▁зориуд	-9579
▁нөхрөө	-9580
▁санаан	-9581
▁сүмийн	-9582
▁шүүдээ	-9583
▁өөдрөг	-9584
▁Тоглоом	-9585
▁авлигын	-9586
▁багахан	-9587
▁бэлчээр	-9588
▁дүнгээр	-9589
▁лагдсан	-9590
▁Харилцаа	-9591
▁бүлээрээ	-9592
▁гаргахыг	-9593
▁гаригийн	-9594
▁гэрлэсэн	-9595
▁иргэдээс	-9596
▁орчихсон	-9597
▁санахгүй	-9598
▁хуудсанд	-9599
▁хэлтсийн	-9600
▁Боловсрол	-9601
▁гишүүнтэй	-9602
▁санагдлаа	-9603
▁сэтгэцийн	-9604
▁хэрэглэхгүй	-9605
co	-9606
АД	-9607
эк	-9608
ҮР	-9609
УУД	-9610
ейс	-9611
▁="	-9612
▁Th	-9613
гэвч	-9614
хинд	-9615
▁Вик	-9616
▁зуз	-9617
антик	-9618
ессор	-9619
лэвэл	-9620
▁Ховд	-9621
▁курс	-9622
▁харш	-9623
зандан	-9624
эгдээд	-9625
▁анкет	-9626
▁явцын	-9627
▁өрийн	-9628
Амгалан	-9629
гүүдийг	-9630
лагагүй	-9631
▁лигийн	-9632
▁малчид	-9633
▁тоосон	-9634
▁дуулаад	-9635
▁тархсан	-9636
▁төслүүд	-9637
▁хайгаад	-9638
▁шилжсэн	-9639
▁шимтгэл	-9640
▁шинэлэг	-9641
▁үзэхээр	-9642
▁өвчнийг	-9643
▁өнцгөөс	-9644
▁авчихсан	-9645
▁бөмбөлөг	-9646
▁дулаахан	-9647
▁нийгмийг	-9648
▁платформ	-9649
▁хуралдаж	-9650
▁хүчинтэй	-9651
▁цахимаар	-9652
▁эзэмшигч	-9653
▁бүтэлгүйт	-9654
▁зайлуулах	-9655
▁менежментийн	-9656
AN	-9657
Ор	-9658
лл	-9659
ive	-9660
Үүл	-9661
өрч	-9662
▁52	-9663
▁1.5	-9664
▁700	-9665
▁Нор	-9666
▁Цус	-9667
▁Цөм	-9668
▁жав	-9669
▁лоо	-9670
анаас	-9671
овийн	-9672
эмээр	-9673
үүлье	-9674
▁1998	-9675
▁Хэнд	-9676
▁араа	-9677
▁град	-9678
▁зүүх	-9679
▁Ираны	-9680
▁Казах	-9681
▁Төлөө	-9682
▁аваас	-9683
▁Өөрчл	-9684
▁Дөнгөж	-9685
▁Испани	-9686
▁Парлам	-9687
▁Тэрийг	-9688
▁айхтар	-9689
▁байсны	-9690
▁бэлдэх	-9691
▁лаагүй	-9692
▁сэтгэг	-9693
▁хаасан	-9694
▁шалтаг	-9695
▁Израиль	-9696
▁авалтын	-9697
▁багтдаг	-9698
▁журмаар	-9699
▁үзэхгүй	-9700
▁Тэгэхгүй	-9701
▁алдалгүй	-9702
▁гунигтай	-9703
▁зорилгоо	-9704
▁нөлөөлнө	-9705
▁шүүмжилж	-9706
▁Ганцаараа	-9707
▁автобусны	-9708
▁ойлгуулах	-9709
▁хүсэлтээр	-9710
▁өгөгдлийг	-9711
▁байшингийн	-9712
▁нийтлэлийг	-9713
▁оролцохгүй	-9714
▁сэтгүүлчид	-9715
▁компьютерийн	-9716
ОГ	-9717
се	-9718
ата	-9719
нал	-9720
уут	-9721
▁1/	-9722
▁[1	-9723
амин	-9724
врын	-9725
▁III	-9726
▁Иер	-9727
▁Хуу	-9728
▁жан	-9729
▁ноё	-9730
▁хак	-9731
▁шам	-9732
▁үср	-9733
оолоо	-9734
▁3000	-9735
▁Хурд	-9736
▁сныг	-9737
▁Өвөл	-9738
дахгүй	-9739
▁Архив	-9740
▁усаар	-9741
▁эргүү	-9742
гаанаас	-9743
▁бичигт	-9744
▁бодолд	-9745
▁жилүүд	-9746
▁нуудыг	-9747
▁урьдын	-9748
▁Үнэгүй	-9749
▁Дэлхийд	-9750
▁дижитал	-9751
▁дүрмийн	-9752
▁зэвсэгт	-9753
▁унтраах	-9754
▁гэдэгтээ	-9755
▁илрүүлэх	-9756
▁хандуулж	-9757
▁эхлэхээс	-9758
үрэлсүхийн	-9759
▁бахархдаг	-9760
▁гэрийнхэн	-9761
▁дотооддоо	-9762
▁нөхцөлийг	-9763
▁тээрэмдэх	-9764
▁үндсэндээ	-9765
▁тоглолтонд	-9766
▁хэрэгцээнд	-9767
▁үйлчлүүлэгчид	-9768
ве	-9769
гн	-9770
roid	-9771
анди	-9772
▁Хаш	-9773
▁Шир	-9774
▁фэн	-9775
ацгаа	-9776
елдэг	-9777
▁засч	-9778
▁зурж	-9779
▁уялд	-9780
чихсөн	-9781
▁Спорт	-9782
▁больж	-9783
▁салаа	-9784
▁тайвш	-9785
▁баасан	-9786
▁босгох	-9787
▁дансны	-9788
▁доошоо	-9789
▁сервер	-9790
▁буулгаж	-9791
▁зүрхний	-9792
▁суугчид	-9793
▁тогтнол	-9794
▁хаягаар	-9795
▁Олимпийн	-9796
▁заналхий	-9797
▁тойргийн	-9798
▁хүрээний	-9799
▁явчихсан	-9800
▁Тоглоомын	-9801
▁анхааралд	-9802
▁хурдацтай	-9803
▁амьдралтай	-9804
▁дамжуулагч	-9805
▁хүчилтөрөгчийн	-9806
рт	-9807
ӨГ	-9808
▁Є	-9809
▁🙂	-9810
ame	-9811
ark	-9812
Аав	-9813
мен	-9814
▁Ян	-9815
▁ла	-9816
цогт	-9817
▁Лав	-9818
▁Нал	-9819
▁вол	-9820
▁нөг	-9821
▁ооо	-9822
▁хоб	-9823
ээлэг	-9824
▁Евро	-9825
▁хутг	-9826
▁ямаа	-9827
шилтай	-9828
▁1990-	-9829
▁Эргэн	-9830
▁гарыг	-9831
▁заалд	-9832
▁тодор	-9833
▁томьё	-9834
▁хөлөө	-9835
▁Боломж	-9836
▁Булган	-9837
▁Вьетна	-9838
▁Худлаа	-9839
▁команд	-9840
▁суулга	-9841
▁хараал	-9842
▁шинийн	-9843
▁шуудан	-9844
▁өмсдөг	-9845
▁ажиглаж	-9846
▁болгоны	-9847
▁зүйлдээ	-9848
▁математ	-9849
▁сануулж	-9850
▁товчийг	-9851
▁хийгдэх	-9852
▁эргүүлж	-9853
▁аятайхан	-9854
▁баривчил	-9855
▁бүдүүлэг	-9856
▁гадагшаа	-9857
▁гараараа	-9858
▁зэрэгтэй	-9859
▁халдлага	-9860
▁гэдгээрээ	-9861
▁дэмжихгүй	-9862
▁ойролцоох	-9863
▁улстөрчид	-9864
▁Судалгааны	-9865
▁гүйцэтгэгч	-9866
▁илэрхийлье	-9867
▁оруулагчид	-9868
▁хязгааргүй	-9869
▁хариуцлагыг	-9870
▁хэрэгжүүлсэн	-9871
НА	-9872
ерг	-9873
икл	-9874
рөх	-9875
тул	-9876
▁яа	-9877
orld	-9878
жигн	-9879
лгах	-9880
▁Res	-9881
▁гэл	-9882
▁зоо	-9883
▁лэж	-9884
▁Швед	-9885
▁аран	-9886
▁лагч	-9887
▁албыг	-9888
▁эргэц	-9889
▁өвдөж	-9890
▁Улстөр	-9891
▁бардам	-9892
▁градус	-9893
▁график	-9894
▁зэсийн	-9895
▁мартах	-9896
▁тэртээ	-9897
▁өнгийг	-9898
▁Барилга	-9899
▁Дэлгүүр	-9900
▁зүйлтэй	-9901
▁орлогыг	-9902
▁уурхайд	-9903
▁эртнээс	-9904
▁эхлүүлж	-9905
▁бодлогоо	-9906
▁гадаргуу	-9907
▁гишүүдэд	-9908
▁иргэддээ	-9909
▁мэдэгдэв	-9910
▁татварыг	-9911
▁хүнийхээ	-9912
▁хөгжүүлж	-9913
▁баярласан	-9914
▁нийгэмлэг	-9915
▁төгрөгийг	-9916
▁хэрэгтэйг	-9917
▁чадварлаг	-9918
▁ээжийнхээ	-9919
▁байрлалтай	-9920
▁мэндчилгээ	-9921
▁нэмэгдүүлж	-9922
өе	-9923
ash	-9924
▁66	-9925
▁ши	-9926
венц	-9927
уурь	-9928
энхи	-9929
чихаж	-9930
▁Шуур	-9931
▁ихэр	-9932
▁лана	-9933
▁нуух	-9934
▁санг	-9935
▁тэнх	-9936
▁хөлд	-9937
▁шилд	-9938
агджээ	-9939
тэйхэн	-9940
▁Гараа	-9941
▁бодъё	-9942
▁гацаа	-9943
▁гүрэн	-9944
▁даган	-9945
▁эндээ	-9946
▁үгтэй	-9947
▁Бээжин	-9948
▁Далайн	-9949
▁Хамгаа	-9950
▁арьсны	-9951
▁аяндаа	-9952
▁голомт	-9953
▁гэсээр	-9954
▁ихэнхи	-9955
▁лаарай	-9956
▁соёлыг	-9957
▁тааруу	-9958
▁халаас	-9959
▁хуульч	-9960
▁Бүртгэл	-9961
▁Хоёулаа	-9962
▁гуравны	-9963
▁мэтгэлц	-9964
▁сөргөөр	-9965
▁төгсөөд	-9966
▁харахыг	-9967
▁шийджээ	-9968
▁явахаар	-9969
▁Зөвлөгөө	-9970
▁аргачлал	-9971
▁зорилтот	-9972
▁тэгэхээр	-9973
▁тэрэгний	-9974
▁харахаар	-9975
▁цуглуулж	-9976
▁чөлөөний	-9977
▁явагдана	-9978
▁өлсгөлөн	-9979
▁Гайхалтай	-9980
▁оролцуулах	-9981
▁зориулалтын	-9982
-2	-9983
."	-9984
СЯ	-9985
-10	-9986
алм	-9987
мээ	-9988
одн	-9989
рав	-9990
ьян	-9991
▁8,	-9992
▁Be	-9993
лоос	-9994
▁14-	-9995
▁Офф	-9996
▁СЕХ	-9997
▁гын	-9998
▁цав	-9999
▁явд	-10000
алзуу	-10001
▁Билл	-10002
▁эдэл	-10003
▁эрхт	-10004
▁ёсон	-10005
околад	-10006
▁Гэнэт	-10007
▁Нээлт	-10008
▁гэдэс	-10009
▁эрийн	-10010
▁юутай	-10011
▁үүлэх	-10012
▁Дэлгэр	-10013
▁Татвар	-10014
▁бүртээ	-10015
▁гаргав	-10016
▁томъёо	-10017
▁тэндээ	-10018
▁хэвшил	-10019
▁Гагцхүү	-10020
▁ажилчин	-10021
▁ашиггүй	-10022
▁сүүлдээ	-10023
▁тойрсон	-10024
▁уулзана	-10025
▁хувцсаа	-10026
▁хөдлөлт	-10027
▁шудрага	-10028
▁яриагүй	-10029
▁өөрчлөг	-10030
▁Хүүхдийг	-10031
▁нэмэргүй	-10032
▁сувилагч	-10033
▁судлалын	-10034
▁хүрээтэй	-10035
▁хөнөөсөн	-10036
▁цэвэрлэж	-10037
▁эргэлзэж	-10038
▁гаргаагүй	-10039
▁мэдээлжээ	-10040
▁суулгасан	-10041
▁тогтоожээ	-10042
▁гүйцэтгэнэ	-10043
▁хэрэгслүүд	-10044
▁хэрэгжүүлэхэд	-10045
iv	-10046
ШУ	-10047
MED	-10048
Улс	-10049
бол	-10050
мба	-10051
ори	-10052
рий	-10053
▁Мо	-10054
▁ув	-10055
▁єє	-10056
адын	-10057
гэгч	-10058
лдаа	-10059
члэх	-10060
эдэн	-10061
▁ZAR	-10062
▁Алт	-10063
▁Жан	-10064
▁Хүч	-10065
▁Чих	-10066
▁ойг	-10067
▁ред	-10068
▁хэх	-10069
▁чиж	-10070
▁чий	-10071
атрын	-10072
▁баав	-10073
▁сний	-10074
▁эзэд	-10075
гоороо	-10076
▁!!!!!	-10077
▁Ердөө	-10078
▁Калиф	-10079
▁гөлөг	-10080
▁дайрч	-10081
▁зочил	-10082
▁инээж	-10083
▁эргэх	-10084
▁ялгах	-10085
▁Бусдыг	-10086
▁Хөгжим	-10087
▁орохыг	-10088
▁тиймээ	-10089
▁хонгил	-10090
▁үхлийн	-10091
▁өнгөөр	-10092
▁Зээлийн	-10093
▁аймшигт	-10094
▁бизнест	-10095
▁гарсаар	-10096
▁луулсан	-10097
▁олоогүй	-10098
▁сайдаар	-10099
▁сургаал	-10100
▁хуримын	-10101
▁цуглаан	-10102
▁эхлэхэд	-10103
▁боломжит	-10104
▁бохирдол	-10105
▁олимпийн	-10106
▁орчуулга	-10107
▁хамаардаг	-10108
▁хэлбэрийг	-10109
▁хэлэлцсэн	-10110
▁цалингийн	-10111
▁шалгарсан	-10112
▁сургалтанд	-10113
▁сургуулиас	-10114
▁тооцогддог	-10115
▁тэтгэврийн	-10116
▁хамгааллын	-10117
▁хувьсгалын	-10118
▁Монголбанкны	-10119
▁байгуулахаар	-10120
VID	-10121
цаж	-10122
▁59	-10123
▁PC	-10124
▁am	-10125
сэнд	-10126
талж	-10127
▁Дай	-10128
▁цад	-10129
MEDEE	-10130
айнга	-10131
малын	-10132
эсээр	-10133
▁НИТХ	-10134
▁Хонг	-10135
▁алаг	-10136
▁гуйв	-10137
▁гэрч	-10138
▁имэй	-10139
▁лийг	-10140
▁халб	-10141
▁хүйс	-10142
▁start	-10143
▁Ингэх	-10144
▁алсын	-10145
▁ласан	-10146
▁махан	-10147
▁хаагд	-10148
▁хайлт	-10149
▁хошин	-10150
▁цусны	-10151
▁эвлэр	-10152
▁үзэмж	-10153
▁үсний	-10154
▁байраа	-10155
▁буусан	-10156
▁зөрчиг	-10157
▁нэгээс	-10158
▁нэхэмж	-10159
▁салгах	-10160
▁төлөвлө	-10161
▁төсвийг	-10162
▁хаалгыг	-10163
▁цаашдын	-10164
▁үнэлдэг	-10165
▁амьдраад	-10166
▁баригдаж	-10167
▁иргэншил	-10168
▁мөрөөдөж	-10169
▁өрсөлдөж	-10170
▁Найрамдах	-10171
▁бэхжүүлэх	-10172
▁захиалагч	-10173
▁малтмалын	-10174
▁хандлагыг	-10175
▁хүүхэлдэй	-10176
▁оролцогчид	-10177
▁хэрэгслээр	-10178
▁чуулганаар	-10179
br	-10180
ви	-10181
Хур	-10182
лая	-10183
▁Wh	-10184
####	-10185
альд	-10186
▁Jun	-10187
▁dur	-10188
▁pro	-10189
▁Бич	-10190
▁Дээ	-10191
▁Жам	-10192
▁бог	-10193
▁ниг	-10194
мөсөн	-10195
▁Ирак	-10196
▁зоог	-10197
▁зоос	-10198
▁инст	-10199
▁сууг	-10200
▁өсөн	-10201
▁Ухаан	-10202
▁алдан	-10203
▁аргаа	-10204
▁нулим	-10205
▁нөхөж	-10206
▁учирч	-10207
▁ялагч	-10208
▁өртөж	-10209
▁Гудамж	-10210
▁алдлаа	-10211
▁баривч	-10212
▁бариул	-10213
▁дүгнэх	-10214
▁зурхай	-10215
▁мастер	-10216
▁нэгнээ	-10217
▁орхигд	-10218
▁чанарт	-10219
▁үлддэг	-10220
▁аваргын	-10221
▁байшинд	-10222
▁генерал	-10223
▁гэгддэг	-10224
▁паспорт	-10225
▁уулзлаа	-10226
▁хоолонд	-10227
▁ZARMEDEE	-10228
▁Британид	-10229
▁алдаагүй	-10230
▁болсноор	-10231
▁бясалгал	-10232
▁мэдэхийн	-10233
▁олгохгүй	-10234
▁төсөөлөх	-10235
▁хуудасны	-10236
▁эмэгтэйг	-10237
▁дэвшигчид	-10238
▁дэвшүүлэх	-10239
▁ингэснээр	-10240
▁хамруулах	-10241
▁хичээлдээ	-10242
▁хүнтэйгээ	-10243
▁тэвчээртэй	-10244
▁Сонирхолтой	-10245
▁санамсаргүй	-10246
▁тогтоогдсон	-10247
▁тушаалтнууд	-10248
▁тэмдэглэсэн	-10249
▁бүтээгдэхүүнүүд	-10250
ok	-10251
pe	-10252
стр	-10253
▁Ar	-10254
▁[[	-10255
▁]]	-10256
▁ТА	-10257
▁эй	-10258
▁жий	-10259
▁лөө	-10260
▁түд	-10261
ОНГОЛ	-10262
нөсөн	-10263
▁****	-10264
▁Хууд	-10265
▁үүлж	-10266
▁өдөө	-10267
▁өшөө	-10268
▁Цэцэг	-10269
▁олныг	-10270
▁Харилц	-10271
▁авмаар	-10272
▁дүрийг	-10273
▁жагсаа	-10274
▁минийх	-10275
▁тооцно	-10276
▁ухаанд	-10277
▁хэнээс	-10278
▁шилжиж	-10279
агдашгүй	-10280
▁Телевиз	-10281
▁адилаар	-10282
▁сайтууд	-10283
▁сангаас	-10284
▁түдгэлз	-10285
▁хотхонд	-10286
▁хүндийг	-10287
▁Үзэсгэл	-10288
▁ашиглаад	-10289
▁болчихож	-10290
▁үзүүлбэр	-10291
▁албаныхан	-10292
▁бутлуурыг	-10293
▁програмыг	-10294
▁мэргэжлээр	-10295
▁хүргүүлсэн	-10296
▁бүтээгдэхүүнээ	-10297
IN	-10298
uu	-10299
уа	-10300
акс	-10301
▁ЭЭ	-10302
▁вв	-10303
▁Үд	-10304
▁өх	-10305
ject	-10306
▁Con	-10307
▁ЗӨВ	-10308
▁гэц	-10309
▁дэж	-10310
▁тач	-10311
гэлэн	-10312
▁(200	-10313
▁Борл	-10314
▁Жорж	-10315
▁Райл	-10316
▁болц	-10317
▁дсан	-10318
▁манс	-10319
▁тоож	-10320
Бидний	-10321
гээдэг	-10322
▁Хааяа	-10323
▁амлаж	-10324
▁блогт	-10325
▁снээр	-10326
▁тайлж	-10327
▁чадав	-10328
▁шалга	-10329
▁өвдөх	-10330
▁Завхан	-10331
▁Систем	-10332
▁аялгуу	-10333
▁гомдоо	-10334
▁даавуу	-10335
▁илгээж	-10336
▁хэвлэг	-10337
▁Android	-10338
▁багтаан	-10339
▁байраар	-10340
▁бүжгийн	-10341
▁бүрдэнэ	-10342
▁гайхаад	-10343
▁мэдлийг	-10344
▁найрсаг	-10345
▁нэвтэрч	-10346
▁сэргээж	-10347
▁улстөрч	-10348
▁уулзаад	-10349
▁холбоог	-10350
Баасанхүү	-10351
▁мэдээлэх	-10352
▁товчлуур	-10353
▁хориотой	-10354
▁хэлэхийг	-10355
▁юугаараа	-10356
▁өндөрлөг	-10357
▁Бүгдээрээ	-10358
▁асуултууд	-10359
▁бүтээлүүд	-10360
▁зургуудыг	-10361
▁тагнуулын	-10362
▁хэдийгээр	-10363
▁этгээдийн	-10364
▁баримталдаг	-10365
ST	-10366
▁Tr	-10367
▁me	-10368
▁АА	-10369
▁де	-10370
Нийг	-10371
двэл	-10372
▁11:	-10373
▁Тер	-10374
▁УОК	-10375
▁лай	-10376
▁Влад	-10377
▁цайр	-10378
▁шүүс	-10379
аалтын	-10380
ландын	-10381
▁Болор	-10382
▁Дотор	-10383
▁болъё	-10384
▁самар	-10385
▁татна	-10386
▁фракц	-10387
▁МОНГОЛ	-10388
▁багийг	-10389
▁довтол	-10390
▁морины	-10391
▁санамж	-10392
▁устгаж	-10393
▁хурдны	-10394
▁.......	-10395
▁Барууны	-10396
▁Шийдвэр	-10397
▁бүгдийн	-10398
▁вакцины	-10399
▁гаалийн	-10400
▁зүйлээр	-10401
▁наадмыг	-10402
▁сайнаар	-10403
▁учруулж	-10404
▁хорвоод	-10405
▁хоёроос	-10406
▁шүршигч	-10407
▁эзэмшиж	-10408
▁Амьдралд	-10409
▁Калифорн	-10410
▁авчирдаг	-10411
▁банкнаас	-10412
▁барилдах	-10413
▁дугаарын	-10414
▁оруулагч	-10415
▁төсөөлөл	-10416
▁ургамлын	-10417
▁хуультай	-10418
▁чадвараа	-10419
▁харуулдаг	-10420
▁экспортын	-10421
▁танилцуулна	-10422
▁хэрэглэхийг	-10423
мор	-10424
рик	-10425
▁5,	-10426
▁AM	-10427
▁XX	-10428
▁ic	-10429
▁Ак	-10430
▁Ле	-10431
▁Со	-10432
▁тө	-10433
игоо	-10434
лган	-10435
усал	-10436
хээд	-10437
▁13-	-10438
▁Сах	-10439
Эрүүл	-10440
үүлээ	-10441
▁Read	-10442
▁Мань	-10443
▁аман	-10444
▁зуух	-10445
▁түйм	-10446
▁Баянг	-10447
▁Дубай	-10448
▁Удаан	-10449
▁комис	-10450
▁луулж	-10451
▁орвол	-10452
▁очлоо	-10453
▁таваг	-10454
▁Насанд	-10455
▁Эргээд	-10456
▁гуйсан	-10457
▁залхуу	-10458
▁иргэнд	-10459
▁нисдэг	-10460
▁оршино	-10461
▁таараа	-10462
▁харгис	-10463
▁хэлхээ	-10464
▁хөнөөл	-10465
▁эелдэг	-10466
▁Сүүлдээ	-10467
▁Ухаалаг	-10468
▁ажилтны	-10469
▁дуулиан	-10470
▁дэвшилт	-10471
▁мэдлийн	-10472
▁наснаас	-10473
▁талбайг	-10474
▁ухааныг	-10475
▁ажлуудыг	-10476
▁торгууль	-10477
▁тушаалыг	-10478
▁чадалгүй	-10479
▁Сургалтын	-10480
▁дангаараа	-10481
▁мартаарай	-10482
▁сонгогдох	-10483
▁статистик	-10484
▁тоглолтод	-10485
▁тэнгисийн	-10486
▁хуваалцаж	-10487
▁оролцоогүй	-10488
▁сонгогчдын	-10489
▁судалгаанд	-10490
▁мэдээлэлтэй	-10491
▁хичээгээрэй	-10492
АЯ	-10493
ХД	-10494
еш	-10495
ial	-10496
ond	-10497
тга	-10498
▁3:	-10499
▁85	-10500
▁Te	-10501
▁Ма	-10502
▁со	-10503
▁Мад	-10504
▁Сау	-10505
▁Сүр	-10506
▁Тон	-10507
▁цуу	-10508
▁элч	-10509
эмжит	-10510
▁Зөвш	-10511
▁бирж	-10512
▁итгэ	-10513
▁унаа	-10514
▁хавт	-10515
▁хорь	-10516
Төрийн	-10517
▁Ковид	-10518
▁Нарны	-10519
▁Төсөв	-10520
▁Урлаг	-10521
▁галын	-10522
▁сарыг	-10523
▁чдийн	-10524
▁шахам	-10525
▁үсийг	-10526
Эрдэнэт	-10527
▁Батлан	-10528
▁Давхар	-10529
▁Саудын	-10530
▁Хүнийг	-10531
▁заадаг	-10532
▁засгаа	-10533
▁нэгтэй	-10534
▁солиор	-10535
▁уялдаа	-10536
▁хэрэлд	-10537
▁шахалт	-10538
▁өөдөөс	-10539
▁Удалгүй	-10540
▁Украины	-10541
▁анзаарч	-10542
▁валютын	-10543
▁гэрлэлт	-10544
▁лэгдсэн	-10545
▁Оюутнууд	-10546
▁алуурчин	-10547
▁болгочих	-10548
▁тодотгол	-10549
▁устгасан	-10550
▁Өмнөговь	-10551
▁өрөөндөө	-10552
▁ойлгоогүй	-10553
▁хийчихсэн	-10554
▁хэрэглээд	-10555
▁материалын	-10556
▁байгуулагдаж	-10557
ino	-10558
ire	-10559
гам	-10560
ойр	-10561
өлж	-10562
▁53	-10563
▁TO	-10564
▁Нү	-10565
▁Уй	-10566
▁ку	-10567
оёрх	-10568
▁Авр	-10569
▁Нур	-10570
▁Тас	-10571
▁авх	-10572
▁гон	-10573
эрхий	-10574
▁Хийх	-10575
▁алин	-10576
▁Сумын	-10577
▁Шилэн	-10578
▁босго	-10579
▁далан	-10580
▁махны	-10581
▁наран	-10582
▁нөхөх	-10583
▁танин	-10584
▁тарьж	-10585
▁уйлах	-10586
▁хуурч	-10587
Дэлхийн	-10588
жуулалт	-10589
▁Хүссэн	-10590
▁зэвүүн	-10591
▁зүтгэх	-10592
▁нүдийг	-10593
▁хотууд	-10594
▁араншин	-10595
▁бүтцийг	-10596
▁зардлаа	-10597
▁ирээрэй	-10598
▁оролдох	-10599
▁Ардчилал	-10600
▁Ихэвчлэн	-10601
▁Худалдаа	-10602
▁бичээрэй	-10603
▁инээдтэй	-10604
▁нөхцлийг	-10605
▁романтик	-10606
▁хийснээр	-10607
▁хэрэгтэн	-10608
▁тайлбарыг	-10609
▁шатахууны	-10610
▁үргэлжилсээр	-10611
3.	-10612
99	-10613
old	-10614
ань	-10615
хүл	-10616
▁68	-10617
▁Co	-10618
▁Ск	-10619
▁ҮХ	-10620
▁Үй	-10621
онез	-10622
▁Гүн	-10623
▁Зул	-10624
▁ТАН	-10625
▁ааа	-10626
▁сой	-10627
▁Шагн	-10628
▁ахиж	-10629
▁тусг	-10630
▁үнээ	-10631
огчдод	-10632
▁Алдаа	-10633
▁Хүчит	-10634
▁аманд	-10635
▁дүгнэ	-10636
▁зодог	-10637
▁мөрөн	-10638
▁содон	-10639
▁тойрч	-10640
▁өнгөт	-10641
▁Бяцхан	-10642
▁Галзуу	-10643
▁Жирийн	-10644
▁Зохиол	-10645
▁Налайх	-10646
▁аялалд	-10647
▁гэсэнд	-10648
▁ногдол	-10649
▁нутгаа	-10650
▁саванд	-10651
▁тохирч	-10652
▁царайг	-10653
▁цемент	-10654
▁чуудын	-10655
▁шилжин	-10656
▁үйлдэх	-10657
▁Халдвар	-10658
▁зарчмын	-10659
▁зүрхэнд	-10660
▁нэгнээс	-10661
▁тооцсон	-10662
▁түгжрэл	-10663
▁шүүхээр	-10664
▁бууруулж	-10665
▁жаргалын	-10666
▁жуулчлал	-10667
▁Гүйцэтгэх	-10668
▁анхнаасаа	-10669
▁байрандаа	-10670
▁баярладаг	-10671
▁идэвхитэй	-10672
▁тохируулж	-10673
▁хичээлийг	-10674
▁хичээллэж	-10675
▁дэвшүүлсэн	-10676
▁захиалгаар	-10677
▁тогтворгүй	-10678
▁хэрэгцээтэй	-10679
ass	-10680
мог	-10681
▁ad	-10682
▁Мя	-10683
▁яз	-10684
арна	-10685
ранс	-10686
ьжир	-10687
▁Min	-10688
▁Гаа	-10689
▁Тул	-10690
▁лиг	-10691
▁мөс	-10692
өгдөх	-10693
▁Усан	-10694
▁Хонк	-10695
▁блок	-10696
▁заль	-10697
▁ирэн	-10698
▁нууж	-10699
▁парк	-10700
чилсөн	-10701
▁Харри	-10702
▁огноо	-10703
▁хонож	-10704
▁өнгөн	-10705
жүүлсэн	-10706
илгааны	-10707
▁Танилц	-10708
▁голдуу	-10709
▁дурлаж	-10710
▁зэрэгт	-10711
▁нандин	-10712
▁сэтгэж	-10713
▁өчнөөн	-10714
▁Twitter	-10715
▁Хувьцаа	-10716
▁аажмаар	-10717
▁илүүдэл	-10718
▁морилно	-10719
▁төрлөөр	-10720
▁хэлмэгд	-10721
▁цагдаад	-10722
▁чадахаа	-10723
▁бодитоор	-10724
▁жүжигчид	-10725
▁зэрэглэл	-10726
▁машинаар	-10727
▁машинууд	-10728
▁шүүмжлэх	-10729
▁Хэрэглэгч	-10730
▁мөрөөддөг	-10731
▁нислэгийн	-10732
▁таамаглал	-10733
▁нийлүүлэгч	-10734
▁удирдагчид	-10735
▁томилогдсон	-10736
▁эргэлзээтэй	-10737
▁бүсгүйчүүдийн	-10738
pr	-10739
НЕ	-10740
ХАБ	-10741
аян	-10742
оли	-10743
▁Gr	-10744
▁Ёс	-10745
▁Де	-10746
▁ма	-10747
дийг	-10748
охан	-10749
▁Пер	-10750
▁Тор	-10751
▁ШИН	-10752
▁лын	-10753
▁пор	-10754
▁сад	-10755
хнаас	-10756
үүжин	-10757
▁Inst	-10758
▁Жагс	-10759
▁Мэнд	-10760
▁Порт	-10761
▁Сайт	-10762
▁Угаа	-10763
▁алим	-10764
▁босч	-10765
▁тунг	-10766
▁Ажлаа	-10767
▁Крист	-10768
▁Цагаа	-10769
▁Шадар	-10770
▁аасай	-10771
▁алдав	-10772
▁наалд	-10773
▁тугал	-10774
▁улсаа	-10775
▁утсыг	-10776
▁Бусдад	-10777
▁Саруул	-10778
▁Тэмдэг	-10779
▁Хоолны	-10780
▁Хурлын	-10781
▁Чулуун	-10782
▁зуслан	-10783
▁орлогч	-10784
▁саарал	-10785
▁угаагч	-10786
▁чихсон	-10787
▁ялгааг	-10788
▁Тагнуул	-10789
▁бүтээгч	-10790
▁бөөнөөр	-10791
▁дэмжээд	-10792
▁муугаар	-10793
▁нийтдээ	-10794
▁сайжирч	-10795
▁хорвоог	-10796
▁Дотоодын	-10797
▁Жирэмсэн	-10798
▁Ирээдүйд	-10799
▁дурьдсан	-10800
▁лавлагаа	-10801
▁халдварт	-10802
▁хариуцах	-10803
▁шийдлийг	-10804
▁үеийнхэн	-10805
▁баримталж	-10806
▁зурагнууд	-10807
▁сонголтоо	-10808
▁хамрагдаж	-10809
▁шалгалтыг	-10810
▁Тэдгээрийн	-10811
▁илэрхийлэл	-10812
▁байгууллагыг	-10813
="	-10814
ae	-10815
ть	-10816
ist	-10817
ool	-10818
огс	-10819
▁4,	-10820
эрэн	-10821
▁Рон	-10822
▁ХАР	-10823
▁гүү	-10824
▁нүү	-10825
▁шур	-10826
лэлээ	-10827
▁Дани	-10828
▁Сири	-10829
▁гууд	-10830
▁жилт	-10831
▁ноол	-10832
▁сагс	-10833
▁чүүд	-10834
▁эвдр	-10835
▁Майкл	-10836
▁ажилт	-10837
▁айсан	-10838
▁ерөөе	-10839
▁онгон	-10840
▁татам	-10841
▁тусад	-10842
▁харан	-10843
▁цасан	-10844
▁эзгүй	-10845
▁элсэх	-10846
▁өрөвд	-10847
▁Буриад	-10848
▁Холлив	-10849
▁Хэнтий	-10850
▁зохиож	-10851
▁олохын	-10852
▁сургаж	-10853
▁үлдээж	-10854
▁Удирдах	-10855
▁давхарт	-10856
▁идэхгүй	-10857
▁соёлтой	-10858
▁цэврийн	-10859
▁үдэшлэг	-10860
▁өдөртөө	-10861
▁болгожээ	-10862
▁нэгэнтэй	-10863
▁онцолсон	-10864
▁шинэчлэн	-10865
▁тогтоолын	-10866
▁холбоогүй	-10867
▁хүндэлдэг	-10868
▁тааламжтай	-10869
▁тохиолдлын	-10870
▁цэвэрлэгээ	-10871
▁үнэлгээний	-10872
▁ашиглалтанд	-10873
▁өөрчлөлтүүд	-10874
▁эмэгтэйчүүдийг	-10875
sh	-10876
нер	-10877
хэд	-10878
▁(4	-10879
▁Же	-10880
2020	-10881
Хоёр	-10882
дээд	-10883
▁Дам	-10884
▁Маг	-10885
▁бээ	-10886
▁гуд	-10887
▁каб	-10888
▁1997	-10889
▁Play	-10890
▁Бусд	-10891
▁ахын	-10892
▁сайш	-10893
▁урга	-10894
▁өндр	-10895
агчдад	-10896
▁Тамир	-10897
▁Хатан	-10898
▁уудаа	-10899
▁хагал	-10900
▁хобби	-10901
▁үзэгч	-10902
тэйгүүр	-10903
үүлгийн	-10904
▁алддаг	-10905
▁амжсан	-10906
▁гэхгүй	-10907
▁гүйцэд	-10908
▁зовоож	-10909
▁маргал	-10910
▁мунхаг	-10911
▁мөрийг	-10912
▁сүртэй	-10913
▁түмнээ	-10914
▁ханиад	-10915
▁хорхой	-10916
▁ширээн	-10917
▁эцгийн	-10918
▁явдалд	-10919
▁өвдсөн	-10920
▁амьтдын	-10921
▁аудитын	-10922
▁баяраар	-10923
▁баярлах	-10924
▁дууддаг	-10925
▁ойлгоод	-10926
▁хавдрын	-10927
▁хандана	-10928
▁ёсондоо	-10929
▁арчаагүй	-10930
▁өнгөрөөх	-10931
▁боломжууд	-10932
▁доромжилж	-10933
▁найрамдах	-10934
▁Америкчууд	-10935
▁засаглалын	-10936
▁бэрхшээлийг	-10937
▁бүртгүүлсэн	-10938
▁харилцаагаа	-10939
Юу	-10940
Анх	-10941
бит	-10942
обу	-10943
▁6,	-10944
▁ГА	-10945
▁Ог	-10946
▁эж	-10947
адас	-10948
ваас	-10949
лдог	-10950
▁17-	-10951
▁26-	-10952
▁50%	-10953
▁Sam	-10954
▁Дом	-10955
▁гїй	-10956
▁кал	-10957
▁мөө	-10958
▁эээ	-10959
▁Зүүд	-10960
▁даах	-10961
▁пост	-10962
▁хавч	-10963
▁чанд	-10964
ааргүй	-10965
уурсан	-10966
▁Анжел	-10967
▁Бэлэн	-10968
▁давах	-10969
▁снаас	-10970
▁толил	-10971
▁халаа	-10972
▁хугар	-10973
▁хүмүү	-10974
▁шудар	-10975
▁Mongol	-10976
▁Багийн	-10977
▁Маркет	-10978
▁Нарийн	-10979
▁Цөмийн	-10980
▁болвол	-10981
▁гэмтээ	-10982
▁нөгөөх	-10983
▁үйлийн	-10984
үүлээгүй	-10985
▁Бэлгийн	-10986
▁Дараахь	-10987
▁Тогтвор	-10988
▁бүртгэж	-10989
▁нийтийг	-10990
▁нөхдийн	-10991
▁удирдан	-10992
▁хурлаар	-10993
▁хүртээл	-10994
▁шалгаад	-10995
▁яваагүй	-10996
▁бодоорой	-10997
▁зарлалаа	-10998
▁захирагч	-10999
▁тунгалаг	-11000
▁хаалганы	-11001
▁харуулна	-11002
▁хятадууд	-11003
▁чадварын	-11004
▁тэтгэвэрт	-11005
▁цогцолбор	-11006
▁ажиллахаар	-11007
▁сэтгэгдлээ	-11008
▁сэтгүүлийн	-11009
БН	-11010
бо	-11011
ell	-11012
org	-11013
гож	-11014
охь	-11015
▁АВ	-11016
▁ЭХ	-11017
▁ҮН	-11018
омын	-11019
ресс	-11020
▁10,	-11021
▁Egu	-11022
▁Ene	-11023
оосон	-11024
ягмар	-11025
▁Адам	-11026
▁арми	-11027
▁зүүж	-11028
▁тээж	-11029
▁Өөрт	-11030
▁Ромын	-11031
▁горьд	-11032
▁малаа	-11033
▁нээнэ	-11034
▁нүдэн	-11035
▁шахаж	-11036
▁шохой	-11037
▁эвсэл	-11038
▁Бичлэг	-11039
▁Хэдхэн	-11040
▁Хөгжил	-11041
▁бараан	-11042
▁бооцоо	-11043
▁бүдүүн	-11044
▁сагсан	-11045
▁сонинд	-11046
▁төлөөд	-11047
▁файлыг	-11048
Тэгэхээр	-11049
▁Автобус	-11050
▁Баянгол	-11051
▁Шуурхай	-11052
▁аварсан	-11053
▁гайхсан	-11054
▁дуугаар	-11055
▁ойлгуул	-11056
▁оронтой	-11057
▁тэнцсэн	-11058
▁төсвөөс	-11059
▁хямдхан	-11060
▁гудамжны	-11061
▁дурлалын	-11062
▁нийслэлд	-11063
▁ойлголоо	-11064
▁хэдийнээ	-11065
▁үлдэгдэл	-11066
▁бэлтгэсэн	-11067
▁газруудын	-11068
▁амьдралаас	-11069
▁оюутнуудын	-11070
▁санаачилга	-11071
▁инээмсэглэл	-11072
▁хариуцлагын	-11073
▁шинжилгээнд	-11074
▁үргэлжлүүлж	-11075
▁тодорхойлдог	-11076
▁арваннэгдүгээр	-11077
BS	-11078
жи	-11079
▁Ы	-11080
ank	-11081
ick	-11082
енс	-11083
есу	-11084
иаг	-11085
▁>>	-11086
▁ro	-11087
read	-11088
гэнэ	-11089
лийз	-11090
ьдаг	-11091
▁Cas	-11092
▁art	-11093
▁Зов	-11094
▁Зун	-11095
▁Яам	-11096
▁даад	-11097
▁даар	-11098
▁лсан	-11099
▁нэгт	-11100
▁нэрв	-11101
▁ёсыг	-11102
аагуур	-11103
▁Эрдэн	-11104
▁баярт	-11105
▁ерөөл	-11106
▁мухар	-11107
▁охинд	-11108
▁хакер	-11109
▁өөсөө	-11110
обусанд	-11111
өгчдийн	-11112
▁багтах	-11113
▁баттай	-11114
▁бөглөх	-11115
▁гавьяа	-11116
▁гарууд	-11117
▁жингээ	-11118
▁задгай	-11119
▁коллеж	-11120
▁номонд	-11121
▁сэрүүн	-11122
▁төвийг	-11123
▁уудтай	-11124
▁формат	-11125
▁ярихыг	-11126
▁үгнээс	-11127
үүлэгчид	-11128
▁аавыгаа	-11129
▁банкинд	-11130
▁капитал	-11131
▁механик	-11132
▁сонгоод	-11133
▁туслаач	-11134
▁хорионы	-11135
▁алдаагаа	-11136
▁нухацтай	-11137
▁оролцоог	-11138
▁шагналын	-11139
▁өсөлтийн	-11140
▁системтэй	-11141
▁террорист	-11142
▁эхэлснээс	-11143
▁шилжүүлсэн	-11144
▁байгуулагдах	-11145
▁бүрэлдэхүүнд	-11146
АЖ	-11147
ОМ	-11148
ѳн	-11149
ake	-11150
ave	-11151
АЛТ	-11152
ХАЙ	-11153
ооо	-11154
▁te	-11155
▁Ла	-11156
ибер	-11157
райн	-11158
▁29-	-11159
▁Гав	-11160
▁орк	-11161
ацийн	-11162
олдог	-11163
эрсэн	-11164
өмбөр	-11165
▁Гант	-11166
▁Турш	-11167
▁бөгж	-11168
▁жаал	-11169
▁загн	-11170
▁хаад	-11171
варлах	-11172
лаараа	-11173
▁Eguur	-11174
▁Давид	-11175
▁алинд	-11176
▁босож	-11177
▁бямба	-11178
▁ордыг	-11179
▁тамга	-11180
▁толбо	-11181
▁төрнө	-11182
▁эрдэс	-11183
▁өрийг	-11184
▁Мягмар	-11185
▁Тамгын	-11186
▁бодогч	-11187
▁бэлгэд	-11188
▁бүлтэй	-11189
▁гарчиг	-11190
▁зарсан	-11191
▁зузаан	-11192
▁ойртож	-11193
▁ургуул	-11194
▁уулсан	-11195
▁хуучир	-11196
▁Дашрамд	-11197
▁Зургаан	-11198
▁Хамтдаа	-11199
▁банкууд	-11200
▁гэдгээс	-11201
▁гэдсээр	-11202
▁зардлын	-11203
▁тарьсан	-11204
▁түүндээ	-11205
▁төлөөлж	-11206
▁хүндэлж	-11207
▁багтаамж	-11208
▁давалгаа	-11209
▁жишээтэй	-11210
▁удирдамж	-11211
▁хэсэгтээ	-11212
▁цувралын	-11213
▁үгүйсгэх	-11214
▁өсөлтийг	-11215
▁амьдрахыг	-11216
▁ардчиллын	-11217
▁баясгалан	-11218
▁уншигчдад	-11219
▁хүмүүстээ	-11220
▁Одоохондоо	-11221
▁тэргүүлэгч	-11222
▁үзэсгэлэнт	-11223
11	-11224
ary	-11225
ork	-11226
ГҮЙ	-11227
ЛЭГ	-11228
▁Сп	-11229
лөөд	-11230
отик	-11231
▁БЗД	-11232
▁ДНБ	-11233
▁ийх	-11234
▁про	-11235
▁эгн	-11236
илгал	-11237
үүтэй	-11238
▁1993	-11239
▁баас	-11240
▁болч	-11241
▁иднэ	-11242
▁шүүр	-11243
Хэрвээ	-11244
▁Эхлэл	-11245
▁гайхш	-11246
▁намаа	-11247
▁сандр	-11248
▁урамш	-11249
▁хутга	-11250
▁эзэнт	-11251
лүүлсэн	-11252
▁Алдарт	-11253
▁Баабар	-11254
▁Хилийн	-11255
▁авахаа	-11256
▁бохирд	-11257
▁буулга	-11258
▁тойгоо	-11259
▁цэвэрш	-11260
▁шүүгээ	-11261
▁юугаар	-11262
▁өндөрл	-11263
▁Индонез	-11264
▁Хөөрхөн	-11265
▁Шалгалт	-11266
▁ажиллав	-11267
▁албадан	-11268
▁бэлдсэн	-11269
▁бүртгэх	-11270
▁дургүйц	-11271
▁дуудсан	-11272
▁итгэсэн	-11273
▁нэгдмэл	-11274
▁хандуул	-11275
▁аавынхаа	-11276
▁байдгийн	-11277
▁вакциныг	-11278
▁ресторан	-11279
▁тэрбумын	-11280
▁хоригийг	-11281
▁цалингаа	-11282
▁Эмнэлгийн	-11283
▁америкийн	-11284
▁хэзээнээс	-11285
▁хүлээлгэн	-11286
▁итгэдэггүй	-11287
▁мэдээллүүд	-11288
▁тулгуурлан	-11289
▁үйлдвэрийг	-11290
▁анхаараарай	-11291
▁хамаарахгүй	-11292
22	-11293
ГЖ	-11294
Ээж	-11295
▁5:	-11296
▁He	-11297
▁tr	-11298
▁ИР	-11299
▁Хэ	-11300
▁йн	-11301
итар	-11302
лзий	-11303
хээр	-11304
шийн	-11305
▁Off	-11306
▁Бен	-11307
▁Гут	-11308
▁Хог	-11309
▁вээ	-11310
▁сэг	-11311
аргаа	-11312
▁Стив	-11313
▁Цаад	-11314
▁евро	-11315
▁ичиж	-11316
▁худаг	-11317
▁Үнийн	-11318
▁үүдээ	-11319
▁үүлэн	-11320
Жавхлан	-11321
▁амнаас	-11322
▁гэмгүй	-11323
▁гүрний	-11324
▁дуусга	-11325
▁кампан	-11326
▁тогтно	-11327
▁төгсөх	-11328
▁хайраа	-11329
▁шуурга	-11330
▁яаманд	-11331
▁өмсөгч	-11332
▁болтлоо	-11333
▁гомдолл	-11334
▁интернэ	-11335
▁сууцанд	-11336
▁хээрийн	-11337
▁ярихдаа	-11338
▁Хөдөлгөө	-11339
▁зөрүүтэй	-11340
▁нэрэмжит	-11341
▁хавсралт	-11342
▁шатандаа	-11343
▁өнгөрөөж	-11344
▁Дараачийн	-11345
▁сайжруулж	-11346
▁сэтгэлдээ	-11347
▁тулгарсан	-11348
▁түрүүлсэн	-11349
▁эрсдэлийг	-11350
▁ашиглахгүй	-11351
▁байгуулжээ	-11352
▁компанитай	-11353
▁сургуульдаа	-11354
▁шийдвэрлэнэ	-11355
hy	-11356
Хам	-11357
ити	-11358
▁МИ	-11359
▁ко	-11360
ворж	-11361
раас	-11362
▁(2)	-11363
▁11,	-11364
▁Lin	-11365
▁SEO	-11366
▁man	-11367
▁Бел	-11368
▁Виз	-11369
▁Зай	-11370
▁ХАА	-11371
▁зээ	-11372
▁лэв	-11373
▁мог	-11374
▁оно	-11375
Болор	-11376
аграм	-11377
огоор	-11378
шгийг	-11379
▁Дууд	-11380
▁Месс	-11381
▁Паул	-11382
▁анал	-11383
▁дсэн	-11384
▁одон	-11385
▁тоот	-11386
▁хууч	-11387
▁ялна	-11388
аснаар	-11389
лагаас	-11390
▁Inter	-11391
▁Хэний	-11392
▁багад	-11393
▁оддын	-11394
▁тэвэр	-11395
▁харав	-11396
▁цочир	-11397
▁Үзсэн	-11398
▁Венесу	-11399
▁Гишүүд	-11400
▁Дэлгэц	-11401
▁Мексик	-11402
▁алдана	-11403
▁гэснээ	-11404
▁доорхи	-11405
▁сэдэвт	-11406
▁уугуул	-11407
▁хослол	-11408
▁чамдаа	-11409
▁эндүүр	-11410
▁үйлдэж	-11411
▁үнэний	-11412
▁Дональд	-11413
▁Наадмын	-11414
▁орлогоо	-11415
▁хангана	-11416
▁эцэслэн	-11417
Алтанхуяг	-11418
▁Хятадаас	-11419
▁барилгыг	-11420
▁барилдаж	-11421
▁зорилгыг	-11422
▁зугаатай	-11423
▁ирчихсэн	-11424
▁одооноос	-11425
▁сэтгэхүй	-11426
▁тооцоолж	-11427
▁харилцаж	-11428
▁чимэглэл	-11429
▁мөрөөдлөө	-11430
▁суудалтай	-11431
▁өгөгдлийн	-11432
▁амьдралаар	-11433
▁оюутнуудад	-11434
▁хязгаарлах	-11435
▁иргэдийнхээ	-11436
▁компаниудад	-11437
▁шийдвэрлэсэн	-11438
▁Улаанбаатарын	-11439
▁арванхоёрдугаар	-11440
1-	-11441
▁°	-11442
вин	-11443
хаж	-11444
▁88	-11445
▁Жо	-11446
▁НД	-11447
▁Фл	-11448
▁хє	-11449
ейшн	-11450
лсэн	-11451
онус	-11452
уунд	-11453
▁son	-11454
▁Жэн	-11455
▁ТАЙ	-11456
▁Хум	-11457
▁кан	-11458
▁син	-11459
▁шош	-11460
ламын	-11461
▁Ойлг	-11462
▁Сүнс	-11463
▁Утаа	-11464
▁барж	-11465
▁гэлц	-11466
▁завш	-11467
▁сүрд	-11468
▁хүүд	-11469
▁цуур	-11470
▁эрэл	-11471
▁ялаа	-11472
усалим	-11473
▁ашгаа	-11474
▁босох	-11475
▁дадал	-11476
▁нэмнэ	-11477
▁ухамс	-11478
▁шавар	-11479
▁явжээ	-11480
Сүүлийн	-11481
тойбаяр	-11482
▁Долоон	-11483
▁Зорилг	-11484
▁Киноны	-11485
▁амарна	-11486
▁бурхны	-11487
▁давтаж	-11488
▁зугтаж	-11489
▁нийлэх	-11490
▁ханамж	-11491
▁ханган	-11492
▁үүлээд	-11493
▁болсноо	-11494
▁бэлдмэл	-11495
▁цэгцтэй	-11496
▁яриагаа	-11497
▁ажлынхаа	-11498
▁арчилгаа	-11499
▁барахгүй	-11500
▁бүрмөсөн	-11501
▁газартаа	-11502
▁дурдахад	-11503
▁иргэдтэй	-11504
▁мэдэхээр	-11505
▁онгоцоор	-11506
▁тогтворж	-11507
▁учруулах	-11508
▁хадгална	-11509
▁хувьцааг	-11510
▁хямралын	-11511
▁электрон	-11512
▁Иерусалим	-11513
▁буруутгаж	-11514
▁сайжирсан	-11515
▁суртахуун	-11516
▁тэжээлийн	-11517
▁төрүүлдэг	-11518
▁хайрласан	-11519
▁хувцастай	-11520
▁анхааруулж	-11521
▁зөвлөмжийг	-11522
▁шалтгаантай	-11523
▁үйлчилгээтэй	-11524
ОВ	-11525
сг	-11526
ДӨР	-11527
нан	-11528
▁67	-11529
атал	-11530
▁24-	-11531
▁Ноб	-11532
▁ТУЗ	-11533
▁Унд	-11534
▁Фор	-11535
▁нал	-11536
▁ялж	-11537
элжээ	-11538
▁...?	-11539
▁зөгн	-11540
иулсан	-11541
уулгыг	-11542
чилдаг	-11543
▁Баянх	-11544
▁Зочин	-11545
▁Обама	-11546
▁Цэрэн	-11547
▁Шүлэг	-11548
▁аргын	-11549
▁гарал	-11550
▁лидер	-11551
▁морин	-11552
▁учрах	-11553
лагдана	-11554
▁Хөгшин	-11555
▁амьжир	-11556
▁армийн	-11557
▁доройт	-11558
▁жүүлэх	-11559
▁тендер	-11560
▁тогтох	-11561
▁туссан	-11562
▁тэжээх	-11563
▁төртэй	-11564
▁хүрээг	-11565
▁өндөрт	-11566
▁Ерөөсөө	-11567
▁Зөвшөөр	-11568
▁Хүүгийн	-11569
▁жуулчин	-11570
▁хэсгээр	-11571
▁шоколад	-11572
▁Афганист	-11573
▁доромжил	-11574
▁минутанд	-11575
▁насныхан	-11576
▁солиотой	-11577
▁томилгоо	-11578
▁түрэмгий	-11579
▁хурандаа	-11580
▁Түүнийгээ	-11581
▁анхаарлын	-11582
▁гарчихсан	-11583
▁дийлэхгүй	-11584
▁дуулгавар	-11585
▁үзэгчдийн	-11586
▁хамгаалсан	-11587
▁цуглуулсан	-11588
▁эсэргүүцэл	-11589
▁хөгжүүлэхэд	-11590
БХ	-11591
ЛС	-11592
мм	-11593
оч	-11594
ike	-11595
Эрх	-11596
ийж	-11597
▁7,	-11598
▁78	-11599
▁86	-11600
▁OS	-11601
▁ен	-11602
гагч	-11603
гайн	-11604
▁900	-11605
▁Лос	-11606
▁жих	-11607
▁сов	-11608
▁фен	-11609
▁өгс	-11610
▁өрш	-11611
▁Жилд	-11612
▁Найм	-11613
▁Тарх	-11614
▁ална	-11615
▁амыг	-11616
▁гоёл	-11617
▁дөрв	-11618
▁лекц	-11619
итамин	-11620
▁Доорх	-11621
▁Женко	-11622
▁Хагас	-11623
▁сайхн	-11624
▁ташаа	-11625
▁угсаа	-11626
▁хорьж	-11627
▁шунал	-11628
▁эсхүл	-11629
▁өвдөг	-11630
▁бөлгөө	-11631
▁залгаж	-11632
▁индекс	-11633
▁төвөөс	-11634
▁эртхэн	-11635
▁үйлийг	-11636
▁Спортын	-11637
▁конусан	-11638
▁нийлээд	-11639
▁олуулаа	-11640
▁оросууд	-11641
▁орохдоо	-11642
▁сонслоо	-11643
▁удаатай	-11644
▁хуулинд	-11645
▁ямархуу	-11646
▁Стандарт	-11647
▁Сэтгүүлч	-11648
▁гарахаар	-11649
▁дэвшүүлж	-11650
▁залбирах	-11651
▁нэгэндээ	-11652
▁олноороо	-11653
▁түмэндээ	-11654
▁хариуцаж	-11655
▁хэтэрсэн	-11656
▁хөрөнгөө	-11657
▁байлгахыг	-11658
▁буцаагаад	-11659
▁уралдааны	-11660
▁мэдэгдэхгүй	-11661
▁Нөгөөтэйгүүр	-11662
:)	-11663
хх	-11664
ant	-11665
имж	-11666
уль	-11667
▁/0	-11668
▁79	-11669
▁</	-11670
▁Cl	-11671
▁Me	-11672
▁тн	-11673
▁180	-11674
▁For	-11675
андын	-11676
итнес	-11677
▁Санд	-11678
▁ШХАБ	-11679
▁Элэг	-11680
▁бээр	-11681
▁навч	-11682
▁опер	-11683
▁хүүр	-11684
▁хөөс	-11685
▁чилж	-11686
▁эгэл	-11687
▁Хурим	-11688
▁арвин	-11689
▁тогло	-11690
▁цгаая	-11691
▁чихна	-11692
▁эхийг	-11693
▁яригд	-11694
▁Түргэн	-11695
▁гараас	-11696
▁далайд	-11697
▁надаар	-11698
▁тайвшр	-11699
▁таргал	-11700
▁уурлаж	-11701
▁хүнгүй	-11702
▁чихвал	-11703
▁үлджээ	-11704
үүлээрэй	-11705
▁Багшийн	-11706
▁Эхэндээ	-11707
▁дулааны	-11708
▁ирүүлэх	-11709
▁орохоор	-11710
▁хаалгаа	-11711
▁хуудсан	-11712
▁амжихгүй	-11713
▁намынхан	-11714
▁ойлгоход	-11715
▁оролцлоо	-11716
▁сонирхох	-11717
▁улсынхаа	-11718
▁урсгалыг	-11719
▁хаагчийн	-11720
▁хойшлуул	-11721
▁хүмүүжил	-11722
▁шилжүүлж	-11723
▁явагдсан	-11724
▁Вашингтон	-11725
▁Хөлбөмбөг	-11726
▁дуусгавар	-11727
▁мартахгүй	-11728
▁туршлагыг	-11729
▁тэмдэглэн	-11730
▁харьцаанд	-11731
▁хорооноос	-11732
▁тэмцээнийг	-11733
▁хамгаалдаг	-11734
▁нэвтрүүлгийн	-11735
ph	-11736
ays	-11737
int	-11738
ure	-11739
▁IT	-11740
▁My	-11741
истр	-11742
ицер	-11743
самб	-11744
хиад	-11745
▁sub	-11746
▁Дэн	-11747
▁Пал	-11748
▁ЭСЯ	-11749
▁мол	-11750
ичууд	-11751
онгуй	-11752
▁10-1	-11753
▁1991	-11754
▁Page	-11755
▁Очир	-11756
▁Стат	-11757
▁Утас	-11758
▁дээс	-11759
▁прод	-11760
▁хөөх	-11761
Хүмүүс	-11762
лүүлэг	-11763
эгдэнэ	-11764
▁естой	-11765
▁махыг	-11766
▁тэсэн	-11767
▁физик	-11768
▁хаант	-11769
▁хайрц	-11770
▁юмдаа	-11771
▁Библид	-11772
▁Тэглээ	-11773
▁ажилла	-11774
▁болдоо	-11775
▁зочлох	-11776
▁зугтаа	-11777
▁сэлбэг	-11778
▁сүүдэр	-11779
▁тавиур	-11780
▁тивийн	-11781
▁янзаар	-11782
▁байцгаа	-11783
▁болсонд	-11784
▁гэмтсэн	-11785
▁дуугарч	-11786
▁тархалт	-11787
▁хаягийг	-11788
▁холимог	-11789
▁хэмнэлт	-11790
▁Хэтэрхий	-11791
▁буруугүй	-11792
▁бухимдал	-11793
▁нөлөөлөл	-11794
▁сүүлчээр	-11795
▁харьцдаг	-11796
▁хэвшлийн	-11797
▁зөвшөөрнө	-11798
▁сонгогчид	-11799
▁сонсоогүй	-11800
▁тавигдсан	-11801
▁тооцоолох	-11802
▁хичээллэх	-11803
▁хүндэтгэх	-11804
▁өөрсдийнх	-11805
▁гайхамшигт	-11806
▁нарийвчлан	-11807
▁сургуулилт	-11808
▁сурталчлах	-11809
▁тоглоомууд	-11810
▁хэмжээнүүд	-11811
▁шаардлагын	-11812
▁ашиглагддаг	-11813
▁урамшууллын	-11814
▁хамааралгүй	-11815
▁өөрчлөгддөг	-11816
▁Үйлчилгээний	-11817
▁зөвшөөрөгдсөн	-11818
BA	-11819
ON	-11820
tt	-11821
уз	-11822
її	-11823
ish	-11824
ood	-11825
ден	-11826
игч	-11827
уух	-11828
▁pl	-11829
▁Бл	-11830
▁Са	-11831
azon	-11832
мбэр	-11833
мүүн	-11834
оолж	-11835
тган	-11836
хэвч	-11837
▁Ану	-11838
▁ДОХ	-11839
▁Нэв	-11840
▁Пол	-11841
▁бам	-11842
▁дох	-11843
▁цэл	-11844
▁цээ	-11845
agram	-11846
тдийн	-11847
▁porn	-11848
▁Согт	-11849
▁Тэги	-11850
иогийн	-11851
иртуал	-11852
огдоод	-11853
олтгүй	-11854
▁Ажилд	-11855
▁ашгүй	-11856
▁орхин	-11857
▁суулт	-11858
▁сүрэн	-11859
▁хаягд	-11860
▁хөөгд	-11861
▁ээгүй	-11862
гүүдийн	-11863
▁Баярын	-11864
▁Хайрын	-11865
▁Шулуун	-11866
▁багууд	-11867
▁барагд	-11868
▁бодлын	-11869
▁дээшээ	-11870
▁жишээг	-11871
▁олголт	-11872
▁тэнэгт	-11873
▁хэдийг	-11874
▁хэзээд	-11875
▁хэмжиг	-11876
▁өөрөөс	-11877
▁болгоом	-11878
▁гүйгээд	-11879
▁заалдах	-11880
▁нууцаар	-11881
▁сэдвийн	-11882
▁халбага	-11883
▁Пакистан	-11884
▁бахархал	-11885
▁залбирал	-11886
▁зорилгын	-11887
▁илрээгүй	-11888
▁судалсан	-11889
▁тэргүүнд	-11890
▁хангахад	-11891
▁үйлчилнэ	-11892
▁өнгөрдөг	-11893
▁Эдгээрийг	-11894
▁болгохоор	-11895
▁тусгайлан	-11896
▁шаардлагад	-11897
▁үйлдвэрүүд	-11898
▁суурилуулах	-11899
▁хүүхэдтэйгээ	-11900
_:	-11901
Ан	-11902
Од	-11903
▁₮	-11904
гат	-11905
▁):	-11906
▁ab	-11907
▁эе	-11908
tube	-11909
▁Бөө	-11910
▁Дэм	-11911
▁Мун	-11912
▁шөл	-11913
Пүрэв	-11914
алдаж	-11915
иггүй	-11916
▁1994	-11917
▁1995	-11918
▁Соёл	-11919
▁Ээлж	-11920
▁нэрс	-11921
▁одод	-11922
▁тайл	-11923
▁угср	-11924
▁халт	-11925
▁шээс	-11926
▁Бямба	-11927
▁Түмэн	-11928
▁Хамтр	-11929
▁билэг	-11930
▁гахай	-11931
▁огцор	-11932
▁төрөө	-11933
▁урвал	-11934
▁холын	-11935
▁цгээе	-11936
▁юмтай	-11937
▁Залуус	-11938
▁Оюутны	-11939
▁Сүлжээ	-11940
▁айхгүй	-11941
▁болгоё	-11942
▁бурууд	-11943
▁гарсны	-11944
▁зохимж	-11945
▁статус	-11946
▁түлхүү	-11947
▁урлагт	-11948
▁ууланд	-11949
▁цаанаа	-11950
▁элссэн	-11951
▁Найзууд	-11952
▁авчирна	-11953
▁амандаа	-11954
▁суухгүй	-11955
▁тайланд	-11956
▁театрын	-11957
▁тэйгээр	-11958
▁тэмцэлд	-11959
▁түгшүүр	-11960
▁хөлсний	-11961
▁механизм	-11962
▁настнууд	-11963
▁олдоогүй	-11964
▁түрүүлэх	-11965
▁царайтай	-11966
▁шалгасан	-11967
▁эрчүүдэд	-11968
▁байгуулав	-11969
▁тулгамдаж	-11970
▁шалгаарай	-11971
▁шинжээчид	-11972
▁завсарлага	-11973
▁хуралдааны	-11974
▁илэрхийлжээ	-11975
▁төлөвлөгөөнд	-11976
▁цэвэрлэгээний	-11977
10	-11978
sy	-11979
Гал	-11980
Ийм	-11981
мит	-11982
▁he	-11983
▁Гү	-11984
▁до	-11985
емин	-11986
тгөн	-11987
▁11.	-11988
▁Air	-11989
▁ISO	-11990
▁Унг	-11991
▁туг	-11992
аггүй	-11993
▁Дэмж	-11994
▁Ханд	-11995
▁боов	-11996
▁гоос	-11997
▁сана	-11998
▁элдв	-11999
▁эхэд	-12000
▁үерх	-12001
▁Азаар	-12002
▁авсны	-12003
▁аугаа	-12004
▁будах	-12005
▁валют	-12006
▁гэнэн	-12007
▁садан	-12008
▁сахих	-12009
жилтийн	-12010
▁залгах	-12011
▁мөнхөд	-12012
▁наадах	-12013
▁тэжээж	-12014
▁хуваах	-12015
▁хуйвал	-12016
▁хурлыг	-12017
▁үймээн	-12018
▁Гаалийн	-12019
▁заримыг	-12020
▁сурахад	-12021
▁сүлжээг	-12022
Энхбаярын	-12023
▁туслахыг	-12024
▁төлөвлөх	-12025
▁өрсөлдөө	-12026
▁Бурханаас	-12027
▁илрүүлсэн	-12028
▁танилцана	-12029
▁харьцуулж	-12030
▁хүндэтгэж	-12031
▁Товчхондоо	-12032
▁маргаантай	-12033
▁ажилтнуудын	-12034
▁илэрхийллээ	-12035
▁үндэслэлтэй	-12036
▁зөвшөөрөлтэй	-12037
▁төлөөлөгчийн	-12038
,,	-12039
2-	-12040
go	-12041
ЦС	-12042
үс	-12043
ИЙГ	-12044
▁96	-12045
▁TV	-12046
▁co	-12047
sung	-12048
олик	-12049
оолд	-12050
срэг	-12051
улын	-12052
хний	-12053
▁12.	-12054
▁20,	-12055
▁3-4	-12056
▁Зел	-12057
▁Лам	-12058
▁Орч	-12059
▁Чех	-12060
▁Шүд	-12061
▁агн	-12062
▁ант	-12063
▁бух	-12064
▁дэс	-12065
▁цог	-12066
▁Өвч	-12067
Press	-12068
аарал	-12069
асаар	-12070
ензин	-12071
олгүй	-12072
элтэн	-12073
▁Галт	-12074
▁гүнж	-12075
▁прот	-12076
▁сүлд	-12077
▁хэлд	-12078
▁цочр	-12079
чирхий	-12080
▁Баган	-12081
▁Шатах	-12082
▁Эсрэг	-12083
▁амьдр	-12084
▁бидэн	-12085
▁лүүлж	-12086
▁суугч	-12087
▁хожих	-12088
▁цохиж	-12089
▁шоунд	-12090
▁эдлэл	-12091
аасүрэн	-12092
лүүдийг	-12093
▁Бүтээл	-12094
▁Тэрхүү	-12095
▁Хорвоо	-12096
▁Хувцас	-12097
▁андуур	-12098
▁баглаа	-12099
▁бөмбөр	-12100
▁нэмрээ	-12101
▁оооооо	-12102
▁хахаха	-12103
▁хэмжих	-12104
▁шаргал	-12105
▁шумуул	-12106
▁эмчилж	-12107
эгдээгүй	-12108
▁Тэндээс	-12109
▁Францад	-12110
▁Хаанаас	-12111
▁зогсоно	-12112
▁нэгжүүд	-12113
▁Испанийн	-12114
▁албанаас	-12115
▁зөвөлгөө	-12116
▁нээгдсэн	-12117
▁нээлтийн	-12118
▁спортоор	-12119
▁тараасан	-12120
▁хариулав	-12121
▁хоногоос	-12122
▁хуванцар	-12123
▁эхнээсээ	-12124
▁Гайхамшиг	-12125
▁байлгахын	-12126
▁зогсоосон	-12127
▁мэдрэлийн	-12128
▁профессор	-12129
▁төрөлхийн	-12130
▁уйтгартай	-12131
▁шалгуулах	-12132
▁эмчилгээг	-12133
▁байгуулалттай	-12134
▁Бүтээгдэхүүний	-12135
▁байгууллагуудад	-12136
▁үйлчлүүлэгчдийн	-12137
ER	-12138
IS	-12139
лв	-12140
ют	-12141
uro	-12142
оож	-12143
снө	-12144
▁Hy	-12145
▁PM	-12146
▁ҮҮ	-12147
ацар	-12148
хэнд	-12149
чинд	-12150
▁Apr	-12151
▁Jan	-12152
▁Суд	-12153
▁Цэн	-12154
▁акт	-12155
▁баз	-12156
▁фер	-12157
еннис	-12158
▁1980	-12159
▁Маск	-12160
▁догд	-12161
▁жигн	-12162
▁зүгт	-12163
▁мини	-12164
▁уулж	-12165
▁хаус	-12166
▁өснө	-12167
чихвал	-12168
▁Аавын	-12169
▁Гадаа	-12170
▁дороо	-12171
▁дөхөж	-12172
▁ладаг	-12173
▁ололт	-12174
▁сэхээ	-12175
▁тнууд	-12176
▁хишиг	-12177
▁энгэр	-12178
▁үүлнэ	-12179
Батболд	-12180
нүүдийн	-12181
▁бүлдээ	-12182
▁даргаа	-12183
▁зохиох	-12184
▁лагдах	-12185
▁лүүлэх	-12186
▁найраг	-12187
▁нэгдэн	-12188
▁харийн	-12189
▁хонгор	-12190
▁хөхний	-12191
▁чаджээ	-12192
▁чөлөөл	-12193
▁шаналж	-12194
▁эхлэнэ	-12195
▁Библийн	-12196
▁Тэднээс	-12197
▁авснаас	-12198
▁аймгаас	-12199
▁аюулаас	-12200
▁дурджээ	-12201
▁засгаас	-12202
▁илэрдэг	-12203
▁ирснийг	-12204
▁онуудад	-12205
▁товчхон	-12206
▁тохирно	-12207
▁шалгуул	-12208
▁явдлаас	-12209
▁Монголоо	-12210
▁гарснаас	-12211
▁кампанит	-12212
▁намынхаа	-12213
▁новшнууд	-12214
▁тохиолдл	-12215
▁өгчихсөн	-12216
▁Хичээлийн	-12217
▁багийнхан	-12218
▁байлдааны	-12219
▁бохирдлыг	-12220
▁бүтээлчид	-12221
▁дуусахгүй	-12222
▁програмын	-12223
▁тогтоолыг	-12224
▁хуримтлал	-12225
▁Өнөөдрөөс	-12226
Хүрэлсүхийн	-12227
▁Афганистан	-12228
▁илүүдэхгүй	-12229
▁оруулалтыг	-12230
▁харьцуулах	-12231
▁ажиллуулдаг	-12232
▁байгуулахад	-12233
4.	-12234
МН	-12235
рч	-12236
ove	-12237
own	-12238
аза	-12239
ова	-12240
рэн	-12241
▁el	-12242
▁es	-12243
▁Аа	-12244
анда	-12245
жсөн	-12246
илин	-12247
▁ДАР	-12248
▁Жек	-12249
▁Оны	-12250
▁САН	-12251
▁ТӨР	-12252
▁дус	-12253
▁кил	-12254
▁лох	-12255
▁неф	-12256
ралын	-12257
▁Зэвс	-12258
▁Конг	-12259
▁Нэмж	-12260
▁сийн	-12261
▁Өвөө	-12262
ралтай	-12263
▁World	-12264
▁Камер	-12265
▁бетон	-12266
▁биенд	-12267
▁гараж	-12268
▁няцаа	-12269
▁сүйтг	-12270
▁угаар	-12271
▁хагар	-12272
▁Өвгөн	-12273
▁Байгаа	-12274
▁Байшин	-12275
▁Нүдний	-12276
▁Хаврын	-12277
▁Хацарт	-12278
▁ангиас	-12279
▁дархан	-12280
▁түгээх	-12281
▁цаасны	-12282
▁Youtube	-12283
▁Түүгээр	-12284
▁дайралт	-12285
▁илгээнэ	-12286
▁нууцлаг	-12287
▁тайвшир	-12288
▁талбарт	-12289
▁туршдаа	-12290
▁төрлийг	-12291
▁цаазаар	-12292
▁шийтгэх	-12293
▁эгнээнд	-12294
▁өрнөсөн	-12295
▁өсгөсөн	-12296
▁Ирээдүйн	-12297
▁Мэдэхгүй	-12298
▁баталлаа	-12299
▁даалгавр	-12300
▁зохицуул	-12301
▁зөвлөдөг	-12302
▁ирдэггүй	-12303
▁нийтлэлд	-12304
▁тодорлоо	-12305
▁цагаасаа	-12306
▁багтаасан	-12307
▁дэвшилтэт	-12308
▁маркетинг	-12309
▁файлуудыг	-12310
▁хадгалдаг	-12311
▁этгээдийг	-12312
▁агуулгатай	-12313
▁америкчууд	-12314
▁тохируулан	-12315
▁холбооноос	-12316
▁Үйлдвэрийн	-12317
▁Өвөрхангай	-12318
▁Дөрөвдүгээр	-12319
▁Технологийн	-12320
▁байрлуулсан	-12321
▁танилцуулъя	-12322
▁хүүхдүүддээ	-12323
▁боловсронгуй	-12324
TS	-12325
Мэд	-12326
айж	-12327
гиж	-12328
ймс	-12329
элз	-12330
▁94	-12331
▁HT	-12332
▁Ки	-12333
▁Лю	-12334
▁Ээ	-12335
▁ли	-12336
▁ти	-12337
▁өт	-12338
iver	-12339
манд	-12340
сдын	-12341
угар	-12342
эцүү	-12343
▁Бүү	-12344
▁Гүр	-12345
▁Куб	-12346
▁Эрс	-12347
▁амб	-12348
▁арм	-12349
▁бой	-12350
▁гуу	-12351
армаа	-12352
гэлээ	-12353
длаар	-12354
ентад	-12355
▁аним	-12356
▁бнаа	-12357
▁зурш	-12358
▁найд	-12359
▁явъя	-12360
▁Зочид	-12361
▁Хамаг	-12362
▁заана	-12363
▁ивээн	-12364
▁логик	-12365
▁роман	-12366
▁тэдэн	-12367
▁ынхаа	-12368
▁үдээс	-12369
▁Нөхцөл	-12370
▁Цэцийн	-12371
▁багтай	-12372
▁булчир	-12373
▁буцаах	-12374
▁гаднын	-12375
▁гэргий	-12376
▁дээдэс	-12377
▁намтар	-12378
▁нохойн	-12379
▁нуудын	-12380
▁түрүүн	-12381
▁хайсан	-12382
▁хойноо	-12383
▁хэлэнд	-12384
▁хэргээ	-12385
▁хүүдээ	-12386
▁цэгүүд	-12387
▁Дэлхийг	-12388
▁барихад	-12389
▁гавьяат	-12390
▁зарлаад	-12391
▁тооллын	-12392
▁хавтгай	-12393
▁хийсээр	-12394
▁шөнөгүй	-12395
▁яригдах	-12396
▁өөрчлөн	-12397
Ганбаатар	-12398
▁даруухан	-12399
▁зарчмаар	-12400
▁зорилтыг	-12401
▁орноосоо	-12402
▁тутамдаа	-12403
▁тушаалаа	-12404
▁харцгаая	-12405
▁царайлаг	-12406
▁Өөрсдийн	-12407
▁WordPress	-12408
▁Австралид	-12409
▁Египетийн	-12410
▁Залуучууд	-12411
▁сургалтыг	-12412
▁тухайлбал	-12413
▁хүрээлэнд	-12414
▁ээжтэйгээ	-12415
▁бодлоготой	-12416
▁хуралдаанд	-12417
▁санаачилсан	-12418
▁зөвшөөрөлгүй	-12419
▁сургуулиудын	-12420
▁найзуудтайгаа	-12421
▁бүрэлдэхүүнтэй	-12422
df	-12423
ЭВ	-12424
сс	-12425
▁ъ	-12426
ata	-12427
Хар	-12428
Хэн	-12429
гэв	-12430
рат	-12431
▁72	-12432
▁~~	-12433
▁МЭ	-12434
алав	-12435
өжин	-12436
▁Dec	-12437
▁Мер	-12438
▁гоц	-12439
ийгаа	-12440
эрхэг	-12441
▁аван	-12442
▁алан	-12443
▁ланг	-12444
▁төмс	-12445
▁ууна	-12446
▁өрөм	-12447
лалтад	-12448
уулийн	-12449
ээнүүд	-12450
▁Райли	-12451
▁Хүсэл	-12452
▁Юутай	-12453
▁дасан	-12454
▁сурна	-12455
▁тусах	-12456
▁уулан	-12457
▁ядарч	-12458
▁үетэй	-12459
▁өмчит	-12460
▁ачааны	-12461
▁бараад	-12462
▁дайчин	-12463
▁мөрдөг	-12464
▁оффшор	-12465
▁театрт	-12466
▁тоолох	-12467
▁тусгаж	-12468
▁тэргүй	-12469
▁хагаст	-12470
▁хайран	-12471
▁хэлээч	-12472
▁гэдгээр	-12473
▁залууст	-12474
▁зээлээр	-12475
▁охидууд	-12476
▁тогтнох	-12477
▁хэвлэлд	-12478
▁хөтлөгч	-12479
▁эмгэнэл	-12480
▁багассан	-12481
▁зүтгэсэн	-12482
▁мөнгөгүй	-12483
▁оролдоод	-12484
▁сэргийлж	-12485
▁сэтгүүлд	-12486
▁уншигчид	-12487
▁хийснийг	-12488
▁цаашлаад	-12489
▁өргөтгөл	-12490
▁өртөгтэй	-12491
▁Тагнуулын	-12492
▁Тоглолтын	-12493
▁бичлэгүүд	-12494
▁засварлах	-12495
▁оролцохыг	-12496
▁салбартаа	-12497
▁тэсвэртэй	-12498
▁бүтээгдсэн	-12499
▁оролцохоор	-12500
▁Бүтээгдэхүүн	-12501
ww	-12502
ИР	-12503
log	-12504
анз	-12505
ерн	-12506
ийх	-12507
цэл	-12508
эль	-12509
▁6:	-12510
▁87	-12511
▁se	-12512
азер	-12513
бург	-12514
осны	-12515
угал	-12516
члөг	-12517
өрөг	-12518
▁you	-12519
▁НЭГ	-12520
▁Нэх	-12521
▁буя	-12522
▁вин	-12523
▁ист	-12524
жүүлж	-12525
▁Алив	-12526
▁Нөөц	-12527
▁Олны	-12528
▁адис	-12529
▁даал	-12530
▁хивс	-12531
▁цөөр	-12532
▁энэт	-12533
▁Австр	-12534
▁Байна	-12535
▁агаад	-12536
▁алгас	-12537
▁ковид	-12538
▁лэсэн	-12539
▁устга	-12540
▁хамар	-12541
▁хожиж	-12542
▁Дуртай	-12543
▁ажлаар	-12544
▁ашигла	-12545
▁вэбсай	-12546
▁гашуун	-12547
▁гэрлэж	-12548
▁дэвжээ	-12549
▁дээрэл	-12550
▁загалм	-12551
▁зовиур	-12552
▁зураас	-12553
▁мэдрэм	-12554
▁мөчлөг	-12555
▁нуурын	-12556
▁олгогч	-12557
▁орноор	-12558
▁орчмын	-12559
▁реклам	-12560
▁суулаа	-12561
▁тусгал	-12562
▁унтсан	-12563
▁эргүүл	-12564
оодугаар	-12565
▁Нийтлэл	-12566
▁Хичнээн	-12567
▁англиар	-12568
▁мэдрэгч	-12569
▁оруулав	-12570
▁салхинд	-12571
▁төвшинд	-12572
▁харьцаж	-12573
▁хурууны	-12574
▁хуулиуд	-12575
▁шүүхээс	-12576
▁эзэгтэй	-12577
▁Хэрэглээ	-12578
▁Япончууд	-12579
▁баримжаа	-12580
▁боломжоо	-12581
▁гарахаас	-12582
▁дурласан	-12583
▁дэргэдэх	-12584
▁зохиолыг	-12585
▁зэвсгийн	-12586
▁оролцоод	-12587
▁тавихгүй	-12588
▁өнгөрчээ	-12589
▁Instagram	-12590
▁Сэтгэлийн	-12591
▁болсондоо	-12592
▁компаниас	-12593
▁хэлдэггүй	-12594
▁шалтгаалж	-12595
▁Зөвлөлтийн	-12596
▁байгуулаад	-12597
▁хойшлуулах	-12598
▁шийдвэрийн	-12599
▁эмчилгээнд	-12600
▁Хүүхдүүдийн	-12601
▁дэвшигчдийн	-12602
▁тодорхойлно	-12603
▁шинэчлэлийн	-12604
▁эрэгтэйчүүд	-12605
▁мансууруулах	-12606
FC	-12607
na	-12608
бр	-12609
си	-12610
Өө	-12611
:30	-12612
Дав	-12613
▁Sl	-12614
▁БС	-12615
▁Оч	-12616
orts	-12617
имир	-12618
лөөс	-12619
эйшн	-12620
▁Аан	-12621
▁Гэж	-12622
▁Кен	-12623
▁Орд	-12624
▁Тах	-12625
▁Төм	-12626
▁зин	-12627
▁мэн	-12628
▁нав	-12629
алдаг	-12630
лавал	-12631
чилна	-12632
члийн	-12633
шатар	-12634
шүүрт	-12635
▁2030	-12636
▁Карл	-12637
▁Кофе	-12638
▁Хийм	-12639
▁бөгс	-12640
▁зааг	-12641
▁зовн	-12642
▁луул	-12643
▁цоор	-12644
элтийг	-12645
ээсээр	-12646
▁Мөрөө	-12647
▁Сэдэв	-12648
▁Хэцүү	-12649
▁зодож	-12650
▁снийг	-12651
▁такси	-12652
▁тосыг	-12653
▁турах	-12654
▁улайр	-12655
▁харих	-12656
▁эгшиг	-12657
▁Байнга	-12658
▁ангиуд	-12659
▁байлга	-12660
▁будалт	-12661
▁гайхам	-12662
▁заяаны	-12663
▁наашаа	-12664
▁нийцэж	-12665
▁нөхөрт	-12666
▁хэмнэл	-12667
▁хөрсөн	-12668
▁чихгүй	-12669
▁чихэнд	-12670
▁асуувал	-12671
▁бүрддэг	-12672
▁вирусын	-12673
▁дагасан	-12674
▁дэвшсэн	-12675
▁дэмжигч	-12676
▁жингийн	-12677
▁зарлана	-12678
▁зогсоод	-12679
▁конвенц	-12680
▁нөхрийг	-12681
▁олонтаа	-12682
▁тавьжээ	-12683
▁тогоонд	-12684
▁тунадас	-12685
▁уншихад	-12686
▁хэрэглэ	-12687
▁цэцгийн	-12688
▁үнэлэмж	-12689
▁Өөрийнх	-12690
▁өргөсөн	-12691
▁Нобелийн	-12692
▁Нээлттэй	-12693
▁баялгийн	-12694
▁боломгүй	-12695
▁бүртгэлд	-12696
▁гарахдаа	-12697
▁даргатай	-12698
▁дасгалыг	-12699
▁дизайнер	-12700
▁зориулах	-12701
▁импортын	-12702
▁мэдэлтэй	-12703
▁чанарууд	-12704
▁шийдвэрт	-12705
▁анхаардаг	-12706
▁хүлээлгэж	-12707
▁чиглэлийг	-12708
▁явуулахад	-12709
▁Эрдэнэтийн	-12710
▁мэдрэмжтэй	-12711
▁нэмэгдсээр	-12712
▁оролцоотой	-12713
▁тохирохгүй	-12714
▁хориглодог	-12715
▁ээээээээээ	-12716
▁өргөжүүлэх	-12717
▁тогтолцооны	-12718
▁өөрчлөгдөөгүй	-12719
!"	-12720
ИМ	-12721
ХС	-12722
act	-12723
ОТО	-12724
▁62	-12725
▁69	-12726
▁97	-12727
▁AP	-12728
▁Ка	-12729
▁Эй	-12730
гдэж	-12731
длөг	-12732
▁4-5	-12733
▁Oct	-12734
▁Шив	-12735
▁иуд	-12736
▁сын	-12737
▁тєр	-12738
▁Болж	-12739
▁Мянг	-12740
▁Цогт	-12741
▁алдр	-12742
▁аянд	-12743
▁драм	-12744
▁нөөс	-12745
▁сүйд	-12746
▁хүрд	-12747
▁хөөн	-12748
▁шүүж	-12749
Нийгэм	-12750
уулжээ	-12751
▁Латин	-12752
▁агшин	-12753
▁алгаа	-12754
▁больё	-12755
▁оноог	-12756
▁халах	-12757
▁Үндэс	-12758
▁үүдэд	-12759
▁өртэй	-12760
▁өртөө	-12761
▁Роберт	-12762
▁Хийсэн	-12763
▁Хүйтэн	-12764
▁инстит	-12765
▁лавтай	-12766
▁төлөөл	-12767
▁явцгаа	-12768
▁ярихад	-12769
агдахгүй	-12770
▁дуулгах	-12771
▁жолооны	-12772
▁зохицох	-12773
▁нэгтгэж	-12774
▁тархинд	-12775
▁хомсдол	-12776
▁өвчнөөс	-12777
▁өгүүлэл	-12778
▁оролддог	-12779
▁секундын	-12780
▁эвдэрсэн	-12781
анданшатар	-12782
▁Ганбаатар	-12783
▁газруудыг	-12784
▁гаргахаар	-12785
▁сонирхсон	-12786
▁тогтнолын	-12787
▁түмнийхээ	-12788
Сайханбилэг	-12789
▁казиногийн	-12790
▁нэгдүгээрт	-12791
▁нэрлэгддэг	-12792
▁Байгууллага	-12793
▁оролцогчдын	-12794
▁худалдаалах	-12795
▁хүмүүжүүлэх	-12796
▁хүүхдүүдтэй	-12797
ps	-12798
ца	-12799
иус	-12800
оби	-12801
хас	-12802
▁лэ	-12803
амын	-12804
илог	-12805
стан	-12806
өрөө	-12807
▁:_:	-12808
▁Man	-12809
▁Med	-12810
▁аср	-12811
аалга	-12812
чдээс	-12813
өгчид	-12814
▁Free	-12815
▁Агуу	-12816
▁Бууд	-12817
▁Голл	-12818
▁Иван	-12819
▁Сөүл	-12820
▁ШИНЭ	-12821
▁Яруу	-12822
▁зорч	-12823
▁олго	-12824
▁соор	-12825
▁ухаж	-12826
▁хээс	-12827
айрхан	-12828
вөлжин	-12829
гоогүй	-12830
▁COVID	-12831
▁Бүртг	-12832
▁Намар	-12833
▁Эмийн	-12834
▁аргад	-12835
▁нярай	-12836
▁уулна	-12837
▁хүрэн	-12838
▁шүтэн	-12839
▁эгнээ	-12840
▁үзмэр	-12841
▁Найман	-12842
▁Хадгал	-12843
▁Хамтын	-12844
▁асууна	-12845
▁багаас	-12846
▁нэгтээ	-12847
▁тоодог	-12848
▁түүхээ	-12849
▁уулзав	-12850
▁хойших	-12851
▁цагдан	-12852
▁чулууг	-12853
▁шаттай	-12854
▁шахмал	-12855
▁ээжүүд	-12856
▁язгуур	-12857
▁үзмээр	-12858
▁Тоглолт	-12859
▁Хулгайч	-12860
▁арилгаж	-12861
▁гэрлийн	-12862
▁дагадаг	-12863
▁дуусгаж	-12864
▁мэдмээр	-12865
▁нийтлэх	-12866
▁тооцвол	-12867
▁хэлбэрт	-12868
▁ээлжийн	-12869
▁Урлагийн	-12870
▁залуухан	-12871
▁ухаанаар	-12872
▁ялагдсан	-12873
▁болчихвол	-12874
▁бүлийнхээ	-12875
▁дамжиггүй	-12876
▁суралцсан	-12877
▁тайлангаа	-12878
▁толгойтой	-12879
▁учруулсан	-12880
▁Худалдааны	-12881
▁бүрдүүлдэг	-12882
▁сонголттой	-12883
▁хулгайлсан	-12884
▁жагсаалтаас	-12885
▁тэмдэглэгээ	-12886
▁уламжлалтай	-12887
▁хамгаалалтад	-12888
▁хөдөлгөөнтэй	-12889
▁шинэчлэгдсэн	-12890
▁санхүүжилтийн	-12891
▁хүчирхийллийн	-12892
cc	-12893
ky	-12894
АБ	-12895
Тэм	-12896
нөө	-12897
▁/>	-12898
▁89	-12899
▁СУ	-12900
atch	-12901
ount	-12902
дөөд	-12903
▁Диз	-12904
▁Кир	-12905
▁Тос	-12906
▁ТҮЦ	-12907
▁Чул	-12908
▁Өрс	-12909
уурал	-12910
элгээ	-12911
▁/201	-12912
▁1500	-12913
▁tion	-12914
▁жийн	-12915
▁зууч	-12916
▁стер	-12917
▁сүмд	-12918
▁хүйт	-12919
лагууд	-12920
онгийн	-12921
▁Даатг	-12922
▁Удирд	-12923
▁Хайрт	-12924
▁бодов	-12925
▁имэйл	-12926
▁сонсч	-12927
▁удсан	-12928
▁утсан	-12929
▁Өгүүл	-12930
▁Casino	-12931
▁Мартин	-12932
▁Хонгор	-12933
▁амттан	-12934
▁гайхан	-12935
▁дүүгээ	-12936
▁онолын	-12937
▁хуучны	-12938
▁цэрэгт	-12939
▁шаргуу	-12940
▁яривал	-12941
▁Бэлтгэл	-12942
▁байлдан	-12943
▁гагцхүү	-12944
▁гэдгийн	-12945
▁гэснээс	-12946
▁зохиогч	-12947
▁муудалц	-12948
▁тавилаа	-12949
▁хувцсыг	-12950
гаадугаар	-12951
▁Загварын	-12952
▁Сонгинох	-12953
▁аргуудыг	-12954
▁болсноос	-12955
▁дутахгүй	-12956
▁зурагтай	-12957
▁комиссын	-12958
▁нэгдлийн	-12959
▁сахиулах	-12960
▁сэргээлт	-12961
▁улсуудад	-12962
▁хоногоор	-12963
▁хэлснийг	-12964
▁эхнэртэй	-12965
▁ажиллалаа	-12966
▁савангийн	-12967
▁таарахгүй	-12968
▁түрээслэх	-12969
▁хариулжээ	-12970
▁хүүхдэдээ	-12971
▁хүүхэддээ	-12972
▁Үзэсгэлэн	-12973
▁дэлгүүрүүд	-12974
▁сурвалжийн	-12975
▁хагалгаанд	-12976
▁засаглалтай	-12977
▁харагдуулах	-12978
▁хүндэтгэлтэй	-12979
▁өөрчлөгдөхгүй	-12980
▁Ерөнхийлөгчийг	-12981
▁Сонгинохайрхан	-12982
hn	-12983
ib	-12984
uk	-12985
ult	-12986
Бүх	-12987
жоо	-12988
мэд	-12989
▁::	-12990
▁Ph	-12991
▁pe	-12992
▁ЭЕ	-12993
▁нө	-12994
icle	-12995
имаг	-12996
окер	-12997
▁САЙ	-12998
▁руб	-12999
▁цөх	-13000
атекс	-13001
оксын	-13002
▁очин	-13003
▁тавц	-13004
▁хныг	-13005
өнгөөс	-13006
▁Төсөл	-13007
▁кодыг	-13008
▁колон	-13009
▁тариф	-13010
▁угтан	-13011
▁хоцор	-13012
▁хүрэв	-13013
▁өлгий	-13014
▁өртөх	-13015
▁Вакцин	-13016
▁Тайлан	-13017
▁арьсыг	-13018
▁босгож	-13019
▁бурууг	-13020
▁дэггүй	-13021
▁замаас	-13022
▁зарууд	-13023
▁зовсон	-13024
▁зугтах	-13025
▁клубын	-13026
▁металл	-13027
▁тарган	-13028
▁уулаад	-13029
▁харьяа	-13030
▁хүргэн	-13031
▁Samsung	-13032
▁Амгалан	-13033
▁Трампын	-13034
▁биечлэн	-13035
▁болсоор	-13036
▁буурчээ	-13037
▁гомдлыг	-13038
▁жуулчид	-13039
▁зарлага	-13040
▁захиалж	-13041
▁магтаал	-13042
▁метрийн	-13043
▁сугалаа	-13044
▁тооцдог	-13045
▁хэмжээс	-13046
▁хөршийн	-13047
▁эрсдэлд	-13048
▁өмнөхөн	-13049
▁Тэтгэвэр	-13050
▁гэсэндээ	-13051
▁зөрчлийг	-13052
▁мэдээний	-13053
▁татвараа	-13054
▁тулгарах	-13055
▁тэжээвэр	-13056
▁харамсах	-13057
▁хийгддэг	-13058
▁хохирлыг	-13059
▁хохирсон	-13060
▁хоцорсон	-13061
▁шингэсэн	-13062
▁эрхэлсэн	-13063
▁үзэгчдэд	-13064
▁үзүүлэгч	-13065
▁үнэлгээг	-13066
▁өргөдлөө	-13067
▁өрсөлдөг	-13068
▁Хэвлэлийн	-13069
▁гишүүдээс	-13070
▁жолоочийн	-13071
▁мэдэгдэлд	-13072
▁нэмэгджээ	-13073
▁тиймэрхүү	-13074
▁тээвэрлэх	-13075
▁шударгаар	-13076
▁Тогтвортой	-13077
▁бэлэглэсэн	-13078
▁инженерийн	-13079
▁мэргэжлийг	-13080
▁хэлсэнчлэн	-13081
▁эрхлэгчдэд	-13082
▁Монголынхоо	-13083
▁хариуцлагаа	-13084
▁үзүүлэлтүүд	-13085
▁дуулгавартай	-13086
▁боловсруулалт	-13087
CO	-13088
ara	-13089
ies	-13090
oom	-13091
▁);	-13092
▁VI	-13093
▁Ну	-13094
▁ги	-13095
▁ик	-13096
мүүд	-13097
слэх	-13098
▁18,	-13099
▁Mon	-13100
▁Сул	-13101
▁Хак	-13102
▁мед	-13103
▁нөө	-13104
▁топ	-13105
▁эгд	-13106
илгыг	-13107
олсон	-13108
▁Гарч	-13109
▁алив	-13110
▁араб	-13111
▁аяны	-13112
▁завх	-13113
▁комп	-13114
▁мууг	-13115
▁омог	-13116
▁хаас	-13117
▁Бүлэг	-13118
▁Загас	-13119
▁Малын	-13120
▁Уламж	-13121
▁Халдв	-13122
▁админ	-13123
▁гэхэв	-13124
▁тахиа	-13125
▁тоолж	-13126
▁хүзүү	-13127
▁яахын	-13128
▁үнэнд	-13129
▁өсгөж	-13130
лагдагч	-13131
▁Аргент	-13132
▁Хөнгөн	-13133
▁болино	-13134
▁гуйлга	-13135
▁дундын	-13136
▁лагдаж	-13137
▁таслах	-13138
▁унтдаг	-13139
▁унтраа	-13140
▁хоцорч	-13141
▁чансаа	-13142
▁шүтлэг	-13143
▁элсэлт	-13144
▁энхийг	-13145
▁өмчлөх	-13146
▁бутлагч	-13147
▁заагаад	-13148
▁завшаан	-13149
▁маягтай	-13150
▁ногооны	-13151
▁нэгтгэн	-13152
▁сонсоно	-13153
▁сүнслэг	-13154
▁хамтаар	-13155
▁хүргээд	-13156
▁чиглүүл	-13157
▁ялгарах	-13158
▁өвчнөөр	-13159
▁баатрууд	-13160
▁байлгана	-13161
▁бүтээжээ	-13162
▁гамшгийн	-13163
▁мэдэлгүй	-13164
▁удирддаг	-13165
▁хөдөөний	-13166
▁Бурхантай	-13167
▁бодлогоор	-13168
▁гардуулах	-13169
▁мэндэлсэн	-13170
▁Үндсэндээ	-13171
▁Захиргааны	-13172
▁зүйлүүдийг	-13173
▁төлөвлөжээ	-13174
▁явуулахгүй	-13175
▁хадгалагдаж	-13176
▁үндэслэлээр	-13177
▁төлөвлөлтийн	-13178
▁хүрээлэнгийн	-13179
de	-13180
ey	-13181
ix	-13182
sp	-13183
яр	-13184
▁←	-13185
ere	-13186
Бай	-13187
ашё	-13188
аяг	-13189
нгє	-13190
Өнг	-13191
▁#1	-13192
▁-3	-13193
▁63	-13194
▁On	-13195
▁^^	-13196
▁кв	-13197
ерей	-13198
цаад	-13199
▁14.	-13200
▁2.5	-13201
▁23-	-13202
▁Nov	-13203
▁Төг	-13204
▁Шан	-13205
▁гүм	-13206
▁лол	-13207
▁цух	-13208
▁өнх	-13209
аметр	-13210
длаас	-13211
▁More	-13212
▁Time	-13213
▁Арьс	-13214
▁Туяа	-13215
▁Хийж	-13216
▁дорд	-13217
▁дорж	-13218
▁тийз	-13219
▁хумс	-13220
▁хөрс	-13221
▁чдыг	-13222
▁эзэл	-13223
▁үзэв	-13224
▁үнэд	-13225
агчдыг	-13226
алдсан	-13227
антуяа	-13228
монгол	-13229
муудыг	-13230
▁Тохир	-13231
▁Хишиг	-13232
▁архаг	-13233
▁байрт	-13234
▁догдл	-13235
▁дусал	-13236
▁зорих	-13237
▁ивээл	-13238
▁илрэх	-13239
▁инээх	-13240
▁одсон	-13241
▁оллоо	-13242
▁хатаа	-13243
▁хилээ	-13244
▁цолыг	-13245
▁өлсөж	-13246
▁өхөөр	-13247
гэлтийн	-13248
▁Лхагва	-13249
▁Номхон	-13250
▁Төрөөс	-13251
▁ЭЗЭНий	-13252
▁архины	-13253
▁болзоо	-13254
▁модель	-13255
▁нөлөөг	-13256
▁онигоо	-13257
▁сайдаа	-13258
▁төрүүл	-13259
▁харшил	-13260
▁цолтой	-13261
▁шахсан	-13262
▁эгчийн	-13263
▁эрлийз	-13264
Өнгөрсөн	-13265
▁Бутлуур	-13266
▁Зөвлөлт	-13267
▁алдааны	-13268
▁дуусаад	-13269
▁нуугдаж	-13270
▁олонтой	-13271
▁органик	-13272
▁станцын	-13273
▁тавихад	-13274
▁твиттер	-13275
▁уулзвар	-13276
▁хүргэлт	-13277
▁хөвгүүн	-13278
▁шинжээч	-13279
▁үзэгдэх	-13280
▁үнэртэй	-13281
жуулалтын	-13282
▁бичигдэж	-13283
▁болголоо	-13284
▁мэдээлэв	-13285
▁унтлагын	-13286
▁хангадаг	-13287
▁хаягдлыг	-13288
▁Тэнгэрийн	-13289
▁амьдрахад	-13290
▁бичлэгийн	-13291
▁гэрийнхээ	-13292
▁загварууд	-13293
▁залруулах	-13294
▁төвлөрсөн	-13295
▁харилцагч	-13296
▁харууллаа	-13297
▁эмнэлгээс	-13298
▁Залуучуудын	-13299
▁баривчилжээ	-13300
▁компаниудыг	-13301
▁сайжруулсан	-13302
▁хугацаанаас	-13303
▁үзүүлэлтийг	-13304
▁Гуравдугаарт	-13305
▁эсэргүүцлийн	-13306
▁төлөвлөгөөгөө	-13307
8)	-13308
SS	-13309
ЕМ	-13310
ЙЛ	-13311
ьф	-13312
ear	-13313
АТО	-13314
ХАН	-13315
айт	-13316
елл	-13317
ион	-13318
пот	-13319
▁2)	-13320
▁Ed	-13321
▁Sc	-13322
Гант	-13323
лдэг	-13324
линг	-13325
удын	-13326
хаар	-13327
шинэ	-13328
▁27-	-13329
▁Дэг	-13330
Алтай	-13331
Наран	-13332
екийн	-13333
самбл	-13334
▁Ижил	-13335
▁НАТО	-13336
▁лүүл	-13337
▁түрх	-13338
▁хний	-13339
ацгаая	-13340
нэхээр	-13341
эйлээр	-13342
▁Гарын	-13343
▁Групп	-13344
▁Уянга	-13345
▁Элбэг	-13346
▁гуайн	-13347
▁дайсн	-13348
▁ирмэг	-13349
▁талаа	-13350
▁тулах	-13351
▁учрал	-13352
▁хольж	-13353
▁Өнгөр	-13354
Эрдэнэс	-13355
▁Казино	-13356
▁Мэдлэг	-13357
▁ангийг	-13358
▁бактер	-13359
▁гахайн	-13360
▁жорлон	-13361
▁лавлах	-13362
▁нөгөөд	-13363
▁туузан	-13364
▁төслөө	-13365
▁чамгүй	-13366
▁эдүгээ	-13367
▁Зэвсэгт	-13368
▁вакцинд	-13369
▁сайтаас	-13370
▁уулздаг	-13371
▁хооллож	-13372
▁үзэлтэй	-13373
▁өгүүлэв	-13374
▁Владимир	-13375
▁бичээгүй	-13376
▁бодолгүй	-13377
▁зөвлөсөн	-13378
▁санагдав	-13379
▁тодруулж	-13380
▁томилсон	-13381
▁тэмдгийг	-13382
▁халуухан	-13383
▁хувиараа	-13384
▁эмчлүүлж	-13385
▁үгүйсгэж	-13386
▁Чингисийн	-13387
▁Эдгээрийн	-13388
▁болгондоо	-13389
▁луйварчин	-13390
▁тушаалаар	-13391
▁тэтгэлэгт	-13392
▁төлбөртэй	-13393
▁эдгээрийг	-13394
▁Төлөвлөгөө	-13395
▁дарааллаар	-13396
▁шуудангийн	-13397
▁эсэргүүцсэн	-13398
▁санхүүжүүлэх	-13399
▁хамгаалалттай	-13400
AC	-13401
Ир	-13402
пт	-13403
ory	-13404
Ний	-13405
▁Hu	-13406
▁Ro	-13407
▁ЗД	-13408
ower	-13409
длог	-13410
ширч	-13411
▁Жак	-13412
▁Сор	-13413
▁бот	-13414
▁гөл	-13415
▁лэл	-13416
▁мур	-13417
▁пад	-13418
▁под	-13419
Хүний	-13420
гаанд	-13421
▁зүйч	-13422
▁моор	-13423
▁мэйл	-13424
▁орчл	-13425
▁сүйт	-13426
▁хоер	-13427
▁цоож	-13428
▁үрээ	-13429
▁өчиг	-13430
алтгүй	-13431
сэндээ	-13432
▁Алекс	-13433
▁Дахиж	-13434
▁Саран	-13435
▁Сөрөг	-13436
▁Токио	-13437
▁Хохир	-13438
▁арлын	-13439
▁сорил	-13440
▁тусыг	-13441
▁унана	-13442
▁шатар	-13443
▁үүсэл	-13444
▁Өмгөө	-13445
▁Өргөн	-13446
▁өрөөг	-13447
▁өрөөс	-13448
▁Бодвол	-13449
▁Палест	-13450
▁Хэмжээ	-13451
▁бодолц	-13452
▁бүрдэл	-13453
▁видеог	-13454
▁дэгдээ	-13455
▁дүрийн	-13456
▁журамд	-13457
▁зурган	-13458
▁латекс	-13459
▁тавигд	-13460
▁тамирч	-13461
▁тэнхээ	-13462
▁төлөвш	-13463
▁хожсон	-13464
▁хороод	-13465
▁хүнийх	-13466
▁чуулга	-13467
▁үеэрээ	-13468
▁үүлдэг	-13469
▁авилгал	-13470
▁маягийг	-13471
▁охиндоо	-13472
▁харьяат	-13473
▁хоолтой	-13474
▁хуримаа	-13475
▁хөгжүүл	-13476
▁Бидэнтэй	-13477
▁Есдүгээр	-13478
▁Одоогоос	-13479
▁Яаралтай	-13480
▁баримтаа	-13481
▁гэрэлтэй	-13482
▁залуусыг	-13483
▁нөхөртөө	-13484
▁оператор	-13485
▁орчуулах	-13486
▁саналаар	-13487
▁эмэгтэйд	-13488
▁явдаггүй	-13489
▁явдалтай	-13490
▁өгөгдсөн	-13491
▁Мексикийн	-13492
▁буруутгах	-13493
▁бүсгүйтэй	-13494
▁дагуулаад	-13495
▁зөрчилтэй	-13496
▁оруулахыг	-13497
▁хуваарийг	-13498
▁эзэмшлийн	-13499
Хүрэлбаатар	-13500
▁аппликейшн	-13501
▁зургуудаас	-13502
▁ярилцлагын	-13503
▁эрхлэгчдийн	-13504
▁мэргэжлээрээ	-13505
▁нийгэмлэгийн	-13506
БЭ	-13507
ТЗ	-13508
рх	-13509
ый	-13510
Ард	-13511
ака	-13512
ими	-13513
▁&#	-13514
▁1%	-13515
▁Qu	-13516
▁Ге	-13517
▁Ре	-13518
▁Че	-13519
quot	-13520
гарч	-13521
дага	-13522
идог	-13523
лгий	-13524
шлын	-13525
▁)))	-13526
▁130	-13527
▁15,	-13528
▁50-	-13529
▁Алб	-13530
▁Бет	-13531
▁Бит	-13532
▁Зөө	-13533
▁Кат	-13534
▁Мен	-13535
▁Тэс	-13536
▁ХЭР	-13537
▁рез	-13538
▁туя	-13539
▁чип	-13540
▁өгз	-13541
витой	-13542
үүдэл	-13543
▁1989	-13544
▁Амиа	-13545
▁Зуун	-13546
▁Инээ	-13547
▁авиа	-13548
▁ахад	-13549
▁гүнд	-13550
▁дэхь	-13551
▁соли	-13552
▁цэгт	-13553
▁эсэн	-13554
лэгдэх	-13555
осноор	-13556
үүрийн	-13557
▁Ашигт	-13558
▁Нэвтр	-13559
▁Оройн	-13560
▁Охины	-13561
▁Тамхи	-13562
▁Хориг	-13563
▁бизээ	-13564
▁бодон	-13565
▁бодоо	-13566
▁бөөгн	-13567
▁даруу	-13568
▁диваа	-13569
▁жуулж	-13570
▁заяаг	-13571
▁ноогд	-13572
▁хагац	-13573
▁цуваа	-13574
▁өдийг	-13575
▁Авлига	-13576
▁Социал	-13577
▁автсан	-13578
▁ахлагч	-13579
▁болзол	-13580
▁бүлийг	-13581
▁бүтсэн	-13582
▁гээрээ	-13583
▁иргэнш	-13584
▁судлал	-13585
▁таалал	-13586
▁тогтож	-13587
▁тэгдэг	-13588
▁ухаарч	-13589
▁хориог	-13590
▁цогцос	-13591
▁чадавх	-13592
уулаагүй	-13593
▁Москвад	-13594
▁Сүнсний	-13595
▁багтана	-13596
▁бурханы	-13597
▁гарахын	-13598
▁дүнгээс	-13599
▁жимсний	-13600
▁суудалд	-13601
▁түлшний	-13602
▁хавьгүй	-13603
▁чөлөөлж	-13604
▁энэтхэг	-13605
▁Португал	-13606
▁Харанхуй	-13607
▁агуулгын	-13608
▁болчихно	-13609
▁бүхэнтэй	-13610
▁гаргахын	-13611
▁журамтай	-13612
▁итгэлгүй	-13613
▁солилцох	-13614
▁тасарсан	-13615
▁тоглохыг	-13616
▁хэлэлцэн	-13617
▁эхлэхээр	-13618
▁ярилцана	-13619
▁өвчилсөн	-13620
▁баяжуулах	-13621
▁дэглэмийг	-13622
▁мэдүүлсэн	-13623
▁нийлэхгүй	-13624
▁сонгоорой	-13625
▁суралцдаг	-13626
▁уулзалтад	-13627
▁хөрөнгөөр	-13628
▁шалгагдаж	-13629
▁ярьдаггүй	-13630
▁автобусанд	-13631
▁тавилгатай	-13632
▁телевизээр	-13633
▁экспортлох	-13634
▁хэрэглэгдэх	-13635
▁тохиолдуулан	-13636
▁төлөөлөгчдийн	-13637
40	-13638
ei	-13639
ll	-13640
▁€	-13641
oot	-13642
ose	-13643
ЛАГ	-13644
ЛӨГ	-13645
ЭЭЛ	-13646
или	-13647
лүү	-13648
роо	-13649
фля	-13650
▁%-	-13651
▁(5	-13652
▁ID	-13653
▁БУ	-13654
▁Бо	-13655
▁Но	-13656
▁жу	-13657
▁хд	-13658
гүүт	-13659
заяа	-13660
рэлт	-13661
▁15.	-13662
▁Гүй	-13663
▁ЕБС	-13664
▁Рио	-13665
▁Сүм	-13666
▁изм	-13667
▁каф	-13668
▁лиз	-13669
▁мэг	-13670
▁сэм	-13671
Чиний	-13672
▁1984	-13673
▁Tags	-13674
▁more	-13675
▁Санс	-13676
▁Урал	-13677
▁Хань	-13678
▁оных	-13679
▁суув	-13680
▁хонх	-13681
▁юман	-13682
▁явав	-13683
▁үхнэ	-13684
жилтын	-13685
инохон	-13686
лөөгүй	-13687
эснээс	-13688
▁Анхан	-13689
▁Дугуй	-13690
▁Дүрэм	-13691
▁Хавар	-13692
▁амжиж	-13693
▁африк	-13694
▁батга	-13695
▁болой	-13696
▁буцал	-13697
▁гэгээ	-13698
▁долги	-13699
▁инээл	-13700
▁лалын	-13701
▁мотоц	-13702
▁нэхэх	-13703
▁тохиж	-13704
▁хөөрг	-13705
▁эхтэй	-13706
лагджээ	-13707
▁бичээч	-13708
▁буйдан	-13709
▁буцсан	-13710
▁гаргал	-13711
▁дурсах	-13712
▁дээрхи	-13713
▁засалт	-13714
▁мангас	-13715
▁мэдрэл	-13716
▁найдах	-13717
▁настан	-13718
▁оршуул	-13719
▁офицер	-13720
▁хассан	-13721
▁хурдыг	-13722
▁шохойн	-13723
▁энхрий	-13724
▁ээжийг	-13725
▁өмсөөд	-13726
▁Ганцаар	-13727
▁Статист	-13728
▁дизайны	-13729
▁дүүгийн	-13730
▁зургаар	-13731
▁тулааны	-13732
▁төлбөрт	-13733
▁хэрхэвч	-13734
▁шалгарч	-13735
▁ширээнд	-13736
▁Хяналтын	-13737
▁Цаашлаад	-13738
▁бэлэглэх	-13739
▁нарынхаа	-13740
▁таниулах	-13741
▁танхимын	-13742
▁хамаарал	-13743
▁холбоонд	-13744
▁хэлэхээр	-13745
▁эргэлзээ	-13746
▁явчихдаг	-13747
эвэрдэггүй	-13748
▁Авлигатай	-13749
▁Түрээсийн	-13750
▁Хөрөнгийн	-13751
▁захиалгын	-13752
▁захиалсан	-13753
▁наснаасаа	-13754
▁нийцэхгүй	-13755
▁тулгараад	-13756
▁хамаараад	-13757
▁шийдэгдэх	-13758
▁өөртэйгөө	-13759
▁асуугаарай	-13760
▁биелүүлсэн	-13761
▁дэлгүүрээс	-13762
▁жагсаалтын	-13763
▁прокурорын	-13764
▁ялгаварлан	-13765
▁үндэстнүүд	-13766
▁өнгөрөөсөн	-13767
▁Компьютерийн	-13768
▁хэрэгжилтийг	-13769
▁шалгаруулалтад	-13770
3-	-13771
60	-13772
BC	-13773
вд	-13774
юр	-13775
Бям	-13776
Тав	-13777
бын	-13778
нол	-13779
▁et	-13780
▁Ба	-13781
▁ЕС	-13782
▁тє	-13783
амик	-13784
араг	-13785
логд	-13786
мсор	-13787
▁pdf	-13788
▁Бэр	-13789
▁ХУД	-13790
▁ЭЕШ	-13791
▁дөг	-13792
▁ихс	-13793
▁мут	-13794
агтун	-13795
ласны	-13796
▁Банг	-13797
▁Далд	-13798
▁Конс	-13799
▁Стал	-13800
▁Шалт	-13801
▁бүрх	-13802
▁жинд	-13803
▁хаар	-13804
▁халж	-13805
▁шант	-13806
▁үүрч	-13807
outube	-13808
ууштай	-13809
▁ation	-13810
▁Нисэх	-13811
▁залил	-13812
▁ишлэл	-13813
▁яаран	-13814
▁үнэмш	-13815
▁өмхий	-13816
ational	-13817
▁Amazon	-13818
▁Арслан	-13819
▁Хэвлэх	-13820
▁болгов	-13821
▁визний	-13822
▁гаагүй	-13823
▁дэмжин	-13824
▁дүрүүд	-13825
▁зөвөөр	-13826
▁илтгэх	-13827
▁лээгүй	-13828
▁мэндээ	-13829
▁нимгэн	-13830
▁нуусан	-13831
▁олдоно	-13832
▁сүрхий	-13833
▁тусгах	-13834
▁чихлээ	-13835
▁үерхэж	-13836
▁үүрэгт	-13837
▁бүрчлэн	-13838
▁зургаас	-13839
▁илрүүлж	-13840
▁орохоос	-13841
▁тоомсор	-13842
▁түүгээр	-13843
▁ургадаг	-13844
▁хөндсөн	-13845
▁цонхоор	-13846
▁эхэндээ	-13847
▁Асуудлыг	-13848
▁Дагуурын	-13849
▁Ихэнхдээ	-13850
▁Тэдэнтэй	-13851
▁барихаар	-13852
▁дагалдах	-13853
▁залуудаа	-13854
▁залуусаа	-13855
▁зориулав	-13856
▁онцолжээ	-13857
▁холбосон	-13858
▁эхийнхээ	-13859
▁өгүүлжээ	-13860
▁өнгөрөгч	-13861
▁Зөвлөлийн	-13862
▁байрлуулж	-13863
▁халамжийн	-13864
▁хэлэлцээд	-13865
▁хэрэгжсэн	-13866
▁илэрхийлэв	-13867
▁ирээдүйгээ	-13868
▁маргаашийн	-13869
▁мөрөөдлийн	-13870
▁тэнцвэртэй	-13871
▁холбогдоно	-13872
▁цахилгааны	-13873
▁үйлчлүүлэх	-13874
▁олборлолтын	-13875
▁парламентад	-13876
▁хамгаалахад	-13877
▁хүртээмжтэй	-13878
▁хөндлөнгөөс	-13879
▁шүүмжлэлтэй	-13880
▁лабораторийн	-13881
▁хэрэгжүүлдэг	-13882
▁хүмүүнлэгийн	-13883
▁шийдвэрлэхэд	-13884
▁баталгаажуулсан	-13885
ux	-13886
бац	-13887
лот	-13888
цэр	-13889
цөг	-13890
эээ	-13891
▁77	-13892
▁IV	-13893
▁sp	-13894
▁ЕХ	-13895
▁ИХ	-13896
▁Им	-13897
▁дө	-13898
▁сх	-13899
ound	-13900
етер	-13901
▁(3)	-13902
▁13.	-13903
▁НАС	-13904
▁СХД	-13905
▁Таа	-13906
▁Тин	-13907
▁зэх	-13908
▁зүд	-13909
▁ийш	-13910
▁мөл	-13911
▁хит	-13912
амдал	-13913
дрийг	-13914
иунаа	-13915
орона	-13916
чилан	-13917
чихна	-13918
▁1945	-13919
▁Амаз	-13920
▁ХААН	-13921
▁ахаа	-13922
▁доог	-13923
▁дурд	-13924
▁орсн	-13925
Мэдээж	-13926
ааваас	-13927
онгоос	-13928
чилдэг	-13929
өлгөөн	-13930
▁Усанд	-13931
▁Хулан	-13932
▁Шүүгч	-13933
▁ардаа	-13934
▁арилг	-13935
▁архит	-13936
▁бугуй	-13937
▁морьд	-13938
▁сугал	-13939
▁тарах	-13940
▁урууд	-13941
▁хахах	-13942
▁хувиа	-13943
▁үрийн	-13944
Хамгийн	-13945
▁Виктор	-13946
▁Украин	-13947
▁Цэнхэр	-13948
▁Ээжийн	-13949
▁бичвэр	-13950
▁залууд	-13951
▁залхаж	-13952
▁зовдог	-13953
▁орчинг	-13954
▁солино	-13955
▁сэргэж	-13956
▁танайх	-13957
▁уншлаа	-13958
▁урьсан	-13959
▁файлын	-13960
▁худалч	-13961
▁хэвтэх	-13962
▁хөлийн	-13963
▁цэгийн	-13964
▁Үндэст	-13965
▁өвдөөд	-13966
▁Грекийн	-13967
▁Парисын	-13968
▁Христэд	-13969
▁аваргад	-13970
▁арьстай	-13971
▁дүүрсэн	-13972
▁тэрнээс	-13973
▁төрлүүд	-13974
▁чанараа	-13975
▁өгөхдөө	-13976
▁Баталгаа	-13977
▁давхарга	-13978
▁жижиглэн	-13979
▁засагтай	-13980
▁мэдүүлэх	-13981
▁намуудын	-13982
▁салахгүй	-13983
▁сэдэвтэй	-13984
▁тэрийгээ	-13985
▁ухаангүй	-13986
▁цэнэглэх	-13987
▁чанаргүй	-13988
▁шүүгчийн	-13989
▁явуулаад	-13990
▁ёстойгоо	-13991
▁баригчдын	-13992
▁дугаартай	-13993
▁нартайгаа	-13994
▁нийтэлсэн	-13995
▁одоогийнх	-13996
▁орчуулагч	-13997
▁этгээдүүд	-13998
▁өдрүүдийн	-13999
▁таалагдлаа	-14000
▁төгсгөлийн	-14001
▁халдвартай	-14002
▁сонирхолгүй	-14003
▁сэтгэгдлийг	-14004
▁хэрэгсэхгүй	-14005
▁статистикийн	-14006
▁хөнгөлөлттэй	-14007
▁байгууламжийн	-14008
▁хариуцлагагүй	-14009
6)	-14010
AD	-14011
ЗҮ	-14012
net	-14013
СКО	-14014
ейд	-14015
жир	-14016
кин	-14017
оом	-14018
▁3)	-14019
▁Go	-14020
▁PR	-14021
▁Ub	-14022
▁ex	-14023
▁БҮ	-14024
▁Др	-14025
▁Иж	-14026
▁жи	-14027
▁сн	-14028
mart	-14029
мөнх	-14030
снөө	-14031
чигч	-14032
шрут	-14033
▁10%	-14034
▁10:	-14035
▁140	-14036
▁Гит	-14037
▁ИЙГ	-14038
▁СУР	-14039
▁ана	-14040
▁гей	-14041
▁рах	-14042
▁сир	-14043
▁цов	-14044
▁яас	-14045
ектор	-14046
ометр	-14047
өгдөл	-14048
▁2022	-14049
▁4000	-14050
▁John	-14051
▁Гэрт	-14052
▁Дайн	-14053
▁Дамд	-14054
▁Жуул	-14055
▁ЗДТГ	-14056
▁ФОТО	-14057
▁Ядуу	-14058
▁гүйх	-14059
▁лдаг	-14060
▁литр	-14061
▁лого	-14062
▁раад	-14063
цээний	-14064
▁Арилж	-14065
▁Ехова	-14066
▁Нөхөн	-14067
▁Хажуу	-14068
▁алаад	-14069
▁аялан	-14070
▁зөвтг	-14071
▁мэдэн	-14072
▁нэхэж	-14073
▁цилин	-14074
▁эдний	-14075
дагдсан	-14076
эдэнбал	-14077
▁Бөхийн	-14078
▁Тэрний	-14079
▁Утасны	-14080
▁Харвар	-14081
▁Хиймэл	-14082
▁Чамтай	-14083
▁байран	-14084
▁биелэх	-14085
▁бөгөөс	-14086
▁гаараа	-14087
▁дүндээ	-14088
▁зохино	-14089
▁зөгийн	-14090
▁нотолж	-14091
▁олохыг	-14092
▁санаад	-14093
▁суухад	-14094
▁төржээ	-14095
▁төрөөд	-14096
▁ууртай	-14097
▁хамаат	-14098
▁хоргод	-14099
▁хэтийн	-14100
▁шороон	-14101
▁үлдээд	-14102
▁үсгийн	-14103
▁Өөрийг	-14104
▁нисгэгч	-14105
▁ноолуур	-14106
▁сандарч	-14107
▁томчууд	-14108
▁төрхтэй	-14109
▁цуглуул	-14110
▁ядаргаа	-14111
▁үгэндээ	-14112
Батзандан	-14113
▁Мэргэжил	-14114
▁Хэрэглэх	-14115
▁Хэрэгтэй	-14116
▁Эмчилгээ	-14117
▁байцаалт	-14118
▁бүтээдэг	-14119
▁кинонууд	-14120
▁хаягдлын	-14121
▁хямралыг	-14122
▁энергийн	-14123
▁эргүүлэх	-14124
▁ярилцаад	-14125
▁Арилжааны	-14126
▁Тэмцээний	-14127
▁байхаасаа	-14128
▁бүртгүүлж	-14129
▁зурагтаар	-14130
▁мэдээгээр	-14131
▁тоглуулах	-14132
▁уулзахаар	-14133
▁хүмүүсээр	-14134
▁Найруулагч	-14135
▁найзтайгаа	-14136
▁оруулаагүй	-14137
▁тохируулга	-14138
▁хийгдээгүй	-14139
▁эсэргүүцэх	-14140
▁төхөөрөмжүүд	-14141
ii	-14142
ЕР	-14143
нү	-14144
мер	-14145
сен	-14146
шны	-14147
▁">	-14148
▁0,	-14149
▁9,	-14150
▁CD	-14151
▁Ip	-14152
▁ЫГ	-14153
▁ӨН	-14154
ГИЙН	-14155
гаач	-14156
двор	-14157
▁,,,	-14158
▁188	-14159
▁28-	-14160
▁All	-14161
▁con	-14162
▁ist	-14163
▁~~~	-14164
▁Арь	-14165
▁ГХЯ	-14166
▁Мэс	-14167
▁Топ	-14168
▁Уил	-14169
▁Хун	-14170
▁доп	-14171
▁илж	-14172
▁сөө	-14173
▁юмс	-14174
НЕСКО	-14175
Эрдэн	-14176
остер	-14177
тнийг	-14178
▁1970	-14179
▁ахих	-14180
▁байз	-14181
▁хатг	-14182
айлтын	-14183
бацогт	-14184
дэхгүй	-14185
лүүлэн	-14186
сүмбэр	-14187
хинаас	-14188
▁2020·	-14189
▁posts	-14190
▁Барак	-14191
▁Зориг	-14192
▁азгүй	-14193
▁албад	-14194
▁архид	-14195
▁иннов	-14196
▁нойрс	-14197
▁саяын	-14198
▁сохор	-14199
▁тосон	-14200
▁яанаа	-14201
▁үзэгд	-14202
▁үүрэх	-14203
васүрэн	-14204
▁Аварга	-14205
▁Дугаар	-14206
▁Уншигч	-14207
▁Хуудас	-14208
▁Хүлээн	-14209
▁аааааа	-14210
▁бүрхэг	-14211
▁гардан	-14212
▁гашууд	-14213
▁дурлах	-14214
▁замууд	-14215
▁зөрчих	-14216
▁нийцэх	-14217
▁нүдтэй	-14218
▁тавцан	-14219
▁тараад	-14220
▁хамрах	-14221
▁цайгаа	-14222
▁өвддөг	-14223
▁өршөөл	-14224
▁subject	-14225
▁Ажиллах	-14226
▁аваачиж	-14227
▁дангаар	-14228
▁дурдвал	-14229
▁европын	-14230
▁малтмал	-14231
▁нүүдийг	-14232
▁онгоцыг	-14233
▁оноосон	-14234
▁сансарт	-14235
▁тосгоны	-14236
▁туршаад	-14237
▁тэмцэнэ	-14238
▁хичээнэ	-14239
▁шийдээд	-14240
▁эрдмийн	-14241
▁өгөхөөс	-14242
▁comments	-14243
▁Филиппин	-14244
▁бодлогод	-14245
▁болоорой	-14246
▁гэрээгээ	-14247
▁дуусахад	-14248
▁захирлын	-14249
▁сануулах	-14250
▁тасархай	-14251
▁түймрийн	-14252
▁урагшлах	-14253
▁хоногтоо	-14254
▁хотуудын	-14255
▁хоёуланг	-14256
▁хуралдах	-14257
▁чамайгаа	-14258
▁шалгадаг	-14259
▁үздэггүй	-14260
▁Шинжилгээ	-14261
▁буурахгүй	-14262
▁тогтоодог	-14263
▁хуваарийн	-14264
▁борлуулагч	-14265
▁Парламентын	-14266
▁бололцоотой	-14267
▁тохиролцсон	-14268
▁хичээллэдэг	-14269
▁эргэлзэхгүй	-14270
▁эргэлзээгүй	-14271
▁өнгөрүүлдэг	-14272
▁гүйцэтгэлийн	-14273
▁зөвшөөрдөггүй	-14274
ку	-14275
са	-14276
Тэд	-14277
тун	-14278
хэр	-14279
▁1)	-14280
▁5%	-14281
▁Gu	-14282
▁Ha	-14283
▁НЫ	-14284
амба	-14285
есст	-14286
ивал	-14287
имал	-14288
сайн	-14289
трах	-14290
▁Жиг	-14291
▁Цуг	-14292
▁Чар	-14293
▁гид	-14294
▁жүд	-14295
▁нян	-14296
▁раа	-14297
▁шок	-14298
огдов	-14299
үүдэн	-14300
▁6000	-14301
▁Анна	-14302
▁Бель	-14303
▁МИАТ	-14304
▁Манд	-14305
▁ТЭЗҮ	-14306
▁Харь	-14307
▁бдаг	-14308
▁ддаг	-14309
▁зүйг	-14310
▁мисс	-14311
▁тарв	-14312
▁фунт	-14313
▁хайч	-14314
▁ярья	-14315
Баттул	-14316
талсан	-14317
шуухан	-14318
▁Агуул	-14319
▁Нидер	-14320
▁Сирид	-14321
▁Татаж	-14322
▁амины	-14323
▁багаа	-14324
▁буулт	-14325
▁бууны	-14326
▁дуунд	-14327
▁манан	-14328
▁модыг	-14329
▁сэрээ	-14330
▁угтаж	-14331
▁шатаа	-14332
▁шоуны	-14333
ласнаар	-14334
▁unread	-14335
▁Страте	-14336
▁Улсаас	-14337
▁буудаж	-14338
▁гэрийг	-14339
▁дэлгэж	-14340
▁музейн	-14341
▁наасаа	-14342
▁нуруун	-14343
▁нямбай	-14344
▁оргилд	-14345
▁таниас	-14346
▁товчоо	-14347
▁урилга	-14348
▁утсанд	-14349
▁хэрхэх	-14350
▁хөгийн	-14351
▁хөлдөө	-14352
▁янзтай	-14353
▁Өрхийн	-14354
▁article	-14355
▁Ажилгүй	-14356
▁Хүмүүст	-14357
▁ажиглах	-14358
▁арьсанд	-14359
▁гайхдаг	-14360
▁дайраад	-14361
▁дуудаад	-14362
▁дүүргэх	-14363
▁зааврыг	-14364
▁зоогийн	-14365
▁зүрхийг	-14366
▁сольсон	-14367
▁тэгтлээ	-14368
▁хоносон	-14369
▁хэмжүүр	-14370
▁ярьцгаа	-14371
▁үйлчлэл	-14372
▁Болохгүй	-14373
▁Дорнодын	-14374
▁Салбарын	-14375
▁Хатагтай	-14376
▁дуугарах	-14377
▁саналтай	-14378
▁сонсохыг	-14379
▁сураагүй	-14380
▁эргэлзэх	-14381
▁ярилцдаг	-14382
Номтойбаяр	-14383
▁Сургуульд	-14384
▁Тавдугаар	-14385
▁Шалгалтын	-14386
▁Эдгээрээс	-14387
▁айлчлалын	-14388
▁махбодийн	-14389
▁мэдлэгийг	-14390
▁талархлаа	-14391
▁хариуцдаг	-14392
▁цэнгэлдэх	-14393
▁ажилтантай	-14394
▁мэдэгдлийг	-14395
▁санаандгүй	-14396
▁урьдчилгаа	-14397
▁хангамжийг	-14398
▁шийдвэрүүд	-14399
▁шинжилгээг	-14400
▁Хэрэглэгчид	-14401
▁алдагдалтай	-14402
▁баривчилсан	-14403
▁илүүтэйгээр	-14404
▁хэлэлцээрийн	-14405
▁коронавирусийн	-14406
▁хэрэгжүүлэхээр	-14407
ru	-14408
ЭЙ	-14409
ха	-14410
шт	-14411
ife	-14412
ote	-14413
зэн	-14414
цуй	-14415
▁0/	-14416
▁74	-14417
▁84	-14418
▁AR	-14419
▁EN	-14420
▁SM	-14421
▁Ко	-14422
Хурц	-14423
ааль	-14424
аков	-14425
мсог	-14426
обби	-14427
▁80%	-14428
▁iOS	-14429
▁Амт	-14430
▁Зэс	-14431
▁Сод	-14432
▁Тим	-14433
▁Шув	-14434
▁алм	-14435
▁ваа	-14436
▁таб	-14437
▁хыг	-14438
Эдийн	-14439
оодол	-14440
сандр	-14441
▁Нойр	-14442
▁Тэрг	-14443
▁бууз	-14444
▁дата	-14445
▁порт	-14446
▁сарн	-14447
▁такт	-14448
гээсээ	-14449
онголт	-14450
▁Нүүрс	-14451
▁Угтаа	-14452
▁Харьц	-14453
▁Хорин	-14454
▁бацаа	-14455
▁зөөгч	-14456
▁сөнөө	-14457
▁уралд	-14458
▁ургаж	-14459
▁ханын	-14460
▁хулхи	-14461
▁хөгшр	-14462
▁хөрөг	-14463
▁үүснэ	-14464
▁үүсэж	-14465
▁өсчээ	-14466
▁Зохион	-14467
▁Мөрдөн	-14468
▁Түүхэн	-14469
▁ЮНЕСКО	-14470
▁аллага	-14471
▁бужигн	-14472
▁буриад	-14473
▁буурна	-14474
▁гэлтэй	-14475
▁дутмаг	-14476
▁дуучид	-14477
▁зовоох	-14478
▁мангар	-14479
▁мандат	-14480
▁ногдох	-14481
▁олдвор	-14482
▁санана	-14483
▁сардаа	-14484
▁сураад	-14485
▁таавар	-14486
▁тосгон	-14487
▁төвтэй	-14488
▁шатаах	-14489
аанаасаа	-14490
▁Зүрхний	-14491
▁Сонголт	-14492
▁араасаа	-14493
▁виртуал	-14494
▁даавуун	-14495
▁илэрчээ	-14496
▁сонгогч	-14497
▁түмнээс	-14498
▁түүхээс	-14499
▁төрсний	-14500
▁хулгана	-14501
▁хөгжинө	-14502
▁цомгийн	-14503
▁шүүгчид	-14504
▁эвслийн	-14505
▁ялагдал	-14506
▁Мөнгөтэй	-14507
▁Нүүрсний	-14508
▁Ойролцоо	-14509
▁багасгаж	-14510
▁босгосон	-14511
▁бүжиглэж	-14512
▁наадмаар	-14513
▁нийлүүлж	-14514
▁онцоллоо	-14515
▁сэргэлэн	-14516
▁туранхай	-14517
▁удирдсан	-14518
▁хүрэхийг	-14519
▁шаардана	-14520
▁үзүүлээд	-14521
▁өгөөжтэй	-14522
▁өрөөсгөл	-14523
▁Техникийн	-14524
▁Хөдөлгөөн	-14525
▁ангийнхан	-14526
▁зөвлөлдөх	-14527
▁манайхаас	-14528
▁нэлээдгүй	-14529
▁орнуудаас	-14530
▁тэмдэглэв	-14531
▁түүнийхээ	-14532
▁уулзалтыг	-14533
▁хүлээхгүй	-14534
▁дэмжлэгийг	-14535
▁нөхрийнхөө	-14536
▁стандартад	-14537
▁тоглогчдын	-14538
▁шийдвэрээр	-14539
▁өмнөхөөсөө	-14540
▁хүссэнээрээ	-14541
▁Маркетингийн	-14542
▁хүмүүстэйгээ	-14543
▁хамгаалагдсан	-14544
▁байгууллагатай	-14545
mp	-14546
Эм	-14547
ode	-14548
урс	-14549
▁ОЛ	-14550
▁Ов	-14551
▁мл	-14552
▁си	-14553
▁хр	-14554
март	-14555
▁One	-14556
▁Нэл	-14557
▁Чен	-14558
▁Шав	-14559
▁гсн	-14560
▁деп	-14561
▁лна	-14562
▁сээ	-14563
▁худ	-14564
гооны	-14565
члаад	-14566
▁Азид	-14567
▁Асар	-14568
▁Карт	-14569
▁бокс	-14570
▁снаа	-14571
▁хост	-14572
▁өшиг	-14573
▁Дэвид	-14574
▁Ургам	-14575
▁Хурал	-14576
▁амгал	-14577
▁барин	-14578
▁барьц	-14579
▁ламын	-14580
▁лэдэг	-14581
▁совин	-14582
▁туурв	-14583
▁уршиг	-14584
▁чихэж	-14585
▁Өлзий	-14586
▁өргөс	-14587
лагчдын	-14588
▁Гадуур	-14589
▁Ирланд	-14590
▁Прокур	-14591
▁Салбар	-14592
▁Суралц	-14593
▁аавдаа	-14594
▁байдын	-14595
▁болиоч	-14596
▁булаам	-14597
▁буланд	-14598
▁зочилж	-14599
▁намдаа	-14600
▁ханцуй	-14601
▁холоос	-14602
▁хоноод	-14603
▁хурлаа	-14604
▁цаадах	-14605
▁цаазын	-14606
▁чигтээ	-14607
▁шийдэв	-14608
▁эвдрэл	-14609
баатарын	-14610
▁Аргагүй	-14611
▁Тэмцээн	-14612
▁Уулзалт	-14613
▁Хуурамч	-14614
▁малнууд	-14615
▁олимпод	-14616
▁оршихуй	-14617
▁хайраар	-14618
▁хэргүүд	-14619
▁хямралд	-14620
▁Хуралдаа	-14621
▁гараагаа	-14622
▁дутагдаж	-14623
▁зардлаар	-14624
▁нэмэгдэл	-14625
▁ойлгуулж	-14626
▁хангахын	-14627
▁хуудсаар	-14628
▁хэмээлээ	-14629
▁чуулганд	-14630
▁үрэгдсэн	-14631
▁Автомашин	-14632
▁бүтээлтэй	-14633
▁гадаадаас	-14634
▁найруулга	-14635
▁нэгнийгээ	-14636
▁санаанууд	-14637
▁сонгохдоо	-14638
▁татвараас	-14639
▁тэргүүтэй	-14640
▁хайгуулын	-14641
▁хичээнгүй	-14642
▁хэсэгчлэн	-14643
▁илэрхийлнэ	-14644
▁суртахууны	-14645
▁тогтоолоор	-14646
▁төрөлхтөнд	-14647
▁хуваарилах	-14648
▁хэвлэгдсэн	-14649
▁хэрэглэвэл	-14650
▁ярилцлагыг	-14651
▁инээмсэглэж	-14652
▁нэвтрүүлэгт	-14653
▁сэтгүүлчдэд	-14654
▁шаардагдана	-14655
▁үзүүлэлттэй	-14656
▁үргэлжилдэг	-14657
▁хүндэтгэлийн	-14658
▁ярилцлагадаа	-14659
пр	-14660
ѳг	-14661
alt	-14662
ans	-14663
eek	-14664
uto	-14665
Зор	-14666
Оюу	-14667
Хор	-14668
вуу	-14669
гер	-14670
икс	-14671
мис	-14672
ник	-14673
они	-14674
▁BI	-14675
▁NE	-14676
▁Не	-14677
▁ки	-14678
▁ри	-14679
▁рх	-14680
▁єр	-14681
Амьд	-14682
едит	-14683
єлєє	-14684
▁***	-14685
▁40-	-14686
▁New	-14687
▁ent	-14688
▁Гун	-14689
▁Огт	-14690
▁Пит	-14691
▁Тув	-14692
▁ХҮҮ	-14693
▁Цув	-14694
▁бга	-14695
▁нуг	-14696
▁хөд	-14697
▁ҮАБ	-14698
▁Үүл	-14699
▁өнө	-14700
госон	-14701
инжин	-14702
▁Алек	-14703
▁Бонд	-14704
▁Манж	-14705
▁Нягт	-14706
▁Хурц	-14707
▁Хямд	-14708
▁Хөөе	-14709
▁агуй	-14710
▁бялд	-14711
▁гуйя	-14712
▁ерөө	-14713
▁лоод	-14714
▁нэрт	-14715
▁ориг	-14716
▁сумд	-14717
▁схем	-14718
▁тууз	-14719
▁удах	-14720
▁БАЙНА	-14721
▁Босоо	-14722
▁Орост	-14723
▁Улсыг	-14724
▁Эдний	-14725
▁далим	-14726
▁жилээ	-14727
▁илжиг	-14728
▁клубт	-14729
▁мотор	-14730
▁олгов	-14731
▁очвол	-14732
▁сүрье	-14733
▁цацаж	-14734
▁эсийн	-14735
▁ээжид	-14736
▁яалаа	-14737
▁Үхсэн	-14738
▁Өвчин	-14739
▁өрнөх	-14740
▁Ангийн	-14741
▁Орчлон	-14742
▁Уурхай	-14743
▁Хосууд	-14744
▁Хүчтэй	-14745
▁Эхнийх	-14746
▁бүрдэх	-14747
▁дамжиж	-14748
▁жуулах	-14749
▁заншил	-14750
▁мөрний	-14751
▁наслах	-14752
▁нээлээ	-14753
▁сарнай	-14754
▁тэвчих	-14755
▁тэрний	-14756
▁хохирч	-14757
▁хувирч	-14758
▁хүргье	-14759
▁чадлын	-14760
▁өргөмж	-14761
▁Comment	-14762
▁байцаал	-14763
▁бүтээлд	-14764
▁галзуур	-14765
▁гарааны	-14766
▁гэгчээр	-14767
▁давтамж	-14768
▁дүрслэл	-14769
▁муудсан	-14770
▁мөнгөнд	-14771
▁нийлбэр	-14772
▁номноос	-14773
▁сахилга	-14774
▁тэмцсэн	-14775
▁түншүүд	-14776
▁уриалга	-14777
▁хавьтал	-14778
▁хахууль	-14779
▁өнгөрнө	-14780
▁байгальд	-14781
▁бичихдээ	-14782
▁вирусийн	-14783
▁дээдсийн	-14784
▁жолоодох	-14785
▁онгоцонд	-14786
▁сонсоход	-14787
▁тэмдгийн	-14788
▁төлөхгүй	-14789
▁урсгалын	-14790
▁халаасан	-14791
▁хоногийг	-14792
▁хосуудын	-14793
▁хувирсан	-14794
▁хөтөлдөг	-14795
▁богинохон	-14796
▁сонирхолд	-14797
▁суугаагүй	-14798
▁уулзаагүй	-14799
▁хүндэтгэн	-14800
▁хөрвүүлэх	-14801
▁чиглүүлэх	-14802
Занданшатар	-14803
▁Бээжингийн	-14804
▁боломжуудыг	-14805
▁бүлэглэлийн	-14806
▁сэтгэлээрээ	-14807
AT	-14808
БА	-14809
ГЭ	-14810
ре	-14811
фи	-14812
оох	-14813
▁Or	-14814
▁SS	-14815
.000	-14816
ussy	-14817
лгэн	-14818
омол	-14819
члол	-14820
ьект	-14821
▁1,5	-14822
▁110	-14823
▁12,	-14824
▁22,	-14825
▁Jul	-14826
▁Ser	-14827
▁БИД	-14828
▁ГАР	-14829
▁Жур	-14830
▁агч	-14831
▁атг	-14832
▁реф	-14833
▁ѳѳр	-14834
▁ӨӨР	-14835
ектур	-14836
өлгүй	-14837
▁Биеэ	-14838
▁Тэгш	-14839
▁айна	-14840
▁асаа	-14841
▁зайр	-14842
▁тууж	-14843
▁хэрц	-14844
▁энэр	-14845
вадорж	-14846
жилсэн	-14847
▁Бүхэл	-14848
▁Вирус	-14849
▁Инээд	-14850
▁Хааны	-14851
▁Хашаа	-14852
▁Хэлэх	-14853
▁Явган	-14854
▁азтан	-14855
▁араар	-14856
▁асууя	-14857
▁ерийн	-14858
▁уулаа	-14859
▁хальс	-14860
▁хашиж	-14861
▁шахах	-14862
▁ядаад	-14863
▁үрийг	-14864
▁өтгөн	-14865
оронзон	-14866
▁Хэрлэн	-14867
▁арчлах	-14868
▁байсын	-14869
▁болиод	-14870
▁гажууд	-14871
▁гаргас	-14872
▁зарлан	-14873
▁лээрэй	-14874
▁орохын	-14875
▁орчуул	-14876
▁сантай	-14877
▁танайд	-14878
▁угаана	-14879
▁уснаас	-14880
▁уулдаг	-14881
▁хиймор	-14882
▁хүлэмж	-14883
▁хөндөж	-14884
▁цуглаа	-14885
▁чадлыг	-14886
▁үсгээр	-14887
▁үхрийн	-14888
▁youtube	-14889
▁Есүсийг	-14890
▁Тэргүүн	-14891
▁Хэргийн	-14892
▁Чуулган	-14893
▁авснаар	-14894
▁баавгай	-14895
▁байшинг	-14896
▁бүсгүйд	-14897
▁витамин	-14898
▁гүйцсэн	-14899
▁луулдаг	-14900
▁маршрут	-14901
▁минутад	-14902
▁нүүрийг	-14903
▁олимпын	-14904
▁халдсан	-14905
▁эрхлэлт	-14906
▁өнгөний	-14907
▁Багануур	-14908
▁Сүүлчийн	-14909
▁Худалдах	-14910
▁Шалтгаан	-14911
▁бариарай	-14912
▁бодогдож	-14913
▁буцахгүй	-14914
▁дорвитой	-14915
▁зогсооно	-14916
▁ордоггүй	-14917
▁сануулга	-14918
▁тооцооны	-14919
▁хаалгаар	-14920
▁хамруулж	-14921
▁хоригдож	-14922
▁чинээлэг	-14923
▁шинэчилж	-14924
▁өсөлттэй	-14925
▁өөрөөрөө	-14926
▁авьяастай	-14927
▁байгуулан	-14928
▁буцалтгүй	-14929
▁гудамжаар	-14930
▁маргааныг	-14931
▁мэдэгдэнэ	-14932
▁тохиргоог	-14933
▁хардаггүй	-14934
▁хоолойгоо	-14935
▁эргэлтийн	-14936
▁Өнөөдрийг	-14937
▁ажиглагдаж	-14938
▁байдлаараа	-14939
▁оруулахаар	-14940
▁тайлангийн	-14941
▁хорвоогийн	-14942
▁хуваалцсан	-14943
[...]
