<unk>	0
<s>	0
</s>	0
.	-3.00697
,	-4.11512
▁нь	-4.30719
д	-4.68656
▁байна	-4.81215
▁юм	-4.94828
▁	-5.03202
ийн	-5.05794
ын	-5.07454
▁ч	-5.08543
г	-5.16802
т	-5.19565
▁л	-5.25809
-	-5.25881
▁гэж	-5.26669
гүй	-5.33455
н	-5.34478
▁байгаа	-5.37358
▁"	-5.42446
"	-5.43241
?	-5.43667
▁-	-5.45346
ыг	-5.45359
ийг	-5.45826
▁бол	-5.47782
х	-5.54864
ж	-5.58847
ээ	-5.59314
:	-5.6093
▁энэ	-5.68821
с	-5.69756
р	-5.71474
▁байсан	-5.73745
▁Энэ	-5.73916
аа	-5.81222
тай	-5.81712
▁нэг	-5.87522
▁байх	-5.88276
тэй	-5.91275
л	-5.93597
▁хүн	-5.94031
ч	-5.99024
▁уу	-6.04661
▁болно	-6.13353
▁их	-6.13825
▁та	-6.17997
сан	-6.18301
▁би	-6.1933
ны	-6.21416
...	-6.23782
аар	-6.24393
▁вэ	-6.25465
▁байдаг	-6.28913
▁дээ	-6.31403
▁гэсэн	-6.33024
▁дээр	-6.33468
▁олон	-6.38221
▁...	-6.38661
▁юу	-6.40755
▁Би	-6.4248
ад	-6.43037
▁ямар	-6.44696
▁шүү	-6.45241
▁тэр	-6.46593
аас	-6.49732
▁биш	-6.50741
ц	-6.59984
ээр	-6.62679
▁Та	-6.64942
▁болох	-6.65899
▁хамгийн	-6.6675
▁хэрэгтэй	-6.68211
гийн	-6.68214
даг	-6.68229
▁сайн	-6.68507
▁болон	-6.68599
)	-6.69266
ан	-6.7128
▁бид	-6.72548
на	-6.72616
ний	-6.72623
▁хоёр	-6.73976
ш	-6.74771
▁зүйл	-6.76752
▁болсон	-6.76753
а	-6.78343
▁гэдэг	-6.78533
ээс	-6.80504
▁(	-6.81579
▁өмнө	-6.81696
оо	-6.82855
▁шиг	-6.83284
▁ёстой	-6.83908
даа	-6.84263
в	-6.8477
м	-6.86442
ах	-6.87181
▁байж	-6.87206
▁жил	-6.88066
!	-6.88158
▁үү	-6.88203
▁чинь	-6.88821
▁Тэр	-6.89146
▁улс	-6.89216
нд	-6.89521
▁үед	-6.90822
▁бүх	-6.90845
▁цаг	-6.91303
▁болж	-6.92488
сэн	-6.94012
▁илүү	-6.94711
▁хүмүүс	-6.94784
▁маш	-6.9496
▁даа	-6.95476
▁бүр	-6.97104
▁өөр	-6.97855
▁Харин	-6.98318
▁оны	-7.012
эд	-7.01256
дээ	-7.01495
▁талаар	-7.01835
▁хийж	-7.02801
▁ажил	-7.04302
▁дараа	-7.04312
▁бас	-7.04633
з	-7.05419
▁авах	-7.05486
▁Монгол	-7.06139
▁хувьд	-7.06643
▁Б	-7.06711
▁нар	-7.06816
▁буй	-7.07933
▁гээд	-7.08174
▁жилийн	-7.08542
▁2	-7.08771
▁хийх	-7.09961
▁сарын	-7.10463
▁өдөр	-7.10692
ий	-7.11294
▁үйл	-7.11811
▁тухай	-7.11944
▁бөгөөд	-7.12042
▁газар	-7.12162
ууд	-7.12199
▁үг	-7.12375
▁авч	-7.15155
▁одоо	-7.15305
лаа	-7.15397
▁Гэхдээ	-7.16415
▁эрх	-7.16561
и	-7.16697
▁онд	-7.17243
▁ийм	-7.17791
▁бэ	-7.18182
▁хэн	-7.18951
▁үр	-7.19556
▁С	-7.19565
▁минь	-7.20406
▁нэгэн	-7.21994
ы	-7.22336
▁Бид	-7.23059
▁байхгүй	-7.23177
▁ба	-7.23407
▁бий	-7.23749
▁Х	-7.24924
о	-7.2608
▁хүний	-7.26558
▁шинэ	-7.26672
▁1	-7.267
гаа	-7.26816
той	-7.27013
▁гар	-7.27059
аад	-7.28017
ал	-7.2943
▁нэр	-7.29833
э	-7.30107
▁миний	-7.30151
эн	-7.30425
▁сайхан	-7.30714
▁арга	-7.31328
▁Д	-7.31619
▁улсын	-7.32458
▁хэрэг	-7.32996
ар	-7.34329
▁том	-7.34348
v	-7.35446
▁удаа	-7.36416
▁билээ	-7.37075
▁хар	-7.37283
он	-7.37457
▁боломжтой	-7.37957
ь	-7.3843
нэ	-7.38523
▁мөн	-7.38846
▁.	-7.38951
▁байлаа	-7.39194
▁гэр	-7.39912
▁А	-7.40816
ав	-7.40918
▁Т	-7.41006
е	-7.41196
өө	-7.41616
/	-7.42778
жээ	-7.43347
дэг	-7.43472
сон	-7.4352
▁3	-7.4368
Х	-7.4461
▁тулд	-7.44676
▁орон	-7.45508
▁гэдгийг	-7.45727
▁Мөн	-7.46006
▁асуудал	-7.46202
ид	-7.46528
▁тус	-7.46667
Д	-7.47005
▁Н	-7.47104
▁хэдэн	-7.47634
▁хэрхэн	-7.47965
й	-7.48343
▁аж	-7.48487
аж	-7.48837
▁бие	-7.48903
▁эсвэл	-7.49265
s	-7.50984
эл	-7.51535
▁чи	-7.51661
▁хэл	-7.51709
▁таны	-7.51775
▁санал	-7.51896
▁тийм	-7.52258
▁маань	-7.52393
лээ	-7.52915
оор	-7.53124
▁хүнд	-7.5347
ин	-7.53543
▁дахь	-7.53973
▁дахин	-7.54161
эх	-7.5431
▁гэх	-7.55104
▁зөв	-7.55285
▁өөрийн	-7.55292
▁ш	-7.55716
▁бага	-7.56408
▁хүртэл	-7.5643
хан	-7.56514
үүд	-7.56549
▁болохгүй	-7.5756
С	-7.57724
▁ирсэн	-7.57981
▁төлөө	-7.58007
▁10	-7.58039
▁5	-7.5823
▁Г	-7.58726
▁хувь	-7.59759
аг	-7.59772
к	-7.60003
▁Одоо	-7.60297
▁ээ	-7.60428
анд	-7.60497
▁манай	-7.60541
од	-7.60648
лах	-7.6074
▁эх	-7.60799
▁Миний	-7.60975
ор	-7.61418
Н	-7.61442
Т	-7.61913
▁чухал	-7.62271
▁хэмээн	-7.62552
▁чадахгүй	-7.62831
у	-7.63083
ер	-7.63152
уу	-7.63436
▁ам	-7.63727
▁х	-7.64236
▁гол	-7.65091
ил	-7.6571
▁б	-7.66432
▁байр	-7.67655
▁албан	-7.67875
▁4	-7.67925
▁Тиймээс	-7.67999
А	-7.68119
▁хийсэн	-7.6851
▁Ц	-7.68583
▁тоо	-7.68787
3	-7.69341
▁М	-7.6956
▁авсан	-7.70188
▁төр	-7.7022
▁/	-7.70317
▁аль	-7.70691
▁түүний	-7.70875
▁хойш	-7.7096
ол	-7.71158
▁хэзээ	-7.7121
▁гарч	-7.71615
▁үнэ	-7.72358
▁төрийн	-7.72672
га	-7.72793
▁байв	-7.73045
▁ард	-7.73048
▁өөрөө	-7.73138
ам	-7.73241
эр	-7.73347
оос	-7.7355
▁19	-7.73647
y	-7.73648
▁өндөр	-7.73652
б	-7.73738
чих	-7.73759
▁бусад	-7.74067
▁мэдээлэл	-7.74116
▁ажиллаж	-7.75225
▁нас	-7.76163
үү	-7.76238
▁бодож	-7.76475
▁хууль	-7.76535
▁УИХ	-7.76643
▁зөвхөн	-7.76711
▁санаа	-7.76793
▁Хэрэв	-7.76826
хүү	-7.77079
▁болов	-7.77355
▁учраас	-7.77935
▁орж	-7.78241
чин	-7.78323
▁биз	-7.78337
ай	-7.78876
e	-7.79251
▁хугацаанд	-7.79536
▁муу	-7.79626
▁Тэд	-7.79631
▁надад	-7.79783
▁дарга	-7.79814
a	-7.80052
▁яаж	-7.80125
o	-7.80185
Г	-7.80229
▁хамт	-7.80446
▁руу	-7.80762
▁АНУ	-7.81037
▁З	-7.81137
▁мөнгө	-7.81247
▁сэтгэл	-7.81254
гээ	-7.81341
▁Манай	-7.81859
наас	-7.82443
▁тэд	-7.82591
1	-7.82666
▁хүүхэд	-7.82692
▁бус	-7.82783
▁сая	-7.83134
▁болохоор	-7.83444
▁тул	-7.83797
▁мэдээ	-7.83823
▁У	-7.84302
▁байдал	-7.8431
▁яагаад	-7.84433
▁дуу	-7.84872
▁Монголын	-7.8492
▁яг	-7.85298
▁тодорхой	-7.85473
▁сар	-7.85499
▁намайг	-7.86031
я	-7.86037
▁явж	-7.86068
▁боломж	-7.86099
▁үүнийг	-7.86684
ү	-7.86711
▁мэт	-7.86811
▁ажлын	-7.87091
▁байхад	-7.87877
▁Нэг	-7.87905
▁зарим	-7.88223
00	-7.88277
4	-7.88299
▁хэлж	-7.88458
У	-7.88607
▁залуу	-7.89326
▁гэнэ	-7.89791
М	-7.89999
▁ажиллах	-7.90022
ов	-7.9003
▁мэдэх	-7.90132
▁дотор	-7.90486
▁сайд	-7.90502
лан	-7.90545
▁олж	-7.90602
5	-7.90732
▁зураг	-7.90779
лэг	-7.90946
Б	-7.91429
2	-7.91874
▁газрын	-7.91913
▁тал	-7.92232
▁учир	-7.92348
▁ирэх	-7.92355
лэх	-7.92437
ана	-7.92471
▁Гэтэл	-7.93119
▁үе	-7.93289
▁бидний	-7.9374
▁аа	-7.93896
ир	-7.93943
хаа	-7.93974
▁Засгийн	-7.94293
гаар	-7.94371
ө	-7.94488
дог	-7.94543
▁машин	-7.94944
▁г	-7.94945
▁эмэгтэй	-7.95349
ээд	-7.95419
▁с	-7.95672
▁өгөх	-7.9572
▁нам	-7.95983
▁Чи	-7.96135
▁өнөөдөр	-7.97944
"-	-7.97949
▁ээж	-7.98223
▁хэсэг	-7.98575
▁Тэгээд	-7.98686
▁гишүүн	-7.98984
▁_	-7.99193
▁зам	-7.99263
u	-7.99602
▁үнэхээр	-8.00234
▁т	-8.00254
лийн	-8.00293
▁зах	-8.00351
;	-8.00634
▁уг	-8.01019
лт	-8.01122
▁Ийм	-8.01189
▁дуртай	-8.01254
▁түүнийг	-8.01281
▁нийт	-8.01471
▁байгааг	-8.0149
лаг	-8.01493
▁бүрэн	-8.01654
▁О	-8.01743
эг	-8.01863
▁7	-8.01924
▁хүлээн	-8.02283
▁дэлхийн	-8.02726
▁ор	-8.02961
эв	-8.03484
лын	-8.03647
өл	-8.0375
▁энд	-8.03754
▁хэлсэн	-8.03962
▁шийдвэр	-8.04002
▁хугацаа	-8.04301
▁харж	-8.04481
▁гурван	-8.04531
▁өгсөн	-8.04958
▁эдийн	-8.05103
i	-8.05396
▁бай	-8.05427
▁Таны	-8.05532
▁6	-8.05659
▁явах	-8.05879
▁байвал	-8.05931
▁эр	-8.06029
▁болоод	-8.06032
Би	-8.06063
▁он	-8.06172
лоо	-8.06393
▁холбоотой	-8.06715
▁танд	-8.07117
▁буюу	-8.07555
▁дугаар	-8.07565
▁Улсын	-8.07784
▁өөрийгөө	-8.07955
▁гарсан	-8.08027
сөн	-8.08258
▁шаардлагатай	-8.0873
▁үеийн	-8.08881
▁ганц	-8.08888
доо	-8.09121
▁Тийм	-8.09161
▁20	-8.09186
▁асуудлыг	-8.09371
▁зохион	-8.09437
▁хөрөнгө	-8.09452
p	-8.09651
▁ав	-8.09684
▁анх	-8.09689
▁хэмжээ	-8.09699
▁долоо	-8.09858
▁үгүй	-8.10022
но	-8.10258
▁S	-8.10498
▁Гэвч	-8.10732
▁үнэн	-8.10865
▁гаруй	-8.10883
▁төрлийн	-8.10901
▁дунд	-8.11161
▁засгийн	-8.11219
▁За	-8.1134
▁хоол	-8.11794
ас	-8.12043
Э	-8.12118
▁харин	-8.12472
▁Ч	-8.12588
▁ар	-8.12608
▁а	-8.12629
▁ажиллагаа	-8.12747
өөр	-8.12822
▁хэр	-8.12869
Л	-8.12943
И	-8.13303
▁Түүний	-8.13384
ен	-8.13456
эм	-8.14346
▁эрүүл	-8.14635
чид	-8.14738
▁Ямар	-8.14872
▁баяр	-8.15005
▁м	-8.15042
▁гарах	-8.15171
7	-8.15206
эж	-8.15216
▁яах	-8.15359
▁ном	-8.16242
▁зүйлийг	-8.16271
▁улсад	-8.1639
▁хүү	-8.16604
вал	-8.16688
▁байдлаар	-8.16724
▁бүл	-8.1676
▁зүгээр	-8.16811
▁P	-8.16869
Р	-8.17086
▁ингэж	-8.17176
▁дагуу	-8.17301
▁зэрэг	-8.17373
▁буруу	-8.17473
▁найз	-8.17711
▁боллоо	-8.17768
▁8	-8.18008
▁И	-8.18066
▁Хүн	-8.18294
▁хэд	-8.18354
▁мэдэхгүй	-8.18357
▁болгон	-8.18364
▁Ер	-8.18423
▁боловч	-8.18513
▁ур	-8.18997
▁гэвэл	-8.1905
▁явдал	-8.19223
ой	-8.19269
▁иргэд	-8.19641
тан	-8.1965
▁бүгд	-8.19766
им	-8.19991
▁үзэх	-8.20953
8	-8.21177
гээр	-8.21225
уудыг	-8.21267
▁алга	-8.21393
▁хайр	-8.21528
▁амьдрал	-8.21922
▁гэв	-8.22015
▁хэцүү	-8.22089
▁авна	-8.22297
▁Өнөөдөр	-8.22338
▁Олон	-8.225
п	-8.22972
▁ярьж	-8.22988
▁шууд	-8.23036
▁Э	-8.23395
▁Үүнийг	-8.23681
▁ял	-8.2376
О	-8.24069
▁B	-8.24393
хэн	-8.24456
үүл	-8.24697
энд	-8.24727
▁болжээ	-8.24878
C	-8.25168
▁сард	-8.25417
уул	-8.25456
▁нөхцөл	-8.25526
▁болгох	-8.25548
уулах	-8.25624
▁Л	-8.25689
▁гаргаж	-8.2571
▁Уг	-8.26226
▁Улс	-8.26232
▁компани	-8.2644
▁охин	-8.26806
▁ирж	-8.26842
▁гэхэд	-8.26881
▁аав	-8.26973
▁болдог	-8.26978
▁өнгөрсөн	-8.27314
▁настай	-8.27406
▁Их	-8.27463
лж	-8.27464
▁хийдэг	-8.28009
▁анхны	-8.28036
▁хэлэх	-8.2804
▁Тэгвэл	-8.28217
▁хоног	-8.28383
▁чадах	-8.29036
▁з	-8.29104
▁A	-8.29469
S	-8.29587
өөс	-8.29695
ом	-8.29805
гоо	-8.29891
▁C	-8.29974
▁гаргах	-8.29991
A	-8.3016
▁за	-8.30251
▁монгол	-8.30318
▁адил	-8.30435
▁Бүх	-8.30743
өд	-8.30951
ри	-8.31193
▁н	-8.31456
▁хүнийг	-8.31649
▁боддог	-8.31685
▁хөл	-8.31844
▁багш	-8.31892
D	-8.31948
▁ха	-8.3215
▁тэдний	-8.32198
▁хүлээж	-8.32207
▁Хамгийн	-8.32381
▁ашиг	-8.3265
P	-8.32784
▁хуулийн	-8.32789
▁зээл	-8.32831
ат	-8.32965
өр	-8.33093
▁байгаад	-8.33427
▁тухайн	-8.33462
er	-8.33478
▁байжээ	-8.33515
▁Ш	-8.33645
▁ус	-8.33656
▁хэрэггүй	-8.3383
c	-8.33852
▁К	-8.3394
▁ярих	-8.34116
▁хариу	-8.34457
▁д	-8.34554
▁ашиглах	-8.34578
▁бүхэн	-8.3472
▁үзэж	-8.34826
▁бараг	-8.3499
▁эд	-8.35346
▁үл	-8.35454
▁Эдгээр	-8.35454
▁дүр	-8.35899
▁орох	-8.3603
▁кино	-8.3607
▁хүмүүсийн	-8.36447
▁нутгийн	-8.36609
Та	-8.36697
уудын	-8.36959
▁ц	-8.37076
▁Ж	-8.37168
лэн	-8.37344
▁амжилт	-8.37387
▁ил	-8.37422
ул	-8.37458
▁хүч	-8.37496
▁бүү	-8.37607
I	-8.3767
▁магадгүй	-8.37705
гүйгээр	-8.37732
▁тохиолдолд	-8.37779
ох	-8.37933
▁өдрийн	-8.3801
▁баримт	-8.38137
нээс	-8.38147
▁хот	-8.38322
t	-8.38373
▁хүчин	-8.38377
ик	-8.38472
▁АН	-8.38483
▁үргэлж	-8.38764
өх	-8.38916
9	-8.38942
▁өгч	-8.38963
▁дээд	-8.39306
▁Тэрээр	-8.39373
гч	-8.3964
6	-8.39773
чил	-8.398
▁12	-8.39839
▁зан	-8.40013
▁сүүлийн	-8.4008
▁ах	-8.40124
ур	-8.40158
▁хол	-8.40198
маар	-8.40238
▁бүрийн	-8.40563
▁ир	-8.40988
▁гаргасан	-8.41008
хи	-8.41034
▁Хэрвээ	-8.41757
▁гадна	-8.41855
▁цагийн	-8.41983
T	-8.42246
▁зар	-8.42311
▁эдгээр	-8.42459
сны	-8.42631
▁алдаа	-8.42757
аараа	-8.43188
дын	-8.43193
▁эсрэг	-8.43348
▁харах	-8.43425
▁хамгаалах	-8.435
▁Хар	-8.43553
жин	-8.4364
хээ	-8.4366
▁дээрх	-8.43773
ог	-8.44002
▁хоногийн	-8.44076
▁турш	-8.44183
▁төв	-8.44209
▁орсон	-8.44256
▁тань	-8.44275
нууд	-8.44468
n	-8.44487
▁эмч	-8.4453
▁Дэлхийн	-8.44625
аагүй	-8.45019
b	-8.45106
▁Ерөнхийлөгч	-8.45651
ит	-8.45694
▁заавал	-8.45795
дөг	-8.45803
▁мэд	-8.45819
▁Яагаад	-8.45925
▁хий	-8.46226
▁МАН	-8.46517
E	-8.46895
▁T	-8.46972
▁чадна	-8.46987
▁боломжгүй	-8.47054
▁Шинэ	-8.47076
▁толгой	-8.47153
▁цагт	-8.47201
▁бүхий	-8.47213
Ү	-8.47284
▁30	-8.47445
ийнхээ	-8.4754
▁ал	-8.47615
▁хэмжээний	-8.47661
▁Учир	-8.47778
▁бизнес	-8.47788
эй	-8.47883
▁өөрчлөлт	-8.4802
▁бүтээл	-8.48213
▁байгаагүй	-8.48253
▁холбоо	-8.48384
▁сан	-8.48854
▁хаана	-8.49077
▁11	-8.49264
▁дүн	-8.49292
▁хал	-8.49553
▁9	-8.49601
▁шаардлага	-8.49644
vv	-8.4981
▁гоё	-8.49907
▁18	-8.49946
▁мэдэж	-8.49958
▁анги	-8.50415
d	-8.50424
ъя	-8.50427
▁энэхүү	-8.50451
алт	-8.50564
M	-8.50686
▁явсан	-8.50792
▁хуудас	-8.50974
ос	-8.51055
▁бод	-8.51219
▁Монголд	-8.51233
▁дээрээ	-8.51271
▁шалтгаан	-8.51328
▁аваад	-8.5133
өн	-8.51337
▁эхэлсэн	-8.51391
▁болгож	-8.51683
▁Бурхан	-8.51747
▁эхний	-8.51769
▁бэлэн	-8.51994
▁дараах	-8.52146
▁15	-8.52198
▁оноос	-8.52347
▁гишүүд	-8.52378
▁аз	-8.5239
З	-8.52429
▁бидэнд	-8.52458
▁хүмүүст	-8.52517
▁100	-8.5258
▁яриа	-8.52643
иа	-8.52718
▁нарын	-8.52881
▁хичээл	-8.53006
▁Тэгэхээр	-8.53022
▁хурдан	-8.53125
▁огт	-8.53169
▁дор	-8.53345
▁Зарим	-8.53346
ран	-8.53383
Ө	-8.53442
▁хүссэн	-8.53562
O	-8.53581
▁дур	-8.53646
▁хувийн	-8.53705
▁засаг	-8.5371
тэйгээ	-8.53792
▁П	-8.5388
▁намын	-8.53947
▁мянган	-8.54095
эс	-8.54115
▁байхдаа	-8.54132
▁болохыг	-8.54313
ак	-8.5474
ноос	-8.54774
▁янз	-8.54831
▁баг	-8.54911
▁Хэн	-8.54938
▁тун	-8.55183
▁гэхдээ	-8.55197
дан	-8.55395
рын	-8.55462
саар	-8.55464
би	-8.55471
▁G	-8.55528
▁өнгө	-8.55719
▁Ингээд	-8.55729
вэл	-8.55875
▁Үүний	-8.55887
дийн	-8.5593
даж	-8.56016
k	-8.56018
гийг	-8.56041
уур	-8.56043
▁дэлхий	-8.56251
re	-8.56326
▁гэдгээ	-8.56431
▁зо	-8.56468
үүлэх	-8.56478
▁оронд	-8.56511
▁амьдарч	-8.56639
Ш	-8.56703
дах	-8.56732
▁үс	-8.5679
▁чанар	-8.56793
▁ажлаа	-8.56861
ли	-8.56917
таа	-8.56982
▁хүүхдүүд	-8.57487
▁ол	-8.57566
▁үеэр	-8.57613
▁дүү	-8.57837
▁ажлыг	-8.57861
рах	-8.57893
▁хүсч	-8.57972
▁хаа	-8.58016
▁бүсгүй	-8.58065
▁нөгөө	-8.58147
▁нууц	-8.58248
лэл	-8.58948
хон	-8.59023
▁яв	-8.59101
▁олох	-8.59435
ун	-8.59643
ив	-8.59928
▁аюулгүй	-8.60006
▁ер	-8.60027
▁Төрийн	-8.6035
ахгүй	-8.60505
▁бичсэн	-8.60565
▁к	-8.60566
▁зүйлс	-8.60618
лийг	-8.60664
▁зай	-8.6106
лга	-8.61063
▁•	-8.61263
▁хэдий	-8.6137
g	-8.61477
▁хайртай	-8.61493
▁Ха	-8.61592
▁Тэрбээр	-8.61657
▁ажилд	-8.61667
▁хор	-8.62034
ей	-8.6214
▁Ерөнхий	-8.62186
▁иргэн	-8.62218
▁буу	-8.62374
▁M	-8.62443
рал	-8.62452
▁хотын	-8.62596
▁Яг	-8.62699
▁мэддэг	-8.62907
▁чамайг	-8.63041
▁мэнд	-8.63146
▁байдлыг	-8.63186
▁мал	-8.63236
▁насны	-8.63364
▁хэлбэл	-8.63478
аасаа	-8.63604
▁сонголт	-8.63683
▁түүнд	-8.6375
▁Мэдээж	-8.63947
▁түүх	-8.64121
▁явдаг	-8.64201
▁орны	-8.64228
B	-8.64292
та	-8.64333
лаад	-8.6434
▁Бас	-8.64426
▁бичиг	-8.64495
▁Хятад	-8.6463
гөө	-8.64859
▁мэдээллийг	-8.64941
▁Бидний	-8.64951
▁тэгээд	-8.6504
▁H	-8.651
▁гэмт	-8.65113
дөө	-8.65267
▁аймгийн	-8.65384
ка	-8.65393
▁үйлчилгээ	-8.65577
оно	-8.65624
рийн	-8.65775
▁оруулах	-8.65809
▁ихэнх	-8.65872
▁Нүүр	-8.65901
оод	-8.65968
▁хэмжээнд	-8.65988
▁14	-8.66014
▁зориулсан	-8.66017
Энэ	-8.66023
ф	-8.66179
▁байгууллага	-8.66209
▁ухаан	-8.66218
▁рүү	-8.66294
▁гэлээ	-8.66318
▁төрсөн	-8.66459
▁ажилладаг	-8.6649
▁бололтой	-8.66589
▁авдаг	-8.66726
ье	-8.66732
▁амьдралын	-8.66799
▁хүүхдийн	-8.66854
▁өр	-8.67016
▁барих	-8.67069
▁урт	-8.67177
m	-8.6718
▁тоглоом	-8.67189
▁өөртөө	-8.67263
▁түмэн	-8.67704
▁эхнэр	-8.67753
▁бодлого	-8.6777
▁Ф	-8.67787
]	-8.67863
▁амьдрах	-8.67933
▁өмнөх	-8.68058
▁сонин	-8.68154
ус	-8.68222
mn	-8.68361
▁D	-8.68414
вол	-8.6878
▁шинж	-8.68797
Ц	-8.68862
▁мэднэ	-8.68866
▁арай	-8.6889
ю	-8.69048
иг	-8.69154
▁улам	-8.69466
▁Ү	-8.69763
▁үз	-8.6989
▁орчим	-8.69893
▁удаан	-8.69939
▁нөхөр	-8.70063
▁гэдэгт	-8.70078
r	-8.70107
▁нийтийн	-8.70292
чихсан	-8.70345
▁битгий	-8.70349
an	-8.70406
▁төрөл	-8.70438
▁төсөл	-8.70567
үй	-8.70571
▁барьж	-8.70977
▁байхыг	-8.70989
лаж	-8.71008
▁түр	-8.71018
▁үндсэн	-8.71052
l	-8.71054
▁сайт	-8.71317
▁өрөө	-8.71477
үүдийг	-8.71485
▁өөрийнхөө	-8.71521
▁бүс	-8.71528
▁үзсэн	-8.71571
▁Бурханы	-8.716
▁Я	-8.71661
▁салбар	-8.71719
▁нүүр	-8.71882
x	-8.71944
▁асуулт	-8.72047
К	-8.72048
▁уран	-8.72214
тал	-8.72282
сээр	-8.725
▁I	-8.7258
▁бутлуур	-8.72607
al	-8.72676
▁амь	-8.72714
▁Дараа	-8.72766
▁жишээ	-8.72773
▁таныг	-8.72791
%	-8.72792
▁тушаал	-8.72871
▁Тус	-8.73027
▁хийнэ	-8.73056
тээ	-8.73076
▁доо	-8.73082
вар	-8.73088
▁бүтээгдэхүүн	-8.73192
▁үүрэг	-8.73296
▁хэрэглэх	-8.73326
▁өгнө	-8.7339
▁шилдэг	-8.73413
▁хө	-8.73418
гал	-8.73597
▁хэв	-8.73658
▁50	-8.73695
▁E	-8.73759
даггүй	-8.7384
▁эцэг	-8.7393
▁хэт	-8.73977
лал	-8.73994
▁жижиг	-8.7422
▁дэх	-8.74274
▁хувцас	-8.74397
▁яваа	-8.74562
ar	-8.74624
ни	-8.74746
▁бичлэг	-8.7482
▁Үүнээс	-8.7485
▁эв	-8.74944
▁эхлэх	-8.74989
L	-8.75003
▁Хоёр	-8.7509
▁и	-8.75093
▁систем	-8.75261
▁үйлдвэр	-8.75265
▁Орос	-8.75298
▁бодит	-8.75497
▁сууж	-8.75525
уулж	-8.75754
or	-8.7578
Ж	-8.75953
▁удаагийн	-8.76098
▁мөр	-8.76246
▁нутаг	-8.76309
гуй	-8.76317
▁очиж	-8.76377
▁хоногт	-8.76571
өөд	-8.77018
▁тэнд	-8.77067
▁судалгаа	-8.77184
▁Гэр	-8.77237
чууд	-8.77243
in	-8.77531
▁Ө	-8.77537
▁ирээд	-8.77615
▁F	-8.77747
▁итгэл	-8.77912
▁бодол	-8.77929
▁чиний	-8.77961
ээрээ	-8.78198
▁халдвар	-8.78218
▁хийгээд	-8.78398
▁ашиглаж	-8.78542
лыг	-8.78744
тайгаа	-8.78775
▁ид	-8.7885
▁оруулж	-8.78862
ко	-8.7887
▁чадвар	-8.78962
▁худалдан	-8.7913
▁туслах	-8.79145
уулсан	-8.79151
ож	-8.79265
▁зүйн	-8.79376
ээсээ	-8.79436
лох	-8.79536
▁тавьж	-8.7965
▁ёс	-8.79799
▁орчин	-8.79914
▁гэртээ	-8.8009
▁сонирхолтой	-8.8023
▁загвар	-8.80484
▁·	-8.80523
▁байнга	-8.80529
▁гэрээ	-8.8077
ган	-8.80787
ынхаа	-8.80788
▁хооронд	-8.8106
▁салбарт	-8.81193
▁минутын	-8.81347
▁худалдаж	-8.81361
▁ач	-8.81394
▁чамд	-8.81405
уй	-8.81508
Я	-8.81541
их	-8.81695
▁иргэдийн	-8.81698
сний	-8.81982
үүн	-8.82649
▁Хүмүүс	-8.82684
▁v	-8.82707
▁Ал	-8.828
▁үзэл	-8.8283
▁Тэдний	-8.82862
▁Энд	-8.82887
▁чаддаг	-8.82905
le	-8.82948
▁өгдөг	-8.82972
▁Ажил	-8.8301
▁уур	-8.83045
▁хүрч	-8.8308
20	-8.83195
▁дөрвөн	-8.83296
▁ойлгож	-8.83337
▁тохиолдол	-8.83414
▁17	-8.83621
▁суу	-8.83699
маа	-8.837
▁таван	-8.83743
аарай	-8.83968
▁16	-8.84061
▁гайхалтай	-8.84069
▁байгуулах	-8.841
▁13	-8.8423
▁ажээ	-8.84262
▁аргагүй	-8.84275
▁өглөө	-8.84301
гар	-8.84344
▁Ан	-8.8438
агч	-8.84567
▁хүрээнд	-8.84573
▁хүр	-8.84583
▁өөрсдөө	-8.84587
▁төгрөг	-8.84591
▁нөлөө	-8.84654
f	-8.84689
уудад	-8.84765
▁энгийн	-8.84879
▁э	-8.84925
▁гал	-8.85187
N	-8.85251
▁ой	-8.85267
▁тоглолт	-8.85287
▁оролцох	-8.85405
▁дав	-8.85746
▁хүрэх	-8.85986
ла	-8.85993
▁байдаггүй	-8.86009
▁Эх	-8.86307
en	-8.86382
▁сургууль	-8.86466
▁дээш	-8.8652
▁өргөн	-8.8656
▁гэхээр	-8.86844
▁үздэг	-8.86873
хоо	-8.86881
▁бараа	-8.87132
▁хэлбэр	-8.87282
▁нийгмийн	-8.873
▁эхлээд	-8.87341
шиг	-8.87486
▁жилд	-8.87516
▁онгоц	-8.87567
▁Хүний	-8.87598
▁хараад	-8.8764
▁эм	-8.87679
хай	-8.87724
хгүй	-8.87739
тэн	-8.8808
▁жинхэнэ	-8.88085
▁зүрх	-8.88128
▁нийтлэл	-8.88129
▁эргэн	-8.88232
▁төхөөрөмж	-8.88245
▁бичих	-8.88293
▁дар	-8.88339
ээгүй	-8.88345
жиг	-8.88421
'	-8.88446
▁цэг	-8.88483
▁тавих	-8.88563
дсан	-8.88608
▁Тухай	-8.88614
▁2020	-8.88674
нө	-8.88738
▁гадаад	-8.88898
▁тэрбум	-8.88913
▁тэрээр	-8.89008
▁явна	-8.89107
үүдийн	-8.89139
G	-8.89445
▁сур	-8.89486
on	-8.89495
▁бүрт	-8.89548
▁шат	-8.89656
▁Эр	-8.89714
!!!	-8.8985
▁хамаагүй	-8.89855
▁Өөрөөр	-8.89885
▁хатуу	-8.89935
▁мэдээллийн	-8.90093
▁алба	-8.90348
▁уул	-8.90392
▁амар	-8.90614
▁[	-8.90644
▁Монголчууд	-8.90659
▁орой	-8.90735
▁ерөнхий	-8.90804
лага	-8.90945
▁цагаан	-8.91134
▁сургуулийн	-8.91211
▁хүмүүсийг	-8.91273
▁утас	-8.91292
ел	-8.91383
▁бээлий	-8.9139
▁Зөвхөн	-8.91476
▁үедээ	-8.91497
үүлсэн	-8.91531
▁хотод	-8.91836
▁минут	-8.9194
▁Түүнийг	-8.91944
▁в	-8.92108
▁мод	-8.9233
▁газарт	-8.92339
рч	-8.92451
мж	-8.92501
▁цахим	-8.92591
лагч	-8.92667
▁бүхнийг	-8.92829
▁сурах	-8.92888
▁Намайг	-8.92964
В	-8.93079
▁зорилго	-8.93107
нээ	-8.93109
▁Өнгөрсөн	-8.93225
▁үзүүлэх	-8.93237
▁сонгох	-8.93346
▁ижил	-8.93437
▁J	-8.93489
▁бүлийн	-8.93638
го	-8.93653
▁Сайн	-8.9371
▁айл	-8.9372
▁төлөвлөгөө	-8.93756
▁тусгай	-8.93769
▁хамтран	-8.93786
ing	-8.93814
▁ярьдаг	-8.93839
▁төгс	-8.93865
0	-8.93987
▁шүүх	-8.94082
▁алд	-8.94143
▁ажиллагааны	-8.94197
мээр	-8.94314
▁тэнэг	-8.94413
гаас	-8.94446
▁Хятадын	-8.94481
йн	-8.94548
▁зав	-8.94592
лл	-8.94778
▁Европын	-8.94787
▁шударга	-8.9496
▁у	-8.95149
АН	-8.95261
ё	-8.95284
ба	-8.95378
▁2016	-8.95455
▁байдалд	-8.95543
▁үнэгүй	-8.95604
▁Эд	-8.95696
▁од	-8.95808
▁хүчний	-8.95865
▁бич	-8.95924
▁25	-8.96002
▁компанийн	-8.96034
▁Улаанбаатар	-8.96097
▁эрчим	-8.96131
▁дүнг	-8.96148
▁шагнал	-8.96481
▁ф	-8.96637
▁давхар	-8.9664
R	-8.96765
▁тэднийг	-8.96827
гаад	-8.96977
руу	-8.97042
▁В	-8.97124
▁татаж	-8.97365
▁Цаг	-8.977
▁цалин	-8.97716
лэж	-8.97745
▁шар	-8.97834
▁24	-8.97862
▁бичиж	-8.97895
▁тусламж	-8.97974
▁суурь	-8.97989
лд	-8.9803
▁явц	-8.98224
▁мэндийн	-8.98265
▁N	-8.98297
▁ху	-8.98301
▁өг	-8.9833
▁хүсэл	-8.98409
за	-8.98522
▁байгууллагын	-8.98574
▁хүргэж	-8.98813
▁Бусад	-8.98874
▁дараагийн	-8.98882
▁суух	-8.98946
өж	-8.99
▁Гар	-8.99183
▁1-	-8.99248
эгч	-8.99276
▁зүй	-8.99373
▁хангалттай	-8.99373
▁Бу	-8.99605
чилж	-8.99906
гэн	-8.99942
▁хэлэхэд	-8.99989
ис	-9.00076
▁40	-9.00095
▁хан	-9.00159
▁бна	-9.00183
▁даг	-9.00328
агдсан	-9.00583
▁хүсдэг	-9.00621
Ч	-9.00772
▁бар	-9.0078
▁гэжээ	-9.00852
Эрдэнэ	-9.00947
▁хүчтэй	-9.01112
ch	-9.01197
лон	-9.01206
▁2012	-9.01239
▁адилхан	-9.01301
▁бүгдийг	-9.01341
▁сул	-9.01426
▁гардаг	-9.01462
ми	-9.01468
энэ	-9.01504
чдын	-9.01611
▁түмний	-9.01709
▁програм	-9.01777
шин	-9.01805
▁улмаас	-9.01808
▁хугацааны	-9.01981
▁хэлдэг	-9.01998
▁цай	-9.02125
▁хүрсэн	-9.02129
▁хэрэгжүүлэх	-9.02178
▁п	-9.02269
▁уурхайн	-9.0229
▁тоглох	-9.023
тер	-9.02303
▁нэлээд	-9.02324
лөө	-9.02398
үүлж	-9.0242
▁бэлэг	-9.02534
▁анхаарал	-9.02538
▁Өөр	-9.0259
▁хай	-9.02631
▁хөгжлийн	-9.02757
▁оноо	-9.02886
▁уулз	-9.02958
▁санхүүгийн	-9.02979
▁хаан	-9.03045
▁эс	-9.0352
джээ	-9.03732
▁тавьсан	-9.03756
▁гүй	-9.03796
▁юмаа	-9.03818
▁га	-9.03883
▁яваад	-9.03893
▁нарийн	-9.03916
шил	-9.0409
▁мэргэжлийн	-9.04094
h	-9.04105
▁байдлын	-9.04112
▁зөвлөгөө	-9.04205
▁W	-9.04247
▁хөтөлбөр	-9.04346
▁гайх	-9.04373
▁бүлэг	-9.04394
▁Хо	-9.04537
▁хэм	-9.04575
▁Да	-9.0469
▁худалдаа	-9.04696
V	-9.04717
▁нутагт	-9.04797
▁бат	-9.04938
▁Надад	-9.04999
андаа	-9.05012
ва	-9.05168
арч	-9.05349
АР	-9.05375
▁амьдардаг	-9.05565
ра	-9.05636
MN	-9.05733
▁ажилласан	-9.05768
▁ойр	-9.05905
▁залуус	-9.05961
▁хүнтэй	-9.05969
▁Ээж	-9.0601
▁явуулах	-9.06075
▁Гэсэн	-9.06151
▁хангах	-9.06158
▁2017	-9.06209
▁давуу	-9.06247
▁чадаагүй	-9.06435
▁яриад	-9.06506
▁соёл	-9.06565
▁баярлалаа	-9.06649
раа	-9.06748
▁оршин	-9.06796
▁хороо	-9.06846
▁Ар	-9.06886
▁гараад	-9.06924
гээд	-9.06955
▁хялбар	-9.07137
▁үх	-9.07149
▁ОХУ	-9.07193
алд	-9.07291
▁үйлдэл	-9.07384
дэл	-9.07399
▁V	-9.07525
▁арьс	-9.07539
at	-9.0754
▁бодох	-9.0759
▁нөөц	-9.07621
▁дэлгүүр	-9.07625
▁сургалт	-9.07664
▁гэ	-9.07669
▁ирдэг	-9.07723
▁Бат	-9.07766
▁биднийг	-9.07769
▁бу	-9.07856
дэж	-9.07881
▁наад	-9.0798
▁үгийг	-9.08027
▁эрэгтэй	-9.08049
▁амьд	-9.08081
өв	-9.08134
▁O	-9.08239
▁дэмжих	-9.08399
▁байгаагаа	-9.08441
F	-9.08499
▁хэрэгсэл	-9.08542
▁Сүүлийн	-9.08595
▁зарна	-9.08613
▁амжилттай	-9.08641
▁уулзалт	-9.08674
▁мэдээж	-9.08684
>	-9.08735
▁боломжийг	-9.08741
▁үндэсний	-9.08821
онд	-9.0883
▁ойлгох	-9.08831
▁хаяг	-9.08861
▁ирнэ	-9.08896
▁сэ	-9.08907
▁унших	-9.08952
▁харсан	-9.09038
▁Ка	-9.09057
▁өмч	-9.09085
▁блог	-9.09167
it	-9.09169
▁жаахан	-9.09381
▁да	-9.0941
▁өв	-9.09414
чээ	-9.09422
▁тооцоо	-9.09598
▁эзэн	-9.09622
▁2018	-9.09731
▁хариуцлага	-9.0993
▁доллар	-9.09943
▁бодсон	-9.10052
▁мэдрэмж	-9.1016
▁эсэх	-9.10259
тын	-9.10289
▁амиа	-9.103
ист	-9.10324
▁ёсны	-9.10326
▁харагдаж	-9.10335
▁видео	-9.10495
▁Үндсэн	-9.10496
▁дай	-9.10546
▁хэргийн	-9.10645
▁салбарын	-9.10685
▁монголчууд	-9.10713
▁стандарт	-9.1072
дар	-9.10722
▁шөнө	-9.10779
▁амьдралд	-9.10956
▁дэмжлэг	-9.11075
▁үнэтэй	-9.11176
лог	-9.11213
▁өөрсдийн	-9.11249
▁тат	-9.11251
▁үлдсэн	-9.11302
▁хайж	-9.11404
▁бүтэн	-9.11408
ая	-9.11434
▁тод	-9.11487
▁татвар	-9.11533
▁сонс	-9.11534
▁амьтан	-9.11556
▁на	-9.11667
▁идэх	-9.11823
▁талд	-9.11863
▁нүд	-9.11878
ra	-9.11902
снаар	-9.11906
▁хо	-9.11937
10	-9.1197
▁|	-9.11978
▁нарт	-9.12011
▁хяналт	-9.12159
то	-9.12169
гий	-9.12212
▁сургуульд	-9.12367
▁харилцаа	-9.12501
ст	-9.12599
?"	-9.12634
▁гурав	-9.12645
▁бэлтгэл	-9.12735
▁өөрчлөх	-9.1281
▁чөлөө	-9.12861
▁ахуйн	-9.12872
ги	-9.12901
▁замын	-9.13038
▁Ор	-9.13067
▁хэсэгт	-9.13083
▁удахгүй	-9.13235
▁тас	-9.13257
ахад	-9.13294
маг	-9.13347
▁тави	-9.13379
▁материал	-9.136
тар	-9.13611
H	-9.13731
жил	-9.13732
▁урьд	-9.13828
▁олгох	-9.13895
▁дахиад	-9.13915
▁зээлийн	-9.13939
▁хэмжээг	-9.13957
▁2019	-9.14056
▁газраас	-9.1414
▁аварга	-9.14211
ма	-9.14251
▁Нийт	-9.14273
▁бөмбөг	-9.144
▁ярьсан	-9.14528
▁тэнгэр	-9.14562
▁сурвалж	-9.14613
▁маргааш	-9.14616
▁Түүнчлэн	-9.14729
▁цэргийн	-9.14729
ro	-9.14769
▁зуун	-9.15075
▁чиг	-9.15087
▁Өөрийн	-9.15097
▁нэрийг	-9.15219
▁хувилбар	-9.1524
гай	-9.15306
Монгол	-9.15343
▁дэмжиж	-9.1544
▁хариулт	-9.15454
▁тав	-9.15462
▁нохой	-9.15554
▁дургүй	-9.15576
▁Ху	-9.15641
гээс	-9.15683
▁март	-9.15728
гоор	-9.15743
лээд	-9.15813
▁найр	-9.15869
▁хөдөлгөөн	-9.159
▁хүсэлт	-9.15925
▁ажиллагааг	-9.15967
▁компаниуд	-9.15986
▁ерөнхийлөгч	-9.1603
▁онцгой	-9.16142
▁охид	-9.16143
▁дүгнэлт	-9.16154
▁Ав	-9.16427
▁бодис	-9.16463
▁өдөрт	-9.16468
▁эсэхийг	-9.16476
▁хүсэж	-9.16512
▁2015	-9.1652
▁царай	-9.1654
▁шалгалт	-9.16575
үр	-9.16687
▁банк	-9.16744
▁яахав	-9.16783
▁ойлголт	-9.16815
▁тоног	-9.16857
▁мах	-9.16877
▁тэдэнд	-9.16903
▁гарын	-9.17031
▁хүрээ	-9.17174
▁ка	-9.17185
▁сонгуулийн	-9.17299
▁L	-9.17442
▁Анх	-9.17507
▁#	-9.17689
w	-9.17771
▁хөө	-9.17791
▁Са	-9.1782
▁2-	-9.17827
хийн	-9.17938
▁агуу	-9.17994
▁Сан	-9.18037
▁Япон	-9.18067
▁архи	-9.18067
▁тайлбар	-9.1809
▁s	-9.18171
▁ая	-9.18231
▁Дэлхий	-9.18263
z	-9.18296
▁ороод	-9.18465
U	-9.18554
Бат	-9.1864
▁тусгаар	-9.1871
дэх	-9.18742
▁итгэлтэй	-9.18776
▁томоохон	-9.18907
эхгүй	-9.18971
▁тос	-9.19041
▁чадсан	-9.19056
▁жаргалтай	-9.19212
▁алдсан	-9.19334
▁тэг	-9.1937
▁Түүнээс	-9.19396
дал	-9.19555
▁яа	-9.19565
▁аялал	-9.19621
саа	-9.19758
▁жин	-9.19769
мал	-9.19821
▁шаардлагагүй	-9.19827
▁ёсоор	-9.19883
▁нарыг	-9.19914
▁дүнд	-9.1996
▁эрт	-9.20384
чиг	-9.20386
▁байранд	-9.2043
▁гэрэл	-9.20452
▁Аав	-9.20511
▁очих	-9.20689
▁сав	-9.20714
▁лээ	-9.20724
хий	-9.20786
ed	-9.20859
▁Магадгүй	-9.20921
▁чулуу	-9.20975
▁Е	-9.21008
▁гу	-9.21027
▁алхам	-9.21164
us	-9.21306
нүүд	-9.21355
▁тэмдэг	-9.21359
▁ашигтай	-9.21362
үн	-9.21423
▁Америкийн	-9.21424
▁явуулж	-9.21513
▁бо	-9.21598
ѳ	-9.2173
▁бул	-9.21753
▁хүүхдээ	-9.21754
▁нэмэлт	-9.21757
үүр	-9.21826
▁шинжилгээ	-9.21833
чихсэн	-9.2184
мн	-9.21847
▁тэгж	-9.22056
▁хил	-9.22157
▁Ерөнхийлөгчийн	-9.22159
▁хэлээд	-9.22346
ян	-9.2237
ти	-9.22381
Чи	-9.22437
▁талаас	-9.22497
▁хагас	-9.22651
айн	-9.22682
лол	-9.22686
▁багийн	-9.22722
▁Өмнөх	-9.22775
▁онлайн	-9.22816
▁гуй	-9.2283
▁сэдэв	-9.22891
▁хаалга	-9.22896
▁2014	-9.22903
▁баталгаа	-9.22904
▁хямд	-9.23013
▁U	-9.23039
▁Бол	-9.23063
▁лав	-9.23081
▁утга	-9.23086
▁Эсвэл	-9.23146
илж	-9.23219
▁тээврийн	-9.23276
▁яд	-9.23405
▁хоолой	-9.23522
▁тээрэм	-9.23765
▁асуудлаар	-9.23898
бол	-9.23902
▁оч	-9.23958
▁шинээр	-9.23967
ri	-9.23982
АЛ	-9.24011
▁хэрэглэж	-9.24069
▁байгуулсан	-9.24086
50	-9.24172
▁ирлээ	-9.2442
ic	-9.24422
▁ажилтан	-9.24598
инг	-9.24664
баяр	-9.24669
ласан	-9.24806
▁Ажлын	-9.24946
эндээ	-9.24971
▁жаргал	-9.25001
▁Ма	-9.25209
▁Ам	-9.25352
ек	-9.25434
▁Юу	-9.2547
▁учиртай	-9.25496
▁гүн	-9.25548
ви	-9.25608
▁зохиол	-9.25673
▁гараа	-9.25737
▁нэмэгд	-9.25788
▁Су	-9.2579
▁ма	-9.25912
▁агаар	-9.26024
▁амархан	-9.26051
нийг	-9.26131
▁3-	-9.26156
элсэн	-9.26179
▁эмэгтэйчүүд	-9.26208
бал	-9.2623
▁түүнээс	-9.26235
▁Нөгөө	-9.26252
▁сонгуульд	-9.26262
▁төлбөр	-9.26346
▁60	-9.26366
▁хэвээр	-9.26374
▁эхлэн	-9.26438
▁вакцин	-9.265
▁уншиж	-9.2651
▁2008	-9.2653
оё	-9.26535
▁ман	-9.26541
аач	-9.26645
▁түвшинд	-9.26731
▁орнууд	-9.26758
▁шалга	-9.26877
▁тохиромжтой	-9.26896
▁анхаар	-9.27169
30	-9.27194
▁бөх	-9.27244
▁22	-9.27546
▁хурд	-9.27568
▁R	-9.27704
▁холбогдох	-9.27846
▁хандаж	-9.27897
▁дэд	-9.27905
▁Ингэснээр	-9.27958
▁то	-9.27964
▁тү	-9.28058
▁ойлго	-9.28075
арсан	-9.28086
▁Үнэ	-9.28118
жиж	-9.28152
▁танай	-9.28221
▁арван	-9.28247
▁замаар	-9.28383
▁хая	-9.28447
▁Бай	-9.28466
▁Оросын	-9.28482
▁цахилгаан	-9.28492
am	-9.28586
▁Р	-9.28617
▁оруулалт	-9.2873
▁ай	-9.28773
▁өвчин	-9.28813
раад	-9.28859
▁асар	-9.2888
▁дайн	-9.2892
▁баяртай	-9.29003
▁0	-9.29039
йл	-9.29077
АА	-9.29101
▁ганцаараа	-9.29145
аш	-9.29284
▁хамтдаа	-9.29378
уулдаг	-9.29402
▁төлөх	-9.29459
▁бурхан	-9.29615
▁маяг	-9.29722
▁хориг	-9.29744
▁байшин	-9.29806
st	-9.29949
▁эгч	-9.30021
▁мэдлэг	-9.30061
▁хог	-9.30145
▁цагдаа	-9.30194
▁даяар	-9.30252
▁зур	-9.30253
▁Орон	-9.30272
▁бодоод	-9.30293
et	-9.30363
▁бү	-9.30375
элт	-9.3058
▁тоглож	-9.30591
▁эрчүүд	-9.30628
▁яам	-9.30641
ро	-9.30677
▁үндэс	-9.30739
▁сонсох	-9.30795
▁Аль	-9.30802
Е	-9.30823
▁хорио	-9.30824
▁тө	-9.30836
▁цааш	-9.30867
▁K	-9.31081
▁цэвэр	-9.3112
▁эрхийг	-9.31128
▁*	-9.31193
аз	-9.31236
▁харахад	-9.31264
тон	-9.31364
▁хийхэд	-9.31366
▁сонгууль	-9.31497
▁Сар	-9.31663
мэл	-9.31676
▁тэрбээр	-9.31766
▁Хүүхэд	-9.31841
▁зас	-9.31879
▁сууц	-9.31879
▁бүртгэл	-9.31903
ээрэй	-9.31982
сар	-9.31989
▁оролцож	-9.32051
▁эхэлж	-9.32062
▁олсон	-9.32063
▁хөдөө	-9.32075
▁онцлог	-9.32138
▁Жишээ	-9.32185
▁тайван	-9.32322
▁шийдэх	-9.32414
▁хэрэгцээ	-9.32456
???	-9.326
▁зүйлээ	-9.32627
▁эхэллээ	-9.3263
▁болгосон	-9.32656
▁үзээрэй	-9.32757
ет	-9.32757
▁зургийг	-9.32762
▁асуу	-9.32772
▁туршлага	-9.32825
▁хандах	-9.32902
▁дотоод	-9.32924
▁Хүүхдийн	-9.32952
▁дүрэм	-9.32957
▁ж	-9.33012
бар	-9.33018
▁Мөнгө	-9.33026
▁ух	-9.33101
▁Ихэнх	-9.33166
▁богино	-9.33301
▁No	-9.33326
▁татах	-9.33427
▁эргэж	-9.33493
ло	-9.33531
▁Үндэсний	-9.33566
▁Хайр	-9.33577
лэсэн	-9.33742
▁байсныг	-9.33753
▁гэрийн	-9.33788
▁цагдаагийн	-9.3386
▁худлаа	-9.33876
▁хэвлэл	-9.33876
▁Ингэж	-9.33935
▁зүгээс	-9.33941
▁са	-9.3396
▁зүйтэй	-9.34021
Бид	-9.34046
el	-9.34096
▁бүхэнд	-9.34137
▁над	-9.34146
▁зөвшөөрөл	-9.34165
▁гоо	-9.34184
ol	-9.34196
▁гарна	-9.34229
▁Хууль	-9.3424
▁засвар	-9.34257
▁Ард	-9.34289
▁зөвлөл	-9.34335
▁байнаа	-9.34385
▁дут	-9.3439
▁компьютер	-9.34433
оп	-9.34509
▁Ми	-9.34568
▁дасгал	-9.34582
▁орлого	-9.34582
▁өгүүл	-9.34622
▁байгуулж	-9.3473
▁хүргэх	-9.348
▁өсөлт	-9.34862
▁зардал	-9.34892
▁цаашид	-9.34922
▁Өмнөд	-9.35028
▁шийд	-9.35057
лав	-9.35099
11	-9.35177
▁оруулсан	-9.35258
▁Тэг	-9.35283
▁хэрэгт	-9.35296
рам	-9.354
j	-9.35435
▁тэмцээн	-9.35435
▁талын	-9.35491
▁мэдэл	-9.35512
▁үзүүлэлт	-9.35618
▁хязгаар	-9.35647
▁гарга	-9.35655
▁Солонгос	-9.35665
▁оролцоо	-9.35676
▁орно	-9.35818
▁Америк	-9.35836
▁Өдөр	-9.3604
рэх	-9.3608
▁болго	-9.36182
аны	-9.36216
▁эмээ	-9.36234
▁Том	-9.36244
▁санагддаг	-9.36246
▁2013	-9.36261
лэлт	-9.36309
▁Хан	-9.36329
▁ашигладаг	-9.36333
раг	-9.36335
▁хуучин	-9.36342
▁Бүгд	-9.36504
▁аливаа	-9.36592
▁ду	-9.36664
▁хэрэглээ	-9.36735
өм	-9.36872
▁элс	-9.36919
▁Төр	-9.37035
жих	-9.37118
▁зүү	-9.3715
▁дүүрэн	-9.37191
▁нээ	-9.37199
▁ангийн	-9.37208
▁мянга	-9.37215
ага	-9.37274
▁ө	-9.37277
▁Эрүүл	-9.3735
▁газрууд	-9.37468
элж	-9.37469
ель	-9.37558
▁хөдөлмөр	-9.37611
чи	-9.37651
▁Ун	-9.37725
▁хуур	-9.37871
арга	-9.37924
▁чиглэлээр	-9.37932
▁уурхай	-9.37983
▁дүнтэй	-9.3802
▁уулзах	-9.38047
▁21	-9.3805
эт	-9.38058
▁чаддаггүй	-9.38158
▁шалгах	-9.38174
▁байгуул	-9.3818
▁жагсаалт	-9.38348
-20	-9.38351
▁заалт	-9.38353
▁Англи	-9.38383
▁заяа	-9.38395
ем	-9.38466
▁Нар	-9.38503
▁этгээд	-9.38548
П	-9.38591
▁үзнэ	-9.38625
▁зориулж	-9.38634
▁хувийг	-9.38664
мб	-9.38753
▁Европ	-9.38778
▁порно	-9.38798
хад	-9.38821
▁?	-9.38937
▁хэвийн	-9.38983
▁эрсдэл	-9.39133
▁биеэ	-9.39159
▁хэлний	-9.39211
▁о	-9.39224
▁Хүү	-9.39253
▁шү	-9.39316
▁хэргийг	-9.39322
▁доош	-9.39349
▁хөх	-9.39353
▁Y	-9.3939
▁нөхөд	-9.39414
▁итгэж	-9.39442
▁нэртэй	-9.39517
▁сал	-9.39518
▁оруул	-9.39598
▁болоогүй	-9.39608
▁бал	-9.39652
▁нээлттэй	-9.39843
хөн	-9.39877
лагын	-9.39959
▁Төв	-9.39963
▁нэгдсэн	-9.40022
▁Зүгээр	-9.40054
ur	-9.40191
▁эцэст	-9.40228
▁Герман	-9.40263
▁Гадаад	-9.40269
▁ухааны	-9.40301
▁орд	-9.40371
лсан	-9.4043
ad	-9.40433
▁тэ	-9.40479
▁хуу	-9.40482
ут	-9.40509
▁зорилгоор	-9.40613
▁оролцсон	-9.40634
гуу	-9.40652
▁орос	-9.40657
дэггүй	-9.40665
▁хятад	-9.40688
▁урьдчилан	-9.4075
▁ихэвчлэн	-9.4075
▁хүргэе	-9.40783
is	-9.40807
il	-9.4081
бу	-9.40812
▁Есүс	-9.41065
чийн	-9.41178
▁хур	-9.41208
▁алдартай	-9.41234
▁итгэ	-9.41238
▁ганцхан	-9.41403
лөх	-9.41496
даад	-9.41632
▁хам	-9.41656
▁төрх	-9.41717
жилт	-9.41772
▁шийдвэрлэх	-9.41818
▁одоогийн	-9.4184
▁чанартай	-9.4184
дсэн	-9.41961
▁эрхтэй	-9.42023
▁тогтоол	-9.42025
▁оо	-9.42073
▁хараа	-9.42188
▁бодлоо	-9.42332
бо	-9.4234
▁Эм	-9.42408
▁тогтоох	-9.42408
тэл	-9.42418
уулан	-9.42445
уулаад	-9.42539
▁анхаарах	-9.42571
мын	-9.42609
▁нэмж	-9.42648
алж	-9.42731
▁үзэсгэлэн	-9.42731
▁орхи	-9.42845
▁тэргүүн	-9.42876
▁данс	-9.42902
▁номын	-9.42948
th	-9.43027
▁ни	-9.43055
▁Эл	-9.43122
рэл	-9.43164
▁ХХК	-9.43211
▁гомдол	-9.43225
_	-9.43339
▁үнэлгээ	-9.43388
▁байлгүй	-9.4339
▁Тэнд	-9.43473
▁дэлгэрэнгүй	-9.43517
▁журам	-9.4352
▁сайдын	-9.43526
▁зуур	-9.43709
▁Одоогоор	-9.43779
▁зарла	-9.43824
вр	-9.43833
▁юмуу	-9.43857
▁шах	-9.4396
▁худал	-9.4405
▁секс	-9.44164
▁халуун	-9.44166
▁тогтвортой	-9.44171
▁чадвартай	-9.44179
▁боловсруулах	-9.44208
▁англи	-9.44212
▁агаарын	-9.44265
от	-9.44291
▁Нам	-9.44312
лэгч	-9.44372
дэд	-9.44416
▁эрхэм	-9.44423
▁эз	-9.44469
ио	-9.44555
▁X	-9.44579
▁Ур	-9.44622
аль	-9.44735
▁Бага	-9.44737
оны	-9.44796
▁хөнд	-9.44844
▁ертөнц	-9.4485
▁ердөө	-9.44859
лөг	-9.44901
▁ну	-9.44959
un	-9.45011
▁илэрхийл	-9.45018
▁Өмнө	-9.45041
▁технологи	-9.45069
▁хэмээх	-9.45091
▁хоёрын	-9.45091
▁мөч	-9.45112
снаас	-9.45145
▁хулгай	-9.45213
▁баруун	-9.4522
▁эцсийн	-9.45247
▁2011	-9.45281
ум	-9.45314
ск	-9.45426
▁үнэндээ	-9.45451
▁тэмцэх	-9.45469
K	-9.45556
▁нөхцөлд	-9.45565
уулна	-9.45569
▁гэм	-9.45572
▁хос	-9.45586
▁хуулийг	-9.45586
▁цагаа	-9.45595
▁p	-9.45599
▁санаж	-9.45604
▁гэнэт	-9.45946
▁дүгээр	-9.45977
la	-9.45997
дэн	-9.46021
▁унш	-9.46061
▁хувиар	-9.46082
сныг	-9.4609
▁тогт	-9.46114
▁зургаан	-9.46139
▁талаарх	-9.46213
▁надаас	-9.46219
▁олны	-9.46221
▁хөгжүүлэх	-9.46261
▁со	-9.46333
▁ажиллана	-9.46404
▁хаанаас	-9.46473
▁сайжруулах	-9.46547
члэн	-9.46608
lo	-9.46647
▁хав	-9.46666
▁нуу	-9.4674
▁барилга	-9.46805
▁урд	-9.46917
▁сум	-9.46951
яа	-9.47011
▁дууд	-9.47018
▁дэргэд	-9.47168
цаа	-9.47213
▁байлгах	-9.47281
▁ховор	-9.4733
▁Гол	-9.47336
▁Танд	-9.47338
▁БНХАУ	-9.4736
▁үйлчилгээний	-9.47361
▁аюул	-9.47389
es	-9.47439
наа	-9.47781
▁ашиглан	-9.47797
▁эл	-9.47874
▁жолооч	-9.47882
▁дарж	-9.47894
ха	-9.47985
єє	-9.4804
▁На	-9.48143
▁цус	-9.48191
сс	-9.48249
▁сүүлд	-9.48256
▁тутмын	-9.48306
▁НҮБ	-9.48307
иж	-9.48321
рх	-9.48354
▁муухай	-9.48385
сэл	-9.48385
▁цу	-9.48397
▁ярь	-9.48399
▁c	-9.48403
▁мэдсэн	-9.48412
ваа	-9.48484
▁харагдах	-9.48499
ес	-9.48643
▁хангамж	-9.48645
да	-9.48657
▁буц	-9.48657
▁ган	-9.48757
▁шал	-9.48822
рай	-9.4891
гэ	-9.48917
▁Үнэхээр	-9.48972
▁мөнгийг	-9.48976
▁гаргадаг	-9.48996
агдах	-9.4902
уулга	-9.492
▁23	-9.49225
▁биеийн	-9.49274
ок	-9.49281
▁хүсье	-9.49304
▁Дараагийн	-9.49406
▁байгууллагууд	-9.49446
За	-9.49476
луулах	-9.49508
▁цол	-9.49607
Миний	-9.49642
▁даргын	-9.49645
▁ажигла	-9.49685
▁алдах	-9.49692
ья	-9.49713
▁иргэний	-9.49759
▁байгаарай	-9.49796
▁сонирхол	-9.49899
▁нэгж	-9.49924
▁сурч	-9.49951
сийн	-9.49974
▁эг	-9.49978
▁бусдад	-9.50004
▁80	-9.50057
▁Ман	-9.50108
ре	-9.50145
▁Хө	-9.50149
▁тооц	-9.5041
▁өргө	-9.50442
▁ажиллагаанд	-9.50446
▁мөнгөө	-9.50453
▁идэж	-9.50541
▁үлдээ	-9.50571
▁тайлан	-9.50573
▁ханд	-9.50576
▁Бар	-9.50589
▁сэтгэгдэл	-9.50623
▁аргаар	-9.50678
▁хэлэв	-9.50726
▁хамгаал	-9.5082
үүдэд	-9.50932
гас	-9.51086
▁явуул	-9.51143
▁эмчилгээ	-9.51183
өнө	-9.51204
▁яасан	-9.51248
15	-9.51256
li	-9.5126
таж	-9.51262
▁одоогоор	-9.51274
▁файл	-9.51296
▁төлөв	-9.5131
▁байгаль	-9.51327
▁сүр	-9.51346
▁унт	-9.51402
▁сумын	-9.51546
▁тойр	-9.51769
▁дугуй	-9.51819
дож	-9.5189
▁найзууд	-9.51918
лалт	-9.51941
▁ярилц	-9.52084
▁өрөөнд	-9.52102
▁Жил	-9.52199
▁хэллээ	-9.52205
▁зүүн	-9.52357
лагдсан	-9.52493
▁Хэрэг	-9.52524
▁боловсрол	-9.52639
нийхээ	-9.52659
X	-9.5269
хөө	-9.52705
ЭН	-9.5279
▁мэргэжил	-9.52841
▁бөө	-9.52921
▁болзошгүй	-9.52994
▁m	-9.52997
▁найдаж	-9.53024
лэ	-9.53162
▁хуваалц	-9.53207
▁хүүхэдтэй	-9.5322
▁я	-9.53353
инд	-9.5336
▁хэрэглэдэг	-9.5336
▁ту	-9.53379
W	-9.53382
▁өгөхгүй	-9.53504
▁хөгжим	-9.53533
баатар	-9.53534
▁цөөн	-9.53556
▁цар	-9.5366
▁хувир	-9.53699
▁бизнесийн	-9.53746
▁товч	-9.53764
▁зогсоо	-9.53977
▁цор	-9.53978
ne	-9.53983
▁үнэр	-9.54004
▁газрыг	-9.54027
▁өнгөрөө	-9.5403
шаа	-9.5407
гэр	-9.54094
▁хэмжээгээр	-9.54107
члах	-9.54121
▁Бие	-9.54164
▁гүйцэтгэх	-9.54166
▁Тухайлбал	-9.542
▁Залуу	-9.54202
▁шоу	-9.54224
▁Уул	-9.5424
алсан	-9.54249
▁болгодог	-9.54296
▁дагаж	-9.54303
үүлнэ	-9.54344
чихаад	-9.54445
▁алх	-9.54554
▁хичээ	-9.5466
▁хямрал	-9.54722
▁туршилт	-9.54726
ter	-9.54768
▁үйлчилгээг	-9.54768
▁хадгал	-9.54778
▁сонссон	-9.54815
▁шалгаж	-9.54815
▁дотроо	-9.54912
▁хугацааг	-9.54937
▁хя	-9.54946
▁бүсгүйчүүд	-9.54965
лэнэ	-9.55078
▁яри	-9.55103
▁дайр	-9.55124
▁орчинд	-9.55138
▁шинжлэх	-9.55159
дад	-9.55169
дох	-9.55173
▁Цагаан	-9.5519
▁Га	-9.55261
ки	-9.55261
▁санд	-9.55274
▁зааж	-9.55284
▁төсвийн	-9.55349
▁уйл	-9.55366
▁худалдааны	-9.55404
▁дүрс	-9.55448
▁хас	-9.55563
▁өмнөөс	-9.556
▁чуулган	-9.55618
▁замыг	-9.5571
▁хэрэв	-9.55734
▁гуай	-9.55841
гэл	-9.55846
▁сэтгүүл	-9.55913
▁b	-9.55942
снийг	-9.5596
▁Засаг	-9.55972
▁Ном	-9.5599
▁Ша	-9.56006
▁хэхэ	-9.56061
ент	-9.56071
▁харуул	-9.56093
▁оюутнууд	-9.56127
Энхболд	-9.56131
үүлдэг	-9.56154
▁зовлон	-9.56301
▁хэлэлцэх	-9.56306
▁хадгалах	-9.56366
▁хамаа	-9.56584
▁чанарын	-9.56666
▁ан	-9.56666
ац	-9.56757
▁улаан	-9.56833
▁дуусах	-9.56849
▁сүм	-9.56905
▁сэргийлэх	-9.56949
▁чанга	-9.56977
▁зөрчил	-9.57013
▁Эхний	-9.57049
лиг	-9.57063
▁хурал	-9.57077
▁хоорондоо	-9.57141
▁дэлхийд	-9.57156
▁[...]	-9.57194
▁сөрөг	-9.57194
▁ингээд	-9.57256
ce	-9.57335
▁иргэдэд	-9.57375
ван	-9.57377
▁нийтэд	-9.57447
▁болчихсон	-9.57469
▁үлгэр	-9.57578
▁аял	-9.57608
АХ	-9.5776
▁залуучууд	-9.57803
▁бэрхшээл	-9.5782
▁захиа	-9.57844
▁шашин	-9.57911
▁ярилцлага	-9.57942
▁аваарай	-9.57976
▁асууж	-9.57979
▁хамтын	-9.58008
кс	-9.58059
▁Амьдрал	-9.58186
▁тохир	-9.58234
▁шил	-9.58248
▁тамхи	-9.5832
▁авалт	-9.58404
▁вирус	-9.58453
▁хөөрхөн	-9.5846
уун	-9.58461
агдаж	-9.58516
рэн	-9.58639
▁үсэг	-9.5873
▁түрүүнд	-9.58733
уд	-9.58802
▁нийц	-9.58818
▁хэрэгжүүлж	-9.58851
▁сэр	-9.58866
үг	-9.58889
▁өдрүүдэд	-9.58892
▁хүлээх	-9.5892
▁саналыг	-9.58948
▁дандаа	-9.58959
▁10-	-9.59015
▁босго	-9.59044
оорой	-9.59048
▁сүлжээ	-9.59058
▁харь	-9.59076
▁хоолны	-9.59142
▁хөгжил	-9.59175
▁байгуулагдсан	-9.59202
▁очоод	-9.59206
▁2009	-9.59238
өөрөө	-9.5926
▁Үүнд	-9.59282
▁го	-9.59292
тик	-9.59317
▁үзүүлж	-9.59385
▁a	-9.59439
▁юуг	-9.5947
▁тэгш	-9.59474
▁аюултай	-9.59515
▁түрээс	-9.59711
▁талбай	-9.59722
▁ойлгомжтой	-9.59728
▁нэгдүгээр	-9.59775
▁хүнсний	-9.59848
▁ордог	-9.59895
▁Наад	-9.59909
▁Ин	-9.59912
▁очсон	-9.59998
Баттулга	-9.60095
▁ахуй	-9.60153
▁байхаа	-9.60195
▁То	-9.60212
▁чин	-9.60246
▁эхэлнэ	-9.60268
▁хүүхдэд	-9.60279
▁Үнэн	-9.6033
ot	-9.60374
-19	-9.60387
▁Чиний	-9.60399
▁иймэрхүү	-9.60464
▁ойлгодог	-9.6049
▁санагдаж	-9.60516
▁зүйлд	-9.60611
▁Эрх	-9.60624
▁албаны	-9.60646
орт	-9.60667
гаараа	-9.60712
дорж	-9.60737
▁жи	-9.60739
▁ажилла	-9.60763
▁зээлд	-9.60802
хээр	-9.60815
▁өдрийг	-9.60834
▁амьсгал	-9.60856
▁заасан	-9.60861
▁үзээгүй	-9.60875
▁холбооны	-9.60894
▁уулзаж	-9.60933
▁хуралд	-9.6098
▁устга	-9.60997
▁заримдаа	-9.61075
▁зал	-9.61101
Манай	-9.61121
▁автобус	-9.61205
▁Дараах	-9.61233
▁таар	-9.61273
▁харагддаг	-9.61317
тнууд	-9.61326
▁бор	-9.61338
▁>	-9.61364
▁хэлээр	-9.61383
▁дамжуулан	-9.61446
▁ялгаа	-9.61495
▁хийхгүй	-9.61516
▁тэмц	-9.61533
▁байгалийн	-9.61551
▁анзаар	-9.6156
▁хэтэрхий	-9.61588
▁болчих	-9.61646
▁маргаан	-9.61678
нөөс	-9.61686
▁үйлдвэрийн	-9.61724
▁цагаар	-9.6175
▁Ли	-9.61752
▁зүүд	-9.61886
▁бүхний	-9.61896
▁нээх	-9.61915
▁Хэл	-9.61936
▁авлаа	-9.61955
▁ханш	-9.61967
▁удирдагч	-9.62026
▁шинэчлэл	-9.62156
▁хэдийн	-9.62186
▁2010	-9.62191
▁үлдэх	-9.62192
▁нийгэм	-9.62203
▁машины	-9.62229
▁усны	-9.6223
▁Эмэгтэй	-9.62249
▁нэмэх	-9.62294
ay	-9.62311
▁зорилт	-9.6234
▁орондоо	-9.62372
вэр	-9.62386
▁Бүр	-9.62402
ман	-9.62433
цгаая	-9.62436
▁Японы	-9.62442
▁хуваа	-9.62452
ir	-9.6247
▁Ро	-9.6247
са	-9.62473
шиж	-9.62477
иу	-9.62651
▁асуудалд	-9.62659
▁сэргэ	-9.62694
▁90	-9.62698
▁брэнд	-9.62708
▁'	-9.62737
дэр	-9.62778
▁цэцэрлэг	-9.62857
мийн	-9.62909
▁хуралдаан	-9.62953
▁дэлгэц	-9.62997
▁ядаж	-9.63
▁Бо	-9.63047
ших	-9.63099
▁танилцуул	-9.63104
▁Үз	-9.6311
▁гэрт	-9.63142
▁Зо	-9.63167
▁үүнд	-9.63216
▁хандлага	-9.63226
зан	-9.63252
▁байхаар	-9.63373
▁эргээд	-9.63378
▁Маш	-9.63416
▁Ай	-9.63423
чүүд	-9.63427
алтын	-9.63438
▁зарчим	-9.63463
▁үйлдвэрлэл	-9.63481
▁шийдсэн	-9.63593
▁спорт	-9.63602
гэж	-9.63611
огт	-9.63659
▁нэгтгэ	-9.63706
▁төсөв	-9.6377
▁зов	-9.63795
▁тараа	-9.63836
▁тоглогч	-9.63839
▁оюутан	-9.63844
длаа	-9.6389
▁амьдралыг	-9.63894
▁сор	-9.64059
▁итгэх	-9.64079
▁бусдын	-9.64079
эхэд	-9.64162
▁аян	-9.64172
▁уриа	-9.64225
▁эерэг	-9.64227
▁ширхэг	-9.64227
▁Ардчилсан	-9.64235
▁үгс	-9.6429
▁хаагч	-9.64441
▁сонсож	-9.64445
▁цагаас	-9.64446
▁нөх	-9.64477
▁уралдаан	-9.64487
▁зориул	-9.64497
▁дарамт	-9.64614
▁сонгосон	-9.64669
▁Ялангуяа	-9.64804
▁үүссэн	-9.64809
▁хоёрдугаар	-9.649
гуул	-9.64945
▁төслийг	-9.64997
▁өссөн	-9.65027
▁үзүүл	-9.65038
▁мэдэгдэл	-9.65042
▁Хамт	-9.65081
▁өс	-9.65112
▁судалгааны	-9.65171
▁ин	-9.65282
▁мөнгөний	-9.65382
▁бүтээгдэхүүний	-9.65384
▁бутлуурын	-9.65412
чиж	-9.65456
рээ	-9.65605
▁Ши	-9.65649
▁гадаадын	-9.65652
▁нийгэмд	-9.6567
▁зайлшгүй	-9.65777
▁итгэдэг	-9.65882
Энхбаяр	-9.65913
▁Тү	-9.6595
▁$	-9.66152
▁сэтгэлийн	-9.66155
▁Харамсалтай	-9.66163
▁цуврал	-9.66163
▁ёсгүй	-9.66331
дол	-9.66355
▁өөрсдийгөө	-9.66359
▁до	-9.66582
тнүүд	-9.66624
▁Ирэх	-9.66631
▁Ах	-9.6669
▁тогтоо	-9.667
▁цэцэг	-9.66704
ино	-9.66706
▁хэрэглэгч	-9.66709
▁4-	-9.66721
▁Сайхан	-9.66805
▁Ту	-9.66826
▁түрүү	-9.66898
▁тани	-9.66935
▁цац	-9.66989
▁хяналтын	-9.67003
▁Хүүхдүүд	-9.67012
▁хөгж	-9.67052
▁70	-9.67119
▁шид	-9.67149
▁Үр	-9.67228
▁манайд	-9.67236
▁сонго	-9.67251
▁оюун	-9.67279
▁хойно	-9.67331
▁зууны	-9.67354
▁үндэслэл	-9.67385
▁эрхийн	-9.67404
▁уруу	-9.67407
▁тэмцээнд	-9.67416
уудаа	-9.67453
өөсөө	-9.67459
▁сү	-9.6747
▁зургаа	-9.67515
▁утасны	-9.67533
ныхаа	-9.67618
лана	-9.67628
▁26	-9.67698
тны	-9.67738
▁Хойд	-9.67744
▁хэсгийг	-9.67747
▁эрс	-9.67826
▁саад	-9.67874
▁карт	-9.67966
гууд	-9.68078
▁нэм	-9.68113
▁бодлогын	-9.68138
▁төлөвлөж	-9.68155
▁сэтгүүлч	-9.68288
▁холбогд	-9.68306
▁өнөөгийн	-9.68318
▁шугам	-9.68337
▁хамтлаг	-9.68363
▁хүрээлэн	-9.68379
сүрэн	-9.68395
▁шатны	-9.68431
▁Франц	-9.68513
se	-9.68515
▁зүтгэ	-9.68553
▁дуус	-9.68583
дэнэ	-9.68599
▁тооны	-9.68641
▁тогтмол	-9.68738
▁эмнэлгийн	-9.68738
▁Гал	-9.68768
▁саналаа	-9.68807
▁урлаг	-9.68852
є	-9.6886
▁Дээр	-9.68908
нь	-9.68922
▁харилцан	-9.68924
▁5-	-9.68935
Тэр	-9.68941
▁Сэтгэл	-9.68946
▁зөндөө	-9.68952
ЭЭ	-9.68978
▁Ба	-9.68997
▁бос	-9.68997
ut	-9.6901
ль	-9.6903
▁санах	-9.69115
▁Түүнд	-9.69144
▁цонх	-9.69146
▁зориг	-9.69237
as	-9.69262
▁Иргэд	-9.69265
▁Хий	-9.69284
▁харьцуул	-9.69344
▁суралцах	-9.69369
▁тогтолцоо	-9.69381
▁Одоогийн	-9.69382
▁ихээр	-9.69443
▁бууруулах	-9.69445
▁дэвшигч	-9.69486
▁засах	-9.69537
▁байрлал	-9.69579
▁залбир	-9.69629
▁баян	-9.69674
▁ханга	-9.69741
▁инээ	-9.69764
▁байгуулалт	-9.69832
▁уух	-9.69869
хар	-9.69906
▁27	-9.69915
эмж	-9.69944
▁сануул	-9.69988
▁Баяр	-9.69988
араа	-9.70022
▁киноны	-9.70056
▁орчуул	-9.7014
ЭР	-9.70165
▁жүжигчин	-9.70185
▁туу	-9.70224
▁тээ	-9.7023
▁барсан	-9.70245
▁Нийслэлийн	-9.70252
▁тэс	-9.70321
▁хөгжилтэй	-9.70351
▁илт	-9.70351
▁Эзэн	-9.70357
▁дүүргийн	-9.70357
▁наадам	-9.70374
▁банкны	-9.70378
▁удирдлага	-9.70388
▁зүйлийн	-9.70412
▁захиалга	-9.70445
▁төрд	-9.70463
▁доор	-9.70508
▁залга	-9.7054
▁нисэх	-9.7056
үүлэн	-9.70586
▁даруй	-9.70592
▁хүнс	-9.70626
▁хувьцаа	-9.70702
▁хийлээ	-9.70715
▁хорооны	-9.70735
?!	-9.70752
▁байд	-9.7078
▁асуух	-9.70784
▁дэндүү	-9.70813
▁танхим	-9.70969
цан	-9.71032
▁үүнээс	-9.71049
▁байрны	-9.7106
▁цом	-9.71091
▁Жа	-9.71133
мс	-9.71149
▁өгөөч	-9.71176
▁технологийн	-9.71192
▁дэг	-9.7122
лэгдсэн	-9.71232
▁зогс	-9.71263
гчид	-9.71348
▁News	-9.7138
▁туршлагатай	-9.71456
шээ	-9.71478
▁су	-9.71485
ди	-9.71544
▁шаард	-9.71564
▁урсгал	-9.71586
мар	-9.71597
▁Иймд	-9.71633
ҮҮ	-9.71635
▁Түр	-9.71635
▁Өнөөдрийн	-9.7165
лэв	-9.71664
▁ачаа	-9.71664
▁бүтээсэн	-9.71671
▁Хур	-9.71744
хны	-9.71771
сын	-9.7179
▁ихээхэн	-9.71796
▁багтаа	-9.71819
тгэл	-9.71839
соор	-9.71942
ОН	-9.7196
▁тухайд	-9.72023
▁нэмэгдүүлэх	-9.7203
▁амт	-9.72131
▁Танай	-9.72204
▁хажууд	-9.72219
▁хашаа	-9.7225
асан	-9.72278
▁нийл	-9.72305
▁хэнд	-9.72371
оосоо	-9.72405
▁төмөр	-9.72415
ia	-9.72466
▁холбогдсон	-9.72477
▁найман	-9.72674
▁болдоггүй	-9.72688
▁муж	-9.7269
▁Дээрх	-9.72805
▁дөнгөж	-9.72832
▁зэвсэг	-9.72834
▁эрч	-9.72863
▁илэрхийлж	-9.7289
аргыг	-9.7289
▁зүйлсийг	-9.72911
▁чөлөөтэй	-9.72937
▁мөнгөн	-9.72953
▁нэн	-9.72963
▁авахгүй	-9.72966
▁харуулах	-9.72988
▁28	-9.73
·	-9.73025
▁надтай	-9.73059
▁нэмэр	-9.73088
эрсэн	-9.7317
▁хуульд	-9.73189
▁код	-9.7323
▁төлөөлөгч	-9.73243
▁зуу	-9.73306
▁ядуу	-9.73362
▁байнгын	-9.73464
▁цэрэг	-9.73479
▁му	-9.73484
йм	-9.73485
йг	-9.73489
тэр	-9.73546
▁хэвт	-9.73607
▁цагийг	-9.73692
▁өнөөдрийн	-9.73722
▁бүгдээрээ	-9.73747
▁Хү	-9.7376
▁ажилтнууд	-9.73781
▁ялангуяа	-9.73883
▁харуулж	-9.73897
▁мэддэггүй	-9.73898
▁буур	-9.73916
▁чам	-9.74004
▁явцад	-9.7402
ынхан	-9.74055
ul	-9.74169
▁угаа	-9.74189
▁ирээдүй	-9.74222
▁нунтаг	-9.74255
▁ажилдаа	-9.74301
▁өчигдөр	-9.74306
▁тэн	-9.74355
▁Ганц	-9.74371
▁хүнээс	-9.74393
▁барилгын	-9.74416
дсон	-9.745
▁ойролцоо	-9.74509
▁Зураг	-9.74551
▁f	-9.74643
▁улсууд	-9.7467
▁Найз	-9.74732
бай	-9.74732
▁галзуу	-9.74733
▁Үүн	-9.74749
▁орноо	-9.74784
▁Зах	-9.748
▁үзээд	-9.7484
▁өн	-9.74852
▁Кар	-9.74881
дөх	-9.74911
▁зохи	-9.74917
▁хүйтэн	-9.74944
▁ийнхүү	-9.74974
▁байлга	-9.74998
ag	-9.75076
▁айж	-9.75118
▁болтол	-9.75153
▁Багш	-9.75193
▁идэвхтэй	-9.75203
▁өө	-9.75225
▁өдрүүд	-9.75281
▁эмнэлэгт	-9.75306
▁Мал	-9.75317
▁зогсоох	-9.75348
▁бороо	-9.75359
Q	-9.75372
▁виз	-9.75386
▁зугт	-9.75392
me	-9.75402
ев	-9.75406
▁Улсад	-9.75454
▁тэмдэглэ	-9.75456
▁бүтээх	-9.75492
▁барьсан	-9.75493
▁эмэгтэйчүүдийн	-9.75553
▁хөөр	-9.75568
▁Эцэг	-9.75587
▁зорилготой	-9.7559
бэ	-9.75611
снээр	-9.75632
▁хийхийг	-9.75656
▁мэдэгдсэн	-9.75681
!!	-9.75725
▁тов	-9.7575
▁дутуу	-9.75774
▁бүрэлдэхүүн	-9.75802
▁яаралтай	-9.75806
▁Ла	-9.75811
лам	-9.75819
ЭЛ	-9.75839
▁буд	-9.75845
▁дуугар	-9.75869
▁суралц	-9.75933
▁тэтгэ	-9.75981
▁саван	-9.76056
▁явчих	-9.7606
шгүй	-9.76072
▁тогтоосон	-9.76083
агийн	-9.76095
▁эндээс	-9.7613
▁болохоос	-9.76159
ндаа	-9.76211
оороо	-9.76214
▁болоо	-9.76222
гүүд	-9.76228
▁хүүхдийг	-9.76233
▁шийдэл	-9.76316
▁бичгийн	-9.76321
▁нэвтрүүл	-9.76334
▁Мэд	-9.76343
▁удаад	-9.76396
▁насанд	-9.76486
▁гарц	-9.7649
▁хэлнэ	-9.76516
18	-9.76538
уухан	-9.7656
▁хэлэлцээр	-9.76567
чилсан	-9.76581
▁удирдах	-9.766
ме	-9.76635
вч	-9.76657
Y	-9.76673
16	-9.76718
▁өөрт	-9.7674
▁нислэг	-9.76884
▁улиралд	-9.76917
▁Хор	-9.76926
▁гарт	-9.76984
▁хэдхэн	-9.77016
аб	-9.77038
▁мундаг	-9.77103
▁Газар	-9.77132
▁зургууд	-9.77137
лүүд	-9.77144
▁Хоол	-9.77245
▁гаргаад	-9.77301
▁далд	-9.77304
▁юунд	-9.77328
ина	-9.77334
▁салхи	-9.77335
▁хүсвэл	-9.77337
▁хардаг	-9.77394
▁Он	-9.77407
▁жилүүдэд	-9.77454
▁дуусга	-9.77539
14	-9.77634
▁хэлбэрээр	-9.77637
▁хүрэхгүй	-9.77675
▁Аз	-9.77693
te	-9.77702
▁200	-9.77702
▁Өөрөө	-9.7774
гэх	-9.77806
вин	-9.77906
▁дууг	-9.77912
▁долоон	-9.7803
▁Таныг	-9.78166
▁Өглөө	-9.78185
▁төслийн	-9.78199
▁нэх	-9.78242
▁үзвэл	-9.78255
ял	-9.78283
▁Нэр	-9.78326
▁идэвх	-9.78386
▁ухаалаг	-9.78419
хир	-9.78456
эрч	-9.78465
▁Гу	-9.78511
▁чиглэл	-9.78627
▁ялгаатай	-9.78629
▁дэглэм	-9.78641
▁нойр	-9.78641
▁па	-9.78656
▁хүрт	-9.78663
▁угаах	-9.78692
▁өгөөд	-9.78692
лэдэг	-9.78772
▁цаас	-9.78777
▁МАХН	-9.78862
хуу	-9.78887
▁бодлоор	-9.78896
▁суудал	-9.78907
▁Нас	-9.78978
▁тэдгээр	-9.78978
▁оролд	-9.79063
▁хамгаалалт	-9.79133
▁эмнэлэг	-9.79154
▁буцаж	-9.79161
▁хү	-9.79163
рил	-9.79172
▁дууссан	-9.79226
▁хон	-9.79249
▁байгууллагад	-9.79258
▁төсөөл	-9.79281
▁маск	-9.79321
▁асуудлууд	-9.79324
▁гадны	-9.79326
Хүрэлсүх	-9.79331
▁сахи	-9.79395
▁цөм	-9.79434
▁энх	-9.79493
▁алдаж	-9.79513
▁магадлалтай	-9.79596
▁Ю	-9.79623
▁боловсролын	-9.79678
▁хүүхэн	-9.79752
▁жа	-9.79804
▁хэсгийн	-9.79806
өрө	-9.79817
▁авахад	-9.79882
▁Ко	-9.79908
▁Үнэндээ	-9.80094
▁дуул	-9.80194
▁Дуу	-9.80262
▁ул	-9.8046
дам	-9.80488
▁авто	-9.80542
▁буцах	-9.80569
▁нийслэл	-9.80599
▁танилц	-9.80614
тол	-9.80625
иад	-9.80628
▁өвчний	-9.80658
▁d	-9.80716
▁цуглуул	-9.80784
▁эхчүүд	-9.80795
▁хураа	-9.80848
▁Хэзээ	-9.8088
▁морь	-9.80881
▁санхүүжилт	-9.80885
▁суулга	-9.80893
▁манайх	-9.80907
▁өрх	-9.8091
▁дурдсан	-9.80938
бэр	-9.80981
ll	-9.81086
▁Тэдгээр	-9.81098
▁хоосон	-9.81109
АГ	-9.81122
▁баярын	-9.81128
▁хугацаагаар	-9.81208
▁үүр	-9.81253
▁халамж	-9.81338
▁болоход	-9.81365
▁амын	-9.8152
▁дайны	-9.81537
▁тарх	-9.81713
▁саяхан	-9.81718
▁үзэг	-9.81757
▁ашигласан	-9.81767
▁баялаг	-9.81791
▁ногоон	-9.81851
▁Хэдэ	-9.81874
най	-9.81877
▁!	-9.81898
▁Үгүй	-9.819
▁зугаа	-9.82058
▁дэмж	-9.82095
▁шилжүүл	-9.82132
▁хи	-9.82216
▁өөрчилж	-9.82248
▁онцлов	-9.82251
ци	-9.82278
▁олгодог	-9.82312
ow	-9.82322
▁тодорхойлох	-9.82358
лээр	-9.82421
▁Энэтхэг	-9.82466
▁Иймээс	-9.82476
▁Шүүх	-9.82482
▁Со	-9.82546
▁сонгож	-9.82561
▁дулаан	-9.82565
▁Охин	-9.82568
▁Ган	-9.82662
▁гарахгүй	-9.82662
▁булан	-9.82669
▁сургалтын	-9.82696
▁Эхнэр	-9.8271
▁ээлжит	-9.82729
ОР	-9.82754
▁ангид	-9.82757
члал	-9.82799
▁иргэдийг	-9.8281
▁сайхны	-9.82835
▁боль	-9.82847
▁ганцаар	-9.82849
▁дээрээс	-9.82873
▁анхаарлаа	-9.82892
▁хөрш	-9.82942
▁асуудлаа	-9.82971
▁АТГ	-9.82976
цгаа	-9.83069
▁мөнгөөр	-9.83097
▁тэв	-9.83103
▁вий	-9.83104
▁шоронд	-9.83108
▁суугаа	-9.8315
▁захирал	-9.83172
▁ихтэй	-9.83173
▁бүтээлч	-9.83187
ap	-9.83248
▁тодруул	-9.83259
нуудыг	-9.8327
▁төрж	-9.83306
▁хааны	-9.83307
▁хүсэхгүй	-9.83308
▁Британи	-9.8339
лууд	-9.83402
▁хэвээрээ	-9.8341
▁түүнтэй	-9.8345
гуур	-9.83497
▁байдалтай	-9.835
▁ойлгосон	-9.83506
▁бүтээ	-9.8353
▁утгаараа	-9.83566
рэг	-9.83567
▁хоно	-9.83641
▁эсэргүүц	-9.83786
▁тээвэр	-9.83877
▁таатай	-9.83912
▁сурга	-9.83984
▁засаглал	-9.84033
наасаа	-9.84044
▁тур	-9.84073
▁санааг	-9.84141
▁дуудлага	-9.8415
ед	-9.84209
▁унага	-9.84233
▁t	-9.84241
12	-9.84303
▁тэгэх	-9.84342
▁байтугай	-9.84344
АЙ	-9.84424
▁гарлаа	-9.84445
▁Өв	-9.84455
▁орнуудын	-9.84481
▁хөдлөх	-9.84548
▁дэвсгэр	-9.84571
▁хож	-9.84592
▁зохио	-9.8463
бат	-9.84647
▁сүү	-9.8466
▁но	-9.84693
▁зовоо	-9.84711
▁тэрэг	-9.84712
▁техник	-9.8473
▁авахыг	-9.84736
▁мө	-9.84765
▁хичнээн	-9.84807
▁шийдвэрийг	-9.84814
▁хүлээ	-9.84836
▁сангийн	-9.8489
▁уя	-9.84906
▁&	-9.84915
▁хангаж	-9.84925
лүүлэх	-9.84952
▁төгсгөл	-9.85004
▁үхэх	-9.85023
▁Өөрийгөө	-9.85043
▁аймагт	-9.85062
▁Ду	-9.85066
▁ёслол	-9.85072
▁ертөнцөд	-9.8508
ИЙН	-9.85141
om	-9.85142
▁Заримдаа	-9.85213
▁үд	-9.8528
▁буудал	-9.85283
▁дэв	-9.85295
▁хүмүүстэй	-9.85326
чны	-9.85354
▁унтаж	-9.85364
▁дөө	-9.85429
▁Бизнес	-9.85516
▁хад	-9.85604
▁багц	-9.85661
▁устгах	-9.85664
▁мэдэрч	-9.85688
▁төстэй	-9.85755
▁Re	-9.85761
▁тоог	-9.85762
▁хөлс	-9.85829
▁хуулиар	-9.85912
уудаас	-9.85931
дугаар	-9.85937
▁хайрла	-9.85951
▁гут	-9.85996
▁хойд	-9.86007
▁гаргана	-9.86018
▁шүүгч	-9.86022
▁өнөө	-9.86065
уулагч	-9.86088
▁салга	-9.86099
▁айлын	-9.86106
▁Си	-9.86165
▁анхаарч	-9.86191
▁хэлжээ	-9.86192
▁хайх	-9.86192
▁гэрээг	-9.8624
▁загварын	-9.86285
▁түүхэн	-9.86336
id	-9.8637
▁Жон	-9.86399
▁сон	-9.86424
руулах	-9.86471
▁харамсалтай	-9.86474
▁чадвал	-9.86475
▁хамтарч	-9.8649
ого	-9.86517
агчид	-9.86626
▁чих	-9.86701
▁үүсвэр	-9.8671
▁хохир	-9.86718
▁судалж	-9.86719
цаг	-9.86725
▁араас	-9.86756
▁Хотын	-9.86759
▁батлах	-9.86832
ьд	-9.86841
▁төвд	-9.86853
▁үйлдвэрлэгч	-9.86919
▁клуб	-9.8695
ухлыг	-9.86954
▁харьцаа	-9.86963
▁төрөх	-9.86994
лөн	-9.87007
▁ээлж	-9.87011
▁нуруу	-9.87016
▁хүсэлтэй	-9.8704
эгдэх	-9.87068
▁цэвэрлэх	-9.8707
чихлаа	-9.87105
▁чөлөөт	-9.87108
▁үнийн	-9.87202
▁тохируул	-9.87212
изм	-9.87215
▁бүлгийн	-9.87221
▁салах	-9.87354
▁тавьдаг	-9.87356
▁Тэ	-9.87403
▁хувьсгал	-9.87433
ЫН	-9.87443
▁хийгээгүй	-9.87448
▁ойрхон	-9.87476
▁500	-9.87494
▁зүг	-9.87549
▁тэмдэглэл	-9.8755
үүлээд	-9.87611
▁Мар	-9.87646
▁туршид	-9.87676
na	-9.87681
▁үүднээс	-9.87693
▁нэмэгдэж	-9.87731
▁1000	-9.87733
▁дурла	-9.87768
▁Зүүн	-9.87806
▁цоо	-9.8793
▁үеэс	-9.87948
▁ууж	-9.87957
▁хуруу	-9.8801
ралт	-9.88056
▁үзэн	-9.88057
ee	-9.88064
гор	-9.88085
жир	-9.88094
▁бэлтгэ	-9.88148
▁хулгайч	-9.88221
▁гаралтай	-9.88228
▁өнгөрч	-9.88256
▁гишүүдийн	-9.88263
▁хоорондын	-9.88278
▁болгоно	-9.88371
▁цохи	-9.88374
▁Азийн	-9.88399
▁дурсамж	-9.88404
онго	-9.88415
▁ойрын	-9.88426
▁ас	-9.88448
Оюун	-9.88503
▁мэс	-9.88519
de	-9.88521
▁агуулга	-9.88573
▁ги	-9.88595
▁Турк	-9.88649
▁хаяж	-9.88713
▁дэвшүүл	-9.88811
▁өргөж	-9.88835
▁барил	-9.88843
▁ариутгагч	-9.88904
▁жимс	-9.88908
▁нөхөн	-9.8892
▁Үйл	-9.88927
▁бүтээн	-9.88957
▁цаана	-9.88961
▁Гурван	-9.89001
ши	-9.89014
▁зөвлөх	-9.89101
ддэг	-9.89114
▁бгаа	-9.89129
▁экспорт	-9.8914
▁шигээ	-9.89147
▁сонирхож	-9.89155
▁гараг	-9.89165
▁суулгах	-9.89178
▁бэлгийн	-9.89199
▁уд	-9.89358
гүүр	-9.89375
▁тусам	-9.8939
▁алт	-9.89442
60	-9.89477
ийм	-9.89549
▁шдээ	-9.89674
▁Google	-9.89691
▁үйлдвэрлэлийн	-9.8975
мин	-9.89833
▁Хэдийг	-9.89834
▁сүнс	-9.89898
25	-9.89946
луул	-9.89974
чдийн	-9.89992
*	-9.90029
▁Ойр	-9.90088
▁олимп	-9.90129
▁станц	-9.90129
▁удирдлагууд	-9.90129
▁чадал	-9.90201
▁Солонгосын	-9.90212
лгын	-9.90219
▁Тэгсэн	-9.90297
▁сонирх	-9.90328
▁Ус	-9.90371
лаагүй	-9.90389
иар	-9.90422
▁газраа	-9.90479
▁болтугай	-9.90485
▁харагд	-9.90493
▁дөрөв	-9.90625
▁тариа	-9.90668
лгүй	-9.90689
огдох	-9.90714
▁бур	-9.90755
▁чанарыг	-9.9076
▁цас	-9.90781
▁Дан	-9.90855
▁төл	-9.90904
лож	-9.90974
▁явуулсан	-9.9099
ип	-9.91017
▁түүхийг	-9.91023
хой	-9.91045
▁ухаар	-9.91071
▁магадлал	-9.9108
▁амин	-9.91112
▁хандуул	-9.91147
▁нэрээр	-9.91149
эгдсэн	-9.91231
жаргал	-9.91257
▁тоглоомын	-9.91276
▁иржээ	-9.91302
▁кон	-9.91305
▁доорх	-9.91319
▁вэбсайт	-9.91378
▁ялалт	-9.91395
▁шатанд	-9.91579
▁урагш	-9.91594
▁сайжруул	-9.91595
▁төдийгүй	-9.91598
▁амралт	-9.91603
▁вэб	-9.91604
хэд	-9.91688
▁дуучин	-9.91711
▁гээч	-9.91728
гоос	-9.91828
▁аймаг	-9.91903
▁мэдрэх	-9.91927
лаас	-9.91962
sh	-9.9197
▁эхэл	-9.9197
▁багт	-9.91995
▁үүсгэх	-9.92015
▁Зөв	-9.92017
▁сураг	-9.92019
▁үйлчлүүлэгч	-9.9208
сэг	-9.92125
▁бодолтой	-9.92148
▁эхлүүл	-9.92155
ЭГ	-9.92185
▁биелүүлэх	-9.92193
▁сурсан	-9.92208
чдыг	-9.92216
▁оролц	-9.92264
▁жолоо	-9.9229
▁хариул	-9.92326
▁амьдралаа	-9.92354
▁орчны	-9.92366
▁олгоно	-9.92415
▁хорих	-9.92449
▁дан	-9.92471
▁унтах	-9.92476
арт	-9.92494
~	-9.92508
▁хэ	-9.92553
▁тодорхойгүй	-9.92614
▁Эцэст	-9.92644
▁Маргааш	-9.92644
▁камер	-9.92645
▁хөгжиж	-9.92655
▁сэтгэ	-9.92681
▁новш	-9.92735
кк	-9.92756
+	-9.92764
єн	-9.92799
рүү	-9.92834
▁амьдар	-9.92864
▁зү	-9.92896
▁хөрөнгийн	-9.92899
▁инээмсэгл	-9.929
▁тулга	-9.92932
▁шийдэж	-9.92952
▁нунтаглах	-9.92961
▁тэжээ	-9.92984
мэн	-9.92998
▁байснаа	-9.92999
▁удирд	-9.9305
▁зөрүү	-9.93067
Хүн	-9.93072
тайгаар	-9.93093
чихээд	-9.93105
▁борлуулалт	-9.93155
▁ирээдүйд	-9.93178
ины	-9.93194
▁хүчээр	-9.93202
▁амралтын	-9.93238
▁лам	-9.93239
▁сув	-9.93277
▁зохицуулалт	-9.93285
▁бэрхшээлтэй	-9.93285
▁ажлууд	-9.93302
▁кофе	-9.93416
95	-9.9343
▁сараас	-9.93515
▁x	-9.9353
▁мэдээллээ	-9.93569
▁хүртэлх	-9.93598
40	-9.9362
▁хүс	-9.93772
▁Чингис	-9.93797
▁ирэв	-9.93835
▁гэгч	-9.93901
▁төдий	-9.93902
▁уна	-9.93914
▁7-	-9.93943
▁яс	-9.93984
!"	-9.94001
тэйгээр	-9.94053
▁таг	-9.94102
▁жүжиг	-9.94118
▁Албан	-9.94209
ку	-9.94219
▁нэрлэдэг	-9.94264
▁сэргээх	-9.94358
▁зөө	-9.94368
▁утсаар	-9.94491
▁танил	-9.94494
моор	-9.94565
▁түвшин	-9.94596
▁h	-9.94649
▁солих	-9.94669
өрөө	-9.94688
▁гудамж	-9.94695
Ь	-9.94704
▁мөрөөдөл	-9.94704
▁үүний	-9.94809
▁үнэнийг	-9.94903
▁муутай	-9.94928
▁эрхгүй	-9.94932
▁гарчээ	-9.94937
▁бүтэц	-9.94964
▁учруул	-9.94972
▁хохирол	-9.94981
ху	-9.94986
▁нөлөөлөх	-9.94989
▁талтай	-9.95007
▁шавь	-9.95017
▁хүрээд	-9.95184
▁Аливаа	-9.95229
ss	-9.95269
эгчид	-9.9531
▁тайл	-9.95332
▁аяга	-9.95352
▁үнэнч	-9.95374
снаа	-9.95389
▁нүүрс	-9.95393
▁Ви	-9.95402
▁ариун	-9.95488
▁гуниг	-9.95488
▁зогсож	-9.95507
▁бусдыг	-9.9552
▁спортын	-9.9556
сал	-9.95708
▁ундаа	-9.95711
▁Ё	-9.95767
▁дундаж	-9.95843
▁хэлмээр	-9.95902
гаагүй	-9.95919
▁цугла	-9.96008
ig	-9.96042
um	-9.96066
▁хана	-9.96158
▁буцааж	-9.96279
▁хатан	-9.96297
▁бэлд	-9.963
▁эргэлт	-9.96306
▁төгссөн	-9.96362
▁тор	-9.96447
▁засал	-9.96459
аасай	-9.96468
▁Жи	-9.96543
▁бүрийг	-9.96545
гдсан	-9.96549
алтай	-9.96554
▁галт	-9.96561
▁гарагт	-9.96586
▁эргүүл	-9.96586
▁үргэлжилж	-9.96591
▁далай	-9.96628
▁эхлэл	-9.96731
▁i	-9.96731
тор	-9.96735
▁хэлэхдээ	-9.9678
▁ноцтой	-9.96806
лөгч	-9.96839
ct	-9.96846
▁Гэ	-9.96931
▁Ол	-9.96966
члан	-9.9699
▁тусдаа	-9.97072
Таны	-9.97107
зо	-9.97107
▁2000	-9.97108
▁Холбоо	-9.97138
лүү	-9.97211
▁тавь	-9.97253
те	-9.97253
фе	-9.97256
саг	-9.97263
▁найдвартай	-9.97285
▁дотно	-9.97347
▁Дав	-9.97351
▁Яа	-9.97377
▁бүртгүүл	-9.97411
▁хөгжүүл	-9.97454
▁баталсан	-9.97523
▁хийхээр	-9.97526
луулж	-9.97533
▁соёлын	-9.97549
▁үгээр	-9.97594
▁Бод	-9.97609
▁жирийн	-9.97637
▁жуулч	-9.97641
авар	-9.97642
▁тойм	-9.97646
▁халаа	-9.97661
лц	-9.97679
▁байдлаас	-9.97713
▁боол	-9.9773
▁даваа	-9.97734
▁ойлгохгүй	-9.97829
▁бухимд	-9.97874
▁импорт	-9.97874
▁нээлт	-9.9793
▁орнуудад	-9.97939
▁үнэт	-9.97949
▁зочид	-9.97994
цэцэг	-9.98036
ийх	-9.98055
▁гараагүй	-9.98142
▁аврах	-9.98143
▁урам	-9.98151
▁зөвлөмж	-9.98155
▁нээгд	-9.98162
дэв	-9.98168
ho	-9.98186
юу	-9.98228
▁нэвтрүүлэг	-9.98254
▁байтал	-9.9826
снээс	-9.98261
доггүй	-9.98276
▁улстөр	-9.98344
▁ирэхэд	-9.98347
▁чухам	-9.98413
▁усан	-9.98421
ъё	-9.98483
▁утаа	-9.98489
▁илрүүл	-9.98552
▁дэмждэг	-9.98646
лин	-9.9866
▁ми	-9.98678
▁цөөхөн	-9.98683
▁Шар	-9.98691
▁шалгуур	-9.98692
▁татан	-9.98703
▁гэхээс	-9.98757
▁шүүхийн	-9.9882
▁баяж	-9.98846
▁зөвлөж	-9.98849
жүүлэх	-9.98863
▁кинонд	-9.98966
▁хэрэглэгчид	-9.99041
охо	-9.99042
▁давж	-9.99073
▁хоёулаа	-9.99089
▁тогтоож	-9.99097
▁барилд	-9.99113
▁мэдэгд	-9.99138
▁хийлгэх	-9.99173
▁шашны	-9.99226
▁дохио	-9.99228
▁түгээмэл	-9.99233
екс	-9.99237
▁Эхлээд	-9.99261
▁тулгуур	-9.99273
▁үргэлжлүүлэн	-9.99284
▁Өр	-9.99377
▁нэгийг	-9.99495
ле	-9.99512
▁хурим	-9.99518
▁зун	-9.99543
▁таарна	-9.99585
▁руугаа	-9.99587
▁бичээд	-9.99615
▁дэ	-9.99641
▁зарах	-9.99642
▁6-	-9.99665
▁цэц	-9.99676
фи	-9.99757
лэлийн	-9.99769
▁төгөлдөр	-9.99771
▁цогц	-9.99772
▁айдас	-9.99778
▁ярилцах	-9.99803
▁урлагийн	-9.99818
Одоо	-9.99864
▁алдар	-9.99968
бэл	-9.99989
амба	-9.99991
▁Жишээлбэл	-10.0005
▁байгууламж	-10.0005
▁жагс	-10.0005
▁үзэгдэл	-10.0007
нээсээ	-10.0011
▁өөрөөр	-10.0013
арай	-10.0022
▁Христ	-10.0023
▁Co	-10.0027
▁гариг	-10.0028
▁казино	-10.0032
▁уншигч	-10.0032
▁хэлэлцэж	-10.0035
70	-10.0036
рон	-10.0051
▁Бү	-10.0051
Тийм	-10.0056
▁шаардлагыг	-10.006
▁Цагдаагийн	-10.0066
▁ярилцаж	-10.0069
▁Кино	-10.0072
▁Библи	-10.0073
▁сурталчилгаа	-10.008
уулаа	-10.0082
▁Өндөр	-10.0087
▁таларх	-10.0088
▁Эмэгтэйчүүд	-10.0089
▁2021	-10.009
▁гадаа	-10.0091
▁суугаад	-10.0091
жуулах	-10.0092
өнд	-10.0097
▁бууж	-10.0105
▁илэрхийлэх	-10.0105
▁Улаан	-10.0107
▁зарцуул	-10.011
ac	-10.0112
▁бидэнтэй	-10.0115
▁харьцуулахад	-10.0116
▁явлаа	-10.012
22	-10.0121
▁тутамд	-10.0124
▁нээж	-10.0125
▁гишүүний	-10.013
лай	-10.0132
▁хэрэглэ	-10.0135
жав	-10.0135
▁Mo	-10.014
▁БНСУ	-10.0143
▁тэжээл	-10.0144
▁бяцхан	-10.0144
▁ухаантай	-10.0147
▁нөлөөлж	-10.0152
▁өгчих	-10.0161
▁санагдсан	-10.0166
▁w	-10.017
▁удаагаа	-10.017
▁хийгдсэн	-10.0171
▁наймаа	-10.0172
▁тэгвэл	-10.0175
▁тархи	-10.0178
дгийг	-10.0179
ni	-10.0185
▁мэдэгдэх	-10.0187
▁нийтлэг	-10.019
▁номыг	-10.0193
▁сэтгэлийг	-10.0197
▁Ийнхүү	-10.0198
▁интернэт	-10.0198
▁загас	-10.0204
▁үзье	-10.0205
ОО	-10.0205
▁зохих	-10.0206
▁гэгээ	-10.0211
▁зохиолч	-10.0213
▁замд	-10.0218
туяа	-10.0219
▁хэлье	-10.022
эрэг	-10.0233
агдана	-10.0235
▁бүтээгдэхүүнийг	-10.024
▁магт	-10.0244
▁сууцны	-10.0246
▁тайлбарла	-10.0249
ув	-10.0255
▁холбогдолтой	-10.026
▁утгатай	-10.0262
▁үйлчл	-10.0266
▁гай	-10.028
▁хүргэ	-10.0282
▁ре	-10.0282
▁зөөлөн	-10.0283
▁талыг	-10.0287
▁сонгон	-10.0296
алга	-10.0304
▁жилдээ	-10.0306
▁Шү	-10.0309
op	-10.0311
▁процесс	-10.0311
▁ногоо	-10.0311
▁унаж	-10.0315
▁сонсоод	-10.0316
єр	-10.0319
▁ажиллагаагаа	-10.0325
▁эрүү	-10.0335
лүүлж	-10.0336
▁жагсаал	-10.034
▁наадмын	-10.0342
▁зөвшөөрч	-10.0342
▁хандив	-10.0343
▁зөвшөөр	-10.0348
▁дурс	-10.035
▁онол	-10.0352
▁уншсан	-10.0353
▁шувуу	-10.0369
▁Хэрэглэгч	-10.0371
▁Дар	-10.0372
рээд	-10.0377
▁байршил	-10.038
▁шигшээ	-10.0386
▁35	-10.0386
▁уламжлал	-10.0386
▁цалинг	-10.0387
▁Ардын	-10.0387
▁гайгүй	-10.039
▁татварын	-10.0395
▁гуравдугаар	-10.0397
▁талбайд	-10.0399
▁хичээлийн	-10.0399
▁сонгодог	-10.0406
шир	-10.0406
▁Хөл	-10.0407
сах	-10.0411
▁телевиз	-10.0415
ладаг	-10.0417
чимэг	-10.0418
▁шаарддаг	-10.042
▁Хаан	-10.0422
лаарай	-10.0424
▁ашигла	-10.0426
▁тавиад	-10.0438
13	-10.0445
иас	-10.045
▁хэмжээтэй	-10.0462
дод	-10.0467
ее	-10.0468
лгээ	-10.0474
▁инээд	-10.0478
▁Чамайг	-10.0495
▁томил	-10.0497
▁хэрэгжүүл	-10.0503
bo	-10.0507
▁хэний	-10.0509
▁эртний	-10.0511
oo	-10.0513
▁хаашаа	-10.0514
▁хамгаалж	-10.0515
▁мэдээлж	-10.0521
АС	-10.0522
▁тахл	-10.0522
▁оруулалтын	-10.0525
▁айх	-10.0528
▁Хал	-10.053
бер	-10.0531
▁20-	-10.0536
▁29	-10.0537
▁төгрөгийн	-10.0538
▁Ая	-10.0539
▁интернет	-10.054
▁баригчид	-10.0546
▁усанд	-10.0548
▁бусдаас	-10.0548
▁буян	-10.0553
элтийн	-10.0555
▁батлагдсан	-10.056
▁нэмэгдсэн	-10.0562
▁тэнц	-10.0566
▁сэргээ	-10.0568
▁төрөлхтөн	-10.0569
▁театр	-10.0569
Нэг	-10.057
▁8-	-10.058
▁Мэдээ	-10.0585
▁Баян	-10.059
▁менежер	-10.0598
су	-10.0602
24	-10.0603
▁орших	-10.0603
▁тайлбарлаж	-10.0605
▁сунга	-10.0605
▁монголын	-10.0609
,000	-10.061
▁эхэлдэг	-10.0612
▁үер	-10.0623
луулсан	-10.0623
▁луйвар	-10.0627
▁амьдралдаа	-10.0627
▁насандаа	-10.0627
▁сүүлчийн	-10.0628
▁түүн	-10.063
▁Ну	-10.0631
▁хорт	-10.0633
пи	-10.064
▁нааш	-10.064
▁Илүү	-10.064
▁ханддаг	-10.0641
▁судлах	-10.0643
▁Өөрийнхөө	-10.0645
▁зуны	-10.0647
▁дэлгэ	-10.065
ОХ	-10.0651
▁хэрэглэгчийн	-10.0654
▁өмс	-10.0656
▁дизайн	-10.0657
рөг	-10.0658
▁тог	-10.0662
по	-10.0663
▁не	-10.0666
▁үүрэгтэй	-10.0673
▁онц	-10.0674
com	-10.0675
огийн	-10.0678
мэг	-10.0685
▁автомат	-10.0686
▁үнэмлэх	-10.0686
▁бөглө	-10.0688
▁to	-10.0691
▁Ни	-10.0694
▁дийл	-10.0695
▁баярлаж	-10.0697
▁суусан	-10.0697
▁Ашиг	-10.0706
▁гутал	-10.0707
▁мэдрэг	-10.0707
▁далайн	-10.071
05	-10.0712
▁авчих	-10.0714
▁цэн	-10.0714
▁До	-10.0715
▁харьцангуй	-10.0715
▁дийлэнх	-10.0715
▁өртөг	-10.0716
▁Долоо	-10.0719
Ху	-10.0722
▁долларын	-10.0723
▁манд	-10.0726
дав	-10.073
▁300	-10.0731
▁аваагүй	-10.0732
▁Дор	-10.0732
▁төвлөр	-10.0732
▁хичээдэг	-10.0735
▁Энэтхэгийн	-10.0737
▁бариад	-10.074
▁бохир	-10.0741
муу	-10.0742
ver	-10.0743
▁Британийн	-10.0746
▁нүү	-10.0749
▁үнс	-10.0759
▁зовж	-10.0763
ry	-10.0765
өгч	-10.0765
охгүй	-10.0765
:)	-10.0772
▁харилцааны	-10.0772
▁дахиж	-10.0774
▁тэтгэвэр	-10.0775
▁1990	-10.0777
04	-10.078
Ал	-10.0781
▁өвөл	-10.0784
▁11-	-10.0784
08	-10.0789
▁тустай	-10.0795
▁Тэднийг	-10.0799
▁аялах	-10.08
▁ангилал	-10.0803
▁эхлүүлэх	-10.0803
▁хүчирхэг	-10.0804
▁нөлөөлдөг	-10.0804
▁Урьд	-10.0804
▁унах	-10.0809
▁хүлээлгэ	-10.0813
▁Нийгмийн	-10.0817
▁гац	-10.0818
▁үйлдвэрлэх	-10.0819
▁үзэгч	-10.0826
өнгө	-10.0826
▁Трамп	-10.0834
▁De	-10.0841
ту	-10.0841
▁дэмий	-10.0841
ation	-10.0851
Ор	-10.0852
▁Ази	-10.0855
из	-10.0859
▁төлөвлө	-10.0859
▁цээж	-10.0862
▁ко	-10.0864
▁Австрали	-10.0864
▁байдгийг	-10.087
ta	-10.0871
▁ирээдүйн	-10.0872
▁өвөө	-10.0874
агддаг	-10.0875
▁хутга	-10.0886
гэсэн	-10.0887
▁Тэгж	-10.0888
▁гадаадад	-10.0889
Ф	-10.089
▁шив	-10.089
▁гараар	-10.0891
▁Хүр	-10.0892
▁зэргийн	-10.0893
▁Ле	-10.0893
чдад	-10.0894
▁зэрэгцээ	-10.0894
to	-10.0899
мог	-10.0902
▁Facebook	-10.0902
▁хөөрхий	-10.0903
▁сурагч	-10.0914
доллар	-10.0917
▁Өө	-10.0919
▁байсаар	-10.0922
▁өдрөөс	-10.0922
▁хэчнээн	-10.0923
▁харц	-10.0927
ГА	-10.0928
дахгүй	-10.0939
▁олгож	-10.094
▁<	-10.0942
шүү	-10.0945
▁Зам	-10.0947
▁санаанд	-10.0949
▁харуулсан	-10.095
▁Африк	-10.0951
▁Бидэнд	-10.0951
▁яар	-10.0953
▁хангалуун	-10.0954
▁оруулна	-10.0969
мэйл	-10.0979
17	-10.0982
▁шийдэгд	-10.0987
▁мэтээр	-10.0988
▁тохирсон	-10.0994
▁чадаж	-10.0995
▁Му	-10.1
сноор	-10.1001
▁бичдэг	-10.1011
▁Ме	-10.1014
▁зөрчсөн	-10.1014
▁нэгэнт	-10.1018
▁биздээ	-10.1018
▁бн	-10.102
чуудын	-10.1025
▁Орчин	-10.1025
▁өөд	-10.1026
▁Дур	-10.1027
▁Хот	-10.1034
▁зөвлө	-10.1035
үм	-10.1042
▁Улмаар	-10.1044
▁ккк	-10.1048
▁Нэгэн	-10.1049
▁харьяа	-10.1049
ack	-10.1055
▁харагдана	-10.1056
чихдаг	-10.1062
▁авт	-10.1067
▁хун	-10.1068
▁шав	-10.1072
▁тамир	-10.1072
▁Кон	-10.1073
▁Анхны	-10.1074
%-	-10.1076
▁медаль	-10.1078
об	-10.1079
▁St	-10.1081
▁хайрлах	-10.1083
▁больсон	-10.1083
▁уншаад	-10.1089
▁улсаас	-10.1092
▁бүтээж	-10.1093
▁тооцох	-10.1097
▁тулаан	-10.1101
▁Сон	-10.1103
Ирээдүй	-10.1106
▁Бүсгүй	-10.1107
▁Дээд	-10.1108
▁өгье	-10.1111
логч	-10.1115
co	-10.1115
and	-10.1121
02	-10.1125
▁баатар	-10.1128
▁Хүнд	-10.113
▁амлалт	-10.1132
Баяр	-10.1133
▁даасан	-10.1133
▁харамс	-10.1136
▁шөнийн	-10.1136
▁урьж	-10.1137
▁доод	-10.1138
▁өөрчлөгдсөн	-10.1139
▁суурин	-10.1139
21	-10.1141
дээд	-10.1144
▁авгай	-10.1145
▁программ	-10.1146
ie	-10.1147
▁Дэлгэрэнгүй	-10.1149
▁хосууд	-10.1151
▁сэтгэлээсээ	-10.1152
▁нэгний	-10.1154
▁автомашин	-10.1156
▁ялагд	-10.1162
03	-10.1162
▁тасралтгүй	-10.1167
▁билүү	-10.1174
▁тэмцэл	-10.1176
▁алс	-10.1179
▁даван	-10.118
▁Банк	-10.1183
▁улирал	-10.1194
▁харна	-10.1197
▁Цаашид	-10.1198
▁сургуулиуд	-10.1198
▁хорвоо	-10.1202
▁баригч	-10.1206
▁хэлэлц	-10.1211
▁шанал	-10.1213
▁овоо	-10.1214
▁тохиолд	-10.1214
▁үргэлжлүүл	-10.1216
▁шүүхэд	-10.1217
▁талдаа	-10.1225
▁тойрог	-10.1227
▁арилгах	-10.123
▁үгүйсгэ	-10.1232
▁эрхлэх	-10.1241
▁дундуур	-10.1243
▁буруутга	-10.125
▁үүргээ	-10.1253
▁сургуулиа	-10.1256
▁босоо	-10.1258
im	-10.1259
▁шаа	-10.1261
▁хөгжмийн	-10.1261
▁Машин	-10.1262
▁хүсэх	-10.1264
▁тоглосон	-10.1265
▁Сонгуулийн	-10.1268
▁хүүхдүүдэд	-10.1272
▁ү	-10.1272
▁засагт	-10.1274
od	-10.128
▁төлж	-10.1282
ok	-10.1286
[	-10.1288
▁хамрагдах	-10.129
▁эхээр	-10.1291
▁хайрлаж	-10.1291
▁шим	-10.1297
▁Германы	-10.1298
▁олдохгүй	-10.1311
▁үзүүлсэн	-10.1312
▁Дунд	-10.1314
▁сэтгэлд	-10.1317
▁гадуур	-10.1318
▁дагаад	-10.1318
▁хөнгөн	-10.1321
▁секунд	-10.1322
▁бодвол	-10.1331
▁тохирох	-10.1334
▁зөвлөлийн	-10.1341
▁эхэлжээ	-10.135
▁шд	-10.1353
▁Бал	-10.1354
▁Баг	-10.1354
▁найд	-10.1358
▁өсгө	-10.1358
▁түг	-10.1359
▁Ингэхдээ	-10.1359
ань	-10.1361
▁үйлчлэх	-10.1363
алгүй	-10.1371
▁зохицуулах	-10.1372
▁хоёрыг	-10.1373
▁зайл	-10.1378
▁Жо	-10.1383
▁Ch	-10.1385
пер	-10.1386
▁сайтай	-10.139
лалын	-10.1399
▁9-	-10.1402
▁захиргааны	-10.1403
▁Нийгэм	-10.1406
▁шир	-10.1407
▁Үл	-10.1407
лет	-10.1408
▁пи	-10.1409
Ган	-10.1411
▁тонн	-10.1412
▁иддэг	-10.1415
▁асуудлын	-10.1417
▁үзэхэд	-10.1419
▁үзүүлдэг	-10.142
▁тамирчин	-10.1421
▁хиймэл	-10.1421
▁түргэн	-10.1422
▁шан	-10.1424
си	-10.1428
▁Эрдэнэ	-10.1433
▁хүндрэл	-10.1433
▁+	-10.1433
▁нутгаар	-10.1436
АТ	-10.1437
▁Түүх	-10.1438
▁соли	-10.1444
▁даатгалын	-10.1444
▁хэрэглээний	-10.1445
▁шуурхай	-10.1448
▁хийлгэ	-10.1453
ЭМ	-10.1454
▁on	-10.1456
▁бөөн	-10.1462
ру	-10.1465
▁Манайх	-10.1465
▁парламент	-10.1466
▁хурц	-10.1469
▁үргэлжлэх	-10.147
▁Авто	-10.1472
Ма	-10.1478
▁Өчигдөр	-10.148
▁амгалан	-10.148
▁явдлыг	-10.148
▁үнийг	-10.1482
▁Нью	-10.1484
▁Саяхан	-10.1484
▁The	-10.1486
▁Секс	-10.1489
▁Байгаль	-10.1493
▁хүлээсэн	-10.1493
▁биед	-10.1496
ори	-10.1496
▁зарцуулах	-10.1497
▁аваач	-10.1498
▁хань	-10.151
▁инженер	-10.1512
▁өнцөг	-10.1512
▁хамаарна	-10.1512
▁шороо	-10.1517
▁Ядаж	-10.152
▁Эмч	-10.1526
▁баймаар	-10.153
▁төвийн	-10.1532
▁ди	-10.1536
▁олго	-10.1544
▁музей	-10.1544
▁хянах	-10.1544
▁гүйцэтгэл	-10.1548
▁цохилт	-10.1548
аагаад	-10.155
▁ун	-10.155
▁таалагдах	-10.1554
▁ком	-10.1556
▁дурлал	-10.1559
▁харвал	-10.1561
мент	-10.1564
▁Ил	-10.1567
▁сайтар	-10.1572
алгаа	-10.1573
ОЛ	-10.1574
ГҮЙ	-10.1576
▁Эрэгтэй	-10.1576
▁ажилчид	-10.1578
▁2007	-10.1582
ex	-10.1587
есс	-10.1588
▁байгаагаар	-10.1588
▁аргууд	-10.1591
▁тэмдэглэж	-10.1608
▁метр	-10.161
▁завгүй	-10.1611
▁Па	-10.1612
Үү	-10.1615
гаарай	-10.1618
▁хамаг	-10.1619
▁тухтай	-10.1624
▁тохио	-10.1632
▁зовох	-10.1637
▁татсан	-10.1639
▁өсч	-10.1641
▁хавь	-10.1643
▁Хөдөө	-10.1643
▁үүсэх	-10.1649
▁бүрдүүл	-10.1652
▁зори	-10.1655
ханд	-10.1656
▁талууд	-10.166
▁түүхэнд	-10.1664
лагдах	-10.1666
▁ашгийг	-10.1673
▁өгөөгүй	-10.1673
▁хүндэтгэл	-10.1673
▁хэнийг	-10.1676
▁зөвшөөрсөн	-10.1676
▁2006	-10.1678
▁Мэргэжлийн	-10.168
▁ирээгүй	-10.1682
▁америк	-10.1685
▁харилцах	-10.1685
▁сууна	-10.1686
▁ингэ	-10.1687
үл	-10.169
▁илгээ	-10.169
▁эрэлт	-10.1691
▁системийн	-10.1691
▁ихэд	-10.1701
▁Зөвлөл	-10.1702
▁авьяас	-10.1705
▁элдэв	-10.1706
▁охины	-10.1706
▁түүнийгээ	-10.1716
▁тасал	-10.1717
▁живх	-10.1725
▁бичжээ	-10.1726
▁хуваалцах	-10.1731
▁Судалгаа	-10.1738
▁ерөөсөө	-10.1741
шуу	-10.1743
ест	-10.1745
▁компанид	-10.1745
▁бололцоо	-10.1748
▁сам	-10.1749
▁дам	-10.1749
▁тусалж	-10.1751
▁асуусан	-10.1753
▁буулга	-10.1757
▁тайланг	-10.1758
ї	-10.177
▁ургамал	-10.177
▁өнгөрөх	-10.177
▁Яаж	-10.1771
▁түлхүүр	-10.1771
▁чимээгүй	-10.178
▁асуудалтай	-10.1781
▁Оюу	-10.1783
▁Путин	-10.1803
▁хөвгүүд	-10.1804
▁түгээ	-10.1805
▁In	-10.181
▁Өнөө	-10.181
▁эргэлзээ	-10.1811
▁эзэмш	-10.1812
▁хадгалж	-10.1814
▁хэрнээ	-10.1815
▁Бор	-10.1817
рин	-10.1819
▁осол	-10.1824
▁түмэнд	-10.1826
угаалгын	-10.1826
▁Муу	-10.1828
уудтай	-10.1835
▁батал	-10.1835
▁элэг	-10.1837
▁Сангийн	-10.1839
▁g	-10.1841
▁Сүүлд	-10.1841
▁Элчин	-10.1845
Й	-10.1851
▁хэрэгжиж	-10.1852
▁Хам	-10.1854
nd	-10.186
▁хачин	-10.1863
▁багатай	-10.1869
▁хамааралтай	-10.1869
▁бэлгэ	-10.1869
▁биелүүл	-10.1869
▁эхэнд	-10.1877
▁урамшуулал	-10.1879
▁хул	-10.1883
▁танилцуулж	-10.1887
▁илэрхийлсэн	-10.1889
▁Хил	-10.1899
▁бэлтгэх	-10.1899
$	-10.1904
ологийн	-10.1905
▁дэвших	-10.1905
▁толь	-10.1907
▁Тай	-10.1909
дүү	-10.1909
▁эрхлэгч	-10.1915
▁авагч	-10.1917
▁бэр	-10.1919
▁ертөнцийн	-10.1923
май	-10.1926
▁угаасаа	-10.1928
▁багагүй	-10.1934
▁харанхуй	-10.1935
▁нуур	-10.1935
▁хадгаламж	-10.1935
▁холбогдол	-10.1936
▁Хэдий	-10.1941
▁Энх	-10.1944
УУ	-10.1944
hi	-10.1952
▁жилээр	-10.1956
▁болсныг	-10.1958
▁ялгар	-10.1961
▁ороо	-10.1962
▁Ри	-10.1962
▁судла	-10.1963
▁агентлаг	-10.1969
▁Жижиг	-10.197
▁хороолол	-10.1972
▁Хувь	-10.1973
▁дагуул	-10.1979
▁хүмүүсээс	-10.198
▁хэрээр	-10.1982
▁киног	-10.1986
▁онош	-10.1988
▁Удахгүй	-10.2007
mo	-10.201
▁Оюун	-10.201
▁дотоодын	-10.2017
алдах	-10.2023
▁Хай	-10.2026
▁үйлс	-10.2026
em	-10.2028
▁31	-10.2029
▁Зур	-10.2031
▁кг	-10.2034
▁чадсангүй	-10.2034
▁түлш	-10.2036
▁шинжилгээний	-10.2047
▁хурлын	-10.2057
▁орохгүй	-10.2059
▁хэвлэлийн	-10.2062
▁батлагд	-10.2069
▁цааз	-10.207
рга	-10.2072
▁багадаа	-10.2072
▁үндэстэн	-10.2073
▁хаха	-10.2078
▁авчээ	-10.2081
▁Сур	-10.2081
▁өөрөөсөө	-10.2089
▁там	-10.2099
▁Цахим	-10.2103
Ха	-10.2104
▁хөгш	-10.2105
▁гарцаагүй	-10.2107
▁бутлах	-10.2108
ороо	-10.2108
▁олгосон	-10.2109
▁шүүмжлэл	-10.211
▁ирэхгүй	-10.2111
▁татгалз	-10.2113
▁айлд	-10.2114
▁юуны	-10.2115
▁45	-10.2117
▁байн	-10.212
▁12-	-10.2129
▁улсыг	-10.2134
▁Яв	-10.2139
УУЛ	-10.214
J	-10.214
▁Францын	-10.2141
▁нартай	-10.2146
▁Бурханд	-10.2154
▁айдаг	-10.2156
ate	-10.2163
▁Газрын	-10.2171
▁Санхүүгийн	-10.2171
▁эвгүй	-10.2178
▁хараахан	-10.2183
▁арил	-10.2187
▁ажиллуулах	-10.219
▁км	-10.219
▁үнээр	-10.2191
1-	-10.2192
▁юү	-10.2194
ba	-10.2196
▁хичээж	-10.22
▁Японд	-10.2201
▁эмзэг	-10.2205
▁сууриа	-10.2205
▁нүдэнд	-10.2214
▁явахад	-10.2216
▁санагд	-10.2222
цгээ	-10.2225
үүдээс	-10.2228
▁барилдаан	-10.223
▁амрах	-10.2232
▁дэл	-10.2235
▁бөхийн	-10.2235
▁өнгөрүүл	-10.2238
▁дундаа	-10.224
▁өрсөлдөх	-10.2241
▁тавдугаар	-10.2241
▁бүхэндээ	-10.2245
▁бх	-10.225
ab	-10.225
▁Тэнгэр	-10.2252
▁нээрээ	-10.2253
▁суудаг	-10.2257
▁бүртгэлийн	-10.2259
▁Мо	-10.2262
▁Эрдэнэт	-10.2264
▁Од	-10.2264
▁унасан	-10.2268
he	-10.2269
ашгүй	-10.2272
▁Зар	-10.2272
▁өргөдөл	-10.2274
▁мэргэжилтнүүд	-10.2275
▁нэгнийг	-10.2276
Мөнх	-10.2279
▁Гэртээ	-10.2282
▁зохицуул	-10.2288
▁болгонд	-10.2289
▁үйлдсэн	-10.2294
▁чимээ	-10.2298
чихсон	-10.2302
▁явуулдаг	-10.2303
▁зорчигч	-10.2308
▁хангасан	-10.2308
зөрч	-10.231
Бу	-10.2311
цэх	-10.2316
▁баталгаажуул	-10.2316
▁Ва	-10.2317
▁уламжлалт	-10.2321
▁хүрэл	-10.2328
▁хамгаалагч	-10.2331
▁түлх	-10.2332
▁Эргэ	-10.2338
▁Хав	-10.2343
▁махбод	-10.2343
▁өөрчлөгдөж	-10.2344
Хө	-10.2346
Эх	-10.2347
▁дууны	-10.2348
эк	-10.2349
▁ардчилсан	-10.235
▁анд	-10.235
хэл	-10.2356
▁авахаар	-10.2357
19	-10.237
▁дэвш	-10.2375
▁хорь	-10.2376
▁япон	-10.2378
сайхан	-10.2379
▁Канад	-10.2383
▁эхлэв	-10.2386
ӨӨ	-10.2386
▁тоглодог	-10.2387
▁шүүмж	-10.2388
▁Хятадад	-10.2388
иуд	-10.2393
▁Юм	-10.2394
▁оролцогч	-10.2394
▁унтраа	-10.2398
ээсэй	-10.2398
▁Над	-10.2399
▁Үг	-10.2403
ЕГ	-10.2406
▁өдий	-10.2407
▁хүүхдүүдийн	-10.241
▁зургийн	-10.241
▁өвчтөн	-10.2412
▁өвөрмөц	-10.2412
▁удирдлагын	-10.2414
▁явагдаж	-10.2416
Өөр	-10.2418
▁шалтгаанаар	-10.2418
▁Z	-10.2418
▁нэрийн	-10.2419
▁холбоотойгоор	-10.2422
▁шалгаруулалт	-10.2423
▁хөдөлгө	-10.2425
▁гэрэлт	-10.243
ургуул	-10.2438
80	-10.244
▁гээ	-10.2444
▁ЭЗЭН	-10.2447
▁Дотоод	-10.2447
▁шүлэг	-10.2448
▁Нүд	-10.245
▁хийчих	-10.2451
▁чинээ	-10.2451
▁хүүгээ	-10.2455
▁Бараг	-10.2459
▁бүхнээ	-10.2464
▁хэлэлцээ	-10.2465
▁байрлах	-10.2479
▁татгалзах	-10.248
▁Үс	-10.2482
▁Монголбанк	-10.2482
▁өрсөлдөгч	-10.2483
▁явахгүй	-10.2483
ондоо	-10.2483
▁ахмад	-10.2484
▁Хуучин	-10.2485
▁алтан	-10.2487
Энх	-10.249
▁нүүрсний	-10.2492
▁зэрэглэл	-10.2493
▁зарласан	-10.2497
Зориг	-10.2498
▁of	-10.25
ang	-10.25
pe	-10.251
▁эн	-10.2512
▁анхаарлыг	-10.2522
▁мэдэгджээ	-10.2526
▁идсэн	-10.253
▁Боловсрол	-10.253
▁санаатай	-10.2531
▁Итали	-10.2532
▁магад	-10.2537
руулж	-10.254
▁эргэ	-10.2544
▁Цу	-10.2545
▁эрсдэлтэй	-10.2546
▁илгээх	-10.2547
Гэр	-10.255
▁нэлээн	-10.2553
▁Зохио	-10.2553
▁нүх	-10.2554
▁ДАШТ	-10.2555
ѳѳ	-10.2556
▁тэмцэж	-10.2559
▁цэнэтэй	-10.256
▁яамны	-10.2561
▁гомд	-10.2566
▁сэтгэлгээ	-10.2571
▁шатаа	-10.2578
бан	-10.2582
▁зорьж	-10.2588
▁нулимс	-10.2588
▁цэргүүд	-10.2588
▁Дахин	-10.2589
▁Араб	-10.259
ара	-10.2593
▁хамтлагийн	-10.2595
▁тогло	-10.2595
▁цэцэрлэгт	-10.2595
▁суралцаж	-10.2598
▁Чамд	-10.2599
▁хандсан	-10.2603
▁Эс	-10.2611
▁хүрнэ	-10.2612
▁унаа	-10.2612
үйц	-10.2614
▁Тэм	-10.2619
гээрээ	-10.2619
▁хариулах	-10.2621
▁иргэдээ	-10.2622
▁тогтнол	-10.2625
▁холбогдуулан	-10.2625
▁санагдах	-10.2626
▁хөгжих	-10.2627
▁гаргажээ	-10.2628
▁мэдүүл	-10.2629
▁мөрөө	-10.2629
▁туршиж	-10.263
▁санагдаад	-10.2632
▁хүндэт	-10.2636
ари	-10.2638
▁баталж	-10.264
▁иж	-10.264
тра	-10.264
▁тив	-10.2644
цах	-10.2654
▁тэмүүл	-10.2659
тэйгөө	-10.2659
▁төгрөгөөр	-10.2659
▁бодлогыг	-10.266
▁Дорнод	-10.266
nt	-10.2662
▁e	-10.2666
▁дүүргэ	-10.2672
▁ашиглалтад	-10.2672
▁=	-10.2673
▁in	-10.2683
▁Хэр	-10.2686
▁зу	-10.2687
орон	-10.2689
▁Гэрээ	-10.2691
▁орлоо	-10.2693
ейн	-10.2694
▁стратеги	-10.2694
▁Сү	-10.2701
▁наадамд	-10.2707
▁хөтөлбөрт	-10.2708
▁хээ	-10.2711
▁Хол	-10.272
▁хагалгаа	-10.2732
▁оргил	-10.2732
▁танилцуулах	-10.2738
▁HD	-10.2744
▁хэлэлцүүлэг	-10.2747
лгийн	-10.2748
▁нэвт	-10.2752
▁үүсгэн	-10.2756
фф	-10.2756
▁хандан	-10.276
▁тайлбарлах	-10.2764
▁дуулж	-10.2768
▁Москва	-10.2768
▁комисс	-10.2768
ям	-10.2775
▁бүхэл	-10.2778
▁хийн	-10.2782
▁үзлэг	-10.2786
ent	-10.2786
▁ойн	-10.2786
▁онлайнаар	-10.2787
▁нягт	-10.2795
▁Тоглоом	-10.2804
▁Apple	-10.2804
▁хүйс	-10.2805
▁дарна	-10.2806
▁айлчлал	-10.2806
▁хүүг	-10.2806
▁адуу	-10.2809
▁Орой	-10.2813
▁шаардаж	-10.2814
▁ов	-10.282
▁ня	-10.283
▁зогсохгүй	-10.2833
лэгдэх	-10.2837
▁төрөлхтний	-10.284
▁хуваарь	-10.284
▁талбар	-10.285
▁амаргүй	-10.285
Эр	-10.2851
▁системийг	-10.2855
▁Же	-10.2858
▁Ариун	-10.286
дуулж	-10.2867
▁байг	-10.2868
▁судлаач	-10.2873
▁уучлаарай	-10.2877
▁тодорхойлолт	-10.2877
▁эзэмшигч	-10.2877
▁Тэгэхэд	-10.2878
▁Таван	-10.2879
▁ноён	-10.2879
▁уулзсан	-10.288
▁Далай	-10.288
▁өмсөх	-10.2881
▁баривчил	-10.2885
хийл	-10.2888
▁Ре	-10.2889
▁бүүр	-10.2902
▁Нөхөр	-10.2913
▁Хуулийн	-10.2914
▁Ра	-10.2915
▁өөрчлөгдөх	-10.2916
▁биенээ	-10.2921
рав	-10.2927
▁бодоход	-10.293
вөл	-10.2938
▁эхийн	-10.2939
▁барь	-10.294
▁хийд	-10.294
азар	-10.2942
▁дүгнэ	-10.2943
▁судал	-10.2945
эе	-10.2945
▁эрдэмтэд	-10.295
art	-10.2957
єл	-10.2976
▁техникийн	-10.2976
ЭХ	-10.2979
▁дараахь	-10.2987
▁таарах	-10.2988
ha	-10.2991
▁Баруун	-10.2998
▁хуурай	-10.3001
▁хүргэсэн	-10.3002
01	-10.3021
▁урва	-10.3023
▁хөнөө	-10.3023
▁гэрчилгээ	-10.3024
▁сүйр	-10.3026
▁хөлөг	-10.3028
▁ачаалал	-10.3028
гээрэй	-10.3029
▁Хувийн	-10.3031
▁Америкт	-10.3035
▁биедээ	-10.3038
▁хэрүүл	-10.3048
▁зарж	-10.305
▁төрөөс	-10.3052
▁бүртгэгд	-10.3056
▁Ир	-10.3056
▁суурьтай	-10.3058
▁есдүгээр	-10.3061
▁хоцор	-10.3061
▁Хичээл	-10.3061
▁сонгуул	-10.3065
▁Мэдээлл	-10.3065
▁чадлаа	-10.3069
▁авлига	-10.307
▁мэндэд	-10.3073
▁буцаан	-10.3073
▁хайлт	-10.3075
өрсөн	-10.3076
▁битүү	-10.3077
лалтын	-10.3081
уулалт	-10.3083
рох	-10.3086
▁сэтгэлээ	-10.3087
▁өгчээ	-10.3094
▁Хүрэлсүх	-10.3095
▁Ангилал	-10.3099
▁коронавирус	-10.3099
▁даалгавар	-10.3099
луу	-10.3106
огдож	-10.3106
оль	-10.3111
▁дө	-10.3118
▁хэлэлцүүл	-10.3124
стер	-10.313
тойгоо	-10.313
ИН	-10.3131
▁менежмент	-10.3136
▁гүнзгий	-10.3136
хам	-10.3136
▁үгэнд	-10.3143
▁суртал	-10.3143
▁Дуучин	-10.3143
▁тэмдэглэх	-10.3145
▁үзлээ	-10.3146
▁даатгал	-10.3148
▁хүртэх	-10.3149
▁хамаарах	-10.3149
▁баригд	-10.3153
▁гайхаж	-10.3156
ёо	-10.3156
Хар	-10.3157
▁хамаатай	-10.316
age	-10.3164
▁хөв	-10.3166
▁дөрөвдүгээр	-10.3174
▁харилцааг	-10.3174
▁Өнгө	-10.3174
▁өрсөлдөөн	-10.3175
▁хураалт	-10.318
▁дурьд	-10.318
ber	-10.3181
▁төлөвлөлт	-10.3182
▁гаж	-10.3185
▁Но	-10.3185
▁Эв	-10.3192
▁энийг	-10.3194
▁дээгүүр	-10.3202
▁зөвшөөрөх	-10.3203
▁хаш	-10.3205
▁МУ	-10.3206
▁байснаас	-10.3208
▁гүүр	-10.3209
▁захидал	-10.3211
▁Дөрвө	-10.3211
Пүрэв	-10.3212
▁өршөө	-10.3212
▁нэвтрэх	-10.3212
▁Ди	-10.3224
▁бууруул	-10.3232
▁асуулга	-10.3233
▁Нэгэнт	-10.3234
ma	-10.3234
▁тэмцээний	-10.3239
▁мэх	-10.3241
▁Мөр	-10.3245
▁Үйлдвэр	-10.3247
▁Аймгийн	-10.3249
▁Se	-10.325
▁Худалда	-10.3255
▁алдарт	-10.3258
ts	-10.3259
▁Өг	-10.326
▁төсөвт	-10.3264
▁ордны	-10.3269
ууллаа	-10.3271
▁шуу	-10.3272
▁түмнээ	-10.328
23	-10.328
ly	-10.3281
▁шингэ	-10.3284
▁тодорхойлж	-10.3286
▁тансаг	-10.3287
▁Замын	-10.3291
▁хайрцаг	-10.3292
▁хүрээгүй	-10.3293
▁мэдэгдэж	-10.3293
▁бүрдүүлэх	-10.3294
орго	-10.3295
ене	-10.3295
ers	-10.3295
qu	-10.3297
▁уучлалт	-10.3301
▁Төгс	-10.3307
▁гаргалаа	-10.3308
▁жилээс	-10.331
▁дэлхийг	-10.3312
▁Ром	-10.3317
▁түүхтэй	-10.3319
▁групп	-10.3325
####	-10.3325
▁нөлөөлсөн	-10.3325
▁Хи	-10.3326
▁буруутай	-10.3327
▁сонгогдсон	-10.333
▁Сая	-10.3331
▁си	-10.3335
▁бүртгэгдсэн	-10.3335
ong	-10.3336
▁15-	-10.3337
▁хэрэгжилт	-10.3342
иб	-10.3347
▁амттай	-10.3352
ийнхөө	-10.3357
▁тулгарч	-10.3358
▁гүйцэтгэж	-10.3358
▁Намын	-10.336
▁төслүүд	-10.3364
▁Home	-10.3364
▁хуурамч	-10.3364
▁яана	-10.337
▁өөрчил	-10.3375
ууууу	-10.3375
▁ороогүй	-10.3383
OS	-10.3384
▁Ку	-10.3384
▁зориулан	-10.3388
▁гэл	-10.3396
ым	-10.3397
▁хавар	-10.3402
▁жирэмсэн	-10.3402
▁улирлын	-10.3402
▁хамааран	-10.3407
▁жор	-10.341
▁хэлснээр	-10.3412
▁үгээ	-10.3412
▁Лу	-10.3419
▁шин	-10.342
▁тойронд	-10.3423
алз	-10.3423
▁хоолоо	-10.3424
▁Шууд	-10.3427
▁дуулга	-10.3427
▁оновчтой	-10.3441
▁байгуулаг	-10.3441
97	-10.3444
ard	-10.3449
лоод	-10.3449
be	-10.345
▁хажуу	-10.3454
▁дорой	-10.3458
▁(1	-10.3459
гэнэ	-10.3466
▁таарсан	-10.3466
▁дархлаа	-10.348
▁хөтөлбөрийг	-10.3481
▁олборлолт	-10.3482
▁зурагт	-10.3483
▁чиглэлийн	-10.3485
▁ажиглагд	-10.3494
лз	-10.3504
▁зө	-10.3508
▁луу	-10.3509
▁өнөөдрий	-10.351
рол	-10.3512
▁хэлчих	-10.3513
▁по	-10.3514
▁тэдгээрийг	-10.3516
▁функц	-10.3519
▁нөөцийн	-10.352
▁гэтэл	-10.3522
▁хааяа	-10.3525
▁бодитой	-10.3532
▁Тав	-10.3532
ТГ	-10.3535
▁яруу	-10.3535
▁дэмжсэн	-10.3535
▁хаах	-10.3535
▁Дархан	-10.3537
▁хотхон	-10.3539
▁хөдлөл	-10.3542
▁Эндээс	-10.3544
▁зүтгэл	-10.3549
▁байрлуул	-10.3552
▁холбоос	-10.3557
▁Тодруулбал	-10.3558
▁тагнуул	-10.3558
▁ойролцоогоор	-10.356
▁бари	-10.3562
▁Жинхэнэ	-10.3564
▁хилийн	-10.3565
▁нийслэлийн	-10.3567
▁~	-10.3579
▁төлбөрийн	-10.3581
Улс	-10.3583
▁ялгаагүй	-10.3585
one	-10.3585
▁Санал	-10.3589
▁хүүгийн	-10.3594
▁дүрмий	-10.3594
▁тэвчээр	-10.3597
▁эрхтэн	-10.3598
▁найруулагч	-10.3599
▁тийш	-10.3599
▁нэрээ	-10.3599
▁талаараа	-10.3601
▁машиныг	-10.3603
лэгдэж	-10.3603
▁бүлэглэл	-10.3604
▁хоригло	-10.3606
all	-10.362
▁шалгалтын	-10.3622
▁тогтвор	-10.3629
▁жагсаалтыг	-10.3633
эвч	-10.3634
▁the	-10.3637
▁төлөвлөсөн	-10.3641
▁эмийн	-10.3641
▁зүйлүүд	-10.3643
▁талархаж	-10.3644
▁Өргө	-10.3652
лосон	-10.3652
Хо	-10.3653
▁зэс	-10.3654
▁Израил	-10.3659
▁хүсэлтийг	-10.366
▁гарвал	-10.366
▁ордонд	-10.3663
no	-10.3666
▁үхсэн	-10.3672
мон	-10.3672
▁зорчих	-10.3676
▁хөнгөлөлт	-10.3676
▁гадагш	-10.3677
▁Амжилт	-10.3678
▁бут	-10.3682
▁жижигхэн	-10.3689
▁хийвэл	-10.3693
▁Бүтээ	-10.3694
▁гайхамшиг	-10.3697
гээгүй	-10.3697
▁таалагд	-10.3704
▁бөхчүүд	-10.3704
үүлэгч	-10.371
өхө	-10.3713
▁авир	-10.3714
▁Асуулт	-10.3715
▁орлогын	-10.3715
▁өвгөн	-10.3716
▁чиглэлд	-10.3717
▁олдсон	-10.3719
▁хажуугаар	-10.372
▁Биднийг	-10.3725
▁зохиц	-10.3727
▁хамтарсан	-10.3728
est	-10.3735
лов	-10.3738
▁хув	-10.3739
▁рүүгээ	-10.3739
09	-10.3744
▁тосны	-10.3748
▁шийтгэ	-10.3748
▁явдлын	-10.3755
илга	-10.3756
▁хэсгүүд	-10.3757
▁борлуулах	-10.3757
▁шилжих	-10.3759
▁илтгэл	-10.3761
ап	-10.3766
▁Христийн	-10.3768
▁мөрдөн	-10.3769
▁ажилтай	-10.377
<	-10.3771
▁дундаас	-10.3772
▁амжилтанд	-10.3776
▁хэлээгүй	-10.3783
▁болио	-10.3785
▁нур	-10.3786
▁шалтгааныг	-10.3789
▁сэтгэлтэй	-10.3795
▁учрыг	-10.3795
▁ЖДҮ	-10.3796
▁дотны	-10.3797
кер	-10.3799
▁амьтны	-10.38
▁байгуулалтын	-10.38
Очир	-10.3801
▁Хөх	-10.3801
цгээе	-10.3804
▁зээлийг	-10.3807
▁асан	-10.381
▁Сүхбаатар	-10.381
сөөр	-10.3812
хэр	-10.3819
ess	-10.3821
вээ	-10.3828
▁таагүй	-10.3828
▁гурв	-10.3831
▁ё	-10.3834
▁Шин	-10.3835
▁Шилдэг	-10.3835
▁амьтад	-10.3836
▁Чам	-10.3839
▁2005	-10.3846
▁бичнэ	-10.3851
▁хаагчид	-10.3855
▁гуйж	-10.3856
▁Ma	-10.3859
▁сана	-10.386
▁Цэц	-10.3861
os	-10.3861
АВ	-10.3863
▁Холбооны	-10.3866
▁Сэр	-10.3869
▁хязгаарла	-10.3871
▁жоохон	-10.3876
▁цаад	-10.3876
Тэг	-10.3876
▁зориулагдсан	-10.3878
▁өөрчлөлтийг	-10.388
▁хугацаатай	-10.3882
▁намар	-10.3886
▁гайхамшигтай	-10.3895
▁будаа	-10.3897
▁худалдах	-10.3897
▁яриаг	-10.3899
▁хуваагд	-10.3907
▁эрдэм	-10.3915
гаасаа	-10.3915
▁Хөрөнгө	-10.3916
▁зардлыг	-10.3916
▁Sh	-10.3916
▁тохиргоо	-10.3922
▁хэлэхгүй	-10.393
▁телевизийн	-10.393
▁уучлал	-10.3945
▁эрин	-10.3946
▁Эн	-10.3952
▁n	-10.3956
▁Олимп	-10.3957
▁суурилсан	-10.3957
▁Ло	-10.3958
▁байгаасай	-10.396
▁нилээд	-10.396
дас	-10.3963
▁мо	-10.3966
▁Өдрийн	-10.3967
▁дуурай	-10.3967
▁ширээ	-10.397
▁сэргийл	-10.3972
▁өнгөтэй	-10.3974
огдсон	-10.3986
▁шүд	-10.3988
▁эрэг	-10.3988
▁цэвэрлэ	-10.3988
▁Жич	-10.3996
▁хуудсууд	-10.3998
▁өмгөөлөгч	-10.3998
▁сонгоно	-10.3999
▁барьцаа	-10.3999
go	-10.4
▁үзэсгэлэнтэй	-10.4
ЧИ	-10.4
▁тохиолдсон	-10.4005
оло	-10.4006
▁боловсруулж	-10.4008
▁дал	-10.401
төл	-10.4027
▁байгаагаас	-10.403
▁утсаа	-10.4031
▁32	-10.4034
▁элемент	-10.4039
▁алдагдал	-10.404
▁тоглолтын	-10.4041
▁Де	-10.4041
зи	-10.4046
▁оруулагч	-10.4047
▁удирдаж	-10.4048
▁олоод	-10.4051
▁По	-10.4054
▁зоригтой	-10.4055
▁хамрагд	-10.406
▁туйл	-10.4062
▁тогоо	-10.4062
уль	-10.4064
▁Хэт	-10.4067
▁тэм	-10.4069
▁зүс	-10.4078
▁нэмэгдэх	-10.4079
Йорк	-10.408
▁Видео	-10.408
▁гавьяа	-10.408
▁өдгөө	-10.408
▁химийн	-10.4081
▁эзэмших	-10.4082
▁заавар	-10.4084
▁жагсаалтад	-10.4084
▁зарлиг	-10.4086
▁санагдана	-10.4088
▁Эрчүүд	-10.409
▁өөрсдийнхөө	-10.4092
▁зүйлээс	-10.4097
▁хүртсэн	-10.4098
▁түш	-10.4099
▁шарх	-10.41
▁гаригт	-10.4101
ъ	-10.4112
▁чулуун	-10.4115
рахгүй	-10.4118
▁солонгос	-10.4121
▁өвчтэй	-10.4121
Болд	-10.4122
▁тэдэнтэй	-10.4124
▁хүсээгүй	-10.4124
▁дамжуул	-10.4129
▁найдвар	-10.4132
ve	-10.4141
▁түүхийн	-10.4143
▁тутам	-10.4148
▁100%	-10.415
▁жуулчлалын	-10.4151
ук	-10.4157
▁Windows	-10.4163
▁прокурор	-10.4163
▁хөдөлмөрийн	-10.4164
чилсэн	-10.4169
цэн	-10.4177
▁хаалт	-10.4181
Элбэгдорж	-10.4182
▁Айл	-10.4197
▁хариулж	-10.42
▁стресс	-10.4204
▁зориулалттай	-10.4204
▁мөрдөх	-10.4207
▁авилга	-10.4209
▁санхүү	-10.421
▁уулын	-10.421
▁хамруул	-10.4212
▁чадварыг	-10.4214
▁Энгийн	-10.4218
▁хайрладаг	-10.4219
▁Тоо	-10.4221
▁цуг	-10.4223
▁Гэрийн	-10.4225
▁ертөнцийг	-10.4234
▁олдог	-10.4235
▁дас	-10.4245
▁цүнх	-10.4246
▁амжаагүй	-10.4246
▁Соёл	-10.4247
▁дарс	-10.4248
▁аймшигтай	-10.4248
▁үнэлж	-10.4248
▁Мөнх	-10.4249
▁нийлүүл	-10.4249
▁холбогдож	-10.4249
▁авчрах	-10.4255
▁Бурханыг	-10.4262
▁дамжин	-10.428
гэрэл	-10.4282
▁санааны	-10.4283
▁намууд	-10.4285
▁хөлбөмбөг	-10.4295
="	-10.4295
▁тохиолддог	-10.4296
▁бүртгүүлэх	-10.4297
▁ю	-10.4303
▁Фи	-10.4314
сөө	-10.4321
▁батлан	-10.4324
tion	-10.4327
▁гуйх	-10.4328
▁дэм	-10.4329
▁байгуулна	-10.433
▁Гурав	-10.4331
▁тэнгис	-10.4331
▁Лондон	-10.4331
▁тэнцвэр	-10.4331
▁урьдчилсан	-10.4332
▁харилцаанд	-10.4336
▁хүртлээ	-10.4341
▁Энэтхэгт	-10.4343
▁хөдөлгөөний	-10.4344
▁үеийг	-10.4344
ns	-10.4347
▁хичээх	-10.4349
▁түүхий	-10.4352
▁Дүр	-10.4355
▁шинжтэй	-10.4359
▁төлөвлөгөөг	-10.4359
▁асуув	-10.4362
▁болгоомж	-10.4366
▁маягаар	-10.4369
▁тийшээ	-10.437
▁карьер	-10.4373
▁ямагт	-10.4373
▁буурсан	-10.4373
▁Сургалт	-10.4373
▁өгөөж	-10.4374
28	-10.4376
▁хүүхдүүдээ	-10.4378
▁тухайгаа	-10.4379
▁цэнэ	-10.4379
▁болгоомжтой	-10.438
▁даргыг	-10.438
▁өөрчлөгд	-10.4381
▁хөгшин	-10.4383
▁эрэл	-10.4383
▁хасах	-10.4383
▁зул	-10.4383
▁Хаа	-10.4392
tr	-10.4395
амп	-10.4396
0,000	-10.44
▁зааг	-10.4401
▁байгууллагаас	-10.4404
лэгддэг	-10.4404
оу	-10.4404
▁цөөнгүй	-10.4407
▁гаргахгүй	-10.4408
▁таалагддаг	-10.441
▁цомог	-10.4411
▁салж	-10.4418
▁талаархи	-10.4419
▁хэрвээ	-10.4419
▁ялга	-10.442
▁шилжүүлэх	-10.4421
▁азтай	-10.4431
▁хүүхдүүдийг	-10.4436
▁тогооны	-10.4436
▁авлага	-10.4438
Шинэ	-10.4442
▁үүсгэ	-10.4456
▁Алтан	-10.4458
▁Парис	-10.4458
▁Уран	-10.446
▁хариуцлагатай	-10.446
lu	-10.4464
▁сүүл	-10.4465
▁судлаачид	-10.4465
▁Сонг	-10.4476
▁ирэхээр	-10.4478
▁чадалтай	-10.4483
▁насыг	-10.4483
▁төсөөлж	-10.4486
уулав	-10.449
▁таамагла	-10.449
▁хат	-10.4497
▁есөн	-10.4501
▁суурийг	-10.4502
▁Хэрхэн	-10.4504
▁Сайд	-10.4505
▁туулах	-10.4505
▁сэтгэлээр	-10.451
▁бааха	-10.4512
▁тэрхүү	-10.4514
▁хуулиа	-10.4516
▁гэрээний	-10.4517
▁сонсдог	-10.4521
▁тусмаа	-10.4531
▁таарч	-10.4539
ph	-10.4541
▁Тайлбар	-10.4544
▁хэлтэс	-10.4544
▁хавдар	-10.4547
45	-10.455
▁төлбөргүй	-10.4552
▁хөгжилд	-10.4556
▁дуусгах	-10.4557
▁Нэгдсэн	-10.4566
▁асаа	-10.4577
▁сургаал	-10.4578
▁таних	-10.458
▁тунхагла	-10.4587
▁тунгаа	-10.4588
▁сонгуулиар	-10.4588
▁оролдож	-10.459
▁цэвэрлэгээ	-10.4591
▁сэжиг	-10.4593
▁шилэн	-10.4594
▁ерөнхийдөө	-10.4596
▁шинжээч	-10.4597
еп	-10.4601
▁түрүүлж	-10.4601
▁уян	-10.4605
▁үүсгэж	-10.4608
▁Зээл	-10.4611
▁мартах	-10.4613
▁зогсоол	-10.4614
▁хөрс	-10.4615
son	-10.4618
▁авраг	-10.4625
▁Компани	-10.463
▁Хөгжлийн	-10.4631
▁мөртлөө	-10.4631
▁хянаж	-10.4631
▁хэрэгслийн	-10.4631
▁өгвөл	-10.4632
▁манлай	-10.4632
▁өгүүлбэр	-10.4632
▁хэрэгцээг	-10.4634
▁зөвшөөрдөг	-10.4634
▁асуултад	-10.4637
▁Сүнс	-10.4637
▁хуц	-10.464
▁арилжаа	-10.4642
▁ааш	-10.4648
▁орхиж	-10.4649
▁байс	-10.4665
▁хэрэглэсэн	-10.4666
▁шинэчлэгд	-10.4668
▁асуухад	-10.4668
▁хүчийг	-10.467
▁Онлайн	-10.4674
▁Толгой	-10.4674
▁Архи	-10.4678
▁хөндий	-10.4682
▁хөтөлбөрийн	-10.4685
▁өвлийн	-10.4689
▁up	-10.4694
▁таалагдсан	-10.4697
▁охиноо	-10.4702
ИС	-10.4705
▁буурч	-10.4706
▁нэрлэж	-10.4706
▁багтсан	-10.4711
▁Загвар	-10.4718
▁Бээжин	-10.4719
▁хойшлуул	-10.472
▁Юуны	-10.4721
▁илэрсэн	-10.4723
▁Тог	-10.4725
▁унд	-10.4726
▁чиглүүл	-10.4728
▁болих	-10.4733
▁про	-10.4737
▁хоолойг	-10.4747
▁хязгаарлалт	-10.4747
▁Аж	-10.4747
▁нүдээ	-10.4748
▁тааруу	-10.4751
оф	-10.4754
ия	-10.4755
▁ярина	-10.4757
▁хир	-10.4757
▁Онцгой	-10.4762
▁удалгүй	-10.4763
▁Сум	-10.4769
▁мөнгөтэй	-10.4774
▁Амар	-10.478
▁Мор	-10.4781
▁захиргаа	-10.4782
▁хайрын	-10.4786
&	-10.4786
▁чамаас	-10.4787
Заавал	-10.4791
▁l	-10.4796
▁өнөөх	-10.4799
up	-10.48
▁Тодорхой	-10.4807
▁Miss	-10.4807
▁эдгэр	-10.4807
▁чуулганы	-10.4808
▁09	-10.4811
▁тэтгэлэг	-10.4814
▁хийхдээ	-10.4815
лагдаж	-10.4815
▁буух	-10.4818
▁ярьжээ	-10.4818
▁өглөөний	-10.4824
▁бусаар	-10.4826
▁Амьд	-10.4828
▁мартаж	-10.4828
Цаг	-10.4837
▁нэгдэж	-10.4838
▁хүчингүй	-10.4839
▁баримтууд	-10.4844
▁хэрэглэнэ	-10.4846
лээрэй	-10.4851
▁чармайлт	-10.4851
▁эмгэг	-10.4851
▁өсөх	-10.4859
▁орхих	-10.486
▁тохиож	-10.4861
▁ордон	-10.4862
▁Манайхан	-10.4862
▁боловсруул	-10.4862
▁Цаашд	-10.4867
Сан	-10.4876
Алтан	-10.488
▁давтагд	-10.4882
▁Ван	-10.4883
▁30-	-10.4884
▁алджээ	-10.4888
▁нүдний	-10.4893
▁халдлага	-10.4896
▁онцолж	-10.4896
▁үйлдлийг	-10.4896
▁мэдлэгтэй	-10.4897
▁барах	-10.49
▁нэвтрүүлэх	-10.4903
▁ирээдүйг	-10.4906
▁түнш	-10.4907
▁харахгүй	-10.492
▁хүрдэг	-10.4924
▁сонирхдог	-10.4932
мэд	-10.4933
▁Ким	-10.4937
▁ороход	-10.4938
▁цэнэглэ	-10.4938
луур	-10.4939
▁Хэд	-10.4939
▁өрнөж	-10.4941
төр	-10.4945
▁шийтгэл	-10.495
▁ажиллаад	-10.4952
▁бодлыг	-10.4952
▁сонгогч	-10.4957
▁Ки	-10.4957
▁хүчээ	-10.4958
▁Дүү	-10.4958
▁дүүрэг	-10.4967
▁заах	-10.4977
▁Уу	-10.4978
▁ингэх	-10.4981
▁юунаас	-10.4983
▁YOLO	-10.4986
▁хөшөө	-10.4986
▁хашгир	-10.4986
▁Цалин	-10.4986
▁европ	-10.4988
▁охиныг	-10.4999
▁төвөгтэй	-10.5
▁дэвшил	-10.5006
▁33	-10.5007
▁дуулах	-10.5014
▁хөдөл	-10.5015
▁арилжааны	-10.502
▁ян	-10.5023
pa	-10.5026
▁чамтай	-10.503
▁журмын	-10.5031
▁элбэг	-10.5031
▁фото	-10.5032
▁тууштай	-10.5033
▁чиглэсэн	-10.5034
▁мэргэжилтэн	-10.5035
▁үүргийг	-10.5035
ооооо	-10.5036
▁үүсч	-10.5039
▁үлдэж	-10.5041
▁от	-10.5043
▁Арга	-10.5046
▁мэдэрдэг	-10.5051
чихаж	-10.5051
▁шалгуул	-10.5056
▁Сам	-10.5057
▁шилж	-10.5063
▁хуваарила	-10.5075
▁дуудаж	-10.5075
еле	-10.5076
▁Сургууль	-10.5076
▁мужийн	-10.5079
▁судалгаагаар	-10.5082
▁Байр	-10.5082
үүхэн	-10.5084
▁Хэв	-10.5087
▁алин	-10.5087
▁Дай	-10.5092
▁өргөө	-10.5094
06	-10.51
▁дарах	-10.5111
өлөө	-10.5119
▁ани	-10.512
▁орчлон	-10.5122
▁боомт	-10.5122
▁өрөвд	-10.5122
▁даргаар	-10.5122
▁Эцс	-10.5124
▁гарган	-10.5129
▁Иргэний	-10.5133
мөөр	-10.5138
▁тойрон	-10.5138
▁төхөөрөмжийн	-10.5141
▁хэрэглэгчдийн	-10.5143
▁болгоод	-10.5144
▁нотлох	-10.5152
▁нэгдэх	-10.5154
▁төрөө	-10.5155
▁де	-10.5163
Ер	-10.5163
▁туулж	-10.5167
▁золиос	-10.5168
▁хүчирхийлэл	-10.5168
▁дасгалжуулагч	-10.5168
▁тусалдаг	-10.5168
Ам	-10.5168
▁төдийлөн	-10.5169
▁хийсний	-10.5169
▁үйлдлийн	-10.5169
▁утгагүй	-10.517
▁томъёо	-10.517
▁Амьдралын	-10.5176
▁II	-10.5176
Их	-10.518
▁цэнгэ	-10.5183
Үүл	-10.5183
▁үнэлэх	-10.5184
▁36	-10.5185
▁Мак	-10.5191
▁өнгийн	-10.5197
!!!!	-10.5198
▁биеэр	-10.5199
▁цаашдаа	-10.5204
▁талархал	-10.5206
Монголын	-10.5209
▁дайсан	-10.5209
▁хүслээ	-10.5211
▁нүгэл	-10.5214
▁сэдвээр	-10.5214
▁хацарт	-10.5214
▁буудлын	-10.5214
▁утгаар	-10.5214
▁илэрч	-10.5222
▁хараагүй	-10.5226
76	-10.5232
атга	-10.5233
▁эмх	-10.5235
▁150	-10.5235
▁зурсан	-10.5237
▁дэн	-10.5237
▁туйлын	-10.5238
Өнөөдөр	-10.5242
▁хотууд	-10.5248
▁дэлгэр	-10.5254
▁торго	-10.5255
▁авчирч	-10.5256
▁Иргэдийн	-10.5258
▁нөхдүүд	-10.5263
▁гүйлгээ	-10.5263
▁биелүүлж	-10.5275
фо	-10.5275
▁охинтой	-10.5283
ck	-10.5285
▁барина	-10.5286
Бай	-10.5286
▁Эрхэм	-10.5289
▁Сэ	-10.5289
▁овог	-10.529
чүүдийн	-10.5297
▁жарга	-10.5299
сноо	-10.5299
▁бүжиглэ	-10.5302
▁үлдээх	-10.5303
▁түвшний	-10.5307
▁шинэчлэх	-10.5307
▁те	-10.5308
▁тавина	-10.5311
▁хүлээлт	-10.5314
▁эрдэнэ	-10.5315
▁Ерөнхийдөө	-10.5319
▁тахал	-10.5321
▁харлаа	-10.5323
mi	-10.5323
▁боловсруулсан	-10.5328
▁үхэл	-10.5331
▁ашиглалт	-10.5331
▁гаднаас	-10.5333
▁Тэдэнд	-10.5335
бү	-10.5336
▁оройн	-10.5339
▁хийц	-10.534
Танай	-10.5341
▁буцаад	-10.5343
▁Ro	-10.5346
wi	-10.5352
▁танилцах	-10.5353
▁курс	-10.5354
▁горим	-10.5354
▁тусална	-10.5354
Амгалан	-10.5355
▁Африкийн	-10.5358
▁байрладаг	-10.5361
▁засл	-10.5363
ca	-10.5367
▁сурагчид	-10.5371
▁Шударга	-10.5376
▁багасгах	-10.5377
▁Шу	-10.5378
▁ули	-10.5382
-10	-10.5396
▁ачаар	-10.5398
fe	-10.54
▁хийгдэж	-10.5401
▁дагавар	-10.5403
▁ээлтэй	-10.5403
▁хураамж	-10.5403
▁багаар	-10.5407
▁шалгаруулах	-10.5413
▁IP	-10.5415
▁тавилан	-10.5416
▁автомашины	-10.5417
▁дураараа	-10.5417
▁даралт	-10.543
Нямдорж	-10.543
▁ажлаас	-10.5433
▁байя	-10.5435
are	-10.544
▁48	-10.5442
▁БИ	-10.5443
оли	-10.5446
▁Чухам	-10.5448
Бямба	-10.5448
▁Жүжигчин	-10.5449
▁апп	-10.5451
ud	-10.5453
▁шаардах	-10.5454
инээв	-10.5455
▁Чад	-10.5455
▁хүмүүж	-10.5458
лгэ	-10.5459
▁учраа	-10.5462
▁хэрэгжих	-10.5469
▁нуугд	-10.5471
▁шингэн	-10.5471
▁өвс	-10.5473
ӨХ	-10.5474
▁эмчилгээний	-10.5479
ью	-10.5479
▁олно	-10.5487
▁Li	-10.5493
▁хүүхнүүд	-10.5495
▁хохирогч	-10.5496
па	-10.5497
▁тогтоомж	-10.5498
▁дурсгал	-10.5499
▁өлс	-10.5499
▁дараалл	-10.5499
▁тамирчид	-10.55
▁хүдр	-10.55
▁залх	-10.5504
▁2004	-10.5508
▁олборлох	-10.5521
ast	-10.5522
ice	-10.5523
▁хэмнэл	-10.5525
▁Оросууд	-10.5532
▁гэрээсээ	-10.5533
▁зурах	-10.5535
▁зогсоож	-10.5538
io	-10.5541
▁аудит	-10.5543
▁гүтгэ	-10.5543
▁өөрчлө	-10.5543
▁дампуу	-10.5543
▁аравдугаар	-10.5543
▁төлөөлөл	-10.5547
▁Английн	-10.5547
▁загварыг	-10.555
▁хє	-10.555
▁орныг	-10.555
АД	-10.555
агдаагүй	-10.5551
▁Юун	-10.5553
▁төлбөрийг	-10.5555
▁тантай	-10.5557
▁сай	-10.5564
▁бүсгүйн	-10.5576
▁Тө	-10.5577
▁үүрд	-10.5579
88	-10.558
ОГ	-10.5585
▁доромжил	-10.559
▁зорьсон	-10.559
▁үндэстний	-10.5594
▁УБ	-10.5594
▁дуустал	-10.5595
90	-10.5596
лөлт	-10.5596
▁75	-10.5601
пп	-10.5603
▁явсаар	-10.5605
▁өгөв	-10.5607
▁зогсох	-10.5608
▁таньж	-10.5609
▁зөвшөөрлий	-10.561
▁ердийн	-10.5614
▁дуулсан	-10.5618
▁хандлагатай	-10.5618
Жи	-10.5621
▁олноор	-10.5623
▁зайлуул	-10.5625
di	-10.5626
▁нэгдэл	-10.5627
▁гэрлэх	-10.5631
▁Пе	-10.5636
▁бүхэлд	-10.5637
▁валют	-10.5638
▁Ял	-10.5645
▁бодохгүй	-10.5648
▁орныхоо	-10.5649
▁удам	-10.565
▁амны	-10.5656
▁үхэр	-10.5663
ста	-10.5669
▁шийднэ	-10.568
▁сандал	-10.5681
▁татдаг	-10.5681
▁ахлах	-10.5684
▁Бразил	-10.5687
▁лиценз	-10.5687
▁ресторан	-10.5687
▁төсвөө	-10.5687
▁яадаг	-10.5689
▁Хүч	-10.5689
▁Не	-10.569
ура	-10.569
▁хадгалагд	-10.5691
▁буурах	-10.57
Болор	-10.5702
▁түү	-10.5705
ine	-10.5707
▁парламентын	-10.5708
▁байшинг	-10.5716
▁дараалан	-10.5718
85	-10.5721
▁яр	-10.5723
тро	-10.5731
89	-10.5732
▁хариуцсан	-10.5736
▁Барилгын	-10.5736
▁дипломат	-10.5737
▁даавуу	-10.5737
▁мань	-10.5738
▁хожим	-10.5741
▁тариалан	-10.5743
▁Wi	-10.5749
ion	-10.5751
▁алдаг	-10.5754
▁2-3	-10.5754
▁хамрагдсан	-10.576
▁салаа	-10.5761
жуу	-10.5761
▁төрдөг	-10.5773
▁үүдэн	-10.5773
▁Пи	-10.5776
логдсон	-10.578
▁хуудсыг	-10.5784
▁Хөдөлмөрийн	-10.5784
▁суурилуул	-10.5785
▁зовлонг	-10.5788
▁хэлмэгд	-10.5789
▁компанийг	-10.5792
▁байцаагч	-10.5793
▁бүсэд	-10.5794
▁танихгүй	-10.5794
▁тавилга	-10.5796
▁Үе	-10.5798
▁алхах	-10.5802
▁нөлөөтэй	-10.5804
▁үлдээсэн	-10.5812
▁нийлж	-10.5812
▁01	-10.5823
▁дотроос	-10.5829
tt	-10.5831
▁уралд	-10.5834
▁стратегийн	-10.5835
▁үндэслэн	-10.5838
▁зардлаа	-10.5841
▁нийгэмлэг	-10.5843
▁танилцуулга	-10.5847
снээ	-10.5847
▁манайхан	-10.5852
▁орхисон	-10.5852
nk	-10.5859
▁Төмөр	-10.5861
▁ван	-10.5862
Ногоон	-10.5865
▁хараат	-10.5865
▁харагдахгүй	-10.5869
ээврийн	-10.5871
▁тэнцүү	-10.5879
▁евро	-10.588
▁хөрөнгийг	-10.5882
▁хүснэгт	-10.5883
▁Охид	-10.5884
▁завсар	-10.5884
▁Бодит	-10.5888
▁тушаа	-10.5893
2012	-10.5894
огддог	-10.5895
▁тэднээс	-10.5896
▁зөвшөөрөхгүй	-10.5898
єх	-10.5899
▁тосгон	-10.5899
▁гарахад	-10.5901
▁зарцуулж	-10.5901
▁ухамсар	-10.5901
▁дүгнэж	-10.5905
▁сүүлээр	-10.5906
▁тэндээс	-10.5909
чихвал	-10.5914
▁байгуулагч	-10.5924
▁НӨАТ	-10.5932
▁зохистой	-10.5932
▁оршдог	-10.5932
▁суугч	-10.5938
Дахиад	-10.5938
▁үзүүр	-10.5938
▁бахарх	-10.594
▁хэтрүүл	-10.5949
▁ярилаа	-10.5954
▁компаниудын	-10.5957
▁мөргө	-10.596
▁Хаана	-10.5961
▁материалыг	-10.5967
Тэгвэл	-10.5969
▁Өдөрт	-10.5972
-12	-10.5972
▁хөлбөмбөгийн	-10.5974
▁Египет	-10.5982
▁олигтой	-10.5982
▁харгалзан	-10.5982
▁хөөцөлд	-10.5982
▁Болзоо	-10.5982
▁авчирсан	-10.5982
da	-10.5982
▁буудалд	-10.5983
ny	-10.5984
▁албагүй	-10.5985
▁төлсөн	-10.5988
▁засгийг	-10.5989
▁арилга	-10.599
элдэг	-10.5992
▁бүрдүүлж	-10.5999
▁засгаа	-10.6002
▁Хайртай	-10.6002
▁баяс	-10.6002
ото	-10.6003
▁хэргээр	-10.6006
▁май	-10.6007
▁34	-10.6008
▁тэдгээрийн	-10.6008
▁зэв	-10.601
****	-10.6011
▁Al	-10.6012
▁нээсэн	-10.6016
атор	-10.6019
▁амьсгалын	-10.6026
▁гэмээр	-10.603
▁хурдтай	-10.6032
▁тоогоор	-10.6032
▁Эрчим	-10.6032
▁ардчилал	-10.6032
▁Амь	-10.6032
▁имэйл	-10.6034
▁Тун	-10.6041
▁бүжиг	-10.6042
▁So	-10.6042
агдлаа	-10.6043
99	-10.6044
▁зарлаж	-10.6047
▁Хэвлэл	-10.6064
ge	-10.6067
▁баримтлал	-10.6068
▁уншдаг	-10.6073
Уул	-10.6074
▁Есүсийн	-10.6078
▁бясалга	-10.6082
▁хөтөч	-10.6082
▁ашгийн	-10.6082
▁харьцах	-10.6083
▁чөлөөлөх	-10.6085
▁экс	-10.6087
▁хавдр	-10.6088
▁нөхрөө	-10.6089
▁хамтрагч	-10.609
уз	-10.609
▁хошуу	-10.6093
▁тест	-10.6093
ОМ	-10.6094
▁Шинээр	-10.6099
▁эхлүүлсэн	-10.6101
▁амраг	-10.6103
▁хүргэдэг	-10.6109
▁гоол	-10.6111
▁Хоёрдугаарт	-10.6114
чихсөн	-10.6114
▁насан	-10.6118
▁солилц	-10.6118
▁дуугаа	-10.6129
▁яригдаж	-10.6132
▁Ёстой	-10.6132
▁шулуун	-10.6133
▁нутагтаа	-10.6137
▁Богд	-10.6138
▁болчихлоо	-10.6141
▁үүнтэй	-10.6144
Цэрэн	-10.6145
Баатар	-10.6146
▁сонгогд	-10.6147
ak	-10.6148
▁амьдр	-10.6148
▁тэмдэгт	-10.6149
▁өгө	-10.6154
▁төлөвтэй	-10.6163
▁мэргэжлээр	-10.6169
▁явахдаа	-10.6172
Оюутолгой	-10.6183
Лхагва	-10.6183
▁Зүрх	-10.6183
▁гудамжинд	-10.6185
▁and	-10.6188
▁танилцаж	-10.6196
ug	-10.6198
▁байгууллагуудын	-10.6201
▁очиход	-10.6204
▁Da	-10.6209
▁нээлтээ	-10.6213
▁хувилбарыг	-10.6216
єг	-10.6218
▁болчихоод	-10.622
29	-10.6223
цэж	-10.6224
▁ялах	-10.6225
Бар	-10.6234
▁даашинз	-10.6234
▁үргэлжилнэ	-10.6234
Олон	-10.6234
▁бүгдэд	-10.6235
▁нартаа	-10.6239
▁бодно	-10.6239
▁орчих	-10.624
▁Гэмт	-10.6241
▁дамжуулах	-10.6245
▁МАНАН	-10.6245
▁орчныг	-10.6247
▁ярилцсан	-10.6249
▁ХХ	-10.6249
▁тохируулах	-10.625
▁өдөө	-10.6252
Сарын	-10.6254
Эрдэнэбат	-10.6266
▁зоог	-10.6269
▁суманд	-10.6269
лөж	-10.628
▁Дарга	-10.628
▁Австралий	-10.6284
▁өчүүхэн	-10.6285
▁сорилт	-10.6286
зүйн	-10.6286
▁жу	-10.6287
▁тоглолтоо	-10.6293
эгдэж	-10.6293
▁Ням	-10.6294
man	-10.6294
УУД	-10.6294
▁хаях	-10.6294
ез	-10.6301
▁бодохоор	-10.6301
▁байдлаа	-10.6302
aa	-10.6305
▁шорон	-10.6307
▁ням	-10.6307
▁тохиолдох	-10.6311
▁Нийслэл	-10.6312
br	-10.6315
Ямар	-10.6328
▁400	-10.6329
.2.	-10.6334
▁оюутны	-10.6337
▁алчуур	-10.6337
▁малтмал	-10.6337
per	-10.6338
▁хуудсанд	-10.6338
▁Увс	-10.6338
▁дуусч	-10.634
▁сургамж	-10.634
▁гашуу	-10.6341
▁цуу	-10.6345
▁төгсгөлд	-10.6346
▁Гоо	-10.6348
▁эргэлд	-10.635
▁Мод	-10.6351
▁алтны	-10.6363
уйц	-10.6373
▁улстөрч	-10.6375
лер	-10.6379
▁шог	-10.6383
▁очдог	-10.6386
▁Урт	-10.6386
▁номоо	-10.6388
▁ген	-10.6388
▁Хөвсгөл	-10.6389
▁журмыг	-10.6389
▁радио	-10.6389
▁пуужин	-10.6389
▁Иймэрхүү	-10.6389
▁хэсгээс	-10.639
▁ширээн	-10.639
▁тэсвэр	-10.6391
▁онцлох	-10.6392
▁будаг	-10.6392
▁дажгүй	-10.6393
▁хамгаалалтын	-10.6393
▁Mi	-10.6397
▁татгалзаж	-10.6397
▁тодруулах	-10.6407
▁бүлийнхэн	-10.6408
ЭД	-10.6408
Ав	-10.641
▁нураа	-10.6411
▁асуултанд	-10.6411
▁сайхныг	-10.6414
▁хийл	-10.6414
72	-10.6416
▁Май	-10.6417
НЫ	-10.6426
аци	-10.6427
Z	-10.6429
Өдрийн	-10.6429
▁Lo	-10.6437
▁Үргэлж	-10.6438
▁танилцсан	-10.6441
▁iPhone	-10.6441
▁хуулбар	-10.6441
▁Post	-10.6441
▁Тэгтэл	-10.6444
▁хийгээрэй	-10.6444
▁өөрчилсөн	-10.6445
▁явган	-10.6453
▁Сир	-10.6466
▁өрөөний	-10.6472
▁мэргэн	-10.6472
▁уналт	-10.6475
▁эмчлэх	-10.6476
▁атга	-10.6477
▁хатаа	-10.6483
▁тогтолцоог	-10.6483
▁Блог	-10.6487
▁талаасаа	-10.6489
▁хэрэгслүүд	-10.6493
▁→	-10.6495
▁анхдагч	-10.6497
▁Санаа	-10.6507
▁сурдаг	-10.6509
Тэд	-10.6511
▁Энхбаяр	-10.6511
цал	-10.6514
▁To	-10.6516
▁хандуулах	-10.6517
▁мэдэр	-10.6519
▁арав	-10.6519
▁бө	-10.6521
▁хагар	-10.6521
▁Иран	-10.6521
▁хэллэг	-10.6526
▁хувьцааны	-10.6527
▁дагах	-10.6528
шилт	-10.6529
▁анхааралтай	-10.6531
▁давсан	-10.6535
▁эхнээс	-10.6535
чихлээ	-10.6541
▁баримтлах	-10.6543
▁min	-10.6543
▁Компьютер	-10.6546
▁оффис	-10.6546
▁явдлууд	-10.6546
▁Өөртөө	-10.6546
▁хэрэгслийг	-10.6546
Отгон	-10.6546
▁хэмээсэн	-10.6546
down	-10.6546
end	-10.6547
▁тасалбар	-10.6547
▁тооцож	-10.6551
▁эсэргүүцэж	-10.6552
лас	-10.6555
▁гахай	-10.6556
▁суваг	-10.6556
▁гаргахад	-10.6563
▁мэдэгдлээ	-10.6569
▁төрүүлж	-10.657
▁хийв	-10.6571
▁балай	-10.6575
▁Аюулгүй	-10.6576
▁сольж	-10.6577
▁цагтаа	-10.6582
▁гэмтэл	-10.6589
▁Ингэх	-10.6592
▁Сири	-10.6595
▁танигд	-10.6598
▁статистик	-10.6599
▁туслалцаа	-10.6599
▁эмгэнэл	-10.6599
▁өртсөн	-10.6599
▁нялх	-10.6599
▁хэрэглэгчдэд	-10.6601
▁тэтгэмж	-10.6602
▁Солонгост	-10.6603
▁Битгий	-10.6604
▁сүлжээний	-10.6604
▁үлдэнэ	-10.6606
ҮТ	-10.6606
▁цаанаа	-10.6608
▁Pro	-10.6612
▁(1)	-10.6616
▁Өнөөгийн	-10.662
▁очно	-10.6622
олсон	-10.6625
▁Элбэгдорж	-10.6628
ive	-10.6641
27	-10.6642
цгоо	-10.6644
▁Mar	-10.6647
ков	-10.6651
▁Афганистан	-10.6652
▁Гоолингоо	-10.6652
▁Сургуулийн	-10.6652
▁Хаяг	-10.6653
▁уншина	-10.6655
▁жишиг	-10.6656
▁дуудах	-10.666
▁таалагдаж	-10.666
▁эрхэлдэг	-10.6661
ён	-10.6664
▁зөн	-10.667
▁огцруулах	-10.6672
▁үргэлжлүүлэх	-10.6677
▁@	-10.6679
▁99	-10.6684
mp	-10.6685
▁Гадаадын	-10.6699
▁нүдээр	-10.67
▁зайлсхийх	-10.6703
▁ОУВС	-10.6705
▁ЭНД	-10.6706
98	-10.6706
▁тахил	-10.6707
▁бариул	-10.671
▁уншаарай	-10.671
▁хөдлөлт	-10.6713
▁уриалж	-10.6715
ааааа	-10.672
IN	-10.672
▁төлөөлөгчид	-10.672
эээээээ	-10.6728
ЗХ	-10.6731
Бо	-10.6737
▁хүндрэлтэй	-10.6752
▁хөдөлгөөнийг	-10.6756
▁согтуу	-10.6759
▁огцор	-10.6759
▁таашаал	-10.6759
▁гамшиг	-10.6759
▁Тэмцээн	-10.6759
▁бузар	-10.6759
▁дунджаар	-10.676
Ганбаатар	-10.6764
▁төлбөрөө	-10.6766
▁хэвтэж	-10.6767
▁Тусгай	-10.6767
▁томилох	-10.6768
▁малгай	-10.6768
▁цоч	-10.6769
35	-10.677
▁настайдаа	-10.6773
▁тогтсон	-10.6779
▁эрүүгийн	-10.6784
▁(19	-10.6785
▁Цагдаа	-10.6791
▁нийлүүлэгч	-10.6791
зай	-10.6792
▁ТВ	-10.6794
▁зарлах	-10.6795
▁багасга	-10.68
▁оролцдог	-10.6801
аф	-10.6808
▁шуугиан	-10.6809
▁хариулсан	-10.6811
▁Цэвэр	-10.6813
▁сургуул	-10.6814
▁заавр	-10.6814
ҮХ	-10.6816
▁угааж	-10.6817
Анх	-10.6817
▁загна	-10.6819
▁шалгаруул	-10.6821
▁хумс	-10.6824
охь	-10.6826
▁эзэмшсэн	-10.6829
▁огтхон	-10.683
▁Тавантолгой	-10.683
▁агуулах	-10.6838
▁татгалзсан	-10.6846
▁итгэхгүй	-10.6848
bi	-10.6848
46	-10.6848
▁зочин	-10.6848
▁зарцуулсан	-10.6854
▁21-	-10.6856
▁Төсвийн	-10.6868
▁утгыг	-10.6868
▁үргэлжилсэн	-10.6868
▁Бусдын	-10.6868
▁Тайланд	-10.6868
▁сайгүй	-10.6869
▁Тайван	-10.687
▁ханамж	-10.6871
▁сонирхлыг	-10.6871
▁агуулсан	-10.6872
▁хамаарч	-10.6872
▁хөдөлгөөнт	-10.6877
▁давс	-10.6878
▁буулгах	-10.6883
▁зогссон	-10.6884
26	-10.6885
▁ЗГ	-10.6886
гоороо	-10.6893
▁өдрөөр	-10.6897
▁хэрэгтээ	-10.6897
▁Me	-10.6899
ени	-10.6907
▁Шо	-10.6907
▁Арай	-10.6909
▁чөтгөр	-10.6922
▁хорооллын	-10.6922
▁супер	-10.6923
Таныг	-10.6924
▁Хариу	-10.6927
▁чөлөөг	-10.6927
▁элчин	-10.6937
▁улай	-10.6938
▁хуралдаанаар	-10.6939
▁хэдийнэ	-10.6939
▁үзүүлнэ	-10.6941
▁мэдээллээр	-10.6947
▁мөчид	-10.6949
▁эцэс	-10.6965
▁бодлогоо	-10.6966
▁тайлбарласан	-10.6967
▁Хув	-10.6967
Хэрэв	-10.6968
ru	-10.6974
▁Монголдоо	-10.6975
▁Испани	-10.6976
▁мессеж	-10.6977
▁тангараг	-10.6977
▁температур	-10.6977
▁Компанийн	-10.6979
▁хамар	-10.6979
▁нтр	-10.698
▁Чөлөөт	-10.6981
▁оролцоно	-10.6981
▁намаас	-10.699
▁Аялал	-10.699
▁2003	-10.6994
▁аварч	-10.6995
▁Мах	-10.6995
86	-10.6996
▁Цар	-10.6998
▁хатга	-10.6998
47	-10.6999
▁маркетингийн	-10.7008
ide	-10.7009
▁мэдүүлэг	-10.7014
▁төрүүлэх	-10.7015
▁Гэрэл	-10.7017
▁Уур	-10.7018
Яагаад	-10.7023
▁өрсөлд	-10.7027
долларын	-10.7027
▁бүтцийн	-10.7032
▁герман	-10.7032
▁одоохондоо	-10.7033
▁хэмээв	-10.7033
▁наймдугаар	-10.7033
▁Үйлчилгээ	-10.7033
iz	-10.7034
▁зүтгэж	-10.7035
▁хортой	-10.7039
▁тайлах	-10.7041
▁хөгжсөн	-10.7041
▁анг	-10.7043
Сайн	-10.7045
▁зураач	-10.7047
▁Жин	-10.7051
▁Ком	-10.7051
▁нөхрийн	-10.7054
AR	-10.7055
вай	-10.706
▁найрагч	-10.7062
▁модон	-10.7064
▁сүлжээнд	-10.7066
▁Нэгдүгээрт	-10.7074
▁зуух	-10.7074
Ю	-10.7077
▁49	-10.708
▁бууда	-10.7083
▁Bo	-10.7085
▁Яах	-10.7086
▁өлсгөлөн	-10.7088
▁бүтэлгүйт	-10.7088
▁Шинжлэх	-10.7088
▁Байгалийн	-10.7088
▁холбох	-10.7088
Аав	-10.7091
▁зуршил	-10.7093
▁Өвөр	-10.7094
▁бахархаж	-10.7094
▁Шөнө	-10.7099
▁цө	-10.7102
▁хянан	-10.7103
▁компаний	-10.7104
▁тоглогчид	-10.7106
EE	-10.711
▁арал	-10.7117
▁туул	-10.7121
▁гэснээ	-10.7124
▁цуглаан	-10.7135
▁Сингапур	-10.7144
▁нитрил	-10.7144
▁утсан	-10.7145
Алтанхуяг	-10.715
▁Орхон	-10.7154
иль	-10.7156
▁алхаж	-10.7162
▁Баярлалаа	-10.7169
▁аймаар	-10.7172
▁зочло	-10.7173
▁тэсэ	-10.7174
▁харилцаатай	-10.7178
▁co	-10.7183
▁бэлтгэж	-10.7189
▁цуглуулах	-10.719
▁амарч	-10.7191
▁дагуулж	-10.7195
▁бэрх	-10.7196
▁Грек	-10.72
▁арслан	-10.72
▁өөрийнхөөрөө	-10.72
▁байцаа	-10.7201
▁хийе	-10.7202
▁өмөөр	-10.7202
07	-10.7214
ng	-10.7221
▁гэрлэлт	-10.7225
▁дуунууд	-10.7242
▁тоонд	-10.7245
▁дамжуулж	-10.7254
▁Фэйсбүүк	-10.7257
▁Ехова	-10.7257
▁мэдээлснээр	-10.7257
100	-10.7257
▁(0)	-10.7257
▁шунал	-10.7257
▁мэдээлсэн	-10.7257
▁Агаарын	-10.7257
▁түүнчлэн	-10.7258
▁таньдаг	-10.7258
ААР	-10.7259
▁арми	-10.7261
Ард	-10.7261
ki	-10.7263
▁мэргэ	-10.7267
▁Төрөл	-10.7269
▁Урлаг	-10.7272
II	-10.7284
▁санаарай	-10.7287
▁бааз	-10.7288
▁өрнүүл	-10.7297
ment	-10.7305
НИЙ	-10.7305
▁Дээрээс	-10.7307
Юу	-10.7308
ist	-10.7309
▁Даваа	-10.7309
The	-10.731
▁Le	-10.7311
▁Ээ	-10.7313
▁ургамл	-10.7313
▁Эрүүгийн	-10.7313
▁холболт	-10.7313
▁гэдэс	-10.7314
▁тусламжтайгаар	-10.7316
▁гурил	-10.7317
▁бүхнээс	-10.7321
2019	-10.7342
▁зарцуулдаг	-10.735
▁оруулаад	-10.7353
▁шул	-10.7354
▁биднээс	-10.7355
өгөө	-10.7361
▁хоч	-10.737
▁Байгууллагын	-10.7371
▁Интернэт	-10.7371
▁зэргийг	-10.7371
▁Боломж	-10.7371
▁тусгасан	-10.7371
▁бүтээлүүд	-10.7385
▁Хүнсний	-10.739
▁барааны	-10.7391
▁Хүлээ	-10.7393
▁Бур	-10.7399
▁онцлогтой	-10.74
▁эрхэлж	-10.7401
▁нийлэх	-10.7404
▁болмоор	-10.7407
▁Буруу	-10.7412
our	-10.7414
▁бонд	-10.7428
▁Мексик	-10.7428
▁огцом	-10.7428
▁клип	-10.7428
▁Вэб	-10.7428
▁Үүгээр	-10.7429
▁сп	-10.743
▁хаалттай	-10.743
▁Тэрнээс	-10.7431
▁гүйцэтгэдэг	-10.7434
▁өмд	-10.7434
▁жигд	-10.7437
▁дэмжинэ	-10.7438
▁харамсаж	-10.7439
▁эхэн	-10.7441
▁эсрэгээрээ	-10.7444
БХ	-10.7446
▁ААН	-10.7465
▁салсан	-10.7467
ain	-10.7468
эгдэл	-10.747
▁асуудаг	-10.747
▁эзлэх	-10.7474
▁тараах	-10.7476
▁асуудлуудыг	-10.7482
▁хотоос	-10.7482
▁өнгөрүүлэх	-10.7485
▁Next	-10.7486
▁атаарх	-10.7486
▁өргөтгө	-10.7486
▁Ахмад	-10.7486
▁Өдгөө	-10.7486
▁Цэргийн	-10.7486
▁Гуравдугаар	-10.7487
▁амжилтад	-10.7488
▁дэмжигч	-10.7488
▁Найр	-10.7491
▁асуултууд	-10.7494
▁өгүүллэг	-10.7501
▁зэргээр	-10.7505
▁ажиллуулж	-10.7505
▁чихэр	-10.7506
▁ирвэл	-10.7506
ity	-10.751
▁Агуу	-10.7511
▁хонь	-10.7511
▁больж	-10.7513
▁Угаасаа	-10.7514
▁ОУ	-10.7522
▁хүрлээ	-10.7522
▁мэдэхэд	-10.7533
▁ялгаж	-10.7538
ght	-10.7538
▁хэрэглээг	-10.754
▁Интернет	-10.7544
▁Цахилгаан	-10.7544
▁хангалтгүй	-10.7544
▁үлдлээ	-10.7545
▁саатуул	-10.7545
▁өнөөг	-10.7545
▁Мон	-10.7546
▁Ру	-10.7547
▁дутагдал	-10.7561
▁тодотгол	-10.7563
▁энерги	-10.7565
▁хором	-10.7565
▁хотноо	-10.758
▁сөнө	-10.7583
▁үйлчлэгч	-10.7584
▁талбайн	-10.7585
▁банкууд	-10.759
▁хараарай	-10.759
▁65	-10.7594
▁суртахуун	-10.7602
▁төмрийн	-10.7602
▁55	-10.7603
▁хүдэр	-10.7604
▁шилжилт	-10.7605
▁ЗХУ	-10.7607
Зөв	-10.7607
▁төлдөг	-10.7608
▁худалдаанд	-10.7621
▁нэрлэсэн	-10.7631
▁өөх	-10.7636
▁дансанд	-10.7643
▁татаад	-10.765
▁Худалдаа	-10.7655
▁Канадын	-10.7655
▁форум	-10.7661
▁хөрвүүл	-10.7661
▁айм	-10.7661
▁нотол	-10.7662
▁боловсон	-10.7662
ширч	-10.7663
▁болгоход	-10.7664
▁бэлдэж	-10.7668
▁гэнээ	-10.7671
▁Жу	-10.7678
▁цээр	-10.7681
▁багтаж	-10.7682
өрнө	-10.7682
▁боловсролтой	-10.7686
▁санадаг	-10.7696
▁Алт	-10.7703
64	-10.7708
▁олз	-10.7715
▁цаасан	-10.7716
▁тух	-10.7719
▁өвдөлт	-10.772
▁ИТХ	-10.772
▁домог	-10.7722
▁үгүйсгэхгүй	-10.7724
▁ядан	-10.7725
▁оролдлого	-10.7726
▁бичигдсэн	-10.7728
▁гэрийнхэн	-10.7735
хныг	-10.7735
▁нийцсэн	-10.7752
▁Өглөөний	-10.7753
▁сулла	-10.776
▁хүсэн	-10.7762
▁АМ	-10.7767
▁өсгөх	-10.7768
▁хэс	-10.7768
▁Иргэн	-10.7768
▁06	-10.777
▁амраа	-10.7777
▁нүцгэн	-10.778
▁Сонгууль	-10.778
▁Халдвар	-10.778
▁Сэлэнгэ	-10.778
▁үйлчилдэг	-10.778
баясгалан	-10.778
▁Арьс	-10.7788
ant	-10.7789
Ы	-10.7795
▁нүүрний	-10.7796
▁ихэнхдээ	-10.7798
ite	-10.7799
▁Марк	-10.7804
▁дуусна	-10.7804
▁ХҮ	-10.7808
▁тоглуул	-10.7815
SS	-10.7825
ung	-10.7827
▁долдугаар	-10.784
▁Эрдэм	-10.784
▁хийгдэх	-10.784
▁Гэнэт	-10.784
▁Итгэл	-10.7841
▁толгойгоо	-10.7841
▁технологийг	-10.7842
▁ягаан	-10.7843
▁хийлгэж	-10.7846
▁үйлдвэрлэсэн	-10.7847
66	-10.7849
▁анхаарна	-10.785
▁илгээсэн	-10.7858
▁оюуны	-10.7859
▁орил	-10.7863
▁дууслаа	-10.7864
▁цэс	-10.7868
▁хоёул	-10.787
▁дүүрэгт	-10.787
▁үеэ	-10.7872
▁соль	-10.7873
▁эзэлж	-10.7877
▁үйлчилгээнд	-10.7878
po	-10.788
▁тодотго	-10.788
▁Mac	-10.7881
▁өгөхөд	-10.7883
▁айлга	-10.789
▁уйлж	-10.7891
▁марга	-10.7893
Ё	-10.7896
▁Сураг	-10.7898
▁амжуул	-10.79
▁хүчилтөрөгч	-10.79
▁зурвас	-10.79
▁дадлага	-10.79
▁хөдөлгүүр	-10.7901
▁цэнхэр	-10.7901
▁бохирдол	-10.7901
▁тэргүүлж	-10.7903
▁Сайт	-10.7904
▁масс	-10.7905
▁байлдаа	-10.791
▁мэдлээ	-10.7913
▁мужид	-10.7917
▁ярив	-10.7918
▁наснаас	-10.7919
▁шинэхэн	-10.793
▁хориглох	-10.7931
▁Ингэхэд	-10.7932
▁Ой	-10.7934
▁тавтай	-10.7936
▁байрлаж	-10.7938
▁бүрдсэн	-10.7942
▁барив	-10.7944
ell	-10.7946
▁ажилчдын	-10.7953
▁Суу	-10.796
▁Хоёул	-10.7961
▁зөөврийн	-10.7961
▁тавигдах	-10.7961
▁болоосой	-10.7961
▁самбар	-10.7962
▁тэнцэх	-10.7964
▁38	-10.7967
▁хориглосон	-10.7971
▁цаашаа	-10.7971
▁донт	-10.7974
▁мэдэрсэн	-10.7978
▁єг	-10.7979
▁Тусгаар	-10.799
кет	-10.7991
лөсөн	-10.7991
▁хөдөлж	-10.7996
▁одон	-10.8
96	-10.8005
▁эдлэх	-10.8006
▁Ве	-10.8011
▁ослы	-10.8011
лагддаг	-10.8014
өсө	-10.8017
▁больчих	-10.8021
▁Швейцар	-10.8022
▁механизм	-10.8022
▁Швед	-10.8022
▁текст	-10.8022
▁хэмээжээ	-10.8022
▁Тэнэг	-10.8023
▁заал	-10.8024
▁өмсөж	-10.8024
▁явуулна	-10.8025
▁даанч	-10.8027
▁Мэдээлэл	-10.8028
▁Баасан	-10.8029
▁хаврын	-10.803
if	-10.8031
▁цэвэрхэн	-10.8034
▁Ганцхан	-10.8037
▁Нямдорж	-10.8045
▁баригдсан	-10.8059
▁тархалт	-10.806
Ээж	-10.8062
▁түвшинг	-10.8062
▁хүмүүжүүл	-10.807
хэвч	-10.8072
▁өргөх	-10.8073
▁давхи	-10.8076
▁Хороо	-10.8077
огдоно	-10.8078
▁нутгаас	-10.8079
▁ариутга	-10.8081
^	-10.8083
▁сервер	-10.8083
▁фэйсбүүк	-10.8083
▁тулгамдсан	-10.8083
цгооё	-10.8085
▁ээлжинд	-10.8085
▁хувааж	-10.8085
▁Халуун	-10.8085
▁нэрлэх	-10.8088
▁сайтад	-10.8092
▁таараа	-10.8093
▁For	-10.8096
▁000	-10.811
▁сэргээн	-10.811
▁тавьчих	-10.8112
▁таамаглаж	-10.8122
▁хус	-10.8128
▁сайтууд	-10.8132
Цааш	-10.8137
▁ХҮН	-10.8142
▁хүлээдэг	-10.8143
▁захирамж	-10.8145
▁Түүнтэй	-10.8145
▁үүдэлтэй	-10.8146
▁гүйцэтгэсэн	-10.815
▁томилгоо	-10.815
▁тушаалтнууд	-10.8151
▁өвөр	-10.8158
▁алах	-10.8158
▁шалтгааны	-10.8161
▁800	-10.8167
▁БАЙ	-10.8167
77	-10.8171
▁нэгжүүд	-10.8171
ОЙ	-10.8175
▁шагна	-10.8178
▁(200	-10.818
▁Өрөө	-10.818
төг	-10.8181
**	-10.8184
▁сунгах	-10.8185
▁санасан	-10.8186
▁зохиогч	-10.8188
▁цэвэрлэгч	-10.82
▁амьдарсан	-10.8201
▁Пакистан	-10.8207
▁Төлбөр	-10.8207
▁Хүүхдэд	-10.8207
її	-10.8208
▁Крис	-10.821
▁БОЛ	-10.8224
sa	-10.8224
▁орхиод	-10.8227
▁солигд	-10.8229
▁ашгаа	-10.823
Амар	-10.8236
▁тамхины	-10.8236
▁өдрөө	-10.8239
▁мөрөн	-10.824
▁аврал	-10.8243
▁байршуул	-10.8246
▁ширтэ	-10.8248
▁давтан	-10.8249
▁42	-10.8254
окс	-10.8254
Надад	-10.8268
▁болзоо	-10.8269
▁Польш	-10.8269
▁тээрмийн	-10.8269
▁Даанч	-10.827
▁ходоод	-10.827
▁чадавх	-10.827
▁хэмнэх	-10.827
▁дэвтэр	-10.8271
Батболд	-10.8275
метр	-10.8279
▁илрэл	-10.828
▁харилцагч	-10.8281
▁нүүлгэ	-10.8282
▁барьдаг	-10.8286
▁товчоо	-10.8286
елл	-10.8289
ark	-10.8291
▁хорин	-10.8297
▁солиор	-10.8299
▁Кор	-10.8306
▁сэрээ	-10.8308
▁оров	-10.8331
УИХ	-10.8331
▁доктор	-10.8332
▁өгөгдөл	-10.8332
▁зөрчиж	-10.8332
▁тодорхойлсон	-10.8333
ld	-10.8334
▁бүтээмж	-10.8336
▁томилогд	-10.8337
ГАА	-10.8337
▁бүхэлдээ	-10.8338
▁ахиад	-10.8339
▁үйлдвэрлэгчид	-10.8348
▁тэврэ	-10.8349
▁эмчид	-10.8354
▁осолд	-10.8355
гэдэг	-10.8363
өргө	-10.8365
ери	-10.838
Үүр	-10.8383
▁үйлчилж	-10.8385
▁туулсан	-10.8387
▁зарчмыг	-10.8396
▁объект	-10.8396
▁платформ	-10.8396
▁хачирхалтай	-10.8396
▁өгөөрэй	-10.8396
▁Тоглолт	-10.8396
▁аппарат	-10.8396
▁Нохой	-10.8397
▁шаардагдах	-10.8398
▁Шалгалт	-10.8398
▁Арван	-10.84
▁хүслийг	-10.84
▁явагдах	-10.8403
▁ирц	-10.8404
68	-10.8411
▁бирж	-10.8412
▁хүүхдийнхээ	-10.8417
▁таслан	-10.8418
uu	-10.8418
▁уйд	-10.8418
▁үйлдэх	-10.8421
▁авав	-10.8426
▁хэлээрэй	-10.8428
▁уруул	-10.8432
▁газраар	-10.8437
ологи	-10.8441
2018	-10.8447
▁ХК	-10.8456
щ	-10.8459
▁зургадугаар	-10.8459
Жавхлан	-10.8459
▁бүтэхгүй	-10.8459
▁мэтчилэн	-10.8459
▁Утас	-10.8461
▁єєр	-10.8462
▁тэргүүлэх	-10.8464
▁хайгуул	-10.8464
▁орлогоо	-10.8467
▁гадуурх	-10.8469
▁урагшаа	-10.8471
▁сурталчилгааны	-10.8477
▁тойрны	-10.8477
▁амил	-10.8477
48	-10.8483
▁асга	-10.8484
▁адал	-10.8484
▁талбайг	-10.8485
▁дарагд	-10.8492
▁хаясан	-10.8492
▁оролцуул	-10.8496
▁авиа	-10.8497
▁жив	-10.8505
Бидний	-10.8507
кү	-10.8515
▁Сэтгэгдэл	-10.8523
▁нилээн	-10.8523
▁Чулуу	-10.8524
▁мэдээллүүд	-10.8524
▁Хүүхдээ	-10.8524
▁бүтээгч	-10.8525
▁ширүүн	-10.8526
▁явбал	-10.8533
▁суулгаж	-10.8537
▁хоорондох	-10.8541
***	-10.8543
▁поп	-10.8544
▁Энийг	-10.8544
uk	-10.8548
▁засаж	-10.8549
▁залруул	-10.855
▁багтах	-10.855
▁өдөрлөг	-10.8557
uck	-10.8568
▁сэтгэц	-10.8569
▁илэрхийлдэг	-10.8571
▁найм	-10.8574
▁хөтл	-10.8587
▁өсвөр	-10.8588
▁Токио	-10.8588
монгол	-10.8589
▁цуцал	-10.859
▁хожигд	-10.859
▁Ховд	-10.8598
▁үйлдлээ	-10.8606
▁07	-10.8613
▁хаягдлы	-10.8615
ft	-10.8615
▁харагдсан	-10.8616
▁тушаалтан	-10.8616
▁Надаас	-10.8618
▁болхоор	-10.8619
ST	-10.8621
▁Бүрэн	-10.8621
Сэтгэ	-10.8626
▁үүгээр	-10.8627
▁шахуу	-10.8628
▁Нэм	-10.863
▁ойлгуулах	-10.8631
▁байрлуулах	-10.8635
▁олоход	-10.8636
▁гайхах	-10.8637
▁Бүс	-10.8642
▁байгууллаг	-10.8647
▁залхуу	-10.8653
▁замбараагүй	-10.8653
▁Хөөрхий	-10.8653
▁нутгийг	-10.8653
▁Нутгийн	-10.8653
Төрийн	-10.8654
▁тавцан	-10.8658
▁Хэнтий	-10.8664
▁эрхлэгчид	-10.8664
▁сугалаа	-10.8665
▁айраг	-10.8667
▁оршуул	-10.867
форм	-10.8673
▁шийдвэрлэж	-10.8675
▁тусгаарлах	-10.868
ian	-10.8682
▁эргүү	-10.8686
▁байгууллаа	-10.8687
▁La	-10.8688
▁эзэмшдэг	-10.8692
▁хүүхэлдэйн	-10.8713
▁Ярилц	-10.8718
▁доромжло	-10.8718
▁гялалз	-10.8719
▁гэлтгүй	-10.872
▁яав	-10.872
▁нүүдэл	-10.8721
▁тендер	-10.8721
▁хуримтлуул	-10.8722
▁Хариулт	-10.8722
▁залгамж	-10.8723
▁Гадны	-10.8724
▁зурхай	-10.8726
▁Шаардлагатай	-10.8731
▁нягтлан	-10.8737
▁хүснэ	-10.8739
▁яваарай	-10.8739
▁оруулдаг	-10.874
▁сөхө	-10.8741
▁жам	-10.8742
▁нэмсэн	-10.875
▁эргэлзэх	-10.8756
▁Машины	-10.8759
▁байршуулах	-10.8762
▁зүрхэнд	-10.8769
▁Баянзүрх	-10.8784
▁цогцолбор	-10.8784
▁хатагтай	-10.8784
▁сансрын	-10.8784
▁цамц	-10.8784
▁агуулдаг	-10.8785
Намайг	-10.8785
▁эрдэмтэн	-10.8786
▁тохиолдож	-10.8787
▁ашиглана	-10.8789
▁өндөг	-10.8791
▁аймар	-10.8794
▁бэлдэх	-10.8795
үрэн	-10.8799
▁барууны	-10.8801
▁санхүүжүүл	-10.8803
▁хөнгө	-10.8803
▁шилжүүлэн	-10.8804
▁ойлгуул	-10.8806
▁бариа	-10.8808
▁удаж	-10.8814
▁ярилцлаа	-10.8814
▁тэмдэглэдэг	-10.8833
▁тэргүү	-10.8835
ьяа	-10.8838
▁босох	-10.8843
ЛЭГ	-10.8846
▁сургах	-10.8848
▁насныхан	-10.8849
▁контент	-10.885
▁түймэр	-10.885
▁Тэгэхдээ	-10.885
▁наяд	-10.8851
▁Авлига	-10.8851
▁Зөндөө	-10.8854
▁Сэтгүүлч	-10.8854
▁андуур	-10.8855
▁нэмэгдэнэ	-10.8856
▁мөсөн	-10.8859
▁тоглоод	-10.886
▁хэрэглэгддэг	-10.886
▁гял	-10.8865
▁самар	-10.8865
▁оролдсон	-10.8869
говь	-10.8869
▁зорилгодоо	-10.8873
▁хооллох	-10.8875
▁шингээ	-10.8878
▁төрүүлсэн	-10.8883
уда	-10.8888
▁Гадна	-10.8898
▁үзжээ	-10.8904
▁зохицуулж	-10.8907
▁Залуучууд	-10.8909
▁Ажлаа	-10.8913
Баасанхүү	-10.8915
▁шаардсан	-10.8917
▁хязгаарлагдмал	-10.8917
▁Цэцэрлэг	-10.8917
▁Богино	-10.8917
▁зэрлэг	-10.8917
▁Оюутолгойн	-10.8917
▁эвлэр	-10.8919
▁гомдоо	-10.892
▁ардчиллы	-10.892
▁Ирак	-10.892
▁for	-10.8922
▁танилцуулсан	-10.8926
билэг	-10.8934
АЛТ	-10.8938
▁ойлгоно	-10.894
▁хамарсан	-10.8946
▁хурааж	-10.8971
▁саруул	-10.8972
чихоод	-10.8979
▁Зургаа	-10.898
һ	-10.8984
▁дарангуйл	-10.8984
▁Обама	-10.8984
▁Нууц	-10.8984
▁Хятадууд	-10.8985
▁Зуны	-10.8986
Бүх	-10.8988
▁толи	-10.8988
▁хойч	-10.8991
▁айгаад	-10.8991
▁эдэлж	-10.8995
so	-10.8997
Уянга	-10.8997
▁ширээний	-10.9
▁хэрэгжүүлнэ	-10.9
▁чигээрээ	-10.9005
▁цөл	-10.9008
▁нийтээрээ	-10.9013
▁хэвлэх	-10.9017
▁сэв	-10.9018
Дэлхийн	-10.9021
▁дүгнэх	-10.9027
200	-10.9035
▁тэргүүний	-10.9036
▁дээшлүүлэх	-10.9037
▁хорвоог	-10.9043
▁шалгана	-10.9045
▁Технологи	-10.9052
▁сошиал	-10.9052
▁сэдвийг	-10.9052
▁ДЭМБ	-10.9052
▁зөвшилц	-10.9052
▁чимэглэл	-10.9052
▁Өөрсдөө	-10.9052
#	-10.9055
▁аймгууд	-10.9055
▁өсөж	-10.9056
заяа	-10.9061
▁Будд	-10.907
▁үхэж	-10.907
▁багаас	-10.9072
▁тэмдгий	-10.9077
▁бахархал	-10.9078
▁Гоё	-10.9078
▁Израиль	-10.9081
▁төвлөрүүл	-10.9089
▁хичээсэн	-10.909
▁Үндэс	-10.9091
▁баржээ	-10.9093
RE	-10.9103
▁Програм	-10.912
▁санамсаргүй	-10.912
▁хүзүү	-10.912
▁Дубай	-10.9121
▁тарих	-10.9122
▁явагддаг	-10.9124
ИЙ	-10.9125
▁захиалагч	-10.9126
▁хөгжлийг	-10.9126
▁тоглоно	-10.9126
ON	-10.9131
▁ирүүлсэн	-10.9136
▁ижилхэн	-10.9139
▁үүсгэдэг	-10.9149
▁болгочих	-10.9158
анги	-10.9159
▁асуулаа	-10.9159
гүүт	-10.9161
▁ажилтны	-10.9165
▁Нээрээ	-10.917
▁ажлаасаа	-10.9175
▁далан	-10.9175
▁мөргөл	-10.9178
лодог	-10.9186
▁хүргэнэ	-10.9186
▁Архангай	-10.9188
▁корпорац	-10.9188
▁бялуу	-10.9188
▁мөрдөж	-10.9188
▁1-2	-10.919
Бурхан	-10.9192
▁хаягдал	-10.9195
▁ялгах	-10.9196
▁хүрэхэд	-10.9196
▁хийлгэсэн	-10.921
▁гэрээнд	-10.9212
▁үзэгчид	-10.9215
▁олгогч	-10.9222
▁архив	-10.9226
▁унадаг	-10.9227
▁байгуулдаг	-10.9229
▁малчин	-10.923
▁сонсогдо	-10.9234
▁тогооч	-10.9234
▁Али	-10.9235
▁тэгсэн	-10.9243
▁өгөхөөр	-10.9246
▁Sonin	-10.9257
▁БНАСАУ	-10.9257
▁довтол	-10.9257
▁шалтгаална	-10.9257
▁YouTube	-10.9257
▁Малайз	-10.9257
▁Жолооч	-10.9257
▁согтууруулах	-10.9258
▁хүрэлцэн	-10.9258
▁шуурга	-10.926
▁нотолгоо	-10.926
▁хороонд	-10.926
▁баялгий	-10.9262
▁Оюутан	-10.9263
▁Бурхны	-10.9264
бичгийг	-10.9266
▁эзэлдэг	-10.9269
▁шийддэг	-10.9275
▁Уучлаарай	-10.9278
▁зүйрлэ	-10.928
▁Алдарт	-10.9282
▁урамшуулл	-10.93
▁буулгаж	-10.9305
▁дутагдалтай	-10.9307
wa	-10.9312
▁өгүүлсэн	-10.9313
▁давах	-10.9317
log	-10.9323
▁уйтгар	-10.9326
▁арчилгаа	-10.9326
▁холбож	-10.9326
▁хувцсаа	-10.9327
▁нөхөрлөл	-10.9327
рөнхий	-10.9329
AP	-10.9329
▁салшгүй	-10.933
▁зорилгоо	-10.933
Хятад	-10.9332
▁оршиж	-10.9339
▁сонирхуул	-10.934
▁өвчлөл	-10.9348
SA	-10.9352
IS	-10.9353
▁сонсогдож	-10.9366
ӨВ	-10.9373
▁эмэгтэйчүүдэд	-10.9375
▁цуглуулга	-10.9376
пе	-10.938
▁Про	-10.9393
▁Гишүүд	-10.9396
▁огцрох	-10.9396
▁робот	-10.9396
▁comment	-10.9396
▁Байнгын	-10.9396
▁зуслан	-10.9396
▁Умард	-10.9397
▁бодоогүй	-10.9397
▁байцаалт	-10.9401
▁хориглоно	-10.9402
▁Яахав	-10.9404
▁pre	-10.9405
▁хаагчдын	-10.9412
▁порт	-10.9413
▁тулалд	-10.9415
▁хугар	-10.9416
▁захиалах	-10.9416
улаан	-10.9417
=	-10.943
▁хилэн	-10.9441
САН	-10.945
▁үүргийн	-10.9453
▁Сүм	-10.9455
▁Хөтөлбөр	-10.9467
▁шалтгаалан	-10.9467
Батзандан	-10.9467
▁МУИС	-10.9467
▁шахалт	-10.9469
▁шүүмжилж	-10.9469
▁Фото	-10.9469
▁үнэмшил	-10.947
▁Хурдан	-10.9474
▁санаачилга	-10.9475
▁чөлөөлөгд	-10.9483
▁Шөн	-10.9492
▁гээл	-10.9492
▁авъя	-10.9499
▁Вашингтон	-10.9538
▁коммунист	-10.9538
▁Нэмэлт	-10.9539
▁хужаа	-10.9539
▁хөтлөх	-10.9541
▁үүсдэг	-10.9541
▁Бүтэн	-10.9542
▁өвдөх	-10.9542
▁зөрчлий	-10.9544
▁шийдлээ	-10.9545
Хоёр	-10.9545
Хамгийн	-10.9545
▁шивээс	-10.9546
▁зэвсгий	-10.9547
str	-10.9548
▁ахиу	-10.9548
▁шинэчилсэн	-10.955
▁сурагчдын	-10.9551
▁хорлох	-10.9554
▁хоолонд	-10.9562
▁Петр	-10.9564
sc	-10.9567
▁хальс	-10.957
▁илгээж	-10.9571
▁болчихдог	-10.9572
▁ичих	-10.9578
▁орууллаа	-10.9582
▁багтдаг	-10.9584
▁Эгч	-10.9594
▁журмаар	-10.9609
▁түрээслүүлнэ	-10.9609
▁1992	-10.9609
▁захирагч	-10.9609
▁Эртний	-10.961
▁тайзан	-10.961
▁Ноён	-10.9612
▁ядарсан	-10.9614
▁доогуур	-10.9614
▁нэмээд	-10.9623
▁эргүүлэн	-10.963
▁тархины	-10.9638
▁дууссаны	-10.9639
▁үеийнхэн	-10.9664
▁үдэш	-10.9677
▁хувиа	-10.9678
▁Асуудал	-10.9681
▁Порно	-10.9681
▁шүүлтүүр	-10.9681
▁Төслийн	-10.9681
▁чадамж	-10.9682
▁тэргүүлэгч	-10.9683
▁ээжийгээ	-10.9684
▁зэрэгцэн	-10.9687
ТАЙ	-10.9688
▁бохирдлы	-10.9691
▁алдагдсан	-10.9693
Эрүүл	-10.9694
▁ядах	-10.9697
▁хамгаална	-10.9697
▁авбал	-10.9698
Ийм	-10.9699
we	-10.9702
▁Сонин	-10.9706
▁махан	-10.9708
▁тохиолдлы	-10.9712
▁бөөнөөр	-10.9721
▁ойлголттой	-10.9724
▁тоглолтонд	-10.9737
▁хэрэглээнд	-10.9738
▁пара	-10.9738
▁сургалтанд	-10.9741
▁өгүүлэх	-10.9743
шинэ	-10.9746
▁тоохгүй	-10.9749
î	-10.9754
▁Previous	-10.9754
▁Чингэлтэй	-10.9754
▁паспорт	-10.9754
▁өнгөрлөө	-10.9754
▁Дасгал	-10.9754
▁төслөө	-10.9754
▁ТББ	-10.9754
▁Үлдсэн	-10.9756
▁авъяас	-10.9757
▁хүлээгээд	-10.9757
▁хивс	-10.9766
▁амьдарна	-10.9769
▁танилцууллаа	-10.9784
▁академи	-10.9827
▁өнөөдрөөс	-10.9827
▁цуцлах	-10.9827
▁хурдацтай	-10.9827
▁нийлүүлэх	-10.9827
▁тохиролцоо	-10.9827
▁багууд	-10.9827
▁Оюутнууд	-10.9828
▁рок	-10.9829
▁эдлэл	-10.9829
▁үйлдвэрлэдэг	-10.9832
▁ZA	-10.9832
▁Тамхи	-10.9832
▁төлнө	-10.9833
▁1980	-10.9837
▁хавтан	-10.984
▁ялагч	-10.9844
▁аргачлал	-10.9849
▁олборло	-10.9856
ГИЙН	-10.9861
▁яамнаас	-10.9861
▁Ухаан	-10.9864
▁навч	-10.9876
▁гүйцэтгэгч	-10.9886
ah	-10.9895
han	-10.9896
▁Хулгай	-10.99
▁тайлагна	-10.99
▁ерөөл	-10.9902
▁онцлон	-10.9903
▁гүрэн	-10.9905
▁гишгэ	-10.9905
▁анзаарсан	-10.9907
Өвлийн	-10.9911
▁May	-10.9915
Эрдэн	-10.992
▁орлоготой	-10.9922
▁тусалсан	-10.9925
өндөө	-10.9929
▁Лив	-10.9934
▁залги	-10.9936
▁үндс	-10.9943
▁жиргэ	-10.9946
▁хангагд	-10.9966
▁Филиппин	-10.9974
▁нойтон	-10.9974
▁франц	-10.9974
▁зориулалтаар	-10.9974
▁баталгаажуулах	-10.9974
▁мөрийтэй	-10.9974
▁амьсгаа	-10.9975
▁линк	-10.9975
▁дуулиан	-10.9976
▁нөхцлий	-10.9976
▁дэвшиж	-10.9978
▁дуусаагүй	-10.9983
▁нотло	-10.9983
Сүүлийн	-10.9985
ock	-10.9988
▁тоглоомууд	-10.9988
▁тэгэж	-10.9995
▁Нэгдүгээр	-10.9996
мор	-10.9996
Хурц	-10.9999
▁Бари	-11.0004
гдсөн	-11.0005
▁дуулдаг	-11.0012
▁бичгээр	-11.0013
▁Кол	-11.0022
▁байгал	-11.0024
▁оролдох	-11.0026
▁Коронавирус	-11.0049
▁ХӨСҮТ	-11.0049
▁генерал	-11.0049
▁XNUMX	-11.0049
▁үүсээд	-11.005
▁үнэлдэг	-11.005
▁сонирхогч	-11.0051
▁сонирхлын	-11.0059
▁хүртэж	-11.0059
▁үүсгэсэн	-11.0066
▁өнгөрүүлсэн	-11.007
▁2001	-11.0072
▁начин	-11.0079
MA	-11.0079
▁хятадууд	-11.008
ike	-11.008
▁будалт	-11.008
Мянга	-11.0085
▁хялбархан	-11.0085
line	-11.011
▁медал	-11.0117
▁агуулгыг	-11.0124
▁Сөүл	-11.0124
рваннэгдүгээр	-11.0124
▁мэргэшсэн	-11.0124
▁ЭМЯ	-11.0124
▁ахиц	-11.0124
▁тулгардаг	-11.0124
▁суудлын	-11.0124
▁хомсдол	-11.0124
▁гуравдагч	-11.0125
▁өмсөгч	-11.0125
▁диск	-11.0126
▁Алхам	-11.0127
чихэж	-11.0131
▁кинонууд	-11.0132
▁улмаар	-11.0132
▁түшиг	-11.0135
▁хүсээд	-11.0135
▁хамаатан	-11.0136
▁үйлдвэрлэж	-11.0136
▁харагдаад	-11.0146
ER	-11.0147
▁шүдний	-11.0147
▁ооо	-11.0175
▁Евро	-11.0195
Є	-11.02
рванхоёрдугаар	-11.02
▁практик	-11.02
next	-11.02
▁дотуур	-11.02
Хүрэлбаатар	-11.02
▁өвөг	-11.02
▁Гүн	-11.0201
▁хэлэлцэнэ	-11.0203
▁асуугаад	-11.0207
▁өмссөн	-11.0208
▁тогтооно	-11.0212
▁суга	-11.0214
▁аяллын	-11.0217
▁зохиосон	-11.0219
▁солилцоо	-11.0222
▁амласан	-11.0229
▁нэвтэрч	-11.023
▁олдох	-11.0237
▁заль	-11.0251
▁роман	-11.0275
▁Түлхүүр	-11.0276
▁философи	-11.0276
▁онгойлго	-11.0276
▁сэтгэгдлээ	-11.0276
▁анагаах	-11.0276
▁post	-11.0276
▁хэлтсийн	-11.0276
▁өөдрөг	-11.0277
Дэлгэр	-11.0278
▁эвсэл	-11.0283
▁by	-11.0296
▁хэмжээнээс	-11.0296
▁санагдлаа	-11.0297
▁бүлээрээ	-11.0304
ендер	-11.0304
▁тогтоогд	-11.0312
Fi	-11.0323
ial	-11.0325
▁тамга	-11.0332
▁Tr	-11.035
▁өнцгөөс	-11.0353
▁бэлчээр	-11.0353
▁нийгмийг	-11.0353
▁дулаахан	-11.0353
▁Хожим	-11.0353
▁чадлы	-11.0354
▁зориуд	-11.0355
▁Италийн	-11.0356
Хүмүүс	-11.0366
▁шилжсэн	-11.037
▁хуралдаж	-11.0385
▁гэрлэсэн	-11.0387
▁шууданг	-11.0393
▁Чой	-11.0403
▁Мари	-11.0404
▁энерг	-11.0405
▁этгээдүүд	-11.0406
▁сонирхох	-11.0411
▁хохироо	-11.0426
▁бөмбөлөг	-11.043
▁өгөгдлийг	-11.043
▁нөлөөлнө	-11.0431
▁толбо	-11.0431
▁авлигын	-11.0431
▁Баримт	-11.0431
▁шалтаг	-11.0431
▁Гэгээн	-11.0431
▁анкет	-11.0432
▁айхтар	-11.0434
▁Америкчууд	-11.0438
▁зайлуулах	-11.0439
Дөнгөж	-11.044
Тэгэхээр	-11.0444
▁тэмдэглэгээ	-11.0447
▁малчид	-11.0464
▁барилдах	-11.0482
▁Бэлг	-11.0482
▁батлуул	-11.0484
▁Ираны	-11.0499
▁Стандарт	-11.0509
▁бооцоо	-11.0509
▁дижитал	-11.0509
▁хоцрогд	-11.0509
▁сэтгэхүй	-11.0509
▁сувилагч	-11.0509
▁сөргөө	-11.0509
▁Завхан	-11.0509
ЖИЛ	-11.0509
▁золго	-11.051
▁шимтгэл	-11.051
▁бүтээгдэхүүнүүд	-11.0514
▁хойноос	-11.0517
▁ямаа	-11.0517
▁бүртгэх	-11.0517
▁такси	-11.0525
▁дотооддоо	-11.0527
▁үйлчлүүлэгчид	-11.0527
▁эсэргүүцэл	-11.0527
int	-11.0528
▁гэгээр	-11.0531
ash	-11.0536
▁бахархдаг	-11.0536
69	-11.0542
▁сэтгүүлчид	-11.0545
65	-11.0548
old	-11.0551
▁Гүй	-11.0552
₮	-11.0587
▁Ертөнц	-11.0587
▁Техник	-11.0587
▁шудрага	-11.0587
▁Өсвөр	-11.0587
▁тайвшруул	-11.0587
▁Женко	-11.0587
▁Салбар	-11.0587
▁мөрөөдлөө	-11.0588
▁ингэснээр	-11.0589
▁зайлсхий	-11.0591
▁тээрэмдэх	-11.0594
▁урамшуул	-11.0597
▁хайгаад	-11.0598
▁суугчид	-11.0602
▁эзэл	-11.0604
▁угсаа	-11.0611
▁баасан	-11.062
▁албаныхан	-11.0622
▁өөрчлөлтүүд	-11.0623
US	-11.0642
▁дэлгэрүүл	-11.0646
▁хэрэлд	-11.0655
▁байсны	-11.0657
RA	-11.0657
2017	-11.0663
▁капитал	-11.0667
▁физик	-11.0667
▁график	-11.0667
▁томьёо	-11.0667
▁Хэсэг	-11.0667
▁атлаа	-11.0668
▁үдэшлэг	-11.0671
▁сонсогч	-11.0671
▁1996	-11.0673
▁өмсдөг	-11.0673
▁үзэмж	-11.0674
▁Хатуу	-11.0674
▁илэрхийлье	-11.0675
▁улстөрчид	-11.0684
▁төсөөлөл	-11.069
con	-11.0695
▁дамжуулагч	-11.0703
▁2002	-11.0711
▁америкчууд	-11.0717
▁шатахуун	-11.0718
▁илрүүлэх	-11.0738
▁Ar	-11.0744
▁градус	-11.0747
▁аятайхан	-11.0747
▁Автобус	-11.0747
▁албыг	-11.0747
▁Хяналт	-11.0747
▁хуулинд	-11.0747
▁парк	-11.0747
▁голомт	-11.0747
▁өнгөөр	-11.0749
▁заадаг	-11.075
▁алдалгүй	-11.0754
▁нэмэгдүүлж	-11.0755
▁Тэгэхгүй	-11.0756
▁мэдэгдэв	-11.0756
▁бокс	-11.0758
▁оросууд	-11.0759
▁оруулагчид	-11.0761
▁дамжи	-11.0762
Гэхдээ	-11.0763
▁баярласан	-11.0765
▁Архив	-11.0766
▁хэрэгжүүлсэн	-11.0774
TE	-11.0795
▁авсны	-11.0805
▁Жааха	-11.081
гїй	-11.0826
▁Хугацаа	-11.0827
▁бүдүүлэг	-11.0827
▁хариуцлагыг	-11.0827
▁хүмүүн	-11.0827
️	-11.0827
▁Онгоц	-11.0827
▁гадаргуу	-11.0827
▁тарьж	-11.0827
▁догол	-11.0829
nder	-11.0829
▁эргэцүүл	-11.083
▁зорилтот	-11.0831
ууштай	-11.0832
▁бардам	-11.0832
▁явагдана	-11.0833
▁бодъё	-11.0833
▁хийснээр	-11.0835
▁өнгийг	-11.0836
net	-11.0837
]]	-11.0846
▁команд	-11.0848
▁эртнээс	-11.0856
▁чадварлаг	-11.0861
▁шийджээ	-11.0862
▁өөдөөс	-11.0873
▁үйлдвэрүүд	-11.0879
▁элсэлт	-11.088
▁номонд	-11.0896
▁удирдан	-11.0902
▁ахмадууд	-11.0906
агтун	-11.0907
Хөдөлмөр	-11.0908
▁мэндчилгээ	-11.0909
▁тайвшир	-11.0909
▁өвдөж	-11.0909
▁орлогыг	-11.0909
▁далбаа	-11.0909
▁сонсгол	-11.091
▁Янз	-11.091
Хүүхдийг	-11.091
▁эргэлзэж	-11.0911
▁зориулалтын	-11.0911
▁элсэх	-11.0913
▁гүйцэтгэнэ	-11.0913
▁төмс	-11.0914
▁сангаас	-11.0915
▁Ингэ	-11.0915
▁хөнөөсөн	-11.0915
▁1999	-11.0916
▁судлалын	-11.0917
▁аялгуу	-11.0918
▁хэвшил	-11.0921
▁төгсөөд	-11.0923
▁орчихсон	-11.0926
▁урилга	-11.0931
▁тойрсон	-11.0937
MS	-11.0937
▁математик	-11.0991
RMED	-11.0991
▁Microsoft	-11.0991
▁Мэргэжил	-11.0991
▁Парламент	-11.0991
▁Амралтын	-11.0991
▁микро	-11.0991
▁гүрний	-11.0991
▁шалгарсан	-11.0991
▁тооцогддог	-11.0992
▁хамаардаг	-11.0992
▁Хааяа	-11.0993
▁Нигер	-11.0993
▁гэдгээрээ	-11.1001
▁Чуулган	-11.1007
▁хамгааллын	-11.1007
▁хэлэлцсэн	-11.1016
▁сүүлчээ	-11.1017
▁уулзана	-11.1024
▁төсвий	-11.1025
▁асуулг	-11.1025
▁оролцуулах	-11.1045
▁төвөг	-11.1046
▁Зуун	-11.1064
▁хөдлө	-11.1068
▁аймшигт	-11.1069
▁наалд	-11.1072
▁өмгөөл	-11.1073
▁Гагцхүү	-11.1073
▁Найрамдах	-11.1073
▁түгжрэл	-11.1073
▁хаалгыг	-11.1073
▁Бусдыг	-11.1073
▁мөрөөдөж	-11.1073
▁удирдамж	-11.1073
▁сүйтгэ	-11.1073
▁хандлагыг	-11.1073
▁хэрэгслээр	-11.1073
▁учрах	-11.1074
▁ялгаварла	-11.1074
▁өрсөлдөж	-11.1075
ектор	-11.1079
▁баригдаж	-11.1086
▁тахиа	-11.1087
▁иргэншил	-11.1088
▁цаашдын	-11.1092
▁амьдраад	-11.1092
▁гаргаагүй	-11.1098
▁шатахууны	-11.1103
▁Тохи	-11.112
▁Кен	-11.1125
▁шивнэ	-11.1142
▁Вьетнам	-11.1157
▁Израйл	-11.1157
COVID	-11.1157
▁хобби	-11.1157
▁аваргын	-11.1157
▁өртөж	-11.1157
▁Time	-11.1157
▁сайшаа	-11.1159
▁Уурхай	-11.1159
▁харъяа	-11.1162
▁тогтоогдсон	-11.1163
▁эрэгтэйчүүд	-11.1166
▁оролцогчид	-11.1171
▁шууги	-11.1171
▁төсөөлөх	-11.1173
өгдөх	-11.1174
Өмнө	-11.1176
ies	-11.118
▁дэвшигчид	-11.1181
▁Хажуу	-11.1182
ave	-11.1201
мөнх	-11.124
▁бэхжүүлэх	-11.124
ҕ	-11.1241
ҥ	-11.1241
▁Калифорни	-11.1241
▁Хөгжим	-11.1241
▁хүргүүлсэн	-11.1241
▁агшин	-11.1241
▁Цэцэг	-11.1241
▁Өмнөговь	-11.1242
▁үзүүлбэр	-11.1243
▁сэхээ	-11.1244
▁бөгс	-11.1245
▁нөхөж	-11.1246
▁шилжиж	-11.1247
▁хүүхэлдэй	-11.1247
▁хорхой	-11.1247
▁болчихож	-11.1248
▁үлддэг	-11.1251
▁тєр	-11.1252
▁хүргэлт	-11.1253
▁Өвөл	-11.1256
▁тооцно	-11.1256
▁хамруулах	-11.1296
▁хуй	-11.1301
▁сэрэмж	-11.1305
▁сагсан	-11.131
яцхан	-11.1321
▁Зөвлөгөө	-11.1325
▁Говь	-11.1325
▁Уулзалт	-11.1326
▁хонгил	-11.1326
▁баримталдаг	-11.1326
▁Райли	-11.1328
▁найрсаг	-11.1329
▁түүгээр	-11.1333
▁дэвшүүлэх	-11.1333
▁маргалд	-11.1334
▁Хүсэл	-11.1339
АЖ	-11.1339
▁Буян	-11.134
▁Доорх	-11.134
Өнгөрсөн	-11.1346
port	-11.1346
Хэрвээ	-11.1346
Улаанбаатар	-11.1347
▁Адам	-11.135
▁тооцоолж	-11.1352
▁мэдлийг	-11.1354
▁үхлийн	-11.1356
day	-11.136
ИЙГ	-11.1361
▁захиалгы	-11.1373
▁Барууны	-11.1388
ахааргүй	-11.1401
▁Телевиз	-11.1411
°	-11.1411
▁тааламжтай	-11.1411
▁шүршигч	-11.1411
▁НИТХ	-11.1411
▁Ардчилал	-11.1411
▁СЕХ	-11.1411
▁гөлөг	-11.1411
▁бүжгийн	-11.1411
▁наадмыг	-11.1411
▁олоогүй	-11.1412
▁товчлуур	-11.1412
▁Чех	-11.1412
0.000	-11.1412
▁эзэмшиж	-11.1413
▁Бүртгэл	-11.1414
▁санамж	-11.1415
▁Хурим	-11.1423
▁бурхны	-11.1433
▁өндөрлөг	-11.1436
▁Jun	-11.1441
засварлах	-11.1441
▁цэгүүд	-11.1448
▁жингээ	-11.145
▁залбирал	-11.1461
▁задар	-11.1468
элбэл	-11.1475
▁үзүүлэлтүүд	-11.1492
▁хүчирхийллий	-11.1497
▁эелдэг	-11.1497
▁start	-11.1497
▁тохижуул	-11.1497
▁ээээээ	-11.1499
▁хичээгээрэй	-11.1499
▁гаалийн	-11.1499
▁мини	-11.15
▁сонгогчдын	-11.1502
▁завсарлага	-11.1503
▁Үйлдвэрлэл	-11.1504
▁морины	-11.1504
▁1998	-11.1504
▁тусгаж	-11.1506
▁Ганцаараа	-11.1506
▁мартаарай	-11.1508
▁анхааруулж	-11.1508
▁сонгогдох	-11.1513
ana	-11.1521
▁хэсгээр	-11.1521
Хайр	-11.1521
▁хаячих	-11.1532
Харин	-11.1533
▁орчуулга	-11.1565
▁дөрв	-11.1583
▁Дэлгүүр	-11.1584
▁Хувцас	-11.1584
▁уялдаа	-11.1584
▁хуримтлал	-11.1584
▁мөргөлдөөн	-11.1585
▁Чанар	-11.1585
▁торгууль	-11.159
▁байгуулагдаж	-11.1593
▁эргэлз	-11.1599
▁шахам	-11.1609
▁Итгэ	-11.1612
▁Хоёрдугаар	-11.1622
▁Харилцаа	-11.1626
▁Харилца	-11.163
▁гомдлы	-11.1644
ЕР	-11.1645
▁идэвхжүүл	-11.1671
▁фракц	-11.1672
▁эрмэлзэл	-11.1672
▁Үйлчлүүлэгч	-11.1672
▁Автомашин	-11.1672
▁Сонирхолтой	-11.1672
▁бүтцийг	-11.1672
▁механик	-11.1672
▁алуурчин	-11.1672
▁үргэлжилсээр	-11.1672
▁араншин	-11.1672
▁Удалгүй	-11.1672
▁эрэмбэ	-11.1672
▁хахаха	-11.1672
▁Жорж	-11.1673
▁ойлгоогүй	-11.1673
▁Дотор	-11.1673
▁дангаараа	-11.1674
▁захирагд	-11.1678
▁бичээрэй	-11.168
▁ирээрэй	-11.1686
▁Украины	-11.1689
▁жуулчлал	-11.1703
▁нутгаа	-11.1713
▁таамаг	-11.1728
▁Android	-11.176
▁огноо	-11.176
▁баавгай	-11.176
▁зарчмын	-11.176
▁өшөө	-11.176
▁Гудамж	-11.176
▁содон	-11.1761
▁харгис	-11.1761
▁романтик	-11.1761
▁утсы	-11.1762
▁нярай	-11.1763
▁тохиолдлууд	-11.1764
▁сайжирч	-11.1764
▁итгэгч	-11.1764
▁бүртгэж	-11.1767
▁хошин	-11.1769
▁баярладаг	-11.1769
▁Насанд	-11.177
▁нөхөх	-11.1776
єнгє	-11.1776
▁хичээллэж	-11.1778
▁цутга	-11.1782
▁тавиул	-11.1784
▁үзүүлэгч	-11.1788
▁хэргүүд	-11.1793
▁Төрсөн	-11.1794
эмнэл	-11.1813
▁морин	-11.1844
▁конвенц	-11.185
▁металл	-11.185
▁өчнөөн	-11.185
▁УОК	-11.185
▁ногдол	-11.185
▁хуулиуд	-11.185
▁индекс	-11.185
▁Асуудлы	-11.185
▁мөрөөддөг	-11.185
▁нисдэг	-11.185
▁лекц	-11.185
▁Давхар	-11.1852
▁зэвүүн	-11.1852
▁морилно	-11.1852
▁Read	-11.1853
▁жорлон	-11.1853
▁dur	-11.1853
▁пост	-11.1854
▁илэрхий	-11.1855
▁Сауд	-11.1856
▁III	-11.1857
▁шүүмжлэх	-11.1859
▁жүжигчид	-11.186
▁цэвэршүүл	-11.1868
Ерөнхийлөгч	-11.1875
▁огцруул	-11.1906
ake	-11.191
ТЭЙ	-11.194
▁Ухаалаг	-11.194
▁блок	-11.194
▁нандин	-11.194
▁өртөх	-11.194
▁аажмаар	-11.194
▁Галзуу	-11.194
▁лавлагаа	-11.194
▁лидер	-11.1941
▁Шүүгч	-11.1942
▁төрлөөр	-11.1942
▁саарал	-11.1943
▁Худлаа	-11.1945
▁хариуцах	-11.1947
▁Шилэн	-11.1951
▁анхнаасаа	-11.1952
▁хамрагдаж	-11.1952
▁шийдлийг	-11.1952
▁гэсээр	-11.1954
▁баримталж	-11.1954
▁онгон	-11.1957
▁садан	-11.1957
▁сагс	-11.1967
!!!!!!	-11.1973
▁сэрэх	-11.1973
▁угаагч	-11.1979
▁хэвлүүл	-11.1994
▁Өөрчлө	-11.2001
▁Хонконг	-11.2031
▁Шийдвэр	-11.2031
▁цемент	-11.2031
▁тохижилт	-11.2031
▁цэврийн	-11.2031
▁ерөөе	-11.2031
▁Баабар	-11.2031
▁гэдсээр	-11.2031
▁Ирланд	-11.2031
▁ногдуул	-11.2031
▁бетон	-11.2031
▁Удаан	-11.2032
▁бөгж	-11.2032
▁мастер	-11.2033
▁мухар	-11.2033
▁бодогч	-11.2034
▁голдуу	-11.2035
▁Товч	-11.2037
▁Ene	-11.204
▁ашиглалтанд	-11.204
▁хүндэлдэг	-11.2042
▁ахиж	-11.2045
▁дэмжээд	-11.2046
Засгийн	-11.2058
▁нийлүүлэлт	-11.208
▁боловсруулалт	-11.2088
▁зэмлэ	-11.2115
▁Нийтлэл	-11.2116
▁Улстөр	-11.2119
Мягмар	-11.2122
▁Гайхалтай	-11.2122
▁Систем	-11.2122
▁баатрууд	-11.2122
▁найрамдах	-11.2122
▁үймээн	-11.2122
▁ноолуур	-11.2122
▁Бусдад	-11.2122
▁гүйцэд	-11.2122
▁амьтдын	-11.2122
▁эцгийн	-11.2123
▁Буриад	-11.2123
▁халбага	-11.2124
▁амжсан	-11.2125
▁ёсондоо	-11.2126
▁[[	-11.2126
▁Хүчит	-11.2126
▁хуримтлагд	-11.2128
▁томилогдсон	-11.2132
▁орлогч	-11.2132
▁олголт	-11.2133
▁ичээ	-11.2144
▁you	-11.2179
▁Шалга	-11.2193
←	-11.2215
▁Төлөвлө	-11.2215
Тэмүүжин	-11.2215
▁үйлдлүүд	-11.2215
▁нөхрийг	-11.2216
▁онцолсон	-11.2216
▁хүртээл	-11.2216
▁гүйцээ	-11.2216
▁хослол	-11.2221
▁баривчлаг	-11.2224
▁Бүгдээрээ	-11.2225
▁бодоорой	-11.2225
▁дадал	-11.2227
▁дээрэмд	-11.2287
▁Com	-11.2292
Энхтүвшин	-11.2308
▁мунхаг	-11.2308
▁Үзэсгэлэн	-11.2308
▁хавсралт	-11.2308
{	-11.2308
▁үлдэгдэл	-11.2308
▁Майкл	-11.2308
▁Хүссэн	-11.2308
▁арчаагүй	-11.2309
▁тодорхойлдог	-11.2309
▁Бичлэг	-11.2309
▁өртөө	-11.2312
▁бутлагч	-11.2313
▁Барилга	-11.2314
▁халаалт	-11.2323
▁гаргачих	-11.2349
▁хэвлий	-11.2382
▁Гүйцэтгэх	-11.2403
▁Налайх	-11.2403
▁формат	-11.2403
▁хариуцлагын	-11.2403
▁гэгддэг	-11.2403
▁довтло	-11.2403
▁горьд	-11.2403
▁бүдүүн	-11.2403
▁өвдсөн	-11.2403
▁Түүгээр	-11.2403
▁туслаач	-11.2404
▁эхэлснээс	-11.2404
▁сурталчлах	-11.2405
▁аавыгаа	-11.2405
▁Хурлын	-11.2418
Солонго	-11.2421
Оргил	-11.2424
▁заалга	-11.245
Энхсайхан	-11.2456
▁эцэслэн	-11.2466
өхрө	-11.2468
▁үнэмш	-11.2471
Дэлхий	-11.2481
▁Жаргал	-11.2482
өгдөж	-11.2484
▁Тархи	-11.2493
▁коллеж	-11.2498
▁Eguur	-11.2498
▁Бүтээгдэхүүний	-11.2498
▁Жирэмсэн	-11.2498
▁нухацтай	-11.2498
▁Ихэвчлэн	-11.2498
▁тарьсан	-11.2498
▁зузаан	-11.2498
▁ойртож	-11.2498
▁хуучир	-11.2498
▁задгай	-11.2498
▁зардлын	-11.2498
▁толилуул	-11.2499
▁сайхнаа	-11.25
▁нөлөөлөл	-11.2503
▁няцаа	-11.2503
▁гаргагч	-11.2505
▁товчхон	-11.2511
Бүтэ	-11.2513
▁дууриа	-11.2515
▁байгуулагдах	-11.2516
▁зурган	-11.2516
Сайханбилэг	-11.2522
▁ухамсарла	-11.2557
1.2	-11.256
▁МОНГОЛ	-11.2594
▁террорист	-11.2594
▁давамгай	-11.2594
▁Шуурхай	-11.2594
▁Ковид	-11.2594
▁Хорвоо	-11.2594
▁хуудсаар	-11.2594
▁хуйвалд	-11.2595
▁нэгдмэл	-11.2596
▁уншигчдад	-11.2597
▁төгсөгч	-11.2599
▁хакер	-11.26
▁багтаамж	-11.2601
▁босож	-11.2602
▁Жирийн	-11.2602
▁анхаараарай	-11.2605
▁тулгарах	-11.2615
Амьдрал	-11.2626
Баян	-11.2627
▁Паул	-11.2628
▁мартагд	-11.2643
гтун	-11.2647
тугай	-11.2651
▁төлөөлөгчдий	-11.2687
Тогтвортой	-11.2691
▁Индонез	-11.2691
▁давтамж	-11.2691
▁Баянгол	-11.2691
▁тулгарсан	-11.2692
▁бүтцэ	-11.2694
▁давалгаа	-11.2696
▁болтлоо	-11.2697
▁Хэдхэн	-11.2697
▁банкинд	-11.2698
▁ичиж	-11.2699
▁Тамгы	-11.27
▁орчноо	-11.271
Ганхуяг	-11.2723
Мэдээж	-11.2725
▁ятга	-11.2744
эрхэг	-11.2773
▁диплом	-11.2787
▁Дашрамд	-11.2789
▁зорилгыг	-11.2789
▁профессор	-11.2789
▁нэрэмжит	-11.2789
олливуд	-11.2789
▁хөвгүүн	-11.2789
▁ДНБ	-11.2789
▁эрдэс	-11.279
▁судас	-11.2791
хуяг	-11.2793
▁харилцаж	-11.2794
▁цочир	-11.2796
Өлзий	-11.2802
Үнэн	-11.2846
à	-11.2888
▁бямба	-11.2888
▁бүрмөсөн	-11.2888
▁реклам	-11.2888
▁сайжирсан	-11.2888
▁Өвөрхангай	-11.2888
▁Казино	-11.2888
▁зарчмаар	-11.2888
▁Удирдах	-11.2888
Номтойбаяр	-11.2888
▁дурдахад	-11.2888
▁яригдах	-11.2889
▁ургац	-11.2889
▁торгуул	-11.2889
▁магтаал	-11.2891
▁болзол	-11.2892
▁ирмэг	-11.2896
▁ойлгогдо	-11.2896
▁хожих	-11.2902
▁нугал	-11.2907
▁барилгы	-11.2919
Нийгэм	-11.2924
▁лаборатори	-11.2931
▁бүрэлд	-11.2938
▁сэтгэлзүй	-11.2967
АШТ	-11.2984
этэрхий	-11.2984
▁амьжиргаа	-11.2988
▁африк	-11.2988
▁шоколад	-11.2988
▁өгөгдлийн	-11.2988
▁хавтгай	-11.2988
▁БЗД	-11.2988
▁Бэлэн	-11.2989
New	-11.2989
▁(2)	-11.2989
▁хөтлөгч	-11.2989
▁Хувьцаа	-11.2991
▁ололт	-11.2991
▁сүйд	-11.2991
▁хонгор	-11.2991
▁Үнийн	-11.2993
▁хаанчлал	-11.2994
▁ийш	-11.3024
▁Төлөөлөгч	-11.3089
▁SEO	-11.3089
▁Танилц	-11.3089
▁Одоохондоо	-11.3089
▁илэрдэг	-11.3089
▁хариуцаж	-11.3089
▁ивээн	-11.309
▁Салхи	-11.3091
▁хурандаа	-11.3097
▁сахилга	-11.3098
Ойлго	-11.3116
Эмэгтэй	-11.3127
▁буцаагаа	-11.3146
▁сонирхлоо	-11.3185
▁Венесуэл	-11.3191
▁баримжаа	-11.3191
▁кампани	-11.3191
▁электрон	-11.3191
▁Нөгөөтэйгүүр	-11.3191
▁Төсөв	-11.3191
▁солиотой	-11.3191
▁эсхүл	-11.3191
▁конусан	-11.3191
▁түрэмгий	-11.3191
▁морил	-11.3191
▁туршлагыг	-11.3191
▁ТУЗ	-11.3192
▁чансаа	-11.3192
▁бэлдмэл	-11.3195
▁даатга	-11.3195
Сумъяа	-11.3202
▁байршлы	-11.3211
Гадаад	-11.323
▁түншлэл	-11.3269
Баярсайхан	-11.3286
▁Дэлгэц	-11.3294
′	-11.3294
}	-11.3936
ý	-11.3936
q	-11.413
€	-11.4273
ü	-11.5232
@	-11.5422
¬	-11.5748
\	-11.6293
í	-11.6434
é	-11.6434
●	-11.6434
ә	-11.6576
ë	-11.7018
ñ	-11.7018
ѐ	-11.7479
¿	-11.7963
ò	-11.813
›	-11.8826
😀	-11.9008
â	-11.977
©	-11.997
(	-12.0318
Ъ	-12.0382
è	-12.0812
ã	-12.1035
Ѳ	-12.1035
ة	-12.1262
ك	-12.1495
❤	-12.1495
•	-12.1668
Í	-12.1977
®	-12.2483
ä	-12.2483
ð	-12.2746
́	-12.3016
√	-12.3294
£	-12.358
♥	-12.358
😉	-12.358
🎁	-12.3874
Ї	-12.3874
い	-12.4489
õ	-12.449
á	-12.4812
ا	-12.5145
ó	-12.549
Щ	-12.549
★	-12.5847
ᄏ	-12.5847
な	-12.6218
ö	-12.6602
ん	-12.6602
时	-12.7002
Џ	-12.7002
ѕ	-12.7002
م	-12.7002
ل	-12.7854
し	-12.7854
の	-12.8308
ў	-12.8308
・	-12.8308
|	-12.872
す	-12.8785
≤	-12.8785
☞	-12.8785
ي	-12.8785
×	-12.9285
ң	-12.9285
😍	-12.9811
🙏	-12.9811
ì	-13.0366
ā	-13.0366
і	-13.0366
⁄	-13.0366
μ	-13.0955
る	-13.0955
ま	-13.0955
÷	-13.0955
😭	-13.0955
Ø	-13.158
う	-13.158
😂	-13.158
😅	-13.158
Ќ	-13.158
て	-13.158
に	-13.2246
ر	-13.2246
🔥	-13.2246
😊	-13.2246
§	-13.2246
ћ	-13.2246
қ	-13.2246
이	-13.2246
≈	-13.2961
ï	-13.2961
ø	-13.2961
җ	-13.2961
ᅲ	-13.2961
】	-13.2961
名	-13.2961
ế	-13.2961
ら	-13.373
で	-13.373
û	-13.373
ن	-13.373
♪	-13.373
✿	-13.373
♦	-13.373
【	-13.373
そ	-13.373
ɵ	-13.4563
ќ	-13.4563
±	-13.4563
Ў	-13.4563
「	-13.4563
か	-13.4563
ç	-13.4563
歌	-13.4563
🏻	-13.5472
æ	-13.5472
ə	-13.5472
α	-13.5472
ع	-13.5472
あ	-13.5472
І	-13.5472
称	-13.5472
و	-13.5472
く	-13.5472
た	-13.5472
こ	-13.5472
요	-13.5472
曲	-13.5472
と	-13.6472
👏	-13.6472
」	-13.6472
よ	-13.6472
り	-13.6472
💵	-13.6472
¥	-13.6472
γ	-13.6472
د	-13.6472
れ	-13.6472
🤗	-13.6472
🤩	-13.6472
ー	-13.6472
‐	-13.7583
Õ	-13.7583
が	-13.7583
を	-13.7583
나	-13.7583
😦	-13.7583
。	-13.7583
は	-13.7583
ş	-13.7583
だ	-13.7583
国	-13.7583
ン	-13.8833
お	-13.8833
き	-13.8833
س	-13.8833
っ	-13.8833
Ü	-13.8833
š	-13.8833
†	-13.8833
−	-13.8833
ه	-13.8833
⋆	-13.8833
☈	-13.8833
♚	-13.8833
学	-13.8833
書	-13.8833
👍	-13.8833
📌	-13.8833
😢	-13.8833
Á	-13.8833
も	-13.8833
어	-13.8833
유	-13.8833
け	-14.0262
○	-14.0262
י	-14.0262
ר	-14.0262
☺	-14.0262
Ş	-14.0262
ɪ	-14.0262
ո	-14.0262
ف	-14.0262
ᄂ	-14.0262
◆	-14.0262
♡	-14.0262
¦	-14.0262
ƒ	-14.0262
Ћ	-14.0262
💯	-14.0262
日	-14.0262
기	-14.0262
리	-14.0262
ば	-14.0262
ル	-14.1928
つ	-14.1929
わ	-14.1929
会	-14.1929
時	-14.1929
ち	-14.1929
人	-14.1929
ұ	-14.1929
Ç	-14.1929
ˈ	-14.1929
β	-14.1929
א	-14.1929
ᠢ	-14.1929
✨	-14.1929
É	-14.1929
̷	-14.1929
ն	-14.1929
ی	-14.1929
ᄅ	-14.1929
≥	-14.1929
☆	-14.1929
楽	-14.1929
π	-14.1929
다	-14.1929
ι	-14.1929
ᠠ	-14.1929
니	-14.1929
せ	-14.1929
ư	-14.1929
ớ	-14.1929
、	-14.1929
め	-14.1929
→	-14.3864
ο	-14.3929
Ò	-14.3929
غ	-14.3929
路	-14.3929
մ	-14.3929
返	-14.3929
¤	-14.3929
ß	-14.3929
ґ	-14.3929
Һ	-14.3929
ա	-14.3929
ᠳ	-14.3929
―	-14.3929
‹	-14.3929
⃣	-14.3929
∞	-14.3929
◊	-14.3929
図	-14.3929
済	-14.3929
経	-14.3929
行	-14.3929
部	-14.3929
際	-14.3929
말	-14.3929
배	-14.3929
정	-14.3929
🔴	-14.3929
😁	-14.3929
😘	-14.3929
џ	-14.3929
ե	-14.3929
ط	-14.3929
ح	-14.3929
ご	-14.3929
사	-14.3929
지	-14.3929
하	-14.3929
서	-14.3929
じ	-14.3929
一	-14.3929
江	-14.3929
表	-14.3929
語	-14.6428
文	-14.6428
え	-14.6429
本	-14.6429
ω	-14.6429
Ñ	-14.6429
台	-14.6429
平	-14.6429
한	-14.6429
げ	-14.6429
Ë	-14.6429
Ý	-14.6429
ō	-14.6429
☻	-14.6429
대	-14.6429
비	-14.6429
원	-14.6429
ú	-14.6429
Ѕ	-14.6429
₩	-14.6429
🇷	-14.6429
ғ	-14.6429
ל	-14.6429
ค	-14.6429
᠋	-14.6429
▼	-14.6429
☛	-14.6429
ㄟ	-14.6429
間	-14.6429
영	-14.6429
제	-14.6429
😃	-14.6429
😆	-14.6429
😜	-14.6429
😝	-14.6429
🥳	-14.6429
😇	-14.6429
ق	-14.6429
ᠨ	-14.6429
ᠷ	-14.6429
月	-14.6429
내	-14.6429
아	-14.6429
À	-14.6429
İ	-14.6429
저	-14.6429
中	-14.6429
세	-14.6429
ひ	-14.9762
达	-14.9762
高	-14.9762
க	-14.9762
น	-14.9762
〓	-14.9762
ô	-14.9762
่	-14.9762
出	-14.9762
法	-14.9762
现	-14.9762
태	-14.9762
ѓ	-14.9762
Ð	-14.9762
Ӏ	-14.9762
ᴇ	-14.9762
는	-14.9762
Ā	-14.9762
ӧ	-14.9762
ӱ	-14.9762
우	-14.9762
주	-14.9762
︎	-14.9762
💰	-14.9762
Ä	-14.9762
å	-14.9762
č	-14.9762
ī	-14.9762
Œ	-14.9762
̀	-14.9762
Δ	-14.9762
ί	-14.9762
λ	-14.9762
ӈ	-14.9762
ӓ	-14.9762
տ	-14.9762
ք	-14.9762
נ	-14.9762
ע	-14.9762
أ	-14.9762
ง	-14.9762
ม	-14.9762
โ	-14.9762
ᠡ	-14.9762
ᠦ	-14.9762
ṭ	-14.9762
‖	-14.9762
∙	-14.9762
⚡	-14.9762
⚫	-14.9762
➢	-14.9762
⦁	-14.9762
み	-14.9762
や	-14.9762
キ	-14.9762
フ	-14.9762
下	-14.9762
我	-14.9762
版	-14.9762
音	-14.9762
경	-14.9762
구	-14.9762
뉴	-14.9762
라	-14.9762
로	-14.9762
법	-14.9762
부	-14.9762
수	-14.9762
신	-14.9762
야	-14.9762
의	-14.9762
인	-14.9762
자	-14.9762
함	-14.9762
해	-14.9762
현	-14.9762
횊	-14.9762
회	-14.9762
후	-14.9762
🌈	-14.9762
🍷	-14.9762
🏠	-14.9762
💚	-14.9762
💫	-14.9762
🤑	-14.9762
🤘	-14.9762
🤟	-14.9762
🤮	-14.9762
🥇	-14.9762
Ö	-14.9762
θ	-14.9762
ย	-14.9762
❗	-14.9762
👨	-14.9762
ê	-14.9762
ս	-14.9762
ى	-14.9762
ਰ	-14.9762
ḥ	-14.9762
《	-14.9762
》	-14.9762
ど	-14.9762
天	-14.9762
子	-14.9762
국	-14.9762
스	-14.9762
장	-14.9762
토	-14.9762
💜	-14.9762
티	-14.9762
ʀ	-14.9762
Ҥ	-14.9762
ش	-14.9762
シ	-14.9762
ナ	-14.9762
リ	-14.9762
上	-14.9762
信	-14.9762
的	-14.9762
오	-14.9762
ন	-14.9762
ゃ	-14.9762
自	-14.9762
通	-14.9762
世	-15.4761
紀	-15.4762
族	-15.4762
φ	-15.4762
မ	-15.4762
達	-15.4762
金	-15.4762
革	-15.4762
ū	-15.4762
͜	-15.4762
ี	-15.4762
န	-15.4762
း	-15.4762
图	-15.4762
水	-15.4762
ÿ	-15.4762
ก	-15.4762
ᠬ	-15.4762
ḍ	-15.4762
ṇ	-15.4762
コ	-15.4762
ブ	-15.4762
作	-15.4762
内	-15.4762
田	-15.4762
美	-15.4762
루	-15.4762
훈	-15.4762
🛫	-15.4762
Ґ	-15.4762
역	-15.4762
🇺	-15.4762
🌸	-15.4762
🔅	-15.4762
Æ	-15.4762
È	-15.4762
ć	-15.4762
đ	-15.4762
ė	-15.4762
Ł	-15.4762
ń	-15.4762
ś	-15.4762
ǿ	-15.4762
ɐ	-15.4762
ʜ	-15.4762
Ω	-15.4762
ε	-15.4762
κ	-15.4762
ν	-15.4762
ς	-15.4762
ј	-15.4762
њ	-15.4762
ҳ	-15.4762
ӣ	-15.4762
կ	-15.4762
ղ	-15.4762
ր	-15.4762
ג	-15.4762
ה	-15.4762
ו	-15.4762
خ	-15.4762
ذ	-15.4762
ص	-15.4762
ک	-15.4762
क	-15.4762
ल	-15.4762
ा	-15.4762
ਟ	-15.4762
ਪ	-15.4762
ซ	-15.4762
ด	-15.4762
ส	-15.4762
อ	-15.4762
ิ	-15.4762
เ	-15.4762
ใ	-15.4762
้	-15.4762
྆	-15.4762
့	-15.4762
ᄀ	-15.4762
ᠭ	-15.4762
ᠶ	-15.4762
ᵴ	-15.4762
ṅ	-15.4762
‣	-15.4762
₽	-15.4762
↔	-15.4762
⇨	-15.4762
∂	-15.4762
≠	-15.4762
⎪	-15.4762
█	-15.4762
□	-15.4762
▶	-15.4762
♠	-15.4762
⚽	-15.4762
✈	-15.4762
❀	-15.4762
❄	-15.4762
⠀	-15.4762
ぐ	-15.4762
ぶ	-15.4762
ゅ	-15.4762
ギ	-15.4762
サ	-15.4762
ソ	-15.4762
ャ	-15.4762
ㄨ	-15.4762
业	-15.4762
交	-15.4762
介	-15.4762
们	-15.4762
住	-15.4762
便	-15.4762
分	-15.4762
十	-15.4762
号	-15.4762
品	-15.4762
商	-15.4762
回	-15.4762
地	-15.4762
安	-15.4762
展	-15.4762
山	-15.4762
形	-15.4762
御	-15.4762
李	-15.4762
松	-15.4762
止	-15.4762
気	-15.4762
流	-15.4762
点	-15.4762
理	-15.4762
生	-15.4762
用	-15.4762
発	-15.4762
简	-15.4762
管	-15.4762
線	-15.4762
网	-15.4762
翻	-15.4762
者	-15.4762
解	-15.4762
証	-15.4762
話	-15.4762
誌	-15.4762
译	-15.4762
责	-15.4762
載	-15.4762
近	-15.4762
门	-15.4762
고	-15.4762
권	-15.4762
규	-15.4762
노	-15.4762
동	-15.4762
르	-15.4762
린	-15.4762
무	-15.4762
미	-15.4762
민	-15.4762
선	-15.4762
시	-15.4762
안	-15.4762
연	-15.4762
은	-15.4762
전	-15.4762
창	-15.4762
크	-15.4762
화	-15.4762
희	-15.4762
🌙	-15.4762
👀	-15.4762
👐	-15.4762
👷	-15.4762
💃	-15.4762
💅	-15.4762
💙	-15.4762
🔵	-15.4762
🔸	-15.4762
😋	-15.4762
😎	-15.4762
😓	-15.4762
😔	-15.4762
🙁	-15.4762
🙃	-15.4762
🤔	-15.4762
🤪	-15.4762
🥰	-15.4762
🥺	-15.4762
🦉	-15.4762
🦸	-15.4762
💁	-15.4762
ล	-15.4762
♏	-15.4762
仔	-15.4762
胡	-15.4762
예	-15.4762
是	-15.4762
ब	-15.4762
া	-15.4762
ਸ	-15.4762
ᠥ	-15.4762
♔	-15.4762
イ	-15.4762
ョ	-15.4762
南	-15.4762
皇	-15.4762
게	-15.4762
남	-15.4762
도	-15.4762
보	-15.4762
올	-15.4762
으	-15.4762
을	-15.4762
즈	-15.4762
트	-15.4762
🗃	-15.4762
너	-15.4762
🚫	-15.4762
ت	-15.4762
ু	-15.4762
ᠮ	-15.4762
ろ	-15.4762
ク	-15.4762
个	-15.4762
夢	-15.4762
言	-15.4762
身	-15.4762
통	-15.4762
🔌	-15.4762
্	-15.4762
초	-15.4762
ウ	-15.4762
代	-15.4762
🙌	-16.4643
🔶	-16.4644
🔑	-16.4645
📎	-16.4646
🎧	-16.4647
🌱	-16.4648
🇲	-16.4649
🇰	-16.465
튜	-16.4651
최	-16.4652
직	-16.4653
없	-16.4654
알	-16.4655
새	-16.4656
브	-16.4657
꧁	-16.4658
龙	-16.4659
黑	-16.466
麦	-16.4661
類	-16.4662
鈴	-16.4663
重	-16.4664
请	-16.4665
聲	-16.4666
社	-16.4667
曜	-16.4668
手	-16.4669
後	-16.467
変	-16.4671
基	-16.4672
団	-16.4673
合	-16.4674
ㄎ	-16.4675
ㄍ	-16.4676
ド	-16.4677
ダ	-16.4678
❼	-16.4679
❹	-16.468
❷	-16.4681
☹	-16.4682
│	-16.4683
⏱	-16.4684
∆	-16.4685
⇒	-16.4686
‰	-16.4687
ᆞ	-16.4688
ת	-16.4689
ב	-16.469
Ҳ	-16.4691
ρ	-16.4692
δ	-16.4693
̌	-16.4694
ˌ	-16.4695
ł	-16.4696
ğ	-16.4697
ĕ	-16.4698
Č	-16.4699
🚗	-16.47
🔰	-16.4701
🔬	-16.4702
👎	-16.4703
🎯	-16.4704
바	-16.4705
软	-16.4706
件	-16.4707
モ	-16.4708
ゴ	-16.4709
ざ	-16.471
☎	-16.4711
◦	-16.4712
ւ	-16.4713
σ	-16.4714
þ	-16.4715
📍	-16.4716
💥	-16.4717
💎	-16.4718
👩	-16.4719
🌟	-16.472
ょ	-16.4721
♂	-16.4722
ہ	-16.4723
ب	-16.4724
Ã	-16.4725
蒙	-16.4726
愛	-16.4727
古	-16.4728
♀	-16.4729
☀	-16.473
▲	-16.4731
김	-16.4732
さ	-16.4733
➡	-16.4734
➜	-16.4735
▪	-16.4736
¢	-16.4737
■	-16.4738
😱	-16.4739
✓	-16.474
↙	-16.4741
↓	-16.4742
🤣	-16.4743
👉	-16.4744
⭐	-16.4745
̈	-16.4746
彩	-16.4747
♫	-16.4748
※	-16.4749
̄	-16.475
🔊	-16.4751
ı	-16.4752
😛	-16.4753
♛	-16.4754
☮	-16.4755
✔	-16.4756
✅	-16.4757
₪	-16.4758
►	-16.4759
↑	-16.476
字	-16.4761
諸	-16.4761
付	-16.4761
別	-16.4761
帯	-16.4761
改	-16.4761
楫	-16.4761
特	-16.4761
給	-16.4761
臨	-16.4761
親	-16.4761
🙂	-16.4761
̸	-16.4762
Μ	-16.4762
τ	-16.4762
҉	-16.4762
ழ	-16.4762
ி	-16.4762
ை	-16.4762
்	-16.4762
ห	-16.4762
ึ	-16.4762
တ	-16.4762
လ	-16.4762
ေ	-16.4762
္	-16.4762
ြ	-16.4762
ぬ	-16.4762
べ	-16.4762
万	-16.4762
划	-16.4762
博	-16.4762
工	-16.4762
府	-16.4762
打	-16.4762
格	-16.4762
残	-16.4762
浜	-16.4762
登	-16.4762
百	-16.4762
祉	-16.4762
福	-16.4762
站	-16.4762
等	-16.4762
舞	-16.4762
蘭	-16.4762
衛	-16.4762
计	-16.4762
資	-16.4762
選	-16.4762
駅	-16.4762
단	-16.4762
ě	-16.4762
ʟ	-16.4762
Գ	-16.4762
ז	-16.4762
ᅮ	-16.4762
ᠹ	-16.4762
ᴄ	-16.4762
ᴜ	-16.4762
ễ	-16.4762
☘	-16.4762
⚙	-16.4762
ビ	-16.4762
导	-16.4762
您	-16.4762
新	-16.4762
更	-16.4762
構	-16.4762
沖	-16.4762
读	-16.4762
輝	-16.4762
陳	-16.4762
가	-16.4762
걸	-16.4762
더	-16.4762
뚜	-16.4762
룰	-16.4762
명	-16.4762
몽	-16.4762
베	-16.4762
상	-16.4762
생	-16.4762
숙	-16.4762
왔	-16.4762
침	-16.4762
학	-16.4762
홍	-16.4762
횗	-16.4762
Ђ	-16.4762
Ә	-16.4762
ẙ	-16.4762
ằ	-16.4762
╘	-16.4762
☝	-16.4762
玉	-16.4762
蛋	-16.4762
郑	-16.4762
马	-16.4762
백	-16.4762
번	-16.4762
있	-16.4762
햄	-16.4762
￼	-16.4762
💡	-16.4762
🦋	-16.4762
⌚	-16.4762
Â	-16.4762
Ê	-16.4762
Ì	-16.4762
Î	-16.4762
Ô	-16.4762
ă	-16.4762
ē	-16.4762
Ė	-16.4762
ę	-16.4762
Į	-16.4762
ĸ	-16.4762
ľ	-16.4762
ň	-16.4762
œ	-16.4762
ť	-16.4762
ŧ	-16.4762
ů	-16.4762
Ž	-16.4762
Ɗ	-16.4762
ǎ	-16.4762
ǐ	-16.4762
ɇ	-16.4762
ɲ	-16.4762
ɴ	-16.4762
ʏ	-16.4762
ː	-16.4762
˗	-16.4762
̵	-16.4762
͞	-16.4762
Η	-16.4762
Ο	-16.4762
Τ	-16.4762
Φ	-16.4762
Ψ	-16.4762
ά	-16.4762
ή	-16.4762
η	-16.4762
υ	-16.4762
ό	-16.4762
ύ	-16.4762
ώ	-16.4762
Җ	-16.4762
ҡ	-16.4762
Ң	-16.4762
ҷ	-16.4762
ӄ	-16.4762
Ӈ	-16.4762
ӑ	-16.4762
ӝ	-16.4762
ӯ	-16.4762
Ա	-16.4762
Ե	-16.4762
Ո	-16.4762
դ	-16.4762
զ	-16.4762
ը	-16.4762
ի	-16.4762
լ	-16.4762
խ	-16.4762
յ	-16.4762
չ	-16.4762
վ	-16.4762
ց	-16.4762
ט	-16.4762
מ	-16.4762
פ	-16.4762
،	-16.4762
؟	-16.4762
إ	-16.4762
ز	-16.4762
ض	-16.4762
َ	-16.4762
ە	-16.4762
ं	-16.4762
इ	-16.4762
ए	-16.4762
ज	-16.4762
र	-16.4762
़	-16.4762
ि	-16.4762
४	-16.4762
७	-16.4762
অ	-16.4762
ই	-16.4762
ক	-16.4762
চ	-16.4762
ত	-16.4762
দ	-16.4762
ি	-16.4762
ে	-16.4762
ਂ	-16.4762
ਮ	-16.4762
ਾ	-16.4762
ੀ	-16.4762
ੂ	-16.4762
ੌ	-16.4762
ட	-16.4762
ா	-16.4762
ூ	-16.4762
ೋ	-16.4762
จ	-16.4762
ต	-16.4762
ท	-16.4762
ฝ	-16.4762
พ	-16.4762
ฟ	-16.4762
ภ	-16.4762
ว	-16.4762
ษ	-16.4762
ฬ	-16.4762
า	-16.4762
แ	-16.4762
ไ	-16.4762
์	-16.4762
࿐	-16.4762
သ	-16.4762
ဦ	-16.4762
ိ	-16.4762
ု	-16.4762
်	-16.4762
၊	-16.4762
ᄆ	-16.4762
ᄇ	-16.4762
ᄒ	-16.4762
ᅳ	-16.4762
ᅵ	-16.4762
ᐉ	-16.4762
ᠤ	-16.4762
ᠯ	-16.4762
ᠰ	-16.4762
ᠱ	-16.4762
ᠴ	-16.4762
ᠵ	-16.4762
ᠻ	-16.4762
ᠼ	-16.4762
᭄	-16.4762
ᴀ	-16.4762
ᴍ	-16.4762
ᴠ	-16.4762
ᵯ	-16.4762
ṃ	-16.4762
ầ	-16.4762
ắ	-16.4762
ờ	-16.4762
ἰ	-16.4762
‡	-16.4762
₹	-16.4762
↖	-16.4762
↳	-16.4762
∈	-16.4762
≫	-16.4762
⋯	-16.4762
╟	-16.4762
╢	-16.4762
▍	-16.4762
▨	-16.4762
◇	-16.4762
☂	-16.4762
☑	-16.4762
☔	-16.4762
☕	-16.4762
☤	-16.4762
♣	-16.4762
⚃	-16.4762
⚕	-16.4762
⚠	-16.4762
✌	-16.4762
✍	-16.4762
✞	-16.4762
✯	-16.4762
❂	-16.4762
❃	-16.4762
❏	-16.4762
❖	-16.4762
➥	-16.4762
➳	-16.4762
『	-16.4762
』	-16.4762
ぎ	-16.4762
ほ	-16.4762
ゆ	-16.4762
ガ	-16.4762
ゲ	-16.4762
ジ	-16.4762
セ	-16.4762
ゼ	-16.4762
タ	-16.4762
チ	-16.4762
ツ	-16.4762
ヅ	-16.4762
デ	-16.4762
ニ	-16.4762
ハ	-16.4762
ペ	-16.4762
マ	-16.4762
ミ	-16.4762
ム	-16.4762
七	-16.4762
三	-16.4762
么	-16.4762
乐	-16.4762
也	-16.4762
二	-16.4762
云	-16.4762
互	-16.4762
京	-16.4762
他	-16.4762
任	-16.4762
企	-16.4762
伊	-16.4762
休	-16.4762
众	-16.4762
何	-16.4762
你	-16.4762
使	-16.4762
係	-16.4762
保	-16.4762
修	-16.4762
俺	-16.4762
們	-16.4762
停	-16.4762
健	-16.4762
側	-16.4762
僕	-16.4762
優	-16.4762
元	-16.4762
光	-16.4762
克	-16.4762
免	-16.4762
八	-16.4762
公	-16.4762
册	-16.4762
再	-16.4762
冯	-16.4762
前	-16.4762
势	-16.4762
勖	-16.4762
務	-16.4762
勧	-16.4762
包	-16.4762
化	-16.4762
北	-16.4762
医	-16.4762
午	-16.4762
华	-16.4762
卡	-16.4762
参	-16.4762
向	-16.4762
吗	-16.4762
周	-16.4762
命	-16.4762
和	-16.4762
售	-16.4762
唱	-16.4762
器	-16.4762
國	-16.4762
址	-16.4762
型	-16.4762
場	-16.4762
塑	-16.4762
塚	-16.4762
士	-16.4762
声	-16.4762
夂	-16.4762
夕	-16.4762
夜	-16.4762
奋	-16.4762
好	-16.4762
妹	-16.4762
姿	-16.4762
娱	-16.4762
宅	-16.4762
宗	-16.4762
定	-16.4762
室	-16.4762
宽	-16.4762
少	-16.4762
局	-16.4762
属	-16.4762
履	-16.4762
岩	-16.4762
峮	-16.4762
州	-16.4762
巡	-16.4762
巣	-16.4762
带	-16.4762
帮	-16.4762
年	-16.4762
康	-16.4762
开	-16.4762
异	-16.4762
弦	-16.4762
当	-16.4762
录	-16.4762
心	-16.4762
志	-16.4762
忘	-16.4762
忙	-16.4762
快	-16.4762
怎	-16.4762
悔	-16.4762
戰	-16.4762
戸	-16.4762
払	-16.4762
抢	-16.4762
拶	-16.4762
挨	-16.4762
探	-16.4762
掲	-16.4762
提	-16.4762
故	-16.4762
斗	-16.4762
斥	-16.4762
早	-16.4762
昌	-16.4762
星	-16.4762
昴	-16.4762
會	-16.4762
望	-16.4762
朝	-16.4762
机	-16.4762
村	-16.4762
林	-16.4762
査	-16.4762
株	-16.4762
椰	-16.4762
業	-16.4762
概	-16.4762
横	-16.4762
機	-16.4762
歳	-16.4762
毛	-16.4762
民	-16.4762
气	-16.4762
永	-16.4762
河	-16.4762
治	-16.4762
沿	-16.4762
注	-16.4762
泰	-16.4762
洛	-16.4762
洞	-16.4762
淮	-16.4762
渡	-16.4762
湖	-16.4762
演	-16.4762
照	-16.4762
燼	-16.4762
牛	-16.4762
町	-16.4762
画	-16.4762
留	-16.4762
盘	-16.4762
眉	-16.4762
码	-16.4762
破	-16.4762
礦	-16.4762
祐	-16.4762
神	-16.4762
离	-16.4762
私	-16.4762
秘	-16.4762
稳	-16.4762
糞	-16.4762
紇	-16.4762
红	-16.4762
线	-16.4762
考	-16.4762
能	-16.4762
腕	-16.4762
航	-16.4762
良	-16.4762
華	-16.4762
葵	-16.4762
藤	-16.4762
蠟	-16.4762
袖	-16.4762
製	-16.4762
西	-16.4762
要	-16.4762
視	-16.4762
见	-16.4762
誉	-16.4762
説	-16.4762
識	-16.4762
讃	-16.4762
让	-16.4762
记	-16.4762
语	-16.4762
课	-16.4762
豚	-16.4762
象	-16.4762
費	-16.4762
賃	-16.4762
賞	-16.4762
趋	-16.4762
車	-16.4762
軒	-16.4762
载	-16.4762
输	-16.4762
辺	-16.4762
込	-16.4762
运	-16.4762
还	-16.4762
迴	-16.4762
迹	-16.4762
送	-16.4762
逢	-16.4762
連	-16.4762
都	-16.4762
里	-16.4762
鑑	-16.4762
钱	-16.4762
镇	-16.4762
长	-16.4762
関	-16.4762
问	-16.4762
间	-16.4762
阒	-16.4762
际	-16.4762
险	-16.4762
随	-16.4762
雑	-16.4762
電	-16.4762
面	-16.4762
韬	-16.4762
響	-16.4762
颚	-16.4762
黄	-16.4762
꧂	-16.4762
갤	-16.4762
거	-16.4762
것	-16.4762
격	-16.4762
계	-16.4762
골	-16.4762
공	-16.4762
과	-16.4762
관	-16.4762
교	-16.4762
굴	-16.4762
긋	-16.4762
긱	-16.4762
달	-16.4762
답	-16.4762
둥	-16.4762
딩	-16.4762
떻	-16.4762
또	-16.4762
뚝	-16.4762
래	-16.4762
랫	-16.4762
러	-16.4762
룬	-16.4762
류	-16.4762
를	-16.4762
림	-16.4762
릿	-16.4762
마	-16.4762
만	-16.4762
매	-16.4762
며	-16.4762
모	-16.4762
문	-16.4762
뭘	-16.4762
뮤	-16.4762
밥	-16.4762
밴	-16.4762
버	-16.4762
벼	-16.4762
변	-16.4762
병	-16.4762
불	-16.4762
뷔	-16.4762
븐	-16.4762
빈	-16.4762
뿌	-16.4762
석	-16.4762
설	-16.4762
섭	-16.4762
성	-16.4762
송	-16.4762
슨	-16.4762
승	-16.4762
식	-16.4762
실	-16.4762
쌍	-16.4762
양	-16.4762
업	-16.4762
에	-16.4762
엘	-16.4762
엥	-16.4762
열	-16.4762
옷	-16.4762
와	-16.4762
외	-16.4762
용	-16.4762
웆	-16.4762
월	-16.4762
윤	-16.4762
율	-16.4762
재	-16.4762
적	-16.4762
죄	-16.4762
죻	-16.4762
짓	-16.4762
짱	-16.4762
찌	-16.4762
찡	-16.4762
차	-16.4762
청	-16.4762
체	-16.4762
칩	-16.4762
칫	-16.4762
카	-16.4762
커	-16.4762
케	-16.4762
콕	-16.4762
키	-16.4762
탄	-16.4762
탓	-16.4762
탠	-16.4762
터	-16.4762
틴	-16.4762
팅	-16.4762
팝	-16.4762
퍼	-16.4762
펄	-16.4762
평	-16.4762
푸	-16.4762
픽	-16.4762
항	-16.4762
혜	-16.4762
호	-16.4762
홈	-16.4762
횒	-16.4762
횜	-16.4762
흐	-16.4762
흥	-16.4762
𖢘	-16.4762
🆕	-16.4762
🇫	-16.4762
🇸	-16.4762
🇽	-16.4762
🌃	-16.4762
🌄	-16.4762
🌅	-16.4762
🌍	-16.4762
🌐	-16.4762
🌡	-16.4762
🌳	-16.4762
🌻	-16.4762
🍀	-16.4762
🍁	-16.4762
🍇	-16.4762
🍑	-16.4762
🍞	-16.4762
🍩	-16.4762
🍯	-16.4762
🍰	-16.4762
🍱	-16.4762
🍹	-16.4762
🍽	-16.4762
🍾	-16.4762
🎀	-16.4762
🎄	-16.4762
🎬	-16.4762
🎶	-16.4762
🏆	-16.4762
🏋	-16.4762
🏣	-16.4762
🏦	-16.4762
🏼	-16.4762
👑	-16.4762
👦	-16.4762
👧	-16.4762
💀	-16.4762
💉	-16.4762
💋	-16.4762
💐	-16.4762
💔	-16.4762
💕	-16.4762
💝	-16.4762
💢	-16.4762
💪	-16.4762
💸	-16.4762
💻	-16.4762
📁	-16.4762
📅	-16.4762
📕	-16.4762
📖	-16.4762
📞	-16.4762
📦	-16.4762
📱	-16.4762
📲	-16.4762
📷	-16.4762
🔄	-16.4762
🕑	-16.4762
🕘	-16.4762
🕯	-16.4762
🖐	-16.4762
🖤	-16.4762
🗓	-16.4762
😄	-16.4762
😈	-16.4762
😐	-16.4762
😑	-16.4762
😡	-16.4762
😥	-16.4762
😩	-16.4762
😫	-16.4762
😮	-16.4762
😰	-16.4762
😲	-16.4762
😶	-16.4762
🙆	-16.4762
🙋	-16.4762
🙎	-16.4762
🚀	-16.4762
🚘	-16.4762
🚩	-16.4762
🛍	-16.4762
🛑	-16.4762
🛒	-16.4762
🛡	-16.4762
🤍	-16.4762
🤓	-16.4762
🤡	-16.4762
🤫	-16.4762
🥄	-16.4762
🦊	-16.4762
🧤	-16.4762
🧨	-16.4762
👽	-16.4762
💩	-16.4762
¶	-16.4762
ř	-16.4762
Қ	-16.4762
ج	-16.4762
ᄋ	-16.4762
╒	-16.4762
♻	-16.4762
ベ	-16.4762
ラ	-16.4762
圖	-16.4762
太	-16.4762
斯	-16.4762
辉	-16.4762
鵬	-16.4762
龶	-16.4762
뻐	-16.4762
응	-16.4762
조	-16.4762
채	-16.4762
💼	-16.4762
📣	-16.4762
🔹	-16.4762
ɑ	-16.4762
Κ	-16.4762
Ұ	-16.4762
ۇ	-16.4762
ै	-16.4762
१	-16.4762
९	-16.4762
ব	-16.4762
র	-16.4762
ਕ	-16.4762
ਹ	-16.4762
ਿ	-16.4762
ੈ	-16.4762
ั	-16.4762
⿱	-16.4762
カ	-16.4762
バ	-16.4762
儿	-16.4762
動	-16.4762
叫	-16.4762
君	-16.4762
唐	-16.4762
問	-16.4762
喵	-16.4762
奇	-16.4762
小	-16.4762
帝	-16.4762
意	-16.4762
憎	-16.4762
戒	-16.4762
指	-16.4762
暲	-16.4762
有	-16.4762
没	-16.4762
甘	-16.4762
米	-16.4762
藏	-16.4762
裏	-16.4762
貸	-16.4762
進	-16.4762
過	-16.4762
陝	-16.4762
題	-16.4762
갑	-16.4762
겠	-16.4762
끼	-16.4762
돈	-16.4762
랑	-16.4762
렘	-16.4762
려	-16.4762
먹	-16.4762
메	-16.4762
반	-16.4762
블	-16.4762
습	-16.4762
싼	-16.4762
여	-16.4762
울	-16.4762
워	-16.4762
일	-16.4762
잘	-16.4762
진	-16.4762
찾	-16.4762
코	-16.4762
콧	-16.4762
폰	-16.4762
플	-16.4762
혀	-16.4762
🇳	-16.4762
😷	-16.4762
ᠫ	-16.4762
ヒ	-16.4762
不	-16.4762
今	-16.4762
位	-16.4762
召	-16.4762
味	-16.4762
庆	-16.4762
必	-16.4762
恩	-16.4762
悲	-16.4762
情	-16.4762
漏	-16.4762
見	-16.4762
配	-16.4762
银	-16.4762
ђ	-16.4762
ィ	-16.4762
员	-16.4762
委	-16.4762
密	-16.4762
建	-16.4762
普	-16.4762
浙	-16.4762
