{
  "version": "1.0",
  "truncation": null,
  "padding": null,
  "added_tokens": [
    {
      "id": 0,
      "content": "[UNK]",
      "single_word": false,
      "lstrip": false,
      "rstrip": false,
      "normalized": false,
      "special": true
    },
    {
      "id": 1,
      "content": "[CLS]",
      "single_word": false,
      "lstrip": false,
      "rstrip": false,
      "normalized": false,
      "special": true
    },
    {
      "id": 2,
      "content": "[SEP]",
      "single_word": false,
      "lstrip": false,
      "rstrip": false,
      "normalized": false,
      "special": true
    },
    {
      "id": 3,
      "content": "[PAD]",
      "single_word": false,
      "lstrip": false,
      "rstrip": false,
      "normalized": false,
      "special": true
    },
    {
      "id": 4,
      "content": "[MASK]",
      "single_word": false,
      "lstrip": false,
      "rstrip": false,
      "normalized": false,
      "special": true
    }
  ],
  "normalizer": {
    "type": "Sequence",
    "normalizers": [
      {
        "type": "NFKC"
      },
      {
        "type": "Lowercase"
      }
    ]
  },
  "pre_tokenizer": {
    "type": "Whitespace"
  },
  "post_processor": null,
  "decoder": {
    "type": "WordPiece",
    "prefix": "##",
    "cleanup": true
  },
  "model": {
    "type": "WordPiece",
    "unk_token": "[UNK]",
    "continuing_subword_prefix": "##",
    "max_input_chars_per_word": 100,
    "vocab": {
      "[UNK]": 0,
      "[CLS]": 1,
      "[SEP]": 2,
      "[PAD]": 3,
      "[MASK]": 4,
      "!": 5,
      "\"": 6,
      "#": 7,
      "$": 8,
      "%": 9,
      "&": 10,
      "'": 11,
      "(": 12,
      ")": 13,
      "*": 14,
      "+": 15,
      ",": 16,
      "-": 17,
      ".": 18,
      "/": 19,
      "0": 20,
      "1": 21,
      "2": 22,
      "3": 23,
      "4": 24,
      "5": 25,
      "6": 26,
      "7": 27,
      "8": 28,
      "9": 29,
      ":": 30,
      ";": 31,
      "<": 32,
      "=": 33,
      ">": 34,
      "?": 35,
      "@": 36,
      "[": 37,
      "\\": 38,
      "]": 39,
      "^": 40,
      "_": 41,
      "a": 42,
      "b": 43,
      "c": 44,
      "d": 45,
      "e": 46,
      "f": 47,
      "g": 48,
      "h": 49,
      "i": 50,
      "j": 51,
      "k": 52,
      "l": 53,
      "m": 54,
      "n": 55,
      "o": 56,
      "p": 57,
      "q": 58,
      "r": 59,
      "s": 60,
      "t": 61,
      "u": 62,
      "v": 63,
      "w": 64,
      "x": 65,
      "y": 66,
      "z": 67,
      "{": 68,
      "|": 69,
      "}": 70,
      "~": 71,
      "¢": 72,
      "£": 73,
      "¤": 74,
      "¥": 75,
      "¦": 76,
      "§": 77,
      "©": 78,
      "¬": 79,
      "®": 80,
      "°": 81,
      "±": 82,
      "¶": 83,
      "·": 84,
      "¿": 85,
      "×": 86,
      "ß": 87,
      "à": 88,
      "á": 89,
      "â": 90,
      "ã": 91,
      "ä": 92,
      "å": 93,
      "æ": 94,
      "ç": 95,
      "è": 96,
      "é": 97,
      "ê": 98,
      "ë": 99,
      "ì": 100,
      "í": 101,
      "î": 102,
      "ï": 103,
      "ð": 104,
      "ñ": 105,
      "ò": 106,
      "ó": 107,
      "ô": 108,
      "õ": 109,
      "ö": 110,
      "÷": 111,
      "ø": 112,
      "ú": 113,
      "û": 114,
      "ü": 115,
      "ý": 116,
      "þ": 117,
      "ÿ": 118,
      "ā": 119,
      "ă": 120,
      "ć": 121,
      "č": 122,
      "đ": 123,
      "ē": 124,
      "ĕ": 125,
      "ė": 126,
      "ę": 127,
      "ě": 128,
      "ğ": 129,
      "ī": 130,
      "į": 131,
      "ı": 132,
      "ĸ": 133,
      "ľ": 134,
      "ł": 135,
      "ń": 136,
      "ň": 137,
      "ō": 138,
      "œ": 139,
      "ř": 140,
      "ś": 141,
      "ş": 142,
      "š": 143,
      "ť": 144,
      "ŧ": 145,
      "ū": 146,
      "ů": 147,
      "ž": 148,
      "ƒ": 149,
      "ư": 150,
      "ǎ": 151,
      "ǐ": 152,
      "ǿ": 153,
      "ɇ": 154,
      "ɐ": 155,
      "ɑ": 156,
      "ɗ": 157,
      "ə": 158,
      "ɪ": 159,
      "ɲ": 160,
      "ɴ": 161,
      "ɵ": 162,
      "ʀ": 163,
      "ʏ": 164,
      "ʜ": 165,
      "ʟ": 166,
      "ˈ": 167,
      "ˌ": 168,
      "ː": 169,
      "˗": 170,
      "̀": 171,
      "́": 172,
      "̄": 173,
      "̇": 174,
      "̈": 175,
      "̌": 176,
      "̵": 177,
      "̷": 178,
      "̸": 179,
      "͜": 180,
      "͞": 181,
      "ά": 182,
      "ή": 183,
      "ί": 184,
      "α": 185,
      "β": 186,
      "γ": 187,
      "δ": 188,
      "ε": 189,
      "η": 190,
      "θ": 191,
      "ι": 192,
      "κ": 193,
      "λ": 194,
      "μ": 195,
      "ν": 196,
      "ο": 197,
      "π": 198,
      "ρ": 199,
      "ς": 200,
      "σ": 201,
      "τ": 202,
      "υ": 203,
      "φ": 204,
      "ψ": 205,
      "ω": 206,
      "ό": 207,
      "ύ": 208,
      "ώ": 209,
      "а": 210,
      "б": 211,
      "в": 212,
      "г": 213,
      "д": 214,
      "е": 215,
      "ж": 216,
      "з": 217,
      "и": 218,
      "й": 219,
      "к": 220,
      "л": 221,
      "м": 222,
      "н": 223,
      "о": 224,
      "п": 225,
      "р": 226,
      "с": 227,
      "т": 228,
      "у": 229,
      "ф": 230,
      "х": 231,
      "ц": 232,
      "ч": 233,
      "ш": 234,
      "щ": 235,
      "ъ": 236,
      "ы": 237,
      "ь": 238,
      "э": 239,
      "ю": 240,
      "я": 241,
      "ѐ": 242,
      "ё": 243,
      "ђ": 244,
      "ѓ": 245,
      "є": 246,
      "ѕ": 247,
      "і": 248,
      "ї": 249,
      "ј": 250,
      "њ": 251,
      "ћ": 252,
      "ќ": 253,
      "ў": 254,
      "џ": 255,
      "ѳ": 256,
      "҉": 257,
      "ґ": 258,
      "ғ": 259,
      "ҕ": 260,
      "җ": 261,
      "қ": 262,
      "ҡ": 263,
      "ң": 264,
      "ҥ": 265,
      "ү": 266,
      "ұ": 267,
      "ҳ": 268,
      "ҷ": 269,
      "һ": 270,
      "ӄ": 271,
      "ӈ": 272,
      "ӏ": 273,
      "ӑ": 274,
      "ӓ": 275,
      "ә": 276,
      "ӝ": 277,
      "ӣ": 278,
      "ӧ": 279,
      "ө": 280,
      "ӯ": 281,
      "ӱ": 282,
      "ա": 283,
      "գ": 284,
      "դ": 285,
      "ե": 286,
      "զ": 287,
      "ը": 288,
      "ի": 289,
      "լ": 290,
      "խ": 291,
      "կ": 292,
      "ղ": 293,
      "մ": 294,
      "յ": 295,
      "ն": 296,
      "ո": 297,
      "չ": 298,
      "ս": 299,
      "վ": 300,
      "տ": 301,
      "ր": 302,
      "ց": 303,
      "ւ": 304,
      "ք": 305,
      "א": 306,
      "ב": 307,
      "ג": 308,
      "ה": 309,
      "ו": 310,
      "ז": 311,
      "ט": 312,
      "י": 313,
      "ל": 314,
      "מ": 315,
      "נ": 316,
      "ע": 317,
      "פ": 318,
      "ר": 319,
      "ת": 320,
      "،": 321,
      "؟": 322,
      "أ": 323,
      "إ": 324,
      "ا": 325,
      "ب": 326,
      "ة": 327,
      "ت": 328,
      "ج": 329,
      "ح": 330,
      "خ": 331,
      "د": 332,
      "ذ": 333,
      "ر": 334,
      "ز": 335,
      "س": 336,
      "ش": 337,
      "ص": 338,
      "ض": 339,
      "ط": 340,
      "ع": 341,
      "غ": 342,
      "ف": 343,
      "ق": 344,
      "ك": 345,
      "ل": 346,
      "م": 347,
      "ن": 348,
      "ه": 349,
      "و": 350,
      "ى": 351,
      "ي": 352,
      "َ": 353,
      "ک": 354,
      "ہ": 355,
      "ۇ": 356,
      "ی": 357,
      "ە": 358,
      "ं": 359,
      "इ": 360,
      "ए": 361,
      "क": 362,
      "ज": 363,
      "ब": 364,
      "र": 365,
      "ल": 366,
      "़": 367,
      "ा": 368,
      "ि": 369,
      "ै": 370,
      "१": 371,
      "४": 372,
      "७": 373,
      "९": 374,
      "অ": 375,
      "ই": 376,
      "ক": 377,
      "চ": 378,
      "ত": 379,
      "দ": 380,
      "ন": 381,
      "ব": 382,
      "র": 383,
      "া": 384,
      "ি": 385,
      "ু": 386,
      "ে": 387,
      "্": 388,
      "ਂ": 389,
      "ਕ": 390,
      "ਟ": 391,
      "ਪ": 392,
      "ਮ": 393,
      "ਰ": 394,
      "ਸ": 395,
      "ਹ": 396,
      "ਾ": 397,
      "ਿ": 398,
      "ੀ": 399,
      "ੂ": 400,
      "ੈ": 401,
      "ੌ": 402,
      "க": 403,
      "ட": 404,
      "ழ": 405,
      "ா": 406,
      "ி": 407,
      "ூ": 408,
      "ை": 409,
      "்": 410,
      "ೋ": 411,
      "ก": 412,
      "ค": 413,
      "ง": 414,
      "จ": 415,
      "ซ": 416,
      "ด": 417,
      "ต": 418,
      "ท": 419,
      "น": 420,
      "ฝ": 421,
      "พ": 422,
      "ฟ": 423,
      "ภ": 424,
      "ม": 425,
      "ย": 426,
      "ล": 427,
      "ว": 428,
      "ษ": 429,
      "ส": 430,
      "ห": 431,
      "ฬ": 432,
      "อ": 433,
      "ั": 434,
      "า": 435,
      "ิ": 436,
      "ี": 437,
      "ึ": 438,
      "เ": 439,
      "แ": 440,
      "โ": 441,
      "ใ": 442,
      "ไ": 443,
      "่": 444,
      "้": 445,
      "์": 446,
      "྆": 447,
      "࿐": 448,
      "တ": 449,
      "န": 450,
      "မ": 451,
      "လ": 452,
      "သ": 453,
      "ဦ": 454,
      "ိ": 455,
      "ု": 456,
      "ေ": 457,
      "့": 458,
      "း": 459,
      "္": 460,
      "်": 461,
      "ြ": 462,
      "၊": 463,
      "ᄀ": 464,
      "ᄂ": 465,
      "ᄅ": 466,
      "ᄆ": 467,
      "ᄇ": 468,
      "ᄋ": 469,
      "ᄏ": 470,
      "ᄒ": 471,
      "ᅮ": 472,
      "ᅲ": 473,
      "ᅳ": 474,
      "ᅵ": 475,
      "ᆞ": 476,
      "ᐉ": 477,
      "᠋": 478,
      "ᠠ": 479,
      "ᠡ": 480,
      "ᠢ": 481,
      "ᠤ": 482,
      "ᠥ": 483,
      "ᠦ": 484,
      "ᠨ": 485,
      "ᠫ": 486,
      "ᠬ": 487,
      "ᠭ": 488,
      "ᠮ": 489,
      "ᠯ": 490,
      "ᠰ": 491,
      "ᠱ": 492,
      "ᠳ": 493,
      "ᠴ": 494,
      "ᠵ": 495,
      "ᠶ": 496,
      "ᠷ": 497,
      "ᠹ": 498,
      "ᠻ": 499,
      "ᠼ": 500,
      "᭄": 501,
      "ᴀ": 502,
      "ᴄ": 503,
      "ᴇ": 504,
      "ᴍ": 505,
      "ᴜ": 506,
      "ᴠ": 507,
      "ᵯ": 508,
      "ᵴ": 509,
      "ḍ": 510,
      "ḥ": 511,
      "ṃ": 512,
      "ṅ": 513,
      "ṇ": 514,
      "ṭ": 515,
      "ẙ": 516,
      "ầ": 517,
      "ắ": 518,
      "ằ": 519,
      "ế": 520,
      "ễ": 521,
      "ớ": 522,
      "ờ": 523,
      "ἰ": 524,
      "‐": 525,
      "―": 526,
      "‖": 527,
      "†": 528,
      "‡": 529,
      "•": 530,
      "‣": 531,
      "‰": 532,
      "′": 533,
      "‹": 534,
      "›": 535,
      "※": 536,
      "⁄": 537,
      "₩": 538,
      "₪": 539,
      "€": 540,
      "₮": 541,
      "₹": 542,
      "₽": 543,
      "⃣": 544,
      "←": 545,
      "↑": 546,
      "→": 547,
      "↓": 548,
      "↔": 549,
      "↖": 550,
      "↙": 551,
      "↳": 552,
      "⇒": 553,
      "⇨": 554,
      "∂": 555,
      "∆": 556,
      "∈": 557,
      "−": 558,
      "∙": 559,
      "√": 560,
      "∞": 561,
      "≈": 562,
      "≠": 563,
      "≤": 564,
      "≥": 565,
      "≫": 566,
      "⋆": 567,
      "⋯": 568,
      "⌚": 569,
      "⎪": 570,
      "⏱": 571,
      "│": 572,
      "╒": 573,
      "╘": 574,
      "╟": 575,
      "╢": 576,
      "█": 577,
      "▍": 578,
      "■": 579,
      "□": 580,
      "▨": 581,
      "▪": 582,
      "▲": 583,
      "▶": 584,
      "►": 585,
      "▼": 586,
      "◆": 587,
      "◇": 588,
      "◊": 589,
      "○": 590,
      "●": 591,
      "◦": 592,
      "☀": 593,
      "☂": 594,
      "★": 595,
      "☆": 596,
      "☈": 597,
      "☎": 598,
      "☑": 599,
      "☔": 600,
      "☕": 601,
      "☘": 602,
      "☛": 603,
      "☝": 604,
      "☞": 605,
      "☤": 606,
      "☮": 607,
      "☹": 608,
      "☺": 609,
      "☻": 610,
      "♀": 611,
      "♂": 612,
      "♏": 613,
      "♔": 614,
      "♚": 615,
      "♛": 616,
      "♠": 617,
      "♡": 618,
      "♣": 619,
      "♥": 620,
      "♦": 621,
      "♪": 622,
      "♫": 623,
      "♻": 624,
      "⚃": 625,
      "⚕": 626,
      "⚙": 627,
      "⚠": 628,
      "⚡": 629,
      "⚫": 630,
      "⚽": 631,
      "✅": 632,
      "✈": 633,
      "✌": 634,
      "✍": 635,
      "✓": 636,
      "✔": 637,
      "✞": 638,
      "✨": 639,
      "✯": 640,
      "✿": 641,
      "❀": 642,
      "❂": 643,
      "❃": 644,
      "❄": 645,
      "❏": 646,
      "❖": 647,
      "❗": 648,
      "❤": 649,
      "❷": 650,
      "❹": 651,
      "❼": 652,
      "➜": 653,
      "➡": 654,
      "➢": 655,
      "➥": 656,
      "➳": 657,
      "⠀": 658,
      "⦁": 659,
      "⭐": 660,
      "⿱": 661,
      "、": 662,
      "。": 663,
      "《": 664,
      "》": 665,
      "「": 666,
      "」": 667,
      "『": 668,
      "』": 669,
      "【": 670,
      "】": 671,
      "〓": 672,
      "あ": 673,
      "い": 674,
      "う": 675,
      "え": 676,
      "お": 677,
      "か": 678,
      "が": 679,
      "き": 680,
      "ぎ": 681,
      "く": 682,
      "ぐ": 683,
      "け": 684,
      "げ": 685,
      "こ": 686,
      "ご": 687,
      "さ": 688,
      "ざ": 689,
      "し": 690,
      "じ": 691,
      "す": 692,
      "せ": 693,
      "そ": 694,
      "た": 695,
      "だ": 696,
      "ち": 697,
      "っ": 698,
      "つ": 699,
      "て": 700,
      "で": 701,
      "と": 702,
      "ど": 703,
      "な": 704,
      "に": 705,
      "ぬ": 706,
      "の": 707,
      "は": 708,
      "ば": 709,
      "ひ": 710,
      "ぶ": 711,
      "べ": 712,
      "ほ": 713,
      "ま": 714,
      "み": 715,
      "め": 716,
      "も": 717,
      "ゃ": 718,
      "や": 719,
      "ゅ": 720,
      "ゆ": 721,
      "ょ": 722,
      "よ": 723,
      "ら": 724,
      "り": 725,
      "る": 726,
      "れ": 727,
      "ろ": 728,
      "わ": 729,
      "を": 730,
      "ん": 731,
      "ィ": 732,
      "イ": 733,
      "ウ": 734,
      "カ": 735,
      "ガ": 736,
      "キ": 737,
      "ギ": 738,
      "ク": 739,
      "ゲ": 740,
      "コ": 741,
      "ゴ": 742,
      "サ": 743,
      "シ": 744,
      "ジ": 745,
      "セ": 746,
      "ゼ": 747,
      "ソ": 748,
      "タ": 749,
      "ダ": 750,
      "チ": 751,
      "ツ": 752,
      "ヅ": 753,
      "デ": 754,
      "ド": 755,
      "ナ": 756,
      "ニ": 757,
      "ハ": 758,
      "バ": 759,
      "ヒ": 760,
      "ビ": 761,
      "フ": 762,
      "ブ": 763,
      "ベ": 764,
      "ペ": 765,
      "マ": 766,
      "ミ": 767,
      "ム": 768,
      "モ": 769,
      "ャ": 770,
      "ョ": 771,
      "ラ": 772,
      "リ": 773,
      "ル": 774,
      "ン": 775,
      "・": 776,
      "ー": 777,
      "ㄍ": 778,
      "ㄎ": 779,
      "ㄟ": 780,
      "ㄨ": 781,
      "一": 782,
      "七": 783,
      "万": 784,
      "三": 785,
      "上": 786,
      "下": 787,
      "不": 788,
      "世": 789,
      "业": 790,
      "个": 791,
      "中": 792,
      "么": 793,
      "乐": 794,
      "也": 795,
      "二": 796,
      "云": 797,
      "互": 798,
      "交": 799,
      "京": 800,
      "人": 801,
      "今": 802,
      "介": 803,
      "仔": 804,
      "他": 805,
      "付": 806,
      "代": 807,
      "们": 808,
      "件": 809,
      "任": 810,
      "企": 811,
      "伊": 812,
      "休": 813,
      "众": 814,
      "会": 815,
      "位": 816,
      "住": 817,
      "何": 818,
      "作": 819,
      "你": 820,
      "使": 821,
      "便": 822,
      "係": 823,
      "保": 824,
      "信": 825,
      "修": 826,
      "俺": 827,
      "們": 828,
      "停": 829,
      "健": 830,
      "側": 831,
      "僕": 832,
      "優": 833,
      "儿": 834,
      "元": 835,
      "光": 836,
      "克": 837,
      "免": 838,
      "八": 839,
      "公": 840,
      "内": 841,
      "册": 842,
      "再": 843,
      "冯": 844,
      "出": 845,
      "分": 846,
      "划": 847,
      "別": 848,
      "前": 849,
      "势": 850,
      "動": 851,
      "勖": 852,
      "務": 853,
      "勧": 854,
      "包": 855,
      "化": 856,
      "北": 857,
      "医": 858,
      "十": 859,
      "午": 860,
      "华": 861,
      "南": 862,
      "博": 863,
      "卡": 864,
      "参": 865,
      "古": 866,
      "叫": 867,
      "召": 868,
      "台": 869,
      "号": 870,
      "合": 871,
      "名": 872,
      "向": 873,
      "吗": 874,
      "君": 875,
      "员": 876,
      "周": 877,
      "味": 878,
      "命": 879,
      "和": 880,
      "品": 881,
      "唐": 882,
      "售": 883,
      "唱": 884,
      "商": 885,
      "問": 886,
      "喵": 887,
      "器": 888,
      "回": 889,
      "団": 890,
      "図": 891,
      "国": 892,
      "图": 893,
      "國": 894,
      "圖": 895,
      "地": 896,
      "址": 897,
      "型": 898,
      "基": 899,
      "場": 900,
      "塑": 901,
      "塚": 902,
      "士": 903,
      "声": 904,
      "夂": 905,
      "変": 906,
      "夕": 907,
      "夜": 908,
      "夢": 909,
      "天": 910,
      "太": 911,
      "奇": 912,
      "奋": 913,
      "好": 914,
      "妹": 915,
      "委": 916,
      "姿": 917,
      "娱": 918,
      "子": 919,
      "字": 920,
      "学": 921,
      "宅": 922,
      "安": 923,
      "宗": 924,
      "定": 925,
      "室": 926,
      "宽": 927,
      "密": 928,
      "导": 929,
      "小": 930,
      "少": 931,
      "局": 932,
      "展": 933,
      "属": 934,
      "履": 935,
      "山": 936,
      "岩": 937,
      "峮": 938,
      "州": 939,
      "巡": 940,
      "巣": 941,
      "工": 942,
      "帝": 943,
      "带": 944,
      "帮": 945,
      "帯": 946,
      "平": 947,
      "年": 948,
      "庆": 949,
      "府": 950,
      "康": 951,
      "建": 952,
      "开": 953,
      "异": 954,
      "弦": 955,
      "当": 956,
      "录": 957,
      "形": 958,
      "彩": 959,
      "後": 960,
      "御": 961,
      "心": 962,
      "必": 963,
      "志": 964,
      "忘": 965,
      "忙": 966,
      "快": 967,
      "怎": 968,
      "恩": 969,
      "悔": 970,
      "您": 971,
      "悲": 972,
      "情": 973,
      "意": 974,
      "愛": 975,
      "憎": 976,
      "我": 977,
      "戒": 978,
      "戰": 979,
      "戸": 980,
      "手": 981,
      "打": 982,
      "払": 983,
      "抢": 984,
      "拶": 985,
      "指": 986,
      "挨": 987,
      "探": 988,
      "掲": 989,
      "提": 990,
      "改": 991,
      "故": 992,
      "文": 993,
      "斗": 994,
      "斥": 995,
      "斯": 996,
      "新": 997,
      "族": 998,
      "日": 999,
      "早": 1000,
      "时": 1001,
      "昌": 1002,
      "星": 1003,
      "是": 1004,
      "昴": 1005,
      "時": 1006,
      "普": 1007,
      "暲": 1008,
      "曜": 1009,
      "曲": 1010,
      "更": 1011,
      "書": 1012,
      "會": 1013,
      "月": 1014,
      "有": 1015,
      "望": 1016,
      "朝": 1017,
      "本": 1018,
      "机": 1019,
      "李": 1020,
      "村": 1021,
      "松": 1022,
      "林": 1023,
      "査": 1024,
      "株": 1025,
      "格": 1026,
      "椰": 1027,
      "楫": 1028,
      "業": 1029,
      "楽": 1030,
      "概": 1031,
      "構": 1032,
      "横": 1033,
      "機": 1034,
      "歌": 1035,
      "止": 1036,
      "歳": 1037,
      "残": 1038,
      "毛": 1039,
      "民": 1040,
      "气": 1041,
      "気": 1042,
      "水": 1043,
      "永": 1044,
      "江": 1045,
      "沖": 1046,
      "没": 1047,
      "河": 1048,
      "治": 1049,
      "沿": 1050,
      "法": 1051,
      "注": 1052,
      "泰": 1053,
      "洛": 1054,
      "洞": 1055,
      "流": 1056,
      "浙": 1057,
      "浜": 1058,
      "淮": 1059,
      "済": 1060,
      "渡": 1061,
      "湖": 1062,
      "漏": 1063,
      "演": 1064,
      "点": 1065,
      "照": 1066,
      "燼": 1067,
      "版": 1068,
      "牛": 1069,
      "特": 1070,
      "玉": 1071,
      "现": 1072,
      "理": 1073,
      "甘": 1074,
      "生": 1075,
      "用": 1076,
      "田": 1077,
      "町": 1078,
      "画": 1079,
      "留": 1080,
      "発": 1081,
      "登": 1082,
      "百": 1083,
      "的": 1084,
      "皇": 1085,
      "盘": 1086,
      "眉": 1087,
      "码": 1088,
      "破": 1089,
      "礦": 1090,
      "社": 1091,
      "祉": 1092,
      "祐": 1093,
      "神": 1094,
      "福": 1095,
      "离": 1096,
      "私": 1097,
      "秘": 1098,
      "称": 1099,
      "稳": 1100,
      "站": 1101,
      "等": 1102,
      "简": 1103,
      "管": 1104,
      "米": 1105,
      "糞": 1106,
      "紀": 1107,
      "紇": 1108,
      "経": 1109,
      "給": 1110,
      "線": 1111,
      "红": 1112,
      "线": 1113,
      "网": 1114,
      "美": 1115,
      "翻": 1116,
      "考": 1117,
      "者": 1118,
      "聲": 1119,
      "胡": 1120,
      "能": 1121,
      "腕": 1122,
      "臨": 1123,
      "自": 1124,
      "舞": 1125,
      "航": 1126,
      "良": 1127,
      "華": 1128,
      "葵": 1129,
      "蒙": 1130,
      "藏": 1131,
      "藤": 1132,
      "蘭": 1133,
      "蛋": 1134,
      "蠟": 1135,
      "行": 1136,
      "衛": 1137,
      "表": 1138,
      "袖": 1139,
      "裏": 1140,
      "製": 1141,
      "西": 1142,
      "要": 1143,
      "見": 1144,
      "視": 1145,
      "親": 1146,
      "见": 1147,
      "解": 1148,
      "言": 1149,
      "証": 1150,
      "話": 1151,
      "誉": 1152,
      "誌": 1153,
      "語": 1154,
      "説": 1155,
      "諸": 1156,
      "識": 1157,
      "讃": 1158,
      "计": 1159,
      "让": 1160,
      "记": 1161,
      "译": 1162,
      "语": 1163,
      "请": 1164,
      "读": 1165,
      "课": 1166,
      "豚": 1167,
      "象": 1168,
      "貸": 1169,
      "費": 1170,
      "賃": 1171,
      "資": 1172,
      "賞": 1173,
      "责": 1174,
      "趋": 1175,
      "路": 1176,
      "身": 1177,
      "車": 1178,
      "軒": 1179,
      "載": 1180,
      "輝": 1181,
      "软": 1182,
      "载": 1183,
      "辉": 1184,
      "输": 1185,
      "辺": 1186,
      "込": 1187,
      "达": 1188,
      "运": 1189,
      "近": 1190,
      "返": 1191,
      "还": 1192,
      "迴": 1193,
      "迹": 1194,
      "送": 1195,
      "通": 1196,
      "逢": 1197,
      "連": 1198,
      "進": 1199,
      "過": 1200,
      "達": 1201,
      "選": 1202,
      "郑": 1203,
      "部": 1204,
      "都": 1205,
      "配": 1206,
      "里": 1207,
      "重": 1208,
      "金": 1209,
      "鈴": 1210,
      "鑑": 1211,
      "钱": 1212,
      "银": 1213,
      "镇": 1214,
      "长": 1215,
      "間": 1216,
      "関": 1217,
      "门": 1218,
      "问": 1219,
      "间": 1220,
      "阒": 1221,
      "际": 1222,
      "陝": 1223,
      "险": 1224,
      "陳": 1225,
      "随": 1226,
      "際": 1227,
      "雑": 1228,
      "電": 1229,
      "面": 1230,
      "革": 1231,
      "韬": 1232,
      "音": 1233,
      "響": 1234,
      "題": 1235,
      "類": 1236,
      "颚": 1237,
      "駅": 1238,
      "马": 1239,
      "高": 1240,
      "鵬": 1241,
      "麦": 1242,
      "黄": 1243,
      "黑": 1244,
      "龙": 1245,
      "龶": 1246,
      "꧁": 1247,
      "꧂": 1248,
      "가": 1249,
      "갑": 1250,
      "갤": 1251,
      "거": 1252,
      "걸": 1253,
      "것": 1254,
      "게": 1255,
      "겠": 1256,
      "격": 1257,
      "경": 1258,
      "계": 1259,
      "고": 1260,
      "골": 1261,
      "공": 1262,
      "과": 1263,
      "관": 1264,
      "교": 1265,
      "구": 1266,
      "국": 1267,
      "굴": 1268,
      "권": 1269,
      "규": 1270,
      "긋": 1271,
      "기": 1272,
      "긱": 1273,
      "김": 1274,
      "끼": 1275,
      "나": 1276,
      "남": 1277,
      "내": 1278,
      "너": 1279,
      "노": 1280,
      "뉴": 1281,
      "는": 1282,
      "니": 1283,
      "다": 1284,
      "단": 1285,
      "달": 1286,
      "답": 1287,
      "대": 1288,
      "더": 1289,
      "도": 1290,
      "돈": 1291,
      "동": 1292,
      "둥": 1293,
      "딩": 1294,
      "떻": 1295,
      "또": 1296,
      "뚜": 1297,
      "뚝": 1298,
      "라": 1299,
      "랑": 1300,
      "래": 1301,
      "랫": 1302,
      "러": 1303,
      "렘": 1304,
      "려": 1305,
      "로": 1306,
      "루": 1307,
      "룬": 1308,
      "룰": 1309,
      "류": 1310,
      "르": 1311,
      "를": 1312,
      "리": 1313,
      "린": 1314,
      "림": 1315,
      "릿": 1316,
      "마": 1317,
      "만": 1318,
      "말": 1319,
      "매": 1320,
      "먹": 1321,
      "메": 1322,
      "며": 1323,
      "명": 1324,
      "모": 1325,
      "몽": 1326,
      "무": 1327,
      "문": 1328,
      "뭘": 1329,
      "뮤": 1330,
      "미": 1331,
      "민": 1332,
      "바": 1333,
      "반": 1334,
      "밥": 1335,
      "배": 1336,
      "백": 1337,
      "밴": 1338,
      "버": 1339,
      "번": 1340,
      "법": 1341,
      "베": 1342,
      "벼": 1343,
      "변": 1344,
      "병": 1345,
      "보": 1346,
      "부": 1347,
      "불": 1348,
      "뷔": 1349,
      "브": 1350,
      "븐": 1351,
      "블": 1352,
      "비": 1353,
      "빈": 1354,
      "뻐": 1355,
      "뿌": 1356,
      "사": 1357,
      "상": 1358,
      "새": 1359,
      "생": 1360,
      "서": 1361,
      "석": 1362,
      "선": 1363,
      "설": 1364,
      "섭": 1365,
      "성": 1366,
      "세": 1367,
      "송": 1368,
      "수": 1369,
      "숙": 1370,
      "스": 1371,
      "슨": 1372,
      "습": 1373,
      "승": 1374,
      "시": 1375,
      "식": 1376,
      "신": 1377,
      "실": 1378,
      "싼": 1379,
      "쌍": 1380,
      "아": 1381,
      "안": 1382,
      "알": 1383,
      "야": 1384,
      "양": 1385,
      "어": 1386,
      "업": 1387,
      "없": 1388,
      "에": 1389,
      "엘": 1390,
      "엥": 1391,
      "여": 1392,
      "역": 1393,
      "연": 1394,
      "열": 1395,
      "영": 1396,
      "예": 1397,
      "오": 1398,
      "올": 1399,
      "옷": 1400,
      "와": 1401,
      "왔": 1402,
      "외": 1403,
      "요": 1404,
      "용": 1405,
      "우": 1406,
      "울": 1407,
      "웆": 1408,
      "워": 1409,
      "원": 1410,
      "월": 1411,
      "유": 1412,
      "윤": 1413,
      "율": 1414,
      "으": 1415,
      "은": 1416,
      "을": 1417,
      "응": 1418,
      "의": 1419,
      "이": 1420,
      "인": 1421,
      "일": 1422,
      "있": 1423,
      "자": 1424,
      "잘": 1425,
      "장": 1426,
      "재": 1427,
      "저": 1428,
      "적": 1429,
      "전": 1430,
      "정": 1431,
      "제": 1432,
      "조": 1433,
      "죄": 1434,
      "죻": 1435,
      "주": 1436,
      "즈": 1437,
      "지": 1438,
      "직": 1439,
      "진": 1440,
      "짓": 1441,
      "짱": 1442,
      "찌": 1443,
      "찡": 1444,
      "차": 1445,
      "창": 1446,
      "찾": 1447,
      "채": 1448,
      "청": 1449,
      "체": 1450,
      "초": 1451,
      "최": 1452,
      "침": 1453,
      "칩": 1454,
      "칫": 1455,
      "카": 1456,
      "커": 1457,
      "케": 1458,
      "코": 1459,
      "콕": 1460,
      "콧": 1461,
      "크": 1462,
      "키": 1463,
      "탄": 1464,
      "탓": 1465,
      "태": 1466,
      "탠": 1467,
      "터": 1468,
      "토": 1469,
      "통": 1470,
      "튜": 1471,
      "트": 1472,
      "티": 1473,
      "틴": 1474,
      "팅": 1475,
      "팝": 1476,
      "퍼": 1477,
      "펄": 1478,
      "평": 1479,
      "폰": 1480,
      "푸": 1481,
      "플": 1482,
      "픽": 1483,
      "하": 1484,
      "학": 1485,
      "한": 1486,
      "함": 1487,
      "항": 1488,
      "해": 1489,
      "햄": 1490,
      "혀": 1491,
      "현": 1492,
      "혜": 1493,
      "호": 1494,
      "홈": 1495,
      "홍": 1496,
      "화": 1497,
      "횊": 1498,
      "회": 1499,
      "횒": 1500,
      "횗": 1501,
      "횜": 1502,
      "후": 1503,
      "훈": 1504,
      "흐": 1505,
      "흥": 1506,
      "희": 1507,
      "︎": 1508,
      "️": 1509,
      "￼": 1510,
      "�": 1511,
      "𖢘": 1512,
      "🆕": 1513,
      "🇫": 1514,
      "🇰": 1515,
      "🇲": 1516,
      "🇳": 1517,
      "🇷": 1518,
      "🇸": 1519,
      "🇺": 1520,
      "🇽": 1521,
      "🌃": 1522,
      "🌄": 1523,
      "🌅": 1524,
      "🌈": 1525,
      "🌍": 1526,
      "🌐": 1527,
      "🌙": 1528,
      "🌟": 1529,
      "🌡": 1530,
      "🌱": 1531,
      "🌳": 1532,
      "🌸": 1533,
      "🌻": 1534,
      "🍀": 1535,
      "🍁": 1536,
      "🍇": 1537,
      "🍑": 1538,
      "🍞": 1539,
      "🍩": 1540,
      "🍯": 1541,
      "🍰": 1542,
      "🍱": 1543,
      "🍷": 1544,
      "🍹": 1545,
      "🍽": 1546,
      "🍾": 1547,
      "🎀": 1548,
      "🎁": 1549,
      "🎄": 1550,
      "🎧": 1551,
      "🎬": 1552,
      "🎯": 1553,
      "🎶": 1554,
      "🏆": 1555,
      "🏋": 1556,
      "🏠": 1557,
      "🏣": 1558,
      "🏦": 1559,
      "🏻": 1560,
      "🏼": 1561,
      "👀": 1562,
      "👉": 1563,
      "👍": 1564,
      "👎": 1565,
      "👏": 1566,
      "👐": 1567,
      "👑": 1568,
      "👦": 1569,
      "👧": 1570,
      "👨": 1571,
      "👩": 1572,
      "👷": 1573,
      "👽": 1574,
      "💀": 1575,
      "💁": 1576,
      "💃": 1577,
      "💅": 1578,
      "💉": 1579,
      "💋": 1580,
      "💎": 1581,
      "💐": 1582,
      "💔": 1583,
      "💕": 1584,
      "💙": 1585,
      "💚": 1586,
      "💜": 1587,
      "💝": 1588,
      "💡": 1589,
      "💢": 1590,
      "💥": 1591,
      "💩": 1592,
      "💪": 1593,
      "💫": 1594,
      "💯": 1595,
      "💰": 1596,
      "💵": 1597,
      "💸": 1598,
      "💻": 1599,
      "💼": 1600,
      "📁": 1601,
      "📅": 1602,
      "📌": 1603,
      "📍": 1604,
      "📎": 1605,
      "📕": 1606,
      "📖": 1607,
      "📞": 1608,
      "📣": 1609,
      "📦": 1610,
      "📱": 1611,
      "📲": 1612,
      "📷": 1613,
      "🔄": 1614,
      "🔅": 1615,
      "🔊": 1616,
      "🔌": 1617,
      "🔑": 1618,
      "🔥": 1619,
      "🔬": 1620,
      "🔰": 1621,
      "🔴": 1622,
      "🔵": 1623,
      "🔶": 1624,
      "🔸": 1625,
      "🔹": 1626,
      "🕑": 1627,
      "🕘": 1628,
      "🕯": 1629,
      "🖐": 1630,
      "🖤": 1631,
      "🗃": 1632,
      "🗓": 1633,
      "😀": 1634,
      "😁": 1635,
      "😂": 1636,
      "😃": 1637,
      "😄": 1638,
      "😅": 1639,
      "😆": 1640,
      "😇": 1641,
      "😈": 1642,
      "😉": 1643,
      "😊": 1644,
      "😋": 1645,
      "😍": 1646,
      "😎": 1647,
      "😐": 1648,
      "😑": 1649,
      "😓": 1650,
      "😔": 1651,
      "😘": 1652,
      "😛": 1653,
      "😜": 1654,
      "😝": 1655,
      "😡": 1656,
      "😢": 1657,
      "😥": 1658,
      "😦": 1659,
      "😩": 1660,
      "😫": 1661,
      "😭": 1662,
      "😮": 1663,
      "😰": 1664,
      "😱": 1665,
      "😲": 1666,
      "😶": 1667,
      "😷": 1668,
      "🙁": 1669,
      "🙂": 1670,
      "🙃": 1671,
      "🙆": 1672,
      "🙋": 1673,
      "🙌": 1674,
      "🙎": 1675,
      "🙏": 1676,
      "🚀": 1677,
      "🚗": 1678,
      "🚘": 1679,
      "🚩": 1680,
      "🚫": 1681,
      "🛍": 1682,
      "🛑": 1683,
      "🛒": 1684,
      "🛡": 1685,
      "🛫": 1686,
      "🤍": 1687,
      "🤑": 1688,
      "🤓": 1689,
      "🤔": 1690,
      "🤗": 1691,
      "🤘": 1692,
      "🤟": 1693,
      "🤡": 1694,
      "🤣": 1695,
      "🤩": 1696,
      "🤪": 1697,
      "🤫": 1698,
      "🤮": 1699,
      "🥄": 1700,
      "🥇": 1701,
      "🥰": 1702,
      "🥳": 1703,
      "🥺": 1704,
      "🦉": 1705,
      "🦊": 1706,
      "🦋": 1707,
      "🦸": 1708,
      "🧤": 1709,
      "🧨": 1710,
      "🧼": 1711,
      "##а": 1712,
      "##н": 1713,
      "##и": 1714,
      "##л": 1715,
      "##ц": 1716,
      "##у": 1717,
      "##г": 1718,
      "##д": 1719,
      "##з": 1720,
      "##к": 1721,
      "##б": 1722,
      "##э": 1723,
      "##р": 1724,
      "##о": 1725,
      "##й": 1726,
      "##ш": 1727,
      "##\"": 1728,
      "##<": 1729,
      "##/": 1730,
      "##ч": 1731,
      "##с": 1732,
      "##е": 1733,
      "##в": 1734,
      "##ү": 1735,
      "##a": 1736,
      "##i": 1737,
      "##х": 1738,
      "##м": 1739,
      "##т": 1740,
      "##ж": 1741,
      "##u": 1742,
      "##m": 1743,
      "##b": 1744,
      "##o": 1745,
      "##ө": 1746,
      "##ы": 1747,
      "##ә": 1748,
      "##һ": 1749,
      "##r": 1750,
      "##p": 1751,
      "##e": 1752,
      "##s": 1753,
      "##v": 1754,
      "##n": 1755,
      "##z": 1756,
      "##l": 1757,
      "##g": 1758,
      "##ё": 1759,
      "##п": 1760,
      "##h": 1761,
      "##d": 1762,
      "##y": 1763,
      "##_": 1764,
      "##7": 1765,
      "##5": 1766,
      "##ь": 1767,
      "##ҥ": 1768,
      "##2": 1769,
      "##є": 1770,
      "##ю": 1771,
      "##ф": 1772,
      "##0": 1773,
      "##1": 1774,
      "##я": 1775,
      "##j": 1776,
      "##x": 1777,
      "##3": 1778,
      "##t": 1779,
      "##4": 1780,
      "##ъ": 1781,
      "##c": 1782,
      "##!": 1783,
      "##)": 1784,
      "##ѳ": 1785,
      "##f": 1786,
      "##🏻": 1787,
      "##ø": 1788,
      "##ō": 1789,
      "##6": 1790,
      "##w": 1791,
      "##k": 1792,
      "##щ": 1793,
      "##9": 1794,
      "##.": 1795,
      "##י": 1796,
      "##נ": 1797,
      "##ה": 1798,
      "##א": 1799,
      "##ר": 1800,
      "##ט": 1801,
      "##8": 1802,
      "##,": 1803,
      "##ҕ": 1804,
      "##庆": 1805,
      "##时": 1806,
      "##彩": 1807,
      "##个": 1808,
      "##位": 1809,
      "##必": 1810,
      "##中": 1811,
      "##으": 1812,
      "##세": 1813,
      "##요": 1814,
      "##è": 1815,
      "##í": 1816,
      "###": 1817,
      "##q": 1818,
      "##ل": 1819,
      "##إ": 1820,
      "##س": 1821,
      "##ك": 1822,
      "##ن": 1823,
      "##د": 1824,
      "##ر": 1825,
      "##ي": 1826,
      "##ة": 1827,
      "##ї": 1828,
      "##і": 1829,
      "##à": 1830,
      "##*": 1831,
      "##ð": 1832,
      "##-": 1833,
      "##[": 1834,
      "##é": 1835,
      "##間": 1836,
      "##賃": 1837,
      "##貸": 1838,
      "##住": 1839,
      "##宅": 1840,
      "##ђ": 1841,
      "##ã": 1842,
      "##ó": 1843,
      "##ë": 1844,
      "##õ": 1845,
      "##ñ": 1846,
      "##û": 1847,
      "##&": 1848,
      "##ѐ": 1849,
      "##'": 1850,
      "##:": 1851,
      "##?": 1852,
      "##ā": 1853,
      "##ึ": 1854,
      "##ก": 1855,
      "##ซ": 1856,
      "##้": 1857,
      "##อ": 1858,
      "##ม": 1859,
      "##ห": 1860,
      "##น": 1861,
      "##ี": 1862,
      "##ไ": 1863,
      "##ฟ": 1864,
      "##し": 1865,
      "##声": 1866,
      "##😄": 1867,
      "##😊": 1868,
      "##田": 1869,
      "##•": 1870,
      "##😅": 1871,
      "##أ": 1872,
      "##م": 1873,
      "##ý": 1874,
      "##{": 1875,
      "##ü": 1876,
      "##ɪ": 1877,
      "##ˈ": 1878,
      "##ɐ": 1879,
      "##~": 1880,
      "##曜": 1881,
      "##日": 1882,
      "##ÿ": 1883,
      "##ا": 1884,
      "##+": 1885,
      "##;": 1886,
      "##©": 1887,
      "##제": 1888,
      "##키": 1889,
      "##렘": 1890,
      "##ı": 1891,
      "##տ": 1892,
      "##̀": 1893,
      "##😫": 1894,
      "##回": 1895,
      "##ö": 1896,
      "##⠀": 1897,
      "##җ": 1898,
      "##南": 1899,
      "##%": 1900,
      "##内": 1901,
      "##楽": 1902,
      "##á": 1903,
      "##が": 1904,
      "##わ": 1905,
      "##あ": 1906,
      "##き": 1907,
      "##こ": 1908,
      "##会": 1909,
      "##福": 1910,
      "##祉": 1911,
      "##法": 1912,
      "##人": 1913,
      "##や": 1914,
      "##す": 1915,
      "##ら": 1916,
      "##ぎ": 1917,
      "##қ": 1918,
      "##ä": 1919,
      "##ô": 1920,
      "##ː": 1921,
      "##ə": 1922,
      "##즈": 1923,
      "##싼": 1924,
      "##다": 1925,
      "##×": 1926,
      "##]": 1927,
      "##ў": 1928,
      "##ک": 1929,
      "##ی": 1930,
      "##₮": 1931,
      "##な": 1932,
      "##た": 1933,
      "##と": 1934,
      "##生": 1935,
      "##る": 1936,
      "##려": 1937,
      "##鑑": 1938,
      "##賞": 1939,
      "##😱": 1940,
      "##ş": 1941,
      "##́": 1942,
      "##>": 1943,
      "##▼": 1944,
      "##ӑ": 1945,
      "##名": 1946,
      "##@": 1947,
      "##븐": 1948,
      "##틴": 1949,
      "##ґ": 1950,
      "##ه": 1951,
      "##ע": 1952,
      "##ṇ": 1953,
      "##ḍ": 1954,
      "##ᅲ": 1955,
      "##ì": 1956,
      "##=": 1957,
      "##線": 1958,
      "##電": 1959,
      "##話": 1960,
      "##機": 1961,
      "##정": 1962,
      "##원": 1963,
      "##ū": 1964,
      "##古": 1965,
      "##语": 1966,
      "##ο": 1967,
      "##γ": 1968,
      "##λ": 1969,
      "##ι": 1970,
      "##κ": 1971,
      "##ά": 1972,
      "##ि": 1973,
      "##ल": 1974,
      "##ン": 1975,
      "##ゲ": 1976,
      "##ー": 1977,
      "##ò": 1978,
      "##计": 1979,
      "##划": 1980,
      "##软": 1981,
      "##件": 1982,
      "##稳": 1983,
      "##定": 1984,
      "##版": 1985,
      "##î": 1986,
      "##ï": 1987,
      "##藤": 1988,
      "##留": 1989,
      "##美": 1990,
      "##子": 1991,
      "##问": 1992,
      "##✈": 1993,
      "##📦": 1994,
      "##}": 1995,
      "##仔": 1996,
      "##🏼": 1997,
      "##🍷": 1998,
      "##이": 1999,
      "##팝": 2000,
      "##ѕ": 2001,
      "##れ": 2002,
      "##か": 2003,
      "##の": 2004,
      "##時": 2005,
      "##☞": 2006,
      "##🥄": 2007,
      "##ћ": 2008,
      "##џ": 2009,
      "##️": 2010,
      "##⃣": 2011,
      "##安": 2012,
      "##路": 2013,
      "##체": 2014,
      "##り": 2015,
      "##국": 2016,
      "##🚘": 2017,
      "##$": 2018,
      "##ň": 2019,
      "##į": 2020,
      "##ح": 2021,
      "##ج": 2022,
      "##ắ": 2023,
      "##€": 2024,
      "##😢": 2025,
      "##😭": 2026,
      "##元": 2027,
      "##云": 2028,
      "##¤": 2029,
      "##혜": 2030,
      "##선": 2031,
      "##희": 2032,
      "##楫": 2033,
      "##流": 2034,
      "##ナ": 2035,
      "##\\": 2036,
      "##ぐ": 2037,
      "##も": 2038,
      "##係": 2039,
      "##保": 2040,
      "##国": 2041,
      "##🤔": 2042,
      "##ᅮ": 2043,
      "##루": 2044,
      "##룰": 2045,
      "##리": 2046,
      "##ᅵ": 2047,
      "##🙏": 2048,
      "##^": 2049,
      "##國": 2050,
      "##礦": 2051,
      "##山": 2052,
      "##展": 2053,
      "##會": 2054,
      "##红": 2055,
      "##华": 2056,
      "##叫": 2057,
      "##医": 2058,
      "##表": 2059,
      "##裏": 2060,
      "##で": 2061,
      "##ন": 2062,
      "##ু": 2063,
      "##ব": 2064,
      "##া": 2065,
      "##দ": 2066,
      "##ǿ": 2067,
      "##ᵯ": 2068,
      "##ɇ": 2069,
      "##ᵴ": 2070,
      "##ŧ": 2071,
      "##ہ": 2072,
      "##़": 2073,
      "##र": 2074,
      "##ा": 2075,
      "##ú": 2076,
      "##蘭": 2077,
      "##府": 2078,
      "##水": 2079,
      "##達": 2080,
      "##等": 2081,
      "##い": 2082,
      "##僕": 2083,
      "##だ": 2084,
      "##っ": 2085,
      "##け": 2086,
      "##ど": 2087,
      "##ご": 2088,
      "##え": 2089,
      "##영": 2090,
      "##갤": 2091,
      "##러": 2092,
      "##😉": 2093,
      "##호": 2094,
      "##섭": 2095,
      "##ç": 2096,
      "##都": 2097,
      "##ぶ": 2098,
      "##훈": 2099,
      "##🤑": 2100,
      "##🌸": 2101,
      "##ᄏ": 2102,
      "##ง": 2103,
      "##ใ": 2104,
      "##ส": 2105,
      "##่": 2106,
      "##แ": 2107,
      "##ว": 2108,
      "##ต": 2109,
      "##า": 2110,
      "##ṭ": 2111,
      "##₪": 2112,
      "##ң": 2113,
      "##🖤": 2114,
      "##ば": 2115,
      "##に": 2116,
      "##連": 2117,
      "##て": 2118,
      "##인": 2119,
      "##구": 2120,
      "##직": 2121,
      "##자": 2122,
      "##ů": 2123,
      "##們": 2124,
      "##江": 2125,
      "##ս": 2126,
      "##비": 2127,
      "##상": 2128,
      "##아": 2129,
      "##務": 2130,
      "##局": 2131,
      "##提": 2132,
      "##出": 2133,
      "##書": 2134,
      "##類": 2135,
      "##너": 2136,
      "##블": 2137,
      "##니": 2138,
      "##티": 2139,
      "##華": 2140,
      "##商": 2141,
      "##場": 2142,
      "##£": 2143,
      "##ầ": 2144,
      "##ќ": 2145,
      "##ん": 2146,
      "##げ": 2147,
      "##ḥ": 2148,
      "##過": 2149,
      "##査": 2150,
      "##証": 2151,
      "##ӏ": 2152,
      "##æ": 2153,
      "##本": 2154,
      "##金": 2155,
      "##♡": 2156,
      "##č": 2157,
      "##○": 2158,
      "##÷": 2159,
      "##ւ": 2160,
      "##զ": 2161,
      "##ո": 2162,
      "##մ": 2163,
      "##「": 2164,
      "##ㄨ": 2165,
      "##ㄟ": 2166,
      "##¬": 2167,
      "##·": 2168,
      "##📌": 2169,
      "##회": 2170,
      "##로": 2171,
      "##한": 2172,
      "##近": 2173,
      "##戰": 2174,
      "##ć": 2175,
      "##θ": 2176,
      "##현": 2177,
      "##숙": 2178,
      "##ğ": 2179,
      "##노": 2180,
      "##ế": 2181,
      "##غ": 2182,
      "##(": 2183,
      "##的": 2184,
      "##概": 2185,
      "##要": 2186,
      "##청": 2187,
      "##御": 2188,
      "##学": 2189,
      "##妹": 2190,
      "##聲": 2191,
      "##製": 2192,
      "##作": 2193,
      "##器": 2194,
      "##龙": 2195,
      "##号": 2196,
      "##码": 2197,
      "##찌": 2198,
      "##ờ": 2199,
      "##理": 2200,
      "##化": 2201,
      "##💉": 2202,
      "##μ": 2203,
      "##返": 2204,
      "##つ": 2205,
      "##ᴇ": 2206,
      "##ɴ": 2207,
      "##載": 2208,
      "##誌": 2209,
      "##平": 2210,
      "##台": 2211,
      "##送": 2212,
      "##钱": 2213,
      "##网": 2214,
      "##站": 2215,
      "##🌙": 2216,
      "##ั": 2217,
      "##ษ": 2218,
      "##์": 2219,
      "##엥": 2220,
      "##ն": 2221,
      "##դ": 2222,
      "##ր": 2223,
      "##ṅ": 2224,
      "##ī": 2225,
      "##ễ": 2226,
      "##ε": 2227,
      "##ώ": 2228,
      "##く": 2229,
      "##ま": 2230,
      "##어": 2231,
      "##부": 2232,
      "##터": 2233,
      "##考": 2234,
      "##夂": 2235,
      "##😋": 2236,
      "##💔": 2237,
      "##ੌ": 2238,
      "##ਟ": 2239,
      "##ਰ": 2240,
      "##재": 2241,
      "##☻": 2242,
      "##开": 2243,
      "##机": 2244,
      "##🗃": 2245,
      "##🔌": 2246,
      "##용": 2247,
      "##န": 2248,
      "##္": 2249,
      "##တ": 2250,
      "##လ": 2251,
      "##ေ": 2252,
      "##း": 2253,
      "##မ": 2254,
      "##ြ": 2255,
      "##ိ": 2256,
      "##ု": 2257,
      "##့": 2258,
      "##ゅ": 2259,
      "##せ": 2260,
      "##⭐": 2261,
      "##서": 2262,
      "##율": 2263,
      "##â": 2264,
      "##더": 2265,
      "##걸": 2266,
      "##望": 2267,
      "##親": 2268,
      "##世": 2269,
      "##帯": 2270,
      "##臨": 2271,
      "##特": 2272,
      "##別": 2273,
      "##給": 2274,
      "##付": 2275,
      "##역": 2276,
      "##나": 2277,
      "##😆": 2278,
      "##😂": 2279,
      "##❷": 2280,
      "##❹": 2281,
      "##❼": 2282,
      "##☈": 2283,
      "##′": 2284,
      "##›": 2285,
      "##地": 2286,
      "##点": 2287,
      "##진": 2288,
      "##법": 2289,
      "##무": 2290,
      "##軒": 2291,
      "##言": 2292,
      "##朝": 2293,
      "##후": 2294,
      "##ҡ": 2295,
      "##达": 2296,
      "##う": 2297,
      "##ざ": 2298,
      "##💯": 2299,
      "##💅": 2300,
      "##ք": 2301,
      "##π": 2302,
      "##💚": 2303,
      "##♥": 2304,
      "##🥰": 2305,
      "##🤣": 2306,
      "##♏": 2307,
      "##门": 2308,
      "##짱": 2309,
      "##미": 2310,
      "##จ": 2311,
      "##😁": 2312,
      "##🖐": 2313,
      "##ᠠ": 2314,
      "##ᠭ": 2315,
      "##ᠰ": 2316,
      "##ᠢ": 2317,
      "##ᠶ": 2318,
      "##ۇ": 2319,
      "##ى": 2320,
      "##ە": 2321,
      "##。": 2322,
      "##≥": 2323,
      "##曲": 2324,
      "##称": 2325,
      "##야": 2326,
      "##京": 2327,
      "##ベ": 2328,
      "##ル": 2329,
      "##█": 2330,
      "##は": 2331,
      "##ӯ": 2332,
      "##우": 2333,
      "##고": 2334,
      "##ɵ": 2335,
      "##ع": 2336,
      "##°": 2337,
      "##新": 2338,
      "##休": 2339,
      "##止": 2340,
      "##😝": 2341,
      "##ف": 2342,
      "##¥": 2343,
      "##行": 2344,
      "##趋": 2345,
      "##势": 2346,
      "##盘": 2347,
      "##😇": 2348,
      "##¿": 2349,
      "##🌃": 2350,
      "##و": 2351,
      "##便": 2352,
      "##文": 2353,
      "##蛋": 2354,
      "##해": 2355,
      "##린": 2356,
      "##🇽": 2357,
      "##じ": 2358,
      "##ょ": 2359,
      "##∆": 2360,
      "##ط": 2361,
      "##르": 2362,
      "##식": 2363,
      "##±": 2364,
      "##コ": 2365,
      "##ビ": 2366,
      "##讃": 2367,
      "##歌": 2368,
      "##α": 2369,
      "##η": 2370,
      "##ʟ": 2371,
      "##ᴜ": 2372,
      "##ʜ": 2373,
      "##ᠷ": 2374,
      "##ᠯ": 2375,
      "##さ": 2376,
      "##뷔": 2377,
      "##라": 2378,
      "##能": 2379,
      "##帮": 2380,
      "##我": 2381,
      "##一": 2382,
      "##忙": 2383,
      "##吗": 2384,
      "##탠": 2385,
      "##기": 2386,
      "##튜": 2387,
      "##브": 2388,
      "##♚": 2389,
      "##ص": 2390,
      "##ג": 2391,
      "##題": 2392,
      "##意": 2393,
      "##識": 2394,
      "##ղ": 2395,
      "##լ": 2396,
      "##ա": 2397,
      "##կ": 2398,
      "##🥳": 2399,
      "##👍": 2400,
      "##🍇": 2401,
      "##🍞": 2402,
      "##🍑": 2403,
      "##ب": 2404,
      "##故": 2405,
      "##キ": 2406,
      "##ミ": 2407,
      "##逢": 2408,
      "##ろ": 2409,
      "##☺": 2410,
      "##화": 2411,
      "##찡": 2412,
      "##긋": 2413,
      "##ち": 2414,
      "##用": 2415,
      "##者": 2416,
      "##ė": 2417,
      "##ή": 2418,
      "##🤟": 2419,
      "##卡": 2420,
      "##米": 2421,
      "##洛": 2422,
      "##❤": 2423,
      "##松": 2424,
      "##격": 2425,
      "##송": 2426,
      "##ت": 2427,
      "##خ": 2428,
      "##舞": 2429,
      "##浜": 2430,
      "##駅": 2431,
      "##糞": 2432,
      "##眉": 2433,
      "##毛": 2434,
      "##말": 2435,
      "##을": 2436,
      "##ł": 2437,
      "##민": 2438,
      "##권": 2439,
      "##동": 2440,
      "##차": 2441,
      "##🤪": 2442,
      "##💁": 2443,
      "##🔥": 2444,
      "##긱": 2445,
      "##√": 2446,
      "##説": 2447,
      "##ғ": 2448,
      "##룬": 2449,
      "##ै": 2450,
      "##ं": 2451,
      "##क": 2452,
      "##칫": 2453,
      "##פ": 2454,
      "##ャ": 2455,
      "##ク": 2456,
      "##ニ": 2457,
      "##チ": 2458,
      "##ソ": 2459,
      "##ウ": 2460,
      "##タ": 2461,
      "##唱": 2462,
      "##ᄀ": 2463,
      "##🦋": 2464,
      "##지": 2465,
      "##🤩": 2466,
      "##👀": 2467,
      "##💼": 2468,
      "##내": 2469,
      "##문": 2470,
      "##ে": 2471,
      "##্": 2472,
      "##ই": 2473,
      "##😍": 2474,
      "##ό": 2475,
      "##ӣ": 2476,
      "##ǎ": 2477,
      "##|": 2478,
      "##❀": 2479,
      "##ҷ": 2480,
      "##際": 2481,
      "##経": 2482,
      "##済": 2483,
      "##部": 2484,
      "##ß": 2485,
      "##よ": 2486,
      "##塚": 2487,
      "##優": 2488,
      "##斗": 2489,
      "##함": 2490,
      "##매": 2491,
      "##를": 2492,
      "##🚫": 2493,
      "##♠": 2494,
      "##💰": 2495,
      "##下": 2496,
      "##载": 2497,
      "##카": 2498,
      "##콕": 2499,
      "##크": 2500,
      "##는": 2501,
      "##身": 2502,
      "##ش": 2503,
      "##サ": 2504,
      "##태": 2505,
      "##🏆": 2506,
      "##ض": 2507,
      "##气": 2508,
      "##ƒ": 2509,
      "##š": 2510,
      "##を": 2511,
      "##視": 2512,
      "##̇": 2513,
      "##ẙ": 2514,
      "##带": 2515,
      "##ด": 2516,
      "##ย": 2517,
      "##̄": 2518,
      "##め": 2519,
      "##å": 2520,
      "##ę": 2521,
      "##ś": 2522,
      "##🌈": 2523,
      "##˗": 2524,
      "##하": 2525,
      "##ᠨ": 2526,
      "##ᠳ": 2527,
      "##ᠦ": 2528,
      "##憎": 2529,
      "##ז": 2530,
      "##密": 2531,
      "##照": 2532,
      "##성": 2533,
      "##ṃ": 2534,
      "##울": 2535,
      "##도": 2536,
      "##관": 2537,
      "##창": 2538,
      "##👐": 2539,
      "##ブ": 2540,
      "##ハ": 2541,
      "##イ": 2542,
      "##フ": 2543,
      "##代": 2544,
      "##委": 2545,
      "##员": 2546,
      "##建": 2547,
      "##적": 2548,
      "##☮": 2549,
      "##վ": 2550,
      "##ի": 2551,
      "##इ": 2552,
      "##ए": 2553,
      "##먹": 2554,
      "##게": 2555,
      "##👏": 2556,
      "##交": 2557,
      "##通": 2558,
      "##运": 2559,
      "##输": 2560,
      "##ூ": 2561,
      "##ழ": 2562,
      "##ை": 2563,
      "##க": 2564,
      "##்": 2565,
      "##ி": 2566,
      "##ட": 2567,
      "##ா": 2568,
      "##œ": 2569,
      "##ひ": 2570,
      "##工": 2571,
      "##衛": 2572,
      "##星": 2573,
      "##打": 2574,
      "##上": 2575,
      "##😘": 2576,
      "##🤗": 2577,
      "##还": 2578,
      "##型": 2579,
      "##健": 2580,
      "##康": 2581,
      "##险": 2582,
      "##停": 2583,
      "##售": 2584,
      "##间": 2585,
      "##᭄": 2586,
      "##ᴀ": 2587,
      "##ᴍ": 2588,
      "##ʀ": 2589,
      "##リ": 2590,
      "##ằ": 2591,
      "##天": 2592,
      "##ゴ": 2593,
      "##語": 2594,
      "##의": 2595,
      "##響": 2596,
      "##団": 2597,
      "##−": 2598,
      "##ĕ": 2599,
      "##̈": 2600,
      "##●": 2601,
      "##팅": 2602,
      "##저": 2603,
      "##사": 2604,
      "##트": 2605,
      "##ե": 2606,
      "##←": 2607,
      "##、": 2608,
      "##😎": 2609,
      "##小": 2610,
      "##画": 2611,
      "##册": 2612,
      "##토": 2613,
      "##끼": 2614,
      "##悲": 2615,
      "##夢": 2616,
      "##見": 2617,
      "##ј": 2618,
      "##에": 2619,
      "##ê": 2620,
      "##―": 2621,
      "##벼": 2622,
      "##웆": 2623,
      "##주": 2624,
      "##💃": 2625,
      "##업": 2626,
      "##장": 2627,
      "##변": 2628,
      "##경": 2629,
      "##胡": 2630,
      "##ă": 2631,
      "##골": 2632,
      "##뉴": 2633,
      "##스": 2634,
      "##ת": 2635,
      "##向": 2636,
      "##側": 2637,
      "##슨": 2638,
      "##ᠥ": 2639,
      "##ᠵ": 2640,
      "##ᠮ": 2641,
      "##🇷": 2642,
      "##답": 2643,
      "##δ": 2644,
      "##ń": 2645,
      "##수": 2646,
      "##・": 2647,
      "##ť": 2648,
      "##ǐ": 2649,
      "##∂": 2650,
      "##み": 2651,
      "##유": 2652,
      "##빈": 2653,
      "##랑": 2654,
      "##엘": 2655,
      "##☤": 2656,
      "##대": 2657,
      "##생": 2658,
      "##명": 2659,
      "##과": 2660,
      "##학": 2661,
      "##见": 2662,
      "##君": 2663,
      "##시": 2664,
      "##윤": 2665,
      "##込": 2666,
      "##面": 2667,
      "##🙃": 2668,
      "##😔": 2669,
      "##指": 2670,
      "##뚝": 2671,
      "##배": 2672,
      "##실": 2673,
      "##래": 2674,
      "##예": 2675,
      "##二": 2676,
      "##月": 2677,
      "##奇": 2678,
      "##迹": 2679,
      "##译": 2680,
      "##ұ": 2681,
      "##њ": 2682,
      "##ภ": 2683,
      "##ค": 2684,
      "##ו": 2685,
      "##ל": 2686,
      "##十": 2687,
      "##ř": 2688,
      "##介": 2689,
      "##✨": 2690,
      "##🇺": 2691,
      "##չ": 2692,
      "##̷": 2693,
      "##둥": 2694,
      "##ě": 2695,
      "##ҳ": 2696,
      "##র": 2697,
      "##ক": 2698,
      "##ি": 2699,
      "##读": 2700,
      "##🤘": 2701,
      "##뮤": 2702,
      "##悔": 2703,
      "##ᠡ": 2704,
      "##ᠬ": 2705,
      "##떻": 2706,
      "##航": 2707,
      "##际": 2708,
      "##ư": 2709,
      "##ớ": 2710,
      "##🛫": 2711,
      "##💵": 2712,
      "##💕": 2713,
      "##漏": 2714,
      "##洞": 2715,
      "##💋": 2716,
      "##让": 2717,
      "##们": 2718,
      "##记": 2719,
      "##太": 2720,
      "##宗": 2721,
      "##ľ": 2722,
      "##★": 2723,
      "##😜": 2724,
      "##ѓ": 2725,
      "##ʏ": 2726,
      "##ը": 2727,
      "##ィ": 2728,
      "##シ": 2729,
      "##ョ": 2730,
      "##信": 2731,
      "##誉": 2732,
      "##夕": 2733,
      "##✿": 2734,
      "##겠": 2735,
      "##形": 2736,
      "##包": 2737,
      "##ӈ": 2738,
      "##†": 2739,
      "##マ": 2740,
      "##ム": 2741,
      "##ド": 2742,
      "##∞": 2743,
      "##心": 2744,
      "##そ": 2745,
      "##ジ": 2746,
      "##ガ": 2747,
      "##९": 2748,
      "##४": 2749,
      "##७": 2750,
      "##ύ": 2751,
      "##ρ": 2752,
      "##ν": 2753,
      "##ς": 2754,
      "##ਾ": 2755,
      "##ਪ": 2756,
      "##ੂ": 2757,
      "##̌": 2758,
      "##≈": 2759,
      "##午": 2760,
      "##辺": 2761,
      "##祐": 2762,
      "##紀": 2763,
      "##♛": 2764,
      "##ゃ": 2765,
      "##채": 2766,
      "##斥": 2767,
      "##责": 2768,
      "##怎": 2769,
      "##么": 2770,
      "##皇": 2771,
      "##恩": 2772,
      "##娱": 2773,
      "##乐": 2774,
      "##🦉": 2775,
      "##ほ": 2776,
      "##鵬": 2777,
      "##昌": 2778,
      "##召": 2779,
      "##항": 2780,
      "##월": 2781,
      "##҉": 2782,
      "##͜": 2783,
      "##̸": 2784,
      "##̵": 2785,
      "##͞": 2786,
      "##🇳": 2787,
      "##命": 2788,
      "##業": 2789,
      "##管": 2790,
      "##好": 2791,
      "##ゆ": 2792,
      "##歳": 2793,
      "##ἰ": 2794,
      "##ί": 2795,
      "##υ": 2796,
      "##夜": 2797,
      "##弦": 2798,
      "##阒": 2799,
      "##斯": 2800,
      "##泰": 2801,
      "##発": 2802,
      "##펄": 2803,
      "##설": 2804,
      "##류": 2805,
      "##☛": 2806,
      "##💫": 2807,
      "##ੈ": 2808,
      "##ੀ": 2809,
      "##초": 2810,
      "##코": 2811,
      "##릿": 2812,
      "##죻": 2813,
      "##ӧ": 2814,
      "##ӱ": 2815,
      "##᠋": 2816,
      "##ᠼ": 2817,
      "##免": 2818,
      "##費": 2819,
      "##푸": 2820,
      "##딩": 2821,
      "##ɑ": 2822,
      "##ิ": 2823,
      "##โ": 2824,
      "##」": 2825,
      "##ӓ": 2826,
      "##💥": 2827,
      "##ᠤ": 2828,
      "##😀": 2829,
      "##🛒": 2830,
      "##☘": 2831,
      "##暲": 2832,
      "##陝": 2833,
      "##燼": 2834,
      "##勖": 2835,
      "##며": 2836,
      "##昴": 2837,
      "##😃": 2838,
      "##挨": 2839,
      "##拶": 2840,
      "##🦊": 2841,
      "##普": 2842,
      "##전": 2843,
      "##🤮": 2844,
      "##辉": 2845,
      "##林": 2846,
      "##폰": 2847,
      "##밥": 2848,
      "##연": 2849,
      "##和": 2850,
      "##音": 2851,
      "##ペ": 2852,
      "##现": 2853,
      "##塑": 2854,
      "##业": 2855,
      "##公": 2856,
      "##众": 2857,
      "##象": 2858,
      "##ذ": 2859,
      "##🇸": 2860,
      "##보": 2861,
      "##통": 2862,
      "##ӄ": 2863,
      "##♦": 2864,
      "##เ": 2865,
      "##พ": 2866,
      "##ล": 2867,
      "##계": 2868,
      "##올": 2869,
      "##림": 2870,
      "##픽": 2871,
      "##前": 2872,
      "##离": 2873,
      "##线": 2874,
      "##ゼ": 2875,
      "##ギ": 2876,
      "##돈": 2877,
      "##企": 2878,
      "##社": 2879,
      "##任": 2880,
      "##♪": 2881,
      "##♫": 2882,
      "##情": 2883,
      "##味": 2884,
      "##儿": 2885,
      "##没": 2886,
      "##有": 2887,
      "##长": 2888,
      "##승": 2889,
      "##규": 2890,
      "##姿": 2891,
      "##ē": 2892,
      "##藏": 2893,
      "##族": 2894,
      "##自": 2895,
      "##治": 2896,
      "##州": 2897,
      "##조": 2898,
      "##🥺": 2899,
      "##đ": 2900,
      "##紇": 2901,
      "##≤": 2902,
      "##西": 2903,
      "##勧": 2904,
      "##玉": 2905,
      "##良": 2906,
      "##帝": 2907,
      "##흐": 2908,
      "##굴": 2909,
      "##動": 2910,
      "##車": 2911,
      "##→": 2912,
      "##カ": 2913,
      "##湖": 2914,
      "##β": 2915,
      "##횊": 2916,
      "##횒": 2917,
      "##횗": 2918,
      "##ω": 2919,
      "##τ": 2920,
      "##φ": 2921,
      "##残": 2922,
      "##登": 2923,
      "##录": 2924,
      "##址": 2925,
      "##ฬ": 2926,
      "##お": 2927,
      "##モ": 2928,
      "##諸": 2929,
      "##字": 2930,
      "##改": 2931,
      "##革": 2932,
      "##յ": 2933,
      "##👎": 2934,
      "##分": 2935,
      "##뻐": 2936,
      "##ਿ": 2937,
      "##ਸ": 2938,
      "##ਮ": 2939,
      "##変": 2940,
      "##ぬ": 2941,
      "##早": 2942,
      "##士": 2943,
      "##破": 2944,
      "##解": 2945,
      "##ᠫ": 2946,
      "##ᠴ": 2947,
      "##品": 2948,
      "##칩": 2949,
      "##와": 2950,
      "##〓": 2951,
      "##黄": 2952,
      "##韬": 2953,
      "##흥": 2954,
      "##是": 2955,
      "##ق": 2956,
      "##万": 2957,
      "##蒙": 2958,
      "##图": 2959,
      "##格": 2960,
      "##里": 2961,
      "##克": 2962,
      "##選": 2963,
      "##べ": 2964,
      "##気": 2965,
      "##갑": 2966,
      "##습": 2967,
      "##은": 2968,
      "##안": 2969,
      "##짓": 2970,
      "##오": 2971,
      "##플": 2972,
      "##랫": 2973,
      "##်": 2974,
      "##💙": 2975,
      "##가": 2976,
      "##왔": 2977,
      "##ий": 2978,
      "##аа": 2979,
      "##ай": 2980,
      "##ээ": 2981,
      "##ан": 2982,
      "##ар": 2983,
      "##ол": 2984,
      "бай": 2985,
      "##уу": 2986,
      "##ийн": 2987,
      "##ал": 2988,
      "##аг": 2989,
      "##үү": 2990,
      "##эг": 2991,
      "##эн": 2992,
      "##эл": 2993,
      "##эр": 2994,
      "##он": 2995,
      "бол": 2996,
      "##үй": 2997,
      "##ах": 2998,
      "##ын": 2999,
      "##ил": 3000,
      "##өр": 3001,
      "##ин": 3002,
      "##оо": 3003,
      "##эд": 3004,
      "##гүй": 3005,
      "нь": 3006,
      "##гаа": 3007,
      "хү": 3008,
      "##ийг": 3009,
      "##эх": 3010,
      "би": 3011,
      "##ад": 3012,
      "##сан": 3013,
      "##уул": 3014,
      "##на": 3015,
      "##ам": 3016,
      "##өө": 3017,
      "##ээр": 3018,
      "##эж": 3019,
      "##ур": 3020,
      "##ог": 3021,
      "##нэ": 3022,
      "##ох": 3023,
      "##өн": 3024,
      "##ыг": 3025,
      "байна": 3026,
      "##эй": 3027,
      "##сэн": 3028,
      "##аар": 3029,
      "бү": 3030,
      "юм": 3031,
      "##тай": 3032,
      "##ор": 3033,
      "##нд": 3034,
      "##тэй": 3035,
      "##ой": 3036,
      "ор": 3037,
      "##ууд": 3038,
      "энэ": 3039,
      "##гийн": 3040,
      "##өл": 3041,
      "##ас": 3042,
      "##ний": 3043,
      "##эм": 3044,
      "хэр": 3045,
      "хар": 3046,
      "##иг": 3047,
      "##ны": 3048,
      "байгаа": 3049,
      "##өг": 3050,
      "##үүл": 3051,
      "##даг": 3052,
      "##га": 3053,
      "аж": 3054,
      "гэж": 3055,
      "ту": 3056,
      "ху": 3057,
      "##чи": 3058,
      "##од": 3059,
      "та": 3060,
      "##ом": 3061,
      "ав": 3062,
      "##тг": 3063,
      "нэг": 3064,
      "##лаг": 3065,
      "гар": 3066,
      "ам": 3067,
      "##даа": 3068,
      "эр": 3069,
      "##аж": 3070,
      "##эв": 3071,
      "##ээд": 3072,
      "байх": 3073,
      "өөр": 3074,
      "мэд": 3075,
      "##..": 3076,
      "##той": 3077,
      "##онг": 3078,
      "хэрэг": 3079,
      "ул": 3080,
      "бу": 3081,
      "##аас": 3082,
      "ол": 3083,
      "хам": 3084,
      "##йл": 3085,
      "хо": 3086,
      "##ээс": 3087,
      "##ав": 3088,
      "ал": 3089,
      "тэр": 3090,
      "...": 3091,
      "##сон": 3092,
      "ир": 3093,
      "##өх": 3094,
      "ар": 3095,
      "##өв": 3096,
      "ажил": 3097,
      "##ир": 3098,
      "хүн": 3099,
      "##аад": 3100,
      "хэл": 3101,
      "хий": 3102,
      "##үүд": 3103,
      "##нг": 3104,
      "үү": 3105,
      "уу": 3106,
      "сай": 3107,
      "байсан": 3108,
      "##ьд": 3109,
      "##ээл": 3110,
      "##алт": 3111,
      "##жээ": 3112,
      "бид": 3113,
      "яв": 3114,
      "их": 3115,
      "##хан": 3116,
      "##дээ": 3117,
      "сан": 3118,
      "улс": 3119,
      "##ат": 3120,
      "##дэг": 3121,
      "тан": 3122,
      "##но": 3123,
      "дар": 3124,
      "##ая": 3125,
      "хув": 3126,
      "эх": 3127,
      "үз": 3128,
      "##лаа": 3129,
      "хүр": 3130,
      "##үүх": 3131,
      "бар": 3132,
      "болох": 3133,
      "##им": 3134,
      "##оор": 3135,
      "бод": 3136,
      "##дал": 3137,
      "гэ": 3138,
      "дээр": 3139,
      "##онгол": 3140,
      "өг": 3141,
      "##ов": 3142,
      "##ер": 3143,
      "төр": 3144,
      "ан": 3145,
      "зүй": 3146,
      "үйл": 3147,
      "цаг": 3148,
      "##гаар": 3149,
      "мин": 3150,
      "##доо": 3151,
      "ий": 3152,
      "##чл": 3153,
      "бүр": 3154,
      "##гуул": 3155,
      "ас": 3156,
      "20": 3157,
      "тал": 3158,
      "жил": 3159,
      "##эс": 3160,
      "##аш": 3161,
      "##их": 3162,
      "##гээ": 3163,
      "##гээр": 3164,
      "монгол": 3165,
      "бүх": 3166,
      "##өөд": 3167,
      "гэд": 3168,
      "мөн": 3169,
      "болно": 3170,
      "##нийг": 3171,
      "##уур": 3172,
      "үе": 3173,
      "##ул": 3174,
      "##аз": 3175,
      "зөв": 3176,
      "чад": 3177,
      "##лээ": 3178,
      "өм": 3179,
      "вэ": 3180,
      "ур": 3181,
      "##мар": 3182,
      "түү": 3183,
      "юу": 3184,
      "байдаг": 3185,
      "##аан": 3186,
      "олон": 3187,
      "тог": 3188,
      "дээ": 3189,
      "##чих": 3190,
      "##лах": 3191,
      "гэх": 3192,
      "ил": 3193,
      "сур": 3194,
      "##хай": 3195,
      "##анд": 3196,
      "ямар": 3197,
      "гэсэн": 3198,
      "##сөн": 3199,
      "##мүү": 3200,
      "##энд": 3201,
      "зүйл": 3202,
      "хүмүү": 3203,
      "шин": 3204,
      "##хий": 3205,
      "##лэг": 3206,
      "зар": 3207,
      "эм": 3208,
      "##ож": 3209,
      "баг": 3210,
      "яр": 3211,
      "##этг": 3212,
      "хүмүүс": 3213,
      "##чил": 3214,
      "хэм": 3215,
      "гэр": 3216,
      "газ": 3217,
      "##цаа": 3218,
      "тэд": 3219,
      "##өөр": 3220,
      "өд": 3221,
      "##дл": 3222,
      "тэг": 3223,
      "##уулах": 3224,
      "шүү": 3225,
      "үн": 3226,
      "хүүх": 3227,
      "тус": 3228,
      "ер": 3229,
      "хоё": 3230,
      "##шиг": 3231,
      "ман": 3232,
      "##арын": 3233,
      "##ут": 3234,
      "##гал": 3235,
      "тү": 3236,
      "одоо": 3237,
      "өмн": 3238,
      "##омж": 3239,
      "төл": 3240,
      "ёс": 3241,
      "хоёр": 3242,
      "##чин": 3243,
      "амьд": 3244,
      "дараа": 3245,
      "##охи": 3246,
      "##агд": 3247,
      "маш": 3248,
      "##лийн": 3249,
      "##гийг": 3250,
      "хамгийн": 3251,
      "биш": 3252,
      "хол": 3253,
      "##лэл": 3254,
      "чин": 3255,
      "дэл": 3256,
      "##дв": 3257,
      "ний": 3258,
      "зас": 3259,
      "тий": 3260,
      "##жил": 3261,
      "эрх": 3262,
      "##ахгүй": 3263,
      "##өд": 3264,
      "эс": 3265,
      "өр": 3266,
      "##оод": 3267,
      "##ос": 3268,
      "##ис": 3269,
      "хүс": 3270,
      "сайн": 3271,
      "нар": 3272,
      "тухай": 3273,
      "хэд": 3274,
      "тийм": 3275,
      "боломж": 3276,
      "үр": 3277,
      "хя": 3278,
      "##энэ": 3279,
      "он": 3280,
      "##үүр": 3281,
      "##лэх": 3282,
      "##лага": 3283,
      "дах": 3284,
      "ийм": 3285,
      "асууд": 3286,
      "байгуул": 3287,
      "нам": 3288,
      "##аал": 3289,
      "гэдэг": 3290,
      "бус": 3291,
      "дү": 3292,
      "##вэл": 3293,
      "##чид": 3294,
      "##дийн": 3295,
      "бүт": 3296,
      "хэрэгтэй": 3297,
      "сон": 3298,
      "зор": 3299,
      "тав": 3300,
      "анх": 3301,
      "миний": 3302,
      "##лын": 3303,
      "болон": 3304,
      "##эгд": 3305,
      "харин": 3306,
      "болг": 3307,
      "##айр": 3308,
      "##уй": 3309,
      "##от": 3310,
      "өн": 3311,
      "##лд": 3312,
      "##гд": 3313,
      "холб": 3314,
      "##олд": 3315,
      "сэтг": 3316,
      "ын": 3317,
      "##үүлэх": 3318,
      "хур": 3319,
      "##ид": 3320,
      "хэ": 3321,
      "нэр": 3322,
      "##оос": 3323,
      "манай": 3324,
      "шиг": 3325,
      "##рал": 3326,
      "болсон": 3327,
      "бая": 3328,
      "201": 3329,
      "ашиг": 3330,
      "су": 3331,
      "хор": 3332,
      "ду": 3333,
      "хуул": 3334,
      "##ик": 3335,
      "хийх": 3336,
      "зур": 3337,
      "өмнө": 3338,
      "даа": 3339,
      "##тэл": 3340,
      "болов": 3341,
      "##амж": 3342,
      "##дог": 3343,
      "##хэн": 3344,
      "ёстой": 3345,
      "эн": 3346,
      "##иш": 3347,
      "##гө": 3348,
      "дуу": 3349,
      "удаа": 3350,
      "##онд": 3351,
      "##двэр": 3352,
      "ший": 3353,
      "өдөр": 3354,
      "##вал": 3355,
      "##бар": 3356,
      "##иж": 3357,
      "##гэл": 3358,
      "хэн": 3359,
      "бие": 3360,
      "бас": 3361,
      "сонг": 3362,
      "##ээн": 3363,
      "##лог": 3364,
      "бур": 3365,
      "ун": 3366,
      "мэдээл": 3367,
      "шинэ": 3368,
      "##00": 3369,
      "дур": 3370,
      "##иу": 3371,
      "байж": 3372,
      "талаар": 3373,
      "##лан": 3374,
      "хуга": 3375,
      "##чир": 3376,
      "##лөг": 3377,
      "##лг": 3378,
      "зал": 3379,
      "том": 3380,
      "##уулж": 3381,
      "ирг": 3382,
      "нас": 3383,
      "чинь": 3384,
      "хугацаа": 3385,
      "авах": 3386,
      "##лаж": 3387,
      "газар": 3388,
      "болж": 3389,
      "үед": 3390,
      "улсын": 3391,
      "хан": 3392,
      "гэхдээ": 3393,
      "##тын": 3394,
      "##ен": 3395,
      "өнг": 3396,
      "тө": 3397,
      "##эгтэй": 3398,
      "илүү": 3399,
      "##тр": 3400,
      "байр": 3401,
      "нөх": 3402,
      "##олц": 3403,
      "тод": 3404,
      "##вар": 3405,
      "инг": 3406,
      "бат": 3407,
      "шаар": 3408,
      "##нээс": 3409,
      "##тан": 3410,
      "хөг": 3411,
      "тэм": 3412,
      "гад": 3413,
      "хэмжээ": 3414,
      "ком": 3415,
      "таны": 3416,
      "зү": 3417,
      "тогл": 3418,
      "##лал": 3419,
      "оны": 3420,
      "##эмж": 3421,
      "бөг": 3422,
      "үг": 3423,
      "##үүн": 3424,
      "тай": 3425,
      "##илц": 3426,
      "ай": 3427,
      "##лыг": 3428,
      "өв": 3429,
      "өөрийн": 3430,
      "ган": 3431,
      "нийт": 3432,
      "жилийн": 3433,
      "шаард": 3434,
      "хийж": 3435,
      "##элт": 3436,
      "##эхгүй": 3437,
      "зах": 3438,
      "бэл": 3439,
      "гэв": 3440,
      "##дын": 3441,
      "чи": 3442,
      "##айг": 3443,
      "тогт": 3444,
      "##эрг": 3445,
      "хүний": 3446,
      "сарын": 3447,
      "гээд": 3448,
      "ойл": 3449,
      "буй": 3450,
      "над": 3451,
      "өнөөд": 3452,
      "сал": 3453,
      "хувьд": 3454,
      "##иул": 3455,
      "##эхээр": 3456,
      "нэгэн": 3457,
      "##өнхий": 3458,
      "амьдрал": 3459,
      "сар": 3460,
      "зохи": 3461,
      "дав": 3462,
      "хайр": 3463,
      "эд": 3464,
      "авч": 3465,
      "ерөнхий": 3466,
      "төс": 3467,
      "най": 3468,
      "##ьж": 3469,
      "хүнд": 3470,
      "бөгөөд": 3471,
      "хон": 3472,
      "сэтгэл": 3473,
      "##рийн": 3474,
      "биз": 3475,
      "бич": 3476,
      "ойлг": 3477,
      "##рын": 3478,
      "##сн": 3479,
      "алб": 3480,
      "дот": 3481,
      "##өөс": 3482,
      "бил": 3483,
      "комп": 3484,
      "##гах": 3485,
      "онд": 3486,
      "##хал": 3487,
      "үнд": 3488,
      "хаа": 3489,
      "зам": 3490,
      "##асан": 3491,
      "##ес": 3492,
      "##оон": 3493,
      "##огд": 3494,
      "сайхан": 3495,
      "##даж": 3496,
      "ийн": 3497,
      "хүлээ": 3498,
      "хал": 3499,
      "##хийн": 3500,
      "##хөн": 3501,
      "##өлөө": 3502,
      "минь": 3503,
      "хэв": 3504,
      "байхгүй": 3505,
      "##ив": 3506,
      "түүний": 3507,
      "хой": 3508,
      "тоо": 3509,
      "суу": 3510,
      "орон": 3511,
      "өнгөр": 3512,
      "##ит": 3513,
      "19": 3514,
      "шал": 3515,
      "##аагүй": 3516,
      "бий": 3517,
      "хувь": 3518,
      "##чийн": 3519,
      "хамт": 3520,
      "##лагаа": 3521,
      "баяр": 3522,
      "санал": 3523,
      "##хаа": 3524,
      "гиш": 3525,
      "##хүү": 3526,
      "худал": 3527,
      "зарим": 3528,
      "##нууд": 3529,
      "даг": 3530,
      "##адаг": 3531,
      "асуудал": 3532,
      "ох": 3533,
      "##тад": 3534,
      "тур": 3535,
      "##орх": 3536,
      "##ван": 3537,
      "нэм": 3538,
      "##ич": 3539,
      "##шин": 3540,
      "##гаж": 3541,
      "уул": 3542,
      "иргэд": 3543,
      "ард": 3544,
      "##тгэл": 3545,
      "хэс": 3546,
      "гур": 3547,
      "бэ": 3548,
      "дол": 3549,
      "учир": 3550,
      "засгийн": 3551,
      "##дан": 3552,
      "эсвэл": 3553,
      "уд": 3554,
      "үүнийг": 3555,
      "мар": 3556,
      "10": 3557,
      "ах": 3558,
      "компан": 3559,
      "мэдээ": 3560,
      "арга": 3561,
      "тохи": 3562,
      "төрийн": 3563,
      "##ун": 3564,
      "##охир": 3565,
      "##үүлж": 3566,
      "эмэгтэй": 3567,
      "##уулсан": 3568,
      "ут": 3569,
      "яаг": 3570,
      "хөгж": 3571,
      "хө": 3572,
      "тат": 3573,
      "нут": 3574,
      "ганц": 3575,
      "өнөөдөр": 3576,
      "ажиллагаа": 3577,
      "##орхой": 3578,
      "залуу": 3579,
      "төлөө": 3580,
      "чу": 3581,
      "хоол": 3582,
      "байдл": 3583,
      "хоног": 3584,
      "тодорхой": 3585,
      "##агч": 3586,
      "боломжтой": 3587,
      "яагаад": 3588,
      "билээ": 3589,
      "хэдэн": 3590,
      "төг": 3591,
      "##алтын": 3592,
      "үнэ": 3593,
      "##дсан": 3594,
      "үнэн": 3595,
      "##чүүд": 3596,
      "байлаа": 3597,
      "оролц": 3598,
      "хөр": 3599,
      "##сг": 3600,
      "##оё": 3601,
      "санаа": 3602,
      "##лоо": 3603,
      "ой": 3604,
      "##дөө": 3605,
      "энд": 3606,
      "эхэл": 3607,
      "ханд": 3608,
      "хөд": 3609,
      "уг": 3610,
      "сүүл": 3611,
      "маг": 3612,
      "##гаан": 3613,
      "хэрхэн": 3614,
      "##өм": 3615,
      "##ган": 3616,
      "##иа": 3617,
      "анг": 3618,
      "яг": 3619,
      "##эхүү": 3620,
      "тулд": 3621,
      "##гөө": 3622,
      "##чууд": 3623,
      "##өлт": 3624,
      "өнд": 3625,
      "ба": 3626,
      "байдал": 3627,
      "##дах": 3628,
      "##чр": 3629,
      "гэдгийг": 3630,
      "үйлдвэр": 3631,
      "хүүхд": 3632,
      "заа": 3633,
      "##уун": 3634,
      "##жилт": 3635,
      "те": 3636,
      "эз": 3637,
      "##ирх": 3638,
      "хич": 3639,
      "хүүхэд": 3640,
      "өөрчл": 3641,
      "чам": 3642,
      "бүгд": 3643,
      "албан": 3644,
      "дахин": 3645,
      "бүтээ": 3646,
      "бусад": 3647,
      "зөвхөн": 3648,
      "тэн": 3649,
      "сургуул": 3650,
      "хүртэл": 3651,
      "холбоо": 3652,
      "гол": 3653,
      "дэлхийн": 3654,
      "хүч": 3655,
      "мөр": 3656,
      "шил": 3657,
      "турш": 3658,
      "##эт": 3659,
      "##айн": 3660,
      "ид": 3661,
      "ая": 3662,
      "ном": 3663,
      "##илг": 3664,
      "бидний": 3665,
      "сү": 3666,
      "эц": 3667,
      "##эц": 3668,
      "надад": 3669,
      "учр": 3670,
      "аль": 3671,
      "маан": 3672,
      "##лийг": 3673,
      "##ист": 3674,
      "тар": 3675,
      "чан": 3676,
      "бурхан": 3677,
      "түр": 3678,
      "бүс": 3679,
      "маань": 3680,
      "##оол": 3681,
      "##чилгээ": 3682,
      "дахь": 3683,
      "намайг": 3684,
      "ад": 3685,
      "сая": 3686,
      "##зээ": 3687,
      "анхаар": 3688,
      "дэмж": 3689,
      "болохгүй": 3690,
      "үргэл": 3691,
      "##er": 3692,
      "тэгээд": 3693,
      "##тээ": 3694,
      "##дар": 3695,
      "##in": 3696,
      "гай": 3697,
      "дунд": 3698,
      "ин": 3699,
      "бага": 3700,
      "хууль": 3701,
      "хэрэв": 3702,
      "##хээ": 3703,
      "##уг": 3704,
      "машин": 3705,
      "##ус": 3706,
      "ирсэн": 3707,
      "түүнийг": 3708,
      "##олтой": 3709,
      "шаардлага": 3710,
      "өндөр": 3711,
      "##иал": 3712,
      "хамгаа": 3713,
      "зэр": 3714,
      "##өж": 3715,
      "гүй": 3716,
      "гарч": 3717,
      "хот": 3718,
      "ээ": 3719,
      "##on": 3720,
      "муу": 3721,
      "төв": 3722,
      "ээж": 3723,
      "тохиолд": 3724,
      "амь": 3725,
      "##ээрээ": 3726,
      "##ек": 3727,
      "##олт": 3728,
      "чухал": 3729,
      "ял": 3730,
      "сонирх": 3731,
      "чадахгүй": 3732,
      "##ак": 3733,
      "##гой": 3734,
      "эл": 3735,
      "шийдвэр": 3736,
      "хэмээн": 3737,
      "ажлын": 3738,
      "өөрөө": 3739,
      "##дөг": 3740,
      "##тар": 3741,
      "магад": 3742,
      "хариу": 3743,
      "##хи": 3744,
      "тиймээс": 3745,
      "ус": 3746,
      "##ем": 3747,
      "зээл": 3748,
      "эрг": 3749,
      "цаа": 3750,
      "хойш": 3751,
      "##ср": 3752,
      "##тал": 3753,
      "хүрг": 3754,
      "хятад": 3755,
      "хэзээ": 3756,
      "##бөр": 3757,
      "нү": 3758,
      "мөнгө": 3759,
      "##айл": 3760,
      "эхл": 3761,
      "ирэх": 3762,
      "үндэс": 3763,
      "##элц": 3764,
      "##рэг": 3765,
      "##эсэн": 3766,
      "##хон": 3767,
      "сонс": 3768,
      "хийсэн": 3769,
      "сол": 3770,
      "руу": 3771,
      "монголын": 3772,
      "ажилл": 3773,
      "ою": 3774,
      "өгөх": 3775,
      "онц": 3776,
      "уулз": 3777,
      "айм": 3778,
      "зураг": 3779,
      "хэсэг": 3780,
      "эдгээр": 3781,
      "хөдөл": 3782,
      "200": 3783,
      "түүх": 3784,
      "дүр": 3785,
      "мэдээлэл": 3786,
      "##ро": 3787,
      "##арч": 3788,
      "##мын": 3789,
      "нүүр": 3790,
      "авсан": 3791,
      "кин": 3792,
      "гэнэ": 3793,
      "яаж": 3794,
      "##гөн": 3795,
      "##гэр": 3796,
      "##иад": 3797,
      "үгүй": 3798,
      "##агүй": 3799,
      "##аарай": 3800,
      "төлөв": 3801,
      "##ийгөө": 3802,
      "##гаад": 3803,
      "уих": 3804,
      "мэт": 3805,
      "нийг": 3806,
      "мэрг": 3807,
      "унш": 3808,
      "яах": 3809,
      "##из": 3810,
      "##дсэн": 3811,
      "##эдэг": 3812,
      "##осон": 3813,
      "##ээгүй": 3814,
      "байв": 3815,
      "##чим": 3816,
      "охин": 3817,
      "##аараа": 3818,
      "хөл": 3819,
      "тэмц": 3820,
      "##галт": 3821,
      "##алтай": 3822,
      "эрд": 3823,
      "ажиллаж": 3824,
      "ану": 3825,
      "##хн": 3826,
      "ерөнхийлөг": 3827,
      "сонгуул": 3828,
      "##гасан": 3829,
      "##уудыг": 3830,
      "##үүлсэн": 3831,
      "бодож": 3832,
      "хөрөн": 3833,
      "##тер": 3834,
      "##эхэд": 3835,
      "##эгч": 3836,
      "##дэл": 3837,
      "найз": 3838,
      "тэрб": 3839,
      "дэв": 3840,
      "##ье": 3841,
      "уур": 3842,
      "удир": 3843,
      "учраас": 3844,
      "##тл": 3845,
      "үнэхээр": 3846,
      "##лбар": 3847,
      "ух": 3848,
      "өөрс": 3849,
      "зориул": 3850,
      "энэхүү": 3851,
      "##лж": 3852,
      "хугацаанд": 3853,
      "хүү": 3854,
      "аз": 3855,
      "##an": 3856,
      "тохир": 3857,
      "зөвш": 3858,
      "дуус": 3859,
      "зог": 3860,
      "газрын": 3861,
      "##уудын": 3862,
      "орж": 3863,
      "үргэлж": 3864,
      "өнгөрсөн": 3865,
      "чиг": 3866,
      "болохоор": 3867,
      "##рах": 3868,
      "аав": 3869,
      "танд": 3870,
      "##гч": 3871,
      "боловср": 3872,
      "эдийн": 3873,
      "хая": 3874,
      "##агт": 3875,
      "##өлд": 3876,
      "##ац": 3877,
      "гэтэл": 3878,
      "тэдний": 3879,
      "хүүхдүүд": 3880,
      "амжилт": 3881,
      "түм": 3882,
      "харагд": 3883,
      "шалт": 3884,
      "##чиж": 3885,
      "##ана": 3886,
      "дарга": 3887,
      "тухайн": 3888,
      "орос": 3889,
      "ог": 3890,
      "##угаар": 3891,
      "хийг": 3892,
      "тул": 3893,
      "барим": 3894,
      "эрүүл": 3895,
      "дор": 3896,
      "зогс": 3897,
      "##лөө": 3898,
      "байхад": 3899,
      "##ооны": 3900,
      "хэлб": 3901,
      "явах": 3902,
      "заг": 3903,
      "нөлөө": 3904,
      "зөвшөөр": 3905,
      "хэлж": 3906,
      "ажиллах": 3907,
      "гурван": 3908,
      "##охгүй": 3909,
      "тол": 3910,
      "нөхц": 3911,
      "явж": 3912,
      "ирээд": 3913,
      "##ar": 3914,
      "##гаас": 3915,
      "адил": 3916,
      "аю": 3917,
      "оруул": 3918,
      "олг": 3919,
      "таа": 3920,
      "судал": 3921,
      "##оно": 3922,
      "зүгээр": 3923,
      "ингэж": 3924,
      "##нес": 3925,
      "хэлэлц": 3926,
      "сайд": 3927,
      "##мийн": 3928,
      "итг": 3929,
      "##алд": 3930,
      "зөвл": 3931,
      "##лэж": 3932,
      "хэрэгж": 3933,
      "мэргэж": 3934,
      "##гоор": 3935,
      "үйлчилгээ": 3936,
      "\"-": 3937,
      "өөрийгөө": 3938,
      "тэрээр": 3939,
      "байгууллаг": 3940,
      "аюул": 3941,
      "##аасаа": 3942,
      "##эвэр": 3943,
      "зэрэг": 3944,
      "мэнд": 3945,
      "илэр": 3946,
      "дэлхий": 3947,
      "##даггүй": 3948,
      "олж": 3949,
      "мэдэх": 3950,
      "өс": 3951,
      "буруу": 3952,
      "суур": 3953,
      "сүүлийн": 3954,
      "холбоотой": 3955,
      "тэмдэг": 3956,
      "бүрэн": 3957,
      "холбогд": 3958,
      "##одог": 3959,
      "##сний": 3960,
      "##ьсан": 3961,
      "дотор": 3962,
      "гадаад": 3963,
      "зорилг": 3964,
      "##оом": 3965,
      "авт": 3966,
      "хад": 3967,
      "харь": 3968,
      "танилц": 3969,
      "аа": 3970,
      "##таа": 3971,
      "##энх": 3972,
      "##or": 3973,
      "наад": 3974,
      "##баа": 3975,
      "улсад": 3976,
      "цааш": 3977,
      "үх": 3978,
      "дуртай": 3979,
      "байгааг": 3980,
      "асуул": 3981,
      "хав": 3982,
      "үл": 3983,
      "мя": 3984,
      "##ет": 3985,
      "бизнес": 3986,
      "газр": 3987,
      "шат": 3988,
      "12": 3989,
      "гэм": 3990,
      "##маар": 3991,
      "үлд": 3992,
      "##илт": 3993,
      "хууд": 3994,
      "##гай": 3995,
      "үеийн": 3996,
      "магадгүй": 3997,
      "гүйц": 3998,
      "асуу": 3999,
      "##жиг": 4000,
      "ойр": 4001,
      "чанар": 4002,
      "амар": 4003,
      "зов": 4004,
      "бүсгүй": 4005,
      "##ей": 4006,
      "бүтээгд": 4007,
      "хэлсэн": 4008,
      "гишүүн": 4009,
      "шаардлагатай": 4010,
      "энх": 4011,
      "шууд": 4012,
      "##хөө": 4013,
      "##ахад": 4014,
      "жиш": 4015,
      "гэвч": 4016,
      "жин": 4017,
      "долоо": 4018,
      "##сийн": 4019,
      "##жин": 4020,
      "дөр": 4021,
      "харж": 4022,
      "##лэлийн": 4023,
      "тэгвэл": 4024,
      "болдог": 4025,
      "дугаар": 4026,
      "там": 4027,
      "өгсөн": 4028,
      "хөт": 4029,
      "хүлээн": 4030,
      "хат": 4031,
      "##юу": 4032,
      "##гар": 4033,
      "ев": 4034,
      "##лэгч": 4035,
      "##сү": 4036,
      "11": 4037,
      "иргэн": 4038,
      "за": 4039,
      "хай": 4040,
      "зөр": 4041,
      "салбар": 4042,
      "##аалт": 4043,
      "##төн": 4044,
      "##анк": 4045,
      "му": 4046,
      "байвал": 4047,
      "болоод": 4048,
      "чөлөө": 4049,
      "##оц": 4050,
      "##лөгөө": 4051,
      "нуу": 4052,
      "асуудлыг": 4053,
      "##яа": 4054,
      "зохион": 4055,
      "мал": 4056,
      "байн": 4057,
      "санагд": 4058,
      "гарсан": 4059,
      "багш": 4060,
      "бодлог": 4061,
      "##оны": 4062,
      "мэдэгд": 4063,
      "айл": 4064,
      "##пор": 4065,
      "##дэх": 4066,
      "буюу": 4067,
      "##үүдийн": 4068,
      "##en": 4069,
      "цах": 4070,
      "нэмэгд": 4071,
      "##дугаар": 4072,
      "засаг": 4073,
      "ярилц": 4074,
      "##ерик": 4075,
      "хөрөнгө": 4076,
      "мэдээж": 4077,
      "дан": 4078,
      "##члэн": 4079,
      "100": 4080,
      "##нө": 4081,
      "тооц": 4082,
      "сэр": 4083,
      "той": 4084,
      "америк": 4085,
      "15": 4086,
      "##ел": 4087,
      "нөг": 4088,
      "төрлийн": 4089,
      "хөн": 4090,
      "##ээнд": 4091,
      "гаруй": 4092,
      "анхны": 4093,
      "##арт": 4094,
      "##рам": 4095,
      "дараах": 4096,
      "хоор": 4097,
      "##наас": 4098,
      "арг": 4099,
      "бүтээл": 4100,
      "##аргал": 4101,
      "ач": 4102,
      "гал": 4103,
      "##эгт": 4104,
      "##вээ": 4105,
      "##хам": 4106,
      "хэлэх": 4107,
      "дүн": 4108,
      "шинж": 4109,
      "##саар": 4110,
      "мэдэхгүй": 4111,
      "хичээл": 4112,
      "##!!": 4113,
      "шүүх": 4114,
      "##цүү": 4115,
      "баримт": 4116,
      "##ээрэй": 4117,
      "гарах": 4118,
      "хүүхдийн": 4119,
      "дээд": 4120,
      "##игд": 4121,
      "шу": 4122,
      "эв": 4123,
      "зүйлийг": 4124,
      "ашигл": 4125,
      "техн": 4126,
      "##ст": 4127,
      "##гоо": 4128,
      "цэц": 4129,
      "гү": 4130,
      "цэвэр": 4131,
      "настай": 4132,
      "минут": 4133,
      "өдр": 4134,
      "үндсэн": 4135,
      "өмнөх": 4136,
      "батал": 4137,
      "##шил": 4138,
      "дүүр": 4139,
      "хуулийн": 4140,
      "пр": 4141,
      "тас": 4142,
      "боллоо": 4143,
      "бр": 4144,
      "mn": 4145,
      "##es": 4146,
      "бор": 4147,
      "өрөө": 4148,
      "##агс": 4149,
      "##длаа": 4150,
      "##ент": 4151,
      "##үүдийг": 4152,
      "боловч": 4153,
      "итгэл": 4154,
      "шү": 4155,
      "ерөнхийлөгч": 4156,
      "##ок": 4157,
      "нөгөө": 4158,
      "байгаад": 4159,
      "##нз": 4160,
      "гэвэл": 4161,
      "##ли": 4162,
      "санхүү": 4163,
      "хариул": 4164,
      "үүс": 4165,
      "тайлбар": 4166,
      "ня": 4167,
      "эхний": 4168,
      "болгох": 4169,
      "хариуц": 4170,
      "байдлаар": 4171,
      "өөрт": 4172,
      "дээрх": 4173,
      "судалгаа": 4174,
      "хян": 4175,
      "хүнийг": 4176,
      "хаан": 4177,
      "явдал": 4178,
      "бүхэн": 4179,
      "##ээсээ": 4180,
      "30": 4181,
      "##лох": 4182,
      "болгон": 4183,
      "##мөр": 4184,
      ".\"": 4185,
      "##сгал": 4186,
      "евро": 4187,
      "тэрбээр": 4188,
      "##баатар": 4189,
      "##тэн": 4190,
      "илэрхий": 4191,
      "##бал": 4192,
      "гаргах": 4193,
      "доо": 4194,
      "##ины": 4195,
      "улаан": 4196,
      "хэцүү": 4197,
      "##лүүл": 4198,
      "чадвар": 4199,
      "ярьж": 4200,
      "хүмүүсийн": 4201,
      "авна": 4202,
      "болжээ": 4203,
      "урьд": 4204,
      "үзүүл": 4205,
      "орчин": 4206,
      "өдрийн": 4207,
      "##элж": 4208,
      "хэрвээ": 4209,
      "нөхцөл": 4210,
      "шалтгаан": 4211,
      "хүчин": 4212,
      "компани": 4213,
      "бүл": 4214,
      "өөрчлөлт": 4215,
      "орох": 4216,
      "баа": 4217,
      "ингээд": 4218,
      "толгой": 4219,
      "ихэнх": 4220,
      "##оогүй": 4221,
      "ирж": 4222,
      "##өгд": 4223,
      "гу": 4224,
      "##ээв": 4225,
      "хэт": 4226,
      "дагуу": 4227,
      "хөтөл": 4228,
      "өгч": 4229,
      "сард": 4230,
      "хадгал": 4231,
      "##нэл": 4232,
      "гаргаж": 4233,
      "цагдаа": 4234,
      "тун": 4235,
      "монголчууд": 4236,
      "өглөө": 4237,
      "оюут": 4238,
      "оч": 4239,
      "гэхэд": 4240,
      "захир": 4241,
      "##ман": 4242,
      "##le": 4243,
      "түүн": 4244,
      "мэдр": 4245,
      "зав": 4246,
      "##at": 4247,
      "бараг": 4248,
      "буур": 4249,
      "гүйцэтг": 4250,
      "##амс": 4251,
      "нутгийн": 4252,
      "..": 4253,
      "хийдэг": 4254,
      "тогтоо": 4255,
      "##инд": 4256,
      "##гуй": 4257,
      "ст": 4258,
      "##уулдаг": 4259,
      "чадах": 4260,
      "үс": 4261,
      "18": 4262,
      "яп": 4263,
      "##уулан": 4264,
      "##илцаа": 4265,
      "мах": 4266,
      "эсрэг": 4267,
      "дамж": 4268,
      "зан": 4269,
      "тэнд": 4270,
      "##дад": 4271,
      "##шгүй": 4272,
      "жагс": 4273,
      "дэлг": 4274,
      "##ъя": 4275,
      "##олог": 4276,
      "##тгал": 4277,
      "жиж": 4278,
      "таар": 4279,
      "##нээ": 4280,
      "харилцаа": 4281,
      "##истем": 4282,
      "##иар": 4283,
      "хэрэггүй": 4284,
      "алга": 4285,
      "цагийн": 4286,
      "##элд": 4287,
      "үзэх": 4288,
      "үүр": 4289,
      "монголд": 4290,
      "европ": 4291,
      "систем": 4292,
      "##oo": 4293,
      "ярих": 4294,
      "хүлээж": 4295,
      "банк": 4296,
      "##al": 4297,
      "гэрээ": 4298,
      "буц": 4299,
      "бидэнд": 4300,
      "##үүдэд": 4301,
      "таныг": 4302,
      "цэр": 4303,
      "од": 4304,
      "нээ": 4305,
      "боддог": 4306,
      "заавал": 4307,
      "мэддэг": 4308,
      "ашиглах": 4309,
      "байжээ": 4310,
      "##агн": 4311,
      "##чдын": 4312,
      "нд": 4313,
      "##дү": 4314,
      "түүнд": 4315,
      "үүний": 4316,
      "##лэн": 4317,
      "##дыг": 4318,
      "намын": 4319,
      "бүү": 4320,
      "хотын": 4321,
      "байгал": 4322,
      "төгс": 4323,
      "барил": 4324,
      "нөхөр": 4325,
      "найр": 4326,
      "бутл": 4327,
      "үзэж": 4328,
      "##нэр": 4329,
      "##маа": 4330,
      "202": 4331,
      "##гын": 4332,
      "бос": 4333,
      "гоё": 4334,
      "бутлуур": 4335,
      "худалдаа": 4336,
      "чиний": 4337,
      "алдаа": 4338,
      "хувийн": 4339,
      "ярь": 4340,
      "##дэж": 4341,
      "эмнэл": 4342,
      "хөтөлбөр": 4343,
      "төрөл": 4344,
      "туш": 4345,
      "хамаар": 4346,
      "жижиг": 4347,
      "нэв": 4348,
      "жишээ": 4349,
      "##өөн": 4350,
      "байгаагүй": 4351,
      "кино": 4352,
      "##гээс": 4353,
      "тохиолдолд": 4354,
      "огт": 4355,
      "эхнэр": 4356,
      "бүрийн": 4357,
      "##сны": 4358,
      "жаргал": 4359,
      "тэгэхээр": 4360,
      "##агдсан": 4361,
      "нүд": 4362,
      "төлбөр": 4363,
      "##ласан": 4364,
      "хаана": 4365,
      "өнөө": 4366,
      "долл": 4367,
      "төгр": 4368,
      "##st": 4369,
      "##өмж": 4370,
      "##рх": 4371,
      "гаргасан": 4372,
      "түв": 4373,
      "ухаан": 4374,
      "##гн": 4375,
      "уурхай": 4376,
      "хөөр": 4377,
      "гурав": 4378,
      "соё": 4379,
      "тэрг": 4380,
      "онг": 4381,
      "хамгаалах": 4382,
      "дал": 4383,
      "үүнээс": 4384,
      "хэрэгс": 4385,
      "харьц": 4386,
      "эмэгтэйчүүд": 4387,
      "харах": 4388,
      "зүйлс": 4389,
      "##лэдэг": 4390,
      "сэд": 4391,
      "хооронд": 4392,
      "##вор": 4393,
      "утас": 4394,
      "эрдэнэ": 4395,
      "##алдаа": 4396,
      "болчих": 4397,
      "эцэг": 4398,
      "##ac": 4399,
      "дай": 4400,
      "##лалт": 4401,
      "хоногийн": 4402,
      "амьдралын": 4403,
      "мянг": 4404,
      "##төнц": 4405,
      "##лэсэн": 4406,
      "ирээдүй": 4407,
      "ертөнц": 4408,
      "чамайг": 4409,
      "орсон": 4410,
      "хурдан": 4411,
      "цагт": 4412,
      "бүхий": 4413,
      "таван": 4414,
      "нис": 4415,
      "гадна": 4416,
      "аас": 4417,
      "тань": 4418,
      "цагаан": 4419,
      "##двар": 4420,
      "##элтэй": 4421,
      "дууд": 4422,
      "агаар": 4423,
      "хуудас": 4424,
      "##чээ": 4425,
      "##өхөөр": 4426,
      "бэлэн": 4427,
      "хайртай": 4428,
      "##ou": 4429,
      "боломжгүй": 4430,
      "нийгэм": 4431,
      "тойр": 4432,
      "##об": 4433,
      "14": 4434,
      "##гэн": 4435,
      "янз": 4436,
      "аюулгүй": 4437,
      "##лагдсан": 4438,
      "асуулт": 4439,
      "##уулна": 4440,
      "эзэн": 4441,
      "хаг": 4442,
      "хувц": 4443,
      "хүссэн": 4444,
      "аймгийн": 4445,
      "##ран": 4446,
      "эсэх": 4447,
      "үндэсний": 4448,
      "нууц": 4449,
      "##уудад": 4450,
      "жү": 4451,
      "нарын": 4452,
      "##it": 4453,
      "##элээ": 4454,
      "тов": 4455,
      "солонг": 4456,
      "хэмжээний": 4457,
      "цар": 4458,
      "ме": 4459,
      "дээрээ": 4460,
      "хийн": 4461,
      "март": 4462,
      "##өмб": 4463,
      "мянган": 4464,
      "цал": 4465,
      "чадна": 4466,
      "дөрв": 4467,
      "өөрийнхөө": 4468,
      "##бая": 4469,
      "##мэл": 4470,
      "тоглоом": 4471,
      "##ууны": 4472,
      "##тгий": 4473,
      "насны": 4474,
      "рүү": 4475,
      "мэдэж": 4476,
      "бүртг": 4477,
      "уран": 4478,
      "эрс": 4479,
      "##лалаа": 4480,
      "##ум": 4481,
      "амьдар": 4482,
      "хуу": 4483,
      "##чилж": 4484,
      "дараагийн": 4485,
      "##олцоо": 4486,
      "удирд": 4487,
      "##ино": 4488,
      "орны": 4489,
      "##аб": 4490,
      "##чилсан": 4491,
      "ны": 4492,
      "##орж": 4493,
      "цуг": 4494,
      "аваад": 4495,
      "аг": 4496,
      "##om": 4497,
      "явсан": 4498,
      "##дүгээр": 4499,
      "хил": 4500,
      "##ic": 4501,
      "угаа": 4502,
      "дут": 4503,
      "##ээлт": 4504,
      "шаардлаг": 4505,
      "хэлбэр": 4506,
      "шөн": 4507,
      "##мж": 4508,
      "хүмүүст": 4509,
      "эхэлсэн": 4510,
      "урт": 4511,
      "цалин": 4512,
      "оронд": 4513,
      "ажилд": 4514,
      "##чихсан": 4515,
      "шилдэг": 4516,
      "болохыг": 4517,
      "цу": 4518,
      "орч": 4519,
      "орлог": 4520,
      "үнэл": 4521,
      "бя": 4522,
      "##өөл": 4523,
      "орой": 4524,
      "өөртөө": 4525,
      "эрт": 4526,
      "##тэйгээ": 4527,
      "агуул": 4528,
      "түүнээс": 4529,
      "бууд": 4530,
      "тулг": 4531,
      "байхдаа": 4532,
      "##члал": 4533,
      "загвар": 4534,
      "##олоо": 4535,
      "##ио": 4536,
      "хөдөлгөө": 4537,
      "мат": 4538,
      "солонгос": 4539,
      "##халтай": 4540,
      "нийтийн": 4541,
      "орнууд": 4542,
      "тоглолт": 4543,
      "дэлгэр": 4544,
      "оноос": 4545,
      "бн": 4546,
      "шар": 4547,
      "##алц": 4548,
      "өөрөөр": 4549,
      "арай": 4550,
      "хям": 4551,
      "асуудл": 4552,
      "битгий": 4553,
      "амьдарч": 4554,
      "иргэдийн": 4555,
      "давх": 4556,
      "авар": 4557,
      "унт": 4558,
      "ажлыг": 4559,
      "##олын": 4560,
      "гэртээ": 4561,
      "нийгмийн": 4562,
      "үйлчл": 4563,
      "бэр": 4564,
      "явц": 4565,
      "сонгол": 4566,
      "эхлээд": 4567,
      "##лана": 4568,
      "##аах": 4569,
      "ажлаа": 4570,
      "##гүйгээр": 4571,
      "төрсөн": 4572,
      "##сай": 4573,
      "ийг": 4574,
      "алдар": 4575,
      "хэдий": 4576,
      "зайл": 4577,
      "бичсэн": 4578,
      "үеэр": 4579,
      "шилж": 4580,
      "зорилго": 4581,
      "##ограм": 4582,
      "##бай": 4583,
      "болгож": 4584,
      "##сээр": 4585,
      "бөх": 4586,
      "мод": 4587,
      "түмэн": 4588,
      "нэвтр": 4589,
      "##өөц": 4590,
      "##хэг": 4591,
      "амр": 4592,
      "##vй": 4593,
      "бичл": 4594,
      "бичиг": 4595,
      "олох": 4596,
      "##сныг": 4597,
      "##даад": 4598,
      "бодит": 4599,
      "эмч": 4600,
      "нийс": 4601,
      "##руулах": 4602,
      "сайж": 4603,
      "удаан": 4604,
      "ахуй": 4605,
      "##уулалт": 4606,
      "технолог": 4607,
      "хамтр": 4608,
      "##vv": 4609,
      "програм": 4610,
      "##ныг": 4611,
      "тэтг": 4612,
      "тээв": 4613,
      "##re": 4614,
      "##саа": 4615,
      "хүсч": 4616,
      "гэлээ": 4617,
      "199": 4618,
      "танай": 4619,
      "үүсг": 4620,
      "мэдээллийг": 4621,
      "төгрөг": 4622,
      "сонголт": 4623,
      "гэмт": 4624,
      "сав": 4625,
      "харамс": 4626,
      "17": 4627,
      "ухаа": 4628,
      "байдлыг": 4629,
      "13": 4630,
      "бурханы": 4631,
      "16": 4632,
      "зохиц": 4633,
      "бал": 4634,
      "зу": 4635,
      "дотоод": 4636,
      "дөрвөн": 4637,
      "хэлбэл": 4638,
      "үзсэн": 4639,
      "хуур": 4640,
      "оруулах": 4641,
      "сэтгүүл": 4642,
      "энгийн": 4643,
      "##эхүүн": 4644,
      "##уулга": 4645,
      "байхыг": 4646,
      "тусл": 4647,
      "чамд": 4648,
      "##үүлэг": 4649,
      "тэднийг": 4650,
      "дүү": 4651,
      "##ахыг": 4652,
      "дүгн": 4653,
      "зориулсан": 4654,
      "бодох": 4655,
      "гишүүд": 4656,
      "цахим": 4657,
      "гом": 4658,
      "##ol": 4659,
      "хувцас": 4660,
      "мөнгөн": 4661,
      "бүтээгдэхүүн": 4662,
      "түвшин": 4663,
      "хяз": 4664,
      "амьдрах": 4665,
      "буу": 4666,
      "##санд": 4667,
      "хэмжээнд": 4668,
      "зо": 4669,
      "тон": 4670,
      "төхөөр": 4671,
      "ажилладаг": 4672,
      "сек": 4673,
      "барих": 4674,
      "чиглэл": 4675,
      "эрэгтэй": 4676,
      "ариу": 4677,
      "##хийг": 4678,
      "##ааны": 4679,
      "##хэнэ": 4680,
      "хөгжил": 4681,
      "ха": 4682,
      "##хны": 4683,
      "бололтой": 4684,
      "50": 4685,
      "мор": 4686,
      "дээш": 4687,
      "дэвш": 4688,
      "25": 4689,
      "төлөвлөгөө": 4690,
      "жур": 4691,
      "эцэс": 4692,
      "хэрэглэх": 4693,
      "хязгаар": 4694,
      "шудар": 4695,
      "худалдан": 4696,
      "өч": 4697,
      "##иан": 4698,
      "хулг": 4699,
      "байгууллага": 4700,
      "төхөөрөмж": 4701,
      "##уулаад": 4702,
      "хориг": 4703,
      "зүрх": 4704,
      "эзэм": 4705,
      "##лайн": 4706,
      "сургууль": 4707,
      "тэдгээр": 4708,
      "##ев": 4709,
      "захиал": 4710,
      "##аахан": 4711,
      "төлөвл": 4712,
      "сайт": 4713,
      "пар": 4714,
      "##лагч": 4715,
      "маргаа": 4716,
      "арил": 4717,
      "тос": 4718,
      "жинхэнэ": 4719,
      "##огч": 4720,
      "бичлэг": 4721,
      "##баяр": 4722,
      "нэл": 4723,
      "##дэггүй": 4724,
      "##омжтой": 4725,
      "суурь": 4726,
      "өвч": 4727,
      "явдаг": 4728,
      "##хгүй": 4729,
      "зарц": 4730,
      "жүжиг": 4731,
      "дас": 4732,
      "мэднэ": 4733,
      "##агдаж": 4734,
      "улам": 4735,
      "орчим": 4736,
      "эргэл": 4737,
      "сонирхолтой": 4738,
      "шир": 4739,
      "мэдээллийн": 4740,
      "нутаг": 4741,
      "##гу": 4742,
      "##нээр": 4743,
      "гэдгээ": 4744,
      "бүлийн": 4745,
      "##гөж": 4746,
      "үүрэг": 4747,
      "гайх": 4748,
      "тушаал": 4749,
      "##ья": 4750,
      "эхлэх": 4751,
      "онлайн": 4752,
      "##варын": 4753,
      "харилц": 4754,
      "мэргэжлийн": 4755,
      "суралц": 4756,
      "байл": 4757,
      "##лон": 4758,
      "орд": 4759,
      "##лаад": 4760,
      "интер": 4761,
      "хэрэглээ": 4762,
      "бүлэг": 4763,
      "барьж": 4764,
      "баталгаа": 4765,
      "жилд": 4766,
      "очиж": 4767,
      "гайхалтай": 4768,
      "үнэг": 4769,
      "хийнэ": 4770,
      "##лагын": 4771,
      "##есс": 4772,
      "улир": 4773,
      "ижил": 4774,
      "шийд": 4775,
      "байнга": 4776,
      "жир": 4777,
      "бүрд": 4778,
      "гэдэгт": 4779,
      "сургуулийн": 4780,
      "туслах": 4781,
      "өнгө": 4782,
      "дэх": 4783,
      "##кс": 4784,
      "##порт": 4785,
      "гер": 4786,
      "яам": 4787,
      "##арх": 4788,
      "сонин": 4789,
      "ялгаа": 4790,
      "##вэр": 4791,
      "##огт": 4792,
      "маргааш": 4793,
      "шагн": 4794,
      "##тийн": 4795,
      "##өөсөө": 4796,
      "##мс": 4797,
      "##пп": 4798,
      "санхүүгийн": 4799,
      "##am": 4800,
      "бодлого": 4801,
      "##икийн": 4802,
      "хоногт": 4803,
      "одоогоор": 4804,
      "нөөц": 4805,
      "чул": 4806,
      "тусгай": 4807,
      "удаагийн": 4808,
      "хөдөлмөр": 4809,
      "өрс": 4810,
      "сууж": 4811,
      "гэрийн": 4812,
      "2020": 4813,
      "аргагүй": 4814,
      "онгоц": 4815,
      "!!!": 4816,
      "тут": 4817,
      "хүрт": 4818,
      "хятадын": 4819,
      "эрчим": 4820,
      "##ээх": 4821,
      "болз": 4822,
      "өгнө": 4823,
      "хаш": 4824,
      "##лжээ": 4825,
      "шударга": 4826,
      "##гаараа": 4827,
      "##ed": 4828,
      "##длыг": 4829,
      "сул": 4830,
      "тусламж": 4831,
      "зай": 4832,
      "авдаг": 4833,
      "ашиглаж": 4834,
      "хөгжлийн": 4835,
      "##охой": 4836,
      "алив": 4837,
      "хангалт": 4838,
      "сэрг": 4839,
      "хэрэглэг": 4840,
      "англи": 4841,
      "хийгээд": 4842,
      "вид": 4843,
      "насан": 4844,
      "гр": 4845,
      "шинжил": 4846,
      "үнэгүй": 4847,
      "өргөн": 4848,
      "өөрсдөө": 4849,
      "хамр": 4850,
      "биднийг": 4851,
      "зүйн": 4852,
      "хохир": 4853,
      "##мээр": 4854,
      "компанийн": 4855,
      "өөрчлөгд": 4856,
      "тэнгэр": 4857,
      "хос": 4858,
      "өөрсдийн": 4859,
      "эргэн": 4860,
      "##лүүлэх": 4861,
      "##агдах": 4862,
      "худалдаж": 4863,
      "24": 4864,
      "##тайгаа": 4865,
      "байдаггүй": 4866,
      "гарг": 4867,
      "виде": 4868,
      "яваа": 4869,
      "##el": 4870,
      "минутын": 4871,
      "##is": 4872,
      "сонгуулийн": 4873,
      "чим": 4874,
      "##энтэй": 4875,
      "##ау": 4876,
      "төсөл": 4877,
      "мө": 4878,
      "сургалт": 4879,
      "цэг": 4880,
      "одоогийн": 4881,
      "баярлалаа": 4882,
      "##гыг": 4883,
      "шор": 4884,
      "байгууллагын": 4885,
      "##цээ": 4886,
      "чаддаг": 4887,
      "арван": 4888,
      "замын": 4889,
      "доллар": 4890,
      "удахгүй": 4891,
      "##гvй": 4892,
      "##барын": 4893,
      "##төр": 4894,
      "##ээж": 4895,
      "суул": 4896,
      "##лагд": 4897,
      "тээр": 4898,
      "##лагатай": 4899,
      "хүмүүсийг": 4900,
      "##лээд": 4901,
      "багт": 4902,
      "оруулж": 4903,
      "ажээ": 4904,
      "өгдөг": 4905,
      "##вол": 4906,
      "##ериал": 4907,
      "кон": 4908,
      "##ноо": 4909,
      "##энгүй": 4910,
      "хатуу": 4911,
      "шинжилгээ": 4912,
      "өгөө": 4913,
      "нийтлэл": 4914,
      "нутагт": 4915,
      "нээлт": 4916,
      "##иуд": 4917,
      "ne": 4918,
      "##оохон": 4919,
      "бичих": 4920,
      "ойлгож": 4921,
      "хаал": 4922,
      "##шаа": 4923,
      "тусгаар": 4924,
      "өгүүл": 4925,
      "хүсэлт": 4926,
      "2016": 4927,
      "##хоо": 4928,
      "##агийн": 4929,
      "##гааны": 4930,
      "хүрээнд": 4931,
      "бэрх": 4932,
      "гуй": 4933,
      "тэгж": 4934,
      "хувил": 4935,
      "##шигч": 4936,
      "##нүүд": 4937,
      "тохиолдол": 4938,
      "хаж": 4939,
      "##луулах": 4940,
      "##ндаа": 4941,
      "төсв": 4942,
      "##ro": 4943,
      "хараад": 4944,
      "##эгдэл": 4945,
      "бүгдийг": 4946,
      "тавьж": 4947,
      "гэжээ": 4948,
      "бариг": 4949,
      "европын": 4950,
      "материал": 4951,
      "тах": 4952,
      "зөвлөгөө": 4953,
      "бүртгэл": 4954,
      "##as": 4955,
      "##ед": 4956,
      "юмаа": 4957,
      "тэнэг": 4958,
      "##уулагч": 4959,
      "хотод": 4960,
      "##...": 4961,
      "шах": 4962,
      "хүй": 4963,
      "пор": 4964,
      "энэт": 4965,
      "яд": 4966,
      "тавих": 4967,
      "бээл": 4968,
      "##маас": 4969,
      "бөмб": 4970,
      "##ги": 4971,
      "блог": 4972,
      "##гт": 4973,
      "##ay": 4974,
      "үүнд": 4975,
      "мөрөөд": 4976,
      "салбарт": 4977,
      "##еж": 4978,
      "чадсан": 4979,
      "гэхээр": 4980,
      "хамаагүй": 4981,
      "утга": 4982,
      "идэв": 4983,
      "япон": 4984,
      "үедээ": 4985,
      "##акц": 4986,
      "хамтран": 4987,
      "доор": 4988,
      "нарийн": 4989,
      "40": 4990,
      "##ашин": 4991,
      "өмс": 4992,
      "хялбар": 4993,
      "үнэндээ": 4994,
      "##гана": 4995,
      "цагдаагийн": 4996,
      "олд": 4997,
      "##тол": 4998,
      "21": 4999,
      "##сыг": 5000,
      "бүхнийг": 5001,
      "2012": 5002,
      "бүтээгдэхүү": 5003,
      "##ааж": 5004,
      "##дагч": 5005,
      "татаж": 5006,
      "онцгой": 5007,
      "про": 5008,
      "##лөх": 5009,
      "өдөрт": 5010,
      "оюун": 5011,
      "түл": 5012,
      "шинэчл": 5013,
      "хүрэл": 5014,
      "төд": 5015,
      "##сын": 5016,
      "хэрэглэгч": 5017,
      "хурд": 5018,
      "##ью": 5019,
      "хүрэх": 5020,
      "сууц": 5021,
      "шалг": 5022,
      "ажиллагааны": 5023,
      "хоолой": 5024,
      "явна": 5025,
      "бна": 5026,
      "бодол": 5027,
      "##гий": 5028,
      "##ладаг": 5029,
      "сууд": 5030,
      "##ирус": 5031,
      "үзэл": 5032,
      "дахиад": 5033,
      "дасгал": 5034,
      "герман": 5035,
      "ялан": 5036,
      "автом": 5037,
      "##ing": 5038,
      "ос": 5039,
      "##ина": 5040,
      "урлаг": 5041,
      "мэдлэг": 5042,
      "үзүүлэх": 5043,
      "хүчтэй": 5044,
      "##сийг": 5045,
      "үздэг": 5046,
      "лав": 5047,
      "ыг": 5048,
      "##эе": 5049,
      "улаанбаатар": 5050,
      "цэргийн": 5051,
      "ног": 5052,
      "сах": 5053,
      "##il": 5054,
      "##арсан": 5055,
      "аливаа": 5056,
      "##??": 5057,
      "мэндийн": 5058,
      "хүсэл": 5059,
      "газарт": 5060,
      "өрт": 5061,
      "##ad": 5062,
      "##өгийн": 5063,
      "##тор": 5064,
      "давхар": 5065,
      "байшин": 5066,
      "алх": 5067,
      "яриа": 5068,
      "##үүлнэ": 5069,
      "дэлгүүр": 5070,
      "алд": 5071,
      "станд": 5072,
      "ерөнхийлөгчийн": 5073,
      "##эсгэл": 5074,
      "цаашид": 5075,
      "##хим": 5076,
      "##he": 5077,
      "##un": 5078,
      "бичиж": 5079,
      "оролцох": 5080,
      "бээлий": 5081,
      "##эрлэг": 5082,
      "##лөгч": 5083,
      "түүнчлэн": 5084,
      "жаахан": 5085,
      "үүд": 5086,
      "хангалттай": 5087,
      "тэдэнд": 5088,
      "2017": 5089,
      "байдалд": 5090,
      "##ян": 5091,
      "сонгох": 5092,
      "##ших": 5093,
      "нохой": 5094,
      "бүтэн": 5095,
      "##лам": 5096,
      "мая": 5097,
      "##унт": 5098,
      "очих": 5099,
      "2018": 5100,
      "зохиол": 5101,
      "үлдсэн": 5102,
      "хийлг": 5103,
      "халдвар": 5104,
      "дэлгэрэнгүй": 5105,
      "охид": 5106,
      "хүчний": 5107,
      "зогсоо": 5108,
      "адилхан": 5109,
      "ялангу": 5110,
      "цэн": 5111,
      "##тнууд": 5112,
      "##et": 5113,
      "амьдралд": 5114,
      "видео": 5115,
      "22": 5116,
      "ханг": 5117,
      "##шээл": 5118,
      "зээлийн": 5119,
      "нэлээд": 5120,
      "?\"": 5121,
      "нур": 5122,
      "##угай": 5123,
      "хувилбар": 5124,
      "ялангуяа": 5125,
      "үзэсгэл": 5126,
      "тогтвор": 5127,
      "зэв": 5128,
      "фран": 5129,
      "хүнтэй": 5130,
      "2019": 5131,
      "сүлжээ": 5132,
      "үргэлжил": 5133,
      "##гөөр": 5134,
      "орх": 5135,
      "##маг": 5136,
      "эрчүүд": 5137,
      "тавь": 5138,
      "хөдл": 5139,
      "хөдөө": 5140,
      "эрсдэл": 5141,
      "яар": 5142,
      "##рэн": 5143,
      "ангил": 5144,
      "урам": 5145,
      "дүнг": 5146,
      "татвар": 5147,
      "мэдэр": 5148,
      "хүргэж": 5149,
      "##ра": 5150,
      "чуул": 5151,
      "бараа": 5152,
      "өнөөдрийн": 5153,
      "тэрбум": 5154,
      "уурхайн": 5155,
      "хөв": 5156,
      "....": 5157,
      "хүрч": 5158,
      "байгуулах": 5159,
      "хас": 5160,
      "аялал": 5161,
      "хугацааны": 5162,
      "тор": 5163,
      "хэлэхэд": 5164,
      "өмнөд": 5165,
      "элс": 5166,
      "хуучин": 5167,
      "##ow": 5168,
      "талбай": 5169,
      "салбарын": 5170,
      "яахав": 5171,
      "##гад": 5172,
      "тамир": 5173,
      "##агчид": 5174,
      "##үүлэн": 5175,
      "шагнал": 5176,
      "бог": 5177,
      "вэб": 5178,
      "зүүн": 5179,
      "хөх": 5180,
      "##үүлэгч": 5181,
      "бэлэг": 5182,
      "заримдаа": 5183,
      "хэрэгжүүлэх": 5184,
      "ярьдаг": 5185,
      "##аач": 5186,
      "боль": 5187,
      "оршин": 5188,
      "##болд": 5189,
      "төдий": 5190,
      "хүрсэн": 5191,
      "бэлтгэл": 5192,
      "лээ": 5193,
      "улмаас": 5194,
      "сор": 5195,
      "##лээр": 5196,
      "яваад": 5197,
      "амжилттай": 5198,
      "цэцэрлэг": 5199,
      "үгийг": 5200,
      "татгал": 5201,
      "сэргээ": 5202,
      "унших": 5203,
      "бэрхшээл": 5204,
      "татгалз": 5205,
      "оху": 5206,
      "оросын": 5207,
      "франц": 5208,
      "хэргийн": 5209,
      "эцэст": 5210,
      "##ээээ": 5211,
      "шалгар": 5212,
      "гарын": 5213,
      "барилг": 5214,
      "зөвлөл": 5215,
      "тоглох": 5216,
      "хог": 5217,
      "##тгээд": 5218,
      "байдлын": 5219,
      "00": 5220,
      "мас": 5221,
      "##ot": 5222,
      "шинээр": 5223,
      "тавьсан": 5224,
      "цахил": 5225,
      "нэмэлт": 5226,
      "##гээд": 5227,
      "хүл": 5228,
      "гараад": 5229,
      "хх": 5230,
      "##ээний": 5231,
      "##эснээр": 5232,
      "##үүц": 5233,
      "##даас": 5234,
      "##уулахад": 5235,
      "тусал": 5236,
      "яриад": 5237,
      "##длын": 5238,
      "давуу": 5239,
      "анги": 5240,
      "илэрхийл": 5241,
      "товч": 5242,
      "ов": 5243,
      "стр": 5244,
      "ойлголт": 5245,
      "хулгай": 5246,
      "##гис": 5247,
      "зориг": 5248,
      "сум": 5249,
      "хойд": 5250,
      "сурвал": 5251,
      "баян": 5252,
      "амиа": 5253,
      "ажиг": 5254,
      "америкийн": 5255,
      "зөн": 5256,
      "ажл": 5257,
      "суртал": 5258,
      "тээрэм": 5259,
      "##дол": 5260,
      "хож": 5261,
      "хариулт": 5262,
      "дургүй": 5263,
      "кар": 5264,
      "сөр": 5265,
      "##рай": 5266,
      "##id": 5267,
      "алтан": 5268,
      "алхам": 5269,
      "ажилласан": 5270,
      "харамсалтай": 5271,
      "тээврийн": 5272,
      "аф": 5273,
      "гут": 5274,
      "жолоо": 5275,
      "хуваал": 5276,
      "боломжийг": 5277,
      "дэмжих": 5278,
      "000": 5279,
      "байгаагаа": 5280,
      "сурах": 5281,
      "дэд": 5282,
      "өө": 5283,
      "##ноос": 5284,
      "##тны": 5285,
      "##наж": 5286,
      "шалгалт": 5287,
      "чадаагүй": 5288,
      ").": 5289,
      "##оп": 5290,
      "хяналт": 5291,
      "өчигд": 5292,
      "##бэр": 5293,
      "зарна": 5294,
      "эрхэм": 5295,
      "үнэтэй": 5296,
      "харсан": 5297,
      "ойлгох": 5298,
      "дэг": 5299,
      "##ьютер": 5300,
      "##лиг": 5301,
      "арь": 5302,
      "үйлдэл": 5303,
      "##ag": 5304,
      "##амд": 5305,
      "нарт": 5306,
      "эрдэм": 5307,
      "##итан": 5308,
      "##длийг": 5309,
      "2015": 5310,
      "сург": 5311,
      "тайван": 5312,
      "хаяг": 5313,
      "##ланд": 5314,
      "##иц": 5315,
      "##андаа": 5316,
      "багийн": 5317,
      "##эгдсэн": 5318,
      "##үүлдэг": 5319,
      "нэгдсэн": 5320,
      "томил": 5321,
      "вакц": 5322,
      "чих": 5323,
      "баруун": 5324,
      "илр": 5325,
      "суух": 5326,
      "тарх": 5327,
      "ахуйн": 5328,
      "амьдардаг": 5329,
      "кор": 5330,
      "##тугай": 5331,
      "хүчир": 5332,
      "муж": 5333,
      "тайлан": 5334,
      "онцлог": 5335,
      "хайж": 5336,
      "нунт": 5337,
      "эсэрг": 5338,
      "ээлж": 5339,
      "бодсон": 5340,
      "тоног": 5341,
      "нэрийг": 5342,
      "төсөв": 5343,
      "##дэд": 5344,
      "талд": 5345,
      "нунтаг": 5346,
      "##мал": 5347,
      "##өхгүй": 5348,
      "бэлтг": 5349,
      "##сгөл": 5350,
      "мөнх": 5351,
      "хурал": 5352,
      "хөдөлгөөн": 5353,
      "in": 5354,
      "компьютер": 5355,
      "##оонд": 5356,
      "##орын": 5357,
      "шөнө": 5358,
      "есү": 5359,
      "харагдаж": 5360,
      "##эхдээ": 5361,
      "хэлдэг": 5362,
      "ёсны": 5363,
      "байгаль": 5364,
      "гоо": 5365,
      "дуул": 5366,
      "дэмжлэг": 5367,
      "нэгж": 5368,
      "нэгдүгээр": 5369,
      "ирнэ": 5370,
      "хөө": 5371,
      "арх": 5372,
      "сам": 5373,
      "оноо": 5374,
      "амж": 5375,
      "хагас": 5376,
      "##нээн": 5377,
      "тэс": 5378,
      "##ийнхээ": 5379,
      "##чихсэн": 5380,
      "сургуульд": 5381,
      "сэдэв": 5382,
      "цай": 5383,
      "дүгнэлт": 5384,
      "##гууд": 5385,
      "##ur": 5386,
      "##эндээ": 5387,
      "эмчилгээ": 5388,
      "ну": 5389,
      "##ондоо": 5390,
      "хурим": 5391,
      "тэж": 5392,
      "сонгууль": 5393,
      "жагсаалт": 5394,
      "тел": 5395,
      "мөрд": 5396,
      "мэдрэмж": 5397,
      "хангах": 5398,
      "бүрт": 5399,
      "ганцаараа": 5400,
      "дэмжиж": 5401,
      "улстөр": 5402,
      "##наа": 5403,
      "томоохон": 5404,
      "хамтдаа": 5405,
      "##мыг": 5406,
      "##тэр": 5407,
      "зуу": 5408,
      "##эрхүү": 5409,
      "ярьсан": 5410,
      "##бат": 5411,
      "огц": 5412,
      "амьтан": 5413,
      "бах": 5414,
      "##оу": 5415,
      "цөөн": 5416,
      "гардаг": 5417,
      "##снээр": 5418,
      "урьдчил": 5419,
      "##лэнэ": 5420,
      "түрүү": 5421,
      "##заар": 5422,
      "##снаас": 5423,
      "##ion": 5424,
      "ардчилсан": 5425,
      "энэтхэг": 5426,
      "дэм": 5427,
      "дотр": 5428,
      "явуулах": 5429,
      "эцсийн": 5430,
      "магадлал": 5431,
      "хуваалц": 5432,
      "дүнд": 5433,
      "2014": 5434,
      "хэрэгсэл": 5435,
      "ядаж": 5436,
      "##оф": 5437,
      "манайд": 5438,
      "үлдээ": 5439,
      "эсэргүүц": 5440,
      "уучл": 5441,
      "илгээ": 5442,
      "өвд": 5443,
      "британ": 5444,
      "жаргалтай": 5445,
      "чуулган": 5446,
      "##бэл": 5447,
      "дөрөв": 5448,
      "гэрэл": 5449,
      "хүсэж": 5450,
      "хэтэр": 5451,
      "хv": 5452,
      "##инг": 5453,
      "ажиллагааг": 5454,
      "итгэлтэй": 5455,
      "хоёрдугаар": 5456,
      "уулзалт": 5457,
      "оно": 5458,
      "ороод": 5459,
      "бодис": 5460,
      "хэвлэл": 5461,
      "##дийг": 5462,
      "эсэхийг": 5463,
      "шаардлагагүй": 5464,
      "##бор": 5465,
      "##өгч": 5466,
      "идэвх": 5467,
      "шав": 5468,
      "##аны": 5469,
      "ингэснээр": 5470,
      "хэмжээг": 5471,
      "st": 5472,
      "ганцхан": 5473,
      "алдсан": 5474,
      "хүүхдээ": 5475,
      "агаарын": 5476,
      "байд": 5477,
      "худлаа": 5478,
      "газраас": 5479,
      "ирдэг": 5480,
      "хамгаал": 5481,
      "үзүүлэлт": 5482,
      "шан": 5483,
      "эгч": 5484,
      "өчигдөр": 5485,
      "##рист": 5486,
      "##ахын": 5487,
      "ашигтай": 5488,
      "ням": 5489,
      "##ип": 5490,
      "хуралдаа": 5491,
      "ийнхүү": 5492,
      "түмний": 5493,
      "гуд": 5494,
      "им": 5495,
      "##хад": 5496,
      "сув": 5497,
      "дая": 5498,
      "хүсдэг": 5499,
      "номын": 5500,
      "тэв": 5501,
      "этгээд": 5502,
      "##рийг": 5503,
      "тодр": 5504,
      "2008": 5505,
      "нийслэлийн": 5506,
      "манайх": 5507,
      "##игийн": 5508,
      "хамтлаг": 5509,
      "сонгуульд": 5510,
      "##ээч": 5511,
      "байлг": 5512,
      "ёсоор": 5513,
      "орлого": 5514,
      "аш": 5515,
      "##үүний": 5516,
      "өвчин": 5517,
      "нарыг": 5518,
      "##дана": 5519,
      "цахилгаан": 5520,
      "анхаарал": 5521,
      "өөрчлөх": 5522,
      "сурвалж": 5523,
      "жуул": 5524,
      "##гүүд": 5525,
      "##гүүр": 5526,
      "алдаг": 5527,
      "тэнц": 5528,
      "хямд": 5529,
      "сэргий": 5530,
      "баяртай": 5531,
      "сүр": 5532,
      "байнаа": 5533,
      "хэлээд": 5534,
      "холбогдох": 5535,
      "##тул": 5536,
      "амьсгал": 5537,
      "цугл": 5538,
      "##бир": 5539,
      "##уууу": 5540,
      "гарга": 5541,
      "ойролцоо": 5542,
      "ажилтан": 5543,
      "оролд": 5544,
      "дурс": 5545,
      "хэрэглэж": 5546,
      "тоглог": 5547,
      "өрг": 5548,
      "түрээс": 5549,
      "дүрэм": 5550,
      "уншиж": 5551,
      "##ахаар": 5552,
      "##уудаа": 5553,
      "холбооны": 5554,
      "##зан": 5555,
      "##ага": 5556,
      "хуваар": 5557,
      "##оорой": 5558,
      "соёл": 5559,
      "ат": 5560,
      "##чиг": 5561,
      "хэрэгцээ": 5562,
      "талаас": 5563,
      "ихэв": 5564,
      "надаас": 5565,
      "борл": 5566,
      "60": 5567,
      "хэсэгт": 5568,
      "амархан": 5569,
      "уйл": 5570,
      "учиртай": 5571,
      "аварга": 5572,
      "өл": 5573,
      "уламж": 5574,
      "гэг": 5575,
      "өргө": 5576,
      "2013": 5577,
      "иргэний": 5578,
      "төсвийн": 5579,
      "порно": 5580,
      "талын": 5581,
      "ихэвчлэн": 5582,
      "ирлээ": 5583,
      "төмөр": 5584,
      "##ch": 5585,
      "кл": 5586,
      "сэл": 5587,
      "##цгаа": 5588,
      "##eb": 5589,
      "цом": 5590,
      "үүн": 5591,
      "асуудлаар": 5592,
      "##шээ": 5593,
      "байгуулсан": 5594,
      "хувьцаа": 5595,
      "саяхан": 5596,
      "нээлттэй": 5597,
      "биеийн": 5598,
      "халуун": 5599,
      "шинжлэх": 5600,
      "гийн": 5601,
      "кан": 5602,
      "тохиромжтой": 5603,
      "буцаа": 5604,
      "нот": 5605,
      "бодоод": 5606,
      "##портын": 5607,
      "зэвс": 5608,
      "амт": 5609,
      "элб": 5610,
      "мн": 5611,
      "##гаасаа": 5612,
      "##длийн": 5613,
      "өөрсд": 5614,
      "богино": 5615,
      "зая": 5616,
      "цог": 5617,
      "##ба": 5618,
      "явуулж": 5619,
      "эрхийг": 5620,
      "##us": 5621,
      "олсон": 5622,
      "кам": 5623,
      "авчир": 5624,
      "асар": 5625,
      "засвар": 5626,
      "эхлэн": 5627,
      "эргэж": 5628,
      "зуун": 5629,
      "мен": 5630,
      "##хаг": 5631,
      "барь": 5632,
      "ангийн": 5633,
      "хэвээр": 5634,
      "стандарт": 5635,
      "the": 5636,
      "##иас": 5637,
      "хүрэлсү": 5638,
      "зөвшөөрөл": 5639,
      "хэдийн": 5640,
      "алба": 5641,
      "чулуу": 5642,
      "23": 5643,
      "зүтг": 5644,
      "экс": 5645,
      "##**": 5646,
      "##ээдэг": 5647,
      "өвөр": 5648,
      "сангийн": 5649,
      "хандаж": 5650,
      "бизнесийн": 5651,
      "##ууллаа": 5652,
      "харахад": 5653,
      "##ent": 5654,
      "зургийг": 5655,
      "ис": 5656,
      "иймэрхүү": 5657,
      "ердөө": 5658,
      "##ихгүй": 5659,
      "олгох": 5660,
      "##огийн": 5661,
      "хүнсний": 5662,
      "дулаа": 5663,
      "яасан": 5664,
      "цув": 5665,
      "жагсаал": 5666,
      "даяар": 5667,
      "##эш": 5668,
      "##өсөн": 5669,
      "хэрэгт": 5670,
      "эндээс": 5671,
      "гадаадын": 5672,
      "байгалийн": 5673,
      "тогтвортой": 5674,
      "гараа": 5675,
      "зургаан": 5676,
      "оруулалт": 5677,
      "##ег": 5678,
      "замаар": 5679,
      "түвшинд": 5680,
      "##тон": 5681,
      "хэргийг": 5682,
      "төрөлх": 5683,
      "залуучууд": 5684,
      "секс": 5685,
      "##уд": 5686,
      "##оог": 5687,
      "тоол": 5688,
      "өрн": 5689,
      "сумын": 5690,
      "##кк": 5691,
      "##имп": 5692,
      "хийхэд": 5693,
      "эхэлж": 5694,
      "дэлхийд": 5695,
      "өсөлт": 5696,
      "no": 5697,
      "##лагыг": 5698,
      "хүүхдэд": 5699,
      "ной": 5700,
      "##ub": 5701,
      "бул": 5702,
      "хэлний": 5703,
      "дий": 5704,
      "бусдын": 5705,
      "дайн": 5706,
      "байранд": 5707,
      "давт": 5708,
      "тодорхойл": 5709,
      "нийц": 5710,
      "үйлчилгээний": 5711,
      "урьдчилан": 5712,
      "каз": 5713,
      "##үүлээд": 5714,
      "зүйлээ": 5715,
      "оролцож": 5716,
      "##ель": 5717,
      "хариуцлага": 5718,
      "жүжигчин": 5719,
      "##эхийг": 5720,
      "сайдын": 5721,
      "бүхэнд": 5722,
      "зардал": 5723,
      "тоглож": 5724,
      "нэртэй": 5725,
      "албаны": 5726,
      "бөмбөг": 5727,
      "нэмж": 5728,
      "үзээрэй": 5729,
      "телев": 5730,
      "цус": 5731,
      "болгосон": 5732,
      "из": 5733,
      "##ъё": 5734,
      "бусдад": 5735,
      "хөгжим": 5736,
      "эхэллээ": 5737,
      "нөлөөл": 5738,
      "алдартай": 5739,
      "бохир": 5740,
      "##тний": 5741,
      "хүндэтг": 5742,
      "хэвийн": 5743,
      "барилгын": 5744,
      "##гөл": 5745,
      "##os": 5746,
      "багас": 5747,
      "хаанаас": 5748,
      "оруулсан": 5749,
      "зүйтэй": 5750,
      "үнэлгээ": 5751,
      "хэдийг": 5752,
      "мян": 5753,
      "оюутнууд": 5754,
      "өнөөгийн": 5755,
      "телевиз": 5756,
      "хоёрын": 5757,
      "хүрээл": 5758,
      "зүгээс": 5759,
      "гайхам": 5760,
      "##сар": 5761,
      "2011": 5762,
      "үд": 5763,
      "##пер": 5764,
      "байсныг": 5765,
      "урд": 5766,
      "гудамж": 5767,
      "гарна": 5768,
      "##элийн": 5769,
      "анзаар": 5770,
      "##оосон": 5771,
      "эрүү": 5772,
      "сүүлд": 5773,
      "сэтгэгдэл": 5774,
      "христ": 5775,
      "##уб": 5776,
      "сонсох": 5777,
      "чанартай": 5778,
      "ap": 5779,
      "дандаа": 5780,
      "дүүрэн": 5781,
      "##наар": 5782,
      "биеэ": 5783,
      "буул": 5784,
      "дөн": 5785,
      "зуур": 5786,
      "##огдсон": 5787,
      "ашигладаг": 5788,
      "царай": 5789,
      "менеж": 5790,
      "шив": 5791,
      "##im": 5792,
      "итгэж": 5793,
      "хах": 5794,
      "##лбал": 5795,
      "##ху": 5796,
      "шалтгаа": 5797,
      "##анг": 5798,
      "хуулийг": 5799,
      "re": 5800,
      "198": 5801,
      "##амжийн": 5802,
      "дүнтэй": 5803,
      "##ко": 5804,
      "болоогүй": 5805,
      "##нгын": 5806,
      "##000": 5807,
      "шалгах": 5808,
      "зүүд": 5809,
      "дуучин": 5810,
      "машины": 5811,
      "дайр": 5812,
      "цагаа": 5813,
      "чаддаггүй": 5814,
      "нөхөд": 5815,
      "##онх": 5816,
      "ес": 5817,
      "архи": 5818,
      "усны": 5819,
      "тухайлбал": 5820,
      "автоб": 5821,
      "санагддаг": 5822,
      "##шөө": 5823,
      "яри": 5824,
      "эрхтэй": 5825,
      "an": 5826,
      "хувийг": 5827,
      "эзэмш": 5828,
      "тэмцээн": 5829,
      "боловсрол": 5830,
      "зөрчил": 5831,
      "анд": 5832,
      "шуур": 5833,
      "түгээ": 5834,
      "сүн": 5835,
      "вакцин": 5836,
      "оролцсон": 5837,
      "хэх": 5838,
      "##чээр": 5839,
      "ург": 5840,
      "ххк": 5841,
      "##гаагүй": 5842,
      "тогтоол": 5843,
      "шийдвэрлэх": 5844,
      "ариун": 5845,
      "санаж": 5846,
      "##гээрээ": 5847,
      "ялг": 5848,
      "мөнгөө": 5849,
      "зориулж": 5850,
      "хөөрхөн": 5851,
      "өөд": 5852,
      "##мад": 5853,
      "##тгах": 5854,
      "##чихаад": 5855,
      "чиглэлээр": 5856,
      "буд": 5857,
      "залбир": 5858,
      "хоолны": 5859,
      "хэнд": 5860,
      "юмуу": 5861,
      "залуус": 5862,
      "хүргэе": 5863,
      "үзэсгэлэн": 5864,
      "олимп": 5865,
      "ардчил": 5866,
      "хичээ": 5867,
      "26": 5868,
      "үзнэ": 5869,
      "афр": 5870,
      "зад": 5871,
      "##лов": 5872,
      "хамтын": 5873,
      "##өөрөө": 5874,
      "баттул": 5875,
      "зорилгоор": 5876,
      "худалдааны": 5877,
      "new": 5878,
      "зол": 5879,
      "##шуул": 5880,
      "спорт": 5881,
      "дарж": 5882,
      "шүүмж": 5883,
      "бүсгүйчүүд": 5884,
      "##сайхан": 5885,
      "##лол": 5886,
      "орно": 5887,
      "ардын": 5888,
      "оюутан": 5889,
      "нийслэл": 5890,
      "##лүүлж": 5891,
      "##даагүй": 5892,
      "парлам": 5893,
      "найдвар": 5894,
      "бнх": 5895,
      "мөнгөний": 5896,
      "үнэр": 5897,
      "төлөх": 5898,
      "даш": 5899,
      "хувиар": 5900,
      "##оороо": 5901,
      "муухай": 5902,
      "бөө": 5903,
      "оо": 5904,
      "зорилт": 5905,
      "талаарх": 5906,
      "зөндөө": 5907,
      "дэрг": 5908,
      "идэх": 5909,
      "бнхау": 5910,
      "эмэгтэйчүүдийн": 5911,
      "27": 5912,
      "чадвартай": 5913,
      "ноё": 5914,
      "хамаа": 5915,
      "судалгааны": 5916,
      "дэргэд": 5917,
      "даал": 5918,
      "барилга": 5919,
      "олбор": 5920,
      "##үүдээ": 5921,
      "ураг": 5922,
      "байлгүй": 5923,
      "мөнгийг": 5924,
      "нөхцөлд": 5925,
      "жолооч": 5926,
      "##мол": 5927,
      "##ирч": 5928,
      "эргээд": 5929,
      "агуу": 5930,
      "28": 5931,
      "##гчид": 5932,
      "авлиг": 5933,
      "##лгэр": 5934,
      "дэнд": 5935,
      "банкны": 5936,
      "сөрөг": 5937,
      "компаниуд": 5938,
      "сэдв": 5939,
      "##ддэг": 5940,
      "##ерийн": 5941,
      "##фф": 5942,
      "ухааны": 5943,
      "80": 5944,
      "##єє": 5945,
      "хараа": 5946,
      "наа": 5947,
      "туу": 5948,
      "ээс": 5949,
      "##ig": 5950,
      "үргэлжлүүл": 5951,
      "идэж": 5952,
      "гүн": 5953,
      "##ook": 5954,
      "com": 5955,
      "сүй": 5956,
      "##ла": 5957,
      "дэлгэц": 5958,
      "өрсөл": 5959,
      "нэх": 5960,
      "цэцэг": 5961,
      "сурталчил": 5962,
      "дүгээр": 5963,
      "хорв": 5964,
      "боловсролын": 5965,
      "тэгш": 5966,
      "тогтоох": 5967,
      "хэтэрхий": 5968,
      "байнгын": 5969,
      "даргын": 5970,
      "хэмээх": 5971,
      "хөгжүүлэх": 5972,
      "үйлдвэрийн": 5973,
      "ногоон": 5974,
      "хямрал": 5975,
      "үлгэр": 5976,
      "гэрт": 5977,
      "нүб": 5978,
      "сайжруулах": 5979,
      "арилж": 5980,
      "##ap": 5981,
      "гэнэт": 5982,
      "дотроо": 5983,
      "##лагдаж": 5984,
      "хүндр": 5985,
      "##снаа": 5986,
      "##ант": 5987,
      "ажиллана": 5988,
      "чанарын": 5989,
      "???": 5990,
      "зох": 5991,
      "мэдсэн": 5992,
      "түг": 5993,
      "суд": 5994,
      "мэргэжилт": 5995,
      "##лав": 5996,
      "##ter": 5997,
      "үнэм": 5998,
      "инээ": 5999,
      "вирус": 6000,
      "надтай": 6001,
      "сэтгэлийн": 6002,
      "иргэдэд": 6003,
      "##ia": 6004,
      "##оомж": 6005,
      "дээрээс": 6006,
      "хороо": 6007,
      "өрөөнд": 6008,
      "##адаа": 6009,
      "##тайгаар": 6010,
      "таларх": 6011,
      "ашиглан": 6012,
      "##дорж": 6013,
      "##үн": 6014,
      "марк": 6015,
      "ховор": 6016,
      "ip": 6017,
      "заалт": 6018,
      "ахмад": 6019,
      "төслийн": 6020,
      "мэргэжил": 6021,
      "тутмын": 6022,
      "эмээ": 6023,
      "байгуулж": 6024,
      "хүүхэдтэй": 6025,
      "уралдаа": 6026,
      "технологи": 6027,
      "гомдол": 6028,
      "түлх": 6029,
      "##агдаад": 6030,
      "сурагч": 6031,
      "гаргадаг": 6032,
      "##лоор": 6033,
      "хандах": 6034,
      "2009": 6035,
      "гүйцэтгэх": 6036,
      "гайхамшиг": 6037,
      "бүтээгдэхүүний": 6038,
      "дөнгөж": 6039,
      "энхбаяр": 6040,
      "эмнэлгийн": 6041,
      "##члалын": 6042,
      "байгаарай": 6043,
      "хүсье": 6044,
      "2010": 6045,
      "нэгэнт": 6046,
      "дууссан": 6047,
      "цац": 6048,
      "##тэд": 6049,
      "##элгүй": 6050,
      "даатгал": 6051,
      "to": 6052,
      "боловсруулах": 6053,
      "жирэм": 6054,
      "##ec": 6055,
      "##уудаас": 6056,
      "нэгд": 6057,
      "хөнд": 6058,
      "тэргүүн": 6059,
      "болзо": 6060,
      "##um": 6061,
      "хэлэв": 6062,
      "шийдэх": 6063,
      "хоорондоо": 6064,
      "галз": 6065,
      "эер": 6066,
      "сурч": 6067,
      "дугуй": 6068,
      "өрсөлд": 6069,
      "юуны": 6070,
      "журам": 6071,
      "тэй": 6072,
      "олны": 6073,
      "судлаа": 6074,
      "шоу": 6075,
      "##илга": 6076,
      "зүйлд": 6077,
      "киноны": 6078,
      "аргаар": 6079,
      "хяналтын": 6080,
      "##жүүлэх": 6081,
      "бодлоо": 6082,
      "байхаа": 6083,
      "хороол": 6084,
      "чухам": 6085,
      "өгөхгүй": 6086,
      "чөлөөт": 6087,
      "хэдийгээр": 6088,
      "татах": 6089,
      "анхаарах": 6090,
      "ухаалаг": 6091,
      "болзошгүй": 6092,
      "##алын": 6093,
      "бүгдээрээ": 6094,
      "зовлон": 6095,
      "юуг": 6096,
      "##гуур": 6097,
      "авст": 6098,
      "хэллээ": 6099,
      "замыг": 6100,
      "сонссон": 6101,
      "японы": 6102,
      "##саг": 6103,
      "шалгаж": 6104,
      "ойрын": 6105,
      "утасны": 6106,
      "австрал": 6107,
      "you": 6108,
      "цөм": 6109,
      "аюултай": 6110,
      "газрыг": 6111,
      "зөрч": 6112,
      "##ош": 6113,
      "дагаж": 6114,
      "хэрэглэдэг": 6115,
      "хүүхдийг": 6116,
      "цох": 6117,
      "##би": 6118,
      "орхи": 6119,
      "найдаж": 6120,
      "хэвт": 6121,
      "##дээгүй": 6122,
      "үйлдвэрлэл": 6123,
      "насанд": 6124,
      "жим": 6125,
      "зөөл": 6126,
      "##эгчид": 6127,
      "бүхний": 6128,
      "технологийн": 6129,
      "на": 6130,
      "##өнө": 6131,
      "эерэг": 6132,
      "баярын": 6133,
      "захи": 6134,
      "түүнтэй": 6135,
      "дон": 6136,
      "найзууд": 6137,
      "төрд": 6138,
      "саналыг": 6139,
      "##агддаг": 6140,
      "очоод": 6141,
      "болгодог": 6142,
      "##элдэг": 6143,
      "өмнөөс": 6144,
      "хийхгүй": 6145,
      "асуудалд": 6146,
      "брэнд": 6147,
      "##др": 6148,
      "долоон": 6149,
      "удирдах": 6150,
      "мянга": 6151,
      "тэмцээнд": 6152,
      "төсөөл": 6153,
      "хаагч": 6154,
      "гор": 6155,
      "##ангийн": 6156,
      "##оосоо": 6157,
      "##екс": 6158,
      "цуврал": 6159,
      "нийтэд": 6160,
      "энхболд": 6161,
      "шүүхийн": 6162,
      "сэтгүүлч": 6163,
      "хоригл": 6164,
      "##ууг": 6165,
      "байхаар": 6166,
      "хоц": 6167,
      "амьдралыг": 6168,
      "##...]": 6169,
      "##нет": 6170,
      "##снийг": 6171,
      "барив": 6172,
      "найман": 6173,
      "страт": 6174,
      "сэргийлэх": 6175,
      "гам": 6176,
      "хэдхэн": 6177,
      "сургалтын": 6178,
      "виз": 6179,
      "ром": 6180,
      "төлөөлөгч": 6181,
      "орчинд": 6182,
      "очсон": 6183,
      "90": 6184,
      "##лөр": 6185,
      "тэгсэн": 6186,
      "хугацааг": 6187,
      "тогтмол": 6188,
      "[...]": 6189,
      "хүрээ": 6190,
      "##снаар": 6191,
      "мунд": 6192,
      "бодлогын": 6193,
      "интернэ": 6194,
      "ургам": 6195,
      "уулзаж": 6196,
      "наадам": 6197,
      "удирдлаг": 6198,
      "түрүүнд": 6199,
      "##ри": 6200,
      "##ээхэн": 6201,
      "байгуулагдсан": 6202,
      "ойлгомжтой": 6203,
      "бутлуурын": 6204,
      "нийгэмд": 6205,
      "хажуу": 6206,
      "апп": 6207,
      "##насан": 6208,
      "эрхийн": 6209,
      "тэмцэх": 6210,
      "авто": 6211,
      "дүүргийн": 6212,
      "долларын": 6213,
      "##ir": 6214,
      "аваарай": 6215,
      "болчихсон": 6216,
      "цогц": 6217,
      "оюу": 6218,
      "босг": 6219,
      "зууны": 6220,
      "орг": 6221,
      "үнэнийг": 6222,
      "есүс": 6223,
      "news": 6224,
      "об": 6225,
      "байцаа": 6226,
      "үзээгүй": 6227,
      "орондоо": 6228,
      "суурил": 6229,
      "өдрүүдэд": 6230,
      "өөрсдийгөө": 6231,
      ",\"": 6232,
      "дам": 6233,
      "ширх": 6234,
      "танхим": 6235,
      "хөгжилтэй": 6236,
      "##бөмб": 6237,
      "уух": 6238,
      "зүйлийн": 6239,
      "тоглоо": 6240,
      "ажиллагаанд": 6241,
      "шаш": 6242,
      "дарам": 6243,
      "хуульд": 6244,
      "өдрийг": 6245,
      "яаралтай": 6246,
      "дэндүү": 6247,
      "нэн": 6248,
      "уя": 6249,
      "гадуур": 6250,
      "тасал": 6251,
      "шуг": 6252,
      "##цийн": 6253,
      "##ee": 6254,
      "юмыг": 6255,
      "ордог": 6256,
      "##гавар": 6257,
      "хорооны": 6258,
      "заасан": 6259,
      "дүрс": 6260,
      "доош": 6261,
      "гав": 6262,
      "уй": 6263,
      "шашин": 6264,
      "##ut": 6265,
      "####": 6266,
      "зарчим": 6267,
      "##галаа": 6268,
      "зөө": 6269,
      "##иф": 6270,
      "юун": 6271,
      "##огдох": 6272,
      "уст": 6273,
      "on": 6274,
      "ханш": 6275,
      "зааж": 6276,
      "хэрэгжүүлж": 6277,
      "хэхэ": 6278,
      "##эхийн": 6279,
      "маск": 6280,
      "70": 6281,
      "ойлгодог": 6282,
      "хөлбөмб": 6283,
      "##члах": 6284,
      "тухайд": 6285,
      "сонгосон": 6286,
      "дамжуулан": 6287,
      "гун": 6288,
      "##уулалтын": 6289,
      "санагдаж": 6290,
      "ажилдаа": 6291,
      "эхэлнэ": 6292,
      "код": 6293,
      "##жих": 6294,
      "цагийг": 6295,
      "##лэм": 6296,
      "##улаа": 6297,
      "авлаа": 6298,
      "##нээсээ": 6299,
      "төслийг": 6300,
      "гадаадад": 6301,
      "соёлын": 6302,
      "##ап": 6303,
      "##аф": 6304,
      "сонирхол": 6305,
      "зод": 6306,
      "##em": 6307,
      "авахгүй": 6308,
      "зайлшгүй": 6309,
      "хүрэлсүх": 6310,
      "кр": 6311,
      "##дсон": 6312,
      "хураа": 6313,
      "хэмжээгээр": 6314,
      "айд": 6315,
      "асууж": 6316,
      "атг": 6317,
      "##мийг": 6318,
      "##жуулах": 6319,
      "амгал": 6320,
      "##лэлт": 6321,
      "сонсож": 6322,
      "амралтын": 6323,
      "тоглоомын": 6324,
      "##уудтай": 6325,
      "##лагдах": 6326,
      "бут": 6327,
      "байрны": 6328,
      "хайл": 6329,
      "##ov": 6330,
      "##олтын": 6331,
      "фор": 6332,
      "гадаа": 6333,
      "гуравдугаар": 6334,
      "үүнтэй": 6335,
      "автобус": 6336,
      "##лэв": 6337,
      "цагаар": 6338,
      "үйлчилгээг": 6339,
      "##алгүй": 6340,
      "алт": 6341,
      "ууж": 6342,
      "саад": 6343,
      "##iv": 6344,
      "шийдсэн": 6345,
      "цол": 6346,
      "##уулбал": 6347,
      "хүнс": 6348,
      "үзүүлж": 6349,
      "үүссэн": 6350,
      "баатар": 6351,
      "нээх": 6352,
      "##ынхаа": 6353,
      "##one": 6354,
      "далай": 6355,
      "нойр": 6356,
      "тооны": 6357,
      "интернет": 6358,
      "goo": 6359,
      "##лүүд": 6360,
      "##уухан": 6361,
      "туршлагатай": 6362,
      "хүйтэн": 6363,
      "даан": 6364,
      "...\"": 6365,
      "хувир": 6366,
      "##иб": 6367,
      "иймд": 6368,
      "урсгал": 6369,
      "өнц": 6370,
      "тогтолцоо": 6371,
      "маргаан": 6372,
      "зээлд": 6373,
      "өссөн": 6374,
      "харан": 6375,
      "ихээр": 6376,
      "бэлгийн": 6377,
      "үндэслэл": 6378,
      "##шр": 6379,
      "уриал": 6380,
      "ганцаар": 6381,
      "итгэдэг": 6382,
      "канад": 6383,
      "лам": 6384,
      "ёсгүй": 6385,
      "хүчирхий": 6386,
      "утг": 6387,
      "эг": 6388,
      "##лаар": 6389,
      "##ханд": 6390,
      "##гаарай": 6391,
      "үнийн": 6392,
      "таамаг": 6393,
      "үсэг": 6394,
      "##шиж": 6395,
      "##далгүй": 6396,
      "нислэг": 6397,
      "баттулга": 6398,
      "саналаа": 6399,
      "страте": 6400,
      "fac": 6401,
      "шул": 6402,
      "##сб": 6403,
      "арав": 6404,
      "загварын": 6405,
      "шугам": 6406,
      "##энг": 6407,
      "харилцан": 6408,
      "корон": 6409,
      "нов": 6410,
      "##oc": 6411,
      "төвлөр": 6412,
      "##вч": 6413,
      "ажилтнууд": 6414,
      "бүхэл": 6415,
      "дууг": 6416,
      "##өлтийн": 6417,
      "хичнээн": 6418,
      "харагдах": 6419,
      "шатны": 6420,
      "35": 6421,
      "ch": 6422,
      "дуур": 6423,
      "шим": 6424,
      "##ту": 6425,
      "хүнээс": 6426,
      "##чихлаа": 6427,
      "зарч": 6428,
      "удаад": 6429,
      "эмнэлэгт": 6430,
      "бяц": 6431,
      "мундаг": 6432,
      "##ка": 6433,
      "##асны": 6434,
      "хэлээр": 6435,
      "##изм": 6436,
      "##уулав": 6437,
      "##алттай": 6438,
      "хажууд": 6439,
      "##ерт": 6440,
      "хоёулаа": 6441,
      "хүсвэл": 6442,
      "##ооноос": 6443,
      "хэсгийг": 6444,
      "хоосон": 6445,
      "##дэр": 6446,
      "##су": 6447,
      "харагддаг": 6448,
      "аар": 6449,
      "##агчийн": 6450,
      "байрлал": 6451,
      "өөрийнх": 6452,
      "##үр": 6453,
      "##єр": 6454,
      "татварын": 6455,
      "зуг": 6456,
      "ашиглалт": 6457,
      "идэвхтэй": 6458,
      "коф": 6459,
      "усан": 6460,
      "даруй": 6461,
      "мөнгөөр": 6462,
      "бичгийн": 6463,
      "тамхи": 6464,
      "ашигласан": 6465,
      "кол": 6466,
      "##огчид": 6467,
      "юунд": 6468,
      "эртний": 6469,
      "нэгийг": 6470,
      "##ест": 6471,
      "чөлөөтэй": 6472,
      "бахарх": 6473,
      "бv": 6474,
      "хорио": 6475,
      "хийхийг": 6476,
      "элчин": 6477,
      "болдоггүй": 6478,
      "туйл": 6479,
      "цагаас": 6480,
      "шийдэл": 6481,
      "бүтээсэн": 6482,
      "##ul": 6483,
      "##ото": 6484,
      "туршлага": 6485,
      "29": 6486,
      "##сал": 6487,
      "бит": 6488,
      "барсан": 6489,
      "холбогдсон": 6490,
      "##амсар": 6491,
      "цөө": 6492,
      "##пан": 6493,
      "ихээхэн": 6494,
      "##gle": 6495,
      "байхын": 6496,
      "хуулиар": 6497,
      "иргэдийг": 6498,
      "сүм": 6499,
      "хүргэх": 6500,
      "техник": 6501,
      "махн": 6502,
      "эмнэлэг": 6503,
      "урамшуул": 6504,
      "эрч": 6505,
      "хийлээ": 6506,
      "хатан": 6507,
      "жирийн": 6508,
      "мэс": 6509,
      "согт": 6510,
      "гишүүдийн": 6511,
      "жив": 6512,
      "##чдийн": 6513,
      "нэгтг": 6514,
      "##атор": 6515,
      "үзээд": 6516,
      "яриг": 6517,
      "хааны": 6518,
      "хөөрхий": 6519,
      "спортын": 6520,
      "болоо": 6521,
      "аял": 6522,
      "мэддэггүй": 6523,
      "дайны": 6524,
      "хаалга": 6525,
      "цаас": 6526,
      "нийлүүл": 6527,
      "нөхөн": 6528,
      "айлын": 6529,
      "нэмэгдүүлэх": 6530,
      "зүйлсийг": 6531,
      "500": 6532,
      "боо": 6533,
      "##үүк": 6534,
      "болд": 6535,
      "эхлэл": 6536,
      "иймээс": 6537,
      "гадны": 6538,
      "айж": 6539,
      "тр": 6540,
      "##енер": 6541,
      "зуны": 6542,
      "арьс": 6543,
      "галт": 6544,
      "итал": 6545,
      "ирээдүйд": 6546,
      "медал": 6547,
      "хэрэглэгчийн": 6548,
      "ээлжит": 6549,
      "нил": 6550,
      "өөрчил": 6551,
      "алдах": 6552,
      "ихтэй": 6553,
      "хурц": 6554,
      "түүхэн": 6555,
      "хэлэлцээр": 6556,
      "нисэх": 6557,
      "зун": 6558,
      "угаасаа": 6559,
      "нэмэр": 6560,
      "уулзах": 6561,
      "хөдөлмөрийн": 6562,
      "карт": 6563,
      "эмчл": 6564,
      "чингис": 6565,
      "бусдыг": 6566,
      "##ess": 6567,
      "шөнийн": 6568,
      "бяцхан": 6569,
      "?!": 6570,
      "##ангуй": 6571,
      "##овь": 6572,
      "##огдож": 6573,
      "төгсгөл": 6574,
      "хөрш": 6575,
      "##моор": 6576,
      "##уулжээ": 6577,
      "##эгдэж": 6578,
      "үйлдвэрлэлийн": 6579,
      "хадгалах": 6580,
      "шоронд": 6581,
      "google": 6582,
      "po": 6583,
      "сир": 6584,
      "##ва": 6585,
      "##элсэн": 6586,
      "##сгэр": 6587,
      "нээрээ": 6588,
      "хонг": 6589,
      "##алтыг": 6590,
      "буцаж": 6591,
      "зорилготой": 6592,
      "бүжиг": 6593,
      "турк": 6594,
      "уучлаарай": 6595,
      "не": 6596,
      "##доод": 6597,
      "##члан": 6598,
      "хүлээх": 6599,
      "төвд": 6600,
      "үгүйсг": 6601,
      "дутуу": 6602,
      "явцад": 6603,
      "дом": 6604,
      "##лэхгүй": 6605,
      "хамгаалалт": 6606,
      "жишээл": 6607,
      "ак": 6608,
      "барьсан": 6609,
      "санхүүжилт": 6610,
      "инд": 6611,
      "ноц": 6612,
      "фил": 6613,
      "##алж": 6614,
      "найм": 6615,
      "хөрөнгийн": 6616,
      "азийн": 6617,
      "баасан": 6618,
      "гуай": 6619,
      "унд": 6620,
      "##ез": 6621,
      "харуулах": 6622,
      "асуух": 6623,
      "тооцоол": 6624,
      "цуц": 6625,
      "өгөөч": 6626,
      "урлагийн": 6627,
      "ширхэг": 6628,
      "##бол": 6629,
      "##чихсон": 6630,
      "хэлэлцэх": 6631,
      "дэглэм": 6632,
      "эхчүүд": 6633,
      "тогтоосон": 6634,
      "##чны": 6635,
      "##ааг": 6636,
      "болтол": 6637,
      "ачаал": 6638,
      "элбэгд": 6639,
      "га": 6640,
      "##аасан": 6641,
      "алдаж": 6642,
      "##лэгдсэн": 6643,
      "хүмүүстэй": 6644,
      "байрш": 6645,
      "өвөл": 6646,
      "хэсгийн": 6647,
      "мэдэгдсэн": 6648,
      "зугаа": 6649,
      "ялгаатай": 6650,
      "шид": 6651,
      "гарц": 6652,
      "итгэх": 6653,
      "диз": 6654,
      "май": 6655,
      "##отг": 6656,
      "##dow": 6657,
      "хэний": 6658,
      "ерөнхийдөө": 6659,
      "зочид": 6660,
      "изра": 6661,
      "далд": 6662,
      "##снээс": 6663,
      "##ингийн": 6664,
      "амын": 6665,
      "дорн": 6666,
      "далайн": 6667,
      "улмаар": 6668,
      "байсангүй": 6669,
      "хүрэхгүй": 6670,
      "өгөөд": 6671,
      "камер": 6672,
      "элбэгдорж": 6673,
      "болохоос": 6674,
      "197": 6675,
      "эрдэн": 6676,
      "шув": 6677,
      "израил": 6678,
      "манд": 6679,
      "биб": 6680,
      "авахад": 6681,
      "сайжр": 6682,
      "клуб": 6683,
      "жон": 6684,
      "цорын": 6685,
      "хэмээ": 6686,
      "тохиол": 6687,
      "##уулын": 6688,
      "жилүүдэд": 6689,
      "авахыг": 6690,
      "тайв": 6691,
      "өнгөрөө": 6692,
      "наадмын": 6693,
      "унтаж": 6694,
      "тээвэр": 6695,
      "тух": 6696,
      "гариг": 6697,
      "гаргаад": 6698,
      "##чихдаг": 6699,
      "байгууллагад": 6700,
      "солонгосын": 6701,
      "таг": 6702,
      "үзвэл": 6703,
      "улиралд": 6704,
      "чар": 6705,
      "##аанаас": 6706,
      "##лаас": 6707,
      "гарахгүй": 6708,
      "бүлгийн": 6709,
      "инээмс": 6710,
      "баялаг": 6711,
      "хайх": 6712,
      "##ebook": 6713,
      "аад": 6714,
      "заал": 6715,
      "##мент": 6716,
      "өмгөө": 6717,
      "##лдөг": 6718,
      "хэлбэрээр": 6719,
      "эдл": 6720,
      "##наасаа": 6721,
      "төрх": 6722,
      "засаглал": 6723,
      "луй": 6724,
      "саа": 6725,
      "таср": 6726,
      "хангамж": 6727,
      "магадлалтай": 6728,
      "хэлнэ": 6729,
      "үнэт": 6730,
      "жишээлбэл": 6731,
      "инээмсэг": 6732,
      "sh": 6733,
      "##енд": 6734,
      "багц": 6735,
      "компаниу": 6736,
      "хичээлийн": 6737,
      "of": 6738,
      "харуулж": 6739,
      "##уулахгүй": 6740,
      "##тах": 6741,
      "##алтгүй": 6742,
      "болоход": 6743,
      "дурдсан": 6744,
      "хувьсгал": 6745,
      "вэбсай": 6746,
      "танил": 6747,
      "бодлоор": 6748,
      "халд": 6749,
      "шийдвэрийг": 6750,
      "##art": 6751,
      "мэдэгдэл": 6752,
      "ертөнцөд": 6753,
      "un": 6754,
      "##огчдын": 6755,
      "##тгагч": 6756,
      "хэлт": 6757,
      "галзуу": 6758,
      "фото": 6759,
      "##цаг": 6760,
      "##гэж": 6761,
      "##мб": 6762,
      "##ийгээ": 6763,
      "цаана": 6764,
      "онцол": 6765,
      "шуурхай": 6766,
      "жиг": 6767,
      "манайхан": 6768,
      "хугацаагаар": 6769,
      "хэрэглэгчид": 6770,
      "элэг": 6771,
      "##20": 6772,
      "бидэнтэй": 6773,
      "илүүд": 6774,
      "хүсэхгүй": 6775,
      "196": 6776,
      "хамтарч": 6777,
      "суралцах": 6778,
      "проц": 6779,
      "түлхүүр": 6780,
      "вий": 6781,
      "жор": 6782,
      "энийг": 6783,
      "ядар": 6784,
      "##шир": 6785,
      "##илж": 6786,
      "чух": 6787,
      "##хондоо": 6788,
      "стан": 6789,
      "##лөл": 6790,
      "##енз": 6791,
      "цэвэрлэх": 6792,
      "app": 6793,
      "сайхны": 6794,
      "үзэн": 6795,
      "хэвээрээ": 6796,
      "дэвсгэр": 6797,
      "олгодог": 6798,
      "цаашдаа": 6799,
      "төлөвлөж": 6800,
      "дад": 6801,
      "дөө": 6802,
      "офф": 6803,
      "##ьт": 6804,
      "өөрчилж": 6805,
      ".....": 6806,
      "унаг": 6807,
      "анхаарлаа": 6808,
      "онцлов": 6809,
      "##штай": 6810,
      "ойлгосон": 6811,
      "утгаараа": 6812,
      "хандлага": 6813,
      "аймшиг": 6814,
      "таатай": 6815,
      "facebook": 6816,
      "санд": 6817,
      "өргөж": 6818,
      "шигээ": 6819,
      "хүлээл": 6820,
      "дурсамж": 6821,
      "амгалан": 6822,
      "хэлжээ": 6823,
      "##элтийн": 6824,
      "аймаг": 6825,
      "аймагт": 6826,
      "ухаар": 6827,
      "ядуу": 6828,
      "бэх": 6829,
      "гарлаа": 6830,
      "төгөлд": 6831,
      "өглөөний": 6832,
      "угаах": 6833,
      "дутаг": 6834,
      "зогсоох": 6835,
      "хулгайч": 6836,
      "дохи": 6837,
      "юмсан": 6838,
      "дарх": 6839,
      "засах": 6840,
      "тодорхойлох": 6841,
      "байдалтай": 6842,
      "зөвлөмж": 6843,
      "al": 6844,
      "боол": 6845,
      "зүү": 6846,
      "чадвал": 6847,
      "даваа": 6848,
      "таалагд": 6849,
      "тоглогч": 6850,
      "зөөлөн": 6851,
      "45": 6852,
      "##оооо": 6853,
      "2000": 6854,
      "бууруулах": 6855,
      "ирээдүйн": 6856,
      "тэтгэвэр": 6857,
      "багтаа": 6858,
      "төстэй": 6859,
      "орнуудын": 6860,
      "хүрээлэн": 6861,
      "байтугай": 6862,
      "төрж": 6863,
      "хорих": 6864,
      "батлах": 6865,
      "түүхийг": 6866,
      "доорх": 6867,
      "ангилал": 6868,
      "31": 6869,
      "цэнэ": 6870,
      "шүүгч": 6871,
      "нэмэх": 6872,
      "хоорондын": 6873,
      "эргэлз": 6874,
      "!!": 6875,
      "??": 6876,
      "ойрхон": 6877,
      "бороо": 6878,
      "стат": 6879,
      "төгөлдөр": 6880,
      "##вөл": 6881,
      "##хуй": 6882,
      "хашаа": 6883,
      "новш": 6884,
      "сурсан": 6885,
      "хойно": 6886,
      "ангид": 6887,
      "амьт": 6888,
      "коронав": 6889,
      "авр": 6890,
      "хүсэлтэй": 6891,
      "үйлдвэрлэгч": 6892,
      "сүх": 6893,
      "доромж": 6894,
      "##ианы": 6895,
      "вал": 6896,
      "тэрэг": 6897,
      "өдгөө": 6898,
      "сонгодог": 6899,
      "тоог": 6900,
      "тодорхойгүй": 6901,
      "анхаарч": 6902,
      "1000": 6903,
      "захирал": 6904,
      "орчны": 6905,
      "морь": 6906,
      "мөч": 6907,
      "тв": 6908,
      "файл": 6909,
      "ерөөсөө": 6910,
      "эрхгүй": 6911,
      "дахиж": 6912,
      "сонгож": 6913,
      "инээд": 6914,
      "дэвшигч": 6915,
      "хагал": 6916,
      "дийл": 6917,
      "коронавирус": 6918,
      "цонх": 6919,
      "түргэн": 6920,
      "түүнийгээ": 6921,
      "сонирхож": 6922,
      "хийгээгүй": 6923,
      "үүсвэр": 6924,
      "үйлчлүүлэгч": 6925,
      "усанд": 6926,
      "##нш": 6927,
      "##вс": 6928,
      "гаргана": 6929,
      "өвөө": 6930,
      "дундаж": 6931,
      "инж": 6932,
      "##and": 6933,
      "нягт": 6934,
      "бад": 6935,
      "гя": 6936,
      "##th": 6937,
      "хардаг": 6938,
      "нэгний": 6939,
      "хангаж": 6940,
      "сүүлчийн": 6941,
      "туршилт": 6942,
      "судалж": 6943,
      "цэрэг": 6944,
      "тулгар": 6945,
      "дотоодын": 6946,
      "үргэлжлүүлэн": 6947,
      "кофе": 6948,
      "en": 6949,
      "ухаантай": 6950,
      "тагн": 6951,
      "үеэс": 6952,
      "##агдана": 6953,
      "хөгжиж": 6954,
      "!\"": 6955,
      "гоол": 6956,
      "гарт": 6957,
      "судл": 6958,
      "сонгон": 6959,
      "туршид": 6960,
      "тэмдэглэл": 6961,
      "##ейн": 6962,
      "нэмэгдэж": 6963,
      "сураг": 6964,
      "байршил": 6965,
      "айх": 6966,
      "газраа": 6967,
      "чанарыг": 6968,
      "ариутгагч": 6969,
      "ноцтой": 6970,
      "шдээ": 6971,
      "уруу": 6972,
      "бүтээн": 6973,
      "халдв": 6974,
      "мэдэрч": 6975,
      "нунтаглах": 6976,
      "африк": 6977,
      "авья": 6978,
      "гаралтай": 6979,
      "бүрийг": 6980,
      "онгоцны": 6981,
      "ноён": 6982,
      "чухлыг": 6983,
      "##соор": 6984,
      "##ab": 6985,
      "##ri": 6986,
      "##илаа": 6987,
      "тусам": 6988,
      "##доггүй": 6989,
      "##ганы": 6990,
      "бөөн": 6991,
      "##ьсон": 6992,
      "улсаас": 6993,
      "##уурын": 6994,
      "хүүхэн": 6995,
      "дэлхийг": 6996,
      "болгоомж": 6997,
      "хурлын": 6998,
      "##емент": 6999,
      "хөнгөн": 7000,
      "мөрөөдөл": 7001,
      "хөдлөх": 7002,
      "доод": 7003,
      "##ех": 7004,
      "иржээ": 7005,
      "төрөх": 7006,
      "хорт": 7007,
      "байгууллагууд": 7008,
      "мос": 7009,
      "##лож": 7010,
      "##хныг": 7011,
      "зөвлөх": 7012,
      "суулгах": 7013,
      "найдвартай": 7014,
      "айдас": 7015,
      "амьдралдаа": 7016,
      "гуниг": 7017,
      "цөөхөн": 7018,
      "бүтээх": 7019,
      "хаяж": 7020,
      "2021": 7021,
      "трам": 7022,
      "болтугай": 7023,
      "буян": 7024,
      "явуулсан": 7025,
      "##лэгчид": 7026,
      "болгоно": 7027,
      "тогтн": 7028,
      "хүртэлх": 7029,
      "##ers": 7030,
      "станц": 7031,
      "хац": 7032,
      "##унд": 7033,
      "##гэх": 7034,
      "##өөгүй": 7035,
      "биелүүлэх": 7036,
      "аргыг": 7037,
      "илэрхийлж": 7038,
      "гэн": 7039,
      "##ни": 7040,
      "хүрээд": 7041,
      "захиргааны": 7042,
      "нямдорж": 7043,
      "##гуу": 7044,
      "хиймэл": 7045,
      "бодолтой": 7046,
      "тусдаа": 7047,
      "үнэнч": 7048,
      "теат": 7049,
      "кинонд": 7050,
      "шүд": 7051,
      "##сбүүк": 7052,
      "улсыг": 7053,
      "үзэгч": 7054,
      "бодвол": 7055,
      "уншигч": 7056,
      "киног": 7057,
      "тооцоо": 7058,
      "зөвлөлийн": 7059,
      "үгээр": 7060,
      "төсөө": 7061,
      "үүнийгээ": 7062,
      "нэвтрүүл": 7063,
      "төдийгүй": 7064,
      "интернэт": 7065,
      "хаалт": 7066,
      "элд": 7067,
      "хамаг": 7068,
      "гарчээ": 7069,
      "харьцаа": 7070,
      "үлдэх": 7071,
      "гүр": 7072,
      "##ation": 7073,
      "бэрхшээлтэй": 7074,
      "bl": 7075,
      "тер": 7076,
      "хангал": 7077,
      "уншсан": 7078,
      "хүүгийн": 7079,
      "шүт": 7080,
      "автомат": 7081,
      "автомашин": 7082,
      "үүднээс": 7083,
      "##лх": 7084,
      "##жиж": 7085,
      "жилдээ": 7086,
      "##чихээд": 7087,
      "эрхлэгч": 7088,
      "шийдэж": 7089,
      "буцах": 7090,
      "##етр": 7091,
      "араас": 7092,
      "бүтэц": 7093,
      "болго": 7094,
      "сараас": 7095,
      "олгоно": 7096,
      "сүү": 7097,
      "##ii": 7098,
      "##таж": 7099,
      "##ong": 7100,
      "муутай": 7101,
      "түгээмэл": 7102,
      "аан": 7103,
      "амжил": 7104,
      "хэмн": 7105,
      "тавиг": 7106,
      "хань": 7107,
      "фэй": 7108,
      "##гас": 7109,
      "номыг": 7110,
      "нүүрс": 7111,
      "сүнс": 7112,
      "цөмийн": 7113,
      "ккк": 7114,
      "##лом": 7115,
      "##лаагүй": 7116,
      "талтай": 7117,
      "харилцааны": 7118,
      "төгссөн": 7119,
      "буцааж": 7120,
      "300": 7121,
      "##av": 7122,
      "##od": 7123,
      "##ts": 7124,
      "##ого": 7125,
      "нэрээр": 7126,
      "өвлийн": 7127,
      "хаашаа": 7128,
      "зогсож": 7129,
      "тойм": 7130,
      "амралт": 7131,
      "трамп": 7132,
      "дог": 7133,
      "хим": 7134,
      "татан": 7135,
      "бухим": 7136,
      "ирэв": 7137,
      "хандив": 7138,
      "оргил": 7139,
      "##вөр": 7140,
      "явуул": 7141,
      "нэрлэдэг": 7142,
      "сэтгэлийг": 7143,
      "өвөрм": 7144,
      "дуугар": 7145,
      "хэвлэлийн": 7146,
      "хүчээр": 7147,
      "удирдагч": 7148,
      "маркет": 7149,
      "##зүй": 7150,
      "##xt": 7151,
      "булан": 7152,
      "зургаа": 7153,
      "ойлгохгүй": 7154,
      "бүтээгдэхүүнийг": 7155,
      "шалгуур": 7156,
      "даатгалын": 7157,
      "09": 7158,
      "##мжил": 7159,
      "##чилсэн": 7160,
      "##ome": 7161,
      "хөгжмийн": 7162,
      "гайгүй": 7163,
      "тэжээл": 7164,
      "01": 7165,
      "дип": 7166,
      "түй": 7167,
      "194": 7168,
      "ярилцлага": 7169,
      "##ack": 7170,
      "өргөд": 7171,
      "хэлмээр": 7172,
      "хийхээр": 7173,
      "охины": 7174,
      "нөлөөлөх": 7175,
      "баталсан": 7176,
      "угаалг": 7177,
      "шв": 7178,
      "##өгтэй": 7179,
      "аврах": 7180,
      "гарагт": 7181,
      "хуралд": 7182,
      "залх": 7183,
      "шүлэг": 7184,
      "агент": 7185,
      "баталгааж": 7186,
      "##вр": 7187,
      "##тыг": 7188,
      "##og": 7189,
      "##аааа": 7190,
      "тулаа": 7191,
      "өгчих": 7192,
      "муз": 7193,
      "дараахь": 7194,
      "хэлэхдээ": 7195,
      "парламен": 7196,
      "##атай": 7197,
      "##op": 7198,
      "орол": 7199,
      "тиймээ": 7200,
      "эрүүгийн": 7201,
      "мууд": 7202,
      "##ak": 7203,
      "##сангүй": 7204,
      "бүд": 7205,
      "орших": 7206,
      "харгал": 7207,
      "гараагүй": 7208,
      "##улим": 7209,
      "утсаар": 7210,
      "##ore": 7211,
      "##сүрэн": 7212,
      "данс": 7213,
      "дуудлага": 7214,
      "бнсу": 7215,
      "захиалга": 7216,
      "гээч": 7217,
      "##банк": 7218,
      "##ыгаа": 7219,
      "##оход": 7220,
      "авалт": 7221,
      "хэлэлцэж": 7222,
      "буудал": 7223,
      "бөхийн": 7224,
      "бууж": 7225,
      "am": 7226,
      "##uc": 7227,
      "##лахгүй": 7228,
      "давж": 7229,
      "бичээд": 7230,
      "нээгд": 7231,
      "орнуудад": 7232,
      "авьяас": 7233,
      "диплом": 7234,
      "фр": 7235,
      "талыг": 7236,
      "тавьдаг": 7237,
      "луйвар": 7238,
      "элдэв": 7239,
      "##лэ": 7240,
      "хум": 7241,
      "##лэгийн": 7242,
      "хэч": 7243,
      "хэнийг": 7244,
      "санааг": 7245,
      "ирэхэд": 7246,
      "солих": 7247,
      "ойрт": 7248,
      "шаардлагыг": 7249,
      "##үүллээ": 7250,
      "нийтлэг": 7251,
      "дуусах": 7252,
      "загас": 7253,
      "харьцангуй": 7254,
      "pre": 7255,
      "иж": 7256,
      "оу": 7257,
      "##ишиг": 7258,
      "##лөн": 7259,
      "##джээ": 7260,
      "байтал": 7261,
      "##үүлжээ": 7262,
      "дууны": 7263,
      "суугаад": 7264,
      "бүтээлч": 7265,
      "гру": 7266,
      "гаа": 7267,
      "##жаргал": 7268,
      "амьдралаа": 7269,
      "##дөөн": 7270,
      "ярилцаж": 7271,
      "агуулга": 7272,
      "жирэмсэн": 7273,
      "##if": 7274,
      "батлагдсан": 7275,
      "1990": 7276,
      "бээ": 7277,
      "да": 7278,
      "дөх": 7279,
      "##жаа": 7280,
      "явлаа": 7281,
      "##үүхэн": 7282,
      "тариал": 7283,
      "руугаа": 7284,
      "системийн": 7285,
      "гутал": 7286,
      "харанхуй": 7287,
      "дархлаа": 7288,
      "хэчнээн": 7289,
      "ни": 7290,
      "хүнээ": 7291,
      "биед": 7292,
      "замд": 7293,
      "##итал": 7294,
      "гишүүний": 7295,
      "устгах": 7296,
      "хилийн": 7297,
      "байлгах": 7298,
      "сурталчилгаа": 7299,
      "шашны": 7300,
      "цас": 7301,
      "##итой": 7302,
      "хов": 7303,
      "ажилгүй": 7304,
      "дотно": 7305,
      "төвийн": 7306,
      "төгрөгийн": 7307,
      "ертөнцийн": 7308,
      "тулгуур": 7309,
      "энэтхэгийн": 7310,
      "британийн": 7311,
      "мэй": 7312,
      "##шний": 7313,
      "араб": 7314,
      "тавдугаар": 7315,
      "##эцэг": 7316,
      "гаж": 7317,
      "##лээс": 7318,
      "шийдэг": 7319,
      "кал": 7320,
      "месс": 7321,
      "тоон": 7322,
      "ук": 7323,
      "##ik": 7324,
      "##олгой": 7325,
      "нарий": 7326,
      "сонсоод": 7327,
      "хүүхдүүдэд": 7328,
      "үхэх": 7329,
      "хэрэглээний": 7330,
      "сууцны": 7331,
      "win": 7332,
      "гэгч": 7333,
      "бэлд": 7334,
      "нэмэгдсэн": 7335,
      "таарна": 7336,
      "харьцуулахад": 7337,
      "үргэлжилж": 7338,
      "зул": 7339,
      "пол": 7340,
      "пут": 7341,
      "сод": 7342,
      "ээр": 7343,
      "үер": 7344,
      "хэлье": 7345,
      "одоог": 7346,
      "хоёрыг": 7347,
      "энер": 7348,
      "хийгдсэн": 7349,
      "шатах": 7350,
      "##элдэх": 7351,
      "##илан": 7352,
      "бусдаас": 7353,
      "санаанд": 7354,
      "##акт": 7355,
      "дөрөвдүгээр": 7356,
      "##ноор": 7357,
      "##ее": 7358,
      "##ийд": 7359,
      "асуудлын": 7360,
      "үгс": 7361,
      "2007": 7362,
      "хүчирхэг": 7363,
      "нулим": 7364,
      "үзье": 7365,
      "аялах": 7366,
      "гэрээг": 7367,
      "насандаа": 7368,
      "мон": 7369,
      "нээл": 7370,
      "цаад": 7371,
      "өсг": 7372,
      "##лт": 7373,
      "хэмжээтэй": 7374,
      "суугаа": 7375,
      "зөвлөж": 7376,
      "холбогдолтой": 7377,
      "монголчуудын": 7378,
      "хохирол": 7379,
      "утгатай": 7380,
      "германы": 7381,
      "дэмий": 7382,
      "##цгаая": 7383,
      "жар": 7384,
      "шд": 7385,
      "##ваа": 7386,
      "##өц": 7387,
      "наран": 7388,
      "удаагаа": 7389,
      "хайрлаж": 7390,
      "оролцоо": 7391,
      "нүүрсний": 7392,
      "хүүхдүүдийн": 7393,
      "тамх": 7394,
      "санагдсан": 7395,
      "оюутолгой": 7396,
      "цэгц": 7397,
      "цоо": 7398,
      "##амч": 7399,
      "дархан": 7400,
      "##чуудын": 7401,
      "оруулалтын": 7402,
      "дарамт": 7403,
      "se": 7404,
      "хори": 7405,
      "зохиолч": 7406,
      "судлах": 7407,
      "угаалгын": 7408,
      "ауд": 7409,
      "##руу": 7410,
      "бариад": 7411,
      "засагт": 7412,
      "##исс": 7413,
      "тавиад": 7414,
      "зургийн": 7415,
      "##нуудыг": 7416,
      "##ube": 7417,
      "дийлэнх": 7418,
      "фэйсбүүк": 7419,
      "жол": 7420,
      "##лай": 7421,
      "##50": 7422,
      "##эйн": 7423,
      "орш": 7424,
      "тустай": 7425,
      "түнш": 7426,
      "эрдэнэт": 7427,
      "үнэмлэх": 7428,
      "уян": 7429,
      "##яг": 7430,
      "эхийн": 7431,
      "төрөөс": 7432,
      "ажиллагаагаа": 7433,
      "тайлбарлаж": 7434,
      "яриаг": 7435,
      "унаж": 7436,
      "##жийн": 7437,
      "уншаад": 7438,
      "уламжлал": 7439,
      "хом": 7440,
      "үнийг": 7441,
      "##луулж": 7442,
      "санах": 7443,
      "##цаагүй": 7444,
      "зорчиг": 7445,
      "дурлал": 7446,
      "##лөгд": 7447,
      "сэтгэлд": 7448,
      "шилэн": 7449,
      "техникийн": 7450,
      "илэрхийлэх": 7451,
      "завгүй": 7452,
      "тэтгэл": 7453,
      "чимээгүй": 7454,
      "талбайд": 7455,
      "сэргээх": 7456,
      "процесс": 7457,
      "##кур": 7458,
      "хуваа": 7459,
      "хэтр": 7460,
      "тодотг": 7461,
      "шүүхэд": 7462,
      "үүрэгтэй": 7463,
      "хачин": 7464,
      "есдүгээр": 7465,
      "групп": 7466,
      "ич": 7467,
      "өмч": 7468,
      "хайрын": 7469,
      "метр": 7470,
      "зохих": 7471,
      "нью": 7472,
      "орноо": 7473,
      "булаа": 7474,
      "##чихгүй": 7475,
      "эмийн": 7476,
      "баярлаж": 7477,
      "бурханд": 7478,
      "амлалт": 7479,
      "өвгөн": 7480,
      "##ект": 7481,
      "2006": 7482,
      "зовж": 7483,
      "удирдлагын": 7484,
      "өвчний": 7485,
      "баригчид": 7486,
      "тамирчин": 7487,
      "цэрг": 7488,
      "хүрэлц": 7489,
      "чадаж": 7490,
      "##истан": 7491,
      "##амжтай": 7492,
      "батлан": 7493,
      "эхлүүлэх": 7494,
      "хожим": 7495,
      "төрөлхтөн": 7496,
      "and": 7497,
      "роб": 7498,
      "##зэг": 7499,
      "##ie": 7500,
      "##hone": 7501,
      "##ооч": 7502,
      "өөрөөсөө": 7503,
      "гэрэлт": 7504,
      "сун": 7505,
      "хааяа": 7506,
      "хөлс": 7507,
      "таал": 7508,
      "##эвч": 7509,
      "үзэгдэл": 7510,
      "тэгэхэд": 7511,
      "тоглолтын": 7512,
      "дэмждэг": 7513,
      "нээж": 7514,
      "испан": 7515,
      "%-": 7516,
      "##раг": 7517,
      "##ob": 7518,
      "##эхүй": 7519,
      "холд": 7520,
      "хамгаалж": 7521,
      "солилц": 7522,
      "хавар": 7523,
      "удалгүй": 7524,
      "ям": 7525,
      "##дам": 7526,
      "##то": 7527,
      "##элийг": 7528,
      "харц": 7529,
      "аваагүй": 7530,
      "яруу": 7531,
      "нийл": 7532,
      "нэрийн": 7533,
      "ингэхдээ": 7534,
      "байдлаас": 7535,
      "зохицуулалт": 7536,
      "хорвоо": 7537,
      "36": 7538,
      "бгаа": 7539,
      "сэж": 7540,
      "##еб": 7541,
      "үйлдвэрлэх": 7542,
      "хичээдэг": 7543,
      "өөрчлөгдсөн": 7544,
      "менежер": 7545,
      "мак": 7546,
      "##өнд": 7547,
      "хөгшин": 7548,
      "нөлөөлж": 7549,
      "чулуун": 7550,
      "сер": 7551,
      "##аст": 7552,
      "байгуулалт": 7553,
      "дагаад": 7554,
      "тохиролц": 7555,
      "дорнод": 7556,
      "наймаа": 7557,
      "эхэлдэг": 7558,
      "зэргийн": 7559,
      "ялалт": 7560,
      "нөлөөлдөг": 7561,
      "байдгийг": 7562,
      "уламжлалт": 7563,
      "),": 7564,
      "sp": 7565,
      "##цан": 7566,
      "##да": 7567,
      "байсаар": 7568,
      "ажилчид": 7569,
      "үнс": 7570,
      "даасан": 7571,
      "мэдээллээ": 7572,
      "ойн": 7573,
      "бүртгэлийн": 7574,
      "зэвсэг": 7575,
      "тасралтгүй": 7576,
      "ми": 7577,
      "##уулъя": 7578,
      "харуулсан": 7579,
      "намар": 7580,
      "мэтээр": 7581,
      "тохирсон": 7582,
      "зөрчсөн": 7583,
      "##раад": 7584,
      "##схий": 7585,
      "олиг": 7586,
      "##авч": 7587,
      "нарны": 7588,
      "суусан": 7589,
      "өдрөөс": 7590,
      "хуурамч": 7591,
      "шалгалтын": 7592,
      "post": 7593,
      "##ддаг": 7594,
      "хош": 7595,
      "багагүй": 7596,
      "тоглосон": 7597,
      "##иулах": 7598,
      "биздээ": 7599,
      "дундуур": 7600,
      "завсар": 7601,
      "##мэлз": 7602,
      "yout": 7603,
      "хангалуун": 7604,
      "өргөдөл": 7605,
      "##ьер": 7606,
      "болсн": 7607,
      "тэрхүү": 7608,
      "өгье": 7609,
      "зургууд": 7610,
      "барилдаа": 7611,
      "өвчтөн": 7612,
      "##өлөг": 7613,
      "байгаан": 7614,
      "явдл": 7615,
      "ихэд": 7616,
      "талдаа": 7617,
      "өрх": 7618,
      "##эгдэх": 7619,
      "шаардаг": 7620,
      "сэтгэлээсээ": 7621,
      "компанид": 7622,
      "ойролцоогоор": 7623,
      "луу": 7624,
      "саар": 7625,
      "орчл": 7626,
      "үүл": 7627,
      "асуудалтай": 7628,
      "ханддаг": 7629,
      "францын": 7630,
      "32": 7631,
      "ди": 7632,
      "##ээг": 7633,
      "##өлгөө": 7634,
      "харна": 7635,
      "эрмэлз": 7636,
      "дагав": 7637,
      "чанга": 7638,
      "тэмдэглэж": 7639,
      "шинжилгээний": 7640,
      "цэцэрлэгт": 7641,
      "даанч": 7642,
      "##нөөс": 7643,
      "##єн": 7644,
      "##агтай": 7645,
      "##уулаа": 7646,
      "эрхлэх": 7647,
      "хятадад": 7648,
      "хөнгөл": 7649,
      "хуурай": 7650,
      "больсон": 7651,
      "эрдэмтэд": 7652,
      "дулаан": 7653,
      "бан": 7654,
      "кг": 7655,
      "##фор": 7656,
      "##чит": 7657,
      "багадаа": 7658,
      "сунг": 7659,
      "магт": 7660,
      "өрсөлдөг": 7661,
      "##үрэв": 7662,
      "агентлаг": 7663,
      "бл": 7664,
      "рад": 7665,
      "үй": 7666,
      "##луулсан": 7667,
      "хуруу": 7668,
      "бэлг": 7669,
      "##ang": 7670,
      "үхсэн": 7671,
      "секунд": 7672,
      "маяг": 7673,
      "youtube": 7674,
      "зэс": 7675,
      "##бод": 7676,
      "##чдыг": 7677,
      "сайтар": 7678,
      "өгөгд": 7679,
      "жилээр": 7680,
      "хүүхэлд": 7681,
      "даван": 7682,
      "харагдана": 7683,
      "##жинд": 7684,
      "олдохгүй": 7685,
      "ar": 7686,
      "бүүр": 7687,
      "шүүл": 7688,
      "##цар": 7689,
      "##аасай": 7690,
      "уулын": 7691,
      "урьж": 7692,
      "комм": 7693,
      "оруулна": 7694,
      "арилгах": 7695,
      "##iss": 7696,
      "wor": 7697,
      "рес": 7698,
      "өөрийг": 7699,
      "санс": 7700,
      "үзүүлсэн": 7701,
      "үйлчил": 7702,
      "унтр": 7703,
      "эхэлжээ": 7704,
      "үргэлжлэх": 7705,
      "шүр": 7706,
      "нүдний": 7707,
      "медаль": 7708,
      "##лгээ": 7709,
      "##архал": 7710,
      "байгаагаар": 7711,
      "##авх": 7712,
      "ирэхгүй": 7713,
      "үзэхэд": 7714,
      "##андан": 7715,
      "зориу": 7716,
      "тодор": 7717,
      "өнөөдрийг": 7718,
      "хайрлах": 7719,
      "аяга": 7720,
      "эвгүй": 7721,
      "төөр": 7722,
      "өгөг": 7723,
      "талб": 7724,
      "эмзэг": 7725,
      "авчээ": 7726,
      "хүлээсэн": 7727,
      "##est": 7728,
      "японд": 7729,
      "дутагдал": 7730,
      "ре": 7731,
      "##мэр": 7732,
      "заавар": 7733,
      "найрам": 7734,
      "өнцөг": 7735,
      "тухтай": 7736,
      "лин": 7737,
      "##рөөс": 7738,
      "##ip": 7739,
      "сайтай": 7740,
      "үндэстэн": 7741,
      "прокур": 7742,
      "байснаа": 7743,
      "##илтын": 7744,
      "авгай": 7745,
      "ихийг": 7746,
      "эхээр": 7747,
      "онлайнаар": 7748,
      "яамны": 7749,
      "дов": 7750,
      "уб": 7751,
      "юү": 7752,
      "##шүүр": 7753,
      "##онгийн": 7754,
      "##үүдээс": 7755,
      "ургамал": 7756,
      "дизайн": 7757,
      "син": 7758,
      "багатай": 7759,
      "түүхийн": 7760,
      "хүүгээ": 7761,
      "зөвшөөрсөн": 7762,
      "багшийн": 7763,
      "эвс": 7764,
      "үүргээ": 7765,
      "##цэцэг": 7766,
      "##чдад": 7767,
      "##ment": 7768,
      "тэрийг": 7769,
      "явдлыг": 7770,
      "асуудлаа": 7771,
      "шигшээ": 7772,
      "##ээнээс": 7773,
      "билүү": 7774,
      "татсан": 7775,
      "оролцогч": 7776,
      "харья": 7777,
      "кур": 7778,
      "тэ": 7779,
      "баймаар": 7780,
      "орохгүй": 7781,
      "ирээгүй": 7782,
      "улсууд": 7783,
      "урв": 7784,
      "хамаарна": 7785,
      "удирдлага": 7786,
      "нэвтрүүлэг": 7787,
      "зохицуулах": 7788,
      "тэдгээрийн": 7789,
      "цэнэг": 7790,
      "бутлах": 7791,
      "pl": 7792,
      "дээл": 7793,
      "ундаа": 7794,
      "##най": 7795,
      "##нүүдийн": 7796,
      "##мрийн": 7797,
      "##та": 7798,
      "эрэлт": 7799,
      "тансаг": 7800,
      "халамж": 7801,
      "олгож": 7802,
      "тутам": 7803,
      "телевизийн": 7804,
      "хаха": 7805,
      "apple": 7806,
      "##гуулах": 7807,
      "төлж": 7808,
      "зөвшөөрч": 7809,
      "америкт": 7810,
      "##ологийн": 7811,
      "төлбөрийн": 7812,
      "хамтлагийн": 7813,
      "ашгийг": 7814,
      "iphone": 7815,
      "-\"": 7816,
      "нэгнийг": 7817,
      "нэгэнд": 7818,
      "сэтгэлгээ": 7819,
      "бичдэг": 7820,
      "##снээ": 7821,
      "хадгалж": 7822,
      "өвөрмөц": 7823,
      "pro": 7824,
      "шууг": 7825,
      "##го": 7826,
      "##хыг": 7827,
      "гараар": 7828,
      "нартай": 7829,
      "шийтг": 7830,
      "нөхд": 7831,
      "хамааралтай": 7832,
      "улирал": 7833,
      "for": 7834,
      "цо": 7835,
      "##сандаа": 7836,
      "хүмүүсээс": 7837,
      "##огддог": 7838,
      "хөтл": 7839,
      "механ": 7840,
      "асуудлууд": 7841,
      "саван": 7842,
      "өгөөгүй": 7843,
      "тусалж": 7844,
      "сувил": 7845,
      "химийн": 7846,
      "жан": 7847,
      "##цгээ": 7848,
      "##дод": 7849,
      "##хын": 7850,
      "хэрүүл": 7851,
      "гарцаагүй": 7852,
      "арс": 7853,
      "##ашгүй": 7854,
      "бичжээ": 7855,
      "төлөөлөг": 7856,
      "мөнгөтэй": 7857,
      "хэрэгжиж": 7858,
      "нэлээн": 7859,
      "цохилт": 7860,
      "гүүр": 7861,
      "оё": 7862,
      "пүрэв": 7863,
      "цам": 7864,
      "байгаам": 7865,
      "илтг": 7866,
      "##двал": 7867,
      "тэмцээний": 7868,
      "##ard": 7869,
      "зөрүү": 7870,
      "хөтөлбөрт": 7871,
      "тэдгээрийг": 7872,
      "үдэш": 7873,
      "захидал": 7874,
      "up": 7875,
      "сп": 7876,
      "##шд": 7877,
      "##ск": 7878,
      "явахгүй": 7879,
      "нутгаар": 7880,
      "зурагт": 7881,
      "бөхчүүд": 7882,
      "нотол": 7883,
      "min": 7884,
      "хэрнээ": 7885,
      "үйлд": 7886,
      "шатанд": 7887,
      "унасан": 7888,
      "болсныг": 7889,
      "амс": 7890,
      "бүрэлдэх": 7891,
      "монголбанк": 7892,
      "##ууруулах": 7893,
      "худалдах": 7894,
      "хацарт": 7895,
      "06": 7896,
      "ван": 7897,
      "нүүд": 7898,
      "шун": 7899,
      "##алаа": 7900,
      "хараахан": 7901,
      "илтгэл": 7902,
      "зарах": 7903,
      "мань": 7904,
      "дундаа": 7905,
      "газрууд": 7906,
      "хөтөлбөрийн": 7907,
      "чадсангүй": 7908,
      "илэрхийлсэн": 7909,
      "лу": 7910,
      "авъя": 7911,
      "эмх": 7912,
      "шүүмжил": 7913,
      "шаарддаг": 7914,
      "сууна": 7915,
      "хичээж": 7916,
      "өдрүүд": 7917,
      "тулгам": 7918,
      "эргэлзээ": 7919,
      "тодорхойлолт": 7920,
      "##ганд": 7921,
      "##ахдаа": 7922,
      "тэдэнтэй": 7923,
      "хамтарсан": 7924,
      "холбогдол": 7925,
      "зочин": 7926,
      "hd": 7927,
      "хир": 7928,
      "##тэйгээр": 7929,
      "үзэг": 7930,
      "##длоо": 7931,
      "хоёул": 7932,
      "одоохондоо": 7933,
      "авахаар": 7934,
      "явахад": 7935,
      "арилжааны": 7936,
      "живх": 7937,
      "путин": 7938,
      "тив": 7939,
      "##ло": 7940,
      "##хар": 7941,
      "##лагчид": 7942,
      "##эврийн": 7943,
      "нэрээ": 7944,
      "заяа": 7945,
      "шүүмжлэл": 7946,
      "tr": 7947,
      "км": 7948,
      "мэдэл": 7949,
      "##өхөд": 7950,
      "##гээрэй": 7951,
      "##өдөг": 7952,
      "залг": 7953,
      "утаа": 7954,
      "түүхэнд": 7955,
      "ухамсар": 7956,
      "хэлэлцүүл": 7957,
      "өсвөр": 7958,
      "махбод": 7959,
      "гэрээний": 7960,
      "зарцуулах": 7961,
      "хосууд": 7962,
      "суудаг": 7963,
      ":)": 7964,
      "сөх": 7965,
      "амрах": 7966,
      "ашигт": 7967,
      "нөхр": 7968,
      "сэтгэлээ": 7969,
      "машиныг": 7970,
      "баримтал": 7971,
      "олгосон": 7972,
      "бүхэндээ": 7973,
      "дашт": 7974,
      "моск": 7975,
      "голд": 7976,
      "гац": 7977,
      "нор": 7978,
      "амин": 7979,
      "аян": 7980,
      "наадамд": 7981,
      "эрсдэлтэй": 7982,
      "***": 7983,
      "33": 7984,
      "##иос": 7985,
      "##гэсэн": 7986,
      "##алсан": 7987,
      "##чихна": 7988,
      "##чихаж": 7989,
      "идсэн": 7990,
      "ээжийн": 7991,
      "##дөггүй": 7992,
      "аавын": 7993,
      "үгээ": 7994,
      "эрэл": 7995,
      "эмгэн": 7996,
      "манан": 7997,
      "холбоос": 7998,
      "тэмд": 7999,
      "евр": 8000,
      "урьдчилсан": 8001,
      "бүрэлдэхүүн": 8002,
      "жам": 8003,
      "эээээ": 8004,
      "##кт": 8005,
      "##бил": 8006,
      "##10": 8007,
      "үйлдсэн": 8008,
      "##гдсан": 8009,
      "##оосой": 8010,
      "үзүүлдэг": 8011,
      "нүдэнд": 8012,
      "зайлсхий": 8013,
      "нөөцийн": 8014,
      "өөрчлөгдөж": 8015,
      "дасгалж": 8016,
      "төсөвт": 8017,
      "христийн": 8018,
      "менежмент": 8019,
      "ашиглалтад": 8020,
      "48": 8021,
      "есөн": 8022,
      "жен": 8023,
      "туул": 8024,
      "тоглодог": 8025,
      "ази": 8026,
      "системийг": 8027,
      "нэгдүгээрт": 8028,
      "казино": 8029,
      "гээ": 8030,
      "ков": 8031,
      "тоос": 8032,
      "##еп": 8033,
      "арв": 8034,
      "##лээгүй": 8035,
      "үнээр": 8036,
      "хүсэх": 8037,
      "хангасан": 8038,
      "хуудс": 8039,
      "амаргүй": 8040,
      "улирлын": 8041,
      "вэбсайт": 8042,
      "ждү": 8043,
      "очир": 8044,
      "үгийн": 8045,
      "##ce": 8046,
      "зарласан": 8047,
      "голын": 8048,
      "туршиж": 8049,
      "амжилтанд": 8050,
      "зөрчл": 8051,
      "гүнз": 8052,
      "цэвэрлэг": 8053,
      "шалтгаанаар": 8054,
      "тутамд": 8055,
      "гайхамшигтай": 8056,
      "хоцр": 8057,
      "##ахаас": 8058,
      "явагдаж": 8059,
      "байрлах": 8060,
      "эхлэв": 8061,
      "2005": 8062,
      "суралцаж": 8063,
      "нуруу": 8064,
      "мөрдөн": 8065,
      "тодруулбал": 8066,
      "гаргажээ": 8067,
      "урамшуулал": 8068,
      "99": 8069,
      "##гчийн": 8070,
      "##оз": 8071,
      "##eg": 8072,
      "ажилтай": 8073,
      "жилээс": 8074,
      "гадаг": 8075,
      "тэмцэж": 8076,
      "малын": 8077,
      "бодлогыг": 8078,
      "##all": 8079,
      "жижигхэн": 8080,
      "онош": 8081,
      "борлуулалт": 8082,
      "даалгавар": 8083,
      "34": 8084,
      "жич": 8085,
      "##цэн": 8086,
      "##ми": 8087,
      "##мэг": 8088,
      "##охыг": 8089,
      "дээгүүр": 8090,
      "гэрчилгээ": 8091,
      "анхаарлыг": 8092,
      "зэрэгцээ": 8093,
      "холбоотойгоор": 8094,
      "##лүүлнэ": 8095,
      "оройн": 8096,
      "хамрагдах": 8097,
      "чимэг": 8098,
      "стандар": 8099,
      "жоохон": 8100,
      "шаг": 8101,
      "##so": 8102,
      "орлоо": 8103,
      "тэднээс": 8104,
      "болгонд": 8105,
      "үүсгэх": 8106,
      "осол": 8107,
      "коммун": 8108,
      "аб": 8109,
      "нө": 8110,
      "си": 8111,
      "болор": 8112,
      "харвал": 8113,
      "хун": 8114,
      "сургаа": 8115,
      "##оодог": 8116,
      "танилцуулж": 8117,
      "төгрөгөөр": 8118,
      "урагш": 8119,
      "парламентын": 8120,
      "бх": 8121,
      "тох": 8122,
      "ян": 8123,
      "дарна": 8124,
      "биедээ": 8125,
      "тайланд": 8126,
      "мэдэгджээ": 8127,
      "огцр": 8128,
      "гэгээн": 8129,
      "сүйр": 8130,
      "##dows": 8131,
      "театр": 8132,
      "гүнзгий": 8133,
      "оос": 8134,
      "харуул": 8135,
      "хүрнэ": 8136,
      "салх": 8137,
      "утсаа": 8138,
      "чамтай": 8139,
      "толь": 8140,
      "суурин": 8141,
      "home": 8142,
      "гаш": 8143,
      "шинжээ": 8144,
      "##шигчид": 8145,
      "салхи": 8146,
      "холбогдуулан": 8147,
      "борлуулах": 8148,
      "хянах": 8149,
      "орлогын": 8150,
      "бодоход": 8151,
      "амттай": 8152,
      "цэнэтэй": 8153,
      "халдварын": 8154,
      "02": 8155,
      "пл": 8156,
      "##ия": 8157,
      "байгаагийн": 8158,
      "хүмүүсээ": 8159,
      "санаатай": 8160,
      "чамаас": 8161,
      "тэнгис": 8162,
      "тэндээс": 8163,
      "бүртгүүлэх": 8164,
      "овоо": 8165,
      "архив": 8166,
      "ардчилал": 8167,
      "хажуугаар": 8168,
      "дэн": 8169,
      "##вас": 8170,
      "санагдаад": 8171,
      "##эгддэг": 8172,
      "зүг": 8173,
      "##унк": 8174,
      "түүхий": 8175,
      "шулуун": 8176,
      "чарм": 8177,
      "windows": 8178,
      "ma": 8179,
      "us": 8180,
      "даж": 8181,
      "соц": 8182,
      "гараг": 8183,
      "##атур": 8184,
      "салах": 8185,
      "өнгөрч": 8186,
      "гишүү": 8187,
      "учрыг": 8188,
      "хөлөг": 8189,
      "зогсохгүй": 8190,
      "буруутай": 8191,
      "асуусан": 8192,
      "ярилцах": 8193,
      "нэвтэр": 8194,
      "нарийв": 8195,
      "ех": 8196,
      "кат": 8197,
      "##иур": 8198,
      "##гөөс": 8199,
      "##12": 8200,
      "явуулдаг": 8201,
      "амьтад": 8202,
      "##ous": 8203,
      "бүрдүүлэх": 8204,
      "07": 8205,
      "th": 8206,
      "боом": 8207,
      "тээ": 8208,
      "гард": 8209,
      "чадал": 8210,
      "талаараа": 8211,
      "шаардаж": 8212,
      "193": 8213,
      "иргэдээ": 8214,
      "хандсан": 8215,
      "бурханыг": 8216,
      "хүүхдүүдээ": 8217,
      "түмэнд": 8218,
      "найруулагч": 8219,
      "дэвших": 8220,
      "оновч": 8221,
      "парламент": 8222,
      "сэжиг": 8223,
      "дуулж": 8224,
      "##үрэн": 8225,
      "##ээсэй": 8226,
      "тантай": 8227,
      "шингэн": 8228,
      "зарж": 8229,
      "##уулахыг": 8230,
      "ойлголц": 8231,
      "туршлаг": 8232,
      "иддэг": 8233,
      "хариуцлагатай": 8234,
      "хөтөлбөрийг": 8235,
      "##ill": 8236,
      "уучлалт": 8237,
      "хуваарил": 8238,
      "статист": 8239,
      "бо": 8240,
      "##иор": 8241,
      "хүчил": 8242,
      "хэрэгжилт": 8243,
      "##доогүй": 8244,
      "сонгогдсон": 8245,
      "баахан": 8246,
      "тэнгэрийн": 8247,
      "##сээ": 8248,
      "эрхээ": 8249,
      "кинон": 8250,
      "хүүг": 8251,
      "үхэр": 8252,
      "өгчээ": 8253,
      "автомаш": 8254,
      "хоцор": 8255,
      "авахын": 8256,
      "нүдээ": 8257,
      "онцлох": 8258,
      "дүүрэг": 8259,
      "бүртгэгдсэн": 8260,
      "гайхаж": 8261,
      "илгээх": 8262,
      "шавь": 8263,
      "тэвчээр": 8264,
      "цүн": 8265,
      "эрхтэн": 8266,
      "байгууламж": 8267,
      "хоолоо": 8268,
      "##ine": 8269,
      "зээлийг": 8270,
      "хүргэсэн": 8271,
      "охинтой": 8272,
      "алдарт": 8273,
      "ааш": 8274,
      "##тү": 8275,
      "##үүлэлт": 8276,
      "барууны": 8277,
      "сууриа": 8278,
      "тулгарч": 8279,
      "үүсгэн": 8280,
      "##үүлэгчид": 8281,
      "суурьтай": 8282,
      "ордны": 8283,
      "элбэг": 8284,
      "гах": 8285,
      "чийг": 8286,
      "##лий": 8287,
      "хэрээр": 8288,
      "хүрээгүй": 8289,
      "ингэхэд": 8290,
      "дагал": 8291,
      "азтай": 8292,
      "чиглэлийн": 8293,
      "мэндэд": 8294,
      "ачаа": 8295,
      "тогтоож": 8296,
      "амьдралынхаа": 8297,
      "тонн": 8298,
      "жагсаалтыг": 8299,
      "музей": 8300,
      "сад": 8301,
      "функ": 8302,
      "цохи": 8303,
      "##дож": 8304,
      "хэлэхгүй": 8305,
      "талбар": 8306,
      "бүхнээ": 8307,
      "хэмж": 8308,
      "ердийн": 8309,
      "хүүхдүүдийг": 8310,
      "тайлбарлах": 8311,
      "өөрчлөлтийг": 8312,
      "программ": 8313,
      "болзоо": 8314,
      "үзэсгэлэнтэй": 8315,
      "хамаатай": 8316,
      "аравдугаар": 8317,
      "инженер": 8318,
      "##uck": 8319,
      "бололцоо": 8320,
      "алс": 8321,
      "хийжээ": 8322,
      "##эсний": 8323,
      "гэхээс": 8324,
      "сурагчид": 8325,
      "тэгэх": 8326,
      "зорьж": 8327,
      "саруул": 8328,
      "мэдэгдэж": 8329,
      "судалгаагаар": 8330,
      "тунхаг": 8331,
      "өвчтэй": 8332,
      "өрсөлдөх": 8333,
      "03": 8334,
      "фай": 8335,
      "##нэгт": 8336,
      "##эхэн": 8337,
      "##нуудын": 8338,
      "түүхтэй": 8339,
      "зөвшөөрөх": 8340,
      "оновчтой": 8341,
      "05": 8342,
      "ли": 8343,
      "отг": 8344,
      "ход": 8345,
      "##лөж": 8346,
      "##врийн": 8347,
      "хут": 8348,
      "дээрэм": 8349,
      "биенээ": 8350,
      "гадар": 8351,
      "хэвш": 8352,
      "бүтээж": 8353,
      "төлөвлөсөн": 8354,
      "хүсэлтийг": 8355,
      "зоригтой": 8356,
      "барьцаа": 8357,
      "судлаачид": 8358,
      "##лолт": 8359,
      "##ийгаа": 8360,
      "хуц": 8361,
      "амны": 8362,
      "алтны": 8363,
      "бодитой": 8364,
      "өмчл": 8365,
      "өрөв": 8366,
      "зохис": 8367,
      "хөнөө": 8368,
      "өнөөх": 8369,
      "ертөнцийг": 8370,
      "ялгаагүй": 8371,
      "next": 8372,
      "хэрэглэгчдийн": 8373,
      "ялгар": 8374,
      "ск": 8375,
      "таагүй": 8376,
      "хээр": 8377,
      "##цийг": 8378,
      "##хой": 8379,
      "##иний": 8380,
      "ороогүй": 8381,
      "гаргалаа": 8382,
      "монголыг": 8383,
      "хүснэгт": 8384,
      "ахлах": 8385,
      "тооцох": 8386,
      "шалтгааныг": 8387,
      "тахлын": 8388,
      "ad": 8389,
      "mac": 8390,
      "асан": 8391,
      "иш": 8392,
      "явган": 8393,
      "эхэнд": 8394,
      "ямарч": 8395,
      "дараал": 8396,
      "засал": 8397,
      "даав": 8398,
      "гаднаас": 8399,
      "хувьдаа": 8400,
      "уулзсан": 8401,
      "дорой": 8402,
      "хуримт": 8403,
      "нилээд": 8404,
      "##оож": 8405,
      "ажиллаг": 8406,
      "##ооно": 8407,
      "дэмжсэн": 8408,
      "##тлөө": 8409,
      "зовл": 8410,
      "гүйцэтгэж": 8411,
      "хөдөлгөөний": 8412,
      "нөлөөлсөн": 8413,
      "08": 8414,
      "лаб": 8415,
      "лхаг": 8416,
      "##лосон": 8417,
      "үйлс": 8418,
      "хайрцаг": 8419,
      "доторх": 8420,
      "сонгуулиар": 8421,
      "оюутны": 8422,
      "хамааран": 8423,
      "удирдлагууд": 8424,
      "хөлбөмбөгийн": 8425,
      "болгоомжтой": 8426,
      "##огчийн": 8427,
      "анхан": 8428,
      "##өөрэй": 8429,
      "сэтгэлтэй": 8430,
      "зориулан": 8431,
      "тосны": 8432,
      "эргэлт": 8433,
      "өөрсдийнхөө": 8434,
      "өртөг": 8435,
      "шалгаруулалт": 8436,
      "тэнцвэр": 8437,
      "04": 8438,
      "##тэйгөө": 8439,
      "хийвэл": 8440,
      "онол": 8441,
      "охиныг": 8442,
      "зовох": 8443,
      "харилцах": 8444,
      "##толгой": 8445,
      "гаг": 8446,
      "ким": 8447,
      "##дэнэ": 8448,
      "##тарын": 8449,
      "уучлал": 8450,
      "зардлыг": 8451,
      "тийшээ": 8452,
      "хэз": 8453,
      "супер": 8454,
      "батз": 8455,
      "##тана": 8456,
      "хөрв": 8457,
      "мэдрэх": 8458,
      "гаргахгүй": 8459,
      "олдсон": 8460,
      "хагалгаа": 8461,
      "арслан": 8462,
      "qu": 8463,
      "ниг": 8464,
      "##нүүдийг": 8465,
      "##рээ": 8466,
      "##ne": 8467,
      "гэрээсээ": 8468,
      "айдаг": 8469,
      "төгсг": 8470,
      "дэмжин": 8471,
      "энэтх": 8472,
      "хуралдаан": 8473,
      "хүндрэл": 8474,
      "талархаж": 8475,
      "стратегийн": 8476,
      "валю": 8477,
      ".)": 8478,
      "38": 8479,
      "яс": 8480,
      "##лик": 8481,
      "##өч": 8482,
      "юманд": 8483,
      "арч": 8484,
      "хэлээгүй": 8485,
      "албанд": 8486,
      "2004": 8487,
      "##ацтай": 8488,
      "цэнгэл": 8489,
      "##хуяг": 8490,
      "хөнгөлөлт": 8491,
      "##тгөр": 8492,
      "гарвал": 8493,
      "будаа": 8494,
      "хоёрт": 8495,
      "##лэлийг": 8496,
      "##логч": 8497,
      "охиноо": 8498,
      "хаврын": 8499,
      "унтах": 8500,
      "ордонд": 8501,
      "чуулганы": 8502,
      "австрали": 8503,
      "йор": 8504,
      "тийн": 8505,
      "##ийтэй": 8506,
      "байгуулалтын": 8507,
      "хугацаатай": 8508,
      "дундаас": 8509,
      "элемент": 8510,
      "зогсоол": 8511,
      "таарсан": 8512,
      "чиглэлд": 8513,
      "өнгөтэй": 8514,
      "өгүүлбэр": 8515,
      "маркетингийн": 8516,
      "ирэхээр": 8517,
      "хэлснээр": 8518,
      "юунаас": 8519,
      "тархи": 8520,
      "нүгэл": 8521,
      "өгөхийг": 8522,
      "##энхэр": 8523,
      "рүүгээ": 8524,
      "гудамжинд": 8525,
      "рестор": 8526,
      "##сэг": 8527,
      "##11": 8528,
      "явдлын": 8529,
      "тийш": 8530,
      "хүсээгүй": 8531,
      "насыг": 8532,
      "##агчдын": 8533,
      "санааны": 8534,
      "хавдар": 8535,
      "бэлтгэх": 8536,
      "хаз": 8537,
      "үеийг": 8538,
      "##чихвал": 8539,
      "ынхан": 8540,
      "дуугүй": 8541,
      "цааз": 8542,
      "оросууд": 8543,
      "ногоо": 8544,
      "хоёрдугаарт": 8545,
      "өмгөөлөгч": 8546,
      "аймшигтай": 8547,
      "зориулагдсан": 8548,
      "энэтхэгт": 8549,
      "док": 8550,
      "##ль": 8551,
      "##өгчийн": 8552,
      "тунг": 8553,
      "тулал": 8554,
      "##лагад": 8555,
      "сонгоно": 8556,
      "эдгэр": 8557,
      "бүсийн": 8558,
      "тэмдэглэх": 8559,
      "буцаад": 8560,
      "хvн": 8561,
      "жагсаалтад": 8562,
      "сүхбаатар": 8563,
      "лабор": 8564,
      "ii": 8565,
      "mar": 8566,
      "долд": 8567,
      "лонд": 8568,
      "пас": 8569,
      "цэнхэр": 8570,
      "##тх": 8571,
      "##ry": 8572,
      "бүрэлд": 8573,
      "гэрлэх": 8574,
      "өнгөрөх": 8575,
      "##olo": 8576,
      "суудал": 8577,
      "##ung": 8578,
      "британи": 8579,
      "шалтгаал": 8580,
      "оюуны": 8581,
      "##энгэ": 8582,
      "кап": 8583,
      "мэх": 8584,
      "нуур": 8585,
      "##раа": 8586,
      "##шгийн": 8587,
      "санаачил": 8588,
      "төлбөрийг": 8589,
      "эзэмших": 8590,
      "конс": 8591,
      "эмчилгээний": 8592,
      "суурилсан": 8593,
      "хүчирхийлэл": 8594,
      "дипломат": 8595,
      "автомашины": 8596,
      "##ийм": 8597,
      "байснаас": 8598,
      "хуй": 8599,
      "авир": 8600,
      "олонх": 8601,
      "хаагчид": 8602,
      "үндэстний": 8603,
      "бүсгүйн": 8604,
      "чадварыг": 8605,
      "хөгжилд": 8606,
      "ажлаас": 8607,
      "хуваарь": 8608,
      "залуучуудын": 8609,
      "африкийн": 8610,
      "уралдаан": 8611,
      "наймдугаар": 8612,
      "лиц": 8613,
      "муур": 8614,
      "##лөөр": 8615,
      "##хү": 8616,
      "##ахаа": 8617,
      "байгаагаас": 8618,
      "олоод": 8619,
      "тэрнээс": 8620,
      "таних": 8621,
      "хайрладаг": 8622,
      "##огдол": 8623,
      "хөгжих": 8624,
      "тохиолдсон": 8625,
      "удирдаж": 8626,
      "таалагдсан": 8627,
      "хэлэлцүүлэг": 8628,
      "өсч": 8629,
      "хөндл": 8630,
      "ихэнхдээ": 8631,
      "нэвтрэх": 8632,
      "хийлгэх": 8633,
      "мэргэжилтнүүд": 8634,
      "miss": 8635,
      "ге": 8636,
      "байгаасай": 8637,
      "үүгээр": 8638,
      "##хангай": 8639,
      "##лаач": 8640,
      "өвчл": 8641,
      "бичнэ": 8642,
      "босоо": 8643,
      "тойронд": 8644,
      "шилжих": 8645,
      "гуйж": 8646,
      "жуулчлалын": 8647,
      "алдагдал": 8648,
      "олимпийн": 8649,
      "гаригт": 8650,
      "өрсөлдөгч": 8651,
      "ив": 8652,
      "малт": 8653,
      "өлг": 8654,
      "##чуур": 8655,
      "харахгүй": 8656,
      "хэлийг": 8657,
      "хөшөө": 8658,
      "нүц": 8659,
      "мэргэн": 8660,
      "дамжин": 8661,
      "тушаалт": 8662,
      "хүртсэн": 8663,
      "чимээ": 8664,
      "итали": 8665,
      "саат": 8666,
      "ямагт": 8667,
      "75": 8668,
      "еги": 8669,
      "ээд": 8670,
      "чадалтай": 8671,
      "эмг": 8672,
      "бүтэлгүй": 8673,
      "195": 8674,
      "ажиллуулах": 8675,
      "нялх": 8676,
      "бичлэгийг": 8677,
      "егип": 8678,
      "бөөр": 8679,
      "дэ": 8680,
      "пак": 8681,
      "чө": 8682,
      "эк": 8683,
      "хэрэглэсэн": 8684,
      "зүйлээс": 8685,
      "мэргэш": 8686,
      "асуултад": 8687,
      "хүчингүй": 8688,
      "##ate": 8689,
      "занг": 8690,
      "тавантолгой": 8691,
      "шилжүүлэх": 8692,
      "бонд": 8693,
      "нүү": 8694,
      "##шаал": 8695,
      "##ft": 8696,
      "##одоо": 8697,
      "ямартай": 8698,
      "төсөлд": 8699,
      "тодорхойлж": 8700,
      "хүчээ": 8701,
      "холбогдож": 8702,
      "##баатарын": 8703,
      "санагдана": 8704,
      "цөөнгүй": 8705,
      "өлс": 8706,
      "шүүлт": 8707,
      "de": 8708,
      "##зар": 8709,
      "##бэг": 8710,
      "##ra": 8711,
      "эрин": 8712,
      "урс": 8713,
      "тухайгаа": 8714,
      "бурхны": 8715,
      "адуу": 8716,
      "дундж": 8717,
      "устг": 8718,
      "зориулалттай": 8719,
      "шинжтэй": 8720,
      "буцаан": 8721,
      "амжаагүй": 8722,
      "туйлын": 8723,
      "лаборатор": 8724,
      "400": 8725,
      "зус": 8726,
      "##ао": 8727,
      "алтай": 8728,
      "сайтын": 8729,
      "үзлэг": 8730,
      "талууд": 8731,
      "байгуулна": 8732,
      "шийтгэл": 8733,
      "талаархи": 8734,
      "сүүлдээ": 8735,
      "байгууллагаас": 8736,
      "өрөөний": 8737,
      "мартаж": 8738,
      "өмсөх": 8739,
      "тууштай": 8740,
      "үерх": 8741,
      "=\"": 8742,
      "##лас": 8743,
      "##сөөр": 8744,
      "##вад": 8745,
      "##мин": 8746,
      "хэрэгл": 8747,
      "хэлчих": 8748,
      "үзлээ": 8749,
      "тогооны": 8750,
      "багаар": 8751,
      "боломжийн": 8752,
      "хүчийг": 8753,
      "инээв": 8754,
      "хэрэгслийн": 8755,
      "хөвг": 8756,
      "торгуул": 8757,
      "жимс": 8758,
      "хэлтэс": 8759,
      "төсөөлж": 8760,
      "##билэг": 8761,
      "ковид": 8762,
      "ex": 8763,
      "мот": 8764,
      "хараагүй": 8765,
      "танихгүй": 8766,
      "биеэр": 8767,
      "гүйлгээ": 8768,
      "нүх": 8769,
      "суурийг": 8770,
      "баталж": 8771,
      "төлбөргүй": 8772,
      "хүртлээ": 8773,
      "ачаалал": 8774,
      "prev": 8775,
      "чөтгөр": 8776,
      "уна": 8777,
      "##гуудыг": 8778,
      "##iz": 8779,
      "##ct": 8780,
      "байг": 8781,
      "##эрч": 8782,
      "##сэнд": 8783,
      "өргөө": 8784,
      "тем": 8785,
      "илэрсэн": 8786,
      "конт": 8787,
      "тамирчид": 8788,
      "хөлбөмбөг": 8789,
      "зэм": 8790,
      "умар": 8791,
      "хянаж": 8792,
      "хийхдээ": 8793,
      "дурьд": 8794,
      "бак": 8795,
      "тохиолддог": 8796,
      "загварыг": 8797,
      "үүсгэж": 8798,
      "төхөөрөмжийн": 8799,
      "хөвгүүд": 8800,
      "торг": 8801,
      "нутг": 8802,
      "социал": 8803,
      "49": 8804,
      "гул": 8805,
      "лат": 8806,
      "мэл": 8807,
      "ом": 8808,
      "поп": 8809,
      "##бб": 8810,
      "##эгс": 8811,
      "өгвөл": 8812,
      "өршөө": 8813,
      "хоригд": 8814,
      "үгэнд": 8815,
      "хаах": 8816,
      "##чимэг": 8817,
      "дуусгах": 8818,
      "өсөх": 8819,
      "танилцуулга": 8820,
      "ярьжээ": 8821,
      "өгөөж": 8822,
      "оролдож": 8823,
      "##зүйн": 8824,
      "55": 8825,
      "яадаг": 8826,
      "##лүүлсэн": 8827,
      "##агаа": 8828,
      "##нийхээ": 8829,
      "харв": 8830,
      "мэдээд": 8831,
      "##азил": 8832,
      "тусмаа": 8833,
      "нийтэл": 8834,
      "баял": 8835,
      "хашг": 8836,
      "##лагддаг": 8837,
      "мужийн": 8838,
      "экспорт": 8839,
      "нал": 8840,
      "##io": 8841,
      "амийг": 8842,
      "даргыг": 8843,
      "үйлдлийн": 8844,
      "бусаар": 8845,
      "насаа": 8846,
      "зүс": 8847,
      "хайрт": 8848,
      "192": 8849,
      "танилцуул": 8850,
      "тосг": 8851,
      "амьсгалын": 8852,
      "утгагүй": 8853,
      "pr": 8854,
      "от": 8855,
      "##тгар": 8856,
      "барааны": 8857,
      "дураараа": 8858,
      "гадн": 8859,
      "бүгдэд": 8860,
      "мөртлөө": 8861,
      "түрүүлж": 8862,
      "тохирох": 8863,
      "##аци": 8864,
      "хачир": 8865,
      "маягаар": 8866,
      "карьер": 8867,
      "имэй": 8868,
      "импорт": 8869,
      "найрамдах": 8870,
      "лиценз": 8871,
      "tw": 8872,
      "чой": 8873,
      "##гуудын": 8874,
      "##еш": 8875,
      "##мэн": 8876,
      "нэгдэж": 8877,
      "байхаас": 8878,
      "жилийг": 8879,
      "өрхийн": 8880,
      "мэдээг": 8881,
      "боловсруулж": 8882,
      "асуухад": 8883,
      "журмын": 8884,
      "##ell": 8885,
      "дамп": 8886,
      "олигтой": 8887,
      "чир": 8888,
      "ши": 8889,
      "##уужин": 8890,
      "хүд": 8891,
      "гарган": 8892,
      "сандал": 8893,
      "нэрлэж": 8894,
      "мөрийн": 8895,
      "мөргөл": 8896,
      "амьтны": 8897,
      "хариуд": 8898,
      "үлдэж": 8899,
      "150": 8900,
      "мэдлэгтэй": 8901,
      "авлига": 8902,
      "өрөвд": 8903,
      "хөндлөн": 8904,
      "42": 8905,
      "yolo": 8906,
      "богд": 8907,
      "наас": 8908,
      "##дох": 8909,
      "##манд": 8910,
      "##ым": 8911,
      "хүртээ": 8912,
      "зүйлсийн": 8913,
      "байрыг": 8914,
      "авчрах": 8915,
      "тенд": 8916,
      "дэмжиг": 8917,
      "төвөгтэй": 8918,
      "тэмцэл": 8919,
      "буурсан": 8920,
      "харилцаанд": 8921,
      "буудлын": 8922,
      "нутагтаа": 8923,
      "сүлжээний": 8924,
      "олборлох": 8925,
      "son": 8926,
      "##лад": 8927,
      "##лууд": 8928,
      "бүлд": 8929,
      "тангар": 8930,
      "үйлдлийг": 8931,
      "үнэлж": 8932,
      "зорчих": 8933,
      "##үүлэхийг": 8934,
      "бясал": 8935,
      "үйлчлэх": 8936,
      "цэцэрлэгийн": 8937,
      "стресс": 8938,
      "терр": 8939,
      "гагц": 8940,
      "доктор": 8941,
      "долдугаар": 8942,
      "##te": 8943,
      "нэгдэл": 8944,
      "таньд": 8945,
      "бодлыг": 8946,
      "цагтаа": 8947,
      "шинэхэн": 8948,
      "баяж": 8949,
      "томъё": 8950,
      "өнөөдрөөс": 8951,
      "##end": 8952,
      "хараат": 8953,
      "##ect": 8954,
      "шувуу": 8955,
      "оффис": 8956,
      "отгон": 8957,
      "зовлонг": 8958,
      "сэн": 8959,
      "цээж": 8960,
      "##up": 8961,
      "эрэг": 8962,
      "мэдэг": 8963,
      "хэрэглэнэ": 8964,
      "ярина": 8965,
      "салж": 8966,
      "удам": 8967,
      "ажиллаад": 8968,
      "боловсруулсан": 8969,
      "хатагтай": 8970,
      "ороход": 8971,
      "үсээ": 8972,
      "алджээ": 8973,
      "төрөлхтний": 8974,
      "мэргэжилтэн": 8975,
      "чармайл": 8976,
      "vv": 8977,
      "говь": 8978,
      "дис": 8979,
      "туур": 8980,
      "илт": 8981,
      "багаж": 8982,
      "тэгтэл": 8983,
      "зурсан": 8984,
      "хүндтэй": 8985,
      "тохиож": 8986,
      "танилцуулах": 8987,
      "санагдах": 8988,
      "бразил": 8989,
      "дайсан": 8990,
      "дуудаж": 8991,
      "хамгаалалтын": 8992,
      "хувьцааны": 8993,
      "горим": 8994,
      "шаа": 8995,
      "##дэн": 8996,
      "##аль": 8997,
      "бир": 8998,
      "орчих": 8999,
      "хийд": 9000,
      "ёсл": 9001,
      "ёслол": 9002,
      "өнгийн": 9003,
      "хайрыг": 9004,
      "мэдээгүй": 9005,
      "хамгаалагч": 9006,
      "үүргийг": 9007,
      "шинэчлэл": 9008,
      "хүлээлт": 9009,
      "нотлох": 9010,
      "as": 9011,
      "ку": 9012,
      "то": 9013,
      "ток": 9014,
      "шуу": 9015,
      "##ийх": 9016,
      "##агдаагүй": 9017,
      "алуур": 9018,
      "хэлм": 9019,
      "зарлаж": 9020,
      "төмрийн": 9021,
      "тек": 9022,
      "хичээх": 9023,
      "хариуг": 9024,
      "ааж": 9025,
      "өөх": 9026,
      "##ian": 9027,
      "##хуу": 9028,
      "##хэд": 9029,
      "үйлдл": 9030,
      "анхдагч": 9031,
      "буйг": 9032,
      "чиглэсэн": 9033,
      "таалаг": 9034,
      "сэрэмж": 9035,
      "хариуцсан": 9036,
      "таарч": 9037,
      "грек": 9038,
      "афган": 9039,
      "түрээсийн": 9040,
      "тагнуулын": 9041,
      "укра": 9042,
      "хомс": 9043,
      "төгсгөлд": 9044,
      "it": 9045,
      "саг": 9046,
      "##гадаг": 9047,
      "##ьё": 9048,
      "орц": 9049,
      "таньж": 9050,
      "бодохгүй": 9051,
      "зорьсон": 9052,
      "английн": 9053,
      "ачаар": 9054,
      "багтсан": 9055,
      "төдийлөн": 9056,
      "37": 9057,
      "br": 9058,
      "сош": 9059,
      "##ist": 9060,
      "##эхээ": 9061,
      "орныг": 9062,
      "даргаар": 9063,
      "болохын": 9064,
      "##жилж": 9065,
      "намрын": 9066,
      "болгоод": 9067,
      "зурхай": 9068,
      "хэвлэх": 9069,
      "тараа": 9070,
      "хятадууд": 9071,
      "хавь": 9072,
      "эхнэрээ": 9073,
      "татгалзах": 9074,
      "хөдөлгөөнт": 9075,
      "чат": 9076,
      "ээлтэй": 9077,
      "##эвэл": 9078,
      "##үүдтэй": 9079,
      "мэдээлж": 9080,
      "хүндээ": 9081,
      "хонь": 9082,
      "шилжилт": 9083,
      "дүрв": 9084,
      "харагдахгүй": 9085,
      "##oun": 9086,
      "бям": 9087,
      "сайжир": 9088,
      "дүгнэж": 9089,
      "шалгаруулах": 9090,
      "өрнөж": 9091,
      "золиос": 9092,
      "хураамж": 9093,
      "сирийн": 9094,
      "нөат": 9095,
      "cov": 9096,
      "мү": 9097,
      "мик": 9098,
      "ник": 9099,
      "ооо": 9100,
      "##ah": 9101,
      "байя": 9102,
      "орхон": 9103,
      "булг": 9104,
      "##ост": 9105,
      "унах": 9106,
      "утгаар": 9107,
      "бусадтай": 9108,
      "ядуур": 9109,
      "эрчүүдийн": 9110,
      "тусална": 9111,
      "мөрдөх": 9112,
      "бээжин": 9113,
      "египет": 9114,
      "но": 9115,
      "хак": 9116,
      "ээл": 9117,
      "болих": 9118,
      "бүхэлд": 9119,
      "намд": 9120,
      "хорин": 9121,
      "хийгдэж": 9122,
      "хуудсыг": 9123,
      "осолд": 9124,
      "тусалдаг": 9125,
      "цомог": 9126,
      "зөөврийн": 9127,
      "##кийн": 9128,
      "##ug": 9129,
      "явсаар": 9130,
      "барина": 9131,
      "талархал": 9132,
      "монголдоо": 9133,
      "##чилэн": 9134,
      "манлай": 9135,
      "тоогоор": 9136,
      "баярыг": 9137,
      "ахиад": 9138,
      "хандан": 9139,
      "сургуулиа": 9140,
      "шанал": 9141,
      "сэдвээр": 9142,
      "компаниудын": 9143,
      "нягтлан": 9144,
      "кли": 9145,
      "мэр": 9146,
      "мөх": 9147,
      "тє": 9148,
      "туулж": 9149,
      "шт": 9150,
      "##иод": 9151,
      "##лин": 9152,
      "##ain": 9153,
      "##жгийн": 9154,
      "##жав": 9155,
      "##ber": 9156,
      "зүйр": 9157,
      "##лахад": 9158,
      "##агдлаа": 9159,
      "байрладаг": 9160,
      "нөхрийн": 9161,
      "албад": 9162,
      "дотны": 9163,
      "##шина": 9164,
      "гурв": 9165,
      "компанийг": 9166,
      "зэрлэг": 9167,
      "хөлд": 9168,
      "тохиргоо": 9169,
      "дуустал": 9170,
      "солонгост": 9171,
      "өчүүхэн": 9172,
      "ширээ": 9173,
      "comment": 9174,
      "баар": 9175,
      "дуулсан": 9176,
      "сөн": 9177,
      "##зд": 9178,
      "##төө": 9179,
      "бүлээ": 9180,
      "харлаа": 9181,
      "##алтаар": 9182,
      "хүргэл": 9183,
      "##лахыг": 9184,
      "илчл": 9185,
      "сонсг": 9186,
      "тавина": 9187,
      "холбог": 9188,
      "даатг": 9189,
      "үүсэх": 9190,
      "үүрд": 9191,
      "тойрон": 9192,
      "##баярын": 9193,
      "хүртэх": 9194,
      "багасгах": 9195,
      "дохио": 9196,
      "сошиал": 9197,
      "44": 9198,
      "пуужин": 9199,
      "бүлг": 9200,
      "##чив": 9201,
      "үзүүр": 9202,
      "амьдр": 9203,
      "тиймдээ": 9204,
      "тавилга": 9205,
      "хандлагатай": 9206,
      "туршилтын": 9207,
      "толгойд": 9208,
      "янзын": 9209,
      "хязгаарлалт": 9210,
      "хамрагдсан": 9211,
      "өгүүллэг": 9212,
      "даалга": 9213,
      "арилжаа": 9214,
      "гаалийн": 9215,
      "ялаг": 9216,
      "яана": 9217,
      "##луу": 9218,
      "##ъяа": 9219,
      "##айз": 9220,
      "даргад": 9221,
      "юутай": 9222,
      "##длого": 9223,
      "ерөө": 9224,
      "дараалан": 9225,
      "даашин": 9226,
      "тогтоомж": 9227,
      "төлөөлөл": 9228,
      "санаач": 9229,
      "тэргүү": 9230,
      "##ice": 9231,
      "түлш": 9232,
      "хуваалцах": 9233,
      "зохистой": 9234,
      "wh": 9235,
      "тест": 9236,
      "##дээс": 9237,
      "##ail": 9238,
      "##хаар": 9239,
      "##ue": 9240,
      "##ud": 9241,
      "өгөв": 9242,
      "компаний": 9243,
      "цаасан": 9244,
      "аймаар": 9245,
      "хугацаандаа": 9246,
      "гэмтэл": 9247,
      "##сүт": 9248,
      "үндсэндээ": 9249,
      "##окс": 9250,
      "орныхоо": 9251,
      "материалыг": 9252,
      "хөдлөл": 9253,
      "овог": 9254,
      "тасалбар": 9255,
      "нулимс": 9256,
      "дасгалжуулагч": 9257,
      "хуудсууд": 9258,
      "ген": 9259,
      "лаа": 9260,
      "нээс": 9261,
      "см": 9262,
      "хөөц": 9263,
      "##луул": 9264,
      "##ѳѳ": 9265,
      "гарахад": 9266,
      "##гуулж": 9267,
      "төлсөн": 9268,
      "хуулиа": 9269,
      "биелүүлж": 9270,
      "сургуулиу": 9271,
      "хөрөнгийг": 9272,
      "##эгчдийн": 9273,
      "нөлөөтэй": 9274,
      "айлчлал": 9275,
      "түвшний": 9276,
      "ордон": 9277,
      "дуурай": 9278,
      "##авхлан": 9279,
      "коммунист": 9280,
      "сат": 9281,
      "##пур": 9282,
      "##ориг": 9283,
      "##ндээ": 9284,
      "байгаадаа": 9285,
      "биднээс": 9286,
      "түш": 9287,
      "засгийг": 9288,
      "сэтгэлээр": 9289,
      "халх": 9290,
      "бүсэд": 9291,
      "хүүхдийнхээ": 9292,
      "нэвтрүүлэх": 9293,
      "хулгайл": 9294,
      "шийднэ": 9295,
      "хэрэглэгчдэд": 9296,
      "есүсийн": 9297,
      "орхисон": 9298,
      "##ive": 9299,
      "##лоод": 9300,
      "##үүлэв": 9301,
      "##эгдлээ": 9302,
      "албагүй": 9303,
      "хотыг": 9304,
      "удирдаг": 9305,
      "явахдаа": 9306,
      "##are": 9307,
      "байгууллагуудын": 9308,
      "хөтөч": 9309,
      "алдааг": 9310,
      "хогийн": 9311,
      "борлуулалтын": 9312,
      "зэвсэгт": 9313,
      "түгж": 9314,
      "судлаач": 9315,
      "дажгүй": 9316,
      "гагцхүү": 9317,
      "cl": 9318,
      "рок": 9319,
      "шок": 9320,
      "##нх": 9321,
      "##бо": 9322,
      "##aa": 9323,
      "##ps": 9324,
      "хийчих": 9325,
      "нараас": 9326,
      "##измын": 9327,
      "зөвшөөрөхгүй": 9328,
      "итгэхгүй": 9329,
      "болгохын": 9330,
      "орхиж": 9331,
      "австралийн": 9332,
      "стандартын": 9333,
      "бет": 9334,
      "ярианы": 9335,
      "чинээ": 9336,
      "сонсдог": 9337,
      "нитр": 9338,
      "тамхины": 9339,
      "прокурор": 9340,
      "дампуур": 9341,
      "65": 9342,
      "##лер": 9343,
      "##aw": 9344,
      "ажилчдын": 9345,
      "хүнээр": 9346,
      "хүмүүн": 9347,
      "ярилаа": 9348,
      "анхааралтай": 9349,
      "эхлүүлсэн": 9350,
      "нүүрний": 9351,
      "##ацгаа": 9352,
      "шүл": 9353,
      "эсрэгээрээ": 9354,
      "##ity": 9355,
      "төлөвлөгөөг": 9356,
      "тэнгэрт": 9357,
      "очиход": 9358,
      "компьютерийн": 9359,
      "авчирч": 9360,
      "согтуу": 9361,
      "террор": 9362,
      "рек": 9363,
      "##мөөр": 9364,
      "##ингоо": 9365,
      "олдог": 9366,
      "туслал": 9367,
      "нийлж": 9368,
      "гэмээр": 9369,
      "чөлөөлөх": 9370,
      "бүтээлийн": 9371,
      "харилцааг": 9372,
      "эрдэнэбат": 9373,
      "болчихлоо": 9374,
      "морил": 9375,
      "хурдтай": 9376,
      "үлдээсэн": 9377,
      "ашгийн": 9378,
      "атаар": 9379,
      "өөрийнхөөрөө": 9380,
      "цүнх": 9381,
      "темпер": 9382,
      "даашинз": 9383,
      "con": 9384,
      "дуулах": 9385,
      "жишиг": 9386,
      "##гүүдийг": 9387,
      "болх": 9388,
      "олонд": 9389,
      "зүйлгүй": 9390,
      "##чилгаа": 9391,
      "нартаа": 9392,
      "өдөржин": 9393,
      "тодруулах": 9394,
      "2003": 9395,
      "өнөөг": 9396,
      "##age": 9397,
      "тэсвэр": 9398,
      "хэрэгцээг": 9399,
      "##igh": 9400,
      "хачирхалтай": 9401,
      "##умын": 9402,
      "##гор": 9403,
      "##сс": 9404,
      "##ахан": 9405,
      "олз": 9406,
      "тэгэхдээ": 9407,
      "дурын": 9408,
      "зүтгэл": 9409,
      "тогтсон": 9410,
      "##гуйл": 9411,
      "хувилбарыг": 9412,
      "нүүдэл": 9413,
      "нүцгэн": 9414,
      "физ": 9415,
      "##шн": 9416,
      "##уудаар": 9417,
      "анк": 9418,
      "заслын": 9419,
      "төсл": 9420,
      "сүүлээр": 9421,
      "хөдөлгүүр": 9422,
      "америкчууд": 9423,
      "захиргаа": 9424,
      "ярихгүй": 9425,
      "тойрог": 9426,
      "орчныг": 9427,
      "мэдэрдэг": 9428,
      "нух": 9429,
      "хуралдаанаар": 9430,
      "авлигын": 9431,
      "яригдаж": 9432,
      "дунджаар": 9433,
      "текст": 9434,
      "51": 9435,
      "дэр": 9436,
      "ним": 9437,
      "оор": 9438,
      "##елийн": 9439,
      "##вер": 9440,
      "##ьш": 9441,
      "арын": 9442,
      "сайхныг": 9443,
      "##доос": 9444,
      "суугч": 9445,
      "дахинд": 9446,
      "аятай": 9447,
      "хүргэдэг": 9448,
      "үндэслэн": 9449,
      "төлөвтэй": 9450,
      "танилцаж": 9451,
      "асуув": 9452,
      "цэвэрхэн": 9453,
      "нээсэн": 9454,
      "цуглаа": 9455,
      "журмыг": 9456,
      "эзэмшигч": 9457,
      "огцруулах": 9458,
      "тоглогчид": 9459,
      "мессеж": 9460,
      "нанд": 9461,
      "##рыг": 9462,
      "##шдээ": 9463,
      "##ast": 9464,
      "##авал": 9465,
      "танаас": 9466,
      "бусын": 9467,
      "зургад": 9468,
      "номоо": 9469,
      "түрх": 9470,
      "хотоос": 9471,
      "ээждээ": 9472,
      "##емат": 9473,
      "цаашаа": 9474,
      "асуулга": 9475,
      "айлд": 9476,
      "оройт": 9477,
      "парис": 9478,
      "бүрдүүлж": 9479,
      "хасах": 9480,
      "өлсгөл": 9481,
      "гавья": 9482,
      "хориотой": 9483,
      "нээлтээ": 9484,
      "малтмал": 9485,
      "39": 9486,
      "лог": 9487,
      "##хээс": 9488,
      "##30": 9489,
      "##эмгий": 9490,
      "тавилан": 9491,
      "ирэхийг": 9492,
      "дүрд": 9493,
      "дэвшил": 9494,
      "болчихоод": 9495,
      "товчл": 9496,
      "сургамж": 9497,
      "##форм": 9498,
      "функц": 9499,
      "ходоод": 9500,
      "температур": 9501,
      "пал": 9502,
      "пер": 9503,
      "фин": 9504,
      "##ьц": 9505,
      "хүдэр": 9506,
      "авлага": 9507,
      "алчуур": 9508,
      "бүтцийн": 9509,
      "тавтай": 9510,
      "сэтгэц": 9511,
      "хортой": 9512,
      "хувьтай": 9513,
      "өндөг": 9514,
      "ярилцсан": 9515,
      "баримтлал": 9516,
      "тогтоогд": 9517,
      "угааж": 9518,
      "хөдөлгөөнийг": 9519,
      "зуунд": 9520,
      "авчирсан": 9521,
      "хорооллын": 9522,
      "өөрчилсөн": 9523,
      "талбайн": 9524,
      "зургадугаар": 9525,
      "жавхлан": 9526,
      "зг": 9527,
      "ноос": 9528,
      "орган": 9529,
      "будаг": 9530,
      "дэлбэр": 9531,
      "хуулбар": 9532,
      "захын": 9533,
      "халаа": 9534,
      "үргэлжлүүлэх": 9535,
      "системд": 9536,
      "буудалд": 9537,
      "тэтгэмж": 9538,
      "зүрхний": 9539,
      "зогсоож": 9540,
      "үргэлжилнэ": 9541,
      "бөөний": 9542,
      "хайлтын": 9543,
      "стратеги": 9544,
      "гоолингоо": 9545,
      "оувс": 9546,
      "зорчигч": 9547,
      "үйм": 9548,
      "төлөөлөгчид": 9549,
      "хөөцөлд": 9550,
      "##бэ": 9551,
      "##az": 9552,
      "##ти": 9553,
      "хэргээр": 9554,
      "хус": 9555,
      "авагч": 9556,
      "ихэс": 9557,
      "үзэгчид": 9558,
      "талаасаа": 9559,
      "талийгаа": 9560,
      "монголоос": 9561,
      "мөнхийн": 9562,
      "чингэл": 9563,
      "##гдаж": 9564,
      "хэнтэй": 9565,
      "илүүтэй": 9566,
      "уншаарай": 9567,
      "таалагдаж": 9568,
      "танилцсан": 9569,
      "иргэнийг": 9570,
      "салбарыг": 9571,
      "эвдэр": 9572,
      "охидын": 9573,
      "татгалзаж": 9574,
      "эсэргүүцэж": 9575,
      "өргөтг": 9576,
      "##ock": 9577,
      "акад": 9578,
      "хаалттай": 9579,
      "мэйл": 9580,
      "оршдог": 9581,
      "синга": 9582,
      "нитрил": 9583,
      "мун": 9584,
      "##pt": 9585,
      "##єх": 9586,
      "##эээ": 9587,
      "байдлаа": 9588,
      "бичил": 9589,
      "оржээ": 9590,
      "орноос": 9591,
      "аврал": 9592,
      "хором": 9593,
      "биелүүл": 9594,
      "гэнэтийн": 9595,
      "хийгээрэй": 9596,
      "мэдээжийн": 9597,
      "гаргахад": 9598,
      "бодохоор": 9599,
      "төлөвлөлт": 9600,
      "гамшиг": 9601,
      "канадын": 9602,
      "таалагддаг": 9603,
      "сансрын": 9604,
      "800": 9605,
      "mic": 9606,
      "мекс": 9607,
      "цон": 9608,
      "##үүлээрэй": 9609,
      "бузар": 9610,
      "дээж": 9611,
      "нараа": 9612,
      "асуултанд": 9613,
      "сексийн": 9614,
      "өртсөн": 9615,
      "тархины": 9616,
      "нааш": 9617,
      "хүндрэлтэй": 9618,
      "харгалзан": 9619,
      "гон": 9620,
      "##ьс": 9621,
      "амарч": 9622,
      "анаг": 9623,
      "өмчийн": 9624,
      "эмчийн": 9625,
      "хүүхнүүд": 9626,
      "##лэлтийн": 9627,
      "өвс": 9628,
      "замбар": 9629,
      "хөгжсөн": 9630,
      "нүүрээ": 9631,
      "тооцож": 9632,
      "баримтыг": 9633,
      "одон": 9634,
      "орчуул": 9635,
      "хүчирхийл": 9636,
      "сураггүй": 9637,
      "амжилтад": 9638,
      "туслалцаа": 9639,
      "академ": 9640,
      "jo": 9641,
      "ягаан": 9642,
      "##хор": 9643,
      "##хаас": 9644,
      "ороо": 9645,
      "аваа": 9646,
      "арьсан": 9647,
      "сандар": 9648,
      "санамсар": 9649,
      "хураалт": 9650,
      "##идер": 9651,
      "боловсон": 9652,
      "малчид": 9653,
      "нэмэгдэх": 9654,
      "хэрэгслийг": 9655,
      "зочл": 9656,
      "зарцуулсан": 9657,
      "огцор": 9658,
      "клип": 9659,
      "сингапур": 9660,
      "генер": 9661,
      "чоно": 9662,
      "##ээтэй": 9663,
      "төрдөг": 9664,
      "өмөөр": 9665,
      "тэгэхгүй": 9666,
      "ингэх": 9667,
      "##чүүдийн": 9668,
      "голом": 9669,
      "үлдэнэ": 9670,
      "хайгуул": 9671,
      "чөлөөл": 9672,
      "настайдаа": 9673,
      "огтхон": 9674,
      "граф": 9675,
      "алхаж": 9676,
      "үргэлжилсэн": 9677,
      "олборлолт": 9678,
      "баз": 9679,
      "туулах": 9680,
      "ялах": 9681,
      "##хээр": 9682,
      "##тоо": 9683,
      "##аав": 9684,
      "бүг": 9685,
      "##үүлээгүй": 9686,
      "##ософ": 9687,
      "дуугаа": 9688,
      "##адаггүй": 9689,
      "машинд": 9690,
      "таашаал": 9691,
      "мэдэхийг": 9692,
      "малгай": 9693,
      "хадгаламж": 9694,
      "тунгаа": 9695,
      "зарцуулж": 9696,
      "хөвсгөл": 9697,
      "огцом": 9698,
      "булчин": 9699,
      "эзэмшсэн": 9700,
      "утгыг": 9701,
      "зугт": 9702,
      "дагавар": 9703,
      "ехов": 9704,
      "vз": 9705,
      "хи": 9706,
      "##рөг": 9707,
      "##ожээ": 9708,
      "##айгаа": 9709,
      "хэрэгтээ": 9710,
      "алж": 9711,
      "##нгэр": 9712,
      "##гөсөн": 9713,
      "давсан": 9714,
      "хааж": 9715,
      "сонирхлыг": 9716,
      "буруут": 9717,
      "малчин": 9718,
      "хариулах": 9719,
      "хамгаалахын": 9720,
      "тэтгэврийн": 9721,
      "хохирогч": 9722,
      "хэвтэж": 9723,
      "##рэх": 9724,
      "##вен": 9725,
      "##pr": 9726,
      "хүз": 9727,
      "харам": 9728,
      "нэгдэх": 9729,
      "зуршил": 9730,
      "уншина": 9731,
      "үйлдвэрлэсэн": 9732,
      "сүмийн": 9733,
      "элсэн": 9734,
      "сольж": 9735,
      "уулзалтын": 9736,
      "дорж": 9737,
      "сайдыг": 9738,
      "үлдэг": 9739,
      "үүсч": 9740,
      "бааз": 9741,
      "онгой": 9742,
      "модон": 9743,
      "хязгаарлагд": 9744,
      "шагналыг": 9745,
      "сорилт": 9746,
      "татгалзсан": 9747,
      "зүтгэж": 9748,
      "өрсөлдөөн": 9749,
      "сурагчдын": 9750,
      "бахархаж": 9751,
      "шүдний": 9752,
      "цэргүүд": 9753,
      "робот": 9754,
      "fuck": 9755,
      "le": 9756,
      "диж": 9757,
      "##сарын": 9758,
      "##ард": 9759,
      "харъя": 9760,
      "хул": 9761,
      "сайгүй": 9762,
      "төрч": 9763,
      "##чихсөн": 9764,
      "##уйц": 9765,
      "гурил": 9766,
      "сонирхдог": 9767,
      "##гэрэл": 9768,
      "тохируулах": 9769,
      "зогссон": 9770,
      "итгэлийг": 9771,
      "толгойн": 9772,
      "хамаарч": 9773,
      "цуглуулах": 9774,
      "агуулсан": 9775,
      "математ": 9776,
      "мөчид": 9777,
      "шинэчлэх": 9778,
      "бэлтгэж": 9779,
      "##ime": 9780,
      "сурталчилгааны": 9781,
      "хонгор": 9782,
      "харгалз": 9783,
      "95": 9784,
      "адал": 9785,
      "мул": 9786,
      "нтр": 9787,
[...]
