<unk>	0
<s>	0
</s>	0
▁.	-3.30711
▁б	-3.73127
▁х	-3.9049
▁н	-4.26478
▁т	-4.30427
▁ийн	-4.51648
▁,	-4.52239
▁нь	-4.63169
▁д	-4.77178
▁л	-4.86973
▁-	-4.88238
▁гүй	-4.94504
а	-4.9836
▁"	-5.03993
▁з	-5.10937
▁ч	-5.11422
▁байна	-5.14348
л	-5.14362
▁ж	-5.14963
▁ын	-5.15405
г	-5.24425
▁юм	-5.26895
▁ийг	-5.31382
▁г	-5.35268
▁тэй	-5.49177
▁айгаа	-5.4942
д	-5.51612
▁0	-5.53465
▁тай	-5.54873
р	-5.55489
.	-5.56672
▁Т	-5.59272
▁сан	-5.59415
▁гэж	-5.59787
▁бол	-5.63717
▁Х	-5.63927
▁1	-5.65888
▁ыг	-5.72588
▁2	-5.75512
▁ах	-5.76629
▁Б	-5.79559
н	-5.79989
▁аа	-5.81256
▁ха	-5.81265
э	-5.8524
▁с	-5.85243
▁М	-5.86818
▁р	-5.92433
▁ээ	-5.92727
▁энэ	-5.93799
▁А	-5.94801
▁хэрэг	-5.9525
▁байх	-5.96293
▁:	-6.01501
▁Энэ	-6.04382
▁айсан	-6.06231
▁өөр	-6.08513
?	-6.08606
▁та	-6.0905
▁ажил	-6.10087
▁хүн	-6.11876
▁нэг	-6.12336
ий	-6.1261
▁сэн	-6.14622
и	-6.14693
▁а	-6.15528
▁ны	-6.17189
▁дээ	-6.17669
▁Э	-6.23107
▁уу	-6.23833
▁Г	-6.26045
▁эх	-6.26917
▁м	-6.29027
▁ээр	-6.29815
▁даг	-6.29988
▁Д	-6.32848
▁аас	-6.33187
о	-6.3759
▁Н	-6.38231
▁жил	-6.39274
▁С	-6.39347
▁их	-6.39466
▁аж	-6.40332
▁аар	-6.40648
▁ху	-6.42488
▁дэг	-6.43316
▁У	-6.44267
▁даа	-6.44348
х	-6.4496
▁болно	-6.46271
▁үү	-6.47883
▁эд	-6.47964
▁о	-6.48802
▁онгол	-6.50995
▁ний	-6.51649
▁айдаг	-6.52471
▁хэл	-6.53897
▁дээр	-6.542
▁уул	-6.54241
▁би	-6.55595
▁З	-6.55644
▁гар	-6.56737
▁вэ	-6.57259
▁ээс	-6.57706
▁йн	-6.57989
▁И	-6.5805
ц	-6.59889
▁лт	-6.60005
▁асуу	-6.61126
▁хар	-6.62912
▁болох	-6.6339
▁нд	-6.66032
▁гэсэн	-6.66714
▁шүү	-6.69515
▁юу	-6.69837
үмүү	-6.6993
▁ууд	-6.70673
▁!	-6.71021
▁9	-6.71328
▁?	-6.71793
▁ы	-6.71817
▁олон	-6.72086
▁тэр	-6.73817
▁зүйл	-6.74382
▁сон	-6.74909
▁ад	-6.75459
▁...	-6.77243
▁Би	-6.77443
▁ямар	-6.77584
▁нийг	-6.78039
у	-6.79266
амг	-6.80415
т	-6.80431
▁хо	-6.80662
▁үүд	-6.81127
▁цаг	-6.81517
▁я	-6.83397
▁э	-6.84113
▁биш	-6.8473
▁3	-6.8579
▁хө	-6.87673
▁амьд	-6.8806
▁ор	-6.88507
в	-6.89888
▁5	-6.91163
▁на	-6.91233
▁ав	-6.91997
▁ид	-6.9308
▁үз	-6.93256
▁гаа	-6.9494
▁айгу	-6.95931
▁хоёр	-6.96521
▁ий	-6.9681
▁нэ	-6.9686
▁аад	-6.97345
ы	-6.97384
▁боло	-6.97431
▁гэдэг	-6.97664
▁эрх	-6.97939
▁шиг	-6.98574
▁гийн	-6.99459
▁мэдээ	-7.00348
▁бид	-7.00571
▁сайн	-7.00983
▁олсон	-7.0147
▁болон	-7.01911
▁бод	-7.02094
▁хэн	-7.03147
▁лаа	-7.03454
▁4	-7.03579
▁Тэр	-7.03589
▁ш	-7.04768
▁гээр	-7.05363
,	-7.06662
▁улс	-7.06812
▁жээ	-7.06852
▁8	-7.07363
▁в	-7.07418
▁О	-7.07488
▁Та	-7.0802
▁лага	-7.09229
▁)	-7.09992
▁гд	-7.10519
▁мэд	-7.1085
▁у	-7.11158
▁бүр	-7.11378
▁бай	-7.11693
▁(	-7.12009
▁дог	-7.12578
▁хийх	-7.12691
▁ши	-7.12738
▁ер	-7.12788
▁үнэ	-7.12824
▁са	-7.12992
▁чих	-7.14753
▁ёстой	-7.16841
▁дараа	-7.17274
▁да	-7.17646
▁но	-7.17652
▁нас	-7.17697
▁к	-7.1778
▁сөн	-7.18239
▁өмнө	-7.18261
▁бүх	-7.18443
▁га	-7.18563
▁лээ	-7.18935
▁и	-7.19235
▁6	-7.20155
▁байж	-7.2064
▁эр	-7.21102
▁чинь	-7.21683
▁илүү	-7.21814
▁ээд	-7.22477
▁айр	-7.22812
▁7	-7.22813
▁нар	-7.23017
▁ан	-7.23033
▁үед	-7.24017
▁үүл	-7.24185
▁/	-7.24192
▁болж	-7.24563
▁авах	-7.24581
▁одоо	-7.25247
▁ашиг	-7.25802
▁гч	-7.25908
▁ул	-7.26024
▁маш	-7.26066
▁	-7.27788
үүхд	-7.2793
▁алаар	-7.28274
▁ө	-7.28423
▁Ц	-7.28626
с	-7.29205
▁хан	-7.29852
▁эж	-7.29917
▁газар	-7.30068
▁Хари	-7.3013
▁шийд	-7.30259
▁энд	-7.30353
▁нэр	-7.31007
▁ал	-7.31563
▁гэр	-7.31862
▁Я	-7.31935
эмжэ	-7.31938
олбо	-7.32179
▁дал	-7.32736
▁Ө	-7.32758
▁оны	-7.3284
▁дэ	-7.33122
▁сэтгэ	-7.33175
▁гээд	-7.33195
▁хий	-7.33798
▁тухай	-7.33821
▁то	-7.34
▁шаар	-7.34347
ч	-7.34749
▁үүний	-7.35108
▁онд	-7.35501
▁болго	-7.35584
▁гэх	-7.3671
▁гарга	-7.37542
▁бас	-7.3772
▁хувьд	-7.38728
▁арга	-7.38867
▁ийм	-7.3927
м	-7.3928
▁хийж	-7.39285
▁өдөр	-7.39749
▁үйл	-7.40725
▁хү	-7.40955
▁К	-7.41379
▁су	-7.41411
▁удаа	-7.41832
▁Ш	-7.4226
▁буй	-7.42389
▁сары	-7.42406
▁үг	-7.4263
▁той	-7.42696
▁гэд	-7.42837
▁ам	-7.44511
▁Бид	-7.4463
▁авч	-7.44744
▁өгөөд	-7.45004
▁том	-7.45281
▁Тийм	-7.45422
▁лэл	-7.45702
▁лгээ	-7.45745
▁эхдээ	-7.46118
▁сайх	-7.46284
▁мжтой	-7.46323
▁нээс	-7.47297
▁ойлго	-7.47632
▁оруул	-7.48056
ө	-7.50047
▁Ү	-7.50735
▁лэ	-7.50916
▁өө	-7.51141
▁оо	-7.51636
▁баяр	-7.52724
▁минь	-7.53244
▁алт	-7.53397
▁шинэ	-7.53953
▁со	-7.53954
▁нийт	-7.54127
▁сонго	-7.5416
▁чадах	-7.5419
▁эл	-7.54428
▁тэд	-7.55064
▁анд	-7.55713
▁нэгэн	-7.5635
▁Ж	-7.56424
▁од	-7.5808
▁идний	-7.58988
▁комп	-7.59235
▁Одоо	-7.59733
▁хүний	-7.60371
▁тодо	-7.60777
▁зөв	-7.60988
▁тус	-7.61261
▁үр	-7.6165
▁чи	-7.61664
▁ир	-7.61937
▁миний	-7.62208
▁төр	-7.62451
▁лагаа	-7.6301
▁ар	-7.63212
▁дөр	-7.63302
эмээ	-7.63777
▁санал	-7.63781
▁тогло	-7.63827
▁улсын	-7.63882
▁өрийн	-7.64459
▁Ч	-7.65759
▁агаад	-7.66117
▁орон	-7.66161
▁чад	-7.66298
▁дур	-7.66923
▁эдэн	-7.67
▁гишүү	-7.67248
▁бий	-7.67282
▁гээ	-7.67397
▁ох	-7.67901
▁хүнд	-7.67944
▁яв	-7.67996
▁оног	-7.68068
▁руу	-7.68906
▁мөнгө	-7.68917
ж	-7.69207
▁өг	-7.6935
▁рч	-7.69744
▁билээ	-7.69892
▁сана	-7.69932
▁хүс	-7.69941
▁мэдэх	-7.70044
▁лхий	-7.70355
▁ард	-7.7101
▁гаар	-7.71352
ээ	-7.71689
▁өнөө	-7.71738
▁гөө	-7.71847
▁айлаа	-7.71864
▁ц	-7.73215
▁сург	-7.7327
▁бэ	-7.73437
▁лэг	-7.73443
▁ээл	-7.73544
▁эн	-7.73667
▁оор	-7.73734
▁за	-7.738
▁төлөө	-7.73929
▁лөгч	-7.74068
▁санаа	-7.74272
▁бага	-7.74733
▁аагүй	-7.74735
гац	-7.74846
чи	-7.75539
▁агч	-7.75581
▁аан	-7.75765
▁мөн	-7.75887
▁дарга	-7.76265
▁түү	-7.76368
▁доо	-7.76499
▁болов	-7.76943
▁ма	-7.77005
▁ту	-7.7706
▁тулд	-7.77366
▁өд	-7.77682
▁иргэд	-7.7773
▁эв	-7.78222
анай	-7.78229
▁айдал	-7.78395
▁Мөн	-7.79284
эрхэ	-7.7933
▁ртэл	-7.79413
▁өнгөр	-7.79517
▁үүхэд	-7.79523
амай	-7.7977
▁Миний	-7.79873
▁өвхөн	-7.80308
▁эсвэл	-7.80659
уу	-7.80677
▁ин	-7.80849
▁аанд	-7.82081
▁лж	-7.82121
▁тийм	-7.82287
▁албан	-7.83494
▁дахь	-7.844
▁урхан	-7.84696
▁таны	-7.84744
▁ү	-7.84792
▁ганц	-7.85076
▁улла	-7.85086
▁п	-7.85194
▁маань	-7.85408
айдл	-7.8579
▁Тэд	-7.85927
▁тал	-7.86332
▁ба	-7.86467
▁тү	-7.86582
▁дахин	-7.86855
▁эгээд	-7.8699
▁манай	-7.87686
▁ша	-7.87689
охио	-7.87759
▁үйлдв	-7.87777
▁дэмж	-7.88538
▁наас	-7.88572
▁Үү	-7.88594
▁ца	-7.88709
▁он	-7.89084
▁машин	-7.89367
▁ф	-7.89813
▁суу	-7.89974
▁хүү	-7.90136
▁үргэ	-7.90217
▁лийн	-7.90808
▁гэ	-7.90826
▁ирсэн	-7.9098
▁эхэл	-7.91429
▁учр	-7.91587
▁s	-7.91869
▁хамт	-7.92387
▁эмэ	-7.92779
▁мгаал	-7.9312
▁үзүүл	-7.93217
▁гэнэ	-7.93364
▁нирх	-7.93463
▁лсан	-7.93504
▁үе	-7.9353
▁жи	-7.93674
▁итгэ	-7.93692
▁ие	-7.93762
▁хууль	-7.93822
▁бус	-7.93824
▁дуу	-7.93986
▁Ерөн	-7.94736
▁өрөө	-7.95027
▁чухал	-7.95233
▁дугаа	-7.95709
▁сонс	-7.95747
▁аараа	-7.96494
▁лд	-7.96561
йм	-7.96653
▁эрлэ	-7.96693
▁бүгд	-7.9685
▁дунд	-7.97192
▁чууд	-7.97219
▁мж	-7.97376
▁анха	-7.97972
▁сар	-7.98049
▁аль	-7.98219
▁үйлч	-7.98806
▁яг	-7.99161
▁эм	-7.99307
▁хүр	-7.99502
▁өөрөө	-7.99581
▁ирэх	-7.99657
▁хувь	-7.99707
үү	-8.00244
▁чүүд	-8.00371
▁шу	-8.00435
▁оос	-8.00544
▁ханд	-8.01114
▁өндөр	-8.01331
▁ай	-8.01511
▁ном	-8.01644
▁учир	-8.01746
▁йг	-8.02056
▁хойш	-8.02076
▁ээрээ	-8.0222
▁тан	-8.02501
▁биз	-8.02672
ийсэ	-8.028
▁авсан	-8.02988
▁сайд	-8.03438
▁хэсэг	-8.03943
▁хэзээ	-8.03998
▁олох	-8.04085
▁ахад	-8.04116
▁Өнөө	-8.04278
▁хамаа	-8.04317
▁хээр	-8.04335
▁өлөв	-8.04388
▁хуга	-8.04601
▁Хэрэв	-8.04666
▁зарим	-8.04831
▁мэт	-8.05108
▁УИХ	-8.05117
▁орж	-8.05198
▁сур	-8.05476
анга	-8.05536
▁турш	-8.05552
▁П	-8.0556
▁залуу	-8.05682
▁хариу	-8.05933
▁рхой	-8.05946
▁ана	-8.06037
▁амжи	-8.06154
▁бусад	-8.06503
үргэ	-8.06545
▁уулз	-8.07462
▁оод	-8.07531
▁гарч	-8.07591
▁байв	-8.07649
▁й	-8.07955
t	-8.0841
▁өлбөр	-8.08483
▁Гэ	-8.09008
ш	-8.0928
▁ээгүй	-8.09422
▁бодож	-8.09452
й	-8.09457
▁өгөх	-8.09967
▁ож	-8.10075
▁ани	-8.101
▁үгээр	-8.10718
▁лтай	-8.10899
▁лоо	-8.11091
▁АНУ	-8.11255
▁бари	-8.11556
▁нам	-8.11633
▁гол	-8.11711
▁дуус	-8.11884
▁сүүл	-8.11906
▁хи	-8.1194
▁гоор	-8.11977
▁Өөр	-8.12161
▁надад	-8.12258
▁Чи	-8.12264
▁бүтээ	-8.12419
▁орол	-8.12573
▁_	-8.12633
▁яаж	-8.12739
▁уули	-8.13068
▁огтоо	-8.13702
▁хээ	-8.13887
▁10	-8.14092
▁оломж	-8.14188
▁Нэ	-8.14355
▁зам	-8.14363
▁эдний	-8.14376
▁нууд	-8.14489
▁эрээр	-8.14621
▁явуул	-8.15122
▁жүүл	-8.15257
эвч	-8.15556
▁сая	-8.15656
▁зураг	-8.15896
▁ёс	-8.16253
▁кино	-8.16332
▁мө	-8.16354
▁олж	-8.16482
▁шалга	-8.16493
▁ээж	-8.16832
▁чанар	-8.17427
▁олго	-8.17511
▁гайх	-8.1754
▁Түү	-8.17788
▁тавь	-8.17822
▁ухайн	-8.17854
▁анх	-8.18165
▁ойр	-8.18173
▁тул	-8.18323
▁өөс	-8.18766
▁илэ	-8.18967
▁нэмэ	-8.19359
▁айхад	-8.1962
▁арил	-8.20036
▁охоор	-8.20117
▁удир	-8.20309
▁муу	-8.20797
▁лтэй	-8.20856
▁мал	-8.20933
▁охин	-8.20955
▁Хятад	-8.20959
▁нөлөө	-8.21057
▁тээ	-8.21477
▁хэлж	-8.21534
▁Зас	-8.21936
e	-8.22073
▁отой	-8.22251
▁явж	-8.22461
▁үгүй	-8.22526
ийн	-8.22558
▁ажлын	-8.23022
▁дэхүү	-8.23054
ла	-8.23062
▁Л	-8.23069
▁лал	-8.23188
▁адил	-8.2334
▁зур	-8.23778
▁ол	-8.23807
▁асг	-8.23969
▁шалт	-8.24163
▁ье	-8.24275
өдөл	-8.24336
▁шинж	-8.24549
▁амь	-8.24566
▁магад	-8.2461
▁элхий	-8.24625
▁анги	-8.24711
тэл	-8.24793
▁алга	-8.25014
▁мэргэ	-8.25054
▁вал	-8.25316
▁рал	-8.25457
▁эгч	-8.25792
▁бү	-8.2603
▁хийл	-8.26393
▁газры	-8.26453
▁мэнд	-8.26705
v	-8.26728
▁найз	-8.2675
▁тгэ	-8.26815
▁аримт	-8.26921
▁бие	-8.27107
▁үндэс	-8.27112
▁эмдэг	-8.27141
▁е	-8.27399
▁өдр	-8.27563
▁олдог	-8.279
▁гурв	-8.2794
▁буруу	-8.27975
▁өвш	-8.28712
онгу	-8.28959
▁хэд	-8.29169
▁Ер	-8.2923
▁олоод	-8.29288
▁хув	-8.29583
▁лэх	-8.298
үүл	-8.29979
▁длыг	-8.29983
▁Ха	-8.30393
▁лсын	-8.30518
▁явах	-8.30557
▁ярь	-8.30611
▁дын	-8.30964
▁газр	-8.31155
▁дотор	-8.31238
▁өөрс	-8.31279
▁изнес	-8.31456
▁гу	-8.31607
▁анилц	-8.31628
▁уд	-8.3206
▁рөнгө	-8.321
▁хэр	-8.32128
өхцө	-8.32314
▁зо	-8.32654
▁өв	-8.32698
▁уг	-8.33136
▁Бат	-8.33258
▁өгс	-8.33262
▁мэдэ	-8.33269
▁бүрэн	-8.33791
▁судал	-8.33822
▁аюул	-8.34197
▁үл	-8.34295
▁үсгүй	-8.34312
▁эрүүл	-8.34383
▁үлээн	-8.34385
▁арай	-8.34448
▁тоо	-8.34451
элц	-8.34611
аны	-8.34892
▁ирж	-8.34895
ориу	-8.3508
▁аатар	-8.35159
цэ	-8.35172
▁В	-8.35814
▁ла	-8.36141
▁ач	-8.36181
▁;	-8.3621
▁хон	-8.36274
▁цо	-8.3631
▁хайр	-8.36382
▁олгон	-8.36531
▁эгвэл	-8.3659
охир	-8.36615
▁вэл	-8.36642
▁хэлэх	-8.36648
▁аарай	-8.367
өнх	-8.37037
▁ули	-8.37136
▁дө	-8.37171
▁асан	-8.37235
▁эний	-8.37289
▁эдийн	-8.37557
▁гоо	-8.3757
▁лэгч	-8.37682
▁асаг	-8.37696
▁харж	-8.38014
▁өгсөн	-8.38023
▁айвал	-8.38282
▁хэв	-8.38297
▁далд	-8.38362
▁үеийн	-8.38497
▁өс	-8.38824
▁үйлд	-8.38878
▁лаг	-8.39245
▁Тэгэ	-8.39307
▁Яма	-8.39448
▁охион	-8.39646
▁*	-8.39751
▁үтээг	-8.39884
▁жуул	-8.40032
▁тэмц	-8.40148
▁буюу	-8.40272
▁үлд	-8.40596
▁про	-8.40837
▁үч	-8.40899
▁хүрээ	-8.40992
▁гарах	-8.41227
▁арла	-8.41582
▁сайт	-8.41914
▁лөгөө	-8.41925
▁сн	-8.42006
▁эхэд	-8.42053
▁лан	-8.42156
▁эдээж	-8.4229
▁танд	-8.42433
▁ст	-8.42569
▁Хүн	-8.42743
▁өх	-8.43013
▁долоо	-8.4304
▁дуул	-8.43108
▁дамж	-8.43251
▁амар	-8.43565
▁гаруй	-8.4373
▁маар	-8.43777
▁орох	-8.43796
га	-8.43887
"	-8.44108
▁хоол	-8.44124
▁хот	-8.4432
▁ухаан	-8.44345
▁нутаг	-8.44593
▁Ингэ	-8.44635
▁аав	-8.44667
▁дөө	-8.44964
▁харин	-8.45213
a	-8.45647
▁дүр	-8.45667
▁бэл	-8.46065
▁зэрэг	-8.46189
▁ичээл	-8.46251
▁нхөө	-8.46323
▁үнэн	-8.4637
▁лбар	-8.46548
▁адаг	-8.46677
▁лын	-8.46901
▁оллоо	-8.47116
▁гаан	-8.47155
▁хүлээ	-8.47182
▁оч	-8.47191
▁уур	-8.47234
▁хөгж	-8.47515
▁түүх	-8.47719
▁зохи	-8.479
▁уудыг	-8.47969
▁Олон	-8.48026
▁Орос	-8.48049
o	-8.48134
▁до	-8.48511
ооро	-8.48847
▁улсад	-8.4886
▁эргэ	-8.49063
▁уль	-8.49142
▁бээр	-8.49364
▁эрэг	-8.49604
▁төв	-8.4961
▁ярилц	-8.49678
▁минут	-8.49722
▁ингэж	-8.49823
▁олжээ	-8.4996
▁даад	-8.50152
▁лэн	-8.5039
▁олбоо	-8.50455
▁мянга	-8.50483
▁ат	-8.50835
▁тга	-8.5095
▁оловч	-8.51054
▁олтой	-8.51098
▁бүү	-8.51188
▁чигл	-8.51279
е	-8.51383
▁АН	-8.51444
▁баг	-8.5147
▁йлбар	-8.51491
▁хаа	-8.51606
▁Ф	-8.51713
▁гэвэл	-8.5194
▁явдал	-8.52167
▁чадв	-8.52205
▁сол	-8.52249
▁глоом	-8.52298
▁Ма	-8.52404
▁сэрг	-8.52424
▁аасаа	-8.52456
▁дүн	-8.52493
▁айл	-8.5256
▁ме	-8.5285
▁v	-8.52851
▁аз	-8.5299
:	-8.53265
▁[	-8.53657
▁эрвээ	-8.5418
▁батал	-8.54211
▁му	-8.54303
▁шат	-8.54502
▁авна	-8.55116
▁өөд	-8.55155
▁яах	-8.55409
▁шууд	-8.55466
▁тави	-8.55525
▁үзэх	-8.55653
▁Энх	-8.55794
▁сард	-8.55849
▁өгч	-8.56044
гээд	-8.56178
▁дү	-8.56212
▁хэцүү	-8.56245
▁ярьж	-8.56302
▁сийн	-8.56329
▁гчид	-8.5643
▁члөлт	-8.56533
арим	-8.56654
▁ъя	-8.56904
▁гдсэн	-8.5718
▁хгүй	-8.57517
▁агвар	-8.58057
▁дав	-8.58108
▁өрсөн	-8.58153
▁унш	-8.58171
▁дагуу	-8.58205
▁мөр	-8.58301
▁харьц	-8.58385
▁эрч	-8.58508
▁гү	-8.58698
▁огт	-8.58717
▁эдий	-8.58743
▁авар	-8.58777
▁зах	-8.59033
▁Дараа	-8.59335
▁гэхэд	-8.59482
i	-8.59551
▁хэрг	-8.59663
▁er	-8.60104
өвлө	-8.60154
▁Уг	-8.60174
▁лгүй	-8.60227
▁саар	-8.60243
▁лийг	-8.60378
▁үүр	-8.60474
▁араах	-8.60489
▁өргө	-8.605
▁агд	-8.6056
▁нэм	-8.60585
▁лттай	-8.6062
▁]	-8.60748
▁ус	-8.60813
▁Их	-8.60881
▁хөт	-8.61262
▁хэт	-8.61501
▁Р	-8.61548
▁цу	-8.61644
▁хороо	-8.62142
алда	-8.62273
▁Үнэ	-8.62378
▁анхны	-8.62545
▁зүйлс	-8.62565
▁оно	-8.62726
▁ээсээ	-8.62824
▁үлээж	-8.62879
▁мжгүй	-8.62929
▁зохио	-8.631
▁#	-8.63238
▁гэв	-8.63263
▁Ху	-8.63358
▁мерик	-8.63474
▁нээ	-8.63526
▁идэнд	-8.63624
Би	-8.63684
▁сү	-8.63802
d	-8.63875
▁мо	-8.64003
▁төө	-8.642
▁зори	-8.64274
▁үртг	-8.64398
▁рах	-8.64409
▁айжээ	-8.64499
▁гаад	-8.64606
▁алда	-8.64614
утги	-8.64622
▁ни	-8.64743
▁багш	-8.64774
▁аавал	-8.65057
▁эсрэг	-8.65115
▁Бүх	-8.65128
▁алын	-8.65195
чир	-8.65197
▁цааш	-8.65254
▁ур	-8.6529
▁гасан	-8.65518
▁гдсан	-8.65723
▁утл	-8.65817
▁рагд	-8.65863
▁нөх	-8.66011
▁отын	-8.6649
▁ахир	-8.66793
▁ярих	-8.66877
▁лгой	-8.6698
▁унт	-8.67054
▁ко	-8.67177
▁зов	-8.67248
▁эхл	-8.67625
▁үзэж	-8.67746
▁хөл	-8.67997
▁ой	-8.68112
▁ил	-8.68133
▁ажилд	-8.68147
гээр	-8.68177
▁увийн	-8.68214
▁алд	-8.68328
▁тогт	-8.68461
▁элтгэ	-8.68478
▁бүхэн	-8.68532
исте	-8.68888
▁авто	-8.69133
▁чөлөө	-8.69167
ф	-8.69267
▁лах	-8.69357
ргүү	-8.69581
▁этгэ	-8.69651
▁уулж	-8.69669
▁эмч	-8.69671
▁лдолд	-8.69908
▁дага	-8.69966
▁снээр	-8.70094
▁үх	-8.70215
▁рүү	-8.70272
▁руул	-8.70514
▁ял	-8.70605
▁ая	-8.70686
▁орны	-8.70876
▁эс	-8.7093
▁ран	-8.70974
▁ульд	-8.7117
▁өрөл	-8.7121
▁өр	-8.71478
▁хүчин	-8.71518
▁дээрх	-8.71682
▁уна	-8.7178
▁Үүн	-8.71906
▁ээрэй	-8.71912
▁ахаар	-8.71998
өө	-8.72036
▁олчих	-8.72091
уур	-8.72179
▁шүүх	-8.72183
▁дар	-8.72293
▁өгрөг	-8.72305
▁За	-8.72428
▁те	-8.7265
▁дөг	-8.73248
▁Шинэ	-8.733
▁чээ	-8.73389
▁инээ	-8.73408
▁20	-8.7346
▁харах	-8.73509
▁луул	-8.7353
▁дээд	-8.73668
▁нг	-8.73721
▁орчин	-8.73753
▁рдэнэ	-8.738
▁шгүй	-8.73877
▁лс	-8.74305
▁бараг	-8.74306
▁ну	-8.74536
▁ли	-8.74676
▁үмэн	-8.74757
▁лого	-8.75093
▁үрх	-8.75371
▁тань	-8.75468
▁лдэг	-8.75655
▁ргалт	-8.75794
▁МАН	-8.75854
пон	-8.75925
▁элэн	-8.76002
▁Европ	-8.76115
▁игч	-8.76138
▁төнц	-8.76173
лүү	-8.76256
▁урдан	-8.76463
▁зогс	-8.76521
▁рай	-8.76631
▁ста	-8.76756
▁лгэ	-8.76807
▁гадна	-8.7682
▁эсэх	-8.76826
▁Хо	-8.76863
усга	-8.77053
▁уудас	-8.77106
▁орсон	-8.77238
▁цэр	-8.77553
▁Улс	-8.77555
▁охир	-8.77595
▁йртай	-8.7831
▁лө	-8.78353
эхүү	-8.78547
▁бич	-8.78594
▁амын	-8.78629
▁цагт	-8.78634
▁аймг	-8.78758
▁архи	-8.78792
▁нэвт	-8.79011
▁уучин	-8.7906
▁тав	-8.79067
лө	-8.79185
▁дор	-8.79273
▁хичээ	-8.79304
▁нө	-8.79535
▁чадна	-8.7968
▁иргэн	-8.79726
▁ич	-8.7978
s	-8.7993
▁оноос	-8.79938
▁лэж	-8.80008
▁ос	-8.80082
▁·	-8.80133
▁арч	-8.80175
▁дэх	-8.80364
▁чин	-8.80604
▁яриа	-8.80619
▁улга	-8.8063
▁бүхий	-8.80698
▁дүү	-8.80786
▁Са	-8.80832
▁грам	-8.80854
▁өж	-8.80876
ны	-8.80878
лэ	-8.80907
▁угаа	-8.8105
▁алтай	-8.82164
▁рсан	-8.82287
▁эй	-8.82404
▁ичиг	-8.82419
▁өхө	-8.82572
▁ирээд	-8.82612
▁амайг	-8.82845
▁үүрэг	-8.82872
▁логи	-8.82922
▁вол	-8.82925
▁кс	-8.83189
▁нөхөр	-8.83205
▁гөөн	-8.83209
▁хаана	-8.83213
▁дрийн	-8.83218
▁элбэр	-8.83283
▁тат	-8.83305
▁эхний	-8.83465
▁мээр	-8.83538
▁гай	-8.83767
▁элт	-8.83841
▁үрүү	-8.83905
▁ралд	-8.83916
▁лтой	-8.83998
▁сныг	-8.84002
▁ушаал	-8.84196
он	-8.84314
▁аваад	-8.84322
▁улам	-8.84415
▁хор	-8.84418
▁хад	-8.84472
руул	-8.84608
▁эмнэ	-8.84824
▁хэвлэ	-8.84844
арга	-8.85056
▁анк	-8.85075
▁яри	-8.85161
▁гуй	-8.85166
▁жа	-8.85174
▁рийн	-8.85311
▁утас	-8.85338
▁дэвш	-8.85453
▁ас	-8.85518
уулг	-8.85668
ус	-8.8585
▁мент	-8.86273
▁онгос	-8.8629
олц	-8.86301
▁нис	-8.86484
▁янз	-8.86514
▁гоё	-8.86516
▁тэн	-8.86782
▁нарын	-8.868
▁рхойл	-8.86805
▁цэвэр	-8.86897
▁гэрээ	-8.86981
▁Ард	-8.87014
▁ихэнх	-8.87057
▁дут	-8.8706
▁зайл	-8.87152
▁жижиг	-8.87533
▁рой	-8.87618
▁итгий	-8.87862
▁лүүл	-8.87863
▁эрт	-8.87887
▁спорт	-8.87917
▁Да	-8.88201
▁оронд	-8.8825
▁өсл	-8.88342
y	-8.8838
▁ллийг	-8.88501
▁рдаг	-8.88592
▁март	-8.88639
▁жагс	-8.88695
▁орхи	-8.88703
▁гал	-8.88763
▁йр	-8.88916
▁бүл	-8.89288
▁бодит	-8.89438
үссэ	-8.89461
▁найд	-8.89509
▁'	-8.89606
▁Хэн	-8.89615
▁агүй	-8.89665
▁ндээ	-8.89846
▁ичсэн	-8.90194
▁нууц	-8.90234
▁урт	-8.90247
▁аяг	-8.90273
ав	-8.90433
▁тун	-8.90434
▁ааны	-8.90464
▁Хоё	-8.90606
эсг	-8.90643
▁vv	-8.90766
▁ажлыг	-8.90872
▁чихс	-8.91059
▁атвар	-8.91116
▁улаан	-8.91157
▁йрла	-8.91292
▁нөгөө	-8.91364
▁Гэр	-8.91625
▁цагд	-8.91705
▁ээв	-8.91819
▁суур	-8.91888
▁өнгө	-8.92155
▁ги	-8.92226
▁анг	-8.92313
▁•	-8.92452
▁алдаа	-8.92773
▁сээр	-8.93122
▁тэнд	-8.93223
▁эгүй	-8.93431
▁вч	-8.93528
▁оюу	-8.9354
хү	-8.93705
▁сны	-8.93779
▁ду	-8.93893
▁ь	-8.93906
▁хува	-8.93911
▁тээл	-8.94013
▁бу	-8.94038
▁өрвө	-8.94063
▁ллийн	-8.94097
▁зарла	-8.9427
▁отоод	-8.94352
▁урьд	-8.94358
▁эз	-8.9481
▁хүсч	-8.94919
▁мс	-8.9498
▁гдэл	-8.95026
▁хая	-8.95038
▁йгээд	-8.95085
▁зүйн	-8.95161
▁өгнө	-8.95177
атла	-8.95287
▁дорж	-8.953
сгэ	-8.9542
▁рилго	-8.95454
▁уран	-8.95455
▁илцаа	-8.95455
▁үс	-8.95651
▁нийл	-8.95684
▁ик	-8.95694
▁лдвар	-8.95732
▁алаг	-8.9588
▁оогүй	-8.95957
▁түүнд	-8.95958
▁али	-8.96265
▁үндс	-8.96332
▁Өнгө	-8.96428
▁Бас	-8.96436
▁үеэр	-8.96566
▁айхыг	-8.96781
▁аасан	-8.96817
▁сум	-8.96925
▁явдаг	-8.96927
▁дээш	-8.96997
▁өглөө	-8.97036
▁ажлаа	-8.97281
▁лиг	-8.97297
▁го	-8.97301
▁явц	-8.97425
▁сийг	-8.97436
▁урхай	-8.97485
▁тооц	-8.97533
▁ичлэг	-8.97554
▁нүүр	-8.97559
аа	-8.97599
▁огсоо	-8.97699
▁увцас	-8.97766
▁андаа	-8.97804
▁нү	-8.97878
▁нхэнэ	-8.98335
▁хэ	-8.98357
▁намын	-8.98502
▁Яг	-8.98688
▁авдаг	-8.98848
▁өвд	-8.98972
▁гдаж	-8.99151
▁гэлээ	-8.99163
▁удаан	-8.9979
▁эхнэр	-8.99852
▁хяна	-8.99919
▁зуун	-9.00032
▁алба	-9.00047
▁алх	-9.0009
▁30	-9.00105
▁зу	-9.00127
▁хөө	-9.00139
▁эц	-9.00234
▁сонин	-9.00257
▁всрол	-9.00279
▁өрөмж	-9.00282
▁даж	-9.00463
▁зай	-9.00471
▁цг	-9.00522
▁ахыг	-9.00664
▁үй	-9.007
▁аалт	-9.00775
▁S	-9.00853
▁эг	-9.00888
▁өмнөх	-9.0089
▁B	-9.0091
▁лав	-9.00938
▁дгал	-9.01
▁гурав	-9.01082
▁сайж	-9.01181
▁жишээ	-9.01305
▁мэднэ	-9.0132
▁тө	-9.01641
▁гт	-9.01723
▁лаас	-9.01765
ан	-9.02001
▁өмс	-9.0203
▁гааны	-9.02107
▁олд	-9.02177
▁Хар	-9.02234
▁хяз	-9.02337
▁нэрлэ	-9.02354
▁арилц	-9.02354
▁нтэй	-9.02361
▁гдох	-9.02363
▁mn	-9.02413
▁ынхаа	-9.02417
▁эхгүй	-9.02547
▁дүүр	-9.02599
▁анийн	-9.02627
n	-9.02715
▁се	-9.02731
▁техн	-9.02786
▁орчим	-9.02816
▁цугл	-9.0287
▁100	-9.02968
▁жлийн	-9.03014
▁суурь	-9.03088
▁агдах	-9.03096
▁энгэр	-9.03157
▁члөг	-9.03276
▁төсөл	-9.03305
▁шил	-9.03368
▁бар	-9.03399
өгжи	-9.03458
▁сэтг	-9.03558
▁үд	-9.03761
▁нүүд	-9.03853
▁эгж	-9.03854
▁Сол	-9.03885
▁мийн	-9.04335
▁бодох	-9.04346
▁урал	-9.04406
▁бүс	-9.04433
▁ралц	-9.04666
▁аяа	-9.04669
▁бусд	-9.04679
▁сс	-9.0472
▁тэм	-9.04764
▁аш	-9.04786
▁мат	-9.04798
▁Юу	-9.04831
▁утга	-9.04872
▁агуу	-9.04894
▁таныг	-9.04992
▁албай	-9.05
▁яла	-9.05094
▁наад	-9.05359
▁жур	-9.05447
▁элгэр	-9.05686
▁дэв	-9.05692
▁хийнэ	-9.05894
эн	-9.05948
▁жилд	-9.05989
▁эцэг	-9.0603
зэмш	-9.06128
▁үүс	-9.06163
▁айнга	-9.06202
сэ	-9.06235
члэ	-9.06435
▁ов	-9.06468
▁соёл	-9.0651
▁лээр	-9.06512
▁арва	-9.06639
▁өм	-9.06748
▁ргааш	-9.06755
▁ьсгал	-9.06813
▁улаг	-9.06859
▁оли	-9.06875
▁12	-9.07046
▁барьж	-9.07077
▁судла	-9.07124
▁ээлий	-9.07204
▁дсэн	-9.07224
▁мын	-9.07289
▁лыг	-9.07311
▁захи	-9.07336
▁өвч	-9.07587
▁дад	-9.07611
▁айлга	-9.07714
▁лгалт	-9.0775
Та	-9.08008
мэг	-9.08152
▁тод	-9.08629
▁Нүүр	-9.08639
▁лаж	-9.0874
▁орно	-9.08801
▁хүрэх	-9.08872
▁улалт	-9.09277
▁урга	-9.093
▁чиний	-9.09304
▁рш	-9.09305
▁A	-9.09385
▁очиж	-9.09423
үли	-9.09429
▁ргал	-9.09523
▁огүй	-9.09542
▁улийн	-9.09584
нб	-9.10235
▁нээлт	-9.10294
▁ялгаа	-9.10793
▁Баяр	-9.10835
▁сууж	-9.10843
▁бат	-9.11021
▁Сайн	-9.11029
▁өмбө	-9.11206
▁ээдүй	-9.1151
▁үмүүс	-9.11663
▁үгийн	-9.11748
▁рт	-9.11762
▁Га	-9.11917
▁жин	-9.11966
▁аруун	-9.12317
▁ураг	-9.12528
▁лалаа	-9.12575
▁ааж	-9.12583
▁лтын	-9.12609
▁ахгүй	-9.12678
▁гэрэл	-9.1282
▁гдэж	-9.12926
▁чамд	-9.13012
▁лбарт	-9.13108
▁Энд	-9.13193
▁бүлэг	-9.13317
▁>	-9.13473
▁өөсөө	-9.13525
▁улгай	-9.13688
▁эрхүү	-9.13845
▁нэгүй	-9.13954
ль	-9.14158
▁өч	-9.14346
▁үнг	-9.14492
▁хыг	-9.14493
▁цлага	-9.14504
▁шагна	-9.14556
▁ка	-9.14634
▁усгай	-9.14731
▁ноос	-9.14779
▁ргө	-9.14844
▁лол	-9.1499
▁Е	-9.15154
▁ижил	-9.1526
элгэ	-9.15271
▁рна	-9.15327
▁энгүй	-9.15415
▁Хүний	-9.15511
▁гдах	-9.15651
▁лгын	-9.15656
▁лдол	-9.15781
▁хол	-9.15784
▁нөөц	-9.15824
▁амра	-9.15919
▁найм	-9.1592
▁I	-9.15987
▁a	-9.16004
▁өгдөг	-9.1601
▁11	-9.16015
▁хийг	-9.16086
▁хүрч	-9.16285
▁мар	-9.16348
▁ажээ	-9.16366
▁лга	-9.16477
▁таван	-9.16524
▁барих	-9.16613
▁тнууд	-9.16678
▁эсгэ	-9.1681
▁эрбум	-9.16846
▁энги	-9.1705
▁яваа	-9.17123
▁хаар	-9.17164
▁гаас	-9.17318
алга	-9.17449
▁ооцоо	-9.17458
▁нги	-9.17568
▁ск	-9.17631
▁хнийг	-9.17797
▁багт	-9.17856
▁хай	-9.17918
▁үүлэг	-9.17987
▁ня	-9.18268
з	-9.18342
▁риу	-9.18384
▁хураа	-9.18413
▁ийгэм	-9.18585
▁уулга	-9.18698
▁төрөл	-9.18722
▁дууг	-9.18777
▁хаан	-9.18845
▁цө	-9.18939
▁ериал	-9.19278
▁мэдр	-9.19303
▁уулах	-9.19354
▁шуул	-9.19375
▁C	-9.19499
▁дууд	-9.19605
▁аян	-9.19633
▁гэжээ	-9.19697
▁угаар	-9.19846
▁Хө	-9.20275
▁авр	-9.20294
▁рэг	-9.20306
▁лөө	-9.20334
▁бэрх	-9.20374
▁оролд	-9.20376
▁нуу	-9.20377
▁гжүүл	-9.20467
▁хоо	-9.2059
▁бичих	-9.206
▁арамс	-9.20613
▁онгоц	-9.20695
▁олцоо	-9.20727
▁15	-9.2074
▁араа	-9.20782
▁өрсө	-9.2085
▁лох	-9.20988
▁элж	-9.21008
▁тхэг	-9.21055
▁Жиш	-9.21082
▁жо	-9.21095
ү	-9.21104
▁арт	-9.21134
▁юмаа	-9.21151
▁рж	-9.21237
▁алуус	-9.21337
▁гараг	-9.21461
▁мтран	-9.215
▁услах	-9.21539
▁зар	-9.21583
▁найр	-9.21724
▁ндаа	-9.21732
▁лагын	-9.21793
▁явна	-9.21802
▁өргөн	-9.21874
▁гэмт	-9.21875
▁яа	-9.21877
▁үедээ	-9.21918
▁сэл	-9.22128
▁ган	-9.22278
▁бүрт	-9.22299
▁хатуу	-9.22317
▁боль	-9.22357
▁Нада	-9.22392
▁Амьд	-9.22433
ай	-9.22449
▁үүнд	-9.22505
ын	-9.22542
▁эргэн	-9.22585
▁хын	-9.22647
▁нцгой	-9.22767
m	-9.22788
этгэ	-9.22792
▁буца	-9.22817
▁лжи	-9.22878
▁өн	-9.22915
!	-9.22998
▁аниуд	-9.23002
▁яам	-9.23049
▁өнх	-9.23155
▁гдсон	-9.23541
▁ллы	-9.2359
▁маа	-9.24
эвх	-9.24002
▁уудад	-9.24095
лүүл	-9.2415
▁төл	-9.24196
▁уух	-9.24207
▁талы	-9.24382
▁сурт	-9.24538
▁хил	-9.24546
▁хотод	-9.24791
▁жир	-9.24804
▁цгаа	-9.24999
сл	-9.25001
▁худал	-9.25256
▁эе	-9.25285
▁ууж	-9.25309
▁таа	-9.25311
▁тос	-9.25311
зо	-9.25364
▁мжийг	-9.2537
▁цахим	-9.25396
▁D	-9.25423
▁огч	-9.25506
▁лгүүр	-9.25566
арц	-9.25574
▁ачаа	-9.25578
▁тэнэг	-9.256
▁илбар	-9.25631
▁ээрэм	-9.25632
▁энтэй	-9.25637
▁тусла	-9.25882
▁үчтэй	-9.25914
▁асгал	-9.25986
▁Ши	-9.26187
▁үзэл	-9.26493
▁Цаг	-9.26767
▁бя	-9.26847
авха	-9.26872
▁эдэнд	-9.27043
▁жаа	-9.27093
▁гэм	-9.27093
▁хүч	-9.27128
▁мах	-9.27197
▁Бусад	-9.27234
▁нчлэн	-9.27267
▁ахын	-9.27318
▁рын	-9.27377
▁сууц	-9.27497
▁эрчим	-9.27645
▁ндарт	-9.27647
▁уруу	-9.27778
▁ахиа	-9.27879
▁одол	-9.27891
▁лбал	-9.28027
▁ялбар	-9.28494
▁нлайн	-9.28564
▁нөөс	-9.28624
▁үтэн	-9.28659
▁өрөх	-9.28701
▁Жи	-9.28777
▁рга	-9.28857
▁ерман	-9.28875
лы	-9.28875
▁чиг	-9.28959
▁үсэлт	-9.29069
▁Мо	-9.29092
▁татаж	-9.29358
▁үүдэд	-9.29411
l	-9.29419
▁аач	-9.29429
▁эхлэх	-9.29455
рнуу	-9.29496
▁Эх	-9.29808
▁ри	-9.299
▁ашигт	-9.29908
▁зан	-9.29921
▁аран	-9.30011
▁олой	-9.30047
▁нгуяа	-9.30131
▁амир	-9.30139
▁үхэнд	-9.30144
▁on	-9.30201
▁Ээж	-9.30261
▁%	-9.30331
▁вар	-9.30371
▁рэх	-9.30534
▁бичиж	-9.30535
▁үрээс	-9.30563
▁риулт	-9.30874
▁ийнх	-9.30917
▁оноо	-9.30995
▁тор	-9.31059
▁хим	-9.31092
▁бараа	-9.31141
▁Ту	-9.31159
▁лтыг	-9.31192
▁ё	-9.31224
▁Ав	-9.31251
▁эрсд	-9.31358
▁вирус	-9.31416
▁лч	-9.31467
▁очих	-9.31536
▁оё	-9.31552
▁чим	-9.3156
▁урам	-9.31634
▁рхайн	-9.31787
▁төдий	-9.31813
▁сламж	-9.31834
▁заа	-9.31856
▁улма	-9.31948
▁сэ	-9.31987
▁гүүр	-9.32048
▁рхэг	-9.32167
▁эдлэг	-9.322
▁энх	-9.32258
▁рь	-9.32562
▁инээр	-9.32609
▁мэл	-9.32611
▁цээ	-9.32829
▁анга	-9.3288
▁эрлэх	-9.32925
▁лагыг	-9.32939
▁өгөө	-9.32984
▁олоо	-9.33043
олла	-9.33115
▁айз	-9.3319
▁лэдэг	-9.33221
▁аг	-9.33304
▁ухаа	-9.33463
▁өвлө	-9.33528
▁ург	-9.33933
▁дийн	-9.33942
▁бэлэг	-9.33973
▁Хэрэг	-9.34233
▁товч	-9.34247
▁уйл	-9.34321
▁йгаль	-9.34334
▁ле	-9.34398
▁сав	-9.344
▁агаар	-9.34628
ом	-9.34641
▁анайд	-9.34643
иад	-9.34706
▁зүү	-9.34714
▁стр	-9.3475
▁дай	-9.34798
▁маяг	-9.34847
▁тгалз	-9.34949
▁рист	-9.35019
▁үнэл	-9.35078
▁үрд	-9.35092
▁шү	-9.35405
б	-9.35505
▁устга	-9.35574
▁бал	-9.356
▁яваад	-9.35639
▁шаш	-9.35813
▁хурд	-9.35818
эрг	-9.35933
▁алдар	-9.35946
▁снаар	-9.35948
▁ив	-9.35963
▁утг	-9.36085
▁уучл	-9.36129
▁элээд	-9.36193
▁Үндс	-9.36296
▁эмэлт	-9.36341
▁үнд	-9.36357
▁таар	-9.36436
p	-9.36499
▁тэнц	-9.36526
▁алтын	-9.36567
▁яналт	-9.36609
▁эцэс	-9.3674
▁агдаж	-9.36747
▁айгал	-9.36925
)	-9.37051
▁ээлж	-9.37083
▁лтгүй	-9.37092
▁хний	-9.37182
▁Баг	-9.37185
▁ОХУ	-9.37238
▁үүлэх	-9.37597
▁үхэл	-9.37806
▁гц	-9.37811
▁мний	-9.37827
▁сүлж	-9.37885
ндэс	-9.3808
▁үгийг	-9.38126
▁улан	-9.38307
▁яриад	-9.38487
▁оёрд	-9.3851
▁эээ	-9.38568
▁ухам	-9.38649
йдлы	-9.38705
▁хүсэл	-9.38725
▁дах	-9.38738
▁төс	-9.38793
▁гдл	-9.3889
▁алаа	-9.39078
▁зүтгэ	-9.39174
▁амаг	-9.39175
▁бна	-9.39215
▁лчууд	-9.39257
▁рэмж	-9.39263
▁эгд	-9.39358
▁ажл	-9.39546
▁Англи	-9.39687
▁ьютер	-9.39688
▁дрийг	-9.39691
▁тугай	-9.39697
▁MN	-9.39748
▁аах	-9.39769
▁давуу	-9.3978
▁лтийн	-9.39819
▁видео	-9.40011
▁рвалж	-9.40031
▁жаах	-9.40052
▁ваалц	-9.4012
▁ирдэг	-9.4034
▁өсөв	-9.40341
▁тэг	-9.40475
▁өрүүл	-9.40667
▁Гар	-9.40694
▁уй	-9.40742
▁бүтэ	-9.40811
▁яар	-9.40934
▁логын	-9.40999
▁ариу	-9.41084
▁Нийт	-9.411
▁хаагч	-9.41103
▁Гэсэ	-9.41192
▁зарна	-9.41217
▁Со	-9.41319
▁йнхүү	-9.41428
▁P	-9.41475
▁суух	-9.41708
▁асал	-9.4174
▁унших	-9.4181
▁аял	-9.41811
▁ви	-9.41856
▁Хүрэл	-9.41868
өгөө	-9.4194
▁Мага	-9.41989
▁нэтэй	-9.41998
▁үлдээ	-9.42017
▁нцлог	-9.42037
▁нарт	-9.42097
▁инте	-9.42139
▁дөл	-9.42242
орлу	-9.42245
▁илр	-9.42261
▁өмөр	-9.42281
▁илгэ	-9.4229
▁лбэ	-9.42355
▁Су	-9.42371
▁цалин	-9.42421
▁члөх	-9.42474
▁уудын	-9.4251
▁нгийн	-9.42552
▁нж	-9.42606
▁явд	-9.42609
▁чир	-9.42621
▁лог	-9.42651
▁|	-9.42752
к	-9.42825
▁туул	-9.42851
гүүл	-9.42856
▁үүгээ	-9.42962
▁ирнэ	-9.42991
▁яваг	-9.43107
▁лөн	-9.4319
▁50	-9.4326
▁тавих	-9.43466
▁гнэлт	-9.43534
▁улир	-9.43764
▁орт	-9.43767
▁үүн	-9.43788
▁итгэл	-9.4379
▁ехник	-9.43871
▁лц	-9.43933
▁хайж	-9.4406
▁гарын	-9.44078
▁талд	-9.44182
▁чнээн	-9.44214
▁нз	-9.44223
▁огино	-9.44321
▁Есүс	-9.4466
▁оохон	-9.44786
▁арах	-9.44885
▁зэв	-9.44931
▁снаас	-9.44944
▁амхи	-9.45011
▁Оюу	-9.45049
да	-9.45061
▁ахуйн	-9.4508
▁олгой	-9.45112
▁эмчи	-9.45165
▁мтлаг	-9.45229
▁араг	-9.45285
▁өөн	-9.45348
▁алгүй	-9.45378
▁эндээ	-9.45525
▁өмч	-9.45666
эгж	-9.45853
▁Ний	-9.45866
▁Ажил	-9.45916
▁лөх	-9.45948
▁аван	-9.45978
▁эсэр	-9.46094
▁рх	-9.46094
▁шоро	-9.46109
▁урва	-9.46201
▁урлаг	-9.46233
▁сал	-9.46276
▁сүх	-9.46277
▁ун	-9.46315
▁мтдаа	-9.46375
▁муж	-9.46377
▁рита	-9.46498
▁зөрч	-9.46534
▁амиа	-9.46545
▁барь	-9.4657
▁наа	-9.46574
▁Бүгд	-9.46606
▁ажиг	-9.46614
▁нцло	-9.46661
▁огц	-9.46732
▁ортой	-9.46791
▁ороод	-9.46798
b	-9.46852
▁ен	-9.46859
▁лгуур	-9.46867
▁ро	-9.46969
▁цэг	-9.47029
▁гчд	-9.47034
▁эрэгт	-9.4713
▁лон	-9.47139
▁i	-9.47181
▁шөнө	-9.4719
▁оороо	-9.47206
▁роо	-9.47206
▁дот	-9.47256
c	-9.47338
▁ws	-9.47421
▁орд	-9.47446
▁ист	-9.47507
▁идэх	-9.47574
▁арьс	-9.47581
▁лээд	-9.47702
▁өөгүй	-9.47796
▁айван	-9.47806
▁нохой	-9.47885
▁болд	-9.47971
▁блог	-9.48011
▁хүчи	-9.48073
▁цээн	-9.48074
▁Мэдээ	-9.48127
▁юуг	-9.48144
▁ди	-9.48237
▁адаас	-9.48263
▁14	-9.48271
▁рлого	-9.48384
▁аалга	-9.48415
▁элийн	-9.48502
▁царай	-9.48831
▁үүх	-9.48882
▁анаас	-9.489
▁дыг	-9.48931
▁нарыг	-9.48992
k	-9.48994
▁охид	-9.49049
▁удал	-9.49072
▁хамр	-9.49133
ууль	-9.49135
онго	-9.49167
▁це	-9.49184
u	-9.49213
▁ургүй	-9.4931
▁бодис	-9.49323
▁цэцэ	-9.49427
▁яахав	-9.49454
▁данс	-9.49459
▁хүсэж	-9.49553
▁нгэ	-9.49638
▁тоног	-9.49657
▁эмээ	-9.49772
▁алуун	-9.4987
▁удлаа	-9.49887
▁бөх	-9.49888
g	-9.49892
▁өрч	-9.49945
▁йд	-9.50013
▁ргаа	-9.50116
▁тохи	-9.50189
▁ламж	-9.50252
▁амла	-9.50253
▁мог	-9.50295
▁улуун	-9.50295
▁унд	-9.50572
▁иеийн	-9.50625
▁тнүүд	-9.50734
▁Франц	-9.50737
▁арк	-9.50759
▁рөө	-9.50839
▁Па	-9.50879
▁Бо	-9.51002
▁нүд	-9.51064
▁Эрүү	-9.51242
▁одо	-9.5126
▁цэцэг	-9.51269
▁хэнд	-9.51327
удс	-9.51362
▁хуур	-9.51559
▁там	-9.51825
▁Өмнөх	-9.51854
▁цөөн	-9.51999
▁лда	-9.52021
▁аялал	-9.5205
▁алдс	-9.52125
▁аймаг	-9.52233
▁мд	-9.52342
▁улаа	-9.52396
▁вьцаа	-9.52434
▁Ганц	-9.52438
▁орос	-9.52499
▁шуу	-9.52573
▁ань	-9.52671
▁Ажлын	-9.5268
▁x	-9.52701
▁Нам	-9.5292
▁шаа	-9.53056
▁ргэн	-9.53142
▁хятад	-9.53171
▁оол	-9.53205
▁дурс	-9.53221
▁оршин	-9.53292
▁бос	-9.53392
▁члал	-9.53397
▁цахи	-9.53406
▁шүүмж	-9.53555
▁алтад	-9.53562
▁вэб	-9.53586
▁угуй	-9.53677
▁гддаг	-9.53684
▁далай	-9.53766
▁оллар	-9.53804
▁длаар	-9.53876
▁M	-9.53882
▁F	-9.53909
▁алхам	-9.53958
▁вөл	-9.54006
▁Эсвэл	-9.54039
▁осго	-9.5404
▁чла	-9.54077
ргэд	-9.54288
▁гө	-9.54299
▁вор	-9.54373
▁тний	-9.54412
▁бо	-9.54452
▁нгис	-9.5489
гө	-9.5498
▁шир	-9.55046
▁ль	-9.5508
▁эрг	-9.551
▁рахад	-9.55172
▁кл	-9.55183
▁она	-9.55219
▁Өмнө	-9.55235
▁сэдэв	-9.55309
эгдэ	-9.5543
▁лөг	-9.55486
▁лаад	-9.55511
▁ion	-9.55548
я	-9.56013
▁санд	-9.56066
▁мод	-9.56145
▁йх	-9.56334
▁ёсоор	-9.56432
▁йм	-9.56489
▁сгэ	-9.56569
▁гэний	-9.56631
▁йл	-9.56687
▁ригл	-9.56709
▁фе	-9.56713
▁Сү	-9.56772
▁ами	-9.56805
▁айнаа	-9.56872
▁дон	-9.57012
▁Оро	-9.57054
▁алж	-9.57057
▁аяхан	-9.57073
▁хагас	-9.57148
▁мп	-9.57187
▁ирлээ	-9.57202
▁мба	-9.57249
▁сул	-9.57249
▁рьд	-9.57315
▁ргийг	-9.5733
▁гах	-9.57346
▁вшинд	-9.57362
▁рил	-9.57493
▁ахдаа	-9.57504
▁амж	-9.57716
▁рчим	-9.5774
▁энгэ	-9.57769
▁эгш	-9.57771
▁нжлэх	-9.57844
▁гши	-9.5797
▁ялга	-9.57999
▁үжиг	-9.58072
▁рик	-9.58122
▁ази	-9.58239
▁асар	-9.58254
▁олбор	-9.58433
▁гджээ	-9.58492
▁дүнд	-9.58622
▁ориул	-9.58653
▁нүү	-9.58809
ер	-9.58967
▁сэр	-9.59019
▁арсан	-9.59033
▁өдөрт	-9.5909
үгээ	-9.59217
акци	-9.59247
▁улиар	-9.59327
▁уншиж	-9.59425
▁чулуу	-9.59539
▁урд	-9.59552
▁лны	-9.59673
▁галан	-9.597
▁эк	-9.5973
▁T	-9.59845
▁ндаж	-9.59943
▁алсан	-9.59982
▁G	-9.60035
▁40	-9.60095
▁бүрд	-9.60116
▁эмж	-9.60168
h	-9.6018
▁оц	-9.60269
▁Өдөр	-9.60463
▁илан	-9.60685
▁өсөөл	-9.60757
▁рсгал	-9.60862
▁аваа	-9.60884
▁лагд	-9.60921
▁ноо	-9.6094
▁илж	-9.60972
▁дэд	-9.61068
▁бэлд	-9.61083
▁дайн	-9.61138
▁рк	-9.6116
▁төн	-9.61286
▁эргэл	-9.61316
▁ндоо	-9.61339
▁нхүү	-9.61441
▁өвчин	-9.61473
▁гавар	-9.61536
▁Ка	-9.61558
▁хүүхэ	-9.61574
▁нсний	-9.61681
▁инд	-9.61767
▁Ган	-9.62026
▁агш	-9.62069
▁эрдэм	-9.62102
▁үүлж	-9.62136
▁дас	-9.6222
▁адаад	-9.62228
▁вөр	-9.6227
▁агийн	-9.6228
▁амаар	-9.62311
▁рио	-9.62571
▁охио	-9.62622
▁үрэл	-9.62909
▁онц	-9.62999
ь	-9.63133
▁лөл	-9.63215
эгдү	-9.63257
нуу	-9.63258
▁даяар	-9.6329
▁ing	-9.63317
ли	-9.63449
▁лам	-9.63452
▁айшин	-9.63582
▁нх	-9.6363
▁уулан	-9.63739
▁Өмнөд	-9.63751
хэнх	-9.63838
▁эргэж	-9.63982
▁ашаа	-9.64056
x	-9.64156
▁ва	-9.64252
▁элний	-9.64256
▁ынхан	-9.6426
▁дгала	-9.64297
▁рлаа	-9.64318
▁эзэн	-9.64329
▁ве	-9.64363
▁хөдөө	-9.64444
▁нот	-9.64446
▁E	-9.64497
▁буцаа	-9.64603
▁нийн	-9.64605
▁мол	-9.64686
▁воо	-9.64732
w	-9.64743
▁эхэлж	-9.64783
▁цох	-9.64796
▁томил	-9.64814
▁үйтэй	-9.64832
▁рдын	-9.6503
▁тон	-9.65113
оло	-9.65132
▁ардал	-9.65148
▁дүрэм	-9.65221
▁тэл	-9.65232
▁нгах	-9.6525
▁левиз	-9.65359
▁усдад	-9.65362
▁дний	-9.65459
▁ээч	-9.6551
▁ре	-9.65545
▁аашаа	-9.65656
▁эвийн	-9.65679
▁нөө	-9.65786
жүүл	-9.65858
▁эгээр	-9.65892
▁нуул	-9.65925
▁өрнө	-9.65935
▁лсэн	-9.65993
▁ъё	-9.66059
▁аахан	-9.66078
өрдө	-9.6612
▁оош	-9.66192
▁Мөнгө	-9.66286
▁ход	-9.66354
▁вх	-9.66431
▁эгт	-9.66456
▁эглэ	-9.66547
▁Эр	-9.66625
▁гш	-9.66688
▁орчи	-9.66809
▁мөрөө	-9.66815
▁давт	-9.66923
▁агц	-9.66982
▁ааш	-9.66986
▁үгээс	-9.67004
▁урагч	-9.67015
▁эхийн	-9.67024
▁өгжим	-9.6706
▁уян	-9.67124
▁хям	-9.67131
▁рөв	-9.67227
▁ате	-9.67232
▁тол	-9.67254
▁сра	-9.67271
▁хямд	-9.67307
▁уриа	-9.67312
▁ог	-9.67352
▁18	-9.67384
▁жилт	-9.67432
▁гарна	-9.67485
r	-9.67488
▁өсөлт	-9.67493
▁агда	-9.67502
▁маг	-9.67558
▁чада	-9.67723
▁айхан	-9.67736
▁орх	-9.67748
▁юутан	-9.67757
▁ок	-9.67813
▁агна	-9.67912
▁дрэ	-9.68053
▁лимп	-9.6819
▁дааны	-9.68204
▁ям	-9.68321
▁онгу	-9.68442
▁анза	-9.68446
огто	-9.68488
▁айм	-9.68493
▁агта	-9.68504
▁неж	-9.68505
▁омп	-9.68511
▁дэл	-9.6857
▁онго	-9.68599
▁ингэ	-9.68632
▁орилт	-9.6869
▁зориг	-9.68699
глөө	-9.68727
▁бүт	-9.6875
▁тут	-9.68809
▁Үз	-9.68851
▁днээс	-9.68907
▁эхлэн	-9.69077
▁нда	-9.69212
▁тгө	-9.69221
▁тойр	-9.69297
▁зас	-9.69354
▁хүүг	-9.69356
▁тгээд	-9.69361
▁төлөх	-9.69378
▁снаа	-9.6939
▁лцоо	-9.6947
▁тани	-9.69505
▁бэр	-9.69588
▁түр	-9.69682
▁&	-9.69782
▁Шу	-9.69806
▁R	-9.69841
▁түүхэ	-9.69893
▁длага	-9.69925
▁Дээр	-9.69931
▁лчил	-9.69955
▁Хэд	-9.70037
▁Танд	-9.70193
▁мөч	-9.70222
▁виар	-9.70242
▁Си	-9.70298
▁хуу	-9.70304
▁шар	-9.7038
▁зун	-9.70441
▁эрхий	-9.70466
▁ес	-9.70544
▁рин	-9.70686
▁H	-9.70687
▁24	-9.70735
▁сай	-9.7076
▁атан	-9.70958
▁ршилт	-9.70973
▁хиж	-9.71066
▁азар	-9.71165
▁ут	-9.71237
▁сэг	-9.71276
▁изм	-9.71416
▁өрчил	-9.71541
▁Залуу	-9.71543
▁$	-9.71701
▁эгэнт	-9.71747
▁гдэх	-9.71748
▁Оюун	-9.71783
▁төрх	-9.71789
▁өрхөн	-9.71986
▁тэс	-9.72082
▁огоон	-9.72119
▁Ne	-9.72195
▁агаан	-9.72248
▁өнгөн	-9.72357
▁олны	-9.7236
▁албир	-9.72433
▁Том	-9.72451
▁уухай	-9.72494
▁фи	-9.72627
▁атаа	-9.72639
▁адтай	-9.72645
▁Ме	-9.72729
▁үлх	-9.72773
ийгэ	-9.72834
▁нгли	-9.72912
▁стра	-9.72932
▁эндүү	-9.72963
▁рм	-9.73103
▁амд	-9.73134
▁үчи	-9.73143
▁цэв	-9.73158
▁өрөг	-9.73164
▁үүлч	-9.73216
▁анкны	-9.7322
▁элс	-9.73229
▁ло	-9.73287
▁дагу	-9.7335
▁от	-9.73353
▁ахаас	-9.73424
▁ойд	-9.73446
▁мн	-9.73473
▁мтын	-9.73486
▁Баян	-9.73581
▁ороо	-9.73591
▁алай	-9.7364
▁хог	-9.73651
▁тараа	-9.738
▁нгийг	-9.73812
▁өндөө	-9.73972
▁рих	-9.74009
▁эрүү	-9.74082
▁анш	-9.74375
▁Се	-9.74406
▁ланд	-9.74428
▁хүрт	-9.74444
▁y	-9.74454
▁Ю	-9.74456
▁Гол	-9.74482
▁длууд	-9.7455
▁e	-9.7469
▁үнс	-9.74726
▁аны	-9.7477
▁лим	-9.74777
▁нга	-9.74876
▁хь	-9.74934
▁мий	-9.7511
▁сө	-9.75145
▁Сэтг	-9.75146
▁лаарх	-9.7516
▁орши	-9.75164
▁гомд	-9.75216
▁НХА	-9.75261
▁хав	-9.75333
▁Уул	-9.75338
▁бая	-9.7539
▁нш	-9.75396
▁анаа	-9.75438
▁ургаа	-9.75591
▁тны	-9.75636
▁өртө	-9.75755
▁боли	-9.75892
▁эгдэх	-9.76001
▁X	-9.76111
▁элдэг	-9.76112
▁дны	-9.76183
▁гарц	-9.76227
▁ом	-9.76243
▁лсөн	-9.76315
▁No	-9.76422
▁чид	-9.76533
▁25	-9.76606
▁татах	-9.76606
ба	-9.76695
▁лзуу	-9.76737
▁дийл	-9.76752
▁мраг	-9.7688
▁эхлэ	-9.76925
▁тго	-9.76992
▁нт	-9.77088
▁эч	-9.77106
▁асвар	-9.77205
▁угт	-9.7722
▁нгын	-9.77223
эг	-9.77307
▁йно	-9.77363
▁Төв	-9.77368
▁лгэр	-9.77613
▁тоог	-9.77656
▁лооч	-9.77678
▁ра	-9.77771
▁нс	-9.77908
нх	-9.77983
▁шах	-9.78
▁хур	-9.78065
▁K	-9.78087
▁айц	-9.78147
▁ийш	-9.78186
▁рэнд	-9.78251
▁нэт	-9.7833
▁им	-9.78463
▁эгс	-9.78527
▁отроо	-9.78603
▁айх	-9.78716
▁гдэ	-9.7882
▁элтэй	-9.78946
▁алдах	-9.78954
▁огоо	-9.78967
▁ший	-9.78987
▁гадн	-9.79029
▁гүйц	-9.79049
▁уулг	-9.79057
▁луу	-9.79063
▁линг	-9.79245
▁рөнг	-9.79378
▁рлын	-9.79406
▁жиж	-9.79419
▁эш	-9.79433
▁олт	-9.79436
▁уудал	-9.79453
▁рүүл	-9.7948
▁гэрлэ	-9.7952
▁ааг	-9.79585
▁сп	-9.7963
▁дүгнэ	-9.79723
ал	-9.79738
▁N	-9.79811
▁зав	-9.79817
Т	-9.79856
▁~	-9.79887
▁ент	-9.79947
▁лоор	-9.80039
▁ото	-9.80054
Г	-9.80062
үүрс	-9.80158
А	-9.80207
▁Тухай	-9.80209
▁дөөн	-9.80254
▁цэ	-9.80265
▁гад	-9.8029
▁мад	-9.80305
▁рчны	-9.80332
▁хэхэ	-9.80422
▁элсэн	-9.80484
▁үгээ	-9.80508
▁биеэ	-9.80565
▁ци	-9.80604
▁үлэг	-9.80638
▁13	-9.80683
▁йгүй	-9.80887
▁шдэ	-9.8098
▁16	-9.81003
▁ум	-9.81059
ю	-9.81072
▁йруу	-9.81073
▁айж	-9.81126
эр	-9.81132
▁лхи	-9.81134
▁эгчид	-9.81189
▁амы	-9.81344
▁ргаар	-9.81387
▁b	-9.81449
▁ордо	-9.81483
▁гөж	-9.8157
▁утс	-9.81589
▁гуа	-9.8159
▁ит	-9.8161
▁ээх	-9.81901
▁лжээ	-9.82036
▁лагч	-9.82125
▁уяа	-9.82206
▁вто	-9.82224
▁ангуй	-9.82342
▁лүү	-9.82356
▁Маш	-9.82454
▁al	-9.82497
▁раад	-9.82544
▁өлөөт	-9.82587
арха	-9.82622
▁эхээс	-9.8266
▁өрд	-9.82689
▁17	-9.82748
▁суул	-9.82773
▁арж	-9.82785
▁айхаа	-9.82802
▁Ар	-9.82845
▁шл	-9.8304
▁эрс	-9.83129
▁ладаг	-9.83169
▁хийн	-9.83277
▁эрэв	-9.83279
▁рий	-9.8331
▁арь	-9.83337
▁рд	-9.83369
▁үжи	-9.83399
▁рчуу	-9.83559
▁энийг	-9.83637
▁гүүд	-9.83722
▁цай	-9.83791
▁ей	-9.83895
▁үм	-9.83986
▁эвч	-9.84036
▁нэгд	-9.84089
▁риад	-9.84221
▁ис	-9.84326
▁тали	-9.84426
▁зра	-9.84464
▁ест	-9.84502
▁вс	-9.84526
▁үхний	-9.84672
▁ку	-9.84768
▁агас	-9.84799
▁йрын	-9.84866
▁оорой	-9.85042
▁ЙН	-9.85051
▁Ир	-9.85114
▁усны	-9.85231
▁гүн	-9.85308
▁жүүлж	-9.85429
▁халд	-9.85541
▁нет	-9.85572
▁зуг	-9.85812
▁зүй	-9.85849
▁гр	-9.8604
▁сала	-9.86061
▁овлон	-9.86306
▁өрж	-9.86349
▁ми	-9.86394
▁аадам	-9.86436
▁шо	-9.86546
▁ийгөө	-9.86547
▁ата	-9.86574
▁дг	-9.86581
▁рло	-9.86639
▁лла	-9.86692
▁лтанд	-9.86909
▁хүнс	-9.86989
▁үйтэ	-9.87163
▁над	-9.87259
▁шд	-9.87446
▁лтад	-9.87488
▁эйл	-9.87511
▁лөлт	-9.87556
▁алыг	-9.87585
▁аатай	-9.87611
▁рөөд	-9.87649
▁ргэ	-9.87696
рла	-9.87768
▁рла	-9.8777
▁цийн	-9.87824
▁ҮБ	-9.87912
▁эрэй	-9.8801
▁эрсэн	-9.88156
▁ийлэх	-9.88287
▁моор	-9.88463
▁хос	-9.88513
▁хин	-9.88519
▁L	-9.88524
▁длын	-9.88567
▁зүүн	-9.88637
▁агчид	-9.88647
Н	-9.88699
▁руй	-9.88715
▁йж	-9.88834
▁гана	-9.8885
▁дгийг	-9.89075
▁врал	-9.89082
▁рэй	-9.8911
▁па	-9.89312
▁ап	-9.89376
▁Ко	-9.8947
▁ахуй	-9.89478
▁вэр	-9.89563
▁гам	-9.89571
▁Бу	-9.89697
үрэ	-9.89708
▁мэдэл	-9.89846
▁вий	-9.89983
аргы	-9.90098
▁танай	-9.90128
▁стой	-9.90178
▁шал	-9.90193
▁раа	-9.9032
сон	-9.90396
▁=	-9.90404
▁үүрг	-9.9043
▁Ба	-9.90446
▁нал	-9.90454
на	-9.9052
▁t	-9.9054
агас	-9.90551
лаа	-9.90579
▁хны	-9.90796
▁цэс	-9.90858
▁+	-9.91001
▁ваа	-9.91012
▁V	-9.91074
▁айлан	-9.91359
▁авчир	-9.91375
▁гжил	-9.91661
▁хоос	-9.91669
той	-9.91754
▁раг	-9.9177
▁олдо	-9.91805
▁Ор	-9.9182
▁вж	-9.9188
▁үсэг	-9.91898
▁60	-9.91936
та	-9.91958
▁жүжиг	-9.91964
▁оп	-9.92134
▁зэн	-9.92282
▁ed	-9.92299
▁йлд	-9.92348
▁зүйлд	-9.92401
өнд	-9.92433
▁гуур	-9.92541
▁p	-9.92556
▁рамт	-9.92666
▁вуу	-9.92743
▁анал	-9.9283
▁чилж	-9.92858
өмбө	-9.9288
▁рхи	-9.92889
▁гараа	-9.92907
▁ахар	-9.92933
▁<	-9.92951
▁гэрт	-9.92991
▁оль	-9.93003
▁гтаа	-9.93012
▁амт	-9.93078
ин	-9.93085
▁вчи	-9.93206
▁аб	-9.93209
▁рха	-9.9323
омдо	-9.93248
▁ссэн	-9.93367
▁эргэд	-9.93522
▁Яа	-9.93613
▁уб	-9.93634
▁мч	-9.93666
▁айны	-9.93677
▁эмс	-9.93737
▁хөх	-9.93748
▁Зөв	-9.93874
▁глэ	-9.94098
▁ене	-9.94117
▁жууд	-9.94125
▁алдаг	-9.94152
эв	-9.94313
▁Аз	-9.94362
▁осон	-9.94519
▁Ла	-9.94619
▁атай	-9.94646
ийг	-9.94669
▁доод	-9.94824
▁элд	-9.94839
▁усан	-9.95049
▁өнө	-9.95051
▁үрэ	-9.95119
▁арав	-9.95409
▁O	-9.95502
п	-9.95592
▁эрээ	-9.95731
▁рц	-9.95791
▁рээ	-9.95817
▁o	-9.9604
▁уш	-9.96338
▁гүүл	-9.9639
▁үйд	-9.9641
▁асах	-9.96414
▁жиг	-9.96763
гийн	-9.96884
▁Ша	-9.96887
▁То	-9.97011
лж	-9.97028
▁ком	-9.97118
▁омж	-9.97369
▁хуви	-9.97376
D	-9.97444
▁нч	-9.97501
▁урь	-9.97573
рх	-9.97719
▁сэд	-9.97818
▁рчин	-9.98004
▁лтан	-9.98047
▁өгж	-9.98079
ри	-9.98151
▁гчдын	-9.98275
▁зуур	-9.98564
▁нэн	-9.98573
▁гий	-9.98595
▁анайх	-9.98618
▁илцан	-9.98619
▁лл	-9.98675
▁дэр	-9.98682
▁дэнд	-9.9869
▁гчин	-9.98712
У	-9.98762
▁есс	-9.98778
▁жим	-9.98951
▁хтэй	-9.99069
▁ера	-9.99125
▁үдээ	-9.99194
Чи	-9.99428
дүүл	-9.99496
▁кк	-9.99538
▁вш	-9.99551
▁гддэг	-9.99606
▁амер	-9.99713
▁цэн	-9.99794
ажуу	-9.99822
▁ачин	-9.9983
▁цар	-9.99844
▁тари	-9.9986
▁Төр	-10.0013
▁хоно	-10.0016
▁ип	-10.0017
▁лстөр	-10.0021
▁ага	-10.0033
▁мин	-10.004
▁аргы	-10.0062
▁нтер	-10.0066
▁анад	-10.0067
▁өрхий	-10.0072
▁ллээ	-10.0073
▁шр	-10.0084
▁мжи	-10.0084
▁ожи	-10.0094
▁оу	-10.0097
▁гуул	-10.0098
огтв	-10.0099
уул	-10.0123
▁доор	-10.0124
▁мшигт	-10.0126
▁лөж	-10.0134
▁өхөн	-10.0137
▁оф	-10.0138
▁мжийн	-10.0139
▁Цааш	-10.0158
▁ооо	-10.0169
▁c	-10.0175
▁бодо	-10.0176
▁хөн	-10.0182
▁амтай	-10.0183
▁ел	-10.019
▁лчин	-10.0201
▁эрэл	-10.0203
▁өлөө	-10.0208
▁дол	-10.0214
▁элсэ	-10.022
▁жүжи	-10.0226
▁ев	-10.0229
▁өнд	-10.0232
▁На	-10.0255
ыг	-10.0258
▁гэгч	-10.0262
Я	-10.0271
▁ю	-10.0272
▁саад	-10.0275
▁хүртэ	-10.0276
▁нхны	-10.0281
▁мжл	-10.0284
▁саг	-10.0286
▁Хайр	-10.0299
▁хуй	-10.0322
▁хана	-10.0325
унта	-10.0325
▁21	-10.0326
▁The	-10.034
▁нэлэг	-10.034
▁h	-10.034
▁өдөл	-10.0341
▁гдож	-10.0342
▁АХН	-10.0344
▁2-	-10.0345
С	-10.0347
▁ихээ	-10.0349
▁эрэн	-10.0358
▁ласан	-10.0361
▁лмаар	-10.0365
▁гор	-10.0366
▁алха	-10.0366
▁иг	-10.037
▁риул	-10.0371
▁уха	-10.0381
▁байхы	-10.0398
▁өрдөг	-10.0413
▁өхөд	-10.0413
▁gle	-10.0422
▁Тү	-10.0423
▁in	-10.0425
▁оро	-10.0429
▁рэлт	-10.0431
ен	-10.0431
▁Нас	-10.0438
▁асл	-10.0456
▁чил	-10.0457
▁Ца	-10.0461
▁эзээ	-10.0463
▁бууд	-10.0463
▁хнэр	-10.0464
▁виз	-10.0467
Л	-10.0473
▁оосоо	-10.0484
▁илэн	-10.0495
▁Ли	-10.0516
▁свэр	-10.0525
▁дан	-10.0542
▁аза	-10.0544
▁Ё	-10.0555
▁авь	-10.0576
▁аана	-10.0582
аатг	-10.0585
▁игдөр	-10.0587
▁удаад	-10.0587
▁ры	-10.0589
▁цхан	-10.0608
▁Goo	-10.0611
▁анил	-10.0612
▁ргүй	-10.0612
▁цол	-10.0613
▁рлыг	-10.0618
▁эртэ	-10.062
▁ашин	-10.0624
▁дрүүд	-10.0629
▁хээс	-10.0649
▁аяла	-10.0649
▁иал	-10.0656
▁ута	-10.0666
▁уламж	-10.0666
▁лээн	-10.0679
▁эгэ	-10.0684
▁book	-10.0692
▁гэл	-10.0712
▁глал	-10.0721
▁олло	-10.0724
▁нээр	-10.0727
▁нжи	-10.0737
▁цаад	-10.0739
▁эвлэ	-10.0756
▁готой	-10.0757
▁арьц	-10.0773
▁члэн	-10.0788
сн	-10.0798
▁19	-10.0804
▁цаас	-10.0806
▁улж	-10.0841
▁ахин	-10.0865
▁W	-10.0879
ах	-10.0883
▁ниг	-10.0884
▁осоо	-10.0889
▁Өөрөө	-10.0896
ка	-10.0905
▁үвшин	-10.0906
▁оход	-10.0907
▁гчийн	-10.0909
▁тулга	-10.0926
▁Дэ	-10.0938
▁лдаг	-10.0939
ээс	-10.0946
▁сүү	-10.0959
2	-10.097
▁тоол	-10.0983
▁зийн	-10.0984
▁Үр	-10.0994
▁1-	-10.0996
▁Хэ	-10.1007
▁энээс	-10.1011
▁гдаад	-10.1014
▁уя	-10.1016
▁Ам	-10.1018
▁тас	-10.1022
▁кц	-10.1032
эй	-10.1035
▁тгэл	-10.1035
▁лэгээ	-10.105
▁ори	-10.1059
▁ерик	-10.1065
▁Сүү	-10.1068
▁эгдэл	-10.1069
▁аард	-10.1082
▁рны	-10.1085
▁ино	-10.109
▁зээ	-10.1094
▁гдана	-10.1099
▁тик	-10.1102
▁орил	-10.1112
▁элцэ	-10.1112
▁стэй	-10.1114
▁ге	-10.1119
▁урс	-10.1129
▁өвлөл	-10.1141
▁Y	-10.1155
▁лэгт	-10.1161
▁магт	-10.1164
урх	-10.1175
▁соор	-10.1175
өнгө	-10.1175
▁йз	-10.1185
▁эгээ	-10.1189
▁төрч	-10.1202
▁логч	-10.1203
▁вд	-10.1206
▁антай	-10.1219
▁лнэ	-10.1219
▁омт	-10.1229
▁ргээ	-10.1234
▁не	-10.1237
▁вгүй	-10.1243
гүй	-10.127
▁гна	-10.1276
▁Үй	-10.1277
▁ийх	-10.1286
▁цэнэ	-10.129
▁яда	-10.1294
▁оёл	-10.1299
▁мсэ	-10.1301
са	-10.1306
▁лбэл	-10.1308
▁орм	-10.1313
▁нгүй	-10.1332
▁стан	-10.1332
▁эрийг	-10.1336
▁зоч	-10.1339
▁орь	-10.1341
▁вөө	-10.1361
▁амп	-10.137
▁уга	-10.1381
▁өлөг	-10.1389
▁алан	-10.1391
▁шги	-10.1391
▁авт	-10.1395
▁J	-10.1396
▁гаарт	-10.1407
▁өрүү	-10.1416
▁лэлт	-10.1419
▁нк	-10.1427
▁лүүд	-10.1427
▁лий	-10.1435
▁үүхэн	-10.144
ит	-10.1452
▁тайв	-10.1453
▁дурла	-10.1453
▁араас	-10.1456
▁ариа	-10.1467
▁ара	-10.148
▁гаач	-10.1482
▁илсэн	-10.1484
▁эми	-10.1498
▁лтгэ	-10.1498
би	-10.1506
▁үний	-10.1511
▁ндан	-10.1513
очи	-10.1514
▁осууд	-10.1529
▁рээд	-10.1533
▁нгө	-10.1534
▁Fac	-10.1548
▁Уд	-10.1564
▁асуух	-10.1568
▁длаа	-10.1575
▁йхны	-10.1577
▁рэн	-10.158
өлдө	-10.1591
▁пи	-10.1609
▁этэй	-10.1625
▁ндөр	-10.1627
▁Ай	-10.1631
▁шг	-10.1632
▁утай	-10.1633
▁рлэ	-10.1641
▁тэ	-10.1644
▁нутг	-10.1666
▁Улаан	-10.1668
▁нц	-10.168
▁өөх	-10.1686
▁гил	-10.169
▁атр	-10.1691
▁ныг	-10.1707
▁вил	-10.1716
▁усд	-10.1718
▁рьж	-10.1725
▁урав	-10.1727
▁эрчи	-10.1733
▁орч	-10.1749
▁to	-10.1752
▁наар	-10.1755
▁ia	-10.1763
▁сам	-10.1766
▁үлдэ	-10.1772
▁галз	-10.1772
▁ондоо	-10.1776
▁рэл	-10.1798
▁алууд	-10.181
▁Ах	-10.181
гыг	-10.1811
▁ахил	-10.1829
▁ишүү	-10.1835
▁Өв	-10.1836
оро	-10.1844
▁рис	-10.1846
▁слан	-10.1848
▁сек	-10.1852
▁өрөв	-10.1859
▁лбан	-10.1872
▁ндын	-10.1872
▁ууны	-10.1872
▁ныхаа	-10.1874
ой	-10.1878
▁хүүх	-10.1879
▁онх	-10.1886
▁хас	-10.1901
▁цор	-10.1905
▁йт	-10.1907
▁зе	-10.1927
▁үни	-10.1939
▁Го	-10.1941
▁удам	-10.1947
▁лива	-10.1955
▁римт	-10.1956
▁Но	-10.1956
▁олог	-10.1959
▁нгээ	-10.1962
▁глах	-10.1966
▁ахи	-10.1972
▁шө	-10.1984
▁зүг	-10.1986
▁ья	-10.2035
▁өгд	-10.2037
▁Хан	-10.2041
▁шөө	-10.2048
▁имп	-10.2048
▁мжтай	-10.205
▁эдгэ	-10.206
▁ио	-10.207
▁or	-10.2075
▁нийс	-10.2082
▁хааны	-10.209
▁айн	-10.2095
▁ичээд	-10.2103
X	-10.2112
▁болоо	-10.2119
▁дүүл	-10.212
▁хаас	-10.2133
лээд	-10.2152
▁ки	-10.216
▁очи	-10.2166
▁сти	-10.2167
▁онг	-10.2168
▁рс	-10.2171
▁лна	-10.2184
▁энг	-10.219
▁Те	-10.2199
▁one	-10.22
▁иа	-10.2203
▁Чу	-10.2205
▁өгө	-10.2206
▁лай	-10.2208
▁ош	-10.2213
▁аала	-10.2228
▁хараа	-10.2233
▁цас	-10.2265
▁олз	-10.2293
▁ХХК	-10.2294
▁хио	-10.2317
▁дагч	-10.2325
▁гөн	-10.2329
▁ралт	-10.2331
ЭН	-10.2332
▁мун	-10.2335
▁одруу	-10.2342
олоо	-10.2342
▁анч	-10.2344
▁Уу	-10.2347
гуул	-10.236
▁рам	-10.2365
▁дуур	-10.2366
▁усдаа	-10.2368
▁хэм	-10.2369
▁айта	-10.2374
B	-10.2386
▁элч	-10.2386
▁Бү	-10.2391
▁адал	-10.2392
▁эхээр	-10.2403
өөрө	-10.2418
▁нага	-10.2422
▁өнг	-10.2427
▁хирол	-10.2429
▁иун	-10.2431
▁80	-10.2431
▁уун	-10.2438
▁сх	-10.2439
▁лом	-10.2447
▁ынх	-10.245
▁рги	-10.2452
▁ТГ	-10.2464
▁Үнэн	-10.2469
▁нгаа	-10.2471
▁агну	-10.2471
▁өл	-10.2476
агуу	-10.2477
▁22	-10.2491
▁цаана	-10.2513
И	-10.2516
▁олбо	-10.2516
▁сахи	-10.2541
▁өлс	-10.255
▁элдэ	-10.2562
▁ооч	-10.2564
▁You	-10.257
▁рак	-10.257
▁ети	-10.2572
▁улгах	-10.2585
▁гдлаа	-10.2585
▁гсаал	-10.2589
▁үйц	-10.2592
▁унтаг	-10.2596
▁n	-10.2597
▁ими	-10.2605
▁ури	-10.2619
▁илий	-10.262
▁ногоо	-10.2621
▁түгэ	-10.2623
▁үт	-10.2625
▁дүүд	-10.2641
▁эвд	-10.2642
▁лз	-10.2654
▁саа	-10.2656
▁аат	-10.2657
▁цоо	-10.2658
▁далт	-10.2659
▁ийд	-10.2662
▁хам	-10.2673
▁аяс	-10.2677
▁тно	-10.2688
▁удаг	-10.2693
▁үнэт	-10.2695
▁ген	-10.272
▁ХК	-10.2738
▁Тан	-10.2738
▁екс	-10.2742
▁хоё	-10.2745
A	-10.278
ари	-10.2781
▁кол	-10.2782
▁ндий	-10.2792
▁гла	-10.28
▁уухан	-10.2804
▁авса	-10.2804
I	-10.2814
Д	-10.2824
▁ундаа	-10.2825
1	-10.2834
▁нха	-10.2836
▁ээжи	-10.284
▁сор	-10.284
▁ти	-10.2854
ик	-10.2861
▁мжил	-10.2867
▁өрөөс	-10.287
ё	-10.2874
▁аши	-10.2883
Х	-10.2888
▁ална	-10.2893
▁өрл	-10.2895
st	-10.2909
ориг	-10.2909
▁уурай	-10.2913
▁жилж	-10.2924
▁дэс	-10.2928
▁мууд	-10.294
▁дарг	-10.2944
▁ийтл	-10.2949
▁НСУ	-10.2958
▁Хү	-10.2963
▁эмэл	-10.2974
f	-10.2977
▁оми	-10.2979
▁йлт	-10.2981
үртг	-10.2985
▁дра	-10.2989
▁порт	-10.2992
▁эвэ	-10.2995
▁аяга	-10.3007
▁иш	-10.3021
▁3-	-10.3029
▁Библи	-10.3038
▁мэс	-10.3059
▁олгүй	-10.3068
▁дсан	-10.3069
эдий	-10.3069
▁До	-10.307
▁өнц	-10.3079
▁эвтэ	-10.3079
▁лгар	-10.3083
чих	-10.3102
▁гаж	-10.3106
▁пон	-10.3112
▁си	-10.3118
▁гдол	-10.3128
▁эле	-10.3128
▁200	-10.313
▁айд	-10.3133
▁хуул	-10.3143
О	-10.3144
▁луун	-10.3145
▁рвэ	-10.3149
▁ью	-10.3149
▁аруул	-10.3164
▁бөө	-10.3165
▁орго	-10.3171
▁олно	-10.3175
▁ек	-10.3175
▁сах	-10.3187
▁аарна	-10.3207
▁ржи	-10.3209
▁пп	-10.3211
ко	-10.3222
▁рвал	-10.3224
▁үүдэ	-10.3236
▁шин	-10.3244
▁най	-10.3255
▁риг	-10.3255
▁гарт	-10.3257
▁є	-10.3264
▁ван	-10.3269
▁өхийн	-10.328
▁сээс	-10.3296
▁хурим	-10.3309
▁инж	-10.3315
▁элз	-10.3321
▁лууд	-10.3327
▁ориг	-10.333
▁анда	-10.3333
▁en	-10.3335
▁гадаа	-10.3339
▁или	-10.3339
ун	-10.3342
▁өхөөр	-10.3348
▁нил	-10.3353
▁мшиг	-10.3363
дөө	-10.337
утл	-10.3384
▁вээ	-10.3388
▁яс	-10.3394
▁цр	-10.3394
▁рлал	-10.3402
▁хүй	-10.3405
ct	-10.3405
▁90	-10.341
▁гов	-10.3421
▁уут	-10.3421
▁хб	-10.3428
▁дов	-10.3436
▁ьяа	-10.3442
▁агва	-10.3443
▁ааз	-10.3444
▁увь	-10.3447
▁йлчи	-10.3456
▁ирч	-10.3462
▁70	-10.3467
▁шинг	-10.3477
▁чам	-10.3478
ма	-10.3483
є	-10.3483
▁лалын	-10.3487
Э	-10.3492
▁na	-10.3499
▁АШТ	-10.3502
▁йтай	-10.3507
▁амба	-10.3508
▁эгэн	-10.3508
▁элгэ	-10.353
▁уч	-10.354
▁ааши	-10.354
▁лээс	-10.3545
▁ng	-10.3549
▁эдлэ	-10.3558
▁сураг	-10.3562
▁огдо	-10.3571
▁жих	-10.3574
▁огло	-10.3588
▁ахиад	-10.3594
G	-10.3602
▁лдөг	-10.361
▁лго	-10.3614
▁лонг	-10.3615
▁эгдү	-10.3621
▁янга	-10.3623
▁m	-10.3629
▁гдал	-10.3635
▁дож	-10.3649
▁жлэх	-10.3655
▁ьд	-10.3656
тай	-10.3663
▁рсэн	-10.3664
▁энэг	-10.3669
▁Ро	-10.3671
▁ина	-10.3676
▁архан	-10.3682
▁гы	-10.3696
▁рдэг	-10.3697
▁эвш	-10.3707
▁аф	-10.3708
▁саж	-10.3733
▁Тэг	-10.3738
▁насан	-10.3743
▁иуд	-10.3756
▁чилг	-10.3759
▁жлал	-10.3761
▁ух	-10.3764
▁23	-10.3772
▁Гал	-10.3779
▁яд	-10.3782
▁айлд	-10.3786
▁авья	-10.3789
▁рүүн	-10.3804
/	-10.3808
▁хтай	-10.3819
▁рьдч	-10.3824
▁луур	-10.3831
▁рва	-10.3831
▁слийн	-10.3845
▁рагч	-10.3854
▁арын	-10.3877
▁лш	-10.3882
▁Өө	-10.3887
▁вид	-10.389
▁цом	-10.3905
▁Ра	-10.3909
▁ачи	-10.3917
▁үйлс	-10.3919
▁тийн	-10.3919
▁снээ	-10.3926
▁овсро	-10.3931
игдө	-10.3935
▁ent	-10.394
▁рнээ	-10.3942
▁атга	-10.3948
▁рамс	-10.3949
▁об	-10.3973
▁айлт	-10.3974
▁ртээ	-10.3993
▁уз	-10.4
▁дит	-10.4033
▁ахим	-10.4044
▁дод	-10.4048
▁элэг	-10.405
▁ост	-10.4051
▁уулаа	-10.4055
▁эрм	-10.4055
▁ижиг	-10.4058
▁лх	-10.4077
анк	-10.4094
▁Жа	-10.4099
▁зэг	-10.41
▁уги	-10.4101
▁лирал	-10.4108
▁ээжий	-10.411
-	-10.4131
▁нэхэ	-10.4131
ел	-10.414
▁рв	-10.4148
▁нтр	-10.4149
рий	-10.415
▁эгтэ	-10.415
▁шид	-10.4154
▁ээсэн	-10.4156
▁тур	-10.4181
▁ch	-10.4181
▁гыг	-10.4191
▁алий	-10.4206
▁an	-10.4207
▁ic	-10.4208
▁цан	-10.4208
▁овоо	-10.4212
▁эцэ	-10.4212
▁Хүү	-10.4213
▁ак	-10.423
▁рний	-10.4235
▁үрэг	-10.4235
▁ьж	-10.4247
▁акт	-10.4253
▁мээ	-10.4253
▁U	-10.426
▁лэсэн	-10.4262
▁эмлэ	-10.4276
▁үлээ	-10.4278
▁ноор	-10.4287
▁ойн	-10.4303
▁сүр	-10.4315
▁хүнээ	-10.4323
▁өрт	-10.4343
▁тсаа	-10.435
ам	-10.4352
▁өглө	-10.4367
▁Сар	-10.4384
▁ээг	-10.4395
▁айс	-10.44
ur	-10.4401
▁гоос	-10.4402
▁ойлг	-10.4405
▁ргууд	-10.4408
▁эри	-10.4416
▁ne	-10.442
▁сдий	-10.4425
▁улна	-10.4426
▁рөөс	-10.4427
▁мр	-10.443
▁ац	-10.4447
▁Й	-10.4452
▁сч	-10.446
▁онт	-10.4463
▁юун	-10.4476
▁логоо	-10.4502
▁йгаад	-10.4508
▁агдал	-10.4511
▁мны	-10.4512
ов	-10.4518
М	-10.4522
▁урш	-10.4535
▁гүү	-10.457
▁эрэлт	-10.4581
ло	-10.4581
▁айт	-10.4587
▁ймг	-10.4606
▁тар	-10.4617
z	-10.4618
▁рми	-10.4621
ѳ	-10.4624
▁мгий	-10.4631
▁ет	-10.4633
▁орш	-10.4655
▁арма	-10.4669
3	-10.4671
▁пе	-10.4671
луул	-10.4676
▁лдл	-10.4693
▁урай	-10.4697
▁ргэл	-10.4714
▁сы	-10.4721
▁тэж	-10.4723
▁Нү	-10.4724
▁айла	-10.4725
▁d	-10.4736
жи	-10.4737
▁өрх	-10.474
▁эт	-10.4748
олд	-10.4753
▁рав	-10.4755
▁пер	-10.4766
▁Од	-10.4773
▁цог	-10.4777
▁азрын	-10.4784
▁уви	-10.4792
▁Ой	-10.4792
▁аха	-10.4795
▁мб	-10.4803
▁аду	-10.4806
▁эгнэ	-10.4817
▁гөөр	-10.4823
▁ардаг	-10.4824
▁Наад	-10.483
▁эрхт	-10.4834
Ж	-10.4838
от	-10.4841
▁шилж	-10.4849
▁лдарт	-10.4856
Ш	-10.4865
не	-10.4869
▁адар	-10.4876
▁уда	-10.4883
▁Мал	-10.4886
▁тулг	-10.489
▁амда	-10.4897
▁хала	-10.4908
▁жуу	-10.4911
▁хал	-10.4919
▁лгуу	-10.493
▁хой	-10.4942
▁500	-10.4949
▁амаас	-10.4952
▁буу	-10.4959
▁Re	-10.4968
▁ондо	-10.4975
▁чдийн	-10.4979
▁алтыг	-10.4986
▁вьяа	-10.4992
▁йлг	-10.4992
le	-10.4999
▁нан	-10.5001
▁лдсон	-10.5016
▁енд	-10.5016
▁гда	-10.5027
▁Үг	-10.5046
▁Дуу	-10.5053
▁лсон	-10.5061
▁түвш	-10.5071
▁үүтэй	-10.5083
▁лгий	-10.5093
▁ирга	-10.5095
▁уулын	-10.5096
▁элбэ	-10.5103
▁Хи	-10.5105
▁оёул	-10.5107
▁рээн	-10.5114
▁Яаж	-10.5116
▁Ан	-10.5119
▁ртэй	-10.5125
▁цөл	-10.5129
▁Эм	-10.5133
▁Apple	-10.514
▁ке	-10.5146
▁өц	-10.5159
▁уус	-10.5163
▁амс	-10.5169
▁com	-10.5171
▁тгаар	-10.5175
▁no	-10.5182
▁ют	-10.5183
▁үүхий	-10.5203
ни	-10.5209
▁нхан	-10.5216
▁буц	-10.5217
гээ	-10.522
Ц	-10.5227
▁аагч	-10.5236
▁гааг	-10.5255
▁унши	-10.5269
▁йнхаа	-10.5273
▁чуул	-10.5279
▁лцо	-10.5279
▁длэ	-10.528
▁дам	-10.5294
▁нто	-10.5298
▁Алт	-10.5305
▁илдэг	-10.5307
▁инэ	-10.5318
▁орой	-10.5325
▁чаа	-10.5335
▁длийн	-10.5337
▁орло	-10.534
▁онин	-10.5342
▁арна	-10.5352
▁лтууд	-10.5355
▁члө	-10.5358
▁гс	-10.5361
▁саны	-10.5366
▁сөх	-10.5394
▁алтан	-10.5401
аса	-10.5403
▁авха	-10.5408
▁the	-10.5409
▁ирээ	-10.5417
▁өхөр	-10.5419
▁энт	-10.542
ак	-10.5437
▁йлын	-10.5444
▁гадаг	-10.5446
улаа	-10.5449
▁асаа	-10.5455
▁уп	-10.5456
T	-10.5458
▁авуу	-10.5459
▁роос	-10.5461
вор	-10.5474
▁ийл	-10.5476
▁үнээр	-10.5481
▁вр	-10.5491
эх	-10.5496
▁үүлд	-10.5497
▁ттай	-10.5504
▁вь	-10.5504
▁лтоо	-10.5516
▁үрэн	-10.5519
▁ман	-10.5537
▁of	-10.5543
▁сгөл	-10.5544
▁ol	-10.5556
▁el	-10.5566
за	-10.5566
▁Хот	-10.5581
▁аларх	-10.5586
▁имээ	-10.5594
▁голы	-10.5596
▁нлай	-10.5598
▁уусан	-10.5602
▁нгуй	-10.5612
▁өөрө	-10.5618
▁HD	-10.5621
▁аса	-10.5627
▁лаар	-10.5633
▁Хаа	-10.5649
▁ууч	-10.5653
▁етр	-10.5659
▁буд	-10.5661
▁зор	-10.5663
▁цац	-10.5677
▁ило	-10.5681
▁аргал	-10.5692
▁члах	-10.5692
▁өлсөн	-10.5717
▁рхэм	-10.5718
ирд	-10.5724
▁вта	-10.5724
но	-10.5726
▁эрэ	-10.5753
єє	-10.5754
▁Гү	-10.576
▁лдох	-10.5763
▁батл	-10.5766
▁28	-10.5772
▁өгсө	-10.5773
▁нгуу	-10.5778
▁чиж	-10.5806
▁ааруу	-10.5807
K	-10.5808
▁ариг	-10.582
▁аагаа	-10.5837
▁лли	-10.5839
▁өрөн	-10.584
өлгө	-10.5851
▁ала	-10.5855
▁Гу	-10.5862
▁төрө	-10.5869
▁айч	-10.5879
▁адл	-10.5881
▁r	-10.5884
▁нгар	-10.5889
▁игт	-10.5891
өлбө	-10.5892
▁олов	-10.59
▁ель	-10.591
▁рэгж	-10.5912
▁жү	-10.5921
▁ири	-10.593
▁кт	-10.5937
▁шн	-10.5944
▁ахл	-10.5947
▁они	-10.5947
▁сгэх	-10.5972
▁йса	-10.5974
▁иул	-10.5987
Y	-10.5992
▁лги	-10.5998
▁Home	-10.6001
▁гээн	-10.6005
▁түүн	-10.6009
E	-10.6027
▁f	-10.6028
үвши	-10.6039
▁вээр	-10.6052
▁гчээ	-10.6057
▁ГҮЙ	-10.6072
▁дэнэ	-10.6073
▁27	-10.6075
▁охой	-10.6078
▁re	-10.6086
▁цү	-10.6089
оли	-10.6089
▁гут	-10.6092
▁мыг	-10.6109
▁зү	-10.6118
▁ау	-10.6122
▁урса	-10.6135
▁цаа	-10.6148
▁гууд	-10.6149
▁мэ	-10.6154
▁три	-10.6161
▁по	-10.6169
▁дэн	-10.6176
▁таг	-10.6197
▁ово	-10.6202
▁агу	-10.621
зи	-10.6225
▁le	-10.623
N	-10.6231
▁арц	-10.6232
ши	-10.6232
▁еми	-10.6235
▁уучи	-10.6235
▁уса	-10.6236
▁усла	-10.624
4	-10.6247
▁йлго	-10.6248
ЫН	-10.6258
▁асай	-10.6263
▁эрхэн	-10.6265
ет	-10.6266
▁ээлээ	-10.6268
▁үтэ	-10.6272
▁осл	-10.6275
▁иан	-10.629
▁де	-10.6295
▁g	-10.6316
▁гж	-10.6318
ры	-10.6324
▁эмх	-10.6329
▁ааныг	-10.6338
▁лолт	-10.634
▁Ва	-10.6342
▁илгаа	-10.6352
▁ддог	-10.6365
▁ийхээ	-10.6373
Ө	-10.6374
▁орлу	-10.6378
▁зал	-10.6386
▁ргы	-10.6387
▁бут	-10.64
▁идео	-10.6403
▁цуу	-10.6405
▁инг	-10.6421
алт	-10.6427
▁лдуу	-10.6429
▁аср	-10.6431
▁хэвт	-10.6434
▁ных	-10.6434
▁монг	-10.6436
▁лдаа	-10.645
ая	-10.6454
▁засв	-10.6458
▁хори	-10.6459
үр	-10.646
▁26	-10.6467
▁авс	-10.6471
▁ллаа	-10.6485
▁et	-10.6492
▁ндээс	-10.6503
nd	-10.6516
мнөд	-10.6521
▁үсг	-10.6524
▁мши	-10.653
▁сий	-10.6531
▁өлдөг	-10.6531
▁мм	-10.6538
▁цаан	-10.6543
▁рчүүд	-10.6553
▁гэнд	-10.6557
Б	-10.658
▁өт	-10.6593
хэ	-10.661
▁рө	-10.6617
▁алуу	-10.6644
ек	-10.6655
▁асга	-10.6661
▁атгал	-10.6668
▁хага	-10.6675
▁Wind	-10.6677
одло	-10.6678
▁алз	-10.6691
▁длий	-10.6696
O	-10.672
▁гуу	-10.6726
▁огд	-10.6734
▁жлэ	-10.6738
В	-10.6744
ch	-10.6747
▁дарс	-10.6754
▁эгдэ	-10.6768
▁адуу	-10.6772
▁хир	-10.6773
▁юү	-10.6774
▁үсий	-10.6782
▁өрв	-10.6789
▁300	-10.6789
▁and	-10.6791
er	-10.6795
нлай	-10.6802
▁ангил	-10.6827
▁члэх	-10.6833
▁рон	-10.6848
▁авир	-10.6849
▁мон	-10.685
▁үйт	-10.6852
▁гтэй	-10.6855
S	-10.6871
▁ект	-10.6881
▁ома	-10.6884
▁айма	-10.6899
▁ъ	-10.69
▁ичнэ	-10.6902
▁Зу	-10.692
абор	-10.6922
▁Ви	-10.6924
▁айха	-10.6936
ей	-10.6941
▁Ми	-10.6959
▁цус	-10.6982
▁рэгт	-10.6989
сан	-10.7005
▁ниа	-10.7007
▁эрд	-10.7016
▁4-	-10.7017
Р	-10.7036
▁цэц	-10.7039
▁te	-10.7042
▁захиа	-10.7051
▁ргу	-10.7051
сэн	-10.7056
▁мэх	-10.7063
▁хов	-10.7064
▁Сан	-10.7067
▁хард	-10.7117
▁хөөр	-10.7121
▁пу	-10.7127
▁рхай	-10.7137
▁лэгд	-10.7139
R	-10.7151
▁лэв	-10.7162
▁түм	-10.7168
▁мжин	-10.7168
▁лха	-10.7188
▁сын	-10.719
▁цсан	-10.7193
▁нте	-10.7201
▁Mar	-10.7224
▁амжаа	-10.7226
▁отор	-10.7236
▁өлт	-10.724
▁адам	-10.7241
▁Z	-10.7244
ки	-10.7269
▁ура	-10.7271
▁улаад	-10.7273
▁ант	-10.73
▁нэгт	-10.7307
▁em	-10.7308
5	-10.7309
▁илт	-10.7312
▁даан	-10.733
▁үүрэ	-10.7331
L	-10.7332
▁үдэ	-10.7332
▁уудаг	-10.7335
▁раах	-10.734
▁II	-10.7342
▁дэм	-10.7349
▁айран	-10.7389
▁уудаа	-10.7401
▁рох	-10.7406
▁хах	-10.7412
▁ver	-10.7429
▁лло	-10.7442
▁пор	-10.7442
▁онги	-10.7463
▁шиж	-10.747
▁тер	-10.7471
аала	-10.7475
▁уурх	-10.748
U	-10.7484
▁йц	-10.7508
▁wn	-10.7509
▁рван	-10.7512
▁ргуу	-10.7522
▁элцээ	-10.7525
▁Цо	-10.753
▁йч	-10.7532
▁мөрд	-10.7533
▁Мө	-10.7536
▁врийн	-10.7554
7	-10.7562
▁анс	-10.7562
▁билэ	-10.7568
Ч	-10.7583
З	-10.759
▁илга	-10.7593
сийн	-10.7603
▁нөхц	-10.7604
Ph	-10.7611
▁эсэ	-10.7614
▁АЛ	-10.7619
▁гэн	-10.762
▁ихгүй	-10.7624
▁нта	-10.7631
▁To	-10.7634
▁Miss	-10.7634
an	-10.7645
▁лив	-10.7647
▁гло	-10.7657
▁ууц	-10.7677
▁нөхө	-10.7683
▁ьсон	-10.7686
▁кси	-10.7687
▁сыг	-10.7688
▁бичи	-10.7689
P	-10.7718
▁юул	-10.7727
▁бе	-10.774
▁онс	-10.7743
ье	-10.777
▁оотой	-10.7775
▁Нэр	-10.7784
Ү	-10.7788
▁үтээ	-10.7793
▁боо	-10.7794
▁гял	-10.78
▁өгдө	-10.7806
▁элгээ	-10.7816
хо	-10.7831
▁шоу	-10.7833
▁ьда	-10.7853
▁ууры	-10.7857
▁лгаа	-10.7857
▁тог	-10.7858
▁ру	-10.7862
▁ууга	-10.7864
▁Жил	-10.7896
▁нгоо	-10.7898
▁раар	-10.79
ти	-10.791
▁налт	-10.7919
▁рхийн	-10.7921
ми	-10.7921
▁ндр	-10.7929
▁йдл	-10.7934
▁ДҮ	-10.794
▁агаж	-10.7945
ушаа	-10.7952
▁тсан	-10.7955
▁улах	-10.7997
За	-10.7998
el	-10.8009
▁ээний	-10.8031
▁алч	-10.8039
вроп	-10.8044
▁рхон	-10.8046
▁өөрч	-10.8058
▁ураа	-10.8072
▁Лу	-10.8073
▁th	-10.8077
▁нти	-10.8081
▁ариул	-10.8081
ст	-10.8097
▁гтай	-10.8105
▁эгний	-10.8111
▁из	-10.8116
ong	-10.8117
▁арл	-10.8118
▁асс	-10.8127
▁май	-10.8133
то	-10.8141
▁вт	-10.8142
▁рила	-10.8144
en	-10.8155
▁эмт	-10.8164
▁үн	-10.8166
▁өгүй	-10.8172
▁рлаг	-10.8177
▁ды	-10.8184
▁эрдэ	-10.8185
▁мор	-10.8187
▁гаанд	-10.8189
▁раи	-10.8194
▁иж	-10.8196
▁өлгөө	-10.8201
▁атар	-10.8222
M	-10.8226
▁ром	-10.8237
▁агаа	-10.8241
▁илгоо	-10.8244
▁Mac	-10.8245
▁баат	-10.8246
▁ty	-10.8253
▁льс	-10.8264
▁5-	-10.8275
▁YOLO	-10.8289
▁мүү	-10.829
C	-10.8292
аата	-10.8293
▁лалд	-10.8293
▁фр	-10.8313
эс	-10.8315
▁АА	-10.8318
▁км	-10.8333
▁цал	-10.8336
▁дох	-10.834
▁нди	-10.8341
▁унг	-10.8341
▁at	-10.8345
▁дм	-10.8349
▁гоод	-10.8352
▁Эд	-10.8352
▁Жон	-10.8356
▁гиш	-10.8357
гэгд	-10.8357
▁дер	-10.836
сний	-10.8361
▁ийц	-10.8364
▁тууд	-10.8367
▁үрээ	-10.8375
▁йнхан	-10.838
▁тло	-10.8385
▁үгс	-10.8403
▁барил	-10.8406
▁элц	-10.8411
▁гдо	-10.8418
▁цла	-10.8422
▁аарч	-10.8425
▁гэс	-10.8425
▁Pro	-10.8426
▁рган	-10.8436
F	-10.844
▁вср	-10.844
▁хож	-10.8462
▁АР	-10.8466
▁тов	-10.8471
Е	-10.8472
▁Лх	-10.8473
▁рнө	-10.8474
▁үсэ	-10.8475
▁албар	-10.8492
▁хууч	-10.8494
.5	-10.8496
▁оож	-10.8508
▁слийг	-10.8518
▁рчиг	-10.852
▁ӨАТ	-10.852
▁аст	-10.8537
▁олцо	-10.8547
▁угаад	-10.8552
▁лба	-10.8553
▁ора	-10.8553
▁эсв	-10.8559
▁ry	-10.8567
▁мь	-10.8573
▁тоох	-10.8574
▁тдаг	-10.8579
▁тэх	-10.8581
▁лөгд	-10.8583
▁l	-10.8583
▁овч	-10.8587
▁Гоо	-10.8593
нэ	-10.8594
ail	-10.8597
▁лице	-10.8623
▁чүү	-10.8638
▁усга	-10.8642
▁u	-10.8642
▁сла	-10.8656
▁ени	-10.8658
▁айтай	-10.867
▁агс	-10.8672
▁өш	-10.8673
▁үхэр	-10.8674
▁ёо	-10.8681
▁еж	-10.8682
▁ндөө	-10.8685
▁Зах	-10.8691
▁алин	-10.8695
АЛ	-10.8702
ян	-10.8702
со	-10.8704
▁min	-10.8708
▁жүүд	-10.8708
▁эрэм	-10.8713
▁эрлэг	-10.8721
▁хид	-10.8727
▁урах	-10.8727
эт	-10.8732
▁шт	-10.8738
▁сээ	-10.8744
▁халт	-10.8751
▁гэг	-10.8751
▁35	-10.8753
▁тоон	-10.8756
V	-10.8764
ЭЭ	-10.8769
▁чө	-10.8772
▁анб	-10.8779
▁Үс	-10.8796
ре	-10.8816
▁өрн	-10.8822
▁вьса	-10.8827
▁олооч	-10.8829
▁охи	-10.8835
▁аний	-10.8854
▁адн	-10.8855
▁шоо	-10.8856
us	-10.8857
▁рөөр	-10.8857
▁үүж	-10.8861
▁элх	-10.887
▁Му	-10.8884
▁лдо	-10.8887
▁оосон	-10.8888
ва	-10.8901
▁хэвч	-10.8917
at	-10.8926
▁уст	-10.8932
▁АНАН	-10.8944
▁уулна	-10.8949
in	-10.8953
▁авал	-10.8964
▁ртой	-10.8969
дын	-10.8973
▁тро	-10.8977
▁мас	-10.8979
▁сэгт	-10.8979
▁мц	-10.8983
▁хаж	-10.8984
▁45	-10.8995
си	-10.9011
▁ri	-10.9024
▁изи	-10.9027
▁алл	-10.9028
▁улагч	-10.9031
▁дэж	-10.9031
▁өрөөд	-10.9034
өсөө	-10.9041
▁огдол	-10.9043
▁илл	-10.9045
▁длаас	-10.9054
▁элий	-10.9067
К	-10.9069
▁УВС	-10.909
▁Жо	-10.9092
▁өрс	-10.9095
▁амаа	-10.9099
▁ором	-10.9104
▁лэнэ	-10.9105
▁үлэгч	-10.9108
▁Бая	-10.9112
▁хама	-10.9112
▁st	-10.9114
al	-10.9117
▁жгүй	-10.9118
▁k	-10.9146
▁Эмч	-10.9147
▁нцг	-10.9154
▁ршла	-10.9155
▁зөн	-10.9156
▁йлга	-10.9157
▁Зо	-10.9161
▁мра	-10.9163
▁ваг	-10.9165
▁Ну	-10.9167
▁рман	-10.9173
▁@	-10.9185
▁Нар	-10.9189
▁Хор	-10.9192
▁Ди	-10.9199
▁агса	-10.9212
▁рилт	-10.9229
la	-10.923
▁үлэлт	-10.9236
▁лтаа	-10.9249
▁7-	-10.9254
▁айна	-10.926
▁тгэх	-10.9263
▁алс	-10.9268
ri	-10.9273
▁рек	-10.9273
▁ндра	-10.9285
▁Post	-10.9285
▁джээ	-10.9286
▁Бе	-10.9287
өн	-10.9299
▁уршил	-10.9301
аан	-10.9313
▁Ch	-10.9332
▁Юм	-10.9357
▁овло	-10.9358
▁лдэ	-10.9361
▁хоро	-10.9369
▁ням	-10.9369
▁үрдэ	-10.9378
▁сса	-10.938
ос	-10.9384
▁ийв	-10.939
▁лгав	-10.9399
өх	-10.9409
▁во	-10.9437
▁Үл	-10.9451
▁for	-10.9466
▁анди	-10.947
ас	-10.9471
▁галаа	-10.9474
▁Co	-10.9478
▁умын	-10.949
▁2-3	-10.9494
▁рб	-10.9499
▁гчийг	-10.9511
▁анса	-10.9514
▁кг	-10.9514
▁гон	-10.9521
▁үүдээ	-10.9521
▁Ио	-10.9532
▁рилц	-10.9533
▁лдаан	-10.9538
▁өртэй	-10.954
▁Nex	-10.954
▁үүг	-10.9552
50	-10.956
▁3.	-10.956
uck	-10.9574
▁Хөл	-10.9574
▁хоор	-10.9574
▁Ес	-10.9577
▁do	-10.958
▁ЭНД	-10.9593
Й	-10.9593
зар	-10.96
▁6-	-10.9604
▁Prev	-10.9612
▁рим	-10.9614
▁код	-10.963
▁учраа	-10.9636
▁өмө	-10.9639
▁ег	-10.9641
▁→	-10.9641
▁ээнэ	-10.9641
▁радио	-10.9644
▁Аж	-10.9649
▁УИС	-10.9651
▁рүүд	-10.9668
▁лцаа	-10.967
ем	-10.9672
▁it	-10.9677
▁Эл	-10.9678
▁рта	-10.9679
▁рго	-10.9682
▁мнэл	-10.9693
▁см	-10.9696
▁Гоол	-10.9701
▁нху	-10.9718
▁нган	-10.9719
ро	-10.9722
▁мэн	-10.9726
нд	-10.9733
▁ймэр	-10.9748
▁гаца	-10.9748
▁Ким	-10.9751
▁инаа	-10.9756
▁ra	-10.9762
▁олгоо	-10.9763
▁гой	-10.9763
▁Ду	-10.9764
▁мжилт	-10.9767
▁цуг	-10.977
▁ртэ	-10.9782
▁иц	-10.9785
▁ялал	-10.979
▁рыг	-10.9798
▁ср	-10.9807
лагы	-10.981
▁лоос	-10.9812
▁ичих	-10.9813
▁Муу	-10.9821
▁ндо	-10.983
▁ргэд	-10.9843
▁анууд	-10.9851
▁йгуул	-10.9866
▁үзүү	-10.9879
▁эвт	-10.9883
▁Ре	-10.9884
яд	-10.9887
ха	-10.9888
j	-10.9899
▁An	-10.9903
▁уйц	-10.9917
кс	-10.9918
ce	-10.9925
▁мжаа	-10.9939
▁аги	-10.9953
re	-10.9961
▁акци	-10.9962
▁голд	-10.9964
им	-10.998
▁ем	-10.998
АР	-10.9994
▁байг	-11.0008
▁by	-11.0014
▁соё	-11.0015
▁уди	-11.0019
▁оди	-11.0021
▁сүм	-11.0023
▁Эс	-11.003
АА	-11.0037
▁ерө	-11.0039
▁Com	-11.0048
▁мэгд	-11.0049
▁уулиа	-11.005
▁рли	-11.0057
▁лэнг	-11.0067
▁амраг	-11.0073
▁ft	-11.0074
on	-11.008
▁Ча	-11.0084
▁лож	-11.0086
▁мла	-11.011
▁4.	-11.0114
сөн	-11.0125
▁Ло	-11.0135
▁үзэгд	-11.0139
▁еэ	-11.0141
▁29	-11.0162
▁үүрс	-11.0164
▁1.	-11.0168
▁ива	-11.018
▁Цө	-11.0184
▁чан	-11.0188
H	-11.0194
▁es	-11.0196
▁вийг	-11.02
▁харь	-11.021
▁un	-11.0217
▁лма	-11.022
▁Ий	-11.0225
▁арал	-11.0227
МБ	-11.0244
▁ях	-11.0268
▁мгүй	-11.0272
▁тоос	-11.0277
▁лин	-11.0278
▁рууд	-11.0287
▁харх	-11.029
▁үеэ	-11.0322
▁la	-11.0356
▁элдээ	-11.0358
▁льд	-11.0364
▁ео	-11.0371
▁чана	-11.0372
▁унга	-11.0381
▁дгүй	-11.0381
▁ous	-11.0392
▁co	-11.0403
▁мэр	-11.0404
▁нов	-11.0405
▁Өд	-11.0423
фи	-11.0427
▁гнэ	-11.0431
▁андах	-11.0441
▁лчих	-11.0444
▁драл	-11.0461
▁бор	-11.0473
▁ийж	-11.0494
▁адах	-11.0498
нь	-11.05
▁жит	-11.0501
▁үүлэн	-11.0522
▁өдрө	-11.0541
▁дээж	-11.0542
▁пар	-11.0542
▁рчи	-11.0543
▁31	-11.0543
▁алг	-11.0548
▁адм	-11.0556
ing	-11.0561
▁ары	-11.057
▁цаар	-11.057
▁агууд	-11.0577
▁вин	-11.0578
▁мен	-11.0578
▁лтгэл	-11.0592
▁Шү	-11.0595
▁үмн	-11.0606
ьт	-11.0609
▁акц	-11.0611
▁гийг	-11.0614
▁tube	-11.0617
▁алгаа	-11.0619
▁рхан	-11.0622
▁лдар	-11.0623
▁йши	-11.0624
▁амг	-11.0646
▁уура	-11.065
▁Өм	-11.0654
▁гэрл	-11.0657
▁Al	-11.0658
П	-11.0658
▁аарал	-11.0661
▁длы	-11.0663
▁ro	-11.0663
▁Эрдэ	-11.0679
▁болз	-11.0683
▁гса	-11.0686
▁охгүй	-11.0686
▁Mic	-11.0689
▁дтэй	-11.0698
▁лбэр	-11.0703
▁инжи	-11.0731
▁(0)	-11.0732
▁сноо	-11.0734
▁гэлз	-11.0735
▁ирт	-11.0749
тер	-11.075
▁учра	-11.0762
▁араал	-11.0766
▁CO	-11.0767
▁li	-11.0778
▁w	-11.0778
ок	-11.0781
▁is	-11.0799
үтгэ	-11.0819
▁риа	-11.0822
6	-11.0836
▁өгийн	-11.0846
▁mi	-11.0848
чид	-11.0848
▁шор	-11.0849
▁одлог	-11.0858
▁лил	-11.0867
▁рууг	-11.0884
▁амр	-11.0896
▁ї	-11.0904
▁Ев	-11.0908
▁8-	-11.093
▁лана	-11.0936
ум	-11.0942
▁ехн	-11.0945
▁үрс	-11.0947
өлө	-11.0951
даг	-11.0955
um	-11.096
▁read	-11.0965
▁огчид	-11.0966
▁глэл	-11.0977
▁you	-11.0982
▁de	-11.0991
▁ари	-11.1002
▁вг	-11.1011
▁чдэ	-11.1011
▁Пи	-11.1017
бо	-11.1017
▁рийг	-11.1023
▁(1)	-11.1025
▁йнхээ	-11.1025
▁ber	-11.1026
ага	-11.104
▁хэмж	-11.1041
▁тгэж	-11.1043
▁рьс	-11.1063
үй	-11.1065
▁Ни	-11.1072
▁зүрх	-11.1085
▁льт	-11.109
▁нхаа	-11.1096
▁яр	-11.1114
▁йва	-11.1115
▁өндө	-11.1116
▁жий	-11.1123
▁өөж	-11.1131
▁32	-11.1142
▁Тө	-11.1146
▁зэх	-11.1149
▁дарч	-11.1156
▁орв	-11.1156
▁бама	-11.116
▁io	-11.116
▁рчээ	-11.1163
▁мгэ	-11.1163
▁ттер	-11.1163
▁ТХ	-11.1165
▁аралт	-11.1168
лыг	-11.1168
▁өвчи	-11.1168
▁нэх	-11.1172
▁лцоог	-11.1181
▁oo	-11.1185
▁аяж	-11.1194
▁For	-11.1202
▁урч	-11.1203
▁өрө	-11.1206
▁адга	-11.1218
ле	-11.1237
▁ерм	-11.1239
▁Дар	-11.1263
▁УБ	-11.1278
до	-11.1286
▁зм	-11.129
▁цах	-11.1296
▁эмжи	-11.1309
▁айды	-11.131
▁яз	-11.1317
▁плат	-11.1326
▁ian	-11.133
▁comm	-11.1331
▁мет	-11.1338
▁анар	-11.1342
▁хийс	-11.1342
▁дги	-11.1343
тэй	-11.1355
▁лосо	-11.1359
▁нтай	-11.137
▁нчи	-11.1374
АХ	-11.1377
▁сэх	-11.1383
▁400	-11.1394
▁уурь	-11.1397
▁авх	-11.1398
▁хүсэ	-11.141
▁ажи	-11.1424
10	-11.1429
▁48	-11.1437
▁гто	-11.1438
▁сло	-11.144
▁уйд	-11.1456
▁элэх	-11.147
▁ачих	-11.1471
▁утги	-11.1473
EE	-11.1476
▁ОР	-11.1486
▁сад	-11.1487
▁Ня	-11.149
бар	-11.1508
▁Tube	-11.1511
▁ккк	-11.1515
▁Wor	-11.1517
▁лад	-11.1531
▁рни	-11.1534
▁хих	-11.1538
▁150	-11.1554
▁Хүүх	-11.1559
чла	-11.1559
▁оог	-11.1559
▁хэс	-11.1566
▁лэхэд	-11.1575
▁хла	-11.1575
▁рчид	-11.159
▁гний	-11.1596
▁ува	-11.1597
▁урв	-11.16
Их	-11.1605
▁вши	-11.1611
▁upd	-11.1613
▁Зам	-11.1615
▁эдээ	-11.1619
▁гжи	-11.1625
▁Ус	-11.1627
▁лбо	-11.1628
▁уца	-11.1637
▁дуун	-11.1643
▁энц	-11.1645
▁Q	-11.1649
▁2.	-11.1658
АН	-11.1667
▁эрвэ	-11.1672
ME	-11.1674
▁үлэ	-11.1692
лаг	-11.1694
▁Урт	-11.1704
il	-11.1705
ra	-11.1709
▁тагд	-11.171
аас	-11.1714
▁алц	-11.1716
▁сго	-11.1718
▁илг	-11.1749
▁агла	-11.1749
▁be	-11.1761
▁гта	-11.1762
▁удлын	-11.1763
▁үндэт	-11.1771
▁ууууу	-11.1772
▁авьж	-11.1777
▁ахав	-11.1785
▁33	-11.1793
▁ros	-11.1801
▁ршил	-11.1804
▁бби	-11.1818
▁мэг	-11.1833
▁авиа	-11.1841
▁мга	-11.1846
▁цийг	-11.1846
▁se	-11.1852
▁айг	-11.1857
▁дийг	-11.1876
▁алах	-11.1882
▁ӨСҮТ	-11.1892
▁лдө	-11.1894
ѳѳ	-11.1906
▁дөж	-11.1916
-5	-11.193
▁члөл	-11.1932
▁Soni	-11.1957
▁НАСА	-11.1958
▁ly	-11.1961
▁ХУ	-11.1973
▁ийсэн	-11.1973
▁зуу	-11.1975
▁вга	-11.1979
▁уруул	-11.199
▁рг	-11.1995
▁улал	-11.1996
хай	-11.1999
▁иас	-11.1999
▁ави	-11.2005
▁үнээ	-11.2009
▁өгжи	-11.2028
ее	-11.205
▁ээлт	-11.2062
▁төлө	-11.2075
ang	-11.2077
▁цөм	-11.2084
▁үстэй	-11.2089
▁үдийг	-11.2093
▁ггүй	-11.2096
▁Мэд	-11.2107
▁залг	-11.2109
▁год	-11.2109
▁Mo	-11.211
▁эрж	-11.2117
▁удд	-11.2117
▁вир	-11.2133
▁иар	-11.2136
ес	-11.2143
▁члэ	-11.2151
▁Ком	-11.2152
▁элнэ	-11.2165
▁лхам	-11.2165
▁чигд	-11.2166
▁аргүй	-11.2169
▁йлчл	-11.217
▁9-	-11.2174
▁лдэх	-11.2184
▁лалт	-11.2185
▁єг	-11.2193
▁Сэ	-11.2231
▁нэний	-11.2237
▁Нь	-11.2248
▁элг	-11.2258
арт	-11.2261
▁Шө	-11.2267
▁өөл	-11.2268
Ер	-11.227
-2	-11.2275
▁тата	-11.2279
ме	-11.2287
▁ИТХ	-11.2288
NUM	-11.229
ar	-11.2294
▁шигл	-11.2297
ack	-11.2305
▁арих	-11.2307
▁Bo	-11.2311
▁тин	-11.234
▁хэлээ	-11.2341
агда	-11.2343
▁слэ	-11.2346
▁ЗГ	-11.2348
▁робот	-11.2355
▁эвс	-11.236
▁эжи	-11.2363
▁гдсөн	-11.2366
дсэн	-11.238
0	-11.238
▁НД	-11.2383
▁ge	-11.2388
ЕГ	-11.245
▁Над	-11.245
▁ной	-11.2457
▁Че	-11.2463
ght	-11.2464
▁уры	-11.2468
те	-11.247
▁j	-11.2483
▁веб	-11.2494
▁рок	-11.2495
▁ur	-11.2501
▁нна	-11.2505
▁эсэг	-11.252
▁000	-11.2527
▁man	-11.2532
▁сга	-11.2538
▁атла	-11.254
▁єє	-11.2543
▁йсан	-11.2558
▁лшгүй	-11.2562
▁еле	-11.2569
30	-11.2573
ут	-11.2576
tt	-11.2578
▁тта	-11.2587
тө	-11.2608
пи	-11.2629
▁May	-11.2631
▁ents	-11.2634
▁анца	-11.2636
▁ar	-11.264
▁эрнэ	-11.2646
▁акад	-11.2659
▁өрий	-11.266
Яг	-11.2665
▁ашины	-11.2665
se	-11.2677
▁лгас	-11.2687
▁зэж	-11.2689
]	-11.2693
ис	-11.2703
▁In	-11.2706
▁us	-11.2706
▁цаж	-11.2715
▁илч	-11.2717
▁амб	-11.2728
▁арам	-11.2739
гар	-11.274
▁элээ	-11.2747
▁je	-11.2753
▁астай	-11.2776
ед	-11.2785
▁аниу	-11.2786
▁авхар	-11.2787
▁рхий	-11.2794
лгы	-11.2814
▁тна	-11.2817
ck	-11.2846
OS	-11.2853
▁гис	-11.2864
▁урла	-11.2866
▁шилт	-11.288
▁өвс	-11.2908
vi	-11.2913
▁star	-11.2913
▁!!!	-11.2913
▁алар	-11.2922
ЭГ	-11.2923
▁нин	-11.2923
▁IP	-11.2927
▁лдан	-11.2927
▁рро	-11.2933
гоц	-11.2945
▁цээнд	-11.2947
ОО	-11.2983
мьсг	-11.2985
▁Twit	-11.2985
▁цөө	-11.2986
▁Sam	-11.301
▁34	-11.3019
▁Wi	-11.3021
уй	-11.3029
▁йвал	-11.3056
▁^	-11.3058
▁Tag	-11.3058
▁рилга	-11.3097
▁наж	-11.3098
▁эсээ	-11.311
0%	-11.3113
▁Сө	-11.3114
вс	-11.3115
▁рог	-11.3125
▁ех	-11.3126
▁ву	-11.315
▁уулав	-11.3155
▁Go	-11.3159
▁йдэ	-11.3164
▁рөг	-11.3165
▁рсөл	-11.3165
▁ББ	-11.3169
▁олс	-11.3173
▁бит	-11.3182
ди	-11.3186
am	-11.3186
▁йли	-11.319
▁75	-11.3193
8	-11.3202
▁айда	-11.3224
vv	-11.3247
ия	-11.3248
▁зин	-11.325
▁аргуу	-11.3282
▁ЕХ	-11.3283
▁ХБ	-11.3284
▁рши	-11.3285
▁слам	-11.3286
▁гсаа	-11.3314
▁Uni	-11.3324
▁ддэг	-11.3326
▁цэл	-11.333
▁Ст	-11.334
▁рөх	-11.335
▁рхо	-11.3357
АБ	-11.3361
осо	-11.3369
▁мате	-11.3374
▁тэт	-11.3394
▁ni	-11.3398
▁вах	-11.3407
▁лүүлж	-11.3409
▁ie	-11.3436
▁рхл	-11.3438
▁фор	-11.344
W	-11.3442
▁арьж	-11.3448
▁вы	-11.3461
▁ce	-11.3471
▁La	-11.3472
▁амга	-11.348
it	-11.3484
▁рдэ	-11.3491
▁бил	-11.3498
40	-11.3501
▁ичиж	-11.3504
▁рьсан	-11.3507
▁нэлт	-11.3509
▁ьтай	-11.351
▁нгол	-11.3525
▁хдаг	-11.3539
▁лтаар	-11.3564
▁next	-11.358
▁ерт	-11.3584
▁нуха	-11.3586
Ь	-11.359
▁ови	-11.359
▁ma	-11.3593
▁ыха	-11.3596
▁амтар	-11.36
▁эзэ	-11.3625
▁аца	-11.3641
▁рэм	-11.365
our	-11.3651
ub	-11.3656
▁ед	-11.3657
▁нгөөр	-11.3657
▁сгий	-11.3667
▁хя	-11.3674
илга	-11.3686
▁ta	-11.3701
▁жам	-11.3719
▁ууг	-11.3721
all	-11.373
▁илд	-11.3731
▁микр	-11.3735
▁салт	-11.375
▁ойг	-11.3755
▁атл	-11.3758
▁ll	-11.3759
ово	-11.3763
$	-11.3795
▁ила	-11.3795
▁арс	-11.3795
▁ада	-11.3796
▁Дү	-11.3797
▁нада	-11.3814
▁заяа	-11.3817
ве	-11.3828
ерс	-11.3842
00	-11.385
сс	-11.3853
▁We	-11.3855
▁урта	-11.3858
▁ba	-11.3877
▁голо	-11.388
▁хайн	-11.3887
▁III	-11.3892
▁аата	-11.3902
▁варла	-11.3921
▁ууш	-11.3927
▁янг	-11.3932
▁слэл	-11.3962
▁🙂	-11.3971
▁гэлэн	-11.3976
ill	-11.3977
▁Ле	-11.3979
▁si	-11.3989
▁олын	-11.3996
▁ренд	-11.3997
▁гдан	-11.4001
▁36	-11.4002
▁АХ	-11.4003
се	-11.4022
▁кий	-11.4024
▁Mon	-11.4031
th	-11.4033
▁хлэ	-11.4038
▁үүт	-11.404
▁Бар	-11.404
гч	-11.405
▁Евро	-11.405
▁гав	-11.4066
▁чат	-11.407
▁йны	-11.4071
оз	-11.4078
▁зэс	-11.409
▁драх	-11.41
▁US	-11.4105
оо	-11.4112
▁тра	-11.4113
;	-11.4124
▁roid	-11.4131
▁ung	-11.4135
▁УУД	-11.4135
▁элзэ	-11.4144
▁гас	-11.4145
▁Шар	-11.4148
гай	-11.415
▁чм	-11.4163
▁эгий	-11.4186
эж	-11.4186
▁Вэ	-11.4191
▁осо	-11.4192
60	-11.4207
▁рнэ	-11.4209
▁Me	-11.421
▁pro	-11.4213
▁амтр	-11.4213
▁инст	-11.4219
ash	-11.4227
▁эмд	-11.4229
▁арв	-11.423
▁нши	-11.4239
▁ших	-11.4248
est	-11.425
▁вө	-11.4258
nter	-11.426
▁Fi	-11.4263
▁ica	-11.4265
▁Дор	-11.4272
▁Mi	-11.4273
▁гац	-11.4275
.1	-11.4275
▁ZAR	-11.4295
VID	-11.4299
▁мчи	-11.4299
ью	-11.4305
▁лдэж	-11.4306
▁5.	-11.4319
▁глаа	-11.4329
▁мш	-11.4329
▁АМ	-11.4344
▁go	-11.4348
▁жоо	-11.4351
▁OS	-11.436
хи	-11.4365
▁хөд	-11.4371
▁₮	-11.4377
▁ред	-11.4384
▁ирсан	-11.4388
агаа	-11.4397
▁эб	-11.4405
ut	-11.4421
▁лоод	-11.4423
йн	-11.4448
ard	-11.4458
▁жор	-11.4462
▁омын	-11.4466
▁орын	-11.4476
ЭР	-11.4476
70	-11.4479
▁ссэ	-11.449
▁яма	-11.4521
▁сси	-11.4541
▁ОНГОЛ	-11.4545
ИС	-11.4546
▁уссан	-11.4548
▁вса	-11.4555
▁ардам	-11.4559
▁br	-11.456
▁49	-11.457
▁ндар	-11.4582
АГ	-11.4589
ud	-11.4592
▁ртг	-11.4605
▁алаас	-11.4608
▁рмаа	-11.461
еле	-11.4612
▁рдо	-11.462
▁art	-11.4633
▁ial	-11.4634
▁ОХ	-11.4642
ro	-11.4643
un	-11.4653
▁зэм	-11.4658
▁уудл	-11.4666
▁ужи	-11.4674
me	-11.4691
▁арта	-11.4709
▁унда	-11.4711
▁үүлээ	-11.4713
▁day	-11.4716
ез	-11.472
кер	-11.4723
▁өсөл	-11.4726
▁варга	-11.4726
▁(1	-11.4737
▁Inst	-11.4749
▁шог	-11.4749
▁удла	-11.4751
олго	-11.4769
▁АТ	-11.4791
▁Play	-11.4801
▁zon	-11.4809
▁өхгүй	-11.4809
▁АТГ	-11.4818
▁лби	-11.4822
▁ууна	-11.4825
▁Иер	-11.4826
▁вийн	-11.4829
▁сэдэ	-11.4835
▁нца	-11.4836
▁рилж	-11.4836
▁өлд	-11.4849
9	-11.4866
▁цыг	-11.4867
▁Cas	-11.4871
▁олдоо	-11.4884
▁улуу	-11.4886
ne	-11.4887
▁gram	-11.4888
ЭХ	-11.489
▁нес	-11.4902
▁Гоё	-11.4903
▁утаг	-11.4934
▁УУЛ	-11.4938
ss	-11.4939
▁ОК	-11.4944
▁эвлэл	-11.4954
▁Хон	-11.4958
▁Де	-11.496
▁жс	-11.4963
▁үүжи	-11.4974
▁dur	-11.498
▁галж	-11.4989
▁хэрэ	-11.4997
▁икийн	-11.5011
▁Ван	-11.5013
▁нер	-11.5019
▁эмц	-11.5045
ели	-11.5047
▁Өнө	-11.506
▁ex	-11.5067
▁мини	-11.5071
▁апп	-11.5075
▁арха	-11.5075
▁єєр	-11.5084
▁өсөн	-11.5091
▁хнээ	-11.5093
▁эртэй	-11.5094
▁mo	-11.5096
▁гя	-11.5106
▁лгана	-11.5117
ӨӨ	-11.5117
▁талт	-11.5129
▁Зул	-11.5131
▁өхөө	-11.5142
'	-11.5146
▁лье	-11.5164
▁УР	-11.5169
▁Ene	-11.517
▁йтг	-11.5174
▁эги	-11.5182
▁туу	-11.5184
▁нци	-11.5193
▁аам	-11.5197
▁лэлээ	-11.5199
▁ума	-11.5199
▁лзал	-11.5209
▁дил	-11.5225
▁уууу	-11.523
Z	-11.5236
▁ажуу	-11.5238
ОХ	-11.524
▁SEO	-11.5244
▁°	-11.5244
▁эхээ	-11.5251
▁орин	-11.5252
▁дгээ	-11.5264
▁net	-11.5272
▁Ha	-11.5284
▁єр	-11.5294
тэр	-11.5301
▁артаа	-11.5334
▁лсэ	-11.534
▁онгон	-11.5349
ори	-11.5351
▁дда	-11.5352
or	-11.5354
▁өрдө	-11.5358
АМ	-11.5362
▁om	-11.5368
▁55	-11.5371
ear	-11.5383
▁усах	-11.5384
луу	-11.5392
▁Үх	-11.5395
de	-11.5408
▁me	-11.5414
ку	-11.5415
▁42	-11.5422
▁Янз	-11.5426
▁берт	-11.543
▁Le	-11.5443
▁улжээ	-11.5446
▁bo	-11.545
ta	-11.5452
SS	-11.5457
▁МН	-11.5463
▁АЙ	-11.5464
▁миа	-11.547
ap	-11.5474
▁яна	-11.548
▁Ja	-11.5499
▁срэ	-11.5499
▁үйч	-11.5508
▁line	-11.552
▁ААН	-11.5522
▁нүх	-11.5543
▁рэ	-11.5545
▁мир	-11.5548
▁ЗЭ	-11.5555
▁анху	-11.557
sh	-11.5576
▁ice	-11.5578
▁унаа	-11.5596
▁лов	-11.5597
▁ян	-11.5606
▁Egu	-11.5612
▁тэнэ	-11.5615
▁ьт	-11.5627
▁Ma	-11.5631
▁Чин	-11.5634
▁38	-11.5662
▁рем	-11.5679
▁рат	-11.5688
ҮҮ	-11.569
ул	-11.5692
▁Он	-11.5698
▁оот	-11.57
▁Үе	-11.5702
▁гра	-11.5703
ами	-11.5703
▁Off	-11.5707
▁ec	-11.5707
▁блок	-11.5709
▁ey	-11.5715
▁длээ	-11.5721
▁шим	-11.5723
▁ess	-11.5732
▁Be	-11.5732
▁ТАЙ	-11.5735
УУ	-11.5736
▁Өр	-11.5738
▁мана	-11.5745
▁ҮҮ	-11.5745
▁Pres	-11.5757
▁гөр	-11.5766
▁сөө	-11.5772
▁ныха	-11.5773
▁зөр	-11.5779
ent	-11.5783
▁лтуу	-11.5785
ук	-11.5785
▁ТВ	-11.5798
20	-11.5801
▁{	-11.5802
▁хүлэ	-11.5806
▁исте	-11.5808
▁600	-11.5812
▁улав	-11.5815
ель	-11.5817
▁ник	-11.5832
▁огс	-11.5836
▁ьта	-11.5845
▁ki	-11.5853
▁гат	-11.5854
ип	-11.5864
▁лдээ	-11.5872
▁айва	-11.5884
▁эдэв	-11.5887
ви	-11.5894
▁алла	-11.5896
▁Jun	-11.5896
▁гдэн	-11.5903
▁хат	-11.5905
▁Rea	-11.5912
▁анз	-11.5924
өтөл	-11.5927
up	-11.5942
▁эцүү	-11.5943
▁250	-11.5959
лет	-11.5976
TS	-11.5977
▁Наа	-11.598
ев	-11.6
▁рсд	-11.6006
▁44	-11.6011
em	-11.6013
▁усаа	-11.6018
▁УЗ	-11.6023
▁up	-11.6033
▁огтв	-11.604
▁нгас	-11.6058
▁жийн	-11.6059
▁үүсэ	-11.6069
ск	-11.607
▁App	-11.6078
▁Ээ	-11.6086
▁ble	-11.6095
▁өөг	-11.6097
▁тын	-11.6102
▁Цэ	-11.6103
▁Ad	-11.6123
аалг	-11.6125
ph	-11.6127
▁ei	-11.6134
▁Лав	-11.6138
▁тгий	-11.6142
▁ону	-11.6144
▁Хөх	-11.6145
▁шээ	-11.6147
▁улш	-11.615
▁элэ	-11.615
▁ахы	-11.6151
▁end	-11.6153
▁Man	-11.6155
▁друу	-11.6158
▁op	-11.6169
▁ЗХ	-11.6179
▁ухал	-11.6182
▁bi	-11.6185
▁айв	-11.6193
▁гїй	-11.6193
▁Хур	-11.6195
ОЛ	-11.6197
▁илсан	-11.6197
▁ахаа	-11.6198
▁тами	-11.6199
үн	-11.6201
▁Ге	-11.621
▁ad	-11.6228
▁My	-11.6231
▁65	-11.6233
▁элжээ	-11.6243
▁ive	-11.6244
▁үүлэ	-11.6245
▁туг	-11.6269
▁сэнээ	-11.6281
▁оооо	-11.6288
▁Page	-11.6292
▁ѳ	-11.6296
▁галын	-11.6309
▁76	-11.6321
▁йлан	-11.6331
▁09	-11.6337
▁иеэ	-11.6341
▁AM	-11.6343
▁цон	-11.6347
ff	-11.6354
▁єв	-11.6359
▁дуга	-11.6365
▁дна	-11.6376
.3	-11.638
▁str	-11.6388
ISO	-11.6393
▁sub	-11.6398
▁ололт	-11.6399
▁ine	-11.6403
▁ОМ	-11.6408
▁nt	-11.641
лаж	-11.6415
аз	-11.6418
▁бри	-11.6433
▁son	-11.6442
,5	-11.6449
де	-11.6453
▁Nov	-11.6461
▁Ci	-11.6463
▁Ве	-11.647
▁боди	-11.6482
q	-11.6488
еф	-11.6494
▁Air	-11.6495
уучи	-11.6496
▁нчлэ	-11.6498
▁хойн	-11.6507
▁sh	-11.6509
▁ллэ	-11.6509
ast	-11.6521
▁арх	-11.6538
ni	-11.6545
▁үзэг	-11.655
▁амыг	-11.6552
▁39	-11.6563
▁Пе	-11.6574
▁дөрв	-11.6577
▁Шо	-11.6581
▁уж	-11.6597
▁Si	-11.6598
▁арууд	-11.6599
▁Паул	-11.6607
▁стай	-11.6609
▁lo	-11.6614
li	-11.6638
▁рол	-11.6642
▁pre	-11.6645
▁ure	-11.6657
▁үндэ	-11.6659
▁вли	-11.6662
eb	-11.6666
ve	-11.6666
▁di	-11.6671
ote	-11.6702
▁(2)	-11.6703
ad	-11.6703
BA	-11.6705
▁її	-11.6707
▁Time	-11.6708
▁ого	-11.6711
-6	-11.6717
op	-11.6722
▁Se	-11.6726
АС	-11.673
▁Хэр	-11.6736
▁Ro	-11.6737
яа	-11.6741
▁PM	-11.6758
Ы	-11.6765
▁эрли	-11.6777
▁gi	-11.6792
▁con	-11.6795
▁суэл	-11.6807
▁porn	-11.6808
▁nce	-11.6808
▁ЕГ	-11.6817
▁лдог	-11.6823
▁хсэн	-11.6832
▁ати	-11.6833
▁тэмд	-11.6842
▁Ama	-11.6847
▁тэнг	-11.685
▁асны	-11.6851
▁Ти	-11.6853
▁рма	-11.6853
▁окс	-11.6863
▁цад	-11.6863
▁St	-11.6887
▁НБ	-11.6888
▁цам	-11.6894
co	-11.69
▁мер	-11.6904
▁лза	-11.6906
▁уулч	-11.6906
▁El	-11.6908
lack	-11.6923
▁лхэ	-11.6928
▁ээвэ	-11.6928
▁үүлнэ	-11.6937
▁БС	-11.6947
▁120	-11.6955
▁чээд	-11.6957
▁адгүй	-11.6971
ell	-11.6973
▁манд	-11.6974
▁Jan	-11.6977
▁акал	-11.6978
▁аатга	-11.6992
▁ады	-11.7005
▁Da	-11.7009
J	-11.7014
▁лтийг	-11.7014
▁члэл	-11.7016
▁Free	-11.7021
лого	-11.7023
▁рца	-11.7063
▁үдээс	-11.7066
▁лиа	-11.7099
▁Гадаа	-11.7131
▁Apr	-11.7132
▁дана	-11.7134
▁цл	-11.714
▁хсан	-11.715
▁nd	-11.7151
▁сда	-11.7152
es	-11.7158
▁рхүү	-11.7164
▁ира	-11.718
▁ha	-11.7184
▁алет	-11.7185
бе	-11.7187
im	-11.7203
▁уйда	-11.7204
▁гарда	-11.7206
▁лээг	-11.722
▁өхий	-11.7224
▁ака	-11.723
▁рхэ	-11.7234
▁World	-11.724
▁өхцөл	-11.7241
▁On	-11.7243
▁ТА	-11.7247
▁жинд	-11.725
na	-11.7253
▁ллага	-11.726
▁уртай	-11.7268
▁All	-11.7272
▁пуу	-11.7277
▁авчи	-11.7279
▁Gam	-11.7285
IS	-11.7288
▁лосон	-11.73
▁ики	-11.7302
▁сдын	-11.7309
▁37	-11.7312
▁лжиг	-11.7313
▁баярт	-11.7316
ъ	-11.7317
▁зөвш	-11.7317
▁үрий	-11.7318
ah	-11.7319
▁илц	-11.7322
▁Un	-11.7325
ick	-11.7328
▁хэх	-11.7342
Ф	-11.7344
▁Мах	-11.7345
▁аатг	-11.7346
▁}	-11.7351
▁ЖИЛ	-11.7357
▁шив	-11.7358
▁өрөм	-11.7358
оти	-11.7361
▁хаад	-11.7366
▁Sc	-11.7381
▁хдаа	-11.7383
ков	-11.7384
▁учин	-11.7384
▁pe	-11.7403
▁sp	-11.7411
▁Su	-11.7415
▁уулал	-11.7417
mp	-11.7418
▁же	-11.7431
рдэм	-11.7435
▁айк	-11.7444
▁Par	-11.7444
▁ka	-11.7446
ol	-11.7452
▁ТЭЙ	-11.7465
▁үрэх	-11.7465
мо	-11.7466
▁илла	-11.7471
▁лгөө	-11.7476
▁улдаг	-11.7477
▁51	-11.7478
▁lt	-11.7482
▁am	-11.7486
▁еги	-11.7493
▁эдрэ	-11.7495
▁лайн	-11.7499
▁Ру	-11.7514
▁Dec	-11.7515
ul	-11.7515
Эх	-11.752
▁гарал	-11.7521
▁Лам	-11.7523
▁иад	-11.7525
▁--	-11.7527
▁иу	-11.7535
▁всан	-11.7538
▁He	-11.7552
▁дахи	-11.7563
▁ul	-11.757
▁элмэ	-11.7578
▁ээш	-11.7589
▁ИНЭ	-11.7594
▁үсэл	-11.7597
▁лонго	-11.7603
▁da	-11.7613
▁йла	-11.7618
▁Зе	-11.7619
▁Do	-11.7627
▁тагт	-11.763
▁онсо	-11.7633
▁йлдэ	-11.7634
▁вак	-11.7636
▁нох	-11.7646
▁КО	-11.7654
▁ук	-11.7667
▁атал	-11.7668
▁лгүү	-11.7671
▁туга	-11.7681
ОЙ	-11.7691
▁учи	-11.7696
▁ЭДЭЭ	-11.7696
▁улта	-11.771
▁ронз	-11.7712
▁Lo	-11.7717
▁Car	-11.7717
▁as	-11.7722
▁Тоо	-11.7746
▁мя	-11.7747
▁угай	-11.7752
▁өрг	-11.7753
ed	-11.7757
▁таж	-11.7763
▁сүл	-11.7769
si	-11.7779
▁Вик	-11.7784
ake	-11.7791
▁вра	-11.7795
▁шүд	-11.7799
мж	-11.7804
▁3-4	-11.7809
▁Oct	-11.781
ёо	-11.7812
▁йдаг	-11.7818
▁ОТО	-11.7826
ке	-11.7826
ГИ	-11.7829
▁авд	-11.7834
▁скар	-11.7843
▁шилд	-11.7844
▁алу	-11.7844
эк	-11.7847
▁рлээ	-11.7848
▁рүүлж	-11.7853
▁ранд	-11.7854
▁58	-11.7863
▁Жу	-11.7871
оп	-11.7874
▁cat	-11.7875
лай	-11.7878
▁улэг	-11.7888
▁1,	-11.7889
▁лиар	-11.789
▁эст	-11.7895
БХ	-11.7895
▁сэж	-11.7909
▁алдаж	-11.7919
▁оло	-11.7925
▁хиро	-11.793
▁ртал	-11.7932
▁ДӨР	-11.7933
▁бодл	-11.7939
▁чоод	-11.794
▁глө	-11.7948
▁Бүс	-11.7958
▁ррор	-11.7958
▁АД	-11.7969
▁рус	-11.7975
▁Li	-11.7977
▁ЗД	-11.7991
▁лен	-11.7993
▁ЫН	-11.7995
өрвө	-11.8
.2	-11.8015
▁1:	-11.8018
ман	-11.8032
▁аях	-11.8035
▁хлэг	-11.8039
▁дри	-11.8047
▁хүрэ	-11.8051
▁my	-11.8051
▁IT	-11.8054
▁анта	-11.8056
▁икол	-11.8061
▁ip	-11.8066
▁үрэм	-11.8087
▁Сур	-11.8099
▁ёр	-11.8107
▁угл	-11.8118
из	-11.812
▁улза	-11.8121
▁ваар	-11.8121
▁омо	-11.8125
щ	-11.8129
▁Амь	-11.8129
▁ргас	-11.813
▁овор	-11.8136
▁трэ	-11.8136
ї	-11.8138
▁йлс	-11.8156
▁хөөс	-11.8161
▁эви	-11.8164
▁ХҮН	-11.8166
▁more	-11.8166
▁2:	-11.8166
▁Ub	-11.8169
▁TV	-11.817
▁нсар	-11.8171
▁иб	-11.818
▁нхий	-11.8185
▁эсэн	-11.8193
▁өмд	-11.8194
▁ахь	-11.8199
▁өлөгч	-11.82
▁vi	-11.8203
▁De	-11.8216
▁жаал	-11.8217
▁улиа	-11.8223
▁Ri	-11.8238
▁тох	-11.8249
▁хуйн	-11.8276
ИД	-11.8286
▁токол	-11.8288
▁Star	-11.8305
▁im	-11.8306
рон	-11.8313
▁рдаа	-11.832
▁эдү	-11.832
▁АТО	-11.8322
▁удар	-11.8323
▁Ёс	-11.8332
▁шөн	-11.8338
▁рсө	-11.8341
▁ихсан	-11.8342
vid	-11.8354
НЫ	-11.8356
▁айде	-11.8359
▁рөл	-11.8366
▁Мат	-11.8374
▁тух	-11.8378
▁цын	-11.8379
▁адг	-11.8384
▁нор	-11.8393
▁АЙР	-11.8394
▁So	-11.84
SD	-11.8401
▁Dr	-11.8402
▁ион	-11.8403
▁уулт	-11.8405
ЕС	-11.8405
▁дгий	-11.8411
▁€	-11.8412
▁More	-11.8412
▁←	-11.8413
▁One	-11.8415
▁95	-11.8416
▁лахад	-11.8417
ста	-11.8424
▁aa	-11.8433
▁лате	-11.8436
бэ	-11.8436
▁os	-11.8438
OP	-11.8443
▁рьц	-11.846
сє	-11.8469
▁Ho	-11.8481
et	-11.8485
НИЙ	-11.85
▁УУ	-11.8505
па	-11.8507
▁жиш	-11.8508
▁цы	-11.8513
ain	-11.8515
▁раас	-11.8515
▁Joh	-11.8527
▁АС	-11.8531
▁ичээ	-11.8534
▁ment	-11.8538
▁Бол	-11.8548
▁Эв	-11.8551
▁оонд	-11.856
▁НЭ	-11.8573
.8	-11.8574
▁дул	-11.8594
▁ЭМ	-11.8595
▁өлдө	-11.8599
АД	-11.8613
ge	-11.8615
▁алгах	-11.8617
АТ	-11.862
da	-11.8622
▁уц	-11.8624
▁лцэ	-11.8626
5%	-11.8629
▁охоо	-11.8633
НЭ	-11.8635
▁2,	-11.8637
▁sa	-11.8643
▁хүрг	-11.8655
▁нцуй	-11.8664
▁ацаан	-11.8666
хар	-11.8667
▁эггүй	-11.867
▁57	-11.8676
▁ИАТ	-11.8677
▁УУР	-11.8684
▁нзаар	-11.8687
▁Ри	-11.8688
▁лттэй	-11.8692
▁арлаа	-11.8701
▁сдэ	-11.8702
▁боов	-11.8703
▁ооло	-11.8708
ИЛ	-11.8713
▁ерийн	-11.8725
▁ним	-11.873
▁нэрт	-11.8731
▁тери	-11.8732
▁нду	-11.8732
▁улб	-11.8734
▁ru	-11.8746
▁экс	-11.8756
▁овг	-11.8778
ҮТ	-11.8784
▁pdf	-11.8791
▁quot	-11.8791
▁мэйн	-11.8792
▁анах	-11.8794
▁убай	-11.8798
▁Pi	-11.8801
▁лахыг	-11.8803
▁ЭЭ	-11.8803
▁рдан	-11.8805
▁гну	-11.8808
▁ймаа	-11.8809
.4	-11.8816
▁he	-11.8817
бу	-11.8828
▁бул	-11.8833
▁ихс	-11.8834
ee	-11.8838
▁01	-11.8852
▁ранк	-11.8852
▁ИХ	-11.8855
▁мазо	-11.8856
этэр	-11.8859
▁ату	-11.8867
▁MA	-11.8867
ён	-11.8868
▁бөг	-11.8891
▁луулж	-11.8902
aa	-11.891
▁Fl	-11.8916
БЗ	-11.892
▁️	-11.8923
▁ндүү	-11.8928
▁голч	-11.8942
▁so	-11.8942
дэг	-11.8943
ЕМ	-11.8955
▁эмжээ	-11.8968
▁ӨР	-11.8969
▁арак	-11.897
ТЗ	-11.8975
▁наан	-11.898
▁43	-11.899
▁ee	-11.9007
▁яц	-11.9024
▁чра	-11.9027
▁лгад	-11.9029
▁шав	-11.9033
▁¬	-11.9052
▁УС	-11.9065
жу	-11.9111
▁чды	-11.9136
va	-11.9136
НА	-11.9138
▁азаа	-11.9141
▁эко	-11.9148
▁УД	-11.9149
АЙ	-11.915
▁фит	-11.915
▁үүлэл	-11.9151
▁газ	-11.9157
▁олу	-11.9166
TE	-11.9179
ҮБ	-11.9179
▁ндат	-11.918
▁цса	-11.9185
▁Aug	-11.9186
▁УГЖ	-11.9186
▁итлер	-11.9186
▁алчи	-11.9188
▁ain	-11.9197
▁өлөн	-11.9199
ета	-11.922
▁!!	-11.9231
▁мхи	-11.9232
▁ЭР	-11.9238
гє	-11.9253
▁БИ	-11.9262
▁варг	-11.93
▁игер	-11.931
Q	-11.9311
▁шта	-11.9316
▁′	-11.9321
▁Min	-11.9324
▁ДТГ	-11.9331
▁лган	-11.9337
▁Нүү	-11.934
▁ХД	-11.9359
▁Chi	-11.936
ЗҮ	-11.9366
and	-11.9368
25	-11.9372
12	-11.9383
▁41	-11.9386
▁Хол	-11.9399
▁кад	-11.9403
▁лдр	-11.9432
org	-11.9434
▁ршл	-11.9437
▁кү	-11.9441
НБ	-11.9445
▁ӨВЛӨ	-11.9459
▁posts	-11.9459
▁хувил	-11.947
▁риал	-11.9474
ort	-11.9479
▁жен	-11.948
ше	-11.9481
▁Онц	-11.9484
▁тив	-11.9484
▁Hi	-11.9493
▁хүл	-11.9494
▁нир	-11.9494
▁ld	-11.9494
▁ув	-11.9498
▁wr	-11.9514
ML	-11.9516
▁роод	-11.9526
▁аху	-11.9526
▁вуул	-11.9544
om	-11.955
▁we	-11.9551
▁Ra	-11.9552
▁соо	-11.9552
▁этр	-11.9556
▁амди	-11.9556
ft	-11.957
ша	-11.957
▁нго	-11.9584
▁05	-11.9593
▁ЛЭГ	-11.9596
▁way	-11.9597
▁ww	-11.9598
▁үрсэн	-11.9618
▁има	-11.9619
▁Ta	-11.9626
▁Ажл	-11.9626
элээ	-11.9626
▁ҮҮХ	-11.9644
▁Te	-11.9645
▁маан	-11.9647
▁ХХ	-11.9648
uk	-11.9655
▁ӨХ	-11.9662
лер	-11.9669
▁вөн	-11.9676
гү	-11.9683
▁эсрэ	-11.9688
-8	-11.969
▁рсон	-11.9698
▁IV	-11.97
▁трал	-11.9706
▁үлг	-11.9714
бер	-11.9728
▁огто	-11.9729
һ	-11.973
▁ато	-11.9734
●	-11.9737
▁Гэх	-11.9751
▁лдсан	-11.9751
ААР	-11.9752
▁ее	-11.9755
▁зул	-11.9756
▁ээтэ	-11.9763
▁ОЛ	-11.9764
▁йхан	-11.9774
▁нхор	-11.9777
огд	-11.9791
▁PC	-11.9791
▁лдоо	-11.9797
▁асы	-11.981
▁ga	-11.9825
▁Цаа	-11.9825
ca	-11.9828
▁q	-11.9849
▁лтга	-11.9849
▁07	-11.9857
гуй	-11.9858
▁Є	-11.9864
▁раз	-11.9867
90	-11.9875
▁инжа	-11.9877
▁надаа	-11.988
▁нды	-11.988
▁\	-11.988
▁(3)	-11.9881
▁Book	-11.9882
▁рдсан	-11.9883
▁ия	-11.9884
ver	-11.989
▁НЫ	-11.9912
▁оруу	-11.9927
▁Фло	-11.9928
юу	-11.9931
▁зоо	-11.9961
▁оодо	-11.9964
▁гач	-11.9966
▁вья	-11.9968
▁po	-11.997
ком	-11.9972
ья	-11.9987
▁аку	-12.001
▁Ji	-12.0014
ҥ	-12.0016
▁ОН	-12.0022
Юу	-12.0023
▁Jul	-12.0026
▁сув	-12.0028
▁Ser	-12.0041
▁урвал	-12.0042
▁ртын	-12.0044
▁АЙНА	-12.0049
▁06	-12.0059
▁Чан	-12.0071
▁уудай	-12.0081
▁реф	-12.0082
▁өртөө	-12.0086
▁Big	-12.0089
▁alt	-12.0094
ГА	-12.0095
▁урм	-12.0097
тон	-12.0121
ям	-12.0144
▁z	-12.0144
▁үлэн	-12.0145
▁ади	-12.0148
▁Хил	-12.0154
▁ооцо	-12.0157
▁рлах	-12.0162
Ё	-12.0165
▁сте	-12.0171
▁ельги	-12.0173
▁хлэн	-12.0174
▁Ph	-12.0182
▁рээр	-12.019
pe	-12.0195
▁рмис	-12.0206
▁Bu	-12.0213
▁Пол	-12.0214
▁йи	-12.0227
▁ҮР	-12.023
ЭЛ	-12.0256
ound	-12.0258
лик	-12.0264
▁анли	-12.0266
▁рэв	-12.027
mi	-12.0278
▁64	-12.0289
▁зүтг	-12.0293
▁Dis	-12.0301
▁Не	-12.0305
че	-12.0308
ери	-12.0308
▁элүү	-12.0309
ë	-12.0322
ñ	-12.0322
▁ЖДҮ	-12.0322
▁fe	-12.0336
ki	-12.0337
▁эгдэж	-12.0341
▁47	-12.0348
по	-12.0355
▁ГӨӨ	-12.0355
▁гсн	-12.0364
▁Рай	-12.0382
ull	-12.0387
▁нхи	-12.039
ga	-12.0397
▁йти	-12.041
▁стер	-12.0418
di	-12.0418
▁ойл	-12.0431
▁рлан	-12.044
▁лала	-12.0444
▁АСА	-12.0454
▁итг	-12.046
do	-12.0461
▁төг	-12.047
▁>>	-12.0474
▁Aut	-12.0475
ТА	-12.0477
▁лса	-12.0477
▁700	-12.0488
▁54	-12.0494
▁игери	-12.0498
▁Sep	-12.0498
▁HT	-12.0502
▁арыг	-12.0506
▁CD	-12.0511
▁лгө	-12.0526
▁Bet	-12.0526
ЭД	-12.0527
▁дни	-12.0539
▁лууг	-12.0548
EM	-12.0555
ити	-12.0557
▁одой	-12.0557
бби	-12.0559
отро	-12.056
▁ранс	-12.0561
▁ЭХ	-12.0575
▁бье	-12.0578
▁Sun	-12.0581
▁имэ	-12.0589
ене	-12.0589
▁UB	-12.0589
ХБ	-12.0597
▁амта	-12.0599
▁нгой	-12.0619
▁алиа	-12.062
▁Sp	-12.0625
▁post	-12.0626
▁ner	-12.0631
▁ЛАХ	-12.0634
▁оолой	-12.0635
▁лиза	-12.0636
ля	-12.0649
▁Can	-12.0651
▁үйн	-12.0655
15	-12.066
▁улз	-12.0664
▁ai	-12.0673
▁рес	-12.0678
▁яая	-12.0689
ера	-12.069
САН	-12.0695
▁ндсэн	-12.0695
▁рос	-12.0701
▁вшин	-12.0702
▁Лал	-12.071
oo	-12.0719
18	-12.0728
▁рен	-12.0739
▁хэц	-12.0757
▁Иос	-12.0761
її	-12.0764
▁Ni	-12.0766
пе	-12.0767
ОН	-12.0774
▁wi	-12.0777
▁ндө	-12.0779
ольф	-12.0784
▁ашё	-12.079
▁руулж	-12.08
▁Love	-12.0802
▁Du	-12.0804
▁нээл	-12.0805
▁Net	-12.0817
▁байс	-12.0817
▁ИЙГ	-12.0824
▁үүк	-12.0829
▁ийдэ	-12.0834
▁ИЛ	-12.0842
▁ies	-12.0853
▁енни	-12.0857
▁одн	-12.086
▁bar	-12.0866
▁ссан	-12.0867
лє	-12.087
АЖ	-12.0878
Уг	-12.0882
▁ижи	-12.0882
▁Ya	-12.0887
▁Дан	-12.0888
▁лмаа	-12.0895
эртэ	-12.09
▁ii	-12.0906
▁осы	-12.0921
ЗХ	-12.0927
▁72	-12.0935
УУД	-12.0935
▁http	-12.0942
▁fuck	-12.0943
УС	-12.0945
▁бокс	-12.0946
▁лэм	-12.095
▁???	-12.0953
BC	-12.096
▁Алс	-12.096
▁56	-12.0968
▁аанаа	-12.097
▁ооро	-12.0972
▁нших	-12.0974
%	-12.0976
▁үхэ	-12.1006
▁эндэ	-12.1008
▁85	-12.1027
▁ЭЛ	-12.1034
гэсэ	-12.1041
.6	-12.1047
▁аму	-12.1048
▁mon	-12.1049
▁Ы	-12.1051
гєє	-12.106
▁As	-12.1064
▁лөв	-12.1068
▁10,	-12.107
▁СЯ	-12.1076
▁id	-12.1077
▁яав	-12.1079
▁52	-12.1086
▁АВ	-12.1086
▁лат	-12.1088
&	-12.1096
▁Qu	-12.1099
▁боолт	-12.1103
▁Stor	-12.1103
▁Exp	-12.1104
eam	-12.1105
▁Bat	-12.1108
▁ойго	-12.1109
▁индэр	-12.1112
▁ОАЖ	-12.1112
ика	-12.1112
▁Eng	-12.1113
▁Куб	-12.1114
▁ска	-12.1134
▁рү	-12.1137
▁hi	-12.1151
▁гей	-12.1157
▁вын	-12.1164
ony	-12.118
ибер	-12.1182
▁МЭ	-12.1184
▁Fir	-12.1185
▁Am	-12.1189
ЬД	-12.1192
▁еви	-12.1193
азер	-12.1198
▁стин	-12.1207
▁En	-12.122
▁su	-12.1222
▁эрээс	-12.1222
▁Зи	-12.1249
▁ҮН	-12.1263
▁топ	-12.1264
+	-12.1265
¿	-12.1267
▁IQ	-12.1268
▁илья	-12.127
ЛИ	-12.1275
▁ЛАЛ	-12.128
▁Рок	-12.1281
ъя	-12.1282
ЭТ	-12.1286
▁nat	-12.1287
▁Mu	-12.1292
▁алдан	-12.1298
▁НХ	-12.1309
▁мил	-12.1314
▁ых	-12.1314
▁War	-12.1322
▁ko	-12.1324
▁раф	-12.1325
▁fac	-12.133
▁46	-12.1331
▁ID	-12.1331
▁адра	-12.1333
▁сох	-12.1347
▁Vi	-12.1382
▁Sh	-12.1387
▁Cor	-12.1391
▁арш	-12.1392
▁где	-12.1395
▁рхол	-12.14
▁NE	-12.14
▁mp	-12.1405
НО	-12.1412
▁Кол	-12.1431
▁ємнє	-12.1435
▁пани	-12.1437
▁стор	-12.1441
▁ѳѳр	-12.1453
гер	-12.146
▁XXI	-12.1467
▁Лив	-12.1467
▁ja	-12.1475
▁данд	-12.148
▁дэт	-12.1486
▁xy	-12.1488
▁гуя	-12.1504
ест	-12.1509
▁агт	-12.151
▁сог	-12.1517
▁эээээ	-12.152
▁гата	-12.152
▁дгэ	-12.1529
▁үрг	-12.1531
▁олл	-12.1532
ури	-12.1544
▁Gu	-12.1545
▁спо	-12.1546
дад	-12.155
▁Hua	-12.1558
▁НИЙ	-12.1575
ара	-12.1583
ü	-12.1596
ý	-12.1603
é	-12.1603
▁Toy	-12.1609
▁ow	-12.1609
▁ЛЭЛ	-12.161
изи	-12.162
▁АРГА	-12.1621
▁жид	-12.1623
ХА	-12.163
▁ton	-12.1631
▁180	-12.1635
▁MI	-12.1639
▁Луу	-12.1641
▁66	-12.1641
▁04	-12.1646
▁Pe	-12.1655
▁усл	-12.1668
▁гог	-12.1672
AD	-12.1672
укс	-12.1672
▁Це	-12.1673
▁va	-12.1686
▁ГД	-12.1687
11	-12.1693
▁est	-12.1694
▁Wal	-12.1701
▁Clo	-12.1702
▁байга	-12.1708
ҮХ	-12.1716
▁ХС	-12.1717
▁РГЭ	-12.1736
▁Don	-12.1739
▁энч	-12.174
▁53	-12.1756
▁Pri	-12.1756
▁ara	-12.1771
hoto	-12.1776
▁АЯР	-12.1777
▁Gen	-12.1777
▁арг	-12.1778
▁мэдэр	-12.1784
▁Nat	-12.1788
▁өгий	-12.1797
▁IN	-12.1811
▁Лиг	-12.1812
▁янь	-12.1812
▁кво	-12.1815
▁ile	-12.1818
▁ЭНЭ	-12.1821
хе	-12.1824
инз	-12.1827
орло	-12.1827
▁ралын	-12.1828
▁лиу	-12.1831
▁che	-12.1838
ХЯ	-12.1858
▁Цас	-12.1862
▁nes	-12.1869
▁99	-12.1881
▁эти	-12.1881
▁наач	-12.1886
oll	-12.1897
зе	-12.1898
▁Ga	-12.1906
▁єгє	-12.1914
▁гөл	-12.1916
▁рэд	-12.1916
▁Na	-12.1918
▁нхэ	-12.1929
▁ввв	-12.1938
uch	-12.1943
▁Hu	-12.1949
28	-12.1951
▁What	-12.1951
▁^^	-12.1951
▁ткойн	-12.1951
▁итэм	-12.1951
ӨХ	-12.1952
▁IPO	-12.1952
▁инфл	-12.1952
▁Cont	-12.1954
▁өөлө	-12.1955
уз	-12.1958
▁ЭРЭГ	-12.1959
ламж	-12.1961
▁енне	-12.1964
▁um	-12.1969
▁ms	-12.1969
▁Мод	-12.1972
▁VI	-12.1972
▁Бел	-12.1976
▁Fin	-12.2
OM	-12.2006
▁оги	-12.2013
▁Сай	-12.2013
РЖ	-12.2019
▁PR	-12.2024
ова	-12.2028
▁мит	-12.2049
▁адва	-12.205
▁гарз	-12.2059
ue	-12.206
▁лца	-12.2062
▁00	-12.2066
▁EN	-12.2084
▁римд	-12.2099
▁лори	-12.21
ite	-12.2101
мон	-12.2102
▁ээдэг	-12.2112
▁4:	-12.2121
î	-12.2123
▁ршрут	-12.213
▁йчүүд	-12.213
▁двал	-12.2133
▁Res	-12.2134
▁GB	-12.2136
▁ob	-12.2137
low	-12.2147
▁Gal	-12.2152
08	-12.2154
▁жигл	-12.2166
▁өлгө	-12.2166
ook	-12.2168
▁лцуу	-12.2169
▁ОТ	-12.217
▁Boo	-12.217
▁Фин	-12.2173
▁ргуй	-12.2178
▁рей	-12.2192
▁эро	-12.2192
▁лжэ	-12.2192
▁поп	-12.2193
▁лаач	-12.2203
▁Des	-12.2208
гор	-12.2216
▁АГ	-12.2219
▁ang	-12.2226
▁ti	-12.224
▁mu	-12.2242
ЕШ	-12.2248
▁вон	-12.2256
▁тааг	-12.2259
▁эль	-12.2259
out	-12.2261
▁Di	-12.2262
▁рым	-12.2275
▁гуч	-12.2277
13	-12.228
hi	-12.2292
▁вьс	-12.2295
▁илал	-12.2303
▁жийг	-12.2308
▁😀	-12.2311
▁work	-12.2312
▁Иаков	-12.2312
▁ҮЙЛ	-12.2312
▁Blue	-12.2312
▁war	-12.2314
▁Day	-12.2314
▁Ope	-12.2314
▁леку	-12.2314
▁Rep	-12.2316
▁ny	-12.2321
еп	-12.2324
▁cap	-12.2327
▁bat	-12.2331
▁Пете	-12.2331
▁амгай	-12.2336
ИЙГ	-12.2337
BS	-12.2337
▁Жин	-12.2339
▁ЭД	-12.2343
▁НЬ	-12.2356
▁Йе	-12.2359
▁илс	-12.2362
ha	-12.2374
▁айса	-12.2376
▁РХ	-12.2384
▁ика	-12.2387
ka	-12.2391
▁ph	-12.2402
IT	-12.2414
▁алса	-12.2415
▁нхээ	-12.2426
▁ert	-12.243
▁pa	-12.244
▁cl	-12.2442
▁чуу	-12.2448
▁БА	-12.2455
▁XX	-12.2464
*	-12.2469
єрє	-12.2484
TA	-12.2491
▁нефт	-12.2496
ә	-12.2497
ES	-12.2497
▁рипт	-12.2497
▁влэ	-12.2503
▁2)	-12.2504
ялба	-12.2512
▁Aw	-12.2512
▁члаа	-12.2513
▁авж	-12.2522
нер	-12.2525
▁900	-12.2527
▁Рио	-12.253
одк	-12.254
▁при	-12.2544
▁Sec	-12.2555
▁(2	-12.2559
uu	-12.2571
ӨН	-12.2575
▁урши	-12.2578
▁Виз	-12.2579
▁төй	-12.258
▁нит	-12.2586
▁омдо	-12.2587
▁нээн	-12.2596
ЭМ	-12.2608
AR	-12.2608
ҕ	-12.262
▁инь	-12.2633
▁дун	-12.2636
удио	-12.2647
▁лгу	-12.265
▁Bar	-12.2657
ать	-12.2661
▁дма	-12.2663
95	-12.2668
FC	-12.2672
▁Pow	-12.2685
▁load	-12.2685
▁ОНЦ	-12.2686
▁Park	-12.2687
▁эллээ	-12.2689
ака	-12.269
▁гидр	-12.2693
▁Stat	-12.2695
▁bu	-12.2698
▁атер	-12.2712
▁аша	-12.2715
▁Con	-12.2721
▁мэгц	-12.2728
▁нанд	-12.274
▁eg	-12.2741
▁унж	-12.2742
ото	-12.2743
▁игл	-12.2746
▁сто	-12.2749
▁Her	-12.277
▁чний	-12.277
▁арги	-12.2773
to	-12.2775
▁Jo	-12.2781
▁02	-12.2792
ly	-12.2796
▁вда	-12.2798
▁ролл	-12.2813
ry	-12.2815
▁ST	-12.2818
ИХ	-12.282
▁хойг	-12.2822
▁Bi	-12.2831
▁Bur	-12.2835
ят	-12.2837
▁tr	-12.2849
▁вэй	-12.2858
ден	-12.2863
▁лалы	-12.2869
ров	-12.2874
▁лир	-12.2875
▁Plus	-12.2878
▁БСБ	-12.2878
▁LED	-12.2878
▁Out	-12.2879
▁back	-12.288
▁иулах	-12.2881
▁CV	-12.2882
НХ	-12.2882
▁gy	-12.2885
▁Ex	-12.2886
▁өтөл	-12.2892
▁ссо	-12.2892
ng	-12.2895
▁per	-12.2899
▁зүс	-12.2915
▁62	-12.2922
▁нум	-12.2925
▁ндуу	-12.2925
пти	-12.2926
▁үлгэ	-12.2934
rl	-12.2949
▁Is	-12.2958
OL	-12.2968
▁Mas	-12.2975
▁блет	-12.2984
▁дом	-12.2988
ead	-12.299
▁иам	-12.2992
▁бур	-12.2992
өгс	-12.2998
▁лст	-12.302
▁mas	-12.3031
▁Ar	-12.3031
▁lu	-12.3045
▁По	-12.3045
▁ҮҮР	-12.3049
▁рти	-12.3051
▁Ti	-12.307
▁АБЭА	-12.3074
▁Pay	-12.3074
▁APS	-12.3075
▁ò	-12.3075
▁goo	-12.3079
▁ууса	-12.308
▁ьц	-12.3083
▁Vis	-12.3086
▁күү	-12.3094
▁gn	-12.3095
Өө	-12.3096
▁Per	-12.3097
▁онни	-12.3101
ЛС	-12.3106
ИР	-12.3109
▁Gi	-12.3119
▁жав	-12.3123
▁59	-12.3123
ust	-12.314
24	-12.314
▁Хас	-12.3152
▁агдан	-12.3155
▁Йо	-12.316
▁УУЛЬ	-12.3161
дак	-12.3162
▁дэй	-12.3164
▁мна	-12.3165
▁шөл	-12.3169
▁йв	-12.3172
▁гту	-12.3172
▁Сон	-12.3173
▁Нара	-12.3175
▁Em	-12.3184
▁олол	-12.3188
єв	-12.3192
▁вла	-12.3207
80	-12.3207
▁ххх	-12.3237
▁Вал	-12.3242
▁ямд	-12.3245
єхє	-12.3251
ҮЦ	-12.3268
▁Lu	-12.3273
▁нзаа	-12.3273
▁(4)	-12.3274
▁Slot	-12.3274
▁©	-12.3274
НГУ	-12.3274
gg	-12.3276
▁say	-12.3276
▁Eur	-12.3278
▁йхгүй	-12.328
▁єнгє	-12.328
▁пүү	-12.3286
be	-12.3287
▁илет	-12.3299
дє	-12.33
ЧИ	-12.3307
▁Or	-12.3313
ide	-12.3323
▁ЛИ	-12.3324
▁того	-12.3333
▁gu	-12.3346
арын	-12.3352
▁can	-12.3363
▁5,	-12.3365
▁лак	-12.3379
▁ОЛО	-12.3388
▁хит	-12.339
▁ён	-12.3396
▁PS	-12.3399
▁элдэх	-12.3404
алба	-12.3405
▁Мин	-12.3414
▁Lee	-12.3428
▁vs	-12.343
▁лзэ	-12.3437
▁алы	-12.345
▁цлаг	-12.3457
▁ьсо	-12.3467
▁ОД	-12.3467
▁iPad	-12.3478
▁свэл	-12.3478
▁Exce	-12.3478
▁ЗХУ	-12.3479
▁ргей	-12.3479
▁ИД	-12.348
▁Fe	-12.3482
vo	-12.3483
▁эсгий	-12.3483
hou	-12.3484
ara	-12.3486
лгэ	-12.3486
▁рдах	-12.3486
аоао	-12.3487
▁ual	-12.3487
▁атах	-12.3488
▁are	-12.349
DE	-12.3492
ЭЖ	-12.3504
▁ДАА	-12.3504
▁лих	-12.3506
йж	-12.351
▁уни	-12.3511
▁мөс	-12.3512
▁все	-12.3514
▁Dat	-12.3515
сен	-12.3521
▁Rec	-12.3526
▁Jav	-12.3528
▁sta	-12.3545
▁3:	-12.3548
▁гагүй	-12.3552
гой	-12.3556
▁03	-12.357
▁йгаа	-12.3575
▁Мас	-12.3583
▁омд	-12.3596
кү	-12.3597
афи	-12.3612
AT	-12.3614
▁ллэг	-12.3617
▁Ag	-12.3622
▁Ca	-12.3635
▁Coun	-12.3645
atch	-12.3654
▁ret	-12.3658
▁бэлэ	-12.3661
í	-12.3679
АВ	-12.3683
сти	-12.3686
▁йха	-12.3686
▁DVD	-12.3686
▁life	-12.3686
▁time	-12.3686
▁que	-12.3686
▁ago	-12.3687
▁үлжээ	-12.3691
ic	-12.3694
▁архе	-12.3699
▁her	-12.3711
▁nb	-12.3717
▁мөрө	-12.3717
▁нгк	-12.3722
▁рсо	-12.3723
айф	-12.3724
▁лб	-12.3726
▁алалт	-12.3727
▁Sy	-12.3727
вар	-12.3727
▁эмчил	-12.3728
ник	-12.3729
75	-12.3731
▁Лай	-12.3737
▁ХААР	-12.374
ХВ	-12.3749
ОК	-12.3751
▁98	-12.3752
▁Шри	-12.3761
ште	-12.3768
▁oin	-12.3768
▁үлж	-12.3775
▁ахда	-12.3777
▁nam	-12.3787
▁Hos	-12.38
даж	-12.3803
▁Gran	-12.3806
▁Th	-12.3819
▁нио	-12.3827
▁San	-12.383
▁ya	-12.3836
▁fi	-12.3838
ЦС	-12.384
AL	-12.3849
▁Sol	-12.3851
▁МЖ	-12.3856
▁айжа	-12.3863
mer	-12.3884
оза	-12.3896
▁↑	-12.3899
▁уузай	-12.3899
▁ХААХ	-12.3899
▁rol	-12.3899
▁lish	-12.3899
▁›	-12.39
▁ger	-12.3902
▁ЛТ	-12.3903
▁мулт	-12.3903
▁ER	-12.3905
▁ress	-12.3905
▁имба	-12.3907
▁эмдэ	-12.3932
▁саан	-12.3949
▁рейд	-12.3958
аци	-12.3958
ргиз	-12.3959
▁инт	-12.396
▁gui	-12.3966
▁лэй	-12.398
▁Har	-12.3986
▁20%	-12.3996
▁08	-12.4
ДС	-12.4001
▁пүүл	-12.4012
▁англ	-12.4013
▁үрж	-12.4014
int	-12.4014
▁wa	-12.4015
▁Red	-12.4018
14	-12.4041
▁uk	-12.4054
▁гом	-12.406
▁еф	-12.4073
▁угал	-12.4091
▁Live	-12.4094
▁Ёо	-12.4103
▁олш	-12.4103
▁ji	-12.4107
ЕХ	-12.4111
▁адда	-12.4114
▁Linux	-12.4116
▁Sky	-12.4116
►	-12.4116
▁УХАЙ	-12.4116
▁port	-12.4117
▁льци	-12.4119
▁Times	-12.412
▁ђ	-12.412
▁УСК	-12.4121
▁ймаг	-12.4123
ГТ	-12.4126
▁һ	-12.4127
эдэн	-12.4131
▁ибер	-12.4139
▁ant	-12.4139
▁байт	-12.4141
▁намик	-12.4141
▁ООО	-12.4143
▁Det	-12.4151
SP	-12.4152
▁cs	-12.4153
▁анду	-12.4158
▁АЙХ	-12.4172
ого	-12.4179
▁гүм	-12.4189
▁eng	-12.4197
▁акс	-12.4199
ть	-12.42
▁опул	-12.42
▁sm	-12.421
▁окер	-12.4213
▁22,	-12.4215
ach	-12.4228
▁луг	-12.4246
▁ейс	-12.4248
pa	-12.4248
▁ЭГ	-12.425
нес	-12.4262
▁Mot	-12.4262
▁дак	-12.4276
▁ньян	-12.4284
▁гни	-12.4285
▁иргэ	-12.4287
ЭС	-12.4292
▁pri	-12.4303
▁MS	-12.4311
▁woo	-12.4318
▁айши	-12.4329
ã	-12.4339
▁Hyun	-12.4339
▁ААТАР	-12.4339
▁ЭЛХИ	-12.4339
▁shop	-12.4339
▁API	-12.4339
▁рубль	-12.4339
▁bout	-12.4339
▁пүүз	-12.434
▁ндэс	-12.434
▁роид	-12.434
рхой	-12.4346
▁#1	-12.4347
ord	-12.4351
iss	-12.4352
▁ХЦ	-12.4356
ark	-12.4358
▁gh	-12.4359
**	-12.4361
▁овс	-12.4361
▁рмой	-12.4363
▁Yu	-12.4365
▁Ang	-12.4366
▁нзон	-12.4379
▁тгор	-12.4385
▁АЙН	-12.439
▁ирм	-12.4394
▁аалц	-12.4401
▁ану	-12.4403
▁гтоо	-12.4406
▁олом	-12.4408
МД	-12.4413
-7	-12.4417
▁амбо	-12.4427
▁68	-12.4437
▁Fu	-12.4442
▁РИ	-12.4443
rag	-12.4445
▁тгээ	-12.445
▁Топ	-12.445
▁бель	-12.4455
▁Цоо	-12.4455
▁ржээ	-12.4455
ma	-12.4462
▁эдсэн	-12.4466
▁Гад	-12.4467
▁босс	-12.4467
▁Sha	-12.4472
EC	-12.4478
ОР	-12.448
сби	-12.4483
▁ного	-12.4484
▁des	-12.4502
▁AR	-12.4516
▁RE	-12.4516
▁ЦС	-12.4523
▁nu	-12.4533
▁ѳр	-12.4533
▁Ko	-12.4536
АУ	-12.4539
▁мянг	-12.4542
eek	-12.4566
ة	-12.4566
▁(5)	-12.4566
▁ӨХТГ	-12.4566
▁URL	-12.4566
▁ЭЗ	-12.4566
▁Mode	-12.4567
▁Dow	-12.4567
▁fa	-12.4569
▁сойз	-12.4571
▁î	-12.4575
▁hy	-12.4582
ung	-12.4582
нє	-12.4587
▁дүй	-12.4591
▁80%	-12.4593
▁асна	-12.4593
▁виа	-12.4602
енко	-12.4606
БА	-12.4606
▁ort	-12.4607
ИК	-12.4621
▁анба	-12.4624
▁Ирж	-12.4635
ОГ	-12.4637
▁Vo	-12.4645
▁1)	-12.4648
▁ойт	-12.4657
▁арм	-12.4662
▁икаг	-12.4671
▁rd	-12.468
ОМ	-12.4682
pp	-12.4693
▁Poli	-12.4696
▁гуд	-12.4701
▁ҮГ	-12.4713
8%	-12.4713
▁ААР	-12.4719
▁lin	-12.4722
ули	-12.4724
▁Win	-12.4732
▁Mat	-12.4744
▁Жан	-12.4751
▁ЮУ	-12.4758
▁чны	-12.476
▁Дур	-12.4761
▁74	-12.4765
▁ЛАА	-12.4777
▁ua	-12.4777
лог	-12.4784
▁à	-12.4786
SA	-12.4789
▁өсө	-12.479
оход	-12.4795
air	-12.4796
▁Life	-12.4798
▁PDF	-12.4798
▁Edit	-12.4798
▁йсны	-12.4799
▁UFC	-12.4799
▁Share	-12.48
▁ina	-12.4803
▁Top	-12.4805
▁арон	-12.4805
▁веде	-12.4806
▁ллаж	-12.481
▁bet	-12.4811
▁Not	-12.4813
AS	-12.4817
ерт	-12.4827
▁mat	-12.483
IP	-12.4831
▁нефть	-12.4836
▁ҮЦ	-12.4846
▁1%	-12.4846
▁PCR	-12.4848
▁это	-12.4859
▁It	-12.4871
▁САН	-12.4872
нэн	-12.4874
▁sc	-12.4887
▁үүнэ	-12.4888
▁үдэг	-12.4902
▁Inte	-12.4905
▁ari	-12.4911
▁10%	-12.4917
▁CS	-12.4921
17	-12.4926
сэр	-12.4927
NC	-12.493
▁nk	-12.4934
1,	-12.4938
▁il	-12.4941
▁yun	-12.4943
▁нде	-12.495
NS	-12.4955
▁лбор	-12.4961
▁ac	-12.4967
▁эзэм	-12.497
▁ban	-12.4973
▁Up	-12.4986
ED	-12.4986
СЭН	-12.4988
▁69	-12.4988
ДЭГ	-12.4989
йз	-12.4989
▁Ac	-12.5
▁sor	-12.5001
▁гэе	-12.5004
▁RA	-12.5007
▁цав	-12.5027
▁ig	-12.5031
мен	-12.5034
▁❤	-12.5037
▁Gold	-12.5037
▁Save	-12.5038
▁Hall	-12.5039
▁ёоо	-12.5039
▁АНИЛ	-12.504
▁иви	-12.504
▁лько	-12.5043
▁адаа	-12.5043
▁аме	-12.5049
▁Сул	-12.5052
▁авлик	-12.5055
▁унэ	-12.5055
▁галах	-12.5058
кэ	-12.5066
▁авай	-12.5068
▁АНД	-12.5071
IN	-12.5074
▁ГА	-12.5078
22	-12.5085
▁лифт	-12.509
▁андаж	-12.509
▁ндуй	-12.5092
▁пол	-12.5093
▁Hol	-12.5103
▁арре	-12.5103
▁агий	-12.5105
eas	-12.5121
ист	-12.5127
-3	-12.513
▁Tra	-12.513
рик	-12.5134
▁мхо	-12.5137
OT	-12.5138
▁Fa	-12.5139
▁НМ	-12.5146
▁ke	-12.5152
ЛЭГ	-12.5171
▁здэг	-12.5184
▁МТ	-12.5188
▁too	-12.5193
▁мѳ	-12.5196
ьян	-12.52
ГД	-12.5215
ER	-12.5233
ААН	-12.5252
▁хоп	-12.5252
▁tal	-12.5253
ӨЛ	-12.5257
lock	-12.5262
▁нка	-12.5266
▁ript	-12.528
▁эфир	-12.5281
▁Geo	-12.5281
▁ك	-12.5281
▁Medi	-12.5281
▁GPS	-12.5281
▁жонш	-12.5281
ева	-12.5282
▁Cat	-12.5283
▁ota	-12.5283
▁Бри	-12.5283
еб	-12.5284
▁/>	-12.5287
▁драт	-12.529
єнгє	-12.5293
SC	-12.5295
▁org	-12.5301
▁орк	-12.5307
▁БХ	-12.5308
▁итан	-12.5308
ВЬ	-12.531
инс	-12.5318
▁prev	-12.532
04	-12.5324
▁ГАА	-12.5327
▁Tre	-12.5332
▁алца	-12.5344
▁FI	-12.5349
▁МС	-12.5357
▁Del	-12.5365
▁лси	-12.5375
ac	-12.538
▁ееее	-12.5398
▁AN	-12.5404
▁фэн	-12.5409
▁ХЕГ	-12.5411
РАЛ	-12.5414
▁ron	-12.5415
▁gor	-12.5419
▁DA	-12.5428
▁87	-12.5432
▁лис	-12.5437
▁ѳг	-12.5437
РИ	-12.5438
▁рто	-12.5439
▁Фи	-12.544
▁Cra	-12.5444
▁нсо	-12.5454
▁АЗ	-12.5455
ТИС	-12.546
▁Inc	-12.5462
▁хял	-12.5472
мин	-12.5472
▁майн	-12.5482
PS	-12.5483
ере	-12.5497
▁Жам	-12.5497
▁алжи	-12.5505
▁бух	-12.551
▁BI	-12.5513
▁Che	-12.5521
▁Ki	-12.553
▁pussy	-12.553
▁tren	-12.5531
▁Link	-12.5533
▁скоп	-12.5533
▁za	-12.5536
▁ЕС	-12.5558
▁улзах	-12.5565
арк	-12.5568
▁ay	-12.5572
▁исне	-12.5574
▁гое	-12.558
▁ооно	-12.559
лю	-12.5593
▁Ёоо	-12.56
ДИ	-12.5606
ET	-12.565
▁Bro	-12.5654
hare	-12.5655
▁shi	-12.5662
▁иог	-12.5667
▁ME	-12.5669
▁поли	-12.5676
▁gen	-12.5685
▁88	-12.5691
▁урын	-12.5696
▁86	-12.5698
инат	-12.574
ный	-12.5741
rn	-12.5743
ean	-12.5757
16	-12.5762
▁96	-12.577
▁ЗНН	-12.5787
▁дюсе	-12.5787
IKE	-12.5787
▁оддог	-12.5787
▁word	-12.5787
▁71	-12.579
▁3)	-12.579
▁Wik	-12.5792
▁Sch	-12.5796
▁top	-12.5798
eep	-12.5803
лян	-12.5813
zz	-12.5814
▁Хана	-12.5814
▁Лук	-12.5817
▁дарь	-12.5818
za	-12.582
▁ser	-12.5828
▁Поп	-12.583
▁ухай	-12.5839
▁иэн	-12.5844
▁УХ	-12.5852
▁Мак	-12.5853
▁зэл	-12.5857
▁АГА	-12.5863
▁Une	-12.5867
▁паа	-12.587
▁ns	-12.5875
FL	-12.5879
NT	-12.5888
tree	-12.5899
▁амбар	-12.5917
▁ллоо	-12.592
енж	-12.5931
▁lor	-12.5936
▁ьс	-12.5941
▁ЛС	-12.5943
▁сэв	-12.5966
▁DI	-12.5979
▁цны	-12.5985
азз	-12.5986
▁рра	-12.5991
▁Met	-12.601
▁асва	-12.6022
▁col	-12.6026
▁дель	-12.6027
DA	-12.6034
>	-12.6034
РЭЛ	-12.6035
НТ	-12.6037
▁эйж	-12.604
.9	-12.6047
ð	-12.605
سار	-12.605
▁CPU	-12.605
▁ОЁР	-12.605
▁ЭСЯ	-12.605
îâ	-12.605
▁®	-12.605
▁Watch	-12.6051
▁Ѳ	-12.6051
OW	-12.6052
▁NO	-12.6053
▁off	-12.6054
▁ХЭ	-12.6055
▁эгз	-12.6056
▁раун	-12.6058
▁not	-12.6062
55	-12.6071
▁iv	-12.6085
ST	-12.6085
US	-12.6085
▁ориу	-12.6097
▁Ливи	-12.6099
око	-12.6112
▁du	-12.6119
▁АБ	-12.6129
▁1.2	-12.6133
ще	-12.614
▁ньпи	-12.6155
▁Ul	-12.6177
▁au	-12.6177
▁ЧИ	-12.6177
▁үүе	-12.6178
▁рса	-12.6181
ВАР	-12.6186
▁иин	-12.6189
▁мой	-12.6193
▁Pal	-12.6194
▁ванн	-12.6203
эйс	-12.6205
▁ради	-12.6217
old	-12.6225
▁dat	-12.6226
TP	-12.6231
▁SD	-12.6231
ech	-12.6238
▁ier	-12.6239
пу	-12.625
▁рмэ	-12.6254
▁лдам	-12.6255
▁ИЙГЭ	-12.626
▁ТС	-12.6263
▁Won	-12.6267
SL	-12.6269
▁84	-12.627
▁дэлт	-12.6273
▁агв	-12.6288
▁ye	-12.6289
▁ргам	-12.629
▁TO	-12.6301
▁Yo	-12.6307
▁рези	-12.6308
́	-12.632
▁الحجر	-12.632
▁АЗАР	-12.632
▁Перу	-12.632
▁job	-12.6321
▁ЭРХ	-12.6321
▁Робо	-12.6322
▁Fri	-12.6324
▁age	-12.6324
▁Bra	-12.6328
▁оохо	-12.6328
▁rome	-12.6329
▁lan	-12.633
▁ew	-12.6332
▁ОВИ	-12.6337
▁ааааа	-12.634
8,	-12.6343
▁оши	-12.6345
▁ca	-12.6345
РӨӨ	-12.6346
▁что	-12.6348
tyle	-12.6351
▁yy	-12.6351
▁арао	-12.6353
▁ассе	-12.6354
▁fo	-12.6356
▁ГХЭ	-12.6367
▁ндгай	-12.6368
▁дис	-12.6369
▁ооооо	-12.6369
▁Жак	-12.6371
cc	-12.6373
▁гос	-12.6377
▁ное	-12.6379
▁лест	-12.638
▁рөн	-12.6381
НИ	-12.6383
▁SA	-12.6387
▁79	-12.6389
▁алко	-12.639
▁пара	-12.6392
▁han	-12.6396
ҮҮД	-12.6399
▁Cap	-12.6407
ула	-12.6408
EP	-12.6418
▁отте	-12.6428
CA	-12.6433
▁Gra	-12.6444
▁эп	-12.6448
▁wal	-12.6454
▁мян	-12.6454
▁Ром	-12.6456
▁Ol	-12.6458
▁раан	-12.6461
▁61	-12.6463
▁Fil	-12.6464
вейт	-12.6467
▁сорт	-12.647
▁АК	-12.6471
▁vie	-12.6481
ork	-12.6487
aw	-12.6488
▁81	-12.649
ОС	-12.6507
▁bus	-12.6514
▁рно	-12.6515
ТГ	-12.6523
NU	-12.6525
▁ЧД	-12.6526
▁grap	-12.6537
▁УЛ	-12.6537
CS	-12.654
▁рокк	-12.6542
ума	-12.6547
ON	-12.6554
▁боть	-12.6555
▁Stu	-12.6556
▁Хос	-12.6568
23	-12.6587
шка	-12.6588
▁щ	-12.6589
єлєє	-12.6591
▁NEWS	-12.6598
▁VPN	-12.6598
▁пицца	-12.6598
▁ТББ	-12.6598
▁Space	-12.6598
▁адеш	-12.6598
▁play	-12.6599
▁Inf	-12.6599
ko	-12.6601
▁мани	-12.6603
▁ЛЭХ	-12.6607
▁үхээ	-12.6608
▁Sim	-12.6609
▁30%	-12.6641
тра	-12.6644
▁XI	-12.6644
▁миль	-12.6658
ЕР	-12.6667
uri	-12.6677
19	-12.6701
▁өсөө	-12.6706
▁oc	-12.6708
▁Nam	-12.6709
ице	-12.6712
▁ui	-12.6718
▁анчи	-12.6751
▁ӨРИ	-12.6752
илл	-12.6774
nch	-12.6775
льз	-12.6777
1%	-12.6778
▁78	-12.6784
▁сэт	-12.6789
ХС	-12.6794
TV	-12.6802
IG	-12.6811
▁Men	-12.6813
▁()	-12.682
▁пра	-12.6825
▁иаг	-12.6826
▁гори	-12.6829
▁гва	-12.6831
▁Ass	-12.6854
45	-12.6857
▁чип	-12.6862
▁ЕР	-12.6864
▁эйт	-12.6872
▁san	-12.6872
_	-12.6877
FA	-12.6881
▁(8)	-12.6884
▁Blog	-12.6884
▁twi	-12.6884
▁Girl	-12.6884
▁√	-12.6884
▁ӨНГӨ	-12.6884
▁video	-12.6885
▁Acc	-12.6886
▁ness	-12.6887
▁лчгар	-12.6888
▁Art	-12.6888
▁Ger	-12.6889
▁Use	-12.6889
▁єлєє	-12.6891
▁юри	-12.6892
▁ютер	-12.6892
▁89	-12.6893
▁омби	-12.6895
▁иги	-12.6895
оть	-12.6895
▁ональ	-12.691
▁шоп	-12.6914
▁Ed	-12.6914
▁вввв	-12.6915
▁kh	-12.6921
▁атери	-12.6932
▁Ноо	-12.6946
▁ков	-12.6947
CC	-12.6954
хє	-12.6955
▁tan	-12.6957
▁pot	-12.6961
▁ist	-12.6961
▁ir	-12.6965
▁дтэ	-12.6969
▁Mag	-12.6973
▁SP	-12.6973
▁Soc	-12.6979
▁Glo	-12.699
▁63	-12.699
УЛГА	-12.6993
▁tra	-12.6999
OC	-12.7004
▁ууги	-12.7011
▁Cam	-12.7012
▁Ab	-12.702
▁SE	-12.7031
▁cle	-12.7035
▁Яам	-12.7057
▁13,	-12.7065
▁йцэ	-12.7074
як	-12.7075
PA	-12.7079
▁dr	-12.7087
▁ДС	-12.7103
ӨР	-12.7108
▁рєє	-12.7111
29	-12.7114
▁ini	-12.7116
LC	-12.7118
▁Ins	-12.7135
▁алб	-12.715
▁АЙД	-12.716
#	-12.7171
▁ЛАГА	-12.7177
▁Music	-12.7178
▁world	-12.7178
🎁	-12.7178
▁free	-12.7178
▁♥	-12.7178
▁like	-12.7178
▁УДАЛ	-12.7178
▁Group	-12.7178
▁stor	-12.7179
CD	-12.7179
▁Mill	-12.7181
▁рмос	-12.7182
▁box	-12.7183
▁bay	-12.7183
үгэй	-12.7188
СТ	-12.7188
▁ool	-12.719
▁Val	-12.7192
▁нгалт	-12.7199
▁ju	-12.721
▁ров	-12.7213
▁ерри	-12.7215
▁рмен	-12.7222
ild	-12.7228
ИО	-12.7229
RM	-12.7229
▁АМЭ	-12.7232
▁fl	-12.7233
ИГ	-12.7234
▁чух	-12.7234
▁Bitc	-12.7235
27	-12.7236
▁gra	-12.7244
▁Ради	-12.725
▁wit	-12.725
▁log	-12.7268
▁LA	-12.7269
▁ON	-12.7272
ВА	-12.7282
▁марк	-12.7282
▁үж	-12.7288
6%	-12.7305
MA	-12.7312
LE	-12.7314
уни	-12.732
ВЧ	-12.7322
ani	-12.7332
ock	-12.7346
▁Cal	-12.7349
▁Vic	-12.7357
99	-12.7359
▁ep	-12.7359
ТГЭЛ	-12.7365
▁Tr	-12.7368
▁АЙГ	-12.7368
ave	-12.737
▁zi	-12.7389
▁РО	-12.7391
▁лист	-12.7391
ntu	-12.7395
эгээ	-12.7407
▁роке	-12.7411
рей	-12.7417
▁ВЭ	-12.743
2,	-12.7446
▁авли	-12.745
LA	-12.7459
▁лстө	-12.7459
▁ШТ	-12.7459
▁PVC	-12.7481
▁лоуин	-12.7481
▁СШУС	-12.7481
▁Like	-12.7481
▁АРИЛ	-12.7481
▁RAM	-12.7482
▁Hard	-12.7486
▁ялба	-12.7488
▁83	-12.7488
▁ics	-12.7496
▁БД	-12.7503
▁УРГА	-12.7509
▁скри	-12.751
▁SS	-12.7511
▁пизда	-12.7512
HP	-12.7517
AM	-12.7518
▁Фит	-12.7522
▁Xi	-12.7523
▁82	-12.7523
оаоа	-12.753
▁Nik	-12.7532
▁дахаа	-12.7534
опол	-12.7538
▁ембр	-12.7539
▁get	-12.7543
▁вца	-12.7551
▁єм	-12.7552
▁арсе	-12.7552
▁ast	-12.7555
▁Веб	-12.7556
▁Хүч	-12.7558
ёр	-12.7559
ace	-12.756
▁УГА	-12.7567
▁үхэн	-12.7571
▁дєр	-12.7579
▁if	-12.7582
▁Woo	-12.7583
▁?!	-12.7588
▁AS	-12.7593
▁car	-12.7602
ДАА	-12.7613
▁рубл	-12.7615
▁лгор	-12.7616
▁ГЧ	-12.762
32	-12.7623
АГЧ	-12.7634
▁утан	-12.7649
▁акро	-12.7653
▁ДИ	-12.7653
▁ИЧ	-12.7656
▁чсэн	-12.766
▁ейт	-12.7665
▁ХАН	-12.7666
4,	-12.7676
ся	-12.7687
▁ЗДХ	-12.7696
▁Бал	-12.7703
уля	-12.7711
▁67	-12.7719
▁IR	-12.7728
акс	-12.7737
▁АЖ	-12.7751
▁MB	-12.7754
▁ah	-12.7758
ress	-12.7772
▁Mad	-12.7772
▁Char	-12.7773
-1	-12.7773
▁ell	-12.7778
▁MP	-12.7783
тта	-12.7784
▁ука	-12.7789
pt	-12.7792
▁ute	-12.7793
▁QUIZ	-12.7793
い	-12.7793
▁ъцаа	-12.7793
▁амшиг	-12.7794
▁Ї	-12.7794
▁УРВА	-12.7794
▁VIP	-12.7794
outh	-12.7795
▁Tran	-12.7795
▁рив	-12.7796
▁Ver	-12.7798
НУ	-12.7799
▁site	-12.78
▁een	-12.7801
▁ШИГ	-12.7804
▁иего	-12.7805
▁Will	-12.7807
▁ейна	-12.7807
▁ридо	-12.7807
▁97	-12.7816
▁Cha	-12.7817
▁yo	-12.7822
▁нгос	-12.7824
▁Kim	-12.7829
ASA	-12.783
▁огсо	-12.7839
▁Vv	-12.7839
MW	-12.7845
-9	-12.785
▁By	-12.7855
▁этэр	-12.7856
▁all	-12.7858
▁вчих	-12.7858
▁zo	-12.7869
ЛА	-12.7871
▁Ливе	-12.7873
▁эдэл	-12.7886
,8	-12.7888
▁CE	-12.789
▁ЭМЖ	-12.7893
ama	-12.7898
▁220	-12.7903
▁Im	-12.7903
▁Er	-12.7919
илца	-12.7921
▁Vie	-12.7922
▁19,	-12.7923
▁ийдэг	-12.7935
▁рсен	-12.7935
▁гоя	-12.7937
▁rg	-12.7951
▁Shi	-12.7968
▁Ану	-12.797
▁оби	-12.7975
▁ГО	-12.7987
▁енри	-12.7994
▁МБ	-12.8007
▁mic	-12.8016
▁мтэ	-12.8017
▁ez	-12.8029
gue	-12.8029
GL	-12.8036
▁Es	-12.8038
IM	-12.8042
ИА	-12.8042
▁LE	-12.8045
▁ore	-12.8054
▁Spi	-12.8055
▁od	-12.8063
▁92	-12.8085
▁Mer	-12.8096
БД	-12.8099
▁роп	-12.81
арла	-12.8101
ТТ	-12.8101
▁enc	-12.8102
GH	-12.8106
▁Сум	-12.8106
️	-12.8109
▁(6)	-12.8116
▁Medee	-12.8116
▁АЙХАН	-12.8116
▁рюс	-12.8116
▁Loca	-12.8117
▁£	-12.8117
▁ЭУ	-12.812
▁Роби	-12.8121
▁Wa	-12.8124
▁ианна	-12.8129
логы	-12.813
▁dy	-12.813
▁одлоо	-12.8132
▁фика	-12.8133
▁мєн	-12.8135
▁lat	-12.8135
пер	-12.8139
▁ris	-12.8142
▁Sal	-12.8143
7%	-12.8148
▁CH	-12.8149
▁roo	-12.815
▁Мини	-12.8152
▁рдаж	-12.816
при	-12.8165
▁ОРИГ	-12.8167
сүх	-12.817
▁арза	-12.8175
▁мє	-12.8179
▁рдс	-12.8183
▁FA	-12.8183
▁Газ	-12.8183
▁лооз	-12.8187
▁ойжи	-12.8196
ӨГ	-12.8201
ИЙ	-12.8208
▁At	-12.8217
кк	-12.8229
поли	-12.8232
▁tar	-12.8233
▁pl	-12.8238
▁рхтэ	-12.8241
▁zar	-12.8244
▁AI	-12.8244
▁мго	-12.8249
ank	-12.8252
▁ea	-12.8253
▁яха	-12.8255
CE	-12.8264
yy	-12.8268
,4	-12.828
▁Ant	-12.829
▁сэлж	-12.8303
FS	-12.8311
Tu	-12.8319
▁Joe	-12.8326
▁SH	-12.8328
▁рент	-12.8328
ень	-12.833
▁ПО	-12.8339
▁Пите	-12.8345
ген	-12.8352
▁men	-12.8353
AP	-12.837
▁дрон	-12.8374
▁рун	-12.8384
▁DC	-12.8393
ink	-12.8399
ess	-12.8402
▁ѳѳ	-12.8411
орт	-12.8422
тони	-12.8424
MS	-12.8431
lf	-12.8437
▁ОЙ	-12.8439
▁Pan	-12.8449
▁from	-12.8449
▁Єєр	-12.8449
▁week	-12.8449
▁Show	-12.845
▁мкв	-12.845
▁mous	-12.845
▁core	-12.845
▁виней	-12.8451
▁list	-12.8451
▁Nort	-12.8453
▁Dia	-12.8453
▁моод	-12.8454
▁ЛОН	-12.8455
▁Tae	-12.8456
▁боор	-12.8458
▁Саул	-12.8459
▁HA	-12.8461
@@	-12.8461
▁sys	-12.8462
ьда	-12.8463
▁лааз	-12.8465
▁норов	-12.8467
▁Pre	-12.8471
II	-12.8485
ети	-12.8493
CT	-12.8494
▁ДЭЛ	-12.8494
єдє	-12.8496
▁uu	-12.8523
▁арби	-12.8523
▁uni	-12.8526
MC	-12.8528
ze	-12.8553
мой	-12.8555
▁cy	-12.8558
▁ЭЭЛ	-12.8559
lor	-12.8562
НД	-12.8566
▁РД	-12.8569
▁ойко	-12.8589
▁Wo	-12.8592
▁77	-12.8603
▁анте	-12.8606
▁эхнэ	-12.8607
▁CR	-12.8615
▁ҮТ	-12.8627
сть	-12.8641
LT	-12.8659
▁АЙЛ	-12.8659
ava	-12.8659
▁амха	-12.8663
6,	-12.8667
▁wind	-12.8674
▁шок	-12.8676
IVE	-12.8679
RO	-12.8681
EL	-12.8682
▁Bon	-12.8693
▁pla	-12.8697
▁уутай	-12.8704
▁Gre	-12.8705
▁Мет	-12.8707
rack	-12.872
▁роли	-12.8737
тен	-12.8737
▁Пак	-12.8738
▁4)	-12.8742
ски	-12.8747
RI	-12.8747
ГЭЭ	-12.8758
Ю	-12.8769
▁inu	-12.877
▁муй	-12.8774
▁tor	-12.8775
МИ	-12.8775
▁bol	-12.8776
▁чоо	-12.8783
▁унь	-12.8784
▁ЦАГ	-12.8792
ó	-12.8794
▁ӨГЖ	-12.8794
▁Drive	-12.8794
▁ликон	-12.8794
▁ИДЕ	-12.8794
RC	-12.8795
▁єндє	-12.8795
▁=>	-12.8795
▁льный	-12.8795
▁ot	-12.8796
ифт	-12.8796
▁edit	-12.8796
▁Law	-12.8798
▁Pub	-12.8799
▁Pod	-12.8799
▁Mini	-12.8799
▁ize	-12.8799
▁boy	-12.8799
▁here	-12.8802
▁mac	-12.8803
▁June	-12.8804
▁Land	-12.8805
▁lla	-12.8805
оди	-12.881
▁РАЛ	-12.8818
▁Gee	-12.8818
ейк	-12.8824
▁come	-12.8824
▁Leg	-12.8829
▁ХИЙ	-12.883
▁Єн	-12.8835
▁360	-12.8841
▁PE	-12.8848
▁Cy	-12.885
▁MO	-12.8857
▁БЭ	-12.8861
RP	-12.8862
▁одло	-12.8865
▁йран	-12.8872
▁ТХЯ	-12.8873
▁өлө	-12.8878
▁oi	-12.888
▁93	-12.8886
▁bur	-12.8888
21	-12.8892
▁РС	-12.8898
▁мэнт	-12.8898
▁QR	-12.8901
▁Pu	-12.891
56	-12.8913
▁Spor	-12.8913
НЬ	-12.8925
4%	-12.8926
▁lic	-12.8943
▁ide	-12.8948
єх	-12.8961
▁энь	-12.8967
▁but	-12.8981
▁олла	-12.8983
PT	-12.8989
▁алло	-12.899
▁Нац	-12.8992
▁UN	-12.8992
▁AT	-12.8997
▁атле	-12.9004
▁Рик	-12.9014
▁73	-12.9027
▁ксон	-12.9037
▁как	-12.9038
▁йог	-12.9049
СС	-12.905
▁Цац	-12.9064
▁Поли	-12.907
▁нгел	-12.9076
яо	-12.9088
тү	-12.9095
▁Cli	-12.9099
▁Chan	-12.9105
▁Tur	-12.9118
▁nia	-12.9136
▁Joo	-12.9141
~	-12.9144
▁ts	-12.9149
▁Pussy	-12.9151
▁[1]	-12.9151
▁УРХАЙ	-12.9151
▁ѳмнѳ	-12.9151
▁Japan	-12.9151
▁base	-12.9152
▁ЛАГАА	-12.9152
▁VII	-12.9152
▁рзан	-12.9152
▁cum	-12.9154
▁реги	-12.9154
▁Jen	-12.9155
▁SQ	-12.9155
▁Hub	-12.9156
▁Лиза	-12.9156
▁OK	-12.9156
▁365	-12.9158
▁Bre	-12.9159
▁lay	-12.916
▁ky	-12.9162
ЛЭЛ	-12.9163
▁Alt	-12.917
▁аути	-12.9174
▁IEL	-12.9176
▁NA	-12.9183
▁94	-12.9186
▁5%	-12.919
▁rat	-12.9192
▁увц	-12.9193
МС	-12.9197
▁PO	-12.92
▁акү	-12.9201
▁Hot	-12.9202
▁GO	-12.9236
▁здэ	-12.924
єлє	-12.9241
EST	-12.9242
▁Lea	-12.9262
▁cop	-12.9273
▁ran	-12.9275
▁ИМ	-12.9275
47	-12.9285
▁SM	-12.929
▁Ok	-12.9291
▁gue	-12.93
▁gat	-12.9301
ИТ	-12.9322
85	-12.9323
▁ima	-12.9327
▁алра	-12.9349
▁DE	-12.9359
▁dis	-12.9364
▁Col	-12.937
▁AP	-12.9383
▁рке	-12.9383
▁ҮС	-12.9385
▁ртиз	-12.9391
РАН	-12.9395
▁ИС	-12.9403
ЛАЛ	-12.9409
▁SO	-12.9415
▁Ука	-12.9427
ЛАГ	-12.9438
ЙН	-12.9438
ВШ	-12.944
▁chi	-12.9461
33	-12.9468
←	-12.9515
фес	-12.9519
▁CNN	-12.9522
な	-12.9522
▁Snap	-12.9522
▁page	-12.9522
▁рдөг	-12.9522
▁mark	-12.9523
▁ЭМТ	-12.9523
▁key	-12.9524
▁Pop	-12.9525
▁Thi	-12.9525
▁Ray	-12.9525
▁ндиа	-12.9527
▁mart	-12.9528
▁LG	-12.9528
▁ндром	-12.9531
▁bit	-12.9536
Аз	-12.9539
▁mer	-12.954
▁DD	-12.9542
▁донна	-12.9543
▁ргада	-12.9564
▁шраа	-12.9566
▁Pen	-12.9567
▁Py	-12.957
▁мєр	-12.9571
▁ельт	-12.9573
юк	-12.9575
▁Цаас	-12.9587
▁GE	-12.9589
офт	-12.9598
хуа	-12.9608
▁#3	-12.9615
ралт	-12.9615
▁мгай	-12.9633
үрдү	-12.9635
▁mak	-12.9641
ҮК	-12.9645
ris	-12.965
▁med	-12.9665
▁TA	-12.9668
олк	-12.9672
▁hu	-12.9672
▁ze	-12.9674
ool	-12.9675
▁Pra	-12.9677
▁#2	-12.9683
▁Davi	-12.9694
▁МАР	-12.9731
НС	-12.974
BM	-12.975
▁реп	-12.9756
▁анна	-12.9762
ja	-12.9772
їн	-12.9784
▁Одо	-12.9789
▁Mr	-12.98
▁ллен	-12.9801
айта	-12.9811
ЛЭЭ	-12.9812
▁анжи	-12.9813
▁Dem	-12.9833
▁Пап	-12.9839
36	-12.9843
оги	-12.985
NA	-12.986
▁uar	-12.9861
à	-12.9871
▁Лао	-12.9881
▁ӨӨ	-12.9888
ЧИН	-12.99
ö	-12.9906
▁Tits	-12.9906
▁blog	-12.9906
▁РДЭНЭ	-12.9906
ん	-12.9906
▁БЗД	-12.9906
▁ТОП	-12.9906
▁Bay	-12.9906
▁єдєр	-12.9906
▁iba	-12.9906
▁LAN	-12.9907
▁TOE	-12.9907
▁Jess	-12.9907
▁board	-12.9907
▁ильм	-12.9907
▁слайд	-12.9907
▁Crea	-12.9907
▁Poin	-12.9907
▁Def	-12.9907
▁SMS	-12.9908
ОНТ	-12.9908
▁Cock	-12.9908
▁chat	-12.9909
▁inter	-12.991
▁длоо	-12.9911
▁Roy	-12.9911
▁йрго	-12.9912
LS	-12.9912
▁Гял	-12.9913
▁ray	-12.9917
▁EX	-12.9917
▁lf	-12.9917
▁риан	-12.992
▁Ber	-12.9921
▁Tri	-12.9929
▁num	-12.9933
жаал	-12.9943
reak	-12.9947
ици	-12.9949
▁101	-12.995
▁резин	-12.9951
▁мпус	-12.9951
▁ear	-12.9955
▁арри	-12.996
▁азра	-12.9964
▁омоо	-12.9966
▁ОО	-12.9968
67	-12.9975
▁мэгт	-12.9977
aga	-12.9991
9%	-12.9991
SI	-13.0002
▁ОЛГО	-13.0003
шєє	-13.0009
▁Tha	-13.0012
ХГ	-13.0013
NG	-13.002
сөлт	-13.0021
▁нжаа	-13.0021
▁Jus	-13.0041
анна	-13.0057
▁Tel	-13.006
▁nic	-13.0063
rush	-13.0063
▁ГАЛ	-13.0069
▁кок	-13.0078
▁das	-13.0078
▁Eb	-13.0081
▁иуде	-13.0084
▁Жим	-13.0088
▁АЛТ	-13.0111
CO	-13.0117
иков	-13.0123
ЛЖ	-13.0123
▁ET	-13.0136
▁CL	-13.0141
РА	-13.0144
86	-13.0147
▁Вас	-13.0155
▁nit	-13.0156
2%	-13.0156
▁АРД	-13.0161
▁Боб	-13.0167
3,	-13.0172
▁win	-13.0176
▁майк	-13.0182
▁UI	-13.0183
▁ind	-13.0187
▁rn	-13.0196
ЭЭР	-13.0198
ВС	-13.0199
▁sup	-13.02
ути	-13.0208
▁Bea	-13.0218
өгдө	-13.0229
▁HU	-13.0246
▁ОЛОО	-13.0259
▁Eas	-13.0279
▁ЛҮҮ	-13.029
▁мми	-13.0292
ѕ	-13.0306
▁(9)	-13.0306
▁vidio	-13.0306
▁ИЙМ	-13.0306
▁ҮОНРТ	-13.0306
时	-13.0306
Џ	-13.0306
م	-13.0306
▁РДЧИ	-13.0306
▁VIII	-13.0307
▁вказ	-13.0307
▁vice	-13.0307
▁Stra	-13.0307
▁ОХИО	-13.0307
▁Plac	-13.0307
▁Щ	-13.0307
▁rent	-13.0307
▁Rock	-13.0308
▁NET	-13.0308
▁WW	-13.0309
▁WI	-13.0309
▁DJ	-13.031
▁Num	-13.031
▁юкс	-13.0311
▁жүүс	-13.0312
▁Лазер	-13.0313
amp	-13.0316
▁Tom	-13.0318
ТО	-13.0321
▁радо	-13.0324
еди	-13.0327
▁вуулж	-13.0331
▁Set	-13.0332
▁єсє	-13.0337
▁Gm	-13.0338
▁ula	-13.0343
▁ѐр	-13.0348
▁rus	-13.0351
бри	-13.0355
▁ршал	-13.0357
▁авол	-13.0364
▁нзан	-13.0364
88	-13.0369
▁fil	-13.0371
▁Arc	-13.0372
DM	-13.038
38	-13.039
▁hell	-13.0394
▁МҮТ	-13.0397
▁оёот	-13.0401
▁cas	-13.0405
▁Gree	-13.0416
▁+1	-13.0418
3%	-13.0422
▁ХАЙ	-13.0424
▁wan	-13.0432
DS	-13.0432
BE	-13.0434
омбо	-13.0435
НӨ	-13.0441
▁итай	-13.0444
▁ШГ	-13.0449
DP	-13.0453
igh	-13.047
орк	-13.047
▁COM	-13.0471
48	-13.0473
ХЦ	-13.048
▁Nigh	-13.0505
зер	-13.0523
▁Ave	-13.0529
▁ЙЛ	-13.0535
▁Bit	-13.0542
кок	-13.0543
▁рук	-13.0544
РАМ	-13.0561
▁Smar	-13.0561
▁пя	-13.0568
▁EUR	-13.0583
▁риш	-13.0585
▁tha	-13.0607
▁fon	-13.0623
▁aar	-13.0627
юм	-13.0644
чик	-13.0645
▁XP	-13.0645
▁air	-13.0647
iz	-13.0657
РЫН	-13.0671
▁IC	-13.0683
▁ѐ	-13.0684
▁ойж	-13.0686
▁var	-13.0691
oul	-13.0696
▁лдай	-13.0696
zy	-13.0714
▁Dur	-13.072
▁shot	-13.0723
▁АРИМТ	-13.0723
▁ЗӨВ	-13.0723
▁Ltd	-13.0723
▁Pok	-13.0723
▁шкаф	-13.0723
▁үүвэй	-13.0723
▁ONE	-13.0723
▁Rose	-13.0723
▁loo	-13.0723
▁izer	-13.0724
▁збек	-13.0724
▁Mess	-13.0724
▁Bank	-13.0724
▁á	-13.0725
▁tph	-13.0725
▁тиоп	-13.0725
▁Eun	-13.0726
ideo	-13.0726
▁USD	-13.0726
▁оэф	-13.0726
▁Vol	-13.0727
▁hos	-13.0727
▁Лена	-13.0727
▁Ear	-13.0728
▁Ava	-13.0728
▁Tru	-13.0728
▁Bill	-13.073
▁льва	-13.0731
▁СШУЯ	-13.0732
▁anc	-13.0734
▁ҥ	-13.0737
ээвр	-13.0739
▁илтэй	-13.074
▁ьё	-13.0744
▁остон	-13.0749
▁ломб	-13.0749
64	-13.075
▁ЛЭЭ	-13.0755
▁Zi	-13.0757
br	-13.0759
▁Sta	-13.0763
▁gre	-13.0773
бул	-13.0778
▁Ben	-13.0778
▁Ter	-13.0791
▁ish	-13.0795
▁умб	-13.0798
▁wo	-13.0802
фра	-13.0807
▁ag	-13.0809
▁cc	-13.0817
▁ИК	-13.082
▁АНЫ	-13.0824
▁dom	-13.0829
▁Логи	-13.0838
▁GD	-13.0838
▁ерно	-13.0858
▁upda	-13.0862
▁ҮНИЙ	-13.087
inte	-13.0878
▁tac	-13.0879
▁oe	-13.0885
▁Tu	-13.0887
▁LO	-13.0889
IC	-13.0909
▁рез	-13.0909
FF	-13.0912
▁AD	-13.093
ТАН	-13.0933
61	-13.0934
▁ov	-13.0935
76	-13.0938
ГО	-13.0943
кос	-13.0955
▁ийтэ	-13.097
нгѳ	-13.0979
▁илле	-13.0984
ЙЖ	-13.0984
▁Holl	-13.0986
▁Pac	-13.0995
▁эйк	-13.1004
▁нгон	-13.1004
▁Сент	-13.1019
▁JS	-13.1025
lass	-13.1025
УУЛ	-13.1026
▁Yoo	-13.1033
37	-13.1046
ПУ	-13.1047
▁еее	-13.1049
ШИН	-13.1055
ple	-13.1063
▁Pat	-13.1066
▁Коб	-13.1084
ХАН	-13.1097
▁(3	-13.1102
еви	-13.1105
▁ln	-13.1106
руто	-13.1111
▁RT	-13.1115
98	-13.1136
FI	-13.1139
▁Фран	-13.1144
=	-13.115
ä	-13.115
ђђ	-13.1151
ђ	-13.1151
▁GS	-13.1151
▁mar	-13.1152
▁Мєн	-13.1157
Ъ	-13.1158
▁Paul	-13.1158
し	-13.1158
▁THE	-13.1158
▁ЭРЭМ	-13.1158
▁Voice	-13.1158
▁ГБТ	-13.1158
▁Блок	-13.1159
▁CoV	-13.1159
▁2.0	-13.1159
▁ION	-13.1159
▁Tex	-13.116
▁How	-13.116
▁Max	-13.1161
▁UK	-13.1161
▁сбад	-13.1162
▁Fro	-13.1162
▁юси	-13.1163
▁Sain	-13.1163
▁style	-13.1164
▁РГА	-13.1164
▁Clu	-13.1164
▁MV	-13.1165
▁tex	-13.1165
▁ЮМ	-13.1166
▁иско	-13.1167
▁энзэ	-13.1167
▁АРТ	-13.1169
▁End	-13.117
69	-13.117
УЗ	-13.1172
ACK	-13.1172
▁огра	-13.1173
▁í	-13.1173
▁Are	-13.1173
▁jo	-13.1174
▁ley	-13.1175
▁rai	-13.1177
▁Dura	-13.1177
▁pres	-13.1178
▁thi	-13.1178
▁red	-13.1182
▁Саад	-13.1191
▁95%	-13.1202
ount	-13.1208
ОД	-13.1208
ХИН	-13.1209
▁мъя	-13.1209
▁sha	-13.1211
▁eb	-13.1213
▁Pin	-13.1215
АК	-13.1216
▁RO	-13.1218
▁Mal	-13.1228
▁УЛГА	-13.1229
▁280	-13.1232
үчтэ	-13.1234
ульм	-13.1235
OR	-13.1237
▁ОП	-13.1237
▁2%	-13.1238
▁Bin	-13.1253
▁ѳлѳ	-13.1257
шта	-13.1257
▁gam	-13.1264
▁IE	-13.1271
▁ern	-13.1273
ў	-13.1612
ا	-13.1612
の	-13.1612
・	-13.1612
ي	-13.2088
☞	-13.2088
す	-13.2088
(	-13.2581
ң	-13.2588
ı	-13.3115
ì	-13.367
і	-13.367
ā	-13.367
μ	-13.4258
ま	-13.4258
る	-13.4258
Ø	-13.4883
Ќ	-13.4883
う	-13.4883
て	-13.4883
😂	-13.4883
ѐ	-13.5543
•	-13.5543
§	-13.555
ر	-13.555
に	-13.555
이	-13.555
😊	-13.555
ћ	-13.555
қ	-13.555
ل	-13.555
õ	-13.6257
è	-13.6257
ï	-13.6264
җ	-13.6264
ø	-13.6264
ế	-13.6264
】	-13.6264
名	-13.6264
â	-13.7034
ら	-13.7034
û	-13.7034
♦	-13.7034
【	-13.7034
ن	-13.7034
で	-13.7034
ɵ	-13.7867
Ў	-13.7867
±	-13.7867
ç	-13.7867
ќ	-13.7867
か	-13.7867
く	-13.8776
æ	-13.8776
ع	-13.8776
あ	-13.8776
І	-13.8776
و	-13.8776
⁄	-13.8776
こ	-13.8776
た	-13.8776
曲	-13.8776
称	-13.8776
요	-13.8776
🏻	-13.8776
α	-13.8776
<	-13.9769
り	-13.9776
れ	-13.9776
¥	-13.9776
γ	-13.9776
」	-13.9776
よ	-13.9776
ー	-13.9776
👉	-13.9776
💵	-13.9776
د	-13.9776
と	-13.9776
›	-14.088
ò	-14.088
国	-14.0887
だ	-14.0887
나	-14.0887
が	-14.0887
Õ	-14.0887
ş	-14.0887
↙	-14.0887
は	-14.0887
を	-14.0887
😦	-14.0887
ه	-14.2137
も	-14.2137
س	-14.2137
お	-14.2137
ン	-14.2137
Á	-14.2137
Ü	-14.2137
š	-14.2137
⋆	-14.2137
☈	-14.2137
♚	-14.2137
き	-14.2137
学	-14.2137
書	-14.2137
어	-14.2137
📌	-14.2137
っ	-14.2137
유	-14.2137
^	-14.3559
á	-14.3559
Ѳ	-14.3559
€	-14.3559
ば	-14.3566
Ş	-14.3566
ɪ	-14.3566
Ћ	-14.3566
י	-14.3566
ר	-14.3566
ف	-14.3566
ᄂ	-14.3566
■	-14.3566
◆	-14.3566
○	-14.3566
け	-14.3566
日	-14.3566
리	-14.3566
¦	-14.3566
ո	-14.3566
기	-14.3566
★	-14.5225
°	-14.5225
[	-14.5226
Ç	-14.5232
ル	-14.5232
É	-14.5232
ư	-14.5232
̷	-14.5232
ι	-14.5232
π	-14.5232
ұ	-14.5232
ն	-14.5232
א	-14.5232
ی	-14.5232
ᄅ	-14.5232
ᠠ	-14.5232
ᠢ	-14.5232
ớ	-14.5232
≥	-14.5232
▪	-14.5232
☆	-14.5232
✨	-14.5232
、	-14.5232
せ	-14.5232
ち	-14.5232
め	-14.5232
人	-14.5232
会	-14.5232
時	-14.5232
니	-14.5232
다	-14.5232
つ	-14.5232
わ	-14.5232
楽	-14.5232
×	-14.7225
غ	-14.7232
¤	-14.7232
Ò	-14.7232
ß	-14.7232
ա	-14.7232
ե	-14.7232
մ	-14.7232
ط	-14.7232
―	-14.7232
⃣	-14.7232
◊	-14.7232
ご	-14.7232
図	-14.7232
江	-14.7232
済	-14.7232
経	-14.7232
行	-14.7232
表	-14.7232
路	-14.7232
部	-14.7232
際	-14.7232
말	-14.7232
사	-14.7232
서	-14.7232
정	-14.7232
하	-14.7232
😁	-14.7232
ґ	-14.7232
Һ	-14.7232
ح	-14.7232
返	-14.7232
ο	-14.7232
ᠳ	-14.7232
一	-14.7232
배	-14.7232
지	-14.7232
Щ	-14.9725
£	-14.9725
平	-14.9732
ق	-14.9732
げ	-14.9732
À	-14.9732
Ã	-14.9732
Ë	-14.9732
Ñ	-14.9732
Ý	-14.9732
ú	-14.9732
İ	-14.9732
ō	-14.9732
Ѕ	-14.9732
ל	-14.9732
ب	-14.9732
ค	-14.9732
᠋	-14.9732
ᠨ	-14.9732
▼	-14.9732
☛	-14.9732
☻	-14.9732
え	-14.9732
ㄟ	-14.9732
中	-14.9732
台	-14.9732
文	-14.9732
語	-14.9732
間	-14.9732
대	-14.9732
비	-14.9732
세	-14.9732
아	-14.9732
영	-14.9732
원	-14.9732
저	-14.9732
한	-14.9732
🇷	-14.9732
🌟	-14.9732
💥	-14.9732
📍	-14.9732
😆	-14.9732
ғ	-14.9732
月	-14.9732
本	-14.9732
내	-14.9732
ᠷ	-14.9732
@	-15.2923
😍	-15.3059
Є	-15.3059
ʀ	-15.3066
ى	-15.3066
ง	-15.3066
ᴇ	-15.3066
ゃ	-15.3066
我	-15.3066
💚	-15.3066
💫	-15.3066
Ä	-15.3066
Ð	-15.3066
Ö	-15.3066
ê	-15.3066
ô	-15.3066
č	-15.3066
ī	-15.3066
Œ	-15.3066
̀	-15.3066
Δ	-15.3066
ί	-15.3066
θ	-15.3066
λ	-15.3066
Ҥ	-15.3066
ӈ	-15.3066
ӓ	-15.3066
ӱ	-15.3066
ս	-15.3066
տ	-15.3066
ք	-15.3066
נ	-15.3066
أ	-15.3066
ش	-15.3066
ন	-15.3066
க	-15.3066
น	-15.3066
ย	-15.3066
่	-15.3066
ᠦ	-15.3066
ḥ	-15.3066
ṭ	-15.3066
‖	-15.3066
∙	-15.3066
☎	-15.3066
⚡	-15.3066
⚫	-15.3066
➢	-15.3066
⦁	-15.3066
《	-15.3066
〓	-15.3066
ど	-15.3066
ひ	-15.3066
や	-15.3066
ナ	-15.3066
フ	-15.3066
モ	-15.3066
リ	-15.3066
上	-15.3066
下	-15.3066
件	-15.3066
信	-15.3066
子	-15.3066
法	-15.3066
版	-15.3066
现	-15.3066
自	-15.3066
软	-15.3066
达	-15.3066
通	-15.3066
音	-15.3066
高	-15.3066
경	-15.3066
국	-15.3066
뉴	-15.3066
는	-15.3066
라	-15.3066
로	-15.3066
법	-15.3066
부	-15.3066
수	-15.3066
우	-15.3066
의	-15.3066
자	-15.3066
장	-15.3066
주	-15.3066
태	-15.3066
토	-15.3066
티	-15.3066
현	-15.3066
횊	-15.3066
회	-15.3066
후	-15.3066
︎	-15.3066
🌈	-15.3066
🍷	-15.3066
🎯	-15.3066
🏠	-15.3066
👎	-15.3066
👨	-15.3066
💜	-15.3066
💰	-15.3066
🔰	-15.3066
🤘	-15.3066
🥇	-15.3066
ע	-15.3066
み	-15.3066
天	-15.3066
ւ	-15.3066
ม	-15.3066
ᠡ	-15.3066
キ	-15.3066
シ	-15.3066
的	-15.3066
스	-15.3066
야	-15.3066
인	-15.3066
해	-15.3066
÷	-15.8059
Ї	-15.8059
ك	-15.8059
\	-15.8059
{	-15.8059
→	-15.8059
黑	-15.8066
龙	-15.8066
ǿ	-15.8066
ʜ	-15.8066
ص	-15.8066
ซ	-15.8066
ゅ	-15.8066
们	-15.8066
즈	-15.8066
💁	-15.8066
È	-15.8066
ÿ	-15.8066
ć	-15.8066
đ	-15.8066
ĕ	-15.8066
Ł	-15.8066
ł	-15.8066
ū	-15.8066
ɐ	-15.8066
ˌ	-15.8066
͜	-15.8066
Ω	-15.8066
δ	-15.8066
ε	-15.8066
κ	-15.8066
ρ	-15.8066
ς	-15.8066
φ	-15.8066
ј	-15.8066
њ	-15.8066
Ґ	-15.8066
ӣ	-15.8066
կ	-15.8066
ղ	-15.8066
ր	-15.8066
ב	-15.8066
ו	-15.8066
ת	-15.8066
ت	-15.8066
خ	-15.8066
ک	-15.8066
क	-15.8066
ल	-15.8066
ा	-15.8066
া	-15.8066
ু	-15.8066
্	-15.8066
ਟ	-15.8066
ਪ	-15.8066
ล	-15.8066
ส	-15.8066
อ	-15.8066
ิ	-15.8066
ี	-15.8066
เ	-15.8066
ใ	-15.8066
้	-15.8066
྆	-15.8066
န	-15.8066
မ	-15.8066
့	-15.8066
း	-15.8066
ᆞ	-15.8066
ᠭ	-15.8066
ᠮ	-15.8066
ᠶ	-15.8066
ᵴ	-15.8066
ḍ	-15.8066
ṅ	-15.8066
ṇ	-15.8066
‣	-15.8066
‰	-15.8066
↔	-15.8066
⇨	-15.8066
∂	-15.8066
∆	-15.8066
≠	-15.8066
⏱	-15.8066
█	-15.8066
□	-15.8066
▶	-15.8066
❀	-15.8066
❄	-15.8066
❷	-15.8066
❹	-15.8066
⠀	-15.8066
ぐ	-15.8066
ぶ	-15.8066
ろ	-15.8066
イ	-15.8066
ウ	-15.8066
ギ	-15.8066
コ	-15.8066
サ	-15.8066
ソ	-15.8066
ダ	-15.8066
ブ	-15.8066
ャ	-15.8066
ㄨ	-15.8066
介	-15.8066
仔	-15.8066
代	-15.8066
住	-15.8066
便	-15.8066
内	-15.8066
十	-15.8066
南	-15.8066
号	-15.8066
品	-15.8066
商	-15.8066
回	-15.8066
地	-15.8066
夢	-15.8066
安	-15.8066
展	-15.8066
形	-15.8066
族	-15.8066
是	-15.8066
曜	-15.8066
松	-15.8066
止	-15.8066
気	-15.8066
水	-15.8066
流	-15.8066
点	-15.8066
理	-15.8066
生	-15.8066
用	-15.8066
田	-15.8066
発	-15.8066
简	-15.8066
紀	-15.8066
网	-15.8066
翻	-15.8066
者	-15.8066
聲	-15.8066
胡	-15.8066
解	-15.8066
言	-15.8066
証	-15.8066
話	-15.8066
誌	-15.8066
译	-15.8066
责	-15.8066
身	-15.8066
載	-15.8066
達	-15.8066
金	-15.8066
鈴	-15.8066
门	-15.8066
類	-15.8066
麦	-15.8066
꧁	-15.8066
게	-15.8066
고	-15.8066
권	-15.8066
규	-15.8066
남	-15.8066
너	-15.8066
노	-15.8066
동	-15.8066
루	-15.8066
르	-15.8066
린	-15.8066
무	-15.8066
미	-15.8066
민	-15.8066
보	-15.8066
선	-15.8066
시	-15.8066
안	-15.8066
역	-15.8066
연	-15.8066
예	-15.8066
올	-15.8066
으	-15.8066
은	-15.8066
을	-15.8066
전	-15.8066
창	-15.8066
크	-15.8066
통	-15.8066
트	-15.8066
화	-15.8066
훈	-15.8066
희	-15.8066
🇰	-15.8066
🌙	-15.8066
🌱	-15.8066
🌸	-15.8066
👐	-15.8066
👷	-15.8066
📎	-15.8066
🔌	-15.8066
🔑	-15.8066
🔵	-15.8066
🔶	-15.8066
🔸	-15.8066
🗃	-15.8066
😋	-15.8066
😎	-15.8066
😓	-15.8066
🙁	-15.8066
🚫	-15.8066
🛫	-15.8066
🤔	-15.8066
🤪	-15.8066
🥰	-15.8066
🦸	-15.8066
ذ	-15.8066
ਸ	-15.8066
ν	-15.8066
ョ	-15.8066
个	-15.8066
作	-15.8066
御	-15.8066
社	-15.8066
管	-15.8066
線	-15.8066
美	-15.8066
도	-15.8066
초	-15.8066
🦉	-16.7886
🥺	-16.7887
🙌	-16.7888
🙃	-16.7889
😔	-16.789
🔅	-16.7891
💙	-16.7892
💅	-16.7893
💃	-16.7894
👀	-16.7895
🎧	-16.7896
🇺	-16.7897
🇲	-16.7898
튜	-16.7899
최	-16.79
직	-16.7901
없	-16.7902
알	-16.7903
새	-16.7904
브	-16.7905
革	-16.7906
重	-16.7907
近	-16.7908
请	-16.7909
皇	-16.791
李	-16.7911
手	-16.7912
後	-16.7913
山	-16.7914
変	-16.7915
基	-16.7916
图	-16.7917
団	-16.7918
合	-16.7919
分	-16.792
交	-16.7921
业	-16.7922
世	-16.7923
ㄎ	-16.7924
ㄍ	-16.7925
ド	-16.7926
ク	-16.7927
❼	-16.7928
✈	-16.7929
⚽	-16.793
♠	-16.7931
♔	-16.7932
♏	-16.7933
☹	-16.7934
│	-16.7935
⎪	-16.7936
⇒	-16.7937
₽	-16.7938
ᠬ	-16.7939
ᠥ	-16.794
ᄀ	-16.7941
ด	-16.7942
ก	-16.7943
ब	-16.7944
ה	-16.7945
ג	-16.7946
ҳ	-16.7947
Ҳ	-16.7948
̌	-16.7949
ś	-16.795
ń	-16.7951
ğ	-16.7952
ė	-16.7953
Č	-16.7954
Æ	-16.7955
🤮	-16.7956
🤟	-16.7957
🤑	-16.7958
🚗	-16.7959
🔬	-16.796
함	-16.7961
오	-16.7962
신	-16.7963
바	-16.7964
구	-16.7965
出	-16.7966
ゴ	-16.7967
ざ	-16.7968
》	-16.7969
❗	-16.797
◦	-16.7971
โ	-16.7972
ਰ	-16.7973
ӧ	-16.7974
Ӏ	-16.7975
ѓ	-16.7976
σ	-16.7977
Ā	-16.7978
þ	-16.7979
å	-16.798
🥳	-16.7981
😝	-16.7982
😜	-16.7983
😇	-16.7984
😃	-16.7985
💎	-16.7986
👩	-16.7987
제	-16.7988
ょ	-16.7989
♂	-16.799
₩	-16.7991
ہ	-16.7992
ω	-16.7993
😘	-16.7994
🔴	-16.7995
蒙	-16.7996
愛	-16.7997
古	-16.7998
じ	-16.7999
♀	-16.8
☀	-16.8001
▲	-16.8002
∞	-16.8003
‹	-16.8004
џ	-16.8005
김	-16.8006
さ	-16.8007
➡	-16.8008
➜	-16.8009
β	-16.801
ˈ	-16.8011
¢	-16.8012
💯	-16.8013
♡	-16.8014
☺	-16.8015
ƒ	-16.8016
😢	-16.8017
👍	-16.8018
−	-16.8019
†	-16.802
😱	-16.8021
。	-16.8022
✓	-16.8023
↓	-16.8024
‐	-16.8025
🤩	-16.8026
🤣	-16.8027
🤗	-16.8028
👏	-16.8029
⭐	-16.803
̈	-16.8031
彩	-16.8032
♫	-16.8033
ə	-16.8034
歌	-16.8035
「	-16.8036
※	-16.8037
そ	-16.8038
✿	-16.8039
♪	-16.804
̄	-16.8041
≈	-16.8042
ᅲ	-16.8043
🔥	-16.8044
🔊	-16.8045
😅	-16.8046
😭	-16.8047
🙏	-16.8048
≤	-16.8049
😛	-16.805
ᄏ	-16.8051
♛	-16.8052
☮	-16.8053
✔	-16.8054
😉	-16.8055
✅	-16.8056
₪	-16.8057
Í	-16.8058
↑	-16.8059
√	-16.8059
♥	-16.8059
®	-16.8059
❤	-16.8059
}	-16.8059
|	-16.8059
©	-16.806
😀	-16.8061
¬	-16.8062
′	-16.8063
🙂	-16.8064
₮	-16.8065
Ɗ	-16.8066
ۇ	-16.8066
ᵯ	-16.8066
ほ	-16.8066
儿	-16.8066
別	-16.8066
務	-16.8066
博	-16.8066
味	-16.8066
情	-16.8066
暲	-16.8066
特	-16.8066
百	-16.8066
給	-16.8066
航	-16.8066
让	-16.8066
陝	-16.8066
둥	-16.8066
콧	-16.8066
퍼	-16.8066
펄	-16.8066
¶	-16.8066
Ô	-16.8066
ĸ	-16.8066
Ң	-16.8066
ฬ	-16.8066
互	-16.8066
視	-16.8066
👽	-16.8066
Â	-16.8066
Ê	-16.8066
Ì	-16.8066
Î	-16.8066
ă	-16.8066
ē	-16.8066
Ė	-16.8066
ę	-16.8066
ě	-16.8066
Į	-16.8066
ľ	-16.8066
ň	-16.8066
œ	-16.8066
ř	-16.8066
ť	-16.8066
ŧ	-16.8066
ů	-16.8066
Ž	-16.8066
ǎ	-16.8066
ɇ	-16.8066
ɑ	-16.8066
ɲ	-16.8066
ɴ	-16.8066
ʏ	-16.8066
ʟ	-16.8066
ː	-16.8066
˗	-16.8066
̵	-16.8066
̸	-16.8066
͞	-16.8066
Η	-16.8066
Κ	-16.8066
Μ	-16.8066
Ο	-16.8066
Τ	-16.8066
Φ	-16.8066
Ψ	-16.8066
ά	-16.8066
ή	-16.8066
η	-16.8066
τ	-16.8066
υ	-16.8066
ό	-16.8066
ύ	-16.8066
ώ	-16.8066
Ђ	-16.8066
҉	-16.8066
Җ	-16.8066
Қ	-16.8066
ҡ	-16.8066
Ұ	-16.8066
ҷ	-16.8066
ӄ	-16.8066
Ӈ	-16.8066
ӑ	-16.8066
Ә	-16.8066
ӝ	-16.8066
ӯ	-16.8066
Ա	-16.8066
Գ	-16.8066
Ե	-16.8066
Ո	-16.8066
դ	-16.8066
ը	-16.8066
ի	-16.8066
լ	-16.8066
խ	-16.8066
յ	-16.8066
չ	-16.8066
վ	-16.8066
ց	-16.8066
ז	-16.8066
ט	-16.8066
מ	-16.8066
פ	-16.8066
،	-16.8066
؟	-16.8066
إ	-16.8066
ز	-16.8066
ض	-16.8066
َ	-16.8066
ە	-16.8066
ं	-16.8066
इ	-16.8066
ए	-16.8066
ज	-16.8066
र	-16.8066
़	-16.8066
ि	-16.8066
ै	-16.8066
१	-16.8066
४	-16.8066
७	-16.8066
९	-16.8066
অ	-16.8066
ই	-16.8066
ক	-16.8066
চ	-16.8066
ত	-16.8066
দ	-16.8066
ব	-16.8066
র	-16.8066
ি	-16.8066
ে	-16.8066
ਂ	-16.8066
ਕ	-16.8066
ਮ	-16.8066
ਹ	-16.8066
ਾ	-16.8066
ਿ	-16.8066
ੀ	-16.8066
ੂ	-16.8066
ੈ	-16.8066
ੌ	-16.8066
ட	-16.8066
ழ	-16.8066
ா	-16.8066
ி	-16.8066
ூ	-16.8066
ை	-16.8066
்	-16.8066
ೋ	-16.8066
จ	-16.8066
ต	-16.8066
ท	-16.8066
ฝ	-16.8066
พ	-16.8066
ฟ	-16.8066
ภ	-16.8066
ว	-16.8066
ษ	-16.8066
ห	-16.8066
ั	-16.8066
า	-16.8066
ึ	-16.8066
แ	-16.8066
ไ	-16.8066
์	-16.8066
࿐	-16.8066
တ	-16.8066
လ	-16.8066
သ	-16.8066
ဦ	-16.8066
ိ	-16.8066
ု	-16.8066
ေ	-16.8066
္	-16.8066
်	-16.8066
ြ	-16.8066
၊	-16.8066
ᄇ	-16.8066
ᄋ	-16.8066
ᄒ	-16.8066
ᅮ	-16.8066
ᅳ	-16.8066
ᅵ	-16.8066
ᐉ	-16.8066
ᠤ	-16.8066
ᠫ	-16.8066
ᠯ	-16.8066
ᠰ	-16.8066
ᠱ	-16.8066
ᠴ	-16.8066
ᠵ	-16.8066
ᠹ	-16.8066
ᠻ	-16.8066
ᠼ	-16.8066
᭄	-16.8066
ᴀ	-16.8066
ᴄ	-16.8066
ᴍ	-16.8066
ᴜ	-16.8066
ṃ	-16.8066
ẙ	-16.8066
ầ	-16.8066
ắ	-16.8066
ằ	-16.8066
ễ	-16.8066
ờ	-16.8066
ἰ	-16.8066
‡	-16.8066
₹	-16.8066
↖	-16.8066
↳	-16.8066
∈	-16.8066
≫	-16.8066
⋯	-16.8066
⌚	-16.8066
╒	-16.8066
╘	-16.8066
╟	-16.8066
╢	-16.8066
▍	-16.8066
▨	-16.8066
◇	-16.8066
☂	-16.8066
☑	-16.8066
☔	-16.8066
☕	-16.8066
☘	-16.8066
☝	-16.8066
☤	-16.8066
♣	-16.8066
⚃	-16.8066
⚕	-16.8066
⚙	-16.8066
⚠	-16.8066
✌	-16.8066
✍	-16.8066
✞	-16.8066
✯	-16.8066
❂	-16.8066
❃	-16.8066
❏	-16.8066
❖	-16.8066
➥	-16.8066
➳	-16.8066
⿱	-16.8066
『	-16.8066
』	-16.8066
ぎ	-16.8066
ぬ	-16.8066
べ	-16.8066
ゆ	-16.8066
ィ	-16.8066
カ	-16.8066
ガ	-16.8066
ゲ	-16.8066
セ	-16.8066
ゼ	-16.8066
タ	-16.8066
チ	-16.8066
ツ	-16.8066
ヅ	-16.8066
デ	-16.8066
ニ	-16.8066
ハ	-16.8066
バ	-16.8066
ヒ	-16.8066
ビ	-16.8066
ベ	-16.8066
ペ	-16.8066
マ	-16.8066
ミ	-16.8066
ム	-16.8066
ラ	-16.8066
七	-16.8066
万	-16.8066
三	-16.8066
不	-16.8066
么	-16.8066
乐	-16.8066
也	-16.8066
云	-16.8066
京	-16.8066
今	-16.8066
他	-16.8066
付	-16.8066
任	-16.8066
企	-16.8066
伊	-16.8066
休	-16.8066
众	-16.8066
何	-16.8066
你	-16.8066
使	-16.8066
係	-16.8066
保	-16.8066
修	-16.8066
俺	-16.8066
們	-16.8066
停	-16.8066
健	-16.8066
側	-16.8066
僕	-16.8066
優	-16.8066
元	-16.8066
光	-16.8066
克	-16.8066
免	-16.8066
八	-16.8066
公	-16.8066
册	-16.8066
再	-16.8066
冯	-16.8066
划	-16.8066
前	-16.8066
势	-16.8066
動	-16.8066
勖	-16.8066
勧	-16.8066
包	-16.8066
化	-16.8066
北	-16.8066
医	-16.8066
午	-16.8066
华	-16.8066
卡	-16.8066
参	-16.8066
召	-16.8066
向	-16.8066
吗	-16.8066
员	-16.8066
周	-16.8066
命	-16.8066
和	-16.8066
唐	-16.8066
售	-16.8066
唱	-16.8066
問	-16.8066
喵	-16.8066
器	-16.8066
國	-16.8066
圖	-16.8066
址	-16.8066
型	-16.8066
場	-16.8066
塑	-16.8066
塚	-16.8066
士	-16.8066
声	-16.8066
夂	-16.8066
夕	-16.8066
夜	-16.8066
太	-16.8066
奇	-16.8066
奋	-16.8066
好	-16.8066
妹	-16.8066
委	-16.8066
姿	-16.8066
娱	-16.8066
字	-16.8066
宅	-16.8066
宗	-16.8066
定	-16.8066
室	-16.8066
宽	-16.8066
密	-16.8066
导	-16.8066
小	-16.8066
少	-16.8066
局	-16.8066
属	-16.8066
履	-16.8066
岩	-16.8066
峮	-16.8066
州	-16.8066
巡	-16.8066
巣	-16.8066
工	-16.8066
帝	-16.8066
帮	-16.8066
帯	-16.8066
年	-16.8066
庆	-16.8066
府	-16.8066
康	-16.8066
建	-16.8066
开	-16.8066
异	-16.8066
弦	-16.8066
当	-16.8066
录	-16.8066
心	-16.8066
必	-16.8066
志	-16.8066
忘	-16.8066
忙	-16.8066
快	-16.8066
怎	-16.8066
您	-16.8066
悲	-16.8066
意	-16.8066
憎	-16.8066
戒	-16.8066
戰	-16.8066
戸	-16.8066
打	-16.8066
払	-16.8066
抢	-16.8066
拶	-16.8066
指	-16.8066
挨	-16.8066
掲	-16.8066
提	-16.8066
改	-16.8066
故	-16.8066
斗	-16.8066
斥	-16.8066
斯	-16.8066
新	-16.8066
早	-16.8066
昌	-16.8066
星	-16.8066
昴	-16.8066
普	-16.8066
更	-16.8066
會	-16.8066
有	-16.8066
望	-16.8066
朝	-16.8066
机	-16.8066
村	-16.8066
林	-16.8066
査	-16.8066
株	-16.8066
椰	-16.8066
楫	-16.8066
概	-16.8066
構	-16.8066
横	-16.8066
機	-16.8066
歳	-16.8066
残	-16.8066
毛	-16.8066
民	-16.8066
气	-16.8066
永	-16.8066
沖	-16.8066
没	-16.8066
河	-16.8066
治	-16.8066
沿	-16.8066
注	-16.8066
泰	-16.8066
洛	-16.8066
洞	-16.8066
浙	-16.8066
浜	-16.8066
淮	-16.8066
渡	-16.8066
湖	-16.8066
漏	-16.8066
演	-16.8066
照	-16.8066
燼	-16.8066
牛	-16.8066
玉	-16.8066
甘	-16.8066
町	-16.8066
画	-16.8066
留	-16.8066
登	-16.8066
盘	-16.8066
眉	-16.8066
码	-16.8066
礦	-16.8066
祉	-16.8066
祐	-16.8066
神	-16.8066
福	-16.8066
离	-16.8066
私	-16.8066
秘	-16.8066
稳	-16.8066
站	-16.8066
等	-16.8066
米	-16.8066
糞	-16.8066
紇	-16.8066
红	-16.8066
线	-16.8066
考	-16.8066
能	-16.8066
腕	-16.8066
臨	-16.8066
舞	-16.8066
良	-16.8066
華	-16.8066
葵	-16.8066
藏	-16.8066
藤	-16.8066
蛋	-16.8066
蠟	-16.8066
衛	-16.8066
袖	-16.8066
裏	-16.8066
西	-16.8066
要	-16.8066
見	-16.8066
親	-16.8066
见	-16.8066
誉	-16.8066
説	-16.8066
諸	-16.8066
識	-16.8066
讃	-16.8066
计	-16.8066
记	-16.8066
语	-16.8066
读	-16.8066
课	-16.8066
豚	-16.8066
象	-16.8066
貸	-16.8066
費	-16.8066
賃	-16.8066
資	-16.8066
賞	-16.8066
趋	-16.8066
車	-16.8066
軒	-16.8066
輝	-16.8066
载	-16.8066
辉	-16.8066
输	-16.8066
辺	-16.8066
込	-16.8066
运	-16.8066
还	-16.8066
迴	-16.8066
迹	-16.8066
送	-16.8066
連	-16.8066
進	-16.8066
過	-16.8066
選	-16.8066
郑	-16.8066
都	-16.8066
配	-16.8066
里	-16.8066
鑑	-16.8066
钱	-16.8066
银	-16.8066
镇	-16.8066
长	-16.8066
関	-16.8066
问	-16.8066
间	-16.8066
阒	-16.8066
际	-16.8066
险	-16.8066
陳	-16.8066
随	-16.8066
雑	-16.8066
面	-16.8066
韬	-16.8066
響	-16.8066
題	-16.8066
颚	-16.8066
駅	-16.8066
马	-16.8066
鵬	-16.8066
黄	-16.8066
龶	-16.8066
꧂	-16.8066
가	-16.8066
갑	-16.8066
갤	-16.8066
거	-16.8066
걸	-16.8066
것	-16.8066
겠	-16.8066
격	-16.8066
계	-16.8066
골	-16.8066
공	-16.8066
과	-16.8066
관	-16.8066
교	-16.8066
굴	-16.8066
긋	-16.8066
긱	-16.8066
끼	-16.8066
단	-16.8066
달	-16.8066
답	-16.8066
더	-16.8066
돈	-16.8066
딩	-16.8066
떻	-16.8066
또	-16.8066
뚜	-16.8066
뚝	-16.8066
랑	-16.8066
래	-16.8066
랫	-16.8066
러	-16.8066
렘	-16.8066
려	-16.8066
룬	-16.8066
룰	-16.8066
류	-16.8066
를	-16.8066
림	-16.8066
릿	-16.8066
마	-16.8066
만	-16.8066
매	-16.8066
먹	-16.8066
메	-16.8066
며	-16.8066
명	-16.8066
모	-16.8066
몽	-16.8066
문	-16.8066
뭘	-16.8066
뮤	-16.8066
반	-16.8066
밥	-16.8066
백	-16.8066
밴	-16.8066
버	-16.8066
번	-16.8066
베	-16.8066
벼	-16.8066
변	-16.8066
병	-16.8066
불	-16.8066
뷔	-16.8066
븐	-16.8066
블	-16.8066
빈	-16.8066
뻐	-16.8066
뿌	-16.8066
상	-16.8066
생	-16.8066
석	-16.8066
설	-16.8066
섭	-16.8066
성	-16.8066
송	-16.8066
숙	-16.8066
슨	-16.8066
습	-16.8066
승	-16.8066
식	-16.8066
실	-16.8066
싼	-16.8066
쌍	-16.8066
양	-16.8066
업	-16.8066
에	-16.8066
엘	-16.8066
엥	-16.8066
열	-16.8066
옷	-16.8066
와	-16.8066
왔	-16.8066
외	-16.8066
용	-16.8066
울	-16.8066
웆	-16.8066
워	-16.8066
월	-16.8066
윤	-16.8066
율	-16.8066
응	-16.8066
일	-16.8066
있	-16.8066
잘	-16.8066
재	-16.8066
적	-16.8066
조	-16.8066
죄	-16.8066
죻	-16.8066
진	-16.8066
짓	-16.8066
짱	-16.8066
찌	-16.8066
찡	-16.8066
차	-16.8066
채	-16.8066
청	-16.8066
체	-16.8066
침	-16.8066
칩	-16.8066
칫	-16.8066
카	-16.8066
커	-16.8066
케	-16.8066
코	-16.8066
콕	-16.8066
키	-16.8066
탄	-16.8066
탓	-16.8066
탠	-16.8066
터	-16.8066
틴	-16.8066
팅	-16.8066
팝	-16.8066
평	-16.8066
푸	-16.8066
플	-16.8066
픽	-16.8066
학	-16.8066
항	-16.8066
햄	-16.8066
혀	-16.8066
혜	-16.8066
호	-16.8066
홈	-16.8066
홍	-16.8066
횒	-16.8066
횗	-16.8066
횜	-16.8066
흐	-16.8066
흥	-16.8066
￼	-16.8066
𖢘	-16.8066
🆕	-16.8066
🇫	-16.8066
🇳	-16.8066
🇸	-16.8066
🇽	-16.8066
🌃	-16.8066
🌄	-16.8066
🌅	-16.8066
🌍	-16.8066
🌐	-16.8066
🌡	-16.8066
🌳	-16.8066
🌻	-16.8066
🍀	-16.8066
🍁	-16.8066
🍇	-16.8066
🍑	-16.8066
🍞	-16.8066
🍩	-16.8066
🍯	-16.8066
🍰	-16.8066
🍱	-16.8066
🍹	-16.8066
🍽	-16.8066
🍾	-16.8066
🎀	-16.8066
🎄	-16.8066
🎬	-16.8066
🎶	-16.8066
🏆	-16.8066
🏋	-16.8066
🏣	-16.8066
🏦	-16.8066
🏼	-16.8066
👑	-16.8066
👦	-16.8066
👧	-16.8066
💀	-16.8066
💉	-16.8066
💋	-16.8066
💐	-16.8066
💔	-16.8066
💕	-16.8066
💝	-16.8066
💡	-16.8066
💢	-16.8066
💩	-16.8066
💪	-16.8066
💸	-16.8066
💻	-16.8066
💼	-16.8066
📁	-16.8066
📅	-16.8066
📕	-16.8066
📖	-16.8066
📞	-16.8066
📣	-16.8066
📦	-16.8066
📱	-16.8066
📲	-16.8066
📷	-16.8066
🔄	-16.8066
🔹	-16.8066
🕑	-16.8066
🕘	-16.8066
🕯	-16.8066
🖐	-16.8066
🖤	-16.8066
🗓	-16.8066
😄	-16.8066
😈	-16.8066
😐	-16.8066
😑	-16.8066
😡	-16.8066
😥	-16.8066
😩	-16.8066
😫	-16.8066
😮	-16.8066
😰	-16.8066
😲	-16.8066
😶	-16.8066
😷	-16.8066
🙆	-16.8066
🙋	-16.8066
🙎	-16.8066
🚀	-16.8066
🚘	-16.8066
🚩	-16.8066
🛍	-16.8066
🛑	-16.8066
🛒	-16.8066
🛡	-16.8066
🤍	-16.8066
🤓	-16.8066
🤡	-16.8066
🤫	-16.8066
🥄	-16.8066
🦊	-16.8066
🦋	-16.8066
🧤	-16.8066
🧨	-16.8066
ǐ	-16.8066
ᄆ	-16.8066
♻	-16.8066
君	-16.8066
製	-16.8066
·	-16.8066
զ	-16.8066
ج	-16.8066
ᴠ	-16.8066
ジ	-16.8066
二	-16.8066
位	-16.8066
叫	-16.8066
带	-16.8066
恩	-16.8066
悔	-16.8066
探	-16.8066
格	-16.8066
業	-16.8066
破	-16.8066
蘭	-16.8066
逢	-16.8066
電	-16.8066
여	-16.8066
찾	-16.8066
폰	-16.8066
