<unk>	0
<s>	0
</s>	0
.	-3.03784
▁нь	-4.2326
,	-4.59481
▁байна	-4.74126
н	-4.77661
д	-4.7918
▁"	-4.89249
▁юм	-4.89628
▁,	-4.91507
▁ч	-4.94252
ийн	-4.96116
▁-	-4.99054
ын	-5.02738
▁л	-5.06392
▁	-5.0695
▁гэж	-5.18999
▁.	-5.22822
▁байгаа	-5.32261
ж	-5.39645
?	-5.42018
▁бол	-5.44597
г	-5.45264
▁энэ	-5.59776
ийг	-5.63685
ыг	-5.65454
▁Энэ	-5.65737
▁байсан	-5.68001
х	-5.69948
▁...	-5.70812
р	-5.75734
-	-5.77491
гүй	-5.83138
▁нэг	-5.83299
▁байх	-5.85167
т	-5.85605
▁хүн	-5.90493
ээ	-5.95305
▁уу	-5.97864
аа	-6.05149
▁их	-6.05915
с	-6.05995
▁болно	-6.0691
▁дээ	-6.11961
▁би	-6.12552
:	-6.15222
▁та	-6.17679
▁вэ	-6.17777
ны	-6.20231
"	-6.21708
▁байдаг	-6.21952
тай	-6.2218
▁гэсэн	-6.25029
▁дээр	-6.2736
▁олон	-6.33954
▁Би	-6.34773
▁ямар	-6.37355
▁юу	-6.38264
▁шүү	-6.40632
▁тэр	-6.41703
л	-6.43548
ч	-6.43656
▁:	-6.44796
▁биш	-6.46675
ад	-6.49548
▁д	-6.52999
тэй	-6.53313
▁гүй	-6.55585
▁хамгийн	-6.59297
▁болох	-6.60926
▁хэрэгтэй	-6.60966
▁болон	-6.61256
▁даа	-6.61691
▁ээ	-6.61696
аар	-6.61748
▁сайн	-6.61878
▁Тэр	-6.62837
▁бид	-6.63674
▁Та	-6.6889
▁хоёр	-6.69604
сан	-6.70073
▁болсон	-6.70476
▁гэдэг	-6.70655
▁өмнө	-6.75039
▁зүйл	-6.75324
▁шиг	-6.75367
▁ёстой	-6.7674
▁цаг	-6.79592
▁байж	-6.80034
▁(	-6.80428
ээр	-6.80849
▁чинь	-6.81562
ний	-6.82378
▁үү	-6.83271
▁жил	-6.83717
▁үед	-6.83734
▁бүх	-6.84231
▁улс	-6.84811
ээс	-6.85507
▁болж	-6.85659
▁маш	-6.876
▁өөр	-6.87868
▁Хари	-6.89529
▁аа	-6.89675
▁талаар	-6.91273
▁илүү	-6.91653
▁оны	-6.91667
аас	-6.9214
▁хүмүүс	-6.92322
эд	-6.93955
▁ийн	-6.94735
▁авах	-6.96213
▁г	-6.96922
▁гээд	-6.97226
▁бас	-6.9765
▁хийж	-6.98331
▁хувьд	-6.9914
▁2	-6.99161
▁х	-6.99879
▁дараа	-7.00547
▁Монгол	-7.01109
▁жилийн	-7.01812
▁сарын	-7.02222
▁хэн	-7.04317
▁тухай	-7.04516
▁бөгөөд	-7.04881
▁бүр	-7.04989
▁өдөр	-7.05402
▁онд	-7.07114
▁Гэхдээ	-7.07343
▁газар	-7.07452
▁ийм	-7.07667
▁нар	-7.08524
▁үйл	-7.08622
▁Т	-7.08662
▁одоо	-7.0957
▁хийх	-7.10037
▁буй	-7.10091
▁ыг	-7.10899
▁ийг	-7.12161
▁үг	-7.13022
▁минь	-7.13071
▁авч	-7.13088
▁ажил	-7.13715
▁Бид	-7.14937
▁байхгүй	-7.15283
▁бий	-7.15921
▁Х	-7.17352
▁бэ	-7.17428
▁ын	-7.17468
а	-7.17508
▁сайхан	-7.20085
▁т	-7.2028
▁нэгэн	-7.21019
▁үр	-7.21039
▁хүний	-7.21495
▁шинэ	-7.21825
▁/	-7.22514
▁эрх	-7.22639
эл	-7.22804
на	-7.23699
▁миний	-7.23875
▁арга	-7.24205
даг	-7.25654
▁улсын	-7.26085
▁ба	-7.26798
нд	-7.27102
▁Б	-7.28869
!	-7.28986
▁том	-7.29521
▁билээ	-7.29858
▁боломжтой	-7.30728
▁байлаа	-7.32046
в	-7.32099
сэн	-7.33121
▁тай	-7.33893
▁удаа	-7.34626
▁нэр	-7.35594
дээ	-7.35764
▁аж	-7.35809
▁санал	-7.37375
▁тулд	-7.37484
▁гэдгийг	-7.38384
▁хэрэг	-7.38439
▁Мөн	-7.38627
)	-7.39108
▁мөн	-7.39911
▁хэдэн	-7.40286
▁хэрхэн	-7.40764
▁10	-7.40873
▁орон	-7.40913
м	-7.40986
▁чи	-7.41517
▁эсвэл	-7.41719
v	-7.41936
▁3	-7.42545
▁асуудал	-7.42548
▁таны	-7.42991
▁Д	-7.43868
▁1	-7.44262
▁С	-7.44819
▁дахь	-7.45226
▁маань	-7.45285
▁гэр	-7.45634
▁тийм	-7.47085
▁Тийм	-7.47613
▁хүртэл	-7.49283
▁Одоо	-7.49365
▁гэх	-7.49614
▁болохгүй	-7.49728
▁ирсэн	-7.50068
▁дахин	-7.50936
оо	-7.5157
▁Миний	-7.52252
▁өөрийн	-7.52771
▁зөв	-7.53125
▁манай	-7.5351
▁хэмээн	-7.54735
▁чадахгүй	-7.55576
▁чухал	-7.55876
▁эх	-7.56665
▁)	-7.57322
▁тус	-7.58133
▁төлөө	-7.58369
▁!	-7.59414
▁н	-7.60101
▁аль	-7.60148
гийн	-7.60688
даа	-7.60751
▁хийсэн	-7.61027
▁хүнд	-7.61904
ы	-7.61946
▁руу	-7.61955
▁өөрөө	-7.62121
▁түүний	-7.62313
▁бие	-7.62363
▁бага	-7.62491
▁авсан	-7.6264
ц	-7.6283
той	-7.63043
й	-7.63089
▁хэзээ	-7.63875
▁гар	-7.64336
ууд	-7.64441
▁төрийн	-7.64511
ий	-7.64847
▁гол	-7.65429
▁гарч	-7.65864
▁байв	-7.65925
▁хувь	-7.66134
▁албан	-7.66394
▁хамт	-7.66757
▁тэй	-7.66776
▁УИХ	-7.66874
▁Н	-7.6689
ан	-7.67413
▁Манай	-7.67421
...	-7.67567
хан	-7.67904
▁ажиллаж	-7.67995
▁с	-7.68035
▁хойш	-7.68079
▁Хэрэв	-7.68649
▁А	-7.68697
▁зөвхөн	-7.6886
▁бодож	-7.69338
▁5	-7.69354
аад	-7.6982
▁мэдээлэл	-7.69915
өө	-7.70363
▁хар	-7.70748
▁учраас	-7.70784
▁ард	-7.70911
▁биз	-7.70928
▁Тэд	-7.70993
▁АНУ	-7.71342
ш	-7.71426
▁бусад	-7.71504
▁Ийм	-7.71555
▁надад	-7.72023
▁тоо	-7.72048
▁яаж	-7.72508
▁аас	-7.72729
▁4	-7.72997
▁ш	-7.73474
▁орж	-7.74588
▁бус	-7.74787
▁а	-7.74835
▁хүүхэд	-7.75041
▁болов	-7.75082
▁тэд	-7.75511
▁сая	-7.75605
▁сэтгэл	-7.76388
▁мөнгө	-7.7643
▁яг	-7.76466
▁яагаад	-7.76539
▁үнэ	-7.76692
▁байдал	-7.77359
▁хэл	-7.77374
▁өндөр	-7.77415
s	-7.77805
▁Монголын	-7.78207
▁намайг	-7.78239
▁хугацаанд	-7.78544
▁мэт	-7.78692
▁Нэг	-7.79103
▁хууль	-7.79261
▁гэнэ	-7.79336
лаа	-7.7949
▁Г	-7.79497
▁ажлын	-7.79579
▁Таны	-7.80073
хүү	-7.80266
▁болохоор	-7.80306
▁тодорхой	-7.80422
▁хэлж	-7.8062
▁байхад	-7.80629
▁зарим	-7.80886
о	-7.81101
сон	-7.81545
▁явж	-7.81597
▁тул	-7.81951
▁дарга	-7.83252
▁түүнийг	-7.83378
▁муу	-7.84191
ид	-7.84212
▁_	-7.84319
▁газрын	-7.84589
▁олж	-7.85339
▁үүнийг	-7.85397
▁долоо	-7.85453
▁Засгийн	-7.85634
▁бидний	-7.86152
▁аар	-7.86202
▁Гэт	-7.86553
▁байр	-7.86837
▁энд	-7.87675
▁нас	-7.89005
▁Тэгээ	-7.8912
▁дуу	-7.89649
▁үнэн	-7.90072
▁7	-7.90491
▁тал	-7.90502
▁өнөөдөр	-7.90605
ь	-7.90658
▁санаа	-7.90928
▁ирэх	-7.91419
▁дотор	-7.91706
▁б	-7.91831
▁мэдэх	-7.91879
▁хэсэг	-7.9196
▁үе	-7.92236
▁эмэгтэй	-7.92259
▁үнэхээр	-7.92769
▁өгөх	-7.92983
▁дуртай	-7.93865
▁зураг	-7.93917
▁бүрэн	-7.9395
дэг	-7.94015
▁сайд	-7.94187
▁эд	-7.94285
▁ажиллах	-7.94434
и	-7.94784
▁байгааг	-7.94967
▁дэлхийн	-7.95009
▁он	-7.95033
э	-7.95105
▁хэлсэн	-7.96397
▁гишүүн	-7.96498
▁харж	-7.96905
▁эдийн	-7.96932
▁гурван	-7.97009
▁өгсөн	-7.97402
▁Чи	-7.97426
▁сар	-7.97455
▁Улсын	-7.97546
▁20	-7.98036
▁танд	-7.98334
▁байвал	-7.98659
▁болоод	-7.98709
▁явах	-7.98944
з	-7.9902
▁холбоотой	-7.99611
▁хүлээн	-7.99756
▁төр	-7.99781
▁гарсан	-7.99853
▁буюу	-8.00149
▁учир	-8.00374
▁өөрийгөө	-8.00474
▁ганц	-8.01094
▁шаардлагатай	-8.01159
▁Гэв	-8.01416
▁үгүй	-8.01529
▁6	-8.01563
▁зохион	-8.02078
▁асуудлыг	-8.02206
▁хугацаа	-8.02536
▁8	-8.02593
▁гаруй	-8.03647
▁Ц	-8.03652
▁боломж	-8.03653
▁төрлийн	-8.03736
▁засгийн	-8.03811
ах	-8.04195
▁харин	-8.0426
▁дунд	-8.04754
үүд	-8.05205
▁гийн	-8.05236
▁үеийн	-8.05636
▁Ямар	-8.05895
▁ярьж	-8.059
од	-8.06038
▁ажиллагаа	-8.06242
▁Түүний	-8.0653
▁уг	-8.0668
▁М	-8.06785
▁залуу	-8.06924
▁зах	-8.06968
▁яах	-8.07677
▁Уг	-8.07693
▁нийт	-8.08227
▁эрүүл	-8.08285
/	-8.08358
▁хэд	-8.08525
▁хэмжээ	-8.08726
▁зүйлийг	-8.0882
e	-8.08934
▁улсад	-8.09251
▁ам	-8.09416
▁зүгээр	-8.09489
▁ингэж	-8.09541
▁байдлаар	-8.09632
▁хаа	-8.09638
оор	-8.097
▁гэвэл	-8.10327
▁боллоо	-8.10372
▁мэдэхгүй	-8.10393
гч	-8.10592
▁Ер	-8.10604
нэ	-8.10743
▁зам	-8.11099
▁боловч	-8.11285
▁Хүн	-8.11415
▁эр	-8.11448
▁дагуу	-8.11561
▁анх	-8.11925
▁явдал	-8.12041
▁найз	-8.12572
▁хөрөнгө	-8.12837
▁Үүнийг	-8.12937
▁дугаар	-8.12971
▁охин	-8.1341
▁хэр	-8.13566
▁сан	-8.13684
▁Өнөөдөр	-8.13815
▁Олон	-8.13916
Би	-8.14168
▁алга	-8.14321
▁хүү	-8.1442
▁хэцүү	-8.14453
▁авна	-8.14713
▁?	-8.15619
▁мэдээ	-8.16498
▁сард	-8.16576
▁бай	-8.16614
▁бүгд	-8.17021
▁болжээ	-8.17165
▁баяр	-8.17218
▁болгон	-8.17276
▁ирж	-8.17332
▁Улс	-8.17532
▁бүү	-8.17592
▁гэхэд	-8.17966
▁нөхцөл	-8.18282
▁s	-8.18327
▁гаргаж	-8.18481
▁машин	-8.18522
▁нам	-8.18524
▁Орос	-8.18666
▁S	-8.19065
▁Их	-8.19139
▁гэв	-8.19177
е	-8.19592
▁болдог	-8.19611
▁өнгөрсөн	-8.19647
▁р	-8.1969
▁У	-8.19937
▁12	-8.20078
▁шууд	-8.20106
▁анхны	-8.20309
▁Хамг	-8.20899
▁хоол	-8.20919
▁Тиймээ	-8.20951
a	-8.21262
ал	-8.21612
▁ээж	-8.22091
▁м	-8.22503
▁настай	-8.22611
▁гаргах	-8.22714
▁иргэд	-8.22788
оос	-8.22983
▁хүнийг	-8.23073
▁зэрэг	-8.23236
▁Бүх	-8.23834
▁Л	-8.23844
хаа	-8.24009
эгвэл	-8.24027
наас	-8.24246
▁болгох	-8.24457
▁компани	-8.24576
▁тэдний	-8.24668
▁хүлээж	-8.25029
▁11	-8.25046
▁хуулийн	-8.25164
▁;	-8.25385
ар	-8.254
▁байгаад	-8.2555
▁Эдгээр	-8.25647
▁хэрэггүй	-8.26033
▁ээр	-8.2636
гаа	-8.26393
▁байжээ	-8.26521
▁ээс	-8.26619
▁АН	-8.26664
▁тухайн	-8.26785
▁үзэх	-8.26926
эн	-8.27064
▁Ч	-8.27079
▁гарах	-8.27097
▁үзэж	-8.27619
▁шийдвэр	-8.27654
▁хийдэг	-8.27771
▁буруу	-8.2782
▁За	-8.28228
▁ном	-8.2831
он	-8.28895
▁хүмүүсийн	-8.29218
▁нутгийн	-8.29311
▁ад	-8.29434
лах	-8.29555
▁О	-8.29679
▁хоног	-8.29706
▁хэлэх	-8.29934
▁магадгүй	-8.30098
▁өдрийн	-8.3017
▁өөрчлөлт	-8.30176
▁өгч	-8.30419
▁тохиолдолд	-8.30584
▁амьдрал	-8.30772
▁30	-8.3097
▁доо	-8.3107
▁бүхэн	-8.31658
▁боддог	-8.31677
▁бараг	-8.32225
▁сүүлийн	-8.32384
▁9	-8.32521
▁оо	-8.32775
▁ер	-8.32911
▁адил	-8.33071
▁бүрийн	-8.33247
▁чадах	-8.33337
▁15	-8.33647
▁гаргасан	-8.33751
▁огт	-8.33879
▁гадна	-8.3394
▁Хэрвээ	-8.33949
нээс	-8.34196
▁ав	-8.34251
▁и	-8.34294
▁монгол	-8.34445
▁кино	-8.34466
▁амжилт	-8.3448
▁цагийн	-8.34555
y	-8.34767
▁хот	-8.34808
▁эдгээр	-8.34841
▁МАН	-8.34857
▁аав	-8.34908
▁орсон	-8.35397
▁Дэлхийн	-8.35731
▁хамгаалах	-8.36053
▁хоногийн	-8.36174
▁Бурхан	-8.36342
Учир	-8.3657
▁Монголд	-8.36625
▁Яагаад	-8.36847
у	-8.36933
▁дээрх	-8.37023
▁байгаагүй	-8.37181
▁багш	-8.37498
▁Ерөнхий	-8.3795
▁заавал	-8.38304
o	-8.38317
▁ил	-8.38475
▁цагт	-8.38485
анд	-8.38659
▁дээд	-8.38735
▁боломжгүй	-8.39246
▁Бидний	-8.39309
▁ах	-8.39354
ав	-8.39573
▁эсрэг	-8.39587
▁чадна	-8.396
Х	-8.39719
▁бүхий	-8.3982
▁үргэлж	-8.40044
▁100	-8.40256
я	-8.40429
▁хэмжээний	-8.40458
▁тэг	-8.40561
▁рүү	-8.41665
▁дээрээ	-8.42202
▁B	-8.42389
▁З	-8.42619
▁мэдэж	-8.42621
▁хаана	-8.42697
▁хүмүүст	-8.42948
▁энэхүү	-8.43171
лээ	-8.43289
▁Шинэ	-8.43331
▁баримт	-8.43461
▁явсан	-8.43505
▁нарын	-8.43582
▁за	-8.43605
▁эхний	-8.43656
▁аваад	-8.43693
▁зээл	-8.43988
▁орох	-8.44195
▁эхэлсэн	-8.44208
▁Ж	-8.44273
▁хөл	-8.4432
▁үл	-8.44339
▁Зарим	-8.44353
▁бэлэн	-8.44365
▁шаардлага	-8.44667
▁дараах	-8.45075
▁оноос	-8.45078
▁бидэнд	-8.45223
▁хурдан	-8.45339
▁хувийн	-8.45412
▁гоё	-8.45496
С	-8.45689
лт	-8.45934
▁гэхдээ	-8.46059
▁хүч	-8.46168
▁Ерөнхийлөгч	-8.46588
▁болохыг	-8.46605
▁байхдаа	-8.46778
▁дэх	-8.46784
▁мянган	-8.46869
▁тань	-8.47123
жээ	-8.47179
ер	-8.47199
▁ярих	-8.47733
к	-8.48361
▁оронд	-8.48419
▁Үүний	-8.48701
▁C	-8.48755
▁"-	-8.48815
▁ашиглах	-8.49134
сөн	-8.49288
▁дүн	-8.49392
▁систем	-8.4946
▁амьдарч	-8.49514
▁хүүхдүүд	-8.49596
▁хүчин	-8.50286
▁И	-8.50288
▁дэлхий	-8.50518
▁Төрийн	-8.50664
▁ажлыг	-8.50678
▁хүсч	-8.50813
▁болгож	-8.50814
▁засаг	-8.51089
▁намын	-8.51261
▁ус	-8.51365
▁турш	-8.51503
▁14	-8.51597
▁аюулгүй	-8.51768
▁харах	-8.51824
▁Бурханы	-8.52084
▁Тус	-8.52094
2	-8.52103
▁ял	-8.52363
▁•	-8.5247
▁Хятад	-8.53026
▁бүл	-8.53064
дог	-8.53181
▁дор	-8.5334
▁хайртай	-8.53388
▁бичсэн	-8.5343
▁аз	-8.53493
▁ажилд	-8.5357
▁Яг	-8.53949
▁арай	-8.5399
Та	-8.54003
▁Тэрбээр	-8.5416
▁мэнд	-8.54241
▁эмч	-8.54262
▁Бас	-8.54531
▁шалтгаан	-8.54892
▁хотын	-8.54903
▁хүссэн	-8.54935
▁гүйгээр	-8.54989
▁Мэдээж	-8.55003
▁хол	-8.55015
▁ихэнх	-8.55079
▁загвар	-8.55127
▁Ингээ	-8.55358
Д	-8.55447
▁иргэн	-8.55662
Т	-8.55715
▁ажлаа	-8.55732
вал	-8.55759
▁урт	-8.55793
▁Э	-8.558
▁мэддэг	-8.55889
▁орны	-8.56069
ин	-8.5608
▁байдлыг	-8.56096
▁үеэр	-8.56111
▁түүнд	-8.56113
▁гэлээ	-8.56344
▁ар	-8.56373
▁ашиг	-8.56655
▁тэгээд	-8.5676
эх	-8.56776
▁насны	-8.57258
▁хий	-8.57283
▁амьдралын	-8.57433
▁хэлбэл	-8.57714
▁мэдээллийг	-8.57714
А	-8.57784
▁ы	-8.57828
1	-8.57995
▁аймгийн	-8.58214
▁өглөө	-8.58215
▁ид	-8.58223
▁Тэгэхээ	-8.5843
▁A	-8.58494
▁хуудас	-8.58551
▁ор	-8.58646
▁нөгөө	-8.5875
▁төрсөн	-8.58758
▁зориулсан	-8.58798
▁хэмжээнд	-8.58848
▁ц	-8.58891
▁хүүхдийн	-8.58986
▁гэдэгт	-8.59023
▁ажилладаг	-8.59232
ү	-8.59443
▁өөртөө	-8.59448
▁бололтой	-8.59504
▁Хэн	-8.59505
▁18	-8.5962
▁тун	-8.59791
▁гишүүд	-8.59935
▁гэрээ	-8.60123
▁v	-8.60564
t	-8.60641
▁чамайг	-8.60722
4	-8.60887
▁мэднэ	-8.61164
mn	-8.61574
▁ууд	-8.61667
▁явдаг	-8.62249
▁байхыг	-8.62396
▁дүр	-8.62506
▁M	-8.62535
▁битгий	-8.62706
▁нийтийн	-8.62752
▁лээ	-8.62831
▁уран	-8.62897
▁гэдгээ	-8.63084
▁ёс	-8.63363
▁барьж	-8.63546
▁уул	-8.63564
▁удаан	-8.63618
▁бүс	-8.63684
▁олох	-8.63801
▁түмэн	-8.63872
уу	-8.63892
▁өөрийнхөө	-8.6411
▁таныг	-8.64155
▁хайр	-8.64184
▁П	-8.6428
▁үзсэн	-8.64433
▁барих	-8.64434
доо	-8.64702
Г	-8.64793
▁Нүүр	-8.65035
▁байгууллага	-8.65204
▁хийнэ	-8.65268
▁гэмт	-8.65317
▁эцэг	-8.6554
▁өмнөх	-8.6567
▁шилдэг	-8.65855
▁хэдий	-8.6588
▁Үүнээс	-8.66047
но	-8.66104
б	-8.66402
▁той	-8.66496
▁Хоёр	-8.66581
▁хариу	-8.66623
вэл	-8.66709
▁баг	-8.67442
▁холбоо	-8.67714
▁зүйн	-8.67883
▁амьдрах	-8.68025
▁сууж	-8.68033
ас	-8.68036
▁шинж	-8.68169
▁Ш	-8.68187
▁Тэг	-8.68257
▁нутаг	-8.68311
▁з	-8.6833
▁хоногт	-8.68514
▁удаагийн	-8.68612
▁о	-8.68686
▁өгнө	-8.6888
▁бизнес	-8.68916
▁улам	-8.68942
▁очиж	-8.68969
лж	-8.69003
чих	-8.69341
ээд	-8.69468
▁чиний	-8.69552
▁түүх	-8.69581
5	-8.69586
▁хийгээд	-8.69791
l	-8.69796
▁бүтээл	-8.69814
▁ач	-8.69864
▁амь	-8.70009
▁үйлчилгээ	-8.70015
▁авдаг	-8.70213
▁хан	-8.70266
▁ирээд	-8.70415
3	-8.70517
▁үүрэг	-8.70817
▁бүсгүй	-8.70976
▁Дараа	-8.71029
▁ашиглаж	-8.71106
▁дөрвө	-8.71128
▁худалдан	-8.71137
хон	-8.71206
▁50	-8.71271
▁орчин	-8.71276
▁13	-8.71329
▁жижиг	-8.71351
▁ий	-8.71389
▁бодлого	-8.71456
▁·	-8.71774
▁орчим	-8.72185
▁эрт	-8.72192
▁гэртээ	-8.72231
▁толгой	-8.72277
▁дүү	-8.72425
▁1-	-8.72426
▁I	-8.72518
▁нөхөр	-8.72711
▁төв	-8.72757
▁сонирхолтой	-8.72873
▁зорилго	-8.72931
▁байнга	-8.73021
vv	-8.73121
▁салбарт	-8.73408
▁үндсэн	-8.7345
▁сайт	-8.73459
▁в	-8.7352
▁хооронд	-8.73628
▁өрөө	-8.73629
▁Тэдний	-8.73686
▁Энд	-8.73768
▁энгийн	-8.73789
▁иргэдийн	-8.73837
ор	-8.73879
▁минутын	-8.73931
▁чанар	-8.73974
▁худалдаж	-8.741
▁16	-8.74104
▁К	-8.74324
▁яваа	-8.74497
▁бутлуур	-8.74515
▁тэнд	-8.74639
хэн	-8.74658
▁оруулж	-8.74954
▁Хар	-8.7505
▁оруулах	-8.75098
▁[	-8.75211
▁17	-8.75231
▁ойлгож	-8.75507
▁ажээ	-8.75619
▁чаддаг	-8.75665
эр	-8.75679
Н	-8.75906
Б	-8.75998
▁таван	-8.76095
▁аргагүй	-8.76098
▁гайхалтай	-8.76209
▁дээш	-8.7626
лэг	-8.76301
▁хэрэглэх	-8.76397
ов	-8.76416
▁байдаггүй	-8.76429
▁P	-8.76431
▁тохиолдол	-8.76432
▁2020	-8.76649
▁үзэл	-8.76777
▁бодит	-8.76779
▁анги	-8.77298
▁хүрээнд	-8.77349
▁бүтээгдэхүүн	-8.7764
▁T	-8.7772
▁гэхээр	-8.77806
▁Хүний	-8.7807
▁тоглоом	-8.781
▁сонин	-8.78113
▁жилд	-8.78221
▁Монголчууд	-8.78327
▁гал	-8.78713
▁Хүмүүс	-8.78768
▁янз	-8.78869
лан	-8.7891
▁тавьж	-8.79091
▁нутагт	-8.79092
▁Тухай	-8.79096
▁эмэгтэйчүүд	-8.79322
▁туслах	-8.79325
▁Зөвхөн	-8.79332
▁эргэн	-8.79343
▁нийгмийн	-8.79448
▁эхлээд	-8.7945
▁цагаан	-8.79482
▁итгэл	-8.79488
▁гадаад	-8.79651
▁хараад	-8.7976
▁жинхэнэ	-8.79776
▁ний	-8.79793
▁өө	-8.79826
▁ны	-8.7994
▁төсөл	-8.79955
▁сургууль	-8.7996
га	-8.80012
▁хичээл	-8.80162
7	-8.80325
▁Түүнийг	-8.80414
▁өргөн	-8.80873
▁'	-8.80955
▁тэрээр	-8.80987
гээр	-8.81106
▁сонголт	-8.81139
▁бичиг	-8.81141
▁жишээ	-8.81316
▁Өөрөөр	-8.8141
▁яриа	-8.81416
D	-8.81425
▁чамд	-8.81529
▁зүрх	-8.81548
▁төгрөг	-8.8157
8	-8.81589
▁явна	-8.81631
▁зан	-8.81682
▁Сүүл	-8.81739
▁шүүх	-8.81816
▁Хятадын	-8.82161
▁хамаагүй	-8.82521
▁өөрсдөө	-8.82685
0	-8.82776
▁Өнгөрсөн	-8.82781
▁газарт	-8.82835
ээрээ	-8.82897
▁мэдээллийн	-8.82917
▁татвар	-8.83255
Энэ	-8.83409
▁2012	-8.83477
▁хүмүүсийг	-8.83491
▁үедээ	-8.8352
▁сургуулийн	-8.83662
▁ухаан	-8.83862
▁бээлий	-8.83939
p	-8.84016
▁хотод	-8.84163
▁Намайг	-8.84188
▁зүйлс	-8.8427
▁алдаа	-8.84355
▁үүд	-8.84455
▁байгуулах	-8.84617
▁40	-8.84669
▁ерөнхий	-8.84722
өөс	-8.84752
▁сурах	-8.84873
лаг	-8.84942
▁эхнэр	-8.84954
P	-8.84958
▁хатуу	-8.85154
▁бүхнийг	-8.85278
▁Япон	-8.85344
▁эм	-8.85525
▁тусгай	-8.85633
▁сонгох	-8.85749
▁к	-8.85779
▁ижил	-8.85781
▁2016	-8.85787
▁үздэг	-8.85805
▁Сайн	-8.85825
▁G	-8.86146
▁Европын	-8.86186
▁24	-8.86369
▁бичих	-8.86514
▁хамтран	-8.86565
▁үнэгүй	-8.86663
▁ажиллагааны	-8.86675
▁онгоц	-8.86796
▁тэрбум	-8.86911
▁D	-8.87081
▁бараа	-8.87181
▁Үнэн	-8.87194
▁компаниуд	-8.87309
▁гэжээ	-8.87442
▁өнгө	-8.87536
чин	-8.87588
▁байдалд	-8.87622
гээ	-8.87715
▁ж	-8.87806
▁хэт	-8.88042
▁гоо	-8.88042
өд	-8.88422
▁мал	-8.88458
▁хүчний	-8.88632
▁тэднийг	-8.88678
▁доллар	-8.88791
▁компанийн	-8.88812
ай	-8.88881
гөө	-8.88975
▁Бусад	-8.89046
▁татаж	-8.89155
▁F	-8.89165
▁бичлэг	-8.89484
▁шалгалт	-8.89507
▁од	-8.89617
▁оролцох	-8.89814
▁Гэр	-8.90098
▁эхлэх	-8.90214
▁анхаарал	-8.90254
▁өгдөг	-8.90409
▁бичиж	-8.90441
▁халдвар	-8.90611
▁хүрч	-8.90647
▁Ингэ	-8.90699
▁Юу	-8.90722
u	-8.90732
▁дараагийн	-8.9085
▁мэндийн	-8.90918
▁салбар	-8.90972
ил	-8.91107
▁байгууллагын	-8.91142
6	-8.91172
i	-8.91179
▁нүүр	-8.91261
▁хүргэж	-8.91456
▁оруулалт	-8.91538
▁нууц	-8.91576
▁төхөөрөмж	-8.91654
▁Цаг	-8.91672
▁уур	-8.91773
▁үзүүлэх	-8.918
▁бодол	-8.91966
▁хүсэл	-8.92028
▁хангалттай	-8.92088
үүл	-8.92263
▁ха	-8.92348
▁бүлийн	-8.92574
▁на	-8.92704
▁хэлэхэд	-8.92873
▁чин	-8.92912
▁Ө	-8.93267
▁хүчтэй	-8.93379
▁25	-8.9352
▁нийтлэл	-8.93522
9	-8.93581
эв	-8.93658
ир	-8.93703
▁бүгдийг	-8.9386
▁ал	-8.9389
▁a	-8.93909
▁ярьдаг	-8.93935
▁адилхан	-8.93991
▁у	-8.94128
▁ойлголт	-8.94218
▁юмаа	-8.94418
▁уурхайн	-8.94487
▁хэрэгжүүлэх	-8.94552
▁шударга	-8.94597
▁асуулт	-8.94603
▁хугацааны	-8.94618
▁улмаас	-8.94621
▁хүрсэн	-8.94747
▁орой	-8.9481
▁2017	-8.95239
▁нэлээд	-8.9528
▁санхүүгийн	-8.95355
хээ	-8.95395
▁2-	-8.95433
ө	-8.95471
▁хөгжлийн	-8.95471
▁19	-8.95703
c	-8.95951
аг	-8.96044
▁яваад	-8.96087
▁бүрт	-8.96094
▁бна	-8.96128
▁мэргэжлийн	-8.96262
▁H	-8.96353
▁нарийн	-8.96377
▁зөвлөгөө	-8.96383
▁тавих	-8.96456
▁хил	-8.96474
▁тавьсан	-8.96625
▁E	-8.96657
гаар	-8.96885
▁байдлын	-8.96906
▁утас	-8.96908
▁судалгаа	-8.97001
▁баярлалаа	-8.97115
▁хүнтэй	-8.97159
▁Ээж	-8.97243
▁гараад	-8.97259
▁тэнэг	-8.97329
▁алба	-8.97427
▁ОХУ	-8.97431
▁давуу	-8.97632
d	-8.97724
▁цахим	-8.98037
үү	-8.98293
▁нөлөө	-8.98302
▁2018	-8.98385
▁амьдардаг	-8.98406
▁ажилласан	-8.9854
▁Гэсэ	-8.98585
▁яриад	-8.9865
▁Улаанбаатар	-8.98679
ам	-8.98797
n	-8.98828
▁эрэгтэй	-8.98957
▁хувилбар	-8.98978
▁чих	-8.992
er	-8.99282
▁Гадаад	-8.99325
▁чадаагүй	-8.9935
▁*	-8.99364
▁байгаагаа	-8.99461
эг	-8.99492
MN	-8.99594
▁Нада	-8.99707
▁биднийг	-8.99738
▁ан	-8.99751
▁харсан	-8.99814
▁үгийг	-8.99823
ол	-8.99987
▁мэдээж	-9.00069
▁үйлдэл	-9.00248
▁ирнэ	-9.00436
▁э	-9.0047
]	-9.0056
▁ир	-9.00693
▁амьд	-9.00747
▁спорт	-9.00784
▁Үндсэн	-9.00889
▁минут	-9.00909
▁боломжийг	-9.01045
▁тоглох	-9.01059
▁амжилттай	-9.01184
▁зарна	-9.01186
▁уулзалт	-9.01196
▁хэрэгсэл	-9.01415
▁үндэсний	-9.01504
▁2019	-9.01524
▁төрөл	-9.01623
▁амар	-9.01766
уулах	-9.01818
▁Өөрийн	-9.01827
аасаа	-9.01848
▁жаахан	-9.01975
▁нарт	-9.0203
▁амиа	-9.02076
▁эгч	-9.02187
▁хаан	-9.0248
▁үйлдвэр	-9.02668
▁бодсон	-9.02777
▁хэлдэг	-9.02794
▁үнэтэй	-9.02812
▁|	-9.02854
▁үз	-9.02928
▁хөдөлгөөн	-9.02979
▁Эд	-9.03009
▁хэргийн	-9.03107
▁ёсны	-9.03156
▁тав	-9.03176
▁харагдаж	-9.03194
дөө	-9.03225
▁хялбар	-9.0325
▁өг	-9.03253
маар	-9.03351
▁хайж	-9.03386
▁2015	-9.03415
▁амьдралд	-9.0343
▁ур	-9.03601
▁хэсэгт	-9.03641
▁талд	-9.0371
▁үлдсэн	-9.03761
ик	-9.03775
▁ахуйн	-9.03892
▁замын	-9.03926
▁сургуульд	-9.03966
▁дэмжлэг	-9.03975
?"	-9.03995
О	-9.0404
▁бүтэн	-9.04044
▁гардаг	-9.04229
▁гурав	-9.04683
▁дэд	-9.04723
▁амьтан	-9.04893
▁суурь	-9.0508
▁бодох	-9.05164
▁В	-9.05179
М	-9.05186
▁хангах	-9.05461
▁хэмжээг	-9.05558
I	-9.05571
▁удахгүй	-9.05702
▁гарын	-9.0582
▁бөмбөг	-9.06022
▁оос	-9.06152
▁хүрэх	-9.06162
▁зээлийн	-9.06319
▁зуун	-9.06342
▁аварга	-9.06655
▁Түүнчлэн	-9.06715
▁нэрийг	-9.06721
▁өдөрт	-9.06808
▁газраас	-9.06979
▁цэргийн	-9.0699
▁ярьсан	-9.0722
▁Гар	-9.07343
▁шагнал	-9.07466
▁арван	-9.07531
▁Өөр	-9.07537
лийн	-9.07615
▁ажиллагааг	-9.07685
сээр	-9.07708
▁оор	-9.07716
▁ойр	-9.07848
▁ирдэг	-9.07858
▁салбарын	-9.07874
аж	-9.08004
▁Эх	-9.08097
▁онцгой	-9.08113
▁дэмжиж	-9.08232
▁харилцаа	-9.08466
▁суух	-9.08469
▁алдсан	-9.08517
▁ойлгох	-9.08627
лоо	-9.08715
▁21	-9.08798
▁эсэхийг	-9.08988
▁эс	-9.09085
▁ой	-9.09125
▁тушаал	-9.09195
▁шар	-9.09201
▁L	-9.09239
b	-9.09272
▁Ерөнхийлөгчийн	-9.09301
▁ороод	-9.09317
▁яахав	-9.09355
▁сонгуулийн	-9.09449
▁хүсэж	-9.09529
▁тэдэнд	-9.09762
C	-9.098
▁зар	-9.09859
▁ертөнц	-9.0988
▁дургүй	-9.09912
өөр	-9.10101
▁я	-9.10114
▁шөнө	-9.10135
лэн	-9.10144
▁2014	-9.10147
ит	-9.10166
▁Америкийн	-9.10213
▁Магадгүй	-9.10278
▁Р	-9.10358
▁нарыг	-9.1049
▁Түүнээс	-9.10509
▁хувцас	-9.1052
▁түр	-9.10834
▁итгэлтэй	-9.11113
▁унших	-9.11113
▁хэрэгт	-9.11315
▁жаргалтай	-9.11431
▁шаардлагагүй	-9.1151
▁томоохон	-9.11705
r	-9.11783
S	-9.11797
▁тод	-9.11822
▁хяналт	-9.11831
ка	-9.11896
▁R	-9.11948
▁Өмнөх	-9.11966
▁шат	-9.12086
өх	-9.12105
▁оршин	-9.12152
▁чадсан	-9.12152
▁өр	-9.12252
▁хүсдэг	-9.1227
▁дүнд	-9.123
▁лав	-9.12314
▁хор	-9.12627
▁эв	-9.12644
рч	-9.12763
▁Ажлын	-9.12968
▁ёсоор	-9.12976
▁дахиа	-9.13097
▁ерөнхийлөгч	-9.13115
x	-9.13161
▁Франц	-9.13172
▁t	-9.13231
▁эзэн	-9.13232
▁эрчим	-9.13386
▁хороо	-9.13407
▁нэмэлт	-9.1342
▁тусламж	-9.13628
▁явуулж	-9.13724
▁алхам	-9.13797
▁өөрсдийн	-9.13822
▁жин	-9.13845
▁Эсвэл	-9.13922
▁хариуцлага	-9.13983
▁зүй	-9.14006
▁програм	-9.14016
▁ашигтай	-9.14041
▁цалин	-9.14093
▁олсон	-9.14328
▁#	-9.14346
▁хэлээд	-9.14524
лэх	-9.14584
▁гэрэл	-9.14627
▁тоног	-9.14664
▁Дэлхий	-9.14715
▁онлайн	-9.14911
▁тоглолт	-9.15014
▁талаас	-9.15177
У	-9.15189
▁маргааш	-9.15219
▁утга	-9.15342
▁O	-9.15375
Л	-9.15486
▁Энэтхэг	-9.15643
▁ирлээ	-9.15826
▁тээврийн	-9.15839
эй	-9.15852
өн	-9.15852
▁алт	-9.15863
▁дэмжих	-9.15889
▁видео	-9.1599
al	-9.16125
▁шинээр	-9.16181
▁2008	-9.16198
ри	-9.16257
▁жаргал	-9.16327
▁22	-9.1648
▁идэх	-9.1656
M	-9.16572
▁тээрэм	-9.16692
п	-9.167
▁байгуулсан	-9.16731
▁асуудлаар	-9.1674
▁уудыг	-9.16743
▁бүлэг	-9.16771
▁Нөгөө	-9.1682
▁хэрэглэж	-9.16842
▁төгс	-9.17067
саар	-9.17211
▁чадвар	-9.17258
▁явуулах	-9.17294
▁бод	-9.17387
▁c	-9.17562
▁соёл	-9.17581
▁давхар	-9.17587
m	-9.17625
▁3-	-9.1767
▁!!!	-9.17922
▁тэмдэг	-9.17934
▁учиртай	-9.18104
▁өөрчлөх	-9.18191
▁сонгуульд	-9.18471
▁амархан	-9.18555
▁түүнээс	-9.18603
▁хэвээр	-9.18862
▁уншиж	-9.18937
▁Я	-9.18984
▁дур	-9.19228
▁60	-9.19231
▁орнууд	-9.19278
▁олгох	-9.19349
▁нөөц	-9.19431
▁түвшинд	-9.19433
лаад	-9.19473
▁Орон	-9.1954
▁дөө	-9.19714
A	-9.19802
▁тохиромжтой	-9.19813
▁i	-9.19833
Э	-9.19936
▁Аль	-9.19977
▁Хайр	-9.20032
▁баяртай	-9.20069
▁цай	-9.2017
E	-9.20267
▁холбогдох	-9.20341
▁Ингэснээр	-9.20342
▁замаар	-9.20403
▁Аав	-9.20471
▁хандаж	-9.20623
▁түмний	-9.20905
▁хэлбэр	-9.20965
▁өвчин	-9.21026
▁Ажил	-9.21148
▁Үндэсний	-9.21174
▁тос	-9.21186
▁хээ	-9.21225
G	-9.2131
▁асар	-9.21374
▁цагдаа	-9.21376
ноос	-9.21459
▁Ард	-9.21495
▁мод	-9.21509
▁ганцаараа	-9.21521
▁хэв	-9.21529
▁амралт	-9.21536
▁цэвэр	-9.21538
ел	-9.21544
▁оноо	-9.21734
▁хамтдаа	-9.21785
▁сургалт	-9.2179
▁хог	-9.21862
▁га	-9.21865
ен	-9.22094
▁сул	-9.22357
▁Хүүхэд	-9.22415
▁Бат	-9.22496
▁эл	-9.22532
▁Хууль	-9.2254
▁K	-9.22571
▁Анх	-9.22685
тэйгээ	-9.22728
▁эрхийг	-9.22815
▁хүүхдээ	-9.2294
▁зохиол	-9.2302
▁даяар	-9.23031
▁бодоод	-9.23035
тан	-9.23045
▁p	-9.23084
▁тоглож	-9.23098
▁Хүүхдийн	-9.23224
▁гарна	-9.23358
▁зай	-9.23433
▁Жишээ	-9.23577
▁Нийслэл	-9.23623
▁хоолой	-9.23706
▁хийхэд	-9.23853
▁харахад	-9.24027
▁монголчууд	-9.2404
▁Өмнөд	-9.24042
▁хөтөлбөр	-9.24106
▁байнаа	-9.24147
▁бэлтгэл	-9.24203
▁тайван	-9.24276
▁п	-9.2429
R	-9.24449
▁явц	-9.24544
▁сонгууль	-9.24583
▁W	-9.24603
▁айл	-9.24636
▁тэрбээр	-9.24681
▁хи	-9.24715
▁худалдаа	-9.24791
▁эхэлж	-9.24815
▁зургийг	-9.24822
▁оролцож	-9.24958
▁татах	-9.24975
аараа	-9.24981
▁онцлог	-9.252
▁хандах	-9.25263
▁архи	-9.25313
▁эхэллээ	-9.25381
▁болгосон	-9.25391
▁2013	-9.25421
▁Эрүү	-9.25429
▁эргэж	-9.25437
▁байранд	-9.25456
им	-9.25509
▁чиглэл	-9.25565
ийнхээ	-9.25649
▁үзээрэй	-9.25658
▁зүйтэй	-9.25678
▁m	-9.25755
уул	-9.25755
арч	-9.25939
▁худлаа	-9.25962
▁тэнгэр	-9.26093
▁N	-9.26223
▁дүгнэлт	-9.26286
▁Англи	-9.26357
▁оруулсан	-9.26412
▁хө	-9.26413
▁0	-9.26421
▁аялал	-9.26539
▁цагдаагийн	-9.26554
▁талын	-9.2658
▁байсныг	-9.26583
▁зүйлээ	-9.26603
▁бүхэнд	-9.26627
▁цаашид	-9.26678
рай	-9.26717
▁гуй	-9.26784
▁хүргэх	-9.26824
▁зүгээс	-9.26828
▁b	-9.27202
▁хямд	-9.27202
▁Ар	-9.27333
▁хагас	-9.27349
▁ажилтан	-9.27521
▁багийн	-9.27542
▁бат	-9.27634
▁залуус	-9.27738
▁зардал	-9.27781
ar	-9.27898
▁очих	-9.28041
▁хуучин	-9.2807
B	-9.28082
▁наад	-9.28159
▁Зүгээр	-9.28235
йн	-9.28274
▁ол	-9.28284
▁дотоод	-9.28341
▁эхлэн	-9.2847
▁e	-9.28572
▁мах	-9.28626
▁ая	-9.28768
▁санагддаг	-9.28935
▁ашигладаг	-9.28943
▁V	-9.2896
ли	-9.29104
▁аливаа	-9.29107
▁Одоогоо	-9.29109
▁тайлбар	-9.29145
▁богино	-9.29217
▁чиг	-9.29232
▁цааш	-9.29314
▁гараа	-9.29387
▁Төв	-9.29389
▁дүүрэн	-9.29519
▁Дээр	-9.2953
ет	-9.29658
▁Бүгд	-9.29756
▁гэрийн	-9.29809
▁шалгах	-9.30093
▁Ихэнх	-9.30179
▁Эр	-9.30206
▁банк	-9.30354
▁үзнэ	-9.30394
▁хариулт	-9.30476
▁чиглэлээр	-9.30601
▁дүнтэй	-9.3066
▁мэдлэг	-9.30696
▁бурхан	-9.30699
▁даг	-9.30717
▁чаддаггүй	-9.30744
ла	-9.30829
▁чөлөө	-9.30831
▁Солонгос	-9.30887
▁зориулж	-9.3093
▁нэртэй	-9.30931
▁хэвийн	-9.31013
лын	-9.31031
▁танай	-9.31096
▁хувийг	-9.31156
▁орно	-9.31253
тал	-9.31258
▁эсэх	-9.31323
Эрдэнэ	-9.31337
▁хэлний	-9.31453
▁цахилгаан	-9.31622
▁итгэж	-9.31717
▁мэд	-9.31854
▁төлөх	-9.31869
▁эрсдэл	-9.31869
▁хэрэглээ	-9.31914
▁нээлттэй	-9.3195
▁нэгдсэн	-9.31979
▁хэргийг	-9.32037
▁шийдэх	-9.32073
▁блог	-9.32094
▁шинжилгээ	-9.32108
▁мэдрэмж	-9.32167
▁болоогүй	-9.32313
▁Америк	-9.32315
ье	-9.3237
▁бөх	-9.32399
▁ухааны	-9.32461
▁Өдөр	-9.3247
▁дүрэм	-9.32478
▁Өглөө	-9.32484
Р	-9.32536
ст	-9.32647
▁орос	-9.3265
ю	-9.32774
g	-9.32962
▁хятад	-9.33024
▁Өнөөдр	-9.33083
▁урьдчилан	-9.33216
▁2011	-9.33222
аргыг	-9.33227
▁дэлгүүр	-9.3326
▁оролцсон	-9.33372
▁алдартай	-9.33447
▁зорилгоор	-9.33461
▁урд	-9.33496
▁Том	-9.33505
▁ихэвчлэн	-9.33518
▁эрхтэй	-9.33596
▁порно	-9.33668
▁хүргэе	-9.33669
▁Бага	-9.33686
▁ганцхан	-9.33689
▁орлого	-9.33704
▁цэг	-9.338
▁дайн	-9.3392
▁сав	-9.33992
▁23	-9.34003
▁сэдэв	-9.34133
▁нүүрс	-9.3422
▁утгаар	-9.34238
▁Y	-9.34276
▁анхаарах	-9.34439
▁чанартай	-9.34496
▁бодис	-9.34529
▁өв	-9.3474
▁бэлэг	-9.34767
▁ай	-9.34768
▁ХХК	-9.34887
▁агаар	-9.35098
мн	-9.35111
▁мөр	-9.3513
за	-9.35143
▁нэмж	-9.35159
▁дэлгэрэнгүй	-9.35194
го	-9.35206
an	-9.35217
▁Өмнө	-9.353
▁сайдын	-9.35417
▁хаалга	-9.35531
өл	-9.35584
▁үс	-9.35625
тайгаа	-9.35632
▁БНХАУ	-9.35656
O	-9.3568
▁Европ	-9.35749
▁байлгүй	-9.35831
▁номын	-9.36016
T	-9.36055
▁халуун	-9.36099
ун	-9.36106
▁дүгээр	-9.36337
▁нохой	-9.36503
;	-9.36532
▁агаарын	-9.36631
▁ангийн	-9.3667
▁чулуу	-9.36711
Монгол	-9.36716
▁яв	-9.36782
▁боловсруулах	-9.36785
▁чадвартай	-9.36829
▁юмуу	-9.36849
▁тогтвортой	-9.36925
▁баруун	-9.3701
▁Ганц	-9.37379
▁эцсийн	-9.37413
▁үнэндээ	-9.37508
▁төлөвлөгөө	-9.37509
▁хэмээх	-9.37531
▁тэмцэх	-9.3769
▁барилга	-9.37711
▁Дараагийн	-9.37789
▁зургаан	-9.3779
▁тайгаа	-9.37938
▁Танд	-9.37986
ра	-9.38014
▁гээ	-9.3803
руу	-9.38092
▁хаанаас	-9.38095
▁е	-9.38126
▁биеэ	-9.38153
▁ердөө	-9.38165
▁хуулийг	-9.38221
▁хөгжүүлэх	-9.38326
▁санаж	-9.38483
▁хурд	-9.385
▁дарж	-9.3851
▁надаас	-9.38597
▁НҮБ	-9.38639
▁Үнэхээр	-9.38671
▁талаарх	-9.38769
▁нөхцөлд	-9.3885
▁үйлчилгээний	-9.38856
▁ажиллана	-9.3898
уулж	-9.39036
▁муж	-9.3916
▁жолооч	-9.39165
чид	-9.39186
▁Есүс	-9.39263
гай	-9.39332
▁d	-9.39372
▁сур	-9.39523
▁байлгах	-9.39564
▁асуудлууд	-9.396
▁g	-9.3962
И	-9.39766
▁хоёрын	-9.39769
▁зав	-9.39873
өр	-9.39923
иа	-9.39984
▁ховор	-9.40088
▁дасгал	-9.40094
▁уудын	-9.40162
▁сууц	-9.40319
▁стандарт	-9.40359
▁аюул	-9.4043
▁ашиглан	-9.40538
▁аргаар	-9.40563
▁муухай	-9.40597
▁Холбоо	-9.40683
▁сэн	-9.40768
▁мэдсэн	-9.40804
▁тогтоох	-9.4081
▁байгуулж	-9.40814
▁80	-9.40814
▁Төр	-9.40857
▁урьд	-9.41092
▁харагдах	-9.41112
▁No	-9.41135
▁тутмын	-9.41222
in	-9.41241
▁биеийн	-9.41319
▁материал	-9.41464
▁технологи	-9.41512
▁мөнгийг	-9.41612
▁Нийт	-9.41634
▁байгууллагууд	-9.41787
▁Цагаан	-9.4206
▁хүсье	-9.42211
▁бусдад	-9.42215
▁идэж	-9.42235
▁иргэний	-9.42242
▁мянга	-9.42256
▁Ор	-9.42381
▁засвар	-9.42458
▁дүнг	-9.42482
▁даргын	-9.42545
▁байгаль	-9.42555
▁агуу	-9.42612
▁Мөнгө	-9.42647
▁эцэст	-9.42679
▁сэтгэгдэл	-9.42705
▁зүүн	-9.42716
▁f	-9.42838
сны	-9.42854
▁сурч	-9.4287
▁мөнгөө	-9.4289
▁ажиллагаанд	-9.43052
▁байгаарай	-9.43125
аагүй	-9.43151
▁одоогоор	-9.43273
▁яасан	-9.43288
▁сумын	-9.43337
таа	-9.43405
▁хэлэв	-9.4344
▁одоогийн	-9.43499
▁x	-9.43898
▁бодлоо	-9.4401
▁хэллээ	-9.44159
▁$	-9.44203
Бид	-9.44253
чууд	-9.444
▁4-	-9.44444
▁боловсрол	-9.4464
▁аараа	-9.45048
ив	-9.45199
▁Тухайлбал	-9.45226
▁Үнэ	-9.45478
▁яам	-9.4553
▁компьютер	-9.45546
▁найдаж	-9.45571
▁өгөхгүй	-9.45718
▁бизнесийн	-9.45858
▁төлбөр	-9.45866
▁болзошгүй	-9.45909
▁заалт	-9.45984
▁улаан	-9.46083
▁5-	-9.46097
▁туршлага	-9.46302
▁Ингэх	-9.46333
▁Ф	-9.46455
▁над	-9.46565
▁туршилт	-9.4661
▁гүйцэтгэх	-9.46636
▁хүүхэдтэй	-9.46664
▁ган	-9.46679
▁гаа	-9.46737
▁шдээ	-9.46765
▁хэмжээгээр	-9.46812
▁90	-9.46849
▁шийдвэрлэх	-9.4688
en	-9.469
▁газрыг	-9.46943
▁шинжлэх	-9.46966
▁дагаж	-9.47037
▁J	-9.47048
▁болгодог	-9.47125
▁шалгаж	-9.4713
▁лаа	-9.47236
▁Эхний	-9.47279
▁буу	-9.47293
▁цар	-9.47334
▁хэрэв	-9.47339
▁Тэнд	-9.47568
▁дотроо	-9.47581
▁царай	-9.47596
▁эмээ	-9.47627
ом	-9.47629
▁сонсох	-9.47648
▁сонссон	-9.47667
▁худалдааны	-9.47719
эм	-9.47743
▁дэг	-9.47886
▁зааж	-9.47917
▁замыг	-9.47967
▁төсвийн	-9.47992
▁орчинд	-9.48065
▁Гол	-9.48078
▁хөдөө	-9.48095
▁хүсэлт	-9.481
▁вакцин	-9.48107
▁вирус	-9.48183
▁чанарын	-9.48313
энд	-9.4842
▁чуулган	-9.48528
▁өмнөөс	-9.48561
▁хадгалах	-9.48595
ё	-9.48656
▁англи	-9.48807
▁оюутнууд	-9.48866
▁хэлэлцэх	-9.48869
▁2009	-9.48918
▁хамгаалалт	-9.4904
нууд	-9.49043
▁залуучууд	-9.49076
▁Үүнд	-9.49077
жин	-9.49099
▁үүнд	-9.49152
▁28	-9.49158
▁[...]	-9.49219
▁хөөрхөн	-9.49222
▁Эмэгтэй	-9.49245
▁Японы	-9.49334
h	-9.49373
▁тэмцээн	-9.49373
дөг	-9.49389
▁очоод	-9.494
▁сурвалж	-9.4942
▁Эрх	-9.49484
гоо	-9.49549
▁Герман	-9.49621
▁нийслэл	-9.49629
▁Тэгэх	-9.49732
▁бар	-9.49739
▁сэргийлэх	-9.49755
▁сөрөг	-9.49787
▁Сая	-9.49838
▁асууж	-9.50028
▁тэргүүн	-9.50071
▁дэргэд	-9.50135
▁сайжруулах	-9.50141
▁нийтэд	-9.50155
▁болчихсон	-9.50193
▁хоорондоо	-9.5023
▁газраа	-9.50243
▁иргэдэд	-9.50278
▁охид	-9.50352
▁найзууд	-9.50428
▁нөхөд	-9.50431
ей	-9.50432
▁нээх	-9.50455
▁хурал	-9.5055
▁хийхгүй	-9.50553
▁тамхи	-9.506
▁аваарай	-9.50665
▁цагаар	-9.50704
▁эн	-9.50712
▁дэлхийд	-9.50746
▁цор	-9.50939
▁үсэг	-9.51021
▁зүйлд	-9.51173
▁дандаа	-9.51184
▁хэрэгжүүлж	-9.51271
Чи	-9.51277
▁этгээд	-9.51357
▁хамтын	-9.51365
▁Ном	-9.51374
▁Чиний	-9.51468
▁үзүүлж	-9.51485
▁хоолны	-9.51498
Бат	-9.51504
▁сум	-9.51558
▁Дараах	-9.5156
▁өдрүүдэд	-9.51611
▁өд	-9.51612
▁түрүүнд	-9.51715
▁Засаг	-9.51751
▁аюултай	-9.51771
▁26	-9.51937
▁гаргадаг	-9.52017
▁Жил	-9.5202
▁хувиар	-9.52084
▁хүнсний	-9.52089
▁байгуулагдсан	-9.52097
▁гомдол	-9.52197
▁тооцоо	-9.52198
▁хөгжил	-9.52218
▁шал	-9.52254
▁хөгжим	-9.52265
▁ойлгомжтой	-9.52277
▁2010	-9.52304
▁гэрт	-9.52313
ынхаа	-9.52327
▁үзүүлэлт	-9.52365
▁усны	-9.52372
▁заримдаа	-9.52381
ф	-9.52426
▁очсон	-9.52483
▁иймэрхүү	-9.52499
▁хугацааг	-9.52525
ги	-9.52623
▁байшин	-9.52645
▁хэнд	-9.52672
нө	-9.52719
▁автобус	-9.52827
▁эхэлнэ	-9.52837
▁нүд	-9.52841
▁доош	-9.52845
▁заасан	-9.52865
▁байгалийн	-9.52949
ингээд	-9.53018
▁нээ	-9.53042
▁газрууд	-9.53042
▁27	-9.5312
ъя	-9.53212
▁албаны	-9.53266
▁хэлээр	-9.53349
▁үзээгүй	-9.5338
ос	-9.53386
▁санагдаж	-9.53387
▁гүн	-9.5341
▁Сайхан	-9.53417
N	-9.53454
▁уулзаж	-9.53569
▁холбооны	-9.53673
▁үйлдвэрийн	-9.5368
▁орондоо	-9.53692
▁авлаа	-9.53701
▁өдрийг	-9.5375
▁нэмэх	-9.53785
▁харагддаг	-9.53798
▁байхаа	-9.53893
▁цэцэг	-9.53941
▁дамжуулан	-9.53947
▁Өөрийг	-9.53965
▁Маш	-9.54034
Миний	-9.54051
▁байхаар	-9.54057
▁машины	-9.5407
ох	-9.54077
▁үгс	-9.54196
▁асуудалд	-9.54216
ээсээ	-9.54302
▁Баяр	-9.54337
▁зовлон	-9.54403
▁хаяг	-9.54426
▁хэтэрхий	-9.54511
▁Ардчилсан	-9.54518
▁ханш	-9.54611
▁шил	-9.54724
▁цол	-9.54801
▁үлдэх	-9.54872
▁хэм	-9.54901
▁Хан	-9.54974
▁бүхний	-9.55011
L	-9.55235
▁Сэтгэл	-9.5529
рах	-9.55306
▁r	-9.5531
▁70	-9.55388
▁нийгэм	-9.55407
▁цэцэрлэг	-9.55427
▁оюутан	-9.55431
▁ядаж	-9.55454
▁сонирхол	-9.55471
▁итгэх	-9.55573
▁>	-9.55576
▁n	-9.55687
ко	-9.55754
▁бусдын	-9.55881
▁талбай	-9.55916
▁тэгш	-9.55974
▁гэм	-9.55994
▁зарчим	-9.56001
▁эргээд	-9.56027
▁Одоогийн	-9.56032
▁шийдсэн	-9.56045
▁үйлчилгээг	-9.56068
▁Уул	-9.56096
▁Харамсал	-9.56188
лийг	-9.56215
▁амьдралыг	-9.5628
▁хэхэ	-9.56366
ана	-9.56475
сний	-9.56492
'	-9.56513
▁хэрэглэдэг	-9.56686
▁X	-9.56733
▁Ялангуяа	-9.5676
▁Иргэд	-9.56763
▁хорио	-9.56793
ба	-9.56813
▁Хойд	-9.56887
▁саад	-9.5692
▁үлгэр	-9.56942
▁улсууд	-9.56955
▁үйлдвэрлэл	-9.56963
▁Үр	-9.57048
чнээн	-9.57051
▁алдах	-9.57127
▁бал	-9.57138
▁сонсож	-9.57143
▁Нар	-9.57177
маа	-9.57291
би	-9.57306
▁өссөн	-9.57343
▁хоёрдугаар	-9.5742
уур	-9.57425
▁эрч	-9.57425
▁гадаадын	-9.57474
▁судалгааны	-9.57514
▁жагсаалт	-9.57519
▁үүссэн	-9.57529
▁сонгосон	-9.57551
▁үүнээс	-9.57555
дан	-9.57597
▁төслийг	-9.5772
▁Над	-9.57839
▁мөнгөний	-9.57847
▁Ү	-9.57927
▁сэтгэлийн	-9.57935
Ц	-9.57961
▁хямрал	-9.58036
▁арьс	-9.58056
▁бутлуурын	-9.58072
ат	-9.58095
ой	-9.58222
▁зайлшгүй	-9.58303
▁нийгэмд	-9.58308
▁төсөв	-9.58364
▁бүтээгдэхүүний	-9.58365
▁карт	-9.58367
▁шашин	-9.58493
at	-9.58508
▁Ирэх	-9.58572
▁секс	-9.58623
дсан	-9.58757
▁ин	-9.58764
re	-9.58849
▁ёсгүй	-9.58865
▁цуврал	-9.58884
▁өөрсдийгөө	-9.58886
▁зөвлөл	-9.589
▁төрх	-9.59011
▁манайд	-9.59097
▁утасны	-9.59157
▁уучлал	-9.5916
▁эрхийн	-9.5917
З	-9.59181
▁оюун	-9.59197
▁юуг	-9.59224
Ү	-9.59386
▁&	-9.59439
el	-9.59449
▁хяналтын	-9.59463
▁бэрхшээл	-9.59491
▁тэмцээнд	-9.59862
▁анд	-9.59945
ак	-9.6003
▁ахуй	-9.60049
▁Түүнд	-9.60083
▁гарт	-9.60212
ран	-9.60239
▁уулзах	-9.6024
▁зууны	-9.6024
▁гуай	-9.60412
▁орд	-9.60463
▁шоу	-9.60466
ган	-9.6047
▁хэвлэл	-9.60478
▁өнөөгийн	-9.60545
▁төрд	-9.6058
▁хэсгийг	-9.60657
▁эмнэлгийн	-9.60661
▁зөвшөөрөл	-9.60688
f	-9.60723
▁ихээр	-9.60762
▁аасаа	-9.60777
▁гэнэт	-9.60788
▁бүртгэл	-9.60789
▁бодлогын	-9.60854
▁айж	-9.60856
члэн	-9.60859
▁банкны	-9.6093
k	-9.60957
▁шатны	-9.61188
▁200	-9.61228
▁ордог	-9.61246
▁сүүлд	-9.6127
хи	-9.61282
тэл	-9.61321
бал	-9.61334
▁өсөлт	-9.61344
▁хийлээ	-9.61412
▁төмөр	-9.61453
▁код	-9.61454
▁News	-9.61458
▁зөндөө	-9.61459
▁тогтмол	-9.61463
▁засах	-9.61469
▁харилцан	-9.61475
▁баян	-9.61639
▁да	-9.61696
▁on	-9.61763
▁суралцах	-9.61865
▁бууруулах	-9.61869
▁цэн	-9.61878
▁нэн	-9.61879
▁амын	-9.6195
▁цөөн	-9.62014
Ш	-9.6203
▁наадам	-9.62112
ing	-9.62144
▁технологий	-9.62257
▁киноны	-9.62413
▁хөгжилтэй	-9.62418
▁барсан	-9.62439
▁хэрэгцээ	-9.62473
дугаар	-9.62498
▁эрчүүд	-9.62548
▁Нэр	-9.62569
▁вий	-9.62671
▁дүүргийн	-9.62675
▁өгөөч	-9.62686
▁уух	-9.62754
▁чууд	-9.62809
▁байрны	-9.62864
▁жүжигчин	-9.62873
▁мэдэл	-9.62934
▁асуух	-9.62943
Таны	-9.62984
▁дар	-9.62985
▁хуульд	-9.6306
▁Бүр	-9.63093
▁авахгүй	-9.63217
▁зүйлийн	-9.63223
▁олны	-9.63266
▁удирдлага	-9.63273
▁Хүү	-9.633
▁саналаа	-9.6334
▁худал	-9.63476
▁даруй	-9.6348
▁дэндүү	-9.63496
даж	-9.63539
00	-9.63551
▁нисэх	-9.63553
▁хорооны	-9.63606
▁журам	-9.63675
▁тухайд	-9.63871
▁туршлагатай	-9.63915
▁ул	-9.63941
Манай	-9.6408
it	-9.64151
▁болдоггүй	-9.6431
▁10-	-9.64328
%	-9.64338
▁баталгаа	-9.64422
▁хажууд	-9.64447
▁бүтээсэн	-9.64529
▁ихээхэн	-9.64538
▁хүлээх	-9.6458
▁Аз	-9.64584
▁хүнс	-9.64649
Энхбаяр	-9.64701
▁нэмэгдүүлэх	-9.64711
▁Иймд	-9.64768
гийг	-9.64866
ни	-9.64905
андаа	-9.64911
▁байнгын	-9.64917
тар	-9.64931
▁алдаж	-9.64991
▁нд	-9.65024
▁харуулах	-9.65029
▁зүйлсийг	-9.6511
▁холбогдсон	-9.65128
▁хэлнэ	-9.65131
▁Эцэг	-9.6516
▁зориг	-9.65171
▁болоо	-9.65172
▁Дуу	-9.65181
В	-9.65268
▁чөлөөтэй	-9.65337
▁найман	-9.65346
▁цагаас	-9.65359
▁дөнгөж	-9.65393
▁наас	-9.65467
▁харуулж	-9.65531
▁хүйтэн	-9.65552
▁хүнээс	-9.65561
▁надтай	-9.65577
▁Газар	-9.65585
▁тан	-9.65676
лаж	-9.65747
▁төлөв	-9.65766
▁ялангуяа	-9.65771
▁но	-9.65802
▁цус	-9.65809
▁ширхэг	-9.65811
▁өөрт	-9.65837
▁ажилдаа	-9.65859
▁өрөөнд	-9.65894
▁Хэзээ	-9.65957
▁зээлд	-9.66054
▁эрс	-9.66055
▁Бу	-9.66188
▁өнөөдрийн	-9.66205
▁мэддэггүй	-9.66211
▁барилгын	-9.66348
▁Үүн	-9.66424
▁бүгдээрээ	-9.66444
шгүй	-9.66473
▁чанга	-9.66602
▁МАХН	-9.66605
▁Улсад	-9.6663
▁хийхийг	-9.66806
▁өчигдөр	-9.66819
▁явцад	-9.66819
▁виз	-9.66875
▁удаад	-9.66881
▁сон	-9.67206
Ж	-9.6722
▁ихтэй	-9.67296
▁Нас	-9.67375
▁амьсгал	-9.67382
▁гарц	-9.67393
▁баярын	-9.67402
▁Гал	-9.67405
▁ойролцоо	-9.67428
▁үзээд	-9.67469
▁идэвхтэй	-9.67496
▁лам	-9.67501
ро	-9.67601
▁зогсоох	-9.67602
▁Хүүхдүүд	-9.67677
▁наадмы	-9.67718
▁хөдөлмөр	-9.67761
▁болтол	-9.67766
▁насанд	-9.67771
йл	-9.67796
▁эмнэлэгт	-9.67805
▁хандлага	-9.67849
▁яаралтай	-9.6786
▁ирээдүй	-9.67907
▁эерэг	-9.67961
▁зорилготой	-9.67991
▁Залуу	-9.68
on	-9.681
▁барьсан	-9.68123
▁далд	-9.6818
▁өгөөд	-9.68223
▁дутуу	-9.68312
оороо	-9.68337
вар	-9.68341
▁эндээс	-9.68361
▁Шүүх	-9.68381
▁бичгийн	-9.68419
▁төлөөлөгч	-9.68428
▁бүсгүйчүүд	-9.68449
▁Хэдэ	-9.68483
▁мундаг	-9.68503
▁мэдэгдсэн	-9.68515
▁ийнхүү	-9.68521
▁цаас	-9.68578
▁хүүхдэд	-9.68672
▁500	-9.6868
▁o	-9.68687
мээр	-9.68704
▁тогтоосон	-9.68734
Ч	-9.68795
▁хүүхдийг	-9.68933
▁хүсвэл	-9.6895
▁in	-9.69009
▁болохоос	-9.6913
▁Өөрөө	-9.69137
алт	-9.69164
▁ас	-9.69179
▁шийдэл	-9.69208
▁гаргаад	-9.69289
▁юунд	-9.69325
лээд	-9.69348
▁нислэг	-9.69369
▁Дээрх	-9.69406
▁улиралд	-9.69521
▁нэгдүгээр	-9.69538
дах	-9.6958
▁хараа	-9.69582
▁удирдах	-9.69614
▁данс	-9.69647
▁хүрэхгүй	-9.69701
▁тайлан	-9.6975
▁l	-9.69848
▁хэлбэрээр	-9.69982
ул	-9.70011
·	-9.70264
▁жилүүдэд	-9.7028
▁үндэс	-9.70314
вол	-9.70396
▁угаах	-9.70402
▁төслийн	-9.70457
▁хэрэглэгч	-9.70571
▁ухаалаг	-9.70676
▁Тэдгээр	-9.70786
▁гарахгүй	-9.70809
▁нууд	-9.70827
▁ангид	-9.70862
▁1.	-9.70865
▁маск	-9.70896
▁Эзэн	-9.70919
▁аг	-9.70951
▁тэдгээр	-9.71041
▁хос	-9.71145
▁байгууллагад	-9.71146
▁үзвэл	-9.71149
ус	-9.71208
▁цөм	-9.71367
К	-9.71454
тэн	-9.71482
▁Ха	-9.71517
▁ялгаатай	-9.71525
▁бодлоор	-9.71533
▁буцаж	-9.71599
▁дууссан	-9.71718
▁Үгүй	-9.71893
▁h	-9.71978
▁эмнэлэг	-9.72059
▁хүүхэн	-9.72095
▁сүм	-9.7212
▁ес	-9.7213
▁нэгж	-9.72167
гаад	-9.72171
▁АТГ	-9.72223
▁хэсгийн	-9.72237
▁мэргэжил	-9.72307
▁1000	-9.72362
▁авахад	-9.72393
▁магадлалтай	-9.72399
▁боловсролын	-9.72421
эж	-9.72491
▁маргаан	-9.72518
▁дайны	-9.72543
▁хамтлаг	-9.7259
▁хангамж	-9.72639
▁нунтаг	-9.72641
▁хулгай	-9.72708
▁хоосон	-9.72729
▁уруу	-9.7276
▁гарлаа	-9.72775
or	-9.72831
▁энх	-9.72876
▁эхчүүд	-9.72919
▁ногоон	-9.72929
▁өөрчилж	-9.72939
>	-9.73021
▁эрхэм	-9.73046
чихсан	-9.73111
▁ф	-9.73118
▁баатар	-9.73177
▁дан	-9.73179
ло	-9.73187
▁хааны	-9.73285
▁6-	-9.73345
лал	-9.73365
▁халамж	-9.7357
▁дурдсан	-9.73583
▁Зүүн	-9.73585
▁хугацаагаар	-9.73623
▁үнэлгээ	-9.73668
▁санхүүжилт	-9.738
▁олгодог	-9.73803
▁болоход	-9.73846
▁тэ	-9.74038
▁vv	-9.7408
▁дарамт	-9.74099
▁дээрээс	-9.74169
▁сургалтын	-9.74221
▁баялаг	-9.74253
▁ашигласан	-9.743
▁саяхан	-9.74362
▁сонгож	-9.74383
▁Заримдаа	-9.74667
▁Танай	-9.74673
▁ойлгосон	-9.74735
▁хязгаар	-9.74792
▁шоронд	-9.75077
раа	-9.7513
▁техник	-9.7515
▁анхаарлаа	-9.7519
▁онцлов	-9.75191
▁сайхны	-9.75195
▁иргэдийг	-9.75195
▁Хоол	-9.75206
▁чада	-9.75355
▁ү	-9.7544
джээ	-9.75453
▁ялгаа	-9.75461
▁хэдийн	-9.75677
▁ээлжит	-9.75763
▁асуудлаа	-9.75769
▁байтугай	-9.75855
▁үхэх	-9.7587
▁захирал	-9.75895
▁авалт	-9.75917
▁хүсэхгүй	-9.76075
▁хэвээрээ	-9.76109
▁зургаа	-9.7616
et	-9.76167
▁тэрэг	-9.76219
▁түүнтэй	-9.76234
аарай	-9.76249
▁сангийн	-9.76313
▁Яда	-9.7634
▁таатай	-9.76397
▁Ус	-9.76458
▁35	-9.765
лон	-9.76531
▁төлөвлөж	-9.76661
U	-9.76722
▁төгсгөл	-9.76724
▁шийдвэрийг	-9.76734
▁2000	-9.76774
▁орнуудын	-9.76785
▁тэмдэглэл	-9.76823
▁хөдлөх	-9.76831
▁мэдэгдэл	-9.76843
▁байдалтай	-9.76864
▁Ма	-9.76938
Я	-9.76964
▁саар	-9.77078
▁хуулиар	-9.77089
▁хангаж	-9.77149
▁Африк	-9.77202
▁хойд	-9.77248
▁яа	-9.77273
▁багц	-9.77404
▁түүхэн	-9.77448
▁зөрчил	-9.77462
руулах	-9.77508
▁Хотын	-9.77556
▁хүмүүстэй	-9.77674
ог	-9.77676
▁айлын	-9.77682
▁сэтгүүл	-9.77725
▁ёслол	-9.77731
▁гээч	-9.77733
▁аймагт	-9.77741
Энхболд	-9.778
▁Азийн	-9.77827
▁хэдхэ	-9.77848
▁Е	-9.77852
▁устгах	-9.77869
▁U	-9.77882
▁ертөнцөд	-9.77986
▁хайх	-9.78012
▁На	-9.78086
▁хардаг	-9.78116
▁Амьдрал	-9.78124
▁уурхай	-9.78166
▁элс	-9.78188
▁унтаж	-9.78203
▁гаргана	-9.78282
▁шд	-9.78308
▁хуралдаан	-9.78345
▁Өдрий	-9.78368
▁чөлөөт	-9.78403
▁мэдэрч	-9.78461
▁төвд	-9.78466
▁тэйгээ	-9.78627
▁заяа	-9.78641
▁Google	-9.78671
▁төстэй	-9.78693
▁7-	-9.78751
▁цэвэрлэх	-9.78766
▁анхаарч	-9.78769
ма	-9.78827
▁Эхнэр	-9.78906
▁бүтээх	-9.78978
гуй	-9.78995
▁Хэл	-9.79027
▁цагаа	-9.79056
▁өнөө	-9.79081
▁харамсалтай	-9.79148
▁бүлгийн	-9.79163
▁үзэн	-9.79202
лгүй	-9.79234
▁үүний	-9.79236
▁өмч	-9.79272
▁шигээ	-9.79286
▁судалж	-9.79331
▁хуур	-9.79352
ch	-9.79353
▁хувьсгал	-9.79385
▁чадвал	-9.79389
▁үнийн	-9.79396
▁батлах	-9.79485
эдийгээр	-9.79584
▁хориг	-9.79623
▁ойрхон	-9.79659
▁мэс	-9.79706
▁Гурван	-9.79714
▁Ам	-9.79721
▁Солонгосын	-9.79733
▁бгаа	-9.79783
▁па	-9.79811
▁хойно	-9.7982
ухлыг	-9.79897
▁дахи	-9.79907
▁тавьдаг	-9.79911
▁Чингис	-9.79941
▁сонс	-9.79958
▁авто	-9.79996
▁өөс	-9.79998
▁үүднээс	-9.80052
▁руугаа	-9.80099
▁хийгээгүй	-9.80107
▁хүсэлтэй	-9.8023
▁лаг	-9.80237
▁хэлжээ	-9.80241
▁гишүүдийн	-9.8031
▁дөрөв	-9.80362
▁+	-9.80378
▁Ийн	-9.80384
▁хаяж	-9.80455
▁ойрын	-9.80496
▁итгэдэг	-9.80557
▁нэмэгдэж	-9.80592
хоо	-9.80614
▁гай	-9.80631
▁гаралтай	-9.80648
▁суулгах	-9.80835
▁үеэс	-9.8089
▁бэлгийн	-9.80944
ая	-9.81072
▁сүнс	-9.8108
▁ов	-9.81128
▁туршид	-9.81141
▁урлаг	-9.81141
▁болгоно	-9.81183
▁хоорондын	-9.81294
▁нөхөн	-9.81391
▁тээ	-9.81446
F	-9.81451
▁дав	-9.81485
▁төрж	-9.81514
▁ариутгагч	-9.8157
▁Үйл	-9.81572
▁Маргааш	-9.8159
▁товч	-9.81659
▁брэнд	-9.81664
▁сонирхож	-9.81809
гоор	-9.81859
▁дуусах	-9.81867
▁дуучин	-9.81906
▁тусам	-9.81921
та	-9.81924
АЛ	-9.82098
▁Нам	-9.82104
▁Ан	-9.82162
▁тогтоол	-9.82201
▁Канад	-9.82214
▁үйлдвэрлэлийн	-9.82225
▁to	-9.82286
▁хэлэлцээр	-9.82317
▁ялалт	-9.82327
H	-9.82462
▁Зураг	-9.82546
▁тоог	-9.82617
▁Багш	-9.82661
▁танил	-9.82683
▁иржээ	-9.82714
▁ууж	-9.82944
▁Ми	-9.82963
хай	-9.82964
▁дууг	-9.83008
▁нүүд	-9.83023
▁удирдлагууд	-9.83044
▁чанарыг	-9.83094
▁нэрээр	-9.83095
▁хашаа	-9.83113
▁Аливаа	-9.83125
▁буудал	-9.83156
▁илэрхийлж	-9.83182
▁түүхийг	-9.83225
w	-9.83256
▁доод	-9.83256
▁вэб	-9.83264
▁болтугай	-9.83293
▁Эмэгтэйчүүд	-9.83297
▁эмчилгээ	-9.83338
▁явуулсан	-9.8339
20	-9.83479
уулсан	-9.83541
▁Эцэст	-9.8356
▁ойлгодог	-9.83764
▁тодорхойгүй	-9.83779
▁олгоно	-9.83799
▁магадлал	-9.83886
▁галт	-9.83919
▁тоглоомын	-9.83927
▁цаана	-9.83965
ис	-9.83998
▁урсгал	-9.84018
▁эрхгүй	-9.84025
▁хөлбөмбөг	-9.84028
▁өөд	-9.84157
▁доор	-9.84169
▁сараас	-9.84184
▁гээр	-9.8428
▁).	-9.84289
▁камер	-9.84295
▁биелүүлэх	-9.84322
▁төдийгүй	-9.84328
▁цэрэг	-9.84355
▁үүсгэх	-9.84367
▁тоглогч	-9.84399
▁хорих	-9.84555
▁оролцоо	-9.84559
▁бодолтой	-9.84671
мал	-9.84712
▁Хэрэг	-9.84737
▁сурсан	-9.8474
▁аймаг	-9.84784
▁ядуу	-9.84799
▁мөнгөн	-9.84873
▁айх	-9.8492
▁Мэдээ	-9.84973
▁8-	-9.85105
▁орчны	-9.85139
▁гэхээс	-9.85147
▁санах	-9.85157
▁нэ	-9.85175
▁ариун	-9.85214
▁тусгаар	-9.85226
▁тогтолцоо	-9.85273
▁жээ	-9.853
▁мөнгөөр	-9.85304
▁ирэв	-9.85336
▁2021	-9.85353
Е	-9.85369
▁хүчээр	-9.85499
▁Найз	-9.85553
▁хөгжиж	-9.85561
▁борлуулалт	-9.85561
▁шийдэж	-9.85566
▁гарчээ	-9.85603
▁байгуулалт	-9.85645
▁сүү	-9.85688
▁бэрхшээлтэй	-9.85749
▁хүртэлх	-9.8582
▁нунтаглах	-9.85843
▁сэргээх	-9.85955
▁ирээдүйд	-9.85988
өөсөө	-9.85991
▁Дахи	-9.86189
▁хөрөнгийн	-9.86259
▁үнэт	-9.8631
▁кофе	-9.86327
▁Мал	-9.86358
нийхээ	-9.86371
▁гараагүй	-9.8641
▁түвшин	-9.86437
▁хай	-9.8646
▁хулгайч	-9.86509
▁тодорхойлох	-9.86586
▁хүрээд	-9.86602
▁бороо	-9.86626
▁Өндөр	-9.86629
▁талтай	-9.86727
▁төдий	-9.86819
▁хөө	-9.86849
то	-9.86873
▁45	-9.86926
▁төрөх	-9.86963
▁аяга	-9.86968
▁утсаар	-9.86995
▁Бие	-9.87004
▁морь	-9.87023
▁ярилцлага	-9.87116
мж	-9.87118
▁нэрлэдэг	-9.87129
▁бүрийг	-9.87141
▁ду	-9.87142
▁нэгийг	-9.87145
▁хохирол	-9.87148
▁солих	-9.87197
▁300	-9.873
▁..."	-9.8733
▁хэлмээр	-9.87411
▁жимс	-9.87529
▁муутай	-9.87575
▁буцах	-9.87633
▁мөрөөдөл	-9.87647
▁усан	-9.87672
▁Эм	-9.87692
▁үнэнч	-9.8774
▁бүтэц	-9.87888
▁Эрдэнэ	-9.87896
▁бусдыг	-9.87904
▁санааг	-9.87931
▁y	-9.88129
▁зогсож	-9.88141
▁хатан	-9.88197
▁хөгжмий	-9.88224
чил	-9.88252
▁үгээр	-9.88338
▁суугаа	-9.88367
▁Охин	-9.88406
▁дундаж	-9.88475
ек	-9.88555
▁Эхлээ	-9.88571
тер	-9.88591
▁нуруу	-9.88614
▁тусдаа	-9.88657
▁Улаан	-9.88806
ic	-9.88809
▁буцааж	-9.88817
АР	-9.88821
▁бүтээн	-9.88827
▁зургууд	-9.88831
▁Долоо	-9.88956
▁төгссөн	-9.8897
▁удирдагч	-9.89022
дүгээр	-9.89079
▁хэ	-9.89116
▁шүүгч	-9.89198
▁Хий	-9.8922
▁давж	-9.89241
▁Өөрийнхөө	-9.89266
▁жирийн	-9.89286
▁найдвартай	-9.8932
▁суу	-9.89363
▁эхлэл	-9.89421
▁нээлт	-9.89426
▁31	-9.89449
▁ноцтой	-9.89456
▁соёлын	-9.89481
▁Жон	-9.89488
▁аврах	-9.89491
▁гарагт	-9.89501
▁хэлэхдээ	-9.89518
▁Зөв	-9.89546
▁үргэлжилж	-9.89556
▁шийд	-9.89562
▁хийн	-9.89567
▁ээсээ	-9.89621
▁араас	-9.89653
▁өөрөөр	-9.89717
▁БНСУ	-9.89721
▁зочид	-9.89726
▁март	-9.89736
▁ни	-9.89748
▁ө	-9.89771
▁зарах	-9.89824
▁Хөл	-9.89837
▁ойлгохгүй	-9.89851
▁ажилтнууд	-9.89887
▁9-	-9.89917
▁баталсан	-9.90024
▁бүтээлч	-9.90046
▁даваа	-9.90066
▁байдлаас	-9.90107
▁урам	-9.90151
▁Гэрт	-9.90177
▁шугам	-9.90189
▁Жишээлбэл	-9.90254
▁Цагдаагийн	-9.90281
▁асуу	-9.9034
▁Нийгмийн	-9.90341
▁хийхээр	-9.90361
▁татан	-9.90444
▁хав	-9.90482
▁шинэчлэл	-9.90512
▁нэвтрүүлэг	-9.90522
▁төгөлдөр	-9.90522
▁шүүхийн	-9.90543
▁Мэргэжл	-9.90559
▁орнуудад	-9.90564
us	-9.90642
▁то	-9.90727
▁Хамт	-9.90752
▁дугуй	-9.9078
▁зуур	-9.90797
Ө	-9.90829
▁шөний	-9.90867
▁Ал	-9.90911
▁хийлгэх	-9.90922
▁Гэ	-9.90926
▁ирэхэд	-9.90968
▁хана	-9.90991
▁зөвлөж	-9.91041
▁чухам	-9.91059
▁байтал	-9.91111
▁ху	-9.9117
▁сэтгүүлч	-9.91177
▁Ай	-9.91227
инг	-9.91261
▁хал	-9.91285
▁цөөхөн	-9.91332
▁дэмждэг	-9.91344
▁дохио	-9.91381
▁дуудлага	-9.91437
▁бууж	-9.91495
▁шалгуур	-9.91598
▁захиалга	-9.9161
▁таарна	-9.91641
▁хэрэглэгчид	-9.91648
▁зун	-9.91669
▁хоёулаа	-9.91675
▁Чамайг	-9.91678
▁салхи	-9.91699
▁гээс	-9.91731
лл	-9.9176
▁29	-9.91763
▁дурсамж	-9.91821
▁чихсан	-9.91851
▁дуулж	-9.91859
▁үргэлжлүүлэн	-9.9188
▁ярилцах	-9.91885
▁бичээд	-9.91923
▁өнгөрч	-9.91938
▁үй	-9.91979
▁кинонд	-9.91994
▁лах	-9.92038
▁w	-9.92096
▁хөх	-9.92109
▁шашны	-9.92141
▁түгээмэл	-9.92149
▁Банк	-9.92151
▁суугаад	-9.92193
▁гадаа	-9.92233
▁тутамд	-9.92291
▁урлагийн	-9.92381
ти	-9.92413
▁үзэгдэл	-9.92457
лага	-9.92496
иг	-9.92603
ян	-9.92685
▁ухаантай	-9.9273
▁ээрээ	-9.92731
ot	-9.92733
am	-9.92826
▁er	-9.92851
▁Зам	-9.92962
▁бяцхан	-9.92975
▁илэрхийлэх	-9.93017
▁нээж	-9.93093
▁Өө	-9.93151
▁маяг	-9.93158
ур	-9.93169
▁хэлэлцэж	-9.93241
▁тас	-9.93243
▁<	-9.93244
▁Яа	-9.93316
▁уншсан	-9.93319
▁зөвлөх	-9.93321
оод	-9.93349
▁номыг	-9.93413
ѳ	-9.9343
Баттулга	-9.93433
▁тэгвэл	-9.93454
▁ярилцаж	-9.93517
▁явлаа	-9.93583
▁хэлье	-9.93589
▁хүрээ	-9.9367
▁шаардлагыг	-9.9368
▁Албан	-9.93682
▁Ардын	-9.9377
▁тариа	-9.93785
▁үүдийг	-9.93831
▁байсангүй	-9.93846
▁зохих	-9.9387
▁усанд	-9.93874
▁манайх	-9.93877
▁эхээр	-9.93891
▁~	-9.93905
▁Ли	-9.93953
▁унтах	-9.93965
▁унаж	-9.93966
ви	-9.93978
▁зөөлөн	-9.94068
▁харьцуулахад	-9.94103
▁Илүү	-9.94106
▁удаагаа	-9.9414
▁сэтгэлийг	-9.94162
▁дэвшигч	-9.9417
▁хэний	-9.94176
▁талыг	-9.9421
▁үүр	-9.94337
мэл	-9.94339
▁санагдсан	-9.94381
▁нөлөөлж	-9.9439
▁ing	-9.94392
▁бүтээгдэхүүнийг	-9.94434
▁түүн	-9.9444
▁гишүүний	-9.9446
il	-9.94541
▁Тэднийг	-9.94603
▁хийгдсэн	-9.94629
▁ка	-9.94702
▁жилдээ	-9.94704
▁уудад	-9.94727
▁нийтлэг	-9.94739
▁сүр	-9.94739
▁хорт	-9.94767
баатар	-9.94873
▁үзье	-9.94922
▁юмсан	-9.95034
▁утгатай	-9.9506
▁станц	-9.95131
ист	-9.95168
▁Дэлгэрэнгүй	-9.95238
▁сууцны	-9.95251
▁зөвшөөрч	-9.95267
▁мөнх	-9.95292
▁сонгон	-9.95314
П	-9.95393
▁талууд	-9.95427
▁ажиллагаагаа	-9.95476
▁нэмэр	-9.95491
▁холбогдолтой	-9.95502
▁ханд	-9.95591
▁алх	-9.95677
▁вэбсайт	-9.95694
un	-9.95707
▁гайгүй	-9.95807
▁үүсвэр	-9.95949
▁Си	-9.9595
▁хичээлийн	-9.95956
▁талбайд	-9.95962
▁жагсаал	-9.96024
▁сонсоод	-9.96031
▁гуравдугаар	-9.96042
▁Бидэн	-9.96089
▁гэрээг	-9.96149
Хүрэлсүх	-9.96173
гэн	-9.96189
▁онол	-9.96223
▁дава	-9.96282
▁шигшээ	-9.96314
K	-9.96321
▁сонгодог	-9.96331
▁k	-9.96408
▁өдрүүд	-9.96592
▁байршил	-9.96623
▁тавиад	-9.9667
▁хэмжээтэй	-9.9669
▁санд	-9.96807
▁хүр	-9.96834
▁хамгаалж	-9.96862
▁салах	-9.96921
▁Дээд	-9.97141
▁үх	-9.97185
▁Орчин	-9.97187
▁клуб	-9.97196
ья	-9.97204
▁тайлбарлаж	-9.9725
лыг	-9.97386
үүлж	-9.97396
▁интернет	-9.9745
▁байхын	-9.97493
▁хаашаа	-9.975
▁засаглал	-9.97563
th	-9.97662
▁төгрөгийн	-9.97676
▁загас	-9.97724
▁сүлжээ	-9.97752
▁баригчид	-9.97759
▁бусдаас	-9.97824
▁гаар	-9.97843
▁мэдээлж	-9.97872
▁кг	-9.9791
▁сүүлчийн	-9.98026
▁!!	-9.98037
▁батлагдсан	-9.98073
▁хэрэглэгчийн	-9.98084
ed	-9.98095
▁унах	-9.98111
▁монголын	-9.98195
▁үүрэгтэй	-9.98196
▁олгож	-9.98229
▁эрүү	-9.98262
ель	-9.98292
▁нэмэгдсэн	-9.98332
▁эхэлдэг	-9.98333
▁Facebook	-9.98377
▁Трамп	-9.9839
▁хоо	-9.98455
▁Анхны	-9.98459
▁Британийн	-9.98468
▁Манайх	-9.98488
ra	-9.98493
▁судлах	-9.98514
▁үзэсгэлэн	-9.98515
▁дотно	-9.98598
▁төрөлхтөн	-9.98604
▁мэдрэх	-9.98608
▁шуу	-9.98615
▁амьдралдаа	-9.98621
▁зуны	-9.98647
▁далайн	-9.98659
▁Машин	-9.98721
▁тустай	-9.98767
▁хувьцаа	-9.98776
▁Нэгэн	-9.98856
▁Өчигдөр	-9.98895
▁хуралд	-9.98913
▁аваагүй	-9.98939
▁ханддаг	-9.9897
▁гэгч	-9.98983
▁тат	-9.98986
▁Байгаль	-9.98997
▁насандаа	-9.99015
▁суусан	-9.99029
▁]	-9.99106
үн	-9.99166
▁гутал	-9.99195
▁орноо	-9.99302
тон	-9.99391
▁харилцааны	-9.99397
▁тор	-9.99435
▁харьцангуй	-9.99487
▁хичээдэг	-9.99511
▁баярлаж	-9.99518
▁аялах	-9.99529
дэл	-9.99574
жиг	-9.99607
▁ундаа	-9.99765
▁үйлдвэрлэгч	-9.9977
▁амьдралаа	-9.99776
▁эхлүүлэх	-9.9981
ri	-9.99843
▁шин	-9.99845
▁ээлж	-9.99916
▁хүчирхэг	-10.0007
▁дийлэнх	-10.0008
▁Германы	-10.0008
▁хон	-10.001
▁дүрс	-10.001
▁бариад	-10.0011
үүлэх	-10.0017
лог	-10.0026
▁зохицуулалт	-10.0031
▁зовж	-10.0035
▁Баян	-10.004
▁Хөдөө	-10.004
▁даасан	-10.0048
уй	-10.0049
▁ко	-10.0053
▁тэс	-10.0057
▁үйлдвэрлэх	-10.0058
▁зорилт	-10.0059
▁Ав	-10.0066
▁оруулна	-10.0076
▁дэмий	-10.0079
▁ийнхээ	-10.0082
▁бүхэлд	-10.0083
▁харьцаа	-10.0092
▁The	-10.0095
▁нөлөөлдөг	-10.0095
▁2007	-10.0098
▁Сарын	-10.0099
▁Сонгуулийн	-10.0105
▁өдрөөс	-10.0107
▁дулаан	-10.0107
▁4.	-10.011
лд	-10.0114
▁хама	-10.0116
▁цонх	-10.0125
▁Удах	-10.0129
▁асан	-10.0133
▁нээрээ	-10.0144
▁хосууд	-10.0145
▁гадаадад	-10.0147
▁хайрлах	-10.0147
▁байдгийг	-10.0156
▁Үг	-10.0156
▁хэчнээн	-10.0157
За	-10.0165
▁мөч	-10.017
▁харуулсан	-10.0171
▁ашиглалт	-10.0171
рал	-10.0181
оосоо	-10.0182
_	-10.0182
▁ирээдүйн	-10.0184
▁зэргийн	-10.0186
▁Эмч	-10.0186
▁Ю	-10.0189
▁мэдээллээ	-10.0191
▁харна	-10.0192
▁байсаар	-10.0195
▁ь	-10.0208
▁үүргээ	-10.0222
ur	-10.0229
▁Муу	-10.0231
▁Re	-10.0239
▁согтуу	-10.0245
▁хангалуун	-10.0245
▁бичдэг	-10.0247
▁хөөрхий	-10.025
▁байгаагаар	-10.0252
▁со	-10.0254
▁сал	-10.0254
▁мэтээр	-10.0259
▁Нийгэм	-10.0261
▁Шар	-10.0266
▁чид	-10.0267
хөн	-10.0267
▁тохирсон	-10.0275
▁зэрэгцээ	-10.0275
аш	-10.0277
▁луу	-10.0296
▁зөрчсөн	-10.0306
▁улсаас	-10.0309
▁Христ	-10.0312
▁биздээ	-10.0313
▁доорх	-10.0313
доллар	-10.0316
▁Улмаа	-10.0319
▁уншаад	-10.0322
▁нуур	-10.0325
ре	-10.0325
▁утаа	-10.0329
▁11-	-10.0332
▁төлж	-10.0333
▁урьж	-10.0336
▁зохиолч	-10.0337
▁медаль	-10.0337
▁харагдана	-10.0338
▁су	-10.0338
▁2006	-10.0338
▁авгай	-10.0343
▁Эргэ	-10.0343
өж	-10.0345
ио	-10.0353
▁хо	-10.0359
▁Хөдөлмөр	-10.0366
▁хөнгөн	-10.0366
▁өөрчлөгдсөн	-10.0367
▁Нью	-10.0369
▁өгье	-10.0369
▁больсон	-10.037
▁тооцох	-10.0371
лох	-10.0375
▁автомашин	-10.0386
моор	-10.0386
▁замд	-10.0391
▁засагт	-10.0396
▁Да	-10.0398
z	-10.0398
▁дурлал	-10.0399
"-	-10.0407
▁хоёрыг	-10.0412
▁талдаа	-10.0414
▁гаас	-10.0415
▁Санг	-10.0417
▁маа	-10.0422
▁Ах	-10.0425
▁биед	-10.0425
▁зэвсэг	-10.0427
▁секунд	-10.0428
▁нойр	-10.0428
▁тасралтгүй	-10.0428
▁суурин	-10.043
▁Секс	-10.0431
Тэр	-10.0433
▁сэтгэлээсээ	-10.0435
V	-10.0438
▁олдохгүй	-10.044
▁нэгний	-10.0449
их	-10.0453
▁хайрлаж	-10.0457
▁Наад	-10.0458
▁Цааши	-10.0459
▁билүү	-10.046
▁Бар	-10.0462
▁шүүхэд	-10.0462
▁дагуул	-10.0468
▁цас	-10.0473
▁гадуур	-10.0476
▁эрхлэх	-10.0476
▁арилгах	-10.0477
▁хур	-10.0477
да	-10.048
▁эргүүл	-10.0489
▁яс	-10.0489
▁Газрын	-10.0489
▁хүсэх	-10.049
▁Жижиг	-10.049
▁Боловсрол	-10.0492
▁дундуур	-10.0494
▁цоо	-10.0498
▁тэмдэглэж	-10.0499
лга	-10.0508
▁автомат	-10.052
▁өнцөг	-10.052
▁турши	-10.0525
▁аян	-10.0531
▁То	-10.0532
▁улирал	-10.0533
▁овоо	-10.0541
▁өвчний	-10.0542
▁байснаа	-10.0546
▁ногоо	-10.0552
▁тоглосон	-10.0554
▁са	-10.0558
▁Ариун	-10.0559
хондоо	-10.056
▁32	-10.056
▁хүүхдүүдэд	-10.0567
▁дагаад	-10.0568
▁хамрагдах	-10.057
▁u	-10.0571
▁тойм	-10.0578
▁Сар	-10.0579
▁бодвол	-10.0585
▁үзүүлсэн	-10.0587
▁хэнийг	-10.0601
▁зөвлөлийн	-10.0602
▁хаха	-10.0607
▁ойлго	-10.0609
▁эхэлжээ	-10.0611
▁зохицуулах	-10.0617
▁бо	-10.0619
▁Эл	-10.0623
▁хань	-10.0631
▁дэглэм	-10.0639
▁түүхэнд	-10.0639
▁Хувь	-10.0645
▁аргууд	-10.0647
▁үзүүлдэг	-10.0647
үнийг	-10.0649
▁Бай	-10.065
▁Тэнгэр	-10.0651
▁эхийн	-10.0659
▁захиргааны	-10.066
▁сайтай	-10.066
▁уд	-10.0661
▁төвийн	-10.0661
▁хэрэглээний	-10.0668
▁нэгэнт	-10.0668
▁Z	-10.067
▁ихэд	-10.0677
▁таалагдах	-10.0677
▁нөлөөлөх	-10.0679
чи	-10.0685
▁гудамж	-10.0694
ro	-10.0696
▁завгүй	-10.0702
▁Үс	-10.0703
▁үзэхэд	-10.0704
ИЙН	-10.0704
▁Өөрт	-10.0707
▁Эрт	-10.0707
▁асуудлын	-10.0708
▁тамирчин	-10.0709
от	-10.0711
▁үргэлжлэх	-10.0714
▁Тэгсэ	-10.0716
▁дэ	-10.0719
▁түргэн	-10.0721
▁Со	-10.0724
▁нутгаар	-10.0724
▁не	-10.0728
▁хүндрэл	-10.0728
▁даатгалын	-10.0733
▁Хуучи	-10.0734
▁шуурхай	-10.074
▁бэлтгэ	-10.0741
▁зарцуулах	-10.0742
▁хүлээсэн	-10.0745
▁эрэлт	-10.0749
▁Хэдий	-10.0757
▁барил	-10.0758
▁тонн	-10.0771
▁явдлыг	-10.0772
▁хамаарна	-10.0772
▁Өнөө	-10.0772
▁гүйцэтгэл	-10.0775
▁үйлс	-10.0775
▁баймаар	-10.078
▁хянах	-10.0785
▁юмыг	-10.0786
▁ажилчид	-10.0788
▁харвал	-10.0792
▁Хот	-10.0799
▁зөвлөмж	-10.08
▁парламент	-10.0801
▁элдэв	-10.0803
▁татсан	-10.0818
эс	-10.082
▁дай	-10.0828
▁дол	-10.0834
▁музей	-10.0835
▁хуваалцах	-10.0837
▁дуулах	-10.0839
▁компанид	-10.0841
▁сайтар	-10.0846
▁км	-10.0856
▁багагүй	-10.0858
▁асуудалтай	-10.0862
▁авьяас	-10.0868
▁зөвшөөрсөн	-10.0869
▁сонго	-10.0873
▁Хэд	-10.0874
▁20-	-10.0874
▁тухтай	-10.0875
▁ун	-10.0887
▁Яаж	-10.0891
▁Аймг	-10.0894
▁Санхүүг	-10.0896
▁лан	-10.0899
▁Элчин	-10.0901
▁тэн	-10.0913
▁сууна	-10.0913
▁юү	-10.0923
▁орохгүй	-10.0923
▁ашгийг	-10.0932
▁угаалгы	-10.0932
▁харилцах	-10.0932
ми	-10.0932
▁хичээ	-10.0937
▁өгөөгүй	-10.0939
▁багатай	-10.094
аахан	-10.0941
үй	-10.0944
▁түлхүүр	-10.0945
▁танилцуулж	-10.0946
гэ	-10.0959
▁бохир	-10.0963
▁Дотоод	-10.0964
▁ургамал	-10.0964
▁ирээгүй	-10.0964
▁оч	-10.0966
тайгаар	-10.0967
▁хун	-10.0969
▁галзуу	-10.0971
▁бүхэл	-10.0971
▁шив	-10.0975
▁живх	-10.0982
хэр	-10.0988
рэн	-10.0993
▁босго	-10.0994
▁айдас	-10.0996
▁хөвгүүд	-10.0997
▁бичжээ	-10.0998
дэж	-10.0998
▁олгосон	-10.0999
▁хурим	-10.1006
▁тусалж	-10.101
▁Агаар	-10.1012
▁асуусан	-10.1012
▁файл	-10.1022
▁шир	-10.1029
▁му	-10.103
▁ерөөсөө	-10.1032
▁Цахим	-10.1034
▁хадгалж	-10.1056
▁Ко	-10.1058
▁Бурханд	-10.1059
▁дуулсан	-10.1061
▁ирэхгүй	-10.1062
▁хачин	-10.1066
▁Ка	-10.1069
▁Ху	-10.1075
▁шатанд	-10.1077
▁хөрш	-10.109
ев	-10.109
▁жилээр	-10.1094
▁хэрнээ	-10.1096
▁Бараг	-10.1096
▁бэлтгэх	-10.1097
▁ман	-10.1099
▁хэрэгжиж	-10.11
▁засал	-10.1101
▁зүү	-10.111
▁улстөр	-10.1111
▁холбогдол	-10.1123
▁зүг	-10.1123
▁улсыг	-10.1124
▁алтан	-10.1125
▁тойр	-10.1127
▁урамшуулал	-10.1128
вч	-10.113
▁Ши	-10.1131
▁новш	-10.1132
▁48	-10.1144
▁авчээ	-10.1144
▁нартай	-10.115
▁Хаан	-10.115
▁Энх	-10.1155
▁хүмүүсээс	-10.1157
▁харанхуй	-10.1161
▁илэрхийлсэн	-10.1163
▁хамааралтай	-10.1166
▁шаарддаг	-10.1167
▁булан	-10.1168
▁болсныг	-10.1177
▁Юм	-10.1179
лэл	-10.1185
гар	-10.1185
▁ертөнцийн	-10.119
▁дэвших	-10.1194
▁үнэр	-10.1197
рэх	-10.1201
▁тов	-10.1202
▁Сан	-10.1207
соор	-10.1211
▁Чамд	-10.1213
▁байн	-10.1213
▁шинжилгээний	-10.1218
▁сэр	-10.1219
▁охины	-10.1221
▁хадгаламж	-10.1227
▁осол	-10.123
ia	-10.123
▁чадсангүй	-10.124
илж	-10.1244
▁09	-10.1254
▁ня	-10.1256
▁Амжилт	-10.1261
▁унасан	-10.1266
▁Далай	-10.1267
,000	-10.1272
???	-10.1275
▁хаагч	-10.128
▁хэрээр	-10.1282
▁тохио	-10.1285
▁дууны	-10.1289
▁Оюун	-10.1291
▁=	-10.1292
▁Су	-10.1293
▁боль	-10.1299
хөө	-10.1301
▁явагда	-10.1316
▁???	-10.132
▁хурлын	-10.132
▁Монголбанк	-10.1327
▁үндэстэн	-10.1328
▁бутлах	-10.1329
▁өөрөөсөө	-10.1342
▁Тэдэн	-10.1347
▁интернэт	-10.1351
▁ДАШТ	-10.1361
▁байрлал	-10.1363
▁амрах	-10.1367
▁суудаг	-10.137
▁Орой	-10.1371
▁программ	-10.1373
▁тахлы	-10.1383
▁бөхийн	-10.1384
▁Хуулийн	-10.1384
▁маар	-10.1385
▁дотоодын	-10.1388
▁юуны	-10.1389
лагч	-10.139
▁ми	-10.1391
▁багадаа	-10.1391
▁Бизнес	-10.1392
▁үнээр	-10.1393
▁дундаа	-10.1393
▁өргөдөл	-10.1395
лөө	-10.1395
▁гарцаагүй	-10.1396
▁шүүмжлэл	-10.1403
▁эвгүй	-10.1408
▁хүүгээ	-10.1425
▁гэ	-10.1428
▁ардчилсан	-10.1429
▁рүүгээ	-10.1439
▁Зар	-10.1442
▁хичээж	-10.1442
▁наймаа	-10.1444
▁сэтгэлд	-10.1445
▁үнэмлэх	-10.1446
▁бн	-10.1454
▁явахад	-10.1458
▁менежер	-10.1459
▁дэлгэц	-10.146
▁сууриа	-10.1464
▁ажиллуулах	-10.147
▁Хятадад	-10.1471
▁цом	-10.1471
▁хад	-10.1472
▁хараахан	-10.1475
ем	-10.1488
▁ну	-10.1497
▁өвөл	-10.1499
▁асуулга	-10.1499
▁буян	-10.15
ман	-10.15
▁харилцааг	-10.1502
▁явуулдаг	-10.1504
▁бүхэндээ	-10.1504
▁Итали	-10.1507
▁бүртгэлийн	-10.1515
▁нэрийн	-10.1517
!!!	-10.1525
▁мэргэжилтнүүд	-10.1531
▁сурталчилгаа	-10.1532
▁хөдөлгөөний	-10.1532
▁нүдэнд	-10.1533
▁of	-10.1538
өөд	-10.1538
▁гараг	-10.1541
▁дах	-10.1545
▁чимээ	-10.1548
▁өрсөлдөх	-10.1548
▁махбод	-10.1565
Y	-10.1565
дэнтэй	-10.1568
j	-10.157
▁хангасан	-10.1571
▁хүрээлэн	-10.1571
▁үйлдсэн	-10.1572
▁орлоо	-10.1573
▁ачаа	-10.1574
▁дарна	-10.1577
▁Хичээл	-10.1581
▁хүнээ	-10.1581
ad	-10.1581
▁Таван	-10.1581
▁Кино	-10.1582
▁хэлэлцээ	-10.1596
▁зарласан	-10.1601
▁техникийн	-10.1602
▁шүлэг	-10.1603
▁зүүд	-10.1608
▁хүүхдүүдийн	-10.1609
▁явахгүй	-10.1615
▁хайрла	-10.1619
ИН	-10.1624
▁өвөрмөц	-10.1634
▁өөрчлөгдөж	-10.1634
▁казино	-10.1635
▁тоглодог	-10.1636
▁цалинг	-10.1637
▁явуул	-10.1637
▁HD	-10.1639
▁зургийн	-10.164
тгий	-10.1647
▁илгээх	-10.1653
▁тив	-10.1654
▁зөрүү	-10.1659
▁бөөн	-10.1666
▁чулуун	-10.1666
is	-10.1667
▁шалтгаанаар	-10.1668
▁удирдлагын	-10.1669
▁Турк	-10.167
▁татгалзах	-10.1672
▁гараар	-10.1678
▁ойн	-10.1679
өв	-10.168
▁Замын	-10.1683
▁эхлэв	-10.1689
шил	-10.1689
гаас	-10.1694
ЭР	-10.1696
лсан	-10.1697
▁шид	-10.1703
▁Хувийн	-10.1708
▁холбоотойгоор	-10.1709
▁чадал	-10.1713
▁байрлах	-10.1714
агч	-10.1723
шиг	-10.1723
▁өвөө	-10.1723
▁Гэрээ	-10.1725
▁нэлээ	-10.1729
▁хиймэ	-10.1734
▁холбогдуула	-10.1742
▁Сүхбаатар	-10.1743
▁төрөөс	-10.1744
▁яамны	-10.1746
▁хурц	-10.1746
▁хариулах	-10.1752
▁Америкт	-10.1758
▁шим	-10.1762
▁33	-10.177
▁зур	-10.1771
▁цэцэрлэгт	-10.1775
▁Араб	-10.1775
аль	-10.1775
▁Бусд	-10.1776
▁намууд	-10.1778
уд	-10.1786
▁агуулга	-10.1789
le	-10.1793
▁Баруун	-10.1807
▁эрсдэлтэй	-10.1808
▁Эрэгтэй	-10.1809
▁тэмцэж	-10.1809
▁анхаарлыг	-10.181
▁цэргүүд	-10.181
▁мэдэгджээ	-10.181
▁амьдар	-10.1811
▁гүүр	-10.1812
▁цэнэтэй	-10.1818
▁уралдаан	-10.1822
▁харуул	-10.1823
▁гаргажээ	-10.1826
▁шувуу	-10.1832
АА	-10.1834
▁уламжлалт	-10.1835
:00	-10.1837
▁алд	-10.1843
▁хөтөлбөрт	-10.1846
▁танилцуулах	-10.1847
▁Дуучин	-10.1847
▁санагдах	-10.1847
▁хүрнэ	-10.1848
▁үгээ	-10.1853
эрвээ	-10.1855
▁хандсан	-10.1864
▁илт	-10.1865
▁нэгнийг	-10.1867
▁Ази	-10.1869
▁ма	-10.1872
▁Эс	-10.1874
▁суралцаж	-10.1881
▁зорьж	-10.1886
▁нулимс	-10.1888
ay	-10.1888
▁санаатай	-10.1889
▁Гу	-10.189
-19	-10.189
чдын	-10.189
▁бүхнээ	-10.1908
▁Жи	-10.1909
▁уучлаарай	-10.1916
▁санагдаад	-10.1918
ынхан	-10.1918
▁ахмад	-10.1919
▁Apple	-10.1921
W	-10.1923
▁сурагч	-10.1923
ьд	-10.1935
ry	-10.1938
▁зохицуул	-10.1944
▁наадамд	-10.1945
▁Ро	-10.1945
▁тайлбарлах	-10.1947
▁ккк	-10.1951
▁бодлогыг	-10.1951
▁талбар	-10.1954
ди	-10.1958
▁төгрөгөөр	-10.1962
▁Хүнд	-10.1965
▁унт	-10.1969
▁ашиглалтад	-10.197
▁вал	-10.197
▁амт	-10.1971
▁лаад	-10.1981
▁лал	-10.1986
▁үзлэг	-10.1992
▁амаргүй	-10.2011
▁хам	-10.2023
es	-10.2023
▁ноён	-10.2025
▁бүрэлдэхүүн	-10.2029
▁Дархан	-10.2031
▁тү	-10.2032
▁ту	-10.2032
▁энийг	-10.2041
▁Бал	-10.2057
▁ажлууд	-10.2061
▁онлайнаар	-10.2062
▁зарж	-10.2063
▁Цааш	-10.2067
▁уулзсан	-10.207
мо	-10.2075
▁гадны	-10.2079
▁иддэг	-10.2084
▁хүүг	-10.2092
▁маркетинг	-10.2095
▁Home	-10.2096
▁Ангилал	-10.2096
▁шаардаж	-10.2096
▁хуваарь	-10.2097
▁Жинхэн	-10.2098
▁хуурай	-10.2098
▁Му	-10.2104
инд	-10.2113
▁зохис	-10.2113
▁Са	-10.2116
▁Ин	-10.212
▁тодорхойлолт	-10.2132
▁төрөлхтний	-10.2132
▁12-	-10.2137
▁тогтнол	-10.2139
▁нэгэнд	-10.214
▁киног	-10.2143
▁адуу	-10.2144
▁зогсохгүй	-10.2154
▁up	-10.2159
▁аарай	-10.216
▁the	-10.2164
▁Нөхөр	-10.2165
▁3.	-10.2165
▁Дөрвө	-10.2166
▁Нэгэнт	-10.2168
▁өмсөх	-10.2169
▁бор	-10.2171
тавдугаар	-10.218
000	-10.2181
▁уламжлал	-10.2184
te	-10.2185
▁юун	-10.2199
▁Путин	-10.2199
▁экспорт	-10.2203
▁эрдэмтэд	-10.2205
лин	-10.2209
▁бодоход	-10.2215
▁тэмдэглэх	-10.2216
▁Санал	-10.2218
▁Мөнх	-10.2222
▁Израил	-10.223
▁телевиз	-10.2234
▁Од	-10.2241
▁Соёл	-10.2242
▁Мэдээллий	-10.2243
▁гарга	-10.2248
▁биедээ	-10.2252
▁тавь	-10.2254
▁Британи	-10.2262
▁тэжээл	-10.2262
▁дараахь	-10.2264
ум	-10.2265
▁яригда	-10.2266
▁Урьд	-10.2269
дал	-10.2272
▁авагч	-10.2278
▁цааз	-10.228
▁хүргэсэн	-10.2281
▁уулын	-10.2286
▁Мо	-10.2288
▁хэрүүл	-10.2289
ly	-10.2292
▁амлалт	-10.2295
▁зуу	-10.2302
▁дэвсгэр	-10.2308
▁өгчээ	-10.2309
▁даалгавар	-10.2316
▁хүртэх	-10.2319
▁тогтоож	-10.2321
▁биенээ	-10.2329
▁зурагт	-10.2329
▁сэтгэлээ	-10.233
▁Хөх	-10.2335
▁Намын	-10.2336
▁чам	-10.2338
▁захиа	-10.234
▁гарвал	-10.2343
▁үзлээ	-10.2345
▁чимээгүй	-10.2346
▁онц	-10.2348
гдсан	-10.2352
▁таагүй	-10.2357
▁болго	-10.236
▁хамаатай	-10.2369
▁даатгал	-10.2371
▁хоолоо	-10.2373
▁алдар	-10.2373
▁болгонд	-10.2374
▁саван	-10.2374
ва	-10.2374
▁75	-10.2375
▁суудал	-10.2375
▁суурьтай	-10.238
▁ороогүй	-10.2382
▁5.	-10.2388
▁захидал	-10.239
▁гэтэл	-10.2391
▁ойролцоогоор	-10.2391
▁нэвтрэх	-10.2391
▁хутга	-10.2392
▁хүрээгүй	-10.2393
▁хаах	-10.2395
▁Төгс	-10.2401
▁үүл	-10.2405
▁дүрмий	-10.2406
▁36	-10.241
▁байснаас	-10.2421
ЭЭ	-10.2423
▁менежмент	-10.2428
▁гайхаж	-10.2429
▁зөвшөөрөх	-10.2437
жи	-10.2442
▁Үл	-10.2445
▁айдаг	-10.2453
ut	-10.2458
ль	-10.2459
▁бил	-10.2461
▁процесс	-10.2466
▁хураалт	-10.2467
▁тансаг	-10.2467
com	-10.2468
▁нэрээ	-10.2471
▁алдааг	-10.2477
▁дээгүүр	-10.2478
▁тулга	-10.2479
▁хөөр	-10.2481
▁38	-10.249
▁Кон	-10.2501
▁санаанд	-10.2503
▁групп	-10.2503
▁хайрцаг	-10.2503
▁цохилт	-10.2504
▁төсөвт	-10.2504
▁Хүрэлсүх	-10.2509
▁бүрдүүлэх	-10.2509
▁Эндээс	-10.2514
▁тодорхойлж	-10.2524
жих	-10.2529
▁буруутай	-10.2533
▁түүхтэй	-10.2534
аб	-10.2535
Ь	-10.2536
▁найр	-10.254
▁зайл	-10.254
▁Асуулт	-10.2541
▁мэдэгдэж	-10.2541
снаар	-10.2542
▁өрх	-10.2543
▁яруу	-10.2544
▁хавар	-10.2547
▁мэдэгдэх	-10.255
▁ярь	-10.2553
ки	-10.2557
эт	-10.2561
▁амттай	-10.2562
as	-10.2564
▁анхаар	-10.2564
▁байгаагаас	-10.2565
чилж	-10.2566
▁Уран	-10.2568
▁орчуул	-10.2571
▁таг	-10.2572
▁Татвар	-10.2579
▁Эрчүүд	-10.258
▁хэрэгжилт	-10.2583
▁гаргалаа	-10.2583
▁эрин	-10.2583
▁үйлчлэх	-10.2587
▁иж	-10.2588
▁Ган	-10.2589
чиг	-10.2591
▁таарсан	-10.2597
▁угаас	-10.2601
▁машиныг	-10.2603
▁жилээс	-10.2604
бу	-10.2606
▁нөлөөлсөн	-10.2617
▁бүртгэгдсэн	-10.2617
▁жирэмсэн	-10.2618
▁сонгогдсон	-10.2618
ес	-10.2619
лав	-10.262
▁төлбөрийн	-10.2621
▁хүүгийн	-10.2621
▁зас	-10.2625
▁бүтээж	-10.2627
▁гүйцэтгэж	-10.2629
▁Бүсгүй	-10.2634
▁хөтөлбөрийг	-10.264
▁олдог	-10.2642
▁бу	-10.2646
▁төслүүд	-10.2655
▁хамтлагийн	-10.2657
▁хуурамч	-10.2658
▁зориулан	-10.2658
▁өнгөрөх	-10.2658
дорж	-10.2659
ок	-10.2662
▁тулгарч	-10.2667
▁Христийн	-10.2667
рэй	-10.2674
жил	-10.2677
▁эмийн	-10.2678
▁үндэслэл	-10.2683
▁туулах	-10.2685
▁тэгэх	-10.2688
▁оновчтой	-10.2694
▁Олимп	-10.2694
▁хэлснээр	-10.2701
▁Хэрэглэгч	-10.2702
▁амин	-10.2703
▁тойронд	-10.2712
▁эргэлт	-10.2721
▁хамааран	-10.2722
▁ажилтай	-10.2724
▁Эв	-10.2728
▁Даш	-10.2731
▁орших	-10.2734
▁далай	-10.2736
баяр	-10.2739
▁хим	-10.2741
▁үхсэн	-10.2741
▁зовох	-10.2742
▁2005	-10.2743
▁Шилдэг	-10.2743
▁нөөцийн	-10.2745
▁будаа	-10.2747
Тийм	-10.2749
▁байг	-10.2754
▁тэдгээрийг	-10.2757
▁өнөөдрий	-10.2765
▁эрхээ	-10.2765
▁хөлөг	-10.2768
▁оруул	-10.2768
▁Тодруулбал	-10.2771
▁олборлолт	-10.2772
▁дэмжсэн	-10.2775
▁хааяа	-10.2775
▁Энгийн	-10.2776
жиж	-10.278
▁ялгаагүй	-10.2782
▁Нүд	-10.2798
▁багт	-10.2809
▁Windows	-10.281
▁бодитой	-10.2813
▁жижигхэн	-10.2818
▁түмэнд	-10.2822
▁эрхтэн	-10.2823
▁Дур	-10.2826
▁тулаан	-10.2835
өрөнгө	-10.2835
зо	-10.2836
▁Австрали	-10.2843
▁Сургалт	-10.2849
ваа	-10.2852
▁194	-10.2853
▁найруулагч	-10.2854
▁үүсэх	-10.2859
▁Хэт	-10.2868
▁бэл	-10.2869
▁ороо	-10.2869
▁ордонд	-10.2875
▁хариуг	-10.2879
өрөвдүгээр	-10.288
▁жагсаалтыг	-10.2882
▁өвгөн	-10.2888
▁учры	-10.2888
▁талархаж	-10.2889
▁хүсэлтийг	-10.289
▁айлд	-10.2897
▁хариулж	-10.2897
▁хоно	-10.2897
▁бичнэ	-10.2901
▁тийш	-10.2902
▁салж	-10.2903
▁намар	-10.291
▁сэтгэлтэй	-10.2913
гуу	-10.2914
бо	-10.2914
▁хат	-10.2914
▁болчих	-10.2928
▁төлөвлөсөн	-10.2929
▁борлуулах	-10.2929
▁эхэнд	-10.293
▁Хөгжлий	-10.2934
▁гуйж	-10.2938
▁Сайд	-10.2946
▁үүсгэн	-10.2953
ндаа	-10.2957
оно	-10.296
▁бөхчүүд	-10.2968
▁хамтарсан	-10.297
▁олоод	-10.2971
▁бөө	-10.2972
▁зорчих	-10.2978
▁дундаас	-10.298
▁амжилтанд	-10.2984
▁Жич	-10.2985
▁тосны	-10.2989
▁зээлийг	-10.2998
▁шалтгааныг	-10.2998
▁бүлд	-10.2999
гор	-10.3
▁хамгаалагч	-10.3003
▁дарс	-10.3006
▁орлогын	-10.3007
▁шилжих	-10.3008
▁худалдах	-10.3008
▁хажуугаар	-10.3011
▁гайхамшигтай	-10.302
▁ганцаар	-10.302
?!	-10.3036
▁чиглэлд	-10.3044
▁явдлын	-10.3047
▁Сүүлд	-10.3047
▁дотны	-10.3047
▁хөдөлмөрийн	-10.3058
▁өртөг	-10.3064
▁хэлэхгүй	-10.3065
▁хэлээгүй	-10.3066
▁амгалан	-10.3068
▁байгуулалтын	-10.307
▁Ур	-10.3071
12	-10.3073
▁өргөө	-10.3073
▁Видео	-10.3087
▁амьтад	-10.3087
▁Толгой	-10.3089
▁уулз	-10.3093
▁илтгэл	-10.3094
эрхүү	-10.3095
гууд	-10.3102
▁алин	-10.3107
▁өнгөтэй	-10.3108
▁өсч	-10.3119
▁идсэн	-10.3122
▁телевизийн	-10.3123
сүрэн	-10.3126
▁цогц	-10.3127
▁34	-10.3128
▁хаалт	-10.3131
▁100%	-10.3131
▁хаагчид	-10.3134
▁үйлчлүүлэгч	-10.3135
▁Төмөр	-10.3138
▁саа	-10.3138
▁Байгал	-10.3138
▁эрэг	-10.3142
▁Библи	-10.3146
жоохон	-10.3148
ших	-10.3149
▁орхи	-10.3149
▁санхүү	-10.315
▁Шууд	-10.3151
▁зүйлээс	-10.3152
▁хугацаатай	-10.3155
Оюун	-10.3162
▁зориулагдсан	-10.3167
▁боловсруулж	-10.3168
ент	-10.3171
вөл	-10.3174
▁нээс	-10.3174
▁буудлы	-10.3177
▁утсаа	-10.3184
▁хэвлэлийн	-10.3188
луулах	-10.3196
▁Хил	-10.3206
мб	-10.3207
▁Онцгой	-10.3208
▁Загвар	-10.3208
▁амжаагүй	-10.3208
▁нэмэгдэх	-10.3208
▁унш	-10.3211
▁хуруу	-10.3214
▁өмгөөлөгч	-10.3219
▁танхим	-10.3221
ie	-10.3222
▁хандив	-10.3223
▁зардлыг	-10.3228
lo	-10.3228
▁үзэсгэлэнтэй	-10.3228
▁Ла	-10.323
▁иргэдээ	-10.3232
▁and	-10.3232
▁дураар	-10.3245
▁азтай	-10.3245
▁хуудсууд	-10.3248
▁Лондон	-10.3248
▁суурилсан	-10.3253
▁Нэгдсэн	-10.3254
▁мэдээг	-10.3256
▁солонгос	-10.3263
дсон	-10.3263
▁насан	-10.3264
▁байгаасай	-10.3267
▁найдвар	-10.327
Нэг	-10.3273
▁шавь	-10.3287
▁198	-10.3288
▁тохиолдсон	-10.329
▁Хэрхэн	-10.3291
▁сонгоно	-10.3297
▁алдагдал	-10.3298
▁барилдаан	-10.3299
▁Бо	-10.3299
▁нилээд	-10.3303
алж	-10.3304
▁төлбөргүй	-10.3306
▁ардын	-10.3311
▁цуг	-10.3311
▁хийг	-10.3314
нүүд	-10.3317
▁чадварыг	-10.3319
▁өөрсдийнхөө	-10.3323
▁зүйлүүд	-10.3328
▁хүсээгүй	-10.333
▁голын	-10.3335
▁өвчтэй	-10.3335
▁удирдаж	-10.3336
▁бх	-10.3336
▁хийжээ	-10.3339
▁Дан	-10.3341
▁гаригт	-10.3342
▁Оюу	-10.3344
ЭН	-10.3353
▁байгаагийн	-10.3354
▁өдий	-10.3356
долларын	-10.3362
ск	-10.3362
▁жагсаалтад	-10.3363
▁эрдэм	-10.3371
▁хүртсэн	-10.3371
▁Онлайн	-10.3371
▁эзэмших	-10.3372
▁заавар	-10.3372
▁санагдана	-10.3373
ку	-10.3373
▁гаргахгүй	-10.3375
▁нэм	-10.3379
▁хайрладаг	-10.338
▁үд	-10.3381
▁Цэц	-10.3383
▁авчрах	-10.3389
▁наа	-10.3391
▁гуйх	-10.3397
▁инженер	-10.3407
▁стресс	-10.3413
ee	-10.3414
▁толь	-10.3415
▁түүхий	-10.3424
▁там	-10.3425
▁хийд	-10.3431
▁Зээл	-10.3432
▁түүхийн	-10.3435
▁санааны	-10.3438
▁по	-10.3438
▁байгуул	-10.344
▁батлан	-10.3443
▁жуулчлалын	-10.3444
▁дог	-10.3446
▁Гэрийн	-10.3446
▁авлага	-10.3461
▁хөндий	-10.3472
▁Ил	-10.3472
▁Ба	-10.3472
▁аймшигтай	-10.3473
▁орхиж	-10.3495
▁Барилгы	-10.3496
▁бүртгүүлэх	-10.3497
▁хөгшин	-10.3497
▁захиал	-10.3497
▁хичээх	-10.3498
▁урьдчилсан	-10.3499
▁Иргэний	-10.3499
▁зориулалттай	-10.3501
амба	-10.3503
▁Сү	-10.3505
▁Энэтхэгт	-10.3506
▁халаа	-10.3509
▁шалга	-10.3511
▁таарч	-10.3513
▁хасах	-10.3514
▁хүлээ	-10.3515
▁уй	-10.3517
▁үнэлж	-10.352
▁мөрдөх	-10.352
▁үеийг	-10.3525
▁тэдэнтэй	-10.3533
▁хэрэгцээг	-10.3537
▁холбогдож	-10.3538
▁тэнгис	-10.3538
▁Парис	-10.3538
▁үүдийн	-10.3545
▁Байнг	-10.3546
Элбэгдорж	-10.3559
▁дамжин	-10.3563
▁өн	-10.3565
▁тухайгаа	-10.3568
▁элэг	-10.357
▁хны	-10.3572
▁Москва	-10.3572
ед	-10.3572
▁шинжтэй	-10.3573
▁II	-10.3575
▁маягаар	-10.3578
▁тохиолддог	-10.358
▁цомог	-10.358
▁хийгдэ	-10.3581
▁хайрын	-10.3582
▁алджээ	-10.3585
▁сэтгэлгээ	-10.3585
▁байгуулна	-10.3587
▁гариг	-10.359
▁лэх	-10.3591
▁заах	-10.3593
▁сургаал	-10.3597
▁400	-10.3597
▁сургуулиуд	-10.3598
▁юманд	-10.36
▁харилцаанд	-10.3602
▁15-	-10.3605
▁Хаа	-10.3607
▁тунгаа	-10.3607
▁шилжүүлэх	-10.3611
▁ван	-10.3619
▁карьер	-10.3622
▁хүртлээ	-10.3622
▁болгоомжтой	-10.3623
▁Эн	-10.3624
▁таалагддаг	-10.3624
▁одоог	-10.3628
хий	-10.3631
▁буурсан	-10.3634
▁агентлаг	-10.3636
▁цөөнгүй	-10.3641
▁Зах	-10.3642
ЫН	-10.3644
▁тийшээ	-10.365
▁талаархи	-10.3652
АХ	-10.3653
рт	-10.3653
▁тогло	-10.3656
▁Ре	-10.366
▁таних	-10.3661
▁Тайлбар	-10.3664
▁ямагт	-10.3664
▁тоглолтын	-10.3665
▁туулж	-10.3669
▁ерөнхийдөө	-10.367
▁есөн	-10.3672
▁Иргэдийн	-10.3674
▁суурийг	-10.3674
▁тогооны	-10.3678
▁байгууллагаас	-10.3681
▁цээж	-10.3686
▁хөгжилд	-10.3688
▁чадалтай	-10.3689
АЙ	-10.369
▁дуусгах	-10.369
▁чинээ	-10.3692
АМ	-10.3693
▁тэмцэл	-10.3695
▁хуулиа	-10.3704
АН	-10.3704
▁Сүнс	-10.371
▁Эрдэнэт	-10.3713
▁тусмаа	-10.3718
▁уншигч	-10.3724
▁шилэн	-10.3724
▁тутам	-10.3726
▁тохирох	-10.3729
▁төл	-10.3733
▁Заава	-10.3737
▁эмх	-10.3738
▁төсөөлж	-10.3738
▁000	-10.3743
▁баталж	-10.3743
▁ЭЗЭН	-10.3745
▁байгаам	-10.3748
▁хүүхдүүдээ	-10.3752
.00	-10.3753
▁өвлийн	-10.3753
▁сонсдог	-10.3753
▁судлаачид	-10.3753
▁үүсгэж	-10.3754
▁тархи	-10.3754
▁дарах	-10.3758
▁өөрийг	-10.3766
▁про	-10.378
▁харьцуул	-10.3782
▁магад	-10.3782
▁оролдож	-10.3793
▁ирээдүйг	-10.3801
▁Ким	-10.3803
▁атга	-10.3803
▁хөгжих	-10.3806
▁зогсоо	-10.3808
▁нүх	-10.3809
▁ирэхээр	-10.3811
▁зул	-10.3813
▁хариуцлагатай	-10.3818
▁оролцогч	-10.3818
▁мөнгөтэй	-10.3819
▁баа	-10.3822
▁болих	-10.3825
▁алсан	-10.3826
▁тэмцээний	-10.3826
▁амны	-10.3829
▁хүмүүсээ	-10.383
▁дийн	-10.3835
▁хэлтэс	-10.3836
▁өгүүлбэр	-10.3836
▁цэвэрлэгээ	-10.3836
▁06	-10.384
▁сүүл	-10.3841
▁хэрэглэсэн	-10.3847
▁сонгуулиар	-10.3847
▁эмзэг	-10.3849
▁Тэгэхэ	-10.385
▁хөтөлбөрийн	-10.3852
▁Архи	-10.3854
▁охиноо	-10.3856
▁хүчийг	-10.3864
▁хөлс	-10.3866
▁өргөж	-10.3869
▁үүсч	-10.3869
ласан	-10.387
▁багаар	-10.3875
▁буруутга	-10.3878
▁мөртлөө	-10.3879
▁Жүжигчин	-10.3879
▁удалгүй	-10.388
лэгдсэн	-10.3883
ter	-10.3887
▁түрүүлж	-10.3896
▁асуултад	-10.39
▁нүдээ	-10.3908
▁чамаас	-10.3909
▁нүдний	-10.3915
ори	-10.3918
▁гаж	-10.3918
▁буцаан	-10.3918
▁хийв	-10.392
▁хэрэгслийн	-10.3922
▁өгвөл	-10.3924
▁хязгаарлалт	-10.3924
▁шийтгэ	-10.3929
хад	-10.3929
▁ат	-10.3932
▁таалагдсан	-10.3933
ap	-10.3939
▁хянаж	-10.3942
▁хүчингүй	-10.3942
▁Оросууд	-10.395
▁чихаад	-10.3951
▁арилжаа	-10.3953
▁албанд	-10.3953
▁асуухад	-10.3956
▁ю	-10.3963
▁ордон	-10.3966
▁ЖДҮ	-10.3966
▁фото	-10.3966
▁мартаж	-10.3968
▁илэрсэн	-10.3968
▁олонх	-10.3977
▁багтсан	-10.398
▁хүндэтгэл	-10.3982
▁захиргаа	-10.399
▁го	-10.3994
▁олимп	-10.3994
▁жүжиг	-10.4009
▁нэгдэж	-10.4009
▁хэрэглэ	-10.401
▁нэвтрүүлэх	-10.401
▁өсөх	-10.4011
▁хая	-10.4012
▁харц	-10.4013
▁хийхдээ	-10.4014
▁Баярлалаа	-10.4015
▁ярина	-10.4016
пи	-10.4016
▁гү	-10.4017
▁хүчээ	-10.4026
me	-10.4027
▁харахгүй	-10.4027
▁өнөөх	-10.4029
▁арилжааны	-10.403
▁өрсөлдөөн	-10.4032
үүн	-10.4033
▁ачаалал	-10.4035
▁дэлхийг	-10.4036
дэн	-10.4036
st	-10.4037
▁яда	-10.4044
▁нэгдэх	-10.4056
▁хийсний	-10.4064
▁шийтгэл	-10.407
▁харамса	-10.4078
▁Сум	-10.408
▁чуулганы	-10.4081
ag	-10.4082
▁мөрий	-10.4084
▁авчих	-10.4085
▁юунаас	-10.4086
▁үгэнд	-10.4093
▁боол	-10.4096
ta	-10.4098
▁Спорт	-10.4098
▁Miss	-10.4098
▁итгэ	-10.4099
▁насаар	-10.4103
гэр	-10.4105
▁даргаар	-10.4113
▁Ё	-10.4114
▁Шударга	-10.4115
шиж	-10.4117
▁ъя	-10.4121
▁татгалз	-10.4123
Баяр	-10.4124
ate	-10.4129
▁өнгийн	-10.4132
▁мэдлэгтэй	-10.4142
▁Чухам	-10.4143
▁үйлдлийг	-10.4143
▁хуудсы	-10.4143
▁чармайлт	-10.4143
ul	-10.4145
▁хэлчих	-10.4147
▁хэрэглэнэ	-10.4148
▁мээр	-10.4152
▁гарган	-10.4159
▁1990	-10.4163
▁ороход	-10.4166
▁Дорнод	-10.4166
▁авахын	-10.4168
▁УБ	-10.4168
ОО	-10.4169
▁сонгогдо	-10.417
▁салаа	-10.4173
Одоо	-10.4178
▁жолоо	-10.4179
▁Амар	-10.4184
▁онцолж	-10.4187
▁Эцсий	-10.4187
▁j	-10.4188
▁сонирхдог	-10.4189
▁элбэг	-10.4193
ут	-10.4194
▁өс	-10.4196
▁2004	-10.4201
тнүүд	-10.4203
▁ажиллаад	-10.4207
▁харлаа	-10.4209
▁буур	-10.4209
all	-10.4214
▁аавын	-10.4217
▁мэдлий	-10.4222
▁(1	-10.4223
▁түлш	-10.4223
▁Хо	-10.4224
▁курс	-10.4232
▁Охид	-10.4232
▁Бодит	-10.4233
▁мэргэжилтэн	-10.4233
▁нүгэл	-10.4234
▁бодлыг	-10.4234
▁тууштай	-10.4236
▁төвөгтэй	-10.4237
▁дэвшил	-10.4239
▁өрнөж	-10.425
▁чамтай	-10.4251
▁биеэр	-10.4258
▁55	-10.4262
▁дал	-10.4263
▁туяа	-10.4263
лагдсан	-10.4264
▁уриа	-10.4266
УУ	-10.4273
▁гүнзгий	-10.4274
▁De	-10.4275
▁YOLO	-10.4277
▁хөшөө	-10.4277
▁европ	-10.4278
▁орчлон	-10.4278
▁заслы	-10.4278
▁re	-10.4283
▁оргил	-10.4285
▁дуудаж	-10.4287
▁сонирх	-10.429
▁стратеги	-10.4296
▁алдарт	-10.4297
гүйгээр	-10.4297
▁Q	-10.4303
▁авлига	-10.4304
▁үлдээх	-10.4315
▁Даваа	-10.4316
▁Төсвий	-10.4322
▁журмын	-10.4323
▁мэдэрдэг	-10.4324
▁үлдэж	-10.4326
▁чиглэсэн	-10.4326
▁лиг	-10.4331
▁зоригтой	-10.4332
▁судалгаагаар	-10.4338
▁дайсан	-10.434
▁ё	-10.4341
▁тэрийг	-10.4354
Энх	-10.4355
▁тоон	-10.4358
үүр	-10.4358
▁Бол	-10.4359
▁доторх	-10.4359
▁ялга	-10.4365
▁тахал	-10.4369
▁төхөөрөмжийн	-10.437
▁дасгалжуулагч	-10.4371
▁болгоод	-10.4373
▁2-3	-10.4375
▁ком	-10.4377
оё	-10.4382
▁утгагүй	-10.4383
инээв	-10.4385
▁Дунд	-10.4388
▁Уу	-10.4391
▁цаашдаа	-10.4396
▁хараагүй	-10.4397
▁жор	-10.4397
▁Ман	-10.44
▁Он	-10.4403
▁тойрон	-10.4404
▁01	-10.4405
▁Па	-10.4405
▁ондоо	-10.4415
▁Алтан	-10.4416
▁нараас	-10.4417
▁хүчирхийлэл	-10.4422
▁нотлох	-10.4422
▁оройн	-10.4424
▁лэн	-10.4427
▁биелүүлж	-10.4428
▁үнэлэх	-10.4429
▁Мод	-10.4431
▁дүүрэг	-10.4432
ари	-10.4435
▁үгийн	-10.4444
жуулах	-10.4444
▁бут	-10.4445
▁ээрэй	-10.4445
▁Үйлдвэр	-10.4453
▁49	-10.4455
▁Өнгө	-10.4459
▁япон	-10.4459
▁төдийлөн	-10.446
▁үйлдлийн	-10.446
▁гүйлгээ	-10.446
▁ээлтэй	-10.446
▁тусалдаг	-10.4461
▁талархал	-10.4461
▁тэнцүү	-10.4463
▁загварыг	-10.4463
▁хэмээж	-10.4463
▁хорооллы	-10.4465
▁ердийн	-10.4466
▁сэдвээр	-10.4466
▁үхэл	-10.4471
▁холбоос	-10.4474
▁зурсан	-10.4476
▁засгаа	-10.4476
▁урагш	-10.4481
um	-10.4482
▁min	-10.4493
лэж	-10.4499
▁үүргий	-10.4503
▁горим	-10.4506
▁зогсоож	-10.4507
▁Гэрэл	-10.4507
▁танилцах	-10.4508
▁65	-10.4508
▁үүрд	-10.4508
▁зурах	-10.451
аз	-10.451
▁туйлын	-10.4511
▁Аж	-10.4513
▁орныг	-10.4514
чихсэн	-10.4522
▁Өөрсд	-10.4522
▁99	-10.4524
▁хүндтэй	-10.4533
▁Гоо	-10.4533
▁ачаар	-10.4534
лц	-10.4537
нээсээ	-10.4541
▁ажлаас	-10.4543
▁Түүх	-10.4544
▁хийц	-10.4546
▁өөрийнх	-10.4546
▁шингэн	-10.4548
▁зогсоол	-10.4548
▁НӨАТ	-10.4552
▁түвшний	-10.4552
▁нөхдүүд	-10.4552
▁Цэрг	-10.4553
▁Ёстой	-10.4554
▁монголд	-10.4555
▁байрыг	-10.4556
▁зо	-10.4557
▁авчирч	-10.4558
▁Ад	-10.4558
▁),	-10.4567
▁багасгах	-10.457
▁инээд	-10.457
▁мөрдөн	-10.4572
▁эмчилгээний	-10.4572
гээс	-10.4575
▁учраа	-10.4575
чүүд	-10.4576
▁Гэмт	-10.4581
▁хацарт	-10.4589
▁ог	-10.4589
▁судлаач	-10.4594
▁Яв	-10.4596
▁боловсруулсан	-10.4599
▁тавилан	-10.46
▁даралт	-10.46
▁Энхбаяр	-10.4601
▁хандан	-10.4602
▁150	-10.4607
▁амийг	-10.4607
▁зов	-10.4609
▁хүлээлт	-10.4612
▁гаднаас	-10.4613
▁шинэчлэх	-10.4614
▁Авто	-10.4615
▁хэлэлцүүлэг	-10.4617
лдаг	-10.4623
▁тоглоо	-10.4627
▁зүтгэл	-10.4633
лээр	-10.4634
▁Өдөрт	-10.464
▁гарахад	-10.4641
▁төсөлд	-10.4642
▁ЭНД	-10.4645
▁тусална	-10.4647
▁апп	-10.4648
▁удам	-10.4648
нөөс	-10.4648
▁сүлжээн	-10.465
▁барина	-10.4651
▁сурагчид	-10.4651
бэ	-10.4652
▁байрладаг	-10.4653
▁Урт	-10.4658
▁өвс	-10.4659
▁ла	-10.4659
▁америк	-10.4668
▁байя	-10.4668
ест	-10.467
▁Ло	-10.4673
алсан	-10.4678
▁Амьдралын	-10.4679
la	-10.468
▁өнгөрүүл	-10.4687
хуу	-10.4691
▁Бразил	-10.4692
▁дагавар	-10.4692
▁хураамж	-10.4692
▁ашигт	-10.4693
▁шалгаруулах	-10.4694
▁алхах	-10.4697
▁хэрэгжих	-10.47
▁өгчих	-10.47
▁мэдээгүй	-10.4704
үйц	-10.4704
▁Өг	-10.4704
▁тавина	-10.4705
li	-10.4706
▁хя	-10.4709
▁шаа	-10.4713
▁Шинээр	-10.4714
▁дын	-10.472
▁хамгаал	-10.4721
вэр	-10.4722
▁хамаа	-10.4727
▁хүсэ	-10.4728
▁:)	-10.473
▁шилжүүлэ	-10.4736
▁Айл	-10.4739
▁Болзоо	-10.474
▁хүүхнүүд	-10.474
▁үхэр	-10.4742
▁дэм	-10.4744
▁татдаг	-10.4752
▁дуул	-10.4754
*	-10.4756
▁автомашины	-10.4756
▁зогсох	-10.4758
▁ахлах	-10.4759
▁07	-10.476
▁гэрлэх	-10.4761
▁гэмээр	-10.4768
▁Хөвсгөл	-10.4786
▁дурсгал	-10.4787
▁тогтоомж	-10.4787
▁Эрчим	-10.4787
▁тамирчид	-10.4787
▁танилцуулга	-10.4788
▁үндэстний	-10.4788
▁суулга	-10.4789
▁төлбөрийг	-10.4791
▁нэгдэл	-10.4792
▁02	-10.4793
▁гэдгээр	-10.48
дсэн	-10.4801
▁олборлох	-10.4802
▁тийн	-10.4804
▁бул	-10.4811
▁агуулгы	-10.4811
▁эг	-10.4812
▁гэрээсээ	-10.4814
▁Ол	-10.4816
▁шалгаруулалт	-10.4819
▁оно	-10.4827
▁насаа	-10.4828
▁хандлагатай	-10.4831
▁хүснэгт	-10.4834
▁аравдугаар	-10.4836
▁байхаас	-10.4837
▁Английн	-10.4837
▁төлөөлөл	-10.4838
▁мань	-10.4841
▁?!	-10.4843
▁хожим	-10.4843
oo	-10.4843
▁Эрхэм	-10.4845
лүүлэх	-10.4851
▁солио	-10.4852
▁байгууламж	-10.4867
▁ялах	-10.4867
▁Зо	-10.4867
▁буцаад	-10.4872
▁харь	-10.4875
сныг	-10.4876
угаа	-10.4876
▁iPhone	-10.4882
▁зорьсон	-10.4882
▁дуустал	-10.4883
▁Богд	-10.4883
▁Хаана	-10.4885
▁парламентын	-10.4885
ir	-10.4885
▁явсаар	-10.4885
▁орныхоо	-10.4886
▁үүнтэй	-10.4887
▁өгөв	-10.4888
▁Аюулгүй	-10.4893
▁яана	-10.4893
▁айлчлал	-10.4898
▁зарцуулж	-10.4906
ле	-10.4907
▁хагалгаа	-10.4909
▁бодохгүй	-10.4909
▁хараат	-10.4912
▁хэрэглэгчдийн	-10.4915
Мөнх	-10.4915
ce	-10.4915
▁Дарга	-10.4925
▁пи	-10.4926
▁Pro	-10.4932
▁дараалан	-10.4933
▁таньж	-10.4936
▁зүйлсийн	-10.4939
▁сандал	-10.4939
▁Мар	-10.494
▁өрсөлдөгч	-10.494
▁In	-10.4945
▁нөлөөтэй	-10.4948
▁судлал	-10.4953
▁бүсгүйн	-10.4953
▁цүнх	-10.4958
▁танихгүй	-10.4963
▁манайхан	-10.4965
▁дэн	-10.4966
▁Хай	-10.4971
▁Өд	-10.4976
▁бү	-10.4978
▁хариуцсан	-10.4978
▁хамрагдсан	-10.4981
▁дүгнэж	-10.4983
▁шийднэ	-10.4984
▁193	-10.4985
▁мэх	-10.4985
▁лиценз	-10.4987
▁төрдөг	-10.4987
▁шүд	-10.4989
▁бидэн	-10.4998
ig	-10.5002
▁800	-10.5005
▁бүтээ	-10.5005
▁Ра	-10.5007
▁юмнууд	-10.5012
▁сахи	-10.5013
▁тоогоор	-10.5014
▁дон	-10.5016
▁буудалд	-10.502
▁байцаагч	-10.5021
▁гоол	-10.5022
▁Австрал	-10.5024
▁ардчилал	-10.5027
▁төлсөн	-10.5029
▁дипломат	-10.503
▁нийлж	-10.5031
▁хошуу	-10.5032
тэйгээр	-10.5033
раг	-10.5036
▁хөрөнгий	-10.504
▁бүсэд	-10.5041
▁Гурав	-10.5041
▁Судалгаа	-10.5042
▁Хэр	-10.5047
изм	-10.5048
ру	-10.5052
▁үндэслэн	-10.5056
▁үүнийгээ	-10.506
est	-10.506
▁от	-10.5062
▁мэдээд	-10.5067
▁компанийг	-10.5067
▁Ням	-10.5069
▁хуу	-10.5074
▁Египет	-10.5076
▁Тун	-10.508
▁үлдээсэн	-10.5081
▁хийчих	-10.5081
▁багшийн	-10.5082
▁195	-10.5082
си	-10.5085
▁будаг	-10.5086
▁ээжийн	-10.5094
▁сэл	-10.5095
▁Нэгдүгээрт	-10.5095
▁буд	-10.5099
▁гуниг	-10.511
▁гэрчилгээ	-10.5114
▁тоглолтоо	-10.5115
▁харагдахгүй	-10.5115
▁мо	-10.5121
▁авир	-10.5122
▁Сургуулийн	-10.5125
▁Увс	-10.5125
▁толгойд	-10.5127
▁Өнөөг	-10.5128
▁тэндээс	-10.5129
▁ногдо	-10.5129
▁орхисон	-10.513
▁материалыг	-10.5132
▁Тавантолгой	-10.5133
▁багта	-10.5136
▁Нийтийн	-10.5139
▁жилүүд	-10.5143
ац	-10.5145
▁малын	-10.5146
▁янзын	-10.5149
11	-10.5154
агдаагүй	-10.5156
▁сургуулиа	-10.5156
▁яриаг	-10.5156
▁стратегий	-10.5159
ээсэй	-10.516
▁албагүй	-10.5163
▁зөвшөөрөхгүй	-10.5163
▁буух	-10.5165
X	-10.5168
▁Тодорхой	-10.5174
▁оршдог	-10.5174
▁үзүүр	-10.5175
▁чадлаа	-10.5175
▁булаа	-10.5177
▁тэднээс	-10.5182
▁бүрдүүлж	-10.5182
▁уншдаг	-10.5182
▁жи	-10.5186
▁сүүлээр	-10.5187
▁хэсгүүд	-10.5187
▁нээсэн	-10.5195
▁Худалдаа	-10.5204
▁хэвт	-10.5204
▁ре	-10.5204
▁хөдлөл	-10.5205
УР	-10.5206
▁хү	-10.5211
▁номоо	-10.5212
▁st	-10.5214
ээврийн	-10.5217
▁199	-10.5219
▁идэвх	-10.5219
▁нуу	-10.5219
▁олигтой	-10.5223
▁ярилаа	-10.5227
▁амьсгалын	-10.5228
▁талх	-10.523
▁арав	-10.5239
▁Хоёрдугаарт	-10.5241
▁Есүсийн	-10.5242
▁хаях	-10.5253
▁төлөвлөгөөг	-10.5255
▁хэргээр	-10.5255
▁нартаа	-10.5257
▁Дахиад	-10.5259
▁бүлээ	-10.5261
na	-10.5263
▁хажуу	-10.5266
▁бололцоо	-10.5268
▁Санаа	-10.5268
▁Post	-10.5274
▁засгийг	-10.5274
▁МАНАН	-10.5276
▁тодруулах	-10.5278
▁бур	-10.5278
▁улирл	-10.5278
▁авчирсан	-10.5278
▁баримтлал	-10.5278
▁дуудах	-10.5285
▁хугацаандаа	-10.5294
▁имэйл	-10.5305
▁асуултууд	-10.5309
▁Ван	-10.5313
йг	-10.5313
▁Иран	-10.5315
▁буйг	-10.5321
▁Компьютер	-10.5323
▁хамтрагч	-10.5324
▁Даан	-10.5326
▁очдог	-10.5326
▁амраг	-10.5327
▁Бүтэ	-10.5328
▁Орхон	-10.5328
▁тур	-10.533
үүгээ	-10.5332
▁тэдгээрийн	-10.5333
▁снаар	-10.5333
▁08	-10.534
▁дуурай	-10.5341
▁ТВ	-10.5343
▁давс	-10.5345
▁шулуун	-10.5348
▁ширээ	-10.5348
▁!"	-10.5353
▁таа	-10.5357
▁42	-10.5367
▁харгалзан	-10.5367
▁гоор	-10.5372
▁Сонгууль	-10.5373
▁хөтөч	-10.5373
▁чөлөөлөх	-10.5373
▁Үйлчилгээ	-10.5374
▁ашгийн	-10.5374
▁хүргэдэг	-10.5375
▁болчихлоо	-10.5375
▁2003	-10.5378
▁Сур	-10.5378
▁эхлүүлсэн	-10.5379
▁Тоо	-10.5383
▁асуув	-10.5383
▁очиход	-10.5385
▁явахдаа	-10.5389
▁Мон	-10.539
▁зөвшөөр	-10.5392
▁Болд	-10.5394
▁тайланг	-10.5397
Ган	-10.5399
▁арал	-10.5401
▁коронавирус	-10.5404
▁шороо	-10.5404
co	-10.5405
▁харьцах	-10.5406
▁төлөвтэй	-10.5408
▁комисс	-10.5409
▁ээлжи	-10.5409
▁зарлиг	-10.5411
иар	-10.5413
▁хурдтай	-10.5417
▁тохируулах	-10.5426
об	-10.5444
▁түрээс	-10.5444
▁төгсгөлд	-10.5453
▁тэмдэгт	-10.5455
▁дээл	-10.5455
▁жилийг	-10.5458
▁алс	-10.5468
▁байгууллагуудын	-10.5475
▁ОУВС	-10.5475
▁хүдрий	-10.5475
▁зэвсг	-10.5475
▁үргэлжилнэ	-10.5475
▁гудамжинд	-10.5475
▁танилцаж	-10.5476
▁дамжуулах	-10.5477
▁бүгдэд	-10.5478
лол	-10.5483
▁амьтны	-10.5483
▁боломжууд	-10.5483
▁дагах	-10.5484
дар	-10.5486
▁ярилцсан	-10.5486
▁дархлаа	-10.549
▁очно	-10.5492
▁кон	-10.5496
▁ангилал	-10.5497
▁олдсон	-10.5497
em	-10.5498
▁нааш	-10.55
▁нийл	-10.5502
▁44	-10.5505
▁суманд	-10.5506
▁үүгээр	-10.551
▁орчныг	-10.551
▁Юун	-10.5511
▁Тав	-10.5512
▁болчихоод	-10.5515
ахиад	-10.5519
▁сайхныг	-10.5519
▁Жо	-10.5519
▁де	-10.5524
▁нээлтээ	-10.5525
▁өчүүх	-10.5526
▁даашинз	-10.5526
▁Сэлэнгэ	-10.5526
▁сургамж	-10.5526
▁боломжийн	-10.5527
чилсэн	-10.5529
оп	-10.5529
▁Аялал	-10.553
▁алж	-10.5532
▁бодохоор	-10.554
▁дуусч	-10.554
▁өрөөний	-10.5542
▁олно	-10.5543
▁уян	-10.5544
▁бүтээлүүд	-10.5547
▁цуу	-10.5547
▁таарах	-10.5551
▁тушаа	-10.5552
▁бүрд	-10.5558
рсан	-10.5558
фи	-10.5559
агдах	-10.5559
▁эхнээс	-10.5569
▁Сири	-10.5569
Монголын	-10.5575
▁хөдөлгө	-10.5577
▁Халдвар	-10.5577
▁алчуур	-10.5577
▁мэргэжлээр	-10.5578
▁уналт	-10.558
▁Ирээдүй	-10.558
▁Хи	-10.5581
▁Тал	-10.5581
▁балай	-10.5582
▁хувьцааны	-10.5598
▁сурдаг	-10.5599
▁бодно	-10.5605
▁тохиолдох	-10.5608
▁Жа	-10.5614
▁цагтаа	-10.5616
Нямдорж	-10.5617
▁асуултанд	-10.5618
аасай	-10.5618
▁байдлаа	-10.562
▁оюутны	-10.5629
▁Шинжлэх	-10.5629
▁малтмал	-10.5629
▁хуулбар	-10.5629
▁зайлуул	-10.563
▁унаа	-10.5632
▁Яах	-10.5635
▁гайх	-10.5636
▁эмчлэх	-10.5637
▁танилцсан	-10.5638
▁зарлах	-10.5639
▁үйлдвэрлэ	-10.564
▁өөрчлөгдөх	-10.5651
▁халдлага	-10.5652
гчид	-10.5653
▁Блог	-10.5655
▁салбарыг	-10.5657
▁дажгүй	-10.5658
▁Худалда	-10.566
▁Шин	-10.5663
▁шан	-10.5664
▁Цагдаа	-10.5665
▁мэргэн	-10.5665
▁Mar	-10.5665
чихаад	-10.5669
Хүн	-10.5669
▁муур	-10.5669
ино	-10.567
Танай	-10.567
▁нягт	-10.5672
▁болгохын	-10.5676
▁журмыг	-10.5681
▁хийгээрэй	-10.5681
▁татгалзаж	-10.5682
▁өөрчилсөн	-10.5682
▁явган	-10.5683
из	-10.5683
▁хэсгээс	-10.5684
▁хандуулах	-10.5685
арт	-10.5696
▁Эрүүгийн	-10.57
▁ярихгүй	-10.571
▁онцлох	-10.571
▁давсан	-10.5711
▁тойрог	-10.5712
▁Сирий	-10.5714
▁Монголыг	-10.572
+	-10.572
▁буулга	-10.5721
▁нүдээр	-10.5724
▁сэтгэлээр	-10.5727
▁Гоолингоо	-10.5732
▁Афганистан	-10.5732
▁хэрэгслүүд	-10.5732
▁анхдагч	-10.5733
▁охинтой	-10.5735
▁талаасаа	-10.5744
▁Ая	-10.5746
▁наснаас	-10.5747
▁ажилгүй	-10.575
▁Тай	-10.5752
▁босоо	-10.5758
▁өдөө	-10.5758
▁хэллэг	-10.5758
▁банкууд	-10.5762
▁баригда	-10.5773
▁уйл	-10.5774
үүлсэн	-10.5783
▁статистик	-10.5785
▁суваг	-10.5785
▁оффис	-10.5785
▁жишиг	-10.5785
▁намаас	-10.5785
▁тэтгэмж	-10.5786
▁түрүү	-10.5791
▁өгөхөө	-10.5794
▁баримтууд	-10.5796
▁сольж	-10.58
▁дүрд	-10.58
▁баримтлах	-10.5806
▁тогтоо	-10.581
▁сүлжээний	-10.581
▁Цаашд	-10.5811
▁Элбэгдорж	-10.5811
▁цан	-10.5814
▁элсэн	-10.5816
лз	-10.5818
▁илүүтэй	-10.5819
хийвэл	-10.582
▁нийгм	-10.5821
▁цэ	-10.5824
▁ье	-10.5827
▁жигд	-10.5828
▁хоёрт	-10.5832
▁явдлууд	-10.5837
▁хэрэгслийг	-10.5837
▁хэмээсэн	-10.5837
▁эрхлэгч	-10.584
▁гаргахад	-10.584
ОН	-10.5841
▁үргэлжлүүлэх	-10.5841
down	-10.5842
▁тооцож	-10.5848
▁Ду	-10.585
гаараа	-10.585
▁Компанийн	-10.5858
▁Ro	-10.586
▁тэтгэвэр	-10.5862
▁магт	-10.5865
▁төрүүлж	-10.5865
▁сайтын	-10.5866
▁эсэргүүцэж	-10.5874
▁z	-10.5881
ГА	-10.5887
▁гэмтэл	-10.589
▁туслалцаа	-10.589
▁өртсөн	-10.589
ОЛ	-10.5891
▁цуглаан	-10.5891
▁37	-10.5891
▁хэрэглэгчдэд	-10.5891
▁39	-10.5891
▁сор	-10.5896
▁огцруула	-10.5897
and	-10.5897
▁Me	-10.5898
▁(1)	-10.5898
▁Арван	-10.5898
▁Солонгост	-10.5901
тэйгөө	-10.5904
ЭЛ	-10.5907
ук	-10.5915
im	-10.5917
▁дууд	-10.5919
▁баригч	-10.5929
мент	-10.593
▁Кар	-10.5937
▁Хал	-10.5939
▁Халуун	-10.5944
▁эрхэлдэг	-10.5944
▁Чам	-10.5944
▁уншаарай	-10.5945
▁19-	-10.5945
▁Хүлээ	-10.5945
▁зочин	-10.5945
▁нтр	-10.5946
▁Ун	-10.5947
▁уншина	-10.5947
▁таалагдаж	-10.5948
▁алах	-10.595
ll	-10.5955
▁хөдлөлт	-10.5955
▁ажилла	-10.5957
▁ордны	-10.5957
▁хариуца	-10.596
▁цаад	-10.5962
▁чихлаа	-10.5965
▁зайлсхийх	-10.5966
▁байгуулагч	-10.5967
▁дуулдаг	-10.5969
▁хорвоо	-10.5977
НЫ	-10.5981
▁Ял	-10.5982
ина	-10.5983
▁багаж	-10.5984
▁ирэхийг	-10.5985
▁буулгах	-10.5988
▁багтаа	-10.5993
▁чөтгөр	-10.5997
▁бузар	-10.5997
▁утгыг	-10.5997
▁үлдэнэ	-10.5997
▁сны	-10.5997
▁бариул	-10.5998
▁Итгэл	-10.5999
▁настайдаа	-10.5999
▁тогтсон	-10.6
▁шуугиан	-10.6
▁хохирогч	-10.6004
▁төлбөрөө	-10.6006
▁эрүүгийн	-10.6007
▁төлөөлөгчид	-10.6007
▁агуулах	-10.6008
▁бүтээлийн	-10.6011
▁мэдэгдлээ	-10.6013
▁хүндрэлтэй	-10.6022
▁хөдөлгөөнт	-10.6026
▁хуудсанд	-10.6026
▁угааж	-10.6028
▁Баасан	-10.603
▁Марк	-10.6031
▁хайрыг	-10.6032
▁те	-10.6033
▁амарч	-10.6033
▁эрдэнэ	-10.6045
▁хааж	-10.6047
▁хашгир	-10.6048
кс	-10.6051
▁Сингапур	-10.6051
▁Грек	-10.6051
▁Чөлөөт	-10.6051
▁томилох	-10.6051
▁хэвтэж	-10.6051
▁оролцдог	-10.6052
▁алхаж	-10.6054
▁@	-10.6055
▁малгай	-10.6055
▁ярилц	-10.6056
▁дунджаар	-10.6056
▁таашаал	-10.6057
▁таньдаг	-10.6058
▁04	-10.6058
▁зорчигч	-10.6061
▁элчин	-10.6061
▁үзүүл	-10.6064
▁хариулсан	-10.6065
▁даж	-10.6067
▁гууд	-10.607
▁Уур	-10.6071
▁уриалж	-10.6076
▁арил	-10.6077
▁багаас	-10.6079
▁итгэхгүй	-10.6081
▁сонгуул	-10.6084
▁өдрөөр	-10.6086
▁хуралдаанаар	-10.6087
▁эсэхээ	-10.6089
лөг	-10.6093
▁түгээ	-10.6099
▁хувьтай	-10.6104
▁Интернэт	-10.6105
▁Цахилгаан	-10.6105
▁герман	-10.6105
▁нитрил	-10.6105
▁бүтцийн	-10.6105
▁тэтгэвр	-10.6105
▁нялх	-10.6105
▁агуулсан	-10.6108
▁эзэмшсэн	-10.6108
os	-10.611
▁төрөлх	-10.611
▁модон	-10.6115
▁зарцуулсан	-10.6115
▁ги	-10.6116
▁дуунууд	-10.6118
▁татгалзсан	-10.612
▁тави	-10.6121
▁хортой	-10.6128
▁сайгүй	-10.6131
▁мэдүүлэг	-10.614
▁51	-10.6142
▁оржээ	-10.6142
Өнөөдөр	-10.6151
▁Жин	-10.6157
▁хүс	-10.6157
▁түг	-10.6158
▁амраа	-10.6159
▁мессеж	-10.6159
▁Байгууллагын	-10.6159
▁сонирхлыг	-10.616
▁үргэлжилсэн	-10.6161
▁зогссон	-10.6161
▁хамаарч	-10.6162
▁дурын	-10.6167
▁аймаар	-10.6168
▁сайтууд	-10.617
▁эхэл	-10.6181
▁импорт	-10.6183
▁хадгал	-10.6183
▁зүтгэж	-10.6189
▁туу	-10.6199
▁de	-10.6201
▁чоно	-10.6208
▁хир	-10.6209
▁Иргэн	-10.6209
▁өнгөрөө	-10.621
▁Амралт	-10.6214
▁хэмээв	-10.6214
▁температур	-10.6214
▁ханамж	-10.6215
▁мэдээллээр	-10.6218
▁төрүүлэх	-10.6221
▁мөчид	-10.6222
▁тест	-10.6224
▁оё	-10.6225
▁тайлбарласан	-10.6226
▁тын	-10.6229
▁бууд	-10.6233
▁Ст	-10.6234
Эх	-10.6235
ез	-10.6248
Йорк	-10.6261
▁авт	-10.6261
Болд	-10.6262
▁Фэйсбүүк	-10.6269
▁өлсгөлөн	-10.6269
▁оролцоно	-10.6269
▁Ча	-10.627
▁наймдугаар	-10.6271
шин	-10.6272
▁үзүүлнэ	-10.6272
▁зураач	-10.6272
▁05	-10.6273
ээрэй	-10.6274
чиж	-10.6274
▁торго	-10.6276
▁Хүнсний	-10.6277
ци	-10.6279
▁Нямдорж	-10.6281
▁тайлах	-10.6282
▁тангараг	-10.6282
▁яри	-10.6284
▁тогтвор	-10.6284
▁Хүч	-10.6286
▁ингэх	-10.6288
жилт	-10.63
▁цэц	-10.6309
▁тон	-10.631
▁анхан	-10.631
▁байлда	-10.6313
▁Амьд	-10.6315
гдэх	-10.6318
▁цаасан	-10.632
▁шунал	-10.6323
▁Мексик	-10.6324
▁өгүүллэг	-10.6325
▁хөгжсөн	-10.6325
▁тээвэр	-10.6327
▁өнгөрүүлэх	-10.6327
▁1:	-10.6329
▁хариул	-10.6333
▁цуглуулах	-10.6339
▁хамар	-10.6339
▁дэл	-10.6342
▁дут	-10.6357
▁компаний	-10.636
▁найрагч	-10.6362
▁монголчуудын	-10.6367
▁ши	-10.637
▁Ви	-10.6371
▁Ди	-10.6373
▁хүндээ	-10.6377
▁Next	-10.638
▁Интернет	-10.638
▁холбох	-10.638
▁гурил	-10.638
▁зуршил	-10.638
▁Мэдээлэл	-10.638
▁гэрлэлт	-10.6385
▁тоглогчид	-10.6389
▁Буруу	-10.6391
▁оруулаад	-10.6391
▁тохиргоо	-10.6393
▁бусын	-10.6393
▁Хаяг	-10.6394
▁Усан	-10.6399
▁хийе	-10.6401
ti	-10.6401
▁хумс	-10.6405
▁бэрх	-10.6406
▁туулсан	-10.6406
▁зайд	-10.6411
▁бахархаж	-10.6411
▁метр	-10.6412
▁хүрдэг	-10.6413
▁харилцаатай	-10.6418
▁аваач	-10.6419
▁Хон	-10.6421
▁гарав	-10.6423
▁бичгий	-10.6425
▁for	-10.6433
▁Хүүхдэд	-10.6435
▁өөрийнхөөрөө	-10.6437
▁гэл	-10.6456
▁Алт	-10.6458
▁хэдийнэ	-10.6459
ха	-10.6459
ша	-10.6463
▁47	-10.6463
▁Ша	-10.6466
▁туршлаг	-10.6466
▁me	-10.6469
▁намд	-10.6469
▁дамжуулж	-10.6473
▁дайр	-10.6474
▁хөнгөлөлт	-10.6477
ууууу	-10.6479
лиг	-10.6483
▁бонд	-10.6485
▁олохгүй	-10.6485
▁хураа	-10.6489
▁Тэнэг	-10.6492
Алтанхуяг	-10.6494
▁ААН	-10.6499
▁тараах	-10.6501
▁хээр	-10.6503
▁шарх	-10.6506
алгүй	-10.6507
▁тө	-10.6509
ҮҮ	-10.6514
жаргал	-10.6514
лэлт	-10.652
ца	-10.652
▁зовоо	-10.652
▁уха	-10.6526
▁цац	-10.6538
мийн	-10.6542
▁Хоёул	-10.6548
▁мэдээлснээр	-10.6548
▁Үүгээр	-10.6548
▁Төлбөр	-10.6548
▁(0)	-10.6548
огцом	-10.6548
▁зоог	-10.6549
▁мэдээлсэн	-10.655
арга	-10.6551
▁таараа	-10.6554
▁хонь	-10.6556
▁хүрэлцэ	-10.6558
▁чихээд	-10.6558
▁Но	-10.6559
▁бааз	-10.6562
ага	-10.6562
▁функц	-10.6564
▁Де	-10.6565
▁гэнээ	-10.6566
▁санаарай	-10.657
▁уудаг	-10.6572
▁хаалттай	-10.6578
▁салсан	-10.6578
▁бүхнээс	-10.6584
▁байхав	-10.6586
▁мэдэхийг	-10.6589
▁эмгэг	-10.659
▁өмд	-10.659
▁хайрт	-10.6591
▁дутагдал	-10.6592
маг	-10.6592
ow	-10.6592
▁тэгэ	-10.6595
▁цэнэ	-10.6596
яа	-10.6596
▁хэнтэй	-10.6597
▁Бээжин	-10.6603
▁ИТХ	-10.6605
▁холболт	-10.6605
▁үйлчлэгч	-10.6605
▁клип	-10.6605
▁зэргийг	-10.6605
▁гэдэс	-10.6605
▁Шалгалт	-10.6606
▁эрхэлж	-10.6606
▁тусламжтайгаар	-10.6607
ion	-10.6609
▁Уучлаарай	-10.6611
▁зарцуулдаг	-10.6611
▁хас	-10.6611
▁тохиолдо	-10.6612
▁одон	-10.662
▁тодотгол	-10.662
▁Баттулга	-10.6621
▁орхих	-10.6624
▁тоонд	-10.6631
▁зовлонг	-10.6634
▁зүйлгүй	-10.6634
▁явцыг	-10.6636
▁өнөөг	-10.6637
▁давта	-10.6639
▁дуугаа	-10.6641
▁хүрчээ	-10.6641
▁хавдар	-10.6643
тра	-10.6643
▁дурс	-10.6647
▁Mac	-10.6657
зи	-10.6662
▁шагналыг	-10.6663
▁төлдөг	-10.6664
▁хичээллэ	-10.6665
▁тусгасан	-10.6667
▁өөх	-10.6668
▁шав	-10.667
▁Өр	-10.6672
▁нэгжүүд	-10.6672
▁барааг	-10.6676
▁асуудаг	-10.6677
▁ноос	-10.668
▁al	-10.668
▁айгаад	-10.6681
▁онцлогтой	-10.6682
▁тэргүүлэ	-10.6686
▁болмоор	-10.6687
▁лаж	-10.6688
▁21-	-10.6689
▁эзэмшигч	-10.669
оль	-10.6691
▁Мэд	-10.6696
▁тааруу	-10.6697
▁шалтгаал	-10.6698
▁дэв	-10.6702
▁ди	-10.6702
ондоо	-10.6706
▁айн	-10.6707
▁эзлэх	-10.6711
▁уйлж	-10.6713
түүнчлэн	-10.6714
▁Мах	-10.6714
▁гүйцэтгэдэг	-10.6721
▁шаардлаг	-10.6728
▁Испани	-10.6733
▁зэргээр	-10.6735
▁Дар	-10.6735
▁байгаадаа	-10.6737
▁сайдыг	-10.674
▁le	-10.6741
▁ажиллуулж	-10.6743
▁эсрэгээрээ	-10.6744
▁үгүйсгэ	-10.6749
▁58	-10.6749
▁Хур	-10.6755
▁мэдэхэд	-10.6757
▁Арьс	-10.6759
$	-10.6773
▁ИЙН	-10.6777
▁Нохой	-10.6777
▁өвдөлт	-10.6777
▁хангалтгүй	-10.6777
▁дэмжигч	-10.6778
▁хүрлээ	-10.6782
▁ирвэл	-10.6787
сөөр	-10.6792
▁олго	-10.6793
▁гий	-10.6794
▁нүцгэн	-10.6795
▁боловсон	-10.6796
▁дансанд	-10.6799
▁түвшинг	-10.6803
агдсан	-10.6803
▁худалдаанд	-10.6809
▁ярианы	-10.6813
▁ааш	-10.6816
▁ажигла	-10.682
▁Цар	-10.6829
▁ти	-10.683
▁үсээ	-10.6831
лэсэн	-10.6831
▁чихсэн	-10.6833
▁ялгаж	-10.6835
▁ЗХУ	-10.6835
▁бэлдэж	-10.6837
▁үлдлээ	-10.6837
▁үйлдвэрт	-10.6839
▁хором	-10.6843
▁цгаа	-10.6845
▁Бор	-10.6845
▁хараарай	-10.6849
▁сээр	-10.6853
▁18-	-10.6854
▁энерги	-10.6854
▁дизайн	-10.6856
▁анг	-10.6857
тлаа	-10.6858
▁хариултыг	-10.6859
орно	-10.686
▁хотоос	-10.6863
▁ген	-10.6866
▁мөрдө	-10.6867
▁эхэн	-10.6871
мэйл	-10.6878
▁дуус	-10.6884
▁дүнгээ	-10.6885
▁талбайн	-10.6892
▁суртахуун	-10.6894
▁Гэнэт	-10.6894
▁Утас	-10.6894
▁хотноо	-10.6894
▁шилжилт	-10.6895
▁хүдэр	-10.6897
▁ягаан	-10.6898
▁хянан	-10.6899
▁төмрийн	-10.6902
▁Түүнтэй	-10.6903
▁нэрлэсэн	-10.6904
▁джээ	-10.6905
▁чадваргүй	-10.691
▁бусадтай	-10.6912
▁ed	-10.6912
▁толгойгоо	-10.6915
▁хүүтэй	-10.6918
до	-10.6921
▁Ес	-10.6922
▁өсгөх	-10.6923
▁давхи	-10.6923
▁00	-10.6932
▁хийлгэж	-10.6934
▁системд	-10.6935
гээд	-10.6937
цэцэг	-10.694
▁Ой	-10.6941
▁оролцуул	-10.6942
▁байрла	-10.6945
АТ	-10.6946
▁туйл	-10.6947
иас	-10.6949
▁гээгүй	-10.6949
рой	-10.695
▁Швед	-10.6953
▁Нутгийн	-10.6953
▁форум	-10.6953
▁домог	-10.6953
▁текст	-10.6953
▁Кан	-10.6955
рамд	-10.6957
▁татаад	-10.6964
▁оров	-10.6966
те	-10.6966
▁судалгааг	-10.6967
▁боловсролтой	-10.697
▁унд	-10.6972
▁онош	-10.6976
▁хүсдэггүй	-10.6976
▁уруул	-10.6978
ard	-10.6978
ent	-10.6979
▁зүс	-10.698
▁өргөх	-10.6981
▁Зөвлөл	-10.6983
▁дорой	-10.6985
▁шаардах	-10.6985
▁нүүрний	-10.6986
▁хэлтэй	-10.6987
▁бүлэгт	-10.6988
▁дүүрэгт	-10.6989
▁зэрэгцэ	-10.6991
▁Нэм	-10.6997
▁Бараа	-10.6999
▁1,	-10.7
▁жив	-10.7
▁Сайт	-10.7007
▁огцор	-10.7012
▁оролдлого	-10.7012
▁тасалбар	-10.7012
▁Цэцэрлэг	-10.7012
▁бүрээс	-10.7012
Их	-10.7013
▁Гадны	-10.7014
▁бичигдсэн	-10.7014
▁буйгаа	-10.7015
▁нийцсэн	-10.7017
▁тогтолцоог	-10.7019
▁дуусна	-10.7019
▁Бүрэн	-10.702
▁хичээлээ	-10.7021
▁үйлчилгээнд	-10.7023
▁хорин	-10.7025
▁уугаад	-10.7026
▁үгүйсгэхгүй	-10.703
▁байлга	-10.7032
▁цохи	-10.7036
▁Зөвлөлт	-10.7041
id	-10.7042
▁хамаарах	-10.7045
▁an	-10.7045
жав	-10.7046
алан	-10.7048
▁эзэлж	-10.7049
▁өвчтөн	-10.7052
om	-10.7053
▁Ки	-10.7058
▁ажиллахгүй	-10.7059
гуул	-10.7059
▁өршөө	-10.7065
уулга	-10.7066
▁дэлгэ	-10.7068
▁хөрс	-10.7069
▁зурвас	-10.7072
▁зөөврийн	-10.7072
▁хүчилтөрөгч	-10.7072
▁битүү	-10.7072
▁Оюутан	-10.7073
▁үйлчилдэг	-10.7075
▁анхаарна	-10.7083
▁арми	-10.7084
▁сэрээ	-10.7087
▁усыг	-10.7089
удлаа	-10.709
▁оюуны	-10.7095
өөрөө	-10.7098
▁Үргэлж	-10.71
▁до	-10.7103
▁мэдлээ	-10.7104
▁ойрто	-10.7104
▁чдын	-10.7109
▁цаашаа	-10.7109
▁Үе	-10.7113
өрөг	-10.7119
▁онцло	-10.7122
▁Хэнтий	-10.7128
▁найд	-10.7131
▁Авлига	-10.7131
▁хөдөлгүүр	-10.7131
▁самбар	-10.7132
▁танхимд	-10.7134
тор	-10.7136
▁дууслаа	-10.7136
▁аврал	-10.7136
▁зээлээ	-10.7137
▁илгээсэн	-10.7138
▁хувааж	-10.7138
▁цэвэрхэн	-10.7139
▁Ме	-10.7139
▁гэрийнхэн	-10.7139
▁үйлдвэрлэсэн	-10.714
▁ья	-10.7143
яадаг	-10.7143
▁асуугаа	-10.715
▁бүрдсэн	-10.7152
▁ажиллахыг	-10.7152
▁16-	-10.7154
▁өгөхөд	-10.7154
▁төрч	-10.7155
▁хөдөлж	-10.7155
▁хориглох	-10.7159
ho	-10.7159
▁орц	-10.7162
▁2:	-10.7163
▁биет	-10.7164
▁толгойн	-10.7167
▁зарлаж	-10.7169
▁багууд	-10.717
▁зохиогч	-10.717
логдсон	-10.7171
▁залуутай	-10.7175
▁баталгаажуул	-10.7177
▁баримтал	-10.7178
▁нэрлэх	-10.7181
▁хийгдэх	-10.7182
▁аваргы	-10.7183
▁прокурор	-10.7186
▁Өрөө	-10.7189
▁Хол	-10.7191
▁600	-10.7192
▁санср	-10.7193
▁тэргүүлж	-10.7193
▁Цалин	-10.7195
▁хориглосон	-10.7195
▁үеэ	-10.7197
▁тулгар	-10.7197
▁баригдсан	-10.7197
▁өгөөж	-10.7199
▁нэрлэж	-10.7199
▁даанч	-10.72
▁эрчимтэй	-10.7202
0,000	-10.7206
▁суралц	-10.7207
▁тэнцэх	-10.7212
▁дадлага	-10.7215
▁барьцаа	-10.7218
▁идээ	-10.7218
▁таамаглаж	-10.7222
▁тахил	-10.7223
▁эхнэрээ	-10.7223
▁баар	-10.7228
▁ажилчдын	-10.723
ts	-10.7231
▁хийхээс	-10.7232
▁таларх	-10.7237
Шинэ	-10.725
▁өгдөггүй	-10.7251
▁Баянзүрх	-10.7252
▁фэйсбүүк	-10.7252
▁болоосой	-10.7252
▁бохирдол	-10.7253
▁маягт	-10.7253
▁үүдэлтэй	-10.7253
отуур	-10.7255
▁Өргө	-10.7256
▁мэдэрсэн	-10.7256
уудад	-10.726
▁технологийг	-10.726
▁жий	-10.7262
▁явуулна	-10.7265
▁тавигдах	-10.7268
еп	-10.727
▁эдлэх	-10.727
▁гэвч	-10.7272
▁шаха	-10.7276
ex	-10.7281
ne	-10.7285
▁хүлээгээ	-10.7289
▁сунгах	-10.729
▁тушаалд	-10.729
▁сана	-10.7294
▁зуух	-10.7299
▁ит	-10.7302
▁хүнээр	-10.7304
▁явчих	-10.7309
10	-10.7309
hi	-10.7312
▁Эмээ	-10.7313
▁Польш	-10.7313
▁механизм	-10.7313
▁сервер	-10.7313
▁Хүүхдээ	-10.7313
▁супер	-10.7313
▁өмсөж	-10.7314
▁Шөнө	-10.7314
▁заа	-10.7314
▁тархалт	-10.7315
Олон	-10.7315
▁харилцагч	-10.7318
▁Бизнесийн	-10.7318
▁товчоо	-10.7318
▁барилд	-10.732
▁Энийг	-10.7322
▁дахинд	-10.7323
▁ослы	-10.7324
▁дагалда	-10.7327
▁нутгаас	-10.7329
▁санаагаа	-10.7329
ip	-10.733
бар	-10.7332
аагаад	-10.734
▁хотууд	-10.7341
▁арч	-10.7343
▁жиж	-10.7344
aa	-10.7346
**	-10.7347
▁эмчид	-10.7354
▁хариуд	-10.7362
▁тогоо	-10.7363
▁тэнгэрт	-10.7368
▁төсөөл	-10.7371
▁өмчийн	-10.7372
ИЛ	-10.7372
цан	-10.7372
▁Сэтгэгдэл	-10.7375
▁тулгамдсан	-10.7375
▁Пакистан	-10.7375
▁Зургаа	-10.7375
▁Ле	-10.7375
▁??	-10.7377
▁гүйцэтгэсэн	-10.7377
▁гүтгэ	-10.7379
▁хүлээдэг	-10.738
▁Жолооч	-10.7381
▁хангамжийн	-10.7383
▁дуулга	-10.7383
▁ирц	-10.7386
▁тайлбарла	-10.7386
▁гээл	-10.7392
гддаг	-10.7399
▁Сургууль	-10.7406
▁таньд	-10.7407
▁хүслээ	-10.7407
▁үлдээ	-10.7409
▁Ами	-10.7409
▁46	-10.741
▁тоос	-10.7412
▁Сэр	-10.7413
▁зугаа	-10.7414
▁асга	-10.7417
▁сургуул	-10.7417
▁Ни	-10.7424
▁хуульч	-10.7429
▁сэв	-10.7432
▁хүсэлтээ	-10.7435
▁нэрс	-10.7436
▁өдрөө	-10.7436
▁захирамж	-10.7437
▁томилгоо	-10.7437
▁тушаалтнууд	-10.7437
▁шалтгааны	-10.7437
Уул	-10.7438
▁цэвэрлэгч	-10.7439
▁стандартын	-10.744
▁барьдаг	-10.7442
▁шинэчлэлт	-10.7442
▁дэвтэр	-10.7442
▁тээрмийн	-10.7444
▁тамхины	-10.7445
▁яар	-10.7448
▁санасан	-10.745
▁түмнийг	-10.745
арсан	-10.7455
▁амьдарсан	-10.7459
▁дэмж	-10.7461
▁уут	-10.7465
▁үер	-10.7465
чны	-10.7473
▁гомдоо	-10.7473
рэл	-10.7473
▁си	-10.7474
▁хул	-10.7474
▁41	-10.7478
▁тодотго	-10.7482
▁бэлтгэлээ	-10.7495
▁Богино	-10.7498
▁өгөөрэй	-10.7499
▁ходоод	-10.7499
▁зөн	-10.7499
ахиж	-10.7502
▁өгөгдөл	-10.7502
▁орхиод	-10.7503
▁ашгаа	-10.7504
▁удаагүй	-10.7508
▁бүтээгч	-10.7509
▁хороололд	-10.751
▁бирж	-10.7514
▁байгууллаг	-10.7515
▁сай	-10.7516
▁Оюутолгойн	-10.7519
▁айлга	-10.7521
▁томъёо	-10.7522
▁Чин	-10.7528
▁дэр	-10.7529
▁оруулахгүй	-10.7534
дох	-10.7534
▁сурталчилгааны	-10.7535
ОР	-10.7536
▁амаа	-10.7541
▁co	-10.7543
▁зориул	-10.7545
▁хэвлэ	-10.7549
▁боомт	-10.7549
▁төрөлд	-10.7552
▁30-	-10.7553
гүүр	-10.7553
өөрхий	-10.7554
▁эхээс	-10.7557
▁Ром	-10.7559
▁доктор	-10.7561
▁үйлдэх	-10.7562
хир	-10.7562
▁хүрэл	-10.7563
▁хачирхалтай	-10.7563
▁тодорхойлсон	-10.7564
▁гайхах	-10.7565
▁Удаа	-10.7565
▁Ховд	-10.7566
▁салга	-10.7571
▁Нууц	-10.7572
▁Гоё	-10.7574
▁хэмнэх	-10.7575
▁бүрээр	-10.7577
▁Арга	-10.7579
▁оролд	-10.7579
▁тоглоомууд	-10.758
▁улстөрч	-10.7581
▁суулгаж	-10.7581
ac	-10.7582
▁олоход	-10.7588
▁Май	-10.7588
▁хүүхэлдэйн	-10.7593
▁дэмжинэ	-10.7595
мэг	-10.7597
▁илрэл	-10.7598
▁дугаарт	-10.7608
▁лээд	-10.761
▁буйгаар	-10.7617
▁Га	-10.7623
▁Програм	-10.7624
▁зургадугаар	-10.7624
▁зөрчиж	-10.7624
▁бүтээмж	-10.7625
▁авав	-10.7625
▁залхуу	-10.7632
▁олонхи	-10.7633
▁үйлдвэрлэгчид	-10.7633
тэр	-10.7636
▁хүүхдийнхээ	-10.7636
▁дэвсгэрт	-10.7636
▁аавыг	-10.7643
▁Дол	-10.7644
▁цэс	-10.7645
▁хов	-10.7645
▁байлдаа	-10.7649
▁дгийг	-10.7651
▁үйлчилж	-10.7653
▁сунга	-10.7655
Үгүй	-10.7655
▁бүжиглэ	-10.7656
дам	-10.7656
▁модны	-10.766
▁43	-10.7662
▁шилж	-10.7665
▁авдаггүй	-10.7665
▁Хятадууд	-10.7669
▁Компани	-10.767
▁.....	-10.767
▁бич	-10.767
▁тэсэ	-10.7673
▁Өвлий	-10.7673
▁тоглолтыг	-10.7674
▁мм	-10.7674
▁нэгээр	-10.7675
энэ	-10.7682
▁аппарат	-10.7687
▁платформ	-10.7687
▁Бурхны	-10.7687
▁объект	-10.7687
▁хайгуул	-10.7688
▁шаардагдах	-10.7688
▁хүслийг	-10.7688
▁мэтчилэн	-10.7688
▁таслан	-10.769
▁айраг	-10.7692
▁төлөвлөлт	-10.7692
▁Ойрын	-10.7693
▁удаж	-10.7694
ill	-10.7694
▁уудаас	-10.7695
▁май	-10.7695
▁хэлээрэй	-10.7696
▁Пи	-10.7698
▁оруулдаг	-10.7699
ков	-10.7705
▁хаясан	-10.7705
▁ана	-10.7708
▁ХҮН	-10.7712
▁Бүгдийг	-10.7716
▁зарчмыг	-10.7718
▁Зуны	-10.7719
▁урагшаа	-10.772
▁зөвшөөрдөг	-10.7722
▁нилээ	-10.7737
▁бүлийнхэн	-10.7737
▁асуултын	-10.7741
▁Оюутолгой	-10.7741
▁Машины	-10.7744
▁Тоглоом	-10.7749
▁Алха	-10.775
▁ооо	-10.7751
Алтан	-10.7752
▁явагдах	-10.7752
▁явбал	-10.7754
▁сэтгэц	-10.7754
▁биеийг	-10.7756
▁илгээ	-10.7757
▁Жан	-10.7761
тлоо	-10.7761
▁бүтэхгүй	-10.7761
▁зөвшөөрлий	-10.7761
▁сорилт	-10.7764
▁Хороо	-10.7764
▁зантай	-10.7766
▁Израиль	-10.7771
▁үүсээ	-10.7774
▁шахуу	-10.778
▁зугт	-10.7782
▁зардаг	-10.7789
▁Баг	-10.7793
▁шог	-10.7801
▁найм	-10.7801
члан	-10.7802
мөөр	-10.7803
▁өрхийн	-10.7806
▁шагна	-10.7807
▁ОУ	-10.781
▁хавры	-10.781
▁нэх	-10.781
▁мэдээллүүд	-10.7815
▁өсвөр	-10.7815
замбараагүй	-10.7815
▁ширүүн	-10.7815
▁өндөг	-10.7816
▁засаж	-10.7817
▁До	-10.7818
▁золиос	-10.7818
▁илэрхийлдэг	-10.7818
▁Ойр	-10.7819
▁хоорондох	-10.782
▁барах	-10.7821
▁байрлуулах	-10.7823
▁Сүм	-10.7823
▁95	-10.7824
▁өдөрлөг	-10.7825
▁is	-10.7827
▁хийхээ	-10.7827
▁зайг	-10.7828
▁харагдсан	-10.7829
▁гайхамшиг	-10.7831
▁шт	-10.7832
▁амьдраа	-10.7837
хо	-10.7838
▁ээждээ	-10.7838
▁тараа	-10.784
ph	-10.7841
▁тохиолдлы	-10.785
▁чөлөөг	-10.7851
▁тусгаарлах	-10.7853
▁яав	-10.7856
▁талбайг	-10.7861
өрөө	-10.7861
▁ГҮЙ	-10.7862
▁Хор	-10.7863
▁мөсөн	-10.7866
▁шатаа	-10.787
▁замдаа	-10.7875
▁чат	-10.7878
▁МУ	-10.7879
▁Гишүүд	-10.7879
▁Асуудал	-10.788
▁машинууд	-10.788
▁Word	-10.788
▁Ирак	-10.788
▁ойлгуулах	-10.7881
▁Зөндөө	-10.7881
▁нүүрээ	-10.7882
▁1992	-10.7882
▁тендер	-10.7883
▁оролдсон	-10.7884
▁хэрэгслээ	-10.7884
▁өмс	-10.7885
▁залууг	-10.7887
nd	-10.7889
▁ингэ	-10.789
▁хадгалагда	-10.7894
▁Урд	-10.7895
▁саруул	-10.7895
▁ЗГ	-10.7898
▁Ногоон	-10.79
ong	-10.7902
▁бсан	-10.7904
▁хоригдо	-10.791
25	-10.7917
▁зарцуул	-10.7919
▁ch	-10.7925
▁болхоор	-10.7926
▁Бүс	-10.7927
▁луйвар	-10.7934
▁бүлэглэл	-10.7938
▁зорилто	-10.7938
өгдсөн	-10.7939
▁олз	-10.794
▁Дав	-10.794
▁зэрэглэлийн	-10.7943
▁Байр	-10.7943
▁ДЭМБ	-10.7944
▁нутгийг	-10.7944
▁цогцолбор	-10.7944
▁Дубай	-10.7944
▁тог	-10.7945
▁аймар	-10.7946
▁тавцан	-10.7946
▁бэлдэх	-10.7946
▁Хариулт	-10.7946
▁хуримтлуул	-10.7946
▁байршуулах	-10.7947
▁эзэмшдэг	-10.7947
The	-10.7947
▁гэлтгүй	-10.7947
▁эргэлзэ	-10.7948
▁шийдвэрлэж	-10.7948
▁нягтлан	-10.7949
▁гавьяа	-10.7949
▁эрхлэгчид	-10.7949
▁ярилцлаа	-10.7949
▁хоолойг	-10.7949
▁тушаалтан	-10.795
▁байгууллаа	-10.7951
▁сугалаа	-10.7951
▁даргад	-10.7952
▁зал	-10.7953
▁нэмсэн	-10.7955
▁уусан	-10.796
▁хурааж	-10.7963
▁сэргээ	-10.7963
▁Сонин	-10.7963
▁гэгээ	-10.7964
▁барууны	-10.7965
▁гэрч	-10.7973
▁өдөржин	-10.7976
▁ашиглана	-10.7981
▁Эгч	-10.7984
▁хэлээ	-10.7987
▁сургах	-10.7989
▁насныхан	-10.7991
▁Туул	-10.7991
ang	-10.7992
▁Се	-10.7998
▁Зориг	-10.7999
ver	-10.8002
ast	-10.8007
▁хатагтай	-10.801
▁Умард	-10.801
▁эрдэмтэн	-10.8011
▁зурхай	-10.8011
▁Майк	-10.8012
▁асуудалгүй	-10.8013
▁сураг	-10.8015
▁унадаг	-10.8017
▁яваарай	-10.802
▁Төслийн	-10.8025
▁хүснэ	-10.8027
▁сэргээн	-10.8029
▁больчих	-10.8029
▁76	-10.8034
ым	-10.8035
▁дүгнэх	-10.8042
▁эргэлзэх	-10.8044
▁орил	-10.8044
▁тэтгэвэрт	-10.8045
▁эрэн	-10.8051
ши	-10.8062
▁Тамхи	-10.8062
▁алдаг	-10.8069
▁элемент	-10.8072
▁Архангай	-10.8075
▁цамц	-10.8075
▁Нэмэлт	-10.8075
▁нэвтрүүлгий	-10.8076
▁нэмэгдэнэ	-10.8076
▁ардчиллы	-10.8076
▁хязгаарлагдмал	-10.8076
▁нөхрөө	-10.8076
▁агуулдаг	-10.8077
▁зэрлэг	-10.8077
▁буурч	-10.8077
▁тэмдэглэдэг	-10.8078
▁хэлбэртэй	-10.8082
io	-10.8083
▁босох	-10.8083
▁Ноён	-10.8084
▁илүүд	-10.8092
▁ялагч	-10.8094
▁ичих	-10.8096
▁тэмүүл	-10.8103
▁асуултыг	-10.8104
▁илгээж	-10.8105
өрсөн	-10.811
▁тавин	-10.8113
▁хүчинд	-10.8115
▁нараа	-10.8119
▁эз	-10.8123
▁түлхэ	-10.8138
▁БНАСАУ	-10.8142
▁контент	-10.8142
▁түймэр	-10.8142
▁радио	-10.8143
▁Яахав	-10.8145
▁дүүргэ	-10.8145
▁хэрэглэгддэг	-10.8145
▁pre	-10.8145
▁25-	-10.8147
▁2001	-10.8148
▁устга	-10.8149
▁төрүүлсэн	-10.815
▁шаардсан	-10.8152
▁хуй	-10.8153
▁танилцуулсан	-10.8153
▁үхлий	-10.8154
▁үзжээ	-10.8154
▁Булган	-10.8156
▁чигээрээ	-10.816
▁Нь	-10.816
▁наяд	-10.8162
▁хооллох	-10.8163
▁бүсгүйг	-10.8166
▁Цус	-10.8166
▁сураггүй	-10.8171
▁эрчүүдийн	-10.8174
▁сам	-10.8175
▁нө	-10.8176
▁by	-10.8177
снаас	-10.8179
▁бишүү	-10.818
▁самар	-10.8181
▁гардаггүй	-10.8182
ОХ	-10.8185
▁уулах	-10.8188
▁250	-10.8194
▁хамрагда	-10.8195
▁Амьдралд	-10.8197
▁Мөнгөн	-10.8197
ее	-10.8198
▁ширээний	-10.8201
ямба	-10.8202
▁театр	-10.8202
дож	-10.8204
▁сошиал	-10.8208
▁МУИС	-10.8209
▁үргэлжлүүл	-10.8209
▁1980	-10.8211
J	-10.8212
лаарай	-10.8212
Ямар	-10.8213
▁учирсан	-10.8214
▁хийлгэсэн	-10.8215
▁авъя	-10.8215
▁см	-10.8216
▁буулгаж	-10.8219
▁лагч	-10.8219
▁шалгана	-10.822
▁жинтэй	-10.822
▁тусгаарла	-10.8221
▁захиалагч	-10.8224
▁чимэглэл	-10.8224
▁хамарсан	-10.8224
▁нөхө	-10.823
гдаж	-10.8234
ара	-10.824
▁архив	-10.8241
▁алдахгүй	-10.8244
▁Co	-10.8244
▁тэргүүний	-10.8244
▁эсэргүүцэ	-10.8246
Баасанхүү	-10.8247
▁тэл	-10.825
▁Ян	-10.8252
▁Улаанбаатарт	-10.8253
▁олгогч	-10.8254
▁уна	-10.8257
▁сануул	-10.826
▁залбир	-10.8261
▁хүргүүл	-10.8266
▁улирлы	-10.8269
▁төлөвлөгөөтэй	-10.827
▁бүжиг	-10.8271
ап	-10.8271
▁лэг	-10.8272
▁Аа	-10.8274
▁Малайз	-10.8275
▁Хөтөлбөр	-10.8275
▁Өсвөр	-10.8275
▁Коронавирус	-10.8275
▁эдэлж	-10.8276
▁өсөж	-10.8276
▁үхэж	-10.8277
ai	-10.8277
▁дээшлүүлэх	-10.8278
▁YouTube	-10.8278
▁дамжуул	-10.8282
▁тууз	-10.829
▁хэлбэрийн	-10.8293
▁хязгаарла	-10.8294
Ер	-10.8297
▁яд	-10.8306
Гэр	-10.831
уль	-10.8312
▁ийш	-10.8313
▁тер	-10.8313
▁хэвлэх	-10.8316
▁хойч	-10.8321
▁мартах	-10.8322
▁нийтээрээ	-10.8322
sh	-10.8323
▁Хурда	-10.8326
хар	-10.8327
▁хайлтын	-10.8329
▁үзэхийг	-10.8333
▁машинаа	-10.8335
▁ялгах	-10.8336
▁тарааж	-10.8337
▁аагүй	-10.8338
▁үстэй	-10.8339
▁бүтээлээ	-10.8341
▁робот	-10.8343
▁хүзүү	-10.8343
▁аймгууд	-10.8343
▁цуглуулга	-10.8344
эсэг	-10.8345
▁хэрэгжүүлнэ	-10.8345
▁бахархал	-10.8347
▁ажилтны	-10.8347
▁ирүүлсэн	-10.8349
▁машинд	-10.8353
▁байгуулдаг	-10.8354
▁анзаар	-10.8355
▁хичээсэн	-10.8357
▁тогооч	-10.8361
ия	-10.8362
▁болохоороо	-10.8364
▁Зүрх	-10.8366
▁баржээ	-10.8369
▁сэдвийг	-10.8371
▁мартсан	-10.8375
▁ялагда	-10.8375
▁Наран	-10.8377
▁Цэвэр	-10.838
ип	-10.8382
оз	-10.8384
ён	-10.8391
▁оныг	-10.8395
▁байлгаж	-10.8395
▁зорилгоо	-10.8396
▁нуух	-10.8396
▁элч	-10.8397
▁хүрэхэд	-10.8401
▁ялсан	-10.8402
▁сү	-10.8405
огдсон	-10.8407
50	-10.8411
▁Вашингтон	-10.8411
▁бялуу	-10.8411
▁явагддаг	-10.8411
▁санамсаргүй	-10.8411
▁Чингэл	-10.8411
▁нотолгоо	-10.8411
▁тарих	-10.8412
▁үүсгэдэг	-10.8413
▁бизнесээ	-10.8413
▁тоглоно	-10.8414
▁Хө	-10.8414
▁гарагийн	-10.8415
▁дүнгийн	-10.8415
▁ойлгоно	-10.8415
▁гэрээнд	-10.8415
Ф	-10.8416
Яагаад	-10.8417
▁хаягдал	-10.8418
▁Түр	-10.8419
▁дас	-10.8419
▁зүйлсээ	-10.8422
▁асуулаа	-10.8422
▁ижилхэн	-10.8423
▁190	-10.8425
▁сурга	-10.8427
▁эхэлснээ	-10.8427
▁хятадууд	-10.8428
▁Гараа	-10.8435
▁давтан	-10.8437
ub	-10.844
▁эцэс	-10.844
ian	-10.8442
▁амжих	-10.8443
▁Дорж	-10.8445
▁өсгө	-10.8446
▁ажлаасаа	-10.8447
▁далан	-10.8447
▁Бөх	-10.8449
▁03	-10.8451
▁хийдэггүй	-10.8451
ОГ	-10.8451
▁сартай	-10.8454
Нада	-10.8455
▁Ир	-10.8455
▁БИ	-10.8456
▁тусламжийн	-10.8457
▁кк	-10.8457
▁хүлээлгэ	-10.8457
▁эмгэнэл	-10.8457
▁чимэг	-10.8458
▁байртай	-10.8459
▁бодлогоо	-10.846
▁хөгжлий	-10.846
▁Wi	-10.8461
▁хөөж	-10.8467
▁махан	-10.8467
Яг	-10.8473
▁тэтгэлэг	-10.8476
▁ухамсар	-10.8479
▁Фото	-10.848
▁шуурга	-10.8482
▁үзэгчид	-10.8484
▁Мор	-10.8484
br	-10.8486
▁сэтгүүлчд	-10.8486
▁эмэгтэйчүүдэд	-10.8487
▁хүрэхийн	-10.8487
▁даггүй	-10.8487
▁үүргийн	-10.8488
▁шийддэг	-10.8489
▁шинэчилсэн	-10.8489
▁алдаад	-10.8491
▁хөнд	-10.8494
▁хус	-10.8494
▁цугла	-10.8497
▁зурж	-10.8498
▁чихэр	-10.8501
▁залуугийн	-10.8502
▁дүгнэ	-10.8503
▁намры	-10.8503
▁иргэдээс	-10.8504
▁түрээсийн	-10.8506
▁доллараар	-10.8507
▁дараалал	-10.8507
чихвал	-10.8509
▁нураа	-10.8514
▁танилц	-10.8515
▁тэнцвэр	-10.8525
ak	-10.8526
▁буурах	-10.8527
▁илэрч	-10.8532
▁.......	-10.8535
▁Биеийн	-10.8536
ЭХ	-10.8536
▁Цай	-10.8539
ell	-10.854
▁хураах	-10.854
▁хороонд	-10.8543
▁мин	-10.8544
▁Фе	-10.8545
▁Sonin	-10.8549
▁өвчлөл	-10.8549
▁XNUMX	-10.8549
▁эзэлдэг	-10.855
▁төвшин	-10.8551
▁хүргэнэ	-10.8552
▁өгүүлсэн	-10.8552
▁Сон	-10.8553
▁сөн	-10.8555
▁ст	-10.8555
Хэрэв	-10.8555
▁үнс	-10.8555
▁192	-10.8556
▁тархины	-10.8557
▁шалтгаална	-10.8557
▁Al	-10.8558
▁US	-10.8559
оу	-10.8559
▁малчин	-10.856
▁ойлгодоггүй	-10.8561
▁заан	-10.8563
▁амжилтыг	-10.8566
▁экс	-10.8569
▁дам	-10.857
▁хувирга	-10.857
▁түмнээ	-10.8572
▁мэдрэмжийг	-10.8576
▁дөхө	-10.8582
▁ro	-10.8583
▁мэдэлд	-10.8584
▁Ахмад	-10.8587
ЭМ	-10.8588
фо	-10.8589
▁сексийн	-10.8591
▁эргүү	-10.8611
▁хийлгэ	-10.8612
▁газартай	-10.8613
▁Ертөнц	-10.8618
▁холбож	-10.8618
▁өвдөх	-10.8618
▁ТББ	-10.8618
▁хужаа	-10.8618
▁арчилгаа	-10.8619
▁салшгүй	-10.8619
▁ухаар	-10.862
шилт	-10.8621
▁оршиж	-10.8621
▁амжуул	-10.8623
▁May	-10.8623
▁арчи	-10.8625
▁2002	-10.8625
▁бэх	-10.8628
▁өгүүлэх	-10.863
▁дотроос	-10.8635
▁гэрэлт	-10.8635
▁гэгээн	-10.8636
▁нөхөрлөл	-10.8639
▁үүдэн	-10.8642
▁дутагдалтай	-10.8642
▁сонсогдож	-10.8644
▁шүүмжилж	-10.8649
▁Алс	-10.8649
▁ЫН	-10.8652
▁төгсөө	-10.8652
▁сонголтоо	-10.8658
▁Залуус	-10.8658
▁анхааралд	-10.8659
▁амтай	-10.8659
▁ангилалд	-10.8662
уйц	-10.8666
▁Жир	-10.8667
бер	-10.8669
эндээ	-10.8671
▁ресторан	-10.8675
▁хороолол	-10.8676
▁хандуул	-10.8679
луу	-10.8681
▁хоч	-10.8687
▁огцрох	-10.8688
▁зуслан	-10.8688
▁Баримт	-10.8688
▁ядарсан	-10.8689
▁хориглоно	-10.869
▁байцаалт	-10.869
тгэл	-10.869
▁тоглоомыг	-10.8691
▁шахалт	-10.8691
▁Пүрэв	-10.8691
лов	-10.8693
▁Хэвлэл	-10.8695
▁Ас	-10.8696
аврын	-10.8696
▁120	-10.8696
▁Хатуу	-10.8698
▁захиалах	-10.8698
▁бөөнөөр	-10.8699
уулагч	-10.87
▁этгээдүүд	-10.87
▁амласан	-10.8704
▁рок	-10.8705
▁дарсан	-10.8708
▁хаалг	-10.8708
▁гашуу	-10.8712
▁бодоогүй	-10.8713
pe	-10.8713
▁Тэрийг	-10.8715
▁судла	-10.8716
▁ашиглахыг	-10.8717
▁үнсэ	-10.872
▁замаа	-10.8723
▁Бөө	-10.8725
тнууд	-10.8726
▁Хог	-10.8726
▁зардл	-10.8728
▁өндөртэй	-10.8729
▁гэнэтийн	-10.8731
▁ням	-10.8731
▁оролц	-10.8736
▁авилга	-10.8736
▁лай	-10.8737
▁####	-10.8741
▁найруул	-10.8741
▁товло	-10.8746
▁авахаас	-10.8749
▁эрхэнд	-10.875
▁or	-10.8751
▁цөл	-10.8753
▁Дүү	-10.8755
по	-10.8756
▁Салбар	-10.8759
▁Оюутнууд	-10.8759
▁үүсдэг	-10.8759
▁үнэмшил	-10.8759
▁For	-10.876
▁Туркийн	-10.876
▁алдагдсан	-10.876
ack	-10.8763
▁шалтгаалан	-10.8764
▁орууллаа	-10.8766
▁атлаа	-10.8771
▁багтдаг	-10.8771
▁коммунист	-10.8772
▁давах	-10.8775
▁шийдлээ	-10.8776
▁үерхэ	-10.8778
▁туг	-10.8778
ide	-10.8778
▁цо	-10.8779
▁Үүр	-10.878
▁хаагчды	-10.8784
▁Петр	-10.8784
▁илтгэ	-10.8785
▁дүнгээр	-10.8787
▁Тусгаар	-10.8789
▁хорлох	-10.879
▁-2	-10.879
▁дэлгүүрт	-10.8792
▁сараар	-10.8792
▁өрсөлдө	-10.8795
▁өөрчлөлтүүд	-10.88
▁босоод	-10.8801
▁иш	-10.8806
▁Энхболд	-10.8806
ъё	-10.8807
▁ки	-10.8808
▁Нэгдүгээр	-10.8812
▁шүтэ	-10.8813
▁шивээс	-10.8815
▁хайгаа	-10.8817
▁мужи	-10.8818
▁гацаа	-10.8821
▁чана	-10.8822
▁Гүйцэтгэ	-10.8826
▁унаад	-10.8829
▁хөтлөх	-10.8829
▁доогуур	-10.8829
▁Үлдсэн	-10.883
▁болчихдог	-10.8833
ери	-10.8833
▁эргүүлэн	-10.8836
▁эдлэл	-10.8837
▁Шөний	-10.8837
▁шавьж	-10.8837
Эрдэнэбат	-10.8838
OS	-10.8841
▁журмаар	-10.8843
▁лөө	-10.8845
▁ахин	-10.8845
▁өгүүлж	-10.8846
▁сурагчдын	-10.885
▁хивс	-10.885
▁вакцины	-10.8852
▁дуулна	-10.8853
▁бүтээгдэхүүнүүд	-10.8856
▁үүлсэн	-10.8865
▁Аса	-10.8871
▁тамир	-10.8871
▁устгаж	-10.8873
one	-10.8873
▁Асуудл	-10.8873
▁идээд	-10.8876
▁дуусга	-10.8876
▁ra	-10.8884
лалт	-10.8886
▁эхлэхээс	-10.8887
▁сургалтанд	-10.8888
▁айсан	-10.8891
▁зөрчлий	-10.8891
▁Le	-10.8897
▁өргө	-10.89
▁Previous	-10.8901
▁франц	-10.8901
▁түрээслүүлнэ	-10.8901
▁хувьцааг	-10.8901
▁ээжийгээ	-10.8902
▁толгойг	-10.8903
▁дэлгэцийн	-10.8906
▁нэмээд	-10.8906
▁зэрэглэл	-10.8908
үүлэгч	-10.8909
▁болсны	-10.891
▁алдаатай	-10.8911
▁хамгаална	-10.8911
▁хэвш	-10.8912
▁аминд	-10.8913
ӨР	-10.8914
УС	-10.8917
▁Жу	-10.8923
▁захирагч	-10.8926
дгай	-10.8934
▁дууссаны	-10.8935
▁овог	-10.8938
op	-10.8951
▁жаргалыг	-10.8956
өнө	-10.8959
▁мө	-10.8959
▁хэрэглээнд	-10.8961
▁бууда	-10.897
▁баталгаатай	-10.8971
▁үдэш	-10.8971
▁Евро	-10.8972
▁Стандарт	-10.8973
▁паспорт	-10.8973
▁шүүлтүүр	-10.8973
▁чадамж	-10.8974
▁авъяас	-10.8974
▁залги	-10.8975
▁бохирдлы	-10.8975
▁Бямба	-10.8976
▁хаячих	-10.8979
▁хуваа	-10.8981
▁Ри	-10.8983
▁амьдарна	-10.8987
▁Найрамда	-10.8988
▁нийлүүлэх	-10.899
▁үнээ	-10.8992
▁нэгтгэх	-10.8993
▁бодисын	-10.8995
▁учиргүй	-10.8997
lu	-10.8999
огоо	-10.8999
болд	-10.9
▁зайтай	-10.9005
▁єєр	-10.9014
АД	-10.9014
▁мэргэжилтэй	-10.902
ӨӨ	-10.902
▁тоглолтонд	-10.9022
▁дайнд	-10.9024
▁шингэ	-10.903
▁гамшиг	-10.9032
▁газруудад	-10.9033
уулан	-10.9038
▁!!!!	-10.904
▁уя	-10.9042
▁хүлээнэ	-10.9043
▁шээ	-10.9043
▁танилцуул	-10.9044
▁Хама	-10.9045
icrosoft	-10.9045
▁өнөөдрөөс	-10.9045
▁линк	-10.9045
▁өнгөрлөө	-10.9045
лөн	-10.9045
▁төслөө	-10.9045
▁төлнө	-10.9046
▁тоохгүй	-10.9047
▁босгох	-10.9049
▁танилцууллаа	-10.9049
▁үйлдвэрлэдэг	-10.9051
▁аргачлал	-10.9051
оро	-10.9054
Сайн	-10.9055
▁кинонууд	-10.9056
▁хөгжөө	-10.9059
аруухан	-10.9063
end	-10.9063
▁98	-10.9065
▁адилгүй	-10.9066
▁орлоготой	-10.9068
▁эргэх	-10.9069
▁гүйцэтгэгч	-10.9074
▁үеийнхэн	-10.9075
▁хийхийн	-10.9079
▁Төрөл	-10.908
▁хэрэглээг	-10.9089
▁бэлд	-10.9089
▁Донал	-10.9097
▁бүртгэлтэй	-10.9099
▁бичил	-10.9109
үлхүүр	-10.911
рин	-10.9113
▁болгоны	-10.9113
▁академи	-10.9118
▁ХӨСҮТ	-10.9118
▁Филиппин	-10.9118
▁хурдацтай	-10.9118
▁ядах	-10.912
▁1999	-10.9121
▁Америкчууд	-10.9122
▁яддаг	-10.9126
▁цуцлах	-10.9126
▁эвсэл	-10.9127
▁цуглар	-10.9129
▁яамнаас	-10.913
▁анзаарсан	-10.9131
▁тусалсан	-10.9132
▁Мин	-10.9134
▁хорло	-10.9135
▁5000	-10.9136
▁үүдээ	-10.9138
▁үйлдвэрүүд	-10.9139
▁эхлүүлж	-10.914
▁(2	-10.9142
▁ашиглахад	-10.9143
▁анхнаас	-10.9148
▁ва	-10.9149
▁Сал	-10.915
▁хувцсаа	-10.9155
▁төвлөр	-10.9157
▁тохиролцоо	-10.9158
▁хүнийхээ	-10.9159
ess	-10.916
▁54	-10.9164
▁Халх	-10.9165
▁57	-10.9169
▁салгах	-10.9169
лэ	-10.9173
▁ак	-10.9174
▁Ку	-10.9179
▁дүүс	-10.9184
▁осолд	-10.9185
▁Боломж	-10.9187
тро	-10.9188
▁Гэгээн	-10.9188
▁үзэсгэлэнг	-10.9189
▁Сөүл	-10.9192
▁дэвшиж	-10.9192
ожим	-10.9192
▁Хяналт	-10.9192
▁дуулиан	-10.9192
▁гүрэн	-10.9192
▁оролдох	-10.9192
▁хуваагда	-10.9193
▁1996	-10.9194
▁олдох	-10.9195
▁Завхан	-10.9196
▁баталгаажуулах	-10.9197
▁аялж	-10.9201
ment	-10.9204
анг	-10.9204
▁хараал	-10.9205
▁бичгээр	-10.9206
▁Алтай	-10.9211
▁царайг	-10.9211
▁төрчид	-10.9212
▁ХК	-10.9216
▁боддоггүй	-10.9219
▁хөндлөнг	-10.9222
иб	-10.9223
▁тэвчээр	-10.9226
▁ерөөл	-10.9229
▁бичигдэ	-10.923
▁14-	-10.9233
▁тэжээ	-10.9237
▁замууд	-10.9239
▁хуваалц	-10.924
▁бичигт	-10.924
▁ээжүүд	-10.9241
▁салгаж	-10.9246
уууу	-10.9249
▁бөөр	-10.9251
▁даавуу	-10.9265
▁Техник	-10.9266
▁Автобус	-10.9266
▁өвөг	-10.9266
▁амьсгаа	-10.9266
▁нөхцлий	-10.9266
▁график	-10.9266
▁ЭМЯ	-10.9266
▁роман	-10.9266
▁будалт	-10.9267
▁дуусаагүй	-10.9267
▁хамаатан	-10.9267
▁нойтон	-10.9267
▁Италийн	-10.9268
▁улмаар	-10.927
▁ямаа	-10.927
▁зориулалтаар	-10.9272
▁томил	-10.928
▁маг	-10.9281
▁урамшууллы	-10.9283
▁Төрсөн	-10.9284
▁хүндэт	-10.9285
▁чүүд	-10.9287
▁агаарт	-10.9297
▁зуурын	-10.93
▁шанал	-10.9305
▁дүгнэлтийг	-10.9306
▁тэх	-10.9308
▁чанарууд	-10.9309
аяа	-10.931
▁кар	-10.9311
▁нуугд	-10.9311
▁өнгөрөөх	-10.9312
▁машинтай	-10.9314
▁төлөвлөгөөний	-10.9318
▁хаалгаа	-10.9318
▁доошгүй	-10.932
▁гарахыг	-10.9321
▁шийдвэрээ	-10.9323
▁хорвоог	-10.9324
▁хайл	-10.9325
▁бишээ	-10.9331
▁Хурд	-10.9331
лэгч	-10.9334
▁нийлүүлэгч	-10.9338
▁Хугацаа	-10.934
▁генерал	-10.934
▁суудлын	-10.934
▁үнэлдэг	-10.934
▁өмсөгч	-10.9341
▁диск	-10.9341
▁Уурхай	-10.9341
лер	-10.9341
▁сонирхлын	-10.9342
▁сансар	-10.9342
▁үлдээж	-10.9343
▁мэргэшсэн	-10.9343
▁Янз	-10.9344
▁үүсгэсэн	-10.9345
▁юугаа	-10.9348
▁хаяад	-10.9348
▁хүртэж	-10.935
▁начин	-10.9351
&	-10.9352
Намайг	-10.9352
▁үзэгч	-10.9354
▁en	-10.936
▁ойд	-10.9362
▁хялбархан	-10.9372
▁хаягаар	-10.9372
▁илэрхийл	-10.9374
▁Баатар	-10.9375
▁солилцо	-10.9376
▁нууцыг	-10.9381
▁ри	-10.9383
▁Тэ	-10.9385
▁Ерөнхийлөгчид	-10.9387
▁64	-10.9395
▁тэргүү	-10.9397
▁ургуул	-10.9401
▁Го	-10.9402
▁Сэтгүүлч	-10.9404
▁оросууд	-10.9405
▁тамга	-10.9406
▁гарсны	-10.9407
▁тайза	-10.9414
▁Ардчилал	-10.9415
▁онгойлго	-10.9415
▁анагаах	-10.9416
рваннэгдүгээр	-10.9416
▁ахиц	-10.9416
▁хомсдол	-10.9416
▁инээмсэглэ	-10.9417
▁хоригло	-10.9417
▁хэлэлцэнэ	-10.9418
▁аварч	-10.9418
▁Ираны	-10.9421
▁мөхө	-10.9421
▁харагдаад	-10.9422
▁ярив	-10.9422
▁Отгон	-10.9428
Зориг	-10.9428
хоёрдугаар	-10.9428
оогүй	-10.9429
▁шүдний	-10.9433
▁залбирч	-10.9433
▁хүсээд	-10.9433
▁хойноос	-10.9434
▁нийтээр	-10.9434
▁удирдан	-10.9435
▁хэрэглэхгүй	-10.9437
▁шийдлий	-10.944
▁зэс	-10.944
▁солилцоо	-10.9443
▁гунигтай	-10.9445
▁сануулж	-10.9446
жүүлэх	-10.945
▁бизнест	-10.945
▁харда	-10.946
▁лог	-10.9462
▁тарга	-10.9464
▁зү	-10.9464
▁дэвш	-10.9466
▁Цэцэг	-10.9466
▁ортой	-10.9467
▁хувцасны	-10.9468
▁авар	-10.947
▁харахаар	-10.947
▁тулж	-10.9476
ынхоо	-10.9477
▁гэснээ	-10.9483
▁оронч	-10.9483
▁ахмадууд	-10.9485
▁арслан	-10.9485
▁ом	-10.9487
▁next	-10.9491
▁практик	-10.9491
▁физик	-10.9491
▁єг	-10.9491
▁хавдры	-10.9492
▁тэмдэглэгээ	-10.9492
▁аяллын	-10.9492
▁зохиосон	-10.9494
▁өмссөн	-10.9494
▁тогтооно	-10.9494
▁do	-10.9494
▁суга	-10.9494
екс	-10.9495
▁сэрэмж	-10.9496
▁Be	-10.9498
▁тулгардаг	-10.95
▁тэртээ	-10.9501
▁сургалтад	-10.9501
▁Кл	-10.9502
Амгалан	-10.9504
▁зүйрлэ	-10.9505
▁Ухаан	-10.9506
▁мөргө	-10.9512
▁түү	-10.9513
▁хойшлуул	-10.9515
▁бүтээгдэхүүнээ	-10.9516
▁элсэх	-10.9518
▁жам	-10.9518
▁тогтно	-10.9521
▁заль	-10.9522
▁туул	-10.9522
▁нүүж	-10.9526
▁гоёл	-10.9527
▁IP	-10.9528
▁To	-10.9535
▁цалинтай	-10.9537
▁өгө	-10.9538
▁3000	-10.9538
▁алаг	-10.9542
▁чихдаг	-10.9542
▁Зул	-10.9544
▁наран	-10.9546
▁ме	-10.9547
▁зайн	-10.9552
▁нэгнээ	-10.9553
эгддэг	-10.9555
▁хэмжээнээс	-10.9558
▁дараагаар	-10.956
лүүд	-10.9562
▁төлөвлө	-10.9563
▁гишгэ	-10.9565
▁сэргээж	-10.9565
▁өөдрөг	-10.9568
▁жүжг	-10.9568
▁Гагц	-10.9568
▁бэлчээр	-10.9568
▁сэтгэгдлээ	-10.9568
▁зориуд	-10.9568
▁шудрага	-10.9569
▁По	-10.9569
▁санагдлаа	-10.957
if	-10.9571
▁орчихсон	-10.9572
▁барилдах	-10.9573
они	-10.9574
▁гэрлэсэн	-10.9575
▁баясгалан	-10.9575
▁нэвтэрч	-10.9577
▁мар	-10.9578
ью	-10.9579
▁авлигын	-10.958
▁цэгүүд	-10.9584
▁Африкт	-10.9584
ео	-10.9584
▁эрж	-10.9586
▁хоос	-10.9587
▁тунхагла	-10.9589
▁хэлтсийн	-10.9591
▁биетэй	-10.9592
▁22-	-10.9602
▁гэсний	-10.9605
▁лоо	-10.9607
▁Хос	-10.9615
▁Ру	-10.9615
▁Com	-10.9626
▁зээ	-10.9631
mp	-10.9631
▁li	-10.9635
олдуу	-10.9641
▁Шүүгч	-10.9643
па	-10.9643
▁анкет	-10.9645
▁дулаахан	-10.9645
▁сувилагч	-10.9645
▁ингэснээр	-10.9645
▁шимтгэл	-10.9645
▁бөмбөлөг	-10.9645
▁сонирхох	-10.9646
▁өнцгөөс	-10.9648
▁ялаа	-10.965
▁хуралдаж	-10.965
▁шилжсэн	-10.9653
da	-10.9653
▁зайлуулах	-10.9654
▁тархсан	-10.9656
▁санахгүй	-10.9657
▁Үйлдвэрлэл	-10.9658
Z	-10.9659
Үүл	-10.9659
▁Алдаа	-10.9659
▁Утаа	-10.966
▁хариуцлаг	-10.966
ru	-10.9664
▁тулгуур	-10.9665
▁дайрч	-10.9669
▁уралдаанд	-10.9672
▁авчихсан	-10.9673
▁дуулаад	-10.9675
▁зүтгэх	-10.9676
▁шалта	-10.9678
ЛЭГ	-10.9686
рөө	-10.9687
▁маягийн	-10.9688
▁гуравда	-10.9696
▁Тэх	-10.9696
▁гаригийн	-10.9697
цгаа	-10.9697
▁гаран	-10.9698
▁ани	-10.9701
▁болохоо	-10.9701
▁тагнуулын	-10.9705
der	-10.9709
▁томилогдо	-10.971
▁шинэлэг	-10.9712
▁нэгжийн	-10.9712
▁засч	-10.9713
ух	-10.9714
ЭГ	-10.9714
▁авсны	-10.9714
▁түнш	-10.9718
▁усаар	-10.9719
▁зоос	-10.972
▁Бусдыг	-10.9721
▁Парламент	-10.9722
▁бооцоо	-10.9722
▁Өмнөговь	-10.9722
▁өгөгдлийг	-10.9722
▁Дөнгөж	-10.9722
▁нөлөөлнө	-10.9722
▁парк	-10.9722
▁Женко	-10.9722
▁дижи	-10.9723
▁Хөгжим	-10.9724
▁1998	-10.9724
▁Цөм	-10.9725
▁56	-10.9726
▁бүжгий	-10.9726
▁Ганцаараа	-10.9727
▁ух	-10.9728
▁заадаг	-10.9731
▁толбо	-10.9732
▁сэтгүүлчид	-10.9736
Шаардлагатай	-10.9737
Очир	-10.9737
▁тагнуул	-10.9739
▁Зав	-10.974
▁бүтэлгүйт	-10.9743
▁цахимаар	-10.9743
▁зөөл	-10.9744
ty	-10.9749
▁сонины	-10.975
фф	-10.975
▁өвчнийг	-10.9752
▁хөгжүүл	-10.9753
эе	-10.9754
▁өөрчил	-10.9754
▁лагдсан	-10.9761
▁Библий	-10.9767
▁алдалгүй	-10.9767
▁харьяа	-10.9773
ХБ	-10.9777
▁тавилга	-10.9781
лэдэг	-10.9781
▁нэгдлий	-10.9789
▁амла	-10.9791
▁Вэб	-10.9795
▁тодруул	-10.9796
▁лүү	-10.98
▁Говь	-10.98
▁Мянга	-10.98
▁байшингийн	-10.98
▁сэтгэхүй	-10.98
▁угсаа	-10.9801
▁тээрэмдэх	-10.9801
▁Хааяа	-10.9801
▁зэвсэгт	-10.9802
▁III	-10.9803
▁зүүх	-10.9803
▁бахархдаг	-10.9803
▁Чан	-10.9805
▁4:	-10.9806
▁такси	-10.9806
▁үйлчлүүлэгчид	-10.9808
▁дотооддоо	-10.981
▁Архив	-10.9812
▁хүсэлтээр	-10.9813
ain	-10.9814
▁бариа	-10.9816
▁хүчинтэй	-10.9817
▁илрүүлэх	-10.9819
АВ	-10.9821
▁эсэргүүцэл	-10.9822
▁учруул	-10.9823
son	-10.9827
▁шатахуун	-10.9828
▁ордын	-10.9832
▁шаард	-10.9832
▁зардлаа	-10.9833
ото	-10.9836
▁зөвлө	-10.9838
▁унтраах	-10.9844
▁мор	-10.9844
▁амс	-10.9846
▁мэдэгдл	-10.985
▁хандуулж	-10.9853
▁Германд	-10.9853
▁тогто	-10.9855
▁гадагш	-10.9855
▁залга	-10.9858
▁аваас	-10.9861
▁гишүүнтэй	-10.9862
▁зу	-10.9863
▁ширээн	-10.9863
▁үндсэндээ	-10.9863
▁дад	-10.9868
▁гүйж	-10.9869
de	-10.9873
▁загварууд	-10.9877
▁лэл	-10.9878
▁мөрөөдлөө	-10.9879
▁дамжуулагч	-10.9879
рьсан	-10.9881
▁Чанар	-10.9882
▁агшин	-10.9882
▁суугчид	-10.9883
▁билэг	-10.9884
▁нийц	-10.9884
▁Хэргий	-10.9886
▁тойргийн	-10.9893
ung	-10.9893
▁ви	-10.9895
▁халх	-10.9897
▁мэдээлэх	-10.9897
▁явчихсан	-10.9898
▁албаныхан	-10.9899
▁хэлхээ	-10.9901
▁луулах	-10.9905
чихвол	-10.9907
▁хүрээний	-10.991
▁1.5	-10.9915
,5	-10.9915
▁наадмаа	-10.9918
▁загна	-10.9919
Аав	-10.992
▁ХХ	-10.9925
▁Нүүрс	-10.9926
▁Өв	-10.9928
▁нуудыг	-10.9929
▁ширтэ	-10.993
▁хөлөө	-10.9931
▁Үнэгүй	-10.9935
▁Кэ	-10.9943
▁хаасан	-10.9946
▁авалтын	-10.9946
▁Буу	-10.9947
▁Тайланд	-10.9947
▁эмэгтэйг	-10.9948
▁ТА	-10.9949
▁дансны	-10.9956
▁заал	-10.9956
▁Автомашин	-10.9958
▁Хувцас	-10.9958
▁бүдүүлэг	-10.9958
▁сөргөө	-10.9958
▁томьёо	-10.9958
▁оролцохгүй	-10.9959
▁сонсогч	-10.9959
▁илэрхийлье	-10.9959
▁өмсдөг	-10.9959
▁үзэмж	-10.9959
▁америкчууд	-10.996
▁эрэгтэйчүүд	-10.996
▁аятайхан	-10.9961
▁Тоглоомын	-10.9961
▁оруулагчид	-10.9962
▁золго	-10.9962
▁команд	-10.9962
хэвчлэн	-10.9963
▁төсөөлөл	-10.9964
▁больж	-10.9965
▁улстөрчид	-10.9965
▁Харри	-10.9969
▁хэрэгжүүлсэн	-10.9969
▁Насанд	-10.9972
▁нийгэмлэг	-10.9974
▁ааа	-10.9976
▁байраа	-10.9977
өм	-10.9977
▁сныг	-10.9978
▁Do	-10.9978
▁буцаа	-10.9982
▁гадагшаа	-10.9982
▁Гү	-10.9982
▁Билл	-10.9987
▁ашигла	-10.9993
▁хариуцлагыг	-10.9995
▁Сонго	-10.9995
▁чадвараа	-10.9995
▁Хэв	-10.9998
▁La	-10.9998
▁цав	-11.0002
▁өл	-11.0004
▁заваа	-11.0009
▁алддаг	-11.0011
▁la	-11.0013
▁1990-	-11.0014
▁охидын	-11.0017
▁жав	-11.0021
▁ажиглаж	-11.0021
▁байсны	-11.0025
▁хүйс	-11.0027
▁мэр	-11.0035
▁масс	-11.0037
▁үйлчлүүл	-11.0038
▁Вьетнам	-11.0038
▁градус	-11.0038
▁мэндчилгээ	-11.0038
▁Дэлгүүр	-11.0038
▁орлогыг	-11.0038
▁өвдөж	-11.0038
▁албыг	-11.0038
▁Барилга	-11.0039
▁хуулинд	-11.0039
▁мэдэгдэв	-11.0039
▁бардам	-11.0039
▁элсэлт	-11.004
▁хүмүүн	-11.004
уз	-11.0042
▁гомдлы	-11.0042
▁баярласан	-11.0044
▁гараараа	-11.0045
▁чадварлаг	-11.0047
▁компьютерийн	-11.0048
ight	-11.0049
han	-11.0051
▁үзүүлэлтүүд	-11.0052
▁болноо	-11.0053
▁тэмдг	-11.0056
▁ээжийнхээ	-11.0057
▁нэмэгдүүлж	-11.0057
▁снаас	-11.0058
эгдэж	-11.0061
▁хязгааргүй	-11.0062
▁ра	-11.0066
▁Тэмцээн	-11.007
▁нэвтр	-11.0072
▁товчийг	-11.0075
▁Гүн	-11.0077
▁сангаас	-11.0079
▁Зург	-11.008
▁дэвшүүлж	-11.008
▁хөгжүүлж	-11.0085
▁байрлалтай	-11.0086
▁өөдөөс	-11.0087
▁700	-11.0087
▁тарьж	-11.0088
рэг	-11.0089
ААР	-11.0091
▁сонгогчды	-11.0096
od	-11.0097
▁Хоёрдугаар	-11.0097
тол	-11.0098
▁санадаг	-11.0099
▁өрийн	-11.0101
▁зэсийн	-11.0114
▁Хүүхдий	-11.0116
▁шууданг	-11.0118
▁Зөвлөгөө	-11.0119
▁Гайхалтай	-11.0119
▁далбаа	-11.0119
▁голомт	-11.0119
▁Чех	-11.0119
▁Бүртгэл	-11.012
▁бодъё	-11.012
▁оролцуулах	-11.0125
▁шийджээ	-11.0125
ЛТ	-11.0127
▁эрсдл	-11.0127
со	-11.0128
▁уйлах	-11.0129
▁гэсээр	-11.0131
сноор	-11.0131
▁хийснээр	-11.0131
▁явагдана	-11.0137
▁Дор	-11.0138
▁хөн	-11.0138
▁тэгэхээр	-11.0143
ант	-11.0143
▁дэмжихгүй	-11.0144
▁66	-11.0146
▁гишүүдэд	-11.0147
▁аяндаа	-11.015
▁цуглуулж	-11.0151
▁талт	-11.0153
▁зориулалтын	-11.0153
▁зайлсхий	-11.0166
дмэл	-11.0169
▁номонд	-11.0169
▁үзэхгүй	-11.017
▁шүүлт	-11.0172
▁ихэнхи	-11.0173
▁амьдралтай	-11.0173
▁олжээ	-11.0174
▁лаагүй	-11.0178
▁ханга	-11.0182
▁Түрүү	-11.0183
вер	-11.0185
▁харьца	-11.0185
члал	-11.0187
пп	-11.019
▁зэрэгтэй	-11.0193
▁бос	-11.0195
▁учирч	-11.0199
▁аялгуу	-11.02
▁тайвшир	-11.02
▁СЕХ	-11.02
▁гүрний	-11.02
▁гаргаагүй	-11.0201
▁уулзана	-11.0202
▁гүйцэтгэнэ	-11.0202
▁хөнөөсөн	-11.0202
▁ZA	-11.0203
▁хэвшил	-11.0204
далгүй	-11.0205
▁хобби	-11.0207
▁at	-11.0207
▁үйлдлээ	-11.0208
▁даган	-11.0211
▁гаргав	-11.0213
▁us	-11.0213
▁байшинд	-11.0215
ѳѳ	-11.0215
▁шүүдээ	-11.0216
▁Бур	-11.0218
▁анзаарч	-11.0219
Улс	-11.0219
▁суулгасан	-11.0221
▁тахиа	-11.0224
▁Хийх	-11.0224
лэв	-11.0224
ab	-11.0228
▁197	-11.0229
▁баривчла	-11.0236
▁хэс	-11.0238
▁цэвэрлэж	-11.0238
▁хүрээлэнг	-11.0239
Ма	-11.0239
ft	-11.0241
▁хүрээтэй	-11.0244
▁ОР	-11.0244
▁Дэ	-11.0247
▁судалгаанд	-11.0247
▁заавры	-11.025
▁Хариу	-11.0252
▁инд	-11.026
▁тогтоожээ	-11.0261
▁багтаан	-11.0262
▁Тайван	-11.0266
▁Ажлаа	-11.0268
▁ажилчин	-11.0269
▁нөх	-11.0271
▁it	-11.0273
1-2	-11.0274
▁тайлж	-11.0274
ИС	-11.0276
▁хонгил	-11.0282
▁Эмнэлг	-11.0282
▁тооцогддог	-11.0282
start	-11.0282
▁хамаардаг	-11.0282
▁түгжрэл	-11.0282
▁Дотор	-11.0283
▁шалгарсан	-11.0283
▁төсвий	-11.0283
▁олоогүй	-11.0283
▁хамгааллын	-11.0284
▁түүгээр	-11.0285
▁орчуулга	-11.0285
▁нэмэргүй	-11.0286
уулъя	-11.0286
▁арьсны	-11.0288
▁гөлөг	-11.0288
▁хэлэлцсэн	-11.0288
▁санаачил	-11.0288
▁аймшигт	-11.0289
▁өнгөөр	-11.0289
▁орчимд	-11.0293
▁хөнөөл	-11.0293
▁сүүлчээ	-11.0294
▁эзэд	-11.0295
▁вэл	-11.0302
▁Ma	-11.0304
▁боломжит	-11.0305
▁алдчих	-11.0306
▁ихэр	-11.0308
гал	-11.0308
▁сонсгол	-11.0309
▁тунг	-11.0311
▁ск	-11.0319
▁сүүлдээ	-11.032
▁сургуулиас	-11.0321
▁Хав	-11.0324
▁уурхайд	-11.0324
▁халаас	-11.0325
▁инээж	-11.0326
▁ойг	-11.0329
▁Ээ	-11.0337
▁дамжи	-11.0338
▁хайлт	-11.0339
▁шивнэ	-11.0343
▁охидууд	-11.0346
ud	-11.0347
▁Не	-11.0359
▁эхлэхэд	-11.0364
RMEDEE	-11.0365
▁НИТХ	-11.0365
▁учрах	-11.0365
▁Үйлчлүүлэгч	-11.0365
▁хандлагыг	-11.0365
▁бүртгэх	-11.0365
▁удирдамж	-11.0365
▁Уулзалт	-11.0365
▁хошин	-11.0365
▁Пе	-11.0366
▁бэхжүүлэх	-11.0366
▁иргэншил	-11.0369
▁хоёул	-11.0371
▁оролцогчид	-11.0372
▁бахарха	-11.0373
ыхоо	-11.0384
эк	-11.0385
мөсөн	-11.0385
▁мөрөөдөж	-11.0386
▁аргаа	-11.0389
▁Украины	-11.0391
▁Лав	-11.0391
▁харагд	-11.0392
▁зөр	-11.0399
▁эргэлзээ	-11.04
▁59	-11.0402
лсон	-11.0405
▁бүртээ	-11.041
▁Фи	-11.0411
адал	-11.0411
▁малчи	-11.0414
▁барь	-11.0415
▁лаарай	-11.0418
▁шатахууны	-11.0419
▁Зи	-11.0419
▁лана	-11.0419
▁таар	-11.0421
▁буусан	-11.0424
▁дө	-11.0426
▁гэрлээ	-11.0427
▁жинг	-11.0429
▁лэж	-11.0432
▁захиалгы	-11.0434
▁Тэгэхгүй	-11.0435
▁сэргэ	-11.0436
▁мэргэжл	-11.0437
▁бэр	-11.0438
ова	-11.0438
лээгүй	-11.044
ga	-11.0441
лли	-11.0443
▁хоолонд	-11.0443
▁зугтаа	-11.0445
▁Ги	-11.0446
цгаая	-11.0446
▁цусны	-11.0446
▁Израйл	-11.0448
▁Сонирхолтой	-11.0448
▁үүлэх	-11.0449
▁мастер	-11.0449
▁мөрөө	-11.0449
▁хүргэлт	-11.045
▁dur	-11.045
▁тогтоогдсон	-11.0451
▁үлддэг	-11.0452
▁сэрэх	-11.0453
▁Mo	-11.0455
▁уулзлаа	-11.0457
▁өсөн	-11.0457
▁Адам	-11.0457
▁төсөөлөх	-11.0458
▁алдлаа	-11.0458
▁гэгддэг	-11.0459
▁тэндээ	-11.0459
▁дэвшигчид	-11.046
▁хамруулах	-11.0461
▁чим	-11.0462
▁дэвшүүлэх	-11.0462
▁амжилтын	-11.0463
▁Зуу	-11.0465
▁шалгуул	-11.0466
ОД	-11.0468
####	-11.0469
▁яриагүй	-11.0471
▁таамаглал	-11.0472
▁өртөж	-11.0472
▁гарчиг	-11.0474
▁алсын	-11.0474
▁Дон	-11.0474
▁ba	-11.0475
▁зүтгэ	-11.0475
▁дуугаар	-11.0475
▁эргэлдэ	-11.0478
▁бясалгал	-11.0478
▁тооц	-11.0485
▁тиймээ	-11.0486
▁ку	-11.0491
▁баярлах	-11.0492
▁гайхаа	-11.0492
▁Суу	-11.0498
▁Өрх	-11.0499
▁алдан	-11.0499
▁суртал	-11.05
▁Хага	-11.0502
▁хохироо	-11.0502
▁ис	-11.0504
▁энергий	-11.0505
▁мөргөл	-11.051
▁нэмр	-11.0512
▁ласан	-11.0513
▁52	-11.0514
▁гаал	-11.0515
▁харамсах	-11.0516
▁оруулагч	-11.0519
▁болсноор	-11.052
▁шаар	-11.0523
ОМ	-11.0523
▁шилжүүлж	-11.0525
▁хийл	-11.0526
▁занг	-11.0528
ъ	-11.053
▁судал	-11.053
ҥ	-11.0532
▁Телевиз	-11.0532
▁үзүүлбэр	-11.0532
▁тєр	-11.0532
▁Үзэсгэлэн	-11.0532
▁бурхны	-11.0532
▁Давхар	-11.0532
▁өшөө	-11.0533
▁[[	-11.0533
▁шилжиж	-11.0534
▁тооцно	-11.0534
▁залбирал	-11.0536
▁]]	-11.0536
▁хүргүүлсэн	-11.054
▁луулсан	-11.0544
▁ли	-11.0546
▁ашиггүй	-11.0547
ear	-11.0549
▁дэлгүүрүүд	-11.055
▁авмаар	-11.0551
▁гурв	-11.0551
▁яриагаа	-11.0551
▁болчихож	-11.0554
▁харахыг	-11.0555
▁ашиглаад	-11.0561
▁сагсан	-11.0562
▁сэ	-11.0562
▁лэ	-11.0568
-10	-11.0571
▁цад	-11.0572
▁хурлаар	-11.0583
▁тэвчээртэй	-11.0583
лсэн	-11.0583
мэн	-11.0586
▁нохойн	-11.059
Юу	-11.059
▁бодогдо	-11.059
▁инээ	-11.0594
▁зохиож	-11.0599
▁хотхонд	-11.06
▁одды	-11.0602
ладаг	-11.0607
▁сний	-11.0611
Бидний	-11.0611
▁Мань	-11.0612
▁Android	-11.0617
▁Сонгино	-11.0617
▁Систем	-11.0617
▁найрсаг	-11.0617
▁механик	-11.0617
▁бүрдэнэ	-11.0617
▁товчлуур	-11.0617
▁бөгс	-11.0617
▁Жорж	-11.0617
ust	-11.0619
▁Райли	-11.062
▁Ирээдүйд	-11.062
▁шү	-11.0622
шир	-11.0622
▁дурла	-11.0624
▁тэмдэглэсэ	-11.0625
▁тооцоолж	-11.0626
▁захиалгаа	-11.0626
▁баримталдаг	-11.0627
▁Сам	-11.0632
▁хүнтэйгээ	-11.0632
▁тохируул	-11.0636
▁олгохгүй	-11.0637
▁гайхсан	-11.0637
▁хориотой	-11.0639
▁Британид	-11.0639
▁Тамг	-11.0645
▁бичлэгүүд	-11.0645
▁үзүүлэгч	-11.0646
▁тавьчих	-11.0647
▁цэнгэл	-11.065
▁Жам	-11.065
▁Доорх	-11.065
▁Цэн	-11.0651
▁ийх	-11.0651
▁баривчил	-11.0652
▁тнууд	-11.0652
▁сургаж	-11.0656
ууштай	-11.0657
▁цээр	-11.0657
▁тух	-11.0658
▁хөдөлмөрлө	-11.0663
▁төрөө	-11.0664
▁Дай	-11.0666
▁олдо	-11.0668
▁угаа	-11.0668
▁хязгаарлах	-11.0669
▁юугаараа	-11.067
▁машинаар	-11.0673
▁хэдийгээр	-11.0677
▁түмнээс	-11.0679
▁Лхагва	-11.0681
▁амнаас	-11.0681
▁ѳ	-11.0684
▁уулзаад	-11.0684
▁снээр	-11.0688
▁хуудасны	-11.0689
▁батлагд	-11.0693
▁хорьж	-11.0694
▁МОНГОЛ	-11.0702
▁Шийдвэр	-11.0702
▁фракц	-11.0702
▁шүршигч	-11.0702
▁эзэмшиж	-11.0702
▁огноо	-11.0702
▁санамж	-11.0703
▁УОК	-11.0703
▁Тамир	-11.0704
▁Хэнд	-11.0704
▁янзаар	-11.0706
чим	-11.0706
иуд	-11.0706
▁авчирдаг	-11.0707
▁өндөрлөг	-11.0709
▁гэдгээс	-11.071
▁танилцуулна	-11.0711
▁олныг	-11.0714
▁Барууны	-11.0714
▁үзүүлээ	-11.0715
щ	-11.0718
▁банкнаас	-11.0718
▁харуулдаг	-11.072
▁алдаагүй	-11.072
иан	-11.0721
▁гахай	-11.0725
▁татна	-11.0726
ass	-11.0729
▁үнэний	-11.0729
▁тэргүүлэгч	-11.0729
▁гял	-11.0739
▁блогт	-11.0739
▁хавч	-11.0745
▁Ашиг	-11.0748
▁учруулж	-11.0752
▁An	-11.0753
▁амлаж	-11.0754
▁болъё	-11.0755
лгийн	-11.0757
▁хуц	-11.0757
▁бухимд	-11.0762
▁тарх	-11.0767
▁хоёроос	-11.0769
▁тааламжтай	-11.077
өс	-11.0772
▁St	-11.0774
һ	-11.0775
▁гу	-11.0776
▁хэвлий	-11.0778
▁банкин	-11.0778
▁Чад	-11.078
охь	-11.0785
▁эелдэг	-11.0789
▁Баабар	-11.0789
▁Баянгол	-11.0789
▁харгис	-11.0789
▁хичээгээрэй	-11.0789
▁Ухаалаг	-11.0789
▁Сауд	-11.079
▁Read	-11.079
▁XX	-11.079
▁хуваалцаж	-11.079
▁мартаарай	-11.079
▁харъяа	-11.079
▁очлоо	-11.0792
▁нисдэг	-11.0792
▁торгууль	-11.0792
▁нур	-11.0794
нгараг	-11.0794
▁зөрч	-11.0796
▁гун	-11.0796
▁орвол	-11.0796
▁таваг	-11.0799
▁хэсгээр	-11.0799
▁аймгаа	-11.08
▁арилга	-11.08
▁AM	-11.0801
▁аман	-11.0803
▁дангаараа	-11.0804
ейн	-11.0805
▁төлөөлөгчдий	-11.0807
▁Урлаг	-11.0808
Төрийн	-11.0813
▁програмууд	-11.0815
▁асаа	-11.0816
▁оршино	-11.0818
▁эндээ	-11.082
▁ичээ	-11.0826
▁цаашд	-11.0826
▁хувилбарууд	-11.0828
▁лэв	-11.0829
▁захи	-11.0829
▁хорвоод	-11.0837
▁Мө	-11.0838
▁дэлгэр	-11.084
кт	-11.0845
ау	-11.0848
▁үгтэй	-11.085
▁аялалд	-11.0854
▁Лу	-11.0854
▁морин	-11.0856
▁Кол	-11.086
▁чадалгүй	-11.0865
▁гуйсан	-11.0865
▁53	-11.0866
агдаж	-11.0867
▁чигт	-11.0868
▁хуурч	-11.087
▁хилээ	-11.0871
▁бодоо	-11.0873
▁ажлуудыг	-11.0873
▁Төсөв	-11.0876
▁алуурчин	-11.0876
▁хуримтлал	-11.0876
▁Ковид	-11.0876
▁ойлгоогүй	-11.0876
▁Бичлэг	-11.0876
▁шүүгээ	-11.0876
▁байгуулагдаж	-11.0876
▁тохирч	-11.0877
▁тавиул	-11.0878
▁мөргөлдөөн	-11.0878
▁хүчирхийллий	-11.0878
▁пост	-11.0878
▁хэнээс	-11.0879
▁эмчлүүл	-11.0879
▁эвсл	-11.088
▁Хүчи	-11.0881
цгооё	-11.0884
▁уялдаа	-11.0884
▁яаа	-11.0887
▁хийчихсэн	-11.089
▁устгасан	-11.0892
▁бутлуурыг	-11.0893
▁өрөөндөө	-11.0895
▁Ул	-11.0896
▁морины	-11.0904
▁Түрээс	-11.0904
▁гийг	-11.0907
▁анхааруулж	-11.0912
▁хүүхэлдэй	-11.0919
▁баяс	-11.092
▁Тархи	-11.0921
▁тусгаж	-11.0925
▁="	-11.0928
▁валютын	-11.093
▁зэрэгт	-11.0931
▁өргөдл	-11.0934
▁цалингаа	-11.0939
▁гарууд	-11.0939
Дэлхийн	-11.0943
▁Сай	-11.0946
▁үүлж	-11.0947
луулж	-11.095
▁холбоог	-11.0953
▁этгээдийн	-11.0954
▁Ажилд	-11.0958
жүүлсэн	-11.096
ha	-11.0962
▁араншин	-11.0963
▁Хүссэн	-11.0963
▁бүтцийг	-11.0963
▁Хорвоо	-11.0963
▁ялгаварла	-11.0963
▁романтик	-11.0964
▁бичээрэй	-11.0964
▁үргэлжилсээр	-11.0964
▁Хурал	-11.0964
▁бетон	-11.0964
▁ирээрэй	-11.0965
▁нярай	-11.0966
▁хорхой	-11.0967
▁дэж	-11.0971
тур	-11.0972
▁Ну	-11.0973
▁шавар	-11.098
Эрдэнэт	-11.0981
▁заяаг	-11.0982
▁нутгаа	-11.0984
▁жуулчлал	-11.0986
▁өчнө	-11.0986
ation	-11.0988
ГҮЙ	-11.0988
▁амьдралаас	-11.0989
▁поп	-11.0989
▁зэвүүн	-11.099
▁инээдтэй	-11.0991
▁Дани	-11.0992
▁шах	-11.0992
▁цаанаас	-11.0992
▁хорь	-11.0995
▁Яам	-11.0996
og	-11.1001
▁хувцс	-11.1007
▁хэрэгтэн	-11.1007
▁урва	-11.1007
▁зарчмы	-11.1009
▁хувир	-11.1009
▁нөхөх	-11.1009
▁амжи	-11.101
30	-11.101
▁гарыг	-11.1014
▁танин	-11.1014
▁You	-11.1019
▁унага	-11.102
▁Хад	-11.1021
▁зүйлээр	-11.1025
▁сэрүүн	-11.1025
ван	-11.1026
уулна	-11.103
▁сөхө	-11.103
чихоод	-11.1033
▁зүрхэнд	-11.1033
▁хөрөнгөө	-11.1034
▁амьдра	-11.1038
▁Оно	-11.1043
яцхан	-11.105
▁te	-11.105
▁Дасгал	-11.105
▁тохиолдлууд	-11.1052
▁цемент	-11.1052
▁Налайх	-11.1052
▁хэргүүд	-11.1052
▁баавгай	-11.1053
▁содон	-11.1053
▁гаргагч	-11.1054
▁Нийтлэл	-11.1054
▁баярладаг	-11.1055
▁тооцсон	-11.1056
▁дэвшүүлсэн	-11.1056
▁ухаанд	-11.1057
▁-1	-11.1057
▁олноор	-11.1061
▁лэгдсэн	-11.1061
▁зөвшөөрөлгүй	-11.1062
▁идэвхитэй	-11.1063
▁утсы	-11.1065
▁өгүүлэл	-11.1065
▁андуур	-11.1065
▁цөө	-11.1065
▁металл	-11.1068
▁Чулуун	-11.1068
▁лекц	-11.1073
▁жаал	-11.1074
▁бууруулж	-11.1075
▁ne	-11.108
Анх	-11.1082
▁68	-11.1084
▁шороон	-11.1087
▁үрс	-11.1088
▁махны	-11.1089
▁евро	-11.1089
иф	-11.1094
▁завсарлага	-11.1095
▁санг	-11.1097
▁тохируулж	-11.11
дол	-11.11
улам	-11.1101
▁Токио	-11.1102
▁Обама	-11.1102
▁Ha	-11.1105
▁гарал	-11.1107
саг	-11.1107
▁зүйлтэй	-11.111
up	-11.1113
▁Гай	-11.1115
▁цэгт	-11.1115
▁хэрэгцээтэй	-11.1115
-1	-11.1116
гу	-11.1117
▁суугч	-11.1117
▁уурхайг	-11.1121
▁Зол	-11.1126
▁13-	-11.1126
▁бухимда	-11.1127
логч	-11.1128
▁үсний	-11.1128
тлээ	-11.1129
лоод	-11.113
▁Vi	-11.1135
▁нүдийг	-11.1137
!!	-11.1138
▁мөрөөддөг	-11.1141
▁блок	-11.1141
▁нандин	-11.1141
▁конвенц	-11.1141
▁Хувьцаа	-11.1141
▁хуулиуд	-11.1141
▁индекс	-11.1141
▁мухар	-11.1142
▁Салхи	-11.1143
▁морилно	-11.1143
▁1970	-11.1143
▁томилогдсон	-11.1143
▁зааг	-11.1143
▁олголт	-11.1144
▁жүжигчид	-11.1145
▁садан	-11.1148
▁гардуула	-11.1151
▁бодо	-11.1153
▁Twitter	-11.1153
▁удирдагчид	-11.1155
МН	-11.1155
▁эргэлзээтэй	-11.1157
▁шүүмжлэх	-11.1158
IN	-11.116
▁дурда	-11.116
▁аманд	-11.1162
▁хөтөлбөрүүд	-11.1162
▁төрлөөр	-11.1165
▁хөндө	-11.1167
▁дааж	-11.117
▁бодитоор	-11.1173
▁жингээ	-11.1177
▁соли	-11.1178
▁тайлбарыг	-11.118
▁сэтгэж	-11.1182
hu	-11.1185
▁ташаа	-11.1186
▁хавь	-11.1186
▁саванд	-11.1191
▁сонгогч	-11.1193
▁нүүдэл	-11.1198
▁нүдэн	-11.12
▁хэлэхийг	-11.1201
▁луулж	-11.1203
▁алаа	-11.1203
▁найраг	-11.1205
▁хууч	-11.1206
▁таамаг	-11.1206
▁байцаа	-11.1208
▁Жирэмсэ	-11.121
ice	-11.1212
▁даах	-11.1217
▁огцруул	-11.122
▁гүү	-11.1221
▁нууж	-11.1223
▁байрандаа	-11.1224
▁фа	-11.1225
▁мэдээлэлтэй	-11.1225
Удирдах	-11.1231
▁Хонконг	-11.1231
▁Ирланд	-11.1231
▁материалын	-11.1231
▁орчмы	-11.1231
▁лидер	-11.1232
▁боловсруулалт	-11.1232
▁Хурлын	-11.1233
▁лавлагаа	-11.1233
▁орлогч	-11.1233
▁дэмжээд	-11.1234
▁Саруул	-11.1234
▁дурлаж	-11.1234
▁угаагч	-11.1235
▁сайжирч	-11.1237
▁алим	-11.124
▁гэдсээр	-11.124
▁алдав	-11.124
▁дурьдсан	-11.1241
▁баас	-11.1242
▁хуультай	-11.1243
▁хагар	-11.1243
▁саарал	-11.1246
▁илэрхийлэл	-11.1248
мм	-11.1248
▁босч	-11.1249
▁зурагнууд	-11.125
▁өртөх	-11.1251
▁тогтох	-11.1253
▁чиглэ	-11.1258
лен	-11.1259
▁эрхлэгчдий	-11.126
▁сууцанд	-11.1261
▁бокс	-11.1261
туяа	-11.1262
▁Хөгши	-11.1264
Цаг	-11.1265
▁муугаар	-11.1266
int	-11.1268
▁Бэлг	-11.127
▁шүүмж	-11.1272
ld	-11.1273
▁Ёс	-11.1274
▁багтах	-11.1275
▁БОЛ	-11.1276
Эрүү	-11.1282
▁хурлаа	-11.1287
▁ic	-11.1288
▁хариуцах	-11.1288
▁галзуур	-11.1289
▁нэгдэн	-11.1291
▁сагс	-11.1291
▁унтраа	-11.13
▁Хаалга	-11.1304
▁хөгж	-11.1305
▁өнгөрөөж	-11.1307
▁байршуул	-11.1309
▁марк	-11.1311
▁малаа	-11.1314
▁чихсон	-11.1314
▁өнгөт	-11.1318
▁акт	-11.1318
▁Li	-11.1319
▁бодогч	-11.1319
▁төмс	-11.1319
▁хавсралт	-11.1322
▁онцолсон	-11.1322
▁цэврийн	-11.1322
▁Буриад	-11.1322
▁ноолуур	-11.1322
▁халбага	-11.1322
▁тохижилт	-11.1322
▁онгон	-11.1323
▁бөгж	-11.1323
▁нийлүүлэлт	-11.1323
▁ерөөе	-11.1324
ика	-11.1325
▁тасалгаа	-11.1325
▁хүндэлдэг	-11.1332
▁Монголоо	-11.1334
▁аажм	-11.1335
▁хүртээ	-11.1337
▁Найзууд	-11.134
▁санаанууд	-11.1342
▁бараан	-11.1342
▁хэтрүүл	-11.1344
ата	-11.1346
▁уралдааны	-11.1347
▁сурталчил	-11.1349
Хоёр	-11.1351
▁Сэ	-11.1351
▁төхөөрөмжүүд	-11.1352
▁Батла	-11.1354
▁мөс	-11.1354
▁ганцаарда	-11.1354
▁Хараа	-11.1356
▁соёлтой	-11.1357
▁төвүүд	-11.1358
to	-11.1358
▁сулла	-11.1359
▁авиа	-11.136
▁завсар	-11.1362
▁эзгүй	-11.1364
бат	-11.1364
ka	-11.1366
▁үнэлгээний	-11.1366
▁чанарт	-11.137
▁Хори	-11.1371
IS	-11.1372
▁амьтды	-11.1373
▁салбарууд	-11.1373
▁тэтгэ	-11.1374
▁татам	-11.1378
▁эрхэмлэ	-11.1382
▁суучих	-11.1383
▁эвлэр	-11.1391
▁хайран	-11.1392
▁аасай	-11.1393
▁навч	-11.1396
▁Ехова	-11.1402
▁ялгааг	-11.1404
ллээ	-11.1405
▁цасан	-11.1405
▁Ene	-11.1406
▁хальс	-11.1407
▁сайнаар	-11.1408
si	-11.1409
▁ялгар	-11.1412
▁Play	-11.1414
▁найрамдах	-11.1414
▁үймээн	-11.1414
▁өвдсөн	-11.1414
бөөний	-11.1414
▁мунхаг	-11.1415
▁хослол	-11.1415
▁амжсан	-11.1415
▁хахаха	-11.1415
▁үүсэл	-11.1415
▁зол	-11.1415
▁арчаагүй	-11.1415
▁1997	-11.1417
▁баатрууд	-11.1417
▁яаманд	-11.1417
▁бүртгүүлсэн	-11.142
▁Хатан	-11.1421
▁эмчилгээг	-11.1421
▁ойлгоод	-11.1423
▁хэлэлц	-11.1425
▁урвал	-11.1426
▁Маг	-11.1426
▁дурсах	-11.1426
▁гүйцээ	-11.1427
▁дууддаг	-11.1428
▁жагсаа	-11.1428
▁Наадмы	-11.1428
▁хандана	-11.1432
▁бүсгүйчүүдийн	-11.144
▁өртөө	-11.144
Болор	-11.1441
▁мөрөн	-11.1442
▁Ахи	-11.1444
▁хатга	-11.1451
▁ханиад	-11.1452
снээр	-11.1453
▁эш	-11.1455
▁доромжилж	-11.1456
▁унагаа	-11.1458
▁гор	-11.1459
▁аудитын	-11.1461
▁11:	-11.1461
▁эээ	-11.1463
uu	-11.1464
▁үхлээ	-11.1466
▁харва	-11.1467
▁чадахаа	-11.1467
▁Үз	-11.1467
▁АВ	-11.1467
▁харан	-11.1468
▁гүйцэд	-11.1471
15	-11.1472
ооооо	-11.1474
▁тасал	-11.1478
pp	-11.148
ock	-11.1483
▁Хас	-11.1485
▁зовоож	-11.1489
▁Ва	-11.1491
▁эдгээ	-11.1492
▁даруу	-11.1493
▁халдварт	-11.1494
▁өмөөр	-11.1494
▁хэдийнээ	-11.1497
***	-11.15
▁мансуур	-11.1506
▁гїй	-11.1506
▁тунгалаг	-11.1506
▁зарлалаа	-11.1506
▁бүртгэж	-11.1506
▁Түүгээр	-11.1506
▁үйлдлүүд	-11.1506
▁нөхрийг	-11.1507
▁Шүд	-11.1507
▁бодоорой	-11.1507
▁Бэлэн	-11.1509
▁So	-11.1509
▁50%	-11.1514
▁Өвөр	-11.1517
▁Зун	-11.1518
▁эмнэлгээ	-11.1518
▁эй	-11.152
▁зори	-11.1521
▁Шилэ	-11.1524
▁үзэг	-11.1526
▁жагса	-11.1527
▁наадах	-11.1529
▁харуулна	-11.153
▁идэхгүй	-11.1535
Тэгэхээ	-11.1537
▁хүртээл	-11.1539
▁нөхдийн	-11.1539
▁халах	-11.154
мол	-11.1549
▁хөг	-11.155
ллын	-11.1551
mi	-11.1551
рүү	-11.1554
▁галын	-11.1565
▁төлөөлл	-11.1566
▁хандивла	-11.1568
▁тогтоолын	-11.1572
▁таниа	-11.1574
фт	-11.1575
▁нөхөрлө	-11.1575
▁хуралдааны	-11.1575
▁эрийн	-11.1585
▁Фа	-11.1592
хэвч	-11.1593
▁шалгаад	-11.1593
▁сад	-11.1598
▁санаачилга	-11.1599
▁Шуурхай	-11.16
▁үлдэгдэл	-11.16
▁бүдүүн	-11.16
▁тодорхойлдог	-11.16
▁бутлагч	-11.1601
▁эхлүүл	-11.1601
▁шагай	-11.1602
▁цутга	-11.1602
▁Жилд	-11.1602
анда	-11.1603
▁ойлголоо	-11.1603
▁чадавх	-11.1604
ухацтай	-11.1605
▁тэнцсэн	-11.1606
▁th	-11.1606
▁халаалт	-11.1609
▁эрхлэлт	-11.1612
▁эгэл	-11.1615
Press	-11.1616
▁нээнэ	-11.1616
▁аварсан	-11.1619
үүлэн	-11.1619
▁бэлтгэсэн	-11.1619
▁инээмсэглэл	-11.1619
▁Багийн	-11.1621
▁төсвөөс	-11.1622
▁оролцоогүй	-11.1622
▁дадал	-11.1623
▁жилт	-11.1624
▁эхлэ	-11.1625
ион	-11.1627
▁зэ	-11.1631
лүүлж	-11.1635
▁no	-11.1636
ive	-11.1637
ine	-11.1638
▁нөгөөх	-11.1639
▁буц	-11.1639
▁хэлсний	-11.1641
▁хөнөө	-11.1642
▁тэжээх	-11.1643
▁нөхрийн	-11.1646
▁шинжээч	-11.1647
▁85	-11.1648
▁оролцогчды	-11.1648
▁гаралт	-11.1649
▁сөнө	-11.165
▁дүүр	-11.1652
▁баяж	-11.1653
▁ална	-11.1656
▁шингээ	-11.1661
▁үргэлжлүүлж	-11.1666
▁Бен	-11.1667
▁26-	-11.1667
▁ялна	-11.1669
▁эзлэ	-11.167
▁холбоогүй	-11.167
сен	-11.167
▁ашиглагда	-11.1672
▁шахаж	-11.1674
▁Хэний	-11.1675
▁Шада	-11.1676
▁Шаардлага	-11.1677
▁нэмнэ	-11.1677
▁нисэ	-11.168
▁дороо	-11.1688
▁хүлээлгэн	-11.169
▁Хурим	-11.169
▁ахиу	-11.1692
▁болгожээ	-11.1692
▁болвол	-11.1693
▁Өвөрхангай	-11.1694
▁коллеж	-11.1694
▁сайшаа	-11.1694
▁туслаач	-11.1694
▁Шагнал	-11.1695
▁формат	-11.1695
▁Загас	-11.1695
▁art	-11.1695
▁байгуулагдах	-11.1695
▁хонгор	-11.1695
▁цог	-11.1696
▁тооцоолох	-11.1696
ого	-11.1697
▁гэд	-11.1697
▁зурган	-11.1697
▁>>	-11.1697
▁Ромын	-11.17
▁эмэгтэйчүүдийг	-11.1701
▁шилжүүлсэн	-11.1702
▁файлыг	-11.1702
▁Япончууд	-11.1702
▁сонгоод	-11.1704
▁сурталчлах	-11.1706
эмсэг	-11.1712
▁тусах	-11.1713
▁дарагд	-11.1713
▁Болор	-11.1716
▁бөглөх	-11.172
▁Уянга	-11.1721
▁мөрийг	-11.1723
▁сануулах	-11.1724
▁шилжүүл	-11.1725
▁үлд	-11.1726
▁Mi	-11.1727
▁бүлтэй	-11.1727
▁компаниа	-11.1728
▁зүүж	-11.1732
▁уудаа	-11.1734
▁задар	-11.1737
▁Уншигч	-11.1739
▁хуудсан	-11.174
▁3:	-11.1748
иод	-11.1751
ST	-11.1753
▁Анд	-11.1753
▁медал	-11.1756
ЭД	-11.1757
▁бүртгүүл	-11.1759
▁төсөөлөө	-11.1761
ерс	-11.1762
▁ен	-11.1762
▁хэлэнд	-11.1763
▁бэлэглэ	-11.1763
▁Испаний	-11.1767
▁яара	-11.1768
се	-11.1772
▁сонирхуул	-11.1774
▁тэсвэр	-11.1776
▁саналын	-11.1776
цэн	-11.1777
▁тээж	-11.1778
▁хөлд	-11.1779
▁хугацаанаас	-11.1782
▁тохиролц	-11.1785
▁залууст	-11.1786
▁давхарт	-11.1786
▁Sp	-11.1786
▁сэтгүүлийн	-11.1789
▁Үд	-11.1789
▁Eguur	-11.1789
▁Казино	-11.1789
▁нөлөөлөл	-11.1789
▁эрдэс	-11.179
▁уншигчдад	-11.179
▁давалгаа	-11.179
▁Хонгор	-11.179
▁зузаан	-11.1791
▁хүндэлж	-11.1791
▁Онгоц	-11.1791
▁Давид	-11.1795
гдсэн	-11.1797
▁баярт	-11.1797
▁ури	-11.1798
▁сандар	-11.18
▁кэ	-11.1802
▁босож	-11.1803
Сайханбилэг	-11.1804
▁төрнө	-11.1807
ara	-11.1809
▁хүндэтгэ	-11.1809
▁шийдвэрт	-11.181
▁болсноос	-11.1814
▁үгүйсгэх	-11.1816
▁Ингэхэ	-11.1817
үл	-11.1822
▁хүрээг	-11.1822
▁тоглолтууд	-11.1826
▁эцэслэн	-11.1827
▁амьдралаар	-11.1827
Хэрвээ	-11.1829
▁ёо	-11.183
▁дүрүүд	-11.1831
чихсөн	-11.1832
▁ахын	-11.1832
▁Хүр	-11.1836
▁үгнээс	-11.1837
▁лох	-11.1842
▁яваагүй	-11.1843
▁нууцлаг	-11.1843
▁дулааны	-11.1847
▁????	-11.1847
▁шийдвэрүүд	-11.1848
▁түгээх	-11.1849
руулж	-11.1851
▁Шал	-11.1852
▁ихэс	-11.1853
▁төлөөлж	-11.1854
▁17-	-11.1855
▁оролцоог	-11.1857
▁хувцастай	-11.1857
▁татагда	-11.1858
▁эзэнт	-11.1859
▁намынхан	-11.1866
▁Бүтээгдэхүүний	-11.187
▁Унш	-11.1874
▁хөтөлбөрөө	-11.1876
▁орноос	-11.1879
▁зэмлэ	-11.1879
▁үзэсгэлэнт	-11.1883
▁ОН	-11.1884
▁диплом	-11.1885
▁Хөөрхөн	-11.1886
▁шийдэгдэх	-11.1886
▁ДНБ	-11.1886
▁Индонез	-11.1886
▁БЗД	-11.1886
▁судас	-11.1886
▁He	-11.1886
▁ухамсарла	-11.1887
▁Page	-11.1887
▁анхаараарай	-11.1887
▁1993	-11.1889
▁Эхлэл	-11.1889
▁ич	-11.189
▁байдгийн	-11.1891
▁албадан	-11.1892
▁бэлдсэн	-11.1895
▁ик	-11.1896
▁зарсан	-11.1896
▁мэл	-11.1898
▁Өвөл	-11.1899
▁итгэсэн	-11.19
▁өрөвдө	-11.19
▁29-	-11.19
▁анхаардаг	-11.1904
▁Тулга	-11.1907
▁хэрэгцээн	-11.1908
▁сүлжээг	-11.1914
▁бүрэлдэхүүнд	-11.1915
▁эе	-11.1916
Жавхлан	-11.1919
▁багийнхан	-11.1921
▁хайраа	-11.1921
▁лаборатори	-11.1924
Ээж	-11.1924
pa	-11.1925
▁Аб	-11.1926
▁иднэ	-11.1928
▁хэрэгжүүл	-11.1929
▁дуудсан	-11.1929
▁тойгоо	-11.1937
▁гарснаа	-11.194
▁хуудсаар	-11.194
▁Ком	-11.194
▁ЭЭ	-11.1941
▁талархл	-11.1952
▁урамшуул	-11.1955
▁ХА	-11.1956
▁айлууд	-11.1958
▁тулгуурлан	-11.1958
▁ша	-11.1961
▁өсөлтийг	-11.1962
▁Тата	-11.1966
▁жишээг	-11.1971
▁man	-11.1973
▁вээ	-11.1974
▁Швейцар	-11.1979
амп	-11.1982
▁Төсөл	-11.1983
▁кампан	-11.1983
▁нэрэмжит	-11.1983
▁Хөдөлгөөн	-11.1983
▁профессор	-11.1983
▁Гадна	-11.1984
▁давтамж	-11.1984
▁Дараачийн	-11.1984
▁санаачла	-11.1984
▁шийдвэрлэнэ	-11.1985
▁Бод	-11.1985
▁Үнийн	-11.1986
▁ичиж	-11.1987
▁мини	-11.1987
▁уудтай	-11.1988
▁түрүүлсэн	-11.199
▁эт	-11.199
▁ахлагч	-11.1991
▁Фор	-11.1991
▁чадварын	-11.1992
▁төгсөх	-11.1993
▁боов	-11.1993
▁мөнхө	-11.1994
▁орчноо	-11.1994
▁батга	-11.1994
мер	-11.1995
▁Ану	-11.1995
▁бэлгэ	-11.1996
vi	-11.1997
▁тусгал	-11.1999
▁итгэдэггүй	-11.2004
▁худаг	-11.2009
▁шинэчлэ	-11.2009
▁гарахаар	-11.2011
▁харваа	-11.2015
▁хяна	-11.2022
▁дуугар	-11.2023
▁зөрүүтэй	-11.2024
▁сайжруулж	-11.2027
▁гүнж	-11.2029
▁хоригийг	-11.2031
▁дугаарын	-11.2031
▁америкийн	-11.2032
▁гэргий	-11.2035
▁тогтоолоо	-11.2038
▁чил	-11.2044
▁нийслэлд	-11.2049
▁нэгэнтэй	-11.2049
▁Алдарт	-11.2049
мар	-11.205
луулсан	-11.2051
▁орлогоо	-11.2051
▁шатандаа	-11.2059
▁ирмэг	-11.206
▁өвчнөө	-11.206
▁ярихдаа	-11.2062
▁болзоо	-11.207
▁зөгий	-11.2071
уш	-11.2071
▁бүгдийн	-11.2073
▁PC	-11.2077
▁es	-11.2078
▁OS	-11.2079
▁зорилгыг	-11.2081
▁хөвгүүн	-11.2081
▁өгөгдлийн	-11.2081
▁Дэлгэц	-11.2081
▁үйлчлэл	-11.2081
▁Хацар	-11.2081
▁харилцаж	-11.2081
▁SEO	-11.2081
▁Яриа	-11.2082
▁торгуул	-11.2082
▁ирчихсэн	-11.2083
▁амттан	-11.2084
▁барилдаж	-11.2085
▁шийдвэрлэсэн	-11.2085
▁хожи	-11.2086
▁Үзсэн	-11.2088
▁(2)	-11.2089
▁Паул	-11.2091
▁Зу	-11.2092
▁доорхи	-11.2095
▁алдана	-11.2096
▁гэчих	-11.2097
▁хангана	-11.2097
▁бө	-11.2099
авал	-11.21
Энхсайхан	-11.21
▁АА	-11.2101
ma	-11.2103
▁заалда	-11.2103
▁барилгы	-11.2105
▁сэтгэ	-11.2105
▁үйлдэж	-11.2107
▁төрүүл	-11.2107
▁хилэн	-11.2108
▁зугаатай	-11.2112
▁хээрийн	-11.2113
▁Te	-11.2113
не	-11.2113
▁хали	-11.2114
▁төвийг	-11.2115
▁гаднын	-11.2115
▁Түүн	-11.2117
▁угтан	-11.2117
ge	-11.2123
▁буг	-11.2128
вай	-11.2133
▁суудалтай	-11.2133
▁юугаар	-11.2135
▁гэмгүй	-11.2135
ash	-11.2136
Сүүл	-11.2138
▁900	-11.2139
ng	-11.214
▁Цаад	-11.214
▁бээ	-11.2141
▁эцгийн	-11.2142
▁үүлэн	-11.2143
▁одооноос	-11.2143
▁байгуулжээ	-11.2145
▁байшинг	-11.2146
▁шинэчлэгдэ	-11.2151
▁хний	-11.2152
элсэн	-11.2152
▁жарга	-11.2153
▁дэлбэ	-11.2153
▁харав	-11.2153
охо	-11.2154
▁болсноо	-11.2157
есс	-11.2157
▁сүй	-11.2164
▁нийлэх	-11.2166
бол	-11.2167
▁өмчи	-11.2168
▁намаа	-11.2168
▁эхийг	-11.2169
▁өөрчлөн	-11.2171
▁Ний	-11.2175
▁дсан	-11.2178
▁Эхэнд	-11.2178
à	-11.218
Энхтүвшин	-11.218
▁Иерусалим	-11.218
▁африк	-11.218
▁реклам	-11.218
▁электрон	-11.218
️	-11.218
▁Маркетинг	-11.218
Номтойбаяр	-11.218
▁магтаал	-11.218
▁ургац	-11.218
▁захирлы	-11.2181
▁Борлуулалт	-11.2181
▁бэлдмэл	-11.2181
▁байцгаа	-11.2181
▁зугтаж	-11.2182
▁ололт	-11.2182
▁орохоор	-11.2182
▁эж	-11.2183
▁төрүүлдэг	-11.2183
▁сэдэвт	-11.2183
▁ажиглалт	-11.2183
▁шалгуулах	-11.2184
▁хөтлөгч	-11.2184
▁төрлүүд	-11.2184
▁сайжирсан	-11.2185
▁хуул	-11.2186
▁өт	-11.2187
▁Буян	-11.2189
▁°	-11.219
▁хөв	-11.2192
▁хадгална	-11.2193
▁болгохо	-11.2193
ныхаа	-11.2193
▁дурдахад	-11.2193
▁цэгцтэй	-11.2194
▁тэмц	-11.2194
▁ох	-11.2194
▁Хосууд	-11.2195
▁зарчмаар	-11.2199
▁хуваарил	-11.2202
▁ho	-11.2203
▁дага	-11.2203
▁үйлдвэрийг	-11.2203
▁минийх	-11.2206
эгдсэн	-11.2214
▁хожих	-11.2215
▁88	-11.2216
▁Nov	-11.2217
▁хүчил	-11.2217
Ганбаатар	-11.2217
▁хайрласан	-11.2219
▁буцаах	-11.2224
▁барахгүй	-11.2226
▁амьдрахыг	-11.2228
▁ТАЙ	-11.2232
▁эрэл	-11.2232
▁доромжил	-11.2234
рос	-11.2234
▁халдлаг	-11.2234
▁үүлээд	-11.2237
▁мэ	-11.2237
▁Киноны	-11.2239
▁Хэ	-11.224
эмж	-11.224
▁амарна	-11.2245
▁алчих	-11.2247
▁чиж	-11.2248
▁Зорилго	-11.2251
▁хамаарахгүй	-11.2255
цгээ	-11.2255
▁Бер	-11.2256
▁төсвөө	-11.2257
луур	-11.2257
▁залгах	-11.2258
▁хоро	-11.2261
буу	-11.2264
▁Тэндээс	-11.2267
▁сэтгэлдээ	-11.2268
▁уулсан	-11.2268
▁яригдах	-11.2271
аагуур	-11.2271
▁цэвэрлэ	-11.2273
▁гараас	-11.2274
▁гэс	-11.2274
▁Un	-11.2278
î	-11.228
▁ТУЗ	-11.228
▁амьжиргаа	-11.228
▁хавтгай	-11.228
▁шоколад	-11.228
▁дуулгавар	-11.2281
▁дайралт	-11.2281
▁Шүлэг	-11.2281
▁хаанчлал	-11.2281
▁хурандаа	-11.2282
▁тооцдог	-11.2282
▁анхаарлын	-11.2282
▁аргын	-11.2284
▁ханган	-11.2285
▁армийн	-11.2285
▁тулгарах	-11.2287
▁цуглуулсан	-11.2291
▁бүлийнх	-11.2291
▁авснаас	-11.2292
эгдээгүй	-11.2293
▁дийлэхгүй	-11.2297
▁яр	-11.2298
▁минутанд	-11.2301
▁ятга	-11.2305
▁өлс	-11.2305
▁хамгаалсан	-11.2306
▁Түүхэн	-11.2307
▁иргэдтэй	-11.2309
▁орчих	-11.231
▁гарчихсан	-11.2312
▁үзэгчдийн	-11.2317
▁Мэ	-11.2317
▁67	-11.2317
▁Хүүгийн	-11.232
▁сайжруул	-11.2324
▁зүйч	-11.2329
▁харих	-11.233
▁ma	-11.2333
▁өм	-11.2334
▁хэвтээ	-11.2336
▁Лам	-11.2337
▁баярлуул	-11.2337
▁тээвэрлэ	-11.2339
▁цагаач	-11.2344
▁Технологий	-11.2348
▁жуулчин	-11.2351
▁мана	-11.2353
▁чамдаа	-11.2357
▁сонинд	-11.2358
▁зөвлөлдө	-11.2359
▁Зочин	-11.2359
▁үйлчилгээтэй	-11.2362
▁давтах	-11.2367
▁Виз	-11.2369
▁Онц	-11.237
▁тэжээлийн	-11.2373
өлт	-11.2376
▁эсхүл	-11.2381
▁бөлгөө	-11.2381
▁you	-11.2381
▁Нөгөөтэйгүүр	-11.2381
▁анхааруул	-11.2382
▁сахилга	-11.2382
▁олуулаа	-11.2382
▁Мөрдө	-11.2382
▁даатга	-11.2383
▁конусан	-11.2383
рил	-11.2383
▁илэрдэг	-11.2384
▁олборло	-11.2385
▁сонслоо	-11.2385
▁залбирах	-11.2386
▁өвдөг	-11.2386
▁хэтэрсэн	-11.2386
▁олноороо	-11.2387
▁илрэх	-11.2388
▁дээдэс	-11.2389
▁жүүлэх	-11.2389
▁Бороо	-11.239
▁Пол	-11.2392
▁өршөөл	-11.2393
▁тоолох	-11.2395
ЛАЛ	-11.2397
ЕР	-11.2398
▁төвөөс	-11.2399
▁авахаа	-11.24
▁Хү	-11.2401
▁эртхэн	-11.2401
▁сонирхлоо	-11.2403
▁зохиох	-11.2409
▁Мэнд	-11.241
▁шөл	-11.241
▁орохдоо	-11.2411
▁180	-11.2411
▁изм	-11.2411
Хүрэлсүхийн	-11.2415
▁1/	-11.2416
▁барж	-11.2417
▁үндс	-11.2419
▁78	-11.2422
▁залгаа	-11.2423
▁ами	-11.243
ose	-11.2431
▁ажилтнуудын	-11.2431
▁ашиглахгүй	-11.2433
▁тэнцэ	-11.2436
▁товчхон	-11.2436
▁залгаж	-11.2438
▁Лос	-11.2446
▁тархинд	-11.2446
уулаа	-11.2449
▁нүү	-11.2451
▁эргэ	-11.2452
АЯ	-11.2453
▁ХАА	-11.2454
▁Уна	-11.2455
▁нис	-11.2457
▁шалгагда	-11.2457
▁мэдэгдэхгүй	-11.246
▁Хөө	-11.2461
АЖ	-11.2465
▁эзэмш	-11.2469
▁зүгт	-11.2469
▁шалтгаантай	-11.2471
▁юутай	-11.2472
port	-11.2473
хнаа	-11.2474
▁чихэнд	-11.2474
▁харам	-11.2476
▁ШХАБ	-11.2483
▁баримжаа	-11.2483
▁Хөлбөмбөг	-11.2483
▁чансаа	-11.2483
▁Хуудас	-11.2483
▁Туршилт	-11.2483
▁түншлэл	-11.2483
▁Түргэн	-11.2484
▁хүмүүжил	-11.2484
▁явагдсан	-11.2484
▁санагдав	-11.2484
▁байршлы	-11.2484
▁оролцлоо	-11.2484
▁гулга	-11.2485
ki	-11.2487
▁зовдог	-11.2487
▁ангиуд	-11.2488
▁уурлаж	-11.249
▁ирүүлэх	-11.249
▁тоолл	-11.2491
ля	-11.2492
▁байгуулалттай	-11.2493
no	-11.2494
▁</	-11.2494
▁үлджээ	-11.2495
▁батлуул	-11.2498
▁хамгаалдаг	-11.2498
▁Бүтээгдэхүүн	-11.2499
лэнэ	-11.2501
▁илчлэ	-11.2502
▁орсны	-11.2503
▁тайланд	-11.2504
▁манд	-11.2509
таж	-11.2509
▁Элэг	-11.251
▁Jun	-11.2511
▁эрээ	-11.2511
▁ууланд	-11.2517
▁Зү	-11.2518
▁сүйд	-11.2522
Хүмүүс	-11.2523
▁мөрд	-11.2525
▁томчууд	-11.2526
ами	-11.2526
▁арвин	-11.2526
▁Төрөө	-11.2527
▁мартахгүй	-11.2528
▁буруугаа	-11.2534
▁sh	-11.2537
▁тэмцлий	-11.2538
▁түмэндээ	-11.2539
▁Олны	-11.2544
▁тоглолто	-11.2544
▁тэмдэглэн	-11.2547
▁АМ	-11.2547
▁төлөгч	-11.255
агдана	-11.2551
▁чихна	-11.2553
▁Найма	-11.2555
▁Гуравдугаар	-11.2559
▁цгаая	-11.2562
▁хүмүүжүүл	-11.2564
iz	-11.2565
▁файлууд	-11.2566
▁хандаа	-11.2567
▁ке	-11.2567
▁бүрдээ	-11.2567
▁пуужин	-11.257
▁дом	-11.2572
▁se	-11.2572
▁Кор	-11.2572
▁Шат	-11.2573
▁хонх	-11.2574
▁номууд	-11.2578
▁79	-11.2579
▁илэрхий	-11.2581
▁ЭСЯ	-11.2586
▁нарийвчлан	-11.2586
▁оффшор	-11.2586
▁Украйн	-11.2586
▁онигоо	-11.2586
▁сургуулилт	-11.2586
▁надаар	-11.2586
▁сүүдэр	-11.2586
▁гамшгий	-11.2586
▁ашиглагддаг	-11.2586
▁Ойлго	-11.2586
▁зөвшөөрөгдсөн	-11.2586
▁мотор	-11.2586
▁өөрчлөгддөг	-11.2586
▁сонсоогүй	-11.2587
▁тавиур	-11.2587
▁Дугуй	-11.2587
▁зөвшөөрнө	-11.2587
▁холимог	-11.2588
▁ялж	-11.2589
▁салалт	-11.2589
▁урьдын	-11.2589
▁Air	-11.259
▁заншил	-11.259
▁харьцдаг	-11.2591
▁завсарла	-11.2594
▁хэмжээнүүд	-11.2594
▁тавигдсан	-11.2595
▁болиоч	-11.2598
▁Хөрөнг	-11.2599
▁саванг	-11.2599
▁хэвшлийн	-11.2599
▁хэлц	-11.2599
▁Венесуэл	-11.26
▁хоцорч	-11.26
▁сэлбэг	-11.26
▁пуужинг	-11.2602
▁хаант	-11.2603
▁гэхгүй	-11.2603
▁уулга	-11.2604
▁Малчи	-11.2605
▁дуугарч	-11.2607
▁бухимдал	-11.2608
▁естой	-11.2609
▁хамааралгүй	-11.261
▁баригчды	-11.261
▁шаттай	-11.2612
▁зочлох	-11.2613
▁баглаа	-11.2613
аци	-11.2617
▁24-	-11.2618
▁My	-11.2619
ӨН	-11.262
▁хавтан	-11.2621
▁хүндэтгэх	-11.2622
этэрхий	-11.2622
адар	-11.2627
▁урсгалыг	-11.2628
▁гайхамшигт	-11.263
▁хатаа	-11.2632
▁гомдолло	-11.2633
net	-11.2635
лүүлдэг	-11.2644
▁Шан	-11.2645
▁сэдвий	-11.2647
▁Эг	-11.2651
▁баригдах	-11.2656
▁хичээллэх	-11.2659
▁мат	-11.2659
▁сорил	-11.2664
▁төөр	-11.2666
q	-11.2667
▁рал	-11.2668
▁Бари	-11.2679
▁эгнээ	-11.2681
▁наана	-11.2681
▁цэгц	-11.2685
▁хотхон	-11.2686
▁сонирхогч	-11.2686
▁Дэм	-11.2688
▁porn	-11.269
▁Удирдлаг	-11.269
▁зорилгын	-11.269
▁илрээгүй	-11.269
▁Даатгал	-11.269
▁Казахстан	-11.269
▁тунадас	-11.269
▁Шорон	-11.269
▁гагц	-11.269
▁Нобел	-11.269
▁өнгөрдөг	-11.2691
▁хулхи	-11.2691
▁таалал	-11.2692
▁үйлчилнэ	-11.2692
▁суурилуулах	-11.2693
ug	-11.2693
▁Мэдлэг	-11.2693
▁улсынхаа	-11.2694
ns	-11.2695
▁элементүүд	-11.2695
▁урлал	-11.2696
▁Мак	-11.2699
▁ДОХ	-11.2699
▁бодлын	-11.27
▁морил	-11.2701
▁хаагчийн	-11.2702
▁5:	-11.2703
▁шидэ	-11.2703
▁намтар	-11.2704
▁далайд	-11.2705
▁судалсан	-11.2705
▁Санд	-11.2709
▁болгоомжил	-11.271
▁үзэгдэх	-11.2711
▁хариуцлагаа	-11.2712
▁давтагда	-11.2713
▁ашгүй	-11.2713
▁Шулуун	-11.2714
▁Даг	-11.2716
▁Али	-11.2716
▁гүйгээд	-11.2718
ick	-11.2719
▁таслах	-11.2723
▁хүрд	-11.2731
▁хөөх	-11.2733
цгээе	-11.2733
▁бурууг	-11.2738
▁Тэги	-11.274
▁чуулга	-11.2749
▁гэрээс	-11.275
▁Санхүү	-11.2753
▁үдээс	-11.2761
▁Эй	-11.2761
▁өнө	-11.2763
▁туссан	-11.2765
▁шээс	-11.2766
▁хаса	-11.2766
▁ХҮ	-11.2767
▁түлхүү	-11.2767
▁ивээн	-11.2771
▁Багшийн	-11.278
▁Эрээн	-11.278
агджээ	-11.2783
▁хаягийг	-11.2788
ОС	-11.2794
▁Крис	-11.2795
▁Зэвсэг	-11.2795
▁тулгамдаж	-11.2795
▁түгшүүр	-11.2795
▁Сүлжээ	-11.2795
▁хавтас	-11.2795
▁олдоогүй	-11.2795
▁Оюутны	-11.2795
▁статус	-11.2796
▁шалгаарай	-11.2796
▁интер	-11.2796
▁барилгууд	-11.2796
▁Түмэн	-11.2797
▁тэмцээнийг	-11.2797
▁болгоё	-11.2798
▁хөгш	-11.2798
▁тэмдгүүд	-11.28
▁1995	-11.28
▁Хэлэлцэ	-11.2801
▁байгуулав	-11.2801
▁настнууд	-11.2801
▁авчирна	-11.2801
▁Бү	-11.2802
▁үргэлжлэл	-11.2803
▁түрүүлэх	-11.2803
▁Анги	-11.2804
▁турах	-11.2804
▁шүлгий	-11.2805
▁цаанаа	-11.2805
▁жиг	-11.2807
▁хомс	-11.2807
▁тогт	-11.2808
▁өнгөр	-11.2809
▁хэмнэл	-11.281
▁Гаалий	-11.281
▁ухаанаар	-11.2815
▁системтэй	-11.2816
▁өндөрлө	-11.282
▁тэнц	-11.282
▁давхарга	-11.2821
▁элссэн	-11.2825
▁унтаа	-11.2826
▁шалгасан	-11.2827
▁улсаа	-11.2831
▁одод	-11.2831
▁нууцаар	-11.2833
▁хөлсний	-11.2834
Өлгий	-11.2835
▁шалгаруул	-11.2837
▁байгал	-11.2837
Ийм	-11.2839
▁зураас	-11.2839
уранхай	-11.284
▁тогтнох	-11.2842
▁мөрөөр	-11.2843
▁амандаа	-11.2845
▁тойрогт	-11.2848
▁гарахаас	-11.2852
ik	-11.2856
▁валют	-11.2858
▁цгээе	-11.286
йс	-11.2863
▁сүрэн	-11.2866
АРГА	-11.2867
our	-11.2871
▁төлөвлөгөөнд	-11.2872
:30	-11.2875
▁lo	-11.2886
чимэг	-11.2891
▁урлагт	-11.29
▁театрын	-11.29
▁Cha	-11.2902
▁Коммуни	-11.2902
Баттулгы	-11.2902
▁ISO	-11.2902
▁Талийгаач	-11.2902
▁туурви	-11.2902
▁Мэргэжил	-11.2902
▁цэнгэлдэх	-11.2902
▁Товчхондоо	-11.2902
▁элдв	-11.2902
▁танилцана	-11.2903
▁илэрхийллээ	-11.2905
▁бух	-11.2905
▁түншүүд	-11.2906
▁ос	-11.2906
▁зориулах	-11.2907
▁орхин	-11.2908
▁илрүүлсэн	-11.2908
уа	-11.291
▁илэрхийлжээ	-11.291
▁будах	-11.291
▁дуусдаг	-11.2915
▁1.2	-11.2916
▁Худал	-11.2917
▁нийцүүлэ	-11.2918
оосон	-11.292
▁айхгүй	-11.292
▁цуваа	-11.292
▁хүмүүж	-11.2921
▁нисгэгч	-11.2922
▁гуйгаа	-11.2923
▁аяны	-11.2925
▁ri	-11.2928
▁бээр	-11.2932
▁хуучны	-11.2935
▁ажлаар	-11.2936
▁давт	-11.2936
▁Рио	-11.294
▁Найр	-11.2947
▁төлөвлөх	-11.2949
НА	-11.2949
▁хүндэтгэж	-11.2953
▁батал	-11.2957
▁мэдэгдээ	-11.2958
▁сонголтууд	-11.296
▁Бүү	-11.2961
▁еврог	-11.2963
▁уучил	-11.2965
▁тоглогчды	-11.2967
▁дуусгаж	-11.2968
▁тэжээж	-11.2968
▁дсэн	-11.2974
▁сахих	-11.2976
вор	-11.2976
▁хуваах	-11.2976
▁Сүү	-11.2979
▁лого	-11.2981
▁зөвшөөрөлтэй	-11.2981
▁хүргээ	-11.2983
▁тэдэн	-11.2983
▁Jan	-11.2988
иль	-11.2991
▁түрүүн	-11.2993
ant	-11.2995
▁Дэн	-11.2997
▁маргаантай	-11.2997
▁аваачи	-11.3
▁болгочих	-11.3001
▁Gu	-11.3003
▁явжээ	-11.3004
▁дампуу	-11.3005
aw	-11.3006
▁шууги	-11.3007
▁Согтуу	-11.3009
Samsung	-11.3009
Гантулга	-11.3009
▁зогсолт	-11.3009
▁шумуул	-11.3009
▁зөвөлгөө	-11.3009
▁Багануур	-11.3009
▁Роберт	-11.3009
▁сүлд	-11.301
▁нээгдсэн	-11.3011
▁хөгшир	-11.3011
▁шаргал	-11.3011
▁хэмжих	-11.3011
▁1960	-11.3011
▁зогсоно	-11.3012
▁хуванцар	-11.3013
▁go	-11.3013
▁pro	-11.3013
▁El	-11.3014
▁үнэлгээг	-11.3018
▁зогсоосон	-11.302
▁чилж	-11.302
▁логик	-11.302
▁уйтгартай	-11.302
▁булш	-11.3022
▁гиш	-11.3023
▁3-4	-11.3025
▁бүртгүүлж	-11.3025
▁Про	-11.3028
ke	-11.3029
снөө	-11.3029
▁байд	-11.3029
▁тараасан	-11.303
▁дата	-11.303
атор	-11.3032
▁86	-11.3034
▁уулан	-11.3034
=	-11.3035
▁өвчнөөс	-11.3036
▁үйлчлүүлэгчдийн	-11.3038
▁Хамтра	-11.3038
▁дорж	-11.3039
▁TV	-11.3044
▁Гадаа	-11.3044
▁вол	-11.3044
▁өндий	-11.3045
ьё	-11.3046
▁суралцагч	-11.3046
▁Сана	-11.3047
окс	-11.3048
▁тойрны	-11.3049
Хар	-11.305
▁биелэх	-11.3052
▁хамра	-11.3054
Батболд	-11.3056
▁нэрлэ	-11.3056
ени	-11.3056
▁эмчилж	-11.3057
▁БАЙ	-11.306
▁суухгүй	-11.3063
▁хоногоос	-11.3064
▁мэдрэлийн	-11.3068
Өө	-11.3069
▁тоот	-11.3074
▁им	-11.3085
▁ургамл	-11.3088
▁хэлэлцүүлг	-11.3089
▁ариутгал	-11.309
▁мэдүүлг	-11.309
▁гэрээгээ	-11.309
▁зарлага	-11.3091
▁Рон	-11.3091
mail	-11.3092
▁цохиж	-11.3092
▁оршуул	-11.3097
мхий	-11.3097
өрч	-11.3106
▁төг	-11.3106
▁гишүүдээс	-11.3106
▁утсанд	-11.3111
▁харьцуулах	-11.3112
SS	-11.3116
єнгє	-11.3118
сєн	-11.3118
▁нүглий	-11.3118
▁илүүдэхгүй	-11.3118
▁тохирно	-11.3118
▁гишүүнчлэл	-11.3118
▁Apr	-11.3118
▁Цонх	-11.3118
▁ишлэл	-11.3119
▁Маск	-11.3119
▁өснө	-11.312
эрхэг	-11.312
▁чаджээ	-11.312
▁хуваарилалт	-11.312
▁новшнууд	-11.3121
▁хишиг	-11.3121
▁Мартин	-11.3121
▁Хүйтэн	-11.3121
▁даалгавры	-11.3121
▁хэвтэх	-11.3122
▁ажиллуулдаг	-11.3123
▁өгчихсөн	-11.3124
мен	-11.3125
▁онуудад	-11.3125
▁хаус	-11.3125
▁үүлнэ	-11.3127
▁PM	-11.3131
▁Ad	-11.3131
▁Бос	-11.3131
фа	-11.3132
▁явдлаас	-11.3136
tr	-11.3136
▁App	-11.3137
▁эдний	-11.314
▁тэйгээр	-11.3142
пол	-11.3144
▁ирснийг	-11.3144
▁mo	-11.3144
▁бүтээлчид	-11.3146
▁хөөс	-11.3147
▁сэг	-11.3148
▁зохицох	-11.315
▁эхлэнэ	-11.3154
▁замаас	-11.3159
▁захира	-11.3159
▁IT	-11.316
▁хөхний	-11.3162
Q	-11.3163
▁дөх	-11.3164
mo	-11.3165
▁тол	-11.3177
▁Галт	-11.3179
ИР	-11.318
▁буруугүй	-11.318
▁шахаа	-11.3182
▁тэгдэг	-11.3184
▁шаналж	-11.3185
▁ян	-11.3188
▁байс	-11.3194
сөг	-11.3197
ah	-11.3201
▁мен	-11.3201
▁гоос	-11.3201
▁тэргүүнд	-11.3202
▁нээгээ	-11.3203
▁буруутгах	-11.3203
ъяа	-11.3207
▁Ник	-11.3207
▁үндэслэлтэй	-11.3207
▁толилуул	-11.3208
▁хоцор	-11.3209
най	-11.321
▁Шил	-11.321
▁болдоо	-11.321
▁өндөрт	-11.3214
▁сурна	-11.3215
▁сэт	-11.3217
еле	-11.3218
▁ладаг	-11.3219
▁гаргачих	-11.3222
▁инг	-11.3226
▁be	-11.3227
▁урилга	-11.3227
ý	-11.3228
▁World	-11.3228
▁Youtube	-11.3228
▁Нутаг	-11.3228
▁боловсронгуй	-11.3228
▁дэвшилтэт	-11.3228
▁талийгаач	-11.3228
▁тодорлоо	-11.3228
▁Туршлага	-11.3228
▁оператор	-11.3228
▁Гишүүн	-11.3228
▁няцаа	-11.3228
▁Шанхай	-11.3228
▁манан	-11.3229
▁философи	-11.3229
▁зөвлөдөг	-11.3229
▁танилцуулъя	-11.3229
▁жим	-11.3229
▁болзол	-11.3229
▁өрнөсөн	-11.323
▁веб	-11.3231
▁сүйтгэ	-11.3231
▁өсгөсөн	-11.3231
ord	-11.3232
▁баталлаа	-11.3232
▁итгэгч	-11.3233
▁бүрдэх	-11.3233
▁илгээнэ	-11.3233
▁зугтах	-11.3233
▁тохируулан	-11.3234
▁Өвөө	-11.3234
▁эзний	-11.3235
▁un	-11.3236
▁Байгаа	-11.3237
▁боломжоо	-11.3238
▁эгнээнд	-11.3238
▁Мэдэхгүй	-11.324
▁ТӨР	-11.3241
▁байрлуулсан	-11.3241
▁хадгалдаг	-11.3242
▁холбооноос	-11.3242
▁тэмээ	-11.3245
▁Дөрөвдүгээр	-11.3245
▁хурлы	-11.3246
▁унтдаг	-11.3249
▁хэдийг	-11.325
▁дуусахгүй	-11.325
▁рээ	-11.325
▁хаш	-11.3253
▁шу	-11.3254
▁багтаасан	-11.3254
▁ЭХ	-11.3254
▁лагдах	-11.3254
▁хаяа	-11.3255
▁харъя	-11.3257
пе	-11.3257
▁дархан	-11.3259
▁ангиас	-11.3265
▁файлуудыг	-11.3266
▁бга	-11.3267
▁Байна	-11.3268
▁Хим	-11.3269
▁гараж	-11.3276
▁Залуучууд	-11.3277
▁Мөнгөө	-11.3282
▁төлөвлөө	-11.3283
▁дэмжин	-11.3284
▁Ио	-11.3285
▁САН	-11.3288
ала	-11.329
▁цаа	-11.3291
▁агуулгатай	-11.3291
▁Гүй	-11.3293
▁ро	-11.3294
▁байгуулахад	-11.3299
▁тайлангаа	-11.3305
▁үсгий	-11.3307
▁son	-11.331
▁Харь	-11.3311
▁тодруулж	-11.3311
▁өрнө	-11.3313
▁туршдаа	-11.3314
▁эхэд	-11.3316
▁шинжээчи	-11.3316
ank	-11.3318
▁хэргээ	-11.332
▁аяс	-11.3322
▁даргаа	-11.3323
▁лүүлж	-11.3328
▁гавьяат	-11.3331
▁хойноо	-11.3335
адуур	-11.3336
▁халуу	-11.3336
▁капитал	-11.3339
▁Ядуу	-11.3339
▁Нөхцөл	-11.3339
▁булчирхай	-11.3339
▁тухайлбал	-11.3339
▁довтолгоо	-11.3339
▁туслахыг	-11.334
▁хүүхдүүддээ	-11.3341
▁тасрах	-11.3342
сонгогчид	-11.3344
▁нэгнээс	-11.3344
▁явъя	-11.3344
▁1950	-11.3344
▁харцгаая	-11.3345
▁орноосоо	-11.3345
▁зовни	-11.3346
▁царайлаг	-11.3349
▁халда	-11.3349
▁хоцрох	-11.3352
▁Lo	-11.3355
▁Сав	-11.3356
▁мон	-11.3362
▁үзэгдлий	-11.3362
▁ээжтэйгээ	-11.3362
▁биччих	-11.3362
:)	-11.3364
авдугаар	-11.3368
▁2)	-11.3369
▁заалтууд	-11.3371
ey	-11.3371
▁хүргэ	-11.3372
▁идэвхи	-11.3373
▁цуглуул	-11.3376
▁заана	-11.3377
▁тэмцэлд	-11.3378
де	-11.3378
▁Зочи	-11.3379
▁бэрт	-11.338
сай	-11.338
▁эхнэртэй	-11.3382
▁нотлогд	-11.3384
▁Аан	-11.3387
Хурц	-11.3388
fo	-11.3392
▁лол	-11.3392
▁цуцал	-11.3393
▁хайсан	-11.3395
▁зарлаад	-11.3397
▁боли	-11.3401
▁Те	-11.3405
▁жуул	-11.3409
▁бодлоготой	-11.3412
▁бодлогоор	-11.3413
▁сонсч	-11.3413
▁зогс	-11.3415
▁санаачлаг	-11.3415
▁Ца	-11.3418
▁тайлагна	-11.3418
▁зохи	-11.3419
ҕ	-11.3419
▁үүсгэ	-11.3422
▁Ta	-11.3426
▁мэдэгдэлд	-11.3429
▁Хүсэл	-11.343
▁дүрсэл	-11.3431
▁эсэргүүцлий	-11.3431
▁жих	-11.3433
▁хаз	-11.3434
▁нийлээ	-11.3437
Хэн	-11.3437
Эрдэнэс	-11.3442
▁нөөс	-11.3442
▁багтай	-11.345
▁бүтээгдсэн	-11.3452
▁оролдоод	-11.3452
▁дарааллаар	-11.3452
▁багассан	-11.3453
▁порт	-11.3453
ИД	-11.3453
▁найрлага	-11.3453
▁таниулах	-11.3454
▁театрт	-11.3455
▁ядарч	-11.3456
▁дайчин	-11.3456
ba	-11.3459
▁мэдэр	-11.346
▁зүтгэсэн	-11.346
▁хэвлэгдэ	-11.3462
▁уншигчид	-11.3462
▁урс	-11.3463
▁Ga	-11.3467
▁Тагнуулын	-11.3467
▁хоцрогд	-11.3469
▁тэсвэртэй	-11.3469
▁утсан	-11.3469
▁цагаасаа	-11.3471
ue	-11.3471
▁зорилтыг	-11.3473
▁Чен	-11.3473
▁суурил	-11.3474
▁хэлээч	-11.3481
▁сэргийлж	-11.3487
▁үүлс	-11.3491
▁өртөгтэй	-11.3493
AT	-11.3495
▁атаарх	-11.3496
▁тамирчды	-11.3498
▁лүүлэх	-11.3499
▁жу	-11.3501
▁72	-11.3505
▁Dec	-11.3507
▁ирдэггүй	-11.3509
▁нийтлэлд	-11.3513
▁оруулалтыг	-11.3513
▁Тоглолтын	-11.3515
▁сургуулиудын	-11.3515
▁тушаалаа	-11.3517
▁ачааны	-11.3519
▁донто	-11.3523
▁Үзэ	-11.3526
▁цөөнх	-11.353
▁el	-11.353
▁дасан	-11.353
чихсон	-11.3531
▁хориог	-11.354
▁аван	-11.3546
▁хөдөл	-11.3548
▁засварлах	-11.3552
▁чулууг	-11.3555
▁суудалд	-11.3559
▁Дайн	-11.3559
▁өргөтгөл	-11.3561
▁Мөр	-11.3562
кер	-11.3564
▁Instagram	-11.3565
▁Шатахуун	-11.3565
▁загалмай	-11.3565
▁зовиур	-11.3565
▁эзэгтэй	-11.3565
▁ковид	-11.3565
▁энэтхэг	-11.3565
▁Нөөц	-11.3565
▁тодорхойлно	-11.3565
▁ШИНЭ	-11.3565
▁бүлгүүд	-11.3565
▁Орчлон	-11.3566
▁мөчлөг	-11.3566
▁харшил	-11.3566
▁уулзвар	-11.3567
▁тайвны	-11.3567
▁ёр	-11.3567
▁өргөл	-11.3568
обби	-11.3569
▁хүлээл	-11.3571
▁Лин	-11.3572
▁НЭГ	-11.3572
зэн	-11.3573
▁Жаргал	-11.3573
▁мэдрэгч	-11.3574
▁оруулав	-11.3576
▁Хэрэглээ	-11.3577
▁зочил	-11.3577
▁Бая	-11.3577
▁байгуулаад	-11.3578
▁гэрлэж	-11.358
▁англиар	-11.3582
▁хойшлуулах	-11.3583
▁Зурагт	-11.3585
▁сп	-11.3586
▁Харилцаа	-11.3588
▁суулаа	-11.3588
▁Австралид	-11.3589
ый	-11.3591
▁дурласан	-11.3591
au	-11.3594
▁алгаа	-11.3596
▁салхинд	-11.3597
▁материалууд	-11.3599
▁эмчилгээнд	-11.36
▁so	-11.3601
▁сайдаа	-11.3602
▁унтсан	-11.3604
▁Өвгөн	-11.3607
he	-11.3608
▁As	-11.3612
▁хүрээлэнд	-11.3613
▁ваа	-11.3613
▁дэвшигчдийн	-11.3613
▁Эдний	-11.3613
▁рах	-11.3618
▁хожиж	-11.3619
▁нэмэгд	-11.3621
▁агаад	-11.3622
▁хөөн	-11.3623
▁залха	-11.3624
▁Кен	-11.3627
▁оройт	-11.3627
▁во	-11.363
▁зарлаг	-11.3636
▁Будд	-11.3639
▁үнэрт	-11.3642
▁гав	-11.3643
▁дох	-11.3644
▁эрхлэгчдэ	-11.3646
TA	-11.3647
▁Бул	-11.3651
▁ивээл	-11.3661
▁оруулчих	-11.3661
агдашгүй	-11.3662
▁боо	-11.3664
▁тулгуурла	-11.3667
▁Сув	-11.3669
БХ	-11.3669
▁зогсоод	-11.3672
▁96	-11.3676
▁am	-11.3677
▁Кофе	-11.368
▁Хэцүү	-11.368
▁микро	-11.368
▁үнэлэмж	-11.368
▁хагаст	-11.368
▁өөрчлөгдөөгүй	-11.368
▁Ардчиллы	-11.368
▁Сэдэв	-11.368
▁гэцгээ	-11.368
▁боломгүй	-11.3681
▁нийцэж	-11.3681
▁нэмэгдсээр	-11.3681
▁таавар	-11.3682
▁админ	-11.3682
▁хориглодог	-11.3683
▁гуйлга	-11.3683
▁өргөсөн	-11.3684
▁2030	-11.3684
▁гутаа	-11.3685
▁тэнхээ	-11.3685
▁тайзнаа	-11.3685
▁зарлана	-11.3686
▁нуудын	-11.3686
▁ганга	-11.3686
▁дэвшсэн	-11.369
▁өргөжүүлэх	-11.369
▁бүрддэг	-11.369
▁цэцгийн	-11.3691
▁Нээлттэй	-11.3694
▁дагасан	-11.3694
▁асуувал	-11.3695
▁лэсэн	-11.3699
▁экологи	-11.3703
ета	-11.3703
▁оролцоотой	-11.371
▁Соли	-11.371
▁дурдах	-11.3714
▁):	-11.3714
▁гомд	-11.3715
▁настан	-11.3717
▁нугал	-11.3718
▁Анна	-11.3718
▁хурууны	-11.3719
▁зээлээр	-11.372
▁Вакцин	-11.372
▁зодож	-11.3721
▁нүүрэн	-11.3722
ck	-11.3723
▁улай	-11.3725
▁дүүгээ	-11.3725
▁Бан	-11.3731
▁дайчла	-11.3731
▁орноор	-11.3733
Нийгэм	-11.3733
▁түшиг	-11.3734
▁баялгийн	-11.3736
▁наашаа	-11.3737
▁өөрөөс	-11.3738
▁Пу	-11.374
еди	-11.3741
▁Ту	-11.3742
▁шаг	-11.3742
▁орохоос	-11.3747
▁уриал	-11.3748
мор	-11.3749
▁түүхээ	-11.375
▁хуруугаа	-11.375
▁зовоох	-11.375
▁Тод	-11.3753
▁снийг	-11.3755
▁болсондоо	-11.3757
▁тохирохгүй	-11.376
▁нэгтгэн	-11.376
▁%	-11.3762
▁мэдрээ	-11.3764
▁марга	-11.3768
▁үдэшлэг	-11.377
▁тогоонд	-11.3771
▁тогтолцооны	-11.3773
▁булчинг	-11.3779
▁тэжээвэ	-11.3785
▁гялалза	-11.3792
▁байрлуулж	-11.3792
▁мэдрэмжтэй	-11.3793
▁Шо	-11.3794
текс	-11.3795
▁гарахдаа	-11.3795
▁Дөрөв	-11.3796
▁илэр	-11.3796
Занданшатар	-11.3796
▁Латин	-11.3796
▁Байгууллага	-11.3796
▁мисс	-11.3796
▁оймс	-11.3796
▁Oct	-11.3797
▁лангуу	-11.3798
▁оршихуй	-11.3798
▁литр	-11.3798
▁хандалт	-11.3799
▁хүмүүжүүлэх	-11.3799
▁шуудан	-11.3799
▁эвдэрсэн	-11.38
▁оролддог	-11.38
▁Бэл	-11.38
▁өргөтгө	-11.38
▁Экс	-11.3801
▁нэрлэгддэг	-11.3802
▁23-	-11.3803
пер	-11.3803
▁үетэй	-11.3804
ton	-11.3807
▁хулгана	-11.3808
▁1.3	-11.3809
▁Чой	-11.3811
▁гүм	-11.3813
▁тарах	-11.3813
▁сэтгэлзүй	-11.3813
▁олонтаа	-11.3814
▁метро	-11.3814
▁худалдаалах	-11.3817
▁явуулахад	-11.3818
▁сонгогд	-11.3823
▁Тор	-11.3824
лээрэй	-11.3825
▁уншихад	-11.3827
шөө	-11.3827
▁97	-11.3828
▁Тэгснээ	-11.3834
▁1500	-11.3835
▁хамаара	-11.3838
▁салон	-11.3839
▁нэгтгэж	-11.384
▁раа	-11.3842
▁шоо	-11.3842
▁больё	-11.3846
▁холын	-11.3849
▁Тоглолт	-11.3849
▁оноог	-11.385
▁тоосон	-11.385
▁асуулгы	-11.3851
▁бүрэлдэхүүнтэй	-11.3859
mon	-11.3862
▁бодолд	-11.3864
▁лаборатор	-11.3867
▁гарчих	-11.3869
▁Цагаа	-11.3871
▁хэлдэггүй	-11.3872
▁Ганбаатар	-11.3872
▁Эрдэнэтийн	-11.3874
▁Зуун	-11.3876
▁буцааг	-11.3879
▁Дэв	-11.388
▁Ba	-11.3889
▁залруула	-11.3889
▁тавихгүй	-11.3892
зе	-11.3893
ааааа	-11.3896
ама	-11.3899
▁гэгээр	-11.3905
▁оооо	-11.3906
nc	-11.3907
▁цэнэглэ	-11.3909
▁Go	-11.3909
▁солигдо	-11.391
▁таниул	-11.3911
▁94	-11.3912
▁Хариуцлага	-11.3914
▁бензин	-11.3914
▁үзмэр	-11.3914
▁тодорч	-11.3914
▁ноёд	-11.3914
▁дамжиггүй	-11.3914
▁Болж	-11.3914
▁цацраг	-11.3914
▁шахмал	-11.3914
▁тооцвол	-11.3915
▁омог	-11.3915
▁Бүсгүйчүүд	-11.3915
▁бүрдүүлдэг	-11.3915
▁Иван	-11.3917
▁шинэчлэгдсэн	-11.3917
▁Дүүрг	-11.3918
▁Дэлгэр	-11.3918
▁номлол	-11.392
▁уулзав	-11.392
▁урагшлах	-11.392
▁үзмээр	-11.392
▁сахиус	-11.3921
▁дагадаг	-11.3922
sk	-11.3923
▁Агуу	-11.3925
▁нэгтгэ	-11.3925
▁най	-11.3925
▁дурьд	-11.3926
▁Хулгайч	-11.3927
▁Сүр	-11.3927
▁Намар	-11.3927
▁ялагдсан	-11.3928
ЫГ	-11.3928
▁үүдэд	-11.393
▁нэгтээ	-11.3933
▁архаг	-11.3937
▁өртэй	-11.3937
▁суралцсан	-11.3938
▁Ти	-11.3938
▁хэвлэлд	-11.3939
▁COVID	-11.394
▁нийтлэх	-11.3943
▁Ач	-11.3945
▁асууна	-11.3946
▁Mongolia	-11.3946
▁ургамлы	-11.3946
▁нэгдүгээрт	-11.3951
▁нэхэмжлэл	-11.3952
▁арьсанд	-11.3954
олдож	-11.3955
чсэн	-11.3956
▁заяаны	-11.3961
▁мя	-11.3963
▁айлчил	-11.3965
ies	-11.3968
дгийг	-11.3969
хайрхан	-11.3969
▁Мари	-11.3973
▁Элс	-11.3973
▁жагсаалтаас	-11.3976
▁арилгаж	-11.3976
ико	-11.398
▁хуваар	-11.3983
▁уламжлалтай	-11.3983
▁түм	-11.3984
▁тра	-11.3984
▁сонголттой	-11.3985
▁цагдан	-11.3986
▁дизайны	-11.3986
▁атаарха	-11.3988
▁лавтай	-11.3993
оф	-11.3995
▁Украин	-11.3995
man	-11.3998
▁87	-11.4
▁чанд	-11.4001
ту	-11.4002
▁уриалга	-11.4003
эш	-11.4006
▁нэмэгдээ	-11.4007
▁VI	-11.4007
▁эсэргүүцсэ	-11.4007
▁чихгүй	-11.4008
▁ноо	-11.4008
▁Ари	-11.401
▁Урлагийн	-11.4011
гер	-11.4011
▁зохицо	-11.4026
▁Зохио	-11.4028
сгөл	-11.4029
▁Холливуд	-11.4033
▁Casino	-11.4033
▁ТҮЦ	-11.4033
▁консул	-11.4033
▁организм	-11.4033
▁сахиулах	-11.4033
▁Бэлтгэл	-11.4033
▁баячууд	-11.4033
▁араа	-11.4033
▁аваргууд	-11.4033
▁сахал	-11.4033
▁бичээч	-11.4034
▁Унгар	-11.4034
▁тавьжээ	-11.4035
▁цогцос	-11.4035
▁tion	-11.4035
▁хавсарга	-11.4036
▁харагдуулах	-11.4037
▁уулна	-11.4037
▁сэргээлт	-11.4037
▁БА	-11.4037
▁гэдгийн	-11.404
▁яривал	-11.4041
▁тавилаа	-11.4042
▁уулаа	-11.4042
▁ажиллалаа	-11.4042
▁залуухан	-11.4045
▁хохирч	-11.4046
▁ЭЗЭНий	-11.4046
▁сэм	-11.4047
▁борлуулагч	-11.4048
▁сандра	-11.4049
▁нөхөрт	-11.4049
▁зэргээ	-11.405
▁хуралдах	-11.405
▁Хашаа	-11.4051
▁жа	-11.4052
▁Mon	-11.4053
▁дутахгүй	-11.4054
▁ачааллы	-11.4055
▁бодов	-11.4057
▁шүтэн	-11.4057
▁жаа	-11.4058
▁хүүхдүүдтэй	-11.4059
▁уйд	-11.4061
еб	-11.4061
▁уулж	-11.4063
▁Там	-11.4066
▁дарааллы	-11.4066
▁түрээслэх	-11.4066
уухан	-11.4067
▁гайхан	-11.4067
▁ангийнхан	-11.407
▁хөдөлгөөнтэй	-11.4072
▁Тайлан	-11.4073
▁бнаа	-11.4076
▁гуд	-11.4076
▁гэснээс	-11.4079
▁цэнэг	-11.4081
▁оло	-11.4083
▁төрлөө	-11.4084
Даваасүрэн	-11.4086
Батзандан	-11.409
Бүх	-11.409
▁газ	-11.4091
врын	-11.4092
▁Хайрт	-11.4095
▁баримтаа	-11.4096
▁өөрчлөгдөхгүй	-11.4101
▁таарахгүй	-11.4102
осой	-11.4103
▁хоногоор	-11.4104
▁Камер	-11.4104
▁хэвлүүл	-11.4106
▁чамгүй	-11.4107
ran	-11.4108
▁Шүү	-11.4109
▁мэргэ	-11.4111
▁төлбөрт	-11.4112
▁засаглалтай	-11.4116
▁барьц	-11.4119
▁#1	-11.4123
▁цэрэгт	-11.4126
▁сонгуулиа	-11.4127
ийнхөө	-11.4134
хулгайлсан	-11.4135
▁тэв	-11.4136
▁нүүлгэ	-11.4139
▁засалт	-11.414
▁өөрсдийнх	-11.4145
▁улсуудад	-11.4151
▁ойлголц	-11.4152
▁Баянхонгор	-11.4153
▁сэтгэгдлий	-11.4153
▁хөргөгч	-11.4153
▁Тэтгэвэр	-11.4153
▁хийгддэг	-11.4153
▁тариф	-11.4153
▁үзэгчдэд	-11.4153
▁совин	-11.4153
▁Талбай	-11.4154
▁аянд	-11.4154
phone	-11.4154
▁Тэргүүн	-11.4154
▁өтгө	-11.4154
мсог	-11.4155
агдаад	-11.4155
▁нэмэгджээ	-11.4156
▁Буцаа	-11.4156
▁үеийнхээ	-11.4156
▁хохирсон	-11.4157
▁ургах	-11.4157
▁хоцорсон	-11.4158
▁татвараа	-11.4159
▁хүрэв	-11.4159
▁хахууль	-11.4159
базар	-11.4161
▁эрхэлсэн	-11.4162
▁бэлэглэсэн	-11.4163
▁зовсон	-11.4164
▁ум	-11.4165
▁цэргээ	-11.4165
▁шингэсэн	-11.4165
▁өвдөө	-11.4166
▁Утсаа	-11.4166
▁мэн	-11.4167
▁сүмд	-11.4168
▁хэлбэрт	-11.4168
▁уяа	-11.4169
▁тиймэрхүү	-11.4171
▁хохирлыг	-11.4171
▁Калифорни	-11.4171
icle	-11.4171
▁бүртгэлд	-11.4176
▁хашаанд	-11.4176
▁хүүхдэдээ	-11.4179
▁тохиролцо	-11.418
ca	-11.418
▁дурлах	-11.4186
▁шударгаар	-11.4187
▁комп	-11.4189
▁6:	-11.419
▁комиссын	-11.419
▁биенд	-11.4195
▁тээвэрлэх	-11.4196
way	-11.4199
▁унтлаг	-11.42
▁буурчээ	-11.4201
▁зарууд	-11.4203
огтвортой	-11.4205
гэлз	-11.4209
▁Нис	-11.4215
це	-11.4215
0.000	-11.422
▁тушаалаас	-11.4224
ance	-11.4225
▁өвч	-11.4225
▁Ак	-11.4228
▁даргатай	-11.4235
бит	-11.424
▁Na	-11.4241
▁Тур	-11.4244
үүлбэл	-11.4247
▁Эз	-11.4248
▁Биеэ	-11.4249
▁Чулуу	-11.4252
▁Амгалан	-11.4254
еее	-11.4261
▁үнэртэ	-11.4263
▁Цалинг	-11.4269
▁хөрвүүл	-11.4273
▁Аргентин	-11.4275
▁сүсэг	-11.4275
▁шүтлэг	-11.4275
▁Гамшг	-11.4275
▁өмчлөх	-11.4275
▁Хөнгөн	-11.4275
▁социализм	-11.4275
▁завшаан	-11.4275
▁дэлбэрэлт	-11.4275
▁Уламжлал	-11.4275
▁өмхий	-11.4276
▁Хэвлэлийн	-11.4276
▁самуун	-11.4276
▁худалдагч	-11.4276
▁олшир	-11.4277
▁сонсоно	-11.4277
▁мэндэлсэн	-11.4278
▁хүүхний	-11.4279
▁Владим	-11.428
▁Захиргааны	-11.4281
▁ялгарах	-11.4282
▁араб	-11.4282
▁удирддаг	-11.4282
▁Бүлэг	-11.4283
▁гарда	-11.4283
кин	-11.4285
▁Цэрэн	-11.4285
▁Ri	-11.4286
▁3.1	-11.4286
▁байлгана	-11.429
▁Босоо	-11.4292
▁уяач	-11.4292
эрлэг	-11.4295
5%	-11.4297
▁соор	-11.4299
▁топ	-11.43
▁Ве	-11.4302
▁метрийн	-11.4307
▁үндэслэлээр	-11.4311
▁гадаргуу	-11.4315
амин	-11.4315
▁);	-11.4316
▁зараа	-11.4317
▁чанараа	-11.4317
▁хаягдлы	-11.432
▁тохи	-11.4322
▁босгож	-11.4324
▁зургаар	-11.4324
▁хайч	-11.4325
RA	-11.4332
Өнгөрсөн	-11.4336
▁заагаад	-11.4338
▁Амь	-11.434
▁таалагд	-11.4341
▁гэхэв	-11.4341
▁Аавын	-11.4346
▁эрэмбэ	-11.4349
▁жирэмс	-11.4349
▁ойлгуул	-11.435
▁Тэмцээний	-11.435
▁хөдөөний	-11.4353
▁өсгөж	-11.4357
▁тулааны	-11.436
▁бүтээжээ	-11.4365
▁борлуул	-11.4365
▁лагдаж	-11.4366
үүхэн	-11.4367
▁маягтай	-11.4367
▁Сул	-11.437
▁3)	-11.4371
▁дэггүй	-11.4377
ted	-11.4377
▁бөглө	-11.4378
▁болино	-11.4378
ook	-11.438
▁хум	-11.4382
▁уйда	-11.4383
▁зүйлүүдийг	-11.4384
▁дуунд	-11.4385
▁69	-11.4385
ko	-11.4393
▁хадгала	-11.4393
▁бүрхэг	-11.4393
▁196	-11.4394
▁төрөлт	-11.4395
▁мэдрүүл	-11.4397
▁Бутлуур	-11.4399
▁твиттер	-11.4399
▁томилолт	-11.4399
▁^^	-11.4399
▁могой	-11.4399
▁хамтаар	-11.4399
▁тийз	-11.4399
▁гавъяа	-11.4399
▁эрлийз	-11.4399
▁өлсөж	-11.4399
▁органик	-11.4399
▁Өөрчлөлт	-11.4399
▁Хишиг	-11.44
▁More	-11.44
▁Нисэх	-11.4401
▁Мягмар	-11.4401
▁дусал	-11.4401
▁болголоо	-11.4402
▁ha	-11.4403
▁эвлэл	-11.4403
▁мэдээлэв	-11.4403
ёо	-11.4404
▁Ub	-11.4405
▁Time	-11.4405
▁шүтээн	-11.4405
▁модель	-11.4405
▁2.5	-11.4406
▁аялагч	-11.4407
ӨХ	-11.4408
▁оллоо	-11.4408
▁дуусаад	-11.4409
▁хангадаг	-11.441
▁хүрэн	-11.4411
▁Туяа	-11.4412
▁төлөвлөлтийн	-11.4412
▁үзэв	-11.4413
▁харууллаа	-11.4413
▁аялан	-11.4414
▁шахсан	-11.4415
▁сайжруулсан	-11.4415
өндөө	-11.4417
▁төлөвлөжээ	-11.4417
▁баривчилжээ	-11.4417
алгаа	-11.4417
Ы	-11.4419
▁←	-11.442
орой	-11.442
▁төлөвлөгөөгөө	-11.4421
Ард	-11.4422
▁Хууч	-11.4424
▁агуй	-11.4424
SA	-11.4425
▁үхрий	-11.4427
▁шорон	-11.4428
лэгддэг	-11.443
ny	-11.4431
▁шиж	-11.4431
▁цолтой	-11.4431
▁ии	-11.4431
▁блогоо	-11.4433
▁Гуравдугаарт	-11.4433
олгоо	-11.4433
▁ярианд	-11.4434
зэг	-11.4434
▁жан	-11.4435
▁идчих	-11.4436
▁Хой	-11.4441
▁зорих	-11.4444
▁сонсогдо	-11.4445
ели	-11.4445
▁унагах	-11.4446
▁солиор	-11.4446
мэйлээр	-11.4446
▁инээх	-11.4448
▁даалга	-11.4448
▁63	-11.445
▁тэвчи	-11.4451
▁жуулчи	-11.4454
▁хүндэтгэлтэй	-11.4455
▁et	-11.4457
▁Сургуульд	-11.4459
Ё	-11.4461
Алтай	-11.4461
▁үнэртэй	-11.4461
▁гэрийнхээ	-11.4463
ОЙ	-11.4466
▁130	-11.4467
▁Оролцогч	-11.4467
▁нотолж	-11.4467
▁Залуучуудын	-11.4473
дэгдсэн	-11.4475
ark	-11.4484
рэлт	-11.4485
▁хари	-11.449
УЛ	-11.449
ать	-11.449
▁Тос	-11.4494
ӨЛ	-11.4497
ке	-11.4499
▁дарамтал	-11.4504
▁na	-11.451
▁залх	-11.4515
▁Магад	-11.4516
▁бурханы	-11.4518
Батхүү	-11.4518
ожуу	-11.4521
ü	-11.4524
▁Групп	-11.4524
▁НАТО	-11.4524
▁дайснууд	-11.4524
▁сэдвүүд	-11.4524
▁учрал	-11.4524
▁Голланд	-11.4524
▁бичээгүй	-11.4524
▁хольж	-11.4524
▁Төлөвлөгөө	-11.4524
▁Мосе	-11.4524
▁эдүгээ	-11.4525
▁өндрөө	-11.4525
▁судар	-11.4526
▁санхүүжүүлэх	-11.4526
▁луйварчин	-11.4527
▁зөвлөсөн	-11.4527
▁Зохиогч	-11.4527
▁өгүүлэв	-11.4528
▁Є	-11.4528
▁62	-11.4528
▁сарнай	-11.4528
▁халуухан	-11.453
▁томилсон	-11.4531
сайхан	-11.4531
▁ферм	-11.4531
▁тох	-11.4532
▁Хавар	-11.4532
▁цаадах	-11.4532
▁тэтгэлэгт	-11.4533
▁дайрах	-11.4534
ist	-11.4544
▁Цас	-11.4545
▁уулздаг	-11.4545
▁манлай	-11.4545
▁булчин	-11.4546
▁алхаа	-11.4547
▁заасны	-11.4548
▁удирд	-11.4553
▁Хулан	-11.4556
▁89	-11.4557
▁мэйл	-11.4557
▁явуулахгүй	-11.456
▁зодо	-11.456
▁багачууд	-11.4563
▁хооллож	-11.4564
▁суув	-11.4567
лэгдэж	-11.457
▁уулаад	-11.4571
▁ивээ	-11.4574
▁АХ	-11.4576
▁тавихад	-11.4583
▁дуусгав	-11.4584
▁Орши	-11.4586
Хүрэлбаатар	-11.4587
▁өнгий	-11.459
ҮҮЛ	-11.459
▁болгондоо	-11.4591
сэж	-11.4592
▁БН	-11.4595
▁чдыг	-11.4595
▁лавлах	-11.4597
▁нөлөөг	-11.4599
Хүний	-11.4599
▁видеог	-11.4601
мбай	-11.4605
▁бясалга	-11.4605
▁Sc	-11.4612
▁цайгаа	-11.4617
▁үхнэ	-11.4618
▁цонхоор	-11.4621
нийгээ	-11.4623
▁халж	-11.4624
му	-11.4625
Ю	-11.4627
▁явсны	-11.4628
▁төлбөртэй	-11.4633
▁Чуулган	-11.4636
ES	-11.4636
▁зүүдлэ	-11.4643
▁залуусаа	-11.4643
▁үзүүлэлтийг	-11.4646
▁Алекс	-11.4649
▁Палестин	-11.465
▁Яаралтай	-11.465
▁зарчмууд	-11.465
▁аппликейшн	-11.465
▁хожсон	-11.465
▁ярилцлагын	-11.465
▁Сансар	-11.465
▁виртуал	-11.4651
▁зиндаа	-11.4651
▁Хэмжээ	-11.4652
▁сувгий	-11.4652
▁дамжаа	-11.4652
▁зөвшөөрлөө	-11.4652
▁эзэмшлийн	-11.4652
▁шилдгүүд	-11.4652
нуугдаж	-11.4653
▁тулах	-11.4655
▁нөхөртөө	-11.4655
▁Наадам	-11.4656
▁балет	-11.4657
▁журамд	-11.4658
▁хүрэлцээ	-11.4658
▁хоер	-11.4659
▁замнал	-11.4659
▁орчуулах	-11.4661
▁үүлдэг	-11.4663
▁тэмүүлэл	-11.4664
▁com	-11.4666
▁хамгаалалттай	-11.4667
▁унана	-11.4667
▁уулзахаар	-11.4668
▁Шалга	-11.467
▁хувирч	-11.4673
▁сайтаас	-11.4676
▁Дэлхийг	-11.4679
▁багасга	-11.4683
▁сүйт	-11.4683
able	-11.4685
▁Эрдэн	-11.4688
▁хуваарийг	-11.4689
▁хувиараа	-11.4689
▁ирэн	-11.469
▁Өвчи	-11.4691
▁зурагтай	-11.4693
▁санаачлага	-11.4697
▁харьяат	-11.4697
▁зарц	-11.4698
▁зургуудаас	-11.4699
▁элт	-11.4699
▁охиндоо	-11.4701
▁тушаалаар	-11.4704
ура	-11.4705
▁танайх	-11.4707
▁хоёуланг	-11.4707
▁бүрдэл	-11.4711
огдох	-11.4715
снаа	-11.4718
▁өргөжи	-11.4721
▁авчир	-11.4721
▁байснаар	-11.4721
▁Ашигт	-11.4724
▁зэм	-11.4724
▁авилгал	-11.4724
ати	-11.4725
▁шалгаруулж	-11.4726
▁зөрчилтэй	-11.473
▁Ёо	-11.473
▁үерх	-11.4738
▁27-	-11.474
▁түши	-11.474
▁өрнүүл	-11.4743
▁хуримаа	-11.4743
▁бүсгүйтэй	-11.4748
▁тосгоны	-11.475
▁зохио	-11.4752
▁агч	-11.4756
▁ижий	-11.4757
▁ЭМ	-11.4762
▁нийгэмлэгийн	-11.4764
▁элсэ	-11.4768
зүйн	-11.477
▁Чамтай	-11.477
▁мулт	-11.4772
▁Португал	-11.4778
▁Харанхуй	-11.4778
▁агууламж	-11.4778
▁Жэнко	-11.4779
▁тэнхлэг	-11.4779
▁хэлэлцэн	-11.4779
▁ёроол	-11.4779
▁тохиолдуулан	-11.4779
▁)))	-11.4779
▁сонгоорой	-11.4779
quot	-11.4779
▁сайжрах	-11.478
▁экспортлох	-11.478
▁ярилцана	-11.478
▁өвчилсөн	-11.478
▁урьдчилгаа	-11.4781
▁Хаха	-11.4782
▁баяжуулах	-11.4782
▁1989	-11.4783
▁бүтсэн	-11.4784
▁болчихно	-11.4784
▁мэдүүлсэн	-11.4786
▁ex	-11.4787
▁Гэх	-11.4788
▁сурчих	-11.479
▁киногоо	-11.4791
▁ахыг	-11.4791
▁тасарсан	-11.4791
▁ЕХ	-11.4792
▁гэн	-11.4793
▁хэтэр	-11.4793
▁суралцдаг	-11.4794
▁чөлөөлж	-11.4794
▁1.1	-11.4794
▁Еховаг	-11.4795
▁Ca	-11.4798
▁багтана	-11.48
▁Зүүд	-11.48
▁төрчдий	-11.4802
age	-11.4805
▁гэрэлтэй	-11.4806
▁автсан	-11.4808
ail	-11.481
▁түлшний	-11.481
▁гам	-11.481
Ар	-11.4811
▁тавилгатай	-11.4811
▁ухаарч	-11.4812
▁түүхээс	-11.4813
▁зугаал	-11.4813
▁сурвалжууд	-11.4814
▁түрээслэ	-11.4815
▁1%	-11.4816
▁нийлэхгүй	-11.4817
▁өрнөх	-11.4818
▁телевизээр	-11.4818
▁дэвшүүл	-11.4821
▁хавьгүй	-11.4821
▁нөхдөө	-11.4823
▁манга	-11.4827
▁үүрэх	-11.483
▁уулзаа	-11.4832
▁Сатан	-11.4832
▁po	-11.4833
▁буланд	-11.4834
▁шинжилгээг	-11.4835
▁ухаа	-11.4836
▁тэмдэглэв	-11.4837
▁уста	-11.4838
▁өгөө	-11.484
▁мэдрэл	-11.484
▁жуулж	-11.4842
▁Зурга	-11.4843
▁Март	-11.4845
эйн	-11.4845
Улаан	-11.4845
▁тохироо	-11.4846
▁хөрөнгөөр	-11.4849
▁Най	-11.4851
▁цахилгааны	-11.4858
ие	-11.486
▁аудит	-11.486
be	-11.4866
▁1)	-11.4874
▁суурьш	-11.4877
▁хамаарал	-11.4879
▁хуваарила	-11.4879
▁гахайн	-11.488
Tags	-11.488
баасан	-11.4881
▁зочло	-11.4881
мхай	-11.4885
▁эсэн	-11.4887
▁бүртгэгдэ	-11.489
▁зарагда	-11.4893
▁нэвтэр	-11.4894
▁бодолгүй	-11.4902
▁pe	-11.4903
▁урган	-11.4904
▁журамтай	-11.4905
ҮГ	-11.4908
▁ЕБС	-11.4908
▁офицер	-11.4908
Ганзориг	-11.4908
▁Дизайн	-11.4908
▁диваажин	-11.4908
▁протокол	-11.4908
▁шошго	-11.4908
▁Статистик	-11.4908
▁асрамж	-11.4908
▁Зеланд	-11.4908
▁кафе	-11.4908
▁сохор	-11.4908
▁энхрий	-11.4908
▁Дүрэм	-11.4909
▁мотоцикл	-11.4909
▁more	-11.4909
▁өмсөөд	-11.4909
▁зүсэ	-11.491
▁үндэстнүүд	-11.491
▁фэнүүд	-11.491
▁асуугаарай	-11.491
▁шалгарч	-11.4912
▁нэхэх	-11.4912
▁холдох	-11.4913
▁аврагч	-11.4913
▁өнгөрөөсөн	-11.4913
DA	-11.4915
▁хөөргө	-11.4915
▁найдах	-11.4916
▁эрдмий	-11.4916
▁€	-11.4917
▁биелүүлсэн	-11.4918
▁тулгараад	-11.4918
▁хадам	-11.492
▁дүнгээс	-11.4922
▁явчихдаг	-11.4924
▁того	-11.4925
▁буцсан	-11.4925
▁Тэс	-11.4925
Чиний	-11.4925
▁ярьцгаа	-11.4926
▁явав	-11.4927
▁дэглэмийг	-11.4927
▁мангас	-11.4932
▁жолоодох	-11.4932
▁төрсний	-11.4932
▁ID	-11.4932
▁дүрслэл	-11.4935
▁нийцэхгүй	-11.4936
ань	-11.4937
▁хассан	-11.4938
▁шохойн	-11.4942
▁Карт	-11.4942
▁маргалда	-11.4943
▁зайлах	-11.4943
▁Хань	-11.4943
гээрэй	-11.4944
▁%-	-11.4945
▁хасч	-11.4947
▁бүхэнтэй	-11.4947
▁лэлт	-11.4947
▁шалгаруулалтад	-11.495
▁ярилцаа	-11.4951
▁Эрдэмтэ	-11.4953
ден	-11.4956
▁задра	-11.4956
▁зөө	-11.4959
өнгийг	-11.496
▁эмчил	-11.4961
▁бэлэглэх	-11.4961
▁үсрэ	-11.4961
▁буйдан	-11.4969
▁түрүүл	-11.4971
▁залуусыг	-11.4973
▁толин	-11.4975
AC	-11.4976
▁зорчи	-11.4976
▁чип	-11.4977
Хамг	-11.4979
▁Жак	-11.4984
▁хүргэн	-11.4985
▁захирагда	-11.4986
▁УУ	-11.4989
▁хамруулж	-11.4991
▁бари	-11.4991
▁моор	-11.5004
▁түрх	-11.5004
еви	-11.5007
▁Насан	-11.5008
▁28-	-11.5009
▁Аюул	-11.5011
хаж	-11.5013
▁ахаа	-11.5015
урам	-11.5018
УУР	-11.5024
ner	-11.5028
▁Цогт	-11.5035
▁засварла	-11.5037
▁казиног	-11.5037
▁хөлдөө	-11.5038
¬	-11.504
▁ЭЕШ	-11.504
▁pdf	-11.504
▁Дагуурын	-11.504
▁тоомсорло	-11.504
▁холбосон	-11.504
▁ургадаг	-11.504
▁хүмүүнлэгийн	-11.504
▁Арслан	-11.504
▁Месси	-11.504
▁Amazon	-11.504
▁ариу	-11.5041
▁мянгаар	-11.5041
▁жигүүр	-11.5041
▁өнгөрөгч	-11.5041
▁хэрэгжсэн	-11.5042
▁олдоно	-11.5043
▁холбогдоно	-11.5043
▁Судлаач	-11.5043
▁үйлчлүүлэх	-11.5043
▁цэцэглэ	-11.5044
▁хөндсөн	-11.5044
▁зориулав	-11.5045
▁хэрэгжүүлдэг	-11.5047
▁илэрхийлэв	-11.5047
▁танигд	-11.5047
▁урвагч	-11.5052
▁прокурорын	-11.5052
▁хүртээмжтэй	-11.5053
▁улстөрчдий	-11.5054
▁илрүүлж	-11.5055
▁Хэвлэх	-11.5056
▁Ислам	-11.5057
ake	-11.5059
чээд	-11.5059
▁шуна	-11.5061
▁зорилтууд	-11.5062
▁нимгэн	-11.5062
▁хуваалцсан	-11.5062
▁болгов	-11.5066
▁140	-11.5067
▁баталгаажуулсан	-11.5067
▁чихлээ	-11.5068
▁тэнцвэртэй	-11.5068
▁тусгах	-11.5073
▁нуусан	-11.5073
▁сонсогдох	-11.5076
▁хээс	-11.5078
▁гуайн	-11.5079
▁тэнэгүүд	-11.5081
▁per	-11.5081
▁ѳѳр	-11.5084
▁дэгдээ	-11.5086
▁залгамж	-11.5086
▁зүйг	-11.5088
▁мөрөөдлийн	-11.5095
▁єє	-11.5097
▁Дам	-11.5099
▁илтгэх	-11.5103
сноо	-11.5104
▁чанада	-11.5106
▁Далд	-11.5108
▁гон	-11.511
Мэдээж	-11.511
ашаан	-11.5111
ave	-11.5115
▁шийдвэрлэхэд	-11.5115
▁дээрхи	-11.5116
▁хувиа	-11.5118
▁цоож	-11.5121
▁танхимын	-11.5123
одвол	-11.5124
▁барилаа	-11.5132
▁хамгаа	-11.5132
▁ation	-11.5135
▁bo	-11.5137
▁үеэрээ	-11.5137
емо	-11.5139
▁ахад	-11.5139
▁төвлөрүүл	-11.5144
Эр	-11.5146
▁шул	-11.5152
▁эхэндээ	-11.5153
▁ярьдаггүй	-11.5158
▁зочилж	-11.516
олдвол	-11.5164
▁сөх	-11.5166
▁явдаггүй	-11.5168
▁Засвар	-11.5171
▁төгсөгч	-11.5173
▁Амазон	-11.5173
▁хэрэгсэхгүй	-11.5173
▁Төгсгөл	-11.5173
▁СХД	-11.5173
алддаг	-11.5173
▁говь	-11.5174
▁батламж	-11.5174
▁бичвэр	-11.5174
▁буцалтгүй	-11.5174
▁орчуулагч	-11.5175
▁Зохиол	-11.5175
▁зургаас	-11.5175
▁урьсан	-11.5176
▁Aug	-11.5176
▁солино	-11.5176
▁багана	-11.5177
▁нийтэлсэн	-11.5178
▁таалагдлаа	-11.5178
▁мл	-11.5178
▁уршиг	-11.5178
▁мэдүүлэх	-11.5179
▁1945	-11.5179
▁(3)	-11.5179
гддог	-11.518
▁IV	-11.518
▁нууцлал	-11.5181
▁дүүрсэн	-11.5183
ИХ	-11.5185
▁үдший	-11.5186
▁өрөөг	-11.5187
▁уншлаа	-11.5187
▁ором	-11.5188
эмдэг	-11.5191
▁явуулаад	-11.5191
▁жижиглэн	-11.5192
▁тэсрэ	-11.5192
▁Морь	-11.5194
▁алхмаа	-11.5196
▁оруулахыг	-11.5198
▁Тайвань	-11.5201
▁шоронг	-11.5201
▁дуусчих	-11.5203
▁/>	-11.5205
▁гүйцэх	-11.5207
▁хөнгөлөлттэй	-11.5208
▁болой	-11.5209
▁цэнэглэх	-11.5213
▁өгөхдөө	-11.5218
▁итгэлгүй	-11.5221
▁шүр	-11.5222
▁хичээлүүд	-11.5223
▁тоонууд	-11.5223
▁холбогдоо	-11.5228
▁77	-11.523
▁өч	-11.5235
▁амгаланг	-11.5237
▁өлгө	-11.5238
▁саат	-11.524
▁хичээнэ	-11.5241
▁нөхрийнх	-11.5243
▁All	-11.5244
▁сэргэж	-11.5245
▁мандал	-11.5249
▁ca	-11.5255
▁түл	-11.5255
▁хуваагд	-11.5256
▁Дүр	-11.5257
▁дус	-11.5259
▁Хурц	-11.5261
▁бүтэ	-11.5261
▁Зүрхний	-11.5265
Эд	-11.5272
▁Хөг	-11.5272
Тэг	-11.5273
▁оргилд	-11.5275
▁чадахаар	-11.5275
▁худалч	-11.5279
▁заалга	-11.5281
60	-11.5283
▁дагна	-11.5283
▁ИХ	-11.5284
▁мөнгөнөөс	-11.5291
RE	-11.5292
▁дөл	-11.5295
▁тохиол	-11.5296
▁корпораци	-11.5299
▁хонох	-11.5301
▁зангаа	-11.5302
▁эко	-11.5304
▁John	-11.5308
▁цилиндр	-11.5308
▁ФОТО	-11.5308
▁Эмчилгээ	-11.5308
▁2022	-11.5308
▁Нөхөн	-11.5308
▁бөгөөс	-11.5308
▁ядаргаа	-11.5308
▁Харвард	-11.5308
▁хийгдээгүй	-11.5309
▁Дамдин	-11.5309
▁ЗДТГ	-11.5309
▁Найруулагч	-11.5309
▁гадарла	-11.5309
▁Авлигы	-11.5309
▁Байден	-11.5309
▁тооллого	-11.531
▁нэхэж	-11.531
▁бүтнээр	-11.531
▁тохиох	-11.531
▁Интер	-11.531
▁зохино	-11.5311
▁япончууд	-11.5311
▁хэхэхэ	-11.5311
▁тохируулга	-11.5311
▁оруулаагүй	-11.5311
▁захидлы	-11.5311
▁тоглуулах	-11.5312
▁мэтгэлцээн	-11.5313
▁салахгүй	-11.5313
▁Арилжааны	-11.5314
▁Бээжинг	-11.5314
▁гүйцэ	-11.5316
▁корпорац	-11.5317
▁аллага	-11.5317
▁бүтээдэг	-11.5319
▁Хүрэл	-11.5319
▁эргүүлэх	-11.5319
▁суулт	-11.5319
▁Үзэгч	-11.532
▁баригд	-11.5321
▁Хэлэх	-11.5321
▁ХААН	-11.5323
▁унши	-11.5328
▁мэдэгд	-11.533
▁ИЙГ	-11.5331
▁Үндэстн	-11.5331
▁Хэрэглэх	-11.5332
▁шалгалтанд	-11.5333
▁үндэслэлгүй	-11.5334
▁бичлэгийн	-11.5336
▁хангал	-11.5338
▁хайрцг	-11.5338
▁Иохан	-11.5338
▁4000	-11.534
▁биелэлт	-11.534
▁ариутга	-11.5341
▁Карл	-11.5344
▁мангар	-11.5345
▁цэгцэл	-11.5346
▁10%	-11.5349
▁гүйлт	-11.5352
▁гут	-11.5355
▁сэлгээ	-11.5356
▁гаагүй	-11.5358
▁жагсаалтын	-11.5368
▁өвчил	-11.5369
▁тасар	-11.5369
▁тараад	-11.537
gg	-11.5371
▁байгууламжийн	-11.5372
▁дөг	-11.5375
▁гей	-11.5382
▁анти	-11.5383
▁харьцаан	-11.5383
▁өнд	-11.5384
▁сонирхолгүй	-11.5385
▁Tr	-11.5385
▁ут	-11.5386
▁Тэгш	-11.5387
▁засуул	-11.539
▁мэдээгээр	-11.539
▁ширээнд	-11.5392
▁хоолтой	-11.5394
▁гүнд	-11.5402
▁хаягдлын	-11.5403
▁үгэндээ	-11.5405
▁доромжло	-11.5408
▁төрхтэй	-11.5412
Од	-11.5412
агсад	-11.5417
▁нийцэх	-11.5419
▁байран	-11.542
▁ажиглагда	-11.542
▁ууртай	-11.5429
▁Фу	-11.543
▁дангаар	-11.543
тен	-11.5432
▁мэндээ	-11.5434
▁сэргэлэ	-11.5435
▁Con	-11.5435
сү	-11.5437
▁удах	-11.5439
▁ярихаас	-11.5439
▁хурдаар	-11.5441
▁тохижуул	-11.5443
▁цув	-11.5445
▁subject	-11.5445
▁ГХЯ	-11.5445
▁Гитлер	-11.5445
▁Зовлон	-11.5445
▁Шинжилгээ	-11.5445
▁захирлууд	-11.5445
▁Мөрөөдл	-11.5445
▁өвддөг	-11.5445
▁хоршоо	-11.5445
▁дурдвал	-11.5446
▁тэмцэнэ	-11.5446
▁тасархай	-11.5446
▁эрдэмтдий	-11.5446
▁тариалан	-11.5447
▁ойлголцох	-11.5447
▁цэгцлэх	-11.5447
▁болоорой	-11.5447
▁Гаднаас	-11.5448
ендер	-11.5448
▁Аварга	-11.5449
▁зөрчих	-11.5449
▁Дугаар	-11.5449
▁ядраа	-11.5449
▁posts	-11.5449
▁comments	-11.5449
▁халдвартай	-11.545
▁тогтоодог	-11.545
▁эргэцүүлэ	-11.5451
Бямбацогт	-11.5453
▁зодоон	-11.5453
▁хөршийн	-11.5453
▁шийдээд	-11.5455
▁өнгөрүүлдэг	-11.5456
▁ахих	-11.5456
▁сонор	-11.5456
▁хичээллэдэг	-11.5457
▁шаардлагууд	-11.5457
▁өлгий	-11.5458
▁төрөөд	-11.5458
▁***	-11.5459
▁бололцоотой	-11.5459
▁гадныхан	-11.5464
▁одоогийнх	-11.5465
▁байрт	-11.5467
▁түймрийн	-11.5467
▁шалгадаг	-11.5469
▁яанаа	-11.5469
хэг	-11.5472
▁өрөөнөөс	-11.5472
▁188	-11.5474
▁саваа	-11.5474
▁Топ	-11.5474
di	-11.5474
▁CD	-11.5477
▁дэлхийгээ	-11.548
▁дугуйн	-11.548
ава	-11.5482
▁арьсан	-11.5484
▁бэлдээ	-11.5486
▁Ажиллах	-11.5487
▁суухад	-11.5488
УН	-11.5489
▁онгоцонд	-11.549
▁Мэс	-11.5491
▁тосон	-11.5493
▁эхтэй	-11.5495
▁үлдээд	-11.5496
▁сурвалжил	-11.5501
▁Харах	-11.5503
▁что	-11.5504
билэг	-11.5504
▁буурахгүй	-11.5505
▁хожигдо	-11.5506
▁Бүхэл	-11.5508
▁үнэмш	-11.5508
▁салбарынхан	-11.5508
▁гул	-11.5509
▁зөвшөөрдөггүй	-11.5509
лэгдэх	-11.5512
▁үүрэгт	-11.5516
▁We	-11.5516
▁тэмцэгч	-11.5521
▁төржээ	-11.5528
▁дуусахад	-11.5532
▁тогтворж	-11.5533
▁ДАР	-11.5536
▁өвөр	-11.5537
▁Тог	-11.5537
▁сөө	-11.5542
▁хороод	-11.5543
▁байз	-11.5545
▁оноосон	-11.5547
▁Алив	-11.5552
▁холбогдлы	-11.5555
▁тахи	-11.5556
▁нүдтэй	-11.5556
▁байрлалд	-11.5557
▁зогсоогоо	-11.5558
▁мэдэ	-11.5559
▁дуугарах	-11.5559
▁ажиллас	-11.5564
▁хит	-11.5564
лю	-11.5569
▁дов	-11.557
оми	-11.5573
▁ойгоо	-11.5574
уурамч	-11.5577
▁раад	-11.5578
▁үзэгд	-11.558
▁лага	-11.5582
▁тайлбарлав	-11.5583
▁Стратеги	-11.5584
▁ТЭЗҮ	-11.5584
▁Хатагтай	-11.5584
▁хэмжүүр	-11.5584
▁долгион	-11.5584
▁хариуцдаг	-11.5584
▁МИАТ	-11.5584
nread	-11.5584
▁хэрхэх	-11.5584
▁фунт	-11.5585
▁Хөрш	-11.5585
▁балар	-11.5585
▁үрчлээ	-11.5585
▁нямбай	-11.5585
▁Берлин	-11.5586
▁даавуун	-11.5586
▁Манж	-11.5587
▁сольсон	-11.5588
▁угтаж	-11.5589
▁бяр	-11.5589
▁багтааж	-11.559
▁сүрэг	-11.5591
▁Хайлт	-11.5591
▁ухаарах	-11.5591
▁сураагүй	-11.5592
▁ярья	-11.5593
▁сэдэл	-11.5595
▁дайраад	-11.5596
▁хотуудын	-11.5596
▁таардаг	-11.5597
▁хоносон	-11.5599
▁Ex	-11.5599
▁Болохгүй	-11.5599
▁дуудаад	-11.56
▁буулт	-11.5602
▁дэлгэрүүлэ	-11.5602
▁ярилцдаг	-11.5603
▁mi	-11.5603
▁тааралда	-11.5603
▁гайхдаг	-11.5603
▁тарха	-11.5605
▁хөөрөө	-11.5605
▁хой	-11.5605
▁хайраар	-11.5608
▁бичүүл	-11.561
▁хэлэлцүүл	-11.5611
▁түрхэ	-11.5613
40	-11.5616
▁засагч	-11.5617
өлөг	-11.562
▁илчил	-11.5627
ach	-11.5628
▁сарни	-11.5629
mb	-11.563
эрэг	-11.5631
сайн	-11.5631
▁Доор	-11.5636
▁бүлгээ	-11.5638
▁номер	-11.5641
▁өсгий	-11.5646
uck	-11.5647
▁Car	-11.5649
▁шдэ	-11.5649
лайн	-11.565
▁пу	-11.5651
▁дэлгэрүүл	-11.5652
▁байдгаа	-11.5653
▁тагна	-11.5653
▁дүүргэх	-11.5655
03-	-11.566
▁Тэн	-11.5665
▁di	-11.5668
▁Хориг	-11.5673
▁Нор	-11.5675
▁Азид	-11.5678
▁заналхийл	-11.5679
ГАЛ	-11.5684
▁ург	-11.5686
ита	-11.5688
▁5%	-11.5689
уурга	-11.5691
▁хүл	-11.5692
▁драм	-11.5693
ээхэн	-11.5694
▁санаандгүй	-11.5695
риу	-11.5696
AS	-11.5709
▁саналаар	-11.5712
▁Үер	-11.5714
ити	-11.5716
Тэд	-11.5717
▁урсга	-11.5718
í	-11.5725
гєє	-11.5725
▁онцоллоо	-11.5725
●	-11.5725
{	-11.5725
▁ЮНЕСКО	-11.5725
▁олдвор	-11.5725
▁алхмууд	-11.5725
▁буриад	-11.5725
▁медиа	-11.5725
▁Нойр	-11.5725
▁дутмаг	-11.5726
▁үүснэ	-11.5726
▁хамгаалагдсан	-11.5726
▁мандат	-11.5726
▁шаардана	-11.5726
▁хөгжинө	-11.5726
▁ургаж	-11.5727
▁PS	-11.5727
▁зөөгч	-11.5729
▁нийлүүлж	-11.5729
▁Сонголт	-11.5729
▁80%	-11.5731
▁Танилц	-11.5732
▁Хун	-11.5732
ИК	-11.5733
▁хөөгөө	-11.5734
▁Зэс	-11.5735
▁мэлхий	-11.5735
ni	-11.5736
ds	-11.5737
▁үүсэж	-11.5738
▁удирдсан	-11.5739
лүүлсэн	-11.5739
▁лээгүй	-11.5741
▁хөгийн	-11.5742
▁буцал	-11.5742
арлын	-11.5742
▁уйлдаг	-11.5745
▁AR	-11.5745
▁амьсгалах	-11.5746
▁догол	-11.5748
▁буурна	-11.5748
▁байхаасаа	-11.575
▁бууз	-11.5754
▁өвөрт	-11.5754
▁Dr	-11.5756
рэнгүй	-11.5758
▁цусан	-11.5759
▁дуучид	-11.5759
▁өгөөжтэй	-11.576
▁гэлтэй	-11.5764
▁санана	-11.5764
▁сураад	-11.5766
▁маргах	-11.5767
▁хөрөг	-11.577
▁ажиглах	-11.577
▁тоглуул	-11.5772
▁Онцло	-11.5773
▁догдло	-11.5774
▁багасгаж	-11.5776
▁алма	-11.5777
▁цомгийн	-11.5778
▁хүссэнээрээ	-11.5779
▁манайхаас	-11.5779
▁илэрчээ	-11.5779
▁хуца	-11.5781
▁коронавирусийн	-11.5782
▁ажилтантай	-11.5782
▁дугаартай	-11.5783
▁сунгаж	-11.5785
PA	-11.5789
▁84	-11.5789
▁Алга	-11.5791
▁шүүгчид	-11.5792
▁банди	-11.5793
▁Дорнодын	-11.5793
ҮТ	-11.5797
▁74	-11.5797
▁ангиллы	-11.58
▁маргаашийн	-11.5811
▁Дэмжи	-11.5812
▁гадуурх	-11.5812
чий	-11.5814
▁өсчээ	-11.5818
▁гайхуул	-11.5825
▁төрхөө	-11.5826
▁шатаах	-11.5832
еон	-11.5833
▁хохир	-11.5835
▁өгүүлл	-11.5835
▁тусга	-11.5835
▁зөвтгө	-11.5836
олбо	-11.5839
▁хүмүүстэйгээ	-11.5839
цаг	-11.5841
▁өнгөрүүлж	-11.5842
LE	-11.5843
▁нум	-11.5844
▁явдлаа	-11.5845
▁дагагч	-11.5846
▁ажиллав	-11.5847
▁Нигер	-11.5848
▁мөнгөнд	-11.5848
▁Улстөрч	-11.585
ina	-11.5853
▁!!!!!	-11.5855
▁Ho	-11.5856
▁бдаг	-11.5858
▁стандартад	-11.586
▁Галзуу	-11.5863
▁Хүүхдүүдийн	-11.5864
▁нуга	-11.5864
▁comment	-11.5864
▁террорист	-11.5865
▁Прокурор	-11.5868
▁ханцуй	-11.5868
ә	-11.5868
▁Тэтгэврий	-11.5868
▁даалгавраа	-11.5868
▁цамхаг	-11.5868
▁ярилцлагыг	-11.5868
▁Сталин	-11.5868
▁хэмээлээ	-11.5868
▁снаа	-11.5868
▁бацаан	-11.5868
▁Ширээ	-11.5868
▁шаардагдана	-11.5868
▁ҮНЭ	-11.5869
▁шийдлүүд	-11.5869
▁өнхр	-11.5869
▁эцсээ	-11.5869
▁Хэхэ	-11.5869
▁зарцуулалт	-11.5869
▁Дотроо	-11.5869
kh	-11.5869
▁гитар	-11.587
▁үргэлжилдэг	-11.587
▁ирүүл	-11.587
gi	-11.5871
▁ажиллуул	-11.5871
▁хэвлэгдсэн	-11.5872
▁тээвэрлэлт	-11.5872
▁найруулга	-11.5872
▁Дэвид	-11.5873
▁One	-11.5873
▁дансаа	-11.5873
▁илэрхийлнэ	-11.5874
▁Нэлээ	-11.5875
▁шийдэв	-11.5875
▁эрхтний	-11.5876
▁гуут	-11.5876
▁чихэж	-11.5876
▁нэмэгдэл	-11.5877
▁бодолцо	-11.5879
▁араасаа	-11.5879
▁малнууд	-11.588
▁үрэгдсэн	-11.5883
▁тэсэх	-11.5887
▁үздэггүй	-11.5887
▁гсн	-11.5888
▁Ne	-11.5891
▁эвдрэл	-11.5891
▁хэвлэлүүд	-11.5892
▁EN	-11.5893
▁110	-11.5893
▁эргэлзээгүй	-11.5893
▁гараагаа	-11.5895
▁Ажилгүй	-11.5896
▁Өлзий	-11.5897
▁ярилцлагадаа	-11.5897
▁хоолло	-11.5897
▁дутагдаж	-11.5898
агац	-11.5898
ren	-11.5898
▁хичээнгүй	-11.5898
ера	-11.5899
▁насос	-11.5899
▁чамайгаа	-11.5902
IM	-11.5906
lan	-11.5906
▁янзтай	-11.5908
элгэр	-11.5908
▁худ	-11.5909
▁гутрал	-11.5911
▁Зай	-11.5919
▁шувууд	-11.592
▁he	-11.592
▁манлайлагч	-11.592
▁Амт	-11.592
▁ойлгуулж	-11.5921
май	-11.5924
▁гуйв	-11.5926
▁сурталчилгааг	-11.5929
▁Давс	-11.593
▁хүлээхгүй	-11.593
▁дэлгэж	-11.5932
▁хагалгаан	-11.5933
▁Аргагүй	-11.5936
▁фи	-11.5939
▁(3	-11.5939
▁дэс	-11.5941
▁сүх	-11.5942
ацгаая	-11.5944
▁арчил	-11.5945
▁арьсаа	-11.595
▁санагд	-11.5951
▁инээмсэглэж	-11.5953
▁зардлаар	-11.5954
огдож	-11.5957
▁сэргийл	-11.5958
▁зөгнө	-11.5961
▁болио	-11.5964
▁төвөг	-11.5969
▁">	-11.597
▁Res	-11.597
▁ураг	-11.5971
▁дуран	-11.5971
▁санаачилж	-11.5971
▁Үүл	-11.5972
▁байдын	-11.5974
▁Зөн	-11.5976
▁өрөнд	-11.5977
▁Идэ	-11.5979
▁төвтэй	-11.598
▁дагалдагч	-11.598
▁мэдэн	-11.5982
▁МЭ	-11.5983
▁барин	-11.5986
▁лэдэг	-11.5989
ЕГ	-11.5992
str	-11.5993
▁Тим	-11.5997
▁аавдаа	-11.6002
▁язгуур	-11.6004
алагдсан	-11.6009
▁зодог	-11.6009
▁сунгаа	-11.6011
▁зүүдэнд	-11.6011
▁тоогоо	-11.6013
▁Нидерланд	-11.6013
▁Хадгаламж	-11.6013
▁Оффис	-11.6013
▁сүрьеэ	-11.6013
▁хүргье	-11.6013
▁схем	-11.6013
▁БАЙНА	-11.6013
▁хөтөлдөг	-11.6013
▁хөрвө	-11.6013
▁нийлбэр	-11.6014
▁өнгөрнө	-11.6014
▁хавьтал	-11.6014
▁хичээн	-11.6015
▁хөрвүүлэх	-11.6015
▁очвол	-11.6016
▁цацаж	-11.6016
▁Огт	-11.6016
▁Сэргээ	-11.6016
▁Хөөе	-11.6017
▁тактик	-11.6018
▁залилан	-11.6018
▁Үхсэн	-11.6019
▁тэмцсэн	-11.6022
▁хүлцэ	-11.6023
▁уншуул	-11.6024
▁илжиг	-11.6024
▁New	-11.6025
▁теле	-11.6025
▁хүнсэнд	-11.6026
▁нуудаа	-11.6026
▁яая	-11.6027
▁чиглүүлэх	-11.603
▁Хүмүүст	-11.603
▁нээлээ	-11.6031
▁Охины	-11.6031
▁дүй	-11.6033
ovid	-11.6033
▁хувирсан	-11.6033
▁гуйя	-11.6036
▁лавла	-11.6038
▁яалаа	-11.6038
▁гардуул	-11.604
▁номноос	-11.6041
▁Бонд	-11.6042
▁хоолойгоор	-11.6044
▁илрүүл	-11.6044
▁дагавр	-11.6046
▁муудсан	-11.6047
24	-11.6047
▁Ангийн	-11.6048
▁боломжоор	-11.6048
▁хув	-11.6048
▁төс	-11.6049
▁даран	-11.6051
ИЙ	-11.6053
▁татвараас	-11.6054
▁тэвчих	-11.6055
▁гутлы	-11.6056
qu	-11.6057
▁азгүй	-11.6062
▁үйлдвэрлэгчдий	-11.6065
▁тэмдэглэ	-11.6068
▁гэгчээр	-11.6069
▁0-	-11.6072
▁Дайны	-11.6073
▁61	-11.6073
▁бодогдох	-11.6074
▁гүйцэтгэ	-11.6081
▁харамла	-11.6084
▁сангууд	-11.6085
Амаржаргал	-11.6086
▁Зохиолч	-11.6086
AL	-11.6087
бү	-11.6088
▁намдаа	-11.6089
▁шийдвэрээр	-11.6095
▁араар	-11.6096
~	-11.6097
▁чадлын	-11.61
▁байгууллагатай	-11.6101
уб	-11.6102
▁буланг	-11.6103
▁дээдсийн	-11.6113
▁наслах	-11.6116
▁харш	-11.6116
СТ	-11.6117
▁мөрний	-11.6118
AP	-11.612
ish	-11.6125
▁хяда	-11.6129
▁ээжид	-11.6133
▁Сп	-11.6133
лүүр	-11.6135
US	-11.6135
▁илэрхийлээ	-11.6139
▁тэмдгийн	-11.6142
▁клубт	-11.6143
▁Хулгай	-11.6144
НИЙ	-11.6147
▁хоолойгоо	-11.6148
▁ойлгохо	-11.6149
▁өөрчлөгд	-11.6152
▁хакер	-11.6157
▁тосгон	-11.6158
▁сэтгэлээрээ	-11.6158
▁youtube	-11.616
▁Шалтгаан	-11.616
▁бослого	-11.616
▁дутагдлы	-11.616
▁еврей	-11.616
▁маршрут	-11.616
▁Вирус	-11.616
▁хэрцгий	-11.616
▁хүлэмж	-11.616
▁домэйн	-11.616
▁мэдэгдэнэ	-11.616
▁Дуудлага	-11.616
▁гүйцсэн	-11.6161
▁витамин	-11.6161
▁сахар	-11.6161
▁гэгдэх	-11.6161
▁эмгэн	-11.6161
▁ойлголцол	-11.6161
▁бариарай	-11.6162
▁луулдаг	-11.6162
▁хооллолт	-11.6162
ii	-11.6162
▁Jul	-11.6163
▁хөгжин	-11.6163
▁Хэрлэн	-11.6163
▁халдсан	-11.6164
▁зогсооно	-11.6166
▁арчлах	-11.6166
▁архида	-11.6168
▁өвчтөнүүд	-11.6168
RO	-11.6169
▁эндүүр	-11.6169
▁хэлүүл	-11.6169
▁2.1	-11.6169
▁тэлэх	-11.6171
▁зарлан	-11.6172
▁асууя	-11.6173
▁бүлэглэлийн	-11.6173
▁угаана	-11.6173
▁эдгэрч	-11.6175
▁1,5	-11.6177
▁байгуулан	-11.6177
▁гажууд	-11.6177
▁хүрэхийг	-11.6177
▁суугаагүй	-11.6179
▁брэндүүд	-11.6179
EM	-11.6181
▁Бя	-11.6182
▁лэгч	-11.6182
▁азтан	-11.6182
▁Айм	-11.6185
▁авснаар	-11.6186
NE	-11.6187
▁Зас	-11.6188
▁160	-11.6188
▁Инээ	-11.6189
fe	-11.6189
▁өөрчлөө	-11.6189
▁шинэчилж	-11.6189
▁хуяг	-11.6193
▁Цаана	-11.6193
▁хашиж	-11.6196
▁харьц	-11.6197
▁хамтрах	-11.6198
▁үсгээр	-11.6198
▁wi	-11.62
▁хайдаг	-11.6201
▁талаа	-11.6202
▁Намр	-11.6205
▁Хөрс	-11.6206
▁Товч	-11.6206
▁Хат	-11.6207
▁ханы	-11.6209
эндүү	-11.6209
▁ажиглагдаж	-11.621
▁Сонс	-11.6214
▁бой	-11.6221
▁чадлы	-11.6221
▁боловсро	-11.6223
▁ядаад	-11.6223
▁гудамжаар	-11.6224
▁уснаас	-11.6224
▁Тува	-11.6229
кк	-11.6229
▁тойргоо	-11.623
▁харцаар	-11.6236
▁математик	-11.6238
▁тариаланг	-11.6238
▁дайсны	-11.6242
▁хүчирхийл	-11.6242
▁жуулах	-11.6244
сугай	-11.6247
▁тарж	-11.6249
▁шахах	-11.6251
тойгоо	-11.6251
▁айна	-11.6251
▁Инээд	-11.6252
▁Цэнд	-11.6252
▁зи	-11.6253
▁хоноо	-11.6253
▁харамс	-11.6254
ням	-11.6254
▁байсын	-11.6255
▁лигт	-11.6256
▁Худалдах	-11.6258
▁Бусда	-11.6259
▁баримтуудыг	-11.6261
▁холдуул	-11.6265
▁өсөлттэй	-11.6269
▁мартчих	-11.6271
▁тохиргоог	-11.6275
▁орсноо	-11.6275
▁залбирлы	-11.6277
ЭЭР	-11.6281
▁жорлон	-11.6281
▁тууж	-11.6284
▁сайжруулахад	-11.6287
▁байга	-11.6288
▁хүртээмж	-11.6296
▁уйлаа	-11.6297
▁сой	-11.6297
▁Cr	-11.6298
▁фу	-11.6301
▁байрлуул	-11.6303
▁Эзэний	-11.6305
▁төлөхгүй	-11.6306
▁350	-11.6307
ë	-11.6309
▁Доктор	-11.6309
▁Конгресс	-11.6309
▁магистр	-11.6309
▁тарвага	-11.6309
▁Эрсдэл	-11.6309
▁допинг	-11.6309
▁Шувуу	-11.6309
▁оролт	-11.6309
▁христ	-11.6309
▁хэрэглэл	-11.631
▁Ярилцлага	-11.631
▁ЦАГ	-11.631
▁нэвтрүүлж	-11.631
▁штаб	-11.631
▁дүрвэ	-11.631
▁зөрчилдөөн	-11.631
▁бурхад	-11.631
▁морио	-11.631
▁хуваалцаарай	-11.631
▁өнгөрсний	-11.631
▁шүүмжилдэг	-11.6311
▁эзэмшил	-11.6311
▁чадлаараа	-11.6311
▁өнгөрөөдөг	-11.6311
▁ядуурлы	-11.6312
▁гэсгээ	-11.6312
▁эрмэлздэг	-11.6312
▁айлчлалын	-11.6312
▁нэмэгдүүлдэг	-11.6312
▁дөрвөлжин	-11.6313
▁гучин	-11.6313
▁аялсан	-11.6314
▁мөрдөгдө	-11.6315
▁1930	-11.6316
▁төлөлт	-11.6317
▁өргөс	-11.6317
▁нэгтгэсэн	-11.6317
▁цацах	-11.6318
▁хөгжлөө	-11.6318
▁үрэх	-11.6319
▁болиод	-11.632
▁Заяа	-11.6321
▁угаадаг	-11.6323
▁зөвшөөрөөгүй	-11.6326
▁Авах	-11.6326
▁мөчүүд	-11.6326
ева	-11.6326
▁тооцооны	-11.6327
▁баримтат	-11.6327
▁шалтгаалдаг	-11.6328
Магнай	-11.6329
▁ҮҮ	-11.6329
▁хиймээр	-11.6329
▁буцахгүй	-11.6329
аарал	-11.6331
▁Унтах	-11.6331
▁гуул	-11.6332
▁ers	-11.6333
▁форм	-11.6341
▁давамгайл	-11.6342
▁төвлөрч	-11.6342
▁хардаггүй	-11.6348
▁мөнгөөрөө	-11.6348
ect	-11.6349
▁Ойрд	-11.6349
далай	-11.635
▁Ури	-11.6352
hen	-11.6354
▁эрмэлзэ	-11.6359
▁нүүх	-11.636
▁арт	-11.6361
▁морьд	-11.6362
▁яарч	-11.6364
▁тэрнээс	-11.6364
▁170	-11.6367
▁больжээ	-11.6369
▁инээмсэглэн	-11.6369
▁минутад	-11.6369
org	-11.6371
▁йг	-11.6372
▁Үх	-11.6376
▁Холбогдо	-11.6377
гшин	-11.6378
▁ордоггүй	-11.6381
▁уулдаг	-11.6384
▁олимпын	-11.6386
▁sp	-11.6387
▁пер	-11.6387
▁Монголоор	-11.6389
▁дагуулсан	-11.639
ингэдэг	-11.6391
▁хаягаа	-11.6394
▁Номин	-11.6395
▁жилийнхээ	-11.6395
УИХ	-11.6399
▁хөндлөн	-11.6399
▁хэлэлцүүлэгт	-11.6402
▁хэмнэлт	-11.6403
▁баривчлагд	-11.6404
▁Сурагч	-11.6406
▁тайлангийн	-11.6406
▁хүүхдээс	-11.6415
▁Жэ	-11.6416
лөгдсөн	-11.6416
▁залруул	-11.6418
▁лээрэй	-11.6421
икс	-11.6421
▁дөнгө	-11.6425
▁жагс	-11.6425
▁Дунда	-11.6427
▁орчихоо	-11.6427
▁наалда	-11.6431
▁даш	-11.6433
▁эргэлтийн	-11.6434
▁хэлэхээс	-11.6435
▁хувцасла	-11.6436
▁дээрэмд	-11.6436
▁ээээээээээ	-11.6436
▁Jo	-11.6438
▁ац	-11.6446
▁Судалгаан	-11.6446
▁мужууд	-11.6449
▁кра	-11.6449
▁Man	-11.6449
▁нөлөөлөхгүй	-11.6451
▁кан	-11.6453
▁баатр	-11.6457
▁норм	-11.6458
▁Жүжиг	-11.6459
▁илчлэг	-11.6459
ягмар	-11.646
▁хэмнэ	-11.6461
▁Материал	-11.6461
▁мушги	-11.6461
▁огторгуй	-11.6461
▁тохиромжгүй	-11.6461
▁ойлгомжгүй	-11.6461
▁тодорсон	-11.6461
▁хураангуй	-11.6461
▁чааваас	-11.6461
▁Sep	-11.6461
▁хэтрэхгүй	-11.6461
▁Авилга	-11.6461
▁давхца	-11.6461
▁Resort	-11.6461
▁Тэнгис	-11.6461
▁Смит	-11.6461
▁шийдэмгий	-11.6461
▁Супер	-11.6461
▁Бодлогы	-11.6461
▁хаагчдад	-11.6461
эгтүн	-11.6461
▁зааснаар	-11.6462
▁Шашин	-11.6462
▁өгүүлнэ	-11.6463
▁жуулалт	-11.6463
▁онгод	-11.6463
▁амсаж	-11.6463
▁өгүүлдэг	-11.6463
▁Цэрэг	-11.6464
▁донор	-11.6466
авуу	-11.6467
▁эрмэлзэл	-11.6467
▁лонх	-11.6468
▁нэвтэрсэн	-11.6468
▁хальт	-11.647
▁эхлээгүй	-11.6471
▁хандуулдаг	-11.6476
▁тулалдаан	-11.6476
▁үйлчилгээгээ	-11.6477
▁зарцуулна	-11.6478
▁Шри	-11.6482
▁нисч	-11.6484
ГЧ	-11.6485
▁хайрхан	-11.6486
▁сургасан	-11.6489
▁буудлаа	-11.6489
▁суур	-11.6491
▁эрэлхийлж	-11.6492
▁гарз	-11.6492
▁идэвхжүүл	-11.6492
▁сэхээ	-11.6495
▁тогтоогд	-11.6495
▁жүүлэлт	-11.6496
▁агдсан	-11.6496
▁гэрчилгээг	-11.6496
▁Марта	-11.6498
▁зарагдах	-11.6504
▁хэргээс	-11.6504
▁алдагда	-11.6508
▁хүрэгчдийн	-11.6509
▁хэлэлцүүлгийг	-11.6512
▁өмгөөл	-11.6512
▁Гон	-11.6514
▁хэрэгжүүлэ	-11.6516
▁Хуулиар	-11.6518
▁боож	-11.6522
▁Dis	-11.6526
▁холбогд	-11.6528
▁урал	-11.6529
▁эзэмшигчд	-11.6529
sion	-11.6532
▁Будда	-11.6533
▁Танайх	-11.6535
▁нэвт	-11.6536
▁хүлээлгэх	-11.6536
▁системүүд	-11.6536
▁Харилцагч	-11.6537
▁шугамаар	-11.6539
ИМ	-11.6539
цон	-11.6543
▁салан	-11.6543
цогт	-11.6546
▁мэргэш	-11.6548
ски	-11.6549
▁багаа	-11.6556
▁биологи	-11.6561
▁TE	-11.6562
▁төлөвши	-11.6562
▁суллах	-11.6562
ини	-11.6564
▁сонсохгүй	-11.6567
▁Хам	-11.6568
uk	-11.6572
▁даргаас	-11.6577
▁иуд	-11.6584
▁Di	-11.6587
out	-11.6588
▁Тайландын	-11.6589
▁өрөвд	-11.6592
▁жүжигч	-11.6596
▁эдгэр	-11.6596
үүлснээр	-11.6597
▁ев	-11.6598
ike	-11.6598
▁хайрга	-11.6602
-18	-11.6603
▁три	-11.6605
▁кл	-11.661
▁гаргасны	-11.6611
▁Урьдчил	-11.6614
▁Амьсгал	-11.6615
▁Тэмдэглэл	-11.6615
▁хуримтлагдсан	-11.6615
▁її	-11.6615
▁нимбэг	-11.6615
▁Өмгөөлөгч	-11.6615
▁Уралдаан	-11.6615
▁байгуулагдлаа	-11.6615
▁гацсан	-11.6615
▁захирлаа	-11.6615
▁Тоног	-11.6615
▁хөөцөлдөж	-11.6615
▁хашхир	-11.6615
▁аппликэйшн	-11.6615
▁хавдраа	-11.6615
▁угаалга	-11.6616
▁сахиж	-11.6616
▁Файл	-11.6616
▁холбогддог	-11.6617
▁Захиалга	-11.6617
▁Парк	-11.6618
▁Гэрлэлт	-11.6618
▁халзан	-11.6618
▁ирчихэ	-11.6619
▁хандаарай	-11.6619
▁түгж	-11.662
▁залж	-11.6621
▁гутлаа	-11.6621
▁ургуулах	-11.6622
эсээ	-11.6623
▁Хуралдаан	-11.6623
▁Й	-11.6627
▁Зайсан	-11.6628
цуу	-11.6631
▁тэрбумтан	-11.6631
▁дайчил	-11.6631
▁мэдэхүй	-11.6633
▁туршлагаас	-11.6634
pl	-11.6634
арак	-11.6638
▁зураглал	-11.6639
▁байрнаас	-11.664
▁20%	-11.6641
▁сүлжээгээр	-11.6641
▁тэмцээнүүд	-11.6643
▁ерөө	-11.6647
▁үгнүүд	-11.6648
▁уйлсан	-11.6652
▁шавха	-11.6652
▁Урьдчила	-11.6655
▁оршуулг	-11.6655
ix	-11.6661
▁пе	-11.6668
▁өдрүүдээр	-11.6676
▁арилж	-11.6679
лүүлнэ	-11.6679
▁зориулалт	-11.668
▁утаснаас	-11.6682
▁ты	-11.6684
▁бе	-11.6684
▁жаргах	-11.6684
▁73	-11.6686
▁нууцал	-11.6686
▁настайгаас	-11.6688
▁өрсөлд	-11.6689
▁мэдүүл	-11.6692
▁эээээ	-11.6693
▁тавигд	-11.6694
act	-11.6695
▁нөлөөгөө	-11.67
рим	-11.67
▁хувил	-11.67
▁гинж	-11.6701
▁ухаанаа	-11.6704
▁ойртох	-11.6704
▁НИЙ	-11.6705
▁цохих	-11.6706
▁Батболд	-11.6707
Засгийн	-11.6708
▁гаргадаггүй	-11.6711
▁агентлагийн	-11.6718
▁боолт	-11.6718
▁тохуу	-11.672
▁Ачаа	-11.6721
▁уураг	-11.6722
▁өмнөхөөс	-11.6722
▁гүйцэт	-11.6723
▁шалтгаанууд	-11.6724
вей	-11.6728
▁эсрэгээр	-11.6728
▁дурсан	-11.6729
▁өнгөлөг	-11.673
САН	-11.6733
▁уулзахад	-11.6735
▁илрүүлэ	-11.6737
▁Хорт	-11.6738
▁малчды	-11.6739
▁uk	-11.6743
▁1200	-11.6743
▁Pe	-11.6746
▁ГАР	-11.6749
▁ирснээ	-11.6754
▁барьчих	-11.6754
▁орчуулгы	-11.6755
▁Нэн	-11.6757
огтмол	-11.6764
▁тоосго	-11.6766
▁холбон	-11.6767
▁Түүхий	-11.6767
▁post	-11.6768
▁зайгаа	-11.6768
▁Кал	-11.6769
▁Баталгаа	-11.677
Галбадрах	-11.6771
▁Fucks	-11.6771
▁АСЕМ	-11.6771
▁Твиттер	-11.6771
▁УБТЗ	-11.6771
▁анализ	-11.6771
▁редактор	-11.6771
▁ҮАБЗ	-11.6771
ѐ	-11.6771
▁Линукс	-11.6771
▁Ашиглалт	-11.6771
▁Гудамжинд	-11.6771
▁ажиглагддаг	-11.6771
▁ҮХЦ	-11.6771
▁тохой	-11.6772
▁жигтэйхэн	-11.6772
▁сувгаа	-11.6772
▁лагддаг	-11.6772
▁Үлгэр	-11.6772
▁read	-11.6772
▁хуурмаг	-11.6772
▁Амьдрах	-11.6773
▁зогсдог	-11.6774
▁төвлөрүүлэх	-11.6774
▁хувцаслалт	-11.6776
▁мартаагүй	-11.6776
▁асран	-11.6776
▁эзэлсэн	-11.6776
▁Швейцарь	-11.6777
▁үзүүллээ	-11.6777
▁олджээ	-11.6778
▁Луи	-11.6778
▁ent	-11.6779
▁элгэн	-11.6779
▁Хумс	-11.678
▁ist	-11.678
▁Саран	-11.678
▁Black	-11.6784
▁тавигда	-11.6784
▁При	-11.6785
▁танигдсан	-11.6786
▁шатаж	-11.6786
нэхээр	-11.679
▁Тогло	-11.6791
▁дуугарсан	-11.6792
▁таах	-11.6794
▁Овоо	-11.6795
▁ирснээс	-11.6795
▁хөвө	-11.6796
▁солилц	-11.6797
▁хувиас	-11.6799
▁дэлгэцэн	-11.6799
▁цугласан	-11.68
▁ресторанд	-11.68
▁төлөөлөх	-11.6801
▁эмчлүүлэ	-11.6801
▁зурдаг	-11.6803
▁Үзэл	-11.6806
▁хэлчихсэн	-11.6808
гтун	-11.6808
▁санхүүжүүл	-11.6811
▁хөгжмөө	-11.6812
▁Хе	-11.6814
▁үүдэнд	-11.6816
▁чигээр	-11.6819
rt	-11.6821
▁халдах	-11.6824
▁зөвшөөрлийн	-11.6827
▁байцаах	-11.683
▁зүйр	-11.6832
▁хармаар	-11.6835
▁хүндлэх	-11.6836
▁Du	-11.6837
бай	-11.684
▁нэрлэжээ	-11.6842
▁өдө	-11.6849
90	-11.6851
члон	-11.6851
▁Кай	-11.6852
▁шалгаа	-11.6853
▁зөвшилцө	-11.6855
▁өөрсдөөс	-11.6858
▁адаг	-11.6859
▁өртө	-11.686
▁жуу	-11.6861
▁хангахгүй	-11.6861
▁эцэстээ	-11.6861
▁загнаж	-11.6862
▁олдсонгүй	-11.6862
Хүүхэд	-11.6867
Улаанбаатар	-11.6867
Уран	-11.6875
Эрдэний	-11.6876
▁тани	-11.6876
▁Хамгаала	-11.688
▁Автор	-11.6881
▁тэвч	-11.6881
cr	-11.6886
▁хөхүүл	-11.6888
рүүлэх	-11.6889
▁мөрөнд	-11.6891
ИТ	-11.6892
▁Pri	-11.6892
▁соль	-11.6895
▁Мариа	-11.6901
ЛАХ	-11.6901
▁олимпо	-11.6907
▁ахуйг	-11.6907
▁барихгүй	-11.6911
▁бүлээс	-11.692
▁сэрэмжлүүл	-11.692
▁гаргаснаа	-11.6921
▁хүсэв	-11.6921
▁зовоод	-11.6922
ягтлан	-11.6924
▁уначих	-11.6926
▁явснаа	-11.6927
▁бакалавр	-11.693
▁Зөөлөн	-11.693
▁Ойролцоогоор	-11.693
▁Танхим	-11.693
[...]
