<unk>	0
<s>	0
</s>	0
.	-3.271
д	-4.17934
▁	-4.40055
▁нь	-4.47972
т	-4.68304
г	-4.74141
н	-4.74208
,	-4.82459
х	-4.82499
ын	-4.82865
ийн	-4.83692
р	-4.93562
ж	-4.9357
▁байна	-4.97735
с	-4.98828
л	-5.06309
▁юм	-5.09558
гүй	-5.10804
▁ч	-5.12668
▁"	-5.13978
▁л	-5.16423
▁,	-5.17003
▁-	-5.22672
ээ	-5.38286
▁гэж	-5.41296
аа	-5.44633
ийг	-5.45129
ч	-5.45394
ыг	-5.49616
▁байгаа	-5.52478
▁.	-5.52526
▁бол	-5.55419
?	-5.59664
тай	-5.6878
-	-5.69975
сан	-5.7362
ны	-5.75158
тэй	-5.83225
▁энэ	-5.84199
▁Энэ	-5.90475
ц	-5.90988
▁байсан	-5.91361
▁нэг	-5.92109
м	-5.92614
▁...	-5.92766
ад	-5.95568
эл	-6.00364
▁байх	-6.01071
ах	-6.02064
▁та	-6.05211
▁хүн	-6.06383
▁уу	-6.09316
ан	-6.15668
▁д	-6.17339
а	-6.18498
ээр	-6.20321
▁их	-6.21818
и	-6.22488
▁би	-6.22679
сэн	-6.2328
даг	-6.24088
ал	-6.265
:	-6.29423
▁болно	-6.30989
в	-6.31043
аар	-6.31471
▁дээ	-6.34669
ууд	-6.36041
"	-6.38136
▁вэ	-6.38912
оо	-6.40428
▁т	-6.40573
ш	-6.41885
на	-6.43066
▁г	-6.43133
▁Х	-6.44655
эн	-6.44989
▁байдаг	-6.46407
▁юу	-6.46794
▁дээр	-6.47542
ний	-6.47828
уу	-6.48774
▁гэсэн	-6.49761
▁Би	-6.51316
▁шүү	-6.54315
▁олон	-6.55152
лаа	-6.55382
▁тэр	-6.55588
▁Д	-6.56057
эд	-6.56375
e	-6.57644
ь	-6.58529
ар	-6.59044
ай	-6.59635
▁Т	-6.59916
е	-6.60455
ам	-6.61041
▁с	-6.61343
▁ямар	-6.61834
аас	-6.62712
ээс	-6.62744
гийн	-6.632
▁х	-6.64088
нд	-6.65795
дэг	-6.66523
▁Б	-6.66736
▁:	-6.67646
▁биш	-6.67803
эх	-6.68128
он	-6.7008
▁ш	-6.70382
ол	-6.719
о	-6.72381
▁зүйл	-6.72416
▁Та	-6.72427
▁үү	-6.72729
▁даа	-6.72799
▁болох	-6.7495
ий	-6.75217
▁ээ	-6.75461
з	-6.76046
у	-6.76079
▁Н	-6.76616
ор	-6.78127
ин	-6.78797
▁гүй	-6.79144
эр	-6.80595
өө	-6.80965
▁хоёр	-6.81578
▁С	-6.81601
▁эрх	-6.82221
гаа	-6.8226
▁цаг	-6.82819
даа	-6.82941
▁А	-6.83098
үүд	-6.83189
▁Тэр	-6.83474
▁хамгийн	-6.84008
▁бид	-6.85346
▁сайн	-6.85608
▁хэрэгтэй	-6.85799
▁өөр	-6.85915
▁болон	-6.86334
га	-6.86429
аг	-6.88955
аад	-6.90161
▁н	-6.92188
▁жил	-6.92453
▁бүх	-6.92905
▁улс	-6.9331
эг	-6.93929
э	-6.93997
▁(	-6.9409
▁болсон	-6.94474
▁бүр	-6.94748
▁гэдэг	-6.94754
▁шиг	-6.94892
ү	-6.95795
нэ	-6.95849
▁гар	-6.97697
сон	-6.97967
аж	-6.99241
▁өмнө	-6.99343
▁үйл	-6.99997
▁хар	-7.00051
▁ёстой	-7.01433
▁авах	-7.0176
хан	-7.02215
▁хүмүүс	-7.02918
o	-7.04479
ил	-7.047
▁ба	-7.04835
▁байж	-7.04942
▁талаар	-7.05167
▁хийх	-7.05793
▁чинь	-7.06282
▁ажил	-7.0765
▁үг	-7.08572
▁үед	-7.08657
▁Хари	-7.08769
▁м	-7.0959
▁хэн	-7.09598
ав	-7.09675
▁аа	-7.10129
▁б	-7.1024
дээ	-7.10448
▁илүү	-7.10793
▁болж	-7.11687
▁3	-7.11812
t	-7.12143
▁маш	-7.12269
▁Г	-7.13329
▁хэл	-7.13408
▁өдөр	-7.13439
гээ	-7.13621
▁дуу	-7.13995
▁ав	-7.14107
Х	-7.14465
▁оны	-7.14878
▁ам	-7.14989
▁нар	-7.15237
өл	-7.15534
ө	-7.15594
б	-7.15601
▁дараа	-7.15795
▁2	-7.16097
▁М	-7.16212
үүл	-7.16451
лт	-7.16792
▁авч	-7.16854
▁тухай	-7.17293
a	-7.18452
▁з	-7.18578
▁ц	-7.19395
той	-7.1958
▁хийж	-7.20129
▁төр	-7.20229
лах	-7.20365
▁Монгол	-7.20462
▁ийн	-7.20624
▁сан	-7.21099
ер	-7.21234
ы	-7.21537
▁бас	-7.22247
▁гээд	-7.22343
ир	-7.232
лээ	-7.24029
▁хувьд	-7.24427
▁бэ	-7.24474
▁хэрэг	-7.25058
▁буй	-7.25494
ид	-7.26196
▁4	-7.26282
▁жилийн	-7.26495
ог	-7.26962
уул	-7.27043
анд	-7.27099
▁сарын	-7.27123
й	-7.27433
өх	-7.27681
▁тус	-7.27945
s	-7.27983
▁У	-7.28019
▁ор	-7.2849
үү	-7.28789
▁одоо	-7.28926
▁газар	-7.29364
▁онд	-7.29461
▁бөгөөд	-7.29581
жээ	-7.29621
к	-7.29953
)	-7.30349
!	-7.30567
▁эх	-7.3063
▁З	-7.30822
▁а	-7.30954
▁ха	-7.31014
▁нэр	-7.31107
оор	-7.3158
▁Гэхдээ	-7.32042
1	-7.32423
▁ийм	-7.32426
од	-7.32954
▁гэр	-7.33021
▁нэгэн	-7.34398
▁И	-7.34533
чих	-7.34613
▁тал	-7.34638
▁Бид	-7.34923
эм	-7.35288
▁тоо	-7.35463
▁үр	-7.35571
▁бай	-7.35734
ас	-7.35919
▁бие	-7.36317
▁1	-7.36829
▁минь	-7.37771
гч	-7.38117
▁удаа	-7.38151
▁шинэ	-7.38406
А	-7.38751
▁сэтгэл	-7.3903
0	-7.39169
▁5	-7.39249
я	-7.39726
▁үнэ	-7.40614
лан	-7.40718
▁ыг	-7.40719
▁бий	-7.40849
сөн	-7.41186
▁байхгүй	-7.41349
▁ийг	-7.42391
ен	-7.42948
▁тай	-7.43542
▁ар	-7.43567
лаг	-7.43787
▁/	-7.43909
▁хүний	-7.44367
▁О	-7.44372
▁сайхан	-7.44789
лэг	-7.44974
▁арга	-7.45134
эв	-7.45254
дог	-7.45854
уур	-7.46179
ов	-7.46501
▁миний	-7.46711
v	-7.46755
▁асуудал	-7.46981
▁Ш	-7.47593
▁Ц	-7.47647
чин	-7.4789
▁ур	-7.4793
▁санал	-7.47958
өр	-7.48182
▁эр	-7.48518
уулах	-7.48735
▁том	-7.48881
Т	-7.48933
▁улсын	-7.50028
▁байр	-7.50078
▁10	-7.50283
▁бага	-7.50594
п	-7.50914
ой	-7.51176
2	-7.51448
▁ын	-7.52078
▁манай	-7.5223
лж	-7.52634
ээд	-7.53121
5	-7.53151
i	-7.54129
хүү	-7.54666
▁билээ	-7.54751
▁Ж	-7.54832
▁мөн	-7.55052
▁боломжтой	-7.55452
лын	-7.55471
▁Мөн	-7.55489
▁чи	-7.55948
u	-7.5601
▁у	-7.56671
▁байлаа	-7.56907
▁Ү	-7.5707
y	-7.58117
но	-7.5812
өн	-7.582
гаар	-7.58349
p	-7.60595
ул	-7.6111
▁аж	-7.61423
▁санаа	-7.61829
▁хамт	-7.61899
▁гэх	-7.62015
▁орон	-7.62168
им	-7.62516
▁)	-7.62854
Г	-7.62994
▁тулд	-7.63027
▁гэдгийг	-7.63084
алт	-7.63334
▁хаа	-7.63392
эж	-7.63896
▁мөнгө	-7.6417
ом	-7.64542
чид	-7.64612
наас	-7.64954
▁хэдэн	-7.65067
▁хүртэл	-7.65115
▁Э	-7.65308
▁хэрхэн	-7.6548
▁эсвэл	-7.66414
лийн	-7.66527
чил	-7.66714
▁тийм	-7.67146
С	-7.67207
▁ал	-7.67442
▁хүнд	-7.67788
▁S	-7.67833
▁зар	-7.67838
▁таны	-7.68003
ат	-7.68133
l	-7.68181
ох	-7.68326
▁ж	-7.68713
Н	-7.69216
▁!	-7.69898
▁дахь	-7.6992
▁маань	-7.69985
▁зөв	-7.70482
лэх	-7.71589
▁дахин	-7.71789
▁Л	-7.7191
▁хө	-7.72017
▁7	-7.72202
▁6	-7.72704
▁өөрийн	-7.72867
▁Одоо	-7.73169
▁тул	-7.73276
Д	-7.74181
Б	-7.74671
▁тодорхой	-7.74809
3	-7.74829
▁ирсэн	-7.74906
▁гол	-7.74963
▁руу	-7.75147
▁болохгүй	-7.75358
тан	-7.75375
өөр	-7.7546
▁өөрөө	-7.75757
▁он	-7.76302
▁мэдээ	-7.7638
▁хувь	-7.76525
ана	-7.76975
▁Миний	-7.7704
▁өг	-7.77047
▁төлөө	-7.77085
О	-7.77135
▁нас	-7.78288
...	-7.78292
▁и	-7.78484
▁гарч	-7.78873
ик	-7.78952
▁хэмээн	-7.79433
▁чухал	-7.79811
▁хууль	-7.80066
▁чадахгүй	-7.80454
▁өр	-7.80737
▁Ч	-7.80772
▁гэнэ	-7.80935
▁хий	-7.81104
лэл	-7.81617
▁дунд	-7.81658
4	-7.81915
оос	-7.82005
▁муу	-7.82451
▁ирэх	-7.82465
мж	-7.82527
▁Ийм	-7.827
▁Манай	-7.82746
иа	-7.8304
▁К	-7.83186
▁хүүхэд	-7.832
▁я	-7.83496
▁өв	-7.83497
үүлэх	-7.83916
▁ай	-7.84096
▁зам	-7.84364
▁ард	-7.84367
▁сар	-7.84376
▁бар	-7.84482
И	-7.84866
▁8	-7.84979
▁албан	-7.85126
▁аль	-7.8524
▁үе	-7.85343
▁түүний	-7.85533
▁тэд	-7.8569
▁өгөх	-7.85698
▁хийсэн	-7.85912
▁к	-7.85947
ит	-7.86105
▁сая	-7.86286
▁ном	-7.86576
▁биз	-7.86722
▁Тэд	-7.87215
▁эд	-7.87224
гээр	-7.8727
▁болов	-7.87467
У	-7.87714
▁авсан	-7.87962
▁сайд	-7.88239
▁байдал	-7.88433
▁мэт	-7.88515
▁хэзээ	-7.88575
агч	-7.88688
▁баяр	-7.89356
▁M	-7.89615
▁хэр	-7.89865
▁хойш	-7.89977
▁төрийн	-7.90245
▁за	-7.90256
▁П	-7.90558
▁р	-7.90689
▁байв	-7.90774
▁бусад	-7.91334
▁мэдээлэл	-7.91439
k	-7.91553
▁УИХ	-7.91562
8	-7.91791
▁энд	-7.92319
▁дарга	-7.92353
▁нам	-7.92511
▁Нэг	-7.92756
▁ажиллаж	-7.92889
▁аас	-7.93295
▁Хэрэв	-7.93322
▁зөвхөн	-7.93555
▁бус	-7.937
лоо	-7.93706
▁өндөр	-7.93786
6	-7.93902
▁хугацаа	-7.93967
▁бодож	-7.94029
▁тэй	-7.94071
▁Тиймээ	-7.94171
▁C	-7.94286
9	-7.94587
▁үз	-7.94867
▁учраас	-7.95513
үүр	-7.95673
▁АНУ	-7.96059
▁орж	-7.96261
энд	-7.96265
вал	-7.96538
дөг	-7.96646
▁надад	-7.96703
▁хэлж	-7.96852
▁хүү	-7.96881
▁явах	-7.96965
ур	-7.96977
▁хугацаанд	-7.97098
▁A	-7.97348
▁яаж	-7.97603
▁амьдрал	-7.97728
өөс	-7.97846
дах	-7.98191
▁Ха	-7.98212
▁яг	-7.98225
▁ху	-7.98302
▁9	-7.98732
нээс	-7.98817
▁на	-7.9929
g	-7.99444
▁зураг	-7.99557
h	-8.00254
▁За	-8.00284
лийг	-8.00329
d	-8.00439
рах	-8.00727
уулж	-8.00836
▁кино	-8.00848
▁үнэн	-8.00999
▁болохоор	-8.01061
▁гишүүн	-8.01097
▁хоол	-8.01162
хи	-8.01222
▁яагаад	-8.01235
▁нийт	-8.01341
▁шийдвэр	-8.01345
▁э	-8.01415
▁ол	-8.01477
▁20	-8.01493
▁уг	-8.01539
▁дар	-8.0176
▁чих	-8.018
7	-8.0206
▁Монголын	-8.02203
▁мэдэх	-8.02258
ф	-8.02537
▁P	-8.02601
▁намайг	-8.02941
Э	-8.0316
▁боломж	-8.03213
▁үүнийг	-8.03225
эс	-8.03289
▁s	-8.03529
▁ир	-8.03531
▁ая	-8.03796
er	-8.03805
▁явж	-8.04209
▁ажлын	-8.04363
ээрээ	-8.04686
▁тү	-8.04847
▁охин	-8.05094
▁Таны	-8.05202
▁хүч	-8.05222
n	-8.0537
▁зарим	-8.05592
гэ	-8.05865
лал	-8.05962
▁машин	-8.05983
b	-8.0621
▁байхад	-8.06276
on	-8.0667
▁залуу	-8.07057
in	-8.07148
▁олж	-8.07206
▁баг	-8.07533
▁гарах	-8.07555
▁иргэд	-8.07577
▁ажиллах	-8.07583
▁ял	-8.0787
▁дотор	-8.08001
▁ус	-8.08245
▁Чи	-8.08442
▁_	-8.08467
▁хэмжээ	-8.08558
ри	-8.08709
▁аар	-8.08932
▁хор	-8.08973
▁газрын	-8.09289
ив	-8.09332
▁дав	-8.09562
▁ганц	-8.09587
аагүй	-8.09627
▁мэд	-8.09666
▁учир	-8.09669
S	-8.09679
▁T	-8.09829
▁түүнийг	-8.09864
▁Гэт	-8.10026
Би	-8.10077
▁долоо	-8.10148
йн	-8.10195
доо	-8.10238
▁Засгийн	-8.1032
▁бидний	-8.1041
▁0	-8.10701
▁ээж	-8.10779
▁Тийм	-8.1143
▁бүл	-8.11819
00	-8.12015
▁болгон	-8.12053
▁яв	-8.12163
▁эмэгтэй	-8.12398
/	-8.12746
▁доо	-8.1282
лыг	-8.13123
▁төв	-8.13152
▁холбоотой	-8.1356
▁үл	-8.13566
гоо	-8.13963
▁Хүн	-8.14334
хэн	-8.14877
▁компани	-8.14958
▁га	-8.15165
▁өнөөдөр	-8.15306
▁Тэгээ	-8.154
үүлж	-8.15404
▁анх	-8.15546
▁ах	-8.15575
▁зээл	-8.15708
гай	-8.1583
▁хэсэг	-8.1602
ье	-8.16207
▁үргэлж	-8.16586
аарай	-8.16599
даж	-8.16763
▁нөхцөл	-8.16767
дал	-8.16775
▁Улс	-8.16796
▁хэд	-8.16928
▁?	-8.17015
▁баримт	-8.17063
▁B	-8.17453
▁үнэхээр	-8.17472
ун	-8.1754
▁зэрэг	-8.17875
▁суу	-8.17948
▁ф	-8.18387
▁хот	-8.18427
лга	-8.18493
▁байгааг	-8.1856
ба	-8.1862
▁дуртай	-8.18659
an	-8.18711
ar	-8.1888
▁хэлэх	-8.18923
▁бу	-8.18925
энэ	-8.19057
▁бүрэн	-8.19127
▁Ар	-8.19181
маар	-8.19254
өж	-8.19757
▁дагуу	-8.19961
▁дэлхийн	-8.20018
ли	-8.20157
▁Ө	-8.20447
▁Эр	-8.2049
▁түүх	-8.20932
▁хүүхдүүд	-8.21014
▁асуу	-8.21205
▁Я	-8.21438
▁хэлсэн	-8.21596
▁ер	-8.21608
▁гурван	-8.21728
▁хүлээн	-8.21893
гөө	-8.21953
▁эдийн	-8.2209
▁су	-8.22155
▁үеийн	-8.2217
▁өгсөн	-8.2219
▁танд	-8.22195
▁19	-8.22272
го	-8.22318
▁бат	-8.22532
▁Улсын	-8.2262
▁дүр	-8.23263
▁буруу	-8.23368
▁бод	-8.23434
▁болоод	-8.23559
▁байвал	-8.23651
▁харж	-8.23677
▁болдог	-8.23766
▁12	-8.23911
агдсан	-8.23977
c	-8.24327
▁дугаар	-8.24331
шил	-8.24332
▁буюу	-8.24849
▁үзэх	-8.25017
▁ажиллагаа	-8.25098
▁чанар	-8.25164
▁өөрийгөө	-8.25171
уд	-8.25212
▁түр	-8.25291
эй	-8.25332
▁ил	-8.25416
дөө	-8.25424
▁хайр	-8.25535
▁гарсан	-8.25646
▁Гэв	-8.25878
▁шаардлагатай	-8.25955
▁11	-8.26176
▁ид	-8.26223
▁уна	-8.26247
▁үгүй	-8.26263
хаа	-8.26326
аасаа	-8.26338
or	-8.2647
▁хөрөнгө	-8.26702
▁асуудлыг	-8.26906
▁гэ	-8.26911
ра	-8.26928
тал	-8.26954
▁зохион	-8.27188
▁тэг	-8.27527
▁анги	-8.27663
▁Ер	-8.2767
▁хал	-8.27847
▁орох	-8.27891
▁ирж	-8.27924
▁зур	-8.28011
▁Түүний	-8.2822
▁бүгд	-8.28381
▁гаруй	-8.28415
▁сонго	-8.28574
▁төрлийн	-8.28575
▁гаргах	-8.28578
▁засгийн	-8.28605
шиг	-8.28642
▁зах	-8.28968
гийг	-8.2908
үүн	-8.29124
▁харин	-8.29257
▁15	-8.29349
▁бүтээ	-8.29355
▁монгол	-8.2957
▁о	-8.29793
▁дэлхий	-8.30053
▁Гэр	-8.30279
▁хөл	-8.30473
▁Ямар	-8.30575
▁Хо	-8.30995
▁ярьж	-8.31023
ак	-8.31196
▁хан	-8.31216
▁эрүүл	-8.31647
▁үх	-8.31884
A	-8.32234
үй	-8.32296
▁хэв	-8.32347
▁хүр	-8.32503
▁турш	-8.32518
▁гаргаж	-8.32549
▁ууд	-8.32656
▁шалтгаан	-8.32819
▁Орос	-8.32923
эгвэл	-8.33006
▁яах	-8.33261
▁D	-8.33303
▁да	-8.33319
▁чөлөө	-8.33646
x	-8.3373
▁амжилт	-8.33753
▁шууд	-8.33789
сний	-8.33793
▁шийд	-8.33864
лог	-8.33958
▁анхаар	-8.34032
en	-8.34081
хон	-8.34148
▁зүгээр	-8.34187
▁Хө	-8.3429
▁байдлаар	-8.34299
▁зүйлийг	-8.34343
▁бизнес	-8.34431
▁ингэж	-8.34462
▁улсад	-8.3449
▁найз	-8.34649
уулсан	-8.34686
▁алга	-8.34819
▁Р	-8.34881
▁В	-8.34984
▁тави	-8.35004
▁эм	-8.35059
▁Уг	-8.35152
▁гэвэл	-8.35226
▁алд	-8.3539
▁мэдэхгүй	-8.35447
▁гарга	-8.35447
▁зо	-8.35484
▁боллоо	-8.35526
▁болгох	-8.35577
▁ма	-8.35584
▁30	-8.35594
▁хо	-8.35615
▁настай	-8.35744
аш	-8.35843
▁өнгө	-8.36224
өөд	-8.36383
▁мөр	-8.36442
▁боловч	-8.36455
ю	-8.36487
▁бүтээл	-8.36563
▁хав	-8.3658
▁нээ	-8.36779
▁явдал	-8.36783
▁гэв	-8.36839
жин	-8.36962
Ө	-8.37297
▁аав	-8.37505
ъя	-8.37678
I	-8.37708
▁Ал	-8.37951
▁айл	-8.38021
▁в	-8.38216
оод	-8.38509
▁Өнөөдөр	-8.38562
▁Олон	-8.38594
▁Үүнийг	-8.38698
сны	-8.38736
▁гийн	-8.38829
▁Их	-8.39047
r	-8.39131
▁хэцүү	-8.3915
аараа	-8.39235
лага	-8.39544
▁өгч	-8.39547
▁200	-8.39826
▁шаард	-8.39847
▁авна	-8.39967
▁ад	-8.4002
▁Хамг	-8.4004
▁ханд	-8.40185
▁үйлчилгээ	-8.4034
▁Хар	-8.40401
▁шалга	-8.40598
▁сал	-8.40618
▁Ор	-8.40671
▁хариу	-8.40692
▁тэ	-8.4085
▁буу	-8.40858
вар	-8.41412
▁тань	-8.4145
М	-8.41473
лаж	-8.42106
ги	-8.42279
ет	-8.42333
Л	-8.42385
▁сайт	-8.42396
▁бүү	-8.42522
Та	-8.42628
▁гэхэд	-8.42797
▁байгууллага	-8.42883
З	-8.42957
▁хэм	-8.43064
ей	-8.43172
▁амь	-8.4325
▁сард	-8.43353
арга	-8.43353
▁болжээ	-8.4353
▁илэрхийл	-8.43589
саар	-8.43754
иг	-8.43785
▁хүчин	-8.4408
P	-8.44227
▁хол	-8.44288
▁өнгөрсөн	-8.44347
▁мэдэгд	-8.44349
▁Ф	-8.44359
жиг	-8.4438
гуул	-8.44485
▁нөлөө	-8.44589
▁бо	-8.44784
▁Бүх	-8.44888
▁H	-8.44959
▁Зарим	-8.44979
▁хай	-8.45078
▁анхны	-8.45114
▁гэрээ	-8.45146
▁өөрчлөлт	-8.45223
▁хийдэг	-8.45275
▁хоног	-8.45468
вэл	-8.45628
▁үүд	-8.45639
▁сур	-8.45686
▁дур	-8.45734
гаад	-8.4601
рал	-8.46025
E	-8.46056
Ү	-8.46105
▁Бурхан	-8.46168
▁дор	-8.46234
ут	-8.46424
▁чадах	-8.46669
▁гишүүд	-8.46999
▁эмч	-8.47028
▁нөх	-8.4719
▁гадна	-8.47682
▁зан	-8.47748
▁гадаад	-8.47907
▁адил	-8.48022
▁I	-8.48201
▁тун	-8.48453
▁бүхэн	-8.4846
▁18	-8.48465
▁АН	-8.48614
лэн	-8.48787
ээсээ	-8.48849
▁МАН	-8.48862
▁багш	-8.49077
▁тэдний	-8.49216
▁боддог	-8.49291
▁үзүүл	-8.49395
уй	-8.49421
D	-8.49562
▁харах	-8.49735
▁хүлээ	-8.49807
▁хуулийн	-8.49832
ран	-8.49875
▁Шинэ	-8.49909
▁100	-8.4991
▁хүнийг	-8.50241
▁;	-8.50325
▁Эдгээр	-8.50364
▁аз	-8.50367
▁хүлээж	-8.50382
чдын	-8.50643
шин	-8.50674
▁Хятад	-8.50729
▁ээс	-8.5084
ё	-8.50857
▁рүү	-8.50991
▁G	-8.5106
▁эсрэг	-8.51116
▁холбоо	-8.51142
▁зүйлс	-8.51226
▁үйлдвэр	-8.51385
▁Тэг	-8.51398
▁E	-8.51533
▁ярих	-8.51745
▁тоглоом	-8.51774
▁унш	-8.51782
их	-8.51933
▁тухайн	-8.51985
▁мэддэг	-8.52098
▁хэрэггүй	-8.52167
▁бараг	-8.52184
▁асуулт	-8.52222
▁байжээ	-8.52292
▁ашиглах	-8.52331
▁үзэж	-8.52402
▁L	-8.52434
▁F	-8.52523
▁харилцаа	-8.52526
▁толгой	-8.52579
гчид	-8.5265
▁засаг	-8.52673
▁мал	-8.52838
▁ашиг	-8.5285
al	-8.52968
▁Дараа	-8.53031
нууд	-8.53163
▁Бу	-8.53193
▁шат	-8.53305
▁хур	-8.53527
лд	-8.53765
▁оо	-8.53895
▁огт	-8.53954
▁нутгийн	-8.54012
%	-8.54117
ус	-8.54122
▁ажлаа	-8.54267
▁ан	-8.54438
▁систем	-8.546
▁дээд	-8.54659
маа	-8.54746
ел	-8.54817
▁магадгүй	-8.54853
▁өдрийн	-8.54872
▁эв	-8.54884
▁загвар	-8.55139
▁Бо	-8.55149
▁ёс	-8.55239
▁хүмүүсийн	-8.55285
▁дараах	-8.55568
▁мэнд	-8.556
▁тохиолдолд	-8.55736
T	-8.55801
хай	-8.55834
үүлсэн	-8.5587
▁орны	-8.5592
▁алдаа	-8.55975
арч	-8.56285
▁нүд	-8.56301
▁хэдий	-8.56404
таа	-8.56411
▁шинж	-8.56466
▁бутлуур	-8.56662
▁яриа	-8.56701
гэн	-8.56861
ээрэй	-8.56954
▁сүүлийн	-8.56997
ис	-8.5706
▁зай	-8.57229
▁Да	-8.57321
▁m	-8.57606
ва	-8.57749
O	-8.57858
▁p	-8.57883
ийнхээ	-8.57927
▁орчин	-8.58032
өд	-8.58104
▁цагт	-8.58107
▁төгрөг	-8.58265
Эрдэнэ	-8.5853
▁шил	-8.58574
▁Хэрвээ	-8.58634
хий	-8.5865
▁ээр	-8.58675
▁оруул	-8.58698
▁зөвшөөр	-8.58732
▁гаргасан	-8.58832
▁дээрээ	-8.59207
эт	-8.59313
▁Ерөнхийлөгч	-8.59386
▁зав	-8.59406
▁даг	-8.59424
гоор	-8.59456
▁эдгээр	-8.59588
▁хооронд	-8.59617
re	-8.59625
▁бүрийн	-8.59653
▁тэмдэглэ	-8.59902
ло	-8.59974
▁хичээ	-8.60357
▁ухаан	-8.60392
▁орсон	-8.60423
▁Дэлхийн	-8.60447
▁цагийн	-8.60557
ви	-8.60725
▁хамгаалах	-8.60956
▁зов	-8.61008
▁п	-8.6104
▁хоногийн	-8.61079
▁хүрэх	-8.61143
Учир	-8.61364
▁ярилц	-8.61443
▁шүүх	-8.61474
▁Яагаад	-8.61507
ос	-8.61625
▁са	-8.61768
▁тоглолт	-8.61789
▁Хэн	-8.6183
▁гуй	-8.62041
ек	-8.62151
▁хү	-8.6232
▁зас	-8.62349
▁гоё	-8.62411
мар	-8.62565
▁Тус	-8.62613
▁Ерөнхий	-8.62644
▁хөтөлбөр	-8.62651
▁уул	-8.62677
дан	-8.62775
дугаар	-8.62814
▁бүсгүй	-8.62834
▁Монголд	-8.62954
▁заавал	-8.63002
▁14	-8.63204
▁байгаад	-8.63517
▁хая	-8.63955
оё	-8.63996
▁Бидний	-8.64024
▁дээрх	-8.64055
▁төгс	-8.64062
▁чадна	-8.64312
▁боломжгүй	-8.64641
▁түмэн	-8.64894
▁бүхий	-8.6496
▁хичээл	-8.65029
m	-8.65096
▁хэмжээний	-8.65279
]	-8.65426
▁өө	-8.65751
▁той	-8.65784
▁гэдгээ	-8.65901
▁олох	-8.65902
тэйгээ	-8.65955
вол	-8.66332
▁үүрэг	-8.66335
▁Сан	-8.66515
▁ну	-8.66515
▁хаана	-8.66559
▁төлбөр	-8.6663
ган	-8.66693
от	-8.66913
оно	-8.66969
▁е	-8.67029
▁оноос	-8.67058
нө	-8.67133
▁дүн	-8.67288
үн	-8.67331
▁мэдэж	-8.67398
▁өрөө	-8.67425
▁шаардлага	-8.6743
ноос	-8.67507
▁бодол	-8.67671
vv	-8.67886
өм	-8.67894
▁хуудас	-8.68035
▁энэхүү	-8.68085
▁нөхөр	-8.68104
▁нэмэгд	-8.68376
▁W	-8.68376
▁бүтээгдэхүүн	-8.68377
▁ажилд	-8.68485
▁Хоёр	-8.68713
▁эхний	-8.68726
▁явсан	-8.68727
▁тушаал	-8.68797
▁аваад	-8.68851
▁эхэлсэн	-8.689
▁иргэн	-8.69034
▁зүү	-8.69048
▁бэлэн	-8.69118
▁байгаагүй	-8.69388
▁гэмт	-8.69455
C	-8.69583
▁болгож	-8.69767
▁нарын	-8.69841
▁бодох	-8.69982
▁насны	-8.69991
▁бидэнд	-8.70016
▁ойр	-8.70043
▁чадвар	-8.70058
▁хувийн	-8.70085
▁хурдан	-8.70188
▁Хү	-8.70299
агдах	-8.70382
▁дуул	-8.70423
▁хэрэглэгч	-8.70589
чууд	-8.70696
▁хүмүүст	-8.70739
▁гэхдээ	-8.70854
▁намын	-8.70895
▁хүссэн	-8.70965
▁найр	-8.70987
Р	-8.70988
▁нүүр	-8.71057
▁захи	-8.7113
▁бичиг	-8.71143
лөг	-8.71563
▁хэт	-8.71632
▁ихэнх	-8.71639
▁мянган	-8.71699
▁Ам	-8.71716
▁үс	-8.71718
▁од	-8.71832
▁ой	-8.71887
▁янз	-8.71986
▁болохыг	-8.71988
▁орнууд	-8.72073
▁Үүний	-8.7216
▁дүү	-8.72183
▁жижиг	-8.72189
ко	-8.72379
арсан	-8.72469
▁байхдаа	-8.72486
f	-8.72531
▁бодлого	-8.72704
▁Тэдний	-8.72785
▁хүүхдийн	-8.72895
ван	-8.72929
▁дэмж	-8.72948
▁дэх	-8.73023
▁дай	-8.73032
▁орхи	-8.73368
▁яа	-8.73476
▁март	-8.73566
▁танилцуул	-8.73578
▁Эх	-8.73654
▁бүс	-8.73899
▁харуул	-8.73931
▁v	-8.73946
чилж	-8.74111
▁бодит	-8.74126
▁"-	-8.74214
▁амьдарч	-8.7438
es	-8.74428
ио	-8.74567
лох	-8.74608
▁тат	-8.74623
▁амар	-8.74644
▁ханга	-8.74894
дэж	-8.74955
▁нууц	-8.74957
▁Бурханы	-8.75018
▁эл	-8.75053
▁[	-8.75096
▁оронд	-8.75226
▁b	-8.754
▁нөгөө	-8.75428
▁ажлыг	-8.75466
▁хүсч	-8.75497
▁Төрийн	-8.75555
лөө	-8.7556
лаад	-8.75574
тер	-8.75609
▁өргө	-8.75642
рч	-8.75742
▁үеэр	-8.75898
Я	-8.75899
▁өөрийнхөө	-8.76111
дар	-8.76112
▁Ху	-8.76129
▁бү	-8.76191
▁гал	-8.76292
тгэл	-8.76328
▁хамгаал	-8.76341
▁хэлэлц	-8.76353
▁сургалт	-8.76416
▁аюулгүй	-8.76542
▁зогсоо	-8.76736
ян	-8.76872
it	-8.7699
▁гүйцэ	-8.7702
лалт	-8.77064
▁•	-8.77176
20	-8.77193
▁то	-8.77546
w	-8.77579
ро	-8.7758
ла	-8.77584
ок	-8.77878
▁хайртай	-8.77941
▁бичсэн	-8.78121
▁Ингээ	-8.78277
▁хүрээ	-8.78405
▁судалгаа	-8.78407
▁Энд	-8.78699
▁тэнд	-8.78724
▁сонс	-8.78761
▁t	-8.78823
▁гайх	-8.78849
▁Тэрбээр	-8.78861
▁ий	-8.78954
▁тэмцээн	-8.79011
▁хөдөлгөөн	-8.79013
▁арай	-8.79201
гаас	-8.79239
▁сонирх	-8.79495
▁буц	-8.79527
▁Мэдээж	-8.7955
▁Бас	-8.79673
M	-8.79732
▁гүйгээр	-8.79803
▁өн	-8.79863
сээр	-8.79974
▁хотын	-8.80001
▁түүнд	-8.80181
▁урт	-8.80246
▁явуул	-8.80336
▁чамайг	-8.80448
▁хэлбэл	-8.80449
▁ө	-8.80523
▁Яг	-8.8057
▁сонголт	-8.80658
ни	-8.80778
▁Нүүр	-8.80789
▁байдлыг	-8.80798
▁бүрт	-8.80806
▁эз	-8.80836
▁16	-8.81018
▁гэлээ	-8.81145
жилт	-8.81196
▁ирээдүй	-8.81238
В	-8.81277
▁17	-8.81497
▁тэгээд	-8.81532
▁13	-8.81612
▁байгуул	-8.81772
▁ы	-8.81802
at	-8.81848
▁явдаг	-8.81889
▁199	-8.81984
▁буур	-8.82106
▁оруулах	-8.8221
▁үүсгэ	-8.82315
▁мэдээллийг	-8.82415
▁өс	-8.82417
▁50	-8.82545
▁ни	-8.82842
▁ойлго	-8.82894
▁аймгийн	-8.82913
▁өглөө	-8.82961
▁Бар	-8.83181
▁Бай	-8.83284
члал	-8.83346
за	-8.83545
▁хэмжээнд	-8.83723
▁хяналт	-8.83772
▁төрсөн	-8.83781
▁зориулсан	-8.83786
лон	-8.83804
▁хүсэл	-8.83878
▁авдаг	-8.83913
▁эмэгтэйчүүд	-8.84014
▁ажилладаг	-8.84062
▁өмнөх	-8.84093
▁өөртөө	-8.84139
▁бололтой	-8.84207
▁эхнэр	-8.84429
▁барих	-8.84483
▁гээ	-8.84496
▁аг	-8.84544
▁сонин	-8.84735
▁d	-8.84838
▁цалин	-8.85005
▁тогтоо	-8.85035
▁амьдрах	-8.85108
▁утга	-8.85156
▁дээш	-8.85271
вэр	-8.85297
▁O	-8.85317
ист	-8.85354
▁J	-8.85357
▁Ка	-8.85412
АН	-8.85728
ѳ	-8.85733
▁төлөвлө	-8.85855
▁амьдралын	-8.85876
лл	-8.86065
▁зорилго	-8.86065
mn	-8.86125
▁мэднэ	-8.86137
▁Сүүл	-8.8646
би	-8.8651
▁улам	-8.86565
▁чиг	-8.86613
▁уулз	-8.86629
▁орой	-8.86744
ласан	-8.86822
▁хараа	-8.86855
▁Тэгэхээ	-8.87024
▁25	-8.87064
▁хороо	-8.87114
▁Ур	-8.87164
▁төсөл	-8.87285
▁Жи	-8.87297
▁битгий	-8.87359
▁орчим	-8.8736
Ц	-8.87821
▁1-	-8.87845
▁удирд	-8.87846
▁Ко	-8.87911
▁Солонгос	-8.87957
▁төхөөрөмж	-8.87957
▁гэдэгт	-8.87999
▁зал	-8.88067
▁тогло	-8.88074
▁үндсэн	-8.88108
▁нийтийн	-8.88132
▁барьж	-8.88187
▁төрөл	-8.88231
▁ерөнхий	-8.88326
▁уран	-8.88328
▁дэв	-8.8866
▁байхыг	-8.88686
▁салбар	-8.88699
▁алба	-8.88938
Ш	-8.88953
▁удаан	-8.89217
▁олго	-8.89268
▁соёл	-8.894
▁бөх	-8.89436
▁Ду	-8.89449
▁үзсэн	-8.89603
▁програм	-8.89774
▁Ан	-8.89802
▁хийнэ	-8.89819
▁бараа	-8.89844
▁жишээ	-8.89851
▁Цаг	-8.9002
▁дөрвө	-8.90081
чихсан	-8.90091
▁Эм	-8.90136
Е	-8.90199
▁эцэг	-8.90234
▁N	-8.90267
▁n	-8.90305
▁өгнө	-8.90338
▁гоо	-8.90439
▁өөрчлөгд	-8.90464
▁таныг	-8.90601
▁Өөр	-8.9061
ем	-8.90718
▁шилдэг	-8.90723
▁R	-8.90808
▁Үүнээс	-8.90849
▁суурь	-8.90929
▁төлөвлөгөө	-8.90955
▁зориул	-8.91002
▁хэрэглэх	-8.91025
▁хэрэглээ	-8.9115
▁Ард	-8.91191
▁яваа	-8.91265
▁лээ	-8.91301
▁угаа	-8.91676
R	-8.91842
▁хувцас	-8.91857
▁ойлгох	-8.91877
кс	-8.92148
▁эхлэх	-8.92251
▁бичлэг	-8.92408
▁эрт	-8.92536
▁шир	-8.92539
▁төл	-8.92557
▁ач	-8.92625
▁мод	-8.92669
▁хайрла	-8.92695
▁нутаг	-8.92721
▁зүрх	-8.92804
▁зүйн	-8.92894
▁хөө	-8.92909
▁хөгж	-8.93295
▁хоногт	-8.93481
▁Юу	-8.93487
▁очиж	-8.93684
▁удаагийн	-8.93768
N	-8.94314
▁нийгэм	-8.94387
▁хийгээд	-8.94472
▁бул	-8.94523
▁сууж	-8.94535
▁уур	-8.94639
▁тос	-8.94743
▁амьд	-8.94759
▁зүй	-8.94816
▁зогс	-8.94819
▁чин	-8.94869
▁чиний	-8.94909
▁татвар	-8.94977
▁цэг	-8.95056
un	-8.95153
▁ирээд	-8.95236
▁цааш	-8.95289
▁халдвар	-8.95349
▁ялгаа	-8.95351
▁доллар	-8.95354
раг	-8.95447
▁зарцуул	-8.95505
өв	-8.95671
▁зохи	-8.95854
▁худалдан	-8.95859
▁итгэл	-8.9586
▁жилд	-8.95881
гар	-8.95946
лагч	-8.96028
B	-8.96031
▁Анх	-8.96079
▁Ажил	-8.96235
▁ашиглаж	-8.96372
ум	-8.9642
▁оруулж	-8.96674
▁·	-8.96685
▁туслах	-8.96734
▁гэртээ	-8.96834
▁хи	-8.96875
▁хүсэ	-8.97025
▁бүлийн	-8.97046
ка	-8.97138
▁оч	-8.97207
андаа	-8.97303
▁шар	-8.97481
то	-8.97521
▁хил	-8.97541
▁Хүмүүс	-8.97552
▁ижил	-8.97554
▁таалагд	-8.97583
▁сонирхолтой	-8.9759
▁чамд	-8.977
▁боловсрол	-8.97717
▁байнга	-8.97722
▁талбай	-8.97801
баатар	-8.97867
▁тавьж	-8.97876
▁24	-8.97884
▁Ма	-8.97932
▁бүлэг	-8.98187
▁зөвлө	-8.98285
Й	-8.98371
ic	-8.98442
▁салбарт	-8.98467
▁энгийн	-8.98488
▁a	-8.98789
▁худалдаж	-8.98822
▁минутын	-8.98853
▁Е	-8.99027
гуй	-8.9907
▁тусламж	-8.99301
чүүд	-8.99455
▁2-	-8.99643
джээ	-8.99833
▁40	-8.99944
▁U	-8.99951
▁соли	-8.99981
▁хүрч	-9.00014
▁чаддаг	-9.00072
▁ертөнц	-9.00124
▁өгдөг	-9.00179
▁ний	-9.00203
▁тохиолдол	-9.00644
▁үзэл	-9.00683
▁ко	-9.00702
▁жагсаалт	-9.00711
▁Япон	-9.00716
▁нөөц	-9.00742
▁яда	-9.00814
▁гайхалтай	-9.0091
▁c	-9.00958
▁Өв	-9.00967
▁өмс	-9.01029
▁гараа	-9.01048
▁тойр	-9.01052
▁болчих	-9.0106
▁ойлгож	-9.01092
К	-9.01108
▁яри	-9.01141
Ж	-9.01187
▁таван	-9.01279
▁2020	-9.0138
▁ажээ	-9.01513
▁байгуулах	-9.0155
▁ин	-9.01704
▁өөрсдөө	-9.01818
▁лав	-9.01964
▁анхаарал	-9.02143
▁тав	-9.02159
▁хүрээнд	-9.02208
▁тайлбарла	-9.02262
▁Хүний	-9.02293
▁аргагүй	-9.02363
▁тэмц	-9.02493
▁үндэс	-9.02502
▁гэрэл	-9.02526
▁цагаан	-9.02606
▁Нада	-9.0269
▁иргэдийн	-9.02837
▁ас	-9.02839
▁оролцох	-9.02933
▁Америк	-9.02968
▁тод	-9.02993
олбо	-9.03011
▁бос	-9.03023
▁гэхээр	-9.03048
▁эс	-9.03062
▁дотоод	-9.03067
▁Монголчууд	-9.03087
▁яам	-9.03139
▁Бат	-9.03311
АР	-9.03334
жих	-9.03343
▁Ав	-9.03442
▁хураа	-9.0354
▁сургууль	-9.03668
өөсөө	-9.0369
ори	-9.03736
▁хаан	-9.03779
▁Тухай	-9.03782
▁өргөн	-9.03804
▁банк	-9.03808
▁жин	-9.03828
▁сул	-9.0389
▁хэвээр	-9.03939
бал	-9.03963
▁нийгмийн	-9.04031
▁Зөвхөн	-9.04031
▁нутагт	-9.04118
▁эхлээд	-9.04127
▁хэлбэр	-9.04183
▁хүсэлт	-9.04247
гэр	-9.04356
▁өөрсдийн	-9.04384
▁үздэг	-9.04502
ur	-9.04539
▁жинхэнэ	-9.04637
▁худалдаа	-9.047
▁хаяг	-9.04709
▁онгоц	-9.04827
▁хүргэ	-9.04965
▁V	-9.05013
▁цэн	-9.05073
▁бөө	-9.05107
▁нийтлэл	-9.05213
▁байдаггүй	-9.05228
▁эргэн	-9.05562
▁чадсан	-9.05583
▁тэрбум	-9.05629
▁зохиол	-9.05705
le	-9.05764
ro	-9.05821
▁'	-9.0592
▁барил	-9.05944
▁чулуу	-9.06089
▁Өөрөөр	-9.06248
▁i	-9.06299
▁бичих	-9.06365
▁танилц	-9.06465
▁хараад	-9.06684
▁То	-9.06767
▁явна	-9.06782
▁хатуу	-9.0681
▁тэрээр	-9.0696
▁тавих	-9.07023
▁бодлоо	-9.0705
▁бүтэ	-9.07068
▁нэрлэ	-9.07144
▁шинжилгээ	-9.07162
▁Сайн	-9.07228
▁хариуцлага	-9.07352
▁Хятадын	-9.07385
▁алх	-9.07402
▁шалгалт	-9.07417
▁Өнгөрсөн	-9.07435
▁мэдээллийн	-9.07619
▁Түүнийг	-9.07629
▁жи	-9.07644
▁хамаагүй	-9.07705
лэгч	-9.0771
▁тө	-9.07746
Энэ	-9.078
▁оруулалт	-9.07881
▁2012	-9.08166
▁сургуулийн	-9.08258
вч	-9.08263
инг	-9.08314
▁Эл	-9.08373
▁болго	-9.08458
000	-9.08515
▁Улаанбаатар	-9.08538
жиж	-9.08583
▁утас	-9.08591
z	-9.08626
▁бээлий	-9.08651
▁минут	-9.08657
▁Намайг	-9.08812
▁Ша	-9.08932
▁ашигла	-9.08937
тар	-9.08976
▁хотод	-9.08982
▁хүмүүсийг	-9.09137
▁сууц	-9.0922
▁Гар	-9.09227
▁жуул	-9.09427
▁хурд	-9.09658
ип	-9.09738
▁онлайн	-9.09739
▁бүхнийг	-9.09784
▁үедээ	-9.09844
▁материал	-9.09925
▁цахим	-9.09926
▁байгаагаа	-9.09967
▁Мэд	-9.09973
▁Бол	-9.09976
▁зү	-9.09982
▁унт	-9.10097
▁сурах	-9.10099
▁ажиллагааг	-9.10174
▁мэ	-9.10223
▁2016	-9.10488
▁тусгай	-9.10534
▁хос	-9.10545
аз	-9.10664
▁газарт	-9.10779
▁үзүүлэх	-9.10843
▁ка	-9.10865
▁эрэгтэй	-9.1096
▁сэр	-9.10997
▁Европын	-9.11006
▁шударга	-9.11148
екс	-9.11193
▁тэнэг	-9.11234
▁хялбар	-9.11242
▁амьдралд	-9.11267
▁хамтран	-9.11342
▁ярьдаг	-9.11359
▁агуу	-9.11416
▁ажиллагааны	-9.11421
▁Эд	-9.11471
▁томил	-9.11771
▁хулгай	-9.11812
▁хувилбар	-9.12002
ing	-9.12004
▁компаниуд	-9.12078
▁сонгох	-9.12123
el	-9.12168
▁цэвэрлэ	-9.12175
▁Үнэн	-9.12304
▁давхар	-9.12324
▁Үүн	-9.1233
▁*	-9.12333
▁Са	-9.12358
шиж	-9.12466
илж	-9.12469
▁21	-9.12667
дох	-9.12716
▁эхэлж	-9.12755
лэсэн	-9.12858
▁архи	-9.12865
▁дүнг	-9.13046
ay	-9.13123
et	-9.13247
▁эрчим	-9.13251
▁Хүү	-9.13292
ото	-9.13297
as	-9.13299
▁шагнал	-9.13346
L	-9.13419
▁компанийн	-9.13428
▁хийлгэ	-9.13445
ch	-9.13621
▁f	-9.13677
▁Бусад	-9.13737
▁нарт	-9.13766
▁гү	-9.13782
▁Герман	-9.13831
▁Энэтхэг	-9.13831
▁үнэгүй	-9.13855
us	-9.13951
▁татаж	-9.13991
▁сураг	-9.14032
▁Су	-9.14042
▁цэвэр	-9.14044
▁нуу	-9.14122
▁тооцоо	-9.14321
▁хүчний	-9.14369
▁Нийт	-9.14427
ая	-9.14429
▁бна	-9.14479
▁гардаг	-9.14671
il	-9.14716
▁но	-9.14726
▁тэднийг	-9.14774
уулга	-9.14829
▁Сар	-9.14949
▁хоолой	-9.14979
эгдсэн	-9.1506
▁оролц	-9.15089
▁бичиж	-9.15248
▁хон	-9.15273
▁очих	-9.15294
снээр	-9.15323
▁ачаа	-9.15334
▁бүртгэл	-9.15345
▁байдалд	-9.15506
▁үлдээ	-9.15568
▁байгууллагын	-9.15596
▁гурав	-9.15676
▁явц	-9.15683
яа	-9.15819
▁сурга	-9.15864
▁мэндийн	-9.16062
▁дараагийн	-9.16225
▁суулга	-9.16293
▁төдий	-9.16403
▁элс	-9.16563
▁оноо	-9.16774
▁хариул	-9.16778
▁хангалттай	-9.16789
▁орлого	-9.16801
▁эзэмш	-9.16873
гдсан	-9.16932
▁хэвлэл	-9.17176
▁оос	-9.17239
▁Ээж	-9.17314
▁хүргэж	-9.17427
▁Ингэ	-9.17443
▁Төр	-9.17452
▁хажуу	-9.17501
▁цай	-9.17504
▁суух	-9.17561
▁зөвлөл	-9.17566
▁хэлэхэд	-9.17776
▁хүсдэг	-9.18099
▁хуур	-9.18147
▁!!!	-9.18215
▁Хур	-9.18274
▁хүчтэй	-9.18511
▁сэргээ	-9.18724
▁адилхан	-9.1879
▁тэмдэг	-9.18799
▁бүгдийг	-9.18853
▁товч	-9.18857
▁ойлголт	-9.19032
▁маяг	-9.19041
▁Хайр	-9.19249
▁хэрэгжүүлэх	-9.19298
▁хэлдэг	-9.19301
▁улмаас	-9.19322
▁түмний	-9.19445
лэлт	-9.1945
▁уурхайн	-9.19464
▁тавь	-9.19501
▁өнөө	-9.1965
▁худал	-9.19663
▁бал	-9.19822
▁чиглэл	-9.19891
▁хүрсэн	-9.19896
is	-9.19906
▁хугацааны	-9.19916
▁2017	-9.19939
▁санхүүгийн	-9.20043
▁хөгжлийн	-9.20109
▁нэлээд	-9.20187
▁Тэгэх	-9.20247
▁тоглох	-9.2032
эндээ	-9.20395
▁ялга	-9.20427
▁Гэсэ	-9.20464
▁l	-9.20654
▁мэдлэг	-9.20847
▁устга	-9.20948
▁татгалз	-9.20977
▁зөвлөгөө	-9.21116
оп	-9.21244
▁эрсдэл	-9.2129
▁өд	-9.21315
▁байдлын	-9.2161
▁тавьсан	-9.21618
ага	-9.21647
am	-9.21678
ed	-9.21707
▁баярлалаа	-9.21815
▁наад	-9.21846
▁хэрэгцээ	-9.21929
▁мэргэжлийн	-9.22008
▁бэрхшээл	-9.22025
▁яваад	-9.22103
▁ОХУ	-9.22131
▁байшин	-9.22158
▁хэрэгт	-9.2225
▁22	-9.2232
▁хуваа	-9.22334
▁хадгал	-9.2236
▁залуус	-9.22425
▁үзэг	-9.22447
▁g	-9.22461
▁хя	-9.22534
▁найд	-9.22618
ми	-9.22628
▁На	-9.22687
▁давуу	-9.22716
▁нарийн	-9.22766
▁2018	-9.23085
▁ирдэг	-9.23098
▁явуулах	-9.23202
▁Мар	-9.23219
▁амьдардаг	-9.23224
▁хамаа	-9.23401
▁хүнтэй	-9.23426
▁Нам	-9.23528
▁ажилласан	-9.23564
▁хохир	-9.23604
▁хөдөлмөр	-9.2362
▁Өдөр	-9.23622
лэж	-9.23706
MN	-9.23732
▁оршин	-9.23766
ad	-9.23775
▁арьс	-9.23847
▁эхлүүл	-9.23932
▁Гадаад	-9.23947
▁чадаагүй	-9.24055
▁мөнгөө	-9.2406
▁зүтгэ	-9.24133
▁гараад	-9.24144
▁төсөөл	-9.24157
▁хангах	-9.24405
▁талаас	-9.24543
▁жаргал	-9.24687
▁ирнэ	-9.24729
ого	-9.24754
▁дэлгүүр	-9.24805
ре	-9.24808
▁Бүр	-9.24814
▁үйлдэл	-9.24949
▁сүлжээ	-9.25022
▁салбарын	-9.25034
▁Яа	-9.25196
▁эмнэлэг	-9.25239
▁#	-9.25371
▁бэлтгэ	-9.2539
▁спорт	-9.25457
▁Үндсэн	-9.25568
▁яриад	-9.25656
▁амжилттай	-9.25763
агдана	-9.2578
▁илгээ	-9.25791
гддаг	-9.25936
▁унших	-9.25942
▁үгийг	-9.25957
▁уулзалт	-9.25968
▁дэмжих	-9.26042
▁тэдгээр	-9.26064
▁өмч	-9.26068
▁Англи	-9.2612
▁хэрэгсэл	-9.26127
▁2019	-9.26224
▁тээрэм	-9.26227
АА	-9.26228
▁тайлан	-9.26234
▁боломжийг	-9.26269
чиг	-9.26287
▁биднийг	-9.26315
▁шал	-9.26342
▁эсэх	-9.264
▁кон	-9.26434
▁эзэн	-9.2648
▁блог	-9.26561
▁монголчууд	-9.266
▁жаахан	-9.26667
▁дургүй	-9.26706
▁оролд	-9.26716
▁зарна	-9.26717
▁ул	-9.26798
▁сэтгэ	-9.26895
▁мэдээж	-9.26909
▁мах	-9.26971
▁Өөрийн	-9.27027
▁амиа	-9.27031
?"	-9.27187
▁үндэсний	-9.27215
▁мэдрэмж	-9.27219
▁нэм	-9.27289
▁эгч	-9.27324
▁харсан	-9.27409
▁видео	-9.27552
▁|	-9.27556
▁хэрэглэ	-9.27656
▁стандарт	-9.27664
▁бодсон	-9.27711
▁тохи	-9.27964
▁харагдаж	-9.28056
АЛ	-9.2808
▁үзэсгэлэн	-9.28111
▁2015	-9.28111
▁шөнө	-9.28199
▁ёсны	-9.28206
▁хуваалц	-9.28225
ынхаа	-9.28254
агдаж	-9.28311
▁үйлдвэрлэл	-9.28371
сныг	-9.28401
▁үлдсэн	-9.28457
▁онцлог	-9.28503
▁хэргийн	-9.28541
▁Га	-9.286
▁ахуйн	-9.28675
▁идэх	-9.28704
▁дэмжлэг	-9.28776
▁нэвтр	-9.28777
▁үнэтэй	-9.28904
▁сай	-9.29111
▁h	-9.29224
▁үйлдвэрлэ	-9.29523
▁Есүс	-9.29578
▁Нөгөө	-9.29578
▁хайж	-9.2958
▁Оюу	-9.29593
▁амьтан	-9.2969
▁бүтэн	-9.29725
▁хамрагд	-9.29743
▁үргэлжлүүл	-9.29759
▁Дэлхий	-9.2984
▁өөрчлөх	-9.2992
▁сургуульд	-9.29934
маг	-9.30097
▁тэнгэр	-9.30161
тнууд	-9.30256
▁хэсэгт	-9.30306
▁тэтгэ	-9.30355
снаар	-9.30363
▁удахгүй	-9.30379
▁урьд	-9.30418
▁w	-9.30429
АЙ	-9.30503
▁замын	-9.3057
▁бүхэнд	-9.30717
▁бөмбөг	-9.30722
▁олгох	-9.3079
▁урлаг	-9.30884
▁муж	-9.30911
ших	-9.31042
▁K	-9.31043
▁хүртэ	-9.31146
▁нийл	-9.31349
▁Түүнчлэн	-9.31414
▁маргааш	-9.31414
▁дэд	-9.3145
аль	-9.31479
▁тамир	-9.31541
▁итгэ	-9.31562
▁цэргийн	-9.31647
из	-9.31656
oo	-9.31729
▁газраас	-9.31974
▁хам	-9.31981
▁гэрийн	-9.32014
▁Аав	-9.32083
▁инээ	-9.32085
▁60	-9.32114
▁ярьсан	-9.32116
▁3-	-9.32121
▁ажигла	-9.32202
▁гэм	-9.32228
▁сурвалж	-9.32229
▁арван	-9.32343
▁Сү	-9.32354
▁нохой	-9.3258
▁холбогд	-9.32645
▁нэрийг	-9.32684
▁бэлтгэл	-9.32724
▁онцгой	-9.32814
▁зээлийн	-9.32828
▁дэмжиж	-9.32934
▁аварга	-9.32935
▁алт	-9.32971
▁зуун	-9.33083
▁ерөнхийлөгч	-9.33295
▁магадлал	-9.33297
▁хэмжээг	-9.33355
▁царай	-9.335
▁охид	-9.33529
▁дүгнэлт	-9.337
▁Бүгд	-9.33758
▁тор	-9.33863
▁эсэхийг	-9.33867
▁сонгуулийн	-9.33995
▁бодис	-9.34009
▁хариулт	-9.34044
▁дахиа	-9.34058
▁алдсан	-9.34064
▁тоног	-9.34121
▁яахав	-9.34227
Монгол	-9.34239
G	-9.3436
Ч	-9.34362
▁Ерөнхийлөгчийн	-9.34366
▁данс	-9.34535
ья	-9.34561
▁тэдэнд	-9.34588
▁Ган	-9.3464
▁хээ	-9.34734
▁ня	-9.34808
▁2014	-9.3483
▁тайлбар	-9.34862
▁Магадгүй	-9.3495
▁Цааш	-9.34997
▁таларх	-9.35096
▁тэжээ	-9.3515
▁хүсэж	-9.35164
▁итгэлтэй	-9.35167
▁Түүнээс	-9.35192
▁ороод	-9.35237
▁Америкийн	-9.35447
өнгө	-9.35516
дож	-9.35697
▁жаргалтай	-9.3581
▁мөч	-9.35911
▁дайн	-9.35913
▁оор	-9.35945
▁зохио	-9.36051
▁шаардлагагүй	-9.36268
▁Амьдрал	-9.36279
▁нарыг	-9.36281
▁аялал	-9.36283
▁цөөн	-9.36288
▁Франц	-9.36401
▁томоохон	-9.36401
▁сум	-9.36466
▁аймаг	-9.36568
>	-9.37052
▁цэцэрлэг	-9.37134
▁Хор	-9.37161
▁Өмнөх	-9.3717
Бат	-9.37171
▁эмчилгээ	-9.37379
▁харагдах	-9.37409
өнө	-9.37469
▁ёсоор	-9.37531
▁Ажлын	-9.37631
▁үзүүлэлт	-9.37631
▁ду	-9.37656
▁Ун	-9.37726
▁Ай	-9.37742
▁хятад	-9.37751
▁агаар	-9.37755
▁мэргэжил	-9.37872
▁этгээд	-9.37872
▁ашигтай	-9.37946
▁дүнд	-9.38048
▁нэмэлт	-9.38122
▁гараг	-9.38283
▁байранд	-9.38308
▁байгууллагууд	-9.38368
▁2008	-9.38589
▁Эсвэл	-9.38617
▁зэ	-9.38648
▁алхам	-9.38685
▁тэргүүн	-9.38747
▁илэр	-9.38816
мб	-9.38821
▁бэлд	-9.38993
▁хүүхдээ	-9.39013
▁Y	-9.39161
▁амралт	-9.39246
▁орос	-9.39276
▁ногоо	-9.39299
ag	-9.39348
▁Бага	-9.39366
▁олсон	-9.3938
▁Мөнгө	-9.39431
▁эхлэн	-9.39468
▁хэлээд	-9.39565
▁сав	-9.39608
▁боловсруу	-9.39615
▁хаалга	-9.39677
▁тохио	-9.39719
▁Ю	-9.39752
▁сэдэв	-9.3987
▁тэн	-9.39917
▁баталгаа	-9.39929
j	-9.39994
▁чуулган	-9.40223
▁буд	-9.40339
▁хагас	-9.40386
▁төлөв	-9.40389
▁Өмнө	-9.40476
▁тээврийн	-9.405
▁Үнэ	-9.40536
▁хамтлаг	-9.40612
▁явуулж	-9.40616
▁хямд	-9.40633
▁баруун	-9.40712
▁төсөв	-9.40754
▁ингэ	-9.4076
▁суугаа	-9.40783
чихсэн	-9.40789
▁ирлээ	-9.40802
▁Ту	-9.40886
▁Ганц	-9.40922
▁r	-9.41014
▁дуусга	-9.41038
▁хөгжил	-9.41111
▁улирал	-9.41137
▁Залуу	-9.41271
▁сүр	-9.41271
▁хориг	-9.41454
▁багийн	-9.41456
Энх	-9.41471
▁шинээр	-9.41485
члэн	-9.41529
▁дотроо	-9.41648
▁асуудлаар	-9.41664
▁со	-9.41793
уулагч	-9.41964
▁Ро	-9.41975
▁байгуулсан	-9.41986
▁сор	-9.42069
▁мөрдө	-9.42144
▁зохицуул	-9.42165
▁наадам	-9.42204
▁уудыг	-9.42209
▁хэрэглэж	-9.42298
▁зовлон	-9.42715
▁хамаара	-9.42738
▁биеэ	-9.42866
▁Эрх	-9.42869
▁ажилтан	-9.43029
V	-9.43056
▁цуглуул	-9.432
▁түүнээс	-9.43202
▁судла	-9.43242
▁амархан	-9.43382
▁учиртай	-9.43448
ra	-9.43473
▁насанд	-9.43592
▁уншиж	-9.43596
▁уйл	-9.43743
▁Ши	-9.43812
ac	-9.43845
▁сонгуульд	-9.43913
▁му	-9.44063
▁вакцин	-9.44116
▁баяртай	-9.44135
▁Орон	-9.44207
▁Иргэд	-9.44248
▁бурхан	-9.4425
▁эрчүүд	-9.44341
lo	-9.44485
▁тохиромжтой	-9.44511
ест	-9.44713
▁23	-9.44807
▁танай	-9.44831
чиж	-9.44845
▁түвшинд	-9.4487
▁зориг	-9.44874
F	-9.44916
▁Ингэснээр	-9.45055
▁Аль	-9.45059
▁холбогдох	-9.45093
▁Эрүү	-9.45111
▁No	-9.45356
▁шу	-9.45361
▁цахилгаан	-9.4544
▁Дав	-9.45451
▁хандаж	-9.45676
▁Үндэсний	-9.4584
▁суралц	-9.45867
▁замаар	-9.45974
▁өвчин	-9.45995
▁төлөөлөгч	-9.46037
▁80	-9.46141
▁хоригло	-9.46156
▁нууд	-9.46178
▁ганцаараа	-9.46198
▁амьсгал	-9.46377
▁дамжуул	-9.46454
▁Мо	-9.46499
▁асар	-9.46543
▁уя	-9.46558
ot	-9.46613
▁байгуулалт	-9.46876
▁хамтдаа	-9.46968
▁ойролцоо	-9.47052
▁Хүүхэд	-9.47053
▁цагдаа	-9.47088
▁тулгар	-9.47135
▁тусга	-9.47172
▁төлөх	-9.47174
▁Хууль	-9.47189
U	-9.47361
▁хандлага	-9.47427
▁далай	-9.47476
ель	-9.47485
▁өнөөдрий	-9.47606
;	-9.47636
▁бодоод	-9.47685
▁даяар	-9.47732
▁Хүүхдийн	-9.47737
ладаг	-9.47931
▁сонсох	-9.47959
▁Нийслэл	-9.48278
▁Жишээ	-9.48279
▁заяа	-9.48307
▁хорио	-9.48357
▁Ихэнх	-9.48428
дүгээр	-9.48464
▁сонгууль	-9.4849
▁тур	-9.48531
▁дурла	-9.48543
оороо	-9.48554
▁Гол	-9.48721
▁X	-9.48771
▁техник	-9.48827
▁хөдөө	-9.4885
▁цом	-9.48858
▁тараа	-9.48874
▁захиал	-9.48887
▁цохи	-9.49018
▁тайван	-9.49108
▁харахад	-9.49127
▁ме	-9.49151
▁харагд	-9.4927
▁ангийн	-9.49345
▁хийхэд	-9.4936
▁тэрбээр	-9.49384
▁оролцоо	-9.49425
▁тоглож	-9.49428
▁чада	-9.4943
▁эргэ	-9.49445
▁зургийг	-9.49617
УУ	-9.49619
▁ажилла	-9.49625
▁Өмнөд	-9.4965
▁оролцож	-9.49659
▁Сур	-9.49683
▁шийдэх	-9.49776
▁гарна	-9.49875
▁дүрэм	-9.50024
▁Уул	-9.50075
Хүрэлсүх	-9.50076
▁2013	-9.50076
▁эхэллээ	-9.50078
▁болгосон	-9.5022
▁татах	-9.50254
▁гүн	-9.50335
▁туршлага	-9.5037
▁тамхи	-9.50379
▁үзээрэй	-9.50445
▁богино	-9.50495
бо	-9.50522
▁дөө	-9.50573
▁Өр	-9.50617
▁хуралдаан	-9.50636
▁худлаа	-9.50647
▁зүйтэй	-9.50725
▁нийц	-9.5075
▁хандах	-9.508
▁эргэж	-9.50806
▁компьютер	-9.50917
▁Том	-9.51016
▁итгэх	-9.51046
▁Төв	-9.51162
+	-9.51199
▁Хан	-9.51222
▁зөвшөөрөл	-9.51255
▁байсныг	-9.51281
Чи	-9.51282
▁цагдаагийн	-9.51346
▁цаашид	-9.51468
▁зүгээс	-9.51484
▁эмээ	-9.51559
ter	-9.51593
▁дасгал	-9.51623
▁дэлгэ	-9.51814
▁түүхэн	-9.51832
▁засвар	-9.51903
▁өсөлт	-9.51908
▁оруулсан	-9.52106
▁асуух	-9.52298
▁нийслэл	-9.52335
▁улстөр	-9.52341
Энхбаяр	-9.52627
▁хог	-9.52638
▁зардал	-9.52681
ri	-9.52704
▁хүргэх	-9.52781
▁хуучин	-9.5282
▁ороо	-9.52857
▁Зүгээр	-9.52907
▁(1	-9.53066
▁Сон	-9.53169
огдсон	-9.53237
аргыг	-9.53275
▁мянга	-9.53332
▁орно	-9.53529
▁хязгаар	-9.53563
▁санагддаг	-9.53628
▁аливаа	-9.53773
▁мэдэл	-9.53828
om	-9.53852
▁ашигладаг	-9.53934
▁Европ	-9.53989
▁сахи	-9.54018
▁уурхай	-9.5405
▁26	-9.5416
▁дүүрэн	-9.54212
▁тогтолцоо	-9.54353
▁Зөв	-9.54476
▁нэртэй	-9.54633
▁уулзах	-9.54687
▁Нар	-9.54827
▁байгуулж	-9.54958
▁газрууд	-9.55084
▁Ингэх	-9.55088
▁Баяр	-9.55099
▁Ли	-9.55147
үүлэгч	-9.5518
▁өдрөө	-9.55214
▁бүтээгдэхүүний	-9.55292
▁дүнтэй	-9.5536
▁ашиглан	-9.55433
▁оюун	-9.55525
▁хувьцаа	-9.55532
▁чиглэлээр	-9.55534
▁Со	-9.55706
▁ажиллуул	-9.55801
▁порно	-9.55821
▁хувийг	-9.55824
▁үзнэ	-9.55863
▁чаддаггүй	-9.55991
▁доош	-9.56254
▁198	-9.56404
▁анзаар	-9.56415
▁заалт	-9.56536
бэ	-9.56647
▁нээлттэй	-9.56668
▁болоогүй	-9.56767
▁нөхөд	-9.56772
▁нэгдсэн	-9.56844
▁хэргийг	-9.56866
▁зориулж	-9.56901
▁ухааны	-9.56902
▁Ман	-9.56944
▁шалгах	-9.57153
▁Өглөө	-9.5716
▁итгэж	-9.57184
ut	-9.57204
▁цус	-9.57275
▁одоогийн	-9.5732
▁зуу	-9.57408
▁албаны	-9.57455
▁Тэнд	-9.57586
▁алдах	-9.57653
▁секс	-9.57687
▁хэвийн	-9.57699
▁эцэст	-9.57713
▁ган	-9.57755
▁Өнөөдр	-9.57769
▁урьдчилан	-9.57912
▁2011	-9.57912
▁хуулиа	-9.57913
▁амьдар	-9.57969
▁алдартай	-9.58065
▁хэлний	-9.58069
▁оролцсон	-9.58207
▁ихэвчлэн	-9.58214
▁Холбоо	-9.58215
▁зорилгоор	-9.58297
=	-9.58365
▁хүргэе	-9.58596
▁ганцхан	-9.58617
▁байснаа	-9.58674
▁технологи	-9.58675
▁англи	-9.5874
▁по	-9.58757
▁дут	-9.58778
▁па	-9.58827
▁Одоогоо	-9.58841
▁зорилт	-9.58905
▁утгаар	-9.59227
▁тайгаа	-9.59273
▁бэлэг	-9.59396
▁батлагд	-9.59444
▁чанартай	-9.59503
▁шийдвэрлэх	-9.59503
▁27	-9.59503
▁тохируул	-9.59534
▁ХХК	-9.59586
▁зуур	-9.59589
▁технологий	-9.59733
▁хүндэтгэ	-9.59746
▁давта	-9.59852
▁дэлгэрэнгүй	-9.59893
▁Ази	-9.59901
▁Ном	-9.59941
▁анхаарах	-9.59975
~	-9.60047
▁халуун	-9.60093
▁зори	-9.60113
Z	-9.60202
ск	-9.60289
▁БНХАУ	-9.60356
▁бохир	-9.60359
▁цэцэг	-9.60369
▁нүүрс	-9.60385
▁байлгүй	-9.60547
▁журам	-9.60666
▁үнэлгээ	-9.60671
▁гомдол	-9.60767
▁хамгаалалт	-9.60781
H	-9.61038
▁уламжлал	-9.61145
▁нэмж	-9.61185
▁тогтоох	-9.61327
▁28	-9.61403
▁$	-9.61454
▁Ми	-9.61505
▁боловсруулах	-9.6154
▁бичгий	-9.61584
▁Гал	-9.6161
▁тогтвортой	-9.61631
▁агаарын	-9.61685
▁байгуулаг	-9.61722
ЭМ	-9.6192
▁Мал	-9.61923
▁хойно	-9.61937
▁дүгээр	-9.62015
▁эцсийн	-9.62072
▁Христ	-9.62075
▁хожи	-9.62094
▁тоглогч	-9.62127
▁чадвартай	-9.62138
▁хэмээх	-9.62243
▁тогоо	-9.62342
▁үнэндээ	-9.62377
▁чадал	-9.62399
▁утсаа	-9.62492
▁зөрчил	-9.62546
▁тэмцэх	-9.62615
▁хуралд	-9.62656
▁зургаан	-9.62691
▁сайхны	-9.62709
▁Дараагийн	-9.62801
▁Хэрэг	-9.62846
▁хуулийг	-9.62871
▁ердөө	-9.62907
▁буулга	-9.63004
▁хэ	-9.63097
▁>	-9.63127
▁хөгжүүлэх	-9.63177
▁надаас	-9.63201
▁хаанаас	-9.63321
▁хувиар	-9.63339
▁НҮБ	-9.6334
▁Үнэхээр	-9.63341
▁ярь	-9.63366
▁төгсгөл	-9.63501
изм	-9.63516
▁Зам	-9.63517
▁буудал	-9.63613
▁сайжруулах	-9.63652
▁сүүлд	-9.63748
▁тодруул	-9.63783
▁ажиллана	-9.6385
▁үйлчилгээний	-9.63868
▁иргэний	-9.63907
li	-9.63973
th	-9.64114
▁санаж	-9.6414
▁асуудлууд	-9.643
▁залга	-9.64324
▁цаас	-9.64329
үүлэн	-9.64413
▁олны	-9.64454
▁Жил	-9.64524
▁шив	-9.64563
амба	-9.64691
▁байлгах	-9.6474
▁дэргэд	-9.64784
▁ховор	-9.64786
▁барилга	-9.64807
▁аюул	-9.64809
▁орчуул	-9.64872
▁жолооч	-9.65054
▁машины	-9.65105
▁хоёул	-9.6527
гаараа	-9.65329
▁муухай	-9.65399
▁Танд	-9.65413
▁дэвшигч	-9.6544
▁дайр	-9.6551
▁дүгнэ	-9.65512
эгддэг	-9.65602
▁Нэгэн	-9.65671
▁залбир	-9.65761
▁ашиглалт	-9.65786
▁тариа	-9.65805
▁бүртгүүл	-9.65915
▁тутмын	-9.65922
▁сэтгүүл	-9.66032
▁тогтоол	-9.66089
▁уруу	-9.66171
▁эргэлзэ	-9.66252
▁гаргадаг	-9.663
▁хангамж	-9.66356
▁мэдсэн	-9.66392
▁мөнгийг	-9.6649
▁гариг	-9.66559
▁Цагаан	-9.66588
▁аргаар	-9.66715
▁хүсье	-9.66909
лөгч	-9.66915
▁бусдад	-9.66931
есс	-9.66968
пи	-9.67081
▁Байгал	-9.6716
▁идэж	-9.67232
▁байгаль	-9.6724
▁байгаарай	-9.67305
▁даргын	-9.67327
▁сэтгэгдэл	-9.67405
▁олборло	-9.67405
▁чимээ	-9.67437
▁сонирхол	-9.67454
баяр	-9.67551
▁тутам	-9.67572
▁ажиллагаанд	-9.67583
▁90	-9.67599
▁нүүд	-9.67648
▁цаана	-9.67705
▁хэрэгжүүл	-9.67743
сүрэн	-9.67745
▁файл	-9.67758
▁хэхэ	-9.67932
▁өнгөрүүл	-9.68065
▁телевиз	-9.68071
▁сурч	-9.68088
▁одоогоор	-9.68112
▁найзууд	-9.68247
▁тусгаарла	-9.68251
нийхээ	-9.68273
▁шингэ	-9.68372
▁хөрөнгий	-9.68574
▁дугуй	-9.68591
▁цо	-9.68674
▁цар	-9.68707
▁Сая	-9.68709
▁хурим	-9.68734
▁яасан	-9.68769
▁хэлэв	-9.6881
▁сумын	-9.68833
▁хурал	-9.68838
▁Re	-9.6886
▁70	-9.68927
▁сүй	-9.68962
id	-9.69041
▁Нас	-9.69109
▁сэтгүүлч	-9.69134
▁өрнө	-9.692
▁Дахи	-9.69227
▁Авто	-9.6941
▁өрөөнд	-9.69414
▁шоу	-9.69424
▁орчны	-9.69439
▁дууссан	-9.69445
▁цол	-9.69532
▁шалтгаал	-9.69586
▁хэллээ	-9.69698
▁шаха	-9.69751
▁Тухайлбал	-9.69926
ЭГ	-9.70081
*	-9.70188
▁даатгал	-9.70268
өрөг	-9.70274
▁найдаж	-9.70419
▁хөгжим	-9.70544
▁болзошгүй	-9.70609
<	-9.70781
▁улаан	-9.70799
▁цор	-9.70936
▁гудамж	-9.70953
▁хэрэглэдэг	-9.70977
▁хувир	-9.71128
▁гуай	-9.71129
▁гүйцэтгэх	-9.71297
▁Цэц	-9.713
▁туршилт	-9.71302
▁Засаг	-9.71474
▁газрыг	-9.71643
▁сүм	-9.71651
▁Тогло	-9.71658
▁шдээ	-9.7176
▁шинжлэх	-9.71789
▁хямрал	-9.71816
ИЙН	-9.71818
лэгдсэн	-9.71857
▁хэмжээгээр	-9.71921
▁болгодог	-9.71928
▁дагаж	-9.71984
▁Хамт	-9.72038
эгдэж	-9.72073
▁бүсгүйчүүд	-9.72202
▁Эхний	-9.72236
▁хэрэв	-9.72349
▁төсвийн	-9.72512
▁Баян	-9.72516
▁өнгөрөө	-9.7252
▁сонссон	-9.72578
ce	-9.72621
▁олдо	-9.72647
▁мэдээллээ	-9.72706
▁худалдааны	-9.72787
▁нээлт	-9.72853
▁вирус	-9.72862
▁дуусах	-9.72884
▁идэвх	-9.72936
▁ахуй	-9.72968
▁зааж	-9.73025
▁өмнөөс	-9.73222
and	-9.73377
▁түвшин	-9.73441
Ё	-9.73566
▁оюутнууд	-9.73566
▁хадгалах	-9.73617
▁2009	-9.73701
Энхболд	-9.73743
▁цугла	-9.73743
▁Японы	-9.73791
▁Чам	-9.73793
▁залуучууд	-9.73835
▁хэлэлцэх	-9.73896
▁Эмэгтэй	-9.73907
▁[...]	-9.7392
▁хөөрхөн	-9.7392
ia	-9.74009
▁цац	-9.74042
▁ордог	-9.74083
▁очоод	-9.74152
▁авар	-9.74357
▁газраа	-9.74486
▁сэргийлэх	-9.74507
ЭР	-9.74567
▁сөрөг	-9.74601
▁тэгш	-9.74695
▁шашин	-9.74811
▁болчихсон	-9.7501
▁Африк	-9.75167
▁2010	-9.75168
▁нийтэд	-9.75268
▁ярилцлага	-9.75327
▁хоорондоо	-9.75332
▁иргэдэд	-9.75395
▁урагш	-9.75562
im	-9.75633
▁авалт	-9.75672
▁аваарай	-9.75745
▁зургаа	-9.75772
▁чанга	-9.75799
▁Үйл	-9.75894
▁үлгэр	-9.75954
▁үсэг	-9.75983
▁орноо	-9.76042
▁хөдөл	-9.76067
▁босго	-9.76199
▁дандаа	-9.76243
▁багтаа	-9.76248
▁түрүүнд	-9.76252
▁эргүүл	-9.76265
▁өдрүүдэд	-9.76371
▁жүжиг	-9.76374
▁Австрал	-9.76613
чнээн	-9.7662
▁аюултай	-9.76631
▁хэрэгжүүлж	-9.76672
▁ядуу	-9.76795
▁байгуулагдсан	-9.76869
дорж	-9.76871
▁ойлгомжтой	-9.76977
▁хүүхдэд	-9.76977
▁дэвшүүл	-9.77017
▁Чиний	-9.77032
▁иймэрхүү	-9.77161
▁захиргаа	-9.77164
▁очсон	-9.77372
▁заримдаа	-9.77431
▁хүнсний	-9.77457
▁хөгш	-9.77504
▁нэгдүгээр	-9.77519
▁автобус	-9.77527
▁байгалийн	-9.77528
▁эхэлнэ	-9.7753
▁заасан	-9.77555
▁ойлгодог	-9.77678
▁удирдагч	-9.7771
▁Бусд	-9.7794
▁гомд	-9.78001
▁Сайхан	-9.78082
▁үзээгүй	-9.78097
Миний	-9.7819
▁санагдаж	-9.78208
▁маргаан	-9.78268
▁Түр	-9.78281
ir	-9.78405
▁Хүүхдүүд	-9.78449
▁өдрийг	-9.78455
▁уулзаж	-9.78499
▁автомашин	-9.78635
Баттулга	-9.78635
▁нэмэх	-9.7866
▁харагддаг	-9.78717
ЭЛ	-9.78823
▁орондоо	-9.78831
▁дамжуулан	-9.78927
▁Маш	-9.78971
▁холбооны	-9.79023
▁Өөрийг	-9.79175
▁хэтэрхий	-9.79194
▁Ардчилсан	-9.79194
▁үлдэх	-9.79578
гдэх	-9.79604
▁Сэтгэл	-9.79944
▁брэнд	-9.79954
мэйл	-9.80101
▁оюутан	-9.80132
▁ширхэг	-9.80134
▁дэлгэц	-9.80304
▁ханш	-9.80312
▁тархи	-9.8032
'	-9.80651
▁бусдын	-9.80674
▁зарчим	-9.80701
▁түрүүл	-9.80709
!!!	-9.80858
▁үйлдвэрлэгч	-9.80887
▁Харамсал	-9.80888
▁эргээд	-9.80914
▁Амь	-9.8111
ul	-9.81198
▁явагда	-9.81416
▁Одоогийн	-9.81424
▁&	-9.81457
▁Ялангуяа	-9.8146
▁үйлчлүүлэгч	-9.81469
▁байцаа	-9.81478
▁Хойд	-9.81489
ЭН	-9.81501
▁шийдсэн	-9.81557
▁парламент	-9.81651
▁эерэг	-9.81652
▁уралдаан	-9.81653
▁сурталчилгаа	-9.81843
▁сонсож	-9.81845
▁Эзэн	-9.81846
▁үүнээс	-9.81924
▁цогц	-9.8204
▁дарамт	-9.8206
цгаая	-9.82155
▁өссөн	-9.82201
▁хоёрдугаар	-9.82203
▁үүссэн	-9.82257
▁Өнөө	-9.82413
▁төслийг	-9.8242
▁сонгосон	-9.82664
▁судалгааны	-9.82736
▁эрүү	-9.82737
ГА	-9.82839
▁карт	-9.8284
▁шинэчлэ	-9.82962
▁зайлшгүй	-9.83
▁Гу	-9.83042
▁Ирэх	-9.83205
▁итгэдэг	-9.83215
▁ком	-9.83217
ЭЭ	-9.83458
доллар	-9.8357
▁хийгдэ	-9.83576
▁мэдэгдэл	-9.8358
▁цуврал	-9.83584
▁өөрсдийгөө	-9.83584
▁утасны	-9.83667
▁борлуул	-9.83734
▁шинэчлэл	-9.8395
▁таамаг	-9.83983
em	-9.84308
▁Түүнд	-9.84386
▁судлаач	-9.84527
▁уучлал	-9.84576
▁зууны	-9.84816
▁шүүмжлэ	-9.84826
▁үндэслэл	-9.84857
чимэг	-9.84998
▁уриал	-9.85007
▁оролцогч	-9.85036
ҮҮ	-9.85097
▁Танай	-9.85195
▁өнөөгийн	-9.85226
бу	-9.85299
▁эмнэлгийн	-9.85355
▁гайхамшиг	-9.85355
▁хэсгийг	-9.85356
АМ	-9.85473
com	-9.85509
▁бодлогын	-9.85555
▁Найз	-9.85558
▁шугам	-9.8556
▁хүндрэл	-9.85571
▁35	-9.85593
▁тогтно	-9.85953
▁тогто	-9.85995
▁хүрээлэн	-9.86026
▁банкны	-9.86072
▁News	-9.86153
▁тогтмол	-9.86153
▁харилцан	-9.86153
▁зөндөө	-9.86153
▁төмөр	-9.86154
▁Багш	-9.86157
▁Машин	-9.86188
ОН	-9.862
Q	-9.86353
▁баян	-9.86427
▁цонх	-9.86427
▁биелүүл	-9.86517
▁хийлээ	-9.8654
▁сунга	-9.8663
▁бууруулах	-9.86717
▁явчих	-9.86771
▁суралцах	-9.86919
▁урсгал	-9.86957
▁засах	-9.86992
▁500	-9.86998
▁харьцуул	-9.87159
ъё	-9.87167
▁байрлал	-9.87333
▁өгөөч	-9.87366
▁дүүргийн	-9.87371
▁хөгжилтэй	-9.87422
▁Хоол	-9.87456
▁Зураг	-9.87565
▁Ойр	-9.8757
▁жүжигчин	-9.87628
▁илтгэ	-9.87935
▁тийш	-9.87978
▁ордон	-9.88001
▁вий	-9.88051
▁удирдлага	-9.88071
▁илрүүл	-9.88096
▁Хувь	-9.88176
▁дэндүү	-9.88176
▁нисэх	-9.88178
Манай	-9.88218
▁даруй	-9.88304
▁танхим	-9.8838
sh	-9.88399
K	-9.88424
▁өсгө	-9.88447
▁төвлөр	-9.88841
▁хорооны	-9.88842
▁туршлагатай	-9.88878
▁to	-9.88878
▁хязгаарла	-9.88882
▁29	-9.88925
▁хашаа	-9.89011
▁ихээхэн	-9.89207
П	-9.89253
▁багта	-9.89386
▁стратеги	-9.89409
▁нэмэгдүүлэх	-9.89541
▁байнгын	-9.89616
▁үгүйсгэ	-9.89702
▁Эцэг	-9.89825
▁про	-9.89864
▁Уу	-9.8994
▁холбогдсон	-9.8999
▁найман	-9.90031
▁цэрэг	-9.90032
▁дөнгөж	-9.90034
▁зэвсэг	-9.90239
▁хүйтэн	-9.90239
▁Газар	-9.9024
▁алдаж	-9.9035
▁ялангуяа	-9.90448
▁гадуур	-9.90459
▁тойрон	-9.90557
▁Хэзээ	-9.90657
▁галзуу	-9.90663
▁бороо	-9.90666
ингээд	-9.90709
▁нэмэр	-9.90867
▁барилгын	-9.90883
ямба	-9.90974
▁Хэдэ	-9.91005
▁бүгдээрээ	-9.91245
▁МАХН	-9.91288
▁хорвоо	-9.91294
▁ажилтнууд	-9.91447
▁өчигдөр	-9.91498
▁виз	-9.91558
▁нунтаг	-9.91633
▁болгоомж	-9.91712
X	-9.91796
▁явцад	-9.9185
▁Эхнэр	-9.91927
co	-9.91996
Оюун	-9.92322
▁өдрүүд	-9.92418
▁далд	-9.92433
▁болтол	-9.92441
▁идэвхтэй	-9.9249
▁хандуул	-9.92494
▁яаралтай	-9.9256
▁зугт	-9.9256
▁үзээд	-9.92565
▁эрдэм	-9.9257
▁Канад	-9.92583
▁зөвшөөрөх	-9.92612
▁уншигч	-9.92628
▁барьсан	-9.92777
▁зорилготой	-9.92779
▁осол	-9.92784
▁наадмы	-9.92787
▁бүрэлдэхүүн	-9.92988
▁өгөөд	-9.92991
▁Шүүх	-9.92994
▁саван	-9.93009
▁нийлүүлэ	-9.93024
▁дутуу	-9.93206
▁мундаг	-9.93207
▁хүүхдийг	-9.93633
▁хүсвэл	-9.93634
▁Худалда	-9.93657
▁хэлэлцээр	-9.93692
▁тогтоосон	-9.93696
▁Өөрөө	-9.93706
▁нислэг	-9.94067
ho	-9.94123
▁байлга	-9.94182
▁шийтгэ	-9.94312
▁дахи	-9.94313
▁авто	-9.94379
·	-9.94402
▁Бизнес	-9.945
ОЛ	-9.94675
▁шилжүүл	-9.94679
▁зургууд	-9.94726
▁гэгээ	-9.94825
эдийгээр	-9.94859
▁жилүүдэд	-9.94939
өрсөн	-9.94996
▁хэлбэрээр	-9.95004
▁1000	-9.95065
▁суудал	-9.95138
▁арилжаа	-9.95155
▁төслийн	-9.95156
▁ухаалаг	-9.95374
фф	-9.95457
▁магт	-9.95501
▁нойр	-9.95605
▁маск	-9.95634
▁Тэдгээр	-9.95704
▁морь	-9.95817
▁үзвэл	-9.95977
▁туйл	-9.96066
▁дэглэм	-9.96256
▁цөм	-9.96323
▁197	-9.96443
▁өвчний	-9.96488
ИЛ	-9.96518
▁буцаж	-9.96559
▁гадны	-9.96574
▁тохиолдо	-9.96753
ow	-9.96784
▁Охин	-9.96801
▁хөдлөл	-9.96923
▁АТГ	-9.96923
▁хэсгийн	-9.96925
▁хүүхэн	-9.96936
ОР	-9.9701
▁хаха	-9.97086
▁хоосон	-9.97377
▁эхчүүд	-9.97786
▁хөлбөмбөг	-9.97819
ion	-9.97876
▁салхи	-9.97917
▁таних	-9.98065
▁халамж	-9.98278
▁дурдсан	-9.98292
▁хугацаагаар	-9.98456
▁санхүүжилт	-9.98496
▁америк	-9.98496
▁түүнтэй	-9.98514
▁олгодог	-9.98671
▁Зүүн	-9.98679
▁зугаа	-9.98725
ma	-9.98843
▁баялаг	-9.98951
туяа	-9.98974
▁дулаан	-9.98993
▁ойлгосон	-9.99708
ӨР	-9.99845
▁онцлов	-10.0002
▁тодорхойлох	-10.0002
▁196	-10.0007
▁асуудлаа	-10.0008
▁Компани	-10.0009
▁эсэргүүцэ	-10.0012
▁Урьд	-10.0033
▁хөрш	-10.0034
▁захиалга	-10.0036
▁Британи	-10.0053
▁байтугай	-10.0056
▁дутагда	-10.0061
▁захирал	-10.0064
▁хама	-10.0067
▁таатай	-10.009
▁засаглал	-10.0094
▁Турк	-10.0125
▁нягт	-10.0129
Элбэгдорж	-10.0148
▁Израил	-10.0148
▁хөдлөх	-10.0148
▁дэвсгэр	-10.0148
▁дуудлага	-10.015
▁евро	-10.0172
▁хойд	-10.0176
▁байрлуул	-10.0186
▁жирэмс	-10.0195
▁сэргэ	-10.0202
хондоо	-10.0203
▁баталгаажуул	-10.0231
▁өнгөрч	-10.0237
▁ёслол	-10.0243
▁2000	-10.0259
▁мэдэрч	-10.0266
od	-10.0268
▁ертөнцөд	-10.0271
▁Гурав	-10.029
▁Өдрий	-10.0296
▁унтаж	-10.0313
▁Google	-10.0337
▁төстэй	-10.0337
▁нуруу	-10.0362
▁харамсалтай	-10.0385
▁клуб	-10.0409
▁хувьсгал	-10.0409
▁чадвал	-10.041
▁үнийн	-10.0412
▁Гурван	-10.0433
▁үүсвэр	-10.0433
▁ойрхон	-10.0442
▁Чингис	-10.0457
ухлыг	-10.0459
▁үүднээс	-10.0478
▁хийгээгүй	-10.0481
ЫН	-10.0509
▁дуугар	-10.0522
▁ахмад	-10.053
▁Бүтэ	-10.053
▁гаралтай	-10.0531
▁шүд	-10.0541
▁нэмэгдэж	-10.0549
▁дурсамж	-10.0553
▁бэлгийн	-10.0555
▁үеэс	-10.0559
▁Үйлдвэр	-10.0578
▁сүнс	-10.0579
▁хэвлэ	-10.059
▁Итали	-10.0595
▁дөрөв	-10.0599
▁экспорт	-10.0626
▁Маргааш	-10.0627
▁ариутгагч	-10.0629
▁агуулга	-10.0642
▁In	-10.0642
▁сонирхож	-10.0651
▁Албан	-10.0658
▁Ви	-10.0664
▁олимп	-10.0676
_	-10.068
▁жимс	-10.0681
▁ухаар	-10.0729
▁хоно	-10.0735
▁станц	-10.075
um	-10.0755
▁хоолло	-10.0767
▁удирдлагууд	-10.0774
▁Аливаа	-10.0775
▁танил	-10.0779
▁болтугай	-10.0799
▁Эмэгтэйчүүд	-10.0801
УР	-10.082
▁Эцэст	-10.0824
▁вэбсайт	-10.0824
▁олгоно	-10.0867
▁Баруун	-10.089
▁камер	-10.09
▁багасга	-10.0905
▁жолоо	-10.0908
▁биелүүлэх	-10.0915
▁хорих	-10.0941
▁новш	-10.095
▁мэдрэх	-10.0951
эээээ	-10.097
▁ариун	-10.0975
▁сайжруул	-10.0976
▁2021	-10.1001
▁шатанд	-10.1005
▁зөрүү	-10.1005
▁хөгжиж	-10.1027
▁борлуулалт	-10.1032
▁ажлууд	-10.1053
▁шийдэж	-10.1054
▁нунтаглах	-10.1061
▁зохицуулалт	-10.1061
▁Кино	-10.1078
▁яригда	-10.1098
▁кофе	-10.1103
▁Өндөр	-10.1128
▁ундаа	-10.1131
▁хиймэ	-10.1143
▁дүүрэг	-10.1155
лбэр	-10.1169
▁хөгжүүл	-10.1175
▁инээмсэглэ	-10.118
▁мэргэжл	-10.1184
▁хүргүүл	-10.1193
▁шавь	-10.1206
▁хэлмээр	-10.1207
W	-10.1217
▁хөнөө	-10.1221
Ь	-10.1232
▁мөрөөдөл	-10.1232
▁учруул	-10.1232
▁Сонго	-10.1239
▁нөлөөлөх	-10.1258
▁бусдыг	-10.1264
хуяг	-10.1265
▁эргэлт	-10.1274
▁гуниг	-10.1284
▁зогсож	-10.1284
▁шилжүүлэ	-10.1312
▁буцааж	-10.1338
өгдсөн	-10.1348
▁Улаан	-10.135
▁хөгжмий	-10.1358
▁Долоо	-10.1364
▁Түүх	-10.1377
▁Өөрийнхөө	-10.139
▁жирийн	-10.1392
▁Хэрэглэгч	-10.1392
▁импорт	-10.1416
▁ноцтой	-10.1416
▁харьцаа	-10.1422
▁үргэлжилж	-10.1425
эрвээ	-10.1437
▁БНСУ	-10.1442
Нямдорж	-10.1469
▁дотно	-10.147
▁эсэргүүц	-10.1493
▁Жишээлбэл	-10.1495
▁хүмүүж	-10.1495
▁Нийгмийн	-10.1495
▁Цагдаагийн	-10.1496
▁хэдхэ	-10.1509
▁цэц	-10.1513
▁төгөлдөр	-10.1522
▁бухимд	-10.1522
▁нэвтрүүлэг	-10.1522
▁Мэргэжл	-10.1525
▁зөвлөмж	-10.1536
▁тасла	-10.1542
▁ккк	-10.1549
▁суртал	-10.1564
▁чухам	-10.1576
▁цөөхөн	-10.1603
▁дохио	-10.1603
▁шалгуур	-10.163
▁Чамайг	-10.163
▁таарна	-10.1633
Y	-10.1647
▁бичээд	-10.1658
▁II	-10.167
▁түгээмэл	-10.1684
▁тохиролц	-10.1684
▁шашны	-10.1684
▁Банк	-10.1685
▁айдас	-10.1685
▁бүхэлд	-10.1688
▁шөний	-10.1691
▁театр	-10.1711
▁үзэгдэл	-10.1712
▁байгууламж	-10.1739
▁онцло	-10.174
▁бяцхан	-10.1766
▁казино	-10.1766
▁Зург	-10.178
***	-10.1821
▁баяж	-10.1853
▁загас	-10.1855
▁зөөлөн	-10.1876
▁харьцуулахад	-10.1877
▁Илүү	-10.1883
▁тарха	-10.1887
Ы	-10.19
▁хамруул	-10.1922
▁хийгдсэн	-10.1932
▁интернэт	-10.196
▁Төгс	-10.196
▁харамса	-10.1966
▁харьца	-10.1982
▁Дэлгэрэнгүй	-10.1988
▁жагсаал	-10.1997
▁процесс	-10.2016
▁холбогдолтой	-10.2016
ack	-10.2053
▁төлөөлө	-10.2069
▁гуравдугаар	-10.2078
▁сонсоод	-10.2083
▁үүргий	-10.2093
▁шувуу	-10.2102
▁шигшээ	-10.2105
▁буян	-10.2115
q	-10.2129
▁зодо	-10.2186
▁улирл	-10.2188
ation	-10.2188
өрөвдүгээр	-10.219
▁интернет	-10.2215
▁хаашаа	-10.2216
▁зайлуул	-10.2246
▁баригчид	-10.2251
▁бусдаас	-10.2258
▁Библи	-10.2268
▁менежер	-10.2273
▁Бүсгүй	-10.2273
▁сүүлчийн	-10.2273
▁метр	-10.2281
▁дэмий	-10.2294
Баяр	-10.2299
▁Трамп	-10.2301
▁Facebook	-10.2301
▁луйвар	-10.2302
▁эхэлдэг	-10.2302
^	-10.4315
@	-10.4935
ъ	-10.5848
Ю	-10.6058
Ф	-10.8188
$	-10.9186
&	-10.9542
[	-10.9603
J	-11.0166
щ	-11.0221
һ	-11.0745
î	-11.1515
Є	-11.1961
️	-11.2589
ҕ	-11.3002
ҥ	-11.3002
°	-11.3172
←	-11.3976
{	-11.407
ا	-11.4259
#	-11.4531
à	-11.465
}	-11.5698
ý	-11.5698
ر	-11.5809
€	-11.6035
ü	-11.6994
¬	-11.751
\	-11.8054
í	-11.8195
é	-11.8195
●	-11.8195
ә	-11.8338
ñ	-11.8779
ë	-11.8779
ѐ	-11.9241
¿	-11.9725
ò	-11.9891
ل	-11.9891
›	-12.0587
😀	-12.0769
â	-12.1531
©	-12.1731
Ъ	-12.2144
س	-12.2574
►	-12.2574
è	-12.2574
Ѳ	-12.2796
ã	-12.2796
ة	-12.3024
ك	-12.3256
ح	-12.3494
®	-12.4244
ä	-12.4245
ð	-12.4508
ج	-12.4508
(	-12.4659
́	-12.4778
√	-12.5056
✅	-12.5341
♥	-12.5341
🎁	-12.5636
Ї	-12.5636
い	-12.6251
õ	-12.6251
á	-12.6574
ó	-12.7252
Щ	-12.7252
★	-12.7609
な	-12.7979
ö	-12.8364
ん	-12.8364
时	-12.8764
Џ	-12.8764
م	-12.8764
ѕ	-12.8764
し	-12.9615
の	-13.007
ў	-13.007
・	-13.007
☞	-13.0546
す	-13.0546
ي	-13.0546
×	-13.1046
ң	-13.1046
😍	-13.1572
🙏	-13.1572
ı	-13.1572
ā	-13.2128
і	-13.2128
⁄	-13.2128
ì	-13.2128
•	-13.2597
る	-13.2716
μ	-13.2716
😭	-13.2716
÷	-13.2716
ま	-13.2716
Ќ	-13.3341
Ø	-13.3341
😂	-13.3341
😅	-13.3341
う	-13.3341
て	-13.3341
§	-13.4008
ћ	-13.4008
қ	-13.4008
이	-13.4008
😊	-13.4008
に	-13.4008
ế	-13.4722
ï	-13.4722
җ	-13.4722
ᅲ	-13.4722
】	-13.4722
名	-13.4722
ø	-13.4722
ら	-13.5491
ن	-13.5491
û	-13.5491
♦	-13.5491
【	-13.5491
で	-13.5491
̄	-13.5491
そ	-13.5491
か	-13.6325
±	-13.6325
ɵ	-13.6325
Ў	-13.6325
ќ	-13.6325
※	-13.6325
歌	-13.6325
ç	-13.6325
あ	-13.7234
ə	-13.7234
ع	-13.7234
و	-13.7234
요	-13.7234
æ	-13.7234
І	-13.7234
く	-13.7234
曲	-13.7234
称	-13.7234
🏻	-13.7234
α	-13.7234
こ	-13.7234
た	-13.7234
れ	-13.8234
د	-13.8234
」	-13.8234
よ	-13.8234
¥	-13.8234
γ	-13.8234
と	-13.8234
ー	-13.8234
👉	-13.8234
💵	-13.8234
🤣	-13.8234
り	-13.8234
が	-13.9345
‐	-13.9345
。	-13.9345
国	-13.9345
나	-13.9345
😦	-13.9345
Õ	-13.9345
ş	-13.9345
は	-13.9345
だ	-13.9345
を	-13.9345
ン	-14.0595
も	-14.0595
お	-14.0595
き	-14.0595
Á	-14.0595
†	-14.0595
어	-14.0595
š	-14.0595
ه	-14.0595
−	-14.0595
⋆	-14.0595
☈	-14.0595
♚	-14.0595
👍	-14.0595
📌	-14.0595
Ü	-14.0595
유	-14.0595
学	-14.0595
書	-14.0595
っ	-14.0595
け	-14.2023
י	-14.2023
○	-14.2023
Ş	-14.2024
ר	-14.2024
日	-14.2024
ƒ	-14.2024
Ћ	-14.2024
ᄂ	-14.2024
■	-14.2024
◆	-14.2024
☺	-14.2024
♡	-14.2024
ば	-14.2024
리	-14.2024
💯	-14.2024
기	-14.2024
ف	-14.2024
ɪ	-14.2024
ո	-14.2024
ル	-14.369
、	-14.369
人	-14.369
会	-14.369
☆	-14.369
다	-14.369
Ç	-14.369
É	-14.369
ư	-14.369
̷	-14.369
β	-14.369
π	-14.369
ұ	-14.369
א	-14.369
ی	-14.369
ᄅ	-14.369
ᠠ	-14.369
ớ	-14.369
≥	-14.369
✨	-14.369
➡	-14.369
せ	-14.369
め	-14.369
わ	-14.369
楽	-14.369
니	-14.369
ι	-14.369
ち	-14.369
時	-14.369
ˈ	-14.369
ᠢ	-14.369
ն	-14.369
つ	-14.369
表	-14.569
一	-14.569
じ	-14.569
返	-14.569
غ	-14.569
ß	-14.569
사	-14.569
¤	-14.569
ο	-14.569
ط	-14.569
‹	-14.569
⃣	-14.569
∞	-14.569
▲	-14.569
◊	-14.569
♀	-14.569
図	-14.569
江	-14.569
済	-14.569
経	-14.569
行	-14.569
路	-14.569
部	-14.569
際	-14.569
말	-14.569
서	-14.569
정	-14.569
지	-14.569
하	-14.569
🔴	-14.569
😁	-14.569
😘	-14.569
џ	-14.569
ґ	-14.569
Һ	-14.569
ե	-14.569
Ò	-14.569
ᠳ	-14.569
ご	-14.569
배	-14.569
մ	-14.569
ա	-14.569
語	-14.819
文	-14.819
ᠷ	-14.819
台	-14.819
平	-14.819
대	-14.819
저	-14.819
ל	-14.819
ب	-14.819
げ	-14.819
À	-14.819
Ý	-14.819
ú	-14.819
İ	-14.819
ω	-14.819
ғ	-14.819
ق	-14.819
ค	-14.819
ᠨ	-14.819
₩	-14.819
▼	-14.819
☛	-14.819
☻	-14.819
ㄟ	-14.819
中	-14.819
月	-14.819
本	-14.819
間	-14.819
내	-14.819
영	-14.819
원	-14.819
제	-14.819
🇷	-14.819
🌟	-14.819
💎	-14.819
😆	-14.819
😝	-14.819
Ñ	-14.819
Ѕ	-14.819
한	-14.819
비	-14.819
세	-14.819
ō	-14.819
Ë	-14.819
아	-14.819
᠋	-14.819
え	-14.819
|	-15.1405
க	-15.1523
达	-15.1523
通	-15.1523
น	-15.1523
ม	-15.1523
ṭ	-15.1523
や	-15.1523
信	-15.1523
ӈ	-15.1523
장	-15.1523
ê	-15.1523
ʀ	-15.1523
ѓ	-15.1523
נ	-15.1523
أ	-15.1523
ਰ	-15.1523
ᴇ	-15.1523
ど	-15.1523
的	-15.1523
音	-15.1523
구	-15.1523
는	-15.1523
법	-15.1523
오	-15.1523
인	-15.1523
토	-15.1523
횊	-15.1523
Ā	-15.1524
č	-15.1524
θ	-15.1524
ӧ	-15.1524
ע	-15.1524
🤮	-15.1524
Ð	-15.1524
Ö	-15.1524
ī	-15.1524
Œ	-15.1524
̀	-15.1524
ί	-15.1524
λ	-15.1524
σ	-15.1524
Ҥ	-15.1524
ӓ	-15.1524
տ	-15.1524
ք	-15.1524
ش	-15.1524
ى	-15.1524
ง	-15.1524
โ	-15.1524
่	-15.1524
ᠡ	-15.1524
ḥ	-15.1524
‖	-15.1524
∙	-15.1524
◦	-15.1524
⚡	-15.1524
⚫	-15.1524
❗	-15.1524
➢	-15.1524
⦁	-15.1524
《	-15.1524
〓	-15.1524
ひ	-15.1524
み	-15.1524
ゃ	-15.1524
フ	-15.1524
上	-15.1524
下	-15.1524
天	-15.1524
子	-15.1524
法	-15.1524
现	-15.1524
高	-15.1524
경	-15.1524
국	-15.1524
뉴	-15.1524
라	-15.1524
로	-15.1524
부	-15.1524
수	-15.1524
야	-15.1524
우	-15.1524
의	-15.1524
자	-15.1524
주	-15.1524
함	-15.1524
현	-15.1524
회	-15.1524
후	-15.1524
︎	-15.1524
🍷	-15.1524
🎯	-15.1524
🏠	-15.1524
💜	-15.1524
💰	-15.1524
🔰	-15.1524
🥇	-15.1524
ӱ	-15.1524
ย	-15.1524
我	-15.1524
티	-15.1524
해	-15.1524
🌈	-15.1524
💚	-15.1524
💫	-15.1524
🤑	-15.1524
🤟	-15.1524
Ä	-15.1524
Ӏ	-15.1524
ս	-15.1524
ন	-15.1524
自	-15.1524
스	-15.1524
신	-15.1524
태	-15.1524
ô	-15.1524
ᠦ	-15.1524
キ	-15.1524
シ	-15.1524
ナ	-15.1524
リ	-15.1524
出	-15.1524
版	-15.1524
🤘	-15.1524
å	-15.1524
言	-15.6523
族	-15.6523
世	-15.6523
紀	-15.6523
達	-15.6523
ก	-15.6523
ū	-15.6523
͜	-15.6523
ซ	-15.6523
อ	-15.6523
้	-15.6523
ソ	-15.6523
ブ	-15.6523
ャ	-15.6523
地	-15.6523
気	-15.6523
水	-15.6523
点	-15.6523
责	-15.6523
图	-15.6523
ʜ	-15.6523
ה	-15.6523
ब	-15.6523
্	-15.6523
န	-15.6523
့	-15.6523
ᠭ	-15.6523
ᠶ	-15.6523
ḍ	-15.6523
ṇ	-15.6523
イ	-15.6523
ギ	-15.6523
コ	-15.6523
作	-15.6523
内	-15.6523
南	-15.6523
線	-15.6523
网	-15.6523
남	-15.6523
너	-15.6523
무	-15.6523
보	-15.6523
으	-15.6523
즈	-15.6523
胡	-15.6523
예	-15.6523
Æ	-15.6524
È	-15.6524
ÿ	-15.6524
ć	-15.6524
Č	-15.6524
đ	-15.6524
ė	-15.6524
Ł	-15.6524
ń	-15.6524
ś	-15.6524
ǿ	-15.6524
ɐ	-15.6524
Ω	-15.6524
ε	-15.6524
κ	-15.6524
ς	-15.6524
φ	-15.6524
ј	-15.6524
њ	-15.6524
Ґ	-15.6524
ҳ	-15.6524
ӣ	-15.6524
ג	-15.6524
خ	-15.6524
ذ	-15.6524
ص	-15.6524
ک	-15.6524
क	-15.6524
ल	-15.6524
ा	-15.6524
া	-15.6524
ু	-15.6524
ਟ	-15.6524
ਸ	-15.6524
ด	-15.6524
ล	-15.6524
ส	-15.6524
ิ	-15.6524
ี	-15.6524
เ	-15.6524
ใ	-15.6524
မ	-15.6524
း	-15.6524
ᄀ	-15.6524
ᆞ	-15.6524
ᠥ	-15.6524
ᠬ	-15.6524
ᵴ	-15.6524
‣	-15.6524
‰	-15.6524
↔	-15.6524
⇨	-15.6524
∂	-15.6524
≠	-15.6524
⏱	-15.6524
█	-15.6524
□	-15.6524
▶	-15.6524
⚽	-15.6524
❀	-15.6524
❄	-15.6524
⠀	-15.6524
ぐ	-15.6524
ぶ	-15.6524
ゅ	-15.6524
ク	-15.6524
サ	-15.6524
ㄨ	-15.6524
业	-15.6524
个	-15.6524
交	-15.6524
介	-15.6524
仔	-15.6524
代	-15.6524
们	-15.6524
住	-15.6524
便	-15.6524
分	-15.6524
十	-15.6524
号	-15.6524
品	-15.6524
商	-15.6524
回	-15.6524
安	-15.6524
展	-15.6524
山	-15.6524
形	-15.6524
御	-15.6524
是	-15.6524
曜	-15.6524
松	-15.6524
止	-15.6524
流	-15.6524
理	-15.6524
生	-15.6524
用	-15.6524
田	-15.6524
発	-15.6524
简	-15.6524
管	-15.6524
翻	-15.6524
者	-15.6524
解	-15.6524
話	-15.6524
誌	-15.6524
译	-15.6524
身	-15.6524
載	-15.6524
近	-15.6524
金	-15.6524
门	-15.6524
革	-15.6524
麦	-15.6524
게	-15.6524
고	-15.6524
권	-15.6524
규	-15.6524
노	-15.6524
도	-15.6524
동	-15.6524
르	-15.6524
린	-15.6524
미	-15.6524
브	-15.6524
안	-15.6524
연	-15.6524
올	-15.6524
은	-15.6524
을	-15.6524
전	-15.6524
크	-15.6524
통	-15.6524
튜	-15.6524
트	-15.6524
화	-15.6524
훈	-15.6524
희	-15.6524
🇰	-15.6524
🇺	-15.6524
🌙	-15.6524
🌱	-15.6524
🌸	-15.6524
👐	-15.6524
👷	-15.6524
💁	-15.6524
💃	-15.6524
💅	-15.6524
💙	-15.6524
📎	-15.6524
🔌	-15.6524
🔑	-15.6524
🔵	-15.6524
🔶	-15.6524
🔸	-15.6524
😋	-15.6524
😓	-15.6524
😔	-15.6524
🙁	-15.6524
🚫	-15.6524
🛫	-15.6524
🤔	-15.6524
🤪	-15.6524
🥰	-15.6524
🥺	-15.6524
🦸	-15.6524
루	-15.6524
민	-15.6524
선	-15.6524
시	-15.6524
창	-15.6524
ր	-15.6524
ت	-15.6524
ਪ	-15.6524
྆	-15.6524
ṅ	-15.6524
♏	-15.6524
♠	-15.6524
李	-15.6524
美	-15.6524
초	-15.6524
🗃	-15.6524
역	-15.6524
կ	-15.6524
ղ	-15.6524
ו	-15.6524
ろ	-15.6524
ウ	-15.6524
ョ	-15.6524
夢	-15.6524
証	-15.6524
😎	-15.6524
ᠮ	-15.6524
皇	-15.6524
ν	-15.6524
🦉	-16.6399
🙌	-16.64
🙃	-16.6401
🔅	-16.6402
👀	-16.6403
🎧	-16.6404
🇲	-16.6405
최	-16.6406
직	-16.6407
없	-16.6408
알	-16.6409
새	-16.641
꧁	-16.6411
龙	-16.6412
黑	-16.6413
類	-16.6414
鈴	-16.6415
重	-16.6416
请	-16.6417
聲	-16.6418
社	-16.6419
手	-16.642
後	-16.6421
変	-16.6422
基	-16.6423
団	-16.6424
合	-16.6425
ㄎ	-16.6426
ㄍ	-16.6427
ド	-16.6428
ダ	-16.6429
❼	-16.643
❹	-16.6431
❷	-16.6432
✈	-16.6433
♔	-16.6434
☹	-16.6435
│	-16.6436
⎪	-16.6437
∆	-16.6438
⇒	-16.6439
₽	-16.644
ת	-16.6441
ב	-16.6442
Ҳ	-16.6443
ρ	-16.6444
δ	-16.6445
̌	-16.6446
ˌ	-16.6447
ł	-16.6448
ğ	-16.6449
ĕ	-16.645
🚗	-16.6451
🔬	-16.6452
👨	-16.6453
👎	-16.6454
바	-16.6455
软	-16.6456
件	-16.6457
モ	-16.6458
ゴ	-16.6459
ざ	-16.646
》	-16.6461
☎	-16.6462
ւ	-16.6463
Δ	-16.6464
þ	-16.6465
🥳	-16.6466
😜	-16.6467
😇	-16.6468
😃	-16.6469
📍	-16.647
💥	-16.6471
👩	-16.6472
ょ	-16.6473
♂	-16.6474
ہ	-16.6475
Ã	-16.6476
蒙	-16.6477
愛	-16.6478
古	-16.6479
☀	-16.648
―	-16.6481
김	-16.6482
さ	-16.6483
➜	-16.6484
▪	-16.6485
¢	-16.6486
¦	-16.6487
😢	-16.6488
😱	-16.6489
✓	-16.649
↙	-16.6491
↓	-16.6492
🤩	-16.6493
🤗	-16.6494
👏	-16.6495
⭐	-16.6496
̈	-16.6497
彩	-16.6498
♫	-16.6499
「	-16.65
✿	-16.6501
♪	-16.6502
≈	-16.6503
🔥	-16.6504
🔊	-16.6505
≤	-16.6506
😛	-16.6507
ᄏ	-16.6508
♛	-16.6509
☮	-16.651
✔	-16.6511
😉	-16.6512
£	-16.6513
₪	-16.6514
Í	-16.6515
❤	-16.6516
↑	-16.6517
′	-16.6518
🙂	-16.6519
₮	-16.652
ђ	-16.6521
→	-16.6522
员	-16.6523
委	-16.6523
带	-16.6523
建	-16.6523
普	-16.6523
浙	-16.6523
諸	-16.6523
ї	-16.6523
̸	-16.6523
҉	-16.6523
إ	-16.6523
ூ	-16.6523
ฝ	-16.6523
ห	-16.6523
ึ	-16.6523
『	-16.6523
ぬ	-16.6523
べ	-16.6523
チ	-16.6523
ニ	-16.6523
ヒ	-16.6523
势	-16.6523
博	-16.6523
址	-16.6523
工	-16.6523
府	-16.6523
录	-16.6523
打	-16.6523
斥	-16.6523
星	-16.6523
登	-16.6523
盘	-16.6523
蘭	-16.6523
衛	-16.6523
趋	-16.6523
選	-16.6523
ě	-16.6523
ं	-16.6523
ै	-16.6523
१	-16.6523
ত	-16.6523
র	-16.6523
ਕ	-16.6523
ਿ	-16.6523
ั	-16.6523
カ	-16.6523
バ	-16.6523
ビ	-16.6523
伊	-16.6523
味	-16.6523
喵	-16.6523
小	-16.6523
您	-16.6523
暲	-16.6523
業	-16.6523
民	-16.6523
藏	-16.6523
裏	-16.6523
誉	-16.6523
賃	-16.6523
連	-16.6523
進	-16.6523
陝	-16.6523
電	-16.6523
돈	-16.6523
메	-16.6523
명	-16.6523
블	-16.6523
생	-16.6523
양	-16.6523
진	-16.6523
침	-16.6523
퍼	-16.6523
펄	-16.6523
횒	-16.6523
횗	-16.6523
ز	-16.6523
卡	-16.6523
开	-16.6523
快	-16.6523
斯	-16.6523
机	-16.6523
演	-16.6523
백	-16.6523
￼	-16.6523
¶	-16.6524
Â	-16.6524
Ì	-16.6524
Î	-16.6524
Ô	-16.6524
ă	-16.6524
ē	-16.6524
Ė	-16.6524
ę	-16.6524
Į	-16.6524
ĸ	-16.6524
ň	-16.6524
œ	-16.6524
ř	-16.6524
ť	-16.6524
ŧ	-16.6524
ů	-16.6524
Ž	-16.6524
Ɗ	-16.6524
ǎ	-16.6524
ǐ	-16.6524
ɇ	-16.6524
ɑ	-16.6524
ɲ	-16.6524
ɴ	-16.6524
ʏ	-16.6524
ʟ	-16.6524
ː	-16.6524
˗	-16.6524
̵	-16.6524
͞	-16.6524
Η	-16.6524
Κ	-16.6524
Μ	-16.6524
Ο	-16.6524
Φ	-16.6524
Ψ	-16.6524
ά	-16.6524
ή	-16.6524
η	-16.6524
τ	-16.6524
υ	-16.6524
ό	-16.6524
ώ	-16.6524
Ђ	-16.6524
Җ	-16.6524
Қ	-16.6524
ҡ	-16.6524
ҷ	-16.6524
ӄ	-16.6524
Ӈ	-16.6524
Ә	-16.6524
ӝ	-16.6524
ӯ	-16.6524
Ա	-16.6524
Գ	-16.6524
Ե	-16.6524
Ո	-16.6524
դ	-16.6524
ը	-16.6524
ի	-16.6524
յ	-16.6524
չ	-16.6524
վ	-16.6524
ց	-16.6524
ז	-16.6524
ט	-16.6524
פ	-16.6524
؟	-16.6524
ض	-16.6524
َ	-16.6524
ۇ	-16.6524
ە	-16.6524
इ	-16.6524
ए	-16.6524
ज	-16.6524
र	-16.6524
़	-16.6524
ि	-16.6524
४	-16.6524
७	-16.6524
९	-16.6524
ই	-16.6524
ক	-16.6524
চ	-16.6524
দ	-16.6524
ব	-16.6524
ি	-16.6524
ে	-16.6524
ਂ	-16.6524
ਮ	-16.6524
ਹ	-16.6524
ਾ	-16.6524
ੀ	-16.6524
ੂ	-16.6524
ੈ	-16.6524
ட	-16.6524
ழ	-16.6524
ா	-16.6524
ி	-16.6524
ை	-16.6524
்	-16.6524
ೋ	-16.6524
จ	-16.6524
ต	-16.6524
ท	-16.6524
พ	-16.6524
ฟ	-16.6524
ภ	-16.6524
ว	-16.6524
ษ	-16.6524
ฬ	-16.6524
า	-16.6524
แ	-16.6524
ไ	-16.6524
์	-16.6524
࿐	-16.6524
တ	-16.6524
လ	-16.6524
သ	-16.6524
ဦ	-16.6524
ိ	-16.6524
ု	-16.6524
ေ	-16.6524
္	-16.6524
်	-16.6524
ြ	-16.6524
၊	-16.6524
ᄆ	-16.6524
ᄇ	-16.6524
ᄋ	-16.6524
ᄒ	-16.6524
ᅳ	-16.6524
ᅵ	-16.6524
ᐉ	-16.6524
ᠤ	-16.6524
ᠯ	-16.6524
ᠰ	-16.6524
ᠱ	-16.6524
ᠴ	-16.6524
ᠵ	-16.6524
ᠹ	-16.6524
ᠼ	-16.6524
᭄	-16.6524
ᴀ	-16.6524
ᴄ	-16.6524
ᴍ	-16.6524
ᴜ	-16.6524
ᴠ	-16.6524
ᵯ	-16.6524
ṃ	-16.6524
ẙ	-16.6524
ầ	-16.6524
ắ	-16.6524
ằ	-16.6524
ễ	-16.6524
ờ	-16.6524
ἰ	-16.6524
‡	-16.6524
₹	-16.6524
↖	-16.6524
↳	-16.6524
∈	-16.6524
≫	-16.6524
⋯	-16.6524
⌚	-16.6524
╘	-16.6524
╟	-16.6524
╢	-16.6524
▍	-16.6524
▨	-16.6524
◇	-16.6524
☂	-16.6524
☑	-16.6524
☔	-16.6524
☕	-16.6524
☘	-16.6524
☝	-16.6524
☤	-16.6524
♣	-16.6524
⚃	-16.6524
⚕	-16.6524
⚙	-16.6524
⚠	-16.6524
✌	-16.6524
✍	-16.6524
✞	-16.6524
✯	-16.6524
❂	-16.6524
❃	-16.6524
❏	-16.6524
❖	-16.6524
➥	-16.6524
➳	-16.6524
』	-16.6524
ぎ	-16.6524
ほ	-16.6524
ガ	-16.6524
ゲ	-16.6524
ジ	-16.6524
セ	-16.6524
ゼ	-16.6524
タ	-16.6524
ツ	-16.6524
ヅ	-16.6524
デ	-16.6524
ハ	-16.6524
ベ	-16.6524
ペ	-16.6524
マ	-16.6524
ム	-16.6524
ラ	-16.6524
七	-16.6524
万	-16.6524
三	-16.6524
不	-16.6524
么	-16.6524
也	-16.6524
二	-16.6524
云	-16.6524
互	-16.6524
京	-16.6524
他	-16.6524
付	-16.6524
任	-16.6524
企	-16.6524
休	-16.6524
众	-16.6524
位	-16.6524
你	-16.6524
使	-16.6524
係	-16.6524
保	-16.6524
修	-16.6524
俺	-16.6524
們	-16.6524
停	-16.6524
健	-16.6524
側	-16.6524
僕	-16.6524
優	-16.6524
儿	-16.6524
元	-16.6524
光	-16.6524
克	-16.6524
免	-16.6524
八	-16.6524
公	-16.6524
册	-16.6524
再	-16.6524
冯	-16.6524
划	-16.6524
別	-16.6524
前	-16.6524
動	-16.6524
勖	-16.6524
務	-16.6524
勧	-16.6524
包	-16.6524
化	-16.6524
北	-16.6524
医	-16.6524
午	-16.6524
华	-16.6524
参	-16.6524
叫	-16.6524
召	-16.6524
向	-16.6524
吗	-16.6524
君	-16.6524
周	-16.6524
命	-16.6524
唐	-16.6524
售	-16.6524
唱	-16.6524
問	-16.6524
器	-16.6524
國	-16.6524
型	-16.6524
場	-16.6524
塑	-16.6524
塚	-16.6524
士	-16.6524
声	-16.6524
夂	-16.6524
夕	-16.6524
太	-16.6524
奇	-16.6524
奋	-16.6524
好	-16.6524
妹	-16.6524
姿	-16.6524
字	-16.6524
宅	-16.6524
宗	-16.6524
定	-16.6524
室	-16.6524
宽	-16.6524
密	-16.6524
导	-16.6524
少	-16.6524
局	-16.6524
履	-16.6524
岩	-16.6524
峮	-16.6524
州	-16.6524
巡	-16.6524
巣	-16.6524
帝	-16.6524
帮	-16.6524
帯	-16.6524
年	-16.6524
庆	-16.6524
康	-16.6524
异	-16.6524
弦	-16.6524
当	-16.6524
必	-16.6524
志	-16.6524
忙	-16.6524
怎	-16.6524
悔	-16.6524
情	-16.6524
意	-16.6524
憎	-16.6524
戒	-16.6524
戰	-16.6524
戸	-16.6524
抢	-16.6524
拶	-16.6524
指	-16.6524
挨	-16.6524
探	-16.6524
掲	-16.6524
提	-16.6524
改	-16.6524
斗	-16.6524
新	-16.6524
早	-16.6524
昌	-16.6524
昴	-16.6524
更	-16.6524
會	-16.6524
有	-16.6524
望	-16.6524
朝	-16.6524
村	-16.6524
林	-16.6524
査	-16.6524
株	-16.6524
格	-16.6524
椰	-16.6524
楫	-16.6524
概	-16.6524
構	-16.6524
横	-16.6524
機	-16.6524
歳	-16.6524
残	-16.6524
毛	-16.6524
气	-16.6524
没	-16.6524
河	-16.6524
治	-16.6524
沿	-16.6524
注	-16.6524
泰	-16.6524
洛	-16.6524
浜	-16.6524
淮	-16.6524
湖	-16.6524
照	-16.6524
燼	-16.6524
牛	-16.6524
特	-16.6524
甘	-16.6524
町	-16.6524
画	-16.6524
留	-16.6524
百	-16.6524
码	-16.6524
破	-16.6524
礦	-16.6524
祉	-16.6524
祐	-16.6524
神	-16.6524
福	-16.6524
离	-16.6524
私	-16.6524
秘	-16.6524
稳	-16.6524
站	-16.6524
等	-16.6524
米	-16.6524
糞	-16.6524
紇	-16.6524
給	-16.6524
红	-16.6524
线	-16.6524
考	-16.6524
能	-16.6524
腕	-16.6524
臨	-16.6524
舞	-16.6524
航	-16.6524
良	-16.6524
華	-16.6524
葵	-16.6524
藤	-16.6524
蛋	-16.6524
蠟	-16.6524
袖	-16.6524
製	-16.6524
西	-16.6524
要	-16.6524
視	-16.6524
親	-16.6524
见	-16.6524
説	-16.6524
識	-16.6524
讃	-16.6524
计	-16.6524
让	-16.6524
记	-16.6524
语	-16.6524
课	-16.6524
豚	-16.6524
象	-16.6524
貸	-16.6524
費	-16.6524
資	-16.6524
賞	-16.6524
車	-16.6524
軒	-16.6524
輝	-16.6524
载	-16.6524
输	-16.6524
运	-16.6524
还	-16.6524
迴	-16.6524
迹	-16.6524
送	-16.6524
過	-16.6524
都	-16.6524
配	-16.6524
里	-16.6524
鑑	-16.6524
钱	-16.6524
银	-16.6524
长	-16.6524
関	-16.6524
问	-16.6524
间	-16.6524
阒	-16.6524
际	-16.6524
险	-16.6524
陳	-16.6524
随	-16.6524
雑	-16.6524
面	-16.6524
響	-16.6524
題	-16.6524
颚	-16.6524
駅	-16.6524
马	-16.6524
鵬	-16.6524
黄	-16.6524
꧂	-16.6524
가	-16.6524
갤	-16.6524
거	-16.6524
걸	-16.6524
것	-16.6524
겠	-16.6524
격	-16.6524
계	-16.6524
골	-16.6524
공	-16.6524
과	-16.6524
관	-16.6524
교	-16.6524
긋	-16.6524
긱	-16.6524
끼	-16.6524
달	-16.6524
답	-16.6524
더	-16.6524
둥	-16.6524
딩	-16.6524
떻	-16.6524
또	-16.6524
뚝	-16.6524
랑	-16.6524
래	-16.6524
랫	-16.6524
러	-16.6524
려	-16.6524
룬	-16.6524
류	-16.6524
를	-16.6524
림	-16.6524
릿	-16.6524
마	-16.6524
매	-16.6524
먹	-16.6524
며	-16.6524
모	-16.6524
몽	-16.6524
문	-16.6524
뭘	-16.6524
뮤	-16.6524
밥	-16.6524
밴	-16.6524
버	-16.6524
베	-16.6524
벼	-16.6524
변	-16.6524
병	-16.6524
불	-16.6524
뷔	-16.6524
빈	-16.6524
뻐	-16.6524
뿌	-16.6524
상	-16.6524
석	-16.6524
설	-16.6524
섭	-16.6524
성	-16.6524
송	-16.6524
숙	-16.6524
슨	-16.6524
승	-16.6524
식	-16.6524
실	-16.6524
싼	-16.6524
쌍	-16.6524
업	-16.6524
에	-16.6524
엘	-16.6524
엥	-16.6524
여	-16.6524
열	-16.6524
옷	-16.6524
와	-16.6524
왔	-16.6524
외	-16.6524
용	-16.6524
울	-16.6524
웆	-16.6524
워	-16.6524
월	-16.6524
윤	-16.6524
율	-16.6524
응	-16.6524
있	-16.6524
잘	-16.6524
재	-16.6524
적	-16.6524
조	-16.6524
죄	-16.6524
짓	-16.6524
짱	-16.6524
찌	-16.6524
찡	-16.6524
차	-16.6524
찾	-16.6524
채	-16.6524
청	-16.6524
체	-16.6524
칩	-16.6524
칫	-16.6524
카	-16.6524
커	-16.6524
케	-16.6524
코	-16.6524
콕	-16.6524
콧	-16.6524
탄	-16.6524
탓	-16.6524
탠	-16.6524
터	-16.6524
틴	-16.6524
팅	-16.6524
팝	-16.6524
평	-16.6524
폰	-16.6524
푸	-16.6524
플	-16.6524
픽	-16.6524
학	-16.6524
항	-16.6524
햄	-16.6524
혀	-16.6524
혜	-16.6524
호	-16.6524
홈	-16.6524
횜	-16.6524
흐	-16.6524
흥	-16.6524
𖢘	-16.6524
🆕	-16.6524
🇫	-16.6524
🇳	-16.6524
🇸	-16.6524
🇽	-16.6524
🌃	-16.6524
🌄	-16.6524
🌅	-16.6524
🌍	-16.6524
🌐	-16.6524
🌡	-16.6524
🌳	-16.6524
🌻	-16.6524
🍀	-16.6524
🍁	-16.6524
🍇	-16.6524
🍑	-16.6524
🍞	-16.6524
🍩	-16.6524
🍯	-16.6524
🍰	-16.6524
🍱	-16.6524
🍹	-16.6524
🍽	-16.6524
🍾	-16.6524
🎀	-16.6524
🎄	-16.6524
🎬	-16.6524
🎶	-16.6524
🏆	-16.6524
🏋	-16.6524
🏣	-16.6524
🏦	-16.6524
🏼	-16.6524
👑	-16.6524
👦	-16.6524
👧	-16.6524
👽	-16.6524
💀	-16.6524
💉	-16.6524
💋	-16.6524
💐	-16.6524
💔	-16.6524
💕	-16.6524
💝	-16.6524
💡	-16.6524
💢	-16.6524
💩	-16.6524
💪	-16.6524
💸	-16.6524
💻	-16.6524
💼	-16.6524
📁	-16.6524
📅	-16.6524
📕	-16.6524
📖	-16.6524
📞	-16.6524
📣	-16.6524
📦	-16.6524
📱	-16.6524
📲	-16.6524
📷	-16.6524
🔄	-16.6524
🔹	-16.6524
🕑	-16.6524
🕘	-16.6524
🕯	-16.6524
🖐	-16.6524
🖤	-16.6524
🗓	-16.6524
😄	-16.6524
😈	-16.6524
😐	-16.6524
😑	-16.6524
😡	-16.6524
😥	-16.6524
😩	-16.6524
😫	-16.6524
😮	-16.6524
😰	-16.6524
😲	-16.6524
😶	-16.6524
😷	-16.6524
🙆	-16.6524
🙋	-16.6524
🙎	-16.6524
🚀	-16.6524
🚘	-16.6524
🚩	-16.6524
🛍	-16.6524
🛑	-16.6524
🛒	-16.6524
🛡	-16.6524
🤍	-16.6524
🤓	-16.6524
🤡	-16.6524
🤫	-16.6524
🥄	-16.6524
🦊	-16.6524
🦋	-16.6524
🧤	-16.6524
🧨	-16.6524
ľ	-16.6524
ӑ	-16.6524
،	-16.6524
╒	-16.6524
♻	-16.6524
圖	-16.6524
永	-16.6524
玉	-16.6524
眉	-16.6524
辉	-16.6524
郑	-16.6524
镇	-16.6524
龶	-16.6524
굴	-16.6524
만	-16.6524
븐	-16.6524
Ê	-16.6524
Ң	-16.6524
Ұ	-16.6524
զ	-16.6524
խ	-16.6524
অ	-16.6524
ੌ	-16.6524
ᅮ	-16.6524
⿱	-16.6524
ゆ	-16.6524
夜	-16.6524
属	-16.6524
心	-16.6524
忘	-16.6524
沖	-16.6524
洞	-16.6524
渡	-16.6524
漏	-16.6524
读	-16.6524
辺	-16.6524
韬	-16.6524
갑	-16.6524
단	-16.6524
렘	-16.6524
룰	-16.6524
반	-16.6524
번	-16.6524
습	-16.6524
일	-16.6524
죻	-16.6524
홍	-16.6524
Τ	-16.6524
ύ	-16.6524
լ	-16.6524
מ	-16.6524
ᠫ	-16.6524
ᠻ	-16.6524
ィ	-16.6524
ミ	-16.6524
乐	-16.6524
今	-16.6524
和	-16.6524
娱	-16.6524
恩	-16.6524
悲	-16.6524
払	-16.6524
見	-16.6524
込	-16.6524
뚜	-16.6524
키	-16.6524
є	-16.6524
何	-16.6524
故	-16.6524
逢	-16.6524
