<unk>	0
<s>	0
</s>	0
.	-2.8728
,	-3.97737
▁нь	-4.16704
▁байна	-4.67245
▁юм	-4.82899
▁ч	-4.97377
▁гэж	-5.12792
▁л	-5.14761
д	-5.22646
-	-5.23991
▁байгаа	-5.26808
▁"	-5.28217
ын	-5.29161
"	-5.3095
▁-	-5.31057
?	-5.3151
ийн	-5.32746
▁бол	-5.41232
▁	-5.42385
:	-5.52489
▁энэ	-5.55008
▁Энэ	-5.59859
▁байсан	-5.61219
ыг	-5.62769
н	-5.64013
г	-5.65309
ийг	-5.66392
▁байх	-5.78675
▁нэг	-5.7915
гүй	-5.80225
▁хүн	-5.84662
▁уу	-5.99538
▁болно	-6.00027
▁их	-6.0409
т	-6.06517
▁би	-6.11218
▁вэ	-6.11704
ээ	-6.12904
▁байдаг	-6.15038
...	-6.16914
▁та	-6.16961
▁гэсэн	-6.19533
▁дээ	-6.21321
▁дээр	-6.21608
аа	-6.21771
▁...	-6.25204
р	-6.26794
▁олон	-6.29607
▁ямар	-6.30681
▁юу	-6.32585
тай	-6.32659
▁Би	-6.32922
▁шүү	-6.36568
▁тэр	-6.39475
▁биш	-6.40178
х	-6.41714
▁хамгийн	-6.52737
ж	-6.53794
▁болон	-6.54427
▁хэрэгтэй	-6.55038
▁сайн	-6.56088
▁болох	-6.56247
тэй	-6.5701
▁бид	-6.58726
ны	-6.61094
▁болсон	-6.63572
▁Та	-6.64239
▁гэдэг	-6.64958
▁хоёр	-6.65081
аас	-6.66404
с	-6.68976
)	-6.69588
▁шиг	-6.70259
▁зүйл	-6.70472
▁өмнө	-6.71323
▁ёстой	-6.72032
аар	-6.72878
▁байж	-6.73261
▁чинь	-6.74809
ад	-6.7536
!	-6.75677
▁үед	-6.76809
▁болж	-6.77646
▁бүх	-6.77849
▁(	-6.79164
▁жил	-6.80375
▁цаг	-6.80765
▁маш	-6.81014
▁улс	-6.81064
▁Тэр	-6.81596
▁Харин	-6.84291
▁үү	-6.86245
▁хүмүүс	-6.87111
▁илүү	-6.88084
▁талаар	-6.88129
▁оны	-6.88863
▁бас	-6.91063
▁өөр	-6.92024
▁хийж	-6.92207
▁даа	-6.92992
▁гээд	-6.9404
▁жилийн	-6.94724
ч	-6.95124
▁хувьд	-6.95151
▁сарын	-6.96334
▁бөгөөд	-6.9803
▁дараа	-6.98118
▁тухай	-6.98478
▁өдөр	-6.98623
ээр	-6.99186
▁Монгол	-7.00403
▁газар	-7.01102
▁Гэхдээ	-7.02399
▁буй	-7.03273
▁хийх	-7.03623
▁ийм	-7.03743
▁2	-7.04344
▁авах	-7.04645
▁бүр	-7.04819
▁онд	-7.04921
▁минь	-7.06394
▁одоо	-7.06972
▁авч	-7.07716
▁үг	-7.08013
▁үйл	-7.08123
▁нар	-7.08328
л	-7.08376
▁байхгүй	-7.08597
▁Бид	-7.08643
▁ажил	-7.09458
▁бий	-7.09645
▁.	-7.0999
▁хэн	-7.10717
▁бэ	-7.11589
▁нэгэн	-7.15904
▁хүний	-7.16032
▁сайхан	-7.16677
даа	-7.16781
ээс	-7.17863
▁миний	-7.18131
гийн	-7.18669
▁үр	-7.1927
▁улсын	-7.19369
▁арга	-7.19642
▁шинэ	-7.19951
▁эрх	-7.21164
▁билээ	-7.22956
▁боломжтой	-7.23931
▁байлаа	-7.25153
▁том	-7.26192
▁ба	-7.29375
▁тулд	-7.3038
▁удаа	-7.30657
эд	-7.30922
сан	-7.31069
▁гэдгийг	-7.31714
а	-7.32378
ний	-7.3284
▁хэрэг	-7.32933
▁Мөн	-7.3307
▁нэр	-7.33161
▁хэдэн	-7.336
▁хэрхэн	-7.33945
▁мөн	-7.3471
▁аж	-7.34869
▁эсвэл	-7.35257
▁асуудал	-7.36034
▁орон	-7.37477
▁таны	-7.37668
▁маань	-7.3838
нд	-7.38773
v	-7.39078
▁1	-7.39806
▁дахь	-7.39973
/	-7.41581
▁хүртэл	-7.42628
▁3	-7.42671
▁болохгүй	-7.43058
▁санал	-7.43655
▁тийм	-7.44854
▁ирсэн	-7.45402
▁чи	-7.45459
▁дахин	-7.45546
▁өөрийн	-7.46345
▁гэр	-7.46394
▁гэх	-7.46881
▁Миний	-7.46918
▁Одоо	-7.47323
▁манай	-7.47583
▁ээ	-7.4807
▁хэмээн	-7.4855
▁чадахгүй	-7.49342
▁чухал	-7.49793
▁зөв	-7.50112
дээ	-7.50287
оо	-7.51427
▁Б	-7.51659
▁10	-7.53778
▁Тиймээс	-7.53969
▁хийсэн	-7.55915
▁аль	-7.56938
▁түүний	-7.57086
▁төлөө	-7.57454
▁авсан	-7.57499
▁төрийн	-7.58281
в	-7.58844
▁тус	-7.5896
▁байв	-7.5904
▁гарч	-7.59527
▁бага	-7.60174
▁хувь	-7.60371
▁хүнд	-7.605
▁ажиллаж	-7.61112
▁/	-7.6135
▁өөрөө	-7.61385
ы	-7.62067
▁бие	-7.62103
▁хэзээ	-7.62299
▁бодож	-7.62454
▁эх	-7.62476
▁УИХ	-7.62621
▁албан	-7.6265
▁зөвхөн	-7.62697
▁Хэрэв	-7.63331
▁С	-7.63358
ууд	-7.63512
▁учраас	-7.63909
▁бусад	-7.65017
▁хойш	-7.65384
▁надад	-7.65754
▁яаж	-7.66024
▁гол	-7.665
▁руу	-7.66732
▁биз	-7.66904
▁АНУ	-7.66995
▁мэдээлэл	-7.67205
▁ард	-7.67861
ан	-7.68071
▁Тэд	-7.68361
▁гар	-7.68643
▁болов	-7.68991
▁орж	-7.69013
той	-7.69587
на	-7.70082
▁5	-7.7009
▁яагаад	-7.70432
▁байдал	-7.70686
▁сэтгэл	-7.71212
▁яг	-7.71226
▁тэд	-7.71393
▁хугацаанд	-7.71675
▁намайг	-7.72023
▁өндөр	-7.72033
▁мөнгө	-7.72982
▁Монголын	-7.73187
▁сая	-7.73191
▁болохоор	-7.73405
▁байхад	-7.73489
▁хүүхэд	-7.73633
▁4	-7.73771
▁Нэг	-7.73852
ий	-7.74169
▁хэлж	-7.74195
▁зарим	-7.74229
даг	-7.74237
▁хууль	-7.74363
▁хамт	-7.74739
▁явж	-7.7487
▁үнэ	-7.75466
▁Манай	-7.76225
▁ажлын	-7.76355
й	-7.77086
▁бус	-7.77114
▁дарга	-7.77326
▁мэт	-7.77448
▁тодорхой	-7.7767
▁гэнэ	-7.78715
▁Гэтэл	-7.79108
▁хэл	-7.79389
▁үүнийг	-7.79482
▁бидний	-7.79763
▁Х	-7.79892
▁олж	-7.80218
▁Засгийн	-7.80274
▁газрын	-7.80803
▁Д	-7.81643
▁тул	-7.81698
▁хар	-7.81829
м	-7.82814
▁байр	-7.83399
▁өнөөдөр	-7.83935
▁Тэгээд	-7.84682
▁аа	-7.84911
"-	-7.85265
▁_	-7.85621
▁дотор	-7.85821
▁үнэхээр	-7.86214
▁түүнийг	-7.87113
▁байгааг	-7.87172
▁үе	-7.87185
▁бүрэн	-7.87515
▁ирэх	-7.87551
▁Ийм	-7.87572
ш	-7.87671
▁дэлхийн	-7.88635
▁санаа	-7.88828
▁зураг	-7.88985
▁өгөх	-7.89294
▁хэсэг	-7.89417
▁дуртай	-7.89601
▁харж	-7.89738
▁муу	-7.89988
s	-7.9014
▁нас	-7.90334
▁гурван	-7.90509
▁эдийн	-7.90869
▁Таны	-7.91323
▁тал	-7.91709
▁болоод	-7.91767
хүү	-7.91818
▁байвал	-7.91836
;	-7.91876
▁холбоотой	-7.92683
▁хүлээн	-7.92918
▁өгсөн	-7.93043
▁Н	-7.93278
▁буюу	-7.93541
▁Улсын	-7.93608
▁гарсан	-7.93627
▁өөрийгөө	-7.93945
▁танд	-7.94596
▁шаардлагатай	-7.94642
ц	-7.94928
▁ганц	-7.94955
▁зохион	-7.95297
▁хэлсэн	-7.9532
▁асуудлыг	-7.95359
▁учир	-7.954
▁боломж	-7.95717
▁Чи	-7.95861
▁хугацаа	-7.95912
▁мэдэх	-7.95969
▁эмэгтэй	-7.96511
▁Гэвч	-7.96721
▁төрлийн	-7.96848
▁засгийн	-7.97174
▁үгүй	-7.97239
▁долоо	-7.97293
▁энд	-7.9781
▁харин	-7.98348
▁ажиллах	-7.98403
▁сар	-7.98497
▁х	-7.98548
▁үеийн	-7.9869
▁гаруй	-7.9921
Би	-8.00652
и	-8.00756
▁гишүүн	-8.0094
▁Түүний	-8.01396
▁зүйлийг	-8.0183
▁сайд	-8.01968
▁явах	-8.01974
▁улсад	-8.0219
ид	-8.02427
хан	-8.02581
▁эрүүл	-8.02668
▁зүгээр	-8.02779
▁ингэж	-8.03117
▁боллоо	-8.03395
▁Тийм	-8.03575
▁төр	-8.03906
▁мэдэхгүй	-8.04188
оос	-8.04192
▁боловч	-8.04258
▁дунд	-8.04696
▁хэмжээ	-8.04707
▁гэвэл	-8.0499
▁үнэн	-8.05458
▁байдлаар	-8.05516
▁дуу	-8.05859
▁анх	-8.05931
▁Т	-8.06097
▁7	-8.06912
▁хөрөнгө	-8.06941
▁хэд	-8.07801
▁залуу	-8.07884
▁нийт	-8.08071
▁авна	-8.08119
▁Өнөөдөр	-8.08305
▁Олон	-8.08445
▁дагуу	-8.0853
▁яах	-8.08814
▁ярьж	-8.0904
▁тоо	-8.09358
▁Үүнийг	-8.09359
▁зам	-8.09476
▁Ямар	-8.09524
▁уг	-8.09646
▁20	-8.0965
▁зах	-8.09666
▁болжээ	-8.09721
▁алга	-8.09951
о	-8.10166
▁ам	-8.10208
▁ажиллагаа	-8.10652
аад	-8.10948
▁хэцүү	-8.11019
з	-8.1133
▁гаргаж	-8.11746
сэн	-8.1182
хаа	-8.11959
▁Хүн	-8.12104
▁дугаар	-8.12599
▁сард	-8.1265
▁ирж	-8.127
▁болдог	-8.12738
▁гэхэд	-8.12801
▁бүгд	-8.12882
▁өнгөрсөн	-8.13304
▁байгаад	-8.13358
▁машин	-8.138
лаа	-8.14045
▁он	-8.1406
▁Тэгвэл	-8.14178
оор	-8.14545
▁шууд	-8.14584
▁Уг	-8.14668
өө	-8.1517
▁хоол	-8.15245
▁гэв	-8.15339
▁Их	-8.15471
▁бай	-8.15508
▁настай	-8.15559
▁явдал	-8.15624
▁А	-8.15714
▁нөхцөл	-8.15888
▁хүнийг	-8.15968
▁найз	-8.1612
э	-8.16201
▁Г	-8.16418
од	-8.16553
ь	-8.16981
▁зэрэг	-8.17228
▁6	-8.17551
▁анхны	-8.17776
▁ш	-8.17917
▁хүлээж	-8.18117
▁Ер	-8.18207
▁тэдний	-8.18258
▁Хамгийн	-8.18344
▁хуулийн	-8.18779
▁байжээ	-8.18839
эн	-8.18882
▁тухайн	-8.19033
▁Улс	-8.19086
▁хэрэггүй	-8.19259
▁Ц	-8.19448
▁болгон	-8.20078
▁хэр	-8.20617
▁үзэж	-8.20795
▁хийдэг	-8.21189
▁охин	-8.21581
▁8	-8.21842
▁хүмүүсийн	-8.22237
▁М	-8.22463
▁мэдээ	-8.22732
▁тохиолдолд	-8.23527
▁магадгүй	-8.23657
▁амьдрал	-8.23946
▁өдрийн	-8.24002
▁Бүх	-8.24018
гаа	-8.24133
▁бараг	-8.24145
▁гарах	-8.24267
▁боддог	-8.24736
▁өгч	-8.24901
▁бүхэн	-8.2509
▁Тэрээр	-8.25148
▁бүрийн	-8.25474
▁бүү	-8.25845
▁иргэд	-8.25849
▁сүүлийн	-8.2603
▁чадах	-8.26204
▁Эдгээр	-8.26307
▁буруу	-8.26448
▁болгох	-8.26511
▁гаргасан	-8.26925
▁үзэх	-8.27107
▁ээж	-8.27264
▁цагийн	-8.273
▁компани	-8.27307
▁Хэрвээ	-8.27731
▁б	-8.27913
▁нутгийн	-8.2817
▁АН	-8.2833
▁нам	-8.28731
▁дээрх	-8.292
▁хүү	-8.29241
▁хоногийн	-8.29782
▁хоног	-8.29852
▁хэлэх	-8.30062
▁орсон	-8.30166
▁Дэлхийн	-8.30497
▁байгаагүй	-8.30513
▁гаргах	-8.30596
▁монгол	-8.30858
▁шийдвэр	-8.31113
▁гадна	-8.31352
▁цагт	-8.31778
▁заавал	-8.31789
▁кино	-8.31794
▁эр	-8.31816
▁Яагаад	-8.31888
▁За	-8.31903
үүд	-8.32499
▁боломжгүй	-8.32675
▁эдгээр	-8.32733
▁хот	-8.32774
▁чадна	-8.32968
▁бүхий	-8.33012
▁эсрэг	-8.33103
▁адил	-8.33147
▁хэмжээний	-8.33535
▁Учир	-8.33756
▁МАН	-8.33832
С	-8.34242
Д	-8.34605
гүйгээр	-8.34732
▁12	-8.34862
▁Монголд	-8.35535
наас	-8.35862
▁мэдэж	-8.35921
▁дээрээ	-8.36032
▁багш	-8.36062
Та	-8.36298
▁энэхүү	-8.36338
▁үргэлж	-8.36471
Х	-8.36479
▁ном	-8.37226
▁аваад	-8.37241
▁эхэлсэн	-8.37339
▁хаана	-8.37764
▁бэлэн	-8.37934
▁дараах	-8.37979
▁бидэнд	-8.38359
нэ	-8.38847
▁Тэгэхээр	-8.38997
▁Шинэ	-8.3903
▁дээд	-8.39033
▁хурдан	-8.39045
▁Зарим	-8.39348
▁хувийн	-8.39613
▁байхдаа	-8.39637
▁болохыг	-8.39752
▁хамгаалах	-8.39757
▁мянган	-8.39908
▁явсан	-8.39947
▁нарын	-8.40011
▁эхний	-8.40777
▁Ч	-8.40826
ав	-8.40896
ах	-8.40938
▁оноос	-8.41064
▁гэхдээ	-8.41095
жээ	-8.41211
▁оронд	-8.41302
▁шаардлага	-8.41369
▁Ингээд	-8.41709
чин	-8.41746
▁огт	-8.42186
▁хүмүүст	-8.42232
▁11	-8.42312
▁Үүний	-8.42376
▁ашиглах	-8.42455
▁орох	-8.42622
▁амьдарч	-8.42639
▁тань	-8.42868
▁амжилт	-8.42995
▁30	-8.43284
▁У	-8.43684
▁ажлыг	-8.43814
▁болгож	-8.4395
▁аав	-8.44122
▁хүчин	-8.44243
▁гоё	-8.44673
▁зээл	-8.4494
▁Л	-8.45155
▁100	-8.45535
▁ажилд	-8.45779
▁аюулгүй	-8.45948
Т	-8.46032
▁үл	-8.46053
▁дэлхий	-8.46157
▁Төрийн	-8.46166
▁дүн	-8.46325
vv	-8.46656
вал	-8.46786
▁Ерөнхийлөгч	-8.4711
▁•	-8.47244
▁хүсч	-8.47434
▁ашиг	-8.47535
▁Тэрбээр	-8.47644
▁15	-8.47668
▁харах	-8.4809
▁Ерөнхий	-8.48199
▁хотын	-8.48589
▁үеэр	-8.48654
▁намын	-8.48869
▁мэддэг	-8.4895
▁хайртай	-8.48968
сон	-8.49077
▁байдлыг	-8.49168
▁Яг	-8.49198
▁баяр	-8.49234
▁ажлаа	-8.4928
▁эд	-8.49289
е	-8.49335
▁Бурхан	-8.49554
дэг	-8.49555
▁турш	-8.49677
▁Мэдээж	-8.49864
▁бичсэн	-8.50159
▁орны	-8.50163
▁Бас	-8.50179
▁Бидний	-8.50927
▁мэдээллийг	-8.50929
▁тэгээд	-8.5101
▁О	-8.5106
▁насны	-8.5107
▁хөл	-8.51124
▁амьдралын	-8.51156
▁аймгийн	-8.5136
▁ер	-8.51375
▁хэлбэл	-8.51435
▁засаг	-8.51554
▁хүссэн	-8.5174
e	-8.51755
▁хэмжээнд	-8.51891
▁зориулсан	-8.51933
▁хүч	-8.52138
▁гэлээ	-8.5219
▁урт	-8.52314
▁рүү	-8.52347
▁төрсөн	-8.52379
▁бололтой	-8.52587
▁хүүхдийн	-8.52841
▁гэдэгт	-8.53046
▁өөртөө	-8.53245
Энэ	-8.53446
▁ярих	-8.53559
▁хуудас	-8.53769
▁баримт	-8.53825
лээ	-8.53872
▁9	-8.53972
▁чамайг	-8.54124
2	-8.54251
Г	-8.54361
▁мэднэ	-8.54608
mn	-8.54641
▁арай	-8.54678
▁өөрчлөлт	-8.55102
▁шалтгаан	-8.55143
▁удаан	-8.55295
▁явдаг	-8.55298
▁байхыг	-8.55602
▁ажилладаг	-8.55745
▁нийтийн	-8.55779
▁битгий	-8.56331
▁түүнд	-8.5655
лан	-8.56585
▁гэдгээ	-8.56589
▁эмч	-8.56801
▁18	-8.56853
▁дор	-8.56971
уудыг	-8.57333
▁нөгөө	-8.57445
▁өөрийнхөө	-8.57651
▁аз	-8.57726
▁Бурханы	-8.57818
гаар	-8.57855
▁таныг	-8.57872
▁түмэн	-8.57907
▁Хэн	-8.58334
▁Хятад	-8.58345
▁ах	-8.58613
А	-8.58992
▁хийнэ	-8.59082
Н	-8.59136
хээ	-8.59209
гээ	-8.5931
Б	-8.59377
▁шилдэг	-8.59381
▁тун	-8.59458
доо	-8.59824
▁эцэг	-8.59923
▁үзсэн	-8.59942
▁барьж	-8.60022
▁уран	-8.60077
▁хайр	-8.60454
a	-8.60494
▁өмнөх	-8.60616
▁доо	-8.6075
▁Үүнээс	-8.60842
чих	-8.60949
1	-8.60979
▁сууж	-8.61063
▁ихэнх	-8.61208
▁байгууллага	-8.6122
▁ус	-8.61266
▁S	-8.61371
к	-8.61388
▁бизнес	-8.61511
▁улам	-8.61617
▁удаагийн	-8.61899
ин	-8.62271
▁очиж	-8.62361
аараа	-8.62444
▁өгнө	-8.62604
▁шинж	-8.62612
гээр	-8.62939
▁хоногт	-8.63049
▁үйлчилгээ	-8.6331
▁нутаг	-8.63458
▁т	-8.63561
▁ирээд	-8.63584
▁авдаг	-8.63609
▁хэдий	-8.63877
▁баг	-8.64105
▁иргэн	-8.64161
p	-8.64315
▁ашиглаж	-8.64402
▁хийгээд	-8.64411
▁Хоёр	-8.64686
ал	-8.64721
▁гишүүд	-8.64761
▁үүрэг	-8.64819
▁ил	-8.64933
▁зүйн	-8.65094
▁Нүүр	-8.65429
▁дэх	-8.6549
▁орчим	-8.65738
▁гэртээ	-8.65956
он	-8.66053
▁жижиг	-8.66116
▁түүх	-8.6612
▁Э	-8.66201
▁сонирхолтой	-8.66228
▁·	-8.66279
▁бүл	-8.66379
лах	-8.66381
▁байнга	-8.66508
▁салбарт	-8.66638
▁Дараа	-8.66751
▁Тус	-8.66993
▁үндсэн	-8.67032
я	-8.67058
▁минутын	-8.67136
▁Орос	-8.67142
▁хооронд	-8.67223
▁худалдаж	-8.67341
▁а	-8.67548
▁хүүхдүүд	-8.6765
ар	-8.67651
▁бутлуур	-8.67901
▁ёс	-8.67972
б	-8.68121
▁худалдан	-8.68285
y	-8.68515
▁чиний	-8.68646
▁ойлгож	-8.69003
▁хариу	-8.69121
▁олох	-8.69129
▁оруулж	-8.69269
▁дөрвөн	-8.69282
▁аргагүй	-8.69406
▁ажээ	-8.69538
▁таван	-8.69595
▁тохиолдол	-8.6977
▁байдаггүй	-8.69963
▁амь	-8.69973
▁бүсгүй	-8.70024
▁гайхалтай	-8.70061
]	-8.70267
▁бодлого	-8.70338
▁14	-8.70357
▁янз	-8.70383
▁хүрээнд	-8.70503
▁иргэдийн	-8.70543
▁бодит	-8.70625
хэн	-8.70635
▁жилд	-8.70758
▁барих	-8.70989
▁чаддаг	-8.7122
▁З	-8.71261
▁Ж	-8.71502
▁Энд	-8.71589
өөс	-8.71637
▁өглөө	-8.72093
▁итгэл	-8.72119
▁сонин	-8.72325
▁тавьж	-8.72397
▁сургууль	-8.72659
▁гэхээр	-8.72723
▁төв	-8.72742
▁ач	-8.7283
▁Тэдний	-8.72856
▁хараад	-8.72962
▁амьдрах	-8.73031
▁нийгмийн	-8.73287
▁эхлээд	-8.73311
анд	-8.73523
▁ял	-8.7367
▁өөрсдөө	-8.74198
▁төсөл	-8.7424
▁тэрээр	-8.74463
▁тэнд	-8.74518
▁Тухай	-8.74574
▁чамд	-8.74636
▁явна	-8.74828
▁оруулах	-8.75184
▁өргөн	-8.75185
▁энгийн	-8.75223
▁гадаад	-8.75309
'	-8.75462
▁за	-8.7547
ов	-8.75567
▁чанар	-8.75592
▁хамаагүй	-8.75617
4	-8.75751
▁сонголт	-8.75754
▁Өөрөөр	-8.75822
▁жинхэнэ	-8.75947
▁холбоо	-8.75957
▁нөхөр	-8.76047
▁орчин	-8.76099
▁тоглоом	-8.7619
▁үедээ	-8.76262
▁эргэн	-8.76267
▁хүмүүсийг	-8.76554
▁туслах	-8.76557
▁цагаан	-8.76731
▁Хүний	-8.77062
▁Түүнийг	-8.77096
▁бээлий	-8.77375
▁бүтээгдэхүүн	-8.77457
▁Зөвхөн	-8.77484
▁с	-8.7774
▁хотод	-8.77783
▁гэмт	-8.7784
▁үзэл	-8.77934
▁И	-8.77994
▁v	-8.78064
уу	-8.78171
▁мэдээллийн	-8.78436
▁ерөнхий	-8.78563
▁бүхнийг	-8.78691
▁бичиг	-8.78775
▁үздэг	-8.78854
▁гэрээ	-8.78854
▁дээш	-8.78862
▁Намайг	-8.78922
D	-8.79077
▁Өнгөрсөн	-8.7919
▁ижил	-8.79415
▁н	-8.7943
▁төгрөг	-8.79436
▁дүр	-8.7957
▁сан	-8.79609
▁тусгай	-8.7972
▁хамтран	-8.79728
▁ажиллагааны	-8.79747
▁бүлийн	-8.79813
▁бүтээл	-8.8018
▁Хятадын	-8.80275
▁2020	-8.80316
▁байдалд	-8.80476
өөр	-8.80568
▁Европын	-8.80584
▁гэжээ	-8.80669
▁үнэгүй	-8.80947
▁хэт	-8.81035
3	-8.81067
o	-8.81085
▁[	-8.81227
▁сургуулийн	-8.81449
▁Хар	-8.81455
▁гал	-8.81725
▁компанийн	-8.81985
▁хатуу	-8.8229
▁тэднийг	-8.8231
▁Сайн	-8.82397
▁сурах	-8.82428
аасаа	-8.82466
▁зүйлс	-8.82514
▁зан	-8.82981
▁яваа	-8.83134
▁яриа	-8.8315
▁татаж	-8.83227
▁2016	-8.83297
▁газарт	-8.83495
▁толгой	-8.83606
▁мэндийн	-8.83726
▁өгдөг	-8.83728
▁бичиж	-8.83831
▁юмаа	-8.84091
▁бүс	-8.84194
▁A	-8.84206
▁B	-8.84276
▁хий	-8.8431
▁зорилго	-8.84329
ил	-8.84407
▁хүчний	-8.84479
▁хүргэж	-8.84514
▁халдвар	-8.84789
▁хүрч	-8.84796
тайгаа	-8.85145
▁50	-8.85176
▁хангалттай	-8.85367
М	-8.85765
▁хол	-8.85791
▁хэлэхэд	-8.85886
Л	-8.85927
эх	-8.86126
▁нүүр	-8.86231
ор	-8.86364
▁нийтлэл	-8.86675
аж	-8.86677
▁хүчтэй	-8.8669
▁өрөө	-8.86979
▁ярьдаг	-8.86991
▁бичлэг	-8.87078
▁бүгдийг	-8.87096
▁г	-8.87176
▁адилхан	-8.87237
▁уул	-8.87561
▁нууц	-8.87601
▁бодол	-8.87691
▁хугацааны	-8.87735
▁улмаас	-8.87796
нээс	-8.87846
▁уурхайн	-8.88007
▁хүрсэн	-8.88011
▁нарийн	-8.88382
▁Ш	-8.88537
▁байгууллагын	-8.88635
▁дараагийн	-8.88701
▁хөгжлийн	-8.88726
уудын	-8.88752
▁Бусад	-8.88793
▁орой	-8.88828
▁Гэр	-8.88875
▁санхүүгийн	-8.88971
▁1-	-8.89102
▁яваад	-8.89119
▁шударга	-8.89127
▁дүү	-8.89225
▁бна	-8.89672
▁тавьсан	-8.89681
▁17	-8.89905
▁мэнд	-8.90003
чид	-8.90037
▁анги	-8.90067
▁байдлын	-8.90082
▁мэргэжлийн	-8.90085
▁хүнтэй	-8.90126
▁2012	-8.90274
▁хүсэл	-8.90623
▁нутагт	-8.90635
тэйгээ	-8.907
▁Надад	-8.90923
▁эхлэх	-8.91042
▁асуулт	-8.91098
но	-8.91107
▁П	-8.91197
▁ухаан	-8.91254
▁давуу	-8.9133
▁яриад	-8.91435
▁цахим	-8.91443
▁сонгох	-8.91445
▁13	-8.91463
▁амьдардаг	-8.91484
эл	-8.91557
▁ажилласан	-8.91606
S	-8.91669
га	-8.91845
▁алдаа	-8.92026
▁Гэсэн	-8.92103
▁гараад	-8.9219
у	-8.92339
▁чадаагүй	-8.92422
▁д	-8.92464
ө	-8.92493
MN	-8.92593
▁баярлалаа	-8.9265
▁байгаагаа	-8.92909
▁биднийг	-8.92989
▁байгуулах	-8.93093
▁16	-8.93097
▁ОХУ	-8.9319
▁үгийг	-8.93225
▁төхөөрөмж	-8.93256
▁шүүх	-8.93542
ээд	-8.93643
▁мэдээж	-8.93694
ээсээ	-8.94018
▁харсан	-8.94042
▁эрэгтэй	-8.94133
▁боломжийг	-8.94212
▁зарна	-8.94285
▁амжилттай	-8.94338
ас	-8.94425
▁ирнэ	-8.94452
▁хэрэгсэл	-8.94498
▁үндэсний	-8.94561
▁Сүүлийн	-8.94568
эр	-8.94579
саар	-8.94588
i	-8.94681
▁ор	-8.94841
▁үзүүлэх	-8.94918
▁салбар	-8.94946
▁19	-8.95336
▁жаахан	-8.95369
▁нарт	-8.95382
▁хэрэгжүүлэх	-8.95451
▁нэлээд	-8.95622
Р	-8.95764
▁жишээ	-8.95876
▁амьдралд	-8.95931
▁бодсон	-8.95953
▁хэлдэг	-8.96138
▁амиа	-8.96145
▁бичих	-8.96176
▁ёсны	-8.96249
▁харагдаж	-8.96266
▁бүрт	-8.96356
▁талд	-8.96361
▁хэргийн	-8.96439
▁үнэтэй	-8.9654
▁лээ	-8.96606
▁хайж	-8.97002
▁үлдсэн	-8.97282
t	-8.97305
▁бүтэн	-8.97386
!!!	-8.97443
И	-8.9749
▁хэрэглэх	-8.97758
▁суурь	-8.97826
▁2017	-8.97893
▁|	-8.9796
5	-8.9808
▁сургуульд	-8.9808
ээрээ	-8.98158
▁замын	-8.98162
▁тэрбум	-8.98547
▁тавих	-8.9855
▁гурав	-8.98631
▁алба	-8.98683
▁ахуйн	-8.98729
▁хялбар	-8.98782
▁эхнэр	-8.9879
▁минут	-8.98848
▁Хүмүүс	-8.98896
▁загвар	-8.98999
▁үйлдэл	-8.99052
▁сайт	-8.99089
▁зээлийн	-8.99103
▁удахгүй	-8.99233
▁судалгаа	-8.99334
▁зүрх	-8.99523
▁онгоц	-8.99549
▁хүрэх	-8.99581
▁C	-8.99584
У	-8.99622
▁гардаг	-8.99646
▁дахиад	-8.9993
▁үйлдвэр	-9.00036
▁нэрийг	-9.00353
▁ярьсан	-9.00385
▁амьд	-9.00459
ер	-9.00485
▁хаа	-9.00496
▁гарын	-9.00529
?"	-9.00712
▁Түүнчлэн	-9.00721
▁тэнэг	-9.00802
▁түр	-9.00904
▁ажиллагааг	-9.01057
үү	-9.01131
лийн	-9.01171
▁2018	-9.01363
▁дэмжиж	-9.01422
▁амар	-9.01445
▁нөлөө	-9.01464
▁ойлгох	-9.0153
P	-9.01674
c	-9.01711
маар	-9.01789
лэх	-9.01957
▁утас	-9.02074
▁дэмжлэг	-9.02129
▁төрөл	-9.02169
▁эсэхийг	-9.02274
▁мал	-9.02411
▁хүсэж	-9.02487
▁ав	-9.02501
▁яахав	-9.02661
▁бодох	-9.02736
▁тэдэнд	-9.02876
▁ирдэг	-9.03036
ам	-9.0304
▁сонгуулийн	-9.03188
▁К	-9.03885
▁хэмжээг	-9.03951
дөө	-9.04144
▁ороод	-9.04209
▁систем	-9.04233
▁з	-9.043
▁анхаарал	-9.04311
▁итгэлтэй	-9.0432
ийнхээ	-9.04327
▁м	-9.04333
▁амьтан	-9.04369
▁газраас	-9.04387
▁дургүй	-9.04408
▁40	-9.04523
▁харилцаа	-9.04665
▁цэргийн	-9.04752
▁хэв	-9.04874
▁дүнд	-9.04895
▁томоохон	-9.049
▁унших	-9.04901
▁нарыг	-9.04909
▁Эх	-9.04915
▁жаргалтай	-9.05009
▁алдсан	-9.05073
▁чадсан	-9.05208
▁I	-9.0523
▁өнгө	-9.05261
▁хүсдэг	-9.05317
▁2-	-9.054
▁Түүнээс	-9.05413
▁хичээл	-9.05476
▁шаардлагагүй	-9.05601
▁2019	-9.05674
▁салбарын	-9.05785
▁Үндсэн	-9.05975
▁ойлголт	-9.06147
▁оршин	-9.06153
▁24	-9.06186
чихсан	-9.06321
▁оролцох	-9.06384
▁хангах	-9.0648
лэн	-9.06624
▁2015	-9.06644
▁хаан	-9.06785
▁эрчим	-9.06879
▁Магадгүй	-9.06907
▁ашигтай	-9.06968
▁алхам	-9.07119
▁Улаанбаатар	-9.07131
▁тусламж	-9.07208
▁Америкийн	-9.07273
▁хувцас	-9.07358
▁өөрсдийн	-9.07579
▁Ерөнхийлөгчийн	-9.0759
▁тэгж	-9.07733
▁P	-9.07916
▁онцгой	-9.08305
▁хэлээд	-9.0834
▁талаас	-9.08366
▁Өмнөх	-9.08686
▁Монголчууд	-9.08817
▁Өөрийн	-9.08822
▁маргааш	-9.08851
▁онлайн	-9.08882
▁хэсэгт	-9.08968
▁M	-9.0903
гуй	-9.09038
вэл	-9.09066
▁Эсвэл	-9.09139
▁тоглох	-9.09213
▁уур	-9.09243
▁тээврийн	-9.09265
▁ёсоор	-9.09371
6	-9.09491
▁эм	-9.0957
▁чадвар	-9.09663
▁видео	-9.09663
▁үз	-9.09712
▁асуудлаар	-9.09748
▁тээрэм	-9.09759
▁хэрэглэж	-9.09828
▁байгуулсан	-9.09906
▁сул	-9.10278
▁ирлээ	-9.10295
8	-9.10306
7	-9.10385
▁Эд	-9.10603
тан	-9.1065
er	-9.10755
дог	-9.10773
▁учиртай	-9.10932
▁Ажлын	-9.10969
сөн	-9.11176
▁F	-9.11624
▁тоног	-9.11698
▁өөрчлөх	-9.11747
▁суух	-9.11763
▁компаниуд	-9.11876
▁сонгуульд	-9.11962
▁амархан	-9.12
▁явуулж	-9.12055
▁Өөр	-9.12153
▁түүнээс	-9.12221
гч	-9.12327
▁хэвээр	-9.12351
▁хор	-9.12405
▁Цаг	-9.12419
▁уншиж	-9.1249
▁тоглолт	-9.12496
▁түвшинд	-9.12553
▁нэмэлт	-9.12665
▁25	-9.12694
n	-9.1284
▁тохиромжтой	-9.12883
▁аварга	-9.12925
▁T	-9.12935
9	-9.12965
▁дэд	-9.13024
эг	-9.13033
▁давхар	-9.13328
B	-9.13342
▁цалин	-9.13379
▁утга	-9.13423
▁Юу	-9.13503
▁өдөрт	-9.13575
▁холбогдох	-9.13815
▁хандаж	-9.1382
▁Ингэснээр	-9.13945
▁замаар	-9.13991
▁доллар	-9.14136
▁арван	-9.14218
▁2014	-9.14259
▁Оросын	-9.14263
▁шинээр	-9.14326
▁тэмдэг	-9.14441
хон	-9.14477
▁идэх	-9.14485
эв	-9.14613
▁дэмжих	-9.14649
▁ойр	-9.14776
▁бараа	-9.14821
▁ганцаараа	-9.14988
▁хамтдаа	-9.15201
аг	-9.15206
▁програм	-9.15248
▁сургалт	-9.15248
▁бүлэг	-9.15357
▁шөнө	-9.15457
C	-9.15732
▁ха	-9.15763
З	-9.15781
ун	-9.15804
лж	-9.15807
▁эрхийг	-9.15961
▁Орон	-9.15995
▁байнаа	-9.16104
▁бодоод	-9.16314
▁хүүхдээ	-9.1635
▁тоглож	-9.16374
▁татвар	-9.16577
▁мод	-9.16616
G	-9.16904
▁баяртай	-9.16981
▁харахад	-9.1703
▁түмний	-9.17073
▁хийхэд	-9.17086
x	-9.17144
▁Ээж	-9.17198
▁Нөгөө	-9.17247
▁соёл	-9.17369
лаг	-9.17669
О	-9.17674
Ш	-9.17741
▁тэрбээр	-9.17752
ү	-9.17846
дан	-9.17859
▁эрт	-9.17886
▁олгох	-9.17941
▁эхэлж	-9.17996
▁оролцож	-9.1803
мн	-9.18089
энд	-9.18166
▁зар	-9.18175
▁Жишээ	-9.18182
лэг	-9.18242
▁ар	-9.18274
▁тайван	-9.18309
▁хариуцлага	-9.18367
▁нөөц	-9.18461
▁хандах	-9.1851
нууд	-9.18544
▁дотоод	-9.18572
Эрдэнэ	-9.18587
▁болгосон	-9.18594
▁эхэллээ	-9.18595
▁цэвэр	-9.18627
▁байранд	-9.18656
▁үзээрэй	-9.18732
▁зургийг	-9.18746
▁Хүүхдийн	-9.18915
▁бүхэнд	-9.19028
сны	-9.19051
▁2008	-9.19056
▁зүйлээ	-9.19257
▁гарна	-9.19267
▁эргэж	-9.19321
▁Ард	-9.19334
▁Үндэсний	-9.19483
▁байсныг	-9.19668
▁зүйтэй	-9.19726
▁худлаа	-9.19857
▁Ингэж	-9.19869
▁зүгээс	-9.19888
▁ажилтан	-9.1996
▁шагнал	-9.19985
▁ой	-9.20026
▁талын	-9.20206
▁асар	-9.20215
▁эзэн	-9.20265
▁эхлэн	-9.20308
▁хагас	-9.20352
▁тайлбар	-9.20485
▁#	-9.20491
▁Аль	-9.20761
▁орнууд	-9.20844
▁хөтөлбөр	-9.20845
▁зардал	-9.20854
▁цаашид	-9.20878
п	-9.20943
▁оруулсан	-9.2102
сээр	-9.21249
▁гэрийн	-9.21332
▁Өмнөд	-9.21483
▁ур	-9.21488
лаад	-9.21574
▁багийн	-9.22115
d	-9.22119
▁санагддаг	-9.22153
▁төгс	-9.2223
▁гэрэл	-9.22357
өд	-9.22403
▁*	-9.22434
Монгол	-9.22446
▁гоо	-9.22539
▁бэлэг	-9.22975
▁айл	-9.22979
▁Япон	-9.23083
▁дүүрэн	-9.23169
▁олсон	-9.2324
▁Эрүүл	-9.23261
▁зөвлөгөө	-9.23292
гаас	-9.23358
тал	-9.23387
▁сонгууль	-9.23441
▁шалгах	-9.23502
▁хариулт	-9.23529
▁даяар	-9.23548
▁дүнтэй	-9.23553
даж	-9.23746
▁Аав	-9.23781
▁чаддаггүй	-9.23819
▁?	-9.23882
▁тав	-9.23898
▁чиглэлээр	-9.23906
руу	-9.23917
ынхаа	-9.23964
▁шалгалт	-9.23974
▁тод	-9.24018
▁Хүүхэд	-9.24049
▁бөмбөг	-9.24085
▁үзнэ	-9.24174
▁зуун	-9.24228
▁зориулж	-9.24236
▁хэлний	-9.24296
▁хэвийн	-9.24342
▁хувийг	-9.24516
▁явуулах	-9.24649
▁орлого	-9.2498
▁итгэж	-9.2502
▁хэргийг	-9.25259
▁цахилгаан	-9.25378
▁болоогүй	-9.25436
▁хуучин	-9.25539
▁нээлттэй	-9.25676
▁нэгдсэн	-9.25796
▁ир	-9.25876
Э	-9.25988
▁Зүгээр	-9.26026
▁орно	-9.26037
▁эрхтэй	-9.26306
чууд	-9.2634
би	-9.26371
▁Гадаад	-9.26396
▁Ажил	-9.26399
▁нэртэй	-9.26473
Бид	-9.26503
▁зорилгоор	-9.26513
▁өвчин	-9.26532
▁блог	-9.26536
▁оролцсон	-9.26594
▁хяналт	-9.26595
▁урьдчилан	-9.2674
▁хүргэе	-9.2674
▁ихэвчлэн	-9.26746
▁2013	-9.26772
▁Өдөр	-9.26802
▁хороо	-9.26971
▁алдартай	-9.2711
ла	-9.27188
▁порно	-9.27192
▁ганцхан	-9.27316
▁чанартай	-9.27416
▁эмэгтэйчүүд	-9.27546
▁юмуу	-9.2757
▁очих	-9.27736
▁шат	-9.27797
▁төлөх	-9.27827
Чи	-9.27954
▁тушаал	-9.27964
▁эгч	-9.28048
▁нэмж	-9.28074
▁цагдаагийн	-9.281
▁ашигладаг	-9.28285
▁сайдын	-9.2837
ай	-9.28449
▁Солонгос	-9.28506
▁ид	-9.28621
▁Гар	-9.28804
▁онцлог	-9.28849
▁21	-9.28873
▁мах	-9.28883
▁хэрэгт	-9.28916
▁ХХК	-9.292
▁шар	-9.29443
▁Хууль	-9.29466
▁дэлгэрэнгүй	-9.29504
Ц	-9.29607
▁аялал	-9.29608
▁Дэлхий	-9.29635
▁талаарх	-9.29711
▁дасгал	-9.29737
▁Одоогоор	-9.29769
▁чадвартай	-9.29848
▁чиг	-9.29943
▁агаарын	-9.29965
▁татах	-9.29981
u	-9.30001
A	-9.30008
▁дайн	-9.30125
▁халуун	-9.30131
▁тогтвортой	-9.3014
▁Америк	-9.30149
▁зүй	-9.30241
▁эсэх	-9.30264
T	-9.30283
▁цагдаа	-9.30377
▁нөхцөлд	-9.30425
▁төлөвлөгөө	-9.30515
▁E	-9.30734
▁хоёрын	-9.30792
▁ердөө	-9.30828
▁аливаа	-9.30844
▁баруун	-9.30955
▁монголчууд	-9.31002
▁хэмээх	-9.31091
ит	-9.3126
▁эцсийн	-9.31272
▁үнэндээ	-9.313
▁санаж	-9.31307
▁бурхан	-9.31348
▁биеэ	-9.31362
▁дүгнэлт	-9.31409
▁хоолой	-9.31487
▁хуулийг	-9.3158
▁хөгжүүлэх	-9.31617
▁зургаан	-9.31902
▁дүгээр	-9.31902
▁цааш	-9.31958
M	-9.31975
лаж	-9.31979
▁Танд	-9.32105
▁надаас	-9.3216
үүдийг	-9.32189
▁номын	-9.32203
▁ажиллана	-9.32239
▁хаанаас	-9.32273
▁бэлтгэл	-9.32279
▁шийдэх	-9.32539
▁өг	-9.32616
I	-9.32811
гоо	-9.32816
▁байлгах	-9.32835
▁ухааны	-9.32903
▁бод	-9.32977
▁дарж	-9.33041
▁Өмнө	-9.33087
▁үйлчилгээний	-9.331
▁богино	-9.33117
ка	-9.33321
▁БНХАУ	-9.33338
▁гараа	-9.33499
▁худалдаа	-9.33544
▁ашиглан	-9.33562
▁0	-9.33674
in	-9.33749
▁анхаарах	-9.33863
▁байгуулж	-9.33951
▁урьд	-9.34239
▁зай	-9.3427
▁тутмын	-9.34294
▁НҮБ	-9.34306
▁G	-9.34355
Ж	-9.34382
▁3-	-9.34402
▁биеийн	-9.34452
▁эс	-9.34665
▁танай	-9.34767
▁байлгүй	-9.34787
▁мөнгийг	-9.34856
▁оо	-9.34879
▁Үнэхээр	-9.34989
лын	-9.35057
Ү	-9.35174
гийг	-9.35233
▁хүсье	-9.35282
ана	-9.35314
▁Дараагийн	-9.35319
L	-9.35437
▁байгаарай	-9.35484
▁хувилбар	-9.35506
▁дүнг	-9.35596
▁даргын	-9.35614
▁Есүс	-9.35634
▁ангийн	-9.357
Миний	-9.35843
аагүй	-9.35866
▁бусдад	-9.3596
▁аргаар	-9.35995
▁бөх	-9.36057
▁эцэст	-9.3609
▁мэд	-9.36137
▁H	-9.36146
▁сурч	-9.36303
▁мөнгөө	-9.36358
▁уулзалт	-9.36367
▁бодлоо	-9.36394
▁идэж	-9.36451
▁хэлэв	-9.36506
▁лав	-9.36667
▁оруулалт	-9.36674
10	-9.36741
▁барилга	-9.36743
▁60	-9.36762
▁наад	-9.36782
та	-9.36842
▁мянга	-9.36919
▁иргэний	-9.36962
▁яасан	-9.36979
▁Ф	-9.3699
▁агуу	-9.37146
▁сумын	-9.37153
b	-9.37196
▁одоогоор	-9.37221
▁сэдэв	-9.37288
▁харагдах	-9.37422
▁Ихэнх	-9.37523
▁мэдрэмж	-9.37584
таа	-9.37627
ос	-9.37687
▁хямд	-9.37746
▁хэлбэр	-9.37766
лт	-9.37807
▁хэллээ	-9.37885
ол	-9.37913
▁тос	-9.38017
ир	-9.38024
▁дур	-9.38103
▁төлбөр	-9.38268
▁2011	-9.38356
▁оноо	-9.38406
▁нохой	-9.38498
▁өгөхгүй	-9.38679
▁боловсруулах	-9.38698
▁эв	-9.38747
▁банк	-9.38802
▁агаар	-9.38851
▁Төв	-9.38867
▁болзошгүй	-9.38981
▁бизнесийн	-9.38983
▁найдаж	-9.38984
▁Ө	-9.38997
▁муухай	-9.3914
▁тэмцэх	-9.39262
▁одоогийн	-9.39402
ье	-9.39454
E	-9.3951
В	-9.39598
аарай	-9.39608
▁ерөнхийлөгч	-9.39658
▁сонсох	-9.39859
ри	-9.3988
▁урд	-9.3993
▁зүүн	-9.39974
▁шийдвэрлэх	-9.4
▁газрыг	-9.40015
▁шалгаж	-9.40124
▁Анх	-9.40148
▁Тухайлбал	-9.4019
▁болгодог	-9.40216
▁дагаж	-9.40221
эй	-9.40238
ен	-9.40245
m	-9.4062
ing	-9.40661
▁сонссон	-9.40733
▁замыг	-9.41003
▁чулуу	-9.41043
▁над	-9.41054
▁шинжлэх	-9.41102
▁дотроо	-9.41109
▁зааж	-9.41204
▁худалдааны	-9.41205
▁хөдөлгөөн	-9.41235
▁төсвийн	-9.4131
▁Том	-9.41408
▁хог	-9.4151
▁өмнөөс	-9.41627
▁хэрэв	-9.41642
▁мэдсэн	-9.41672
▁тогтоох	-9.41768
▁чанарын	-9.41907
▁Цагаан	-9.42029
▁хүргэх	-9.42031
▁D	-9.42044
Я	-9.42049
▁дэлхийд	-9.42054
▁хэлэлцэх	-9.42141
▁хөдөө	-9.42446
▁материал	-9.425
▁сэтгэгдэл	-9.42511
▁сав	-9.42635
▁Англи	-9.42657
▁Гол	-9.42683
хоо	-9.42719
r	-9.42899
▁залуус	-9.42957
▁ховор	-9.43019
▁хоорондоо	-9.43046
▁яв	-9.43048
▁хамтын	-9.43052
дын	-9.43077
▁шинжилгээ	-9.43161
▁[...]	-9.43181
эм	-9.43182
▁сөрөг	-9.43183
▁ингээд	-9.43196
▁хүүхэдтэй	-9.43208
▁иргэдэд	-9.43221
f	-9.43224
▁нийтэд	-9.43263
▁болчихсон	-9.4337
▁сайжруулах	-9.43427
▁орчинд	-9.4346
▁явц	-9.43538
▁нөхөд	-9.43567
▁дүрэм	-9.43695
▁аваарай	-9.43912
▁цор	-9.44133
▁саналыг	-9.44231
жин	-9.44337
▁хөөрхөн	-9.44442
▁байхаа	-9.44442
▁үзүүлж	-9.44454
▁вирус	-9.44469
▁улаан	-9.44474
▁зүйлд	-9.44491
▁хэрэгжүүлж	-9.44515
▁түрүүнд	-9.4474
0	-9.4477
▁өдрүүдэд	-9.44836
▁дандаа	-9.44865
▁хугацааг	-9.44911
▁Бага	-9.44934
▁Үүнд	-9.44968
▁Тэнд	-9.4499
▁яам	-9.45036
▁хийхгүй	-9.45123
▁очоод	-9.45169
▁архи	-9.45182
▁асуудалд	-9.45284
▁аюултай	-9.45337
▁хувиар	-9.45378
▁ажиллагаанд	-9.45392
▁сум	-9.45519
▁хүнсний	-9.45553
▁гаргадаг	-9.45589
▁хоолны	-9.45607
▁ойлгомжтой	-9.45715
▁Чиний	-9.45879
▁очсон	-9.45918
▁Я	-9.45922
▁байхаар	-9.45946
▁Засаг	-9.45975
▁цэг	-9.46047
▁гэрт	-9.46134
лээд	-9.46139
▁Бүгд	-9.46148
▁эхэлнэ	-9.46157
▁хурал	-9.46186
лоо	-9.46242
▁22	-9.46272
ю	-9.46312
▁албаны	-9.46317
▁санагдаж	-9.46457
▁иймэрхүү	-9.4646
▁Дараах	-9.46543
▁No	-9.46565
ф	-9.46593
▁холбооны	-9.46664
▁үйлдвэрийн	-9.46693
an	-9.46714
▁хөгжил	-9.46723
▁өдрийг	-9.46821
▁уулзаж	-9.46825
▁үзээгүй	-9.46828
▁заасан	-9.46838
▁заримдаа	-9.4689
▁бүхний	-9.46892
▁нээх	-9.4708
▁жолооч	-9.47136
▁боловсрол	-9.47204
иа	-9.47235
▁гүйцэтгэх	-9.47364
▁дамжуулан	-9.47383
▁байгалийн	-9.47453
l	-9.47483
▁усны	-9.47512
▁хэтэрхий	-9.47572
▁авлаа	-9.47617
▁в	-9.47726
▁хэмжээгээр	-9.47769
▁ертөнц	-9.47771
дах	-9.47858
▁технологи	-9.48002
▁орондоо	-9.48083
▁компьютер	-9.48105
▁үлдэх	-9.48249
▁Нийт	-9.48262
▁'	-9.4828
▁Эмэгтэй	-9.48359
▁англи	-9.48369
▁дэргэд	-9.48489
▁Японы	-9.4849
▁нийгэм	-9.48491
H	-9.4853
ли	-9.48541
▁нүд	-9.48603
▁V	-9.48628
▁үүнд	-9.4881
▁s	-9.48834
▁ядаж	-9.48892
▁машины	-9.48951
▁үлгэр	-9.48979
▁тэргүүн	-9.49153
▁эргээд	-9.49286
▁Маш	-9.49327
▁хадгалах	-9.49349
▁үйлчилгээг	-9.4935
▁амьдралыг	-9.49383
▁шийдсэн	-9.49467
▁байгаль	-9.4951
▁асууж	-9.4956
▁хятад	-9.49605
▁аюул	-9.49702
уул	-9.49746
▁хэрэглэдэг	-9.49746
▁оюутан	-9.49832
▁2009	-9.4991
▁бусдын	-9.49918
ой	-9.50067
▁эрхийн	-9.50183
▁манайд	-9.50237
▁Ардчилсан	-9.50246
▁тэгш	-9.50254
▁бодис	-9.50282
▁сонсож	-9.50409
К	-9.50588
▁сонгосон	-9.5061
▁зөвшөөрөл	-9.50665
▁тэмцээн	-9.50711
▁зав	-9.50728
▁судалгааны	-9.50772
▁Ялангуяа	-9.50791
▁сэтгэлийн	-9.50801
▁үүссэн	-9.50807
▁юуг	-9.50938
▁бутлуурын	-9.50982
▁төслийг	-9.50985
▁өссөн	-9.50986
▁өр	-9.51014
ноос	-9.5108
▁хаяг	-9.51185
▁сууц	-9.51255
▁нийгэмд	-9.51302
▁үсэг	-9.51307
▁хил	-9.51347
▁жин	-9.5136
▁В	-9.51552
▁Уул	-9.51657
Ч	-9.51678
▁туршлага	-9.51712
За	-9.51722
▁цагаар	-9.51743
▁зайлшгүй	-9.51762
▁байгууллагууд	-9.51838
▁Эр	-9.51851
▁ёсгүй	-9.51873
▁бэрхшээл	-9.51911
▁мөнгөний	-9.52112
▁бүтээгдэхүүний	-9.52116
▁Харамсалтай	-9.5216
▁сур	-9.52173
ъя	-9.52176
▁жаргал	-9.52223
▁төрд	-9.52284
чи	-9.52317
өн	-9.52321
▁өөрсдийгөө	-9.52348
R	-9.52405
▁тэмцээнд	-9.52525
▁K	-9.52563
▁сурвалж	-9.52582
▁Ирэх	-9.52603
▁Сайхан	-9.52755
чил	-9.52817
рч	-9.52834
▁зүйлийн	-9.52916
en	-9.52933
▁тухайд	-9.53008
al	-9.53021
ел	-9.53034
▁Ар	-9.53044
▁Р	-9.53078
▁хэнд	-9.531
хгүй	-9.53171
ни	-9.53207
▁зууны	-9.53214
маа	-9.53418
▁хэвлэл	-9.53562
▁сэргийлэх	-9.53648
▁хэсгийг	-9.53729
▁хэхэ	-9.53744
▁Хойд	-9.53745
▁цар	-9.5376
▁чин	-9.53769
▁харагддаг	-9.53836
▁ихээр	-9.5386
▁орд	-9.53967
▁байгуулагдсан	-9.54037
▁Эрх	-9.5411
▁бодлогын	-9.54125
▁шатны	-9.54128
▁тооны	-9.54207
▁хүсэлт	-9.54209
▁өнөөгийн	-9.54225
▁сүүлд	-9.54249
▁байшин	-9.54273
▁хэлээр	-9.54702
▁тогтмол	-9.54725
▁эмнэлгийн	-9.54746
▁харилцан	-9.54758
ив	-9.54831
▁зөндөө	-9.54933
▁2010	-9.54962
▁суралцах	-9.54966
▁засах	-9.54992
▁Одоогийн	-9.5509
▁секс	-9.55115
▁Эхний	-9.55122
▁гүн	-9.5514
▁гомдол	-9.55281
▁итгэх	-9.55343
O	-9.55468
▁Түүнд	-9.55503
▁бүртгэл	-9.55543
▁зарчим	-9.55555
▁Иймд	-9.5557
▁гэнэт	-9.55573
ed	-9.55586
▁Үр	-9.55598
▁нэмэх	-9.55642
▁баян	-9.55762
▁Иргэд	-9.55768
▁авахгүй	-9.55824
▁барсан	-9.55825
▁гуай	-9.55945
▁Герман	-9.55962
▁Дээр	-9.55974
▁байрны	-9.55982
▁хуульд	-9.56032
▁олны	-9.56036
▁Нийслэлийн	-9.56136
▁банкны	-9.5614
▁жүжигчин	-9.56151
▁хөгжилтэй	-9.56167
өл	-9.56193
U	-9.56238
▁засвар	-9.56336
▁уух	-9.56347
▁дүүргийн	-9.56355
g	-9.56365
▁тамхи	-9.56413
▁хийлээ	-9.56432
ох	-9.56529
▁хяналтын	-9.56533
▁хорооны	-9.56558
▁нисэх	-9.56574
▁наадам	-9.56637
▁гадаадын	-9.56669
▁Төр	-9.56676
▁саналаа	-9.56722
▁цөөн	-9.56748
▁дэндүү	-9.5676
ё	-9.56881
▁киноны	-9.57014
▁үүнээс	-9.57109
▁өгөөч	-9.57176
▁хэрэглээ	-9.57181
▁технологийн	-9.57183
▁зээлд	-9.57203
▁туршлагатай	-9.57221
▁талбай	-9.57287
уудад	-9.57313
▁баталгаа	-9.57316
▁News	-9.57392
▁журам	-9.57465
▁ордог	-9.57513
▁бүтээсэн	-9.57581
▁Өнөөдрийн	-9.57658
▁болдоггүй	-9.57668
▁өөрт	-9.57679
▁хүлээх	-9.5777
▁удаад	-9.57781
▁ихээхэн	-9.57782
▁утасны	-9.5779
▁хөгжим	-9.57863
▁буу	-9.57909
▁хажууд	-9.58037
▁нэмэгдүүлэх	-9.58049
▁10-	-9.58064
▁өө	-9.58147
▁цагийг	-9.58163
ло	-9.58197
▁од	-9.58253
▁код	-9.58256
дсан	-9.58312
▁зүйлсийг	-9.58358
их	-9.584
▁оюун	-9.58402
▁холбогдсон	-9.58405
▁чөлөөтэй	-9.58477
▁Бат	-9.58556
▁харуулах	-9.58572
▁найман	-9.58633
уулж	-9.58694
▁үзүүлэлт	-9.58818
▁нэн	-9.58835
▁дөнгөж	-9.58849
▁и	-9.58871
>	-9.58889
▁цагаас	-9.58915
▁надтай	-9.5894
▁R	-9.59039
▁Бүр	-9.59127
Ө	-9.59161
_	-9.5924
F	-9.59264
Тэр	-9.59333
▁ажилдаа	-9.59341
▁охид	-9.59346
▁хүнээс	-9.5935
▁байнгын	-9.5945
▁мэддэггүй	-9.59504
▁өрөөнд	-9.59551
▁бүгдээрээ	-9.59715
▁зовлон	-9.59749
▁явцад	-9.59797
▁эрч	-9.59881
▁ялангуяа	-9.59891
h	-9.59911
▁үс	-9.59922
▁23	-9.59988
▁вакцин	-9.60056
▁царай	-9.6009
▁хийхийг	-9.60165
андаа	-9.60179
им	-9.60263
▁өчигдөр	-9.6031
▁хоёрдугаар	-9.60321
▁ширхэг	-9.60365
▁барилгын	-9.60376
▁ойролцоо	-9.60501
▁мөр	-9.6051
▁айж	-9.60531
▁сонирхол	-9.60588
дийн	-9.60673
▁үзээд	-9.60742
▁идэвхтэй	-9.60813
рах	-9.60841
▁болтол	-9.60847
▁хүйтэн	-9.60954
▁эмэгтэйчүүдийн	-9.60958
▁ийнхүү	-9.60969
▁эмнэлэгт	-9.60979
▁Үүн	-9.61007
▁$	-9.61011
▁Улсад	-9.61204
ул	-9.61225
▁нэгж	-9.61258
▁эрс	-9.6126
▁эерэг	-9.61266
▁барьсан	-9.61373
▁мэдэгдсэн	-9.6158
▁дутуу	-9.6158
▁Эцэг	-9.61616
ат	-9.61676
k	-9.61761
▁яаралтай	-9.6179
▁жагсаалт	-9.61832
▁L	-9.61868
▁эндээс	-9.61924
▁бат	-9.61994
▁төмөр	-9.62002
▁тогтоосон	-9.62009
ом	-9.62024
▁орос	-9.62032
▁бичгийн	-9.62058
▁насанд	-9.62131
ран	-9.62164
▁мэдлэг	-9.62213
▁хүүхдийг	-9.62221
▁удирдах	-9.6224
▁болохоос	-9.62329
ба	-9.62339
▁төсөв	-9.62364
▁саад	-9.62407
▁юунд	-9.62466
▁этгээд	-9.62641
▁Таныг	-9.62654
▁нэгдүгээр	-9.62669
▁стандарт	-9.62676
▁улиралд	-9.62684
▁хүүхдэд	-9.62871
▁асуух	-9.62923
▁хэдхэн	-9.62951
▁гаргаад	-9.62984
▁ал	-9.63059
▁тайлан	-9.63079
▁хүрэхгүй	-9.63081
▁мундаг	-9.63095
▁хүсвэл	-9.63315
▁долоон	-9.6333
▁хэлбэрээр	-9.63362
▁>	-9.63393
▁жилүүдэд	-9.63393
▁на	-9.63443
▁ихтэй	-9.63762
▁ц	-9.63801
▁хаалга	-9.63812
▁амын	-9.63825
▁байгууллагад	-9.63912
▁шал	-9.63928
▁угаах	-9.6393
гар	-9.63938
▁Нэр	-9.64018
▁Өглөө	-9.64098
▁төслийн	-9.64187
▁үзвэл	-9.64205
үүдийн	-9.64348
Манай	-9.6437
▁Залуу	-9.64382
▁ухаалаг	-9.64407
▁уруу	-9.64422
▁эрхэм	-9.64443
▁ялгаатай	-9.64461
тэн	-9.64535
▁хандлага	-9.64537
▁Хэдэ	-9.64564
▁бодлоор	-9.6466
▁к	-9.64689
▁өгөөд	-9.64706
▁дууссан	-9.64756
▁бар	-9.64845
▁ангид	-9.64884
▁авахад	-9.64884
▁МАХН	-9.64886
уй	-9.65028
▁буцаж	-9.65075
▁тэдгээр	-9.65133
▁хэлнэ	-9.65179
▁маск	-9.65296
▁Дээрх	-9.65303
▁алдаж	-9.65365
▁баярын	-9.65457
▁магадлалтай	-9.65462
▁эмнэлэг	-9.65469
▁боловсролын	-9.65542
▁Гал	-9.65589
N	-9.65635
▁Өөрөө	-9.65679
▁зохиол	-9.65762
Бат	-9.65825
▁худал	-9.65872
▁зорилготой	-9.65927
▁хангамж	-9.65928
▁хэдийн	-9.65934
▁80	-9.66026
▁Үнэндээ	-9.66036
▁Газар	-9.66086
▁ханш	-9.66091
▁зориг	-9.66196
▁дэлгүүр	-9.6632
▁эрсдэл	-9.66355
▁маргаан	-9.66534
▁харуулж	-9.66557
▁хос	-9.6657
▁Хан	-9.6657
▁Үгүй	-9.66767
▁цагаа	-9.6684
▁200	-9.66862
▁болоход	-9.66874
▁өнөөдрийн	-9.66947
▁хугацаагаар	-9.66989
▁a	-9.67035
▁хоосон	-9.67097
▁далд	-9.67098
П	-9.67379
▁гарахгүй	-9.67417
▁дээрээс	-9.67443
▁чөлөө	-9.67483
▁сонгож	-9.67485
▁дайны	-9.675
чихаад	-9.6755
▁саяхан	-9.67572
▁өөрчилж	-9.67579
▁ашигласан	-9.67587
▁бууруулах	-9.67673
???	-9.67692
▁тооцоо	-9.67744
▁Европ	-9.67773
▁баялаг	-9.6778
▁хэрэглэгч	-9.6779
▁ахуй	-9.67927
▁иргэдийг	-9.68075
▁сургалтын	-9.68115
▁хурд	-9.68131
▁хүнс	-9.68186
▁онцлов	-9.68237
▁Иймээс	-9.68244
▁олгодог	-9.68245
ol	-9.68318
on	-9.68408
иг	-9.68447
▁хө	-9.68546
▁шоронд	-9.68594
▁Шүүх	-9.68645
▁цай	-9.68652
▁тусгаар	-9.68652
▁ээлжит	-9.687
▁анхаарлаа	-9.6874
K	-9.68888
▁болоо	-9.68909
▁авахыг	-9.68911
▁вий	-9.68983
ик	-9.69028
▁сайхны	-9.6904
▁байдалтай	-9.69068
▁хэвээрээ	-9.69115
▁АТГ	-9.6914
▁хүсэхгүй	-9.69153
мээр	-9.69174
▁тэнгэр	-9.69191
▁гэм	-9.69208
▁захирал	-9.69215
▁цөм	-9.69225
?!	-9.6927
▁ууж	-9.69365
▁Үнэ	-9.69411
W	-9.69475
▁утгаараа	-9.69495
▁шийдвэрийг	-9.69617
▁гарлаа	-9.69631
▁үндэс	-9.69637
▁чанга	-9.69654
▁төлөвлөж	-9.69661
▁ялгаа	-9.69779
▁Эзэн	-9.69781
▁тэрэг	-9.69837
дөг	-9.69837
▁дөө	-9.69869
▁таатай	-9.69871
▁орнуудын	-9.70031
▁цол	-9.70116
▁хангаж	-9.70146
▁мэдэгдэл	-9.70272
▁хайх	-9.7031
▁байтугай	-9.70327
▁хөдлөх	-9.70412
▁!	-9.70435
▁төвд	-9.70447
▁хүмүүстэй	-9.70592
▁Энэтхэг	-9.70644
▁сангийн	-9.70674
▁хэлжээ	-9.70693
▁товч	-9.7074
▁хичнээн	-9.70794
▁аймагт	-9.7083
▁устгах	-9.70917
уур	-9.7093
▁ертөнцөд	-9.71043
өх	-9.71059
▁Өөрийгөө	-9.71079
▁Заримдаа	-9.71086
▁хязгаар	-9.71107
▁ган	-9.71161
▁айлын	-9.71238
▁унтаж	-9.71277
▁c	-9.7149
▁загварын	-9.71521
▁буудал	-9.71529
уулах	-9.71533
▁мэдэрч	-9.71538
▁тэг	-9.71567
▁анхаарч	-9.71719
▁&	-9.71735
▁төстэй	-9.71761
▁гаргана	-9.71768
▁4-	-9.71896
▁Амьдрал	-9.71898
▁чиглэл	-9.71988
▁бүтээх	-9.72032
▁шигээ	-9.72046
▁Танай	-9.7212
▁N	-9.72132
▁хойд	-9.72166
ст	-9.72187
▁хэсгийн	-9.72196
▁хориг	-9.72241
▁судалж	-9.72311
йл	-9.72329
▁хааны	-9.72336
▁алт	-9.72385
▁найзууд	-9.72407
▁хамтарч	-9.72414
▁чадвал	-9.7246
▁Хэзээ	-9.72481
▁гишүүдийн	-9.72496
▁харамсалтай	-9.72511
▁уурхай	-9.72551
гээс	-9.72593
ган	-9.72608
▁уулзах	-9.7264
▁шоу	-9.72683
йн	-9.72685
▁Хотын	-9.72686
үй	-9.72696
▁хүсэлтэй	-9.72777
▁батлах	-9.72798
▁төлөв	-9.72816
▁хойно	-9.72875
▁цэвэрлэх	-9.72878
▁хямрал	-9.72892
▁хардаг	-9.72951
ухлыг	-9.72972
▁виз	-9.73017
Энхболд	-9.73136
▁чөлөөт	-9.73179
▁ногоон	-9.73206
аргыг	-9.73229
▁үнийн	-9.73231
el	-9.73233
▁доош	-9.73413
▁эмээ	-9.73418
▁ойрхон	-9.73439
ак	-9.73479
▁хийгээгүй	-9.73501
▁хаяж	-9.73507
▁туршид	-9.73532
▁итгэдэг	-9.73613
▁нэмэгдэж	-9.73663
▁үүднээс	-9.7369
даггүй	-9.73712
чихсэн	-9.73724
▁үзэн	-9.73782
▁X	-9.73861
▁ойрын	-9.73868
лон	-9.73903
▁хоорондын	-9.73913
▁цуврал	-9.73971
▁түүнтэй	-9.73998
▁хөдөлмөр	-9.74136
▁мөнгөн	-9.74136
▁Азийн	-9.74138
▁хамтлаг	-9.74197
▁гаралтай	-9.7425
▁суулгах	-9.74404
▁Ганц	-9.74708
▁тоог	-9.74796
хи	-9.74837
▁ариутгагч	-9.74882
▁нөхөн	-9.74884
▁W	-9.74927
▁түүхэн	-9.74935
▁тусам	-9.74985
▁сонирхож	-9.75128
▁төрж	-9.75195
▁бэлгийн	-9.75212
ет	-9.75231
▁үйлдвэрлэлийн	-9.75293
▁дуусах	-9.75298
▁болгоно	-9.75344
▁шил	-9.75363
▁дууг	-9.75423
▁70	-9.75425
▁Хүү	-9.75461
гаад	-9.75519
11	-9.75528
ко	-9.75529
▁да	-9.75614
▁хөх	-9.75639
▁урлаг	-9.75645
▁Google	-9.7566
ур	-9.75666
раа	-9.7567
▁шдээ	-9.75727
энэ	-9.75729
оод	-9.7588
▁Солонгосын	-9.75935
ra	-9.75971
▁чанарыг	-9.76105
▁энх	-9.76121
▁Тэгсэн	-9.7613
▁п	-9.76145
▁илэрхийлж	-9.76191
▁хэлэлцээр	-9.76199
▁иржээ	-9.76269
▁болтугай	-9.76409
▁түүхийг	-9.76417
▁үхэх	-9.76439
▁шийдэл	-9.76494
▁өнөө	-9.76507
▁хүүхэн	-9.76561
▁я	-9.76565
▁нэрээр	-9.76566
▁явуулсан	-9.76659
▁ойлгодог	-9.7671
▁тоглоомын	-9.7676
▁вэб	-9.76799
▁нунтаг	-9.76824
снаар	-9.76828
▁үнэлгээ	-9.76855
за	-9.76938
▁Гурван	-9.76942
▁газраа	-9.76988
▁эмчилгээ	-9.77042
▁тодорхойгүй	-9.77043
▁90	-9.77099
▁эрхгүй	-9.77236
▁хүртэлх	-9.77271
▁алдах	-9.77287
жил	-9.77349
ri	-9.77358
сний	-9.77397
▁төдийгүй	-9.77401
▁Сэтгэл	-9.77428
▁дуучин	-9.77489
▁Франц	-9.77525
▁цаана	-9.7755
▁сурсан	-9.77704
▁гээч	-9.77742
▁карт	-9.77793
лав	-9.77796
it	-9.77801
▁Хэдийг	-9.77861
лэж	-9.77862
▁арьс	-9.77869
▁Хайр	-9.77951
▁1000	-9.77991
▁эрчүүд	-9.78003
▁аймаг	-9.7809
▁гарт	-9.78113
▁цэрэг	-9.78239
▁юмсан	-9.78246
▁бүлгийн	-9.78334
▁өмч	-9.78349
▁500	-9.78373
▁олгоно	-9.78381
▁ирээдүйд	-9.78386
▁хорих	-9.78391
▁өсөлт	-9.7852
▁орчны	-9.7857
үүл	-9.78604
▁үйлдвэрлэл	-9.7861
▁бодолтой	-9.78614
▁хөгжиж	-9.78633
▁тоглогч	-9.78637
нээ	-9.78656
▁Эцэст	-9.78665
▁Маргааш	-9.78668
▁мэс	-9.78735
▁хүчээр	-9.78846
▁амралтын	-9.78859
▁шийдэж	-9.7889
*	-9.78895
▁авто	-9.78902
▁нунтаглах	-9.7891
▁хөрөнгийн	-9.7891
эс	-9.78911
▁мөнгөөр	-9.78956
Баттулга	-9.7896
▁Ор	-9.78981
▁өв	-9.7904
▁сараас	-9.79058
▁бэрхшээлтэй	-9.7907
▁зогсоох	-9.79084
▁Зураг	-9.79115
▁сэргээх	-9.79132
▁гарчээ	-9.79335
ая	-9.79353
▁Нам	-9.79354
▁техник	-9.79358
▁хүрээд	-9.79512
▁бүсгүйчүүд	-9.79553
▁муутай	-9.7965
00	-9.79676
▁тодорхойлох	-9.79677
▁ирэв	-9.79679
▁бүрийг	-9.79685
▁Чингис	-9.79743
▁Багш	-9.79799
ar	-9.79871
▁нэгийг	-9.79908
▁зөвлөл	-9.79938
▁талтай	-9.79968
▁дурдсан	-9.80059
▁нэрлэдэг	-9.80205
▁үнэнийг	-9.80234
▁солих	-9.80246
▁ярилцлага	-9.80315
▁ол	-9.80358
▁байсангүй	-9.80379
▁ирээдүй	-9.80414
жиг	-9.805
▁5-	-9.80539
▁үнэт	-9.80644
шин	-9.81006
12	-9.81082
▁Эхнэр	-9.81117
▁эхчүүд	-9.81167
▁спортын	-9.81239
дэх	-9.81299
▁галт	-9.81308
▁Y	-9.81318
▁Аливаа	-9.81324
тын	-9.8134
▁спорт	-9.81358
▁ойлгосон	-9.81446
▁ариун	-9.81474
▁зогсож	-9.81475
▁бусдыг	-9.81489
▁түвшин	-9.81496
▁байхын	-9.8151
▁бүтээн	-9.81547
▁дундаж	-9.81556
вол	-9.81561
▁га	-9.81653
▁үүний	-9.81658
!"	-9.81692
▁Зүүн	-9.81718
ынхан	-9.81728
▁буцах	-9.81732
▁доор	-9.81774
▁хэлмээр	-9.81783
▁зургууд	-9.81883
▁хуулиар	-9.81888
▁хатан	-9.82076
▁үеэс	-9.82139
▁гарагт	-9.82235
!!	-9.82241
▁төдий	-9.82244
15	-9.8227
▁төгссөн	-9.82284
▁буцааж	-9.82314
▁тусдаа	-9.82465
▁хэлэхдээ	-9.82523
▁Нар	-9.82529
▁у	-9.82599
▁үргэлжилж	-9.8261
▁элс	-9.82658
▁хийхээр	-9.8278
ог	-9.82794
▁ноцтой	-9.82794
▁чуулган	-9.828
▁хулгайч	-9.828
▁бүтээлч	-9.82856
Таны	-9.82879
▁шашин	-9.82917
▁үгээр	-9.83018
▁соёлын	-9.83051
▁тавьдаг	-9.83053
▁бгаа	-9.83126
V	-9.83151
▁найдвартай	-9.8318
-19	-9.83209
▁даруй	-9.83248
▁зарах	-9.83295
w	-9.83323
▁ойлгохгүй	-9.83345
▁Найз	-9.83346
▁баталсан	-9.83347
▁Мөнгө	-9.83436
▁гараагүй	-9.83452
▁татан	-9.83562
▁жирийн	-9.83638
▁x	-9.83648
▁усан	-9.83683
▁шугам	-9.83719
гоор	-9.83784
▁орнуудад	-9.83817
▁зочид	-9.83871
ги	-9.8388
▁Бие	-9.8391
▁зөвлөж	-9.83918
▁O	-9.83921
▁ирэхэд	-9.84077
▁27	-9.84168
▁шүүхийн	-9.84179
▁байтал	-9.84184
▁мэргэжил	-9.84375
▁чухам	-9.844
да	-9.84424
▁дэмждэг	-9.84425
▁Үнэн	-9.84442
▁цөөхөн	-9.8467
▁данс	-9.84677
▁хэрэгцээ	-9.84701
▁авалт	-9.84766
▁кинонд	-9.8491
ей	-9.84914
▁бууж	-9.84922
▁28	-9.84932
▁хэрэглэгчид	-9.84991
▁дуудлага	-9.84992
▁хоёулаа	-9.84996
▁ярилцах	-9.85015
▁26	-9.85092
or	-9.85183
▁салхи	-9.85199
▁шашны	-9.85213
▁түгээмэл	-9.85214
▁тогтоол	-9.85218
▁үргэлжлүүлэн	-9.85219
▁амьсгал	-9.85244
▁руугаа	-9.8526
▁Эхлээд	-9.85277
▁цэцэг	-9.85284
▁таарна	-9.85305
▁зөрчил	-9.85327
ласан	-9.85356
инг	-9.85399
▁нээж	-9.85416
▁бороо	-9.85424
▁урлагийн	-9.85494
агч	-9.85497
▁араас	-9.85527
▁заалт	-9.85554
▁бичээд	-9.8556
лийг	-9.85619
лд	-9.85732
ус	-9.85738
хад	-9.85941
хөө	-9.85977
▁үзэгдэл	-9.86042
▁Жишээлбэл	-9.86044
▁ядуу	-9.86071
re	-9.86072
▁2000	-9.86115
▁илэрхийлэх	-9.86175
▁гарц	-9.86202
▁дөрөв	-9.8624
▁хэлэлцэж	-9.86312
▁суугаад	-9.86333
z	-9.86541
▁дугуй	-9.8655
▁шаардлагыг	-9.86583
▁ярилцаж	-9.86587
▁Аз	-9.86604
▁санааг	-9.86625
▁оюутнууд	-9.86628
▁Цагдаагийн	-9.8666
▁тэ	-9.86676
▁ухаантай	-9.86772
le	-9.86783
▁номыг	-9.86808
▁2021	-9.86898
▁зургаа	-9.86899
▁явлаа	-9.86904
▁Өндөр	-9.86925
▁сэтгэлийг	-9.87099
▁гадаа	-9.87122
▁удаагаа	-9.87143
▁харьцуулахад	-9.87167
▁суугаа	-9.87229
▁бидэнтэй	-9.87234
▁зохих	-9.87251
▁үнэнч	-9.87307
▁тутамд	-9.87357
хөн	-9.87369
▁талыг	-9.87391
▁бяцхан	-9.87424
▁БНСУ	-9.87434
▁санагдсан	-9.87435
Y	-9.87439
▁Ха	-9.87458
▁зун	-9.87459
▁нөлөөлж	-9.87525
▁бүтээгдэхүүнийг	-9.87566
▁хичээлийн	-9.87653
▁жилдээ	-9.87656
▁хийгдсэн	-9.87698
▁тэгвэл	-9.87706
▁улсууд	-9.8772
▁унаж	-9.87766
▁төгөлдөр	-9.87815
▁дотно	-9.87974
▁Ийнхүү	-9.87977
▁үзье	-9.8799
▁үүсгэх	-9.88007
▁хэлье	-9.88041
▁хохирол	-9.88058
▁о	-9.88068
▁гэхээс	-9.88083
▁дарамт	-9.88103
Хүрэлсүх	-9.8817
▁сууцны	-9.8821
▁үгс	-9.88331
▁утгатай	-9.8837
▁сонгон	-9.88422
▁санах	-9.88494
▁асуудлууд	-9.88511
▁нэмэр	-9.88543
▁холбогдолтой	-9.88589
▁аяга	-9.88708
▁ажиллагаагаа	-9.88718
лох	-9.88739
▁дар	-9.88759
▁дүрс	-9.88815
▁зөөлөн	-9.88815
▁магадлал	-9.88849
▁удирдлага	-9.89067
▁танил	-9.89072
▁сонсоод	-9.89101
▁уншсан	-9.89149
▁Хүүхдүүд	-9.8922
▁татварын	-9.89223
бал	-9.89245
▁талбайд	-9.89253
▁ай	-9.89317
▁Ах	-9.89342
джээ	-9.89377
▁наадмын	-9.89384
тер	-9.89426
▁хүрээ	-9.89449
▁хэмжээтэй	-9.89522
▁гай	-9.89591
▁Ардын	-9.89606
ва	-9.89622
жих	-9.89663
жиж	-9.89681
▁гайгүй	-9.89684
▁давж	-9.89845
▁гуравдугаар	-9.89956
▁сонгодог	-9.89965
▁тавиад	-9.90007
гий	-9.90051
▁муж	-9.90101
▁хамгаалж	-9.90101
▁өөрөөр	-9.90105
▁Нас	-9.90246
th	-9.90325
▁тахл	-9.90391
▁Зөв	-9.90604
▁эхлэл	-9.90635
▁оруулалтын	-9.9064
▁Ми	-9.90687
▁төгрөгийн	-9.90716
Энхбаяр	-9.90741
▁усанд	-9.90742
▁үнэр	-9.90742
▁төрөх	-9.90822
лэл	-9.90877
▁Чамайг	-9.90902
▁Жон	-9.90921
▁эртний	-9.90955
нь	-9.90964
▁хаашаа	-9.9114
▁8-	-9.9122
▁нэмэгдсэн	-9.91392
▁батлагдсан	-9.91402
▁баригчид	-9.91404
▁бусдаас	-9.91438
▁Мэдээ	-9.91723
▁амьдралдаа	-9.91744
▁тустай	-9.91759
▁Эм	-9.91768
▁судлах	-9.91793
▁Албан	-9.91897
▁хараа	-9.91951
▁эхэлдэг	-9.91998
▁насандаа	-9.92043
▁ханддаг	-9.92049
сныг	-9.92063
▁үүрэгтэй	-9.92082
▁хэрэглэгчийн	-9.92106
шиг	-9.92162
▁монголын	-9.92175
▁ялалт	-9.92243
тон	-9.92302
▁суусан	-9.92312
гэн	-9.92391
▁сүүлчийн	-9.92449
хны	-9.92458
▁7-	-9.9247
▁хай	-9.92495
▁хуур	-9.92523
▁долларын	-9.92542
▁тэмдэглэл	-9.92566
өөд	-9.9265
уулсан	-9.9271
▁хулгай	-9.92729
▁орноо	-9.92749
▁морь	-9.92776
▁Өөрийнхөө	-9.92788
▁далайн	-9.92802
▁зуны	-9.92802
аль	-9.92824
оосоо	-9.92838
▁гутал	-9.92869
▁J	-9.92874
▁баярлаж	-9.92906
▁зуур	-9.92955
лыг	-9.92961
▁бариад	-9.92967
▁Тэднийг	-9.92971
ья	-9.92998
▁зовж	-9.93008
▁амьдралаа	-9.93061
▁харьцангуй	-9.93138
▁дийлэнх	-9.93138
▁хичээдэг	-9.93181
▁Энэтхэгийн	-9.93183
▁аваагүй	-9.93213
%	-9.93229
▁Мал	-9.93289
▁хана	-9.93321
▁харилцааны	-9.93401
▁Британийн	-9.93492
▁хувьцаа	-9.93535
го	-9.93562
▁Ам	-9.93659
▁дахиж	-9.93741
▁Улаан	-9.93859
оороо	-9.93874
▁даасан	-9.93889
▁мөрөөдөл	-9.93933
▁биед	-9.93973
▁лам	-9.93973
▁үйлдвэрлэгч	-9.93975
▁Үйл	-9.94001
▁хорт	-9.9401
▁нөлөөлдөг	-9.94026
▁хүчирхэг	-9.94026
▁ундаа	-9.9407
▁Охин	-9.94093
снаас	-9.94104
▁сүлжээ	-9.94118
▁Тэгж	-9.94159
▁Нийгмийн	-9.94205
лагдсан	-9.94213
▁гишүүний	-9.94223
дар	-9.94234
▁ажилтнууд	-9.94272
X	-9.94284
▁утсаар	-9.94321
▁олгож	-9.94389
▁төрх	-9.9439
▁Трамп	-9.94391
лал	-9.94391
▁дэмий	-9.94401
гээд	-9.94417
▁байгуулалт	-9.94419
▁ирээдүйн	-9.94437
▁тас	-9.94442
▁нийтлэг	-9.94467
▁Ан	-9.94554
▁байдгийг	-9.94647
эж	-9.94692
алж	-9.94705
▁хамгаалалт	-9.94708
▁гадаадад	-9.94714
▁байдлаас	-9.94791
▁цус	-9.94843
▁11-	-9.94866
▁төлөөлөгч	-9.94869
▁цэцэрлэг	-9.94922
▁зэргийн	-9.94927
▁үйлдвэрлэх	-9.9494
▁мэдээллээ	-9.9497
▁Facebook	-9.94982
▁харуулсан	-9.95017
хий	-9.95022
▁байсаар	-9.95029
▁өдрөөс	-9.95102
▁урам	-9.95115
▁оруулна	-9.95131
▁ул	-9.95202
▁хэчнээн	-9.95226
▁Бидэнд	-9.95245
us	-9.95313
▁мэтээр	-9.95437
сийн	-9.95448
▁хангалуун	-9.95523
онд	-9.95543
▁бичдэг	-9.95602
▁дулаан	-9.95646
▁b	-9.95695
▁хуралдаан	-9.95699
ис	-9.95719
▁биздээ	-9.95778
ман	-9.95786
▁тохирсон	-9.95829
ѳ	-9.9585
▁чадаж	-9.95853
▁нэгний	-9.95871
ИЙН	-9.95885
▁түүн	-9.95887
нө	-9.95914
▁манайх	-9.95955
▁харна	-9.96078
▁хосууд	-9.9609
▁дурсамж	-9.96095
▁зөрчсөн	-9.96128
өөсөө	-9.96128
▁доод	-9.96145
ист	-9.96161
▁Орчин	-9.9618
▁Нэгэн	-9.96192
▁Хөл	-9.96225
▁улсаас	-9.96243
▁унтах	-9.96245
▁to	-9.96295
▁Анхны	-9.9632
▁Улмаар	-9.96435
▁тойм	-9.96437
▁харагдана	-9.96442
▁Дуу	-9.96477
st	-9.9648
▁Дээд	-9.96575
өр	-9.96577
▁залуучууд	-9.96611
▁гэрээг	-9.96638
▁үзэсгэлэн	-9.96737
▁медаль	-9.96742
▁больсон	-9.96755
▁уншаад	-9.96762
▁э	-9.96799
▁замд	-9.9696
тээ	-9.97017
▁өгье	-9.97058
ia	-9.9706
нүүд	-9.9708
▁Ай	-9.97088
14	-9.97138
▁засагт	-9.9716
инд	-9.97219
▁кофе	-9.97221
▁хоёрыг	-9.97227
▁төлж	-9.97254
▁шөнийн	-9.97349
▁өөрчлөгдсөн	-9.97351
▁Ном	-9.97378
▁даван	-9.97391
▁юун	-9.97405
▁урьж	-9.97413
▁Дэлгэрэнгүй	-9.97435
▁сэтгэлээсээ	-9.97481
▁билүү	-9.97523
аз	-9.97616
▁талдаа	-9.97633
▁тасралтгүй	-9.97657
▁доорх	-9.97729
бо	-9.97864
▁булан	-9.97913
нийг	-9.97925
▁гэгч	-9.97961
▁Цаашид	-9.97978
наа	-9.9798
▁шүүхэд	-9.97985
▁Зам	-9.97997
▁урсгал	-9.97999
▁300	-9.98
▁хайрлаж	-9.98005
хай	-9.98053
▁хийлгэх	-9.98117
▁улирал	-9.98298
▁хөөрхий	-9.98301
▁дундуур	-9.98317
▁зохиолч	-9.98333
▁хүсэх	-9.98363
▁талууд	-9.98446
▁эхээр	-9.98464
▁хэ	-9.98476
▁үүргээ	-9.9851
▁хүүхдүүдэд	-9.98525
▁зөвлөлийн	-9.98551
▁ан	-9.98555
чдын	-9.98559
▁хөгжмийн	-9.98586
▁тоглосон	-9.986
▁хамрагдах	-9.98627
▁Сонгуулийн	-9.98663
гэж	-9.98688
▁гадуур	-9.98748
▁хан	-9.98884
▁үзүүлсэн	-9.9892
▁удирдагч	-9.98934
▁Германы	-9.98948
▁дагаад	-9.98953
▁дан	-9.98961
▁санд	-9.98978
▁олдохгүй	-9.99021
▁хөнгөн	-9.99033
▁эхэлжээ	-9.99084
▁нэгэнт	-9.9911
шил	-9.99182
▁автомат	-9.99205
▁бодвол	-9.9922
▁дэглэм	-9.9922
▁зохицуулах	-9.99253
▁бүтэц	-9.99378
▁байснаа	-9.99383
тар	-9.9941
▁ая	-9.99491
▁Ингэхдээ	-9.99557
даад	-9.99564
▁төвийн	-9.99597
▁сайтай	-9.99598
▁сүм	-9.99625
▁салах	-9.99733
▁Хэрэг	-9.99816
▁газрууд	-9.99883
▁Илүү	-9.99886
▁үзүүлдэг	-9.99887
▁үзэхэд	-9.99907
▁захиргааны	-9.99941
ээрэй	-9.99976
лл	-10
▁хэрэглээний	-10.0002
▁аврах	-10.0003
at	-10.0003
▁нөлөөлөх	-10.0008
▁асуудлын	-10.0015
▁тамирчин	-10.0016
▁хиймэл	-10.0016
com	-10.0018
▁даатгалын	-10.0023
▁сэтгүүлч	-10.0026
үүлэх	-10.0027
▁нутгаар	-10.0027
▁хэнийг	-10.0031
▁компанид	-10.0032
▁багц	-10.0046
▁шуурхай	-10.0047
▁зарцуулах	-10.0054
▁түргэн	-10.0061
ди	-10.0061
▁эрхлэх	-10.0064
▁U	-10.0067
▁үргэлжлэх	-10.0067
▁тонн	-10.0078
▁явдлыг	-10.0079
▁хэм	-10.0079
▁өвчний	-10.0079
▁ийн	-10.008
▁хүлээсэн	-10.0081
▁хэний	-10.0081
▁Секс	-10.0081
▁Өчигдөр	-10.0083
▁үнийг	-10.0084
▁Саяхан	-10.0086
▁The	-10.0087
▁Байгаль	-10.0088
▁р	-10.0092
ad	-10.0095
▁завгүй	-10.0097
▁нээ	-10.0104
▁6-	-10.0105
ма	-10.0106
▁хамаарна	-10.0111
▁Ядаж	-10.0112
▁цас	-10.0116
▁сал	-10.0117
▁вэбсайт	-10.012
ro	-10.0126
▁ажилчид	-10.0136
▁оролцоо	-10.014
▁сайтар	-10.0147
▁ихэд	-10.015
▁системийн	-10.0152
▁мэдэл	-10.0153
▁хянах	-10.0154
▁заяа	-10.0156
▁түүнийгээ	-10.0157
▁зөвлөх	-10.0157
▁Жил	-10.0164
▁2007	-10.0185
▁татсан	-10.0187
▁хамаг	-10.0191
..."	-10.0193
▁аргууд	-10.0196
то	-10.0203
▁асуудалтай	-10.0205
▁зөвшөөрч	-10.0213
▁тухтай	-10.0215
▁багагүй	-10.0224
▁9-	-10.0233
▁аялах	-10.0235
чээ	-10.0238
▁сууна	-10.0256
▁шүүгч	-10.026
▁автомашин	-10.0265
▁багатай	-10.0268
▁Манайх	-10.027
▁ашгийг	-10.0271
▁зөвшөөрсөн	-10.0272
▁асуу	-10.0274
30	-10.0274
▁харилцах	-10.0274
▁Мэргэжлийн	-10.0276
лог	-10.0276
▁өгөөгүй	-10.0281
▁эрүү	-10.0281
▁ирээгүй	-10.0282
▁2006	-10.0283
рийн	-10.0287
угаалгын	-10.029
▁жимс	-10.0295
үүлж	-10.0295
▁p	-10.0302
▁элдэв	-10.0304
▁эхлүүлэх	-10.0305
▁бичжээ	-10.0306
▁Шар	-10.0308
▁асуусан	-10.031
▁байгаагаар	-10.0311
▁Яаж	-10.0316
▁живх	-10.0328
▁авчээ	-10.0329
▁юмыг	-10.0336
▁ерөөсөө	-10.0339
баяр	-10.0342
▁хадгалж	-10.0344
▁мэдрэх	-10.0344
▁тусалж	-10.0347
ic	-10.0362
▁бич	-10.0363
▁ургамал	-10.0369
▁түлхүүр	-10.038
рээ	-10.0382
▁шатанд	-10.0385
▁бэлтгэх	-10.039
АН	-10.0399
▁биелүүлэх	-10.04
▁Re	-10.0402
▁Өнөө	-10.0402
▁кг	-10.0405
▁хэрнээ	-10.0406
▁нэвтрүүлэг	-10.0406
▁Сангийн	-10.0409
▁тайлбарлаж	-10.0417
▁жилээр	-10.0427
▁Элчин	-10.0437
ро	-10.0438
▁хачин	-10.044
▁хэрэгжиж	-10.0442
лэсэн	-10.0466
▁илэрхийлсэн	-10.0469
es	-10.047
▁урамшуулал	-10.0471
▁шаарддаг	-10.0472
▁ертөнцийн	-10.0475
▁хамааралтай	-10.048
▁хийн	-10.0485
▁бн	-10.0486
ра	-10.0491
▁улсыг	-10.0493
▁сэтгэлд	-10.0501
▁дэвших	-10.0501
лагч	-10.0501
ur	-10.0505
▁f	-10.0506
▁орохгүй	-10.0508
▁хашаа	-10.0511
▁Бурханд	-10.0512
▁эл	-10.0521
өөрөө	-10.0523
▁угаасаа	-10.0523
Нэг	-10.0523
▁асуудлаа	-10.0525
▁ирэхгүй	-10.0536
▁болсныг	-10.0539
▁Сүүлд	-10.054
▁Үг	-10.054
▁жагсаал	-10.054
▁захиалга	-10.0542
▁хүмүүсээс	-10.0545
▁үүсвэр	-10.0551
луулах	-10.0561
▁шд	-10.0567
Е	-10.0571
▁хэрээр	-10.0573
▁Хувь	-10.0573
▁төрөлхтөн	-10.0581
▁нийслэл	-10.0583
▁чадсангүй	-10.0583
▁загас	-10.0585
▁шигшээ	-10.0586
▁юуны	-10.0592
шгүй	-10.0593
▁баатар	-10.0597
▁нэрийн	-10.0599
▁хүнээ	-10.06
▁Удахгүй	-10.0605
▁алх	-10.0608
▁шинжилгээний	-10.0609
▁тэс	-10.0617
▁Өө	-10.0619
▁тор	-10.0623
▁багадаа	-10.0623
▁1.	-10.0626
▁эвгүй	-10.0627
▁хаха	-10.0629
▁нартай	-10.0631
▁хурлын	-10.0646
ку	-10.0659
▁Хэдий	-10.0664
оно	-10.0665
цан	-10.0666
▁Японд	-10.0668
▁яа	-10.0675
▁өөрөөсөө	-10.0682
дэж	-10.0682
▁цоо	-10.0683
▁үндэстэн	-10.0683
соор	-10.0685
үүн	-10.0687
▁хувьсгал	-10.0689
▁программ	-10.0691
▁шийд	-10.0701
▁дотоодын	-10.0701
▁Францын	-10.0703
▁олгосон	-10.0703
▁гарцаагүй	-10.0703
▁Нью	-10.0704
▁Сар	-10.0704
▁бутлах	-10.0705
▁арилгах	-10.0706
▁Цахим	-10.0707
▁20-	-10.0715
▁суудаг	-10.0721
▁хичээж	-10.0725
▁менежер	-10.0733
▁хур	-10.0737
үүдэд	-10.0742
▁км	-10.0742
▁дууны	-10.0742
ль	-10.0745
▁авахаар	-10.0748
▁халамж	-10.075
ха	-10.0754
▁юү	-10.0758
▁явахад	-10.076
аач	-10.0763
▁үнээр	-10.0763
▁аян	-10.0764
▁төгсгөл	-10.0765
▁бүхэндээ	-10.0766
▁дундаа	-10.0768
▁мөч	-10.0769
▁бөхийн	-10.0774
▁Санхүүгийн	-10.0774
▁хараахан	-10.0775
▁Газрын	-10.0775
▁Хот	-10.0776
▁ажиллуулах	-10.0782
▁бүртгэлийн	-10.0788
▁амрах	-10.0788
la	-10.0792
+	-10.0793
үүр	-10.08
▁сууриа	-10.0804
▁Эл	-10.0805
рын	-10.0819
▁овоо	-10.0822
▁гүй	-10.0828
▁хайрлах	-10.083
ЫН	-10.083
▁сүү	-10.0832
▁удирдлагууд	-10.0837
▁тавдугаар	-10.0839
▁унасан	-10.0841
▁нээрээ	-10.0844
▁on	-10.0848
▁бор	-10.085
▁Баян	-10.085
▁явуулдаг	-10.085
19	-10.0857
▁байршил	-10.0859
▁өргөдөл	-10.0873
▁хүндрэл	-10.0873
▁хангасан	-10.0874
▁Холбоо	-10.0874
▁мэргэжилтнүүд	-10.0876
▁үйлдсэн	-10.0881
нийхээ	-10.0882
▁Гэртээ	-10.0884
рэн	-10.0888
гөө	-10.089
▁нүдэнд	-10.0891
▁галзуу	-10.0894
оё	-10.0898
ки	-10.0902
▁онц	-10.0905
▁явахгүй	-10.0916
▁хорио	-10.0918
▁авгай	-10.0927
▁өөрчлөгдөж	-10.0942
▁ардчилсан	-10.0944
▁Сан	-10.0945
▁Хятадад	-10.096
▁тов	-10.0964
▁шалтгаанаар	-10.0966
вар	-10.0967
▁Юм	-10.0967
un	-10.0971
єє	-10.0977
▁тоглодог	-10.0979
▁зургийн	-10.0987
дал	-10.099
▁хичээ	-10.0996
▁чадал	-10.0999
▁өвөрмөц	-10.1011
▁удирдлагын	-10.1011
▁явагдаж	-10.1012
лөө	-10.1016
▁холбоотойгоор	-10.1016
▁хүрээлэн	-10.1017
▁шүлэг	-10.1017
▁яс	-10.102
▁гараар	-10.1021
▁сэтгүүл	-10.103
▁Машин	-10.1031
▁байрлах	-10.104
▁Ус	-10.1045
▁зарласан	-10.1048
▁тогтолцоо	-10.1048
▁Бараг	-10.105
▁Е	-10.1052
▁эхлэв	-10.1052
уулдаг	-10.1054
▁автобус	-10.1058
▁алтан	-10.1062
▁Тэдгээр	-10.1067
▁анхаар	-10.1069
▁Чамд	-10.1071
▁илгээх	-10.1071
▁нүүрсний	-10.1075
▁Хуучин	-10.1085
▁цэцэрлэгт	-10.1097
▁гаргажээ	-10.1101
▁зохицуулалт	-10.1101
▁яамны	-10.1102
▁эрсдэлтэй	-10.1103
▁март	-10.1113
▁анхаарлыг	-10.1117
▁мэдэгджээ	-10.1117
▁агуулга	-10.112
▁Наад	-10.112
18	-10.1124
▁Боловсрол	-10.1125
▁зэрэгцээ	-10.1134
▁цэнэтэй	-10.1141
▁даваа	-10.1146
Одоо	-10.1148
▁шинэчлэл	-10.1149
▁нэлээн	-10.1152
▁харвал	-10.1152
▁тэмцэж	-10.1152
▁ДАШТ	-10.1152
:)	-10.1156
▁хандсан	-10.1158
▁саван	-10.1158
▁дав	-10.1158
▁бүхнээ	-10.1158
▁ахмад	-10.1159
▁камер	-10.1161
▁хүрнэ	-10.1166
▁уламжлалт	-10.1171
▁дуулж	-10.118
▁секунд	-10.1182
▁зорьж	-10.1187
▁суралцаж	-10.1188
от	-10.1198
▁Дахин	-10.1206
▁of	-10.1213
▁ойн	-10.1214
▁санагдаад	-10.1224
▁холбогдуулан	-10.1224
▁туршиж	-10.1225
▁цаас	-10.1239
▁хөрш	-10.1241
ож	-10.1242
▁танилцуулж	-10.1242
▁наадамд	-10.1245
саа	-10.1251
▁уралдаан	-10.1252
чилж	-10.1256
▁m	-10.1256
▁нээлт	-10.1256
▁төгрөгөөр	-10.1258
▁бодлогыг	-10.1259
▁хүүхдүүдийн	-10.126
▁өвөө	-10.1263
▁орлоо	-10.1263
▁осол	-10.1264
▁тайлбарлах	-10.1265
▁ашиглалтад	-10.1268
▁хуваалцах	-10.1272
▁түүхэнд	-10.1274
▁зүг	-10.1275
▁дохио	-10.1288
▁Христ	-10.1289
чиж	-10.1293
▁бүхэл	-10.1303
▁хөтөлбөрт	-10.1308
▁зарж	-10.1312
шиж	-10.1319
▁сонс	-10.1337
лэ	-10.1344
▁баймаар	-10.1345
▁дарна	-10.1347
ель	-10.1348
et	-10.1348
уулна	-10.135
▁амаргүй	-10.1351
▁айдас	-10.1351
▁нойр	-10.1359
▁системийг	-10.1362
▁хань	-10.1362
▁онлайнаар	-10.1364
▁зүүд	-10.1365
хуу	-10.1366
▁Эмч	-10.1374
▁өнцөг	-10.1378
▁харуул	-10.138
▁+	-10.1383
▁бүүр	-10.1402
▁12-	-10.1403
▁шаардаж	-10.1404
ваа	-10.1404
▁уулзсан	-10.1406
▁Apple	-10.1407
▁болгонд	-10.1412
▁зогсохгүй	-10.1425
▁унах	-10.1426
нөөс	-10.1427
▁төрөлхтний	-10.1439
▁сурагч	-10.1439
▁алд	-10.1451
▁өдрүүд	-10.1454
▁бөөн	-10.1456
▁суу	-10.1456
▁Таван	-10.1457
▁унт	-10.1458
▁охины	-10.1459
лга	-10.1462
▁нэгэнд	-10.1462
▁На	-10.1463
▁санхүүжилт	-10.1466
▁нэгнийг	-10.1466
▁биенээ	-10.1469
▁хүр	-10.1471
▁цааз	-10.1471
▁уучлаарай	-10.1477
▁цом	-10.1477
▁e	-10.1477
▁Тэгэхэд	-10.1478
▁эхийн	-10.1481
гэр	-10.1484
▁барил	-10.1485
нээсээ	-10.1492
▁гадны	-10.1496
▁киног	-10.1499
▁тай	-10.1499
алт	-10.1501
алсан	-10.1502
эт	-10.1503
▁Да	-10.1504
▁Хүнд	-10.1509
▁өвөл	-10.1513
тэр	-10.1515
▁наймаа	-10.1518
▁Хуулийн	-10.1521
▁бодоход	-10.1521
▁тооцох	-10.1531
▁хүүгээ	-10.1538
▁биедээ	-10.1538
▁зэвсэг	-10.1541
▁техникийн	-10.1545
ти	-10.1546
▁Ал	-10.1546
▁эрдэмтэд	-10.1549
▁Америкт	-10.1558
▁иддэг	-10.1561
рал	-10.1564
▁Баруун	-10.1565
▁дараахь	-10.1566
чихлаа	-10.1566
▁тавь	-10.1572
▁h	-10.1579
▁хуралд	-10.158
▁тэмдэглэх	-10.158
▁боль	-10.1584
▁хүргэсэн	-10.1587
▁Жижиг	-10.1588
▁өгчээ	-10.1589
▁үгээ	-10.1592
▁Ази	-10.1593
▁Ма	-10.1595
▁санаатай	-10.1596
▁Ли	-10.1598
▁45	-10.1603
▁Хувийн	-10.1604
▁тогтоож	-10.1607
20	-10.1608
▁төрөөс	-10.1612
жилт	-10.1617
▁суурьтай	-10.162
▁зо	-10.162
▁хөлөг	-10.1624
▁хэрүүл	-10.1638
▁Путин	-10.164
▁хурц	-10.1642
▁сэтгэлээ	-10.1645
ян	-10.1646
▁мэндэд	-10.1647
▁амралт	-10.1649
▁Британи	-10.1655
▁есдүгээр	-10.166
▁шив	-10.1662
▁шим	-10.1675
▁унш	-10.1676
▁өнгөрч	-10.1683
ch	-10.1688
▁суудал	-10.169
мж	-10.169
▁даалгавар	-10.1697
▁Ү	-10.1699
▁хүртэх	-10.17
▁<	-10.1703
▁Ангилал	-10.1706
▁нүүрс	-10.1707
▁үзлээ	-10.1709
▁хамаатай	-10.1709
▁тариа	-10.171
▁Бизнес	-10.1713
▁хөлс	-10.1715
▁туршилт	-10.1717
▁үндэслэл	-10.172
▁цонх	-10.1721
рүү	-10.1731
▁менежмент	-10.1735
▁гайхаж	-10.1736
▁Дуучин	-10.1738
▁байснаас	-10.1739
▁35	-10.1741
▁Манайд	-10.1754
гал	-10.1755
ших	-10.1758
▁ногоо	-10.1758
▁хаах	-10.1761
бу	-10.1762
il	-10.1763
▁сүнс	-10.1766
▁найр	-10.1768
ут	-10.1769
▁өрсөлдөх	-10.1772
▁дөрөвдүгээр	-10.1772
▁хүрээгүй	-10.1775
▁хураалт	-10.1777
▁Нэгэнт	-10.1782
▁дээгүүр	-10.1784
лгүй	-10.1787
▁хая	-10.1795
50	-10.1799
▁Намын	-10.18
▁жилээс	-10.1801
▁буруутай	-10.1801
▁хандив	-10.1805
▁зөвшөөрөх	-10.1808
▁Турк	-10.1809
▁холбогдол	-10.181
▁захидал	-10.181
▁нэвтрэх	-10.181
тэл	-10.1814
бол	-10.1814
▁шалгуур	-10.1815
▁нэрээ	-10.1833
▁санаанд	-10.1833
▁түүхтэй	-10.1836
▁чимээгүй	-10.1842
оп	-10.1848
эндээ	-10.1849
▁цохилт	-10.185
▁Аймгийн	-10.1853
▁Бар	-10.1864
▁Замын	-10.1867
▁уучлалт	-10.187
▁төсөвт	-10.1873
▁Баяр	-10.1882
▁Эрэгтэй	-10.1883
▁тансаг	-10.1886
▁мэдэгдэж	-10.1886
▁гаргалаа	-10.1889
13	-10.1889
өв	-10.1891
▁үйлчлэх	-10.1897
▁амттай	-10.191
▁талаараа	-10.1915
үүлсэн	-10.1921
▁нөлөөлсөн	-10.1924
▁бүртгэгдсэн	-10.1925
▁сонгогдсон	-10.1925
▁зорилт	-10.1928
▁шид	-10.1935
ес	-10.1936
▁гүйцэтгэж	-10.1942
▁бүтээж	-10.1947
▁ороогүй	-10.1949
▁тодорхойлж	-10.1949
as	-10.1952
▁казино	-10.1954
▁түмэнд	-10.1957
▁дэг	-10.1958
лсан	-10.1958
▁толь	-10.1964
▁зориулан	-10.1964
▁тулгарч	-10.1967
▁хавар	-10.1968
▁Home	-10.1969
▁утаа	-10.1971
▁машиныг	-10.1971
▁HD	-10.1973
▁таарсан	-10.1981
▁шуу	-10.1983
▁ажилтай	-10.1984
▁Хоол	-10.1993
▁Ю	-10.1996
▁жирэмсэн	-10.2001
▁хамааран	-10.2001
▁Хөдөө	-10.2003
▁тодорхойлолт	-10.2003
▁улирлын	-10.2005
▁хэлснээр	-10.2007
li	-10.201
▁хөтөлбөрийг	-10.2018
▁Нийгэм	-10.2018
▁нөөцийн	-10.2024
▁өмсөх	-10.2027
▁сурталчилгаа	-10.2028
Баяр	-10.2034
▁өнгөрөх	-10.2039
▁оновчтой	-10.204
▁чиглэлийн	-10.2047
▁тэмдэглэж	-10.2061
▁амт	-10.2063
▁хилийн	-10.2065
дгийг	-10.2067
рэх	-10.2067
▁орших	-10.2073
АР	-10.2074
▁дэ	-10.2075
▁төлбөрийн	-10.2078
Тийм	-10.2083
▁зовох	-10.2085
▁нийслэлийн	-10.2093
▁эмийн	-10.2097
17	-10.2099
▁тэдгээрийг	-10.21
▁асан	-10.2104
▁алс	-10.2104
лага	-10.2105
▁Урьд	-10.211
▁багт	-10.2112
▁гэтэл	-10.2118
▁дэмжсэн	-10.2119
▁хааяа	-10.2119
▁яруу	-10.2121
▁өнөөдрий	-10.2121
▁бодитой	-10.2121
нуудыг	-10.2122
▁то	-10.2126
▁Эндээс	-10.2129
▁ялгаагүй	-10.213
am	-10.214
▁бөө	-10.214
▁шалгалтын	-10.2142
▁ихийг	-10.2148
▁Эрдэнэ	-10.215
▁бохир	-10.2154
наасаа	-10.2155
сын	-10.2156
▁Тодруулбал	-10.2156
▁Жинхэнэ	-10.2159
▁ойролцоогоор	-10.2159
▁Ши	-10.2161
▁татгалзах	-10.2169
▁Санал	-10.2171
гоос	-10.2172
йг	-10.2172
гуу	-10.2176
▁жагсаалтыг	-10.2183
▁хүсэлтийг	-10.2186
▁Биднийг	-10.2187
▁жүжиг	-10.2196
▁Муу	-10.2199
ок	-10.22
▁сэтгэлтэй	-10.2206
▁харанхуй	-10.2207
▁найруулагч	-10.2209
▁чимээ	-10.2211
▁тийш	-10.2214
▁Хэл	-10.2219
арч	-10.2219
▁гарвал	-10.2222
▁ордонд	-10.2229
▁нислэг	-10.223
▁төлөвлөсөн	-10.2235
▁талархаж	-10.2235
▁үхсэн	-10.2238
▁чиглэлд	-10.224
▁ф	-10.2244
вч	-10.2249
▁айдаг	-10.225
▁хариулах	-10.2252
▁эхэнд	-10.2259
дох	-10.2269
▁Израил	-10.2269
▁the	-10.2271
▁хийжээ	-10.2278
▁үүсгэн	-10.228
▁хийвэл	-10.228
▁жижигхэн	-10.2282
▁зээлийг	-10.2283
▁шалтгааныг	-10.2292
▁эрэлт	-10.2295
▁орлогын	-10.2314
▁бичнэ	-10.2315
▁хажуугаар	-10.2316
▁Си	-10.2316
▁хамтарсан	-10.2318
▁ккк	-10.2319
▁Асуулт	-10.232
▁дундаас	-10.2324
▁тосны	-10.2326
▁рүүгээ	-10.2332
▁Христийн	-10.2332
▁амжилтанд	-10.2333
доллар	-10.2333
▁өртөг	-10.234
▁байгуулалтын	-10.2342
▁Ро	-10.2343
▁Дан	-10.2348
лэгч	-10.235
▁явдлын	-10.2354
▁шилжих	-10.2355
▁илтгэл	-10.2355
хэд	-10.2356
▁борлуулах	-10.2357
▁хэлэхгүй	-10.2364
▁байн	-10.2364
▁не	-10.2365
▁хугацаатай	-10.2374
j	-10.2376
▁хэлээгүй	-10.2377
▁Хо	-10.2378
▁өөрчлөлтийг	-10.2382
▁гараг	-10.2382
лин	-10.2383
▁учрыг	-10.2394
▁ноён	-10.2394
АЛ	-10.2396
▁Дөрвө	-10.2399
бай	-10.2406
▁үүсэх	-10.2408
гэ	-10.2412
is	-10.2413
▁таагүй	-10.2415
иж	-10.2416
▁намар	-10.2419
▁эрхээ	-10.2427
гууд	-10.2428
▁маяг	-10.2429
▁амьтад	-10.2434
▁хаагчид	-10.2439
▁иргэдээ	-10.2439
▁2005	-10.244
▁өнгөтэй	-10.2441
▁Шилдэг	-10.2444
▁идсэн	-10.2445
▁Холбооны	-10.245
▁эрин	-10.2451
▁засл	-10.2462
▁байгаагаас	-10.2462
▁хамтлагийн	-10.2463
▁Бүсгүй	-10.2466
АА	-10.2467
▁гайхамшигтай	-10.247
▁жоохон	-10.2475
▁зориулагдсан	-10.2475
▁in	-10.2484
▁худалдах	-10.2485
▁Эс	-10.249
▁телевизийн	-10.2492
▁хэвлэлийн	-10.2493
▁интернэт	-10.2499
▁боловсруулж	-10.2499
▁новш	-10.2507
01	-10.2508
▁уулын	-10.2508
▁Су	-10.2514
▁зардлыг	-10.2515
▁Хөрөнгө	-10.2519
хийн	-10.2519
▁нэмэгдэх	-10.2521
▁алдар	-10.2534
хар	-10.2535
▁үзэсгэлэнтэй	-10.254
▁тат	-10.2541
▁амгалан	-10.2548
▁Өдрийн	-10.255
▁интернет	-10.2551
▁уучлал	-10.2552
гай	-10.2553
▁Австрали	-10.2554
▁суурилсан	-10.2556
▁нилээд	-10.2556
▁Олимп	-10.2558
▁процесс	-10.2562
▁Жич	-10.2565
▁зайл	-10.2569
▁хоолоо	-10.257
▁түүхийн	-10.257
▁танилцуулах	-10.2574
▁ачаа	-10.2576
ter	-10.2587
▁байгаасай	-10.2587
мал	-10.2588
▁өөд	-10.259
▁сонгоно	-10.2593
▁өсч	-10.2594
▁тохиолдсон	-10.2597
na	-10.2604
▁хуудсууд	-10.2605
▁суурин	-10.2613
▁махбод	-10.2618
▁цэргүүд	-10.2619
дэн	-10.2623
▁шавь	-10.2624
▁Ка	-10.2627
▁хөдөлмөрийн	-10.2628
▁нулимс	-10.2637
▁удирдаж	-10.2638
▁гаригт	-10.2642
▁~	-10.2646
▁олоод	-10.2647
хаар	-10.2647
▁жагсаалтад	-10.266
▁станц	-10.2661
▁салж	-10.2662
me	-10.2665
▁Эрчүүд	-10.2666
▁Бурханыг	-10.2669
ед	-10.267
уудаас	-10.2672
▁ойлго	-10.2672
рт	-10.2674
▁клуб	-10.2674
▁өдгөө	-10.2679
▁эзэмших	-10.2679
▁химийн	-10.2679
▁санагдана	-10.2679
▁инженер	-10.2679
▁тойронд	-10.2679
▁заавар	-10.2679
▁хүртсэн	-10.2679
▁Видео	-10.2682
▁хаагч	-10.2684
▁хал	-10.2684
ум	-10.2689
▁санагдах	-10.2692
▁утсаа	-10.2692
чихдаг	-10.2703
өж	-10.271
▁тэмцэл	-10.271
▁чадварыг	-10.2712
уудаа	-10.2715
эгч	-10.2716
▁хүсээгүй	-10.272
▁өвчтэй	-10.2723
▁тутам	-10.2729
▁100%	-10.2734
Хүн	-10.2735
▁Ман	-10.2736
▁санааны	-10.274
▁тэжээл	-10.2742
▁жуулчлалын	-10.2744
▁ну	-10.2748
▁чулуун	-10.2755
▁Windows	-10.2764
▁өөрсдийнхөө	-10.2766
▁авахын	-10.2767
▁29	-10.277
▁гэ	-10.2773
мб	-10.2774
▁d	-10.2775
▁авчрах	-10.2781
▁байг	-10.2786
▁юманд	-10.2787
▁уламжлал	-10.2796
▁ертөнцийг	-10.2797
▁ун	-10.2797
▁засаглал	-10.2798
▁бүрдүүлэх	-10.28
▁15-	-10.2801
Элбэгдорж	-10.2801
▁мөрдөх	-10.2804
▁голын	-10.2804
▁Энгийн	-10.2808
▁өргөж	-10.2809
▁зориулалттай	-10.281
▁бүртгүүлэх	-10.2811
▁байрлал	-10.2812
▁үеийг	-10.2815
▁Москва	-10.2815
▁дамжин	-10.2819
▁итгэ	-10.282
▁хичээх	-10.2834
▁гаргахгүй	-10.2835
▁албанд	-10.2844
▁хүүг	-10.2844
▁байгаам	-10.2844
▁Хамт	-10.2844
▁амжаагүй	-10.2845
▁холбогдож	-10.2845
▁тэдэнтэй	-10.2848
▁Соёл	-10.2851
▁аймшигтай	-10.2856
▁үнэлж	-10.2857
▁батлан	-10.2857
▁насыг	-10.2858
▁тухайгаа	-10.2862
▁хасах	-10.2863
▁парламент	-10.2864
▁Ариун	-10.2865
▁брэнд	-10.2867
дсэн	-10.2868
Оюун	-10.2868
▁шинжтэй	-10.2876
▁уншигч	-10.2879
▁Энэтхэгт	-10.2881
▁тохиолддог	-10.2887
▁маягаар	-10.289
▁байгуулна	-10.2892
чихээд	-10.2896
▁харилцаанд	-10.2897
▁энийг	-10.2898
▁чам	-10.2899
▁далай	-10.2914
▁32	-10.2916
▁магад	-10.292
▁сургуулиуд	-10.2921
▁хун	-10.2925
▁тоглолтын	-10.2925
▁тэнгис	-10.2929
▁хүртлээ	-10.293
ir	-10.293
▁урьдчилсан	-10.293
▁адуу	-10.2931
▁буурсан	-10.2932
▁азтай	-10.2933
16	-10.2933
▁хүүхдүүдийг	-10.2935
чиг	-10.2936
▁шилжүүлэх	-10.2941
▁Кино	-10.2947
▁цөөнгүй	-10.2949
▁тийшээ	-10.2952
▁айх	-10.2954
-1	-10.2954
▁хөдөлгөөний	-10.2955
▁талаархи	-10.2956
▁таарч	-10.2958
▁хүмүүсээ	-10.2959
▁түүхий	-10.2964
▁засал	-10.2967
J	-10.2969
▁ямагт	-10.2971
▁хөгшин	-10.2972
▁болгоомжтой	-10.2972
▁даргыг	-10.2974
▁ни	-10.2986
▁таних	-10.2987
▁байгууллагаас	-10.2989
▁Z	-10.2991
дорж	-10.2991
▁хутга	-10.2993
▁тархи	-10.2993
▁хариуцлагатай	-10.301
▁хэрвээ	-10.3015
▁төсөөлж	-10.3022
▁тохирох	-10.3027
▁хайрын	-10.3028
аасай	-10.3028
▁Долоо	-10.303
▁авлага	-10.303
ly	-10.3032
▁дарс	-10.3033
▁бил	-10.3035
▁Хүрэлсүх	-10.3036
▁тогооны	-10.3041
▁хамгаалагч	-10.3043
үн	-10.3044
▁үүсгэж	-10.3045
▁там	-10.3048
▁дуусгах	-10.305
▁чадалтай	-10.3051
ul	-10.3052
▁зүйлээс	-10.3053
▁амлалт	-10.3054
▁өөрийг	-10.3055
▁судлаачид	-10.306
▁ардын	-10.3064
аб	-10.3064
▁гэрээний	-10.3067
▁өрх	-10.3067
▁тэрхүү	-10.3068
▁илт	-10.3072
▁туулах	-10.3074
лана	-10.3077
мэл	-10.3081
ахгүй	-10.3081
▁Шууд	-10.3082
▁баталж	-10.3084
жи	-10.3087
▁=	-10.3089
▁эрхтэн	-10.3092
аш	-10.3099
▁суурийг	-10.31
▁байгаагийн	-10.31
▁есөн	-10.3101
▁ж	-10.3101
▁Хэрхэн	-10.3103
▁явуул	-10.3107
▁төлбөргүй	-10.3108
▁тусмаа	-10.3111
▁хөгжих	-10.3113
▁Итали	-10.3115
Хар	-10.3116
▁хөтөлбөрийн	-10.3117
▁гуйж	-10.313
▁Над	-10.3133
▁хүчийг	-10.3136
▁ажлууд	-10.3136
40	-10.3138
▁оролцогч	-10.3142
▁Тайлбар	-10.3143
тайгаар	-10.3145
▁хайрцаг	-10.3147
▁Нэгдсэн	-10.3149
▁файл	-10.3156
$	-10.3159
яа	-10.316
▁шувуу	-10.3161
▁шилэн	-10.3165
▁тэмцээний	-10.3167
▁ярь	-10.3168
▁хуурамч	-10.3174
▁оруул	-10.3185
▁мөнгөтэй	-10.3186
▁оролдож	-10.3186
▁сонгуулиар	-10.3189
▁буцаан	-10.319
▁асуултад	-10.3191
▁ерөнхийдөө	-10.3192
ев	-10.3194
▁амин	-10.3196
▁болих	-10.3197
▁нүх	-10.3198
▁Мэдээлл	-10.3198
▁түрүүлж	-10.3201
▁болчих	-10.3202
▁эргэлт	-10.3207
арга	-10.3212
луулсан	-10.3213
▁Уран	-10.3219
▁бааха	-10.3219
▁онол	-10.322
▁мөртлөө	-10.323
▁хэрэгслийн	-10.323
▁өгүүлбэр	-10.323
▁өгвөл	-10.323
▁хянаж	-10.3234
▁Хөгжлийн	-10.3237
▁Де	-10.3238
▁хэрэглэсэн	-10.324
▁Тэнгэр	-10.3247
▁хүчингүй	-10.3248
▁заах	-10.3249
▁дэлгэц	-10.3253
▁эмзэг	-10.3254
▁асуухад	-10.3254
▁ярьжээ	-10.3259
▁эрдэм	-10.3267
ээгүй	-10.3269
▁таалагдсан	-10.3274
▁өвлийн	-10.3278
▁багтсан	-10.3282
▁хийхдээ	-10.3293
▁бусаар	-10.3298
▁нүдээ	-10.3301
▁ёслол	-10.3302
▁Юуны	-10.3304
▁харахгүй	-10.3309
▁Са	-10.3315
▁хувьдаа	-10.3318
▁илэрсэн	-10.3319
▁ярина	-10.3319
▁хязгаарлалт	-10.3324
▁хүндэтгэл	-10.3328
вөл	-10.3329
рай	-10.333
▁гарга	-10.3335
▁Хэт	-10.3336
▁Зах	-10.3336
▁тээ	-10.3339
снээр	-10.3343
▁шийтгэл	-10.3343
Шинэ	-10.3351
▁чамаас	-10.3354
▁Нөхөр	-10.3356
си	-10.3357
▁нэгдэж	-10.3358
▁өнөөх	-10.3358
▁охиноо	-10.3361
▁удалгүй	-10.3362
▁Онцгой	-10.3365
▁хуурай	-10.3366
▁тохиож	-10.337
▁нэвтрүүлэх	-10.3371
▁телевиз	-10.3375
▁чуулганы	-10.3384
▁ордон	-10.3386
▁нүдний	-10.3393
▁хав	-10.3395
▁хүчээ	-10.3403
▁Miss	-10.3406
▁болго	-10.3406
####	-10.3407
▁мартаж	-10.3407
▁ачаалал	-10.3412
▁өвгөн	-10.3413
▁гүнзгий	-10.3418
▁Манайхан	-10.3418
▁хэрэглэнэ	-10.3418
▁олимп	-10.3421
te	-10.3421
▁гүүр	-10.3422
▁боол	-10.3427
▁өглөөний	-10.343
▁өөрийнх	-10.3431
▁мэдлэгтэй	-10.3435
▁элэг	-10.3437
▁Канад	-10.3441
▁ту	-10.3448
▁чармайлт	-10.3452
▁алджээ	-10.3453
є	-10.3456
▁төл	-10.3458
▁охиныг	-10.3461
ви	-10.3463
чихсон	-10.3476
Заавал	-10.3485
▁юунаас	-10.3494
▁үйлдлийг	-10.3498
▁мэдээг	-10.3501
зо	-10.3502
▁ху	-10.3503
▁Ким	-10.3508
▁Оюун	-10.3513
▁ороход	-10.3514
▁ажиллаад	-10.3517
▁дуугүй	-10.3522
▁хүүхдүүдээ	-10.3524
▁будаа	-10.3526
▁сонго	-10.3533
▁зогсоо	-10.3536
&	-10.354
▁бодлыг	-10.3541
лэв	-10.3542
▁Амьдралын	-10.3544
▁үгэнд	-10.3545
▁Хэрэглэгч	-10.3545
▁дуулах	-10.3546
▁Гэрийн	-10.3547
▁дурлал	-10.3548
▁өрнөж	-10.3549
▁хөгжилд	-10.3559
▁хүүгийн	-10.3562
пи	-10.3568
▁t	-10.3574
▁өмгөөлөгч	-10.3581
ee	-10.3583
▁YOLO	-10.3584
▁төвөгтэй	-10.3588
▁гарган	-10.3591
▁дэвшил	-10.3593
▁дүүрэг	-10.3603
▁арилжааны	-10.3604
▁даргаар	-10.3605
▁өвс	-10.361
▁цуг	-10.3611
▁төхөөрөмжийн	-10.3615
22	-10.3618
▁мужийн	-10.3619
▁Ав	-10.3629
▁журмын	-10.363
раад	-10.363
▁тууштай	-10.363
сар	-10.363
▁зүйлүүд	-10.363
▁үүргийг	-10.363
▁чиглэсэн	-10.3631
▁үлдэж	-10.3633
▁мэдэрдэг	-10.3634
▁фото	-10.3636
▁дуудаж	-10.364
▁зорчих	-10.3644
цаг	-10.3649
▁үлдээх	-10.3659
▁шүүмжлэл	-10.3663
▁хөвгүүд	-10.3672
▁судалгаагаар	-10.3674
▁түлш	-10.3676
▁Үл	-10.3677
сс	-10.3682
▁анд	-10.3685
▁биеэр	-10.3685
▁хараагүй	-10.3688
▁бүлд	-10.3695
▁туулж	-10.3697
▁Жи	-10.3698
▁мэргэжилтэн	-10.3703
ie	-10.3709
илж	-10.3714
▁1990	-10.3717
▁Эцс	-10.3722
▁ашиглалт	-10.3724
▁дайсан	-10.3725
▁болгоод	-10.3726
▁Иргэдийн	-10.373
▁утгагүй	-10.3731
▁нотлох	-10.3733
▁харлаа	-10.3734
▁оч	-10.3737
▁хэрэглэгчдийн	-10.3738
▁оройн	-10.3741
▁биелүүлж	-10.3741
▁Иргэний	-10.3747
▁буян	-10.3749
▁монголд	-10.375
Их	-10.3751
Ха	-10.3755
дэл	-10.3756
▁мэдээлж	-10.3759
▁II	-10.376
оны	-10.376
айн	-10.3762
▁хүчирхийлэл	-10.3767
▁төдийлөн	-10.3767
[	-10.3767
▁дасгалжуулагч	-10.377
▁үйлдлийн	-10.377
▁тусалдаг	-10.3771
▁зурсан	-10.3772
▁талархал	-10.3772
▁де	-10.3773
▁Сая	-10.3775
▁өнгийн	-10.3776
id	-10.3779
▁Аж	-10.3788
▁цаашдаа	-10.3789
▁хүндтэй	-10.3799
Монголын	-10.3799
▁зогсоож	-10.3799
▁үнэмлэх	-10.38
▁утгаар	-10.3808
▁туйлын	-10.3809
09	-10.3811
▁нүгэл	-10.3813
▁сэдвээр	-10.3815
▁31	-10.3815
▁буудлын	-10.3818
▁зоригтой	-10.3821
▁Он	-10.3827
ОН	-10.3829
▁төслүүд	-10.3833
,000	-10.384
▁тоон	-10.3849
▁гуниг	-10.385
ЭЭ	-10.3856
▁үгийн	-10.3856
▁i	-10.3857
▁байрыг	-10.3858
▁нөхдүүд	-10.3859
Өнөөдөр	-10.3862
▁танилцах	-10.3868
луулж	-10.387
▁доторх	-10.3872
▁төсөлд	-10.3877
▁үүрд	-10.3877
▁зурах	-10.3884
▁Тэдэнд	-10.3886
▁хариуг	-10.3892
▁авчирч	-10.3892
▁бал	-10.3896
▁ачаар	-10.3897
▁Төгс	-10.3899
▁үнэлэх	-10.3903
▁зөвлөмж	-10.3904
▁Африкийн	-10.3904
▁мөрдөн	-10.3904
▁ирэхээр	-10.3905
▁түвшний	-10.3905
▁боловсруулсан	-10.3908
▁барина	-10.3909
▁Ерөнхийдөө	-10.3914
элт	-10.3915
▁амны	-10.3915
▁борлуулалт	-10.3916
▁шинэчлэх	-10.3916
▁тахал	-10.3918
▁хэлэлцээ	-10.3919
▁гаднаас	-10.392
▁амийг	-10.3922
▁багасгах	-10.3925
▁Оросууд	-10.3928
▁жолоо	-10.3937
ныхаа	-10.3942
▁тойрон	-10.3946
ми	-10.3948
▁судлаач	-10.3948
▁тавина	-10.3949
▁ажлаас	-10.395
co	-10.395
▁хандан	-10.3952
son	-10.3953
▁мэдээд	-10.3956
▁байрладаг	-10.3956
▁тусална	-10.3957
▁сурагчид	-10.3958
▁Архи	-10.3966
▁Шударга	-10.3967
ийх	-10.3967
▁өмнөд	-10.3976
▁тэнцүү	-10.3981
▁эн	-10.3981
▁мэдээгүй	-10.3983
▁дуул	-10.3987
▁байя	-10.399
▁Ил	-10.3991
ддаг	-10.3991
▁зүтгэл	-10.3995
▁тээвэр	-10.3998
▁орныг	-10.3999
▁хураамж	-10.3999
▁хийгдэж	-10.4
▁ээлтэй	-10.4
▁шалгаруулах	-10.4001
▁хацарт	-10.4001
▁гүйцэтгэл	-10.4006
▁дураараа	-10.4009
рх	-10.401
▁но	-10.401
таж	-10.4016
▁хэлэлцүүлэг	-10.4022
▁бүсгүйн	-10.4026
▁шин	-10.4029
▁бх	-10.4038
▁эмчилгээний	-10.4039
oo	-10.4047
▁Чухам	-10.4049
▁таньж	-10.405
Нямдорж	-10.405
▁Жүжигчин	-10.4051
▁загварыг	-10.4053
▁даг	-10.4062
▁мэх	-10.4067
үр	-10.4069
▁хайрладаг	-10.4069
▁ЭЗЭН	-10.4073
ладаг	-10.4075
баатар	-10.4081
▁татдаг	-10.4083
лэнэ	-10.4087
▁гуйх	-10.409
▁хүүхнүүд	-10.4094
▁тамирчид	-10.4094
▁тогло	-10.4095
▁төлбөрийг	-10.4096
▁насаа	-10.4099
lo	-10.4099
▁олборлох	-10.41
??	-10.4101
▁учраа	-10.4104
▁зогсоол	-10.4104
▁авлига	-10.4106
▁гудамж	-10.4106
▁луу	-10.4114
▁ашигт	-10.4119
25	-10.4126
▁гэрээсээ	-10.4131
▁шалгаруулалт	-10.4133
цаа	-10.4136
▁аравдугаар	-10.4142
▁Английн	-10.4143
▁төлөөлөл	-10.4146
▁тантай	-10.4146
▁2004	-10.4152
▁асуулга	-10.4155
▁со	-10.4161
ина	-10.4163
▁америк	-10.4164
ГҮЙ	-10.4164
▁бодохгүй	-10.4168
▁зүйлсийн	-10.4169
лүүлж	-10.417
▁автомашины	-10.4173
▁хандлагатай	-10.418
чүүд	-10.4183
▁ороо	-10.4183
▁дуулсан	-10.4187
▁сэр	-10.4189
▁дуустал	-10.419
▁үндэстний	-10.419
ем	-10.4192
▁явсаар	-10.4193
▁өгөв	-10.4193
▁алхах	-10.4195
▁дэвшигч	-10.4197
▁хам	-10.42
▁айлчлал	-10.4204
▁мань	-10.4205
▁(1	-10.4206
▁буцаад	-10.4206
▁чамтай	-10.4207
▁бүрэлдэхүүн	-10.4211
▁зогсох	-10.4216
жав	-10.4222
▁бүхэлд	-10.4222
▁сандал	-10.4226
ек	-10.4227
бат	-10.4227
▁зүү	-10.4238
▁таг	-10.4239
▁орныхоо	-10.4244
▁танилцуулга	-10.4244
▁яадаг	-10.4244
▁үхэр	-10.4247
▁ахлах	-10.4248
▁дараалан	-10.4249
▁парламентын	-10.425
▁мөнх	-10.425
▁шийднэ	-10.4252
▁Эв	-10.4254
▁зарцуулж	-10.4257
▁иж	-10.4259
иар	-10.4265
▁Орой	-10.4266
24	-10.4271
▁нийлж	-10.4275
бар	-10.428
▁гариг	-10.4281
▁гэрлэх	-10.4285
▁толгойд	-10.4285
▁лиценз	-10.4286
▁цүнх	-10.4289
▁g	-10.4293
лаарай	-10.43
▁нөлөөтэй	-10.4304
▁үүнийгээ	-10.4305
▁хайрла	-10.4312
23	-10.4317
▁шарх	-10.4319
са	-10.4327
▁нуруу	-10.4333
▁хожим	-10.4334
▁ханд	-10.4336
▁эрэг	-10.4336
▁хариуцсан	-10.4336
▁хамрагдсан	-10.4337
арсан	-10.4338
▁хараат	-10.4339
▁ЖДҮ	-10.4339
▁Барилгын	-10.4341
▁төрдөг	-10.4341
тор	-10.4344
▁яана	-10.4348
▁2-3	-10.4348
▁мөрийн	-10.4349
▁даатгал	-10.4353
▁манайхан	-10.436
▁буйг	-10.4362
▁бүсэд	-10.4367
▁компанийг	-10.4368
▁танихгүй	-10.4369
▁дэм	-10.4369
▁хаалт	-10.437
лүүлэх	-10.4371
▁орхиж	-10.4372
▁малын	-10.4376
▁өсөх	-10.4382
▁үлдээсэн	-10.4385
▁найдвар	-10.4385
▁үүр	-10.4386
▁цомог	-10.4387
▁хуудсыг	-10.4388
▁харилцааг	-10.4393
▁гарахад	-10.4395
▁үндэслэн	-10.4398
▁Хөдөлмөрийн	-10.4408
▁харагдахгүй	-10.4411
▁тэн	-10.4412
▁олдог	-10.4416
▁бүсийн	-10.4419
▁олонх	-10.4423
▁48	-10.4427
▁янзын	-10.4428
▁УБ	-10.4431
▁стратегийн	-10.4432
▁Сир	-10.4433
▁орхисон	-10.4433
▁дэвсгэр	-10.4434
▁одоог	-10.4435
▁шалга	-10.4439
▁бул	-10.445
▁Бал	-10.445
▁албагүй	-10.4455
▁ялах	-10.4457
ЭЛ	-10.4466
▁Эмэгтэйчүүд	-10.4469
▁Ра	-10.4469
▁Ко	-10.447
-2	-10.4475
агдсан	-10.4475
Энх	-10.4475
Ер	-10.4477
▁компаниудын	-10.4479
▁стратеги	-10.4479
▁хүснэгт	-10.4481
▁материалыг	-10.4483
▁хөрөнгийг	-10.4483
дэд	-10.4483
▁зөвшөөрөхгүй	-10.4484
▁хажуу	-10.4485
▁хурдтай	-10.4486
Ф	-10.4487
▁ү	-10.449
▁33	-10.4493
▁бүрдүүлж	-10.4493
▁Бодит	-10.4495
▁бөхчүүд	-10.4497
▁сүүлээр	-10.4498
▁тэднээс	-10.4503
тэйгөө	-10.4511
▁хөлбөмбөгийн	-10.4514
▁байхаас	-10.4516
▁багаар	-10.4517
▁n	-10.4517
▁сургуулиа	-10.4527
▁насан	-10.4529
▁алдарт	-10.4529
▁амьдар	-10.4529
▁буудалд	-10.4529
▁оршдог	-10.4531
▁зохистой	-10.4531
▁ярилаа	-10.4531
▁НӨАТ	-10.4534
▁чадлаа	-10.4536
▁амьсгалын	-10.4541
▁байгаан	-10.4542
▁хугацаандаа	-10.4544
▁шингэн	-10.4545
▁Хайртай	-10.4549
▁мэдэгдэх	-10.455
▁тэндээс	-10.4551
▁сонсдог	-10.4551
уулаад	-10.4557
▁хэрэгцээг	-10.4557
▁тэдгээрийн	-10.4571
▁нуур	-10.4573
▁сургаал	-10.458
▁засгийг	-10.4581
▁төлсөн	-10.4582
▁авчирсан	-10.4583
▁нээсэн	-10.4585
Тэгвэл	-10.4587
Болд	-10.4587
03	-10.4595
▁хэргээр	-10.4596
▁гэмээр	-10.4601
▁зас	-10.4602
▁харгалзан	-10.4604
ot	-10.4604
ац	-10.4606
▁up	-10.4609
▁150	-10.461
▁Есүсийн	-10.4612
▁баримтлал	-10.4618
▁Болзоо	-10.4619
дож	-10.4625
моор	-10.4625
▁ардчилал	-10.463
▁хаях	-10.4631
▁Эрчим	-10.4636
▁элбэг	-10.4638
▁Сүхбаатар	-10.4641
▁хас	-10.4641
▁Австралий	-10.4644
▁харь	-10.4648
▁Африк	-10.4661
▁Шинээр	-10.4661
лоод	-10.4664
ио	-10.4672
Уул	-10.4673
▁жилийг	-10.4678
▁будаг	-10.4679
▁хөтөч	-10.4681
▁ашгийн	-10.4681
▁нутагтаа	-10.4681
▁хавдр	-10.4681
▁чөлөөлөх	-10.4681
▁хүргэдэг	-10.4684
▁амраг	-10.4684
▁эхлүүлсэн	-10.4686
▁айлд	-10.469
▁асуув	-10.4693
▁Хоёрдугаарт	-10.4694
▁боломжийн	-10.4696
▁харьцах	-10.47
▁захиргаа	-10.4708
▁төлөвтэй	-10.471
Гэр	-10.4711
▁зарлиг	-10.472
▁эмх	-10.472
▁явахдаа	-10.4721
ig	-10.4726
▁багшийн	-10.4726
▁шулуун	-10.4731
▁яригдаж	-10.4731
▁Богд	-10.4732
▁байгууллагуудын	-10.4734
▁Ёстой	-10.4737
▁хувилбарыг	-10.474
▁Дарга	-10.474
.00	-10.4741
уулан	-10.4745
▁and	-10.4746
▁болчихлоо	-10.475
▁нартаа	-10.4754
▁үүнтэй	-10.4755
▁Өдөрт	-10.4756
▁дүрд	-10.4759
хийг	-10.476
▁тайланг	-10.4762
▁нааш	-10.4767
▁ми	-10.4768
60	-10.4769
лаагүй	-10.477
▁хуваарь	-10.4771
▁Хаана	-10.4776
▁Төмөр	-10.4776
▁нээлтээ	-10.4779
▁халдлага	-10.4781
▁гудамжинд	-10.4782
▁танилцаж	-10.4783
▁авьяас	-10.4783
▁коронавирус	-10.4784
▁болгохын	-10.4785
▁ярилцсан	-10.4786
▁тохируулах	-10.4786
▁дамжуулах	-10.4787
▁хя	-10.4789
▁нараас	-10.479
▁очиход	-10.4791
▁Сү	-10.4793
дад	-10.4793
▁хүндээ	-10.4797
▁болчихоод	-10.48
▁орчныг	-10.4801
▁бүгдэд	-10.4802
▁захиа	-10.4808
▁тулаан	-10.4808
▁ердийн	-10.481
▁дагах	-10.482
▁гоол	-10.4821
▁бодно	-10.4824
▁төгсгөлд	-10.4826
▁про	-10.4828
▁нарны	-10.4828
ага	-10.4829
▁урагш	-10.483
▁суманд	-10.483
▁даашинз	-10.4833
▁МАНАН	-10.4837
▁үргэлжилнэ	-10.4838
Олон	-10.4843
▁төлөвлөгөөг	-10.4846
▁тогтнол	-10.4847
рээд	-10.4847
▁амьтны	-10.4851
▁Ба	-10.4853
▁хааж	-10.4856
▁зурагт	-10.4856
▁арилжаа	-10.4866
▁комисс	-10.4868
▁Гоо	-10.487
▁намууд	-10.4878
▁өчүүхэн	-10.4884
▁өрсөлдөгч	-10.4885
▁Ху	-10.4895
▁Авто	-10.49
▁Эрхэм	-10.4901
▁дэлхийг	-10.4902
▁бодохоор	-10.4903
▁Ур	-10.4908
▁таарах	-10.4911
▁удам	-10.4915
▁инээд	-10.4917
▁багаж	-10.4918
▁номоо	-10.492
▁чих	-10.4923
агийн	-10.4923
▁ангилал	-10.4931
▁хамгаалалтын	-10.4932
▁алтны	-10.4933
▁мэргэн	-10.4935
▁сургамж	-10.4936
▁асуултанд	-10.4938
▁сурдаг	-10.4939
▁очдог	-10.4941
Ямар	-10.4944
▁алдааг	-10.4945
▁муур	-10.4953
▁яриаг	-10.4954
▁байдлаа	-10.4957
▁сүүл	-10.4962
▁бүрд	-10.4963
▁сайхныг	-10.4963
тны	-10.4973
▁сайтын	-10.4974
▁ярихгүй	-10.4974
▁Ямартай	-10.4977
тоо	-10.4979
▁таалагддаг	-10.4981
▁журмыг	-10.4988
▁дажгүй	-10.4988
▁татгалзаж	-10.4988
▁онцлох	-10.4988
▁апп	-10.4988
▁суртал	-10.4989
▁танилцсан	-10.499
▁Иймэрхүү	-10.499
▁Хөвсгөл	-10.4992
▁хэсгээс	-10.4994
▁хандуулах	-10.5007
▁давсан	-10.501
▁зуунд	-10.5012
▁Хэд	-10.5015
▁зүс	-10.5017
▁хувьцааны	-10.5032
ent	-10.5033
▁оюутны	-10.5038
▁сэтгэлээр	-10.5039
▁Тэгтэл	-10.504
▁өөрчилсөн	-10.504
▁хийгээрэй	-10.5041
28	-10.5041
▁Post	-10.5041
▁явган	-10.5041
▁талаасаа	-10.5043
▁iPhone	-10.5043
▁цагтаа	-10.5045
▁байгууламж	-10.5046
▁дарах	-10.5047
Өдрийн	-10.5048
▁Блог	-10.505
▁Урт	-10.5052
▁зарлах	-10.5053
▁арав	-10.5054
▁Эрдэнэт	-10.5055
▁анхааралтай	-10.5057
▁өөрчлөгдөх	-10.5062
se	-10.5069
▁уналт	-10.5075
▁тойрог	-10.5077
▁танхим	-10.5081
шд	-10.5082
▁Онлайн	-10.5083
▁охинтой	-10.5084
сүрэн	-10.5087
▁→	-10.5093
▁анхдагч	-10.5094
лээр	-10.5094
▁гаргахад	-10.5094
▁хорвоо	-10.5098
▁хийв	-10.5103
снийг	-10.5103
▁сольж	-10.511
▁хо	-10.5114
▁баримтлах	-10.5114
▁75	-10.5131
▁Ингэх	-10.5138
▁min	-10.5143
▁хэрэгслийг	-10.5145
▁эсэргүүцэж	-10.5145
▁тооцож	-10.5145
▁тасалбар	-10.5145
▁400	-10.5145
▁хэмээсэн	-10.5146
▁суваг	-10.5147
▁мэдэгдлээ	-10.5147
▁сүлжээний	-10.5148
▁Өөртөө	-10.5152
to	-10.5153
▁балай	-10.5156
цэцэг	-10.5164
▁ерөнхийлөгчийн	-10.5165
луу	-10.5167
▁олдсон	-10.5168
▁Аюулгүй	-10.5172
▁Солонгост	-10.5173
▁очно	-10.5178
ї	-10.5181
▁сүр	-10.5183
29	-10.5185
▁насаар	-10.5191
▁төрүүлж	-10.5192
▁статистик	-10.5198
▁туслалцаа	-10.5198
▁тэтгэмж	-10.5198
▁өртсөн	-10.5198
▁үүсч	-10.5198
▁хэрэглэгчдэд	-10.5199
▁үлдэнэ	-10.52
▁Элбэгдорж	-10.52
▁Битгий	-10.5205
▁Тэг	-10.5205
▁бүтээлийн	-10.5208
▁үргэлжлүүлэх	-10.5208
▁Өнөөгийн	-10.521
▁гэмтэл	-10.521
▁(1)	-10.5218
▁36	-10.5223
▁Мөнх	-10.5223
▁аавын	-10.5226
▁хохирогч	-10.5228
▁тэтгэвэр	-10.5229
▁сон	-10.5231
▁гаж	-10.5234
▁34	-10.524
▁хөдөлгөөнийг	-10.5241
▁эрхлэгч	-10.5242
▁Монголыг	-10.5246
▁таалагдаж	-10.5251
▁жишиг	-10.5251
▁уншина	-10.5251
▁Гоолингоо	-10.5252
▁эрхэлдэг	-10.5254
▁Сургуулийн	-10.5254
▁огцруулах	-10.5255
ut	-10.5258
▁ирэхийг	-10.5264
▁салбарыг	-10.5265
▁зайлсхийх	-10.5266
▁по	-10.5269
▁Өр	-10.5272
▁ширээ	-10.5288
▁Гадаадын	-10.5289
▁Сири	-10.5289
▁хүлээ	-10.5296
▁18-	-10.5297
▁түрүү	-10.5302
▁w	-10.5302
огийн	-10.5303
▁баригч	-10.5304
▁уншаарай	-10.5305
▁намаас	-10.5306
▁ОУВС	-10.5307
▁төлөөлөгчид	-10.5311
▁ордны	-10.5312
▁ЭНД	-10.5314
▁Хүмүүсийн	-10.5315
▁угааж	-10.5316
▁хүндрэлтэй	-10.5326
▁талх	-10.5328
па	-10.5332
▁эхнээс	-10.5334
▁настайдаа	-10.5335
▁Нийтийн	-10.5336
ээврийн	-10.5337
▁хайрыг	-10.5337
▁Хаан	-10.5339
▁босоо	-10.534
ап	-10.5344
хыг	-10.5345
раг	-10.5349
рав	-10.5352
▁согтуу	-10.5358
▁бузар	-10.5358
▁хэвтэж	-10.5359
▁музей	-10.5359
▁тогтсон	-10.5359
ta	-10.536
▁Цагдаа	-10.5361
▁дунджаар	-10.5361
▁хариулсан	-10.5363
▁оржээ	-10.5364
▁таашаал	-10.5367
▁томилох	-10.5367
инээв	-10.5368
▁ТВ	-10.5368
▁хувьтай	-10.5368
▁Тусгай	-10.5368
▁шуугиан	-10.5371
▁эрүүгийн	-10.5372
▁хөдөлгөөнт	-10.5374
иас	-10.5376
▁Хичээл	-10.5376
▁30-	-10.5377
▁итгэхгүй	-10.5386
▁зов	-10.539
▁оргил	-10.5392
▁хэрэгтээ	-10.5393
▁өрөөний	-10.5396
▁асуултууд	-10.5407
▁буулгах	-10.5409
гчид	-10.5409
▁зорьсон	-10.541
▁Бу	-10.5411
▁эзэмшсэн	-10.5413
im	-10.5415
▁зочин	-10.5415
▁татгалзсан	-10.5415
▁зарцуулсан	-10.5417
шдээ	-10.5419
▁Дорнод	-10.5419
▁огтхон	-10.5421
▁сайгүй	-10.5426
▁ман	-10.5428
▁бүтээлүүд	-10.5431
▁заавр	-10.5435
▁хуруу	-10.5441
члал	-10.5446
▁туйл	-10.545
▁ин	-10.5454
▁жор	-10.5454
▁үд	-10.5455
▁мэдүүлэг	-10.5456
▁үзүүлнэ	-10.5457
жуулах	-10.5459
▁талбар	-10.5463
▁утгыг	-10.5466
▁сонирхлыг	-10.5467
▁баримтууд	-10.5467
▁хамаарч	-10.5467
▁үргэлжилсэн	-10.5468
▁агуулсан	-10.5468
▁зогссон	-10.547
▁Бусдын	-10.547
▁Монголдоо	-10.5471
▁Төсвийн	-10.5474
▁агуулах	-10.5476
▁Арай	-10.5476
▁тоогоор	-10.5476
Йорк	-10.5477
▁хуралдаанаар	-10.5478
▁хөөр	-10.548
▁зүтгэж	-10.5482
▁дурын	-10.5482
▁ажилгүй	-10.5484
▁гээ	-10.5489
аал	-10.5491
▁сонирхдог	-10.5491
алгүй	-10.5492
Таныг	-10.5496
рэл	-10.5499
▁Дотоод	-10.5501
ne	-10.5503
▁дагавар	-10.5503
▁зөрүү	-10.5503
▁олборлолт	-10.5505
▁солонгос	-10.5516
▁бо	-10.5517
▁Тиймээ	-10.5518
дэггүй	-10.5521
▁хорооллын	-10.5521
▁тайлбарласан	-10.5525
▁мөчид	-10.5527
▁тест	-10.5527
лөх	-10.5534
АЙ	-10.5536
▁Яах	-10.5537
▁элчин	-10.5538
▁арал	-10.5545
▁мэдээллээр	-10.555
▁тайлах	-10.555
▁үйлчлүүлэгч	-10.5552
маг	-10.5553
▁09	-10.5556
um	-10.5559
▁групп	-10.5559
▁системд	-10.556
▁модон	-10.5562
▁бусын	-10.557
▁нэгдэх	-10.5574
▁мессеж	-10.5576
▁тангараг	-10.5576
▁чоно	-10.5577
▁оролцоно	-10.5577
▁намд	-10.5577
▁нтр	-10.5578
▁байцаагч	-10.5579
▁Аялал	-10.5582
уудтай	-10.5582
▁Компанийн	-10.5584
▁2003	-10.5587
Хэрэв	-10.5587
Алтан	-10.5588
▁төрүүлэх	-10.5589
▁Алтан	-10.5594
▁Энх	-10.5595
долларын	-10.5602
▁маркетингийн	-10.5602
Аав	-10.5603
▁карьер	-10.5604
04	-10.561
▁Цаашд	-10.5612
▁хортой	-10.5615
▁21-	-10.5616
▁Зар	-10.5619
▁vv	-10.5619
ion	-10.5627
▁баримтыг	-10.5628
▁илүүтэй	-10.5629
▁таньдаг	-10.5629
▁бэлтгэж	-10.563
▁бүтцийн	-10.5631
▁наймдугаар	-10.5631
▁одоохондоо	-10.5632
▁хөгжсөн	-10.5632
▁зураач	-10.5633
▁цуглуулах	-10.5639
тойгоо	-10.5641
▁Сарын	-10.5642
Яагаад	-10.5643
▁амарч	-10.5643
▁сүлжээнд	-10.5643
▁стресс	-10.5645
Сайн	-10.5646
▁ээжийн	-10.5651
▁Нэгдүгээрт	-10.5654
Танай	-10.5667
▁банкууд	-10.5668
▁хамаа	-10.5673
down	-10.5687
▁бахархаж	-10.5687
▁Шинжлэх	-10.569
▁тоглогчид	-10.5694
▁холбох	-10.5702
▁хуулиа	-10.5704
▁Байгалийн	-10.5704
▁ас	-10.5711
▁харилцаатай	-10.5713
▁дагуулж	-10.5713
▁компаний	-10.5714
▁хүрдэг	-10.5716
▁тэгэх	-10.5717
▁бэрх	-10.5718
зи	-10.5722
▁Ган	-10.5724
▁Тай	-10.573
дуу	-10.5735
▁Мар	-10.5738
▁нитрил	-10.5743
▁алхаж	-10.5745
▁давс	-10.5748
▁Тодорхой	-10.5749
▁аймаар	-10.575
ap	-10.575
аны	-10.5753
▁Орхон	-10.5754
▁зуу	-10.5755
▁дамжуулж	-10.5756
▁гэрчилгээ	-10.5757
▁Баярлалаа	-10.5759
▁Co	-10.576
▁хийе	-10.5761
▁тоглолтоо	-10.5763
▁барилдаан	-10.5766
гаагүй	-10.5774
▁дүгнэж	-10.5782
▁байхав	-10.5783
▁19-	-10.5783
▁хөнгөлөлт	-10.5784
▁өөрийнхөөрөө	-10.5801
▁ингэх	-10.5802
▁Гу	-10.5803
▁Грек	-10.5804
лэдэг	-10.5806
ma	-10.5807
из	-10.5808
▁хэдийнэ	-10.5811
▁тоонд	-10.5823
▁мэдэхийг	-10.5827
▁Тун	-10.5828
▁Ду	-10.5831
үүлэн	-10.5831
▁тохиргоо	-10.5833
▁Хөх	-10.5834
▁тараах	-10.5837
▁Судалгаа	-10.5845
▁олно	-10.5847
▁Оюу	-10.5854
▁(0)	-10.5855
▁мэдээлснээр	-10.5855
▁түүнчлэн	-10.5856
ле	-10.5856
▁хоёрт	-10.5856
▁эхэл	-10.5858
▁Фэйсбүүк	-10.5858
▁мэдээлсэн	-10.5858
▁зөвлөгөөг	-10.5863
▁санаарай	-10.5865
▁баярыг	-10.5865
шүү	-10.5866
▁бааз	-10.5868
▁олохгүй	-10.5868
цгаая	-10.5871
▁Ин	-10.5874
▁барааны	-10.5875
▁Юун	-10.588
▁Сайд	-10.588
▁дахинд	-10.5888
▁шүд	-10.5889
▁Агаарын	-10.5889
▁бүхнээс	-10.5891
ханд	-10.5899
▁Дээрээс	-10.5902
▁биднээс	-10.5906
▁шог	-10.591
▁олигтой	-10.5911
лээгүй	-10.5911
▁уриа	-10.5912
▁ургамл	-10.5912
▁гурил	-10.5912
▁явцыг	-10.5913
▁холболт	-10.5914
▁тусламжтайгаар	-10.5914
▁бонд	-10.5915
▁гүйж	-10.5916
▁зарцуулдаг	-10.5917
▁оруулаад	-10.5918
▁Эрүүгийн	-10.5918
лалт	-10.5919
27	-10.5923
The	-10.5926
▁дипломат	-10.5929
▁Гэмт	-10.593
Дахиад	-10.593
▁зүйлгүй	-10.5932
ахад	-10.5933
▁нэгдэл	-10.5938
hi	-10.594
тийн	-10.594
▁Худалдаа	-10.5941
чихаж	-10.5943
▁шагналыг	-10.5943
▁хэлтэс	-10.5949
▁монголчуудын	-10.5949
▁(19	-10.595
▁хүрчээ	-10.5951
▁эмгэг	-10.5955
гэл	-10.5963
▁болмоор	-10.5963
▁тусгасан	-10.5969
▁зэргийг	-10.5969
▁Интернэт	-10.5972
▁япон	-10.5973
▁эрхэлж	-10.5975
ари	-10.5977
чийн	-10.598
▁Ви	-10.5982
▁хат	-10.5983
▁Хүнсний	-10.5983
ong	-10.5984
▁салсан	-10.5984
▁сайдыг	-10.5987
▁Уу	-10.5989
▁асуудаг	-10.599
▁дуунууд	-10.5991
▁Тэрнээс	-10.5994
пер	-10.6
гдсан	-10.6
▁Буруу	-10.6002
▁Байгууллагын	-10.6004
1-	-10.6007
▁цалинг	-10.6008
▁хаалттай	-10.601
▁амжилтад	-10.6015
▁Энхбаяр	-10.6015
▁эзлэх	-10.6015
▁хавдар	-10.6017
бичгийг	-10.6019
▁орхих	-10.602
▁Дархан	-10.6021
▁онцлогтой	-10.6021
▁хир	-10.6026
▁Мексик	-10.6027
▁огцом	-10.6027
▁клип	-10.6027
▁харамсаж	-10.6027
▁гүйцэтгэдэг	-10.6029
▁ААН	-10.6033
▁үйлчлэгч	-10.6033
▁өнгөрүүлэх	-10.6036
сг	-10.6037
02	-10.6043
▁асуудлуудыг	-10.6043
▁хамаарах	-10.6043
▁дуугаа	-10.6045
▁эсрэгээрээ	-10.6048
ск	-10.605
70	-10.605
▁жигд	-10.606
▁хайрт	-10.6064
▁ю	-10.6064
05	-10.6065
▁мэдэхэд	-10.6065
▁өмд	-10.6074
▁таалагдах	-10.6078
▁Бай	-10.6079
чихвал	-10.608
дугаар	-10.608
35	-10.6084
▁Next	-10.6085
▁Өдгөө	-10.6085
▁Цэргийн	-10.6085
▁хотоос	-10.6085
▁өгүүллэг	-10.6087
▁хонь	-10.6087
▁хүрлээ	-10.6088
▁@	-10.6088
▁ирвэл	-10.6089
▁түрээс	-10.609
▁зэргээр	-10.609
чуудын	-10.6091
▁Бразил	-10.6091
▁ялгаж	-10.6091
▁болбол	-10.6095
▁өнөөг	-10.6102
▁санхүү	-10.6103
▁өвчтөн	-10.6103
▁Угаасаа	-10.6104
▁ажиллуулж	-10.6106
ver	-10.6107
▁бүрээс	-10.6108
▁агентлаг	-10.6109
ss	-10.6109
▁Чөлөөт	-10.6109
▁зайд	-10.6114
▁авагч	-10.6115
▁хамгаалахын	-10.6116
▁бу	-10.6117
▁уян	-10.6117
▁хөшөө	-10.6119
▁алдагдал	-10.6125
▁хариулж	-10.6136
▁талбайн	-10.6139
▁үсээ	-10.6144
▁үлдлээ	-10.6144
▁хөндий	-10.6146
▁байгаадаа	-10.6147
▁дизайн	-10.6148
▁хангалтгүй	-10.6149
шир	-10.6152
▁хараарай	-10.6157
▁Жилийн	-10.6159
▁ээлж	-10.616
ндаа	-10.6161
агүй	-10.6162
▁Хай	-10.6163
▁үйлдвэрт	-10.6164
▁Яв	-10.6164
зан	-10.6166
▁хариултыг	-10.617
▁Жо	-10.617
▁ка	-10.6172
▁худалдаанд	-10.6173
▁уншдаг	-10.6178
▁боловсон	-10.6181
▁Лондон	-10.6188
▁тур	-10.6188
▁буух	-10.6189
▁гэнээ	-10.6192
▁хотноо	-10.6195
ху	-10.6197
▁хүдэр	-10.6201
▁шилжилт	-10.6202
▁төлдөг	-10.6202
▁төмрийн	-10.6204
▁Канадын	-10.621
man	-10.621
▁цэнэ	-10.621
▁ярианы	-10.6211
▁бусадтай	-10.6211
▁нэрлэсэн	-10.6214
▁ЗХУ	-10.6214
▁татаад	-10.6215
▁судалгааг	-10.6217
▁ко	-10.622
изм	-10.6222
▁идээ	-10.6225
▁наснаас	-10.6227
▁хийлгэж	-10.6231
▁болгоход	-10.6232
▁дүнгээ	-10.6233
▁энерги	-10.6233
▁Ди	-10.6237
▁Гурав	-10.624
▁анхан	-10.6241
▁цаасан	-10.6243
▁16-	-10.6244
бэ	-10.6245
ши	-10.6247
үүлээд	-10.6257
▁нялх	-10.6259
▁форум	-10.626
▁Мод	-10.626
▁бэлдэж	-10.6261
▁багтаж	-10.6264
▁ядан	-10.6266
▁нүүрний	-10.6268
цэн	-10.6269
▁In	-10.6272
▁барьцаа	-10.6275
▁боловсролтой	-10.6275
▁Гэрэл	-10.6277
▁хүдр	-10.6284
▁даралт	-10.6285
▁дуудах	-10.6286
▁хамтрагч	-10.629
▁хүсдэггүй	-10.6293
▁үеэ	-10.6293
▁брэндийн	-10.6295
▁уйлж	-10.6295
aa	-10.6302
▁Хол	-10.6303
▁ажиллагаатай	-10.6304
▁De	-10.6305
▁өсгөх	-10.6311
▁хөдлөл	-10.6313
▁тэнгэрийн	-10.6314
▁чадваргүй	-10.6315
▁Итгэл	-10.6316
▁ду	-10.6318
▁оролдлого	-10.6319
▁чинээ	-10.632
▁нийцсэн	-10.632
▁бичигдсэн	-10.6321
▁ИТХ	-10.6322
▁хүсэн	-10.6324
▁шаардах	-10.6324
ийнх	-10.6327
▁бут	-10.6332
▁дуусна	-10.6332
рам	-10.6332
▁ажиллахгүй	-10.6333
▁үгүйсгэхгүй	-10.6338
▁гэрийнхэн	-10.6342
▁буд	-10.6342
▁эзэлж	-10.6344
▁үнс	-10.6344
до	-10.6345
▁хүнээр	-10.6345
▁бүлэгт	-10.6348
▁өгчих	-10.6353
▁функц	-10.6355
▁Иргэн	-10.6358
▁өөх	-10.6358
▁дорой	-10.6361
▁Өглөөний	-10.6361
▁ихэнхдээ	-10.6362
▁тү	-10.6362
▁Хаяг	-10.6362
▁үзлэг	-10.6366
26	-10.6367
▁Үс	-10.6368
▁алах	-10.637
тр	-10.6373
сэл	-10.6378
▁нүцгэн	-10.6379
▁мэдлээ	-10.638
▁үйлчилдэг	-10.6382
▁Сэлэнгэ	-10.6387
▁эхэн	-10.6387
дсон	-10.6388
дээд	-10.6389
▁зөн	-10.6391
▁хэллэг	-10.6391
▁сам	-10.6391
▁хэрэгжилт	-10.6393
▁анхаарна	-10.6393
▁сонгуул	-10.6397
▁байгуулагч	-10.6403
▁хувааж	-10.6407
▁Монголчуудын	-10.641
хээр	-10.6411
▁зөвшөөр	-10.6412
▁дүүрэгт	-10.6415
▁ажиллахыг	-10.6415
▁Дунд	-10.6417
▁хөдөлгөөнд	-10.6418
фи	-10.6423
▁Амжилт	-10.6424
снээс	-10.6425
est	-10.6427
▁имэйл	-10.643
▁үйлчилгээнд	-10.6432
▁эрчимтэй	-10.6433
▁хором	-10.6433
▁49	-10.6435
▁цэцэрлэгийн	-10.6435
дав	-10.6437
▁Гэнэт	-10.6439
▁долдугаар	-10.6439
▁ягаан	-10.644
▁илгээсэн	-10.644
▁дууслаа	-10.644
▁үйлдвэрлэсэн	-10.6441
▁технологийг	-10.6443
Үгүй	-10.6443
▁хариуд	-10.6444
▁ондоо	-10.6445
▁тавтай	-10.6452
▁өгөхөд	-10.6454
▁хориглох	-10.6455
▁тушаалд	-10.6455
▁эхнэрээ	-10.6457
▁ма	-10.6457
▁хэсгүүд	-10.6457
▁ганцаар	-10.6457
▁дотны	-10.6462
▁хөдөлж	-10.6466
▁толгойгоо	-10.6474
▁Цар	-10.6477
▁оросын	-10.6484
▁зарлаж	-10.6484
гу	-10.6485
▁таньд	-10.6491
▁шинэхэн	-10.6491
▁хэлтэй	-10.6492
▁хүчилтөрөгч	-10.6499
▁зурвас	-10.6499
▁цэнхэр	-10.6499
▁эсэхээ	-10.6499
▁бохирдол	-10.6499
лэгдсэн	-10.65
▁тэргүүлж	-10.6504
▁залуучуудын	-10.6504
▁оюуны	-10.6506
▁мужид	-10.6506
▁тэнцэх	-10.6507
▁эмчлэх	-10.6512
▁байрлаж	-10.6514
▁ажилчдын	-10.6515
▁бүрдсэн	-10.6515
▁ирц	-10.6517
▁Ингэхэд	-10.6521
▁түвшинг	-10.6528
▁зур	-10.6529
▁танхимд	-10.6532
▁тохиолдох	-10.6535
▁залууг	-10.6539
2012	-10.6539
▁Мо	-10.6542
гээрээ	-10.6542
▁хэрэгжих	-10.6543
▁тогтоомж	-10.6553
▁сургуул	-10.6557
ts	-10.6557
▁нэрлэж	-10.6557
▁Бээжин	-10.6558
лэлт	-10.6559
21	-10.656
▁самбар	-10.656
▁зөөврийн	-10.656
▁хориглосон	-10.6561
▁мэдэрсэн	-10.6562
▁туршилтын	-10.6562
▁өргөх	-10.6562
▁тавигдах	-10.6562
▁ослы	-10.6564
▁цаашаа	-10.6566
▁прокурор	-10.657
▁Даваа	-10.6572
▁явуулна	-10.6573
ту	-10.6575
▁таамаглаж	-10.6575
▁болгоныг	-10.6582
▁болоосой	-10.6583
▁бишүү	-10.6584
лөг	-10.6586
▁хүлээлт	-10.659
▁харьцаа	-10.6598
гү	-10.66
▁үйлс	-10.66
▁тави	-10.6605
▁хуулбар	-10.6606
ша	-10.6607
▁шороо	-10.6609
▁Толгой	-10.6609
жүүлэх	-10.6611
▁Нямдорж	-10.6616
▁текст	-10.662
▁өмсөж	-10.6621
▁сайтад	-10.6622
▁хаврын	-10.6622
▁уугаад	-10.6623
▁баригдсан	-10.6624
▁Тэнэг	-10.6625
ang	-10.6625
▁буйгаа	-10.6626
▁Мэдээлэл	-10.6627
▁цэвэрхэн	-10.6628
▁хэмээжээ	-10.6628
▁Ганцхан	-10.6629
▁хадгаламж	-10.6629
▁даанч	-10.663
▁хангамжийн	-10.6631
▁Аа	-10.6632
▁тогтолцоог	-10.6634
▁Бо	-10.6641
▁хүсэлтээ	-10.6641
снаа	-10.6641
▁стандартын	-10.6645
▁болохын	-10.6646
▁сунгах	-10.6648
▁нутгаас	-10.6648
▁эдлэх	-10.6649
▁төлбөрөө	-10.6652
Ээж	-10.6658
▁Өнгө	-10.6658
▁үзүүр	-10.6662
▁Хаа	-10.6665
▁цогц	-10.6665
▁Ла	-10.6667
▁бэлтгэлээ	-10.6668
▁ажиллахад	-10.6674
▁нэгээр	-10.6681
▁фэйсбүүк	-10.6682
▁тулгамдсан	-10.6682
▁ээлжинд	-10.6682
▁Монголоос	-10.6685
жир	-10.6686
▁хүлээдэг	-10.6694
дам	-10.6695
ow	-10.6695
▁Худалда	-10.6695
▁үх	-10.6698
▁хүслээ	-10.67
90	-10.6701
Эдийн	-10.6704
чихсөн	-10.6707
▁Далай	-10.6715
▁захын	-10.6718
тэйгээр	-10.6718
▁Санаа	-10.6718
▁Ё	-10.6721
оль	-10.6722
▁түмнийг	-10.6733
▁Mar	-10.6734
▁маягт	-10.6738
▁юмнууд	-10.6742
▁захирамж	-10.6743
▁үүдэлтэй	-10.6744
▁ө	-10.6744
▁гүйцэтгэсэн	-10.6746
▁амьдарсан	-10.6753
ия	-10.6754
▁хүүтэй	-10.6756
▁Хэр	-10.6759
▁тушаалтнууд	-10.6759
Улс	-10.676
▁дуусч	-10.676
▁Халуун	-10.6761
▁бүрээр	-10.6764
▁шалтгааны	-10.6765
▁өмчийн	-10.677
▁өгдөггүй	-10.6772
ay	-10.6774
▁Усан	-10.6777
өнд	-10.6779
өм	-10.6786
▁хүрэл	-10.6787
▁залуутай	-10.6793
▁ирээдүйг	-10.6794
Яг	-10.6794
▁сорилт	-10.6796
▁боломжууд	-10.6797
▁тамхины	-10.6799
▁цэвэрлэгч	-10.6801
▁хичээлээ	-10.6801
▁хийхээс	-10.6802
▁тодруулах	-10.6803
▁42	-10.6805
▁орхиод	-10.6808
07	-10.6809
▁эцэс	-10.6809
▁удаагүй	-10.681
▁Түүнтэй	-10.6811
em	-10.6814
▁төрөлд	-10.6816
▁барьдаг	-10.682
▁малгай	-10.6823
▁суулгаж	-10.6825
сөөр	-10.6825
▁шахуу	-10.6826
▁тэнгэрт	-10.6826
▁заалтыг	-10.6826
ho	-10.6832
▁өлсгөлөн	-10.6835
▁хөө	-10.6841
▁25-	-10.6843
жаргал	-10.6861
▁авир	-10.6866
▁Ун	-10.6867
▁үлдээ	-10.6867
лүүлсэн	-10.6869
▁дэвтэр	-10.6869
▁Даанч	-10.687
▁тээрмийн	-10.6871
▁Алт	-10.6873
▁өдрөө	-10.6874
▁хэмнэх	-10.6876
▁илрэл	-10.6877
▁оров	-10.688
▁цээж	-10.6881
Надад	-10.6887
арт	-10.6889
▁Эмэгтэйчүүдийн	-10.6896
ван	-10.69
▁эмчид	-10.6902
▁дэмжинэ	-10.6905
▁усыг	-10.6906
▁бүхэлдээ	-10.6909
не	-10.6909
▁төрч	-10.6911
▁Бор	-10.6914
▁даргад	-10.6921
▁000	-10.6924
▁таслан	-10.6924
▁метр	-10.6925
▁дэвсгэрт	-10.6929
▁зөрчиж	-10.6931
▁өгөгдөл	-10.6931
▁жи	-10.6932
▁ахиад	-10.6932
▁!!!	-10.6933
▁нэрлэх	-10.6933
08	-10.6934
▁тодорхойлсон	-10.6938
▁зоог	-10.6938
▁үйлдвэрлэгчид	-10.6938
▁туулсан	-10.6939
▁Mac	-10.694
▁авав	-10.6943
▁дугаарт	-10.6943
▁Жа	-10.6943
▁чөлөөг	-10.6944
дана	-10.6945
▁Иран	-10.6947
▁буйгаар	-10.6949
▁Гэрээ	-10.695
УИХ	-10.6953
▁гайхах	-10.6958
▁хөрс	-10.6958
45	-10.6962
de	-10.6962
▁үйлчилж	-10.6963
▁асуултын	-10.6964
EE	-10.6967
▁олонхи	-10.6969
▁тогоо	-10.697
▁гэвч	-10.6974
▁хороололд	-10.6979
▁төлөөх	-10.6979
▁төлөвлөлт	-10.6982
▁хогийн	-10.6993
▁унаа	-10.6994
▁зарчмыг	-10.6994
▁платформ	-10.6994
▁хачирхалтай	-10.6994
▁аппарат	-10.6994
▁газраар	-10.6994
▁хүслийг	-10.6995
▁өгөөрэй	-10.6995
▁явагдах	-10.6996
лол	-10.6997
▁Нохой	-10.6998
▁шаардагдах	-10.7
▁Арван	-10.7001
▁хаясан	-10.7006
▁хэлээрэй	-10.7006
▁бирж	-10.7009
▁мэндийг	-10.7014
▁хийхээ	-10.7017
▁хүүхдийнхээ	-10.7019
▁алчуур	-10.7021
▁урагшаа	-10.7023
▁бүлийнхэн	-10.7023
▁65	-10.7023
▁зорчигч	-10.7025
▁Европт	-10.7025
▁хэрэгслүүд	-10.7025
ce	-10.7028
▁зөвшөөрдөг	-10.7028
▁Хий	-10.703
▁нэм	-10.7034
▁өрсөлдөөн	-10.7034
▁сурталчилгааны	-10.7035
▁Баасан	-10.7036
▁уриалж	-10.7037
▁тоглолтыг	-10.7042
мэн	-10.7042
Z	-10.7045
▁сураг	-10.7047
▁зөвшөөрлий	-10.7056
▁элсэн	-10.7057
▁зургадугаар	-10.7058
▁мэтчилэн	-10.7059
▁Эн	-10.7059
▁ван	-10.706
▁зээлээ	-10.7062
▁тэргүүлэх	-10.7062
Мөнх	-10.7066
▁оруулахгүй	-10.7068
▁зантай	-10.7069
▁ги	-10.7069
Бидний	-10.707
мэйл	-10.707
▁адал	-10.7073
▁от	-10.7088
ороо	-10.7088
▁бүтэхгүй	-10.7089
Сарын	-10.709
ation	-10.7091
▁бүлэглэл	-10.7093
▁тушаалын	-10.7093
▁Ойрын	-10.7095
▁дээл	-10.7098
▁бололцоо	-10.7102
▁гайхамшиг	-10.7103
▁авахдаа	-10.7107
▁босго	-10.7109
дуулсан	-10.7112
рон	-10.7117
▁нүүрээ	-10.7117
▁биеийг	-10.7117
лц	-10.7118
▁Энийг	-10.712
▁Сэтгэгдэл	-10.7122
▁Хүүхдээ	-10.7122
▁нилээн	-10.7122
▁мэдээллүүд	-10.7122
▁ширүүн	-10.7122
▁засаж	-10.7124
▁явбал	-10.7124
▁илэрхийлдэг	-10.7126
▁Дар	-10.7127
▁хоорондох	-10.7127
▁өдөрлөг	-10.7132
ex	-10.7132
▁харагдсан	-10.7132
▁бсан	-10.7134
▁залхуу	-10.7137
▁үүгээр	-10.7138
▁байрлуулах	-10.7139
▁Эрт	-10.7139
иуд	-10.7141
▁найм	-10.7142
хир	-10.7147
▁сэтгэц	-10.7148
▁явдлууд	-10.715
юу	-10.7152
▁o	-10.7153
уун	-10.7153
06	-10.7157
▁оруулдаг	-10.7162
▁чат	-10.7162
▁800	-10.7164
▁дагуул	-10.7169
▁Дур	-10.7169
оу	-10.7169
▁Зөвлөл	-10.717
▁хошуу	-10.718
Ь	-10.7181
▁зардаг	-10.7183
▁Түүх	-10.7183
▁өсвөр	-10.7187
▁ээждээ	-10.7187
▁Ховд	-10.7188
▁ойлгуулах	-10.7194
үүлдэг	-10.7195
▁өдий	-10.7195
▁орхи	-10.7197
▁Надаас	-10.7206
үүлнэ	-10.7207
▁замдаа	-10.7208
▁олоход	-10.7209
Эрдэнэбат	-10.7209
▁зэрэглэлийн	-10.7217
95	-10.7218
▁тушаалтан	-10.7219
ct	-10.7219
▁оролцдог	-10.7222
▁өөрчлөлтийн	-10.7223
▁Бизнесийн	-10.7233
▁зайлуул	-10.7235
▁нягт	-10.7236
ate	-10.7237
▁авдаггүй	-10.7238
▁найрагч	-10.7242
ре	-10.7245
▁55	-10.7246
▁хэмээв	-10.7246
▁Сүнс	-10.7247
▁модны	-10.7249
▁нутгийг	-10.7252
▁Хөөрхий	-10.7252
▁замбараагүй	-10.7252
▁айраг	-10.7254
▁эзэмшдэг	-10.7256
▁байгууллаа	-10.7257
▁эрхлэгчид	-10.7258
▁цохи	-10.7259
▁давах	-10.7259
кс	-10.7262
▁Нутгийн	-10.7264
▁тусгаарлах	-10.7265
▁намыг	-10.7273
▁чөтгөр	-10.7273
▁арын	-10.7276
▁бэлдэх	-10.7277
▁сургах	-10.7278
▁хүснэ	-10.7278
▁багаас	-10.7282
Өвлийн	-10.7287
▁нараа	-10.7288
▁Хил	-10.7294
▁толгойн	-10.7294
▁үзүүл	-10.7295
Төрийн	-10.7295
▁Айл	-10.7295
ест	-10.7301
▁хурааж	-10.7302
лаас	-10.7303
▁гаа	-10.7305
▁хүүхэлдэйн	-10.7305
▁бүжиг	-10.7316
▁супер	-10.7317
▁гэлтгүй	-10.7317
~	-10.7318
▁Хариулт	-10.732
▁нэмсэн	-10.732
▁яваарай	-10.7322
▁хянан	-10.7324
▁Шаардлагатай	-10.7325
▁байршуулах	-10.7325
▁нягтлан	-10.7325
▁машинд	-10.7338
▁Га	-10.7338
▁элемент	-10.734
▁унд	-10.7341
▁ашиглана	-10.7341
▁Тав	-10.7342
▁сэргээн	-10.7345
Эх	-10.7348
▁хоолойг	-10.7352
▁Компани	-10.7355
▁бүсгүйг	-10.7358
▁учирсан	-10.7358
гаараа	-10.7359
▁Кар	-10.7361
таг	-10.7361
ынх	-10.7362
▁Баттулга	-10.7364
▁температур	-10.7364
▁Хятадууд	-10.7371
▁буурч	-10.7373
▁үхэл	-10.7375
▁байгуул	-10.738
▁хоёрхон	-10.7381
▁сансрын	-10.7383
▁хатагтай	-10.7383
▁цогцолбор	-10.7383
▁дадлага	-10.7383
▁тохиолдож	-10.7383
▁өндөг	-10.7383
▁эрдэмтэн	-10.7384
▁агуулдаг	-10.7384
▁шилжүүлэн	-10.7385
▁ярилцлаа	-10.7385
▁Баянзүрх	-10.7386
▁удаж	-10.7386
▁тэмдэглэдэг	-10.7386
▁гарав	-10.7387
▁цамц	-10.7387
▁Бүрэн	-10.739
▁аймар	-10.7391
▁ёслолын	-10.7393
▁зохицуулж	-10.7397
▁шир	-10.7398
▁төрхийг	-10.7399
▁Тоглоом	-10.74
Намайг	-10.7405
▁асуултыг	-10.7409
ry	-10.7413
цгээе	-10.7413
▁биет	-10.7415
ью	-10.7415
▁хийхийн	-10.7423
▁Зөвлөлт	-10.7423
ээсэй	-10.7424
▁ХҮН	-10.7424
▁Арабын	-10.7426
▁хэнтэй	-10.743
чихна	-10.7431
▁барах	-10.7435
▁06	-10.7437
шаа	-10.7437
▁өрхийн	-10.7438
▁99	-10.744
АХ	-10.7442
▁орц	-10.7448
▁контент	-10.7449
▁нэмэгдэнэ	-10.7449
▁наяд	-10.7449
▁нөхрөө	-10.745
▁Зөндөө	-10.7451
▁Тэгэхдээ	-10.7452
▁Амьд	-10.7453
▁тоглоод	-10.7453
▁золиос	-10.7453
▁танилцуулсан	-10.7454
▁шаардсан	-10.7454
▁хэрэглэгддэг	-10.7455
▁төрүүлсэн	-10.7456
▁оролдсон	-10.7457
▁мөсөн	-10.7459
▁до	-10.746
▁үзжээ	-10.746
▁Увс	-10.7463
▁14-	-10.7463
▁зорилгодоо	-10.7464
▁Машины	-10.7464
▁38	-10.7466
Очир	-10.7471
гүүд	-10.7472
▁асуудалгүй	-10.7479
▁хооллох	-10.7483
чдийн	-10.7484
▁хэлбэртэй	-10.7485
▁урамшуулл	-10.7487
▁Бүс	-10.749
чихлээ	-10.7494
▁гуй	-10.7495
▁Нь	-10.7497
чилсэн	-10.7497
**	-10.75
▁барууны	-10.7507
▁боомт	-10.7507
▁авт	-10.7512
нэг	-10.7515
▁хязгаарлагдмал	-10.7516
▁зэрлэг	-10.7516
▁Богино	-10.7519
▁ойлгоно	-10.752
▁хамарсан	-10.7522
ент	-10.7523
▁ширээний	-10.7523
▁Ирак	-10.7524
▁саруул	-10.7528
рсан	-10.7529
▁ааш	-10.7532
мин	-10.7536
▁Жин	-10.7538
▁тэтгэвэрт	-10.7542
▁хэрэгжүүлнэ	-10.7546
▁сураггүй	-10.7547
▁хэлээ	-10.7548
▁Оюутолгойн	-10.7549
▁хуу	-10.7552
▁Цалин	-10.7556
▁дайр	-10.7557
▁Арга	-10.7558
▁болхоор	-10.757
сийг	-10.757
▁цэс	-10.7585
▁бүлээ	-10.7588
Баасанхүү	-10.7588
▁эдэлж	-10.7589
▁шалгана	-10.7591
▁жинтэй	-10.7594
▁айгаад	-10.7595
▁Нууц	-10.7596
▁дээшлүүлэх	-10.7596
▁үзэхийг	-10.7597
▁тавин	-10.7602
▁хорин	-10.7603
рэй	-10.7604
▁чигээрээ	-10.7604
Бүх	-10.7607
▁уусан	-10.7609
▁13-	-10.761
сай	-10.7612
▁зайг	-10.7613
▁үстэй	-10.7614
▁хийд	-10.7615
▁тарааж	-10.7616
▁нийтээрээ	-10.7621
Дэлхийн	-10.7621
▁дархлаа	-10.7623
▁төлөвлөгөөтэй	-10.7626
▁Не	-10.7629
▁Сингапур	-10.7629
▁тэргүүний	-10.7631
тлаа	-10.7631
▁ялгах	-10.7636
▁мэдэлд	-10.7641
▁хойч	-10.7644
▁бизнесээ	-10.7645
▁туу	-10.7649
▁сошиал	-10.765
▁сэдвийг	-10.765
▁Өөрсдөө	-10.765
▁өсөж	-10.765
▁ДЭМБ	-10.7653
▁болохоороо	-10.766
▁үхэж	-10.7661
▁хичээсэн	-10.7662
▁хүрэхийн	-10.7665
▁хэлбэрийн	-10.7666
▁Израиль	-10.7667
▁өдрөөр	-10.7668
сайхан	-10.7669
AR	-10.7669
▁дүнгийн	-10.7671
▁баржээ	-10.7672
▁хурим	-10.7672
▁байгуулдаг	-10.7672
ОЛ	-10.7674
▁байлгаж	-10.7675
▁бүтээлээ	-10.7678
▁хэвлэх	-10.7679
sa	-10.7681
эхгүй	-10.7683
оч	-10.7683
▁хийлгэ	-10.7684
тнууд	-10.7685
▁алдахгүй	-10.7688
▁зурж	-10.7689
▁Испани	-10.7691
▁Сургууль	-10.7691
▁Уур	-10.7694
▁завсар	-10.7701
▁ялсан	-10.7702
▁өргөө	-10.7703
мс	-10.7704
ино	-10.7705
▁Кон	-10.7706
▁хайлтын	-10.7707
▁ЗГ	-10.7709
▁Со	-10.771
▁тусламжийн	-10.7711
▁хүзүү	-10.7719
▁хөгжлийг	-10.7719
▁нуух	-10.7719
▁явагддаг	-10.7719
▁ирүүлсэн	-10.772
▁Кан	-10.7721
▁тоглоно	-10.7721
▁үүсгэдэг	-10.7722
▁дэв	-10.7723
▁тарих	-10.7725
▁асуулаа	-10.7725
▁Урд	-10.7726
▁театр	-10.7728
▁ижилхэн	-10.773
гүүр	-10.7734
▁дал	-10.7736
▁унадаг	-10.7737
▁цуглуулга	-10.774
▁эрчүүдийн	-10.7743
go	-10.7745
▁архив	-10.7747
▁Нээрээ	-10.7751
▁ажлаасаа	-10.7752
▁бишээ	-10.7756
члах	-10.7758
▁хүрэхэд	-10.7759
0,000	-10.7761
▁Зуны	-10.7761
▁хөөж	-10.7763
▁онцолж	-10.7765
Эрдэнэт	-10.7767
хам	-10.7767
▁гэрээнд	-10.7767
▁01	-10.7775
▁тогооч	-10.7776
▁тө	-10.778
.....	-10.778
асан	-10.7783
▁тэтгэлэг	-10.7783
▁Ри	-10.7784
▁Дүү	-10.7784
os	-10.7784
Тэд	-10.7786
▁Архангай	-10.7787
▁мөрдөж	-10.7787
▁1-2	-10.7788
▁хаягдал	-10.7788
▁дам	-10.7789
▁мартах	-10.779
▁захиалагч	-10.779
▁Ол	-10.7791
▁хийлгэсэн	-10.7791
▁үзэгчид	-10.7791
▁тэгсэн	-10.7795
%-	-10.7799
▁малчин	-10.78
▁мартсан	-10.78
▁уулз	-10.7801
▁ухаар	-10.7804
▁шийддэг	-10.7804
▁тог	-10.7806
▁Тусгаар	-10.7807
▁экспорт	-10.7808
▁гарагийн	-10.7808
▁нүдээр	-10.7809
уд	-10.7809
▁тоос	-10.7811
▁байртай	-10.7812
▁доллараар	-10.7812
▁Болд	-10.7814
мэд	-10.7814
▁Эмээ	-10.7815
лай	-10.7817
▁хороонд	-10.7818
▁тух	-10.7821
▁өгөхөөр	-10.7821
▁амжилтыг	-10.7822
▁цуглаан	-10.7826
▁нэгжүүд	-10.783
▁ад	-10.7832
▁хүргэнэ	-10.7832
▁тулгуур	-10.7836
▁Библи	-10.7841
▁хураах	-10.7842
эрч	-10.7844
▁Бүгдийг	-10.7849
▁Үз	-10.7849
▁томъёо	-10.7849
▁Sonin	-10.7856
▁шалтгаална	-10.7856
▁Малайз	-10.7856
▁нотолгоо	-10.7856
▁хүрэлцэн	-10.7856
▁согтууруулах	-10.7856
▁эзэлдэг	-10.7857
▁шуурга	-10.7857
▁БНАСАУ	-10.7857
▁өгүүлсэн	-10.7859
▁YouTube	-10.7859
▁мэдрэмжийг	-10.786
br	-10.7861
▁зохиогч	-10.7861
▁Оюутан	-10.7864
▁танаас	-10.7866
▁Бурхны	-10.7868
▁07	-10.7869
▁Уучлаарай	-10.787
▁мэтийн	-10.7875
▁өвчлөл	-10.7875
▁Мон	-10.7878
▁буурах	-10.7878
▁Монголбанк	-10.789
▁Жолооч	-10.7893
▁түрээсийн	-10.7895
▁дутагдалтай	-10.7897
▁дотроос	-10.7899
▁хийдэггүй	-10.7907
▁газартай	-10.7909
▁арчилгаа	-10.7925
▁салшгүй	-10.7926
▁гээл	-10.7926
▁оршиж	-10.7928
▁сонсогдож	-10.7929
▁холбож	-10.793
гор	-10.7931
▁хувцсаа	-10.7934
▁илүүд	-10.7934
▁таалагдахгүй	-10.7935
▁Ло	-10.7935
▁дэлгүүрийн	-10.7937
▁тэрийг	-10.7939
үл	-10.7942
▁өгүүлэх	-10.7948
▁махан	-10.7948
▁ангилалд	-10.7952
▁хад	-10.7952
▁эмэгтэйчүүдэд	-10.7956
араа	-10.7956
mo	-10.7961
чилсан	-10.7964
▁шинэчлэлт	-10.7964
▁Авлига	-10.7968
▁ойлгодоггүй	-10.7971
▁дараалал	-10.7973
▁май	-10.7979
▁илэрч	-10.7979
дэр	-10.7982
НЫ	-10.7986
▁Тоо	-10.7988
▁залуугийн	-10.7992
рин	-10.7992
▁дэр	-10.7992
▁Шөн	-10.7994
Эр	-10.7995
▁огцрох	-10.7995
▁робот	-10.7995
▁хориглоно	-10.7996
элсэн	-10.7997
▁тоглоомууд	-10.7998
▁Байнгын	-10.7998
▁Яахав	-10.7998
▁Умард	-10.7998
▁хаагчдын	-10.7999
▁өндөртэй	-10.8
▁шахалт	-10.8001
▁гайх	-10.8004
▁захиалах	-10.8008
лиг	-10.801
▁үүргийн	-10.801
мийн	-10.801
▁Улаанбаатарт	-10.8011
▁Ногоон	-10.8014
▁бодоогүй	-10.8015
Үүл	-10.8018
▁иргэдээс	-10.8021
▁харц	-10.8025
ьд	-10.803
▁Од	-10.8031
▁ашиглахыг	-10.8033
▁туяа	-10.8033
▁буулга	-10.8034
▁эрэн	-10.8038
▁алсан	-10.804
тэ	-10.8048
▁дансанд	-10.805
алтын	-10.8057
▁Мах	-10.8058
▁дэлгүүрт	-10.806
лагын	-10.8064
▁шалтгаалан	-10.8066
▁босоод	-10.8066
▁МУИС	-10.8066
▁идээд	-10.8067
▁Фото	-10.807
▁Хурдан	-10.8071
▁чихэр	-10.8071
▁хов	-10.8072
▁авъя	-10.8072
▁гэрлэлт	-10.8075
тра	-10.8079
▁хороолол	-10.8084
▁Чин	-10.8085
▁бөмбөгийн	-10.8087
▁шийдлээ	-10.8087
▁шүүмжилж	-10.8093
эхэд	-10.8093
▁борлуулалтын	-10.8094
▁тэмдэгт	-10.81
▁гэнэтийн	-10.8102
▁багтдаг	-10.8105
▁тархины	-10.8111
▁хү	-10.8114
▁анхааралд	-10.8117
▁зүйлсээ	-10.8118
▁ханамж	-10.8119
ni	-10.8123
члан	-10.8128
▁эргүүл	-10.8132
▁тоглоомыг	-10.8133
▁Банк	-10.8133
▁па	-10.8134
▁Бүтэн	-10.8137
▁үүсдэг	-10.8137
▁салаа	-10.8137
▁өвдөх	-10.8137
▁хужаа	-10.8139
▁Нэмэлт	-10.814
▁ажилла	-10.8141
▁шивээс	-10.8141
▁Эгч	-10.8142
▁орууллаа	-10.8142
99	-10.8143
▁шинэчилсэн	-10.8144
▁хус	-10.8148
▁сурагчдын	-10.8148
▁халаа	-10.8149
▁зовлонг	-10.8149
▁замаа	-10.8158
лагдаж	-10.8159
▁болчихдог	-10.8161
ЭР	-10.8161
#	-10.8162
▁хөтлөх	-10.8163
▁учиргүй	-10.8163
вэр	-10.8164
Хамгийн	-10.8164
Хоёр	-10.8164
▁зайтай	-10.8165
▁Дэд	-10.8166
▁уудаг	-10.8168
▁хорлох	-10.8169
▁сексийн	-10.817
▁дааж	-10.8171
▁үүдэн	-10.8172
нуудын	-10.8174
▁Ван	-10.8174
лов	-10.8176
▁заан	-10.8176
▁дүнгээр	-10.8177
and	-10.8177
od	-10.8177
▁дутагдал	-10.8181
▁битүү	-10.8181
▁Сонин	-10.8183
арай	-10.8187
▁эргэх	-10.8188
▁элч	-10.8188
▁МУ	-10.819
дон	-10.8191
▁гардаггүй	-10.8194
▁Pro	-10.8194
бэл	-10.8196
▁эрхэнд	-10.8197
▁05	-10.8199
▁02	-10.8206
▁То	-10.8208
▁санаагаа	-10.8209
▁доогуур	-10.8209
▁түрээслүүлнэ	-10.821
▁ядарсан	-10.821
▁нэмээд	-10.8211
▁эргүүлэн	-10.8212
▁унаад	-10.8213
▁1992	-10.8213
▁Эртний	-10.8216
▁тайзан	-10.8216
▁Ноён	-10.8218
▁журмаар	-10.8219
▁захирагч	-10.8219
рөө	-10.8219
▁хамгаална	-10.8222
▁мөнхийн	-10.8225
УУ	-10.8226
▁машинаа	-10.8227
▁вакцины	-10.8228
▁дүрмий	-10.823
▁уйл	-10.8232
▁шавьж	-10.8233
Алтанхуяг	-10.8236
сээ	-10.8236
▁сургалтанд	-10.8237
▁хэрэглээг	-10.8246
▁хэрэглээнд	-10.825
сах	-10.825
лам	-10.8252
▁дэлгэцийн	-10.8253
тнүүд	-10.8253
▁тоглолтонд	-10.8254
ОО	-10.8254
ее	-10.8254
▁сараар	-10.8256
▁курс	-10.8256
▁бодисын	-10.8257
логдсон	-10.8259
▁Үргэлж	-10.826
▁Оюутолгой	-10.8262
▁зорилгоо	-10.8266
▁авахаас	-10.8268
80	-10.827
▁дай	-10.8273
өрөө	-10.8273
▁эдлэл	-10.8275
▁хуульч	-10.8277
▁үдэш	-10.8279
▁улстөрч	-10.8279
▁Порно	-10.828
▁шүүлтүүр	-10.828
▁алдагдсан	-10.8281
▁авбал	-10.8283
▁гэрч	-10.8283
▁зэрэгцэн	-10.8284
▁Төслийн	-10.8285
▁1:	-10.8285
▁Асуудал	-10.8286
▁for	-10.8286
▁үеийнхэн	-10.8288
▁амаа	-10.829
▁ээжийгээ	-10.8292
▁мэргэжилтэй	-10.8293
▁болсны	-10.8294
▁алдаатай	-10.8295
100	-10.8296
▁гацаа	-10.8297
▁хүлээнэ	-10.8303
ga	-10.8305
▁газруудад	-10.8307
Эрүүл	-10.8309
ft	-10.8311
▁залуусын	-10.8315
▁дууссаны	-10.8315
▁амьдарна	-10.8317
!!!!	-10.8317
▁дайнд	-10.8317
▁нэгтгэх	-10.832
де	-10.832
▁хийгдэх	-10.8322
lu	-10.8326
▁тулж	-10.8329
▁баталгаатай	-10.8343
ъ	-10.8344
▁Хур	-10.8351
▁Previous	-10.8352
▁Чингэлтэй	-10.8352
▁паспорт	-10.8352
▁ТББ	-10.8352
▁өнгөрлөө	-10.8353
▁хүлээгээд	-10.8353
▁Үлдсэн	-10.8353
▁хивс	-10.8354
▁танилцууллаа	-10.8354
▁тэргүүлэгч	-10.8355
▁ухамсар	-10.8356
▁алж	-10.8358
ers	-10.8359
▁нийлүүлэх	-10.836
чихгүй	-10.836
▁ойлголттой	-10.8366
най	-10.8369
ag	-10.8379
хний	-10.8381
руулах	-10.8383
су	-10.8384
▁өгөөж	-10.8386
▁эхлэхээс	-10.8387
▁хятадууд	-10.8389
▁Цахилгаан	-10.8394
▁44	-10.8396
▁Бол	-10.8397
▁хул	-10.8398
▁Халдвар	-10.84
її	-10.8402
▁бүртгэлтэй	-10.8404
рс	-10.8409
вин	-10.8409
▁Жан	-10.841
▁тоохгүй	-10.841
▁ашиглахад	-10.8413
▁адилгүй	-10.8414
▁байгууллаг	-10.8414
▁гамшиг	-10.8415
▁хадгаламжийн	-10.8415
▁шунал	-10.8418
▁цэвэрлэгээ	-10.8419
tt	-10.8424
▁өнөөдрөөс	-10.8425
▁хурдацтай	-10.8425
▁үйлдвэрлэдэг	-10.8427
▁төлнө	-10.8427
▁Оюутнууд	-10.8429
▁ялыг	-10.843
▁анзаарсан	-10.8431
▁гартаа	-10.8431
▁сайтууд	-10.8434
▁цаад	-10.8435
▁аргачлал	-10.8436
▁эргүү	-10.8436
▁цуцлах	-10.8443
▁яамнаас	-10.8445
эгдэх	-10.8447
▁босгох	-10.8448
ань	-10.845
▁шүүдээ	-10.8451
▁рок	-10.8452
▁бичил	-10.8453
ҮҮ	-10.8456
▁сартай	-10.8457
▁бур	-10.8462
▁хамгаал	-10.8466
ру	-10.8474
▁эмийг	-10.848
▁2:	-10.8481
▁ашигла	-10.8486
▁пи	-10.8488
▁зохиолын	-10.8492
▁гүйцэтгэгч	-10.8494
▁ерөөл	-10.8499
▁дүүс	-10.85
▁онцлон	-10.85
▁холбоос	-10.8501
▁сервер	-10.8502
▁цайны	-10.8504
▁баталгаажуулах	-10.8506
IN	-10.8507
▁сана	-10.8509
мм	-10.8509
▁гүрэн	-10.8511
▁тусалсан	-10.8511
▁ахин	-10.8513
▁машинууд	-10.8515
▁хүндэт	-10.8516
▁арслан	-10.8518
▁тэвчээр	-10.8518
▁Туркийн	-10.852
▁цэнийг	-10.8521
▁тавилан	-10.8522
▁Интернет	-10.8524
▁дуулдаг	-10.8526
тах	-10.8527
▁Ял	-10.8529
▁эрж	-10.8534
▁боддоггүй	-10.8537
▁радио	-10.8539
▁бичигт	-10.8545
▁Сур	-10.8553
▁May	-10.8555
олон	-10.8555
▁зуршил	-10.8555
▁улстөрийн	-10.8558
▁орлоготой	-10.8562
ӨӨ	-10.8564
▁давтан	-10.8571
▁агаарт	-10.8571
лэгдэж	-10.8572
▁франц	-10.8573
▁мөрийтэй	-10.8573
▁нөхцлий	-10.8573
▁нойтон	-10.8573
▁санасан	-10.8574
▁дэвшиж	-10.8574
▁тэгэж	-10.8576
луул	-10.8578
▁зуурын	-10.8578
ийм	-10.8579
▁шийдвэрээ	-10.858
▁оролдох	-10.8583
▁дуусаагүй	-10.8584
▁зориулалтаар	-10.8585
▁дах	-10.8585
ич	-10.8586
▁дүгнэлтийг	-10.8587
ял	-10.8589
▁будалт	-10.8589
▁бичгээр	-10.8591
хаас	-10.8592
▁Гэ	-10.8592
▁тиймээс	-10.8593
▁доошгүй	-10.8596
▁Зургаа	-10.8596
▁даан	-10.8597
▁төрчид	-10.86
хо	-10.8601
▁тамга	-10.8602
Сүүлийн	-10.8604
▁оронч	-10.8607
бэр	-10.8611
ант	-10.8614
оз	-10.8615
▁са	-10.8616
гаасаа	-10.8617
гуул	-10.8617
▁зардлаа	-10.8619
▁гарахыг	-10.8624
▁сайдад	-10.8625
▁Нэгдүгээр	-10.8626
▁22-	-10.863
▁k	-10.8635
▁Хор	-10.8636
▁үйлдэх	-10.8636
▁эзэмшигч	-10.8638
▁баар	-10.8638
ара	-10.8639
лна	-10.8639
▁аялж	-10.8641
▁машинтай	-10.8646
▁өнгөрөөх	-10.8646
▁ХӨСҮТ	-10.8647
▁генерал	-10.8647
▁үүсээд	-10.8648
▁хүртэж	-10.8648
▁сонирхлын	-10.8648
▁үүсгэсэн	-10.8649
▁өнгөрүүлсэн	-10.865
▁үнэлдэг	-10.8651
▁XNUMX	-10.8651
▁Коронавирус	-10.8653
▁ре	-10.8654
▁начин	-10.8656
▁салгах	-10.8656
▁Хал	-10.8656
▁эхлүүлж	-10.8658
▁яддаг	-10.866
▁эмчийн	-10.8661
▁2001	-10.8666
▁хялбархан	-10.8669
Анх	-10.8671
▁Номын	-10.8671
▁салгаж	-10.8671
▁үнээ	-10.8674
Q	-10.8678
Амгалан	-10.8678
▁өвдөлт	-10.8687
▁сануулж	-10.8689
▁сэтгэлгээ	-10.8689
▁хаяад	-10.8689
▁нийтээр	-10.8693
▁идэвх	-10.8693
олт	-10.8694
▁үлд	-10.8695
лээрэй	-10.8696
▁нийлүүлэгч	-10.8697
▁гунигтай	-10.8701
▁Гараа	-10.8708
▁Дор	-10.8709
▁товчоо	-10.8711
хээс	-10.8715
▁Сөүл	-10.8723
▁суудлын	-10.8723
▁агуулгыг	-10.8723
▁ЭМЯ	-10.8723
▁Алхам	-10.8723
▁гуравдагч	-10.8723
▁мэргэшсэн	-10.8723
▁ахиц	-10.8724
▁хүсээд	-10.8724
▁диск	-10.8725
▁харагдаад	-10.8725
▁улмаар	-10.8726
▁үйлдвэрлэж	-10.8726
▁тулгардаг	-10.8727
▁хамаатан	-10.8727
▁Петр	-10.8728
ng	-10.8731
ine	-10.8731
▁шүдний	-10.8731
▁Хороо	-10.8732
▁залбирч	-10.8734
▁уралдаанд	-10.8745
▁хаягаар	-10.8746
ЭХ	-10.8749
▁тараа	-10.8752
▁үгсийг	-10.8752
▁солилцоо	-10.8755
▁өөрчлөлтүүд	-10.8756
ac	-10.8756
▁засварын	-10.8759
▁39	-10.8762
▁хилээр	-10.8768
▁эргэлзээ	-10.8769
▁гүйлгээ	-10.8769
▁бү	-10.8772
дүү	-10.8772
▁хэрэглэхэд	-10.8773
▁зугаа	-10.8779
▁босох	-10.878
▁цалинтай	-10.8787
▁амтай	-10.8788
▁сургалтад	-10.8789
:30	-10.8791
▁Биеийн	-10.8792
те	-10.8796
ип	-10.8797
▁дотуур	-10.8798
▁өвөг	-10.8798
▁өмссөн	-10.88
▁зохиосон	-10.88
▁асуугаад	-10.88
▁хэлэлцэнэ	-10.88
▁тогтооно	-10.8801
▁ярив	-10.8801
▁бүтээгдэхүүнүүд	-10.8802
▁Ням	-10.8803
▁аяллын	-10.8804
▁Алс	-10.8805
▁уна	-10.8807
▁амласан	-10.8807
▁юугаа	-10.8807
▁Марк	-10.8808
▁гишүүнээр	-10.8811
▁луйвар	-10.8815
▁хийсний	-10.8823
▁сэргээж	-10.8824
сал	-10.8825
▁аварч	-10.8827
▁санамсаргүй	-10.8831
▁Африкт	-10.8835
эмж	-10.8838
▁нууцыг	-10.8839
ач	-10.8842
▁Үнэнийг	-10.8843
▁биетэй	-10.8848
▁талбайг	-10.8849
▁олдох	-10.8849
▁Le	-10.885
өнө	-10.8853
▁хятадын	-10.8856
▁төлөвлөгөөний	-10.8858
▁саа	-10.8859
үүдээс	-10.886
su	-10.8861
лсон	-10.8871
▁тааруу	-10.8871
▁анагаах	-10.8875
▁сэтгэгдлээ	-10.8875
▁хэлтсийн	-10.8875
▁өөдрөг	-10.8875
▁санагдлаа	-10.8877
▁Түлхүүр	-10.8877
▁дууд	-10.888
▁роман	-10.8881
элж	-10.8881
тол	-10.8881
▁нэвтэрч	-10.8883
▁эвсэл	-10.8886
▁бүлээрээ	-10.8888
ланд	-10.8889
▁маягийн	-10.8891
▁хуудсанд	-10.8891
▁Шөнө	-10.8893
▁Сон	-10.8895
▁нүүж	-10.8896
▁хүнийхээ	-10.8897
▁by	-10.8897
▁мөрөө	-10.8898
▁цац	-10.8899
▁барилдах	-10.8902
▁Араб	-10.8902
▁кинонууд	-10.8903
▁асуудлаас	-10.8907
▁нэгжийн	-10.8907
▁толгойг	-10.8908
▁сэв	-10.891
▁Зүрх	-10.8915
▁өмс	-10.8919
▁Загвар	-10.8921
▁зүтгэх	-10.8921
▁барааг	-10.8923
mp	-10.8923
екс	-10.8925
▁стандартыг	-10.8926
▁хэмжээнээс	-10.8929
▁түнш	-10.8931
▁уруул	-10.8937
31	-10.8939
▁жаргалыг	-10.894
▁герман	-10.8941
▁бодисыг	-10.8943
лүүд	-10.8947
▁Төрөл	-10.8948
▁сор	-10.8949
▁цээр	-10.895
лэгддэг	-10.8952
▁дулаахан	-10.8952
▁нийгмийг	-10.8952
▁Хожим	-10.8952
▁домог	-10.8952
▁Италийн	-10.8953
▁шилжсэн	-10.8954
▁өнцгөөс	-10.8954
▁Ян	-10.8956
▁тархсан	-10.8958
▁хуралдаж	-10.8959
▁санахгүй	-10.8961
▁багахан	-10.8963
▁сайтыг	-10.8963
▁Сайт	-10.8964
▁гэрлэсэн	-10.8965
▁сонирхох	-10.8966
▁ихэр	-10.8971
▁харахаар	-10.8971
▁дээж	-10.8973
▁хэрэглэхгүй	-10.8974
кер	-10.8977
▁суулга	-10.8977
▁байлга	-10.8977
▁зайлуулах	-10.8979
лгэ	-10.8982
▁хи	-10.8984
Хүмүүс	-10.8986
▁хараал	-10.8987
▁мэдээлжээ	-10.8991
▁зуух	-10.8992
ез	-10.8998
▁төсөөл	-10.9
▁дараагаар	-10.9003
тгэл	-10.9003
▁Амьдралд	-10.9005
цгаа	-10.9015
▁гишүүнтэй	-10.9015
▁объект	-10.9018
▁хувцасны	-10.9018
▁Америкчууд	-10.9022
▁тагнуулын	-10.9025
▁нөлөөлнө	-10.9029
▁өгөгдлийг	-10.9029
▁анкет	-10.9029
Дөнгөж	-10.903
▁шалтаг	-10.903
▁айхтар	-10.903
▁тэмдэглэгээ	-10.903
▁120	-10.9031
▁Вэб	-10.9031
▁кк	-10.9032
▁зэс	-10.9032
▁хэрэглэ	-10.9033
▁Баримт	-10.9034
хын	-10.9034
▁авлигын	-10.9034
▁ух	-10.9037
▁малчид	-10.9038
▁цахимаар	-10.9039
▁үйлдвэрүүд	-10.9042
ийнхаа	-10.9043
▁хамар	-10.9045
▁Se	-10.9046
▁Хэвлэл	-10.9049
▁оросууд	-10.9049
▁04	-10.9051
▁бизнест	-10.9051
үүдээ	-10.9056
САН	-10.9056
▁механизм	-10.9056
▁багтаан	-10.906
▁шинэлэг	-10.9061
Тэгэхээр	-10.9064
▁уулзалтын	-10.9065
гаарай	-10.9072
▁мэдээлэлд	-10.9074
▁толбо	-10.9076
ha	-10.9077
▁Хог	-10.9078
▁хөлөө	-10.9078
▁эрдэнэ	-10.9079
▁уд	-10.9079
▁алийг	-10.908
ук	-10.9084
▁бэх	-10.9084
чихвэл	-10.9088
▁автобусны	-10.9089
▁Хүүхдэд	-10.9091
▁аял	-10.9092
хэ	-10.9094
▁улсуудын	-10.9094
▁таараа	-10.9094
▁горим	-10.9096
▁самар	-10.9099
▁хүчинд	-10.9103
▁дижитал	-10.9107
▁бооцоо	-10.9107
▁сувилагч	-10.9107
▁сөргөө	-10.9107
▁шимтгэл	-10.9108
▁Ираны	-10.9108
▁сүмийн	-10.911
▁51	-10.9111
▁бахархдаг	-10.9111
▁харьяа	-10.9112
▁засч	-10.9112
▁үйлчлүүлэгчид	-10.9112
єр	-10.9113
▁Түр	-10.9116
▁өвчнийг	-10.9116
▁болохоо	-10.9117
▁08	-10.9117
▁дотооддоо	-10.9118
▁сэтгүүлчид	-10.9119
▁такси	-10.9119
вер	-10.9119
▁өөрчил	-10.9126
▁хэрэгцээнд	-10.9127
▁Банкны	-10.913
ll	-10.9131
▁зүүх	-10.9133
▁Гэгээн	-10.9133
▁хойноос	-10.9133
▁Үе	-10.9134
лож	-10.9134
▁бүртгэх	-10.9138
▁хандуулж	-10.9143
▁Яа	-10.9144
▁түмнээ	-10.9144
▁илрүүлэх	-10.9145
▁охидын	-10.9146
▁бүтээгч	-10.9148
чны	-10.9148
▁дүрмийн	-10.9149
▁улстай	-10.915
▁гадагш	-10.9153
▁уут	-10.9154
▁хаасан	-10.9154
ru	-10.9159
▁зэвсэгт	-10.9159
▁үндсэндээ	-10.9161
дол	-10.9165
▁намры	-10.9172
▁ходоод	-10.9173
▁Ки	-10.9174
дэв	-10.9174
Хэн	-10.9175
▁шав	-10.9178
▁24-	-10.9178
▁хадгал	-10.9186
▁шудрага	-10.9186
▁мөрөөдлөө	-10.9186
▁сонины	-10.9186
▁ингэснээр	-10.9186
▁ХК	-10.9188
▁хайгаад	-10.9189
▁суугчид	-10.919
▁тээрэмдэх	-10.919
▁37	-10.9191
ард	-10.9192
▁Өсвөр	-10.9194
ори	-10.9195
▁тойргийн	-10.9197
▁явчихсан	-10.9198
▁болноо	-10.9198
▁халх	-10.9199
▁орчлон	-10.9199
▁байшингийн	-10.9203
▁баасан	-10.9203
▁оролцохгүй	-10.9204
▁засгаа	-10.9211
▁албаныхан	-10.9215
▁явцын	-10.9222
▁хорвоог	-10.9222
▁үзэхээр	-10.9223
ЭГ	-10.9225
▁ойд	-10.9228
▁олонд	-10.9229
▁больж	-10.9231
▁шатахуун	-10.9237
▁су	-10.9246
▁хээр	-10.9248
▁хүсэлтээр	-10.925
▁болгоны	-10.9251
▁17-	-10.9252
▁өнгөөр	-10.9254
гджээ	-10.9257
рэг	-10.9259
▁буулгаж	-10.926
▁нэгнээ	-10.9261
лаар	-10.9261
▁унтраах	-10.9261
цийн	-10.9265
▁график	-10.9265
▁өмсдөг	-10.9266
▁илэрхийлье	-10.9266
▁Хэсэг	-10.9267
мер	-10.9268
▁дамжуулагч	-10.9269
▁атлаа	-10.927
ым	-10.927
▁төсөөлөл	-10.927
▁улстөрчид	-10.927
▁яд	-10.9271
▁усаар	-10.9272
ины	-10.9273
▁хүрээний	-10.9284
єн	-10.9285
▁хүс	-10.9286
▁орчимд	-10.9287
УУЛ	-10.9294
▁Хатуу	-10.9297
▁америкчууд	-10.9298
▁гадагшаа	-10.9299
▁эргүүлж	-10.93
▁элсэх	-10.93
ого	-10.93
▁компьютерийн	-10.93
агдаж	-10.9302
Ийм	-10.9302
чдыг	-10.9303
оорой	-10.9304
▁эмэгтэйг	-10.9304
▁сэрээ	-10.931
▁доошоо	-10.9311
▁нийгэмлэг	-10.9313
зүйн	-10.9314
▁дайрч	-10.9314
▁Гоё	-10.9317
ИН	-10.9318
▁эмэгтэйн	-10.9321
▁2002	-10.9321
▁Му	-10.9323
▁бодлогоо	-10.9323
▁тендер	-10.9325
▁ахмадууд	-10.9328
▁авалтын	-10.933
▁түймэр	-10.9331
▁уурын	-10.9334
▁аврал	-10.9339
▁үзэхгүй	-10.9343
age	-10.9345
▁градус	-10.9345
▁албыг	-10.9345
▁мэдэгдэв	-10.9346
▁аятайхан	-10.9347
▁оруулагчид	-10.9349
▁хэрэгжүүлсэн	-10.9353
▁парк	-10.9353
▁баярласан	-10.9354
▁Хяналт	-10.9354
▁хүчинтэй	-10.9354
▁Архив	-10.9356
▁ажиглаж	-10.9359
▁нэрс	-10.9359
члэн	-10.936
▁250	-10.9361
▁гараараа	-10.9361
▁мэдээлэх	-10.9363
▁Охид	-10.9365
▁ё	-10.9366
▁тэргүү	-10.9366
▁ялаа	-10.9366
▁гут	-10.9367
▁заадаг	-10.9367
▁Цагийн	-10.9369
▁мин	-10.937
▁хөгжүүлж	-10.937
▁Но	-10.9373
▁нэмэгдүүлж	-10.9374
рил	-10.9374
▁элсэлт	-10.938
▁байрлалтай	-10.938
▁алдалгүй	-10.9382
Гэхдээ	-10.9382
▁товчийг	-10.9384
▁е	-10.9388
▁хэлчих	-10.939
▁айн	-10.9391
▁му	-10.9392
▁цэгүүд	-10.9394
хныг	-10.9395
▁Q	-10.9398
▁санадаг	-10.9401
▁хязгааргүй	-10.9404
▁Тоглоомын	-10.9407
▁дансны	-10.9409
▁ихэнхи	-10.941
=	-10.9411
▁Ерөнхийлөгчид	-10.9412
▁иш	-10.9412
▁гишүүдэд	-10.9413
гїй	-10.9425
▁зүрхний	-10.9425
▁бүдүүлэг	-10.9426
▁хариуцлагыг	-10.9426
▁явагдана	-10.9427
▁бодъё	-10.9427
▁зорилтот	-10.9427
▁Хугацаа	-10.9429
▁үзэгч	-10.943
▁амьдралтай	-10.9431
▁шийджээ	-10.9431
▁гэгээн	-10.9433
▁чадварлаг	-10.9433
▁ялагч	-10.9434
▁re	-10.9435
▁өнгийг	-10.9436
▁байсны	-10.9439
▁залбир	-10.944
▁Зул	-10.9441
▁амжилтын	-10.9443
▁хээ	-10.9444
▁дэмжихгүй	-10.9446
▁хийснээр	-10.9447
▁эртнээс	-10.945
▁ээжийнхээ	-10.9452
▁тарьж	-10.9455
▁чимэг	-10.9455
▁зоос	-10.9462
▁гэдэс	-10.9474
▁зэсийн	-10.9477
уулаа	-10.9478
туяа	-10.948
хэл	-10.9483
▁оролц	-10.9485
▁ооо	-10.9485
▁зэрэгтэй	-10.9489
шуу	-10.9494
▁өөдөөс	-10.9499
▁уурхайд	-10.9502
sh	-10.9503
48	-10.9505
УС	-10.9506
▁мэндчилгээ	-10.9507
▁орлогыг	-10.9507
▁эргэлзэж	-10.9508
▁өвдөж	-10.9508
Хүүхдийг	-10.9508
▁хөнөөсөн	-10.9508
▁аялгуу	-10.9509
▁гүйцэтгэнэ	-10.9509
▁тойрсон	-10.9509
▁иргэддээ	-10.9509
▁томилгоо	-10.9509
▁төгсөөд	-10.951
▁1999	-10.951
▁хэвшил	-10.951
▁орчихсон	-10.9511
▁гээгүй	-10.9514
▁суулгасан	-10.9514
▁оныг	-10.9515
тик	-10.9516
▁сангаас	-10.9517
мөөр	-10.9517
▁гаргав	-10.9518
▁ордын	-10.952
▁бүтээгдэхүүнээ	-10.952
▁гавьяа	-10.952
▁цуглуулж	-10.9522
▁санг	-10.9522
▁байшинд	-10.9524
▁ZA	-10.9524
▁судалгаанд	-10.9525
▁Германд	-10.9528
▁ээжүүд	-10.9531
▁оролцуулах	-10.9533
▁Залуус	-10.9533
чихэж	-10.9533
▁Цааш	-10.9533
▁сэн	-10.9534
дуулж	-10.9534
▁зориулалтын	-10.9535
▁явахаар	-10.9538
ддэг	-10.9541
▁Bo	-10.9542
нээр	-10.9542
▁судлалын	-10.9543
ity	-10.9544
▁явчих	-10.9551
▁Янз	-10.9553
▁тавилга	-10.9553
гэнэ	-10.9556
▁ашгаа	-10.9557
▁гишүүнийг	-10.9557
▁тогтоожээ	-10.9557
▁чөлөөний	-10.9558
▁тамир	-10.9558
▁онош	-10.9559
▁тив	-10.9561
Болор	-10.9562
▁гаран	-10.9564
▁тайлж	-10.9567
▁шивнэ	-10.9571
ён	-10.9571
ast	-10.9573
▁Билл	-10.9573
▁кон	-10.9574
▁бүтээмж	-10.9576
▁алаг	-10.9579
▁Пакистан	-10.958
ийнхөө	-10.958
▁Ас	-10.9585
▁хуй	-10.9587
▁Microsoft	-10.9589
RMED	-10.9589
▁хамаардаг	-10.959
▁шалгарсан	-10.959
▁тооцогддог	-10.959
▁Хааяа	-10.959
▁хамгааллын	-10.959
▁хэлэлцсэн	-10.9591
▁анзаарч	-10.9592
▁Парламент	-10.9592
om	-10.9594
▁эзэд	-10.9594
▁арми	-10.9595
▁нэмэргүй	-10.9596
гүйгээс	-10.9602
▁авчихсан	-10.9604
▁гүрний	-10.9604
▁цэвэрлэж	-10.9605
▁тахил	-10.9605
▁сүүлдээ	-10.9606
]]	-10.9608
▁гэдгээрээ	-10.961
▁тэгэхээр	-10.961
▁инээж	-10.9611
▁St	-10.9614
▁даган	-10.9615
өс	-10.9616
▁европ	-10.9617
▁ком	-10.9621
▁Амралтын	-10.9622
▁аяндаа	-10.9623
▁Швед	-10.9623
лууд	-10.9626
▁суралц	-10.9631
▁Па	-10.9633
▁Евро	-10.9634
▁бэр	-10.9634
алд	-10.9636
▁төсвий	-10.9638
▁өмсөгч	-10.964
мар	-10.9641
▁Жааха	-10.9641
▁хагалгаа	-10.9641
▁сонсгол	-10.9643
лдаг	-10.9645
▁Харри	-10.9646
▁зарцуул	-10.9647
▁Баг	-10.9648
▁уулзана	-10.9649
▁чадвараа	-10.9652
▁дарсан	-10.9653
up	-10.9656
">	-10.9658
▁Ma	-10.966
▁j	-10.9661
▁дурсгал	-10.9663
▁хайлт	-10.9663
рга	-10.9663
bo	-10.9664
ns	-10.9666
▁Ехова	-10.9668
▁Гагцхүү	-10.9672
▁Найрамдах	-10.9672
▁мөрөөдөж	-10.9672
▁удирдамж	-10.9672
▁хаалгыг	-10.9672
▁ялгаварла	-10.9672
▁түгжрэл	-10.9672
▁хандлагыг	-10.9672
▁өрсөлдөж	-10.9672
▁баригдаж	-10.9673
▁Бэлг	-10.9674
▁арьсны	-10.9674
▁Компьютер	-10.9675
▁тахиа	-10.9675
▁Бусдыг	-10.9675
▁амьдраад	-10.9676
tion	-10.9677
▁аймшигт	-10.9677
▁хэрэгслээр	-10.9677
▁цаашдын	-10.9678
▁До	-10.9679
▁гаргаагүй	-10.968
▁байгуулахаар	-10.9681
▁зүйлдээ	-10.9681
▁(2	-10.9685
▁учрах	-10.9686
-10	-10.9686
▁си	-10.9687
▁боломжит	-10.969
▁хє	-10.9691
▁сургуулиас	-10.9694
▁Алдаа	-10.9694
▁бүртээ	-10.9694
уулга	-10.9696
▁Тамхи	-10.9696
▁анзаар	-10.9697
▁буусан	-10.9698
▁хуримын	-10.9699
ци	-10.9706
▁өн	-10.9714
▁малтмалын	-10.9716
▁үзүүлэлтүүд	-10.9718
▁76	-10.972
ca	-10.9738
▁учирч	-10.9738
▁дараалл	-10.9742
▁хотууд	-10.9742
-3	-10.9745
▁хүрээтэй	-10.9746
гоороо	-10.975
▁маа	-10.9751
▁туг	-10.9753
▁Төлбөр	-10.9754
▁Вьетнам	-10.9755
▁өртөж	-10.9755
▁аваргын	-10.9756
▁яриагүй	-10.9756
▁тогтоогдсон	-10.9758
▁уулзлаа	-10.9759
▁тэмдэглэсэн	-10.9759
▁хэлбэрийг	-10.976
▁дэвшигчид	-10.9761
▁оролцогчид	-10.9762
▁хамруулах	-10.9763
▁харагд	-10.9765
▁чуулганаар	-10.9766
▁тэтгэврийн	-10.9766
▁Яасан	-10.9772
▁дүгнэх	-10.9774
цгоо	-10.9776
▁олжээ	-10.9778
▁чанарууд	-10.978
▁ажилчин	-10.978
▁бариул	-10.9781
▁Тайланд	-10.9781
▁шатахууны	-10.9785
ынхоо	-10.9787
▁дэвшүүлэх	-10.9787
▁холбоог	-10.979
▁гарчиг	-10.9792
ийж	-10.9792
ant	-10.9795
▁Ад	-10.9796
▁болсноор	-10.9797
▁сайдаар	-10.9801
▁Ээ	-10.9804
▁илэрхий	-10.9806
▁үер	-10.9807
▁Мөнгөний	-10.9808
▁3000	-10.9808
▁бясалгал	-10.981
▁Туул	-10.9811
▁эхлэхэд	-10.9813
▁600	-10.9816
▁Me	-10.9817
▁бэлд	-10.9818
ve	-10.9823
▁цалингийн	-10.9824
▁IP	-10.9827
дас	-10.9827
▁мэргэжлээр	-10.9828
эе	-10.983
гээрэй	-10.9835
▁шилжүүл	-10.9839
▁хүргүүлсэн	-10.9839
▁нөхөж	-10.984
▁үзүүлбэр	-10.984
▁Өмнөговь	-10.984
▁тооцно	-10.984
▁Хөгжим	-10.9841
▁шилжиж	-10.9841
▁хорхой	-10.9842
мо	-10.9846
▁Татварын	-10.9847
▁хүргэлт	-10.9847
▁оролд	-10.9848
▁үлддэг	-10.9848
▁1990-	-10.9849
▁шилжүүлж	-10.9849
орон	-10.9849
▁яав	-10.9849
▁Үнэгүй	-10.985
▁хүүхэлдэй	-10.9854
▁болчихож	-10.9855
анг	-10.9858
▁тэвчээртэй	-10.986
▁уйлах	-10.9861
▁харахыг	-10.9863
▁хурлаар	-10.9866
уйц	-10.9869
▁сагсан	-10.9869
▁доктор	-10.9873
▁Чам	-10.9874
▁тарх	-10.9874
▁Британид	-10.9877
сыг	-10.9878
▁Ердөө	-10.9879
▁таамаглал	-10.988
гөөр	-10.9881
▁аваач	-10.9883
▁түүгээр	-10.9883
▁хичээлдээ	-10.9889
▁сургаж	-10.9894
єл	-10.9896
▁To	-10.9896
▁зохиож	-10.9898
▁улай	-10.99
▁оффис	-10.9903
▁Парис	-10.9908
▁алдаг	-10.991
▁шатаа	-10.9918
яцхан	-10.9922
му	-10.9922
▁хүнтэйгээ	-10.9923
▁найрсаг	-10.9924
▁баримталдаг	-10.9926
▁мэдлийг	-10.9927
▁хоолонд	-10.9927
▁гайхаад	-10.9928
▁уулзаад	-10.9928
▁Адам	-10.993
▁олгохгүй	-10.993
▁Зөвлөгөө	-10.993
▁гайхсан	-10.9932
▁бүрдэнэ	-10.9933
▁Говь	-10.9934
▁үхлийн	-10.9936
▁залбирал	-10.9936
▁ажигла	-10.9939
▁Тэгэхгүй	-10.994
ba	-10.994
▁Монголбанкны	-10.995
▁ашиглаад	-10.995
▁авмаар	-10.9953
▁хувьсгалын	-10.9957
▁Райли	-10.996
▁тооцоолж	-10.9963
Өнгөрсөн	-10.9966
Хэрвээ	-10.9966
Улаанбаатар	-10.9966
▁тоглолтод	-10.997
▁Програм	-10.9971
▁хязгаарлах	-10.9971
▁юугаараа	-10.9974
▁орчуулга	-10.9976
▁хүйс	-10.9978
▁ОР	-10.9979
▁хорьж	-10.9979
▁Хурд	-10.9985
▁тархалт	-10.9985
▁цусны	-10.9985
▁хотхонд	-10.9986
▁олныг	-10.9987
агтун	-10.999
▁ашиггүй	-10.9994
лсэн	-10.9995
▁шийдвэрлэж	-10.9996
▁de	-10.9996
▁ойг	-10.9997
мент	-10.9997
▁устгаж	-10.9999
▁Эргэн	-11
▁тодотгол	-11.0002
▁Mo	-11.0006
▁тааламжтай	-11.001
▁шүршигч	-11.001
▁наадмыг	-11.001
▁эзэмшиж	-11.001
▁НИТХ	-11.001
▁товчлуур	-11.001
▁санамж	-11.001
▁Бүртгэл	-11.001
▁СЕХ	-11.0011
▁адилаар	-11.0011
▁харилцагч	-11.0012
▁бүжгийн	-11.0013
▁танилцуулна	-11.0014
▁Ардчилал	-11.0016
▁түмнээс	-11.0016
▁шууданг	-11.0018
▁ортой	-11.0019
▁авчирдаг	-11.0019
▁баярлах	-11.0019
▁бурхны	-11.0019
▁ухаанд	-11.0023
▁учруулж	-11.0024
mi	-11.0025
▁La	-11.0026
▁олоогүй	-11.0027
игийн	-11.0032
▁Вашингтон	-11.0033
ist	-11.0037
▁илэрхийл	-11.0039
▁зааг	-11.0042
▁хорвоод	-11.0042
мын	-11.0044
Өө	-11.0047
▁татна	-11.0047
▁болъё	-11.005
▁илрүүл	-11.0051
▁харуулдаг	-11.0053
ok	-11.0054
▁Хариу	-11.0058
кийн	-11.0064
▁Ле	-11.0065
▁аминд	-11.0066
▁Барууны	-11.0069
▁наа	-11.0071
лосон	-11.0072
▁охидууд	-11.0076
▁оршино	-11.0077
▁ажилтны	-11.0078
цал	-11.0084
▁гахай	-11.009
▁цөл	-11.009
-11	-11.0091
▁хэвт	-11.0092
олж	-11.0094
▁экспортын	-11.0095
▁эелдэг	-11.0096
▁start	-11.0096
▁унага	-11.0096
▁Усны	-11.0096
▁хичээгээрэй	-11.0096
▁гэдгээс	-11.0097
▁1998	-11.0097
▁хуваалцаж	-11.0097
▁сонгогчдын	-11.0097
▁анхааруулж	-11.0098
▁гаалийн	-11.0098
▁мартаарай	-11.0098
▁Цус	-11.01
▁дуугаар	-11.0102
▁сонгогдох	-11.0102
▁Ганцаараа	-11.0102
IS	-11.0103
▁мэдлийн	-11.0103
▁зүйлээр	-11.0104
▁гуйсан	-11.0105
АД	-11.0105
▁үгтэй	-11.0107
▁хориотой	-11.0107
▁таваг	-11.0111
▁байраа	-11.0113
▁ди	-11.0115
▁аргаа	-11.0116
▁этгээдийн	-11.0117
▁хэсгээр	-11.0121
▁Тал	-11.0122
▁банкнаас	-11.013
▁Ажлаа	-11.0134
Харин	-11.0143
▁тиймээ	-11.015
▁аялалд	-11.0151
▁чадалгүй	-11.0151
▁ОУ	-11.0151
▁унтраа	-11.0152
муу	-11.0158
уль	-11.0159
▁тунг	-11.0163
-20	-11.0167
▁ажлуудыг	-11.0169
дахь	-11.0169
▁Се	-11.0171
▁Токио	-11.0172
үйц	-11.0173
▁тэнцвэр	-11.0173
▁хурдны	-11.0174
АВ	-11.0175
▁олгогч	-11.0175
▁машинаар	-11.0181
▁авчих	-11.0181
▁хэрэгтэн	-11.0182
▁хуримтлал	-11.0183
▁байгуулагдаж	-11.0183
▁шахам	-11.0184
▁торгууль	-11.0184
▁олго	-11.0185
▁26-	-11.0187
▁устгасан	-11.0188
▁хийчихсэн	-11.0191
55	-11.0192
▁өрөөндөө	-11.0195
▁Мань	-11.0196
▁салга	-11.0202
▁байраар	-11.0203
▁ярилц	-11.0206
▁оруулагч	-11.0207
▁хоёроос	-11.0208
▁өрийн	-11.0212
▁тэндээ	-11.0212
▁Ирээдүйд	-11.0215
▁дуугар	-11.0215
▁ес	-11.0217
▁хуудасны	-11.0225
▁хуурч	-11.0229
▁морины	-11.023
nd	-11.023
▁Ойр	-11.0236
алдаг	-11.0239
▁сэ	-11.024
▁дүрийг	-11.0242
▁гэгээ	-11.0244
▁хоч	-11.0246
▁Мөнгөн	-11.0249
▁Хоёрдугаар	-11.025
▁шүүмж	-11.0256
▁магт	-11.026
▁илгээж	-11.0261
▁жингээ	-11.0263
▁Обама	-11.0265
▁царайг	-11.0267
▁алуурчин	-11.027
▁механик	-11.027
▁бүтцийг	-11.027
▁Удалгүй	-11.0271
▁ойлгоогүй	-11.0271
▁Жорж	-11.0271
▁Дотор	-11.0271
▁үргэлжилсээр	-11.0271
▁бичээрэй	-11.0272
▁Сонирхолтой	-11.0272
▁ирээрэй	-11.0273
▁орвол	-11.0275
▁саналын	-11.0277
▁хэрэглэхийг	-11.0278
ИС	-11.0279
щ	-11.028
▁загварууд	-11.028
хаан	-11.0283
▁дангаараа	-11.0283
▁талт	-11.0288
▁инээдтэй	-11.0294
▁мо	-11.0295
▁бутлуурыг	-11.0297
чдад	-11.0297
▁хэдийгээр	-11.0299
▁гарсаар	-11.0308
▁жуулчлал	-11.0308
▁Египет	-11.031
▁тойр	-11.0312
▁аваас	-11.0315
▁морин	-11.0317
▁Зээлийн	-11.0317
▁Al	-11.0318
pa	-11.0323
▁бахархал	-11.0325
▁мэр	-11.0326
▁Дэлхийд	-11.0326
ѳѳ	-11.0327
▁зүйлтэй	-11.0329
▁зэрэгт	-11.033
▁гэснээ	-11.0331
▁огцор	-11.0331
ээч	-11.0335
▁бялуу	-11.0337
атор	-11.0339
▁зүрхэнд	-11.0345
гол	-11.0345
▁Украины	-11.0348
▁тодорхойл	-11.0349
тний	-11.0349
▁валютын	-11.035
▁Байр	-11.0353
▁зарчмын	-11.0359
▁огноо	-11.0359
▁тохиолдлууд	-11.0359
▁романтик	-11.0359
▁нярай	-11.0359
▁So	-11.0359
▁5000	-11.0359
▁нөхөх	-11.036
▁хошин	-11.036
▁содон	-11.036
▁дэвшүүлсэн	-11.036
▁олноор	-11.0361
▁Android	-11.0361
▁тєр	-11.0361
ех	-11.0362
▁тооцсон	-11.0362
▁хичээллэж	-11.0363
▁баярладаг	-11.0366
▁хуц	-11.0367
єх	-11.037
▁хэргүүд	-11.037
▁захиалгаар	-11.037
▁тохируулж	-11.0371
▁тогтворгүй	-11.0371
▁Цөм	-11.0372
▁нутгаа	-11.0374
▁He	-11.0374
▁Төрсөн	-11.0375
▁Нэм	-11.0376
шилт	-11.0379
▁төлөөлөгчдий	-11.0381
▁махны	-11.0381
▁идэвхитэй	-11.0382
▁бүртгэж	-11.0384
▁Сум	-11.0385
▁танин	-11.0391
▁байцаа	-11.0392
▁утсы	-11.0393
▁бууруулж	-11.0396
▁үсний	-11.0397
▁анг	-11.0398
▁дэлгүүрүүд	-11.0401
▁хэнээс	-11.0402
▁ташаа	-11.0403
▁хэрэгцээтэй	-11.0405
▁бэл	-11.0405
НА	-11.0408
▁сэрүүн	-11.0409
йд	-11.0417
▁үүл	-11.0432
▁нүдийг	-11.0435
):	-11.0439
ЭМ	-11.0439
▁Mi	-11.044
▁тойрч	-11.0446
▁индекс	-11.0448
▁мөрөөддөг	-11.0448
▁өчнөөн	-11.0448
▁хуулиуд	-11.0448
▁лекц	-11.0449
▁зэвүүн	-11.0449
▁УОК	-11.0449
▁dur	-11.0449
▁морилно	-11.0449
▁нисдэг	-11.045
▁хэрэгжүүл	-11.0451
▁ногдол	-11.0451
▁жүжигчид	-11.0451
▁хэрэглээд	-11.0453
▁хэлэхийг	-11.0453
▁Нүд	-11.0454
▁Давхар	-11.0456
▁III	-11.0459
▁шүүмжлэх	-11.0461
▁Хоёулаа	-11.0462
рол	-11.0464
▁эргэлзээтэй	-11.0465
▁хуультай	-11.0466
одоо	-11.0467
▁бө	-11.0469
▁Утаа	-11.047
▁Сауд	-11.047
▁багууд	-11.0471
▁пост	-11.0472
▁амьдралаас	-11.0472
▁илүүдэл	-11.0476
▁см	-11.0476
▁хөрөнгөө	-11.0478
▁Жилд	-11.048
▁амьсгаа	-11.048
▁Амар	-11.0481
▁тохирч	-11.0481
▁хонож	-11.0482
▁өнгөрөө	-11.0483
▁сэтгэж	-11.0485
▁Суу	-11.0487
▁мэдээлэлтэй	-11.0489
дай	-11.0489
▁дуулга	-11.0491
▁Хэнд	-11.0493
со	-11.0494
▁хувилбарууд	-11.0496
▁буруутга	-11.0496
▁тайлбарыг	-11.0497
▁таамаг	-11.0498
▁гарыг	-11.0498
▁Далайн	-11.0501
▁үйлд	-11.0501
▁Спорт	-11.0503
▁жишээтэй	-11.0504
di	-11.0505
▁Хэнтий	-11.0507
▁байрандаа	-11.051
▁иргэнд	-11.0512
▁олз	-11.0514
▁сун	-11.0517
▁ялгааг	-11.0517
36	-11.0523
▁завсарлага	-11.0526
▁гаригийн	-11.0528
per	-11.0528
▁цэнгэл	-11.0533
▁хомсдол	-11.0534
▁бүсгүйчүүдийн	-11.0535
▁ширээн	-11.0537
▁нандин	-11.0538
▁аажмаар	-11.0538
вээ	-11.0539
▁лавлагаа	-11.0539
io	-11.0539
▁бөөнөөр	-11.0539
▁хамрагдаж	-11.054
▁евро	-11.0541
▁бүтээ	-11.0542
▁сэргээ	-11.0542
▁сайжирч	-11.0542
▁онгон	-11.0543
▁өнгөрөөж	-11.0544
▁баримталж	-11.0544
▁илэрхийлэл	-11.0544
▁хариуцах	-11.0544
▁саарал	-11.0545
▁жаал	-11.0545
▁өргө	-11.0545
▁Худлаа	-11.0545
▁шийдлийг	-11.0546
▁анхнаасаа	-11.0546
▁угаагч	-11.0547
▁гэсээр	-11.0547
▁Ухаалаг	-11.0547
▁Шилэн	-11.0548
▁удирдагчид	-11.0548
лагдах	-11.0551
▁татам	-11.0551
▁давхи	-11.0552
▁Нийслэл	-11.0553
▁хөгж	-11.0554
▁төрлөөр	-11.0556
▁Сумын	-11.0558
▁ресторан	-11.0558
▁садан	-11.0558
ТАЙ	-11.056
▁харилцаагаа	-11.0561
▁дэл	-11.0561
▁улстөр	-11.0564
▁тийн	-11.0566
▁нууж	-11.0567
▁бодитоор	-11.0569
▁сууцанд	-11.057
Сан	-11.0574
▁зориул	-11.0581
▁чимэглэл	-11.0583
чий	-11.0585
Жавхлан	-11.0585
▁те	-11.059
▁ухааныг	-11.059
ab	-11.0593
нер	-11.0593
▁багтах	-11.0596
▁аманд	-11.0596
▁үсийг	-11.0597
▁дэвш	-11.0597
▁Тэ	-11.0598
▁суугч	-11.0598
▁Be	-11.0598
▁Буу	-11.0599
яг	-11.0602
жсан	-11.0603
ков	-11.0606
▁Энхболд	-11.0607
▁Үүгээр	-11.0608
▁төмс	-11.0608
▁шүүхээр	-11.0613
▁Ре	-11.0615
▁нүдэн	-11.0615
▁ингэ	-11.0616
▁хичээлийг	-11.0617
▁поп	-11.0621
▁Тайван	-11.0623
рваннэгдүгээр	-11.0626
▁үлдээж	-11.0628
▁Хонконг	-11.0629
▁Баабар	-11.0629
▁ерөөе	-11.0629
▁тохижилт	-11.0629
▁Цэвэр	-11.0629
▁мастер	-11.0629
▁Удаан	-11.063
▁бодогч	-11.063
▁Тэдгээрийн	-11.063
▁дэмжээд	-11.0631
▁дурлаж	-11.0631
▁Шийдвэр	-11.0632
▁ашиглалтанд	-11.0633
▁ахиж	-11.0634
▁нийлүүлэлт	-11.0634
▁хүндэлдэг	-11.0637
▁гэдсээр	-11.0637
▁боловсруулалт	-11.0638
▁Twitter	-11.0639
өндөө	-11.0641
▁цэврийн	-11.0641
▁голдуу	-11.0641
стер	-11.0643
▁материалын	-11.0644
ara	-11.0644
▁тохиолдлын	-11.0645
▁хальс	-11.0646
▁Сам	-11.0646
2-	-11.0647
▁сонголтоо	-11.065
▁43	-11.0652
no	-11.0652
хүн	-11.0658
▁өдөртөө	-11.0658
▁тоож	-11.0667
▁асаа	-11.0668
▁Сонгууль	-11.067
▁Насанд	-11.0671
длаа	-11.0672
▁авилга	-11.0672
еп	-11.0677
Ганбаатар	-11.0677
Засгийн	-11.0677
лс	-11.0678
▁чадахаа	-11.0679
32	-11.068
▁шинэчлэн	-11.068
▁цагдаад	-11.068
гүү	-11.0685
ka	-11.0685
▁Шада	-11.0685
all	-11.0688
▁овог	-11.069
болд	-11.0691
▁шаар	-11.0694
иб	-11.0694
▁үнэлгээний	-11.0696
▁саванд	-11.0701
▁1996	-11.0704
▁ханиад	-11.0707
дэ	-11.0712
▁Ашиг	-11.0712
▁хүлээлгэн	-11.0714
▁Хийх	-11.0716
онг	-11.0718
▁Цэц	-11.0719
▁нөхрийн	-11.072
▁дурс	-11.072
▁Дасгал	-11.0721
▁найрамдах	-11.0721
▁амьтдын	-11.0721
▁үймээн	-11.0721
▁Бусдад	-11.0721
▁Буриад	-11.0721
▁Хүчит	-11.0722
▁орлогч	-11.0722
▁томилогдсон	-11.0722
▁бараан	-11.0723
▁ёсондоо	-11.0723
▁[[	-11.0724
▁Систем	-11.0724
▁олголт	-11.0726
▁Татвар	-11.0727
▁Гайхалтай	-11.0727
▁болзоо	-11.0727
▁зовоож	-11.0728
▁босч	-11.073
▁41	-11.0733
▁гүйцэд	-11.0734
▁яаманд	-11.0734
▁одон	-11.0735
▁хандана	-11.0737
▁шавар	-11.0737
▁цуу	-11.0738
ОГ	-11.074
гэсэн	-11.074
▁гэл	-11.0744
▁зарлалаа	-11.0744
▁эзгүй	-11.0744
▁доромжилж	-11.075
▁соёлтой	-11.0751
▁Wi	-11.0757
олсон	-11.0757
▁Ой	-11.0758
алтай	-11.0761
▁шаа	-11.0763
об	-11.0766
Хүний	-11.0767
▁дууддаг	-11.0768
▁суга	-11.077
▁Аг	-11.077
гдсэн	-11.0772
хэвч	-11.0773
▁мөс	-11.0774
▁баяраар	-11.0774
▁зул	-11.0781
гтун	-11.0782
▁дурсах	-11.0783
▁баатрууд	-11.0785
▁халдварт	-11.079
▁хөв	-11.079
▁бүрэлдэхүүнд	-11.0791
▁Зо	-11.0796
сч	-11.08
▁тогтоолын	-11.0801
▁мэдэхийн	-11.0801
▁уралдааны	-11.0804
▁гарууд	-11.0805
▁навч	-11.0807
ова	-11.0808
▁удирдан	-11.0809
▁орчуул	-11.081
ход	-11.0811
▁блок	-11.0814
▁үйлдлүүд	-11.0814
▁онцолсон	-11.0814
▁бодоорой	-11.0815
▁нислэгийн	-11.0815
▁очлоо	-11.0815
▁бүртгүүлсэн	-11.0815
▁дадал	-11.0816
▁малаа	-11.0816
▁даавуу	-11.0817
▁лигийн	-11.0818
▁Бүгдээрээ	-11.082
ice	-11.0822
▁хэдийнээ	-11.0825
дахгүй	-11.0825
ааа	-11.0826
▁хослол	-11.0827
Ар	-11.0833
▁нийтдээ	-11.0834
▁угаа	-11.0834
▁заал	-11.0841
▁алдаад	-11.0841
ОР	-11.0842
▁хүртээл	-11.0844
▁нд	-11.0844
▁Ру	-11.0847
▁Булган	-11.0852
▁бичлэгүүд	-11.0854
▁ёстойг	-11.0855
дэнэ	-11.086
үд	-11.0861
Энхбаярын	-11.0861
▁амнаас	-11.0861
Батболд	-11.0864
▁Go	-11.0864
ке	-11.0865
доод	-11.0866
агдах	-11.0871
▁идэхгүй	-11.0882
Ган	-11.0885
лаач	-11.0895
буу	-11.0896
▁харуулна	-11.0898
▁хуралдааны	-11.0902
▁санаачилга	-11.0902
ack	-11.0904
▁мунхаг	-11.0907
▁Хүссэн	-11.0907
▁үлдэгдэл	-11.0907
хал	-11.0908
▁арчаагүй	-11.0908
▁хавсралт	-11.0908
▁нээнэ	-11.0908
▁сайнаар	-11.0909
Энхтүвшин	-11.0909
▁минийх	-11.0909
▁тодорхойлдог	-11.091
▁тэнцсэн	-11.0911
▁алим	-11.0911
▁аварсан	-11.0913
▁Дон	-11.0914
▁Бичлэг	-11.0915
▁Барилга	-11.0915
▁төсвөөс	-11.0918
▁Майкл	-11.0919
▁ичих	-11.092
▁үзэг	-11.092
▁үргэлжлүүлж	-11.0921
▁23-	-11.0921
▁холбоогүй	-11.0923
▁эмчилгээг	-11.0923
▁цасан	-11.0924
▁засаглалын	-11.0925
▁амлаж	-11.0925
▁хөлбөмбөг	-11.0926
▁хямдхан	-11.0928
▁батга	-11.0929
гдаж	-11.093
▁халаалт	-11.0932
▁03	-11.0935
▁болгожээ	-11.0938
▁хөдөлгүүр	-11.0938
▁Дахи	-11.094
▁шинжилгээнд	-11.0942
▁өртөө	-11.0943
▁аудитын	-11.0943
▁Ромын	-11.0945
▁По	-11.0948
▁инээмсэглэл	-11.0948
шт	-11.0949
▁гудамжны	-11.0951
бер	-11.0951
▁шороон	-11.0952
▁хаалганы	-11.0956
▁шалгаад	-11.0956
▁хүндийг	-11.0956
▁оролцоог	-11.0957
▁бутлагч	-11.0957
▁бүлтэй	-11.0958
▁58	-11.0966
▁хаш	-11.0966
▁хүрээг	-11.0967
▁мөрийг	-11.0968
▁хувир	-11.097
▁болвол	-11.0973
▁Сургалтын	-11.098
ош	-11.098
▁практик	-11.098
руулж	-11.0982
Ю	-11.0984
▁файлыг	-11.0986
хор	-11.0994
▁Хө	-11.0995
уг	-11.0995
▁унагаа	-11.0996
▁Ст	-11.0997
агдаагүй	-11.0999
эрсэн	-11.1
▁Налайх	-11.1001
▁бүдүүн	-11.1001
▁хариуцлагын	-11.1001
▁гэгддэг	-11.1002
▁сурталчлах	-11.1002
▁эхэлснээс	-11.1002
▁формат	-11.1002
▁өвдсөн	-11.1002
▁Хурлын	-11.1003
▁шахаж	-11.1003
▁ойлголоо	-11.1003
ER	-11.1004
▁нийслэлд	-11.1004
▁өсөн	-11.1004
▁Ene	-11.1004
▁Гүйцэтгэх	-11.1004
▁мөргөл	-11.1005
▁ням	-11.1005
▁Түүгээр	-11.1006
▁туслаач	-11.1007
бөөний	-11.1007
▁ойлгоод	-11.1008
▁ши	-11.1009
▁Батлан	-11.101
▁аавыгаа	-11.1014
▁Сургалт	-11.1016
▁тусад	-11.1017
▁нөгөөх	-11.1019
▁халах	-11.1019
▁БИ	-11.1021
▁залууст	-11.1022
▁шах	-11.1026
▁сүртэй	-11.1026
▁зүүж	-11.1028
▁эмэгтэйчүүдийг	-11.1028
▁нуу	-11.1029
жид	-11.1036
▁хашгир	-11.1042
гээгүй	-11.1043
Цаг	-11.1047
▁гарал	-11.1047
▁ажиллахаар	-11.1052
Ё	-11.1052
▁эцэслэн	-11.1056
▁Өөрт	-11.1057
▁сарыг	-11.1058
▁солиор	-11.1059
▁эхээс	-11.106
▁өнгөт	-11.1062
▁хорионы	-11.1064
▁Дай	-11.1065
тур	-11.1065
▁Зээл	-11.107
▁Ту	-11.1071
▁баттай	-11.1071
▁сэтгүүлийн	-11.1072
op	-11.1076
▁голомт	-11.1078
▁хураа	-11.1081
▁алддаг	-11.1082
▁тэжээх	-11.1083
▁үгүйсгэх	-11.1084
▁муугаар	-11.1084
▁бүгдийн	-11.1087
▁тайл	-11.1091
▁Өг	-11.1092
▁зурагнууд	-11.1092
үг	-11.1094
▁алдаагаа	-11.1095
▁Eguur	-11.1097
▁Жирэмсэн	-11.1097
▁зузаан	-11.1097
▁нухацтай	-11.1097
▁ойртож	-11.1097
▁зардлын	-11.1097
▁задгай	-11.1097
▁наран	-11.1098
▁байгуулагдах	-11.1098
▁номонд	-11.1099
▁тооцоолох	-11.1099
▁бэлтгэсэн	-11.1099
▁нөлөөлөл	-11.1099
▁тарьсан	-11.1099
▁Ихэвчлэн	-11.11
▁шилжүүлсэн	-11.11
▁товчхон	-11.1102
▁хийчих	-11.1102
гер	-11.1104
▁харав	-11.1112
▁өдөржин	-11.1112
▁сонгоод	-11.1114
▁тусгал	-11.1114
▁зээ	-11.1115
▁авиа	-11.1116
чим	-11.1118
▁хандуул	-11.1121
▁төрнө	-11.1122
▁асга	-11.1122
▁4:	-11.1124
▁нөхөрлөл	-11.1124
Сайханбилэг	-11.1125
do	-11.1126
лээс	-11.113
▁зурган	-11.1131
саг	-11.1133
▁эзэнт	-11.1136
▁харваа	-11.1136
▁дуус	-11.114
▁ялна	-11.1145
▁нохойн	-11.1146
билэг	-11.1146
▁төлөөлж	-11.1149
өрө	-11.1149
▁бөглөх	-11.115
▁Лав	-11.1151
ЭН	-11.1152
▁Хэв	-11.1153
▁түгээх	-11.1161
ГА	-11.1162
▁заа	-11.1163
нуу	-11.1163
▁замууд	-11.1166
▁үзэсгэлэнт	-11.1168
чихдэг	-11.1172
▁наадах	-11.1175
▁оронтой	-11.1177
нуудаа	-11.1179
▁уя	-11.118
ве	-11.118
лер	-11.1183
▁иднэ	-11.1184
▁Үйлдвэр	-11.1185
▁олохын	-11.1186
ъё	-11.1187
art	-11.1187
▁Ги	-11.1187
▁хөдлөлт	-11.1189
рванхоёрдугаар	-11.119
▁сэтгэ	-11.1191
▁Завхан	-11.1191
▁Шуурхай	-11.1193
▁нэгдмэл	-11.1193
▁намынхан	-11.1193
▁босож	-11.1193
▁давхарт	-11.1194
▁уншигчдад	-11.1194
▁Жирийн	-11.1194
▁анхаараарай	-11.1195
лүү	-11.1198
▁газруудын	-11.12
▁нэмнэ	-11.1201
▁Ковид	-11.1201
▁албадан	-11.1202
▁хүндэлж	-11.1204
▁байгаатай	-11.1204
тсан	-11.1205
▁дурлалын	-11.1208
▁Паул	-11.121
▁Боломж	-11.1211
ами	-11.1213
▁амил	-11.1213
▁аавынхаа	-11.1216
▁Агаар	-11.1216
▁болсноос	-11.1216
▁дуудсан	-11.1217
▁пуужин	-11.1217
▁тулгарах	-11.1219
▁тулгуурлан	-11.1221
▁r	-11.1222
▁хөтөлбөрүүд	-11.1227
▁өсөлтийг	-11.1229
▁үгнээс	-11.1229
▁түгээ	-11.1234
▁сүлжээг	-11.1238
one	-11.1244
һ	-11.1245
▁програмууд	-11.1247
▁дулааны	-11.1251
▁яваагүй	-11.1251
▁байцаалт	-11.1251
ah	-11.1253
▁шинжээч	-11.1253
кү	-11.1254
▁Арьс	-11.1255
▁тогтоо	-11.1256
ОД	-11.126
▁амьдралаар	-11.1269
▁багийнхан	-11.127
лгах	-11.1272
▁Өв	-11.1273
▁хэсэгтээ	-11.1275
end	-11.1279
▁хувцастай	-11.1286
▁анхаардаг	-11.1287
▁гаднын	-11.1289
▁Цэцэрлэг	-11.129
▁Индонез	-11.129
▁давалгаа	-11.129
▁болтлоо	-11.129
▁Женко	-11.1292
▁банкинд	-11.1293
▁Хэдхэн	-11.1293
▁тулгарсан	-11.1294
лдэг	-11.1294
▁шийдвэрлэнэ	-11.1295
tr	-11.1295
▁команд	-11.1295
▁Баянгол	-11.1296
▁Өвөр	-11.1296
▁бэлдсэн	-11.1296
▁ичиж	-11.1297
▁түрүүлсэн	-11.1297
▁байдгийн	-11.1299
цэх	-11.1299
si	-11.1302
▁цалингаа	-11.1303
▁алдлаа	-11.1303
▁Те	-11.1306
▁ардчиллын	-11.1306
▁нэгээс	-11.1308
▁сайжруулж	-11.1312
▁голд	-11.1314
хү	-11.1314
▁итгэдэггүй	-11.1315
▁тээж	-11.1324
▁байгуулжээ	-11.1326
▁сонинд	-11.1327
ме	-11.1333
▁боов	-11.1334
▁зөрүүтэй	-11.1334
▁нэгэнтэй	-11.1335
▁хоригийг	-11.1335
▁Дотоодын	-11.1336
▁өсөлтийн	-11.1336
▁Тамгы	-11.1336
▁оролцогчды	-11.1337
▁дэлгэр	-11.1338
▁халаас	-11.1345
▁алинд	-11.1348
▁танилцуул	-11.1348
▁ямаа	-11.1349
Мэдээж	-11.1349
▁Хас	-11.1351
▁шатандаа	-11.1354
▁Чан	-11.1359
▁Хос	-11.1361
▁Япончууд	-11.1367
▁шаард	-11.1367
луур	-11.1368
бан	-11.1371
▁1.5	-11.1372
▁Гишүүд	-11.1376
▁Сэтгүүлч	-11.1379
2017	-11.1379
▁дугаарын	-11.1379
▁Ни	-11.1381
▁төвийг	-11.1383
▁диплом	-11.1387
▁үй	-11.1387
▁зорилгыг	-11.1388
▁нэрэмжит	-11.1388
▁профессор	-11.1388
▁Дашрамд	-11.1388
▁хөвгүүн	-11.1388
▁эрдэс	-11.1388
▁харилцаж	-11.1388
▁ДНБ	-11.1389
▁барилдаж	-11.1391
▁эгэл	-11.1393
▁шийдвэрлэсэн	-11.1395
▁ярихдаа	-11.1395
▁Ти	-11.1396
ээл	-11.1397
▁хангана	-11.1398
▁Хамтдаа	-11.1406
▁орохоор	-11.1408
▁Ку	-11.141
▁илгээ	-11.1412
▁мөрөн	-11.1412
▁үйлдэж	-11.1413
▁тэм	-11.1416
▁Бараа	-11.1422
▁төсөөлөх	-11.1423
▁угтан	-11.1425
чаад	-11.1429
▁сэтгэлдээ	-11.143
▁зугаатай	-11.143
▁төхөөрөмжүүд	-11.143
▁оюутнуудад	-11.143
▁болсноо	-11.143
▁хэлэнд	-11.1432
▁хоёул	-11.1433
▁доорхи	-11.1438
500	-11.1441
▁эрсдэлийг	-11.1442
УУД	-11.1443
▁оюутнуудын	-11.1445
▁иргэдийнхээ	-11.1447
▁барилгы	-11.1449
Да	-11.1449
▁95	-11.1449
▁дэмж	-11.1451
өрсөн	-11.1454
оф	-11.1454
▁Түүн	-11.1455
▁Сэр	-11.1457
▁хүмүүстээ	-11.1459
▁Хэргий	-11.1461
4-	-11.1463
▁экс	-11.1463
▁хайраа	-11.1464
▁үйлчлэл	-11.1467
чээд	-11.147
мааргүй	-11.1471
▁нийлэх	-11.1473
ста	-11.1474
МН	-11.1475
өгч	-11.1475
▁намаа	-11.1477
▁l	-11.1477
▁санаанууд	-11.1481
▁гүнж	-11.1482
▁импорт	-11.1482
▁хүргэ	-11.1486
▁зайн	-11.1486
▁Казино	-11.1487
▁бямба	-11.1487
▁Өвөрхангай	-11.1487
▁Удирдах	-11.1487
▁магтаал	-11.1487
▁зугтаж	-11.1488
▁сайжирсан	-11.1488
▁хожих	-11.1489
▁бүрмөсөн	-11.1489
▁давтаж	-11.1489
▁болзол	-11.1489
▁яригдах	-11.149
▁Давид	-11.149
ду	-11.1491
▁амттан	-11.1491
нүүдийг	-11.1492
▁төрлүүд	-11.1493
▁төгсөх	-11.1494
▁гүйх	-11.1494
▁түүндээ	-11.1494
▁амьдрахыг	-11.1495
▁өшөө	-11.1495
▁төрүүлдэг	-11.1496
▁дурдахад	-11.1497
▁Багийн	-11.1502
▁орлогоо	-11.1502
▁зарчмаар	-11.1503
▁шалгуулах	-11.1504
▁Хэ	-11.1506
▁хэзээнээс	-11.1506
▁Пүрэв	-11.1507
▁хайрласан	-11.1507
▁төрөө	-11.1507
▁итгэсэн	-11.1508
▁ханган	-11.151
▁хадгална	-11.151
▁Шал	-11.151
ИЙГ	-11.1511
▁цэгцтэй	-11.1512
▁Хоолны	-11.1513
▁сэтгэлзүй	-11.1516
▁тоглолтууд	-11.1516
▁яриагаа	-11.1517
▁хайран	-11.1519
▁Ro	-11.1522
иш	-11.1523
▁байгуулалттай	-11.1527
dy	-11.153
▁төвөөс	-11.153
▁барж	-11.1531
▁дуулиан	-11.1531
▁одооноос	-11.1532
ьж	-11.1533
сноос	-11.1534
▁ургац	-11.1539
▁буцаах	-11.1541
▁барахгүй	-11.1541
Нийгэм	-11.1543
▁Филиппин	-11.1548
өөрэй	-11.1549
▁эрэл	-11.1552
▁чадварын	-11.1553
▁халбага	-11.1553
▁мэдэгдэхгүй	-11.1555
▁үзэмж	-11.1556
рахгүй	-11.1557
▁жилүүд	-11.1559
▁цувралын	-11.156
fe	-11.1562
▁Ho	-11.1563
ite	-11.1566
2018	-11.1566
▁Тавантолгой	-11.1571
-12	-11.1573
▁юутай	-11.1573
▁47	-11.1573
▁эсэргүүцэл	-11.1573
▁харих	-11.1575
▁компанитай	-11.1576
▁иргэдтэй	-11.1576
▁ажлынхаа	-11.1577
▁хавтан	-11.1578
▁больчих	-11.1579
▁насныхан	-11.1579
▁шагналын	-11.158
▁гоёл	-11.158
▁буцаагаа	-11.1581
этэрхий	-11.1584
хийл	-11.1585
▁үйлдвэрийг	-11.1586
î	-11.1587
▁африк	-11.1587
▁шоколад	-11.1587
▁өгөгдлийн	-11.1587
▁БЗД	-11.1587
▁хонгор	-11.1587
▁хаанчлал	-11.1589
▁армийн	-11.1589
▁анхаарлын	-11.159
▁жуулчин	-11.159
▁Бэлэн	-11.1591
▁цуглуулсан	-11.1591
▁тооцдог	-11.1593
▁гөлөг	-11.1594
▁хамгаалсан	-11.1596
▁мэдэхээр	-11.1598
▁буруутгаж	-11.16
ment	-11.1601
▁Зун	-11.1602
▁үнэмшил	-11.1602
▁дийлэхгүй	-11.1604
▁үзэгчдийн	-11.1605
▁хөтлөгч	-11.1607
▁шалтгаантай	-11.1607
▁ололт	-11.1608
▁(2)	-11.1609
▁шийдвэрт	-11.1611
▁зэв	-11.1615
▁мини	-11.1618
▁түмэндээ	-11.1618
▁уугуул	-11.1619
▁дурла	-11.162
▁туссан	-11.1621
▁гарахаар	-11.1623
алга	-11.1624
▁Үнийн	-11.1626
▁коммунист	-11.1627
▁чамдаа	-11.1629
▁Чех	-11.1629
▁дараад	-11.163
34	-11.1632
▁Лу	-11.1633
▁дуусгава	-11.1634
хнийг	-11.1636
▁тавцан	-11.1637
лэгдэх	-11.1644
▁залгах	-11.1644
▁мана	-11.1648
ty	-11.165
хнаас	-11.1651
▁уй	-11.1651
▁Сэ	-11.1653
▁Хятадаас	-11.1656
▁оролцоогүй	-11.1659
▁Урлаг	-11.1661
лэхэд	-11.1661
ian	-11.1662
▁үйлчилгээтэй	-11.1662
***	-11.1663
▁co	-11.1667
▁тэжээлийн	-11.1667
▁хуулинд	-11.1668
▁ра	-11.1668
▁өрийг	-11.167
Бо	-11.1671
хэр	-11.1672
▁цэгц	-11.1672
▁дэвшүүлж	-11.1673
▁Нарийн	-11.1674
▁шоо	-11.1675
▁тусах	-11.1676
орт	-11.1678
▁заль	-11.1682
▁ялж	-11.1682
▁ажилтнуудын	-11.1684
лөн	-11.1687
▁An	-11.1687
à	-11.1688
▁SEO	-11.1688
▁ивээн	-11.1688
▁хонгил	-11.1689
▁онгоцоор	-11.1689
▁хариуцаж	-11.169
▁хурандаа	-11.169
▁сонслоо	-11.169
▁Өвөл	-11.169
▁нийлээд	-11.169
▁түрүүн	-11.1692
▁Польш	-11.1692
▁илэрдэг	-11.1693
▁юугаар	-11.1693
▁илрэх	-11.1693
▁ашиглахгүй	-11.1694
▁буур	-11.1694
▁Үзсэн	-11.1695
▁олноороо	-11.1695
нийгээ	-11.1696
▁хэлхээ	-11.1696
▁Одоохондоо	-11.1696
▁Шин	-11.1697
▁дайралт	-11.1698
▁хямралын	-11.1699
▁..."	-11.17
ck	-11.1701
▁гэрээс	-11.1702
ика	-11.1703
▁Баатар	-11.1703
▁америкийн	-11.1706
▁баярт	-11.1706
▁худаг	-11.1709
нар	-11.1711
▁залгаж	-11.1711
▁хамааралгүй	-11.1712
▁залбирах	-11.1717
▁орохдоо	-11.1718
дөх	-11.1719
▁тоолох	-11.172
▁нийл	-11.1723
сныхаа	-11.1725
вуу	-11.1728
▁системтэй	-11.1732
гах	-11.1734
иод	-11.1735
цгооё	-11.1735
▁чихэнд	-11.1741
▁тархинд	-11.1744
▁үнэний	-11.1744
▁хаант	-11.1745
▁гэргий	-11.1745
▁Хаалга	-11.1748
▁явдалд	-11.1749
▁газартаа	-11.175
so	-11.1751
ыхоо	-11.1753
▁You	-11.1753
тин	-11.1754
▁Мэд	-11.1759
pe	-11.1761
▁зөвлөмжийг	-11.1764
33	-11.1765
ТГ	-11.1768
▁зохиох	-11.1768
ell	-11.1771
▁Карл	-11.1773
▁бардам	-11.1775
юм	-11.1778
▁29-	-11.178
▁суртахуун	-11.178
▁хонх	-11.1781
▁нэвт	-11.1785
▁харгис	-11.1787
▁Нөгөөтэйгүүр	-11.179
▁туршлагыг	-11.179
▁эсхүл	-11.179
▁бэлдмэл	-11.179
▁бөлгөө	-11.1791
▁оролцлоо	-11.1791
▁баримжаа	-11.1791
▁явагдсан	-11.1792
▁эмгэнэл	-11.1792
▁конусан	-11.1792
▁солиотой	-11.1792
▁хэтэрсэн	-11.1793
▁ирчихсэн	-11.1794
▁зүгт	-11.1794
ондоо	-11.1795
▁Хүр	-11.1796
▁уурлаж	-11.1798
▁кампани	-11.1798
▁тагнуул	-11.1798
ard	-11.1799
▁үлджээ	-11.1801
▁өршөөл	-11.1801
▁мартахгүй	-11.1801
▁хүрд	-11.1802
▁өөрчлөн	-11.1802
▁ангиуд	-11.1803
▁хамгаалдаг	-11.1804
▁ууланд	-11.1804
▁түншлэл	-11.1805
▁харьцаанд	-11.1805
▁Дав	-11.1806
▁санагдав	-11.1807
▁Бороо	-11.1808
▁зовдог	-11.181
▁сонгогч	-11.181
▁Саруул	-11.1811
▁хумс	-11.1812
▁морил	-11.1812
▁даатга	-11.1813
▁зугтаа	-11.1813
▁тэмдэглэн	-11.1816
▁Бямба	-11.182
▁удаатай	-11.1821
▁хорооноос	-11.1821
▁гэмгүй	-11.1821
▁судал	-11.1825
▁57	-11.1825
▁харьц	-11.1827
▁минутанд	-11.1829
▁хаалгаа	-11.1829
▁дом	-11.1832
▁хуудсан	-11.1834
БХ	-11.1835
мол	-11.1838
▁сүйд	-11.184
▁орноос	-11.1841
da	-11.1841
▁дээдэс	-11.1848
Гадаад	-11.1849
▁сэдэвт	-11.1851
▁Бан	-11.1853
▁явжээ	-11.1858
▁осолд	-11.1858
по	-11.1861
▁бөгс	-11.1862
▁цав	-11.1864
▁далайд	-11.1868
▁тоот	-11.1873
▁надаар	-11.1873
▁өгө	-11.1874
▁этгээдүүд	-11.1875
▁хийц	-11.1877
вай	-11.188
▁суудалтай	-11.188
▁улсаа	-11.1881
▁зориуд	-11.1881
ралт	-11.1882
жуулж	-11.1883
оддын	-11.1886
▁урвал	-11.1888
▁шан	-11.1889
▁бэхжүүлэх	-11.189
ура	-11.189
▁ТУЗ	-11.1893
▁Дэлгэц	-11.1893
▁ЭСЯ	-11.1893
▁нарийвчлан	-11.1893
▁оффшор	-11.1893
▁холимог	-11.1893
▁онигоо	-11.1893
▁сонсоогүй	-11.1893
▁Дональд	-11.1893
▁сургуулилт	-11.1893
▁зөвшөөрөгдсөн	-11.1893
▁тавигдсан	-11.1894
▁хүмүүжил	-11.1894
▁ашиглагддаг	-11.1895
▁дурьдсан	-11.1895
Жи	-11.1896
▁Дараачийн	-11.1897
▁ирүүлэх	-11.1897
▁сонгогчид	-11.1897
▁Шагнал	-11.1897
▁Уншигч	-11.1897
▁Хүнийг	-11.1897
▁Шүлэг	-11.1898
▁нэвтрүүлгийн	-11.1899
▁естой	-11.1899
▁устга	-11.1899
▁Хатан	-11.19
▁Доорх	-11.1901
▁хариулав	-11.1902
соо	-11.1902
шинэ	-11.1903
▁урьдын	-11.1905
▁эртхэн	-11.1906
дер	-11.1907
▁ТА	-11.1909
▁Зав	-11.191
▁тайланд	-11.191
▁алдаагүй	-11.1911
▁харьцдаг	-11.1912
mb	-11.1913
▁хугацаанаас	-11.1915
▁дүрүүд	-11.1916
▁Эргээ	-11.1919
▁хууч	-11.192
▁хаагчийн	-11.1926
▁гэмтсэн	-11.1926
▁Май	-11.1928
▁баглаа	-11.194
▁Лос	-11.1943
гэх	-11.1945
▁хайл	-11.1945
▁зарсан	-11.1948
▁зү	-11.1948
▁Ир	-11.195
▁Кэ	-11.1953
Улаан	-11.1954
▁өнгөрчээ	-11.1954
вэ	-11.1955
вр	-11.1956
▁y	-11.1958
▁дуугарч	-11.196
▁Тэги	-11.1961
уудаар	-11.197
▁Эхлэл	-11.1972
ds	-11.1973
▁хувьцааг	-11.1974
▁Библид	-11.1976
▁хоцорч	-11.1977
▁Бүтээгдэхүүний	-11.198
▁орчих	-11.198
▁зурхай	-11.1981
▁Бари	-11.1982
▁тэмүүл	-11.1984
▁давхарга	-11.1984
Эрдэнэс	-11.199
▁Үйлчилгээ	-11.1991
Юу	-11.1992
▁масс	-11.1996
▁me	-11.1997
▁тунадас	-11.1997
▁гагц	-11.1997
▁сэдвийн	-11.1997
▁зорилгын	-11.1997
▁хүндэтгэх	-11.1997
▁шаардлагын	-11.1997
▁мотор	-11.1998
▁өнгөрдөг	-11.1998
▁Байшин	-11.1998
▁үйлчилнэ	-11.1998
▁заалдах	-11.1999
▁тавиур	-11.1999
▁зөвшөөрнө	-11.1999
▁Зочин	-11.2
▁охинд	-11.2004
▁бодлын	-11.2004
▁судалсан	-11.2004
▁өвдөг	-11.2005
▁суурилуулах	-11.2005
▁намтар	-11.2006
▁Хараа	-11.2006
▁ахлагч	-11.2007
▁таалал	-11.2007
▁авснаас	-11.2012
▁зочлох	-11.2014
▁хагар	-11.2014
▁байршлы	-11.2016
▁шөл	-11.2016
▁шүүгээ	-11.2017
▁ядах	-11.2017
▁янзаар	-11.2018
▁жаргалын	-11.202
▁хичээллэх	-11.2022
▁шээс	-11.2024
38	-11.2024
▁аг	-11.2026
▁сүүдэр	-11.2027
▁улсынхаа	-11.2028
▁шагай	-11.203
▁аман	-11.2031
Уг	-11.2032
▁гайхамшигт	-11.2041
өлөө	-11.2045
▁нэгэндээ	-11.2047
эч	-11.2047
гин	-11.2048
длийг	-11.2052
▁холд	-11.2052
▁хүүхэдтэйгээ	-11.2052
▁хорь	-11.2052
▁болгохоор	-11.2053
▁орхин	-11.2054
даагүй	-11.2055
▁хотхон	-11.2056
Хүрэлбаатар	-11.2058
Хууль	-11.2059
▁гомдоо	-11.2062
▁тэмцээнийг	-11.2063
▁хээрийн	-11.2064
сөө	-11.2065
▁бодоо	-11.2068
▁түлхүү	-11.2068
▁төвүүд	-11.207
▁байд	-11.207
агаа	-11.2072
▁Виз	-11.2072
▁00	-11.2073
Бу	-11.2074
ууу	-11.2074
49	-11.2074
▁тариалан	-11.2076
Алтай	-11.2076
мэг	-11.2078
▁Тэндээс	-11.2081
▁чуулга	-11.2082
▁Зи	-11.2088
▁тогт	-11.209
▁гу	-11.2091
▁фракц	-11.2091
▁ажлаар	-11.2092
ki	-11.2097
▁тэрбумын	-11.2097
▁хобби	-11.2098
▁дэмжигч	-11.2098
▁гэрэлт	-11.21
сэг	-11.2101
▁Маркетинг	-11.2102
▁тэмдгүүд	-11.2102
▁тэнц	-11.2103
▁Хагас	-11.2103
▁Дэ	-11.2104
▁шалгаарай	-11.2104
▁гүйгээд	-11.2104
▁болгоё	-11.2105
▁арвин	-11.2105
▁Иерусалим	-11.2105
▁Борлуулалт	-11.2106
▁тулгамдаж	-11.2106
▁шинжээчид	-11.2106
▁Ha	-11.2108
▁цаанаа	-11.2108
▁Онц	-11.211
▁илрээгүй	-11.211
▁өд	-11.2112
▁1997	-11.2112
▁авчирна	-11.2113
▁валют	-11.2113
▁шалгасан	-11.2117
▁одод	-11.2118
▁урсгалыг	-11.2121
▁Сүү	-11.2121
▁Найзууд	-11.2124
элтийн	-11.2124
▁тогтнох	-11.2125
▁зориулах	-11.2126
▁турах	-11.2126
▁тойрогт	-11.2128
▁барилгууд	-11.2128
нэн	-11.2129
▁тивийн	-11.213
▁тэртээ	-11.2137
▁pre	-11.2137
дод	-11.2139
▁Жу	-11.2141
▁Кол	-11.2143
▁төрөлх	-11.2144
пп	-11.2145
▁хэмнэл	-11.2151
ana	-11.2152
НИЙ	-11.2152
▁Наран	-11.2153
▁Хүүгийн	-11.2155
▁таслах	-11.2156
▁52	-11.2156
тро	-11.2159
лтын	-11.2159
▁физик	-11.2159
▁төлөвлөгөөнд	-11.2162
37	-11.2163
Хурц	-11.2167
▁сэлбэг	-11.2168
▁нууцаар	-11.2172
▁хамаарахгүй	-11.218
▁түрүүлэх	-11.2182
▁жам	-11.2184
▁настнууд	-11.2185
▁хийг	-11.2188
▁гараас	-11.219
▁хаягийг	-11.2191
▁зарлага	-11.2193
▁хөлсний	-11.2195
▁илэрхийлжээ	-11.2198
_:	-11.2199
▁Там	-11.22
▁эгнээ	-11.2202
▁бурууг	-11.2203
ьё	-11.2205
▁Онгоц	-11.2206
▁Шулуун	-11.2209
▁элдв	-11.2209
▁Нобел	-11.2209
▁ШХАБ	-11.2209
▁Хөгшин	-11.2209
▁хүндэтгэж	-11.221
▁олуулаа	-11.221
▁цэнгэлдэх	-11.221
▁Page	-11.221
▁сорил	-11.2212
▁байгуулав	-11.2213
▁Эмнэлгийн	-11.2213
▁МОНГОЛ	-11.2215
▁илэрхийллээ	-11.2217
▁Гадна	-11.2217
▁цэвэрлэгээний	-11.2219
▁Хосууд	-11.2219
арна	-11.2219
ash	-11.222
▁мм	-11.222
▁элссэн	-11.2221
▁амжихгүй	-11.2224
▁дуусгаж	-11.2226
▁харьцуулж	-11.2229
▁үзэгдэх	-11.2229
▁ки	-11.2229
▁цуваа	-11.2229
▁Хэний	-11.223
▁хомс	-11.2236
▁баас	-11.2238
ийнхэн	-11.2239
▁бүртгүүлж	-11.2242
▁сахих	-11.2244
▁єг	-11.2251
▁урлагт	-11.2253
▁шт	-11.2253
▁танилцана	-11.2256
▁тэргүүнд	-11.2261
▁зураас	-11.2262
.2.	-11.2263
яр	-11.2268
▁тушаа	-11.2269
▁будах	-11.2269
▁зөвшөөрөлтэй	-11.2274
▁тэжээж	-11.2275
▁занг	-11.2277
уулагч	-11.228
зэ	-11.2281
Хүү	-11.2281
▁Гадны	-11.2282
хой	-11.2283
▁файлууд	-11.2287
▁Элс	-11.2288
▁татгалз	-11.2292
▁Гуравдугаар	-11.2294
▁маргаантай	-11.2294
▁бга	-11.2294
▁Даг	-11.2295
▁царайтай	-11.2299
▁тэдэн	-11.2303
▁Мин	-11.2309
▁хэмжээнүүд	-11.2314
Хо	-11.2315
▁хуванцар	-11.2316
▁логик	-11.2317
▁зогсоно	-11.2317
▁1993	-11.2317
▁нэмрээ	-11.2317
▁цутга	-11.2319
Гантулга	-11.2321
▁илрүүлсэн	-11.2321
▁зогсоосон	-11.2321
▁хөөх	-11.2322
▁жишээг	-11.2323
▁хөлд	-11.2324
▁эмчилж	-11.2324
▁суухгүй	-11.2325
▁өвчнөөс	-11.2327
75	-11.2328
▁түншүүд	-11.2329
▁үйлчлүүлэгчдийн	-11.233
▁уйтгартай	-11.2331
▁3-4	-11.2335
▁Ша	-11.2335
▁хоногоос	-11.2337
▁баригд	-11.2339
▁Тү	-11.234
▁барь	-11.2342
▁амарна	-11.2343
▁өсгө	-11.2346
хайр	-11.2348
Бурхан	-11.2352
▁спортоор	-11.2358
▁мэдрэлийн	-11.2358
гана	-11.236
▁буруугүй	-11.2362
▁шун	-11.2362
▁гарахаас	-11.2363
▁Азаар	-11.2364
▁бух	-11.2364
▁үрс	-11.2364
▁харьцуулах	-11.2366
▁аяны	-11.2366
сен	-11.2366
▁хуучны	-11.2367
▁залга	-11.2367
▁өршөө	-11.2368
▁Бен	-11.2372
▁гун	-11.2372
төө	-11.2374
▁төрөлхийн	-11.2374
▁нэгдэн	-11.2374
▁хэлц	-11.2378
Зарим	-11.2382
▁Ёс	-11.2382
Тэгээд	-11.2383
▁байгууллагуудад	-11.2383
▁булш	-11.2383
▁дарагд	-11.2388
▁айлууд	-11.2391
▁найраг	-11.2396
▁болдоо	-11.2396
▁төртэй	-11.2398
▁БОЛ	-11.2398
▁Сав	-11.2398
▁зохи	-11.2399
рна	-11.2406
▁Хилийн	-11.2407
▁ялагд	-11.241
▁Бурханаас	-11.2414
▁хон	-11.2416
▁арилга	-11.2416
ейн	-11.2419
▁Цэцэг	-11.2423
▁бэлтгэ	-11.2424
▁гиш	-11.2424
▁олдоогүй	-11.2425
▁Туршилт	-11.2425
▁дөхөж	-11.2425
▁жив	-11.2425
▁Сүлжээ	-11.2425
ув	-11.2426
▁аугаа	-11.2426
▁тохирно	-11.2426
▁хуваарилалт	-11.2427
▁чаджээ	-11.2427
▁хэмжих	-11.2427
▁зөвөлгөө	-11.2427
▁өснө	-11.2427
▁нээгдсэн	-11.2427
▁дурджээ	-11.2429
▁өгчихсөн	-11.2429
▁явдлаас	-11.243
▁илүүдэхгүй	-11.2433
▁шаналж	-11.2433
▁мөнхөд	-11.2433
▁манан	-11.2433
▁зөвшөөрөлгүй	-11.2434
▁зохицох	-11.2434
▁го	-11.2435
▁тараасан	-11.2435
алгаа	-11.2436
▁хаус	-11.2436
▁ажиллуулдаг	-11.2439
ля	-11.2439
▁бүлдээ	-11.2443
▁бохирдлыг	-11.2443
▁төлөөлөгчийн	-11.2443
▁шүүс	-11.2445
▁хэрэгтэйг	-11.2449
▁саар	-11.2449
▁Алдарт	-11.2452
▁алдан	-11.2453
▁бүтээлчид	-11.2454
▁хөхний	-11.2455
▁Дорж	-11.2456
шээ	-11.2461
▁Эрээн	-11.2462
▁гишүүнчлэл	-11.2463
▁тэмээ	-11.2464
▁нууцлаг	-11.2466
▁засгаас	-11.247
▁үүн	-11.2471
МАН	-11.2472
▁аван	-11.2473
▁ХАА	-11.2475
▁хэвтэх	-11.2478
▁дата	-11.2478
▁Сүм	-11.2479
▁ухаанаар	-11.2479
▁новшнууд	-11.2481
▁дээшээ	-11.2482
▁хүмүүн	-11.2489
▁Киноны	-11.2491
▁даах	-11.2491
▁хамрагд	-11.2492
▁Стандарт	-11.2492
снээ	-11.2493
▁Шалгалт	-11.2493
▁ариутгал	-11.2495
▁хуваах	-11.2496
▁элементүүд	-11.2497
елл	-11.2497
▁харъя	-11.2498
▁нийтлэлд	-11.2499
▁хэс	-11.2499
▁аюулаас	-11.2499
▁байлдааны	-11.2499
▁нээлтийн	-11.25
▁Лхагва	-11.2501
▁хэдийг	-11.2504
▁Nov	-11.2513
лүүлдэг	-11.2514
▁дог	-11.2514
▁үнэлгээг	-11.2514
▁үдээс	-11.2514
▁буруутгах	-11.2514
▁намынхаа	-11.2516
▁Өрөө	-11.2519
▁батал	-11.2519
Хор	-11.2522
▁цохиж	-11.2526
▁нисгэгч	-11.2527
амба	-11.2533
▁ген	-11.2533
▁Хацарт	-11.2535
▁боловсронгуй	-11.2535
▁дэвшилтэт	-11.2535
▁веб	-11.2535
▁тодорлоо	-11.2535
▁Багануур	-11.2536
▁өрнөсөн	-11.2536
▁зөвлөдөг	-11.2536
▁танилцуулъя	-11.2537
▁аймгаас	-11.2537
▁илгээнэ	-11.2537
▁тохируулан	-11.2538
▁баталлаа	-11.2538
▁багтаасан	-11.254
▁Төсөл	-11.2542
▁зогс	-11.2542
98	-11.2543
▁эгнээнд	-11.2543
▁хож	-11.2543
▁Тэглээ	-11.2543
▁Мэдлэг	-11.2543
Ам	-11.2545
▁байгуулахад	-11.2546
▁зал	-11.2547
▁томьёо	-11.2547
▁төрлийг	-11.2549
▁авсны	-11.2549
▁байрлуулсан	-11.2549
ион	-11.2552
▁гарснаас	-11.2552
▁хадгалдаг	-11.2555
▁Зорилго	-11.2558
▁гүйцэтгэ	-11.2559
▁дуусахгүй	-11.2561
▁тойрны	-11.2561
▁сонирх	-11.2562
▁мэдэгдэлд	-11.2562
илсан	-11.2563
▁яара	-11.2566
▁холбооноос	-11.2567
▁эрчүүдэд	-11.2567
▁хуралдаанд	-11.2567
▁эхлэнэ	-11.2567
▁философи	-11.2568
▁сурна	-11.2569
Хүрэлсүхийн	-11.2572
▁үндэслэлтэй	-11.2573
ps	-11.2574
▁өөрөөс	-11.2574
▁Тэрийг	-11.2576
▁файлуудыг	-11.2577
▁Рио	-11.2578
▁Утас	-11.2579
мор	-11.2581
▁чим	-11.2582
nt	-11.2582
▁ХҮ	-11.2582
▁бидэн	-11.2582
ЭД	-11.2585
▁дэмжин	-11.2586
▁тодруулж	-11.2588
лий	-11.2589
▁шоунд	-11.2589
▁саат	-11.259
▁талбарт	-11.2591
▁агуулгатай	-11.2591
▁Бер	-11.2596
▁тунгаа	-11.2597
▁бэлчээр	-11.2597
ЧИ	-11.2598
▁тэгдэг	-11.2601
▁унтдаг	-11.2601
Тухай	-11.2602
АНУ	-11.2607
ных	-11.2609
▁хүүхдүүддээ	-11.261
▁өс	-11.2611
ik	-11.2615
▁ний	-11.2619
бит	-11.2619
АГ	-11.2624
ak	-11.2626
лгээ	-11.2626
▁дороо	-11.2627
▁хүрээлэнд	-11.2628
day	-11.263
фф	-11.2631
▁хаячих	-11.2632
▁хурлы	-11.2632
▁гишүүдээс	-11.2632
▁64	-11.2633
▁цаасны	-11.2634
▁чанарт	-11.2639
▁хамг	-11.2639
▁туслахыг	-11.2641
чний	-11.2642
▁хойноо	-11.2642
43	-11.2642
▁реклам	-11.2645
▁хэргээ	-11.2645
▁урилга	-11.2646
▁Товчхондоо	-11.2646
▁Түргэн	-11.2647
▁Read	-11.2647
▁1994	-11.2647
▁Испанийн	-11.2647
▁өсгөсөн	-11.2647
▁тооллын	-11.2649
Ко	-11.2649
▁Ча	-11.2651
▁Эхэндээ	-11.2651
▁Ме	-11.2652
▁санаачилсан	-11.2652
▁найзуудтайгаа	-11.2653
азар	-11.2653
▁72	-11.2654
▁зугтах	-11.2656
▁хийсээр	-11.2658
лз	-11.2658
▁туршдаа	-11.266
port	-11.2661
▁Афганистан	-11.2661
▁өндөрлөг	-11.2661
▁онуудад	-11.2663
▁оруулалтыг	-11.2664
▁хавтгай	-11.2666
▁мууг	-11.2667
ологийн	-11.2667
▁ирснийг	-11.2667
▁Ами	-11.2668
▁My	-11.267
▁ээжтэйгээ	-11.2675
q	-11.2675
▁Тэднээс	-11.2675
▁тушаалаа	-11.2677
▁шийтгэх	-11.2679
▁Эдгээрийг	-11.2679
жингөө	-11.2679
▁Сал	-11.2684
han	-11.2684
▁сэрэх	-11.2686
▁эхлүүл	-11.2688
▁хуваалц	-11.2688
▁зарлаад	-11.2688
▁гарчихсан	-11.2691
иад	-11.2696
▁амандаа	-11.2696
▁биелэх	-11.2698
Хайр	-11.2698
Өмнө	-11.2698
▁Францад	-11.2699
▁туул	-11.2702
▁өндөрт	-11.2702
кин	-11.2705
▁инээ	-11.2706
▁албанаас	-11.2709
луулдаг	-11.2709
▁лого	-11.2711
▁этгээдийг	-11.2714
▁ти	-11.2718
цгээ	-11.2718
▁нур	-11.2719
руулсан	-11.2722
▁авахаа	-11.2722
▁оролцохоор	-11.2723
▁нэгнээс	-11.2726
▁мэдэр	-11.2727
▁болсондоо	-11.2729
▁пуужинг	-11.273
▁Хад	-11.2731
▁Ге	-11.2735
ала	-11.2736
▁галын	-11.2736
▁багтай	-11.2738
▁заана	-11.2739
▁айхгүй	-11.2742
ton	-11.2742
мен	-11.2744
▁гул	-11.2747
▁Do	-11.2747
ies	-11.2751
▁зорилтыг	-11.2753
▁харан	-11.2753
▁27-	-11.2755
ГИЙН	-11.2756
▁эг	-11.2756
▁сэтгүүлд	-11.2757
▁Технологий	-11.2758
▁Үйлчлүүлэгч	-11.2758
▁Роберт	-11.2758
▁Youtube	-11.2758
▁багассан	-11.2759
▁оролдоод	-11.2759
▁сүлд	-11.276
▁аргын	-11.2761
▁шаргал	-11.2761
▁даруухан	-11.2762
▁өмчит	-11.2762
▁зүтгэсэн	-11.2763
▁царайлаг	-11.2764
▁Наадмын	-11.2765
▁Талийгаач	-11.2766
▁цаашлаад	-11.2766
▁харцгаая	-11.2767
▁дон	-11.2767
▁орноосоо	-11.2767
▁уншигчид	-11.2767
▁кар	-11.2768
▁таниулах	-11.2769
▁тунгалаг	-11.2769
▁явъя	-11.277
▁мөргөлдөөн	-11.2771
илт	-11.2773
▁цагаасаа	-11.2775
АТ	-11.2775
▁боломжоо	-11.2776
▁Түрүү	-11.2778
▁холын	-11.278
▁жагсаа	-11.278
▁цэргээ	-11.2781
▁гадуурх	-11.2782
▁Библийн	-11.2782
▁Lo	-11.2784
мон	-11.2784
▁бөгж	-11.2784
▁чулууг	-11.2785
охгүй	-11.2785
▁өөрсдийнх	-11.2786
▁Бүтээгдэхүүн	-11.2787
▁дуусга	-11.2787
▁мөрд	-11.2788
▁тайлангаа	-11.279
▁гавьяат	-11.2794
▁Дани	-11.2799
▁ачааны	-11.2799
▁барихад	-11.2799
ама	-11.2804
кэ	-11.2804
▁гараж	-11.2811
▁тани	-11.2813
ие	-11.2816
▁гарсны	-11.282
Ал	-11.2822
▁түү	-11.2824
тов	-11.2827
▁өртөгтэй	-11.283
▁ов	-11.2836
▁хөнөөл	-11.2838
▁засварлах	-11.2844
ата	-11.285
▁Долоон	-11.2854
▁Дэлгүүр	-11.2855
уулахгүй	-11.2858
ud	-11.2863
доггүй	-11.2864
▁иргэншил	-11.2864
▁бэлгэ	-11.287
анда	-11.287
▁лаборатор	-11.287
▁мухар	-11.287
оосой	-11.2871
шн	-11.2871
▁WordPress	-11.2872
▁зовиур	-11.2872
▁шалтгаалж	-11.2872
▁шумуул	-11.2872
▁ивээл	-11.2872
▁лаборатори	-11.2872
▁орчмын	-11.2872
▁бүтээгдсэн	-11.2872
▁мансууруулах	-11.2872
▁ISO	-11.2872
▁уулзвар	-11.2873
▁мөчлөг	-11.2873
▁хожиж	-11.2874
▁харьцаж	-11.2874
▁бээ	-11.2874
▁тодорхойлно	-11.2874
▁гав	-11.2875
▁дэвшигчдийн	-11.2875
▁u	-11.2876
ung	-11.2877
▁Хөлбөмбөг	-11.2877
▁төлөөд	-11.2878
▁дайчин	-11.2878
▁байгуулаад	-11.2878
▁оруулав	-11.2879
▁дэргэдэх	-11.2881
▁бүлгүүд	-11.2882
▁даргаа	-11.2885
▁тэсвэртэй	-11.2885
▁56	-11.2886
айл	-11.2887
▁дарааллаар	-11.2888
▁сэргийлж	-11.2888
▁шаардлагад	-11.2889
▁бос	-11.289
▁дархан	-11.289
мас	-11.2892
▁зэвсгийн	-11.2894
Гар	-11.2894
▁зээлээр	-11.2894
▁хойшлуулах	-11.2896
▁хүүдээ	-11.2897
▁салхинд	-11.2899
ide	-11.29
рүүлэх	-11.29
▁эмчилгээнд	-11.2903
▁Найр	-11.2903
▁Мартин	-11.291
▁хэлээч	-11.2911
▁бээр	-11.2912
▁лаг	-11.2914
▁компаниас	-11.2914
ыхаа	-11.2916
▁дуулна	-11.2917
▁шорон	-11.2918
▁хариулжээ	-11.2919
po	-11.2919
Ин	-11.2919
гас	-11.2919
▁өргөтгөл	-11.292
▁салбарууд	-11.2923
▁Баярын	-11.2925
▁For	-11.2926
орд	-11.2927
▁дүй	-11.2928
▁түшиг	-11.2929
ууууу	-11.293
▁Анги	-11.2933
▁Ак	-11.2934
▁маркетинг	-11.2935
▁Египетийн	-11.2935
▁хөнгө	-11.2947
▁гаргагч	-11.295
▁оноог	-11.2952
▁хайгуул	-11.2953
▁хийснийг	-11.2954
▁цэц	-11.2955
▁харшил	-11.2956
ном	-11.2959
▁ог	-11.2962
▁нэгтгэн	-11.2962
лас	-11.2964
▁ахын	-11.2965
▁төлөгч	-11.2968
▁эсэргүүцлий	-11.2969
лүүлнэ	-11.297
▁хагаст	-11.297
▁алдана	-11.2971
▁бөмбөлөг	-11.2973
▁газ	-11.2978
▁бетон	-11.298
▁Зай	-11.2982
▁нөхрийг	-11.2984
ҥ	-11.2987
▁Хичнээн	-11.2987
▁өөрчлөгдөөгүй	-11.2987
▁ковид	-11.2987
▁томчууд	-11.2987
▁нийцэж	-11.2988
▁боломгүй	-11.2988
▁нэмэгдсээр	-11.2988
▁өргөжүүлэх	-11.2989
▁хориглодог	-11.299
▁дэвшсэн	-11.2991
▁54	-11.2991
▁Санхүү	-11.2991
Чиний	-11.2993
der	-11.2995
▁хүлээлгэж	-11.2995
▁тогтоогд	-11.2996
▁суут	-11.2997
▁угсаа	-11.2998
▁дурласан	-11.2998
▁асуувал	-11.2999
▁зу	-11.3001
тлээ	-11.3002
▁Галт	-11.3002
▁бүрддэг	-11.3007
▁Dec	-11.3007
▁бодлогоор	-11.3008
▁бүртгэлд	-11.3008
▁суулаа	-11.3008
▁сургуулиудын	-11.301
▁замаас	-11.301
▁уялдаа	-11.301
▁баялгийн	-11.3011
төр	-11.3014
▁шөнөгүй	-11.3014
▁театрын	-11.3015
▁Лам	-11.3018
▁тэжээ	-11.3018
▁төлөвлөгөөгөө	-11.3021
▁айсан	-11.3026
our	-11.3027
▁шүүхээс	-11.3028
▁болой	-11.3028
▁гэдгээр	-11.3029
▁эз	-11.3029
▁ме	-11.3029
▁хахаха	-11.3029
▁Хайрын	-11.3029
гэрэл	-11.3031
▁төвшинд	-11.3031
▁тэжээвэ	-11.3036
▁Зохио	-11.3037
єг	-11.3038
▁мөргө	-11.3039
▁импортын	-11.3047
ea	-11.3051
▁Спортын	-11.3052
▁нүүдэл	-11.3052
▁бүрдэх	-11.3053
АС	-11.3055
▁атга	-11.3055
▁Олны	-11.3059
▁Бөө	-11.3066
▁оролцоод	-11.3067
▁зогсоод	-11.3067
▁тохирохгүй	-11.3069
▁AM	-11.307
▁шуудан	-11.3071
▁тогтолцооны	-11.3071
▁Мак	-11.3072
▁өнгөр	-11.3073
▁Шалга	-11.3073
▁золго	-11.3074
▁мэдэлтэй	-11.3076
▁гэхгүй	-11.3078
▁явуулахад	-11.3081
уууу	-11.3085
▁тусгаж	-11.3086
▁Элэг	-11.3087
чуул	-11.309
▁эрэгтэйчүүд	-11.3093
Энд	-11.3094
▁28-	-11.3094
▁оролцохыг	-11.3095
▁биенд	-11.3095
▁дурдах	-11.3096
▁бүрэлдэхүүнтэй	-11.3099
str	-11.3099
▁байрлуулж	-11.3099
▁бөөр	-11.31
▁уншихад	-11.31
Занданшатар	-11.3103
▁үнэлэмж	-11.3103
▁Гаалийн	-11.3103
▁талийгаач	-11.3103
▁дүүгээ	-11.3104
▁1991	-11.3104
▁эвдэрсэн	-11.3105
▁Дугуй	-11.3106
заяа	-11.3106
▁Instagram	-11.3106
▁тэнхээ	-11.3108
▁нөх	-11.3109
▁дагасан	-11.311
▁цэцгийн	-11.3111
▁Хөөрхөн	-11.3112
▁Play	-11.3113
элдэг	-11.3113
▁зарлана	-11.3113
▁нэрлэгддэг	-11.3113
▁Мат	-11.3116
▁ДОХ	-11.3118
▁түмнийхээ	-11.312
▁Улаанбаатарын	-11.3121
▁олонтаа	-11.3122
Нам	-11.3123
▁оршихуй	-11.3123
ийхээ	-11.3127
▁эрхлэгчдэ	-11.3127
ери	-11.3129
уз	-11.3129
▁Бул	-11.313
▁бодлоготой	-11.313
▁гашуун	-11.313
▁Санд	-11.3133
▁худалдаалах	-11.3135
▁Шан	-11.314
▁хэвлэлд	-11.314
▁нэгтгэж	-11.3141
▁дасан	-11.3143
стр	-11.3143
▁суудалд	-11.3143
▁Ажилд	-11.3144
▁лидер	-11.3148
▁даруу	-11.3148
▁тодруул	-11.3152
олд	-11.3153
▁Хорвоо	-11.3153
▁сагс	-11.3154
▁Ba	-11.3156
снийхээ	-11.316
▁ирдэггүй	-11.3167
▁наашаа	-11.3169
Бай	-11.3169
▁сүмд	-11.3174
▁цан	-11.3175
▁зохиолыг	-11.3176
▁үдэшлэг	-11.3179
▁46	-11.3181
▁Байгаа	-11.3185
▁зовоох	-11.3186
▁буг	-11.3187
▁Аавын	-11.3188
▁you	-11.3189
фа	-11.319
▁Чен	-11.3195
▁далбаа	-11.3196
▁Ch	-11.3197
▁түүхээ	-11.32
▁Аб	-11.3201
▁судлал	-11.3201
sk	-11.3202
▁орохоос	-11.3203
бус	-11.3206
▁Түүхэн	-11.3207
▁зүйч	-11.3209
лу	-11.321
▁үетэй	-11.321
▁програмын	-11.3212
▁Үйлдвэрийн	-11.3214
сайн	-11.3215
▁Бур	-11.3216
▁Анд	-11.3217
▁яр	-11.3218
▁ноёд	-11.3221
▁дамжиггүй	-11.3221
ge	-11.3221
▁цацраг	-11.3221
▁тооцвол	-11.3221
оли	-11.3222
▁сахиулах	-11.3222
▁хулгана	-11.3223
▁өргөсөн	-11.3223
▁шүтэн	-11.3223
▁ухаж	-11.3223
▁уриалга	-11.3223
▁Хамаг	-11.3224
▁бүрдүүлдэг	-11.3224
▁оймс	-11.3224
▁уулзав	-11.3225
▁мэдмээр	-11.3225
▁Тэгснээ	-11.3226
▁сонирхсон	-11.3226
▁номлол	-11.3226
▁үзмээр	-11.3227
▁тухайлбал	-11.3228
▁нэгдүгээрт	-11.3228
▁Кор	-11.3228
▁Үйлчилгээний	-11.3228
▁оролддог	-11.3229
▁цугла	-11.323
▁суралцсан	-11.3231
▁ядарч	-11.3231
▁лавтай	-11.3232
▁Гадаа	-11.3232
▁хүмүүжүүлэх	-11.3232
▁хувцсы	-11.3233
▁хүчирхийллийн	-11.3234
▁дас	-11.3234
▁мэдрэмжтэй	-11.3238
▁газруудыг	-11.3239
▁Тер	-11.3239
▁англиар	-11.3239
▁болчихвол	-11.324
▁дагадаг	-11.3241
▁таавар	-11.3242
▁унтсан	-11.3243
▁хүрэн	-11.3247
авч	-11.3247
▁арилгаж	-11.3248
▁хойших	-11.3249
▁хайсан	-11.3249
▁тогоонд	-11.3251
▁урагшлах	-11.3251
▁өгүүлэл	-11.3253
▁найд	-11.3253
ph	-11.3255
лгын	-11.3255
▁Хөтөлбөр	-11.3256
рей	-11.3263
▁өртэй	-11.3263
▁хурууны	-11.3263
▁асууна	-11.3264
US	-11.3268
▁шинэчлэлийн	-11.3269
есс	-11.3272
▁ch	-11.3273
▁тавихгүй	-11.3274
▁сай	-11.3274
▁уламжлалтай	-11.3275
▁гарахдаа	-11.3278
▁нөхөрт	-11.3279
эгдсэн	-11.3279
▁тавьжээ	-11.3284
▁тайзнаа	-11.3284
▁гам	-11.329
ner	-11.3291
▁хандалт	-11.3291
▁Нийтлэл	-11.3293
▁чанд	-11.3294
▁ярихад	-11.3295
Батзандан	-11.3296
▁тавиул	-11.3298
▁хүүхдүүдтэй	-11.3299
▁тогтнолын	-11.3301
лахад	-11.3302
мээ	-11.3302
▁заяаны	-11.3305
▁залуухан	-11.3306
▁гаргахаар	-11.3308
▁Li	-11.3309
qu	-11.331
▁Шил	-11.3313
way	-11.3313
▁хэлдэггүй	-11.3314
▁хөдөлгөөнтэй	-11.3318
▁маягтай	-11.3319
▁Австралид	-11.3322
лгийн	-11.3323
▁Асуу	-11.3324
0.000	-11.3326
77	-11.3326
▁больё	-11.3328
▁Худал	-11.3329
бор	-11.3333
хөд	-11.3339
47	-11.3339
▁консул	-11.334
▁нэхэмжлэл	-11.334
▁эзэгтэй	-11.334
▁Байнга	-11.334
▁Оюутны	-11.3341
▁зодож	-11.3341
▁хулгайлсан	-11.3342
▁1995	-11.3342
▁шаргуу	-11.3343
▁литр	-11.3343
▁учруулсан	-11.3343
▁харагдуулах	-11.3344
▁яривал	-11.3344
▁Иван	-11.3344
▁Маск	-11.3344
▁шинэчлэгдсэн	-11.3345
▁бнаа	-11.3346
▁санхүүжилтийн	-11.3346
▁НЭГ	-11.3346
▁тавьчих	-11.3347
▁түрээслэх	-11.3349
▁хэлснийг	-11.335
▁баячууд	-11.335
▁тавилаа	-11.335
▁нийтлэх	-11.3351
▁дутахгүй	-11.3351
▁бодов	-11.3352
бид	-11.3352
▁ажиллалаа	-11.3352
▁ялагдсан	-11.3354
авар	-11.3355
▁66	-11.3355
▁хагалгаанд	-11.3356
▁татвараа	-11.3358
▁сэргээлт	-11.3358
▁Хаанаас	-11.3358
▁шаттай	-11.3359
▁4-5	-11.3359
▁хоногоор	-11.336
▁ачааллы	-11.3363
иц	-11.3365
ko	-11.3366
▁борлуулагч	-11.3366
▁гэрлэж	-11.3368
▁Агуу	-11.3368
▁конвенц	-11.3368
▁Монголоо	-11.3369
жүүлж	-11.337
рох	-11.3371
▁Гэж	-11.3374
ina	-11.3378
▁нуурын	-11.3379
▁арьсанд	-11.3381
▁гац	-11.3382
▁хэлбэрт	-11.3383
Й	-11.3383
▁цэн	-11.3383
▁гаралт	-11.3385
▁хөнд	-11.3388
▁Хим	-11.3388
▁Mon	-11.339
▁засаглалтай	-11.3392
▁Ахмад	-11.3392
Хан	-11.3397
Ор	-11.34
▁Ком	-11.34
▁Нүдний	-11.3404
▁эрийн	-11.3407
саан	-11.3411
▁таарахгүй	-11.3411
▁Цэцийн	-11.3416
▁гадаргуу	-11.3416
▁орноор	-11.3417
Цагаан	-11.3417
раагүй	-11.3421
▁Ат	-11.3422
▁ялгарах	-11.3423
▁өртөх	-11.343
агт	-11.3433
▁амжсан	-11.3434
▁цагдан	-11.3438
▁ХХ	-11.3438
▁3:	-11.344
▁хохирч	-11.344
▁тэсвэр	-11.3441
▁баавгай	-11.3442
▁дизайны	-11.3445
▁таар	-11.3445
▁шүүлт	-11.3446
хэнд	-11.3449
▁таларх	-11.3454
iv	-11.3455
va	-11.3455
▁улсуудад	-11.3457
▁эцгийн	-11.3459
Даваасүрэн	-11.3459
▁мэргэжлийг	-11.346
▁тариф	-11.3461
▁хүүхдэдээ	-11.3461
▁тиймэрхүү	-11.3461
▁хохирлыг	-11.3461
▁шахмал	-11.3461
▁үзэгчдэд	-11.3461
▁совин	-11.3461
▁жуулчид	-11.3461
▁хохирсон	-11.3462
▁Буцаа	-11.3462
▁хийгддэг	-11.3462
▁нэмэгджээ	-11.3462
▁шингэсэн	-11.3463
▁бэлэглэсэн	-11.3464
▁зэрэглэл	-11.3465
▁Өвгөн	-11.3465
▁зовсон	-11.3465
▁хахууль	-11.3465
▁хэлсэнчлэн	-11.3466
луулаад	-11.3467
▁хүрэв	-11.3467
▁цогцос	-11.3468
▁засалт	-11.3468
▁бичээч	-11.3469
▁гэдгийн	-11.3469
▁Хичээлийн	-11.347
▁Хийсэн	-11.347
▁булчин	-11.3471
▁2030	-11.3472
▁эрхэлсэн	-11.3473
▁Хонгор	-11.3475
▁найрлага	-11.3476
▁хариуцлагаа	-11.3476
="	-11.348
▁алдав	-11.3486
ау	-11.3486
ых	-11.3488
▁нэгдлийн	-11.3489
▁захиалж	-11.3489
▁(200	-11.3489
-5	-11.3496
ҮТ	-11.3497
эхээр	-11.3498
eg	-11.3499
▁гуйв	-11.35
▁буурчээ	-11.3501
▁тээвэрлэх	-11.3503
▁тэмцэлд	-11.3503
▁тарах	-11.3506
▁700	-11.3506
▁Бүү	-11.3507
ОХ	-11.3509
▁180	-11.3516
ld	-11.3516
▁сп	-11.3519
▁сонсч	-11.3522
шсан	-11.3524
▁1500	-11.3524
▁өмнөхөн	-11.3526
▁утсан	-11.3526
▁огцруул	-11.353
▁ээлжийн	-11.353
лли	-11.3531
AT	-11.3537
▁гү	-11.3539
5-	-11.3539
▁жагсаалтаас	-11.3542
ai	-11.3542
88	-11.3542
▁Хувцас	-11.3543
ахыг	-11.3543
▁Калифорни	-11.3546
▁металл	-11.3546
▁зөрчлий	-11.3547
▁хүүхэддээ	-11.355
ух	-11.3553
▁гомдлы	-11.3554
▁эш	-11.3554
ллаа	-11.3556
▁мэдэлгүй	-11.3556
▁Дуртай	-11.3556
▁байс	-11.3557
лөөд	-11.3559
▁Хэрэглээ	-11.3559
ийсэн	-11.3562
▁Аан	-11.3562
▁Ник	-11.3562
нуудад	-11.3562
▁зургаар	-11.3563
ахдаа	-11.3565
▁хаяа	-11.3567
лая	-11.357
▁гүйцээ	-11.3573
▁хуралдах	-11.3575
▁булчинг	-11.3577
иль	-11.3577
▁Тог	-11.3578
оц	-11.3582
▁дуулгавартай	-11.3582
▁өргөдлөө	-11.3582
▁социализм	-11.3582
▁Өнөөдрөө	-11.3583
▁сүсэг	-11.3583
▁сэтгэгдлий	-11.3583
▁Сэдэв	-11.3583
▁Кофе	-11.3583
▁дусал	-11.3583
▁хадгалагдаж	-11.3583
▁Oct	-11.3583
▁самуун	-11.3584
▁хоцорсон	-11.3584
▁шүтлэг	-11.3584
▁мисс	-11.3584
▁видеог	-11.3585
▁дэлбэрэлт	-11.3585
▁удирддаг	-11.3585
▁сүнслэг	-11.3586
амп	-11.3586
▁хилээ	-11.3587
▁гардуулах	-11.3587
▁Дөрөвдүгээр	-11.3587
▁Хүйтэн	-11.3588
▁аваргууд	-11.3588
▁Samsung	-11.3588
▁өвчнөөр	-11.3589
▁саванг	-11.359
▁биечлэн	-11.359
▁Эдний	-11.359
▁хүргээд	-11.3593
ТЭЙ	-11.3593
▁Жаргал	-11.3595
▁дамжаа	-11.3596
▁Украин	-11.3597
▁итгэгч	-11.3598
▁тосыг	-11.3598
рен	-11.3599
▁Хөдөлмөр	-11.36
▁буц	-11.3601
▁даргатай	-11.3603
▁худалдагч	-11.3603
▁байлгана	-11.3603
▁босгож	-11.3604
▁эхнэртэй	-11.3608
ber	-11.361
▁толгойтой	-11.3613
▁үндэслэлээр	-11.3613
▁Sp	-11.3613
▁залги	-11.3614
ашгүй	-11.3614
лен	-11.3615
▁театрт	-11.3618
гон	-11.3619
▁Хашаа	-11.362
▁залгамж	-11.362
▁комиссын	-11.3621
▁шударгаар	-11.3622
▁болсоор	-11.3622
▁Тур	-11.3624
▁зүтгэ	-11.3627
▁тэсэ	-11.3628
уйн	-11.3629
▁цаадах	-11.363
DA	-11.363
▁Монголынхоо	-11.3631
фе	-11.3632
▁бүрхэг	-11.3633
▁гэхэв	-11.3635
▁төлбөрт	-11.3636
44	-11.3641
рой	-11.3643
▁онолын	-11.3649
лайн	-11.3651
▁тогтох	-11.3651
▁өөрчлөгдөхгүй	-11.3654
▁сонсоно	-11.3654
▁хүүд	-11.3655
▁бүтээжээ	-11.3655
▁цэнэг	-11.3655
▁өдөө	-11.3658
▁цэрэгт	-11.366
▁болино	-11.366
▁өсгөж	-11.366
▁аянд	-11.366
▁сэт	-11.3661
Сайхан	-11.3662
кт	-11.3662
▁хөрөнгөөр	-11.3663
▁зарууд	-11.3665
▁дурлах	-11.3666
▁тоолж	-11.367
▁эзний	-11.3671
▁сугалаа	-11.3671
▁ангийнхан	-11.3674
▁хаягдлы	-11.3675
▁>>	-11.3675
▁хүндэтгэлтэй	-11.3675
▁хүрээлэнгийн	-11.3679
▁тулааны	-11.3681
96	-11.3685
▁настан	-11.3686
ON	-11.3689
▁баримтаа	-11.3697
▁зарц	-11.3698
лнэ	-11.3699
▁төлөвлөжээ	-11.37
▁Пол	-11.3704
▁Дөрөв	-11.3706
▁Баянхонгор	-11.3706
▁бензин	-11.3706
▁гамшгийн	-11.3706
▁органик	-11.3706
▁твиттер	-11.3706
▁тийз	-11.3706
▁завшаан	-11.3706
▁Тагнуулын	-11.3706
▁могой	-11.3706
▁ТҮЦ	-11.3706
Бар	-11.3707
▁төвлөрсөн	-11.3707
▁нуугдаж	-11.3707
▁өмчлөх	-11.3707
▁Унгар	-11.3707
▁зэм	-11.3707
▁болголоо	-11.3708
65	-11.3709
зе	-11.3709
▁шүтээн	-11.3709
▁сайжруулсан	-11.3712
▁хангадаг	-11.3713
▁Da	-11.3713
▁мэдээлэв	-11.3714
ово	-11.3717
▁байлдан	-11.3719
▁харууллаа	-11.372
лжээ	-11.372
▁←	-11.372
▁ат	-11.3721
▁More	-11.3723
89	-11.3724
▁өгүүлжээ	-11.3724
▁харамсах	-11.3726
▁зэмлэ	-11.3729
Ард	-11.3729
▁дуусаад	-11.3729
тав	-11.373
▁сахи	-11.373
Батхүү	-11.3731
▁төслөө	-11.3737
▁хамтаар	-11.374
▁үзэв	-11.374
▁зорих	-11.374
▁эргэлзэх	-11.3743
▁чамгүй	-11.3746
лтийн	-11.3747
76	-11.3749
ерт	-11.375
▁акт	-11.3751
▁нотолж	-11.3752
▁Чанар	-11.3754
ive	-11.3759
▁Зас	-11.376
▁хамгаалалттай	-11.3761
▁төрөлт	-11.3763
▁Үндсэндээ	-11.3763
▁дуг	-11.3766
▁үнэртэй	-11.3768
▁Con	-11.377
▁зүйлүүдийг	-11.3772
▁номууд	-11.3772
▁Ану	-11.3776
▁гэрийнхээ	-11.3783
▁жолоочийн	-11.3785
▁!!	-11.3786
Хүүхэд	-11.3788
▁Халх	-11.3788
Нийт	-11.3789
лахгүй	-11.3792
▁клубын	-11.3795
чихав	-11.3797
Уран	-11.3797
▁Тоглолтын	-11.3798
▁тушаалаас	-11.3798
▁Залуучууд	-11.3803
▁сэргэ	-11.3804
▁Про	-11.3804
▁Крис	-11.3806
▁ахиу	-11.3812
сү	-11.3814
▁ня	-11.3814
▁энэтхэг	-11.3815
▁үүд	-11.3818
энтэй	-11.3821
▁үзүүлэгч	-11.3823
▁Багшийн	-11.3823
▁эргэ	-11.3824
▁эрсдэлд	-11.3826
ü	-11.3831
▁Групп	-11.3831
▁НАТО	-11.3831
▁организм	-11.3831
▁эрлийз	-11.3831
▁эмнэлгээс	-11.3831
▁сэдвүүд	-11.3831
▁Бутлуур	-11.3831
ноосоо	-11.3832
▁нэ	-11.3832
▁тарган	-11.3832
▁хольж	-11.3833
▁бичээгүй	-11.3833
▁эсэргүүцсэн	-11.3833
▁мэндэлсэн	-11.3833
▁Зочид	-11.3834
▁зөвлөсөн	-11.3834
▁луйварчин	-11.3835
▁тавихад	-11.3836
▁Нөхцөл	-11.3836
▁бичигдэж	-11.3837
май	-11.3837
▁явуулахгүй	-11.3837
гдах	-11.3838
▁гүм	-11.3838
▁томилсон	-11.3839
▁тэтгэлэгт	-11.3839
▁Орчлон	-11.384
▁хийл	-11.3841
▁хишиг	-11.3841
▁Найман	-11.3841
▁мөнгөгүй	-11.3841
▁нөлөөг	-11.3843
.......	-11.3843
▁залруулах	-11.3844
▁баривчилжээ	-11.3845
▁Мосе	-11.3846
ГЧ	-11.3848
аагаад	-11.385
▁төлбөртэй	-11.3851
wi	-11.3851
ST	-11.3851
▁хооллож	-11.3851
▁төлөвлөлтийн	-11.3851
▁санхүүжүүлэх	-11.3852
▁Анна	-11.3853
▁сув	-11.3854
▁Үзэсгэлэн	-11.3854
▁үүсэл	-11.3857
▁гр	-11.3857
▁Судалгаан	-11.3857
▁Сэтгэлийн	-11.3857
▁Гуравдугаарт	-11.3858
▁Загварын	-11.3858
▁танилц	-11.3859
▁учрал	-11.3859
▁цонхоор	-11.3861
Хятад	-11.3863
▁Амь	-11.3863
▁Буян	-11.3867
▁ногооны	-11.3868
▁үгүйсгэж	-11.3868
тен	-11.3868
нуур	-11.387
▁Зурагт	-11.3873
сти	-11.3873
▁амьдрахад	-11.3873
ниас	-11.3877
▁Гүй	-11.3877
▁гайхан	-11.3877
▁Харилцаа	-11.3884
ваас	-11.389
▁Ач	-11.3891
▁хөдөөний	-11.3891
▁шалгаруулж	-11.3892
▁үрж	-11.3892
▁болгондоо	-11.3896
Монголчууд	-11.3896
дуулах	-11.3898
▁сонголтууд	-11.3904
▁чадамж	-11.3909
▁Хөг	-11.391
▁Алтай	-11.3912
Хүүхдийн	-11.3914
▁үзүүлэлтийг	-11.3915
ЫГ	-11.3917
▁вакцинд	-11.3917
▁хуримаа	-11.3917
▁кэ	-11.3918
агчид	-11.3922
▁дол	-11.3925
du	-11.3926
▁тэмдгий	-11.3928
);	-11.393
▁хөгжүүл	-11.3933
▁Фи	-11.3938
39	-11.3939
хнээ	-11.394
▁авъяас	-11.3941
▁журамд	-11.3943
▁єєр	-11.3944
▁саатуул	-11.3945
▁хариул	-11.3946
▁Хүч	-11.3948
ЕР	-11.3953
▁архины	-11.3954
мэйлээр	-11.3955
▁зарчмууд	-11.3957
▁шилдгүүд	-11.3958
▁дайснууд	-11.3958
▁хуваарийг	-11.3958
▁Нөөц	-11.3958
▁аппликейшн	-11.3958
▁өгөгдсөн	-11.3958
▁халуухан	-11.3958
▁өмхий	-11.3958
3-	-11.3958
▁ярилцлагын	-11.3958
▁хувиараа	-11.3958
▁Бодвол	-11.3958
ууллаа	-11.3959
▁эзэмшлийн	-11.3959
0000	-11.3959
▁судар	-11.3959
▁өгүүлэв	-11.3961
▁Наадам	-11.3962
пе	-11.3962
▁хожсон	-11.3962
▁нөхөртөө	-11.3963
▁замнал	-11.3964
▁World	-11.3964
▁сарнай	-11.3965
▁эрхлэгчдийн	-11.3965
▁Бүлэг	-11.3965
▁станцын	-11.3965
▁туузан	-11.3968
▁Тайлан	-11.3969
▁үйлийн	-11.3971
▁удсан	-11.3972
ям	-11.3972
▁Бүсгүйчүүд	-11.3972
▁эмчлүүлж	-11.3973
▁Нээлттэй	-11.3974
Үүд	-11.398
▁инээх	-11.3981
▁бодолд	-11.3983
▁орчуулах	-11.3985
▁уулздаг	-11.3987
ake	-11.3987
жуулсан	-11.3988
ныхоо	-11.3989
▁заасны	-11.3989
▁унагах	-11.399
▁85	-11.3991
▁мэргэжлээрээ	-11.3991
▁31-	-11.3992
▁давт	-11.3992
▁дагуулаад	-11.3993
▁догол	-11.3993
▁шийдвэрийн	-11.3995
▁Ул	-11.3996
ain	-11.3997
▁авчир	-11.3997
rd	-11.3999
Fi	-11.4
▁үзэлтэй	-11.4
▁бүрдэл	-11.4004
▁хөөн	-11.4005
▁дуунд	-11.4005
▁тооц	-11.4007
аяа	-11.4011
▁Тохи	-11.4012
▁Бурхантай	-11.4015
▁Хавр	-11.4016
▁Дайн	-11.4019
▁харьяат	-11.4019
▁сонголттой	-11.4019
▁Ганбаатар	-11.402
▁унтлагы	-11.4021
ёо	-11.4021
▁үйлийг	-11.4022
чихнэ	-11.4022
▁академи	-11.4023
еле	-11.4028
стой	-11.4028
▁дайрах	-11.4029
▁ирээдүйгээ	-11.4029
▁Мор	-11.4029
▁дө	-11.4032
▁цолтой	-11.4034
ЛТ	-11.4035
аагаа	-11.4035
▁нэгтээ	-11.4035
▁бүсгүйтэй	-11.4036
дөл	-11.4039
лар	-11.4041
▁Го	-11.4043
▁ургах	-11.4047
▁гэд	-11.4049
▁компаниудыг	-11.4056
▁Мөр	-11.4057
▁уулзахаар	-11.4058
▁зөвлөлд	-11.4059
өрөг	-11.4059
▁байршуул	-11.406
▁Пи	-11.4061
▁Гүн	-11.4062
▁нийгэмлэгийн	-11.4064
-2016	-11.4065
▁тушаалаар	-11.4065
лагчид	-11.4065
акт	-11.4066
▁Шүүгч	-11.4068
▁маягийг	-11.4069
элгүй	-11.4073
!)	-11.4075
▁Израйл	-11.4077
це	-11.4082
▁алан	-11.4083
▁хэлэлцэн	-11.4085
️	-11.4086
▁Владимир	-11.4086
▁Хөрөнгий	-11.4086
▁агууламж	-11.4086
▁эдүгээ	-11.4086
▁өлсөж	-11.4086
▁тохиолдуулан	-11.4086
▁сонгоорой	-11.4086
▁давтамж	-11.4086
quot	-11.4086
▁Латин	-11.4086
▁шалгагдаж	-11.4086
▁тогтож	-11.4086
▁Талбай	-11.4086
▁экспортлох	-11.4087
▁Tags	-11.4088
▁бүтсэн	-11.4088
▁багтана	-11.4089
▁сайтаас	-11.4089
▁ярилцана	-11.4089
▁зодог	-11.409
▁болчихно	-11.409
▁мэдүүлсэн	-11.409
хө	-11.4092
▁хоер	-11.4092
лалтын	-11.4092
▁тасарсан	-11.4093
▁өвөр	-11.4093
▁солилцох	-11.4094
▁баяжуулах	-11.4094
▁шахсан	-11.4094
▁хэзээд	-11.4095
▁үхнэ	-11.4101
▁хавьгүй	-11.4103
▁суралцдаг	-11.4104
лб	-11.4104
▁түлшний	-11.4105
▁хувирч	-11.4105
▁дүрслэл	-11.4105
▁зурагтай	-11.4109
рэм	-11.4109
▁бодон	-11.411
▁жимсний	-11.4113
▁телевизээр	-11.4113
▁тавилгатай	-11.4114
▁чанараа	-11.4115
▁хоёуланг	-11.4116
Улсын	-11.412
▁ухаарч	-11.4122
▁зургуудаас	-11.4123
AL	-11.4125
▁нийлэхгүй	-11.4126
▁шинжилгээг	-11.4127
▁онцолжээ	-11.4127
▁чөлөөлж	-11.4127
▁Тоглолт	-11.4128
ати	-11.4128
▁сайдаа	-11.4129
OR	-11.4131
мой	-11.4131
▁эрэмбэ	-11.4132
Ху	-11.4132
▁өрнөх	-11.4132
▁Үн	-11.4133
▁хөтөлбөрөө	-11.4135
▁бурханы	-11.4136
▁охиндоо	-11.4139
▁гэнэн	-11.414
▁PM	-11.414
▁ууна	-11.4142
▁арч	-11.4142
▁дамжи	-11.4143
gi	-11.4143
▁хүүхний	-11.4144
▁Ром	-11.4144
▁Урлагийн	-11.4149
Дуу	-11.4149
▁Ga	-11.4149
▁зөвт	-11.415
▁ани	-11.4151
ОС	-11.4151
OS	-11.4154
▁бодолгүй	-11.4155
▁Хүсэл	-11.4159
лэлийн	-11.416
▁АМ	-11.4161
▁нарынхаа	-11.4163
▁53	-11.4166
▁мэдрэл	-11.4167
▁гэрэлтэй	-11.4168
▁хориог	-11.4168
▁журамтай	-11.4169
▁Сатан	-11.4169
▁буйдан	-11.4171
▁нэх	-11.4172
Чингис	-11.4172
гийнх	-11.4176
▁уулзалтад	-11.4177
▁материалууд	-11.4179
be	-11.4182
ЕГ	-11.4183
▁дуурай	-11.4186
▁цоож	-11.4187
▁ажиглалт	-11.4189
▁шийдэгдэх	-11.4191
▁тоосон	-11.4196
▁лавлах	-11.4197
лоогүй	-11.4199
Мөн	-11.4199
ии	-11.4201
иу	-11.4201
нэр	-11.4204
▁тосгоны	-11.4204
ца	-11.4205
▁мэдээний	-11.4205
▁Загас	-11.4205
▁цэгт	-11.4211
86	-11.4213
▁Биеэ	-11.4213
▁электрон	-11.4215
▁мотоцикл	-11.4216
▁офицер	-11.4216
▁протокол	-11.4216
▁асрамж	-11.4216
▁виртуал	-11.4216
▁Хэцүү	-11.4216
▁кафе	-11.4216
▁асуугаарай	-11.4216
▁ШИНЭ	-11.4216
▁хамаараад	-11.4216
▁өмсөөд	-11.4216
▁агуулгын	-11.4217
▁үндэстнүүд	-11.4217
▁жолоодох	-11.4217
▁урьдчилгаа	-11.4217
▁илтгэх	-11.4217
▁өнгөрөөсөн	-11.4217
▁тулгараад	-11.4218
▁цахилгааны	-11.4219
▁гэсэндээ	-11.4219
▁Эргэ	-11.4219
▁захиалсан	-11.422
▁гуайн	-11.422
Ганзориг	-11.422
▁хадам	-11.422
▁Экс	-11.4221
41	-11.4221
▁яаа	-11.4222
▁заагаад	-11.4222
▁буцсан	-11.4223
▁Яруу	-11.4223
▁Su	-11.4223
▁Ижил	-11.4224
▁сайжрах	-11.4224
Ажил	-11.4224
▁Тэгэх	-11.4224
▁явчихдаг	-11.4225
гуур	-11.4226
Монголд	-11.4226
▁залуусыг	-11.4226
▁Маг	-11.4227
▁агшин	-11.4229
▁Түмэн	-11.423
▁дэглэмийг	-11.4231
▁найдах	-11.4231
▁сү	-11.4232
▁хассан	-11.4233
▁биелүүлсэн	-11.4234
▁дүнгээс	-11.4234
▁захиалгын	-11.4236
▁нэхэх	-11.4238
▁Ирээдүйн	-11.4239
▁шилж	-11.4241
▁Ri	-11.4244
▁нийцэхгүй	-11.4245
истууд	-11.4245
▁аан	-11.4247
▁шалгаруулалтад	-11.4248
ита	-11.4248
▁дуулаад	-11.4258
▁халж	-11.4259
▁Карт	-11.4259
▁тохироо	-11.4262
Ма	-11.4263
ник	-11.4263
▁бүхэнтэй	-11.4264
▁Үх	-11.427
▁Чулуу	-11.4272
▁жингийн	-11.4275
оооо	-11.4275
▁зөрчилтэй	-11.4283
▁төлөвлөх	-11.4285
баа	-11.4285
▁аудит	-11.4288
85	-11.4294
▁харийн	-11.4296
▁чихр	-11.4296
▁сэтгэхүй	-11.4297
▁байшинг	-11.43
▁Ая	-11.4301
▁хүртээ	-11.4302
▁заяаг	-11.4304
▁хамруулж	-11.4304
▁жагс	-11.4305
▁Болж	-11.4307
сээн	-11.4307
▁Зориг	-11.4307
▁бичлэгийн	-11.4307
▁холбоонд	-11.4308
ый	-11.4314
вий	-11.4314
land	-11.4319
чихлоо	-11.432
▁прокурорын	-11.4325
▁түг	-11.4325
▁дэлгүүрээс	-11.433
▁хэлэхээр	-11.433
▁өдийг	-11.4333
▁хүндэтгэн	-11.4334
▁хүргэн	-11.4338
▁нө	-11.4339
iz	-11.4342
▁түүхээс	-11.4345
▁өрөвд	-11.4346
¬	-11.4347
▁Сонгинохайрхан	-11.4347
▁диваажин	-11.4347
▁тэнхлэг	-11.4347
▁Хөнгөн	-11.4347
▁хөндлөнгөөс	-11.4347
▁үерхэж	-11.4347
▁мөрөөдлийн	-11.4347
▁энхрий	-11.4348
▁хөндсөн	-11.4348
▁Цаашлаад	-11.4349
▁дагалдах	-11.4349
▁илрүүлж	-11.4349
▁илэрхийлэв	-11.4349
▁холбогдоно	-11.4349
▁зориулав	-11.435
64	-11.4351
yy	-11.4351
▁Casino	-11.4352
▁сүрхий	-11.4352
▁баталгаажуулсан	-11.4353
▁хэрэгжсэн	-11.4353
▁модель	-11.4354
иан	-11.4354
▁хуваалцсан	-11.4355
▁Time	-11.4356
▁нуусан	-11.4356
▁тусгах	-11.4357
AC	-11.4358
▁Өвөө	-11.4359
▁хүртээмжтэй	-11.436
▁ёстойгоо	-11.436
▁Сүнсний	-11.4361
▁үйлчлүүлэх	-11.4362
▁автсан	-11.4362
▁үрээ	-11.4363
▁явав	-11.4364
▁ятга	-11.4364
▁Тогтвортой	-11.4364
▁болгов	-11.4364
▁үеэрээ	-11.4365
▁хэрэгжүүлдэг	-11.4367
▁залуусаа	-11.4377
▁тоол	-11.4378
▁Зэвсэгт	-11.4384
▁парламентад	-11.4384
2020	-11.4385
▁төрсний	-11.4388
▁шүүмжлэлтэй	-11.4388
▁хувиа	-11.439
▁яар	-11.439
жим	-11.4397
▁авилгал	-11.4398
▁50%	-11.4399
▁хамаарал	-11.4401
-8	-11.4402
▁шийдвэрлэхэд	-11.4402
▁дээрхи	-11.4402
▁суув	-11.4405
эсвэл	-11.4406
▁оргилд	-11.4407
▁салон	-11.4407
▁фэнүүд	-11.441
▁зөвөөр	-11.441
▁тэнцвэртэй	-11.4413
▁зургаас	-11.4415
ax	-11.4416
ХҮ	-11.4417
тэг	-11.4417
▁өрөөг	-11.4418
▁болгочих	-11.442
▁Чулуун	-11.4428
Од	-11.4428
▁хага	-11.4433
▁шалгарч	-11.4434
▁бэлэглэх	-11.4434
рак	-11.4435
▁мэйл	-11.4435
▁гэс	-11.4437
▁барьц	-11.4438
▁танхимын	-11.4441
▁амраа	-11.4441
▁мэдээл	-11.4445
▁алхаа	-11.4447
На	-11.4447
ный	-11.4448
▁буланд	-11.4448
▁Даш	-11.4448
▁дүрийн	-11.4452
▁өдрүүдийн	-11.4454
▁киногоо	-11.4456
бл	-11.4457
лалаа	-11.4458
чихоод	-11.4461
▁тоглохыг	-11.4461
▁хулхи	-11.4463
эгчид	-11.4463
▁Магад	-11.4463
▁автобусанд	-11.4463
▁эхэндээ	-11.4464
▁ви	-11.447
▁дуугарах	-11.447
гээсээ	-11.4473
▁барихаар	-11.4476
51	-11.4477
▁ярьдаггүй	-11.4478
▁гомд	-11.4479
▁микро	-11.448
▁Дагуурын	-11.448
▁шошго	-11.448
▁батламж	-11.448
▁бужигна	-11.448
▁хэрэгсэхгүй	-11.4481
▁Зеланд	-11.4481
▁өнгөрөгч	-11.4481
▁сохор	-11.4481
▁солино	-11.4481
▁холбосон	-11.4481
▁залхаж	-11.4482
▁зочилж	-11.4482
▁таалагдлаа	-11.4482
▁Захиргааны	-11.4484
чдаас	-11.4485
▁уршиг	-11.4485
▁нийтэлсэн	-11.4486
▁ЭХ	-11.4487
▁€	-11.4488
▁is	-11.4489
үүдтэй	-11.4489
▁уяа	-11.4491
▁уншлаа	-11.4491
▁явуулаад	-11.4492
▁явдаггүй	-11.4494
▁ургадаг	-11.4495
▁баригчдын	-11.4495
▁нимгэн	-11.4495
▁танайх	-11.4499
▁(3)	-11.4501
▁хэлэлцээд	-11.4502
▁ирмэг	-11.4503
able	-11.4504
▁Эй	-11.4506
▁аялан	-11.4506
▁байрт	-11.4506
▁агуй	-11.4507
▁Намар	-11.4508
▁сайшаа	-11.4509
▁шохойн	-11.4513
тгал	-11.4514
▁хөнгөлөлттэй	-11.4516
тус	-11.4519
То	-11.4519
▁Ухаан	-11.452
▁олборлолтын	-11.4521
▁Ca	-11.4522
▁өгөхдөө	-11.4523
▁үйлдлээ	-11.4525
▁хөнөө	-11.4526
▁сэдэвтэй	-11.4528
▁тосон	-11.4528
▁мэдэн	-11.453
▁тохиох	-11.4533
▁сэргэж	-11.4533
▁сонсогдох	-11.4534
▁тэрийгээ	-11.4535
▁хасч	-11.4535
▁Ну	-11.4536
▁гэгээр	-11.4537
▁Лин	-11.4537
▁эхлэхээр	-11.4538
▁халамжийн	-11.4539
▁Шү	-11.4539
▁???	-11.454
▁най	-11.454
▁шалгалтанд	-11.4544
чимэг	-11.4546
▁Авлиг	-11.4546
▁залуудаа	-11.4547
Тэг	-11.455
▁эхийнхээ	-11.4551
uk	-11.4553
▁цайгаа	-11.4556
▁явдалтай	-11.4558
▁урвагч	-11.4559
▁ЭЗЭНий	-11.4559
▁цэнэглэх	-11.4561
зай	-11.4563
▁хичээнэ	-11.4565
▁Цагаа	-11.4572
▁Сол	-11.4576
kh	-11.4576
алаа	-11.4577
▁биелэлт	-11.4577
▁балар	-11.458
▁линк	-11.458
▁Хү	-11.458
▁Камер	-11.4586
ТА	-11.4586
▁Мөрдө	-11.4587
▁салахгүй	-11.4591
▁алдааны	-11.4592
▁тэмдэглэв	-11.4599
▁тэмцэнэ	-11.46
gen	-11.4602
▁эдгээрийг	-11.4603
▁нотло	-11.4604
▁ширээнд	-11.4605
▁бүрдээ	-11.4606
▁хайч	-11.4607
yo	-11.4608
▁Хувьцаа	-11.4608
Энхбаярыг	-11.4609
тэд	-11.4609
▁Яаралтай	-11.4616
▁хүмүүнлэгийн	-11.4616
▁тооллого	-11.4616
▁өвдөөд	-11.4616
▁нэхэж	-11.4616
▁бичвэр	-11.4616
▁хоршоо	-11.4617
min	-11.4617
▁буцалтгүй	-11.4617
▁захидлы	-11.4617
▁зохино	-11.4617
уха	-11.4618
▁ядаргаа	-11.4618
▁мэтгэлцээн	-11.4618
Нөхөн	-11.4619
▁урьсан	-11.4619
▁ярилцаад	-11.462
▁оруулаагүй	-11.4621
▁хийгдээгүй	-11.4624
▁Тэдэнтэй	-11.4624
▁хуруугаа	-11.4624
▁арлын	-11.4624
vi	-11.4626
▁гахайн	-11.4628
▁тоглуулах	-11.4631
▁бүтээдэг	-11.4632
▁мэдүүлэх	-11.4633
▁Иохан	-11.4634
▁эсэргүүцэх	-11.4634
-2020	-11.4634
▁нөхдийн	-11.4634
монгол	-11.4634
▁Зү	-11.4635
▁Тайвань	-11.4637
▁саналаар	-11.4639
▁зөвлөгөөн	-11.4642
▁багтаа	-11.4643
▁холдох	-11.4643
▁япончууд	-11.4643
▁мангас	-11.4644
▁багачууд	-11.4644
▁төгсгөлийн	-11.4644
▁одсон	-11.4645
▁бүлийг	-11.4646
▁Эз	-11.465
▁Тэрний	-11.4653
▁хаягдлын	-11.4655
▁Sa	-11.4658
▁Ихэнхдээ	-11.4661
▁ирэн	-11.4664
▁томил	-11.4667
▁баяж	-11.4671
▁сонирхолгүй	-11.4673
▁Бэлтгэл	-11.4674
▁онгоцонд	-11.4675
46	-11.4678
цах	-11.4678
▁малтмал	-11.468
▁Зүүд	-11.4681
▁гүнд	-11.4682
▁үсгийн	-11.4682
▁Di	-11.4684
▁сурга	-11.4691
Амьдрал	-11.4693
ганы	-11.4693
▁лаа	-11.4694
▁Яам	-11.4699
▁Gu	-11.4699
▁наана	-11.47
▁бизээ	-11.4703
▁62	-11.4703
▁төрөөд	-11.4705
чүүл	-11.4706
Номтойбаяр	-11.4708
Шударга	-11.4709
Бүгд	-11.4709
57	-11.471
▁Чой	-11.4711
▁үгэндээ	-11.4713
▁Эрдэнэтийн	-11.4713
▁арьстай	-11.4713
кк	-11.4714
▁багтааж	-11.4715
▁зайлах	-11.4716
▁эргүүлэх	-11.4718
эк	-11.4719
▁жагсаалтын	-11.4721
аахан	-11.4724
▁мянгаар	-11.4728
сийм	-11.4728
▁үүрэх	-11.4729
▁эргэлзэхгүй	-11.473
▁нийцэх	-11.473
▁что	-11.4731
▁do	-11.4735
▁хонох	-11.4737
▁Вакцин	-11.4737
▁зохио	-11.4738
элтэй	-11.4739
▁өгөхөөс	-11.4741
▁худалч	-11.4741
▁суухад	-11.4742
▁азтан	-11.4742
▁байран	-11.4742
▁уурхайг	-11.4743
жүүлсэн	-11.4744
рат	-11.4748
жүүлэлт	-11.475
uu	-11.4752
▁subject	-11.4753
▁ГХЯ	-11.4753
▁Статистик	-11.4753
▁ойлголцох	-11.4753
▁цилиндр	-11.4753
▁өвчилсөн	-11.4753
▁латекс	-11.4753
▁СХД	-11.4753
▁эрдмийн	-11.4753
▁тохиролцсон	-11.4753
▁дурдвал	-11.4753
▁зөрчих	-11.4753
▁Нисэх	-11.4753
▁Месси	-11.4753
▁Байден	-11.4753
▁даавуун	-11.4753
▁өвддөг	-11.4753
▁захирлын	-11.4753
▁хуваарийн	-11.4753
▁жигүүр	-11.4753
▁арилж	-11.4753
▁аваачиж	-11.4753
▁бүтнээр	-11.4754
▁оруулахыг	-11.4754
▁Хэмжээ	-11.4755
▁өнгөрүүлдэг	-11.4755
▁хичээллэдэг	-11.4755
▁posts	-11.4756
▁comments	-11.4756
Бямбацогт	-11.4757
▁Сөрөг	-11.4758
▁сандарч	-11.4758
▁тогтоодог	-11.4759
▁хамрах	-11.476
▁байгууламжийн	-11.476
▁түймрийн	-11.4762
▁цэгцлэх	-11.4763
▁Гэх	-11.4764
үм	-11.4765
▁суртахууны	-11.4766
▁ахих	-11.4767
▁Хайрт	-11.4769
▁өрөөнөөс	-11.4769
▁порт	-11.4769
▁сансар	-11.4772
▁Босоо	-11.4772
.000	-11.4775
▁сансарт	-11.4776
▁намуудын	-11.4777
▁хатга	-11.478
▁зад	-11.4781
▁орчуулагч	-11.4781
төн	-11.4782
▁хоолтой	-11.4787
▁төрхтэй	-11.4788
▁сануулах	-11.4791
▁дорд	-11.4791
▁энергийн	-11.4793
▁тохируулга	-11.4794
▁аллага	-11.4794
цэж	-11.4795
▁TV	-11.4795
▁хэлэлцүүл	-11.4796
▁идэвхи	-11.4797
▁Өргөн	-11.4797
▁унана	-11.4799
▁тунхагла	-11.48
▁үлдээд	-11.4801
▁засагтай	-11.4802
▁төржээ	-11.4805
▁оноосон	-11.4806
▁хөгжинө	-11.4807
ге	-11.4809
▁мэндээ	-11.4809
сєн	-11.481
▁багана	-11.4812
▁хөршийн	-11.4813
▁туршаад	-11.4813
▁Ажиллах	-11.4814
▁шалгадаг	-11.4814
▁зурагтаар	-11.4814
▁буурахгүй	-11.4814
▁Хийж	-11.4815
лбал	-11.4818
▁зөвшөөрдөггүй	-11.4818
▁дуусахад	-11.4819
▁Сургуульд	-11.4821
тог	-11.4822
ance	-11.4822
▁сурвалжууд	-11.4823
▁гадныхан	-11.4825
ссэн	-11.4825
▁нуруун	-11.4825
▁цув	-11.4829
▁болоорой	-11.4829
▁Нүүрс	-11.4829
гой	-11.4829
▁топ	-11.483
ys	-11.4832
▁алгаа	-11.4833
үүлэгч	-11.4837
▁шу	-11.484
▁цемент	-11.4842
▁байз	-11.4843
▁заваа	-11.4845
▁Ашигт	-11.4846
▁1980	-11.4847
▁санана	-11.4848
MA	-11.4855
▁pro	-11.4856
▁нүдтэй	-11.4856
кг	-11.4856
▁файлын	-11.4858
bi	-11.4858
▁холбогдлы	-11.4859
▁нууцлал	-11.486
▁гэрээгээ	-11.486
▁Төсөв	-11.4865
▁Парисын	-11.4865
▁ялга	-11.4865
▁сэлгээ	-11.4868
▁салбарынхан	-11.4873
ддог	-11.4874
▁билэг	-11.4878
▁хурдаар	-11.4878
уулахад	-11.4879
▁ва	-11.488
чихжээ	-11.4882
▁ро	-11.4884
адаг	-11.4886
unread	-11.4891
▁ЭЕШ	-11.4891
▁бөгөөс	-11.4891
▁фунт	-11.4891
▁шаардлагууд	-11.4892
▁хэмжүүр	-11.4892
▁хэрхэх	-11.4892
▁дүүрсэн	-11.4893
▁үрчлээ	-11.4893
▁1989	-11.4893
▁хоносон	-11.4893
▁нөхрийнхөө	-11.4894
▁баривчилсан	-11.4894
▁сүрэг	-11.4894
▁зодоон	-11.4895
▁сольсон	-11.4895
▁корпораци	-11.4896
▁Хам	-11.4897
▁шийдээд	-11.4897
▁Гамшг	-11.4898
▁талархлаа	-11.4898
▁гүйцэтгэлийн	-11.4898
▁сураагүй	-11.4898
▁буулт	-11.4898
рик	-11.4898
▁дайраад	-11.4898
▁Галзуу	-11.4899
▁Хэвлэх	-11.4899
▁гей	-11.49
▁хариуцдаг	-11.49
рэв	-11.4901
▁сэдэл	-11.4901
▁угтаж	-11.4901
▁Хавар	-11.4901
▁бололцоотой	-11.4901
▁өнгөрүүлж	-11.4902
▁ЕБС	-11.4902
▁мөнгөнөөс	-11.4904
▁амжиж	-11.4907
▁Туяа	-11.4908
▁ором	-11.4909
▁Сансар	-11.4909
▁гайхдаг	-11.491
▁хүл	-11.4911
лэе	-11.4914
▁дуудаад	-11.4914
▁тасал	-11.4914
лагдана	-11.4916
▁ална	-11.4917
▁гэснээс	-11.4918
▁мангар	-11.4918
▁Тэмцээний	-11.4918
▁ярья	-11.4919
▁жу	-11.4919
▁Мэдэхгүй	-11.492
▁илүүтэйгээр	-11.4921
▁харамс	-11.4921
▁байрлалд	-11.4921
▁хотуудын	-11.4922
өөх	-11.4922
ke	-11.4925
▁next	-11.4928
▁утсанд	-11.4933
▁тэмцэгч	-11.4934
▁баяс	-11.4935
▁шүүгчийн	-11.4935
▁алдагдалтай	-11.4935
▁чанаргүй	-11.4935
▁дага	-11.4936
▁болуу	-11.4936
▁дүүргэх	-11.4939
▁дэхь	-11.494
длийн	-11.4941
▁Хайлт	-11.4943
▁дугуйн	-11.4945
Ном	-11.4948
▁шул	-11.4949
▁үрэх	-11.4949
▁ухаарах	-11.4949
gg	-11.4949
▁байгал	-11.495
жий	-11.4953
▁няцаа	-11.4953
гэхдээ	-11.4954
▁ХААН	-11.4964
▁88	-11.4964
▁Хулгайч	-11.4967
▁мэдээгээр	-11.4967
▁5:	-11.497
▁хөгийн	-11.4971
▁Зуу	-11.4972
<	-11.4972
400	-11.4976
▁суралцагч	-11.4979
ерс	-11.4979
▁ёо	-11.4979
▁европын	-11.4981
▁Товч	-11.4982
ial	-11.4984
▁Залуучуудын	-11.4987
▁итгэлгүй	-11.4988
Үндэсний	-11.4989
Энхсайхан	-11.4989
▁дугаартай	-11.4989
үүний	-11.4989
Өөр	-11.499
▁ухаангүй	-11.4993
▁Ертөнц	-11.4994
91	-11.4994
▁чамайгаа	-11.4995
▁мэдэгдлий	-11.4995
ологи	-11.4995
▁өөрчлөгддөг	-11.5002
▁үүрч	-11.5003
▁халдвартай	-11.5005
Нийслэлийн	-11.5006
▁хэрэгжүүлэхээр	-11.501
Нэр	-11.5012
отой	-11.5012
Аз	-11.5013
▁дөх	-11.5014
▁орчинг	-11.5015
цгааж	-11.5016
▁тайлагна	-11.502
лэхгүй	-11.5021
▁сунгаж	-11.5025
▁ажилтантай	-11.5025
▁коронавирусийн	-11.5027
int	-11.5028
▁ярихаас	-11.503
▁оор	-11.5032
▁article	-11.5032
▁Цэнхэр	-11.5032
▁олдвор	-11.5032
▁онцоллоо	-11.5032
í	-11.5032
▁Дизайн	-11.5032
▁туранхай	-11.5032
▁дутмаг	-11.5033
▁буриад	-11.5033
▁үүснэ	-11.5033
▁тасархай	-11.5033
▁нямбай	-11.5033
▁хамгаалагдсан	-11.5033
▁алхмууд	-11.5033
▁Хэвлэлийн	-11.5033
-18	-11.5034
▁шаардана	-11.5034
▁мандат	-11.5035
▁хөрөг	-11.5036
▁оллоо	-11.5037
▁босгосон	-11.5037
▁илчлэг	-11.5037
▁удирдсан	-11.5038
▁Төлөвлөгөө	-11.5038
▁App	-11.5038
▁Jo	-11.5039
▁тохиролцоо	-11.5039
▁тоглогчдын	-11.5039
▁буурна	-11.504
▁админ	-11.504
▁2022	-11.5042
▁тулах	-11.5042
өргө	-11.5043
▁үзүүлэлттэй	-11.5043
▁бүжиглэж	-11.5044
▁гурв	-11.5044
▁багасгаж	-11.5045
▁боловсруул	-11.5045
▁ялагдал	-11.5046
▁ээжийг	-11.5046
▁саваа	-11.5047
▁санаачилж	-11.5048
▁бүрчлэн	-11.5048
▁Ислам	-11.5048
▁архаг	-11.5049
▁сураад	-11.5055
▁мэлхий	-11.5056
▁ярилцдаг	-11.5057
▁буцаа	-11.5058
▁тэрний	-11.5059
▁нэгтэй	-11.5059
ДС	-11.5062
▁se	-11.5062
▁COVID	-11.5063
алдаа	-11.5069
he	-11.5071
▁амины	-11.5071
▁наадмаар	-11.5072
▁нийлүүлж	-11.5076
▁хүссэнээрээ	-11.5077
▁илэрчээ	-11.5077
▁суулт	-11.5078
▁дэлгэж	-11.5078
▁цомгийн	-11.508
out	-11.5082
▁тэв	-11.5084
▁тер	-11.5085
▁боломжоор	-11.5088
▁хуваа	-11.5088
▁өгөөжтэй	-11.509
▁ян	-11.5093
▁шүүгчид	-11.5093
ДАА	-11.5094
▁айм	-11.5097
▁ааа	-11.5098
▁санаандгүй	-11.5099
▁манайхаас	-11.5106
▁музейн	-11.5108
▁өсчээ	-11.5109
ский	-11.5109
▁стандартад	-11.511
▁хүчил	-11.5111
▁Дам	-11.5111
▁Чуулган	-11.5112
▁Ядуу	-11.5115
▁өч	-11.5115
Ганц	-11.5117
▁бүтээлтэй	-11.5118
if	-11.512
▁мэдлэгийг	-11.512
▁хурлаа	-11.512
▁ажиглах	-11.5123
▁жорлон	-11.5123
▁байхаасаа	-11.5129
▁гараагаа	-11.5129
Учир	-11.5131
▁ЕХ	-11.5132
▁Дэлхийг	-11.5132
1)	-11.5134
Үүнийг	-11.5134
▁номер	-11.5134
)))	-11.5139
үүхэн	-11.5141
ать	-11.5142
▁метрийн	-11.5144
▁сайжруул	-11.5144
Ай	-11.5144
Бага	-11.5151
ny	-11.5152
▁лиг	-11.5153
Төр	-11.5153
▁яахын	-11.5157
алз	-11.5158
али	-11.5159
▁Ad	-11.516
▁бүт	-11.5161
▁бууны	-11.5161
▁барилд	-11.5164
▁дангаар	-11.5164
▁нугал	-11.5166
ямар	-11.5168
▁арьсан	-11.5169
▁араасаа	-11.517
▁comment	-11.5171
▁дансаа	-11.5171
▁хуудсаар	-11.5172
▁Удирдлаг	-11.5173
насан	-11.5174
ә	-11.5175
▁даалгавраа	-11.5175
▁цамхаг	-11.5175
▁өрөөсгөл	-11.5175
▁эвдрэл	-11.5175
▁эвслийн	-11.5175
▁ярилцлагыг	-11.5175
▁дутагдаж	-11.5175
▁булаам	-11.5175
▁ЗДТГ	-11.5176
▁олдоно	-11.5176
▁гутрал	-11.5176
▁Дүрэм	-11.5176
▁өнгөрүүл	-11.5176
▁1984	-11.5176
▁хэмээлээ	-11.5176
▁сэргэлэн	-11.5176
▁шаардагдана	-11.5176
▁Берлин	-11.5177
▁сэтгүүлчдэд	-11.5177
▁хэвлэгдсэн	-11.5178
▁илэрхийлнэ	-11.5179
▁шийдэв	-11.518
▁дагавр	-11.518
▁нэмэгдэл	-11.518
▁инээмсэглэн	-11.5181
▁бахарх	-11.5181
▁үргэлжилдэг	-11.5181
▁үзүүлээд	-11.5182
▁хэрэглэвэл	-11.5182
▁эмгэн	-11.5184
▁бдаг	-11.5184
▁үрэгдсэн	-11.5184
▁Хэрэглэгчид	-11.5186
▁хүмүүстэйгээ	-11.5186
▁шатаах	-11.5187
▁Ингэ	-11.5187
▁хорон	-11.5187
▁хатаа	-11.5187
▁тулалдаан	-11.5187
ят	-11.5189
▁тээвэрлэлт	-11.5189
▁хайраар	-11.5191
▁Дүр	-11.5193
▁зарцуулалт	-11.5193
▁хуваарилах	-11.5194
▁инээмсэглэж	-11.5194
▁мөнгөнд	-11.5195
Надтай	-11.5195
▁z	-11.5197
▁ойлгуулж	-11.5198
▁сонгохдоо	-11.5201
▁98	-11.5201
▁хүлээхгүй	-11.5201
▁Тэргүүн	-11.5205
▁Бөх	-11.5206
▁Угтаа	-11.5209
▁зөөгч	-11.521
▁Бүхэл	-11.5211
хөөр	-11.5213
огдох	-11.5215
▁яанаа	-11.5215
цаж	-11.5217
члаа	-11.5218
▁ярилцлагадаа	-11.5219
▁дуучид	-11.5219
▁Засвар	-11.5221
аф	-11.5223
▁130	-11.5224
▁террорист	-11.5225
2000	-11.5225
▁хичээн	-11.5227
▁донт	-11.5227
▁андуур	-11.5231
log	-11.5232
▁тохиргоог	-11.5234
▁зардлаар	-11.5234
▁мэл	-11.5236
▁дундын	-11.5238
▁манлайлагч	-11.5238
▁хайгуулын	-11.5239
▁шийдвэрээр	-11.5239
▁чуулганд	-11.5242
▁амьсгалах	-11.5244
▁Хурц	-11.5246
bu	-11.5247
▁мөрдөгдө	-11.5247
▁арил	-11.5248
▁Сул	-11.5248
▁(3	-11.525
▁бууз	-11.525
▁тогтоолоор	-11.5252
▁харъяа	-11.5254
дин	-11.5256
▁арьсаа	-11.526
▁нэгтгэ	-11.5261
con	-11.5264
ева	-11.5264
▁таардаг	-11.5266
▁Бод	-11.5267
▁Ирланд	-11.5269
▁ишлэл	-11.5269
CA	-11.5271
▁эрхтний	-11.5274
▁байдын	-11.5274
▁шоуны	-11.5275
▁Сүр	-11.5276
▁ардаа	-11.5276
Нийгмийн	-11.5276
Чамайг	-11.5277
алын	-11.528
▁Хуудас	-11.5282
▁гарахын	-11.5283
Багш	-11.5284
▁байга	-11.5285
▁цусан	-11.5291
▁янзтай	-11.5292
▁насос	-11.5294
лалын	-11.5295
Өлгий	-11.5296
▁хит	-11.5298
▁тохир	-11.5298
▁Хав	-11.5298
▁зөгийн	-11.5304
▁тэнэгүүд	-11.5306
7-	-11.5308
▁эхийг	-11.531
АЛТ	-11.5312
▁шувууд	-11.5313
▁Na	-11.5314
▁тууз	-11.5315
▁тосгон	-11.5315
▁Компьютерийн	-11.5315
▁базаа	-11.5316
биш	-11.5317
руугаа	-11.5317
▁porn	-11.5318
цсэн	-11.5319
▁язгуур	-11.532
▁ТЭЗҮ	-11.532
▁хүргье	-11.532
▁тактик	-11.532
▁БАЙНА	-11.532
▁хөтөлдөг	-11.532
▁нийлбэр	-11.532
▁ханцуй	-11.5321
▁гсн	-11.5321
▁бодогдох	-11.5321
▁гитар	-11.5321
▁шийдлүүд	-11.5321
▁зөвлөлдөх	-11.5322
▁очвол	-11.5322
▁зол	-11.5322
▁уулзаагүй	-11.5322
▁Барак	-11.5323
▁цацаж	-11.5323
▁Дэвид	-11.5323
▁Орлого	-11.5323
▁хоноод	-11.5323
8-	-11.5324
SA	-11.5325
▁Харанхуй	-11.5326
▁хэсэгчлэн	-11.5327
▁нээлээ	-11.5329
▁богинохон	-11.533
▁хувирсан	-11.533
▁байгууллагатай	-11.5332
лэр	-11.5332
▁гэсгээ	-11.5333
▁буудаж	-11.5335
▁хөрвүүлэх	-11.5335
▁үнэнд	-11.534
▁тоонууд	-11.5341
▁Орд	-11.5343
▁гишгэ	-11.5345
▁амгаланг	-11.5347
▁чиглүүлэх	-11.5348
▁муудсан	-11.5348
▁дүүргэ	-11.5353
▁өөрчлөө	-11.5356
▁нум	-11.536
улс	-11.5361
▁тэмдгийн	-11.5362
лгаж	-11.5364
▁Алга	-11.5365
ча	-11.5365
▁Харь	-11.5372
▁БАЙ	-11.5375
▁чадахаар	-11.5375
ish	-11.5375
▁дээдсийн	-11.5377
▁барин	-11.5377
▁өрөнд	-11.5378
▁Ве	-11.5382
Ерөнхийлөгч	-11.5383
Са	-11.5383
илга	-11.5386
илсон	-11.5389
▁чансаа	-11.5392
▁тасар	-11.5393
▁тэвчих	-11.5393
дор	-11.5394
▁бичихдээ	-11.5395
▁Нигер	-11.5395
▁жарга	-11.5396
▁өгүүл	-11.5401
▁Оройн	-11.5402
▁эрхлэлт	-11.5403
▁Мэнд	-11.5405
▁хөөс	-11.5405
ost	-11.5407
Хориотой	-11.5407
▁Бөхийн	-11.5407
▁гаргахын	-11.5409
ална	-11.5411
▁Чамтай	-11.5412
▁клубт	-11.5414
▁Байгууллага	-11.5414
▁үүрэгт	-11.5417
▁59	-11.542
хүүгийн	-11.5421
Гурван	-11.5423
▁ханын	-11.5423
Баярлалаа	-11.5424
▁нэлээдгүй	-11.5426
▁чигтээ	-11.543
▁байгальд	-11.5433
же	-11.5433
▁Азид	-11.5436
▁номноос	-11.5437
лю	-11.5438
▁шүүж	-11.5441
▁шү	-11.5442
▁сэтгэлээрээ	-11.5443
▁үндс	-11.5444
▁Шат	-11.5446
▁ялгар	-11.5447
▁цэгийн	-11.5447
▁мэргэжлээ	-11.5448
▁дөнгө	-11.5448
▁статус	-11.545
au	-11.5451
42	-11.5452
200	-11.5453
▁жим	-11.5453
▁заншил	-11.5456
▁алин	-11.5456
▁малнууд	-11.5462
кон	-11.5462
▁ег	-11.5464
▁Салхи	-11.5465
▁Манж	-11.5466
▁эзэмш	-11.5467
▁Гитлер	-11.5467
▁маршрут	-11.5467
▁Шинжилгээ	-11.5467
▁дутагдлы	-11.5467
▁ойлголцол	-11.5467
▁схем	-11.5467
▁дорвитой	-11.5467
▁Найруулагч	-11.5467
▁домэйн	-11.5467
▁наадмаа	-11.5468
▁бариарай	-11.5468
▁бодогдож	-11.5468
▁ажиглагдаж	-11.5468
▁мэдэгдэнэ	-11.5468
▁өнгөрөөдөг	-11.5468
▁норм	-11.5469
▁хоригдож	-11.5469
▁Ширээ	-11.5469
▁нэвтрүүлэгт	-11.5469
▁хөөрөө	-11.547
▁чинээлэг	-11.547
▁тэмцсэн	-11.547
▁Гаднаас	-11.547
▁ЮНЕСКО	-11.547
▁хүрэхийг	-11.5472
▁зогсооно	-11.5472
▁хашиж	-11.5472
▁хооллолт	-11.5473
▁халдсан	-11.5473
▁угаана	-11.5475
▁Аварга	-11.5477
▁хүүгийнхээ	-11.5478
▁байгуулан	-11.5478
▁Мэ	-11.5479
▁яалаа	-11.5481
▁сахилга	-11.5481
▁шахах	-11.5484
▁Март	-11.5484
▁хүмүүсээр	-11.5486
▁гуйя	-11.5486
▁бодлогод	-11.5487
▁Дугаар	-11.5488
сноор	-11.5491
▁Тө	-11.5493
▁маргаашийн	-11.5493
▁мөнгөөрөө	-11.5496
▁оператор	-11.5496
▁хоолойгоор	-11.5497
org	-11.5497
▁ууртай	-11.5498
▁эдгэрч	-11.55
▁Хэрэгтэй	-11.55
▁зарлан	-11.55
▁үздэггүй	-11.5503
▁асууя	-11.5503
▁гудамжаар	-11.5505
эгтүн	-11.5505
▁гарз	-11.5508
▁худ	-11.551
▁торго	-11.551
▁ургаж	-11.5511
ess	-11.5514
▁хилэн	-11.5514
▁санагд	-11.5515
▁холоос	-11.5515
▁Жам	-11.5517
▁Асуудлы	-11.5517
Гал	-11.5518
▁Уулзалт	-11.5521
алтыг	-11.5521
▁зайлсхий	-11.5521
▁илч	-11.5522
жсэн	-11.5528
▁мэ	-11.5529
▁ум	-11.553
▁Рон	-11.5531
7)	-11.5531
▁Будд	-11.5532
▁Өөрийнх	-11.5532
▁багаа	-11.5533
▁зө	-11.5534
айр	-11.5535
гүүт	-11.5536
OL	-11.5536
▁bo	-11.5536
▁хаалгаар	-11.5536
▁тэлэх	-11.5537
▁жинд	-11.5538
▁хоолойгоо	-11.5538
▁мө	-11.554
▁тууж	-11.554
▁140	-11.5541
▁байсын	-11.5541
огдсон	-11.5542
▁найруулга	-11.5543
▁гэгчээр	-11.5545
▁төлөхгүй	-11.5546
▁орчноо	-11.5546
▁мандал	-11.5548
▁өсөлттэй	-11.5549
▁яая	-11.555
нис	-11.5552
▁чадлы	-11.5552
▁казиног	-11.5554
▁хөрвүүл	-11.5554
▁тооцооны	-11.5556
уулав	-11.5558
▁мөрний	-11.5559
▁төсвөө	-11.5561
▁идэвхжүүл	-11.5562
▁сайжруулахад	-11.5566
уухан	-11.5571
▁удах	-11.5572
▁нийц	-11.5577
Сэтгэл	-11.558
▁болиоч	-11.558
▁тэрнээс	-11.558
цээ	-11.5581
▁Охины	-11.5582
▁Гарын	-11.5582
зүй	-11.5582
▁болиод	-11.5582
▁Хэрэглэх	-11.5583
жу	-11.5587
66	-11.5587
▁2.5	-11.5589
СТ	-11.5589
өхө	-11.559
▁еврог	-11.5591
▁мар	-11.5592
????	-11.5592
Байна	-11.5594
▁үнэд	-11.5597
▁la	-11.5598
▁IT	-11.5602
жуу	-11.5602
▁хүртээмж	-11.5603
▁баримтуудыг	-11.5606
▁татвараас	-11.5609
▁авьяастай	-11.5611
▁хэвшлийн	-11.5612
кан	-11.5616
▁Хуурамч	-11.5616
▁Шалтгаан	-11.5616
▁дөрвөлжин	-11.5616
▁шалтгаалдаг	-11.5616
▁эрмэлздэг	-11.5616
▁допинг	-11.5616
▁Гадуур	-11.5616
▁зөвшөөрөөгүй	-11.5617
▁тарвага	-11.5617
▁Зовлон	-11.5617
▁iOS	-11.5617
▁хөндөж	-11.5617
▁Сталин	-11.5617
сугай	-11.5617
▁зөрчилдөөн	-11.5617
▁хуваалцаарай	-11.5618
▁бурхад	-11.5618
ls	-11.5618
▁чадлаараа	-11.5618
▁нэмэгдүүлдэг	-11.5618
▁төлөлт	-11.5619
▁нэгтгэсэн	-11.562
▁хайдаг	-11.562
▁минутад	-11.5621
▁нийлсэн	-11.5621
▁гучин	-11.5621
▁Мэргэжил	-11.5621
▁(10	-11.5621
▁Дорнодын	-11.5624
▁Арслан	-11.5625
▁айлчлалын	-11.5625
▁арчлах	-11.5626
▁үүсэж	-11.5627
стан	-11.5627
▁more	-11.563
▁баримтат	-11.5631
▁төвлөрч	-11.5632
▁Хи	-11.5633
▁олимпын	-11.5638
▁буцахгүй	-11.564
▁сурталчилгааг	-11.564
хэв	-11.5641
▁All	-11.5643
▁Улсаас	-11.5643
▁аавдаа	-11.5645
▁цацах	-11.5645
▁дагуулсан	-11.5646
▁угаадаг	-11.5647
▁шинэчилж	-11.5648
▁халдах	-11.5648
▁°	-11.5649
▁Хүлээн	-11.5651
▁үйлдвэрлэлээ	-11.5653
чив	-11.5654
Арилжааны	-11.5655
▁хотуудад	-11.5656
▁нөлөөлөхгүй	-11.5657
▁авснаар	-11.5657
▁бухимд	-11.5657
▁далан	-11.5657
sc	-11.5658
▁өвд	-11.5662
▁азгүй	-11.5663
▁OS	-11.5664
ингийн	-11.5665
▁тайлангийн	-11.5665
▁мон	-11.5665
ирч	-11.5666
▁цагаач	-11.5666
▁эмэгтэйд	-11.5667
▁тарж	-11.5667
▁больжээ	-11.5667
ардаг	-11.5668
▁Худалдах	-11.5668
▁оруулахаар	-11.5669
▁ирээдүйтэй	-11.5669
▁хариуцлагагүй	-11.567
▁ханхүү	-11.5672
мог	-11.5674
стэй	-11.5674
▁засагч	-11.5675
▁үхлээ	-11.568
▁өөрөөрөө	-11.568
▁дээрэм	-11.5682
Хө	-11.5683
mm	-11.5684
RA	-11.5685
▁Шаардлага	-11.5686
око	-11.5689
▁буруугаа	-11.5689
▁фи	-11.5693
огт	-11.5693
▁тэрбумтан	-11.5695
аци	-11.5698
▁өнгөний	-11.5699
▁тоогоо	-11.57
▁тохиол	-11.5701
▁тараад	-11.5702
▁эсэн	-11.5703
▁Гэрт	-11.5703
▁бүлэглэлийн	-11.5703
▁тэмдэглэжээ	-11.5703
▁төвтэй	-11.5705
▁Алекс	-11.5705
▁Зүрхний	-11.5706
атга	-11.5707
▁даваад	-11.5709
·	-11.5709
▁Утасны	-11.571
▁харцаар	-11.571
RI	-11.571
▁аймгууд	-11.5715
рис	-11.5719
УН	-11.5719
Пүрэв	-11.5721
58	-11.5721
▁Монголоор	-11.5721
▁Тэх	-11.5723
Жаргалсайхан	-11.5724
уш	-11.5725
▁хичээлүүд	-11.5726
▁Ва	-11.5729
Эн	-11.5731
▁Шалгалтын	-11.5732
▁дайсны	-11.5734
МС	-11.5736
▁зүйг	-11.5736
эндүү	-11.5739
ини	-11.5745
▁үүдэнд	-11.5747
өгөө	-11.5747
▁боолт	-11.5748
▁морьд	-11.5749
▁сонирхлоо	-11.5751
▁хэмнэлт	-11.5751
▁амьжиргаа	-11.5752
▁Орост	-11.5758
▁Ta	-11.5759
▁эрмэлзэл	-11.5759
▁үндэслэлгүй	-11.576
▁тохиролцоон	-11.5761
▁Конгресс	-11.5768
▁ойлгомжгүй	-11.5768
▁тохиромжгүй	-11.5768
▁хүрэгчдийн	-11.5768
▁шийдэмгий	-11.5768
▁эрэлхийлж	-11.5768
▁огторгуй	-11.5768
▁өтгөн	-11.5768
▁мушги	-11.5768
▁youtube	-11.5768
▁Сонголт	-11.5768
▁горьд	-11.5768
▁хэтрэхгүй	-11.5768
▁Дотроо	-11.5768
▁хураангуй	-11.5769
▁Хиймэл	-11.5769
▁сахар	-11.5769
зу	-11.5769
▁хэлэлцүүлгийг	-11.5769
▁тодорсон	-11.5769
▁хаагчдад	-11.5769
▁тэмцлийн	-11.5769
▁зааснаар	-11.577
▁шүүмжилдэг	-11.577
▁нэвтэрсэн	-11.577
▁гүйцсэн	-11.577
▁зарагдаж	-11.577
▁өгүүлдэг	-11.5772
▁ФОТО	-11.5773
▁Үхсэн	-11.5775
▁брэндүүд	-11.5775
▁сургасан	-11.5775
▁оролт	-11.5777
▁медиа	-11.5777
▁морио	-11.5778
▁хиймээр	-11.5778
▁сүүлчээ	-11.5778
▁илжиг	-11.5778
▁шүтэх	-11.5779
▁зарагдах	-11.5779
фо	-11.578
▁дү	-11.578
жа	-11.5781
▁аялсан	-11.5781
▁эхлээгүй	-11.5782
▁донор	-11.5783
▁хангахын	-11.5783
▁Морь	-11.5784
▁уснаас	-11.5785
▁эргэлтийн	-11.5787
▁хожуу	-11.5787
▁Унтах	-11.5789
▁морд	-11.579
▁Хэлэх	-11.5791
▁урсгалын	-11.5791
▁зарцуулна	-11.5796
▁боож	-11.5796
▁баригдах	-11.5796
▁хүүхдээс	-11.5797
▁тогтолцоонд	-11.5798
▁Далд	-11.58
▁найзтай	-11.58
▁50-	-11.58
иймаа	-11.5801
6-	-11.5801
▁сахиж	-11.5801
▁цу	-11.5802
▁лонх	-11.5804
Оюунгэрэл	-11.5804
▁Хүүхдүүдийн	-11.5806
ED	-11.5806
▁сө	-11.5806
▁хүлээлгэх	-11.5807
▁ша	-11.5808
▁өнгөрсний	-11.5813
▁өлгий	-11.5813
▁Техникийн	-11.5813
▁мөрөөр	-11.5814
▁балет	-11.5818
▁Урьдчила	-11.5818
▁бүлгээс	-11.5819
▁хандуулдаг	-11.5819
▁гаргахдаа	-11.5823
окс	-11.5823
Зориг	-11.5824
▁ресторанд	-11.5826
ach	-11.5826
▁хязгаарлаж	-11.5828
▁сэтгэлгээний	-11.5829
▁загалмай	-11.5829
агддаг	-11.5829
▁төг	-11.5829
▁Дубай	-11.5832
▁уудам	-11.5833
▁сонсохгүй	-11.5834
▁Хув	-11.584
▁хэргээс	-11.5846
ани	-11.5846
▁хамтрах	-11.5848
▁наслах	-11.5851
▁эхтэй	-11.5853
▁Яриа	-11.5853
▁бүсгүйд	-11.5855
▁Топ	-11.5859
▁бослого	-11.586
▁хэлэлцүүлэгт	-11.5864
▁давтах	-11.5864
рсэн	-11.5867
▁ээжид	-11.5867
▁Др	-11.5868
▁хаягаа	-11.587
▁уйлдаг	-11.5871
Хамт	-11.5871
▁шууги	-11.5875
Тэмүүжин	-11.5877
Ганхуяг	-11.5878
Уянга	-11.5878
Баярсайхан	-11.5878
▁нэвтрүүлж	-11.588
▁өндий	-11.5881
дэлгэр	-11.5881
▁ламын	-11.5882
▁Мари	-11.5883
лагддаг	-11.5883
▁сангууд	-11.5888
▁хяналтад	-11.5888
▁авхуул	-11.5891
▁хали	-11.5895
▁явахаас	-11.5895
▁хэрэглэл	-11.5897
▁хуваагд	-11.5898
▁тайвшир	-11.5902
▁Алив	-11.5902
▁Жак	-11.5906
▁үйлчилгээгээ	-11.5908
ХАА	-11.5909
▁Ес	-11.5909
Орон	-11.5911
▁суугаагүй	-11.5911
▁бл	-11.5916
▁туршлагаас	-11.5918
▁ХАР	-11.5918
ë	-11.5922
▁витамин	-11.5922
▁магистр	-11.5922
▁Нидерланд	-11.5922
▁аппликэйшн	-11.5922
▁Эмчилгээ	-11.5922
▁чааваас	-11.5922
Сур	-11.5922
▁хөөцөлдөж	-11.5922
▁байгуулагдлаа	-11.5922
▁Тавдугаар	-11.5922
▁өнгөрнө	-11.5922
▁аягүй	-11.5923
▁ойртох	-11.5923
▁тохой	-11.5923
▁гуйгаад	-11.5923
▁холбогддог	-11.5923
▁ядуурлы	-11.5924
▁хандаарай	-11.5925
зургаадугаар	-11.5925
▁1945	-11.5925
▁●	-11.5926
▁хөшиг	-11.5926
▁саналтай	-11.5926
Галбадрах	-11.5926
▁Эхнийх	-11.5926
▁өгүүлнэ	-11.5926
▁Салбар	-11.5929
▁блогтоо	-11.5929
▁зохицуул	-11.593
▁зүтгээд	-11.593
▁гацсан	-11.593
▁явааг	-11.5931
▁ядаад	-11.5931
▁МИАТ	-11.5931
▁Есдүгээр	-11.5931
▁Є	-11.5932
▁шоронгийн	-11.5932
▁алхмаар	-11.5934
лет	-11.5934
▁Өөрчлөлт	-11.5935
▁One	-11.5935
▁хэвлэлүүд	-11.5937
▁өвчтөнүүд	-11.5937
▁нүү	-11.5937
▁#1	-11.5938
▁Болохгүй	-11.5938
▁агентлагийн	-11.5939
▁эхнэртэйгээ	-11.5943
▁шугамаар	-11.5943
▁10%	-11.5943
лэлээ	-11.5944
Гү	-11.5944
▁барихгүй	-11.5944
▁40-	-11.5948
НД	-11.5949
ade	-11.5951
▁Төрөөс	-11.5952
▁зүх	-11.5952
▁хоолойн	-11.5952
өгдөж	-11.5953
▁омог	-11.5954
▁гутлаа	-11.5956
▁Хань	-11.5957
▁Төгсгөл	-11.5958
▁шалгуул	-11.596
▁хэлэхээс	-11.5961
ГАА	-11.5961
▁Тэмцээн	-11.5962
ren	-11.5965
tic	-11.5965
▁манд	-11.5965
▁зайнаас	-11.5965
▁танайд	-11.5965
▁эсрэгээр	-11.5966
▁баяраа	-11.5968
▁дайл	-11.5976
дүүлж	-11.5979
▁залх	-11.5979
▁Баталгаа	-11.5981
▁суучих	-11.5982
▁эргэлзээгүй	-11.5984
▁нисч	-11.5984
▁банди	-11.5986
▁бариа	-11.5988
йч	-11.5989
▁цонхны	-11.599
▁хардаггүй	-11.599
▁залгаад	-11.599
рүүлж	-11.5991
гаач	-11.5992
▁Аргагүй	-11.5993
▁бүтэцтэй	-11.5994
вш	-11.5996
хим	-11.5997
▁Амт	-11.5998
▁гэрчилгээг	-11.5998
▁уулзахад	-11.5999
чүүдийн	-11.6
▁no	-11.6
▁Уянга	-11.6001
▁хөдлөлтийн	-11.6002
▁Хулгай	-11.6002
▁холбоосыг	-11.6002
хил	-11.6003
▁үсгээр	-11.6004
жаад	-11.6004
▁Гай	-11.6005
▁хийцийн	-11.6006
▁Кур	-11.6008
▁PC	-11.6009
▁сануулга	-11.601
▁зөвшөөрлийн	-11.6013
▁хэрэгч	-11.6017
▁хөдөл	-11.6021
wa	-11.6021
▁өдрүүдээр	-11.6024
▁шатар	-11.6025
68	-11.6026
▁сүлжээгээр	-11.6028
гөр	-11.603
▁хавч	-11.6033
Дэлгэрэнгүй	-11.6034
▁шийдвэрүүд	-11.6035
Цааш	-11.6036
▁тусыг	-11.6037
▁ТӨР	-11.6038
▁ухаанаа	-11.6038
▁Цас	-11.6042
uck	-11.6042
▁Өнөөдрий	-11.6043
▁нүүлгэн	-11.6045
▁уучил	-11.6046
Өр	-11.6047
▁хойшлуул	-11.6047
▁Ge	-11.6048
▁Ra	-11.605
▁гаргадаггүй	-11.605
▁сантай	-11.605
▁1980-	-11.6054
▁Тийн	-11.6055
▁Фо	-11.6055
▁төлөвлө	-11.6061
гчдийн	-11.6062
▁түгшүүр	-11.6064
ааааа	-11.6065
▁Хат	-11.6066
▁үйлдвэрлэлд	-11.6067
▁хаад	-11.6067
▁капитал	-11.6068
▁хөндлөн	-11.607
DE	-11.6075
56	-11.6076
▁сардаа	-11.6077
▁Apr	-11.6078
▁Fucks	-11.6078
▁Твиттер	-11.6078
▁мягмар	-11.6078
▁редактор	-11.6078
▁эрдэмтдийн	-11.6078
▁Смит	-11.6078
Танд	-11.6078
▁гоёмсог	-11.6079
▁жигтэйхэн	-11.6079
орын	-11.6079
▁Шувуу	-11.6079
▁хөөгөөд	-11.608
▁эзэлсэн	-11.608
▁Швейцарь	-11.608
▁байцгаана	-11.608
охо	-11.6082
▁гаргасны	-11.6082
▁танигдсан	-11.6083
▁халзан	-11.6083
▁хуримтлагдсан	-11.6083
▁ХА	-11.6083
▁ажиглагддаг	-11.6083
▁үзүүллээ	-11.6084
▁тоосго	-11.6085
▁онгод	-11.6086
▁дурсан	-11.6087
▁Фу	-11.6087
▁хүнийх	-11.6087
▁гутаа	-11.6087
▁цугласан	-11.6088
▁Зайсан	-11.6088
▁зогсдог	-11.6091
▁загварлаг	-11.6092
▁шатаж	-11.6093
▁суллах	-11.6094
▁барилдаанд	-11.6095
▁яарч	-11.6095
▁холбон	-11.6096
▁ингэдэг	-11.6096
ear	-11.6097
▁ижий	-11.6097
Хятадын	-11.6098
Оюу	-11.6098
▁төвлөрүүлэх	-11.6098
▁ирснээс	-11.6099
▁угаалга	-11.6099
▁зураглал	-11.6101
▁хүсэв	-11.6102
▁гэлтэй	-11.6104
Бие	-11.6104
▁хувцаслалт	-11.6107
дэхгүй	-11.611
▁араар	-11.6111
▁зурдаг	-11.6112
▁Тол	-11.6112
▁сэрж	-11.6112
▁аавтайгаа	-11.6114
▁Үүгээрээ	-11.6116
/1	-11.612
Ой	-11.612
▁цэнгэ	-11.6121
▁амьдр	-11.6123
▁дээвэр	-11.6124
үс	-11.6125
▁Хэм	-11.6127
▁тивд	-11.6128
▁эцэстээ	-11.6128
▁дарх	-11.6128
▁гарцыг	-11.613
▁Тархи	-11.613
▁эргэлд	-11.6132
гаж	-11.6135
▁БН	-11.6136
▁нэрлэжээ	-11.6136
▁бой	-11.6136
▁аваргад	-11.6138
цо	-11.6141
▁Зуун	-11.6142
өлөг	-11.6143
▁хүсэлтийн	-11.6143
▁байцаах	-11.6143
ХАН	-11.6144
▁тоотой	-11.6145
өдөр	-11.6146
сэж	-11.6146
▁Нор	-11.6148
сэх	-11.6148
▁хангахгүй	-11.6149
▁байдлаараа	-11.6149
▁ордоггүй	-11.6154
▁Du	-11.6158
бас	-11.6159
▁зориулалт	-11.6159
▁хувиас	-11.6161
▁Мөнгөтэй	-11.6161
▁нөөцтэй	-11.6162
▁Танайх	-11.6162
ОВ	-11.6163
нам	-11.6166
▁АВ	-11.6166
[...]
