<unk>	0
<s>	0
</s>	0
▁б	-0
▁х	-1
ий	-2
аа	-3
ай	-4
ээ	-5
▁т	-6
ан	-7
ар	-8
ол	-9
▁н	-10
уу	-11
▁бай	-12
ал	-13
▁г	-14
ийн	-15
үү	-16
эн	-17
аг	-18
эг	-19
▁д	-20
эр	-21
он	-22
үй	-23
▁с	-24
эл	-25
▁а	-26
▁з	-27
▁бол	-28
ил	-29
ын	-30
өө	-31
ах	-32
▁м	-33
ор	-34
ин	-35
эд	-36
эх	-37
гүй	-38
▁нь	-39
гаа	-40
ийг	-41
▁ч	-42
оо	-43
▁хү	-44
уул	-45
ад	-46
сан	-47
▁ш	-48
▁ү	-49
на	-50
▁у	-51
ам	-52
өр	-53
өн	-54
ээр	-55
▁я	-56
▁Т	-57
▁ю	-58
ог	-59
эж	-60
ох	-61
▁Х	-62
▁би	-63
ой	-64
ур	-65
ыг	-66
..	-67
аар	-68
▁байна	-69
өг	-70
эй	-71
сэн	-72
ир	-73
эм	-74
▁Б	-75
тай	-76
▁юм	-77
тэй	-78
жил	-79
▁бү	-80
ууд	-81
их	-82
өл	-83
гийн	-84
▁Э	-85
од	-86
▁ор	-87
ний	-88
▁ц	-89
ас	-90
иг	-91
▁л	-92
▁М	-93
▁байгаа	-94
үүл	-95
нд	-96
даг	-97
өөр	-98
га	-99
▁гэж	-100
нэ	-101
▁хэр	-102
ны	-103
ом	-104
▁А	-105
▁ху	-106
эв	-107
энэ	-108
▁ту	-109
ав	-110
тг	-111
▁ав	-112
лаг	-113
▁ө	-114
даа	-115
▁хар	-116
ээд	-117
аж	-118
▁"	-119
▁гар	-120
▁байх	-121
▁-	-122
үйл	-123
ид	-124
▁нэг	-125
онг	-126
аас	-127
▁мэд	-128
той	-129
▁1	-130
▁ам	-131
ээс	-132
▁Г	-133
▁хэрэг	-134
▁2	-135
▁өөр	-136
▁эр	-137
сон	-138
...	-139
үүд	-140
өх	-141
аад	-142
өв	-143
▁хо	-144
ат	-145
эс	-146
▁бу	-147
▁ол	-148
▁хам	-149
▁хий	-150
▁энэ	-151
▁хэл	-152
▁ажил	-153
▁Н	-154
жээ	-155
ээл	-156
▁байсан	-157
ер	-158
▁ир	-159
алт	-160
▁С	-161
ьд	-162
▁хүн	-163
▁Энэ	-164
лс	-165
▁ал	-166
хан	-167
▁яв	-168
▁У	-169
им	-170
▁сай	-171
▁он	-172
дээ	-173
▁Д	-174
▁уу	-175
лаа	-176
▁ар	-177
дэг	-178
но	-179
ая	-180
▁О	-181
▁в	-182
▁их	-183
▁З	-184
▁хув	-185
▁сан	-186
ов	-187
үүх	-188
▁үз	-189
▁болох	-190
үүн	-191
▁И	-192
анд	-193
онгол	-194
▁хүр	-195
эсэн	-196
▁дар	-197
▁ж	-198
дал	-199
▁бод	-200
дөр	-201
▁к	-202
▁Ө	-203
чл	-204
үүс	-205
ул	-206
ийм	-207
▁эх	-208
▁дээр	-209
▁өг	-210
өнг	-211
▁бар	-212
энд	-213
гээ	-214
гээр	-215
▁үйл	-216
▁тал	-217
аш	-218
▁бүр	-219
▁улс	-220
▁тэр	-221
▁жил	-222
гаар	-223
▁болно	-224
▁гэд	-225
уур	-226
▁ас	-227
гуул	-228
оор	-229
▁үе	-230
мар	-231
аз	-232
хий	-233
▁Ү	-234
▁төр	-235
▁цаг	-236
▁20	-237
▁чад	-238
▁вэ	-239
▁байдаг	-240
лах	-241
чих	-242
▁дээ	-243
▁зүйл	-244
▁бид	-245
лээ	-246
хай	-247
үр	-248
этг	-249
▁ил	-250
лг	-251
▁тог	-252
сөн	-253
цаа	-254
▁юу	-255
▁ан	-256
мн	-257
ож	-258
▁та	-259
▁тан	-260
инь	-261
мүүс	-262
▁гэсэн	-263
лэг	-264
чил	-265
▁зөв	-266
▁сур	-267
▁Би	-268
▁хэм	-269
▁ур	-270
уулах	-271
үүр	-272
▁яр	-273
дл	-274
▁бүх	-275
ут	-276
арын	-277
гал	-278
▁олон	-279
шиг	-280
аан	-281
▁...	-282
▁шүү	-283
▁газ	-284
ёр	-285
▁Монгол	-286
▁хүмүүс	-287
үн	-288
жл	-289
▁ё	-290
▁ямар	-291
чин	-292
агд	-293
▁баг	-294
охи	-295
омж	-296
өөд	-297
▁ёс	-298
▁төл	-299
▁үн	-300
иний	-301
▁биш	-302
▁шин	-303
ос	-304
оод	-305
иж	-306
▁зар	-307
▁тус	-308
▁эм	-309
дв	-310
▁гэр	-311
▁Тэр	-312
ахгүй	-313
лэл	-314
▁амьд	-315
гийг	-316
▁маш	-317
▁Я	-318
ис	-319
▁хол	-320
▁хоёр	-321
лийн	-322
нг	-323
▁хүүх	-324
эгд	-325
от	-326
онд	-327
▁ой	-328
лд	-329
00	-330
▁өмн	-331
▁хүс	-332
▁боломж	-333
өд	-334
лага	-335
▁Е	-336
▁эрх	-337
олд	-338
уй	-339
▁Хар	-340
▁гэдэг	-341
вэл	-342
▁өр	-343
эт	-344
чид	-345
айр	-346
▁асууд	-347
▁байгуул	-348
▁хамгийн	-349
анай	-350
▁өн	-351
▁нар	-352
▁дараа	-353
▁Ш	-354
▁хэрэгтэй	-355
▁болон	-356
▁үр	-357
эц	-358
▁эс	-359
оос	-360
▁(	-361
▁дах	-362
▁сайн	-363
гд	-364
▁болг	-365
эхдээ	-366
хэн	-367
тээ	-368
айл	-369
рал	-370
үүлэх	-371
▁зор	-372
аал	-373
▁3	-374
▁хэд	-375
▁шиг	-376
лэх	-377
▁сон	-378
▁болсон	-379
▁тухай	-380
▁ний	-381
▁тав	-382
ик	-383
иш	-384
▁холб	-385
▁нэр	-386
▁Ц	-387
▁од	-388
▁хийх	-389
▁ашиг	-390
дог	-391
▁бус	-392
▁даа	-393
▁анх	-394
▁Тэг	-395
двэр	-396
▁ёстой	-397
▁сэтг	-398
бар	-399
вал	-400
▁болов	-401
▁Ч	-402
▁удаа	-403
чд	-404
лог	-405
гэл	-406
иу	-407
▁тэд	-408
▁Ж	-409
▁өмнө	-410
▁хур	-411
уулж	-412
ен	-413
▁ший	-414
▁талаар	-415
гацаа	-416
▁байж	-417
чир	-418
лөг	-419
▁201	-420
▁чинь	-421
▁дэл	-422
▁нам	-423
▁Та	-424
▁ду	-425
ээн	-426
▁үү	-427
▁хор	-428
▁хугацаа	-429
гэж	-430
доо	-431
лаж	-432
амж	-433
өнгө	-434
▁авах	-435
▁о	-436
▁үед	-437
▁р	-438
▁болж	-439
▁дуу	-440
▁зур	-441
▁Бид	-442
▁дур	-443
эгтэй	-444
▁К	-445
▁мэдээл	-446
▁зас	-447
үүнийг	-448
аяр	-449
эхээр	-450
эз	-451
ит	-452
▁хуул	-453
вар	-454
▁ун	-455
▁нас	-456
▁и	-457
▁су	-458
олц	-459
анг	-460
▁тү	-461
▁өдөр	-462
▁одоо	-463
ус	-464
▁газар	-465
үүний	-466
▁Харин	-467
▁бие	-468
▁том	-469
▁илүү	-470
▁байр	-471
▁сонг	-472
▁хэмжээ	-473
ана	-474
▁хамт	-475
▁хя	-476
ийнх	-477
▁бич	-478
▁шаар	-479
▁бөг	-480
ээж	-481
▁зал	-482
өс	-483
▁оны	-484
▁п	-485
лоо	-486
гэд	-487
илц	-488
▁.	-489
▁эд	-490
анц	-491
эхгүй	-492
▁бас	-493
▁нөх	-494
▁тод	-495
▁үг	-496
айг	-497
эмж	-498
▁хийж	-499
сн	-500
▁буй	-501
лал	-502
▁аж	-503
▁гээд	-504
▁тэм	-505
▁ин	-506
элт	-507
▁Хэр	-508
▁шаард	-509
▁жилийн	-510
▁хэн	-511
▁хувьд	-512
▁ийм	-513
▁ер	-514
▁хөг	-515
тын	-516
▁сарын	-517
иул	-518
өнхий	-519
ес	-520
▁гэх	-521
▁Ер	-522
др	-523
▁тогт	-524
▁бөгөөд	-525
ьж	-526
аны	-527
▁5	-528
▁авч	-529
▁шинэ	-530
▁ком	-531
өөс	-532
▁4	-533
гэн	-534
огд	-535
▁ойлг	-536
▁ай	-537
▁бэл	-538
өм	-539
хал	-540
▁Гэхдээ	-541
ив	-542
▁сал	-543
▁Тийм	-544
▁нийт	-545
▁зохи	-546
өлөө	-547
оон	-548
▁зах	-549
асан	-550
хийн	-551
▁онд	-552
▁хүнд	-553
▁хон	-554
даж	-555
лын	-556
хөн	-557
▁нэгэн	-558
▁минь	-559
▁биз	-560
адаг	-561
айн	-562
▁байхгүй	-563
▁бил	-564
ун	-565
▁хүлээ	-566
▁сэтгэл	-567
▁өв	-568
▁алб	-569
тэл	-570
аагүй	-571
▁төс	-572
▁суу	-573
▁хаа	-574
пан	-575
▁бий	-576
▁дот	-577
рын	-578
▁тоо	-579
лагаа	-580
▁сар	-581
▁амьдрал	-582
нийг	-583
ич	-584
орх	-585
▁дав	-586
нууд	-587
тад	-588
▁хүний	-589
▁най	-590
▁гад	-591
үгээр	-592
чийн	-593
шин	-594
▁Тэд	-595
гаж	-596
▁зам	-597
агаад	-598
▁хэв	-599
▁ажл	-600
тгэл	-601
ван	-602
лыг	-603
▁асуудал	-604
▁хайр	-605
▁аа	-606
сд	-607
▁гиш	-608
▁миний	-609
▁санал	-610
▁шал	-611
уулсан	-612
▁сайхан	-613
▁улсын	-614
▁бэ	-615
гах	-616
хаа	-617
▁хувь	-618
▁хэс	-619
арт	-620
▁хүүхд	-621
▁хой	-622
тр	-623
▁нэм	-624
▁өнг	-625
үүлж	-626
охир	-627
▁тохи	-628
өөдөр	-629
▁Одоо	-630
▁манай	-631
орхой	-632
▁Улс	-633
▁над	-634
▁ажиллагаа	-635
хүү	-636
▁АН	-637
▁хал	-638
▁арга	-639
▁худал	-640
▁байдл	-641
▁тат	-642
▁билээ	-643
▁уул	-644
▁хоног	-645
▁Ор	-646
▁боломжтой	-647
▁баяр	-648
▁даг	-649
чүүд	-650
▁төлөө	-651
алтын	-652
▁мөн	-653
▁байлаа	-654
▁Эр	-655
▁ул	-656
▁19	-657
дсан	-658
▁Ар	-659
▁нут	-660
оол	-661
▁компан	-662
өж	-663
▁тодорхой	-664
▁тур	-665
▁Мөн	-666
▁эхэл	-667
гаан	-668
▁оролц	-669
▁тогл	-670
ист	-671
оё	-672
иа	-673
▁Өөр	-674
жилт	-675
▁эн	-676
▁ханд	-677
▁тэг	-678
▁10	-679
▁ут	-680
▁тулд	-681
▁иргэд	-682
▁бат	-683
чууд	-684
▁бүтээ	-685
өлт	-686
▁бүт	-687
▁санаа	-688
▁гэдгийг	-689
▁Л	-690
дах	-691
уун	-692
▁байдал	-693
чр	-694
▁П	-695
ирх	-696
▁өнгөр	-697
▁хоол	-698
▁орон	-699
▁хүртэл	-700
▁хэдэн	-701
йм	-702
илг	-703
▁хэрхэн	-704
лан	-705
▁төг	-706
уг	-707
▁эсвэл	-708
▁Ам	-709
▁өөрчл	-710
▁ид	-711
▁аг	-712
▁уд	-713
▁тийм	-714
▁ба	-715
▁заа	-716
дан	-717
▁гэв	-718
▁гур	-719
▁таны	-720
▁ах	-721
▁маан	-722
in	-723
тан	-724
▁чу	-725
урхан	-726
▁хө	-727
▁учр	-728
▁ажилл	-729
▁маань	-730
вр	-731
▁хүч	-732
▁залуу	-733
▁дол	-734
▁үнд	-735
▁хөр	-736
▁ээ	-737
чилгээ	-738
▁ганц	-739
▁турш	-740
▁дахь	-741
on	-742
▁дахин	-743
агч	-744
ек	-745
▁үйлдвэр	-746
▁холбоо	-747
▁эмэгтэй	-748
араа	-749
▁хич	-750
▁болохгүй	-751
лийг	-752
▁Ерөнхий	-753
▁дэмж	-754
арч	-755
▁Бү	-756
өлд	-757
er	-758
нх	-759
▁ял	-760
олтой	-761
▁ард	-762
▁ирсэн	-763
иал	-764
гэр	-765
▁анхаар	-766
▁өдр	-767
ем	-768
▁мөр	-769
▁тохиолд	-770
!!	-771
▁6	-772
олт	-773
агт	-774
хн	-775
▁зэр	-776
▁өөрийн	-777
▁гарч	-778
▁сургуул	-779
өдөл	-780
агад	-781
ээрээ	-782
▁Миний	-783
▁S	-784
лон	-785
▁үргэл	-786
ак	-787
ср	-788
гөө	-789
▁хамгаа	-790
гой	-791
▁чан	-792
▁чухал	-793
▁7	-794
▁ох	-795
▁чи	-796
уд	-797
▁чадахгүй	-798
хи	-799
▁үнэ	-800
лагатай	-801
▁хэмээн	-802
▁Хү	-803
▁Инг	-804
▁Үүн	-805
ээгүй	-806
▁шил	-807
▁бүгд	-808
▁дунд	-809
▁үнэн	-810
эзээ	-811
▁хойш	-812
▁ая	-813
▁шийдвэр	-814
бөр	-815
аат	-816
▁бүс	-817
эхэд	-818
▁сонс	-819
элц	-820
▁гай	-821
▁гол	-822
▁хүүхэд	-823
▁түр	-824
▁тэн	-825
▁Ийм	-826
▁Манай	-827
▁амь	-828
тал	-829
▁Тиймээс	-830
▁ад	-831
▁өгөх	-832
▁хийсэн	-833
▁хот	-834
▁өндөр	-835
мын	-836
▁муу	-837
▁учир	-838
АН	-839
▁сонирх	-840
ИХ	-841
▁/	-842
▁авсан	-843
▁руу	-844
▁сая	-845
▁машин	-846
▁хариу	-847
▁үүс	-848
▁бага	-849
▁аль	-850
алтай	-851
▁ном	-852
▁Зас	-853
иад	-854
агүй	-855
ийгөө	-856
▁зээл	-857
аарай	-858
▁ф	-859
▁эз	-860
▁түүний	-861
▁Нэг	-862
из	-863
эхүү	-864
▁чам	-865
▁хэсэг	-866
▁8	-867
осон	-868
▁зарим	-869
гаад	-870
▁мэт	-871
ааш	-872
ино	-873
20	-874
аараа	-875
▁төрийн	-876
▁байв	-877
▁дүр	-878
чим	-879
дын	-880
▁бусад	-881
лж	-882
▁уулз	-883
▁мэдээлэл	-884
огт	-885
▁M	-886
▁албан	-887
уудыг	-888
▁гэнэ	-889
гасан	-890
▁Бурхан	-891
▁ажиллаж	-892
үүлсэн	-893
▁төлөв	-894
▁өөрөө	-895
▁хан	-896
▁хөгж	-897
▁бодож	-898
▁УИХ	-899
▁зөвхөн	-900
▁Хэрэв	-901
▁Өн	-902
an	-903
▁хэзээ	-904
▁хууль	-905
▁бур	-906
тер	-907
ье	-908
▁ус	-909
▁учраас	-910
▁эхл	-911
хон	-912
▁мөнгө	-913
▁те	-914
дөг	-915
эгч	-916
▁сүүл	-917
▁унш	-918
▁дүн	-919
▁Хя	-920
▁хугацаанд	-921
▁оч	-922
▁дуус	-923
▁надад	-924
уудын	-925
▁төв	-926
▁200	-927
▁яаж	-928
▁түүх	-929
▁тар	-930
▁ханг	-931
▁сэр	-932
эвч	-933
▁гүй	-934
▁зориул	-935
▁АНУ	-936
наас	-937
▁онц	-938
▁шийд	-939
▁A	-940
▁тэмц	-941
нээс	-942
▁Дэл	-943
▁айм	-944
▁монгол	-945
алд	-946
▁болохоор	-947
этэл	-948
▁тайл	-949
▁Ал	-950
▁В	-951
юу	-952
▁дэв	-953
▁эл	-954
▁орж	-955
▁тохир	-956
тл	-957
▁эц	-958
угаар	-959
▁Монголын	-960
▁чиг	-961
▁зог	-962
▁хөдөл	-963
▁яах	-964
ахад	-965
▁үүр	-966
▁яагаад	-967
▁анг	-968
охгүй	-969
▁зөвш	-970
ац	-971
ооны	-972
гаас	-973
▁харагд	-974
▁яг	-975
▁үүнийг	-976
▁байхад	-977
▁ух	-978
▁удир	-979
▁ажлын	-980
оп	-981
▁хийг	-982
▁намайг	-983
▁зүй	-984
▁Ф	-985
▁шалт	-986
дөө	-987
лөгч	-988
мийн	-989
▁охин	-990
▁мэр	-991
▁хэлб	-992
▁хэлж	-993
▁нөлөө	-994
үг	-995
▁зогс	-996
▁явж	-997
▁олг	-998
▁оруул	-999
▁энд	-1000
лэж	-1001
гоор	-1002
▁C	-1003
▁өрг	-1004
▁түүнийг	-1005
оц	-1006
▁ажиллах	-1007
▁магад	-1008
рах	-1009
▁тул	-1010
эвэр	-1011
▁адил	-1012
юул	-1013
▁нөхц	-1014
▁зөвшөөр	-1015
▁9	-1016
эдэг	-1017
▁Эд	-1018
▁өөрсд	-1019
▁үгүй	-1020
▁дарга	-1021
▁хэрэгж	-1022
"-	-1023
▁P	-1024
▁өм	-1025
ar	-1026
▁шалг	-1027
▁газрын	-1028
▁зураг	-1029
нес	-1030
▁Хам	-1031
лөө	-1032
лаан	-1033
▁өс	-1034
▁Хятад	-1035
▁зэрэг	-1036
▁Гэтэл	-1037
▁барим	-1038
эрхий	-1039
▁уур	-1040
▁амжилт	-1041
▁бидний	-1042
оронд	-1043
даггүй	-1044
▁Засгийн	-1045
▁үндэс	-1046
▁ээж	-1047
▁олж	-1048
▁найз	-1049
▁итг	-1050
▁хая	-1051
▁мэдэх	-1052
ьсан	-1053
одог	-1054
үүнд	-1055
▁Р	-1056
ув	-1057
▁холбогд	-1058
▁сайд	-1059
▁холбоотой	-1060
▁сонгуул	-1061
▁боловср	-1062
▁хэлэлц	-1063
ет	-1064
элд	-1065
or	-1066
▁мөнг	-1067
▁Ир	-1068
олгой	-1069
▁мэнд	-1070
▁байгааг	-1071
▁үйлчилгээ	-1072
▁өнөөдөр	-1073
▁пр	-1074
үүдийн	-1075
▁суур	-1076
▁тэмдэг	-1077
үд	-1078
маар	-1079
▁ирэх	-1080
▁Тэгээд	-1081
илт	-1082
▁хөл	-1083
▁байгууллаг	-1084
▁_	-1085
▁явах	-1086
оно	-1087
▁дотор	-1088
▁зорилг	-1089
▁газр	-1090
▁үнэхээр	-1091
ган	-1092
▁уг	-1093
жиг	-1094
ей	-1095
▁судал	-1096
▁дуртай	-1097
▁буруу	-1098
▁ирээд	-1099
чдын	-1100
▁Мэд	-1101
▁бүрэн	-1102
гай	-1103
▁аюул	-1104
▁танилц	-1105
сний	-1106
▁гишүүн	-1107
дсэн	-1108
▁харь	-1109
▁дэлхийн	-1110
гдэх	-1111
аалт	-1112
▁таа	-1113
▁асуу	-1114
▁хүү	-1115
▁хэлсэн	-1116
▁заг	-1117
▁нийг	-1118
анк	-1119
▁гурван	-1120
▁эдийн	-1121
▁харж	-1122
▁Таны	-1123
үүдийг	-1124
▁өгсөн	-1125
▁үлд	-1126
▁хууд	-1127
яа	-1128
▁болдог	-1129
▁түм	-1130
▁болоод	-1131
▁байвал	-1132
төн	-1133
сийн	-1134
▁зөвл	-1135
ок	-1136
▁зов	-1137
аргал	-1138
▁шат	-1139
ээсээ	-1140
▁санагд	-1141
▁хүрг	-1142
▁мин	-1143
▁хүлээн	-1144
▁танд	-1145
▁Улсын	-1146
эгт	-1147
ел	-1148
таа	-1149
▁дугаар	-1150
▁гарсан	-1151
▁T	-1152
өрийн	-1153
▁буюу	-1154
ээнд	-1155
▁Хүүх	-1156
▁өөрийгөө	-1157
дугаар	-1158
▁салбар	-1159
en	-1160
алын	-1161
▁N	-1162
лөгөө	-1163
лэлийн	-1164
▁шаардлагатай	-1165
▁үл	-1166
▁мэдэгд	-1167
арга	-1168
ерик	-1169
▁хад	-1170
▁I	-1171
▁нэмэгд	-1172
хам	-1173
оны	-1174
▁мя	-1175
аатар	-1176
▁асуул	-1177
▁асуудлыг	-1178
рам	-1179
члэн	-1180
аасаа	-1181
▁үеийн	-1182
пор	-1183
▁гүйц	-1184
▁Хүн	-1185
▁зохион	-1186
▁алд	-1187
▁мэргэж	-1188
нө	-1189
тэн	-1190
▁гэм	-1191
▁Дараа	-1192
шил	-1193
▁Гэвч	-1194
▁гаруй	-1195
▁төрлийн	-1196
▁байн	-1197
▁засгийн	-1198
артай	-1199
ины	-1200
▁харин	-1201
▁бодлог	-1202
▁B	-1203
▁тооц	-1204
▁Шин	-1205
инд	-1206
▁зөр	-1207
гоо	-1208
дэнэ	-1209
гээд	-1210
саар	-1211
вээ	-1212
өгөө	-1213
ээрэй	-1214
▁долоо	-1215
үүдэд	-1216
▁ашигл	-1217
Би	-1218
хайн	-1219
▁хав	-1220
▁хөт	-1221
▁зүйлийг	-1222
▁хай	-1223
▁Түүний	-1224
▁хооронд	-1225
▁Ямар	-1226
ийнхөө	-1227
▁ойр	-1228
▁гарах	-1229
ум	-1230
▁улсад	-1231
▁бүсгүй	-1232
арим	-1233
рийн	-1234
▁чөлөө	-1235
▁100	-1236
st	-1237
ойр	-1238
▁дор	-1239
▁ярилц	-1240
▁бүтээл	-1241
▁шууд	-1242
▁зүгээр	-1243
ли	-1244
▁бизнес	-1245
▁ингэж	-1246
▁минут	-1247
▁мэдэхгүй	-1248
▁боллоо	-1249
ст	-1250
▁ач	-1251
▁нуу	-1252
▁үх	-1253
▁Өмн	-1254
▁боловч	-1255
▁эрүүл	-1256
▁настай	-1257
▁Гэр	-1258
ент	-1259
лэн	-1260
▁тогтоо	-1261
▁байгаад	-1262
▁бүтээгдэх	-1263
▁Үү	-1264
▁Эн	-1265
▁гэвэл	-1266
▁Орос	-1267
агс	-1268
le	-1269
▁болгох	-1270
▁байдлаар	-1271
бээр	-1272
▁төгс	-1273
элтэй	-1274
▁нүүр	-1275
▁авт	-1276
▁хэц	-1277
."	-1278
▁арг	-1279
▁хөрөнгө	-1280
өөн	-1281
▁бүхэн	-1282
рэг	-1283
сгал	-1284
▁Чи	-1285
▁батал	-1286
▁мар	-1287
▁баримт	-1288
уулдаг	-1289
▁явдал	-1290
▁гаргах	-1291
▁аав	-1292
▁илэрхий	-1293
▁Их	-1294
▁ерөнхий	-1295
▁мэдээ	-1296
хээ	-1297
▁Өнөөдөр	-1298
лох	-1299
▁0	-1300
▁болжээ	-1301
▁Үүнийг	-1302
бал	-1303
▁Олон	-1304
▁сол	-1305
▁хат	-1306
үүнээс	-1307
▁тай	-1308
▁наад	-1309
▁авна	-1310
▁ярьж	-1311
▁12	-1312
өгд	-1313
▁амар	-1314
оогүй	-1315
▁11	-1316
▁дүүр	-1317
▁үзүүл	-1318
▁чадвар	-1319
агн	-1320
▁доо	-1321
??	-1322
▁тас	-1323
▁оронд	-1324
▁болгон	-1325
▁иргэн	-1326
▁дагуу	-1327
инг	-1328
▁хэт	-1329
▁дөр	-1330
▁өгч	-1331
▁орох	-1332
▁хүнийг	-1333
▁15	-1334
▁H	-1335
▁гаргаж	-1336
амс	-1337
▁Үн	-1338
юут	-1339
▁сард	-1340
оёр	-1341
▁мэдр	-1342
▁хэцүү	-1343
▁Цаг	-1344
▁хичээл	-1345
▁шалтгаан	-1346
▁гэхэд	-1347
▁хүчин	-1348
төө	-1349
өлбөр	-1350
▁ирж	-1351
▁G	-1352
▁там	-1353
▁цэвэр	-1354
▁итгэл	-1355
▁өнгөрсөн	-1356
йл	-1357
эхийг	-1358
▁анхны	-1359
▁нөхцөл	-1360
▁хариуц	-1361
илцаа	-1362
▁өөрчлөлт	-1363
▁Зөв	-1364
▁хийдэг	-1365
▁Тэгвэл	-1366
▁дэлхий	-1367
▁хян	-1368
уулан	-1369
▁Ю	-1370
▁хариул	-1371
at	-1372
арсан	-1373
▁техн	-1374
▁чадах	-1375
▁Зарим	-1376
олог	-1377
▁бүл	-1378
ъя	-1379
▁D	-1380
истем	-1381
гий	-1382
▁компани	-1383
▁Уг	-1384
al	-1385
▁буур	-1386
гч	-1387
вроп	-1388
▁Ав	-1389
▁дээд	-1390
▁өрөө	-1391
ран	-1392
▁Нам	-1393
орж	-1394
▁тайлбар	-1395
▁дамж	-1396
рөг	-1397
▁таар	-1398
▁эв	-1399
▁F	-1400
шгүй	-1401
▁боддог	-1402
▁тоглоо	-1403
▁тухайн	-1404
длаа	-1405
▁байжээ	-1406
▁бая	-1407
▁улам	-1408
баатар	-1409
чиг	-1410
▁Хамгийн	-1411
▁хадгал	-1412
нз	-1413
▁му	-1414
ээх	-1415
▁жин	-1416
▁тэдний	-1417
▁хэрэггүй	-1418
▁хүлээж	-1419
▁алга	-1420
▁хэрэглэг	-1421
▁цааш	-1422
-1	-1423
ижиг	-1424
▁ярих	-1425
▁Бүх	-1426
▁эсрэг	-1427
сны	-1428
▁засаг	-1429
сү	-1430
oo	-1431
▁судалгаа	-1432
▁э	-1433
▁мэддэг	-1434
▁ашиглах	-1435
▁хуулийн	-1436
алттай	-1437
чдийн	-1438
▁сү	-1439
▁үзэж	-1440
ийнхээ	-1441
▁цах	-1442
гын	-1443
▁багш	-1444
▁Эх	-1445
▁хүмүүсийн	-1446
▁Америк	-1447
ласан	-1448
нэл	-1449
▁Эдгээр	-1450
▁гадаад	-1451
▁харилцаа	-1452
▁МАН	-1453
даад	-1454
ишээ	-1455
гүүр	-1456
▁жагс	-1457
▁дан	-1458
▁ярь	-1459
re	-1460
үүлэг	-1461
агдсан	-1462
▁Ту	-1463
▁гүйцэтг	-1464
▁дараах	-1465
▁нутгийн	-1466
▁байгаагүй	-1467
▁ст	-1468
вэр	-1469
▁хамаар	-1470
▁тохиолдолд	-1471
▁систем	-1472
▁магадгүй	-1473
▁аз	-1474
▁толгой	-1475
▁сург	-1476
▁шүүх	-1477
▁туш	-1478
▁бүрийн	-1479
▁бутл	-1480
▁огт	-1481
олоо	-1482
дийн	-1483
▁Эм	-1484
▁бүү	-1485
▁Тэрээр	-1486
иар	-1487
▁захир	-1488
▁хэлэх	-1489
▁бутлуур	-1490
өмж	-1491
▁цагийн	-1492
▁өдрийн	-1493
жин	-1494
▁30	-1495
▁айл	-1496
маа	-1497
арх	-1498
▁гаргасан	-1499
▁[	-1500
▁сүүлийн	-1501
▁санхүү	-1502
▁орчин	-1503
об	-1504
Эр	-1505
▁зүйлс	-1506
▁цэр	-1507
лэдэг	-1508
▁Хэрвээ	-1509
▁хэрэгс	-1510
энх	-1511
▁зав	-1512
▁бараг	-1513
▁Сан	-1514
▁болчих	-1515
▁эдгээр	-1516
▁Үнд	-1517
▁дээрх	-1518
▁нэв	-1519
▁үс	-1520
төнц	-1521
лэсэн	-1522
▁хүүхдүүд	-1523
▁үнэл	-1524
▁барил	-1525
▁хамгаалах	-1526
▁Ний	-1527
нээ	-1528
▁үзэх	-1529
▁төгрөг	-1530
ууны	-1531
▁хаан	-1532
▁хоногийн	-1533
▁харах	-1534
уулна	-1535
▁орсон	-1536
▁Дэлхийн	-1537
уулга	-1538
өхөөр	-1539
элээ	-1540
▁цагт	-1541
▁Европ	-1542
▁гэрээ	-1543
▁чанар	-1544
▁хөтөлбөр	-1545
▁нэгд	-1546
ac	-1547
▁бор	-1548
▁урьд	-1549
▁18	-1550
ou	-1551
уудад	-1552
▁заавал	-1553
▁Яагаад	-1554
иуд	-1555
▁гоё	-1556
▁боломжгүй	-1557
000	-1558
▁тань	-1559
▁харьц	-1560
чээ	-1561
▁бос	-1562
▁цэц	-1563
▁бүхий	-1564
алз	-1565
▁тун	-1566
▁төрөл	-1567
▁нарын	-1568
▁гадна	-1569
▁хэмжээний	-1570
өмб	-1571
▁Монголд	-1572
▁тойр	-1573
▁Учир	-1574
it	-1575
лагдсан	-1576
▁ухаан	-1577
тгий	-1578
алдаа	-1579
▁дээрээ	-1580
▁мянг	-1581
vv	-1582
олцоо	-1583
▁кино	-1584
▁Бай	-1585
▁чадна	-1586
▁худалдаа	-1587
▁W	-1588
▁Яп	-1589
▁Тус	-1590
тийн	-1591
чилж	-1592
▁гарг	-1593
▁алдаа	-1594
▁төлбөр	-1595
▁Энэхүү	-1596
▁намын	-1597
▁эмнэл	-1598
мд	-1599
▁түв	-1600
▁энэхүү	-1601
▁рүү	-1602
аахан	-1603
▁мэдэж	-1604
▁R	-1605
ман	-1606
▁E	-1607
чилсан	-1608
....	-1609
▁явсан	-1610
▁орны	-1611
▁хийн	-1612
▁L	-1613
▁хуудас	-1614
▁дууд	-1615
чихсан	-1616
▁аваад	-1617
▁нөхөр	-1618
лалаа	-1619
▁эхний	-1620
▁эхэлсэн	-1621
онгос	-1622
▁болохыг	-1623
тэйгээ	-1624
▁Хэн	-1625
▁банк	-1626
▁бэлэн	-1627
өнө	-1628
олын	-1629
▁зан	-1630
▁жаргал	-1631
▁ертөнц	-1632
▁насны	-1633
▁мал	-1634
▁хаана	-1635
▁байхдаа	-1636
▁Шинэ	-1637
▁бидэнд	-1638
▁Тэгэхээр	-1639
гуй	-1640
▁буц	-1641
▁Хоёр	-1642
▁тэрг	-1643
мэл	-1644
▁сэд	-1645
▁утас	-1646
▁хэлбэр	-1647
▁бичиг	-1648
▁шаардлаг	-1649
▁хурдан	-1650
▁онг	-1651
▁хүссэн	-1652
вор	-1653
баяр	-1654
▁Ерөнхийлөгч	-1655
ic	-1656
▁нүд	-1657
халтай	-1658
▁найр	-1659
▁удирд	-1660
▁дут	-1661
▁бүртг	-1662
▁цуг	-1663
▁орнууд	-1664
▁үргэлж	-1665
▁янз	-1666
▁оноос	-1667
алц	-1668
өрсөн	-1669
▁гэхдээ	-1670
▁мянган	-1671
▁тээ	-1672
▁сайт	-1673
ахыг	-1674
өөл	-1675
хийг	-1676
▁хүмүүст	-1677
om	-1678
▁асуудл	-1679
▁дай	-1680
▁Ингээд	-1681
▁хувийн	-1682
▁зү	-1683
бай	-1684
▁Бар	-1685
▁тулг	-1686
үүлэн	-1687
▁хувц	-1688
▁Бус	-1689
▁жижиг	-1690
Бат	-1691
сай	-1692
▁амьдарч	-1693
▁кин	-1694
ныг	-1695
гүйгээр	-1696
▁Үүний	-1697
▁март	-1698
▁үеэр	-1699
▁явц	-1700
▁ажлыг	-1701
▁хориг	-1702
ограм	-1703
▁ажилд	-1704
мж	-1705
лээд	-1706
▁болгож	-1707
▁хаг	-1708
ио	-1709
▁нис	-1710
өөц	-1711
▁угаа	-1712
▁орлог	-1713
▁Сол	-1714
▁бууд	-1715
үүлнэ	-1716
▁дүг	-1717
▁хөөр	-1718
лагын	-1719
алин	-1720
▁амьдралын	-1721
огц	-1722
▁нууц	-1723
▁шилж	-1724
хэг	-1725
руулах	-1726
▁аюулгүй	-1727
▁тоглолт	-1728
▁Хэд	-1729
▁Төрийн	-1730
▁бичсэн	-1731
▁хайртай	-1732
▁орч	-1733
сныг	-1734
▁Ур	-1735
▁хөдөлгөө	-1736
▁шинж	-1737
▁•	-1738
▁олох	-1739
▁үйлд	-1740
▁өмнөх	-1741
▁амьдар	-1742
нэр	-1743
▁Баг	-1744
▁бэр	-1745
саа	-1746
▁сонгол	-1747
аб	-1748
▁Тэрбээр	-1749
▁хотын	-1750
члэг	-1751
▁хүсч	-1752
▁14	-1753
Энх	-1754
▁зай	-1755
ээлт	-1756
▁зорилго	-1757
▁сайж	-1758
▁ихэнх	-1759
▁асуулт	-1760
▁хөн	-1761
▁унт	-1762
▁Бр	-1763
дол	-1764
▁Энд	-1765
үрх	-1766
▁түүнд	-1767
▁тоглоом	-1768
▁байдлыг	-1769
▁тов	-1770
▁хэлбэл	-1771
вөн	-1772
▁Ард	-1773
▁Мэдээж	-1774
▁Яг	-1775
▁ирээдүй	-1776
хгүй	-1777
▁байхыг	-1778
▁шаардлага	-1779
▁Бас	-1780
ью	-1781
өмбөг	-1782
▁ахуй	-1783
▁ажлаа	-1784
▁Над	-1785
es	-1786
эндээ	-1787
омжтой	-1788
▁тусл	-1789
▁мэдээллийг	-1790
▁Бидний	-1791
▁тэгээд	-1792
▁нэвтр	-1793
▁загвар	-1794
▁цар	-1795
▁зохиц	-1796
▁аймгийн	-1797
▁оруулах	-1798
▁агаар	-1799
▁үргэлжл	-1800
▁хэмжээнд	-1801
▁Нүүр	-1802
хар	-1803
▁урт	-1804
▁зориулсан	-1805
уулалт	-1806
Та	-1807
ших	-1808
▁соё	-1809
▁гэлээ	-1810
▁төрсөн	-1811
▁ажилладаг	-1812
▁нөгөө	-1813
▁бололтой	-1814
хэнэ	-1815
▁чиглэл	-1816
▁барих	-1817
ааны	-1818
згаар	-1819
▁бодох	-1820
лайн	-1821
уулаад	-1822
өхөөрөмж	-1823
▁өөртөө	-1824
▁өглөө	-1825
▁эмэгтэйчүүд	-1826
▁сонголт	-1827
▁Анг	-1828
▁эхнэр	-1829
mn	-1830
▁Сур	-1831
▁чамайг	-1832
▁хүүхдийн	-1833
▁ме	-1834
▁удаан	-1835
▁гурав	-1836
екс	-1837
▁Гад	-1838
▁За	-1839
үжиг	-1840
▁тэнд	-1841
▁Улаан	-1842
лалт	-1843
агдаж	-1844
гааны	-1845
ев	-1846
ян	-1847
дэггүй	-1848
▁арай	-1849
▁цагдаа	-1850
▁бүрд	-1851
гээс	-1852
▁явдаг	-1853
▁нийтийн	-1854
лагд	-1855
▁дээш	-1856
▁орчим	-1857
сээр	-1858
лар	-1859
нээр	-1860
▁мэднэ	-1861
▁гишүүд	-1862
▁Бол	-1863
▁үйлчл	-1864
▁төхөөрөмж	-1865
▁Өнг	-1866
▁эзэм	-1867
амд	-1868
▁битгий	-1869
санд	-1870
▁үндсэн	-1871
▁орд	-1872
▁гэдгээ	-1873
▁дал	-1874
▁төлөвл	-1875
▁хязгаар	-1876
жлийн	-1877
▁үзсэн	-1878
▁бүлийн	-1879
▁зарц	-1880
Энэ	-1881
уяа	-1882
▁буу	-1883
▁таныг	-1884
уучин	-1885
▁өөрийнхөө	-1886
▁бүтээгдэхүүн	-1887
хны	-1888
▁Бурханы	-1889
сг	-1890
ант	-1891
варын	-1892
▁мат	-1893
▁түмэн	-1894
▁Сүүл	-1895
▁орой	-1896
ашин	-1897
▁оюут	-1898
▁дүгн	-1899
▁жур	-1900
▁програм	-1901
▁технолог	-1902
▁199	-1903
▁түвшин	-1904
▁шилдэг	-1905
▁төлөвлөгөө	-1906
▁хийнэ	-1907
порт	-1908
▁гуй	-1909
▁өнөө	-1910
▁гэдэгт	-1911
▁Солонгос	-1912
гааш	-1913
▁уран	-1914
▁барьж	-1915
▁хэрэглэх	-1916
▁суурь	-1917
▁бөх	-1918
▁дэх	-1919
▁эргэл	-1920
▁t	-1921
▁сав	-1922
өөсөө	-1923
цээ	-1924
аах	-1925
▁хэдий	-1926
▁хувцас	-1927
икийн	-1928
▁гайх	-1929
▁эрт	-1930
лаад	-1931
▁тон	-1932
▁бодит	-1933
▁удаагийн	-1934
есс	-1935
▁хил	-1936
▁байгал	-1937
▁хөгжил	-1938
▁нэл	-1939
лагч	-1940
▁Бат	-1941
▁байл	-1942
ударга	-1943
▁Үүнээс	-1944
▁амр	-1945
▁эцэг	-1946
▁мод	-1947
am	-1948
▁очиж	-1949
▁нутаг	-1950
▁эхлэх	-1951
▁хоногт	-1952
▁Аз	-1953
энтэй	-1954
▁сууж	-1955
▁ня	-1956
▁тут	-1957
гаараа	-1958
▁нийгэм	-1959
▁чиний	-1960
▁хүрт	-1961
лжээ	-1962
▁өгнө	-1963
▁амьдрах	-1964
энгүй	-1965
этгэл	-1966
▁ээл	-1967
▁багт	-1968
ип	-1969
▁,	-1970
▁v	-1971
▁БН	-1972
эгүй	-1973
▁гэмт	-1974
▁p	-1975
кс	-1976
▁гом	-1977
агдах	-1978
▁хуур	-1979
▁авдаг	-1980
▁халдв	-1981
▁J	-1982
охой	-1983
▁байгууллага	-1984
▁тос	-1985
▁суралц	-1986
▁ашиглаж	-1987
▁хийгээд	-1988
врийн	-1989
▁ялгаа	-1990
сөлд	-1991
▁бариг	-1992
▁бодлого	-1993
▁13	-1994
▁туслах	-1995
олб	-1996
▁зүйн	-1997
мээр	-1998
▁өвч	-1999
▁ухаа	-2000
▁16	-2001
үнд	-2002
▁улир	-2003
тайгаа	-2004
▁хэрэглээ	-2005
ХА	-2006
эгдсэн	-2007
▁гэртээ	-2008
▁17	-2009
▁байдаггүй	-2010
201	-2011
▁эмч	-2012
▁сонирхолтой	-2013
▁·	-2014
▁хамр	-2015
▁бичлэг	-2016
▁яд	-2017
▁ижил	-2018
▁бүлэг	-2019
лөгчийн	-2020
ра	-2021
▁арил	-2022
гүү	-2023
иде	-2024
ноо	-2025
▁50	-2026
▁байнга	-2027
▁минутын	-2028
▁өөрчлөгд	-2029
▁шир	-2030
▁сургууль	-2031
ья	-2032
▁шү	-2033
▁жилд	-2034
▁сэтгүүл	-2035
▁худалдаж	-2036
ХУ	-2037
ro	-2038
элж	-2039
лэгч	-2040
**	-2041
длыг	-2042
нүүд	-2043
▁цалин	-2044
▁үүрэг	-2045
ед	-2046
барын	-2047
▁тусламж	-2048
▁баталгаа	-2049
эст	-2050
иваа	-2051
андаа	-2052
▁аргагүй	-2053
▁худалдан	-2054
▁захиал	-2055
агийн	-2056
жилгээ	-2057
▁Хүмүүс	-2058
▁ажээ	-2059
▁мах	-2060
▁нөөц	-2061
▁өгдөг	-2062
ериал	-2063
▁Тэдний	-2064
өдөө	-2065
▁Y	-2066
▁дөрвөн	-2067
эгдэл	-2068
▁чаддаг	-2069
оохон	-2070
▁оруулж	-2071
вол	-2072
!!!	-2073
.1	-2074
is	-2075
эрч	-2076
өсөн	-2077
▁хулг	-2078
▁яваа	-2079
▁гайхалтай	-2080
дэж	-2081
лам	-2082
▁дас	-2083
▁шагн	-2084
▁таван	-2085
▁хүрээнд	-2086
▁ойлгож	-2087
сыг	-2088
▁1-	-2089
▁сул	-2090
▁энгийн	-2091
▁иргэдийн	-2092
аасан	-2093
▁харилц	-2094
лбар	-2095
▁Дээр	-2096
ндаа	-2097
un	-2098
үүлдэг	-2099
▁тохиолдол	-2100
▁Хуул	-2101
▁25	-2102
тор	-2103
▁нутагт	-2104
▁зайл	-2105
▁хохир	-2106
▁гэхээр	-2107
▁дотоод	-2108
▁өгөө	-2109
he	-2110
▁цэг	-2111
лөх	-2112
▁Эц	-2113
▁c	-2114
▁өрсөлд	-2115
луулах	-2116
▁тавьж	-2117
▁зо	-2118
▁хүсэл	-2119
▁Түүн	-2120
▁гэжээ	-2121
▁хараад	-2122
▁суул	-2123
▁өнгө	-2124
▁эхлээд	-2125
▁бичих	-2126
дэх	-2127
▁юмаа	-2128
▁онгоц	-2129
▁тэрээр	-2130
маас	-2131
▁тавих	-2132
▁хувил	-2133
▁тушаал	-2134
гар	-2135
▁бэрх	-2136
▁тээр	-2137
▁Мар	-2138
▁яам	-2139
▁нийгмийн	-2140
▁тэрб	-2141
▁салбарт	-2142
хоо	-2143
▁хүмүүсийг	-2144
▁s	-2145
▁чадсан	-2146
акц	-2147
▁үедээ	-2148
оф	-2149
▁2020	-2150
еж	-2151
▁чамд	-2152
▁Түүнийг	-2153
юун	-2154
▁өргөн	-2155
▁дүү	-2156
▁мор	-2157
▁үүд	-2158
▁жишээ	-2159
▁сонин	-2160
▁төсөл	-2161
унд	-2162
▁хамаагүй	-2163
эсний	-2164
▁Өөрөөр	-2165
▁Монголчууд	-2166
▁ха	-2167
▁хаш	-2168
▁шинжилгээ	-2169
▁мэдээллийн	-2170
▁Анх	-2171
▁эргэн	-2172
▁Эс	-2173
эрлэг	-2174
Эрдэнэ	-2175
▁олд	-2176
▁е	-2177
▁бя	-2178
▁биел	-2179
ладаг	-2180
▁мөнгөн	-2181
эе	-2182
▁гал	-2183
уулагч	-2184
▁Тухайн	-2185
▁бээл	-2186
0-	-2187
сэг	-2188
▁явна	-2189
▁Хүний	-2190
▁O	-2191
огч	-2192
▁Зөвхөн	-2193
ирус	-2194
ay	-2195
гыг	-2196
▁хотод	-2197
ИЙ	-2198
et	-2199
▁m	-2200
▁Тан	-2201
▁өөрсдөө	-2202
гэх	-2203
▁нийтлэл	-2204
▁Өв	-2205
сын	-2206
▁зу	-2207
▁бүхнийг	-2208
ина	-2209
▁сууц	-2210
▁цахим	-2211
▁жинхэнэ	-2212
▁материал	-2213
АР	-2214
ing	-2215
▁Ажил	-2216
▁ажиллагааны	-2217
▁зүг	-2218
▁утга	-2219
▁үздэг	-2220
▁Өнгөрсөн	-2221
▁зүрх	-2222
Монгол	-2223
▁үнэгүй	-2224
▁2-	-2225
▁цагаан	-2226
▁Намайг	-2227
▁онлайн	-2228
▁хялбар	-2229
▁Хятадын	-2230
▁үзүүлэх	-2231
гүүд	-2232
▁шах	-2233
пп	-2234
▁дэвш	-2235
ol	-2236
▁чул	-2237
▁хамтран	-2238
▁24	-2239
▁бусд	-2240
ноос	-2241
▁Европын	-2242
ааж	-2243
хим	-2244
▁идэв	-2245
ad	-2246
унт	-2247
▁Ан	-2248
үрэн	-2249
▁Сайн	-2250
▁тэднийг	-2251
▁төд	-2252
эсгэл	-2253
▁байдалд	-2254
▁2016	-2255
гэрэнгүй	-2256
el	-2257
▁Сай	-2258
▁ман	-2259
▁жүжиг	-2260
▁эрэгтэй	-2261
▁Хув	-2262
▁бал	-2263
?"	-2264
дагч	-2265
▁нээ	-2266
▁хийлг	-2267
▁эрчим	-2268
▁хатуу	-2269
төр	-2270
▁газарт	-2271
▁Гер	-2272
▁сургалт	-2273
il	-2274
▁хурд	-2275
▁сургуулийн	-2276
▁сууд	-2277
аач	-2278
шээл	-2279
угай	-2280
ангуяа	-2281
▁татаж	-2282
▁тах	-2283
▁зогсоо	-2284
лх	-2285
▁оролцох	-2286
▁мэндийн	-2287
as	-2288
▁Энэт	-2289
▁бичиж	-2290
▁эрд	-2291
аалга	-2292
▁насан	-2293
▁дараагийн	-2294
▁хаж	-2295
маг	-2296
▁бээлий	-2297
▁хоолой	-2298
▁байгууллагын	-2299
▁яриа	-2300
▁үзэл	-2301
▁сонгох	-2302
▁шинэчл	-2303
▁тавь	-2304
▁хүргэж	-2305
▁бүртгэл	-2306
▁хүчний	-2307
▁алх	-2308
▁болт	-2309
▁очих	-2310
▁Бусад	-2311
▁хувилбар	-2312
▁үргэлжил	-2313
идео	-2314
▁Амьд	-2315
жлэх	-2316
▁бодол	-2317
болд	-2318
▁орх	-2319
▁чим	-2320
▁хангалттай	-2321
▁болз	-2322
▁эрсд	-2323
▁нарийн	-2324
▁байгуулах	-2325
ed	-2326
▁хүрч	-2327
▁ариу	-2328
▁хэлэхэд	-2329
).	-2330
▁Эл	-2331
▁нү	-2332
▁Үйл	-2333
▁хөдл	-2334
▁Фр	-2335
▁компанийн	-2336
агчид	-2337
▁Сонг	-2338
▁хүрэх	-2339
сийг	-2340
▁хүчтэй	-2341
▁бүгдийг	-2342
уулахад	-2343
ги	-2344
▁нийл	-2345
члал	-2346
▁мая	-2347
▁Ас	-2348
▁2012	-2349
▁хүнтэй	-2350
наа	-2351
▁адилхан	-2352
оонд	-2353
▁ярьдаг	-2354
▁хугацааны	-2355
эснээр	-2356
▁төдий	-2357
▁тусгаар	-2358
▁U	-2359
ag	-2360
лээр	-2361
▁лээ	-2362
длийг	-2363
▁улмаас	-2364
тгалз	-2365
▁хүрсэн	-2366
АХ	-2367
лиг	-2368
вийн	-2369
▁нэлээд	-2370
ээний	-2371
▁яри	-2372
▁түүн	-2373
▁яваад	-2374
огийн	-2375
өөдрийн	-2376
▁санхүүгийн	-2377
▁буцаа	-2378
аана	-2379
▁жир	-2380
▁мэдлэг	-2381
гад	-2382
▁татгалз	-2383
▁хэрэгжүүлэх	-2384
ow	-2385
▁тавьсан	-2386
▁шударга	-2387
▁V	-2388
▁Хур	-2389
▁боль	-2390
мыг	-2391
▁өрт	-2392
▁тэрбум	-2393
▁байдлын	-2394
▁мэргэжлийн	-2395
бэр	-2396
▁хүсэлт	-2397
▁зөвлөгөө	-2398
удал	-2399
▁өмс	-2400
▁хөгжлийн	-2401
▁тэнц	-2402
▁арван	-2403
▁ойлголт	-2404
▁урам	-2405
▁бэрхшээл	-2406
ахын	-2407
▁Надад	-2408
▁яриад	-2409
амсалтай	-2410
▁тэнэг	-2411
▁хос	-2412
▁үгийг	-2413
▁байшин	-2414
▁тусгай	-2415
▁биднийг	-2416
▁Гур	-2417
▁тусал	-2418
▁тоглох	-2419
▁21	-2420
▁Юу	-2421
▁ажилласан	-2422
▁Ээж	-2423
▁гараад	-2424
▁байгаагаа	-2425
рай	-2426
▁бэлэг	-2427
наж	-2428
▁нээлт	-2429
иц	-2430
▁уурхайн	-2431
длын	-2432
▁2017	-2433
▁тэтг	-2434
▁Гэсэн	-2435
▁талбай	-2436
▁(1	-2437
даас	-2438
▁чадаагүй	-2439
▁лав	-2440
▁хүй	-2441
ьютер	-2442
▁хөдөлм	-2443
▁илэрхийл	-2444
▁баярлалаа	-2445
▁бна	-2446
▁оршин	-2447
▁ОХУ	-2448
▁анги	-2449
▁боломжийг	-2450
▁өгүүл	-2451
▁мэдээж	-2452
▁дасгал	-2453
▁гу	-2454
▁Зур	-2455
▁дэлгүүр	-2456
айз	-2457
▁дургүй	-2458
▁салбарын	-2459
▁амжилттай	-2460
▁Хайр	-2461
үрэл	-2462
▁цэн	-2463
▁сүлжээ	-2464
пьютер	-2465
▁харсан	-2466
▁нарт	-2467
▁дэмжих	-2468
▁үндэсний	-2469
▁чин	-2470
▁илр	-2471
▁сах	-2472
ух	-2473
▁тээрэм	-2474
▁тэдгээр	-2475
▁амьдардаг	-2476
өмөр	-2477
▁талд	-2478
▁хуваал	-2479
орон	-2480
▁Зал	-2481
унтаг	-2482
▁суух	-2483
▁унших	-2484
▁зохиол	-2485
▁ойлгох	-2486
ош	-2487
итан	-2488
орын	-2489
өхгүй	-2490
▁блог	-2491
▁амьдралд	-2492
нээн	-2493
ot	-2494
▁ээлж	-2495
▁давуу	-2496
▁жаахан	-2497
▁сэргээ	-2498
өгч	-2499
▁доор	-2500
▁Сүүлийн	-2501
MN	-2502
ааг	-2503
▁2018	-2504
▁зарна	-2505
орно	-2506
▁алт	-2507
▁ёсны	-2508
лагийн	-2509
▁бодсон	-2510
▁үнэтэй	-2511
▁замын	-2512
▁томил	-2513
▁Эмэгтэй	-2514
▁хэргийн	-2515
▁үзэсгэл	-2516
▁харагдаж	-2517
▁онцлог	-2518
▁хэлдэг	-2519
▁монголчууд	-2520
гт	-2521
ирч	-2522
▁Өр	-2523
▁Өдөр	-2524
▁бэлтг	-2525
▁Үндсэн	-2526
▁ирнэ	-2527
▁оролд	-2528
▁гүн	-2529
чихсэн	-2530
▁станд	-2531
▁хүл	-2532
▁сурвал	-2533
▁суртал	-2534
▁Өг	-2535
▁нур	-2536
▁дэмжлэг	-2537
▁эрг	-2538
▁бэлтгэл	-2539
▁хайж	-2540
▁автом	-2541
▁үлдсэн	-2542
Бид	-2543
▁бүтэн	-2544
▁гарын	-2545
өөрөө	-2546
▁ажиг	-2547
▁|	-2548
бэл	-2549
үүлэгч	-2550
▁Магад	-2551
▁b	-2552
эргүү	-2553
оог	-2554
▁Төр	-2555
▁бүрт	-2556
▁нэрийг	-2557
▁татвар	-2558
▁амж	-2559
эрхүү	-2560
▁хамгаал	-2561
▁зэв	-2562
▁ахуйн	-2563
▁40	-2564
▁#	-2565
▁удахгүй	-2566
уудаа	-2567
▁Он	-2568
▁зээлийн	-2569
АЛ	-2570
бат	-2571
▁муж	-2572
▁Есү	-2573
▁гардаг	-2574
▁мө	-2575
▁2019	-2576
▁дахиад	-2577
ахаар	-2578
▁нунтаг	-2579
▁кон	-2580
тнууд	-2581
▁амиа	-2582
илгын	-2583
ага	-2584
▁ярьсан	-2585
▁чуул	-2586
▁тэнгэр	-2587
эргүүц	-2588
луул	-2589
▁цэргийн	-2590
▁Түүнчлэн	-2591
шаа	-2592
ЭН	-2593
▁нэгж	-2594
▁үлдээ	-2595
▁явуулах	-2596
лэнэ	-2597
ээээ	-2598
▁дүнд	-2599
▁Ком	-2600
▁дэмжиж	-2601
▁жагсаалт	-2602
▁хэрэгсэл	-2603
жлын	-2604
▁нохой	-2605
▁мэдрэмж	-2606
▁яар	-2607
алтыг	-2608
▁интер	-2609
эрсэн	-2610
▁маргааш	-2611
▁эсэхийг	-2612
▁ажиллагааг	-2613
▁дэг	-2614
▁охид	-2615
▁онцгой	-2616
▁магадлал	-2617
▁?	-2618
ондоо	-2619
▁ов	-2620
▁2015	-2621
▁хүсэж	-2622
▁1.	-2623
▁Хэрэг	-2624
▁яахав	-2625
▁за	-2626
▁сөр	-2627
длийн	-2628
игийн	-2629
▁эсэх	-2630
▁Хүүхд	-2631
▁тоног	-2632
▁Газ	-2633
ion	-2634
снээр	-2635
чигдөр	-2636
тон	-2637
үүлээд	-2638
▁ирдэг	-2639
▁хөдөлгөөн	-2640
▁тэж	-2641
▁хэмжээг	-2642
ew	-2643
▁шар	-2644
▁итгэлтэй	-2645
▁шаардлагагүй	-2646
рист	-2647
снаас	-2648
уб	-2649
заар	-2650
▁сонгуулийн	-2651
▁ороод	-2652
слэлийн	-2653
▁Гадаад	-2654
ur	-2655
▁илгээ	-2656
▁хуваалц	-2657
▁гут	-2658
чүүдийн	-2659
▁Ин	-2660
▁Япон	-2661
▁Нөгөө	-2662
ээч	-2663
▁хас	-2664
▁гэрийн	-2665
▁газраас	-2666
▁тэдэнд	-2667
▁элс	-2668
▁бодис	-2669
▁доллар	-2670
▁халдвар	-2671
▁жаргалтай	-2672
▁оо	-2673
▁огц	-2674
илгаан	-2675
этгээд	-2676
▁алдсан	-2677
▁үйлдэл	-2678
▁уй	-2679
▁байлг	-2680
▁томоохон	-2681
▁ёсоор	-2682
▁давхар	-2683
▁хүсдэг	-2684
▁сургуульд	-2685
▁нарыг	-2686
-2	-2687
чдад	-2688
▁сурах	-2689
▁амьтан	-2690
▁ашигтай	-2691
▁Аав	-2692
▁тарх	-2693
▁хүчир	-2694
▁пар	-2695
▁байнаа	-2696
игд	-2697
▁бөмбөг	-2698
▁түмний	-2699
єє	-2700
▁хяналт	-2701
▁эсэргүүц	-2702
тний	-2703
шигч	-2704
▁сэргий	-2705
▁зөвлөл	-2706
▁эмчилгээ	-2707
▁Бая	-2708
▁шагнал	-2709
▁шалгар	-2710
▁Магадгүй	-2711
▁гарга	-2712
▁этгээд	-2713
▁Түүнээс	-2714
▁алхам	-2715
▁цэцэрлэг	-2716
▁зүтг	-2717
иас	-2718
▁Ерөнхийлөгчийн	-2719
▁вэб	-2720
▁ног	-2721
▁аялал	-2722
▁идэвх	-2723
▁Америкийн	-2724
▁үзүүлэлт	-2725
шээ	-2726
▁бр	-2727
▁дуул	-2728
▁хулгай	-2729
уууу	-2730
оорой	-2731
▁тэгж	-2732
▁нэмэлт	-2733
▁өөрсдийн	-2734
▁22	-2735
слэл	-2736
▁зуу	-2737
▁тэс	-2738
▁Бүгд	-2739
▁Франц	-2740
▁талаас	-2741
▁хэлээд	-2742
▁компаниуд	-2743
▁хятад	-2744
id	-2745
▁Өмнөх	-2746
▁дүгнэлт	-2747
▁хурал	-2748
▁хэсэгт	-2749
▁өөрчлөх	-2750
ТГ	-2751
чдыг	-2752
▁хагас	-2753
▁Өөрийн	-2754
▁Улаанбаатар	-2755
▁ос	-2756
▁2014	-2757
▁шүүм	-2758
▁сэдэв	-2759
▁Аф	-2760
▁өвд	-2761
▁төсөв	-2762
▁хариулт	-2763
▁ХХ	-2764
▁дотр	-2765
▁мөрд	-2766
эвчлэн	-2767
▁Эсвэл	-2768
▁орос	-2769
▁тээврийн	-2770
▁сор	-2771
оосон	-2772
цгаа	-2773
▁бах	-2774
▁тогтвор	-2775
▁хэрэглэж	-2776
▁3-	-2777
▁учиртай	-2778
▁анхаарал	-2779
ьс	-2780
▁ирлээ	-2781
▁Британ	-2782
▁хэрэгцээ	-2783
▁асуудлаар	-2784
▁байгуулсан	-2785
▁X	-2786
▁Ажлын	-2787
▁Амьдрал	-2788
▁дэр	-2789
▁Цааш	-2790
us	-2791
гаасаа	-2792
портын	-2793
▁Энэтхэг	-2794
мал	-2795
▁өдөрт	-2796
▁орлого	-2797
дрийн	-2798
огино	-2799
▁стр	-2800
▁эзэн	-2801
▁амархан	-2802
##	-2803
АА	-2804
чдэд	-2805
▁бараа	-2806
▁Тав	-2807
▁дая	-2808
▁хуваар	-2809
▁явуулж	-2810
▁шав	-2811
▁шөнө	-2812
▁алдаг	-2813
▁тамир	-2814
▁мас	-2815
▁2008	-2816
▁вакц	-2817
▁хөнг	-2818
▁уншиж	-2819
▁дэд	-2820
▁урьдчил	-2821
▁Ганц	-2822
▁Хор	-2823
▁авчир	-2824
▁хэвээр	-2825
▁тохиромжтой	-2826
имп	-2827
▁баяртай	-2828
▁d	-2829
▁сүр	-2830
▁чих	-2831
▁сурвалж	-2832
▁Оросын	-2833
▁Үр	-2834
лагыг	-2835
▁эрхийг	-2836
▁сонгуульд	-2837
гэ	-2838
▁хямд	-2839
▁хандаж	-2840
▁дурс	-2841
ent	-2842
▁Хот	-2843
▁тор	-2844
өндөө	-2845
▁танай	-2846
▁багийн	-2847
▁хэдийн	-2848
хад	-2849
▁цөөн	-2850
▁шинээр	-2851
▁Хөг	-2852
▁жолоо	-2853
▁олгох	-2854
▁хуралдаа	-2855
▁орно	-2856
▁хурим	-2857
▁өвчин	-2858
▁тоглог	-2859
▁холбогдох	-2860
ch	-2861
▁Баяр	-2862
▁товч	-2863
▁хамтдаа	-2864
▁Дэлхий	-2865
▁хэвлэл	-2866
▁ганцаараа	-2867
21	-2868
▁ажилтан	-2869
▁амьсгал	-2870
▁түүнээс	-2871
▁хаяг	-2872
▁бурхан	-2873
зан	-2874
▁байд	-2875
▁түвшинд	-2876
ээдэг	-2877
▁эрдэм	-2878
УУ	-2879
▁талын	-2880
▁бодоод	-2881
▁замаар	-2882
▁сонгууль	-2883
▁жуул	-2884
▁K	-2885
▁Гар	-2886
▁хийхэд	-2887
ихгүй	-2888
▁зориг	-2889
▁хөө	-2890
▁харахад	-2891
eb	-2892
АЙ	-2893
▁нот	-2894
▁Холб	-2895
▁Аль	-2896
▁Хал	-2897
▁ойролцоо	-2898
уц	-2899
▁аш	-2900
▁Нийт	-2901
▁зүйлээ	-2902
▁Ингэснээр	-2903
▁цом	-2904
▁олсон	-2905
▁Хүүхэд	-2906
▁бүхэнд	-2907
▁тэрбээр	-2908
евиз	-2909
элийн	-2910
▁нийц	-2911
▁оролцож	-2912
бор	-2913
▁өө	-2914
▁эхэлж	-2915
уудаас	-2916
үрэлсү	-2917
▁видео	-2918
▁төрөлх	-2919
▁өл	-2920
▁мөрөөд	-2921
▁байранд	-2922
▁зургийг	-2923
▁тэмцээн	-2924
▁шалгалт	-2925
▁үзээрэй	-2926
▁болгосон	-2927
▁Нар	-2928
▁алба	-2929
▁дүрэм	-2930
▁уурхай	-2931
▁эхэллээ	-2932
ъё	-2933
▁Тур	-2934
▁Ихэн	-2935
▁Иргэд	-2936
илга	-2937
▁Бүр	-2938
үүдээ	-2939
▁эргэж	-2940
▁тайван	-2941
кк	-2942
▁тел	-2943
▁Үндэсний	-2944
▁багас	-2945
▁зүйтэй	-2946
▁тоглож	-2947
▁хэрэгт	-2948
ель	-2949
асны	-2950
▁Эрх	-2951
▁Залуу	-2952
▁цагдаагийн	-2953
оу	-2954
ойд	-2955
▁амт	-2956
▁барь	-2957
огдсон	-2958
▁Ингэж	-2959
▁ангил	-2960
▁зүгээс	-2961
▁бул	-2962
▁цай	-2963
▁Өмнөд	-2964
▁Ой	-2965
▁Жишээ	-2966
▁даатг	-2967
▁эхлэн	-2968
▁Ял	-2969
▁давт	-2970
▁худлаа	-2971
▁компьютер	-2972
▁хож	-2973
удамж	-2974
▁аварга	-2975
▁нэртэй	-2976
▁байсныг	-2977
▁оноо	-2978
▁гарна	-2979
▁f	-2980
лол	-2981
▁зардал	-2982
▁цаашид	-2983
▁уулзалт	-2984
▁өсөлт	-2985
▁оруулсан	-2986
ub	-2987
руул	-2988
▁эгч	-2989
амжийн	-2990
▁Энх	-2991
▁асар	-2992
▁эргэлз	-2993
онх	-2994
наар	-2995
▁Дав	-2996
▁Маш	-2997
▁Том	-2998
ба	-2999
би	-3000
пер	-3001
улга	-3002
▁зөвшөөрөл	-3003
лбал	-3004
▁тоол	-3005
гаагүй	-3006
▁2013	-3007
▁Нийг	-3008
▁хоёрын	-3009
▁ашигладаг	-3010
▁Уул	-3011
▁хуучин	-3012
▁*	-3013
▁Сон	-3014
▁соёл	-3015
ангийн	-3016
▁шалтгаа	-3017
енеж	-3018
нгын	-3019
▁ангийн	-3020
▁дий	-3021
▁ялг	-3022
▁хааг	-3023
▁дүнтэй	-3024
Ал	-3025
▁зая	-3026
▁хэлний	-3027
шуул	-3028
▁чаддаггүй	-3029
▁хариуцлага	-3030
▁дүүрэн	-3031
▁хүүхдээ	-3032
оль	-3033
▁им	-3034
▁өрн	-3035
▁чулуу	-3036
▁хөв	-3037
▁Эрүүл	-3038
▁хэвийн	-3039
▁хувьцаа	-3040
гам	-3041
сар	-3042
▁гоо	-3043
▁гэрэл	-3044
▁хөдөлмөр	-3045
▁санагддаг	-3046
▁боо	-3047
▁Орон	-3048
▁эрхтэй	-3049
шөө	-3050
▁Сү	-3051
▁Бод	-3052
▁зуун	-3053
бир	-3054
шиж	-3055
▁2.	-3056
▁хөх	-3057
▁хувийг	-3058
лана	-3059
▁буул	-3060
▁албаны	-3061
▁сув	-3062
▁итгэж	-3063
▁хангах	-3064
рийг	-3065
илийн	-3066
▁уламжл	-3067
▁хэргийг	-3068
▁болоогүй	-3069
▁анзаар	-3070
▁түрээс	-3071
ла	-3072
ҮБ	-3073
чихаад	-3074
▁нөхөд	-3075
▁төгсг	-3076
▁нээлттэй	-3077
лов	-3078
мад	-3079
▁Ихэнх	-3080
▁дөрөв	-3081
▁зориулж	-3082
▁нэгдсэн	-3083
▁чиглэлээр	-3084
анх	-3085
▁Ил	-3086
▁Төв	-3087
▁үзэг	-3088
▁Хүүхдийн	-3089
▁юмуу	-3090
▁Зүгээр	-3091
▁дайр	-3092
▁дэлг	-3093
▁сайдын	-3094
▁шалгах	-3095
▁цахилгаан	-3096
лолт	-3097
▁Хууль	-3098
▁зорилгоор	-3099
чиж	-3100
▁одоогийн	-3101
сайхан	-3102
▁номын	-3103
▁хүргэе	-3104
▁ихэвчлэн	-3105
▁оролцсон	-3106
▁чанартай	-3107
▁урьдчилан	-3108
▁i	-3109
▁Ох	-3110
▁мян	-3111
▁цув	-3112
дүгээр	-3113
▁хөдөө	-3114
▁сонсох	-3115
▁алдартай	-3116
▁Оюут	-3117
▁ганцхан	-3118
▁Зах	-3119
▁дайн	-3120
▁аливаа	-3121
тгах	-3122
▁зуур	-3123
▁үзнэ	-3124
▁даяар	-3125
даагүй	-3126
▁хям	-3127
▁стандарт	-3128
ям	-3129
▁талаарх	-3130
▁порно	-3131
▁төлөх	-3132
▁хичээ	-3133
▁нөхцөлд	-3134
▁шийдвэрлэх	-3135
ЭГ	-3136
ХАУ	-3137
лгэр	-3138
лөл	-3139
тэд	-3140
▁өд	-3141
мол	-3142
▁ХХК	-3143
▁бохир	-3144
▁хүрээл	-3145
▁Ах	-3146
▁эг	-3147
▁Мэр	-3148
тэр	-3149
▁агаарын	-3150
▁үнэлгээ	-3151
▁байлгүй	-3152
▁Одоогоор	-3153
▁чадвартай	-3154
▁дэлгэрэнгүй	-3155
30	-3156
▁эрхэм	-3157
▁сам	-3158
▁тогтвортой	-3159
лоор	-3160
▁хэмээ	-3161
▁Үз	-3162
▁тогтоол	-3163
улаа	-3164
эхэ	-3165
амын	-3166
▁2011	-3167
▁санаж	-3168
▁хэмээх	-3169
▁үнэндээ	-3170
гэдэг	-3171
ерийн	-3172
▁нэмж	-3173
50	-3174
▁Танд	-3175
ийгээр	-3176
▁менеж	-3177
▁засвар	-3178
▁хуулийг	-3179
адаа	-3180
▁хоё	-3181
▁идэх	-3182
▁зөрчил	-3183
im	-3184
АТ	-3185
алтгүй	-3186
▁ердөө	-3187
▁дүгээр	-3188
▁Ун	-3189
▁хог	-3190
▁царай	-3191
▁надаас	-3192
▁зургаан	-3193
▁сайжруулах	-3194
ook	-3195
ноор	-3196
▁Тэнд	-3197
▁уучл	-3198
чуудын	-3199
▁хөгжүүлэх	-3200
фф	-3201
▁Тог	-3202
▁сум	-3203
элсэн	-3204
▁түгээ	-3205
▁ажиллана	-3206
pp	-3207
ри	-3208
▁60	-3209
гээрээ	-3210
▁биеийн	-3211
▁үйлчилгээний	-3212
лав	-3213
▁198	-3214
▁биеэ	-3215
шигтай	-3216
▁зад	-3217
агдаад	-3218
▁заалт	-3219
▁жагсаал	-3220
ex	-3221
ангуй	-3222
▁баруун	-3223
▁дэргэд	-3224
▁ухааны	-3225
▁тогтоох	-3226
▁Бур	-3227
▁БНХАУ	-3228
▁найдв	-3229
▁сураг	-3230
▁эцсийн	-3231
▁хаанаас	-3232
▁Уд	-3233
▁Дар	-3234
▁зох	-3235
▁тараа	-3236
▁Өглөө	-3237
▁ашиглан	-3238
▁No	-3239
▁хөнд	-3240
лагдаж	-3241
снаа	-3242
▁арх	-3243
▁Эз	-3244
▁тий	-3245
▁мэдсэн	-3246
▁байгуулж	-3247
тны	-3248
▁НҮБ	-3249
оосоо	-3250
өнгөж	-3251
▁дарж	-3252
▁тутмын	-3253
▁ерөнхийлөгч	-3254
▁ат	-3255
▁Чам	-3256
огдох	-3257
▁гаргадаг	-3258
олл	-3259
▁зорилт	-3260
▁23	-3261
▁Христ	-3262
▁мөнгийг	-3263
▁Үнэхээр	-3264
жүүлэх	-3265
▁олбор	-3266
▁хүндр	-3267
▁муухай	-3268
▁Дараагийн	-3269
жаа	-3270
▁хүсье	-3271
▁байгаарай	-3272
ко	-3273
▁Тухай	-3274
ec	-3275
▁экс	-3276
▁сумын	-3277
▁даргын	-3278
ате	-3279
▁хүм	-3280
ошгүй	-3281
элдэг	-3282
▁Тэн	-3283
,"	-3284
and	-3285
▁Төс	-3286
▁богино	-3287
▁Ном	-3288
Миний	-3289
▁англи	-3290
▁эцэст	-3291
▁хандах	-3292
▁идэж	-3293
уудтай	-3294
чилгаа	-3295
▁эрчүүд	-3296
▁зүйлд	-3297
▁мөнгөө	-3298
▁хэлэв	-3299
▁Эрдэнэ	-3300
▁телевиз	-3301
ддэг	-3302
▁ураг	-3303
▁яасан	-3304
▁аргаар	-3305
йн	-3306
▁шив	-3307
страл	-3308
▁одоогоор	-3309
ews	-3310
алж	-3311
гөн	-3312
▁үнэм	-3313
▁байхаа	-3314
.2	-3315
▁суд	-3316
▁өгөхгүй	-3317
▁сүй	-3318
алгүй	-3319
▁дугуй	-3320
▁хэллээ	-3321
▁өрөөнд	-3322
ia	-3323
▁Кан	-3324
эхийн	-3325
▁үнэр	-3326
▁дууссан	-3327
▁цус	-3328
кет	-3329
саг	-3330
ийгээ	-3331
▁Өмнө	-3332
ууллаа	-3333
члалын	-3334
▁гараа	-3335
▁бодлоо	-3336
▁улстөр	-3337
▁халуун	-3338
▁оруулалт	-3339
ter	-3340
▁дэм	-3341
▁Нэгэн	-3342
▁гайхам	-3343
ап	-3344
орн	-3345
▁Сар	-3346
ынхаа	-3347
▁боловсруулах	-3348
▁найдаж	-3349
▁болзошгүй	-3350
▁w	-3351
▁Ол	-3352
▁сурч	-3353
агддаг	-3354
▁гудамж	-3355
Ам	-3356
,000	-3357
▁сек	-3358
▁дүнг	-3359
▁хөгжим	-3360
▁анхаарах	-3361
▁хэрэглэдэг	-3362
▁Ё	-3363
обус	-3364
▁хах	-3365
өнгийн	-3366
▁замыг	-3367
▁бусдад	-3368
Чи	-3369
ерэг	-3370
ИЙН	-3371
▁газрыг	-3372
▁үзэсгэлэн	-3373
▁n	-3374
руу	-3375
▁Сая	-3376
▁хэвт	-3377
▁Англи	-3378
▁дагаж	-3379
▁Тухайлбал	-3380
Тэг	-3381
ааз	-3382
▁хамтын	-3383
ЭЭ	-3384
▁ховор	-3385
▁бизнесийн	-3386
ig	-3387
▁хэ	-3388
...]	-3389
▁таларх	-3390
▁чанарын	-3391
▁болгодог	-3392
ОН	-3393
гууд	-3394
▁Хүү	-3395
тайгаар	-3396
▁гомдол	-3397
▁сонссон	-3398
▁худалдааны	-3399
▁Тод	-3400
уухан	-3401
▁орхи	-3402
▁дотроо	-3403
em	-3404
▁өөд	-3405
▁бүхний	-3406
▁хямрал	-3407
▁дууг	-3408
▁инээ	-3409
▁байхаар	-3410
▁саналыг	-3411
▁шинжлэх	-3412
▁хэрэв	-3413
▁шалгаж	-3414
▁өмнөөс	-3415
▁цох	-3416
▁дэлхийд	-3417
▁хийхгүй	-3418
▁оюутнууд	-3419
▁залуус	-3420
▁асуудалд	-3421
▁үд	-3422
▁бут	-3423
▁туу	-3424
ээхэн	-3425
▁зүүн	-3426
ингийн	-3427
▁орчинд	-3428
▁төсвийн	-3429
▁хүүхэдтэй	-3430
▁вакцин	-3431
▁o	-3432
▁Хэл	-3433
▁Эхний	-3434
▁хороо	-3435
▁Цагаан	-3436
▁бүрэлд	-3437
▁сэргийлэх	-3438
▁Дах	-3439
▁давх	-3440
▁агуул	-3441
▁журам	-3442
▁нийтэд	-3443
▁иргэдэд	-3444
дсон	-3445
▁урд	-3446
▁[...]	-3447
▁сөрөг	-3448
▁ингээд	-3449
▁мэргэжилт	-3450
▁хоорондоо	-3451
▁юуг	-3452
▁авар	-3453
▁файл	-3454
дээгүй	-3455
▁болчихсон	-3456
нет	-3457
▁Бие	-3458
▁Мал	-3459
▁цац	-3460
▁Үнэн	-3461
▁үлгэр	-3462
ОЛ	-3463
иан	-3464
▁цагаа	-3465
▁хороол	-3466
▁зүүд	-3467
▁Үүнд	-3468
▁аваарай	-3469
▁хугацааг	-3470
▁бөө	-3471
галаа	-3472
насан	-3473
▁улаан	-3474
жих	-3475
▁гэг	-3476
снаар	-3477
▁хоолны	-3478
▁хоц	-3479
алгаа	-3480
▁Чиний	-3481
▁вирус	-3482
▁Сонгуул	-3483
▁хөөрхөн	-3484
▁26	-3485
▁гр	-3486
члах	-3487
▁гэрт	-3488
▁түрүүнд	-3489
▁Из	-3490
ийнхүү	-3491
▁эзэмш	-3492
▁дандаа	-3493
▁өдрүүдэд	-3494
▁тэгш	-3495
▁технологи	-3496
▁Афр	-3497
эндүү	-3498
▁2009	-3499
бөмбөг	-3500
▁ордог	-3501
▁очоод	-3502
▁аюултай	-3503
▁хүнсний	-3504
▁байгуулагдсан	-3505
▁ажиллагаанд	-3506
▁Наад	-3507
▁агуу	-3508
▁ширх	-3509
▁татах	-3510
▁Байгал	-3511
▁нэгдүгээр	-3512
▁ойлгомжтой	-3513
???	-3514
▁эрс	-3515
▁очсон	-3516
▁түг	-3517
▁Засаг	-3518
▁барив	-3519
▁>	-3520
▁Герман	-3521
▁хүүхдэд	-3522
▁холбооны	-3523
▁хэрэгжүүлж	-3524
▁Дот	-3525
▁зааж	-3526
▁манайд	-3527
▁тухайд	-3528
▁заримдаа	-3529
▁санагдаж	-3530
лэм	-3531
▁шан	-3532
▁иймэрхүү	-3533
▁удирдлаг	-3534
▁усны	-3535
▁суурил	-3536
▁уулзаж	-3537
▁хувиар	-3538
▁эрхийн	-3539
▁өдрийг	-3540
▁үзээгүй	-3541
орм	-3542
▁заасан	-3543
▁эхэлнэ	-3544
▁зүйлийн	-3545
ларын	-3546
▁ойлгодог	-3547
▁'	-3548
▁үүнд	-3549
▁мянга	-3550
▁иргэний	-3551
▁дамжуулан	-3552
▁кам	-3553
▁цугл	-3554
▁Цагдаа	-3555
▁хэтэрхий	-3556
▁Хөр	-3557
Манай	-3558
▁босг	-3559
▁авлаа	-3560
▁хэмжээгээр	-3561
▁дарам	-3562
▁тэмцэх	-3563
▁орондоо	-3564
▁тэргүүн	-3565
то	-3566
ээтэй	-3567
▁Есүс	-3568
▁Дараах	-3569
▁Австрал	-3570
▁амьдралыг	-3571
▁сэтгэгдэл	-3572
▁үйлдвэрийн	-3573
▁Гол	-3574
▁машины	-3575
иф	-3576
▁Пр	-3577
тулга	-3578
▁нээх	-3579
▁тайлан	-3580
▁барилга	-3581
▁байгалийн	-3582
▁нэх	-3583
▁хамаа	-3584
▁дэлгэц	-3585
▁уст	-3586
чдийг	-3587
▁ядаж	-3588
өлтийн	-3589
мийг	-3590
▁Цах	-3591
▁хэнд	-3592
▁зовлон	-3593
10	-3594
ка	-3595
үл	-3596
▁h	-3597
▁є	-3598
▁Нөх	-3599
▁Хан	-3600
▁Сайхан	-3601
▁эргээд	-3602
▁уралдаа	-3603
▁27	-3604
▁Японы	-3605
▁болгоо	-3606
▁зарчим	-3607
▁шийдсэн	-3608
▁гадаадын	-3609
вөл	-3610
▁кл	-3611
лаар	-3612
лүүд	-3613
▁шуур	-3614
▁байцаа	-3615
▁авахгүй	-3616
▁байгаль	-3617
▁үйлдвэрлэл	-3618
one	-3619
лэгийн	-3620
▁бусдын	-3621
▁цагаар	-3622
▁мэргэжил	-3623
▁бутлуурын	-3624
▁архи	-3625
лагдах	-3626
▁парлам	-3627
▁үзүүлж	-3628
ir	-3629
▁асууж	-3630
▁спорт	-3631
▁эерэг	-3632
▁Ардчилсан	-3633
▁сэтгэлийн	-3634
ест	-3635
цаг	-3636
жилж	-3637
цийн	-3638
▁уух	-3639
элийг	-3640
▁сонсож	-3641
▁чуулган	-3642
▁мөнгөний	-3643
▁судалгааны	-3644
▁80	-3645
▁доош	-3646
▁ханш	-3647
▁судлаа	-3648
▁сонгосон	-3649
▁4-	-3650
ооноос	-3651
үүлэлт	-3652
▁үүссэн	-3653
▁Ялангуяа	-3654
▁хоёрдугаар	-3655
▁үйлчилгээг	-3656
ээг	-3657
▁Цэц	-3658
алтад	-3659
▁цогц	-3660
▁ихээр	-3661
▁өссөн	-3662
▁төслийг	-3663
▁боловсрол	-3664
▁Сэтг	-3665
▁төрд	-3666
гаарай	-3667
▁ёсгүй	-3668
▁тэмцээнд	-3669
▁хяналтын	-3670
бэг	-3671
▁ну	-3672
▁цөө	-3673
▁брэнд	-3674
▁итгэдэг	-3675
▁28	-3676
▁шуг	-3677
далгүй	-3678
▁Худал	-3679
▁ариутг	-3680
▁утасны	-3681
ег	-3682
▁$	-3683
Баяр	-3684
▁Тэм	-3685
▁апп	-3686
▁шийдэх	-3687
▁зайлшгүй	-3688
▁бүтээгдэхүүний	-3689
-0	-3690
ut	-3691
иб	-3692
ишээл	-3693
енд	-3694
▁Пар	-3695
▁хувир	-3696
▁цуврал	-3697
▁тогтолцоо	-3698
▁Харамсалтай	-3699
ul	-3700
Ар	-3701
▁өөрсдийгөө	-3702
▁шид	-3703
▁Тайл	-3704
▁олны	-3705
▁Эдийн	-3706
▁уриал	-3707
▁явуул	-3708
Энхбаяр	-3709
орт	-3710
▁хуу	-3711
▁мунд	-3712
үрэлсүх	-3713
▁цагийг	-3714
дэн	-3715
гэсэн	-3716
▁юмыг	-3717
▁төсөөл	-3718
art	-3719
ланд	-3720
▁Ман	-3721
чихлаа	-3722
ерт	-3723
▁зээлд	-3724
▁удаад	-3725
▁шөн	-3726
▁өнц	-3727
▁тооны	-3728
▁жолооч	-3729
хаг	-3730
үйм	-3731
▁Ая	-3732
▁10-	-3733
▁хэсгийг	-3734
▁сонирхол	-3735
ap	-3736
os	-3737
-19	-3738
:00	-3739
кийн	-3740
▁ууж	-3741
▁шуу	-3742
▁Иймд	-3743
▁Хойд	-3744
▁үсэг	-3745
▁өөрт	-3746
наасаа	-3747
▁шатны	-3748
▁өнөөгийн	-3749
стой	-3750
огчид	-3751
▁бодлогын	-3752
▁харагддаг	-3753
гуу	-3754
▁гэс	-3755
▁хэлээр	-3756
▁Одоогийн	-3757
▁үндэслэл	-3758
▁зууны	-3759
▁байрны	-3760
оороо	-3761
эгдэж	-3762
▁саад	-3763
▁гэнэт	-3764
▁таамаг	-3765
▁тогтмол	-3766
▁баталгааж	-3767
▁эмнэлгийн	-3768
овч	-3769
олж	-3770
▁оюун	-3771
▁нэгтг	-3772
▁зөндөө	-3773
ҮҮ	-3774
тар	-3775
ханд	-3776
▁зод	-3777
▁зөөл	-3778
▁Түүнд	-3779
▁киноны	-3780
▁нийгэмд	-3781
бүү	-3782
▁утг	-3783
▁хуульд	-3784
▁харагдах	-3785
Тэр	-3786
▁Түр	-3787
▁Шил	-3788
▁байт	-3789
▁сүүлд	-3790
эш	-3791
▁зол	-3792
▁саналаа	-3793
▁хийхийг	-3794
АХН	-3795
▁цэцэг	-3796
▁банкны	-3797
▁хөгжилтэй	-3798
ва	-3799
▁Тү	-3800
ганы	-3801
▁Ирэх	-3802
▁төвл	-3803
▁барсан	-3804
▁жүжигчин	-3805
▁Нийслэлийн	-3806
gle	-3807
игт	-3808
лэлт	-3809
▁Өнөө	-3810
▁наадам	-3811
▁хорооны	-3812
▁дүүргийн	-3813
▁болдоггүй	-3814
▁анд	-3815
▁даруй	-3816
▁байхын	-3817
АГ	-3818
▁2010	-3819
шр	-3820
лэв	-3821
▁3.	-3822
снийг	-3823
▁зарч	-3824
▁танхим	-3825
▁хийлээ	-3826
▁цагаас	-3827
▁туршлагатай	-3828
▁a	-3829
бол	-3830
▁5-	-3831
▁төрх	-3832
▁хүргэх	-3833
?!	-3834
▁код	-3835
▁News	-3836
▁технологийн	-3837
хнэр	-3838
цхан	-3839
▁бүтээсэн	-3840
▁зүйлсийг	-3841
имс	-3842
үйц	-3843
хтай	-3844
▁Танай	-3845
▁дэндүү	-3846
▁оюутан	-3847
▁страте	-3848
▁Сургуул	-3849
▁ажилдаа	-3850
▁ихээхэн	-3851
▁маргаан	-3852
улуун	-3853
лэгчид	-3854
▁ургам	-3855
▁нэмэгдүүлэх	-3856
гил	-3857
сал	-3858
▁ес	-3859
▁урсгал	-3860
▁чөлөөтэй	-3861
▁гүйцэтгэх	-3862
▁шаш	-3863
огдож	-3864
уурын	-3865
▁ихтэй	-3866
▁урлаг	-3867
▁хүнээс	-3868
▁харилцан	-3869
▁мэддэггүй	-3870
▁холбогдсон	-3871
▁Мэргэж	-3872
▁харамс	-3873
эгдүгээр	-3874
▁хамтлаг	-3875
▁нэн	-3876
▁төмөр	-3877
▁шашин	-3878
▁бахарх	-3879
▁залбир	-3880
▁надтай	-3881
ЭЛ	-3882
▁Ис	-3883
агаа	-3884
енер	-3885
▁зуг	-3886
oogle	-3887
▁нэмэр	-3888
▁байрлал	-3889
ck	-3890
▁Тал	-3891
ингис	-3892
▁хорв	-3893
▁гадуур	-3894
▁Өнөөдрийн	-3895
▁сэдв	-3896
▁түлх	-3897
▁дөнгөж	-3898
▁найман	-3899
▁хөрөнг	-3900
▁өөрчил	-3901
▁байнгын	-3902
бан	-3903
▁баян	-3904
▁зөрч	-3905
▁ажилтнууд	-3906
▁бүгдээрээ	-3907
iv	-3908
атор	-3909
моор	-3910
члан	-3911
шигт	-3912
▁дэвс	-3913
▁явцад	-3914
▁ялангуяа	-3915
отг	-3916
▁Ул	-3917
▁алдах	-3918
▁найзууд	-3919
▁туршлага	-3920
уя	-3921
▁гү	-3922
галан	-3923
▁галз	-3924
▁өчигдөр	-3925
▁барилгын	-3926
уулахгүй	-3927
нэт	-3928
▁Бага	-3929
▁Найз	-3930
чихсон	-3931
▁Улсад	-3932
▁үзээд	-3933
▁идэвхтэй	-3934
▁мөрг	-3935
▁ийнхүү	-3936
▁үүнээс	-3937
лүүлэх	-3938
▁Таныг	-3939
▁урамшуул	-3940
▁айж	-3941
▁виз	-3942
▁болоо	-3943
▁өгөөч	-3944
▁болтол	-3945
▁барьсан	-3946
▁зорилготой	-3947
лаас	-3948
сгүй	-3949
▁дуур	-3950
▁даалга	-3951
▁долоон	-3952
▁мэдэгдсэн	-3953
▁хэхэ	-3954
▁өргөж	-3955
▁ширхэг	-3956
▁яаралтай	-3957
▁эмэгтэйчүүдийн	-3958
▁гун	-3959
▁зөө	-3960
▁өсг	-3961
▁гуай	-3962
▁Хэдэн	-3963
▁хажуу	-3964
▁насанд	-3965
▁эндээс	-3966
▁бичгийн	-3967
▁тогтоосон	-3968
овь	-3969
▁Ст	-3970
▁айд	-3971
▁хажууд	-3972
▁хүүхдийг	-3973
▁эрүү	-3974
▁хүрэхгүй	-3975
▁Хэдийгээр	-3976
▁байсангүй	-3977
▁бүсгүйчүүд	-3978
хыг	-3979
▁гор	-3980
▁жив	-3981
▁хүлээх	-3982
ost	-3983
▁өнөөд	-3984
dow	-3985
▁Хоол	-3986
▁амын	-3987
▁дутуу	-3988
▁хэдхэн	-3989
авдугаар	-3990
▁автобус	-3991
▁удирдах	-3992
▁болохоос	-3993
▁уя	-3994
лэхгүй	-3995
▁Канад	-3996
▁медал	-3997
▁хүсвэл	-3998
▁жилүүдэд	-3999
▁!	-4000
лож	-4001
үйн	-4002
сгөл	-4003
▁цуц	-4004
▁секс	-4005
чихдаг	-4006
лэгдсэн	-4007
▁авахад	-4008
▁гаргаад	-4009
▁өнгөрөө	-4010
изм	-4011
инэ	-4012
▁Бэл	-4013
▁Багш	-4014
▁эмчл	-4015
▁яриг	-4016
▁баярын	-4017
▁In	-4018
бэгд	-4019
чийг	-4020
▁буд	-4021
▁ийн	-4022
агчийн	-4023
▁үзвэл	-4024
▁авахыг	-4025
▁мундаг	-4026
▁төслийн	-4027
▁Нэр	-4028
▁сэл	-4029
▁Эцэг	-4030
▁карт	-4031
▁бодлоор	-4032
▁байгууллагад	-4033
ИЛ	-4034
баат	-4035
лдөг	-4036
▁түл	-4037
лосон	-4038
▁нойр	-4039
▁өгөөд	-4040
▁дэглэм	-4041
▁тооцоол	-4042
▁ухаалаг	-4043
▁ялгаатай	-4044
▁Өнд	-4045
▁МАХН	-4046
▁гарц	-4047
▁хэлэлцээр	-4048
▁боловсролын	-4049
үүж	-4050
▁той	-4051
▁шим	-4052
▁эрч	-4053
▁буцаж	-4054
Энхболд	-4055
бэгдорж	-4056
▁улиралд	-4057
▁харуулах	-4058
ийх	-4059
▁Дөр	-4060
▁Герм	-4061
▁өвөр	-4062
▁алдаж	-4063
▁таалагд	-4064
▁хэлбэрээр	-4065
чны	-4066
мсэг	-4067
ebook	-4068
▁түмн	-4069
▁итгэх	-4070
ишээлбэл	-4071
▁гарахгүй	-4072
▁эмнэлэгт	-4073
▁магадлалтай	-4074
тах	-4075
мент	-4076
▁кар	-4077
▁маск	-4078
▁хэсгийн	-4079
▁эмнэлэг	-4080
ез	-4081
лалын	-4082
▁хэлнэ	-4083
▁Сэтгэл	-4084
▁Үнэндээ	-4085
▁болоход	-4086
өнх	-4087
алаа	-4088
▁Үгүй	-4089
огчдын	-4090
▁нийслэл	-4091
▁хангамж	-4092
▁хүчирхий	-4093
АС	-4094
мс	-4095
ьт	-4096
▁Зор	-4097
үүхэн	-4098
▁нээл	-4099
▁хэлт	-4100
▁юунд	-4101
▁Мэдээл	-4102
▁уулзах	-4103
▁дээрээс	-4104
▁харуулж	-4105
дар	-4106
шир	-4107
▁Тэдгээр	-4108
▁дурдсан	-4109
▁хадгалах	-4110
▁сургалтын	-4111
дэв	-4112
енз	-4113
▁хоосон	-4114
▁иргэдийг	-4115
▁хэлэлцэх	-4116
▁хугацаагаар	-4117
▁Гр	-4118
▁цаас	-4119
▁төсөө	-4120
▁саяхан	-4121
Ган	-4122
▁шор	-4123
▁хайл	-4124
▁эмээ	-4125
▁байрш	-4126
▁зугаа	-4127
▁хүндэтг	-4128
▁ашигласан	-4129
▁өнөөдрийн	-4130
▁цөм	-4131
▁Иймээс	-4132
▁ганцаар	-4133
өтг	-4134
гана	-4135
▁Ган	-4136
▁Эзэн	-4137
▁асуух	-4138
▁бүхэл	-4139
▁хөлбөмбөг	-4140
▁&	-4141
▁70	-4142
▁90	-4143
хондоо	-4144
▁онцлов	-4145
▁шоронд	-4146
▁олгодог	-4147
▁хүмүүстэй	-4148
▁шийдвэрийг	-4149
um	-4150
▁Шүүх	-4151
▁таср	-4152
ЭМ	-4153
етр	-4154
овш	-4155
▁Биз	-4156
▁ноц	-4157
▁Эхнэр	-4158
▁шигээ	-4159
▁америк	-4160
▁ээлжит	-4161
▁хэвээрээ	-4162
11	-4163
▁АТГ	-4164
▁вий	-4165
▁дөө	-4166
▁хүнс	-4167
▁хэлжээ	-4168
▁хүсэхгүй	-4169
өлдөр	-4170
▁нэгийг	-4171
ото	-4172
▁Хөдөл	-4173
▁ачаал	-4174
▁тамхи	-4175
▁юмсан	-4176
▁сайхны	-4177
▁утгаараа	-4178
▁байдалтай	-4179
өгс	-4180
▁(2	-4181
элгүй	-4182
▁хүйтэн	-4183
Ор	-4184
▁Айм	-4185
▁тайв	-4186
▁Дээрх	-4187
▁цорын	-4188
▁гарлаа	-4189
▁тээвэр	-4190
▁хаалга	-4191
▁төлөвлөж	-4192
▁загварын	-4193
▁орнуудын	-4194
▁хандлага	-4195
▁сангийн	-4196
▁ойлгосон	-4197
▁тодорхойлох	-4198
op	-4199
Хэр	-4200
эйс	-4201
▁Су	-4202
▁айлын	-4203
▁Өөрөө	-4204
acebook	-4205
▁Бизнес	-4206
▁аймагт	-4207
▁дэвсгэр	-4208
▁бууруулах	-4209
▁Z	-4210
гис	-4211
▁Жил	-4212
▁аял	-4213
▁жирэм	-4214
▁хичнээн	-4215
▁Заримдаа	-4216
▁гав	-4217
уулын	-4218
лөгчид	-4219
▁Газар	-4220
▁мэдэр	-4221
▁шугам	-4222
▁байтугай	-4223
▁ертөнцөд	-4224
▁Өөрийгөө	-4225
!!!!	-4226
гуур	-4227
▁500	-4228
▁унтаж	-4229
▁таатай	-4230
▁техник	-4231
▁анхаарлаа	-4232
▁Ай	-4233
▁нил	-4234
▁төвд	-4235
оронав	-4236
үүлжээ	-4237
үүллээ	-4238
▁хүсэлтэй	-4239
жиж	-4240
▁..	-4241
алсан	-4242
▁цэнэ	-4243
▁Мөнгө	-4244
▁төстэй	-4245
▁хүлээл	-4246
илаа	-4247
штай	-4248
▁Хэв	-4249
олтын	-4250
▁Хувь	-4251
▁хойд	-4252
▁ангид	-4253
▁хааны	-4254
up	-4255
СУ	-4256
офе	-4257
▁Жин	-4258
▁Хотын	-4259
▁дайны	-4260
оронавирус	-4261
▁Ад	-4262
▁каз	-4263
▁Интер	-4264
▁дутаг	-4265
▁нисэх	-4266
▁үүний	-4267
▁чадвал	-4268
▁анхаарч	-4269
▁бүлгийн	-4270
▁гаргана	-4271
▁хамтарч	-4272
▁өөрийнх	-4273
▁суралцах	-4274
▁хоорондын	-4275
▁харамсалтай	-4276
оён	-4277
▁Те	-4278
▁Там	-4279
▁цол	-4280
▁батлах	-4281
▁хангаж	-4282
▁үүсвэр	-4283
-201	-4284
итал	-4285
▁Итал	-4286
агдана	-4287
▁ойрын	-4288
▁хойно	-4289
▁өөрчилж	-4290
▁мэдэгдэл	-4291
ЫН	-4292
▁засах	-4293
▁үнийн	-4294
▁хардаг	-4295
!"	-4296
кт	-4297
олдл	-4298
▁сүн	-4299
▁дүрс	-4300
▁клуб	-4301
▁хайх	-4302
▁хөрш	-4303
▁бүжиг	-4304
▁Компан	-4305
▁багтаа	-4306
▁туршид	-4307
▁эрхгүй	-4308
▁төгсгөл	-4309
▁гишүүдийн	-4310
▁танилцуул	-4311
▁хийгээгүй	-4312
онт	-4313
▁Тат	-4314
▁шоу	-4315
▁үеэс	-4316
▁гадаа	-4317
▁тэрэг	-4318
▁чөлөөт	-4319
▁үүднээс	-4320
▁нэмэгдэж	-4321
▁санхүүжилт	-4322
ейн	-4323
▁St	-4324
чээр	-4325
▁Бор	-4326
▁тоог	-4327
▁үзэн	-4328
▁ойрхон	-4329
▁сонгож	-4330
▁түүнтэй	-4331
Дэл	-4332
айд	-4333
амб	-4334
амсар	-4335
▁Азийн	-4336
▁баялаг	-4337
▁гаралтай	-4338
▁197	-4339
▁шдээ	-4340
хүүгийн	-4341
▁тулгар	-4342
▁l	-4343
аст	-4344
▁га	-4345
▁Кар	-4346
▁төрж	-4347
аанаас	-4348
▁мэдэрч	-4349
ИН	-4350
▁магт	-4351
▁ахмад	-4352
▁тусам	-4353
▁Гурван	-4354
▁судалж	-4355
▁ариутгагч	-4356
▁тодорхойгүй	-4357
od	-4358
єр	-4359
ӨР	-4360
▁g	-4361
▁Биб	-4362
▁Дал	-4363
▁мэс	-4364
▁уруу	-4365
▁иржээ	-4366
▁нөхөн	-4367
▁бэлгийн	-4368
▁чанарыг	-4369
▁тоглоомын	-4370
▁Солонгосын	-4371
ваа	-4372
▁Хөл	-4373
▁бэх	-4374
▁гүйл	-4375
▁Зураг	-4376
▁амьдр	-4377
▁бүрийг	-4378
▁төвлөр	-4379
▁үйлдвэрлэлийн	-4380
оход	-4381
ьсон	-4382
▁Ийн	-4383
▁Google	-4384
▁түүхэн	-4385
▁хүртэлх	-4386
өнд	-4387
▁Од	-4388
▁Изра	-4389
▁дохи	-4390
▁Хэзээ	-4391
▁болгоно	-4392
ИС	-4393
лөн	-4394
▁борл	-4395
▁проц	-4396
▁илүүд	-4397
▁олимп	-4398
ологийн	-4399
▁Тэгсэн	-4400
▁харьцаа	-4401
▁сонирхож	-4402
▁цэвэрлэх	-4403
▁хэрэглэгч	-4404
ee	-4405
▁МУ	-4406
доггүй	-4407
лаагүй	-4408
▁дором	-4409
▁шүүмжл	-4410
▁илэрхийлж	-4411
ЭР	-4412
оооо	-4413
соор	-4414
▁Заг	-4415
емент	-4416
снээс	-4417
▁биен	-4418
▁тэвч	-4419
▁бүтээх	-4420
▁нэгний	-4421
▁болтугай	-4422
▁явуулсан	-4423
▁арьс	-4424
▁аргыг	-4425
▁тогтн	-4426
▁ардчил	-4427
▁дурсамж	-4428
▁Чух	-4429
▁Зүүн	-4430
▁Урьд	-4431
▁хаяж	-4432
▁угаах	-4433
▁ухаар	-4434
▁ногоон	-4435
▁төдийгүй	-4436
▁хүрээлэн	-4437
.0	-4438
▁x	-4439
эцэг	-4440
▁вэбсай	-4441
▁гарчээ	-4442
▁дуучин	-4443
▁хувьсгал	-4444
▁амьт	-4445
чихээд	-4446
▁нэмэх	-4447
▁станц	-4448
▁газраа	-4449
▁сурсан	-4450
▁хуралд	-4451
▁бодолтой	-4452
▁байгууллагууд	-4453
ers	-4454
аав	-4455
ямд	-4456
▁Чухлыг	-4457
▁Бу	-4458
▁196	-4459
▁Жон	-4460
▁Сал	-4461
▁Сир	-4462
▁гарт	-4463
▁цаана	-4464
▁үнэнийг	-4465
▁залуучууд	-4466
▁гам	-4467
▁халд	-4468
▁хэмн	-4469
лахгүй	-4470
▁авлиг	-4471
▁аймаг	-4472
▁болго	-4473
▁олгоно	-4474
▁амралтын	-4475
АШ	-4476
Хар	-4477
өөгүй	-4478
▁багц	-4479
▁манд	-4480
ийнхаа	-4481
▁муутай	-4482
▁сараас	-4483
▁хөгжиж	-4484
▁хөдлөх	-4485
▁Маргааш	-4486
▁мөнгөөр	-4487
▁биелүүлэх	-4488
▁үнэт	-4489
▁орчны	-4490
▁шийдэж	-4491
▁түүхийг	-4492
▁инээмсэг	-4493
▁нунтаглах	-4494
▁хөрөнгийн	-4495
▁бэрхшээлтэй	-4496
аалд	-4497
▁судл	-4498
▁үлдэх	-4499
▁манайх	-4500
▁талтай	-4501
лом	-4502
ого	-4503
▁тол	-4504
▁хангал	-4505
▁хүрээд	-4506
овср	-4507
рамп	-4508
▁инг	-4509
▁луй	-4510
▁эрсдэл	-4511
даан	-4512
▁Онц	-4513
▁таг	-4514
ation	-4515
▁далд	-4516
▁ирэв	-4517
▁нэрээр	-4518
▁шийдэл	-4519
Ер	-4520
атр	-4521
хныг	-4522
▁согт	-4523
ээлийн	-4524
▁хорио	-4525
▁зогсоох	-4526
▁нэрлэдэг	-4527
ab	-4528
сэл	-4529
▁Нас	-4530
өнгөн	-4531
▁Чингис	-4532
▁эхчүүд	-4533
ov	-4534
▁бүд	-4535
иудын	-4536
▁санд	-4537
▁спортын	-4538
▁бүтэц	-4539
▁хорих	-4540
▁суулгах	-4541
өц	-4542
▁Хич	-4543
▁шув	-4544
th	-4545
АМ	-4546
дэл	-4547
лсөн	-4548
▁бит	-4549
▁галт	-4550
▁усан	-4551
чилсэн	-4552
▁Иргэн	-4553
▁бүтээн	-4554
▁дундаж	-4555
▁4.	-4556
▁на	-4557
▁өч	-4558
анхуй	-4559
▁гарагт	-4560
▁тусдаа	-4561
▁хүүхэн	-4562
▁хийхээр	-4563
▁хэлмээр	-4564
лт	-4565
▁айх	-4566
▁диз	-4567
▁сайжр	-4568
▁буудал	-4569
▁зогсож	-4570
▁соёлын	-4571
▁хуулиар	-4572
▁Үйлдвэр	-4573
джээ	-4574
▁дад	-4575
▁захирал	-4576
▁төгссөн	-4577
▁хэлэхдээ	-4578
▁ойлгохгүй	-4579
ҮЙ	-4580
пон	-4581
▁29	-4582
▁Үнэ	-4583
▁новш	-4584
▁нөлөөлөх	-4585
ome	-4586
гчид	-4587
лгын	-4588
▁Мос	-4589
өгтэй	-4590
▁өгчих	-4591
▁ноцтой	-4592
▁тооцоо	-4593
▁туршилт	-4594
▁гараагүй	-4595
ong	-4596
ийв	-4597
Таны	-4598
ыгаа	-4599
▁Шал	-4600
иплом	-4601
▁гээч	-4602
ямдорж	-4603
▁шүүхийн	-4604
▁найдвартай	-4605
▁ариун	-4606
▁захид	-4607
▁татан	-4608
▁хүчээр	-4609
▁тавьдаг	-4610
еф	-4611
▁7-	-4612
▁жиг	-4613
▁боол	-4614
▁танил	-4615
▁буцааж	-4616
▁жирийн	-4617
▁ирэхэд	-4618
▁харгал	-4619
▁баталсан	-4620
▁орнуудад	-4621
ьяас	-4622
чнээн	-4623
▁1000	-4624
▁2000	-4625
▁бухим	-4626
▁зочид	-4627
▁төрөх	-4628
▁хаалт	-4629
:)	-4630
▁Үх	-4631
▁зун	-4632
▁нөхд	-4633
нуудыг	-4634
▁хатан	-4635
▁байтал	-4636
▁ирээдүйд	-4637
▁сэтгэлийг	-4638
av	-4639
..."	-4640
▁Гал	-4641
▁Дорн	-4642
▁чухам	-4643
▁зөвлөмж	-4644
ne	-4645
ахдаа	-4646
▁бөөн	-4647
▁талыг	-4648
▁үгээр	-4649
▁харуул	-4650
▁цөөхөн	-4651
ее	-4652
лэ	-4653
▁арь	-4654
эгдэх	-4655
▁мууд	-4656
▁цонх	-4657
▁Аливаа	-4658
▁руугаа	-4659
▁хоёулаа	-4660
▁хэрэглэгчид	-4661
үх	-4662
ект	-4663
сээ	-4664
▁6-	-4665
▁сун	-4666
▁авто	-4667
▁номыг	-4668
▁өмгөө	-4669
▁Эхлээд	-4670
▁санааг	-4671
▁түгээмэл	-4672
▁үргэлжлүүлэн	-4673
дэр	-4674
итой	-4675
▁Цэр	-4676
▁дам	-4677
▁ойрт	-4678
▁араас	-4679
▁цэрэг	-4680
▁бичээд	-4681
Баттулга	-4682
▁шалгуур	-4683
▁Дан	-4684
▁жор	-4685
▁хураа	-4686
▁эхлэл	-4687
▁жилдээ	-4688
▁суугаад	-4689
▁төгөлдөр	-4690
▁Re	-4691
▁дөх	-4692
▁камер	-4693
▁дэвшиг	-4694
▁байлгах	-4695
▁Жишээлбэл	-4696
▁бүтээгдэхүүнийг	-4697
авч	-4698
▁өмч	-4699
дааны	-4700
▁Эцэст	-4701
▁солих	-4702
▁бүрэлдэх	-4703
▁урлагийн	-4704
▁ухаантай	-4705
▁хэлэлцэж	-4706
▁хамгаалалт	-4707
II	-4708
иун	-4709
▁киног	-4710
▁зөвлөх	-4711
▁кинонд	-4712
▁ярилцаж	-4713
▁Цагдаагийн	-4714
▁шаардлагыг	-4715
вөр	-4716
▁гя	-4717
▁тэв	-4718
▁2021	-4719
▁унаг	-4720
▁явлаа	-4721
▁устгах	-4722
▁шийдэг	-4723
▁тулгуур	-4724
1-	-4725
Өн	-4726
Тийм	-4727
шний	-4728
▁Мөр	-4729
▁энх	-4730
▁дуусах	-4731
▁таарна	-4732
▁бидэнтэй	-4733
▁харьцуулахад	-4734
ack	-4735
амч	-4736
▁ОУ	-4737
бүүк	-4738
▁БНСУ	-4739
▁бууж	-4740
▁гэгч	-4741
▁дарх	-4742
▁Өндөр	-4743
▁бяцхан	-4744
▁татварын	-4745
эйл	-4746
эйн	-4747
Одоо	-4748
илан	-4749
▁App	-4750
▁үнэнч	-4751
▁тэгвэл	-4752
▁хоёрыг	-4753
▁хийгдсэн	-4754
▁санагдсан	-4755
▁тодорхойл	-4756
▁хичээлийн	-4757
▁үргэлжилж	-4758
ТХ	-4759
арм	-4760
дож	-4761
итр	-4762
▁гэн	-4763
▁юун	-4764
цгаая	-4765
▁Охин	-4766
▁нягт	-4767
▁ядуу	-4768
▁үзье	-4769
▁хэлье	-4770
▁дарамт	-4771
▁дэлгэр	-4772
▁сууцны	-4773
▁өөрөөр	-4774
),	-4775
▁You	-4776
▁Хат	-4777
лахад	-4778
▁морь	-4779
▁булан	-4780
▁Ийнхүү	-4781
▁сонгон	-4782
▁онгоцны	-4783
▁тэмдэглэл	-4784
▁хэмжээтэй	-4785
▁шд	-4786
▁Ардын	-4787
▁монголын	-4788
▁холбогдолтой	-4789
зэг	-4790
лээс	-4791
▁биед	-4792
▁тасал	-4793
▁бусдыг	-4794
▁удаагаа	-4795
▁утгатай	-4796
Хү	-4797
акт	-4798
▁Ут	-4799
▁Ху	-4800
гөөр	-4801
▁дом	-4802
▁Хамт	-4803
▁зөөлөн	-4804
▁сонсоод	-4805
ОО	-4806
үнш	-4807
▁300	-4808
▁ган	-4809
▁тавиг	-4810
▁гайгүй	-4811
▁зөвлөж	-4812
▁суугаа	-4813
▁наадмын	-4814
▁оруулалтын	-4815
АШТ	-4816
бод	-4817
исс	-4818
▁35	-4819
аааа	-4820
жийн	-4821
өлөг	-4822
▁уйл	-4823
иулах	-4824
▁зэвс	-4825
цаагүй	-4826
▁нислэг	-4827
▁байршил	-4828
▁төгрөгийн	-4829
▁тайлбарлаж	-4830
▁ажиллагаагаа	-4831
иль	-4832
▁Хүнд	-4833
▁эцэс	-4834
жуулах	-4835
▁дотно	-4836
▁хашаа	-4837
▁тавиад	-4838
▁тустай	-4839
▁гуравдугаар	-4840
lo	-4841
▁данс	-4842
▁уншсан	-4843
▁Тэднийг	-4844
▁сонгодог	-4845
илж	-4846
амжтай	-4847
▁үүрэгтэй	-4848
ak	-4849
ri	-4850
упп	-4851
▁давж	-4852
▁найм	-4853
▁аврах	-4854
▁хандив	-4855
▁эртний	-4856
▁амьдралдаа	-4857
ло	-4858
▁Тай	-4859
чихгүй	-4860
▁инээд	-4861
▁долларын	-4862
ext	-4863
иод	-4864
▁Хав	-4865
▁орш	-4866
▁зургаа	-4867
▁баригчид	-4868
▁нэмэгдсэн	-4869
▁батлагдсан	-4870
▁y	-4871
ube	-4872
▁үгс	-4873
▁доод	-4874
▁авалт	-4875
▁гадны	-4876
▁нийтлэг	-4877
▁оролцоо	-4878
▁насандаа	-4879
▁төрөлхтөн	-4880
hone	-4881
ынхан	-4882
▁цэгц	-4883
▁орших	-4884
▁хаашаа	-4885
▁сэргээх	-4886
▁хохирол	-4887
▁интернет	-4888
▁мөрөөдөл	-4889
%-	-4890
▁илэр	-4891
▁нааш	-4892
▁сурталчилгаа	-4893
▁мөч	-4894
▁агент	-4895
▁амжил	-4896
▁бороо	-4897
▁орноо	-4898
▁усанд	-4899
▁даасан	-4900
▁далайн	-4901
▁гишүүний	-4902
▁хамгаалж	-4903
▁амьдралаа	-4904
▁Энэтхэгийн	-4905
▁хэрэглэгчийн	-4906
▁8-	-4907
▁шүд	-4908
▁үүн	-4909
имийн	-4910
▁нээж	-4911
▁Албан	-4912
▁хүнээ	-4913
▁бариад	-4914
▁баярлаж	-4915
▁талбайд	-4916
▁харилцааны	-4917
таж	-4918
▁Яр	-4919
▁кофе	-4920
▁нөхр	-4921
▁дийлэн	-4922
▁суусан	-4923
үүлэгчид	-4924
▁аваагүй	-4925
▁автомат	-4926
▁дэмждэг	-4927
▁хичээдэг	-4928
▁харьцангуй	-4929
▁Шв	-4930
еб	-4931
банк	-4932
ишиг	-4933
лөгд	-4934
▁дог	-4935
эгчид	-4936
▁замд	-4937
▁зовж	-4938
▁хорт	-4939
▁мөрөө	-4940
▁тодотг	-4941
▁нэвтрүүл	-4942
▁тэтгэвэр	-4943
▁Британийн	-4944
▁илэрхийлэх	-4945
▁айдас	-4946
▁дахиж	-4947
▁улсаас	-4948
▁эхэлдэг	-4949
▁үзэгдэл	-4950
▁нөлөөлдөг	-4951
агтай	-4952
▁төсв	-4953
▁Трамп	-4954
▁луйвар	-4955
▁нөлөөлж	-4956
▁гадаадад	-4957
▁хүчирхэг	-4958
го	-4959
▁Дур	-4960
▁Хэт	-4961
▁Тэгж	-4962
жаргал	-4963
▁хараа	-4964
▁мэтээр	-4965
▁утсаар	-4966
▁хүрэлц	-4967
▁үгүйсг	-4968
▁байдгийг	-4969
За	-4970
▁<	-4971
мэлз	-4972
▁авр	-4973
луулж	-4974
▁галзуу	-4975
▁байсаар	-4976
▁зэргийн	-4977
▁Facebook	-4978
▁Нийгмийн	-4979
▁байдлаас	-4980
▁харуулсан	-4981
.3	-4982
аф	-4983
▁бгаа	-4984
▁залх	-4985
▁тодр	-4986
▁Бидэнд	-4987
▁биздээ	-4988
▁засагт	-4989
▁хэчнээн	-4990
▁үнэмлэх	-4991
▁төлөөлөгч	-4992
тол	-4993
луулсан	-4994
▁нэгэнт	-4995
▁хангалуун	-4996
.5	-4997
оож	-4998
▁фр	-4999
Мөнх	-5000
дана	-5001
▁инж	-5002
▁лам	-5003
гуулах	-5004
▁Анхны	-5005
▁Африк	-5006
▁чадаж	-5007
▁гэрээг	-5008
▁байгаан	-5009
▁тохиролц	-5010
▁тохирсон	-5011
▁ярилцлага	-5012
аль	-5013
аанч	-5014
▁20-	-5015
▁зуны	-5016
▁унаж	-5017
▁Орчин	-5018
▁улсыг	-5019
▁солилц	-5020
▁Үүнтэй	-5021
▁зөрчсөн	-5022
▁ханддаг	-5023
99	-5024
ore	-5025
Оюун	-5026
▁ккк	-5027
▁төм	-5028
сүрэн	-5029
▁Дээд	-5030
▁хэтр	-5031
▁зориу	-5032
▁зохих	-5033
▁Улмаар	-5034
▁талдаа	-5035
▁сүүлчийн	-5036
▁мэдээллээ	-5037
чи	-5038
ьер	-5039
үрэв	-5040
▁194	-5041
▁уншаад	-5042
уулалтын	-5043
▁больсон	-5044
▁Хүүхдүүд	-5045
▁дуудлага	-5046
▁эхлүүлэх	-5047
атай	-5048
өдөг	-5049
▁нул	-5050
▁ойл	-5051
өлгөө	-5052
▁өгье	-5053
▁Бүсгүй	-5054
▁дулаан	-5055
▁санаанд	-5056
▁шаардаг	-5057
ss	-5058
одоо	-5059
▁гаж	-5060
аасай	-5061
▁явдл	-5062
▁өвөө	-5063
▁харна	-5064
▁эрмэлз	-5065
▁үйлдвэрлэх	-5066
▁сэтгэлээсээ	-5067
▁өөрчлөгдсөн	-5068
▁Банк	-5069
▁даван	-5070
▁дагав	-5071
▁амралт	-5072
▁шүүхэд	-5073
▁процесс	-5074
▁хайрлаж	-5075
▁захиалга	-5076
▁ирээдүйн	-5077
▁тэмдэглэж	-5078
▁харагдана	-5079
▁Өөрийнхөө	-5080
▁Дэлгэрэнгүй	-5081
єн	-5082
▁on	-5083
▁ич	-5084
нөөс	-5085
Алтан	-5086
▁ихэд	-5087
▁таал	-5088
нуудын	-5089
▁буцах	-5090
▁гуниг	-5091
▁Цаашид	-5092
▁Чамайг	-5093
▁шөнийн	-5094
▁тоглогч	-5095
▁автомашин	-5096
12	-5097
ни	-5098
ийд	-5099
▁Зохи	-5100
▁зайлс	-5101
▁дундуур	-5102
▁оруулна	-5103
▁хүүхдүүдэд	-5104
өт	-5105
▁Ch	-5106
▁Авт	-5107
ентын	-5108
▁юуны	-5109
▁Судал	-5110
▁тариал	-5111
▁үйлчил	-5112
▁агуулга	-5113
▁хөөрхий	-5114
▁эхэлжээ	-5115
▁тоглосон	-5116
ЗЭН	-5117
▁гүр	-5118
▁муз	-5119
архал	-5120
▁хөлс	-5121
▁гутал	-5122
▁хаалг	-5123
▁баатар	-5124
▁дагаад	-5125
▁нэрийн	-5126
▁хөнгөн	-5127
▁багагүй	-5128
▁олдохгүй	-5129
▁үзүүлсэн	-5130
▁Сонгуулийн	-5131
мэн	-5132
▁Кр	-5133
шүүр	-5134
▁Яах	-5135
▁маяг	-5136
ээнээс	-5137
▁авчээ	-5138
▁доорх	-5139
▁дэмий	-5140
▁бодвол	-5141
▁нөлөөл	-5142
▁секунд	-5143
▁дэлхийг	-5144
▁хөгжмийн	-5145
еп	-5146
▁+	-5147
▁11-	-5148
▁айлд	-5149
▁тойм	-5150
▁нээгд	-5151
▁зэвсэг	-5152
▁сайтай	-5153
▁үзэхэд	-5154
Хүрэлсүх	-5155
▁арилгах	-5156
▁Ингэхдээ	-5157
▁түүнийгээ	-5158
▁байгаагаар	-5159
ik	-5160
ҮТ	-5161
ang	-5162
илл	-5163
ддаг	-5164
▁стат	-5165
▁үхэх	-5166
▁Нийгэм	-5167
▁эрхлэх	-5168
▁байснаа	-5169
▁сэтгэлд	-5170
▁компанид	-5171
▁даатгалын	-5172
▁асуудалтай	-5173
▁захиргааны	-5174
▁тасралтгүй	-5175
▁хэрэглээний	-5176
iss	-5177
авх	-5178
▁Гай	-5179
▁шашны	-5180
▁түргэн	-5181
▁хиймэл	-5182
▁ирэхгүй	-5183
▁асуудлын	-5184
▁тамирчин	-5185
▁удирдагч	-5186
▁зөвлөлийн	-5187
▁бн	-5188
андан	-5189
▁Дунд	-5190
▁хурц	-5191
▁эхээр	-5192
▁завгүй	-5193
▁өдрүүд	-5194
▁өдрөөс	-5195
дыг	-5196
▁An	-5197
▁of	-5198
окур	-5199
хины	-5200
▁Нью	-5201
▁унд	-5202
▁Найр	-5203
▁урьж	-5204
▁үнийг	-5205
▁Саяхан	-5206
▁явдлыг	-5207
▁Боловср	-5208
▁Германы	-5209
▁хулгайч	-5210
▁Өчигдөр	-5211
▁хүлээсэн	-5212
▁Нэгдүгээр	-5213
▁системийн	-5214
▁Хон	-5215
▁Ядаж	-5216
▁өвөл	-5217
▁Ирээд	-5218
▁арилж	-5219
▁ихийг	-5220
уулахыг	-5221
▁амлалт	-5222
▁өвчний	-5223
▁багатай	-5224
▁шуурхай	-5225
▁Зам	-5226
▁Илүү	-5227
▁хэний	-5228
▁сайтар	-5229
▁судлах	-5230
▁баймаар	-5231
▁дархлаа	-5232
▁хамаарна	-5233
▁Хоёрдугаар	-5234
▁Ук	-5235
члон	-5236
▁2007	-5237
▁бэлд	-5238
▁метр	-5239
▁түнш	-5240
▁билүү	-5241
▁дулаа	-5242
▁медаль	-5243
▁наймаа	-5244
▁Эрэгтэй	-5245
▁байгаам	-5246
▁дутагдал	-5247
дох	-5248
мөц	-5249
ооч	-5250
▁Аж	-5251
ment	-5252
▁Пут	-5253
▁үер	-5254
дгийг	-5255
олсон	-5256
▁олгож	-5257
▁санах	-5258
▁тутам	-5259
▁жилээр	-5260
▁татсан	-5261
▁тухтай	-5262
▁улсууд	-5263
▁хэнийг	-5264
▁засаглал	-5265
ОР	-5266
▁хум	-5267
▁мөнх	-5268
▁эрэлт	-5269
▁завсар	-5270
▁менежер	-5271
▁зохицуулалт	-5272
УР	-5273
та	-5274
▁The	-5275
▁2006	-5276
▁төлж	-5277
огддог	-5278
▁алдар	-5279
▁хуваа	-5280
▁ашгийг	-5281
▁төвийн	-5282
▁вэбсайт	-5283
▁ирээгүй	-5284
▁орохгүй	-5285
▁өгөөгүй	-5286
▁зөвшөөрч	-5287
▁Мэргэжлийн	-5288
▁зөвшөөрсөн	-5289
▁Яаж	-5290
▁Машин	-5291
▁аялах	-5292
▁элдэв	-5293
▁өнцөг	-5294
▁бичдэг	-5295
▁бичжээ	-5296
▁диплом	-5297
▁чимээгүй	-5298
ук	-5299
ord	-5300
▁Уур	-5301
▁хөтл	-5302
агчдын	-5303
▁охины	-5304
▁хамаг	-5305
Нэг	-5306
▁ям	-5307
үүлт	-5308
ацарт	-5309
ашгүй	-5310
оосой	-5311
▁чанга	-5312
▁шийтг	-5313
▁дуугар	-5314
▁мэдрэх	-5315
ууруулах	-5316
▁ажилчид	-5317
▁дийлэнх	-5318
▁ерөөсөө	-5319
▁түлхүүр	-5320
▁хадгалж	-5321
li	-5322
иос	-5323
хын	-5324
▁Уу	-5325
▁кг	-5326
уулт	-5327
▁Хий	-5328
▁Чин	-5329
▁шүт	-5330
уулаа	-5331
▁тоон	-5332
▁хань	-5333
▁нэгэнд	-5334
▁хэрнээ	-5335
▁шатанд	-5336
▁Байгуул	-5337
▁Бурханд	-5338
▁Сангийн	-5339
▁асуудлууд	-5340
Бол	-5341
двал	-5342
өхөд	-5343
▁Ойр	-5344
▁унтр	-5345
▁харц	-5346
▁Мэдээ	-5347
▁Элчин	-5348
▁дууны	-5349
▁хачин	-5350
▁хуруу	-5351
▁Байгаль	-5352
▁хэрэгжиж	-5353
▁ууд	-5354
ахаас	-5355
▁энер	-5356
▁болсныг	-5357
▁нэгнийг	-5358
▁дотоодын	-5359
▁илэрхийлсэн	-5360
▁хамааралтай	-5361
шд	-5362
▁-"	-5363
сангүй	-5364
▁ундаа	-5365
▁авьяас	-5366
▁дэвших	-5367
▁нартай	-5368
▁тусалж	-5369
▁бусдаас	-5370
▁газрууд	-5371
▁шаарддаг	-5372
▁чадсангүй	-5373
OL	-5374
ия	-5375
ard	-5376
мун	-5377
▁in	-5378
илал	-5379
гадаг	-5380
▁занг	-5381
▁бүтээлч	-5382
▁нутгаар	-5383
▁явахгүй	-5384
▁угаалгын	-5385
▁харанхуй	-5386
аныг	-5387
▁офф	-5388
гээрэй	-5389
▁эвгүй	-5390
▁ялалт	-5391
руулбал	-5392
▁хөнгөл	-5393
▁авахаар	-5394
▁угаасаа	-5395
▁асуудлаа	-5396
▁шинжилгээний	-5397
ob	-5398
да	-5399
ех	-5400
ск	-5401
▁Жир	-5402
▁Жижиг	-5403
▁Японд	-5404
▁Холбоо	-5405
▁үүргээ	-5406
▁Удахгүй	-5407
эрэл	-5408
▁сүм	-5409
үүдээс	-5410
▁харья	-5411
▁Хөдөлм	-5412
▁хурлын	-5413
▁үүсгэх	-5414
▁Францын	-5415
▁холбогдол	-5416
▁хүмүүсээс	-5417
ОХ	-5418
▁Сүх	-5419
▁талб	-5420
лагчид	-5421
▁сууна	-5422
▁уншиг	-5423
▁Сонирх	-5424
▁дундаа	-5425
▁явахад	-5426
▁баримтал	-5427
▁бүхэндээ	-5428
оз	-5429
▁9-	-5430
▁цо	-5431
▁Хүс	-5432
▁үнс	-5433
чихаж	-5434
чихна	-5435
▁Цахим	-5436
▁мэдэл	-5437
▁хүрээ	-5438
▁суудаг	-5439
▁олгосон	-5440
▁өөрөөсөө	-5441
▁гарцаагүй	-5442
▁бүртгэлийн	-5443
ce	-5444
сандаа	-5445
эврийн	-5446
▁хаагч	-5447
▁заавар	-5448
▁ертөнцийн	-5449
Ир	-5450
▁45	-5451
▁Чу	-5452
аард	-5453
▁Хаа	-5454
▁тагн	-5455
уулжээ	-5456
▁Газрын	-5457
▁бөхийн	-5458
▁ажилгүй	-5459
▁хүүгийн	-5460
▁хараахан	-5461
▁Санхүүгийн	-5462
▁үйлдвэрлэгч	-5463
all	-5464
ахаа	-5465
сууд	-5466
эмжл	-5467
▁Бал	-5468
оодог	-5469
▁живх	-5470
▁эмзэг	-5471
эйсбүүк	-5472
▁зорчиг	-5473
▁хичээж	-5474
ДҮ	-5475
алю	-5476
орч	-5477
▁км	-5478
▁тр	-5479
▁Заа	-5480
▁Хүр	-5481
гдсан	-5482
гээний	-5483
лээгүй	-5484
▁шүүгч	-5485
▁Тэнгэр	-5486
▁тэтгэл	-5487
▁үзүүлдэг	-5488
▁тавдугаар	-5489
НД	-5490
▁аяга	-5491
▁төөр	-5492
доллар	-5493
▁булаа	-5494
нүүдийн	-5495
▁Гэртээ	-5496
▁үйлдсэн	-5497
▁хангасан	-5498
ӨӨ	-5499
com	-5500
лаач	-5501
▁Win	-5502
▁өгөг	-5503
▁Өөрсд	-5504
▁Манайх	-5505
▁тутамд	-5506
▁шигшээ	-5507
▁Хятадад	-5508
▁зайлсхий	-5509
▁шалтгаанаар	-5510
▁ХҮ	-5511
охыг	-5512
▁шүр	-5513
▁өрх	-5514
▁загас	-5515
тэйгээр	-5516
▁гараар	-5517
▁гэрэлт	-5518
▁махбод	-5519
▁нээрээ	-5520
▁унасан	-5521
▁гаргажээ	-5522
▁Оюутолгой	-5523
▁ардчилсан	-5524
▁өөрчлөгдөж	-5525
▁хом	-5526
▁саат	-5527
▁Хөдөө	-5528
▁зөрүү	-5529
▁хүсэх	-5530
▁эхлэв	-5531
▁үнээр	-5532
▁улирал	-5533
▁цохилт	-5534
▁зургийн	-5535
▁тоглодог	-5536
▁зохицуулах	-5537
ЕГ	-5538
гас	-5539
ерр	-5540
цэн	-5541
згий	-5542
▁сүү	-5543
эгддэг	-5544
▁Бүтээ	-5545
▁багадаа	-5546
▁явагдаж	-5547
▁өвөрмөц	-5548
▁сэтгүүлч	-5549
▁удирдлагын	-5550
▁холбоотойгоор	-5551
▁иж	-5552
длөө	-5553
омын	-5554
▁дов	-5555
▁Баян	-5556
▁ЭЗЭН	-5557
▁олиг	-5558
▁хори	-5559
▁яамны	-5560
▁Дотоод	-5561
▁алдарт	-5562
▁бутлах	-5563
▁болгонд	-5564
▁зарласан	-5565
▁нүүрсний	-5566
▁удирдлага	-5567
▁нэвтрүүлэг	-5568
▁=	-5569
галт	-5570
▁Каз	-5571
▁идсэн	-5572
▁Хуучин	-5573
▁эрсдэлтэй	-5574
▁Монголбанк	-5575
Эл	-5576
өч	-5577
раф	-5578
ынх	-5579
элэн	-5580
▁сэж	-5581
▁хош	-5582
▁анхаарлыг	-5583
▁мэдэгджээ	-5584
▁бүрэлдэхүүн	-5585
ѳѳ	-5586
▁Хөв	-5587
▁цас	-5588
▁ДАШТ	-5589
▁зарах	-5590
▁нэлээн	-5591
▁тэмцэж	-5592
▁хамрагдах	-5593
:1	-5594
AR	-5595
▁Q	-5596
цан	-5597
онгор	-5598
▁Араб	-5599
▁Техн	-5600
▁бүүр	-5601
▁хоцр	-5602
▁үгээ	-5603
▁Бараг	-5604
▁Манайд	-5605
▁харвал	-5606
▁цөмийн	-5607
▁байрлах	-5608
▁түүхэнд	-5609
▁ургамал	-5610
▁суралцаж	-5611
▁уламжлалт	-5612
▁тив	-5613
▁туй	-5614
▁илтг	-5615
▁Дахин	-5616
▁хүрнэ	-5617
▁эхийн	-5618
▁туршиж	-5619
үүлэхийг	-5620
▁цэнэтэй	-5621
▁зэрэгцээ	-5622
▁байгаагийн	-5623
▁хүүхдүүдийн	-5624
▁холбогдуулан	-5625
унк	-5626
▁1,	-5627
dows	-5628
▁Хая	-5629
▁Моск	-5630
▁Түүх	-5631
▁Өвөр	-5632
▁Агаар	-5633
▁механ	-5634
▁өгөгд	-5635
▁Дорнод	-5636
▁Тоглоо	-5637
▁тулгам	-5638
▁өвчтөн	-5639
▁амаргүй	-5640
▁зохиолч	-5641
▁бодлогыг	-5642
▁санагдаад	-5643
▁системийг	-5644
▁ашиглалтад	-5645
▁танилцуулж	-5646
мэг	-5647
▁авъя	-5648
▁чарм	-5649
▁авгай	-5650
▁төгрөгөөр	-5651
▁HD	-5652
адад	-5653
атур	-5654
▁Най	-5655
▁амс	-5656
▁урв	-5657
уулав	-5658
ээсэй	-5659
▁зург	-5660
▁гараг	-5661
▁оргил	-5662
ао	-5663
иур	-5664
****	-5665
ориг	-5666
▁евр	-5667
▁Амар	-5668
▁наадамд	-5669
▁хандсан	-5670
▁талаараа	-5671
▁явуулдаг	-5672
▁үндэстэн	-5673
▁зогсохгүй	-5674
▁онлайнаар	-5675
ate	-5676
▁ойн	-5677
өлдөө	-5678
▁Хаан	-5679
элтийн	-5680
▁Apple	-5681
▁Испан	-5682
▁алтан	-5683
▁орлоо	-5684
▁урагш	-5685
▁халамж	-5686
▁шаардаж	-5687
▁өргөдөл	-5688
УУЛ	-5689
гэг	-5690
лөж	-5691
▁36	-5692
лагад	-5693
▁Асууд	-5694
▁Таван	-5695
▁дарна	-5696
▁цэнэг	-5697
▁шүлэг	-5698
▁биедээ	-5699
▁маркет	-5700
▁хайрлах	-5701
▁санаатай	-5702
▁зарцуулах	-5703
25	-5704
вас	-5705
▁УБ	-5706
эхэн	-5707
▁өгчээ	-5708
▁Тэгэхэд	-5709
▁болгоомж	-5710
▁техникийн	-5711
▁уучлаарай	-5712
▁цэцэрлэгт	-5713
▁байгуулалт	-5714
ra	-5715
ts	-5716
ооно	-5717
удит	-5718
▁Орой	-5719
▁тунх	-5720
▁Нөхөр	-5721
үүлэхэд	-5722
▁Америкт	-5723
▁бодоход	-5724
▁холбоос	-5725
▁хүүхэлд	-5726
40	-5727
▁Дуу	-5728
▁сүнс	-5729
▁хамтр	-5730
▁дараахь	-5731
▁ойлголц	-5732
▁эрдэмтэд	-5733
ine	-5734
ууль	-5735
нээсээ	-5736
▁Жүжиг	-5737
▁иддэг	-5738
▁нэрээ	-5739
▁чадал	-5740
гүүдийн	-5741
▁авахын	-5742
▁сэтгэлээ	-5743
▁хүргэсэн	-5744
эб	-5745
▁iP	-5746
адар	-5747
▁жиш	-5748
▁зүү	-5749
▁эмх	-5750
▁Мөнх	-5751
▁зарж	-5752
▁сүйр	-5753
▁мэндэд	-5754
▁хэрүүл	-5755
▁ажилтай	-5756
▁машиныг	-5757
▁тогтоож	-5758
▁гэрчилгээ	-5759
▁үргэлжлэх	-5760
▁урамшуулал	-5761
ous	-5762
ард	-5763
▁жол	-5764
▁луу	-5765
илтын	-5766
▁Секс	-5767
▁дуулж	-5768
▁нуруу	-5769
▁хөнөө	-5770
▁жилээс	-5771
▁сууриа	-5772
▁хэрээр	-5773
▁асуусан	-5774
▁есдүгээр	-5775
▁суурьтай	-5776
▁байгууламж	-5777
▁хамтлагийн	-5778
▁Хад	-5779
▁Шар	-5780
ийгаа	-5781
▁Чамд	-5782
▁гүүр	-5783
▁устг	-5784
▁оновч	-5785
▁түмэнд	-5786
▁төрөөс	-5787
▁хийжээ	-5788
▁өнгөрч	-5789
▁буруутай	-5790
▁хамаатай	-5791
▁хуваарил	-5792
▁коронавирус	-5793
22	-5794
uck	-5795
▁об	-5796
▁юү	-5797
▁Бул	-5798
▁тааш	-5799
▁тонн	-5800
▁түйм	-5801
▁хянах	-5802
▁Дуучин	-5803
▁гайхаж	-5804
▁зурагт	-5805
▁тэжээл	-5806
▁хөдөлг	-5807
▁хүрээгүй	-5808
бил	-5809
ост	-5810
▁5.	-5811
▁to	-5812
вшин	-5813
▁толь	-5814
▁Замын	-5815
▁Хувийн	-5816
▁гэхээс	-5817
▁талбар	-5818
▁хуурай	-5819
▁гүнзгий	-5820
▁дээгүүр	-5821
▁түүхтэй	-5822
▁бололцоо	-5823
▁дөрөвдүгээр	-5824
))	-5825
уны	-5826
▁зорьж	-5827
▁хөлөг	-5828
гүүдийг	-5829
▁бүхнээ	-5830
▁хүүгээ	-5831
ЭД	-5832
▁Май	-5833
ашины	-5834
өөрэй	-5835
▁онош	-5836
нийхээ	-5837
▁амрах	-5838
▁чимэг	-5839
▁шатах	-5840
▁биенээ	-5841
▁Аймгийн	-5842
▁менежмент	-5843
gu	-5844
хаар	-5845
▁Муу	-5846
▁Оюу	-5847
▁Соё	-5848
гавар	-5849
▁нүүрс	-5850
▁Хуулийн	-5851
▁уучлалт	-5852
▁гаргалаа	-5853
▁мэдэгдэж	-5854
▁хэлэхгүй	-5855
▁даалгавар	-5856
▁хэвлэлийн	-5857
ВС	-5858
уяг	-5859
▁оё	-5860
тлөө	-5861
▁Төгс	-5862
▁үүсг	-5863
▁групп	-5864
▁саван	-5865
▁ялгар	-5866
▁амттай	-5867
▁Биднийг	-5868
▁нөөцийн	-5869
▁ороогүй	-5870
▁интернэт	-5871
▁гүйцэтгэж	-5872
▁нөлөөлсөн	-5873
▁сонгогдсон	-5874
▁бүртгэгдсэн	-5875
▁хөтөлбөрийг	-5876
5-	-5877
ft	-5878
ГА	-5879
est	-5880
▁st	-5881
цийг	-5882
▁Сүн	-5883
▁Хул	-5884
▁Хөөр	-5885
▁Шууд	-5886
▁эмийн	-5887
▁бүтээж	-5888
▁тансаг	-5889
▁тооцох	-5890
▁хилийн	-5891
▁тулгарч	-5892
▁шалгалтын	-5893
.00	-5894
ast	-5895
▁31	-5896
▁Яв	-5897
логч	-5898
▁цоо	-5899
▁(201	-5900
▁Тогт	-5901
▁үдэш	-5902
▁голын	-5903
▁кинон	-5904
▁илгээх	-5905
▁улирлын	-5906
▁хуурамч	-5907
▁жирэмсэн	-5908
▁зориулан	-5909
▁хэрэгжилт	-5910
qu	-5911
гон	-5912
эмт	-5913
▁Кон	-5914
▁Сэр	-5915
▁ром	-5916
естор	-5917
▁Аюул	-5918
▁хэвш	-5919
тэйгөө	-5920
▁даваа	-5921
▁дорой	-5922
▁эрхээ	-5923
▁өмнөд	-5924
▁тахлын	-5925
▁оновчтой	-5926
▁хамааран	-5927
▁~	-5928
rev	-5929
иор	-5930
гоос	-5931
▁195	-5932
▁Зар	-5933
▁Хөх	-5934
цэцэг	-5935
▁бүлг	-5936
▁Ангилал	-5937
▁зээлийг	-5938
▁уулзсан	-5939
▁цэвэрлэг	-5940
▁ялгаагүй	-5941
▁гаргахгүй	-5942
▁төлбөрийн	-5943
▁чиглэлийн	-5944
▁шалтгааныг	-5945
ерв	-5946
▁да	-5947
▁Оюун	-5948
▁асан	-5949
▁гард	-5950
▁функ	-5951
▁гэтэл	-5952
▁эмгэн	-5953
▁дизайн	-5954
▁төсөвт	-5955
▁бодитой	-5956
▁дэмжсэн	-5957
▁сэтгэлтэй	-5958
▁хүсэлтийг	-5959
▁хөтөлбөрт	-5960
▁жагсаалтыг	-5961
▁тэдгээрийг	-5962
▁Зав	-5963
▁тох	-5964
▁цам	-5965
ацтай	-5966
▁боом	-5967
▁Эндээс	-5968
▁хэрэгл	-5969
▁зөвшөөрөх	-5970
▁Тодруулбал	-5971
▁ойролцоогоор	-5972
▁12-	-5973
▁жар	-5974
▁Home	-5975
▁дээл	-5976
▁месс	-5977
огчийн	-5978
тэлгүй	-5979
▁үгийн	-5980
▁албанд	-5981
▁гарвал	-5982
▁нийслэлийн	-5983
▁удирдлагууд	-5984
▁өөрчлөлтийг	-5985
дөж	-5986
ууц	-5987
▁32	-5988
Хүүх	-5989
олон	-5990
▁15-	-5991
▁даж	-5992
▁яруу	-5993
өгчийн	-5994
▁Намын	-5995
▁гадаг	-5996
▁далай	-5997
▁засал	-5998
▁театр	-5999
▁эхэнд	-6000
▁үхсэн	-6001
нүүдийг	-6002
▁Баруун	-6003
▁доторх	-6004
▁нүдэнд	-6005
▁дэвшигч	-6006
▁чиглэлд	-6007
▁ярилцах	-6008
▁талархаж	-6009
▁төлөвлөсөн	-6010
ль	-6011
лик	-6012
▁Sh	-6013
абор	-6014
гээе	-6015
лонг	-6016
эхээ	-6017
▁гээ	-6018
▁Удир	-6019
▁сунг	-6020
▁айдаг	-6021
▁тосны	-6022
жуулагч	-6023
▁нарийв	-6024
▁сурагч	-6025
▁тунхаг	-6026
▁хийвэл	-6027
▁үүсгэн	-6028
чилгааны	-6029
▁өгөхийг	-6030
▁Бурханыг	-6031
▁жижигхэн	-6032
▁өнөөдрийг	-6033
▁байгуулалтын	-6034
▁Эрд	-6035
▁шун	-6036
▁буян	-6037
▁нэвт	-6038
▁ордны	-6039
▁дараал	-6040
▁рүүгээ	-6041
▁суурин	-6042
▁орлогын	-6043
▁өрсөлдөх	-6044
▁хамтарсан	-6045
▁тодорхойлолт	-6046
ГҮЙ	-6047
Улс	-6048
луу	-6049
хэгт	-6050
▁Ашиг	-6051
▁голд	-6052
чихвал	-6053
▁уулын	-6054
▁Нэгэнт	-6055
▁олдсон	-6056
▁явдлын	-6057
▁Жинхэнэ	-6058
▁иргэдээ	-6059
▁тэвчээр	-6060
▁хүндрэл	-6061
▁Христийн	-6062
▁хэлээгүй	-6063
▁хүмүүсээ	-6064
▁борлуулах	-6065
▁тоглолтын	-6066
▁хажуугаар	-6067
▁аян	-6068
шгийн	-6069
энхэр	-6070
▁заяа	-6071
▁саар	-6072
▁тийш	-6073
▁цаад	-6074
хэндээ	-6075
▁зовох	-6076
▁учрыг	-6077
▁өвгөн	-6078
▁илтгэл	-6079
▁таагүй	-6080
▁өөрийг	-6081
▁өнгөтэй	-6082
▁хэлснээр	-6083
▁хугацаатай	-6084
Йор	-6085
лого	-6086
▁the	-6087
алдах	-6088
үүлэв	-6089
▁Турк	-6090
▁осол	-6091
▁хаал	-6092
▁ногоо	-6093
▁үеийг	-6094
▁Шилдэг	-6095
▁амьтад	-6096
▁эргэлт	-6097
▁дундаас	-6098
▁таарсан	-6099
▁Холбооны	-6100
▁гайхамшигтай	-6101
oc	-6102
лад	-6103
рөөс	-6104
▁ЖДҮ	-6105
▁жим	-6106
дөггүй	-6107
▁ардын	-6108
▁насыг	-6109
▁хавар	-6110
▁хүчил	-6111
▁Үргэл	-6112
▁ордонд	-6113
▁борлуул	-6114
▁ирэхээр	-6115
▁охинтой	-6116
▁түүхийн	-6117
▁хуралдаан	-6118
▁телевизийн	-6119
▁зориулагдсан	-6120
ry	-6121
▁цу	-6122
чдод	-6123
▁Алд	-6124
▁2005	-6125
▁зардлыг	-6126
▁санааны	-6127
▁хаагчид	-6128
▁байснаас	-6129
▁Улаанбаат	-6130
▁үзэсгэлэнтэй	-6131
Гэр	-6132
Хам	-6133
дам	-6134
ганд	-6135
▁Ази	-6136
▁Жич	-6137
▁зэс	-6138
лахыг	-6139
▁ачаа	-6140
▁хаха	-6141
▁Олимп	-6142
▁хоёул	-6143
▁юманд	-6144
▁дээрэм	-6145
▁жоохон	-6146
▁нилээд	-6147
▁хорвоо	-6148
▁тушаалт	-6149
▁шалтгаал	-6150
▁амжилтанд	-6151
▁суурилсан	-6152
▁байгаагаас	-6153
.)	-6154
ill	-6155
гэш	-6156
раа	-6157
Амар	-6158
адан	-6159
лоно	-6160
▁Нүд	-6161
▁ноён	-6162
▁онол	-6163
▁тоос	-6164
▁цохи	-6165
▁Алтан	-6166
▁Путин	-6167
▁сургаа	-6168
▁хоолоо	-6169
▁Өдрийн	-6170
▁чадварыг	-6171
▁байгаасай	-6172
▁тохиолдсон	-6173
▁шалгаруулалт	-6174
ED	-6175
▁Ег	-6176
▁музей	-6177
▁олоод	-6178
▁салах	-6179
▁өртөг	-6180
▁гаригт	-6181
▁ажиллаг	-6182
▁сонгоно	-6183
▁тойронд	-6184
▁удирдаж	-6185
▁хувьдаа	-6186
▁зоригтой	-6187
▁жагсаалтад	-6188
лас	-6189
▁Эв	-6190
▁Нут	-6191
▁зул	-6192
лодог	-6193
лүүлж	-6194
лүүлнэ	-6195
үүлийн	-6196
▁Шаард	-6197
▁бичнэ	-6198
▁өдгөө	-6199
▁прокур	-6200
▁химийн	-6201
▁бэлтгэх	-6202
▁хүртсэн	-6203
▁эзэмших	-6204
▁элемент	-6205
▁хөдөлмөрийн	-6206
▁хариуцлагатай	-6207
нах	-6208
чуур	-6209
▁Эмч	-6210
▁түү	-6211
▁өсч	-6212
▁чийг	-6213
▁шавь	-6214
▁өмчл	-6215
▁Ариун	-6216
▁утсаа	-6217
▁барилг	-6218
▁өвчтэй	-6219
▁Хөрөнгө	-6220
▁солонгос	-6221
▁хүсээгүй	-6222
▁ертөнцийг	-6223
▁хайрладаг	-6224
▁жуулчлалын	-6225
.4	-6226
ьц	-6227
ess	-6228
Бай	-6229
Нам	-6230
енн	-6231
хэд	-6232
▁Гиш	-6233
▁эрэл	-6234
▁өрөв	-6235
▁шилжих	-6236
антолгой	-6237
▁Windows	-6238
▁зүйлээс	-6239
▁санаачил	-6240
▁санагдана	-6241
▁тодорхойлж	-6242
▁хүүхдүүдийг	-6243
Цаг	-6244
хой	-6245
▁хэмж	-6246
▁хүүг	-6247
▁Энгийн	-6248
▁суудал	-6249
▁хийлгэх	-6250
▁шинжтэй	-6251
▁өнгөрөх	-6252
▁тухайгаа	-6253
▁тэмдэглэх	-6254
▁зориулалттай	-6255
▁ЭМ	-6256
дорж	-6257
умын	-6258
▁Фил	-6259
▁цүн	-6260
▁хийд	-6261
▁азтай	-6262
▁намар	-6263
▁энийг	-6264
▁яриаг	-6265
▁уучлал	-6266
▁эрхтэн	-6267
үүлээгүй	-6268
Элбэгдорж	-6269
▁амжаагүй	-6270
▁хагалгаа	-6271
▁аймшигтай	-6272
▁холбогдож	-6273
лай	-6274
Өөр	-6275
гэнд	-6276
▁кур	-6277
▁рад	-6278
.....	-6279
▁Лонд	-6280
хангай	-6281
▁аваач	-6282
▁тулал	-6283
▁үзлээ	-6284
▁тэрхүү	-6285
▁хэлийг	-6286
▁шинжээ	-6287
▁цөөнгүй	-6288
▁харахгүй	-6289
Хүн	-6290
▁даав	-6291
▁санс	-6292
▁хөрв	-6293
▁Гурав	-6294
▁тийшээ	-6295
▁хэлчих	-6296
▁хүчийг	-6297
аборатор	-6298
▁стандар	-6299
▁тэнцвэр	-6300
▁хүртлээ	-6301
▁Энэтхэгт	-6302
▁талаархи	-6303
▁байгуулна	-6304
▁ажиллуулах	-6305
▁урьдчилсан	-6306
ung	-6307
тгал	-6308
▁Нэм	-6309
одоод	-6310
оциал	-6311
▁малт	-6312
▁элэг	-6313
▁таних	-6314
▁ямагт	-6315
▁баахан	-6316
▁тохиол	-6317
▁хэлэлцүүл	-6318
▁хөнгөлөлт	-6319
▁болгоомжтой	-6320
▁хөдөлгөөний	-6321
are	-6322
агц	-6323
▁НӨ	-6324
▁ог	-6325
####	-6326
айлт	-6327
инээ	-6328
айхан	-6329
амдах	-6330
иценз	-6331
орсон	-6332
▁Болз	-6333
▁байг	-6334
▁япон	-6335
▁Видео	-6336
▁өмсөх	-6337
▁Гэрийн	-6338
▁дамжин	-6339
▁хайрын	-6340
▁хичээх	-6341
▁хэрвээ	-6342
▁үүсгэж	-6343
▁тогооны	-6344
▁төсөөлж	-6345
▁мөнгөтэй	-6346
▁харилцах	-6347
▁чадалтай	-6348
-3	-6349
="	-6350
ail	-6351
▁Юм	-6352
мнэл	-6353
▁Даг	-6354
▁Дүр	-6355
▁Мак	-6356
▁Хов	-6357
▁Хүч	-6358
▁хир	-6359
▁....	-6360
▁хашг	-6361
▁гадар	-6362
▁дурьд	-6363
▁хөгжл	-6364
▁хөгшин	-6365
▁ярьжээ	-6366
▁алдагдал	-6367
▁программ	-6368
▁хүчингүй	-6369
▁судлаачид	-6370
▁амьдралынхаа	-6371
▁байгууллагаас	-6372
ерм	-6373
▁ак	-6374
▁100%	-6375
▁есөн	-6376
▁холд	-6377
▁хүмүү	-6378
▁Асуулт	-6379
▁баталж	-6380
▁охиныг	-6381
▁тусмаа	-6382
▁түүхий	-6383
▁барьцаа	-6384
▁зогсоол	-6385
▁суурийг	-6386
▁хуваарь	-6387
▁бичлэгийг	-6388
▁халдварын	-6389
▁тохиолддог	-6390
иаг	-6391
▁Ус	-6392
гэлт	-6393
зүйн	-6394
слан	-6395
▁сөх	-6396
▁шаг	-6397
▁амин	-6398
▁утаа	-6399
лагддаг	-6400
▁Хэрхэн	-6401
▁бусаар	-6402
▁хуримт	-6403
▁хөгжих	-6404
▁Нэгдсэн	-6405
▁инженер	-6406
▁хийхдээ	-6407
▁агентлаг	-6408
▁асуултад	-6409
▁гэрээний	-6410
▁тэмцээний	-6411
▁өөрсдийнхөө	-6412
end	-6413
Мэд	-6414
▁Үл	-6415
▁Өд	-6416
айны	-6417
лөөр	-6418
▁БАЙ	-6419
билэг	-6420
огоон	-6421
чимэг	-6422
▁Долоо	-6423
▁буцаан	-6424
▁даргыг	-6425
▁Британи	-6426
▁Тайлбар	-6427
▁амгалан	-6428
▁дуусгах	-6429
▁маягаар	-6430
▁оролдож	-6431
▁хайрцаг	-6432
▁худалдах	-6433
▁парламент	-6434
▁ерөнхийдөө	-6435
if	-6436
ain	-6437
аци	-6438
аяа	-6439
вад	-6440
▁48	-6441
▁Даш	-6442
▁Тар	-6443
▁гаш	-6444
▁Юуны	-6445
▁авир	-6446
▁гуйж	-6447
▁жимс	-6448
▁өгвөл	-6449
▁дуугүй	-6450
▁хосууд	-6451
▁асуухад	-6452
▁байхаас	-6453
▁мөртлөө	-6454
▁тогтоогд	-6455
▁сонгуулиар	-6456
▁хэрэглэсэн	-6457
▁хэрэгслийн	-6458
▁хөтөлбөрийн	-6459
24	-6460
ct	-6461
ми	-6462
баа	-6463
▁09	-6464
▁up	-6465
▁ХӨ	-6466
сэнд	-6467
шсан	-6468
▁арв	-6469
▁гац	-6470
истан	-6471
октор	-6472
▁огцр	-6473
▁хааяа	-6474
▁хянаж	-6475
▁Онлайн	-6476
▁Толгой	-6477
▁нэрлэж	-6478
▁шингэн	-6479
▁өвлийн	-6480
▁удирдаг	-6481
▁хөгжилд	-6482
▁тэдэнтэй	-6483
▁өгүүлбэр	-6484
▁төлбөргүй	-6485
▁таалагдсан	-6486
▁боловсруулж	-6487
Их	-6488
хуу	-6489
▁пл	-6490
длоо	-6491
▁Бээж	-6492
▁нуур	-6493
▁нүүд	-6494
▁нүдээ	-6495
▁хүчээ	-6496
▁эдгэр	-6497
▁мэдээг	-6498
▁нэгдэж	-6499
олдугаар	-6500
үүлэхгүй	-6501
▁буурсан	-6502
▁захидал	-6503
▁илэрсэн	-6504
▁шийтгэл	-6505
▁Хөгжлийн	-6506
io	-6507
үж	-6508
асс	-6509
лин	-6510
▁Өс	-6511
лууд	-6512
▁зөг	-6513
▁уна	-6514
▁хуц	-6515
▁нутг	-6516
▁өвчл	-6517
лолтын	-6518
▁Захир	-6519
▁Хэдий	-6520
▁үзлэг	-6521
▁өгөөж	-6522
▁Дөрвөн	-6523
▁Мөнгөн	-6524
▁Онцгой	-6525
▁батлан	-6526
▁оролдл	-6527
▁өглөөний	-6528
лий	-6529
нын	-6530
хаан	-6531
эвэл	-6532
▁урс	-6533
▁Miss	-6534
▁Байр	-6535
▁Егип	-6536
▁бүлд	-6537
▁заал	-6538
▁ногд	-6539
▁хээр	-6540
лэгчийн	-6541
▁байрыг	-6542
▁гарган	-6543
▁дүүрэг	-6544
▁жилийг	-6545
▁мартаж	-6546
▁мэдээд	-6547
▁юунаас	-6548
▁удалгүй	-6549
▁Тодорхой	-6550
▁мэдлэгтэй	-6551
60	-6552
OLO	-6553
воо	-6554
▁Зо	-6555
▁Тун	-6556
иараа	-6557
аалийн	-6558
▁биеэр	-6559
▁ярина	-6560
▁үнэлж	-6561
▁алджээ	-6562
агдаагүй	-6563
▁тохирох	-6564
▁хэрэглэнэ	-6565
▁тайлбарлах	-6566
▁мэргэжилтнүүд	-6567
18	-6568
зар	-6569
▁33	-6570
лэлд	-6571
▁шарх	-6572
галтын	-6573
▁дундж	-6574
▁ороход	-6575
▁туршлаг	-6576
▁утгагүй	-6577
▁ажиллаад	-6578
▁санагдах	-6579
▁үйлдлийг	-6580
▁төрөлхтний	-6581
▁төхөөрөмжийн	-6582
ie	-6583
ым	-6584
Нар	-6585
▁зэм	-6586
үүгийн	-6587
▁зөрчл	-6588
▁орчих	-6589
▁үгэнд	-6590
▁Дархан	-6591
▁бодлыг	-6592
▁танилцуулах	-6593
0)	-6594
ИД	-6595
ect	-6596
гор	-6597
▁кр	-6598
▁Өө	-6599
гайл	-6600
шийн	-6601
▁Син	-6602
▁YOLO	-6603
▁амны	-6604
▁амийг	-6605
▁европ	-6606
▁сувил	-6607
▁нүдний	-6608
▁чулуун	-6609
▁монголд	-6610
▁нэвтрэх	-6611
▁хүндтэй	-6612
▁төвөгтэй	-6613
▁арилжааны	-6614
▁бүрдүүлэх	-6615
▁харилцаанд	-6616
▁хүүхдүүдээ	-6617
тү	-6618
ьё	-6619
раг	-6620
▁II	-6621
▁ис	-6622
угаа	-6623
▁30-	-6624
▁зүр	-6625
▁буйг	-6626
алтаар	-6627
дахгүй	-6628
доогүй	-6629
▁үйлдл	-6630
▁үлдэж	-6631
▁Амжилт	-6632
▁дуудаж	-6633
▁журмын	-6634
▁тохиож	-6635
▁чамаас	-6636
Монголын	-6637
▁түрүүлж	-6638
▁үүргийг	-6639
▁Манайхан	-6640
▁хараагүй	-6641
▁чиглэсэн	-6642
▁хүндэтгэл	-6643
▁сургуулиуд	-6644
жим	-6645
▁баа	-6646
▁хун	-6647
▁хут	-6648
ийтэй	-6649
▁Уран	-6650
▁бөмб	-6651
▁шилэн	-6652
▁шувуу	-6653
▁ёслол	-6654
▁өнөөх	-6655
▁зорчих	-6656
▁мужийн	-6657
▁багтсан	-6658
▁Австрали	-6659
og	-6660
Бү	-6661
хр	-6662
▁ив	-6663
▁Мор	-6664
▁Цар	-6665
▁залг	-6666
▁үйлс	-6667
▁зарлаж	-6668
▁казино	-6669
▁төсөлд	-6670
▁болгоод	-6671
▁мэдээгүй	-6672
▁уралдаан	-6673
▁Ха	-6674
▁Үг	-6675
снээ	-6676
▁Хөт	-6677
ангар	-6678
▁Уулз	-6679
▁салж	-6680
▁эрин	-6681
▁Санал	-6682
▁мэдэг	-6683
▁олонх	-6684
▁орныг	-6685
▁таарч	-6686
▁томъё	-6687
▁өрнөж	-6688
лагдлаа	-6689
▁охиноо	-6690
▁туйлын	-6691
▁уншигч	-6692
▁өнгийн	-6693
▁даргаар	-6694
▁мэдээлж	-6695
▁найдвар	-6696
▁цаашдаа	-6697
▁бүтэлгүй	-6698
▁төдийлөн	-6699
▁сэтгэлгээ	-6700
,,	-6701
19	-6702
окс	-6703
▁Al	-6704
▁ХА	-6705
Болд	-6706
▁Нис	-6707
▁айр	-6708
▁инд	-6709
▁таш	-6710
▁цал	-6711
гуулж	-6712
▁1990	-6713
▁ороо	-6714
▁ачаар	-6715
▁зурсан	-6716
▁импорт	-6717
▁утгаар	-6718
▁хариуг	-6719
▁Иргэний	-6720
▁буудлын	-6721
▁ухамсар	-6722
▁үйлчлэх	-6723
▁бодохгүй	-6724
▁уламжлал	-6725
Эм	-6726
Эх	-6727
▁e	-6728
▁иш	-6729
▁Ким	-6730
▁арч	-6731
▁чир	-6732
чилэн	-6733
▁Эрхэм	-6734
▁шүүлт	-6735
▁авчрах	-6736
▁сайжир	-6737
▁болохын	-6738
▁тусалдаг	-6739
▁татгалзах	-6740
/0	-6741
2-	-6742
тоо	-6743
хов	-6744
▁Аб	-6745
удын	-6746
сноор	-6747
▁адуу	-6748
▁үерх	-6749
omment	-6750
агдлаа	-6751
▁таньж	-6752
Өнөөдөр	-6753
▁Ардчил	-6754
▁ажлаас	-6755
▁хүндээ	-6756
▁Африкийн	-6757
▁загварыг	-6758
▁Ерөнхийдөө	-6759
▁судалгаагаар	-6760
▁боловсруулсан	-6761
▁k	-6762
дад	-6763
хин	-6764
єєр	-6765
Шинэ	-6766
овид	-6767
▁Чад	-6768
эцийн	-6769
▁Зөвл	-6770
▁горим	-6771
▁малын	-6772
▁насаа	-6773
▁тархи	-6774
▁туулж	-6775
▁барина	-6776
▁мөрдөн	-6777
▁тэнгис	-6778
▁хандан	-6779
лэгчдийн	-6780
▁байрладаг	-6781
oun	-6782
аха	-6783
▁IP	-6784
тгон	-6785
шина	-6786
▁мэх	-6787
▁хэз	-6788
▁үүл	-6789
Танай	-6790
▁Болд	-6791
▁Гүйц	-6792
▁байя	-6793
▁баяж	-6794
▁хавь	-6795
▁ашигт	-6796
▁дэмжиг	-6797
▁мөрдөх	-6798
▁тавина	-6799
▁харлаа	-6800
▁ачаалал	-6801
▁сэдвээр	-6802
▁тууштай	-6803
▁хийгдэж	-6804
▁дураараа	-6805
▁сурагчид	-6806
▁үүнийгээ	-6807
▁төлбөрийг	-6808
пур	-6809
цын	-6810
▁Ня	-6811
нэгт	-6812
▁Амь	-6813
▁бан	-6814
▁илт	-6815
▁кор	-6816
ошиал	-6817
▁Авлиг	-6818
▁Чухам	-6819
▁Чөлөө	-6820
▁салхи	-6821
▁ямарч	-6822
▁олноор	-6823
▁хацарт	-6824
▁хүртэх	-6825
▁хүртээ	-6826
▁эрдэнэ	-6827
▁тоогоор	-6828
▁тусална	-6829
▁Жүжигчин	-6830
▁багасгах	-6831
▁мэдэгдэх	-6832
▁хэлэлцүүлэг	-6833
▁шалгаруулах	-6834
ЭХ	-6835
▁бх	-6836
екст	-6837
сдөг	-6838
сөөр	-6839
▁эвл	-6840
▁2004	-6841
▁унах	-6842
мунист	-6843
үүдтэй	-6844
▁Эмнэл	-6845
▁болих	-6846
▁болсн	-6847
▁үүсэх	-6848
Нямдорж	-6849
члаарай	-6850
▁Тэдэнд	-6851
▁Эцсийн	-6852
▁бүхэлд	-6853
▁тойрон	-6854
▁тэмцэл	-6855
▁ээлтэй	-6856
▁хураамж	-6857
▁Монголыг	-6858
▁гэрээсээ	-6859
▁тамирчид	-6860
▁тогтоомж	-6861
▁борлуулалт	-6862
▁эмчилгээний	-6863
ah	-6864
СҮТ	-6865
ъяа	-6866
▁яс	-6867
▁Дол	-6868
▁Чан	-6869
▁уян	-6870
үүлье	-6871
▁дамп	-6872
▁тэмд	-6873
▁чимээ	-6874
▁карьер	-6875
▁тантай	-6876
үүлээрэй	-6877
▁Английн	-6878
▁дуулсан	-6879
▁хүлээлт	-6880
▁Иргэдийн	-6881
▁зүйлсийн	-6882
▁олборлох	-6883
▁Мэдээллийн	-6884
▁аравдугаар	-6885
▁парламентын	-6886
▁хандлагатай	-6887
жав	-6888
▁2,	-6889
▁Ув	-6890
▁Mac	-6891
▁ёсл	-6892
ээлээ	-6893
▁хаах	-6894
▁өгөв	-6895
▁өргө	-6896
▁Итали	-6897
▁аудит	-6898
▁янзын	-6899
▁дүгнэж	-6900
▁золиос	-6901
▁нотлох	-6902
▁сандал	-6903
▁чамтай	-6904
▁явсаар	-6905
▁дуустал	-6906
▁зорьсон	-6907
▁зургууд	-6908
▁дараалан	-6909
15	-6910
OS	-6911
жр	-6912
▁Ду	-6913
▁Си	-6914
▁ТУ	-6915
▁тем	-6916
▁хаз	-6917
▁Браз	-6918
▁валю	-6919
▁туур	-6920
▁ахлах	-6921
▁хөшөө	-6922
▁яадаг	-6923
▁мөрийн	-6924
▁биелүүлж	-6925
▁нөлөөтэй	-6926
▁төлөөлөл	-6927
▁хуудсууд	-6928
▁компаниудын	-6929
▁мэргэжилтэн	-6930
▁хугацаандаа	-6931
АУ	-6932
age	-6933
дав	-6934
▁34	-6935
▁193	-6936
▁Хил	-6937
измын	-6938
▁овоо	-6939
▁цааз	-6940
▁үхэр	-6941
агцхүү	-6942
уудаар	-6943
▁Арван	-6944
▁унтах	-6945
▁дайсан	-6946
▁лиценз	-6947
▁рестор	-6948
▁шийднэ	-6949
▁албагүй	-6950
▁гарахад	-6951
▁зовлонг	-6952
▁торгуул	-6953
▁харагдахгүй	-6954
оч	-6955
нэн	-6956
▁Са	-6957
уурч	-6958
▁2-3	-6959
▁Сам	-6960
▁гах	-6961
▁нүц	-6962
▁сэн	-6963
Улаан	-6964
эгдлээ	-6965
▁бүсэд	-6966
▁одоог	-6967
▁оройн	-6968
▁хожим	-6969
▁буцаад	-6970
▁бүсийн	-6971
▁хараат	-6972
▁хөдлөл	-6973
▁цэнгэл	-6974
▁орныхоо	-6975
▁Барилгын	-6976
▁болгохын	-6977
▁дипломат	-6978
▁танихгүй	-6979
▁компанийг	-6980
▁хариуцсан	-6981
▁хамрагдсан	-6982
ОГ	-6983
ian	-6984
лип	-6985
▁хуй	-6986
төрийн	-6987
▁Цалин	-6988
▁дохио	-6989
▁орхиж	-6990
▁багаар	-6991
▁нараас	-6992
▁хийчих	-6993
үүлэхээр	-6994
▁түвшний	-6995
▁хуудсыг	-6996
▁материалыг	-6997
ice	-6998
▁Bl	-6999
▁Об	-7000
▁Шү	-7001
ахан	-7002
шинз	-7003
▁Хож	-7004
уулъя	-7005
▁болх	-7006
▁нарны	-7007
▁сэжиг	-7008
▁Заавал	-7009
▁Шударга	-7010
▁Эрдэнэт	-7011
▁орхисон	-7012
▁чуулганы	-7013
▁шинэчлэл	-7014
▁үйлдлийн	-7015
▁байгаадаа	-7016
▁найруулагч	-7017
▁стратегийн	-7018
▁Хөдөлмөрийн	-7019
Хур	-7020
▁38	-7021
авал	-7022
илын	-7023
▁Дон	-7024
▁нүх	-7025
▁фор	-7026
▁Охид	-7027
▁хөөц	-7028
▁эрэг	-7029
гээгүй	-7030
▁олдог	-7031
▁түрүү	-7032
▁хөндл	-7033
▁цомог	-7034
▁сайтын	-7035
▁толгойд	-7036
▁хөвгүүд	-7037
▁үлдээсэн	-7038
▁амьсгалын	-7039
▁боломжийн	-7040
▁харилцааг	-7041
▁хөрөнгийг	-7042
▁өрсөлдөгч	-7043
▁Эмэгтэйчүүд	-7044
▁зөвшөөрөхгүй	-7045
:3	-7046
ти	-7047
ийж	-7048
мөөр	-7049
▁Пак	-7050
▁зүс	-7051
анаас	-7052
уужин	-7053
▁НӨАТ	-7054
▁гоол	-7055
лэлийг	-7056
▁үзүүр	-7057
▁авчирч	-7058
▁дурлал	-7059
▁тангар	-7060
▁ярилаа	-7061
▁Есүсийн	-7062
▁Цаашдаа	-7063
▁бөхчүүд	-7064
▁хүснэгт	-7065
чирхалтай	-7066
▁зохистой	-7067
▁Амьдралын	-7068
▁тэдгээрийн	-7069
▁үйлчлүүлэг	-7070
▁хөлбөмбөгийн	-7071
шн	-7072
ity	-7073
тыг	-7074
ианы	-7075
елийн	-7076
▁конт	-7077
▁багаж	-7078
▁гариг	-7079
▁морил	-7080
▁нийлж	-7081
▁Египет	-7082
▁гэмээр	-7083
▁төлсөн	-7084
▁Хайртай	-7085
▁бүтээгд	-7086
▁засгийг	-7087
▁зүйлгүй	-7088
▁олигтой	-7089
▁сонсдог	-7090
▁цэргүүд	-7091
▁хэрэгцээг	-7092
▁Австралийн	-7093
▁байгууллагуудын	-7094
ber	-7095
исан	-7096
огоо	-7097
▁400	-7098
▁Хос	-7099
ацгаа	-7100
ингоо	-7101
өтгөр	-7102
Тэгвэл	-7103
▁Эрчим	-7104
▁бясал	-7105
▁даргад	-7106
▁нартаа	-7107
▁санаач	-7108
▁талууд	-7109
▁сүүлээр	-7110
▁экспорт	-7111
▁явахдаа	-7112
▁нутагтаа	-7113
▁хувилбарыг	-7114
▁хэрэглэгчдийн	-7115
▁and	-7116
▁Мод	-7117
▁Гоол	-7118
▁хэлм	-7119
▁Афган	-7120
▁асуув	-7121
▁хавдр	-7122
▁шууги	-7123
▁ашгийн	-7124
▁нээсэн	-7125
▁туслал	-7126
▁Ирээдүй	-7127
▁болгоом	-7128
▁тохиргоо	-7129
▁төлөвтэй	-7130
▁хүргэдэг	-7131
▁үндэслэн	-7132
▁тодруулах	-7133
▁эхлүүлсэн	-7134
▁Хоёрдугаарт	-7135
уз	-7136
орд	-7137
▁мөх	-7138
еррор	-7139
иотой	-7140
өхийн	-7141
▁Ёстой	-7142
▁бүлээ	-7143
▁шанал	-7144
ператур	-7145
▁бүгдэд	-7146
▁дахинд	-7147
▁заслын	-7148
▁зүтгэл	-7149
▁орчныг	-7150
▁яригдаж	-7151
▁мэдэрдэг	-7152
▁хамгаалагч	-7153
ff	-7154
хөө	-7155
эвс	-7156
▁re	-7157
адын	-7158
шдээ	-7159
эмгий	-7160
▁зүйр	-7161
▁түрх	-7162
▁фото	-7163
гуудын	-7164
▁бусын	-7165
уулахын	-7166
▁очиход	-7167
▁үүнтэй	-7168
гадугаар	-7169
▁Ямартай	-7170
▁гаднаас	-7171
▁ирэхийг	-7172
▁ярихгүй	-7173
▁бүрдүүлж	-7174
▁танилцаж	-7175
▁болчихлоо	-7176
▁болчихоод	-7177
▁төлөвлөгөөг	-7178
ББ	-7179
єх	-7180
ийр	-7181
азар	-7182
дээд	-7183
емат	-7184
▁Арх	-7185
▁муур	-7186
▁Бодит	-7187
▁МАНАН	-7188
▁Сэлэн	-7189
▁дотны	-7190
▁ордон	-7191
▁тэжээ	-7192
▁хотыг	-7193
▁чинээ	-7194
▁мэргэн	-7195
▁цагтаа	-7196
▁Тиймдээ	-7197
▁бүсгүйн	-7198
▁нээлтээ	-7199
▁тэднээс	-7200
▁хулгайл	-7201
▁хөөцөлд	-7202
▁хамгаалалтын	-7203
-20	-7204
wit	-7205
өөе	-7206
▁75	-7207
▁Pl	-7208
лоод	-7209
▁Son	-7210
▁Богд	-7211
▁Укра	-7212
▁тэвр	-7213
▁түлш	-7214
▁Төмөр	-7215
▁алтны	-7216
▁зуунд	-7217
▁Шинээр	-7218
▁алдааг	-7219
▁амьтны	-7220
▁сайхныг	-7221
▁өчүүхэн	-7222
▁оролцогч	-7223
▁сэтгэлээр	-7224
▁танилцуулга	-7225
13	-7226
ud	-7227
▁дэ	-7228
Олон	-7229
алай	-7230
гдаж	-7231
▁Буд	-7232
▁Шөн	-7233
▁орц	-7234
▁түш	-7235
айгаа	-7236
▁Prev	-7237
▁дүрд	-7238
▁цээж	-7239
▁нүгэл	-7240
▁олонд	-7241
▁элбэг	-7242
▁оршдог	-7243
▁Нийслэл	-7244
▁Энхбаяр	-7245
▁айлчлал	-7246
▁арилжаа	-7247
▁зогсоож	-7248
▁хэргээр	-7249
▁манайхан	-7250
▁талаасаа	-7251
▁талархал	-7252
▁төгсгөлд	-7253
▁Сүхбаатар	-7254
▁хувьцааны	-7255
▁үргэлжилнэ	-7256
▁анхааралтай	-7257
▁үйлчлүүлэгч	-7258
70	-7259
ht	-7260
oy	-7261
ОМ	-7262
ӨХ	-7263
Тэд	-7264
Уул	-7265
ирт	-7266
▁тэ	-7267
Ямар	-7268
аарх	-7269
шилж	-7270
▁150	-7271
▁Кин	-7272
▁Мат	-7273
▁гомд	-7274
▁дүрв	-7275
▁оржээ	-7276
▁авлага	-7277
▁гэрлэх	-7278
▁дажгүй	-7279
▁журмыг	-7280
▁тэсвэр	-7281
▁байдлаа	-7282
▁өрөөний	-7283
лагдаагүй	-7284
▁Иймэрхүү	-7285
▁авчирсан	-7286
▁гаргахад	-7287
▁татгалзаж	-7288
14	-7289
єг	-7290
our	-7291
уйц	-7292
▁Ос	-7293
адем	-7294
▁Шүү	-7295
▁нух	-7296
лэлээ	-7297
▁Post	-7298
▁Блог	-7299
▁төсл	-7300
▁үүрд	-7301
▁Хаана	-7302
▁будаа	-7303
▁явган	-7304
▁Тэгтэл	-7305
▁алчуур	-7306
▁дэвшил	-7307
▁асуулга	-7308
▁доромжл	-7309
▁хувьтай	-7310
▁бодохоор	-7311
▁хийгээрэй	-7312
▁хуваалцах	-7313
▁өөрчилсөн	-7314
▁автомашины	-7315
▁таалагддаг	-7316
az	-7317
▁→	-7318
Ний	-7319
УУД	-7320
инк	-7321
исын	-7322
ойлг	-7323
▁Евр	-7324
▁арав	-7325
▁хөлд	-7326
лалтын	-7327
Өдрийн	-7328
▁iPhone	-7329
▁тойрог	-7330
▁хайрыг	-7331
▁илүүтэй	-7332
▁статист	-7333
▁салбарыг	-7334
▁өмгөөлөгч	-7335
▁хөдөлгөөнийг	-7336
Ан	-7337
ist	-7338
чинд	-7339
гапур	-7340
▁Март	-7341
▁мань	-7342
▁харв	-7343
▁Сүүлд	-7344
▁осолд	-7345
▁хасах	-7346
жилтийн	-7347
▁тооцож	-7348
▁Өөртөө	-7349
▁буудалд	-7350
▁тайланг	-7351
▁хураалт	-7352
▁Хүрэлсүх	-7353
▁чөлөөлөх	-7354
▁Компьютер	-7355
▁Элбэгдорж	-7356
▁харгалзан	-7357
▁үндэстний	-7358
▁хэрэгслийг	-7359
▁эсэргүүцэж	-7360
▁ерөнхийлөгчийн	-7361
::	-7362
aw	-7363
iz	-7364
єл	-7365
-10	-7366
.1.	-7367
вен	-7368
мин	-7369
▁Un	-7370
▁vv	-7371
гүүн	-7372
андын	-7373
лгийн	-7374
удлаа	-7375
▁Товч	-7376
▁ихэс	-7377
▁нитр	-7378
▁хана	-7379
авхлан	-7380
▁мэргэш	-7381
▁онцлох	-7382
▁шулуун	-7383
▁ээжийн	-7384
▁өртсөн	-7385
▁Аюулгүй	-7386
▁Нийтийн	-7387
▁иргэнийг	-7388
▁нэмэгдэх	-7389
▁Өнөөгийн	-7390
▁гудамжинд	-7391
▁шилжүүлэх	-7392
▁хэрэглэгчдэд	-7393
23	-7394
эк	-7395
▁@	-7396
▁от	-7397
▁эт	-7398
ософ	-7399
хээр	-7400
▁Кал	-7401
зориг	-7402
▁зугт	-7403
▁удам	-7404
▁Битгий	-7405
▁Дахиад	-7406
▁Тиймээ	-7407
▁ердийн	-7408
▁даашинз	-7409
▁настайдаа	-7410
▁огцруулах	-7411
▁сүлжээний	-7412
▁таалагдаж	-7413
▁танилцсан	-7414
▁туслалцаа	-7415
▁r	-7416
рээ	-7417
цар	-7418
▁49	-7419
▁Бя	-7420
ress	-7421
▁min	-7422
▁Гэг	-7423
▁Инд	-7424
▁Ший	-7425
▁ЭНД	-7426
▁үйм	-7427
▁өлс	-7428
лөсөн	-7429
▁ОУВС	-7430
▁хийв	-7431
▁нотол	-7432
▁нулимс	-7433
▁орноос	-7434
▁үлдэнэ	-7435
▁Сэтгүүл	-7436
▁тавилга	-7437
▁хурдтай	-7438
▁итгэхгүй	-7439
▁уншаарай	-7440
▁хэрэгтээ	-7441
▁Хүмүүсийн	-7442
▁хүндрэлтэй	-7443
▁хөдөлгөөнт	-7444
▁төлөөлөгчид	-7445
▁хязгаарлагд	-7446
EE	-7447
ID	-7448
aa	-7449
яг	-7450
-12	-7451
уйн	-7452
ямб	-7453
▁ТВ	-7454
цээнд	-7455
▁туйл	-7456
▁үүсч	-7457
онгийн	-7458
шилтай	-7459
▁аятай	-7460
▁угааж	-7461
▁Болзоо	-7462
▁буруут	-7463
▁давсан	-7464
▁хэвтэж	-7465
▁тогтсон	-7466
▁баримтыг	-7467
▁дунджаар	-7468
▁зарцуулж	-7469
▁мэдэхийг	-7470
▁эрүүгийн	-7471
▁Монголдоо	-7472
NU	-7473
▁j	-7474
Ном	-7475
удр	-7476
▁99	-7477
▁ЗГ	-7478
анаа	-7479
идер	-7480
обот	-7481
окол	-7482
чний	-7483
юуны	-7484
▁Амр	-7485
▁Жен	-7486
инээв	-7487
чихсөн	-7488
▁Цэвэр	-7489
▁Эрчүүд	-7490
▁огтхон	-7491
▁сайгүй	-7492
▁хүнээр	-7493
▁багшийн	-7494
▁Гадаадын	-7495
▁эзэмшсэн	-7496
▁Гоолингоо	-7497
▁Солонгост	-7498
▁бүтээлийн	-7499
▁лаборатор	-7500
▁зарцуулсан	-7501
▁Тавантолгой	-7502
ip	-7503
иск	-7504
хоёр	-7505
▁Mar	-7506
▁эвс	-7507
Таныг	-7508
агаах	-7509
гчийн	-7510
ерман	-7511
▁намд	-7512
▁нялх	-7513
алтанд	-7514
өгдсөн	-7515
▁утгыг	-7516
▁хоёрт	-7517
▁ширээ	-7518
▁Бусдын	-7519
▁гэмтэл	-7520
▁дуулах	-7521
▁зүтгэж	-7522
▁татдаг	-7523
▁тэрийг	-7524
▁төрдөг	-7525
▁уншина	-7526
▁ээээээ	-7527
▁зогссон	-7528
▁тэндээс	-7529
▁хамаарч	-7530
▁агуулсан	-7531
▁ярилцсан	-7532
▁сонирхлыг	-7533
▁төлөвлөлт	-7534
ля	-7535
ive	-7536
айж	-7537
эээ	-7538
удар	-7539
▁Юун	-7540
▁сөн	-7541
▁хов	-7542
▁гурв	-7543
▁хааж	-7544
эхүүнд	-7545
▁Сарын	-7546
▁мөчид	-7547
▁сольж	-7548
▁супер	-7549
▁хөтөч	-7550
▁Тусгай	-7551
▁байхав	-7552
▁олохгүй	-7553
▁тавилан	-7554
▁харгалз	-7555
▁хэмээсэн	-7556
▁Бүтээгдэх	-7557
▁асуултанд	-7558
▁сонирхдог	-7559
▁хорооллын	-7560
▁үргэлжилсэн	-7561
▁тайлбарласан	-7562
ly	-7563
лга	-7564
атын	-7565
▁Айл	-7566
аасны	-7567
ллийн	-7568
олгүй	-7569
▁2003	-7570
▁Арай	-7571
▁Кино	-7572
▁яана	-7573
▁тоонд	-7574
▁Сирийн	-7575
▁ажлууд	-7576
▁баярыг	-7577
▁сайдыг	-7578
▁хортой	-7579
долларын	-7580
▁Төсвийн	-7581
▁анхдагч	-7582
▁бэлтгэж	-7583
▁системд	-7584
▁хуулбар	-7585
▁Үүнийгээ	-7586
▁олборлолт	-7587
▁температур	-7588
▁маркетингийн	-7589
ug	-7590
Ав	-7591
рт	-7592
Аав	-7593
ань	-7594
лид	-7595
най	-7596
галж	-7597
овол	-7598
▁(1)	-7599
▁Тээ	-7600
▁Шат	-7601
▁нтр	-7602
Хэрэв	-7603
лээрээ	-7604
▁аварч	-7605
▁амарч	-7606
▁бодно	-7607
▁сорилт	-7608
▁хэмээв	-7609
▁судлаач	-7610
▁тэтгэмж	-7611
▁хийхийн	-7612
▁хөгжсөн	-7613
▁оролцоно	-7614
▁сүлжээнд	-7615
▁чармайлт	-7616
▁сургуулиа	-7617
▁цуглуулах	-7618
▁Үйлчилгээ	-7619
▁Нэгдүгээрт	-7620
▁наймдугаар	-7621
▁одоохондоо	-7622
▁татгалзсан	-7623
▁харилцаатай	-7624
▁хязгаарлалт	-7625
ep	-7626
лз	-7627
ort	-7628
out	-7629
Дав	-7630
хор	-7631
өлж	-7632
хонд	-7633
▁мот	-7634
▁пас	-7635
▁заах	-7636
Яагаад	-7637
▁анхан	-7638
▁онцол	-7639
▁уудаг	-7640
▁функц	-7641
▁элчин	-7642
▁Баасан	-7643
▁нэгээр	-7644
▁өлсгөл	-7645
▁Шинжлэх	-7646
▁бичгийг	-7647
▁бүтцийн	-7648
▁дагуулж	-7649
▁үзүүлнэ	-7650
▁бахархаж	-7651
▁тоглогчид	-7652
▁хамгаалахын	-7653
▁шо	-7654
????	-7655
Сайн	-7656
илоо	-7657
иулж	-7658
шинд	-7659
▁Гоо	-7660
ралын	-7661
▁Доор	-7662
▁хийе	-7663
аагаад	-7664
▁аавын	-7665
▁алхаж	-7666
▁аймаар	-7667
▁хуулиа	-7668
▁хүрдэг	-7669
▁юмнууд	-7670
▁барааны	-7671
▁Сингапур	-7672
▁шинэчлэх	-7673
▁Байгалийн	-7674
▁Баярлалаа	-7675
▁дасгалжуулагч	-7676
ион	-7677
▁не	-7678
Очир	-7679
двол	-7680
▁18-	-7681
▁Ток	-7682
▁фил	-7683
ижитал	-7684
тойгоо	-7685
▁номоо	-7686
▁явцыг	-7687
адаггүй	-7688
▁тулаан	-7689
▁хэллэг	-7690
▁хэдийнэ	-7691
▁шагналыг	-7692
▁эрхэлдэг	-7693
▁баримтлах	-7694
▁бүртгүүлэх	-7695
▁мэдээллээр	-7696
▁өөрийнхөөрөө	-7697
4-	-7698
хх	-7699
ипп	-7700
хэм	-7701
▁ом	-7702
▁ын	-7703
шилт	-7704
▁Pro	-7705
▁мэл	-7706
▁ням	-7707
▁шул	-7708
архан	-7709
гаанд	-7710
▁Ехов	-7711
▁Зүрх	-7712
▁бөөр	-7713
▁виде	-7714
▁олно	-7715
сгалан	-7716
▁дурын	-7717
▁зочин	-7718
▁харъя	-7719
▁өргөө	-7720
лэлтийн	-7721
эгчдийн	-7722
▁суманд	-7723
▁сурдаг	-7724
▁тэнцүү	-7725
▁Агаарын	-7726
▁биднээс	-7727
▁буулгах	-7728
▁талбайн	-7729
▁Гадаадад	-7730
▁санаарай	-7731
▁стратеги	-7732
▁тасалбар	-7733
▁түүнчлэн	-7734
▁мэдээлсэн	-7735
▁мэдээлснээр	-7736
нам	-7737
▁Онг	-7738
▁рек	-7739
▁баар	-7740
▁овог	-7741
▁очно	-7742
▁серв	-7743
чихлээ	-7744
▁очдог	-7745
▁өршөө	-7746
логдсон	-7747
▁Хэлэлц	-7748
▁баригч	-7749
▁бүрээс	-7750
▁мессеж	-7751
▁хэлтэс	-7752
▁ярианы	-7753
▁болмоор	-7754
▁зүйлүүд	-7755
▁тогтолц	-7756
▁Эрүүгийн	-7757
▁амжилтад	-7758
▁оруулаад	-7759
▁ажиллахыг	-7760
▁мэдэгдлээ	-7761
▁ажиллахгүй	-7762
▁тусламжтайгаар	-7763
6-	-7764
бэ	-7765
шг	-7766
ant	-7767
вит	-7768
хэр	-7769
өөх	-7770
▁(3	-7771
▁Тр	-7772
down	-7773
инох	-7774
соно	-7775
уунд	-7776
▁(0)	-7777
▁Мах	-7778
▁Ник	-7779
▁зус	-7780
екийн	-7781
рафик	-7782
▁Мекс	-7783
▁бааз	-7784
▁зайд	-7785
▁ялах	-7786
▁Дарга	-7787
▁Орхон	-7788
▁орхих	-7789
▁зарлиг	-7790
▁эрхэлж	-7791
▁Хүнсний	-7792
▁асуудаг	-7793
▁зэргийг	-7794
▁мэдэхэд	-7795
▁удаагүй	-7796
▁бусадтай	-7797
▁итгэлийг	-7798
▁компаний	-7799
▁тусгасан	-7800
▁онцлогтой	-7801
▁асуудлуудыг	-7802
▁Байгууллагын	-7803
The	-7804
ide	-7805
Анх	-7806
мэд	-7807
Нийг	-7808
▁19-	-7809
▁ААН	-7810
▁Бос	-7811
▁Вэб	-7812
▁дон	-7813
▁дээж	-7814
лагаар	-7815
▁босоо	-7816
▁будаг	-7817
▁огцом	-7818
▁товчл	-7819
▁өмөөр	-7820
▁болбол	-7821
▁дуугаа	-7822
▁замбар	-7823
▁хүрчээ	-7824
▁Үүгээр	-7825
агдахгүй	-7826
▁Дээрээс	-7827
▁Тэрнээс	-7828
▁хэсгээс	-7829
▁харамсаж	-7830
▁Компанийн	-7831
▁хариултыг	-7832
▁эсрэгээрээ	-7833
▁өөрчлөгдөх	-7834
.8	-7835
ime	-7836
ver	-7837
ИЙГ	-7838
элэг	-7839
▁ген	-7840
▁ная	-7841
▁Next	-7842
▁Авто	-7843
▁бонд	-7844
▁гүйж	-7845
▁клип	-7846
▁цүнх	-7847
элтгүй	-7848
▁Ахмад	-7849
▁Насан	-7850
▁боомт	-7851
▁захын	-7852
▁ирвэл	-7853
▁оройт	-7854
▁ялгаж	-7855
▁Өдгөө	-7856
▁өнөөг	-7857
лэгддэг	-7858
▁Жилийн	-7859
▁зогсох	-7860
▁тунгаа	-7861
▁хариуд	-7862
▁хүрлээ	-7863
▁явахыг	-7864
▁өргөтг	-7865
▁Цэргийн	-7866
▁бүхнээс	-7867
▁дампуур	-7868
▁дамжуулж	-7869
▁хаалттай	-7870
▁Сургуулийн	-7871
▁зарцуулдаг	-7872
▁Гуравдугаар	-7873
▁гүйцэтгэдэг	-7874
▁ажиллагаатай	-7875
▁хуралдаанаар	-7876
28	-7877
БН	-7878
мм	-7879
oft	-7880
ros	-7881
лер	-7882
▁Sp	-7883
▁сп	-7884
▁21-	-7885
эхээс	-7886
▁тест	-7887
▁өдөө	-7888
▁авагч	-7889
▁гэнээ	-7890
▁таньд	-7891
▁Тайван	-7892
▁суртах	-7893
▁хотоос	-7894
▁хийлгэж	-7895
▁Интернет	-7896
▁болгоныг	-7897
▁боловсон	-7898
▁тохиолдл	-7899
▁хараарай	-7900
▁таалагдах	-7901
▁чадваргүй	-7902
▁хангалтгүй	-7903
ЗД	-7904
ӨН	-7905
Зөв	-7906
▁шт	-7907
гөөс	-7908
эрэн	-7909
янга	-7910
▁ЗХУ	-7911
▁Урт	-7912
▁дэн	-7913
▁олз	-7914
▁хус	-7915
ойтон	-7916
▁хийц	-7917
▁бишээ	-7918
▁сонсг	-7919
▁хүдэр	-7920
▁ядуур	-7921
▁дүнгээ	-7922
▁уншдаг	-7923
▁хотноо	-7924
▁хүлээд	-7925
▁үлдлээ	-7926
▁Канадын	-7927
▁Угаасаа	-7928
▁даатгал	-7929
▁хариулж	-7930
▁асуултын	-7931
▁болгоход	-7932
▁нэрлэсэн	-7933
▁зөвлөгөөг	-7934
▁хүсдэггүй	-7935
▁өрсөлдөөн	-7936
▁хөдөлгөөнд	-7937
▁монголчуудын	-7938
▁АМ	-7939
хаас	-7940
дахад	-7941
▁Гэмт	-7942
▁ядан	-7943
▁Буруу	-7944
▁ондоо	-7945
▁багтаж	-7946
▁бэлдэж	-7947
▁татаад	-7948
▁хашгир	-7949
▁хэлтэй	-7950
▁чадлаа	-7951
▁дурсгал	-7952
▁төмрийн	-7953
▁эрхлэгч	-7954
▁үйлдвэрт	-7955
▁тэнгэрийн	-7956
▁боловсролтой	-7957
сс	-7958
илд	-7959
ойн	-7960
тэж	-7961
уус	-7962
хуяг	-7963
▁ИТХ	-7964
▁шог	-7965
▁хүсэн	-7966
▁Өдөрт	-7967
▁бөөний	-7968
▁оюутны	-7969
▁сэтгэх	-7970
▁хийхээ	-7971
уууууууу	-7972
▁нийцсэн	-7973
▁таашаал	-7974
▁ихэнхдээ	-7975
▁хариулах	-7976
▁Өглөөний	-7977
▁бичигдсэн	-7978
▁худалдаанд	-7979
▁үгүйсгэхгүй	-7980
AN	-7981
▁Үс	-7982
Үгүй	-7983
▁Сэд	-7984
▁сод	-7985
▁угт	-7986
лдсэн	-7987
▁..."	-7988
▁Гэнэ	-7989
▁тенд	-7990
Сайхан	-7991
▁Жолоо	-7992
▁Халдв	-7993
▁Хариу	-7994
▁харам	-7995
▁эзлэх	-7996
▁өрөвд	-7997
▁биеийг	-7998
▁нүцгэн	-7999
▁оросын	-8000
▁тавтай	-8001
▁цалинг	-8002
▁Шүүхийн	-8003
▁сургамж	-8004
▁брэндийн	-8005
▁хүүхнүүд	-8006
▁ажиллуулж	-8007
▁тохируулах	-8008
▁залуучуудын	-8009
▁үйлчилгээнд	-8010
▁Монголчуудын	-8011
АД	-8012
ХБ	-8013
ӨВ	-8014
Бар	-8015
▁Ме	-8016
▁ХУ	-8017
врыг	-8018
▁Ром	-8019
▁өмд	-8020
аанаа	-8021
▁Швей	-8022
▁цээр	-8023
▁эхэн	-8024
▁юмны	-8025
▁үсээ	-8026
үүгээр	-8027
▁Жирэм	-8028
▁Санаа	-8029
▁байлд	-8030
▁эмгэг	-8031
▁ягаан	-8032
Ерөнхий	-8033
▁Чөлөөт	-8034
▁жолоод	-8035
▁стресс	-8036
▁цаашаа	-8037
▁энерги	-8038
▁өгөхөд	-8039
▁Хөвсгөл	-8040
▁дууслаа	-8041
▁нүүрний	-8042
▁шинэхэн	-8043
▁анхаарна	-8044
▁эрчимтэй	-8045
▁дамжуулах	-8046
▁долдугаар	-8047
▁сонголтыг	-8048
▁туршилтын	-8049
▁хариулсан	-8050
▁технологийг	-8051
▁үйлдвэрлэсэн	-8052
ач	-8053
Сар	-8054
атф	-8055
олыг	-8056
ъект	-8057
▁Хоё	-8058
▁бүж	-8059
иагүй	-8060
тнүүд	-8061
▁Хаяг	-8062
witter	-8063
огдоно	-8064
▁алуур	-8065
▁мужид	-8066
▁хором	-8067
▁Хичээл	-8068
▁бүрээр	-8069
▁дуусна	-8070
▁орчуул	-8071
▁пуужин	-8072
▁туулах	-8073
▁цэнхэр	-8074
▁эсэхээ	-8075
▁Ингэхэд	-8076
▁байрлаж	-8077
▁бүрдсэн	-8078
▁зэргээр	-8079
▁төрүүлж	-8080
▁харьяал	-8081
▁ажилчдын	-8082
▁хүчилтөр	-8083
▁ажиллахад	-8084
▁хөдөлгүүр	-8085
▁стандартын	-8086
▁хангамжийн	-8087
7-	-8088
te	-8089
ЗХ	-8090
ьяа	-8091
▁Am	-8092
▁ДЭМ	-8093
▁бир	-8094
портл	-8095
▁Говь	-8096
▁уйлж	-8097
▁хонь	-8098
▁Аялал	-8099
▁жишиг	-8100
▁занал	-8101
▁сайтад	-8102
▁салсан	-8103
▁уугаад	-8104
▁Нямдорж	-8105
▁Тусгаар	-8106
▁тушаалд	-8107
▁шүүмжил	-8108
▁эхнэрээ	-8109
▁болоосой	-8110
▁залуутай	-8111
▁зөөврийн	-8112
▁мэдэрсэн	-8113
▁хэрэгжих	-8114
▁өгдөггүй	-8115
▁байгаатай	-8116
▁баримтлал	-8117
▁таамаглаж	-8118
▁хориглосон	-8119
▁цэцэрлэгийн	-8120
ЕХ	-8121
Од	-8122
ама	-8123
▁55	-8124
▁Ат	-8125
Йорк	-8126
гооё	-8127
гээж	-8128
ятад	-8129
▁Стр	-8130
▁Хаг	-8131
▁алс	-8132
агтаа	-8133
актик	-8134
ологи	-8135
▁Поль	-8136
▁зочл	-8137
▁нүүл	-8138
▁усыг	-8139
гоороо	-8140
▁бишүү	-8141
▁даанч	-8142
▁оюуны	-8143
▁үлдэг	-8144
▁өмсөж	-8145
▁апплик	-8146
▁дуулга	-8147
▁малгай	-8148
▁төлөөх	-8149
▁хаврын	-8150
▁хүүтэй	-8151
▁үнэлэх	-8152
▁Ганцхан	-8153
▁түмнийг	-8154
▁явуулна	-8155
▁илгээсэн	-8156
▁хэмээжээ	-8157
▁цэвэрхэн	-8158
▁Монголоос	-8159
▁баригдсан	-8160
▁тогтолцоог	-8161
▁Боловсролын	-8162
PS	-8163
ТО	-8164
Ээж	-8165
бур	-8166
сул	-8167
▁En	-8168
▁цор	-8169
▁	-8170
а	-8171
э	-8172
н	-8173
г	-8174
л	-8175
р	-8176
д	-8177
о	-8178
х	-8179
й	-8180
и	-8181
у	-8182
ү	-8183
т	-8184
с	-8185
б	-8186
ө	-8187
м	-8188
.	-8189
ж	-8190
в	-8191
ч	-8192
ы	-8193
з	-8194
ь	-8195
ш	-8196
ц	-8197
я	-8198
,	-8199
е	-8200
Т	-8201
-	-8202
Х	-8203
ю	-8204
"	-8205
Б	-8206
Э	-8207
0	-8208
А	-8209
1	-8210
к	-8211
М	-8212
2	-8213
Н	-8214
?	-8215
Г	-8216
У	-8217
ё	-8218
С	-8219
e	-8220
п	-8221
Д	-8222
:	-8223
О	-8224
И	-8225
o	-8226
a	-8227
З	-8228
Ө	-8229
n	-8230
Ү	-8231
i	-8232
3	-8233
r	-8234
5	-8235
t	-8236
9	-8237
s	-8238
4	-8239
!	-8240
Я	-8241
l	-8242
8	-8243
Ш	-8244
Е	-8245
6	-8246
7	-8247
Ц	-8248
)	-8249
u	-8250
Ч	-8251
v	-8252
Ж	-8253
К	-8254
ф	-8255
(	-8256
Л	-8257
m	-8258
c	-8259
d	-8260
/	-8261
Р	-8262
S	-8263
h	-8264
p	-8265
g	-8266
M	-8267
A	-8268
y	-8269
P	-8270
I	-8271
П	-8272
C	-8273
В	-8274
b	-8275
N	-8276
T	-8277
D	-8278
k	-8279
є	-8280
E	-8281
B	-8282
w	-8283
O	-8284
Ф	-8285
_	-8286
ъ	-8287
R	-8288
Й	-8289
G	-8290
L	-8291
f	-8292
F	-8293
H	-8294
;	-8295
*	-8296
x	-8297
Ю	-8298
W	-8299
[	-8300
]	-8301
#	-8302
U	-8303
V	-8304
%	-8305
·	-8306
'	-8307
Y	-8308
J	-8309
•	-8310
X	-8311
>	-8312
ѳ	-8313
K	-8314
z	-8315
|	-8316
$	-8317
j	-8318
Ё	-8319
Ы	-8320
ї	-8321
&	-8322
+	-8323
=	-8324
~	-8325
Z	-8326
<	-8327
Q	-8328
Ь	-8329
q	-8330
^	-8331
@	-8332
→	-8333
ђ	-8334
щ	-8335
һ	-8336
î	-8337
Є	-8338
₮	-8339
🙂	-8340
️	-8341
ҕ	-8342
ҥ	-8343
°	-8344
←	-8345
{	-8346
ا	-8347
à	-8348
′	-8349
}	-8350
ý	-8351
ر	-8352
€	-8353
ü	-8354
¬	-8355
\	-8356
é	-8357
í	-8358
●	-8359
ә	-8360
ë	-8361
ñ	-8362
ѐ	-8363
¿	-8364
ò	-8365
ل	-8366
›	-8367
😀	-8368
â	-8369
©	-8370
Ъ	-8371
↑	-8372
è	-8373
س	-8374
►	-8375
ã	-8376
Ѳ	-8377
ة	-8378
ك	-8379
❤	-8380
ح	-8381
Í	-8382
®	-8383
ä	-8384
₪	-8385
ð	-8386
ج	-8387
́	-8388
√	-8389
£	-8390
♥	-8391
✅	-8392
😉	-8393
Ї	-8394
🎁	-8395
✔	-8396
õ	-8397
い	-8398
á	-8399
☮	-8400
♛	-8401
ó	-8402
Щ	-8403
ᄏ	-8404
★	-8405
😛	-8406
な	-8407
ö	-8408
ん	-8409
Џ	-8410
ѕ	-8411
م	-8412
时	-8413
し	-8414
ў	-8415
の	-8416
・	-8417
ي	-8418
≤	-8419
☞	-8420
す	-8421
×	-8422
ң	-8423
ı	-8424
😍	-8425
🙏	-8426
ì	-8427
ā	-8428
і	-8429
⁄	-8430
÷	-8431
μ	-8432
ま	-8433
る	-8434
😭	-8435
Ø	-8436
Ќ	-8437
う	-8438
て	-8439
😂	-8440
😅	-8441
§	-8442
ћ	-8443
қ	-8444
に	-8445
이	-8446
🔊	-8447
🔥	-8448
😊	-8449
ï	-8450
ø	-8451
җ	-8452
ᅲ	-8453
ế	-8454
≈	-8455
】	-8456
名	-8457
û	-8458
̄	-8459
ن	-8460
♦	-8461
♪	-8462
✿	-8463
【	-8464
そ	-8465
で	-8466
ら	-8467
±	-8468
ç	-8469
ɵ	-8470
Ў	-8471
ќ	-8472
※	-8473
「	-8474
か	-8475
歌	-8476
æ	-8477
ə	-8478
α	-8479
І	-8480
ع	-8481
و	-8482
♫	-8483
あ	-8484
く	-8485
こ	-8486
た	-8487
彩	-8488
曲	-8489
称	-8490
요	-8491
🏻	-8492
¥	-8493
̈	-8494
γ	-8495
د	-8496
⭐	-8497
」	-8498
と	-8499
よ	-8500
り	-8501
れ	-8502
ー	-8503
👉	-8504
👏	-8505
💵	-8506
🤗	-8507
🤣	-8508
🤩	-8509
Õ	-8510
ş	-8511
‐	-8512
↓	-8513
↙	-8514
✓	-8515
。	-8516
が	-8517
だ	-8518
は	-8519
を	-8520
国	-8521
나	-8522
😦	-8523
😱	-8524
Á	-8525
Ü	-8526
š	-8527
ه	-8528
†	-8529
−	-8530
⋆	-8531
☈	-8532
♚	-8533
お	-8534
き	-8535
っ	-8536
も	-8537
ン	-8538
学	-8539
書	-8540
어	-8541
유	-8542
👍	-8543
📌	-8544
😢	-8545
¦	-8546
Ş	-8547
ƒ	-8548
ɪ	-8549
Ћ	-8550
ո	-8551
י	-8552
ר	-8553
ف	-8554
ᄂ	-8555
■	-8556
◆	-8557
○	-8558
☺	-8559
♡	-8560
け	-8561
ば	-8562
日	-8563
기	-8564
리	-8565
💯	-8566
¢	-8567
Ç	-8568
É	-8569
ư	-8570
ˈ	-8571
̷	-8572
β	-8573
ι	-8574
π	-8575
ұ	-8576
ն	-8577
א	-8578
ی	-8579
ᄅ	-8580
ᠠ	-8581
ᠢ	-8582
ớ	-8583
≥	-8584
▪	-8585
☆	-8586
✨	-8587
➜	-8588
➡	-8589
、	-8590
さ	-8591
せ	-8592
ち	-8593
つ	-8594
め	-8595
わ	-8596
ル	-8597
人	-8598
会	-8599
時	-8600
楽	-8601
김	-8602
니	-8603
다	-8604
¤	-8605
Ò	-8606
ß	-8607
ο	-8608
џ	-8609
ґ	-8610
Һ	-8611
ա	-8612
ե	-8613
մ	-8614
ط	-8615
غ	-8616
ᠳ	-8617
―	-8618
‹	-8619
⃣	-8620
∞	-8621
▲	-8622
◊	-8623
☀	-8624
♀	-8625
ご	-8626
じ	-8627
一	-8628
古	-8629
図	-8630
愛	-8631
江	-8632
済	-8633
経	-8634
蒙	-8635
行	-8636
表	-8637
路	-8638
返	-8639
部	-8640
際	-8641
말	-8642
배	-8643
사	-8644
서	-8645
정	-8646
지	-8647
하	-8648
🔴	-8649
😁	-8650
😘	-8651
À	-8652
Ã	-8653
Ë	-8654
Ñ	-8655
Ý	-8656
ú	-8657
İ	-8658
ō	-8659
ω	-8660
Ѕ	-8661
ғ	-8662
ל	-8663
ب	-8664
ق	-8665
ہ	-8666
ค	-8667
᠋	-8668
ᠨ	-8669
ᠷ	-8670
₩	-8671
▼	-8672
☛	-8673
☻	-8674
♂	-8675
え	-8676
げ	-8677
ょ	-8678
ㄟ	-8679
中	-8680
台	-8681
平	-8682
文	-8683
月	-8684
本	-8685
語	-8686
間	-8687
내	-8688
대	-8689
비	-8690
세	-8691
아	-8692
영	-8693
원	-8694
저	-8695
제	-8696
한	-8697
🇷	-8698
🌟	-8699
👩	-8700
💎	-8701
💥	-8702
📍	-8703
😃	-8704
😆	-8705
😇	-8706
😜	-8707
😝	-8708
🥳	-8709
Ä	-8710
Ð	-8711
Ö	-8712
å	-8713
ê	-8714
ô	-8715
þ	-8716
Ā	-8717
č	-8718
ī	-8719
Œ	-8720
ʀ	-8721
̀	-8722
Δ	-8723
ί	-8724
θ	-8725
λ	-8726
σ	-8727
ѓ	-8728
Ҥ	-8729
Ӏ	-8730
ӈ	-8731
ӓ	-8732
ӧ	-8733
ӱ	-8734
ս	-8735
տ	-8736
ւ	-8737
ք	-8738
נ	-8739
ע	-8740
أ	-8741
ش	-8742
ى	-8743
ন	-8744
ਰ	-8745
க	-8746
ง	-8747
น	-8748
ม	-8749
ย	-8750
โ	-8751
่	-8752
ᠡ	-8753
ᠦ	-8754
ᴇ	-8755
ḥ	-8756
ṭ	-8757
‖	-8758
∙	-8759
◦	-8760
☎	-8761
⚡	-8762
⚫	-8763
❗	-8764
➢	-8765
⦁	-8766
《	-8767
》	-8768
〓	-8769
ざ	-8770
ど	-8771
ひ	-8772
み	-8773
ゃ	-8774
や	-8775
キ	-8776
ゴ	-8777
シ	-8778
ナ	-8779
フ	-8780
モ	-8781
リ	-8782
上	-8783
下	-8784
件	-8785
信	-8786
出	-8787
天	-8788
子	-8789
我	-8790
法	-8791
版	-8792
现	-8793
的	-8794
自	-8795
软	-8796
达	-8797
通	-8798
音	-8799
高	-8800
경	-8801
구	-8802
국	-8803
뉴	-8804
는	-8805
라	-8806
로	-8807
바	-8808
법	-8809
부	-8810
수	-8811
스	-8812
신	-8813
야	-8814
오	-8815
우	-8816
의	-8817
인	-8818
자	-8819
장	-8820
주	-8821
태	-8822
토	-8823
티	-8824
함	-8825
해	-8826
현	-8827
횊	-8828
회	-8829
후	-8830
︎	-8831
🌈	-8832
🍷	-8833
🎯	-8834
🏠	-8835
👎	-8836
👨	-8837
💚	-8838
💜	-8839
💫	-8840
💰	-8841
🔬	-8842
🔰	-8843
🚗	-8844
🤑	-8845
🤘	-8846
🤟	-8847
🤮	-8848
🥇	-8849
Æ	-8850
È	-8851
ÿ	-8852
ć	-8853
Č	-8854
đ	-8855
ĕ	-8856
ė	-8857
ğ	-8858
Ł	-8859
ł	-8860
ń	-8861
ś	-8862
ū	-8863
ǿ	-8864
ɐ	-8865
ʜ	-8866
ˌ	-8867
̌	-8868
͜	-8869
Ω	-8870
δ	-8871
ε	-8872
κ	-8873
ν	-8874
ρ	-8875
ς	-8876
φ	-8877
ј	-8878
њ	-8879
Ґ	-8880
Ҳ	-8881
ҳ	-8882
ӣ	-8883
կ	-8884
ղ	-8885
ր	-8886
ב	-8887
ג	-8888
ה	-8889
ו	-8890
ת	-8891
ت	-8892
خ	-8893
ذ	-8894
ص	-8895
ک	-8896
क	-8897
ब	-8898
ल	-8899
ा	-8900
া	-8901
ু	-8902
্	-8903
ਟ	-8904
ਪ	-8905
ਸ	-8906
ก	-8907
ซ	-8908
ด	-8909
ล	-8910
ส	-8911
อ	-8912
ิ	-8913
ี	-8914
เ	-8915
ใ	-8916
้	-8917
྆	-8918
န	-8919
မ	-8920
့	-8921
း	-8922
ᄀ	-8923
ᆞ	-8924
ᠥ	-8925
ᠬ	-8926
ᠭ	-8927
ᠮ	-8928
ᠶ	-8929
ᵴ	-8930
ḍ	-8931
ṅ	-8932
ṇ	-8933
‣	-8934
‰	-8935
₽	-8936
↔	-8937
⇒	-8938
⇨	-8939
∂	-8940
∆	-8941
≠	-8942
⎪	-8943
⏱	-8944
│	-8945
█	-8946
□	-8947
▶	-8948
☹	-8949
♏	-8950
♔	-8951
♠	-8952
⚽	-8953
✈	-8954
❀	-8955
❄	-8956
❷	-8957
❹	-8958
❼	-8959
⠀	-8960
ぐ	-8961
ぶ	-8962
ゅ	-8963
ろ	-8964
イ	-8965
ウ	-8966
ギ	-8967
ク	-8968
コ	-8969
サ	-8970
ソ	-8971
ダ	-8972
ド	-8973
ブ	-8974
ャ	-8975
ョ	-8976
ㄍ	-8977
ㄎ	-8978
ㄨ	-8979
世	-8980
业	-8981
个	-8982
交	-8983
介	-8984
仔	-8985
代	-8986
们	-8987
住	-8988
作	-8989
便	-8990
内	-8991
分	-8992
十	-8993
南	-8994
号	-8995
合	-8996
品	-8997
商	-8998
回	-8999
団	-9000
图	-9001
地	-9002
基	-9003
変	-9004
夢	-9005
安	-9006
展	-9007
山	-9008
形	-9009
後	-9010
御	-9011
手	-9012
族	-9013
是	-9014
曜	-9015
李	-9016
松	-9017
止	-9018
気	-9019
水	-9020
流	-9021
点	-9022
理	-9023
生	-9024
用	-9025
田	-9026
発	-9027
皇	-9028
社	-9029
简	-9030
管	-9031
紀	-9032
線	-9033
网	-9034
美	-9035
翻	-9036
者	-9037
聲	-9038
胡	-9039
解	-9040
言	-9041
証	-9042
話	-9043
誌	-9044
译	-9045
请	-9046
责	-9047
身	-9048
載	-9049
近	-9050
達	-9051
重	-9052
金	-9053
鈴	-9054
门	-9055
革	-9056
類	-9057
麦	-9058
黑	-9059
龙	-9060
꧁	-9061
게	-9062
고	-9063
권	-9064
규	-9065
남	-9066
너	-9067
노	-9068
도	-9069
동	-9070
루	-9071
르	-9072
린	-9073
무	-9074
미	-9075
민	-9076
보	-9077
브	-9078
새	-9079
선	-9080
시	-9081
안	-9082
알	-9083
없	-9084
역	-9085
연	-9086
예	-9087
올	-9088
으	-9089
은	-9090
을	-9091
전	-9092
즈	-9093
직	-9094
창	-9095
초	-9096
최	-9097
크	-9098
통	-9099
튜	-9100
트	-9101
화	-9102
훈	-9103
희	-9104
🇰	-9105
🇲	-9106
🇺	-9107
🌙	-9108
🌱	-9109
🌸	-9110
🎧	-9111
👀	-9112
👐	-9113
👷	-9114
💁	-9115
💃	-9116
💅	-9117
💙	-9118
📎	-9119
🔅	-9120
🔌	-9121
🔑	-9122
🔵	-9123
🔶	-9124
🔸	-9125
🗃	-9126
😋	-9127
😎	-9128
😓	-9129
😔	-9130
🙁	-9131
🙃	-9132
🙌	-9133
🚫	-9134
🛫	-9135
🤔	-9136
🤪	-9137
🥰	-9138
🥺	-9139
🦉	-9140
🦸	-9141
¶	-9142
Â	-9143
Ê	-9144
Ì	-9145
Î	-9146
Ô	-9147
ă	-9148
ē	-9149
Ė	-9150
ę	-9151
ě	-9152
Į	-9153
ĸ	-9154
ľ	-9155
ň	-9156
œ	-9157
ř	-9158
ť	-9159
ŧ	-9160
ů	-9161
Ž	-9162
Ɗ	-9163
ǎ	-9164
ǐ	-9165
ɇ	-9166
ɑ	-9167
ɲ	-9168
ɴ	-9169
ʏ	-9170
ʟ	-9171
ː	-9172
˗	-9173
̵	-9174
̸	-9175
͞	-9176
Η	-9177
Κ	-9178
Μ	-9179
Ο	-9180
Τ	-9181
Φ	-9182
Ψ	-9183
ά	-9184
ή	-9185
η	-9186
τ	-9187
υ	-9188
ό	-9189
ύ	-9190
ώ	-9191
Ђ	-9192
҉	-9193
Җ	-9194
Қ	-9195
ҡ	-9196
Ң	-9197
Ұ	-9198
ҷ	-9199
ӄ	-9200
Ӈ	-9201
ӑ	-9202
Ә	-9203
ӝ	-9204
ӯ	-9205
Ա	-9206
Գ	-9207
Ե	-9208
Ո	-9209
դ	-9210
զ	-9211
ը	-9212
ի	-9213
լ	-9214
խ	-9215
յ	-9216
չ	-9217
վ	-9218
ց	-9219
ז	-9220
ט	-9221
מ	-9222
פ	-9223
،	-9224
؟	-9225
إ	-9226
ز	-9227
ض	-9228
َ	-9229
ۇ	-9230
ە	-9231
ं	-9232
इ	-9233
ए	-9234
ज	-9235
र	-9236
़	-9237
ि	-9238
ै	-9239
१	-9240
४	-9241
७	-9242
९	-9243
অ	-9244
ই	-9245
ক	-9246
চ	-9247
ত	-9248
দ	-9249
ব	-9250
র	-9251
ি	-9252
ে	-9253
ਂ	-9254
ਕ	-9255
ਮ	-9256
ਹ	-9257
ਾ	-9258
ਿ	-9259
ੀ	-9260
ੂ	-9261
ੈ	-9262
ੌ	-9263
ட	-9264
ழ	-9265
ா	-9266
ி	-9267
ூ	-9268
ை	-9269
்	-9270
ೋ	-9271
จ	-9272
ต	-9273
ท	-9274
ฝ	-9275
พ	-9276
ฟ	-9277
ภ	-9278
ว	-9279
ษ	-9280
ห	-9281
ฬ	-9282
ั	-9283
า	-9284
ึ	-9285
แ	-9286
ไ	-9287
์	-9288
࿐	-9289
တ	-9290
လ	-9291
သ	-9292
ဦ	-9293
ိ	-9294
ု	-9295
ေ	-9296
္	-9297
်	-9298
ြ	-9299
၊	-9300
ᄆ	-9301
ᄇ	-9302
ᄋ	-9303
ᄒ	-9304
ᅮ	-9305
ᅳ	-9306
ᅵ	-9307
ᐉ	-9308
ᠤ	-9309
ᠫ	-9310
ᠯ	-9311
ᠰ	-9312
ᠱ	-9313
ᠴ	-9314
ᠵ	-9315
ᠹ	-9316
ᠻ	-9317
ᠼ	-9318
᭄	-9319
ᴀ	-9320
ᴄ	-9321
ᴍ	-9322
ᴜ	-9323
ᴠ	-9324
ᵯ	-9325
ṃ	-9326
ẙ	-9327
ầ	-9328
ắ	-9329
ằ	-9330
ễ	-9331
ờ	-9332
ἰ	-9333
‡	-9334
₹	-9335
↖	-9336
↳	-9337
∈	-9338
≫	-9339
⋯	-9340
⌚	-9341
╒	-9342
╘	-9343
╟	-9344
╢	-9345
▍	-9346
▨	-9347
◇	-9348
☂	-9349
☑	-9350
☔	-9351
☕	-9352
☘	-9353
☝	-9354
☤	-9355
♣	-9356
♻	-9357
⚃	-9358
⚕	-9359
⚙	-9360
⚠	-9361
✌	-9362
✍	-9363
✞	-9364
✯	-9365
❂	-9366
❃	-9367
❏	-9368
❖	-9369
➥	-9370
➳	-9371
⿱	-9372
『	-9373
』	-9374
ぎ	-9375
ぬ	-9376
べ	-9377
ほ	-9378
ゆ	-9379
ィ	-9380
カ	-9381
ガ	-9382
ゲ	-9383
ジ	-9384
セ	-9385
ゼ	-9386
タ	-9387
チ	-9388
ツ	-9389
ヅ	-9390
デ	-9391
ニ	-9392
ハ	-9393
バ	-9394
ヒ	-9395
ビ	-9396
ベ	-9397
ペ	-9398
マ	-9399
ミ	-9400
ム	-9401
ラ	-9402
七	-9403
万	-9404
三	-9405
不	-9406
么	-9407
乐	-9408
也	-9409
二	-9410
云	-9411
互	-9412
京	-9413
今	-9414
他	-9415
付	-9416
任	-9417
企	-9418
伊	-9419
休	-9420
众	-9421
位	-9422
何	-9423
你	-9424
使	-9425
係	-9426
保	-9427
修	-9428
俺	-9429
們	-9430
停	-9431
健	-9432
側	-9433
僕	-9434
優	-9435
儿	-9436
元	-9437
光	-9438
克	-9439
免	-9440
八	-9441
公	-9442
册	-9443
再	-9444
冯	-9445
划	-9446
別	-9447
前	-9448
势	-9449
動	-9450
勖	-9451
務	-9452
勧	-9453
包	-9454
化	-9455
北	-9456
医	-9457
午	-9458
华	-9459
博	-9460
卡	-9461
参	-9462
叫	-9463
召	-9464
向	-9465
吗	-9466
君	-9467
员	-9468
周	-9469
味	-9470
命	-9471
和	-9472
唐	-9473
售	-9474
唱	-9475
問	-9476
喵	-9477
器	-9478
國	-9479
圖	-9480
址	-9481
型	-9482
場	-9483
塑	-9484
塚	-9485
士	-9486
声	-9487
夂	-9488
夕	-9489
夜	-9490
太	-9491
奇	-9492
奋	-9493
好	-9494
妹	-9495
委	-9496
姿	-9497
娱	-9498
字	-9499
宅	-9500
宗	-9501
定	-9502
室	-9503
宽	-9504
密	-9505
导	-9506
小	-9507
少	-9508
局	-9509
属	-9510
履	-9511
岩	-9512
峮	-9513
州	-9514
巡	-9515
巣	-9516
工	-9517
帝	-9518
带	-9519
帮	-9520
帯	-9521
年	-9522
庆	-9523
府	-9524
康	-9525
建	-9526
开	-9527
异	-9528
弦	-9529
当	-9530
录	-9531
心	-9532
必	-9533
志	-9534
忘	-9535
忙	-9536
快	-9537
怎	-9538
恩	-9539
悔	-9540
您	-9541
悲	-9542
情	-9543
意	-9544
憎	-9545
戒	-9546
戰	-9547
戸	-9548
打	-9549
払	-9550
抢	-9551
拶	-9552
指	-9553
挨	-9554
探	-9555
掲	-9556
提	-9557
改	-9558
故	-9559
斗	-9560
斥	-9561
斯	-9562
新	-9563
早	-9564
昌	-9565
星	-9566
昴	-9567
普	-9568
暲	-9569
更	-9570
會	-9571
有	-9572
望	-9573
朝	-9574
机	-9575
村	-9576
林	-9577
査	-9578
株	-9579
格	-9580
椰	-9581
楫	-9582
業	-9583
概	-9584
構	-9585
横	-9586
機	-9587
歳	-9588
残	-9589
毛	-9590
民	-9591
气	-9592
永	-9593
沖	-9594
没	-9595
河	-9596
治	-9597
沿	-9598
注	-9599
泰	-9600
洛	-9601
洞	-9602
浙	-9603
浜	-9604
淮	-9605
渡	-9606
湖	-9607
漏	-9608
演	-9609
照	-9610
燼	-9611
牛	-9612
特	-9613
玉	-9614
甘	-9615
町	-9616
画	-9617
留	-9618
登	-9619
百	-9620
盘	-9621
眉	-9622
码	-9623
破	-9624
礦	-9625
祉	-9626
祐	-9627
神	-9628
福	-9629
离	-9630
私	-9631
秘	-9632
稳	-9633
站	-9634
等	-9635
米	-9636
糞	-9637
紇	-9638
給	-9639
红	-9640
线	-9641
考	-9642
能	-9643
腕	-9644
臨	-9645
舞	-9646
航	-9647
良	-9648
華	-9649
葵	-9650
藏	-9651
藤	-9652
蘭	-9653
蛋	-9654
蠟	-9655
衛	-9656
袖	-9657
裏	-9658
製	-9659
西	-9660
要	-9661
見	-9662
視	-9663
親	-9664
见	-9665
誉	-9666
説	-9667
諸	-9668
識	-9669
讃	-9670
计	-9671
让	-9672
记	-9673
语	-9674
读	-9675
课	-9676
豚	-9677
象	-9678
貸	-9679
費	-9680
賃	-9681
資	-9682
賞	-9683
趋	-9684
車	-9685
軒	-9686
輝	-9687
载	-9688
辉	-9689
输	-9690
辺	-9691
込	-9692
运	-9693
还	-9694
迴	-9695
迹	-9696
送	-9697
逢	-9698
連	-9699
進	-9700
過	-9701
選	-9702
郑	-9703
都	-9704
配	-9705
里	-9706
鑑	-9707
钱	-9708
银	-9709
镇	-9710
长	-9711
関	-9712
问	-9713
间	-9714
阒	-9715
际	-9716
陝	-9717
险	-9718
陳	-9719
随	-9720
雑	-9721
電	-9722
面	-9723
韬	-9724
響	-9725
題	-9726
颚	-9727
駅	-9728
马	-9729
鵬	-9730
黄	-9731
龶	-9732
꧂	-9733
가	-9734
갑	-9735
갤	-9736
거	-9737
걸	-9738
것	-9739
겠	-9740
격	-9741
계	-9742
골	-9743
공	-9744
과	-9745
관	-9746
교	-9747
굴	-9748
긋	-9749
긱	-9750
끼	-9751
단	-9752
달	-9753
답	-9754
더	-9755
돈	-9756
둥	-9757
딩	-9758
떻	-9759
또	-9760
뚜	-9761
뚝	-9762
랑	-9763
래	-9764
랫	-9765
러	-9766
렘	-9767
려	-9768
룬	-9769
룰	-9770
류	-9771
를	-9772
림	-9773
릿	-9774
마	-9775
만	-9776
매	-9777
먹	-9778
메	-9779
며	-9780
명	-9781
모	-9782
몽	-9783
문	-9784
뭘	-9785
뮤	-9786
반	-9787
밥	-9788
백	-9789
밴	-9790
버	-9791
번	-9792
베	-9793
벼	-9794
변	-9795
병	-9796
불	-9797
뷔	-9798
븐	-9799
블	-9800
빈	-9801
뻐	-9802
뿌	-9803
상	-9804
생	-9805
석	-9806
설	-9807
섭	-9808
성	-9809
송	-9810
숙	-9811
슨	-9812
습	-9813
승	-9814
식	-9815
실	-9816
싼	-9817
쌍	-9818
양	-9819
업	-9820
에	-9821
엘	-9822
엥	-9823
여	-9824
열	-9825
옷	-9826
와	-9827
왔	-9828
외	-9829
용	-9830
울	-9831
웆	-9832
워	-9833
월	-9834
윤	-9835
율	-9836
응	-9837
일	-9838
있	-9839
잘	-9840
재	-9841
적	-9842
조	-9843
죄	-9844
죻	-9845
진	-9846
짓	-9847
짱	-9848
찌	-9849
찡	-9850
차	-9851
찾	-9852
채	-9853
청	-9854
체	-9855
침	-9856
칩	-9857
칫	-9858
카	-9859
커	-9860
케	-9861
코	-9862
콕	-9863
콧	-9864
키	-9865
탄	-9866
탓	-9867
탠	-9868
터	-9869
틴	-9870
팅	-9871
팝	-9872
퍼	-9873
펄	-9874
평	-9875
폰	-9876
푸	-9877
플	-9878
픽	-9879
학	-9880
항	-9881
햄	-9882
혀	-9883
혜	-9884
호	-9885
홈	-9886
홍	-9887
횒	-9888
횗	-9889
횜	-9890
흐	-9891
흥	-9892
￼	-9893
𖢘	-9894
🆕	-9895
🇫	-9896
🇳	-9897
🇸	-9898
🇽	-9899
🌃	-9900
🌄	-9901
🌅	-9902
🌍	-9903
🌐	-9904
🌡	-9905
🌳	-9906
🌻	-9907
🍀	-9908
🍁	-9909
🍇	-9910
🍑	-9911
🍞	-9912
🍩	-9913
🍯	-9914
🍰	-9915
🍱	-9916
🍹	-9917
🍽	-9918
🍾	-9919
🎀	-9920
🎄	-9921
🎬	-9922
🎶	-9923
🏆	-9924
🏋	-9925
🏣	-9926
🏦	-9927
🏼	-9928
👑	-9929
👦	-9930
👧	-9931
👽	-9932
💀	-9933
💉	-9934
💋	-9935
💐	-9936
💔	-9937
💕	-9938
💝	-9939
💡	-9940
💢	-9941
💩	-9942
💪	-9943
💸	-9944
💻	-9945
💼	-9946
📁	-9947
📅	-9948
📕	-9949
📖	-9950
📞	-9951
📣	-9952
📦	-9953
📱	-9954
📲	-9955
📷	-9956
🔄	-9957
🔹	-9958
🕑	-9959
🕘	-9960
🕯	-9961
🖐	-9962
🖤	-9963
🗓	-9964
😄	-9965
😈	-9966
😐	-9967
😑	-9968
😡	-9969
😥	-9970
😩	-9971
😫	-9972
😮	-9973
😰	-9974
😲	-9975
😶	-9976
😷	-9977
🙆	-9978
🙋	-9979
🙎	-9980
🚀	-9981
🚘	-9982
🚩	-9983
🛍	-9984
🛑	-9985
🛒	-9986
🛡	-9987
🤍	-9988
🤓	-9989
🤡	-9990
🤫	-9991
🥄	-9992
🦊	-9993
🦋	-9994
🧤	-9995
🧨	-9996
