{
  "version": "1.0",
  "truncation": null,
  "padding": null,
  "added_tokens": [
    {
      "id": 0,
      "content": "[UNK]",
      "single_word": false,
      "lstrip": false,
      "rstrip": false,
      "normalized": false,
      "special": true
    },
    {
      "id": 1,
      "content": "[CLS]",
      "single_word": false,
      "lstrip": false,
      "rstrip": false,
      "normalized": false,
      "special": true
    },
    {
      "id": 2,
      "content": "[SEP]",
      "single_word": false,
      "lstrip": false,
      "rstrip": false,
      "normalized": false,
      "special": true
    },
    {
      "id": 3,
      "content": "[PAD]",
      "single_word": false,
      "lstrip": false,
      "rstrip": false,
      "normalized": false,
      "special": true
    },
    {
      "id": 4,
      "content": "[MASK]",
      "single_word": false,
      "lstrip": false,
      "rstrip": false,
      "normalized": false,
      "special": true
    }
  ],
  "normalizer": {
    "type": "Sequence",
    "normalizers": [
      {
        "type": "NFKC"
      },
      {
        "type": "Lowercase"
      }
    ]
  },
  "pre_tokenizer": {
    "type": "Whitespace"
  },
  "post_processor": null,
  "decoder": {
    "type": "WordPiece",
    "prefix": "##",
    "cleanup": true
  },
  "model": {
    "type": "WordPiece",
    "unk_token": "[UNK]",
    "continuing_subword_prefix": "##",
    "max_input_chars_per_word": 100,
    "vocab": {
      "[UNK]": 0,
      "[CLS]": 1,
      "[SEP]": 2,
      "[PAD]": 3,
      "[MASK]": 4,
      "!": 5,
      "\"": 6,
      "#": 7,
      "$": 8,
      "%": 9,
      "&": 10,
      "'": 11,
      "(": 12,
      ")": 13,
      "*": 14,
      "+": 15,
      ",": 16,
      "-": 17,
      ".": 18,
      "/": 19,
      "0": 20,
      "1": 21,
      "2": 22,
      "3": 23,
      "4": 24,
      "5": 25,
      "6": 26,
      "7": 27,
      "8": 28,
      "9": 29,
      ":": 30,
      ";": 31,
      "<": 32,
      "=": 33,
      ">": 34,
      "?": 35,
      "@": 36,
      "[": 37,
      "\\": 38,
      "]": 39,
      "^": 40,
      "_": 41,
      "a": 42,
      "b": 43,
      "c": 44,
      "d": 45,
      "e": 46,
      "f": 47,
      "g": 48,
      "h": 49,
      "i": 50,
      "j": 51,
      "k": 52,
      "l": 53,
      "m": 54,
      "n": 55,
      "o": 56,
      "p": 57,
      "q": 58,
      "r": 59,
      "s": 60,
      "t": 61,
      "u": 62,
      "v": 63,
      "w": 64,
      "x": 65,
      "y": 66,
      "z": 67,
      "{": 68,
      "|": 69,
      "}": 70,
      "~": 71,
      "¢": 72,
      "£": 73,
      "¤": 74,
      "¥": 75,
      "¦": 76,
      "§": 77,
      "©": 78,
      "¬": 79,
      "®": 80,
      "°": 81,
      "±": 82,
      "¶": 83,
      "·": 84,
      "¿": 85,
      "×": 86,
      "ß": 87,
      "à": 88,
      "á": 89,
      "â": 90,
      "ã": 91,
      "ä": 92,
      "å": 93,
      "æ": 94,
      "ç": 95,
      "è": 96,
      "é": 97,
      "ê": 98,
      "ë": 99,
      "ì": 100,
      "í": 101,
      "î": 102,
      "ï": 103,
      "ð": 104,
      "ñ": 105,
      "ò": 106,
      "ó": 107,
      "ô": 108,
      "õ": 109,
      "ö": 110,
      "÷": 111,
      "ø": 112,
      "ú": 113,
      "û": 114,
      "ü": 115,
      "ý": 116,
      "þ": 117,
      "ÿ": 118,
      "ā": 119,
      "ă": 120,
      "ć": 121,
      "č": 122,
      "đ": 123,
      "ē": 124,
      "ĕ": 125,
      "ė": 126,
      "ę": 127,
      "ě": 128,
      "ğ": 129,
      "ī": 130,
      "į": 131,
      "ı": 132,
      "ĸ": 133,
      "ľ": 134,
      "ł": 135,
      "ń": 136,
      "ň": 137,
      "ō": 138,
      "œ": 139,
      "ř": 140,
      "ś": 141,
      "ş": 142,
      "š": 143,
      "ť": 144,
      "ŧ": 145,
      "ū": 146,
      "ů": 147,
      "ž": 148,
      "ƒ": 149,
      "ư": 150,
      "ǎ": 151,
      "ǐ": 152,
      "ǿ": 153,
      "ɇ": 154,
      "ɐ": 155,
      "ɑ": 156,
      "ɗ": 157,
      "ə": 158,
      "ɪ": 159,
      "ɲ": 160,
      "ɴ": 161,
      "ɵ": 162,
      "ʀ": 163,
      "ʏ": 164,
      "ʜ": 165,
      "ʟ": 166,
      "ˈ": 167,
      "ˌ": 168,
      "ː": 169,
      "˗": 170,
      "̀": 171,
      "́": 172,
      "̄": 173,
      "̇": 174,
      "̈": 175,
      "̌": 176,
      "̵": 177,
      "̷": 178,
      "̸": 179,
      "͜": 180,
      "͞": 181,
      "ά": 182,
      "ή": 183,
      "ί": 184,
      "α": 185,
      "β": 186,
      "γ": 187,
      "δ": 188,
      "ε": 189,
      "η": 190,
      "θ": 191,
      "ι": 192,
      "κ": 193,
      "λ": 194,
      "μ": 195,
      "ν": 196,
      "ο": 197,
      "π": 198,
      "ρ": 199,
      "ς": 200,
      "σ": 201,
      "τ": 202,
      "υ": 203,
      "φ": 204,
      "ψ": 205,
      "ω": 206,
      "ό": 207,
      "ύ": 208,
      "ώ": 209,
      "а": 210,
      "б": 211,
      "в": 212,
      "г": 213,
      "д": 214,
      "е": 215,
      "ж": 216,
      "з": 217,
      "и": 218,
      "й": 219,
      "к": 220,
      "л": 221,
      "м": 222,
      "н": 223,
      "о": 224,
      "п": 225,
      "р": 226,
      "с": 227,
      "т": 228,
      "у": 229,
      "ф": 230,
      "х": 231,
      "ц": 232,
      "ч": 233,
      "ш": 234,
      "щ": 235,
      "ъ": 236,
      "ы": 237,
      "ь": 238,
      "э": 239,
      "ю": 240,
      "я": 241,
      "ѐ": 242,
      "ё": 243,
      "ђ": 244,
      "ѓ": 245,
      "є": 246,
      "ѕ": 247,
      "і": 248,
      "ї": 249,
      "ј": 250,
      "њ": 251,
      "ћ": 252,
      "ќ": 253,
      "ў": 254,
      "џ": 255,
      "ѳ": 256,
      "҉": 257,
      "ґ": 258,
      "ғ": 259,
      "ҕ": 260,
      "җ": 261,
      "қ": 262,
      "ҡ": 263,
      "ң": 264,
      "ҥ": 265,
      "ү": 266,
      "ұ": 267,
      "ҳ": 268,
      "ҷ": 269,
      "һ": 270,
      "ӄ": 271,
      "ӈ": 272,
      "ӏ": 273,
      "ӑ": 274,
      "ӓ": 275,
      "ә": 276,
      "ӝ": 277,
      "ӣ": 278,
      "ӧ": 279,
      "ө": 280,
      "ӯ": 281,
      "ӱ": 282,
      "ա": 283,
      "գ": 284,
      "դ": 285,
      "ե": 286,
      "զ": 287,
      "ը": 288,
      "ի": 289,
      "լ": 290,
      "խ": 291,
      "կ": 292,
      "ղ": 293,
      "մ": 294,
      "յ": 295,
      "ն": 296,
      "ո": 297,
      "չ": 298,
      "ս": 299,
      "վ": 300,
      "տ": 301,
      "ր": 302,
      "ց": 303,
      "ւ": 304,
      "ք": 305,
      "א": 306,
      "ב": 307,
      "ג": 308,
      "ה": 309,
      "ו": 310,
      "ז": 311,
      "ט": 312,
      "י": 313,
      "ל": 314,
      "מ": 315,
      "נ": 316,
      "ע": 317,
      "פ": 318,
      "ר": 319,
      "ת": 320,
      "،": 321,
      "؟": 322,
      "أ": 323,
      "إ": 324,
      "ا": 325,
      "ب": 326,
      "ة": 327,
      "ت": 328,
      "ج": 329,
      "ح": 330,
      "خ": 331,
      "د": 332,
      "ذ": 333,
      "ر": 334,
      "ز": 335,
      "س": 336,
      "ش": 337,
      "ص": 338,
      "ض": 339,
      "ط": 340,
      "ع": 341,
      "غ": 342,
      "ف": 343,
      "ق": 344,
      "ك": 345,
      "ل": 346,
      "م": 347,
      "ن": 348,
      "ه": 349,
      "و": 350,
      "ى": 351,
      "ي": 352,
      "َ": 353,
      "ک": 354,
      "ہ": 355,
      "ۇ": 356,
      "ی": 357,
      "ە": 358,
      "ं": 359,
      "इ": 360,
      "ए": 361,
      "क": 362,
      "ज": 363,
      "ब": 364,
      "र": 365,
      "ल": 366,
      "़": 367,
      "ा": 368,
      "ि": 369,
      "ै": 370,
      "१": 371,
      "४": 372,
      "७": 373,
      "९": 374,
      "অ": 375,
      "ই": 376,
      "ক": 377,
      "চ": 378,
      "ত": 379,
      "দ": 380,
      "ন": 381,
      "ব": 382,
      "র": 383,
      "া": 384,
      "ি": 385,
      "ু": 386,
      "ে": 387,
      "্": 388,
      "ਂ": 389,
      "ਕ": 390,
      "ਟ": 391,
      "ਪ": 392,
      "ਮ": 393,
      "ਰ": 394,
      "ਸ": 395,
      "ਹ": 396,
      "ਾ": 397,
      "ਿ": 398,
      "ੀ": 399,
      "ੂ": 400,
      "ੈ": 401,
      "ੌ": 402,
      "க": 403,
      "ட": 404,
      "ழ": 405,
      "ா": 406,
      "ி": 407,
      "ூ": 408,
      "ை": 409,
      "்": 410,
      "ೋ": 411,
      "ก": 412,
      "ค": 413,
      "ง": 414,
      "จ": 415,
      "ซ": 416,
      "ด": 417,
      "ต": 418,
      "ท": 419,
      "น": 420,
      "ฝ": 421,
      "พ": 422,
      "ฟ": 423,
      "ภ": 424,
      "ม": 425,
      "ย": 426,
      "ล": 427,
      "ว": 428,
      "ษ": 429,
      "ส": 430,
      "ห": 431,
      "ฬ": 432,
      "อ": 433,
      "ั": 434,
      "า": 435,
      "ิ": 436,
      "ี": 437,
      "ึ": 438,
      "เ": 439,
      "แ": 440,
      "โ": 441,
      "ใ": 442,
      "ไ": 443,
      "่": 444,
      "้": 445,
      "์": 446,
      "྆": 447,
      "࿐": 448,
      "တ": 449,
      "န": 450,
      "မ": 451,
      "လ": 452,
      "သ": 453,
      "ဦ": 454,
      "ိ": 455,
      "ု": 456,
      "ေ": 457,
      "့": 458,
      "း": 459,
      "္": 460,
      "်": 461,
      "ြ": 462,
      "၊": 463,
      "ᄀ": 464,
      "ᄂ": 465,
      "ᄅ": 466,
      "ᄆ": 467,
      "ᄇ": 468,
      "ᄋ": 469,
      "ᄏ": 470,
      "ᄒ": 471,
      "ᅮ": 472,
      "ᅲ": 473,
      "ᅳ": 474,
      "ᅵ": 475,
      "ᆞ": 476,
      "ᐉ": 477,
      "᠋": 478,
      "ᠠ": 479,
      "ᠡ": 480,
      "ᠢ": 481,
      "ᠤ": 482,
      "ᠥ": 483,
      "ᠦ": 484,
      "ᠨ": 485,
      "ᠫ": 486,
      "ᠬ": 487,
      "ᠭ": 488,
      "ᠮ": 489,
      "ᠯ": 490,
      "ᠰ": 491,
      "ᠱ": 492,
      "ᠳ": 493,
      "ᠴ": 494,
      "ᠵ": 495,
      "ᠶ": 496,
      "ᠷ": 497,
      "ᠹ": 498,
      "ᠻ": 499,
      "ᠼ": 500,
      "᭄": 501,
      "ᴀ": 502,
      "ᴄ": 503,
      "ᴇ": 504,
      "ᴍ": 505,
      "ᴜ": 506,
      "ᴠ": 507,
      "ᵯ": 508,
      "ᵴ": 509,
      "ḍ": 510,
      "ḥ": 511,
      "ṃ": 512,
      "ṅ": 513,
      "ṇ": 514,
      "ṭ": 515,
      "ẙ": 516,
      "ầ": 517,
      "ắ": 518,
      "ằ": 519,
      "ế": 520,
      "ễ": 521,
      "ớ": 522,
      "ờ": 523,
      "ἰ": 524,
      "‐": 525,
      "―": 526,
      "‖": 527,
      "†": 528,
      "‡": 529,
      "•": 530,
      "‣": 531,
      "‰": 532,
      "′": 533,
      "‹": 534,
      "›": 535,
      "※": 536,
      "⁄": 537,
      "₩": 538,
      "₪": 539,
      "€": 540,
      "₮": 541,
      "₹": 542,
      "₽": 543,
      "⃣": 544,
      "←": 545,
      "↑": 546,
      "→": 547,
      "↓": 548,
      "↔": 549,
      "↖": 550,
      "↙": 551,
      "↳": 552,
      "⇒": 553,
      "⇨": 554,
      "∂": 555,
      "∆": 556,
      "∈": 557,
      "−": 558,
      "∙": 559,
      "√": 560,
      "∞": 561,
      "≈": 562,
      "≠": 563,
      "≤": 564,
      "≥": 565,
      "≫": 566,
      "⋆": 567,
      "⋯": 568,
      "⌚": 569,
      "⎪": 570,
      "⏱": 571,
      "│": 572,
      "╒": 573,
      "╘": 574,
      "╟": 575,
      "╢": 576,
      "█": 577,
      "▍": 578,
      "■": 579,
      "□": 580,
      "▨": 581,
      "▪": 582,
      "▲": 583,
      "▶": 584,
      "►": 585,
      "▼": 586,
      "◆": 587,
      "◇": 588,
      "◊": 589,
      "○": 590,
      "●": 591,
      "◦": 592,
      "☀": 593,
      "☂": 594,
      "★": 595,
      "☆": 596,
      "☈": 597,
      "☎": 598,
      "☑": 599,
      "☔": 600,
      "☕": 601,
      "☘": 602,
      "☛": 603,
      "☝": 604,
      "☞": 605,
      "☤": 606,
      "☮": 607,
      "☹": 608,
      "☺": 609,
      "☻": 610,
      "♀": 611,
      "♂": 612,
      "♏": 613,
      "♔": 614,
      "♚": 615,
      "♛": 616,
      "♠": 617,
      "♡": 618,
      "♣": 619,
      "♥": 620,
      "♦": 621,
      "♪": 622,
      "♫": 623,
      "♻": 624,
      "⚃": 625,
      "⚕": 626,
      "⚙": 627,
      "⚠": 628,
      "⚡": 629,
      "⚫": 630,
      "⚽": 631,
      "✅": 632,
      "✈": 633,
      "✌": 634,
      "✍": 635,
      "✓": 636,
      "✔": 637,
      "✞": 638,
      "✨": 639,
      "✯": 640,
      "✿": 641,
      "❀": 642,
      "❂": 643,
      "❃": 644,
      "❄": 645,
      "❏": 646,
      "❖": 647,
      "❗": 648,
      "❤": 649,
      "❷": 650,
      "❹": 651,
      "❼": 652,
      "➜": 653,
      "➡": 654,
      "➢": 655,
      "➥": 656,
      "➳": 657,
      "⠀": 658,
      "⦁": 659,
      "⭐": 660,
      "⿱": 661,
      "、": 662,
      "。": 663,
      "《": 664,
      "》": 665,
      "「": 666,
      "」": 667,
      "『": 668,
      "』": 669,
      "【": 670,
      "】": 671,
      "〓": 672,
      "あ": 673,
      "い": 674,
      "う": 675,
      "え": 676,
      "お": 677,
      "か": 678,
      "が": 679,
      "き": 680,
      "ぎ": 681,
      "く": 682,
      "ぐ": 683,
      "け": 684,
      "げ": 685,
      "こ": 686,
      "ご": 687,
      "さ": 688,
      "ざ": 689,
      "し": 690,
      "じ": 691,
      "す": 692,
      "せ": 693,
      "そ": 694,
      "た": 695,
      "だ": 696,
      "ち": 697,
      "っ": 698,
      "つ": 699,
      "て": 700,
      "で": 701,
      "と": 702,
      "ど": 703,
      "な": 704,
      "に": 705,
      "ぬ": 706,
      "の": 707,
      "は": 708,
      "ば": 709,
      "ひ": 710,
      "ぶ": 711,
      "べ": 712,
      "ほ": 713,
      "ま": 714,
      "み": 715,
      "め": 716,
      "も": 717,
      "ゃ": 718,
      "や": 719,
      "ゅ": 720,
      "ゆ": 721,
      "ょ": 722,
      "よ": 723,
      "ら": 724,
      "り": 725,
      "る": 726,
      "れ": 727,
      "ろ": 728,
      "わ": 729,
      "を": 730,
      "ん": 731,
      "ィ": 732,
      "イ": 733,
      "ウ": 734,
      "カ": 735,
      "ガ": 736,
      "キ": 737,
      "ギ": 738,
      "ク": 739,
      "ゲ": 740,
      "コ": 741,
      "ゴ": 742,
      "サ": 743,
      "シ": 744,
      "ジ": 745,
      "セ": 746,
      "ゼ": 747,
      "ソ": 748,
      "タ": 749,
      "ダ": 750,
      "チ": 751,
      "ツ": 752,
      "ヅ": 753,
      "デ": 754,
      "ド": 755,
      "ナ": 756,
      "ニ": 757,
      "ハ": 758,
      "バ": 759,
      "ヒ": 760,
      "ビ": 761,
      "フ": 762,
      "ブ": 763,
      "ベ": 764,
      "ペ": 765,
      "マ": 766,
      "ミ": 767,
      "ム": 768,
      "モ": 769,
      "ャ": 770,
      "ョ": 771,
      "ラ": 772,
      "リ": 773,
      "ル": 774,
      "ン": 775,
      "・": 776,
      "ー": 777,
      "ㄍ": 778,
      "ㄎ": 779,
      "ㄟ": 780,
      "ㄨ": 781,
      "一": 782,
      "七": 783,
      "万": 784,
      "三": 785,
      "上": 786,
      "下": 787,
      "不": 788,
      "世": 789,
      "业": 790,
      "个": 791,
      "中": 792,
      "么": 793,
      "乐": 794,
      "也": 795,
      "二": 796,
      "云": 797,
      "互": 798,
      "交": 799,
      "京": 800,
      "人": 801,
      "今": 802,
      "介": 803,
      "仔": 804,
      "他": 805,
      "付": 806,
      "代": 807,
      "们": 808,
      "件": 809,
      "任": 810,
      "企": 811,
      "伊": 812,
      "休": 813,
      "众": 814,
      "会": 815,
      "位": 816,
      "住": 817,
      "何": 818,
      "作": 819,
      "你": 820,
      "使": 821,
      "便": 822,
      "係": 823,
      "保": 824,
      "信": 825,
      "修": 826,
      "俺": 827,
      "們": 828,
      "停": 829,
      "健": 830,
      "側": 831,
      "僕": 832,
      "優": 833,
      "儿": 834,
      "元": 835,
      "光": 836,
      "克": 837,
      "免": 838,
      "八": 839,
      "公": 840,
      "内": 841,
      "册": 842,
      "再": 843,
      "冯": 844,
      "出": 845,
      "分": 846,
      "划": 847,
      "別": 848,
      "前": 849,
      "势": 850,
      "動": 851,
      "勖": 852,
      "務": 853,
      "勧": 854,
      "包": 855,
      "化": 856,
      "北": 857,
      "医": 858,
      "十": 859,
      "午": 860,
      "华": 861,
      "南": 862,
      "博": 863,
      "卡": 864,
      "参": 865,
      "古": 866,
      "叫": 867,
      "召": 868,
      "台": 869,
      "号": 870,
      "合": 871,
      "名": 872,
      "向": 873,
      "吗": 874,
      "君": 875,
      "员": 876,
      "周": 877,
      "味": 878,
      "命": 879,
      "和": 880,
      "品": 881,
      "唐": 882,
      "售": 883,
      "唱": 884,
      "商": 885,
      "問": 886,
      "喵": 887,
      "器": 888,
      "回": 889,
      "団": 890,
      "図": 891,
      "国": 892,
      "图": 893,
      "國": 894,
      "圖": 895,
      "地": 896,
      "址": 897,
      "型": 898,
      "基": 899,
      "場": 900,
      "塑": 901,
      "塚": 902,
      "士": 903,
      "声": 904,
      "夂": 905,
      "変": 906,
      "夕": 907,
      "夜": 908,
      "夢": 909,
      "天": 910,
      "太": 911,
      "奇": 912,
      "奋": 913,
      "好": 914,
      "妹": 915,
      "委": 916,
      "姿": 917,
      "娱": 918,
      "子": 919,
      "字": 920,
      "学": 921,
      "宅": 922,
      "安": 923,
      "宗": 924,
      "定": 925,
      "室": 926,
      "宽": 927,
      "密": 928,
      "导": 929,
      "小": 930,
      "少": 931,
      "局": 932,
      "展": 933,
      "属": 934,
      "履": 935,
      "山": 936,
      "岩": 937,
      "峮": 938,
      "州": 939,
      "巡": 940,
      "巣": 941,
      "工": 942,
      "帝": 943,
      "带": 944,
      "帮": 945,
      "帯": 946,
      "平": 947,
      "年": 948,
      "庆": 949,
      "府": 950,
      "康": 951,
      "建": 952,
      "开": 953,
      "异": 954,
      "弦": 955,
      "当": 956,
      "录": 957,
      "形": 958,
      "彩": 959,
      "後": 960,
      "御": 961,
      "心": 962,
      "必": 963,
      "志": 964,
      "忘": 965,
      "忙": 966,
      "快": 967,
      "怎": 968,
      "恩": 969,
      "悔": 970,
      "您": 971,
      "悲": 972,
      "情": 973,
      "意": 974,
      "愛": 975,
      "憎": 976,
      "我": 977,
      "戒": 978,
      "戰": 979,
      "戸": 980,
      "手": 981,
      "打": 982,
      "払": 983,
      "抢": 984,
      "拶": 985,
      "指": 986,
      "挨": 987,
      "探": 988,
      "掲": 989,
      "提": 990,
      "改": 991,
      "故": 992,
      "文": 993,
      "斗": 994,
      "斥": 995,
      "斯": 996,
      "新": 997,
      "族": 998,
      "日": 999,
      "早": 1000,
      "时": 1001,
      "昌": 1002,
      "星": 1003,
      "是": 1004,
      "昴": 1005,
      "時": 1006,
      "普": 1007,
      "暲": 1008,
      "曜": 1009,
      "曲": 1010,
      "更": 1011,
      "書": 1012,
      "會": 1013,
      "月": 1014,
      "有": 1015,
      "望": 1016,
      "朝": 1017,
      "本": 1018,
      "机": 1019,
      "李": 1020,
      "村": 1021,
      "松": 1022,
      "林": 1023,
      "査": 1024,
      "株": 1025,
      "格": 1026,
      "椰": 1027,
      "楫": 1028,
      "業": 1029,
      "楽": 1030,
      "概": 1031,
      "構": 1032,
      "横": 1033,
      "機": 1034,
      "歌": 1035,
      "止": 1036,
      "歳": 1037,
      "残": 1038,
      "毛": 1039,
      "民": 1040,
      "气": 1041,
      "気": 1042,
      "水": 1043,
      "永": 1044,
      "江": 1045,
      "沖": 1046,
      "没": 1047,
      "河": 1048,
      "治": 1049,
      "沿": 1050,
      "法": 1051,
      "注": 1052,
      "泰": 1053,
      "洛": 1054,
      "洞": 1055,
      "流": 1056,
      "浙": 1057,
      "浜": 1058,
      "淮": 1059,
      "済": 1060,
      "渡": 1061,
      "湖": 1062,
      "漏": 1063,
      "演": 1064,
      "点": 1065,
      "照": 1066,
      "燼": 1067,
      "版": 1068,
      "牛": 1069,
      "特": 1070,
      "玉": 1071,
      "现": 1072,
      "理": 1073,
      "甘": 1074,
      "生": 1075,
      "用": 1076,
      "田": 1077,
      "町": 1078,
      "画": 1079,
      "留": 1080,
      "発": 1081,
      "登": 1082,
      "百": 1083,
      "的": 1084,
      "皇": 1085,
      "盘": 1086,
      "眉": 1087,
      "码": 1088,
      "破": 1089,
      "礦": 1090,
      "社": 1091,
      "祉": 1092,
      "祐": 1093,
      "神": 1094,
      "福": 1095,
      "离": 1096,
      "私": 1097,
      "秘": 1098,
      "称": 1099,
      "稳": 1100,
      "站": 1101,
      "等": 1102,
      "简": 1103,
      "管": 1104,
      "米": 1105,
      "糞": 1106,
      "紀": 1107,
      "紇": 1108,
      "経": 1109,
      "給": 1110,
      "線": 1111,
      "红": 1112,
      "线": 1113,
      "网": 1114,
      "美": 1115,
      "翻": 1116,
      "考": 1117,
      "者": 1118,
      "聲": 1119,
      "胡": 1120,
      "能": 1121,
      "腕": 1122,
      "臨": 1123,
      "自": 1124,
      "舞": 1125,
      "航": 1126,
      "良": 1127,
      "華": 1128,
      "葵": 1129,
      "蒙": 1130,
      "藏": 1131,
      "藤": 1132,
      "蘭": 1133,
      "蛋": 1134,
      "蠟": 1135,
      "行": 1136,
      "衛": 1137,
      "表": 1138,
      "袖": 1139,
      "裏": 1140,
      "製": 1141,
      "西": 1142,
      "要": 1143,
      "見": 1144,
      "視": 1145,
      "親": 1146,
      "见": 1147,
      "解": 1148,
      "言": 1149,
      "証": 1150,
      "話": 1151,
      "誉": 1152,
      "誌": 1153,
      "語": 1154,
      "説": 1155,
      "諸": 1156,
      "識": 1157,
      "讃": 1158,
      "计": 1159,
      "让": 1160,
      "记": 1161,
      "译": 1162,
      "语": 1163,
      "请": 1164,
      "读": 1165,
      "课": 1166,
      "豚": 1167,
      "象": 1168,
      "貸": 1169,
      "費": 1170,
      "賃": 1171,
      "資": 1172,
      "賞": 1173,
      "责": 1174,
      "趋": 1175,
      "路": 1176,
      "身": 1177,
      "車": 1178,
      "軒": 1179,
      "載": 1180,
      "輝": 1181,
      "软": 1182,
      "载": 1183,
      "辉": 1184,
      "输": 1185,
      "辺": 1186,
      "込": 1187,
      "达": 1188,
      "运": 1189,
      "近": 1190,
      "返": 1191,
      "还": 1192,
      "迴": 1193,
      "迹": 1194,
      "送": 1195,
      "通": 1196,
      "逢": 1197,
      "連": 1198,
      "進": 1199,
      "過": 1200,
      "達": 1201,
      "選": 1202,
      "郑": 1203,
      "部": 1204,
      "都": 1205,
      "配": 1206,
      "里": 1207,
      "重": 1208,
      "金": 1209,
      "鈴": 1210,
      "鑑": 1211,
      "钱": 1212,
      "银": 1213,
      "镇": 1214,
      "长": 1215,
      "間": 1216,
      "関": 1217,
      "门": 1218,
      "问": 1219,
      "间": 1220,
      "阒": 1221,
      "际": 1222,
      "陝": 1223,
      "险": 1224,
      "陳": 1225,
      "随": 1226,
      "際": 1227,
      "雑": 1228,
      "電": 1229,
      "面": 1230,
      "革": 1231,
      "韬": 1232,
      "音": 1233,
      "響": 1234,
      "題": 1235,
      "類": 1236,
      "颚": 1237,
      "駅": 1238,
      "马": 1239,
      "高": 1240,
      "鵬": 1241,
      "麦": 1242,
      "黄": 1243,
      "黑": 1244,
      "龙": 1245,
      "龶": 1246,
      "꧁": 1247,
      "꧂": 1248,
      "가": 1249,
      "갑": 1250,
      "갤": 1251,
      "거": 1252,
      "걸": 1253,
      "것": 1254,
      "게": 1255,
      "겠": 1256,
      "격": 1257,
      "경": 1258,
      "계": 1259,
      "고": 1260,
      "골": 1261,
      "공": 1262,
      "과": 1263,
      "관": 1264,
      "교": 1265,
      "구": 1266,
      "국": 1267,
      "굴": 1268,
      "권": 1269,
      "규": 1270,
      "긋": 1271,
      "기": 1272,
      "긱": 1273,
      "김": 1274,
      "끼": 1275,
      "나": 1276,
      "남": 1277,
      "내": 1278,
      "너": 1279,
      "노": 1280,
      "뉴": 1281,
      "는": 1282,
      "니": 1283,
      "다": 1284,
      "단": 1285,
      "달": 1286,
      "답": 1287,
      "대": 1288,
      "더": 1289,
      "도": 1290,
      "돈": 1291,
      "동": 1292,
      "둥": 1293,
      "딩": 1294,
      "떻": 1295,
      "또": 1296,
      "뚜": 1297,
      "뚝": 1298,
      "라": 1299,
      "랑": 1300,
      "래": 1301,
      "랫": 1302,
      "러": 1303,
      "렘": 1304,
      "려": 1305,
      "로": 1306,
      "루": 1307,
      "룬": 1308,
      "룰": 1309,
      "류": 1310,
      "르": 1311,
      "를": 1312,
      "리": 1313,
      "린": 1314,
      "림": 1315,
      "릿": 1316,
      "마": 1317,
      "만": 1318,
      "말": 1319,
      "매": 1320,
      "먹": 1321,
      "메": 1322,
      "며": 1323,
      "명": 1324,
      "모": 1325,
      "몽": 1326,
      "무": 1327,
      "문": 1328,
      "뭘": 1329,
      "뮤": 1330,
      "미": 1331,
      "민": 1332,
      "바": 1333,
      "반": 1334,
      "밥": 1335,
      "배": 1336,
      "백": 1337,
      "밴": 1338,
      "버": 1339,
      "번": 1340,
      "법": 1341,
      "베": 1342,
      "벼": 1343,
      "변": 1344,
      "병": 1345,
      "보": 1346,
      "부": 1347,
      "불": 1348,
      "뷔": 1349,
      "브": 1350,
      "븐": 1351,
      "블": 1352,
      "비": 1353,
      "빈": 1354,
      "뻐": 1355,
      "뿌": 1356,
      "사": 1357,
      "상": 1358,
      "새": 1359,
      "생": 1360,
      "서": 1361,
      "석": 1362,
      "선": 1363,
      "설": 1364,
      "섭": 1365,
      "성": 1366,
      "세": 1367,
      "송": 1368,
      "수": 1369,
      "숙": 1370,
      "스": 1371,
      "슨": 1372,
      "습": 1373,
      "승": 1374,
      "시": 1375,
      "식": 1376,
      "신": 1377,
      "실": 1378,
      "싼": 1379,
      "쌍": 1380,
      "아": 1381,
      "안": 1382,
      "알": 1383,
      "야": 1384,
      "양": 1385,
      "어": 1386,
      "업": 1387,
      "없": 1388,
      "에": 1389,
      "엘": 1390,
      "엥": 1391,
      "여": 1392,
      "역": 1393,
      "연": 1394,
      "열": 1395,
      "영": 1396,
      "예": 1397,
      "오": 1398,
      "올": 1399,
      "옷": 1400,
      "와": 1401,
      "왔": 1402,
      "외": 1403,
      "요": 1404,
      "용": 1405,
      "우": 1406,
      "울": 1407,
      "웆": 1408,
      "워": 1409,
      "원": 1410,
      "월": 1411,
      "유": 1412,
      "윤": 1413,
      "율": 1414,
      "으": 1415,
      "은": 1416,
      "을": 1417,
      "응": 1418,
      "의": 1419,
      "이": 1420,
      "인": 1421,
      "일": 1422,
      "있": 1423,
      "자": 1424,
      "잘": 1425,
      "장": 1426,
      "재": 1427,
      "저": 1428,
      "적": 1429,
      "전": 1430,
      "정": 1431,
      "제": 1432,
      "조": 1433,
      "죄": 1434,
      "죻": 1435,
      "주": 1436,
      "즈": 1437,
      "지": 1438,
      "직": 1439,
      "진": 1440,
      "짓": 1441,
      "짱": 1442,
      "찌": 1443,
      "찡": 1444,
      "차": 1445,
      "창": 1446,
      "찾": 1447,
      "채": 1448,
      "청": 1449,
      "체": 1450,
      "초": 1451,
      "최": 1452,
      "침": 1453,
      "칩": 1454,
      "칫": 1455,
      "카": 1456,
      "커": 1457,
      "케": 1458,
      "코": 1459,
      "콕": 1460,
      "콧": 1461,
      "크": 1462,
      "키": 1463,
      "탄": 1464,
      "탓": 1465,
      "태": 1466,
      "탠": 1467,
      "터": 1468,
      "토": 1469,
      "통": 1470,
      "튜": 1471,
      "트": 1472,
      "티": 1473,
      "틴": 1474,
      "팅": 1475,
      "팝": 1476,
      "퍼": 1477,
      "펄": 1478,
      "평": 1479,
      "폰": 1480,
      "푸": 1481,
      "플": 1482,
      "픽": 1483,
      "하": 1484,
      "학": 1485,
      "한": 1486,
      "함": 1487,
      "항": 1488,
      "해": 1489,
      "햄": 1490,
      "혀": 1491,
      "현": 1492,
      "혜": 1493,
      "호": 1494,
      "홈": 1495,
      "홍": 1496,
      "화": 1497,
      "횊": 1498,
      "회": 1499,
      "횒": 1500,
      "횗": 1501,
      "횜": 1502,
      "후": 1503,
      "훈": 1504,
      "흐": 1505,
      "흥": 1506,
      "희": 1507,
      "︎": 1508,
      "️": 1509,
      "￼": 1510,
      "�": 1511,
      "𖢘": 1512,
      "🆕": 1513,
      "🇫": 1514,
      "🇰": 1515,
      "🇲": 1516,
      "🇳": 1517,
      "🇷": 1518,
      "🇸": 1519,
      "🇺": 1520,
      "🇽": 1521,
      "🌃": 1522,
      "🌄": 1523,
      "🌅": 1524,
      "🌈": 1525,
      "🌍": 1526,
      "🌐": 1527,
      "🌙": 1528,
      "🌟": 1529,
      "🌡": 1530,
      "🌱": 1531,
      "🌳": 1532,
      "🌸": 1533,
      "🌻": 1534,
      "🍀": 1535,
      "🍁": 1536,
      "🍇": 1537,
      "🍑": 1538,
      "🍞": 1539,
      "🍩": 1540,
      "🍯": 1541,
      "🍰": 1542,
      "🍱": 1543,
      "🍷": 1544,
      "🍹": 1545,
      "🍽": 1546,
      "🍾": 1547,
      "🎀": 1548,
      "🎁": 1549,
      "🎄": 1550,
      "🎧": 1551,
      "🎬": 1552,
      "🎯": 1553,
      "🎶": 1554,
      "🏆": 1555,
      "🏋": 1556,
      "🏠": 1557,
      "🏣": 1558,
      "🏦": 1559,
      "🏻": 1560,
      "🏼": 1561,
      "👀": 1562,
      "👉": 1563,
      "👍": 1564,
      "👎": 1565,
      "👏": 1566,
      "👐": 1567,
      "👑": 1568,
      "👦": 1569,
      "👧": 1570,
      "👨": 1571,
      "👩": 1572,
      "👷": 1573,
      "👽": 1574,
      "💀": 1575,
      "💁": 1576,
      "💃": 1577,
      "💅": 1578,
      "💉": 1579,
      "💋": 1580,
      "💎": 1581,
      "💐": 1582,
      "💔": 1583,
      "💕": 1584,
      "💙": 1585,
      "💚": 1586,
      "💜": 1587,
      "💝": 1588,
      "💡": 1589,
      "💢": 1590,
      "💥": 1591,
      "💩": 1592,
      "💪": 1593,
      "💫": 1594,
      "💯": 1595,
      "💰": 1596,
      "💵": 1597,
      "💸": 1598,
      "💻": 1599,
      "💼": 1600,
      "📁": 1601,
      "📅": 1602,
      "📌": 1603,
      "📍": 1604,
      "📎": 1605,
      "📕": 1606,
      "📖": 1607,
      "📞": 1608,
      "📣": 1609,
      "📦": 1610,
      "📱": 1611,
      "📲": 1612,
      "📷": 1613,
      "🔄": 1614,
      "🔅": 1615,
      "🔊": 1616,
      "🔌": 1617,
      "🔑": 1618,
      "🔥": 1619,
      "🔬": 1620,
      "🔰": 1621,
      "🔴": 1622,
      "🔵": 1623,
      "🔶": 1624,
      "🔸": 1625,
      "🔹": 1626,
      "🕑": 1627,
      "🕘": 1628,
      "🕯": 1629,
      "🖐": 1630,
      "🖤": 1631,
      "🗃": 1632,
      "🗓": 1633,
      "😀": 1634,
      "😁": 1635,
      "😂": 1636,
      "😃": 1637,
      "😄": 1638,
      "😅": 1639,
      "😆": 1640,
      "😇": 1641,
      "😈": 1642,
      "😉": 1643,
      "😊": 1644,
      "😋": 1645,
      "😍": 1646,
      "😎": 1647,
      "😐": 1648,
      "😑": 1649,
      "😓": 1650,
      "😔": 1651,
      "😘": 1652,
      "😛": 1653,
      "😜": 1654,
      "😝": 1655,
      "😡": 1656,
      "😢": 1657,
      "😥": 1658,
      "😦": 1659,
      "😩": 1660,
      "😫": 1661,
      "😭": 1662,
      "😮": 1663,
      "😰": 1664,
      "😱": 1665,
      "😲": 1666,
      "😶": 1667,
      "😷": 1668,
      "🙁": 1669,
      "🙂": 1670,
      "🙃": 1671,
      "🙆": 1672,
      "🙋": 1673,
      "🙌": 1674,
      "🙎": 1675,
      "🙏": 1676,
      "🚀": 1677,
      "🚗": 1678,
      "🚘": 1679,
      "🚩": 1680,
      "🚫": 1681,
      "🛍": 1682,
      "🛑": 1683,
      "🛒": 1684,
      "🛡": 1685,
      "🛫": 1686,
      "🤍": 1687,
      "🤑": 1688,
      "🤓": 1689,
      "🤔": 1690,
      "🤗": 1691,
      "🤘": 1692,
      "🤟": 1693,
      "🤡": 1694,
      "🤣": 1695,
      "🤩": 1696,
      "🤪": 1697,
      "🤫": 1698,
      "🤮": 1699,
      "🥄": 1700,
      "🥇": 1701,
      "🥰": 1702,
      "🥳": 1703,
      "🥺": 1704,
      "🦉": 1705,
      "🦊": 1706,
      "🦋": 1707,
      "🦸": 1708,
      "🧤": 1709,
      "🧨": 1710,
      "🧼": 1711,
      "##ь": 1712,
      "##е": 1713,
      "##l": 1714,
      "##o": 1715,
      "##c": 1716,
      "##ж": 1717,
      "##р": 1718,
      "##о": 1719,
      "##с": 1720,
      "##и": 1721,
      "##д": 1722,
      "##л": 1723,
      "##в": 1724,
      "##а": 1725,
      "##т": 1726,
      "##p": 1727,
      "##a": 1728,
      "##k": 1729,
      "##m": 1730,
      "##н": 1731,
      "##s": 1732,
      "##e": 1733,
      "##d": 1734,
      "##у": 1735,
      "##й": 1736,
      "##t": 1737,
      "##м": 1738,
      "##ц": 1739,
      "##з": 1740,
      "##э": 1741,
      "##х": 1742,
      "##b": 1743,
      "##n": 1744,
      "##г": 1745,
      "##r": 1746,
      "##u": 1747,
      "##g": 1748,
      "##б": 1749,
      "##я": 1750,
      "##i": 1751,
      "##ў": 1752,
      "##џ": 1753,
      "##h": 1754,
      "##v": 1755,
      "##@": 1756,
      "##\"": 1757,
      "##3": 1758,
      "##4": 1759,
      "##2": 1760,
      "##п": 1761,
      "##ы": 1762,
      "##y": 1763,
      "##ү": 1764,
      "##ч": 1765,
      "##9": 1766,
      "##7": 1767,
      "##ш": 1768,
      "##к": 1769,
      "##ф": 1770,
      "##ө": 1771,
      "##f": 1772,
      "##1": 1773,
      "##z": 1774,
      "##ҕ": 1775,
      "##є": 1776,
      "##6": 1777,
      "##x": 1778,
      "##̇": 1779,
      "##:": 1780,
      "##0": 1781,
      "##j": 1782,
      "##ん": 1783,
      "##げ": 1784,
      "##ґ": 1785,
      "##리": 1786,
      "##ᅵ": 1787,
      "##ý": 1788,
      "##æ": 1789,
      "##נ": 1790,
      "##会": 1791,
      "##発": 1792,
      "##表": 1793,
      "##ѳ": 1794,
      "##ð": 1795,
      "##ҥ": 1796,
      "##门": 1797,
      "##ї": 1798,
      "##定": 1799,
      "##版": 1800,
      "##ё": 1801,
      "##ö": 1802,
      "##w": 1803,
      "##ъ": 1804,
      "##时": 1805,
      "##彩": 1806,
      "##平": 1807,
      "##台": 1808,
      "##q": 1809,
      "##5": 1810,
      "##8": 1811,
      "##ђ": 1812,
      "##í": 1813,
      "##ò": 1814,
      "##通": 1815,
      "##运": 1816,
      "##输": 1817,
      "##щ": 1818,
      "##御": 1819,
      "##学": 1820,
      "##妹": 1821,
      "##지": 1822,
      "##니": 1823,
      "##势": 1824,
      "##盘": 1825,
      "##点": 1826,
      "##ó": 1827,
      "##ñ": 1828,
      "##査": 1829,
      "##証": 1830,
      "##ǿ": 1831,
      "##ᵯ": 1832,
      "##ɇ": 1833,
      "##ᵴ": 1834,
      "##ю": 1835,
      "##는": 1836,
      "##ا": 1837,
      "##د": 1838,
      "##ل": 1839,
      "##=": 1840,
      "##<": 1841,
      "##à": 1842,
      "##.": 1843,
      "##て": 1844,
      "##*": 1845,
      "##나": 1846,
      "##의": 1847,
      "##~": 1848,
      "##ћ": 1849,
      "##ѕ": 1850,
      "##해": 1851,
      "##린": 1852,
      "##な": 1853,
      "##と": 1854,
      "##こ": 1855,
      "##で": 1856,
      "##よ": 1857,
      "##ー": 1858,
      "##လ": 1859,
      "##の": 1860,
      "##糞": 1861,
      "##ら": 1862,
      "##🚘": 1863,
      "##り": 1864,
      "##す": 1865,
      "##☤": 1866,
      "##)": 1867,
      "##拶": 1868,
      "##õ": 1869,
      "##á": 1870,
      "##é": 1871,
      "###": 1872,
      "##і": 1873,
      "##ë": 1874,
      "##һ": 1875,
      "##ә": 1876,
      "##が": 1877,
      "##あ": 1878,
      "##れ": 1879,
      "##ば": 1880,
      "##ն": 1881,
      "##ք": 1882,
      "##^": 1883,
      "##ه": 1884,
      "##م": 1885,
      "##-": 1886,
      "##û": 1887,
      "##怎": 1888,
      "##么": 1889,
      "##行": 1890,
      "##[": 1891,
      "##ã": 1892,
      "##下": 1893,
      "##载": 1894,
      "##る": 1895,
      "##%": 1896,
      "##ӣ": 1897,
      "##便": 1898,
      "##🙏": 1899,
      "##🏻": 1900,
      "##웆": 1901,
      "##주": 1902,
      "##ن": 1903,
      "##ط": 1904,
      "##ق": 1905,
      "##ة": 1906,
      "##!": 1907,
      "##ش": 1908,
      "##ê": 1909,
      "##î": 1910,
      "##唱": 1911,
      "##説": 1912,
      "##구": 1913,
      "##직": 1914,
      "##자": 1915,
      "##都": 1916,
      "##古": 1917,
      "##语": 1918,
      "##们": 1919,
      "##江": 1920,
      "##ç": 1921,
      "##午": 1922,
      "##į": 1923,
      "##우": 1924,
      "##고": 1925,
      "##노": 1926,
      "##ü": 1927,
      "##ӑ": 1928,
      "##裏": 1929,
      "##դ": 1930,
      "##ր": 1931,
      "##ո": 1932,
      "##も": 1933,
      "##く": 1934,
      "##қ": 1935,
      "##뚝": 1936,
      "##배": 1937,
      "##기": 1938,
      "##包": 1939,
      "##斥": 1940,
      "##责": 1941,
      "##ø": 1942,
      "##ろ": 1943,
      "##う": 1944,
      "##α": 1945,
      "##η": 1946,
      "##أ": 1947,
      "##ي": 1948,
      "##っ": 1949,
      "##た": 1950,
      "##け": 1951,
      "##ど": 1952,
      "##♪": 1953,
      "##♫": 1954,
      "##♚": 1955,
      "##ā": 1956,
      "##元": 1957,
      "##云": 1958,
      "##,": 1959,
      "##ル": 1960,
      "##ハ": 1961,
      "##イ": 1962,
      "##×": 1963,
      "##]": 1964,
      "##ニ": 1965,
      "##チ": 1966,
      "##ソ": 1967,
      "##ウ": 1968,
      "##韬": 1969,
      "##ì": 1970,
      "##_": 1971,
      "##湖": 1972,
      "##😆": 1973,
      "##ᄏ": 1974,
      "##&": 1975,
      "##文": 1976,
      "##钱": 1977,
      "##网": 1978,
      "##站": 1979,
      "##姿": 1980,
      "##말": 1981,
      "##을": 1982,
      "##社": 1983,
      "##任": 1984,
      "##ա": 1985,
      "##📌": 1986,
      "##コ": 1987,
      "##ビ": 1988,
      "##讃": 1989,
      "##국": 1990,
      "##返": 1991,
      "##つ": 1992,
      "##わ": 1993,
      "##ぬ": 1994,
      "##們": 1995,
      "##ょ": 1996,
      "##ぐ": 1997,
      "##ち": 1998,
      "##ң": 1999,
      "##정": 2000,
      "##훈": 2001,
      "##ː": 2002,
      "##μ": 2003,
      "##★": 2004,
      "##?": 2005,
      "##'": 2006,
      "##ᠠ": 2007,
      "##国": 2008,
      "##际": 2009,
      "##●": 2010,
      "##間": 2011,
      "##新": 2012,
      "##休": 2013,
      "##止": 2014,
      "##达": 2015,
      "##品": 2016,
      "##ɪ": 2017,
      "##이": 2018,
      "##我": 2019,
      "##记": 2020,
      "##住": 2021,
      "##+": 2022,
      "##송": 2023,
      "##天": 2024,
      "##ј": 2025,
      "##현": 2026,
      "##숙": 2027,
      "##读": 2028,
      "##폰": 2029,
      "##밥": 2030,
      "##い": 2031,
      "##ㄨ": 2032,
      "##ㄟ": 2033,
      "##ṭ": 2034,
      "##횗": 2035,
      "##횊": 2036,
      "##ح": 2037,
      "##ج": 2038,
      "##ر": 2039,
      "##$": 2040,
      "##팝": 2041,
      "##🔥": 2042,
      "##ӱ": 2043,
      "##ר": 2044,
      "##י": 2045,
      "##楫": 2046,
      "##中": 2047,
      "##流": 2048,
      "##🤣": 2049,
      "##命": 2050,
      "##ı": 2051,
      "##ف": 2052,
      "##엘": 2053,
      "##ɵ": 2054,
      "##親": 2055,
      "##软": 2056,
      "##件": 2057,
      "##優": 2058,
      "##斗": 2059,
      "##야": 2060,
      "##ゴ": 2061,
      "##語": 2062,
      "##>": 2063,
      "##ほ": 2064,
      "##ご": 2065,
      "##を": 2066,
      "##ṅ": 2067,
      "##え": 2068,
      "##њ": 2069,
      "##だ": 2070,
      "##さ": 2071,
      "##ま": 2072,
      "##西": 2073,
      "##路": 2074,
      "##러": 2075,
      "##;": 2076,
      "##ざ": 2077,
      "##生": 2078,
      "##き": 2079,
      "##夜": 2080,
      "##商": 2081,
      "##場": 2082,
      "##|": 2083,
      "##ぶ": 2084,
      "##せ": 2085,
      "##ᠶ": 2086,
      "##ᠢ": 2087,
      "##ہ": 2088,
      "##ұ": 2089,
      "##ế": 2090,
      "##☈": 2091,
      "##个": 2092,
      "##忙": 2093,
      "##吗": 2094,
      "##อ": 2095,
      "##ง": 2096,
      "##ใ": 2097,
      "##ส": 2098,
      "##ä": 2099,
      "##️": 2100,
      "##⃣": 2101,
      "##ع": 2102,
      "##ت": 2103,
      "##′": 2104,
      "##(": 2105,
      "##è": 2106,
      "##›": 2107,
      "##채": 2108,
      "##💁": 2109,
      "##に": 2110,
      "##ɑ": 2111,
      "##ß": 2112,
      "##辉": 2113,
      "##林": 2114,
      "##逢": 2115,
      "##治": 2116,
      "##州": 2117,
      "##ฟ": 2118,
      "##🇸": 2119,
      "##±": 2120,
      "##җ": 2121,
      "##ú": 2122,
      "##λ": 2123,
      "##ε": 2124,
      "##ι": 2125,
      "##ώ": 2126,
      "##/": 2127,
      "##ン": 2128,
      "##ゲ": 2129,
      "##ằ": 2130,
      "##θ": 2131,
      "##세": 2132,
      "##요": 2133,
      "##带": 2134,
      "##一": 2135,
      "##回": 2136,
      "##サ": 2137,
      "##█": 2138,
      "##จ": 2139,
      "##성": 2140,
      "##ղ": 2141,
      "##콕": 2142,
      "##크": 2143,
      "##ו": 2144,
      "##ל": 2145,
      "##ת": 2146,
      "##մ": 2147,
      "##阒": 2148,
      "##긱": 2149,
      "##호": 2150,
      "##ł": 2151,
      "##気": 2152,
      "##선": 2153,
      "##희": 2154,
      "##ќ": 2155,
      "##γ": 2156,
      "##普": 2157,
      "##칫": 2158,
      "##라": 2159,
      "##内": 2160,
      "##👐": 2161,
      "##斯": 2162,
      "##泰": 2163,
      "##恩": 2164,
      "##娱": 2165,
      "##乐": 2166,
      "##क": 2167,
      "##푸": 2168,
      "##딩": 2169,
      "##ύ": 2170,
      "##ρ": 2171,
      "##し": 2172,
      "##😱": 2173,
      "##트": 2174,
      "##승": 2175,
      "##չ": 2176,
      "##서": 2177,
      "##율": 2178,
      "##엥": 2179,
      "##法": 2180,
      "##영": 2181,
      "##규": 2182,
      "##藤": 2183,
      "##留": 2184,
      "##美": 2185,
      "##子": 2186,
      "##ѐ": 2187,
      "##č": 2188,
      "##명": 2189,
      "##과": 2190,
      "##학": 2191,
      "##청": 2192,
      "##本": 2193,
      "##和": 2194,
      "##音": 2195,
      "##계": 2196,
      "##올": 2197,
      "##☛": 2198,
      "##후": 2199,
      "##😭": 2200,
      "##어": 2201,
      "##부": 2202,
      "##터": 2203,
      "##ک": 2204,
      "##원": 2205,
      "##펄": 2206,
      "##즈": 2207,
      "##설": 2208,
      "##류": 2209,
      "##ӈ": 2210,
      "##紇": 2211,
      "##ή": 2212,
      "##ᠳ": 2213,
      "##ᠡ": 2214,
      "##ᠨ": 2215,
      "##ی": 2216,
      "##£": 2217,
      "##태": 2218,
      "##답": 2219,
      "##シ": 2220,
      "##ョ": 2221,
      "##ナ": 2222,
      "##リ": 2223,
      "##😍": 2224,
      "##还": 2225,
      "##型": 2226,
      "##健": 2227,
      "##康": 2228,
      "##ş": 2229,
      "##내": 2230,
      "##문": 2231,
      "##ᠯ": 2232,
      "##😅": 2233,
      "##ᴀ": 2234,
      "##း": 2235,
      "##â": 2236,
      "##€": 2237,
      "##楽": 2238,
      "##ը": 2239,
      "##側": 2240,
      "##ค": 2241,
      "##제": 2242,
      "##😁": 2243,
      "##号": 2244,
      "##码": 2245,
      "##한": 2246,
      "##°": 2247,
      "##マ": 2248,
      "##フ": 2249,
      "##픽": 2250,
      "##대": 2251,
      "##회": 2252,
      "##残": 2253,
      "##藏": 2254,
      "##族": 2255,
      "##븐": 2256,
      "##틴": 2257,
      "##վ": 2258,
      "##駅": 2259,
      "##굴": 2260,
      "##유": 2261,
      "##빈": 2262,
      "##사": 2263,
      "##랑": 2264,
      "##人": 2265,
      "##ゅ": 2266,
      "##짓": 2267,
      "##떻": 2268,
      "##게": 2269,
      "##ゃ": 2270,
      "##♛": 2271,
      "##じ": 2272,
      "##叫": 2273,
      "##医": 2274,
      "##介": 2275,
      "##理": 2276,
      "##化": 2277,
      "##―": 2278,
      "##書": 2279,
      "##類": 2280,
      "##ิ": 2281,
      "##信": 2282,
      "##←": 2283,
      "##}": 2284,
      "##재": 2285,
      "##ṇ": 2286,
      "##ذ": 2287,
      "##望": 2288,
      "##😊": 2289,
      "##誌": 2290,
      "##ի": 2291,
      "##💚": 2292,
      "##կ": 2293,
      "##鑑": 2294,
      "##賞": 2295,
      "##は": 2296,
      "##إ": 2297,
      "##س": 2298,
      "##眉": 2299,
      "##毛": 2300,
      "##售": 2301,
      "##间": 2302,
      "##ÿ": 2303,
      "##ᴇ": 2304,
      "##ʀ": 2305,
      "##غ": 2306,
      "##{": 2307,
      "##ӓ": 2308,
      "##ə": 2309,
      "##曲": 2310,
      "##名": 2311,
      "##称": 2312,
      "##位": 2313,
      "##必": 2314,
      "##ï": 2315,
      "##ك": 2316,
      "##蘭": 2317,
      "##府": 2318,
      "##水": 2319,
      "##達": 2320,
      "##漏": 2321,
      "##洞": 2322,
      "##습": 2323,
      "##다": 2324,
      "##部": 2325,
      "##더": 2326,
      "##걸": 2327,
      "##죻": 2328,
      "##아": 2329,
      "##→": 2330,
      "##曜": 2331,
      "##日": 2332,
      "##団": 2333,
      "##宗": 2334,
      "##公": 2335,
      "##众": 2336,
      "##形": 2337,
      "##象": 2338,
      "##은": 2339,
      "##경": 2340,
      "##실": 2341,
      "##래": 2342,
      "##예": 2343,
      "##ᅲ": 2344,
      "##万": 2345,
      "##蒙": 2346,
      "##싼": 2347,
      "##身": 2348,
      "##티": 2349,
      "##ى": 2350,
      "##ī": 2351,
      "##פ": 2352,
      "##ע": 2353,
      "##ᠭ": 2354,
      "##ᠵ": 2355,
      "##め": 2356,
      "##か": 2357,
      "##팅": 2358,
      "##時": 2359,
      "##ە": 2360,
      "##み": 2361,
      "##龙": 2362,
      "##選": 2363,
      "##べ": 2364,
      "##💫": 2365,
      "##비": 2366,
      "##루": 2367,
      "##짱": 2368,
      "##ľ": 2369,
      "##튜": 2370,
      "##브": 2371,
      "##하": 2372,
      "##น": 2373,
      "##录": 2374,
      "##地": 2375,
      "##址": 2376,
      "##是": 2377,
      "##ғ": 2378,
      "##🤪": 2379,
      "##항": 2380,
      "##士": 2381,
      "##等": 2382,
      "##ィ": 2383,
      "##ờ": 2384,
      "##ἰ": 2385,
      "##δ": 2386,
      "##ί": 2387,
      "##ҡ": 2388,
      "##ゆ": 2389,
      "##ō": 2390,
      "##際": 2391,
      "##経": 2392,
      "##창": 2393,
      "##저": 2394,
      "##와": 2395,
      "##로": 2396,
      "##ย": 2397,
      "##φ": 2398,
      "##上": 2399,
      "##ए": 2400,
      "##플": 2401,
      "##랫": 2402,
      "##א": 2403,
      "##ט": 2404,
      "##💋": 2405,
      "##代": 2406,
      "##π": 2407,
      "##ό": 2408,
      "##미": 2409,
      "##역": 2410,
      "##너": 2411,
      "##블": 2412,
      "##ษ": 2413,
      "##슨": 2414,
      "##ʏ": 2415,
      "##ซ": 2416,
      "##도": 2417,
      "##관": 2418,
      "##作": 2419,
      "##器": 2420,
      "##響": 2421,
      "##憎": 2422,
      "##早": 2423,
      "##و": 2424,
      "##味": 2425,
      "##儿": 2426,
      "##没": 2427,
      "##有": 2428,
      "##見": 2429,
      "##민": 2430,
      "##💉": 2431,
      "##😋": 2432,
      "##매": 2433,
      "##를": 2434,
      "##暲": 2435,
      "##陝": 2436,
      "##燼": 2437,
      "##勖": 2438,
      "##토": 2439,
      "##끼": 2440,
      "##᠋": 2441,
      "##ᠤ": 2442,
      "##진": 2443,
      "##법": 2444,
      "##무": 2445,
      "##ペ": 2446,
      "##체": 2447,
      "##企": 2448,
      "##译": 2449,
      "##ս": 2450,
      "##委": 2451,
      "##员": 2452,
      "##建": 2453,
      "##言": 2454,
      "##塑": 2455,
      "##ᠦ": 2456,
      "##ᠷ": 2457,
      "##问": 2458,
      "##υ": 2459,
      "##ς": 2460,
      "##安": 2461,
      "##เ": 2462,
      "##수": 2463,
      "##혜": 2464,
      "##ص": 2465,
      "##ี": 2466,
      "##่": 2467,
      "##勧": 2468,
      "##격": 2469,
      "##시": 2470,
      "##윤": 2471,
      "##용": 2472,
      "##別": 2473,
      "##給": 2474,
      "##付": 2475,
      "##金": 2476,
      "##벼": 2477,
      "##😂": 2478,
      "##🇽": 2479,
      "##ᅮ": 2480,
      "##룰": 2481,
      "##ầ": 2482,
      "##키": 2483,
      "##렘": 2484,
      "##동": 2485,
      "##차": 2486,
      "##賃": 2487,
      "##貸": 2488,
      "##宅": 2489,
      "##르": 2490,
      "##식": 2491,
      "##인": 2492,
      "##夕": 2493,
      "##յ": 2494,
      "##♦": 2495,
      "##전": 2496,
      "##气": 2497,
      "##ν": 2498,
      "##ο": 2499,
      "##ô": 2500,
      "##ắ": 2501,
      "##τ": 2502,
      "##ե": 2503,
      "##⠀": 2504,
      "##込": 2505,
      "##골": 2506,
      "##뉴": 2507,
      "##스": 2508,
      "##가": 2509,
      "##왔": 2510,
      "##考": 2511,
      "##帮": 2512,
      "##✨": 2513,
      "##خ": 2514,
      "##昌": 2515,
      "##•": 2516,
      "##費": 2517,
      "##載": 2518,
      "##🏆": 2519,
      "##ư": 2520,
      "##面": 2521,
      "##화": 2522,
      "##찡": 2523,
      "##긋": 2524,
      "##そ": 2525,
      "##ė": 2526,
      "##自": 2527,
      "##ド": 2528,
      "##辺": 2529,
      "##祐": 2530,
      "##紀": 2531,
      "##京": 2532,
      "##僕": 2533,
      "##보": 2534,
      "##연": 2535,
      "##悔": 2536,
      "##적": 2537,
      "##ǎ": 2538,
      "##☮": 2539,
      "##南": 2540,
      "##🥄": 2541,
      "##や": 2542,
      "##庆": 2543,
      "##ʟ": 2544,
      "##红": 2545,
      "##华": 2546,
      "##տ": 2547,
      "##ض": 2548,
      "##ب": 2549,
      "##ӄ": 2550,
      "##ว": 2551,
      "##ャ": 2552,
      "##ਮ": 2553,
      "##ਸ": 2554,
      "##흥": 2555,
      "##₮": 2556,
      "##田": 2557,
      "##ブ": 2558,
      "##ギ": 2559,
      "##工": 2560,
      "##衛": 2561,
      "##星": 2562,
      "##计": 2563,
      "##划": 2564,
      "##モ": 2565,
      "##照": 2566,
      "##玉": 2567,
      "##良": 2568,
      "##ẙ": 2569,
      "##업": 2570,
      "##장": 2571,
      "##변": 2572,
      "##ᠰ": 2573,
      "##ē": 2574,
      "##胡": 2575,
      "##ז": 2576,
      "##声": 2577,
      "##통": 2578,
      "##☞": 2579,
      "##离": 2580,
      "##线": 2581,
      "##먹": 2582,
      "##\\": 2583,
      "##으": 2584,
      "##พ": 2585,
      "##ล": 2586,
      "##國": 2587,
      "##礦": 2588,
      "##돈": 2589,
      "##心": 2590,
      "##昴": 2591,
      "##ि": 2592,
      "##ल": 2593,
      "##흐": 2594,
      "##洛": 2595,
      "##福": 2596,
      "##祉": 2597,
      "##召": 2598,
      "##ベ": 2599,
      "##要": 2600,
      "##局": 2601,
      "##提": 2602,
      "##̀": 2603,
      "##破": 2604,
      "##解": 2605,
      "##š": 2606,
      "##夢": 2607,
      "##♥": 2608,
      "##ม": 2609,
      "##ห": 2610,
      "##려": 2611,
      "##夂": 2612,
      "##諸": 2613,
      "##展": 2614,
      "##會": 2615,
      "##月": 2616,
      "##≥": 2617,
      "##帯": 2618,
      "##臨": 2619,
      "##초": 2620,
      "##코": 2621,
      "##릿": 2622,
      "##連": 2623,
      "##蛋": 2624,
      "##ジ": 2625,
      "##ガ": 2626,
      "##ต": 2627,
      "##า": 2628,
      "##ɴ": 2629,
      "##🖤": 2630,
      "##🤔": 2631,
      "##意": 2632,
      "##識": 2633,
      "##線": 2634,
      "##好": 2635,
      "##ひ": 2636,
      "##電": 2637,
      "##話": 2638,
      "##機": 2639,
      "##ḥ": 2640,
      "##用": 2641,
      "##者": 2642,
      "##係": 2643,
      "##動": 2644,
      "##車": 2645,
      "##字": 2646,
      "##改": 2647,
      "##에": 2648,
      "##상": 2649,
      "##칩": 2650,
      "##κ": 2651,
      "##ά": 2652,
      "##զ": 2653,
      "##ւ": 2654,
      "##業": 2655,
      "##管": 2656,
      "##十": 2657,
      "##탠": 2658,
      "##₪": 2659,
      "##故": 2660,
      "##キ": 2661,
      "##ミ": 2662,
      "##ʜ": 2663,
      "##며": 2664,
      "##안": 2665,
      "##帝": 2666,
      "##권": 2667,
      "##的": 2668,
      "##小": 2669,
      "##画": 2670,
      "##册": 2671,
      "##奇": 2672,
      "##迹": 2673,
      "##ᠮ": 2674,
      "##ᠫ": 2675,
      "##现": 2676,
      "##格": 2677,
      "##里": 2678,
      "##克": 2679,
      "##🇷": 2680,
      "##аа": 2681,
      "##ай": 2682,
      "##ээ": 2683,
      "##ий": 2684,
      "##ар": 2685,
      "##ан": 2686,
      "ий": 2687,
      "##ол": 2688,
      "##эг": 2689,
      "##аг": 2690,
      "ай": 2691,
      "##эр": 2692,
      "##үү": 2693,
      "##уу": 2694,
      "##үй": 2695,
      "##эн": 2696,
      "##ал": 2697,
      "ийн": 2698,
      "бай": 2699,
      "бол": 2700,
      "нь": 2701,
      "##эл": 2702,
      "гэ": 2703,
      "##он": 2704,
      "##на": 2705,
      "хү": 2706,
      "##ин": 2707,
      "##оо": 2708,
      "##ил": 2709,
      "уу": 2710,
      "##өр": 2711,
      "эн": 2712,
      "аа": 2713,
      "гүй": 2714,
      "ол": 2715,
      "##эд": 2716,
      "үү": 2717,
      "##өө": 2718,
      "##гаа": 2719,
      "би": 2720,
      "##га": 2721,
      "ал": 2722,
      "ын": 2723,
      "байна": 2724,
      "ор": 2725,
      "ха": 2726,
      "эр": 2727,
      "##ад": 2728,
      "##эй": 2729,
      "ар": 2730,
      "ан": 2731,
      "##ах": 2732,
      "юм": 2733,
      "##ийн": 2734,
      "сан": 2735,
      "##өн": 2736,
      "ул": 2737,
      "ийг": 2738,
      "аж": 2739,
      "энэ": 2740,
      "ээ": 2741,
      "ах": 2742,
      "он": 2743,
      "##ээр": 2744,
      "##гэ": 2745,
      "##ой": 2746,
      "та": 2747,
      "##сан": 2748,
      "##ын": 2749,
      "ам": 2750,
      "ав": 2751,
      "бү": 2752,
      "эх": 2753,
      "тэй": 2754,
      "айгаа": 2755,
      "тай": 2756,
      "ху": 2757,
      "##ог": 2758,
      "хэр": 2759,
      "гэж": 2760,
      "##ох": 2761,
      "хүн": 2762,
      "##эх": 2763,
      "хо": 2764,
      "ту": 2765,
      "ний": 2766,
      "##чи": 2767,
      "хар": 2768,
      "нэг": 2769,
      "эд": 2770,
      "ыг": 2771,
      "гар": 2772,
      "өөр": 2773,
      "##уул": 2774,
      "өр": 2775,
      "##ам": 2776,
      "##аар": 2777,
      "##иг": 2778,
      "##эм": 2779,
      "өг": 2780,
      "##го": 2781,
      "лт": 2782,
      "##од": 2783,
      "##өл": 2784,
      "хий": 2785,
      "##ур": 2786,
      "ба": 2787,
      "ур": 2788,
      "мэд": 2789,
      "уул": 2790,
      "эл": 2791,
      "хэрэг": 2792,
      "ир": 2793,
      "##ор": 2794,
      "##гүй": 2795,
      "ас": 2796,
      "гд": 2797,
      "##ний": 2798,
      "байх": 2799,
      "##сэн": 2800,
      "##үүл": 2801,
      "ажил": 2802,
      "ээр": 2803,
      "сон": 2804,
      "га": 2805,
      "##даг": 2806,
      "##йл": 2807,
      "дээ": 2808,
      "аар": 2809,
      "айсан": 2810,
      "сай": 2811,
      "даг": 2812,
      "үн": 2813,
      "##ом": 2814,
      "өн": 2815,
      "нд": 2816,
      "ны": 2817,
      "бу": 2818,
      "ил": 2819,
      "##ьд": 2820,
      "яв": 2821,
      "их": 2822,
      "сэн": 2823,
      "##ыг": 2824,
      "##өг": 2825,
      "##ла": 2826,
      "##той": 2827,
      "тэр": 2828,
      "чи": 2829,
      "од": 2830,
      "ма": 2831,
      "##но": 2832,
      "эм": 2833,
      "хэл": 2834,
      "##гу": 2835,
      "эг": 2836,
      "аас": 2837,
      "на": 2838,
      "ад": 2839,
      "##ир": 2840,
      "даа": 2841,
      "хам": 2842,
      "жил": 2843,
      "лаг": 2844,
      "үз": 2845,
      "аг": 2846,
      "ууд": 2847,
      "##ээд": 2848,
      "үр": 2849,
      "хэ": 2850,
      "ид": 2851,
      "ер": 2852,
      "тан": 2853,
      "хө": 2854,
      "ох": 2855,
      "##тгэ": 2856,
      "мин": 2857,
      "улс": 2858,
      "дар": 2859,
      "дээр": 2860,
      "##ууд": 2861,
      "гаа": 2862,
      "бод": 2863,
      "өм": 2864,
      "да": 2865,
      "##дэг": 2866,
      "##өх": 2867,
      "үйл": 2868,
      "уд": 2869,
      "дэг": 2870,
      "##лэ": 2871,
      "зүй": 2872,
      "йн": 2873,
      "онг": 2874,
      "ээс": 2875,
      "болно": 2876,
      "үе": 2877,
      "юу": 2878,
      "өд": 2879,
      "##өв": 2880,
      "бид": 2881,
      "онгол": 2882,
      "##ны": 2883,
      "цаг": 2884,
      "айдаг": 2885,
      "вэ": 2886,
      "мж": 2887,
      "лг": 2888,
      "ям": 2889,
      "хан": 2890,
      "##гө": 2891,
      "шүү": 2892,
      "боло": 2893,
      "чад": 2894,
      "өв": 2895,
      "олон": 2896,
      "##жи": 2897,
      "зүйл": 2898,
      "хув": 2899,
      "ин": 2900,
      "##эв": 2901,
      "асуу": 2902,
      "##сон": 2903,
      "ямар": 2904,
      "мөн": 2905,
      "са": 2906,
      "гэсэн": 2907,
      "##мүү": 2908,
      "##им": 2909,
      "##ха": 2910,
      "болох": 2911,
      "##хай": 2912,
      "##та": 2913,
      "бүр": 2914,
      "хүр": 2915,
      "хүү": 2916,
      "##аан": 2917,
      "эс": 2918,
      "үг": 2919,
      "##ийг": 2920,
      "су": 2921,
      "бүх": 2922,
      "үүд": 2923,
      "өө": 2924,
      "үл": 2925,
      "лд": 2926,
      "хүмүү": 2927,
      "яр": 2928,
      "одоо": 2929,
      "эрх": 2930,
      "хэм": 2931,
      "газ": 2932,
      "##тг": 2933,
      "дал": 2934,
      "..": 2935,
      "гэр": 2936,
      "сар": 2937,
      "##ёр": 2938,
      "ог": 2939,
      "...": 2940,
      "##нө": 2941,
      "оо": 2942,
      "ёс": 2943,
      "түү": 2944,
      "маш": 2945,
      "амьд": 2946,
      "##сэ": 2947,
      "##да": 2948,
      "##иу": 2949,
      "хамг": 2950,
      "аш": 2951,
      "##ээс": 2952,
      "нэ": 2953,
      "үүл": 2954,
      "нийг": 2955,
      "##оор": 2956,
      "хэн": 2957,
      "за": 2958,
      "хоёр": 2959,
      "биш": 2960,
      "аан": 2961,
      "баг": 2962,
      "нар": 2963,
      "##дал": 2964,
      "##гал": 2965,
      "ду": 2966,
      "бар": 2967,
      "нг": 2968,
      "##тай": 2969,
      "шин": 2970,
      "сайн": 2971,
      "чин": 2972,
      "тий": 2973,
      "үнэ": 2974,
      "ажилл": 2975,
      "аад": 2976,
      "##аас": 2977,
      "то": 2978,
      "сэ": 2979,
      "өл": 2980,
      "мэдээ": 2981,
      "тийм": 2982,
      "ийм": 2983,
      "гч": 2984,
      "##дэ": 2985,
      "дараа": 2986,
      "ши": 2987,
      "айгу": 2988,
      "ман": 2989,
      "шиг": 2990,
      "жи": 2991,
      "энд": 2992,
      "##ло": 2993,
      "гэдэг": 2994,
      "чих": 2995,
      "зар": 2996,
      "гийн": 2997,
      "##вэл": 2998,
      "тэд": 2999,
      "##лаа": 3000,
      "суу": 3001,
      "өөрий": 3002,
      "миний": 3003,
      "олсон": 3004,
      "болон": 3005,
      "##энд": 3006,
      "өмнө": 3007,
      "сур": 3008,
      "ая": 3009,
      "дү": 3010,
      "харин": 3011,
      "##охи": 3012,
      "бус": 3013,
      "но": 3014,
      "анх": 3015,
      "##өлөө": 3016,
      "дах": 3017,
      "гээр": 3018,
      "##их": 3019,
      "##нд": 3020,
      "ээд": 3021,
      "жээ": 3022,
      "лаа": 3023,
      "тус": 3024,
      "##хан": 3025,
      "тав": 3026,
      "дуу": 3027,
      "нэр": 3028,
      "##дээ": 3029,
      "##хий": 3030,
      "##ер": 3031,
      "гэх": 3032,
      "нас": 3033,
      "ус": 3034,
      "##лаг": 3035,
      "##тэй": 3036,
      "лага": 3037,
      "хүүх": 3038,
      "рх": 3039,
      "лээ": 3040,
      "дог": 3041,
      "хийх": 3042,
      "хүс": 3043,
      "##үүд": 3044,
      "ашиг": 3045,
      "үүний": 3046,
      "бая": 3047,
      "лэг": 3048,
      "тог": 3049,
      "нам": 3050,
      "хол": 3051,
      "эв": 3052,
      "##дв": 3053,
      "тул": 3054,
      "ёстой": 3055,
      "өнөө": 3056,
      "төр": 3057,
      "айр": 3058,
      "сөн": 3059,
      "##энэ": 3060,
      "хя": 3061,
      "##жэ": 3062,
      "бас": 3063,
      "дэ": 3064,
      "лөг": 3065,
      "амьдр": 3066,
      "алт": 3067,
      "өдөр": 3068,
      "##бар": 3069,
      "##дл": 3070,
      "байж": 3071,
      "##гац": 3072,
      "##юу": 3073,
      "зөв": 3074,
      "манай": 3075,
      "ун": 3076,
      "##бо": 3077,
      "чинь": 3078,
      "хи": 3079,
      "лэ": 3080,
      "##аад": 3081,
      "сн": 3082,
      "со": 3083,
      "хугац": 3084,
      "ший": 3085,
      "сэтгэ": 3086,
      "үед": 3087,
      "илүү": 3088,
      "болж": 3089,
      "авах": 3090,
      "анд": 3091,
      "том": 3092,
      "##чин": 3093,
      "онд": 3094,
      "тухай": 3095,
      "бат": 3096,
      "алб": 3097,
      "ат": 3098,
      "ша": 3099,
      "хүүхд": 3100,
      "ич": 3101,
      "ээл": 3102,
      "шинэ": 3103,
      "ну": 3104,
      "##ва": 3105,
      "алаар": 3106,
      "##са": 3107,
      "ган": 3108,
      "орон": 3109,
      "##ис": 3110,
      "эж": 3111,
      "газар": 3112,
      "##тэл": 3113,
      "өгөө": 3114,
      "оны": 3115,
      "хэмжэ": 3116,
      "##аж": 3117,
      "той": 3118,
      "холбо": 3119,
      "баяр": 3120,
      "гээд": 3121,
      "таны": 3122,
      "тал": 3123,
      "ирг": 3124,
      "шаар": 3125,
      "до": 3126,
      "агаа": 3127,
      "болго": 3128,
      "##тээ": 3129,
      "ги": 3130,
      "най": 3131,
      "шаард": 3132,
      "лэл": 3133,
      "чл": 3134,
      "гарга": 3135,
      "өнг": 3136,
      "##алт": 3137,
      "өс": 3138,
      "##ро": 3139,
      "хувьд": 3140,
      "тү": 3141,
      "хийж": 3142,
      "тод": 3143,
      "үс": 3144,
      "нийт": 3145,
      "рч": 3146,
      "##гэл": 3147,
      "хүний": 3148,
      "##ра": 3149,
      "##үүр": 3150,
      "нөх": 3151,
      "нх": 3152,
      "ойл": 3153,
      "шал": 3154,
      "ой": 3155,
      "буй": 3156,
      "##чир": 3157,
      "гөө": 3158,
      "арга": 3159,
      "гэд": 3160,
      "удаа": 3161,
      "##илц": 3162,
      "сары": 3163,
      "өх": 3164,
      "##вар": 3165,
      "авч": 3166,
      "ерөн": 3167,
      "ерөнх": 3168,
      "дур": 3169,
      "өгөөд": 3170,
      "лгээ": 3171,
      "эхдээ": 3172,
      "оор": 3173,
      "ашигл": 3174,
      "мжтой": 3175,
      "ажл": 3176,
      "дл": 3177,
      "гэдг": 3178,
      "уг": 3179,
      "нээс": 3180,
      "##уй": 3181,
      "##агд": 3182,
      "##охио": 3183,
      "ойлго": 3184,
      "лл": 3185,
      "ком": 3186,
      "оруул": 3187,
      "ааг": 3188,
      "##оод": 3189,
      "##гд": 3190,
      "##жээ": 3191,
      "зур": 3192,
      "##вч": 3193,
      "бага": 3194,
      "##вал": 3195,
      "лог": 3196,
      "сайха": 3197,
      "ла": 3198,
      "ард": 3199,
      "йл": 3200,
      "йр": 3201,
      "үүх": 3202,
      "минь": 3203,
      "рал": 3204,
      "##ик": 3205,
      "лс": 3206,
      "##иа": 3207,
      "сонго": 3208,
      "чадах": 3209,
      "алд": 3210,
      "##хэ": 3211,
      "өнгөр": 3212,
      "мөнгө": 3213,
      "зо": 3214,
      "бий": 3215,
      "нэгэн": 3216,
      "айх": 3217,
      "хаа": 3218,
      "##цэ": 3219,
      "от": 3220,
      "##ши": 3221,
      "##ги": 3222,
      "дөр": 3223,
      "зарим": 3224,
      "идний": 3225,
      "сү": 3226,
      "орол": 3227,
      "комп": 3228,
      "газр": 3229,
      "бил": 3230,
      "зор": 3231,
      "огт": 3232,
      "гаар": 3233,
      "өгс": 3234,
      "бэ": 3235,
      "ст": 3236,
      "лагаа": 3237,
      "##шүү": 3238,
      "иргэд": 3239,
      "учир": 3240,
      "##нэ": 3241,
      "яг": 3242,
      "санал": 3243,
      "над": 3244,
      "хэмээ": 3245,
      "тогло": 3246,
      "улсын": 3247,
      "хай": 3248,
      "лж": 3249,
      "аз": 3250,
      "ингэ": 3251,
      "эсвэл": 3252,
      "өрийн": 3253,
      "ял": 3254,
      "ца": 3255,
      "сана": 3256,
      "хэс": 3257,
      "эмэг": 3258,
      "агаад": 3259,
      "чу": 3260,
      "йг": 3261,
      "тодо": 3262,
      "руу": 3263,
      "##лө": 3264,
      "##хөн": 3265,
      "##ээл": 3266,
      "зал": 3267,
      "гишүү": 3268,
      "эдэн": 3269,
      "хуул": 3270,
      "оног": 3271,
      "тоо": 3272,
      "ганц": 3273,
      "ут": 3274,
      "хүнд": 3275,
      "нэм": 3276,
      "##ээн": 3277,
      "тө": 3278,
      "рхой": 3279,
      "##хи": 3280,
      "билээ": 3281,
      "мэдэх": 3282,
      "маг": 3283,
      "лхий": 3284,
      "лал": 3285,
      "өнд": 3286,
      "ие": 3287,
      "##чих": 3288,
      "айлаа": 3289,
      "ух": 3290,
      "айл": 3291,
      "##ос": 3292,
      "ярь": 3293,
      "санаа": 3294,
      "ме": 3295,
      "дав": 3296,
      "олд": 3297,
      "төлөө": 3298,
      "10": 3299,
      "лөгч": 3300,
      "аагүй": 3301,
      "уч": 3302,
      "гай": 3303,
      "үүр": 3304,
      "эхэл": 3305,
      "хууль": 3306,
      "үх": 3307,
      "агч": 3308,
      "др": 3309,
      "го": 3310,
      "дарга": 3311,
      "гол": 3312,
      "гээ": 3313,
      "бүгд": 3314,
      "доо": 3315,
      "болов": 3316,
      "тулд": 3317,
      "рг": 3318,
      "дэх": 3319,
      "##амж": 3320,
      "##уун": 3321,
      "айдал": 3322,
      "##уур": 3323,
      "##лоо": 3324,
      "тэг": 3325,
      "ртэл": 3326,
      "хэрхэ": 3327,
      "үүхэд": 3328,
      "ув": 3329,
      "өвхөн": 3330,
      "аль": 3331,
      "бусад": 3332,
      "ээж": 3333,
      "хор": 3334,
      "ном": 3335,
      "##ли": 3336,
      "аанд": 3337,
      "шу": 3338,
      "сүүл": 3339,
      "оролц": 3340,
      "мэ": 3341,
      "##ас": 3342,
      "##ээж": 3343,
      "эхл": 3344,
      "дэм": 3345,
      "хэв": 3346,
      "албан": 3347,
      "##ож": 3348,
      "надад": 3349,
      "маан": 3350,
      "урхан": 3351,
      "дахь": 3352,
      "эрг": 3353,
      "уллаг": 3354,
      "охи": 3355,
      "маань": 3356,
      "байдл": 3357,
      "өөс": 3358,
      "тохио": 3359,
      "ээг": 3360,
      "##эргэ": 3361,
      "дахин": 3362,
      "ос": 3363,
      "эгээд": 3364,
      "эз": 3365,
      "учр": 3366,
      "##оос": 3367,
      "гур": 3368,
      "үйлдв": 3369,
      "өөрөө": 3370,
      "оос": 3371,
      "залуу": 3372,
      "наас": 3373,
      "##ав": 3374,
      "бэл": 3375,
      "хой": 3376,
      "##то": 3377,
      "машин": 3378,
      "гу": 3379,
      "##хайн": 3380,
      "мө": 3381,
      "лийн": 3382,
      "##элт": 3383,
      "##ино": 3384,
      "ирсэн": 3385,
      "далда": 3386,
      "##лэг": 3387,
      "нир": 3388,
      "дол": 3389,
      "ана": 3390,
      "үндэ": 3391,
      "үй": 3392,
      "хамт": 3393,
      "рд": 3394,
      "сургу": 3395,
      "нц": 3396,
      "мгаа": 3397,
      "агд": 3398,
      "лсан": 3399,
      "үзүүл": 3400,
      "мгаал": 3401,
      "гэнэ": 3402,
      "нирх": 3403,
      "үргэл": 3404,
      "итгэ": 3405,
      "лоо": 3406,
      "##тэ": 3407,
      "сонс": 3408,
      "чух": 3409,
      "чухал": 3410,
      "тэм": 3411,
      "дугаа": 3412,
      "тур": 3413,
      "из": 3414,
      "сол": 3415,
      "аараа": 3416,
      "##тад": 3417,
      "цу": 3418,
      "хэд": 3419,
      "чууд": 3420,
      "анхаа": 3421,
      "хятад": 3422,
      "##эрг": 3423,
      "зах": 3424,
      "мөр": 3425,
      "дунд": 3426,
      "ли": 3427,
      "##чид": 3428,
      "магад": 3429,
      "##нга": 3430,
      "хөд": 3431,
      "шийдв": 3432,
      "гад": 3433,
      "жүүл": 3434,
      "чиг": 3435,
      "те": 3436,
      "хот": 3437,
      "эрлэ": 3438,
      "үндэс": 3439,
      "ханд": 3440,
      "ажлын": 3441,
      "##не": 3442,
      "му": 3443,
      "бие": 3444,
      "ирэх": 3445,
      "##эж": 3446,
      "ри": 3447,
      "хувь": 3448,
      "ач": 3449,
      "чүүд": 3450,
      "тэн": 3451,
      "олг": 3452,
      "дг": 3453,
      "хийсэ": 3454,
      "хөг": 3455,
      "өндөр": 3456,
      "бари": 3457,
      "ээрээ": 3458,
      "дот": 3459,
      "хойш": 3460,
      "лб": 3461,
      "биз": 3462,
      "зас": 3463,
      "авсан": 3464,
      "##тр": 3465,
      "ханга": 3466,
      "олох": 3467,
      "ви": 3468,
      "сайд": 3469,
      "##зээ": 3470,
      "орж": 3471,
      "уур": 3472,
      "яаж": 3473,
      "дор": 3474,
      "хэсэг": 3475,
      "хээр": 3476,
      "хэзээ": 3477,
      "ахад": 3478,
      "чан": 3479,
      "жл": 3480,
      "хамаа": 3481,
      "өлөв": 3482,
      "оод": 3483,
      "хэрэв": 3484,
      "уих": 3485,
      "лбар": 3486,
      "үч": 3487,
      "мэт": 3488,
      "##ьц": 3489,
      "хариу": 3490,
      "хүргэ": 3491,
      "##гай": 3492,
      "амжи": 3493,
      "уулз": 3494,
      "айм": 3495,
      "эрүүл": 3496,
      "гарч": 3497,
      "байв": 3498,
      "өлб": 3499,
      "ом": 3500,
      "өлбөр": 3501,
      "##өлт": 3502,
      "аав": 3503,
      "ану": 3504,
      "өрс": 3505,
      "ов": 3506,
      "гал": 3507,
      "##лээ": 3508,
      "зам": 3509,
      "ээгүй": 3510,
      "ож": 3511,
      "бодож": 3512,
      "рөн": 3513,
      "онго": 3514,
      "өгөх": 3515,
      "##аал": 3516,
      "сая": 3517,
      "үгээр": 3518,
      "##чл": 3519,
      "лтай": 3520,
      "үнд": 3521,
      "бур": 3522,
      "хээ": 3523,
      "ани": 3524,
      "лан": 3525,
      "гоор": 3526,
      "##ирд": 3527,
      "ули": 3528,
      "олом": 3529,
      "хон": 3530,
      "бүтээ": 3531,
      "уули": 3532,
      "##имт": 3533,
      "##жиг": 3534,
      "нүүр": 3535,
      "эрэг": 3536,
      "дуус": 3537,
      "хур": 3538,
      "огтоо": 3539,
      "оломж": 3540,
      "нууд": 3541,
      "үйлчи": 3542,
      "эдний": 3543,
      "эрээр": 3544,
      "цаа": 3545,
      "мал": 3546,
      "муу": 3547,
      "явуул": 3548,
      "шийд": 3549,
      "олж": 3550,
      "оло": 3551,
      "зураг": 3552,
      "аат": 3553,
      "тгэ": 3554,
      "амьда": 3555,
      "кино": 3556,
      "амь": 3557,
      "шалга": 3558,
      "цэ": 3559,
      "##чим": 3560,
      "энх": 3561,
      "танд": 3562,
      "чам": 3563,
      "турш": 3564,
      "чанар": 3565,
      "##цоо": 3566,
      "зу": 3567,
      "олго": 3568,
      "ухайн": 3569,
      "##лог": 3570,
      "өрө": 3571,
      "тавь": 3572,
      "орос": 3573,
      "ян": 3574,
      "яах": 3575,
      "##гээ": 3576,
      "намай": 3577,
      "дүр": 3578,
      "хайр": 3579,
      "арил": 3580,
      "айхад": 3581,
      "өдр": 3582,
      "олб": 3583,
      "охоор": 3584,
      "мар": 3585,
      "удирд": 3586,
      "өрөө": 3587,
      "##цө": 3588,
      "лтэй": 3589,
      "лдол": 3590,
      "охин": 3591,
      "нэмэ": 3592,
      "нөлөө": 3593,
      "дөө": 3594,
      "хэлж": 3595,
      "угаа": 3596,
      "явж": 3597,
      "оюу": 3598,
      "##те": 3599,
      "ргал": 3600,
      "эргэ": 3601,
      "лч": 3602,
      "гү": 3603,
      "нөө": 3604,
      "отой": 3605,
      "ингэж": 3606,
      "унш": 3607,
      "мо": 3608,
      "зориу": 3609,
      "үгүй": 3610,
      "дэхүү": 3611,
      "лэх": 3612,
      "засг": 3613,
      "эгч": 3614,
      "эц": 3615,
      "вал": 3616,
      "зай": 3617,
      "адил": 3618,
      "дэв": 3619,
      "элхий": 3620,
      "суур": 3621,
      "##шин": 3622,
      "хөдөл": 3623,
      "шалтг": 3624,
      "асг": 3625,
      "төв": 3626,
      "алга": 3627,
      "ес": 3628,
      "мэргэ": 3629,
      "анги": 3630,
      "рил": 3631,
      "гэтэл": 3632,
      "ье": 3633,
      "аримт": 3634,
      "илэр": 3635,
      "тээ": 3636,
      "газры": 3637,
      "найз": 3638,
      "мэнд": 3639,
      "иг": 3640,
      "эмдэг": 3641,
      "##таг": 3642,
      "##сд": 3643,
      "олдог": 3644,
      "##тер": 3645,
      "буруу": 3646,
      "сонгу": 3647,
      "өвш": 3648,
      "төрл": 3649,
      "олоод": 3650,
      "##нес": 3651,
      "лсын": 3652,
      "рах": 3653,
      "длыг": 3654,
      "дын": 3655,
      "анилц": 3656,
      "ргаа": 3657,
      "##охир": 3658,
      "цо": 3659,
      "явах": 3660,
      "өвшө": 3661,
      "үтээ": 3662,
      "нү": 3663,
      "анг": 3664,
      "гоо": 3665,
      "изнес": 3666,
      "дотор": 3667,
      "##ит": 3668,
      "нуу": 3669,
      "үүс": 3670,
      "нөхцө": 3671,
      "рөнгө": 3672,
      "##on": 3673,
      "үнэн": 3674,
      "##гэр": 3675,
      "мэдэ": 3676,
      "ирж": 3677,
      "##луу": 3678,
      "вэл": 3679,
      "хийл": 3680,
      "аатар": 3681,
      "өөрсд": 3682,
      "аюу": 3683,
      "бүрэн": 3684,
      "судал": 3685,
      "үсгүй": 3686,
      "үлээн": 3687,
      "аюул": 3688,
      "риу": 3689,
      "арай": 3690,
      "элэл": 3691,
      "урд": 3692,
      "элэлц": 3693,
      "гурва": 3694,
      "се": 3695,
      "олгон": 3696,
      "эгвэл": 3697,
      "аарай": 3698,
      "хэлэх": 3699,
      "сл": 3700,
      "асан": 3701,
      "асаг": 3702,
      "лэгч": 3703,
      "эдийн": 3704,
      "эний": 3705,
      "үм": 3706,
      "харж": 3707,
      "##яа": 3708,
      "##ван": 3709,
      "##ут": 3710,
      "өгсөн": 3711,
      "ев": 3712,
      "айвал": 3713,
      "мя": 3714,
      "жиш": 3715,
      "үеийн": 3716,
      "араа": 3717,
      "итг": 3718,
      "##ar": 3719,
      "##цаа": 3720,
      "охион": 3721,
      "яри": 3722,
      "хоор": 3723,
      "жуул": 3724,
      "үтээг": 3725,
      "буюу": 3726,
      "төн": 3727,
      "мт": 3728,
      "үлд": 3729,
      "про": 3730,
      "хүрээ": 3731,
      "гарах": 3732,
      "өхө": 3733,
      "төс": 3734,
      "дуул": 3735,
      "жишээ": 3736,
      "гр": 3737,
      "лөгөө": 3738,
      "рш": 3739,
      "ни": 3740,
      "##жл": 3741,
      "гэвч": 3742,
      "эхэд": 3743,
      "эдээж": 3744,
      "тэ": 3745,
      "цааш": 3746,
      "лэн": 3747,
      "долоо": 3748,
      "маар": 3749,
      "амар": 3750,
      "нөг": 3751,
      "гаруй": 3752,
      "тэгэх": 3753,
      "орох": 3754,
      "хоол": 3755,
      "ухаан": 3756,
      "##чиж": 3757,
      "нутаг": 3758,
      "бүү": 3759,
      "нөгөө": 3760,
      "нутг": 3761,
      "##in": 3762,
      "зэр": 3763,
      "ойр": 3764,
      "##нт": 3765,
      "лын": 3766,
      "оч": 3767,
      "ичээл": 3768,
      "эрв": 3769,
      "зэрэг": 3770,
      "нхөө": 3771,
      "адаг": 3772,
      "оллоо": 3773,
      "даад": 3774,
      "хүлээ": 3775,
      "хооро": 3776,
      "жа": 3777,
      "не": 3778,
      "түүх": 3779,
      "уудыг": 3780,
      "үндсэ": 3781,
      "зохи": 3782,
      "гаан": 3783,
      "хэт": 3784,
      "##энх": 3785,
      "улсад": 3786,
      "ихэнх": 3787,
      "тат": 3788,
      "mn": 3789,
      "бээр": 3790,
      "тн": 3791,
      "анк": 3792,
      "ярилц": 3793,
      "уль": 3794,
      "арла": 3795,
      "минут": 3796,
      "нирхо": 3797,
      "олбоо": 3798,
      "20": 3799,
      "##мж": 3800,
      "олжээ": 3801,
      "сп": 3802,
      "мянга": 3803,
      "оловч": 3804,
      "олтой": 3805,
      "##an": 3806,
      "вс": 3807,
      "дэмж": 3808,
      "явдал": 3809,
      "##хаа": 3810,
      "йлбар": 3811,
      "цэв": 3812,
      "er": 3813,
      "гэвэл": 3814,
      "чадва": 3815,
      "лө": 3816,
      "рүү": 3817,
      "дүн": 3818,
      "##ца": 3819,
      "##or": 3820,
      "глоо": 3821,
      "нэх": 3822,
      "аасаа": 3823,
      "глоом": 3824,
      "тга": 3825,
      "дамж": 3826,
      "төл": 3827,
      "##нөх": 3828,
      "хэц": 3829,
      "өмнөх": 3830,
      "гэм": 3831,
      "зөвлө": 3832,
      "##дө": 3833,
      "ле": 3834,
      "сал": 3835,
      "өөд": 3836,
      "гэл": 3837,
      "эрвээ": 3838,
      "батал": 3839,
      "хөл": 3840,
      "##даа": 3841,
      "уш": 3842,
      "авна": 3843,
      "сард": 3844,
      "тогт": 3845,
      "шууд": 3846,
      "өгч": 3847,
      "тави": 3848,
      "барь": 3849,
      "үзэх": 3850,
      "хөт": 3851,
      "өгл": 3852,
      "сийн": 3853,
      "сайт": 3854,
      "ярьж": 3855,
      "хэцүү": 3856,
      "рл": 3857,
      "##уулг": 3858,
      "in": 3859,
      "гчид": 3860,
      "члөлт": 3861,
      "ре": 3862,
      "эмч": 3863,
      "нгээд": 3864,
      "ъя": 3865,
      "хгүй": 3866,
      "гдсэн": 3867,
      "мер": 3868,
      "эргүү": 3869,
      "эрч": 3870,
      "өглөө": 3871,
      "хний": 3872,
      "лах": 3873,
      "дагуу": 3874,
      "ран": 3875,
      "өрсөн": 3876,
      "агвар": 3877,
      "нс": 3878,
      "хэрг": 3879,
      "шат": 3880,
      "тохир": 3881,
      "гайха": 3882,
      "дгал": 3883,
      "харьц": 3884,
      "авар": 3885,
      "алх": 3886,
      "нээ": 3887,
      "эдий": 3888,
      "##нуу": 3889,
      "саар": 3890,
      "гэхэд": 3891,
      "лийг": 3892,
      "##рэг": 3893,
      "дө": 3894,
      "лгүй": 3895,
      "цах": 3896,
      "араах": 3897,
      "гүйцэ": 3898,
      "##орт": 3899,
      "ко": 3900,
      "##бө": 3901,
      "лттай": 3902,
      "гт": 3903,
      "өргө": 3904,
      "ра": 3905,
      "##сгал": 3906,
      "чиглэ": 3907,
      "##рэ": 3908,
      "##ба": 3909,
      "нутги": 3910,
      "##лу": 3911,
      "зохио": 3912,
      "хийн": 3913,
      "алда": 3914,
      "зүйлс": 3915,
      "хороо": 3916,
      "гэв": 3917,
      "гаад": 3918,
      "ээсээ": 3919,
      "дага": 3920,
      "анхны": 3921,
      "үлээж": 3922,
      "##лага": 3923,
      "төө": 3924,
      "мжгүй": 3925,
      "ажилд": 3926,
      "зов": 3927,
      "##роп": 3928,
      "мерик": 3929,
      "жаа": 3930,
      "оно": 3931,
      "идэнд": 3932,
      "##er": 3933,
      "им": 3934,
      "цэц": 3935,
      "эгд": 3936,
      "айжээ": 3937,
      "аавал": 3938,
      "багш": 3939,
      "##айн": 3940,
      "дэмжи": 3941,
      "гж": 3942,
      "дэл": 3943,
      "алын": 3944,
      "эсрэг": 3945,
      "руул": 3946,
      "##иал": 3947,
      "зү": 3948,
      "шил": 3949,
      "гасан": 3950,
      "элб": 3951,
      "гдсан": 3952,
      "дгээр": 3953,
      "ураг": 3954,
      "улаан": 3955,
      "отын": 3956,
      "ахир": 3957,
      "##дөг": 3958,
      "ро": 3959,
      "ярих": 3960,
      "лгой": 3961,
      "ка": 3962,
      "сис": 3963,
      "үзэж": 3964,
      "утлуу": 3965,
      "бо": 3966,
      "үртгэ": 3967,
      "##чиг": 3968,
      "увийн": 3969,
      "унт": 3970,
      "элтгэ": 3971,
      "бүхэн": 3972,
      "дээд": 3973,
      "луул": 3974,
      "уулж": 3975,
      "##нэр": 3976,
      "кс": 3977,
      "систе": 3978,
      "чөлөө": 3979,
      "ик": 3980,
      "лдолд": 3981,
      "бэр": 3982,
      "снээр": 3983,
      "дээрх": 3984,
      "ва": 3985,
      "ульд": 3986,
      "орны": 3987,
      "шүүх": 3988,
      "өрөл": 3989,
      "олохы": 3990,
      "өдрий": 3991,
      "аал": 3992,
      "хүчин": 3993,
      "рагд": 3994,
      "##гуй": 3995,
      "ээрэй": 3996,
      "ахаар": 3997,
      "үд": 3998,
      "олчих": 3999,
      "өгр": 4000,
      "өгрөг": 4001,
      "рдэнэ": 4002,
      "уна": 4003,
      "дөг": 4004,
      "тг": 4005,
      "рай": 4006,
      "эй": 4007,
      "##до": 4008,
      "орчин": 4009,
      "харах": 4010,
      "инээ": 4011,
      "оё": 4012,
      "тусга": 4013,
      "шгүй": 4014,
      "ср": 4015,
      "##oo": 4016,
      "бараг": 4017,
      "үрх": 4018,
      "үмэн": 4019,
      "хад": 4020,
      "шинж": 4021,
      "дүү": 4022,
      "тар": 4023,
      "зург": 4024,
      "лдэг": 4025,
      "тань": 4026,
      "элэн": 4027,
      "лого": 4028,
      "зог": 4029,
      "ргалт": 4030,
      "ста": 4031,
      "##пон": 4032,
      "нө": 4033,
      "игч": 4034,
      "урдан": 4035,
      "европ": 4036,
      "төнц": 4037,
      "рь": 4038,
      "зогс": 4039,
      "гадна": 4040,
      "уудас": 4041,
      "япон": 4042,
      "аял": 4043,
      "рөө": 4044,
      "эсэх": 4045,
      "охир": 4046,
      "##st": 4047,
      "өрв": 4048,
      "ne": 4049,
      "гө": 4050,
      "орсон": 4051,
      "лгэ": 4052,
      "бич": 4053,
      "30": 4054,
      "амын": 4055,
      "цагт": 4056,
      "лүүл": 4057,
      "амьт": 4058,
      "нэв": 4059,
      "йртай": 4060,
      "гоё": 4061,
      "ута": 4062,
      "##чээ": 4063,
      "уучин": 4064,
      "архи": 4065,
      "хичээ": 4066,
      "янз": 4067,
      "нэхүү": 4068,
      "бүхий": 4069,
      "чадна": 4070,
      "амай": 4071,
      "лэж": 4072,
      "иргэн": 4073,
      "ис": 4074,
      "оноос": 4075,
      "буур": 4076,
      "яа": 4077,
      "on": 4078,
      "урт": 4079,
      "яриа": 4080,
      "##ма": 4081,
      "өж": 4082,
      "эцэ": 4083,
      "рэг": 4084,
      "грам": 4085,
      "вол": 4086,
      "тун": 4087,
      "ак": 4088,
      "өнгө": 4089,
      "үүрэг": 4090,
      "алтай": 4091,
      "рт": 4092,
      "рсан": 4093,
      "##at": 4094,
      "гөөн": 4095,
      "ирээд": 4096,
      "амайг": 4097,
      "ичиг": 4098,
      "хаана": 4099,
      "##алд": 4100,
      "оог": 4101,
      "элбэр": 4102,
      "нөхөр": 4103,
      "##лах": 4104,
      "дрийн": 4105,
      "мээр": 4106,
      "эхний": 4107,
      "##le": 4108,
      "ээв": 4109,
      "сныг": 4110,
      "лтой": 4111,
      "##лэх": 4112,
      "аймг": 4113,
      "ушаал": 4114,
      "ралд": 4115,
      "аваад": 4116,
      "тон": 4117,
      "улам": 4118,
      "рийн": 4119,
      "хэвлэ": 4120,
      "гуй": 4121,
      "сс": 4122,
      "дан": 4123,
      "лга": 4124,
      "утас": 4125,
      "вср": 4126,
      "наад": 4127,
      "рхойл": 4128,
      "арь": 4129,
      "эрс": 4130,
      "нис": 4131,
      "мент": 4132,
      "рой": 4133,
      "##ac": 4134,
      "рм": 4135,
      "онгос": 4136,
      "ня": 4137,
      "логи": 4138,
      "зүү": 4139,
      "хөгжи": 4140,
      "##илт": 4141,
      "оронд": 4142,
      "зайл": 4143,
      "нарын": 4144,
      "сэтг": 4145,
      "гэрээ": 4146,
      "цэвэр": 4147,
      "таа": 4148,
      "өсл": 4149,
      "орнуу": 4150,
      "co": 4151,
      "цагда": 4152,
      "жижиг": 4153,
      "итгий": 4154,
      "огс": 4155,
      "спорт": 4156,
      "жаг": 4157,
      "цуг": 4158,
      "vv": 4159,
      "хэсг": 4160,
      "ллийг": 4161,
      "рдаг": 4162,
      "орхи": 4163,
      "хүссэ": 4164,
      "хөн": 4165,
      "авто": 4166,
      "батла": 4167,
      "нийл": 4168,
      "ндээ": 4169,
      "хуваа": 4170,
      "бодит": 4171,
      "аяг": 4172,
      "найд": 4173,
      "агүй": 4174,
      "ааны": 4175,
      "этгэ": 4176,
      "ичсэн": 4177,
      "али": 4178,
      "нууц": 4179,
      "##хно": 4180,
      "12": 4181,
      "##сл": 4182,
      "атвар": 4183,
      "цар": 4184,
      "анай": 4185,
      "ажлыг": 4186,
      "риул": 4187,
      "мс": 4188,
      "йрла": 4189,
      "ардчи": 4190,
      "өрөөр": 4191,
      "##ен": 4192,
      "хөө": 4193,
      "алдаа": 4194,
      "##ус": 4195,
      "лиг": 4196,
      "эрт": 4197,
      "##re": 4198,
      "лол": 4199,
      "##хү": 4200,
      "хаан": 4201,
      "лав": 4202,
      "ль": 4203,
      "нийсл": 4204,
      "нга": 4205,
      "арч": 4206,
      "тэнд": 4207,
      "тээл": 4208,
      "соё": 4209,
      "па": 4210,
      "сээр": 4211,
      "сны": 4212,
      "эгүй": 4213,
      "үт": 4214,
      "сруул": 4215,
      "ллийн": 4216,
      "урьд": 4217,
      "зарла": 4218,
      "хая": 4219,
      "сум": 4220,
      "отоод": 4221,
      "дорж": 4222,
      "уран": 4223,
      "хүсч": 4224,
      "гдэл": 4225,
      "суури": 4226,
      "санхү": 4227,
      "зүйн": 4228,
      "чээ": 4229,
      "йгээд": 4230,
      "өгнө": 4231,
      "элт": 4232,
      "гv": 4233,
      "ахуй": 4234,
      "илцаа": 4235,
      "увц": 4236,
      "рилго": 4237,
      "ааш": 4238,
      "урхай": 4239,
      "чамай": 4240,
      "йм": 4241,
      "лдвар": 4242,
      "түүнд": 4243,
      "чил": 4244,
      "аасан": 4245,
      "оогүй": 4246,
      "жо": 4247,
      "сэд": 4248,
      "ичлэг": 4249,
      "үүсгэ": 4250,
      "re": 4251,
      "иж": 4252,
      "өрвөн": 4253,
      "уй": 4254,
      "##ти": 4255,
      "en": 4256,
      "лц": 4257,
      "##арга": 4258,
      "дээш": 4259,
      "үеэр": 4260,
      "ск": 4261,
      "явц": 4262,
      "айхыг": 4263,
      "өгүүл": 4264,
      "##арт": 4265,
      "бүл": 4266,
      "явдаг": 4267,
      "сийг": 4268,
      "хаг": 4269,
      "ажлаа": 4270,
      "тооц": 4271,
      "огсоо": 4272,
      "хуу": 4273,
      "андаа": 4274,
      "увцас": 4275,
      "нэвтр": 4276,
      "гчд": 4277,
      "хям": 4278,
      "бүс": 4279,
      "соли": 4280,
      "##нэл": 4281,
      "удаан": 4282,
      "нхэнэ": 4283,
      "намын": 4284,
      "бүли": 4285,
      "авдаг": 4286,
      "##зга": 4287,
      "мон": 4288,
      "рис": 4289,
      "гдаж": 4290,
      "гэлээ": 4291,
      "алуу": 4292,
      "гvй": 4293,
      "нл": 4294,
      "зохиц": 4295,
      "##ды": 4296,
      "цө": 4297,
      "даж": 4298,
      "эхнэр": 4299,
      "лим": 4300,
      "жилд": 4301,
      "хяна": 4302,
      "зуун": 4303,
      "жин": 4304,
      "сонин": 4305,
      "үйлчл": 4306,
      "ахыг": 4307,
      "өрөмж": 4308,
      "всрол": 4309,
      "аалт": 4310,
      "15": 4311,
      "дүүр": 4312,
      "лаас": 4313,
      "оюут": 4314,
      "сэргэ": 4315,
      "11": 4316,
      "гурав": 4317,
      "лон": 4318,
      "сайж": 4319,
      "мат": 4320,
      "алба": 4321,
      "##дий": 4322,
      "мэднэ": 4323,
      "жагса": 4324,
      "гааны": 4325,
      "өмс": 4326,
      "тэмц": 4327,
      "нтэй": 4328,
      "арилц": 4329,
      "гдох": 4330,
      "нэрлэ": 4331,
      "ынхаа": 4332,
      "анийн": 4333,
      "эхгүй": 4334,
      "энгэр": 4335,
      "орчим": 4336,
      "жү": 4337,
      "100": 4338,
      "агдах": 4339,
      "техно": 4340,
      "жлийн": 4341,
      "суурь": 4342,
      "тх": 4343,
      "члөг": 4344,
      "таныг": 4345,
      "хязга": 4346,
      "төсөл": 4347,
      "нүүд": 4348,
      "ен": 4349,
      "мийн": 4350,
      "рам": 4351,
      "лз": 4352,
      "##ou": 4353,
      "нийгм": 4354,
      "утга": 4355,
      "лээр": 4356,
      "дад": 4357,
      "бодох": 4358,
      "нээл": 4359,
      "зарц": 4360,
      "яла": 4361,
      "##al": 4362,
      "албай": 4363,
      "##ум": 4364,
      "жур": 4365,
      "жарга": 4366,
      "##эмш": 4367,
      "элгэр": 4368,
      "нэгд": 4369,
      "нцг": 4370,
      "хл": 4371,
      "хил": 4372,
      "эцэг": 4373,
      "алагд": 4374,
      "хийнэ": 4375,
      "50": 4376,
      "вр": 4377,
      "ью": 4378,
      "дамжу": 4379,
      "айнга": 4380,
      "ралц": 4381,
      "лыг": 4382,
      "рвал": 4383,
      "ээлий": 4384,
      "соёл": 4385,
      "дсэн": 4386,
      "мын": 4387,
      "суд": 4388,
      "ргааш": 4389,
      "ьсгал": 4390,
      "лаан": 4391,
      "урга": 4392,
      "барьж": 4393,
      "судла": 4394,
      "оли": 4395,
      "цэрг": 4396,
      "ди": 4397,
      "эзэмш": 4398,
      "өвч": 4399,
      "айлга": 4400,
      "захи": 4401,
      "th": 4402,
      "лгалт": 4403,
      "өвд": 4404,
      "лаж": 4405,
      "арам": 4406,
      "шаг": 4407,
      "##члэ": 4408,
      "##ео": 4409,
      "вид": 4410,
      "##зо": 4411,
      "орно": 4412,
      "йх": 4413,
      "хат": 4414,
      "гом": 4415,
      "айн": 4416,
      "хүрэх": 4417,
      "чиний": 4418,
      "эгж": 4419,
      "улалт": 4420,
      "аяа": 4421,
      "очиж": 4422,
      "улийн": 4423,
      "огүй": 4424,
      "члөгд": 4425,
      "нээлт": 4426,
      "ялгаа": 4427,
      "иу": 4428,
      "аниу": 4429,
      "өрч": 4430,
      "үмүү": 4431,
      "сууж": 4432,
      "унд": 4433,
      "ааж": 4434,
      "үмүүс": 4435,
      "шү": 4436,
      "вар": 4437,
      "##хн": 4438,
      "ээдүй": 4439,
      "үгийн": 4440,
      "өмбө": 4441,
      "үйлдэ": 4442,
      "арт": 4443,
      "аруун": 4444,
      "хаар": 4445,
      "улагд": 4446,
      "лтын": 4447,
      "гэрэл": 4448,
      "лалаа": 4449,
      "ахгүй": 4450,
      "лаанб": 4451,
      "ерм": 4452,
      "гдэж": 4453,
      "лбарт": 4454,
      "чамд": 4455,
      "танай": 4456,
      "дөл": 4457,
      "##ss": 4458,
      "өрг": 4459,
      "ло": 4460,
      "улгай": 4461,
      "бүлэг": 4462,
      "тэмцэ": 4463,
      "хыг": 4464,
      "өөсөө": 4465,
      "эрхүү": 4466,
      "st": 4467,
      "нэгүй": 4468,
      "эмнэл": 4469,
      "уя": 4470,
      "вч": 4471,
      "усгай": 4472,
      "цлага": 4473,
      "бор": 4474,
      "ийгэм": 4475,
      "шагна": 4476,
      "ноос": 4477,
      "үнг": 4478,
      "тата": 4479,
      "лох": 4480,
      "дэлгэ": 4481,
      "уулга": 4482,
      "хөгжл": 4483,
      "ижил": 4484,
      "ууч": 4485,
      "энгүй": 4486,
      "гдах": 4487,
      "ажээ": 4488,
      "лгын": 4489,
      "эрб": 4490,
      "нөөц": 4491,
      "өгдөг": 4492,
      "хүрч": 4493,
      "барих": 4494,
      "амра": 4495,
      "таван": 4496,
      "гаас": 4497,
      "аян": 4498,
      "аф": 4499,
      "тнууд": 4500,
      "рна": 4501,
      "уст": 4502,
      "энги": 4503,
      "эрбум": 4504,
      "no": 4505,
      "вир": 4506,
      "өч": 4507,
      "##эний": 4508,
      "ариу": 4509,
      "мах": 4510,
      "яваа": 4511,
      "йнх": 4512,
      "наа": 4513,
      "хнийг": 4514,
      "ооцоо": 4515,
      "шинжи": 4516,
      "дууд": 4517,
      "риг": 4518,
      "үүлэг": 4519,
      "цал": 4520,
      "шуул": 4521,
      "гэжээ": 4522,
      "##it": 4523,
      "гл": 4524,
      "хураа": 4525,
      "уулах": 4526,
      "хоо": 4527,
      "төрөл": 4528,
      "угаар": 4529,
      "нарий": 4530,
      "лөө": 4531,
      "an": 4532,
      "яам": 4533,
      "зогсо": 4534,
      "оролд": 4535,
      "гн": 4536,
      "ериал": 4537,
      "рга": 4538,
      "ага": 4539,
      "улг": 4540,
      "нз": 4541,
      "си": 4542,
      "зорил": 4543,
      "эрд": 4544,
      "аварг": 4545,
      "маа": 4546,
      "утг": 4547,
      "гжүүл": 4548,
      "юмаа": 4549,
      "бэрх": 4550,
      "сайжр": 4551,
      "хын": 4552,
      "өлөө": 4553,
      "уух": 4554,
      "бичих": 4555,
      "рьд": 4556,
      "онгоц": 4557,
      "арамс": 4558,
      "олцоо": 4559,
      "ив": 4560,
      "эээ": 4561,
      "лагын": 4562,
      "тхэг": 4563,
      "ази": 4564,
      "рж": 4565,
      "ргө": 4566,
      "сэл": 4567,
      "ндаа": 4568,
      "алуус": 4569,
      "өргөн": 4570,
      "мтр": 4571,
      "##am": 4572,
      "гараг": 4573,
      "услах": 4574,
      "эе": 4575,
      "мтран": 4576,
      "үедээ": 4577,
      "найр": 4578,
      "лтан": 4579,
      "явна": 4580,
      "гэмт": 4581,
      "фр": 4582,
      "боль": 4583,
      "эргэн": 4584,
      "үүнд": 4585,
      "бал": 4586,
      "хатуу": 4587,
      "өрсөл": 4588,
      "нцгой": 4589,
      "гдсон": 4590,
      "жир": 4591,
      "аниуд": 4592,
      "хүч": 4593,
      "ууж": 4594,
      "мр": 4595,
      "бя": 4596,
      "буца": 4597,
      "нэчлэ": 4598,
      "тос": 4599,
      "талы": 4600,
      "зан": 4601,
      "лжи": 4602,
      "уудад": 4603,
      "##маа": 4604,
      "дурд": 4605,
      "чд": 4606,
      "агда": 4607,
      "хотод": 4608,
      "цгаа": 4609,
      "эдэнд": 4610,
      "үүн": 4611,
      "худал": 4612,
      "мжийг": 4613,
      "цахим": 4614,
      "рэм": 4615,
      "ийнх": 4616,
      "асгал": 4617,
      "огч": 4618,
      "үчтэй": 4619,
      "амж": 4620,
      "ээрэм": 4621,
      "лгүүр": 4622,
      "ачаа": 4623,
      "тэнэг": 4624,
      "энтэй": 4625,
      "илбар": 4626,
      "тусла": 4627,
      "унши": 4628,
      "##en": 4629,
      "##ay": 4630,
      "давха": 4631,
      "рын": 4632,
      "үзэл": 4633,
      "гайх": 4634,
      "монго": 4635,
      "тор": 4636,
      "ахын": 4637,
      "өвлө": 4638,
      "сууц": 4639,
      "одол": 4640,
      "хоёры": 4641,
      "уруу": 4642,
      "нчл": 4643,
      "нчлэн": 4644,
      "дут": 4645,
      "эрчим": 4646,
      "ндарт": 4647,
      "дий": 4648,
      "өрт": 4649,
      "al": 4650,
      "шор": 4651,
      "лбал": 4652,
      "ве": 4653,
      "нгу": 4654,
      "өнх": 4655,
      "сүл": 4656,
      "ялбар": 4657,
      "өдлө": 4658,
      "тр": 4659,
      "үтэн": 4660,
      "арилг": 4661,
      "нлайн": 4662,
      "аран": 4663,
      "эгэн": 4664,
      "нөөс": 4665,
      "улга": 4666,
      "өрөх": 4667,
      "ел": 4668,
      "ерман": 4669,
      "эсгэл": 4670,
      "аач": 4671,
      "ашигт": 4672,
      "үсэлт": 4673,
      "идэв": 4674,
      "үүдэд": 4675,
      "идэвх": 4676,
      "амир": 4677,
      "эхлэх": 4678,
      "татаж": 4679,
      "гц": 4680,
      "ек": 4681,
      "рэх": 4682,
      "үнэл": 4683,
      "сав": 4684,
      "элж": 4685,
      "раг": 4686,
      "хим": 4687,
      "болд": 4688,
      "олой": 4689,
      "ичг": 4690,
      "үхэнд": 4691,
      "нгуяа": 4692,
      "хүсэ": 4693,
      "бичиж": 4694,
      "үрээс": 4695,
      "оноо": 4696,
      "урам": 4697,
      "тгал": 4698,
      "##мэ": 4699,
      "риулт": 4700,
      "вь": 4701,
      "оол": 4702,
      "лтыг": 4703,
      "эдлэг": 4704,
      "бараа": 4705,
      "мш": 4706,
      "дийн": 4707,
      "нж": 4708,
      "ок": 4709,
      "цээ": 4710,
      "үрүү": 4711,
      "очих": 4712,
      "вирус": 4713,
      "нха": 4714,
      "айрла": 4715,
      "рхайн": 4716,
      "долла": 4717,
      "гүүр": 4718,
      "төдий": 4719,
      "сламж": 4720,
      "мэл": 4721,
      "айз": 4722,
      "инээр": 4723,
      "##яг": 4724,
      "рхэг": 4725,
      "лэд": 4726,
      "эрлэх": 4727,
      "уулза": 4728,
      "нги": 4729,
      "улмаа": 4730,
      "үрд": 4731,
      "дай": 4732,
      "лагыг": 4733,
      "14": 4734,
      "авь": 4735,
      "бос": 4736,
      "уйл": 4737,
      "гдл": 4738,
      "лэдэг": 4739,
      "рс": 4740,
      "ухаа": 4741,
      "оёр": 4742,
      "бэлэг": 4743,
      "эрсдэ": 4744,
      "лаар": 4745,
      "нт": 4746,
      "аах": 4747,
      "йгал": 4748,
      "товч": 4749,
      "сгэ": 4750,
      "йгаль": 4751,
      "агаар": 4752,
      "жлүүл": 4753,
      "чихса": 4754,
      "анайд": 4755,
      "зөө": 4756,
      "маяг": 4757,
      "гс": 4758,
      "тгалз": 4759,
      "зөр": 4760,
      "##ци": 4761,
      "хал": 4762,
      "яваад": 4763,
      "алдар": 4764,
      "айдл": 4765,
      "там": 4766,
      "шо": 4767,
      "оху": 4768,
      "таар": 4769,
      "устга": 4770,
      "снаар": 4771,
      "шаш": 4772,
      "40": 4773,
      "эк": 4774,
      "элээд": 4775,
      "хиад": 4776,
      "цөө": 4777,
      "арван": 4778,
      "стр": 4779,
      "яналт": 4780,
      "чир": 4781,
      "эмэлт": 4782,
      "тэнц": 4783,
      "##гч": 4784,
      "алтын": 4785,
      "рист": 4786,
      "нох": 4787,
      "хийгд": 4788,
      "эцэс": 4789,
      "агдаж": 4790,
      "айгал": 4791,
      "мэдрэ": 4792,
      "айдлы": 4793,
      "лтгүй": 4794,
      "бна": 4795,
      "юуг": 4796,
      "бэрхш": 4797,
      "##ol": 4798,
      "үүлэх": 4799,
      "мний": 4800,
      "чн": 4801,
      "дарг": 4802,
      "үхэл": 4803,
      "яриад": 4804,
      "шөн": 4805,
      "улан": 4806,
      "үгийг": 4807,
      "оёрд": 4808,
      "хүсэл": 4809,
      "ухам": 4810,
      "дэд": 4811,
      "оох": 4812,
      "алаа": 4813,
      "зүтгэ": 4814,
      "амаг": 4815,
      "##из": 4816,
      "лчууд": 4817,
      "рэмж": 4818,
      "лтийн": 4819,
      "тогто": 4820,
      "орд": 4821,
      "тугай": 4822,
      "давуу": 4823,
      "дрийг": 4824,
      "англи": 4825,
      "ьютер": 4826,
      "яар": 4827,
      "өсөв": 4828,
      "ваал": 4829,
      "рвалж": 4830,
      "видео": 4831,
      "ваалц": 4832,
      "явдл": 4833,
      "сүлжэ": 4834,
      "ти": 4835,
      "өрүүл": 4836,
      "ирдэг": 4837,
      "вэб": 4838,
      "суух": 4839,
      "сонсо": 4840,
      "арг": 4841,
      "бүтэ": 4842,
      "##игл": 4843,
      "нарт": 4844,
      "чуулг": 4845,
      "логын": 4846,
      "ит": 4847,
      "хаагч": 4848,
      "ми": 4849,
      "асал": 4850,
      "зарна": 4851,
      "итгэл": 4852,
      "мд": 4853,
      "сний": 4854,
      "йнхүү": 4855,
      "илр": 4856,
      "це": 4857,
      "илгээ": 4858,
      "өмөр": 4859,
      "гаары": 4860,
      "нцлог": 4861,
      "ум": 4862,
      "нгийн": 4863,
      "тол": 4864,
      "үлдээ": 4865,
      "унших": 4866,
      "зэв": 4867,
      "хүрэл": 4868,
      "жааха": 4869,
      "лөн": 4870,
      "туул": 4871,
      "уудын": 4872,
      "нэтэй": 4873,
      "талд": 4874,
      "улир": 4875,
      "борлу": 4876,
      "члөх": 4877,
      "цалин": 4878,
      "##үс": 4879,
      "төсв": 4880,
      "үүгээ": 4881,
      "хөгж": 4882,
      "өөн": 4883,
      "орт": 4884,
      "сул": 4885,
      "сурта": 4886,
      "бусды": 4887,
      "ch": 4888,
      "ирнэ": 4889,
      "охиро": 4890,
      "сэг": 4891,
      "тавих": 4892,
      "анга": 4893,
      "сурга": 4894,
      "нүд": 4895,
      "бөх": 4896,
      "нүү": 4897,
      "аван": 4898,
      "ехн": 4899,
      "олл": 4900,
      "үүц": 4901,
      "арах": 4902,
      "сүх": 4903,
      "гнэлт": 4904,
      "лээд": 4905,
      "уучла": 4906,
      "гарын": 4907,
      "ехник": 4908,
      "хайж": 4909,
      "олгой": 4910,
      "лин": 4911,
      "чнээн": 4912,
      "огино": 4913,
      "рлог": 4914,
      "өмч": 4915,
      "лам": 4916,
      "##me": 4917,
      "эндээ": 4918,
      "есүс": 4919,
      "шө": 4920,
      "оохон": 4921,
      "##ic": 4922,
      "амхи": 4923,
      "снаас": 4924,
      "ахуйн": 4925,
      "цэг": 4926,
      "чимэ": 4927,
      "муж": 4928,
      "лөх": 4929,
      "эжээ": 4930,
      "мтлаг": 4931,
      "алгүй": 4932,
      "бүрт": 4933,
      "явагд": 4934,
      "заа": 4935,
      "эмчи": 4936,
      "кл": 4937,
      "урлаг": 4938,
      "болзо": 4939,
      "амиа": 4940,
      "эсэрг": 4941,
      "огц": 4942,
      "шоро": 4943,
      "##ad": 4944,
      "рита": 4945,
      "мтдаа": 4946,
      "ороод": 4947,
      "мшиг": 4948,
      "мод": 4949,
      "ортой": 4950,
      "онц": 4951,
      "эхлүү": 4952,
      "лгуур": 4953,
      "эрхлэ": 4954,
      "хэнд": 4955,
      "лцоо": 4956,
      "ажигл": 4957,
      "эрэгт": 4958,
      "ws": 4959,
      "өгжи": 4960,
      "гдүүл": 4961,
      "оороо": 4962,
      "лжүүл": 4963,
      "нцло": 4964,
      "марта": 4965,
      "вак": 4966,
      "шөнө": 4967,
      "de": 4968,
      "сэрг": 4969,
      "18": 4970,
      "ахи": 4971,
      "аалга": 4972,
      "айван": 4973,
      "идэх": 4974,
      "өрөлх": 4975,
      "арьс": 4976,
      "хүчи": 4977,
      "өөгүй": 4978,
      "арилд": 4979,
      "блог": 4980,
      "нохой": 4981,
      "фран": 4982,
      "сах": 4983,
      "цээн": 4984,
      "интер": 4985,
      "to": 4986,
      "дон": 4987,
      "дыг": 4988,
      "элийн": 4989,
      "адаас": 4990,
      "рлого": 4991,
      "лх": 4992,
      "вшин": 4993,
      "дн": 4994,
      "мог": 4995,
      "анаас": 4996,
      "царай": 4997,
      "нарыг": 4998,
      "охид": 4999
    }
  }
}