<unk>	0
<s>	0
</s>	0
▁а	-0
▁б	-1
▁х	-2
▁н	-3
▁т	-4
▁г	-5
ий	-6
▁э	-7
▁.	-8
▁д	-9
▁л	-10
▁о	-11
▁с	-12
аа	-13
ай	-14
▁у	-15
ээ	-16
ар	-17
▁ү	-18
ан	-19
▁ө	-20
▁м	-21
▁ий	-22
ол	-23
▁р	-24
эг	-25
▁и	-26
▁з	-27
аг	-28
▁ай	-29
▁ч	-30
эр	-31
үү	-32
уу	-33
үй	-34
эн	-35
▁ж	-36
ал	-37
▁ийн	-38
▁,	-39
▁бай	-40
▁ы	-41
▁бол	-42
▁ш	-43
▁нь	-44
эл	-45
он	-46
▁гэ	-47
на	-48
ин	-49
▁я	-50
оо	-51
ил	-52
▁хү	-53
▁уу	-54
өр	-55
▁Т	-56
▁-	-57
▁аа	-58
▁гүй	-59
▁Х	-60
▁ол	-61
▁ю	-62
эд	-63
нэ	-64
өө	-65
▁"	-66
гаа	-67
га	-68
▁Б	-69
▁ал	-70
▁ын	-71
▁үү	-72
▁ц	-73
▁байна	-74
ад	-75
▁в	-76
эй	-77
▁эр	-78
▁ор	-79
ах	-80
▁Э	-81
нг	-82
▁ар	-83
▁юм	-84
▁сан	-85
▁ха	-86
ийн	-87
▁ийг	-88
нд	-89
▁ул	-90
▁аж	-91
▁ээ	-92
▁ах	-93
ээр	-94
▁1	-95
▁М	-96
ой	-97
▁би	-98
▁А	-99
сан	-100
▁й	-101
ын	-102
өн	-103
▁тэй	-104
▁айгаа	-105
▁ав	-106
▁эх	-107
гэ	-108
▁ам	-109
▁0	-110
▁тай	-111
ог	-112
▁бү	-113
▁гэж	-114
▁2	-115
▁ху	-116
ох	-117
эх	-118
▁та	-119
ний	-120
▁ан	-121
▁хэр	-122
чи	-123
▁ний	-124
ам	-125
▁ту	-126
▁ыг	-127
▁эд	-128
▁гар	-129
▁хо	-130
уул	-131
▁өр	-132
иг	-133
аар	-134
▁Г	-135
эм	-136
▁нэг	-137
▁хий	-138
▁өг	-139
▁лт	-140
▁Н	-141
▁өөр	-142
од	-143
ур	-144
өл	-145
▁ур	-146
ас	-147
ор	-148
▁мэд	-149
▁уул	-150
▁эл	-151
го	-152
▁С	-153
▁У	-154
▁гд	-155
▁ас	-156
▁байх	-157
▁энэ	-158
▁хэрэг	-159
сэн	-160
гүй	-161
▁ир	-162
▁хар	-163
үүл	-164
▁к	-165
▁е	-166
▁:	-167
▁ээр	-168
▁сон	-169
▁Д	-170
▁ажил	-171
даг	-172
йл	-173
▁дээ	-174
▁аар	-175
▁Энэ	-176
▁О	-177
▁айсан	-178
ны	-179
▁даг	-180
▁га	-181
ом	-182
▁хүн	-183
ьд	-184
▁ны	-185
▁нд	-186
▁сай	-187
но	-188
▁яв	-189
▁ил	-190
▁сэн	-191
▁З	-192
өг	-193
ла	-194
той	-195
▁бу	-196
эв	-197
ир	-198
ыг	-199
▁И	-200
▁аас	-201
▁эг	-202
▁хэл	-203
▁ад	-204
▁Ө	-205
▁онг	-206
▁даа	-207
▁аг	-208
эт	-209
▁лаг	-210
▁их	-211
▁жил	-212
ээд	-213
▁ууд	-214
гу	-215
▁эм	-216
▁үз	-217
▁үр	-218
▁ид	-219
▁Би	-220
▁хө	-221
▁хам	-222
▁Ү	-223
▁ма	-224
ууд	-225
▁гаа	-226
▁ох	-227
өх	-228
дэг	-229
▁дэг	-230
лэ	-231
▁бод	-232
▁дээр	-233
▁чи	-234
▁зүй	-235
▁ба	-236
▁үйл	-237
▁ээс	-238
▁уд	-239
▁болно	-240
▁үе	-241
▁улс	-242
▁йн	-243
өв	-244
▁онгол	-245
▁дар	-246
▁од	-247
▁айдаг	-248
жи	-249
▁лг	-250
▁вэ	-251
▁өд	-252
▁юу	-253
▁да	-254
▁чад	-255
▁өм	-256
▁мж	-257
▁зүйл	-258
▁шүү	-259
▁хув	-260
▁3	-261
▁цаг	-262
▁хан	-263
▁асуу	-264
мар	-265
сон	-266
▁өв	-267
▁боло	-268
▁тан	-269
мүү	-270
▁он	-271
им	-272
▁болох	-273
хай	-274
▁9	-275
▁мин	-276
ха	-277
▁гэсэн	-278
аан	-279
▁бүр	-280
▁ё	-281
▁үүд	-282
▁!	-283
▁лд	-284
▁үг	-285
▁?	-286
▁хүмүү	-287
▁хүр	-288
▁яр	-289
▁үл	-290
▁олон	-291
▁өө	-292
▁5	-293
ийг	-294
нө	-295
▁хэм	-296
▁са	-297
▁тэр	-298
▁газ	-299
▁дал	-300
▁эс	-301
▁..	-302
▁су	-303
▁хэ	-304
ёр	-305
та	-306
▁эрх	-307
▁ог	-308
▁...	-309
▁ямар	-310
▁ер	-311
▁оо	-312
▁сар	-313
▁ёс	-314
сэ	-315
иу	-316
ээс	-317
▁нийг	-318
▁Я	-319
▁үүл	-320
оор	-321
▁4	-322
▁на	-323
да	-324
▁аш	-325
үүх	-326
▁бүх	-327
▁маш	-328
▁нг	-329
▁биш	-330
гал	-331
▁аан	-332
дал	-333
тай	-334
▁гэр	-335
▁амьд	-336
▁нар	-337
▁п	-338
▁Ш	-339
▁ду	-340
▁Е	-341
▁бар	-342
▁ажилл	-343
▁аад	-344
▁чин	-345
аас	-346
тг	-347
ийм	-348
▁өл	-349
энд	-350
▁баг	-351
▁гч	-352
▁нэ	-353
нгө	-354
▁айгу	-355
▁Ц	-356
▁хоёр	-357
▁шиг	-358
▁8	-359
▁гэдэг	-360
ло	-361
▁то	-362
тгэ	-363
▁хамг	-364
▁чих	-365
▁гийн	-366
вэл	-367
лаа	-368
▁бид	-369
▁суу	-370
▁мэдээ	-371
▁сайн	-372
▁олсон	-373
▁болон	-374
▁(	-375
охи	-376
эж	-377
▁сур	-378
▁хэн	-379
▁Тэр	-380
▁ая	-381
өлөө	-382
▁дах	-383
▁гээр	-384
▁6	-385
▁шин	-386
▁Ч	-387
▁но	-388
▁ши	-389
▁дү	-390
▁ээд	-391
▁жээ	-392
▁лаа	-393
▁Ж	-394
хан	-395
ро	-396
▁7	-397
дээ	-398
▁)	-399
хий	-400
▁Та	-401
▁үнэ	-402
ер	-403
▁энд	-404
▁гэх	-405
лаг	-406
▁тав	-407
▁анх	-408
▁ь	-409
▁лага	-410
▁дуу	-411
▁мө	-412
▁нэр	-413
▁дог	-414
▁хийх	-415
▁лээ	-416
үүд	-417
▁хүс	-418
▁рх	-419
▁Хар	-420
▁ашиг	-421
▁бус	-422
анай	-423
этгэ	-424
▁ус	-425
▁тог	-426
▁лэг	-427
▁эн	-428
▁К	-429
дв	-430
▁тул	-431
▁ёстой	-432
▁дараа	-433
нөө	-434
▁нас	-435
▁сөн	-436
▁эв	-437
▁өмнө	-438
▁ин	-439
энэ	-440
жэ	-441
▁айр	-442
▁хол	-443
▁лөг	-444
▁өөрий	-445
дл	-446
бар	-447
▁жи	-448
▁тус	-449
▁байж	-450
гац	-451
юу	-452
▁алт	-453
▁чинь	-454
бо	-455
▁зар	-456
аад	-457
тэй	-458
▁хугац	-459
▁ший	-460
▁анд	-461
▁/	-462
▁үед	-463
▁төр	-464
▁илүү	-465
▁болж	-466
▁авах	-467
▁хи	-468
▁одоо	-469
▁нам	-470
▁онд	-471
чин	-472
▁ат	-473
▁алб	-474
үүхд	-475
▁дэ	-476
▁ээл	-477
▁ич	-478
▁ун	-479
ва	-480
▁алаар	-481
▁зөв	-482
ав	-483
▁өдөр	-484
▁Харин	-485
▁газар	-486
▁эж	-487
▁өгөө	-488
▁ну	-489
▁амьдр	-490
яр	-491
▁хэмжэ	-492
аж	-493
▁той	-494
▁оны	-495
▁гээд	-496
▁сэтгэ	-497
▁тухай	-498
ис	-499
▁ша	-500
▁шаар	-501
▁том	-502
▁со	-503
▁тал	-504
▁холбо	-505
▁үүний	-506
са	-507
▁болго	-508
▁агаа	-509
тээ	-510
▁шаард	-511
▁най	-512
▁лэл	-513
▁ги	-514
▁гарга	-515
▁чл	-516
▁бас	-517
алт	-518
уй	-519
▁хувьд	-520
▁ийм	-521
▁хийж	-522
▁тод	-523
▁рч	-524
▁орон	-525
▁до	-526
гэл	-527
▁өс	-528
үүр	-529
эс	-530
▁нөх	-531
▁Ер	-532
▁ойл	-533
ра	-534
ши	-535
▁шал	-536
▁ут	-537
▁буй	-538
▁гэд	-539
▁удаа	-540
чир	-541
▁нх	-542
▁сары	-543
▁арга	-544
▁үс	-545
илц	-546
▁гөө	-547
▁Бид	-548
▁рт	-549
өнх	-550
вар	-551
▁e	-552
▁авч	-553
▁өгөөд	-554
▁сн	-555
▁лэ	-556
▁дур	-557
▁Тийм	-558
▁лгээ	-559
▁түү	-560
▁ирг	-561
▁эхдээ	-562
▁өх	-563
▁ашигл	-564
▁оор	-565
▁мжтой	-566
▁гэдг	-567
▁дл	-568
▁нээс	-569
агд	-570
▁Л	-571
охио	-572
дэ	-573
▁ойлго	-574
▁тү	-575
▁ой	-576
▁лл	-577
▁оруул	-578
▁i	-579
оод	-580
гд	-581
▁ааг	-582
жээ	-583
▁s	-584
анц	-585
▁ком	-586
▁зур	-587
▁рг	-588
▁яри	-589
▁ф	-590
вал	-591
▁баяр	-592
▁сайха	-593
▁лог	-594
▁Үү	-595
▁йл	-596
▁йр	-597
▁Од	-598
▁минь	-599
▁хүүхд	-600
▁АН	-601
▁нийт	-602
▁шинэ	-603
▁сонго	-604
▁рал	-605
▁чадах	-606
сөн	-607
▁үүх	-608
ик	-609
▁тэд	-610
▁алд	-611
нгөр	-612
▁нэгэн	-613
▁бий	-614
▁айх	-615
ов	-616
▁орол	-617
▁идний	-618
▁комп	-619
▁хүний	-620
▁газр	-621
▁Одоо	-622
▁зор	-623
▁дөр	-624
▁от	-625
▁бил	-626
▁хаа	-627
▁огт	-628
▁гаар	-629
▁ажл	-630
▁Ба	-631
▁үнд	-632
▁лагаа	-633
шүү	-634
▁бэ	-635
▁миний	-636
▁санал	-637
▁анг	-638
▁хэмээ	-639
▁тогло	-640
▁улсын	-641
▁лж	-642
▁өрийн	-643
▁хя	-644
▁ст	-645
▁сана	-646
▁хэс	-647
▁хүнд	-648
▁агаад	-649
▁йг	-650
▁тодо	-651
▁лс	-652
хөн	-653
▁за	-654
▁руу	-655
ээл	-656
▁үн	-657
▁ял	-658
▁гишүү	-659
▁П	-660
▁эдэн	-661
хэ	-662
▁оног	-663
лө	-664
▁бат	-665
▁нэм	-666
▁Хү	-667
ээн	-668
▁мөнгө	-669
▁рхой	-670
▁тоо	-671
хи	-672
▁билээ	-673
▁мэдэх	-674
▁лхий	-675
▁өнд	-676
▁M	-677
чих	-678
▁ие	-679
▁өнөө	-680
▁айлаа	-681
▁тө	-682
▁лал	-683
▁хүү	-684
▁ярь	-685
▁санаа	-686
▁энг	-687
▁төлөө	-688
▁олд	-689
▁чу	-690
▁лөгч	-691
ууль	-692
▁аагүй	-693
▁S	-694
цэ	-695
▁хай	-696
▁10	-697
▁уч	-698
▁эхэл	-699
▁айл	-700
▁дав	-701
▁сү	-702
▁ух	-703
▁агч	-704
▁гай	-705
▁дарга	-706
▁мөн	-707
▁үүр	-708
▁гээ	-709
▁болов	-710
▁др	-711
▁хэв	-712
▁бага	-713
▁тулд	-714
▁доо	-715
эхүү	-716
▁иргэд	-717
▁Мин	-718
амж	-719
уур	-720
▁Хэр	-721
уун	-722
▁айдал	-723
▁үх	-724
▁ртэл	-725
▁Мөн	-726
▁хэрхэ	-727
▁өнгөр	-728
ли	-729
▁үүхэд	-730
лоо	-731
▁Миний	-732
▁өвхөн	-733
▁аз	-734
▁эсвэл	-735
▁зал	-736
▁аанд	-737
▁бари	-738
▁ард	-739
▁оролц	-740
▁тийм	-741
▁a	-742
▁эхл	-743
ээж	-744
▁дэм	-745
▁албан	-746
ож	-747
▁ри	-748
адад	-749
▁маан	-750
▁таны	-751
▁дахь	-752
▁ца	-753
▁урхан	-754
▁o	-755
▁ганц	-756
▁уллаг	-757
▁v	-758
▁Ерөнх	-759
▁эрг	-760
▁маань	-761
▁байдл	-762
▁хор	-763
▁охи	-764
▁өөс	-765
▁Тэд	-766
▁тохио	-767
эргэ	-768
▁ээг	-769
▁дахин	-770
▁эгээд	-771
▁эмэг	-772
оос	-773
▁манай	-774
▁учр	-775
▁гур	-776
▁үйлдв	-777
▁ос	-778
ирх	-779
▁оос	-780
▁наас	-781
▁ув	-782
▁бэл	-783
ос	-784
▁машин	-785
▁ме	-786
▁хой	-787
хайн	-788
▁лийн	-789
элт	-790
▁маг	-791
ино	-792
зээ	-793
▁ирсэн	-794
▁далда	-795
то	-796
▁Р	-797
▁дол	-798
▁гол	-799
лэг	-800
▁уг	-801
▁ана	-802
▁хамт	-803
▁сургу	-804
ян	-805
нх	-806
ус	-807
▁нц	-808
▁мгаа	-809
▁мгаал	-810
▁үзүүл	-811
▁агд	-812
▁A	-813
▁үй	-814
иа	-815
▁гэнэ	-816
▁хууль	-817
▁ла	-818
▁лсан	-819
▁нирх	-820
▁Манай	-821
▁үргэл	-822
▁Ий	-823
▁итгэ	-824
▁рд	-825
▁чух	-826
▁сонс	-827
▁лоо	-828
▁Тан	-829
▁чухал	-830
▁тэм	-831
▁дугаа	-832
▁Ийм	-833
▁эц	-834
▁тур	-835
▁аараа	-836
▁дг	-837
гө	-838
тад	-839
▁бүгд	-840
▁из	-841
▁дунд	-842
▁чууд	-843
▁анхаа	-844
эрг	-845
чид	-846
▁аль	-847
▁рө	-848
▁хөд	-849
▁шийдв	-850
▁жүүл	-851
▁мөр	-852
▁гу	-853
▁яг	-854
▁эрлэ	-855
▁чиг	-856
▁Өөр	-857
▁В	-858
▁C	-859
▁УИ	-860
▁өөрөө	-861
не	-862
▁ирэх	-863
▁олг	-864
▁хувь	-865
▁ханд	-866
▁чүүд	-867
▁шу	-868
▁P	-869
тэ	-870
▁хийсэ	-871
▁ном	-872
▁хөг	-873
▁тэн	-874
▁өндөр	-875
▁ач	-876
▁учир	-877
▁гад	-878
▁ээрээ	-879
▁дот	-880
▁хойш	-881
▁m	-882
▁биз	-883
▁авсан	-884
▁ханга	-885
тр	-886
▁сайд	-887
▁зах	-888
▁эз	-889
▁лб	-890
▁го	-891
▁хэсэг	-892
▁хээр	-893
▁хэзээ	-894
▁ахад	-895
▁олох	-896
▁Өнөө	-897
▁хамаа	-898
▁өлөв	-899
▁зо	-900
▁зарим	-901
▁Хэрэв	-902
▁жл	-903
▁ов	-904
▁оод	-905
▁лбар	-906
▁мэт	-907
▁УИХ	-908
▁цу	-909
▁орж	-910
▁үч	-911
ьц	-912
▁залуу	-913
▁хариу	-914
▁чан	-915
▁хүргэ	-916
▁хот	-917
▁бусад	-918
▁ээж	-919
гай	-920
▁му	-921
▁амжи	-922
▁уулз	-923
▁айм	-924
▁гарч	-925
▁байв	-926
▁бие	-927
▁Хо	-928
▁дор	-929
▁Бү	-930
▁уур	-931
▁өлб	-932
▁Нэг	-933
▁өлбөр	-934
өлт	-935
лээ	-936
▁ээгүй	-937
▁бодож	-938
▁ож	-939
▁өгөх	-940
аал	-941
▁үгээр	-942
чл	-943
▁те	-944
▁лтай	-945
жл	-946
▁АНУ	-947
▁хээ	-948
▁сүүл	-949
▁T	-950
▁гоор	-951
▁ани	-952
▁ви	-953
ирд	-954
▁ом	-955
▁ули	-956
▁лан	-957
▁надад	-958
▁бүтээ	-959
жиг	-960
▁_	-961
▁уули	-962
▁яаж	-963
▁Чи	-964
▁олом	-965
▁дуус	-966
▁Ф	-967
имт	-968
▁огтоо	-969
▁инг	-970
▁зам	-971
▁оломж	-972
▁үйлчи	-973
▁нууд	-974
▁эдний	-975
▁эрэг	-976
▁эрээр	-977
▁өрө	-978
▁явуул	-979
▁n	-980
▁шийд	-981
▁сая	-982
айн	-983
▁зураг	-984
▁эний	-985
▁амьда	-986
▁хон	-987
▁тгэ	-988
▁кино	-989
▁шалга	-990
▁хур	-991
▁ли	-992
▁олж	-993
чим	-994
▁турш	-995
▁Түү	-996
▁бур	-997
▁чанар	-998
▁ъ	-999
▁аат	-1000
эвч	-1001
▁тавь	-1002
цоо	-1003
▁ухайн	-1004
лог	-1005
▁намай	-1006
▁t	-1007
▁дүр	-1008
▁амь	-1009
▁сны	-1010
гээ	-1011
▁өдр	-1012
▁айхад	-1013
▁B	-1014
▁олго	-1015
▁охоор	-1016
▁арил	-1017
▁удирд	-1018
▁олб	-1019
▁Хя	-1020
▁тави	-1021
▁лтэй	-1022
▁лдол	-1023
▁охин	-1024
цө	-1025
▁гал	-1026
▁нэмэ	-1027
▁Хятад	-1028
▁нөлөө	-1029
▁Ма	-1030
▁мар	-1031
▁хэлж	-1032
▁I	-1033
▁дөө	-1034
▁өрөө	-1035
▁b	-1036
▁түүх	-1037
▁ргал	-1038
▁угаа	-1039
▁чам	-1040
▁Зас	-1041
▁муу	-1042
▁отой	-1043
▁лч	-1044
▁яах	-1045
▁явж	-1046
▁зориу	-1047
те	-1048
▁эргэ	-1049
▁үгүй	-1050
▁дэхүү	-1051
▁ян	-1052
▁Засг	-1053
▁ажлын	-1054
лон	-1055
▁өгс	-1056
▁адил	-1057
сд	-1058
▁дэв	-1059
▁лэх	-1060
▁нөө	-1061
▁зай	-1062
▁суур	-1063
▁асг	-1064
▁хөдөл	-1065
▁Таны	-1066
шин	-1067
▁шалтг	-1068
▁N	-1069
▁магад	-1070
▁элхий	-1071
▁вал	-1072
▁мэргэ	-1073
▁алга	-1074
▁рил	-1075
▁анги	-1076
этэл	-1077
▁Гэтэл	-1078
▁ье	-1079
▁мал	-1080
▁Тэг	-1081
▁эгч	-1082
▁илэр	-1083
▁газры	-1084
▁иг	-1085
▁тээ	-1086
▁мэнд	-1087
▁найз	-1088
▁аримт	-1089
▁үндэс	-1090
▁эмдэг	-1091
▁олдог	-1092
▁буруу	-1093
▁сонгу	-1094
таг	-1095
▁Ха	-1096
▁хэд	-1097
▁өвш	-1098
▁төрл	-1099
тер	-1100
▁r	-1101
▁олоод	-1102
▁Их	-1103
▁зу	-1104
нес	-1105
▁длыг	-1106
охир	-1107
▁ргаа	-1108
ит	-1109
▁рах	-1110
▁лсын	-1111
▁явах	-1112
▁дын	-1113
▁өвшө	-1114
▁үтээ	-1115
▁дотор	-1116
▁изнес	-1117
▁үүс	-1118
▁анилц	-1119
араа	-1120
▁D	-1121
▁нөхцө	-1122
▁рөнгө	-1123
▁гү	-1124
▁нуу	-1125
▁Бат	-1126
▁вэл	-1127
луу	-1128
▁хийл	-1129
▁өөрсд	-1130
АН	-1131
▁бүрэн	-1132
▁аюу	-1133
▁судал	-1134
▁мэдэ	-1135
▁эрүүл	-1136
▁аюул	-1137
▁үсгүй	-1138
▁үлээн	-1139
▁арай	-1140
▁риу	-1141
▁цаа	-1142
элц	-1143
▁элэлц	-1144
▁ирж	-1145
▁гурва	-1146
▁аатар	-1147
жил	-1148
▁c	-1149
on	-1150
▁олгон	-1151
▁;	-1152
▁хайр	-1153
▁эгвэл	-1154
▁аарай	-1155
▁хэлэх	-1156
▁эдийн	-1157
▁сл	-1158
▁асан	-1159
яа	-1160
▁лэгч	-1161
▁асаг	-1162
сөл	-1163
▁харж	-1164
ут	-1165
▁өгсөн	-1166
▁айвал	-1167
▁сол	-1168
▁үеийн	-1169
▁үм	-1170
ван	-1171
▁*	-1172
▁итг	-1173
▁G	-1174
▁цо	-1175
▁гоо	-1176
▁олов	-1177
▁араа	-1178
цаа	-1179
▁Өм	-1180
▁охион	-1181
▁хоор	-1182
▁жуул	-1183
▁үтээг	-1184
шээ	-1185
▁Ямар	-1186
▁урд	-1187
▁буюу	-1188
▁H	-1189
▁төн	-1190
▁үлд	-1191
▁айн	-1192
▁про	-1193
▁хүрээ	-1194
▁гарах	-1195
▁өхө	-1196
▁цэ	-1197
▁дуул	-1198
▁лөгөө	-1199
▁гр	-1200
▁танд	-1201
▁Гэвч	-1202
▁эхэд	-1203
▁эдээж	-1204
▁мт	-1205
▁рш	-1206
▁Хүн	-1207
▁лэн	-1208
▁долоо	-1209
▁аав	-1210
▁амар	-1211
▁маар	-1212
▁Тэгэх	-1213
▁гаруй	-1214
▁орох	-1215
▁хоол	-1216
▁Инг	-1217
▁ухаан	-1218
чиж	-1219
өгөө	-1220
▁нутаг	-1221
▁нутг	-1222
▁харин	-1223
▁зэр	-1224
▁F	-1225
▁эрв	-1226
▁зэрэг	-1227
▁оч	-1228
▁ичээл	-1229
▁нү	-1230
▁нхөө	-1231
▁лын	-1232
▁адаг	-1233
▁Оро	-1234
нт	-1235
▁l	-1236
▁даад	-1237
▁оллоо	-1238
▁хүлээ	-1239
▁хооро	-1240
▁бүү	-1241
▁уудыг	-1242
▁Олон	-1243
▁Орос	-1244
▁зохи	-1245
▁ойр	-1246
in	-1247
ar	-1248
энх	-1249
▁үнэн	-1250
▁гаан	-1251
▁улсад	-1252
▁мян	-1253
▁ни	-1254
▁тат	-1255
▁бээр	-1256
▁Ар	-1257
▁тн	-1258
▁төв	-1259
▁уль	-1260
▁ярилц	-1261
▁минут	-1262
▁нирхо	-1263
▁ингэж	-1264
▁олжээ	-1265
▁арла	-1266
мж	-1267
▁анк	-1268
▁олбоо	-1269
▁мянга	-1270
▁Ю	-1271
▁сп	-1272
▁оловч	-1273
▁олтой	-1274
▁дэмж	-1275
▁[	-1276
▁йлбар	-1277
▁20	-1278
▁цэв	-1279
хаа	-1280
▁гэвэл	-1281
▁чадва	-1282
▁лө	-1283
▁вс	-1284
▁явдал	-1285
▁глоо	-1286
▁аасаа	-1287
▁глоом	-1288
ца	-1289
▁дүн	-1290
▁w	-1291
▁тга	-1292
▁дамж	-1293
▁төл	-1294
нөх	-1295
▁хэц	-1296
▁зөвлө	-1297
дө	-1298
▁ерөнх	-1299
▁g	-1300
▁өөд	-1301
▁эрвээ	-1302
▁Ул	-1303
▁рүү	-1304
▁батал	-1305
▁гэл	-1306
▁гэм	-1307
▁авна	-1308
▁сард	-1309
даа	-1310
▁тогт	-1311
▁шууд	-1312
or	-1313
▁барь	-1314
▁R	-1315
▁үзэх	-1316
▁хөт	-1317
▁Жи	-1318
▁Энх	-1319
▁уш	-1320
▁Зар	-1321
▁сийн	-1322
▁сайт	-1323
▁Хам	-1324
▁сал	-1325
▁өгч	-1326
▁ярьж	-1327
▁хэцүү	-1328
уулг	-1329
▁Уг	-1330
▁er	-1331
▁гчид	-1332
▁члөлт	-1333
▁нгээд	-1334
▁рл	-1335
an	-1336
▁хгүй	-1337
▁гдсэн	-1338
лөө	-1339
▁Хамг	-1340
▁ъя	-1341
▁хэт	-1342
▁хний	-1343
▁дагуу	-1344
▁эргүү	-1345
▁агвар	-1346
▁өрсөн	-1347
▁хэрг	-1348
▁мер	-1349
▁Зарим	-1350
▁тохир	-1351
▁не	-1352
▁гайха	-1353
▁унш	-1354
▁дгал	-1355
▁харьц	-1356
▁#	-1357
▁E	-1358
▁эрч	-1359
▁авар	-1360
▁шат	-1361
▁нээ	-1362
▁эдий	-1363
▁Дараа	-1364
нуу	-1365
▁алх	-1366
▁гэхэд	-1367
▁лийг	-1368
рэг	-1369
▁лгүй	-1370
▁саар	-1371
▁цах	-1372
▁араах	-1373
▁гүйцэ	-1374
орт	-1375
бө	-1376
▁лттай	-1377
▁]	-1378
▁лах	-1379
▁өргө	-1380
▁дө	-1381
сгал	-1382
▁чиглэ	-1383
▁Эр	-1384
▁нүүр	-1385
▁гт	-1386
▁нутги	-1387
▁p	-1388
рэ	-1389
лу	-1390
▁зохио	-1391
▁Ху	-1392
▁алда	-1393
▁эгд	-1394
▁L	-1395
▁зүйлс	-1396
▁хороо	-1397
▁ле	-1398
▁гаад	-1399
ба	-1400
▁ээсээ	-1401
▁дага	-1402
▁анхны	-1403
▁Үнэ	-1404
▁Ев	-1405
▁үлээж	-1406
▁гэв	-1407
▁төө	-1408
▁мжгүй	-1409
лага	-1410
▁зов	-1411
▁ажилд	-1412
ул	-1413
роп	-1414
▁мерик	-1415
▁идэнд	-1416
▁жаа	-1417
Би	-1418
▁унши	-1419
▁оно	-1420
▁хөл	-1421
▁айжээ	-1422
▁W	-1423
▁багш	-1424
▁дэмжи	-1425
▁аавал	-1426
▁Бүх	-1427
▁эсрэг	-1428
▁алын	-1429
иал	-1430
▁цааш	-1431
▁руул	-1432
▁гасан	-1433
▁гдсан	-1434
▁дгээр	-1435
▁элб	-1436
▁жа	-1437
▁ран	-1438
▁им	-1439
дөг	-1440
▁отын	-1441
▁дэл	-1442
▁шил	-1443
er	-1444
▁зү	-1445
▁ахир	-1446
▁ураг	-1447
▁ярих	-1448
▁эмч	-1449
▁лгой	-1450
▁цэц	-1451
▁мо	-1452
▁сис	-1453
▁үзэж	-1454
▁утлуу	-1455
▁Үнд	-1456
▁үртгэ	-1457
▁увийн	-1458
▁унт	-1459
▁бүхэн	-1460
▁элтгэ	-1461
▁дээд	-1462
нэр	-1463
▁луул	-1464
чиг	-1465
▁систе	-1466
▁чөлөө	-1467
▁уулж	-1468
▁лдолд	-1469
▁кс	-1470
▁снээр	-1471
▁дээрх	-1472
▁бэр	-1473
▁ульд	-1474
▁орны	-1475
▁шүүх	-1476
▁өрөл	-1477
▁олохы	-1478
▁ик	-1479
▁өдрий	-1480
▁ре	-1481
▁хүчин	-1482
▁рагд	-1483
▁Ний	-1484
▁ээрэй	-1485
▁ахаар	-1486
инэ	-1487
▁олчих	-1488
▁аал	-1489
рөг	-1490
▁Хүүхд	-1491
▁өгрөг	-1492
▁дөг	-1493
▁Са	-1494
▁онго	-1495
▁уна	-1496
▁се	-1497
▁За	-1498
▁Шинэ	-1499
▁ес	-1500
▁харах	-1501
▁инээ	-1502
▁орчин	-1503
▁тусга	-1504
▁рдэнэ	-1505
▁шгүй	-1506
▁бараг	-1507
▁ср	-1508
до	-1509
▁шинж	-1510
▁үмэн	-1511
▁оё	-1512
▁үрх	-1513
▁зург	-1514
▁тань	-1515
▁лдэг	-1516
ма	-1517
▁u	-1518
▁ргалт	-1519
▁зог	-1520
▁Өөрий	-1521
▁МАН	-1522
пон	-1523
▁элэн	-1524
▁хад	-1525
▁игч	-1526
▁төнц	-1527
▁Европ	-1528
▁ган	-1529
▁лого	-1530
▁нө	-1531
▁урдан	-1532
▁зогс	-1533
▁гадна	-1534
▁ста	-1535
▁Учир	-1536
▁Япон	-1537
▁эй	-1538
▁эсэх	-1539
▁аял	-1540
▁уудас	-1541
▁рь	-1542
▁үд	-1543
▁рай	-1544
▁рөө	-1545
▁тэг	-1546
▁орсон	-1547
oo	-1548
▁охир	-1549
▁Улс	-1550
▁лгэ	-1551
▁өрв	-1552
▁гө	-1553
▁ра	-1554
▁цагт	-1555
чээ	-1556
▁лүүл	-1557
▁амьт	-1558
▁нэв	-1559
▁йртай	-1560
▁Үүний	-1561
▁амын	-1562
▁аймг	-1563
▁нс	-1564
▁уучин	-1565
▁архи	-1566
▁хичээ	-1567
▁нэхүү	-1568
▁бич	-1569
▁дэх	-1570
▁бүхий	-1571
▁чадна	-1572
▁30	-1573
▁иргэн	-1574
▁лэж	-1575
▁оноос	-1576
▁амай	-1577
▁·	-1578
▁буур	-1579
▁яриа	-1580
▁дүү	-1581
▁өж	-1582
▁грам	-1583
▁рэг	-1584
▁Ам	-1585
▁алтай	-1586
▁рсан	-1587
▁гөөн	-1588
▁вол	-1589
▁ирээд	-1590
ага	-1591
▁хаана	-1592
▁үүрэг	-1593
▁амайг	-1594
алд	-1595
▁нөхөр	-1596
▁ичиг	-1597
▁дрийн	-1598
▁элбэр	-1599
▁ис	-1600
▁оог	-1601
▁мээр	-1602
▁эхний	-1603
▁сныг	-1604
▁лтой	-1605
▁ээв	-1606
st	-1607
лэх	-1608
▁ралд	-1609
▁аваад	-1610
▁ушаал	-1611
▁улам	-1612
▁ак	-1613
▁рийн	-1614
▁тон	-1615
▁хэвлэ	-1616
▁Да	-1617
▁гуй	-1618
▁утас	-1619
▁вср	-1620
▁рхойл	-1621
▁арь	-1622
этг	-1623
le	-1624
▁лга	-1625
▁нис	-1626
▁онгос	-1627
▁мент	-1628
▁гоё	-1629
▁янз	-1630
▁Ту	-1631
▁хөгжи	-1632
▁рм	-1633
▁зайл	-1634
▁эрс	-1635
▁нарын	-1636
▁гэрээ	-1637
▁Ард	-1638
лах	-1639
▁оронд	-1640
▁цэвэр	-1641
▁ва	-1642
▁ихэнх	-1643
илт	-1644
at	-1645
▁өсл	-1646
▁орнуу	-1647
▁цагда	-1648
▁зүү	-1649
▁рой	-1650
▁жижиг	-1651
▁логи	-1652
▁итгий	-1653
▁спорт	-1654
▁Оюу	-1655
▁нэт	-1656
▁хэсг	-1657
▁өн	-1658
▁жаг	-1659
▁огс	-1660
▁ллийг	-1661
▁рдаг	-1662
▁орхи	-1663
▁цуг	-1664
▁хүссэ	-1665
▁таа	-1666
▁авто	-1667
▁батла	-1668
▁нийл	-1669
▁сс	-1670
▁Хэн	-1671
▁хуваа	-1672
▁бодит	-1673
▁найд	-1674
▁ндээ	-1675
▁'	-1676
▁агүй	-1677
▁тун	-1678
▁ааны	-1679
▁нууц	-1680
▁Өмнө	-1681
ен	-1682
▁ичсэн	-1683
▁Эм	-1684
▁аяг	-1685
▁дан	-1686
▁нөгөө	-1687
▁Гэр	-1688
▁vv	-1689
▁урт	-1690
хно	-1691
▁ажлыг	-1692
сл	-1693
▁анай	-1694
▁риул	-1695
▁улаан	-1696
▁этгэ	-1697
▁атвар	-1698
ль	-1699
▁йрла	-1700
▁O	-1701
▁in	-1702
▁өрөөр	-1703
ac	-1704
▁хөө	-1705
▁алдаа	-1706
▁12	-1707
▁Ир	-1708
▁•	-1709
▁нга	-1710
▁тэнд	-1711
▁тээл	-1712
▁элг	-1713
▁соё	-1714
▁өнгө	-1715
▁тг	-1716
▁сээр	-1717
▁арч	-1718
▁эгүй	-1719
▁ль	-1720
▁лол	-1721
▁оюу	-1722
хү	-1723
▁сруул	-1724
▁ллийн	-1725
▁мс	-1726
▁урьд	-1727
▁зарла	-1728
re	-1729
▁d	-1730
▁отоод	-1731
▁хая	-1732
▁хүсч	-1733
▁гдэл	-1734
▁суури	-1735
▁санхү	-1736
▁зүйн	-1737
▁йгээд	-1738
▁чээ	-1739
▁өгнө	-1740
▁дорж	-1741
▁элт	-1742
▁уран	-1743
▁on	-1744
▁ахуй	-1745
▁илцаа	-1746
▁рилго	-1747
▁чамай	-1748
▁үт	-1749
▁лдвар	-1750
▁увц	-1751
▁түүнд	-1752
▁Яг	-1753
▁оогүй	-1754
▁лиг	-1755
▁үүсгэ	-1756
▁сэд	-1757
арга	-1758
▁Бас	-1759
▁ааш	-1760
▁дээш	-1761
▁үеэр	-1762
арт	-1763
▁чил	-1764
▁аасан	-1765
▁сум	-1766
▁айхыг	-1767
▁өгүүл	-1768
▁явц	-1769
▁явдаг	-1770
▁өрвөн	-1771
▁өглөө	-1772
▁лц	-1773
▁али	-1774
▁сийг	-1775
▁ажлаа	-1776
▁тооц	-1777
ти	-1778
▁йм	-1779
▁бүл	-1780
▁урхай	-1781
▁андаа	-1782
▁ичлэг	-1783
▁ро	-1784
▁нэвтр	-1785
▁огсоо	-1786
▁гчд	-1787
▁хям	-1788
▁увцас	-1789
▁соли	-1790
▁J	-1791
▁ск	-1792
▁гж	-1793
нэл	-1794
▁нхэнэ	-1795
▁удаан	-1796
▁хуу	-1797
▁намын	-1798
▁бүли	-1799
▁рис	-1800
▁авдаг	-1801
зга	-1802
ou	-1803
▁гдаж	-1804
▁гэлээ	-1805
▁зохиц	-1806
▁нл	-1807
ды	-1808
▁эрт	-1809
▁бо	-1810
▁эхнэр	-1811
▁Хоёр	-1812
▁хяна	-1813
▁өмнөх	-1814
▁зуун	-1815
▁алуу	-1816
▁сонин	-1817
▁үйлчл	-1818
▁всрол	-1819
▁өрөмж	-1820
▁лав	-1821
▁жилд	-1822
▁даж	-1823
▁є	-1824
▁ахыг	-1825
▁цар	-1826
▁дүүр	-1827
▁аалт	-1828
▁лаас	-1829
ум	-1830
▁сэргэ	-1831
▁гурав	-1832
▁үндсэ	-1833
▁сайж	-1834
▁жишээ	-1835
▁мэднэ	-1836
▁жагса	-1837
дий	-1838
▁Ор	-1839
▁уй	-1840
▁алба	-1841
▁гааны	-1842
▁лим	-1843
▁f	-1844
▁мон	-1845
▁тэмц	-1846
▁өмс	-1847
▁арилц	-1848
▁11	-1849
▁15	-1850
▁Га	-1851
▁ко	-1852
▁нтэй	-1853
▁нэрлэ	-1854
▁гдох	-1855
▁mn	-1856
▁анийн	-1857
▁ынхаа	-1858
▁эхгүй	-1859
▁орчим	-1860
▁Сол	-1861
▁100	-1862
▁энгэр	-1863
▁агдах	-1864
▁жлийн	-1865
▁техно	-1866
▁жү	-1867
▁ня	-1868
▁суурь	-1869
▁унд	-1870
▁члөг	-1871
▁таныг	-1872
▁төсөл	-1873
▁хязга	-1874
▁нгу	-1875
▁Гэ	-1876
▁нүүд	-1877
▁мийн	-1878
▁сэтг	-1879
▁нийгм	-1880
▁лз	-1881
▁лон	-1882
▁лээр	-1883
▁бүс	-1884
▁бодох	-1885
▁нээл	-1886
▁утга	-1887
▁зарц	-1888
▁Y	-1889
om	-1890
▁жин	-1891
▁яла	-1892
▁дад	-1893
▁Юу	-1894
▁албай	-1895
эмш	-1896
▁жарга	-1897
▁жур	-1898
▁нэгд	-1899
▁нцг	-1900
▁элгэр	-1901
▁алагд	-1902
▁хийнэ	-1903
▁эцэг	-1904
▁ью	-1905
▁дамжу	-1906
▁ралц	-1907
▁айнга	-1908
▁рвал	-1909
▁ээлий	-1910
▁вр	-1911
▁соёл	-1912
▁мат	-1913
▁рам	-1914
▁суд	-1915
▁хл	-1916
▁ргааш	-1917
▁ьсгал	-1918
▁лыг	-1919
▁дсэн	-1920
▁барьж	-1921
▁мын	-1922
▁наад	-1923
▁судла	-1924
▁цэрг	-1925
▁Өнгөр	-1926
▁50	-1927
▁эзэмш	-1928
▁өвч	-1929
▁захи	-1930
▁айлга	-1931
▁лгалт	-1932
Та	-1933
▁өвд	-1934
▁оли	-1935
▁>	-1936
▁U	-1937
члэ	-1938
▁вид	-1939
▁арам	-1940
▁Нүүр	-1941
▁йх	-1942
▁лаж	-1943
▁орно	-1944
▁хүрэх	-1945
▁лаан	-1946
▁урга	-1947
▁чиний	-1948
▁улалт	-1949
ео	-1950
▁h	-1951
▁ен	-1952
▁очиж	-1953
▁улийн	-1954
▁эгж	-1955
▁огүй	-1956
▁гом	-1957
▁шаг	-1958
▁члөгд	-1959
▁хат	-1960
▁нээлт	-1961
al	-1962
▁ялгаа	-1963
▁аниу	-1964
▁сууж	-1965
зо	-1966
▁Баяр	-1967
▁аяа	-1968
▁Сайн	-1969
▁ааж	-1970
▁хил	-1971
▁ээдүй	-1972
▁үгийн	-1973
мүүс	-1974
▁үмүүс	-1975
▁өмбө	-1976
хн	-1977
▁үйлдэ	-1978
▁өрч	-1979
▁аруун	-1980
▁улагд	-1981
▁лтын	-1982
▁лалаа	-1983
▁ахгүй	-1984
▁ерм	-1985
▁гэрэл	-1986
▁гдэж	-1987
▁чамд	-1988
▁лбарт	-1989
▁жо	-1990
▁Энд	-1991
▁өрг	-1992
▁бүлэг	-1993
▁тэмцэ	-1994
▁лаанб	-1995
▁вар	-1996
▁өөсөө	-1997
▁хыг	-1998
▁эрхүү	-1999
▁улгай	-2000
▁дөл	-2001
▁нэгүй	-2002
▁эмнэл	-2003
▁тов	-2004
▁үнг	-2005
▁цө	-2006
▁цлага	-2007
▁арт	-2008
▁шагна	-2009
▁ноос	-2010
▁тата	-2011
▁усгай	-2012
▁вч	-2013
▁дэлгэ	-2014
▁Хүний	-2015
▁хөгжл	-2016
▁яа	-2017
▁ижил	-2018
▁энгүй	-2019
▁ууч	-2020
▁гдах	-2021
▁ажээ	-2022
▁лгын	-2023
▁нөөц	-2024
▁өгдөг	-2025
▁хүрч	-2026
▁барих	-2027
▁амра	-2028
▁хаар	-2029
▁Тус	-2030
▁таван	-2031
▁эрб	-2032
▁тнууд	-2033
▁рна	-2034
▁эрбум	-2035
▁гаас	-2036
▁энги	-2037
эний	-2038
▁вир	-2039
▁лох	-2040
▁V	-2041
▁өч	-2042
▁йнх	-2043
▁уст	-2044
▁хнийг	-2045
▁яваа	-2046
▁ооцоо	-2047
▁шинжи	-2048
▁дууд	-2049
▁үүлэг	-2050
▁уулга	-2051
▁шуул	-2052
▁гэжээ	-2053
nt	-2054
▁бор	-2055
▁риг	-2056
▁цал	-2057
▁хаан	-2058
▁хураа	-2059
▁ийгэм	-2060
▁төрөл	-2061
▁Сүүл	-2062
▁нарий	-2063
▁гл	-2064
▁төс	-2065
▁ариу	-2066
▁ка	-2067
▁лөө	-2068
▁зогсо	-2069
▁тх	-2070
▁аян	-2071
▁оролд	-2072
▁ериал	-2073
▁угаар	-2074
▁уулах	-2075
▁Хө	-2076
▁гн	-2077
▁улг	-2078
▁хоо	-2079
▁зорил	-2080
▁аварг	-2081
▁нз	-2082
▁гжүүл	-2083
▁бэрх	-2084
▁юмаа	-2085
▁сайжр	-2086
▁бичих	-2087
▁рьд	-2088
▁арамс	-2089
▁онгоц	-2090
▁утг	-2091
▁хын	-2092
▁олцоо	-2093
▁тхэг	-2094
▁рж	-2095
▁Жишээ	-2096
▁рга	-2097
▁алуус	-2098
▁өргөн	-2099
▁мтр	-2100
▁гараг	-2101
▁хаг	-2102
▁ндаа	-2103
▁мтран	-2104
▁услах	-2105
▁ргө	-2106
▁сэл	-2107
▁найр	-2108
▁үедээ	-2109
▁эээ	-2110
▁гэмт	-2111
▁явна	-2112
▁лагын	-2113
▁уух	-2114
▁ив	-2115
▁хүүх	-2116
▁эргэн	-2117
▁ОХ	-2118
▁боль	-2119
▁үүнд	-2120
▁ага	-2121
▁маа	-2122
▁Надад	-2123
▁хатуу	-2124
▁Амьд	-2125
▁өлөө	-2126
▁өрсөл	-2127
▁лтан	-2128
▁нцгой	-2129
▁зас	-2130
▁яам	-2131
▁аниуд	-2132
▁тар	-2133
ss	-2134
▁жир	-2135
▁буца	-2136
▁нэчлэ	-2137
▁гдсон	-2138
▁талы	-2139
it	-2140
▁уудад	-2141
▁лжи	-2142
▁дурд	-2143
▁өнг	-2144
маа	-2145
▁Ес	-2146
▁Цаг	-2147
▁агда	-2148
▁мр	-2149
▁тос	-2150
▁ууж	-2151
▁хотод	-2152
▁цгаа	-2153
▁эе	-2154
▁эдэнд	-2155
▁худал	-2156
▁Й	-2157
▁Мо	-2158
▁мжийг	-2159
▁цахим	-2160
▁огч	-2161
▁рэм	-2162
▁ийнх	-2163
▁ачаа	-2164
▁лгүүр	-2165
▁тэнэг	-2166
▁илбар	-2167
▁энтэй	-2168
▁ээрэм	-2169
▁Бус	-2170
▁тусла	-2171
▁асгал	-2172
▁үчтэй	-2173
▁хүч	-2174
▁давха	-2175
▁мах	-2176
гч	-2177
из	-2178
▁Эх	-2179
▁тр	-2180
▁гайх	-2181
▁үзэл	-2182
▁бя	-2183
▁бал	-2184
▁рын	-2185
▁ахын	-2186
▁сууц	-2187
▁хоёры	-2188
▁Хэд	-2189
▁шү	-2190
члэн	-2191
▁Бусад	-2192
▁нчлэн	-2193
▁дут	-2194
▁одол	-2195
▁зан	-2196
▁ндарт	-2197
▁эрчим	-2198
▁шор	-2199
▁тор	-2200
▁лбал	-2201
▁y	-2202
▁сүл	-2203
▁монго	-2204
▁наа	-2205
▁өдлө	-2206
▁уруу	-2207
▁Ав	-2208
▁арилг	-2209
▁нлайн	-2210
▁ялбар	-2211
▁нөөс	-2212
▁үтэн	-2213
▁өрөх	-2214
am	-2215
▁чд	-2216
▁амж	-2217
▁ерман	-2218
▁өрт	-2219
▁эгэн	-2220
▁эсгэл	-2221
▁ашигт	-2222
▁үсэлт	-2223
▁сэ	-2224
▁аач	-2225
эвх	-2226
▁идэвх	-2227
▁үүдэд	-2228
▁татаж	-2229
▁эхлэх	-2230
ay	-2231
▁өнх	-2232
▁Ши	-2233
▁эрд	-2234
▁аран	-2235
▁дий	-2236
▁амир	-2237
▁үнэл	-2238
▁элж	-2239
▁болд	-2240
▁олой	-2241
▁ичг	-2242
▁улга	-2243
▁нгуяа	-2244
▁үхэнд	-2245
▁Ээж	-2246
▁хим	-2247
he	-2248
▁%	-2249
▁рэх	-2250
▁хүсэ	-2251
▁бичиж	-2252
▁үрээс	-2253
яг	-2254
▁ек	-2255
▁гц	-2256
▁оноо	-2257
▁тгал	-2258
мэ	-2259
▁риулт	-2260
▁ди	-2261
▁лтыг	-2262
▁бараа	-2263
▁энх	-2264
▁дийн	-2265
▁очих	-2266
▁вирус	-2267
▁цээ	-2268
▁айрла	-2269
▁урам	-2270
▁үрүү	-2271
▁Эс	-2272
▁Мэд	-2273
▁долла	-2274
▁рхайн	-2275
▁сламж	-2276
▁төдий	-2277
▁гүүр	-2278
▁инээр	-2279
▁эдлэг	-2280
▁Эмэг	-2281
▁рхэг	-2282
▁мш	-2283
▁лэд	-2284
▁уулза	-2285
▁эрлэх	-2286
▁нж	-2287
▁мэл	-2288
▁раг	-2289
▁оол	-2290
▁улмаа	-2291
▁Аав	-2292
▁лагыг	-2293
▁айз	-2294
▁үрд	-2295
▁сав	-2296
▁лэдэг	-2297
▁гдл	-2298
▁ухаа	-2299
▁авь	-2300
▁уйл	-2301
▁бос	-2302
▁дай	-2303
▁эрсдэ	-2304
▁өвлө	-2305
▁бэлэг	-2306
▁йгал	-2307
▁товч	-2308
▁Хэрэг	-2309
▁нги	-2310
▁лаар	-2311
▁йгаль	-2312
▁сгэ	-2313
▁агаар	-2314
▁жлүүл	-2315
▁аах	-2316
▁анайд	-2317
▁чихса	-2318
▁ло	-2319
▁зөө	-2320
▁маяг	-2321
▁тгалз	-2322
▁14	-2323
▁зөр	-2324
▁алдар	-2325
▁яваад	-2326
▁айдл	-2327
ци	-2328
▁устга	-2329
▁снаар	-2330
▁нт	-2331
▁шаш	-2332
▁таар	-2333
▁Өд	-2334
▁элээд	-2335
▁цөө	-2336
▁арван	-2337
▁Па	-2338
▁стр	-2339
▁тэнц	-2340
▁хиад	-2341
▁эмэлт	-2342
▁рист	-2343
▁Үндсэ	-2344
эхэ	-2345
▁алтын	-2346
▁нох	-2347
▁там	-2348
▁яналт	-2349
▁хал	-2350
▁эцэс	-2351
▁агдаж	-2352
▁хийгд	-2353
▁айдлы	-2354
▁мэдрэ	-2355
▁айгал	-2356
▁Мө	-2357
▁лтгүй	-2358
▁ОХУ	-2359
▁бна	-2360
▁бэрхш	-2361
▁40	-2362
▁оёр	-2363
▁үүлэх	-2364
▁арг	-2365
▁мний	-2366
▁дарг	-2367
▁үхэл	-2368
▁яриад	-2369
▁чн	-2370
▁Маг	-2371
▁шөн	-2372
▁Амьдр	-2373
▁үгийг	-2374
▁гс	-2375
▁улан	-2376
▁Үндэс	-2377
▁Ингэ	-2378
▁оёрд	-2379
▁Гэсэн	-2380
▁ухам	-2381
▁хүсэл	-2382
▁үүн	-2383
▁зүтгэ	-2384
▁оох	-2385
▁амаг	-2386
▁алаа	-2387
▁рэмж	-2388
▁лчууд	-2389
▁Ne	-2390
▁лтийн	-2391
▁тогто	-2392
▁MN	-2393
▁шг	-2394
нгли	-2395
▁Англи	-2396
▁давуу	-2397
▁дрийг	-2398
▁тугай	-2399
▁ьютер	-2400
▁X	-2401
▁яар	-2402
▁ваал	-2403
гуй	-2404
▁юуг	-2405
▁видео	-2406
▁рвалж	-2407
▁Гар	-2408
▁ваалц	-2409
▁сүлжэ	-2410
▁өсөв	-2411
▁ирдэг	-2412
▁өрүүл	-2413
▁явдл	-2414
▁сонсо	-2415
игл	-2416
▁эк	-2417
▁бүтэ	-2418
▁нарт	-2419
▁K	-2420
▁Нийт	-2421
▁суух	-2422
▁логын	-2423
▁чуулг	-2424
▁хаагч	-2425
▁Со	-2426
▁зарна	-2427
▁итгэл	-2428
▁Су	-2429
▁сний	-2430
▁йнхүү	-2431
▁Хүр	-2432
▁илр	-2433
▁асал	-2434
▁гаары	-2435
▁нцлог	-2436
▁нгийн	-2437
▁унших	-2438
▁үлдээ	-2439
▁тол	-2440
▁Хүрэл	-2441
▁жааха	-2442
▁илгээ	-2443
▁туул	-2444
▁нэтэй	-2445
үс	-2446
▁ве	-2447
ана	-2448
▁орд	-2449
▁талд	-2450
▁өмөр	-2451
▁Магад	-2452
▁борлу	-2453
▁уудын	-2454
▁лөн	-2455
▁члөх	-2456
▁цалин	-2457
▁зэв	-2458
▁төсв	-2459
▁улир	-2460
▁|	-2461
▁хөгж	-2462
▁бусды	-2463
▁сурта	-2464
▁үүгээ	-2465
▁ирнэ	-2466
▁тавих	-2467
▁сурга	-2468
▁үүц	-2469
▁гнэлт	-2470
▁охиро	-2471
▁сэг	-2472
▁орт	-2473
▁лээд	-2474
▁уучла	-2475
▁x	-2476
хник	-2477
▁гарын	-2478
▁ехник	-2479
▁хайж	-2480
▁Ажл	-2481
▁олл	-2482
▁чнээн	-2483
▁мд	-2484
▁анга	-2485
▁огино	-2486
▁вь	-2487
▁өөн	-2488
▁рлог	-2489
▁Есүс	-2490
▁арах	-2491
▁оохон	-2492
▁ахуйн	-2493
▁снаас	-2494
▁амхи	-2495
▁Нөгөө	-2496
▁олгой	-2497
▁ок	-2498
▁чимэ	-2499
▁эндээ	-2500
▁мтлаг	-2501
▁алгүй	-2502
▁лөх	-2503
▁бүрт	-2504
▁өмч	-2505
▁эжээ	-2506
▁явагд	-2507
▁эмчи	-2508
▁сүх	-2509
▁Ажил	-2510
▁аван	-2511
▁Фр	-2512
▁амиа	-2513
▁болзо	-2514
▁эсэрг	-2515
▁шоро	-2516
▁урлаг	-2517
▁муж	-2518
▁мтдаа	-2519
▁иу	-2520
▁ороод	-2521
▁огц	-2522
▁цэг	-2523
▁Бүгд	-2524
▁мшиг	-2525
▁хэнд	-2526
▁эхлүү	-2527
▁лгуур	-2528
▁ортой	-2529
▁эрхлэ	-2530
▁ажигл	-2531
▁эрэгт	-2532
▁рита	-2533
ot	-2534
▁шо	-2535
▁нцло	-2536
▁шөнө	-2537
▁өгжи	-2538
▁гдүүл	-2539
▁лжүүл	-2540
▁марта	-2541
▁оороо	-2542
▁ум	-2543
▁сэрг	-2544
▁ws	-2545
▁арьс	-2546
▁идэх	-2547
▁өрөлх	-2548
ХА	-2549
▁вак	-2550
▁лцоо	-2551
▁хүчи	-2552
▁айван	-2553
▁арилд	-2554
▁өөгүй	-2555
▁блог	-2556
▁нохой	-2557
▁цээн	-2558
▁Мэдээ	-2559
▁аалга	-2560
▁интер	-2561
▁адаас	-2562
▁элийн	-2563
▁дыг	-2564
▁рлого	-2565
▁анаас	-2566
▁царай	-2567
▁заа	-2568
▁мог	-2569
▁охид	-2570
▁дэвши	-2571
▁нарыг	-2572
▁бөх	-2573
▁вшин	-2574
▁хамр	-2575
▁бодис	-2576
▁ургүй	-2577
▁це	-2578
▁лин	-2579
▁данс	-2580
▁яахав	-2581
▁хууд	-2582
▁хүсэж	-2583
▁кл	-2584
▁ахи	-2585
▁тоног	-2586
▁цэцэр	-2587
▁алуун	-2588
▁удлаа	-2589
▁арк	-2590
▁амла	-2591
▁сах	-2592
▁улуун	-2593
▁иеийн	-2594
ic	-2595
▁18	-2596
▁лаад	-2597
▁шир	-2598
▁Франц	-2599
▁тнүүд	-2600
▁цэцэг	-2601
▁дон	-2602
▁ойро	-2603
▁рс	-2604
▁над	-2605
▁эмээ	-2606
▁иел	-2607
▁инд	-2608
▁амирч	-2609
▁нүд	-2610
▁усд	-2611
▁рк	-2612
▁ань	-2613
▁аялал	-2614
▁хуудс	-2615
▁Өмнөх	-2616
il	-2617
▁нэгн	-2618
▁үлэг	-2619
▁Эрүүл	-2620
nd	-2621
▁цөөн	-2622
▁алдса	-2623
▁бүрд	-2624
▁зэрг	-2625
▁аймаг	-2626
▁ист	-2627
▁Ганц	-2628
ьцаа	-2629
▁вьцаа	-2630
▁Бага	-2631
▁нийн	-2632
▁орос	-2633
▁тайла	-2634
▁йд	-2635
▁сул	-2636
▁Ажлын	-2637
▁Нам	-2638
▁члал	-2639
▁нжл	-2640
▁нүү	-2641
▁ргэн	-2642
▁улаа	-2643
▁мп	-2644
▁шүүл	-2645
▁оршин	-2646
▁алж	-2647
▁хятад	-2648
▁вэб	-2649
▁чла	-2650
▁ахиал	-2651
▁раа	-2652
▁шуу	-2653
▁ориу	-2654
▁алтад	-2655
▁шүүмж	-2656
▁нгэ	-2657
▁угуй	-2658
▁гддаг	-2659
▁далай	-2660
▁длаар	-2661
▁оллар	-2662
ol	-2663
▁Аф	-2664
▁вөл	-2665
▁нда	-2666
▁авра	-2667
▁алхам	-2668
▁осго	-2669
▁Эсвэл	-2670
▁Ном	-2671
▁тний	-2672
▁дн	-2673
▁Ардчи	-2674
▁Сэтгэ	-2675
гэд	-2676
▁анз	-2677
▁Иргэд	-2678
▁Хууль	-2679
▁Анх	-2680
▁вор	-2681
▁Орон	-2682
▁тэгж	-2683
би	-2684
▁нгис	-2685
▁ажилч	-2686
▁мод	-2687
▁улгар	-2688
▁иний	-2689
▁рахад	-2690
▁гах	-2691
▁сэдэв	-2692
▁ion	-2693
▁лам	-2694
▁хагас	-2695
▁25	-2696
▁она	-2697
▁иелүү	-2698
▁ригло	-2699
▁өсөө	-2700
▁Өг	-2701
▁шаа	-2702
▁мөрдө	-2703
▁ёсоор	-2704
▁ламж	-2705
▁Нийсл	-2706
▁гэний	-2707
ad	-2708
тан	-2709
▁Сү	-2710
▁айнаа	-2711
▁тэ	-2712
▁13	-2713
▁хурд	-2714
▁дэд	-2715
▁оюут	-2716
▁аяхан	-2717
▁гэг	-2718
▁үжиг	-2719
▁ирлээ	-2720
▁оц	-2721
▁вшинд	-2722
▁ргийг	-2723
▁лад	-2724
▁дүнд	-2725
▁ахдаа	-2726
▁цгэ	-2727
▁эгш	-2728
▁рчим	-2729
▁рик	-2730
▁нжлэх	-2731
▁лны	-2732
▁гомдо	-2733
▁ази	-2734
▁асар	-2735
▁өдөрт	-2736
▁зочи	-2737
▁олбор	-2738
▁дүгээ	-2739
▁цахил	-2740
▁энгэ	-2741
▁гджээ	-2742
▁ялга	-2743
▁ориул	-2744
▁цуглу	-2745
▁фе	-2746
▁сэр	-2747
▁орх	-2748
▁ами	-2749
▁гши	-2750
▁арсан	-2751
en	-2752
▁ого	-2753
▁эрчүү	-2754
▁ноо	-2755
▁ход	-2756
▁вакци	-2757
▁улиар	-2758
▁амд	-2759
▁амт	-2760
▁уншиж	-2761
▁чулуу	-2762
▁эргэл	-2763
▁галан	-2764
▁роо	-2765
▁бэлд	-2766
▁дая	-2767
▁дэвш	-2768
▁алсан	-2769
▁хир	-2770
▁ндаж	-2771
▁санг	-2772
▁Өдөр	-2773
АА	-2774
▁Ка	-2775
▁илан	-2776
▁уулг	-2777
▁ээлжи	-2778
▁ап	-2779
▁дайн	-2780
▁өгсгө	-2781
▁өсөөл	-2782
▁дас	-2783
▁рсгал	-2784
▁ям	-2785
et	-2786
▁Ган	-2787
▁ндоо	-2788
▁нсний	-2789
▁мол	-2790
▁нхүү	-2791
▁хүүхэ	-2792
▁өвчин	-2793
▁24	-2794
▁үүлж	-2795
▁гавар	-2796
▁даады	-2797
▁урьдч	-2798
ur	-2799
▁рв	-2800
▁эцс	-2801
▁Го	-2802
▁лөл	-2803
▁рүүл	-2804
▁агийн	-2805
▁эрдэм	-2806
▁вөр	-2807
▁адаад	-2808
▁амаар	-2809
▁2-	-2810
▁онц	-2811
▁алив	-2812
▁үрэл	-2813
▁Хэдий	-2814
▁нот	-2815
▁чир	-2816
▁Ингэх	-2817
сн	-2818
▁илж	-2819
▁ээч	-2820
▁боли	-2821
▁чада	-2822
▁дгала	-2823
▁гш	-2824
▁ing	-2825
▁лев	-2826
▁рио	-2827
▁даяар	-2828
▁Өмнөд	-2829
▁уулан	-2830
▁хаж	-2831
▁рлаа	-2832
▁айшин	-2833
▁буцаа	-2834
▁нш	-2835
▁шө	-2836
▁жуулч	-2837
▁Ихэнх	-2838
▁эргэж	-2839
▁ти	-2840
▁хог	-2841
▁ашаа	-2842
▁нуул	-2843
▁тэл	-2844
▁агуу	-2845
▁эзэн	-2846
▁ынхан	-2847
▁элний	-2848
el	-2849
▁дүүрэ	-2850
▁хөдөө	-2851
▁гээс	-2852
▁Ингэж	-2853
▁эхэлж	-2854
▁воо	-2855
▁мн	-2856
▁эгчд	-2857
▁томил	-2858
▁үйтэй	-2859
▁вх	-2860
▁нийц	-2861
▁рдын	-2862
▁17	-2863
▁нгах	-2864
▁ардал	-2865
▁жилт	-2866
▁дүрэм	-2867
▁тгээд	-2868
ри	-2869
▁бүлг	-2870
▁дний	-2871
▁левиз	-2872
▁усдад	-2873
▁эгээр	-2874
▁16	-2875
▁No	-2876
▁Аль	-2877
▁эвийн	-2878
оло	-2879
▁лсэн	-2880
▁тойр	-2881
▁аашаа	-2882
▁луу	-2883
▁уралд	-2884
ка	-2885
▁оош	-2886
▁хав	-2887
▁өрнө	-2888
▁ъё	-2889
▁Мөнгө	-2890
▁аахан	-2891
▁мба	-2892
▁хүүг	-2893
▁эхийн	-2894
илг	-2895
▁Ме	-2896
▁орчи	-2897
▁оон	-2898
▁үйлдл	-2899
▁мөрөө	-2900
▁үрүүл	-2901
▁агц	-2902
▁уян	-2903
▁уриа	-2904
▁хямд	-2905
▁зориг	-2906
▁урагч	-2907
▁үгээс	-2908
▁өгжим	-2909
▁нал	-2910
▁рөв	-2911
▁багт	-2912
▁эрхий	-2913
▁сг	-2914
▁ардчи	-2915
▁гарна	-2916
▁лгээг	-2917
▁хийгэ	-2918
▁Си	-2919
▁ийх	-2920
▁дааны	-2921
▁өсөлт	-2922
▁ит	-2923
▁рн	-2924
▁сра	-2925
▁тгө	-2926
▁айхан	-2927
▁al	-2928
▁ате	-2929
▁тут	-2930
▁цохи	-2931
▁нийсл	-2932
▁юутан	-2933
▁шар	-2934
▁k	-2935
▁дууг	-2936
▁лимп	-2937
▁тэтгэ	-2938
▁ча	-2939
▁неж	-2940
▁омп	-2941
▁риуц	-2942
▁бүт	-2943
▁орилт	-2944
▁Шу	-2945
▁Үз	-2946
▁хлы	-2947
▁эхлэн	-2948
▁днээс	-2949
▁түүхэ	-2950
▁Өглөө	-2951
▁март	-2952
▁тани	-2953
▁төлөх	-2954
▁АХ	-2955
▁гөл	-2956
▁санд	-2957
▁этгэв	-2958
▁&	-2959
▁Се	-2960
▁огд	-2961
▁снаа	-2962
▁мөч	-2963
▁Дээр	-2964
▁Танд	-2965
▁лчил	-2966
▁длага	-2967
▁нүүрс	-2968
▁эгт	-2969
▁аваа	-2970
▁дагу	-2971
▁Зал	-2972
▁виар	-2973
us	-2974
▁лм	-2975
▁зун	-2976
▁йруул	-2977
▁хувий	-2978
▁төрх	-2979
▁атан	-2980
▁хийн	-2981
▁ихэвч	-2982
▁нэгдү	-2983
▁60	-2984
▁түр	-2985
▁хиж	-2986
▁ршилт	-2987
▁хохир	-2988
▁азар	-2989
▁багас	-2990
▁стра	-2991
оон	-2992
▁Оюун	-2993
▁гдэх	-2994
▁ингэ	-2995
▁Залуу	-2996
▁өрчил	-2997
▁$	-2998
▁изм	-2999
▁тэс	-3000
▁эгэнт	-3001
▁өнгөн	-3002
▁ей	-3003
▁Том	-3004
▁ашг	-3005
▁тны	-3006
▁огоон	-3007
▁атаа	-3008
▁өвчн	-3009
▁өрхөн	-3010
▁кк	-3011
▁үлх	-3012
▁гарц	-3013
▁агаан	-3014
▁ойд	-3015
▁олны	-3016
▁үүлч	-3017
▁албир	-3018
▁уухай	-3019
ub	-3020
▁адтай	-3021
▁эндүү	-3022
▁Аз	-3023
▁Re	-3024
▁Гол	-3025
▁нгли	-3026
▁кон	-3027
▁өрөг	-3028
▁хь	-3029
▁агт	-3030
▁йно	-3031
▁таг	-3032
▁чид	-3033
▁анкны	-3034
▁рих	-3035
▁хөнд	-3036
▁ахаас	-3037
▁Баян	-3038
▁алай	-3039
▁аныг	-3040
▁ланд	-3041
▁мтын	-3042
▁сайды	-3043
▁дны	-3044
▁нгийг	-3045
▁тараа	-3046
эгд	-3047
▁өндөө	-3048
as	-3049
▁баа	-3050
▁рий	-3051
▁хүрт	-3052
▁үрдүү	-3053
▁фи	-3054
▁эрүү	-3055
▁салга	-3056
▁ургаа	-3057
▁анш	-3058
▁лив	-3059
▁ээх	-3060
▁суулг	-3061
▁длууд	-3062
▁үнс	-3063
▁агуул	-3064
▁Уул	-3065
▁бая	-3066
▁лаарх	-3067
▁эрийн	-3068
▁айж	-3069
▁НХА	-3070
▁орши	-3071
▁рла	-3072
▁тоог	-3073
▁Ё	-3074
▁чийн	-3075
▁ел	-3076
▁өртө	-3077
▁элдэг	-3078
▁эч	-3079
▁лагд	-3080
▁эгдэх	-3081
▁лсөн	-3082
▁эхлэ	-3083
▁үүлг	-3084
▁онгу	-3085
▁гдэ	-3086
▁дүг	-3087
▁лар	-3088
▁Боло	-3089
▁отр	-3090
▁бэлг	-3091
▁дийл	-3092
▁лгэр	-3093
▁татах	-3094
▁лзуу	-3095
▁тогтв	-3096
▁шах	-3097
▁мад	-3098
▁1-	-3099
▁нгын	-3100
▁асвар	-3101
▁Төв	-3102
▁айц	-3103
▁рин	-3104
▁лооч	-3105
▁найм	-3106
▁чихсэ	-3107
▁ааа	-3108
▁зав	-3109
ко	-3110
▁ийш	-3111
▁лоор	-3112
▁үйлд	-3113
▁дүүрг	-3114
▁лх	-3115
▁рэнд	-3116
▁тс	-3117
▁одо	-3118
▁ооо	-3119
▁алдах	-3120
▁отроо	-3121
▁нч	-3122
▁эш	-3123
▁бут	-3124
▁элс	-3125
▁анаа	-3126
▁олоо	-3127
▁элтэй	-3128
▁гуа	-3129
▁дөөн	-3130
▁шл	-3131
▁гий	-3132
▁биеэ	-3133
▁гэрлэ	-3134
▁лэгчд	-3135
▁уудал	-3136
▁оп	-3137
▁тго	-3138
▁эмж	-3139
▁гадн	-3140
▁рлын	-3141
▁рөнг	-3142
▁танай	-3143
ет	-3144
▁жиж	-3145
▁сүрэ	-3146
▁=	-3147
▁ашин	-3148
▁сурч	-3149
▁дүгнэ	-3150
▁залга	-3151
▁рчуул	-3152
▁~	-3153
▁лий	-3154
▁түв	-3155
ook	-3156
▁рчны	-3157
▁Тухай	-3158
▁элсэн	-3159
▁линг	-3160
▁хэхэ	-3161
▁үгээ	-3162
▁агдаа	-3163
▁лүү	-3164
▁олт	-3165
▁ци	-3166
▁вэр	-3167
▁шдэ	-3168
▁На	-3169
▁йгүй	-3170
▁бүртг	-3171
▁ргаар	-3172
▁лхи	-3173
▁тодр	-3174
▁амы	-3175
▁эгчид	-3176
▁ардл	-3177
▁энийг	-3178
▁st	-3179
▁шд	-3180
▁гөж	-3181
▁өрд	-3182
▁ордо	-3183
▁лжээ	-3184
▁утс	-3185
▁уяа	-3186
▁ге	-3187
▁ми	-3188
▁илц	-3189
▁элд	-3190
▁раад	-3191
▁урал	-3192
▁агтаа	-3193
▁ic	-3194
▁Маш	-3195
▁огоо	-3196
▁ангуй	-3197
▁анзаа	-3198
▁уб	-3199
▁лда	-3200
▁ллы	-3201
▁айхаа	-3202
▁эхээс	-3203
▁өлөөт	-3204
▁арж	-3205
▁ларха	-3206
▁даргы	-3207
▁мрагд	-3208
▁эвч	-3209
▁тали	-3210
▁эрэв	-3211
▁зүйлд	-3212
▁ладаг	-3213
▁ҮБ	-3214
▁цай	-3215
▁гүүд	-3216
▁риад	-3217
▁лагч	-3218
id	-3219
▁То	-3220
▁хин	-3221
▁гүн	-3222
▁зра	-3223
▁лст	-3224
▁хүнс	-3225
▁авт	-3226
▁агна	-3227
▁зуг	-3228
▁үжи	-3229
▁агас	-3230
▁үхний	-3231
өм	-3232
▁хны	-3233
▁йрын	-3234
▁ЙН	-3235
▁рээ	-3236
▁Оюут	-3237
▁ийгөө	-3238
▁оорой	-3239
▁Ли	-3240
▁усны	-3241
▁халд	-3242
▁жүүлж	-3243
▁+	-3244
▁нет	-3245
▁сала	-3246
▁Танай	-3247
▁эйл	-3248
▁агш	-3249
▁ест	-3250
un	-3251
▁ата	-3252
▁өрж	-3253
▁овлон	-3254
▁Бу	-3255
▁хос	-3256
▁аадам	-3257
ace	-3258
▁лтанд	-3259
▁ed	-3260
▁19	-3261
▁ент	-3262
▁1.	-3263
▁рол	-3264
▁үйтэ	-3265
▁мэдэл	-3266
▁ргаан	-3267
▁вий	-3268
▁Ко	-3269
▁алыг	-3270
▁гана	-3271
▁лтад	-3272
▁лөлт	-3273
▁аатай	-3274
▁цийн	-3275
▁цугл	-3276
▁олоон	-3277
▁Цаа	-3278
▁нэл	-3279
▁эрэй	-3280
▁дурса	-3281
do	-3282
▁гам	-3283
▁зүүн	-3284
▁эрсэн	-3285
pp	-3286
▁80	-3287
▁нн	-3288
▁анал	-3289
▁ийлэх	-3290
▁рц	-3291
▁длын	-3292
▁моор	-3293
▁үүрг	-3294
▁руй	-3295
▁ороо	-3296
▁рөөд	-3297
▁агчид	-3298
▁21	-3299
▁рэй	-3300
▁хуй	-3301
ио	-3302
▁re	-3303
▁врал	-3304
▁дгийг	-3305
▁ара	-3306
▁цэс	-3307
▁гуулг	-3308
▁аб	-3309
▁йж	-3310
▁шр	-3311
▁хөх	-3312
▁стой	-3313
▁эрэгц	-3314
▁<	-3315
▁ры	-3316
▁ныг	-3317
▁тохи	-3318
▁гуур	-3319
▁тл	-3320
▁зэн	-3321
▁авчир	-3322
▁вто	-3323
▁гор	-3324
▁жиг	-3325
▁өвө	-3326
▁айлан	-3327
▁нэн	-3328
▁элц	-3329
▁доод	-3330
▁вж	-3331
▁ев	-3332
▁мч	-3333
▁гжил	-3334
▁гэрт	-3335
▁хоос	-3336
▁жүжиг	-3337
▁үсэг	-3338
▁эргэд	-3339
▁ера	-3340
▁далд	-3341
▁хуур	-3342
ЭН	-3343
▁ne	-3344
▁доро	-3345
▁дэр	-3346
▁ахар	-3347
▁алдаг	-3348
▁үчир	-3349
▁гараа	-3350
▁бөм	-3351
▁вуу	-3352
▁оль	-3353
▁гтаа	-3354
▁рамт	-3355
▁хана	-3356
▁чилж	-3357
▁найма	-3358
ri	-3359
▁бөмбө	-3360
▁рло	-3361
▁ссэн	-3362
▁ургу	-3363
єє	-3364
▁гүүл	-3365
▁ото	-3366
▁айны	-3367
▁УУ	-3368
ag	-3369
▁Зөв	-3370
▁Эцэ	-3371
▁жууд	-3372
▁эглэ	-3373
▁ене	-3374
▁ргэ	-3375
▁үрэ	-3376
▁осон	-3377
▁3-	-3378
▁атай	-3379
▁АР	-3380
▁усан	-3381
▁Эрх	-3382
▁өнө	-3383
ro	-3384
▁дөн	-3385
▁рхи	-3386
▁арав	-3387
▁ку	-3388
▁үйд	-3389
▁гүйц	-3390
▁Ла	-3391
▁нийгэ	-3392
▁аха	-3393
▁j	-3394
▁Хай	-3395
▁дам	-3396
▁дута	-3397
▁асах	-3398
▁зуур	-3399
▁лагуу	-3400
за	-3401
▁ооны	-3402
▁саг	-3403
▁өлөг	-3404
▁урш	-3405
▁St	-3406
▁АЙ	-3407
▁дрэл	-3408
▁доор	-3409
▁эртээ	-3410
▁22	-3411
▁ем	-3412
▁лш	-3413
▁жим	-3414
▁урь	-3415
▁анад	-3416
▁рчин	-3417
▁удал	-3418
▁ээрх	-3419
▁св	-3420
▁дууга	-3421
▁илийн	-3422
▁гчдын	-3423
▁тусал	-3424
▁Тү	-3425
▁ахуу	-3426
▁дэнд	-3427
▁хтэй	-3428
▁яара	-3429
▁оу	-3430
▁есс	-3431
▁бодо	-3432
▁гчин	-3433
▁анайх	-3434
▁байхы	-3435
▁илцан	-3436
▁хөв	-3437
▁үдээ	-3438
▁ип	-3439
▁хажуу	-3440
Чи	-3441
▁Бо	-3442
▁амер	-3443
▁ачин	-3444
▁гддэг	-3445
▁аана	-3446
▁ллын	-3447
▁нк	-3448
▁Төр	-3449
▁мжи	-3450
▁лбэг	-3451
ch	-3452
▁вш	-3453
▁иш	-3454
▁па	-3455
▁тари	-3456
▁лстөр	-3457
ЭГ	-3458
▁Уд	-3459
▁уз	-3460
▁цэн	-3461
▁нтер	-3462
▁энэг	-3463
▁өхөн	-3464
▁удаад	-3465
▁Z	-3466
▁ллээ	-3467
▁өрхий	-3468
▁оф	-3469
▁айд	-3470
▁рчм	-3471
▁цэр	-3472
ve	-3473
▁үв	-3474
▁тэв	-3475
▁шигт	-3476
▁эрээ	-3477
▁лөж	-3478
▁мжийн	-3479
▁мшигт	-3480
▁ынх	-3481
▁Цааш	-3482
▁өөрт	-3483
▁аяр	-3484
▁алха	-3485
▁ихээ	-3486
▁лээн	-3487
▁эрэл	-3488
▁амтай	-3489
▁лчин	-3490
▁элсэ	-3491
ck	-3492
▁ХХ	-3493
▁com	-3494
▁нун	-3495
▁анил	-3496
АЛ	-3497
▁ожи	-3498
▁саад	-3499
▁хүртэ	-3500
▁гэгч	-3501
▁аярла	-3502
ct	-3503
▁хр	-3504
▁жүжи	-3505
▁нхны	-3506
▁өхөд	-3507
▁Яа	-3508
▁глэ	-3509
▁цол	-3510
▁Хайр	-3511
▁илэн	-3512
▁өдөл	-3513
▁The	-3514
▁АХН	-3515
▁гдож	-3516
▁эрэн	-3517
▁даатг	-3518
▁нунта	-3519
▁нэлэг	-3520
▁ласан	-3521
▁лмаар	-3522
▁элз	-3523
▁шийдэ	-3524
▁хээс	-3525
▁өрдөг	-3526
▁or	-3527
▁ent	-3528
▁Нас	-3529
▁оро	-3530
▁бууд	-3531
▁рэлт	-3532
▁зөрч	-3533
▁эзээ	-3534
▁gle	-3535
▁эгэ	-3536
▁хнэр	-3537
▁ахл	-3538
▁араг	-3539
▁хоно	-3540
▁оосоо	-3541
▁en	-3542
▁ro	-3543
▁өдөө	-3544
▁Үр	-3545
▁свэр	-3546
▁охиол	-3547
▁нээр	-3548
▁цагаа	-3549
▁игд	-3550
▁аяла	-3551
▁гтой	-3552
▁мөрий	-3553
▁иал	-3554
▁зийн	-3555
▁ргүй	-3556
▁давта	-3557
▁игдөр	-3558
▁өөрчи	-3559
▁рлыг	-3560
▁цхан	-3561
▁виз	-3562
▁дрүүд	-3563
▁тлө	-3564
▁тоол	-3565
▁уламж	-3566
▁урван	-3567
▁Goo	-3568
▁ниг	-3569
▁глал	-3570
▁тгэл	-3571
▁book	-3572
▁үүлсэ	-3573
▁аза	-3574
▁ино	-3575
▁зори	-3576
▁цаад	-3577
▁мг	-3578
▁арьц	-3579
▁готой	-3580
▁улж	-3581
▁өвл	-3582
▁члэн	-3583
▁Ах	-3584
▁ахин	-3585
▁лдаг	-3586
▁цаас	-3587
▁эвлэ	-3588
ЭЭ	-3589
▁олло	-3590
▁2.	-3591
▁сө	-3592
ел	-3593
▁гчийн	-3594
▁тулга	-3595
▁вчи	-3596
▁осоо	-3597
▁Өөрөө	-3598
▁Ша	-3599
▁гдө	-3600
▁рха	-3601
▁оход	-3602
▁үвшин	-3603
ut	-3604
▁тик	-3605
▁зээ	-3606
▁рны	-3607
im	-3608
ra	-3609
▁сүү	-3610
▁лла	-3611
▁лэгээ	-3612
▁энээс	-3613
▁гдаад	-3614
▁өвлөл	-3615
▁заса	-3616
▁лэгт	-3617
▁асуух	-3618
▁багта	-3619
▁эгдэл	-3620
▁кц	-3621
▁ерик	-3622
▁иа	-3623
▁уя	-3624
▁гдана	-3625
▁стэй	-3626
▁омж	-3627
▁төрч	-3628
▁магт	-3629
▁олдох	-3630
▁үхэлд	-3631
АТ	-3632
▁лнэ	-3633
▁ног	-3634
▁оёл	-3635
▁саа	-3636
▁соор	-3637
▁90	-3638
▁йз	-3639
▁лай	-3640
▁мсэ	-3641
▁лбэл	-3642
▁логч	-3643
▁нгүй	-3644
▁антай	-3645
▁хөнгө	-3646
ost	-3647
▁омт	-3648
▁орм	-3649
▁уун	-3650
▁уха	-3651
▁яда	-3652
▁вгүй	-3653
▁эгээ	-3654
▁ламжл	-3655
▁70	-3656
▁ийл	-3657
▁урс	-3658
▁дүүл	-3659
▁зово	-3660
▁лэлт	-3661
▁цэнэ	-3662
▁зе	-3663
▁хас	-3664
▁йлдв	-3665
▁эгэх	-3666
▁гаарт	-3667
▁хориг	-3668
нэн	-3669
▁Хан	-3670
▁вөө	-3671
▁орь	-3672
▁гаач	-3673
▁эрийг	-3674
▁амп	-3675
▁алан	-3676
▁лүүд	-3677
▁ваа	-3678
▁эми	-3679
▁дурла	-3680
▁Ро	-3681
▁гил	-3682
▁ман	-3683
▁сам	-3684
▁ийгм	-3685
▁тайв	-3686
▁араас	-3687
▁үүхэн	-3688
▁инж	-3689
▁Үйл	-3690
▁өөх	-3691
▁стан	-3692
▁үний	-3693
▁өрүү	-3694
▁болоо	-3695
▁ург	-3696
▁рээд	-3697
▁илсэн	-3698
▁ариа	-3699
▁длаа	-3700
▁осууд	-3701
▁Өв	-3702
▁рэн	-3703
▁өгд	-3704
▁эрчи	-3705
▁ац	-3706
▁Бүр	-3707
▁лом	-3708
▁шги	-3709
▁бусд	-3710
▁йхны	-3711
▁лтгэ	-3712
▁ндан	-3713
▁to	-3714
▁орч	-3715
▁гөлдө	-3716
▁атр	-3717
▁алар	-3718
▁дуур	-3719
▁ндөр	-3720
▁утай	-3721
▁этэй	-3722
▁эхэн	-3723
▁цор	-3724
▁наар	-3725
▁Улаан	-3726
▁an	-3727
▁хөн	-3728
▁рьж	-3729
▁аадм	-3730
▁урав	-3731
▁бутл	-3732
▁рэл	-3733
▁ндын	-3734
▁ондоо	-3735
ари	-3736
▁айлы	-3737
▁ууны	-3738
▁алууд	-3739
▁ош	-3740
▁мий	-3741
▁нжи	-3742
▁сек	-3743
▁слан	-3744
▁эгсэ	-3745
▁ливаа	-3746
▁онх	-3747
▁лбан	-3748
▁ргээ	-3749
▁өрөв	-3750
▁ныхаа	-3751
▁хааны	-3752
▁ТГ	-3753
▁гомд	-3754
▁олог	-3755
▁App	-3756
▁де	-3757
▁үни	-3758
руу	-3759
▁вд	-3760
▁зүг	-3761
▁глах	-3762
▁римт	-3763
▁гна	-3764
▁ндий	-3765
▁римтл	-3766
▁сор	-3767
▁дагч	-3768
▁хаас	-3769
▁нэгдэ	-3770
ЫН	-3771
▁жг	-3772
▁очи	-3773
▁шөө	-3774
▁бөө	-3775
▁имп	-3776
▁үлдэ	-3777
▁ийгээ	-3778
▁мжтай	-3779
es	-3780
is	-3781
бли	-3782
▁Те	-3783
▁сх	-3784
▁анч	-3785
▁Чу	-3786
▁нан	-3787
▁эгдл	-3788
▁ичээд	-3789
▁лна	-3790
▁уудл	-3791
▁ийт	-3792
▁өгө	-3793
▁хараа	-3794
▁ья	-3795
▁one	-3796
▁цас	-3797
▁бе	-3798
▁вээ	-3799
▁Face	-3800
▁хлээд	-3801
▁гөн	-3802
▁Ца	-3803
▁си	-3804
▁сти	-3805
▁ио	-3806
▁ХХК	-3807
▁эмнэ	-3808
▁23	-3809
▁мб	-3810
▁галз	-3811
▁Үнэн	-3812
өрө	-3813
▁адал	-3814
▁нага	-3815
▁нгаа	-3816
▁агнуу	-3817
▁одруу	-3818
▁сд	-3819
▁ван	-3820
▁цэст	-3821
▁аргыг	-3822
▁усдаа	-3823
▁дра	-3824
▁далт	-3825
▁эмэл	-3826
▁санда	-3827
▁эхээр	-3828
▁НС	-3829
▁үүдэ	-3830
▁хирол	-3831
▁шинэч	-3832
▁ХК	-3833
▁You	-3834
▁кол	-3835
▁үнэт	-3836
art	-3837
▁лр	-3838
▁лир	-3839
▁мун	-3840
▁дүүд	-3841
▁цаана	-3842
▁До	-3843
▁пи	-3844
▁иун	-3845
▁ооч	-3846
▁арагд	-3847
▁ралт	-3848
▁сахи	-3849
▁улгах	-3850
ir	-3851
▁z	-3852
▁Ал	-3853
▁Жа	-3854
▁цоо	-3855
▁өлс	-3856
▁руун	-3857
ap	-3858
ee	-3859
▁яд	-3860
▁тно	-3861
▁хио	-3862
▁урва	-3863
▁гдлаа	-3864
▁гсаал	-3865
▁ргүүл	-3866
▁ими	-3867
▁айта	-3868
▁олбо	-3869
▁араан	-3870
▁турши	-3871
▁унтаг	-3872
▁ѳ	-3873
▁жол	-3874
▁мууд	-3875
▁элдэ	-3876
▁ногоо	-3877
АР	-3878
▁ьд	-3879
▁аяс	-3880
▁рак	-3881
▁удаг	-3882
▁ээжи	-3883
▁зөрчи	-3884
▁овс	-3885
▁жолоо	-3886
▁йт	-3887
▁дэс	-3888
▁ети	-3889
▁аард	-3890
▁вилг	-3891
▁жилж	-3892
▁лбэ	-3893
▁аяга	-3894
▁галт	-3895
▁амр	-3896
▁хуул	-3897
▁бан	-3898
▁дөх	-3899
▁эвд	-3900
▁авса	-3901
▁гарт	-3902
▁тийн	-3903
▁ch	-3904
▁ру	-3905
▁хоё	-3906
▁мжил	-3907
▁ундаа	-3908
▁уухан	-3909
▁өрөөс	-3910
▁АШ	-3911
▁түгэ	-3912
▁ia	-3913
▁уут	-3914
▁эцг	-3915
▁ална	-3916
▁уурай	-3917
оли	-3918
▁II	-3919
▁ОН	-3920
▁цр	-3921
▁нил	-3922
▁лгар	-3923
xt	-3924
▁НСУ	-3925
▁йлт	-3926
▁хб	-3927
▁яс	-3928
▁ийтлэ	-3929
▁ирийн	-3930
▁нхүүг	-3931
▁азр	-3932
▁ген	-3933
▁дсан	-3934
▁порт	-3935
▁болсн	-3936
um	-3937
▁ель	-3938
▁пон	-3939
▁чээр	-3940
▁Библи	-3941
▁гы	-3942
▁мэс	-3943
▁рги	-3944
▁өрл	-3945
▁эвтэ	-3946
▁эмсэ	-3947
▁аруул	-3948
▁олгүй	-3949
▁Хи	-3950
▁аши	-3951
▁иуд	-3952
▁эле	-3953
▁ахил	-3954
▁гдол	-3955
▁йгаа	-3956
▁луун	-3957
▁Ch	-3958
▁200	-3959
▁ори	-3960
▁орго	-3961
▁оми	-3962
▁пп	-3963
▁шид	-3964
▁олно	-3965
▁ролц	-3966
▁хлаа	-3967
▁элцэ	-3968
▁аарна	-3969
▁об	-3970
єр	-3971
▁Ай	-3972
▁Pre	-3973
▁гда	-3974
▁млэ	-3975
▁ндр	-3976
▁хүй	-3977
▁лууд	-3978
▁сээс	-3979
▁өхийн	-3980
ome	-3981
▁4-	-3982
▁угт	-3983
▁юун	-3984
▁лээс	-3985
ун	-3986
▁ки	-3987
▁гаж	-3988
▁этг	-3989
▁рлал	-3990
▁хурим	-3991
▁ааз	-3992
▁гов	-3993
▁тас	-3994
▁хуви	-3995
▁гадаа	-3996
▁рьдчи	-3997
▁өхөөр	-3998
▁дов	-3999
▁ирч	-4000
▁ьяа	-4001
▁гуул	-4002
▁луур	-4003
▁ориг	-4004
▁ных	-4005
▁ахиад	-4006
▁жих	-4007
▁риун	-4008
▁шинг	-4009
▁эвэр	-4010
▁или	-4011
▁ааши	-4012
▁агва	-4013
▁гааг	-4014
▁лалын	-4015
▁ng	-4016
▁АШТ	-4017
▁Гал	-4018
▁йтай	-4019
▁лонг	-4020
▁ологи	-4021
ей	-4022
▁аф	-4023
▁ачи	-4024
▁нха	-4025
▁уус	-4026
▁цго	-4027
▁айлд	-4028
▁суул	-4029
▁эдлэ	-4030
▁гдуул	-4031
▁чигдө	-4032
кс	-4033
▁авр	-4034
▁алг	-4035
▁Бари	-4036
▁гдал	-4037
▁элгэ	-4038
▁сураг	-4039
▁илг	-4040
▁лдөг	-4041
▁АТ	-4042
▁рон	-4043
▁саж	-4044
▁элч	-4045
▁хтай	-4046
▁буу	-4047
▁дож	-4048
▁жлэх	-4049
▁рсэн	-4050
▁рүүн	-4051
▁3.	-4052
▁рвэ	-4053
▁рдэг	-4054
▁рчих	-4055
▁архан	-4056
▁28	-4057
▁увь	-4058
▁насан	-4059
▁екс	-4060
со	-4061
ack	-4062
▁дод	-4063
▁жлал	-4064
▁автом	-4065
▁26	-4066
▁гла	-4067
▁авья	-4068
▁арчи	-4069
▁эгдү	-4070
▁үйлс	-4071
ore	-4072
▁мийг	-4073
▁In	-4074
▁сч	-4075
▁эт	-4076
▁дит	-4077
▁ржи	-4078
▁цом	-4079
▁амба	-4080
▁рагч	-4081
▁слийн	-4082
▁Дэ	-4083
▁Ази	-4084
▁Хүү	-4085
▁арын	-4086
▁саны	-4087
▁Mi	-4088
▁ar	-4089
▁сы	-4090
▁лго	-4091
▁цан	-4092
▁айлт	-4093
▁утаа	-4094
▁ээжий	-4095
ube	-4096
▁гүү	-4097
▁рнээ	-4098
▁снээ	-4099
▁овсро	-4100
▁уулаа	-4101
▁Хэл	-4102
▁лдл	-4103
▁тер	-4104
▁ргэл	-4105
▁ртээ	-4106
▁эдгэ	-4107
▁рамса	-4108
▁шуула	-4109
▁эрм	-4110
▁атга	-4111
▁хүнээ	-4112
▁уги	-4113
▁ахим	-4114
▁элэг	-4115
▁Үг	-4116
▁зэг	-4117
▁эвш	-4118
▁эри	-4119
▁ижиг	-4120
▁логд	-4121
▁вры	-4122
▁гыг	-4123
▁рва	-4124
▁ээсэн	-4125
ow	-4126
▁(1	-4127
▁27	-4128
▁тгаа	-4129
▁лирал	-4130
ни	-4131
▁Q	-4132
▁ари	-4133
▁ууу	-4134
▁нэхэ	-4135
▁үрэг	-4136
▁аашид	-4137
ги	-4138
▁Уу	-4139
▁жуу	-4140
▁атуу	-4141
▁нгөн	-4142
▁ноор	-4143
▁овоо	-4144
▁УР	-4145
▁ьж	-4146
▁Бод	-4147
▁гөөр	-4148
▁мжлэ	-4149
▁рний	-4150
▁Сар	-4151
▁ост	-4152
▁эмлэ	-4153
▁лэсэн	-4154
▁иул	-4155
▁уйв	-4156
▁Se	-4157
▁of	-4158
▁өт	-4159
▁цог	-4160
▁айла	-4161
▁гоос	-4162
▁тсаа	-4163
▁усды	-4164
▁өглө	-4165
vi	-4166
ГА	-4167
▁Мал	-4168
▁аду	-4169
▁агдал	-4170
▁аргал	-4171
▁ргууд	-4172
▁удалд	-4173
▁айс	-4174
▁акц	-4175
▁дэн	-4176
▁ойлг	-4177
▁рөөс	-4178
▁улна	-4179
▁логоо	-4180
ul	-4181
▁мны	-4182
▁Хаан	-4183
▁тулг	-4184
▁сайта	-4185
▁түвши	-4186
▁үүлд	-4187
▁el	-4188
▁ЭМ	-4189
▁жий	-4190
▁ймг	-4191
▁йгаад	-4192
▁ау	-4193
▁гя	-4194
▁орш	-4195
▁сий	-4196
ne	-4197
▁мэ	-4198
▁Өө	-4199
▁авх	-4200
▁пер	-4201
▁хала	-4202
▁үлээ	-4203
▁эрэлт	-4204
ЭЛ	-4205
▁Al	-4206
▁Эл	-4207
▁даал	-4208
▁сдий	-4209
ОО	-4210
▁Нү	-4211
▁тэж	-4212
▁ондо	-4213
▁голын	-4214
▁лгуул	-4215
ҮЙ	-4216
▁Ой	-4217
▁рлэ	-4218
▁өрх	-4219
▁урай	-4220
▁ет	-4221
▁рми	-4222
▁хэний	-4223
ИЙ	-4224
▁na	-4225
▁ийд	-4226
▁банк	-4227
▁үнийг	-4228
▁Дуу	-4229
▁рав	-4230
▁юул	-4231
▁арва	-4232
▁өнцө	-4233
▁азрын	-4234
дог	-4235
▁өц	-4236
▁нтр	-4237
▁йлгэ	-4238
▁шилж	-4239
▁эгнэ	-4240
▁ардаг	-4241
▁5-	-4242
▁боо	-4243
▁адар	-4244
▁амда	-4245
▁лдарт	-4246
▁хуура	-4247
▁ды	-4248
▁енд	-4249
▁шөөрө	-4250
▁цөл	-4251
▁лсон	-4252
▁нгээ	-4253
▁сайхн	-4254
▁500	-4255
▁инэ	-4256
▁Наад	-4257
▁амаас	-4258
▁мээ	-4259
▁вьяа	-4260
▁огло	-4261
▁алтыг	-4262
▁чдийн	-4263
op	-4264
▁Но	-4265
▁айт	-4266
▁ала	-4267
▁лдсон	-4268
ed	-4269
▁Win	-4270
▁амс	-4271
▁онт	-4272
▁хах	-4273
▁уулын	-4274
▁Эд	-4275
▁Бай	-4276
▁длэ	-4277
▁ина	-4278
▁дулаа	-4279
▁үүтэй	-4280
▁Яаж	-4281
▁эне	-4282
▁оёул	-4283
▁ргыг	-4284
▁ртэй	-4285
ИЛ	-4286
лай	-4287
▁пе	-4288
▁члө	-4289
▁үйс	-4290
▁Apple	-4291
▁үүхий	-4292
▁4.	-4293
▁th	-4294
▁ЭН	-4295
▁арма	-4296
▁нхан	-4297
▁ригд	-4298
▁тгаар	-4299
▁буц	-4300
▁чаа	-4301
▁аагч	-4302
▁өхөр	-4303
▁Ур	-4304
▁гуу	-4305
▁өдий	-4306
▁нийлү	-4307
ue	-4308
▁Ра	-4309
▁мм	-4310
▁по	-4311
▁ют	-4312
▁рад	-4313
▁даан	-4314
▁удам	-4315
▁йнхаа	-4316
▁дм	-4317
▁уп	-4318
▁акт	-4319
▁авуу	-4320
▁онин	-4321
▁орой	-4322
▁длийн	-4323
▁илдэг	-4324
▁un	-4325
▁Гу	-4326
▁шн	-4327
▁сөх	-4328
▁энт	-4329
▁ттай	-4330
▁лтууд	-4331
and	-4332
▁АА	-4333
▁ке	-4334
▁ойн	-4335
▁эрэ	-4336
▁ирээ	-4337
▁чийг	-4338
▁алтан	-4339
▁рэгжи	-4340
▁ol	-4341
▁the	-4342
▁таса	-4343
▁ї	-4344
▁асаа	-4345
▁гээн	-4346
▁йлын	-4347
▁роос	-4348
▁үрэн	-4349
▁гадаг	-4350
▁үнээр	-4351
ле	-4352
▁Хот	-4353
▁зоч	-4354
▁арна	-4355
▁тодор	-4356
▁тооцо	-4357
це	-4358
вор	-4359
▁аса	-4360
▁авха	-4361
▁лтоо	-4362
▁Bl	-4363
▁мь	-4364
▁өгш	-4365
▁сгөл	-4366
▁түүн	-4367
▁аарах	-4368
▁ааруу	-4369
▁имээ	-4370
▁нгуй	-4371
▁нлай	-4372
▁хард	-4373
▁аларх	-4374
▁дөлгө	-4375
▁уусан	-4376
▁HD	-4377
▁le	-4378
▁Бие	-4379
▁АЛ	-4380
▁Гү	-4381
▁Хол	-4382
▁галг	-4383
▁нэвт	-4384
▁члах	-4385
▁өрчл	-4386
▁De	-4387
▁iP	-4388
▁вт	-4389
▁улчи	-4390
▁sh	-4391
▁ило	-4392
▁чиж	-4393
▁рхэм	-4394
▁өлсөн	-4395
▁Ми	-4396
▁лдох	-4397
▁нгар	-4398
▁өгсө	-4399
▁up	-4400
▁бн	-4401
▁вта	-4402
▁ариг	-4403
▁жинг	-4404
ong	-4405
▁35	-4406
▁айч	-4407
▁төрө	-4408
▁элбэ	-4409
▁өгжл	-4410
▁аагаа	-4411
▁эрлэж	-4412
▁Sh	-4413
▁етр	-4414
▁ора	-4415
od	-4416
▁адл	-4417
▁вчл	-4418
▁өхр	-4419
▁угта	-4420
▁бодло	-4421
ig	-4422
▁үүг	-4423
▁гчээ	-4424
▁игчд	-4425
▁сгэх	-4426
▁уучи	-4427
▁андан	-4428
▁баата	-4429
▁элгүй	-4430
▁осл	-4431
▁вээр	-4432
▁лгий	-4433
▁марга	-4434
▁онлай	-4435
OL	-4436
▁кт	-4437
▁они	-4438
▁гтвор	-4439
ce	-4440
▁буд	-4441
▁гут	-4442
▁йса	-4443
▁асга	-4444
▁ааныг	-4445
ia	-4446
ҮТ	-4447
ӨӨ	-4448
▁цү	-4449
▁ГҮЙ	-4450
▁мыг	-4451
▁Home	-4452
▁дэнэ	-4453
▁нгуу	-4454
▁охой	-4455
▁гийнх	-4456
▁ОЛ	-4457
▁учл	-4458
▁эмх	-4459
▁гууд	-4460
▁лдаа	-4461
▁улаг	-4462
▁хийлэ	-4463
os	-4464
бор	-4465
▁хэвч	-4466
ak	-4467
▁иан	-4468
▁цац	-4469
▁асла	-4470
▁авахы	-4471
▁ангил	-4472
▁нэрээ	-4473
▁ээлээ	-4474
▁агу	-4475
▁ири	-4476
▁нто	-4477
▁хага	-4478
▁эрхэн	-4479
▁авс	-4480
▁еми	-4481
▁асай	-4482
▁ллаа	-4483
▁нэгт	-4484
▁үжигч	-4485
АГ	-4486
▁хов	-4487
▁алий	-4488
▁дирд	-4489
▁йлго	-4490
▁лолт	-4491
▁усла	-4492
▁илгаа	-4493
▁төлбө	-4494
▁et	-4495
▁лги	-4496
▁өрш	-4497
▁хэвт	-4498
▁орилг	-4499
▁таала	-4500
▁ддог	-4501
▁лдуу	-4502
▁ийхээ	-4503
ори	-4504
▁li	-4505
▁УВ	-4506
▁мнө	-4507
▁идео	-4508
▁орлу	-4509
▁аала	-4510
▁ишүү	-4511
▁мнөд	-4512
▁үчээ	-4513
▁ндээс	-4514
▁суулт	-4515
▁ууц	-4516
ье	-4517
ord	-4518
uck	-4519
▁te	-4520
▁тий	-4521
▁гэнд	-4522
▁өлдөг	-4523
▁Бе	-4524
▁Ва	-4525
▁Лу	-4526
▁ОР	-4527
▁адуу	-4528
▁увил	-4529
▁засва	-4530
▁рчүүд	-4531
▁арц	-4532
▁ниа	-4533
▁атгал	-4534
фт	-4535
▁дурс	-4536
▁нийх	-4537
▁чигл	-4538
▁улган	-4539
ort	-4540
▁45	-4541
ди	-4542
▁йч	-4543
▁дарс	-4544
▁захиа	-4545
▁Сан	-4546
▁лли	-4547
▁лэв	-4548
▁мши	-4549
▁ово	-4550
▁лэгд	-4551
▁мгий	-4552
▁хувц	-4553
▁цаан	-4554
▁300	-4555
▁and	-4556
▁асс	-4557
▁рим	-4558
▁ром	-4559
▁түвш	-4560
▁Windo	-4561
▁no	-4562
▁ЭР	-4563
▁юү	-4564
▁Нар	-4565
▁үйт	-4566
▁өөл	-4567
▁авир	-4568
▁гтэй	-4569
▁даас	-4570
▁охио	-4571
▁члэх	-4572
▁янга	-4573
ки	-4574
▁гэн	-4575
▁три	-4576
▁май	-4577
▁цус	-4578
▁үсг	-4579
▁айма	-4580
▁ичнэ	-4581
▁хөөр	-4582
▁нди	-4583
▁нте	-4584
▁бурх	-4585
▁рэгт	-4586
▁анс	-4587
▁өсв	-4588
зи	-4589
▁ҮҮ	-4590
▁алл	-4591
▁игт	-4592
▁сын	-4593
▁эмс	-4594
▁лгыг	-4595
▁охон	-4596
▁ээлж	-4597
▁оёрду	-4598
▁Тав	-4599
▁мэх	-4600
▁ргу	-4601
▁эрэгж	-4602
▁Ре	-4603
▁мжин	-4604
▁уудлы	-4605
АС	-4606
УУ	-4607
▁анб	-4608
▁нгө	-4609
▁ура	-4610
▁отор	-4611
▁рхай	-4612
▁улаад	-4613
▁үсийн	-4614
ҮҮ	-4615
▁ома	-4616
▁үйц	-4617
▁Сэтг	-4618
▁цсан	-4619
▁Нэр	-4620
▁өлт	-4621
▁адам	-4622
▁айха	-4623
▁амжаа	-4624
▁em	-4625
▁мэг	-4626
▁бичи	-4627
▁элийг	-4628
▁Шүү	-4629
▁асл	-4630
▁жлэ	-4631
▁түм	-4632
▁шиж	-4633
▁үтэ	-4634
▁раах	-4635
▁уудаа	-4636
▁уудаг	-4637
▁алз	-4638
▁пор	-4639
▁ури	-4640
▁айран	-4641
▁эрхтэ	-4642
▁ty	-4643
▁олзо	-4644
▁ver	-4645
▁ант	-4646
▁мэгд	-4647
▁онги	-4648
▁кг	-4649
▁өлг	-4650
▁билэ	-4651
▁рван	-4652
▁цөлд	-4653
▁элцээ	-4654
▁wn	-4655
▁уга	-4656
▁эгс	-4657
▁давт	-4658
▁лгаа	-4659
▁6-	-4660
▁АМ	-4661
▁ект	-4662
▁сыг	-4663
▁туш	-4664
▁барил	-4665
▁врийн	-4666
▁рох	-4667
▁ахиа	-4668
▁илга	-4669
▁ихгүй	-4670
all	-4671
▁7-	-4672
▁Ви	-4673
▁фр	-4674
▁цг	-4675
▁Жил	-4676
▁ууг	-4677
▁Miss	-4678
▁дсон	-4679
▁алийн	-4680
▁ээгээ	-4681
AR	-4682
▁Бр	-4683
▁мц	-4684
▁йдл	-4685
▁лха	-4686
▁онс	-4687
▁чүү	-4688
▁нөхө	-4689
▁ьсон	-4690
▁орлог	-4691
ама	-4692
▁Pl	-4693
▁ийц	-4694
▁нго	-4695
▁өгж	-4696
▁тарх	-4697
цо	-4698
▁вг	-4699
▁йлчи	-4700
▁лалд	-4701
▁налт	-4702
▁гаанд	-4703
▁оотой	-4704
▁элгээ	-4705
▁ry	-4706
▁Ди	-4707
▁бы	-4708
▁Үл	-4709
▁олз	-4710
▁шоу	-4711
▁асра	-4712
▁байг	-4713
▁раар	-4714
▁тсан	-4715
▁эрлэг	-4716
АХ	-4717
▁q	-4718
▁пу	-4719
▁алч	-4720
▁гло	-4721
▁дер	-4722
▁эсэ	-4723
▁авта	-4724
▁өгдө	-4725
▁ариул	-4726
▁цс	-4727
▁арл	-4728
▁гдо	-4729
▁аарч	-4730
▁вроп	-4731
▁гоод	-4732
▁нгоо	-4733
▁нөхц	-4734
▁рхийн	-4735
За	-4736
▁Sp	-4737
▁ЗЭН	-4738
▁агаж	-4739
▁рила	-4740
▁рээн	-4741
▁Цо	-4742
▁чө	-4743
▁мүү	-4744
▁улах	-4745
▁ргуул	-4746
▁тушаа	-4747
ТГ	-4748
▁IP	-4749
▁ИН	-4750
▁иж	-4751
▁унг	-4752
▁аний	-4753
▁гтай	-4754
▁малт	-4755
▁рлаг	-4756
▁рхон	-4757
▁ураа	-4758
▁ээний	-4759
ОЛ	-4760
▁it	-4761
▁км	-4762
▁хид	-4763
▁Му	-4764
▁єг	-4765
▁цуу	-4766
▁атар	-4767
▁эгний	-4768
la	-4769
▁at	-4770
▁дох	-4771
▁илт	-4772
▁кси	-4773
▁одит	-4774
▁эрдэ	-4775
▁өгүй	-4776
▁лагад	-4777
▁тгэгд	-4778
▁29	-4779
▁Зо	-4780
▁хож	-4781
▁янг	-4782
▁үгс	-4783
▁уури	-4784
▁эгтэ	-4785
▁үрээ	-4786
▁өлгөө	-4787
OLO	-4788
▁Нь	-4789
▁шт	-4790
▁Mac	-4791
▁гял	-4792
▁льс	-4793
▁раи	-4794
▁тло	-4795
▁удл	-4796
▁албар	-4797
▁илгоо	-4798
▁угаад	-4799
▁лу	-4800
▁Жон	-4801
▁лло	-4802
▁сээ	-4803
▁YOLO	-4804
▁чирх	-4805
▁өрөөд	-4806
▁ДҮ	-4807
▁мэн	-4808
▁тэх	-4809
▁ндөө	-4810
▁рган	-4811
▁тоон	-4812
▁тууд	-4813
▁цсийн	-4814
ес	-4815
ing	-4816
▁5.	-4817
▁Жо	-4818
▁гиш	-4819
▁цла	-4820
▁тоох	-4821
▁дамжи	-4822
▁йнхан	-4823
▁Баг	-4824
▁илл	-4825
▁мор	-4826
▁оож	-4827
▁рууд	-4828
▁хрий	-4829
▁@	-4830
▁рнө	-4831
▁үүж	-4832
▁амжу	-4833
▁гэрл	-4834
▁мэдр	-4835
▁тдаг	-4836
ОН	-4837
фи	-4838
▁Үс	-4839
▁Mar	-4840
▁Зах	-4841
▁нчи	-4842
▁элх	-4843
▁эсв	-4844
▁ӨАТ	-4845
▁рчиг	-4846
▁слийг	-4847
▁төсөө	-4848
ik	-4849
ми	-4850
▁!!	-4851
▁өш	-4852
▁пар	-4853
▁өрн	-4854
▁алин	-4855
▁31	-4856
▁агс	-4857
▁амг	-4858
▁мас	-4859
▁овч	-4860
▁рхан	-4861
▁урса	-4862
▁чилг	-4863
▁32	-4864
▁Ну	-4865
▁Хор	-4866
▁хац	-4867
▁гэсн	-4868
▁үхэр	-4869
▁айтай	-4870
АЙ	-4871
▁еж	-4872
▁зм	-4873
▁рр	-4874
▁Бур	-4875
▁лба	-4876
▁рок	-4877
▁жүүд	-4878
▁рөөр	-4879
▁слүү	-4880
▁тээр	-4881
▁урах	-4882
▁эрэм	-4883
рх	-4884
ard	-4885
▁гон	-4886
▁шоо	-4887
▁эдв	-4888
og	-4889
▁Лх	-4890
▁min	-4891
▁сла	-4892
▁лице	-4893
▁лэнэ	-4894
▁хоро	-4895
▁олооч	-4896
▁Ma	-4897
▁Un	-4898
▁me	-4899
▁iPh	-4900
▁ада	-4901
▁дэж	-4902
▁ийв	-4903
▁нти	-4904
▁батл	-4905
▁энүү	-4906
▁одоог	-4907
▁оосон	-4908
▁см	-4909
▁Гоо	-4910
▁нта	-4911
▁авал	-4912
▁ртой	-4913
▁уулиа	-4914
▁уулна	-4915
ht	-4916
itt	-4917
▁Ду	-4918
▁лдо	-4919
▁АНАН	-4920
▁анди	-4921
▁сэгт	-4922
▁арийн	-4923
▁огдол	-4924
▁^	-4925
олд	-4926
▁хн	-4927
▁жгүй	-4928
▁харх	-4929
▁улагч	-4930
ее	-4931
▁Аж	-4932
▁сса	-4933
▁Бурх	-4934
▁агал	-4935
▁гаах	-4936
▁ийнэ	-4937
▁йлга	-4938
▁ором	-4939
▁тгэх	-4940
▁длаас	-4941
▁оловс	-4942
▁ршлаг	-4943
ob	-4944
ill	-4945
▁во	-4946
▁ёо	-4947
▁УВС	-4948
▁алс	-4949
▁ваг	-4950
▁зөн	-4951
▁изи	-4952
▁амаа	-4953
▁дээл	-4954
▁сурт	-4955
▁хама	-4956
▁Холбо	-4957
▁ийнхэ	-4958
▁үлэгч	-4959
во	-4960
▁00	-4961
▁Son	-4962
▁Бая	-4963
▁Муу	-4964
▁Эмч	-4965
▁ьдаг	-4966
▁мжл	-4967
▁лтаа	-4968
▁лөгд	-4969
▁рилт	-4970
▁тэрг	-4971
▁хори	-4972
▁өөрө	-4973
▁үүдээ	-4974
бот	-4975
▁CO	-4976
▁иц	-4977
▁Хөл	-4978
▁код	-4979
▁мра	-4980
▁өсч	-4981
▁агса	-4982
▁айна	-4983
▁рман	-4984
▁усга	-4985
▁үрдэ	-4986
▁Гооли	-4987
▁хиолд	-4988
▁үлэлт	-4989
▁ням	-4990
▁сад	-4991
▁Post	-4992
▁вьса	-4993
▁голд	-4994
▁гөлө	-4995
▁джээ	-4996
▁лдах	-4997
▁рүүд	-4998
▁уршил	-4999
▁ээгдэ	-5000
ip	-5001
▁УУЛ	-5002
▁лгав	-5003
▁учра	-5004
▁элчи	-5005
ат	-5006
▁(2	-5007
▁чр	-5008
▁Хэт	-5009
▁вин	-5010
▁овло	-5011
▁ялал	-5012
ie	-5013
си	-5014
▁Am	-5015
▁To	-5016
▁Юм	-5017
▁ени	-5018
▁лос	-5019
▁рилц	-5020
▁галаа	-5021
▁36	-5022
▁ТХ	-5023
▁2-3	-5024
▁ажи	-5025
▁анда	-5026
▁анса	-5027
▁лэнг	-5028
▁рүүг	-5029
▁умын	-5030
▁гчийг	-5031
▁лабор	-5032
▁лдаан	-5033
▁олгоо	-5034
▁өөний	-5035
ff	-5036
▁Co	-5037
▁Ан	-5038
▁ИЙ	-5039
▁тро	-5040
▁алгаа	-5041
▁учраа	-5042
▁өртэй	-5043
АУ	-5044
ame	-5045
▁ях	-5046
▁Pro	-5047
▁for	-5048
▁ЭНД	-5049
▁рыг	-5050
▁Алта	-5051
▁гурв	-5052
▁инаа	-5053
▁рууг	-5054
▁хууч	-5055
▁өдрөө	-5056
▁→	-5057
▁is	-5058
▁Он	-5059
▁УИС	-5060
▁гой	-5061
▁нху	-5062
▁ойг	-5063
▁длий	-5064
▁лгуу	-5065
▁лцаа	-5066
▁нган	-5067
▁радио	-5068
▁рсний	-5069
▁этгэл	-5070
▁Ня	-5071
▁рек	-5072
▁өмө	-5073
▁лоос	-5074
▁мнэл	-5075
▁ргэд	-5076
▁сэнд	-5077
▁Ким	-5078
▁уда	-5079
▁үеэ	-5080
▁үчи	-5081
▁ймэр	-5082
▁олыг	-5083
▁уура	-5084
▁ээнэ	-5085
▁үзүү	-5086
▁амраг	-5087
▁мжилт	-5088
лагы	-5089
▁ндо	-5090
▁ртэ	-5091
▁хаш	-5092
▁ичих	-5093
▁лчид	-5094
▁нээг	-5095
▁өрөн	-5096
▁араад	-5097
II	-5098
va	-5099
ѳѳ	-5100
▁рэ	-5101
▁йлж	-5102
▁уйц	-5103
▁эвр	-5104
▁угар	-5105
▁эгдэ	-5106
▁анууд	-5107
▁йгуул	-5108
▁ег	-5109
▁аст	-5110
▁мжаа	-5111
ree	-5112
▁Тө	-5113
▁сүм	-5114
▁дээж	-5115
▁рдэм	-5116
▁үйцэ	-5117
▁хурда	-5118
▁шигла	-5119
▁өнөөд	-5120
ine	-5121
▁by	-5122
▁рб	-5123
▁пла	-5124
▁вийг	-5125
▁долд	-5126
▁дөрв	-5127
▁лана	-5128
▁орил	-5129
▁узар	-5130
▁Хүмүү	-5131
▁илүүд	-5132
ЕГ	-5133
▁Le	-5134
▁es	-5135
▁ft	-5136
▁ӨР	-5137
▁мла	-5138
▁сөр	-5139
▁арал	-5140
▁үүрс	-5141
▁андуу	-5142
▁33	-5143
▁48	-5144
▁Ни	-5145
▁ары	-5146
▁лдэ	-5147
▁лил	-5148
▁льд	-5149
▁мэр	-5150
▁адла	-5151
▁глуул	-5152
▁үзэгд	-5153
▁лож	-5154
▁нэх	-5155
▁дгүй	-5156
▁жагс	-5157
▁тоос	-5158
▁харь	-5159
▁(0	-5160
▁8-	-5161
▁Tw	-5162
▁адм	-5163
▁длы	-5164
▁жит	-5165
▁ийж	-5166
▁нов	-5167
▁ирга	-5168
▁мгүй	-5169
ang	-5170
▁АС	-5171
▁ЭД	-5172
▁рго	-5173
▁эмт	-5174
▁анар	-5175
▁гийг	-5176
▁лчих	-5177
▁агууд	-5178
▁элдээ	-5179
NU	-5180
▁ео	-5181
▁аги	-5182
▁драл	-5183
▁дөрт	-5184
▁чана	-5185
пи	-5186
олт	-5187
▁Сэ	-5188
▁you	-5189
▁гнэ	-5190
▁йца	-5191
▁Next	-5192
▁босо	-5193
▁үтгэ	-5194
▁андах	-5195
▁араал	-5196
ед	-5197
ек	-5198
are	-5199
ери	-5200
▁Be	-5201
▁SE	-5202
▁ИТ	-5203
▁Ио	-5204
▁ХУ	-5205
▁Цө	-5206
▁мл	-5207
▁ous	-5208
▁ерө	-5209
▁зуу	-5210
▁адах	-5211
▁лдар	-5212
▁лтгэл	-5213
▁ургам	-5214
▁хайрт	-5215
▁үүлэн	-5216
▁ирт	-5217
▁хла	-5218
▁лбэр	-5219
▁унга	-5220
▁цаар	-5221
▁удсан	-5222
ate	-5223
▁An	-5224
▁ӨС	-5225
▁Com	-5226
▁уди	-5227
▁үмн	-5228
▁аарал	-5229
ао	-5230
▁Mic	-5231
▁эцэ	-5232
▁дтэй	-5233
▁чуул	-5234
▁Ус	-5235
▁Шү	-5236
▁арх	-5237
▁йши	-5238
▁лчлэ	-5239
▁мөрд	-5240
▁охгүй	-5241
▁уугаа	-5242
se	-5243
ви	-5244
▁se	-5245
▁(0)	-5246
▁дрэ	-5247
▁туу	-5248
▁үрс	-5249
▁гэлз	-5250
▁рийг	-5251
▁сноо	-5252
▁тайл	-5253
▁эгдсэ	-5254
▁өгийн	-5255
▁еэ	-5256
▁tube	-5257
▁глэл	-5258
▁уурч	-5259
▁өнөөг	-5260
тф	-5261
▁уа	-5262
▁НАС	-5263
▁лцо	-5264
▁заар	-5265
▁халт	-5266
▁эцэр	-5267
▁одлог	-5268
ah	-5269
ИН	-5270
▁1,	-5271
▁мх	-5272
▁инс	-5273
▁мен	-5274
▁рли	-5275
▁дуун	-5276
▁ехно	-5277
▁инжи	-5278
▁уурха	-5279
EE	-5280
aw	-5281
▁75	-5282
▁de	-5283
▁Дар	-5284
▁айг	-5285
▁лма	-5286
▁өөж	-5287
▁read	-5288
▁ндра	-5289
▁тгэж	-5290
▁өвчи	-5291
▁лцоог	-5292
▁огчид	-5293
ӨР	-5294
▁Fi	-5295
▁Ти	-5296
▁УБ	-5297
▁чм	-5298
▁(1)	-5299
▁ber	-5300
▁алц	-5301
▁зэх	-5302
▁рьс	-5303
▁эжи	-5304
▁нтай	-5305
▁рчээ	-5306
▁ттер	-5307
▁үсээ	-5308
▁йнхээ	-5309
▁тагда	-5310
ME	-5311
ть	-5312
▁34	-5313
▁Зу	-5314
▁агн	-5315
▁гса	-5316
▁гта	-5317
▁дарч	-5318
▁зүрх	-5319
▁чдын	-5320
ud	-5321
▁lo	-5322
▁аяж	-5323
▁урч	-5324
▁энц	-5325
▁эдээ	-5326
▁өндө	-5327
▁аралт	-5328
▁gr	-5329
▁тт	-5330
▁pre	-5331
▁дги	-5332
▁мгэ	-5333
▁сэх	-5334
▁уйд	-5335
▁бама	-5336
▁гөөд	-5337
▁Li	-5338
▁утги	-5339
▁эмжи	-5340
▁эрэгс	-5341
so	-5342
ime	-5343
▁НД	-5344
▁ian	-5345
▁нши	-5346
▁comm	-5347
▁жилл	-5348
▁йрны	-5349
▁лосо	-5350
▁ршуу	-5351
ph	-5352
ГЭ	-5353
бер	-5354
▁400	-5355
▁риа	-5356
▁хих	-5357
▁үлэ	-5358
▁адга	-5359
▁адны	-5360
▁ачих	-5361
▁уурь	-5362
▁элтээ	-5363
eb	-5364
ИС	-5365
▁Ээ	-5366
▁Сая	-5367
▁год	-5368
▁сло	-5369
▁updo	-5370
▁ахав	-5371
▁элэх	-5372
▁эсий	-5373
▁АБ	-5374
▁150	-5375
▁Зам	-5376
▁йва	-5377
▁ккк	-5378
▁баат	-5379
▁дийг	-5380
▁лтүү	-5381
▁рчид	-5382
▁уруул	-5383
▁эгтэй	-5384
Их	-5385
▁US	-5386
▁ЭМБ	-5387
▁Юун	-5388
▁вши	-5389
▁удд	-5390
▁хлэ	-5391
▁члэ	-5392
▁гний	-5393
▁цүүл	-5394
▁лэхэд	-5395
лэл	-5396
▁Jo	-5397
▁Де	-5398
▁Word	-5399
▁агши	-5400
▁үнээ	-5401
▁игийн	-5402
▁ХА	-5403
▁Урт	-5404
▁мет	-5405
▁рни	-5406
▁сго	-5407
▁Tube	-5408
▁эрвэ	-5409
▁арлаг	-5410
▁платф	-5411
ЭХ	-5412
▁ЗХ	-5413
▁ник	-5414
▁урв	-5415
▁авиа	-5416
▁авьж	-5417
▁ланг	-5418
▁рлаж	-5419
▁ршил	-5420
▁сдөө	-5421
▁огдож	-5422
▁удлын	-5423
▁ууууу	-5424
▁хэлээ	-5425
▁үндэт	-5426
▁bo	-5427
▁вга	-5428
▁гжи	-5429
▁мик	-5430
▁алах	-5431
▁лалт	-5432
▁цийг	-5433
▁члөл	-5434
▁ээлт	-5435
▁ишүүд	-5436
▁лдсэн	-5437
ID	-5438
ев	-5439
ast	-5440
▁IS	-5441
▁Ст	-5442
▁ХБ	-5443
▁жс	-5444
▁Хаа	-5445
▁дөж	-5446
▁ной	-5447
▁эрж	-5448
▁олцо	-5449
▁энэт	-5450
▁ӨСҮТ	-5451
▁арааг	-5452
ug	-5453
ont	-5454
▁ly	-5455
▁иас	-5456
▁лдө	-5457
▁нин	-5458
▁тин	-5459
▁ггүй	-5460
▁улал	-5461
▁уурл	-5462
▁ийсэн	-5463
MX	-5464
▁9-	-5465
▁ОНГ	-5466
▁бит	-5467
▁төлө	-5468
▁эмцэ	-5469
▁акцин	-5470
ab	-5471
сг	-5472
▁УС	-5473
▁Ком	-5474
▁адг	-5475
▁иар	-5476
▁үргэ	-5477
▁уулгы	-5478
▁үдийг	-5479
▁үстэй	-5480
ld	-5481
ак	-5482
▁ad	-5483
▁do	-5484
▁Пи	-5485
▁Шө	-5486
▁гто	-5487
▁тна	-5488
▁цөм	-5489
▁атаж	-5490
▁дсөн	-5491
▁лдэх	-5492
▁лхам	-5493
▁лчла	-5494
▁үүрэ	-5495
▁НАСАУ	-5496
▁аргүй	-5497
▁нэний	-5498
OS	-5499
Ер	-5500
▁Ex	-5501
▁БС	-5502
▁Над	-5503
▁эвтр	-5504
▁элнэ	-5505
▁Өнгө	-5506
up	-5507
ell	-5508
▁ББ	-5509
▁ЗГ	-5510
▁ИТХ	-5511
▁йлч	-5512
▁чло	-5513
▁арих	-5514
PS	-5515
▁Me	-5516
▁ce	-5517
▁єє	-5518
▁бби	-5519
▁бер	-5520
▁уры	-5521
▁өлж	-5522
▁шийн	-5523
▁гдсөн	-5524
▁лгийн	-5525
▁робот	-5526
▁этгээ	-5527
▁лэлд	-5528
▁эсэг	-5529
▁уулба	-5530
Яг	-5531
ect	-5532
▁55	-5533
▁Сө	-5534
▁же	-5535
NUMX	-5536
▁000	-5537
▁ght	-5538
▁ави	-5539
▁амб	-5540
▁веб	-5541
▁йсан	-5542
▁нгил	-5543
▁XNUMX	-5544
▁длагы	-5545
▁замаа	-5546
▁Sa	-5547
▁Te	-5548
▁ву	-5549
▁арс	-5550
▁нор	-5551
▁атла	-5552
▁гэрч	-5553
▁хийс	-5554
▁хэмж	-5555
▁шигл	-5556
▁өдрө	-5557
▁Sonin	-5558
▁лагда	-5559
▁лбэрэ	-5560
▁лшгүй	-5561
▁2,	-5562
▁io	-5563
▁us	-5564
▁Пе	-5565
▁ӨХ	-5566
▁May	-5567
▁гис	-5568
▁зэж	-5569
▁рог	-5570
▁цаж	-5571
▁ents	-5572
▁акад	-5573
▁лгас	-5574
▁хуга	-5575
▁эрнэ	-5576
▁Previ	-5577
▁ашины	-5578
ОХ	-5579
our	-5580
▁42	-5581
▁be	-5582
▁ҮР	-5583
▁And	-5584
▁Int	-5585
▁Цар	-5586
▁гын	-5587
▁йчи	-5588
▁наж	-5589
▁хяд	-5590
▁чигд	-5591
▁авхар	-5592
▁хилга	-5593
▁хувиа	-5594
▁цээнд	-5595
ЭР	-5596
ст	-5597
int	-5598
лок	-5599
оот	-5600
▁38	-5601
▁co	-5602
▁ОТ	-5603
▁бх	-5604
▁ук	-5605
▁Гад	-5606
▁Дэд	-5607
▁кий	-5608
▁өвс	-5609
▁угац	-5610
▁шилт	-5611
▁астай	-5612
▁дууда	-5613
ide	-5614
ого	-5615
▁ra	-5616
▁вы	-5617
▁ех	-5618
▁хд	-5619
▁man	-5620
▁Чам	-5621
▁хэг	-5622
▁нхаа	-5623
▁ранц	-5624
▁урла	-5625
age	-5626
▁49	-5627
▁ge	-5628
▁mi	-5629
▁qu	-5630
▁БИ	-5631
▁Дү	-5632
▁ИЛ	-5633
▁Ян	-5634
▁!!!	-5635
▁йны	-5636
▁аачи	-5637
▁анца	-5638
▁лдан	-5639
▁нгоц	-5640
▁ууда	-5641
▁хара	-5642
▁аалты	-5643
▁чилгэ	-5644
ГИ	-5645
ash	-5646
sta	-5647
▁ЭЛ	-5648
▁хх	-5649
▁чх	-5650
▁адн	-5651
▁зин	-5652
▁илэ	-5653
▁өлд	-5654
▁йвал	-5655
▁түрэ	-5656
▁аарда	-5657
▁уулав	-5658
uu	-5659
▁ЗД	-5660
▁Sam	-5661
▁Tag	-5662
▁гас	-5663
▁мга	-5664
▁рөг	-5665
▁тта	-5666
▁цэл	-5667
▁post	-5668
▁roso	-5669
▁ртаа	-5670
▁ууры	-5671
▁амьсг	-5672
▁лбоот	-5673
▁рилга	-5674
▁хуучи	-5675
оп	-5676
ote	-5677
▁51	-5678
▁слэ	-5679
▁эмд	-5680
▁үүт	-5681
▁аалж	-5682
▁огдо	-5683
▁рсөл	-5684
vv	-5685
▁Th	-5686
▁Ле	-5687
▁ед	-5688
▁Хоё	-5689
▁йли	-5690
▁льт	-5691
▁хиц	-5692
▁хун	-5693
▁ших	-5694
▁алаг	-5695
▁лээг	-5696
▁мэдл	-5697
▁урта	-5698
▁эртэ	-5699
▁анхүү	-5700
ѳр	-5701
orn	-5702
▁ri	-5703
▁Ол	-5704
▁Jun	-5705
▁ХАА	-5706
▁вах	-5707
▁гац	-5708
▁рро	-5709
▁рөх	-5710
▁ууш	-5711
▁гсаа	-5712
▁ддэг	-5713
▁слам	-5714
▁хдаг	-5715
▁эсгэ	-5716
▁эсээ	-5717
▁аргуу	-5718
▁ргэлж	-5719
▁хоёрд	-5720
НА	-5721
▁nt	-5722
▁ЕХ	-5723
▁Хэ	-5724
▁тд	-5725
▁өөг	-5726
▁ддаг	-5727
▁лоод	-5728
▁үдэн	-5729
▁Twitt	-5730
▁лүүлж	-5731
▁ээрий	-5732
ЛӨ	-5733
ре	-5734
▁єр	-5735
▁ахы	-5736
▁ила	-5737
▁ины	-5738
▁олс	-5739
▁орв	-5740
▁Fuck	-5741
▁агла	-5742
▁арьж	-5743
▁бодл	-5744
▁эдэх	-5745
▁члүүл	-5746
▁1-2	-5747
▁ерт	-5748
▁жам	-5749
▁илд	-5750
▁тэт	-5751
▁эзэ	-5752
▁ичиж	-5753
▁нэлт	-5754
▁огчд	-5755
▁ьтай	-5756
▁лтаар	-5757
▁рьсан	-5758
вс	-5759
▁Тэ	-5760
▁мчи	-5761
▁фор	-5762
▁чим	-5763
▁next	-5764
▁аата	-5765
▁голо	-5766
▁мате	-5767
▁нада	-5768
▁нгол	-5769
▁салт	-5770
▁хайн	-5771
▁элээ	-5772
▁амтар	-5773
ui	-5774
вв	-5775
▁65	-5776
▁oo	-5777
▁Ил	-5778
▁МН	-5779
▁зи	-5780
▁лв	-5781
▁мьт	-5782
▁нер	-5783
▁цээр	-5784
▁эмжл	-5785
▁өвдө	-5786
▁нгөөр	-5787
▁уурын	-5788
▁үүрэн	-5789
fe	-5790
лг	-5791
тө	-5792
▁Є	-5793
ark	-5794
гар	-5795
▁Lo	-5796
▁ma	-5797
▁Не	-5798
▁мя	-5799
▁800	-5800
▁атл	-5801
▁гав	-5802
▁ныхо	-5803
▁эвсэ	-5804
▁ты	-5805
▁сга	-5806
▁заяа	-5807
▁рлуул	-5808
da	-5809
ид	-5810
▁NE	-5811
▁III	-5812
▁ААН	-5813
▁Вье	-5814
▁Тун	-5815
▁аант	-5816
▁гдан	-5817
▁глаа	-5818
▁слэл	-5819
▁өрсд	-5820
▁варла	-5821
се	-5822
▁🙂	-5823
▁Ar	-5824
▁Gr	-5825
▁OS	-5826
▁sp	-5827
▁СЕ	-5828
▁УГ	-5829
▁УД	-5830
▁лы	-5831
▁Хон	-5832
▁Хув	-5833
▁Шар	-5834
▁зэс	-5835
▁адна	-5836
▁алгы	-5837
▁олын	-5838
▁ренд	-5839
▁улба	-5840
▁аабар	-5841
▁гэлэн	-5842
▁йлчил	-5843
▁мгийн	-5844
▁улстө	-5845
ae	-5846
ИГ	-5847
їй	-5848
▁ex	-5849
▁вө	-5850
orld	-5851
▁аам	-5852
▁нна	-5853
▁ссэ	-5854
▁туг	-5855
▁төг	-5856
▁Үүн	-5857
▁Евро	-5858
▁драх	-5859
▁тгах	-5860
▁хийг	-5861
▁микро	-5862
▁ргийн	-5863
uur	-5864
▁Аа	-5865
▁Вэ	-5866
▁цл	-5867
▁ung	-5868
▁УУД	-5869
▁Урд	-5870
▁зий	-5871
▁рхо	-5872
▁уца	-5873
▁чат	-5874
▁яма	-5875
▁roid	-5876
▁цагд	-5877
▁үүлэ	-5878
▁асанд	-5879
▁эглээ	-5880
ЭЙ	-5881
ick	-5882
▁Cl	-5883
▁Өр	-5884
▁COV	-5885
▁Иер	-5886
▁аца	-5887
▁бэг	-5888
▁вса	-5889
▁Mong	-5890
▁уучл	-5891
▁өөрчл	-5892
AN	-5893
ве	-5894
one	-5895
▁44	-5896
▁Wh	-5897
▁АГ	-5898
▁АД	-5899
▁ZAR	-5900
▁еле	-5901
▁рнэ	-5902
▁ject	-5903
▁аалд	-5904
▁барт	-5905
▁ймээ	-5906
▁лдэж	-5907
▁нуха	-5908
▁унда	-5909
▁элзэ	-5910
▁одсон	-5911
▁₮	-5912
▁Wi	-5913
▁ll	-5914
▁НБ	-5915
▁ЭЭ	-5916
▁DEE	-5917
▁Дор	-5918
▁Хүүх	-5919
▁орын	-5920
▁охыг	-5921
▁талт	-5922
▁хэрэ	-5923
▁ыхаа	-5924
▁start	-5925
▁иргаа	-5926
▁ирсан	-5927
▁үүлээ	-5928
▁6.	-5929
▁Sc	-5930
▁Tr	-5931
▁ie	-5932
▁АВ	-5933
▁ҮН	-5934
▁арв	-5935
▁жоо	-5936
▁жор	-5937
▁шог	-5938
▁боди	-5939
▁вийн	-5940
▁омын	-5941
▁ууна	-5942
▁эхээ	-5943
▁COVID	-5944
▁арган	-5945
▁лзалт	-5946
▁удамж	-5947
AS	-5948
лер	-5949
▁PC	-5950
▁im	-5951
▁жр	-5952
▁уж	-5953
▁эб	-5954
▁ect	-5955
▁дил	-5956
▁нес	-5957
▁ови	-5958
▁ажуу	-5959
▁исте	-5960
▁унаа	-5961
▁ZARME	-5962
▁ОНГОЛ	-5963
▁алаас	-5964
▁аргын	-5965
▁ардам	-5966
▁варга	-5967
▁ргээд	-5968
▁уссан	-5969
▁үрүүн	-5970
▁үссэн	-5971
АЖ	-5972
ust	-5973
▁39	-5974
▁УЛ	-5975
▁art	-5976
▁ial	-5977
▁Ван	-5978
▁тын	-5979
▁ийдв	-5980
▁рмаа	-5981
▁удад	-5982
▁улуу	-5983
▁хайл	-5984
▁аргаа	-5985
▁асуул	-5986
▁истем	-5987
АМ	-5988
▁He	-5989
▁ОК	-5990
▁ХҮ	-5991
▁ЭЗ	-5992
▁ӨВ	-5993
▁day	-5994
▁Чин	-5995
▁зэм	-5996
▁Read	-5997
▁айды	-5998
▁алхи	-5999
▁дтай	-6000
▁ндар	-6001
▁сэдэ	-6002
▁удын	-6003
▁утаг	-6004
▁өсөл	-6005
▁ортын	-6006
▁эвлэл	-6007
▁Ap	-6008
▁Ph	-6009
▁Ве	-6010
▁ОМ	-6011
▁Үх	-6012
▁Увс	-6013
▁ХАБ	-6014
▁Яах	-6015
▁Play	-6016
▁нчлэ	-6017
▁рилж	-6018
▁сгий	-6019
▁удла	-6020
▁олдоо	-6021
▁рүүлэ	-6022
▁өхгүй	-6023
th	-6024
▁(3	-6025
▁om	-6026
▁АТГ	-6027
▁Гоё	-6028
▁gram	-6029
▁болз	-6030
▁галж	-6031
▁лэлээ	-6032
aa	-6033
уа	-6034
▁37	-6035
▁7.	-6036
▁95	-6037
▁Eg	-6038
▁XX	-6039
▁ag	-6040
▁ЗЭ	-6041
▁Цэ	-6042
▁ail	-6043
▁dur	-6044
▁авд	-6045
▁илч	-6046
▁йтг	-6047
▁орг	-6048
▁цад	-6049
▁шим	-6050
▁єєр	-6051
▁жлаа	-6052
▁илээ	-6053
▁мини	-6054
▁уууу	-6055
▁үүжи	-6056
▁икийн	-6057
▁үсийг	-6058
ерс	-6059
▁En	-6060
▁жу	-6061
▁Зул	-6062
▁лсэ	-6063
▁осо	-6064
▁улз	-6065
▁Өнө	-6066
▁айда	-6067
▁илчи	-6068
▁орин	-6069
▁өсөн	-6070
▁өхөө	-6071
▁дэгдэ	-6072
▁лгана	-6073
▁рагда	-6074
▁эртэй	-6075
ок	-6076
эйн	-6077
▁Наа	-6078
▁лов	-6079
▁нци	-6080
▁оот	-6081
▁хүл	-6082
▁цыг	-6083
▁эхэ	-6084
▁гүүн	-6085
▁усад	-6086
▁хнээ	-6087
▁онгон	-6088
▁өнгөт	-6089
▁°	-6090
ant	-6091
old	-6092
▁Ene	-6093
▁SEO	-6094
▁Uni	-6095
▁net	-6096
▁апп	-6097
▁иеэ	-6098
▁мир	-6099
▁сөө	-6100
▁эги	-6101
▁лтуу	-6102
▁ргуу	-6103
▁тэнэ	-6104
▁аалал	-6105
▁артаа	-6106
▁мнэлг	-6107
▁сэнээ	-6108
ft	-6109
▁si	-6110
▁яз	-6111
▁йдс	-6112
▁лье	-6113
▁нүх	-6114
▁ртг	-6115
▁сүр	-6116
▁тра	-6117
▁яна	-6118
▁арта	-6119
▁ваад	-6120
▁олио	-6121
▁усах	-6122
▁өрдө	-6123
мн	-6124
хо	-6125
▁am	-6126
▁ur	-6127
▁Ку	-6128
▁Хур	-6129
▁Янз	-6130
▁гат	-6131
▁гөр	-6132
▁наг	-6133
▁ток	-6134
▁ута	-6135
▁үйч	-6136
▁амга	-6137
▁анху	-6138
▁ахаа	-6139
▁гаца	-6140
▁жийн	-6141
▁иваа	-6142
▁улжээ	-6143
pt	-6144
ем	-6145
ья	-6146
єл	-6147
▁76	-6148
▁El	-6149
▁АЯ	-6150
▁МЯ	-6151
▁зэ	-6152
▁хц	-6153
▁zon	-6154
▁Вэб	-6155
▁бри	-6156
▁ужи	-6157
▁цон	-6158
▁чий	-6159
▁элэ	-6160
▁line	-6161
▁ллах	-6162
▁Insta	-6163
ite	-6164
ver	-6165
ами	-6166
дэн	-6167
зер	-6168
▁ice	-6169
▁Эрт	-6170
▁гра	-6171
▁миа	-6172
▁гдэн	-6173
▁длээ	-6174
▁лдээ	-6175
▁мана	-6176
▁ныха	-6177
▁Press	-6178
▁өлөөл	-6179
▁41	-6180
▁AM	-6181
▁ey	-6182
▁НХ	-6183
▁ТВ	-6184
▁Off	-6185
▁ess	-6186
▁ТАЙ	-6187
▁аху	-6188
▁дна	-6189
▁ону	-6190
▁авчи	-6191
▁блок	-6192
▁суэл	-6193
▁усал	-6194
▁хүлэ	-6195
▁хүрэ	-6196
▁агнал	-6197
▁нухац	-6198
▁одоод	-6199
▁хаалг	-6200
▁{	-6201
ond	-6202
▁--	-6203
▁57	-6204
▁ta	-6205
▁600	-6206
▁Алт	-6207
▁мил	-6208
▁рсд	-6209
▁улав	-6210
▁усаа	-6211
▁эдэв	-6212
▁Eguur	-6213
▁Эрдэн	-6214
▁Ad	-6215
▁ТО	-6216
▁УЗ	-6217
▁ьт	-6218
▁250	-6219
▁Хөх	-6220
▁айв	-6221
▁айва	-6222
▁огтв	-6223
▁тами	-6224
▁уулч	-6225
▁ухал	-6226
▁эцүү	-6227
▁хөтөл	-6228
asi	-6229
ork	-6230
▁TO	-6231
▁ni	-6232
▁Али	-6233
▁ады	-6234
▁рдо	-6235
▁тгий	-6236
▁тэнг	-6237
▁элжи	-6238
▁үндс	-6239
▁агтай	-6240
юс	-6241
oll	-6242
▁58	-6243
▁85	-6244
▁??	-6245
▁Че	-6246
▁end	-6247
▁Лав	-6248
▁вст	-6249
▁үсэ	-6250
▁лдөө	-6251
▁нгас	-6252
▁орио	-6253
▁тагд	-6254
▁шата	-6255
▁үрий	-6256
▁үүсэ	-6257
▁Inter	-6258
▁хүндэ	-6259
▁эдгээ	-6260
ӨН	-6261
ice	-6262
▁43	-6263
▁My	-6264
▁Ro	-6265
▁go	-6266
▁АЗ	-6267
▁Ге	-6268
▁хы	-6269
▁Lin	-6270
▁ава	-6271
▁гїй	-6272
▁ира	-6273
▁рем	-6274
▁амыг	-6275
▁арха	-6276
▁вуул	-6277
▁дчих	-6278
▁дэгд	-6279
▁рчил	-6280
▁урим	-6281
▁чээд	-6282
▁илсан	-6283
▁толго	-6284
▁элжээ	-6285
▁Өнөөд	-6286
▁09	-6287
▁Ло	-6288
▁ble	-6289
▁ive	-6290
▁ним	-6291
▁Comm	-6292
▁Page	-6293
▁алла	-6294
▁друу	-6295
▁йлан	-6296
▁рхий	-6297
▁туур	-6298
▁улиа	-6299
▁хаад	-6300
▁хсэн	-6301
▁галын	-6302
ЫГ	-6303
ake	-6304
▁99	-6305
▁la	-6306
▁sub	-6307
▁Эгч	-6308
▁лиа	-6309
▁таж	-6310
▁улш	-6311
▁хэх	-6312
▁дуга	-6313
▁роол	-6314
▁стай	-6315
▁тэмд	-6316
▁уулт	-6317
▁хойн	-6318
▁үндэ	-6319
▁өөрч	-6320
▁ололт	-6321
▁янган	-6322
▁өрийг	-6323
TS	-6324
si	-6325
uk	-6326
ола	-6327
▁ei	-6328
▁Ял	-6329
▁Air	-6330
▁son	-6331
▁шив	-6332
▁йлчл	-6333
▁рьдч	-6334
▁үзэг	-6335
SD	-6336
ку	-6337
нгє	-6338
▁52	-6339
▁Hu	-6340
▁Hy	-6341
▁PM	-6342
▁Sl	-6343
▁Зе	-6344
▁єв	-6345
▁ISO	-6346
▁ure	-6347
▁бээ	-6348
▁цам	-6349
▁ээш	-6350
▁хсан	-6351
▁арууд	-6352
▁баярт	-6353
▁ргэдэ	-6354
жу	-6355
vid	-6356
зон	-6357
▁Bo	-6358
▁Da	-6359
▁We	-6360
▁ul	-6361
▁її	-6362
▁(2)	-6363
▁Мах	-6364
▁вли	-6365
▁йлд	-6366
▁өрс	-6367
▁берт	-6368
▁дана	-6369
▁жинд	-6370
▁лдог	-6371
▁мжла	-6372
▁чдэд	-6373
▁арлаа	-6374
▁эгдээ	-6375
єх	-6376
▁bl	-6377
▁Ин	-6378
▁Эв	-6379
▁ллэ	-6380
▁нду	-6381
▁нца	-6382
▁пүү	-6383
▁хял	-6384
▁яаг	-6385
▁үдэ	-6386
▁өхц	-6387
▁porn	-6388
▁асны	-6389
▁лдаж	-6390
▁нефт	-6391
▁срэг	-6392
▁эрли	-6393
▁ээвэ	-6394
▁лонго	-6395
▁халуу	-6396
BA	-6397
ST	-6398
▁pl	-6399
▁Шо	-6400
▁120	-6401
▁Nov	-6402
▁ики	-6403
▁рца	-6404
▁тох	-6405
▁Time	-6406
▁акал	-6407
▁ийлж	-6408
▁олдо	-6409
▁уршл	-6410
▁члэл	-6411
▁аатга	-6412
▁адгүй	-6413
▁лтийг	-6414
▁ороон	-6415
▁үүлнэ	-6416
ИД	-6417
act	-6418
▁01	-6419
▁46	-6420
▁Cr	-6421
▁LI	-6422
▁VI	-6423
▁ЕГ	-6424
▁бр	-6425
▁яц	-6426
▁ine	-6427
▁алу	-6428
▁глө	-6429
▁мсө	-6430
▁рей	-6431
▁эвс	-6432
▁Sams	-6433
▁аяар	-6434
▁лжиг	-6435
▁ргын	-6436
▁өхий	-6437
▁бидэн	-6438
▁гарда	-6439
▁длого	-6440
▁логик	-6441
▁үдээс	-6442
▁өрөнг	-6443
ca	-6444
co	-6445
na	-6446
uss	-6447
▁1:	-6448
▁47	-6449
▁ОД	-6450
▁Ama	-6451
▁For	-6452
▁Jan	-6453
▁ирц	-6454
▁лхэ	-6455
▁пуу	-6456
▁учи	-6457
▁өөц	-6458
▁Free	-6459
▁аатг	-6460
▁айрт	-6461
▁айры	-6462
▁зөвш	-6463
▁рхүү	-6464
▁шилд	-6465
▁Гадаа	-6466
▁рдүүл	-6467
ara	-6468
ойн	-6469
▁Fl	-6470
▁Go	-6471
▁IT	-6472
▁LE	-6473
▁So	-6474
▁br	-6475
▁бл	-6476
▁уц	-6477
▁Үе	-6478
▁Apr	-6479
▁Man	-6480
▁Хац	-6481
▁иад	-6482
▁ндл	-6483
▁рос	-6484
▁сог	-6485
▁алет	-6486
▁атал	-6487
▁гнуу	-6488
▁заас	-6489
▁сдын	-6490
▁World	-6491
▁дөрвө	-6492
▁ллага	-6493
▁лосон	-6494
▁уртай	-6495
▁уулал	-6496
▁өхцөл	-6497
▁}	-6498
▁2:	-6499
▁HT	-6500
▁op	-6501
▁КО	-6502
▁Мэ	-6503
▁УТ	-6504
▁зө	-6505
atch	-6506
▁All	-6507
▁nce	-6508
▁ЖИЛ	-6509
▁рат	-6510
▁рус	-6511
▁шүд	-6512
▁өчи	-6513
▁вчин	-6514
▁тээг	-6515
▁уйда	-6516
▁учин	-6517
▁хдаа	-6518
▁эгий	-6519
▁үрэх	-6520
▁өрөм	-6521
▁гарал	-6522
▁тэдэн	-6523
FC	-6524
ЕС	-6525
НГ	-6526
Эх	-6527
фа	-6528
▁ИХ	-6529
▁ЛЭГ	-6530
▁ТЭЙ	-6531
▁Тал	-6532
▁еги	-6533
▁ихс	-6534
▁нах	-6535
▁тух	-6536
▁ьта	-6537
▁эви	-6538
▁үрг	-6539
▁Тэгэ	-6540
▁аарх	-6541
▁всан	-6542
▁жаал	-6543
▁лайн	-6544
▁лгөө	-6545
▁лцох	-6546
▁манд	-6547
▁ранд	-6548
▁туга	-6549
▁үсэл	-6550
▁аймги	-6551
▁улдаг	-6552
▁хөөрө	-6553
үн	-6554
▁8.	-6555
▁AP	-6556
▁As	-6557
▁lt	-6558
▁ИД	-6559
▁цы	-6560
▁pro	-6561
▁ГАА	-6562
▁Лам	-6563
▁Сур	-6564
▁гоц	-6565
▁ион	-6566
▁ува	-6567
▁өмд	-6568
▁сгээ	-6569
▁тагт	-6570
▁шинд	-6571
▁элмэ	-6572
▁лааса	-6573
▁лэгдэ	-6574
▁огийн	-6575
ke	-6576
ata	-6577
ани	-6578
▁мє	-6579
▁Min	-6580
▁Вик	-6581
▁Оны	-6582
▁аях	-6583
▁ива	-6584
▁окс	-6585
▁ЭДЭЭ	-6586
▁лала	-6587
▁лгүү	-6588
▁оооо	-6589
▁рлээ	-6590
▁ртал	-6591
▁рээс	-6592
▁тгэн	-6593
▁угай	-6594
▁ндлаг	-6595
▁тгэсэ	-6596
▁өөрөл	-6597
de	-6598
tt	-6599
бэ	-6600
сс	-6601
фл	-6602
иза	-6603
▁РД	-6604
▁рз	-6605
▁ёр	-6606
▁3-4	-6607
▁Oct	-6608
▁Дүү	-6609
▁йдэ	-6610
▁рхэ	-6611
▁сэж	-6612
▁Паул	-6613
▁Түүн	-6614
▁ваар	-6615
▁йдаг	-6616
▁онсо	-6617
▁ронз	-6618
▁скар	-6619
▁теле	-6620
▁улта	-6621
▁улэг	-6622
▁эдрэ	-6623
▁алдаж	-6624
▁инсти	-6625
▁рүүлж	-6626
▁элцэх	-6627
ХАЙ	-6628
дак	-6629
рон	-6630
▁06	-6631
▁Ed	-6632
▁Ge	-6633
▁ЖД	-6634
▁ЫН	-6635
▁нб	-6636
▁тм	-6637
▁Med	-6638
▁Бүс	-6639
▁ДӨР	-6640
▁ахь	-6641
▁гнө	-6642
▁йро	-6643
▁оды	-6644
▁рши	-6645
▁ума	-6646
▁үлг	-6647
▁Casi	-6648
▁лиар	-6649
▁нхий	-6650
▁уулд	-6651
▁хиро	-6652
▁хлэг	-6653
▁хүрг	-6654
▁чоод	-6655
▁амтра	-6656
▁гацаа	-6657
AD	-6658
cc	-6659
io	-6660
oot	-6661
▁as	-6662
▁my	-6663
▁Ча	-6664
▁дж	-6665
▁Тоо	-6666
▁лдр	-6667
▁лза	-6668
▁овг	-6669
▁icle	-6670
▁анах	-6671
▁галд	-6672
▁наан	-6673
▁ргас	-6674
▁хөөс	-6675
▁эсэн	-6676
▁үрэм	-6677
▁алгах	-6678
df	-6679
ён	-6680
ank	-6681
ose	-6682
▁54	-6683
▁TV	-6684
▁UB	-6685
▁Ub	-6686
▁ph	-6687
▁Ру	-6688
▁хт	-6689
▁1.5	-6690
▁Joh	-6691
▁Айл	-6692
▁Амь	-6693
▁ХҮН	-6694
▁нды	-6695
▁ред	-6696
▁рөл	-6697
▁соо	-6698
▁трэ	-6699
▁чуу	-6700
▁эдү	-6701
▁more	-6702
▁дгий	-6703
▁зорч	-6704
▁нсар	-6705
▁овор	-6706
▁удар	-6707
▁гүүлс	-6708
▁тгүүл	-6709
▁үнэнд	-6710
▁өлөгч	-6711
AC	-6712
AT	-6713
▁pe	-6714
▁НЭ	-6715
▁ТА	-6716
▁ҮЙ	-6717
▁АЙР	-6718
▁АТО	-6719
▁ИНЭ	-6720
▁ади	-6721
▁вра	-6722
▁нир	-6723
▁рма	-6724
▁рьц	-6725
▁сда	-6726
▁цын	-6727
▁шав	-6728
▁анза	-6729
▁гаат	-6730
▁ихсан	-6731
▁токол	-6732
▁хэтэр	-6733
УС	-6734
от	-6735
▁€	-6736
▁←	-6737
ala	-6738
ays	-6739
▁53	-6740
▁Em	-6741
▁Ёс	-6742
▁ОВ	-6743
▁УХ	-6744
▁One	-6745
▁айк	-6746
▁лис	-6747
▁рсө	-6748
▁ршл	-6749
▁More	-6750
▁анта	-6751
▁илла	-6752
▁лгад	-6753
▁ндүү	-6754
▁раас	-6755
▁рхлэ	-6756
▁эрхт	-6757
▁Хүүхэ	-6758
▁агдса	-6759
▁ангаа	-6760
▁ерийн	-6761
▁лахад	-6762
SS	-6763
ОГ	-6764
бе	-6765
oom	-6766
▁64	-6767
▁sa	-6768
▁БТ	-6769
▁ХД	-6770
▁ХЯ	-6771
▁New	-6772
▁Гэж	-6773
▁Нүү	-6774
▁Уур	-6775
▁дул	-6776
▁нол	-6777
▁орн	-6778
▁ment	-6779
▁ичээ	-6780
▁лате	-6781
▁оонд	-6782
▁ргөн	-6783
▁рдаа	-6784
▁тери	-6785
▁эндэ	-6786
▁айден	-6787
▁лүүлэ	-6788
▁нэртэ	-6789
уд	-6790
▁ba	-6791
▁Ун	-6792
▁ЭС	-6793
▁жм	-6794
▁иб	-6795
▁ых	-6796
▁Dec	-6797
▁ИАТ	-6798
▁УУР	-6799
▁зул	-6800
▁кад	-6801
▁цөх	-6802
▁эсг	-6803
▁өвт	-6804
▁варг	-6805
▁голч	-6806
▁нцуй	-6807
▁охоо	-6808
▁уурх	-6809
▁хуйн	-6810
▁ацаан	-6811
▁гатай	-6812
▁лттэй	-6813
▁нзаар	-6814
▁эггүй	-6815
еф	-6816
ere	-6817
▁(4	-6818
▁ha	-6819
▁ip	-6820
▁ДХ	-6821
▁pdf	-6822
▁ОТО	-6823
▁бөг	-6824
▁дри	-6825
▁рхл	-6826
▁ймаа	-6827
▁ооло	-6828
▁убай	-6829
▁Black	-6830
▁лахыг	-6831
▁луулж	-6832
ON	-6833
сє	-6834
ша	-6835
▁️	-6836
▁04	-6837
▁72	-6838
▁ID	-6839
▁he	-6840
▁ot	-6841
▁4-5	-6842
▁Гэх	-6843
▁арм	-6844
▁жиш	-6845
▁йла	-6846
▁кай	-6847
▁лэр	-6848
▁ойш	-6849
▁сси	-6850
▁хэж	-6851
▁эмц	-6852
▁лган	-6853
▁мэйн	-6854
▁өөрс	-6855
▁рээнд	-6856
▁эмжээ	-6857
AM	-6858
жа	-6859
▁¬	-6860
org	-6861
они	-6862
▁#1	-6863
▁56	-6864
▁Ja	-6865
▁бс	-6866
▁тч	-6867
ount	-6868
▁лта	-6869
▁лцэ	-6870
▁фит	-6871
▁эст	-6872
▁боов	-6873
▁даар	-6874
▁дээс	-6875
▁рдан	-6876
▁роод	-6877
▁улза	-6878
▁хувил	-6879
▁үүлэл	-6880
me	-6881
ux	-6882
ИР	-6883
лл	-6884
ҮБ	-6885
ict	-6886
▁07	-6887
▁IN	-6888
▁IV	-6889
▁On	-6890
▁ЭГ	-6891
▁тк	-6892
▁эф	-6893
▁Aug	-6894
▁ain	-6895
▁Нью	-6896
▁УГЖ	-6897
▁гач	-6898
▁дда	-6899
▁зоо	-6900
▁одн	-6901
▁омо	-6902
▁сув	-6903
▁цса	-6904
▁ялж	-6905
▁азаа	-6906
▁алиа	-6907
▁арак	-6908
▁ндат	-6909
▁удыг	-6910
▁эгжи	-6911
▁элсн	-6912
▁өлөн	-6913
▁итлер	-6914
IS	-6915
ge	-6916
▁′	-6917
аль	-6918
▁05	-6919
▁3,	-6920
▁66	-6921
▁98	-6922
▁CD	-6923
▁Gu	-6924
▁ЛА	-6925
▁аи	-6926
▁ard	-6927
▁ДТГ	-6928
▁Түр	-6929
▁гаг	-6930
▁жүү	-6931
▁олу	-6932
▁ршр	-6933
▁түг	-6934
▁чдэ	-6935
▁этр	-6936
▁John	-6937
▁quot	-6938
▁залг	-6939
▁игер	-6940
▁лтга	-6941
▁малн	-6942
▁одог	-6943
▁оруу	-6944
▁риал	-6945
▁уваа	-6946
▁эрхш	-6947
▁луула	-6948
▁мазон	-6949
▁толик	-6950
▁урвал	-6951
MS	-6952
ish	-6953
oto	-6954
uto	-6955
▁02	-6956
▁Br	-6957
▁PR	-6958
▁Pe	-6959
▁sc	-6960
▁Жу	-6961
▁лю	-6962
▁ica	-6963
▁НЕС	-6964
▁НҮБ	-6965
▁Онц	-6966
▁гну	-6967
▁жан	-6968
▁лек	-6969
▁мхи	-6970
▁усл	-6971
▁ягт	-6972
▁агын	-6973
▁ранк	-6974
▁рсон	-6975
▁ӨВЛӨ	-6976
▁posts	-6977
ww	-6978
▁62	-6979
▁Dr	-6980
▁ee	-6981
▁СШ	-6982
▁кү	-6983
▁Sun	-6984
▁Хил	-6985
▁Хог	-6986
▁ЭЗҮ	-6987
▁асы	-6988
▁бра	-6989
▁вөн	-6990
▁лгө	-6991
▁лса	-6992
▁ндө	-6993
▁эко	-6994
▁ҮҮХ	-6995
▁алтг	-6996
▁ооро	-6997
▁ранс	-6998
▁трал	-6999
▁чанд	-7000
▁рууда	-7001
▁үрсэн	-7002
▁өнхий	-7003
AL	-7004
др	-7005
▁9.	-7006
▁Si	-7007
▁wr	-7008
▁РХ	-7009
▁чг	-7010
▁Үд	-7011
▁iOS	-7012
▁Сай	-7013
▁мул	-7014
▁раз	-7015
▁сой	-7016
▁чра	-7017
▁йхан	-7018
▁лдоо	-7019
▁оодо	-7020
▁шгий	-7021
▁эсрэ	-7022
▁аргад	-7023
▁лдсан	-7024
▁надаа	-7025
▁нэлээ	-7026
▁нэтхэ	-7027
▁ррори	-7028
▁урсан	-7029
TE	-7030
pe	-7031
ys	-7032
▁\	-7033
ase	-7034
ала	-7035
оро	-7036
▁BI	-7037
▁CN	-7038
▁Ha	-7039
▁Mo	-7040
▁ЭВ	-7041
▁Эн	-7042
▁(3)	-7043
▁www	-7044
▁Дан	-7045
▁Нүд	-7046
▁Ойр	-7047
▁Чан	-7048
▁ати	-7049
▁ато	-7050
▁бул	-7051
▁ввв	-7052
▁гсн	-7053
▁дэт	-7054
▁ерн	-7055
▁сох	-7056
▁экс	-7057
▁Book	-7058
▁Эрдэ	-7059
▁жилч	-7060
▁инте	-7061
▁ирус	-7062
▁ргэж	-7063
▁рээр	-7064
▁чихв	-7065
▁өвий	-7066
▁рдсан	-7067
▁уудай	-7068
▁үдийн	-7069
BC	-7070
ML	-7071
ga	-7072
ЬД	-7073
Юу	-7074
па	-7075
eek	-7076
ode	-7077
out	-7078
▁MI	-7079
▁UR	-7080
▁nd	-7081
▁ОГ	-7082
▁ЭХ	-7083
▁йс	-7084
▁Big	-7085
▁Jul	-7086
▁alt	-7087
▁Зун	-7088
▁бье	-7089
▁вья	-7090
▁има	-7091
▁реф	-7092
▁рэв	-7093
▁сте	-7094
▁тив	-7095
▁үйн	-7096
▁sort	-7097
▁амта	-7098
▁нэрт	-7099
▁омжи	-7100
▁рлах	-7101
▁ртын	-7102
▁хлэн	-7103
▁ээтэ	-7104
▁үлэн	-7105
▁үртг	-7106
▁өгий	-7107
▁Цагаа	-7108
▁аагий	-7109
▁алчир	-7110
▁амтла	-7111
▁араар	-7112
▁мэдэр	-7113
▁улаам	-7114
▁өртөө	-7115
гт	-7116
ез	-7117
яя	-7118
аго	-7119
ней	-7120
▁(5	-7121
▁aa	-7122
▁os	-7123
ussy	-7124
▁Ser	-7125
▁Мат	-7126
▁Пол	-7127
▁аны	-7128
▁вьд	-7129
▁дом	-7130
▁лжэ	-7131
▁нхи	-7132
▁оло	-7133
▁урм	-7134
▁АЙНА	-7135
▁лууг	-7136
▁ооцо	-7137
▁рлан	-7138
▁рмис	-7139
▁длийг	-7140
▁ельги	-7141
ТА	-7142
▁●	-7143
ХАН	-7144
▁Ci	-7145
▁Po	-7146
▁Sw	-7147
▁50%	-7148
▁Sem	-7149
▁ГӨӨ	-7150
▁ЖДҮ	-7151
▁ЛАГ	-7152
▁НИЙ	-7153
▁Хав	-7154
▁аму	-7155
▁жид	-7156
▁йлс	-7157
▁йти	-7158
▁лэм	-7159
▁нон	-7160
▁пол	-7161
▁шта	-7162
▁эро	-7163
▁ээн	-7164
▁Game	-7165
▁арыг	-7166
▁зүтг	-7167
▁лбир	-7168
▁аанаа	-7169
▁алдан	-7170
▁гадла	-7171
▁дотро	-7172
▁ндсэн	-7173
▁онгуу	-7174
▁рсдэл	-7175
▁эгдэж	-7176
10	-7177
НЭ	-7178
Уг	-7179
нь	-7180
ike	-7181
ith	-7182
ика	-7183
▁5,	-7184
▁>>	-7185
▁pr	-7186
▁НЫ	-7187
▁ШУ	-7188
▁бж	-7189
▁ия	-7190
▁700	-7191
▁Bet	-7192
▁Mon	-7193
▁АБЗ	-7194
▁Лал	-7195
▁Пер	-7196
▁дни	-7197
▁йлу	-7198
▁ндэ	-7199
▁нөм	-7200
▁хна	-7201
▁алчи	-7202
▁орло	-7203
▁игери	-7204
▁өрөөн	-7205
ОР	-7206
ЭМ	-7207
ьф	-7208
ёо	-7209
її	-7210
ull	-7211
▁03	-7212
▁IE	-7213
▁Sk	-7214
▁Sm	-7215
▁йц	-7216
▁10,	-7217
▁Sup	-7218
▁USB	-7219
▁ner	-7220
▁Дав	-7221
▁Мод	-7222
▁СУУ	-7223
▁имэ	-7224
▁льц	-7225
▁ххх	-7226
▁яав	-7227
▁үүк	-7228
▁амди	-7229
▁даац	-7230
▁лиза	-7231
▁ссан	-7232
▁ууга	-7233
▁чихэ	-7234
▁иймээ	-7235
▁оолой	-7236
▁руулж	-7237
▁татга	-7238
ox	-7239
ег	-7240
хе	-7241
ttp	-7242
▁AR	-7243
▁RE	-7244
▁ai	-7245
▁iz	-7246
▁ru	-7247
▁ГД	-7248
▁ИЧ	-7249
▁ЛС	-7250
▁пр	-7251
▁Net	-7252
▁con	-7253
▁БТЗ	-7254
▁Бар	-7255
▁Иос	-7256
▁ЛАХ	-7257
▁Лив	-7258
▁Лос	-7259
▁СЕМ	-7260
▁ашё	-7261
▁гог	-7262
▁йна	-7263
▁лөв	-7264
▁рта	-7265
▁юмс	-7266
▁яая	-7267
▁үгэ	-7268
▁өхд	-7269
▁бэрэ	-7270
▁инал	-7271
▁одой	-7272
▁сэрж	-7273
▁хари	-7274
▁аваар	-7275
▁алгар	-7276
▁гаана	-7277
▁йлчлэ	-7278
▁редак	-7279
▁сахар	-7280
▁эгдүү	-7281
▁ђ	-7282
▁59	-7283
▁Qu	-7284
▁if	-7285
▁mo	-7286
▁ГХ	-7287
▁ЛТ	-7288
▁СЯ	-7289
▁Фл	-7290
▁ХС	-7291
ound	-7292
▁???	-7293
▁ies	-7294
▁Алс	-7295
▁Тай	-7296
▁био	-7297
▁бир	-7298
▁вын	-7299
▁гей	-7300
▁ида	-7301
▁ижи	-7302
▁угл	-7303
▁Love	-7304
▁fuck	-7305
▁http	-7306
▁голы	-7307
▁дгээ	-7308
▁дэвх	-7309
▁нхор	-7310
▁нших	-7311
▁члаа	-7312
▁өлдө	-7313
▁андла	-7314
IN	-7315
ИМ	-7316
ЭТ	-7317
ме	-7318
єв	-7319
ari	-7320
мнє	-7321
▁08	-7322
▁Do	-7323
▁cl	-7324
▁da	-7325
▁su	-7326
▁wh	-7327
▁Exp	-7328
▁cat	-7329
▁che	-7330
▁ОАЖ	-7331
▁Рай	-7332
▁гөд	-7333
▁ери	-7334
▁лат	-7335
▁лдг	-7336
▁рип	-7337
▁анли	-7338
▁байс	-7339
▁данд	-7340
▁лаач	-7341
▁стер	-7342
▁стин	-7343
▁тааг	-7344
▁цага	-7345
▁үхий	-7346
▁wrote	-7347
▁алгаж	-7348
▁байга	-7349
▁боолт	-7350
▁индэр	-7351
▁лазер	-7352
▁рлийн	-7353
▁улсан	-7354
▁эрээс	-7355
..	-7356
зе	-7357
ach	-7358
olo	-7359
ood	-7360
вот	-7361
ный	-7362
▁88	-7363
▁IQ	-7364
▁Op	-7365
▁Ra	-7366
▁fl	-7367
▁ke	-7368
▁ld	-7369
▁Con	-7370
▁nat	-7371
▁БЕГ	-7372
▁ЛАЛ	-7373
▁всэ	-7374
▁еее	-7375
▁лиу	-7376
▁нит	-7377
▁оди	-7378
▁олц	-7379
▁сна	-7380
▁энч	-7381
▁face	-7382
▁бокс	-7383
▁нээн	-7384
▁рхол	-7385
▁ээрэ	-7386
▁барла	-7387
▁орхой	-7388
▁урсга	-7389
OR	-7390
ЗХ	-7391
ада	-7392
ком	-7393
▁EN	-7394
▁fi	-7395
▁xy	-7396
▁МЭ	-7397
▁ОЁ	-7398
▁Це	-7399
▁11,	-7400
▁Can	-7401
▁Eng	-7402
▁NBA	-7403
▁War	-7404
▁Луу	-7405
▁Ням	-7406
▁Чен	-7407
▁арш	-7408
▁жав	-7409
▁кан	-7410
▁лэй	-7411
▁нав	-7412
▁нхэ	-7413
▁рчл	-7414
▁тла	-7415
▁ѳѳр	-7416
▁үхэ	-7417
▁өнц	-7418
▁арда	-7419
▁лизи	-7420
▁одож	-7421
▁пани	-7422
▁ршин	-7423
▁үчин	-7424
▁эмээх	-7425
▁эээээ	-7426
ке	-7427
эк	-7428
▁¿	-7429
arl	-7430
▁79	-7431
▁8,	-7432
▁86	-7433
▁Di	-7434
▁mp	-7435
▁ow	-7436
▁БА	-7437
▁ГО	-7438
▁ЕШ	-7439
▁ЮУ	-7440
▁вл	-7441
▁жэ	-7442
▁хе	-7443
ideo	-7444
▁180	-7445
▁Chi	-7446
▁str	-7447
▁Жин	-7448
▁Зур	-7449
▁ЛЭЛ	-7450
▁авж	-7451
▁где	-7452
▁дгэ	-7453
▁йрх	-7454
▁мит	-7455
▁топ	-7456
▁шээ	-7457
▁Huaw	-7458
▁Куба	-7459
▁болч	-7460
▁була	-7461
▁жийг	-7462
▁йдэг	-7463
▁лсны	-7464
▁отод	-7465
▁сгүй	-7466
▁өрий	-7467
▁харам	-7468
▁чихсо	-7469
▁яагаа	-7470
бу	-7471
III	-7472
oup	-7473
yle	-7474
ЛЭГ	-7475
или	-7476
▁1/	-7477
▁4,	-7478
▁4:	-7479
▁87	-7480
▁CE	-7481
▁ER	-7482
▁PS	-7483
▁МЖ	-7484
▁УН	-7485
▁рү	-7486
▁Dis	-7487
▁Web	-7488
▁АЯР	-7489
▁Лиг	-7490
▁Мэс	-7491
▁Цас	-7492
▁алы	-7493
▁дла	-7494
▁дун	-7495
▁раф	-7496
▁рэд	-7497
▁ска	-7498
▁тел	-7499
▁гарз	-7500
▁йлдэ	-7501
▁наач	-7502
▁ндуу	-7503
▁ханы	-7504
▁айдын	-7505
▁аламж	-7506
▁мэгдү	-7507
▁огдох	-7508
▁ралын	-7509
▁рханы	-7510
ha	-7511
ИХ	-7512
uro	-7513
ера	-7514
зай	-7515
ков	-7516
▁(6	-7517
▁2)	-7518
▁68	-7519
▁AS	-7520
▁ON	-7521
▁ST	-7522
▁^^	-7523
▁Ау	-7524
▁Ри	-7525
▁СС	-7526
▁Bat	-7527
▁Fin	-7528
▁IPO	-7529
▁Nat	-7530
▁XXI	-7531
▁ile	-7532
▁ton	-7533
▁ААТ	-7534
▁вэй	-7535
▁гуч	-7536
▁зга	-7537
▁зол	-7538
▁эль	-7539
▁янь	-7540
▁Cont	-7541
▁HTML	-7542
▁What	-7543
▁ЭРЭГ	-7544
▁дахи	-7545
▁еийн	-7546
▁итэм	-7547
▁лмаа	-7548
▁огто	-7549
▁тгээ	-7550
▁борло	-7551
▁нэрий	-7552
▁ойгоо	-7553
▁ткойн	-7554
▁ээдэг	-7555
**	-7556
еш	-7557
уг	-7558
ял	-7559
▁һ	-7560
ель	-7561
име	-7562
▁0.	-7563
▁92	-7564
▁GB	-7565
▁SS	-7566
▁di	-7567
▁ii	-7568
▁ob	-7569
▁sm	-7570
▁РИ	-7571
▁эп	-7572
▁Pol	-7573
▁bar	-7574
▁est	-7575
▁Иак	-7576
▁Сон	-7577
▁Фин	-7578
▁Хас	-7579
▁бэх	-7580
▁дэй	-7581
▁йга	-7582
▁утл	-7583
▁хит	-7584
▁Auto	-7585
▁агну	-7586
▁айса	-7587
▁алса	-7588
▁атер	-7589
▁байт	-7590
▁гарг	-7591
▁гата	-7592
▁двал	-7593
▁ийдэ	-7594
▁илал	-7595
▁илья	-7596
▁инфл	-7597
▁нгой	-7598
▁ргуй	-7599
▁римд	-7600
▁стор	-7601
▁ємнє	-7602
▁өлгө	-7603
▁дуула	-7604
▁йчүүд	-7605
▁рийнх	-7606
▁ршрут	-7607
li	-7608
мо	-7609
ый	-7610
ыт	-7611
яд	-7612
▁😀	-7613
она	-7614
▁La	-7615
▁fr	-7616
▁id	-7617
▁ms	-7618
▁НЬ	-7619
▁ОЙ	-7620
▁ть	-7621
▁ҮГ	-7622
▁130	-7623
▁5-6	-7624
▁Bit	-7625
▁Don	-7626
▁Rep	-7627
▁bat	-7628
▁cap	-7629
▁ert	-7630
▁Мас	-7631
▁Орж	-7632
▁бли	-7633
▁вьс	-7634
▁гуя	-7635
▁еви	-7636
▁хиа	-7637
▁ҮЙЛ	-7638
▁ҮҮР	-7639
▁өвг	-7640
▁Blue	-7641
▁Dorg	-7642
▁Java	-7643
▁work	-7644
▁Ханд	-7645
▁амбо	-7646
▁амты	-7647
▁англ	-7648
▁байд	-7649
▁бэлэ	-7650
▁гала	-7651
▁дала	-7652
▁енне	-7653
▁квот	-7654
▁лалы	-7655
▁нхээ	-7656
▁төгс	-7657
▁чанг	-7658
▁Иаков	-7659
▁амгай	-7660
▁ариуц	-7661
▁лгааг	-7662
US	-7663
te	-7664
кү	-7665
по	-7666
cel	-7667
ИЙГ	-7668
бби	-7669
▁74	-7670
▁96	-7671
▁Aw	-7672
▁DV	-7673
▁Je	-7674
▁UN	-7675
▁ye	-7676
▁Зи	-7677
▁ТҮ	-7678
▁дь	-7679
▁ѳг	-7680
ight	-7681
▁140	-7682
▁3-5	-7683
▁900	-7684
▁Des	-7685
▁Sep	-7686
▁Tim	-7687
▁Toy	-7688
▁way	-7689
▁ИЙГ	-7690
▁Нэн	-7691
▁Рок	-7692
▁Сүү	-7693
▁ану	-7694
▁ауд	-7695
▁вон	-7696
▁жон	-7697
▁илс	-7698
▁инь	-7699
▁оги	-7700
▁поп	-7701
▁сдэ	-7702
▁төй	-7703
▁үзэ	-7704
▁Star	-7705
▁блет	-7706
▁втом	-7707
▁одох	-7708
▁омдо	-7709
▁рхал	-7710
▁сони	-7711
▁урши	-7712
▁хойг	-7713
▁цуул	-7714
▁элүү	-7715
▁барын	-7716
▁лекул	-7717
▁хялба	-7718
KE	-7719
ka	-7720
ni	-7721
НХ	-7722
НЫ	-7723
ше	-7724
ade	-7725
▁Pa	-7726
▁gi	-7727
▁tr	-7728
▁ЛБ	-7729
▁ее	-7730
▁єл	-7731
▁2.5	-7732
▁Iph	-7733
▁Pow	-7734
▁Pri	-7735
▁ang	-7736
▁nes	-7737
▁tre	-7738
▁Кол	-7739
▁ОНЦ	-7740
▁Рио	-7741
▁күү	-7742
▁лгу	-7743
▁рес	-7744
▁руб	-7745
▁чны	-7746
▁шөл	-7747
▁ямд	-7748
▁Park	-7749
▁load	-7750
▁амна	-7751
▁мэгц	-7752
▁нукс	-7753
▁тийг	-7754
▁түүд	-7755
▁ууса	-7756
▁чний	-7757
▁шүүн	-7758
▁язга	-7759
▁үүмж	-7760
▁агдан	-7761
▁ахилг	-7762
▁рсөлд	-7763
▁тайва	-7764
▁эллээ	-7765
▁эмчил	-7766
DF	-7767
TV	-7768
ЭА	-7769
ink	-7770
irl	-7771
ock	-7772
ool	-7773
oud	-7774
▁6,	-7775
▁61	-7776
▁71	-7777
▁84	-7778
▁CV	-7779
▁XI	-7780
▁bi	-7781
▁gy	-7782
▁ka	-7783
▁БХ	-7784
▁ЛИ	-7785
▁нр	-7786
▁350	-7787
▁Feb	-7788
▁Gre	-7789
▁Ind	-7790
▁LED	-7791
▁Out	-7792
▁Sec	-7793
▁ara	-7794
▁Аан	-7795
▁БСБ	-7796
▁Бүү	-7797
▁Вал	-7798
▁Лай	-7799
▁гту	-7800
▁зүс	-7801
▁идэ	-7802
▁ика	-7803
▁иль	-7804
▁лих	-7805
▁нур	-7806
▁ссо	-7807
▁тад	-7808
▁хэй	-7809
▁эгц	-7810
▁ҮОН	-7811
▁үер	-7812
▁Fore	-7813
▁Gala	-7814
▁Mast	-7815
▁Plus	-7816
▁back	-7817
▁Бела	-7818
▁гүйд	-7819
▁маца	-7820
▁тана	-7821
▁уулс	-7822
▁өтөл	-7823
▁Иосеф	-7824
▁Лабор	-7825
▁аудио	-7826
▁ильям	-7827
▁иулах	-7828
▁ламжи	-7829
▁лахын	-7830
▁рипто	-7831
ЭД	-7832
зз	-7833
шр	-7834
ъя	-7835
єн	-7836
ӨХ	-7837
Өө	-7838
▁à	-7839
▁ò	-7840
▁ا	-7841
ара	-7842
ода	-7843
одк	-7844
▁(8	-7845
▁3:	-7846
▁69	-7847
▁CP	-7848
▁IC	-7849
▁Ke	-7850
▁MS	-7851
▁TH	-7852
▁ЦС	-7853
▁бд	-7854
▁йв	-7855
▁ьц	-7856
▁ѳр	-7857
▁ӨГ	-7858
▁APS	-7859
▁Gen	-7860
▁Per	-7861
▁per	-7862
▁Чех	-7863
▁бог	-7864
▁вил	-7865
▁инт	-7866
▁мөс	-7867
▁омд	-7868
▁орц	-7869
▁пиз	-7870
▁эвх	-7871
▁элн	-7872
▁Prev	-7873
▁АБЭА	-7874
▁Нара	-7875
▁ахда	-7876
▁бүрэ	-7877
▁енни	-7878
▁мааг	-7879
▁магц	-7880
▁энди	-7881
▁энээ	-7882
▁үлгэ	-7883
▁Count	-7884
OM	-7885
vo	-7886
дє	-7887
ҮХ	-7888
үг	-7889
▁©	-7890
its	-7891
▁7,	-7892
▁81	-7893
▁97	-7894
▁Pr	-7895
▁SH	-7896
▁ГА	-7897
▁ТБ	-7898
▁Чө	-7899
▁дс	-7900
▁ии	-7901
ouse	-7902
▁(4)	-7903
▁Ent	-7904
▁Pay	-7905
▁Yah	-7906
▁rip	-7907
▁win	-7908
▁бга	-7909
▁вла	-7910
▁дюс	-7911
▁ичи	-7912
▁рым	-7913
▁сто	-7914
▁уса	-7915
▁хус	-7916
▁эти	-7917
▁атах	-7918
▁байн	-7919
▁илет	-7920
▁нзаа	-7921
▁ншиж	-7922
▁олол	-7923
▁сама	-7924
▁цлаг	-7925
▁энэр	-7926
▁йхгүй	-7927
▁элдэх	-7928
▁үнээс	-7929
TA	-7930
be	-7931
ОЙ	-7932
ОМ	-7933
ча	-7934
▁ѐ	-7935
НГУ	-7936
ути	-7937
эль	-7938
▁-1	-7939
▁73	-7940
▁ME	-7941
▁[1	-7942
▁ig	-7943
▁ny	-7944
▁so	-7945
▁ДС	-7946
▁Йе	-7947
▁МТ	-7948
▁СХ	-7949
▁Эй	-7950
▁хч	-7951
▁Mob	-7952
▁are	-7953
▁int	-7954
▁ret	-7955
▁ual	-7956
▁yun	-7957
▁ДАА	-7958
▁Жан	-7959
▁ЗХУ	-7960
▁НЭГ	-7961
▁Огт	-7962
▁арн	-7963
▁бин	-7964
▁вед	-7965
▁иам	-7966
▁лби	-7967
▁нац	-7968
▁нгл	-7969
▁ндг	-7970
▁рда	-7971
▁спо	-7972
▁ьсо	-7973
▁үлж	-7974
▁үрж	-7975
▁Amer	-7976
▁Comp	-7977
▁iPad	-7978
▁БНГУ	-7979
▁Флор	-7980
▁айжа	-7981
▁лена	-7982
▁ллэг	-7983
▁лори	-7984
▁мөрө	-7985
▁онни	-7986
▁ргей	-7987
▁рдах	-7988
▁рэлд	-7989
▁свэл	-7990
▁угал	-7991
▁үдүү	-7992
▁Covid	-7993
▁артер	-7994
▁гагүй	-7995
▁игтай	-7996
▁тэгээ	-7997
▁эсгий	-7998
ba	-7999
za	-8000
ИО	-8001
ИУ	-8002
НН	-8003
ЦС	-8004
нер	-8005
▁67	-8006
▁82	-8007
▁AN	-8008
▁Hi	-8009
▁Mu	-8010
▁Or	-8011
▁Sy	-8012
▁iv	-8013
▁Ги	-8014
▁СБ	-8015
▁бб	-8016
▁еф	-8017
▁тв	-8018
▁хм	-8019
▁хє	-8020
▁BSD	-8021
▁DVD	-8022
▁ago	-8023
▁her	-8024
▁АНД	-8025
▁Ийн	-8026
▁Иов	-8027
▁Сул	-8028
▁Шри	-8029
▁ару	-8030
▁ату	-8031
▁дак	-8032
▁кин	-8033
▁лак	-8034
▁лес	-8035
▁лик	-8036
▁мьд	-8037
▁нге	-8038
▁нос	-8039
▁нса	-8040
▁нум	-8041
▁чен	-8042
▁life	-8043
▁ХААР	-8044
▁адра	-8045
▁анду	-8046
▁жигл	-8047
▁лний	-8048
▁ньян	-8049
▁пүүл	-8050
▁саан	-8051
▁тгор	-8052
▁чинг	-8053
▁үлий	-8054
▁айгүй	-8055
▁алалт	-8056
▁дуулж	-8057
▁үлжээ	-8058
▁›	-8059
▁↑	-8060
ГЭМ	-8061
ИЛЦ	-8062
лик	-8063
єрє	-8064
▁1)	-8065
▁77	-8066
▁78	-8067
▁CS	-8068
▁Ca	-8069
▁MA	-8070
▁Mc	-8071
▁NO	-8072
▁OE	-8073
▁gu	-8074
▁МА	-8075
▁РГ	-8076
▁ШТ	-8077
▁20%	-8078
▁20,	-8079
▁Che	-8080
▁Day	-8081
▁Dur	-8082
▁ger	-8083
▁gra	-8084
▁ДХВ	-8085
▁Ева	-8086
▁НӨӨ	-8087
▁гүм	-8088
▁дма	-8089
▁лцл	-8090
▁нєх	-8091
▁рсо	-8092
▁цав	-8093
▁эвэ	-8094
▁lish	-8095
▁ress	-8096
▁time	-8097
▁ХААХ	-8098
▁апти	-8099
▁арий	-8100
▁архе	-8101
▁бель	-8102
▁нанд	-8103
▁рлэх	-8104
▁чдад	-8105
▁эмдэ	-8106
▁эмтэ	-8107
▁єнгє	-8108
▁ИЙГЭМ	-8109
▁аланс	-8110
▁гээрэ	-8111
▁жилтн	-8112
▁иргиз	-8113
▁олгос	-8114
▁уузай	-8115
▁халта	-8116
▁эддэг	-8117
▁эдийг	-8118
IF	-8119
sp	-8120
ОК	-8121
вр	-8122
йн	-8123
▁►	-8124
ААР	-8125
зин	-8126
▁Ri	-8127
▁Su	-8128
▁TE	-8129
▁eg	-8130
▁ki	-8131
▁um	-8132
▁По	-8133
▁ХЦ	-8134
▁еб	-8135
▁22,	-8136
▁Det	-8137
▁Her	-8138
▁Wal	-8139
▁ant	-8140
▁can	-8141
▁gui	-8142
▁ААР	-8143
▁АЙН	-8144
▁АСА	-8145
▁ООО	-8146
▁Ойн	-8147
▁ТҮЦ	-8148
▁УСК	-8149
▁ЭЛХ	-8150
▁ЭНЭ	-8151
▁вер	-8152
▁все	-8153
▁дүй	-8154
▁нио	-8155
▁рид	-8156
▁рул	-8157
▁уни	-8158
▁ялг	-8159
▁Fire	-8160
▁Slot	-8161
▁port	-8162
▁УХАЙ	-8163
▁алдр	-8164
▁гени	-8165
▁ибер	-8166
▁ймаг	-8167
▁мафи	-8168
▁ндэс	-8169
▁окер	-8170
▁опул	-8171
▁элит	-8172
▁Excel	-8173
▁Linux	-8174
▁Photo	-8175
▁Times	-8176
▁алтаа	-8177
▁гэгдэ	-8178
▁ексон	-8179
▁икола	-8180
▁ирами	-8181
▁лагер	-8182
▁намик	-8183
▁рхийг	-8184
▁улхай	-8185
▁эгийн	-8186
▁эглэх	-8187
VE	-8188
ze	-8189
eet	-8190
али	-8191
илл	-8192
цца	-8193
▁63	-8194
▁Gl	-8195
▁PO	-8196
▁SP	-8197
▁Sn	-8198
▁ko	-8199
▁Ид	-8200
▁МС	-8201
▁ОС	-8202
▁Уй	-8203
▁зр	-8204
▁мк	-8205
▁чт	-8206
▁ال	-8207
▁110	-8208
▁15,	-8209
▁160	-8210
▁170	-8211
▁API	-8212
▁Bar	-8213
▁Red	-8214
▁Sky	-8215
▁des	-8216
▁oin	-8217
▁Бол	-8218
▁Бөх	-8219
▁МЬД	-8220
▁Цэц	-8221
▁Чат	-8222
▁виа	-8223
▁инч	-8224
▁лзэ	-8225
▁лси	-8226
▁нат	-8227
▁нгк	-8228
▁нде	-8229
▁шка	-8230
▁ьер	-8231
▁эдс	-8232
▁Hyun	-8233
▁bout	-8234
▁адаа	-8235
▁айши	-8236
▁босс	-8237
▁гтоо	-8238
▁доог	-8239
▁иргэ	-8240
▁монг	-8241
▁нзон	-8242
▁оосо	-8243
▁пүүз	-8244
▁ржээ	-8245
▁үүнэ	-8246
▁ААТАР	-8247
▁ллагы	-8248
▁рубль	-8249
▁эдсэн	-8250
UR	-8251
av	-8252
АД	-8253
их	-8254
тт	-8255
ӨВ	-8256
ӨГ	-8257
▁î	-8258
ush	-8259
бри	-8260
▁CR	-8261
▁Us	-8262
▁hy	-8263
▁vs	-8264
▁НМ	-8265
▁НТ	-8266
▁СТ	-8267
▁ЧД	-8268
▁вв	-8269
▁фо	-8270
▁че	-8271
▁ыл	-8272
▁ӨЛ	-8273
▁(5)	-8274
▁10.	-8275
▁24,	-8276
▁80%	-8277
▁Ang	-8278
▁Dow	-8279
▁Mot	-8280
▁Ste	-8281
▁URL	-8282
▁eng	-8283
▁goo	-8284
▁ort	-8285
▁АЙГ	-8286
▁Дур	-8287
▁Ирж	-8288
▁УЛС	-8289
▁лоу	-8290
▁нян	-8291
▁осы	-8292
▁уви	-8293
▁хоп	-8294
▁эвт	-8295
▁эрл	-8296
▁өсө	-8297
▁Jack	-8298
▁shop	-8299
▁УУЛЬ	-8300
▁аааа	-8301
▁анаж	-8302
▁арон	-8303
▁асна	-8304
▁имба	-8305
▁ллаж	-8306
▁мянг	-8307
▁рлэг	-8308
▁рэнг	-8309
▁сойз	-8310
▁урил	-8311
▁ээвр	-8312
▁үдэг	-8313
▁ӨХТГ	-8314
▁аардл	-8315
▁биоти	-8316
▁гэдий	-8317
▁лоход	-8318
▁рафон	-8319
▁сарын	-8320
▁элээс	-8321
▁үүрий	-8322
ЛТ	-8323
йй	-8324
НИЙ	-8325
айд	-8326
зан	-8327
кер	-8328
нат	-8329
тен	-8330
▁1%	-8331
▁89	-8332
▁94	-8333
▁Is	-8334
▁Ni	-8335
▁Vo	-8336
▁cs	-8337
▁sy	-8338
▁uk	-8339
▁va	-8340
▁БД	-8341
▁гг	-8342
▁лф	-8343
▁ҮХ	-8344
▁ҮЦ	-8345
▁10%	-8346
▁108	-8347
▁PCR	-8348
▁PDF	-8349
▁Top	-8350
▁Tre	-8351
▁UFC	-8352
▁bet	-8353
▁new	-8354
▁out	-8355
▁САН	-8356
▁Топ	-8357
▁бух	-8358
▁гос	-8359
▁гэе	-8360
▁дга	-8361
▁ини	-8362
▁луг	-8363
▁нух	-8364
▁эдл	-8365
▁Edit	-8366
▁Life	-8367
▁says	-8368
▁Перс	-8369
▁йсны	-8370
▁ного	-8371
▁роид	-8372
▁саал	-8373
▁таас	-8374
▁төрд	-8375
▁өрвө	-8376
▁Polit	-8377
▁Share	-8378
▁биком	-8379
▁нефть	-8380
IP	-8381
TP	-8382
WS	-8383
ЕР	-8384
ЛИ	-8385
сѳ	-8386
▁❤	-8387
ani	-8388
ott	-8389
нєє	-8390
оги	-8391
▁-2	-8392
▁Bu	-8393
▁Fe	-8394
▁PE	-8395
▁ga	-8396
▁il	-8397
▁nb	-8398
▁nc	-8399
▁vi	-8400
▁Ёо	-8401
▁Ух	-8402
▁еп	-8403
▁col	-8404
▁ple	-8405
▁Бри	-8406
▁Цоо	-8407
▁ЭТГ	-8408
▁ейс	-8409
▁рти	-8410
▁эмэ	-8411
▁это	-8412
▁ёоо	-8413
▁Data	-8414
▁Gold	-8415
▁Hall	-8416
▁Host	-8417
▁Хана	-8418
▁аалц	-8419
▁амтр	-8420
▁анхи	-8421
▁ахан	-8422
▁гене	-8423
▁ерий	-8424
▁ерон	-8425
▁здэг	-8426
▁илий	-8427
▁инжа	-8428
▁лбор	-8429
▁лько	-8430
▁ндуй	-8431
▁олшр	-8432
▁орво	-8433
▁авлик	-8434
▁андаж	-8435
▁ведев	-8436
▁галах	-8437
▁гөний	-8438
▁икаго	-8439
▁нгуул	-8440
▁олгод	-8441
▁уусга	-8442
▁эрлэл	-8443
VC	-8444
ho	-8445
пе	-8446
▁Í	-8447
▁ҕ	-8448
▁ك	-8449
ild	-8450
ейт	-8451
▁//	-8452
▁/>	-8453
▁83	-8454
▁AC	-8455
▁IR	-8456
▁Im	-8457
▁gn	-8458
▁kh	-8459
▁mu	-8460
▁pa	-8461
▁sl	-8462
▁tw	-8463
▁we	-8464
▁Аг	-8465
▁ЕР	-8466
▁зг	-8467
▁Ben	-8468
▁Bre	-8469
▁Cor	-8470
▁GPS	-8471
▁Mat	-8472
▁Sou	-8473
▁ari	-8474
▁gor	-8475
▁ina	-8476
▁kia	-8477
▁ntu	-8478
▁org	-8479
▁ota	-8480
▁que	-8481
▁АЙЛ	-8482
▁Бил	-8483
▁Лин	-8484
▁ТОЙ	-8485
▁ХЕГ	-8486
▁Цус	-8487
▁аку	-8488
▁аме	-8489
▁арр	-8490
▁бве	-8491
▁влэ	-8492
▁ейл	-8493
▁енг	-8494
▁ирм	-8495
▁рен	-8496
▁сэв	-8497
▁фэн	-8498
▁хип	-8499
▁чон	-8500
▁үүе	-8501
▁Sony	-8502
▁ript	-8503
▁ware	-8504
▁байл	-8505
▁гидр	-8506
▁дааа	-8507
▁жонш	-8508
▁итан	-8509
▁рина	-8510
▁того	-8511
▁эфир	-8512
▁єгєє	-8513
▁АНИЛЦ	-8514
▁ангал	-8515
▁араон	-8516
▁жээнд	-8517
▁лөгдө	-8518
▁нтайж	-8519
▁нхийл	-8520
▁ээтэй	-8521
BS	-8522
UI	-8523
НО	-8524
хх	-8525
ют	-8526
ana	-8527
hen	-8528
ics	-8529
ист	-8530
▁(9	-8531
▁3)	-8532
▁Ag	-8533
▁Ce	-8534
▁IB	-8535
▁It	-8536
▁Pi	-8537
▁Up	-8538
▁du	-8539
▁ЕС	-8540
▁Еф	-8541
▁МБ	-8542
▁ОО	-8543
▁ТС	-8544
▁ЯВ	-8545
▁ҮТ	-8546
▁Ado	-8547
▁Bro	-8548
▁Inc	-8549
▁Met	-8550
▁Mus	-8551
▁Wik	-8552
▁ron	-8553
▁ser	-8554
▁tal	-8555
▁too	-8556
▁Ёоо	-8557
▁БИД	-8558
▁Дээ	-8559
▁Жам	-8560
▁Рад	-8561
▁СЕХ	-8562
▁Шах	-8563
▁Элс	-8564
▁вда	-8565
▁зэл	-8566
▁иви	-8567
▁ихи	-8568
▁нья	-8569
▁орк	-8570
▁оёж	-8571
▁ций	-8572
▁яга	-8573
▁үүш	-8574
▁Down	-8575
▁Live	-8576
▁Save	-8577
▁prev	-8578
▁НМАУ	-8579
▁Пете	-8580
▁Реал	-8581
▁алца	-8582
▁арль	-8583
▁драт	-8584
▁лцож	-8585
▁майн	-8586
▁орчн	-8587
▁ронд	-8588
▁урын	-8589
▁өрлө	-8590
▁Grand	-8591
▁pussy	-8592
▁аалах	-8593
▁адвар	-8594
▁амбар	-8595
▁анбаа	-8596
▁тгэлт	-8597
▁улзах	-8598
ES	-8599
IT	-8600
ЧИ	-8601
уз	-8602
ار	-8603
▁Ы	-8604
ДЭГ	-8605
аст	-8606
ерт	-8607
оао	-8608
пол	-8609
сэр	-8610
▁Vi	-8611
▁fe	-8612
▁po	-8613
▁Ач	-8614
▁ЙЛ	-8615
▁ХЭ	-8616
▁гй	-8617
▁зн	-8618
▁пл	-8619
▁ыр	-8620
▁14,	-8621
▁30,	-8622
▁Geo	-8623
▁Sol	-8624
▁any	-8625
▁mon	-8626
▁top	-8627
▁ЗНН	-8628
▁Зиа	-8629
▁Поп	-8630
▁Хий	-8631
▁Яаг	-8632
▁адр	-8633
▁аша	-8634
▁гни	-8635
▁гэс	-8636
▁дис	-8637
▁иог	-8638
▁лду	-8639
▁сүг	-8640
▁ула	-8641
▁улт	-8642
▁хнэ	-8643
▁цны	-8644
▁єгє	-8645
▁Link	-8646
▁land	-8647
▁word	-8648
▁ГААР	-8649
▁УТИС	-8650
▁Хийн	-8651
▁алта	-8652
▁анчи	-8653
▁дель	-8654
▁илгэ	-8655
▁ллоо	-8656
▁льци	-8657
▁мьда	-8658
▁ндал	-8659
▁осын	-8660
▁рейд	-8661
▁рээг	-8662
▁сака	-8663
▁увьс	-8664
▁ухай	-8665
▁цахи	-8666
▁шээл	-8667
▁үйлч	-8668
▁исней	-8669
▁оддог	-8670
▁хийлг	-8671
▁эмээн	-8672
IA	-8673
OT	-8674
ja	-8675
îâ	-8676
ИК	-8677
еа	-8678
үр	-8679
ӨЛ	-8680
▁®	-8681
▁щ	-8682
▁Ѳ	-8683
ГЭЭ	-8684
ени	-8685
най	-8686
سار	-8687
▁#2	-8688
▁+1	-8689
▁93	-8690
▁DE	-8691
▁EX	-8692
▁Ji	-8693
▁Ul	-8694
▁Др	-8695
▁Йо	-8696
▁бө	-8697
▁мѳ	-8698
▁ьс	-8699
▁1.2	-8700
▁1.3	-8701
▁BBC	-8702
▁CPU	-8703
▁Car	-8704
▁IPh	-8705
▁Lee	-8706
▁Sch	-8707
▁Une	-8708
▁Vis	-8709
▁off	-8710
▁ОЁР	-8711
▁СҮТ	-8712
▁Хос	-8713
▁ЭСЯ	-8714
▁агв	-8715
▁акс	-8716
▁ама	-8717
▁гуд	-8718
▁дло	-8719
▁ирс	-8720
▁иэн	-8721
▁лор	-8722
▁мой	-8723
▁ойт	-8724
▁рөн	-8725
▁улд	-8726
▁хєє	-8727
▁что	-8728
▁Үүл	-8729
▁Mark	-8730
▁sour	-8731
▁Батт	-8732
▁Дели	-8733
▁Эрүү	-8734
▁акци	-8735
▁ануу	-8736
▁асва	-8737
▁гэрэ	-8738
▁дарь	-8739
▁дэлт	-8740
▁йлдл	-8741
▁мраг	-8742
▁нама	-8743
▁раан	-8744
▁ролл	-8745
▁сдэг	-8746
▁хэлд	-8747
▁Store	-8748
▁Watch	-8749
▁анаар	-8750
▁дюсер	-8751
▁ийлгэ	-8752
▁либер	-8753
▁лобби	-8754
▁нэмэг	-8755
▁рокко	-8756
PN	-8757
zy	-8758
îñ	-8759
ИА	-8760
جر	-8761
▁́	-8762
ГАЛ	-8763
жин	-8764
лян	-8765
ури	-8766
حجر	-8767
▁Fr	-8768
▁SD	-8769
▁XV	-8770
▁ay	-8771
▁ew	-8772
▁ir	-8773
▁ou	-8774
▁yy	-8775
▁òü	-8776
▁АК	-8777
▁Нэ	-8778
▁ПО	-8779
▁ТМ	-8780
▁ХО	-8781
▁Цү	-8782
▁Яв	-8783
ream	-8784
îâîñ	-8785
سارة	-8786
▁450	-8787
▁Col	-8788
▁Har	-8789
▁Mag	-8790
▁age	-8791
▁cle	-8792
▁job	-8793
▁med	-8794
▁АРЖ	-8795
▁Жак	-8796
▁Лук	-8797
▁Ман	-8798
▁Ром	-8799
▁Сүм	-8800
▁ЭРХ	-8801
▁гое	-8802
▁жар	-8803
▁иин	-8804
▁ниу	-8805
▁ное	-8806
▁ров	-8807
▁рса	-8808
▁ртс	-8809
▁сэт	-8810
▁хоч	-8811
▁хха	-8812
▁цох	-8813
▁цул	-8814
▁эйр	-8815
▁үлт	-8816
▁өгт	-8817
▁King	-8818
▁Open	-8819
▁Part	-8820
▁Vict	-8821
▁rome	-8822
▁АЗАР	-8823
▁АРГА	-8824
▁Ливи	-8825
▁Перу	-8826
▁бели	-8827
▁боть	-8828
▁гааж	-8829
▁жлыг	-8830
▁икол	-8831
▁лдам	-8832
▁лифт	-8833
▁ньпи	-8834
▁ооно	-8835
▁оохо	-8836
▁раун	-8837
▁рези	-8838
▁рмой	-8839
▁сорт	-8840
▁шаал	-8841
▁үхээ	-8842
▁Cloud	-8843
▁Íîâîñ	-8844
▁ааааа	-8845
▁балба	-8846
▁бүрий	-8847
▁ндгай	-8848
▁ооооо	-8849
▁ургий	-8850
▁الحجر	-8851
▁كسارة	-8852
OC	-8853
fi	-8854
оз	-8855
ук	-8856
че	-8857
amp	-8858
ans	-8859
ous	-8860
икс	-8861
ров	-8862
шиг	-8863
эйс	-8864
▁()	-8865
▁5:	-8866
▁GD	-8867
▁GE	-8868
▁Gi	-8869
▁IM	-8870
▁Id	-8871
▁SM	-8872
▁rd	-8873
▁tt	-8874
▁ГЧ	-8875
▁РО	-8876
▁Фи	-8877
▁ЧИ	-8878
▁дв	-8879
▁хї	-8880
▁чэ	-8881
▁ён	-8882
▁ҮС	-8883
єлєє	-8884
▁1,5	-8885
▁30%	-8886
▁Cap	-8887
▁Fri	-8888
▁NAS	-8889
▁Sim	-8890
▁VPN	-8891
▁aly	-8892
▁app	-8893
▁lor	-8894
▁oon	-8895
▁ren	-8896
▁rol	-8897
▁shi	-8898
▁АЙД	-8899
▁ЗДХ	-8900
▁ЛЭХ	-8901
▁Мон	-8902
▁ТББ	-8903
▁Шал	-8904
▁аср	-8905
▁бум	-8906
▁икс	-8907
▁лти	-8908
▁нне	-8909
▁оао	-8910
▁чип	-8911
▁ҮБХ	-8912
▁үдш	-8913
▁ӨНГ	-8914
▁Mart	-8915
▁NEWS	-8916
▁play	-8917
▁ГХЭГ	-8918
▁ОАЖЯ	-8919
▁авай	-8920
▁анаг	-8921
▁арги	-8922
▁ганы	-8923
▁дэлд	-8924
▁линз	-8925
▁мани	-8926
▁мори	-8927
▁нгэр	-8928
▁нтой	-8929
▁охиц	-8930
▁ргам	-8931
▁суль	-8932
▁уцаа	-8933
▁энэн	-8934
▁ээээ	-8935
▁Enter	-8936
▁Space	-8937
▁share	-8938
▁trend	-8939
▁боддо	-8940
▁бууда	-8941
▁друул	-8942
▁дууса	-8943
▁инлян	-8944
▁пицца	-8945
▁увейт	-8946
▁ухайл	-8947
LE	-8948
hi	-8949
НБ	-8950
тл	-8951
▁√	-8952
▁✅	-8953
▁😉	-8954
ami	-8955
▁(7	-8956
▁0-	-8957
▁91	-8958
▁GM	-8959
▁MC	-8960
▁SI	-8961
▁ac	-8962
▁iT	-8963
▁nk	-8964
▁ti	-8965
▁ГБ	-8966
▁ДИ	-8967
▁Пу	-8968
▁дд	-8969
▁ля	-8970
▁мъ	-8971
▁фа	-8972
▁үж	-8973
ouch	-8974
▁(8)	-8975
▁13,	-8976
▁Acc	-8977
▁Art	-8978
▁Ass	-8979
▁Dri	-8980
▁Ger	-8981
▁Tra	-8982
▁bus	-8983
▁gen	-8984
▁nge	-8985
▁vie	-8986
▁Гэм	-8987
▁Мак	-8988
▁РҮҮ	-8989
▁СШУ	-8990
▁Сал	-8991
▁Хой	-8992
▁Яам	-8993
▁вдл	-8994
▁дик	-8995
▁дтэ	-8996
▁дъя	-8997
▁дєр	-8998
▁йнш	-8999
▁йцэ	-9000
▁нка	-9001
▁при	-9002
▁рхө	-9003
▁рєє	-9004
▁тах	-9005
▁шоп	-9006
▁эгз	-9007
▁эйж	-9008
▁эйн	-9009
▁ээт	-9010
▁юур	-9011
▁өдө	-9012
▁Blog	-9013
▁Girl	-9014
▁name	-9015
▁ness	-9016
▁ОВИД	-9017
▁адеш	-9018
▁биел	-9019
▁гада	-9020
▁иглэ	-9021
▁йнга	-9022
▁миль	-9023
▁нгөт	-9024
▁подк	-9025
▁ууги	-9026
▁ууль	-9027
▁ютер	-9028
▁єлєє	-9029
▁video	-9030
▁Робот	-9031
▁атери	-9032
▁йлийн	-9033
▁лчгар	-9034
▁нүсэр	-9035
▁ональ	-9036
▁парад	-9037
▁рокер	-9038
CD	-9039
АВ	-9040
ЭЖ	-9041
шш	-9042
ым	-9043
▁♥	-9044
▁🎁	-9045
eep	-9046
ora	-9047
ВАЛ	-9048
ВАР	-9049
енс	-9050
ент	-9051
ири	-9052
ууу	-9053
▁?!	-9054
▁AT	-9055
▁BE	-9056
▁BM	-9057
▁Ba	-9058
▁Bi	-9059
▁DS	-9060
▁GP	-9061
▁MP	-9062
▁ЛД	-9063
▁МД	-9064
▁РС	-9065
▁Эз	-9066
▁йи	-9067
▁ню	-9068
▁єд	-9069
▁90%	-9070
▁Boo	-9071
▁Del	-9072
▁OEM	-9073
▁Soc	-9074
▁TOP	-9075
▁Tot	-9076
▁Ubu	-9077
▁bay	-9078
▁box	-9079
▁ist	-9080
▁log	-9081
▁msg	-9082
▁ool	-9083
▁pot	-9084
▁Ноо	-9085
▁РГЭ	-9086
▁Сав	-9087
▁УОК	-9088
▁ака	-9089
▁гва	-9090
▁гул	-9091
▁иги	-9092
▁ков	-9093
▁оёо	-9094
▁рмэ	-9095
▁рно	-9096
▁унж	-9097
▁хох	-9098
▁чэн	-9099
▁шан	-9100
▁ьда	-9101
▁элл	-9102
▁үүү	-9103
▁Mill	-9104
▁Note	-9105
▁jack	-9106
▁like	-9107
▁ЛАГА	-9108
▁СУУД	-9109
▁УДАЛ	-9110
▁авли	-9111
▁анат	-9112
▁ассе	-9113
▁гори	-9114
▁женд	-9115
▁нста	-9116
▁омби	-9117
▁ремь	-9118
▁рмос	-9119
▁скоп	-9120
▁углу	-9121
▁утан	-9122
▁фэйс	-9123
▁чдыг	-9124
▁чсэн	-9125
▁эвээ	-9126
▁үдэд	-9127
▁Group	-9128
▁Music	-9129
▁world	-9130
▁арльз	-9131
▁нгалт	-9132
▁ндгой	-9133
▁ралыг	-9134
▁эмжих	-9135
▁үдтэй	-9136
▁өнгий	-9137
DA	-9138
mo	-9139
кэ	-9140
ыл	-9141
ью	-9142
юр	-9143
▁✔	-9144
eed	-9145
ett	-9146
ody	-9147
ЧИЛ	-9148
ЭНЭ	-9149
ико	-9150
инг	-9151
инс	-9152
ура	-9153
▁."	-9154
▁MB	-9155
▁PH	-9156
▁Ye	-9157
▁АЖ	-9158
▁ВЭ	-9159
▁ИМ	-9160
▁МГ	-9161
▁ТТ	-9162
▁ТУ	-9163
▁ЯМ	-9164
▁жд	-9165
▁кн	-9166
▁кр	-9167
▁сб	-9168
▁юр	-9169
▁єм	-9170
▁ѳѳ	-9171
aluu	-9172
irst	-9173
▁28,	-9174
▁Ant	-9175
▁Bus	-9176
▁PVC	-9177
▁RAM	-9178
▁Sub	-9179
▁ics	-9180
▁web	-9181
▁Авч	-9182
▁Зөн	-9183
▁Лиз	-9184
▁Сум	-9185
▁Фит	-9186
▁ХАН	-9187
▁ХЭН	-9188
▁Хүч	-9189
▁жен	-9190
▁иаг	-9191
▁иро	-9192
▁йнэ	-9193
▁йха	-9194
▁нцл	-9195
▁сүй	-9196
▁хно	-9197
▁эдр	-9198
▁эйт	-9199
▁энз	-9200
▁юри	-9201
▁юуч	-9202
▁Bitc	-9203
▁Fact	-9204
▁Hard	-9205
▁Like	-9206
▁Stat	-9207
▁АРИЛ	-9208
▁СШУС	-9209
▁аарн	-9210
▁айжр	-9211
▁акао	-9212
▁ванг	-9213
▁вчих	-9214
▁ента	-9215
▁ерри	-9216
▁лгах	-9217
▁лстө	-9218
▁лэнд	-9219
▁марк	-9220
▁нгир	-9221
▁тайн	-9222
▁ухан	-9223
▁хэлт	-9224
▁ялба	-9225
▁үхэн	-9226
▁watch	-9227
▁УУЛГА	-9228
▁аниме	-9229
▁дахаа	-9230
▁дахиа	-9231
▁лесби	-9232
▁лоуин	-9233
▁мралт	-9234
▁оаоао	-9235
▁оттер	-9236
▁пизда	-9237
30	-9238
DE	-9239
EF	-9240
ep	-9241
ua	-9242
uc	-9243
zi	-9244
АК	-9245
ЕО	-9246
ге	-9247
йа	-9248
пс	-9249
рш	-9250
фо	-9251
ыы	-9252
үх	-9253
▁è	-9254
▁Ї	-9255
UIZ	-9256
uri	-9257
ЛАЛ	-9258
САН	-9259
мнѳ	-9260
оми	-9261
▁#3	-9262
▁By	-9263
▁CH	-9264
▁DI	-9265
▁Fa	-9266
▁Na	-9267
▁Vv	-9268
▁ja	-9269
▁МХ	-9270
▁НГ	-9271
▁ЭУ	-9272
▁зд	-9273
▁мю	-9274
▁рп	-9275
lass	-9276
orth	-9277
▁18,	-9278
▁19,	-9279
▁21,	-9280
▁220	-9281
▁Kim	-9282
▁Now	-9283
▁VIP	-9284
▁Ver	-9285
▁all	-9286
▁ary	-9287
▁ast	-9288
▁een	-9289
▁get	-9290
▁ore	-9291
▁sta	-9292
▁Бор	-9293
▁Веб	-9294
▁Виз	-9295
▁Газ	-9296
▁ЛАА	-9297
▁Лас	-9298
▁Пхе	-9299
▁ЦАГ	-9300
▁ШИГ	-9301
▁ЭМЖ	-9302
▁аби	-9303
▁дой	-9304
▁жив	-9305
▁заг	-9306
▁лей	-9307
▁лно	-9308
▁сли	-9309
▁тни	-9310
▁унэ	-9311
▁хуц	-9312
▁цга	-9313
▁чав	-9314
▁эди	-9315
▁элм	-9316
▁єнд	-9317
▁үлс	-9318
▁өгл	-9319
▁Best	-9320
▁QUIZ	-9321
▁Stud	-9322
▁Will	-9323
▁site	-9324
▁ИНИЙ	-9325
▁Нефт	-9326
▁алко	-9327
▁глан	-9328
▁длог	-9329
▁иего	-9330
▁лгаж	-9331
▁лгор	-9332
▁лээж	-9333
▁нара	-9334
▁нгос	-9335
▁нчир	-9336
▁огсо	-9337
▁скри	-9338
▁сөлт	-9339
▁чила	-9340
▁эдэл	-9341
▁эрий	-9342
▁этэр	-9343
▁эхий	-9344
▁ӨРӨӨ	-9345
▁Style	-9346
▁агаас	-9347
▁амшиг	-9348
▁ийдэг	-9349
▁ийнхө	-9350
▁инста	-9351
▁налаа	-9352
▁ндиан	-9353
▁рулет	-9354
UT	-9355
yy	-9356
ЛО	-9357
үл	-9358
▁£	-9359
ich	-9360
ori	-9361
вэй	-9362
ена	-9363
лот	-9364
▁2"	-9365
▁DC	-9366
▁DN	-9367
▁Ep	-9368
▁SA	-9369
▁Ta	-9370
▁Yu	-9371
▁ya	-9372
▁ИЗ	-9373
▁УЙ	-9374
▁пс	-9375
▁пц	-9376
▁хг	-9377
itch	-9378
reat	-9379
илца	-9380
▁(6)	-9381
▁16,	-9382
▁Cry	-9383
▁Jay	-9384
▁Mer	-9385
▁Que	-9386
▁Rec	-9387
▁Tok	-9388
▁Val	-9389
▁ett	-9390
▁wal	-9391
▁АМЭ	-9392
▁АХА	-9393
▁Ану	-9394
▁Зан	-9395
▁МЭӨ	-9396
▁ОЛГ	-9397
▁Рос	-9398
▁Хов	-9399
▁ЭЭЛ	-9400
▁гус	-9401
▁зон	-9402
▁игл	-9403
▁ико	-9404
▁лус	-9405
▁мтэ	-9406
▁мхо	-9407
▁роп	-9408
▁рюс	-9409
▁ӨРИ	-9410
▁Cent	-9411
▁Drag	-9412
▁Euro	-9413
▁Hold	-9414
▁Just	-9415
▁Wond	-9416
▁free	-9417
▁look	-9418
▁prot	-9419
▁stro	-9420
▁till	-9421
▁Мини	-9422
▁ОРИГ	-9423
▁Эдгэ	-9424
▁боор	-9425
▁вант	-9426
▁ганд	-9427
▁дрон	-9428
▁енри	-9429
▁зэмш	-9430
▁иана	-9431
▁ийхэ	-9432
▁лааз	-9433
▁лист	-9434
▁лооз	-9435
▁муул	-9436
▁рдаж	-9437
▁сэлж	-9438
▁сэлт	-9439
▁эзэм	-9440
▁Medee	-9441
▁twitt	-9442
▁АЙХАН	-9443
▁аддаг	-9444
▁арсел	-9445
▁байрш	-9446
▁гольф	-9447
▁даага	-9448
▁длогы	-9449
▁ембри	-9450
▁ианна	-9451
▁лцуул	-9452
▁нилца	-9453
▁нопол	-9454
▁одлоо	-9455
▁олцож	-9456
▁оржин	-9457
gi	-9458
gy	-9459
ll	-9460
де	-9461
ьт	-9462
udi	-9463
асс	-9464
кот	-9465
лѳѳ	-9466
ман	-9467
оди	-9468
▁4)	-9469
▁@@	-9470
▁Ab	-9471
▁ES	-9472
▁ca	-9473
▁ez	-9474
▁hi	-9475
▁БЗ	-9476
▁ДШ	-9477
▁ЕН	-9478
▁ИС	-9479
▁Ке	-9480
▁Ки	-9481
▁ТИ	-9482
apan	-9483
▁11.	-9484
▁Loc	-9485
▁Tae	-9486
▁bol	-9487
▁ini	-9488
▁Єєр	-9489
▁АГА	-9490
▁АЙХ	-9491
▁Гэс	-9492
▁ДЭЛ	-9493
▁ЛОН	-9494
▁ТЫН	-9495
▁Хад	-9496
▁вас	-9497
▁вца	-9498
▁деб	-9499
▁зад	-9500
▁ига	-9501
▁иев	-9502
▁ллл	-9503
▁лмө	-9504
▁мкв	-9505
▁муй	-9506
▁нсо	-9507
▁оры	-9508
▁сэм	-9509
▁фик	-9510
▁энь	-9511
▁Call	-9512
▁Show	-9513
▁core	-9514
▁ence	-9515
▁from	-9516
▁list	-9517
▁week	-9518
▁АРИМ	-9519
▁ЛСЫН	-9520
▁ОЛОХ	-9521
▁адда	-9522
▁аруу	-9523
▁ванн	-9524
▁гара	-9525
▁ейна	-9526
▁жилс	-9527
▁лцэх	-9528
▁моод	-9529
▁наст	-9530
▁нгэс	-9531
▁олчи	-9532
▁рент	-9533
▁эдэд	-9534
▁эсэр	-9535
▁эхнэ	-9536
▁ёрын	-9537
▁үсгэ	-9538
▁үүлс	-9539
▁Flash	-9540
▁Питер	-9541
▁Радио	-9542
▁ЭЛХИЙ	-9543
▁анхар	-9544
▁бүрдү	-9545
▁виней	-9546
▁дарда	-9547
▁замын	-9548
▁лдагд	-9549
▁норов	-9550
▁олцох	-9551
▁станд	-9552
▁уутай	-9553
▁үйлээ	-9554
AY	-9555
IC	-9556
LL	-9557
QL	-9558
ki	-9559
ma	-9560
mi	-9561
БХ	-9562
РТ	-9563
гє	-9564
зд	-9565
нн	-9566
шн	-9567
ind	-9568
ise	-9569
ult	-9570
УУД	-9571
иги	-9572
ини	-9573
ора	-9574
тел	-9575
▁"1	-9576
▁=>	-9577
▁BO	-9578
▁CL	-9579
▁Cy	-9580
▁Ok	-9581
▁QR	-9582
▁bu	-9583
▁cy	-9584
▁ut	-9585
▁УА	-9586
▁зл	-9587
▁мү	-9588
▁цн	-9589
▁ӨӨ	-9590
▁105	-9591
▁15.	-9592
▁27,	-9593
▁360	-9594
▁Alt	-9595
▁Bur	-9596
▁Cra	-9597
▁Cro	-9598
▁Law	-9599
▁Pod	-9600
▁Pub	-9601
▁but	-9602
▁ier	-9603
▁lla	-9604
▁mat	-9605
▁uni	-9606
▁vid	-9607
▁Бал	-9608
▁РАЛ	-9609
▁ТХЯ	-9610
▁ХИЙ	-9611
▁ЭМЯ	-9612
▁атг	-9613
▁вдө	-9614
▁гим	-9615
▁лок	-9616
▁мна	-9617
▁моо	-9618
▁нхо	-9619
▁охо	-9620
▁оёх	-9621
▁рто	-9622
▁сгө	-9623
▁сож	-9624
▁унь	-9625
▁чоо	-9626
▁шок	-9627
▁эли	-9628
▁юум	-9629
▁ӨГЖ	-9630
▁Өрх	-9631
▁Full	-9632
▁June	-9633
▁Land	-9634
▁Mini	-9635
▁Mode	-9636
▁Tech	-9637
▁Week	-9638
▁West	-9639
▁York	-9640
▁come	-9641
▁data	-9642
▁edit	-9643
▁here	-9644
▁thou	-9645
▁Саул	-9646
▁агат	-9647
▁арби	-9648
▁гнал	-9649
▁годо	-9650
▁жтой	-9651
▁йран	-9652
▁кайф	-9653
▁ксон	-9654
▁лцуу	-9655
▁одло	-9656
▁олла	-9657
▁ргэх	-9658
▁рууш	-9659
▁рхтэ	-9660
▁утар	-9661
▁Drive	-9662
▁Smart	-9663
▁Sport	-9664
▁Stree	-9665
▁актер	-9666
▁йнште	-9667
▁ликон	-9668
▁льный	-9669
▁олонг	-9670
▁ополи	-9671
▁рубли	-9672
▁улийг	-9673
▁фикат	-9674
▁харда	-9675
▁эгжүү	-9676
▁элсүх	-9677
▁эрээн	-9678
▁өлдөө	-9679
FS	-9680
go	-9681
ЛА	-9682
ЭВ	-9683
хє	-9684
ще	-9685
▁😛	-9686
aby	-9687
кок	-9688
▁5%	-9689
▁6:	-9690
▁Ac	-9691
▁MG	-9692
▁OK	-9693
▁Ty	-9694
▁UT	-9695
▁WP	-9696
▁ah	-9697
▁dy	-9698
▁ky	-9699
▁ИР	-9700
▁РН	-9701
▁СҮ	-9702
▁УМ	-9703
▁зы	-9704
▁оэ	-9705
▁12,	-9706
▁190	-9707
▁365	-9708
▁6-7	-9709
▁7-8	-9710
▁Act	-9711
▁BTS	-9712
▁CNC	-9713
▁Hub	-9714
▁IEL	-9715
▁Jen	-9716
▁Joe	-9717
▁Lad	-9718
▁Men	-9719
▁VII	-9720
▁Xia	-9721
▁[1]	-9722
▁bur	-9723
▁cum	-9724
▁ell	-9725
▁iam	-9726
▁ide	-9727
▁lin	-9728
▁mas	-9729
▁men	-9730
▁tan	-9731
▁tar	-9732
▁tor	-9733
▁Бен	-9734
▁Бөө	-9735
▁Мет	-9736
▁Мик	-9737
▁ОГТ	-9738
▁Цац	-9739
▁Явж	-9740
▁аая	-9741
▁акү	-9742
▁амл	-9743
▁здэ	-9744
▁йры	-9745
▁куу	-9746
▁мак	-9747
▁мєн	-9748
▁таб	-9749
▁тиг	-9750
▁хум	-9751
▁чай	-9752
▁File	-9753
▁NASA	-9754
▁User	-9755
▁mong	-9756
▁ИДЕО	-9757
▁Ливе	-9758
▁Лиза	-9759
▁Лице	-9760
▁аама	-9761
▁авил	-9762
▁амжа	-9763
▁гялс	-9764
▁двар	-9765
▁ееее	-9766
▁мхай	-9767
▁мэнт	-9768
▁рзан	-9769
▁сага	-9770
▁сара	-9771
▁сори	-9772
▁укер	-9773
▁хэлэ	-9774
▁ъцаа	-9775
▁ѳмнѳ	-9776
▁үхдэ	-9777
▁April	-9778
▁Japan	-9779
▁Pussy	-9780
▁Slots	-9781
▁Бибер	-9782
▁ЛАГАА	-9783
▁Тэгээ	-9784
▁УРХАЙ	-9785
▁аллон	-9786
▁аргиж	-9787
▁ендэр	-9788
▁зарда	-9789
▁инжаа	-9790
▁ридор	-9791
▁саалт	-9792
▁хоног	-9793
20	-9794
95	-9795
GH	-9796
LC	-9797
ei	-9798
mp	-9799
zz	-9800
Аз	-9801
лє	-9802
оу	-9803
ск	-9804
ьо	-9805
яо	-9806
ђй	-9807
єг	-9808
ali	-9809
alt	-9810
ris	-9811
ump	-9812
ung	-9813
ЛОО	-9814
арк	-9815
вер	-9816
ест	-9817
има	-9818
ома	-9819
▁(←	-9820
▁9,	-9821
▁AI	-9822
▁EC	-9823
▁GS	-9824
▁Ho	-9825
▁JS	-9826
▁LG	-9827
▁Mr	-9828
▁Py	-9829
▁WE	-9830
▁ev	-9831
▁ss	-9832
▁ПС	-9833
▁кэ	-9834
▁мы	-9835
▁нп	-9836
▁хс	-9837
ogue	-9838
▁1-3	-9839
▁1.1	-9840
▁23,	-9841
▁CNN	-9842
▁Cam	-9843
▁Dia	-9844
▁Hot	-9845
▁Pal	-9846
▁Pop	-9847
▁SQL	-9848
▁Thi	-9849
▁Tur	-9850
▁Vie	-9851
▁fox	-9852
▁ite	-9853
▁ium	-9854
▁key	-9855
▁lic	-9856
▁mac	-9857
▁mer	-9858
▁mic	-9859
▁nia	-9860
▁not	-9861
▁ord	-9862
▁Биг	-9863
▁ДНБ	-9864
▁Жим	-9865
▁Зүй	-9866
▁МАР	-9867
▁Нац	-9868
▁Нуу	-9869
▁ОЛО	-9870
▁Одо	-9871
▁Олж	-9872
▁Сам	-9873
▁Ука	-9874
▁Цай	-9875
▁ЭМТ	-9876
▁дуг	-9877
▁иха	-9878
▁йрл	-9879
▁мєр	-9880
▁нөг	-9881
▁одд	-9882
▁рдэ	-9883
▁тлэ	-9884
▁үрт	-9885
▁Bang	-9886
▁Sing	-9887
▁ical	-9888
▁ican	-9889
▁mark	-9890
▁mart	-9891
▁page	-9892
▁with	-9893
▁wood	-9894
▁Цаас	-9895
▁ажла	-9896
▁гуда	-9897
▁ийна	-9898
▁инэч	-9899
▁ланз	-9900
▁лест	-9901
▁ллан	-9902
▁мали	-9903
▁мгай	-9904
▁могц	-9905
▁нами	-9906
▁поли	-9907
▁рдла	-9908
▁рдөг	-9909
▁рлэж	-9910
▁сохр	-9911
▁урги	-9912
▁хєдє	-9913
▁чини	-9914
▁шраа	-9915
▁эрсд	-9916
▁эхүү	-9917
▁North	-9918
▁South	-9919
▁windo	-9920
▁Яагаа	-9921
▁амгаа	-9922
▁арлаж	-9923
▁динат	-9924
▁донна	-9925
▁дэслэ	-9926
▁ийнха	-9927
▁лооли	-9928
▁лохыг	-9929
▁наада	-9930
▁ндром	-9931
▁нхаар	-9932
▁ргада	-9933
▁талаа	-9934
▁чихаа	-9935
▁шлага	-9936
▁энтэр	-9937
▁яртай	-9938
60	-9939
au	-9940
ly	-9941
ye	-9942
Ах	-9943
Эр	-9944
ец	-9945
₪₪	-9946
ama	-9947
eld	-9948
СЭН	-9949
ЭМЖ	-9950
анд	-9951
▁""	-9952
▁AD	-9953
▁DD	-9954
▁Er	-9955
▁HU	-9956
▁Sq	-9957
▁oc	-9958
▁ts	-9959
▁АП	-9960
▁БЭ	-9961
▁ИК	-9962
▁ХГ	-9963
▁Яс	-9964
▁гм	-9965
▁оз	-9966
▁ҮМ	-9967
▁101	-9968
▁26,	-9969
▁BMW	-9970
▁BUS	-9971
▁Bay	-9972
▁Ber	-9973
▁Box	-9974
▁COM	-9975
▁Inf	-9976
▁LAN	-9977
▁MCS	-9978
▁Res	-9979
▁Roy	-9980
▁SMS	-9981
▁USA	-9982
▁act	-9983
▁bit	-9984
▁boy	-9985
▁cur	-9986
▁gue	-9987
▁lay	-9988
▁num	-9989
▁omi	-9990
▁uri	-9991
▁АРД	-9992
▁БЗД	-9993
▁Вас	-9994
▁ГАЛ	-9995
▁ДЭТ	-9996
▁ЛҮҮ	-9997
▁Пак	-9998
▁РУУ	-9999
▁ТОП	-10000
▁Хун	-10001
▁алн	-10002
▁вай	-10003
▁вка	-10004
▁гми	-10005
▁гоя	-10006
▁гсэ	-10007
▁ийс	-10008
▁лчи	-10009
▁мэй	-10010
▁огл	-10011
▁орс	-10012
▁оши	-10013
▁рдс	-10014
▁рег	-10015
▁снэ	-10016
▁сод	-10017
▁ука	-10018
▁хян	-10019
▁шен	-10020
▁ьчи	-10021
▁эгн	-10022
▁Back	-10023
▁Boob	-10024
▁Chan	-10025
▁Cock	-10026
▁Glob	-10027
▁Jess	-10028
▁Main	-10029
▁Snap	-10030
▁Tits	-10031
▁base	-10032
▁blog	-10033
▁chat	-10034
▁cont	-10035
▁mail	-10036
▁tain	-10037
▁ОЛОО	-10038
▁амха	-10039
▁аста	-10040
▁атле	-10041
▁болс	-10042
▁гаши	-10043
▁глээ	-10044
▁гуни	-10045
▁гүйн	-10046
▁длоо	-10047
▁зүйт	-10048
▁инзо	-10049
▁йрго	-10050
▁ллен	-10051
▁мбаа	-10052
▁мпус	-10053
▁нано	-10054
▁нтра	-10055
▁омоо	-10056
▁оста	-10057
▁реак	-10058
▁реги	-10059
▁ркер	-10060
▁роли	-10061
▁трий	-10062
▁эгүү	-10063
▁єдєр	-10064
▁үтэр	-10065
▁ӨНГӨ	-10066
▁Locat	-10067
▁Media	-10068
▁Night	-10069
▁board	-10070
▁inter	-10071
▁РДЭНЭ	-10072
▁арлах	-10073
▁болчи	-10074
▁гаруу	-10075
▁гуули	-10076
▁илгын	-10077
▁йлдэл	-10078
▁лжаал	-10079
▁мултр	-10080
▁мєнгє	-10081
▁оочер	-10082
▁резин	-10083
▁рүүдэ	-10084
▁слайд	-10085
▁уужуу	-10086
▁эгийг	-10087
no	-10088
td	-10089
йг	-10090
чу	-10091
ҮГ	-10092
▁Щ	-10093
▁ҥ	-10094
ura	-10095
ААД	-10096
ити	-10097
мин	-10098
▁2/	-10099
▁DJ	-10100
▁Du	-10101
▁ET	-10102
▁Gm	-10103
▁IX	-10104
▁PP	-10105
▁RO	-10106
▁RS	-10107
▁WW	-10108
▁[2	-10109
▁lf	-10110
▁ns	-10111
▁ve	-10112
▁ДБ	-10113
▁ЖЛ	-10114
▁ЗА	-10115
▁Хе	-10116
▁ШГ	-10117
▁дх	-10118
▁нё	-10119
▁єс	-10120
olly	-10121
▁(9)	-10122
▁09,	-10123
▁104	-10124
▁13.	-10125
▁17,	-10126
▁Cat	-10127
▁Def	-10128
▁EUR	-10129
▁Gam	-10130
▁Gee	-10131
▁Lab	-10132
▁NET	-10133
▁Num	-10134
▁Tom	-10135
▁chi	-10136
▁cop	-10137
▁das	-10138
▁han	-10139
▁iTu	-10140
▁iba	-10141
▁ray	-10142
▁sam	-10143
▁АЛТ	-10144
▁БҮХ	-10145
▁Гай	-10146
▁ИЙМ	-10147
▁Мао	-10148
▁МҮТ	-10149
▁СӨХ	-10150
▁Тим	-10151
▁Тод	-10152
▁ХАЙ	-10153
▁Шоу	-10154
▁Юуг	-10155
▁бах	-10156
▁гяр	-10157
▁гөх	-10158
▁ейт	-10159
▁еро	-10160
▁жад	-10161
▁исэ	-10162
▁лен	-10163
▁лет	-10164
▁льф	-10165
▁нхр	-10166
▁няц	-10167
▁ртө	-10168
▁ско	-10169
▁схи	-10170
▁төд	-10171
▁уны	-10172
▁эгв	-10173
▁энс	-10174
▁юкс	-10175
▁Blow	-10176
▁LIVE	-10177
▁Name	-10178
▁Rock	-10179
▁VIII	-10180
▁Wall	-10181
▁Your	-10182
▁conf	-10183
▁rent	-10184
▁vice	-10185
▁year	-10186
▁УРГА	-10187
▁адва	-10188
▁алал	-10189
▁арри	-10190
▁арса	-10191
▁аути	-10192
▁ашёг	-10193
▁ваан	-10194
▁воле	-10195
▁ерам	-10196
▁жлэг	-10197
▁жүүс	-10198
▁итай	-10199
▁йруу	-10200
▁йхаа	-10201
▁лдай	-10202
▁лити	-10203
▁лтон	-10204
▁мбий	-10205
▁мдан	-10206
▁мэгт	-10207
▁мээс	-10208
▁нзан	-10209
▁одис	-10210
▁орхо	-10211
▁рама	-10212
▁ргүү	-10213
▁ршал	-10214
▁ссив	-10215
▁хорл	-10216
▁чага	-10217
▁ҮОНТ	-10218
▁өөлө	-10219
▁Green	-10220
▁IELTS	-10221
▁Point	-10222
▁Start	-10223
▁Trans	-10224
▁vidio	-10225
▁Лазер	-10226
▁агийг	-10227
▁акухо	-10228
▁вуулж	-10229
▁евада	-10230
▁ельта	-10231
▁ирилл	-10232
▁ндрей	-10233
▁нтарк	-10234
▁ранкф	-10235
▁эмжиж	-10236
▁ҮОНРТ	-10237
▁өөлөх	-10238
HS	-10239
ko	-10240
ВА	-10241
му	-10242
тд	-10243
ям	-10244
▁á	-10245
▁Ъ	-10246
att	-10247
rop	-10248
vil	-10249
ЭЭР	-10250
адь	-10251
оке	-10252
олк	-10253
оль	-10254
▁At	-10255
▁DO	-10256
▁OR	-10257
▁SU	-10258
▁Ve	-10259
▁YG	-10260
▁YO	-10261
▁oe	-10262
▁xx	-10263
▁ИУ	-10264
▁ОУ	-10265
▁ЯН	-10266
▁йа	-10267
▁кв	-10268
▁лк	-10269
▁мф	-10270
▁нв	-10271
▁ьё	-10272
▁ѐр	-10273
▁єх	-10274
▁ҮЛ	-10275
ther	-10276
▁02,	-10277
▁04,	-10278
▁240	-10279
▁260	-10280
▁Eun	-10281
▁Ltd	-10282
▁Mad	-10283
▁ONE	-10284
▁RSS	-10285
▁Ray	-10286
▁UBS	-10287
▁USD	-10288
▁Vol	-10289
▁aar	-10290
▁anc	-10291
▁fil	-10292
▁gre	-10293
▁ind	-10294
▁lix	-10295
▁met	-10296
▁ndo	-10297
▁pri	-10298
▁tph	-10299
▁Анд	-10300
▁Жек	-10301
▁Жөн	-10302
▁ЗӨВ	-10303
▁ЛЭЭ	-10304
▁НАМ	-10305
▁Ной	-10306
▁вчн	-10307
▁гид	-10308
▁ддо	-10309
▁ена	-10310
▁ере	-10311
▁ирх	-10312
▁кок	-10313
▁лца	-10314
▁нук	-10315
▁нус	-10316
▁ный	-10317
▁пал	-10318
▁рив	-10319
▁сэй	-10320
▁так	-10321
▁түй	-10322
▁фен	-10323
▁цэх	-10324
▁цөц	-10325
▁шой	-10326
▁Өөх	-10327
▁Bank	-10328
▁Bill	-10329
▁Mess	-10330
▁Rose	-10331
▁izer	-10332
▁mous	-10333
▁rist	-10334
▁shot	-10335
▁Лена	-10336
▁Мэдэ	-10337
▁СШУЯ	-10338
▁Сант	-10339
▁авол	-10340
▁агий	-10341
▁алра	-10342
▁богд	-10343
▁глог	-10344
▁дарт	-10345
▁ерно	-10346
▁жанр	-10347
▁ждаг	-10348
▁жийп	-10349
▁жээн	-10350
▁зсэн	-10351
▁ильм	-10352
▁коро	-10353
▁льва	-10354
▁нанг	-10355
▁нжаа	-10356
▁номи	-10357
▁раци	-10358
▁ргад	-10359
▁тарч	-10360
▁унта	-10361
▁ченж	-10362
▁шкаф	-10363
▁яхан	-10364
▁Dream	-10365
▁Place	-10366
▁Video	-10367
▁porno	-10368
▁АРИМТ	-10369
▁РДЧИЛ	-10370
▁ХААХҮ	-10371
▁Ханна	-10372
▁акүхо	-10373
▁гооли	-10374
▁дасга	-10375
▁илтэй	-10376
▁йсныг	-10377
▁лигор	-10378
▁нгкок	-10379
▁остон	-10380
▁ралца	-10381
▁ржгар	-10382
▁рсена	-10383
▁тээвр	-10384
▁удааг	-10385
▁үүвэй	-10386
br	-10387
ec	-10388
ji	-10389
ВС	-10390
ДИ	-10391
ЕШ	-10392
ЭС	-10393
ся	-10394
ђђ	-10395
▁í	-10396
aga	-10397
asp	-10398
ГАА	-10399
РЫН	-10400
ЧИН	-10401
елл	-10402
иго	-10403
исо	-10404
шка	-10405
▁#4	-10406
▁2%	-10407
▁GO	-10408
▁Kh	-10409
▁RT	-10410
▁UI	-10411
▁Wa	-10412
▁XP	-10413
▁ap	-10414
▁eb	-10415
▁ht	-10416
▁sk	-10417
▁yo	-10418
▁ОП	-10419
▁ХТ	-10420
▁ЫГ	-10421
▁ЮМ	-10422
▁рю	-10423
▁уф	-10424
▁хѳ	-10425
▁чё	-10426
▁ьч	-10427
▁ҮЯ	-10428
odel	-10429
ourn	-10430
оаоа	-10431
▁102	-10432
▁125	-10433
▁2.0	-10434
▁20.	-10435
▁280	-10436
▁95%	-10437
▁Are	-10438
▁Ava	-10439
▁CoV	-10440
▁End	-10441
▁GNU	-10442
▁How	-10443
▁ION	-10444
▁Qui	-10445
▁SAR	-10446
▁THE	-10447
▁Ter	-10448
▁ama	-10449
▁dom	-10450
▁ern	-10451
▁hel	-10452
▁ish	-10453
▁ley	-10454
▁ony	-10455
▁red	-10456
▁tac	-10457
▁uar	-10458
▁ute	-10459
▁var	-10460
▁Боб	-10461
▁ВАР	-10462
▁ГБТ	-10463
▁ДОО	-10464
▁ДЭЭ	-10465
▁Жич	-10466
▁Заа	-10467
▁НДШ	-10468
▁Ноа	-10469
▁ТЕГ	-10470
▁Хаг	-10471
▁вэн	-10472
▁гтү	-10473
▁ерд	-10474
▁ихд	-10475
▁йра	-10476
▁как	-10477
▁лер	-10478
▁лит	-10479
▁нза	-10480
▁оэф	-10481
▁рит	-10482
▁риш	-10483
▁рра	-10484
▁ртл	-10485
▁рөм	-10486
▁хуа	-10487
▁Disn	-10488
▁Fort	-10489
▁LIKE	-10490
▁Paul	-10491
▁Publ	-10492
▁Site	-10493
▁Stra	-10494
▁Unit	-10495
▁cate	-10496
▁mast	-10497
▁upda	-10498
▁your	-10499
▁Блок	-10500
▁Ерөн	-10501
▁Коби	-10502
▁Соло	-10503
▁УБИС	-10504
▁Фран	-10505
▁гсөн	-10506
▁енит	-10507
▁есби	-10508
▁идан	-10509
▁ийлэ	-10510
▁ийтэ	-10511
▁иско	-10512
▁йлсэ	-10513
▁лгуй	-10514
▁ллер	-10515
▁мала	-10516
▁нгал	-10517
▁нгон	-10518
▁ндаг	-10519
▁нэрл	-10520
▁тиоп	-10521
▁тряд	-10522
▁тээс	-10523
▁уман	-10524
▁эвдэ	-10525
▁элий	-10526
▁яваг	-10527
▁Voice	-10528
▁style	-10529
▁андар	-10530
▁аоаоа	-10531
▁галза	-10532
▁гууль	-10533
▁ингээ	-10534
▁иннес	-10535
▁нгела	-10536
▁ндрой	-10537
▁нхрон	-10538
▁оглог	-10539
▁оглох	-10540
▁ойкот	-10541
▁ралда	-10542
▁сульм	-10543
▁таара	-10544
▁хүчтэ	-10545
AP	-10546
ya	-10547
ЕН	-10548
бл	-10549
нс	-10550
пу	-10551
ты	-10552
▁★	-10553
▁・	-10554
ACK	-10555
ane	-10556
apa	-10557
asa	-10558
ati	-10559
iki	-10560
ory	-10561
ГЭЖ	-10562
ХАЛ	-10563
ано	-10564
аха	-10565
бин	-10566
лез	-10567
нгѳ	-10568
нэс	-10569
уль	-10570
ҮҮД	-10571
▁3/	-10572
▁7:	-10573
▁DH	-10574
▁Ip	-10575
▁Ki	-10576
▁LO	-10577
▁MO	-10578
▁MV	-10579
▁NI	-10580
▁SK	-10581
▁SN	-10582
▁SW	-10583
▁UK	-10584
▁UP	-10585
▁au	-10586
▁bb	-10587
▁ep	-10588
▁ua	-10589
▁wa	-10590
▁ГИ	-10591
▁ЕЗ	-10592
▁Же	-10593
▁ИШ	-10594
▁ЙМ	-10595
▁РТ	-10596
▁СА	-10597
▁УЧ	-10598
▁аь	-10599
▁ез	-10600
▁йш	-10601
▁нм	-10602
▁чо	-10603
itle	-10604
снаа	-10605
▁06,	-10606
▁103	-10607
▁12.	-10608
▁18.	-10609
▁270	-10610
▁5-7	-10611
▁Ast	-10612
▁Bin	-10613
▁Cos	-10614
▁MON	-10615
▁Max	-10616
▁PST	-10617
▁Vir	-10618
▁Woo	-10619
▁ani	-10620
▁etc	-10621
▁exp	-10622
▁ima	-10623
▁pol	-10624
▁rom	-10625
▁row	-10626
▁val	-10627
▁АРТ	-10628
▁БАР	-10629
▁Бао	-10630
▁Гял	-10631
▁ДОХ	-10632
▁Лит	-10633
▁Пау	-10634
▁РГА	-10635
▁РЭЭ	-10636
▁Рей	-10637
▁Рек	-10638
▁РӨН	-10639
▁Уян	-10640
▁Шон	-10641
▁ЭЕШ	-10642
▁Эрч	-10643
▁ЯВД	-10644
▁асБ	-10645
▁бсн	-10646
▁гно	-10647
▁гот	-10648
▁дин	-10649
▁длу	-10650
▁имд	-10651
▁ину	-10652
▁йон	-10653
▁йта	-10654
▁лег	-10655
▁лфи	-10656
▁оом	-10657
▁рас	-10658
▁реп	-10659
▁рук	-10660
▁рхт	-10661
▁ттэ	-10662
▁урж	-10663
▁хул	-10664
▁час	-10665
▁эйк	-10666
▁ява	-10667
▁яяя	-10668
▁үрч	-10669
▁Ball	-10670
▁Buro	-10671
▁Card	-10672
▁Dong	-10673
▁Mana	-10674
▁Niss	-10675
▁Roll	-10676
▁XIII	-10677
▁ball	-10678
▁comp	-10679
▁days	-10680
▁hell	-10681
▁inue	-10682
▁love	-10683
▁raft	-10684
▁tics	-10685
▁Виза	-10686
▁Сент	-10687
▁Хуан	-10688
▁авда	-10689
▁анха	-10690
▁ввво	-10691
▁глэн	-10692
▁гчий	-10693
▁илер	-10694
▁илцл	-10695
▁йлээ	-10696
▁йсэн	-10697
▁лайк	-10698
▁ллон	-10699
▁маль	-10700
▁мээн	-10701
▁ншиг	-10702
▁нөгч	-10703
▁рант	-10704
▁рилл	-10705
▁сүлж	-10706
▁улшн	-10707
▁хант	-10708
▁хєрє	-10709
▁эснэ	-10710
▁євхє	-10711
▁ӨЛӨӨ	-10712
▁СШУСЯ	-10713
▁УРХАН	-10714
▁алжин	-10715
▁бэгэр	-10716
▁вэрлэ	-10717
▁ирдаг	-10718
▁йснаа	-10719
▁лагчи	-10720
▁оёота	-10721
▁раоке	-10722
▁сүгэй	-10723
▁тайга	-10724
▁уруут	-10725
▁чєлєє	-10726
▁шенко	-10727
▁энсэн	-10728
▁энэнд	-10729
50	-10730
CA	-10731
FF	-10732
LT	-10733
UU	-10734
lo	-10735
vs	-10736
Вт	-10737
НУ	-10738
РИ	-10739
бы	-10740
же	-10741
йс	-10742
мм	-10743
нє	-10744
ят	-10745
ёё	-10746
ӨЗ	-10747
▁ü	-10748
▁ý	-10749
▁≤	-10750
EFL	-10751
umi	-10752
ute	-10753
ЛЭЛ	-10754
ово	-10755
шєє	-10756
▁CC	-10757
▁DM	-10758
▁EP	-10759
▁Fu	-10760
▁Ga	-10761
▁HE	-10762
▁JO	-10763
▁JY	-10764
▁Od	-10765
▁Of	-10766
▁PL	-10767
▁RA	-10768
▁TA	-10769
▁TM	-10770
▁WI	-10771
▁Yo	-10772
▁cc	-10773
▁dr	-10774
▁jo	-10775
▁kn	-10776
▁mm	-10777
▁od	-10778
▁vo	-10779
▁wi	-10780
▁ДД	-10781
▁Жэ	-10782
▁СИ	-10783
▁ЭТ	-10784
▁дч	-10785
▁жж	-10786
▁ую	-10787
▁ҮД	-10788
▁14.	-10789
▁2,5	-10790
▁2.1	-10791
▁4.5	-10792
▁550	-10793
▁60%	-10794
▁Bon	-10795
▁Bra	-10796
▁Cum	-10797
▁DNS	-10798
▁Dog	-10799
▁Hum	-10800
▁KFC	-10801
▁Key	-10802
▁Lea	-10803
▁MGL	-10804
▁Pen	-10805
▁Shi	-10806
▁Tal	-10807
▁Tri	-10808
▁XIX	-10809
▁dis	-10810
▁ear	-10811
▁eon	-10812
▁gat	-10813
▁ham	-10814
▁hen	-10815
▁iat	-10816
▁ire	-10817
▁nch	-10818
▁nic	-10819
▁ori	-10820
▁АНЫ	-10821
▁Гүн	-10822
▁Дик	-10823
▁Дон	-10824
▁Зэс	-10825
▁Мєн	-10826
▁НХБ	-10827
▁ОСК	-10828
▁Пап	-10829
▁РОН	-10830
▁РЭЛ	-10831
▁Сау	-10832
▁ТӨР	-10833
▁УХМ	-10834
▁ЧИН	-10835
▁Чон	-10836
▁Шаг	-10837
▁Шүд	-10838
▁Экс	-10839
▁ЯМД	-10840
▁гђй	-10841
▁дух	-10842
▁еер	-10843
▁ксф	-10844
▁льб	-10845
▁мма	-10846
▁нег	-10847
▁нцө	-10848
▁орл	-10849
▁рси	-10850
▁суб	-10851
▁суо	-10852
▁тєл	-10853
▁чив	-10854
▁юнх	-10855
▁ята	-10856
▁өрм	-10857
▁өхи	-10858
▁Alph	-10859
▁Bing	-10860
▁Boei	-10861
▁Brit	-10862
▁Club	-10863
▁Good	-10864
▁Netf	-10865
▁Reco	-10866
▁View	-10867
▁ense	-10868
▁grap	-10869
▁root	-10870
▁АВАН	-10871
▁АРИУ	-10872
▁Блез	-10873
▁Ефес	-10874
▁ОЛОМ	-10875
▁Поли	-10876
▁Саад	-10877
▁ШГЕГ	-10878
▁аали	-10879
▁амуу	-10880
▁анче	-10881
▁ария	-10882
▁арти	-10883
▁ашар	-10884
▁варт	-10885
▁гото	-10886
▁дийм	-10887
▁догь	-10888
▁дуро	-10889
▁дэнж	-10890
▁жаах	-10891
▁лдэр	-10892
▁ллаг	-10893
▁ллас	-10894
▁лфет	-10895
▁микс	-10896
▁нана	-10897
▁ндро	-10898
▁огра	-10899
▁огцо	-10900
▁онал	-10901
▁паал	-10902
▁рафт	-10903
▁рена	-10904
▁риан	-10905
▁ромж	-10906
▁росс	-10907
▁ссен	-10908
▁ссон	-10909
▁ссын	-10910
▁удан	-10911
▁удуу	-10912
▁уудс	-10913
▁уухэ	-10914
▁хары	-10915
▁чдий	-10916
▁шаан	-10917
▁єрєє	-10918
▁ҮРЭЛ	-10919
▁үсэр	-10920
▁үсэх	-10921
▁өлий	-10922
▁Journ	-10923
▁TOEFL	-10924
▁Touch	-10925
▁Tweet	-10926
▁house	-10927
▁press	-10928
▁АЗРЫН	-10929
▁АРГАЛ	-10930
▁ИЧЛЭГ	-10931
▁ЭРЭМЖ	-10932
▁айами	-10933
▁амбож	-10934
▁амжил	-10935
▁аргиа	-10936
▁арьца	-10937
▁бичээ	-10938
▁гуужу	-10939
▁днийг	-10940
▁енниф	-10941
▁ннаби	-10942
▁уудла	-10943
GO	-10944
LD	-10945
RE	-10946
cy	-10947
nc	-10948
аз	-10949
ии	-10950
ху	-10951
▁☮	-10952
osh	-10953
oth	-10954
oul	-10955
utt	-10956
ААХ	-10957
УУЛ	-10958
гэр	-10959
ими	-10960
тон	-10961
тре	-10962
тэр	-10963
▁,,	-10964
▁AB	-10965
▁CJ	-10966
▁EM	-10967
▁Ec	-10968
▁Es	-10969
▁IU	-10970
▁NS	-10971
▁dd	-10972
▁ec	-10973
▁fa	-10974
▁fu	-10975
▁gh	-10976
▁jp	-10977
▁sd	-10978
▁Ён	-10979
▁ДА	-10980
▁КН	-10981
▁МУ	-10982
▁НН	-10983
▁ОБ	-10984
▁ХЗ	-10985
▁ХН	-10986
▁ЭЖ	-10987
▁ЭЦ	-10988
▁ЭҮ	-10989
▁аы	-10990
▁нй	-10991
▁нѳ	-10992
▁рё	-10993
▁тю	-10994
▁шв	-10995
▁ыы	-10996
▁үө	-10997
▁ӨТ	-10998
inte	-10999
oney	-11000
▁1.6	-11001
▁1.8	-11002
▁113	-11003
▁115	-11004
▁128	-11005
▁16.	-11006
▁3.5	-11007
▁750	-11008
▁CAD	-11009
▁Deb	-11010
▁FOR	-11011
▁Fox	-11012
▁Map	-11013
▁Ora	-11014
▁PHP	-11015
▁Sha	-11016
▁XIV	-11017
▁Yoo	-11018
▁nit	-11019
▁ral	-11020
▁rat	-11021
▁rid	-11022
▁rus	-11023
▁tra	-11024
▁und	-11025
▁une	-11026
▁ААЛ	-11027
▁Абэ	-11028
▁БИШ	-11029
▁БНЭ	-11030
▁ГХЯ	-11031
▁Дэн	-11032
▁Евр	-11033
▁ИЛИ	-11034
▁Ирц	-11035
▁Иса	-11036
▁Иуд	-11037
▁ЛОХ	-11038
▁Ник	-11039
▁ОАК	-11040
▁ОЙМ	-11041
▁Пил	-11042
▁Рес	-11043
▁Рой	-11044
▁Сэр	-11045
▁ТУЗ	-11046
▁Таг	-11047
▁УНД	-11048
▁ЭЭР	-11049
▁анн	-11050
▁гцо	-11051
▁дуо	-11052
▁еди	-11053
▁зуд	-11054
▁итм	-11055
▁иён	-11056
▁йим	-11057
▁кас	-11058
▁лее	-11059
▁лия	-11060
▁лчд	-11061
▁мно	-11062
▁мөд	-11063
▁нку	-11064
▁нфл	-11065
▁оан	-11066
▁рау	-11067
▁рби	-11068
▁сно	-11069
▁уол	-11070
▁чит	-11071
▁ҮАН	-11072
▁ҮХЦ	-11073
▁ҮЭХ	-11074
▁ӨХК	-11075
▁Өвс	-11076
▁өнч	-11077
▁Asuu	-11078
▁BIOS	-11079
▁Benz	-11080
▁Chat	-11081
▁Dell	-11082
▁East	-11083
▁Happ	-11084
▁Lady	-11085
▁Pari	-11086
▁Tele	-11087
▁bate	-11088
▁duct	-11089
▁iPod	-11090
▁mond	-11091
▁mont	-11092
▁show	-11093
▁ward	-11094
▁Санд	-11095
▁ааги	-11096
▁анте	-11097
▁аргу	-11098
▁арза	-11099
▁бера	-11100
▁бета	-11101
▁бола	-11102
▁вере	-11103
▁гард	-11104
▁дней	-11105
▁елли	-11106
▁есси	-11107
▁жигч	-11108
▁зээр	-11109
▁иуде	-11110
▁лааг	-11111
▁ллуу	-11112
▁мнан	-11113
▁мулт	-11114
▁нгер	-11115
▁нгөө	-11116
▁ндор	-11117
▁нсон	-11118
▁нцар	-11119
▁ойжи	-11120
▁осом	-11121
▁ртур	-11122
▁рымы	-11123
▁слот	-11124
▁сода	-11125
▁това	-11126
▁тээв	-11127
▁уков	-11128
▁унжу	-11129
▁хэнэ	-11130
▁цаца	-11131
▁чинд	-11132
▁энэх	-11133
▁юксе	-11134
▁єгсє	-11135
▁үгнэ	-11136
▁David	-11137
▁Ether	-11138
▁Guard	-11139
▁Holly	-11140
▁House	-11141
▁Queen	-11142
▁Билли	-11143
▁Микро	-11144
▁УРВАЛ	-11145
▁акрон	-11146
▁альто	-11147
▁арвал	-11148
▁аруто	-11149
▁гдийг	-11150
▁глогч	-11151
▁иноза	-11152
▁нэмэл	-11153
▁сбадь	-11154
▁трүүл	-11155
▁элбэл	-11156
▁этгэр	-11157
OP	-11158
kk	-11159
pa	-11160
rl	-11161
БА	-11162
ЖШ	-11163
зм	-11164
зы	-11165
ту	-11166
тє	-11167
як	-11168
aci	-11169
igh	-11170
ile	-11171
olf	-11172
orm	-11173
per	-11174
адо	-11175
ник	-11176
нис	-11177
рос	-11178
три	-11179
ьян	-11180
эри	-11181
▁-4	-11182
▁=)	-11183
▁BS	-11184
▁CF	-11185
▁CM	-11186
▁DA	-11187
▁Ir	-11188
▁Pu	-11189
▁Za	-11190
▁rn	-11191
▁tv	-11192
▁БҮ	-11193
▁Гя	-11194
▁Жя	-11195
▁Ис	-11196
▁ЛЖ	-11197
▁ЯГ	-11198
▁аю	-11199
▁бг	-11200
▁иы	-11201
▁ъе	-11202
▁їр	-11203
▁"60	-11204
▁(7)	-11205
▁***	-11206
▁08,	-11207
▁1,2	-11208
▁118	-11209
▁15%	-11210
▁19.	-11211
▁2.2	-11212
▁2.4	-11213
▁25,	-11214
▁29,	-11215
▁31,	-11216
▁320	-11217
▁4-6	-11218
▁40%	-11219
▁99%	-11220
▁Arm	-11221
▁CMS	-11222
▁DIY	-11223
▁Dub	-11224
▁Eur	-11225
▁Fal	-11226
▁Hol	-11227
▁LCD	-11228
▁Mil	-11229
▁Pan	-11230
▁Rob	-11231
▁SOL	-11232
▁Seu	-11233
▁Tik	-11234
▁ade	-11235
▁air	-11236
▁baa	-11237
▁cal	-11238
▁del	-11239
▁ivi	-11240
▁joo	-11241
▁ler	-11242
▁och	-11243
▁ono	-11244
▁pow	-11245
▁sup	-11246
▁tag	-11247
▁zar	-11248
▁Аян	-11249
▁ГОЁ	-11250
▁ДАГ	-11251
▁Жэк	-11252
▁Зав	-11253
▁ИЗН	-11254
▁Лий	-11255
▁НЭР	-11256
▁ОЛБ	-11257
▁ОНЫ	-11258
▁Пээ	-11259
▁Тэс	-11260
▁УРД	-11261
▁УУЦ	-11262
▁ХЖШ	-11263
▁Худ	-11264
▁ШУҮ	-11265
▁авы	-11266
▁бой	-11267
▁буг	-11268
▁вье	-11269
▁гдс	-11270
▁гѳѳ	-11271
▁енх	-11272
▁исл	-11273
▁ито	-11274
▁йда	-11275
▁йин	-11276
▁лац	-11277
▁лот	-11278
▁лут	-11279
▁ней	-11280
▁олч	-11281
▁осс	-11282
▁пий	-11283
▁реа	-11284
▁сма	-11285
▁сун	-11286
▁тей	-11287
▁тко	-11288
▁ххэ	-11289
▁хїн	-11290
▁цэж	-11291
▁шон	-11292
▁эйс	-11293
▁элш	-11294
▁юси	-11295
▁юуш	-11296
▁яст	-11297
▁Dani	-11298
▁Dark	-11299
▁Fair	-11300
▁Fash	-11301
▁Form	-11302
▁Mail	-11303
▁Mont	-11304
▁Pyth	-11305
▁Stop	-11306
▁Stri	-11307
▁Syst	-11308
▁Test	-11309
▁With	-11310
▁body	-11311
▁ized	-11312
▁make	-11313
▁ount	-11314
▁samj	-11315
▁star	-11316
▁this	-11317
▁what	-11318
▁АРЫН	-11319
▁Аути	-11320
▁ЗДТГ	-11321
▁ЛГЭЭ	-11322
▁Лаос	-11323
▁Роби	-11324
▁УЛГА	-11325
▁айхн	-11326
▁алза	-11327
▁анна	-11328
▁арен	-11329
▁ашёд	-11330
▁буда	-11331
▁влог	-11332
▁дули	-11333
▁енев	-11334
▁жазз	-11335
▁зарт	-11336
▁ийлү	-11337
▁ирал	-11338
▁ишээ	-11339
▁йнер	-11340
▁кура	-11341
▁лгай	-11342
▁мбал	-11343
▁мъян	-11344
▁онда	-11345
▁рага	-11346
▁ржиг	-11347
▁рлос	-11348
▁рнаа	-11349
▁ртаг	-11350
▁ртер	-11351
▁рэлс	-11352
▁рэнк	-11353
▁тєрє	-11354
▁утын	-11355
▁флот	-11356
▁чнээ	-11357
▁эдэж	-11358
▁эрсэ	-11359
▁Busin	-11360
▁Creat	-11361
▁Crypt	-11362
▁React	-11363
▁Vogue	-11364
▁point	-11365
▁zaluu	-11366
▁ИДНИЙ	-11367
▁ИЛДЭГ	-11368
▁ОГТОО	-11369
▁Оросы	-11370
▁ЯВДАЛ	-11371
▁аннер	-11372
▁билди	-11373
▁бинет	-11374
▁болик	-11375
▁ваань	-11376
▁еннай	-11377
▁канди	-11378
▁льтер	-11379
▁огоор	-11380
▁радик	-11381
▁ргиан	-11382
▁сухай	-11383
▁энзэн	-11384
▁юнхен	-11385
GE	-11386
LS	-11387
UB	-11388
sy	-11389
uh	-11390
ДС	-11391
ЕК	-11392
ОШ	-11393
вл	-11394
ех	-11395
цу	-11396
цє	-11397
ѳв	-11398
Үр	-11399
▁õ	-11400
БАР	-11401
ЛӨӨ	-11402
РАЛ	-11403
аса	-11404
ира	-11405
лаш	-11406
▁"2	-11407
▁$1	-11408
▁-3	-11409
▁8%	-11410
▁8:	-11411
▁AA	-11412
▁BT	-11413
▁EE	-11414
▁EL	-11415
▁Eb	-11416
▁LA	-11417
▁Lu	-11418
▁Mp	-11419
▁OL	-11420
▁hd	-11421
▁Ву	-11422
▁КА	-11423
▁ЛО	-11424
▁ЛЦ	-11425
▁РЧ	-11426
▁СД	-11427
▁Ци	-11428
▁вц	-11429
▁рф	-11430
▁шм	-11431
▁юс	-11432
▁їг	-11433
▁їз	-11434
▁ӨД	-11435
esla	-11436
▁1/3	-11437
▁175	-11438
▁2-4	-11439
▁3.0	-11440
▁650	-11441
▁70%	-11442
▁850	-11443
▁BIG	-11444
▁Bly	-11445
▁Doc	-11446
▁GIS	-11447
▁IOS	-11448
▁Ice	-11449
▁Jae	-11450
▁Not	-11451
▁Opt	-11452
▁PIN	-11453
▁Pra	-11454
▁Ros	-11455
▁Run	-11456
▁SAT	-11457
▁San	-11458
▁Seo	-11459
▁Set	-11460
▁She	-11461
▁Tor	-11462
▁UNI	-11463
▁Ult	-11464
▁Way	-11465
▁add	-11466
▁car	-11467
▁ean	-11468
▁fda	-11469
▁gem	-11470
▁les	-11471
▁nam	-11472
▁nda	-11473
▁nie	-11474
▁ode	-11475
▁ond	-11476
▁san	-11477
▁set	-11478
▁sor	-11479
▁АНИ	-11480
▁Абу	-11481
▁Айн	-11482
▁Аса	-11483
▁Бий	-11484
▁ГОО	-11485
▁ГЫН	-11486
▁ГЭЖ	-11487
▁Код	-11488
▁Лар	-11489
▁Лог	-11490
▁ЛӨГ	-11491
▁НГИ	-11492
▁СНЭ	-11493
▁ТЭР	-11494
▁Төд	-11495
▁УОХ	-11496
▁Хүй	-11497
▁Чой	-11498
▁Эко	-11499
▁Эми	-11500
▁ЭҮК	-11501
▁асч	-11502
▁вэг	-11503
▁гох	-11504
▁гэй	-11505
▁дем	-11506
▁ела	-11507
▁заж	-11508
▁зєв	-11509
▁зүв	-11510
▁ийр	-11511
▁йлш	-11512
▁лас	-11513
▁лой	-11514
▁лян	-11515
▁мед	-11516
▁мне	-11517
▁нгс	-11518
▁нии	-11519
▁нью	-11520
▁нөр	-11521
▁оби	-11522
▁ова	-11523
▁онш	-11524
▁пад	-11525
▁пиг	-11526
▁пре	-11527
▁раш	-11528
▁рри	-11529
▁сва	-11530
▁ски	-11531
▁уан	-11532
▁уба	-11533
▁усс	-11534
▁хба	-11535
▁цэм	-11536
▁чды	-11537
▁чөм	-11538
▁үмх	-11539
▁ӨНХ	-11540
▁ӨРЧ	-11541
▁өлм	-11542
▁өлө	-11543
▁Arch	-11544
▁Augu	-11545
▁Ford	-11546
▁Gang	-11547
▁Hell	-11548
▁High	-11549
▁Idol	-11550
▁Jame	-11551
▁Line	-11552
▁Resp	-11553
▁Sand	-11554
▁chan	-11555
▁cock	-11556
▁file	-11557
▁form	-11558
▁have	-11559
▁ling	-11560
▁lock	-11561
▁nect	-11562
▁part	-11563
▁rone	-11564
▁syst	-11565
▁ways	-11566
▁АХИД	-11567
▁Коло	-11568
▁Мана	-11569
▁ОНОГ	-11570
▁ОРИУ	-11571
▁адер	-11572
▁ажик	-11573
▁айдо	-11574
▁айлг	-11575
▁амби	-11576
▁баба	-11577
▁болт	-11578
▁боти	-11579
▁буул	-11580
▁гаал	-11581
▁глас	-11582
▁гсэн	-11583
▁гэлт	-11584
▁дчил	-11585
▁ениф	-11586
▁заав	-11587
▁иент	-11588
▁илли	-11589
▁инск	-11590
▁иото	-11591
▁йлаа	-11592
▁лалр	-11593
▁лант	-11594
▁лгож	-11595
▁ллар	-11596
▁лцаж	-11597
▁нако	-11598
▁ника	-11599
▁нова	-11600
▁нтуу	-11601
▁нтэр	-11602
▁нума	-11603
▁ойно	-11604
▁орем	-11605
▁радо	-11606
▁рлэн	-11607
▁ролд	-11608
▁стга	-11609
▁стик	-11610
▁триц	-11611
▁унэн	-11612
▁усар	-11613
▁хлай	-11614
▁хээг	-11615
▁чарт	-11616
▁эрхл	-11617
▁ээдэ	-11618
▁єнєє	-11619
▁ѳгсѳ	-11620
▁ҮНИЙ	-11621
▁үдий	-11622
▁өмсө	-11623
▁өөлж	-11624
▁өөсө	-11625
▁Charl	-11626
▁Intel	-11627
▁Ninte	-11628
▁State	-11629
▁АЙГАА	-11630
▁СУУЛТ	-11631
▁ШУҮИС	-11632
▁ЭТГЭЛ	-11633
▁билай	-11634
▁дорги	-11635
▁еброн	-11636
▁зэвэг	-11637
▁итани	-11638
▁йлгах	-11639
▁макро	-11640
▁салба	-11641
▁салон	-11642
▁ткоин	-11643
▁уулчи	-11644
▁эргий	-11645
▁үлдэг	-11646
DM	-11647
OW	-11648
RI	-11649
fo	-11650
kh	-11651
zo	-11652
КО	-11653
МИ	-11654
ФА	-11655
ЬЕ	-11656
вы	-11657
гы	-11658
жн	-11659
лд	-11660
пр	-11661
уо	-11662
▁♛	-11663
IFA	-11664
ili	-11665
ins	-11666
oop	-11667
unk	-11668
vel	-11669
ВАН	-11670
заа	-11671
лал	-11672
пер	-11673
рий	-11674
чик	-11675
шуа	-11676
ёор	-11677
єхє	-11678
▁0,	-11679
▁AV	-11680
▁BD	-11681
▁CU	-11682
▁FA	-11683
▁FB	-11684
▁Ky	-11685
▁Ly	-11686
▁NT	-11687
▁SB	-11688
▁Ti	-11689
▁Va	-11690
▁Wr	-11691
▁Yv	-11692
▁bd	-11693
▁ct	-11694
▁ji	-11695
▁ku	-11696
▁oi	-11697
▁ok	-11698
▁py	-11699
▁ug	-11700
▁ui	-11701
▁yu	-11702
▁Ая	-11703
▁БГ	-11704
▁ЗЗ	-11705
▁Зэ	-11706
▁КС	-11707
▁УШ	-11708
▁Юй	-11709
▁гз	-11710
▁гх	-11711
▁чв	-11712
▁ђђ	-11713
▁ҮЧ	-11714
▁өй	-11715
ХАҮТ	-11716
▁07,	-11717
▁132	-11718
▁3.3	-11719
▁3.4	-11720
▁6-8	-11721
▁Add	-11722
▁Ave	-11723
▁CSS	-11724
▁Cop	-11725
▁Dig	-11726
▁FDA	-11727
▁Fer	-11728
▁Fro	-11729
▁GDP	-11730
▁Git	-11731
▁HGH	-11732
▁IBM	-11733
▁Jim	-11734
▁Ken	-11735
▁LTE	-11736
▁MAX	-11737
▁Mal	-11738
▁Nik	-11739
▁POP	-11740
▁Rio	-11741
▁SHA	-11742
▁SPF	-11743
▁SSD	-11744
▁See	-11745
▁TED	-11746
▁Wel	-11747
▁ada	-11748
▁ban	-11749
▁bot	-11750
▁bre	-11751
▁cut	-11752
▁ene	-11753
▁ism	-11754
▁jpg	-11755
▁lne	-11756
▁mar	-11757
▁ora	-11758
▁pay	-11759
▁rho	-11760
▁rop	-11761
▁ter	-11762
▁АНС	-11763
▁Биш	-11764
▁Боо	-11765
▁Гүй	-11766
▁ДАХ	-11767
▁Ерө	-11768
▁Зай	-11769
▁ИНЖ	-11770
▁ИНЬ	-11771
▁ЛОГ	-11772
▁ЛЫН	-11773
▁Лад	-11774
▁НГӨ	-11775
▁Нил	-11776
▁ООЛ	-11777
▁САА	-11778
▁СХД	-11779
▁Сын	-11780
▁ТАС	-11781
▁УУН	-11782
▁УУС	-11783
▁ХУД	-11784
▁Шил	-11785
▁Шин	-11786
▁Элч	-11787
▁аде	-11788
▁анц	-11789
▁бон	-11790
▁дел	-11791
▁ииг	-11792
▁иим	-11793
▁ита	-11794
▁йгл	-11795
▁ктя	-11796
▁кут	-11797
▁ндс	-11798
▁нид	-11799
▁нни	-11800
▁нод	-11801
▁ньо	-11802
▁поз	-11803
▁ржл	-11804
▁рош	-11805
▁рсє	-11806
▁сел	-11807
▁тыг	-11808
▁умб	-11809
▁уяж	-11810
▁худ	-11811
▁эмп	-11812
▁ҮНД	-11813
▁үвш	-11814
▁үрз	-11815
▁Audi	-11816
▁Beat	-11817
▁Dail	-11818
▁FIFA	-11819
▁Fami	-11820
▁NESS	-11821
▁Nike	-11822
▁Oper	-11823
▁Para	-11824
▁Port	-11825
▁Prot	-11826
▁Rain	-11827
▁Sain	-11828
▁Shin	-11829
▁Soft	-11830
▁Take	-11831
▁This	-11832
▁Wikt	-11833
▁cest	-11834
▁rypt	-11835
▁that	-11836
▁type	-11837
▁АНАА	-11838
▁АСАГ	-11839
▁ГЭЭР	-11840
▁Иере	-11841
▁Лизи	-11842
▁РГЭН	-11843
▁УРАГ	-11844
▁УРАЛ	-11845
▁абиб	-11846
▁абул	-11847
▁аган	-11848
▁азон	-11849
▁аква	-11850
▁арин	-11851
▁арре	-11852
▁гайн	-11853
▁гжим	-11854
▁гоно	-11855
▁джак	-11856
▁едиц	-11857
▁елла	-11858
▁енно	-11859
▁жори	-11860
▁зүна	-11861
▁инут	-11862
▁лекс	-11863
▁лсээ	-11864
▁льти	-11865
▁льфи	-11866
▁майл	-11867
▁матр	-11868
▁мбан	-11869
▁мдэг	-11870
▁моли	-11871
▁муля	-11872
▁ната	-11873
▁ндэр	-11874
▁нжин	-11875
▁нште	-11876
▁ойнд	-11877
▁орий	-11878
▁оров	-11879
▁очоо	-11880
▁оэль	-11881
▁прил	-11882
▁ркел	-11883
▁рмен	-11884
▁ррор	-11885
▁рчуу	-11886
▁сийм	-11887
▁унде	-11888
▁хайд	-11889
▁хира	-11890
▁хохи	-11891
▁хуйл	-11892
▁шёор	-11893
▁ьтан	-11894
▁элэв	-11895
▁яаха	-11896
▁ѳлѳѳ	-11897
▁үсэж	-11898
▁өрсө	-11899
▁Alpha	-11900
▁Block	-11901
▁Crazy	-11902
▁Durat	-11903
▁First	-11904
▁Forbe	-11905
▁Prius	-11906
▁Story	-11907
▁Tesla	-11908
▁graph	-11909
▁store	-11910
▁Наоми	-11911
▁аглал	-11912
▁айсон	-11913
▁амжла	-11914
▁аргах	-11915
▁иллер	-11916
▁кайдо	-11917
▁ндран	-11918
▁никюр	-11919
▁нтони	-11920
▁оглож	-11921
▁огтол	-11922
▁ооооа	-11923
▁ранзи	-11924
▁рнууд	-11925
▁ртиза	-11926
▁руула	-11927
▁страк	-11928
▁таман	-11929
▁уухэд	-11930
▁шугар	-11931
▁элүүд	-11932
▁энтер	-11933
▁ҮХАҮТ	-11934
CP	-11935
VA	-11936
ng	-11937
ГЧ	-11938
ИТ	-11939
Ус	-11940
Юм	-11941
вє	-11942
зэ	-11943
ив	-11944
кт	-11945
мү	-11946
су	-11947
уш	-11948
ьа	-11949
Үг	-11950
ᄏᄏ	-11951
▁Ø	-11952
▁ä	-11953
▁😍	-11954
▁🙏	-11955
apt	-11956
ird	-11957
ita	-11958
oui	-11959
ven	-11960
ГҮЙ	-11961
ГҮҮ	-11962
ОРЖ	-11963
СОН	-11964
аах	-11965
аре	-11966
ева	-11967
еро	-11968
кон	-11969
мон	-11970
при	-11971
хуа	-11972
эээ	-11973
ӨЗО	-11974
▁3%	-11975
▁AF	-11976
▁Ct	-11977
▁ED	-11978
▁HP	-11979
▁HS	-11980
▁OM	-11981
▁PT	-11982
▁Pf	-11983
▁RI	-11984
▁Ry	-11985
▁ab	-11986
▁cr	-11987
▁gg	-11988
▁ix	-11989
▁pt	-11990
▁uu	-11991
▁БУ	-11992
▁ВС	-11993
▁Оо	-11994
▁ПУ	-11995
▁Эе	-11996
▁иё	-11997
▁тй	-11998
▁уе	-11999
▁ым	-12000
▁ыт	-12001
▁юи	-12002
▁✔️	-12003
iece	-12004
▁03,	-12005
▁05,	-12006
▁111	-12007
▁127	-12008
▁2,3	-12009
▁25.	-12010
▁380	-12011
▁51%	-12012
▁Bel	-12013
▁Bri	-12014
▁Cur	-12015
▁Die	-12016
▁Hen	-12017
▁Hon	-12018
▁Nex	-12019
▁Nin	-12020
▁Oly	-12021
▁Pok	-12022
▁Por	-12023
▁Rel	-12024
▁Rip	-12025
▁SSL	-12026
▁Sin	-12027
▁Sur	-12028
▁Tha	-12029
▁Who	-12030
▁YES	-12031
▁acc	-12032
▁adi	-12033
▁ass	-12034
▁bal	-12035
▁bum	-12036
▁dan	-12037
▁dem	-12038
▁ens	-12039
▁ero	-12040
▁fre	-12041
▁gar	-12042
▁ita	-12043
▁kin	-12044
▁lat	-12045
▁lol	-12046
▁lon	-12047
▁map	-12048
▁ncy	-12049
▁nel	-12050
▁ney	-12051
▁our	-12052
▁pad	-12053
▁php	-12054
▁pop	-12055
▁ran	-12056
▁rep	-12057
▁sch	-12058
▁sec	-12059
▁sur	-12060
▁tam	-12061
▁АМТ	-12062
▁АНК	-12063
▁АСТ	-12064
▁БОЛ	-12065
▁Бин	-12066
▁ГЭР	-12067
▁ДЫН	-12068
▁Дин	-12069
▁Лих	-12070
▁Мөр	-12071
▁НБД	-12072
▁ОХИ	-12073
▁СТА	-12074
▁Саа	-12075
▁Син	-12076
▁УГА	-12077
▁ХБЯ	-12078
▁ХЗХ	-12079
▁Хэв	-12080
▁ЭЭС	-12081
▁бле	-12082
▁вен	-12083
▁вой	-12084
▁гжл	-12085
▁гин	-12086
▁гли	-12087
▁гоз	-12088
▁гєє	-12089
▁дым	-12090
▁дөч	-12091
▁ичл	-12092
▁кэй	-12093
▁лиз	-12094
▁ная	-12095
▁пап	-12096
▁под	-12097
▁род	-12098
▁срэ	-12099
▁урл	-12100
▁хак	-12101
▁цөв	-12102
▁ҮЗХ	-12103
▁үст	-12104
▁ӨЛӨ	-12105
▁ӨҮГ	-12106
▁ӨӨР	-12107
▁Aust	-12108
▁BUSI	-12109
▁Code	-12110
▁Coll	-12111
▁Dona	-12112
▁Eart	-12113
▁Fast	-12114
▁Jung	-12115
▁Kill	-12116
▁Last	-12117
▁Pink	-12118
▁Real	-12119
▁Walm	-12120
▁Wash	-12121
▁Yose	-12122
▁Zone	-12123
▁ford	-12124
▁home	-12125
▁host	-12126
▁link	-12127
▁nolo	-12128
▁stat	-12129
▁stri	-12130
▁Єнєє	-12131
▁АБНУ	-12132
▁АРАА	-12133
▁ГЛӨӨ	-12134
▁ЛААН	-12135
▁Матр	-12136
▁МӨЗО	-12137
▁Нета	-12138
▁ОРИО	-12139
▁Порт	-12140
▁Рика	-12141
▁УТАГ	-12142
▁ЭВЭР	-12143
▁ЭДЭГ	-12144
▁ЭТГЭ	-12145
▁Юрий	-12146
▁адын	-12147
▁анет	-12148
▁апас	-12149
▁ариб	-12150
▁арло	-12151
▁вале	-12152
▁вказ	-12153
▁дара	-12154
▁дхүү	-12155
▁дэнз	-12156
▁зара	-12157
▁иймэ	-12158
▁илжи	-12159
▁ланк	-12160
▁лдун	-12161
▁лион	-12162
▁ломб	-12163
▁лөгө	-12164
▁мари	-12165
▁мюзи	-12166
▁нала	-12167
▁ндер	-12168
▁невр	-12169
▁нүүс	-12170
▁ойжу	-12171
▁олан	-12172
▁ооёо	-12173
▁ргай	-12174
▁рини	-12175
▁ртон	-12176
▁ртєє	-12177
▁рэйг	-12178
▁саун	-12179
▁сдад	-12180
▁ссиг	-12181
▁суда	-12182
▁тоно	-12183
▁тоть	-12184
▁трас	-12185
▁уган	-12186
▁удир	-12187
▁ульс	-12188
▁ушуу	-12189
▁хинд	-12190
▁хлүү	-12191
▁хоть	-12192
▁цуха	-12193
▁чтэй	-12194
▁эгчи	-12195
▁эгэс	-12196
▁єрсє	-12197
▁ҮРЭН	-12198
▁үгдэ	-12199
▁Bloom	-12200
▁Click	-12201
▁first	-12202
▁group	-12203
▁ОЛБОО	-12204
▁ОЛОМЖ	-12205
▁ааоао	-12206
▁аараг	-12207
▁альци	-12208
▁амхай	-12209
▁гэлзэ	-12210
▁дүүлэ	-12211
▁емода	-12212
▁жуула	-12213
▁изнэс	-12214
▁йгаар	-12215
▁мфони	-12216
▁нител	-12217
▁нєхцє	-12218
▁оогий	-12219
▁ремль	-12220
▁рмени	-12221
▁ссенж	-12222
▁талья	-12223
▁шёорю	-12224
▁эгсхи	-12225
▁єндєр	-12226
▁ҮҮХДИ	-12227
++	-12228
GA	-12229
GB	-12230
NE	-12231
vd	-12232
БИ	-12233
ТО	-12234
ШИ	-12235
кг	-12236
пп	-12237
уи	-12238
ыа	-12239
һи	-12240
▁§	-12241
▁×	-12242
▁÷	-12243
▁🔊	-12244
▁😭	-12245
ASS	-12246
aru	-12247
asy	-12248
ilt	-12249
ope	-12250
АМЖ	-12251
АНА	-12252
ДАА	-12253
ШИГ	-12254
бек	-12255
еле	-12256
ере	-12257
коз	-12258
ова	-12259
ози	-12260
оне	-12261
фри	-12262
▁==	-12263
▁BR	-12264
▁CB	-12265
▁DR	-12266
▁EU	-12267
▁FS	-12268
▁GR	-12269
▁GT	-12270
▁IG	-12271
▁Il	-12272
▁Ny	-12273
▁OP	-12274
▁UE	-12275
▁VR	-12276
▁Ze	-12277
▁ea	-12278
▁ef	-12279
▁fy	-12280
▁mt	-12281
▁oh	-12282
▁ox	-12283
▁ps	-12284
▁rg	-12285
▁sq	-12286
▁zo	-12287
▁Ад	-12288
▁ДУ	-12289
▁Иж	-12290
▁Кл	-12291
▁ЛГ	-12292
▁Лю	-12293
▁Лү	-12294
▁НК	-12295
▁Пэ	-12296
▁Сы	-12297
▁УП	-12298
▁Ум	-12299
▁ЯЛ	-12300
▁кө	-12301
▁уо	-12302
▁хД	-12303
▁ый	-12304
▁ѳв	-12305
▁ӨМ	-12306
ялда	-12307
єнгє	-12308
▁(10	-12309
▁(24	-12310
▁-10	-12311
▁1,6	-12312
▁1.7	-12313
▁116	-12314
▁123	-12315
▁152	-12316
▁17.	-12317
▁2.7	-12318
▁230	-12319
▁3.2	-12320
▁340	-12321
▁@@@	-12322
▁AST	-12323
▁Cri	-12324
▁Dir	-12325
▁FAC	-12326
▁GTA	-12327
▁Hal	-12328
▁MAR	-12329
▁MTV	-12330
▁REP	-12331
▁Rad	-12332
▁Sal	-12333
▁Tab	-12334
▁Ton	-12335
▁Wat	-12336
▁bad	-12337
▁doc	-12338
▁ech	-12339
▁ein	-12340
▁hic	-12341
▁ifi	-12342
▁iph	-12343
▁pat	-12344
▁quo	-12345
▁rua	-12346
▁sel	-12347
▁sol	-12348
▁ste	-12349
▁tch	-12350
▁vil	-12351
▁xxx	-12352
▁АПУ	-12353
▁АЦС	-12354
▁Аяа	-12355
▁Гаж	-12356
▁ДЦС	-12357
▁ДЭД	-12358
▁Даа	-12359
▁ИЛТ	-12360
▁Лим	-12361
▁Лус	-12362
▁Маа	-12363
▁Май	-12364
▁Мэх	-12365
▁НЭН	-12366
▁ОНО	-12367
▁ОРЖ	-12368
▁Пла	-12369
▁Пүү	-12370
▁РАМ	-12371
▁Рон	-12372
▁ССР	-12373
▁СҮХ	-12374
▁ТАА	-12375
▁ТАН	-12376
▁УВЬ	-12377
▁Уны	-12378
▁ХКН	-12379
▁ХЭЛ	-12380
▁ЦАА	-12381
▁Шаа	-12382
▁ЭГД	-12383
▁Эмх	-12384
▁айп	-12385
▁ано	-12386
▁аут	-12387
▁бад	-12388
▁бяр	-12389
▁вна	-12390
▁вот	-12391
▁всг	-12392
▁гел	-12393
▁ден	-12394
▁дчи	-12395
▁ейж	-12396
▁ели	-12397
▁ирд	-12398
▁исс	-12399
▁иэт	-12400
▁кум	-12401
▁лбө	-12402
▁лун	-12403
▁льм	-12404
▁мпа	-12405
▁нэш	-12406
▁онн	-12407
▁орр	-12408
▁оху	-12409
▁пис	-12410
▁рчи	-12411
▁рша	-12412
▁угд	-12413
▁уэр	-12414
▁ххк	-12415
▁чек	-12416
▁эгү	-12417
▁эйд	-12418
▁эта	-12419
▁эхх	-12420
▁ээм	-12421
▁ҮҮД	-12422
▁үкү	-12423
▁ӨТӨ	-12424
▁Cali	-12425
▁Cool	-12426
▁Corp	-12427
▁Ctrl	-12428
▁Desi	-12429
▁Ever	-12430
▁Hack	-12431
▁Hill	-12432
▁Hong	-12433
▁Insi	-12434
▁Joom	-12435
▁Mora	-12436
▁Pass	-12437
▁SARS	-12438
▁Shen	-12439
▁Shop	-12440
▁Sung	-12441
▁Type	-12442
▁Well	-12443
▁Year	-12444
▁Zaag	-12445
▁Zoom	-12446
▁bank	-12447
▁girl	-12448
▁hand	-12449
▁hard	-12450
▁hine	-12451
▁less	-12452
▁note	-12453
▁scri	-12454
▁wiki	-12455
▁Ёооё	-12456
▁АМГИ	-12457
▁АМЗХ	-12458
▁АСГИ	-12459
▁ЗДХЯ	-12460
▁ИУЛТ	-12461
▁Кола	-12462
▁ЛАГЧ	-12463
▁ЛЭГЧ	-12464
▁ОГОО	-12465
▁Подк	-12466
▁СБНХ	-12467
▁ССҮТ	-12468
▁Хара	-12469
▁ЭЛХИ	-12470
▁аарт	-12471
▁агад	-12472
▁агре	-12473
▁айди	-12474
▁акул	-12475
▁алав	-12476
▁алби	-12477
▁атир	-12478
▁бара	-12479
▁болы	-12480
▁гажи	-12481
▁голь	-12482
▁дагз	-12483
▁докс	-12484
▁дрөө	-12485
▁ерее	-12486
▁ерси	-12487
▁жлын	-12488
▁идэн	-12489
▁имот	-12490
▁инсу	-12491
▁кадр	-12492
▁кини	-12493
▁котт	-12494
▁леон	-12495
▁майк	-12496
▁надо	-12497
▁нехе	-12498
▁нжиг	-12499
▁нжон	-12500
▁ниус	-12501
▁ноот	-12502
▁нхал	-12503
▁нхар	-12504
▁нчиг	-12505
▁остю	-12506
▁реце	-12507
▁роно	-12508
▁ртгэ	-12509
▁скан	-12510
▁слэг	-12511
▁соло	-12512
▁сссс	-12513
▁сток	-12514
▁сурв	-12515
▁сэрд	-12516
▁тгүү	-12517
▁тель	-12518
▁тєлє	-12519
▁фейс	-12520
▁хайг	-12521
▁хлаг	-12522
▁хүчл	-12523
▁шалг	-12524
▁эвхэ	-12525
▁элли	-12526
▁энри	-12527
▁юзан	-12528
▁өндг	-12529
▁Class	-12530
▁Cosmo	-12531
▁Found	-12532
▁Heart	-12533
▁Light	-12534
▁Model	-12535
▁Posts	-12536
▁Rover	-12537
▁Track	-12538
▁block	-12539
▁color	-12540
▁Иошуа	-12541
▁Логик	-12542
▁Петер	-12543
▁Пилат	-12544
▁Попул	-12545
▁Район	-12546
▁айлуу	-12547
▁ангүй	-12548
▁вакуу	-12549
▁вввлл	-12550
▁дєрвє	-12551
▁жигла	-12552
▁иникс	-12553
▁йонсе	-12554
▁лахаа	-12555
▁логог	-12556
▁лооль	-12557
▁найте	-12558
▁налог	-12559
▁ндари	-12560
▁ников	-12561
▁нкуба	-12562
▁оорий	-12563
▁рзгар	-12564
▁тикан	-12565
▁удапе	-12566
▁удтай	-12567
▁хайрл	-12568
▁шагай	-12569
▁эйгээ	-12570
▁євшєє	-12571
▁ѳѳрѳѳ	-12572
▁үүхдэ	-12573
Fi	-12574
Go	-12575
WD	-12576
ju	-12577
pi	-12578
pm	-12579
Ёс	-12580
Аж	-12581
ЭЦ	-12582
ву	-12583
вэ	-12584
гү	-12585
ду	-12586
кк	-12587
ое	-12588
рт	-12589
чо	-12590
шг	-12591
ык	-12592
▁ë	-12593
▁ñ	-12594
▁ó	-12595
▁Ќ	-12596
▁Ь	-12597
▁≈	-12598
▁😂	-12599
▁😊	-12600
acc	-12601
ota	-12602
unt	-12603
vie	-12604
РЭН	-12605
ШӨӨ	-12606
аге	-12607
айт	-12608
ало	-12609
анс	-12610
бат	-12611
май	-12612
нет	-12613
орс	-12614
оха	-12615
тек	-12616
тта	-12617
уля	-12618
цер	-12619
эгэ	-12620
▁"3	-12621
▁"4	-12622
▁((	-12623
▁-5	-12624
▁/1	-12625
▁/2	-12626
▁<<	-12627
▁Az	-12628
▁BA	-12629
▁CA	-12630
▁FC	-12631
▁FI	-12632
▁GH	-12633
▁HA	-12634
▁IA	-12635
▁Io	-12636
▁LU	-12637
▁Mn	-12638
▁NH	-12639
▁eu	-12640
▁ik	-12641
▁lg	-12642
▁lu	-12643
▁uh	-12644
▁БМ	-12645
▁БЦ	-12646
▁Рэ	-12647
▁Фу	-12648
▁ХМ	-12649
▁гв	-12650
▁нъ	-12651
▁рє	-12652
▁ьо	-12653
▁ҮК	-12654
▁ҮЭ	-12655
▁☮♛	-12656
ALUU	-12657
ugar	-12658
єгєє	-12659
▁---	-12660
▁01,	-12661
▁1.4	-12662
▁136	-12663
▁145	-12664
▁22.	-12665
▁26.	-12666
▁461	-12667
▁Bad	-12668
▁Bio	-12669
▁Cup	-12670
▁Dan	-12671
▁Emp	-12672
▁Fra	-12673
▁GEE	-12674
▁IKE	-12675
▁Jer	-12676
▁Lay	-12677
▁Lib	-12678
▁Lim	-12679
▁Mom	-12680
▁NBC	-12681
▁Ont	-12682
▁Ori	-12683
▁Pap	-12684
▁SIM	-12685
▁Sil	-12686
▁ali	-12687
▁cam	-12688
▁has	-12689
▁ien	-12690
▁ign	-12691
▁inc	-12692
▁ity	-12693
▁kee	-12694
▁let	-12695
▁max	-12696
▁mob	-12697
▁mot	-12698
▁mus	-12699
▁ont	-12700
▁oth	-12701
▁pub	-12702
▁rap	-12703
▁ria	-12704
▁ula	-12705
▁ume	-12706
▁uro	-12707
▁usa	-12708
▁vsi	-12709
▁wag	-12710
▁zip	-12711
▁ААД	-12712
▁АМЖ	-12713
▁АНЗ	-12714
▁АНЦ	-12715
▁АТМ	-12716
▁АТФ	-12717
▁АХБ	-12718
▁АЯГ	-12719
▁Айж	-12720
▁Бух	-12721
▁Буш	-12722
▁Гын	-12723
▁Дүр	-12724
▁ИЙТ	-12725
▁Кан	-12726
▁Лаа	-12727
▁Нао	-12728
▁ОРК	-12729
▁ОЭТ	-12730
▁Пир	-12731
▁Рот	-12732
▁ХИН	-12733
▁ХҮҮ	-12734
▁ЧИД	-12735
▁Чад	-12736
▁Чиг	-12737
▁Чих	-12738
▁ЮУН	-12739
▁аай	-12740
▁акк	-12741
▁ася	-12742
▁бка	-12743
▁бло	-12744
▁вис	-12745
▁вов	-12746
▁вок	-12747
▁гее	-12748
▁для	-12749
▁дро	-12750
▁ерг	-12751
▁ерр	-12752
▁еэр	-12753
▁жик	-12754
▁жул	-12755
▁зиа	-12756
▁зѳв	-12757
▁иво	-12758
▁иий	-12759
▁илб	-12760
▁иэр	-12761
▁иэс	-12762
▁ййй	-12763
▁йрг	-12764
▁лмэ	-12765
▁лхд	-12766
▁льж	-12767
▁лэк	-12768
▁мсж	-12769
▁мур	-12770
▁нгє	-12771
▁нгү	-12772
▁огу	-12773
▁оты	-12774
▁паа	-12775
▁пай	-12776
▁пил	-12777
▁пин	-12778
▁рхг	-12779
▁сет	-12780
▁сни	-12781
▁соц	-12782
▁тгд	-12783
▁тил	-12784
▁тєр	-12785
▁уох	-12786
▁фут	-12787
▁ээз	-12788
▁ҮОХ	-12789
▁Үүр	-12790
▁үөр	-12791
▁ӨЛБ	-12792
▁Baby	-12793
▁Come	-12794
▁Dead	-12795
▁Drop	-12796
▁Fant	-12797
▁July	-12798
▁Lego	-12799
▁Mand	-12800
▁Pant	-12801
▁Peak	-12802
▁SNSD	-12803
▁Siri	-12804
▁Song	-12805
▁Spid	-12806
▁Spot	-12807
▁WiFi	-12808
▁Wild	-12809
▁ault	-12810
▁baby	-12811
▁band	-12812
▁font	-12813
▁live	-12814
▁mate	-12815
▁pass	-12816
▁plus	-12817
▁stor	-12818
▁tech	-12819
▁yung	-12820
▁ААНА	-12821
▁АНАЛ	-12822
▁АРНА	-12823
▁Даби	-12824
▁Ефра	-12825
▁Иона	-12826
▁ЛСАН	-12827
▁МНАТ	-12828
▁Роза	-12829
▁РҮҮЛ	-12830
▁ТГЭЛ	-12831
▁УРАВ	-12832
▁ЭДЭХ	-12833
▁ЭЛГЭ	-12834
▁акку	-12835
▁алжи	-12836
▁алиг	-12837
▁алка	-12838
▁альд	-12839
▁анни	-12840
▁атом	-12841
▁вари	-12842
▁вгор	-12843
▁гава	-12844
▁гипс	-12845
▁горь	-12846
▁гүүц	-12847
▁дант	-12848
▁дээг	-12849
▁дүгн	-12850
▁епал	-12851
▁жина	-12852
▁зама	-12853
▁йоги	-12854
▁лбум	-12855
▁лзаж	-12856
▁лоло	-12857
▁мину	-12858
▁мода	-12859
▁моно	-12860
▁нари	-12861
▁нгио	-12862
▁нтор	-12863
▁нтур	-12864
▁нєхє	-12865
▁олин	-12866
▁онто	-12867
▁оржи	-12868
▁райн	-12869
▁рейл	-12870
▁ремл	-12871
▁рхад	-12872
▁суал	-12873
▁сумо	-12874
▁сууд	-12875
▁таал	-12876
▁таль	-12877
▁тлах	-12878
▁тойг	-12879
▁төрс	-12880
▁улгы	-12881
▁улсы	-12882
▁хани	-12883
▁чанх	-12884
▁шмир	-12885
▁эвши	-12886
▁ѳрѳѳ	-12887
▁ҮЛЭГ	-12888
▁үвэг	-12889
▁өлөх	-12890
▁өртэ	-12891
▁Break	-12892
▁Happy	-12893
▁Hello	-12894
▁Shenz	-12895
▁Skype	-12896
▁Sound	-12897
▁Stand	-12898
▁Title	-12899
▁ZALUU	-12900
▁Zaluu	-12901
▁covid	-12902
▁round	-12903
▁rypto	-12904
▁ЛАЛЫН	-12905
▁Ладен	-12906
▁Лихте	-12907
▁Монго	-12908
▁ОЛОВС	-12909
▁СҮРЭН	-12910
▁ЭМЖЭЭ	-12911
▁авров	-12912
▁азраа	-12913
▁айдар	-12914
▁амгий	-12915
▁анары	-12916
▁армен	-12917
▁байса	-12918
▁болор	-12919
▁горхи	-12920
▁даржа	-12921
▁жруул	-12922
▁инчен	-12923
▁льбом	-12924
▁льжин	-12925
▁могши	-12926
▁никан	-12927
▁оомой	-12928
▁оооаа	-12929
▁прене	-12930
▁ргаре	-12931
▁рилца	-12932
▁ристо	-12933
▁ролле	-12934
▁рюссе	-12935
▁стони	-12936
▁ттори	-12937
▁түгэй	-12938
▁усгаа	-12939
▁ууцай	-12940
▁хайта	-12941
▁эгчий	-12942
▁эдтэй	-12943
▁яньжи	-12944
▁өөрөм	-12945
-1	-12946
FE	-12947
FT	-12948
GS	-12949
ml	-12950
oc	-12951
to	-12952
ýý	-12953
ГЗ	-12954
ОС	-12955
УМ	-12956
Ээ	-12957
зу	-12958
иэ	-12959
рє	-12960
фф	-12961
ҥа	-12962
▁é	-12963
▁ı	-12964
▁̄	-12965
▁μ	-12966
▁Џ	-12967
▁ў	-12968
▁✿	-12969
▁【	-12970
▁】	-12971
▁🔥	-12972
▁😅	-12973
ART	-12974
box	-12975
ero	-12976
udd	-12977
unn	-12978
ЛЭЭ	-12979
ади	-12980
ант	-12981
екс	-12982
етт	-12983
еть	-12984
кси	-12985
лов	-12986
лєє	-12987
маф	-12988
мэн	-12989
огд	-12990
орк	-12991
тви	-12992
топ	-12993
шев	-12994
шир	-12995
эро	-12996
ѳрѳ	-12997
₪₪₪	-12998
▁"5	-12999
▁.:	-13000
▁AG	-13001
▁CI	-13002
▁EG	-13003
▁JP	-13004
▁Ka	-13005
▁LC	-13006
▁MD	-13007
▁MH	-13008
▁MK	-13009
▁MM	-13010
▁MT	-13011
▁NA	-13012
▁Oh	-13013
▁Os	-13014
▁PA	-13015
▁RC	-13016
▁RF	-13017
▁SC	-13018
▁SO	-13019
▁TS	-13020
▁Tu	-13021
▁Ya	-13022
▁^_	-13023
▁ck	-13024
▁iM	-13025
▁kg	-13026
▁mg	-13027
▁og	-13028
▁ov	-13029
▁pm	-13030
▁rt	-13031
▁ub	-13032
▁ue	-13033
▁wo	-13034
▁Єв	-13035
▁ИГ	-13036
▁КК	-13037
▁НА	-13038
▁НФ	-13039
▁РА	-13040
▁РУ	-13041
▁УЯ	-13042
▁ЯЯ	-13043
▁ао	-13044
▁аҕ	-13045
▁гї	-13046
▁дт	-13047
▁пт	-13048
▁хй	-13049
▁юл	-13050
▁яя	-13051
▁ѳл	-13052
▁үэ	-13053
▁өү	-13054
leep	-13055
беки	-13056
▁1-5	-13057
▁109	-13058
▁117	-13059
▁124	-13060
▁12:	-13061
▁156	-13062
▁194	-13063
▁2.3	-13064
▁21.	-13065
▁23.	-13066
▁24.	-13067
▁25%	-13068
▁3.1	-13069
▁4.3	-13070
▁430	-13071
▁98%	-13072
▁Bom	-13073
▁Boy	-13074
▁Cit	-13075
▁Dem	-13076
▁Ext	-13077
▁Fre	-13078
▁Gra	-13079
▁ISP	-13080
▁Ins	-13081
▁JYP	-13082
▁Leg	-13083
▁Log	-13084
▁MAC	-13085
▁OOM	-13086
▁PRO	-13087
▁Pet	-13088
▁ROM	-13089
▁Ret	-13090
▁Saf	-13091
▁Sel	-13092
▁Too	-13093
▁Und	-13094
▁WMS	-13095
▁WOR	-13096
▁Zen	-13097
▁ana	-13098
▁bbw	-13099
▁cha	-13100
▁dai	-13101
▁eca	-13102
▁fat	-13103
▁gay	-13104
▁ged	-13105
▁gin	-13106
▁hai	-13107
▁imi	-13108
▁iso	-13109
▁law	-13110
▁leg	-13111
▁mak	-13112
▁mes	-13113
▁nse	-13114
▁nti	-13115
▁ong	-13116
▁oni	-13117
▁pla	-13118
▁rec	-13119
▁ric	-13120
▁ris	-13121
▁sha	-13122
▁tat	-13123
▁ura	-13124
▁use	-13125
▁vas	-13126
▁vel	-13127
▁vis	-13128
▁zat	-13129
▁Ёко	-13130
▁АНХ	-13131
▁ВАХ	-13132
▁ГАЙ	-13133
▁Жул	-13134
▁Лаг	-13135
▁Лао	-13136
▁Луи	-13137
▁МЭГ	-13138
▁Мур	-13139
▁НХС	-13140
▁ОЛД	-13141
▁Орд	-13142
▁ПЕК	-13143
▁Пеп	-13144
▁Роу	-13145
▁Рус	-13146
▁СЭН	-13147
▁Сен	-13148
▁Сод	-13149
▁ТОМ	-13150
▁ТЭД	-13151
▁Тог	-13152
▁УГТ	-13153
▁УЦС	-13154
▁Фэн	-13155
▁ХАР	-13156
▁ХБХ	-13157
▁Хуй	-13158
▁Хуу	-13159
▁ЭВТ	-13160
▁Яма	-13161
▁аур	-13162
▁ашд	-13163
▁бел	-13164
▁бла	-13165
▁вав	-13166
▁вод	-13167
▁даш	-13168
▁дсэ	-13169
▁ень	-13170
▁жич	-13171
▁зев	-13172
▁иде	-13173
▁иод	-13174
▁йог	-13175
▁кар	-13176
▁кос	-13177
▁кци	-13178
▁лио	-13179
▁лши	-13180
▁мго	-13181
▁мел	-13182
▁мѳн	-13183
▁нжр	-13184
▁нск	-13185
▁ньп	-13186
▁обу	-13187
▁пра	-13188
▁рвө	-13189
▁риф	-13190
▁рка	-13191
▁рот	-13192
▁сов	-13193
▁точ	-13194
▁угж	-13195
▁уед	-13196
▁уже	-13197
▁унц	-13198
▁фон	-13199
▁хдд	-13200
▁хри	-13201
▁хяз	-13202
▁цув	-13203
▁цөс	-13204
▁шиц	-13205
▁эхж	-13206
▁яас	-13207
▁яха	-13208
▁єдл	-13209
▁үнз	-13210
▁өтө	-13211
▁₪₪₪	-13212
▁Boot	-13213
▁Brex	-13214
▁Cate	-13215
▁Coin	-13216
▁Cust	-13217
▁Easy	-13218
▁Find	-13219
▁Horn	-13220
▁LACK	-13221
▁Loui	-13222
▁Lumi	-13223
▁Make	-13224
▁Mine	-13225
▁Over	-13226
▁Pack	-13227
▁Pent	-13228
▁Pott	-13229
▁Prem	-13230
▁Prop	-13231
▁Rail	-13232
▁Russ	-13233
▁Sant	-13234
▁Sear	-13235
▁Seas	-13236
▁Slut	-13237
▁WIRE	-13238
▁Walk	-13239
▁bolo	-13240
▁cent	-13241
▁cool	-13242
▁cost	-13243
▁game	-13244
▁ield	-13245
▁late	-13246
▁mana	-13247
▁roni	-13248
▁rush	-13249
▁size	-13250
▁tran	-13251
▁want	-13252
▁ААНЧ	-13253
▁АДАХ	-13254
▁АНАР	-13255
▁ДОРЖ	-13256
▁ЖЛЫН	-13257
▁ИЛҮҮ	-13258
▁Кока	-13259
▁Линз	-13260
▁Лифт	-13261
▁ЛӨГЧ	-13262
▁Нано	-13263
▁Напо	-13264
▁ОРОО	-13265
▁СЕАН	-13266
▁Саас	-13267
▁Софи	-13268
▁УХАЛ	-13269
▁ЭРГИ	-13270
▁ЭСЭГ	-13271
▁аасы	-13272
▁авес	-13273
▁акар	-13274
▁амин	-13275
▁анан	-13276
▁анто	-13277
▁аргы	-13278
▁арли	-13279
▁ббиг	-13280
▁бити	-13281
▁вдор	-13282
▁вино	-13283
▁влэг	-13284
▁гали	-13285
▁гунь	-13286
▁ерна	-13287
▁ерра	-13288
▁ерчи	-13289
▁есть	-13290
▁жили	-13291
▁илтэ	-13292
▁инар	-13293
▁ирек	-13294
▁ирми	-13295
▁кийн	-13296
▁лгєє	-13297
▁лина	-13298
▁мега	-13299
▁мсон	-13300
▁нгор	-13301
▁ндай	-13302
▁ннан	-13303
▁нхой	-13304
▁обиг	-13305
▁окос	-13306
▁олор	-13307
▁онор	-13308
▁ооср	-13309
▁рааа	-13310
▁рико	-13311
▁рлий	-13312
▁рпус	-13313
▁ртап	-13314
▁руно	-13315
▁рчлє	-13316
▁рьца	-13317
▁саас	-13318
▁сант	-13319
▁сгэр	-13320
▁секс	-13321
▁сэжг	-13322
▁тгоо	-13323
▁тейл	-13324
▁томи	-13325
▁торт	-13326
▁ться	-13327
▁улын	-13328
▁уста	-13329
▁флаш	-13330
▁хорд	-13331
▁цади	-13332
▁чадв	-13333
▁чайз	-13334
▁чирт	-13335
▁чуха	-13336
▁шафт	-13337
▁эвэл	-13338
▁эсси	-13339
▁эсэй	-13340
▁євлє	-13341
▁єгрє	-13342
▁єхєє	-13343
▁ҮМҮҮ	-13344
▁өөнд	-13345
▁Appli	-13346
▁Blogg	-13347
▁Bonus	-13348
▁Great	-13349
▁Hotel	-13350
▁Smith	-13351
▁Vista	-13352
▁White	-13353
▁rency	-13354
▁Иудей	-13355
▁Латви	-13356
▁Моури	-13357
▁ЭРГЭЖ	-13358
▁ЭРХЭН	-13359
▁авари	-13360
▁айхны	-13361
▁ангри	-13362
▁андер	-13363
▁аргар	-13364
▁вокза	-13365
▁гоочи	-13366
▁долго	-13367
▁дольф	-13368
▁дунда	-13369
▁еееее	-13370
▁еленс	-13371
▁збеки	-13372
▁инера	-13373
▁ичига	-13374
▁ллион	-13375
▁лцгай	-13376
▁люкоз	-13377
▁морго	-13378
▁мѳнгѳ	-13379
▁нданг	-13380
▁нивер	-13381
▁нийтл	-13382
▁нєгєє	-13383
▁нєлєє	-13384
▁оргоц	-13385
▁рансф	-13386
▁раузе	-13387
▁рецеп	-13388
▁сгийг	-13389
▁сэхэх	-13390
▁уллаа	-13391
▁ххххх	-13392
▁элхэн	-13393
▁эрэнг	-13394
▁ээрэн	-13395
▁ӨРЧЛӨ	-13396
.,	-13397
90	-13398
AX	-13399
CO	-13400
LP	-13401
NT	-13402
ps	-13403
КА	-13404
РО	-13405
УБ	-13406
Эв	-13407
бд	-13408
дс	-13409
ну	-13410
нѳ	-13411
уя	-13412
хѳ	-13413
цц	-13414
щё	-13415
юм	-13416
▁ѕ	-13417
▁ћ	-13418
▁ә	-13419
▁※	-13420
▁♦	-13421
▁「	-13422
▁そ	-13423
▁歌	-13424
ANG	-13425
adi	-13426
ask	-13427
aya	-13428
ela	-13429
ico	-13430
ila	-13431
irt	-13432
ona	-13433
opp	-13434
vis	-13435
ОШГ	-13436
ааа	-13437
бан	-13438
кен	-13439
мат	-13440
ная	-13441
онг	-13442
пид	-13443
тлз	-13444
экэ	-13445
▁#7	-13446
▁->	-13447
▁1⁄	-13448
▁4"	-13449
▁5)	-13450
▁AY	-13451
▁Af	-13452
▁FM	-13453
▁GA	-13454
▁HO	-13455
▁If	-13456
▁NC	-13457
▁OT	-13458
▁Uk	-13459
▁VO	-13460
▁VS	-13461
▁Wo	-13462
▁[3	-13463
▁[7	-13464
▁gl	-13465
▁hu	-13466
▁je	-13467
▁px	-13468
▁sw	-13469
▁tn	-13470
▁xi	-13471
▁za	-13472
▁ze	-13473
▁èé	-13474
▁ГТ	-13475
▁Дх	-13476
▁Иш	-13477
▁МИ	-13478
▁НО	-13479
▁НУ	-13480
▁ПЛ	-13481
▁ПП	-13482
▁РЕ	-13483
▁РЬ	-13484
▁ТШ	-13485
▁Фа	-13486
▁Ын	-13487
▁еш	-13488
▁зс	-13489
▁иэ	-13490
▁йк	-13491
▁йо	-13492
▁йп	-13493
▁нф	-13494
▁пя	-13495
▁сь	-13496
▁сю	-13497
▁уэ	-13498
▁фф	-13499
▁ѳм	-13500
agle	-13501
тейл	-13502
▁"30	-13503
▁0.1	-13504
▁1.0	-13505
▁107	-13506
▁10:	-13507
▁129	-13508
▁171	-13509
▁192	-13510
▁201	-13511
▁243	-13512
▁28.	-13513
▁4,5	-13514
▁4.1	-13515
▁4.2	-13516
▁5.1	-13517
▁50,	-13518
▁512	-13519
▁570	-13520
▁8-9	-13521
▁85%	-13522
▁ARM	-13523
▁Ads	-13524
▁Age	-13525
▁Ara	-13526
▁Arc	-13527
▁Bob	-13528
▁CRM	-13529
▁Doo	-13530
▁EXO	-13531
▁Fat	-13532
▁Get	-13533
▁Hel	-13534
▁Hit	-13535
▁Hor	-13536
▁ING	-13537
▁IPv	-13538
▁Ike	-13539
▁JOY	-13540
▁Jas	-13541
▁Ker	-13542
▁Lil	-13543
▁NTS	-13544
▁Nan	-13545
▁Oce	-13546
▁Pat	-13547
▁Psy	-13548
▁RAD	-13549
▁Reg	-13550
▁Rem	-13551
▁Sen	-13552
▁Soo	-13553
▁THC	-13554
▁Tar	-13555
▁Thu	-13556
▁UBE	-13557
▁VPS	-13558
▁XVI	-13559
▁[2]	-13560
▁^_^	-13561
▁ate	-13562
▁bia	-13563
▁bro	-13564
▁dam	-13565
▁div	-13566
▁fic	-13567
▁fun	-13568
▁gaa	-13569
▁gan	-13570
▁iin	-13571
▁ino	-13572
▁ius	-13573
▁jun	-13574
▁led	-13575
▁nal	-13576
▁nus	-13577
▁seu	-13578
▁she	-13579
▁sim	-13580
▁tur	-13581
▁АВЧ	-13582
▁Амт	-13583
▁БГД	-13584
▁Бет	-13585
▁Бзд	-13586
▁Вай	-13587
▁Вол	-13588
▁Вэй	-13589
▁Гом	-13590
▁ГҮҮ	-13591
▁ДНХ	-13592
▁ДРИ	-13593
▁ЗБХ	-13594
▁Зүг	-13595
▁Зүү	-13596
▁ИФА	-13597
▁МАК	-13598
▁Мэн	-13599
▁Нет	-13600
▁Нум	-13601
▁ОВЧ	-13602
▁ОДО	-13603
▁ОРД	-13604
▁РАН	-13605
▁Рут	-13606
▁Сок	-13607
▁Сун	-13608
▁ТЭН	-13609
▁Тас	-13610
▁Тер	-13611
▁Тэй	-13612
▁УХҮ	-13613
▁Уго	-13614
▁ШУЯ	-13615
▁Шат	-13616
▁ЭМГ	-13617
▁ЭЭД	-13618
▁ЭЭЖ	-13619
▁Эрс	-13620
▁Юта	-13621
▁аац	-13622
▁адд	-13623
▁айш	-13624
▁але	-13625
▁бдг	-13626
▁биг	-13627
▁бро	-13628
▁был	-13629
▁бэт	-13630
▁всё	-13631
▁вэд	-13632
▁гдж	-13633
▁диг	-13634
▁дня	-13635
▁ейх	-13636
▁ерс	-13637
▁жэн	-13638
▁иһи	-13639
▁йтэ	-13640
▁кВт	-13641
▁кра	-13642
▁лзо	-13643
▁лод	-13644
▁мам	-13645
▁мес	-13646
▁мут	-13647
▁них	-13648
▁огг	-13649
▁ойж	-13650
▁осф	-13651
▁пли	-13652
▁ргы	-13653
▁риц	-13654
▁сом	-13655
▁стө	-13656
▁сце	-13657
▁сыл	-13658
▁уал	-13659
▁уйн	-13660
▁ыха	-13661
▁эни	-13662
▁эсс	-13663
▁юма	-13664
▁ҮРХ	-13665
▁Үед	-13666
▁ҮҮН	-13667
▁үрү	-13668
▁ӨРВ	-13669
▁ӨРТ	-13670
▁өег	-13671
▁Anna	-13672
▁Band	-13673
▁Care	-13674
▁Conv	-13675
▁Cums	-13676
▁Duur	-13677
▁Evil	-13678
▁GoGo	-13679
▁Grou	-13680
▁Isla	-13681
▁Junh	-13682
▁Kasp	-13683
▁Lang	-13684
▁Lati	-13685
▁Leet	-13686
▁List	-13687
▁Look	-13688
▁MONG	-13689
▁Matt	-13690
▁Mega	-13691
▁Meta	-13692
▁PINK	-13693
▁Pand	-13694
▁Pict	-13695
▁Pres	-13696
▁Sept	-13697
▁Spec	-13698
▁Squa	-13699
▁Talk	-13700
▁Team	-13701
▁Text	-13702
▁Visa	-13703
▁Xbox	-13704
▁Yang	-13705
▁Yong	-13706
▁bang	-13707
▁copy	-13708
▁grat	-13709
▁head	-13710
▁miss	-13711
▁ning	-13712
▁novo	-13713
▁slut	-13714
▁span	-13715
▁stra	-13716
▁suck	-13717
▁text	-13718
▁will	-13719
▁ААИС	-13720
▁АГАН	-13721
▁АГАТ	-13722
▁АЛГА	-13723
▁АЛУУ	-13724
▁АРАН	-13725
▁АТАХ	-13726
▁Гялс	-13727
▁Жазз	-13728
▁Жиди	-13729
▁ИЧЭЭ	-13730
▁ЛОГИ	-13731
▁ЛТАН	-13732
▁Леди	-13733
▁Лого	-13734
▁Маза	-13735
▁Моза	-13736
▁НДЭС	-13737
▁ОДЛО	-13738
▁ОЛГО	-13739
▁ОХИО	-13740
▁Саар	-13741
▁УВАА	-13742
▁УГАЦ	-13743
▁УРУУ	-13744
▁УСТА	-13745
▁ХААН	-13746
▁Хайл	-13747
▁ЭЗЭЭ	-13748
▁аага	-13749
▁аара	-13750
▁аатр	-13751
▁авэй	-13752
▁азра	-13753
▁акро	-13754
▁алма	-13755
▁аман	-13756
▁анйа	-13757
▁арао	-13758
▁ариф	-13759
▁арца	-13760
▁бидо	-13761
▁бишд	-13762
▁блем	-13763
▁вакс	-13764
▁взан	-13765
▁гагч	-13766
▁газа	-13767
▁ганг	-13768
▁гдсө	-13769
▁глаж	-13770
▁глуу	-13771
▁гонж	-13772
▁гтээ	-13773
▁демо	-13774
▁дори	-13775
▁дотр	-13776
▁дрүү	-13777
▁дьон	-13778
▁есни	-13779
▁ехем	-13780
▁жнай	-13781
▁ийсс	-13782
▁иксо	-13783
▁илай	-13784
▁луус	-13785
▁льта	-13786
▁лэйр	-13787
▁маас	-13788
▁мина	-13789
▁мнал	-13790
▁мтай	-13791
▁мөнг	-13792
▁наль	-13793
▁нати	-13794
▁ндви	-13795
▁нзий	-13796
▁ннел	-13797
▁норт	-13798
▁нтон	-13799
▁ншуй	-13800
▁нээе	-13801
▁овис	-13802
▁огий	-13803
▁олды	-13804
▁онер	-13805
▁опын	-13806
▁оран	-13807
▁осто	-13808
▁отов	-13809
▁пизд	-13810
▁псул	-13811
▁ранж	-13812
▁риса	-13813
▁рмог	-13814
▁санх	-13815
▁сгэл	-13816
▁сков	-13817
▁сойж	-13818
▁стро	-13819
▁сууг	-13820
▁тнуу	-13821
▁удио	-13822
▁усуу	-13823
▁хины	-13824
▁чать	-13825
▁эдэг	-13826
▁элтр	-13827
▁эндо	-13828
▁энэл	-13829
▁эээр	-13830
▁ёмин	-13831
▁ѳгѳѳ	-13832
▁ҮРГЭ	-13833
▁ҮРЭЭ	-13834
▁үнэр	-13835
▁Color	-13836
▁Eagle	-13837
▁India	-13838
▁Limit	-13839
▁Minec	-13840
▁Money	-13841
▁Nexus	-13842
▁Piece	-13843
▁Quote	-13844
▁count	-13845
▁АДААД	-13846
▁Битлз	-13847
▁Нефть	-13848
▁Райан	-13849
▁Робин	-13850
▁СБНХУ	-13851
▁анаан	-13852
▁анжиг	-13853
▁анпри	-13854
▁антен	-13855
▁арцад	-13856
▁астер	-13857
▁атлон	-13858
▁атсон	-13859
▁ваара	-13860
▁гүүлэ	-13861
▁дисон	-13862
▁енхоу	-13863
▁жийна	-13864
▁зарба	-13865
▁зарга	-13866
▁изона	-13867
▁ионер	-13868
▁ктейл	-13869
▁лдрай	-13870
▁ломит	-13871
▁ндела	-13872
▁нитор	-13873
▁номит	-13874
▁ралта	-13875
▁рмони	-13876
▁рсель	-13877
▁рхшээ	-13878
▁селле	-13879
▁суэль	-13880
▁тейль	-13881
▁удаас	-13882
▁ургер	-13883
▁ылаас	-13884
▁юллер	-13885
▁ҮҮРЭГ	-13886
▁үүгий	-13887
▁үүдий	-13888
0"	-13889
12	-13890
OK	-13891
PM	-13892
UM	-13893
oy	-13894
ry	-13895
sh	-13896
uz	-13897
ВЬ	-13898
ЕТ	-13899
ЖИ	-13900
РА	-13901
ШХ	-13902
ия	-13903
лс	-13904
лю	-13905
нц	-13906
оа	-13907
ои	-13908
пт	-13909
тс	-13910
ёд	-13911
ѳг	-13912
ҕы	-13913
▁☞	-13914
▁♪	-13915
名称	-13916
OCK	-13917
arn	-13918
gas	-13919
ign	-13920
ilm	-13921
isa	-13922
sti	-13923
ude	-13924
uth	-13925
ЛАА	-13926
ТАД	-13927
ХАМ	-13928
айж	-13929
анг	-13930
бра	-13931
гэй	-13932
дав	-13933
дор	-13934
дѳр	-13935
екв	-13936
ень	-13937
зда	-13938
зеф	-13939
ина	-13940
исс	-13941
иус	-13942
кан	-13943
лоп	-13944
мал	-13945
пэр	-13946
ска	-13947
уде	-13948
чер	-13949
шта	-13950
▁"-	-13951
▁#5	-13952
▁**	-13953
▁-6	-13954
▁-7	-13955
▁BB	-13956
▁BC	-13957
▁CT	-13958
▁EB	-13959
▁Eq	-13960
▁Et	-13961
▁FL	-13962
▁Ko	-13963
▁NB	-13964
▁Ob	-13965
▁Om	-13966
▁PI	-13967
▁Ts	-13968
▁Uz	-13969
▁bn	-13970
▁cm	-13971
▁ek	-13972
▁iK	-13973
▁nu	-13974
▁pc	-13975
▁pi	-13976
▁sn	-13977
▁sr	-13978
▁ux	-13979
▁xl	-13980
▁zh	-13981
▁БО	-13982
▁Вт	-13983
▁Ие	-13984
▁ММ	-13985
▁Мя	-13986
▁СМ	-13987
▁СО	-13988
▁СП	-13989
▁Ся	-13990
▁ТЗ	-13991
▁ФФ	-13992
▁ЦА	-13993
▁Чо	-13994
▁ЭЙ	-13995
▁Эг	-13996
▁Эш	-13997
▁Юн	-13998
▁вм	-13999
▁гб	-14000
▁дю	-14001
▁зв	-14002
▁лү	-14003
▁пү	-14004
▁ыс	-14005
▁үк	-14006
▁ӨБ	-14007
▁♛☮	-14008
▁歌曲	-14009
imeo	-14010
пром	-14011
▁"0"	-14012
▁(20	-14013
▁+18	-14014
▁-20	-14015
▁1/2	-14016
▁112	-14017
▁122	-14018
▁143	-14019
▁144	-14020
▁153	-14021
▁155	-14022
▁193	-14023
▁2.8	-14024
▁2/3	-14025
▁210	-14026
▁255	-14027
▁4.4	-14028
▁404	-14029
▁410	-14030
▁6.2	-14031
▁Adi	-14032
▁Adm	-14033
▁Ani	-14034
▁Ari	-14035
▁Bos	-14036
▁Cal	-14037
▁Cer	-14038
▁Cir	-14039
▁Ebe	-14040
▁Ell	-14041
▁FTP	-14042
▁Fut	-14043
▁GMP	-14044
▁Gan	-14045
▁God	-14046
▁Got	-14047
▁Gue	-14048
▁HDD	-14049
▁HTC	-14050
▁Ham	-14051
▁Han	-14052
▁Hat	-14053
▁Hee	-14054
▁IEC	-14055
▁IME	-14056
▁IoT	-14057
▁Jet	-14058
▁KDE	-14059
▁Kin	-14060
▁Kni	-14061
▁LLC	-14062
▁Lam	-14063
▁Lan	-14064
▁Leo	-14065
▁Los	-14066
▁Maa	-14067
▁Nut	-14068
▁Pac	-14069
▁Pix	-14070
▁Rap	-14071
▁Rom	-14072
▁SBS	-14073
▁TCP	-14074
▁Tay	-14075
▁Ten	-14076
▁Tex	-14077
▁Tho	-14078
▁UTC	-14079
▁WIN	-14080
▁Yes	-14081
▁ale	-14082
▁bel	-14083
▁dar	-14084
▁der	-14085
▁dle	-14086
▁fer	-14087
▁gam	-14088
▁gel	-14089
▁hae	-14090
▁his	-14091
▁iii	-14092
▁kkk	-14093
▁lan	-14094
▁las	-14095
▁lex	-14096
▁los	-14097
▁olo	-14098
▁ome	-14099
▁pal	-14100
▁por	-14101
▁rah	-14102
▁ros	-14103
▁sds	-14104
▁sys	-14105
▁tel	-14106
▁tex	-14107
▁tha	-14108
▁uae	-14109
▁urn	-14110
▁usr	-14111
▁yah	-14112
▁yes	-14113
▁yri	-14114
▁АЙЖ	-14115
▁АЛЬ	-14116
▁АНБ	-14117
▁АНы	-14118
▁АЯН	-14119
▁БЭТ	-14120
▁Бан	-14121
▁Бэр	-14122
▁ВЛӨ	-14123
▁ВНА	-14124
▁ДИР	-14125
▁Зуу	-14126
▁ИЙД	-14127
▁Илт	-14128
▁ЛОЛ	-14129
▁ЛОО	-14130
▁Лев	-14131
▁Лео	-14132
▁Лом	-14133
▁Лоп	-14134
▁Лха	-14135
▁Мөс	-14136
▁НБА	-14137
▁ОЛЖ	-14138
▁ОНХ	-14139
▁ОРЧ	-14140
▁ПСЖ	-14141
▁Пан	-14142
▁Пен	-14143
▁Пит	-14144
▁РНИ	-14145
▁Рам	-14146
▁САЙ	-14147
▁Тао	-14148
▁УРГ	-14149
▁УХН	-14150
▁ХИС	-14151
▁Хит	-14152
▁Хоо	-14153
▁Цор	-14154
▁Цуг	-14155
▁Чак	-14156
▁ШТС	-14157
▁ШУА	-14158
▁Ялж	-14159
▁акл	-14160
▁асу	-14161
▁вел	-14162
▁вос	-14163
▁гду	-14164
▁гир	-14165
▁гро	-14166
▁гүи	-14167
▁дсо	-14168
▁дєє	-14169
▁дөт	-14170
▁ейк	-14171
▁жип	-14172
▁иав	-14173
▁иат	-14174
▁иши	-14175
▁йиг	-14176
▁каа	-14177
▁кто	-14178
▁лдс	-14179
▁лзр	-14180
▁лид	-14181
▁лиф	-14182
▁мбу	-14183
▁мда	-14184
▁мми	-14185
▁мус	-14186
▁мхэ	-14187
▁нжа	-14188
▁ние	-14189
▁ннь	-14190
▁нро	-14191
▁нхл	-14192
▁онч	-14193
▁осг	-14194
▁пан	-14195
▁поо	-14196
▁рво	-14197
▁рне	-14198
▁рхе	-14199
▁рѳѳ	-14200
▁тле	-14201
▁тья	-14202
▁угш	-14203
▁фия	-14204
▁хєв	-14205
▁цех	-14206
▁цми	-14207
▁чаг	-14208
▁чем	-14209
▁ьон	-14210
▁эгу	-14211
▁юув	-14212
▁ялд	-14213
▁ёко	-14214
▁ёкү	-14215
▁ёнд	-14216
▁єгж	-14217
▁єгч	-14218
▁Үер	-14219
▁ӨДӨ	-14220
▁өөө	-14221
▁Anti	-14222
▁BANG	-14223
▁Batt	-14224
▁Cell	-14225
▁Coca	-14226
▁Core	-14227
▁Epis	-14228
▁Guys	-14229
▁IKEA	-14230
▁Ikea	-14231
▁Jone	-14232
▁Kate	-14233
▁Lost	-14234
▁Luck	-14235
▁Moon	-14236
▁Orgy	-14237
▁Past	-14238
▁Quiz	-14239
▁Rang	-14240
▁Rise	-14241
▁Room	-14242
▁Sher	-14243
▁Side	-14244
▁Suzy	-14245
▁Swit	-14246
▁Trav	-14247
▁Upda	-14248
▁Wolf	-14249
▁XVII	-14250
▁YOUT	-14251
▁best	-14252
▁code	-14253
▁fast	-14254
▁film	-14255
▁fire	-14256
▁flow	-14257
▁hits	-14258
▁hour	-14259
▁ifer	-14260
▁info	-14261
▁lokh	-14262
▁mode	-14263
▁oung	-14264
▁pres	-14265
▁real	-14266
▁rock	-14267
▁said	-14268
▁side	-14269
▁sing	-14270
▁soni	-14271
▁ster	-14272
▁uter	-14273
▁АМАС	-14274
▁АМЫН	-14275
▁АРАХ	-14276
▁АХИН	-14277
▁ЙЛЧИ	-14278
▁ЛБАН	-14279
▁Лайф	-14280
▁Луиз	-14281
▁Мафи	-14282
▁Неан	-14283
▁Нора	-14284
▁ОРИЛ	-14285
▁ОТЫН	-14286
▁Пере	-14287
▁Пика	-14288
▁Рафа	-14289
▁Рент	-14290
▁УОШГ	-14291
▁УСАД	-14292
▁Флой	-14293
▁Хааг	-14294
▁Хишг	-14295
▁ЧУУД	-14296
▁Энхб	-14297
▁ЯТАД	-14298
▁ааал	-14299
▁ааан	-14300
▁абри	-14301
▁айни	-14302
▁айру	-14303
▁алдс	-14304
▁аллы	-14305
▁алти	-14306
▁амши	-14307
▁анго	-14308
▁анжи	-14309
▁анзо	-14310
▁анны	-14311
▁арго	-14312
▁арди	-14313
▁арко	-14314
▁атма	-14315
▁брид	-14316
▁бэлж	-14317
▁вдал	-14318
▁вжин	-14319
▁галь	-14320
▁ггер	-14321
▁гидг	-14322
▁глож	-14323
▁гнат	-14324
▁гноз	-14325
▁густ	-14326
▁гшта	-14327
▁гэсс	-14328
▁гээг	-14329
▁гяла	-14330
▁дион	-14331
▁дона	-14332
▁ектр	-14333
▁енжа	-14334
▁енис	-14335
▁жанж	-14336
▁жиди	-14337
▁жики	-14338
▁зака	-14339
▁збек	-14340
▁индр	-14341
▁ирэй	-14342
▁ихсэ	-14343
▁ишке	-14344
▁йгоо	-14345
▁йсон	-14346
▁ккал	-14347
▁ксим	-14348
▁лаах	-14349
▁лайф	-14350
▁лжир	-14351
▁лзра	-14352
▁лхан	-14353
▁лүүр	-14354
▁меня	-14355
▁ммед	-14356
▁мхой	-14357
▁мьян	-14358
▁нгий	-14359
▁ндла	-14360
▁ндук	-14361
▁нида	-14362
▁ниме	-14363
▁нхай	-14364
▁нэнд	-14365
▁обби	-14366
▁ожиг	-14367
▁ойло	-14368
▁олей	-14369
▁олэр	-14370
▁омой	-14371
▁онон	-14372
▁оовы	-14373
▁орто	-14374
▁ошиг	-14375
▁паар	-14376
▁прио	-14377
▁ради	-14378
▁ргий	-14379
▁реле	-14380
▁ренс	-14381
▁рзна	-14382
▁рийд	-14383
▁рика	-14384
▁рсга	-14385
▁сгаа	-14386
▁слим	-14387
▁срол	-14388
▁стат	-14389
▁тгэв	-14390
▁тгэс	-14391
▁туна	-14392
▁төрү	-14393
▁улла	-14394
▁унай	-14395
▁уэйн	-14396
▁хххх	-14397
▁хятд	-14398
▁хѳрѳ	-14399
▁цуца	-14400
▁шалт	-14401
▁шьян	-14402
▁ьсан	-14403
▁эвий	-14404
▁эллэ	-14405
▁эрри	-14406
▁єргє	-14407
▁үүлл	-14408
▁өлбө	-14409
▁歌曲名称	-14410
▁Astra	-14411
▁Broth	-14412
▁Cross	-14413
▁Devel	-14414
▁False	-14415
▁Forum	-14416
▁Healt	-14417
▁Horny	-14418
▁Hyuna	-14419
▁Leave	-14420
▁Ninja	-14421
▁Sweet	-14422
▁Trend	-14423
▁Vegas	-14424
▁build	-14425
▁class	-14426
▁photo	-14427
▁scort	-14428
▁АГААН	-14429
▁АГАТЭ	-14430
▁АЙЛАН	-14431
▁АМГАА	-14432
▁ОЛЛОО	-14433
▁ОХИОН	-14434
▁аааао	-14435
▁ааран	-14436
▁адраг	-14437
▁айтаг	-14438
▁алжир	-14439
▁алмаз	-14440
▁амбай	-14441
▁аррен	-14442
▁архор	-14443
▁аршав	-14444
▁барим	-14445
▁бугай	-14446
▁бүүчи	-14447
▁вакум	-14448
▁вольт	-14449
▁гэлжи	-14450
▁гүйгэ	-14451
▁еллер	-14452
▁еннис	-14453
▁иудей	-14454
▁лагат	-14455
▁лбогд	-14456
▁лдага	-14457
▁лимбэ	-14458
▁лөгчи	-14459
▁наста	-14460
▁ндерс	-14461
▁номхо	-14462
▁ойжин	-14463
▁орекс	-14464
▁ппоро	-14465
▁пялда	-14466
▁ришна	-14467
▁ррент	-14468
▁ртнер	-14469
▁сгэлэ	-14470
▁скава	-14471
▁сонир	-14472
▁стана	-14473
▁толий	-14474
▁трикс	-14475
▁умгай	-14476
▁хөөрх	-14477
▁ьетта	-14478
▁эйлор	-14479
▁энтре	-14480
▁яяяяя	-14481
▁үлсэн	-14482
▁үлтэм	-14483
▁үлээд	-14484
▁ӨРТӨӨ	-14485
).	-14486
2,	-14487
CI	-14488
FI	-14489
GI	-14490
My	-14491
NA	-14492
NO	-14493
XT	-14494
ax	-14495
yu	-14496
Ар	-14497
ОД	-14498
ХИ	-14499
ЧУ	-14500
Эд	-14501
бє	-14502
гс	-14503
дд	-14504
дж	-14505
еи	-14506
иф	-14507
иц	-14508
лж	-14509
пэ	-14510
ру	-14511
тә	-14512
чэ	-14513
шт	-14514
ёт	-14515
ѳл	-14516
▁±	-14517
▁ç	-14518
▁̈	-14519
▁α	-14520
▁م	-14521
▁⭐	-14522
▁时	-14523
▁👉	-14524
▁👏	-14525
▁💵	-14526
▁🤗	-14527
▁🤩	-14528
aka	-14529
cci	-14530
cle	-14531
ica	-14532
inc	-14533
oda	-14534
odi	-14535
ЛАГ	-14536
ЛЫН	-14537
ТЭЙ	-14538
ЦАА	-14539
ШИН	-14540
ШИХ	-14541
ане	-14542
аоа	-14543
гой	-14544
иль	-14545
иот	-14546
кэн	-14547
ннн	-14548
нов	-14549
онс	-14550
сеп	-14551
уми	-14552
ээх	-14553
єнє	-14554
▁#6	-14555
▁'_	-14556
▁1"	-14557
▁6%	-14558
▁AH	-14559
▁AL	-14560
▁Dw	-14561
▁EI	-14562
▁EQ	-14563
▁FO	-14564
▁GI	-14565
▁HB	-14566
▁IK	-14567
▁Kl	-14568
▁LM	-14569
▁LT	-14570
▁NM	-14571
▁Ol	-14572
▁Rh	-14573
▁SV	-14574
▁UA	-14575
▁[4	-14576
▁[5	-14577
▁eq	-14578
▁ff	-14579
▁oa	-14580
▁rc	-14581
▁ym	-14582
▁АИ	-14583
▁Бэ	-14584
▁ГЗ	-14585
▁ГС	-14586
▁ЕВ	-14587
▁ЙЙ	-14588
▁МЧ	-14589
▁Мү	-14590
▁Пь	-14591
▁Хн	-14592
▁ЦГ	-14593
▁ЦИ	-14594
▁ЧЛ	-14595
▁Юү	-14596
▁цв	-14597
▁ыч	-14598
▁ыҥ	-14599
▁ыһ	-14600
▁ьэ	-14601
▁юн	-14602
▁Үй	-14603
▁үц	-14604
▁☞☞	-14605
into	-14606
orea	-14607
vent	-14608
окер	-14609
▁"10	-14610
▁(12	-14611
▁0-3	-14612
▁1,8	-14613
▁11:	-14614
▁133	-14615
▁147	-14616
▁167	-14617
▁178	-14618
▁181	-14619
▁186	-14620
▁2-5	-14621
▁225	-14622
▁264	-14623
▁27.	-14624
▁29.	-14625
▁3,4	-14626
▁330	-14627
▁4.0	-14628
▁5-8	-14629
▁5.2	-14630
▁5.5	-14631
▁7.5	-14632
▁ABC	-14633
▁APP	-14634
▁Bas	-14635
▁Bey	-14636
▁Buy	-14637
▁CEO	-14638
▁Cle	-14639
▁Cre	-14640
▁Dol	-14641
▁ERP	-14642
▁Est	-14643
▁FID	-14644
▁HER	-14645
▁Hey	-14646
▁Hos	-14647
▁ICO	-14648
▁Ill	-14649
▁Jos	-14650
▁Kid	-14651
▁MNB	-14652
▁Mix	-14653
▁Moo	-14654
▁Nam	-14655
▁OFF	-14656
▁Old	-14657
▁PTA	-14658
▁Ren	-14659
▁Sex	-14660
▁Sor	-14661
▁Vil	-14662
▁WAN	-14663
▁WTE	-14664
▁Wei	-14665
▁Zom	-14666
▁[7]	-14667
▁ala	-14668
▁ald	-14669
▁bab	-14670
▁bed	-14671
▁big	-14672
▁cnc	-14673
▁cre	-14674
▁cus	-14675
▁dge	-14676
▁ept	-14677
▁erg	-14678
▁eum	-14679
▁eva	-14680
▁exc	-14681
▁ext	-14682
▁fri	-14683
▁ges	-14684
▁gun	-14685
▁hip	-14686
▁ico	-14687
▁ldo	-14688
▁lly	-14689
▁lti	-14690
▁mit	-14691
▁nga	-14692
▁nho	-14693
▁nim	-14694
▁oli	-14695
▁pos	-14696
▁rac	-14697
▁raw	-14698
▁rot	-14699
▁sex	-14700
▁tta	-14701
▁ААГ	-14702
▁АЙЗ	-14703
▁АЙМ	-14704
▁АНТ	-14705
▁АСС	-14706
▁АХЯ	-14707
▁Аун	-14708
▁БЦТ	-14709
▁Бах	-14710
▁Бич	-14711
▁Бэй	-14712
▁ВТО	-14713
▁ВЭР	-14714
▁Вон	-14715
▁ГАР	-14716
▁Гер	-14717
▁Гой	-14718
▁Гэв	-14719
▁Даш	-14720
▁Дүн	-14721
▁ЕНЕ	-14722
▁Есү	-14723
▁Жав	-14724
▁ЗХӨ	-14725
▁Зон	-14726
▁ИНГ	-14727
▁ИНХ	-14728
▁Йог	-14729
▁Кла	-14730
▁Кле	-14731
▁ЛАВ	-14732
▁ЛБА	-14733
▁Лан	-14734
▁Лот	-14735
▁МАА	-14736
▁МАЛ	-14737
▁Муж	-14738
▁Мун	-14739
▁Най	-14740
▁Нүх	-14741
▁ОЁЛ	-14742
▁ОДР	-14743
▁ОНИ	-14744
▁Ооо	-14745
▁Пий	-14746
▁Пин	-14747
▁РХИ	-14748
▁Руф	-14749
▁СБД	-14750
▁Сах	-14751
▁Сой	-14752
▁Соц	-14753
▁Тос	-14754
▁Цол	-14755
▁Шим	-14756
▁ЭНэ	-14757
▁ЭРБ	-14758
▁Эба	-14759
▁Эби	-14760
▁Энн	-14761
▁Яст	-14762
▁айф	-14763
▁айы	-14764
▁аки	-14765
▁алр	-14766
▁аси	-14767
▁аун	-14768
▁бха	-14769
▁бэд	-14770
▁век	-14771
▁влє	-14772
▁гдг	-14773
▁гер	-14774
▁двэ	-14775
▁дир	-14776
▁дне	-14777
▁ебу	-14778
▁его	-14779
▁енз	-14780
▁жиз	-14781
▁злэ	-14782
▁иаз	-14783
▁инф	-14784
▁ипр	-14785
▁йло	-14786
▁йма	-14787
▁ква	-14788
▁куб	-14789
▁лко	-14790
▁лья	-14791
▁мля	-14792
▁мтг	-14793
▁мшр	-14794
▁ния	-14795
▁нно	-14796
▁нхн	-14797
▁нэж	-14798
▁оса	-14799
▁ршг	-14800
▁сха	-14801
▁тир	-14802
▁түс	-14803
▁улб	-14804
▁хау	-14805
▁цєє	-14806
▁эга	-14807
▁эго	-14808
▁эмо	-14809
▁энк	-14810
▁яаа	-14811
▁үсч	-14812
▁ӨГС	-14813
▁BEST	-14814
▁BOOK	-14815
▁Beau	-14816
▁Body	-14817
▁Butt	-14818
▁Capi	-14819
▁Capt	-14820
▁Carl	-14821
▁Cart	-14822
▁Coff	-14823
▁Cola	-14824
▁Cold	-14825
▁Cube	-14826
▁Desk	-14827
▁Dick	-14828
▁Digi	-14829
▁Dior	-14830
▁Dist	-14831
▁Doll	-14832
▁FACE	-14833
▁Fall	-14834
▁Feed	-14835
▁Fest	-14836
▁Gard	-14837
▁Gram	-14838
▁Hope	-14839
▁Infi	-14840
▁Ipad	-14841
▁Jeep	-14842
▁Jenn	-14843
▁Juni	-14844
▁LOCK	-14845
▁Lite	-14846
▁Litt	-14847
▁Lock	-14848
▁MASS	-14849
▁Nice	-14850
▁Nich	-14851
▁Orga	-14852
▁Pala	-14853
▁Pint	-14854
▁Podc	-14855
▁Pors	-14856
▁Resi	-14857
▁Rich	-14858
▁Sale	-14859
▁Simp	-14860
▁Soul	-14861
▁Step	-14862
▁Taec	-14863
▁That	-14864
▁Trad	-14865
▁Volk	-14866
▁When	-14867
▁Wide	-14868
▁Wiki	-14869
▁Wire	-14870
▁Yuri	-14871
▁Zara	-14872
▁auto	-14873
▁cast	-14874
▁desi	-14875
▁feat	-14876
▁fect	-14877
▁hate	-14878
▁html	-14879
▁icat	-14880
▁iere	-14881
▁iful	-14882
▁ival	-14883
▁know	-14884
▁many	-14885
▁mone	-14886
▁open	-14887
▁rand	-14888
▁revi	-14889
▁sapp	-14890
▁ship	-14891
▁step	-14892
▁temp	-14893
▁АЙГА	-14894
▁АНГА	-14895
▁Вера	-14896
▁ГИЙГ	-14897
▁ГОВЬ	-14898
▁ЕХНО	-14899
▁Жозе	-14900
▁Кана	-14901
▁ЛБЭГ	-14902
▁Лаан	-14903
▁МЖИЛ	-14904
▁Нага	-14905
▁ОЛНО	-14906
▁Пүүз	-14907
▁Раел	-14908
▁Рези	-14909
▁Саид	-14910
▁Сала	-14911
▁Сици	-14912
▁Суён	-14913
▁Сэрж	-14914
▁Теса	-14915
▁УРАМ	-14916
▁УРАН	-14917
▁ЭМҮТ	-14918
▁ЭНГЭ	-14919
▁ЭРЭЛ	-14920
▁авка	-14921
▁ажаа	-14922
▁азан	-14923
▁азна	-14924
▁айжи	-14925
▁айнз	-14926
▁айти	-14927
▁айяа	-14928
▁акка	-14929
▁алер	-14930
▁анин	-14931
▁анон	-14932
▁анье	-14933
▁арба	-14934
▁арио	-14935
▁аына	-14936
▁болк	-14937
▁бурн	-14938
▁вааг	-14939
▁ванс	-14940
▁гунд	-14941
▁динб	-14942
▁долл	-14943
▁ейли	-14944
▁екел	-14945
▁жлүү	-14946
▁зуул	-14947
▁иами	-14948
▁ийгэ	-14949
▁илго	-14950
▁иола	-14951
▁исек	-14952
▁иста	-14953
▁йана	-14954
▁каин	-14955
▁лдуй	-14956
▁лдэн	-14957
▁лиша	-14958
▁лота	-14959
▁лууш	-14960
▁лцах	-14961
▁льпи	-14962
▁малч	-14963
▁мара	-14964
▁мата	-14965
▁нгаг	-14966
▁ндрю	-14967
▁нжир	-14968
▁нзас	-14969
▁нист	-14970
▁ннаг	-14971
▁ннес	-14972
▁ннын	-14973
▁нсор	-14974
▁нчон	-14975
▁ньяк	-14976
▁озон	-14977
▁осси	-14978
▁пиав	-14979
▁пийш	-14980
▁плэй	-14981
▁праг	-14982
▁пуль	-14983
▁пүрэ	-14984
▁рала	-14985
▁рбон	-14986
▁реал	-14987
▁реза	-14988
▁рейс	-14989
▁рени	-14990
▁рмоз	-14991
▁рмом	-14992
▁рхог	-14993
▁саак	-14994
▁сгай	-14995
▁сгал	-14996
▁смос	-14997
▁сово	-14998
▁софт	-14999
▁сура	-15000
▁сэрт	-15001
▁тефа	-15002
▁тлаг	-15003
▁токс	-15004
▁ттон	-15005
▁ттэр	-15006
▁узэх	-15007
▁узээ	-15008
▁умаа	-15009
▁ункт	-15010
▁уула	-15011
▁уцла	-15012
▁хайт	-15013
▁хито	-15014
▁холт	-15015
▁хуйж	-15016
▁хүмү	-15017
▁чень	-15018
▁чихо	-15019
▁шиан	-15020
▁шизо	-15021
▁шүүд	-15022
▁эжий	-15023
▁эппи	-15024
▁эрье	-15025
▁эхён	-15026
▁ёооо	-15027
▁єдлє	-15028
▁ҮРЭГ	-15029
▁ҮТЭЭ	-15030
▁ӨЛБӨ	-15031
▁Cheap	-15032
▁Crack	-15033
▁Crush	-15034
▁Force	-15035
▁Frank	-15036
▁Hyper	-15037
▁Kitch	-15038
▁Medic	-15039
▁Movie	-15040
▁Quiza	-15041
▁Sleep	-15042
▁Slide	-15043
▁Speed	-15044
▁Where	-15045
▁black	-15046
▁creat	-15047
▁medee	-15048
▁month	-15049
▁space	-15050
▁touch	-15051
▁ville	-15052
▁wagen	-15053
▁АГДАА	-15054
▁АРИУЦ	-15055
▁Гольф	-15056
▁Естер	-15057
▁Жозеф	-15058
▁ЛАГЫН	-15059
▁Покер	-15060
▁Редак	-15061
▁УРВАН	-15062
▁айдер	-15063
▁айзер	-15064
▁амлет	-15065
▁амсал	-15066
▁армай	-15067
▁астир	-15068
▁аутсо	-15069
▁бэлтг	-15070
▁вввво	-15071
▁ввово	-15072
▁вьсан	-15073
▁гидро	-15074
▁голон	-15075
▁дебют	-15076
▁дєнгє	-15077
▁ейсон	-15078
▁енген	-15079
▁ермуд	-15080
▁жийнс	-15081
▁жилий	-15082
▁зпром	-15083
▁икоти	-15084
▁иксер	-15085
▁ируул	-15086
▁канне	-15087
▁лдинг	-15088
▁лизол	-15089
▁лийнх	-15090
▁лимон	-15091
▁льфат	-15092
▁мпсон	-15093
▁натив	-15094
▁нгойн	-15095
▁ндвич	-15096
▁ндиго	-15097
▁нзонг	-15098
▁ноуде	-15099
▁нтиме	-15100
▁нухаш	-15101
▁окадо	-15102
▁олдав	-15103
▁омпью	-15104
▁ооаоа	-15105
▁оррен	-15106
▁разит	-15107
▁райан	-15108
▁ранше	-15109
▁ржиго	-15110
▁рлийз	-15111
▁ромбо	-15112
▁ртист	-15113
▁сгаар	-15114
▁ссири	-15115
▁стант	-15116
▁темал	-15117
▁эхүүн	-15118
▁үгдий	-15119
▁үйлий	-15120
▁ӨРВӨН	-15121
1,	-15122
2:	-15123
CC	-15124
CE	-15125
DC	-15126
DS	-15127
KI	-15128
UN	-15129
ci	-15130
ex	-15131
fa	-15132
hl	-15133
oi	-15134
vc	-15135
Ам	-15136
ГӨ	-15137
Жи	-15138
УТ	-15139
ЬЖ	-15140
гр	-15141
ип	-15142
йм	-15143
йх	-15144
кл	-15145
мц	-15146
рг	-15147
рю	-15148
рѳ	-15149
тн	-15150
фе	-15151
шл	-15152
єм	-15153
ҕэ	-15154
өк	-15155
өү	-15156
▁¥	-15157
▁ï	-15158
▁ə	-15159
▁‐	-15160
▁↓	-15161
▁↙	-15162
▁♫	-15163
▁✓	-15164
▁。	-15165
▁😦	-15166
ます	-15167
ASH	-15168
IFI	-15169
TPS	-15170
aut	-15171
awn	-15172
cal	-15173
ffe	-15174
idd	-15175
ilk	-15176
ssi	-15177
ulk	-15178
use	-15179
ААТ	-15180
ЕНТ	-15181
ЛАХ	-15182
РАГ	-15183
ТАН	-15184
ХӨН	-15185
аро	-15186
ввв	-15187
гѳѳ	-15188
еве	-15189
ене	-15190
иса	-15191
лен	-15192
лум	-15193
ноф	-15194
тет	-15195
унд	-15196
цио	-15197
чел	-15198
шаа	-15199
ёол	-15200
һтә	-15201
▁"7	-15202
▁($	-15203
▁(*	-15204
▁*2	-15205
▁++	-15206
▁+2	-15207
▁6)	-15208
▁9:	-15209
▁AE	-15210
▁Aq	-15211
▁BP	-15212
▁BU	-15213
▁DU	-15214
▁DW	-15215
▁Dy	-15216
▁FF	-15217
▁FR	-15218
▁GL	-15219
▁Gh	-15220
▁IO	-15221
▁Ic	-15222
▁KB	-15223
▁Kn	-15224
▁LP	-15225
▁LY	-15226
▁MY	-15227
▁NP	-15228
▁OO	-15229
▁PB	-15230
▁SL	-15231
▁SR	-15232
▁Sb	-15233
▁Ut	-15234
▁Vu	-15235
▁XD	-15236
▁XY	-15237
▁__	-15238
▁ae	-15239
▁cv	-15240
▁gt	-15241
▁js	-15242
▁nm	-15243
▁tu	-15244
▁ud	-15245
▁yl	-15246
▁Її	-15247
▁АЧ	-15248
▁БН	-15249
▁Бл	-15250
▁Во	-15251
▁ЗБ	-15252
▁Кү	-15253
▁ЛЧ	-15254
▁НЖ	-15255
▁ПГ	-15256
▁СВ	-15257
▁СН	-15258
▁ХШ	-15259
▁ЪЯ	-15260
▁еч	-15261
▁иф	-15262
▁кК	-15263
▁кх	-15264
▁лё	-15265
▁лє	-15266
▁ои	-15267
▁ою	-15268
▁оя	-15269
▁хп	-15270
▁чч	-15271
▁ше	-15272
▁ьи	-15273
▁ьр	-15274
▁яж	-15275
▁ёж	-15276
▁ҕа	-15277
▁ҮЕ	-15278
▁үу	-15279
▁ᄏᄏ	-15280
▁••	-15281
▁››	-15282
ocus	-15283
бокс	-15284
▁#1:	-15285
▁(30	-15286
▁1/4	-15287
▁106	-15288
▁11)	-15289
▁119	-15290
▁121	-15291
▁139	-15292
▁149	-15293
▁161	-15294
▁179	-15295
▁189	-15296
▁2.6	-15297
▁212	-15298
▁216	-15299
▁267	-15300
▁3-6	-15301
▁3-7	-15302
▁304	-15303
▁308	-15304
▁35%	-15305
▁480	-15306
▁5.3	-15307
▁6.7	-15308
▁70,	-15309
▁80,	-15310
▁ABS	-15311
▁ASC	-15312
▁Any	-15313
▁Bib	-15314
▁CAN	-15315
▁CAR	-15316
▁Cyb	-15317
▁Dom	-15318
▁Dou	-15319
▁Dra	-15320
▁Dre	-15321
▁ESS	-15322
▁EST	-15323
▁Emm	-15324
▁FAT	-15325
▁Fem	-15326
▁GPL	-15327
▁Gar	-15328
▁Gem	-15329
▁Gri	-15330
▁Gro	-15331
▁Hex	-15332
▁Hom	-15333
▁IDE	-15334
▁Ink	-15335
▁Jon	-15336
▁Let	-15337
▁Lex	-15338
▁MIT	-15339
▁Mas	-15340
▁Mel	-15341
▁Mia	-15342
▁Mor	-15343
▁Mos	-15344
▁Mou	-15345
▁PSY	-15346
▁Par	-15347
▁Ped	-15348
▁Ple	-15349
▁RAN	-15350
▁SOS	-15351
▁SPS	-15352
▁STE	-15353
▁Say	-15354
▁Sci	-15355
▁Spy	-15356
▁UEF	-15357
▁VOG	-15358
▁Wom	-15359
▁Won	-15360
▁XII	-15361
▁Zip	-15362
▁ash	-15363
▁bas	-15364
▁ben	-15365
▁bin	-15366
▁boo	-15367
▁bor	-15368
▁bri	-15369
▁chu	-15370
▁cvs	-15371
▁dev	-15372
▁dig	-15373
▁dor	-15374
▁dou	-15375
▁dow	-15376
▁dvd	-15377
▁eur	-15378
▁fin	-15379
▁fly	-15380
▁ida	-15381
▁ili	-15382
▁ime	-15383
▁imt	-15384
▁kan	-15385
▁lab	-15386
▁lau	-15387
▁lle	-15388
▁llo	-15389
▁mag	-15390
▁mid	-15391
▁muu	-15392
▁nka	-15393
▁oem	-15394
▁orm	-15395
▁ote	-15396
▁peo	-15397
▁phi	-15398
▁pod	-15399
▁rag	-15400
▁ras	-15401
▁ree	-15402
▁res	-15403
▁ssi	-15404
▁tom	-15405
▁who	-15406
▁won	-15407
▁woo	-15408
▁yuk	-15409
▁Їнэ	-15410
▁ААВ	-15411
▁ААМ	-15412
▁ААС	-15413
▁АГЧ	-15414
▁АМД	-15415
▁АРЧ	-15416
▁АХЬ	-15417
▁Апп	-15418
▁ББХ	-15419
▁БУС	-15420
▁Буд	-15421
▁ГЭЛ	-15422
▁ДАЖ	-15423
▁ДАЛ	-15424
▁ДДД	-15425
▁ДЕГ	-15426
▁Дал	-15427
▁Ден	-15428
▁Дэг	-15429
▁ДҮЙ	-15430
▁Жао	-15431
▁Жей	-15432
▁Жэй	-15433
▁ЗЭХ	-15434
▁ИЙЖ	-15435
▁ИЙХ	-15436
▁ИХГ	-15437
▁Инф	-15438
▁ЛАЖ	-15439
▁ЛЫГ	-15440
▁Луй	-15441
▁МУУ	-15442
▁НТЭ	-15443
▁ОАТ	-15444
▁ОЛЬ	-15445
▁ОМП	-15446
▁ОРТ	-15447
▁ПИН	-15448
▁Пре	-15449
▁РАА	-15450
▁Роф	-15451
▁Рэд	-15452
▁САЯ	-15453
▁Сиг	-15454
▁Таж	-15455
▁УПХ	-15456
▁УРТ	-15457
▁Ууж	-15458
▁Уух	-15459
▁Фул	-15460
▁ХАТ	-15461
▁ХНЫ	-15462
▁ХЭР	-15463
▁ЦЕГ	-15464
▁ЧИХ	-15465
▁Чэн	-15466
▁Шан	-15467
▁ЭТТ	-15468
▁Эээ	-15469
▁ЮУЛ	-15470
▁ЯАМ	-15471
▁ЯНЗ	-15472
▁Яая	-15473
▁акр	-15474
▁аск	-15475
▁афф	-15476
▁бен	-15477
▁бом	-15478
▁бса	-15479
▁бэй	-15480
▁дєл	-15481
▁енж	-15482
▁ено	-15483
▁еня	-15484
▁жда	-15485
▁жун	-15486
▁зил	-15487
▁иак	-15488
▁ийч	-15489
▁иша	-15490
▁ишг	-15491
▁йнд	-15492
▁йтл	-15493
▁каг	-15494
▁кал	-15495
▁ким	-15496
▁кса	-15497
▁кул	-15498
▁лаз	-15499
▁лем	-15500
▁лсө	-15501
▁лэс	-15502
▁лэш	-15503
▁мби	-15504
▁мүй	-15505
▁мөг	-15506
▁наю	-15507
▁нец	-15508
▁нри	-15509
▁нут	-15510
▁нхө	-15511
▁ньд	-15512
▁ньс	-15513
▁ока	-15514
▁олк	-15515
▁онж	-15516
▁пир	-15517
▁пэр	-15518
▁рез	-15519
▁рож	-15520
▁рхє	-15521
▁рүн	-15522
▁рөй	-15523
▁сак	-15524
▁сия	-15525
▁сут	-15526
▁таф	-15527
▁тен	-15528
▁тти	-15529
▁тто	-15530
▁тьи	-15531
▁тєв	-15532
▁түц	-15533
▁уих	-15534
▁уйр	-15535
▁унх	-15536
▁уэн	-15537
▁хуш	-15538
▁хѳѳ	-15539
▁цна	-15540
▁цым	-15541
▁чак	-15542
▁чес	-15543
▁шев	-15544
▁шот	-15545
▁шшш	-15546
▁ъяа	-15547
▁ыыы	-15548
▁эйг	-15549
▁энж	-15550
▁эсх	-15551
▁ѳнд	-15552
▁ѳсѳ	-15553
▁ҮНС	-15554
▁үээ	-15555
▁ӨРД	-15556
▁Өмч	-15557
▁Өөө	-15558
▁өмб	-15559
▁ASTM	-15560
▁Bent	-15561
▁Bina	-15562
▁Boom	-15563
▁Caak	-15564
▁Cast	-15565
▁Chin	-15566
▁Coro	-15567
▁Demi	-15568
▁Deut	-15569
▁EURO	-15570
▁Film	-15571
▁Foot	-15572
▁Gate	-15573
▁HTTP	-15574
▁Hand	-15575
▁Illu	-15576
▁Iris	-15577
▁Kell	-15578
▁Kiss	-15579
▁Kong	-15580
▁LEGO	-15581
▁Laur	-15582
▁Less	-15583
▁Lion	-15584
▁Lisa	-15585
▁Lond	-15586
▁Made	-15587
▁Maga	-15588
▁Parl	-15589
▁Patt	-15590
▁Ping	-15591
▁Poké	-15592
▁Reut	-15593
▁Rosa	-15594
▁Ryan	-15595
▁Scan	-15596
▁Shar	-15597
▁Sour	-15598
▁Spin	-15599
▁Suen	-15600
▁Tour	-15601
▁Tren	-15602
▁True	-15603
▁UNIX	-15604
▁Yand	-15605
▁Zero	-15606
▁boot	-15607
▁coin	-15608
▁cums	-15609
▁feed	-15610
▁iMac	-15611
▁king	-15612
▁mess	-15613
▁mind	-15614
▁nguu	-15615
▁niss	-15616
▁ream	-15617
▁rics	-15618
▁road	-15619
▁sana	-15620
▁test	-15621
▁ular	-15622
▁wall	-15623
▁well	-15624
▁zard	-15625
▁Ёооо	-15626
▁Єнгє	-15627
▁АХАР	-15628
▁АХИА	-15629
▁АХИМ	-15630
▁БЦТС	-15631
▁Бали	-15632
▁Ване	-15633
▁ГААН	-15634
▁ГООР	-15635
▁ГУУЛ	-15636
▁Гоёо	-15637
▁ЕНЕЖ	-15638
▁Жане	-15639
▁Жудо	-15640
▁Клоп	-15641
▁Кофи	-15642
▁ЛБӨР	-15643
▁ЛЭЛИ	-15644
▁Лион	-15645
▁Логи	-15646
▁Маха	-15647
▁Мика	-15648
▁НДӨР	-15649
▁ОАЖГ	-15650
▁ОНХА	-15651
▁ОТОО	-15652
▁ОХОЙ	-15653
▁Поло	-15654
▁РГЭД	-15655
▁РДЫН	-15656
▁РТӨН	-15657
▁Рама	-15658
▁Руби	-15659
▁Сама	-15660
▁Софт	-15661
▁УДИО	-15662
▁УУЛЖ	-15663
▁УЧИР	-15664
▁ХААГ	-15665
▁ХААЯ	-15666
▁ХОАТ	-15667
▁Хила	-15668
▁ЭДЭВ	-15669
▁аари	-15670
▁абел	-15671
▁абин	-15672
▁авод	-15673
▁адан	-15674
▁айан	-15675
▁айга	-15676
▁айли	-15677
▁алек	-15678
▁алли	-15679
▁алют	-15680
▁анба	-15681
▁аньж	-15682
▁асте	-15683
▁асфа	-15684
▁ахре	-15685
▁ббас	-15686
▁бери	-15687
▁бонд	-15688
▁вазе	-15689
▁велл	-15690
▁вета	-15691
▁вэрг	-15692
▁гдрэ	-15693
▁года	-15694
▁гозо	-15695
▁гчды	-15696
▁гшин	-15697
▁далг	-15698
▁джет	-15699
▁диан	-15700
▁дмаг	-15701
▁дьяа	-15702
▁дээн	-15703
▁егее	-15704
▁елен	-15705
▁ения	-15706
▁енчи	-15707
▁ерма	-15708
▁ерса	-15709
▁жгай	-15710
▁жуум	-15711
▁зиас	-15712
▁иани	-15713
▁ийгд	-15714
▁инни	-15715
▁инст	-15716
▁инта	-15717
▁ицми	-15718
▁йнсэ	-15719
▁крон	-15720
▁кэкэ	-15721
▁күрю	-15722
▁лави	-15723
▁лайд	-15724
▁ленд	-15725
▁лени	-15726
▁лиан	-15727
▁ллин	-15728
▁лмаз	-15729
▁лмас	-15730
▁лорд	-15731
▁лсад	-15732
▁льга	-15733
▁мада	-15734
▁мери	-15735
▁мили	-15736
▁млет	-15737
▁мцуу	-15738
▁мэйд	-15739
▁мэрж	-15740
▁нава	-15741
▁наци	-15742
▁нбаа	-15743
▁нгєє	-15744
▁ндур	-15745
▁нерә	-15746
▁ниве	-15747
▁нсой	-15748
▁нсти	-15749
▁нтал	-15750
▁ншүү	-15751
▁нүдэ	-15752
▁овка	-15753
▁ойво	-15754
▁ольн	-15755
▁онна	-15756
▁ооол	-15757
▁ооор	-15758
▁оори	-15759
▁перс	-15760
▁план	-15761
▁рати	-15762
▁рвай	-15763
▁ргаж	-15764
▁рева	-15765
▁рега	-15766
▁реди	-15767
▁реер	-15768
▁реми	-15769
▁рифт	-15770
▁руне	-15771
▁русс	-15772
▁рхэн	-15773
▁рёни	-15774
▁спер	-15775
▁ссел	-15776
▁ссөн	-15777
▁сүүр	-15778
▁таба	-15779
▁така	-15780
▁твор	-15781
▁тран	-15782
▁тээх	-15783
▁улин	-15784
▁улши	-15785
▁урин	-15786
▁урна	-15787
▁уунг	-15788
▁уэль	-15789
▁хико	-15790
▁хуйх	-15791
▁хєтє	-15792
▁чэйн	-15793
▁шгуй	-15794
▁шуба	-15795
▁эднэ	-15796
▁энни	-15797
▁эроз	-15798
▁эрол	-15799
▁эслэ	-15800
▁юмин	-15801
▁ёоло	-15802
▁єсєл	-15803
▁єсєє	-15804
▁үеий	-15805
▁үноф	-15806
▁үүни	-15807
▁һиги	-15808
▁ӨААТ	-15809
▁өнгр	-15810
▁өрхө	-15811
▁Build	-15812
▁Chapt	-15813
▁Chris	-15814
▁Close	-15815
▁Devil	-15816
▁HTTPS	-15817
▁Honda	-15818
▁Index	-15819
▁Insti	-15820
▁Korea	-15821
▁Merce	-15822
▁Mount	-15823
▁Never	-15824
▁Numen	-15825
▁Papar	-15826
▁Repub	-15827
▁Shake	-15828
▁Solar	-15829
▁Stone	-15830
▁Sugar	-15831
▁Vimeo	-15832
▁WORLD	-15833
▁XVIII	-15834
▁apple	-15835
▁appli	-15836
▁never	-15837
▁print	-15838
▁trail	-15839
▁witch	-15840
▁ААВАЛ	-15841
▁ААСАН	-15842
▁АГААД	-15843
▁АЙСАН	-15844
▁АТВАР	-15845
▁Болли	-15846
▁ЛААНБ	-15847
▁ОЛГОЙ	-15848
▁Сайта	-15849
▁УРААХ	-15850
▁УУЛАХ	-15851
▁УУЛЬД	-15852
▁Хагар	-15853
▁ЭДЛЭГ	-15854
▁агчаа	-15855
▁албаж	-15856
▁амдин	-15857
▁анёол	-15858
▁аполи	-15859
▁аптер	-15860
▁арачи	-15861
▁атчер	-15862
▁бинат	-15863
▁виски	-15864
▁газин	-15865
▁длһтә	-15866
▁дондо	-15867
▁дюссе	-15868
▁ебуха	-15869
▁ейкер	-15870
▁ельга	-15871
▁жигдр	-15872
▁ийдэх	-15873
▁иколь	-15874
▁иллаг	-15875
▁ильтр	-15876
▁ллааа	-15877
▁ллуул	-15878
▁локал	-15879
▁лоник	-15880
▁местр	-15881
▁мтгай	-15882
▁нгерн	-15883
▁нгина	-15884
▁нгойж	-15885
▁ндлер	-15886
▁ность	-15887
▁олько	-15888
▁омпео	-15889
▁онель	-15890
▁онент	-15891
▁полис	-15892
▁рагон	-15893
▁ралжи	-15894
▁ралли	-15895
▁рамва	-15896
▁рьдаг	-15897
▁рүмаф	-15898
▁рөөдө	-15899
▁суудл	-15900
▁төрий	-15901
▁ургон	-15902
▁харса	-15903
▁швили	-15904
▁ьерра	-15905
▁эгдэн	-15906
▁эксон	-15907
▁энцэн	-15908
▁яньби	-15909
▁ҮҮХЭН	-15910
▁ӨВХӨН	-15911
▁ӨВШӨӨ	-15912
▁өөлөг	-15913
40	-15914
4:	-15915
86	-15916
AK	-15917
FL	-15918
HT	-15919
LF	-15920
VI	-15921
_-	-15922
gu	-15923
ii	-15924
lu	-15925
oe	-15926
wa	-15927
yo	-15928
zu	-15929
àà	-15930
ГО	-15931
ЕЛ	-15932
ИЗ	-15933
УЙ	-15934
ХБ	-15935
Эм	-15936
бр	-15937
бт	-15938
вд	-15939
гю	-15940
ич	-15941
йд	-15942
йф	-15943
лк	-15944
нж	-15945
фу	-15946
хд	-15947
ща	-15948
ыр	-15949
юк	-15950
юэ	-15951
юю	-15952
ёв	-15953
ём	-15954
ҕа	-15955
′′	-15956
▁ã	-15957
▁ā	-15958
▁І	-15959
▁і	-15960
▁ع	-15961
▁†	-15962
▁−	-15963
▁⋆	-15964
▁」	-15965
▁し	-15966
▁이	-15967
▁👍	-15968
▁😢	-15969
HSR	-15970
UBG	-15971
aha	-15972
aku	-15973
api	-15974
ear	-15975
eng	-15976
esh	-15977
ige	-15978
ito	-15979
ren	-15980
uba	-15981
uke	-15982
una	-15983
ury	-15984
uta	-15985
uuD	-15986
ГАН	-15987
ИНГ	-15988
аги	-15989
бок	-15990
бул	-15991
быт	-15992
вон	-15993
гєє	-15994
дер	-15995
дон	-15996
зар	-15997
идр	-15998
ики	-15999
иси	-16000
ить	-16001
күү	-16002
лэй	-16003
нан	-16004
нбе	-16005
нго	-16006
одо	-16007
одя	-16008
омо	-16009
орн	-16010
пен	-16011
ппо	-16012
пта	-16013
риз	-16014
руз	-16015
сгє	-16016
ссє	-16017
фер	-16018
хой	-16019
чуп	-16020
ына	-16021
яни	-16022
ёон	-16023
▁#8	-16024
▁(:	-16025
▁/.	-16026
▁/4	-16027
▁3"	-16028
▁5/	-16029
▁7"	-16030
▁AZ	-16031
▁Ah	-16032
▁Ak	-16033
▁DP	-16034
▁Ev	-16035
▁FU	-16036
▁HI	-16037
▁HR	-16038
▁IF	-16039
▁IZ	-16040
▁JH	-16041
▁JR	-16042
▁LV	-16043
▁LX	-16044
▁MU	-16045
▁Ot	-16046
▁Ox	-16047
▁RY	-16048
▁Ru	-16049
▁TY	-16050
▁Ur	-16051
▁Wu	-16052
▁XL	-16053
▁YT	-16054
▁YY	-16055
▁Zh	-16056
▁az	-16057
▁bh	-16058
▁eh	-16059
▁eo	-16060
▁gb	-16061
▁iq	-16062
▁lk	-16063
▁pH	-16064
▁rs	-16065
▁xD	-16066
▁àà	-16067
▁Єм	-16068
▁ГЦ	-16069
▁ДӨ	-16070
▁ЕБ	-16071
▁ЕП	-16072
▁ЖЖ	-16073
▁ЖЯ	-16074
▁ЗИ	-16075
▁ЗС	-16076
▁ИП	-16077
▁КИ	-16078
▁КТ	-16079
▁ЛЬ	-16080
▁НП	-16081
▁НӨ	-16082
▁Ок	-16083
▁Оч	-16084
▁ПМ	-16085
▁РМ	-16086
▁СК	-16087
▁СР	-16088
▁Сю	-16089
▁ТӨ	-16090
▁ФМ	-16091
▁Хх	-16092
▁ЦХ	-16093
▁Цу	-16094
▁ШЕ	-16095
▁ЪЪ	-16096
▁ЭӨ	-16097
▁дї	-16098
▁зз	-16099
▁иь	-16100
▁кп	-16101
▁мА	-16102
▁ся	-16103
▁фу	-16104
▁чѳ	-16105
▁эҕ	-16106
▁юц	-16107
▁яй	-16108
▁яо	-16109
▁ят	-16110
▁їл	-16111
▁їн	-16112
▁әә	-16113
▁Өс	-16114
ндэн	-16115
▁#14	-16116
▁'_'	-16117
▁-12	-16118
▁-_-	-16119
▁/2/	-16120
▁11%	-16121
▁114	-16122
▁126	-16123
▁131	-16124
▁134	-16125
▁135	-16126
▁141	-16127
▁148	-16128
▁169	-16129
▁18%	-16130
▁182	-16131
▁187	-16132
▁198	-16133
▁2,4	-16134
▁2.9	-16135
▁207	-16136
▁222	-16137
▁239	-16138
▁247	-16139
▁256	-16140
▁296	-16141
▁3.8	-16142
▁370	-16143
▁4-7	-16144
▁45%	-16145
▁460	-16146
▁49%	-16147
▁5,6	-16148
▁5.8	-16149
▁8.1	-16150
▁8.2	-16151
▁911	-16152
▁999	-16153
▁AAS	-16154
▁ATM	-16155
▁Aca	-16156
▁Ace	-16157
▁Adv	-16158
▁Aft	-16159
▁BIM	-16160
▁Ble	-16161
▁Bol	-16162
▁CAS	-16163
▁CAT	-16164
▁Cel	-16165
▁DAY	-16166
▁DSL	-16167
▁Dar	-16168
▁Eri	-16169
▁FAQ	-16170
▁Fan	-16171
▁Fed	-16172
▁GMO	-16173
▁GOT	-16174
▁GPU	-16175
▁Gig	-16176
▁Gob	-16177
▁Gun	-16178
▁Gut	-16179
▁Haw	-16180
▁Him	-16181
▁Hur	-16182
▁IRA	-16183
▁Ima	-16184
▁Jac	-16185
▁Jok	-16186
▁Joo	-16187
▁Kan	-16188
▁Kat	-16189
▁Lat	-16190
▁Lev	-16191
▁Lew	-16192
▁Luc	-16193
▁MBA	-16194
▁MRI	-16195
▁NFC	-16196
▁NFT	-16197
▁ODM	-16198
▁OLE	-16199
▁Peo	-16200
▁Phi	-16201
▁RCA	-16202
▁REE	-16203
▁Ram	-16204
▁Rat	-16205
▁Ree	-16206
▁Ris	-16207
▁SAP	-16208
▁SER	-16209
▁SKU	-16210
▁Sea	-16211
▁Sev	-16212
▁Shu	-16213
▁Sie	-16214
▁Sop	-16215
▁Sui	-16216
▁Sum	-16217
▁Tig	-16218
▁Tro	-16219
▁Tum	-16220
▁Uae	-16221
▁VIS	-16222
▁WOW	-16223
▁WPA	-16224
▁WWF	-16225
▁ZIP	-16226
▁ace	-16227
▁ark	-16228
▁asa	-16229
▁asi	-16230
▁bon	-16231
▁ddy	-16232
▁die	-16233
▁edy	-16234
▁elt	-16235
▁ena	-16236
▁enc	-16237
▁eph	-16238
▁era	-16239
▁euk	-16240
▁fan	-16241
▁fum	-16242
▁gal	-16243
▁gon	-16244
▁gov	-16245
▁hol	-16246
▁hou	-16247
▁how	-16248
▁ich	-16249
▁iet	-16250
▁imp	-16251
▁inu	-16252
▁jig	-16253
▁kae	-16254
▁kar	-16255
▁ken	-16256
▁lah	-16257
▁lli	-16258
▁low	-16259
▁lus	-16260
▁mem	-16261
▁ngh	-16262
▁nis	-16263
▁nna	-16264
▁nue	-16265
▁nza	-16266
▁old	-16267
▁opt	-16268
▁pic	-16269
▁qua	-16270
▁qui	-16271
▁rad	-16272
▁rai	-16273
▁ram	-16274
▁ref	-16275
▁rim	-16276
▁rna	-16277
▁rog	-16278
▁rou	-16279
▁see	-16280
▁som	-16281
▁tes	-16282
▁trg	-16283
▁tte	-16284
▁uip	-16285
▁uur	-16286
▁via	-16287
▁war	-16288
▁was	-16289
▁wom	-16290
▁ААА	-16291
▁АГИ	-16292
▁Ааш	-16293
▁Айх	-16294
▁Арт	-16295
▁Аэр	-16296
▁Вин	-16297
▁ДАД	-16298
▁ДБЭ	-16299
▁Дай	-16300
▁Дум	-16301
▁ДҮҮ	-16302
▁ДӨЛ	-16303
▁Зэн	-16304
▁ЗҮЙ	-16305
▁ИЙС	-16306
▁Кей	-16307
▁Ккк	-16308
▁ЛГА	-16309
▁Лох	-16310
▁Лув	-16311
▁МАШ	-16312
▁МЕР	-16313
▁МХГ	-16314
▁Мир	-16315
▁Мөч	-16316
▁НАА	-16317
▁НАР	-16318
▁НОМ	-16319
▁НХЯ	-16320
▁НЧУ	-16321
▁НЭУ	-16322
▁Нэт	-16323
▁ОГС	-16324
▁ООР	-16325
▁Орь	-16326
▁ПОС	-16327
▁Пет	-16328
▁Пик	-16329
▁РАХ	-16330
▁РИК	-16331
▁РОЛ	-16332
▁РЭХ	-16333
▁Рас	-16334
▁Рах	-16335
▁Рис	-16336
▁Род	-16337
▁Рэй	-16338
▁СОН	-16339
▁Сяо	-16340
▁Сүн	-16341
▁ТМС	-16342
▁Таа	-16343
▁Там	-16344
▁Тэн	-16345
▁ТӨВ	-16346
▁УИД	-16347
▁УУЖ	-16348
▁Фре	-16349
▁ХАЛ	-16350
▁ХАС	-16351
▁ХНӨ	-16352
▁ХОГ	-16353
▁Хау	-16354
▁Хир	-16355
▁Хээ	-16356
▁ЧИЛ	-16357
▁Чио	-16358
▁ШИЛ	-16359
▁Шиг	-16360
▁Шог	-16361
▁ЭМД	-16362
▁ЭМЦ	-16363
▁Эль	-16364
▁Юан	-16365
▁ЯАХ	-16366
▁аба	-16367
▁авв	-16368
▁аго	-16369
▁амо	-16370
▁атя	-16371
▁баж	-16372
▁бам	-16373
▁бөс	-16374
▁вит	-16375
▁вүү	-16376
▁гйү	-16377
▁гне	-16378
▁гри	-16379
▁гуи	-16380
▁ддл	-16381
▁дет	-16382
▁дно	-16383
▁дѳр	-16384
▁ейг	-16385
▁ейн	-16386
▁ейр	-16387
▁ерч	-16388
▁зры	-16389
▁иба	-16390
▁ийй	-16391
▁инй	-16392
▁инп	-16393
▁иос	-16394
▁итр	-16395
▁кам	-16396
▁кой	-16397
▁кэр	-16398
▁кэш	-16399
▁лдє	-16400
▁ллю	-16401
▁льп	-16402
▁лүг	-16403
▁мбо	-16404
▁миг	-16405
▁мич	-16406
▁ммм	-16407
▁мну	-16408
▁моч	-16409
▁нгѳ	-16410
▁ндү	-16411
▁ноз	-16412
▁нок	-16413
▁ноу	-16414
▁ньч	-16415
▁нөж	-16416
▁одж	-16417
▁омг	-16418
▁онк	-16419
▁пел	-16420
▁пүн	-16421
▁раж	-16422
▁рап	-16423
▁рдч	-16424
▁рев	-16425
▁рза	-16426
▁риж	-16427
▁рия	-16428
▁руж	-16429
▁рум	-16430
▁рун	-16431
▁рчг	-16432
▁рэк	-16433
▁сем	-16434
▁сим	-16435
▁ссе	-16436
▁тож	-16437
▁түб	-16438
▁увс	-16439
▁уру	-16440
▁хєл	-16441
▁чик	-16442
▁чка	-16443
▁чой	-16444
▁шик	-16445
▁шит	-16446
▁шиш	-16447
▁ыть	-16448
▁эск	-16449
▁юнь	-16450
▁їнэ	-16451
▁Ѳѳр	-16452
▁ҮГД	-16453
▁үнт	-16454
▁үүм	-16455
▁Өгч	-16456
▁Өөд	-16457
▁BUSG	-16458
▁Brad	-16459
▁Bros	-16460
▁Budd	-16461
▁Cour	-16462
▁Days	-16463
▁Deep	-16464
▁Disp	-16465
▁Drup	-16466
▁Edge	-16467
▁Fist	-16468
▁Furi	-16469
▁Gaga	-16470
▁Gear	-16471
▁Gett	-16472
▁Give	-16473
▁Heav	-16474
▁Here	-16475
▁Hour	-16476
▁IPTV	-16477
▁ISIS	-16478
▁Ipod	-16479
▁Join	-16480
▁Joon	-16481
▁Kang	-16482
▁Kean	-16483
▁Levi	-16484
▁Long	-16485
▁Lott	-16486
▁Need	-16487
▁Nick	-16488
▁Norm	-16489
▁PUBG	-16490
▁Plan	-16491
▁Regi	-16492
▁Revi	-16493
▁Ring	-16494
▁Rout	-16495
▁Safe	-16496
▁Sett	-16497
▁Squi	-16498
▁Stan	-16499
▁Swan	-16500
▁Vani	-16501
▁Virg	-16502
▁Vuit	-16503
▁WHSR	-16504
▁Work	-16505
▁Yeah	-16506
▁blue	-16507
▁buck	-16508
▁bull	-16509
▁burg	-16510
▁cake	-16511
▁call	-16512
▁card	-16513
▁care	-16514
▁case	-16515
▁char	-16516
▁even	-16517
▁fair	-16518
▁fold	-16519
▁foot	-16520
▁fund	-16521
▁guar	-16522
▁hael	-16523
▁idol	-16524
▁khun	-16525
▁meme	-16526
▁numx	-16527
▁pink	-16528
▁poly	-16529
▁ract	-16530
▁soft	-16531
▁song	-16532
▁soul	-16533
▁stop	-16534
▁tute	-16535
▁view	-16536
▁zine	-16537
▁zone	-16538
▁АХАН	-16539
▁АХИР	-16540
▁АШИН	-16541
▁Бала	-16542
▁Боов	-16543
▁ИМЭЭ	-16544
▁ИЧИГ	-16545
▁ЙМГИ	-16546
▁Круз	-16547
▁Куан	-16548
▁ЛАЛТ	-16549
▁ЛГӨӨ	-16550
▁ЛИЙГ	-16551
▁ЛЦОО	-16552
▁Литв	-16553
▁МГТГ	-16554
▁Мели	-16555
▁Моди	-16556
▁НИЙГ	-16557
▁Нама	-16558
▁Нана	-16559
▁ОЛОР	-16560
▁ОНЛА	-16561
▁Рико	-16562
▁Росс	-16563
▁Сайх	-16564
▁Тама	-16565
▁Тимо	-16566
▁УНГА	-16567
▁УУЛИ	-16568
▁Хаад	-16569
▁Хаас	-16570
▁Харт	-16571
▁Хятд	-16572
▁ШИГТ	-16573
▁ЭЗИС	-16574
▁аада	-16575
▁аамп	-16576
▁ааст	-16577
▁абад	-16578
▁авий	-16579
▁авла	-16580
▁адай	-16581
▁адид	-16582
▁аекв	-16583
▁ажлы	-16584
▁азын	-16585
▁алон	-16586
▁амбу	-16587
▁амил	-16588
▁аниа	-16589
▁анка	-16590
▁арат	-16591
▁араш	-16592
▁ауэр	-16593
▁ашид	-16594
▁бдул	-16595
▁вдаг	-16596
▁виза	-16597
▁вэгч	-16598
▁гдүү	-16599
▁гжиж	-16600
▁гнож	-16601
▁гсен	-16602
▁гэлд	-16603
▁гэсэ	-16604
▁даль	-16605
▁дела	-16606
▁дера	-16607
▁дина	-16608
▁длэг	-16609
▁дони	-16610
▁дэлг	-16611
▁езар	-16612
▁езос	-16613
▁ейра	-16614
▁емок	-16615
▁енга	-16616
▁ерте	-16617
▁етти	-16618
▁жсан	-16619
▁изли	-16620
▁ийга	-16621
▁ийса	-16622
▁инго	-16623
▁инчи	-16624
▁иньо	-16625
▁иона	-16626
▁исси	-16627
▁исти	-16628
▁итти	-16629
▁ками	-16630
▁ксус	-16631
▁ктус	-16632
▁лейк	-16633
▁лета	-16634
▁лжил	-16635
▁лини	-16636
▁лллл	-16637
▁лман	-16638
▁лотт	-16639
▁лшир	-16640
▁льно	-16641
▁лөөл	-16642
▁мама	-16643
▁мбра	-16644
▁мени	-16645
▁меон	-16646
▁мпил	-16647
▁мунд	-16648
▁мхий	-16649
▁мөгц	-16650
▁нгад	-16651
▁нггю	-16652
▁ндах	-16653
▁ндес	-16654
▁ндре	-16655
▁нейт	-16656
▁нжий	-16657
▁нжэр	-16658
▁ниги	-16659
▁нила	-16660
▁ница	-16661
▁нойс	-16662
▁нрик	-16663
▁нсай	-16664
▁нсан	-16665
▁нуус	-16666
▁нууш	-16667
▁нхау	-16668
▁нхру	-16669
▁нэрэ	-16670
▁овна	-16671
▁овов	-16672
▁огба	-16673
▁одор	-16674
▁онжи	-16675
▁ооов	-16676
▁орди	-16677
▁отти	-16678
▁оули	-16679
▁пала	-16680
▁пери	-16681
▁порц	-16682
▁райо	-16683
▁риат	-16684
▁ринг	-16685
▁ркес	-16686
▁роль	-16687
▁саки	-16688
▁сети	-16689
▁скон	-16690
▁сойх	-16691
▁судл	-16692
▁сурэ	-16693
▁сээн	-16694
▁таун	-16695
▁тико	-16696
▁тори	-16697
▁ттен	-16698
▁тэйт	-16699
▁тэрэ	-16700
▁ужиг	-16701
▁укме	-16702
▁укча	-16703
▁улма	-16704
▁унци	-16705
▁уулэ	-16706
▁уухи	-16707
▁ханя	-16708
▁хойл	-16709
▁хоты	-16710
▁худа	-16711
▁хэлб	-16712
▁хээн	-16713
▁царс	-16714
▁чраа	-16715
▁чууу	-16716
▁шины	-16717
▁шуда	-16718
▁эгтү	-16719
▁эдэр	-16720
▁эйри	-16721
▁элла	-16722
▁энси	-16723
▁эссе	-16724
▁эээх	-16725
▁ёолк	-16726
▁євгє	-16727
▁єгнє	-16728
▁ѳдѳр	-16729
▁ѳнгѳ	-16730
▁үүүү	-16731
▁өнхр	-16732
▁Chall	-16733
▁Check	-16734
▁Const	-16735
▁Docum	-16736
▁Frame	-16737
▁Gucci	-16738
▁Prezi	-16739
▁Rogue	-16740
▁Shift	-16741
▁ShuuD	-16742
▁Solve	-16743
▁Spoti	-16744
▁Steve	-16745
▁Train	-16746
▁Villa	-16747
▁green	-16748
▁model	-16749
▁price	-16750
▁stall	-16751
▁sysct	-16752
▁title	-16753
▁where	-16754
▁Єєрєє	-16755
▁ААБАР	-16756
▁АРААР	-16757
▁АРЛАЛ	-16758
▁Гомез	-16759
▁Луиза	-16760
▁НДСЭН	-16761
▁ОЛСОН	-16762
▁РТӨНЦ	-16763
▁Саунд	-16764
▁УГААР	-16765
▁УЙВАР	-16766
▁УУДАС	-16767
▁УУЛАЛ	-16768
▁ЭРГҮҮ	-16769
▁ЯНЗАГ	-16770
▁аачка	-16771
▁анали	-16772
▁аргаж	-16773
▁арден	-16774
▁архад	-16775
▁асмин	-16776
▁аффет	-16777
▁ашкен	-16778
▁берта	-16779
▁бриел	-16780
▁бриэл	-16781
▁вайна	-16782
▁ваннд	-16783
▁вввва	-16784
▁ганга	-16785
▁гольм	-16786
▁густи	-16787
▁гэлжл	-16788
▁ельфи	-16789
▁ерлок	-16790
▁ернар	-16791
▁етчуп	-16792
▁зотоп	-16793
▁иавол	-16794
▁икара	-16795
▁иллэр	-16796
▁индао	-16797
▁иневе	-16798
▁интэр	-16799
▁истер	-16800
▁ицуул	-16801
▁кувер	-16802
▁лимит	-16803
▁ллввв	-16804
▁лллаа	-16805
▁лллла	-16806
▁лмаас	-16807
▁льцге	-16808
▁майка	-16809
▁музин	-16810
▁мэгдэ	-16811
▁намиг	-16812
▁нанда	-16813
▁нахай	-16814
▁нвест	-16815
▁ндсей	-16816
▁нжинг	-16817
▁нийтэ	-16818
▁нухах	-16819
▁нхорт	-16820
▁нєхєр	-16821
▁обаго	-16822
▁олгор	-16823
▁олодя	-16824
▁онали	-16825
▁оогоо	-16826
▁оорил	-16827
▁ортал	-16828
▁оссия	-16829
▁остов	-16830
▁осфат	-16831
▁перец	-16832
▁плазм	-16833
▁радеш	-16834
▁радиа	-16835
▁район	-16836
▁раков	-16837
▁ранко	-16838
▁рвэгэ	-16839
▁ргейж	-16840
▁рейди	-16841
▁ресеп	-16842
▁рихуа	-16843
▁рмогц	-16844
▁рмойн	-16845
▁рприз	-16846
▁рсдее	-16847
▁сгоби	-16848
▁ссерт	-16849
▁тальо	-16850
▁танол	-16851
▁тарио	-16852
▁тмунд	-16853
▁тогоо	-16854
▁треть	-16855
▁тэнли	-16856
▁уйзаа	-16857
▁улзаа	-16858
▁уралц	-16859
▁уэрто	-16860
▁чайзи	-16861
▁чугэй	-16862
▁чѳлѳѳ	-16863
▁ыллаа	-16864
▁эйкер	-16865
▁эльси	-16866
▁эмбри	-16867
▁эндэн	-16868
▁энэгш	-16869
▁юрнбе	-16870
▁єглєє	-16871
▁ҮМҮҮС	-16872
▁өөгий	-16873
11	-16874
15	-16875
??	-16876
CK	-16877
CT	-16878
GC	-16879
GM	-16880
NG	-16881
No	-16882
RO	-16883
WC	-16884
bp	-16885
di	-16886
ds	-16887
fc	-16888
fl	-16889
if	-16890
ih	-16891
je	-16892
kt	-16893
mm	-16894
wd	-16895
wi	-16896
Ай	-16897
ГБ	-16898
Да	-16899
ЕЕ	-16900
МС	-16901
НИ	-16902
ТТ	-16903
УЛ	-16904
УН	-16905
ач	-16906
лт	-16907
лы	-16908
ля	-16909
мх	-16910
ня	-16911
об	-16912
пы	-16913
тѳ	-16914
хё	-16915
шь	-16916
щи	-16917
ьс	-16918
ёс	-16919
ҕо	-16920
Үл	-16921
ᅲᅲ	-16922
▁Á	-16923
▁â	-16924
▁ð	-16925
▁ƒ	-16926
▁■	-16927
▁◆	-16928
▁○	-16929
▁☺	-16930
▁♡	-16931
▁お	-16932
▁💯	-16933
▁📌	-16934
▁🤣	-16935
EEE	-16936
agi	-16937
ape	-16938
eak	-16939
ist	-16940
itz	-16941
put	-16942
uni	-16943
uty	-16944
Ёнг	-16945
АТИ	-16946
ГАЙ	-16947
ДЭЭ	-16948
ИЛО	-16949
ЛУУ	-16950
ЛӨХ	-16951
ТГИ	-16952
ТГЭ	-16953
аат	-16954
ань	-16955
бад	-16956
бал	-16957
бел	-16958
бол	-16959
бон	-16960
вээ	-16961
гун	-16962
дов	-16963
ега	-16964
жит	-16965
жне	-16966
ине	-16967
лвл	-16968
лиг	-16969
лэк	-16970
мен	-16971
нас	-16972
нти	-16973
оно	-16974
ооо	-16975
ота	-16976
тат	-16977
тиз	-16978
тэн	-16979
цна	-16980
эгц	-16981
элэ	-16982
энт	-16983
эрэ	-16984
ёрт	-16985
▁#9	-16986
▁(%	-16987
▁(.	-16988
▁-8	-16989
▁.,	-16990
▁4%	-16991
▁5"	-16992
▁?"	-16993
▁Ai	-16994
▁Ax	-16995
▁Cp	-16996
▁DB	-16997
▁DY	-16998
▁EV	-16999
▁FE	-17000
▁GF	-17001
▁Gb	-17002
▁Hw	-17003
▁KP	-17004
▁Mt	-17005
▁NY	-17006
▁Nu	-17007
▁PU	-17008
▁TJ	-17009
▁UD	-17010
▁UX	-17011
▁VE	-17012
▁WH	-17013
▁Xp	-17014
▁YU	-17015
▁ax	-17016
▁bg	-17017
▁cd	-17018
▁cp	-17019
▁fb	-17020
▁fm	-17021
▁kk	-17022
▁ls	-17023
▁ml	-17024
▁mr	-17025
▁nz	-17026
▁pp	-17027
▁uz	-17028
▁vx	-17029
▁xa	-17030
▁yx	-17031
▁ЁС	-17032
▁Єє	-17033
▁АЦ	-17034
▁ВА	-17035
▁Вы	-17036
▁ДВ	-17037
▁Дө	-17038
▁ЕД	-17039
▁ЕК	-17040
▁ЕЛ	-17041
▁ЕМ	-17042
▁Еэ	-17043
▁ЗН	-17044
▁ЛЭ	-17045
▁НШ	-17046
▁ОЖ	-17047
▁Ох	-17048
▁ПА	-17049
▁ПБ	-17050
▁ПИ	-17051
▁РЭ	-17052
▁СЛ	-17053
▁ТЕ	-17054
▁УЭ	-17055
▁Ув	-17056
▁УҮ	-17057
▁ХИ	-17058
▁Хм	-17059
▁ШН	-17060
▁ШХ	-17061
▁ЯЦ	-17062
▁вү	-17063
▁жн	-17064
▁жю	-17065
▁кГ	-17066
▁мё	-17067
▁ря	-17068
▁сї	-17069
▁тѳ	-17070
▁уь	-17071
▁ъъ	-17072
▁юг	-17073
▁ѐс	-17074
▁їх	-17075
▁үи	-17076
▁һи	-17077
▁өһ	-17078
▁′′	-17079
orni	-17080
othe	-17081
unnu	-17082
аста	-17083
уууу	-17084
штаб	-17085
ынна	-17086
ээээ	-17087
▁#2:	-17088
▁#3:	-17089
▁$20	-17090
▁-30	-17091
▁1,4	-17092
▁1-4	-17093
▁10)	-17094
▁12)	-17095
▁138	-17096
▁142	-17097
▁151	-17098
▁163	-17099
▁168	-17100
▁17%	-17101
▁176	-17102
▁184	-17103
▁188	-17104
▁195	-17105
▁1:1	-17106
▁1⁄4	-17107
▁2-1	-17108
▁2-6	-17109
▁204	-17110
▁208	-17111
▁219	-17112
▁227	-17113
▁228	-17114
▁265	-17115
▁275	-17116
▁285	-17117
▁290	-17118
▁295	-17119
▁299	-17120
▁4.8	-17121
▁40,	-17122
▁420	-17123
▁470	-17124
▁5.0	-17125
▁5.7	-17126
▁510	-17127
▁511	-17128
▁610	-17129
▁65%	-17130
▁7-9	-17131
▁7.1	-17132
▁7.8	-17133
▁75%	-17134
▁777	-17135
▁8.8	-17136
▁86%	-17137
▁9.1	-17138
▁920	-17139
▁97%	-17140
▁>>>	-17141
▁ACT	-17142
▁ASP	-17143
▁AUT	-17144
▁Ada	-17145
▁Ana	-17146
▁Asa	-17147
▁Att	-17148
▁Aud	-17149
▁BDS	-17150
▁BET	-17151
▁Bed	-17152
▁Bee	-17153
▁Biz	-17154
▁Blu	-17155
▁Bot	-17156
▁CBD	-17157
▁CDC	-17158
▁CES	-17159
▁CMO	-17160
▁Cou	-17161
▁DDD	-17162
▁DIN	-17163
▁Dot	-17164
▁END	-17165
▁EPA	-17166
▁EVE	-17167
▁FSF	-17168
▁Fle	-17169
▁Fly	-17170
▁GIF	-17171
▁GOO	-17172
▁Gay	-17173
▁Glo	-17174
▁Hab	-17175
▁IBE	-17176
▁ICE	-17177
▁IIS	-17178
▁ISS	-17179
▁ITu	-17180
▁Ide	-17181
▁Imp	-17182
▁Jis	-17183
▁Jiy	-17184
▁Job	-17185
▁Joy	-17186
▁Kah	-17187
▁Kod	-17188
▁Kri	-17189
▁LAD	-17190
▁Lot	-17191
▁MAD	-17192
▁MAP	-17193
▁MER	-17194
▁MIU	-17195
▁MNS	-17196
▁Meg	-17197
▁Mur	-17198
▁NOW	-17199
▁NTV	-17200
▁Nav	-17201
▁OST	-17202
▁Och	-17203
▁Pep	-17204
▁RIA	-17205
▁RIP	-17206
▁RTP	-17207
▁Rab	-17208
▁Rih	-17209
▁SHI	-17210
▁SUV	-17211
▁Sar	-17212
▁Tel	-17213
▁Tow	-17214
▁Use	-17215
▁Van	-17216
▁Vel	-17217
▁Vib	-17218
▁Wow	-17219
▁XML	-17220
▁aha	-17221
▁aru	-17222
▁aso	-17223
▁asy	-17224
▁ava	-17225
▁bug	-17226
▁dat	-17227
▁dec	-17228
▁def	-17229
▁dia	-17230
▁eer	-17231
▁ege	-17232
▁ese	-17233
▁fit	-17234
▁foo	-17235
▁ful	-17236
▁got	-17237
▁har	-17238
▁hin	-17239
▁icy	-17240
▁ife	-17241
▁igh	-17242
▁ins	-17243
▁ize	-17244
▁jil	-17245
▁lam	-17246
▁lea	-17247
▁lga	-17248
▁lug	-17249
▁maa	-17250
▁mal	-17251
▁may	-17252
▁naa	-17253
▁nai	-17254
▁nap	-17255
▁non	-17256
▁now	-17257
▁nts	-17258
▁oil	-17259
▁ona	-17260
▁pan	-17261
▁pie	-17262
▁ppt	-17263
▁pur	-17264
▁rch	-17265
▁rdo	-17266
▁rey	-17267
[...]
