<unk>	0
<s>	0
</s>	0
▁.	-3.34894
▁б	-3.76125
▁х	-3.92785
▁н	-4.25914
▁т	-4.31364
▁ийн	-4.55825
▁,	-4.56422
▁нь	-4.67285
а	-4.70486
▁д	-4.78397
▁л	-4.84001
л	-4.89654
▁-	-4.92284
г	-4.93723
▁гүй	-4.97901
▁"	-5.08172
▁ч	-5.10937
▁з	-5.1251
▁ж	-5.15683
д	-5.18515
▁байна	-5.18527
▁ын	-5.18999
р	-5.23122
▁юм	-5.31041
▁г	-5.31935
▁ийг	-5.35589
э	-5.47814
н	-5.506
▁тэй	-5.53376
▁айгаа	-5.53597
▁0	-5.55878
.	-5.56883
▁тай	-5.58106
▁Т	-5.60678
▁Х	-5.62933
▁сан	-5.62985
▁гэж	-5.63941
▁бол	-5.67017
и	-5.68683
▁1	-5.70896
▁с	-5.73755
▁ах	-5.76483
▁ыг	-5.76839
▁2	-5.78757
▁Б	-5.78828
▁ха	-5.80786
▁аа	-5.82092
о	-5.83983
▁р	-5.84495
▁М	-5.8557
х	-5.88442
▁А	-5.89996
ий	-5.92762
▁ээ	-5.93796
▁энэ	-5.96825
▁хэрэг	-5.99425
▁байх	-6.0048
т	-6.052
▁:	-6.05685
▁Энэ	-6.0856
▁та	-6.0899
▁айсан	-6.10411
▁өөр	-6.10522
?	-6.12238
▁нэг	-6.1336
▁ажил	-6.14103
▁хүн	-6.14446
▁а	-6.14555
▁м	-6.15282
▁уу	-6.17614
▁ны	-6.18216
▁сэн	-6.18416
▁Э	-6.19016
▁дээ	-6.20893
▁Г	-6.22083
▁Д	-6.25824
▁ху	-6.28809
с	-6.29428
▁эх	-6.30599
у	-6.32425
▁Н	-6.32941
▁даг	-6.33925
▁ээр	-6.34067
▁С	-6.36767
▁У	-6.37083
▁аас	-6.37496
▁аар	-6.39046
▁их	-6.42815
ц	-6.42905
▁аж	-6.42985
▁жил	-6.43184
▁үү	-6.46594
▁даа	-6.4718
▁дэг	-6.47552
в	-6.47616
▁о	-6.48246
▁эд	-6.49388
▁болно	-6.50445
▁З	-6.51181
▁И	-6.53358
▁уул	-6.54346
▁онгол	-6.55185
▁ний	-6.56061
▁айдаг	-6.56646
▁гар	-6.57108
▁хэл	-6.57142
▁би	-6.57656
▁нд	-6.58097
▁дээр	-6.58481
▁вэ	-6.58949
▁лт	-6.60448
▁йн	-6.61343
▁ээс	-6.62048
▁хар	-6.63271
▁ад	-6.63627
▁асуу	-6.65206
ы	-6.67223
▁болох	-6.67651
▁	-6.69705
▁юу	-6.69843
▁гэсэн	-6.70894
▁9	-6.71272
▁ууд	-6.72023
▁шүү	-6.73649
үмүү	-6.74109
▁ы	-6.74175
▁!	-6.74657
▁?	-6.75365
▁я	-6.7557
▁олон	-6.76267
м	-6.76289
▁тэр	-6.77996
▁зүйл	-6.78326
▁3	-6.78885
▁сон	-6.79153
ж	-6.80267
▁үүд	-6.8107
▁...	-6.81421
▁Би	-6.81522
▁ямар	-6.81758
▁нийг	-6.82156
▁хо	-6.82405
амг	-6.83597
▁ав	-6.84857
▁э	-6.85879
▁цаг	-6.86581
▁хө	-6.87656
▁5	-6.88576
▁биш	-6.88929
▁в	-6.90689
▁ий	-6.90868
▁амьд	-6.9219
ч	-6.92198
▁ор	-6.92877
▁үз	-6.93208
▁на	-6.94323
▁ш	-6.94793
▁О	-6.95522
▁гаа	-6.96602
▁4	-6.97104
▁ид	-6.9741
▁нэ	-6.98721
▁эрх	-6.99189
ө	-6.99207
▁айгу	-7.00108
▁хоёр	-7.00693
▁шиг	-7.01569
▁гд	-7.01587
▁боло	-7.01681
▁ал	-7.01819
▁гэдэг	-7.01838
▁аад	-7.02042
▁у	-7.02987
,	-7.03231
▁ши	-7.03454
▁гийн	-7.03681
▁лаа	-7.04041
▁бод	-7.04514
▁мэдээ	-7.04588
▁бид	-7.05028
▁сайн	-7.05167
▁олсон	-7.05649
▁8	-7.05717
▁болон	-7.06261
▁хэн	-7.07475
▁Тэр	-7.07795
▁эр	-7.08158
▁к	-7.08594
▁гээр	-7.09664
▁Та	-7.1015
▁ер	-7.10157
▁(	-7.10774
▁улс	-7.11199
▁жээ	-7.11254
▁и	-7.11814
е	-7.11853
▁са	-7.11874
▁бай	-7.12067
▁ан	-7.12586
▁лага	-7.13247
▁)	-7.14182
▁мэд	-7.14694
▁га	-7.14753
уу	-7.14803
▁үнэ	-7.14906
▁бүр	-7.15254
▁6	-7.15392
▁ө	-7.15723
▁дог	-7.16832
▁хийх	-7.16975
ээ	-7.17119
▁ул	-7.18239
▁үүл	-7.18806
▁чих	-7.19489
▁но	-7.19786
▁7	-7.20604
▁ёстой	-7.2102
▁дараа	-7.21462
▁нас	-7.21973
▁лээ	-7.21973
▁өмнө	-7.22327
▁да	-7.22342
▁сөн	-7.22425
▁бүх	-7.22604
▁Ө	-7.2323
▁Ц	-7.23411
гац	-7.24576
▁байж	-7.24889
e	-7.25249
▁чинь	-7.25864
▁илүү	-7.26007
▁ээд	-7.26548
▁айр	-7.26974
▁нар	-7.27025
▁/	-7.27759
▁үед	-7.2825
▁дэ	-7.28475
▁авах	-7.28755
▁болж	-7.2905
▁одоо	-7.29448
▁ашиг	-7.29874
▁гч	-7.30157
▁маш	-7.30241
▁ар	-7.31138
a	-7.31359
үүхд	-7.31931
▁эж	-7.32251
▁Ү	-7.324
▁алаар	-7.32476
▁то	-7.32528
▁нэр	-7.33642
▁хан	-7.33682
▁гэр	-7.33693
▁ам	-7.3374
▁энд	-7.33821
▁газар	-7.34243
▁Я	-7.34362
▁шийд	-7.34451
▁Хари	-7.34798
i	-7.35468
▁онд	-7.35572
эмжэ	-7.35748
олбо	-7.36331
▁хий	-7.36463
▁оны	-7.37058
▁сэтгэ	-7.37378
▁Ш	-7.37437
▁гээд	-7.37539
▁дал	-7.37967
▁тухай	-7.37997
▁эл	-7.38488
▁шаар	-7.38542
▁арга	-7.39005
▁үүний	-7.39294
▁болго	-7.39767
▁гэх	-7.40954
▁К	-7.41717
▁гарга	-7.41781
▁бас	-7.41932
▁Ж	-7.42011
▁хү	-7.42329
o	-7.4238
▁оо	-7.42802
▁су	-7.42897
▁хувьд	-7.42986
▁хийж	-7.43535
▁ийм	-7.43552
▁үг	-7.43678
▁өдөр	-7.43811
▁удаа	-7.45802
▁буй	-7.46524
▁сары	-7.46603
▁той	-7.46926
▁үйл	-7.47071
▁гэд	-7.47078
▁өө	-7.47646
▁авч	-7.47929
▁лэл	-7.48239
▁Бид	-7.49103
▁өгөөд	-7.49204
▁Тийм	-7.49601
▁том	-7.49706
▁лгээ	-7.49886
▁эхдээ	-7.50297
▁сайх	-7.50449
▁мжтой	-7.50502
▁со	-7.50772
▁нээс	-7.51405
үү	-7.51615
▁ойлго	-7.51815
▁оруул	-7.52221
▁ир	-7.52534
▁лэ	-7.52646
▁үр	-7.55317
▁баяр	-7.55428
▁анд	-7.55498
чи	-7.55627
▁ц	-7.55714
▁од	-7.56368
аа	-7.57215
▁минь	-7.57424
▁ин	-7.57471
▁алт	-7.57806
▁эн	-7.58097
▁шинэ	-7.58112
▁сонго	-7.5836
▁чадах	-7.58379
▁тэд	-7.58522
▁нийт	-7.58642
▁нэгэн	-7.60579
t	-7.60655
▁Ч	-7.6069
▁гээ	-7.6145
▁зөв	-7.62314
▁ца	-7.62319
▁идний	-7.63166
▁комп	-7.63414
▁ох	-7.63863
▁Одоо	-7.6391
▁тус	-7.64305
▁хүний	-7.64769
▁тодо	-7.6498
▁дөр	-7.65911
▁руу	-7.66288
▁миний	-7.66395
▁чи	-7.66411
▁төр	-7.66511
▁лагаа	-7.67561
▁өг	-7.67599
▁тогло	-7.68005
▁улсын	-7.68084
эмээ	-7.68128
▁санал	-7.68224
▁өрийн	-7.68639
ла	-7.68864
▁рч	-7.69107
▁лд	-7.69814
▁гөө	-7.69915
▁ту	-7.70234
▁орон	-7.70236
▁агаад	-7.70279
▁чад	-7.70495
▁s	-7.70769
▁хүс	-7.7102
▁эдэн	-7.71072
▁гишүү	-7.71427
▁дур	-7.71448
▁яв	-7.72059
▁оног	-7.7232
▁лэг	-7.72791
▁хүнд	-7.7285
▁эв	-7.73061
▁мөнгө	-7.73098
▁ард	-7.73179
ш	-7.73245
▁бий	-7.73836
▁ма	-7.74017
▁билээ	-7.74056
▁ай	-7.74263
▁мэдэх	-7.74282
▁за	-7.74286
▁лхий	-7.74527
▁п	-7.74613
▁гаар	-7.74727
▁түү	-7.75333
▁сана	-7.75503
▁бага	-7.75891
▁өнөө	-7.75922
▁айлаа	-7.7602
га	-7.76123
▁он	-7.76496
▁ээл	-7.76533
▁оор	-7.77137
▁сург	-7.77751
▁төлөө	-7.78108
▁лөгч	-7.78253
▁санаа	-7.78952
▁аагүй	-7.79001
▁агч	-7.79777
▁й	-7.8006
▁аан	-7.80079
▁мөн	-7.80131
▁Л	-7.8014
▁дарга	-7.80413
▁өд	-7.8049
▁доо	-7.80738
▁бэ	-7.81261
▁болов	-7.81298
▁ү	-7.81544
▁тулд	-7.81679
▁иргэд	-7.81906
анай	-7.82409
▁айдал	-7.82555
▁суу	-7.82778
▁Мөн	-7.83435
эрхэ	-7.83457
▁далд	-7.83536
▁ртэл	-7.83583
▁үүхэд	-7.83701
▁өнгөр	-7.83742
▁Миний	-7.84049
▁ф	-7.84068
▁лж	-7.84146
▁өвхөн	-7.84486
амай	-7.84542
▁эсвэл	-7.84837
▁эм	-7.85303
▁тү	-7.85414
▁эмэ	-7.85546
▁гэ	-7.86144
▁аанд	-7.86411
▁тийм	-7.86469
й	-7.86668
▁учр	-7.87157
▁албан	-7.87724
▁е	-7.88207
▁дахь	-7.88581
▁тал	-7.88668
▁таны	-7.88805
▁улла	-7.88824
▁урхан	-7.88874
▁ганц	-7.8926
▁маань	-7.89587
ийн	-7.89966
айдл	-7.89979
▁Тэд	-7.90116
▁ша	-7.90381
үүл	-7.90443
▁дахин	-7.9103
▁эгээд	-7.91186
▁П	-7.91876
▁манай	-7.91893
▁үйлдв	-7.91987
▁жи	-7.92395
▁дэмж	-7.92676
▁Үү	-7.92692
▁наас	-7.92832
▁үе	-7.93218
▁машин	-7.93569
охио	-7.93796
▁өрөө	-7.94007
▁дуу	-7.94029
▁Ерөн	-7.94107
▁ие	-7.94393
▁үргэ	-7.94437
v	-7.9445
▁мж	-7.94836
▁хүү	-7.95015
y	-7.9508
▁ирсэн	-7.95167
▁лийн	-7.95198
s	-7.95222
▁эрлэ	-7.95453
▁эхэл	-7.95553
▁хамт	-7.96557
d	-7.96699
▁мгаал	-7.97298
▁үзүүл	-7.97403
йм	-7.9749
▁гэнэ	-7.97525
▁нирх	-7.97623
▁итгэ	-7.97708
▁лсан	-7.97919
▁бус	-7.97971
▁хууль	-7.97992
▁үйлч	-7.98898
▁ба	-7.98924
▁чухал	-7.99411
▁сонс	-7.99451
з	-7.99793
ан	-7.99794
▁дугаа	-7.9987
▁хүр	-8.00714
▁аараа	-8.00843
▁бүгд	-8.01029
▁хи	-8.01203
▁оос	-8.01332
▁дунд	-8.01364
▁чууд	-8.01396
▁аль	-8.01662
▁сар	-8.02437
p	-8.02679
▁хувь	-8.03746
▁ана	-8.0376
▁өөрөө	-8.03831
▁ирэх	-8.03832
▁гол	-8.0418
▁яг	-8.04222
▁чүүд	-8.04529
▁анха	-8.04724
▁шу	-8.04781
▁йг	-8.05375
▁өндөр	-8.05492
▁ханд	-8.05593
лэ	-8.0563
▁лоо	-8.0576
▁учир	-8.05919
▁Нэ	-8.0613
▁орол	-8.06152
▁хойш	-8.06257
▁ном	-8.06288
▁ээрээ	-8.0657
ийсэ	-8.06713
▁биз	-8.069
▁авсан	-8.07211
▁ол	-8.07397
▁сайд	-8.07644
▁тан	-8.08094
▁хэсэг	-8.0812
▁хэзээ	-8.08176
▁олох	-8.0826
▁ахад	-8.08282
▁Өнөө	-8.08454
▁хамаа	-8.08456
▁өлөв	-8.08565
▁сур	-8.08628
▁хээр	-8.08659
▁Хэрэв	-8.08844
▁зарим	-8.09003
▁мэт	-8.09271
▁УИХ	-8.09292
▁бари	-8.09357
▁орж	-8.09554
▁ил	-8.09667
▁ани	-8.09674
▁турш	-8.09716
▁залуу	-8.09857
▁рхой	-8.09968
▁оод	-8.1011
▁хариу	-8.10113
▁Гэ	-8.10205
▁амжи	-8.10354
үргэ	-8.10436
▁бусад	-8.10683
▁гарч	-8.11934
▁байв	-8.1198
анга	-8.12092
▁В	-8.12215
▁уули	-8.12422
▁уулз	-8.12552
▁өлбөр	-8.12661
▁лал	-8.1283
▁10	-8.13157
▁тул	-8.13161
▁бодож	-8.1364
u	-8.13667
эвч	-8.13696
▁Чи	-8.13706
▁ээгүй	-8.1371
Х	-8.13735
он	-8.13891
▁өгөх	-8.14156
▁нам	-8.14282
▁ож	-8.14466
▁үгээр	-8.14924
▁тгэ	-8.15275
▁АНУ	-8.15439
▁лтай	-8.15476
▁олго	-8.15649
▁S	-8.1608
▁дуус	-8.16193
▁Өөр	-8.16266
▁сүүл	-8.16276
▁гоор	-8.16295
▁анх	-8.16379
▁надад	-8.16419
▁бүтээ	-8.16637
▁_	-8.16812
▁яаж	-8.16944
▁огтоо	-8.17886
▁оломж	-8.18365
▁эдний	-8.18556
▁нууд	-8.18729
▁эрээр	-8.18833
▁зам	-8.18836
өө	-8.1901
▁явуул	-8.19293
▁мө	-8.1936
▁жүүл	-8.19643
▁уд	-8.19654
▁тоо	-8.19889
▁сая	-8.19914
▁хээ	-8.20016
▁зураг	-8.20076
▁асг	-8.20359
▁ёс	-8.20471
▁кино	-8.20509
▁ур	-8.20516
▁анги	-8.20542
▁шалга	-8.2068
▁олж	-8.20717
▁алга	-8.20875
▁ээж	-8.21443
▁чанар	-8.21583
▁гайх	-8.21692
▁тавь	-8.22006
▁ухайн	-8.22028
▁Түү	-8.22221
▁ойр	-8.2235
▁үл	-8.23064
▁өөс	-8.23166
▁нэмэ	-8.23598
▁айхад	-8.23766
Д	-8.24
▁арил	-8.24165
▁охоор	-8.24285
▁удир	-8.24364
▁мал	-8.24529
▁өдр	-8.24562
▁илэ	-8.24914
▁лтэй	-8.25027
▁Хятад	-8.25136
▁охин	-8.25137
▁муу	-8.25174
▁нөлөө	-8.25235
▁тээ	-8.25681
▁хэлж	-8.26046
▁цо	-8.2612
ер	-8.26144
▁Зас	-8.2619
▁отой	-8.26446
▁зо	-8.26713
▁үгүй	-8.26724
▁явж	-8.26745
▁амь	-8.26781
▁ажлын	-8.27205
▁дэхүү	-8.27236
▁адил	-8.27512
▁рал	-8.27673
▁Р	-8.27738
▁зур	-8.28043
А	-8.28158
▁шалт	-8.28357
өдөл	-8.28462
▁ье	-8.28518
▁гу	-8.28534
ү	-8.28559
▁дө	-8.2862
▁шинж	-8.28652
▁магад	-8.28789
▁элхий	-8.28789
тэл	-8.28921
цэ	-8.2915
▁мэргэ	-8.29232
▁вал	-8.29653
▁эгч	-8.29991
▁өв	-8.30353
▁бү	-8.30389
▁газры	-8.30662
б	-8.30847
▁мэнд	-8.30856
▁найз	-8.30925
▁аримт	-8.31099
▁үндэс	-8.31288
▁эмдэг	-8.31309
▁хийл	-8.31506
▁хув	-8.31537
▁бие	-8.31551
▁уур	-8.31572
▁уг	-8.3166
▁ли	-8.31768
▁A	-8.31991
▁гурв	-8.32118
▁олдог	-8.32142
▁буруу	-8.32152
ын	-8.32284
▁ла	-8.32332
И	-8.32368
▁хэв	-8.32472
c	-8.32698
▁хэр	-8.32727
өхцө	-8.32871
▁өвш	-8.32905
▁хэд	-8.33378
▁Ха	-8.33379
▁гоо	-8.33505
▁олоод	-8.33518
▁ас	-8.33714
онгу	-8.33944
n	-8.34049
▁длыг	-8.34079
▁лэх	-8.34188
ф	-8.34675
▁лсын	-8.34707
▁ярь	-8.34727
▁явах	-8.3473
g	-8.35017
▁өр	-8.35166
▁газр	-8.3529
▁P	-8.35379
ай	-8.35411
▁дотор	-8.35416
▁мэдэ	-8.35425
▁дын	-8.35595
▁изнес	-8.35634
▁анилц	-8.3581
▁өс	-8.3602
▁рөнгө	-8.36289
▁өөрс	-8.36461
аны	-8.36711
Г	-8.36769
▁ат	-8.36898
элц	-8.36927
я	-8.37199
С	-8.37281
▁B	-8.37358
▁Бат	-8.3743
Н	-8.37534
▁өгс	-8.37627
▁ст	-8.3786
▁судал	-8.38
▁бүрэн	-8.38009
▁өх	-8.38244
Т	-8.3826
▁аюул	-8.38375
▁ули	-8.38468
эн	-8.3849
▁үсгүй	-8.38497
▁үлээн	-8.38576
▁эрүүл	-8.38658
▁арай	-8.3868
лө	-8.39089
к	-8.39097
▁ирж	-8.39232
▁аатар	-8.3932
▁лэн	-8.39334
▁Ма	-8.39889
S	-8.39919
ал	-8.40124
▁лаг	-8.40178
▁;	-8.4039
▁лан	-8.40458
▁ач	-8.4055
▁хайр	-8.40657
▁эгвэл	-8.40768
▁Ер	-8.40802
▁хэлэх	-8.40814
▁олгон	-8.40867
▁аарай	-8.40981
▁эний	-8.41476
▁асан	-8.41501
▁v	-8.41711
▁асаг	-8.41819
▁вэл	-8.41874
▁эдийн	-8.41889
▁лэгч	-8.41929
▁C	-8.42033
▁өгсөн	-8.42216
k	-8.42234
▁хон	-8.42241
▁айвал	-8.42436
▁харж	-8.42574
▁арла	-8.42669
▁үеийн	-8.42692
▁гаан	-8.42758
▁ме	-8.42798
▁*	-8.42875
▁Тэгэ	-8.43264
▁үйлд	-8.43374
▁Яма	-8.43648
охир	-8.43781
▁охион	-8.43854
▁тэмц	-8.43965
▁жуул	-8.44028
▁үтээг	-8.44078
▁ус	-8.44372
▁буюу	-8.4445
▁үч	-8.44843
▁айл	-8.44903
▁үлд	-8.4493
▁про	-8.45013
▁хүрээ	-8.45212
▁гарах	-8.45388
:	-8.45735
▁до	-8.45991
▁сайт	-8.46104
▁лөгөө	-8.46117
l	-8.46165
▁эхэд	-8.4624
▁Ф	-8.46429
▁эдээж	-8.46465
ориу	-8.46611
▁танд	-8.46826
▁Хүн	-8.46883
▁хөгж	-8.46946
▁долоо	-8.47219
▁сн	-8.47266
▁дуул	-8.47352
▁дамж	-8.47378
▁i	-8.47563
▁амар	-8.4775
▁үүр	-8.47829
▁гаруй	-8.479
▁орох	-8.48004
▁маар	-8.48037
▁АН	-8.4813
"	-8.48234
▁хот	-8.48367
▁хоол	-8.48431
өнх	-8.4848
▁ухаан	-8.48572
▁нутаг	-8.48771
▁Ингэ	-8.48813
▁бэл	-8.48844
▁сү	-8.49295
▁харин	-8.49475
▁дөө	-8.49521
▁ни	-8.49563
m	-8.49635
▁аав	-8.4967
▁дүр	-8.49881
▁дар	-8.50334
▁зэрэг	-8.50366
▁ичээл	-8.50409
▁нхөө	-8.50512
▁лбар	-8.50522
▁оч	-8.50782
▁адаг	-8.50918
▁үнэн	-8.50919
▁эс	-8.51287
▁оллоо	-8.51316
▁хүлээ	-8.51347
▁лын	-8.5163
▁сол	-8.51702
▁эрэг	-8.5183
▁зохи	-8.51967
▁түүх	-8.52043
▁уудыг	-8.52123
▁Олон	-8.52204
▁Орос	-8.52264
▁мөр	-8.52269
ооро	-8.52302
▁эргэ	-8.52819
▁улсад	-8.53046
▁уль	-8.53227
▁бээр	-8.53585
▁ой	-8.53685
▁төв	-8.53837
▁ярилц	-8.53856
▁минут	-8.53899
▁ингэж	-8.54019
▁олжээ	-8.54181
▁хаа	-8.54388
▁мянга	-8.54647
▁олбоо	-8.54653
▁му	-8.54693
▁нг	-8.55041
▁оловч	-8.55236
▁олтой	-8.55281
гээд	-8.55328
▁аз	-8.5536
▁даад	-8.55532
▁[	-8.5558
▁баг	-8.55602
▁йлбар	-8.55669
▁I	-8.55854
▁чадв	-8.55893
▁огт	-8.56026
▁гэвэл	-8.56119
▁мо	-8.56178
▁явдал	-8.56351
▁глоом	-8.56475
▁дүн	-8.56593
▁тга	-8.56608
▁сэрг	-8.5668
▁цу	-8.56882
▁чигл	-8.56897
▁аасаа	-8.56927
▁бүү	-8.57481
▁зори	-8.57835
ь	-8.58187
▁эрвээ	-8.58367
▁батал	-8.584
▁a	-8.58947
▁нөх	-8.58974
▁шат	-8.59001
▁авна	-8.59374
ри	-8.59567
▁яах	-8.59639
▁тави	-8.59674
▁шууд	-8.59702
▁ь	-8.5979
▁үзэх	-8.59821
▁өөд	-8.59866
▁Энх	-8.59999
ин	-8.60069
▁сард	-8.60293
▁өгч	-8.60303
▁дү	-8.60331
▁хэцүү	-8.60422
уур	-8.6055
▁ярьж	-8.6056
▁гчид	-8.60577
▁сийн	-8.60689
▁гү	-8.6069
▁члөлт	-8.60703
▁er	-8.60738
арим	-8.60815
▁ъя	-8.61082
▁алда	-8.61162
▁ая	-8.61234
▁гдсэн	-8.61357
▁ос	-8.61512
ав	-8.61563
ли	-8.6157
▁дав	-8.61972
▁хэт	-8.61981
▁унш	-8.62252
▁агвар	-8.62259
▁өрсөн	-8.62391
▁D	-8.62498
▁харьц	-8.62551
▁агд	-8.62584
▁#	-8.626
▁ко	-8.62696
▁дагуу	-8.62741
▁эрч	-8.62772
▁авар	-8.62957
▁хгүй	-8.63012
▁эдий	-8.63079
▁зах	-8.63302
▁Ху	-8.63316
Э	-8.63396
▁тогт	-8.63471
▁Дараа	-8.63511
▁За	-8.63561
▁гэхэд	-8.63664
▁рүү	-8.637
ны	-8.63708
▁G	-8.64082
▁хэрг	-8.64092
▁лийг	-8.64274
▁саар	-8.64362
▁өргө	-8.64574
▁нээ	-8.64674
▁араах	-8.64753
▁лттай	-8.64895
▁]	-8.64933
▁нэм	-8.6496
▁лгүй	-8.6496
2	-8.64996
оо	-8.65344
▁лах	-8.65464
▁бу	-8.65518
h	-8.65598
▁өхө	-8.65834
▁Хо	-8.65911
▁гал	-8.66021
▁Их	-8.6607
▁хөт	-8.66171
A	-8.66179
▁хороо	-8.66317
I	-8.66359
▁Үнэ	-8.66449
▁ран	-8.665
▁Уг	-8.66624
▁анхны	-8.66729
▁оно	-8.66953
▁үлээж	-8.67067
▁мжгүй	-8.67132
утги	-8.67158
▁ээсээ	-8.6724
▁зохио	-8.67379
▁зүйлс	-8.67431
▁лга	-8.67567
▁зов	-8.67639
▁мерик	-8.67651
▁гэв	-8.67668
өвлө	-8.67743
▁үх	-8.67798
▁идэнд	-8.67803
гүй	-8.67808
Би	-8.68084
▁рт	-8.68138
исте	-8.68286
▁E	-8.68356
▁үртг	-8.68586
▁рах	-8.68656
▁айжээ	-8.68688
▁багш	-8.68968
▁ну	-8.69045
на	-8.69105
▁аавал	-8.69254
▁утл	-8.69257
▁эсрэг	-8.69274
▁төө	-8.6928
▁Бүх	-8.69364
▁цааш	-8.69429
▁алын	-8.69454
уулг	-8.69513
гээр	-8.6964
▁гаад	-8.69663
▁гасан	-8.69746
▁гдсан	-8.69958
▁рагд	-8.70096
▁эхл	-8.70186
▁отын	-8.70673
чир	-8.70762
▁ахир	-8.70905
▁уна	-8.71
▁лгой	-8.71144
▁ярих	-8.71151
тай	-8.7119
▁лс	-8.71266
▁унт	-8.71386
▁Е	-8.71678
▁аг	-8.71689
▁үзэж	-8.71919
▁те	-8.72185
▁руул	-8.72316
▁увийн	-8.72391
▁T	-8.72571
1	-8.72631
▁элтгэ	-8.72657
▁бүхэн	-8.72761
▁угаа	-8.72987
та	-8.73219
▁авто	-8.73308
▁чөлөө	-8.73344
▁хөл	-8.73353
▁ял	-8.73436
▁луул	-8.73549
▁чээ	-8.73714
▁кс	-8.73789
▁эмч	-8.73838
▁этгэ	-8.73849
▁алд	-8.7389
▁лдолд	-8.74181
▁ажилд	-8.74208
▁снээр	-8.74298
Л	-8.74388
▁уулж	-8.74436
▁Са	-8.74765
▁орны	-8.75069
▁өрөл	-8.75336
▁ульд	-8.75532
▁хүчин	-8.75753
▁ахаар	-8.76159
▁ээрэй	-8.76161
▁олчих	-8.76279
▁Үүн	-8.76326
▁20	-8.76468
▁өгрөг	-8.76482
▁дага	-8.76495
▁дээрх	-8.76801
ом	-8.76881
▁го	-8.7691
усга	-8.77124
▁шүүх	-8.77219
▁ик	-8.77277
▁Шинэ	-8.77478
Б	-8.77485
▁инээ	-8.77532
▁хор	-8.77598
▁харах	-8.77664
▁бич	-8.77796
▁дөг	-8.77839
У	-8.77956
▁орчин	-8.77976
▁рдэнэ	-8.77978
▁шгүй	-8.78133
▁ааны	-8.78437
▁бараг	-8.78486
r	-8.78519
▁ро	-8.7853
▁дүү	-8.78777
▁үмэн	-8.78941
▁ич	-8.79271
▁лого	-8.79321
▁тэн	-8.79654
▁тань	-8.79691
▁сс	-8.79728
▁лдэг	-8.79732
▁дээд	-8.79765
▁ов	-8.79919
▁үрх	-8.79985
▁ргалт	-8.80057
пон	-8.80082
▁МАН	-8.80117
▁элэн	-8.80219
▁Европ	-8.80294
▁лө	-8.80306
▁игч	-8.80334
▁төнц	-8.8036
▁урдан	-8.80649
▁зогс	-8.80694
▁эй	-8.80754
▁ста	-8.80858
▁лгэ	-8.80944
▁эсэх	-8.81056
▁рай	-8.81061
▁гадна	-8.81081
ргүү	-8.81151
▁уудас	-8.81279
5	-8.81328
▁цэр	-8.81391
▁дор	-8.81435
▁орсон	-8.81444
▁охир	-8.81742
▁Улс	-8.81744
▁тат	-8.82253
▁M	-8.82479
▁йртай	-8.82499
эхүү	-8.82517
▁амын	-8.82934
▁архи	-8.82957
▁аймг	-8.83115
▁уучин	-8.83191
▁нэвт	-8.83192
▁хичээ	-8.83482
лүү	-8.83543
▁цагт	-8.83641
▁Да	-8.83719
▁иргэн	-8.83896
▁чадна	-8.83899
▁улга	-8.8411
▁оноос	-8.84185
▁p	-8.84217
▁үс	-8.84261
▁·	-8.84311
▁лэж	-8.84379
▁ду	-8.84391
▁урт	-8.84443
▁тав	-8.84458
▁хөө	-8.84475
▁гт	-8.84534
O	-8.84546
Р	-8.84567
арга	-8.84647
▁H	-8.84678
▁лүүл	-8.84845
▁яриа	-8.84859
▁эг	-8.84872
▁дэх	-8.85016
▁грам	-8.85034
▁бүхий	-8.8511
▁арч	-8.85247
▁цө	-8.85351
▁өж	-8.85421
▁чин	-8.85572
ль	-8.85576
▁нө	-8.85748
▁али	-8.85847
▁ги	-8.86146
▁алтай	-8.86472
▁ичиг	-8.866
▁рсан	-8.86685
руул	-8.86736
▁вол	-8.86746
▁ирээд	-8.86817
▁F	-8.86952
▁үүрэг	-8.86965
▁e	-8.86985
▁амайг	-8.87025
▁логи	-8.87214
▁рш	-8.87316
▁дрийн	-8.874
▁нөхөр	-8.87404
О	-8.87419
▁элбэр	-8.87487
▁хаана	-8.87572
▁лда	-8.87641
▁эхний	-8.87648
▁мээр	-8.87755
▁гөөн	-8.87786
ar	-8.87874
▁ралд	-8.87903
▁хэ	-8.88049
п	-8.88056
▁сныг	-8.88344
▁лтой	-8.88348
▁ушаал	-8.88375
▁гай	-8.88509
▁аваад	-8.8857
▁улам	-8.88585
▁элт	-8.88585
▁эз	-8.88602
▁цагд	-8.88687
сэ	-8.88719
▁бүл	-8.88929
▁эмнэ	-8.89
▁хэвлэ	-8.89054
▁яри	-8.8911
▁анк	-8.89195
▁гуй	-8.89321
▁эрт	-8.8934
▁алба	-8.89444
▁үрүү	-8.8954
▁утас	-8.89562
атла	-8.89567
▁рийн	-8.89823
▁дэвш	-8.89919
▁мент	-8.9044
▁онгос	-8.90528
▁йр	-8.90531
▁нис	-8.90623
▁янз	-8.90692
▁гоё	-8.90702
E	-8.90858
▁рил	-8.90903
▁ээв	-8.90966
▁нарын	-8.91005
▁цэвэр	-8.91077
▁o	-8.91233
▁ихэнх	-8.91238
▁Ард	-8.91272
▁гэрээ	-8.91312
▁рхойл	-8.91339
P	-8.91381
▁зайл	-8.91474
T	-8.91524
▁рх	-8.91675
ус	-8.91683
▁жижиг	-8.91711
▁өм	-8.91716
▁дут	-8.91756
эсг	-8.91817
рнуу	-8.91847
▁рой	-8.91987
▁итгий	-8.92031
▁спорт	-8.92095
▁хад	-8.92283
М	-8.92408
▁b	-8.92435
▁чихс	-8.925
▁ллийг	-8.92675
▁үй	-8.9278
▁жагс	-8.9287
▁өсл	-8.92881
▁рдаг	-8.92919
▁оронд	-8.92924
▁орхи	-8.9294
4	-8.93149
▁шил	-8.93319
▁март	-8.93353
▁найд	-8.93598
▁жа	-8.93614
▁бодит	-8.93647
▁захи	-8.93773
ен	-8.93777
▁тө	-8.93784
▁'	-8.93788
ам	-8.93872
▁Хэн	-8.94032
▁агүй	-8.94046
мэг	-8.94219
▁ндээ	-8.94322
▁анг	-8.94331
▁ичсэн	-8.94378
▁нууц	-8.94433
▁аяг	-8.94582
үссэ	-8.94626
▁Хоё	-8.94711
▁агуу	-8.94718
▁тун	-8.94855
▁vv	-8.94957
▁ажлыг	-8.9503
▁атвар	-8.95293
▁улаан	-8.9545
▁йрла	-8.95498
▁нөгөө	-8.95542
▁O	-8.95695
сан	-8.95809
▁нү	-8.95954
▁өнгө	-8.9611
▁нүүр	-8.96196
▁улаг	-8.962
▁Гэр	-8.96265
є	-8.96552
▁12	-8.96613
▁бар	-8.96619
▁яла	-8.96623
▁•	-8.9663
▁эц	-8.96943
▁үд	-8.97068
▁сээр	-8.97259
▁алдаа	-8.97373
▁вч	-8.97565
▁тэнд	-8.97638
▁оюу	-8.97711
▁эгүй	-8.97713
▁сны	-8.97871
▁өрвө	-8.98142
хү	-8.98242
▁ллийн	-8.98273
▁зарла	-8.98455
▁отоод	-8.9853
▁тээл	-8.98565
▁урьд	-8.98588
an	-8.98645
▁ри	-8.99173
▁хүсч	-8.99222
▁йгээд	-8.99281
▁гдэл	-8.99315
▁өгнө	-8.99356
)	-8.99372
сгэ	-8.99381
▁зүйн	-8.99381
▁бат	-8.99407
▁рга	-8.99409
▁дорж	-8.99552
▁ун	-8.99562
8	-8.99568
▁илцаа	-8.99632
▁рилго	-8.99634
▁уран	-8.99636
▁мат	-8.99652
3	-8.99833
▁лдвар	-8.99909
▁алаг	-8.99962
▁хая	-8.99994
▁түүнд	-9.00056
▁оогүй	-9.00196
▁аш	-9.00351
▁үндс	-9.00528
▁Бас	-9.00575
▁Өнгө	-9.00606
▁үеэр	-9.00714
▁мс	-9.00741
ба	-9.00795
▁зу	-9.00874
▁айхыг	-9.00957
▁явдаг	-9.0113
▁өглөө	-9.01227
▁сум	-9.01314
▁дээш	-9.01398
▁сийг	-9.01428
▁лиг	-9.01501
▁аасан	-9.01514
▁ажлаа	-9.01524
▁урхай	-9.01661
▁явц	-9.0168
▁нийл	-9.01686
▁ичлэг	-9.01733
▁тооц	-9.01815
▁огсоо	-9.01873
▁увцас	-9.01944
▁Хө	-9.02092
▁андаа	-9.02298
b	-9.02327
члэ	-9.02471
▁нхэнэ	-9.02513
▁өвч	-9.02518
▁тэм	-9.02649
▁30	-9.02672
▁намын	-9.02714
w	-9.03035
▁авдаг	-9.03084
▁гдаж	-9.03308
▁гэлээ	-9.03334
9	-9.03424
▁өвд	-9.03511
▁хува	-9.03609
▁ль	-9.03628
▁Яг	-9.0389
▁ре	-9.03909
▁Хар	-9.04
▁эхнэр	-9.04022
▁хяна	-9.041
▁рь	-9.04139
▁зуун	-9.04183
▁всрол	-9.04457
▁өрөмж	-9.04457
▁удаан	-9.04481
▁сонин	-9.04554
▁ахыг	-9.04699
▁аалт	-9.04938
▁дгал	-9.04978
▁алх	-9.0501
▁даж	-9.05042
▁зай	-9.05126
D	-9.05196
▁гурав	-9.0526
▁уй	-9.05299
▁амра	-9.0536
▁сайж	-9.05387
▁жишээ	-9.0548
▁мэднэ	-9.05491
▁үүс	-9.05628
▁лав	-9.05644
нб	-9.05696
▁суур	-9.05718
▁ск	-9.05751
▁өмнөх	-9.05772
▁олд	-9.05952
▁цг	-9.06004
▁өмс	-9.06344
▁нтэй	-9.06368
▁гааны	-9.06404
▁хяз	-9.06515
▁гдох	-9.0652
▁арилц	-9.0658
▁ынхаа	-9.06594
▁лаас	-9.06601
▁mn	-9.06603
▁нэрлэ	-9.0663
эр	-9.06842
▁анийн	-9.06845
▁эхгүй	-9.06919
▁техн	-9.06961
▁цугл	-9.06968
▁орчим	-9.07021
▁дүүр	-9.0704
C	-9.07062
▁Га	-9.0715
▁жлийн	-9.07197
▁суурь	-9.07277
▁100	-9.07292
▁агдах	-9.07337
▁члөг	-9.07342
▁се	-9.07379
▁энгэр	-9.07416
▁төсөл	-9.07483
▁сэтг	-9.07601
▁арт	-9.07653
Й	-9.0769
▁Жи	-9.08052
▁эгж	-9.08077
▁Сол	-9.08089
▁нүүд	-9.08132
▁J	-9.0817
▁ня	-9.08284
▁урал	-9.08521
▁бодох	-9.0857
▁мийн	-9.08836
▁бүс	-9.08847
▁сэ	-9.0885
▁ралц	-9.08899
▁Юу	-9.09038
▁албай	-9.09194
▁утга	-9.09282
зэмш	-9.09298
▁бусд	-9.09306
▁аяа	-9.09337
▁11	-9.09585
▁дэв	-9.09619
ой	-9.09626
▁жур	-9.09651
▁наад	-9.09699
▁таныг	-9.09781
▁элгэр	-9.09995
▁жин	-9.10005
▁хийнэ	-9.10133
6	-9.10145
▁эцэг	-9.1025
f	-9.10314
▁айнга	-9.10393
▁арва	-9.10509
▁соёл	-9.10604
at	-9.10706
лы	-9.10744
▁ргааш	-9.10941
өгжи	-9.10973
▁ьсгал	-9.10991
▁араа	-9.11189
▁лыг	-9.11211
▁барьж	-9.11296
▁судла	-9.11303
▁ээлий	-9.11592
▁лээр	-9.11694
▁оли	-9.11717
▁мын	-9.11754
▁ен	-9.11803
▁дсэн	-9.11843
▁лгалт	-9.11929
▁айлга	-9.11941
▁жилд	-9.12222
▁>	-9.12335
▁U	-9.1238
▁Нүүр	-9.12796
▁дад	-9.12908
▁хай	-9.12941
▁орно	-9.12961
▁хүрэх	-9.13036
▁лаж	-9.13104
▁ка	-9.13305
▁хоо	-9.13314
x	-9.13378
▁улалт	-9.13426
▁чиний	-9.13546
▁очиж	-9.13621
▁ви	-9.13661
Та	-9.13686
▁c	-9.13826
▁тод	-9.13828
▁улийн	-9.13847
▁h	-9.13859
▁огүй	-9.13897
▁ргал	-9.1393
▁ог	-9.14048
▁урга	-9.14089
in	-9.14368
▁нээлт	-9.14468
эй	-9.14698
▁Баяр	-9.14949
▁ялгаа	-9.15109
▁вар	-9.15135
▁Сайн	-9.15193
▁сууж	-9.15268
▁N	-9.15385
▁өмбө	-9.15407
▁хийг	-9.15616
▁ээдүй	-9.1569
▁үмүүс	-9.15843
олц	-9.15921
ов	-9.15981
▁үгийн	-9.15985
▁жо	-9.16266
M	-9.1628
▁элж	-9.1645
▁аруун	-9.16496
▁ураг	-9.16578
▁мар	-9.16593
▁лалаа	-9.16828
▁W	-9.1687
▁лтын	-9.16972
▁гэрэл	-9.17007
▁гдэж	-9.17134
▁ахгүй	-9.17229
▁чамд	-9.17237
▁ра	-9.17238
алга	-9.17275
▁йд	-9.17362
▁Энд	-9.17362
▁бүлэг	-9.17488
▁лбарт	-9.17515
▁өөсөө	-9.17733
!	-9.17777
▁улгай	-9.17872
▁хыг	-9.17902
зо	-9.17965
ма	-9.18001
▁эрхүү	-9.18191
▁L	-9.18192
▁R	-9.18237
▁нэгүй	-9.18257
▁ааж	-9.18518
▁йл	-9.1854
▁үнг	-9.18577
▁15	-9.18627
▁цлага	-9.1866
▁төл	-9.18677
▁өч	-9.18719
▁шагна	-9.18734
▁чиг	-9.18871
▁усгай	-9.18902
▁ргө	-9.19044
▁ноос	-9.19067
элгэ	-9.19184
▁яа	-9.19194
▁лол	-9.1933
re	-9.19347
▁ижил	-9.19407
▁ив	-9.19447
▁лжи	-9.1946
▁энгүй	-9.19657
▁гдах	-9.19767
▁Хүний	-9.19785
▁ом	-9.19826
7	-9.19833
▁лгын	-9.19843
▁рна	-9.19912
▁лдол	-9.19941
▁нөөц	-9.20017
▁найм	-9.2006
▁уруу	-9.2021
▁өгдөг	-9.20225
▁хүрч	-9.20578
▁бүрт	-9.20656
▁таван	-9.20732
▁тнууд	-9.20852
▁Ту	-9.20974
▁эсгэ	-9.20991
▁эрбум	-9.21024
▁ажээ	-9.21041
үли	-9.21049
▁энги	-9.21069
▁барих	-9.21169
▁яваа	-9.21299
▁лох	-9.21577
▁үрд	-9.21599
▁ооцоо	-9.21626
▁хол	-9.21754
▁хаар	-9.21773
▁V	-9.21789
▁рд	-9.21845
З	-9.2185
▁үүлэг	-9.22085
▁хнийг	-9.22126
▁нги	-9.22172
▁риу	-9.22237
▁гаас	-9.22555
▁зар	-9.22568
▁лч	-9.22588
▁хураа	-9.22612
▁ийгэм	-9.22777
онго	-9.22784
R	-9.22808
▁төрөл	-9.22941
▁багт	-9.23033
▁ариу	-9.23109
er	-9.23161
▁ё	-9.2318
▁рж	-9.23216
▁хаан	-9.23316
▁уулга	-9.23347
▁ериал	-9.23456
▁уулах	-9.23494
▁нх	-9.23665
▁шуул	-9.23816
▁дууд	-9.23902
▁аян	-9.24119
▁сэл	-9.24179
▁угаар	-9.24335
▁бэрх	-9.24606
▁мэдр	-9.2461
▁гжүүл	-9.24624
▁гө	-9.2465
▁арамс	-9.24783
▁бичих	-9.24817
▁онгоц	-9.24897
▁өрсө	-9.24912
▁олцоо	-9.24926
▁маа	-9.24959
▁гэжээ	-9.24973
▁оролд	-9.25121
▁тхэг	-9.2523
▁Жиш	-9.25286
▁w	-9.25411
▁рэг	-9.25431
▁алуус	-9.255
▁лөө	-9.25512
▁дууг	-9.25529
▁мтран	-9.25678
▁гараг	-9.25682
▁авр	-9.25702
▁услах	-9.25744
▁найр	-9.25787
▁лагын	-9.26003
▁явна	-9.26042
▁гэмт	-9.26166
▁өргөн	-9.26247
▁жаа	-9.26315
▁үедээ	-9.26316
▁Нада	-9.26404
▁хатуу	-9.26496
▁Амьд	-9.26581
▁ндаа	-9.26742
▁үүнд	-9.26806
▁буца	-9.26838
▁боль	-9.26943
▁нцгой	-9.26944
сон	-9.26951
▁эргэн	-9.26993
▁юмаа	-9.26996
▁аниуд	-9.27129
-	-9.27169
▁яам	-9.27411
▁өнх	-9.2756
▁өн	-9.27738
▁гдсон	-9.27767
▁ган	-9.28057
▁ллы	-9.28165
▁уудад	-9.28292
▁лбэ	-9.2852
▁ва	-9.28711
on	-9.28742
▁талы	-9.28778
эвх	-9.28842
▁хотод	-9.28971
▁Цаг	-9.29176
▁уух	-9.2921
▁цгаа	-9.29221
▁хүч	-9.29252
▁нуу	-9.29388
▁худал	-9.29435
▁мжийг	-9.29533
▁хын	-9.29547
▁хил	-9.29569
▁цахим	-9.29613
▁жир	-9.29675
▁Мо	-9.29696
▁лгүүр	-9.29713
▁тэнэг	-9.29718
▁огч	-9.29739
▁энтэй	-9.29807
▁илбар	-9.29807
▁ээрэм	-9.29816
▁ачаа	-9.29837
лүүл	-9.29961
▁асгал	-9.30071
▁эе	-9.30083
▁үчтэй	-9.30088
▁тусла	-9.30171
▁улаа	-9.30466
арц	-9.30598
N	-9.30611
▁үзэл	-9.30686
▁утг	-9.30721
▁n	-9.30754
В	-9.30815
▁үнд	-9.30862
▁таа	-9.30871
▁ууж	-9.30884
авха	-9.30933
▁тос	-9.31022
▁шү	-9.31171
▁Ши	-9.31361
▁Хэд	-9.31406
▁Бусад	-9.31412
▁гэм	-9.31412
▁дах	-9.31418
▁нчлэн	-9.3142
ю	-9.31558
▁ахиа	-9.31566
▁Су	-9.31622
▁сурт	-9.31778
▁ндарт	-9.31795
▁сууц	-9.31833
▁эрчим	-9.31841
▁мах	-9.31917
▁эдэнд	-9.31944
▁ахын	-9.31952
▁лбал	-9.32089
▁рын	-9.32165
▁одол	-9.3222
▁рөө	-9.32578
Ү	-9.32646
▁ялбар	-9.32657
▁нлайн	-9.32771
▁өрөх	-9.32851
▁үтэн	-9.3287
▁нөөс	-9.3288
▁алаа	-9.33038
▁ерман	-9.33044
▁оё	-9.33127
▁үсэлт	-9.33238
▁є	-9.33285
▁лөг	-9.33299
▁on	-9.3333
▁үүдэд	-9.3346
▁ло	-9.33495
▁нгэ	-9.33509
▁татаж	-9.33531
ё	-9.33586
▁эхлэх	-9.33701
ик	-9.33723
▁t	-9.34206
▁сал	-9.3425
▁олой	-9.34251
этгэ	-9.34255
▁Баг	-9.34261
▁нгуяа	-9.34309
▁үхэнд	-9.3431
▁аач	-9.34402
▁Ээж	-9.34418
▁амир	-9.34432
▁аран	-9.3456
▁%	-9.34571
▁рэх	-9.34641
▁үрээс	-9.34703
▁бичиж	-9.34704
▁g	-9.34731
▁ле	-9.34886
▁бя	-9.3494
▁хим	-9.34951
▁ашигт	-9.34988
▁риулт	-9.3511
▁уучл	-9.35116
▁рла	-9.35202
▁лтыг	-9.35308
▁оноо	-9.35358
▁бараа	-9.3537
▁шо	-9.35441
▁нз	-9.35457
▁бо	-9.35591
▁вирус	-9.35592
▁тор	-9.35598
▁эрсд	-9.3563
▁урам	-9.35829
▁очих	-9.35843
▁чим	-9.35845
би	-9.35962
▁зан	-9.35975
▁сламж	-9.35989
▁рхайн	-9.35991
▁төдий	-9.35992
▁гүүр	-9.36104
▁улма	-9.36232
▁рхэг	-9.36293
▁эдлэг	-9.36445
0	-9.36474
▁рм	-9.36499
▁ээлж	-9.36619
▁мэл	-9.36665
▁тэг	-9.36713
▁Эх	-9.3685
▁олоо	-9.36902
▁d	-9.36979
▁инээр	-9.37044
▁тохи	-9.37062
▁энх	-9.37089
▁ийнх	-9.37094
▁лагыг	-9.37094
▁өгөө	-9.3714
▁Ав	-9.37198
▁цээн	-9.37217
▁эмж	-9.37318
▁цээ	-9.37359
▁айз	-9.37392
▁лэдэг	-9.37394
▁лц	-9.37491
▁рс	-9.37495
▁вс	-9.3756
олла	-9.37576
▁эрлэх	-9.37605
▁өвлө	-9.37678
иад	-9.37686
▁ухаа	-9.37772
ндэс	-9.38021
▁бэлэг	-9.38113
▁ург	-9.38143
▁анга	-9.38262
▁Хэрэг	-9.3841
▁товч	-9.38413
ur	-9.38466
сл	-9.3847
Я	-9.38492
▁йгаль	-9.38513
▁заа	-9.38692
▁агаар	-9.38721
▁анайд	-9.38824
▁уйл	-9.38984
▁маяг	-9.39026
▁дийн	-9.39081
▁тгалз	-9.39128
▁стр	-9.39234
▁рист	-9.39238
▁сав	-9.39396
сэн	-9.39605
▁устга	-9.39746
▁14	-9.39756
▁хурд	-9.39957
ко	-9.39977
▁бос	-9.39992
▁яваад	-9.39995
даг	-9.4
▁шаш	-9.40057
▁зүү	-9.40072
▁дай	-9.402
▁снаар	-9.40228
▁элээд	-9.40313
за	-9.40414
▁Үндс	-9.40474
▁эмэлт	-9.40481
▁алдар	-9.405
▁тэнц	-9.40774
▁яналт	-9.40786
▁Па	-9.40792
▁үнэл	-9.40807
▁алтын	-9.4083
▁таар	-9.40839
▁эцэс	-9.40952
▁агдаж	-9.40975
▁эээ	-9.41053
▁айгал	-9.41103
▁бал	-9.41191
▁хний	-9.41277
▁f	-9.41281
йдлы	-9.41282
▁ОХУ	-9.41415
▁лтгүй	-9.41479
▁үүлэх	-9.41744
▁йх	-9.4179
акци	-9.41935
▁үхэл	-9.41949
Ө	-9.41987
▁унд	-9.41998
▁мний	-9.42064
▁сүлж	-9.42065
▁лог	-9.42113
▁үгийг	-9.42274
▁урва	-9.42285
▁илгэ	-9.42305
▁төс	-9.42525
▁улан	-9.42688
▁оёрд	-9.42689
эрг	-9.42774
▁хүсэл	-9.4281
▁Ю	-9.42851
▁ухам	-9.4287
▁яриад	-9.42928
▁ве	-9.4302
▁айм	-9.43079
▁ди	-9.43083
ит	-9.43237
▁зүтгэ	-9.4333
▁амаг	-9.43381
▁рэмж	-9.43435
▁лчууд	-9.43435
▁ата	-9.43557
▁На	-9.43661
▁гц	-9.43664
▁ми	-9.43724
ти	-9.43726
▁MN	-9.43774
▁Англи	-9.43865
▁дрийг	-9.43866
▁тугай	-9.43866
▁ьютер	-9.43867
▁давуу	-9.44042
▁чир	-9.44055
▁роо	-9.44083
▁жаах	-9.44101
▁Эр	-9.4415
▁X	-9.44155
▁лтийн	-9.4418
▁видео	-9.44189
▁дот	-9.44231
▁Со	-9.44234
▁рвалж	-9.44234
▁ваалц	-9.44298
▁эмчи	-9.44358
L	-9.44391
▁эгд	-9.44419
▁ирдэг	-9.44514
▁өсөв	-9.44514
▁яар	-9.44845
чих	-9.44865
▁бүтэ	-9.4496
▁өрүүл	-9.44982
▁логын	-9.45192
▁Гар	-9.45196
en	-9.45203
▁K	-9.45225
▁хаагч	-9.45278
▁үүн	-9.45395
▁Нийт	-9.45398
▁зарна	-9.45411
▁оол	-9.45466
st	-9.45569
▁йнхүү	-9.45607
▁гдл	-9.4564
▁хуу	-9.45772
▁асал	-9.45792
▁50	-9.45958
▁унших	-9.46026
▁Хүрэл	-9.46047
өгөө	-9.46047
▁нэтэй	-9.46162
▁Мага	-9.46198
▁туул	-9.46261
▁аял	-9.46284
▁үлдээ	-9.46336
орлу	-9.46365
▁өмөр	-9.46377
▁нцлог	-9.46393
▁нга	-9.46531
▁суух	-9.46549
▁цалин	-9.46598
▁члөх	-9.46602
Ж	-9.46697
▁йм	-9.46748
▁нгийн	-9.46814
▁уудын	-9.4686
▁наа	-9.46869
▁|	-9.4693
▁ажл	-9.47015
▁үүгээ	-9.47087
▁нарт	-9.47106
▁эрг	-9.47131
▁ирнэ	-9.47165
▁бна	-9.47224
▁дөл	-9.47281
▁яваг	-9.47301
▁ак	-9.47318
▁зэв	-9.47324
▁лөн	-9.47436
▁аах	-9.47601
▁явд	-9.47608
▁илр	-9.47642
▁гнэлт	-9.47711
▁тавих	-9.47919
al	-9.47977
ни	-9.48024
▁ехник	-9.48048
▁x	-9.4822
▁хайж	-9.48322
▁чнээн	-9.48386
▁улир	-9.48412
▁гарын	-9.48485
▁огино	-9.48499
▁итгэл	-9.48674
▁Есүс	-9.48838
▁m	-9.48925
▁оохон	-9.48952
▁сэг	-9.49017
▁там	-9.49087
▁Оюу	-9.49114
▁талд	-9.49115
▁орт	-9.49119
▁амхи	-9.49187
▁снаас	-9.49209
▁арах	-9.4923
▁ахуйн	-9.49326
▁олгой	-9.49331
▁мтлаг	-9.49406
▁зөрч	-9.49637
▁алгүй	-9.49716
▁инте	-9.49757
▁араг	-9.49909
▁өмч	-9.49924
▁эндээ	-9.4995
▁айх	-9.50067
▁Ажил	-9.50093
лаа	-9.50097
▁эсэр	-9.50118
▁лөх	-9.50212
▁шоро	-9.50273
▁эк	-9.50294
▁урлаг	-9.50324
▁санд	-9.50362
▁Гэсэ	-9.5039
▁өөн	-9.50418
▁ист	-9.50422
▁аван	-9.50457
ка	-9.50495
▁мтдаа	-9.50553
▁нцло	-9.50651
▁ото	-9.50694
▁рита	-9.50703
▁барь	-9.50708
▁ажиг	-9.50719
▁муж	-9.50722
▁Бүгд	-9.50786
▁сүх	-9.5084
ет	-9.50877
▁амиа	-9.50935
▁ортой	-9.50996
▁па	-9.50996
▁u	-9.51031
▁огц	-9.51031
▁ороод	-9.51089
▁лгуур	-9.51113
▁шөнө	-9.51363
▁Ний	-9.51399
▁цэг	-9.51432
▁оороо	-9.51454
▁ара	-9.5157
▁эрэгт	-9.51626
▁ws	-9.51641
▁y	-9.51705
▁идэх	-9.51726
▁арьс	-9.5186
▁раа	-9.51876
▁Бо	-9.51941
▁айван	-9.51946
эв	-9.52057
▁нохой	-9.52063
▁лцоо	-9.52065
▁блог	-9.52067
▁өөгүй	-9.5207
▁Мэдээ	-9.52297
▁лла	-9.52341
▁хүчи	-9.52389
▁адаас	-9.52467
▁нда	-9.52472
▁дыг	-9.52516
B	-9.52528
▁гчд	-9.5253
▁рлого	-9.52534
▁аалга	-9.52623
өрдө	-9.52647
▁элийн	-9.5273
▁лон	-9.52968
▁царай	-9.53018
▁нарыг	-9.5313
▁охид	-9.53133
▁хамр	-9.53164
▁анаас	-9.53174
эгдэ	-9.53189
▁орд	-9.53215
▁одо	-9.53238
▁це	-9.5327
оло	-9.53315
▁ит	-9.53376
▁нж	-9.53394
▁лээд	-9.53415
▁удал	-9.53449
▁бодис	-9.53484
ууль	-9.53533
▁ургүй	-9.53539
▁бөх	-9.53555
▁цэцэ	-9.53632
▁яахав	-9.53646
ргэд	-9.53663
▁ям	-9.53715
▁хүсэж	-9.53717
▁данс	-9.53734
▁тоног	-9.53835
▁алуун	-9.53957
▁удлаа	-9.53986
▁иа	-9.54239
▁өрч	-9.54317
▁ламж	-9.54406
▁улуун	-9.54434
▁амла	-9.5466
▁ок	-9.54778
▁иеийн	-9.54855
үрэ	-9.54881
▁Франц	-9.54911
▁тнүүд	-9.54912
▁арк	-9.55064
▁амт	-9.5508
▁эмээ	-9.55119
▁мог	-9.55147
▁алдс	-9.55194
▁18	-9.55367
гө	-9.55407
▁дурс	-9.55509
▁нүд	-9.55577
▁им	-9.55592
▁цэцэг	-9.55635
▁юуг	-9.55637
▁үүх	-9.55664
▁чла	-9.55921
▁цөөн	-9.56124
▁Өмнөх	-9.56142
удс	-9.5619
▁аймаг	-9.56253
▁аялал	-9.56338
us	-9.56491
nd	-9.56608
▁вьцаа	-9.56611
▁Ганц	-9.56636
▁ань	-9.56645
▁хуур	-9.56684
am	-9.56783
▁орос	-9.56822
▁Ажлын	-9.56857
▁шуу	-9.56942
▁алж	-9.57176
▁хэнд	-9.57227
▁хятад	-9.57349
▁она	-9.57355
▁Эрүү	-9.57413
▁Нам	-9.57443
▁ргэн	-9.57468
▁цахи	-9.57488
▁оршин	-9.57559
▁мп	-9.57604
▁шүүмж	-9.57722
▁алтад	-9.57758
▁члал	-9.57789
▁угуй	-9.57844
▁гддаг	-9.57951
▁оллар	-9.5797
▁далай	-9.58053
▁вэб	-9.5807
▁вөл	-9.58102
▁длаар	-9.58134
▁сгэ	-9.58175
▁алхам	-9.58183
▁Эсвэл	-9.58216
▁осго	-9.58222
▁онго	-9.58387
▁болд	-9.5839
▁вор	-9.58417
▁Ли	-9.58546
▁тний	-9.58675
it	-9.5877
▁үрэ	-9.5915
▁Өмнө	-9.59151
▁шаа	-9.59188
▁нгис	-9.59219
▁рахад	-9.59355
▁ргаа	-9.59383
▁сэдэв	-9.59475
▁инд	-9.59523
▁рк	-9.59663
эгж	-9.59688
▁ion	-9.59748
▁дон	-9.60143
▁ригл	-9.60202
▁Оро	-9.60207
▁вий	-9.6047
▁мд	-9.60547
▁ёсоор	-9.6061
▁гэний	-9.60748
▁40	-9.6078
▁мод	-9.60825
▁айнаа	-9.60904
гүүл	-9.60926
▁амж	-9.60999
▁Сү	-9.61023
▁хагас	-9.61132
▁аяхан	-9.61249
▁ирлээ	-9.61383
▁вшинд	-9.61506
▁ргийг	-9.61506
▁шир	-9.61614
▁энгэ	-9.61645
▁ахдаа	-9.61647
▁фе	-9.61664
▁лаад	-9.6174
▁кл	-9.61771
▁мба	-9.61884
▁рчим	-9.61898
▁үжиг	-9.61923
▁эгш	-9.61992
▁ялга	-9.62015
▁нжлэх	-9.62022
▁l	-9.6214
▁ате	-9.62158
▁ами	-9.62236
▁асар	-9.62298
▁сул	-9.62482
▁бүрд	-9.62503
▁гши	-9.62544
үгээ	-9.6256
▁үм	-9.62572
▁ази	-9.62606
▁рик	-9.62655
▁гджээ	-9.62671
▁олбор	-9.62686
▁ориул	-9.62804
▁гах	-9.62834
єє	-9.62957
▁Ла	-9.62983
▁цэ	-9.63128
▁No	-9.63156
нх	-9.63191
▁дүнд	-9.63221
ra	-9.63223
▁арсан	-9.63318
un	-9.63438
▁улиар	-9.63471
▁уншиж	-9.63628
▁чулуу	-9.63717
▁сэр	-9.63767
▁фи	-9.63879
▁галан	-9.63943
▁ндаж	-9.64126
▁алсан	-9.64283
▁өдөрт	-9.64317
▁лны	-9.64324
▁над	-9.64496
▁Өдөр	-9.64641
▁урд	-9.64885
▁өсөөл	-9.64908
▁илан	-9.64933
▁рсгал	-9.65041
▁оц	-9.65086
▁рьд	-9.65108
▁ап	-9.65361
▁төн	-9.65402
▁нсний	-9.65445
▁дайн	-9.65447
▁лагд	-9.65462
▁аваа	-9.65475
▁илж	-9.65477
▁рий	-9.65538
▁өвчин	-9.65609
▁нхүү	-9.65687
▁гавар	-9.65709
▁бэлд	-9.65767
▁ндоо	-9.658
▁хүүхэ	-9.65817
▁эргэл	-9.65985
▁эрдэм	-9.66273
▁24	-9.66343
▁амаар	-9.66384
▁адаад	-9.66387
▁вөр	-9.66389
▁агийн	-9.66504
▁орх	-9.66513
▁тол	-9.66526
▁нүү	-9.66582
▁агш	-9.66914
▁охио	-9.66945
эгдү	-9.66965
▁луу	-9.66989
той	-9.67043
▁Ган	-9.67065
▁рио	-9.67083
▁ум	-9.67086
▁үүлж	-9.67132
▁эгт	-9.67221
▁дэд	-9.67262
V	-9.67346
▁арь	-9.67391
ак	-9.67451
▁онц	-9.67458
▁даяар	-9.67468
▁үрэл	-9.67474
▁Ne	-9.6748
▁ing	-9.67528
▁дас	-9.6758
▁гомд	-9.67686
▁айшин	-9.67741
▁лөл	-9.67751
▁in	-9.67764
▁цох	-9.67902
▁Сэтг	-9.67992
▁Өмнөд	-9.68092
хэнх	-9.68117
▁Ка	-9.68175
▁иг	-9.68246
▁13	-9.68247
▁ашаа	-9.68252
▁эргэж	-9.68353
▁уулан	-9.68393
▁ынхан	-9.68436
▁элний	-9.68439
▁эзэн	-9.68481
▁хөдөө	-9.68568
▁амд	-9.68673
▁ргэ	-9.6874
▁лам	-9.68754
▁дгала	-9.68889
▁ноо	-9.68906
▁томил	-9.69003
▁үйтэй	-9.69016
▁Ко	-9.69027
▁мол	-9.69056
▁воо	-9.69094
▁буцаа	-9.69127
▁рдын	-9.69163
К	-9.69195
▁эхэлж	-9.69308
▁рлаа	-9.69382
▁дүрэм	-9.694
▁нот	-9.69407
▁нуул	-9.69424
▁ардал	-9.69439
▁левиз	-9.69537
▁усдад	-9.6954
▁тэл	-9.69574
Е	-9.69597
▁нгах	-9.69639
▁дний	-9.69683
▁дра	-9.69683
▁дэл	-9.69736
▁нс	-9.6974
▁17	-9.69804
▁аашаа	-9.69866
▁эвийн	-9.6994
▁ры	-9.70055
▁өрнө	-9.70097
▁эгээр	-9.7017
▁ъё	-9.7024
▁аахан	-9.70284
▁Мөнгө	-9.7047
▁оош	-9.70542
▁аны	-9.70585
▁гш	-9.70646
▁мий	-9.70713
▁эглэ	-9.708
▁ей	-9.70924
▁лсэн	-9.70933
▁хям	-9.70965
▁амы	-9.71027
▁мөрөө	-9.7103
ст	-9.71033
▁орчи	-9.7106
▁өртө	-9.71088
▁ээч	-9.71118
▁өгжим	-9.71224
▁үгээс	-9.71234
▁урагч	-9.71249
▁агда	-9.71321
▁агц	-9.71385
▁уян	-9.71401
▁сра	-9.71414
▁эхийн	-9.71487
▁рөв	-9.71509
ей	-9.71596
▁уриа	-9.7163
▁хямд	-9.71633
▁өсөлт	-9.7165
▁мжи	-9.71681
▁ааш	-9.71704
▁айхан	-9.71835
▁юутан	-9.71938
▁гарна	-9.71977
le	-9.72056
▁агна	-9.72139
▁Y	-9.72273
▁ингэ	-9.72318
▁анза	-9.72359
▁глэ	-9.7237
▁лимп	-9.72377
▁дрэ	-9.72378
▁нөө	-9.72398
▁дааны	-9.72438
▁вх	-9.72519
арха	-9.72657
▁k	-9.72667
▁неж	-9.72671
▁омп	-9.72675
ос	-9.72777
▁Re	-9.72828
глөө	-9.72906
▁элцэ	-9.72916
▁вш	-9.72935
▁орилт	-9.72946
▁днээс	-9.73083
▁зас	-9.73122
▁нийн	-9.7316
▁онгу	-9.73193
z	-9.73251
▁бүт	-9.73279
▁Үз	-9.73301
▁маг	-9.73313
▁чада	-9.7337
▁эхлэн	-9.73388
▁ход	-9.73402
▁давт	-9.73421
▁снаа	-9.7345
▁төлөх	-9.73518
▁зориг	-9.73566
▁тгө	-9.7358
or	-9.73587
▁тон	-9.73611
▁сп	-9.73671
▁тгээд	-9.73678
▁тут	-9.73755
▁мн	-9.73782
ел	-9.73951
▁&	-9.73964
▁длага	-9.74103
ок	-9.74105
▁Дээр	-9.74114
▁Танд	-9.74142
▁лчил	-9.74156
▁25	-9.74263
▁элс	-9.74317
▁нш	-9.7432
▁al	-9.74345
▁виар	-9.74401
▁ес	-9.74456
▁түүхэ	-9.74472
▁үчи	-9.74477
▁тани	-9.74487
▁түр	-9.74547
▁мөч	-9.7456
▁зун	-9.7461
▁рүүл	-9.7461
▁тго	-9.74615
▁жилт	-9.74678
▁хүүг	-9.74693
▁от	-9.74758
▁Шу	-9.74762
▁тойр	-9.74825
▁ршилт	-9.75126
АА	-9.75207
АН	-9.75256
▁сай	-9.75413
▁азар	-9.75434
▁шар	-9.75443
▁эрхий	-9.75459
▁атан	-9.75525
▁изм	-9.75647
▁хиж	-9.75708
▁Залуу	-9.75719
▁өрчил	-9.75722
▁тэс	-9.75885
▁$	-9.7589
▁гдэх	-9.7597
ce	-9.75976
▁эгэнт	-9.75987
▁ут	-9.76014
▁рин	-9.7606
▁Оюун	-9.76099
▁16	-9.76142
▁өрхөн	-9.76163
▁рха	-9.76232
▁гдэ	-9.76268
▁агаан	-9.76348
▁огоон	-9.76394
▁сө	-9.76527
▁олны	-9.76563
▁албир	-9.76611
▁Ме	-9.76633
▁уухай	-9.7665
▁Гол	-9.76711
▁өнгөн	-9.7677
▁төрх	-9.76876
▁Си	-9.76976
▁бэр	-9.76993
▁адтай	-9.77114
▁Том	-9.7714
▁нгли	-9.77162
▁өрөг	-9.77213
ri	-9.77244
▁ис	-9.77278
▁эндүү	-9.77347
▁стра	-9.77372
▁анкны	-9.77405
▁цэв	-9.77446
▁үлх	-9.77586
▁атаа	-9.77624
▁мтын	-9.77665
▁Баян	-9.77666
▁ахаас	-9.77674
▁өнд	-9.77793
ol	-9.77859
▁үүлч	-9.77914
▁нгийг	-9.77976
▁тараа	-9.77977
▁агта	-9.7798
▁ага	-9.78018
▁алай	-9.78028
▁өндөө	-9.78145
▁рих	-9.78156
▁по	-9.78196
▁айж	-9.78242
▁ороо	-9.78288
▁Се	-9.78316
▁ойд	-9.78353
▁эрүү	-9.78439
▁Аз	-9.78578
▁рээ	-9.78604
ши	-9.78658
▁олдо	-9.78721
▁длууд	-9.78727
▁анш	-9.78833
▁лим	-9.78837
▁үнс	-9.78885
▁лаарх	-9.79209
▁хүрт	-9.79217
▁ланд	-9.79274
өнд	-9.79313
▁НХА	-9.79341
▁орши	-9.79353
G	-9.79372
▁дагу	-9.79411
▁ваа	-9.79566
▁Уул	-9.79582
▁Ё	-9.79827
▁ел	-9.79858
жүүл	-9.80005
▁ю	-9.80229
▁ургаа	-9.80236
▁эгдэх	-9.80253
▁тны	-9.8029
U	-9.803
00	-9.80457
▁бая	-9.80508
▁элдэг	-9.80613
▁дны	-9.80666
▁татах	-9.80742
▁лсөн	-9.80807
▁мраг	-9.80891
▁лзуу	-9.80959
▁дийл	-9.81031
F	-9.8108
▁гарц	-9.81085
▁уулг	-9.81144
▁вуу	-9.81187
▁рө	-9.81205
ct	-9.8127
ss	-9.81278
▁асвар	-9.81359
▁нгын	-9.81487
▁Төв	-9.81525
▁анаа	-9.81612
▁өрд	-9.81691
▁эхлэ	-9.81804
▁авь	-9.81838
▁хог	-9.81847
▁рчуу	-9.81849
▁Бү	-9.81889
▁нэн	-9.81909
▁эч	-9.81942
▁уха	-9.81952
▁чид	-9.8203
▁лооч	-9.82083
▁лгэр	-9.82186
▁гр	-9.82192
▁йлд	-9.82249
▁сэд	-9.82481
▁рэнд	-9.8253
▁Ша	-9.82548
▁ийш	-9.82672
▁айц	-9.82776
▁отроо	-9.82781
▁хь	-9.82883
▁шах	-9.82924
▁огоо	-9.83046
▁гадн	-9.83107
▁элтэй	-9.83126
▁тоог	-9.8324
▁линг	-9.83291
▁рөнг	-9.83492
▁эгс	-9.83536
▁алдах	-9.83545
▁рлын	-9.83591
Ц	-9.83618
▁1-	-9.83659
▁гэрлэ	-9.83828
▁дүгнэ	-9.83901
▁=	-9.83908
▁угт	-9.83916
▁эш	-9.83928
▁йруу	-9.83966
▁уудал	-9.8399
▁жиж	-9.84016
▁~	-9.84067
▁оп	-9.84073
▁йно	-9.84081
▁хав	-9.84089
▁нэт	-9.84194
▁олт	-9.84207
▁уб	-9.84346
▁Тухай	-9.84384
▁рчны	-9.84542
▁хэхэ	-9.84551
▁үлэг	-9.84627
▁ший	-9.84781
▁ент	-9.84797
▁элсэн	-9.84834
▁үгээ	-9.84837
▁дөөн	-9.8484
▁зав	-9.85065
▁лхи	-9.85127
▁йгүй	-9.85168
▁лтгэ	-9.85273
▁лоор	-9.85279
▁шдэ	-9.85291
▁биеэ	-9.85311
▁эгчид	-9.85369
▁боли	-9.85522
ch	-9.85637
▁мин	-9.85713
▁рц	-9.85714
▁ргаар	-9.85753
▁мад	-9.85814
▁ци	-9.8582
▁ордо	-9.85829
▁ута	-9.85868
▁утс	-9.85883
▁гөж	-9.85893
▁вто	-9.85916
▁ашин	-9.86202
▁лагч	-9.86253
▁гад	-9.86291
▁лжээ	-9.86436
▁ангуй	-9.86509
▁Ир	-9.86535
▁уяа	-9.86543
▁эхээс	-9.86679
▁Маш	-9.86723
▁инж	-9.86731
рла	-9.8674
▁айхаа	-9.86748
▁st	-9.86829
▁өлөөт	-9.86862
Ш	-9.86884
▁үдээ	-9.86891
▁атга	-9.8709
▁раад	-9.87139
▁гуа	-9.87229
сн	-9.87286
аргы	-9.87313
▁ладаг	-9.87387
Ч	-9.87388
▁эрэв	-9.87469
▁Яа	-9.8759
▁гүүд	-9.87699
лж	-9.87832
▁ҮБ	-9.87868
▁арж	-9.87893
▁өгж	-9.87907
▁үжи	-9.87969
▁элдэ	-9.88059
▁Ца	-9.88135
▁цай	-9.88283
▁хуви	-9.88334
▁риад	-9.88339
▁ест	-9.88377
▁ку	-9.88464
▁энийг	-9.88581
▁лүү	-9.88649
▁эрс	-9.88743
▁аат	-9.88772
▁үхний	-9.88852
▁эвч	-9.88862
▁зра	-9.88899
▁эрээ	-9.89081
▁йрын	-9.89082
▁хур	-9.89097
▁агас	-9.8916
▁ЙН	-9.89205
ая	-9.89213
▁оорой	-9.89277
▁дан	-9.894
▁усны	-9.89434
▁+	-9.89551
▁элгэ	-9.89568
▁ооо	-9.89624
▁халд	-9.89653
▁зүй	-9.89777
▁гүн	-9.89818
▁ro	-9.89829
▁жүүлж	-9.89944
▁тали	-9.90014
огто	-9.90159
▁эвлэ	-9.9016
▁гэл	-9.90454
▁овлон	-9.90521
▁йт	-9.90527
▁рло	-9.90586
▁зуг	-9.90596
ЭН	-9.9063
▁аадам	-9.90784
▁өрж	-9.90888
▁нет	-9.90943
▁ed	-9.90996
▁сала	-9.91219
▁лтанд	-9.91221
▁үйтэ	-9.91387
▁айн	-9.91478
▁хуй	-9.91552
▁ээх	-9.91596
▁жиг	-9.91604
▁алыг	-9.9161
ut	-9.91623
▁ийгөө	-9.91724
▁лтад	-9.91742
▁r	-9.91801
▁19	-9.91868
▁лөлт	-9.91887
▁хийн	-9.91888
▁ne	-9.92129
▁цийн	-9.92154
▁эйл	-9.92222
▁рөөд	-9.92243
ийгэ	-9.92255
▁эрэй	-9.9229
▁ic	-9.92296
▁эрсэн	-9.92453
▁ийлэх	-9.92465
оро	-9.92512
▁мжил	-9.92525
▁аатай	-9.92534
▁улж	-9.92646
▁моор	-9.92648
▁длын	-9.92676
▁шл	-9.9275
▁руй	-9.92818
▁агчид	-9.9283
▁зүүн	-9.93007
▁дгийг	-9.93169
▁врал	-9.93194
▁ахуй	-9.93473
үүрс	-9.93482
▁йж	-9.93519
▁рэй	-9.93606
▁гана	-9.93698
X	-9.93753
▁to	-9.93892
▁60	-9.93899
▁аб	-9.93953
▁огдо	-9.94057
тер	-9.94202
▁танай	-9.94281
▁стой	-9.9453
▁<	-9.94594
%	-9.94832
▁мэдэл	-9.9487
▁шд	-9.94919
▁Ар	-9.94935
▁хэм	-9.95102
▁ев	-9.95231
ro	-9.95267
▁вчи	-9.95302
▁гам	-9.95459
▁айлан	-9.95464
▁авчир	-9.95528
▁хүнс	-9.95611
▁анда	-9.95632
▁гжил	-9.95669
▁үүрг	-9.95788
▁шал	-9.95791
▁21	-9.95821
▁лз	-9.96019
▁рхи	-9.96148
▁хоос	-9.96248
▁хны	-9.96261
▁үсэг	-9.96284
▁жүжиг	-9.9631
▁элд	-9.96514
▁цэс	-9.96576
▁мч	-9.96594
▁en	-9.96737
▁раг	-9.96743
▁гуур	-9.96882
▁Бу	-9.96922
▁рамт	-9.9693
▁ахар	-9.96963
өмбө	-9.97006
▁оль	-9.97035
▁хос	-9.97089
▁чилж	-9.97107
▁гтаа	-9.97129
▁шө	-9.97198
▁Ор	-9.97223
▁вж	-9.97359
▁вэр	-9.97857
▁зэн	-9.97916
▁ссэн	-9.9795
▁айны	-9.97982
▁Зөв	-9.98054
▁гараа	-9.98081
▁жууд	-9.98102
▁аза	-9.98214
▁ене	-9.98264
▁эргэд	-9.9833
▁хин	-9.98548
▁гор	-9.98597
▁анал	-9.98728
▁гэрт	-9.98836
▁нал	-9.98849
▁осон	-9.9885
▁нха	-9.99065
▁аргы	-9.99076
▁вр	-9.99107
▁эртэ	-9.99202
▁өнө	-9.99269
▁алдаг	-9.99345
▁эмс	-9.99424
ve	-9.9945
▁атай	-9.99506
▁2-	-9.99685
▁оро	-9.99699
▁усан	-9.99728
▁хөх	-9.99854
▁арав	-9.99883
▁зүйлд	-9.99919
▁АР	-9.99944
▁уш	-10.0022
▁доод	-10.003
▁j	-10.0036
▁асах	-10.005
▁өлөг	-10.0087
▁Ам	-10.0091
▁гуул	-10.0098
▁дол	-10.0099
▁үйд	-10.0115
▁омж	-10.015
▁St	-10.0157
▁гүүл	-10.0165
▁ком	-10.0165
▁урь	-10.0166
өлдө	-10.017
▁АЙ	-10.0195
▁рчин	-10.0222
▁гчдын	-10.0245
ажуу	-10.0252
▁хтэй	-10.0261
▁ори	-10.0263
▁дэнд	-10.0266
▁лай	-10.027
▁лтан	-10.0272
омдо	-10.0277
▁илцан	-10.0279
АЛ	-10.028
▁анайх	-10.028
▁зуур	-10.0299
▁есс	-10.0303
▁жим	-10.0306
▁гчин	-10.0309
▁То	-10.0312
▁22	-10.0323
ЭГ	-10.0329
гийн	-10.0338
▁пи	-10.0343
▁Ma	-10.0344
▁шр	-10.0348
▁ип	-10.0359
▁гддэг	-10.0377
Чи	-10.0384
▁аана	-10.0386
▁кк	-10.0412
▁амер	-10.0415
▁ачин	-10.042
▁Төр	-10.042
▁цэн	-10.0425
ек	-10.0429
▁зоч	-10.0435
▁лстөр	-10.0436
▁Тү	-10.0437
бо	-10.0456
▁Z	-10.0479
▁хоно	-10.0487
оп	-10.0488
▁ллээ	-10.0488
▁тари	-10.0488
▁рлэ	-10.0492
▁өрхий	-10.0493
ѳ	-10.0494
▁уга	-10.0513
▁оу	-10.0529
▁эсэ	-10.0547
▁мшигт	-10.0552
▁мжийн	-10.0566
▁нтер	-10.0569
▁лөж	-10.0575
▁Цааш	-10.0575
▁эрэл	-10.0578
▁оф	-10.058
▁ожи	-10.0582
▁3-	-10.0606
▁өлөө	-10.0613
▁анад	-10.0616
▁өхөн	-10.0619
▁ia	-10.062
▁амтай	-10.0622
▁лчин	-10.0624
▁жүжи	-10.0625
▁or	-10.0639
▁элсэ	-10.0654
▁дэр	-10.0656
▁эгэ	-10.0664
▁ман	-10.0665
▁саад	-10.0667
▁цар	-10.0668
▁доор	-10.0676
▁гэгч	-10.0677
▁ио	-10.068
▁йлг	-10.0688
▁нхны	-10.0702
▁хүртэ	-10.0711
▁Хайр	-10.0718
унта	-10.074
▁Ро	-10.0741
▁The	-10.0757
▁АХН	-10.0757
▁нэлэг	-10.0758
▁гдож	-10.0758
▁Co	-10.0761
▁лмаар	-10.0778
▁эрэн	-10.0784
▁ласан	-10.0787
▁өдөл	-10.079
▁бодо	-10.0801
▁риул	-10.0811
▁эт	-10.0812
▁өрдөг	-10.0819
▁gle	-10.084
▁алха	-10.0841
▁ent	-10.0845
ЭЭ	-10.0845
▁элз	-10.0847
▁рэлт	-10.0859
▁бууд	-10.0863
▁ера	-10.087
▁Нас	-10.0878
▁уз	-10.0881
▁хнэр	-10.0883
▁ихээ	-10.0884
▁эзээ	-10.0885
▁виз	-10.0893
▁оосоо	-10.0913
▁өхөд	-10.0922
▁хээс	-10.094
▁свэр	-10.0942
▁илэн	-10.099
▁Й	-10.0994
▁байхы	-10.1001
▁игдөр	-10.1005
▁вд	-10.1019
▁Goo	-10.1026
▁цхан	-10.1026
▁рлыг	-10.1026
▁дрүүд	-10.1047
АР	-10.1062
▁чил	-10.1071
▁аяла	-10.1103
▁уламж	-10.1104
▁book	-10.111
▁ргүй	-10.1119
▁нжи	-10.1123
▁олло	-10.1127
▁саг	-10.1135
▁цаад	-10.1137
▁анил	-10.1165
▁глал	-10.1166
▁хана	-10.1168
кс	-10.1168
▁готой	-10.1176
▁цол	-10.1178
урх	-10.1182
▁иал	-10.1185
▁арьц	-10.1198
▁члэн	-10.1199
▁удаад	-10.1205
аатг	-10.1217
▁li	-10.1219
▁цаас	-10.1222
▁шги	-10.1227
▁нээр	-10.124
▁re	-10.127
▁ийд	-10.1282
▁лээн	-10.1304
▁осоо	-10.1309
H	-10.1311
▁нутг	-10.1315
▁тулга	-10.1315
▁Өөрөө	-10.1321
▁үвшин	-10.1323
▁оход	-10.1325
▁гчийн	-10.1343
▁ахин	-10.1356
▁энээс	-10.1415
▁сти	-10.142
▁гдаад	-10.1432
ес	-10.1438
▁уя	-10.1439
▁ниг	-10.1441
▁ино	-10.1447
▁Хан	-10.1468
огтв	-10.1476
▁ерик	-10.1495
▁лэгээ	-10.1496
▁гдана	-10.1499
▁рны	-10.15
▁нийс	-10.1502
▁эгдэл	-10.1508
▁нк	-10.151
▁агну	-10.1521
▁стэй	-10.1526
▁кц	-10.1527
▁сүү	-10.1539
өнгө	-10.1543
▁орил	-10.1546
▁зийн	-10.1547
▁уса	-10.1563
▁ргээ	-10.157
▁урс	-10.1577
▁тоол	-10.1581
▁соор	-10.1588
▁өвлөл	-10.1593
▁эгээ	-10.1596
▁мжл	-10.16
▁магт	-10.1601
▁лнэ	-10.1619
▁тгэл	-10.1628
▁логч	-10.1629
▁йз	-10.163
▁яда	-10.1645
▁лдаг	-10.1656
▁төрч	-10.1659
▁тик	-10.166
la	-10.1663
▁антай	-10.1664
▁из	-10.1665
▁омт	-10.1691
аса	-10.1692
▁вгүй	-10.1694
ориг	-10.1695
▁асл	-10.1697
▁лэгт	-10.1713
сөн	-10.172
▁Үй	-10.1721
▁цэнэ	-10.1722
▁Fac	-10.1729
▁ch	-10.1741
▁эрийг	-10.1746
▁хүүх	-10.1746
▁оёл	-10.1757
▁нгө	-10.1762
50	-10.1763
▁Үр	-10.1773
▁уч	-10.1782
▁хой	-10.1782
▁амп	-10.1785
▁лбэл	-10.1787
ми	-10.1788
▁орь	-10.1788
▁ге	-10.1789
▁мсэ	-10.1791
▁гла	-10.1798
▁стан	-10.1806
ари	-10.1809
▁вөө	-10.1813
▁өрүү	-10.1835
K	-10.1843
▁алан	-10.1846
▁орм	-10.1847
▁үүхэн	-10.186
▁ариа	-10.1862
▁лүүд	-10.1869
el	-10.1873
▁үний	-10.1883
▁эдгэ	-10.189
▁гна	-10.189
▁авха	-10.1892
▁дурла	-10.1896
▁илсэн	-10.1907
▁араас	-10.1912
▁ийх	-10.1912
▁Ай	-10.1915
il	-10.1926
▁осууд	-10.1947
▁зээ	-10.1948
▁уун	-10.195
▁гаарт	-10.1959
▁гаач	-10.1986
▁рээд	-10.1987
▁йхны	-10.1997
▁лэлт	-10.2014
▁an	-10.2032
▁этэй	-10.204
▁ндөр	-10.2041
▁длаа	-10.2041
▁ндан	-10.2054
▁na	-10.2055
ul	-10.2065
▁рэн	-10.2075
▁эми	-10.2082
▁утай	-10.2085
▁Улаан	-10.2085
▁урав	-10.2146
▁ош	-10.2149
утл	-10.2163
▁рьж	-10.2166
▁гил	-10.2179
▁рэл	-10.2191
▁нгүй	-10.2191
▁ахил	-10.22
▁алууд	-10.2203
▁ондоо	-10.2206
▁үлдэ	-10.2216
▁вил	-10.2218
▁галз	-10.2219
▁наар	-10.2226
▁лива	-10.2232
▁эрчи	-10.2239
▁орч	-10.2241
▁атр	-10.2241
▁слан	-10.2253
▁ишүү	-10.2254
▁усд	-10.2259
▁Өв	-10.2268
▁рис	-10.227
▁De	-10.2273
▁өрөв	-10.2273
▁ныхаа	-10.2274
▁ндын	-10.2274
▁лбан	-10.2274
▁өөх	-10.2289
▁сек	-10.2297
▁олог	-10.2299
ян	-10.2302
▁ууны	-10.232
▁удам	-10.2341
▁үни	-10.2351
▁Ch	-10.2355
▁асуух	-10.2365
▁лом	-10.2366
▁зүг	-10.2371
▁римт	-10.2383
▁глах	-10.24
▁ген	-10.2418
▁анч	-10.242
▁сах	-10.2433
ЫН	-10.2443
▁ья	-10.2444
▁онх	-10.2456
▁сам	-10.2457
▁цор	-10.246
ap	-10.2463
▁имп	-10.2468
▁мжтай	-10.248
▁шөө	-10.2486
▁In	-10.2511
▁ичээд	-10.2514
▁олз	-10.252
▁хааны	-10.253
▁Хү	-10.2554
▁ТГ	-10.256
/	-10.2574
лээд	-10.2577
um	-10.2588
▁ьд	-10.2617
агас	-10.2617
▁ргы	-10.2619
▁80	-10.2626
▁one	-10.2629
▁сор	-10.2641
▁өгө	-10.2662
▁өгд	-10.2668
өөрө	-10.267
▁очи	-10.2686
▁Чу	-10.2687
▁хаас	-10.269
▁ХХК	-10.271
▁онг	-10.2721
▁хио	-10.2726
▁одруу	-10.276
▁түгэ	-10.277
▁хараа	-10.2778
▁гөн	-10.2779
▁усдаа	-10.279
▁мун	-10.2803
олоо	-10.2809
▁эхээр	-10.2812
▁ачи	-10.2817
▁айта	-10.2825
▁ван	-10.283
▁хирол	-10.2834
▁нага	-10.2835
▁ma	-10.2836
▁иун	-10.2836
▁рги	-10.2836
▁ралт	-10.2837
▁элч	-10.284
▁аала	-10.285
▁цас	-10.2854
▁адал	-10.2856
▁амба	-10.2859
▁You	-10.286
▁үйц	-10.2887
▁өнг	-10.2896
▁дагч	-10.2904
▁рам	-10.2913
▁ки	-10.292
▁лна	-10.2924
▁ХК	-10.2925
▁болоо	-10.2929
▁Ра	-10.2936
▁Үнэн	-10.2939
▁ури	-10.2942
▁цаана	-10.2946
▁рак	-10.2946
▁өлс	-10.2964
▁сахи	-10.2973
▁z	-10.2982
▁гсаал	-10.2986
▁дуур	-10.2998
▁зе	-10.3004
▁ети	-10.3005
▁олбо	-10.3009
▁унтаг	-10.3015
▁аши	-10.3019
▁гдлаа	-10.3021
▁нгаа	-10.3023
▁тно	-10.3031
▁ногоо	-10.3038
▁ооч	-10.3045
▁Уу	-10.3051
▁улгах	-10.3052
▁ими	-10.3061
▁Se	-10.3063
▁уда	-10.3086
▁авт	-10.3105
анк	-10.3108
▁Mo	-10.312
▁хас	-10.3126
▁йса	-10.3131
▁үт	-10.3137
▁дүүд	-10.314
▁екс	-10.315
▁авса	-10.3156
▁аяс	-10.3156
▁удаг	-10.3162
▁рми	-10.3172
▁нил	-10.3179
▁лго	-10.3182
Ь	-10.3192
▁хоё	-10.3196
▁цоо	-10.32
▁23	-10.3203
▁уухан	-10.3228
▁ундаа	-10.3231
▁далт	-10.3233
ГА	-10.3234
Ы	-10.389
ї	-10.3964
Y	-10.5285
W	-10.5678
^	-10.6275
q	-10.6598
j	-10.6921
П	-10.7666
]	-11.0098
ъ	-11.1137
>	-11.1137
*	-11.1137
ђ	-11.1383
Q	-11.1792
щ	-11.2181
һ	-11.2706
Z	-11.3106
$	-11.3319
î	-11.3475
Ё	-11.3684
Є	-11.3921
;	-11.4537
️	-11.4549
+	-11.4783
ҕ	-11.4962
ҥ	-11.4962
J	-11.5035
°	-11.5132
Ю	-11.5381
'	-11.5559
←	-11.5936
Ф	-11.6018
{	-11.603
à	-11.661
}	-11.7658
ý	-11.7658
€	-11.7995
ü	-11.8954
\	-12.0014
é	-12.0155
í	-12.0155
●	-12.0155
ә	-12.0298
ا	-12.059
ë	-12.0739
ñ	-12.0739
ѐ	-12.1201
&	-12.1509
¿	-12.1685
ò	-12.1852
›	-12.2547
_	-12.2717
ر	-12.3103
â	-12.3492
@	-12.4092
Ъ	-12.4104
è	-12.4534
س	-12.4534
►	-12.4534
ã	-12.4756
Ѳ	-12.4756
ة	-12.4984
ك	-12.5216
❤	-12.5216
®	-12.6205
ä	-12.6205
=	-12.6456
ð	-12.6468
́	-12.6738
√	-12.7016
£	-12.7301
♥	-12.7301
#	-12.7583
Ї	-12.7596
🎁	-12.7596
õ	-12.8211
い	-12.8211
á	-12.8534
ó	-12.9212
Щ	-12.9212
~	-12.9557
★	-12.9569
な	-12.9939
ö	-13.0324
ん	-13.0324
Џ	-13.0724
ѕ	-13.0724
时	-13.0724
م	-13.0724
<	-13.1128
ل	-13.1575
し	-13.1575
ў	-13.203
の	-13.203
・	-13.203
ي	-13.2506
☞	-13.2506
す	-13.2506
(	-13.2994
×	-13.3006
ң	-13.3006
ı	-13.3532
😍	-13.3532
ā	-13.4088
⁄	-13.4088
ì	-13.4088
і	-13.4088
ま	-13.4676
÷	-13.4676
μ	-13.4676
る	-13.4676
Ø	-13.5301
Ќ	-13.5301
う	-13.5301
て	-13.5301
😂	-13.5301
•	-13.5956
§	-13.5968
қ	-13.5968
😊	-13.5968
ћ	-13.5968
に	-13.5968
이	-13.5968
ï	-13.6682
ø	-13.6682
җ	-13.6682
ế	-13.6682
】	-13.6682
名	-13.6682
û	-13.7451
ن	-13.7451
♦	-13.7451
【	-13.7451
ら	-13.7451
で	-13.7451
ќ	-13.8285
か	-13.8285
±	-13.8285
ç	-13.8285
ɵ	-13.8285
Ў	-13.8285
و	-13.9194
æ	-13.9194
α	-13.9194
І	-13.9194
ع	-13.9194
あ	-13.9194
こ	-13.9194
た	-13.9194
曲	-13.9194
称	-13.9194
요	-13.9194
🏻	-13.9194
く	-13.9194
د	-14.0194
¥	-14.0194
γ	-14.0194
」	-14.0194
れ	-14.0194
👉	-14.0194
💵	-14.0194
と	-14.0194
よ	-14.0194
り	-14.0194
ー	-14.0194
を	-14.1305
Õ	-14.1305
↙	-14.1305
だ	-14.1305
国	-14.1305
😦	-14.1305
ş	-14.1305
が	-14.1305
は	-14.1305
나	-14.1305
も	-14.2555
ン	-14.2555
学	-14.2555
ه	-14.2555
Á	-14.2555
Ü	-14.2555
š	-14.2555
⋆	-14.2555
☈	-14.2555
♚	-14.2555
っ	-14.2555
書	-14.2555
유	-14.2555
📌	-14.2555
き	-14.2555
어	-14.2555
お	-14.2555
¦	-14.3984
ɪ	-14.3984
Ћ	-14.3984
ո	-14.3984
י	-14.3984
ר	-14.3984
ف	-14.3984
ᄂ	-14.3984
■	-14.3984
◆	-14.3984
○	-14.3984
ば	-14.3984
리	-14.3984
Ş	-14.3984
け	-14.3984
日	-14.3984
기	-14.3984
[	-14.5638
Ç	-14.565
ᠠ	-14.565
せ	-14.565
人	-14.565
É	-14.565
ư	-14.565
̷	-14.565
ι	-14.565
π	-14.565
ұ	-14.565
א	-14.565
ی	-14.565
ᄅ	-14.565
ᠢ	-14.565
ớ	-14.565
≥	-14.565
▪	-14.565
☆	-14.565
✨	-14.565
、	-14.565
ち	-14.565
め	-14.565
ル	-14.565
時	-14.565
楽	-14.565
니	-14.565
다	-14.565
ն	-14.565
つ	-14.565
わ	-14.565
会	-14.565
ح	-14.765
ᠳ	-14.765
ß	-14.765
말	-14.765
¤	-14.765
Ò	-14.765
ґ	-14.765
Һ	-14.765
ա	-14.765
―	-14.765
⃣	-14.765
◊	-14.765
一	-14.765
図	-14.765
江	-14.765
済	-14.765
経	-14.765
行	-14.765
路	-14.765
部	-14.765
際	-14.765
서	-14.765
정	-14.765
지	-14.765
😁	-14.765
ե	-14.765
배	-14.765
하	-14.765
ο	-14.765
մ	-14.765
ط	-14.765
表	-14.765
返	-14.765
사	-14.765
غ	-14.765
ご	-14.765
平	-15.015
À	-15.015
ب	-15.015
Ã	-15.015
ú	-15.015
ō	-15.015
Ѕ	-15.015
ғ	-15.015
ל	-15.015
ق	-15.015
ค	-15.015
᠋	-15.015
ᠷ	-15.015
▼	-15.015
☛	-15.015
☻	-15.015
げ	-15.015
ㄟ	-15.015
中	-15.015
台	-15.015
文	-15.015
月	-15.015
語	-15.015
내	-15.015
대	-15.015
비	-15.015
영	-15.015
🇷	-15.015
🌟	-15.015
💥	-15.015
📍	-15.015
😆	-15.015
Ñ	-15.015
İ	-15.015
세	-15.015
아	-15.015
원	-15.015
한	-15.015
Ë	-15.015
Ý	-15.015
ᠨ	-15.015
え	-15.015
本	-15.015
間	-15.015
저	-15.015
や	-15.3484
ւ	-15.3484
ô	-15.3484
み	-15.3484
下	-15.3484
Ä	-15.3484
Ð	-15.3484
Ö	-15.3484
ê	-15.3484
ī	-15.3484
Œ	-15.3484
̀	-15.3484
Δ	-15.3484
ί	-15.3484
θ	-15.3484
Ҥ	-15.3484
ӈ	-15.3484
ӓ	-15.3484
տ	-15.3484
ք	-15.3484
נ	-15.3484
ע	-15.3484
أ	-15.3484
ش	-15.3484
ى	-15.3484
ন	-15.3484
க	-15.3484
ง	-15.3484
น	-15.3484
ม	-15.3484
ย	-15.3484
่	-15.3484
ᠡ	-15.3484
ᠦ	-15.3484
ḥ	-15.3484
ṭ	-15.3484
‖	-15.3484
∙	-15.3484
☎	-15.3484
⚡	-15.3484
⚫	-15.3484
➢	-15.3484
⦁	-15.3484
《	-15.3484
〓	-15.3484
ど	-15.3484
ひ	-15.3484
ゃ	-15.3484
キ	-15.3484
シ	-15.3484
ナ	-15.3484
フ	-15.3484
モ	-15.3484
リ	-15.3484
上	-15.3484
件	-15.3484
信	-15.3484
天	-15.3484
我	-15.3484
法	-15.3484
版	-15.3484
现	-15.3484
软	-15.3484
达	-15.3484
音	-15.3484
高	-15.3484
경	-15.3484
뉴	-15.3484
는	-15.3484
라	-15.3484
로	-15.3484
부	-15.3484
수	-15.3484
스	-15.3484
야	-15.3484
우	-15.3484
인	-15.3484
자	-15.3484
주	-15.3484
토	-15.3484
티	-15.3484
해	-15.3484
횊	-15.3484
회	-15.3484
후	-15.3484
︎	-15.3484
🌈	-15.3484
🍷	-15.3484
🎯	-15.3484
🏠	-15.3484
👎	-15.3484
👨	-15.3484
💚	-15.3484
💜	-15.3484
💫	-15.3484
💰	-15.3484
🔰	-15.3484
🤘	-15.3484
🥇	-15.3484
č	-15.3484
ӱ	-15.3484
의	-15.3484
장	-15.3484
ʀ	-15.3484
ս	-15.3484
ᴇ	-15.3484
子	-15.3484
的	-15.3484
自	-15.3484
通	-15.3484
국	-15.3484
법	-15.3484
태	-15.3484
λ	-15.3484
현	-15.3484
→	-15.8472
黑	-15.8483
È	-15.8484
خ	-15.8484
ک	-15.8484
ョ	-15.8484
美	-15.8484
도	-15.8484
ล	-15.8484
類	-15.8484
ć	-15.8484
đ	-15.8484
ĕ	-15.8484
Ł	-15.8484
ł	-15.8484
ū	-15.8484
ɐ	-15.8484
ˌ	-15.8484
͜	-15.8484
Ω	-15.8484
δ	-15.8484
κ	-15.8484
ν	-15.8484
ρ	-15.8484
ς	-15.8484
φ	-15.8484
ј	-15.8484
њ	-15.8484
Ґ	-15.8484
ӣ	-15.8484
կ	-15.8484
ղ	-15.8484
ր	-15.8484
ב	-15.8484
ו	-15.8484
ת	-15.8484
ت	-15.8484
ذ	-15.8484
क	-15.8484
ल	-15.8484
ा	-15.8484
া	-15.8484
ু	-15.8484
্	-15.8484
ਟ	-15.8484
ਪ	-15.8484
ਸ	-15.8484
ซ	-15.8484
ส	-15.8484
ิ	-15.8484
ี	-15.8484
เ	-15.8484
ใ	-15.8484
้	-15.8484
྆	-15.8484
န	-15.8484
မ	-15.8484
့	-15.8484
း	-15.8484
ᆞ	-15.8484
ᠮ	-15.8484
ᠶ	-15.8484
ᵴ	-15.8484
ḍ	-15.8484
ṅ	-15.8484
ṇ	-15.8484
‣	-15.8484
‰	-15.8484
↔	-15.8484
⇨	-15.8484
∂	-15.8484
∆	-15.8484
≠	-15.8484
⏱	-15.8484
█	-15.8484
□	-15.8484
▶	-15.8484
❀	-15.8484
❄	-15.8484
❷	-15.8484
❹	-15.8484
⠀	-15.8484
ぶ	-15.8484
ゅ	-15.8484
ろ	-15.8484
イ	-15.8484
ウ	-15.8484
ギ	-15.8484
コ	-15.8484
サ	-15.8484
ソ	-15.8484
ダ	-15.8484
ブ	-15.8484
ャ	-15.8484
ㄨ	-15.8484
个	-15.8484
介	-15.8484
仔	-15.8484
代	-15.8484
们	-15.8484
住	-15.8484
作	-15.8484
内	-15.8484
十	-15.8484
南	-15.8484
号	-15.8484
品	-15.8484
商	-15.8484
回	-15.8484
地	-15.8484
夢	-15.8484
安	-15.8484
展	-15.8484
形	-15.8484
御	-15.8484
族	-15.8484
是	-15.8484
曜	-15.8484
松	-15.8484
止	-15.8484
気	-15.8484
水	-15.8484
流	-15.8484
点	-15.8484
理	-15.8484
生	-15.8484
用	-15.8484
田	-15.8484
発	-15.8484
简	-15.8484
管	-15.8484
紀	-15.8484
网	-15.8484
翻	-15.8484
者	-15.8484
聲	-15.8484
胡	-15.8484
解	-15.8484
言	-15.8484
証	-15.8484
話	-15.8484
誌	-15.8484
译	-15.8484
责	-15.8484
身	-15.8484
載	-15.8484
達	-15.8484
金	-15.8484
鈴	-15.8484
门	-15.8484
麦	-15.8484
龙	-15.8484
꧁	-15.8484
게	-15.8484
고	-15.8484
권	-15.8484
규	-15.8484
남	-15.8484
너	-15.8484
노	-15.8484
동	-15.8484
루	-15.8484
르	-15.8484
린	-15.8484
무	-15.8484
미	-15.8484
민	-15.8484
보	-15.8484
선	-15.8484
시	-15.8484
안	-15.8484
역	-15.8484
연	-15.8484
예	-15.8484
올	-15.8484
으	-15.8484
은	-15.8484
을	-15.8484
전	-15.8484
창	-15.8484
크	-15.8484
통	-15.8484
트	-15.8484
훈	-15.8484
희	-15.8484
🇰	-15.8484
🌙	-15.8484
🌱	-15.8484
🌸	-15.8484
👐	-15.8484
👷	-15.8484
💁	-15.8484
📎	-15.8484
🔌	-15.8484
🔑	-15.8484
🔵	-15.8484
🔶	-15.8484
🔸	-15.8484
🗃	-15.8484
😋	-15.8484
😎	-15.8484
😓	-15.8484
🙁	-15.8484
🚫	-15.8484
🛫	-15.8484
🤔	-15.8484
🤪	-15.8484
🥰	-15.8484
🦸	-15.8484
ÿ	-15.8484
ǿ	-15.8484
ʜ	-15.8484
ε	-15.8484
ص	-15.8484
อ	-15.8484
ᠭ	-15.8484
ぐ	-15.8484
便	-15.8484
社	-15.8484
線	-15.8484
즈	-15.8484
화	-15.8484
초	-15.8484
🦉	-16.8304
🥺	-16.8305
🙌	-16.8306
🙃	-16.8307
😔	-16.8308
🔅	-16.8309
💙	-16.831
💅	-16.8311
💃	-16.8312
👀	-16.8313
🎧	-16.8314
🇺	-16.8315
🇲	-16.8316
튜	-16.8317
최	-16.8318
직	-16.8319
없	-16.832
알	-16.8321
새	-16.8322
브	-16.8323
革	-16.8324
重	-16.8325
近	-16.8326
请	-16.8327
皇	-16.8328
李	-16.8329
手	-16.833
後	-16.8331
山	-16.8332
変	-16.8333
基	-16.8334
图	-16.8335
団	-16.8336
合	-16.8337
分	-16.8338
交	-16.8339
业	-16.834
世	-16.8341
ㄎ	-16.8342
ㄍ	-16.8343
ド	-16.8344
ク	-16.8345
❼	-16.8346
✈	-16.8347
⚽	-16.8348
♠	-16.8349
♔	-16.835
♏	-16.8351
☹	-16.8352
│	-16.8353
⎪	-16.8354
⇒	-16.8355
₽	-16.8356
ᠬ	-16.8357
ᠥ	-16.8358
ᄀ	-16.8359
ด	-16.836
ก	-16.8361
ब	-16.8362
ה	-16.8363
ג	-16.8364
ҳ	-16.8365
Ҳ	-16.8366
̌	-16.8367
ś	-16.8368
ń	-16.8369
ğ	-16.837
ė	-16.8371
Č	-16.8372
Æ	-16.8373
🤮	-16.8374
🤟	-16.8375
🤑	-16.8376
🚗	-16.8377
🔬	-16.8378
함	-16.8379
오	-16.838
신	-16.8381
바	-16.8382
구	-16.8383
出	-16.8384
ゴ	-16.8385
ざ	-16.8386
》	-16.8387
❗	-16.8388
◦	-16.8389
โ	-16.839
ਰ	-16.8391
ӧ	-16.8392
Ӏ	-16.8393
ѓ	-16.8394
σ	-16.8395
Ā	-16.8396
þ	-16.8397
å	-16.8398
🥳	-16.8399
😝	-16.84
😜	-16.8401
😇	-16.8402
😃	-16.8403
💎	-16.8404
👩	-16.8405
제	-16.8406
ょ	-16.8407
♂	-16.8408
₩	-16.8409
ہ	-16.841
ω	-16.8411
😘	-16.8412
🔴	-16.8413
蒙	-16.8414
愛	-16.8415
古	-16.8416
じ	-16.8417
♀	-16.8418
☀	-16.8419
▲	-16.842
∞	-16.8421
‹	-16.8422
џ	-16.8423
김	-16.8424
さ	-16.8425
➡	-16.8426
➜	-16.8427
β	-16.8428
ˈ	-16.8429
¢	-16.843
💯	-16.8431
♡	-16.8432
☺	-16.8433
ƒ	-16.8434
😢	-16.8435
👍	-16.8436
−	-16.8437
†	-16.8438
😱	-16.8439
。	-16.844
✓	-16.8441
↓	-16.8442
‐	-16.8443
🤩	-16.8444
🤣	-16.8445
🤗	-16.8446
👏	-16.8447
⭐	-16.8448
̈	-16.8449
彩	-16.845
♫	-16.8451
ə	-16.8452
歌	-16.8453
「	-16.8454
※	-16.8455
そ	-16.8456
✿	-16.8457
♪	-16.8458
̄	-16.8459
≈	-16.846
ᅲ	-16.8461
🔥	-16.8462
🔊	-16.8463
😅	-16.8464
😭	-16.8465
🙏	-16.8466
≤	-16.8467
😛	-16.8468
ᄏ	-16.8469
♛	-16.847
☮	-16.8471
✔	-16.8472
|	-16.8472
😉	-16.8473
✅	-16.8474
₪	-16.8475
Í	-16.8476
↑	-16.8477
©	-16.8478
😀	-16.8479
¬	-16.848
′	-16.8481
🙂	-16.8482
₮	-16.8483
ジ	-16.8483
伊	-16.8483
何	-16.8483
務	-16.8483
奋	-16.8483
密	-16.8483
掲	-16.8483
림	-16.8483
뷔	-16.8483
울	-16.8483
일	-16.8483
ĸ	-16.8484
Ա	-16.8484
ج	-16.8484
ᄆ	-16.8484
タ	-16.8484
不	-16.8484
室	-16.8484
沖	-16.8484
演	-16.8484
米	-16.8484
能	-16.8484
視	-16.8484
豚	-16.8484
갤	-16.8484
마	-16.8484
양	-16.8484
Â	-16.8484
Ê	-16.8484
Ì	-16.8484
Î	-16.8484
Ô	-16.8484
ă	-16.8484
ē	-16.8484
Ė	-16.8484
ę	-16.8484
ě	-16.8484
Į	-16.8484
ň	-16.8484
œ	-16.8484
ř	-16.8484
ť	-16.8484
ŧ	-16.8484
ů	-16.8484
Ž	-16.8484
ǐ	-16.8484
ɇ	-16.8484
ɑ	-16.8484
ɲ	-16.8484
ɴ	-16.8484
ʏ	-16.8484
ʟ	-16.8484
ː	-16.8484
˗	-16.8484
̵	-16.8484
̸	-16.8484
͞	-16.8484
Η	-16.8484
Κ	-16.8484
Μ	-16.8484
Τ	-16.8484
Φ	-16.8484
Ψ	-16.8484
ά	-16.8484
ή	-16.8484
η	-16.8484
τ	-16.8484
υ	-16.8484
ό	-16.8484
ύ	-16.8484
ώ	-16.8484
Ђ	-16.8484
҉	-16.8484
Җ	-16.8484
Қ	-16.8484
ҡ	-16.8484
Ң	-16.8484
Ұ	-16.8484
ҷ	-16.8484
ӄ	-16.8484
Ӈ	-16.8484
ӑ	-16.8484
Ә	-16.8484
ӝ	-16.8484
ӯ	-16.8484
Ե	-16.8484
Ո	-16.8484
դ	-16.8484
զ	-16.8484
ը	-16.8484
լ	-16.8484
խ	-16.8484
յ	-16.8484
չ	-16.8484
վ	-16.8484
ז	-16.8484
ט	-16.8484
מ	-16.8484
פ	-16.8484
،	-16.8484
؟	-16.8484
إ	-16.8484
ز	-16.8484
ض	-16.8484
َ	-16.8484
ۇ	-16.8484
ە	-16.8484
ं	-16.8484
इ	-16.8484
ए	-16.8484
ज	-16.8484
र	-16.8484
़	-16.8484
ि	-16.8484
ै	-16.8484
१	-16.8484
४	-16.8484
७	-16.8484
९	-16.8484
অ	-16.8484
ই	-16.8484
ক	-16.8484
চ	-16.8484
ত	-16.8484
দ	-16.8484
ব	-16.8484
র	-16.8484
ি	-16.8484
ে	-16.8484
ਂ	-16.8484
ਕ	-16.8484
ਮ	-16.8484
ਹ	-16.8484
ਾ	-16.8484
ਿ	-16.8484
ੀ	-16.8484
ੂ	-16.8484
ੈ	-16.8484
ੌ	-16.8484
ட	-16.8484
ழ	-16.8484
ா	-16.8484
ி	-16.8484
ூ	-16.8484
ை	-16.8484
்	-16.8484
ೋ	-16.8484
จ	-16.8484
ต	-16.8484
ท	-16.8484
ฝ	-16.8484
พ	-16.8484
ฟ	-16.8484
ภ	-16.8484
ว	-16.8484
ษ	-16.8484
ห	-16.8484
ั	-16.8484
า	-16.8484
ึ	-16.8484
แ	-16.8484
ไ	-16.8484
์	-16.8484
࿐	-16.8484
တ	-16.8484
လ	-16.8484
သ	-16.8484
ဦ	-16.8484
ိ	-16.8484
ု	-16.8484
ေ	-16.8484
္	-16.8484
်	-16.8484
ြ	-16.8484
၊	-16.8484
ᄇ	-16.8484
ᄋ	-16.8484
ᅳ	-16.8484
ᅵ	-16.8484
ᐉ	-16.8484
ᠤ	-16.8484
ᠫ	-16.8484
ᠯ	-16.8484
ᠰ	-16.8484
ᠱ	-16.8484
ᠴ	-16.8484
ᠵ	-16.8484
ᠹ	-16.8484
ᠻ	-16.8484
ᠼ	-16.8484
᭄	-16.8484
ᴀ	-16.8484
ᴄ	-16.8484
ᴍ	-16.8484
ᴜ	-16.8484
ᴠ	-16.8484
ṃ	-16.8484
ẙ	-16.8484
ầ	-16.8484
ắ	-16.8484
ằ	-16.8484
ễ	-16.8484
ờ	-16.8484
‡	-16.8484
₹	-16.8484
↖	-16.8484
↳	-16.8484
∈	-16.8484
≫	-16.8484
⋯	-16.8484
⌚	-16.8484
╒	-16.8484
╘	-16.8484
╟	-16.8484
╢	-16.8484
▍	-16.8484
▨	-16.8484
◇	-16.8484
☂	-16.8484
☑	-16.8484
☔	-16.8484
☕	-16.8484
☘	-16.8484
☝	-16.8484
☤	-16.8484
♣	-16.8484
♻	-16.8484
⚃	-16.8484
⚕	-16.8484
⚙	-16.8484
⚠	-16.8484
✌	-16.8484
✍	-16.8484
✯	-16.8484
❂	-16.8484
❃	-16.8484
❏	-16.8484
❖	-16.8484
➥	-16.8484
➳	-16.8484
⿱	-16.8484
『	-16.8484
』	-16.8484
ぎ	-16.8484
ぬ	-16.8484
べ	-16.8484
ほ	-16.8484
ゆ	-16.8484
ィ	-16.8484
カ	-16.8484
ガ	-16.8484
ゲ	-16.8484
セ	-16.8484
ゼ	-16.8484
チ	-16.8484
ツ	-16.8484
ヅ	-16.8484
デ	-16.8484
ハ	-16.8484
バ	-16.8484
ヒ	-16.8484
ビ	-16.8484
ベ	-16.8484
ペ	-16.8484
マ	-16.8484
ミ	-16.8484
ム	-16.8484
ラ	-16.8484
七	-16.8484
万	-16.8484
三	-16.8484
么	-16.8484
乐	-16.8484
也	-16.8484
二	-16.8484
云	-16.8484
互	-16.8484
京	-16.8484
今	-16.8484
他	-16.8484
付	-16.8484
任	-16.8484
企	-16.8484
休	-16.8484
众	-16.8484
位	-16.8484
你	-16.8484
使	-16.8484
係	-16.8484
保	-16.8484
修	-16.8484
俺	-16.8484
們	-16.8484
健	-16.8484
側	-16.8484
僕	-16.8484
優	-16.8484
儿	-16.8484
元	-16.8484
光	-16.8484
克	-16.8484
八	-16.8484
册	-16.8484
再	-16.8484
冯	-16.8484
划	-16.8484
別	-16.8484
前	-16.8484
勖	-16.8484
勧	-16.8484
包	-16.8484
化	-16.8484
北	-16.8484
医	-16.8484
午	-16.8484
华	-16.8484
博	-16.8484
卡	-16.8484
参	-16.8484
向	-16.8484
吗	-16.8484
君	-16.8484
员	-16.8484
周	-16.8484
味	-16.8484
命	-16.8484
和	-16.8484
唐	-16.8484
唱	-16.8484
問	-16.8484
喵	-16.8484
器	-16.8484
國	-16.8484
圖	-16.8484
址	-16.8484
場	-16.8484
塑	-16.8484
塚	-16.8484
士	-16.8484
声	-16.8484
夂	-16.8484
夕	-16.8484
夜	-16.8484
太	-16.8484
奇	-16.8484
好	-16.8484
妹	-16.8484
姿	-16.8484
娱	-16.8484
字	-16.8484
宅	-16.8484
宗	-16.8484
定	-16.8484
宽	-16.8484
导	-16.8484
少	-16.8484
局	-16.8484
属	-16.8484
岩	-16.8484
峮	-16.8484
州	-16.8484
巡	-16.8484
巣	-16.8484
工	-16.8484
帝	-16.8484
带	-16.8484
帮	-16.8484
年	-16.8484
庆	-16.8484
府	-16.8484
康	-16.8484
建	-16.8484
开	-16.8484
异	-16.8484
弦	-16.8484
当	-16.8484
心	-16.8484
必	-16.8484
志	-16.8484
忘	-16.8484
忙	-16.8484
快	-16.8484
怎	-16.8484
悔	-16.8484
您	-16.8484
悲	-16.8484
情	-16.8484
意	-16.8484
憎	-16.8484
戒	-16.8484
戰	-16.8484
戸	-16.8484
打	-16.8484
払	-16.8484
抢	-16.8484
拶	-16.8484
指	-16.8484
挨	-16.8484
探	-16.8484
提	-16.8484
改	-16.8484
故	-16.8484
斗	-16.8484
斥	-16.8484
斯	-16.8484
早	-16.8484
昌	-16.8484
星	-16.8484
昴	-16.8484
普	-16.8484
暲	-16.8484
會	-16.8484
有	-16.8484
望	-16.8484
朝	-16.8484
机	-16.8484
村	-16.8484
林	-16.8484
査	-16.8484
株	-16.8484
椰	-16.8484
楫	-16.8484
業	-16.8484
概	-16.8484
構	-16.8484
横	-16.8484
機	-16.8484
歳	-16.8484
残	-16.8484
毛	-16.8484
民	-16.8484
气	-16.8484
永	-16.8484
没	-16.8484
河	-16.8484
治	-16.8484
沿	-16.8484
注	-16.8484
泰	-16.8484
洛	-16.8484
洞	-16.8484
浙	-16.8484
浜	-16.8484
淮	-16.8484
湖	-16.8484
照	-16.8484
燼	-16.8484
牛	-16.8484
特	-16.8484
玉	-16.8484
甘	-16.8484
町	-16.8484
画	-16.8484
留	-16.8484
百	-16.8484
盘	-16.8484
眉	-16.8484
码	-16.8484
礦	-16.8484
祉	-16.8484
祐	-16.8484
福	-16.8484
离	-16.8484
私	-16.8484
秘	-16.8484
稳	-16.8484
站	-16.8484
等	-16.8484
糞	-16.8484
紇	-16.8484
給	-16.8484
红	-16.8484
线	-16.8484
考	-16.8484
腕	-16.8484
臨	-16.8484
舞	-16.8484
航	-16.8484
良	-16.8484
華	-16.8484
葵	-16.8484
藏	-16.8484
藤	-16.8484
蛋	-16.8484
蠟	-16.8484
衛	-16.8484
袖	-16.8484
裏	-16.8484
西	-16.8484
要	-16.8484
見	-16.8484
親	-16.8484
见	-16.8484
誉	-16.8484
説	-16.8484
諸	-16.8484
識	-16.8484
讃	-16.8484
让	-16.8484
记	-16.8484
语	-16.8484
读	-16.8484
课	-16.8484
象	-16.8484
貸	-16.8484
資	-16.8484
賞	-16.8484
車	-16.8484
軒	-16.8484
輝	-16.8484
载	-16.8484
辉	-16.8484
输	-16.8484
込	-16.8484
运	-16.8484
迴	-16.8484
迹	-16.8484
逢	-16.8484
連	-16.8484
進	-16.8484
過	-16.8484
選	-16.8484
郑	-16.8484
都	-16.8484
配	-16.8484
里	-16.8484
鑑	-16.8484
银	-16.8484
镇	-16.8484
长	-16.8484
関	-16.8484
问	-16.8484
间	-16.8484
阒	-16.8484
际	-16.8484
陝	-16.8484
险	-16.8484
雑	-16.8484
面	-16.8484
韬	-16.8484
題	-16.8484
颚	-16.8484
駅	-16.8484
马	-16.8484
鵬	-16.8484
黄	-16.8484
龶	-16.8484
꧂	-16.8484
가	-16.8484
거	-16.8484
걸	-16.8484
것	-16.8484
겠	-16.8484
격	-16.8484
계	-16.8484
공	-16.8484
과	-16.8484
관	-16.8484
교	-16.8484
굴	-16.8484
긋	-16.8484
긱	-16.8484
끼	-16.8484
단	-16.8484
달	-16.8484
답	-16.8484
더	-16.8484
돈	-16.8484
둥	-16.8484
딩	-16.8484
떻	-16.8484
또	-16.8484
뚝	-16.8484
랑	-16.8484
래	-16.8484
랫	-16.8484
러	-16.8484
렘	-16.8484
려	-16.8484
룬	-16.8484
룰	-16.8484
류	-16.8484
를	-16.8484
릿	-16.8484
매	-16.8484
먹	-16.8484
메	-16.8484
며	-16.8484
몽	-16.8484
문	-16.8484
뭘	-16.8484
뮤	-16.8484
반	-16.8484
밥	-16.8484
백	-16.8484
밴	-16.8484
버	-16.8484
번	-16.8484
베	-16.8484
벼	-16.8484
변	-16.8484
병	-16.8484
불	-16.8484
븐	-16.8484
블	-16.8484
빈	-16.8484
뻐	-16.8484
뿌	-16.8484
상	-16.8484
석	-16.8484
설	-16.8484
섭	-16.8484
성	-16.8484
송	-16.8484
숙	-16.8484
슨	-16.8484
승	-16.8484
식	-16.8484
실	-16.8484
싼	-16.8484
쌍	-16.8484
업	-16.8484
에	-16.8484
엘	-16.8484
엥	-16.8484
여	-16.8484
열	-16.8484
옷	-16.8484
와	-16.8484
왔	-16.8484
외	-16.8484
용	-16.8484
웆	-16.8484
워	-16.8484
월	-16.8484
윤	-16.8484
율	-16.8484
응	-16.8484
있	-16.8484
잘	-16.8484
재	-16.8484
적	-16.8484
조	-16.8484
죄	-16.8484
죻	-16.8484
짓	-16.8484
짱	-16.8484
찌	-16.8484
찡	-16.8484
차	-16.8484
찾	-16.8484
채	-16.8484
청	-16.8484
체	-16.8484
침	-16.8484
칩	-16.8484
칫	-16.8484
카	-16.8484
커	-16.8484
코	-16.8484
콕	-16.8484
콧	-16.8484
키	-16.8484
탄	-16.8484
탓	-16.8484
탠	-16.8484
터	-16.8484
틴	-16.8484
팅	-16.8484
팝	-16.8484
평	-16.8484
폰	-16.8484
푸	-16.8484
플	-16.8484
픽	-16.8484
학	-16.8484
항	-16.8484
햄	-16.8484
혀	-16.8484
혜	-16.8484
호	-16.8484
홈	-16.8484
홍	-16.8484
횜	-16.8484
흐	-16.8484
흥	-16.8484
￼	-16.8484
𖢘	-16.8484
🆕	-16.8484
🇫	-16.8484
🇳	-16.8484
🇸	-16.8484
🇽	-16.8484
🌃	-16.8484
🌄	-16.8484
🌅	-16.8484
🌍	-16.8484
🌐	-16.8484
🌡	-16.8484
🌳	-16.8484
🌻	-16.8484
🍀	-16.8484
🍁	-16.8484
🍇	-16.8484
🍑	-16.8484
🍞	-16.8484
🍩	-16.8484
🍯	-16.8484
🍰	-16.8484
🍱	-16.8484
🍹	-16.8484
🍽	-16.8484
🍾	-16.8484
🎀	-16.8484
🎄	-16.8484
🎬	-16.8484
🎶	-16.8484
🏆	-16.8484
🏋	-16.8484
🏣	-16.8484
🏦	-16.8484
🏼	-16.8484
👑	-16.8484
👦	-16.8484
👧	-16.8484
👽	-16.8484
💀	-16.8484
💉	-16.8484
💋	-16.8484
💐	-16.8484
💔	-16.8484
💕	-16.8484
💝	-16.8484
💡	-16.8484
💢	-16.8484
💩	-16.8484
💪	-16.8484
💸	-16.8484
💻	-16.8484
💼	-16.8484
📁	-16.8484
📅	-16.8484
📕	-16.8484
📖	-16.8484
📞	-16.8484
📣	-16.8484
📦	-16.8484
📱	-16.8484
📲	-16.8484
📷	-16.8484
🔄	-16.8484
🔹	-16.8484
🕑	-16.8484
🕘	-16.8484
🕯	-16.8484
🖐	-16.8484
🖤	-16.8484
🗓	-16.8484
😄	-16.8484
😈	-16.8484
😐	-16.8484
😑	-16.8484
😡	-16.8484
😥	-16.8484
😩	-16.8484
😫	-16.8484
😮	-16.8484
😰	-16.8484
😲	-16.8484
😶	-16.8484
😷	-16.8484
🙆	-16.8484
🙋	-16.8484
🙎	-16.8484
🚀	-16.8484
🚘	-16.8484
🚩	-16.8484
🛍	-16.8484
🛑	-16.8484
🛒	-16.8484
🛡	-16.8484
🤍	-16.8484
🤓	-16.8484
🤡	-16.8484
🤫	-16.8484
🥄	-16.8484
🦊	-16.8484
🦋	-16.8484
🧤	-16.8484
🧨	-16.8484
¶	-16.8484
ľ	-16.8484
ǎ	-16.8484
ց	-16.8484
ฬ	-16.8484
ᄒ	-16.8484
✞	-16.8484
履	-16.8484
製	-16.8484
陳	-16.8484
만	-16.8484
케	-16.8484
·	-16.8484
Ɗ	-16.8484
Ο	-16.8484
Գ	-16.8484
ի	-16.8484
ᅮ	-16.8484
ᵯ	-16.8484
ἰ	-16.8484
ニ	-16.8484
停	-16.8484
免	-16.8484
公	-16.8484
势	-16.8484
動	-16.8484
叫	-16.8484
召	-16.8484
售	-16.8484
型	-16.8484
委	-16.8484
小	-16.8484
帯	-16.8484
录	-16.8484
恩	-16.8484
新	-16.8484
更	-16.8484
格	-16.8484
渡	-16.8484
漏	-16.8484
登	-16.8484
破	-16.8484
神	-16.8484
蘭	-16.8484
计	-16.8484
費	-16.8484
賃	-16.8484
趋	-16.8484
辺	-16.8484
还	-16.8484
送	-16.8484
钱	-16.8484
随	-16.8484
電	-16.8484
響	-16.8484
갑	-16.8484
골	-16.8484
뚜	-16.8484
명	-16.8484
모	-16.8484
생	-16.8484
습	-16.8484
진	-16.8484
퍼	-16.8484
펄	-16.8484
횒	-16.8484
횗	-16.8484
