<unk>	0
<s>	0
</s>	0
▁б	-0
▁х	-1
ий	-2
аа	-3
ай	-4
ээ	-5
▁т	-6
ан	-7
ар	-8
ол	-9
▁н	-10
уу	-11
▁бай	-12
▁г	-13
ал	-14
ийн	-15
үү	-16
эн	-17
▁д	-18
аг	-19
эг	-20
эр	-21
он	-22
▁с	-23
үй	-24
▁а	-25
эл	-26
▁з	-27
▁бол	-28
ил	-29
ын	-30
▁м	-31
өө	-32
ах	-33
ор	-34
ин	-35
эд	-36
эх	-37
▁ч	-38
▁нь	-39
ийг	-40
гүй	-41
гаа	-42
оо	-43
▁хү	-44
▁ш	-45
уул	-46
сан	-47
▁ү	-48
▁у	-49
ад	-50
на	-51
ам	-52
өр	-53
өн	-54
ээр	-55
▁Т	-56
▁я	-57
▁ю	-58
▁Х	-59
ог	-60
эж	-61
ох	-62
▁би	-63
ой	-64
▁.	-65
ур	-66
ыг	-67
аар	-68
▁байна	-69
өг	-70
▁и	-71
эй	-72
▁Б	-73
сэн	-74
▁л	-75
эм	-76
▁юм	-77
▁"	-78
жил	-79
▁бү	-80
▁,	-81
ууд	-82
тэй	-83
тай	-84
▁Э	-85
▁-	-86
өл	-87
▁ор	-88
▁ц	-89
од	-90
гийн	-91
ний	-92
▁М	-93
ас	-94
иг	-95
▁байгаа	-96
үүл	-97
га	-98
даг	-99
өөр	-100
нд	-101
▁гэж	-102
▁А	-103
нэ	-104
▁хэр	-105
ом	-106
ны	-107
▁ху	-108
▁ту	-109
энэ	-110
эв	-111
▁ав	-112
чи	-113
▁ө	-114
..	-115
ав	-116
тг	-117
▁хар	-118
▁гар	-119
▁1	-120
ээд	-121
аж	-122
лаг	-123
▁байх	-124
үйл	-125
▁2	-126
аас	-127
▁нэг	-128
даа	-129
онг	-130
▁Г	-131
▁мэд	-132
▁ам	-133
▁өөр	-134
ээс	-135
той	-136
▁хэрэг	-137
▁эр	-138
сон	-139
▁Н	-140
үүд	-141
▁хо	-142
аад	-143
өх	-144
▁ол	-145
өв	-146
▁бу	-147
эс	-148
▁С	-149
ир	-150
▁хам	-151
▁энэ	-152
▁хий	-153
ат	-154
▁ал	-155
▁хэл	-156
▁ажил	-157
▁ир	-158
▁байсан	-159
ер	-160
ээл	-161
▁...	-162
▁У	-163
▁Д	-164
▁Энэ	-165
ьд	-166
▁хүн	-167
▁он	-168
жээ	-169
▁уу	-170
лс	-171
алт	-172
▁яв	-173
▁сай	-174
▁ар	-175
хан	-176
▁в	-177
▁О	-178
дэг	-179
но	-180
▁Би	-181
лаа	-182
▁З	-183
ая	-184
▁сан	-185
дээ	-186
▁их	-187
▁ж	-188
▁хув	-189
▁И	-190
ов	-191
▁үз	-192
үүх	-193
▁болох	-194
үүн	-195
▁к	-196
▁Ө	-197
им	-198
дал	-199
▁дар	-200
онгол	-201
▁хүр	-202
эсэн	-203
▁бод	-204
анд	-205
▁эх	-206
дөр	-207
үүс	-208
▁өг	-209
▁дээр	-210
▁бар	-211
ийм	-212
ул	-213
өнг	-214
энд	-215
▁тал	-216
▁дээ	-217
▁жил	-218
чл	-219
▁тэр	-220
▁үйл	-221
▁улс	-222
▁бүр	-223
▁гэд	-224
▁20	-225
гээ	-226
аш	-227
▁болно	-228
гээр	-229
▁ас	-230
▁Ү	-231
▁үе	-232
гуул	-233
их	-234
оор	-235
мар	-236
гаар	-237
уур	-238
▁цаг	-239
▁төр	-240
аз	-241
хий	-242
▁вэ	-243
▁чад	-244
▁байдаг	-245
▁бид	-246
▁зүйл	-247
лах	-248
▁ан	-249
▁ил	-250
▁та	-251
хай	-252
лээ	-253
үр	-254
этг	-255
▁тог	-256
▁юу	-257
▁гүй	-258
▁тан	-259
сөн	-260
ож	-261
цаа	-262
мн	-263
лг	-264
▁гэсэн	-265
▁ур	-266
мүүс	-267
инь	-268
▁зөв	-269
▁сур	-270
▁хэм	-271
уулах	-272
▁яр	-273
үүр	-274
лэг	-275
чил	-276
▁олон	-277
▁бүх	-278
▁шүү	-279
ут	-280
дл	-281
охи	-282
▁Монгол	-283
шиг	-284
аан	-285
▁ээ	-286
▁газ	-287
арын	-288
ёр	-289
гал	-290
▁хүмүүс	-291
▁ё	-292
агд	-293
үн	-294
▁ямар	-295
чих	-296
омж	-297
▁баг	-298
▁аж	-299
▁төл	-300
▁ёс	-301
өөд	-302
▁үн	-303
▁:	-304
▁шин	-305
иний	-306
чин	-307
▁биш	-308
▁даа	-309
▁эм	-310
▁зар	-311
лийн	-312
лэл	-313
▁тус	-314
▁гэр	-315
▁Я	-316
ос	-317
оод	-318
▁Тэр	-319
дв	-320
▁р	-321
▁амьд	-322
▁3	-323
▁маш	-324
гийг	-325
▁ой	-326
▁хол	-327
▁хоёр	-328
▁Е	-329
лага	-330
▁хүүх	-331
▁Ш	-332
эгд	-333
▁хүс	-334
▁өмн	-335
▁Хар	-336
нг	-337
▁боломж	-338
▁өр	-339
лэх	-340
ис	-341
▁эрх	-342
ахгүй	-343
от	-344
▁гэдэг	-345
лын	-346
▁аа	-347
лд	-348
▁тай	-349
эт	-350
өд	-351
▁өн	-352
00	-353
▁асууд	-354
онд	-355
▁ний	-356
уй	-357
▁хамгийн	-358
▁байгуул	-359
▁нар	-360
▁дах	-361
вэл	-362
олд	-363
анай	-364
айр	-365
▁эс	-366
▁дараа	-367
▁үр	-368
▁хэрэгтэй	-369
▁болон	-370
▁сайн	-371
▁(	-372
эц	-373
▁Ц	-374
оос	-375
▁болг	-376
гд	-377
чид	-378
▁бүт	-379
▁шиг	-380
▁гэх	-381
үүлэх	-382
▁сон	-383
▁хэд	-384
▁од	-385
▁зор	-386
рал	-387
▁болсон	-388
▁тухай	-389
ид	-390
▁Ч	-391
▁тав	-392
▁нэр	-393
▁холб	-394
▁Ж	-395
хэн	-396
▁хийх	-397
амж	-398
▁о	-399
▁ашиг	-400
ик	-401
▁Тэг	-402
▁бус	-403
дог	-404
▁анх	-405
▁ай	-406
иш	-407
▁үү	-408
▁201	-409
▁сэтг	-410
двэр	-411
▁ёстой	-412
уулж	-413
▁удаа	-414
▁Та	-415
▁болов	-416
ээн	-417
▁тэд	-418
иж	-419
бар	-420
▁хур	-421
▁өмнө	-422
▁ийн	-423
ен	-424
▁ший	-425
▁байж	-426
▁талаар	-427
вал	-428
▁дэл	-429
гацаа	-430
▁К	-431
гэл	-432
аал	-433
лог	-434
▁ду	-435
иу	-436
▁эд	-437
чир	-438
▁чинь	-439
▁нам	-440
лөг	-441
▁хор	-442
▁дуу	-443
өнгө	-444
▁хугацаа	-445
▁авах	-446
▁Бид	-447
лан	-448
▁үед	-449
▁зур	-450
▁болж	-451
▁дур	-452
▁4	-453
лаж	-454
▁зас	-455
гэж	-456
▁мэдээл	-457
▁5	-458
аяр	-459
доо	-460
үүнийг	-461
▁хан	-462
▁ун	-463
эгтэй	-464
эз	-465
▁хуул	-466
▁су	-467
▁нас	-468
эхдээ	-469
▁одоо	-470
▁тү	-471
▁өдөр	-472
вар	-473
▁газар	-474
▁Харин	-475
▁п	-476
олц	-477
▁хэн	-478
үүний	-479
▁илүү	-480
▁том	-481
▁бие	-482
▁оны	-483
▁байр	-484
▁сонг	-485
▁хэмжээ	-486
▁ин	-487
▁хамт	-488
▁хя	-489
ус	-490
▁шаар	-491
эмж	-492
▁зал	-493
▁бөг	-494
лал	-495
▁ер	-496
лоо	-497
чд	-498
өс	-499
▁бас	-500
лыг	-501
илц	-502
▁нөх	-503
▁гээд	-504
▁хаа	-505
▁үг	-506
▁тод	-507
ит	-508
гэд	-509
▁хийж	-510
элт	-511
анц	-512
▁Хэр	-513
▁ийм	-514
▁жилийн	-515
айг	-516
▁Ер	-517
▁буй	-518
▁тэм	-519
▁шаард	-520
▁сарын	-521
▁хувьд	-522
▁хөг	-523
▁шинэ	-524
▁авч	-525
өнхий	-526
иул	-527
ес	-528
▁тогт	-529
ьж	-530
▁ком	-531
▁бөгөөд	-532
др	-533
эхгүй	-534
▁бэл	-535
▁онд	-536
▁ойлг	-537
өөс	-538
эхээр	-539
▁Гэхдээ	-540
огд	-541
гэн	-542
▁сал	-543
▁хон	-544
▁Тийм	-545
▁ыг	-546
гах	-547
өм	-548
▁ийг	-549
ун	-550
▁зохи	-551
▁нийт	-552
▁зах	-553
▁ын	-554
хал	-555
асан	-556
аны	-557
тын	-558
өлөө	-559
▁бич	-560
▁өв	-561
▁хүрт	-562
▁хүнд	-563
▁минь	-564
▁нэгэн	-565
▁биз	-566
сн	-567
ив	-568
▁тоо	-569
хөн	-570
▁бил	-571
▁гад	-572
▁байхгүй	-573
▁хүлээ	-574
▁уул	-575
▁сэтгэл	-576
▁даг	-577
оон	-578
даж	-579
▁алб	-580
▁сар	-581
▁суу	-582
хийн	-583
▁бий	-584
▁төс	-585
▁өөрийн	-586
пан	-587
айн	-588
▁дот	-589
лагаа	-590
▁амьдрал	-591
аагүй	-592
рын	-593
▁Тэд	-594
▁/	-595
▁най	-596
▁хүний	-597
▁дав	-598
▁сайхан	-599
үгээр	-600
адаг	-601
орх	-602
▁зам	-603
▁19	-604
▁хэв	-605
ана	-606
▁хайр	-607
ван	-608
▁бэ	-609
гаж	-610
тад	-611
▁миний	-612
тгэл	-613
▁асуудал	-614
нийг	-615
▁гиш	-616
▁санал	-617
хүү	-618
▁!	-619
▁улсын	-620
▁шал	-621
дийн	-622
▁Л	-623
▁ад	-624
ич	-625
▁Эр	-626
шин	-627
▁АН	-628
үүлж	-629
▁хувь	-630
▁Одоо	-631
▁хой	-632
▁баяр	-633
▁хэс	-634
▁Ор	-635
▁Улс	-636
▁өнг	-637
▁10	-638
▁нэм	-639
▁арга	-640
уулсан	-641
▁аг	-642
охир	-643
▁тохи	-644
өөдөр	-645
▁над	-646
▁манай	-647
▁Ар	-648
▁ажиллагаа	-649
орхой	-650
тр	-651
▁6	-652
▁хал	-653
агаад	-654
▁худал	-655
▁эн	-656
▁байдл	-657
▁билээ	-658
▁хоног	-659
арт	-660
▁ул	-661
▁ах	-662
▁мөн	-663
иа	-664
▁тат	-665
▁боломжтой	-666
нууд	-667
▁төлөө	-668
▁Өөр	-669
▁Мөн	-670
▁байлаа	-671
тан	-672
агч	-673
▁ид	-674
▁нут	-675
▁7	-676
өж	-677
▁П	-678
▁компан	-679
▁тодорхой	-680
...	-681
▁тур	-682
чүүд	-683
▁Ам	-684
▁бат	-685
▁ханд	-686
алтын	-687
▁эхэл	-688
▁тэг	-689
▁тогл	-690
▁оролц	-691
▁ут	-692
▁ба	-693
дсан	-694
гаан	-695
▁)	-696
дөө	-697
оё	-698
▁санаа	-699
▁иргэд	-700
▁тулд	-701
ээж	-702
уун	-703
▁гэдгийг	-704
▁өнгөр	-705
▁байдал	-706
▁орон	-707
олоо	-708
▁хөгж	-709
▁уд	-710
өлт	-711
жилт	-712
▁төг	-713
ирх	-714
чр	-715
▁хэдэн	-716
▁хүртэл	-717
▁S	-718
чийн	-719
▁хэрхэн	-720
йм	-721
▁8	-722
▁гэв	-723
▁эсвэл	-724
▁таны	-725
▁өөрчл	-726
▁тийм	-727
илг	-728
дах	-729
▁хө	-730
▁гур	-731
▁заа	-732
ист	-733
оол	-734
хаа	-735
▁Бү	-736
▁маан	-737
▁чу	-738
урхан	-739
▁учр	-740
▁залуу	-741
▁хоол	-742
дан	-743
▁дахь	-744
▁маань	-745
▁үнд	-746
▁Ерөнхий	-747
in	-748
▁хөр	-749
▁ганц	-750
▁хүч	-751
чилгээ	-752
▁дахин	-753
▁турш	-754
вр	-755
▁чи	-756
уг	-757
▁ард	-758
▁холбоо	-759
▁эмэгтэй	-760
▁үйлдвэр	-761
▁хич	-762
on	-763
ек	-764
▁болохгүй	-765
▁дэмж	-766
лийг	-767
▁ирсэн	-768
▁тэй	-769
▁өдр	-770
▁анхаар	-771
чууд	-772
өдөл	-773
▁мөр	-774
▁Хү	-775
хи	-776
▁чан	-777
▁Миний	-778
▁тохиолд	-779
гэр	-780
▁бүтээ	-781
▁гарч	-782
олтой	-783
арч	-784
▁сургуул	-785
▁зэр	-786
нх	-787
араа	-788
▁үнэ	-789
ем	-790
олт	-791
тээ	-792
er	-793
▁шил	-794
агад	-795
▁Үүн	-796
▁үргэл	-797
▁аас	-798
дөг	-799
иал	-800
▁хамгаа	-801
лон	-802
▁ая	-803
гой	-804
▁M	-805
▁хэмээн	-806
▁Инг	-807
▁чухал	-808
▁руу	-809
▁шаардлага	-810
дын	-811
▁чадахгүй	-812
▁тэн	-813
▁ууд	-814
ср	-815
ээрээ	-816
агт	-817
▁9	-818
гөө	-819
▁гай	-820
лж	-821
▁ф	-822
▁үнэн	-823
▁бүгд	-824
▁дунд	-825
эзээ	-826
▁муу	-827
▁сонс	-828
▁аар	-829
▁гол	-830
▁бүс	-831
▁хойш	-832
▁Манай	-833
ак	-834
▁шийдвэр	-835
▁Ийм	-836
бөр	-837
ээгүй	-838
▁түр	-839
▁хүүхэд	-840
▁амь	-841
элц	-842
▁Тиймээс	-843
▁хүүхд	-844
хн	-845
▁аль	-846
аат	-847
▁A	-848
▁хот	-849
▁өгөх	-850
▁хийсэн	-851
▁өндөр	-852
▁эл	-853
▁бага	-854
▁сая	-855
▁ял	-856
▁Зас	-857
▁ном	-858
▁учир	-859
уд	-860
▁сонирх	-861
▁хариу	-862
▁ажилл	-863
▁Нэг	-864
▁машин	-865
▁авсан	-866
▁үүс	-867
ИХ	-868
эгч	-869
▁өөрөө	-870
▁түүний	-871
ино	-872
▁эз	-873
▁чих	-874
▁гэнэ	-875
▁зээл	-876
▁төрийн	-877
▁зарим	-878
▁хэсэг	-879
▁мэт	-880
айл	-881
ийгөө	-882
▁чам	-883
эхэд	-884
▁ус	-885
галт	-886
▁Бурхан	-887
осон	-888
иад	-889
▁200	-890
▁байв	-891
▁дүр	-892
ааш	-893
мын	-894
хээ	-895
тал	-896
эхүү	-897
▁бусад	-898
▁Өн	-899
▁C	-900
▁мэдээлэл	-901
▁албан	-902
▁УИХ	-903
▁уулз	-904
▁Хя	-905
▁В	-906
▁ажиллаж	-907
чим	-908
▁Ал	-909
▁төлөв	-910
▁те	-911
▁Хэрэв	-912
гаад	-913
▁зөвхөн	-914
▁хууль	-915
агүй	-916
▁энд	-917
▁бур	-918
▁бодож	-919
▁той	-920
▁хэзээ	-921
гасан	-922
үүлсэн	-923
▁Дэл	-924
огт	-925
АН	-926
▁мөнгө	-927
из	-928
▁учраас	-929
ье	-930
▁сүүл	-931
▁унш	-932
▁АНУ	-933
▁тар	-934
аарай	-935
an	-936
алтай	-937
▁надад	-938
▁эхл	-939
▁дүн	-940
▁хугацаанд	-941
▁түүх	-942
▁төв	-943
▁s	-944
▁яаж	-945
▁дуус	-946
▁монгол	-947
▁P	-948
▁сэр	-949
▁зориул	-950
тер	-951
▁онц	-952
▁үүр	-953
▁шийд	-954
▁айм	-955
▁тэмц	-956
▁чиг	-957
▁орж	-958
▁хөдөл	-959
▁дэв	-960
▁эц	-961
▁болохоор	-962
▁анг	-963
▁Ф	-964
▁зүй	-965
хон	-966
▁хийг	-967
этэл	-968
▁Монголын	-969
эвч	-970
▁тохир	-971
▁зог	-972
▁яагаад	-973
▁яах	-974
▁ох	-975
▁?	-976
▁яг	-977
рах	-978
лбар	-979
лөө	-980
угаар	-981
▁зөвш	-982
▁харагд	-983
юу	-984
▁үүнийг	-985
▁ух	-986
▁тул	-987
▁намайг	-988
лөгч	-989
▁олг	-990
▁ажлын	-991
▁байхад	-992
▁удир	-993
ооны	-994
▁шалт	-995
▁Р	-996
нээс	-997
▁мэр	-998
▁өрг	-999
▁охин	-1000
чиж	-1001
▁Хам	-1002
▁хэлж	-1003
▁хэлб	-1004
▁нөлөө	-1005
цөл	-1006
▁уур	-1007
▁Хятад	-1008
▁хөл	-1009
▁оруул	-1010
▁явах	-1011
наас	-1012
▁зогс	-1013
▁явж	-1014
▁өөрс	-1015
▁түүнийг	-1016
оп	-1017
▁ажиллах	-1018
▁магад	-1019
▁өс	-1020
▁дарга	-1021
мийн	-1022
▁үргэлж	-1023
ац	-1024
▁адил	-1025
▁өм	-1026
эвэр	-1027
▁зөвшөөр	-1028
лаан	-1029
юул	-1030
▁зураг	-1031
▁_	-1032
▁үгүй	-1033
үг	-1034
имт	-1035
▁Ир	-1036
▁T	-1037
▁хүү	-1038
▁0	-1039
▁ээж	-1040
▁газрын	-1041
гай	-1042
▁хэрэгж	-1043
оц	-1044
▁Гэтэл	-1045
▁олж	-1046
нес	-1047
▁Засгийн	-1048
▁зэрэг	-1049
▁амжилт	-1050
лэж	-1051
▁сайд	-1052
▁илэр	-1053
▁бидний	-1054
▁I	-1055
▁найз	-1056
эдэг	-1057
▁үндэс	-1058
алд	-1059
▁мэдэх	-1060
ar	-1061
оронд	-1062
▁хая	-1063
▁итг	-1064
одог	-1065
▁сонгуул	-1066
▁холбогд	-1067
ьсан	-1068
▁үүд	-1069
аараа	-1070
▁хэлэлц	-1071
▁холбоотой	-1072
▁боловср	-1073
ган	-1074
▁Мэд	-1075
ет	-1076
гоор	-1077
▁уг	-1078
▁мэнд	-1079
▁пр	-1080
▁мөнг	-1081
▁үйлчилгээ	-1082
олгой	-1083
охгүй	-1084
▁Тэгээд	-1085
▁ирэх	-1086
▁өнөөдөр	-1087
▁суур	-1088
▁N	-1089
▁буруу	-1090
▁тэмдэг	-1091
▁байгааг	-1092
ув	-1093
үүнд	-1094
оно	-1095
▁байгууллаг	-1096
▁дотор	-1097
▁B	-1098
▁таа	-1099
▁зорилг	-1100
or	-1101
▁нөхцөл	-1102
▁үнэхээр	-1103
▁газр	-1104
▁нийг	-1105
яа	-1106
▁дуртай	-1107
▁судал	-1108
илт	-1109
▁бүрэн	-1110
▁ирээд	-1111
▁доо	-1112
үд	-1113
▁аюул	-1114
ей	-1115
▁үеийн	-1116
▁дэлхийн	-1117
20	-1118
▁танилц	-1119
▁гишүүн	-1120
гдэх	-1121
▁хөт	-1122
▁заг	-1123
▁харь	-1124
жиг	-1125
▁Таны	-1126
гаас	-1127
▁эдийн	-1128
▁алд	-1129
▁хэлсэн	-1130
▁хүүхдүүд	-1131
▁танд	-1132
▁Хүүх	-1133
▁асуу	-1134
▁Улсын	-1135
ел	-1136
▁гурван	-1137
▁харж	-1138
▁Төр	-1139
дэл	-1140
▁өгсөн	-1141
▁үл	-1142
▁хууд	-1143
дсэн	-1144
!!	-1145
олл	-1146
аалт	-1147
аатар	-1148
▁болдог	-1149
анк	-1150
▁түм	-1151
▁үлд	-1152
▁мин	-1153
▁зов	-1154
▁болоод	-1155
▁байвал	-1156
▁хад	-1157
▁гарах	-1158
▁дугаар	-1159
сний	-1160
▁шат	-1161
▁зөвл	-1162
▁санагд	-1163
▁э	-1164
лэлийн	-1165
▁гарсан	-1166
▁Дараа	-1167
▁хүлээн	-1168
төн	-1169
▁хүрг	-1170
▁Хүн	-1171
▁буюу	-1172
▁салбар	-1173
▁Эд	-1174
▁өөрийгөө	-1175
аргал	-1176
▁шаардлагатай	-1177
▁Шин	-1178
▁нэмэгд	-1179
▁гэм	-1180
▁мэдэгд	-1181
▁11	-1182
▁t	-1183
▁100	-1184
уудыг	-1185
▁харах	-1186
лөгөө	-1187
▁мя	-1188
▁Гэвч	-1189
ерик	-1190
хөө	-1191
▁гийн	-1192
дугаар	-1193
▁асуул	-1194
▁асуудлыг	-1195
▁гүйц	-1196
▁зохион	-1197
▁12	-1198
ок	-1199
▁бут	-1200
▁хай	-1201
эгт	-1202
▁мэргэж	-1203
маар	-1204
рам	-1205
уудын	-1206
▁ээс	-1207
арга	-1208
пор	-1209
ээнд	-1210
▁гаруй	-1211
▁төрлийн	-1212
▁засгийн	-1213
▁дор	-1214
▁харин	-1215
лох	-1216
члэн	-1217
▁15	-1218
нө	-1219
▁бодлог	-1220
дэнэ	-1221
ээрэй	-1222
▁Гэр	-1223
▁зөр	-1224
▁тооц	-1225
▁чанар	-1226
▁Түүний	-1227
en	-1228
рийн	-1229
▁долоо	-1230
▁Ямар	-1231
▁G	-1232
хам	-1233
▁хав	-1234
▁Зар	-1235
▁ойр	-1236
сийн	-1237
▁H	-1238
▁Өмн	-1239
▁зүйлийг	-1240
▁жин	-1241
▁хооронд	-1242
▁D	-1243
▁байн	-1244
өгөө	-1245
▁баримт	-1246
хайн	-1247
чдын	-1248
▁Чи	-1249
▁шууд	-1250
▁Орос	-1251
вээ	-1252
▁ач	-1253
▁улсад	-1254
▁бүсгүй	-1255
элд	-1256
▁эрүүл	-1257
▁бүтээл	-1258
▁төгс	-1259
▁чөлөө	-1260
шил	-1261
▁ярилц	-1262
▁нуу	-1263
▁үх	-1264
▁зүгээр	-1265
▁ингэж	-1266
▁Эн	-1267
▁минут	-1268
▁Үү	-1269
▁бизнес	-1270
ент	-1271
▁мэдэхгүй	-1272
алын	-1273
▁боллоо	-1274
лэн	-1275
▁гэвэл	-1276
▁настай	-1277
▁F	-1278
лалт	-1279
▁бүтээгдэх	-1280
тэн	-1281
▁мар	-1282
ум	-1283
▁тогтоо	-1284
▁боловч	-1285
гоо	-1286
▁болгон	-1287
▁байгаад	-1288
ины	-1289
таа	-1290
▁аав	-1291
▁нүүр	-1292
▁авт	-1293
▁хөрөнгө	-1294
ли	-1295
▁Үүнийг	-1296
▁i	-1297
▁Цаг	-1298
▁Их	-1299
▁болгох	-1300
▁мэдээ	-1301
▁хэц	-1302
▁байдлаар	-1303
ласан	-1304
агс	-1305
▁наад	-1306
▁арг	-1307
бээр	-1308
▁эв	-1309
▁a	-1310
▁бүхэн	-1311
▁Өнөөдөр	-1312
сгал	-1313
▁Олон	-1314
үүнээс	-1315
уулдаг	-1316
гар	-1317
▁гаргах	-1318
▁ерөнхий	-1319
▁явдал	-1320
рэг	-1321
▁батал	-1322
▁илэрхий	-1323
мж	-1324
▁хат	-1325
▁Зөв	-1326
▁амар	-1327
▁Үн	-1328
гээд	-1329
▁сол	-1330
▁өрөө	-1331
le	-1332
▁авна	-1333
▁ярьж	-1334
▁дагуу	-1335
▁болжээ	-1336
ст	-1337
инд	-1338
▁шинж	-1339
▁Ю	-1340
▁дээд	-1341
Би	-1342
▁оронд	-1343
▁өгч	-1344
▁чадвар	-1345
▁иргэн	-1346
▁орох	-1347
▁дүүр	-1348
▁Ав	-1349
▁хэт	-1350
йл	-1351
▁үзүүл	-1352
▁ирж	-1353
саар	-1354
▁оо	-1355
даггүй	-1356
▁гэхэд	-1357
▁хэцүү	-1358
▁дөр	-1359
▁тас	-1360
▁сард	-1361
▁хүнийг	-1362
▁шалтгаан	-1363
▁[	-1364
▁гаргаж	-1365
▁Тэгвэл	-1366
▁цэвэр	-1367
▁хүчин	-1368
▁хичээл	-1369
▁мэдр	-1370
▁итгэл	-1371
▁там	-1372
юут	-1373
▁Нам	-1374
▁өнгөрсөн	-1375
▁30	-1376
өлбөр	-1377
▁анхны	-1378
төө	-1379
▁техн	-1380
▁хариуц	-1381
агн	-1382
▁оч	-1383
▁Зарим	-1384
▁хийдэг	-1385
▁өөрчлөлт	-1386
илцаа	-1387
▁хян	-1388
▁дэлхий	-1389
амс	-1390
▁Уг	-1391
өгд	-1392
▁дан	-1393
▁v	-1394
гч	-1395
▁Хамгийн	-1396
оёр	-1397
▁алга	-1398
▁чадах	-1399
▁бүл	-1400
оны	-1401
▁гишүүд	-1402
▁компани	-1403
▁ээр	-1404
бал	-1405
оогүй	-1406
истем	-1407
ран	-1408
▁хариул	-1409
▁m	-1410
▁буур	-1411
▁гадаад	-1412
▁таар	-1413
▁18	-1414
вроп	-1415
▁Бүх	-1416
▁бая	-1417
▁зан	-1418
▁Америк	-1419
▁тайлбар	-1420
▁тухайн	-1421
▁МАН	-1422
▁дамж	-1423
рөг	-1424
▁Эм	-1425
▁тоглоо	-1426
ээх	-1427
▁ст	-1428
луур	-1429
▁аз	-1430
▁сү	-1431
▁тэдний	-1432
▁боддог	-1433
агдсан	-1434
▁хүлээж	-1435
▁хүмүүсийн	-1436
▁Эх	-1437
▁хэлэх	-1438
▁хадгал	-1439
▁хуулийн	-1440
▁;	-1441
баатар	-1442
▁хэрэггүй	-1443
▁байжээ	-1444
▁цааш	-1445
▁E	-1446
ъя	-1447
▁Эдгээр	-1448
нз	-1449
▁Сан	-1450
▁хэрэглэг	-1451
▁цах	-1452
▁засаг	-1453
▁Ту	-1454
▁эсрэг	-1455
шгүй	-1456
▁ярих	-1457
олог	-1458
длаа	-1459
▁багш	-1460
ижиг	-1461
▁L	-1462
▁ашиглах	-1463
▁судалгаа	-1464
уулан	-1465
▁мэддэг	-1466
▁R	-1467
▁үзэх	-1468
инг	-1469
▁үзэж	-1470
▁харилцаа	-1471
ишээ	-1472
▁толгой	-1473
re	-1474
гий	-1475
▁c	-1476
ээсээ	-1477
чиг	-1478
oo	-1479
▁жагс	-1480
▁W	-1481
уулга	-1482
аасаа	-1483
өмж	-1484
▁ярь	-1485
▁огт	-1486
▁нутгийн	-1487
▁төрөл	-1488
▁дараах	-1489
▁алдаа	-1490
▁систем	-1491
▁Бар	-1492
лүүл	-1493
▁бүү	-1494
▁магадгүй	-1495
▁тохиолдолд	-1496
▁p	-1497
▁Ний	-1498
▁өдрийн	-1499
▁бүрийн	-1500
сү	-1501
▁шүүх	-1502
▁гүйцэтг	-1503
▁хамаар	-1504
▁рүү	-1505
▁цэц	-1506
▁Тэрээр	-1507
гүүр	-1508
▁байгаагүй	-1509
вэр	-1510
▁туш	-1511
▁Үнд	-1512
▁цагийн	-1513
▁цэр	-1514
▁бутлуур	-1515
▁Бай	-1516
▁захир	-1517
гуй	-1518
нэл	-1519
▁хаан	-1520
орж	-1521
▁сүүлийн	-1522
▁орчин	-1523
▁үс	-1524
▁санхүү	-1525
▁зав	-1526
▁бараг	-1527
▁гаргасан	-1528
▁Хэрвээ	-1529
гын	-1530
▁дээрх	-1531
иар	-1532
▁нэв	-1533
▁тун	-1534
st	-1535
▁эдгээр	-1536
▁хэрэгс	-1537
▁зүйлс	-1538
▁Дэлхийн	-1539
▁орсон	-1540
▁урьд	-1541
▁хоногийн	-1542
сны	-1543
▁барил	-1544
▁гэрээ	-1545
▁болчих	-1546
▁жаргал	-1547
▁төгрөг	-1548
▁хамгаалах	-1549
төнц	-1550
▁бор	-1551
▁Европ	-1552
▁гуй	-1553
▁хийн	-1554
▁Яп	-1555
▁Яагаад	-1556
▁Учир	-1557
▁цагт	-1558
▁Тус	-1559
энх	-1560
▁гоё	-1561
өөн	-1562
ладаг	-1563
▁"-	-1564
▁хөтөлбөр	-1565
▁мал	-1566
лэдэг	-1567
▁заавал	-1568
▁14	-1569
▁Монголд	-1570
двар	-1571
иуд	-1572
▁эсэх	-1573
▁бос	-1574
▁нарын	-1575
чдийн	-1576
▁тань	-1577
▁үнэл	-1578
▁боломжгүй	-1579
▁худалдаа	-1580
al	-1581
элээ	-1582
▁кино	-1583
▁Энэхүү	-1584
об	-1585
▁гадна	-1586
олцоо	-1587
▁бүхий	-1588
▁харьц	-1589
▁дээрээ	-1590
▁ухаан	-1591
▁хэмжээний	-1592
ууны	-1593
өмб	-1594
арх	-1595
өлд	-1596
▁тойр	-1597
тгий	-1598
▁мянг	-1599
лэсэн	-1600
▁чадна	-1601
ou	-1602
алз	-1603
жин	-1604
▁түв	-1605
гүүд	-1606
▁Шинэ	-1607
▁төлбөр	-1608
▁Хэн	-1609
▁эмнэл	-1610
▁намын	-1611
маа	-1612
▁энэхүү	-1613
▁мэдэж	-1614
▁банк	-1615
▁орны	-1616
▁гарг	-1617
аахан	-1618
▁тээ	-1619
▁нөхөр	-1620
▁хуудас	-1621
▁е	-1622
▁эхний	-1623
▁Ерөнхийлөгч	-1624
▁дай	-1625
▁явсан	-1626
арсан	-1627
▁аваад	-1628
үүлэг	-1629
▁Хоёр	-1630
000	-1631
▁эхэлсэн	-1632
▁хаана	-1633
элтэй	-1634
▁бэлэн	-1635
онгос	-1636
▁болохыг	-1637
▁насны	-1638
▁Тэгэхээр	-1639
▁онг	-1640
уулна	-1641
▁ертөнц	-1642
▁оноос	-1643
ээлт	-1644
▁сэд	-1645
▁дууд	-1646
▁бидэнд	-1647
▁Бус	-1648
▁утас	-1649
чилж	-1650
▁хурдан	-1651
алдаа	-1652
▁хувийн	-1653
нээ	-1654
▁хэлбэр	-1655
▁буц	-1656
▁нүд	-1657
▁гэхдээ	-1658
▁Ур	-1659
▁байхдаа	-1660
at	-1661
лалаа	-1662
мэл	-1663
▁найр	-1664
▁хүссэн	-1665
▁бичиг	-1666
мд	-1667
▁удирд	-1668
өнө	-1669
вор	-1670
ман	-1671
▁цуг	-1672
лагдсан	-1673
▁дут	-1674
▁эрс	-1675
▁тэрг	-1676
чилсан	-1677
▁шаардлаг	-1678
▁янз	-1679
▁мянган	-1680
▁орнууд	-1681
өхөөр	-1682
▁Сол	-1683
▁жижиг	-1684
▁сайт	-1685
▁Ингээд	-1686
халтай	-1687
ac	-1688
ио	-1689
▁ий	-1690
лөх	-1691
▁хүүхдийн	-1692
▁хүмүүст	-1693
▁b	-1694
▁зү	-1695
▁хувц	-1696
▁зай	-1697
▁асуудл	-1698
▁Баг	-1699
▁Хэд	-1700
▁март	-1701
▁хөн	-1702
нүүд	-1703
▁дэх	-1704
▁амьдарч	-1705
▁Үүний	-1706
▁му	-1707
үрх	-1708
▁бүртг	-1709
▁кин	-1710
▁Төрийн	-1711
▁нис	-1712
▁явц	-1713
▁За	-1714
▁хориг	-1715
▁ажилд	-1716
▁ажлыг	-1717
▁ы	-1718
▁хүсч	-1719
ограм	-1720
▁үеэр	-1721
▁болгож	-1722
▁орлог	-1723
▁угаа	-1724
▁тулг	-1725
▁хөөр	-1726
▁аюулгүй	-1727
▁Ард	-1728
▁шилж	-1729
▁нууц	-1730
даад	-1731
▁бууд	-1732
▁гэмт	-1733
▁амьдралын	-1734
▁•	-1735
▁орч	-1736
▁хаг	-1737
▁нэгд	-1738
▁олох	-1739
▁хайртай	-1740
алц	-1741
▁бэр	-1742
алин	-1743
▁дүг	-1744
▁тоглолт	-1745
огц	-1746
▁Гад	-1747
▁Сур	-1748
om	-1749
уулалт	-1750
▁бичсэн	-1751
▁Энд	-1752
▁Бол	-1753
хэг	-1754
▁хотын	-1755
▁хөдөлгөө	-1756
▁Бр	-1757
олын	-1758
▁тов	-1759
▁арай	-1760
ныг	-1761
▁сонгол	-1762
▁Тэрбээр	-1763
▁ахуй	-1764
▁зорилго	-1765
▁Бат	-1766
▁Над	-1767
лээд	-1768
▁Бас	-1769
▁өмнөх	-1770
порт	-1771
▁агаар	-1772
үүдэд	-1773
??	-1774
▁тоглоом	-1775
▁амьдар	-1776
▁гүйгээр	-1777
▁Мэдээж	-1778
члэг	-1779
▁асуулт	-1780
▁сайж	-1781
▁ихэнх	-1782
руулах	-1783
▁цар	-1784
▁Улаан	-1785
▁унт	-1786
▁түүнд	-1787
өмбөг	-1788
▁хэлбэл	-1789
▁урт	-1790
агдах	-1791
▁Нүүр	-1792
▁Яг	-1793
▁d	-1794
▁байдлыг	-1795
▁16	-1796
▁ме	-1797
▁гэлээ	-1798
▁лээ	-1799
вөн	-1800
▁ирээдүй	-1801
▁17	-1802
▁Бидний	-1803
▁13	-1804
▁тэгээд	-1805
▁загвар	-1806
лагын	-1807
▁байхыг	-1808
▁оруулах	-1809
▁ажлаа	-1810
▁Анг	-1811
▁199	-1812
ью	-1813
▁нэвтр	-1814
▁түмэн	-1815
екс	-1816
▁мэдээллийг	-1817
▁айл	-1818
▁чин	-1819
▁өө	-1820
▁соё	-1821
▁зохиц	-1822
▁аймгийн	-1823
▁давх	-1824
▁нөгөө	-1825
лана	-1826
омжтой	-1827
▁төрсөн	-1828
▁хэмжээнд	-1829
нэр	-1830
агдаж	-1831
▁тэнд	-1832
▁зориулсан	-1833
▁бусд	-1834
ламж	-1835
▁Өнг	-1836
▁O	-1837
▁50	-1838
нхб	-1839
▁өглөө	-1840
▁сонголт	-1841
▁ажилладаг	-1842
▁эмэгтэйчүүд	-1843
▁бодох	-1844
▁байсн	-1845
▁өөртөө	-1846
it	-1847
▁чиглэл	-1848
▁бололтой	-1849
▁барих	-1850
▁эхнэр	-1851
▁e	-1852
нээр	-1853
өрсөн	-1854
өөл	-1855
згаар	-1856
ааны	-1857
өхөөрөмж	-1858
▁ман	-1859
хэнэ	-1860
▁J	-1861
▁удаан	-1862
аб	-1863
мөр	-1864
▁дал	-1865
▁гурав	-1866
▁чамайг	-1867
▁Сүүл	-1868
▁буу	-1869
▁Бурханы	-1870
Эр	-1871
ги	-1872
лайн	-1873
▁дээш	-1874
▁нийтийн	-1875
▁1-	-1876
үжиг	-1877
▁орой	-1878
▁орд	-1879
ян	-1880
▁дэвш	-1881
▁25	-1882
ахад	-1883
▁цагдаа	-1884
Та	-1885
▁дүгн	-1886
Бат	-1887
▁явдаг	-1888
▁мэднэ	-1889
▁орчим	-1890
▁битгий	-1891
▁үйлчл	-1892
ic	-1893
▁n	-1894
лагатай	-1895
▁амьдрах	-1896
▁эзэм	-1897
▁Солонгос	-1898
▁төхөөрөмж	-1899
▁үндсэн	-1900
бай	-1901
▁хязгаар	-1902
▁таныг	-1903
▁гэдгээ	-1904
▁мат	-1905
▁бүтээгдэхүүн	-1906
▁тон	-1907
▁технолог	-1908
▁эрт	-1909
▁өөрийнхөө	-1910
лагч	-1911
▁өнөө	-1912
▁бүлийн	-1913
▁үзсэн	-1914
▁зарц	-1915
mn	-1916
▁Аз	-1917
▁түвшин	-1918
есс	-1919
▁програм	-1920
▁оюут	-1921
▁уран	-1922
ра	-1923
▁БН	-1924
ланг	-1925
▁жур	-1926
▁мах	-1927
▁хийнэ	-1928
▁хэрэглэх	-1929
▁шилдэг	-1930
уучин	-1931
▁суурь	-1932
▁төлөвлөгөө	-1933
▁Өөрийн	-1934
▁хил	-1935
аах	-1936
гааш	-1937
▁бөх	-1938
варын	-1939
гааны	-1940
ашин	-1941
▁улам	-1942
▁барьж	-1943
▁гэдэгт	-1944
▁ха	-1945
▁эргэл	-1946
▁байгал	-1947
▁сав	-1948
▁зүйн	-1949
▁эхлэх	-1950
▁Үүнээс	-1951
дэх	-1952
▁хөгжил	-1953
лаад	-1954
▁мод	-1955
▁бодит	-1956
амд	-1957
▁хэдий	-1958
▁эцэг	-1959
▁хувцас	-1960
▁гайх	-1961
ев	-1962
уудад	-1963
▁ня	-1964
гөл	-1965
▁нэл	-1966
▁иргэдийн	-1967
саа	-1968
▁байл	-1969
ударга	-1970
▁чиний	-1971
▁хоногт	-1972
▁удаагийн	-1973
▁Y	-1974
▁нутаг	-1975
уулагч	-1976
сай	-1977
▁шир	-1978
▁ээл	-1979
▁амр	-1980
▁өгнө	-1981
▁очиж	-1982
▁эмч	-1983
▁хуур	-1984
▁долл	-1985
▁тут	-1986
уяа	-1987
лэгч	-1988
эгдсэн	-1989
кс	-1990
өөц	-1991
▁сууж	-1992
▁нийгэм	-1993
▁хийгээд	-1994
цээ	-1995
▁ны	-1996
▁гом	-1997
▁тос	-1998
▁багт	-1999
дэж	-2000
▁өвч	-2001
▁авдаг	-2002
▁байгууллага	-2003
тийн	-2004
ro	-2005
▁бодлого	-2006
уулаад	-2007
▁суралц	-2008
▁бариг	-2009
▁ашиглаж	-2010
▁ялгаа	-2011
охой	-2012
гэх	-2013
▁Аж	-2014
энгүй	-2015
этгэл	-2016
▁·	-2017
▁туслах	-2018
▁ухаа	-2019
чээ	-2020
▁төлөвл	-2021
энтэй	-2022
длыг	-2023
эгүй	-2024
▁Хуул	-2025
▁гэртээ	-2026
врийн	-2027
пп	-2028
▁яд	-2029
▁улир	-2030
▁үүрэг	-2031
▁хэрэглээ	-2032
▁нээ	-2033
▁байдаггүй	-2034
▁2-	-2035
өөсөө	-2036
▁арил	-2037
▁жилд	-2038
▁ижил	-2039
▁Хүмүүс	-2040
▁бичлэг	-2041
▁сонирхолтой	-2042
▁24	-2043
▁байнга	-2044
огч	-2045
▁бүлэг	-2046
▁лав	-2047
чихсан	-2048
vv	-2049
▁цалин	-2050
▁минутын	-2051
▁Тэдний	-2052
▁сэтгүүл	-2053
▁хамр	-2054
▁хангалт	-2055
аасан	-2056
▁энгийн	-2057
▁сургууль	-2058
хийг	-2059
▁шү	-2060
лөгчийн	-2061
иде	-2062
гүү	-2063
▁худалдаж	-2064
▁баталгаа	-2065
олб	-2066
▁Мар	-2067
▁дэг	-2068
тэйгээ	-2069
▁худалдан	-2070
▁өөрчлөгд	-2071
▁U	-2072
▁ажээ	-2073
▁тусламж	-2074
▁аргагүй	-2075
эгдэл	-2076
ноо	-2077
сээр	-2078
▁оруулж	-2079
**	-2080
▁Дээр	-2081
▁өгдөг	-2082
хны	-2083
▁зо	-2084
▁өрс	-2085
▁1.	-2086
▁дүү	-2087
▁Өв	-2088
өдөө	-2089
эндээ	-2090
▁дас	-2091
жилгээ	-2092
▁чаддаг	-2093
▁Эц	-2094
▁таван	-2095
▁хулг	-2096
▁дөрвөн	-2097
▁гайхалтай	-2098
иваа	-2099
▁гал	-2100
лагд	-2101
▁бал	-2102
ериал	-2103
оохон	-2104
▁яваа	-2105
▁Ажил	-2106
▁ойлгож	-2107
▁ов	-2108
▁2020	-2109
▁өнгө	-2110
эст	-2111
лжээ	-2112
▁олд	-2113
▁сул	-2114
▁өгөө	-2115
▁захиал	-2116
барын	-2117
he	-2118
ХУ	-2119
▁l	-2120
▁тохиолдол	-2121
▁хүрээнд	-2122
элж	-2123
▁цэг	-2124
▁шагн	-2125
▁гэжээ	-2126
▁u	-2127
өсөн	-2128
▁харилц	-2129
ант	-2130
▁Монголчууд	-2131
▁хохир	-2132
▁дотоод	-2133
▁Тан	-2134
▁нөөц	-2135
лүүлэх	-2136
▁Түүнийг	-2137
▁нутагт	-2138
икийн	-2139
ья	-2140
▁гэхээр	-2141
ХА	-2142
▁тавьж	-2143
▁өмс	-2144
▁Зөвхөн	-2145
▁нийгмийн	-2146
▁зүрх	-2147
▁үздэг	-2148
▁эхлээд	-2149
▁V	-2150
▁Түүн	-2151
▁тээр	-2152
▁хараад	-2153
▁хөө	-2154
вол	-2155
▁өөрсдийн	-2156
▁Эс	-2157
хгүй	-2158
▁тэрээр	-2159
▁мор	-2160
▁Анх	-2161
луулах	-2162
▁онгоц	-2163
▁хувил	-2164
▁жишээ	-2165
▁Ан	-2166
▁бүрд	-2167
▁бэрх	-2168
▁шалг	-2169
▁тавих	-2170
▁төсөл	-2171
▁бичих	-2172
▁'	-2173
▁сонин	-2174
▁өргөн	-2175
▁тэрб	-2176
▁Хув	-2177
▁хүсэлт	-2178
▁чадсан	-2179
▁салбарт	-2180
▁чул	-2181
▁яам	-2182
▁суул	-2183
▁хүмүүсийг	-2184
▁Өөрөөр	-2185
ед	-2186
юун	-2187
үнд	-2188
▁Хятадын	-2189
▁үедээ	-2190
▁чамд	-2191
акц	-2192
үүдийг	-2193
▁Хүний	-2194
▁Тухайн	-2195
▁цагаан	-2196
▁40	-2197
▁Сай	-2198
▁юмаа	-2199
▁эргэн	-2200
артай	-2201
үүлнэ	-2202
▁бя	-2203
▁хаш	-2204
▁хамаагүй	-2205
▁шинжилгээ	-2206
эсний	-2207
▁утга	-2208
▁Өнгөрсөн	-2209
es	-2210
▁Сайн	-2211
▁зайл	-2212
▁мэдээллийн	-2213
еж	-2214
тор	-2215
эрлэг	-2216
▁мөнгөн	-2217
▁2012	-2218
▁ханг	-2219
▁сургуулийн	-2220
▁жинхэнэ	-2221
▁явна	-2222
гаараа	-2223
ина	-2224
▁бээл	-2225
▁өөрсдөө	-2226
▁хотод	-2227
▁Намайг	-2228
маас	-2229
▁зу	-2230
▁Сонг	-2231
төр	-2232
▁нийтлэл	-2233
Энэ	-2234
ирус	-2235
▁Гер	-2236
▁хатуу	-2237
▁онлайн	-2238
▁бүхнийг	-2239
am	-2240
▁o	-2241
ахыг	-2242
▁цахим	-2243
▁материал	-2244
▁Үйл	-2245
▁Амьд	-2246
▁сууц	-2247
▁зүг	-2248
▁хурд	-2249
оф	-2250
▁!!!	-2251
▁чим	-2252
▁2016	-2253
▁үнэгүй	-2254
▁Европын	-2255
▁үзүүлэх	-2256
▁шах	-2257
▁ажиллагааны	-2258
▁#	-2259
сэг	-2260
▁насан	-2261
▁хүрэх	-2262
▁эрэгтэй	-2263
▁хялбар	-2264
▁хамтран	-2265
санд	-2266
▁гээ	-2267
▁оос	-2268
▁сургалт	-2269
▁оор	-2270
үүлдэг	-2271
▁f	-2272
ing	-2273
үрэн	-2274
▁идэв	-2275
▁тусгай	-2276
▁төд	-2277
▁21	-2278
▁тэднийг	-2279
▁алх	-2280
ay	-2281
▁Эл	-2282
▁жүжиг	-2283
дагч	-2284
▁сууд	-2285
гэрэнгүй	-2286
сыг	-2287
эсгэл	-2288
▁байдалд	-2289
хим	-2290
▁яриа	-2291
▁Ас	-2292
▁нээлт	-2293
▁эрчим	-2294
унт	-2295
▁компанийн	-2296
эе	-2297
▁үзэл	-2298
▁Бусад	-2299
▁Юу	-2300
мээр	-2301
▁тах	-2302
▁Энэт	-2303
▁татаж	-2304
▁газарт	-2305
▁Хур	-2306
үүдийн	-2307
▁за	-2308
▁Фр	-2309
▁зогсоо	-2310
гээс	-2311
▁бодол	-2312
▁бээлий	-2313
▁мэндийн	-2314
▁Ху	-2315
члал	-2316
▁хийлг	-2317
лангуяа	-2318
▁хоолой	-2319
▁оролцох	-2320
АР	-2321
идео	-2322
шээл	-2323
▁очих	-2324
▁бичиж	-2325
маг	-2326
▁дараагийн	-2327
ааж	-2328
гыг	-2329
▁хаж	-2330
▁нү	-2331
лам	-2332
ших	-2333
▁эрд	-2334
үүлэн	-2335
▁тавь	-2336
▁байгууллагын	-2337
▁сонгох	-2338
▁..	-2339
▁ариу	-2340
▁бүртгэл	-2341
▁уй	-2342
▁хүрч	-2343
өөдрийн	-2344
▁хүргэж	-2345
▁шинэчл	-2346
андаа	-2347
▁хүчний	-2348
▁байгуулах	-2349
▁хувилбар	-2350
▁гоо	-2351
▁нарийн	-2352
▁үргэлжил	-2353
аач	-2354
▁хангалттай	-2355
Эрдэнэ	-2356
▁Ээж	-2357
▁мэдэр	-2358
ндаа	-2359
▁орх	-2360
▁хос	-2361
▁хөдл	-2362
▁хэлэхэд	-2363
▁хүчтэй	-2364
▁ээлж	-2365
▁бүгдийг	-2366
▁Зур	-2367
▁мая	-2368
▁гэрийн	-2369
▁хүсдэг	-2370
▁жир	-2371
▁хэлдэг	-2372
▁g	-2373
▁Өр	-2374
▁адилхан	-2375
▁тусгаар	-2376
▁хүнтэй	-2377
▁хугацааны	-2378
▁ярьдаг	-2379
▁цэн	-2380
▁анги	-2381
▁хүсэл	-2382
▁Хайр	-2383
▁хэрэгжүүлэх	-2384
▁болт	-2385
▁улмаас	-2386
▁шударга	-2387
▁хүрсэн	-2388
тгалз	-2389
вийн	-2390
▁яваад	-2391
▁нэлээд	-2392
лх	-2393
▁гу	-2394
▁2017	-2395
▁буцаа	-2396
▁Гур	-2397
▁болз	-2398
▁хөгжлийн	-2399
▁санхүүгийн	-2400
▁Эмэгтэй	-2401
ноос	-2402
▁арван	-2403
▁тушаал	-2404
▁тэрбум	-2405
▁уурхайн	-2406
▁өрт	-2407
▁тэнэг	-2408
▁мэдлэг	-2409
эснээр	-2410
▁Надад	-2411
▁мэргэжлийн	-2412
▁боль	-2413
▁татгалз	-2414
▁зөвлөгөө	-2415
▁бна	-2416
▁гараад	-2417
is	-2418
▁тавьсан	-2419
▁яри	-2420
▁байдлын	-2421
▁түүн	-2422
▁урам	-2423
лиг	-2424
▁хүй	-2425
▁тэнц	-2426
▁ойлголт	-2427
▁баярлалаа	-2428
угай	-2429
▁Зал	-2430
▁тоглох	-2431
▁байшин	-2432
▁бэрхшээл	-2433
▁ОХУ	-2434
Энхб	-2435
▁үгийг	-2436
аана	-2437
▁яриад	-2438
▁эрсдэл	-2439
длийг	-2440
▁Сүүлийн	-2441
ow	-2442
▁бэлэг	-2443
▁ирдэг	-2444
амсалтай	-2445
▁биднийг	-2446
▁явуулах	-2447
▁Өг	-2448
▁салбарын	-2449
un	-2450
▁2018	-2451
▁Гэсэн	-2452
▁ажилласан	-2453
▁байгаагаа	-2454
наж	-2455
длын	-2456
АХ	-2457
▁тэтг	-2458
бэр	-2459
рай	-2460
▁Өдөр	-2461
▁оршин	-2462
▁хөдөлмөр	-2463
▁22	-2464
▁мэдээж	-2465
оонд	-2466
▁дуул	-2467
▁давуу	-2468
▁тусал	-2469
▁Гадаад	-2470
il	-2471
▁харсан	-2472
▁чадаагүй	-2473
▁сах	-2474
▁h	-2475
▁доор	-2476
▁бараа	-2477
ol	-2478
et	-2479
лээр	-2480
ьютер	-2481
▁дасгал	-2482
▁2.	-2483
▁Он	-2484
▁дэлгүүр	-2485
▁боломжийг	-2486
▁амжилттай	-2487
▁нарт	-2488
▁сүлжээ	-2489
?"	-2490
▁дургүй	-2491
▁илэрхийл	-2492
▁амьдардаг	-2493
▁бүрт	-2494
▁Үндсэн	-2495
үрэл	-2496
өмөр	-2497
▁гүн	-2498
▁ойлгох	-2499
▁талбай	-2500
▁амж	-2501
▁Баяр	-2502
▁Магад	-2503
▁унших	-2504
▁шалгар	-2505
▁тэдгээр	-2506
▁үндэсний	-2507
агчид	-2508
▁талд	-2509
пьютер	-2510
▁дэмжих	-2511
▁сэргээ	-2512
▁ирнэ	-2513
▁2019	-2514
▁суух	-2515
▁тээрэм	-2516
унтаг	-2517
▁блог	-2518
ла	-2519
▁на	-2520
▁Хэрэг	-2521
▁замын	-2522
▁зохиол	-2523
орно	-2524
▁үйлдэл	-2525
▁монголчууд	-2526
▁є	-2527
дол	-2528
▁илр	-2529
▁жаахан	-2530
▁хуваал	-2531
▁амьдралд	-2532
▁өгүүл	-2533
▁гарын	-2534
▁үнэтэй	-2535
▁*	-2536
▁Бая	-2537
▁оноо	-2538
▁зарна	-2539
▁бодсон	-2540
▁|	-2541
унд	-2542
ээний	-2543
▁ёсны	-2544
▁оролд	-2545
▁томил	-2546
гэ	-2547
итан	-2548
▁станд	-2549
▁хэргийн	-2550
▁сурах	-2551
▁үзэсгэл	-2552
▁r	-2553
▁Ком	-2554
▁дэд	-2555
▁хайж	-2556
▁суртал	-2557
▁харагдаж	-2558
▁онцлог	-2559
▁халдвар	-2560
нээн	-2561
▁2015	-2562
▁ахуйн	-2563
ага	-2564
▁хүл	-2565
▁ажиг	-2566
хоо	-2567
▁Ин	-2568
▁Газ	-2569
▁w	-2570
лагийн	-2571
▁бэлтг	-2572
▁сурвал	-2573
▁үлдсэн	-2574
MN	-2575
▁нур	-2576
▁бүтэн	-2577
▁хулгай	-2578
▁бэлтгэл	-2579
▁дэмжлэг	-2580
▁чуул	-2581
айз	-2582
▁гардаг	-2583
▁зээлийн	-2584
▁Есү	-2585
▁автом	-2586
▁3-	-2587
▁татвар	-2588
▁эг	-2589
эргүү	-2590
▁нэрийг	-2591
орон	-2592
сын	-2593
▁ажл	-2594
гт	-2595
▁зэв	-2596
ух	-2597
▁X	-2598
наа	-2599
▁мө	-2600
▁тэж	-2601
▁ос	-2602
▁кон	-2603
▁тэнгэр	-2604
-1	-2605
▁K	-2606
▁муж	-2607
▁хангах	-2608
▁хяналт	-2609
▁удахгүй	-2610
▁Япон	-2611
▁дахиад	-2612
▁амиа	-2613
длийн	-2614
▁Аав	-2615
эрхүү	-2616
el	-2617
▁нунтаг	-2618
▁маргааш	-2619
▁Түүнчлэн	-2620
ирч	-2621
▁өд	-2622
▁цэргийн	-2623
ad	-2624
▁яар	-2625
▁ярьсан	-2626
ош	-2627
мыг	-2628
▁охи	-2629
▁жагсаалт	-2630
▁ажиллагааг	-2631
▁элс	-2632
▁нэгж	-2633
▁нохой	-2634
▁мэдрэмж	-2635
▁өөрчлөх	-2636
▁хэрэгсэл	-2637
илгын	-2638
▁дүнд	-2639
▁үлдээ	-2640
▁Ерөнхийлөгчийн	-2641
эргүүц	-2642
▁онцгой	-2643
▁дэмжиж	-2644
анг	-2645
▁Хүүхд	-2646
▁интер	-2647
▁илгээ	-2648
▁алдсан	-2649
▁Хор	-2650
▁Нөгөө	-2651
▁магадлал	-2652
▁эсэхийг	-2653
сийг	-2654
▁дүгнэлт	-2655
▁Бүгд	-2656
▁ороод	-2657
▁шар	-2658
▁яахав	-2659
▁сонгуулийн	-2660
▁тоног	-2661
▁хүсэж	-2662
▁Америкийн	-2663
▁хөдөлгөөн	-2664
▁давхар	-2665
чигдөр	-2666
▁итгэлтэй	-2667
▁2014	-2668
▁хэмжээг	-2669
▁шалгалт	-2670
рист	-2671
▁сөр	-2672
▁Цааш	-2673
слэлийн	-2674
▁бөмбөг	-2675
▁Магадгүй	-2676
▁шаардлагагүй	-2677
▁Түүнээс	-2678
▁хуваалц	-2679
▁Улаанбаатар	-2680
▁Хал	-2681
▁ног	-2682
▁гут	-2683
Монгол	-2684
▁алдаг	-2685
▁бодис	-2686
▁жаргалтай	-2687
as	-2688
▁эрг	-2689
илгаан	-2690
▁хас	-2691
▁Ne	-2692
▁нарыг	-2693
▁этг	-2694
▁доллар	-2695
▁огц	-2696
▁гарга	-2697
▁зөвлөл	-2698
▁газраас	-2699
▁компаниуд	-2700
иц	-2701
▁тэдэнд	-2702
▁Амьдрал	-2703
шигч	-2704
▁Франц	-2705
▁Өмнөх	-2706
▁томоохон	-2707
агш	-2708
▁бр	-2709
▁пар	-2710
▁хамгаал	-2711
▁амьтан	-2712
наар	-2713
▁Тав	-2714
▁ёсоор	-2715
▁багийн	-2716
▁Нийт	-2717
▁ашигтай	-2718
▁цэцэрлэг	-2719
▁сургуульд	-2720
▁өл	-2721
▁Хөг	-2722
▁эмчилгээ	-2723
▁хүчир	-2724
гууд	-2725
▁Ажлын	-2726
▁үзүүлэлт	-2727
▁хог	-2728
▁хятад	-2729
▁вэб	-2730
▁байлг	-2731
▁түмний	-2732
▁этгээд	-2733
▁эсэргүүц	-2734
заар	-2735
▁шагнал	-2736
ИЙ	-2737
▁нэмэлт	-2738
▁сэргий	-2739
▁тэс	-2740
▁тарх	-2741
▁аялал	-2742
▁Аф	-2743
▁Нар	-2744
▁2008	-2745
▁жуул	-2746
▁алхам	-2747
▁Эсвэл	-2748
▁ХХ	-2749
▁зуу	-2750
▁60	-2751
▁тэгж	-2752
▁өвд	-2753
▁олсон	-2754
▁хэлээд	-2755
▁орос	-2756
▁Ганц	-2757
▁Гар	-2758
▁хурал	-2759
▁Оросын	-2760
▁талаас	-2761
▁хариулт	-2762
▁сэдэв	-2763
ьс	-2764
▁зүтг	-2765
▁хэсэгт	-2766
лол	-2767
▁сург	-2768
▁тогтвор	-2769
ag	-2770
ип	-2771
▁тор	-2772
ot	-2773
▁хагас	-2774
уб	-2775
▁дотр	-2776
▁идэвх	-2777
▁ирлээ	-2778
▁тээврийн	-2779
▁Энэтхэг	-2780
▁мөрд	-2781
эвчлэн	-2782
▁төсөв	-2783
▁уудыг	-2784
▁ат	-2785
▁дэр	-2786
▁мас	-2787
огино	-2788
▁Су	-2789
илга	-2790
▁тамир	-2791
▁Британ	-2792
▁анхаарал	-2793
▁асуудлаар	-2794
гад	-2795
▁сурвалж	-2796
▁хэрэглэж	-2797
▁хэрэгцээ	-2798
▁байгуулсан	-2799
АЛ	-2800
▁Үр	-2801
слэл	-2802
▁эгч	-2803
▁Дэлхий	-2804
▁уулзалт	-2805
▁стр	-2806
▁Холб	-2807
▁дурс	-2808
▁байнаа	-2809
▁орлого	-2810
▁учиртай	-2811
▁Хот	-2812
тон	-2813
шээ	-2814
▁3.	-2815
тний	-2816
уулахад	-2817
▁баяртай	-2818
орын	-2819
дрийн	-2820
снээр	-2821
▁шөнө	-2822
үүлэгч	-2823
▁өдөрт	-2824
тны	-2825
▁бах	-2826
▁эзэн	-2827
▁жолоо	-2828
ЭН	-2829
▁Дав	-2830
▁хоо	-2831
▁Залуу	-2832
▁амархан	-2833
▁түүнээс	-2834
лэнэ	-2835
▁хож	-2836
▁явуулж	-2837
▁сор	-2838
▁орно	-2839
▁хямд	-2840
портын	-2841
▁уншиж	-2842
▁хуваар	-2843
▁урьдчил	-2844
▁товч	-2845
▁цөөн	-2846
▁дая	-2847
▁сүр	-2848
▁вакц	-2849
▁хуралдаа	-2850
ed	-2851
▁Ой	-2852
▁им	-2853
▁Иргэд	-2854
▁олгох	-2855
▁бурхан	-2856
▁хэвээр	-2857
▁эрчүүд	-2858
▁23	-2859
Бид	-2860
▁тохиромжтой	-2861
▁Аль	-2862
▁алба	-2863
▁шинээр	-2864
ur	-2865
▁цай	-2866
▁танай	-2867
ТГ	-2868
тнууд	-2869
▁цугл	-2870
▁эрхийг	-2871
▁сонгуульд	-2872
▁холбогдох	-2873
ондоо	-2874
▁хандаж	-2875
▁хэдийн	-2876
▁ажилтан	-2877
▁Бүр	-2878
▁Тур	-2879
▁дөө	-2880
▁шав	-2881
▁зориг	-2882
▁өвчин	-2883
▁Эрдэнэ	-2884
▁Үндэсний	-2885
201	-2886
▁Эрх	-2887
▁гэрэл	-2888
▁ганцаараа	-2889
▁хамтдаа	-2890
ion	-2891
▁хэтэр	-2892
▁амьсгал	-2893
тгах	-2894
▁Нийг	-2895
▁эрдэм	-2896
▁аш	-2897
▁тоглог	-2898
▁түвшинд	-2899
▁оруулалт	-2900
бэл	-2901
игд	-2902
▁Сү	-2903
▁байд	-2904
▁амт	-2905
▁хаяг	-2906
▁талын	-2907
▁Хүүхэд	-2908
▁ойролцоо	-2909
▁дол	-2910
▁авчир	-2911
өнгөн	-2912
▁сонгууль	-2913
▁нот	-2914
▁бодоод	-2915
▁замаар	-2916
▁зая	-2917
▁хийхэд	-2918
▁Хүүхдийн	-2919
▁анд	-2920
▁Өмнөд	-2921
▁цом	-2922
▁видео	-2923
▁Бод	-2924
оорой	-2925
▁Сон	-2926
▁Ихэн	-2927
▁харахад	-2928
ээдэг	-2929
▁өөрсд	-2930
иас	-2931
▁зүйлээ	-2932
▁Ингэснээр	-2933
▁Уул	-2934
▁ангийн	-2935
▁тайван	-2936
▁боо	-2937
▁Ингэж	-2938
▁Оюут	-2939
▁гарна	-2940
▁хээ	-2941
дүгээр	-2942
▁бүхэнд	-2943
▁тэрбээр	-2944
АЙ	-2945
өгч	-2946
▁Зах	-2947
▁Жишээ	-2948
▁зургийг	-2949
оу	-2950
евиз	-2951
▁Том	-2952
▁тел	-2953
▁төлөх	-2954
▁эхэлж	-2955
▁аварга	-2956
▁оролцож	-2957
имп	-2958
үүлээд	-2959
▁дүрэм	-2960
▁2013	-2961
үрэлсү	-2962
▁эргэж	-2963
▁тоглож	-2964
▁тэмцээн	-2965
▁эхэллээ	-2966
▁болгосон	-2967
▁нийц	-2968
▁зүйтэй	-2969
▁байранд	-2970
▁соёл	-2971
ийнхээ	-2972
огдсон	-2973
▁төрөлх	-2974
▁үзээрэй	-2975
▁мөрөөд	-2976
ба	-2977
ъё	-2978
▁Ил	-2979
▁худлаа	-2980
▁Маш	-2981
лга	-2982
▁Төв	-2983
▁дий	-2984
▁барь	-2985
▁чулуу	-2986
▁компьютер	-2987
тэр	-2988
▁оруулсан	-2989
▁зөвшөөрөл	-2990
АА	-2991
▁байсныг	-2992
▁цагдаагийн	-2993
▁эхлэн	-2994
▁цаашид	-2995
▁хариуцлага	-2996
▁уламж	-2997
▁зүгээс	-2998
▁бул	-2999
▁асар	-3000
▁Эрүүл	-3001
▁нэртэй	-3002
▁хэвлэл	-3003
ель	-3004
лөл	-3005
чдад	-3006
▁Орон	-3007
▁өсөлт	-3008
зан	-3009
улга	-3010
▁багас	-3011
▁(1	-3012
лагыг	-3013
удамж	-3014
▁мен	-3015
▁хааг	-3016
▁улстөр	-3017
▁зардал	-3018
▁уурхай	-3019
▁хэрэгт	-3020
▁хуучин	-3021
▁зөн	-3022
чихсэн	-3023
▁Зүгээр	-3024
онх	-3025
▁эргэлз	-3026
ко	-3027
ent	-3028
▁давт	-3029
▁охид	-3030
▁хоёрын	-3031
▁хаал	-3032
▁ашигладаг	-3033
▁санагддаг	-3034
▁26	-3035
▁Ох	-3036
▁цу	-3037
гаасаа	-3038
оог	-3039
лбал	-3040
▁тол	-3041
▁хөх	-3042
▁сув	-3043
▁Хууль	-3044
▁Үз	-3045
▁зуун	-3046
▁даатг	-3047
▁дүүрэн	-3048
мал	-3049
▁хэлний	-3050
▁НҮ	-3051
▁Төс	-3052
▁хүүхдээ	-3053
▁дүнтэй	-3054
нгын	-3055
▁дайн	-3056
▁идэх	-3057
▁Хан	-3058
▁хөв	-3059
▁Ихэнх	-3060
▁хэвийн	-3061
▁чаддаггүй	-3062
▁Мэр	-3063
▁Ах	-3064
тайгаа	-3065
▁хөдөө	-3066
▁асуух	-3067
▁зориулж	-3068
▁хувьцаа	-3069
▁эрхтэй	-3070
▁Ун	-3071
ээээ	-3072
▁ангил	-3073
▁хувийг	-3074
ааг	-3075
шуул	-3076
▁Тог	-3077
▁түрээс	-3078
▁одоогийн	-3079
▁Одоогоор	-3080
▁цахилгаан	-3081
▁198	-3082
▁өрн	-3083
▁итгэж	-3084
шөө	-3085
▁албаны	-3086
▁анзаар	-3087
▁нээлттэй	-3088
▁80	-3089
чдэд	-3090
▁мян	-3091
▁нэгдсэн	-3092
id	-3093
пер	-3094
▁Уд	-3095
▁нөхөд	-3096
▁хэргийг	-3097
▁болоогүй	-3098
▁өөд	-3099
▁зуур	-3100
▁номын	-3101
▁чиглэлээр	-3102
йн	-3103
бор	-3104
ихгүй	-3105
▁дөрөв	-3106
▁No	-3107
▁цув	-3108
▁дайр	-3109
▁Өглөө	-3110
▁шалгах	-3111
▁шалтгаа	-3112
▁сэн	-3113
сныг	-3114
▁үзэг	-3115
амжийн	-3116
▁сайдын	-3117
▁сонсох	-3118
ойд	-3119
▁царай	-3120
▁эзэмш	-3121
ub	-3122
▁2011	-3123
▁урьдчилан	-3124
бир	-3125
▁Хэл	-3126
▁алдартай	-3127
▁оролцсон	-3128
▁зорилгоор	-3129
▁ганцхан	-3130
▁ихэвчлэн	-3131
▁чанартай	-3132
мад	-3133
лолт	-3134
▁Чам	-3135
▁буул	-3136
▁үзнэ	-3137
▁порно	-3138
▁хүргэе	-3139
▁стандарт	-3140
асны	-3141
▁Жил	-3142
▁аливаа	-3143
▁борл	-3144
▁сам	-3145
▁даяар	-3146
▁y	-3147
ри	-3148
▁27	-3149
▁Ном	-3150
▁Тэнд	-3151
##	-3152
гэц	-3153
▁шийдвэрлэх	-3154
▁ХХК	-3155
▁талаарх	-3156
eb	-3157
▁хичээ	-3158
▁дэлгэрэнгүй	-3159
▁Тэн	-3160
▁юмуу	-3161
кк	-3162
▁Бур	-3163
ХАУ	-3164
▁Эз	-3165
▁БНХАУ	-3166
▁бохир	-3167
▁Ган	-3168
▁байлгүй	-3169
▁	-3170
а	-3171
э	-3172
н	-3173
г	-3174
л	-3175
р	-3176
д	-3177
о	-3178
х	-3179
й	-3180
и	-3181
у	-3182
ү	-3183
т	-3184
с	-3185
б	-3186
ө	-3187
м	-3188
.	-3189
ж	-3190
в	-3191
ч	-3192
ы	-3193
з	-3194
ь	-3195
ш	-3196
ц	-3197
я	-3198
,	-3199
е	-3200
Т	-3201
-	-3202
Х	-3203
ю	-3204
"	-3205
Б	-3206
Э	-3207
0	-3208
А	-3209
1	-3210
к	-3211
М	-3212
2	-3213
Н	-3214
?	-3215
Г	-3216
У	-3217
ё	-3218
С	-3219
e	-3220
п	-3221
Д	-3222
:	-3223
О	-3224
И	-3225
o	-3226
a	-3227
З	-3228
Ө	-3229
n	-3230
Ү	-3231
i	-3232
3	-3233
r	-3234
5	-3235
t	-3236
9	-3237
s	-3238
4	-3239
!	-3240
Я	-3241
l	-3242
8	-3243
Ш	-3244
Е	-3245
6	-3246
7	-3247
Ц	-3248
)	-3249
u	-3250
Ч	-3251
v	-3252
Ж	-3253
К	-3254
ф	-3255
(	-3256
Л	-3257
m	-3258
c	-3259
d	-3260
/	-3261
Р	-3262
S	-3263
h	-3264
p	-3265
g	-3266
M	-3267
A	-3268
y	-3269
P	-3270
I	-3271
П	-3272
C	-3273
В	-3274
b	-3275
N	-3276
T	-3277
D	-3278
k	-3279
є	-3280
E	-3281
B	-3282
w	-3283
O	-3284
Ф	-3285
_	-3286
ъ	-3287
R	-3288
Й	-3289
G	-3290
L	-3291
f	-3292
F	-3293
H	-3294
;	-3295
*	-3296
x	-3297
Ю	-3298
W	-3299
[	-3300
]	-3301
#	-3302
U	-3303
V	-3304
%	-3305
·	-3306
'	-3307
Y	-3308
J	-3309
•	-3310
X	-3311
>	-3312
ѳ	-3313
K	-3314
z	-3315
|	-3316
$	-3317
j	-3318
Ё	-3319
Ы	-3320
ї	-3321
&	-3322
+	-3323
=	-3324
~	-3325
Z	-3326
<	-3327
Q	-3328
Ь	-3329
q	-3330
^	-3331
@	-3332
→	-3333
ђ	-3334
щ	-3335
һ	-3336
î	-3337
Є	-3338
₮	-3339
🙂	-3340
️	-3341
ҕ	-3342
ҥ	-3343
°	-3344
←	-3345
{	-3346
ا	-3347
à	-3348
′	-3349
}	-3350
ý	-3351
ر	-3352
€	-3353
ü	-3354
¬	-3355
\	-3356
é	-3357
í	-3358
●	-3359
ә	-3360
ë	-3361
ñ	-3362
ѐ	-3363
¿	-3364
ò	-3365
ل	-3366
›	-3367
😀	-3368
â	-3369
©	-3370
Ъ	-3371
↑	-3372
è	-3373
س	-3374
►	-3375
ã	-3376
Ѳ	-3377
ة	-3378
ك	-3379
❤	-3380
ح	-3381
Í	-3382
®	-3383
ä	-3384
₪	-3385
ð	-3386
ج	-3387
́	-3388
√	-3389
£	-3390
♥	-3391
✅	-3392
😉	-3393
Ї	-3394
🎁	-3395
✔	-3396
õ	-3397
い	-3398
á	-3399
☮	-3400
♛	-3401
ó	-3402
Щ	-3403
ᄏ	-3404
★	-3405
😛	-3406
な	-3407
ö	-3408
ん	-3409
Џ	-3410
ѕ	-3411
م	-3412
时	-3413
し	-3414
ў	-3415
の	-3416
・	-3417
ي	-3418
≤	-3419
☞	-3420
す	-3421
×	-3422
ң	-3423
ı	-3424
😍	-3425
🙏	-3426
ì	-3427
ā	-3428
і	-3429
⁄	-3430
÷	-3431
μ	-3432
ま	-3433
る	-3434
😭	-3435
Ø	-3436
Ќ	-3437
う	-3438
て	-3439
😂	-3440
😅	-3441
§	-3442
ћ	-3443
қ	-3444
に	-3445
이	-3446
🔊	-3447
🔥	-3448
😊	-3449
ï	-3450
ø	-3451
җ	-3452
ᅲ	-3453
ế	-3454
≈	-3455
】	-3456
名	-3457
û	-3458
̄	-3459
ن	-3460
♦	-3461
♪	-3462
✿	-3463
【	-3464
そ	-3465
で	-3466
ら	-3467
±	-3468
ç	-3469
ɵ	-3470
Ў	-3471
ќ	-3472
※	-3473
「	-3474
か	-3475
歌	-3476
æ	-3477
ə	-3478
α	-3479
І	-3480
ع	-3481
و	-3482
♫	-3483
あ	-3484
く	-3485
こ	-3486
た	-3487
彩	-3488
曲	-3489
称	-3490
요	-3491
🏻	-3492
¥	-3493
̈	-3494
γ	-3495
د	-3496
⭐	-3497
」	-3498
と	-3499
よ	-3500
り	-3501
れ	-3502
ー	-3503
👉	-3504
👏	-3505
💵	-3506
🤗	-3507
🤣	-3508
🤩	-3509
Õ	-3510
ş	-3511
‐	-3512
↓	-3513
↙	-3514
✓	-3515
。	-3516
が	-3517
だ	-3518
は	-3519
を	-3520
国	-3521
나	-3522
😦	-3523
😱	-3524
Á	-3525
Ü	-3526
š	-3527
ه	-3528
†	-3529
−	-3530
⋆	-3531
☈	-3532
♚	-3533
お	-3534
き	-3535
っ	-3536
も	-3537
ン	-3538
学	-3539
書	-3540
어	-3541
유	-3542
👍	-3543
📌	-3544
😢	-3545
¦	-3546
Ş	-3547
ƒ	-3548
ɪ	-3549
Ћ	-3550
ո	-3551
י	-3552
ר	-3553
ف	-3554
ᄂ	-3555
■	-3556
◆	-3557
○	-3558
☺	-3559
♡	-3560
け	-3561
ば	-3562
日	-3563
기	-3564
리	-3565
💯	-3566
¢	-3567
Ç	-3568
É	-3569
ư	-3570
ˈ	-3571
̷	-3572
β	-3573
ι	-3574
π	-3575
ұ	-3576
ն	-3577
א	-3578
ی	-3579
ᄅ	-3580
ᠠ	-3581
ᠢ	-3582
ớ	-3583
≥	-3584
▪	-3585
☆	-3586
✨	-3587
➜	-3588
➡	-3589
、	-3590
さ	-3591
せ	-3592
ち	-3593
つ	-3594
め	-3595
わ	-3596
ル	-3597
人	-3598
会	-3599
時	-3600
楽	-3601
김	-3602
니	-3603
다	-3604
¤	-3605
Ò	-3606
ß	-3607
ο	-3608
џ	-3609
ґ	-3610
Һ	-3611
ա	-3612
ե	-3613
մ	-3614
ط	-3615
غ	-3616
ᠳ	-3617
―	-3618
‹	-3619
⃣	-3620
∞	-3621
▲	-3622
◊	-3623
☀	-3624
♀	-3625
ご	-3626
じ	-3627
一	-3628
古	-3629
図	-3630
愛	-3631
江	-3632
済	-3633
経	-3634
蒙	-3635
行	-3636
表	-3637
路	-3638
返	-3639
部	-3640
際	-3641
말	-3642
배	-3643
사	-3644
서	-3645
정	-3646
지	-3647
하	-3648
🔴	-3649
😁	-3650
😘	-3651
À	-3652
Ã	-3653
Ë	-3654
Ñ	-3655
Ý	-3656
ú	-3657
İ	-3658
ō	-3659
ω	-3660
Ѕ	-3661
ғ	-3662
ל	-3663
ب	-3664
ق	-3665
ہ	-3666
ค	-3667
᠋	-3668
ᠨ	-3669
ᠷ	-3670
₩	-3671
▼	-3672
☛	-3673
☻	-3674
♂	-3675
え	-3676
げ	-3677
ょ	-3678
ㄟ	-3679
中	-3680
台	-3681
平	-3682
文	-3683
月	-3684
本	-3685
語	-3686
間	-3687
내	-3688
대	-3689
비	-3690
세	-3691
아	-3692
영	-3693
원	-3694
저	-3695
제	-3696
한	-3697
🇷	-3698
🌟	-3699
👩	-3700
💎	-3701
💥	-3702
📍	-3703
😃	-3704
😆	-3705
😇	-3706
😜	-3707
😝	-3708
🥳	-3709
Ä	-3710
Ð	-3711
Ö	-3712
å	-3713
ê	-3714
ô	-3715
þ	-3716
Ā	-3717
č	-3718
ī	-3719
Œ	-3720
ʀ	-3721
̀	-3722
Δ	-3723
ί	-3724
θ	-3725
λ	-3726
σ	-3727
ѓ	-3728
Ҥ	-3729
Ӏ	-3730
ӈ	-3731
ӓ	-3732
ӧ	-3733
ӱ	-3734
ս	-3735
տ	-3736
ւ	-3737
ք	-3738
נ	-3739
ע	-3740
أ	-3741
ش	-3742
ى	-3743
ন	-3744
ਰ	-3745
க	-3746
ง	-3747
น	-3748
ม	-3749
ย	-3750
โ	-3751
่	-3752
ᠡ	-3753
ᠦ	-3754
ᴇ	-3755
ḥ	-3756
ṭ	-3757
‖	-3758
∙	-3759
◦	-3760
☎	-3761
⚡	-3762
⚫	-3763
❗	-3764
➢	-3765
⦁	-3766
《	-3767
》	-3768
〓	-3769
ざ	-3770
ど	-3771
ひ	-3772
み	-3773
ゃ	-3774
や	-3775
キ	-3776
ゴ	-3777
シ	-3778
ナ	-3779
フ	-3780
モ	-3781
リ	-3782
上	-3783
下	-3784
件	-3785
信	-3786
出	-3787
天	-3788
子	-3789
我	-3790
法	-3791
版	-3792
现	-3793
的	-3794
自	-3795
软	-3796
达	-3797
通	-3798
音	-3799
高	-3800
경	-3801
구	-3802
국	-3803
뉴	-3804
는	-3805
라	-3806
로	-3807
바	-3808
법	-3809
부	-3810
수	-3811
스	-3812
신	-3813
야	-3814
오	-3815
우	-3816
의	-3817
인	-3818
자	-3819
장	-3820
주	-3821
태	-3822
토	-3823
티	-3824
함	-3825
해	-3826
현	-3827
횊	-3828
회	-3829
후	-3830
︎	-3831
🌈	-3832
🍷	-3833
🎯	-3834
🏠	-3835
👎	-3836
👨	-3837
💚	-3838
💜	-3839
💫	-3840
💰	-3841
🔬	-3842
🔰	-3843
🚗	-3844
🤑	-3845
🤘	-3846
🤟	-3847
🤮	-3848
🥇	-3849
Æ	-3850
È	-3851
ÿ	-3852
ć	-3853
Č	-3854
đ	-3855
ĕ	-3856
ė	-3857
ğ	-3858
Ł	-3859
ł	-3860
ń	-3861
ś	-3862
ū	-3863
ǿ	-3864
ɐ	-3865
ʜ	-3866
ˌ	-3867
̌	-3868
͜	-3869
Ω	-3870
δ	-3871
ε	-3872
κ	-3873
ν	-3874
ρ	-3875
ς	-3876
φ	-3877
ј	-3878
њ	-3879
Ґ	-3880
Ҳ	-3881
ҳ	-3882
ӣ	-3883
կ	-3884
ղ	-3885
ր	-3886
ב	-3887
ג	-3888
ה	-3889
ו	-3890
ת	-3891
ت	-3892
خ	-3893
ذ	-3894
ص	-3895
ک	-3896
क	-3897
ब	-3898
ल	-3899
ा	-3900
া	-3901
ু	-3902
্	-3903
ਟ	-3904
ਪ	-3905
ਸ	-3906
ก	-3907
ซ	-3908
ด	-3909
ล	-3910
ส	-3911
อ	-3912
ิ	-3913
ี	-3914
เ	-3915
ใ	-3916
้	-3917
྆	-3918
န	-3919
မ	-3920
့	-3921
း	-3922
ᄀ	-3923
ᆞ	-3924
ᠥ	-3925
ᠬ	-3926
ᠭ	-3927
ᠮ	-3928
ᠶ	-3929
ᵴ	-3930
ḍ	-3931
ṅ	-3932
ṇ	-3933
‣	-3934
‰	-3935
₽	-3936
↔	-3937
⇒	-3938
⇨	-3939
∂	-3940
∆	-3941
≠	-3942
⎪	-3943
⏱	-3944
│	-3945
█	-3946
□	-3947
▶	-3948
☹	-3949
♏	-3950
♔	-3951
♠	-3952
⚽	-3953
✈	-3954
❀	-3955
❄	-3956
❷	-3957
❹	-3958
❼	-3959
⠀	-3960
ぐ	-3961
ぶ	-3962
ゅ	-3963
ろ	-3964
イ	-3965
ウ	-3966
ギ	-3967
ク	-3968
コ	-3969
サ	-3970
ソ	-3971
ダ	-3972
ド	-3973
ブ	-3974
ャ	-3975
ョ	-3976
ㄍ	-3977
ㄎ	-3978
ㄨ	-3979
世	-3980
业	-3981
个	-3982
交	-3983
介	-3984
仔	-3985
代	-3986
们	-3987
住	-3988
作	-3989
便	-3990
内	-3991
分	-3992
十	-3993
南	-3994
号	-3995
合	-3996
品	-3997
商	-3998
回	-3999
団	-4000
图	-4001
地	-4002
基	-4003
変	-4004
夢	-4005
安	-4006
展	-4007
山	-4008
形	-4009
後	-4010
御	-4011
手	-4012
族	-4013
是	-4014
曜	-4015
李	-4016
松	-4017
止	-4018
気	-4019
水	-4020
流	-4021
点	-4022
理	-4023
生	-4024
用	-4025
田	-4026
発	-4027
皇	-4028
社	-4029
简	-4030
管	-4031
紀	-4032
線	-4033
网	-4034
美	-4035
翻	-4036
者	-4037
聲	-4038
胡	-4039
解	-4040
言	-4041
証	-4042
話	-4043
誌	-4044
译	-4045
请	-4046
责	-4047
身	-4048
載	-4049
近	-4050
達	-4051
重	-4052
金	-4053
鈴	-4054
门	-4055
革	-4056
類	-4057
麦	-4058
黑	-4059
龙	-4060
꧁	-4061
게	-4062
고	-4063
권	-4064
규	-4065
남	-4066
너	-4067
노	-4068
도	-4069
동	-4070
루	-4071
르	-4072
린	-4073
무	-4074
미	-4075
민	-4076
보	-4077
브	-4078
새	-4079
선	-4080
시	-4081
안	-4082
알	-4083
없	-4084
역	-4085
연	-4086
예	-4087
올	-4088
으	-4089
은	-4090
을	-4091
전	-4092
즈	-4093
직	-4094
창	-4095
초	-4096
최	-4097
크	-4098
통	-4099
튜	-4100
트	-4101
화	-4102
훈	-4103
희	-4104
🇰	-4105
🇲	-4106
🇺	-4107
🌙	-4108
🌱	-4109
🌸	-4110
🎧	-4111
👀	-4112
👐	-4113
👷	-4114
💁	-4115
💃	-4116
💅	-4117
💙	-4118
📎	-4119
🔅	-4120
🔌	-4121
🔑	-4122
🔵	-4123
🔶	-4124
🔸	-4125
🗃	-4126
😋	-4127
😎	-4128
😓	-4129
😔	-4130
🙁	-4131
🙃	-4132
🙌	-4133
🚫	-4134
🛫	-4135
🤔	-4136
🤪	-4137
🥰	-4138
🥺	-4139
🦉	-4140
🦸	-4141
¶	-4142
Â	-4143
Ê	-4144
Ì	-4145
Î	-4146
Ô	-4147
ă	-4148
ē	-4149
Ė	-4150
ę	-4151
ě	-4152
Į	-4153
ĸ	-4154
ľ	-4155
ň	-4156
œ	-4157
ř	-4158
ť	-4159
ŧ	-4160
ů	-4161
Ž	-4162
Ɗ	-4163
ǎ	-4164
ǐ	-4165
ɇ	-4166
ɑ	-4167
ɲ	-4168
ɴ	-4169
ʏ	-4170
ʟ	-4171
ː	-4172
˗	-4173
̵	-4174
̸	-4175
͞	-4176
Η	-4177
Κ	-4178
Μ	-4179
Ο	-4180
Τ	-4181
Φ	-4182
Ψ	-4183
ά	-4184
ή	-4185
η	-4186
τ	-4187
υ	-4188
ό	-4189
ύ	-4190
ώ	-4191
Ђ	-4192
҉	-4193
Җ	-4194
Қ	-4195
ҡ	-4196
Ң	-4197
Ұ	-4198
ҷ	-4199
ӄ	-4200
Ӈ	-4201
ӑ	-4202
Ә	-4203
ӝ	-4204
ӯ	-4205
Ա	-4206
Գ	-4207
Ե	-4208
Ո	-4209
դ	-4210
զ	-4211
ը	-4212
ի	-4213
լ	-4214
խ	-4215
յ	-4216
չ	-4217
վ	-4218
ց	-4219
ז	-4220
ט	-4221
מ	-4222
פ	-4223
،	-4224
؟	-4225
إ	-4226
ز	-4227
ض	-4228
َ	-4229
ۇ	-4230
ە	-4231
ं	-4232
इ	-4233
ए	-4234
ज	-4235
र	-4236
़	-4237
ि	-4238
ै	-4239
१	-4240
४	-4241
७	-4242
९	-4243
অ	-4244
ই	-4245
ক	-4246
চ	-4247
ত	-4248
দ	-4249
ব	-4250
র	-4251
ি	-4252
ে	-4253
ਂ	-4254
ਕ	-4255
ਮ	-4256
ਹ	-4257
ਾ	-4258
ਿ	-4259
ੀ	-4260
ੂ	-4261
ੈ	-4262
ੌ	-4263
ட	-4264
ழ	-4265
ா	-4266
ி	-4267
ூ	-4268
ை	-4269
்	-4270
ೋ	-4271
จ	-4272
ต	-4273
ท	-4274
ฝ	-4275
พ	-4276
ฟ	-4277
ภ	-4278
ว	-4279
ษ	-4280
ห	-4281
ฬ	-4282
ั	-4283
า	-4284
ึ	-4285
แ	-4286
ไ	-4287
์	-4288
࿐	-4289
တ	-4290
လ	-4291
သ	-4292
ဦ	-4293
ိ	-4294
ု	-4295
ေ	-4296
္	-4297
်	-4298
ြ	-4299
၊	-4300
ᄆ	-4301
ᄇ	-4302
ᄋ	-4303
ᄒ	-4304
ᅮ	-4305
ᅳ	-4306
ᅵ	-4307
ᐉ	-4308
ᠤ	-4309
ᠫ	-4310
ᠯ	-4311
ᠰ	-4312
ᠱ	-4313
ᠴ	-4314
ᠵ	-4315
ᠹ	-4316
ᠻ	-4317
ᠼ	-4318
᭄	-4319
ᴀ	-4320
ᴄ	-4321
ᴍ	-4322
ᴜ	-4323
ᴠ	-4324
ᵯ	-4325
ṃ	-4326
ẙ	-4327
ầ	-4328
ắ	-4329
ằ	-4330
ễ	-4331
ờ	-4332
ἰ	-4333
‡	-4334
₹	-4335
↖	-4336
↳	-4337
∈	-4338
≫	-4339
⋯	-4340
⌚	-4341
╒	-4342
╘	-4343
╟	-4344
╢	-4345
▍	-4346
▨	-4347
◇	-4348
☂	-4349
☑	-4350
☔	-4351
☕	-4352
☘	-4353
☝	-4354
☤	-4355
♣	-4356
♻	-4357
⚃	-4358
⚕	-4359
⚙	-4360
⚠	-4361
✌	-4362
✍	-4363
✞	-4364
✯	-4365
❂	-4366
❃	-4367
❏	-4368
❖	-4369
➥	-4370
➳	-4371
⿱	-4372
『	-4373
』	-4374
ぎ	-4375
ぬ	-4376
べ	-4377
ほ	-4378
ゆ	-4379
ィ	-4380
カ	-4381
ガ	-4382
ゲ	-4383
ジ	-4384
セ	-4385
ゼ	-4386
タ	-4387
チ	-4388
ツ	-4389
ヅ	-4390
デ	-4391
ニ	-4392
ハ	-4393
バ	-4394
ヒ	-4395
ビ	-4396
ベ	-4397
ペ	-4398
マ	-4399
ミ	-4400
ム	-4401
ラ	-4402
七	-4403
万	-4404
三	-4405
不	-4406
么	-4407
乐	-4408
也	-4409
二	-4410
云	-4411
互	-4412
京	-4413
今	-4414
他	-4415
付	-4416
任	-4417
企	-4418
伊	-4419
休	-4420
众	-4421
位	-4422
何	-4423
你	-4424
使	-4425
係	-4426
保	-4427
修	-4428
俺	-4429
們	-4430
停	-4431
健	-4432
側	-4433
僕	-4434
優	-4435
儿	-4436
元	-4437
光	-4438
克	-4439
免	-4440
八	-4441
公	-4442
册	-4443
再	-4444
冯	-4445
划	-4446
別	-4447
前	-4448
势	-4449
動	-4450
勖	-4451
務	-4452
勧	-4453
包	-4454
化	-4455
北	-4456
医	-4457
午	-4458
华	-4459
博	-4460
卡	-4461
参	-4462
叫	-4463
召	-4464
向	-4465
吗	-4466
君	-4467
员	-4468
周	-4469
味	-4470
命	-4471
和	-4472
唐	-4473
售	-4474
唱	-4475
問	-4476
喵	-4477
器	-4478
國	-4479
圖	-4480
址	-4481
型	-4482
場	-4483
塑	-4484
塚	-4485
士	-4486
声	-4487
夂	-4488
夕	-4489
夜	-4490
太	-4491
奇	-4492
奋	-4493
好	-4494
妹	-4495
委	-4496
姿	-4497
娱	-4498
字	-4499
宅	-4500
宗	-4501
定	-4502
室	-4503
宽	-4504
密	-4505
导	-4506
小	-4507
少	-4508
局	-4509
属	-4510
履	-4511
岩	-4512
峮	-4513
州	-4514
巡	-4515
巣	-4516
工	-4517
帝	-4518
带	-4519
帮	-4520
帯	-4521
年	-4522
庆	-4523
府	-4524
康	-4525
建	-4526
开	-4527
异	-4528
弦	-4529
当	-4530
录	-4531
心	-4532
必	-4533
志	-4534
忘	-4535
忙	-4536
快	-4537
怎	-4538
恩	-4539
悔	-4540
您	-4541
悲	-4542
情	-4543
意	-4544
憎	-4545
戒	-4546
戰	-4547
戸	-4548
打	-4549
払	-4550
抢	-4551
拶	-4552
指	-4553
挨	-4554
探	-4555
掲	-4556
提	-4557
改	-4558
故	-4559
斗	-4560
斥	-4561
斯	-4562
新	-4563
早	-4564
昌	-4565
星	-4566
昴	-4567
普	-4568
暲	-4569
更	-4570
會	-4571
有	-4572
望	-4573
朝	-4574
机	-4575
村	-4576
林	-4577
査	-4578
株	-4579
格	-4580
椰	-4581
楫	-4582
業	-4583
概	-4584
構	-4585
横	-4586
機	-4587
歳	-4588
残	-4589
毛	-4590
民	-4591
气	-4592
永	-4593
沖	-4594
没	-4595
河	-4596
治	-4597
沿	-4598
注	-4599
泰	-4600
洛	-4601
洞	-4602
浙	-4603
浜	-4604
淮	-4605
渡	-4606
湖	-4607
漏	-4608
演	-4609
照	-4610
燼	-4611
牛	-4612
特	-4613
玉	-4614
甘	-4615
町	-4616
画	-4617
留	-4618
登	-4619
百	-4620
盘	-4621
眉	-4622
码	-4623
破	-4624
礦	-4625
祉	-4626
祐	-4627
神	-4628
福	-4629
离	-4630
私	-4631
秘	-4632
稳	-4633
站	-4634
等	-4635
米	-4636
糞	-4637
紇	-4638
給	-4639
红	-4640
线	-4641
考	-4642
能	-4643
腕	-4644
臨	-4645
舞	-4646
航	-4647
良	-4648
華	-4649
葵	-4650
藏	-4651
藤	-4652
蘭	-4653
蛋	-4654
蠟	-4655
衛	-4656
袖	-4657
裏	-4658
製	-4659
西	-4660
要	-4661
見	-4662
視	-4663
親	-4664
见	-4665
誉	-4666
説	-4667
諸	-4668
識	-4669
讃	-4670
计	-4671
让	-4672
记	-4673
语	-4674
读	-4675
课	-4676
豚	-4677
象	-4678
貸	-4679
費	-4680
賃	-4681
資	-4682
賞	-4683
趋	-4684
車	-4685
軒	-4686
輝	-4687
载	-4688
辉	-4689
输	-4690
辺	-4691
込	-4692
运	-4693
还	-4694
迴	-4695
迹	-4696
送	-4697
逢	-4698
連	-4699
進	-4700
過	-4701
選	-4702
郑	-4703
都	-4704
配	-4705
里	-4706
鑑	-4707
钱	-4708
银	-4709
镇	-4710
长	-4711
関	-4712
问	-4713
间	-4714
阒	-4715
际	-4716
陝	-4717
险	-4718
陳	-4719
随	-4720
雑	-4721
電	-4722
面	-4723
韬	-4724
響	-4725
題	-4726
颚	-4727
駅	-4728
马	-4729
鵬	-4730
黄	-4731
龶	-4732
꧂	-4733
가	-4734
갑	-4735
갤	-4736
거	-4737
걸	-4738
것	-4739
겠	-4740
격	-4741
계	-4742
골	-4743
공	-4744
과	-4745
관	-4746
교	-4747
굴	-4748
긋	-4749
긱	-4750
끼	-4751
단	-4752
달	-4753
답	-4754
더	-4755
돈	-4756
둥	-4757
딩	-4758
떻	-4759
또	-4760
뚜	-4761
뚝	-4762
랑	-4763
래	-4764
랫	-4765
러	-4766
렘	-4767
려	-4768
룬	-4769
룰	-4770
류	-4771
를	-4772
림	-4773
릿	-4774
마	-4775
만	-4776
매	-4777
먹	-4778
메	-4779
며	-4780
명	-4781
모	-4782
몽	-4783
문	-4784
뭘	-4785
뮤	-4786
반	-4787
밥	-4788
백	-4789
밴	-4790
버	-4791
번	-4792
베	-4793
벼	-4794
변	-4795
병	-4796
불	-4797
뷔	-4798
븐	-4799
블	-4800
빈	-4801
뻐	-4802
뿌	-4803
상	-4804
생	-4805
석	-4806
설	-4807
섭	-4808
성	-4809
송	-4810
숙	-4811
슨	-4812
습	-4813
승	-4814
식	-4815
실	-4816
싼	-4817
쌍	-4818
양	-4819
업	-4820
에	-4821
엘	-4822
엥	-4823
여	-4824
열	-4825
옷	-4826
와	-4827
왔	-4828
외	-4829
용	-4830
울	-4831
웆	-4832
워	-4833
월	-4834
윤	-4835
율	-4836
응	-4837
일	-4838
있	-4839
잘	-4840
재	-4841
적	-4842
조	-4843
죄	-4844
죻	-4845
진	-4846
짓	-4847
짱	-4848
찌	-4849
찡	-4850
차	-4851
찾	-4852
채	-4853
청	-4854
체	-4855
침	-4856
칩	-4857
칫	-4858
카	-4859
커	-4860
케	-4861
코	-4862
콕	-4863
콧	-4864
키	-4865
탄	-4866
탓	-4867
탠	-4868
터	-4869
틴	-4870
팅	-4871
팝	-4872
퍼	-4873
펄	-4874
평	-4875
폰	-4876
푸	-4877
플	-4878
픽	-4879
학	-4880
항	-4881
햄	-4882
혀	-4883
혜	-4884
호	-4885
홈	-4886
홍	-4887
횒	-4888
횗	-4889
횜	-4890
흐	-4891
흥	-4892
￼	-4893
𖢘	-4894
🆕	-4895
🇫	-4896
🇳	-4897
🇸	-4898
🇽	-4899
🌃	-4900
🌄	-4901
🌅	-4902
🌍	-4903
🌐	-4904
🌡	-4905
🌳	-4906
🌻	-4907
🍀	-4908
🍁	-4909
🍇	-4910
🍑	-4911
🍞	-4912
🍩	-4913
🍯	-4914
🍰	-4915
🍱	-4916
🍹	-4917
🍽	-4918
🍾	-4919
🎀	-4920
🎄	-4921
🎬	-4922
🎶	-4923
🏆	-4924
🏋	-4925
🏣	-4926
🏦	-4927
🏼	-4928
👑	-4929
👦	-4930
👧	-4931
👽	-4932
💀	-4933
💉	-4934
💋	-4935
💐	-4936
💔	-4937
💕	-4938
💝	-4939
💡	-4940
💢	-4941
💩	-4942
💪	-4943
💸	-4944
💻	-4945
💼	-4946
📁	-4947
📅	-4948
📕	-4949
📖	-4950
📞	-4951
📣	-4952
📦	-4953
📱	-4954
📲	-4955
📷	-4956
🔄	-4957
🔹	-4958
🕑	-4959
🕘	-4960
🕯	-4961
🖐	-4962
🖤	-4963
🗓	-4964
😄	-4965
😈	-4966
😐	-4967
😑	-4968
😡	-4969
😥	-4970
😩	-4971
😫	-4972
😮	-4973
😰	-4974
😲	-4975
😶	-4976
😷	-4977
🙆	-4978
🙋	-4979
🙎	-4980
🚀	-4981
🚘	-4982
🚩	-4983
🛍	-4984
🛑	-4985
🛒	-4986
🛡	-4987
🤍	-4988
🤓	-4989
🤡	-4990
🤫	-4991
🥄	-4992
🦊	-4993
🦋	-4994
🧤	-4995
🧨	-4996
