<unk>	0
<s>	0
</s>	0
▁а	-0
▁б	-1
▁х	-2
▁н	-3
▁т	-4
▁г	-5
ий	-6
▁э	-7
▁.	-8
▁д	-9
▁л	-10
▁о	-11
▁с	-12
аа	-13
ай	-14
▁у	-15
ээ	-16
ар	-17
▁ү	-18
ан	-19
▁ө	-20
▁м	-21
▁ий	-22
ол	-23
▁р	-24
эг	-25
▁и	-26
▁з	-27
аг	-28
▁ай	-29
▁ч	-30
эр	-31
үү	-32
уу	-33
үй	-34
эн	-35
▁ж	-36
ал	-37
▁ийн	-38
▁,	-39
▁бай	-40
▁ы	-41
▁бол	-42
▁ш	-43
▁нь	-44
эл	-45
он	-46
▁гэ	-47
на	-48
ин	-49
▁я	-50
оо	-51
ил	-52
▁хү	-53
▁уу	-54
өр	-55
▁Т	-56
▁-	-57
▁аа	-58
▁гүй	-59
▁Х	-60
▁ол	-61
▁ю	-62
эд	-63
нэ	-64
өө	-65
▁"	-66
гаа	-67
га	-68
▁Б	-69
▁ал	-70
▁ын	-71
▁үү	-72
▁ц	-73
▁байна	-74
ад	-75
▁в	-76
эй	-77
▁эр	-78
▁ор	-79
ах	-80
▁Э	-81
нг	-82
▁ар	-83
▁юм	-84
▁сан	-85
▁ха	-86
ийн	-87
▁ийг	-88
нд	-89
▁ул	-90
▁аж	-91
▁ээ	-92
▁ах	-93
ээр	-94
▁1	-95
▁М	-96
ой	-97
▁би	-98
▁А	-99
сан	-100
▁й	-101
ын	-102
өн	-103
▁тэй	-104
▁айгаа	-105
▁ав	-106
▁эх	-107
гэ	-108
▁ам	-109
▁0	-110
▁тай	-111
ог	-112
▁бү	-113
▁гэж	-114
▁2	-115
▁ху	-116
ох	-117
эх	-118
▁та	-119
ний	-120
▁ан	-121
▁хэр	-122
чи	-123
▁ний	-124
ам	-125
▁ту	-126
▁ыг	-127
▁эд	-128
▁гар	-129
▁хо	-130
уул	-131
▁өр	-132
иг	-133
аар	-134
▁Г	-135
эм	-136
▁нэг	-137
▁хий	-138
▁өг	-139
▁лт	-140
▁Н	-141
▁өөр	-142
од	-143
ур	-144
өл	-145
▁ур	-146
ас	-147
ор	-148
▁мэд	-149
▁уул	-150
▁эл	-151
го	-152
▁С	-153
▁У	-154
▁гд	-155
▁ас	-156
▁байх	-157
▁энэ	-158
▁хэрэг	-159
сэн	-160
гүй	-161
▁ир	-162
▁хар	-163
үүл	-164
▁к	-165
▁е	-166
▁:	-167
▁ээр	-168
▁сон	-169
▁Д	-170
▁ажил	-171
даг	-172
йл	-173
▁дээ	-174
▁аар	-175
▁Энэ	-176
▁О	-177
▁айсан	-178
ны	-179
▁даг	-180
▁га	-181
ом	-182
▁хүн	-183
ьд	-184
▁ны	-185
▁нд	-186
▁сай	-187
но	-188
▁яв	-189
▁ил	-190
▁сэн	-191
▁З	-192
өг	-193
ла	-194
той	-195
▁бу	-196
эв	-197
ир	-198
ыг	-199
▁И	-200
▁аас	-201
▁эг	-202
▁хэл	-203
▁ад	-204
▁Ө	-205
▁онг	-206
▁даа	-207
▁аг	-208
эт	-209
▁лаг	-210
▁их	-211
▁жил	-212
ээд	-213
▁ууд	-214
гу	-215
▁эм	-216
▁үз	-217
▁үр	-218
▁ид	-219
▁Би	-220
▁хө	-221
▁хам	-222
▁Ү	-223
▁ма	-224
ууд	-225
▁гаа	-226
▁ох	-227
өх	-228
дэг	-229
▁дэг	-230
лэ	-231
▁бод	-232
▁дээр	-233
▁чи	-234
▁зүй	-235
▁ба	-236
▁үйл	-237
▁ээс	-238
▁уд	-239
▁болно	-240
▁үе	-241
▁улс	-242
▁йн	-243
өв	-244
▁онгол	-245
▁дар	-246
▁од	-247
▁айдаг	-248
жи	-249
▁лг	-250
▁вэ	-251
▁өд	-252
▁юу	-253
▁да	-254
▁чад	-255
▁өм	-256
▁мж	-257
▁зүйл	-258
▁шүү	-259
▁хув	-260
▁3	-261
▁цаг	-262
▁хан	-263
▁асуу	-264
мар	-265
сон	-266
▁өв	-267
▁боло	-268
▁тан	-269
мүү	-270
▁он	-271
им	-272
▁болох	-273
хай	-274
▁9	-275
▁мин	-276
ха	-277
▁гэсэн	-278
аан	-279
▁бүр	-280
▁ё	-281
▁үүд	-282
▁!	-283
▁лд	-284
▁үг	-285
▁?	-286
▁хүмүү	-287
▁хүр	-288
▁яр	-289
▁үл	-290
▁олон	-291
▁өө	-292
▁5	-293
ийг	-294
нө	-295
▁хэм	-296
▁са	-297
▁тэр	-298
▁газ	-299
▁дал	-300
▁эс	-301
▁..	-302
▁су	-303
▁хэ	-304
ёр	-305
та	-306
▁эрх	-307
▁ог	-308
▁...	-309
▁ямар	-310
▁ер	-311
▁оо	-312
▁сар	-313
▁ёс	-314
сэ	-315
иу	-316
ээс	-317
▁нийг	-318
▁Я	-319
▁үүл	-320
оор	-321
▁4	-322
▁на	-323
да	-324
▁аш	-325
үүх	-326
▁бүх	-327
▁маш	-328
▁нг	-329
▁биш	-330
гал	-331
▁аан	-332
дал	-333
тай	-334
▁гэр	-335
▁амьд	-336
▁нар	-337
▁п	-338
▁Ш	-339
▁ду	-340
▁Е	-341
▁бар	-342
▁ажилл	-343
▁аад	-344
▁чин	-345
аас	-346
тг	-347
ийм	-348
▁өл	-349
энд	-350
▁баг	-351
▁гч	-352
▁нэ	-353
нгө	-354
▁айгу	-355
▁Ц	-356
▁хоёр	-357
▁шиг	-358
▁8	-359
▁гэдэг	-360
ло	-361
▁то	-362
тгэ	-363
▁хамг	-364
▁чих	-365
▁гийн	-366
вэл	-367
лаа	-368
▁бид	-369
▁суу	-370
▁мэдээ	-371
▁сайн	-372
▁олсон	-373
▁болон	-374
▁(	-375
охи	-376
эж	-377
▁сур	-378
▁хэн	-379
▁Тэр	-380
▁ая	-381
өлөө	-382
▁дах	-383
▁гээр	-384
▁6	-385
▁шин	-386
▁Ч	-387
▁но	-388
▁ши	-389
▁дү	-390
▁ээд	-391
▁жээ	-392
▁лаа	-393
▁Ж	-394
хан	-395
ро	-396
▁7	-397
дээ	-398
▁)	-399
хий	-400
▁Та	-401
▁үнэ	-402
ер	-403
▁энд	-404
▁гэх	-405
лаг	-406
▁тав	-407
▁анх	-408
▁ь	-409
▁лага	-410
▁дуу	-411
▁мө	-412
▁нэр	-413
▁дог	-414
▁хийх	-415
▁лээ	-416
үүд	-417
▁хүс	-418
▁рх	-419
▁Хар	-420
▁ашиг	-421
▁бус	-422
анай	-423
этгэ	-424
▁ус	-425
▁тог	-426
▁лэг	-427
▁эн	-428
▁К	-429
дв	-430
▁тул	-431
▁ёстой	-432
▁дараа	-433
нөө	-434
▁нас	-435
▁сөн	-436
▁эв	-437
▁өмнө	-438
▁ин	-439
энэ	-440
жэ	-441
▁айр	-442
▁хол	-443
▁лөг	-444
▁өөрий	-445
дл	-446
бар	-447
▁жи	-448
▁тус	-449
▁байж	-450
гац	-451
юу	-452
▁алт	-453
▁чинь	-454
бо	-455
▁зар	-456
аад	-457
тэй	-458
▁хугац	-459
▁ший	-460
▁анд	-461
▁/	-462
▁үед	-463
▁төр	-464
▁илүү	-465
▁болж	-466
▁авах	-467
▁хи	-468
▁одоо	-469
▁нам	-470
▁онд	-471
чин	-472
▁ат	-473
▁алб	-474
үүхд	-475
▁дэ	-476
▁ээл	-477
▁ич	-478
▁ун	-479
ва	-480
▁алаар	-481
▁зөв	-482
ав	-483
▁өдөр	-484
▁Харин	-485
▁газар	-486
▁эж	-487
▁өгөө	-488
▁ну	-489
▁амьдр	-490
яр	-491
▁хэмжэ	-492
аж	-493
▁той	-494
▁оны	-495
▁гээд	-496
▁сэтгэ	-497
▁тухай	-498
ис	-499
▁ша	-500
▁шаар	-501
▁том	-502
▁со	-503
▁тал	-504
▁холбо	-505
▁үүний	-506
са	-507
▁болго	-508
▁агаа	-509
тээ	-510
▁шаард	-511
▁най	-512
▁лэл	-513
▁ги	-514
▁гарга	-515
▁чл	-516
▁бас	-517
алт	-518
уй	-519
▁хувьд	-520
▁ийм	-521
▁хийж	-522
▁тод	-523
▁рч	-524
▁орон	-525
▁до	-526
гэл	-527
▁өс	-528
үүр	-529
эс	-530
▁нөх	-531
▁Ер	-532
▁ойл	-533
ра	-534
ши	-535
▁шал	-536
▁ут	-537
▁буй	-538
▁гэд	-539
▁удаа	-540
чир	-541
▁нх	-542
▁сары	-543
▁арга	-544
▁үс	-545
илц	-546
▁гөө	-547
▁Бид	-548
▁рт	-549
өнх	-550
вар	-551
▁e	-552
▁авч	-553
▁өгөөд	-554
▁сн	-555
▁лэ	-556
▁дур	-557
▁Тийм	-558
▁лгээ	-559
▁түү	-560
▁ирг	-561
▁эхдээ	-562
▁өх	-563
▁ашигл	-564
▁оор	-565
▁мжтой	-566
▁гэдг	-567
▁дл	-568
▁нээс	-569
агд	-570
▁Л	-571
охио	-572
дэ	-573
▁ойлго	-574
▁тү	-575
▁ой	-576
▁лл	-577
▁оруул	-578
▁i	-579
оод	-580
гд	-581
▁ааг	-582
жээ	-583
▁s	-584
анц	-585
▁ком	-586
▁зур	-587
▁рг	-588
▁яри	-589
▁ф	-590
вал	-591
▁баяр	-592
▁сайха	-593
▁лог	-594
▁Үү	-595
▁йл	-596
▁йр	-597
▁Од	-598
▁минь	-599
▁хүүхд	-600
▁АН	-601
▁нийт	-602
▁шинэ	-603
▁сонго	-604
▁рал	-605
▁чадах	-606
сөн	-607
▁үүх	-608
ик	-609
▁тэд	-610
▁алд	-611
нгөр	-612
▁нэгэн	-613
▁бий	-614
▁айх	-615
ов	-616
▁орол	-617
▁идний	-618
▁комп	-619
▁хүний	-620
▁газр	-621
▁Одоо	-622
▁зор	-623
▁дөр	-624
▁от	-625
▁бил	-626
▁хаа	-627
▁огт	-628
▁гаар	-629
▁ажл	-630
▁Ба	-631
▁үнд	-632
▁лагаа	-633
шүү	-634
▁бэ	-635
▁миний	-636
▁санал	-637
▁анг	-638
▁хэмээ	-639
▁тогло	-640
▁улсын	-641
▁лж	-642
▁өрийн	-643
▁хя	-644
▁ст	-645
▁сана	-646
▁хэс	-647
▁хүнд	-648
▁агаад	-649
▁йг	-650
▁тодо	-651
▁лс	-652
хөн	-653
▁за	-654
▁руу	-655
ээл	-656
▁үн	-657
▁ял	-658
▁гишүү	-659
▁П	-660
▁эдэн	-661
хэ	-662
▁оног	-663
лө	-664
▁бат	-665
▁нэм	-666
▁Хү	-667
ээн	-668
▁мөнгө	-669
▁рхой	-670
▁тоо	-671
хи	-672
▁билээ	-673
▁мэдэх	-674
▁лхий	-675
▁өнд	-676
▁M	-677
чих	-678
▁ие	-679
▁өнөө	-680
▁айлаа	-681
▁тө	-682
▁лал	-683
▁хүү	-684
▁ярь	-685
▁санаа	-686
▁энг	-687
▁төлөө	-688
▁олд	-689
▁чу	-690
▁лөгч	-691
ууль	-692
▁аагүй	-693
▁S	-694
цэ	-695
▁хай	-696
▁10	-697
▁уч	-698
▁эхэл	-699
▁айл	-700
▁дав	-701
▁сү	-702
▁ух	-703
▁агч	-704
▁гай	-705
▁дарга	-706
▁мөн	-707
▁үүр	-708
▁гээ	-709
▁болов	-710
▁др	-711
▁хэв	-712
▁бага	-713
▁тулд	-714
▁доо	-715
эхүү	-716
▁иргэд	-717
▁Мин	-718
амж	-719
уур	-720
▁Хэр	-721
уун	-722
▁айдал	-723
▁үх	-724
▁ртэл	-725
▁Мөн	-726
▁хэрхэ	-727
▁өнгөр	-728
ли	-729
▁үүхэд	-730
лоо	-731
▁Миний	-732
▁өвхөн	-733
▁аз	-734
▁эсвэл	-735
▁зал	-736
▁аанд	-737
▁бари	-738
▁ард	-739
▁оролц	-740
▁тийм	-741
▁a	-742
▁эхл	-743
ээж	-744
▁дэм	-745
▁албан	-746
ож	-747
▁ри	-748
адад	-749
▁маан	-750
▁таны	-751
▁дахь	-752
▁ца	-753
▁урхан	-754
▁o	-755
▁ганц	-756
▁уллаг	-757
▁v	-758
▁Ерөнх	-759
▁эрг	-760
▁маань	-761
▁байдл	-762
▁хор	-763
▁охи	-764
▁өөс	-765
▁Тэд	-766
▁тохио	-767
эргэ	-768
▁ээг	-769
▁дахин	-770
▁эгээд	-771
▁эмэг	-772
оос	-773
▁манай	-774
▁учр	-775
▁гур	-776
▁үйлдв	-777
▁ос	-778
ирх	-779
▁оос	-780
▁наас	-781
▁ув	-782
▁бэл	-783
ос	-784
▁машин	-785
▁ме	-786
▁хой	-787
хайн	-788
▁лийн	-789
элт	-790
▁маг	-791
ино	-792
зээ	-793
▁ирсэн	-794
▁далда	-795
то	-796
▁Р	-797
▁дол	-798
▁гол	-799
лэг	-800
▁уг	-801
▁ана	-802
▁хамт	-803
▁сургу	-804
ян	-805
нх	-806
ус	-807
▁нц	-808
▁мгаа	-809
▁мгаал	-810
▁үзүүл	-811
▁агд	-812
▁A	-813
▁үй	-814
иа	-815
▁гэнэ	-816
▁хууль	-817
▁ла	-818
▁лсан	-819
▁нирх	-820
▁Манай	-821
▁үргэл	-822
▁Ий	-823
▁итгэ	-824
▁рд	-825
▁чух	-826
▁сонс	-827
▁лоо	-828
▁Тан	-829
▁чухал	-830
▁тэм	-831
▁дугаа	-832
▁Ийм	-833
▁эц	-834
▁тур	-835
▁аараа	-836
▁дг	-837
гө	-838
тад	-839
▁бүгд	-840
▁из	-841
▁дунд	-842
▁чууд	-843
▁анхаа	-844
эрг	-845
чид	-846
▁аль	-847
▁рө	-848
▁хөд	-849
▁шийдв	-850
▁жүүл	-851
▁мөр	-852
▁гу	-853
▁яг	-854
▁эрлэ	-855
▁чиг	-856
▁Өөр	-857
▁В	-858
▁C	-859
▁УИ	-860
▁өөрөө	-861
не	-862
▁ирэх	-863
▁олг	-864
▁хувь	-865
▁ханд	-866
▁чүүд	-867
▁шу	-868
▁P	-869
тэ	-870
▁хийсэ	-871
▁ном	-872
▁хөг	-873
▁тэн	-874
▁өндөр	-875
▁ач	-876
▁учир	-877
▁гад	-878
▁ээрээ	-879
▁дот	-880
▁хойш	-881
▁m	-882
▁биз	-883
▁авсан	-884
▁ханга	-885
тр	-886
▁сайд	-887
▁зах	-888
▁эз	-889
▁лб	-890
▁го	-891
▁хэсэг	-892
▁хээр	-893
▁хэзээ	-894
▁ахад	-895
▁олох	-896
▁Өнөө	-897
▁хамаа	-898
▁өлөв	-899
▁зо	-900
▁зарим	-901
▁Хэрэв	-902
▁жл	-903
▁ов	-904
▁оод	-905
▁лбар	-906
▁мэт	-907
▁УИХ	-908
▁цу	-909
▁орж	-910
▁үч	-911
ьц	-912
▁залуу	-913
▁хариу	-914
▁чан	-915
▁хүргэ	-916
▁хот	-917
▁бусад	-918
▁ээж	-919
гай	-920
▁му	-921
▁амжи	-922
▁уулз	-923
▁айм	-924
▁гарч	-925
▁байв	-926
▁бие	-927
▁Хо	-928
▁дор	-929
▁Бү	-930
▁уур	-931
▁өлб	-932
▁Нэг	-933
▁өлбөр	-934
өлт	-935
лээ	-936
▁ээгүй	-937
▁бодож	-938
▁ож	-939
▁өгөх	-940
аал	-941
▁үгээр	-942
чл	-943
▁те	-944
▁лтай	-945
жл	-946
▁АНУ	-947
▁хээ	-948
▁сүүл	-949
▁T	-950
▁гоор	-951
▁ани	-952
▁ви	-953
ирд	-954
▁ом	-955
▁ули	-956
▁лан	-957
▁надад	-958
▁бүтээ	-959
жиг	-960
▁_	-961
▁уули	-962
▁яаж	-963
▁Чи	-964
▁олом	-965
▁дуус	-966
▁Ф	-967
имт	-968
▁огтоо	-969
▁инг	-970
▁зам	-971
▁оломж	-972
▁үйлчи	-973
▁нууд	-974
▁эдний	-975
▁эрэг	-976
▁эрээр	-977
▁өрө	-978
▁явуул	-979
▁n	-980
▁шийд	-981
▁сая	-982
айн	-983
▁зураг	-984
▁эний	-985
▁амьда	-986
▁хон	-987
▁тгэ	-988
▁кино	-989
▁шалга	-990
▁хур	-991
▁ли	-992
▁олж	-993
чим	-994
▁турш	-995
▁Түү	-996
▁бур	-997
▁чанар	-998
▁ъ	-999
▁аат	-1000
эвч	-1001
▁тавь	-1002
цоо	-1003
▁ухайн	-1004
лог	-1005
▁намай	-1006
▁t	-1007
▁дүр	-1008
▁амь	-1009
▁сны	-1010
гээ	-1011
▁өдр	-1012
▁айхад	-1013
▁B	-1014
▁олго	-1015
▁охоор	-1016
▁арил	-1017
▁удирд	-1018
▁олб	-1019
▁Хя	-1020
▁тави	-1021
▁лтэй	-1022
▁лдол	-1023
▁охин	-1024
цө	-1025
▁гал	-1026
▁нэмэ	-1027
▁Хятад	-1028
▁нөлөө	-1029
▁Ма	-1030
▁мар	-1031
▁хэлж	-1032
▁I	-1033
▁дөө	-1034
▁өрөө	-1035
▁b	-1036
▁түүх	-1037
▁ргал	-1038
▁угаа	-1039
▁чам	-1040
▁Зас	-1041
▁муу	-1042
▁отой	-1043
▁лч	-1044
▁яах	-1045
▁явж	-1046
▁зориу	-1047
те	-1048
▁эргэ	-1049
▁үгүй	-1050
▁дэхүү	-1051
▁ян	-1052
▁Засг	-1053
▁ажлын	-1054
лон	-1055
▁өгс	-1056
▁адил	-1057
сд	-1058
▁дэв	-1059
▁лэх	-1060
▁нөө	-1061
▁зай	-1062
▁суур	-1063
▁асг	-1064
▁хөдөл	-1065
▁Таны	-1066
шин	-1067
▁шалтг	-1068
▁N	-1069
▁магад	-1070
▁элхий	-1071
▁вал	-1072
▁мэргэ	-1073
▁алга	-1074
▁рил	-1075
▁анги	-1076
этэл	-1077
▁Гэтэл	-1078
▁ье	-1079
▁мал	-1080
▁Тэг	-1081
▁эгч	-1082
▁илэр	-1083
▁газры	-1084
▁иг	-1085
▁тээ	-1086
▁мэнд	-1087
▁найз	-1088
▁аримт	-1089
▁үндэс	-1090
▁эмдэг	-1091
▁олдог	-1092
▁буруу	-1093
▁сонгу	-1094
таг	-1095
▁Ха	-1096
▁хэд	-1097
▁өвш	-1098
▁төрл	-1099
тер	-1100
▁r	-1101
▁олоод	-1102
▁Их	-1103
▁зу	-1104
нес	-1105
▁длыг	-1106
охир	-1107
▁ргаа	-1108
ит	-1109
▁рах	-1110
▁лсын	-1111
▁явах	-1112
▁дын	-1113
▁өвшө	-1114
▁үтээ	-1115
▁дотор	-1116
▁изнес	-1117
▁үүс	-1118
▁анилц	-1119
араа	-1120
▁D	-1121
▁нөхцө	-1122
▁рөнгө	-1123
▁гү	-1124
▁нуу	-1125
▁Бат	-1126
▁вэл	-1127
луу	-1128
▁хийл	-1129
▁өөрсд	-1130
АН	-1131
▁бүрэн	-1132
▁аюу	-1133
▁судал	-1134
▁мэдэ	-1135
▁эрүүл	-1136
▁аюул	-1137
▁үсгүй	-1138
▁үлээн	-1139
▁арай	-1140
▁риу	-1141
▁цаа	-1142
элц	-1143
▁элэлц	-1144
▁ирж	-1145
▁гурва	-1146
▁аатар	-1147
жил	-1148
▁c	-1149
on	-1150
▁олгон	-1151
▁;	-1152
▁хайр	-1153
▁эгвэл	-1154
▁аарай	-1155
▁хэлэх	-1156
▁эдийн	-1157
▁сл	-1158
▁асан	-1159
яа	-1160
▁лэгч	-1161
▁асаг	-1162
сөл	-1163
▁харж	-1164
ут	-1165
▁өгсөн	-1166
▁айвал	-1167
▁сол	-1168
▁үеийн	-1169
▁үм	-1170
ван	-1171
▁*	-1172
▁итг	-1173
▁G	-1174
▁цо	-1175
▁гоо	-1176
▁олов	-1177
▁араа	-1178
цаа	-1179
▁Өм	-1180
▁охион	-1181
▁хоор	-1182
▁жуул	-1183
▁үтээг	-1184
шээ	-1185
▁Ямар	-1186
▁урд	-1187
▁буюу	-1188
▁H	-1189
▁төн	-1190
▁үлд	-1191
▁айн	-1192
▁про	-1193
▁хүрээ	-1194
▁гарах	-1195
▁өхө	-1196
▁цэ	-1197
▁дуул	-1198
▁лөгөө	-1199
▁гр	-1200
▁танд	-1201
▁Гэвч	-1202
▁эхэд	-1203
▁эдээж	-1204
▁мт	-1205
▁рш	-1206
▁Хүн	-1207
▁лэн	-1208
▁долоо	-1209
▁аав	-1210
▁амар	-1211
▁маар	-1212
▁Тэгэх	-1213
▁гаруй	-1214
▁орох	-1215
▁хоол	-1216
▁Инг	-1217
▁ухаан	-1218
чиж	-1219
өгөө	-1220
▁нутаг	-1221
▁нутг	-1222
▁харин	-1223
▁зэр	-1224
▁F	-1225
▁эрв	-1226
▁зэрэг	-1227
▁оч	-1228
▁ичээл	-1229
▁нү	-1230
▁нхөө	-1231
▁лын	-1232
▁адаг	-1233
▁Оро	-1234
нт	-1235
▁l	-1236
▁даад	-1237
▁оллоо	-1238
▁хүлээ	-1239
▁хооро	-1240
▁бүү	-1241
▁уудыг	-1242
▁Олон	-1243
▁Орос	-1244
▁зохи	-1245
▁ойр	-1246
in	-1247
ar	-1248
энх	-1249
▁үнэн	-1250
▁гаан	-1251
▁улсад	-1252
▁мян	-1253
▁ни	-1254
▁тат	-1255
▁бээр	-1256
▁Ар	-1257
▁тн	-1258
▁төв	-1259
▁уль	-1260
▁ярилц	-1261
▁минут	-1262
▁нирхо	-1263
▁ингэж	-1264
▁олжээ	-1265
▁арла	-1266
мж	-1267
▁анк	-1268
▁олбоо	-1269
▁мянга	-1270
▁Ю	-1271
▁сп	-1272
▁оловч	-1273
▁олтой	-1274
▁дэмж	-1275
▁[	-1276
▁йлбар	-1277
▁20	-1278
▁цэв	-1279
хаа	-1280
▁гэвэл	-1281
▁чадва	-1282
▁лө	-1283
▁вс	-1284
▁явдал	-1285
▁глоо	-1286
▁аасаа	-1287
▁глоом	-1288
ца	-1289
▁дүн	-1290
▁w	-1291
▁тга	-1292
▁дамж	-1293
▁төл	-1294
нөх	-1295
▁хэц	-1296
▁зөвлө	-1297
дө	-1298
▁ерөнх	-1299
▁g	-1300
▁өөд	-1301
▁эрвээ	-1302
▁Ул	-1303
▁рүү	-1304
▁батал	-1305
▁гэл	-1306
▁гэм	-1307
▁авна	-1308
▁сард	-1309
даа	-1310
▁тогт	-1311
▁шууд	-1312
or	-1313
▁барь	-1314
▁R	-1315
▁үзэх	-1316
▁хөт	-1317
▁Жи	-1318
▁Энх	-1319
▁уш	-1320
▁Зар	-1321
▁сийн	-1322
▁сайт	-1323
▁Хам	-1324
▁сал	-1325
▁өгч	-1326
▁ярьж	-1327
▁хэцүү	-1328
уулг	-1329
▁Уг	-1330
▁er	-1331
▁гчид	-1332
▁члөлт	-1333
▁нгээд	-1334
▁рл	-1335
an	-1336
▁хгүй	-1337
▁гдсэн	-1338
лөө	-1339
▁Хамг	-1340
▁ъя	-1341
▁хэт	-1342
▁хний	-1343
▁дагуу	-1344
▁эргүү	-1345
▁агвар	-1346
▁өрсөн	-1347
▁хэрг	-1348
▁мер	-1349
▁Зарим	-1350
▁тохир	-1351
▁не	-1352
▁гайха	-1353
▁унш	-1354
▁дгал	-1355
▁харьц	-1356
▁#	-1357
▁E	-1358
▁эрч	-1359
▁авар	-1360
▁шат	-1361
▁нээ	-1362
▁эдий	-1363
▁Дараа	-1364
нуу	-1365
▁алх	-1366
▁гэхэд	-1367
▁лийг	-1368
рэг	-1369
▁лгүй	-1370
▁саар	-1371
▁цах	-1372
▁араах	-1373
▁гүйцэ	-1374
орт	-1375
бө	-1376
▁лттай	-1377
▁]	-1378
▁лах	-1379
▁өргө	-1380
▁дө	-1381
сгал	-1382
▁чиглэ	-1383
▁Эр	-1384
▁нүүр	-1385
▁гт	-1386
▁нутги	-1387
▁p	-1388
рэ	-1389
лу	-1390
▁зохио	-1391
▁Ху	-1392
▁алда	-1393
▁эгд	-1394
▁L	-1395
▁зүйлс	-1396
▁хороо	-1397
▁ле	-1398
▁гаад	-1399
ба	-1400
▁ээсээ	-1401
▁дага	-1402
▁анхны	-1403
▁Үнэ	-1404
▁Ев	-1405
▁үлээж	-1406
▁гэв	-1407
▁төө	-1408
▁мжгүй	-1409
лага	-1410
▁зов	-1411
▁ажилд	-1412
ул	-1413
роп	-1414
▁мерик	-1415
▁идэнд	-1416
▁жаа	-1417
Би	-1418
▁унши	-1419
▁оно	-1420
▁хөл	-1421
▁айжээ	-1422
▁W	-1423
▁багш	-1424
▁дэмжи	-1425
▁аавал	-1426
▁Бүх	-1427
▁эсрэг	-1428
▁алын	-1429
иал	-1430
▁цааш	-1431
▁руул	-1432
▁гасан	-1433
▁гдсан	-1434
▁дгээр	-1435
▁элб	-1436
▁жа	-1437
▁ран	-1438
▁им	-1439
дөг	-1440
▁отын	-1441
▁дэл	-1442
▁шил	-1443
er	-1444
▁зү	-1445
▁ахир	-1446
▁ураг	-1447
▁ярих	-1448
▁эмч	-1449
▁лгой	-1450
▁цэц	-1451
▁мо	-1452
▁сис	-1453
▁үзэж	-1454
▁утлуу	-1455
▁Үнд	-1456
▁үртгэ	-1457
▁увийн	-1458
▁унт	-1459
▁бүхэн	-1460
▁элтгэ	-1461
▁дээд	-1462
нэр	-1463
▁луул	-1464
чиг	-1465
▁систе	-1466
▁чөлөө	-1467
▁уулж	-1468
▁лдолд	-1469
▁кс	-1470
▁снээр	-1471
▁дээрх	-1472
▁бэр	-1473
▁ульд	-1474
▁орны	-1475
▁шүүх	-1476
▁өрөл	-1477
▁олохы	-1478
▁ик	-1479
▁өдрий	-1480
▁ре	-1481
▁хүчин	-1482
▁рагд	-1483
▁Ний	-1484
▁ээрэй	-1485
▁ахаар	-1486
инэ	-1487
▁олчих	-1488
▁аал	-1489
рөг	-1490
▁Хүүхд	-1491
▁өгрөг	-1492
▁дөг	-1493
▁Са	-1494
▁онго	-1495
▁уна	-1496
▁се	-1497
▁За	-1498
▁Шинэ	-1499
▁ес	-1500
▁харах	-1501
▁инээ	-1502
▁орчин	-1503
▁тусга	-1504
▁рдэнэ	-1505
▁шгүй	-1506
▁бараг	-1507
▁ср	-1508
до	-1509
▁шинж	-1510
▁үмэн	-1511
▁оё	-1512
▁үрх	-1513
▁зург	-1514
▁тань	-1515
▁лдэг	-1516
ма	-1517
▁u	-1518
▁ргалт	-1519
▁зог	-1520
▁Өөрий	-1521
▁МАН	-1522
пон	-1523
▁элэн	-1524
▁хад	-1525
▁игч	-1526
▁төнц	-1527
▁Европ	-1528
▁ган	-1529
▁лого	-1530
▁нө	-1531
▁урдан	-1532
▁зогс	-1533
▁гадна	-1534
▁ста	-1535
▁Учир	-1536
▁Япон	-1537
▁эй	-1538
▁эсэх	-1539
▁аял	-1540
▁уудас	-1541
▁рь	-1542
▁үд	-1543
▁рай	-1544
▁рөө	-1545
▁тэг	-1546
▁орсон	-1547
oo	-1548
▁охир	-1549
▁Улс	-1550
▁лгэ	-1551
▁өрв	-1552
▁гө	-1553
▁ра	-1554
▁цагт	-1555
чээ	-1556
▁лүүл	-1557
▁амьт	-1558
▁нэв	-1559
▁йртай	-1560
▁Үүний	-1561
▁амын	-1562
▁аймг	-1563
▁нс	-1564
▁уучин	-1565
▁архи	-1566
▁хичээ	-1567
▁нэхүү	-1568
▁бич	-1569
▁дэх	-1570
▁бүхий	-1571
▁чадна	-1572
▁30	-1573
▁иргэн	-1574
▁лэж	-1575
▁оноос	-1576
▁амай	-1577
▁·	-1578
▁буур	-1579
▁яриа	-1580
▁дүү	-1581
▁өж	-1582
▁грам	-1583
▁рэг	-1584
▁Ам	-1585
▁алтай	-1586
▁рсан	-1587
▁гөөн	-1588
▁вол	-1589
▁ирээд	-1590
ага	-1591
▁хаана	-1592
▁үүрэг	-1593
▁амайг	-1594
алд	-1595
▁нөхөр	-1596
▁ичиг	-1597
▁дрийн	-1598
▁элбэр	-1599
▁ис	-1600
▁оог	-1601
▁мээр	-1602
▁эхний	-1603
▁сныг	-1604
▁лтой	-1605
▁ээв	-1606
st	-1607
лэх	-1608
▁ралд	-1609
▁аваад	-1610
▁ушаал	-1611
▁улам	-1612
▁ак	-1613
▁рийн	-1614
▁тон	-1615
▁хэвлэ	-1616
▁Да	-1617
▁гуй	-1618
▁утас	-1619
▁вср	-1620
▁рхойл	-1621
▁арь	-1622
этг	-1623
le	-1624
▁лга	-1625
▁нис	-1626
▁онгос	-1627
▁мент	-1628
▁гоё	-1629
▁янз	-1630
▁Ту	-1631
▁хөгжи	-1632
▁рм	-1633
▁зайл	-1634
▁эрс	-1635
▁нарын	-1636
▁гэрээ	-1637
▁Ард	-1638
лах	-1639
▁оронд	-1640
▁цэвэр	-1641
▁ва	-1642
▁ихэнх	-1643
илт	-1644
at	-1645
▁өсл	-1646
▁орнуу	-1647
▁цагда	-1648
▁зүү	-1649
▁рой	-1650
▁жижиг	-1651
▁логи	-1652
▁итгий	-1653
▁спорт	-1654
▁Оюу	-1655
▁нэт	-1656
▁хэсг	-1657
▁өн	-1658
▁жаг	-1659
▁огс	-1660
▁ллийг	-1661
▁рдаг	-1662
▁орхи	-1663
▁цуг	-1664
▁хүссэ	-1665
▁таа	-1666
▁авто	-1667
▁батла	-1668
▁нийл	-1669
▁сс	-1670
▁Хэн	-1671
▁хуваа	-1672
▁бодит	-1673
▁найд	-1674
▁ндээ	-1675
▁'	-1676
▁агүй	-1677
▁тун	-1678
▁ааны	-1679
▁нууц	-1680
▁Өмнө	-1681
ен	-1682
▁ичсэн	-1683
▁Эм	-1684
▁аяг	-1685
▁дан	-1686
▁нөгөө	-1687
▁Гэр	-1688
▁vv	-1689
▁урт	-1690
хно	-1691
▁ажлыг	-1692
сл	-1693
▁анай	-1694
▁риул	-1695
▁улаан	-1696
▁этгэ	-1697
▁атвар	-1698
ль	-1699
▁йрла	-1700
▁O	-1701
▁in	-1702
▁өрөөр	-1703
ac	-1704
▁хөө	-1705
▁алдаа	-1706
▁12	-1707
▁Ир	-1708
▁•	-1709
▁нга	-1710
▁тэнд	-1711
▁тээл	-1712
▁элг	-1713
▁соё	-1714
▁өнгө	-1715
▁тг	-1716
▁сээр	-1717
▁арч	-1718
▁эгүй	-1719
▁ль	-1720
▁лол	-1721
▁оюу	-1722
хү	-1723
▁сруул	-1724
▁ллийн	-1725
▁мс	-1726
▁урьд	-1727
▁зарла	-1728
re	-1729
▁d	-1730
▁отоод	-1731
▁хая	-1732
▁хүсч	-1733
▁гдэл	-1734
▁суури	-1735
▁санхү	-1736
▁зүйн	-1737
▁йгээд	-1738
▁чээ	-1739
▁өгнө	-1740
▁дорж	-1741
▁элт	-1742
▁уран	-1743
▁on	-1744
▁ахуй	-1745
▁илцаа	-1746
▁рилго	-1747
▁чамай	-1748
▁үт	-1749
▁лдвар	-1750
▁увц	-1751
▁түүнд	-1752
▁Яг	-1753
▁оогүй	-1754
▁лиг	-1755
▁үүсгэ	-1756
▁сэд	-1757
арга	-1758
▁Бас	-1759
▁ааш	-1760
▁дээш	-1761
▁үеэр	-1762
арт	-1763
▁чил	-1764
▁аасан	-1765
▁сум	-1766
▁айхыг	-1767
▁өгүүл	-1768
▁явц	-1769
▁явдаг	-1770
▁өрвөн	-1771
▁өглөө	-1772
▁лц	-1773
▁али	-1774
▁сийг	-1775
▁ажлаа	-1776
▁тооц	-1777
ти	-1778
▁йм	-1779
▁бүл	-1780
▁урхай	-1781
▁андаа	-1782
▁ичлэг	-1783
▁ро	-1784
▁нэвтр	-1785
▁огсоо	-1786
▁гчд	-1787
▁хям	-1788
▁увцас	-1789
▁соли	-1790
▁J	-1791
▁ск	-1792
▁гж	-1793
нэл	-1794
▁нхэнэ	-1795
▁удаан	-1796
▁хуу	-1797
▁намын	-1798
▁бүли	-1799
▁рис	-1800
▁авдаг	-1801
зга	-1802
ou	-1803
▁гдаж	-1804
▁гэлээ	-1805
▁зохиц	-1806
▁нл	-1807
ды	-1808
▁эрт	-1809
▁бо	-1810
▁эхнэр	-1811
▁Хоёр	-1812
▁хяна	-1813
▁өмнөх	-1814
▁зуун	-1815
▁алуу	-1816
▁сонин	-1817
▁үйлчл	-1818
▁всрол	-1819
▁өрөмж	-1820
▁лав	-1821
▁жилд	-1822
▁даж	-1823
▁є	-1824
▁ахыг	-1825
▁цар	-1826
▁дүүр	-1827
▁аалт	-1828
▁лаас	-1829
ум	-1830
▁сэргэ	-1831
▁гурав	-1832
▁үндсэ	-1833
▁сайж	-1834
▁жишээ	-1835
▁мэднэ	-1836
▁жагса	-1837
дий	-1838
▁Ор	-1839
▁уй	-1840
▁алба	-1841
▁гааны	-1842
▁лим	-1843
▁f	-1844
▁мон	-1845
▁тэмц	-1846
▁өмс	-1847
▁арилц	-1848
▁11	-1849
▁15	-1850
▁Га	-1851
▁ко	-1852
▁нтэй	-1853
▁нэрлэ	-1854
▁гдох	-1855
▁mn	-1856
▁анийн	-1857
▁ынхаа	-1858
▁эхгүй	-1859
▁орчим	-1860
▁Сол	-1861
▁100	-1862
▁энгэр	-1863
▁агдах	-1864
▁жлийн	-1865
▁техно	-1866
▁жү	-1867
▁ня	-1868
▁суурь	-1869
▁унд	-1870
▁члөг	-1871
▁таныг	-1872
▁төсөл	-1873
▁хязга	-1874
▁нгу	-1875
▁Гэ	-1876
▁нүүд	-1877
▁мийн	-1878
▁сэтг	-1879
▁нийгм	-1880
▁лз	-1881
▁лон	-1882
▁лээр	-1883
▁бүс	-1884
▁бодох	-1885
▁нээл	-1886
▁утга	-1887
▁зарц	-1888
▁Y	-1889
om	-1890
▁жин	-1891
▁яла	-1892
▁дад	-1893
▁Юу	-1894
▁албай	-1895
эмш	-1896
▁жарга	-1897
▁жур	-1898
▁нэгд	-1899
▁нцг	-1900
▁элгэр	-1901
▁алагд	-1902
▁хийнэ	-1903
▁эцэг	-1904
▁ью	-1905
▁дамжу	-1906
▁ралц	-1907
▁айнга	-1908
▁рвал	-1909
▁ээлий	-1910
▁вр	-1911
▁соёл	-1912
▁мат	-1913
▁рам	-1914
▁суд	-1915
▁хл	-1916
▁ргааш	-1917
▁ьсгал	-1918
▁лыг	-1919
▁дсэн	-1920
▁барьж	-1921
▁мын	-1922
▁наад	-1923
▁судла	-1924
▁цэрг	-1925
▁Өнгөр	-1926
▁50	-1927
▁эзэмш	-1928
▁өвч	-1929
▁захи	-1930
▁айлга	-1931
▁лгалт	-1932
Та	-1933
▁өвд	-1934
▁оли	-1935
▁>	-1936
▁U	-1937
члэ	-1938
▁вид	-1939
▁арам	-1940
▁Нүүр	-1941
▁йх	-1942
▁лаж	-1943
▁орно	-1944
▁хүрэх	-1945
▁лаан	-1946
▁урга	-1947
▁чиний	-1948
▁улалт	-1949
ео	-1950
▁h	-1951
▁ен	-1952
▁очиж	-1953
▁улийн	-1954
▁эгж	-1955
▁огүй	-1956
▁гом	-1957
▁шаг	-1958
▁члөгд	-1959
▁хат	-1960
▁нээлт	-1961
al	-1962
▁ялгаа	-1963
▁аниу	-1964
▁сууж	-1965
зо	-1966
▁Баяр	-1967
▁аяа	-1968
▁Сайн	-1969
▁ааж	-1970
▁хил	-1971
▁ээдүй	-1972
▁үгийн	-1973
мүүс	-1974
▁үмүүс	-1975
▁өмбө	-1976
хн	-1977
▁үйлдэ	-1978
▁өрч	-1979
▁аруун	-1980
▁улагд	-1981
▁лтын	-1982
▁лалаа	-1983
▁ахгүй	-1984
▁ерм	-1985
▁гэрэл	-1986
▁гдэж	-1987
▁чамд	-1988
▁лбарт	-1989
▁жо	-1990
▁Энд	-1991
▁өрг	-1992
▁бүлэг	-1993
▁тэмцэ	-1994
▁лаанб	-1995
▁вар	-1996
▁өөсөө	-1997
▁хыг	-1998
▁эрхүү	-1999
▁улгай	-2000
▁дөл	-2001
▁нэгүй	-2002
▁эмнэл	-2003
▁тов	-2004
▁үнг	-2005
▁цө	-2006
▁цлага	-2007
▁арт	-2008
▁шагна	-2009
▁ноос	-2010
▁тата	-2011
▁усгай	-2012
▁вч	-2013
▁дэлгэ	-2014
▁Хүний	-2015
▁хөгжл	-2016
▁яа	-2017
▁ижил	-2018
▁энгүй	-2019
▁ууч	-2020
▁гдах	-2021
▁ажээ	-2022
▁лгын	-2023
▁нөөц	-2024
▁өгдөг	-2025
▁хүрч	-2026
▁барих	-2027
▁амра	-2028
▁хаар	-2029
▁Тус	-2030
▁таван	-2031
▁эрб	-2032
▁тнууд	-2033
▁рна	-2034
▁эрбум	-2035
▁гаас	-2036
▁энги	-2037
эний	-2038
▁вир	-2039
▁лох	-2040
▁V	-2041
▁өч	-2042
▁йнх	-2043
▁уст	-2044
▁хнийг	-2045
▁яваа	-2046
▁ооцоо	-2047
▁шинжи	-2048
▁дууд	-2049
▁үүлэг	-2050
▁уулга	-2051
▁шуул	-2052
▁гэжээ	-2053
nt	-2054
▁бор	-2055
▁риг	-2056
▁цал	-2057
▁хаан	-2058
▁хураа	-2059
▁ийгэм	-2060
▁төрөл	-2061
▁Сүүл	-2062
▁нарий	-2063
▁гл	-2064
▁төс	-2065
▁ариу	-2066
▁ка	-2067
▁лөө	-2068
▁зогсо	-2069
▁тх	-2070
▁аян	-2071
▁оролд	-2072
▁ериал	-2073
▁угаар	-2074
▁уулах	-2075
▁Хө	-2076
▁гн	-2077
▁улг	-2078
▁хоо	-2079
▁зорил	-2080
▁аварг	-2081
▁нз	-2082
▁гжүүл	-2083
▁бэрх	-2084
▁юмаа	-2085
▁сайжр	-2086
▁бичих	-2087
▁рьд	-2088
▁арамс	-2089
▁онгоц	-2090
▁утг	-2091
▁хын	-2092
▁олцоо	-2093
▁тхэг	-2094
▁рж	-2095
▁Жишээ	-2096
▁рга	-2097
▁алуус	-2098
▁өргөн	-2099
▁мтр	-2100
▁гараг	-2101
▁хаг	-2102
▁ндаа	-2103
▁мтран	-2104
▁услах	-2105
▁ргө	-2106
▁сэл	-2107
▁найр	-2108
▁үедээ	-2109
▁эээ	-2110
▁гэмт	-2111
▁явна	-2112
▁лагын	-2113
▁уух	-2114
▁ив	-2115
▁хүүх	-2116
▁эргэн	-2117
▁ОХ	-2118
▁боль	-2119
▁үүнд	-2120
▁ага	-2121
▁маа	-2122
▁Надад	-2123
▁хатуу	-2124
▁Амьд	-2125
▁өлөө	-2126
▁өрсөл	-2127
▁лтан	-2128
▁нцгой	-2129
▁зас	-2130
▁яам	-2131
▁аниуд	-2132
▁тар	-2133
ss	-2134
▁жир	-2135
▁буца	-2136
▁нэчлэ	-2137
▁гдсон	-2138
▁талы	-2139
it	-2140
▁уудад	-2141
▁лжи	-2142
▁дурд	-2143
▁өнг	-2144
маа	-2145
▁Ес	-2146
▁Цаг	-2147
▁агда	-2148
▁мр	-2149
▁тос	-2150
▁ууж	-2151
▁хотод	-2152
▁цгаа	-2153
▁эе	-2154
▁эдэнд	-2155
▁худал	-2156
▁Й	-2157
▁Мо	-2158
▁мжийг	-2159
▁цахим	-2160
▁огч	-2161
▁рэм	-2162
▁ийнх	-2163
▁ачаа	-2164
▁лгүүр	-2165
▁тэнэг	-2166
▁илбар	-2167
▁энтэй	-2168
▁ээрэм	-2169
▁Бус	-2170
▁тусла	-2171
▁асгал	-2172
▁үчтэй	-2173
▁хүч	-2174
▁давха	-2175
▁мах	-2176
гч	-2177
из	-2178
▁Эх	-2179
▁тр	-2180
▁гайх	-2181
▁үзэл	-2182
▁бя	-2183
▁бал	-2184
▁рын	-2185
▁ахын	-2186
▁сууц	-2187
▁хоёры	-2188
▁Хэд	-2189
▁шү	-2190
члэн	-2191
▁Бусад	-2192
▁нчлэн	-2193
▁дут	-2194
▁одол	-2195
▁зан	-2196
▁ндарт	-2197
▁эрчим	-2198
▁шор	-2199
▁тор	-2200
▁лбал	-2201
▁y	-2202
▁сүл	-2203
▁монго	-2204
▁наа	-2205
▁өдлө	-2206
▁уруу	-2207
▁Ав	-2208
▁арилг	-2209
▁нлайн	-2210
▁ялбар	-2211
▁нөөс	-2212
▁үтэн	-2213
▁өрөх	-2214
am	-2215
▁чд	-2216
▁амж	-2217
▁ерман	-2218
▁өрт	-2219
▁эгэн	-2220
▁эсгэл	-2221
▁ашигт	-2222
▁үсэлт	-2223
▁сэ	-2224
▁аач	-2225
эвх	-2226
▁идэвх	-2227
▁үүдэд	-2228
▁татаж	-2229
▁эхлэх	-2230
ay	-2231
▁өнх	-2232
▁Ши	-2233
▁эрд	-2234
▁аран	-2235
▁дий	-2236
▁амир	-2237
▁үнэл	-2238
▁элж	-2239
▁болд	-2240
▁олой	-2241
▁ичг	-2242
▁улга	-2243
▁нгуяа	-2244
▁үхэнд	-2245
▁Ээж	-2246
▁хим	-2247
he	-2248
▁%	-2249
▁рэх	-2250
▁хүсэ	-2251
▁бичиж	-2252
▁үрээс	-2253
яг	-2254
▁ек	-2255
▁гц	-2256
▁оноо	-2257
▁тгал	-2258
мэ	-2259
▁риулт	-2260
▁ди	-2261
▁лтыг	-2262
▁бараа	-2263
▁энх	-2264
▁дийн	-2265
▁очих	-2266
▁вирус	-2267
▁цээ	-2268
▁айрла	-2269
▁урам	-2270
▁үрүү	-2271
▁Эс	-2272
▁Мэд	-2273
▁долла	-2274
▁рхайн	-2275
▁сламж	-2276
▁төдий	-2277
▁гүүр	-2278
▁инээр	-2279
▁эдлэг	-2280
▁Эмэг	-2281
▁рхэг	-2282
▁мш	-2283
▁лэд	-2284
▁уулза	-2285
▁эрлэх	-2286
▁нж	-2287
▁мэл	-2288
▁раг	-2289
▁оол	-2290
▁улмаа	-2291
▁Аав	-2292
▁лагыг	-2293
▁айз	-2294
▁үрд	-2295
▁сав	-2296
▁лэдэг	-2297
▁гдл	-2298
▁ухаа	-2299
▁авь	-2300
▁уйл	-2301
▁бос	-2302
▁дай	-2303
▁эрсдэ	-2304
▁өвлө	-2305
▁бэлэг	-2306
▁йгал	-2307
▁товч	-2308
▁Хэрэг	-2309
▁нги	-2310
▁лаар	-2311
▁йгаль	-2312
▁сгэ	-2313
▁агаар	-2314
▁жлүүл	-2315
▁аах	-2316
▁анайд	-2317
▁чихса	-2318
▁ло	-2319
▁зөө	-2320
▁маяг	-2321
▁тгалз	-2322
▁14	-2323
▁зөр	-2324
▁алдар	-2325
▁яваад	-2326
▁айдл	-2327
ци	-2328
▁устга	-2329
▁снаар	-2330
▁нт	-2331
▁шаш	-2332
▁таар	-2333
▁Өд	-2334
▁элээд	-2335
▁цөө	-2336
▁арван	-2337
▁Па	-2338
▁стр	-2339
▁тэнц	-2340
▁хиад	-2341
▁эмэлт	-2342
▁рист	-2343
▁Үндсэ	-2344
эхэ	-2345
▁алтын	-2346
▁нох	-2347
▁там	-2348
▁яналт	-2349
▁хал	-2350
▁эцэс	-2351
▁агдаж	-2352
▁хийгд	-2353
▁айдлы	-2354
▁мэдрэ	-2355
▁айгал	-2356
▁Мө	-2357
▁лтгүй	-2358
▁ОХУ	-2359
▁бна	-2360
▁бэрхш	-2361
▁40	-2362
▁оёр	-2363
▁үүлэх	-2364
▁арг	-2365
▁мний	-2366
▁дарг	-2367
▁үхэл	-2368
▁яриад	-2369
▁чн	-2370
▁Маг	-2371
▁шөн	-2372
▁Амьдр	-2373
▁үгийг	-2374
▁гс	-2375
▁улан	-2376
▁Үндэс	-2377
▁Ингэ	-2378
▁оёрд	-2379
▁Гэсэн	-2380
▁ухам	-2381
▁хүсэл	-2382
▁үүн	-2383
▁зүтгэ	-2384
▁оох	-2385
▁амаг	-2386
▁алаа	-2387
▁рэмж	-2388
▁лчууд	-2389
▁Ne	-2390
▁лтийн	-2391
▁тогто	-2392
▁MN	-2393
▁шг	-2394
нгли	-2395
▁Англи	-2396
▁давуу	-2397
▁дрийг	-2398
▁тугай	-2399
▁ьютер	-2400
▁X	-2401
▁яар	-2402
▁ваал	-2403
гуй	-2404
▁юуг	-2405
▁видео	-2406
▁рвалж	-2407
▁Гар	-2408
▁ваалц	-2409
▁сүлжэ	-2410
▁өсөв	-2411
▁ирдэг	-2412
▁өрүүл	-2413
▁явдл	-2414
▁сонсо	-2415
игл	-2416
▁эк	-2417
▁бүтэ	-2418
▁нарт	-2419
▁K	-2420
▁Нийт	-2421
▁суух	-2422
▁логын	-2423
▁чуулг	-2424
▁хаагч	-2425
▁Со	-2426
▁зарна	-2427
▁итгэл	-2428
▁Су	-2429
▁сний	-2430
▁йнхүү	-2431
▁Хүр	-2432
▁илр	-2433
▁асал	-2434
▁гаары	-2435
▁нцлог	-2436
▁нгийн	-2437
▁унших	-2438
▁үлдээ	-2439
▁тол	-2440
▁Хүрэл	-2441
▁жааха	-2442
▁илгээ	-2443
▁туул	-2444
▁нэтэй	-2445
үс	-2446
▁ве	-2447
ана	-2448
▁орд	-2449
▁талд	-2450
▁өмөр	-2451
▁Магад	-2452
▁борлу	-2453
▁уудын	-2454
▁лөн	-2455
▁члөх	-2456
▁цалин	-2457
▁зэв	-2458
▁төсв	-2459
▁улир	-2460
▁|	-2461
▁хөгж	-2462
▁бусды	-2463
▁сурта	-2464
▁үүгээ	-2465
▁ирнэ	-2466
▁тавих	-2467
▁сурга	-2468
▁үүц	-2469
▁гнэлт	-2470
▁охиро	-2471
▁сэг	-2472
▁орт	-2473
▁лээд	-2474
▁уучла	-2475
▁x	-2476
хник	-2477
▁гарын	-2478
▁ехник	-2479
▁хайж	-2480
▁Ажл	-2481
▁олл	-2482
▁чнээн	-2483
▁мд	-2484
▁анга	-2485
▁огино	-2486
▁вь	-2487
▁өөн	-2488
▁рлог	-2489
▁Есүс	-2490
▁арах	-2491
▁оохон	-2492
▁ахуйн	-2493
▁снаас	-2494
▁амхи	-2495
▁Нөгөө	-2496
▁олгой	-2497
▁ок	-2498
▁чимэ	-2499
▁эндээ	-2500
▁мтлаг	-2501
▁алгүй	-2502
▁лөх	-2503
▁бүрт	-2504
▁өмч	-2505
▁эжээ	-2506
▁явагд	-2507
▁эмчи	-2508
▁сүх	-2509
▁Ажил	-2510
▁аван	-2511
▁Фр	-2512
▁амиа	-2513
▁болзо	-2514
▁эсэрг	-2515
▁шоро	-2516
▁урлаг	-2517
▁муж	-2518
▁мтдаа	-2519
▁иу	-2520
▁ороод	-2521
▁огц	-2522
▁цэг	-2523
▁Бүгд	-2524
▁мшиг	-2525
▁хэнд	-2526
▁эхлүү	-2527
▁лгуур	-2528
▁ортой	-2529
▁эрхлэ	-2530
▁ажигл	-2531
▁эрэгт	-2532
▁рита	-2533
ot	-2534
▁шо	-2535
▁нцло	-2536
▁шөнө	-2537
▁өгжи	-2538
▁гдүүл	-2539
▁лжүүл	-2540
▁марта	-2541
▁оороо	-2542
▁ум	-2543
▁сэрг	-2544
▁ws	-2545
▁арьс	-2546
▁идэх	-2547
▁өрөлх	-2548
ХА	-2549
▁вак	-2550
▁лцоо	-2551
▁хүчи	-2552
▁айван	-2553
▁арилд	-2554
▁өөгүй	-2555
▁блог	-2556
▁нохой	-2557
▁цээн	-2558
▁Мэдээ	-2559
▁аалга	-2560
▁интер	-2561
▁адаас	-2562
▁элийн	-2563
▁дыг	-2564
▁рлого	-2565
▁анаас	-2566
▁царай	-2567
▁заа	-2568
▁мог	-2569
▁охид	-2570
▁дэвши	-2571
▁нарыг	-2572
▁бөх	-2573
▁вшин	-2574
▁хамр	-2575
▁бодис	-2576
▁ургүй	-2577
▁це	-2578
▁лин	-2579
▁данс	-2580
▁яахав	-2581
▁хууд	-2582
▁хүсэж	-2583
▁кл	-2584
▁ахи	-2585
▁тоног	-2586
▁цэцэр	-2587
▁алуун	-2588
▁удлаа	-2589
▁арк	-2590
▁амла	-2591
▁сах	-2592
▁улуун	-2593
▁иеийн	-2594
ic	-2595
▁18	-2596
▁лаад	-2597
▁шир	-2598
▁Франц	-2599
▁тнүүд	-2600
▁цэцэг	-2601
▁дон	-2602
▁ойро	-2603
▁рс	-2604
▁над	-2605
▁эмээ	-2606
▁иел	-2607
▁инд	-2608
▁амирч	-2609
▁нүд	-2610
▁усд	-2611
▁рк	-2612
▁ань	-2613
▁аялал	-2614
▁хуудс	-2615
▁Өмнөх	-2616
il	-2617
▁нэгн	-2618
▁үлэг	-2619
▁Эрүүл	-2620
nd	-2621
▁цөөн	-2622
▁алдса	-2623
▁бүрд	-2624
▁зэрг	-2625
▁аймаг	-2626
▁ист	-2627
▁Ганц	-2628
ьцаа	-2629
▁вьцаа	-2630
▁Бага	-2631
▁нийн	-2632
▁орос	-2633
▁тайла	-2634
▁йд	-2635
▁сул	-2636
▁Ажлын	-2637
▁Нам	-2638
▁члал	-2639
▁нжл	-2640
▁нүү	-2641
▁ргэн	-2642
▁улаа	-2643
▁мп	-2644
▁шүүл	-2645
▁оршин	-2646
▁алж	-2647
▁хятад	-2648
▁вэб	-2649
▁чла	-2650
▁ахиал	-2651
▁раа	-2652
▁шуу	-2653
▁ориу	-2654
▁алтад	-2655
▁шүүмж	-2656
▁нгэ	-2657
▁угуй	-2658
▁гддаг	-2659
▁далай	-2660
▁длаар	-2661
▁оллар	-2662
ol	-2663
▁Аф	-2664
▁вөл	-2665
▁нда	-2666
▁авра	-2667
▁алхам	-2668
▁осго	-2669
▁Эсвэл	-2670
▁Ном	-2671
▁тний	-2672
▁дн	-2673
▁Ардчи	-2674
▁Сэтгэ	-2675
гэд	-2676
▁анз	-2677
▁Иргэд	-2678
▁Хууль	-2679
▁Анх	-2680
▁вор	-2681
▁Орон	-2682
▁тэгж	-2683
би	-2684
▁нгис	-2685
▁ажилч	-2686
▁мод	-2687
▁улгар	-2688
▁иний	-2689
▁рахад	-2690
▁гах	-2691
▁сэдэв	-2692
▁ion	-2693
▁лам	-2694
▁хагас	-2695
▁25	-2696
▁она	-2697
▁иелүү	-2698
▁ригло	-2699
▁өсөө	-2700
▁Өг	-2701
▁шаа	-2702
▁мөрдө	-2703
▁ёсоор	-2704
▁ламж	-2705
▁Нийсл	-2706
▁гэний	-2707
ad	-2708
тан	-2709
▁Сү	-2710
▁айнаа	-2711
▁тэ	-2712
▁13	-2713
▁хурд	-2714
▁дэд	-2715
▁оюут	-2716
▁аяхан	-2717
▁гэг	-2718
▁үжиг	-2719
▁ирлээ	-2720
▁оц	-2721
▁вшинд	-2722
▁ргийг	-2723
▁лад	-2724
▁дүнд	-2725
▁ахдаа	-2726
▁цгэ	-2727
▁эгш	-2728
▁рчим	-2729
▁рик	-2730
▁нжлэх	-2731
▁лны	-2732
▁гомдо	-2733
▁ази	-2734
▁асар	-2735
▁өдөрт	-2736
▁зочи	-2737
▁олбор	-2738
▁дүгээ	-2739
▁цахил	-2740
▁энгэ	-2741
▁гджээ	-2742
▁ялга	-2743
▁ориул	-2744
▁цуглу	-2745
▁фе	-2746
▁сэр	-2747
▁орх	-2748
▁ами	-2749
▁гши	-2750
▁арсан	-2751
en	-2752
▁ого	-2753
▁эрчүү	-2754
▁ноо	-2755
▁ход	-2756
▁вакци	-2757
▁улиар	-2758
▁амд	-2759
▁амт	-2760
▁уншиж	-2761
▁чулуу	-2762
▁эргэл	-2763
▁галан	-2764
▁роо	-2765
▁бэлд	-2766
▁дая	-2767
▁дэвш	-2768
▁алсан	-2769
▁хир	-2770
▁ндаж	-2771
▁санг	-2772
▁Өдөр	-2773
АА	-2774
▁Ка	-2775
▁илан	-2776
▁уулг	-2777
▁ээлжи	-2778
▁ап	-2779
▁дайн	-2780
▁өгсгө	-2781
▁өсөөл	-2782
▁дас	-2783
▁рсгал	-2784
▁ям	-2785
et	-2786
▁Ган	-2787
▁ндоо	-2788
▁нсний	-2789
▁мол	-2790
▁нхүү	-2791
▁хүүхэ	-2792
▁өвчин	-2793
▁24	-2794
▁үүлж	-2795
▁гавар	-2796
▁даады	-2797
▁урьдч	-2798
ur	-2799
▁рв	-2800
▁эцс	-2801
▁Го	-2802
▁лөл	-2803
▁рүүл	-2804
▁агийн	-2805
▁эрдэм	-2806
▁вөр	-2807
▁адаад	-2808
▁амаар	-2809
▁2-	-2810
▁онц	-2811
▁алив	-2812
▁үрэл	-2813
▁Хэдий	-2814
▁нот	-2815
▁чир	-2816
▁Ингэх	-2817
сн	-2818
▁илж	-2819
▁ээч	-2820
▁боли	-2821
▁чада	-2822
▁дгала	-2823
▁гш	-2824
▁ing	-2825
▁лев	-2826
▁рио	-2827
▁даяар	-2828
▁Өмнөд	-2829
▁уулан	-2830
▁хаж	-2831
▁рлаа	-2832
▁айшин	-2833
▁буцаа	-2834
▁нш	-2835
▁шө	-2836
▁жуулч	-2837
▁Ихэнх	-2838
▁эргэж	-2839
▁ти	-2840
▁хог	-2841
▁ашаа	-2842
▁нуул	-2843
▁тэл	-2844
▁агуу	-2845
▁эзэн	-2846
▁ынхан	-2847
▁элний	-2848
el	-2849
▁дүүрэ	-2850
▁хөдөө	-2851
▁гээс	-2852
▁Ингэж	-2853
▁эхэлж	-2854
▁воо	-2855
▁мн	-2856
▁эгчд	-2857
▁томил	-2858
▁үйтэй	-2859
▁вх	-2860
▁нийц	-2861
▁рдын	-2862
▁17	-2863
▁нгах	-2864
▁ардал	-2865
▁жилт	-2866
▁дүрэм	-2867
▁тгээд	-2868
ри	-2869
▁бүлг	-2870
▁дний	-2871
▁левиз	-2872
▁усдад	-2873
▁эгээр	-2874
▁16	-2875
▁No	-2876
▁Аль	-2877
▁эвийн	-2878
оло	-2879
▁лсэн	-2880
▁тойр	-2881
▁аашаа	-2882
▁луу	-2883
▁уралд	-2884
ка	-2885
▁оош	-2886
▁хав	-2887
▁өрнө	-2888
▁ъё	-2889
▁Мөнгө	-2890
▁аахан	-2891
▁мба	-2892
▁хүүг	-2893
▁эхийн	-2894
илг	-2895
▁Ме	-2896
▁орчи	-2897
▁оон	-2898
▁үйлдл	-2899
▁мөрөө	-2900
▁үрүүл	-2901
▁агц	-2902
▁уян	-2903
▁уриа	-2904
▁хямд	-2905
▁зориг	-2906
▁урагч	-2907
▁үгээс	-2908
▁өгжим	-2909
▁нал	-2910
▁рөв	-2911
▁багт	-2912
▁эрхий	-2913
▁сг	-2914
▁ардчи	-2915
▁гарна	-2916
▁лгээг	-2917
▁хийгэ	-2918
▁Си	-2919
▁ийх	-2920
▁дааны	-2921
▁өсөлт	-2922
▁ит	-2923
▁рн	-2924
▁сра	-2925
▁тгө	-2926
▁айхан	-2927
▁al	-2928
▁ате	-2929
▁тут	-2930
▁цохи	-2931
▁нийсл	-2932
▁юутан	-2933
▁шар	-2934
▁k	-2935
▁дууг	-2936
▁лимп	-2937
▁тэтгэ	-2938
▁ча	-2939
▁неж	-2940
▁омп	-2941
▁риуц	-2942
▁бүт	-2943
▁орилт	-2944
▁Шу	-2945
▁Үз	-2946
▁хлы	-2947
▁эхлэн	-2948
▁днээс	-2949
▁түүхэ	-2950
▁Өглөө	-2951
▁март	-2952
▁тани	-2953
▁төлөх	-2954
▁АХ	-2955
▁гөл	-2956
▁санд	-2957
▁этгэв	-2958
▁&	-2959
▁Се	-2960
▁огд	-2961
▁снаа	-2962
▁мөч	-2963
▁Дээр	-2964
▁Танд	-2965
▁лчил	-2966
▁длага	-2967
▁нүүрс	-2968
▁эгт	-2969
▁аваа	-2970
▁дагу	-2971
▁Зал	-2972
▁виар	-2973
us	-2974
▁лм	-2975
▁зун	-2976
▁йруул	-2977
▁хувий	-2978
▁төрх	-2979
▁атан	-2980
▁хийн	-2981
▁ихэвч	-2982
▁нэгдү	-2983
▁60	-2984
▁түр	-2985
▁хиж	-2986
▁ршилт	-2987
▁хохир	-2988
▁азар	-2989
▁багас	-2990
▁стра	-2991
оон	-2992
▁Оюун	-2993
▁гдэх	-2994
▁ингэ	-2995
▁Залуу	-2996
▁өрчил	-2997
▁$	-2998
▁изм	-2999
▁тэс	-3000
▁эгэнт	-3001
▁өнгөн	-3002
▁ей	-3003
▁Том	-3004
▁ашг	-3005
▁тны	-3006
▁огоон	-3007
▁атаа	-3008
▁өвчн	-3009
▁өрхөн	-3010
▁кк	-3011
▁үлх	-3012
▁гарц	-3013
▁агаан	-3014
▁ойд	-3015
▁олны	-3016
▁үүлч	-3017
▁албир	-3018
▁уухай	-3019
ub	-3020
▁адтай	-3021
▁эндүү	-3022
▁Аз	-3023
▁Re	-3024
▁Гол	-3025
▁нгли	-3026
▁кон	-3027
▁өрөг	-3028
▁хь	-3029
▁агт	-3030
▁йно	-3031
▁таг	-3032
▁чид	-3033
▁анкны	-3034
▁рих	-3035
▁хөнд	-3036
▁ахаас	-3037
▁Баян	-3038
▁алай	-3039
▁аныг	-3040
▁ланд	-3041
▁мтын	-3042
▁сайды	-3043
▁дны	-3044
▁нгийг	-3045
▁тараа	-3046
эгд	-3047
▁өндөө	-3048
as	-3049
▁баа	-3050
▁рий	-3051
▁хүрт	-3052
▁үрдүү	-3053
▁фи	-3054
▁эрүү	-3055
▁салга	-3056
▁ургаа	-3057
▁анш	-3058
▁лив	-3059
▁ээх	-3060
▁суулг	-3061
▁длууд	-3062
▁үнс	-3063
▁агуул	-3064
▁Уул	-3065
▁бая	-3066
▁лаарх	-3067
▁эрийн	-3068
▁айж	-3069
▁НХА	-3070
▁орши	-3071
▁рла	-3072
▁тоог	-3073
▁Ё	-3074
▁чийн	-3075
▁ел	-3076
▁өртө	-3077
▁элдэг	-3078
▁эч	-3079
▁лагд	-3080
▁эгдэх	-3081
▁лсөн	-3082
▁эхлэ	-3083
▁үүлг	-3084
▁онгу	-3085
▁гдэ	-3086
▁дүг	-3087
▁лар	-3088
▁Боло	-3089
▁отр	-3090
▁бэлг	-3091
▁дийл	-3092
▁лгэр	-3093
▁татах	-3094
▁лзуу	-3095
▁тогтв	-3096
▁шах	-3097
▁мад	-3098
▁1-	-3099
▁нгын	-3100
▁асвар	-3101
▁Төв	-3102
▁айц	-3103
▁рин	-3104
▁лооч	-3105
▁найм	-3106
▁чихсэ	-3107
▁ааа	-3108
▁зав	-3109
ко	-3110
▁ийш	-3111
▁лоор	-3112
▁үйлд	-3113
▁дүүрг	-3114
▁лх	-3115
▁рэнд	-3116
▁тс	-3117
▁одо	-3118
▁ооо	-3119
▁алдах	-3120
▁отроо	-3121
▁нч	-3122
▁эш	-3123
▁бут	-3124
▁элс	-3125
▁анаа	-3126
▁олоо	-3127
▁элтэй	-3128
▁гуа	-3129
▁дөөн	-3130
▁шл	-3131
▁гий	-3132
▁биеэ	-3133
▁гэрлэ	-3134
▁лэгчд	-3135
▁уудал	-3136
▁оп	-3137
▁тго	-3138
▁эмж	-3139
▁гадн	-3140
▁рлын	-3141
▁рөнг	-3142
▁танай	-3143
ет	-3144
▁жиж	-3145
▁сүрэ	-3146
▁=	-3147
▁ашин	-3148
▁сурч	-3149
▁дүгнэ	-3150
▁залга	-3151
▁рчуул	-3152
▁~	-3153
▁лий	-3154
▁түв	-3155
ook	-3156
▁рчны	-3157
▁Тухай	-3158
▁элсэн	-3159
▁линг	-3160
▁хэхэ	-3161
▁үгээ	-3162
▁агдаа	-3163
▁лүү	-3164
▁олт	-3165
▁ци	-3166
▁вэр	-3167
▁шдэ	-3168
▁На	-3169
▁	-3170
а	-3171
э	-3172
н	-3173
г	-3174
л	-3175
р	-3176
д	-3177
о	-3178
х	-3179
й	-3180
и	-3181
у	-3182
ү	-3183
т	-3184
с	-3185
б	-3186
ө	-3187
м	-3188
.	-3189
ж	-3190
в	-3191
ч	-3192
ы	-3193
з	-3194
ь	-3195
ш	-3196
ц	-3197
я	-3198
,	-3199
е	-3200
Т	-3201
-	-3202
Х	-3203
ю	-3204
"	-3205
Б	-3206
Э	-3207
0	-3208
А	-3209
1	-3210
к	-3211
М	-3212
2	-3213
Н	-3214
?	-3215
Г	-3216
У	-3217
ё	-3218
С	-3219
e	-3220
п	-3221
Д	-3222
:	-3223
О	-3224
И	-3225
o	-3226
a	-3227
З	-3228
Ө	-3229
n	-3230
Ү	-3231
i	-3232
3	-3233
r	-3234
5	-3235
t	-3236
9	-3237
s	-3238
4	-3239
!	-3240
Я	-3241
l	-3242
8	-3243
Ш	-3244
Е	-3245
6	-3246
7	-3247
Ц	-3248
)	-3249
u	-3250
Ч	-3251
v	-3252
Ж	-3253
К	-3254
ф	-3255
(	-3256
Л	-3257
m	-3258
c	-3259
d	-3260
/	-3261
Р	-3262
S	-3263
h	-3264
p	-3265
g	-3266
M	-3267
A	-3268
y	-3269
P	-3270
I	-3271
П	-3272
C	-3273
В	-3274
b	-3275
N	-3276
T	-3277
D	-3278
k	-3279
є	-3280
E	-3281
B	-3282
w	-3283
O	-3284
Ф	-3285
_	-3286
ъ	-3287
R	-3288
Й	-3289
G	-3290
L	-3291
f	-3292
F	-3293
H	-3294
;	-3295
*	-3296
x	-3297
Ю	-3298
W	-3299
[	-3300
]	-3301
#	-3302
U	-3303
V	-3304
%	-3305
·	-3306
'	-3307
Y	-3308
J	-3309
•	-3310
X	-3311
>	-3312
ѳ	-3313
K	-3314
z	-3315
|	-3316
$	-3317
j	-3318
Ё	-3319
Ы	-3320
ї	-3321
&	-3322
+	-3323
=	-3324
~	-3325
Z	-3326
<	-3327
Q	-3328
Ь	-3329
q	-3330
^	-3331
@	-3332
→	-3333
ђ	-3334
щ	-3335
һ	-3336
î	-3337
Є	-3338
₮	-3339
🙂	-3340
️	-3341
ҕ	-3342
ҥ	-3343
°	-3344
←	-3345
{	-3346
ا	-3347
à	-3348
′	-3349
}	-3350
ý	-3351
ر	-3352
€	-3353
ü	-3354
¬	-3355
\	-3356
é	-3357
í	-3358
●	-3359
ә	-3360
ë	-3361
ñ	-3362
ѐ	-3363
¿	-3364
ò	-3365
ل	-3366
›	-3367
😀	-3368
â	-3369
©	-3370
Ъ	-3371
↑	-3372
è	-3373
س	-3374
►	-3375
ã	-3376
Ѳ	-3377
ة	-3378
ك	-3379
❤	-3380
ح	-3381
Í	-3382
®	-3383
ä	-3384
₪	-3385
ð	-3386
ج	-3387
́	-3388
√	-3389
£	-3390
♥	-3391
✅	-3392
😉	-3393
Ї	-3394
🎁	-3395
✔	-3396
õ	-3397
い	-3398
á	-3399
☮	-3400
♛	-3401
ó	-3402
Щ	-3403
ᄏ	-3404
★	-3405
😛	-3406
な	-3407
ö	-3408
ん	-3409
Џ	-3410
ѕ	-3411
م	-3412
时	-3413
し	-3414
ў	-3415
の	-3416
・	-3417
ي	-3418
≤	-3419
☞	-3420
す	-3421
×	-3422
ң	-3423
ı	-3424
😍	-3425
🙏	-3426
ì	-3427
ā	-3428
і	-3429
⁄	-3430
÷	-3431
μ	-3432
ま	-3433
る	-3434
😭	-3435
Ø	-3436
Ќ	-3437
う	-3438
て	-3439
😂	-3440
😅	-3441
§	-3442
ћ	-3443
қ	-3444
に	-3445
이	-3446
🔊	-3447
🔥	-3448
😊	-3449
ï	-3450
ø	-3451
җ	-3452
ᅲ	-3453
ế	-3454
≈	-3455
】	-3456
名	-3457
û	-3458
̄	-3459
ن	-3460
♦	-3461
♪	-3462
✿	-3463
【	-3464
そ	-3465
で	-3466
ら	-3467
±	-3468
ç	-3469
ɵ	-3470
Ў	-3471
ќ	-3472
※	-3473
「	-3474
か	-3475
歌	-3476
æ	-3477
ə	-3478
α	-3479
І	-3480
ع	-3481
و	-3482
♫	-3483
あ	-3484
く	-3485
こ	-3486
た	-3487
彩	-3488
曲	-3489
称	-3490
요	-3491
🏻	-3492
¥	-3493
̈	-3494
γ	-3495
د	-3496
⭐	-3497
」	-3498
と	-3499
よ	-3500
り	-3501
れ	-3502
ー	-3503
👉	-3504
👏	-3505
💵	-3506
🤗	-3507
🤣	-3508
🤩	-3509
Õ	-3510
ş	-3511
‐	-3512
↓	-3513
↙	-3514
✓	-3515
。	-3516
が	-3517
だ	-3518
は	-3519
を	-3520
国	-3521
나	-3522
😦	-3523
😱	-3524
Á	-3525
Ü	-3526
š	-3527
ه	-3528
†	-3529
−	-3530
⋆	-3531
☈	-3532
♚	-3533
お	-3534
き	-3535
っ	-3536
も	-3537
ン	-3538
学	-3539
書	-3540
어	-3541
유	-3542
👍	-3543
📌	-3544
😢	-3545
¦	-3546
Ş	-3547
ƒ	-3548
ɪ	-3549
Ћ	-3550
ո	-3551
י	-3552
ר	-3553
ف	-3554
ᄂ	-3555
■	-3556
◆	-3557
○	-3558
☺	-3559
♡	-3560
け	-3561
ば	-3562
日	-3563
기	-3564
리	-3565
💯	-3566
¢	-3567
Ç	-3568
É	-3569
ư	-3570
ˈ	-3571
̷	-3572
β	-3573
ι	-3574
π	-3575
ұ	-3576
ն	-3577
א	-3578
ی	-3579
ᄅ	-3580
ᠠ	-3581
ᠢ	-3582
ớ	-3583
≥	-3584
▪	-3585
☆	-3586
✨	-3587
➜	-3588
➡	-3589
、	-3590
さ	-3591
せ	-3592
ち	-3593
つ	-3594
め	-3595
わ	-3596
ル	-3597
人	-3598
会	-3599
時	-3600
楽	-3601
김	-3602
니	-3603
다	-3604
¤	-3605
Ò	-3606
ß	-3607
ο	-3608
џ	-3609
ґ	-3610
Һ	-3611
ա	-3612
ե	-3613
մ	-3614
ط	-3615
غ	-3616
ᠳ	-3617
―	-3618
‹	-3619
⃣	-3620
∞	-3621
▲	-3622
◊	-3623
☀	-3624
♀	-3625
ご	-3626
じ	-3627
一	-3628
古	-3629
図	-3630
愛	-3631
江	-3632
済	-3633
経	-3634
蒙	-3635
行	-3636
表	-3637
路	-3638
返	-3639
部	-3640
際	-3641
말	-3642
배	-3643
사	-3644
서	-3645
정	-3646
지	-3647
하	-3648
🔴	-3649
😁	-3650
😘	-3651
À	-3652
Ã	-3653
Ë	-3654
Ñ	-3655
Ý	-3656
ú	-3657
İ	-3658
ō	-3659
ω	-3660
Ѕ	-3661
ғ	-3662
ל	-3663
ب	-3664
ق	-3665
ہ	-3666
ค	-3667
᠋	-3668
ᠨ	-3669
ᠷ	-3670
₩	-3671
▼	-3672
☛	-3673
☻	-3674
♂	-3675
え	-3676
げ	-3677
ょ	-3678
ㄟ	-3679
中	-3680
台	-3681
平	-3682
文	-3683
月	-3684
本	-3685
語	-3686
間	-3687
내	-3688
대	-3689
비	-3690
세	-3691
아	-3692
영	-3693
원	-3694
저	-3695
제	-3696
한	-3697
🇷	-3698
🌟	-3699
👩	-3700
💎	-3701
💥	-3702
📍	-3703
😃	-3704
😆	-3705
😇	-3706
😜	-3707
😝	-3708
🥳	-3709
Ä	-3710
Ð	-3711
Ö	-3712
å	-3713
ê	-3714
ô	-3715
þ	-3716
Ā	-3717
č	-3718
ī	-3719
Œ	-3720
ʀ	-3721
̀	-3722
Δ	-3723
ί	-3724
θ	-3725
λ	-3726
σ	-3727
ѓ	-3728
Ҥ	-3729
Ӏ	-3730
ӈ	-3731
ӓ	-3732
ӧ	-3733
ӱ	-3734
ս	-3735
տ	-3736
ւ	-3737
ք	-3738
נ	-3739
ע	-3740
أ	-3741
ش	-3742
ى	-3743
ন	-3744
ਰ	-3745
க	-3746
ง	-3747
น	-3748
ม	-3749
ย	-3750
โ	-3751
่	-3752
ᠡ	-3753
ᠦ	-3754
ᴇ	-3755
ḥ	-3756
ṭ	-3757
‖	-3758
∙	-3759
◦	-3760
☎	-3761
⚡	-3762
⚫	-3763
❗	-3764
➢	-3765
⦁	-3766
《	-3767
》	-3768
〓	-3769
ざ	-3770
ど	-3771
ひ	-3772
み	-3773
ゃ	-3774
や	-3775
キ	-3776
ゴ	-3777
シ	-3778
ナ	-3779
フ	-3780
モ	-3781
リ	-3782
上	-3783
下	-3784
件	-3785
信	-3786
出	-3787
天	-3788
子	-3789
我	-3790
法	-3791
版	-3792
现	-3793
的	-3794
自	-3795
软	-3796
达	-3797
通	-3798
音	-3799
高	-3800
경	-3801
구	-3802
국	-3803
뉴	-3804
는	-3805
라	-3806
로	-3807
바	-3808
법	-3809
부	-3810
수	-3811
스	-3812
신	-3813
야	-3814
오	-3815
우	-3816
의	-3817
인	-3818
자	-3819
장	-3820
주	-3821
태	-3822
토	-3823
티	-3824
함	-3825
해	-3826
현	-3827
횊	-3828
회	-3829
후	-3830
︎	-3831
🌈	-3832
🍷	-3833
🎯	-3834
🏠	-3835
👎	-3836
👨	-3837
💚	-3838
💜	-3839
💫	-3840
💰	-3841
🔬	-3842
🔰	-3843
🚗	-3844
🤑	-3845
🤘	-3846
🤟	-3847
🤮	-3848
🥇	-3849
Æ	-3850
È	-3851
ÿ	-3852
ć	-3853
Č	-3854
đ	-3855
ĕ	-3856
ė	-3857
ğ	-3858
Ł	-3859
ł	-3860
ń	-3861
ś	-3862
ū	-3863
ǿ	-3864
ɐ	-3865
ʜ	-3866
ˌ	-3867
̌	-3868
͜	-3869
Ω	-3870
δ	-3871
ε	-3872
κ	-3873
ν	-3874
ρ	-3875
ς	-3876
φ	-3877
ј	-3878
њ	-3879
Ґ	-3880
Ҳ	-3881
ҳ	-3882
ӣ	-3883
կ	-3884
ղ	-3885
ր	-3886
ב	-3887
ג	-3888
ה	-3889
ו	-3890
ת	-3891
ت	-3892
خ	-3893
ذ	-3894
ص	-3895
ک	-3896
क	-3897
ब	-3898
ल	-3899
ा	-3900
া	-3901
ু	-3902
্	-3903
ਟ	-3904
ਪ	-3905
ਸ	-3906
ก	-3907
ซ	-3908
ด	-3909
ล	-3910
ส	-3911
อ	-3912
ิ	-3913
ี	-3914
เ	-3915
ใ	-3916
้	-3917
྆	-3918
န	-3919
မ	-3920
့	-3921
း	-3922
ᄀ	-3923
ᆞ	-3924
ᠥ	-3925
ᠬ	-3926
ᠭ	-3927
ᠮ	-3928
ᠶ	-3929
ᵴ	-3930
ḍ	-3931
ṅ	-3932
ṇ	-3933
‣	-3934
‰	-3935
₽	-3936
↔	-3937
⇒	-3938
⇨	-3939
∂	-3940
∆	-3941
≠	-3942
⎪	-3943
⏱	-3944
│	-3945
█	-3946
□	-3947
▶	-3948
☹	-3949
♏	-3950
♔	-3951
♠	-3952
⚽	-3953
✈	-3954
❀	-3955
❄	-3956
❷	-3957
❹	-3958
❼	-3959
⠀	-3960
ぐ	-3961
ぶ	-3962
ゅ	-3963
ろ	-3964
イ	-3965
ウ	-3966
ギ	-3967
ク	-3968
コ	-3969
サ	-3970
ソ	-3971
ダ	-3972
ド	-3973
ブ	-3974
ャ	-3975
ョ	-3976
ㄍ	-3977
ㄎ	-3978
ㄨ	-3979
世	-3980
业	-3981
个	-3982
交	-3983
介	-3984
仔	-3985
代	-3986
们	-3987
住	-3988
作	-3989
便	-3990
内	-3991
分	-3992
十	-3993
南	-3994
号	-3995
合	-3996
品	-3997
商	-3998
回	-3999
団	-4000
图	-4001
地	-4002
基	-4003
変	-4004
夢	-4005
安	-4006
展	-4007
山	-4008
形	-4009
後	-4010
御	-4011
手	-4012
族	-4013
是	-4014
曜	-4015
李	-4016
松	-4017
止	-4018
気	-4019
水	-4020
流	-4021
点	-4022
理	-4023
生	-4024
用	-4025
田	-4026
発	-4027
皇	-4028
社	-4029
简	-4030
管	-4031
紀	-4032
線	-4033
网	-4034
美	-4035
翻	-4036
者	-4037
聲	-4038
胡	-4039
解	-4040
言	-4041
証	-4042
話	-4043
誌	-4044
译	-4045
请	-4046
责	-4047
身	-4048
載	-4049
近	-4050
達	-4051
重	-4052
金	-4053
鈴	-4054
门	-4055
革	-4056
類	-4057
麦	-4058
黑	-4059
龙	-4060
꧁	-4061
게	-4062
고	-4063
권	-4064
규	-4065
남	-4066
너	-4067
노	-4068
도	-4069
동	-4070
루	-4071
르	-4072
린	-4073
무	-4074
미	-4075
민	-4076
보	-4077
브	-4078
새	-4079
선	-4080
시	-4081
안	-4082
알	-4083
없	-4084
역	-4085
연	-4086
예	-4087
올	-4088
으	-4089
은	-4090
을	-4091
전	-4092
즈	-4093
직	-4094
창	-4095
초	-4096
최	-4097
크	-4098
통	-4099
튜	-4100
트	-4101
화	-4102
훈	-4103
희	-4104
🇰	-4105
🇲	-4106
🇺	-4107
🌙	-4108
🌱	-4109
🌸	-4110
🎧	-4111
👀	-4112
👐	-4113
👷	-4114
💁	-4115
💃	-4116
💅	-4117
💙	-4118
📎	-4119
🔅	-4120
🔌	-4121
🔑	-4122
🔵	-4123
🔶	-4124
🔸	-4125
🗃	-4126
😋	-4127
😎	-4128
😓	-4129
😔	-4130
🙁	-4131
🙃	-4132
🙌	-4133
🚫	-4134
🛫	-4135
🤔	-4136
🤪	-4137
🥰	-4138
🥺	-4139
🦉	-4140
🦸	-4141
¶	-4142
Â	-4143
Ê	-4144
Ì	-4145
Î	-4146
Ô	-4147
ă	-4148
ē	-4149
Ė	-4150
ę	-4151
ě	-4152
Į	-4153
ĸ	-4154
ľ	-4155
ň	-4156
œ	-4157
ř	-4158
ť	-4159
ŧ	-4160
ů	-4161
Ž	-4162
Ɗ	-4163
ǎ	-4164
ǐ	-4165
ɇ	-4166
ɑ	-4167
ɲ	-4168
ɴ	-4169
ʏ	-4170
ʟ	-4171
ː	-4172
˗	-4173
̵	-4174
̸	-4175
͞	-4176
Η	-4177
Κ	-4178
Μ	-4179
Ο	-4180
Τ	-4181
Φ	-4182
Ψ	-4183
ά	-4184
ή	-4185
η	-4186
τ	-4187
υ	-4188
ό	-4189
ύ	-4190
ώ	-4191
Ђ	-4192
҉	-4193
Җ	-4194
Қ	-4195
ҡ	-4196
Ң	-4197
Ұ	-4198
ҷ	-4199
ӄ	-4200
Ӈ	-4201
ӑ	-4202
Ә	-4203
ӝ	-4204
ӯ	-4205
Ա	-4206
Գ	-4207
Ե	-4208
Ո	-4209
դ	-4210
զ	-4211
ը	-4212
ի	-4213
լ	-4214
խ	-4215
յ	-4216
չ	-4217
վ	-4218
ց	-4219
ז	-4220
ט	-4221
מ	-4222
פ	-4223
،	-4224
؟	-4225
إ	-4226
ز	-4227
ض	-4228
َ	-4229
ۇ	-4230
ە	-4231
ं	-4232
इ	-4233
ए	-4234
ज	-4235
र	-4236
़	-4237
ि	-4238
ै	-4239
१	-4240
४	-4241
७	-4242
९	-4243
অ	-4244
ই	-4245
ক	-4246
চ	-4247
ত	-4248
দ	-4249
ব	-4250
র	-4251
ি	-4252
ে	-4253
ਂ	-4254
ਕ	-4255
ਮ	-4256
ਹ	-4257
ਾ	-4258
ਿ	-4259
ੀ	-4260
ੂ	-4261
ੈ	-4262
ੌ	-4263
ட	-4264
ழ	-4265
ா	-4266
ி	-4267
ூ	-4268
ை	-4269
்	-4270
ೋ	-4271
จ	-4272
ต	-4273
ท	-4274
ฝ	-4275
พ	-4276
ฟ	-4277
ภ	-4278
ว	-4279
ษ	-4280
ห	-4281
ฬ	-4282
ั	-4283
า	-4284
ึ	-4285
แ	-4286
ไ	-4287
์	-4288
࿐	-4289
တ	-4290
လ	-4291
သ	-4292
ဦ	-4293
ိ	-4294
ု	-4295
ေ	-4296
္	-4297
်	-4298
ြ	-4299
၊	-4300
ᄆ	-4301
ᄇ	-4302
ᄋ	-4303
ᄒ	-4304
ᅮ	-4305
ᅳ	-4306
ᅵ	-4307
ᐉ	-4308
ᠤ	-4309
ᠫ	-4310
ᠯ	-4311
ᠰ	-4312
ᠱ	-4313
ᠴ	-4314
ᠵ	-4315
ᠹ	-4316
ᠻ	-4317
ᠼ	-4318
᭄	-4319
ᴀ	-4320
ᴄ	-4321
ᴍ	-4322
ᴜ	-4323
ᴠ	-4324
ᵯ	-4325
ṃ	-4326
ẙ	-4327
ầ	-4328
ắ	-4329
ằ	-4330
ễ	-4331
ờ	-4332
ἰ	-4333
‡	-4334
₹	-4335
↖	-4336
↳	-4337
∈	-4338
≫	-4339
⋯	-4340
⌚	-4341
╒	-4342
╘	-4343
╟	-4344
╢	-4345
▍	-4346
▨	-4347
◇	-4348
☂	-4349
☑	-4350
☔	-4351
☕	-4352
☘	-4353
☝	-4354
☤	-4355
♣	-4356
♻	-4357
⚃	-4358
⚕	-4359
⚙	-4360
⚠	-4361
✌	-4362
✍	-4363
✞	-4364
✯	-4365
❂	-4366
❃	-4367
❏	-4368
❖	-4369
➥	-4370
➳	-4371
⿱	-4372
『	-4373
』	-4374
ぎ	-4375
ぬ	-4376
べ	-4377
ほ	-4378
ゆ	-4379
ィ	-4380
カ	-4381
ガ	-4382
ゲ	-4383
ジ	-4384
セ	-4385
ゼ	-4386
タ	-4387
チ	-4388
ツ	-4389
ヅ	-4390
デ	-4391
ニ	-4392
ハ	-4393
バ	-4394
ヒ	-4395
ビ	-4396
ベ	-4397
ペ	-4398
マ	-4399
ミ	-4400
ム	-4401
ラ	-4402
七	-4403
万	-4404
三	-4405
不	-4406
么	-4407
乐	-4408
也	-4409
二	-4410
云	-4411
互	-4412
京	-4413
今	-4414
他	-4415
付	-4416
任	-4417
企	-4418
伊	-4419
休	-4420
众	-4421
位	-4422
何	-4423
你	-4424
使	-4425
係	-4426
保	-4427
修	-4428
俺	-4429
們	-4430
停	-4431
健	-4432
側	-4433
僕	-4434
優	-4435
儿	-4436
元	-4437
光	-4438
克	-4439
免	-4440
八	-4441
公	-4442
册	-4443
再	-4444
冯	-4445
划	-4446
別	-4447
前	-4448
势	-4449
動	-4450
勖	-4451
務	-4452
勧	-4453
包	-4454
化	-4455
北	-4456
医	-4457
午	-4458
华	-4459
博	-4460
卡	-4461
参	-4462
叫	-4463
召	-4464
向	-4465
吗	-4466
君	-4467
员	-4468
周	-4469
味	-4470
命	-4471
和	-4472
唐	-4473
售	-4474
唱	-4475
問	-4476
喵	-4477
器	-4478
國	-4479
圖	-4480
址	-4481
型	-4482
場	-4483
塑	-4484
塚	-4485
士	-4486
声	-4487
夂	-4488
夕	-4489
夜	-4490
太	-4491
奇	-4492
奋	-4493
好	-4494
妹	-4495
委	-4496
姿	-4497
娱	-4498
字	-4499
宅	-4500
宗	-4501
定	-4502
室	-4503
宽	-4504
密	-4505
导	-4506
小	-4507
少	-4508
局	-4509
属	-4510
履	-4511
岩	-4512
峮	-4513
州	-4514
巡	-4515
巣	-4516
工	-4517
帝	-4518
带	-4519
帮	-4520
帯	-4521
年	-4522
庆	-4523
府	-4524
康	-4525
建	-4526
开	-4527
异	-4528
弦	-4529
当	-4530
录	-4531
心	-4532
必	-4533
志	-4534
忘	-4535
忙	-4536
快	-4537
怎	-4538
恩	-4539
悔	-4540
您	-4541
悲	-4542
情	-4543
意	-4544
憎	-4545
戒	-4546
戰	-4547
戸	-4548
打	-4549
払	-4550
抢	-4551
拶	-4552
指	-4553
挨	-4554
探	-4555
掲	-4556
提	-4557
改	-4558
故	-4559
斗	-4560
斥	-4561
斯	-4562
新	-4563
早	-4564
昌	-4565
星	-4566
昴	-4567
普	-4568
暲	-4569
更	-4570
會	-4571
有	-4572
望	-4573
朝	-4574
机	-4575
村	-4576
林	-4577
査	-4578
株	-4579
格	-4580
椰	-4581
楫	-4582
業	-4583
概	-4584
構	-4585
横	-4586
機	-4587
歳	-4588
残	-4589
毛	-4590
民	-4591
气	-4592
永	-4593
沖	-4594
没	-4595
河	-4596
治	-4597
沿	-4598
注	-4599
泰	-4600
洛	-4601
洞	-4602
浙	-4603
浜	-4604
淮	-4605
渡	-4606
湖	-4607
漏	-4608
演	-4609
照	-4610
燼	-4611
牛	-4612
特	-4613
玉	-4614
甘	-4615
町	-4616
画	-4617
留	-4618
登	-4619
百	-4620
盘	-4621
眉	-4622
码	-4623
破	-4624
礦	-4625
祉	-4626
祐	-4627
神	-4628
福	-4629
离	-4630
私	-4631
秘	-4632
稳	-4633
站	-4634
等	-4635
米	-4636
糞	-4637
紇	-4638
給	-4639
红	-4640
线	-4641
考	-4642
能	-4643
腕	-4644
臨	-4645
舞	-4646
航	-4647
良	-4648
華	-4649
葵	-4650
藏	-4651
藤	-4652
蘭	-4653
蛋	-4654
蠟	-4655
衛	-4656
袖	-4657
裏	-4658
製	-4659
西	-4660
要	-4661
見	-4662
視	-4663
親	-4664
见	-4665
誉	-4666
説	-4667
諸	-4668
識	-4669
讃	-4670
计	-4671
让	-4672
记	-4673
语	-4674
读	-4675
课	-4676
豚	-4677
象	-4678
貸	-4679
費	-4680
賃	-4681
資	-4682
賞	-4683
趋	-4684
車	-4685
軒	-4686
輝	-4687
载	-4688
辉	-4689
输	-4690
辺	-4691
込	-4692
运	-4693
还	-4694
迴	-4695
迹	-4696
送	-4697
逢	-4698
連	-4699
進	-4700
過	-4701
選	-4702
郑	-4703
都	-4704
配	-4705
里	-4706
鑑	-4707
钱	-4708
银	-4709
镇	-4710
长	-4711
関	-4712
问	-4713
间	-4714
阒	-4715
际	-4716
陝	-4717
险	-4718
陳	-4719
随	-4720
雑	-4721
電	-4722
面	-4723
韬	-4724
響	-4725
題	-4726
颚	-4727
駅	-4728
马	-4729
鵬	-4730
黄	-4731
龶	-4732
꧂	-4733
가	-4734
갑	-4735
갤	-4736
거	-4737
걸	-4738
것	-4739
겠	-4740
격	-4741
계	-4742
골	-4743
공	-4744
과	-4745
관	-4746
교	-4747
굴	-4748
긋	-4749
긱	-4750
끼	-4751
단	-4752
달	-4753
답	-4754
더	-4755
돈	-4756
둥	-4757
딩	-4758
떻	-4759
또	-4760
뚜	-4761
뚝	-4762
랑	-4763
래	-4764
랫	-4765
러	-4766
렘	-4767
려	-4768
룬	-4769
룰	-4770
류	-4771
를	-4772
림	-4773
릿	-4774
마	-4775
만	-4776
매	-4777
먹	-4778
메	-4779
며	-4780
명	-4781
모	-4782
몽	-4783
문	-4784
뭘	-4785
뮤	-4786
반	-4787
밥	-4788
백	-4789
밴	-4790
버	-4791
번	-4792
베	-4793
벼	-4794
변	-4795
병	-4796
불	-4797
뷔	-4798
븐	-4799
블	-4800
빈	-4801
뻐	-4802
뿌	-4803
상	-4804
생	-4805
석	-4806
설	-4807
섭	-4808
성	-4809
송	-4810
숙	-4811
슨	-4812
습	-4813
승	-4814
식	-4815
실	-4816
싼	-4817
쌍	-4818
양	-4819
업	-4820
에	-4821
엘	-4822
엥	-4823
여	-4824
열	-4825
옷	-4826
와	-4827
왔	-4828
외	-4829
용	-4830
울	-4831
웆	-4832
워	-4833
월	-4834
윤	-4835
율	-4836
응	-4837
일	-4838
있	-4839
잘	-4840
재	-4841
적	-4842
조	-4843
죄	-4844
죻	-4845
진	-4846
짓	-4847
짱	-4848
찌	-4849
찡	-4850
차	-4851
찾	-4852
채	-4853
청	-4854
체	-4855
침	-4856
칩	-4857
칫	-4858
카	-4859
커	-4860
케	-4861
코	-4862
콕	-4863
콧	-4864
키	-4865
탄	-4866
탓	-4867
탠	-4868
터	-4869
틴	-4870
팅	-4871
팝	-4872
퍼	-4873
펄	-4874
평	-4875
폰	-4876
푸	-4877
플	-4878
픽	-4879
학	-4880
항	-4881
햄	-4882
혀	-4883
혜	-4884
호	-4885
홈	-4886
홍	-4887
횒	-4888
횗	-4889
횜	-4890
흐	-4891
흥	-4892
￼	-4893
𖢘	-4894
🆕	-4895
🇫	-4896
🇳	-4897
🇸	-4898
🇽	-4899
🌃	-4900
🌄	-4901
🌅	-4902
🌍	-4903
🌐	-4904
🌡	-4905
🌳	-4906
🌻	-4907
🍀	-4908
🍁	-4909
🍇	-4910
🍑	-4911
🍞	-4912
🍩	-4913
🍯	-4914
🍰	-4915
🍱	-4916
🍹	-4917
🍽	-4918
🍾	-4919
🎀	-4920
🎄	-4921
🎬	-4922
🎶	-4923
🏆	-4924
🏋	-4925
🏣	-4926
🏦	-4927
🏼	-4928
👑	-4929
👦	-4930
👧	-4931
👽	-4932
💀	-4933
💉	-4934
💋	-4935
💐	-4936
💔	-4937
💕	-4938
💝	-4939
💡	-4940
💢	-4941
💩	-4942
💪	-4943
💸	-4944
💻	-4945
💼	-4946
📁	-4947
📅	-4948
📕	-4949
📖	-4950
📞	-4951
📣	-4952
📦	-4953
📱	-4954
📲	-4955
📷	-4956
🔄	-4957
🔹	-4958
🕑	-4959
🕘	-4960
🕯	-4961
🖐	-4962
🖤	-4963
🗓	-4964
😄	-4965
😈	-4966
😐	-4967
😑	-4968
😡	-4969
😥	-4970
😩	-4971
😫	-4972
😮	-4973
😰	-4974
😲	-4975
😶	-4976
😷	-4977
🙆	-4978
🙋	-4979
🙎	-4980
🚀	-4981
🚘	-4982
🚩	-4983
🛍	-4984
🛑	-4985
🛒	-4986
🛡	-4987
🤍	-4988
🤓	-4989
🤡	-4990
🤫	-4991
🥄	-4992
🦊	-4993
🦋	-4994
🧤	-4995
🧨	-4996
